<unk>	0
<s>	0
</s>	0
▁t	-0
he	-1
▁a	-2
in	-3
▁o	-4
▁the	-5
re	-6
on	-7
▁s	-8
er	-9
at	-10
en	-11
▁.	-12
is	-13
▁of	-14
▁,	-15
nd	-16
▁w	-17
▁c	-18
it	-19
▁p	-20
es	-21
▁b	-22
al	-23
ed	-24
an	-25
or	-26
▁in	-27
▁f	-28
ion	-29
ar	-30
ou	-31
ing	-32
▁to	-33
▁m	-34
▁and	-35
ic	-36
▁d	-37
as	-38
▁h	-39
ent	-40
le	-41
ro	-42
▁th	-43
ct	-44
▁T	-45
▁I	-46
▁re	-47
▁n	-48
▁e	-49
os	-50
om	-51
▁be	-52
▁l	-53
il	-54
▁S	-55
ve	-56
▁A	-57
▁is	-58
ation	-59
us	-60
ut	-61
ot	-62
▁g	-63
ap	-64
ce	-65
id	-66
im	-67
▁C	-68
ur	-69
▁&	-70
ly	-71
▁for	-72
ad	-73
am	-74
▁The	-75
et	-76
▁on	-77
▁P	-78
ver	-79
▁-	-80
ol	-81
ch	-82
ay	-83
ment	-84
▁or	-85
ig	-86
st	-87
ow	-88
▁that	-89
ir	-90
▁M	-91
▁as	-92
▁pro	-93
el	-94
ul	-95
▁wh	-96
▁con	-97
▁B	-98
▁an	-99
her	-100
apos	-101
▁st	-102
▁it	-103
▁1	-104
ith	-105
▁u	-106
ter	-107
ri	-108
ab	-109
▁al	-110
ate	-111
ect	-112
▁y	-113
ess	-114
▁de	-115
ra	-116
▁H	-117
▁with	-118
if	-119
▁su	-120
ge	-121
▁R	-122
▁by	-123
res	-124
▁he	-125
▁)	-126
▁(	-127
ers	-128
ist	-129
▁was	-130
od	-131
▁are	-132
▁D	-133
our	-134
qu	-135
ld	-136
▁com	-137
ity	-138
ak	-139
▁not	-140
▁v	-141
op	-142
▁ex	-143
▁G	-144
and	-145
em	-146
ill	-147
ere	-148
nt	-149
▁N	-150
iv	-151
ain	-152
est	-153
se	-154
ci	-155
um	-156
▁sh	-157
ant	-158
▁at	-159
ive	-160
▁r	-161
▁W	-162
▁this	-163
ort	-164
▁Ind	-165
ave	-166
ich	-167
art	-168
pp	-169
rom	-170
▁2	-171
ht	-172
ia	-173
▁E	-174
ies	-175
ore	-176
ure	-177
▁which	-178
▁L	-179
end	-180
ac	-181
▁se	-182
▁from	-183
ud	-184
un	-185
all	-186
▁has	-187
▁have	-188
▁O	-189
th	-190
ust	-191
▁F	-192
▁ne	-193
ould	-194
▁In	-195
▁his	-196
▁k	-197
▁le	-198
ous	-199
▁ch	-200
▁:	-201
ther	-202
ard	-203
▁you	-204
ions	-205
ind	-206
▁we	-207
▁sp	-208
▁wor	-209
cc	-210
ag	-211
▁K	-212
▁all	-213
ome	-214
age	-215
▁int	-216
ated	-217
ight	-218
▁im	-219
ry	-220
▁India	-221
ance	-222
pt	-223
red	-224
ount	-225
▁comp	-226
▁so	-227
able	-228
▁pl	-229
ice	-230
▁j	-231
ans	-232
▁can	-233
ff	-234
▁us	-235
▁J	-236
▁ad	-237
ary	-238
rou	-239
nder	-240
ence	-241
▁ab	-242
so	-243
▁go	-244
ical	-245
▁U	-246
hi	-247
▁any	-248
ong	-249
av	-250
ear	-251
▁/	-252
▁en	-253
▁19	-254
ast	-255
▁whe	-256
oc	-257
▁app	-258
ult	-259
▁Th	-260
▁res	-261
▁cont	-262
▁dis	-263
ep	-264
ru	-265
og	-266
▁me	-267
▁un	-268
▁per	-269
▁other	-270
▁It	-271
pl	-272
▁under	-273
ell	-274
ction	-275
per	-276
ide	-277
▁its	-278
ial	-279
▁their	-280
▁will	-281
▁man	-282
▁been	-283
ish	-284
▁inc	-285
ost	-286
out	-287
▁one	-288
ame	-289
du	-290
▁part	-291
gh	-292
ations	-293
▁St	-294
vel	-295
▁;	-296
▁ag	-297
ub	-298
ie	-299
ok	-300
▁also	-301
ine	-302
ik	-303
ase	-304
ress	-305
▁tr	-306
ib	-307
iz	-308
▁had	-309
▁do	-310
ime	-311
orm	-312
▁there	-313
ang	-314
vern	-315
act	-316
▁who	-317
▁V	-318
ection	-319
▁imp	-320
▁up	-321
rit	-322
▁cl	-323
▁ar	-324
▁out	-325
▁but	-326
very	-327
lic	-328
ian	-329
are	-330
ail	-331
00	-332
ual	-333
▁were	-334
ire	-335
▁”	-336
ition	-337
▁3	-338
ose	-339
cial	-340
▁He	-341
ach	-342
▁such	-343
one	-344
▁ind	-345
▁am	-346
▁pe	-347
▁sub	-348
▁prov	-349
ade	-350
▁“	-351
▁year	-352
ake	-353
ass	-354
ue	-355
▁they	-356
▁acc	-357
▁comm	-358
ourt	-359
aw	-360
erv	-361
▁Ch	-362
▁our	-363
ber	-364
ident	-365
▁may	-366
▁rel	-367
ign	-368
ord	-369
▁them	-370
ater	-371
aus	-372
ace	-373
ree	-374
ec	-375
vernment	-376
▁Go	-377
ory	-378
ational	-379
ens	-380
▁off	-381
▁Com	-382
ious	-383
ution	-384
▁qu	-385
ee	-386
now	-387
▁no	-388
▁time	-389
stit	-390
erson	-391
▁This	-392
▁pre	-393
▁?	-394
ric	-395
ings	-396
▁cons	-397
iss	-398
ities	-399
▁ev	-400
form	-401
▁work	-402
ces	-403
▁him	-404
tern	-405
ike	-406
aid	-407
ople	-408
▁tw	-409
ah	-410
▁te	-411
reat	-412
ack	-413
ove	-414
▁po	-415
▁pr	-416
▁more	-417
hed	-418
▁bec	-419
▁should	-420
rib	-421
▁person	-422
▁would	-423
itt	-424
▁rec	-425
▁Y	-426
▁count	-427
▁reg	-428
▁%	-429
▁em	-430
▁As	-431
aj	-432
ays	-433
fter	-434
▁people	-435
▁only	-436
low	-437
▁Act	-438
ject	-439
int	-440
▁act	-441
ath	-442
ip	-443
ild	-444
ause	-445
▁if	-446
velop	-447
▁pol	-448
▁ass	-449
▁some	-450
pe	-451
▁about	-452
▁know	-453
▁like	-454
▁into	-455
ments	-456
ite	-457
ound	-458
▁exp	-459
oy	-460
▁new	-461
ook	-462
elf	-463
ied	-464
ates	-465
fere	-466
▁over	-467
ile	-468
cess	-469
▁sc	-470
lect	-471
ond	-472
ank	-473
row	-474
ise	-475
▁form	-476
amp	-477
▁4	-478
▁these	-479
▁Sh	-480
▁your	-481
ark	-482
fore	-483
ife	-484
▁when	-485
ced	-486
gr	-487
▁Comm	-488
vers	-489
▁made	-490
▁two	-491
▁dec	-492
ert	-493
ific	-494
▁sy	-495
me	-496
▁Con	-497
ng	-498
▁pres	-499
▁Pro	-500
▁’	-501
▁shall	-502
▁Court	-503
▁5	-504
ll	-505
▁her	-506
igh	-507
▁Government	-508
▁ob	-509
▁fe	-510
▁ro	-511
▁Indian	-512
ood	-513
ative	-514
old	-515
01	-516
▁fir	-517
▁ac	-518
ally	-519
erm	-520
▁resp	-521
ublic	-522
ism	-523
▁than	-524
▁att	-525
▁rep	-526
ating	-527
ness	-528
ward	-529
▁bet	-530
▁develop	-531
▁trans	-532
▁ent	-533
▁Un	-534
rough	-535
ors	-536
uc	-537
▁State	-538
▁rem	-539
▁dif	-540
ful	-541
▁my	-542
▁being	-543
▁inv	-544
een	-545
ular	-546
▁said	-547
cy	-548
ener	-549
▁An	-550
ission	-551
▁through	-552
ower	-553
quot	-554
▁after	-555
uring	-556
ered	-557
▁But	-558
▁We	-559
▁eff	-560
led	-561
▁200	-562
▁des	-563
▁cent	-564
gan	-565
▁produ	-566
▁where	-567
▁co	-568
▁life	-569
wn	-570
▁pos	-571
▁sec	-572
ha	-573
▁So	-574
▁And	-575
▁country	-576
ning	-577
uth	-578
stem	-579
ty	-580
▁years	-581
ax	-582
olog	-583
hy	-584
resident	-585
li	-586
ons	-587
▁again	-588
lud	-589
ible	-590
als	-591
▁Pr	-592
▁first	-593
ink	-594
▁serv	-595
▁col	-596
ility	-597
ne	-598
ature	-599
ural	-600
und	-601
ved	-602
ents	-603
ract	-604
▁Bh	-605
▁right	-606
▁ord	-607
cept	-608
▁law	-609
▁very	-610
te	-611
ob	-612
ft	-613
ange	-614
▁There	-615
▁set	-616
▁what	-617
▁ins	-618
arm	-619
fer	-620
▁Ex	-621
oth	-622
▁De	-623
▁world	-624
▁could	-625
up	-626
ati	-627
its	-628
lt	-629
▁need	-630
▁President	-631
ict	-632
▁get	-633
ision	-634
▁op	-635
▁call	-636
▁well	-637
▁must	-638
rap	-639
▁dist	-640
▁bl	-641
▁pur	-642
ght	-643
▁mem	-644
▁ed	-645
▁num	-646
other	-647
con	-648
any	-649
ided	-650
hen	-651
▁add	-652
▁Re	-653
ited	-654
▁giv	-655
▁bas	-656
▁system	-657
▁case	-658
▁Ar	-659
gt	-660
urn	-661
▁just	-662
air	-663
▁6	-664
pos	-665
▁good	-666
aking	-667
▁ra	-668
▁spe	-669
ween	-670
▁Is	-671
les	-672
▁ext	-673
hip	-674
▁many	-675
▁mat	-676
▁includ	-677
▁before	-678
▁even	-679
ble	-680
ices	-681
▁requ	-682
▁cap	-683
▁between	-684
▁If	-685
▁char	-686
▁then	-687
eth	-688
iew	-689
▁writ	-690
ised	-691
▁fol	-692
▁used	-693
ily	-694
▁import	-695
stitut	-696
pport	-697
uch	-698
ures	-699
irect	-700
▁Hind	-701
ters	-702
inal	-703
own	-704
ral	-705
ough	-706
chn	-707
▁ke	-708
▁tra	-709
▁min	-710
▁differe	-711
ren	-712
▁see	-713
▁make	-714
▁how	-715
ix	-716
▁def	-717
round	-718
▁public	-719
▁child	-720
▁own	-721
▁every	-722
▁var	-723
ital	-724
▁section	-725
▁Am	-726
▁long	-727
stitution	-728
formation	-729
▁val	-730
▁day	-731
▁inst	-732
ages	-733
▁mon	-734
▁most	-735
▁&#	-736
ries	-737
ody	-738
▁br	-739
ef	-740
▁inf	-741
▁use	-742
app	-743
oun	-744
▁7	-745
▁end	-746
ov	-747
▁mod	-748
▁way	-749
▁lar	-750
iness	-751
▁sm	-752
uthor	-753
▁she	-754
▁gener	-755
▁They	-756
▁follow	-757
hes	-758
▁great	-759
▁same	-760
ple	-761
▁i	-762
▁gr	-763
ouse	-764
▁state	-765
ern	-766
▁equ	-767
ished	-768
xt	-769
▁power	-770
▁Min	-771
ivers	-772
▁car	-773
▁now	-774
aint	-775
▁For	-776
ety	-777
▁inter	-778
▁8	-779
imes	-780
gal	-781
ruct	-782
▁conc	-783
ever	-784
ash	-785
▁hel	-786
▁process	-787
▁organ	-788
▁bu	-789
gram	-790
ven	-791
conom	-792
ick	-793
▁201	-794
ament	-795
arli	-796
▁take	-797
▁disc	-798
▁place	-799
erest	-800
▁pass	-801
▁order	-802
ality	-803
lim	-804
arch	-805
▁number	-806
▁Cent	-807
▁fact	-808
▁You	-809
▁because	-810
▁hum	-811
▁adv	-812
▁av	-813
tic	-814
alth	-815
gg	-816
iod	-817
bers	-818
angu	-819
▁partic	-820
▁present	-821
icial	-822
▁Wh	-823
▁against	-824
▁indust	-825
▁during	-826
▁stud	-827
▁fl	-828
▁Ne	-829
▁development	-830
▁det	-831
▁dem	-832
▁help	-833
ention	-834
▁fam	-835
▁educ	-836
ana	-837
▁dep	-838
istr	-839
▁18	-840
▁consid	-841
▁those	-842
ired	-843
▁back	-844
▁0	-845
▁On	-846
▁did	-847
▁lead	-848
▁ret	-849
ined	-850
▁hand	-851
ork	-852
ars	-853
ified	-854
rop	-855
uk	-856
▁here	-857
ock	-858
▁different	-859
▁med	-860
▁period	-861
▁interest	-862
ck	-863
▁account	-864
ives	-865
ics	-866
▁occ	-867
get	-868
▁econom	-869
min	-870
ared	-871
ants	-872
▁est	-873
ata	-874
ases	-875
ds	-876
▁court	-877
▁sur	-878
ology	-879
▁tak	-880
▁grow	-881
man	-882
lish	-883
▁conf	-884
▁bus	-885
ting	-886
▁jud	-887
▁found	-888
ists	-889
ron	-890
▁Commission	-891
ted	-892
ner	-893
▁three	-894
▁iss	-895
▁fore	-896
▁Al	-897
▁To	-898
way	-899
▁term	-900
tc	-901
ained	-902
▁Ad	-903
▁called	-904
▁both	-905
▁down	-906
▁does	-907
▁effect	-908
ten	-909
▁author	-910
▁pay	-911
ale	-912
ges	-913
ides	-914
▁mark	-915
ather	-916
read	-917
ency	-918
ually	-919
▁fin	-920
ph	-921
ploy	-922
▁9	-923
▁water	-924
▁cert	-925
▁bel	-926
▁&#9	-927
▁comple	-928
▁cor	-929
roup	-930
ues	-931
ull	-932
▁cre	-933
▁respect	-934
oint	-935
RB	-936
▁etc	-937
▁government	-938
▁start	-939
▁rece	-940
▁given	-941
au	-942
arn	-943
▁techn	-944
▁Mus	-945
riv	-946
▁National	-947
ES	-948
▁commun	-949
ister	-950
▁contin	-951
▁langu	-952
▁gu	-953
ination	-954
▁loc	-955
▁name	-956
ros	-957
nce	-958
▁high	-959
▁ph	-960
▁poss	-961
▁str	-962
▁aff	-963
▁Mah	-964
▁wom	-965
less	-966
▁view	-967
ince	-968
▁direct	-969
▁spec	-970
▁cond	-971
▁‘	-972
▁oper	-973
▁want	-974
▁applic	-975
icy	-976
▁much	-977
not	-978
▁without	-979
ute	-980
▁ref	-981
reme	-982
▁sect	-983
blem	-984
▁means	-985
ceed	-986
▁each	-987
▁important	-988
ici	-989
▁program	-990
▁gl	-991
▁information	-992
▁del	-993
day	-994
▁look	-995
▁let	-996
▁prev	-997
▁read	-998
▁fac	-999
iel	-1000
▁human	-1001
isions	-1002
ool	-1003
▁small	-1004
▁sim	-1005
▁book	-1006
ines	-1007
▁som	-1008
tt	-1009
▁amount	-1010
here	-1011
orts	-1012
▁problem	-1013
erg	-1014
▁gre	-1015
ya	-1016
ari	-1017
▁within	-1018
▁body	-1019
lement	-1020
▁social	-1021
▁sign	-1022
▁ty	-1023
▁All	-1024
pr	-1025
▁Le	-1026
▁avail	-1027
rict	-1028
▁fun	-1029
▁business	-1030
▁199	-1031
esh	-1032
▁10	-1033
▁No	-1034
▁mar	-1035
▁come	-1036
▁stand	-1037
▁prof	-1038
ai	-1039
ived	-1040
▁ser	-1041
▁polit	-1042
▁proper	-1043
▁cult	-1044
▁Rep	-1045
aving	-1046
▁incre	-1047
▁stre	-1048
ets	-1049
▁Eng	-1050
▁..	-1051
▁tem	-1052
iter	-1053
▁point	-1054
▁invest	-1055
▁ide	-1056
▁relig	-1057
crib	-1058
ized	-1059
▁various	-1060
por	-1061
▁vis	-1062
ected	-1063
ror	-1064
ivid	-1065
▁bank	-1066
▁play	-1067
▁happ	-1068
▁che	-1069
▁exper	-1070
self	-1071
af	-1072
lam	-1073
▁cle	-1074
ains	-1075
▁last	-1076
▁large	-1077
▁fil	-1078
wards	-1079
EN	-1080
arly	-1081
▁High	-1082
▁say	-1083
reed	-1084
▁sch	-1085
han	-1086
▁think	-1087
ought	-1088
▁taken	-1089
ram	-1090
▁Muslim	-1091
▁support	-1092
rol	-1093
▁employ	-1094
ining	-1095
med	-1096
▁another	-1097
▁group	-1098
▁quest	-1099
▁times	-1100
▁soci	-1101
ession	-1102
▁cr	-1103
▁assess	-1104
▁dev	-1105
▁cur	-1106
▁education	-1107
ways	-1108
asht	-1109
▁known	-1110
▁!	-1111
ended	-1112
▁...	-1113
ason	-1114
az	-1115
ret	-1116
ense	-1117
▁When	-1118
▁real	-1119
▁Ass	-1120
▁Te	-1121
▁Ben	-1122
▁mind	-1123
ulation	-1124
▁while	-1125
ternal	-1126
ically	-1127
▁land	-1128
▁lo	-1129
▁open	-1130
▁15	-1131
▁activ	-1132
▁How	-1133
ried	-1134
▁result	-1135
▁level	-1136
▁company	-1137
▁Raj	-1138
stand	-1139
har	-1140
ances	-1141
itions	-1142
ferred	-1143
▁income	-1144
rial	-1145
▁ve	-1146
olution	-1147
▁Man	-1148
arliament	-1149
▁estab	-1150
▁Central	-1151
ize	-1152
▁appro	-1153
▁prom	-1154
work	-1155
▁find	-1156
▁Jud	-1157
▁prot	-1158
▁Shri	-1159
irc	-1160
▁month	-1161
ves	-1162
▁move	-1163
▁going	-1164
▁Sc	-1165
eration	-1166
▁national	-1167
ething	-1168
▁days	-1169
uss	-1170
▁allow	-1171
▁rev	-1172
▁Off	-1173
riend	-1174
ization	-1175
ased	-1176
▁beh	-1177
▁elect	-1178
▁cannot	-1179
▁wind	-1180
ged	-1181
▁ter	-1182
▁12	-1183
ption	-1184
▁necess	-1185
▁language	-1186
▁11	-1187
port	-1188
ledge	-1189
ER	-1190
urther	-1191
▁non	-1192
ium	-1193
▁OF	-1194
ternational	-1195
▁pop	-1196
land	-1197
▁These	-1198
▁members	-1199
ering	-1200
▁subject	-1201
▁health	-1202
ccess	-1203
▁give	-1204
lished	-1205
▁Ram	-1206
▁meet	-1207
▁Dep	-1208
▁ben	-1209
▁less	-1210
par	-1211
ording	-1212
omm	-1213
▁old	-1214
▁special	-1215
▁lim	-1216
cil	-1217
atic	-1218
▁Se	-1219
▁rest	-1220
▁sci	-1221
▁leg	-1222
ately	-1223
▁show	-1224
ential	-1225
▁{	-1226
▁policy	-1227
ued	-1228
▁particular	-1229
▁children	-1230
ability	-1231
▁pract	-1232
▁Sing	-1233
ug	-1234
▁}	-1235
▁Or	-1236
▁bro	-1237
▁four	-1238
▁—	-1239
▁div	-1240
bs	-1241
▁exist	-1242
▁class	-1243
▁available	-1244
onment	-1245
000	-1246
▁certain	-1247
▁What	-1248
isation	-1249
ins	-1250
ising	-1251
ither	-1252
lease	-1253
▁_	-1254
alf	-1255
ivil	-1256
▁Q	-1257
ajor	-1258
▁sk	-1259
ND	-1260
▁main	-1261
▁Res	-1262
section	-1263
▁death	-1264
▁At	-1265
pect	-1266
ote	-1267
▁common	-1268
ts	-1269
▁hist	-1270
▁Brit	-1271
▁came	-1272
ks	-1273
ference	-1274
▁States	-1275
▁among	-1276
▁friend	-1277
ury	-1278
▁countries	-1279
▁sit	-1280
▁regard	-1281
▁accept	-1282
▁cost	-1283
ode	-1284
▁sent	-1285
▁today	-1286
▁service	-1287
▁PR	-1288
avan	-1289
▁become	-1290
▁Sup	-1291
inci	-1292
▁hig	-1293
ittee	-1294
▁Tr	-1295
ator	-1296
▁fund	-1297
▁head	-1298
▁Rs	-1299
put	-1300
▁dra	-1301
ross	-1302
▁too	-1303
oney	-1304
▁including	-1305
▁conn	-1306
oss	-1307
▁Del	-1308
▁product	-1309
ividual	-1310
▁action	-1311
att	-1312
▁comput	-1313
▁free	-1314
ery	-1315
ification	-1316
▁sche	-1317
ran	-1318
▁war	-1319
▁whole	-1320
▁His	-1321
itted	-1322
▁due	-1323
▁cases	-1324
AT	-1325
oard	-1326
jee	-1327
isl	-1328
▁par	-1329
ateg	-1330
iversity	-1331
duct	-1332
ructure	-1333
outh	-1334
▁self	-1335
▁matter	-1336
▁put	-1337
▁project	-1338
▁services	-1339
▁done	-1340
ministr	-1341
▁provisions	-1342
ON	-1343
ouncil	-1344
▁tre	-1345
▁list	-1346
▁object	-1347
ware	-1348
▁met	-1349
▁Supreme	-1350
▁She	-1351
▁care	-1352
▁family	-1353
▁area	-1354
▁rul	-1355
▁Gand	-1356
na	-1357
▁something	-1358
▁economic	-1359
▁trad	-1360
▁individual	-1361
cing	-1362
▁upon	-1363
▁major	-1364
▁tax	-1365
ala	-1366
uty	-1367
▁charact	-1368
▁respons	-1369
.2	-1370
ently	-1371
▁build	-1372
▁Islam	-1373
▁political	-1374
▁chang	-1375
AR	-1376
▁belie	-1377
▁vill	-1378
ancial	-1379
cl	-1380
▁sw	-1381
idence	-1382
otion	-1383
▁Parliament	-1384
▁society	-1385
▁poet	-1386
▁second	-1387
▁tot	-1388
▁far	-1389
ield	-1390
▁women	-1391
▁Constitution	-1392
aim	-1393
gress	-1394
▁Sec	-1395
▁net	-1396
▁liter	-1397
▁success	-1398
▁Section	-1399
of	-1400
▁value	-1401
▁areas	-1402
▁provide	-1403
▁based	-1404
artment	-1405
ule	-1406
▁New	-1407
▁institut	-1408
▁express	-1409
▁ask	-1410
irit	-1411
▁const	-1412
▁capital	-1413
▁knowledge	-1414
▁plan	-1415
agement	-1416
vir	-1417
ling	-1418
▁food	-1419
▁men	-1420
▁house	-1421
▁supp	-1422
▁repres	-1423
alk	-1424
▁vi	-1425
pose	-1426
▁expl	-1427
▁Delhi	-1428
eric	-1429
ending	-1430
▁keep	-1431
ID	-1432
▁Pl	-1433
ticle	-1434
▁best	-1435
▁Gu	-1436
orth	-1437
sel	-1438
ilities	-1439
▁nature	-1440
▁circ	-1441
▁God	-1442
▁provided	-1443
osed	-1444
ify	-1445
▁eng	-1446
cies	-1447
▁further	-1448
▁left	-1449
soci	-1450
▁change	-1451
▁198	-1452
▁making	-1453
ukher	-1454
ilit	-1455
▁concern	-1456
ples	-1457
▁words	-1458
▁Bhavan	-1459
urity	-1460
ys	-1461
ma	-1462
▁init	-1463
▁British	-1464
ukherjee	-1465
ems	-1466
lection	-1467
▁necessary	-1468
icult	-1469
▁Ag	-1470
▁away	-1471
▁App	-1472
▁benef	-1473
▁few	-1474
▁held	-1475
ourse	-1476
ricult	-1477
aining	-1478
▁control	-1479
▁That	-1480
chie	-1481
ogn	-1482
icer	-1483
▁Singh	-1484
iqu	-1485
eal	-1486
▁Rasht	-1487
▁reason	-1488
▁One	-1489
▁window	-1490
▁Gandhi	-1491
ittle	-1492
▁market	-1493
▁date	-1494
▁run	-1495
hys	-1496
▁20	-1497
▁always	-1498
▁English	-1499
▁kind	-1500
▁hold	-1501
▁orig	-1502
▁having	-1503
▁question	-1504
▁heart	-1505
▁mill	-1506
▁whether	-1507
▁still	-1508
▁196	-1509
ences	-1510
epend	-1511
▁following	-1512
▁sol	-1513
▁five	-1514
iding	-1515
▁197	-1516
iver	-1517
▁thought	-1518
▁mus	-1519
▁full	-1520
▁el	-1521
▁school	-1522
▁proceed	-1523
▁spirit	-1524
▁feel	-1525
ope	-1526
▁Bengal	-1527
vironment	-1528
▁age	-1529
▁x	-1530
anab	-1531
▁mater	-1532
▁required	-1533
▁Hindi	-1534
▁foreign	-1535
rapati	-1536
ories	-1537
▁Reg	-1538
ior	-1539
▁Hindu	-1540
▁things	-1541
▁growth	-1542
adesh	-1543
▁young	-1544
▁address	-1545
mes	-1546
▁sector	-1547
▁sl	-1548
▁En	-1549
▁light	-1550
▁deal	-1551
ger	-1552
idd	-1553
thing	-1554
▁Rashtrapati	-1555
lev	-1556
▁impro	-1557
▁little	-1558
emb	-1559
▁possible	-1560
ENT	-1561
▁mean	-1562
▁money	-1563
▁Cong	-1564
▁application	-1565
ards	-1566
▁Committee	-1567
▁Council	-1568
ured	-1569
▁data	-1570
▁above	-1571
▁himself	-1572
▁Acc	-1573
iction	-1574
▁16	-1575
▁ann	-1576
iving	-1577
▁return	-1578
ats	-1579
▁bir	-1580
rent	-1581
▁perform	-1582
▁sever	-1583
▁meas	-1584
▁total	-1585
▁later	-1586
ience	-1587
▁Law	-1588
▁14	-1589
▁achie	-1590
▁suff	-1591
▁sat	-1592
▁obs	-1593
▁beg	-1594
▁itself	-1595
▁After	-1596
▁contrib	-1597
▁purpose	-1598
▁Americ	-1599
▁report	-1600
ara	-1601
raph	-1602
▁never	-1603
orn	-1604
cribed	-1605
▁situ	-1606
▁Bank	-1607
12	-1608
▁Sub	-1609
▁diff	-1610
▁exam	-1611
▁art	-1612
▁clause	-1613
ication	-1614
▁eas	-1615
▁function	-1616
ember	-1617
ises	-1618
▁others	-1619
▁towards	-1620
ours	-1621
come	-1622
pportun	-1623
▁industry	-1624
▁press	-1625
▁love	-1626
▁plac	-1627
cious	-1628
AL	-1629
▁195	-1630
▁Prov	-1631
ources	-1632
▁gra	-1633
▁short	-1634
▁position	-1635
▁local	-1636
ibility	-1637
1;	-1638
io	-1639
▁&#91;	-1640
▁several	-1641
▁record	-1642
egr	-1643
▁mult	-1644
HE	-1645
▁persons	-1646
bit	-1647
used	-1648
▁rese	-1649
▁Congress	-1650
▁princi	-1651
▁relations	-1652
▁dise	-1653
▁ens	-1654
pecial	-1655
▁turn	-1656
▁Ab	-1657
▁propos	-1658
▁ii	-1659
asion	-1660
▁opportun	-1661
▁Be	-1662
▁Pre	-1663
▁since	-1664
akes	-1665
ively	-1666
▁material	-1667
▁tru	-1668
▁character	-1669
IN	-1670
▁RRB	-1671
▁stat	-1672
▁around	-1673
▁ri	-1674
▁13	-1675
uro	-1676
▁cred	-1677
▁six	-1678
▁ident	-1679
ready	-1680
▁represent	-1681
▁es	-1682
▁financial	-1683
▁air	-1684
ocu	-1685
▁civil	-1686
3;	-1687
▁er	-1688
▁&#93;	-1689
▁understand	-1690
▁thir	-1691
▁mess	-1692
istry	-1693
▁referred	-1694
▁complete	-1695
▁post	-1696
▁maint	-1697
▁priv	-1698
▁Pol	-1699
▁either	-1700
▁took	-1701
▁production	-1702
▁administr	-1703
ees	-1704
▁ir	-1705
▁sing	-1706
▁hard	-1707
▁Union	-1708
▁appoint	-1709
▁000	-1710
▁streng	-1711
▁25	-1712
▁don	-1713
▁already	-1714
▁difficult	-1715
▁therefore	-1716
akh	-1717
ample	-1718
ably	-1719
▁decl	-1720
▁invol	-1721
▁Minister	-1722
▁region	-1723
▁course	-1724
▁office	-1725
reedom	-1726
▁treat	-1727
ethod	-1728
▁type	-1729
imal	-1730
▁plant	-1731
▁nat	-1732
▁progress	-1733
▁fail	-1734
selves	-1735
▁pat	-1736
lu	-1737
ggest	-1738
▁Me	-1739
sh	-1740
▁dom	-1741
AN	-1742
osp	-1743
▁home	-1744
▁LRB	-1745
▁fa	-1746
▁194	-1747
▁quality	-1748
▁With	-1749
erc	-1750
ann	-1751
▁rate	-1752
ustom	-1753
ource	-1754
ttp	-1755
▁higher	-1756
igation	-1757
alc	-1758
▁enc	-1759
▁able	-1760
▁http	-1761
der	-1762
rought	-1763
▁sum	-1764
ony	-1765
▁fut	-1766
▁however	-1767
umb	-1768
▁inn	-1769
▁recogn	-1770
▁claim	-1771
▁ut	-1772
▁ey	-1773
bsite	-1774
▁might	-1775
▁Gener	-1776
▁flow	-1777
els	-1778
▁activities	-1779
▁phys	-1780
▁better	-1781
aring	-1782
▁bring	-1783
▁along	-1784
oura	-1785
itional	-1786
▁ground	-1787
▁caus	-1788
▁lab	-1789
▁property	-1790
▁suggest	-1791
▁However	-1792
▁Z	-1793
▁recomm	-1794
arat	-1795
▁Just	-1796
▁international	-1797
▁agree	-1798
oh	-1799
▁demand	-1800
▁Mr	-1801
▁Dr	-1802
▁ur	-1803
▁received	-1804
▁side	-1805
▁University	-1806
most	-1807
▁method	-1808
▁Em	-1809
▁seen	-1810
▁equal	-1811
▁bo	-1812
arent	-1813
arth	-1814
▁Sp	-1815
▁next	-1816
▁force	-1817
IT	-1818
▁research	-1819
empt	-1820
▁abs	-1821
▁general	-1822
rodu	-1823
▁pen	-1824
urs	-1825
▁17	-1826
▁cause	-1827
▁ess	-1828
▁Some	-1829
amb	-1830
▁conv	-1831
hing	-1832
imum	-1833
▁Develop	-1834
▁THE	-1835
▁pet	-1836
▁went	-1837
▁30	-1838
▁occasion	-1839
atory	-1840
▁nation	-1841
abha	-1842
ta	-1843
▁Chi	-1844
gether	-1845
▁together	-1846
▁authority	-1847
▁appear	-1848
▁strong	-1849
▁discuss	-1850
itiz	-1851
▁mor	-1852
▁rights	-1853
rah	-1854
▁got	-1855
▁Serv	-1856
▁institutions	-1857
▁redu	-1858
▁basis	-1859
▁access	-1860
▁ill	-1861
ude	-1862
ita	-1863
udd	-1864
▁Part	-1865
ration	-1866
acity	-1867
▁aut	-1868
▁House	-1869
ving	-1870
▁cell	-1871
▁history	-1872
▁file	-1873
▁started	-1874
▁test	-1875
itation	-1876
▁future	-1877
▁became	-1878
▁website	-1879
▁district	-1880
▁proced	-1881
ke	-1882
▁ver	-1883
▁implement	-1884
▁docu	-1885
▁freedom	-1886
▁problems	-1887
▁thing	-1888
ension	-1889
▁big	-1890
▁though	-1891
▁associ	-1892
▁network	-1893
▁ten	-1894
▁working	-1895
▁goods	-1896
ened	-1897
inary	-1898
omes	-1899
▁deep	-1900
▁computer	-1901
▁Department	-1902
ruction	-1903
▁conduct	-1904
▁ce	-1905
istan	-1906
▁example	-1907
ills	-1908
▁technology	-1909
▁mo	-1910
▁bre	-1911
▁super	-1912
▁related	-1913
▁party	-1914
ION	-1915
ier	-1916
▁initi	-1917
stitute	-1918
▁Sy	-1919
cent	-1920
▁dest	-1921
▁Pradesh	-1922
▁environment	-1923
▁written	-1924
▁often	-1925
medi	-1926
▁viol	-1927
▁step	-1928
▁matters	-1929
ached	-1930
▁determ	-1931
aster	-1932
IC	-1933
▁Sw	-1934
▁agricult	-1935
aper	-1936
side	-1937
nic	-1938
▁word	-1939
▁sal	-1940
▁unt	-1941
istic	-1942
▁live	-1943
ME	-1944
uf	-1945
ians	-1946
▁gen	-1947
▁key	-1948
▁once	-1949
▁modern	-1950
▁months	-1951
▁Fin	-1952
▁Mad	-1953
▁di	-1954
itor	-1955
▁entire	-1956
▁z	-1957
itive	-1958
▁farm	-1959
mitted	-1960
rael	-1961
▁scheme	-1962
▁movement	-1963
▁sym	-1964
ched	-1965
riage	-1966
▁crit	-1967
▁role	-1968
anch	-1969
une	-1970
▁try	-1971
▁terms	-1972
▁Dis	-1973
ront	-1974
▁pub	-1975
▁design	-1976
aries	-1977
▁integr	-1978
▁security	-1979
▁conditions	-1980
▁considered	-1981
acy	-1982
▁Israel	-1983
▁relating	-1984
▁established	-1985
▁Chief	-1986
▁brought	-1987
▁Im	-1988
▁Af	-1989
▁independ	-1990
▁pow	-1991
▁needs	-1992
▁pot	-1993
ercial	-1994
mber	-1995
aged	-1996
▁Col	-1997
lected	-1998
▁field	-1999
ji	-2000
▁mis	-2001
ental	-2002
▁imm	-2003
aps	-2004
▁Development	-2005
▁previous	-2006
.1	-2007
▁observ	-2008
▁leaders	-2009
▁energ	-2010
▁separ	-2011
ina	-2012
▁fel	-2013
▁top	-2014
▁paid	-2015
▁deb	-2016
OR	-2017
hile	-2018
▁students	-2019
▁vol	-2020
ring	-2021
▁opp	-2022
▁ple	-2023
▁detail	-2024
amm	-2025
▁manner	-2026
▁link	-2027
rish	-2028
▁norm	-2029
pur	-2030
▁Cont	-2031
▁text	-2032
▁My	-2033
▁earli	-2034
▁General	-2035
▁close	-2036
rast	-2037
▁Chand	-2038
▁Govern	-2039
▁cro	-2040
▁line	-2041
▁blood	-2042
▁mother	-2043
sequ	-2044
▁Ministry	-2045
▁lib	-2046
▁Euro	-2047
▁PRES	-2048
▁true	-2049
▁creat	-2050
▁member	-2051
allen	-2052
▁sense	-2053
▁visit	-2054
ev	-2055
erve	-2056
▁saf	-2057
ane	-2058
▁past	-2059
isd	-2060
▁acqu	-2061
▁religious	-2062
urance	-2063
▁Comp	-2064
▁require	-2065
▁official	-2066
ms	-2067
atives	-2068
hold	-2069
oid	-2070
▁sett	-2071
▁terror	-2072
▁legal	-2073
▁according	-2074
▁living	-2075
▁ded	-2076
▁citiz	-2077
▁share	-2078
▁Europe	-2079
▁dou	-2080
▁story	-2081
ait	-2082
▁ful	-2083
▁glob	-2084
.201	-2085
▁decision	-2086
▁subst	-2087
▁community	-2088
▁face	-2089
cell	-2090
▁village	-2091
▁custom	-2092
ison	-2093
poses	-2094
▁million	-2095
unt	-2096
▁Now	-2097
▁consider	-2098
▁mach	-2099
ief	-2100
atch	-2101
▁except	-2102
▁natural	-2103
iminal	-2104
ape	-2105
ends	-2106
▁assist	-2107
▁adop	-2108
▁rule	-2109
▁industrial	-2110
▁vari	-2111
ott	-2112
▁learn	-2113
▁Not	-2114
▁Sche	-2115
omb	-2116
▁particip	-2117
▁undert	-2118
action	-2119
▁parts	-2120
ali	-2121
▁squ	-2122
ological	-2123
▁trade	-2124
▁concerned	-2125
cri	-2126
▁personal	-2127
▁Mukherjee	-2128
ung	-2129
▁cop	-2130
▁energy	-2131
▁purposes	-2132
▁passed	-2133
▁exec	-2134
change	-2135
▁scient	-2136
▁using	-2137
▁opens	-2138
▁specified	-2139
acher	-2140
▁grant	-2141
▁Muslims	-2142
ches	-2143
▁study	-2144
▁compet	-2145
▁Su	-2146
▁training	-2147
gu	-2148
sw	-2149
▁Co	-2150
▁taking	-2151
imate	-2152
▁loss	-2153
ama	-2154
itness	-2155
▁justice	-2156
ler	-2157
▁Courts	-2158
IDENT	-2159
▁Ph	-2160
▁democ	-2161
▁issue	-2162
▁rules	-2163
▁current	-2164
▁management	-2165
▁Mar	-2166
▁begin	-2167
▁provides	-2168
▁father	-2169
IS	-2170
usion	-2171
▁Par	-2172
ek	-2173
▁24	-2174
ames	-2175
▁bea	-2176
▁forward	-2177
▁United	-2178
krit	-2179
▁legisl	-2180
▁Cor	-2181
▁fr	-2182
▁peace	-2183
illed	-2184
ship	-2185
▁*	-2186
ening	-2187
airs	-2188
▁near	-2189
▁PRESIDENT	-2190
▁institution	-2191
▁early	-2192
mission	-2193
▁transfer	-2194
▁Cl	-2195
ners	-2196
▁ant	-2197
▁Direct	-2198
▁sou	-2199
▁century	-2200
▁External	-2201
▁asked	-2202
ots	-2203
▁193	-2204
▁greater	-2205
▁pri	-2206
▁carry	-2207
line	-2208
go	-2209
▁yet	-2210
ient	-2211
▁population	-2212
▁religion	-2213
ani	-2214
▁mag	-2215
▁developed	-2216
▁states	-2217
▁21	-2218
uted	-2219
irl	-2220
▁Div	-2221
▁bra	-2222
▁ele	-2223
▁credit	-2224
▁themselves	-2225
asing	-2226
isf	-2227
▁why	-2228
▁Such	-2229
▁neg	-2230
▁message	-2231
▁compl	-2232
▁disease	-2233
ead	-2234
htm	-2235
▁apply	-2236
▁Kh	-2237
▁influ	-2238
▁condition	-2239
▁trib	-2240
▁Board	-2241
▁Do	-2242
▁port	-2243
▁establish	-2244
▁cast	-2245
▁Justice	-2246
▁outside	-2247
▁experience	-2248
▁clear	-2249
▁Sabha	-2250
▁allowed	-2251
▁powers	-2252
vey	-2253
▁building	-2254
rest	-2255
▁charge	-2256
aun	-2257
ropri	-2258
▁really	-2259
val	-2260
▁introdu	-2261
ilt	-2262
ival	-2263
▁provision	-2264
▁assessment	-2265
▁red	-2266
▁consum	-2267
▁include	-2268
vi	-2269
▁hy	-2270
▁tell	-2271
▁appeal	-2272
▁culture	-2273
▁pun	-2274
▁mass	-2275
▁immedi	-2276
mit	-2277
▁parties	-2278
ask	-2279
▁jur	-2280
▁Techn	-2281
▁soon	-2282
fully	-2283
▁literature	-2284
inion	-2285
▁books	-2286
▁programme	-2287
▁US	-2288
emed	-2289
▁meeting	-2290
aya	-2291
▁Pranab	-2292
ilar	-2293
▁stage	-2294
▁SC	-2295
▁ll	-2296
ored	-2297
▁earlier	-2298
▁mention	-2299
ects	-2300
▁arr	-2301
over	-2302
▁city	-2303
▁anything	-2304
ilk	-2305
▁gave	-2306
▁Republic	-2307
▁Where	-2308
▁Pun	-2309
▁lay	-2310
avour	-2311
▁original	-2312
▁Public	-2313
▁capacity	-2314
va	-2315
▁exc	-2316
▁prep	-2317
adi	-2318
▁aim	-2319
ulated	-2320
▁essential	-2321
orrow	-2322
▁writing	-2323
cient	-2324
▁half	-2325
▁instru	-2326
▁structure	-2327
▁Rec	-2328
CT	-2329
▁low	-2330
▁boy	-2331
▁actually	-2332
▁signific	-2333
▁Int	-2334
ixed	-2335
ush	-2336
icient	-2337
▁changes	-2338
eral	-2339
itable	-2340
▁Let	-2341
▁resources	-2342
▁Can	-2343
▁exerc	-2344
▁whose	-2345
ift	-2346
▁assessee	-2347
iddle	-2348
▁wide	-2349
lo	-2350
▁22	-2351
▁challen	-2352
ousand	-2353
▁Our	-2354
▁almost	-2355
▁aud	-2356
▁fall	-2357
▁attack	-2358
▁create	-2359
▁Information	-2360
▁bal	-2361
eed	-2362
bar	-2363
▁duty	-2364
▁soft	-2365
▁payment	-2366
▁physical	-2367
eness	-2368
▁lat	-2369
chan	-2370
▁medical	-2371
▁thus	-2372
ctions	-2373
▁Jan	-2374
ada	-2375
▁evidence	-2376
▁works	-2377
▁situation	-2378
▁Bill	-2379
▁news	-2380
▁talk	-2381
▁lear	-2382
IA	-2383
be	-2384
124	-2385
jab	-2386
▁achieve	-2387
▁eight	-2388
enty	-2389
▁bar	-2390
▁Please	-2391
▁typ	-2392
anskrit	-2393
▁decided	-2394
124;	-2395
▁&#124;	-2396
▁Rel	-2397
▁issues	-2398
▁article	-2399
▁Brah	-2400
▁Arab	-2401
▁laws	-2402
▁police	-2403
▁woman	-2404
pecially	-2405
▁products	-2406
▁50	-2407
▁Judge	-2408
▁enter	-2409
▁West	-2410
▁witness	-2411
▁king	-2412
▁satisf	-2413
▁nothing	-2414
ares	-2415
men	-2416
▁issued	-2417
▁single	-2418
itude	-2419
▁Leg	-2420
▁least	-2421
▁transl	-2422
▁lot	-2423
oice	-2424
▁relev	-2425
ones	-2426
▁global	-2427
▁ensure	-2428
▁vers	-2429
▁X	-2430
ams	-2431
▁innov	-2432
▁Even	-2433
▁efforts	-2434
▁May	-2435
tax	-2436
abad	-2437
▁IND	-2438
▁award	-2439
wise	-2440
anies	-2441
estern	-2442
rote	-2443
▁indic	-2444
▁earth	-2445
▁thousand	-2446
▁Apr	-2447
▁Pal	-2448
▁science	-2449
▁son	-2450
aff	-2451
oot	-2452
▁cover	-2453
▁private	-2454
br	-2455
▁treatment	-2456
▁dr	-2457
osop	-2458
▁prim	-2459
ufact	-2460
▁pati	-2461
let	-2462
▁letter	-2463
▁conscious	-2464
ew	-2465
▁jo	-2466
▁fig	-2467
▁san	-2468
▁answ	-2469
▁sure	-2470
▁till	-2471
▁23	-2472
▁specific	-2473
undred	-2474
▁wr	-2475
▁job	-2476
▁ever	-2477
▁subs	-2478
▁makes	-2479
▁profession	-2480
▁Report	-2481
▁improve	-2482
▁created	-2483
▁II	-2484
anda	-2485
overed	-2486
▁inj	-2487
icers	-2488
▁While	-2489
augh	-2490
adem	-2491
▁enough	-2492
▁April	-2493
▁rural	-2494
▁operation	-2495
▁approach	-2496
ategory	-2497
▁kept	-2498
▁especially	-2499
eng	-2500
▁obt	-2501
▁told	-2502
▁teacher	-2503
▁opportunity	-2504
▁Cons	-2505
▁Sanskrit	-2506
nam	-2507
ators	-2508
▁univers	-2509
▁continue	-2510
▁proceedings	-2511
▁birth	-2512
▁26	-2513
▁wrote	-2514
▁tree	-2515
uary	-2516
▁doing	-2517
▁serious	-2518
▁repl	-2519
▁front	-2520
ique	-2521
ilosop	-2522
ging	-2523
▁leave	-2524
▁Trib	-2525
embly	-2526
▁increase	-2527
▁judicial	-2528
for	-2529
▁investment	-2530
▁govern	-2531
▁Pe	-2532
▁Bar	-2533
▁behalf	-2534
▁published	-2535
▁insp	-2536
▁procedure	-2537
▁Op	-2538
itting	-2539
▁Ins	-2540
▁circum	-2541
bed	-2542
ires	-2543
▁depos	-2544
estic	-2545
▁notice	-2546
▁Commissioner	-2547
▁South	-2548
▁doub	-2549
▁temple	-2550
rect	-2551
▁sac	-2552
▁check	-2553
▁price	-2554
▁Bi	-2555
▁Officer	-2556
hood	-2557
▁bur	-2558
pre	-2559
▁meaning	-2560
▁path	-2561
▁By	-2562
ourage	-2563
▁hundred	-2564
▁road	-2565
▁belong	-2566
mir	-2567
▁Mahar	-2568
▁providing	-2569
ores	-2570
▁Med	-2571
▁hon	-2572
▁effective	-2573
aves	-2574
▁jurisd	-2575
▁night	-2576
▁Legisl	-2577
▁similar	-2578
▁spread	-2579
▁economy	-2580
agar	-2581
▁pros	-2582
▁vict	-2583
▁contract	-2584
roll	-2585
▁den	-2586
▁third	-2587
▁poor	-2588
▁opinion	-2589
face	-2590
▁Dist	-2591
apter	-2592
▁appropri	-2593
▁Mal	-2594
▁carried	-2595
eech	-2596
inate	-2597
▁truth	-2598
▁Gur	-2599
▁Thus	-2600
▁seek	-2601
▁stru	-2602
▁Pak	-2603
▁lakh	-2604
my	-2605
▁tour	-2606
▁Under	-2607
▁vide	-2608
▁faith	-2609
▁stop	-2610
eb	-2611
▁popular	-2612
den	-2613
▁forms	-2614
▁administration	-2615
▁generally	-2616
▁quite	-2617
▁harm	-2618
▁contact	-2619
▁across	-2620
iture	-2621
IR	-2622
play	-2623
▁distrib	-2624
▁Article	-2625
▁mere	-2626
encies	-2627
▁manufact	-2628
▁Lord	-2629
sec	-2630
▁idea	-2631
▁sens	-2632
▁27	-2633
▁100	-2634
rist	-2635
▁collect	-2636
▁anal	-2637
▁bill	-2638
▁coop	-2639
▁List	-2640
▁prescribed	-2641
ying	-2642
ili	-2643
▁March	-2644
▁ris	-2645
utions	-2646
rastructure	-2647
▁Punjab	-2648
duc	-2649
▁hands	-2650
▁accord	-2651
▁East	-2652
▁stated	-2653
▁percent	-2654
irt	-2655
▁reform	-2656
cle	-2657
gest	-2658
uck	-2659
ules	-2660
▁Income	-2661
▁travel	-2662
ump	-2663
▁courts	-2664
▁source	-2665
endment	-2666
▁Chair	-2667
▁below	-2668
▁relevant	-2669
joy	-2670
▁Institute	-2671
▁size	-2672
▁Per	-2673
ban	-2674
ivity	-2675
▁draw	-2676
▁During	-2677
▁petition	-2678
▁Your	-2679
▁places	-2680
▁International	-2681
rug	-2682
▁cut	-2683
▁basic	-2684
▁practice	-2685
▁log	-2686
etimes	-2687
▁31	-2688
▁Add	-2689
▁Indust	-2690
▁cal	-2691
▁central	-2692
▁felt	-2693
▁river	-2694
▁giving	-2695
▁importance	-2696
▁aspect	-2697
▁emerg	-2698
▁sound	-2699
▁jour	-2700
▁crop	-2701
ED	-2702
▁dri	-2703
▁facilities	-2704
racy	-2705
ights	-2706
▁girl	-2707
▁parent	-2708
▁foc	-2709
▁jurisdiction	-2710
▁King	-2711
hest	-2712
ex	-2713
hib	-2714
▁192	-2715
▁comb	-2716
▁plus	-2717
▁write	-2718
aka	-2719
▁Sur	-2720
▁god	-2721
▁IN	-2722
ulate	-2723
▁Pakistan	-2724
▁becomes	-2725
leg	-2726
▁reach	-2727
arily	-2728
▁Spe	-2729
band	-2730
by	-2731
uly	-2732
AS	-2733
▁aware	-2734
▁li	-2735
earch	-2736
▁Trans	-2737
▁accused	-2738
pal	-2739
ouses	-2740
▁commercial	-2741
▁firm	-2742
▁event	-2743
osition	-2744
▁measures	-2745
▁bi	-2746
▁note	-2747
▁statement	-2748
.0	-2749
▁laun	-2750
▁According	-2751
▁recommend	-2752
istration	-2753
▁Governor	-2754
▁marriage	-2755
▁philosop	-2756
▁potential	-2757
dom	-2758
▁agreement	-2759
▁fast	-2760
▁mer	-2761
▁Service	-2762
com	-2763
▁Afric	-2764
▁repe	-2765
▁oil	-2766
▁dam	-2767
▁strength	-2768
raft	-2769
▁Calc	-2770
▁circumst	-2771
iry	-2772
▁coun	-2773
ender	-2774
▁happy	-2775
▁comes	-2776
avi	-2777
▁citizens	-2778
▁wife	-2779
▁regular	-2780
utta	-2781
ously	-2782
▁began	-2783
aker	-2784
▁Pur	-2785
▁novel	-2786
▁Krish	-2787
▁spiritual	-2788
adu	-2789
▁Qu	-2790
▁existing	-2791
▁enjoy	-2792
gar	-2793
gy	-2794
▁followed	-2795
▁hope	-2796
ava	-2797
▁stri	-2798
▁prevent	-2799
ume	-2800
▁criminal	-2801
haps	-2802
ned	-2803
▁Day	-2804
▁install	-2805
▁exchange	-2806
▁room	-2807
▁constitution	-2808
▁Then	-2809
▁pers	-2810
▁–	-2811
▁disp	-2812
▁benefit	-2813
▁groups	-2814
▁usually	-2815
▁Mem	-2816
▁sun	-2817
▁whom	-2818
▁programmes	-2819
ney	-2820
▁camp	-2821
ables	-2822
▁judge	-2823
▁brother	-2824
yond	-2825
part	-2826
▁gives	-2827
▁anim	-2828
▁bound	-2829
▁punish	-2830
▁simple	-2831
ancy	-2832
▁activity	-2833
▁responsible	-2834
▁lower	-2835
amental	-2836
▁wrong	-2837
▁believe	-2838
▁und	-2839
▁prior	-2840
▁trust	-2841
▁mot	-2842
▁wid	-2843
▁mov	-2844
▁bit	-2845
▁Educ	-2846
▁milit	-2847
▁space	-2848
▁attempt	-2849
▁existence	-2850
▁particularly	-2851
standing	-2852
iles	-2853
▁until	-2854
▁emp	-2855
▁film	-2856
ras	-2857
▁Sm	-2858
▁Som	-2859
▁concept	-2860
▁says	-2861
▁Net	-2862
▁Secret	-2863
▁Tra	-2864
nces	-2865
▁behind	-2866
▁deg	-2867
▁increased	-2868
▁appropriate	-2869
▁offence	-2870
equ	-2871
▁Sa	-2872
▁unit	-2873
ingu	-2874
char	-2875
▁lost	-2876
ox	-2877
▁doct	-2878
▁heav	-2879
▁28	-2880
▁Wor	-2881
▁request	-2882
ificate	-2883
▁American	-2884
▁sex	-2885
▁fair	-2886
▁Every	-2887
istered	-2888
unal	-2889
▁prop	-2890
▁diss	-2891
▁soul	-2892
▁cultural	-2893
utes	-2894
alty	-2895
▁mount	-2896
▁conver	-2897
▁mom	-2898
▁Technology	-2899
▁dire	-2900
▁rich	-2901
body	-2902
▁mand	-2903
▁consist	-2904
▁beginning	-2905
enth	-2906
kar	-2907
▁song	-2908
▁qual	-2909
▁poll	-2910
▁nor	-2911
poration	-2912
gn	-2913
ont	-2914
amed	-2915
▁lives	-2916
▁Ma	-2917
▁Har	-2918
▁wall	-2919
▁led	-2920
▁Calcutta	-2921
▁ep	-2922
▁der	-2923
rif	-2924
▁mut	-2925
▁forest	-2926
hem	-2927
ault	-2928
▁stay	-2929
▁final	-2930
▁search	-2931
▁tele	-2932
▁INDIA	-2933
▁rather	-2934
uls	-2935
▁occur	-2936
new	-2937
▁35	-2938
▁Plan	-2939
▁eyes	-2940
isters	-2941
▁circumstances	-2942
▁limited	-2943
▁win	-2944
▁relation	-2945
▁Mu	-2946
▁host	-2947
▁values	-2948
▁beyond	-2949
▁significant	-2950
▁schol	-2951
▁addition	-2952
▁TO	-2953
▁Code	-2954
▁feed	-2955
▁protection	-2956
▁Lok	-2957
▁crore	-2958
▁takes	-2959
▁histor	-2960
▁saw	-2961
sy	-2962
▁continued	-2963
use	-2964
▁appl	-2965
▁projects	-2966
▁systems	-2967
▁Adv	-2968
▁Sar	-2969
war	-2970
▁ideas	-2971
▁Bal	-2972
▁alone	-2973
▁adj	-2974
▁warm	-2975
▁employment	-2976
▁born	-2977
▁Ak	-2978
etic	-2979
▁built	-2980
▁remain	-2981
▁accepted	-2982
▁industries	-2983
▁poetry	-2984
▁World	-2985
iff	-2986
AY	-2987
▁2000	-2988
▁expression	-2989
though	-2990
▁learning	-2991
▁appointed	-2992
▁unf	-2993
▁limit	-2994
▁Budd	-2995
atures	-2996
anation	-2997
▁seven	-2998
ober	-2999
ishes	-3000
▁Author	-3001
ades	-3002
rick	-3003
▁infrastructure	-3004
▁continu	-3005
▁protect	-3006
▁responsibility	-3007
reg	-3008
▁IT	-3009
enditure	-3010
ris	-3011
▁Gang	-3012
▁Pat	-3013
▁dig	-3014
▁Prime	-3015
▁emb	-3016
▁banks	-3017
oon	-3018
ouch	-3019
▁trial	-3020
ograph	-3021
▁round	-3022
ze	-3023
▁prob	-3024
iful	-3025
▁reference	-3026
ruit	-3027
▁Any	-3028
ami	-3029
▁arbit	-3030
▁strugg	-3031
▁From	-3032
▁Kash	-3033
▁Christ	-3034
rim	-3035
lege	-3036
▁getting	-3037
▁seed	-3038
▁coming	-3039
elling	-3040
▁mental	-3041
▁ways	-3042
▁cross	-3043
▁proposed	-3044
▁immediately	-3045
▁officer	-3046
▁$	-3047
rary	-3048
▁assistance	-3049
▁sust	-3050
▁Bl	-3051
asons	-3052
ene	-3053
▁Sat	-3054
abor	-3055
▁Bomb	-3056
▁joint	-3057
▁setting	-3058
▁dre	-3059
▁har	-3060
verage	-3061
▁arrest	-3062
▁includes	-3063
▁observed	-3064
vest	-3065
▁Tam	-3066
▁appre	-3067
utive	-3068
▁plants	-3069
▁normal	-3070
RI	-3071
▁loan	-3072
▁increasing	-3073
ulations	-3074
▁details	-3075
anced	-3076
▁music	-3077
▁wanted	-3078
▁Many	-3079
▁Prof	-3080
▁nar	-3081
▁Des	-3082
▁direction	-3083
▁broad	-3084
▁formed	-3085
yle	-3086
▁functions	-3087
▁mechan	-3088
▁else	-3089
▁teach	-3090
▁mentioned	-3091
omp	-3092
miss	-3093
▁cy	-3094
▁drug	-3095
vention	-3096
▁officers	-3097
▁territ	-3098
omen	-3099
▁forces	-3100
▁Kashmir	-3101
ucle	-3102
▁Ved	-3103
▁pal	-3104
▁hosp	-3105
▁safe	-3106
▁Expl	-3107
▁device	-3108
▁Program	-3109
▁produce	-3110
▁Guj	-3111
ellow	-3112
▁respond	-3113
ley	-3114
usp	-3115
oted	-3116
▁dedu	-3117
▁status	-3118
▁consideration	-3119
▁lit	-3120
bol	-3121
▁engine	-3122
▁ste	-3123
ading	-3124
▁Centre	-3125
abh	-3126
umbai	-3127
▁opt	-3128
▁purs	-3129
▁perf	-3130
▁attract	-3131
▁agricultural	-3132
▁violence	-3133
▁strengt	-3134
rant	-3135
uman	-3136
▁document	-3137
▁transport	-3138
rs	-3139
oke	-3140
▁goes	-3141
▁January	-3142
▁instrument	-3143
▁ru	-3144
▁cele	-3145
▁presented	-3146
▁secret	-3147
▁ancient	-3148
▁sil	-3149
▁Fund	-3150
▁fire	-3151
▁disci	-3152
gment	-3153
▁scale	-3154
▁famous	-3155
▁Bombay	-3156
▁connect	-3157
where	-3158
▁prepared	-3159
ellect	-3160
▁speech	-3161
▁animals	-3162
▁America	-3163
▁fem	-3164
▁Sept	-3165
▁copy	-3166
▁paper	-3167
▁Sim	-3168
▁Education	-3169
ograp	-3170
▁workers	-3171
know	-3172
▁companies	-3173
iva	-3174
▁North	-3175
▁sn	-3176
ATION	-3177
▁relationship	-3178
osis	-3179
▁arch	-3180
ales	-3181
▁medic	-3182
UR	-3183
▁refers	-3184
▁Aug	-3185
▁fight	-3186
cer	-3187
▁hus	-3188
▁included	-3189
oor	-3190
▁Of	-3191
▁max	-3192
▁languages	-3193
▁minus	-3194
▁receive	-3195
▁complaint	-3196
▁fear	-3197
▁added	-3198
▁longer	-3199
▁partners	-3200
hic	-3201
anger	-3202
▁depend	-3203
▁active	-3204
▁connection	-3205
▁्	-3206
html	-3207
attle	-3208
inated	-3209
ikh	-3210
ini	-3211
reen	-3212
▁rad	-3213
▁Bab	-3214
icro	-3215
elfare	-3216
▁polic	-3217
▁extent	-3218
PC	-3219
▁week	-3220
▁otherwise	-3221
▁correct	-3222
NA	-3223
▁Fore	-3224
▁favour	-3225
▁wish	-3226
inite	-3227
▁imag	-3228
icit	-3229
▁ign	-3230
▁imper	-3231
▁memory	-3232
asa	-3233
▁obl	-3234
▁pranab	-3235
hru	-3236
▁Oct	-3237
▁page	-3238
▁review	-3239
▁af	-3240
▁user	-3241
▁attention	-3242
▁accounts	-3243
▁Cr	-3244
▁fixed	-3245
▁involved	-3246
▁Provided	-3247
▁coll	-3248
▁pain	-3249
▁moment	-3250
▁pranabm	-3251
▁pranabmukherjee	-3252
EE	-3253
▁base	-3254
▁caused	-3255
▁arrange	-3256
esides	-3257
▁break	-3258
▁Assembly	-3259
ton	-3260
▁Tur	-3261
▁tried	-3262
▁units	-3263
▁supply	-3264
enced	-3265
▁sold	-3266
▁Bang	-3267
▁tool	-3268
▁sea	-3269
▁directly	-3270
ensive	-3271
▁twenty	-3272
hra	-3273
head	-3274
▁produced	-3275
uge	-3276
▁dram	-3277
▁consult	-3278
ratic	-3279
▁black	-3280
▁interests	-3281
IL	-3282
road	-3283
▁task	-3284
▁40	-3285
▁2005	-3286
▁Work	-3287
▁display	-3288
▁beaut	-3289
nal	-3290
▁Tw	-3291
▁expenditure	-3292
▁hor	-3293
▁funds	-3294
▁separate	-3295
cember	-3296
ey	-3297
▁friends	-3298
stituted	-3299
▁Tax	-3300
aughter	-3301
▁ago	-3302
asure	-3303
▁pict	-3304
▁accordance	-3305
▁bad	-3306
▁stra	-3307
▁Open	-3308
▁types	-3309
▁scientific	-3310
ites	-3311
▁labour	-3312
▁Chairman	-3313
▁Sri	-3314
▁adopted	-3315
ext	-3316
▁ww	-3317
▁documents	-3318
▁Sch	-3319
ticles	-3320
▁June	-3321
▁speed	-3322
▁Hy	-3323
▁Scheme	-3324
la	-3325
▁www	-3326
▁UN	-3327
▁inform	-3328
▁milk	-3329
▁doubt	-3330
▁December	-3331
▁democracy	-3332
▁contained	-3333
itled	-3334
▁occup	-3335
▁appe	-3336
▁standard	-3337
▁CO	-3338
▁heard	-3339
▁vision	-3340
▁domestic	-3341
hens	-3342
▁Utt	-3343
▁intellect	-3344
▁Ac	-3345
▁video	-3346
▁white	-3347
▁unless	-3348
▁standards	-3349
▁Well	-3350
▁Tamil	-3351
▁strateg	-3352
▁2014	-3353
gen	-3354
ids	-3355
atever	-3356
▁Mumbai	-3357
▁Account	-3358
vere	-3359
▁tar	-3360
▁exercise	-3361
▁pred	-3362
▁assets	-3363
oting	-3364
▁Whe	-3365
▁remov	-3366
▁highest	-3367
to	-3368
▁employees	-3369
▁29	-3370
iny	-3371
▁reached	-3372
▁questions	-3373
▁Er	-3374
▁Africa	-3375
▁husband	-3376
▁software	-3377
▁Shah	-3378
▁clean	-3379
abled	-3380
▁complex	-3381
▁revolution	-3382
▁Fir	-3383
etail	-3384
▁contribution	-3385
▁fre	-3386
▁pie	-3387
▁=	-3388
▁32	-3389
▁Kal	-3390
▁laid	-3391
▁ton	-3392
▁September	-3393
▁ge	-3394
▁north	-3395
▁Mon	-3396
ternet	-3397
▁August	-3398
▁advance	-3399
que	-3400
osing	-3401
▁town	-3402
add	-3403
▁tur	-3404
▁likely	-3405
▁image	-3406
▁print	-3407
▁multip	-3408
▁summ	-3409
▁stor	-3410
▁Krishna	-3411
▁2015	-3412
▁Asia	-3413
▁substant	-3414
oly	-3415
▁System	-3416
▁Director	-3417
▁offer	-3418
▁October	-3419
▁beautiful	-3420
▁steps	-3421
▁easy	-3422
▁Sam	-3423
▁effort	-3424
AC	-3425
verse	-3426
▁Nehru	-3427
phas	-3428
▁pack	-3429
▁influence	-3430
▁dy	-3431
▁Civil	-3432
▁numbers	-3433
▁generation	-3434
▁context	-3435
▁distin	-3436
ellig	-3437
▁purch	-3438
▁Indians	-3439
▁performance	-3440
▁reasons	-3441
▁species	-3442
▁insurance	-3443
ength	-3444
▁pattern	-3445
▁hours	-3446
▁assign	-3447
ager	-3448
▁District	-3449
▁bod	-3450
▁Char	-3451
▁leading	-3452
▁furn	-3453
▁Air	-3454
▁quick	-3455
▁export	-3456
▁technical	-3457
▁Its	-3458
▁fold	-3459
▁risk	-3460
▁Category	-3461
▁Research	-3462
has	-3463
izing	-3464
▁weak	-3465
▁costs	-3466
▁placed	-3467
▁recent	-3468
cription	-3469
▁swe	-3470
▁south	-3471
▁middle	-3472
▁largest	-3473
▁majority	-3474
oll	-3475
uration	-3476
▁Bas	-3477
▁minor	-3478
▁organisation	-3479
oved	-3480
▁celebr	-3481
▁sometimes	-3482
▁results	-3483
▁connected	-3484
▁Palest	-3485
▁Western	-3486
▁cells	-3487
▁military	-3488
▁exceed	-3489
▁growing	-3490
▁policies	-3491
▁opportunities	-3492
▁Other	-3493
▁orders	-3494
▁frame	-3495
-2	-3496
▁util	-3497
ressed	-3498
▁described	-3499
ora	-3500
▁Ker	-3501
▁Judges	-3502
onst	-3503
▁2013	-3504
▁range	-3505
▁tradition	-3506
ground	-3507
▁answer	-3508
▁struggle	-3509
▁instead	-3510
iment	-3511
▁charges	-3512
▁implementation	-3513
▁Mag	-3514
▁independence	-3515
▁threat	-3516
rid	-3517
▁academ	-3518
▁educational	-3519
ING	-3520
▁mob	-3521
▁Dev	-3522
▁fully	-3523
AB	-3524
▁consciousness	-3525
▁rail	-3526
▁Elect	-3527
▁Red	-3528
▁tri	-3529
▁conflic	-3530
▁consequ	-3531
▁mail	-3532
▁model	-3533
▁patient	-3534
olute	-3535
▁balance	-3536
▁affected	-3537
▁July	-3538
▁dark	-3539
▁mode	-3540
▁temper	-3541
▁deemed	-3542
▁former	-3543
ashtra	-3544
▁Val	-3545
▁seems	-3546
▁egg	-3547
▁fort	-3548
▁focus	-3549
▁Person	-3550
▁principle	-3551
▁green	-3552
▁victim	-3553
▁Gh	-3554
▁nucle	-3555
▁Hindus	-3556
▁ones	-3557
▁Explanation	-3558
atha	-3559
▁Are	-3560
▁pan	-3561
▁2007	-3562
ipt	-3563
▁media	-3564
▁quant	-3565
aught	-3566
▁origin	-3567
▁regarding	-3568
▁Prot	-3569
ateral	-3570
▁measure	-3571
▁fine	-3572
▁registered	-3573
ysis	-3574
pped	-3575
ional	-3576
▁understanding	-3577
pond	-3578
▁China	-3579
uff	-3580
▁Nove	-3581
▁team	-3582
▁gri	-3583
▁inside	-3584
cience	-3585
▁average	-3586
▁payable	-3587
▁independent	-3588
▁Up	-3589
▁Chapter	-3590
▁declared	-3591
▁selected	-3592
asc	-3593
▁hab	-3594
▁vac	-3595
▁People	-3596
▁looking	-3597
.3	-3598
ole	-3599
umn	-3600
▁asset	-3601
▁Special	-3602
▁command	-3603
raw	-3604
rown	-3605
▁refer	-3606
ensation	-3607
▁gold	-3608
▁facilit	-3609
ression	-3610
▁perhaps	-3611
OS	-3612
ti	-3613
▁farmers	-3614
▁authorities	-3615
▁Tag	-3616
▁extra	-3617
▁November	-3618
▁guid	-3619
ields	-3620
▁Islamic	-3621
▁content	-3622
▁Ob	-3623
▁cooperation	-3624
▁traditional	-3625
▁animal	-3626
▁agriculture	-3627
▁Rules	-3628
▁Def	-3629
quiry	-3630
resh	-3631
▁stock	-3632
porary	-3633
▁First	-3634
▁Gandhiji	-3635
▁Uttar	-3636
▁associated	-3637
asth	-3638
▁nom	-3639
iet	-3640
▁War	-3641
▁views	-3642
▁Management	-3643
▁leader	-3644
LE	-3645
inery	-3646
▁earn	-3647
▁rap	-3648
▁Here	-3649
iciency	-3650
leep	-3651
▁dead	-3652
▁adequ	-3653
▁emphas	-3654
▁presence	-3655
▁sections	-3656
with	-3657
▁eye	-3658
▁advice	-3659
oga	-3660
▁lack	-3661
ishn	-3662
overy	-3663
▁multi	-3664
▁useful	-3665
▁certificate	-3666
▁youth	-3667
▁80	-3668
▁uns	-3669
▁Therefore	-3670
▁More	-3671
view	-3672
▁reve	-3673
▁length	-3674
▁creation	-3675
▁extended	-3676
▁prem	-3677
ography	-3678
oms	-3679
itle	-3680
▁unc	-3681
order	-3682
▁style	-3683
▁terrorism	-3684
▁advant	-3685
▁located	-3686
ayan	-3687
▁speak	-3688
pir	-3689
▁AND	-3690
▁Pand	-3691
▁autom	-3692
▁needed	-3693
▁sentence	-3694
▁larger	-3695
▁Inf	-3696
▁fra	-3697
▁divine	-3698
idy	-3699
uties	-3700
irm	-3701
▁rout	-3702
▁benefits	-3703
▁Division	-3704
aily	-3705
illing	-3706
ocation	-3707
▁centre	-3708
▁Roy	-3709
▁hospital	-3710
▁additional	-3711
▁fulf	-3712
▁failed	-3713
▁committed	-3714
▁01	-3715
▁San	-3716
ipur	-3717
▁Ter	-3718
▁symbol	-3719
▁Feb	-3720
▁extreme	-3721
▁developing	-3722
▁principles	-3723
▁Corporation	-3724
aded	-3725
▁hot	-3726
▁won	-3727
▁introduced	-3728
▁Ur	-3729
▁schemes	-3730
▁shown	-3731
▁difference	-3732
ula	-3733
▁60	-3734
uled	-3735
▁2006	-3736
▁Policy	-3737
▁drink	-3738
▁perman	-3739
▁Project	-3740
▁iii	-3741
dule	-3742
▁Aut	-3743
arant	-3744
▁ball	-3745
hat	-3746
▁IS	-3747
▁expressed	-3748
▁Most	-3749
▁calc	-3750
▁stories	-3751
▁registration	-3752
▁fest	-3753
▁ON	-3754
AP	-3755
▁Rem	-3756
▁Excell	-3757
nes	-3758
▁Ge	-3759
▁enact	-3760
enior	-3761
▁chem	-3762
▁Child	-3763
▁promote	-3764
▁Chandra	-3765
we	-3766
▁Bhag	-3767
▁announ	-3768
▁wealth	-3769
▁objective	-3770
▁successful	-3771
▁Cap	-3772
▁namely	-3773
▁2008	-3774
▁Conference	-3775
▁Set	-3776
▁Organ	-3777
▁thinking	-3778
icate	-3779
arma	-3780
▁everything	-3781
▁191	-3782
apers	-3783
▁cash	-3784
▁AT	-3785
▁Kum	-3786
oured	-3787
▁levels	-3788
▁someone	-3789
oo	-3790
itis	-3791
▁rise	-3792
ervation	-3793
icated	-3794
▁covered	-3795
ially	-3796
▁1961	-3797
▁extend	-3798
ga	-3799
▁pric	-3800
▁penalty	-3801
vious	-3802
▁examination	-3803
ops	-3804
iciary	-3805
▁danger	-3806
▁England	-3807
▁operations	-3808
▁Germ	-3809
▁chann	-3810
▁played	-3811
▁appreci	-3812
▁contains	-3813
▁processing	-3814
pper	-3815
▁names	-3816
▁Mo	-3817
▁poems	-3818
▁shows	-3819
▁villages	-3820
▁Secretary	-3821
▁commit	-3822
▁mal	-3823
light	-3824
▁soil	-3825
▁graph	-3826
ows	-3827
▁item	-3828
uation	-3829
tion	-3830
ailed	-3831
▁Maharashtra	-3832
ague	-3833
▁virt	-3834
▁wel	-3835
ifying	-3836
▁Tribunal	-3837
▁construction	-3838
▁fif	-3839
▁Us	-3840
▁lines	-3841
usive	-3842
▁ideal	-3843
▁Iran	-3844
▁Dh	-3845
▁minimum	-3846
▁phot	-3847
▁Bec	-3848
force	-3849
▁machine	-3850
▁storage	-3851
▁sale	-3852
▁collection	-3853
▁merely	-3854
IV	-3855
▁files	-3856
aches	-3857
adh	-3858
▁Mod	-3859
venue	-3860
▁walk	-3861
▁resident	-3862
ube	-3863
▁friendly	-3864
ahar	-3865
▁tal	-3866
▁running	-3867
▁constant	-3868
▁Nar	-3869
▁judges	-3870
▁temples	-3871
▁2002	-3872
▁changed	-3873
▁publication	-3874
▁bed	-3875
ruary	-3876
▁skin	-3877
▁variety	-3878
▁entitled	-3879
dden	-3880
itch	-3881
▁weight	-3882
▁lic	-3883
▁grand	-3884
cribe	-3885
▁surface	-3886
ript	-3887
▁easily	-3888
▁unique	-3889
▁parents	-3890
ronic	-3891
aji	-3892
▁ship	-3893
▁vital	-3894
▁contem	-3895
▁raised	-3896
omic	-3897
eties	-3898
▁dispos	-3899
▁worship	-3900
▁cat	-3901
aging	-3902
▁pray	-3903
▁remark	-3904
▁department	-3905
▁impact	-3906
▁primary	-3907
▁prosper	-3908
▁external	-3909
rated	-3910
▁site	-3911
▁code	-3912
word	-3913
▁morning	-3914
CC	-3915
lands	-3916
▁cand	-3917
iverse	-3918
▁February	-3919
olid	-3920
unic	-3921
enses	-3922
ertain	-3923
▁desire	-3924
▁relief	-3925
▁engaged	-3926
▁bow	-3927
▁gets	-3928
▁Inter	-3929
▁block	-3930
▁Tagore	-3931
▁square	-3932
▁Authority	-3933
▁Di	-3934
▁Kerala	-3935
▁defined	-3936
▁session	-3937
ero	-3938
▁maximum	-3939
ighb	-3940
▁unity	-3941
▁Services	-3942
▁chief	-3943
▁Judicial	-3944
▁expected	-3945
▁Fl	-3946
▁female	-3947
▁looked	-3948
rows	-3949
▁remains	-3950
▁resolution	-3951
omy	-3952
▁vehic	-3953
▁Second	-3954
▁190	-3955
▁scholars	-3956
▁greet	-3957
▁withd	-3958
abilities	-3959
▁Nep	-3960
▁European	-3961
hab	-3962
▁board	-3963
aled	-3964
pees	-3965
▁critic	-3966
▁duties	-3967
▁Inst	-3968
▁wait	-3969
▁element	-3970
▁elements	-3971
▁Why	-3972
▁Since	-3973
▁equip	-3974
▁Ah	-3975
aken	-3976
▁Their	-3977
▁shares	-3978
▁philosophy	-3979
ilateral	-3980
▁Finance	-3981
▁Agricult	-3982
▁filed	-3983
▁Also	-3984
▁excell	-3985
▁slow	-3986
▁ready	-3987
▁fundamental	-3988
▁cere	-3989
▁neighb	-3990
▁convey	-3991
▁organization	-3992
prene	-3993
▁Sir	-3994
▁enable	-3995
verty	-3996
inet	-3997
▁cho	-3998
▁individuals	-3999
iting	-4000
uries	-4001
▁rain	-4002
▁Administr	-4003
▁valid	-4004
▁sup	-4005
▁Though	-4006
▁prosec	-4007
▁poverty	-4008
▁rele	-4009
▁indeed	-4010
▁Mark	-4011
enance	-4012
▁nations	-4013
rav	-4014
onse	-4015
reprene	-4016
▁whatever	-4017
▁cou	-4018
▁acts	-4019
▁card	-4020
sych	-4021
▁trying	-4022
▁communication	-4023
▁magn	-4024
heduled	-4025
anes	-4026
▁error	-4027
▁expect	-4028
▁feeling	-4029
▁studies	-4030
▁moral	-4031
▁saying	-4032
▁ast	-4033
▁annual	-4034
▁medium	-4035
▁enterpr	-4036
▁applications	-4037
▁discipl	-4038
▁flu	-4039
▁pure	-4040
▁series	-4041
▁Because	-4042
▁throughout	-4043
ilies	-4044
▁send	-4045
▁reading	-4046
II	-4047
▁affect	-4048
▁minister	-4049
▁Lim	-4050
▁feet	-4051
▁facts	-4052
▁cultiv	-4053
▁articles	-4054
hya	-4055
▁Soci	-4056
▁susp	-4057
▁excl	-4058
▁items	-4059
aja	-4060
▁ult	-4061
▁turned	-4062
▁requires	-4063
▁sacrif	-4064
▁integral	-4065
▁Panch	-4066
▁frequ	-4067
▁Gujarat	-4068
lex	-4069
▁points	-4070
oti	-4071
uit	-4072
ivery	-4073
▁leaves	-4074
▁Governments	-4075
▁entry	-4076
erative	-4077
▁Princi	-4078
omet	-4079
▁Pres	-4080
▁granted	-4081
atma	-4082
▁Amendment	-4083
ests	-4084
▁rapid	-4085
▁degree	-4086
▁prison	-4087
▁Members	-4088
▁aspects	-4089
▁compon	-4090
aviour	-4091
▁divided	-4092
▁removal	-4093
▁ST	-4094
aksh	-4095
▁mainly	-4096
▁sem	-4097
▁Karn	-4098
▁Ant	-4099
istics	-4100
▁touch	-4101
▁sudden	-4102
ferences	-4103
▁36	-4104
▁suc	-4105
eless	-4106
▁pressure	-4107
▁practices	-4108
▁president	-4109
▁2001	-4110
▁Social	-4111
▁methods	-4112
fort	-4113
▁Tod	-4114
▁powerful	-4115
BI	-4116
ogle	-4117
▁Art	-4118
▁agency	-4119
▁suit	-4120
▁causes	-4121
▁dischar	-4122
▁Ann	-4123
▁incident	-4124
oud	-4125
▁mur	-4126
oming	-4127
▁suggested	-4128
ped	-4129
essing	-4130
▁quar	-4131
ricket	-4132
▁receipt	-4133
ja	-4134
aug	-4135
▁Dem	-4136
▁delay	-4137
osh	-4138
▁incl	-4139
▁2012	-4140
▁impl	-4141
▁Aud	-4142
lying	-4143
▁foot	-4144
▁Langu	-4145
▁defence	-4146
▁literary	-4147
rate	-4148
▁fert	-4149
▁fields	-4150
▁safety	-4151
▁offered	-4152
▁vast	-4153
▁Guru	-4154
▁Rama	-4155
▁bear	-4156
▁electric	-4157
▁requirements	-4158
india	-4159
rance	-4160
ousing	-4161
▁target	-4162
▁nut	-4163
▁rare	-4164
▁tend	-4165
cript	-4166
▁anti	-4167
▁staff	-4168
▁tiss	-4169
▁belief	-4170
▁Pan	-4171
▁adequate	-4172
▁distance	-4173
▁intellig	-4174
▁shape	-4175
▁Official	-4176
▁confident	-4177
▁daily	-4178
▁PRO	-4179
▁meant	-4180
▁contain	-4181
▁daughter	-4182
▁distribution	-4183
▁fee	-4184
▁welfare	-4185
▁sav	-4186
▁upd	-4187
▁universal	-4188
▁Her	-4189
▁wond	-4190
▁gone	-4191
▁named	-4192
▁schools	-4193
▁succeed	-4194
ishing	-4195
▁Stand	-4196
▁sides	-4197
▁promotion	-4198
▁km	-4199
anas	-4200
▁completed	-4201
oph	-4202
▁Bharat	-4203
▁Health	-4204
▁convers	-4205
enture	-4206
▁Ed	-4207
▁Vis	-4208
▁Aust	-4209
▁Associ	-4210
▁follows	-4211
▁33	-4212
▁male	-4213
▁lived	-4214
▁cities	-4215
▁wishes	-4216
ps	-4217
iring	-4218
▁Akbar	-4219
▁destro	-4220
artments	-4221
▁discussion	-4222
▁Out	-4223
actions	-4224
nel	-4225
vis	-4226
▁trou	-4227
▁factors	-4228
▁treated	-4229
▁teachers	-4230
▁construct	-4231
▁Whether	-4232
▁confidence	-4233
▁eat	-4234
imately	-4235
chand	-4236
▁expand	-4237
asthan	-4238
▁School	-4239
olved	-4240
▁sectors	-4241
aign	-4242
mosp	-4243
▁Car	-4244
porate	-4245
▁Jap	-4246
▁learned	-4247
▁election	-4248
▁1999	-4249
▁caste	-4250
▁rock	-4251
ils	-4252
una	-4253
▁knew	-4254
▁highly	-4255
▁Palestin	-4256
athy	-4257
▁events	-4258
▁establishment	-4259
▁argu	-4260
▁regional	-4261
▁Ro	-4262
▁bab	-4263
▁Bengali	-4264
atter	-4265
▁root	-4266
▁fresh	-4267
respond	-4268
▁altern	-4269
▁association	-4270
AM	-4271
-201	-4272
▁esc	-4273
▁actual	-4274
▁beauty	-4275
▁returned	-4276
▁serve	-4277
▁appears	-4278
▁maintain	-4279
▁positive	-4280
▁34	-4281
▁worked	-4282
▁remember	-4283
▁Kol	-4284
▁figure	-4285
▁volunt	-4286
▁Mahatma	-4287
▁believed	-4288
▁Sal	-4289
▁Only	-4290
▁died	-4291
▁script	-4292
▁encoura	-4293
▁songs	-4294
▁bodies	-4295
▁master	-4296
▁avoid	-4297
izations	-4298
▁intellectual	-4299
▁gas	-4300
▁mid	-4301
urate	-4302
▁Himal	-4303
▁veget	-4304
▁reality	-4305
▁pleasure	-4306
isc	-4307
the	-4308
▁pra	-4309
▁capt	-4310
▁Group	-4311
▁machinery	-4312
▁strengthen	-4313
▁door	-4314
▁abroad	-4315
▁option	-4316
▁absolute	-4317
▁academic	-4318
▁insects	-4319
▁cru	-4320
▁version	-4321
▁Error	-4322
▁color	-4323
▁probably	-4324
▁decisions	-4325
ken	-4326
▁bond	-4327
▁internal	-4328
▁SE	-4329
▁default	-4330
▁diseases	-4331
▁determined	-4332
▁prec	-4333
▁rupees	-4334
▁punishment	-4335
AG	-4336
▁heavy	-4337
▁nuclear	-4338
▁sleep	-4339
▁bri	-4340
▁opening	-4341
▁station	-4342
▁families	-4343
▁pil	-4344
▁Russ	-4345
▁partnership	-4346
▁proved	-4347
▁failure	-4348
umer	-4349
▁dial	-4350
ception	-4351
▁branch	-4352
▁Post	-4353
▁Besides	-4354
▁clearly	-4355
▁Excellency	-4356
set	-4357
▁Khan	-4358
▁newsp	-4359
▁atmosp	-4360
ming	-4361
▁arri	-4362
cast	-4363
ties	-4364
▁Nav	-4365
udget	-4366
▁Google	-4367
▁carrying	-4368
ARD	-4369
▁dim	-4370
▁joy	-4371
▁agreed	-4372
▁rank	-4373
▁investigation	-4374
▁CH	-4375
urt	-4376
▁agencies	-4377
ae	-4378
▁buy	-4379
▁keeping	-4380
vert	-4381
ifest	-4382
▁table	-4383
▁Programme	-4384
yan	-4385
▁id	-4386
cher	-4387
▁borrow	-4388
▁response	-4389
▁happened	-4390
▁Inc	-4391
▁army	-4392
▁dated	-4393
▁petitioner	-4394
isms	-4395
▁Bel	-4396
▁voice	-4397
▁Today	-4398
▁prepar	-4399
▁thereof	-4400
▁delivery	-4401
▁goal	-4402
▁sufficient	-4403
▁aw	-4404
iling	-4405
ologies	-4406
▁mutual	-4407
▁innovation	-4408
▁Party	-4409
▁experi	-4410
▁conflict	-4411
▁cold	-4412
▁estim	-4413
▁recommended	-4414
rupt	-4415
▁Ham	-4416
putes	-4417
▁Further	-4418
▁controll	-4419
▁Form	-4420
▁Assam	-4421
▁Buddh	-4422
▁attend	-4423
▁distingu	-4424
cip	-4425
▁enem	-4426
▁Assist	-4427
▁season	-4428
▁Legislative	-4429
▁compensation	-4430
▁45	-4431
stitu	-4432
▁dealing	-4433
iance	-4434
▁late	-4435
▁Power	-4436
▁passing	-4437
▁deduction	-4438
ray	-4439
▁grass	-4440
▁candid	-4441
▁BC	-4442
▁Sah	-4443
erted	-4444
▁amongst	-4445
▁accident	-4446
▁Ira	-4447
▁hero	-4448
▁input	-4449
▁Proced	-4450
▁profit	-4451
▁reasonable	-4452
eria	-4453
▁Rajya	-4454
▁constituted	-4455
▁suitable	-4456
▁leadership	-4457
rust	-4458
▁Bihar	-4459
▁select	-4460
▁officials	-4461
▁Independ	-4462
.4	-4463
ira	-4464
arian	-4465
▁launched	-4466
▁Moh	-4467
▁doctor	-4468
▁features	-4469
▁Rajasthan	-4470
▁Men	-4471
▁urban	-4472
▁happen	-4473
▁reduced	-4474
▁chemical	-4475
elines	-4476
▁colour	-4477
▁advantage	-4478
▁completely	-4479
▁Company	-4480
▁Pet	-4481
▁College	-4482
▁applicable	-4483
rehens	-4484
▁miss	-4485
▁draft	-4486
▁identity	-4487
▁Kar	-4488
▁fal	-4489
▁ordinary	-4490
aul	-4491
ura	-4492
▁adult	-4493
▁instance	-4494
▁encourage	-4495
▁shr	-4496
inter	-4497
▁wild	-4498
▁correspond	-4499
▁latter	-4500
eks	-4501
▁dry	-4502
▁compr	-4503
▁instruct	-4504
▁Commercial	-4505
▁Cur	-4506
itect	-4507
ads	-4508
asm	-4509
▁Two	-4510
rench	-4511
▁moon	-4512
▁seem	-4513
▁parliament	-4514
▁Ev	-4515
ataka	-4516
▁wood	-4517
▁Which	-4518
▁Andhra	-4519
▁Ra	-4520
▁prices	-4521
▁planning	-4522
▁Who	-4523
-1	-4524
OL	-4525
ply	-4526
▁Att	-4527
achal	-4528
▁Iraq	-4529
▁Water	-4530
▁entered	-4531
▁box	-4532
▁Both	-4533
▁crops	-4534
▁subsequ	-4535
▁Him	-4536
▁Pen	-4537
▁mist	-4538
▁poem	-4539
ofindia	-4540
▁hearing	-4541
▁MS	-4542
▁hour	-4543
iation	-4544
▁Science	-4545
▁reports	-4546
▁guarant	-4547
▁Aff	-4548
▁concl	-4549
▁stone	-4550
▁Another	-4551
▁administrative	-4552
▁desp	-4553
▁appell	-4554
▁spent	-4555
pective	-4556
▁excess	-4557
▁server	-4558
▁elected	-4559
▁Environment	-4560
▁recommendations	-4561
▁fit	-4562
▁reserv	-4563
▁critical	-4564
▁permanent	-4565
▁liqu	-4566
▁counter	-4567
▁remained	-4568
▁initiatives	-4569
▁assum	-4570
▁paint	-4571
TER	-4572
▁applied	-4573
▁centres	-4574
iers	-4575
▁materials	-4576
ancing	-4577
▁motion	-4578
▁Ay	-4579
▁Lib	-4580
▁tom	-4581
▁negative	-4582
▁supported	-4583
▁sand	-4584
▁Kumar	-4585
▁breed	-4586
▁mouth	-4587
grat	-4588
atically	-4589
▁holding	-4590
▁reject	-4591
▁approved	-4592
▁notes	-4593
▁watch	-4594
▁inner	-4595
▁psych	-4596
▁Port	-4597
ius	-4598
▁Prem	-4599
▁drawn	-4600
bal	-4601
ika	-4602
mark	-4603
▁Che	-4604
▁incor	-4605
▁released	-4606
▁agg	-4607
▁fat	-4608
▁latest	-4609
▁achieved	-4610
▁characters	-4611
▁Speaker	-4612
▁RE	-4613
ented	-4614
▁nearly	-4615
▁sustain	-4616
▁aid	-4617
▁Financial	-4618
▁governance	-4619
AD	-4620
jud	-4621
▁00	-4622
▁professional	-4623
▁Yoga	-4624
ittees	-4625
▁output	-4626
▁web	-4627
anges	-4628
▁cook	-4629
▁explo	-4630
isition	-4631
▁pip	-4632
after	-4633
▁moved	-4634
▁trees	-4635
▁surround	-4636
▁2003	-4637
▁fruit	-4638
odes	-4639
▁damage	-4640
▁honour	-4641
▁ang	-4642
▁ende	-4643
▁sanction	-4644
▁Bus	-4645
▁congrat	-4646
rency	-4647
▁sources	-4648
▁greetings	-4649
▁ec	-4650
▁leaf	-4651
▁title	-4652
▁Office	-4653
isations	-4654
▁subjects	-4655
▁Non	-4656
▁Will	-4657
▁privile	-4658
uel	-4659
▁surv	-4660
▁appointment	-4661
▁participation	-4662
lete	-4663
▁campaign	-4664
▁entreprene	-4665
▁75	-4666
▁mission	-4667
oj	-4668
ym	-4669
▁numer	-4670
ondon	-4671
▁sort	-4672
▁politics	-4673
▁interesting	-4674
RO	-4675
cean	-4676
igible	-4677
▁Human	-4678
▁plays	-4679
▁perfect	-4680
▁undertaking	-4681
aks	-4682
▁189	-4683
board	-4684
pping	-4685
▁fram	-4686
▁worth	-4687
▁territory	-4688
key	-4689
▁hear	-4690
▁sell	-4691
▁recorded	-4692
▁historical	-4693
era	-4694
rel	-4695
▁Econom	-4696
▁charged	-4697
▁removed	-4698
▁iv	-4699
▁legislation	-4700
lal	-4701
▁Jew	-4702
▁save	-4703
▁rates	-4704
CH	-4705
▁game	-4706
▁exact	-4707
▁concent	-4708
▁picture	-4709
▁creating	-4710
▁remove	-4711
▁standing	-4712
ulating	-4713
▁Don	-4714
▁dece	-4715
▁democratic	-4716
▁Applic	-4717
▁SCC	-4718
release	-4719
▁judgment	-4720
▁gard	-4721
arati	-4722
▁Rail	-4723
▁Insurance	-4724
▁married	-4725
▁commission	-4726
▁Over	-4727
detail	-4728
ayana	-4729
▁join	-4730
▁weeks	-4731
▁Procedure	-4732
▁analysis	-4733
▁37	-4734
▁Sikh	-4735
▁2004	-4736
▁London	-4737
▁deposit	-4738
▁eth	-4739
▁Hist	-4740
▁Internet	-4741
▁prosperity	-4742
▁Est	-4743
▁Lab	-4744
▁shap	-4745
▁houses	-4746
▁gain	-4747
▁tonnes	-4748
▁destroy	-4749
▁functioning	-4750
anya	-4751
▁finally	-4752
▁proport	-4753
ka	-4754
▁Gl	-4755
iced	-4756
▁Pri	-4757
anged	-4758
phone	-4759
thern	-4760
▁committee	-4761
▁Among	-4762
▁Foreign	-4763
▁facility	-4764
▁east	-4765
▁match	-4766
▁Use	-4767
▁Could	-4768
▁choice	-4769
▁opened	-4770
▁senior	-4771
▁obst	-4772
▁false	-4773
▁classes	-4774
▁lad	-4775
▁sole	-4776
▁River	-4777
▁Bad	-4778
▁Tem	-4779
▁Sind	-4780
▁Network	-4781
▁Abd	-4782
▁Bose	-4783
▁maintained	-4784
▁amb	-4785
rence	-4786
▁advoc	-4787
▁theory	-4788
▁neither	-4789
▁challenges	-4790
▁2009	-4791
▁Pers	-4792
▁Member	-4793
▁obvious	-4794
▁conducted	-4795
▁2011	-4796
▁drugs	-4797
▁profits	-4798
▁Schedule	-4799
oe	-4800
▁huge	-4801
▁sought	-4802
▁dispute	-4803
▁challenge	-4804
iveness	-4805
▁Police	-4806
▁solution	-4807
.5	-4808
athe	-4809
ider	-4810
▁teaching	-4811
▁Ash	-4812
▁debt	-4813
▁weap	-4814
▁dream	-4815
▁ability	-4816
utory	-4817
▁journey	-4818
hern	-4819
▁Nag	-4820
▁noted	-4821
▁constitutional	-4822
-2018	-4823
▁Home	-4824
▁factor	-4825
▁helped	-4826
▁Mission	-4827
▁submitted	-4828
▁reb	-4829
▁stood	-4830
▁banking	-4831
▁demonst	-4832
▁sitting	-4833
▁obtained	-4834
▁proposal	-4835
▁Karnataka	-4836
▁communities	-4837
otic	-4838
▁grad	-4839
▁grown	-4840
▁Christian	-4841
▁awareness	-4842
astic	-4843
▁regions	-4844
▁elections	-4845
▁transform	-4846
mon	-4847
issa	-4848
▁records	-4849
▁consists	-4850
▁mort	-4851
▁Ganga	-4852
▁Nepal	-4853
▁breat	-4854
▁relative	-4855
▁Exp	-4856
aling	-4857
jection	-4858
▁volume	-4859
▁outl	-4860
▁surpr	-4861
▁atmosphere	-4862
▁manufacture	-4863
▁crime	-4864
▁accomp	-4865
▁citizen	-4866
▁release	-4867
RL	-4868
▁188	-4869
▁Ser	-4870
erate	-4871
▁didn	-4872
▁waste	-4873
▁served	-4874
▁defend	-4875
▁formal	-4876
▁letters	-4877
orial	-4878
▁bott	-4879
rical	-4880
essions	-4881
ester	-4882
▁squared	-4883
▁substance	-4884
▁reduce	-4885
▁ban	-4886
iform	-4887
▁birds	-4888
▁effects	-4889
▁comment	-4890
▁reflect	-4891
▁Lo	-4892
▁pick	-4893
▁enhan	-4894
▁changing	-4895
▁expenses	-4896
▁objectives	-4897
▁universities	-4898
pret	-4899
▁wat	-4900
▁west	-4901
pta	-4902
udi	-4903
▁Ka	-4904
▁Show	-4905
▁folk	-4906
▁plat	-4907
▁amend	-4908
▁moving	-4909
▁affairs	-4910
ghal	-4911
ankar	-4912
▁Nature	-4913
CE	-4914
rew	-4915
iments	-4916
▁writer	-4917
▁situated	-4918
olve	-4919
▁Each	-4920
ilarly	-4921
▁dign	-4922
▁ment	-4923
▁suffering	-4924
olly	-4925
▁Once	-4926
▁pill	-4927
▁Right	-4928
▁healthy	-4929
▁approval	-4930
▁attached	-4931
orthern	-4932
ordinate	-4933
▁Gov	-4934
▁2016	-4935
▁column	-4936
▁Austral	-4937
▁attitude	-4938
▁decades	-4939
▁Although	-4940
▁register	-4941
roc	-4942
▁IP	-4943
▁maintenance	-4944
▁transferred	-4945
het	-4946
▁thirty	-4947
▁Language	-4948
▁student	-4949
▁devotion	-4950
▁recently	-4951
▁pollution	-4952
ocol	-4953
▁cry	-4954
▁bran	-4955
▁fish	-4956
▁sugar	-4957
▁mobile	-4958
▁division	-4959
like	-4960
essor	-4961
ni	-4962
▁Va	-4963
▁description	-4964
ghan	-4965
▁brain	-4966
▁operating	-4967
▁background	-4968
rad	-4969
▁Chrom	-4970
▁Press	-4971
▁online	-4972
▁offences	-4973
▁Association	-4974
ST	-4975
▁hair	-4976
▁yield	-4977
▁climate	-4978
ird	-4979
lies	-4980
▁Self	-4981
▁phase	-4982
▁processes	-4983
▁notification	-4984
▁AIR	-4985
▁Jain	-4986
▁Orissa	-4987
▁decide	-4988
▁collabor	-4989
▁restrict	-4990
▁architect	-4991
▁cam	-4992
▁irr	-4993
▁colle	-4994
▁equipment	-4995
aman	-4996
ested	-4997
▁lies	-4998
▁nine	-4999
▁eleph	-5000
▁impris	-5001
gypt	-5002
▁defin	-5003
▁Invest	-5004
▁courage	-5005
▁engineering	-5006
▁gar	-5007
▁absence	-5008
▁principal	-5009
▁uses	-5010
▁Middle	-5011
▁resist	-5012
▁ourselves	-5013
▁imprisonment	-5014
ogue	-5015
▁Jaw	-5016
▁ble	-5017
▁spl	-5018
anging	-5019
▁Society	-5020
ET	-5021
▁Pra	-5022
▁die	-5023
▁prime	-5024
aly	-5025
▁subt	-5026
▁joined	-5027
▁apart	-5028
▁greatest	-5029
▁settlement	-5030
imb	-5031
▁coal	-5032
▁track	-5033
▁compar	-5034
▁bringing	-5035
▁See	-5036
holders	-5037
RA	-5038
▁SH	-5039
▁gains	-5040
▁habit	-5041
▁Before	-5042
▁fellow	-5043
hus	-5044
▁kn	-5045
▁arm	-5046
▁marg	-5047
▁emotion	-5048
urities	-5049
▁pending	-5050
ij	-5051
aced	-5052
isher	-5053
▁survey	-5054
▁Das	-5055
▁users	-5056
ibilities	-5057
▁reported	-5058
ammu	-5059
▁Ext	-5060
▁Women	-5061
▁disputes	-5062
uous	-5063
▁star	-5064
▁inaug	-5065
▁recognised	-5066
▁Park	-5067
▁acid	-5068
icious	-5069
ifications	-5070
▁amendment	-5071
nov	-5072
osure	-5073
▁Mahab	-5074
▁weather	-5075
▁comprehens	-5076
▁becoming	-5077
▁execution	-5078
xy	-5079
▁phone	-5080
aste	-5081
▁187	-5082
▁Egypt	-5083
achment	-5084
▁Limited	-5085
▁Independence	-5086
hu	-5087
▁185	-5088
▁Ali	-5089
▁smaller	-5090
▁priority	-5091
▁resource	-5092
▁Nat	-5093
▁store	-5094
▁designed	-5095
▁medicine	-5096
▁Nan	-5097
▁Ret	-5098
▁URL	-5099
▁helps	-5100
▁1961-2018	-5101
▁proceeding	-5102
▁translation	-5103
▁rob	-5104
inent	-5105
▁Jammu	-5106
▁impart	-5107
oral	-5108
▁Sect	-5109
▁expert	-5110
▁monitor	-5111
iled	-5112
▁eld	-5113
▁Ent	-5114
▁although	-5115
▁efficient	-5116
▁looks	-5117
▁conclud	-5118
▁evening	-5119
▁purchase	-5120
apt	-5121
▁piece	-5122
▁bul	-5123
▁fed	-5124
▁Subhas	-5125
apur	-5126
▁Sun	-5127
▁scope	-5128
▁Commun	-5129
▁afford	-5130
▁commitment	-5131
▁manufacturing	-5132
rog	-5133
▁Lt	-5134
▁Mother	-5135
▁behaviour	-5136
withstanding	-5137
▁43	-5138
ruption	-5139
▁44	-5140
▁SP	-5141
▁mix	-5142
▁deals	-5143
▁simpl	-5144
▁Gaz	-5145
▁heat	-5146
▁actions	-5147
iant	-5148
▁capable	-5149
▁crow	-5150
▁union	-5151
▁wonder	-5152
▁Univers	-5153
DU	-5154
▁Life	-5155
▁spot	-5156
ips	-5157
▁signed	-5158
▁possession	-5159
vent	-5160
▁500	-5161
▁format	-5162
▁Training	-5163
▁contempt	-5164
aram	-5165
icted	-5166
▁Stud	-5167
▁rice	-5168
▁pointed	-5169
▁scientists	-5170
▁radi	-5171
astern	-5172
▁brief	-5173
▁launch	-5174
hance	-5175
known	-5176
▁bilateral	-5177
OU	-5178
rees	-5179
▁solar	-5180
▁Divine	-5181
▁rivers	-5182
▁finance	-5183
▁revenue	-5184
▁festival	-5185
▁password	-5186
ESS	-5187
▁Mand	-5188
▁drive	-5189
omin	-5190
▁arising	-5191
▁Bin	-5192
▁ap	-5193
▁Bah	-5194
▁Emp	-5195
▁micro	-5196
▁Madras	-5197
▁Cop	-5198
▁kil	-5199
abinet	-5200
▁Rights	-5201
▁minutes	-5202
▁Criminal	-5203
▁acquired	-5204
hel	-5205
▁defe	-5206
▁felicit	-5207
▁portion	-5208
▁implemented	-5209
▁alt	-5210
▁Industrial	-5211
▁Ke	-5212
▁flowers	-5213
▁identified	-5214
▁Ty	-5215
ping	-5216
▁Rad	-5217
▁appeared	-5218
▁currency	-5219
▁interpret	-5220
▁performed	-5221
▁friendship	-5222
▁cricket	-5223
▁manifest	-5224
▁email	-5225
▁shared	-5226
▁Sum	-5227
▁File	-5228
▁myst	-5229
istrate	-5230
▁withdraw	-5231
▁executive	-5232
▁proof	-5233
▁channel	-5234
▁Assessing	-5235
▁Hyder	-5236
▁commod	-5237
▁2010	-5238
▁calls	-5239
▁platform	-5240
▁straight	-5241
hai	-5242
▁42	-5243
▁zero	-5244
aration	-5245
▁Affairs	-5246
▁commence	-5247
▁186	-5248
▁chance	-5249
ranath	-5250
▁skills	-5251
▁initial	-5252
▁assigned	-5253
▁48	-5254
unicip	-5255
▁filled	-5256
▁installed	-5257
bon	-5258
▁mandap	-5259
▁visited	-5260
inces	-5261
▁Those	-5262
▁Afghan	-5263
▁enforce	-5264
▁location	-5265
▁Like	-5266
▁forth	-5267
▁oblig	-5268
▁trend	-5269
▁announced	-5270
redit	-5271
▁lawy	-5272
▁kinds	-5273
▁Related	-5274
president	-5275
▁distinct	-5276
▁satisfied	-5277
▁temperature	-5278
presidentofindia	-5279
inding	-5280
▁dance	-5281
▁severe	-5282
▁Israeli	-5283
▁Nations	-5284
▁branches	-5285
▁Av	-5286
amin	-5287
▁Prom	-5288
▁aims	-5289
▁reforms	-5290
▁marketing	-5291
▁Nadu	-5292
▁AD	-5293
▁Houses	-5294
▁stream	-5295
▁struct	-5296
▁delight	-5297
▁Business	-5298
▁Security	-5299
▁initiative	-5300
EM	-5301
amet	-5302
hara	-5303
under	-5304
▁Time	-5305
▁organizations	-5306
ithm	-5307
roud	-5308
▁Jag	-5309
▁please	-5310
▁Reserve	-5311
▁discl	-5312
▁seemed	-5313
▁formation	-5314
▁represents	-5315
▁90	-5316
▁....	-5317
▁Stat	-5318
▁categ	-5319
▁partner	-5320
▁organized	-5321
▁respective	-5322
▁amp	-5323
▁colon	-5324
▁beings	-5325
▁offices	-5326
▁discussed	-5327
▁environmental	-5328
▁secure	-5329
▁billion	-5330
▁extension	-5331
esty	-5332
▁Hon	-5333
▁evil	-5334
▁girls	-5335
▁poets	-5336
▁wants	-5337
▁Deputy	-5338
▁Control	-5339
▁Something	-5340
anj	-5341
ille	-5342
▁upper	-5343
▁marked	-5344
▁western	-5345
▁Protection	-5346
▁02	-5347
▁cloth	-5348
▁indig	-5349
▁battle	-5350
▁mostly	-5351
▁communal	-5352
▁collected	-5353
ulty	-5354
▁hop	-5355
asant	-5356
▁Cert	-5357
▁pert	-5358
▁disapp	-5359
▁mir	-5360
▁band	-5361
▁none	-5362
riving	-5363
▁customer	-5364
▁centuries	-5365
▁Fed	-5366
▁Bangl	-5367
▁immediate	-5368
acc	-5369
itage	-5370
▁narrow	-5371
▁possess	-5372
rat	-5373
▁wise	-5374
▁distur	-5375
▁Kab	-5376
▁pregn	-5377
ensions	-5378
▁exists	-5379
▁preced	-5380
▁rid	-5381
right	-5382
▁Babu	-5383
▁absor	-5384
▁doesn	-5385
▁imposed	-5386
▁compared	-5387
che	-5388
ila	-5389
atio	-5390
▁plaint	-5391
mar	-5392
▁dia	-5393
▁coast	-5394
▁fertil	-5395
▁simply	-5396
▁eligible	-5397
▁ax	-5398
ette	-5399
▁Sard	-5400
▁conce	-5401
▁judiciary	-5402
oes	-5403
osite	-5404
▁liquid	-5405
▁deliver	-5406
▁mountain	-5407
▁thousands	-5408
16	-5409
stood	-5410
▁History	-5411
▁equality	-5412
▁improvement	-5413
ohn	-5414
ossible	-5415
▁tissue	-5416
▁equally	-5417
▁advanced	-5418
▁Ministers	-5419
▁governments	-5420
▁ear	-5421
▁remote	-5422
elled	-5423
▁killed	-5424
▁framework	-5425
iration	-5426
▁prejud	-5427
▁stands	-5428
▁foundation	-5429
▁Met	-5430
▁runs	-5431
▁cance	-5432
▁sight	-5433
▁Select	-5434
CI	-5435
▁Joint	-5436
ployment	-5437
▁containing	-5438
▁university	-5439
▁bone	-5440
▁French	-5441
▁council	-5442
DA	-5443
▁Exec	-5444
▁blue	-5445
▁limits	-5446
▁consumer	-5447
▁movements	-5448
antic	-5449
▁jail	-5450
▁train	-5451
▁intended	-5452
▁properly	-5453
▁Pay	-5454
oring	-5455
minent	-5456
▁deleg	-5457
▁substantial	-5458
▁Brahm	-5459
▁sexual	-5460
▁Jawahar	-5461
▁welcome	-5462
▁instruments	-5463
▁AS	-5464
▁delib	-5465
▁recognition	-5466
▁considerable	-5467
▁Land	-5468
▁height	-5469
▁Dec	-5470
▁cow	-5471
▁Data	-5472
▁composed	-5473
▁initiated	-5474
▁hyd	-5475
▁fifty	-5476
▁orient	-5477
▁Tel	-5478
▁vir	-5479
▁brid	-5480
▁Small	-5481
▁griev	-5482
▁amended	-5483
▁employee	-5484
▁discharge	-5485
shi	-5486
room	-5487
▁attrib	-5488
▁depends	-5489
▁journal	-5490
▁Palestinian	-5491
alg	-5492
▁Ang	-5493
▁divid	-5494
▁adjust	-5495
▁folder	-5496
▁screen	-5497
▁visible	-5498
▁permission	-5499
▁transaction	-5500
utt	-5501
back	-5502
oses	-5503
ansion	-5504
▁entirely	-5505
▁electricity	-5506
iy	-5507
▁phen	-5508
▁organised	-5509
▁conference	-5510
▁Hel	-5511
▁org	-5512
oples	-5513
▁symp	-5514
▁Rural	-5515
▁figures	-5516
▁seeking	-5517
dess	-5518
▁vit	-5519
▁enhance	-5520
▁extremely	-5521
pro	-5522
▁Vice	-5523
▁Year	-5524
▁bird	-5525
▁Micro	-5526
▁minds	-5527
▁category	-5528
▁Principal	-5529
▁undertaken	-5530
ffic	-5531
oken	-5532
▁guard	-5533
▁household	-5534
aud	-5535
pto	-5536
▁Failed	-5537
▁overall	-5538
▁technologies	-5539
▁Know	-5540
▁eggs	-5541
inating	-5542
▁starting	-5543
hent	-5544
▁sick	-5545
▁career	-5546
▁personality	-5547
▁70	-5548
▁dog	-5549
▁Good	-5550
ulatory	-5551
▁vehicle	-5552
▁directed	-5553
gent	-5554
unction	-5555
▁supreme	-5556
▁agent	-5557
▁ahead	-5558
▁thank	-5559
▁feature	-5560
▁liability	-5561
▁regulations	-5562
ih	-5563
inger	-5564
clause	-5565
▁prose	-5566
▁opposition	-5567
▁Dur	-5568
▁lie	-5569
▁Food	-5570
▁raise	-5571
▁config	-5572
▁Bur	-5573
▁Sol	-5574
▁cave	-5575
▁fell	-5576
▁iron	-5577
▁loans	-5578
▁insect	-5579
▁creative	-5580
▁multiple	-5581
mer	-5582
▁exports	-5583
ocal	-5584
▁arms	-5585
▁cott	-5586
▁audit	-5587
▁competent	-5588
▁organisations	-5589
mn	-5590
icon	-5591
otes	-5592
▁Back	-5593
▁claims	-5594
▁dynam	-5595
▁employed	-5596
▁informed	-5597
▁Hyderabad	-5598
aut	-5599
anath	-5600
▁pursu	-5601
▁interested	-5602
arp	-5603
erce	-5604
▁Count	-5605
▁offers	-5606
▁directions	-5607
14	-5608
plom	-5609
▁incur	-5610
▁hardly	-5611
▁Lal	-5612
▁sacrifice	-5613
▁Bangladesh	-5614
▁Kan	-5615
ingly	-5616
▁Urdu	-5617
sc	-5618
ux	-5619
ien	-5620
aces	-5621
▁1947	-5622
▁Book	-5623
▁closed	-5624
▁outstanding	-5625
▁felicitations	-5626
▁115	-5627
▁Maj	-5628
idden	-5629
▁Enter	-5630
▁fourth	-5631
▁examples	-5632
alle	-5633
▁Force	-5634
▁sweet	-5635
▁choose	-5636
▁couple	-5637
▁Panchay	-5638
▁Scheduled	-5639
▁witnesses	-5640
akti	-5641
▁myself	-5642
▁continues	-5643
▁customers	-5644
▁districts	-5645
▁blind	-5646
▁deeply	-5647
▁NA	-5648
▁hind	-5649
▁comprehensive	-5650
▁fix	-5651
▁1956	-5652
▁rent	-5653
▁negoti	-5654
▁demands	-5655
▁quickly	-5656
▁investig	-5657
▁39	-5658
▁mel	-5659
▁unw	-5660
ammad	-5661
▁shop	-5662
▁Vishn	-5663
eum	-5664
▁roll	-5665
▁enabled	-5666
▁tea	-5667
▁Pass	-5668
▁remed	-5669
▁Eastern	-5670
▁proportion	-5671
alam	-5672
▁rit	-5673
▁markets	-5674
▁railway	-5675
▁Var	-5676
oration	-5677
▁obtain	-5678
ications	-5679
▁Process	-5680
▁Mahabhar	-5681
▁radio	-5682
▁procedures	-5683
▁prosecution	-5684
anta	-5685
▁Swami	-5686
▁Trade	-5687
▁budget	-5688
▁happens	-5689
▁objects	-5690
atab	-5691
uable	-5692
▁surg	-5693
ourses	-5694
▁prove	-5695
▁imperial	-5696
▁Legislature	-5697
▁arbitration	-5698
tes	-5699
▁disk	-5700
▁Hence	-5701
▁sacred	-5702
▁involve	-5703
▁Tri	-5704
othes	-5705
▁John	-5706
▁awarded	-5707
▁mechanism	-5708
mb	-5709
asi	-5710
▁kill	-5711
▁proud	-5712
▁stamp	-5713
▁bright	-5714
▁conven	-5715
▁liberal	-5716
▁alternative	-5717
▁Yes	-5718
▁sin	-5719
urally	-5720
▁drama	-5721
▁belonging	-5722
▁race	-5723
▁upgr	-5724
▁theme	-5725
▁discrim	-5726
▁instructions	-5727
izes	-5728
▁Sen	-5729
organ	-5730
▁1998	-5731
▁Fort	-5732
▁slight	-5733
▁transp	-5734
▁Capital	-5735
▁playing	-5736
asw	-5737
.2014	-5738
▁Award	-5739
▁Address	-5740
▁contributions	-5741
▁Ltd	-5742
▁grounds	-5743
▁Bir	-5744
umber	-5745
▁Chait	-5746
▁skill	-5747
.6	-5748
hand	-5749
▁Mat	-5750
▁addressed	-5751
▁arrangement	-5752
▁horse	-5753
▁labor	-5754
▁describ	-5755
agh	-5756
uli	-5757
▁liable	-5758
▁intention	-5759
▁distinguished	-5760
.2015	-5761
going	-5762
▁span	-5763
▁arrived	-5764
▁thoughts	-5765
▁impossible	-5766
de	-5767
king	-5768
gments	-5769
▁Allah	-5770
▁explained	-5771
arya	-5772
▁Cre	-5773
▁understood	-5774
eds	-5775
▁Awards	-5776
▁enacted	-5777
fall	-5778
▁Move	-5779
▁aspir	-5780
▁apparent	-5781
▁Application	-5782
▁exped	-5783
▁toler	-5784
▁Parliamentary	-5785
▁38	-5786
▁Az	-5787
ruits	-5788
▁Laws	-5789
▁religions	-5790
▁commencement	-5791
rosy	-5792
▁pret	-5793
▁Assistant	-5794
▁promoting	-5795
UL	-5796
osen	-5797
▁speaking	-5798
oles	-5799
encing	-5800
▁Economic	-5801
▁Exchange	-5802
▁admitted	-5803
▁estimated	-5804
▁personnel	-5805
▁appearance	-5806
▁respectively	-5807
▁08	-5808
▁facilitate	-5809
▁Ban	-5810
▁masses	-5811
TH	-5812
▁core	-5813
▁inquiry	-5814
▁compound	-5815
IF	-5816
▁Rule	-5817
▁definite	-5818
▁Committees	-5819
▁conclusion	-5820
▁efficiency	-5821
▁differences	-5822
▁requirement	-5823
▁lev	-5824
▁cris	-5825
▁Similarly	-5826
cend	-5827
▁spect	-5828
▁counsel	-5829
▁dedicated	-5830
▁effectively	-5831
▁legislative	-5832
agers	-5833
riages	-5834
▁acting	-5835
▁ritual	-5836
▁statutory	-5837
▁constitute	-5838
abet	-5839
▁CON	-5840
▁peoples	-5841
▁49	-5842
▁sympt	-5843
▁everyone	-5844
▁intelligence	-5845
▁transactions	-5846
EL	-5847
umin	-5848
▁pages	-5849
▁desert	-5850
▁arrested	-5851
ica	-5852
rut	-5853
▁steel	-5854
▁Engine	-5855
▁acknow	-5856
▁showing	-5857
▁allowance	-5858
▁determination	-5859
PS	-5860
▁pul	-5861
▁doll	-5862
▁Great	-5863
▁spite	-5864
▁availability	-5865
opal	-5866
▁para	-5867
▁anyone	-5868
▁exclud	-5869
▁libert	-5870
▁covering	-5871
▁guidelines	-5872
▁65	-5873
kata	-5874
▁1996	-5875
▁elim	-5876
▁renew	-5877
▁Pandit	-5878
▁Germany	-5879
▁Institut	-5880
▁entrepreneurs	-5881
hal	-5882
nan	-5883
▁fees	-5884
▁Sardar	-5885
▁suffer	-5886
ota	-5887
▁Po	-5888
▁vig	-5889
▁knows	-5890
▁propag	-5891
▁showed	-5892
▁Rab	-5893
▁Vir	-5894
▁Priv	-5895
▁definition	-5896
▁Web	-5897
anish	-5898
▁Territ	-5899
▁Speaking	-5900
▁evolution	-5901
elve	-5902
while	-5903
▁Wind	-5904
ensity	-5905
▁tim	-5906
▁rend	-5907
▁Order	-5908
▁Persian	-5909
▁uniform	-5910
▁victims	-5911
operative	-5912
▁emphasis	-5913
▁improved	-5914
▁recognized	-5915
▁Agriculture	-5916
iliar	-5917
▁Pras	-5918
▁diet	-5919
▁plans	-5920
unately	-5921
▁consent	-5922
▁finding	-5923
▁detailed	-5924
▁humanity	-5925
▁repeated	-5926
▁terrorist	-5927
top	-5928
▁lif	-5929
▁render	-5930
▁leaving	-5931
▁improving	-5932
▁Change	-5933
▁derived	-5934
▁phenomen	-5935
ader	-5936
▁Top	-5937
▁Saty	-5938
ashing	-5939
pet	-5940
▁Rev	-5941
▁Innov	-5942
▁selection	-5943
▁Jawaharlal	-5944
norm	-5945
▁DNA	-5946
▁raw	-5947
▁Conf	-5948
▁sequ	-5949
▁motor	-5950
▁Madhya	-5951
▁writers	-5952
▁eval	-5953
▁representative	-5954
▁Laksh	-5955
▁enemy	-5956
ciation	-5957
▁dismiss	-5958
▁quantity	-5959
▁certainly	-5960
▁happiness	-5961
▁convention	-5962
enous	-5963
▁upto	-5964
raction	-5965
▁infection	-5966
▁Chen	-5967
▁floor	-5968
▁Vishnu	-5969
▁Medical	-5970
▁corporate	-5971
▁remaining	-5972
aur	-5973
▁Dal	-5974
▁fib	-5975
▁murder	-5976
hibition	-5977
▁practical	-5978
▁difficulty	-5979
▁admin	-5980
▁Buddha	-5981
▁consumption	-5982
cont	-5983
▁thor	-5984
▁contemporary	-5985
ooth	-5986
▁tools	-5987
▁housing	-5988
▁lect	-5989
▁lose	-5990
▁chapter	-5991
▁settled	-5992
rafts	-5993
▁Army	-5994
▁double	-5995
▁string	-5996
▁guidance	-5997
eer	-5998
▁rub	-5999
uddin	-6000
▁York	-6001
▁normally	-6002
iary	-6003
▁drop	-6004
assion	-6005
▁kingdom	-6006
▁heritage	-6007
▁Convention	-6008
▁baby	-6009
estion	-6010
▁papers	-6011
▁accompan	-6012
▁regarded	-6013
▁respondent	-6014
owed	-6015
▁lik	-6016
▁MSME	-6017
▁seeds	-6018
▁center	-6019
▁occurs	-6020
▁hill	-6021
▁About	-6022
▁Comput	-6023
▁inspired	-6024
▁strategy	-6025
ny	-6026
house	-6027
▁Binoy	-6028
▁consultation	-6029
▁sky	-6030
▁flag	-6031
▁saint	-6032
▁solid	-6033
▁illust	-6034
▁stages	-6035
▁Brahmin	-6036
▁Through	-6037
▁pension	-6038
▁disposal	-6039
yal	-6040
▁Cal	-6041
▁Mult	-6042
▁ratio	-6043
▁Common	-6044
▁complic	-6045
▁computing	-6046
▁FOR	-6047
ifies	-6048
▁Mount	-6049
▁successfully	-6050
unk	-6051
▁Bu	-6052
inct	-6053
▁cust	-6054
▁Democ	-6055
▁reply	-6056
▁unable	-6057
▁Industry	-6058
▁telephone	-6059
▁ego	-6060
▁vess	-6061
▁emergency	-6062
riya	-6063
▁bag	-6064
▁hom	-6065
▁cool	-6066
▁injury	-6067
▁difficulties	-6068
ander	-6069
ivered	-6070
▁remind	-6071
unicipal	-6072
▁immense	-6073
▁indirect	-6074
▁sustainable	-6075
ilty	-6076
▁Bra	-6077
▁sad	-6078
▁syn	-6079
▁Japan	-6080
▁settings	-6081
▁Afghanistan	-6082
▁Ref	-6083
icide	-6084
▁superior	-6085
▁flood	-6086
▁attacks	-6087
▁investors	-6088
▁integrated	-6089
endra	-6090
▁legs	-6091
ailing	-6092
icians	-6093
▁holds	-6094
▁stead	-6095
▁crisis	-6096
▁Marriage	-6097
▁Chaitanya	-6098
load	-6099
orous	-6100
CO	-6101
▁du	-6102
▁era	-6103
▁enterprise	-6104
wan	-6105
▁1992	-6106
▁bact	-6107
▁flat	-6108
▁Gupta	-6109
▁armed	-6110
▁strike	-6111
▁expansion	-6112
▁UT	-6113
oned	-6114
aniel	-6115
▁1990	-6116
asters	-6117
gor	-6118
asty	-6119
▁fill	-6120
mation	-6121
▁outer	-6122
▁widely	-6123
▁Children	-6124
ERS	-6125
arh	-6126
onym	-6127
▁chrom	-6128
▁layer	-6129
▁garden	-6130
▁owners	-6131
▁involving	-6132
▁electronic	-6133
RE	-6134
▁pu	-6135
grim	-6136
▁1950	-6137
▁owner	-6138
▁college	-6139
▁talking	-6140
▁traffic	-6141
▁accurate	-6142
▁meetings	-6143
inity	-6144
▁cart	-6145
▁Start	-6146
▁compuls	-6147
▁manager	-6148
▁millions	-6149
▁writings	-6150
▁mos	-6151
▁finds	-6152
▁quiet	-6153
▁usual	-6154
▁walls	-6155
▁forests	-6156
ommod	-6157
▁Name	-6158
▁sister	-6159
▁celebrated	-6160
▁contribute	-6161
▁ID	-6162
mony	-6163
bedkar	-6164
▁accom	-6165
▁founded	-6166
▁trained	-6167
▁Regional	-6168
MS	-6169
iger	-6170
▁Yet	-6171
▁Gold	-6172
▁Allow	-6173
▁trouble	-6174
▁messages	-6175
▁tomorrow	-6176
▁Turk	-6177
▁fuel	-6178
▁scen	-6179
▁League	-6180
▁deposits	-6181
▁educated	-6182
▁determine	-6183
▁representatives	-6184
xic	-6185
aren	-6186
isted	-6187
aneous	-6188
retion	-6189
▁alleg	-6190
▁roads	-6191
oresaid	-6192
▁brings	-6193
▁Ambedkar	-6194
▁remarkable	-6195
MP	-6196
▁adm	-6197
inese	-6198
▁thick	-6199
▁border	-6200
▁taught	-6201
▁Companies	-6202
▁blow	-6203
active	-6204
▁dealt	-6205
▁debate	-6206
▁controlled	-6207
▁arrangements	-6208
▁Nor	-6209
▁cos	-6210
▁patri	-6211
▁forget	-6212
▁aforesaid	-6213
▁subsequent	-6214
qual	-6215
ulpt	-6216
▁viz	-6217
inance	-6218
▁discipline	-6219
hetic	-6220
▁bail	-6221
▁neck	-6222
▁Trust	-6223
▁guide	-6224
▁tribal	-6225
▁twelve	-6226
▁Executive	-6227
▁permitted	-6228
▁voluntary	-6229
▁investments	-6230
oman	-6231
▁harmony	-6232
▁herself	-6233
▁director	-6234
▁acquisition	-6235
rum	-6236
ananda	-6237
▁chosen	-6238
▁trading	-6239
▁AP	-6240
▁grew	-6241
▁gather	-6242
▁delivered	-6243
▁abol	-6244
▁lock	-6245
▁argument	-6246
▁irrigation	-6247
13	-6248
▁bh	-6249
▁Tir	-6250
▁chain	-6251
▁Russia	-6252
▁guilty	-6253
▁soldiers	-6254
▁plaintiff	-6255
▁destruction	-6256
▁Registration	-6257
uran	-6258
▁Sud	-6259
▁Free	-6260
▁hall	-6261
lation	-6262
▁yourself	-6263
▁neighbour	-6264
▁discussions	-6265
▁ignor	-6266
▁scene	-6267
▁divide	-6268
▁evident	-6269
▁Sk	-6270
oser	-6271
▁cra	-6272
▁ocean	-6273
▁Appell	-6274
▁begins	-6275
▁significance	-6276
▁UK	-6277
▁fruits	-6278
▁contrary	-6279
▁47	-6280
▁Being	-6281
▁Credit	-6282
▁consisting	-6283
▁productivity	-6284
nergy	-6285
▁Vidy	-6286
▁fift	-6287
agraph	-6288
▁leads	-6289
▁southern	-6290
▁universe	-6291
AGE	-6292
▁Gr	-6293
asks	-6294
ibly	-6295
lick	-6296
▁recall	-6297
inations	-6298
▁recovery	-6299
▁partition	-6300
▁ends	-6301
▁gradu	-6302
▁Academ	-6303
▁equity	-6304
▁resulting	-6305
▁55	-6306
uity	-6307
▁socio	-6308
▁conviction	-6309
▁departments	-6310
▁Geor	-6311
▁nerv	-6312
▁Earth	-6313
▁chair	-6314
▁envis	-6315
▁burden	-6316
▁safegu	-6317
▁Kolkata	-6318
▁chargeable	-6319
▁competition	-6320
odh	-6321
▁Ja	-6322
▁Tele	-6323
▁depth	-6324
▁accompl	-6325
▁solutions	-6326
▁Apart	-6327
▁wound	-6328
▁Import	-6329
▁broken	-6330
▁identify	-6331
ugg	-6332
▁PC	-6333
▁stick	-6334
▁verse	-6335
▁possibility	-6336
yas	-6337
usal	-6338
▁Vol	-6339
.2016	-6340
▁innoc	-6341
zy	-6342
raint	-6343
▁Text	-6344
▁Mughal	-6345
▁sculpt	-6346
ifically	-6347
▁Chinese	-6348
▁convert	-6349
▁refused	-6350
ician	-6351
▁bomb	-6352
▁empt	-6353
▁Banks	-6354
▁paras	-6355
▁Annual	-6356
▁filing	-6357
▁numerous	-6358
▁46	-6359
▁approx	-6360
▁authent	-6361
▁valuable	-6362
▁Australia	-6363
▁IC	-6364
hips	-6365
▁kid	-6366
▁fasc	-6367
▁spoke	-6368
▁reaction	-6369
▁continuous	-6370
▁transmission	-6371
DUCT	-6372
▁pig	-6373
allel	-6374
▁Advoc	-6375
▁stake	-6376
▁starts	-6377
▁Comment	-6378
ographical	-6379
▁acceptance	-6380
uv	-6381
▁hit	-6382
etary	-6383
▁park	-6384
▁roof	-6385
▁click	-6386
▁thereby	-6387
▁Province	-6388
▁specially	-6389
SS	-6390
care	-6391
uting	-6392
▁goals	-6393
▁temporary	-6394
..	-6395
wa	-6396
enn	-6397
▁prompt	-6398
▁rulers	-6399
▁Britain	-6400
▁Magistrate	-6401
▁essentially	-6402
▁Raja	-6403
▁poetic	-6404
▁criticism	-6405
11	-6406
osit	-6407
isdom	-6408
▁Legal	-6409
▁sanct	-6410
▁aggreg	-6411
▁stress	-6412
▁amounts	-6413
▁constitu	-6414
▁El	-6415
uality	-6416
▁Writ	-6417
▁Later	-6418
▁Chrome	-6419
▁bottom	-6420
▁diplom	-6421
atics	-6422
rival	-6423
▁News	-6424
▁clar	-6425
▁waiting	-6426
▁Pad	-6427
▁fav	-6428
▁bats	-6429
▁pound	-6430
▁linked	-6431
▁faculty	-6432
▁largely	-6433
▁weapons	-6434
▁Himachal	-6435
▁assembly	-6436
▁buildings	-6437
▁gradually	-6438
ema	-6439
och	-6440
anka	-6441
▁1973	-6442
▁exch	-6443
▁gods	-6444
▁prote	-6445
▁verses	-6446
▁explain	-6447
▁familiar	-6448
▁excellence	-6449
▁securities	-6450
▁coc	-6451
▁wholly	-6452
▁accommod	-6453
▁amendments	-6454
▁authorised	-6455
▁Acts	-6456
▁boys	-6457
utation	-6458
▁Enable	-6459
▁breast	-6460
▁flower	-6461
▁suddenly	-6462
▁forwarded	-6463
▁qualities	-6464
son	-6465
▁arg	-6466
▁Last	-6467
herent	-6468
▁images	-6469
▁conferred	-6470
▁satisfaction	-6471
rie	-6472
▁Gra	-6473
▁Gram	-6474
▁forg	-6475
▁poly	-6476
▁succ	-6477
▁strict	-6478
▁advised	-6479
inn	-6480
▁Jo	-6481
garh	-6482
urse	-6483
▁1948	-6484
▁1980	-6485
▁vary	-6486
▁Vedic	-6487
levision	-6488
▁comfort	-6489
▁infinite	-6490
▁producing	-6491
▁NI	-6492
▁Bet	-6493
▁proc	-6494
▁France	-6495
▁feelings	-6496
▁accompanied	-6497
▁participate	-6498
▁III	-6499
▁elev	-6500
▁vote	-6501
▁Class	-6502
▁attain	-6503
▁claimed	-6504
▁replace	-6505
▁components	-6506
▁Sita	-6507
▁alle	-6508
ronics	-6509
ola	-6510
▁edge	-6511
▁Asian	-6512
▁Prasad	-6513
▁prepare	-6514
▁suffered	-6515
▁newspaper	-6516
▁encouraged	-6517
▁consequences	-6518
▁representation	-6519
iso	-6520
well	-6521
▁Key	-6522
ullah	-6523
▁1997	-6524
▁seeing	-6525
▁mandapa	-6526
▁currently	-6527
▁categories	-6528
▁introduction	-6529
▁Ary	-6530
▁NAME	-6531
▁Ahmed	-6532
▁permit	-6533
▁accordingly	-6534
▁Fam	-6535
▁tong	-6536
▁update	-6537
▁violent	-6538
▁employer	-6539
ena	-6540
ima	-6541
▁audio	-6542
▁links	-6543
▁decade	-6544
▁proposals	-6545
▁achievement	-6546
▁Universities	-6547
▁Lah	-6548
arita	-6549
eries	-6550
iques	-6551
▁Head	-6552
▁devices	-6553
▁willing	-6554
▁incorpor	-6555
▁hat	-6556
▁Gora	-6557
▁nurs	-6558
▁deriv	-6559
▁street	-6560
▁waters	-6561
▁concerns	-6562
▁symptoms	-6563
.7	-6564
▁Paper	-6565
atabase	-6566
▁digital	-6567
▁drinking	-6568
▁northern	-6569
▁carefully	-6570
▁parliamentary	-6571
ream	-6572
▁hur	-6573
▁rom	-6574
▁deter	-6575
▁react	-6576
▁abnorm	-6577
▁reader	-6578
▁Cabinet	-6579
▁examine	-6580
achi	-6581
orthy	-6582
peror	-6583
▁crores	-6584
▁ensuring	-6585
▁DE	-6586
ords	-6587
uses	-6588
▁Cle	-6589
▁prince	-6590
▁invited	-6591
▁directory	-6592
▁litigation	-6593
iti	-6594
▁anx	-6595
▁tab	-6596
▁tro	-6597
▁tub	-6598
anese	-6599
icket	-6600
▁Disc	-6601
akrish	-6602
▁gross	-6603
▁panel	-6604
▁solve	-6605
▁Turkey	-6606
▁eastern	-6607
▁component	-6608
atre	-6609
▁myth	-6610
▁Export	-6611
▁exactly	-6612
▁confined	-6613
▁disabled	-6614
▁Muh	-6615
▁Unit	-6616
▁node	-6617
▁adopt	-6618
▁poison	-6619
▁traditions	-6620
ayas	-6621
lets	-6622
wing	-6623
▁alc	-6624
▁unb	-6625
▁Rest	-6626
▁Autom	-6627
ears	-6628
ensus	-6629
ushed	-6630
▁cycle	-6631
▁throw	-6632
▁Integr	-6633
▁dignity	-6634
▁secular	-6635
▁unknown	-6636
edia	-6637
▁NAB	-6638
▁pec	-6639
uster	-6640
▁City	-6641
▁Super	-6642
▁Market	-6643
▁despite	-6644
▁Sometimes	-6645
▁conversion	-6646
urved	-6647
▁gall	-6648
▁shel	-6649
▁Labour	-6650
▁stopped	-6651
▁incurred	-6652
▁prominent	-6653
▁suggestion	-6654
▁distributed	-6655
IG	-6656
VE	-6657
cles	-6658
rier	-6659
▁Master	-6660
zz	-6661
▁Sik	-6662
▁thr	-6663
actory	-6664
▁Mohan	-6665
▁PRODUCT	-6666
▁customs	-6667
▁elephant	-6668
▁Appellate	-6669
amy	-6670
oli	-6671
rator	-6672
▁Glob	-6673
▁seats	-6674
▁Having	-6675
▁causing	-6676
▁pilgrim	-6677
▁CD	-6678
bind	-6679
▁Kam	-6680
▁sales	-6681
▁atomic	-6682
▁appeals	-6683
▁empower	-6684
▁Islamist	-6685
▁patients	-6686
▁distinction	-6687
ilal	-6688
▁gland	-6689
▁intest	-6690
aph	-6691
atar	-6692
▁Sav	-6693
▁hence	-6694
▁nutrit	-6695
▁tender	-6696
▁tourism	-6697
▁followers	-6698
▁Far	-6699
entle	-6700
▁trem	-6701
▁allot	-6702
▁teeth	-6703
irement	-6704
▁Kingdom	-6705
▁inserted	-6706
▁involves	-6707
▁architecture	-6708
wal	-6709
araj	-6710
▁IPC	-6711
▁Copy	-6712
▁tail	-6713
rovers	-6714
▁advis	-6715
▁conqu	-6716
▁mixed	-6717
▁spend	-6718
habilit	-6719
▁sorrow	-6720
▁combination	-6721
mi	-6722
▁54	-6723
▁Lep	-6724
auses	-6725
▁Road	-6726
▁abst	-6727
▁allows	-6728
▁corner	-6729
▁eternal	-6730
▁commonly	-6731
▁represented	-6732
▁52	-6733
▁hun	-6734
▁tank	-6735
▁advert	-6736
▁studied	-6737
▁excellent	-6738
alore	-6739
▁1991	-6740
▁Flag	-6741
▁salt	-6742
▁Bharati	-6743
▁occurred	-6744
bing	-6745
rain	-6746
writ	-6747
▁mig	-6748
▁holy	-6749
▁lady	-6750
▁arise	-6751
▁owned	-6752
▁Custom	-6753
▁Support	-6754
▁fighting	-6755
▁64	-6756
▁wa	-6757
▁Eff	-6758
▁Soft	-6759
▁fever	-6760
▁resign	-6761
▁deceased	-6762
▁recommendation	-6763
▁Due	-6764
▁1995	-6765
▁brows	-6766
▁quarter	-6767
▁Officers	-6768
ker	-6769
▁Id	-6770
itud	-6771
▁hyp	-6772
iously	-6773
▁faced	-6774
▁shaped	-6775
▁yellow	-6776
▁illness	-6777
▁opposite	-6778
▁innovative	-6779
OP	-6780
ls	-6781
mic	-6782
▁150	-6783
▁ties	-6784
▁escape	-6785
▁fifteen	-6786
▁passion	-6787
▁radical	-6788
▁indicate	-6789
▁achievements	-6790
ded	-6791
algam	-6792
▁Shiv	-6793
▁hills	-6794
istries	-6795
▁secondary	-6796
▁experiment	-6797
▁dust	-6798
▁Shiva	-6799
▁White	-6800
▁greatly	-6801
▁emotional	-6802
▁Jay	-6803
▁pup	-6804
ients	-6805
▁falls	-6806
▁sheet	-6807
▁entrust	-6808
▁equival	-6809
▁diversity	-6810
▁bat	-6811
apped	-6812
▁grat	-6813
hening	-6814
▁courses	-6815
▁Ramayana	-6816
▁strategic	-6817
▁interpretation	-6818
▁transformation	-6819
TI	-6820
uru	-6821
▁kg	-6822
nity	-6823
▁Found	-6824
▁signs	-6825
▁truly	-6826
▁cotton	-6827
▁pieces	-6828
▁sovere	-6829
▁harvest	-6830
mentation	-6831
▁Hinduism	-6832
▁rejected	-6833
▁receiving	-6834
▁300	-6835
orter	-6836
▁sports	-6837
▁managed	-6838
▁consumers	-6839
▁civilization	-6840
▁automatically	-6841
DP	-6842
▁Dw	-6843
ache	-6844
▁victory	-6845
▁internet	-6846
▁mountains	-6847
▁Administrative	-6848
yl	-6849
husi	-6850
▁Alm	-6851
▁ren	-6852
▁Liter	-6853
▁accum	-6854
▁convin	-6855
▁facing	-6856
▁converted	-6857
mp	-6858
eff	-6859
▁ly	-6860
ture	-6861
▁cas	-6862
▁seat	-6863
▁wear	-6864
▁aimed	-6865
▁rising	-6866
▁liberty	-6867
▁appellant	-6868
OC	-6869
oram	-6870
▁Ord	-6871
▁eve	-6872
▁Make	-6873
▁airc	-6874
▁Energy	-6875
▁NABARD	-6876
▁cancer	-6877
▁signal	-6878
▁Election	-6879
▁technique	-6880
▁compassion	-6881
▁technological	-6882
anga	-6883
▁Term	-6884
▁bath	-6885
▁stim	-6886
▁Nagar	-6887
▁index	-6888
▁palace	-6889
▁Interest	-6890
▁Jh	-6891
ktop	-6892
▁dro	-6893
▁sev	-6894
▁resort	-6895
▁wisdom	-6896
▁realised	-6897
▁dependent	-6898
▁contributed	-6899
.10	-6900
oom	-6901
▁Mir	-6902
▁isol	-6903
▁manage	-6904
▁Notwithstanding	-6905
▁meat	-6906
chandra	-6907
esterday	-6908
▁Working	-6909
▁notified	-6910
OT	-6911
▁Money	-6912
▁antic	-6913
▁decre	-6914
ificial	-6915
▁Vaishn	-6916
▁diverse	-6917
▁backward	-6918
▁subscribe	-6919
▁Industries	-6920
▁CP	-6921
NAME	-6922
endar	-6923
▁tort	-6924
missible	-6925
▁experts	-6926
▁raising	-6927
▁applicant	-6928
▁dangerous	-6929
▁statements	-6930
UT	-6931
▁ca	-6932
▁Dom	-6933
ranch	-6934
▁cattle	-6935
▁maintaining	-6936
▁developments	-6937
▁strengthening	-6938
ums	-6939
leum	-6940
▁Equ	-6941
▁sam	-6942
amber	-6943
hibit	-6944
▁Gree	-6945
▁Oper	-6946
▁Siva	-6947
▁pride	-6948
▁saved	-6949
▁enthusi	-6950
▁Maharaja	-6951
▁candidates	-6952
▁ring	-6953
▁Knowledge	-6954
▁ran	-6955
▁tube	-6956
▁insure	-6957
▁minute	-6958
▁submit	-6959
▁applies	-6960
▁desired	-6961
▁examined	-6962
▁affection	-6963
▁childhood	-6964
▁vegetables	-6965
▁Max	-6966
arathi	-6967
▁utter	-6968
▁salary	-6969
▁closely	-6970
▁multipl	-6971
▁proviso	-6972
▁structures	-6973
his	-6974
▁09	-6975
▁56	-6976
▁oral	-6977
▁sons	-6978
▁rough	-6979
▁domain	-6980
▁learnt	-6981
▁brothers	-6982
yr	-6983
▁asking	-6984
▁cheque	-6985
▁tourist	-6986
▁guarantee	-6987
▁privilege	-6988
▁declaration	-6989
▁07	-6990
orders	-6991
▁Bench	-6992
▁therein	-6993
▁venture	-6994
▁influenced	-6995
antly	-6996
▁bull	-6997
erning	-6998
▁inval	-6999
▁visual	-7000
▁planned	-7001
▁printed	-7002
▁strange	-7003
▁obligation	-7004
▁suggestions	-7005
pat	-7006
ria	-7007
▁41	-7008
▁rig	-7009
▁vul	-7010
▁jobs	-7011
▁adverse	-7012
▁Governance	-7013
▁cultivation	-7014
▁Mor	-7015
▁Shi	-7016
▁Taj	-7017
ports	-7018
▁Number	-7019
▁Online	-7020
▁shrine	-7021
▁eminent	-7022
▁naturally	-7023
IP	-7024
▁Tal	-7025
▁avo	-7026
▁fault	-7027
▁fluid	-7028
▁glass	-7029
▁older	-7030
▁ceremony	-7031
▁operative	-7032
▁experiences	-7033
comm	-7034
ding	-7035
rane	-7036
umes	-7037
▁Dar	-7038
▁Did	-7039
▁Have	-7040
▁Look	-7041
▁beat	-7042
othing	-7043
▁embra	-7044
▁elabor	-7045
▁passage	-7046
▁primarily	-7047
▁institutional	-7048
ogen	-7049
▁inev	-7050
▁pipes	-7051
▁listed	-7052
oked	-7053
utor	-7054
erved	-7055
▁forty	-7056
▁route	-7057
▁sites	-7058
▁German	-7059
▁stored	-7060
▁custody	-7061
▁preparation	-7062
iri	-7063
▁Lad	-7064
▁rhy	-7065
celer	-7066
▁amalgam	-7067
▁controvers	-7068
▁od	-7069
iable	-7070
ollow	-7071
▁seeks	-7072
▁carbon	-7073
▁opposed	-7074
▁reduction	-7075
UM	-7076
▁asc	-7077
essed	-7078
itals	-7079
▁clim	-7080
uction	-7081
▁Death	-7082
▁marks	-7083
duction	-7084
iversary	-7085
▁Railway	-7086
▁drawing	-7087
▁pertaining	-7088
pad	-7089
▁Iss	-7090
▁nav	-7091
▁Note	-7092
▁expiry	-7093
▁novels	-7094
▁overse	-7095
▁Gazette	-7096
rm	-7097
▁via	-7098
icity	-7099
▁genu	-7100
▁unre	-7101
▁algor	-7102
▁operate	-7103
▁whereas	-7104
▁attended	-7105
▁resulted	-7106
▁Agricultural	-7107
▁03	-7108
▁51	-7109
▁Sant	-7110
▁aside	-7111
▁ended	-7112
▁bridge	-7113
▁servant	-7114
▁sharing	-7115
▁discovered	-7116
▁subordinate	-7117
jan	-7118
nai	-7119
▁Lat	-7120
▁mic	-7121
▁vim	-7122
plete	-7123
▁Four	-7124
▁noise	-7125
▁recip	-7126
▁Arabic	-7127
▁condem	-7128
▁entity	-7129
▁fulfil	-7130
▁realise	-7131
▁totally	-7132
▁supposed	-7133
▁happening	-7134
▁instruction	-7135
.11	-7136
ught	-7137
▁Gita	-7138
▁burn	-7139
▁forced	-7140
▁regime	-7141
▁goddess	-7142
▁percentage	-7143
osc	-7144
▁analy	-7145
▁diagn	-7146
▁persu	-7147
▁surre	-7148
▁Basava	-7149
▁options	-7150
▁rational	-7151
▁ministers	-7152
▁thereafter	-7153
za	-7154
▁Verm	-7155
▁flex	-7156
▁incent	-7157
▁Marathi	-7158
▁Perhaps	-7159
▁replied	-7160
▁specify	-7161
▁testing	-7162
▁computers	-7163
▁corruption	-7164
▁progressive	-7165
▁vent	-7166
roleum	-7167
▁towns	-7168
▁caught	-7169
▁refuge	-7170
▁programs	-7171
▁rendered	-7172
ICE	-7173
aria	-7174
▁twice	-7175
▁spoken	-7176
▁Consult	-7177
▁Persons	-7178
▁completion	-7179
▁situations	-7180
▁Fr	-7181
mits	-7182
▁irre	-7183
▁pull	-7184
▁shif	-7185
▁Obama	-7186
▁Table	-7187
▁stuff	-7188
iculture	-7189
▁arranged	-7190
▁societies	-7191
▁revolutionary	-7192
▁ing	-7193
▁1986	-7194
▁1988	-7195
▁Cult	-7196
▁load	-7197
▁rect	-7198
▁editor	-7199
▁muscle	-7200
▁emerged	-7201
▁Buddhist	-7202
▁pictures	-7203
▁Mahabharata	-7204
da	-7205
van	-7206
▁Supp	-7207
▁keen	-7208
ferent	-7209
▁bills	-7210
▁sharp	-7211
▁shock	-7212
▁Search	-7213
▁covers	-7214
itra	-7215
▁1993	-7216
▁Conn	-7217
▁Hari	-7218
▁coord	-7219
▁dress	-7220
▁framed	-7221
▁limitation	-7222
▁destination	-7223
AND	-7224
bles	-7225
▁Chh	-7226
▁Fil	-7227
▁gift	-7228
▁lamp	-7229
▁decor	-7230
▁neare	-7231
aneously	-7232
▁besides	-7233
▁prospect	-7234
▁techniques	-7235
▁mad	-7236
▁Test	-7237
▁Bills	-7238
▁ruling	-7239
▁superv	-7240
▁Defence	-7241
▁Muhammad	-7242
▁integrity	-7243
▁discretion	-7244
ML	-7245
▁TV	-7246
tical	-7247
▁View	-7248
▁buff	-7249
▁prol	-7250
▁pron	-7251
▁Again	-7252
ilation	-7253
lammation	-7254
▁properties	-7255
nex	-7256
ulf	-7257
agon	-7258
hend	-7259
raid	-7260
▁Mur	-7261
itors	-7262
▁menu	-7263
▁scar	-7264
▁ruled	-7265
▁mathem	-7266
▁player	-7267
▁anticip	-7268
▁publish	-7269
▁marriages	-7270
▁regularly	-7271
▁impression	-7272
▁Administration	-7273
asy	-7274
▁72	-7275
▁Ren	-7276
abling	-7277
▁Anand	-7278
▁Lanka	-7279
▁aband	-7280
▁elder	-7281
▁heads	-7282
▁reprodu	-7283
▁complaints	-7284
▁congratulate	-7285
UN	-7286
irs	-7287
▁jew	-7288
▁emerging	-7289
▁oriented	-7290
▁enforcement	-7291
ham	-7292
▁Aj	-7293
▁Mac	-7294
▁Farm	-7295
▁synt	-7296
asions	-7297
▁television	-7298
▁Certificate	-7299
▁specifically	-7300
.8	-7301
heb	-7302
arge	-7303
ulous	-7304
▁Sund	-7305
▁ille	-7306
▁sets	-7307
▁metal	-7308
▁earned	-7309
▁ideals	-7310
▁switch	-7311
▁virtue	-7312
▁displayed	-7313
▁extensive	-7314
inc	-7315
▁53	-7316
rian	-7317
▁sus	-7318
▁1971	-7319
▁Circ	-7320
aching	-7321
▁alive	-7322
▁Create	-7323
▁George	-7324
▁concess	-7325
▁illegal	-7326
▁rapidly	-7327
HER	-7328
▁CS	-7329
▁Fac	-7330
▁Rao	-7331
▁gate	-7332
▁Never	-7333
▁revol	-7334
▁clothes	-7335
▁enterprises	-7336
▁operational	-7337
olic	-7338
▁fly	-7339
▁Arch	-7340
▁Five	-7341
ishment	-7342
▁Punjabi	-7343
▁putting	-7344
▁monitoring	-7345
exp	-7346
urg	-7347
▁Br	-7348
atri	-7349
▁enl	-7350
eenth	-7351
▁encl	-7352
aryana	-7353
▁immun	-7354
▁lakhs	-7355
reement	-7356
▁mailing	-7357
▁organisms	-7358
▁implementing	-7359
life	-7360
▁tou	-7361
▁Sett	-7362
▁roots	-7363
▁imagine	-7364
▁islands	-7365
▁enhanced	-7366
▁interface	-7367
▁constantly	-7368
illa	-7369
▁Nath	-7370
▁pond	-7371
endous	-7372
▁empow	-7373
▁empire	-7374
▁organs	-7375
▁sensitive	-7376
▁calculated	-7377
▁collective	-7378
ATE	-7379
▁63	-7380
ster	-7381
▁Kir	-7382
▁anc	-7383
▁Kann	-7384
▁Global	-7385
▁awards	-7386
▁consolid	-7387
▁indigenous	-7388
▁translated	-7389
▁constructed	-7390
▁imagination	-7391
aci	-7392
wide	-7393
▁Vij	-7394
▁flour	-7395
▁marry	-7396
▁depart	-7397
▁discover	-7398
▁indicated	-7399
▁Sou	-7400
enger	-7401
rogen	-7402
▁1987	-7403
▁bold	-7404
▁Green	-7405
▁Empire	-7406
▁deliber	-7407
▁warrant	-7408
▁Accounts	-7409
▁duration	-7410
▁depending	-7411
▁endeavour	-7412
▁Dig	-7413
▁Benef	-7414
▁wheat	-7415
▁entrusted	-7416
rd	-7417
lin	-7418
ste	-7419
ukh	-7420
chant	-7421
obile	-7422
▁Sovi	-7423
istent	-7424
▁offering	-7425
▁replaced	-7426
▁generations	-7427
▁transportation	-7428
50	-7429
▁Gan	-7430
isite	-7431
▁1976	-7432
▁Bhut	-7433
▁worker	-7434
▁Haryana	-7435
▁ordered	-7436
▁combined	-7437
▁concerning	-7438
▁characteristic	-7439
▁Goa	-7440
▁Keep	-7441
orious	-7442
▁models	-7443
▁chromos	-7444
▁reaching	-7445
▁newspapers	-7446
habilitation	-7447
▁Deb	-7448
▁fet	-7449
▁irres	-7450
▁Sector	-7451
▁dynamic	-7452
▁comments	-7453
END	-7454
▁99	-7455
▁Saf	-7456
▁fab	-7457
▁Phys	-7458
▁pair	-7459
▁thin	-7460
▁Polit	-7461
▁Saudi	-7462
▁catch	-7463
▁cloud	-7464
▁desir	-7465
▁homes	-7466
▁royal	-7467
issions	-7468
▁Recomm	-7469
▁Review	-7470
▁contrast	-7471
▁whenever	-7472
▁Sucharita	-7473
▁achieving	-7474
▁paragraph	-7475
▁perfection	-7476
adur	-7477
arsh	-7478
urch	-7479
▁repeal	-7480
▁slowly	-7481
▁fertiliz	-7482
▁organism	-7483
▁Professor	-7484
▁supplement	-7485
▁Sem	-7486
▁Check	-7487
▁empty	-7488
▁litig	-7489
▁Proper	-7490
▁divers	-7491
▁ending	-7492
▁parallel	-7493
▁undertake	-7494
▁Sr	-7495
iche	-7496
lied	-7497
▁unn	-7498
ching	-7499
▁Devi	-7500
▁prefer	-7501
▁settle	-7502
▁burning	-7503
▁library	-7504
▁readers	-7505
▁selling	-7506
▁Innovation	-7507
aem	-7508
▁vs	-7509
▁upl	-7510
power	-7511
▁snow	-7512
▁Canada	-7513
▁Current	-7514
▁promise	-7515
operation	-7516
▁resistance	-7517
ugu	-7518
▁wing	-7519
itative	-7520
▁paying	-7521
▁degrees	-7522
▁inclusive	-7523
▁sixty	-7524
▁Forest	-7525
▁endeav	-7526
kind	-7527
otal	-7528
▁Nob	-7529
▁inher	-7530
▁wages	-7531
▁eating	-7532
▁handic	-7533
▁listen	-7534
▁unfort	-7535
▁factory	-7536
▁ultimate	-7537
▁sustained	-7538
▁everywhere	-7539
▁Engineering	-7540
US	-7541
lig	-7542
▁Amb	-7543
▁rot	-7544
▁nerve	-7545
▁worry	-7546
▁Jewish	-7547
▁killing	-7548
▁routine	-7549
▁somebody	-7550
▁beneficial	-7551
dy	-7552
orne	-7553
▁Bush	-7554
▁Date	-7555
▁Cannot	-7556
▁Majesty	-7557
▁calling	-7558
The	-7559
isp	-7560
addy	-7561
▁bon	-7562
haust	-7563
▁rose	-7564
▁Penal	-7565
▁Welfare	-7566
▁helping	-7567
▁regards	-7568
20	-7569
▁Oh	-7570
▁map	-7571
▁1989	-7572
▁zone	-7573
▁enorm	-7574
▁Chennai	-7575
▁falling	-7576
▁impress	-7577
▁earliest	-7578
▁extraord	-7579
▁historic	-7580
▁destroyed	-7581
▁requested	-7582
▁necessarily	-7583
JP	-7584
iam	-7585
▁Tar	-7586
▁pit	-7587
▁arises	-7588
▁condol	-7589
▁aggress	-7590
▁crucial	-7591
▁executed	-7592
▁hundreds	-7593
▁collaboration	-7594
.12	-7595
▁58	-7596
▁IR	-7597
▁MP	-7598
just	-7599
▁Mot	-7600
oking	-7601
▁duly	-7602
ective	-7603
▁Three	-7604
▁Leprosy	-7605
▁defendant	-7606
stig	-7607
▁exem	-7608
▁Malay	-7609
▁auton	-7610
▁Access	-7611
▁Terror	-7612
▁Washing	-7613
▁batsman	-7614
▁resolve	-7615
▁turning	-7616
▁colonial	-7617
▁Departments	-7618
ino	-7619
▁NE	-7620
▁vib	-7621
▁cord	-7622
▁suicide	-7623
▁corresponding	-7624
▁Kap	-7625
▁Smt	-7626
▁epic	-7627
▁plug	-7628
urated	-7629
▁Young	-7630
▁memor	-7631
▁wings	-7632
▁Detail	-7633
▁audience	-7634
▁protected	-7635
▁considering	-7636
▁Get	-7637
▁Son	-7638
ether	-7639
▁Bach	-7640
▁Stre	-7641
▁icon	-7642
▁shad	-7643
▁stars	-7644
athered	-7645
▁recruit	-7646
▁aircraft	-7647
▁stations	-7648
▁equivalent	-7649
ART	-7650
aven	-7651
uing	-7652
▁Kor	-7653
▁Card	-7654
▁Love	-7655
▁cruel	-7656
▁tract	-7657
▁subsid	-7658
▁varied	-7659
▁decline	-7660
▁competitive	-7661
▁inspiration	-7662
▁obligations	-7663
Os	-7664
bre	-7665
orse	-7666
▁ash	-7667
▁1974	-7668
▁Sever	-7669
▁grace	-7670
▁alleged	-7671
▁circuit	-7672
▁evolved	-7673
▁tribunal	-7674
▁prejudice	-7675
▁NG	-7676
▁Sil	-7677
▁Mang	-7678
▁Soviet	-7679
▁defeat	-7680
▁tongue	-7681
▁Brahman	-7682
▁genuine	-7683
▁returns	-7684
▁interaction	-7685
alal	-7686
ulus	-7687
▁Mun	-7688
▁Nic	-7689
unals	-7690
▁Mach	-7691
▁horiz	-7692
▁copies	-7693
▁realize	-7694
▁entertain	-7695
▁Ve	-7696
aked	-7697
▁Badr	-7698
▁exploitation	-7699
▁incorporated	-7700
rete	-7701
▁Hand	-7702
▁Sign	-7703
▁Times	-7704
▁Treat	-7705
▁newly	-7706
▁tasks	-7707
adation	-7708
▁monthly	-7709
▁peaceful	-7710
▁terminal	-7711
▁healthcare	-7712
▁commodities	-7713
TP	-7714
▁Ms	-7715
▁Ach	-7716
▁DAY	-7717
▁RBI	-7718
▁scre	-7719
▁Click	-7720
▁farming	-7721
▁yesterday	-7722
▁derivative	-7723
agra	-7724
▁ICT	-7725
▁Kav	-7726
▁Rah	-7727
.2013	-7728
▁hurt	-7729
▁taxes	-7730
▁satell	-7731
▁belongs	-7732
▁Software	-7733
▁multiply	-7734
▁consequence	-7735
rem	-7736
urit	-7737
▁haz	-7738
▁hes	-7739
▁Perm	-7740
▁Save	-7741
▁busy	-7742
orters	-7743
▁Local	-7744
▁Truth	-7745
▁bread	-7746
▁faces	-7747
▁grain	-7748
▁denied	-7749
▁finger	-7750
▁rememb	-7751
▁mistake	-7752
▁weakness	-7753
▁generated	-7754
▁residence	-7755
▁scheduled	-7756
▁regulation	-7757
▁composition	-7758
▁66	-7759
▁Cy	-7760
enda	-7761
▁Log	-7762
▁1985	-7763
▁Lear	-7764
▁wage	-7765
▁shift	-7766
▁Nothing	-7767
▁feeding	-7768
▁complain	-7769
▁territories	-7770
▁conservation	-7771
HA	-7772
IM	-7773
TS	-7774
ITs	-7775
ato	-7776
▁ju	-7777
▁Que	-7778
ureau	-7779
▁boat	-7780
▁blank	-7781
▁ruler	-7782
▁kilomet	-7783
▁succeeded	-7784
▁Washington	-7785
▁artificial	-7786
▁supporting	-7787
▁ice	-7788
▁pled	-7789
▁alter	-7790
▁legit	-7791
▁devoted	-7792
▁injured	-7793
▁Bangalore	-7794
▁recognize	-7795
ald	-7796
▁PM	-7797
ymph	-7798
osted	-7799
▁trek	-7800
▁tooth	-7801
▁prayer	-7802
▁simult	-7803
▁Several	-7804
▁prestig	-7805
▁serving	-7806
▁Moreover	-7807
▁USA	-7808
nasty	-7809
▁Govt	-7810
▁silk	-7811
▁urge	-7812
▁intim	-7813
▁lying	-7814
▁miles	-7815
ographic	-7816
▁furnished	-7817
▁Investment	-7818
▁Regulation	-7819
▁presentation	-7820
.9	-7821
▁mah	-7822
APTER	-7823
▁pest	-7824
▁pump	-7825
▁Mahal	-7826
▁spons	-7827
▁button	-7828
▁noticed	-7829
▁68	-7830
▁aer	-7831
▁shell	-7832
▁summer	-7833
▁carries	-7834
▁intense	-7835
▁outlook	-7836
▁partial	-7837
▁overcome	-7838
▁vehicles	-7839
▁obtaining	-7840
▁tremendous	-7841
▁ultimately	-7842
fe	-7843
law	-7844
ashi	-7845
hash	-7846
▁Bro	-7847
▁dele	-7848
ections	-7849
▁afraid	-7850
▁biggest	-7851
▁Japanese	-7852
▁channels	-7853
▁attracted	-7854
▁financing	-7855
rh	-7856
▁74	-7857
time	-7858
▁dil	-7859
▁Play	-7860
▁brill	-7861
▁bigger	-7862
▁deduct	-7863
▁winter	-7864
amination	-7865
▁Recommend	-7866
▁references	-7867
riev	-7868
unch	-7869
▁Hall	-7870
▁glad	-7871
▁memb	-7872
▁stom	-7873
hibited	-7874
▁hidden	-7875
▁Hindust	-7876
▁Constitu	-7877
▁database	-7878
▁disorder	-7879
▁thorough	-7880
▁Allahabad	-7881
▁referring	-7882
▁Foundation	-7883
▁frequently	-7884
▁substituted	-7885
HAR	-7886
oding	-7887
▁charm	-7888
▁maybe	-7889
▁client	-7890
indranath	-7891
▁innocent	-7892
▁relatives	-7893
▁stability	-7894
▁configuration	-7895
▁85	-7896
what	-7897
▁lung	-7898
▁NATION	-7899
▁younger	-7900
▁agreements	-7901
rous	-7902
▁dow	-7903
eches	-7904
▁dict	-7905
▁intu	-7906
▁wave	-7907
hemical	-7908
▁Sheikh	-7909
▁Ayurved	-7910
▁theatre	-7911
▁characteristics	-7912
▁Od	-7913
etan	-7914
pent	-7915
oster	-7916
▁merg	-7917
▁castes	-7918
▁CHAPTER	-7919
▁assured	-7920
▁retired	-7921
▁sending	-7922
▁dramatic	-7923
▁Ste	-7924
▁Str	-7925
▁sed	-7926
▁Luck	-7927
▁larva	-7928
▁holder	-7929
▁lawyers	-7930
▁organic	-7931
ictionary	-7932
▁Planning	-7933
▁inherent	-7934
▁exception	-7935
▁exercised	-7936
▁attachment	-7937
▁Accordingly	-7938
▁Rav	-7939
▁loy	-7940
ecess	-7941
utosh	-7942
▁vacc	-7943
▁Sessions	-7944
▁contents	-7945
▁aggregate	-7946
▁varieties	-7947
▁legislature	-7948
how	-7949
▁BE	-7950
acle	-7951
▁gun	-7952
▁pool	-7953
▁stup	-7954
▁Speech	-7955
▁governed	-7956
▁performing	-7957
auc	-7958
gin	-7959
utch	-7960
▁Nir	-7961
irmed	-7962
▁deity	-7963
▁penal	-7964
entions	-7965
▁worshi	-7966
▁Consumer	-7967
▁classical	-7968
▁exclusive	-7969
▁positions	-7970
▁AM	-7971
▁IV	-7972
quar	-7973
rine	-7974
▁Sea	-7975
▁err	-7976
▁hal	-7977
etime	-7978
▁genus	-7979
▁tells	-7980
▁Topics	-7981
▁Himalayas	-7982
▁punishable	-7983
▁discrimination	-7984
ns	-7985
▁Ir	-7986
▁Cell	-7987
▁fraud	-7988
▁motiv	-7989
▁Telugu	-7990
▁circle	-7991
▁attempts	-7992
▁profound	-7993
▁constitut	-7994
▁occasions	-7995
▁pregnancy	-7996
▁radiation	-7997
OM	-7998
ogy	-7999
▁cum	-8000
▁Mess	-8001
▁auth	-8002
liance	-8003
ricted	-8004
fulness	-8005
rations	-8006
▁easier	-8007
▁fairly	-8008
▁gained	-8009
▁Computer	-8010
▁Na	-8011
asis	-8012
oult	-8013
▁Bul	-8014
▁Tour	-8015
▁mood	-8016
incial	-8017
▁loose	-8018
atories	-8019
ictions	-8020
▁delete	-8021
▁thread	-8022
▁protocol	-8023
▁sanctioned	-8024
met	-8025
▁fle	-8026
rates	-8027
▁Forum	-8028
▁Thank	-8029
▁closer	-8030
▁exhaust	-8031
▁pillars	-8032
▁profile	-8033
▁describe	-8034
ss	-8035
oma	-8036
ador	-8037
being	-8038
▁1970	-8039
▁Arun	-8040
▁partly	-8041
▁Collect	-8042
▁disqual	-8043
▁genetic	-8044
▁musical	-8045
▁abnormal	-8046
▁bacteria	-8047
▁sequence	-8048
▁increases	-8049
▁Institutions	-8050
erals	-8051
▁Indo	-8052
lessness	-8053
▁extract	-8054
▁precious	-8055
▁reducing	-8056
▁strongly	-8057
▁preferred	-8058
▁Prevention	-8059
▁experienced	-8060
▁representing	-8061
▁extraordinary	-8062
cers	-8063
wood	-8064
▁flo	-8065
▁row	-8066
▁Private	-8067
▁recover	-8068
▁gathered	-8069
▁produces	-8070
ios	-8071
akers	-8072
ipped	-8073
▁Norm	-8074
▁axis	-8075
▁Arbit	-8076
▁landl	-8077
▁united	-8078
▁institute	-8079
ida	-8080
off	-8081
avas	-8082
▁01.	-8083
ariat	-8084
ovable	-8085
▁Major	-8086
▁Centres	-8087
▁furnish	-8088
▁payments	-8089
dev	-8090
▁Sl	-8091
EECH	-8092
xide	-8093
▁Help	-8094
▁Short	-8095
▁recon	-8096
▁Action	-8097
▁SPEECH	-8098
▁farmer	-8099
▁metres	-8100
▁spring	-8101
▁cutting	-8102
▁doctors	-8103
▁seriously	-8104
▁integration	-8105
▁Path	-8106
coming	-8107
▁Entry	-8108
▁chest	-8109
▁incap	-8110
▁sheep	-8111
▁turns	-8112
▁praise	-8113
▁anywhere	-8114
jun	-8115
akar	-8116
▁Vide	-8117
▁emer	-8118
▁Dwark	-8119
▁Nanak	-8120
▁lands	-8121
▁magaz	-8122
▁norms	-8123
itarian	-8124
▁daniel	-8125
▁Islands	-8126
▁enjoyed	-8127
▁scholar	-8128
▁servants	-8129
▁necessity	-8130
▁acceptable	-8131
▁identification	-8132
adv	-8133
iya	-8134
pex	-8135
▁dh	-8136
odox	-8137
▁Indeed	-8138
▁comprom	-8139
▁periods	-8140
▁modified	-8141
▁recording	-8142
▁realisation	-8143
anth	-8144
itya	-8145
▁cad	-8146
▁oxy	-8147
▁intr	-8148
▁bonds	-8149
▁clock	-8150
▁fails	-8151
▁plane	-8152
▁risks	-8153
▁bearing	-8154
▁pronoun	-8155
BC	-8156
UD	-8157
▁05	-8158
lessly	-8159
▁Light	-8160
▁cater	-8161
▁grave	-8162
▁lingu	-8163
▁Family	-8164
▁inputs	-8165
▁pretty	-8166
liminary	-8167
▁AN	-8168
inth	-8169
▁gap	-8170
itate	-8171
▁Cast	-8172
▁pace	-8173
isible	-8174
▁Abdul	-8175
▁Advis	-8176
▁inhab	-8177
▁wider	-8178
itioner	-8179
▁engage	-8180
▁stones	-8181
▁adoption	-8182
▁reposted	-8183
▁exceeding	-8184
▁programming	-8185
▁establishing	-8186
▁Ap	-8187
▁mould	-8188
▁flight	-8189
▁walking	-8190
criptions	-8191
▁revealed	-8192
▁acknowled	-8193
▁indicates	-8194
▁interview	-8195
▁appreciation	-8196
▁92	-8197
,000	-8198
atra	-8199
▁Ven	-8200
▁Wik	-8201
igarh	-8202
▁font	-8203
▁forum	-8204
▁Indira	-8205
▁Netaji	-8206
▁wherein	-8207
▁increasingly	-8208
zen	-8209
gage	-8210
rative	-8211
▁fifth	-8212
▁darkness	-8213
▁convicted	-8214
CP	-8215
uts	-8216
▁texts	-8217
▁remedy	-8218
lamation	-8219
▁Bahadur	-8220
▁acceler	-8221
▁windows	-8222
▁contacts	-8223
ua	-8224
▁06	-8225
▁BY	-8226
▁CA	-8227
▁Six	-8228
▁vag	-8229
acing	-8230
▁Take	-8231
▁march	-8232
▁genius	-8233
▁urgent	-8234
▁assumed	-8235
▁ownership	-8236
▁spr	-8237
endix	-8238
▁Pune	-8239
▁mine	-8240
ancell	-8241
ilding	-8242
▁incom	-8243
▁uncle	-8244
▁golden	-8245
▁imported	-8246
▁somewhat	-8247
▁Municipal	-8248
asp	-8249
bra	-8250
down	-8251
▁cav	-8252
herry	-8253
ogram	-8254
engers	-8255
missions	-8256
▁Manipur	-8257
▁reflected	-8258
▁villagers	-8259
▁restrictions	-8260
DF	-8261
▁Dav	-8262
eding	-8263
▁plot	-8264
▁scrut	-8265
▁faster	-8266
▁stayed	-8267
▁driving	-8268
▁enlight	-8269
▁enquiry	-8270
▁compulsory	-8271
▁remembered	-8272
▁Jos	-8273
▁Docu	-8274
▁meal	-8275
▁Third	-8276
▁kings	-8277
atively	-8278
▁Unable	-8279
▁devote	-8280
▁fabric	-8281
▁impose	-8282
▁perpet	-8283
▁silent	-8284
ribution	-8285
▁Enterpr	-8286
▁harmful	-8287
▁invalid	-8288
▁silence	-8289
▁equation	-8290
▁continuing	-8291
▁institutes	-8292
▁corporation	-8293
▁Gen	-8294
using	-8295
▁1949	-8296
▁1994	-8297
▁Zone	-8298
▁calm	-8299
alysis	-8300
▁adults	-8301
▁silver	-8302
▁package	-8303
▁reserve	-8304
▁enabling	-8305
▁tourists	-8306
▁wherever	-8307
▁Employment	-8308
▁appreciate	-8309
▁encouraging	-8310
▁HT	-8311
▁Han	-8312
▁cul	-8313
▁lease	-8314
▁nodes	-8315
▁Lahore	-8316
▁Temple	-8317
▁fought	-8318
▁hearts	-8319
▁preval	-8320
▁smooth	-8321
▁imports	-8322
▁pleased	-8323
▁premium	-8324
-4	-8325
uti	-8326
aved	-8327
iders	-8328
ipher	-8329
▁1960	-8330
▁alien	-8331
▁infer	-8332
▁wheel	-8333
usively	-8334
▁Instead	-8335
▁careful	-8336
▁stomach	-8337
▁circular	-8338
▁literacy	-8339
▁Badruddin	-8340
▁describes	-8341
▁57	-8342
▁SS	-8343
plate	-8344
lihood	-8345
▁brown	-8346
▁repay	-8347
ogether	-8348
▁gentle	-8349
▁talent	-8350
▁African	-8351
▁mankind	-8352
▁province	-8353
▁eventually	-8354
▁complicated	-8355
opl	-8356
▁fo	-8357
▁Ray	-8358
archy	-8359
▁1957	-8360
▁Narm	-8361
▁luck	-8362
▁Relig	-8363
▁Ganges	-8364
▁artist	-8365
▁handle	-8366
▁precise	-8367
▁reserved	-8368
▁retirement	-8369
wara	-8370
▁Chal	-8371
▁mole	-8372
arency	-8373
▁posts	-8374
▁Brahma	-8375
▁headed	-8376
▁valley	-8377
▁Without	-8378
▁answers	-8379
▁surgery	-8380
▁Islamists	-8381
▁conventional	-8382
oa	-8383
oty	-8384
▁04	-8385
unate	-8386
▁acute	-8387
▁alloc	-8388
▁plain	-8389
▁vested	-8390
▁disturb	-8391
▁formula	-8392
▁aspirations	-8393
▁geographical	-8394
▁NS	-8395
omous	-8396
▁spin	-8397
▁wire	-8398
▁feels	-8399
▁keeps	-8400
▁loved	-8401
▁merit	-8402
▁heaven	-8403
▁repair	-8404
▁unlike	-8405
▁printing	-8406
orce	-8407
ouds	-8408
hical	-8409
idency	-8410
▁dreams	-8411
▁colleges	-8412
▁entering	-8413
▁inspection	-8414
lor	-8415
▁400	-8416
angle	-8417
avior	-8418
▁Vill	-8419
▁indu	-8420
▁worse	-8421
▁Swaraj	-8422
▁Academy	-8423
▁browser	-8424
▁enormous	-8425
▁algorithm	-8426
gi	-8427
ails	-8428
▁Paul	-8429
▁idol	-8430
▁Black	-8431
▁Print	-8432
▁bears	-8433
▁bride	-8434
▁Valley	-8435
▁Session	-8436
▁interpre	-8437
▁networks	-8438
▁visiting	-8439
ario	-8440
▁Ans	-8441
▁1981	-8442
urning	-8443
▁dissem	-8444
▁intermedi	-8445
kh	-8446
ALL	-8447
▁Ce	-8448
▁Dam	-8449
aming	-8450
▁Agra	-8451
▁Mart	-8452
▁dear	-8453
apping	-8454
▁Champ	-8455
▁beach	-8456
▁begun	-8457
▁taste	-8458
▁batter	-8459
▁breath	-8460
▁firmly	-8461
▁saving	-8462
iciently	-8463
▁Quality	-8464
akrishnan	-8465
▁comprising	-8466
10	-8467
▁73	-8468
▁ought	-8469
▁Reform	-8470
▁island	-8471
▁refund	-8472
▁licence	-8473
▁calendar	-8474
▁nominated	-8475
▁observations	-8476
▁subsequently	-8477
ubs	-8478
apse	-8479
mans	-8480
▁adding	-8481
▁native	-8482
▁complim	-8483
▁relates	-8484
▁mandatory	-8485
▁88	-8486
▁Exc	-8487
▁unp	-8488
inder	-8489
▁Phot	-8490
▁brave	-8491
ifferent	-8492
▁instituted	-8493
je	-8494
▁La	-8495
alli	-8496
▁End	-8497
▁bin	-8498
▁mil	-8499
chers	-8500
▁1908	-8501
ESSAGE	-8502
▁retain	-8503
▁thinks	-8504
▁Federal	-8505
▁paramet	-8506
▁Transfer	-8507
▁revision	-8508
▁everybody	-8509
▁Organization	-8510
ela	-8511
▁EX	-8512
aras	-8513
▁tor	-8514
▁Auro	-8515
▁lake	-8516
▁tall	-8517
ashion	-8518
▁snake	-8519
▁resear	-8520
▁tribes	-8521
▁Display	-8522
▁exchanges	-8523
▁installation	-8524
▁87	-8525
▁NH	-8526
ulum	-8527
▁Aur	-8528
▁fan	-8529
▁fou	-8530
▁gif	-8531
ivals	-8532
▁bare	-8533
itudes	-8534
rating	-8535
▁adjud	-8536
▁hotel	-8537
▁penet	-8538
▁download	-8539
▁slightly	-8540
▁Promotion	-8541
▁membership	-8542
ffee	-8543
illy	-8544
▁wed	-8545
▁1984	-8546
▁Madh	-8547
▁Sank	-8548
▁horn	-8549
▁semi	-8550
▁depre	-8551
▁driven	-8552
▁nervous	-8553
▁actively	-8554
▁handling	-8555
▁presents	-8556
▁candidate	-8557
▁convinced	-8558
▁stakeholders	-8559
OV	-8560
▁dies	-8561
▁hide	-8562
▁orth	-8563
▁rein	-8564
▁resc	-8565
▁tack	-8566
▁thro	-8567
father	-8568
ulates	-8569
▁Repeal	-8570
▁Iranian	-8571
▁massive	-8572
▁breeding	-8573
▁expanded	-8574
▁Americans	-8575
▁admission	-8576
▁disability	-8577
▁separately	-8578
iac	-8579
▁la	-8580
▁183	-8581
ridge	-8582
▁Cost	-8583
▁Requ	-8584
▁hunt	-8585
▁Nation	-8586
▁troops	-8587
▁elsewhere	-8588
▁obviously	-8589
pay	-8590
book	-8591
▁Has	-8592
▁Jam	-8593
cular	-8594
▁Jews	-8595
▁Radh	-8596
▁amaz	-8597
▁tons	-8598
istence	-8599
▁speedy	-8600
▁MESSAGE	-8601
▁Windows	-8602
▁essence	-8603
▁speeches	-8604
▁addresses	-8605
▁Ministries	-8606
▁terrorists	-8607
▁py	-8608
▁Next	-8609
▁Kabir	-8610
▁admit	-8611
▁broke	-8612
▁Scient	-8613
▁keyboard	-8614
▁marginal	-8615
▁surprise	-8616
roid	-8617
▁Down	-8618
▁Vive	-8619
▁stem	-8620
▁abuse	-8621
▁crowd	-8622
▁butter	-8623
▁peculi	-8624
▁struck	-8625
▁vessels	-8626
▁hardware	-8627
▁arguments	-8628
▁residential	-8629
AYS	-8630
▁cin	-8631
hesis	-8632
▁alcoh	-8633
▁driver	-8634
▁oxygen	-8635
▁Product	-8636
▁desktop	-8637
▁preceding	-8638
▁violation	-8639
UG	-8640
▁79	-8641
isal	-8642
rich	-8643
▁Til	-8644
itary	-8645
▁Hard	-8646
▁cogn	-8647
person	-8648
▁logic	-8649
▁handed	-8650
▁confirm	-8651
▁players	-8652
▁dialogue	-8653
▁premises	-8654
▁sympathy	-8655
▁excessive	-8656
▁governing	-8657
▁ignorance	-8658
▁originally	-8659
▁rehabilitation	-8660
bh	-8661
ocks	-8662
rase	-8663
agues	-8664
▁Band	-8665
▁noble	-8666
▁plate	-8667
▁agents	-8668
▁Deposit	-8669
▁Subhash	-8670
▁Gujarati	-8671
▁supplied	-8672
▁withdrawal	-8673
BER	-8674
IST	-8675
will	-8676
▁Spec	-8677
▁Vict	-8678
▁nose	-8679
▁vulner	-8680
▁acquire	-8681
▁Standards	-8682
▁expertise	-8683
▁Additional	-8684
Cs	-8685
oz	-8686
idity	-8687
▁Long	-8688
▁movie	-8689
essment	-8690
▁Partic	-8691
▁assert	-8692
▁knowing	-8693
▁savings	-8694
▁finished	-8695
▁incidents	-8696
▁designated	-8697
EST	-8698
awn	-8699
rue	-8700
▁77	-8701
itan	-8702
▁mit	-8703
place	-8704
stone	-8705
▁inqu	-8706
ighter	-8707
inking	-8708
theless	-8709
▁Bureau	-8710
▁decimal	-8711
sequently	-8712
▁Movement	-8713
▁generate	-8714
▁minority	-8715
▁overseas	-8716
▁occupation	-8717
▁formulation	-8718
aar	-8719
agn	-8720
kal	-8721
▁184	-8722
▁IPv	-8723
▁Kitt	-8724
▁arts	-8725
▁pock	-8726
iceroy	-8727
▁adapt	-8728
▁films	-8729
▁optim	-8730
▁topic	-8731
ignment	-8732
▁Modern	-8733
▁quoted	-8734
▁tendency	-8735
▁relatively	-8736
▁AW	-8737
lers	-8738
antra	-8739
▁shoot	-8740
▁breach	-8741
quarters	-8742
▁telling	-8743
▁broadcast	-8744
▁Institution	-8745
-19	-8746
oda	-8747
▁Ny	-8748
▁Cho	-8749
▁lov	-8750
▁Bhav	-8751
▁Page	-8752
▁pion	-8753
acific	-8754
pector	-8755
▁Grand	-8756
▁Sahib	-8757
▁Solar	-8758
▁Vedas	-8759
▁evalu	-8760
▁holid	-8761
▁Default	-8762
▁patterns	-8763
UB	-8764
▁95	-8765
otism	-8766
▁jump	-8767
istrar	-8768
▁Durga	-8769
▁glory	-8770
▁tests	-8771
▁Bhutan	-8772
▁ancest	-8773
▁lawyer	-8774
▁pursue	-8775
▁singing	-8776
▁cultures	-8777
▁monetary	-8778
anim	-8779
▁Yoj	-8780
▁1000	-8781
▁Azad	-8782
▁Main	-8783
▁Shar	-8784
▁Amrit	-8785
▁Citiz	-8786
▁gramm	-8787
▁protein	-8788
▁subsidy	-8789
▁utilised	-8790
▁conducting	-8791
▁particulars	-8792
kim	-8793
▁CR	-8794
airy	-8795
aimed	-8796
amboo	-8797
▁shut	-8798
▁warn	-8799
abetes	-8800
▁plains	-8801
▁Lucknow	-8802
▁affects	-8803
▁focused	-8804
▁protest	-8805
▁winning	-8806
▁engagement	-8807
▁determining	-8808
ford	-8809
pura	-8810
▁Jour	-8811
▁shot	-8812
▁domin	-8813
▁planet	-8814
▁Articles	-8815
▁occupied	-8816
▁peculiar	-8817
▁schedule	-8818
▁Transport	-8819
▁communications	-8820
AK	-8821
DI	-8822
pes	-8823
▁Sad	-8824
ammed	-8825
▁palm	-8826
asures	-8827
▁fract	-8828
▁rhyth	-8829
▁stable	-8830
▁breaking	-8831
▁enhancing	-8832
▁tolerance	-8833
▁livelihood	-8834
DR	-8835
▁62	-8836
▁Tib	-8837
▁acted	-8838
▁usage	-8839
attered	-8840
▁Region	-8841
▁machines	-8842
▁concluded	-8843
▁empowered	-8844
▁absolutely	-8845
▁phenomenon	-8846
▁prevention	-8847
▁observation	-8848
▁Organisation	-8849
▁59	-8850
▁gov	-8851
▁isn	-8852
▁vii	-8853
▁Mean	-8854
olving	-8855
▁abdom	-8856
▁harmon	-8857
▁mineral	-8858
▁advocate	-8859
▁Himalayan	-8860
▁Christians	-8861
▁compliance	-8862
▁approximately	-8863
EP	-8864
MENT	-8865
orry	-8866
▁bug	-8867
▁aged	-8868
▁Imple	-8869
▁Media	-8870
▁Vivek	-8871
▁anger	-8872
▁assemb	-8873
▁couldn	-8874
▁margin	-8875
▁viewed	-8876
▁vimana	-8877
▁writes	-8878
▁authors	-8879
▁insurer	-8880
▁mixture	-8881
▁Contract	-8882
▁preserve	-8883
ett	-8884
log	-8885
uma	-8886
adra	-8887
▁EVE	-8888
rible	-8889
▁Desp	-8890
▁Wild	-8891
▁Const	-8892
▁arrive	-8893
▁freely	-8894
▁levied	-8895
▁cancell	-8896
▁denomin	-8897
▁printer	-8898
▁Appendix	-8899
▁Resource	-8900
▁announce	-8901
▁objection	-8902
▁delegation	-8903
pa	-8904
▁CL	-8905
alaya	-8906
▁clin	-8907
▁sake	-8908
itated	-8909
ortion	-8910
▁Arabs	-8911
▁bones	-8912
ologist	-8913
▁Jagann	-8914
▁sounds	-8915
▁visits	-8916
▁fashion	-8917
▁immovable	-8918
▁cooperative	-8919
ese	-8920
uri	-8921
▁78	-8922
eals	-8923
vara	-8924
▁voc	-8925
▁Loan	-8926
▁Nand	-8927
▁supr	-8928
▁cease	-8929
▁genes	-8930
▁india	-8931
▁Agency	-8932
▁William	-8933
▁creates	-8934
▁ignored	-8935
▁revised	-8936
▁commerce	-8937
▁reserves	-8938
▁succession	-8939
teen	-8940
upee	-8941
▁nod	-8942
adequ	-8943
▁1954	-8944
▁Thir	-8945
▁Type	-8946
▁Vish	-8947
▁stip	-8948
▁unem	-8949
ancies	-8950
▁Space	-8951
▁Bhagat	-8952
▁Sharma	-8953
▁Finally	-8954
▁outcome	-8955
▁streams	-8956
▁attained	-8957
▁experiments	-8958
▁innovations	-8959
▁involvement	-8960
▁modification	-8961
▁participants	-8962
▁Environmental	-8963
GR	-8964
oure	-8965
▁lac	-8966
acles	-8967
▁1946	-8968
▁1963	-8969
▁ages	-8970
oultry	-8971
▁perce	-8972
▁compan	-8973
▁humans	-8974
▁nearby	-8975
▁nobody	-8976
▁Minimum	-8977
▁Narayan	-8978
▁exclusively	-8979
▁preliminary	-8980
ITY	-8981
nut	-8982
▁67	-8983
▁rab	-8984
onent	-8985
▁Care	-8986
▁sees	-8987
ounded	-8988
ushing	-8989
▁Raman	-8990
▁reign	-8991
▁Senior	-8992
▁attacked	-8993
▁believes	-8994
▁dimension	-8995
▁colleagues	-8996
▁imperialism	-8997
co	-8998
ENCE	-8999
▁rat	-9000
arkar	-9001
attis	-9002
▁chap	-9003
▁fond	-9004
otions	-9005
▁abund	-9006
▁equals	-9007
▁exceeds	-9008
▁federal	-9009
▁missing	-9010
▁Aurobind	-9011
▁Technical	-9012
▁qualified	-9013
▁personally	-9014
▁Yam	-9015
▁Bhai	-9016
▁nest	-9017
akings	-9018
▁Samaj	-9019
▁chart	-9020
▁hyper	-9021
▁Pension	-9022
▁binding	-9023
▁clauses	-9024
▁Railways	-9025
▁Standard	-9026
▁commodity	-9027
▁discovery	-9028
▁surrender	-9029
▁Dwarkanath	-9030
▁surrounded	-9031
UK	-9032
ocy	-9033
▁unh	-9034
▁Pract	-9035
▁Design	-9036
▁Museum	-9037
▁Sindhi	-9038
▁agenda	-9039
▁Revenue	-9040
▁Viceroy	-9041
▁distant	-9042
▁enables	-9043
▁separated	-9044
▁electrical	-9045
▁capabilities	-9046
aunt	-9047
emat	-9048
▁tum	-9049
▁van	-9050
▁void	-9051
terior	-9052
▁magic	-9053
▁pestic	-9054
▁reward	-9055
▁destiny	-9056
▁realized	-9057
▁judgments	-9058
▁allocation	-9059
▁accommodation	-9060
mo	-9061
▁IF	-9062
rawn	-9063
▁Jer	-9064
▁Rat	-9065
plant	-9066
ulses	-9067
▁1972	-9068
▁1977	-9069
▁Conv	-9070
▁Fest	-9071
▁dish	-9072
▁hung	-9073
▁outs	-9074
urrent	-9075
▁Level	-9076
▁Patna	-9077
▁repro	-9078
▁Status	-9079
▁serves	-9080
▁Subject	-9081
▁conform	-9082
▁drought	-9083
▁dynasty	-9084
▁entries	-9085
▁balanced	-9086
▁dividend	-9087
▁limitations	-9088
▁perspective	-9089
▁AR	-9090
▁ha	-9091
▁ul	-9092
chen	-9093
soon	-9094
▁Sin	-9095
▁Vid	-9096
▁kit	-9097
▁vex	-9098
▁Area	-9099
▁suits	-9100
▁Maurit	-9101
▁Freedom	-9102
▁observe	-9103
▁submission	-9104
▁substances	-9105
uni	-9106
▁ho	-9107
atta	-9108
▁Vin	-9109
▁Call	-9110
▁Ocean	-9111
▁indul	-9112
▁reass	-9113
▁Singles	-9114
▁avoided	-9115
▁enemies	-9116
▁Commerce	-9117
▁NATIONAL	-9118
▁inferior	-9119
▁retained	-9120
▁wonderful	-9121
▁consistent	-9122
▁productive	-9123
▁restricted	-9124
▁Directorate	-9125
▁intervention	-9126
▁concentration	-9127
.08	-9128
▁ma	-9129
acco	-9130
ahan	-9131
rosc	-9132
▁Hus	-9133
▁ped	-9134
orney	-9135
▁Sikhs	-9136
▁spell	-9137
▁trick	-9138
▁Sikkim	-9139
▁thrown	-9140
▁declare	-9141
▁vitamin	-9142
▁Chancell	-9143
▁repealed	-9144
▁safeguard	-9145
▁Integrated	-9146
▁accounting	-9147
eers	-9148
▁Opt	-9149
▁gro	-9150
ulent	-9151
agraha	-9152
atious	-9153
▁Grant	-9154
▁Video	-9155
▁storm	-9156
▁mining	-9157
▁estimate	-9158
▁Aurobindo	-9159
▁preparing	-9160
▁reputation	-9161
▁69	-9162
ndra	-9163
▁bio	-9164
▁Soon	-9165
▁mart	-9166
▁actor	-9167
inarily	-9168
▁allied	-9169
▁forgot	-9170
▁harass	-9171
▁insert	-9172
▁museum	-9173
▁forming	-9174
▁advances	-9175
▁extending	-9176
▁addressing	-9177
MM	-9178
▁Dy	-9179
▁Ek	-9180
imony	-9181
▁estate	-9182
▁Shankar	-9183
▁license	-9184
▁tissues	-9185
▁Protocol	-9186
▁Question	-9187
▁attractive	-9188
▁separation	-9189
▁Constituent	-9190
▁MW	-9191
▁SA	-9192
fare	-9193
▁Job	-9194
▁Oil	-9195
▁Tom	-9196
▁din	-9197
night	-9198
▁Rece	-9199
▁Greek	-9200
▁Quran	-9201
▁brand	-9202
▁widow	-9203
ailable	-9204
▁Forces	-9205
▁decree	-9206
▁grains	-9207
▁habits	-9208
▁untouch	-9209
▁suggests	-9210
▁photograph	-9211
▁Radhakrishnan	-9212
ipp	-9213
osa	-9214
▁Ber	-9215
▁peak	-9216
▁spir	-9217
▁Gopal	-9218
▁flows	-9219
▁plural	-9220
▁Russian	-9221
▁entrance	-9222
▁Malayalam	-9223
PA	-9224
conn	-9225
▁cup	-9226
aland	-9227
apore	-9228
▁1930	-9229
▁1955	-9230
▁hect	-9231
▁therm	-9232
▁tight	-9233
▁Budget	-9234
▁Should	-9235
▁bought	-9236
▁insult	-9237
▁tenant	-9238
▁toward	-9239
onscious	-9240
▁chemicals	-9241
▁prisoners	-9242
▁connections	-9243
▁Rabindranath	-9244
30	-9245
icing	-9246
▁1951	-9247
▁beet	-9248
stream	-9249
wealth	-9250
▁favor	-9251
▁deleted	-9252
▁Abdullah	-9253
▁Agreement	-9254
▁desirable	-9255
▁dismissed	-9256
ju	-9257
▁#	-9258
▁97	-9259
onic	-9260
▁Vig	-9261
▁1938	-9262
▁nurt	-9263
inions	-9264
▁chick	-9265
▁immig	-9266
▁assume	-9267
▁contrad	-9268
▁muscles	-9269
▁satisfy	-9270
▁skilled	-9271
▁judgement	-9272
▁grievances	-9273
▁inevitable	-9274
▁liberation	-9275
▁publications	-9276
▁developmental	-9277
valid	-9278
▁degr	-9279
▁tact	-9280
▁tiny	-9281
onomic	-9282
ressal	-9283
▁manpower	-9284
▁surrounding	-9285
EC	-9286
▁ov	-9287
tery	-9288
▁tap	-9289
andra	-9290
▁1939	-9291
▁Tool	-9292
icable	-9293
▁helpl	-9294
ichever	-9295
▁advent	-9296
▁miscon	-9297
▁therap	-9298
▁Library	-9299
▁approaches	-9300
lock	-9301
tain	-9302
▁1975	-9303
▁hors	-9304
ipping	-9305
▁foods	-9306
▁Employ	-9307
▁deaths	-9308
▁weapon	-9309
ificates	-9310
▁Airport	-9311
▁fraction	-9312
▁functional	-9313
▁Enc	-9314
▁Old	-9315
▁Vik	-9316
▁bes	-9317
▁Star	-9318
▁Sult	-9319
▁paddy	-9320
▁width	-9321
▁reiter	-9322
▁resemb	-9323
▁arrival	-9324
▁rendering	-9325
▁controversy	-9326
obar	-9327
ques	-9328
▁Dou	-9329
▁Hem	-9330
chron	-9331
rives	-9332
▁1969	-9333
▁Prop	-9334
usions	-9335
▁sport	-9336
▁Center	-9337
▁Spirit	-9338
▁deeper	-9339
▁legend	-9340
▁streets	-9341
▁Ayurveda	-9342
▁disaster	-9343
▁Palestinians	-9344
SA	-9345
▁Os	-9346
▁Lic	-9347
▁tow	-9348
araja	-9349
▁1978	-9350
▁Rate	-9351
▁monu	-9352
▁Indra	-9353
▁Koran	-9354
▁borne	-9355
▁ports	-9356
▁reads	-9357
▁extends	-9358
▁lending	-9359
▁Electric	-9360
▁initially	-9361
▁collecting	-9362
▁psychological	-9363
var	-9364
ourn	-9365
▁Prim	-9366
▁seiz	-9367
▁Audio	-9368
▁Total	-9369
▁doors	-9370
▁flying	-9371
▁hatred	-9372
▁Install	-9373
▁Pacific	-9374
▁Turkish	-9375
▁exposed	-9376
▁railways	-9377
▁highlight	-9378
▁indirectly	-9379
▁transmitted	-9380
kes	-9381
athi	-9382
bery	-9383
emen	-9384
idav	-9385
pons	-9386
▁120	-9387
▁Haz	-9388
▁Mer	-9389
point	-9390
▁Prat	-9391
▁tape	-9392
liness	-9393
acharya	-9394
▁Survey	-9395
▁patron	-9396
▁Invalid	-9397
▁Monitor	-9398
▁inadequ	-9399
▁segment	-9400
▁romantic	-9401
▁substantially	-9402
das	-9403
▁eg	-9404
▁Chak	-9405
▁Mill	-9406
▁Viet	-9407
▁penis	-9408
▁laying	-9409
▁losses	-9410
▁Appeals	-9411
▁anybody	-9412
▁funding	-9413
▁helpful	-9414
▁laboure	-9415
▁belonged	-9416
▁supports	-9417
orticulture	-9418
▁supramental	-9419
▁philosophical	-9420
cut	-9421
▁VI	-9422
oused	-9423
▁Jord	-9424
▁bulk	-9425
▁Ashok	-9426
▁Estab	-9427
▁Indus	-9428
▁Arabia	-9429
▁specim	-9430
▁cooking	-9431
attisgarh	-9432
▁festivals	-9433
▁responses	-9434
▁spreading	-9435
▁whichever	-9436
▁transparency	-9437
jo	-9438
hta	-9439
mat	-9440
▁sul	-9441
▁Sang	-9442
▁ster	-9443
▁Urban	-9444
▁ambit	-9445
▁dialog	-9446
esthetic	-9447
▁summary	-9448
▁coloured	-9449
▁possibly	-9450
▁studying	-9451
▁Palestine	-9452
▁Registrar	-9453
▁fulfilled	-9454
▁countrymen	-9455
▁enthusiasm	-9456
▁shareholders	-9457
▁simultaneously	-9458
gra	-9459
▁76	-9460
hari	-9461
▁Suf	-9462
▁mac	-9463
astri	-9464
orate	-9465
▁Bhar	-9466
▁Fire	-9467
▁Orig	-9468
angers	-9469
▁Creat	-9470
▁shout	-9471
▁......	-9472
▁Contin	-9473
▁oldest	-9474
▁videos	-9475
▁Despite	-9476
▁logical	-9477
▁plastic	-9478
▁warning	-9479
▁Advocate	-9480
▁Directors	-9481
▁incentives	-9482
▁mechanical	-9483
opp	-9484
▁orn	-9485
ipedia	-9486
▁Patel	-9487
▁depri	-9488
▁shops	-9489
▁eleven	-9490
chnology	-9491
▁Hamachi	-9492
▁Upanish	-9493
▁shoulder	-9494
▁Political	-9495
▁dedication	-9496
▁prevailing	-9497
▁explanation	-9498
▁strengthened	-9499
▁Constitutional	-9500
▁PS	-9501
LECT	-9502
hana	-9503
▁250	-9504
▁Hig	-9505
▁Gard	-9506
▁Guid	-9507
▁Rani	-9508
▁tied	-9509
▁unus	-9510
▁Menon	-9511
▁cryst	-9512
▁Prosec	-9513
▁fright	-9514
▁treaty	-9515
▁beliefs	-9516
▁Whatever	-9517
▁pregnant	-9518
▁intensity	-9519
▁transparent	-9520
▁Ha	-9521
▁aqu	-9522
iscal	-9523
▁stro	-9524
charge	-9525
▁irrit	-9526
▁photo	-9527
▁slope	-9528
▁tends	-9529
manship	-9530
▁humble	-9531
▁shadow	-9532
▁splend	-9533
▁termin	-9534
▁thrust	-9535
▁Emperor	-9536
▁earthqu	-9537
▁interim	-9538
▁secured	-9539
▁assessed	-9540
▁brilliant	-9541
▁economies	-9542
▁protecting	-9543
PL	-9544
hr	-9545
▁89	-9546
▁Abs	-9547
▁tag	-9548
ashed	-9549
earing	-9550
▁Ident	-9551
▁Point	-9552
▁virus	-9553
▁Jordan	-9554
▁differ	-9555
ologists	-9556
▁Manager	-9557
▁reconst	-9558
▁Northern	-9559
▁allowing	-9560
▁regulate	-9561
▁envisaged	-9562
▁ji	-9563
▁Case	-9564
▁Kath	-9565
▁disag	-9566
▁mango	-9567
mitting	-9568
▁Father	-9569
▁Yojana	-9570
▁utmost	-9571
▁conspir	-9572
▁Panchayat	-9573
▁Terrorism	-9574
▁prevalent	-9575
▁accessible	-9576
▁anniversary	-9577
▁irrespective	-9578
ago	-9579
▁Ken	-9580
cence	-9581
▁Poly	-9582
▁uter	-9583
enders	-9584
isting	-9585
▁camera	-9586
▁answered	-9587
▁concrete	-9588
▁orthodox	-9589
▁inaugurated	-9590
elt	-9591
phal	-9592
▁Mrs	-9593
▁Nam	-9594
▁apt	-9595
amese	-9596
aunch	-9597
▁Link	-9598
▁Pack	-9599
acular	-9600
▁Plant	-9601
▁alarm	-9602
▁tears	-9603
▁anonym	-9604
▁crimes	-9605
▁grants	-9606
▁ceremon	-9607
▁Mohammed	-9608
▁introduce	-9609
▁provinces	-9610
▁withdrawn	-9611
▁incomplete	-9612
▁Territories	-9613
▁allegations	-9614
▁considerably	-9615
▁Hit	-9616
▁Vaj	-9617
▁cha	-9618
▁epis	-9619
▁ling	-9620
▁mamm	-9621
▁purity	-9622
▁coverage	-9623
▁affecting	-9624
▁appellate	-9625
▁expensive	-9626
▁inflation	-9627
▁81	-9628
ihad	-9629
look	-9630
▁lob	-9631
▁1962	-9632
▁disb	-9633
erving	-9634
ickets	-9635
▁bench	-9636
▁moves	-9637
▁prisoner	-9638
▁proceeds	-9639
▁rainfall	-9640
▁gathering	-9641
▁proceeded	-9642
▁satellite	-9643
▁Secretariat	-9644
▁recruitment	-9645
▁interference	-9646
azi	-9647
vas	-9648
isha	-9649
▁Ten	-9650
rants	-9651
▁1952	-9652
holder	-9653
▁admir	-9654
▁honey	-9655
▁talks	-9656
▁Mobile	-9657
▁doubts	-9658
▁voting	-9659
▁Manilal	-9660
▁shelter	-9661
▁statute	-9662
▁computed	-9663
unications	-9664
▁Evolution	-9665
▁Territory	-9666
▁commencing	-9667
isan	-9668
▁Gre	-9669
onged	-9670
▁chol	-9671
▁germ	-9672
▁Hamas	-9673
▁explos	-9674
▁extrem	-9675
▁reveal	-9676
▁Andaman	-9677
▁Benefit	-9678
▁Details	-9679
▁lecture	-9680
porations	-9681
▁demanded	-9682
▁managing	-9683
ca	-9684
occ	-9685
keep	-9686
utra	-9687
▁vot	-9688
nagar	-9689
▁Camp	-9690
▁fool	-9691
▁crude	-9692
▁clouds	-9693
▁fisher	-9694
▁tempor	-9695
▁alcohol	-9696
▁magnetic	-9697
▁basically	-9698
▁considers	-9699
▁challenged	-9700
▁nationalism	-9701
iety	-9702
oven	-9703
rued	-9704
stan	-9705
▁600	-9706
▁Run	-9707
▁une	-9708
▁Lake	-9709
▁Proc	-9710
▁neut	-9711
▁Basic	-9712
▁Royal	-9713
▁remun	-9714
▁Tribes	-9715
▁Within	-9716
▁lesser	-9717
▁Recovery	-9718
▁discount	-9719
▁Europeans	-9720
▁witnessed	-9721
iki	-9722
iot	-9723
▁61	-9724
▁Ris	-9725
▁aug	-9726
eling	-9727
▁nice	-9728
ounter	-9729
roller	-9730
▁Queen	-9731
▁games	-9732
edience	-9733
▁Golden	-9734
▁Island	-9735
▁exempt	-9736
▁Natural	-9737
▁utility	-9738
▁Buddhism	-9739
▁formulated	-9740
▁statistics	-9741
▁significantly	-9742
▁Recommendation	-9743
HT	-9744
beh	-9745
▁Ib	-9746
▁Bri	-9747
▁Fig	-9748
▁Lol	-9749
▁Pip	-9750
▁Sidd	-9751
▁obsc	-9752
▁Emerg	-9753
▁fourt	-9754
▁immort	-9755
▁Asutosh	-9756
▁nearest	-9757
▁suspect	-9758
▁touched	-9759
▁contempl	-9760
▁connecting	-9761
iat	-9762
rypt	-9763
▁Rai	-9764
▁1967	-9765
▁Kore	-9766
▁NIOS	-9767
▁SHRI	-9768
usalem	-9769
▁Appro	-9770
▁Broad	-9771
▁parad	-9772
▁bamboo	-9773
▁dollar	-9774
▁Cricket	-9775
▁behavior	-9776
▁Jerusalem	-9777
▁Secondary	-9778
▁elephants	-9779
▁medicines	-9780
▁liabilities	-9781
CA	-9782
sar	-9783
uta	-9784
▁Yus	-9785
cetic	-9786
▁Hosp	-9787
▁gest	-9788
▁Tilak	-9789
▁cheap	-9790
▁smart	-9791
▁unexp	-9792
▁Almast	-9793
▁Friend	-9794
▁hunger	-9795
▁matches	-9796
▁monsoon	-9797
▁survive	-9798
▁acquaint	-9799
▁maturity	-9800
▁membrane	-9801
▁automatic	-9802
▁deposited	-9803
▁Revolution	-9804
▁Commonwealth	-9805
▁administrator	-9806
cel	-9807
erk	-9808
▁kh	-9809
▁Bre	-9810
▁Fre	-9811
▁Best	-9812
▁lord	-9813
resent	-9814
urable	-9815
▁Works	-9816
▁bliss	-9817
▁laugh	-9818
▁pharm	-9819
▁Follow	-9820
▁Mahade	-9821
▁decent	-9822
▁emerge	-9823
▁Banking	-9824
▁seconds	-9825
▁hospitals	-9826
▁recognise	-9827
▁conversation	-9828
▁professionals	-9829
▁96	-9830
▁BI	-9831
onds	-9832
▁VII	-9833
▁vel	-9834
utors	-9835
▁Fold	-9836
▁bell	-9837
▁drew	-9838
▁wake	-9839
▁David	-9840
icating	-9841
▁Lolita	-9842
▁solemn	-9843
▁Housing	-9844
▁cluster	-9845
▁sincere	-9846
▁disposed	-9847
▁linkages	-9848
▁elaborate	-9849
▁recovered	-9850
JEE	-9851
appa	-9852
▁Det	-9853
▁1979	-9854
▁Meet	-9855
▁agro	-9856
▁rear	-9857
▁guess	-9858
▁Prince	-9859
▁consec	-9860
aughters	-9861
▁Village	-9862
▁concepts	-9863
▁subjected	-9864
▁Regulatory	-9865
▁altogether	-9866
▁notwithstanding	-9867
osy	-9868
▁Bo	-9869
▁EN	-9870
ilee	-9871
▁SRI	-9872
▁SAYS	-9873
▁angry	-9874
▁enfor	-9875
▁mature	-9876
▁refuse	-9877
▁Conduct	-9878
▁allotted	-9879
▁diabetes	-9880
▁helpless	-9881
▁previously	-9882
▁Ru	-9883
aped	-9884
icts	-9885
▁cod	-9886
▁Line	-9887
▁oath	-9888
▁Yusuf	-9889
▁crack	-9890
▁embod	-9891
▁cancel	-9892
▁guided	-9893
▁timely	-9894
▁typical	-9895
▁Sections	-9896
▁watching	-9897
▁frequency	-9898
▁generating	-9899
▁legitimate	-9900
▁mechanisms	-9901
▁82	-9902
▁98	-9903
▁Tat	-9904
riers	-9905
▁Full	-9906
▁Pall	-9907
▁	-9908
e	-9909
t	-9910
a	-9911
o	-9912
i	-9913
n	-9914
s	-9915
r	-9916
h	-9917
l	-9918
d	-9919
c	-9920
u	-9921
m	-9922
f	-9923
p	-9924
g	-9925
y	-9926
w	-9927
b	-9928
.	-9929
v	-9930
,	-9931
k	-9932
I	-9933
T	-9934
A	-9935
S	-9936
C	-9937
;	-9938
-	-9939
&	-9940
1	-9941
P	-9942
x	-9943
M	-9944
R	-9945
B	-9946
0	-9947
E	-9948
D	-9949
H	-9950
j	-9951
N	-9952
2	-9953
)	-9954
(	-9955
G	-9956
q	-9957
O	-9958
L	-9959
9	-9960
W	-9961
F	-9962
3	-9963
5	-9964
z	-9965
:	-9966
4	-9967
U	-9968
K	-9969
8	-9970
6	-9971
J	-9972
7	-9973
/	-9974
V	-9975
”	-9976
Y	-9977
“	-9978
?	-9979
%	-9980
’	-9981
#	-9982
‘	-9983
!	-9984
Q	-9985
{	-9986
}	-9987
—	-9988
_	-9989
X	-9990
Z	-9991
*	-9992
–	-9993
$	-9994
्	-9995
=	-9996
