<unk>	0
<s>	0
</s>	0
▁t	-0
he	-1
▁a	-2
in	-3
▁the	-4
▁o	-5
re	-6
er	-7
on	-8
▁,	-9
▁s	-10
nd	-11
▁w	-12
at	-13
is	-14
▁.	-15
en	-16
it	-17
po	-18
▁of	-19
▁c	-20
ed	-21
al	-22
▁f	-23
▁b	-24
or	-25
an	-26
ar	-27
es	-28
▁in	-29
▁to	-30
ing	-31
▁and	-32
▁p	-33
▁h	-34
pos	-35
ou	-36
▁&	-37
ion	-38
▁m	-39
as	-40
▁d	-41
apos	-42
ic	-43
il	-44
▁th	-45
ent	-46
ro	-47
le	-48
▁T	-49
▁n	-50
▁re	-51
▁e	-52
▁A	-53
▁I	-54
▁be	-55
ve	-56
▁S	-57
st	-58
ot	-59
om	-60
ct	-61
▁g	-62
▁for	-63
ad	-64
▁l	-65
im	-66
▁that	-67
ation	-68
id	-69
am	-70
ut	-71
ly	-72
▁is	-73
▁on	-74
ver	-75
ce	-76
▁The	-77
se	-78
ist	-79
▁he	-80
ra	-81
ig	-82
▁de	-83
▁st	-84
ay	-85
ur	-86
▁y	-87
ll	-88
▁u	-89
ith	-90
ment	-91
ld	-92
ir	-93
ers	-94
▁B	-95
▁wh	-96
▁it	-97
▁P	-98
▁an	-99
▁with	-100
▁as	-101
▁C	-102
▁M	-103
et	-104
▁po	-105
ow	-106
▁con	-107
ill	-108
ri	-109
▁pro	-110
res	-111
▁we	-112
▁ha	-113
▁L	-114
ter	-115
us	-116
▁by	-117
▁was	-118
▁you	-119
her	-120
ain	-121
oc	-122
ial	-123
ate	-124
▁sh	-125
ak	-126
all	-127
▁U	-128
art	-129
ch	-130
pe	-131
▁W	-132
est	-133
ul	-134
▁has	-135
▁not	-136
qu	-137
▁wor	-138
and	-139
▁at	-140
▁r	-141
▁su	-142
▁G	-143
▁se	-144
▁go	-145
▁H	-146
▁have	-147
▁com	-148
em	-149
ht	-150
▁are	-151
ore	-152
ol	-153
▁F	-154
th	-155
ac	-156
▁his	-157
rom	-158
ge	-159
▁N	-160
▁J	-161
▁:	-162
op	-163
▁R	-164
▁E	-165
▁from	-166
rt	-167
ab	-168
ies	-169
ity	-170
if	-171
ess	-172
red	-173
▁1	-174
el	-175
ive	-176
▁ex	-177
▁D	-178
▁ne	-179
iv	-180
▁le	-181
ction	-182
▁v	-183
▁pol	-184
un	-185
▁ag	-186
ary	-187
ich	-188
▁al	-189
ast	-190
od	-191
ap	-192
nt	-193
▁will	-194
ight	-195
ould	-196
ant	-197
▁K	-198
▁all	-199
▁work	-200
▁And	-201
ud	-202
▁int	-203
vern	-204
▁or	-205
▁this	-206
um	-207
▁which	-208
ical	-209
▁they	-210
ian	-211
▁govern	-212
▁US	-213
▁ch	-214
▁their	-215
▁sa	-216
▁k	-217
ia	-218
port	-219
ass	-220
▁government	-221
▁O	-222
▁2	-223
▁me	-224
▁In	-225
▁were	-226
ther	-227
pl	-228
▁un	-229
▁its	-230
ous	-231
ard	-232
▁part	-233
▁cl	-234
00	-235
ust	-236
▁had	-237
ong	-238
ress	-239
▁shall	-240
▁pe	-241
▁-	-242
our	-243
▁pl	-244
▁op	-245
rou	-246
ions	-247
▁who	-248
▁out	-249
▁;	-250
▁Th	-251
▁fil	-252
ign	-253
▁im	-254
ag	-255
▁war	-256
▁said	-257
▁again	-258
▁been	-259
▁them	-260
ire	-261
ear	-262
▁j	-263
ated	-264
▁film	-265
ie	-266
▁off	-267
ber	-268
▁him	-269
out	-270
pt	-271
▁ab	-272
▁ad	-273
ack	-274
ations	-275
ru	-276
cc	-277
▁res	-278
ame	-279
ational	-280
cl	-281
ry	-282
inist	-283
ke	-284
mer	-285
quot	-286
hen	-287
▁cou	-288
ven	-289
ice	-290
▁polit	-291
gh	-292
▁up	-293
ople	-294
ran	-295
con	-296
ure	-297
ocial	-298
▁against	-299
ilit	-300
▁people	-301
▁cont	-302
os	-303
ime	-304
ord	-305
▁there	-306
ost	-307
▁man	-308
▁per	-309
▁but	-310
ence	-311
ren	-312
aj	-313
ition	-314
au	-315
▁over	-316
▁)	-317
ish	-318
▁(	-319
av	-320
▁sup	-321
ade	-322
ism	-323
fe	-324
▁do	-325
ome	-326
ub	-327
ip	-328
so	-329
▁would	-330
tern	-331
▁dem	-332
du	-333
▁so	-334
▁your	-335
▁V	-336
▁one	-337
▁political	-338
ake	-339
cent	-340
▁milit	-341
▁Ch	-342
▁no	-343
ine	-344
ide	-345
▁year	-346
ace	-347
▁Is	-348
ens	-349
▁att	-350
ank	-351
fter	-352
one	-353
▁also	-354
ite	-355
ath	-356
ep	-357
▁dis	-358
▁into	-359
nder	-360
ident	-361
ces	-362
▁LO	-363
▁It	-364
RD	-365
▁LORD	-366
▁ar	-367
lic	-368
ance	-369
▁19	-370
▁more	-371
▁any	-372
ib	-373
reat	-374
rat	-375
ree	-376
▁pre	-377
ush	-378
raq	-379
te	-380
▁other	-381
▁He	-382
▁military	-383
▁my	-384
▁Iraq	-385
▁cr	-386
ctor	-387
▁social	-388
man	-389
we	-390
cre	-391
ok	-392
▁ele	-393
▁count	-394
▁reg	-395
ose	-396
age	-397
▁only	-398
▁co	-399
ob	-400
▁state	-401
▁new	-402
▁day	-403
amil	-404
▁tw	-405
ase	-406
▁comp	-407
iz	-408
ans	-409
ced	-410
cted	-411
▁ap	-412
▁As	-413
▁right	-414
very	-415
▁am	-416
conom	-417
sel	-418
▁pres	-419
▁ind	-420
▁bec	-421
ff	-422
hed	-423
▁St	-424
▁under	-425
▁?	-426
ons	-427
fore	-428
ts	-429
▁her	-430
▁comm	-431
ile	-432
own	-433
▁en	-434
rael	-435
▁pos	-436
▁lead	-437
ted	-438
ah	-439
ue	-440
ove	-441
▁Israel	-442
ates	-443
▁ro	-444
wn	-445
und	-446
ind	-447
▁econom	-448
amp	-449
▁200	-450
ration	-451
meric	-452
▁when	-453
ious	-454
▁after	-455
ild	-456
▁about	-457
▁ser	-458
▁support	-459
ings	-460
▁workers	-461
▁Ind	-462
▁Un	-463
▁dire	-464
uro	-465
▁fa	-466
▁Americ	-467
ek	-468
▁inv	-469
ark	-470
▁us	-471
▁Part	-472
are	-473
▁li	-474
▁working	-475
ash	-476
▁percent	-477
▁say	-478
▁can	-479
▁This	-480
▁spe	-481
▁two	-482
ternational	-483
ocrat	-484
ise	-485
urn	-486
▁Wh	-487
▁made	-488
▁acc	-489
▁cap	-490
▁than	-491
ew	-492
ublic	-493
oy	-494
▁class	-495
▁pr	-496
▁Party	-497
ution	-498
ory	-499
▁call	-500
ited	-501
per	-502
rit	-503
able	-504
▁But	-505
▁bet	-506
ult	-507
li	-508
▁even	-509
▁Euro	-510
▁oppos	-511
ound	-512
▁she	-513
▁fir	-514
ause	-515
▁Europe	-516
gan	-517
▁Bush	-518
ctions	-519
ital	-520
ai	-521
cy	-522
ght	-523
ally	-524
▁inte	-525
ied	-526
▁Se	-527
▁act	-528
og	-529
cial	-530
▁pow	-531
for	-532
▁these	-533
▁adm	-534
clud	-535
day	-536
old	-537
▁Y	-538
▁On	-539
ft	-540
ved	-541
here	-542
▁now	-543
▁world	-544
aw	-545
▁time	-546
▁bl	-547
▁ter	-548
ang	-549
▁sc	-550
rest	-551
▁3	-552
vel	-553
ments	-554
ict	-555
▁Tamil	-556
▁years	-557
med	-558
ouse	-559
ince	-560
istan	-561
ram	-562
▁dec	-563
▁God	-564
▁produ	-565
ood	-566
▁offic	-567
ared	-568
▁last	-569
▁such	-570
▁fin	-571
▁hand	-572
ased	-573
ward	-574
▁prov	-575
▁tr	-576
tain	-577
▁ass	-578
up	-579
▁polic	-580
▁before	-581
▁qu	-582
▁cons	-583
▁report	-584
vent	-585
▁first	-586
ocratic	-587
rough	-588
▁being	-589
illion	-590
oth	-591
▁te	-592
▁conf	-593
read	-594
▁country	-595
▁For	-596
▁American	-597
ather	-598
▁administ	-599
▁mon	-600
ach	-601
ton	-602
▁camp	-603
▁attack	-604
ween	-605
▁kn	-606
▁if	-607
inister	-608
▁We	-609
▁like	-610
▁ra	-611
▁economic	-612
row	-613
ors	-614
eral	-615
ail	-616
▁between	-617
▁end	-618
▁includ	-619
▁through	-620
▁some	-621
▁Sh	-622
rib	-623
ning	-624
▁could	-625
▁did	-626
led	-627
▁Ger	-628
▁ent	-629
▁rem	-630
▁administration	-631
ms	-632
ajor	-633
▁decl	-634
▁international	-635
000	-636
▁Le	-637
press	-638
oun	-639
▁own	-640
▁came	-641
▁back	-642
cess	-643
▁des	-644
▁our	-645
,000	-646
je	-647
▁German	-648
▁est	-649
lear	-650
self	-651
gg	-652
▁major	-653
pul	-654
▁vot	-655
▁bro	-656
oll	-657
ised	-658
▁capital	-659
uss	-660
ever	-661
▁sub	-662
▁because	-663
les	-664
ities	-665
other	-666
▁how	-667
▁mass	-668
igh	-669
▁most	-670
▁what	-671
▁just	-672
ures	-673
▁rel	-674
ort	-675
uring	-676
aim	-677
▁fe	-678
uth	-679
▁down	-680
▁pri	-681
▁should	-682
▁come	-683
ond	-684
get	-685
▁party	-686
▁many	-687
▁&#	-688
▁&#9	-689
▁those	-690
▁every	-691
▁contin	-692
▁public	-693
▁ref	-694
ged	-695
ploy	-696
ating	-697
act	-698
▁em	-699
ents	-700
▁sp	-701
▁make	-702
ives	-703
▁well	-704
▁Sri	-705
▁set	-706
TE	-707
▁month	-708
ness	-709
▁official	-710
ists	-711
hip	-712
ck	-713
▁incre	-714
way	-715
▁place	-716
▁where	-717
▁resp	-718
TTE	-719
ands	-720
▁sign	-721
▁child	-722
ording	-723
▁popul	-724
▁house	-725
round	-726
omm	-727
▁An	-728
▁There	-729
▁power	-730
iss	-731
ount	-732
cer	-733
▁mem	-734
▁LTTE	-735
▁prog	-736
▁king	-737
▁ins	-738
▁national	-739
▁4	-740
ron	-741
cur	-742
int	-743
▁pers	-744
▁br	-745
ror	-746
▁gen	-747
▁rep	-748
az	-749
▁inter	-750
imes	-751
▁opposition	-752
ves	-753
ative	-754
▁police	-755
▁gl	-756
▁press	-757
omb	-758
ants	-759
ility	-760
▁bu	-761
aking	-762
ament	-763
▁great	-764
▁interest	-765
▁take	-766
▁Lank	-767
ned	-768
aign	-769
als	-770
der	-771
ave	-772
▁election	-773
▁med	-774
vers	-775
▁spo	-776
pect	-777
▁president	-778
ater	-779
▁Social	-780
▁De	-781
▁sy	-782
ific	-783
uch	-784
ashing	-785
olution	-786
▁Af	-787
▁stri	-788
▁rul	-789
iet	-790
▁Raj	-791
ible	-792
ral	-793
▁Dem	-794
▁stru	-795
ty	-796
▁prot	-797
▁char	-798
abl	-799
▁They	-800
air	-801
▁way	-802
▁organ	-803
▁Chin	-804
▁rec	-805
▁campaign	-806
ick	-807
▁European	-808
▁cris	-809
▁then	-810
▁partic	-811
▁def	-812
ti	-813
ollow	-814
▁son	-815
▁week	-816
▁serv	-817
▁nor	-818
arly	-819
▁car	-820
▁/	-821
▁5	-822
▁ob	-823
▁Fran	-824
curity	-825
▁ac	-826
ting	-827
▁Be	-828
ife	-829
▁law	-830
▁claim	-831
ock	-832
▁same	-833
▁str	-834
▁long	-835
pend	-836
▁crisis	-837
ashington	-838
ful	-839
▁fore	-840
▁Washington	-841
ph	-842
▁num	-843
▁cor	-844
ug	-845
▁expl	-846
▁el	-847
ik	-848
▁!	-849
alk	-850
ians	-851
▁iss	-852
ision	-853
▁leaders	-854
▁children	-855
▁may	-856
▁land	-857
▁India	-858
▁forces	-859
▁So	-860
ries	-861
▁ret	-862
▁days	-863
ble	-864
▁protest	-865
▁put	-866
rem	-867
▁including	-868
uc	-869
itions	-870
xt	-871
▁move	-872
stit	-873
▁program	-874
ues	-875
rent	-876
▁told	-877
▁took	-878
▁both	-879
▁films	-880
arli	-881
▁lar	-882
▁role	-883
form	-884
▁far	-885
▁lo	-886
▁Re	-887
▁Brit	-888
▁cond	-889
▁United	-890
its	-891
▁At	-892
▁three	-893
▁terror	-894
▁meet	-895
▁rele	-896
ork	-897
▁among	-898
▁kill	-899
ined	-900
ough	-901
ink	-902
gy	-903
▁disc	-904
▁ann	-905
end	-906
▁went	-907
bers	-908
▁Z	-909
▁called	-910
▁$	-911
▁sou	-912
rench	-913
ered	-914
▁parties	-915
▁head	-916
▁mark	-917
▁appe	-918
▁turn	-919
empt	-920
▁cent	-921
▁establ	-922
▁threat	-923
▁sm	-924
▁Al	-925
▁app	-926
ric	-927
▁Comm	-928
ued	-929
cept	-930
▁fl	-931
▁left	-932
▁French	-933
▁saying	-934
▁bas	-935
▁199	-936
ars	-937
▁since	-938
ering	-939
▁dest	-940
▁cut	-941
▁giv	-942
▁rights	-943
▁ext	-944
▁Iran	-945
▁pass	-946
▁tra	-947
▁know	-948
▁men	-949
ne	-950
▁policy	-951
▁strugg	-952
▁main	-953
▁add	-954
▁must	-955
▁ev	-956
▁occ	-957
roup	-958
velop	-959
▁sl	-960
cret	-961
▁cur	-962
▁hero	-963
▁bus	-964
▁follow	-965
▁UN	-966
stem	-967
▁high	-968
tle	-969
ality	-970
ancial	-971
resident	-972
akistan	-973
aken	-974
ops	-975
▁beh	-976
ished	-977
ready	-978
▁adv	-979
▁open	-980
▁another	-981
ried	-982
▁system	-983
▁ke	-984
iness	-985
▁Socialist	-986
any	-987
ivil	-988
▁fight	-989
▁media	-990
▁rest	-991
▁Ab	-992
▁let	-993
hes	-994
oot	-995
▁Pakistan	-996
pr	-997
arch	-998
ither	-999
▁leg	-1000
▁tro	-1001
▁anti	-1002
▁bel	-1003
oh	-1004
onst	-1005
▁dif	-1006
▁inde	-1007
pp	-1008
▁President	-1009
rans	-1010
▁very	-1011
▁sent	-1012
▁director	-1013
ya	-1014
iew	-1015
ffe	-1016
ving	-1017
▁develop	-1018
▁good	-1019
▁within	-1020
▁get	-1021
ual	-1022
▁stand	-1023
▁already	-1024
▁New	-1025
▁ruling	-1026
ij	-1027
▁clear	-1028
ided	-1029
▁6	-1030
ices	-1031
▁without	-1032
▁defe	-1033
▁while	-1034
ger	-1035
ics	-1036
▁rev	-1037
▁million	-1038
▁interests	-1039
▁sur	-1040
▁bo	-1041
▁inc	-1042
▁see	-1043
▁civil	-1044
▁need	-1045
▁prom	-1046
▁father	-1047
idd	-1048
▁grow	-1049
▁demonst	-1050
▁poss	-1051
▁word	-1052
▁After	-1053
▁city	-1054
ense	-1055
▁countries	-1056
ene	-1057
▁invest	-1058
▁group	-1059
▁Minister	-1060
used	-1061
▁France	-1062
▁Afgh	-1063
▁If	-1064
▁plan	-1065
arat	-1066
ief	-1067
▁found	-1068
▁imp	-1069
ject	-1070
▁China	-1071
▁Union	-1072
ency	-1073
▁Afghan	-1074
▁fur	-1075
▁troops	-1076
▁foreign	-1077
ages	-1078
▁contro	-1079
▁concer	-1080
▁peace	-1081
omin	-1082
less	-1083
▁financial	-1084
▁given	-1085
▁trans	-1086
feren	-1087
▁declared	-1088
▁Am	-1089
▁inf	-1090
▁form	-1091
alth	-1092
▁former	-1093
▁recent	-1094
posed	-1095
▁job	-1096
▁How	-1097
▁bank	-1098
▁demand	-1099
▁art	-1100
▁number	-1101
ull	-1102
por	-1103
▁Indian	-1104
▁members	-1105
▁thous	-1106
▁democratic	-1107
▁meas	-1108
▁col	-1109
▁security	-1110
▁arm	-1111
▁stud	-1112
▁market	-1113
ising	-1114
▁present	-1115
▁region	-1116
▁order	-1117
▁prof	-1118
▁dist	-1119
eration	-1120
▁ed	-1121
▁fund	-1122
ng	-1123
ese	-1124
▁When	-1125
▁name	-1126
▁regime	-1127
▁attempt	-1128
▁Ar	-1129
▁pur	-1130
▁announ	-1131
▁minister	-1132
▁famil	-1133
▁jo	-1134
▁rece	-1135
ines	-1136
▁death	-1137
▁struggle	-1138
iate	-1139
▁sit	-1140
▁Then	-1141
▁glob	-1142
perial	-1143
mber	-1144
iol	-1145
▁further	-1146
outh	-1147
ner	-1148
hing	-1149
▁oil	-1150
arliament	-1151
▁give	-1152
rought	-1153
▁quest	-1154
▁repres	-1155
cond	-1156
▁SE	-1157
▁Russ	-1158
▁return	-1159
isation	-1160
▁establish	-1161
▁Acc	-1162
▁trade	-1163
ute	-1164
▁cand	-1165
▁action	-1166
▁priv	-1167
▁union	-1168
▁gu	-1169
▁population	-1170
▁past	-1171
ala	-1172
▁direct	-1173
▁much	-1174
▁Pr	-1175
iddle	-1176
▁All	-1177
aring	-1178
▁hist	-1179
▁crit	-1180
▁business	-1181
▁bre	-1182
▁fac	-1183
▁show	-1184
ened	-1185
ived	-1186
▁Lanka	-1187
▁20	-1188
▁Democratic	-1189
▁7	-1190
ira	-1191
▁away	-1192
▁pra	-1193
▁taken	-1194
▁life	-1195
▁She	-1196
undred	-1197
ained	-1198
ani	-1199
▁movement	-1200
ix	-1201
▁SEP	-1202
ama	-1203
▁next	-1204
▁fact	-1205
▁brought	-1206
▁requ	-1207
ically	-1208
▁invol	-1209
▁occup	-1210
▁talk	-1211
hi	-1212
▁person	-1213
▁seek	-1214
▁build	-1215
▁does	-1216
▁ce	-1217
▁candid	-1218
ront	-1219
▁conditions	-1220
▁prep	-1221
ois	-1222
1;	-1223
▁Nor	-1224
▁&#91;	-1225
▁however	-1226
▁parliament	-1227
3;	-1228
▁&#93;	-1229
▁attacks	-1230
▁Afghanistan	-1231
asing	-1232
▁used	-1233
iving	-1234
▁fail	-1235
▁Col	-1236
▁inst	-1237
ized	-1238
▁10	-1239
▁four	-1240
▁strike	-1241
▁imperial	-1242
uthor	-1243
▁According	-1244
ss	-1245
▁East	-1246
▁global	-1247
▁policies	-1248
lt	-1249
▁comple	-1250
lled	-1251
uman	-1252
▁billion	-1253
▁play	-1254
▁cre	-1255
▁agree	-1256
▁large	-1257
▁Rep	-1258
▁held	-1259
▁commun	-1260
▁la	-1261
wing	-1262
▁deb	-1263
selves	-1264
vious	-1265
▁Iraqi	-1266
▁employ	-1267
iah	-1268
reed	-1269
▁vote	-1270
▁news	-1271
of	-1272
▁While	-1273
orld	-1274
ax	-1275
▁story	-1276
ites	-1277
▁States	-1278
▁itself	-1279
▁Now	-1280
gt	-1281
arth	-1282
▁Je	-1283
ember	-1284
▁Cong	-1285
▁command	-1286
ural	-1287
cretary	-1288
land	-1289
▁start	-1290
▁toward	-1291
▁want	-1292
▁ask	-1293
▁viol	-1294
imin	-1295
▁beg	-1296
▁hundred	-1297
▁min	-1298
▁That	-1299
leg	-1300
racy	-1301
▁bring	-1302
▁Germany	-1303
ified	-1304
▁during	-1305
▁still	-1306
▁loc	-1307
ured	-1308
▁control	-1309
▁officials	-1310
▁Pal	-1311
▁express	-1312
ten	-1313
▁host	-1314
▁bomb	-1315
▁World	-1316
ention	-1317
ify	-1318
▁aim	-1319
▁sim	-1320
▁commit	-1321
▁particul	-1322
▁..	-1323
▁things	-1324
▁pay	-1325
▁International	-1326
▁elections	-1327
▁import	-1328
ourge	-1329
ins	-1330
kes	-1331
▁Dav	-1332
uation	-1333
ourgeois	-1334
▁independ	-1335
alf	-1336
▁months	-1337
oz	-1338
▁ri	-1339
▁use	-1340
▁shoot	-1341
▁ru	-1342
▁sold	-1343
▁Congress	-1344
▁coll	-1345
▁indust	-1346
▁met	-1347
▁respons	-1348
ference	-1349
▁8	-1350
▁meeting	-1351
ung	-1352
ipl	-1353
gress	-1354
ale	-1355
▁den	-1356
▁case	-1357
▁dep	-1358
▁unions	-1359
▁face	-1360
cing	-1361
ann	-1362
ped	-1363
▁real	-1364
▁economy	-1365
cil	-1366
▁proble	-1367
▁represent	-1368
▁May	-1369
▁deal	-1370
▁less	-1371
▁big	-1372
ield	-1373
▁done	-1374
▁weap	-1375
ched	-1376
▁British	-1377
▁bourgeois	-1378
ange	-1379
ison	-1380
▁jud	-1381
▁coun	-1382
▁leader	-1383
▁socialist	-1384
▁current	-1385
▁powers	-1386
▁David	-1387
▁emer	-1388
erv	-1389
ards	-1390
▁brother	-1391
▁according	-1392
ides	-1393
▁es	-1394
▁army	-1395
ier	-1396
veral	-1397
▁Republic	-1398
mediate	-1399
ission	-1400
▁author	-1401
▁Mos	-1402
ior	-1403
han	-1404
▁might	-1405
▁around	-1406
uge	-1407
abor	-1408
har	-1409
inc	-1410
▁means	-1411
▁elite	-1412
▁Palest	-1413
▁conflic	-1414
▁become	-1415
▁post	-1416
▁killed	-1417
rab	-1418
iers	-1419
ross	-1420
▁These	-1421
ades	-1422
▁...	-1423
▁himself	-1424
orn	-1425
▁dra	-1426
▁measures	-1427
ool	-1428
▁Ge	-1429
stitution	-1430
▁reported	-1431
abour	-1432
ruction	-1433
oss	-1434
▁Jer	-1435
▁court	-1436
▁Li	-1437
ily	-1438
▁discuss	-1439
▁five	-1440
▁Times	-1441
▁Jan	-1442
reet	-1443
▁One	-1444
▁few	-1445
ential	-1446
▁National	-1447
ury	-1448
▁Pro	-1449
▁old	-1450
▁allow	-1451
▁oper	-1452
▁result	-1453
▁process	-1454
▁young	-1455
hold	-1456
▁small	-1457
iance	-1458
uclear	-1459
▁living	-1460
▁immediate	-1461
▁gave	-1462
▁dri	-1463
onse	-1464
▁read	-1465
eb	-1466
lin	-1467
aran	-1468
▁deep	-1469
▁neg	-1470
idence	-1471
▁fall	-1472
ird	-1473
▁coal	-1474
▁force	-1475
ient	-1476
▁strate	-1477
▁Ob	-1478
▁imm	-1479
▁decision	-1480
▁fire	-1481
▁Palestin	-1482
▁capitalist	-1483
oice	-1484
▁mar	-1485
▁eff	-1486
▁writ	-1487
▁themselves	-1488
▁second	-1489
▁hel	-1490
▁close	-1491
▁look	-1492
▁question	-1493
ev	-1494
ges	-1495
quality	-1496
ini	-1497
▁event	-1498
▁EU	-1499
▁sw	-1500
▁general	-1501
▁15	-1502
▁weapons	-1503
▁particip	-1504
aff	-1505
▁air	-1506
nding	-1507
na	-1508
▁nuclear	-1509
akes	-1510
▁appro	-1511
▁fear	-1512
▁vis	-1513
▁entire	-1514
rupt	-1515
▁remain	-1516
urd	-1517
▁run	-1518
▁shooting	-1519
▁You	-1520
▁accept	-1521
▁Israeli	-1522
▁fun	-1523
▁jobs	-1524
▁announced	-1525
lect	-1526
▁ever	-1527
▁least	-1528
▁situation	-1529
▁too	-1530
▁bord	-1531
▁ph	-1532
apak	-1533
▁yet	-1534
▁majority	-1535
▁Sept	-1536
▁lit	-1537
ctors	-1538
gether	-1539
▁together	-1540
▁prop	-1541
ivers	-1542
ffect	-1543
▁speak	-1544
▁Rajapak	-1545
▁nothing	-1546
ired	-1547
▁happ	-1548
▁based	-1549
▁released	-1550
▁Rajapakse	-1551
▁wom	-1552
▁With	-1553
▁human	-1554
▁mount	-1555
alled	-1556
▁What	-1557
▁cann	-1558
▁broad	-1559
▁led	-1560
▁sons	-1561
▁heart	-1562
ov	-1563
▁full	-1564
▁thousands	-1565
oci	-1566
▁Bl	-1567
▁unt	-1568
ha	-1569
oney	-1570
usal	-1571
osp	-1572
▁belie	-1573
ening	-1574
▁South	-1575
▁earth	-1576
▁September	-1577
▁directed	-1578
▁9	-1579
tee	-1580
▁ans	-1581
▁vict	-1582
▁spoke	-1583
▁position	-1584
ually	-1585
▁Stal	-1586
▁Con	-1587
▁coalition	-1588
ky	-1589
▁Lankan	-1590
▁signific	-1591
▁Vij	-1592
roy	-1593
▁War	-1594
▁going	-1595
uk	-1596
▁infl	-1597
▁Mar	-1598
▁free	-1599
ony	-1600
rial	-1601
▁div	-1602
ought	-1603
▁Since	-1604
▁charact	-1605
ibility	-1606
▁several	-1607
▁ho	-1608
▁plans	-1609
▁Colomb	-1610
rist	-1611
ccess	-1612
▁governments	-1613
udi	-1614
▁Jud	-1615
▁dev	-1616
cut	-1617
▁To	-1618
▁Aust	-1619
gypt	-1620
▁Egypt	-1621
▁cannot	-1622
pective	-1623
term	-1624
▁Vijay	-1625
thern	-1626
▁company	-1627
▁exp	-1628
▁whose	-1629
ys	-1630
▁Even	-1631
▁chief	-1632
▁artic	-1633
▁water	-1634
▁increasing	-1635
over	-1636
▁indic	-1637
▁previous	-1638
▁leadership	-1639
▁statement	-1640
▁lay	-1641
▁seen	-1642
▁occupation	-1643
▁rea	-1644
▁states	-1645
▁11	-1646
▁low	-1647
▁able	-1648
ize	-1649
▁point	-1650
itor	-1651
▁issue	-1652
▁Pol	-1653
▁destroy	-1654
▁following	-1655
▁therefore	-1656
▁Geor	-1657
▁Chen	-1658
▁Sin	-1659
▁reas	-1660
▁top	-1661
to	-1662
▁Sark	-1663
ertain	-1664
▁cost	-1665
▁Kum	-1666
▁fig	-1667
atives	-1668
ises	-1669
ozy	-1670
▁Gre	-1671
▁basis	-1672
▁che	-1673
▁North	-1674
▁relations	-1675
▁Lord	-1676
unist	-1677
▁near	-1678
▁Sarkozy	-1679
▁agreement	-1680
ana	-1681
▁Jes	-1682
▁saw	-1683
aul	-1684
ining	-1685
▁Obama	-1686
ple	-1687
▁SP	-1688
▁ur	-1689
mit	-1690
▁whom	-1691
▁198	-1692
imate	-1693
▁Sp	-1694
▁hold	-1695
ization	-1696
▁growing	-1697
▁gra	-1698
stand	-1699
▁character	-1700
war	-1701
▁America	-1702
▁received	-1703
▁success	-1704
ech	-1705
▁level	-1706
▁politics	-1707
hu	-1708
ober	-1709
▁priest	-1710
▁revolution	-1711
inted	-1712
VP	-1713
▁cast	-1714
▁possible	-1715
chool	-1716
▁tens	-1717
▁negot	-1718
llig	-1719
▁sep	-1720
▁find	-1721
▁local	-1722
▁Austral	-1723
ban	-1724
▁words	-1725
aper	-1726
▁Man	-1727
ead	-1728
pite	-1729
▁Cent	-1730
▁office	-1731
▁money	-1732
▁strong	-1733
▁demonstr	-1734
une	-1735
iety	-1736
▁Britain	-1737
▁neither	-1738
▁popular	-1739
lam	-1740
▁His	-1741
ably	-1742
▁forth	-1743
▁whe	-1744
aged	-1745
pril	-1746
▁until	-1747
ern	-1748
ply	-1749
▁half	-1750
▁blood	-1751
▁talks	-1752
▁important	-1753
▁30	-1754
▁ey	-1755
▁why	-1756
▁corpor	-1757
▁release	-1758
▁establishment	-1759
uary	-1760
ences	-1761
▁six	-1762
▁sum	-1763
▁care	-1764
anth	-1765
▁whole	-1766
vention	-1767
▁Colombo	-1768
▁soldiers	-1769
▁ord	-1770
▁April	-1771
▁making	-1772
▁throughout	-1773
gest	-1774
▁necess	-1775
▁Mal	-1776
usic	-1777
▁Prime	-1778
▁Bh	-1779
▁mor	-1780
▁pressure	-1781
▁Pe	-1782
mb	-1783
▁vill	-1784
▁critic	-1785
asion	-1786
usalem	-1787
▁Jerusalem	-1788
ours	-1789
▁increase	-1790
att	-1791
▁areas	-1792
ases	-1793
▁break	-1794
▁JVP	-1795
▁consid	-1796
▁leading	-1797
ats	-1798
ling	-1799
▁song	-1800
▁began	-1801
▁init	-1802
▁exper	-1803
▁Asia	-1804
▁concern	-1805
▁prevent	-1806
▁presidential	-1807
ourn	-1808
▁offer	-1809
▁independent	-1810
▁clos	-1811
▁aff	-1812
▁keep	-1813
istance	-1814
ait	-1815
▁12	-1816
▁ve	-1817
▁dead	-1818
▁never	-1819
▁Christ	-1820
▁However	-1821
atter	-1822
▁House	-1823
illions	-1824
▁tar	-1825
▁certain	-1826
▁Par	-1827
▁acting	-1828
▁serious	-1829
▁home	-1830
employ	-1831
▁asked	-1832
▁Russia	-1833
▁defend	-1834
ken	-1835
▁conflict	-1836
▁continued	-1837
▁effect	-1838
▁del	-1839
▁function	-1840
auc	-1841
▁lim	-1842
▁Mon	-1843
▁Sinh	-1844
aid	-1845
amb	-1846
ocracy	-1847
▁don	-1848
▁family	-1849
aron	-1850
▁thereof	-1851
▁Gen	-1852
els	-1853
▁domin	-1854
ones	-1855
▁Jesus	-1856
▁val	-1857
ination	-1858
▁complete	-1859
▁response	-1860
▁yes	-1861
▁round	-1862
sequ	-1863
▁hands	-1864
▁insist	-1865
yl	-1866
apan	-1867
plic	-1868
▁fut	-1869
▁cuts	-1870
ham	-1871
reme	-1872
▁heard	-1873
rad	-1874
▁stren	-1875
▁carried	-1876
▁school	-1877
▁protests	-1878
▁negoti	-1879
lligence	-1880
ensive	-1881
ovember	-1882
▁demands	-1883
▁capitalism	-1884
pose	-1885
▁soc	-1886
▁along	-1887
▁production	-1888
▁bud	-1889
▁Left	-1890
▁here	-1891
▁think	-1892
▁plac	-1893
▁area	-1894
▁Islam	-1895
▁November	-1896
▁groups	-1897
▁development	-1898
gency	-1899
▁offering	-1900
ract	-1901
▁others	-1902
▁prison	-1903
▁known	-1904
cul	-1905
▁help	-1906
▁Moses	-1907
ees	-1908
lim	-1909
▁Gu	-1910
ceed	-1911
side	-1912
▁comment	-1913
fic	-1914
▁candidate	-1915
raf	-1916
▁arrest	-1917
ourse	-1918
▁turned	-1919
▁perspective	-1920
▁tax	-1921
ources	-1922
▁border	-1923
▁private	-1924
▁No	-1925
ferent	-1926
ored	-1927
ring	-1928
▁aut	-1929
▁san	-1930
araj	-1931
▁Ass	-1932
▁Japan	-1933
▁Democrat	-1934
iod	-1935
ray	-1936
▁ago	-1937
▁tem	-1938
crib	-1939
▁begin	-1940
▁health	-1941
▁Communist	-1942
com	-1943
ively	-1944
▁fundament	-1945
lf	-1946
uly	-1947
▁dou	-1948
▁More	-1949
▁Judah	-1950
▁short	-1951
▁laun	-1952
▁newsp	-1953
▁princ	-1954
▁constitution	-1955
go	-1956
▁budget	-1957
▁period	-1958
▁er	-1959
▁little	-1960
▁view	-1961
▁av	-1962
aven	-1963
▁future	-1964
▁member	-1965
▁youth	-1966
olog	-1967
▁tot	-1968
pected	-1969
▁field	-1970
▁regard	-1971
gic	-1972
▁trib	-1973
▁tre	-1974
▁side	-1975
▁imperialism	-1976
▁dau	-1977
ody	-1978
ruct	-1979
▁provide	-1980
▁society	-1981
ler	-1982
nam	-1983
▁Kar	-1984
ators	-1985
▁cities	-1986
adh	-1987
▁Tr	-1988
▁cir	-1989
▁hard	-1990
▁Sch	-1991
▁unemploy	-1992
itional	-1993
▁mod	-1994
▁SPD	-1995
rying	-1996
omet	-1997
▁armed	-1998
▁ground	-1999
ell	-2000
▁March	-2001
▁mo	-2002
▁tit	-2003
▁dr	-2004
ari	-2005
▁step	-2006
▁history	-2007
▁students	-2008
▁got	-2009
▁thing	-2010
het	-2011
men	-2012
aled	-2013
▁age	-2014
▁course	-2015
▁Oct	-2016
▁Ram	-2017
▁und	-2018
▁early	-2019
▁behind	-2020
▁Me	-2021
view	-2022
▁equ	-2023
▁redu	-2024
▁whether	-2025
▁different	-2026
▁problems	-2027
yri	-2028
▁Tro	-2029
▁det	-2030
▁opposed	-2031
▁won	-2032
▁Bank	-2033
▁list	-2034
▁Middle	-2035
af	-2036
nai	-2037
ude	-2038
▁exe	-2039
hil	-2040
riend	-2041
▁weeks	-2042
▁25	-2043
▁eat	-2044
▁Blair	-2045
uslim	-2046
▁poor	-2047
▁sing	-2048
adu	-2049
rant	-2050
me	-2051
▁immig	-2052
▁wife	-2053
▁bure	-2054
aster	-2055
▁chang	-2056
▁prote	-2057
▁maintain	-2058
▁produced	-2059
▁Secretary	-2060
cies	-2061
▁July	-2062
▁deli	-2063
▁compan	-2064
▁esc	-2065
▁banks	-2066
▁January	-2067
▁line	-2068
▁197	-2069
▁port	-2070
▁involved	-2071
▁nat	-2072
▁Afric	-2073
▁behold	-2074
▁sought	-2075
▁Sinhala	-2076
▁Sam	-2077
▁comb	-2078
called	-2079
▁music	-2080
ging	-2081
▁withd	-2082
gu	-2083
atic	-2084
▁bureauc	-2085
▁reaction	-2086
▁bene	-2087
▁dang	-2088
tsky	-2089
▁due	-2090
▁change	-2091
▁target	-2092
pression	-2093
▁October	-2094
▁significant	-2095
val	-2096
▁particularly	-2097
ots	-2098
▁activ	-2099
▁third	-2100
rict	-2101
▁liber	-2102
ournal	-2103
▁histor	-2104
ubl	-2105
▁fav	-2106
inent	-2107
▁collap	-2108
▁sections	-2109
▁exist	-2110
▁seven	-2111
▁reb	-2112
▁tru	-2113
▁General	-2114
▁best	-2115
ability	-2116
The	-2117
▁tele	-2118
▁continue	-2119
uel	-2120
▁pat	-2121
▁says	-2122
▁aid	-2123
▁eng	-2124
▁Trotsky	-2125
▁Ad	-2126
▁York	-2127
▁fell	-2128
▁love	-2129
▁agreed	-2130
▁bur	-2131
sc	-2132
iqu	-2133
▁ca	-2134
▁cover	-2135
▁Sund	-2136
▁repe	-2137
▁middle	-2138
▁conference	-2139
ott	-2140
irac	-2141
▁night	-2142
ator	-2143
▁sal	-2144
dom	-2145
ying	-2146
▁publ	-2147
ience	-2148
▁condu	-2149
▁special	-2150
WS	-2151
orts	-2152
work	-2153
▁poll	-2154
▁companies	-2155
▁violence	-2156
igned	-2157
thing	-2158
▁Chennai	-2159
▁18	-2160
ances	-2161
▁evidence	-2162
▁stat	-2163
▁having	-2164
▁investig	-2165
▁influ	-2166
▁article	-2167
▁decided	-2168
▁destruction	-2169
▁Ber	-2170
▁live	-2171
▁forced	-2172
formation	-2173
▁Palestinian	-2174
▁WS	-2175
▁light	-2176
▁intelligence	-2177
ains	-2178
amal	-2179
ghter	-2180
▁became	-2181
▁aggress	-2182
ederal	-2183
viet	-2184
▁par	-2185
▁Muslim	-2186
▁claimed	-2187
▁emb	-2188
▁legal	-2189
▁Feb	-2190
▁Coun	-2191
▁const	-2192
▁reason	-2193
▁heroine	-2194
JP	-2195
▁dwe	-2196
▁lost	-2197
▁Soviet	-2198
▁claims	-2199
▁invasion	-2200
▁Siv	-2201
▁disp	-2202
▁later	-2203
▁Te	-2204
cember	-2205
▁wealth	-2206
agh	-2207
▁Sen	-2208
▁rule	-2209
▁responsible	-2210
line	-2211
terday	-2212
▁factor	-2213
▁record	-2214
▁taking	-2215
▁Chinese	-2216
▁Per	-2217
▁West	-2218
ospital	-2219
▁var	-2220
▁WSWS	-2221
▁minist	-2222
▁stop	-2223
▁trad	-2224
▁rather	-2225
▁each	-2226
▁educ	-2227
▁December	-2228
▁wr	-2229
▁Arab	-2230
▁massive	-2231
ilar	-2232
▁June	-2233
ee	-2234
▁Stalinist	-2235
raw	-2236
▁bar	-2237
▁plant	-2238
▁friend	-2239
▁actions	-2240
▁service	-2241
▁PS	-2242
▁central	-2243
year	-2244
▁hit	-2245
▁Chirac	-2246
▁Council	-2247
▁Tur	-2248
utions	-2249
▁State	-2250
▁coming	-2251
▁terrorism	-2252
aving	-2253
▁cred	-2254
▁propos	-2255
avan	-2256
▁voice	-2257
▁supporters	-2258
▁today	-2259
▁Ma	-2260
cont	-2261
▁purs	-2262
▁building	-2263
ali	-2264
arm	-2265
▁wat	-2266
jected	-2267
▁describ	-2268
▁reports	-2269
▁fundamental	-2270
▁hig	-2271
▁hundreds	-2272
sh	-2273
▁CP	-2274
▁wro	-2275
ruary	-2276
▁seem	-2277
▁terrorist	-2278
agon	-2279
▁pred	-2280
▁Joh	-2281
▁Labour	-2282
▁opport	-2283
▁newspaper	-2284
rid	-2285
▁town	-2286
▁crimin	-2287
▁recently	-2288
▁interview	-2289
ert	-2290
▁Sim	-2291
▁ut	-2292
▁loss	-2293
▁heaven	-2294
▁speech	-2295
isc	-2296
▁Some	-2297
▁Work	-2298
▁asse	-2299
rown	-2300
▁soon	-2301
▁reform	-2302
▁sus	-2303
▁reve	-2304
▁February	-2305
▁civilians	-2306
hel	-2307
▁doing	-2308
▁Democrats	-2309
▁win	-2310
▁growth	-2311
▁warned	-2312
▁democracy	-2313
eng	-2314
▁Sar	-2315
▁Equality	-2316
▁Aug	-2317
▁evil	-2318
▁account	-2319
▁necessary	-2320
▁decades	-2321
rely	-2322
▁hous	-2323
ift	-2324
▁enc	-2325
▁ide	-2326
▁BJP	-2327
▁lives	-2328
▁nation	-2329
▁White	-2330
▁refused	-2331
▁seeking	-2332
▁increased	-2333
ulf	-2334
▁Russian	-2335
uing	-2336
allen	-2337
lement	-2338
▁gener	-2339
▁mult	-2340
▁aimed	-2341
▁gas	-2342
▁north	-2343
▁50	-2344
▁Liber	-2345
▁masses	-2346
▁suff	-2347
▁August	-2348
DP	-2349
▁families	-2350
ada	-2351
▁Tel	-2352
ached	-2353
lling	-2354
▁once	-2355
▁base	-2356
umb	-2357
▁towards	-2358
▁consider	-2359
▁defence	-2360
▁ban	-2361
▁scre	-2362
▁profit	-2363
▁Central	-2364
▁largest	-2365
▁communal	-2366
ilities	-2367
AT	-2368
▁Security	-2369
▁shot	-2370
uv	-2371
arian	-2372
▁rise	-2373
▁test	-2374
pon	-2375
▁Dep	-2376
▁issued	-2377
▁2002	-2378
▁Rajini	-2379
chn	-2380
▁prime	-2381
rodu	-2382
▁basic	-2383
▁altern	-2384
▁100	-2385
▁sil	-2386
pecial	-2387
most	-2388
▁John	-2389
▁benef	-2390
▁eyes	-2391
▁wrote	-2392
▁refuge	-2393
iversity	-2394
▁services	-2395
ault	-2396
arlier	-2397
de	-2398
rew	-2399
▁dism	-2400
▁spokes	-2401
▁hospital	-2402
▁40	-2403
▁cause	-2404
▁editor	-2405
reg	-2406
▁anger	-2407
▁product	-2408
▁mer	-2409
▁times	-2410
▁organis	-2411
▁fighting	-2412
ilt	-2413
▁ess	-2414
▁industry	-2415
▁doub	-2416
icians	-2417
▁above	-2418
▁determ	-2419
▁execut	-2420
▁Des	-2421
▁visit	-2422
▁mother	-2423
ittee	-2424
▁Syri	-2425
▁strategic	-2426
omp	-2427
come	-2428
▁Kore	-2429
▁millions	-2430
▁operations	-2431
ika	-2432
nes	-2433
▁final	-2434
▁compet	-2435
urs	-2436
iban	-2437
▁immediately	-2438
ara	-2439
ways	-2440
▁Bal	-2441
▁across	-2442
aily	-2443
verty	-2444
▁estim	-2445
standing	-2446
▁Go	-2447
▁eas	-2448
▁efforts	-2449
▁similar	-2450
wer	-2451
ourt	-2452
▁started	-2453
▁increasingly	-2454
ugu	-2455
inem	-2456
▁total	-2457
▁prepared	-2458
athy	-2459
▁Jac	-2460
▁women	-2461
▁Committee	-2462
▁14	-2463
▁Kamal	-2464
▁explo	-2465
▁counter	-2466
ification	-2467
ets	-2468
arent	-2469
▁cease	-2470
▁regul	-2471
▁issues	-2472
▁expressed	-2473
▁bourgeoisie	-2474
ask	-2475
▁techn	-2476
▁poverty	-2477
▁lack	-2478
▁Telugu	-2479
▁wage	-2480
▁thousand	-2481
ocu	-2482
uses	-2483
▁hear	-2484
unt	-2485
▁mob	-2486
▁danger	-2487
▁various	-2488
fire	-2489
wered	-2490
▁created	-2491
pol	-2492
▁Def	-2493
▁food	-2494
▁added	-2495
▁comes	-2496
by	-2497
ey	-2498
▁thus	-2499
▁upon	-2500
isions	-2501
▁repeated	-2502
▁implement	-2503
▁yesterday	-2504
▁lat	-2505
▁ris	-2506
▁separ	-2507
▁depart	-2508
SS	-2509
ja	-2510
▁vast	-2511
estern	-2512
though	-2513
▁award	-2514
▁Republican	-2515
oura	-2516
iy	-2517
aly	-2518
▁Ah	-2519
▁brothers	-2520
▁particular	-2521
utes	-2522
▁vir	-2523
▁diffic	-2524
▁failed	-2525
▁authorities	-2526
uted	-2527
iding	-2528
▁Paris	-2529
▁Under	-2530
▁Last	-2531
▁Leban	-2532
▁il	-2533
▁196	-2534
▁alt	-2535
▁sin	-2536
▁Many	-2537
▁island	-2538
▁collapse	-2539
▁imperialist	-2540
▁17	-2541
anks	-2542
nded	-2543
▁Behold	-2544
▁sen	-2545
usion	-2546
▁enem	-2547
▁star	-2548
▁chair	-2549
▁series	-2550
▁cat	-2551
▁though	-2552
▁standards	-2553
▁Thus	-2554
▁explained	-2555
▁My	-2556
▁pot	-2557
▁consequ	-2558
▁respond	-2559
▁published	-2560
▁believe	-2561
▁challen	-2562
isl	-2563
▁illeg	-2564
▁latest	-2565
▁By	-2566
▁shar	-2567
▁detain	-2568
▁alliance	-2569
▁difficult	-2570
▁supported	-2571
▁alternative	-2572
eous	-2573
▁amb	-2574
▁ens	-2575
▁mot	-2576
▁nearly	-2577
▁parliamentary	-2578
▁heav	-2579
▁sea	-2580
▁died	-2581
▁wages	-2582
.5	-2583
ka	-2584
era	-2585
▁book	-2586
▁scen	-2587
reedom	-2588
▁16	-2589
inary	-2590
▁wit	-2591
▁Mush	-2592
IA	-2593
▁pet	-2594
▁2003	-2595
▁relig	-2596
▁Pakistani	-2597
▁Why	-2598
▁key	-2599
ggest	-2600
▁none	-2601
▁tensions	-2602
lean	-2603
iplom	-2604
▁hours	-2605
▁sec	-2606
▁sol	-2607
▁2004	-2608
▁suggest	-2609
▁opportun	-2610
▁unemployment	-2611
set	-2612
usse	-2613
▁block	-2614
▁makes	-2615
▁Front	-2616
▁expected	-2617
▁education	-2618
▁secretary	-2619
▁Ne	-2620
ighb	-2621
▁rad	-2622
ociation	-2623
▁answered	-2624
▁influence	-2625
▁13	-2626
unga	-2627
▁UNP	-2628
▁written	-2629
▁candidates	-2630
▁Tal	-2631
ently	-2632
▁needs	-2633
▁events	-2634
▁sector	-2635
▁followed	-2636
arraf	-2637
▁secret	-2638
va	-2639
omes	-2640
▁Sunday	-2641
▁Georg	-2642
▁beginning	-2643
rop	-2644
▁treat	-2645
▁outside	-2646
ints	-2647
▁feat	-2648
▁kind	-2649
▁thought	-2650
▁Musharraf	-2651
asc	-2652
uty	-2653
▁east	-2654
▁south	-2655
▁militar	-2656
▁compl	-2657
▁prices	-2658
▁inj	-2659
volution	-2660
▁strikes	-2661
acy	-2662
▁Co	-2663
anda	-2664
▁pens	-2665
▁neighb	-2666
▁investment	-2667
ogn	-2668
▁nam	-2669
▁diplom	-2670
▁capt	-2671
▁enter	-2672
ls	-2673
▁UP	-2674
▁fathers	-2675
▁morning	-2676
hest	-2677
ussein	-2678
▁either	-2679
▁street	-2680
▁withdraw	-2681
▁intervention	-2682
▁Sc	-2683
▁noted	-2684
▁worked	-2685
▁nations	-2686
irit	-2687
aratunga	-2688
▁Kumaratunga	-2689
▁abs	-2690
▁gold	-2691
▁Court	-2692
▁provided	-2693
▁negotiations	-2694
ds	-2695
acle	-2696
▁Jay	-2697
▁Sol	-2698
▁established	-2699
▁fr	-2700
ivid	-2701
itude	-2702
▁organisations	-2703
orm	-2704
aram	-2705
ondon	-2706
▁forward	-2707
▁Sad	-2708
iting	-2709
▁London	-2710
▁legisl	-2711
▁criminal	-2712
▁producer	-2713
▁ener	-2714
▁alone	-2715
▁share	-2716
▁Hussein	-2717
rif	-2718
use	-2719
▁Phil	-2720
▁super	-2721
▁revolutionary	-2722
▁appeal	-2723
▁Monday	-2724
▁corporate	-2725
ATO	-2726
anced	-2727
▁alle	-2728
▁minor	-2729
▁accused	-2730
cers	-2731
ches	-2732
▁2001	-2733
▁dict	-2734
▁earlier	-2735
▁using	-2736
▁matter	-2737
▁Let	-2738
aries	-2739
▁limited	-2740
ma	-2741
▁aw	-2742
▁non	-2743
▁walk	-2744
▁attend	-2745
▁doll	-2746
▁pray	-2747
atever	-2748
ession	-2749
itation	-2750
▁Greens	-2751
▁denoun	-2752
▁depend	-2753
▁Workers	-2754
ret	-2755
▁miss	-2756
▁stay	-2757
▁played	-2758
▁daughter	-2759
athan	-2760
▁responsibility	-2761
ows	-2762
hered	-2763
▁NATO	-2764
▁joint	-2765
▁crimes	-2766
▁passed	-2767
▁essential	-2768
▁sac	-2769
▁better	-2770
▁Or	-2771
▁calls	-2772
▁unc	-2773
▁opin	-2774
▁common	-2775
▁Australian	-2776
▁huge	-2777
▁send	-2778
▁Sharon	-2779
▁ir	-2780
▁ear	-2781
▁mean	-2782
▁journal	-2783
▁rate	-2784
encies	-2785
▁Malay	-2786
▁resul	-2787
▁impact	-2788
▁individ	-2789
▁industrial	-2790
avi	-2791
▁Hind	-2792
▁farm	-2793
▁repl	-2794
▁stood	-2795
▁address	-2796
▁markets	-2797
pid	-2798
ref	-2799
▁recogn	-2800
app	-2801
ague	-2802
▁Jew	-2803
▁Fore	-2804
▁dam	-2805
iples	-2806
▁cinem	-2807
▁problem	-2808
ote	-2809
▁Az	-2810
ogra	-2811
▁twent	-2812
▁demonstrations	-2813
▁longer	-2814
▁clearly	-2815
▁cong	-2816
▁docu	-2817
▁leave	-2818
▁energy	-2819
▁Despite	-2820
▁directly	-2821
dad	-2822
back	-2823
▁wid	-2824
point	-2825
▁Bagh	-2826
▁condem	-2827
▁joined	-2828
nic	-2829
ample	-2830
▁lies	-2831
▁labour	-2832
▁colle	-2833
agement	-2834
▁spending	-2835
▁ple	-2836
▁Pent	-2837
▁likely	-2838
▁Islamic	-2839
▁servants	-2840
istic	-2841
▁works	-2842
▁always	-2843
▁potential	-2844
chie	-2845
▁Baghdad	-2846
▁century	-2847
▁information	-2848
▁stated	-2849
▁voters	-2850
▁Pentagon	-2851
▁incident	-2852
▁audi	-2853
▁votes	-2854
▁amount	-2855
▁resources	-2856
ery	-2857
hod	-2858
▁Mah	-2859
▁corrupt	-2860
▁introdu	-2861
▁insisted	-2862
▁z	-2863
▁insur	-2864
▁Foreign	-2865
iles	-2866
▁Just	-2867
▁body	-2868
▁signed	-2869
▁supposed	-2870
▁editorial	-2871
alam	-2872
angu	-2873
rate	-2874
▁prec	-2875
▁somet	-2876
▁presence	-2877
▁Pet	-2878
▁bread	-2879
▁object	-2880
▁calling	-2881
io	-2882
auv	-2883
elam	-2884
▁mag	-2885
▁gone	-2886
▁intens	-2887
▁destroyed	-2888
▁demonstration	-2889
▁Taliban	-2890
▁federal	-2891
▁SL	-2892
▁princip	-2893
▁victory	-2894
▁offensive	-2895
▁Post	-2896
iya	-2897
rants	-2898
▁drive	-2899
▁subst	-2900
▁Web	-2901
icked	-2902
▁debt	-2903
▁orig	-2904
be	-2905
ately	-2906
illed	-2907
▁Only	-2908
▁carry	-2909
▁confir	-2910
▁scenes	-2911
▁Ka	-2912
head	-2913
▁Such	-2914
▁pros	-2915
▁emergency	-2916
▁socialism	-2917
▁resistance	-2918
aji	-2919
▁Del	-2920
▁bit	-2921
▁Four	-2922
▁ident	-2923
part	-2924
ories	-2925
vision	-2926
▁chauv	-2927
CR	-2928
▁Sa	-2929
ners	-2930
▁Bab	-2931
▁From	-2932
▁rupe	-2933
▁elector	-2934
▁extreme	-2935
▁figures	-2936
▁servant	-2937
esh	-2938
▁Sun	-2939
onial	-2940
▁built	-2941
▁conne	-2942
▁greater	-2943
▁illegal	-2944
hab	-2945
nda	-2946
ival	-2947
▁Fin	-2948
▁unp	-2949
forms	-2950
▁cult	-2951
▁victim	-2952
▁example	-2953
▁Bar	-2954
▁CIA	-2955
▁sat	-2956
▁ten	-2957
▁contract	-2958
▁concerned	-2959
▁eight	-2960
▁almost	-2961
▁privat	-2962
▁assault	-2963
let	-2964
▁Sat	-2965
▁href	-2966
▁achie	-2967
▁woman	-2968
aza	-2969
▁24	-2970
▁Site	-2971
▁conv	-2972
▁holy	-2973
▁mobil	-2974
▁mur	-2975
ijing	-2976
▁Both	-2977
▁territ	-2978
▁bureaucracy	-2979
icit	-2980
▁2007	-2981
▁impos	-2982
▁simply	-2983
▁finance	-2984
▁project	-2985
▁Aj	-2986
iment	-2987
▁Eelam	-2988
▁spread	-2989
▁Therefore	-2990
▁Not	-2991
▁method	-2992
▁193	-2993
▁tab	-2994
rated	-2995
▁politicians	-2996
▁Gree	-2997
▁Berlin	-2998
▁initial	-2999
▁Hin	-3000
ship	-3001
▁ill	-3002
▁delive	-3003
▁Beijing	-3004
▁criticism	-3005
▁operation	-3006
▁consequences	-3007
ef	-3008
▁distrib	-3009
0,000	-3010
▁burn	-3011
▁actor	-3012
▁During	-3013
▁ceasefire	-3014
off	-3015
gthen	-3016
▁Like	-3017
▁daily	-3018
▁regional	-3019
▁Ag	-3020
ylon	-3021
▁Syria	-3022
nel	-3023
ream	-3024
▁Sur	-3025
ented	-3026
▁laws	-3027
▁enough	-3028
▁witness	-3029
▁El	-3030
rast	-3031
omest	-3032
pread	-3033
▁appear	-3034
▁defeat	-3035
▁letter	-3036
▁encoura	-3037
▁opinion	-3038
▁spokesman	-3039
urb	-3040
itiz	-3041
acher	-3042
▁wide	-3043
▁terms	-3044
artment	-3045
▁demanded	-3046
▁personal	-3047
now	-3048
pped	-3049
ption	-3050
▁assist	-3051
▁senior	-3052
▁collabor	-3053
▁northern	-3054
▁Tw	-3055
▁Sing	-3056
▁late	-3057
▁title	-3058
▁Africa	-3059
▁Moreover	-3060
▁delivered	-3061
ums	-3062
linton	-3063
▁Street	-3064
▁raised	-3065
▁pointed	-3066
idespread	-3067
▁chairman	-3068
ami	-3069
▁cases	-3070
▁Lebanon	-3071
▁mess	-3072
▁Clinton	-3073
▁failure	-3074
▁request	-3075
▁rejected	-3076
▁strategy	-3077
iled	-3078
▁include	-3079
▁described	-3080
pecially	-3081
▁despite	-3082
▁laid	-3083
▁ready	-3084
▁widespread	-3085
oked	-3086
▁Can	-3087
▁ball	-3088
▁alleged	-3089
oo	-3090
road	-3091
▁link	-3092
▁doubt	-3093
▁allies	-3094
▁killing	-3095
aced	-3096
▁Her	-3097
▁ign	-3098
▁sword	-3099
▁organisation	-3100
ming	-3101
▁fle	-3102
ounded	-3103
▁rapid	-3104
gel	-3105
erry	-3106
▁2000	-3107
▁price	-3108
▁effort	-3109
▁progress	-3110
▁questions	-3111
den	-3112
ankar	-3113
▁front	-3114
down	-3115
▁Iranian	-3116
▁offered	-3117
▁strengthen	-3118
pel	-3119
itive	-3120
▁George	-3121
▁rupees	-3122
▁Fil	-3123
▁bless	-3124
▁largely	-3125
▁returned	-3126
eth	-3127
▁CD	-3128
▁Sup	-3129
▁swe	-3130
▁Hindi	-3131
▁inside	-3132
▁proceed	-3133
▁commanded	-3134
ley	-3135
▁gat	-3136
▁drink	-3137
▁resol	-3138
▁truth	-3139
▁domest	-3140
▁historical	-3141
▁threatened	-3142
▁Hindu	-3143
▁reforms	-3144
vere	-3145
▁oppon	-3146
▁Jos	-3147
▁Tig	-3148
izing	-3149
▁tort	-3150
▁contrib	-3151
▁announce	-3152
▁reactionary	-3153
▁har	-3154
arant	-3155
▁hope	-3156
▁Jose	-3157
▁mouth	-3158
▁stage	-3159
▁concess	-3160
▁committee	-3161
▁Moh	-3162
▁consc	-3163
▁dwell	-3164
pressed	-3165
▁gathered	-3166
▁especially	-3167
▁extra	-3168
▁access	-3169
▁deploy	-3170
▁figure	-3171
lo	-3172
isha	-3173
▁suppl	-3174
▁proper	-3175
ervative	-3176
▁demanding	-3177
dam	-3178
the	-3179
antly	-3180
▁shut	-3181
▁consum	-3182
▁settle	-3183
▁allowed	-3184
inism	-3185
▁Wall	-3186
▁Produ	-3187
▁trial	-3188
▁sacrif	-3189
▁officers	-3190
▁Palestinians	-3191
fer	-3192
▁Ben	-3193
▁bat	-3194
lying	-3195
▁brut	-3196
▁else	-3197
▁backed	-3198
▁underm	-3199
▁council	-3200
▁solution	-3201
lig	-3202
▁net	-3203
▁Tamils	-3204
▁planned	-3205
▁politically	-3206
ump	-3207
▁2006	-3208
▁euro	-3209
▁Jacob	-3210
mir	-3211
▁22	-3212
olly	-3213
▁nav	-3214
▁langu	-3215
▁expect	-3216
▁instit	-3217
▁manner	-3218
son	-3219
▁PA	-3220
fully	-3221
▁judg	-3222
▁ty	-3223
rich	-3224
▁ine	-3225
▁mis	-3226
range	-3227
▁citiz	-3228
▁warning	-3229
▁Australia	-3230
▁En	-3231
▁af	-3232
▁thr	-3233
▁bill	-3234
▁paid	-3235
▁remark	-3236
▁Association	-3237
▁Son	-3238
▁Who	-3239
▁eth	-3240
▁dial	-3241
▁serve	-3242
▁stock	-3243
▁detail	-3244
gth	-3245
▁Jo	-3246
▁ult	-3247
▁road	-3248
▁Follow	-3249
▁oppose	-3250
▁self	-3251
▁Their	-3252
▁rising	-3253
▁conclud	-3254
▁contrad	-3255
▁domestic	-3256
▁Bo	-3257
airs	-3258
▁Bec	-3259
▁die	-3260
▁mid	-3261
▁join	-3262
▁Korea	-3263
▁exte	-3264
vement	-3265
▁wants	-3266
▁strength	-3267
▁Department	-3268
ias	-3269
▁aver	-3270
▁Solom	-3271
▁origin	-3272
▁guarant	-3273
▁committed	-3274
▁independence	-3275
▁soul	-3276
▁quick	-3277
▁summit	-3278
▁wanted	-3279
▁Alliance	-3280
MF	-3281
right	-3282
▁Saul	-3283
▁wall	-3284
ferences	-3285
▁Liberation	-3286
▁corporations	-3287
ape	-3288
ires	-3289
▁env	-3290
▁sle	-3291
based	-3292
▁task	-3293
▁agenda	-3294
▁discussion	-3295
eer	-3296
arter	-3297
ights	-3298
ology	-3299
▁Thir	-3300
▁bail	-3301
▁escal	-3302
▁murder	-3303
▁Because	-3304
▁concerns	-3305
▁proposed	-3306
▁substant	-3307
▁estimated	-3308
▁completely	-3309
▁0	-3310
oned	-3311
▁lot	-3312
▁forms	-3313
▁section	-3314
▁launched	-3315
eda	-3316
▁confron	-3317
▁priests	-3318
▁included	-3319
ien	-3320
▁subs	-3321
▁tell	-3322
▁Chand	-3323
▁burnt	-3324
▁seems	-3325
▁charges	-3326
▁farmers	-3327
inet	-3328
inces	-3329
▁wild	-3330
▁required	-3331
▁Following	-3332
▁prisoners	-3333
hem	-3334
▁Its	-3335
▁Wed	-3336
ously	-3337
▁goes	-3338
▁Ajith	-3339
▁personnel	-3340
▁television	-3341
▁Mo	-3342
▁194	-3343
▁provoc	-3344
▁21	-3345
▁Na	-3346
riday	-3347
▁team	-3348
▁staff	-3349
▁single	-3350
▁Revolution	-3351
▁resolution	-3352
▁26	-3353
alys	-3354
▁1990	-3355
▁virt	-3356
▁answer	-3357
▁comments	-3358
ili	-3359
▁IMF	-3360
▁lie	-3361
▁Phar	-3362
▁true	-3363
nesday	-3364
▁Wednesday	-3365
▁religious	-3366
hat	-3367
ource	-3368
▁ship	-3369
▁term	-3370
▁bound	-3371
▁sharp	-3372
▁Nations	-3373
▁civilian	-3374
▁powerful	-3375
▁righteous	-3376
SSP	-3377
cles	-3378
▁wait	-3379
uesday	-3380
▁acted	-3381
▁Friday	-3382
▁export	-3383
▁openly	-3384
play	-3385
▁bra	-3386
inite	-3387
▁adop	-3388
▁avail	-3389
imately	-3390
lection	-3391
▁spirit	-3392
▁Tuesday	-3393
▁reality	-3394
aught	-3395
ledge	-3396
▁income	-3397
▁Those	-3398
▁initi	-3399
▁voted	-3400
▁houses	-3401
▁opened	-3402
mbly	-3403
▁Gaza	-3404
ception	-3405
akk	-3406
erve	-3407
▁places	-3408
usb	-3409
arily	-3410
▁judge	-3411
▁Saddam	-3412
▁higher	-3413
▁deliver	-3414
▁rese	-3415
▁elect	-3416
▁reach	-3417
▁scene	-3418
▁temple	-3419
▁actress	-3420
▁confront	-3421
▁something	-3422
erb	-3423
▁Dire	-3424
▁coop	-3425
aves	-3426
ties	-3427
▁Lev	-3428
▁pen	-3429
▁pun	-3430
oming	-3431
▁Jaff	-3432
▁Marx	-3433
▁Kerry	-3434
▁legit	-3435
▁mater	-3436
▁rural	-3437
▁create	-3438
▁height	-3439
▁decline	-3440
▁justify	-3441
▁attention	-3442
ney	-3443
▁ant	-3444
▁prose	-3445
▁dialog	-3446
▁methods	-3447
▁arrested	-3448
▁activities	-3449
aya	-3450
▁Cl	-3451
▁Su	-3452
▁LCR	-3453
▁Pen	-3454
▁hon	-3455
where	-3456
▁refugees	-3457
▁statements	-3458
▁opportunity	-3459
▁investigation	-3460
ze	-3461
oke	-3462
▁argu	-3463
▁hostility	-3464
▁cal	-3465
▁fra	-3466
atory	-3467
▁programme	-3468
▁nationalist	-3469
▁representatives	-3470
mp	-3471
▁Nad	-3472
▁integ	-3473
▁implic	-3474
▁receive	-3475
▁ministers	-3476
rip	-3477
▁60	-3478
▁Of	-3479
▁Pra	-3480
▁Vik	-3481
pects	-3482
▁circ	-3483
▁congreg	-3484
▁declaring	-3485
uine	-3486
▁Two	-3487
▁Solomon	-3488
key	-3489
cher	-3490
orrow	-3491
▁risk	-3492
▁devast	-3493
amm	-3494
thi	-3495
▁23	-3496
▁deg	-3497
▁altar	-3498
▁launch	-3499
▁secure	-3500
▁remains	-3501
We	-3502
co	-3503
uf	-3504
using	-3505
▁prior	-3506
aration	-3507
▁Having	-3508
▁Jaffna	-3509
▁facilities	-3510
▁husb	-3511
▁mind	-3512
▁Asian	-3513
▁Kumar	-3514
▁betray	-3515
▁debate	-3516
▁instru	-3517
▁trying	-3518
▁subject	-3519
▁Christian	-3520
FP	-3521
▁Kash	-3522
formed	-3523
ishing	-3524
▁bombing	-3525
▁running	-3526
▁anything	-3527
▁assistance	-3528
CF	-3529
rog	-3530
▁boy	-3531
▁2008	-3532
▁Viet	-3533
▁pract	-3534
itarian	-3535
▁measure	-3536
▁appeared	-3537
udd	-3538
▁cas	-3539
▁eru	-3540
force	-3541
▁theat	-3542
▁changes	-3543
▁critical	-3544
asts	-3545
▁fif	-3546
▁pled	-3547
▁kingdom	-3548
▁demonstrat	-3549
▁Hez	-3550
▁vers	-3551
▁Tigers	-3552
▁extrem	-3553
▁genuine	-3554
.3	-3555
una	-3556
lesh	-3557
ternal	-3558
▁advoc	-3559
▁funds	-3560
▁Fourth	-3561
▁Another	-3562
▁conduct	-3563
▁threats	-3564
▁University	-3565
▁contradict	-3566
▁1,	-3567
▁di	-3568
▁hop	-3569
▁pack	-3570
▁camps	-3571
▁imposed	-3572
▁revealed	-3573
▁congregation	-3574
elt	-3575
leb	-3576
▁eld	-3577
▁flesh	-3578
▁backing	-3579
▁disaster	-3580
▁struggles	-3581
ni	-3582
ares	-3583
▁cam	-3584
stead	-3585
▁arri	-3586
▁kept	-3587
▁knew	-3588
▁Green	-3589
▁spoken	-3590
▁accepted	-3591
irst	-3592
▁Mer	-3593
▁fal	-3594
▁lif	-3595
▁Other	-3596
▁aband	-3597
▁sight	-3598
▁repeatedly	-3599
▁195	-3600
▁Res	-3601
▁Mich	-3602
▁student	-3603
akh	-3604
aeda	-3605
▁Vietnam	-3606
▁district	-3607
▁ordinary	-3608
▁Prab	-3609
▁prete	-3610
▁caused	-3611
▁explos	-3612
▁victims	-3613
▁congress	-3614
▁material	-3615
▁indicated	-3616
▁Mc	-3617
quir	-3618
▁Sel	-3619
▁diss	-3620
▁feel	-3621
▁takes	-3622
▁willing	-3623
▁currently	-3624
owed	-3625
▁squ	-3626
lfare	-3627
urday	-3628
▁Paul	-3629
▁save	-3630
ancell	-3631
▁assass	-3632
▁welfare	-3633
▁withdrawal	-3634
▁Har	-3635
▁Spe	-3636
▁Over	-3637
▁false	-3638
▁inhab	-3639
▁points	-3640
▁promised	-3641
▁internationally	-3642
▁actors	-3643
▁benefits	-3644
▁repression	-3645
ris	-3646
▁Kh	-3647
evit	-3648
yond	-3649
▁affe	-3650
▁wars	-3651
▁facing	-3652
▁Defence	-3653
▁Commission	-3654
▁expression	-3655
oved	-3656
ruit	-3657
▁Shi	-3658
▁bal	-3659
ordin	-3660
▁till	-3661
▁faith	-3662
▁ethnic	-3663
▁promot	-3664
▁wicked	-3665
▁previously	-3666
BC	-3667
▁CDU	-3668
▁arg	-3669
ograph	-3670
▁Sivaji	-3671
▁experience	-3672
ina	-3673
kel	-3674
aint	-3675
▁arms	-3676
▁firm	-3677
▁disap	-3678
▁deaths	-3679
▁screen	-3680
▁advance	-3681
▁constit	-3682
▁husband	-3683
▁Saturday	-3684
▁electoral	-3685
▁cy	-3686
rary	-3687
▁neo	-3688
rimin	-3689
▁profits	-3690
uals	-3691
▁labor	-3692
▁charge	-3693
▁credit	-3694
▁Instead	-3695
▁Kashmir	-3696
▁advanced	-3697
▁employees	-3698
▁continuing	-3699
▁substantial	-3700
abil	-3701
sels	-3702
wise	-3703
▁Eng	-3704
▁gar	-3705
▁....	-3706
▁Aaron	-3707
▁streets	-3708
▁citizens	-3709
▁Ex	-3710
going	-3711
uster	-3712
▁Howard	-3713
▁Supreme	-3714
▁southern	-3715
bu	-3716
▁TV	-3717
▁hy	-3718
▁isol	-3719
▁surv	-3720
▁Every	-3721
▁quite	-3722
▁worth	-3723
▁Joseph	-3724
▁gather	-3725
▁tabern	-3726
▁entered	-3727
▁separat	-3728
▁executive	-3729
itha	-3730
▁trou	-3731
▁seats	-3732
▁needed	-3733
ederation	-3734
▁institutions	-3735
▁push	-3736
▁cinema	-3737
▁ensure	-3738
▁inevit	-3739
▁layers	-3740
▁Western	-3741
▁dismiss	-3742
▁programs	-3743
▁available	-3744
▁determined	-3745
▁Br	-3746
osen	-3747
▁cab	-3748
▁cru	-3749
ister	-3750
ters	-3751
▁Delhi	-3752
▁denied	-3753
▁finally	-3754
▁station	-3755
▁torture	-3756
▁management	-3757
edd	-3758
▁27	-3759
resp	-3760
▁Ham	-3761
▁avo	-3762
▁grand	-3763
▁moved	-3764
▁served	-3765
▁immigrants	-3766
wood	-3767
▁bad	-3768
▁Turk	-3769
ground	-3770
▁crime	-3771
▁circles	-3772
▁bankrupt	-3773
▁continues	-3774
rage	-3775
▁pie	-3776
▁songs	-3777
▁surpr	-3778
▁tried	-3779
▁battle	-3780
▁protect	-3781
▁Americans	-3782
▁dro	-3783
▁wind	-3784
▁Sathy	-3785
▁Spain	-3786
▁rival	-3787
▁factory	-3788
▁Pl	-3789
▁sk	-3790
▁2009	-3791
lected	-3792
▁celeb	-3793
▁obtain	-3794
▁showed	-3795
▁concessions	-3796
▁CG	-3797
ashed	-3798
▁rich	-3799
▁deleg	-3800
▁aggression	-3801
▁fuel	-3802
▁extent	-3803
▁colonial	-3804
▁responded	-3805
▁roles	-3806
▁beyond	-3807
▁prominent	-3808
▁Fl	-3809
▁2005	-3810
▁fans	-3811
idered	-3812
▁giving	-3813
▁levels	-3814
▁freedom	-3815
▁medical	-3816
▁organiz	-3817
▁radical	-3818
▁conscious	-3819
▁direction	-3820
▁sanctions	-3821
▁legislation	-3822
ida	-3823
van	-3824
agan	-3825
▁hor	-3826
▁nar	-3827
▁acts	-3828
ateral	-3829
▁costs	-3830
pointed	-3831
▁associ	-3832
vernment	-3833
▁getting	-3834
▁instead	-3835
▁separate	-3836
ki	-3837
200	-3838
och	-3839
▁Pri	-3840
▁Kurd	-3841
▁lear	-3842
▁glory	-3843
▁impro	-3844
▁emerged	-3845
▁minority	-3846
▁Naz	-3847
▁foc	-3848
▁Zion	-3849
▁grant	-3850
▁Senate	-3851
▁source	-3852
▁remained	-3853
oud	-3854
▁Mad	-3855
▁wis	-3856
▁Most	-3857
▁foot	-3858
ursday	-3859
▁Surya	-3860
▁homes	-3861
▁Turkey	-3862
▁analys	-3863
▁elected	-3864
▁Thursday	-3865
▁elements	-3866
-1	-3867
bed	-3868
pet	-3869
▁Ba	-3870
▁document	-3871
atha	-3872
▁obs	-3873
▁centre	-3874
▁decade	-3875
▁waters	-3876
▁enemies	-3877
▁suppress	-3878
my	-3879
ansion	-3880
▁nomin	-3881
▁whatever	-3882
▁participated	-3883
asu	-3884
que	-3885
abad	-3886
ully	-3887
▁CGT	-3888
▁Our	-3889
oples	-3890
cution	-3891
terior	-3892
▁broken	-3893
oe	-3894
▁ren	-3895
▁door	-3896
▁feet	-3897
▁frame	-3898
▁inher	-3899
▁changed	-3900
▁outcome	-3901
▁require	-3902
aked	-3903
cknow	-3904
state	-3905
▁wave	-3906
▁heads	-3907
▁reject	-3908
▁scient	-3909
▁silver	-3910
▁twenty	-3911
▁considered	-3912
.2	-3913
roc	-3914
yle	-3915
arity	-3916
ordan	-3917
▁kings	-3918
▁worker	-3919
▁average	-3920
▁purpose	-3921
▁reached	-3922
▁employers	-3923
▁terrorists	-3924
▁conservative	-3925
onment	-3926
▁evening	-3927
▁injured	-3928
▁attempts	-3929
▁gate	-3930
aining	-3931
▁rates	-3932
▁diplomatic	-3933
▁tabernacle	-3934
rand	-3935
rish	-3936
▁1980	-3937
▁auto	-3938
▁bear	-3939
▁creat	-3940
▁Jordan	-3941
▁closed	-3942
▁publicly	-3943
▁denounced	-3944
▁developed	-3945
erves	-3946
▁acknow	-3947
▁anyone	-3948
▁losses	-3949
▁pension	-3950
▁existing	-3951
▁28	-3952
▁rail	-3953
ffered	-3954
▁friends	-3955
▁opening	-3956
▁believed	-3957
▁resident	-3958
▁surround	-3959
mon	-3960
ager	-3961
rief	-3962
tion	-3963
▁201	-3964
claim	-3965
▁1999	-3966
▁lines	-3967
▁refer	-3968
ollywood	-3969
▁deliber	-3970
▁directors	-3971
▁expansion	-3972
▁transport	-3973
▁militarism	-3974
▁discussions	-3975
OD	-3976
▁seed	-3977
▁Vikram	-3978
▁defense	-3979
▁produce	-3980
▁Although	-3981
▁conducted	-3982
▁rock	-3983
▁assum	-3984
ulation	-3985
zz	-3986
▁UK	-3987
▁wel	-3988
▁desper	-3989
▁placed	-3990
▁seized	-3991
ancellor	-3992
▁numbers	-3993
▁attacked	-3994
▁restruct	-3995
mi	-3996
cast	-3997
▁Bel	-3998
▁gir	-3999
ushed	-4000
▁province	-4001
▁opponents	-4002
▁Med	-4003
anish	-4004
▁wond	-4005
▁inhabit	-4006
▁teacher	-4007
▁suffered	-4008
htm	-4009
wide	-4010
aging	-4011
▁Gulf	-4012
▁fort	-4013
▁site	-4014
▁Peter	-4015
▁favor	-4016
▁raise	-4017
▁sanct	-4018
▁schools	-4019
▁presented	-4020
▁supporting	-4021
▁News	-4022
▁exer	-4023
▁admit	-4024
▁bitter	-4025
▁sources	-4026
▁understand	-4027
ping	-4028
▁Cal	-4029
ufact	-4030
▁People	-4031
▁struct	-4032
▁unders	-4033
▁participate	-4034
▁Mr	-4035
▁Po	-4036
▁Sw	-4037
▁fled	-4038
▁prim	-4039
▁sides	-4040
▁ballot	-4041
▁eastern	-4042
▁liberal	-4043
▁training	-4044
▁additional	-4045
▁II	-4046
alai	-4047
▁propag	-4048
ional	-4049
▁unit	-4050
▁Tamiln	-4051
▁abroad	-4052
▁affected	-4053
▁challenge	-4054
.4	-4055
▁35	-4056
ster	-4057
▁burd	-4058
▁trust	-4059
▁utter	-4060
▁value	-4061
▁specul	-4062
▁mention	-4063
▁quickly	-4064
▁entirely	-4065
▁differences	-4066
tt	-4067
ata	-4068
ique	-4069
▁Act	-4070
▁fam	-4071
▁Hait	-4072
▁Jews	-4073
pelled	-4074
▁dream	-4075
▁often	-4076
▁resign	-4077
▁Babylon	-4078
▁confirmed	-4079
▁producers	-4080
▁announcement	-4081
atch	-4082
dden	-4083
▁iniqu	-4084
▁widely	-4085
▁obvious	-4086
imid	-4087
quiry	-4088
▁mort	-4089
erness	-4090
▁alleg	-4091
▁hosts	-4092
▁happened	-4093
▁commented	-4094
▁territory	-4095
▁everything	-4096
▁significance	-4097
aps	-4098
hood	-4099
▁GOD	-4100
▁broke	-4101
▁recon	-4102
▁Trisha	-4103
▁chosen	-4104
▁highly	-4105
▁cabinet	-4106
▁language	-4107
kar	-4108
▁29	-4109
umar	-4110
▁hal	-4111
▁ties	-4112
▁wrong	-4113
▁Georgia	-4114
▁bailout	-4115
▁everyone	-4116
▁wilderness	-4117
▁organization	-4118
hua	-4119
uck	-4120
▁Khan	-4121
▁lord	-4122
▁shift	-4123
theless	-4124
▁inherit	-4125
▁possess	-4126
▁judgment	-4127
▁manufact	-4128
▁conflicts	-4129
▁sacrifice	-4130
▁represents	-4131
ns	-4132
▁meat	-4133
▁phot	-4134
astern	-4135
▁check	-4136
▁coast	-4137
▁stress	-4138
▁subsid	-4139
▁agencies	-4140
▁objective	-4141
▁positions	-4142
eke	-4143
ffic	-4144
imum	-4145
▁pit	-4146
▁lawy	-4147
▁clean	-4148
▁ended	-4149
▁enorm	-4150
▁inspe	-4151
▁rally	-4152
▁brutal	-4153
▁circum	-4154
ilateral	-4155
emocratic	-4156
▁approach	-4157
▁Tamilnadu	-4158
ekend	-4159
▁date	-4160
▁parts	-4161
▁compos	-4162
▁impose	-4163
▁demonstrated	-4164
amy	-4165
rack	-4166
▁Yet	-4167
▁inn	-4168
▁massac	-4169
▁status	-4170
▁officer	-4171
▁results	-4172
▁community	-4173
hic	-4174
iven	-4175
king	-4176
▁ves	-4177
raham	-4178
▁Rich	-4179
▁rout	-4180
▁African	-4181
▁highest	-4182
▁reasons	-4183
▁weekend	-4184
▁wounded	-4185
▁addition	-4186
▁Jeh	-4187
▁Jeev	-4188
▁exch	-4189
▁Econom	-4190
▁Minist	-4191
▁formed	-4192
▁unable	-4193
atically	-4194
▁analysis	-4195
▁individual	-4196
▁Republicans	-4197
ex	-4198
▁Ed	-4199
▁red	-4200
racted	-4201
▁shock	-4202
cession	-4203
▁Sarath	-4204
▁pretext	-4205
▁respect	-4206
▁concluded	-4207
▁construction	-4208
hra	-4209
▁gun	-4210
odies	-4211
▁safe	-4212
▁tend	-4213
▁board	-4214
▁cheap	-4215
▁natural	-4216
▁aggressive	-4217
▁involvement	-4218
▁constitutional	-4219
▁log	-4220
▁Ravi	-4221
▁exam	-4222
▁stra	-4223
▁Phara	-4224
▁drawn	-4225
▁expand	-4226
▁regions	-4227
▁carrying	-4228
▁preparing	-4229
▁Os	-4230
▁Mao	-4231
▁Yes	-4232
▁lakh	-4233
▁quot	-4234
▁spec	-4235
porter	-4236
▁advis	-4237
▁Pharaoh	-4238
▁apparat	-4239
▁commission	-4240
▁concerning	-4241
▁black	-4242
▁ruled	-4243
▁catast	-4244
▁reflect	-4245
▁Malayalam	-4246
joy	-4247
irth	-4248
oday	-4249
▁cub	-4250
eping	-4251
▁suic	-4252
▁ways	-4253
▁aware	-4254
▁heavy	-4255
▁praise	-4256
▁really	-4257
▁rapidly	-4258
▁village	-4259
ula	-4260
▁vol	-4261
▁stars	-4262
▁fought	-4263
▁nature	-4264
▁parent	-4265
▁ordered	-4266
▁quarter	-4267
▁version	-4268
▁proposal	-4269
▁relationship	-4270
ipe	-4271
pay	-4272
▁ts	-4273
kash	-4274
▁Any	-4275
ivity	-4276
tered	-4277
▁LSSP	-4278
▁meant	-4279
▁combat	-4280
▁attempted	-4281
▁treatment	-4282
▁kid	-4283
▁ahead	-4284
▁lower	-4285
▁dollar	-4286
▁supply	-4287
▁collect	-4288
▁fighters	-4289
cow	-4290
▁Im	-4291
vail	-4292
▁Pow	-4293
▁cro	-4294
▁hour	-4295
▁rose	-4296
▁vehic	-4297
▁tempor	-4298
▁compared	-4299
▁planning	-4300
gin	-4301
isf	-4302
html	-4303
mark	-4304
▁300	-4305
▁Mor	-4306
▁SLFP	-4307
▁fasc	-4308
▁Simbu	-4309
▁Shiite	-4310
▁suburb	-4311
▁interven	-4312
▁partners	-4313
▁corruption	-4314
bit	-4315
▁hot	-4316
oment	-4317
▁Bill	-4318
venant	-4319
▁scale	-4320
▁sense	-4321
▁relative	-4322
▁detention	-4323
oring	-4324
▁fast	-4325
▁Labor	-4326
▁Singh	-4327
▁enjoy	-4328
▁traditional	-4329
aker	-4330
▁Bur	-4331
▁Will	-4332
▁appl	-4333
▁dram	-4334
▁Moscow	-4335
ironment	-4336
▁charged	-4337
▁intimid	-4338
▁supplies	-4339
▁NP	-4340
feld	-4341
rend	-4342
time	-4343
▁doz	-4344
▁ver	-4345
▁concl	-4346
▁captain	-4347
▁claiming	-4348
▁covenant	-4349
bur	-4350
▁ge	-4351
▁500	-4352
▁UPF	-4353
▁tsun	-4354
▁Today	-4355
▁delay	-4356
▁watch	-4357
▁sentiment	-4358
▁virtually	-4359
reen	-4360
▁Tim	-4361
▁dark	-4362
itical	-4363
▁fears	-4364
▁commer	-4365
▁merely	-4366
▁Vijayak	-4367
▁restrict	-4368
▁chauvinist	-4369
▁Do	-4370
arters	-4371
▁choice	-4372
▁investors	-4373
▁inequality	-4374
▁possibility	-4375
▁restructuring	-4376
rs	-4377
▁Com	-4378
▁San	-4379
▁ste	-4380
▁unpre	-4381
▁hearing	-4382
▁immigration	-4383
▁understanding	-4384
agar	-4385
icip	-4386
▁bul	-4387
▁web	-4388
▁brief	-4389
▁spent	-4390
▁worst	-4391
▁deficit	-4392
▁knowledge	-4393
▁Sr	-4394
▁McC	-4395
▁Madh	-4396
▁filed	-4397
▁agency	-4398
▁broader	-4399
▁mounting	-4400
▁journalists	-4401
▁Vad	-4402
▁ang	-4403
▁sab	-4404
▁try	-4405
▁Army	-4406
▁sack	-4407
▁Philist	-4408
▁Japanese	-4409
▁although	-4410
▁propaganda	-4411
ett	-4412
archy	-4413
itled	-4414
▁Rums	-4415
▁cell	-4416
▁crow	-4417
▁draw	-4418
▁peas	-4419
ricult	-4420
▁looking	-4421
▁Rumsfeld	-4422
▁designed	-4423
20	-4424
riya	-4425
▁faces	-4426
chan	-4427
vals	-4428
ylum	-4429
▁Eli	-4430
▁Jean	-4431
ghters	-4432
▁Father	-4433
▁career	-4434
▁daughters	-4435
▁proposals	-4436
ium	-4437
jah	-4438
min	-4439
amed	-4440
oman	-4441
▁casual	-4442
▁deeply	-4443
▁sudden	-4444
▁appears	-4445
▁offerings	-4446
▁inhabitants	-4447
▁collaboration	-4448
rol	-4449
▁tact	-4450
▁below	-4451
▁image	-4452
▁stran	-4453
▁mighty	-4454
▁sister	-4455
▁audience	-4456
▁authority	-4457
▁GM	-4458
ille	-4459
shtml	-4460
▁Spanish	-4461
▁tsunami	-4462
▁turning	-4463
▁promises	-4464
▁appointed	-4465
▁providing	-4466
aman	-4467
ayan	-4468
▁Sud	-4469
▁Wick	-4470
▁born	-4471
▁exerc	-4472
▁Iraqis	-4473
ological	-4474
▁Shankar	-4475
▁apparatus	-4476
▁recession	-4477
▁confidence	-4478
▁protection	-4479
▁organizations	-4480
EA	-4481
▁Ho	-4482
▁Kann	-4483
▁Vish	-4484
▁impo	-4485
▁sell	-4486
▁fruit	-4487
▁fully	-4488
▁gives	-4489
▁framework	-4490
▁MP	-4491
▁perman	-4492
▁employed	-4493
▁introduced	-4494
raj	-4495
imal	-4496
▁See	-4497
▁Board	-4498
▁Great	-4499
▁bases	-4500
▁cited	-4501
▁asylum	-4502
▁bodies	-4503
▁married	-4504
▁environment	-4505
urt	-4506
▁sure	-4507
ifying	-4508
▁overse	-4509
▁heavily	-4510
▁mission	-4511
▁proclaim	-4512
▁reserves	-4513
ols	-4514
raid	-4515
▁Bhar	-4516
▁knows	-4517
▁Turkish	-4518
▁Director	-4519
▁Ministry	-4520
▁meetings	-4521
▁deepening	-4522
▁reporters	-4523
▁privatisation	-4524
iri	-4525
uit	-4526
▁clot	-4527
▁pull	-4528
▁Trade	-4529
▁lakhs	-4530
▁names	-4531
▁desire	-4532
▁voting	-4533
▁ability	-4534
▁details	-4535
▁justice	-4536
▁detained	-4537
▁settlement	-4538
▁kil	-4539
riage	-4540
backed	-4541
mitted	-4542
rolled	-4543
▁comed	-4544
▁accomp	-4545
▁behalf	-4546
cedented	-4547
▁faction	-4548
▁iniquity	-4549
▁research	-4550
▁villages	-4551
▁disciples	-4552
ald	-4553
ador	-4554
▁Reh	-4555
▁rej	-4556
wards	-4557
ulated	-4558
▁enemy	-4559
▁afraid	-4560
▁Abraham	-4561
▁Richard	-4562
▁regarded	-4563
▁commercial	-4564
▁unprecedented	-4565
enth	-4566
oyal	-4567
▁fan	-4568
ifest	-4569
▁room	-4570
iation	-4571
▁imposs	-4572
▁looked	-4573
▁disappe	-4574
▁engaged	-4575
▁housing	-4576
▁network	-4577
▁parents	-4578
▁enormous	-4579
ames	-4580
amin	-4581
whel	-4582
▁Air	-4583
▁Car	-4584
▁Mic	-4585
▁Mil	-4586
hetor	-4587
▁1998	-4588
▁sche	-4589
▁cross	-4590
▁polls	-4591
▁surve	-4592
▁tribe	-4593
▁modern	-4594
▁rhetor	-4595
▁Levites	-4596
▁princes	-4597
▁prophet	-4598
▁subsequ	-4599
▁standing	-4600
▁Financial	-4601
▁dictators	-4602
▁background	-4603
▁Teh	-4604
▁ran	-4605
▁spl	-4606
azine	-4607
▁fest	-4608
▁towns	-4609
▁Eastern	-4610
▁comprom	-4611
▁organised	-4612
oor	-4613
aine	-4614
ibly	-4615
▁prob	-4616
ellect	-4617
onseka	-4618
▁chann	-4619
▁Fonseka	-4620
▁producing	-4621
▁principles	-4622
▁PP	-4623
apers	-4624
▁Flor	-4625
▁Srik	-4626
▁forg	-4627
▁resc	-4628
▁sheet	-4629
▁formal	-4630
▁suicide	-4631
▁provoked	-4632
▁developing	-4633
ike	-4634
▁felt	-4635
▁gods	-4636
▁solid	-4637
ructure	-4638
▁consist	-4639
▁removed	-4640
▁movements	-4641
.6	-4642
lu	-4643
eed	-4644
▁Kel	-4645
▁Nic	-4646
▁bes	-4647
erous	-4648
▁Mumb	-4649
▁Though	-4650
▁deputy	-4651
▁latter	-4652
▁contest	-4653
▁becoming	-4654
▁overwhel	-4655
▁requires	-4656
itz	-4657
athi	-4658
▁fat	-4659
light	-4660
▁Dhan	-4661
ancing	-4662
▁Calif	-4663
▁mercy	-4664
▁oblig	-4665
▁Mumbai	-4666
▁Florida	-4667
▁borders	-4668
▁concent	-4669
▁oppressed	-4670
▁successful	-4671
▁progressive	-4672
asi	-4673
asse	-4674
ollah	-4675
▁Mohan	-4676
▁avoid	-4677
▁study	-4678
▁prophe	-4679
▁surely	-4680
▁testim	-4681
▁Kurdish	-4682
▁ongoing	-4683
▁violent	-4684
▁Vijayakanth	-4685
▁representative	-4686
MP	-4687
agog	-4688
held	-4689
▁ally	-4690
▁treas	-4691
▁Californ	-4692
▁generation	-4693
▁university	-4694
ular	-4695
▁Cor	-4696
▁Bala	-4697
▁Chief	-4698
▁plays	-4699
▁rivals	-4700
▁arrange	-4701
▁involving	-4702
▁cooperation	-4703
▁effectively	-4704
▁considerable	-4705
ael	-4706
bar	-4707
nds	-4708
ores	-4709
▁Put	-4710
▁pan	-4711
isher	-4712
oking	-4713
▁Schr	-4714
▁flee	-4715
▁tear	-4716
▁Among	-4717
▁seeing	-4718
▁combined	-4719
▁intention	-4720
▁cle	-4721
▁murd	-4722
orious	-4723
▁shown	-4724
▁Police	-4725
▁favour	-4726
▁Indones	-4727
▁manifest	-4728
▁certainly	-4729
umn	-4730
gent	-4731
▁Ter	-4732
owned	-4733
▁Rice	-4734
idency	-4735
▁First	-4736
▁conce	-4737
▁unity	-4738
▁biggest	-4739
▁prepare	-4740
▁departed	-4741
▁massacre	-4742
▁inheritance	-4743
hib	-4744
oph	-4745
aria	-4746
irty	-4747
vert	-4748
▁GDP	-4749
▁Sal	-4750
▁coup	-4751
▁closely	-4752
▁stopped	-4753
▁ministry	-4754
▁directing	-4755
▁intellect	-4756
▁California	-4757
▁dictatorship	-4758
anes	-4759
acity	-4760
▁Conf	-4761
▁wing	-4762
ilitary	-4763
▁Bharat	-4764
▁Tehran	-4765
▁visited	-4766
▁magazine	-4767
▁attempting	-4768
▁unemployed	-4769
.7	-4770
ils	-4771
▁Ant	-4772
▁bow	-4773
▁cho	-4774
ature	-4775
▁renew	-4776
▁Joshua	-4777
▁annual	-4778
▁curren	-4779
▁offers	-4780
▁Freedom	-4781
▁infrast	-4782
▁articles	-4783
▁gr	-4784
like	-4785
olid	-4786
ript	-4787
▁buy	-4788
▁hun	-4789
▁ori	-4790
▁pal	-4791
▁Cont	-4792
▁heat	-4793
▁refe	-4794
▁Greece	-4795
▁moment	-4796
▁guarantee	-4797
▁seriously	-4798
itt	-4799
lets	-4800
vest	-4801
▁debut	-4802
▁divide	-4803
▁narrow	-4804
▁impossible	-4805
▁infrastructure	-4806
▁du	-4807
▁Far	-4808
▁1991	-4809
▁bran	-4810
▁Sunni	-4811
▁overth	-4812
▁owners	-4813
▁profound	-4814
▁speaking	-4815
▁separatist	-4816
▁i	-4817
che	-4818
▁70	-4819
▁ly	-4820
iter	-4821
▁eye	-4822
▁rac	-4823
amber	-4824
ander	-4825
icted	-4826
▁perm	-4827
▁weak	-4828
▁west	-4829
vation	-4830
▁reven	-4831
▁stone	-4832
▁helped	-4833
▁Journal	-4834
▁dollars	-4835
▁message	-4836
▁remarks	-4837
▁divisions	-4838
▁Philistines	-4839
inda	-4840
urch	-4841
gence	-4842
▁Cons	-4843
▁symp	-4844
▁assets	-4845
▁belong	-4846
▁indeed	-4847
▁inquiry	-4848
▁marriage	-4849
▁multitude	-4850
▁principal	-4851
▁humanitarian	-4852
.8	-4853
▁BBC	-4854
lands	-4855
▁Film	-4856
▁nine	-4857
aching	-4858
▁Greek	-4859
▁birth	-4860
▁stead	-4861
▁adopted	-4862
▁assistant	-4863
apt	-4864
his	-4865
pir	-4866
elve	-4867
math	-4868
▁Pat	-4869
▁Your	-4870
▁guard	-4871
▁model	-4872
▁occur	-4873
▁driven	-4874
▁headed	-4875
▁relief	-4876
usterity	-4877
▁compens	-4878
▁apparent	-4879
▁circumst	-4880
▁condemned	-4881
▁associated	-4882
▁bureaucrat	-4883
▁righteousness	-4884
▁Ro	-4885
rose	-4886
▁Lat	-4887
▁UPA	-4888
▁cop	-4889
▁dub	-4890
▁acqu	-4891
▁aims	-4892
▁busy	-4893
▁pure	-4894
▁Italy	-4895
▁review	-4896
▁Wickrem	-4897
▁Georgian	-4898
▁referend	-4899
▁austerity	-4900
ams	-4901
nan	-4902
fort	-4903
ques	-4904
▁Bet	-4905
▁uns	-4906
▁fate	-4907
▁wine	-4908
▁zone	-4909
▁firms	-4910
▁dwelled	-4911
▁reduced	-4912
▁aftermath	-4913
▁justified	-4914
oon	-4915
▁80	-4916
bath	-4917
▁Nep	-4918
▁1970	-4919
▁Bhut	-4920
▁regist	-4921
▁Dhanush	-4922
▁Peoples	-4923
▁legitim	-4924
▁underst	-4925
▁worship	-4926
▁includes	-4927
▁property	-4928
▁contradictions	-4929
rect	-4930
▁Don	-4931
▁Lib	-4932
▁Nay	-4933
▁sun	-4934
▁Serb	-4935
▁fulf	-4936
▁wedd	-4937
▁Federal	-4938
▁affairs	-4939
▁nationalism	-4940
▁participation	-4941
sed	-4942
osov	-4943
rafat	-4944
▁Bang	-4945
▁Port	-4946
▁bott	-4947
▁unle	-4948
▁arose	-4949
▁bombs	-4950
jection	-4951
▁Arafat	-4952
▁advant	-4953
▁elimin	-4954
▁stands	-4955
▁Muslims	-4956
▁Prakash	-4957
ocks	-4958
▁Eph	-4959
▁phys	-4960
▁Never	-4961
▁atroc	-4962
▁named	-4963
▁write	-4964
▁fallen	-4965
▁retain	-4966
▁satisf	-4967
▁Neither	-4968
▁achieve	-4969
▁therein	-4970
▁internal	-4971
▁pensions	-4972
▁prophets	-4973
▁rhetoric	-4974
▁dependent	-4975
▁plantation	-4976
fl	-4977
ps	-4978
pher	-4979
▁Day	-4980
▁PSG	-4981
▁cry	-4982
bered	-4983
organ	-4984
▁emph	-4985
▁Guard	-4986
▁begun	-4987
▁happy	-4988
▁smote	-4989
▁taxes	-4990
▁elites	-4991
▁titled	-4992
▁travel	-4993
▁attitude	-4994
ws	-4995
▁tal	-4996
adesh	-4997
▁Stud	-4998
▁bull	-4999
▁flag	-5000
atures	-5001
▁Kelly	-5002
▁Keral	-5003
▁paper	-5004
▁shows	-5005
▁white	-5006
controlled	-5007
▁generally	-5008
▁implications	-5009
500	-5010
ked	-5011
uled	-5012
▁plat	-5013
▁raid	-5014
icient	-5015
▁Kosov	-5016
▁equip	-5017
ishment	-5018
▁Bhutto	-5019
▁Kerala	-5020
▁filled	-5021
▁lifted	-5022
▁master	-5023
▁creation	-5024
▁opposing	-5025
▁circumstances	-5026
aka	-5027
ena	-5028
fet	-5029
rai	-5030
▁45	-5031
▁Em	-5032
aded	-5033
▁Int	-5034
▁bond	-5035
▁girl	-5036
coming	-5037
▁Frank	-5038
▁Jeeva	-5039
▁absol	-5040
▁goods	-5041
▁innoc	-5042
▁Poland	-5043
▁engine	-5044
▁stance	-5045
▁unrest	-5046
▁package	-5047
▁definite	-5048
▁exchange	-5049
▁overwhelming	-5050
.1	-5051
olas	-5052
▁Law	-5053
▁Red	-5054
akers	-5055
etary	-5056
▁Hezb	-5057
▁ones	-5058
▁Human	-5059
▁active	-5060
▁assert	-5061
▁sevent	-5062
▁element	-5063
▁holding	-5064
▁privile	-5065
▁unclean	-5066
▁agricult	-5067
▁resulted	-5068
democratic	-5069
▁reportedly	-5070
▁technology	-5071
run	-5072
▁Kir	-5073
▁Net	-5074
erson	-5075
▁dance	-5076
▁faced	-5077
▁Rights	-5078
▁burden	-5079
▁enterpr	-5080
▁perform	-5081
▁Ze	-5082
iant	-5083
▁UMP	-5084
rence	-5085
▁Also	-5086
▁High	-5087
▁Ital	-5088
▁sust	-5089
▁images	-5090
▁search	-5091
▁sovere	-5092
▁Srikanth	-5093
▁dialogue	-5094
▁detainees	-5095
▁domination	-5096
▁represented	-5097
aug	-5098
hile	-5099
oted	-5100
▁Ken	-5101
▁hom	-5102
▁UPFA	-5103
▁Where	-5104
▁boost	-5105
▁river	-5106
▁calcul	-5107
▁exceed	-5108
arations	-5109
▁hostile	-5110
▁activity	-5111
▁bombings	-5112
▁stability	-5113
▁inevitably	-5114
▁La	-5115
▁SA	-5116
ills	-5117
reas	-5118
astic	-5119
▁pict	-5120
▁pipe	-5121
▁stones	-5122
▁regimes	-5123
▁contrast	-5124
▁destabil	-5125
▁petition	-5126
▁teachers	-5127
▁Hezbollah	-5128
▁residents	-5129
▁suffering	-5130
▁presidency	-5131
▁competition	-5132
ibet	-5133
inghe	-5134
▁jail	-5135
▁lose	-5136
▁purch	-5137
▁Merkel	-5138
▁Philip	-5139
▁balance	-5140
▁admitted	-5141
▁bringing	-5142
▁Sathyaraj	-5143
▁acknowled	-5144
▁bankruptcy	-5145
▁membership	-5146
iny	-5147
▁Bas	-5148
aling	-5149
▁Beng	-5150
▁Opel	-5151
▁navy	-5152
▁sens	-5153
▁tree	-5154
▁train	-5155
esinghe	-5156
rations	-5157
▁cubits	-5158
▁impover	-5159
▁leaving	-5160
▁pursued	-5161
▁entitled	-5162
▁permanent	-5163
aped	-5164
long	-5165
▁Ven	-5166
▁ast	-5167
▁rat	-5168
agers	-5169
oured	-5170
rible	-5171
▁beat	-5172
▁begat	-5173
▁partner	-5174
▁household	-5175
▁maintained	-5176
adem	-5177
berg	-5178
▁Sub	-5179
▁erupt	-5180
▁sheep	-5181
▁split	-5182
▁preced	-5183
▁retire	-5184
▁dismant	-5185
▁suburbs	-5186
▁Stalinism	-5187
▁indication	-5188
▁bea	-5189
▁joy	-5190
▁suit	-5191
▁Rober	-5192
▁Tibet	-5193
▁overt	-5194
▁lessons	-5195
▁neighbour	-5196
▁connection	-5197
▁assassination	-5198
NA	-5199
SA	-5200
hag	-5201
aksh	-5202
▁rum	-5203
▁tri	-5204
nings	-5205
▁dise	-5206
▁flow	-5207
▁susp	-5208
▁cried	-5209
▁signs	-5210
assador	-5211
▁Cheney	-5212
▁Rather	-5213
▁Defense	-5214
▁Mahinda	-5215
▁culture	-5216
▁declare	-5217
▁electric	-5218
▁commander	-5219
▁dominated	-5220
▁initially	-5221
▁principle	-5222
ila	-5223
▁Dr	-5224
▁sav	-5225
▁rein	-5226
ischer	-5227
usions	-5228
▁Saudi	-5229
▁blind	-5230
▁Janatha	-5231
▁precise	-5232
▁increases	-5233
▁Wickremesinghe	-5234
It	-5235
▁UA	-5236
igan	-5237
▁City	-5238
▁bore	-5239
▁cove	-5240
▁gets	-5241
▁1,000	-5242
▁desol	-5243
▁loans	-5244
▁hardly	-5245
▁grounds	-5246
▁absolute	-5247
▁starring	-5248
▁dangerous	-5249
▁insurance	-5250
▁chauvinism	-5251
MK	-5252
▁sr	-5253
igar	-5254
▁Kal	-5255
▁Nam	-5256
heran	-5257
ospin	-5258
▁Mani	-5259
ension	-5260
▁aside	-5261
▁Jospin	-5262
▁severe	-5263
▁exposed	-5264
▁employment	-5265
rav	-5266
asan	-5267
raft	-5268
▁CPI	-5269
▁Ste	-5270
▁UNF	-5271
▁Sand	-5272
▁sett	-5273
▁wake	-5274
acific	-5275
ternet	-5276
▁fraud	-5277
▁worse	-5278
▁bloody	-5279
▁damage	-5280
▁weight	-5281
▁theatre	-5282
▁suggested	-5283
▁testimony	-5284
▁declaration	-5285
TA	-5286
US	-5287
▁31	-5288
▁Ga	-5289
▁Gl	-5290
fect	-5291
ieth	-5292
▁boyc	-5293
▁Haiti	-5294
▁apart	-5295
▁entry	-5296
▁Second	-5297
▁happen	-5298
▁recall	-5299
▁reduce	-5300
▁Michael	-5301
▁undersc	-5302
▁currency	-5303
▁abandoned	-5304
▁casualties	-5305
CP	-5306
olf	-5307
iram	-5308
lish	-5309
▁bid	-5310
ength	-5311
iling	-5312
▁Asse	-5313
▁path	-5314
▁Brown	-5315
▁Force	-5316
▁phone	-5317
▁steps	-5318
▁benefit	-5319
▁portray	-5320
▁univers	-5321
▁assembly	-5322
▁attended	-5323
▁yourself	-5324
▁completed	-5325
▁referendum	-5326
▁individuals	-5327
▁exploitation	-5328
equ	-5329
arya	-5330
▁Once	-5331
▁sick	-5332
▁Sudan	-5333
▁fourth	-5334
▁Several	-5335
▁Speaking	-5336
▁creating	-5337
▁entering	-5338
▁pipeline	-5339
▁desperate	-5340
▁threatening	-5341
CI	-5342
mal	-5343
rec	-5344
▁Il	-5345
ablo	-5346
▁Ele	-5347
▁ark	-5348
erate	-5349
▁Pers	-5350
▁chem	-5351
▁cust	-5352
▁audio	-5353
▁argued	-5354
▁bought	-5355
▁emphas	-5356
▁funding	-5357
▁wedding	-5358
▁Nevertheless	-5359
wan	-5360
▁75	-5361
▁Kad	-5362
▁Sne	-5363
▁idea	-5364
▁leaf	-5365
▁mist	-5366
▁rebu	-5367
▁size	-5368
stitute	-5369
▁contempt	-5370
▁temporary	-5371
▁devastating	-5372
sy	-5373
▁Att	-5374
▁NPA	-5375
▁rub	-5376
▁King	-5377
▁Italian	-5378
▁exports	-5379
▁kilomet	-5380
▁occupied	-5381
▁remaining	-5382
▁confrontation	-5383
aks	-5384
▁Hu	-5385
▁Op	-5386
hens	-5387
▁400	-5388
▁Rad	-5389
▁Rat	-5390
osing	-5391
while	-5392
▁1930	-5393
▁Benj	-5394
▁Serv	-5395
▁Paine	-5396
▁gross	-5397
aughter	-5398
▁double	-5399
▁English	-5400
▁defended	-5401
▁numerous	-5402
▁republic	-5403
ctr	-5404
▁Ol	-5405
▁Met	-5406
▁Sil	-5407
icial	-5408
▁Move	-5409
▁None	-5410
▁fair	-5411
▁gang	-5412
▁sequ	-5413
▁sort	-5414
▁sound	-5415
▁Kosovo	-5416
▁Prabhu	-5417
▁actually	-5418
▁deterior	-5419
▁heroines	-5420
▁transfer	-5421
anium	-5422
pound	-5423
▁drew	-5424
▁goal	-5425
▁outl	-5426
apital	-5427
▁Hamas	-5428
▁Press	-5429
▁crowd	-5430
▁reign	-5431
▁length	-5432
▁marked	-5433
▁undert	-5434
▁arrived	-5435
▁Whatever	-5436
▁operating	-5437
raim	-5438
▁Jon	-5439
▁htt	-5440
ekiah	-5441
ients	-5442
▁1997	-5443
▁amid	-5444
▁bare	-5445
▁halt	-5446
oughly	-5447
overed	-5448
▁Organ	-5449
▁mortg	-5450
▁Powell	-5451
▁closer	-5452
▁fields	-5453
▁handed	-5454
▁blessed	-5455
▁meaning	-5456
▁uranium	-5457
▁argument	-5458
▁Producers	-5459
▁confronting	-5460
▁implemented	-5461
adi	-5462
▁Guj	-5463
▁Isa	-5464
▁Pad	-5465
▁hum	-5466
erved	-5467
▁type	-5468
antara	-5469
▁euros	-5470
▁lived	-5471
▁seeks	-5472
▁Gujarat	-5473
▁Nicolas	-5474
▁dispute	-5475
▁dropped	-5476
▁explain	-5477
▁setting	-5478
▁utterly	-5479
▁Assembly	-5480
▁accompan	-5481
▁greatest	-5482
▁stressed	-5483
▁advantage	-5484
▁encourage	-5485
▁existence	-5486
▁screenplay	-5487
▁solidarity	-5488
mar	-5489
▁Es	-5490
asek	-5491
inger	-5492
polog	-5493
▁fine	-5494
▁http	-5495
▁hypo	-5496
▁imag	-5497
▁prove	-5498
▁praised	-5499
▁vessels	-5500
continent	-5501
▁formally	-5502
▁allegations	-5503
▁ww	-5504
▁Mun	-5505
▁PCF	-5506
▁img	-5507
▁src	-5508
▁www	-5509
andhi	-5510
▁Budd	-5511
▁Fund	-5512
▁Moab	-5513
▁pill	-5514
▁Nader	-5515
▁flood	-5516
▁courts	-5517
quarters	-5518
▁immense	-5519
▁Internet	-5520
▁provides	-5521
▁terrible	-5522
▁Nayantara	-5523
▁inflation	-5524
▁organized	-5525
▁unilateral	-5526
▁90	-5527
iced	-5528
▁Art	-5529
▁Shah	-5530
▁feed	-5531
▁mand	-5532
ashion	-5533
▁angel	-5534
▁crack	-5535
▁expos	-5536
▁march	-5537
▁ranks	-5538
▁stret	-5539
▁comedy	-5540
▁interp	-5541
▁mainly	-5542
▁appeals	-5543
▁drivers	-5544
▁thereby	-5545
▁Movement	-5546
▁accounts	-5547
▁compelled	-5548
▁appearance	-5549
▁relatively	-5550
oi	-5551
anc	-5552
gem	-5553
▁Bes	-5554
▁ric	-5555
▁onto	-5556
incial	-5557
▁inaug	-5558
▁naval	-5559
▁trees	-5560
▁views	-5561
▁applic	-5562
▁antiwar	-5563
▁complex	-5564
▁divided	-5565
▁prevail	-5566
▁approval	-5567
▁condition	-5568
▁contracts	-5569
▁mountains	-5570
▁Han	-5571
▁Vaj	-5572
ivelu	-5573
▁1995	-5574
▁vine	-5575
iences	-5576
▁Ameer	-5577
▁Pablo	-5578
▁afflic	-5579
▁elders	-5580
▁Ephraim	-5581
▁Fischer	-5582
▁Economic	-5583
▁breaking	-5584
▁decisions	-5585
▁tradition	-5586
bas	-5587
ita	-5588
▁vo	-5589
arsh	-5590
licop	-5591
▁Fall	-5592
▁Raja	-5593
▁lest	-5594
▁Films	-5595
▁angry	-5596
▁posed	-5597
▁resum	-5598
▁table	-5599
▁summer	-5600
▁contact	-5601
▁helicop	-5602
▁mountain	-5603
▁catastrop	-5604
▁undermine	-5605
▁compromise	-5606
▁importance	-5607
▁ultimately	-5608
▁accompanied	-5609
CL	-5610
bo	-5611
la	-5612
kra	-5613
▁id	-5614
▁sn	-5615
▁Nav	-5616
▁suc	-5617
payee	-5618
▁slew	-5619
▁wise	-5620
▁accus	-5621
▁Before	-5622
▁Bengal	-5623
▁agents	-5624
▁listen	-5625
▁orient	-5626
▁capable	-5627
▁minimum	-5628
▁replace	-5629
▁succeed	-5630
▁Vajpayee	-5631
▁innocent	-5632
▁intended	-5633
▁probably	-5634
▁subsidies	-5635
aja	-5636
▁CE	-5637
▁Ku	-5638
haps	-5639
▁Vim	-5640
adhal	-5641
▁slow	-5642
▁whip	-5643
▁wors	-5644
▁slain	-5645
▁Korean	-5646
▁degree	-5647
▁escape	-5648
▁except	-5649
▁judges	-5650
▁thanks	-5651
▁Special	-5652
▁falling	-5653
▁targets	-5654
▁writing	-5655
▁payments	-5656
osl	-5657
uru	-5658
born	-5659
inte	-5660
ading	-5661
verse	-5662
▁mach	-5663
▁seat	-5664
▁stem	-5665
▁conte	-5666
▁League	-5667
▁Robert	-5668
▁accord	-5669
▁decide	-5670
▁Pacific	-5671
▁someone	-5672
▁billions	-5673
▁chemical	-5674
▁original	-5675
▁extremist	-5676
uous	-5677
overy	-5678
▁Deep	-5679
▁gain	-5680
▁hall	-5681
▁liqu	-5682
▁ruth	-5683
▁sake	-5684
▁util	-5685
▁beast	-5686
▁Jacques	-5687
▁Benjamin	-5688
▁governor	-5689
▁occasion	-5690
▁ruthless	-5691
▁sufficient	-5692
▁Ce	-5693
▁wish	-5694
▁lyric	-5695
▁posts	-5696
▁sched	-5697
▁urban	-5698
▁urged	-5699
▁estate	-5700
▁myself	-5701
▁recomm	-5702
▁twelve	-5703
▁ignored	-5704
▁sending	-5705
▁democrat	-5706
▁interrog	-5707
▁commitment	-5708
▁compensation	-5709
ba	-5710
ks	-5711
oam	-5712
oms	-5713
▁fre	-5714
▁gri	-5715
▁Roman	-5716
▁honor	-5717
▁10,000	-5718
ventions	-5719
▁counsel	-5720
▁exploit	-5721
▁capacity	-5722
▁prosecut	-5723
▁striking	-5724
▁ambassador	-5725
▁criticised	-5726
▁understood	-5727
▁deliberately	-5728
SP	-5729
SU	-5730
mad	-5731
bted	-5732
▁cyn	-5733
▁ears	-5734
▁obst	-5735
▁reck	-5736
▁motiv	-5737
▁space	-5738
respond	-5739
▁fisher	-5740
▁proved	-5741
▁Senator	-5742
▁discont	-5743
▁expense	-5744
▁trouble	-5745
▁western	-5746
▁prospect	-5747
government	-5748
▁ambitions	-5749
▁twentieth	-5750
▁conclusion	-5751
▁Constitution	-5752
jp	-5753
asp	-5754
upp	-5755
eman	-5756
fety	-5757
▁CPM	-5758
▁Gop	-5759
▁opt	-5760
alyst	-5761
andal	-5762
▁2010	-5763
▁Kong	-5764
▁Tham	-5765
▁excl	-5766
▁sins	-5767
▁wood	-5768
▁Three	-5769
▁naked	-5770
▁sales	-5771
▁chance	-5772
▁safety	-5773
▁welcom	-5774
▁wisdom	-5775
▁invited	-5776
▁suddenly	-5777
▁threatens	-5778
boo	-5779
bre	-5780
izh	-5781
raz	-5782
aden	-5783
iran	-5784
▁geo	-5785
▁mil	-5786
▁Hong	-5787
▁Sury	-5788
▁Ukra	-5789
▁dece	-5790
▁spot	-5791
ushboo	-5792
▁enrich	-5793
▁intent	-5794
▁pursue	-5795
▁speaks	-5796
▁thirty	-5797
▁airport	-5798
▁villain	-5799
▁Madhavan	-5800
▁Vadivelu	-5801
▁accident	-5802
▁extended	-5803
▁dismissed	-5804
▁processes	-5805
▁witnesses	-5806
▁Chancellor	-5807
▁industries	-5808
▁yourselves	-5809
▁provocative	-5810
di	-5811
jun	-5812
uan	-5813
▁Ay	-5814
▁ox	-5815
▁Abu	-5816
▁unf	-5817
party	-5818
▁vice	-5819
▁decis	-5820
▁elder	-5821
▁embra	-5822
▁natur	-5823
▁apolog	-5824
▁awards	-5825
▁exclud	-5826
▁quoted	-5827
▁remove	-5828
▁facilit	-5829
▁communic	-5830
▁cultural	-5831
▁documents	-5832
▁overthrow	-5833
▁relatives	-5834
▁headquarters	-5835
asm	-5836
mail	-5837
▁Pop	-5838
▁Pre	-5839
itors	-5840
▁hopes	-5841
▁Author	-5842
▁Malays	-5843
▁minutes	-5844
▁restrictions	-5845
▁demonstrators	-5846
cho	-5847
ips	-5848
jpg	-5849
lem	-5850
osh	-5851
ujah	-5852
▁UAW	-5853
amuna	-5854
▁Asin	-5855
▁guer	-5856
▁rede	-5857
▁riot	-5858
▁Krish	-5859
▁consp	-5860
▁poore	-5861
▁crores	-5862
▁struck	-5863
▁contain	-5864
▁letters	-5865
▁showing	-5866
▁opposite	-5867
▁continent	-5868
▁surrounding	-5869
ux	-5870
ati	-5871
pri	-5872
body	-5873
olic	-5874
▁Tony	-5875
▁prem	-5876
terror	-5877
▁Again	-5878
▁Nepal	-5879
▁Sneha	-5880
▁brass	-5881
▁chari	-5882
▁risen	-5883
▁rules	-5884
▁Jewish	-5885
▁affect	-5886
▁couple	-5887
▁lawyer	-5888
▁suffer	-5889
▁walked	-5890
▁content	-5891
▁covered	-5892
▁wealthy	-5893
▁neighbor	-5894
▁platform	-5895
▁trillion	-5896
▁welcomed	-5897
▁discussed	-5898
▁extremely	-5899
▁recommend	-5900
▁worldwide	-5901
▁correspond	-5902
▁protesters	-5903
▁catastrophe	-5904
▁generations	-5905
DF	-5906
WC	-5907
ilty	-5908
aches	-5909
ulate	-5910
▁1960	-5911
▁sets	-5912
rative	-5913
▁alien	-5914
▁looks	-5915
▁orders	-5916
▁rescue	-5917
national	-5918
▁Justice	-5919
▁Without	-5920
▁smaller	-5921
▁waiting	-5922
▁Peramuna	-5923
▁factories	-5924
▁regarding	-5925
▁establishing	-5926
ih	-5927
ela	-5928
▁Jy	-5929
▁Ph	-5930
afon	-5931
unal	-5932
▁Sir	-5933
▁der	-5934
▁lab	-5935
▁mal	-5936
iscal	-5937
taine	-5938
▁Char	-5939
▁empt	-5940
▁Buddh	-5941
▁Karun	-5942
▁Treas	-5943
▁fired	-5944
▁limit	-5945
▁artist	-5946
▁bottom	-5947
▁guilty	-5948
▁larger	-5949
▁pieces	-5950
▁tribes	-5951
pressive	-5952
▁amongst	-5953
▁clothes	-5954
▁persons	-5955
▁backward	-5956
▁isolated	-5957
▁elsewhere	-5958
▁reference	-5959
▁convention	-5960
▁protracted	-5961
80	-5962
ane	-5963
ein	-5964
fare	-5965
resh	-5966
▁bed	-5967
icket	-5968
under	-5969
atters	-5970
▁width	-5971
▁wonder	-5972
▁college	-5973
▁offices	-5974
▁reigned	-5975
▁sabbath	-5976
▁Northern	-5977
▁exercise	-5978
▁killings	-5979
▁orientation	-5980
▁impoverished	-5981
.9	-5982
een	-5983
▁2,	-5984
▁IA	-5985
riot	-5986
▁Cub	-5987
▁Yug	-5988
▁ano	-5989
scale	-5990
▁Selv	-5991
▁desp	-5992
▁Vimuk	-5993
▁piece	-5994
▁column	-5995
▁Marxist	-5996
▁context	-5997
▁correct	-5998
▁refugee	-5999
▁betrayal	-6000
▁factions	-6001
▁workforce	-6002
▁journalist	-6003
kh	-6004
▁AV	-6005
▁Hy	-6006
rous	-6007
▁Kay	-6008
▁cul	-6009
▁sex	-6010
▁Bach	-6011
▁Dias	-6012
illing	-6013
istics	-6014
▁eager	-6015
▁equal	-6016
▁grave	-6017
▁assess	-6018
▁throne	-6019
▁Through	-6020
▁pledged	-6021
▁prosper	-6022
afontaine	-6023
▁festival	-6024
▁discontent	-6025
▁permission	-6026
ao	-6027
aik	-6028
illa	-6029
▁Neb	-6030
▁blow	-6031
▁loan	-6032
Americ	-6033
▁Latin	-6034
▁draft	-6035
▁fifty	-6036
▁moves	-6037
▁Within	-6038
▁decent	-6039
▁moving	-6040
▁perpet	-6041
▁plants	-6042
▁united	-6043
▁demagog	-6044
▁missile	-6045
▁featuring	-6046
▁precisely	-6047
▁Prakashraj	-6048
▁escalation	-6049
vo	-6050
ads	-6051
awi	-6052
ima	-6053
ode	-6054
alle	-6055
▁Che	-6056
▁Band	-6057
▁Here	-6058
▁Take	-6059
▁cens	-6060
▁pain	-6061
▁trip	-6062
iction	-6063
rating	-6064
▁Putin	-6065
▁hegem	-6066
▁param	-6067
▁troub	-6068
▁waged	-6069
▁deport	-6070
▁design	-6071
▁condemn	-6072
▁discred	-6073
▁Khushboo	-6074
▁Vimukthi	-6075
▁specific	-6076
▁Institute	-6077
▁discrimin	-6078
▁scheduled	-6079
▁Lafontaine	-6080
▁electricity	-6081
iar	-6082
onom	-6083
eless	-6084
iable	-6085
▁Camp	-6086
▁fier	-6087
▁toll	-6088
▁Timor	-6089
▁Suryah	-6090
▁amounts	-6091
▁crucial	-6092
▁fashion	-6093
▁promise	-6094
▁putting	-6095
▁renewed	-6096
▁Fallujah	-6097
▁allowing	-6098
▁eruption	-6099
▁dialogues	-6100
▁hospitals	-6101
▁deployment	-6102
▁resignation	-6103
nty	-6104
uthu	-6105
▁AVM	-6106
▁Dev	-6107
▁Hit	-6108
▁god	-6109
ashes	-6110
popul	-6111
▁Nazi	-6112
▁reli	-6113
▁Jerem	-6114
▁feast	-6115
▁indef	-6116
▁Canada	-6117
▁caught	-6118
▁traged	-6119
▁Popular	-6120
▁appoint	-6121
▁centres	-6122
political	-6123
▁targeted	-6124
▁vehicles	-6125
▁kilometres	-6126
▁registered	-6127
▁intensified	-6128
org	-6129
▁Gh	-6130
▁Va	-6131
face	-6132
▁Are	-6133
▁dow	-6134
angam	-6135
enced	-6136
ignty	-6137
ommod	-6138
quest	-6139
uting	-6140
▁1989	-6141
▁Cana	-6142
▁Dani	-6143
▁Gene	-6144
▁clim	-6145
▁iron	-6146
▁moral	-6147
▁truly	-6148
▁units	-6149
▁usual	-6150
▁cattle	-6151
▁heroes	-6152
▁liquid	-6153
▁rebell	-6154
▁stayed	-6155
▁teleph	-6156
▁uncond	-6157
▁Bharath	-6158
▁boycott	-6159
▁complic	-6160
▁cutting	-6161
▁inaugur	-6162
▁informed	-6163
▁Authority	-6164
▁delegates	-6165
▁Stalinists	-6166
▁oppression	-6167
burg	-6168
roso	-6169
▁Heb	-6170
▁gro	-6171
epend	-6172
iller	-6173
▁Wolf	-6174
alling	-6175
▁abuse	-6176
▁unite	-6177
▁tribal	-6178
ordinary	-6179
▁climate	-6180
▁intense	-6181
▁division	-6182
▁screened	-6183
▁defending	-6184
▁effective	-6185
▁insisting	-6186
▁necessity	-6187
pro	-6188
ixed	-6189
ompl	-6190
▁Off	-6191
craft	-6192
oslav	-6193
▁Beth	-6194
▁IAEA	-6195
▁didn	-6196
▁drop	-6197
▁lamb	-6198
▁sees	-6199
▁trig	-6200
▁Abbas	-6201
▁Music	-6202
▁arbit	-6203
▁vital	-6204
▁wrath	-6205
▁Cheran	-6206
▁Geneva	-6207
▁Polish	-6208
▁motion	-6209
▁Namitha	-6210
▁herself	-6211
▁sharply	-6212
▁accommod	-6213
▁compound	-6214
▁starting	-6215
▁emergence	-6216
▁notorious	-6217
▁structure	-6218
▁controlled	-6219
▁encouraged	-6220
▁sovereignty	-6221
eal	-6222
alia	-6223
emed	-6224
iolog	-6225
oboam	-6226
▁rain	-6227
▁stag	-6228
▁thor	-6229
iments	-6230
▁exact	-6231
▁focus	-6232
▁explan	-6233
▁feared	-6234
▁accompl	-6235
▁treated	-6236
▁composer	-6237
▁contrary	-6238
▁deployed	-6239
▁militant	-6240
▁occurred	-6241
▁equipment	-6242
▁businesses	-6243
▁subsequent	-6244
▁experiences	-6245
pin	-6246
idhi	-6247
nant	-6248
ught	-6249
▁Rav	-6250
▁fee	-6251
antic	-6252
armed	-6253
ician	-6254
arajan	-6255
▁Isaac	-6256
▁amend	-6257
▁displ	-6258
▁green	-6259
▁pleas	-6260
▁proof	-6261
▁Portug	-6262
▁assemb	-6263
▁Yugoslav	-6264
▁practice	-6265
▁actresses	-6266
▁formation	-6267
▁subcontinent	-6268
▁extraordinary	-6269
▁Sy	-6270
▁Ur	-6271
iary	-6272
with	-6273
▁Ali	-6274
▁lad	-6275
▁ven	-6276
pping	-6277
▁shif	-6278
▁Group	-6279
▁doors	-6280
▁tanks	-6281
▁Andhra	-6282
▁Canaan	-6283
▁Vishal	-6284
▁disast	-6285
▁hunger	-6286
▁proced	-6287
▁script	-6288
▁values	-6289
▁coordin	-6290
▁playing	-6291
▁portion	-6292
▁whoever	-6293
▁estimates	-6294
▁extensive	-6295
▁difference	-6296
▁provincial	-6297
▁acknowledged	-6298
gs	-6299
uz	-6300
ole	-6301
ancy	-6302
arin	-6303
comm	-6304
▁Kan	-6305
cular	-6306
ifies	-6307
utham	-6308
▁Vive	-6309
▁hang	-6310
▁soft	-6311
▁2,000	-6312
▁hypoc	-6313
▁revol	-6314
attered	-6315
▁Forces	-6316
▁Rehman	-6317
▁attract	-6318
▁granted	-6319
▁keeping	-6320
▁missiles	-6321
▁controvers	-6322
▁scientific	-6323
▁37	-6324
emen	-6325
▁Vel	-6326
▁ded	-6327
▁acce	-6328
▁tent	-6329
▁tour	-6330
▁style	-6331
▁Gandhi	-6332
▁Stalin	-6333
▁barely	-6334
▁blamed	-6335
▁disrupt	-6336
▁evident	-6337
▁reorgan	-6338
▁silence	-6339
▁explicit	-6340
▁nomination	-6341
▁preparations	-6342
▁fundamentalist	-6343
yan	-6344
onde	-6345
rade	-6346
▁Dam	-6347
▁Sea	-6348
▁pup	-6349
uties	-6350
▁Pras	-6351
▁Shar	-6352
▁abol	-6353
rising	-6354
▁asser	-6355
▁forty	-6356
▁repro	-6357
▁Ceylon	-6358
▁Daniel	-6359
▁buried	-6360
▁center	-6361
▁erupted	-6362
▁improve	-6363
▁appropri	-6364
▁historic	-6365
▁remember	-6366
▁immigrant	-6367
▁approached	-6368
▁proclaimed	-6369
▁demonstrate	-6370
▁prosecution	-6371
▁manufacturing	-6372
bus	-6373
gal	-6374
uts	-6375
what	-6376
▁150	-6377
▁Ari	-6378
▁Ash	-6379
aints	-6380
akkam	-6381
iraja	-6382
▁Jack	-6383
▁Vice	-6384
▁harm	-6385
▁pret	-6386
▁surre	-6387
▁abomin	-6388
▁weapon	-6389
▁analyst	-6390
▁equality	-6391
▁surprise	-6392
▁buildings	-6393
▁explosive	-6394
▁happening	-6395
▁incidents	-6396
▁foundations	-6397
kn	-6398
oul	-6399
▁Ke	-6400
gged	-6401
▁bon	-6402
assed	-6403
orted	-6404
poses	-6405
uries	-6406
action	-6407
icious	-6408
market	-6409
▁Daily	-6410
▁gains	-6411
▁newly	-6412
▁radio	-6413
▁speed	-6414
oration	-6415
▁choose	-6416
▁pushed	-6417
▁thrown	-6418
▁dangers	-6419
▁regular	-6420
▁rejoice	-6421
▁stories	-6422
▁achieved	-6423
▁captured	-6424
▁darkness	-6425
▁experien	-6426
▁straight	-6427
▁Trotskyist	-6428
▁complained	-6429
▁identified	-6430
▁signatures	-6431
▁commandments	-6432
mig	-6433
oja	-6434
kers	-6435
▁Dar	-6436
▁ICF	-6437
▁Ran	-6438
▁fame	-6439
▁plun	-6440
▁James	-6441
▁Monde	-6442
▁align	-6443
▁empty	-6444
▁fifth	-6445
▁penal	-6446
▁score	-6447
▁Hitler	-6448
▁fiscal	-6449
▁mechan	-6450
▁weaken	-6451
▁writes	-6452
poration	-6453
▁session	-6454
▁totally	-6455
▁Guardian	-6456
▁appealed	-6457
▁somewhat	-6458
▁Government	-6459
▁indefinite	-6460
▁legitimate	-6461
DS	-6462
ox	-6463
ius	-6464
met	-6465
rah	-6466
utt	-6467
▁Rs	-6468
▁Pas	-6469
▁mov	-6470
▁ram	-6471
beral	-6472
orney	-6473
▁ICFI	-6474
▁Mart	-6475
▁glam	-6476
▁symb	-6477
▁alive	-6478
▁touch	-6479
▁Assyri	-6480
▁racist	-6481
▁Hundred	-6482
▁Thankar	-6483
▁consult	-6484
▁feature	-6485
▁resolve	-6486
▁winning	-6487
▁Treasury	-6488
▁overcome	-6489
▁overseas	-6490
ordination	-6491
▁addressed	-6492
▁exception	-6493
▁atrocities	-6494
▁foundation	-6495
▁developments	-6496
Ch	-6497
▁hur	-6498
▁Ange	-6499
▁Kand	-6500
▁impr	-6501
akshmi	-6502
resent	-6503
▁About	-6504
▁saved	-6505
▁upper	-6506
▁Island	-6507
▁Samuel	-6508
▁camera	-6509
▁losing	-6510
▁resort	-6511
▁Kaadhal	-6512
▁banking	-6513
▁greatly	-6514
▁assassin	-6515
▁obtained	-6516
▁religion	-6517
▁standard	-6518
▁suspects	-6519
▁provision	-6520
▁sanctuary	-6521
▁instrument	-6522
▁recognition	-6523
wa	-6524
hak	-6525
iff	-6526
rel	-6527
esty	-6528
▁Tai	-6529
▁Van	-6530
▁fem	-6531
▁van	-6532
asseh	-6533
▁Cold	-6534
▁abst	-6535
▁hide	-6536
▁Azhag	-6537
▁links	-6538
▁throw	-6539
▁Public	-6540
▁asking	-6541
▁rebels	-6542
▁acceler	-6543
▁closure	-6544
▁perhaps	-6545
▁provoke	-6546
▁science	-6547
▁Jeremiah	-6548
▁Manasseh	-6549
▁constitu	-6550
▁economies	-6551
▁launching	-6552
▁initiative	-6553
▁profession	-6554
uff	-6555
anna	-6556
iyar	-6557
▁CWC	-6558
▁dil	-6559
▁Inte	-6560
▁Pand	-6561
▁Sent	-6562
▁Till	-6563
▁grad	-6564
▁race	-6565
▁vide	-6566
apable	-6567
ilarly	-6568
▁camer	-6569
▁doctr	-6570
▁shout	-6571
ography	-6572
▁beasts	-6573
▁borrow	-6574
▁conven	-6575
▁hearts	-6576
▁suprem	-6577
▁Persian	-6578
▁autonom	-6579
▁outrage	-6580
▁railway	-6581
▁withdra	-6582
▁Hundreds	-6583
▁consolid	-6584
▁desolate	-6585
▁strongly	-6586
▁attacking	-6587
▁highlight	-6588
▁negotiated	-6589
col	-6590
make	-6591
▁Ary	-6592
▁USS	-6593
ilead	-6594
▁Holy	-6595
▁Zeit	-6596
▁cash	-6597
▁slay	-6598
insula	-6599
▁greet	-6600
▁perse	-6601
▁stake	-6602
affarin	-6603
ignific	-6604
▁matters	-6605
▁shortly	-6606
▁reflects	-6607
▁relation	-6608
▁subordin	-6609
▁reflected	-6610
▁requested	-6611
▁integration	-6612
▁speculation	-6613
chi	-6614
kat	-6615
▁65	-6616
mosp	-6617
▁191	-6618
▁MPs	-6619
▁Sab	-6620
ially	-6621
orial	-6622
rance	-6623
rific	-6624
▁Balk	-6625
▁Bern	-6626
▁Chal	-6627
▁stir	-6628
▁thug	-6629
anidhi	-6630
engers	-6631
▁Major	-6632
▁Scott	-6633
▁Vivek	-6634
▁autom	-6635
▁holds	-6636
▁logic	-6637
▁remem	-6638
▁roots	-6639
▁wives	-6640
▁Reagan	-6641
▁banned	-6642
▁margin	-6643
▁resist	-6644
▁shield	-6645
election	-6646
▁refusal	-6647
▁wherein	-6648
▁confusion	-6649
▁intervene	-6650
▁resulting	-6651
▁slaughter	-6652
▁executives	-6653
▁congressional	-6654
ura	-6655
iful	-6656
ndra	-6657
star	-6658
unic	-6659
uram	-6660
▁Gau	-6661
▁Nat	-6662
ronic	-6663
▁Comp	-6664
▁Deva	-6665
▁Nadu	-6666
▁aspir	-6667
▁sweet	-6668
▁truck	-6669
▁Office	-6670
▁academ	-6671
▁adding	-6672
▁comput	-6673
▁notice	-6674
▁believes	-6675
▁threaten	-6676
▁complaint	-6677
▁receiving	-6678
▁Federation	-6679
▁criticisms	-6680
▁respective	-6681
▁transgress	-6682
▁association	-6683
▁regulations	-6684
bl	-6685
hya	-6686
azar	-6687
look	-6688
▁Mir	-6689
▁Mur	-6690
appan	-6691
▁ends	-6692
▁enth	-6693
othing	-6694
▁blame	-6695
▁fresh	-6696
▁atmosp	-6697
▁slight	-6698
▁valley	-6699
▁writer	-6700
▁profess	-6701
▁proport	-6702
▁composed	-6703
▁coverage	-6704
▁peasants	-6705
▁provisions	-6706
▁underlying	-6707
▁proceedings	-6708
▁consciousness	-6709
bek	-6710
sal	-6711
▁PT	-6712
adow	-6713
utsc	-6714
▁CEO	-6715
▁Das	-6716
▁Det	-6717
▁Jyot	-6718
▁data	-6719
▁Brand	-6720
▁Karth	-6721
▁Nagar	-6722
▁deals	-6723
▁range	-6724
▁trump	-6725
▁wound	-6726
▁brings	-6727
▁convin	-6728
▁ending	-6729
▁pushing	-6730
▁raising	-6731
▁annivers	-6732
▁recovery	-6733
▁Indonesia	-6734
▁initiated	-6735
▁newspapers	-6736
DA	-6737
sl	-6738
ont	-6739
▁Ko	-6740
cute	-6741
▁Oru	-6742
▁Vas	-6743
aired	-6744
known	-6745
▁1994	-6746
▁Arya	-6747
▁Joab	-6748
▁Madu	-6749
▁club	-6750
▁sans	-6751
▁dozen	-6752
▁gates	-6753
▁horse	-6754
▁twice	-6755
▁Taiwan	-6756
▁beside	-6757
▁burned	-6758
▁extend	-6759
▁100,000	-6760
▁cinemat	-6761
▁statutes	-6762
sp	-6763
▁Lie	-6764
▁Rel	-6765
▁adj	-6766
▁vac	-6767
ecess	-6768
itter	-6769
▁deny	-6770
▁disg	-6771
▁reti	-6772
▁seas	-6773
asions	-6774
▁Count	-6775
▁Meera	-6776
▁frequ	-6777
▁layer	-6778
▁spons	-6779
liberal	-6780
▁famous	-6781
ximately	-6782
▁bombard	-6783
▁managed	-6784
▁reacted	-6785
▁hegemony	-6786
▁predecess	-6787
▁prevented	-6788
▁provinces	-6789
▁reduction	-6790
▁salvation	-6791
▁standpoint	-6792
▁anniversary	-6793
vt	-6794
ema	-6795
ras	-6796
ugh	-6797
▁Ap	-6798
ateg	-6799
sion	-6800
▁exc	-6801
▁mun	-6802
▁ois	-6803
olved	-6804
▁1996	-6805
▁Hall	-6806
arayan	-6807
▁Gaull	-6808
▁depri	-6809
▁spoil	-6810
▁dozens	-6811
▁lyrics	-6812
▁unlike	-6813
▁viewed	-6814
▁Gautham	-6815
▁anticip	-6816
▁founded	-6817
▁joining	-6818
▁tragedy	-6819
▁predomin	-6820
▁promoted	-6821
▁referred	-6822
▁gathering	-6823
▁intensify	-6824
▁atmosphere	-6825
▁preparation	-6826
-19	-6827
abh	-6828
net	-6829
assy	-6830
enon	-6831
hour	-6832
ocal	-6833
▁Bay	-6834
▁Los	-6835
ricts	-6836
umped	-6837
▁glad	-6838
▁hair	-6839
▁trem	-6840
icated	-6841
▁3,000	-6842
▁categ	-6843
▁waste	-6844
▁church	-6845
▁linked	-6846
▁salary	-6847
▁vision	-6848
▁Ukraine	-6849
▁doctors	-6850
▁failing	-6851
▁militia	-6852
▁poorest	-6853
▁readers	-6854
▁telling	-6855
▁numbered	-6856
▁pursuing	-6857
▁fishermen	-6858
▁eventually	-6859
▁possession	-6860
▁retirement	-6861
▁commandment	-6862
▁counterpart	-6863
ga	-6864
▁Py	-6865
▁Up	-6866
oded	-6867
▁dru	-6868
▁cler	-6869
▁ment	-6870
▁Jayam	-6871
▁Trans	-6872
▁causes	-6873
▁exclus	-6874
▁reward	-6875
▁scheme	-6876
position	-6877
▁Senthil	-6878
▁display	-6879
▁helping	-6880
▁retired	-6881
▁talking	-6882
▁declined	-6883
▁likewise	-6884
▁pressing	-6885
▁replaced	-6886
▁reporter	-6887
▁Hollywood	-6888
▁Islamabad	-6889
▁extremists	-6890
▁legitimacy	-6891
▁difficulties	-6892
RC	-6893
▁IG	-6894
▁ax	-6895
▁typ	-6896
asser	-6897
ether	-6898
idden	-6899
▁echo	-6900
▁mono	-6901
▁note	-6902
▁qual	-6903
▁rank	-6904
▁Peace	-6905
▁Raman	-6906
▁guerr	-6907
▁mayor	-6908
▁apprec	-6909
▁compar	-6910
▁option	-6911
American	-6912
▁becomes	-6913
▁channel	-6914
▁fascist	-6915
▁marched	-6916
▁perfect	-6917
▁predict	-6918
▁speaker	-6919
▁Lebanese	-6920
▁Raffarin	-6921
▁decisive	-6922
▁purposes	-6923
▁districts	-6924
▁officially	-6925
bon	-6926
▁Er	-6927
iang	-6928
waran	-6929
▁Shak	-6930
▁olig	-6931
▁stim	-6932
▁accum	-6933
▁dealt	-6934
▁plain	-6935
▁Arabia	-6936
▁afford	-6937
▁enthus	-6938
▁forest	-6939
▁shares	-6940
▁fishing	-6941
▁interim	-6942
▁unpopul	-6943
struction	-6944
▁Jonathan	-6945
▁defeated	-6946
▁rational	-6947
▁militants	-6948
▁chancellor	-6949
▁suppression	-6950
▁transformation	-6951
NC	-6952
bal	-6953
odi	-6954
adas	-6955
iavo	-6956
usamy	-6957
▁dust	-6958
▁rall	-6959
▁Arist	-6960
▁arise	-6961
▁grown	-6962
▁loyal	-6963
▁Center	-6964
▁Spirit	-6965
▁famine	-6966
▁wishes	-6967
ographer	-6968
▁Schiavo	-6969
▁install	-6970
▁Malaysia	-6971
▁aircraft	-6972
▁doctrine	-6973
▁Bollywood	-6974
▁captivity	-6975
▁villagers	-6976
▁sentiments	-6977
▁publication	-6978
▁unconditional	-6979
xic	-6980
azir	-6981
▁Bol	-6982
▁Bund	-6983
▁brid	-6984
▁inse	-6985
▁shel	-6986
▁loved	-6987
▁belief	-6988
▁courage	-6989
▁heathen	-6990
▁postpon	-6991
▁Independ	-6992
▁Monetary	-6993
▁identity	-6994
▁imprison	-6995
▁instance	-6996
▁mortgage	-6997
▁stranger	-6998
▁theatres	-6999
▁supporter	-7000
▁confronted	-7001
▁department	-7002
-4	-7003
BI	-7004
ook	-7005
uct	-7006
This	-7007
ilst	-7008
offs	-7009
▁CSU	-7010
▁Kod	-7011
chers	-7012
hamed	-7013
▁lift	-7014
▁sole	-7015
▁tong	-7016
▁urge	-7017
aneous	-7018
rained	-7019
▁flock	-7020
▁manip	-7021
▁tough	-7022
▁Govern	-7023
▁disarm	-7024
▁normal	-7025
▁strang	-7026
▁unless	-7027
▁follows	-7028
▁incense	-7029
▁overall	-7030
▁primary	-7031
▁soldier	-7032
▁systems	-7033
▁repressive	-7034
▁supposedly	-7035
▁thoroughly	-7036
▁transnational	-7037
hr	-7038
lex	-7039
▁et	-7040
ogan	-7041
ples	-7042
▁PPP	-7043
▁Reg	-7044
apped	-7045
▁Prov	-7046
▁govt	-7047
▁runs	-7048
▁ideas	-7049
▁survey	-7050
▁blocked	-7051
▁concept	-7052
▁forcing	-7053
▁prophes	-7054
▁Hezekiah	-7055
▁conspira	-7056
▁emerging	-7057
▁allegedly	-7058
▁confident	-7059
▁submitted	-7060
▁collective	-7061
▁inevitable	-7062
▁tendencies	-7063
occ	-7064
▁Cy	-7065
▁Pa	-7066
nger	-7067
raph	-7068
▁era	-7069
acted	-7070
▁Come	-7071
▁Mark	-7072
▁USSR	-7073
▁crew	-7074
▁fors	-7075
▁rent	-7076
▁summ	-7077
▁text	-7078
asting	-7079
▁frust	-7080
▁recru	-7081
▁shame	-7082
▁sleep	-7083
▁thugs	-7084
▁Donald	-7085
▁Indust	-7086
▁contra	-7087
▁Angeles	-7088
▁seventh	-7089
▁younger	-7090
▁Interior	-7091
▁positive	-7092
▁sanction	-7093
▁exploited	-7094
▁telephone	-7095
▁enterprises	-7096
irc	-7097
▁Ly	-7098
oeuv	-7099
well	-7100
▁Vid	-7101
▁corn	-7102
▁lion	-7103
▁Arjun	-7104
▁cance	-7105
▁polar	-7106
ocation	-7107
▁endors	-7108
▁shadow	-7109
▁Madurai	-7110
▁Samaria	-7111
▁clashes	-7112
▁conting	-7113
▁disease	-7114
▁peasant	-7115
▁Aristide	-7116
▁finished	-7117
▁broadcast	-7118
▁displaced	-7119
▁Convention	-7120
▁absolutely	-7121
▁sacrifices	-7122
▁instability	-7123
▁commentators	-7124
umi	-7125
gian	-7126
▁600	-7127
▁Min	-7128
▁tim	-7129
ensus	-7130
level	-7131
▁Aish	-7132
▁Brus	-7133
▁Fort	-7134
▁touc	-7135
▁roads	-7136
▁wider	-7137
▁Pradesh	-7138
▁Zionist	-7139
▁restore	-7140
▁peaceful	-7141
▁resolved	-7142
▁tactical	-7143
▁assembled	-7144
▁extension	-7145
▁fulfilled	-7146
▁transform	-7147
▁definitely	-7148
▁explanation	-7149
▁fundamentally	-7150
▁justification	-7151
--	-7152
apo	-7153
gar	-7154
nar	-7155
thy	-7156
▁ep	-7157
abul	-7158
ipit	-7159
scar	-7160
▁Ill	-7161
▁hat	-7162
▁hid	-7163
▁vul	-7164
▁Naan	-7165
▁anim	-7166
▁earn	-7167
▁fool	-7168
▁Bless	-7169
▁books	-7170
▁chose	-7171
▁facts	-7172
▁reass	-7173
▁toler	-7174
ogether	-7175
▁actual	-7176
▁breach	-7177
▁expend	-7178
▁outbre	-7179
▁proven	-7180
▁theory	-7181
▁convers	-7182
▁lawyers	-7183
▁pursuit	-7184
▁surface	-7185
▁Brussels	-7186
▁accusing	-7187
▁connections	-7188
▁partnership	-7189
▁agricultural	-7190
▁neighbouring	-7191
-2	-7192
ny	-7193
unk	-7194
anam	-7195
ilee	-7196
▁Say	-7197
order	-7198
▁5,000	-7199
▁guest	-7200
▁liter	-7201
▁scrib	-7202
illepin	-7203
▁Agency	-7204
▁fellow	-7205
▁poured	-7206
▁ashamed	-7207
▁burning	-7208
▁driving	-7209
▁mandate	-7210
▁manoeuv	-7211
▁promote	-7212
▁secular	-7213
▁Students	-7214
▁covering	-7215
▁productive	-7216
▁essentially	-7217
▁potentially	-7218
▁willingness	-7219
Is	-7220
SO	-7221
gl	-7222
spe	-7223
▁CN	-7224
aved	-7225
enot	-7226
ware	-7227
▁192	-7228
▁Baal	-7229
▁Hear	-7230
▁glor	-7231
aranai	-7232
▁abund	-7233
▁cerem	-7234
▁flour	-7235
▁multi	-7236
▁quiet	-7237
▁teach	-7238
▁track	-7239
iveness	-7240
▁Recent	-7241
▁Sangam	-7242
▁female	-7243
▁scandal	-7244
▁sitting	-7245
perialist	-7246
▁humanity	-7247
▁outright	-7248
▁recorded	-7249
▁thinking	-7250
▁arrangement	-7251
▁credibility	-7252
▁dismantling	-7253
▁expectations	-7254
▁Revolutionary	-7255
▁determination	-7256
▁participating	-7257
50	-7258
In	-7259
vic	-7260
▁Du	-7261
oles	-7262
outs	-7263
▁mut	-7264
▁rob	-7265
alese	-7266
ierre	-7267
▁Free	-7268
▁easy	-7269
▁shed	-7270
▁tiny	-7271
▁vent	-7272
apiers	-7273
mented	-7274
▁Laden	-7275
▁indif	-7276
▁stick	-7277
▁Chandr	-7278
▁Thirum	-7279
▁forget	-7280
▁Assyria	-7281
▁Kannada	-7282
▁routine	-7283
▁suspend	-7284
▁Egyptian	-7285
▁dominant	-7286
▁patients	-7287
▁incapable	-7288
▁judgments	-7289
▁reporting	-7290
▁Yugoslavia	-7291
▁questioned	-7292
▁demonstrates	-7293
▁paramilitary	-7294
▁strengthened	-7295
▁42	-7296
hand	-7297
rink	-7298
roud	-7299
▁Hel	-7300
▁box	-7301
▁dig	-7302
lines	-7303
utton	-7304
warya	-7305
▁Leon	-7306
▁arch	-7307
iances	-7308
ighter	-7309
rosoft	-7310
▁Simon	-7311
▁hoped	-7312
▁perce	-7313
aghavan	-7314
ancenot	-7315
▁Karuna	-7316
▁fierce	-7317
▁absence	-7318
apitalist	-7319
▁branches	-7320
▁estimate	-7321
▁opponent	-7322
▁Sinhalese	-7323
▁collapsed	-7324
▁exceeding	-7325
▁violation	-7326
▁Besancenot	-7327
▁approximately	-7328
ere	-7329
kin	-7330
▁MG	-7331
ashv	-7332
orns	-7333
otal	-7334
rain	-7335
▁FDP	-7336
▁Tom	-7337
▁Val	-7338
▁gap	-7339
▁lob	-7340
▁unw	-7341
▁Ling	-7342
▁Thom	-7343
▁boss	-7344
▁fran	-7345
▁hotel	-7346
▁notes	-7347
▁trave	-7348
▁troop	-7349
▁Frankf	-7350
▁insurg	-7351
▁puppet	-7352
▁reiter	-7353
▁treaty	-7354
colonial	-7355
▁classes	-7356
▁drastic	-7357
▁vehicle	-7358
▁Lawrence	-7359
▁supports	-7360
▁dominance	-7361
▁mechanism	-7362
▁agreements	-7363
▁denouncing	-7364
▁enrichment	-7365
▁36	-7366
dule	-7367
hard	-7368
oval	-7369
phic	-7370
▁Aut	-7371
▁Out	-7372
▁Wil	-7373
agues	-7374
rates	-7375
▁Dist	-7376
▁Glob	-7377
▁abdu	-7378
▁Black	-7379
ashvili	-7380
▁Centre	-7381
▁compon	-7382
▁easily	-7383
▁gained	-7384
▁serves	-7385
▁squads	-7386
▁escaped	-7387
▁heavens	-7388
▁intends	-7389
▁strange	-7390
▁actively	-7391
▁negative	-7392
▁delegation	-7393
▁electorate	-7394
▁protesting	-7395
▁surprising	-7396
▁considering	-7397
▁distributed	-7398
▁transformed	-7399
lal	-7400
oom	-7401
rys	-7402
yal	-7403
zen	-7404
inct	-7405
▁700	-7406
▁Gib	-7407
▁Mag	-7408
▁bin	-7409
▁hes	-7410
▁rid	-7411
▁via	-7412
araja	-7413
ascus	-7414
chest	-7415
onies	-7416
▁Cond	-7417
▁jour	-7418
▁crush	-7419
▁decre	-7420
▁globe	-7421
▁petty	-7422
▁contem	-7423
▁nearby	-7424
▁enforce	-7425
▁Buddhist	-7426
▁alongside	-7427
▁reformist	-7428
▁rejection	-7429
▁apparently	-7430
▁preventing	-7431
▁Karunanidhi	-7432
▁Organisation	-7433
▁distribution	-7434
HU	-7435
pa	-7436
▁x	-7437
▁33	-7438
aire	-7439
hind	-7440
▁Bro	-7441
▁Dan	-7442
▁Gal	-7443
▁SLM	-7444
▁TNA	-7445
ariah	-7446
oubted	-7447
utsche	-7448
▁Ammon	-7449
▁Third	-7450
▁spark	-7451
ivalent	-7452
▁affili	-7453
▁fortun	-7454
▁sorrow	-7455
▁Chamber	-7456
▁cynical	-7457
▁monitor	-7458
▁passing	-7459
▁removal	-7460
▁replied	-7461
▁welcome	-7462
▁founding	-7463
▁warnings	-7464
▁Microsoft	-7465
▁consensus	-7466
▁primarily	-7467
▁interested	-7468
▁originally	-7469
▁undermining	-7470
▁Intelligence	-7471
▁representing	-7472
hio	-7473
iam	-7474
lus	-7475
▁Ak	-7476
ilis	-7477
ohan	-7478
teen	-7479
▁Abd	-7480
▁JHU	-7481
▁Poo	-7482
gered	-7483
ishes	-7484
otten	-7485
▁Oper	-7486
▁grew	-7487
▁hors	-7488
▁kidn	-7489
hement	-7490
osevic	-7491
▁eaten	-7492
▁lands	-7493
▁lying	-7494
▁pooja	-7495
▁ships	-7496
▁tresp	-7497
illance	-7498
▁McCain	-7499
▁Others	-7500
▁allied	-7501
▁biolog	-7502
▁rulers	-7503
▁shared	-7504
ambakkam	-7505
▁experts	-7506
▁happens	-7507
▁Damascus	-7508
▁Villepin	-7509
▁channels	-7510
▁imposing	-7511
▁judicial	-7512
▁stations	-7513
▁Milosevic	-7514
▁contained	-7515
▁disastrous	-7516
▁liberation	-7517
▁politician	-7518
▁regulation	-7519
▁reconstruction	-7520
ays	-7521
hev	-7522
acit	-7523
amir	-7524
dict	-7525
eran	-7526
oral	-7527
orne	-7528
orse	-7529
▁Bre	-7530
▁Whe	-7531
acing	-7532
eches	-7533
usted	-7534
▁loud	-7535
▁rely	-7536
rysler	-7537
▁Angel	-7538
▁Royal	-7539
▁adequ	-7540
▁index	-7541
▁proud	-7542
▁tight	-7543
▁zones	-7544
▁Serbia	-7545
▁horses	-7546
▁plight	-7547
▁spring	-7548
▁abandon	-7549
▁antagon	-7550
▁selling	-7551
▁indicate	-7552
▁physical	-7553
▁schedule	-7554
▁crackdown	-7555
▁accusations	-7556
▁ideological	-7557
▁requirements	-7558
imb	-7559
enez	-7560
flag	-7561
ials	-7562
lech	-7563
utch	-7564
uvri	-7565
▁Adv	-7566
▁Vil	-7567
▁Vin	-7568
▁sad	-7569
avali	-7570
avana	-7571
eland	-7572
iegel	-7573
ocked	-7574
style	-7575
▁1993	-7576
▁batt	-7577
▁pair	-7578
▁scar	-7579
▁vain	-7580
conian	-7581
orship	-7582
▁Kayts	-7583
▁floor	-7584
▁smite	-7585
ensions	-7586
▁Gilead	-7587
▁Health	-7588
▁Schwar	-7589
▁Selvar	-7590
▁doctor	-7591
▁exists	-7592
▁sinned	-7593
▁Krishna	-7594
▁effects	-7595
▁Signific	-7596
▁deadline	-7597
▁dictator	-7598
▁expanded	-7599
▁expendit	-7600
▁programm	-7601
▁Represent	-7602
▁arguments	-7603
▁firstborn	-7604
▁materials	-7605
▁motivated	-7606
▁aspirations	-7607
oa	-7608
SSE	-7609
azh	-7610
jee	-7611
rig	-7612
str	-7613
ugg	-7614
▁32	-7615
▁Mu	-7616
▁Ty	-7617
bour	-7618
poor	-7619
uvan	-7620
▁MGR	-7621
▁Vol	-7622
acerb	-7623
adian	-7624
amped	-7625
utors	-7626
▁1983	-7627
▁Gill	-7628
▁Muth	-7629
▁Asked	-7630
▁dress	-7631
▁finds	-7632
▁giant	-7633
▁20,000	-7634
▁Ratnam	-7635
▁stimul	-7636
▁Marxism	-7637
▁Philipp	-7638
▁Reserve	-7639
▁adviser	-7640
▁arrests	-7641
▁exacerb	-7642
▁outlook	-7643
▁captains	-7644
▁interior	-7645
▁draconian	-7646
▁peninsula	-7647
▁promoting	-7648
▁conspiracy	-7649
▁deliberate	-7650
▁escalating	-7651
▁insurgents	-7652
▁successive	-7653
▁appropriate	-7654
▁communalism	-7655
▁provocation	-7656
▁underscored	-7657
jan	-7658
ume	-7659
vey	-7660
▁AS	-7661
▁Ha	-7662
avat	-7663
cean	-7664
fall	-7665
inen	-7666
▁Hen	-7667
▁bol	-7668
▁dry	-7669
▁mos	-7670
There	-7671
▁Well	-7672
▁cold	-7673
▁pron	-7674
▁rend	-7675
▁Apart	-7676
▁Inter	-7677
▁Wimal	-7678
▁caste	-7679
▁viney	-7680
ructive	-7681
▁Thomas	-7682
▁advice	-7683
▁branch	-7684
▁enable	-7685
▁hailed	-7686
▁indict	-7687
▁permit	-7688
▁prayer	-7689
aranaike	-7690
jections	-7691
oubtedly	-7692
▁Liberal	-7693
▁bullock	-7694
▁damaged	-7695
▁embassy	-7696
▁stating	-7697
▁birthday	-7698
▁conquest	-7699
▁pointing	-7700
▁products	-7701
▁sweeping	-7702
▁breakdown	-7703
▁experienced	-7704
▁Bandaranaike	-7705
▁intimidation	-7706
▁participants	-7707
▁significantly	-7708
▁systematically	-7709
-9	-7710
MA	-7711
RS	-7712
mo	-7713
cle	-7714
law	-7715
▁AF	-7716
achi	-7717
idel	-7718
iver	-7719
pled	-7720
unch	-7721
▁Aff	-7722
▁Job	-7723
▁mig	-7724
arted	-7725
salom	-7726
▁Mean	-7727
▁Ohio	-7728
▁Saak	-7729
▁cher	-7730
▁heed	-7731
▁infe	-7732
▁wash	-7733
illery	-7734
orient	-7735
rehens	-7736
▁Ahmad	-7737
▁Cross	-7738
▁tacit	-7739
ambaram	-7740
▁Indeed	-7741
▁affair	-7742
▁emerge	-7743
▁fights	-7744
▁incomp	-7745
▁pledge	-7746
arayanan	-7747
▁Absalom	-7748
▁Schwarz	-7749
▁Whether	-7750
▁comfort	-7751
▁finding	-7752
▁located	-7753
▁garments	-7754
▁sequence	-7755
▁Yesterday	-7756
▁subjected	-7757
▁destroying	-7758
▁equivalent	-7759
▁inspectors	-7760
▁intimidate	-7761
▁disappeared	-7762
▁intellectual	-7763
▁introduction	-7764
▁surveillance	-7765
▁intellectuals	-7766
▁discrimination	-7767
iki	-7768
coni	-7769
enin	-7770
▁Ann	-7771
▁FBI	-7772
▁Fed	-7773
▁Var	-7774
arasu	-7775
field	-7776
▁fees	-7777
▁Anand	-7778
▁Coast	-7779
▁Given	-7780
▁blunt	-7781
▁raids	-7782
▁spend	-7783
onement	-7784
utation	-7785
▁Associ	-7786
▁Berlus	-7787
▁Shriya	-7788
▁reluct	-7789
▁signal	-7790
▁Finance	-7791
▁enjoyed	-7792
▁settled	-7793
▁stepped	-7794
▁tendency	-7795
▁Aishwarya	-7796
▁Egyptians	-7797
▁Lingusamy	-7798
▁publicity	-7799
▁percentage	-7800
withstanding	-7801
▁Selvaraghavan	-7802
▁opportunities	-7803
IC	-7804
ko	-7805
Mar	-7806
ota	-7807
▁da	-7808
aval	-7809
onia	-7810
▁Cap	-7811
apore	-7812
enses	-7813
inded	-7814
▁Cens	-7815
▁Hill	-7816
▁ISSE	-7817
▁Mahe	-7818
▁NSSP	-7819
▁boom	-7820
▁sore	-7821
▁tied	-7822
▁Civil	-7823
▁Offic	-7824
▁Ouvri	-7825
▁Prash	-7826
▁apply	-7827
▁steel	-7828
▁turns	-7829
▁Behind	-7830
▁dubbed	-7831
▁prince	-7832
▁prohib	-7833
▁repudi	-7834
▁retali	-7835
▁strict	-7836
▁earthqu	-7837
▁Scottish	-7838
▁features	-7839
▁Meanwhile	-7840
▁Political	-7841
▁execution	-7842
▁negotiate	-7843
▁occasions	-7844
▁ourselves	-7845
▁postponed	-7846
▁protested	-7847
▁unpopular	-7848
▁Berlusconi	-7849
▁interviews	-7850
▁personally	-7851
▁surrounded	-7852
▁Saakashvili	-7853
▁continually	-7854
▁opportunist	-7855
▁Confederation	-7856
▁interventions	-7857
jud	-7858
unc	-7859
jeev	-7860
▁1.5	-7861
▁Pan	-7862
▁Tir	-7863
▁Tru	-7864
▁cow	-7865
▁psy	-7866
▁Padm	-7867
▁male	-7868
▁seve	-7869
▁shop	-7870
alsize	-7871
▁Which	-7872
▁cloud	-7873
▁noise	-7874
▁seize	-7875
▁spect	-7876
▁uncon	-7877
▁Ramesh	-7878
▁Seeman	-7879
▁commod	-7880
▁remake	-7881
▁reveal	-7882
▁taught	-7883
▁Blessed	-7884
▁assumed	-7885
▁confirm	-7886
▁involve	-7887
▁quality	-7888
▁traffic	-7889
▁Israelis	-7890
▁Jeroboam	-7891
▁Mohanlal	-7892
▁Portugal	-7893
▁chariots	-7894
▁projects	-7895
▁salaries	-7896
▁strikers	-7897
alsizeflag	-7898
▁Deepavali	-7899
▁determine	-7900
▁governing	-7901
▁manifesto	-7902
▁referring	-7903
▁challenges	-7904
▁punishment	-7905
▁acknowledge	-7906
▁manufacture	-7907
▁dramatically	-7908
▁naturalsizeflag	-7909
ta	-7910
agu	-7911
arr	-7912
cons	-7913
ctic	-7914
iger	-7915
nedy	-7916
roit	-7917
▁Lut	-7918
▁Zap	-7919
▁Gore	-7920
▁Mass	-7921
▁answ	-7922
▁spir	-7923
anners	-7924
▁Studi	-7925
▁depos	-7926
▁falls	-7927
▁learn	-7928
▁novel	-7929
▁Employ	-7930
▁Hebron	-7931
▁banner	-7932
▁superv	-7933
▁transl	-7934
▁Affairs	-7935
▁Jyotika	-7936
▁sectors	-7937
▁wearing	-7938
velopment	-7939
▁disputes	-7940
▁listened	-7941
▁outbreak	-7942
▁reckless	-7943
▁uprising	-7944
▁Democracy	-7945
▁convinced	-7946
▁conducting	-7947
▁maintaining	-7948
▁bureaucratic	-7949
has	-7950
ope	-7951
▁bi	-7952
-200	-7953
anim	-7954
iest	-7955
mert	-7956
▁Ref	-7957
▁Ver	-7958
▁max	-7959
class	-7960
▁hill	-7961
▁hurt	-7962
▁magn	-7963
▁neck	-7964
▁obey	-7965
▁obsc	-7966
▁Dutch	-7967
▁Shall	-7968
▁bonds	-7969
▁haven	-7970
▁leads	-7971
▁midst	-7972
▁rebel	-7973
ression	-7974
▁Argent	-7975
▁inform	-7976
▁paying	-7977
▁talent	-7978
▁tragic	-7979
▁Kennedy	-7980
▁Prabhak	-7981
▁Whoever	-7982
▁compass	-7983
▁critics	-7984
▁disturb	-7985
▁pronoun	-7986
▁ceremony	-7987
▁computer	-7988
▁speeches	-7989
▁tribunal	-7990
▁explosion	-7991
▁mentioned	-7992
▁precedent	-7993
▁suspected	-7994
▁Parliament	-7995
▁biological	-7996
▁collection	-7997
▁invitation	-7998
▁wickedness	-7999
▁performance	-8000
▁technicians	-8001
▁implementation	-8002
TU	-8003
put	-8004
amar	-8005
tees	-8006
▁Bus	-8007
▁anc	-8008
▁fit	-8009
▁vig	-8010
cores	-8011
iated	-8012
oting	-8013
▁Bhag	-8014
▁Hart	-8015
▁cars	-8016
▁sale	-8017
▁staged	-8018
▁vulner	-8019
▁Already	-8020
▁Detroit	-8021
▁Earlier	-8022
▁Thamizh	-8023
▁endorse	-8024
▁garment	-8025
▁glamour	-8026
▁insists	-8027
▁knowing	-8028
▁usually	-8029
▁Michigan	-8030
▁constant	-8031
▁controls	-8032
▁reducing	-8033
▁securing	-8034
▁artillery	-8035
▁economist	-8036
▁interpret	-8037
▁rebellion	-8038
▁technical	-8039
imperialist	-8040
▁privileged	-8041
▁undermined	-8042
▁territories	-8043
▁underscores	-8044
.30	-8045
ezz	-8046
gro	-8047
icy	-8048
ona	-8049
▁Cz	-8050
iyan	-8051
ords	-8052
vard	-8053
week	-8054
▁Six	-8055
▁Tar	-8056
▁etc	-8057
adequ	-8058
▁1950	-8059
▁Fear	-8060
▁Hari	-8061
▁Poll	-8062
▁roll	-8063
▁tank	-8064
airman	-8065
▁Osset	-8066
▁Thous	-8067
▁barri	-8068
▁downt	-8069
▁miles	-8070
▁ought	-8071
▁ultra	-8072
▁unpro	-8073
▁lowest	-8074
▁prompt	-8075
avataram	-8076
▁England	-8077
▁Nadigar	-8078
▁Zeitung	-8079
▁delayed	-8080
▁handful	-8081
▁mounted	-8082
▁retreat	-8083
▁signing	-8084
▁consumed	-8085
▁carefully	-8086
▁committees	-8087
▁insurgency	-8088
▁systematic	-8089
▁combination	-8090
▁Commissioner	-8091
▁globalisation	-8092
▁enl	-8093
▁ice	-8094
▁1992	-8095
▁Alex	-8096
▁Arun	-8097
▁Shil	-8098
▁duty	-8099
▁veto	-8100
atched	-8101
rophic	-8102
▁Prior	-8103
▁argue	-8104
▁aston	-8105
▁ruler	-8106
▁shore	-8107
▁storm	-8108
▁walls	-8109
▁Olmert	-8110
▁School	-8111
▁aspect	-8112
▁leaves	-8113
▁artists	-8114
▁counted	-8115
▁dealing	-8116
▁inadequ	-8117
▁Chrysler	-8118
▁Gaullist	-8119
▁reaching	-8120
▁stimulus	-8121
▁worsening	-8122
▁assessment	-8123
▁photograph	-8124
▁reiterated	-8125
▁Bharatiraja	-8126
▁Dasavataram	-8127
▁settlements	-8128
▁catastrophic	-8129
▁continuation	-8130
AC	-8131
If	-8132
udh	-8133
itan	-8134
▁Ach	-8135
▁Kaz	-8136
▁Pap	-8137
▁Vir	-8138
▁ost	-8139
Green	-8140
acles	-8141
▁Cast	-8142
▁Rudd	-8143
▁Uday	-8144
▁boat	-8145
▁cert	-8146
▁clar	-8147
▁gird	-8148
▁irre	-8149
▁keen	-8150
erable	-8151
▁Billa	-8152
▁Ganes	-8153
▁Mural	-8154
▁Nazis	-8155
▁spear	-8156
▁video	-8157
▁Maoist	-8158
▁Samaja	-8159
▁absurd	-8160
▁minute	-8161
▁slogan	-8162
▁Charles	-8163
▁mistake	-8164
▁monthly	-8165
▁obliged	-8166
▁options	-8167
▁pillars	-8168
▁sympath	-8169
▁anointed	-8170
▁councils	-8171
▁distress	-8172
▁featured	-8173
▁murdered	-8174
▁Thousands	-8175
▁separation	-8176
▁discredited	-8177
▁undoubtedly	-8178
▁arrangements	-8179
OE	-8180
DMK	-8181
jad	-8182
▁GD	-8183
chen	-8184
isan	-8185
kels	-8186
role	-8187
▁Koh	-8188
▁hen	-8189
atero	-8190
avika	-8191
crete	-8192
ctory	-8193
ipled	-8194
▁Cuba	-8195
▁Mamm	-8196
▁Mull	-8197
▁Sama	-8198
▁file	-8199
▁fill	-8200
▁hate	-8201
▁mine	-8202
▁oxen	-8203
▁unde	-8204
▁unst	-8205
▁Aznar	-8206
▁Domin	-8207
▁doesn	-8208
enezuel	-8209
▁barbar	-8210
▁beaten	-8211
▁limits	-8212
▁multip	-8213
▁perish	-8214
▁stabil	-8215
▁tongue	-8216
iscrimin	-8217
▁Sandhya	-8218
▁missing	-8219
▁peoples	-8220
▁regards	-8221
▁rumours	-8222
▁trading	-8223
▁Canadian	-8224
▁Malavika	-8225
▁advocate	-8226
▁approved	-8227
▁trespass	-8228
▁illusions	-8229
▁predatory	-8230
▁militarily	-8231
▁contribution	-8232
▁mobilisation	-8233
RI	-8234
jo	-8235
irm	-8236
rap	-8237
zai	-8238
▁dy	-8239
anni	-8240
bing	-8241
ider	-8242
kind	-8243
▁CCP	-8244
▁Fur	-8245
▁Mot	-8246
▁Nag	-8247
▁Zeb	-8248
▁ble	-8249
▁jun	-8250
asted	-8251
eenth	-8252
▁Prem	-8253
▁adul	-8254
▁bloc	-8255
▁doss	-8256
▁rejo	-8257
▁unif	-8258
akumar	-8259
planes	-8260
verted	-8261
▁Cinem	-8262
▁Guant	-8263
▁backs	-8264
▁coinc	-8265
▁goats	-8266
▁linen	-8267
▁Deputy	-8268
▁citing	-8269
▁corner	-8270
▁elabor	-8271
▁engage	-8272
▁learnt	-8273
▁plague	-8274
▁refuse	-8275
▁200,000	-8276
▁Condole	-8277
▁Pharise	-8278
▁Service	-8279
▁breadth	-8280
▁debacle	-8281
▁exactly	-8282
▁journey	-8283
▁shekels	-8284
ervatives	-8285
ibilities	-8286
▁Zapatero	-8287
▁adequate	-8288
▁distance	-8289
▁facility	-8290
▁unlikely	-8291
▁otherwise	-8292
▁permitted	-8293
▁sustained	-8294
▁everywhere	-8295
▁indictment	-8296
▁Prabhakaran	-8297
▁nevertheless	-8298
▁Significantly	-8299
▁strengthening	-8300
gen	-8301
ije	-8302
ansa	-8303
esse	-8304
iege	-8305
imir	-8306
iraj	-8307
rika	-8308
▁Ser	-8309
▁fed	-8310
Tamil	-8311
ivors	-8312
uters	-8313
▁Ahab	-8314
▁Anti	-8315
▁Best	-8316
▁Chid	-8317
▁Hung	-8318
▁PSOE	-8319
▁bapt	-8320
▁blue	-8321
▁skin	-8322
apping	-8323
roleum	-8324
▁champ	-8325
▁debts	-8326
▁defic	-8327
▁griev	-8328
▁movie	-8329
▁revel	-8330
▁sites	-8331
▁Kapoor	-8332
▁flight	-8333
▁inflic	-8334
▁planes	-8335
▁prefer	-8336
▁Against	-8337
▁Periyar	-8338
▁Spiegel	-8339
▁picture	-8340
▁viewers	-8341
▁Venezuel	-8342
▁dominate	-8343
▁populist	-8344
▁possibly	-8345
▁sentence	-8346
▁connected	-8347
▁obviously	-8348
▁returning	-8349
▁commanders	-8350
▁instruments	-8351
▁predecessor	-8352
▁unification	-8353
▁34	-8354
▁AI	-8355
▁PO	-8356
ench	-8357
eter	-8358
fasc	-8359
gram	-8360
page	-8361
wait	-8362
▁Rob	-8363
▁lod	-8364
▁raw	-8365
ajini	-8366
amani	-8367
aphat	-8368
power	-8369
▁1968	-8370
▁Braz	-8371
▁Edom	-8372
▁outs	-8373
▁Chile	-8374
▁genoc	-8375
▁grace	-8376
▁tears	-8377
assment	-8378
rection	-8379
▁Sundar	-8380
▁cleans	-8381
▁desert	-8382
▁golden	-8383
▁morrow	-8384
▁newcom	-8385
▁seemed	-8386
▁Further	-8387
▁liberty	-8388
▁municip	-8389
▁reveals	-8390
▁savings	-8391
▁tactics	-8392
▁precipit	-8393
▁campaigns	-8394
▁indicates	-8395
▁oligarchy	-8396
▁ownership	-8397
▁stationed	-8398
▁Indonesian	-8399
▁Development	-8400
▁bombardment	-8401
ahu	-8402
ava	-8403
bid	-8404
uri	-8405
zer	-8406
▁CM	-8407
▁EP	-8408
▁Ja	-8409
aces	-8410
ezza	-8411
lers	-8412
sing	-8413
▁AFL	-8414
▁Ren	-8415
▁eve	-8416
▁pil	-8417
▁syn	-8418
▁tom	-8419
inois	-8420
▁Mand	-8421
▁bulk	-8422
▁milk	-8423
▁Hesse	-8424
▁acute	-8425
▁tents	-8426
▁trend	-8427
▁veter	-8428
▁Censor	-8429
▁suspic	-8430
▁useful	-8431
▁Mammoot	-8432
▁imports	-8433
▁passage	-8434
▁thither	-8435
▁concrete	-8436
▁declares	-8437
▁refusing	-8438
▁resigned	-8439
▁Chandrika	-8440
▁Singapore	-8441
▁accepting	-8442
▁activists	-8443
▁alliances	-8444
stitutional	-8445
▁earthquake	-8446
▁recognised	-8447
▁scientists	-8448
▁Condoleezza	-8449
▁bureaucrats	-8450
▁longstanding	-8451
▁universities	-8452
▁contradiction	-8453
EC	-8454
eds	-8455
▁39	-8456
▁Dh	-8457
▁wa	-8458
alee	-8459
vant	-8460
▁Bos	-8461
▁Gad	-8462
▁Tra	-8463
▁tur	-8464
asamy	-8465
ettai	-8466
illon	-8467
unity	-8468
▁Ilay	-8469
▁Mary	-8470
▁Sant	-8471
▁Step	-8472
▁incl	-8473
▁puts	-8474
▁sear	-8475
▁situ	-8476
▁unex	-8477
artial	-8478
itness	-8479
▁Hyder	-8480
▁Treat	-8481
▁degen	-8482
▁dereg	-8483
▁marks	-8484
▁riots	-8485
▁waves	-8486
▁30,000	-8487
▁Barack	-8488
▁Brazil	-8489
▁divert	-8490
▁excess	-8491
▁pulled	-8492
▁revers	-8493
▁unanim	-8494
reaching	-8495
▁applied	-8496
▁banners	-8497
▁survive	-8498
▁suitable	-8499
▁arbitrary	-8500
▁unleashed	-8501
▁withdrawn	-8502
▁Opposition	-8503
▁households	-8504
▁intervened	-8505
▁campaigning	-8506
▁helicopters	-8507
▁investigations	-8508
vi	-8509
okk	-8510
pot	-8511
sur	-8512
▁48	-8513
▁PL	-8514
▁je	-8515
ersh	-8516
ingu	-8517
irds	-8518
rees	-8519
tail	-8520
▁NDA	-8521
▁cha	-8522
anski	-8523
hoods	-8524
ubble	-8525
▁Babu	-8526
▁Gent	-8527
▁Scot	-8528
▁exce	-8529
▁impl	-8530
▁lend	-8531
▁mour	-8532
iously	-8533
uously	-8534
▁Colle	-8535
▁Oscar	-8536
▁crude	-8537
▁curse	-8538
▁idols	-8539
▁risks	-8540
eswaran	-8541
▁Sharif	-8542
▁advers	-8543
▁beauty	-8544
▁cherub	-8545
▁reserv	-8546
▁Maoists	-8547
▁Program	-8548
▁focused	-8549
▁plunged	-8550
▁related	-8551
▁Illinois	-8552
▁autonomy	-8553
▁dramatic	-8554
▁location	-8555
▁selected	-8556
▁tomorrow	-8557
▁Hyderabad	-8558
▁forgotten	-8559
▁colleagues	-8560
▁indifference	-8561
▁subsequently	-8562
▁contributions	-8563
▁NA	-8564
ader	-8565
ikud	-8566
khaz	-8567
ozhi	-8568
uded	-8569
▁Dal	-8570
▁Die	-8571
▁Hat	-8572
▁Kam	-8573
arden	-8574
itate	-8575
jeevi	-8576
named	-8577
ports	-8578
▁Esau	-8579
▁Gibe	-8580
▁Keer	-8581
▁Mall	-8582
▁Priy	-8583
▁edge	-8584
iyadas	-8585
ocated	-8586
▁Franc	-8587
▁Kabul	-8588
▁Parth	-8589
▁abide	-8590
▁badly	-8591
▁beaut	-8592
▁bones	-8593
▁bowed	-8594
▁crown	-8595
▁ignor	-8596
▁incor	-8597
arances	-8598
▁Chiran	-8599
▁Syrian	-8600
▁Terror	-8601
▁Treaty	-8602
▁hatred	-8603
▁offend	-8604
▁purely	-8605
▁raises	-8606
▁viable	-8607
▁equally	-8608
▁operate	-8609
▁pleased	-8610
▁Islamist	-8611
▁consumer	-8612
▁familiar	-8613
▁preserve	-8614
▁suggests	-8615
▁Similarly	-8616
▁readiness	-8617
▁stretched	-8618
▁agriculture	-8619
▁resolutions	-8620
▁environmental	-8621
aze	-8622
hek	-8623
how	-8624
iel	-8625
,500	-8626
onel	-8627
rity	-8628
zzar	-8629
▁Pul	-8630
▁fet	-8631
▁phr	-8632
aming	-8633
ammed	-8634
ching	-8635
incom	-8636
kates	-8637
nergy	-8638
uchad	-8639
▁1979	-8640
▁Hans	-8641
▁Have	-8642
▁Veer	-8643
▁exal	-8644
▁item	-8645
▁lamp	-8646
asmine	-8647
establ	-8648
▁Czech	-8649
▁Lutte	-8650
▁alike	-8651
▁arist	-8652
▁depth	-8653
▁tenth	-8654
▁Common	-8655
▁Kuwait	-8656
▁Madrid	-8657
▁armies	-8658
▁expert	-8659
▁restra	-8660
▁scores	-8661
▁thrust	-8662
▁rallies	-8663
▁rebuild	-8664
▁remnant	-8665
▁verdict	-8666
incomalee	-8667
▁Nebuchad	-8668
ifications	-8669
▁Parthiban	-8670
▁functions	-8671
▁sensitive	-8672
▁concession	-8673
▁devastated	-8674
▁guaranteed	-8675
▁proportion	-8676
▁mobilization	-8677
▁productivity	-8678
▁Representatives	-8679
ae	-8680
ivu	-8681
oes	-8682
ukk	-8683
▁PM	-8684
aiah	-8685
anka	-8686
arma	-8687
yang	-8688
▁Mat	-8689
▁RCL	-8690
▁Roh	-8691
▁Sus	-8692
▁anx	-8693
▁ced	-8694
▁pog	-8695
▁rom	-8696
ariat	-8697
henom	-8698
illas	-8699
iring	-8700
ordon	-8701
pired	-8702
▁Amor	-8703
▁Bash	-8704
▁Batt	-8705
▁Indo	-8706
▁Trib	-8707
▁frag	-8708
▁luck	-8709
▁pour	-8710
▁slog	-8711
ailand	-8712
ranged	-8713
▁Along	-8714
▁Colin	-8715
▁Sonia	-8716
▁motor	-8717
▁Balach	-8718
▁Energy	-8719
▁Hutton	-8720
▁phenom	-8721
▁rooted	-8722
▁rubber	-8723
▁urging	-8724
▁branded	-8725
▁harvest	-8726
▁serving	-8727
▁warfare	-8728
▁Election	-8729
▁Scotland	-8730
▁Thailand	-8731
▁deputies	-8732
▁genocide	-8733
▁Ilayaraja	-8734
▁criminals	-8735
▁installed	-8736
▁targeting	-8737
▁completing	-8738
▁discovered	-8739
▁federation	-8740
▁helicopter	-8741
▁imposition	-8742
▁Chiranjeevi	-8743
▁Kodambakkam	-8744
▁Trincomalee	-8745
▁historically	-8746
▁personalities	-8747
30	-8748
aph	-8749
▁CF	-8750
umes	-8751
▁250	-8752
▁Den	-8753
▁Gil	-8754
▁fer	-8755
abled	-8756
illai	-8757
night	-8758
▁EPDP	-8759
▁Gold	-8760
▁Rath	-8761
▁Stan	-8762
▁Wije	-8763
▁card	-8764
▁hung	-8765
▁lect	-8766
▁pose	-8767
▁quit	-8768
inting	-8769
▁Yuvan	-8770
▁demol	-8771
▁disag	-8772
▁obser	-8773
▁panel	-8774
▁solve	-8775
▁wings	-8776
asekhar	-8777
▁Abkhaz	-8778
▁Subram	-8779
▁earned	-8780
▁pogrom	-8781
▁silent	-8782
▁Balkans	-8783
▁Jasmine	-8784
▁Karthik	-8785
▁aspects	-8786
▁beloved	-8787
▁capture	-8788
▁dossier	-8789
▁layoffs	-8790
▁pitched	-8791
▁Everyone	-8792
▁Military	-8793
▁Services	-8794
▁deficits	-8795
▁purchase	-8796
▁socially	-8797
▁declining	-8798
▁finalized	-8799
▁residence	-8800
▁satisfied	-8801
▁scattered	-8802
▁Trotskyism	-8803
▁inadequate	-8804
▁Chidambaram	-8805
▁consequence	-8806
▁contributed	-8807
▁indiscrimin	-8808
▁independently	-8809
aan	-8810
▁38	-8811
▁SU	-8812
▁Sl	-8813
anay	-8814
bert	-8815
mann	-8816
▁ANC	-8817
▁Hor	-8818
▁Mid	-8819
▁Unt	-8820
▁awa	-8821
▁bab	-8822
▁hij	-8823
alism	-8824
igaro	-8825
izumi	-8826
ships	-8827
▁Cath	-8828
▁Math	-8829
▁Sadr	-8830
▁Srin	-8831
▁Sure	-8832
▁bind	-8833
▁rice	-8834
▁stun	-8835
lation	-8836
▁Gates	-8837
▁Hartz	-8838
▁fixed	-8839
▁resur	-8840
▁store	-8841
▁threw	-8842
▁yield	-8843
lasting	-8844
▁Angela	-8845
▁Figaro	-8846
▁Metall	-8847
▁assume	-8848
▁resent	-8849
▁rivers	-8850
▁rushed	-8851
▁sphere	-8852
▁worthy	-8853
▁Koizumi	-8854
▁scenari	-8855
▁studies	-8856
▁turnout	-8857
▁exposure	-8858
▁involves	-8859
▁moreover	-8860
▁priority	-8861
▁severely	-8862
▁surrender	-8863
▁constitute	-8864
▁explicitly	-8865
▁suppressed	-8866
▁competitive	-8867
▁consumption	-8868
▁applications	-8869
▁counterparts	-8870
▁implementing	-8871
▁provocations	-8872
▁consideration	-8873
EF	-8874
TO	-8875
oj	-8876
za	-8877
CIO	-8878
uma	-8879
▁CI	-8880
clos	-8881
ijah	-8882
more	-8883
uben	-8884
unta	-8885
west	-8886
▁800	-8887
▁Amn	-8888
▁Bul	-8889
▁Zed	-8890
▁fru	-8891
▁sow	-8892
mohan	-8893
pling	-8894
yaraj	-8895
▁Karn	-8896
▁Nand	-8897
▁Vasu	-8898
▁lots	-8899
apriya	-8900
arajah	-8901
assing	-8902
ortion	-8903
▁Bangl	-8904
▁Enron	-8905
▁Local	-8906
▁Swiss	-8907
▁arrog	-8908
▁exhib	-8909
▁medic	-8910
▁swear	-8911
▁swore	-8912
▁15,000	-8913
▁Reuben	-8914
▁judged	-8915
▁misery	-8916
▁posted	-8917
ifically	-8918
▁Ganesan	-8919
▁Ossetia	-8920
▁embrace	-8921
▁richest	-8922
▁strateg	-8923
▁trapped	-8924
▁Chairman	-8925
▁Gentiles	-8926
▁Perarasu	-8927
▁Venkates	-8928
▁asserted	-8929
▁endorsed	-8930
▁receives	-8931
capitalist	-8932
▁advocated	-8933
▁advocates	-8934
▁assertion	-8935
▁languages	-8936
▁presently	-8937
▁provoking	-8938
▁regularly	-8939
▁succeeded	-8940
▁survivors	-8941
▁Associated	-8942
▁conception	-8943
▁criticized	-8944
▁describing	-8945
▁enterprise	-8946
▁indicating	-8947
▁communities	-8948
▁everlasting	-8949
▁legislative	-8950
▁privatization	-8951
EAN	-8952
had	-8953
ims	-8954
▁44	-8955
ache	-8956
arge	-8957
gels	-8958
pert	-8959
▁Big	-8960
▁Jim	-8961
▁eph	-8962
▁Kund	-8963
▁Near	-8964
▁Weer	-8965
▁crop	-8966
▁emot	-8967
▁lips	-8968
▁pact	-8969
▁ring	-8970
▁sect	-8971
inejad	-8972
▁Jehoi	-8973
▁Truly	-8974
▁hated	-8975
▁plane	-8976
▁react	-8977
▁sabot	-8978
ternoon	-8979
▁hijack	-8980
▁incumb	-8981
▁Reuters	-8982
▁closing	-8983
▁notably	-8984
▁paralle	-8985
▁penalty	-8986
▁recruit	-8987
astically	-8988
▁Bachchan	-8989
▁Manmohan	-8990
▁advances	-8991
▁imminent	-8992
▁produces	-8993
▁reproach	-8994
▁superior	-8995
▁troubled	-8996
▁Pharisees	-8997
▁dedicated	-8998
▁disappear	-8999
▁occupying	-9000
▁insistence	-9001
▁reputation	-9002
▁Ahmadinejad	-9003
▁exclusively	-9004
▁interrogation	-9005
ean	-9006
ser	-9007
▁AR	-9008
cket	-9009
omic	-9010
stal	-9011
▁Ang	-9012
▁Ban	-9013
▁Gar	-9014
▁Non	-9015
▁fly	-9016
▁fow	-9017
▁row	-9018
▁unb	-9019
athil	-9020
aziah	-9021
quare	-9022
▁Balu	-9023
▁Lion	-9024
▁Time	-9025
▁Vand	-9026
▁maid	-9027
lantic	-9028
ricted	-9029
▁Likud	-9030
▁Saran	-9031
▁Stand	-9032
▁Until	-9033
▁panic	-9034
▁rises	-9035
▁siege	-9036
▁tempt	-9037
certain	-9038
ription	-9039
▁Editor	-9040
▁Estate	-9041
▁breath	-9042
▁driver	-9043
▁firing	-9044
▁lesson	-9045
▁ostens	-9046
▁unfold	-9047
oshaphat	-9048
▁Command	-9049
▁defined	-9050
▁recover	-9051
▁trumpet	-9052
▁worried	-9053
▁Mahendra	-9054
▁Polanski	-9055
▁Thatcher	-9056
▁faithful	-9057
▁fortunes	-9058
▁overturn	-9059
▁supremac	-9060
▁Mariyadas	-9061
▁afternoon	-9062
▁evolution	-9063
▁inability	-9064
▁municipal	-9065
▁republics	-9066
▁spreading	-9067
▁challenged	-9068
▁prosperity	-9069
▁negotiating	-9070
alan	-9071
udev	-9072
▁Div	-9073
▁Fat	-9074
▁Rai	-9075
▁Rem	-9076
▁Som	-9077
▁Ten	-9078
▁USA	-9079
▁bog	-9080
▁cup	-9081
hraib	-9082
occup	-9083
▁Youn	-9084
▁fish	-9085
▁flat	-9086
▁pick	-9087
▁root	-9088
▁toil	-9089
▁veil	-9090
▁webs	-9091
ambers	-9092
avanan	-9093
herent	-9094
▁Baath	-9095
▁Judge	-9096
▁Wazir	-9097
▁alarm	-9098
▁holid	-9099
▁junta	-9100
▁owner	-9101
▁ports	-9102
▁upset	-9103
imelech	-9104
iveeran	-9105
▁Ghraib	-9106
▁Surely	-9107
▁attrib	-9108
▁mostly	-9109
▁racial	-9110
▁revive	-9111
▁vessel	-9112
▁weekly	-9113
▁College	-9114
▁causing	-9115
▁delight	-9116
▁drawing	-9117
▁existed	-9118
▁legally	-9119
▁maximum	-9120
▁sustain	-9121
▁Gilligan	-9122
▁Produced	-9123
▁Province	-9124
▁executed	-9125
▁interpre	-9126
▁quarters	-9127
▁treacher	-9128
▁appealing	-9129
▁eliminate	-9130
▁generated	-9131
▁maintains	-9132
▁petitions	-9133
▁Depression	-9134
▁expressing	-9135
▁minorities	-9136
▁statistics	-9137
▁vulnerable	-9138
▁Jehoshaphat	-9139
▁devastation	-9140
▁expenditure	-9141
▁investigate	-9142
▁temporarily	-9143
▁respectively	-9144
▁communications	-9145
ded	-9146
▁Ac	-9147
▁IC	-9148
▁IV	-9149
igue	-9150
izes	-9151
oret	-9152
thal	-9153
▁Lee	-9154
▁Sib	-9155
▁gif	-9156
▁rod	-9157
▁ton	-9158
produ	-9159
▁Kirk	-9160
▁Modi	-9161
▁Prot	-9162
▁blat	-9163
▁core	-9164
▁flew	-9165
▁inqu	-9166
strong	-9167
▁Ahmed	-9168
▁Murug	-9169
▁route	-9170
▁trail	-9171
asinghe	-9172
▁advert	-9173
▁crises	-9174
▁deemed	-9175
▁guards	-9176
▁palace	-9177
▁incomes	-9178
▁papiers	-9179
▁trained	-9180
▁analysts	-9181
▁attorney	-9182
▁describe	-9183
▁excluded	-9184
▁thoughts	-9185
▁watching	-9186
▁Frankfurt	-9187
▁atonement	-9188
▁cancelled	-9189
▁celebrate	-9190
▁predicted	-9191
▁proceeded	-9192
▁selection	-9193
▁Waziristan	-9194
▁violations	-9195
▁Balachander	-9196
▁questioning	-9197
▁predominantly	-9198
10	-9199
pm	-9200
ugam	-9201
▁Ace	-9202
▁tea	-9203
bilis	-9204
hetic	-9205
▁1967	-9206
▁Does	-9207
▁Krem	-9208
▁Nila	-9209
▁Shan	-9210
▁auth	-9211
▁grip	-9212
▁impe	-9213
▁phil	-9214
bilisi	-9215
fortun	-9216
riotic	-9217
▁ASEAN	-9218
▁Aamir	-9219
▁Fatah	-9220
▁Ocean	-9221
▁adopt	-9222
▁chain	-9223
▁desce	-9224
▁drove	-9225
▁exile	-9226
▁older	-9227
▁persu	-9228
▁photo	-9229
▁souls	-9230
▁teams	-9231
ongyang	-9232
▁Motors	-9233
▁flocks	-9234
▁fruits	-9235
▁metres	-9236
▁sealed	-9237
▁square	-9238
▁whilst	-9239
ominated	-9240
▁Kremlin	-9241
▁advisor	-9242
▁ballots	-9243
▁factors	-9244
▁greeted	-9245
▁manager	-9246
▁secured	-9247
ocumented	-9248
▁champion	-9249
▁homeless	-9250
▁supplied	-9251
▁Socialism	-9252
▁confronts	-9253
▁democrats	-9254
▁diplomats	-9255
▁genuinely	-9256
▁liberties	-9257
▁locations	-9258
▁revealing	-9259
▁principled	-9260
▁remarkable	-9261
▁controversy	-9262
▁encouraging	-9263
▁Wimaleswaran	-9264
pan	-9265
rey	-9266
▁AP	-9267
ammu	-9268
avul	-9269
inth	-9270
mand	-9271
post	-9272
spel	-9273
▁App	-9274
▁Jez	-9275
▁Tem	-9276
▁Tex	-9277
▁Wal	-9278
▁fro	-9279
▁une	-9280
▁wax	-9281
antha	-9282
aping	-9283
heast	-9284
isons	-9285
▁1948	-9286
▁Urum	-9287
person	-9288
▁Mexic	-9289
▁Niger	-9290
▁capit	-9291
▁tasks	-9292
▁Andrew	-9293
▁Former	-9294
▁Franco	-9295
▁Karzai	-9296
▁Kirkuk	-9297
▁gospel	-9298
▁lament	-9299
▁season	-9300
▁string	-9301
▁waging	-9302
communic	-9303
▁Studios	-9304
▁broadly	-9305
▁conceal	-9306
▁disgust	-9307
▁imagine	-9308
▁mankind	-9309
▁opposes	-9310
▁rejects	-9311
▁slogans	-9312
▁virtual	-9313
▁Prashant	-9314
▁forecast	-9315
▁meantime	-9316
▁sympathy	-9317
▁upcoming	-9318
▁brutality	-9319
▁possessed	-9320
▁suspended	-9321
▁universal	-9322
▁announcing	-9323
▁complicity	-9324
▁objectives	-9325
▁stronghold	-9326
▁underscore	-9327
▁economically	-9328
▁authoritarian	-9329
▁deteriorating	-9330
bor	-9331
mas	-9332
oky	-9333
rim	-9334
alal	-9335
stan	-9336
▁Adm	-9337
▁Asa	-9338
▁Dow	-9339
▁Ish	-9340
▁pac	-9341
▁rig	-9342
icing	-9343
▁Amid	-9344
▁Give	-9345
▁Hist	-9346
▁Home	-9347
▁Wood	-9348
▁bell	-9349
▁kiss	-9350
▁mood	-9351
▁plus	-9352
erated	-9353
points	-9354
▁Alger	-9355
▁Forum	-9356
▁Selva	-9357
▁compr	-9358
▁psych	-9359
▁refin	-9360
▁smell	-9361
▁thank	-9362
▁vague	-9363
pending	-9364
reement	-9365
▁Lionel	-9366
▁Martin	-9367
▁Mirror	-9368
▁Paruth	-9369
▁custom	-9370
▁divers	-9371
▁outlaw	-9372
▁papers	-9373
▁simple	-9374
▁stream	-9375
▁summed	-9376
aneously	-9377
▁bonuses	-9378
▁congrat	-9379
▁depends	-9380
▁murders	-9381
▁pattern	-9382
▁revenue	-9383
▁Catholic	-9384
▁betrayed	-9385
▁mobilise	-9386
▁monarchy	-9387
▁revenues	-9388
▁slashing	-9389
▁vehement	-9390
▁Operation	-9391
▁Venkatesh	-9392
▁advancing	-9393
▁isolation	-9394
▁practices	-9395
▁witnessed	-9396
▁calculated	-9397
▁condemning	-9398
▁distribute	-9399
▁exploiting	-9400
▁instructed	-9401
fit	-9402
oln	-9403
rep	-9404
tes	-9405
▁Av	-9406
▁Da	-9407
▁Ru	-9408
▁od	-9409
airo	-9410
arto	-9411
imat	-9412
okyo	-9413
ouch	-9414
▁ETA	-9415
▁PDS	-9416
5,000	-9417
backs	-9418
itage	-9419
sight	-9420
▁1964	-9421
▁Linc	-9422
▁Mont	-9423
▁Murd	-9424
▁calm	-9425
▁rang	-9426
▁semi	-9427
▁wear	-9428
olshev	-9429
rition	-9430
▁Tokyo	-9431
▁boats	-9432
▁girls	-9433
▁gradu	-9434
▁honey	-9435
▁surge	-9436
▁sworn	-9437
emptive	-9438
▁40,000	-9439
▁Actors	-9440
▁Commer	-9441
▁Karnat	-9442
▁Mitter	-9443
▁covert	-9444
▁noting	-9445
▁outset	-9446
▁planet	-9447
▁postal	-9448
▁punish	-9449
▁urgent	-9450
curities	-9451
▁Bhavana	-9452
▁Gerhard	-9453
▁Lincoln	-9454
▁assured	-9455
▁bolster	-9456
▁confess	-9457
▁desired	-9458
▁elderly	-9459
▁isolate	-9460
▁machine	-9461
▁transit	-9462
▁Governor	-9463
▁Recently	-9464
▁detailed	-9465
▁ensuring	-9466
▁findings	-9467
▁hypocrit	-9468
▁illusion	-9469
▁organise	-9470
▁unstable	-9471
▁weakness	-9472
▁Bhagyaraj	-9473
▁Dominique	-9474
▁entertain	-9475
▁incumbent	-9476
▁recognise	-9477
▁routinely	-9478
▁Throughout	-9479
▁dispatched	-9480
▁regardless	-9481
▁undertaken	-9482
▁frustration	-9483
▁interviewed	-9484
▁restoration	-9485
▁Conservative	-9486
▁concentrated	-9487
▁constituency	-9488
▁inauguration	-9489
▁accommodation	-9490
ym	-9491
Sem	-9492
lad	-9493
▁46	-9494
▁49	-9495
▁Bu	-9496
▁Iv	-9497
▁Sm	-9498
arer	-9499
rian	-9500
udes	-9501
▁Cur	-9502
▁Ern	-9503
▁Kat	-9504
▁Thy	-9505
▁dim	-9506
achar	-9507
arthi	-9508
irect	-9509
itzer	-9510
▁Gopi	-9511
▁Tele	-9512
▁drag	-9513
▁evac	-9514
▁warm	-9515
aviour	-9516
▁Super	-9517
▁Texas	-9518
▁Young	-9519
▁bears	-9520
▁grass	-9521
▁mourn	-9522
▁stunt	-9523
▁valid	-9524
▁widow	-9525
rategic	-9526
tenance	-9527
▁Allawi	-9528
▁abuses	-9529
▁advent	-9530
▁allows	-9531
▁climax	-9532
▁firmly	-9533
▁healed	-9534
▁intend	-9535
▁riches	-9536
▁select	-9537
▁uphold	-9538
▁upward	-9539
▁300,000	-9540
▁Bolshev	-9541
▁Islands	-9542
▁payment	-9543
▁plunder	-9544
▁pressed	-9545
▁shepher	-9546
▁theoret	-9547
▁vicious	-9548
▁certific	-9549
▁despised	-9550
▁injuries	-9551
▁militias	-9552
▁stronger	-9553
▁Karnataka	-9554
▁beautiful	-9555
▁component	-9556
▁portrayed	-9557
▁affiliated	-9558
▁programmes	-9559
▁remembered	-9560
▁Independent	-9561
▁forthcoming	-9562
▁investments	-9563
▁interpretation	-9564
ahn	-9565
hor	-9566
jug	-9567
sen	-9568
▁Ky	-9569
▁PK	-9570
▁dd	-9571
▁ow	-9572
arak	-9573
asur	-9574
avun	-9575
emic	-9576
etha	-9577
gang	-9578
hesh	-9579
ouis	-9580
poly	-9581
▁DMK	-9582
▁alb	-9583
▁cad	-9584
alore	-9585
amejo	-9586
naire	-9587
prime	-9588
▁1981	-9589
▁Aceh	-9590
▁Anth	-9591
▁Pong	-9592
▁merc	-9593
▁mere	-9594
▁pace	-9595
▁unac	-9596
▁wept	-9597
isters	-9598
mailer	-9599
making	-9600
reland	-9601
▁Ligue	-9602
▁Selah	-9603
▁Stein	-9604
▁Vavun	-9605
▁adapt	-9606
▁blast	-9607
▁cells	-9608
▁hence	-9609
▁lambs	-9610
▁trium	-9611
fascist	-9612
▁Fillon	-9613
▁Invest	-9614
▁Norway	-9615
▁Policy	-9616
▁Prasad	-9617
▁conced	-9618
▁copies	-9619
▁humili	-9620
▁indign	-9621
▁passes	-9622
▁starts	-9623
▁talked	-9624
▁volunt	-9625
asingham	-9626
▁Brother	-9627
▁Finally	-9628
▁Nothing	-9629
▁battles	-9630
▁closest	-9631
▁dragged	-9632
▁fighter	-9633
▁placing	-9634
▁posters	-9635
▁records	-9636
▁touched	-9637
operation	-9638
▁Business	-9639
▁blessing	-9640
▁consists	-9641
▁expenses	-9642
▁leaflets	-9643
▁prisoner	-9644
▁reconcil	-9645
▁sacrific	-9646
formmailer	-9647
▁Mammootty	-9648
▁Palestine	-9649
▁Pyongyang	-9650
▁columnist	-9651
▁cooperate	-9652
▁spokesmen	-9653
▁Communiste	-9654
▁Padmapriya	-9655
▁campaigned	-9656
▁facilitate	-9657
▁neighbours	-9658
▁protecting	-9659
▁conclusions	-9660
▁coordinated	-9661
▁geopolitical	-9662
▁successfully	-9663
▁undocumented	-9664
▁subordination	-9665
CO	-9666
ker	-9667
▁Id	-9668
agam	-9669
zone	-9670
▁CNN	-9671
▁Vis	-9672
▁Woe	-9673
▁flu	-9674
▁fury	-9675
▁tone	-9676
Israel	-9677
avened	-9678
▁Barak	-9679
▁Boliv	-9680
▁Jammu	-9681
▁Joint	-9682
▁Jones	-9683
▁Maybe	-9684
▁Watch	-9685
▁brink	-9686
▁incur	-9687
▁scope	-9688
▁teeth	-9689
▁wield	-9690
▁Chalde	-9691
▁Maliki	-9692
▁Nasser	-9693
▁Nathan	-9694
▁excell	-9695
▁leaked	-9696
▁stable	-9697
▁subjug	-9698
▁Galilee	-9699
▁Murdoch	-9700
▁awarded	-9701
▁disinte	-9702
▁edition	-9703
▁reading	-9704
▁returns	-9705
▁seekers	-9706
▁shelter	-9707
▁upright	-9708
terrorism	-9709
▁Likewise	-9710
▁chambers	-9711
▁employee	-9712
▁forsaken	-9713
▁monetary	-9714
▁networks	-9715
▁attending	-9716
▁competing	-9717
▁expanding	-9718
▁suspicion	-9719
▁Mitterrand	-9720
▁objections	-9721
▁concentration	-9722
MD	-9723
RG	-9724
ji	-9725
fur	-9726
oks	-9727
ysi	-9728
zor	-9729
▁IS	-9730
chem	-9731
dney	-9732
rors	-9733
▁Age	-9734
▁Amb	-9735
▁Edu	-9736
▁Kur	-9737
▁Zer	-9738
▁soj	-9739
▁sym	-9740
Semit	-9741
agger	-9742
cised	-9743
month	-9744
sters	-9745
▁Boch	-9746
▁Each	-9747
▁Five	-9748
▁Gysi	-9749
▁Make	-9750
▁elig	-9751
▁gulf	-9752
▁mail	-9753
▁onsl	-9754
▁prey	-9755
▁prox	-9756
aranam	-9757
racies	-9758
▁Abram	-9759
▁Ghost	-9760
▁Pooja	-9761
▁Vishn	-9762
▁decay	-9763
▁graph	-9764
▁harsh	-9765
▁hills	-9766
▁hired	-9767
▁reply	-9768
▁theme	-9769
▁thres	-9770
▁virus	-9771
▁Basque	-9772
▁Pongal	-9773
▁Shakti	-9774
▁Sydney	-9775
▁boards	-9776
▁bombed	-9777
▁brazen	-9778
▁devour	-9779
▁freeze	-9780
▁hidden	-9781
▁intern	-9782
▁rumour	-9783
▁voiced	-9784
asekaran	-9785
isations	-9786
▁Ireland	-9787
▁bluntly	-9788
▁custody	-9789
▁discipl	-9790
▁fleeing	-9791
▁issuing	-9792
▁leaflet	-9793
▁learned	-9794
▁restart	-9795
▁trigger	-9796
▁unknown	-9797
▁Amorites	-9798
▁Vavuniya	-9799
▁bitterly	-9800
▁ideology	-9801
▁outlined	-9802
▁prophesy	-9803
▁scenario	-9804
▁attracted	-9805
▁onslaught	-9806
▁pressures	-9807
▁reception	-9808
▁recognize	-9809
▁separated	-9810
▁constantly	-9811
▁elementary	-9812
▁messengers	-9813
▁resentment	-9814
▁highlighted	-9815
▁initiatives	-9816
▁maintenance	-9817
▁abominations	-9818
▁deregulation	-9819
▁professional	-9820
▁administrative	-9821
▁considerations	-9822
▁administrations	-9823
do	-9824
eu	-9825
oda	-9826
▁41	-9827
▁Ca	-9828
They	-9829
anti	-9830
eria	-9831
ethe	-9832
uras	-9833
▁Kim	-9834
▁sir	-9835
inder	-9836
inian	-9837
oning	-9838
spons	-9839
stein	-9840
uresh	-9841
▁1947	-9842
▁Brig	-9843
▁Ford	-9844
▁Than	-9845
▁hier	-9846
▁rams	-9847
▁sand	-9848
▁sung	-9849
anyahu	-9850
enburg	-9851
lessly	-9852
makers	-9853
▁Ranil	-9854
▁match	-9855
▁ninet	-9856
▁phase	-9857
legraph	-9858
▁Gordon	-9859
▁Mathiv	-9860
▁begins	-9861
▁magist	-9862
▁please	-9863
▁racism	-9864
▁sacked	-9865
▁temper	-9866
▁vanity	-9867
▁burdens	-9868
▁coastal	-9869
▁enthusi	-9870
▁exchang	-9871
▁publish	-9872
▁singing	-9873
▁Hospital	-9874
▁amounted	-9875
▁arranged	-9876
▁confined	-9877
▁explains	-9878
▁external	-9879
▁generals	-9880
▁organize	-9881
▁Netanyahu	-9882
▁partition	-9883
▁promising	-9884
▁prospects	-9885
▁sharehold	-9886
▁sometimes	-9887
▁contingent	-9888
▁insecurity	-9889
▁structures	-9890
▁indications	-9891
▁ministerial	-9892
▁populations	-9893
volutionnaire	-9894
▁conversation	-9895
▁85	-9896
▁Rw	-9897
aned	-9898
anga	-9899
file	-9900
icks	-9901
isms	-9902
just	-9903
room	-9904
rows	-9905
rust	-9906
wage	-9907
▁Lab	-9908
▁Rac	-9909
▁lib	-9910
▁luc	-9911
▁mad	-9912
▁tor	-9913
aires	-9914
front	-9915
immig	-9916
▁Bear	-9917
▁Belg	-9918
▁Bosn	-9919
▁Init	-9920
▁Kiss	-9921
▁Levi	-9922
▁	-9923
e	-9924
a	-9925
t	-9926
o	-9927
i	-9928
n	-9929
s	-9930
r	-9931
h	-9932
l	-9933
d	-9934
c	-9935
u	-9936
p	-9937
m	-9938
f	-9939
g	-9940
y	-9941
w	-9942
b	-9943
,	-9944
v	-9945
.	-9946
;	-9947
k	-9948
&	-9949
T	-9950
S	-9951
A	-9952
I	-9953
P	-9954
-	-9955
0	-9956
C	-9957
B	-9958
M	-9959
j	-9960
L	-9961
q	-9962
D	-9963
U	-9964
R	-9965
x	-9966
W	-9967
E	-9968
1	-9969
G	-9970
F	-9971
N	-9972
O	-9973
H	-9974
J	-9975
:	-9976
2	-9977
z	-9978
9	-9979
K	-9980
V	-9981
3	-9982
5	-9983
)	-9984
(	-9985
4	-9986
8	-9987
6	-9988
7	-9989
?	-9990
Y	-9991
#	-9992
/	-9993
!	-9994
Z	-9995
$	-9996
