<unk>	0
<s>	0
</s>	0
▁क	-0
▁स	-1
▁ह	-2
▁प	-3
▁म	-4
्र	-5
ार	-6
▁के	-7
▁अ	-8
▁व	-9
▁है	-10
्य	-11
ें	-12
▁ज	-13
▁न	-14
▁।	-15
ों	-16
▁ब	-17
या	-18
▁द	-19
र्	-20
▁,	-21
▁में	-22
ता	-23
▁उ	-24
ान	-25
▁ल	-26
▁प्र	-27
▁र	-28
िक	-29
▁की	-30
▁आ	-31
▁औ	-32
ने	-33
▁कि	-34
▁कर	-35
▁त	-36
्त	-37
▁और	-38
ित	-39
▁को	-40
▁का	-41
▁भ	-42
▁से	-43
ना	-44
▁ग	-45
▁इ	-46
▁पर	-47
▁वि	-48
्व	-49
▁ए	-50
▁.	-51
▁य	-52
▁हो	-53
▁सं	-54
▁श	-55
ाल	-56
▁-	-57
था	-58
िय	-59
िए	-60
्ष	-61
▁च	-62
▁इस	-63
ति	-64
▁हैं	-65
्ट	-66
▁एक	-67
▁सम	-68
्या	-69
ही	-70
▁जा	-71
न्	-72
ती	-73
▁लिए	-74
ते	-75
ाम	-76
स्	-77
वा	-78
▁नि	-79
के	-80
हा	-81
ड़	-82
त्र	-83
▁अप	-84
िया	-85
क्ष	-86
ोग	-87
▁अध	-88
सी	-89
से	-90
▁अन	-91
▁रा	-92
हीं	-93
▁दे	-94
िल	-95
▁या	-96
▁यह	-97
▁भी	-98
▁)	-99
▁नहीं	-100
▁(	-101
▁ख	-102
ारा	-103
ाह	-104
ास	-105
▁1	-106
कार	-107
▁किया	-108
▁जो	-109
▁ने	-110
नी	-111
री	-112
रा	-113
ष्ट	-114
क्त	-115
▁करने	-116
त्	-117
ंग	-118
का	-119
▁सा	-120
िन	-121
▁कार	-122
▁स्	-123
▁फ	-124
▁उस	-125
ेश	-126
▁उप	-127
▁थ	-128
द्	-129
ियों	-130
िस	-131
▁हम	-132
▁बा	-133
कर	-134
ले	-135
▁सक	-136
▁मु	-137
ला	-138
▁तथा	-139
ंध	-140
ाय	-141
▁ध	-142
ंत	-143
▁उन	-144
ूप	-145
▁था	-146
गा	-147
की	-148
▁ही	-149
▁भार	-150
▁अनु	-151
▁हु	-152
ूर्	-153
ाने	-154
भा	-155
मा	-156
्च	-157
▁द्व	-158
सा	-159
ओं	-160
▁सु	-161
्री	-162
▁गया	-163
ंद	-164
▁ले	-165
▁2	-166
स्त	-167
▁ऐ	-168
▁अधिक	-169
वि	-170
▁कु	-171
▁स्व	-172
द्ध	-173
▁आप	-174
ंड	-175
▁किसी	-176
▁तो	-177
▁ड	-178
▁रूप	-179
▁व्य	-180
▁द्वारा	-181
ल्	-182
▁राज	-183
ारी	-184
▁विश	-185
▁रह	-186
▁निर्	-187
म्	-188
▁वह	-189
ीन	-190
ोज	-191
द्य	-192
▁कार्य	-193
ाप	-194
ैं	-195
न्ह	-196
बंध	-197
देश	-198
▁अपने	-199
▁प्रति	-200
▁वाल	-201
धार	-202
ली	-203
रे	-204
त्त	-205
▁भा	-206
▁वर्	-207
▁परि	-208
▁पु	-209
▁वे	-210
▁पह	-211
▁ट	-212
भी	-213
▁घ	-214
योग	-215
▁चाह	-216
▁साथ	-217
▁जिस	-218
▁छ	-219
ार्	-220
ाना	-221
रण	-222
▁तक	-223
▁क्ष	-224
▁भारत	-225
क्ति	-226
▁न्या	-227
ंत्र	-228
में	-229
ारे	-230
दि	-231
▁स्थ	-232
क्र	-233
▁उन्ह	-234
जी	-235
कि	-236
▁राष्ट	-237
िर	-238
दा	-239
▁जाता	-240
▁/	-241
गी	-242
दी	-243
▁करना	-244
▁अव	-245
▁मह	-246
▁दो	-247
स्थ	-248
ष्	-249
▁मा	-250
ृत	-251
ूल	-252
▁थे	-253
ियम	-254
ुत	-255
चार	-256
▁कुछ	-257
▁मे	-258
▁सर	-259
▁'	-260
▁बह	-261
ढ़	-262
▁साम	-263
▁कोई	-264
खा	-265
नों	-266
▁थी	-267
ब्	-268
▁पा	-269
ंच	-270
▁ला	-271
▁सि	-272
िश	-273
▁मैं	-274
च्च	-275
▁सी	-276
मान	-277
▁होता	-278
▁दिया	-279
▁विक	-280
▁19	-281
्ञ	-282
▁जी	-283
्यों	-284
ुर	-285
▁सकता	-286
्छ	-287
ूर	-288
▁जब	-289
्रे	-290
ूर्ण	-291
ेत्र	-292
▁;	-293
गे	-294
न्द	-295
धि	-296
पा	-297
जा	-298
न्न	-299
वर्	-300
ाप्त	-301
ये	-302
▁इन	-303
िका	-304
▁मान	-305
र्थ	-306
▁बी	-307
▁समय	-308
▁कम	-309
▁संबंध	-310
▁अभ	-311
▁क्षेत्र	-312
ोक	-313
ीय	-314
▁मिल	-315
▁करते	-316
वे	-317
▁हुए	-318
▁जै	-319
हां	-320
▁करता	-321
भाव	-322
▁न्याया	-323
▁अंत	-324
कों	-325
धान	-326
▁अन्य	-327
▁सू	-328
गर	-329
च्छ	-330
▁सरकार	-331
वन	-332
▁पू	-333
▁लोग	-334
▁:	-335
क्षा	-336
र्म	-337
▁बना	-338
▁राष्ट्र	-339
▁जाए	-340
स्था	-341
ेष	-342
▁अपनी	-343
▁देश	-344
▁उत्	-345
नि	-346
▁चाहिए	-347
िप	-348
▁हि	-349
त्य	-350
▁3	-351
▁20	-352
ोट	-353
्रीय	-354
दान	-355
▁तर	-356
▁?	-357
▁सह	-358
▁प्रा	-359
्रा	-360
▁रहे	-361
▁राज्य	-362
▁उनके	-363
▁वर्ष	-364
▁रहा	-365
▁रख	-366
ज्ञ	-367
क्	-368
▁विश्व	-369
▁सम्	-370
▁4	-371
ूर्व	-372
चना	-373
▁बहुत	-374
▁होने	-375
▁गई	-376
गत	-377
ज़	-378
▁वाले	-379
को	-380
लय	-381
र्श	-382
▁बाद	-383
▁बात	-384
▁गु	-385
ूस	-386
▁प्राप्त	-387
तीय	-388
पति	-389
▁करें	-390
▁कहा	-391
▁ओ	-392
िक्ष	-393
▁दी	-394
श्य	-395
▁बन	-396
▁सभी	-397
वं	-398
दन	-399
करण	-400
▁जाने	-401
▁प्रकार	-402
▁उसके	-403
ौर	-404
▁सब	-405
ड़ा	-406
स्ता	-407
▁ऊ	-408
ेल	-409
ुक्त	-410
ोंने	-411
िव	-412
▁आय	-413
ुल	-414
ंक	-415
▁ऐसे	-416
▁होती	-417
िम	-418
ानी	-419
िख	-420
ोध	-421
एं	-422
जन	-423
▁व्यक्ति	-424
पूर्ण	-425
िति	-426
▁न्यायालय	-427
▁देख	-428
▁पी	-429
ड़ी	-430
▁चु	-431
▁कारण	-432
▁भारतीय	-433
ंप	-434
धिक	-435
ालय	-436
्ल	-437
▁लग	-438
श्च	-439
ोल	-440
▁तरह	-441
▁होगा	-442
त्म	-443
▁जि	-444
▁हुआ	-445
▁अधिन	-446
▁प्रश	-447
▁जन	-448
▁गए	-449
▁कह	-450
ध्य	-451
▁व्या	-452
▁इसके	-453
▁राष्ट्रपति	-454
▁एवं	-455
▁विकास	-456
द्योग	-457
▁उसे	-458
▁पूर्व	-459
ग्र	-460
▁सकते	-461
ड़े	-462
▁किए	-463
बा	-464
▁अधिनियम	-465
िट	-466
▁अनुस	-467
▁वा	-468
▁उन्हें	-469
▁माम	-470
▁उन्होंने	-471
▁आव	-472
▁यदि	-473
मी	-474
▁ना	-475
▁मूल	-476
▁धारा	-477
▁क्या	-478
▁नी	-479
िये	-480
▁दूस	-481
वी	-482
बर	-483
▁पहले	-484
र्व	-485
▁नाम	-486
किन	-487
▁अस	-488
तन	-489
▁काम	-490
▁दु	-491
▁आर	-492
▁जान	-493
त्व	-494
वल	-495
▁विचार	-496
ोजना	-497
▁लेकिन	-498
वाद	-499
िता	-500
▁उच्च	-501
▁ऐसा	-502
क्रम	-503
तिक	-504
▁ता	-505
▁विशेष	-506
मे	-507
▁समा	-508
▁हू	-509
▁क्र	-510
▁स्थान	-511
माण	-512
ुद्ध	-513
्यू	-514
▁ई	-515
झे	-516
तर	-517
चित	-518
ाली	-519
▁मुख	-520
▁ग्र	-521
धा	-522
श्यक	-523
▁स्त	-524
▁जाती	-525
▁बि	-526
▁ऐसी	-527
▁आधार	-528
ंट	-529
▁बढ़	-530
कृत	-531
िला	-532
▁लोगों	-533
ष्ठ	-534
्ड	-535
पर	-536
सर	-537
ूम	-538
▁निय	-539
▁पै	-540
▁अधिकार	-541
▁अब	-542
▁स्था	-543
न्त	-544
▁भाग	-545
▁बारे	-546
यी	-547
▁हमारे	-548
ां	-549
▁जीवन	-550
▁ये	-551
ोर	-552
▁आवश्यक	-553
▁बे	-554
िंग	-555
▁निक	-556
▁वै	-557
▁उनकी	-558
षण	-559
ील	-560
्स	-561
ियां	-562
▁अधीन	-563
ास्त	-564
▁जैसे	-565
▁प्रभाव	-566
▁सेवा	-567
▁समझ	-568
▁तु	-569
ाइ	-570
ोप	-571
▁शिक्ष	-572
▁होते	-573
▁उत्त	-574
लों	-575
▁5	-576
ोर्	-577
क्षण	-578
िन्न	-579
▁उपयोग	-580
▁सद	-581
▁हुई	-582
▁बार	-583
▁व्यव	-584
▁मन	-585
▁दिन	-586
▁रु	-587
▁मुझे	-588
▁क्यों	-589
प्र	-590
▁ओर	-591
▁केवल	-592
निक	-593
षा	-594
ार्थ	-595
कृ	-596
▁फिर	-597
टा	-598
ची	-599
▁जाना	-600
▁रही	-601
दार	-602
टी	-603
▁अल	-604
▁कृ	-605
हाय	-606
ंस	-607
क्रिया	-608
ल्प	-609
▁ठ	-610
ख्या	-611
ुद	-612
▁बीच	-613
▁जिन	-614
ंभ	-615
▁अथ	-616
▁प्रदान	-617
▁प्रयोग	-618
▁बाह	-619
ेक	-620
रों	-621
▁श्री	-622
ताओं	-623
रिक	-624
▁सहाय	-625
कारी	-626
▁चल	-627
वाह	-628
▁उत्पा	-629
ेत	-630
▁ढ	-631
चा	-632
ंब	-633
यन	-634
िल्	-635
▁दृ	-636
▁विर	-637
तः	-638
▁प्रत्य	-639
▁अथवा	-640
▁देने	-641
▁हों	-642
▁पुर	-643
▁पार	-644
धी	-645
तम	-646
मु	-647
वेश	-648
▁पास	-649
वार	-650
▁वाली	-651
▁“	-652
कर्	-653
ज्ञान	-654
शन	-655
ून	-656
▁लोक	-657
्न	-658
▁प्रक्रिया	-659
▁विभ	-660
▁खा	-661
▁जिसमें	-662
▁सो	-663
▁अपना	-664
▁निर्धार	-665
फल	-666
▁लगा	-667
00	-668
लब्	-669
▁विधि	-670
हार	-671
▁कै	-672
▁दोनों	-673
भव	-674
दर्श	-675
▁जहां	-676
▁s	-677
▁सकती	-678
▁स्प	-679
▁इसे	-680
▁उपलब्	-681
▁कंप	-682
ब्द	-683
त्ता	-684
पित	-685
▁करती	-686
▁राष्ट्रीय	-687
▁200	-688
णी	-689
▁निर	-690
▁पश्च	-691
▁व्याप	-692
व्य	-693
▁न्याय	-694
त्मक	-695
▁होना	-696
ेद	-697
ित्र	-698
▁झ	-699
▁महत्व	-700
▁तब	-701
▁पुन	-702
▁उसकी	-703
ेज	-704
▁पहु	-705
▁%	-706
टर	-707
▁सके	-708
▁सदस	-709
▁बद	-710
▁प्रण	-711
फ़	-712
▁संग	-713
हाँ	-714
▁योजना	-715
द्योगिक	-716
▁विष	-717
मिक	-718
ुक	-719
▁सामान	-720
युक्त	-721
▁करे	-722
▁हर	-723
▁हा	-724
▁मौ	-725
▁बै	-726
ूत	-727
भाग	-728
त्रा	-729
▁अर्थ	-730
▁लिया	-731
ोड़	-732
▁सबसे	-733
▁अच्छ	-734
▁वृ	-735
पी	-736
दे	-737
▁बैं	-738
▁प्रे	-739
▁उपलब्ध	-740
▁क्योंकि	-741
▁मुख्य	-742
▁फ़	-743
▁ऑ	-744
▁स्वा	-745
▁शिक्षा	-746
▁अर्	-747
▁वित	-748
▁शुर	-749
▁हमें	-750
▁जाते	-751
ंतु	-752
▁अंतर	-753
ण्ड	-754
▁संबंधित	-755
ात	-756
▁पत्र	-757
▁पद	-758
▁सूचना	-759
▁उद्	-760
▁हूं	-761
▁जर	-762
▁छोट	-763
ोह	-764
ोजन	-765
▁बच्च	-766
▁स्थिति	-767
▁१	-768
शा	-769
श्व	-770
▁6	-771
▁दौर	-772
बी	-773
तंत्र	-774
▁ब्र	-775
▁अंग	-776
▁कभी	-777
ामी	-778
िखा	-779
न्द्र	-780
▁प्रस	-781
▁वस्त	-782
स्ट	-783
वरण	-784
▁लिख	-785
चे	-786
▁स्ट	-787
कृति	-788
▁अति	-789
▁विषय	-790
▁i	-791
▁अनुसार	-792
▁अध्य	-793
▁नियम	-794
▁तै	-795
ंज	-796
ाला	-797
ेट	-798
ष्टि	-799
▁आज	-800
▁जु	-801
▁केंद	-802
▁शाम	-803
▁योग	-804
ित्व	-805
▁इसल	-806
▁उठ	-807
▁सहायता	-808
तों	-809
▁वास्त	-810
र्क	-811
▁201	-812
▁उत्तर	-813
▁कई	-814
▁सुर	-815
▁लिये	-816
▁शक्ति	-817
▁भाषा	-818
▁शब्द	-819
▁यु	-820
▁व्यक्त	-821
▁मै	-822
▁विभिन्न	-823
त्ति	-824
▁सर्व	-825
्यान	-826
▁दा	-827
▁जाएगा	-828
▁भूम	-829
नेक	-830
▁ऋ	-831
▁मामले	-832
▁दूसरे	-833
▁अगर	-834
ेय	-835
स्थान	-836
▁गा	-837
▁सामान्य	-838
रूप	-839
▁स्वी	-840
ासन	-841
▁बु	-842
▁मंत्र	-843
फी	-844
काश	-845
▁इत	-846
िस्ट	-847
▁इसलिए	-848
▁दौरान	-849
▁7	-850
▁उसका	-851
हर	-852
▁उनका	-853
▁अलग	-854
▁संघ	-855
धन	-856
मुख	-857
▁संप	-858
▁इसका	-859
▁>	-860
▁आई	-861
्म	-862
ोड	-863
▁पूर्ण	-864
▁वाला	-865
▁ज्ञ	-866
▁सुन	-867
▁"	-868
▁शामिल	-869
▁जल	-870
▁पक्ष	-871
▁परिवर्	-872
इट	-873
मत	-874
ंजी	-875
▁&	-876
▁कान	-877
काल	-878
वास	-879
▁विद्य	-880
▁वास्तव	-881
▁आदि	-882
प्त	-883
▁तैय	-884
वान	-885
▁उसने	-886
▁अनेक	-887
▁संस	-888
▁एस	-889
▁अवसर	-890
क्ट	-891
▁लाभ	-892
▁संख्या	-893
▁8	-894
िज	-895
डी	-896
ूह	-897
▁गये	-898
शि	-899
▁तीन	-900
▁h	-901
गम	-902
ुष	-903
▁दर	-904
▁पहुंच	-905
निया	-906
▁उपबंध	-907
ुट	-908
▁महा	-909
▁माध्य	-910
ोर्ट	-911
जार	-912
▁अं	-913
यं	-914
▁बता	-915
टना	-916
ाज	-917
▁जिसे	-918
▁कल	-919
ेंगे	-920
▁रुप	-921
▁प्रत्येक	-922
ृत्य	-923
▁पृ	-924
▁दूर	-925
▁0	-926
▁सिद्ध	-927
▁साह	-928
णा	-929
न्तु	-930
▁प्रौ	-931
शत	-932
▁निर्माण	-933
नीय	-934
स्थित	-935
▁प्रया	-936
▁मानव	-937
स्व	-938
र्इ	-939
▁प्रय	-940
▁समाज	-941
▁यहां	-942
द्र	-943
▁उद्योग	-944
पाल	-945
▁p	-946
▁संर	-947
▁बनाने	-948
कट	-949
▁भर	-950
▁ध्यान	-951
▁कार्यक्रम	-952
ूट	-953
▁होगी	-954
▁संवि	-955
▁संस्था	-956
▁उद	-957
▁नई	-958
▁महत्वपूर्ण	-959
▁स्पष्ट	-960
▁वित्त	-961
क्षित	-962
▁अंतर्	-963
▁आपको	-964
▁संस्	-965
▁मध्य	-966
▁तैयार	-967
▁अग	-968
▁रोग	-969
दाय	-970
▁विदेश	-971
ाई	-972
▁प्रयास	-973
▁जिसके	-974
▁आर्थ	-975
▁स्तर	-976
▁ची	-977
नल	-978
▁वस्तु	-979
बन्	-980
▁धर्म	-981
र्ष	-982
ांत	-983
▁हेत	-984
ग्रह	-985
▁बिना	-986
▁18	-987
सल	-988
▁शुरू	-989
▁‘	-990
णय	-991
▁पता	-992
▁बाहर	-993
▁खु	-994
▁हमारी	-995
▁प्रतिशत	-996
▁देता	-997
▁पि	-998
वादी	-999
▁मत	-1000
▁आर्थिक	-1001
▁44	-1002
ोन	-1003
▁जनता	-1004
▁रे	-1005
▁बैंक	-1006
▁हेतु	-1007
▁पड़	-1008
▁प्रौद्योगिक	-1009
स्या	-1010
▁#	-1011
▁प्रार	-1012
▁अन्त	-1013
्टी	-1014
▁आदेश	-1015
▁ली	-1016
ोष	-1017
▁भाव	-1018
▁विध	-1019
▁शी	-1020
▁इससे	-1021
▁समान	-1022
▁परिण	-1023
▁सौ	-1024
▁कर्म	-1025
▁”	-1026
▁माल	-1027
गू	-1028
▁विन	-1029
मित	-1030
पन	-1031
▁डा	-1032
▁चार	-1033
▁आगे	-1034
▁a	-1035
▁डि	-1036
▁शु	-1037
ठन	-1038
▁लेख	-1039
्ता	-1040
▁चि	-1041
▁करके	-1042
▁श्र	-1043
▁प्रो	-1044
▁सार	-1045
▁संस्थान	-1046
ंह	-1047
▁गति	-1048
▁आवश्यकता	-1049
▁मार्	-1050
साय	-1051
ूर्ति	-1052
धीश	-1053
▁देना	-1054
धारा	-1055
म्ब	-1056
▁बल्	-1057
▁निर्धारित	-1058
▁पर्या	-1059
▁समस्या	-1060
▁सभा	-1061
▁तुम	-1062
▁वहां	-1063
▁इसी	-1064
हास	-1065
त्या	-1066
▁क्षेत्रों	-1067
दिष्ट	-1068
▁इसमें	-1069
▁प्रमुख	-1070
▁विस्त	-1071
▁सीमा	-1072
▁लागू	-1073
▁खंड	-1074
▁उल्	-1075
▁निम्	-1076
्यता	-1077
षि	-1078
▁विश्वास	-1079
▁निर्णय	-1080
▁मज	-1081
▁गयी	-1082
▁नियंत्र	-1083
▁उद्देश	-1084
▁स्वयं	-1085
▁ती	-1086
ाइल	-1087
▁यू	-1088
▁नीति	-1089
मता	-1090
ाजिक	-1091
म्प	-1092
▁रिप	-1093
▁जारी	-1094
द्धि	-1095
ंख	-1096
▁पूरी	-1097
▁आपके	-1098
▁9	-1099
▁सामाजिक	-1100
▁ज़	-1101
▁प्रकाश	-1102
स्प	-1103
▁प्रस्त	-1104
▁मेरे	-1105
▁प्रणाली	-1106
▁काफी	-1107
िष्ट	-1108
▁हाल	-1109
▁आस	-1110
▁प्रस्ता	-1111
भग	-1112
िश्च	-1113
विधा	-1114
▁आध	-1115
▁परिणाम	-1116
▁स्वतंत्र	-1117
ूरी	-1118
▁स्क	-1119
टक	-1120
▁वी	-1121
दों	-1122
▁आया	-1123
▁पूरा	-1124
▁अपे	-1125
▁सुधार	-1126
ालन	-1127
द्व	-1128
▁विभाग	-1129
▁प्रबंध	-1130
ेन	-1131
्यादा	-1132
▁दिखा	-1133
▁गै	-1134
▁प्रौद्योगिकी	-1135
जू	-1136
हत	-1137
▁कवि	-1138
▁कर्	-1139
re	-1140
तिहास	-1141
▁घर	-1142
▁गुण	-1143
▁विनि	-1144
▁समूह	-1145
▁गो	-1146
पि	-1147
वर	-1148
▁प्रस्ताव	-1149
वेदन	-1150
विद्य	-1151
तियों	-1152
शी	-1153
▁10	-1154
▁मी	-1155
▁स्थापित	-1156
ंदर	-1157
▁हिंद	-1158
▁माध्यम	-1159
ियन	-1160
ियो	-1161
▁ज्ञान	-1162
▁व्यवस्था	-1163
▁मूल्य	-1164
▁बैठ	-1165
क्ष्य	-1166
▁समुद	-1167
▁स्वीकार	-1168
▁लगभग	-1169
एँ	-1170
बद्ध	-1171
चन	-1172
▁हाथ	-1173
विद्यालय	-1174
▁कंपनी	-1175
▁मामलों	-1176
▁न्यायाधीश	-1177
रित	-1178
▁क्रिया	-1179
▁भवन	-1180
शोध	-1181
▁पुस्त	-1182
मार	-1183
ॉल	-1184
▁वर्ग	-1185
▁जैसा	-1186
▁कठ	-1187
▁आयोग	-1188
▁सदस्य	-1189
▁दक्ष	-1190
▁सम्म	-1191
▁हूँ	-1192
▁आम	-1193
▁मृत्य	-1194
▁सर्	-1195
न्म	-1196
ीक	-1197
▁अवधि	-1198
▁निष्	-1199
▁सूची	-1200
▁मैंने	-1201
▁जानकारी	-1202
▁ऋण	-1203
▁प्राधिक	-1204
▁रिपोर्ट	-1205
▁सहयोग	-1206
▁बड़ी	-1207
हित	-1208
लेख	-1209
▁सुरक्षा	-1210
▁अपरा	-1211
▁श्रे	-1212
▁!	-1213
▁ht	-1214
▁अत्य	-1215
इन	-1216
वाई	-1217
▁मद	-1218
▁केंद्र	-1219
▁सुविधा	-1220
▁कृषि	-1221
ेर	-1222
▁फै	-1223
▁अम	-1224
▁टी	-1225
er	-1226
▁सफल	-1227
▁कौ	-1228
▁रंग	-1229
्ले	-1230
▁दर्श	-1231
▁गण	-1232
▁संविधान	-1233
▁व्यापार	-1234
▁किस	-1235
▁देशों	-1236
ान्त	-1237
▁समाप्त	-1238
पन्न	-1239
▁बदल	-1240
एस	-1241
ेशन	-1242
▁स्थित	-1243
▁जिन्ह	-1244
शील	-1245
त्स	-1246
▁धन	-1247
धारण	-1248
▁अमे	-1249
च्छेद	-1250
▁विश्वविद्यालय	-1251
ित्य	-1252
▁इसकी	-1253
▁अधिकारी	-1254
▁शरी	-1255
▁अभी	-1256
▁डे	-1257
▁जिससे	-1258
▁जिसका	-1259
▁संबंधी	-1260
▁विज्ञान	-1261
▁कुल	-1262
▁चिक	-1263
▁समर्थ	-1264
▁परिवर्तन	-1265
▁बाल	-1266
▁परी	-1267
▁ठीक	-1268
▁रखने	-1269
▁अर	-1270
स्तान	-1271
▁देते	-1272
▁कोश	-1273
वृ	-1274
तान	-1275
▁तरी	-1276
20	-1277
र्भ	-1278
ोस	-1279
पना	-1280
▁उत्पादन	-1281
ोषण	-1282
▁त्र	-1283
ुग	-1284
भार	-1285
▁रखा	-1286
▁छोड़	-1287
▁अंतर्गत	-1288
▁विशिष्ट	-1289
▁राम	-1290
▁प्रस्तुत	-1291
▁पिछ	-1292
▁महिला	-1293
▁उपधारा	-1294
▁जाये	-1295
▁बड़े	-1296
▁परिय	-1297
विध	-1298
▁आन	-1299
▁एन	-1300
▁उद्देश्य	-1301
▁शै	-1302
▁जग	-1303
▁<	-1304
▁अनुम	-1305
▁शा	-1306
▁ऊपर	-1307
▁अतिरिक	-1308
▁परियोजना	-1309
आई	-1310
टन	-1311
सित	-1312
यर	-1313
दारी	-1314
▁मंद	-1315
▁बल्कि	-1316
▁डी	-1317
▁निश्च	-1318
थम	-1319
▁राशि	-1320
▁काल	-1321
▁संशोध	-1322
▁199	-1323
सं	-1324
िखित	-1325
▁शरीर	-1326
ंगा	-1327
▁चाहते	-1328
▁अंग्रे	-1329
▁मेरी	-1330
राज	-1331
▁अभि	-1332
▁साल	-1333
बार	-1334
ष्ण	-1335
स्थ्य	-1336
हरा	-1337
ष्ट्रीय	-1338
हन	-1339
क़	-1340
ण्	-1341
ुओं	-1342
क्स	-1343
▁चिकित	-1344
▁२	-1345
जों	-1346
▁आने	-1347
वाल	-1348
ेड	-1349
▁क्षमता	-1350
▁बल	-1351
चान	-1352
▁डाल	-1353
▁सही	-1354
▁वर्त	-1355
ाया	-1356
ाव	-1357
पत्र	-1358
▁जीव	-1359
त्मा	-1360
िल्ली	-1361
▁वेब	-1362
▁समिति	-1363
ंधान	-1364
▁सै	-1365
▁देखा	-1366
ीकरण	-1367
▁अतिरिक्त	-1368
▁अनुच्छेद	-1369
▁11	-1370
▁शिक	-1371
▁दृष्टि	-1372
▁निर्देश	-1373
▁सामने	-1374
▁पश्चिम	-1375
ंधी	-1376
▁15	-1377
▁अप्र	-1378
▁प्रमाण	-1379
▁चला	-1380
▁यहाँ	-1381
▁मार्ग	-1382
दम	-1383
▁नीचे	-1384
▁रो	-1385
▁ज्यादा	-1386
ाहरण	-1387
▁पाठ	-1388
▁आरंभ	-1389
▁युद्ध	-1390
▁कहते	-1391
▁स्वास्थ्य	-1392
▁मार	-1393
्रो	-1394
कृतिक	-1395
यों	-1396
▁उदाहरण	-1397
बन्ध	-1398
▁बहु	-1399
▁अनुभव	-1400
▁अपराध	-1401
▁यात्रा	-1402
▁प्रश्न	-1403
▁प्रदेश	-1404
▁लेने	-1405
▁परिवार	-1406
▁वर्षों	-1407
▁अनुसंधान	-1408
▁परंतु	-1409
▁जरूर	-1410
▁पं	-1411
▁प्रशिक्ष	-1412
कल	-1413
▁मांग	-1414
▁साहित्य	-1415
▁प्रदर्श	-1416
▁12	-1417
▁वर्ण	-1418
▁निवेश	-1419
जे	-1420
▁उत्पाद	-1421
▁पानी	-1422
▁वर्तमान	-1423
गार	-1424
▁दक्षि	-1425
▁दिए	-1426
▁पढ़	-1427
▁जमा	-1428
▁छोटे	-1429
▁विवाह	-1430
▁चौ	-1431
कर्ता	-1432
▁विदेशी	-1433
▁निर्धारण	-1434
तिम	-1435
िश्चित	-1436
▁राजनी	-1437
▁संयुक्त	-1438
▁बंग	-1439
▁महान	-1440
▁सच	-1441
▁करेगा	-1442
▁उसी	-1443
लो	-1444
▁रचना	-1445
म्ह	-1446
▁थीं	-1447
जरा	-1448
▁उससे	-1449
▁व्यक्तियों	-1450
ानों	-1451
्ते	-1452
जर	-1453
▁कोर्इ	-1454
▁दंड	-1455
▁भीतर	-1456
▁होंगे	-1457
▁बच्चों	-1458
श्	-1459
▁प्रती	-1460
जित	-1461
▁बड़ा	-1462
▁परन्तु	-1463
पुर	-1464
▁पैदा	-1465
▁आधारित	-1466
भर	-1467
▁संच	-1468
▁रहने	-1469
▁अपील	-1470
▁तौर	-1471
▁कला	-1472
▁दिव	-1473
▁सिंह	-1474
▁उच्चतम	-1475
▁प्रथम	-1476
▁पीछ	-1477
▁हिस्	-1478
▁उद्य	-1479
▁दुर्	-1480
ारण	-1481
▁सरकारी	-1482
▁चुन	-1483
▁मृत्यु	-1484
▁एम	-1485
▁प्रधान	-1486
ेंट	-1487
ट्ट	-1488
▁भू	-1489
कता	-1490
▁अध्या	-1491
▁तुम्ह	-1492
्रेस	-1493
▁संभव	-1494
▁सार्व	-1495
▁नियंत्रण	-1496
▁इतिहास	-1497
▁रहते	-1498
बल	-1499
▁भूमि	-1500
रल	-1501
▁नही	-1502
▁खोज	-1503
ँच	-1504
▁कॉ	-1505
▁लाख	-1506
▁अपेक्षा	-1507
ंश	-1508
▁यही	-1509
▁मंदिर	-1510
्यास	-1511
ic	-1512
ेप	-1513
▁वृद्धि	-1514
डा	-1515
▁वाप	-1516
▁बस	-1517
▁प्रारंभ	-1518
▁लगता	-1519
▁A	-1520
▁प्रेम	-1521
▁विकसित	-1522
▁दूसरी	-1523
▁लड़	-1524
र्जा	-1525
an	-1526
▁जन्म	-1527
▁विरोध	-1528
यां	-1529
▁नए	-1530
▁दिश	-1531
▁इस्ल	-1532
▁वित्तीय	-1533
▁अंतिम	-1534
पट	-1535
▁कमी	-1536
▁अध्ययन	-1537
ष्य	-1538
▁नागर	-1539
▁घटना	-1540
▁आश	-1541
▁जांच	-1542
▁मदद	-1543
नाथ	-1544
▁करेंगे	-1545
▁कांग	-1546
्ष्	-1547
▁आद	-1548
श्छ	-1549
ग्री	-1550
▁प्रकृति	-1551
▁गांधी	-1552
▁बाजार	-1553
▁विंड	-1554
▁हिन्द	-1555
जूद	-1556
▁विस्तार	-1557
▁संसा	-1558
र्जी	-1559
▁स्थापना	-1560
▁ऊण्	-1561
श्छ्ष्	-1562
▁ऊण्श्छ्ष्	-1563
▁उत्पन्न	-1564
शल	-1565
▁प्रग	-1566
▁पुस्तक	-1567
▁n	-1568
▁दिल्ली	-1569
▁लेकर	-1570
▁पेश	-1571
▁भूमिका	-1572
▁संभाव	-1573
▁कैसे	-1574
▁किंतु	-1575
ोजित	-1576
▁विवरण	-1577
▁सदस्यों	-1578
▁पुल	-1579
▁मिला	-1580
▁संदेश	-1581
ार्ड	-1582
चल	-1583
▁राज्यों	-1584
▁ते	-1585
▁किये	-1586
वीं	-1587
ात्	-1588
▁विधान	-1589
▁पे	-1590
ोर्ड	-1591
▁पुनः	-1592
▁बरा	-1593
▁हमने	-1594
▁बंद	-1595
▁अग्र	-1596
▁संद	-1597
▁दाय	-1598
र्स	-1599
000	-1600
क्षम	-1601
रि	-1602
▁न्यू	-1603
▁मात्रा	-1604
भूत	-1605
▁रोक	-1606
▁भावना	-1607
▁स्वतंत्रता	-1608
▁आत्म	-1609
▁एक्स	-1610
▁माना	-1611
▁उल्लेख	-1612
▁बच	-1613
▁वाय	-1614
स्थिति	-1615
▁हित	-1616
पूर्व	-1617
▁संत	-1618
▁नागरिक	-1619
▁नौ	-1620
▁संसद	-1621
▁विनिर्	-1622
कल्प	-1623
▁चे	-1624
▁प्रतिक	-1625
▁शासन	-1626
िले	-1627
▁पौ	-1628
▁बाहरी	-1629
▁आवेदन	-1630
मन	-1631
तार	-1632
र्च	-1633
▁चित्र	-1634
र्द	-1635
ुस	-1636
▁तंत्र	-1637
▁गिर	-1638
▁तकनी	-1639
ल्क	-1640
साइट	-1641
िना	-1642
▁बनाया	-1643
डियो	-1644
▁सहित	-1645
▁कानून	-1646
▁भुग	-1647
लाह	-1648
▁भेज	-1649
▁दिशा	-1650
▁198	-1651
▁भिन्न	-1652
▁अध्यक्ष	-1653
201	-1654
▁संगठन	-1655
▁आत	-1656
▁पृष्ठ	-1657
र्य	-1658
▁अच्छा	-1659
▁अच्छी	-1660
▁सिद्धांत	-1661
▁उचित	-1662
▁ताकि	-1663
▁सुनिश्चित	-1664
▁चिकित्	-1665
षित	-1666
▁प्रगति	-1667
▁नव	-1668
▁ब्रिट	-1669
▁भुगतान	-1670
▁बो	-1671
▁बनाए	-1672
▁बढ़ा	-1673
▁पिता	-1674
▁केन्द्र	-1675
▁प्रशिक्षण	-1676
▁राय	-1677
▁जाय	-1678
्रम	-1679
▁अर्था	-1680
in	-1681
माल	-1682
▁धी	-1683
▁विप	-1684
नाव	-1685
▁गल	-1686
ुनिक	-1687
▁196	-1688
स्क	-1689
००	-1690
▁जोड़	-1691
त्त्व	-1692
▁स्थानीय	-1693
▁सोच	-1694
▁रहता	-1695
▁जाएगी	-1696
▁मंत्रालय	-1697
मय	-1698
▁राजा	-1699
▁सत्ता	-1700
▁दक्षिण	-1701
▁दुनिया	-1702
▁जबकि	-1703
▁14	-1704
▁खेल	-1705
ूं	-1706
▁बीमा	-1707
▁अला	-1708
रिका	-1709
▁खुल	-1710
▁विरुद्ध	-1711
▁बिल	-1712
en	-1713
▁उसमें	-1714
▁टे	-1715
भू	-1716
ंसा	-1717
▁वास्तविक	-1718
▁कांग्रेस	-1719
▁कित	-1720
्रिय	-1721
▁तहत	-1722
▁पहचान	-1723
ज्ञानिक	-1724
▁होकर	-1725
▁197	-1726
लू	-1727
र्फ	-1728
▁लक्ष्य	-1729
ैतिक	-1730
▁निर्दिष्ट	-1731
गल	-1732
▁मुसल	-1733
▁संशोधन	-1734
▁अह	-1735
.1	-1736
ैंड	-1737
▁तुल	-1738
कु	-1739
वरी	-1740
▁जगह	-1741
▁व्यापक	-1742
▁देव	-1743
▁इंड	-1744
▁बराबर	-1745
▁श्रेणी	-1746
▁उनमें	-1747
▁अमेरिका	-1748
आर	-1749
तक	-1750
ेंस	-1751
▁195	-1752
▁सत	-1753
▁सेना	-1754
▁पीछे	-1755
▁प्रभावित	-1756
जनिक	-1757
▁पत्	-1758
▁मुसलमान	-1759
ियाँ	-1760
▁मनुष	-1761
कम	-1762
ुप	-1763
ंथ	-1764
▁निदेश	-1765
▁d	-1766
▁पर्याप्त	-1767
▁प्रबंधन	-1768
▁वेबसाइट	-1769
▁बच्चे	-1770
▁आकार	-1771
▁pr	-1772
▁बेह	-1773
▁व्यवहार	-1774
र्ण	-1775
▁चा	-1776
▁in	-1777
▁आधुनिक	-1778
▁सार्वजनिक	-1779
▁दिनों	-1780
्प	-1781
▁अफ	-1782
र्चा	-1783
▁क्ल	-1784
नलिखित	-1785
▁मो	-1786
▁मिश	-1787
▁पश्चात्	-1788
फार	-1789
ज्	-1790
▁प्रतिनि	-1791
▁लगे	-1792
▁परिष	-1793
डर	-1794
दय	-1795
श्वर	-1796
▁उपकरण	-1797
▁चाहिये	-1798
▁सन्	-1799
▁पूंजी	-1800
▁निम्नलिखित	-1801
▁जरूरत	-1802
क्रमण	-1803
हरी	-1804
▁पिछले	-1805
▁मि	-1806
▁प्राय	-1807
on	-1808
▁आतंक	-1809
▁पुलिस	-1810
▁प्रवेश	-1811
▁रू	-1812
ौती	-1813
ड़ों	-1814
▁भवि	-1815
बू	-1816
वस्था	-1817
▁केंद्रीय	-1818
▁यथा	-1819
भीर	-1820
्ला	-1821
▁याद	-1822
▁पहली	-1823
वासी	-1824
▁स्कूल	-1825
▁सत्य	-1826
▁निकाल	-1827
ीप	-1828
▁गैर	-1829
▁गां	-1830
▁रोज	-1831
ायत	-1832
▁निर्या	-1833
▁लंब	-1834
▁भविष्य	-1835
ंडल	-1836
▁गुर	-1837
▁कहीं	-1838
▁शब्दों	-1839
▁छा	-1840
फारिश	-1841
▁सम्मान	-1842
ामीण	-1843
त्साह	-1844
▁इस्ते	-1845
▁सक्रिय	-1846
धिकार	-1847
▁अलावा	-1848
▁13	-1849
वधान	-1850
▁पद्ध	-1851
▁खरी	-1852
▁वार	-1853
▁ग्रामीण	-1854
धे	-1855
▁तथ	-1856
▁निश्चित	-1857
िको	-1858
▁मित्र	-1859
▁कप	-1860
▁प्रकट	-1861
स्ल	-1862
▁अभिय	-1863
▁ऊर्जा	-1864
्यूटर	-1865
▁शर्	-1866
▁शाय	-1867
▁सिफारिश	-1868
▁निकल	-1869
▁औद्योगिक	-1870
▁आयु	-1871
▁चाहे	-1872
▁लौ	-1873
डे	-1874
द्रा	-1875
रोध	-1876
िवार	-1877
▁अनुमति	-1878
च्छा	-1879
▁उपाय	-1880
▁कट	-1881
र्ग	-1882
▁]	-1883
▁194	-1884
▁दिख	-1885
▁सर्वो	-1886
स्कार	-1887
ानि	-1888
मंत्र	-1889
▁लिखा	-1890
▁समर्थन	-1891
▁ढंग	-1892
▁16	-1893
▁नदी	-1894
▁[	-1895
ंबर	-1896
▁पांच	-1897
▁पुरुष	-1898
▁विवाद	-1899
▁मर	-1900
▁बोर्ड	-1901
्वी	-1902
स्ति	-1903
▁दल	-1904
▁सां	-1905
▁जिन्हें	-1906
म्भ	-1907
न्व	-1908
ंकन	-1909
▁केन्द	-1910
वर्ती	-1911
▁लेखा	-1912
▁संदर्भ	-1913
▁25	-1914
बे	-1915
▁इस्लाम	-1916
▁तारी	-1917
▁शायद	-1918
▁दस्ता	-1919
▁देती	-1920
▁समाधान	-1921
▁फल	-1922
▁राजनीतिक	-1923
▁इस्तेमाल	-1924
▁चै	-1925
▁भग	-1926
्राम	-1927
▁उत्स	-1928
tp	-1929
▁योग्य	-1930
▁मिले	-1931
▁प्रद	-1932
▁_	-1933
▁वैज्ञानिक	-1934
▁पदार्थ	-1935
▁पृथ	-1936
ांति	-1937
▁पाया	-1938
▁S	-1939
▁संके	-1940
फा	-1941
शु	-1942
▁कार्यालय	-1943
▁करा	-1944
▁जिनमें	-1945
.201	-1946
▁सम्बन्ध	-1947
्वेष	-1948
णिज	-1949
▁मश	-1950
वों	-1951
▁बर	-1952
▁नेट	-1953
▁संरचना	-1954
▁रि	-1955
.0	-1956
ुआ	-1957
▁इतना	-1958
▁गं	-1959
सिक	-1960
▁मुखर्जी	-1961
कुल	-1962
▁निर्वा	-1963
▁फाइल	-1964
एम	-1965
ंगे	-1966
▁वो	-1967
▁करोड़	-1968
▁रज	-1969
▁मही	-1970
णिज्य	-1971
ेशा	-1972
▁संग्रह	-1973
▁ट्र	-1974
▁निर्यात	-1975
▁न्यायालयों	-1976
▁दिल	-1977
▁पूछ	-1978
▁मेरा	-1979
▁चिकित्सा	-1980
ोलन	-1981
▁गी	-1982
▁भौ	-1983
▁दृष्ट	-1984
▁प्रोत्साह	-1985
▁हमारा	-1986
▁सामग्री	-1987
न्दी	-1988
▁यूर	-1989
▁http	-1990
▁जैसी	-1991
▁उठा	-1992
▁न्यायिक	-1993
सन	-1994
▁तारीख	-1995
▁बनाम	-1996
▁चाहता	-1997
दित	-1998
▁सक्षम	-1999
▁पूरे	-2000
▁मुक्त	-2001
▁उद्यम	-2002
▁बंगाल	-2003
▁१९	-2004
▁मनुष्य	-2005
▁संरक्षण	-2006
▁विभा	-2007
▁बज	-2008
▁सहायक	-2009
▁निजी	-2010
▁बढ	-2011
▁सृ	-2012
म्बर	-2013
▁संय	-2014
▁वापस	-2015
▁यद्य	-2016
▁नया	-2017
▁रक्षा	-2018
मू	-2019
▁वाणिज्य	-2020
▁प्रकाशित	-2021
▁मॉ	-2022
▁रक्त	-2023
▁साधारण	-2024
▁दस्तावे	-2025
▁खो	-2026
▁दश	-2027
▁पुरस्कार	-2028
बाद	-2029
▁यद्यपि	-2030
चर	-2031
▁तत्व	-2032
ंतर	-2033
▁सफलता	-2034
▁बने	-2035
▁w	-2036
सि	-2037
▁जे	-2038
ग्	-2039
▁सलाह	-2040
▁इनमें	-2041
थमिक	-2042
क्षर	-2043
वाही	-2044
पात	-2045
▁अभिव	-2046
▁बुद्ध	-2047
▁दें	-2048
▁कम्प	-2049
सम	-2050
▁अवस्था	-2051
यल	-2052
▁हे	-2053
▁रखना	-2054
ृह	-2055
▁समक्ष	-2056
▁मास	-2057
▁शीर्ष	-2058
कीय	-2059
▁पालन	-2060
▁दशा	-2061
▁हमेशा	-2062
खी	-2063
▁चर्चा	-2064
▁प्राथमिक	-2065
at	-2066
▁युवा	-2067
▁लि	-2068
▁जाति	-2069
▁सिर्फ	-2070
▁उत	-2071
▁रकम	-2072
▁अधिकां	-2073
▁ऑफ	-2074
▁रखते	-2075
▁समझौ	-2076
▁एल	-2077
▁शांति	-2078
▁आत्मा	-2079
▁सकेगा	-2080
▁फी	-2081
▁मंत्री	-2082
तया	-2083
▁सेवाओं	-2084
चीन	-2085
▁स्म	-2086
ोक्ता	-2087
घु	-2088
▁मुद्रा	-2089
▁शक्त	-2090
▁वन	-2091
▁देखने	-2092
▁17	-2093
▁लागत	-2094
शिया	-2095
िल्म	-2096
▁विल	-2097
टे	-2098
▁डॉ	-2099
▁ईश्वर	-2100
▁केन्द्रीय	-2101
ठित	-2102
ड़क	-2103
▁समुदाय	-2104
▁शेय	-2105
राष्ट्रीय	-2106
इस	-2107
▁लाल	-2108
▁सुझ	-2109
▁संपत्ति	-2110
▁री	-2111
▁रिक	-2112
▁रेल	-2113
▁चुका	-2114
▁30	-2115
▁बताया	-2116
▁धीरे	-2117
▁चाल	-2118
मक	-2119
▁तीस	-2120
ैल	-2121
▁योगदान	-2122
सू	-2123
विल	-2124
▁गंभीर	-2125
पूर्वक	-2126
▁पर्य	-2127
▁जिसकी	-2128
▁किन्तु	-2129
▁दू	-2130
▁अधिकांश	-2131
▁जम	-2132
िकोण	-2133
▁छोटी	-2134
▁कदम	-2135
▁शहर	-2136
र्ट	-2137
▁अद	-2138
▁पंच	-2139
▁संभावना	-2140
▁कानू	-2141
▁परीक्षा	-2142
ाये	-2143
▁क्रम	-2144
▁सप	-2145
▁दिखाई	-2146
फ्ट	-2147
▁बेहतर	-2148
▁सम्मिल	-2149
▁जिला	-2150
▁मुद्	-2151
▁सेट	-2152
▁पद्धति	-2153
▁तत्	-2154
▁नेटवर्	-2155
▁दूसरा	-2156
त्री	-2157
ार्मिक	-2158
▁दोष	-2159
▁धार	-2160
ल्ल	-2161
▁निर्भर	-2162
▁थो	-2163
le	-2164
▁सीमित	-2165
▁धार्मिक	-2166
▁चयन	-2167
▁वही	-2168
ंटर	-2169
▁आंद	-2170
▁तुलना	-2171
▁पो	-2172
▁भे	-2173
▁ऊंच	-2174
▁वहाँ	-2175
▁पर्यावरण	-2176
▁कोशिश	-2177
्टर	-2178
▁बोल	-2179
▁प्रणब	-2180
न्दर	-2181
मंत्री	-2182
कान	-2183
▁क़	-2184
▁nic	-2185
▁प्रशासन	-2186
वर्ष	-2187
क्टर	-2188
▁तरीके	-2189
भूति	-2190
ुन	-2191
▁हृ	-2192
▁यूरोप	-2193
ल्पना	-2194
▁प्रभावी	-2195
हीन	-2196
क्षेप	-2197
टल	-2198
ंद्र	-2199
▁कविता	-2200
▁संकल्प	-2201
ृति	-2202
▁महारा	-2203
संद	-2204
▁ब्रिटिश	-2205
▁खर्च	-2206
▁चर	-2207
▁सारे	-2208
ंगी	-2209
▁संपर्क	-2210
▁व्यवसाय	-2211
▁मशीन	-2212
▁रहती	-2213
▁शिकायत	-2214
कद	-2215
▁अनिवार	-2216
▁htm	-2217
▁हिन्दी	-2218
ोषणा	-2219
▁उपचार	-2220
▁ढा	-2221
▁निधि	-2222
▁ति	-2223
▁इका	-2224
वत्ता	-2225
▁अंग्रेजी	-2226
द्द	-2227
▁डेटा	-2228
पे	-2229
▁उनसे	-2230
▁प्रवृ	-2231
▁वायु	-2232
▁संगी	-2233
▁कंप्यूटर	-2234
तु	-2235
▁जित	-2236
▁आता	-2237
▁मजब	-2238
▁विद्यार्थ	-2239
▁निम्न	-2240
▁प्राकृतिक	-2241
▁संस्कृति	-2242
▁कार्र	-2243
▁ख़	-2244
▁सूर	-2245
्यो	-2246
नेट	-2247
▁तेल	-2248
ारोह	-2249
▁कथ	-2250
▁गुणवत्ता	-2251
वेद	-2252
▁ग्रह	-2253
▁पक	-2254
▁विधेय	-2255
क्ष्म	-2256
▁सम्मिलित	-2257
▁C	-2258
▁विशाल	-2259
▁लघु	-2260
▁आशा	-2261
▁सकें	-2262
▁जहाँ	-2263
▁स्रो	-2264
▁देखते	-2265
▁युग	-2266
▁अस्त	-2267
▁परिस्थित	-2268
▁असम	-2269
भाल	-2270
ायी	-2271
▁दस	-2272
▁मिट	-2273
▁अधिकारियों	-2274
▁अंक	-2275
र्ड	-2276
▁मोट	-2277
घा	-2278
र्ज	-2279
ेलन	-2280
ापन	-2281
▁आए	-2282
▁खाद्य	-2283
▁अनिवार्य	-2284
स्वरूप	-2285
▁खुलती	-2286
ंगत	-2287
ताल	-2288
▁संह	-2289
▁ब्या	-2290
ियर	-2291
पक	-2292
▁उपभ	-2293
▁विचारों	-2294
▁रजिस्ट	-2295
▁हिस्सा	-2296
लाई	-2297
▁पड़ा	-2298
▁अध्याय	-2299
धनों	-2300
▁व्यक्तिगत	-2301
न्स	-2302
▁विंडों	-2303
चक	-2304
▁आपकी	-2305
▁c	-2306
राज्य	-2307
▁समारोह	-2308
चि	-2309
▁नगर	-2310
त्तर	-2311
▁त्रुट	-2312
▁मिलता	-2313
▁संस्कृत	-2314
रीय	-2315
वेयर	-2316
▁खिला	-2317
▁भोजन	-2318
▁आकर्	-2319
▁नेटवर्क	-2320
▁बधा	-2321
▁करनी	-2322
▁दिवस	-2323
▁अत्यंत	-2324
वै	-2325
▁प्रयोजन	-2326
कारों	-2327
▁शता	-2328
▁हैः	-2329
▁इला	-2330
▁अतः	-2331
▁समझा	-2332
▁लेना	-2333
▁संहिता	-2334
▁दायित्व	-2335
▁निर्धारिती	-2336
िकी	-2337
स्लिम	-2338
ee	-2339
▁महत्त्व	-2340
टों	-2341
▁बधाई	-2342
▁निकट	-2343
▁पाल	-2344
▁24	-2345
▁उपयुक्त	-2346
तित	-2347
▁भागी	-2348
चारी	-2349
▁संघर्ष	-2350
ar	-2351
▁जिनके	-2352
▁बचा	-2353
▁मुस्लिम	-2354
ैन	-2355
▁शास्त	-2356
ारों	-2357
म्मे	-2358
पु	-2359
▁अनुसू	-2360
▁भंड	-2361
▁विकल्प	-2362
ार्क	-2363
दृ	-2364
▁नेता	-2365
▁दृष्टिकोण	-2366
खंड	-2367
▁प्राचीन	-2368
▁शाखा	-2369
▁उपबंधों	-2370
▁आंदोलन	-2371
▁विद्व	-2372
▁प्ल	-2373
▁इजरा	-2374
▁एज	-2375
▁नियमों	-2376
ूँ	-2377
▁संगीत	-2378
,000	-2379
▁भारी	-2380
▁बौ	-2381
▁खोल	-2382
फ्त	-2383
▁खास	-2384
▁नर	-2385
▁शुल्क	-2386
▁जल्	-2387
▁अभिव्य	-2388
ान्व	-2389
▁पंजी	-2390
डिया	-2391
▁खरीद	-2392
ंति	-2393
▁पर्व	-2394
▁संस्थानों	-2395
▁आदर्श	-2396
▁पहल	-2397
▁निगम	-2398
▁सिविल	-2399
किंग	-2400
क्षी	-2401
▁गरी	-2402
ोग्राम	-2403
घ्र	-2404
▁तथापि	-2405
▁आरोप	-2406
et	-2407
▁आयोजित	-2408
▁नये	-2409
वाब	-2410
▁घट	-2411
▁पंजा	-2412
▁वर्णन	-2413
▁हजार	-2414
▁I	-2415
▁आते	-2416
▁21	-2417
▁पाने	-2418
▁लॉ	-2419
▁अस्प	-2420
▁विनिर्दिष्ट	-2421
▁ईसा	-2422
▁घोषणा	-2423
कालीन	-2424
▁अर्थव्य	-2425
▁–	-2426
त्न	-2427
▁विविध	-2428
▁जोर	-2429
बत	-2430
▁चीज	-2431
▁फ़ाइल	-2432
▁जानी	-2433
▁कार्यवाही	-2434
▁संसाधन	-2435
▁अर्थात्	-2436
▁हस्ता	-2437
▁पराम	-2438
▁हिन्दू	-2439
▁ii	-2440
▁नोट	-2441
ब्दी	-2442
▁सुझाव	-2443
्वेषण	-2444
▁कार्यों	-2445
ोम	-2446
▁खाते	-2447
▁पड़े	-2448
इयों	-2449
▁क्षति	-2450
▁जिसने	-2451
▁कार्रवाई	-2452
▁जानते	-2453
▁विधेयक	-2454
ोजनों	-2455
▁परिस	-2456
ड्ड	-2457
▁जरूरी	-2458
▁ध्व	-2459
▁व्यय	-2460
▁प्रशास	-2461
▁सुरक्षित	-2462
res	-2463
▁खुद	-2464
▁अंतरराष्ट्रीय	-2465
ंपरा	-2466
▁स्वरूप	-2467
▁प्रसन्न	-2468
मीर	-2469
▁अंश	-2470
▁अंदर	-2471
▁लेते	-2472
▁उपन	-2473
भाषा	-2474
▁अच्छे	-2475
▁ग्राह	-2476
▁बनाना	-2477
▁कठिन	-2478
▁पारित	-2479
▁चुनाव	-2480
▁हटा	-2481
▁अधि	-2482
▁निपट	-2483
▁शि	-2484
जनक	-2485
इल	-2486
▁व्याव	-2487
▁गतिविध	-2488
▁प्रदर्शन	-2489
▁पड़ता	-2490
शाली	-2491
▁ब्याज	-2492
▁संकेत	-2493
▁इच्छा	-2494
▁अना	-2495
▁शास	-2496
ंबई	-2497
▁कहना	-2498
▁मात्र	-2499
ोषित	-2500
▁सदन	-2501
▁प्राण	-2502
▁परंपरा	-2503
▁परामर्श	-2504
▁अक	-2505
न्ट	-2506
▁समृ	-2507
▁तम	-2508
▁त्व	-2509
▁कोशिका	-2510
ंदा	-2511
▁खत	-2512
त्रों	-2513
क्षक	-2514
▁आदमी	-2515
धीन	-2516
▁भगवान	-2517
पालिका	-2518
▁अधिकारों	-2519
▁राजन	-2520
गु	-2521
▁P	-2522
▁नियुक्त	-2523
वाय	-2524
रो	-2525
्रिया	-2526
▁तकनीकी	-2527
▁अर्थव्यवस्था	-2528
▁एशिया	-2529
or	-2530
▁आग	-2531
▁बर्	-2532
▁मिली	-2533
▁होनी	-2534
▁विनियम	-2535
▁गर्इ	-2536
▁सिर	-2537
▁कृप	-2538
▁इन्ह	-2539
▁पेट	-2540
▁अभिप	-2541
▁ग्राम	-2542
पादन	-2543
▁उपस्थित	-2544
▁छोटा	-2545
▁माता	-2546
▁आतंकवाद	-2547
▁टै	-2548
▁हृदय	-2549
▁सम्मेलन	-2550
▁तट	-2551
▁उल्ल	-2552
▁तर्क	-2553
▁गलत	-2554
न्हीं	-2555
▁लगाया	-2556
▁संपूर्ण	-2557
व्र	-2558
एल	-2559
▁नाटक	-2560
▁सम्प	-2561
▁प्रत्यक्ष	-2562
▁कौन	-2563
कला	-2564
काम	-2565
▁जिम्मे	-2566
स्पर	-2567
▁शुभ	-2568
▁इंग	-2569
▁कहानी	-2570
▁वाणिज्यिक	-2571
ab	-2572
एफ	-2573
▁प्रसि	-2574
▁मौजूद	-2575
ख़	-2576
▁लगी	-2577
िक्	-2578
▁पहला	-2579
▁तेजी	-2580
▁अप्रैल	-2581
▁सश	-2582
▁शेष	-2583
▁बाव	-2584
▁पश्चिमी	-2585
▁मार्च	-2586
▁193	-2587
वहन	-2588
ून्य	-2589
▁एच	-2590
▁भाई	-2591
▁परीक्षण	-2592
िनी	-2593
म्र	-2594
▁वाता	-2595
▁विद्यमान	-2596
▁f	-2597
▁स्थायी	-2598
▁कर्मचार	-2599
िन्	-2600
मेंट	-2601
▁तरफ	-2602
▁महिलाओं	-2603
मारी	-2604
▁फिल	-2605
▁वार्ष	-2606
▁खाता	-2607
▁दर्शन	-2608
▁महस	-2609
ग्न	-2610
▁प्रयोजनों	-2611
▁सका	-2612
ल्ड	-2613
▁शीघ्र	-2614
ठी	-2615
▁गर्	-2616
▁त्रुटि	-2617
▁प्रवर्	-2618
स्य	-2619
▁कार्यान्व	-2620
तें	-2621
्राष्ट्रीय	-2622
▁पार्टी	-2623
▁बनी	-2624
▁t	-2625
▁सरल	-2626
▁रहना	-2627
लाव	-2628
▁अश	-2629
ुसार	-2630
ल्स	-2631
▁हास	-2632
▁अरब	-2633
▁दौ	-2634
▁मल	-2635
▁सात	-2636
▁परिच	-2637
▁पाकि	-2638
▁परिषद	-2639
▁चुके	-2640
▁हस्त	-2641
▁वाद	-2642
▁मूल्या	-2643
▁अनुज्ञ	-2644
▁मानसिक	-2645
▁अवि	-2646
▁मोह	-2647
भाष	-2648
▁समु	-2649
▁क्रा	-2650
▁आपका	-2651
▁पुनर्	-2652
ितीय	-2653
▁मजबूत	-2654
▁गुना	-2655
▁कृपया	-2656
▁शताब्दी	-2657
▁आंक	-2658
▁सित	-2659
जली	-2660
▁हट	-2661
▁उन्न	-2662
▁महसूस	-2663
▁विज	-2664
▁अनुक	-2665
ठा	-2666
▁विस्तृत	-2667
▁50	-2668
▁अन्तर्	-2669
▁समाचार	-2670
▁लाने	-2671
▁वातावरण	-2672
िक्री	-2673
ष्क	-2674
सभा	-2675
▁अंड	-2676
▁द्वार	-2677
्ति	-2678
▁कर्मचारियों	-2679
▁बैठक	-2680
▁समुद्र	-2681
▁वस्तुओं	-2682
▁अभिक	-2683
▁तय	-2684
▁इंटर	-2685
▁एफ	-2686
▁दबा	-2687
▁बंध	-2688
ज्य	-2689
▁संदे	-2690
▁सांस्	-2691
as	-2692
▁गांव	-2693
▁प्रतिनिध	-2694
ायक	-2695
▁दि	-2696
▁रखे	-2697
▁प्राप्ति	-2698
▁अल्प	-2699
▁इजरायल	-2700
▁जिन्होंने	-2701
▁रोजगार	-2702
▁T	-2703
▁ढांच	-2704
▁अत्यधिक	-2705
इड	-2706
▁वेतन	-2707
▁बौद्ध	-2708
▁अनुप्र	-2709
▁23	-2710
▁परिस्थितियों	-2711
▁चरण	-2712
▁ग्रहण	-2713
▁काव्य	-2714
▁निर्मित	-2715
▁नियमित	-2716
▁प्रतिष्ठ	-2717
▁22	-2718
▁जवाब	-2719
▁भौतिक	-2720
▁शून्य	-2721
▁पहा	-2722
रिया	-2723
▁कल्पना	-2724
▁कथा	-2725
▁घंट	-2726
कृष्ट	-2727
▁pres	-2728
▁सूक्ष्म	-2729
स्म	-2730
▁अगले	-2731
▁दिये	-2732
▁संचार	-2733
▁मिलने	-2734
▁उपन्यास	-2735
▁तथ्य	-2736
बि	-2737
▁पट	-2738
▁प्रधानमंत्री	-2739
▁इत्या	-2740
▁विश्ले	-2741
ृत्व	-2742
▁कानूनी	-2743
▁असफल	-2744
▁अनुमान	-2745
▁भ्र	-2746
▁किन	-2747
▁कर्त	-2748
▁समस्याओं	-2749
▁खे	-2750
▁सिस्ट	-2751
ार्म	-2752
ष्ट्र	-2753
▁सामना	-2754
लब	-2755
▁रात	-2756
▁भाषण	-2757
▁इतनी	-2758
▁कल्या	-2759
▁स्रोत	-2760
▁वर	-2761
▁जंग	-2762
ंघ	-2763
स्ती	-2764
▁महाम	-2765
▁हल	-2766
ंव	-2767
म्मी	-2768
▁शुद्ध	-2769
▁आती	-2770
▁इंज	-2771
▁सच्च	-2772
▁B	-2773
िर्	-2774
▁विमान	-2775
िटी	-2776
▁द्र	-2777
▁नवान	-2778
▁आयुक्त	-2779
्वा	-2780
▁बढ़ाने	-2781
▁आवा	-2782
▁पत्नी	-2783
▁सांस्कृतिक	-2784
it	-2785
▁कराने	-2786
ोरी	-2787
▁आंत	-2788
ांकि	-2789
▁मान्यता	-2790
ent	-2791
▁निर्वाचन	-2792
▁क्षेत्रीय	-2793
al	-2794
्रेड	-2795
▁हालांकि	-2796
ूक	-2797
टिल	-2798
▁वाह	-2799
▁दावा	-2800
नाएं	-2801
▁प्रयासों	-2802
▁शेयर	-2803
्याग	-2804
▁तुर	-2805
तृत्व	-2806
▁ब्रह	-2807
▁अनुवाद	-2808
▁निरंतर	-2809
▁सॉ	-2810
ंका	-2811
▁अधिकरण	-2812
▁26	-2813
▁मंज	-2814
हरे	-2815
▁साम्रा	-2816
शाला	-2817
▁३	-2818
दिक	-2819
▁कीमत	-2820
▁प्राधिकरण	-2821
▁लेखक	-2822
शय	-2823
▁युक्त	-2824
मल	-2825
▁उल	-2826
णु	-2827
▁नामक	-2828
▁बावजूद	-2829
▁मध	-2830
▁आये	-2831
▁रेखा	-2832
▁सफ	-2833
▁सीख	-2834
सों	-2835
▁आँ	-2836
▁प्रभार	-2837
रान	-2838
▁वैश्व	-2839
थि	-2840
▁पेज	-2841
▁अदाल	-2842
▁गणराज्य	-2843
▁विवे	-2844
▁मामला	-2845
▁दृश्य	-2846
▁हिंदू	-2847
लिक	-2848
▁27	-2849
▁लक्षण	-2850
▁टिप	-2851
▁कार्	-2852
धर	-2853
▁मुसलमानों	-2854
▁अभिया	-2855
गो	-2856
वक	-2857
्वर	-2858
वाले	-2859
▁इनके	-2860
▁इंडिया	-2861
▁सर्वा	-2862
▁निकाय	-2863
▁प्रायः	-2864
▁वार्षिक	-2865
िरा	-2866
ालित	-2867
▁प्रसिद्ध	-2868
▁पाकिस्तान	-2869
▁कल्याण	-2870
▁टन	-2871
▁सुंदर	-2872
किल	-2873
▁सुना	-2874
▁हिंदी	-2875
▁कर्मचारी	-2876
▁महीने	-2877
▁रुपये	-2878
▁प्रजा	-2879
▁संस्थाओं	-2880
▁अनुकूल	-2881
▁अधिकतम	-2882
▁प्रतिक्रिया	-2883
▁करार	-2884
▁अधिकारिता	-2885
her	-2886
▁सारी	-2887
यान	-2888
ज़ी	-2889
प्रिय	-2890
▁इत्यादि	-2891
डल	-2892
▁बिजली	-2893
र्घ	-2894
▁गठन	-2895
▁सचिव	-2896
▁सीधे	-2897
▁माह	-2898
▁गहरा	-2899
▁शैली	-2900
▁पसंद	-2901
▁जिनका	-2902
▁उत्तरदाय	-2903
▁तुम्हें	-2904
▁गृह	-2905
लि	-2906
ेतना	-2907
▁हानि	-2908
▁अफ्री	-2909
▁विद्युत	-2910
्रण	-2911
▁अभिन	-2912
▁प्रोग्राम	-2913
▁पाए	-2914
वेक्षण	-2915
▁स्वामी	-2916
दूर	-2917
ज़ा	-2918
▁31	-2919
▁लौट	-2920
▁मूल्यांकन	-2921
▁साफ	-2922
▁अंतरण	-2923
▁लगाने	-2924
ंबा	-2925
विक	-2926
वें	-2927
▁उम्मी	-2928
ियत	-2929
▁मिलती	-2930
il	-2931
▁समर्	-2932
ंता	-2933
▁प्रावधान	-2934
▁मेल	-2935
▁२००	-2936
सत	-2937
▁समी	-2938
▁शुभकाम	-2939
संगत	-2940
▁जल्दी	-2941
वत	-2942
▁तभी	-2943
क्ट्र	-2944
▁आक्रमण	-2945
▁सिस्टम	-2946
▁E	-2947
▁किरा	-2948
मति	-2949
लाइन	-2950
▁प्रचार	-2951
्ताह	-2952
त्मिक	-2953
▁आपने	-2954
▁परम	-2955
▁g	-2956
▁अमरी	-2957
▁कारबार	-2958
▁डाक	-2959
राब	-2960
▁उक्त	-2961
▁प्रवि	-2962
सान	-2963
▁नक	-2964
▁लो	-2965
▁पत्त	-2966
▁रुपए	-2967
▁समस्त	-2968
▁पुराने	-2969
▁अस्तित्व	-2970
▁सवाल	-2971
▁स्थल	-2972
उट	-2973
▁संब	-2974
रीक्षण	-2975
दीय	-2976
▁श्व	-2977
▁सभ	-2978
▁करी	-2979
of	-2980
कर्ष	-2981
श्मीर	-2982
▁समन्व	-2983
▁प्रयुक्त	-2984
▁याच	-2985
▁मुकद	-2986
ुक्ति	-2987
▁अधिव	-2988
▁विषयों	-2989
ंटी	-2990
▁देखभाल	-2991
▁लोकतंत्र	-2992
uk	-2993
.2	-2994
ारात्मक	-2995
▁फूल	-2996
▁पाठ्य	-2997
▁न्यायाधीशों	-2998
▁आनंद	-2999
▁आध्या	-3000
क्षेत्र	-3001
भूम	-3002
▁जनवरी	-3003
▁घरे	-3004
न्ध	-3005
▁मनो	-3006
्रय	-3007
▁साक्ष्य	-3008
▁दै	-3009
▁मू	-3010
▁बुद्धि	-3011
▁अनुमो	-3012
▁पथ	-3013
▁वज	-3014
▁पात्र	-3015
▁मानते	-3016
▁100	-3017
▁साधन	-3018
▁साझ	-3019
▁गुजरा	-3020
▁भागों	-3021
▁जनसं	-3022
नु	-3023
▁आयात	-3024
▁महत्त्वपूर्ण	-3025
दर	-3026
▁बढ़ावा	-3027
मात्र	-3028
्याय	-3029
▁आजा	-3030
▁न्यून	-3031
▁स्थानों	-3032
▁राजनैतिक	-3033
ोने	-3034
▁शिश	-3035
▁इन्हें	-3036
▁चले	-3037
▁शारी	-3038
▁तीव्र	-3039
▁जायेगा	-3040
▁28	-3041
▁कटौती	-3042
▁उम्मीद	-3043
▁संगण	-3044
▁कुंजी	-3045
▁वितरण	-3046
▁कलक	-3047
रेट	-3048
▁नजर	-3049
.5	-3050
▁नेतृत्व	-3051
▁रखी	-3052
▁पंजाब	-3053
▁बिक्री	-3054
es	-3055
▁प्रेरित	-3056
▁गतिविधियों	-3057
रक	-3058
▁घा	-3059
▁बातों	-3060
▁रोगी	-3061
▁उड़	-3062
▁एका	-3063
▁टिप्प	-3064
▁फिल्म	-3065
▁विशेषज्ञ	-3066
लेज	-3067
id	-3068
▁जोख	-3069
▁विद्यार्थियों	-3070
सीय	-3071
▁प्राधिकारी	-3072
▁चेतना	-3073
र्न	-3074
▁फसल	-3075
▁जून	-3076
▁संगठ	-3077
▁कठिना	-3078
▁बैंकों	-3079
ृंख	-3080
▁घरेलू	-3081
मद	-3082
▁उपा	-3083
▁मौसम	-3084
▁शुभकामनाएं	-3085
▁नेहर	-3086
▁अख	-3087
▁चलता	-3088
▁ग्रंथ	-3089
▁अमेरिक	-3090
▁कंपन	-3091
लीय	-3092
▁नैतिक	-3093
तिहासिक	-3094
न्य	-3095
ड़ित	-3096
▁G	-3097
▁प्रदर्शित	-3098
▁R	-3099
▁शिव	-3100
▁बनाई	-3101
▁पुत्र	-3102
ैक	-3103
िकल	-3104
ॉँ	-3105
▁कुशल	-3106
▁खुशी	-3107
मूर्ति	-3108
▁स्वागत	-3109
▁कार्यक्रमों	-3110
▁उनको	-3111
▁जोखिम	-3112
▁आध्यात्मिक	-3113
गण	-3114
ड़ाई	-3115
▁फाय	-3116
▁लिखित	-3117
▁बुनिया	-3118
▁शारीरिक	-3119
▁टाइ	-3120
▁इं	-3121
▁अनुप्रयोग	-3122
▁35	-3123
वासियों	-3124
▁श्रेणीः	-3125
ानु	-3126
▁घोषित	-3127
▁तरीका	-3128
▁प्रसन्नता	-3129
▁अपेक्षित	-3130
▁html	-3131
▁दीर्घ	-3132
▁देखें	-3133
भूमि	-3134
▁पहुँच	-3135
▁मंच	-3136
▁बाबत	-3137
▁शक्तियों	-3138
मर	-3139
▁नष्ट	-3140
▁प्रतीत	-3141
▁मंड	-3142
धानिक	-3143
▁स्पष्टीकरण	-3144
धारित	-3145
▁मानक	-3146
▁गर्म	-3147
▁प्रदू	-3148
▁याचिका	-3149
▁प्रोत्साहन	-3150
▁मां	-3151
▁pran	-3152
▁संवर्	-3153
▁मिलकर	-3154
▁v	-3155
▁हवा	-3156
▁सैनिक	-3157
▁दिस	-3158
▁प्रच	-3159
▁अंतर्राष्ट्रीय	-3160
ह्न	-3161
पों	-3162
▁मगर	-3163
▁उत्कृष्ट	-3164
▁m	-3165
muk	-3166
▁pranab	-3167
▁b	-3168
ेंशन	-3169
mukher	-3170
▁pranabmukher	-3171
▁अनुप	-3172
▁लेता	-3173
▁इकाई	-3174
▁छह	-3175
▁जटिल	-3176
▁त्याग	-3177
▁तेज	-3178
▁मिशन	-3179
▁prh	-3180
▁अधिस	-3181
▁प्रसार	-3182
▁माँ	-3183
▁अवश्य	-3184
▁चारों	-3185
▁सर्वोच्च	-3186
िड	-3187
्यार	-3188
▁कृत	-3189
हिम	-3190
ृंखला	-3191
नो	-3192
रत	-3193
▁इले	-3194
▁अस्थ	-3195
▁निहित	-3196
▁चीन	-3197
▁सेवाएं	-3198
▁चुकी	-3199
ंख्य	-3200
▁स्त्री	-3201
चरण	-3202
▁स्मृति	-3203
कत	-3204
▁फीस	-3205
▁विधिक	-3206
िप्त	-3207
▁अभिव्यक्ति	-3208
▁जहा	-3209
▁करेगी	-3210
▁पशु	-3211
चलित	-3212
▁लें	-3213
▁प्ले	-3214
▁विरोधी	-3215
राधिक	-3216
▁मुंबई	-3217
रणा	-3218
▁प्रोट	-3219
▁वीडियो	-3220
ढ़ी	-3221
्रेट	-3222
▁अक्	-3223
▁मतलब	-3224
▁संसाधनों	-3225
▁साब	-3226
करी	-3227
▁वालों	-3228
फ्टवेयर	-3229
▁आफ	-3230
▁ऐतिहासिक	-3231
कालिक	-3232
▁लगातार	-3233
▁अभिले	-3234
▁संबंधों	-3235
▁परिणामस्वरूप	-3236
▁कठोर	-3237
▁प्रमाणपत्र	-3238
▁मस्ति	-3239
▁औष	-3240
क्षिक	-3241
▁2000	-3242
ियोग	-3243
▁वजह	-3244
ताब	-3245
▁अगस्त	-3246
▁आंतरिक	-3247
पाद	-3248
▁कूट	-3249
▁जनसंख्या	-3250
▁ज़र	-3251
▁चीज़	-3252
▁४	-3253
क्शन	-3254
▁इंजीन	-3255
▁उपयोगी	-3256
is	-3257
शास्त	-3258
▁प्रशासनिक	-3259
▁विश्लेषण	-3260
▁५	-3261
▁यूनि	-3262
▁पश्चात	-3263
पान	-3264
▁हथ	-3265
▁रखता	-3266
ूंगा	-3267
▁प्रका	-3268
▁फर	-3269
▁पति	-3270
कर्ताओं	-3271
▁गोप	-3272
▁मना	-3273
▁सरकारों	-3274
ामा	-3275
▁भूल	-3276
▁बातें	-3277
▁न्यूनतम	-3278
▁वैश्विक	-3279
▁नागरिकों	-3280
▁छूट	-3281
▁गंगा	-3282
▁नेहरू	-3283
ion	-3284
्रीन	-3285
ूबर	-3286
▁आठ	-3287
▁सुख	-3288
▁दीवार	-3289
चारिक	-3290
▁कृष्ण	-3291
ेंद	-3292
▁द्वीप	-3293
▁हासिल	-3294
▁साम्राज्य	-3295
▁अल्	-3296
▁विफल	-3297
▁हिम	-3298
▁चक्र	-3299
ुस्तान	-3300
▁प्रवाह	-3301
▁बीज	-3302
चित्र	-3303
बन्धी	-3304
▁जाएं	-3305
एन	-3306
▁निदेशक	-3307
▁संचालन	-3308
कलन	-3309
नाम	-3310
▁मई	-3311
▁192	-3312
स्ते	-3313
फे	-3314
▁श्रम	-3315
▁बनने	-3316
▁संसार	-3317
▁दस्तावेज	-3318
▁प्रयत्न	-3319
▁कमज	-3320
▁स्वर	-3321
▁सत्या	-3322
बन	-3323
▁स्की	-3324
▁स्थिर	-3325
लग्न	-3326
▁कलकत्ता	-3327
▁स्वच्छ	-3328
om	-3329
ुम	-3330
▁अक्ष	-3331
तल	-3332
▁विहित	-3333
▁सप्ताह	-3334
▁नियुक्ति	-3335
▁आलो	-3336
▁अन्तर	-3337
जीव	-3338
क्ता	-3339
त्तम	-3340
▁महामहिम	-3341
▁नाट	-3342
▁पृथ्वी	-3343
ियल	-3344
▁निरा	-3345
▁खिलाफ	-3346
▁ब्रा	-3347
णों	-3348
▁उम्र	-3349
▁बीमारी	-3350
▁सहकारी	-3351
▁अधिसू	-3352
▁अदालत	-3353
▁प्रकाशन	-3354
▁आसान	-3355
▁छोड़कर	-3356
▁संगठनों	-3357
▁व्याख्या	-3358
▁ऑन	-3359
▁काट	-3360
दाता	-3361
▁लेन	-3362
▁शाह	-3363
▁शुरुआ	-3364
▁खी	-3365
रीत	-3366
▁आह	-3367
▁अभिलेख	-3368
पथ	-3369
वाली	-3370
▁संबद्ध	-3371
▁लोकप्रिय	-3372
▁विशेषकर	-3373
▁प्रतीक	-3374
▁काय	-3375
▁कोल	-3376
▁सड़क	-3377
ेह	-3378
▁सुभाष	-3379
▁कोड	-3380
▁वैसे	-3381
▁कार्यवाह	-3382
▁विम	-3383
▁एकता	-3384
▁उद्योगों	-3385
▁संविदा	-3386
▁40	-3387
▁L	-3388
शनल	-3389
▁M	-3390
▁आरम्भ	-3391
यें	-3392
▁रीति	-3393
▁मीडिया	-3394
ैव	-3395
▁एड	-3396
▁अके	-3397
▁माप	-3398
▁अनुरूप	-3399
चीत	-3400
▁जेल	-3401
▁सुल	-3402
▁चलते	-3403
▁सृजन	-3404
▁x	-3405
▁निष्कर्ष	-3406
di	-3407
▁निः	-3408
स्थापित	-3409
▁दवा	-3410
▁कौशल	-3411
▁जमीन	-3412
▁आपूर्ति	-3413
▁सर्वाधिक	-3414
ंकर	-3415
▁आख	-3416
▁जुड़े	-3417
▁विपरीत	-3418
▁विचारण	-3419
दर्शन	-3420
▁समुचित	-3421
▁पूजा	-3422
▁पीड़ित	-3423
▁बातचीत	-3424
▁अफ्रीका	-3425
▁बुनियादी	-3426
▁जाँच	-3427
▁बू	-3428
▁पूर्वी	-3429
▁ग्रा	-3430
▁पुरा	-3431
ज्ञा	-3432
▁प्रतिनिधित्व	-3433
▁शोध	-3434
▁गिरफ्त	-3435
▁अभियान	-3436
▁परस्पर	-3437
▁सारा	-3438
▁विशेषता	-3439
▁N	-3440
▁re	-3441
▁समझौता	-3442
न्द्रनाथ	-3443
▁e	-3444
▁किसानों	-3445
▁दूध	-3446
▁आश्च	-3447
साधारण	-3448
▁ताप	-3449
▁संकट	-3450
▁रस	-3451
▁विजय	-3452
ूद्ध	-3453
्रित	-3454
▁आंख	-3455
▁अभिप्रे	-3456
▁पूर्ववर्ष	-3457
▁छि	-3458
▁प्रभ	-3459
▁गैस	-3460
ंगिक	-3461
भारत	-3462
वित्र	-3463
वाला	-3464
ॉन	-3465
▁मुह	-3466
▁मस्तिष्क	-3467
▁हत्या	-3468
▁न्यायमूर्ति	-3469
धित	-3470
ियार	-3471
▁अंध	-3472
षक	-3473
▁लै	-3474
▁वकी	-3475
▁इन्	-3476
▁करो	-3477
▁विभाजन	-3478
▁अनुरोध	-3479
▁कथन	-3480
▁प्रस्तावित	-3481
.4	-3482
दास	-3483
▁कीट	-3484
▁तमिल	-3485
▁स्ना	-3486
▁मीटर	-3487
▁एंड	-3488
▁टेली	-3489
▁उत्पादों	-3490
▁परिवहन	-3491
पय	-3492
▁दशक	-3493
सायिक	-3494
▁कार्ड	-3495
ूब	-3496
▁बाग	-3497
▁गुप्त	-3498
्यूट	-3499
▁बेच	-3500
▁इलेक्ट्र	-3501
िसी	-3502
▁निवार	-3503
ोथ	-3504
▁लिप	-3505
▁कर्तव्य	-3506
▁सत्र	-3507
▁चढ़	-3508
▁जाएंगे	-3509
▁मूल्यों	-3510
▁दृढ़	-3511
▁ताल	-3512
▁हस्ताक्षर	-3513
▁2015	-3514
▁भेजा	-3515
▁एकल	-3516
▁नुक	-3517
▁दूरी	-3518
▁पकड़	-3519
▁आनन्द	-3520
वंश	-3521
▁आश्चर्य	-3522
▁धर	-3523
ँचा	-3524
▁इतने	-3525
▁अन्दर	-3526
▁एकत्र	-3527
उस	-3528
▁अक्सर	-3529
ोकन	-3530
▁राज्यपाल	-3531
ुता	-3532
▁टा	-3533
दारों	-3534
▁पत्थ	-3535
मंडल	-3536
▁देवी	-3537
वट	-3538
▁हिंसा	-3539
▁काग	-3540
▁नयी	-3541
▁चुनौती	-3542
▁गीत	-3543
▁दर्शा	-3544
▁संसदीय	-3545
▁मस	-3546
▁धारण	-3547
▁अभियुक्त	-3548
न्ना	-3549
▁यंत्र	-3550
▁2014	-3551
▁D	-3552
▁कक्ष	-3553
▁अमेरिकी	-3554
ंकित	-3555
▁औसत	-3556
दियों	-3557
▁करीब	-3558
▁भागीदारी	-3559
िकेट	-3560
▁टीम	-3561
खे	-3562
ॉप	-3563
▁लिम	-3564
▁प्रतिभा	-3565
▁उपभोक्ता	-3566
▁सर्वेक्षण	-3567
▁फॉ	-3568
▁भेद	-3569
▁साबित	-3570
▁राजनीति	-3571
म्स	-3572
▁बॉ	-3573
▁शे	-3574
▁परेश	-3575
▁महाराष्ट्र	-3576
▁तार	-3577
▁देगा	-3578
▁मृत्युद	-3579
▁आइ	-3580
▁फैल	-3581
▁लिखी	-3582
▁नवान्वेषण	-3583
▁आउट	-3584
▁वहीं	-3585
▁परमाण	-3586
घात	-3587
▁चम	-3588
▁शह	-3589
परि	-3590
▁समित	-3591
▁सशक्त	-3592
▁कश्मीर	-3593
जूदा	-3594
स्त्र	-3595
▁अभाव	-3596
▁डर	-3597
▁अभिप्रेत	-3598
▁अर्थात	-3599
ot	-3600
▁औप	-3601
▁सावधान	-3602
▁रजिस्ट्री	-3603
▁गरीब	-3604
▁जिले	-3605
▁कारणों	-3606
▁29	-3607
▁मछ	-3608
▁प्रारंभिक	-3609
नर	-3610
पास	-3611
भाषित	-3612
▁नियत	-3613
▁शिख	-3614
▁गठित	-3615
▁डिस्क	-3616
▁बदलाव	-3617
▁परिवर्तित	-3618
▁बजाय	-3619
▁माइ	-3620
निष्ठ	-3621
▁कति	-3622
▁नमू	-3623
▁संस्करण	-3624
▁मौजूदा	-3625
निर्	-3626
▁चिंता	-3627
▁बिल्	-3628
ित्त	-3629
ैर	-3630
पादित	-3631
्रांस	-3632
मार्	-3633
▁चिह्न	-3634
▁अन्यथा	-3635
मती	-3636
▁वर्षा	-3637
▁आमत	-3638
गोल	-3639
▁प्रेरणा	-3640
द्या	-3641
▁निभा	-3642
▁हिस्से	-3643
▁पहुंचा	-3644
▁समीक्षा	-3645
▁सुविधाओं	-3646
▁मांस	-3647
▁भाषाओं	-3648
पण	-3649
▁जर्म	-3650
▁सम्बन्धी	-3651
ज़र	-3652
सीसी	-3653
▁लंबा	-3654
▁समग्र	-3655
▁समाप्ति	-3656
▁मिन	-3657
▁अनुपात	-3658
▁सिक्	-3659
ंत्रिक	-3660
▁संतुल	-3661
.3	-3662
▁परियोजनाओं	-3663
ूंकि	-3664
▁लिमिट	-3665
▁सर्वर	-3666
▁देय	-3667
▁आचरण	-3668
तीत	-3669
▁अत	-3670
▁वक्त	-3671
ोजी	-3672
▁गुरु	-3673
▁लक्ष	-3674
▁प्रोत्साहित	-3675
बाइल	-3676
▁लिखने	-3677
▁मैदान	-3678
▁रोकने	-3679
वण	-3680
▁2013	-3681
▁कतिपय	-3682
ंदु	-3683
▁किलो	-3684
▁हैंः	-3685
▁आमतौर	-3686
▁पौध	-3687
▁द्वितीय	-3688
▁प्रवृत्त	-3689
ध्या	-3690
▁चूंकि	-3691
▁देखकर	-3692
▁पवित्र	-3693
▁पाई	-3694
▁आकर्षित	-3695
▁शैक्षिक	-3696
▁आशय	-3697
▁सदा	-3698
▁रखें	-3699
▁जुलाई	-3700
▁शुरुआत	-3701
साद	-3702
प्	-3703
▁भय	-3704
▁उपक्रम	-3705
ाब	-3706
▁सुसंगत	-3707
▁साइ	-3708
▁अकबर	-3709
▁गाय	-3710
श्किल	-3711
▁हक	-3712
▁खाने	-3713
ंडी	-3714
ुरी	-3715
▁गौर	-3716
स्वी	-3717
क्का	-3718
▁अनुश	-3719
▁प्रत	-3720
▁इरा	-3721
नात्मक	-3722
▁हवाई	-3723
नन	-3724
▁अपन	-3725
▁अस्पताल	-3726
▁जय	-3727
▁खुश	-3728
▁खाना	-3729
▁शहरी	-3730
▁आयोजन	-3731
डु	-3732
▁देकर	-3733
▁तल	-3734
▁ब्ल	-3735
▁जानता	-3736
▁बिल्कुल	-3737
थी	-3738
ताव	-3739
▁तकनीक	-3740
▁व्यावसायिक	-3741
▁निवास	-3742
▁ब्राह	-3743
▁विंडो	-3744
▁शिकार	-3745
▁पाठ्यक्रम	-3746
ंदी	-3747
▁80	-3748
▁हार्	-3749
▁सॉफ्टवेयर	-3750
ष्टा	-3751
▁1961	-3752
▁2005	-3753
ार्थी	-3754
▁उधार	-3755
▁बाधा	-3756
▁बुरा	-3757
गढ़	-3758
▁देर	-3759
क्षीय	-3760
ोल्	-3761
▁रहेगा	-3762
▁नियंत्रित	-3763
▁यथ	-3764
ड़ियों	-3765
▁निश्चय	-3766
भाग्य	-3767
▁आस्ति	-3768
▁जीवित	-3769
▁अधिकतर	-3770
▁लिमिटेड	-3771
▁कब	-3772
▁इंस	-3773
▁सुब	-3774
▁संलग्न	-3775
शीलता	-3776
▁मानवीय	-3777
द्धा	-3778
▁चरित्र	-3779
ंछ	-3780
▁जितना	-3781
▁तुरंत	-3782
▁सूर्य	-3783
▁मुद्दों	-3784
धारी	-3785
▁मुझ	-3786
▁मिट्टी	-3787
▁तिर	-3788
▁रिश	-3789
▁चलो	-3790
▁कितना	-3791
▁मुश्किल	-3792
▁प्रतिनिधि	-3793
▁गौ	-3794
▁कमजोर	-3795
▁परमाणु	-3796
▁सहज	-3797
▁खुले	-3798
▁आग्रह	-3799
▁बाह्य	-3800
▁समावेश	-3801
राव	-3802
त्कार	-3803
▁कारा	-3804
▁केरल	-3805
▁इंग्ल	-3806
▁प्रेष	-3807
राम	-3808
▁आसानी	-3809
देव	-3810
▁32	-3811
▁लाया	-3812
▁उत्तरी	-3813
णन	-3814
सु	-3815
ंदन	-3816
▁सांस	-3817
▁मंडल	-3818
▁स्तंभ	-3819
▁ग्राहक	-3820
▁घंटे	-3821
▁प्रारूप	-3822
नाश	-3823
▁जाकर	-3824
▁एकमात्र	-3825
▁घटनाओं	-3826
ुत्	-3827
▁आल	-3828
भाविक	-3829
▁अन्तर्गत	-3830
▁निष्पादन	-3831
▁191	-3832
▁विरूद्ध	-3833
ग्ध	-3834
▁रवी	-3835
▁आसपास	-3836
▁थोड़ा	-3837
▁उत्साह	-3838
▁समझौते	-3839
▁इंटरनेट	-3840
पुट	-3841
▁सहमति	-3842
▁गुजरात	-3843
बाज	-3844
▁जिनकी	-3845
▁अनुदान	-3846
▁इनका	-3847
▁स्कीम	-3848
▁साक्षी	-3849
▁प्रार्थ	-3850
घटना	-3851
▁दर्ज	-3852
▁आवाज	-3853
▁लाइन	-3854
▁बढ़ती	-3855
विज्ञान	-3856
▁लंबे	-3857
▁विमर्श	-3858
▁महात्मा	-3859
▁साध	-3860
▁दूसरों	-3861
▁नेताओं	-3862
णिक	-3863
मीटर	-3864
ोबार	-3865
▁प्रत्या	-3866
▁सहमत	-3867
▁सभ्यता	-3868
ौल	-3869
▁खेती	-3870
▁ज्ञात	-3871
▁नुकसान	-3872
▁सदैव	-3873
▁जनजा	-3874
▁श्रृंखला	-3875
▁वरि	-3876
▁आवास	-3877
▁बाध्य	-3878
घाटन	-3879
▁खान	-3880
▁टुक	-3881
▁छुट	-3882
▁अंतः	-3883
▁ww	-3884
▁कव	-3885
▁कू	-3886
▁फैस	-3887
माने	-3888
▁पंजीकरण	-3889
्राइ	-3890
▁शुरु	-3891
▁रिया	-3892
ाक	-3893
▁अपर	-3894
दिन	-3895
पूर्ति	-3896
▁प्रिय	-3897
▁गोल	-3898
▁मृत	-3899
▁फिली	-3900
▁रास्ता	-3901
▁प्रतिकूल	-3902
▁विश्वविद्यालयों	-3903
▁चोट	-3904
▁कितनी	-3905
▁अग्रिम	-3906
▁आपराधिक	-3907
जिए	-3908
▁प्रथा	-3909
▁स्वाम	-3910
यण	-3911
▁www	-3912
▁सजा	-3913
▁कार्यान्वयन	-3914
dia	-3915
▁आहार	-3916
▁प्रचलित	-3917
ंचित	-3918
▁अनुसूचित	-3919
▁कंपनियों	-3920
▁असमर्थ	-3921
▁इसने	-3922
▁गेंद	-3923
▁नवीन	-3924
▁समझने	-3925
क्षिप्त	-3926
▁खतरा	-3927
▁भावी	-3928
▁वृक्ष	-3929
▁प्रार्थना	-3930
▁पेड़	-3931
रू	-3932
केट	-3933
स्फ	-3934
▁लिखे	-3935
▁संयंत्र	-3936
▁मिस	-3937
▁लेखन	-3938
ंगल	-3939
▁सूत्र	-3940
▁मोबाइल	-3941
श्त	-3942
▁दुख	-3943
▁पैरा	-3944
▁मालूम	-3945
▁संगम	-3946
ेक्ट	-3947
▁लक	-3948
िक्स	-3949
द्वीप	-3950
▁चिकित्स	-3951
हाद	-3952
▁गाँ	-3953
गाह	-3954
▁190	-3955
▁फा	-3956
▁जरिए	-3957
▁उठाने	-3958
़्य	-3959
▁नोड	-3960
▁फोन	-3961
▁दुः	-3962
ेश्वर	-3963
▁कुमार	-3964
▁वीर	-3965
▁सतह	-3966
सीन	-3967
▁नै	-3968
▁हितों	-3969
ंजन	-3970
कां	-3971
▁खींच	-3972
▁विधियों	-3973
प्रे	-3974
▁धारणा	-3975
▁शर्तों	-3976
▁छवि	-3977
▁टिक	-3978
▁बीमार	-3979
▁अवै	-3980
▁वर्गों	-3981
▁हार	-3982
▁हाथों	-3983
▁जनरल	-3984
▁किनारे	-3985
▁रेलवे	-3986
▁उद्ध	-3987
▁सरदार	-3988
शास्त्र	-3989
▁परिषद्	-3990
▁चलाने	-3991
विधि	-3992
न्त्र	-3993
वर्तन	-3994
▁पुरानी	-3995
▁दबाव	-3996
ase	-3997
ंडा	-3998
▁जाल	-3999
▁वाक	-4000
ोल्डर	-4001
्यु	-4002
▁जैव	-4003
▁किस्म	-4004
▁नाग	-4005
▁उन्	-4006
▁पोषण	-4007
▁विभिन्	-4008
▁समृद्ध	-4009
▁अनुसूची	-4010
पेक्ष	-4011
शक्ति	-4012
्नों	-4013
ात्मक	-4014
▁सुदृ	-4015
▁लु	-4016
▁नारा	-4017
ॉक	-4018
▁निरीक्षण	-4019
वश	-4020
िकाओं	-4021
▁कहान	-4022
▁पूर्ति	-4023
जि	-4024
लिया	-4025
▁फरवरी	-4026
▁मालिक	-4027
▁विद्यालय	-4028
गन	-4029
▁गार	-4030
▁वंश	-4031
▁भंडारण	-4032
▁राजस्व	-4033
▁स्वीकृति	-4034
▁सर्वोत्तम	-4035
▁प्रतिस्प	-4036
पंथ	-4037
र्ती	-4038
▁अद्य	-4039
▁वकील	-4040
▁भु	-4041
▁किसान	-4042
▁देंगे	-4043
▁समन्वय	-4044
▁समर्पित	-4045
▁६	-4046
▁लंबी	-4047
▁उपस्थिति	-4048
▁पूछा	-4049
▁अनुसरण	-4050
▁ब्य	-4051
▁परा	-4052
्यवाद	-4053
▁राजस्थान	-4054
▁पैर	-4055
▁2007	-4056
▁पाते	-4057
▁मुद्र	-4058
▁दुर्घटना	-4059
▁सौर	-4060
▁रास्ते	-4061
▁आकर	-4062
▁काउ	-4063
▁सम्पूर्ण	-4064
▁चालू	-4065
▁जीत	-4066
▁देन	-4067
▁अका	-4068
▁आस्त	-4069
▁मूर्	-4070
▁राजधान	-4071
▁फ्ल	-4072
▁अधिर	-4073
▁संदाय	-4074
वायु	-4075
▁कमा	-4076
पालन	-4077
म्मत	-4078
▁तुम्हारे	-4079
▁परिभाषित	-4080
धियों	-4081
▁सराह	-4082
▁विद्र	-4083
▁वरिष्ठ	-4084
दु	-4085
ing	-4086
न्ड	-4087
ेंसी	-4088
▁पर्यटन	-4089
▁योजनाओं	-4090
▁प्रदूषण	-4091
▁आवश्यकताओं	-4092
▁डाटा	-4093
▁शिखर	-4094
▁नीतियों	-4095
▁शत्र	-4096
▁सौंप	-4097
तृ	-4098
▁हल्	-4099
▁दिना	-4100
ग्रस्त	-4101
▁शीर्षक	-4102
▁संक्रमण	-4103
याल	-4104
▁सब्	-4105
▁खड़ा	-4106
▁श्रेष्ठ	-4107
▁प्राथमिकता	-4108
हल	-4109
वली	-4110
▁60	-4111
ीकृत	-4112
▁स्त्र	-4113
▁बोस	-4114
▁सें	-4115
▁उदार	-4116
▁गवर्	-4117
▁छात्र	-4118
▁संदेह	-4119
▁रण	-4120
ोधित	-4121
▁सिल	-4122
क्रिय	-4123
▁2018	-4124
▁विनिमय	-4125
गोर	-4126
▁ऑनलाइन	-4127
▁फ़िल्म	-4128
ख्यात	-4129
▁बाकी	-4130
▁क्रिकेट	-4131
विष्ट	-4132
▁अचान	-4133
▁01	-4134
▁चलने	-4135
▁फर्म	-4136
▁मध्यम	-4137
▁..	-4138
▁पल	-4139
▁...	-4140
▁होम	-4141
▁प्री	-4142
▁बनाये	-4143
▁आलोचना	-4144
लन	-4145
▁असर	-4146
india	-4147
▁बदले	-4148
▁ढांचे	-4149
▁प्रि	-4150
▁अचानक	-4151
▁अस्था	-4152
▁सिद्धांतों	-4153
▁त्वचा	-4154
▁हार्दिक	-4155
ail	-4156
▁मृ	-4157
▁यौ	-4158
▁बिंदु	-4159
▁बदलने	-4160
▁स्वतः	-4161
▁विभाजित	-4162
▁मिलियन	-4163
▁स्वस्थ	-4164
फर	-4165
व्या	-4166
▁तला	-4167
ाले	-4168
▁धो	-4169
र्की	-4170
▁दर्द	-4171
▁पढ़ने	-4172
मि	-4173
कृष्ण	-4174
▁रहें	-4175
▁सागर	-4176
▁यथास्थिति	-4177
दंड	-4178
ासत	-4179
▁वचन	-4180
▁आजादी	-4181
▁बिहार	-4182
▁प्रशंसा	-4183
▁प्रवृत्ति	-4184
▁पत्थर	-4185
वैधानिक	-4186
▁प्रतियोग	-4187
ंध्र	-4188
▁जड़	-4189
थित	-4190
▁झु	-4191
धारणा	-4192
▁कितने	-4193
▁मजदूर	-4194
▁सुनवाई	-4195
लेट	-4196
▁पक्षकार	-4197
▁सुविधाएं	-4198
▁दुर	-4199
▁धात	-4200
▁हाइ	-4201
▁प्रतिभूति	-4202
यत	-4203
गमन	-4204
▁2001	-4205
▁कम्पनी	-4206
▁पत	-4207
▁जागर	-4208
▁परे	-4209
▁विनिश्च	-4210
ोब	-4211
काब	-4212
▁मॉडल	-4213
क़्त	-4214
▁पूर्वो	-4215
▁समूहों	-4216
याँ	-4217
▁बुला	-4218
▁उल्लेखनीय	-4219
▁संक्षिप्त	-4220
▁देखना	-4221
▁संशोधित	-4222
▁दिव्य	-4223
▁सुदृढ़	-4224
▁पूर्	-4225
▁अत्या	-4226
▁आनु	-4227
▁निच	-4228
▁लम्	-4229
▁इनकी	-4230
▁तोड़	-4231
▁पट्ट	-4232
▁अस्वी	-4233
▁समानता	-4234
▁झा	-4235
▁अर्ध	-4236
▁उसको	-4237
▁किताब	-4238
▁बल्ले	-4239
▁प्रारम्भ	-4240
▁स्वाभाविक	-4241
अर	-4242
ट्र	-4243
ष्ठा	-4244
ानिक	-4245
▁पार्	-4246
▁अनुमोदन	-4247
▁जम्	-4248
▁नील	-4249
▁बाबू	-4250
▁विनय	-4251
▁निवारण	-4252
परी	-4253
▁घु	-4254
म्मद	-4255
▁तत्काल	-4256
▁छो	-4257
▁मकान	-4258
▁चन्द्र	-4259
▁मृत्युदंड	-4260
▁अवैध	-4261
▁पौधों	-4262
▁छात्रों	-4263
▁दास	-4264
▁राजधानी	-4265
▁प्राधिकार	-4266
ज्ज	-4267
▁तिथि	-4268
वां	-4269
▁औपचारिक	-4270
▁जिम्मेदारी	-4271
▁विज्ञ	-4272
▁वर्णित	-4273
,1	-4274
▁ठोस	-4275
▁डाय	-4276
▁गहन	-4277
▁प्रान्त	-4278
▁ब्राह्म	-4279
र्त	-4280
▁नेपाल	-4281
▁फे	-4282
▁डिजा	-4283
▁उद्घाटन	-4284
▁सन	-4285
▁2012	-4286
▁जवाह	-4287
▁संप्र	-4288
खों	-4289
तियां	-4290
▁संवाद	-4291
▁जलवायु	-4292
▁मण	-4293
▁अली	-4294
▁पीठ	-4295
▁ट्यू	-4296
▁बौद्धिक	-4297
▁हालत	-4298
▁संवर्धन	-4299
▁प्रतिस्पर्	-4300
ंसिल	-4301
▁हिमालय	-4302
न्दु	-4303
▁प्रेस	-4304
▁हस्तक्षेप	-4305
▁det	-4306
ofindia	-4307
ट्	-4308
▁कच्च	-4309
▁समुद्री	-4310
क्क	-4311
िरी	-4312
▁कैं	-4313
▁लिंग	-4314
▁ब्रिटेन	-4315
▁भारतीयों	-4316
▁ग़	-4317
▁बजट	-4318
▁करवा	-4319
▁बालक	-4320
ासा	-4321
नाटक	-4322
▁चुने	-4323
दरा	-4324
म्परा	-4325
▁द्वि	-4326
▁शिशु	-4327
▁दैनिक	-4328
▁सामूह	-4329
▁खत्म	-4330
▁खाली	-4331
▁क्लिक	-4332
▁अद्यतन	-4333
▁अक्त	-4334
▁चुनौ	-4335
▁शिक्षक	-4336
▁ज़्यादा	-4337
▁अय	-4338
ायें	-4339
▁तत्वों	-4340
▁वस्तुत	-4341
▁पड	-4342
▁2006	-4343
▁गरीबी	-4344
▁45	-4345
सागर	-4346
▁अनि	-4347
▁कष्ट	-4348
▁गहरी	-4349
न्थ	-4350
फ़ी	-4351
ident	-4352
▁गुफा	-4353
▁विपणन	-4354
▁प्रणाल	-4355
पो	-4356
▁भले	-4357
▁रसाय	-4358
▁नौकरी	-4359
▁34	-4360
बादी	-4361
▁मिनट	-4362
▁द्विप	-4363
बाजी	-4364
मार्ग	-4365
▁भेंट	-4366
▁मिलाकर	-4367
जात	-4368
▁सामूहिक	-4369
ेंज	-4370
▁36	-4371
▁आकाश	-4372
▁विद्या	-4373
▁समृद्धि	-4374
▁भंडार	-4375
▁भक्ति	-4376
▁वर्गी	-4377
▁उत्तरदायी	-4378
▁दान	-4379
▁ब्रह्म	-4380
▁खतर	-4381
▁आदान	-4382
▁सोचा	-4383
▁तंत्रिका	-4384
▁सामान्यतः	-4385
▁गू	-4386
▁परिक	-4387
ंडित	-4388
▁मिलते	-4389
▁अज	-4390
ज़ार	-4391
▁सितंबर	-4392
क्सी	-4393
▁आना	-4394
▁लाइस	-4395
▁सिद्धान्त	-4396
▁k	-4397
भावना	-4398
▁कमरे	-4399
▁बचाव	-4400
त्ती	-4401
▁परम्परा	-4402
ार्ज	-4403
▁उपर	-4404
▁कहने	-4405
▁बांध	-4406
▁सकेगी	-4407
▁गांवों	-4408
▁president	-4409
▁press	-4410
पत	-4411
जनन	-4412
▁रद्द	-4413
▁असाधारण	-4414
मो	-4415
▁विद्वान	-4416
ेंड	-4417
▁अग्रणी	-4418
▁जम्मू	-4419
lease	-4420
ेंद्र	-4421
▁गणना	-4422
▁राहत	-4423
▁कराया	-4424
▁फार्म	-4425
▁प्रविष्टि	-4426
▁यून	-4427
▁हद	-4428
▁निश	-4429
ूष	-4430
मूल	-4431
▁उच्चतर	-4432
.7	-4433
चार्य	-4434
▁चिंत	-4435
▁o	-4436
ोटो	-4437
▁hi	-4438
▁नंबर	-4439
▁सफेद	-4440
▁अभिला	-4441
▁release	-4442
वाना	-4443
▁यूरोपीय	-4444
▁निगर	-4445
▁अक्तूबर	-4446
▁कर्नाटक	-4447
▁डाला	-4448
▁बजा	-4449
▁सांप	-4450
▁detail	-4451
▁पर्	-4452
▁पक्षों	-4453
▁निगरानी	-4454
▁उपनि	-4455
वित	-4456
▁खण्ड	-4457
▁कठिनाई	-4458
▁क्रांति	-4459
▁कार्यवाहियों	-4460
▁कब्	-4461
वृत्ति	-4462
ल्य	-4463
▁उभर	-4464
▁परिभाषा	-4465
▁व्यक्तित्व	-4466
▁चाय	-4467
▁ग्ल	-4468
▁पाद	-4469
▁पड़ी	-4470
वरों	-4471
▁लड़के	-4472
▁सुबह	-4473
▁तथ्यों	-4474
▁संवैधानिक	-4475
▁रवीन्द्रनाथ	-4476
▁उत्तरा	-4477
▁मैत्री	-4478
▁माध्यस्थ	-4479
▁आश्व	-4480
पीठ	-4481
▁पदार्थों	-4482
टु	-4483
▁भंग	-4484
▁लाइ	-4485
▁लड़ाई	-4486
▁निपटान	-4487
▁शहरों	-4488
▁विविधता	-4489
▁मोड	-4490
▁आंध्र	-4491
▁बैंकिंग	-4492
ंतरण	-4493
▁बांग	-4494
▁घटा	-4495
▁देशी	-4496
▁नेशनल	-4497
▁आरंभिक	-4498
▁प्रतिबंध	-4499
ॉट	-4500
▁बाँ	-4501
▁शान	-4502
▁आब	-4503
्रमण	-4504
▁चीजों	-4505
▁लगाना	-4506
ान्य	-4507
▁भूत	-4508
शिष्ट	-4509
▁मुक्ति	-4510
▁नृत्य	-4511
▁सीमाओं	-4512
▁रहस्य	-4513
▁इस्लामी	-4514
▁कारावास	-4515
▁जातियों	-4516
▁लाइसेंस	-4517
▁खड़े	-4518
▁चीनी	-4519
वादियों	-4520
▁अपनाया	-4521
▁स्वर्ण	-4522
▁योग्यता	-4523
ग़	-4524
▁कहता	-4525
▁कामना	-4526
▁उतर	-4527
▁पौधे	-4528
नाक	-4529
ॉनिक	-4530
▁2002	-4531
▁खराब	-4532
▁न्यास	-4533
▁उन्नत	-4534
▁पश	-4535
रेखा	-4536
▁वैध	-4537
दर्शी	-4538
▁खतरे	-4539
▁पाँच	-4540
रम	-4541
▁गुणा	-4542
▁कोर्ट	-4543
▁मुकाब	-4544
ुति	-4545
▁33	-4546
▁जैन	-4547
▁परिचय	-4548
▁शिक्षण	-4549
ंशिक	-4550
िल्प	-4551
ॉर्ड	-4552
▁उपे	-4553
▁खेत	-4554
▁वस्त्र	-4555
ोजक	-4556
▁जीवा	-4557
▁उपखंड	-4558
▁देवता	-4559
▁ध्वनि	-4560
▁पंक्ति	-4561
▁मुद्दे	-4562
▁न्यायपालिका	-4563
▁आक	-4564
▁क्	-4565
▁2008	-4566
▁कहला	-4567
▁प्यार	-4568
▁प्रसं	-4569
ao	-4570
िब	-4571
▁अवल	-4572
▁सेटिंग	-4573
▁सावधानी	-4574
जल	-4575
▁मक	-4576
ास्ट	-4577
▁वंचित	-4578
▁मूलभूत	-4579
▁लेती	-4580
▁प्रक्रियाओं	-4581
्वे	-4582
▁दरवा	-4583
▁प्रश्नों	-4584
▁ताकत	-4585
▁युक्ति	-4586
▁उपकरणों	-4587
▁अनुज्ञात	-4588
ङ्	-4589
▁अब्द	-4590
▁अवसरों	-4591
▁निर्मा	-4592
▁अधिसूचना	-4593
▁यूनिट	-4594
▁डिजाइन	-4595
▁स्क्रीन	-4596
▁साहित्यिक	-4597
▁हिंदुस्तान	-4598
▁डाउ	-4599
▁उतना	-4600
▁साझी	-4601
▁अंतरिक्ष	-4602
▁जानने	-4603
▁39	-4604
▁‘‘	-4605
▁ट्रै	-4606
▁तीसरे	-4607
.6	-4608
el	-4609
दायक	-4610
▁प्राधिकृत	-4611
ष्प	-4612
▁पैसे	-4613
▁मानना	-4614
▁विरासत	-4615
▁मंदिरों	-4616
▁y	-4617
▁उपायों	-4618
▁प्रतिबद्ध	-4619
मेल	-4620
▁बिलकुल	-4621
▁विक्रय	-4622
▁शक्तिशाली	-4623
▁दावे	-4624
▁अर्जित	-4625
▁संध्या	-4626
ंघन	-4627
▁मैने	-4628
▁कक्षा	-4629
▁पोर्ट	-4630
भि	-4631
▁जहाज	-4632
▁जायें	-4633
▁बनाता	-4634
▁अपराधों	-4635
▁उठाया	-4636
लैंड	-4637
▁बेल	-4638
▁वाद्य	-4639
▁कोट	-4640
▁अधिरोप	-4641
▁मजिस्ट	-4642
▁स्वभाव	-4643
▁कोय	-4644
▁अवमान	-4645
वहार	-4646
▁मौलिक	-4647
ॉलर	-4648
▁वेद	-4649
▁उन्म	-4650
▁l	-4651
▁पैमाने	-4652
ैया	-4653
▁चू	-4654
ल्ला	-4655
▁वसू	-4656
▁इसील	-4657
▁टिप्पणी	-4658
मान्य	-4659
स्ट्रे	-4660
▁विनिश्चय	-4661
16	-4662
िस्त	-4663
ंभव	-4664
▁बजे	-4665
▁पृथक	-4666
▁मिथ	-4667
▁यहू	-4668
▁अनुचित	-4669
शे	-4670
▁चाहती	-4671
सनीय	-4672
▁पेंशन	-4673
ंतिक	-4674
▁शोक	-4675
▁आराम	-4676
▁चंद्र	-4677
▁अमरीका	-4678
▁पहुंचने	-4679
साइ	-4680
▁नार	-4681
▁2016	-4682
▁शर्त	-4683
▁जीन	-4684
▁असाम	-4685
▁आवेद	-4686
▁गर्भ	-4687
▁उपर्य	-4688
▁सम्पत्ति	-4689
▁प्रतियोगिता	-4690
▁संचालित	-4691
ंठ	-4692
▁धु	-4693
▁भरा	-4694
▁अगला	-4695
▁नेत्र	-4696
उंड	-4697
यात	-4698
श्म	-4699
▁अपरि	-4700
▁स्वामित्व	-4701
▁घूम	-4702
▁शक्तियां	-4703
▁उद्देश्यों	-4704
▁द्विपक्षीय	-4705
ंगों	-4706
नीति	-4707
▁प्रवर्तन	-4708
ol	-4709
वधि	-4710
▁यो	-4711
▁वस	-4712
▁दिला	-4713
▁उपलब्धि	-4714
लाब	-4715
▁सदी	-4716
ूली	-4717
▁१५	-4718
▁घटक	-4719
▁भेजे	-4720
▁मोटर	-4721
▁स्मार	-4722
▁अस्थायी	-4723
▁मध्यस्थ	-4724
षे	-4725
्रोल	-4726
▁अदा	-4727
▁खिल	-4728
▁रेश	-4729
शः	-4730
▁फें	-4731
▁गुजर	-4732
▁दिमा	-4733
▁सराहना	-4734
▁संबोधित	-4735
▁निकाला	-4736
▁विनिर्माण	-4737
ou	-4738
वती	-4739
़्त	-4740
यु	-4741
▁पहलू	-4742
▁साहस	-4743
▁फ्रांस	-4744
50	-4745
ब्ल	-4746
▁दण्ड	-4747
▁यथार्थ	-4748
▁जुड़	-4749
कोश	-4750
▁पीढ़ी	-4751
▁बच्चा	-4752
▁भांति	-4753
▁परिवर्त	-4754
फोन	-4755
ग्रहण	-4756
▁ग्री	-4757
▁साइट	-4758
▁खि	-4759
▁ग्राफ	-4760
▁जुड़ा	-4761
▁रेडियो	-4762
▁पृष्ठभूमि	-4763
▁मानो	-4764
▁स्थाना	-4765
▁विभागों	-4766
▁तापमान	-4767
▁महाराजा	-4768
ायर	-4769
▁कायम	-4770
▁सकेंगे	-4771
क्रो	-4772
▁पोत	-4773
▁अंग्रेज	-4774
▁फ्र	-4775
▁लॉग	-4776
ंपरिक	-4777
▁उर्व	-4778
▁मनोर	-4779
▁पर्वत	-4780
▁श्रमिक	-4781
▁सेल	-4782
▁मुला	-4783
▁अत्यन्त	-4784
▁पत्रिका	-4785
ठे	-4786
▁मरा	-4787
▁जिनसे	-4788
अप	-4789
कीर्ण	-4790
▁1999	-4791
▁तस्वी	-4792
▁संतुलन	-4793
▁इंडियन	-4794
▁दिसंबर	-4795
▁कोशिकाओं	-4796
▁प्रतिदिन	-4797
ड्डी	-4798
रचना	-4799
▁छाप	-4800
,2	-4801
▁ड्र	-4802
▁तमिलना	-4803
ख्यान	-4804
▁ईसाई	-4805
▁रजिस्ट्रीकरण	-4806
▁बहस	-4807
▁मूर्ति	-4808
▁अन्वेषण	-4809
▁इक	-4810
्त्र	-4811
▁पंडित	-4812
▁बनाकर	-4813
▁शास्त्र	-4814
ac	-4815
▁’	-4816
▁कने	-4817
.2014	-4818
▁रानी	-4819
▁ठहरा	-4820
▁परिश	-4821
▁व्युत्	-4822
▁विद्यार्थी	-4823
ोक्	-4824
ंचाई	-4825
▁पोजी	-4826
▁ढांचा	-4827
▁कारोबार	-4828
▁ड़	-4829
▁जाग	-4830
▁तरीकों	-4831
▁युवाओं	-4832
▁इंजीनिय	-4833
▁दक्षिणी	-4834
क्तिक	-4835
▁श्रीमती	-4836
▁समितियों	-4837
▁पच	-4838
व्यों	-4839
.8	-4840
यिक	-4841
▁दर्	-4842
▁संग्र	-4843
▁समझते	-4844
▁वसूली	-4845
▁हटाने	-4846
▁अवधारणा	-4847
यक	-4848
ब्र	-4849
म्बई	-4850
सिंह	-4851
▁लल	-4852
हारिक	-4853
▁समाय	-4854
घर	-4855
ाइन	-4856
▁आर्	-4857
ेदन	-4858
म्बे	-4859
▁मुकदमे	-4860
▁राजभाषा	-4861
14	-4862
▁लंबित	-4863
▁गिरफ्तार	-4864
▁49	-4865
▁उपय	-4866
▁चैतन	-4867
▁दिलच	-4868
▁देखे	-4869
▁जितनी	-4870
▁उपर्युक्त	-4871
▁क्रियान्व	-4872
▁कारक	-4873
▁उपयोगकर्ता	-4874
तरी	-4875
हाई	-4876
▁पॉल	-4877
▁नाते	-4878
▁न्	-4879
▁झील	-4880
▁मानी	-4881
▁संदेय	-4882
▁तत्त्व	-4883
▁पारंपरिक	-4884
शोथ	-4885
▁वय	-4886
▁बचत	-4887
िर्धारित	-4888
▁बांग्ला	-4889
▁चिप	-4890
▁हाँ	-4891
▁बोली	-4892
▁मिलेगी	-4893
ुरा	-4894
्मी	-4895
पादक	-4896
▁खनि	-4897
▁क्षण	-4898
स्तानी	-4899
▁रहेंगे	-4900
▁पक्षकारों	-4901
▁जाओ	-4902
▁लगती	-4903
▁आबादी	-4904
▁होंगी	-4905
▁प्रभाग	-4906
▁जिम्मेदार	-4907
त्ते	-4908
▁पंख	-4909
▁चैनल	-4910
क्राम	-4911
▁परिवेश	-4912
▁मार्गदर्शन	-4913
▁O	-4914
रुप	-4915
▁उतार	-4916
▁दिखाया	-4917
▁नान	-4918
▁दुःख	-4919
▁धातु	-4920
▁कराना	-4921
▁फ़ोल्डर	-4922
दल	-4923
▁iii	-4924
▁हरि	-4925
▁37	-4926
▁खूब	-4927
▁गुल	-4928
▁गुरू	-4929
▁चुना	-4930
▁मिलेगा	-4931
▁संवेदन	-4932
ग्रा	-4933
▁बीस	-4934
▁बारह	-4935
▁चैतन्य	-4936
▁इलाज	-4937
▁रुचि	-4938
▁पोजीशन	-4939
▁महीनों	-4940
▁रिकार्ड	-4941
▁तात्	-4942
▁समझे	-4943
▁अकेले	-4944
▁अभिगम	-4945
▁स्तरों	-4946
▁आतंकवादी	-4947
▁सकारात्मक	-4948
▁व्यावहारिक	-4949
दोष	-4950
▁झू	-4951
▁१८	-4952
▁सद्	-4953
▁कॉलेज	-4954
▁हैदरा	-4955
▁इसीलिए	-4956
भेद	-4957
▁छोड	-4958
कलापों	-4959
▁हकदार	-4960
▁188	-4961
कुमार	-4962
▁अज्ञ	-4963
▁फैला	-4964
▁रिट	-4965
▁दोनो	-4966
▁उद्यान	-4967
▁केंद्रित	-4968
▁अहम	-4969
▁सहन	-4970
▁लड़की	-4971
ेयर	-4972
▁बिता	-4973
▁उन्होने	-4974
ँग	-4975
▁बनाते	-4976
▁जोड़ने	-4977
▁निष्क्रिय	-4978
पंथी	-4979
▁189	-4980
▁तिल	-4981
▁बडी	-4982
च्छिक	-4983
▁दोहरा	-4984
▁विद्रोह	-4985
द्रास	-4986
▁वादी	-4987
तांत्रिक	-4988
▁इलेक्ट्रॉनिक	-4989
▁ढूं	-4990
▁रिज	-4991
▁पेशे	-4992
ध्यक्ष	-4993
▁गारंटी	-4994
▁महाभारत	-4995
बारा	-4996
लिंग	-4997
▁कट्ट	-4998
▁अभिलाभ	-4999
▁पंजीकृत	-5000
▁संभावित	-5001
ुण	-5002
काय	-5003
▁आपात	-5004
सूर	-5005
▁चतु	-5006
▁धरती	-5007
▁सिंध	-5008
▁ऊंचाई	-5009
▁पालिसी	-5010
▁पुष्टि	-5011
्मा	-5012
▁फार	-5013
ंत्रित	-5014
▁डालने	-5015
▁भर्ती	-5016
▁सम्बंध	-5017
▁सिंचाई	-5018
▁पड़ती	-5019
▁ग्राहकों	-5020
▁अकाद	-5021
▁आधारभूत	-5022
▁संतु	-5023
▁पशुओं	-5024
▁बढ़ने	-5025
▁रूपों	-5026
▁भगवान्	-5027
▁कोष	-5028
▁भरी	-5029
▁भरे	-5030
▁याची	-5031
▁प्रांत	-5032
▁वस्तुतः	-5033
▁एयर	-5034
▁लार	-5035
▁इमार	-5036
▁जाएँ	-5037
▁रहित	-5038
▁चुनें	-5039
▁मजिस्ट्रेट	-5040
am	-5041
▁दाख	-5042
▁कहां	-5043
कांक्षा	-5044
▁प्रेषित	-5045
▁परिवारों	-5046
12	-5047
▁उदा	-5048
▁हिस	-5049
ड़िया	-5050
▁वार्	-5051
▁जानकर	-5052
▁रसायन	-5053
▁स्मरण	-5054
▁जायेगी	-5055
िली	-5056
▁उत्तरदायित्व	-5057
▁चली	-5058
▁बारी	-5059
▁अम्	-5060
▁छाया	-5061
▁पट्टी	-5062
▁संतोष	-5063
▁हैदराबाद	-5064
▁टूट	-5065
▁आंशिक	-5066
▁उल्लंघन	-5067
स्ट्रेलिया	-5068
ंदगी	-5069
▁2011	-5070
▁मद्रास	-5071
▁इंद	-5072
▁डिज	-5073
▁पदों	-5074
▁निकालने	-5075
he	-5076
▁असह	-5077
दायिक	-5078
▁ऊपरी	-5079
▁ट्रे	-5080
▁स्टेशन	-5081
जीवन	-5082
▁बहुमत	-5083
▁पहाड़ी	-5084
गि	-5085
ायतों	-5086
▁मातृ	-5087
क्षणिक	-5088
▁प्रतीक्षा	-5089
▁मानता	-5090
▁अमरीकी	-5091
र्थी	-5092
▁इच्छ	-5093
▁शांत	-5094
जीवी	-5095
▁प्लस	-5096
कल्पिक	-5097
▁फैसला	-5098
▁धा	-5099
▁आकलन	-5100
▁घृ	-5101
▁फु	-5102
काता	-5103
वर्ड	-5104
▁आयी	-5105
▁परिसर	-5106
▁संपदा	-5107
▁पहुंचे	-5108
▁शिक्षकों	-5109
ैण्ड	-5110
▁ईरान	-5111
▁एकदम	-5112
▁मुंह	-5113
▁जापान	-5114
रलाल	-5115
ष्णु	-5116
▁व्यापारी	-5117
कू	-5118
रस	-5119
▁शौ	-5120
मानी	-5121
श्वास	-5122
▁अभ्य	-5123
▁कागज	-5124
▁साझा	-5125
▁पार्क	-5126
▁तदन	-5127
▁कपड़े	-5128
▁पुरूष	-5129
▁स्वीकृत	-5130
शाह	-5131
▁पाप	-5132
▁प्रयोगशाला	-5133
▁मुगल	-5134
▁सम्भव	-5135
▁प्रजनन	-5136
ार्ट	-5137
▁कर्ण	-5138
▁पांड	-5139
ंधन	-5140
राशि	-5141
▁कड़ी	-5142
▁देखता	-5143
▁विवरणी	-5144
▁वैकल्पिक	-5145
▁एल्	-5146
▁मुकदमा	-5147
बो	-5148
्रु	-5149
▁43	-5150
▁ज्यो	-5151
▁जोड़ा	-5152
▁थोड़ी	-5153
▁शान्त	-5154
▁मानवता	-5155
▁पुस्तकों	-5156
पू	-5157
्नि	-5158
▁जला	-5159
द्दीन	-5160
▁जमान	-5161
▁हाथी	-5162
▁किन्हीं	-5163
ुत्व	-5164
▁लगते	-5165
▁जर्मनी	-5166
ज़े	-5167
▁चुप	-5168
▁लकड़ी	-5169
▁वर्मा	-5170
▁सिवाय	-5171
▁पूर्णतः	-5172
ैट	-5173
▁वापसी	-5174
▁दस्तावेजों	-5175
्टा	-5176
▁187	-5177
तावनी	-5178
▁समझता	-5179
▁धन्यवाद	-5180
इयां	-5181
▁2003	-5182
▁चेक	-5183
▁पैके	-5184
▁गहराई	-5185
ड्य	-5186
▁हां	-5187
▁विनियमन	-5188
जो	-5189
▁r	-5190
▁कॉल	-5191
▁गईं	-5192
▁रिक्त	-5193
▁जवाहरलाल	-5194
लभ	-5195
बान	-5196
र्दू	-5197
्वान	-5198
ासंगिक	-5199
▁७	-5200
पूर	-5201
कलाप	-5202
▁संधि	-5203
▁संगठित	-5204
▁उल्लिखित	-5205
र्गी	-5206
▁दार्	-5207
▁बैठे	-5208
▁रोगों	-5209
▁सूचित	-5210
▁उन्हीं	-5211
▁चेतावनी	-5212
▁प्रतिवादी	-5213
खन	-5214
प्ति	-5215
▁पाता	-5216
ाधिकार	-5217
▁तमिलनाडु	-5218
▁बग	-5219
▁खड़ी	-5220
▁लिंक	-5221
▁उत्तेज	-5222
▁पहलुओं	-5223
▁जमी	-5224
▁गद्य	-5225
▁गौरव	-5226
▁साधनों	-5227
ेरे	-5228
▁2004	-5229
ायल	-5230
▁तृ	-5231
▁सल	-5232
▁कही	-5233
▁मछली	-5234
▁निवासी	-5235
▁गाड़ी	-5236
▁ड्राइ	-5237
▁कुशलता	-5238
▁प्रसंस्	-5239
▁सम्पर्क	-5240
▁नकारात्मक	-5241
▁उर्दू	-5242
▁चिन्ह	-5243
▁मान्य	-5244
▁तुर्की	-5245
▁प्रतिष्ठित	-5246
▁पढ	-5247
▁साझे	-5248
▁दक्षता	-5249
▁संभवतः	-5250
▁कानूनों	-5251
थान	-5252
▁विवेक	-5253
शेष	-5254
▁गिरा	-5255
▁भेजने	-5256
▁एप	-5257
▁चुकता	-5258
▁एव	-5259
नलोड	-5260
▁आखिर	-5261
▁शल्य	-5262
▁ब्राउ	-5263
▁इल	-5264
▁शोर	-5265
▁माने	-5266
▁टिप्पण	-5267
▁इंग्लैंड	-5268
.2015	-5269
▁किलोमीटर	-5270
▁फलस्वरूप	-5271
▁अभिनिर्धारित	-5272
▁मधु	-5273
▁लोड	-5274
▁पड़ेगा	-5275
▁शपथ	-5276
▁अंग्रेजों	-5277
वाने	-5278
▁अवय	-5279
▁सीधा	-5280
▁चयनित	-5281
गरी	-5282
ायण	-5283
ोहन	-5284
न्या	-5285
▁बोध	-5286
▁उग्र	-5287
▁निरसन	-5288
▁गांधीजी	-5289
▁प्रतिबि	-5290
▁u	-5291
▁शो	-5292
▁अक्षम	-5293
▁अट	-5294
▁साहब	-5295
▁आपस	-5296
▁आबंट	-5297
▁डॉलर	-5298
▁प्रबल	-5299
▁स्त्रियों	-5300
▁48	-5301
▁दुकान	-5302
निंग	-5303
पक्ष	-5304
▁जुल	-5305
▁सतत	-5306
▁उतनी	-5307
▁रखकर	-5308
▁शानदार	-5309
संरचना	-5310
▁रूपांत	-5311
धक	-5312
▁छिप	-5313
▁देखी	-5314
▁नवं	-5315
▁याता	-5316
▁यानी	-5317
▁चीजें	-5318
▁तैयारी	-5319
▁कनेक्शन	-5320
▁व्यवस्थित	-5321
नान	-5322
िटल	-5323
फेसर	-5324
▁तीनों	-5325
▁स्टेट	-5326
▁अंतराल	-5327
▁क्रांतिक	-5328
रेख	-5329
▁पाये	-5330
▁प्रतिर	-5331
▁मिश्रण	-5332
▁सुश	-5333
▁सेक	-5334
▁हरे	-5335
▁अपमान	-5336
▁विनाश	-5337
▁एकीकृत	-5338
▁प्रसाद	-5339
▁भरो	-5340
▁सम्बन्धित	-5341
एच	-5342
लिप	-5343
ारक	-5344
▁जू	-5345
▁ज्व	-5346
▁सिख	-5347
▁उत्तम	-5348
▁चिकित्सक	-5349
▁अफग	-5350
▁काला	-5351
▁हिमा	-5352
▁मुझसे	-5353
▁अपनाने	-5354
▁स्वाधीन	-5355
10	-5356
▁बन्द	-5357
▁एजेंस	-5358
▁ष	-5359
▁क्व	-5360
▁पहन	-5361
▁मेन	-5362
▁रेड	-5363
▁गुणों	-5364
▁पत्रों	-5365
िवृ	-5366
▁कस	-5367
▁सड़	-5368
▁माध्यस्थम्	-5369
जु	-5370
स्को	-5371
▁पोल	-5372
▁भाष्	-5373
▁दोस्त	-5374
▁चुनौतियों	-5375
▁खून	-5376
▁अखिल	-5377
▁हिसाब	-5378
▁चिकित्सीय	-5379
▁विश्वसनीय	-5380
कना	-5381
▁कीटों	-5382
▁नवंबर	-5383
▁घनिष्ठ	-5384
▁निष्ठा	-5385
▁अहि	-5386
▁सिक	-5387
ष्कार	-5388
▁त्रि	-5389
▁खोलने	-5390
▁वृद्ध	-5391
▁अनुपालन	-5392
गों	-5393
▁औषध	-5394
▁कट्टर	-5395
▁जीवों	-5396
▁पोस्ट	-5397
▁रहेगी	-5398
▁कोलकाता	-5399
▁गतिविधि	-5400
iv	-5401
देन	-5402
वानी	-5403
▁पूर	-5404
▁अंततः	-5405
▁सैन्य	-5406
▁मशीनरी	-5407
▁संपन्न	-5408
▁यातायात	-5409
प्रद	-5410
्रीम	-5411
▁पैसा	-5412
▁प्रोफेसर	-5413
हे	-5414
▁नज	-5415
ापरी	-5416
▁वास	-5417
▁हमे	-5418
▁लाना	-5419
▁क्रमशः	-5420
▁डाउनलोड	-5421
▁विवादों	-5422
भौ	-5423
ुणा	-5424
▁90	-5425
शनिक	-5426
▁९	-5427
लांग	-5428
वारी	-5429
▁सकल	-5430
ड़ीसा	-5431
▁2009	-5432
▁अनाज	-5433
▁काले	-5434
▁१९९	-5435
प्न	-5436
राय	-5437
▁42	-5438
यक्तिक	-5439
▁अस्थि	-5440
▁मंजूर	-5441
▁कार्यान्वित	-5442
▁वैज्ञानिकों	-5443
▁अपराधी	-5444
▁प्रदत्त	-5445
ंसक	-5446
▁घो	-5447
▁ध्वज	-5448
▁मित्रों	-5449
न्दा	-5450
▁बडे	-5451
▁परिचित	-5452
▁एजेंसी	-5453
▁दिनांक	-5454
▁स्थितियों	-5455
▁विलंब	-5456
▁कार्यपालिका	-5457
▁लोकतांत्रिक	-5458
गामी	-5459
सेना	-5460
▁इकट	-5461
▁प्लेट	-5462
▁बढ़ते	-5463
▁किराये	-5464
▁लोकसभा	-5465
▁सभापति	-5466
.9	-5467
▁महल	-5468
▁बहाद	-5469
▁तस्वीर	-5470
▁पुनर्व	-5471
▁दार्शनिक	-5472
काया	-5473
▁1956	-5474
▁आपसे	-5475
▁उठाए	-5476
▁शंकर	-5477
▁अस्वीकार	-5478
रु	-5479
ाहट	-5480
वृत्त	-5481
▁दोषी	-5482
▁रचनात्मक	-5483
ec	-5484
▁इस्	-5485
▁पीड़ा	-5486
▁आरक्षित	-5487
▁घास	-5488
▁हजारों	-5489
▁प्रतिफल	-5490
▁प्रमाणित	-5491
ड़ना	-5492
कियों	-5493
थे	-5494
मुच	-5495
ोज़	-5496
स्कर	-5497
▁186	-5498
त्रिम	-5499
▁कुटु	-5500
▁पंचा	-5501
▁बांट	-5502
▁चेहरे	-5503
▁सहारा	-5504
▁आह्वान	-5505
▁ज्योति	-5506
▁शैक्षणिक	-5507
▁राष्ट्रों	-5508
▁वांछ	-5509
▁डिग्री	-5510
िलों	-5511
▁शत्रु	-5512
▁मानकों	-5513
▁प्रतिष्ठा	-5514
▁क्षतिपूर्ति	-5515
कन	-5516
न्तर	-5517
▁हमला	-5518
▁विनिधान	-5519
▁व्यापारिक	-5520
▁अधिरोपित	-5521
▁क्रमा	-5522
▁छु	-5523
▁फौ	-5524
▁भक्त	-5525
▁दिमाग	-5526
13	-5527
०००	-5528
▁70	-5529
्राव	-5530
▁गर्व	-5531
▁घाटी	-5532
तन्त्र	-5533
▁आस्था	-5534
▁जुड़ी	-5535
▁सतर्क	-5536
मेन	-5537
▁कालेज	-5538
▁ट्यूब	-5539
▁75	-5540
▁बढ़कर	-5541
▁माननीय	-5542
▁जायेंगे	-5543
लक	-5544
्टे	-5545
▁1947	-5546
▁वस्तुएं	-5547
ME	-5548
ोनें	-5549
▁सचमुच	-5550
▁गवर्नर	-5551
▁दिसम्बर	-5552
▁शिक्षित	-5553
▁समुदायों	-5554
▁विचारधारा	-5555
ation	-5556
▁देखो	-5557
▁बदला	-5558
▁संभाल	-5559
▁धनराशि	-5560
▁राह	-5561
▁रूस	-5562
▁घरों	-5563
▁कार्यरत	-5564
ँस	-5565
▁८	-5566
क़्	-5567
▁उभ	-5568
गोलिक	-5569
ब्लिक	-5570
▁असली	-5571
▁स्तरीय	-5572
▁इंजीनियर	-5573
▁पुस्तिका	-5574
▁प्रासंगिक	-5575
▁निर्देशिका	-5576
▁तू	-5577
▁नवी	-5578
▁अभिर	-5579
▁कृत्रिम	-5580
▁गि	-5581
▁पुण	-5582
▁कृति	-5583
▁पढ़ा	-5584
▁नवम्बर	-5585
▁सहयोगी	-5586
▁प्रतिरोध	-5587
og	-5588
▁कथित	-5589
▁नस्ल	-5590
▁बंदर	-5591
▁हार्ड	-5592
▁अधिवक्ता	-5593
थन	-5594
कात	-5595
▁बम	-5596
र्जन	-5597
सलों	-5598
ार्इ	-5599
▁नकद	-5600
▁इकट्	-5601
▁वाहन	-5602
▁दाखिल	-5603
▁ब्राह्मण	-5604
्रेता	-5605
▁सम्रा	-5606
▁विद्वानों	-5607
▁मतदान	-5608
▁परिवर्तनों	-5609
ंजा	-5610
यालय	-5611
▁115	-5612
▁रिस	-5613
क़्ति	-5614
▁अंडे	-5615
▁आपसी	-5616
▁ईंधन	-5617
ोक्ताओं	-5618
ed	-5619
▁भावनाओं	-5620
▁भौगोलिक	-5621
▁दुर्भाग्य	-5622
▁टू	-5623
िकीय	-5624
▁जिसको	-5625
▁श्वेत	-5626
बेस	-5627
▁लीग	-5628
▁चट्ट	-5629
▁फोटो	-5630
▁समेक	-5631
▁स्तन	-5632
▁आदेशों	-5633
▁प्रक्रम	-5634
▁प्रभावशाली	-5635
▁सामान्यतया	-5636
▁कना	-5637
चालित	-5638
अल	-5639
ख्त	-5640
बों	-5641
▁धम	-5642
विदा	-5643
▁मासिक	-5644
▁उत्पादक	-5645
▁उपलब्धता	-5646
ढ़े	-5647
▁सीता	-5648
दाताओं	-5649
▁जमानत	-5650
▁फाइ	-5651
स्पति	-5652
▁असामान्य	-5653
हीत	-5654
▁अमर	-5655
▁पाइ	-5656
▁बुल	-5657
▁लेंगे	-5658
▁लेखकों	-5659
▁परिस्थिति	-5660
▁38	-5661
▁अच	-5662
ंडिक	-5663
स्फोट	-5664
▁लिपि	-5665
▁शासक	-5666
▁अवरोध	-5667
▁अनुदेश	-5668
ad	-5669
▁चावल	-5670
▁तलाश	-5671
▁बनता	-5672
▁अभ्यास	-5673
▁उड़ीसा	-5674
ोद	-5675
जाल	-5676
ंतरित	-5677
▁खतरनाक	-5678
▁उपेक्षा	-5679
▁दर्शाता	-5680
पेश	-5681
▁ऊतक	-5682
▁मेम	-5683
▁अर्जन	-5684
▁संवेद	-5685
▁दीक्षा	-5686
▁पूर्वा	-5687
▁सुन्दर	-5688
▁हिमाचल	-5689
▁भव	-5690
▁अग्नि	-5691
▁अपवाद	-5692
▁ऑडियो	-5693
▁शुक्र	-5694
▁सेवान	-5695
▁अज्ञात	-5696
दनी	-5697
▁चमक	-5698
▁अतीत	-5699
▁ईमान	-5700
▁उपरा	-5701
▁गणित	-5702
▁क्रेड	-5703
▁शेयरों	-5704
▁इकाइयों	-5705
▁अपेक्षाकृत	-5706
▁प्रसंस्करण	-5707
IN	-5708
क्की	-5709
वर्त	-5710
▁कीम	-5711
साइटी	-5712
▁निबंध	-5713
ोचित	-5714
▁अपी	-5715
▁जंगल	-5716
▁वैदिक	-5717
▁पूर्ववर्ती	-5718
▁नाब	-5719
▁लंबाई	-5720
वेट	-5721
जनों	-5722
▁बिट	-5723
▁सूच	-5724
▁कहाँ	-5725
▁लंदन	-5726
▁हाउस	-5727
▁अनुक्रम	-5728
▁रजिस्टर	-5729
▁संक्षेप	-5730
▁उत्प	-5731
▁तीसरा	-5732
▁कार्मिक	-5733
▁कम्	-5734
▁अभिप्र	-5735
ानिस्तान	-5736
स्तु	-5737
▁गहरे	-5738
▁गोरा	-5739
स्परिक	-5740
▁पैकेज	-5741
▁नदियों	-5742
▁योजनाएं	-5743
▁सोसाइटी	-5744
ँचे	-5745
▁अजी	-5746
▁बेर	-5747
▁मुख्यतः	-5748
झा	-5749
वत्	-5750
▁मेघ	-5751
▁निधन	-5752
▁अंकित	-5753
▁जुर्म	-5754
▁त्वरित	-5755
ंपा	-5756
▁गीता	-5757
▁टिकट	-5758
▁प्रणालियों	-5759
ेस	-5760
वाँ	-5761
▁185	-5762
▁चुक	-5763
▁2010	-5764
▁सुनने	-5765
▁रिकॉर्ड	-5766
▁केंद्रों	-5767
▁राज्यक्षेत्र	-5768
क्सा	-5769
▁परत	-5770
▁आईटी	-5771
▁बुरी	-5772
▁कैंसर	-5773
▁प्रचालन	-5774
▁मादा	-5775
▁पिछली	-5776
▁संग्रहालय	-5777
रणों	-5778
▁आयकर	-5779
चन्द्र	-5780
▁प्रसारण	-5781
▁अहं	-5782
▁तनाव	-5783
▁फायदा	-5784
▁मतभेद	-5785
▁दिखाने	-5786
▁आस्तियों	-5787
▁यान	-5788
▁रखती	-5789
▁साथी	-5790
▁पक्षी	-5791
▁सेक्टर	-5792
▁निर्णयों	-5793
▁व्युत्पन्न	-5794
्द	-5795
▁अगली	-5796
▁नकदी	-5797
▁आयुर्	-5798
▁कुरान	-5799
▁डाक्टर	-5800
▁वार्ता	-5801
ितु	-5802
▁खुला	-5803
▁बोलते	-5804
▁प्रोटोक	-5805
▁सीखने	-5806
ानुभूति	-5807
▁परेशान	-5808
▁विनिया	-5809
▁अनुमोदित	-5810
▁१०	-5811
दूरी	-5812
▁खर्	-5813
▁संकल्पना	-5814
▁अध्यक्षता	-5815
▁पारस्परिक	-5816
प्ट	-5817
▁असल	-5818
▁बंबई	-5819
▁मोटे	-5820
▁मौका	-5821
▁सोने	-5822
▁शासित	-5823
▁संगणक	-5824
▁सलाहकार	-5825
िमा	-5826
ोपण	-5827
▁डो	-5828
▁बचने	-5829
▁दशकों	-5830
▁मंजूरी	-5831
▁समर्पण	-5832
▁व्याख्यान	-5833
,3	-5834
st	-5835
नाइट	-5836
भाषण	-5837
▁ताज	-5838
▁बलि	-5839
▁मस्	-5840
नेक्ट	-5841
▁बयान	-5842
▁सौंदर	-5843
▁अन्तिम	-5844
▁रामायण	-5845
▁विष्णु	-5846
▁तदनुसार	-5847
▁आमंत्रित	-5848
▁वैयक्तिक	-5849
डो	-5850
सेस	-5851
▁नल	-5852
▁किल	-5853
▁खबर	-5854
▁चेन्न	-5855
▁ज़रूर	-5856
▁बचाने	-5857
▁मानदंड	-5858
▁व्यस्त	-5859
▁तुम्हारी	-5860
▁लक्ष्यों	-5861
आईआर	-5862
▁ऑफ़	-5863
▁लोप	-5864
▁बनना	-5865
▁लिखते	-5866
▁कच	-5867
▁पन	-5868
▁वजन	-5869
▁पाना	-5870
▁दांडिक	-5871
डि	-5872
एमई	-5873
चाप	-5874
क्कर	-5875
संख्य	-5876
▁काली	-5877
▁क्रेडिट	-5878
डन	-5879
ूण	-5880
कीन	-5881
▁ढल	-5882
▁खनिज	-5883
ियुक्त	-5884
▁अनन्त	-5885
ंर	-5886
छा	-5887
सार	-5888
ांसी	-5889
▁स्टा	-5890
▁चलाया	-5891
▁क़्यों	-5892
▁साक्षा	-5893
▁विन्यास	-5894
▁विकासशील	-5895
मंड	-5896
ोसिए	-5897
▁वाम	-5898
▁टीका	-5899
▁गर्मी	-5900
▁हथियार	-5901
▁सितम्बर	-5902
▁इंजीनियरी	-5903
▁आदर	-5904
▁तारा	-5905
▁संगणना	-5906
▁उद्यमों	-5907
▁प्रबंधक	-5908
णित	-5909
▁दौड़	-5910
▁रासाय	-5911
▁अवसंरचना	-5912
▁लगाए	-5913
▁वरन्	-5914
▁चाहूंगा	-5915
णि	-5916
▁पेर	-5917
▁अर्ज	-5918
▁उपरो	-5919
ानुसार	-5920
▁भाग्य	-5921
▁शाखाओं	-5922
▁अभियोजन	-5923
▁परंपरागत	-5924
बीर	-5925
ुरत	-5926
▁खर	-5927
▁वासी	-5928
▁विजे	-5929
▁सहेज	-5930
प्राप्त	-5931
▁रिजर्व	-5932
▁आकांक्षा	-5933
ष्म	-5934
▁नर्म	-5935
▁सबूत	-5936
कारिता	-5937
▁इन्द्र	-5938
▁पुराना	-5939
ेंच	-5940
▁टॉ	-5941
▁तीर्थ	-5942
▁कवियों	-5943
▁फुट	-5944
▁मौत	-5945
▁गलती	-5946
▁पैनल	-5947
▁अंतरित	-5948
▁अभिव्यक्त	-5949
ामिन	-5950
▁आवि	-5951
▁इसको	-5952
व्यापी	-5953
▁उपरोक्त	-5954
▁सेवानिवृ	-5955
दू	-5956
हता	-5957
▁ऊंची	-5958
▁मोहन	-5959
▁सृजित	-5960
▁पंजाबी	-5961
▁रचनाओं	-5962
▁अधीनस्थ	-5963
्फ	-5964
▁स्वै	-5965
▁आंकड़े	-5966
▁स्वप्न	-5967
▁देवताओं	-5968
▁छत	-5969
▁पॉ	-5970
▁डिप	-5971
▁समू	-5972
▁जॉ	-5973
▁विट	-5974
▁अद्व	-5975
▁आजाद	-5976
▁टर्म	-5977
▁पारि	-5978
▁निकलने	-5979
ार्थियों	-5980
▁आभ	-5981
▁मं	-5982
ब्ल्यू	-5983
▁संयोजन	-5984
▁सम्मानित	-5985
▁हरिया	-5986
▁पुस्तकालय	-5987
▁प्रशिक्षित	-5988
▁हड़	-5989
▁निरूप	-5990
▁लाभों	-5991
▁संग्रहण	-5992
▁रासायनिक	-5993
िथ	-5994
▁रन	-5995
स्तीन	-5996
▁टेक्	-5997
▁पचास	-5998
▁पाठक	-5999
▁पेट्रोल	-6000
11	-6001
खर	-6002
▁किश	-6003
▁वन्य	-6004
▁नियंत्रक	-6005
▁बल्लेबाज	-6006
विंद	-6007
▁अवर	-6008
.2016	-6009
▁संचित	-6010
▁जानवरों	-6011
▁पुस्तकें	-6012
पक्व	-6013
▁धूम	-6014
शुल्क	-6015
▁सेंट	-6016
▁लिखना	-6017
▁वैष्ण	-6018
▁अधिवेशन	-6019
▁विनियामक	-6020
▁at	-6021
स्टर	-6022
▁दांत	-6023
▁भिन्	-6024
श्रे	-6025
ूँगा	-6026
▁दमन	-6027
▁वेश	-6028
स्तीनी	-6029
▁अक्षर	-6030
▁प्रोटीन	-6031
ध्व	-6032
▁नती	-6033
▁बडा	-6034
▁श्रो	-6035
▁अनुया	-6036
▁कमीशन	-6037
▁प्राइ	-6038
▁उपग्रह	-6039
▁दिखाएँ	-6040
ानाथ	-6041
▁होटल	-6042
▁अखबार	-6043
▁गर्भा	-6044
▁तीसरी	-6045
▁तुमने	-6046
aa	-6047
विन	-6048
िनल	-6049
ोधन	-6050
▁मेज	-6051
▁अपितु	-6052
▁पूर्णता	-6053
uot	-6054
पर्य	-6055
▁एण्ड	-6056
▁तत्स	-6057
▁अधिका	-6058
▁कृत्य	-6059
▁स्पर्श	-6060
▁कविताओं	-6061
▁संतुष्ट	-6062
पोषण	-6063
▁क्यू	-6064
▁लगने	-6065
▁विषा	-6066
▁फसलों	-6067
▁परिश्रम	-6068
im	-6069
▁ऊंचे	-6070
▁जाया	-6071
▁पूर्णतया	-6072
▁परिकल्पना	-6073
,5	-6074
तो	-6075
▁आकर्षण	-6076
ण्डल	-6077
ेनिस	-6078
▁रिज़	-6079
▁परिपक्व	-6080
▁सौंदर्य	-6081
▁निष्पक्ष	-6082
▁of	-6083
ूकता	-6084
▁कहे	-6085
▁विधा	-6086
▁विधायी	-6087
▁सम्पन्न	-6088
▁सैनिकों	-6089
▁कार्यालयों	-6090
ैंक	-6091
कारा	-6092
ेडकर	-6093
▁हिल	-6094
▁निचले	-6095
▁बताते	-6096
▁स्कूलों	-6097
▁अंग्रेज़ी	-6098
एक	-6099
पीसी	-6100
▁कराई	-6101
▁दलों	-6102
▁छुट्टी	-6103
▁स्वाधीनता	-6104
साई	-6105
िक्र	-6106
▁जुट	-6107
▁ग्रे	-6108
▁सबके	-6109
▁ग्रस्त	-6110
▁शर	-6111
र्मी	-6112
▁प्रेमच	-6113
▁मरम्मत	-6114
▁सार्वभौ	-6115
▁उन्होनें	-6116
▁प्रभार्य	-6117
टो	-6118
खिक	-6119
▁जगत	-6120
▁संभ	-6121
▁सज्	-6122
▁लम्बे	-6123
▁शर्तें	-6124
सेट	-6125
▁उपज	-6126
▁तंग	-6127
▁ह्र	-6128
क्षरता	-6129
▁यहूदी	-6130
▁चित्रण	-6131
▁अभिभाषण	-6132
▁लेखापरी	-6133
▁विधियां	-6134
▁विस्फोट	-6135
▁तरल	-6136
▁सहानुभूति	-6137
दूत	-6138
मों	-6139
ूनी	-6140
▁एक्	-6141
▁ज़ि	-6142
▁बटन	-6143
▁प्रतिस्पर्धा	-6144
19	-6145
ुश	-6146
▁आधा	-6147
▁मील	-6148
▁सूजन	-6149
▁विदेशों	-6150
▁क्रांतिकारी	-6151
तकों	-6152
▁असी	-6153
▁समर्थित	-6154
▁फिलीस्तीनी	-6155
▁वास्तविकता	-6156
▁सफलतापूर्वक	-6157
ड्र	-6158
▁अमल	-6159
▁दाम	-6160
▁सेन	-6161
▁बनाती	-6162
▁०	-6163
गें	-6164
बाई	-6165
शाही	-6166
▁कनाडा	-6167
▁कमांड	-6168
▁नर्स	-6169
▁मिटा	-6170
▁विधाय	-6171
दर्शिता	-6172
▁प्राणी	-6173
▁संदत्त	-6174
▁प्रावधानों	-6175
शित	-6176
हाल	-6177
▁घात	-6178
▁बसव	-6179
▁सोल	-6180
▁अव्य	-6181
▁क्रय	-6182
▁वृत्ति	-6183
ैस	-6184
त्तियों	-6185
▁इन्हीं	-6186
ढ़ा	-6187
तना	-6188
▁ठाक	-6189
▁शादी	-6190
▁सकने	-6191
▁बहादुर	-6192
▁नमक	-6193
▁आपदा	-6194
▁कारख	-6195
▁पीने	-6196
▁जानना	-6197
चिक	-6198
पश्च	-6199
▁आधे	-6200
▁जाह	-6201
▁भरने	-6202
▁निपटने	-6203
▁कलाकार	-6204
▁अनुज्ञा	-6205
▁महासागर	-6206
▁मुकाबले	-6207
टाई	-6208
वाणी	-6209
▁बढा	-6210
▁आवेदक	-6211
▁हिन्दुस्तान	-6212
ल्फ	-6213
▁इंत	-6214
▁शरण	-6215
▁जागरूकता	-6216
▁समस्याएं	-6217
यंती	-6218
▁बहन	-6219
▁भत्ता	-6220
▁वितरित	-6221
▁मुलाकात	-6222
▁नवान्वेष	-6223
▁उत्पादकता	-6224
▁कम्प्यूटर	-6225
ालों	-6226
▁शेर	-6227
व्यवहार	-6228
▁नारायण	-6229
▁टेलीफोन	-6230
/2	-6231
▁बुक	-6232
▁प्रव	-6233
▁मंडप	-6234
▁बढ़ता	-6235
▁सार्थ	-6236
▁सोचते	-6237
▁भागीदार	-6238
▁धान	-6239
▁अड्ड	-6240
▁संगत	-6241
▁अनुशासन	-6242
▁वनस्पति	-6243
▁तत्कालीन	-6244
▁एजेंसियों	-6245
हवीं	-6246
▁विघ	-6247
▁थोड़े	-6248
र्ता	-6249
▁मानस	-6250
▁मोड़	-6251
▁स्ट्र	-6252
तापूर्वक	-6253
▁रिज़र्व	-6254
▁vi	-6255
नीतिक	-6256
▁इनपुट	-6257
▁कारगर	-6258
▁मुहम्मद	-6259
▁रूपरेखा	-6260
▁कार्यकारी	-6261
गित	-6262
▁मिश्रित	-6263
▁प्रयोक्ता	-6264
ृंग	-6265
▁ढेर	-6266
▁आन्द	-6267
▁गोली	-6268
▁नौकर	-6269
▁नमूने	-6270
▁भरपूर	-6271
▁भरोसा	-6272
▁मानने	-6273
▁गिरफ्तारी	-6274
किम	-6275
ादेश	-6276
▁प्य	-6277
▁बाढ़	-6278
▁स्वि	-6279
▁देखिए	-6280
▁उत्कृष्टता	-6281
घन	-6282
िट्	-6283
डीएफ	-6284
▁जल्द	-6285
▁वैसा	-6286
▁आमदनी	-6287
▁ट्रेड	-6288
▁निर्ण	-6289
▁रूपये	-6290
▁सर्वप्र	-6291
बु	-6292
ूलन	-6293
▁लड	-6294
▁१२	-6295
▁जरा	-6296
दृश्य	-6297
▁अतिक	-6298
▁दिल्	-6299
▁स्वचालित	-6300
ंचल	-6301
ायिक	-6302
▁उन्हे	-6303
▁पड़ने	-6304
▁अप्रत्य	-6305
▁फ़ॉ	-6306
▁अरबी	-6307
▁खुली	-6308
▁ज्ञापन	-6309
▁पुनर्ग	-6310
▁चक	-6311
▁ठे	-6312
▁कंट	-6313
▁मजदूरी	-6314
▁शस्त्र	-6315
िफ	-6316
▁रॉ	-6317
▁मैच	-6318
▁यों	-6319
▁1950	-6320
▁राधा	-6321
▁जिलों	-6322
▁जरूरतों	-6323
▁नाबार्ड	-6324
▁प्रविष्ट	-6325
काव	-6326
▁रै	-6327
चेंज	-6328
▁चित	-6329
▁बहि	-6330
▁उपभोग	-6331
▁मिलना	-6332
▁साक्ष	-6333
▁विशेषाधिकार	-6334
भु	-6335
▁08	-6336
▁रवि	-6337
▁सकी	-6338
ुक़्त	-6339
▁दत्त	-6340
▁बैठा	-6341
▁स्ने	-6342
▁जयंती	-6343
▁लाखों	-6344
▁कार्बन	-6345
▁परिणामों	-6346
ay	-6347
वीय	-6348
▁आजकल	-6349
▁अवकाश	-6350
▁आवश्य	-6351
▁जंगली	-6352
▁सदनों	-6353
▁स्थूल	-6354
▁बढ़ाना	-6355
▁व्यष्टि	-6356
▁राष्ट्री	-6357
मेह	-6358
रोग	-6359
टकों	-6360
र्फ़	-6361
▁अफ़	-6362
▁चिर	-6363
▁उठाना	-6364
▁शिल्प	-6365
▁शुरूआ	-6366
▁वर्गीकरण	-6367
▁परिसी	-6368
▁पार्ट	-6369
▁अधिसूचित	-6370
राक	-6371
ोरम	-6372
▁तप	-6373
▁आँख	-6374
▁इराक	-6375
▁बर्फ	-6376
▁समता	-6377
▁हानिक	-6378
▁कनेक्ट	-6379
मिन	-6380
▁बेस	-6381
▁श्ल	-6382
चरिता	-6383
मित्त	-6384
▁शोषण	-6385
▁अफगानिस्तान	-6386
.19	-6387
ासित	-6388
▁केश	-6389
▁बाय	-6390
▁चौथा	-6391
▁यहीं	-6392
▁उपदेश	-6393
▁मराठी	-6394
▁आनुवंश	-6395
▁शास्त्री	-6396
▁मोर्	-6397
▁मिस्र	-6398
▁दूरस्थ	-6399
▁गणतंत्र	-6400
्ह	-6401
▁नु	-6402
▁दया	-6403
▁डिजिटल	-6404
▁एकत्रित	-6405
▁गोद	-6406
▁दंत	-6407
▁कराता	-6408
▁वाक्य	-6409
▁सुचरिता	-6410
▁पहुंचाने	-6411
▁राजकुमार	-6412
▁सिफारिशों	-6413
पद	-6414
मेट	-6415
▁बत	-6416
▁एमएस	-6417
▁सफाई	-6418
▁इंकार	-6419
▁समझना	-6420
▁अधिकृत	-6421
▁जोड़ें	-6422
▁पार्श्व	-6423
▁देह	-6424
▁1948	-6425
▁भ्रम	-6426
▁विलय	-6427
▁इलाकों	-6428
एगा	-6429
ेटी	-6430
▁नाक	-6431
▁औषधि	-6432
क्रामक	-6433
▁अतिमान	-6434
▁सम्राट	-6435
▁राजमार्ग	-6436
▁घन	-6437
▁घुट	-6438
▁नाय	-6439
▁बड़	-6440
▁डाले	-6441
▁फेंक	-6442
त्रियों	-6443
▁स्वदेश	-6444
▁स्रोतों	-6445
▁बांग्लादेश	-6446
▁नोटिस	-6447
▁बताने	-6448
▁संग्राम	-6449
▁सौभाग्य	-6450
क्ल	-6451
सास	-6452
▁an	-6453
द्दी	-6454
▁घोष	-6455
स्मिक	-6456
▁किमी	-6457
▁सबको	-6458
▁आंखों	-6459
▁चिंतन	-6460
▁खरीदने	-6461
▁यात्री	-6462
▁उपनिवेश	-6463
▁निर्वाचित	-6464
पार	-6465
षेध	-6466
▁छू	-6467
मुखी	-6468
▁भूख	-6469
▁विडियो	-6470
▁ज्यादातर	-6471
▁२०	-6472
▁ओपन	-6473
ख़्या	-6474
▁सीधी	-6475
▁आकृति	-6476
▁पढ़ाई	-6477
▁वृत्त	-6478
▁दस्तावेज़	-6479
▁ः	-6480
▁कंध	-6481
▁घृणा	-6482
▁दुर्लभ	-6483
▁निवेशकों	-6484
▁1992	-6485
▁कीजिए	-6486
▁जानवर	-6487
▁निराशा	-6488
▁ग्रन्थ	-6489
▁अवमानना	-6490
▁नं	-6491
▁नो	-6492
च्छेदन	-6493
▁किराया	-6494
▁वैष्णव	-6495
▁उपलब्धियों	-6496
पल	-6497
रीन	-6498
▁दह	-6499
ल्ली	-6500
वकों	-6501
▁लाह	-6502
▁आईसी	-6503
▁प्राप	-6504
▁मस्जि	-6505
बरा	-6506
▁टक	-6507
ताएं	-6508
त्रि	-6509
▁वरीय	-6510
▁टेनिस	-6511
्चर	-6512
▁गुट	-6513
▁टाइप	-6514
▁भव्य	-6515
▁सिरे	-6516
▁अंगों	-6517
▁निर्व	-6518
क्तियों	-6519
▁एशियाई	-6520
▁सर्वप्रथम	-6521
जक	-6522
ण्ट	-6523
णुओं	-6524
शब्द	-6525
▁प्लग	-6526
▁मेहन	-6527
ंबेडकर	-6528
▁टैगोर	-6529
▁तालाब	-6530
▁इस्पात	-6531
▁आकस्मिक	-6532
▁अपीलार्थी	-6533
▁पान	-6534
▁बैक	-6535
▁पुष्प	-6536
्रदायिक	-6537
▁प्रतिनिधियों	-6538
ंय	-6539
वेल	-6540
ब्बे	-6541
▁बोझ	-6542
▁नजदी	-6543
▁निभ	-6544
▁राजी	-6545
▁जैसाकि	-6546
▁श्रद्धा	-6547
्यक	-6548
म्मा	-6549
▁पोष	-6550
संचार	-6551
▁1996	-6552
▁लाभा	-6553
▁लम्बी	-6554
▁सुदूर	-6555
▁अन्याय	-6556
▁आकर्षक	-6557
किट	-6558
▁ठहर	-6559
▁अनुकरण	-6560
▁एससीसी	-6561
▁नियोजन	-6562
ur	-6563
पाई	-6564
शनी	-6565
▁नम	-6566
▁ऊंचा	-6567
▁सेशन	-6568
▁कमेटी	-6569
▁अकादमी	-6570
▁विकलांग	-6571
▁संस्थागत	-6572
▁कर्तव्यों	-6573
▁इस्लामवादी	-6574
ुड	-6575
▁डालर	-6576
▁बचपन	-6577
▁खासकर	-6578
▁निक्ष	-6579
▁सच्चे	-6580
▁समीकरण	-6581
▁विज्ञापन	-6582
▁अँ	-6583
▁बीत	-6584
निहित	-6585
▁एक्ट	-6586
▁ढूंढ	-6587
▁बिन्दु	-6588
▁समकालीन	-6589
▁क़्योंकि	-6590
िणी	-6591
▁जबर	-6592
▁असंभव	-6593
▁सुधारने	-6594
▁प्रतिवर्ष	-6595
▁अप्रत्यक्ष	-6596
मस	-6597
लील	-6598
ैक्ट	-6599
▁भ्रष्टा	-6600
▁64	-6601
▁खार	-6602
▁गंध	-6603
▁यौन	-6604
▁वसा	-6605
▁फूलों	-6606
▁अहिंसा	-6607
▁इसलिये	-6608
▁सशस्त्र	-6609
▁प्रतिलिप	-6610
िवी	-6611
ोहर	-6612
ंबित	-6613
ृश्य	-6614
हाबाद	-6615
▁जोड़े	-6616
▁उत्सुक	-6617
▁कृत्यों	-6618
णता	-6619
लाल	-6620
▁अभिने	-6621
▁महान्	-6622
▁यूनियन	-6623
उन	-6624
ड्	-6625
भुत	-6626
▁मक्	-6627
▁इनकार	-6628
▁उत्सव	-6629
▁अपूर्ण	-6630
▁बुलाया	-6631
▁अवस्थित	-6632
ल्ह	-6633
▁65	-6634
▁घाव	-6635
▁चरम	-6636
▁नज़र	-6637
▁विकि	-6638
▁सुपु	-6639
▁माहौल	-6640
hr	-6641
AME	-6642
स्थल	-6643
▁पेय	-6644
▁मंग	-6645
▁पेशी	-6646
बीन	-6647
▁शेख	-6648
्यूशन	-6649
▁अमृत	-6650
▁निस्	-6651
▁संकलन	-6652
▁सहभाग	-6653
▁उन्नयन	-6654
▁स्वर्ग	-6655
▁संव्यवहार	-6656
▁प्रतिरक्षा	-6657
ोश	-6658
फ्र	-6659
ोगे	-6660
▁02	-6661
▁पते	-6662
▁1998	-6663
▁हुये	-6664
▁संघीय	-6665
▁सामुद	-6666
oc	-6667
ोरा	-6668
्रेम	-6669
ुपयोग	-6670
▁कोने	-6671
▁इंदिरा	-6672
▁सड़कों	-6673
▁सदस्यता	-6674
▁पूर्वोक्त	-6675
▁प्रत्यर्थी	-6676
▁सांप्रदायिक	-6677
ोला	-6678
▁उदय	-6679
सिद्ध	-6680
▁भीड़	-6681
▁दरबार	-6682
▁नमूना	-6683
▁परिसंप	-6684
खाव	-6685
लित	-6686
▁ओब	-6687
▁गठ	-6688
▁ह्य	-6689
▁निर्गम	-6690
▁अनुभूति	-6691
▁वक्तव्य	-6692
जाम	-6693
▁47	-6694
▁फू	-6695
▁1973	-6696
▁देनी	-6697
क्साइड	-6698
ोसिएशन	-6699
▁बम्बई	-6700
▁सांवि	-6701
▁अनिवासी	-6702
ज़न	-6703
हारी	-6704
िकता	-6705
▁चिन	-6706
▁टैब	-6707
▁कच्चे	-6708
▁गाँधी	-6709
▁शिष्ट	-6710
▁समेकित	-6711
▁सुधारों	-6712
▁कहानियों	-6713
परक	-6714
▁छः	-6715
▁सोचने	-6716
▁निमित्त	-6717
टित	-6718
वीर	-6719
▁स्त्रो	-6720
▁त्रुटिः	-6721
▁हरियाणा	-6722
▁पुनरीक्षण	-6723
▁उत्तराधिकार	-6724
ूरो	-6725
ोसी	-6726
प्रति	-6727
▁हमले	-6728
▁क्रूर	-6729
श्रेष्ठ	-6730
▁लाभांश	-6731
▁दूरसंचार	-6732
▁केस	-6733
▁वें	-6734
▁भेजी	-6735
▁ठाकुर	-6736
▁समापन	-6737
▁अवधारण	-6738
▁नाटकों	-6739
▁शुरूआत	-6740
▁प्रतिबद्धता	-6741
ँह	-6742
▁दम	-6743
▁रम	-6744
शंकर	-6745
▁विच	-6746
▁मारे	-6747
▁मेगा	-6748
▁श्लोक	-6749
▁नेताजी	-6750
▁प्रसंग	-6751
▁मिथ्या	-6752
▁सिर्फ़	-6753
बिल	-6754
▁46	-6755
▁गेह	-6756
▁लोह	-6757
▁कबीर	-6758
▁मूत्र	-6759
▁१६	-6760
दर्शक	-6761
बन्धन	-6762
▁एससी	-6763
▁माँग	-6764
▁काफ़ी	-6765
▁असफलता	-6766
▁आउटपुट	-6767
▁वहन	-6768
रक्षण	-6769
▁कोमल	-6770
▁प्ला	-6771
▁सन्द	-6772
▁क्रियान्वयन	-6773
30	-6774
कोष	-6775
पाट	-6776
▁नवा	-6777
▁सोव	-6778
▁नामा	-6779
▁बेटे	-6780
▁रहीं	-6781
▁अपनाई	-6782
▁विधवा	-6783
▁कौंसिल	-6784
▁गिन	-6785
▁मुक	-6786
▁असंत	-6787
▁परित	-6788
▁पुराण	-6789
विश्वास	-6790
▁गोपनीय	-6791
▁भेदभाव	-6792
▁माइक्रो	-6793
▁विटामिन	-6794
▁समाजवादी	-6795
▁फिलीस्तीन	-6796
os	-6797
▁52	-6798
▁हंस	-6799
सूत्र	-6800
स्थापन	-6801
▁अभिदाय	-6802
हृ	-6803
ठार	-6804
▁टि	-6805
▁बेश	-6806
संदेह	-6807
▁मंगल	-6808
▁सारणी	-6809
▁उद्भूत	-6810
▁टाइम्स	-6811
▁सच्चाई	-6812
▁राजपत्र	-6813
▁सत्यापन	-6814
▁तुम्हारा	-6815
▁पुनर्वास	-6816
▁साक्षरता	-6817
▁केन्द्रों	-6818
मूल्य	-6819
▁अपार	-6820
▁छिपा	-6821
▁नायक	-6822
▁आंकड़ों	-6823
▁अधिनियमित	-6824
ैंट	-6825
▁बिर	-6826
पोरेट	-6827
▁आवरण	-6828
▁सेवक	-6829
▁जाहिर	-6830
▁पीछला	-6831
▁महाद्वीप	-6832
▁मंत्रियों	-6833
कोट	-6834
▁खज	-6835
▁माउ	-6836
▁विस	-6837
क्रिप	-6838
▁ब्यौ	-6839
▁राजाओं	-6840
▁निकायों	-6841
▁निर्देशों	-6842
▁भ्रष्टाचार	-6843
▁साक्षात्कार	-6844
tr	-6845
द्म	-6846
▁उग	-6847
▁कोर	-6848
▁घुस	-6849
▁अक्ट	-6850
▁आचार	-6851
▁न्यूय	-6852
▁अधिनिर्	-6853
▁आन्दोलन	-6854
▁प्रबन्ध	-6855
▁मजदूरों	-6856
▁हिस्सों	-6857
गुण	-6858
नीत	-6859
▁तह	-6860
▁अजीब	-6861
▁हड्डी	-6862
▁जिंदगी	-6863
▁पेटेंट	-6864
▁पक्षियों	-6865
▁पेट्रोलियम	-6866
फ़ा	-6867
ेन्ट	-6868
▁गरि	-6869
▁निल	-6870
▁नोक	-6871
▁किंग	-6872
▁क्री	-6873
▁बताता	-6874
▁उन्मूलन	-6875
▁रोगियों	-6876
▁संवेदनशील	-6877
▁iv	-6878
भूषण	-6879
▁उधर	-6880
▁रंगम	-6881
▁ग्रीन	-6882
▁प्रसव	-6883
▁बताना	-6884
▁विस्तारित	-6885
शक	-6886
▁हॉ	-6887
रानी	-6888
▁थोड	-6889
▁आर्य	-6890
▁हर्ष	-6891
▁११	-6892
▁पागल	-6893
▁पादप	-6894
▁शराब	-6895
तापूर्ण	-6896
▁आधिकार	-6897
▁पब्लिक	-6898
▁शिकायतों	-6899
स्पी	-6900
▁सोम	-6901
▁नींव	-6902
▁पुनर	-6903
▁पृथक्	-6904
▁अज्ञान	-6905
▁अभिकरण	-6906
▁श्रद्ध	-6907
▁राव	-6908
▁चलती	-6909
▁रोचक	-6910
▁खोजने	-6911
▁ब्रह्मा	-6912
▁पुनर्गठन	-6913
▁हिन्दुओं	-6914
गंध	-6915
▁गज	-6916
भक्त	-6917
ॉल्ट	-6918
▁लाई	-6919
चंद्र	-6920
▁उठता	-6921
,4	-6922
ce	-6923
.10	-6924
बूझ	-6925
रता	-6926
▁वध	-6927
▁500	-6928
▁गम्	-6929
▁पराज	-6930
▁वर्न	-6931
▁धर्मों	-6932
▁पूर्वोत्तर	-6933
ut	-6934
महल	-6935
▁नक्	-6936
▁रसी	-6937
▁कर्ता	-6938
▁बकाया	-6939
▁इकट्ठा	-6940
▁मैत्रीपूर्ण	-6941
टने	-6942
पटल	-6943
रखाव	-6944
▁पहच	-6945
▁बृह	-6946
दाबाद	-6947
▁अनाव	-6948
▁गूगल	-6949
▁देगी	-6950
▁असमान	-6951
▁उपाधि	-6952
भूतियों	-6953
▁कामगार	-6954
▁निर्धन	-6955
▁मधुमेह	-6956
▁मुहैया	-6957
▁सामर्थ	-6958
यू	-6959
▁शब्	-6960
▁सुप	-6961
पोर्ट	-6962
▁एनआई	-6963
▁निभाई	-6964
▁मौखिक	-6965
▁मामूली	-6966
▁आश्वासन	-6967
▁सम्बद्ध	-6968
▁किलोग्राम	-6969
▁प्रस्तावों	-6970
षी	-6971
ैत	-6972
खार	-6973
लियों	-6974
ोत्तर	-6975
▁कामका	-6976
▁कीटना	-6977
▁अक्टूबर	-6978
▁अधिकाधिक	-6979
▁निर्देशित	-6980
▁दब	-6981
▁कदा	-6982
▁गड़	-6983
ष्कृत	-6984
▁गाँव	-6985
▁सिखा	-6986
▁कब्जा	-6987
▁श्रेण	-6988
▁स्वाय	-6989
▁रखरखाव	-6990
▁सार्थक	-6991
▁गर्भाशय	-6992
▁अनिश्चित	-6993
▁मुख्यालय	-6994
▁सर्वश्रेष्ठ	-6995
चलन	-6996
ोन्	-6997
चेतन	-6998
▁घाट	-6999
▁बेहद	-7000
▁सन्न	-7001
▁स्नेह	-7002
निर्देश	-7003
▁जीवाणु	-7004
▁पंचायत	-7005
▁स्नातक	-7006
▁प्रजाति	-7007
▁एक्सचेंज	-7008
▁विधानमंडल	-7009
बरी	-7010
▁150	-7011
▁गरिमा	-7012
▁गीतों	-7013
▁विभेद	-7014
▁निरसित	-7015
▁पुरुषों	-7016
▁रेगि	-7017
▁समाह	-7018
▁आश्रम	-7019
▁लार्ड	-7020
▁सौंपा	-7021
▁उपबंधित	-7022
▁मनोरंजन	-7023
▁समायोजन	-7024
वैज्ञानिक	-7025
कोर	-7026
▁दाह	-7027
▁हाई	-7028
▁इंगित	-7029
▁प्रगा	-7030
▁डॉक्टर	-7031
▁रिश्ते	-7032
▁सर्विस	-7033
▁मनुष्यों	-7034
▁साझीदारी	-7035
्याल	-7036
▁अद्	-7037
▁गोवा	-7038
▁कोयला	-7039
▁काउंसिल	-7040
▁निर्वहन	-7041
▁कठिनाइयों	-7042
शिंग	-7043
योग्य	-7044
▁अभिल	-7045
▁समझी	-7046
क्टरों	-7047
▁बच्चन	-7048
▁प्रदाह	-7049
▁स्थिरता	-7050
.11	-7051
ंकी	-7052
▁झग	-7053
ुद्व	-7054
▁निप	-7055
▁पदा	-7056
▁बिग	-7057
▁1988	-7058
▁आशंका	-7059
▁स्टार	-7060
▁उपयोक्ता	-7061
▁सत्याग्रह	-7062
▁स्वीकार्य	-7063
डों	-7064
ब्ब	-7065
हरण	-7066
्ती	-7067
शियों	-7068
▁कॉपी	-7069
▁दरों	-7070
▁दौरा	-7071
▁रोशनी	-7072
▁अभियोग	-7073
▁नीतिगत	-7074
▁पहुँचा	-7075
▁आयुर्वेद	-7076
मीन	-7077
▁51	-7078
▁टो	-7079
▁बही	-7080
▁बिन	-7081
▁मरी	-7082
▁हैस	-7083
▁क्ला	-7084
▁चुंब	-7085
▁आवासी	-7086
▁ओबामा	-7087
▁मनाया	-7088
▁गम्भीर	-7089
▁झिल्ली	-7090
▁शास्ति	-7091
▁संवेदना	-7092
▁उत्सर्जन	-7093
▁दीक्षांत	-7094
▁आगमन	-7095
▁मांसपेश	-7096
ow	-7097
▁बाज़ार	-7098
▁मुद्दा	-7099
▁हिंदुओं	-7100
▁इलाहाबाद	-7101
▁संस्थापित	-7102
ंडे	-7103
▁ar	-7104
िश्र	-7105
▁पतन	-7106
▁भूक	-7107
त्स्य	-7108
▁बोला	-7109
▁खर्चे	-7110
▁निंदा	-7111
▁श्रील	-7112
▁सालों	-7113
▁आधिकारिक	-7114
▁उपयोगिता	-7115
▁निर्माता	-7116
▁प्रक्षेप	-7117
.00	-7118
क्तता	-7119
▁परिन	-7120
▁सिने	-7121
▁सुलझ	-7122
▁वरीयता	-7123
▁तत्पश्च	-7124
▁मोहम्मद	-7125
▁प्रोटोकॉल	-7126
नें	-7127
मैन	-7128
▁माध	-7129
▁बढ़े	-7130
▁रहकर	-7131
▁तिहाई	-7132
▁चौड़ाई	-7133
▁अनुभवों	-7134
▁1990	-7135
▁तमाम	-7136
▁विरा	-7137
▁आगामी	-7138
▁विषयक	-7139
▁नियन्त	-7140
▁संकीर्ण	-7141
ुतोष	-7142
▁रोड	-7143
▁द्रव	-7144
▁ध्रु	-7145
▁नारी	-7146
▁साकार	-7147
▁सोचता	-7148
▁एल्गोर	-7149
▁नवीकरण	-7150
▁पेशेवर	-7151
▁स्वच्छता	-7152
▁नाल	-7153
▁फेफ	-7154
▁१९८	-7155
.2013	-7156
▁1997	-7157
▁जगत्	-7158
▁दुग्ध	-7159
▁बंगला	-7160
▁मजबूर	-7161
▁ज़रूरत	-7162
▁विख्यात	-7163
▁विशेषज्ञों	-7164
▁इंजीनियरिंग	-7165
डऋ	-7166
मै	-7167
▁उपास	-7168
▁बेचने	-7169
▁संकाय	-7170
▁निधियों	-7171
▁निरन्तर	-7172
▁पर्यटकों	-7173
▁54	-7174
▁माय	-7175
▁बांस	-7176
▁बेटी	-7177
▁मुँह	-7178
▁स्वे	-7179
▁आजीवन	-7180
▁छोड़ने	-7181
▁देशवासियों	-7182
▁आदत	-7183
▁गले	-7184
▁हरी	-7185
▁डेस्	-7186
▁सुगम	-7187
▁फायदे	-7188
▁पुत्री	-7189
▁रंगमंच	-7190
▁प्रगाढ़	-7191
▁सहभागिता	-7192
बाल	-7193
ब्ध	-7194
लाइ	-7195
▁41	-7196
▁बट	-7197
लेखन	-7198
▁अनू	-7199
ान्तर	-7200
▁आघात	-7201
▁घटित	-7202
▁सब्ज	-7203
▁सूचीबद्ध	-7204
जुट	-7205
▁छे	-7206
सन्द	-7207
ापुर	-7208
▁सना	-7209
▁उड़ान	-7210
▁लौटने	-7211
▁उन्नति	-7212
▁बादशाह	-7213
▁लड़कियों	-7214
िज़	-7215
ोरों	-7216
▁धूल	-7217
▁अश्व	-7218
▁रोका	-7219
▁सेवन	-7220
▁किराए	-7221
▁जर्मन	-7222
▁अध्यापक	-7223
▁अवधारित	-7224
▁55	-7225
▁ऊँचा	-7226
▁कर्ज	-7227
▁समाम	-7228
▁शब्दा	-7229
▁पीडीएफ	-7230
ट्टा	-7231
दिता	-7232
▁शीत	-7233
▁कहती	-7234
▁जैविक	-7235
▁मेहनत	-7236
▁मस्जिद	-7237
▁श्रीलंका	-7238
केल	-7239
▁1986	-7240
▁महानि	-7241
▁स्मारक	-7242
▁सुपुर्द	-7243
▁विनियमित	-7244
मलव	-7245
▁कां	-7246
▁सटी	-7247
▁1991	-7248
▁अण्ड	-7249
▁योनि	-7250
▁रोमा	-7251
▁ग्यार	-7252
▁बॉक्स	-7253
▁सुनकर	-7254
▁अब्दुल	-7255
▁सांख्य	-7256
▁स्थलों	-7257
▁परिदृश्य	-7258
▁दायित्वों	-7259
▁स्वतन्त्र	-7260
▁अशोक	-7261
▁कन्न	-7262
ढ़ियों	-7263
▁स्टॉक	-7264
▁हटाया	-7265
▁केन्द्रित	-7266
▁स्वैच्छिक	-7267
हि	-7268
▁09	-7269
मोहन	-7270
ार्द	-7271
▁औरत	-7272
▁जॉन	-7273
ड्यूल	-7274
▁रोज़	-7275
▁आशुतोष	-7276
▁तुरन्त	-7277
▁विकिरण	-7278
▁संचिका	-7279
▁परियोजनाएं	-7280
▁कार्यकलापों	-7281
▁गत	-7282
देवी	-7283
न्ता	-7284
▁कों	-7285
▁भूट	-7286
▁1980	-7287
▁बनकर	-7288
▁कपड़ा	-7289
▁सृष्टि	-7290
▁साथियों	-7291
▁अन्तर्राष्ट्रीय	-7292
▁07	-7293
▁कड़	-7294
चित्य	-7295
▁मणिप	-7296
▁रेशम	-7297
्याप्त	-7298
▁खारिज	-7299
▁आपत्ति	-7300
▁निर्दोष	-7301
बाबू	-7302
▁भरत	-7303
▁रेख	-7304
▁क्षम	-7305
▁आश्रय	-7306
▁त्रिप	-7307
▁निकले	-7308
जनात्मक	-7309
▁लेखापरीक्षा	-7310
ओएस	-7311
जाज	-7312
ोटी	-7313
▁इट	-7314
▁पटल	-7315
▁ज्या	-7316
▁उपहार	-7317
▁एकजुट	-7318
▁दशमलव	-7319
रूद्दीन	-7320
▁टर्मिनल	-7321
▁दुरुपयोग	-7322
दक	-7323
.12	-7324
बूती	-7325
▁रुक	-7326
▁खोलें	-7327
▁निदान	-7328
▁पुनरा	-7329
▁अवलोकन	-7330
▁डेस्कट	-7331
▁परिचालन	-7332
▁महानिदेश	-7333
▁मूल्यवान	-7334
▁मंत्रालयों	-7335
बुद्ध	-7336
▁1987	-7337
▁डिफ़	-7338
▁कुटुम्ब	-7339
▁सैक	-7340
▁अहमद	-7341
▁किले	-7342
▁चर्च	-7343
▁दीवारों	-7344
▁In	-7345
ेंडर	-7346
▁घोर	-7347
▁ध्य	-7348
▁कॉर्	-7349
▁पूछता	-7350
▁मेमोरी	-7351
▁कार्यकाल	-7352
▁प्रगतिशील	-7353
ीस	-7354
मिल	-7355
ूर्त	-7356
▁मेड	-7357
▁इनसे	-7358
▁रिवा	-7359
▁सूचक	-7360
▁जिसमे	-7361
▁व्याया	-7362
▁ईमानदारी	-7363
▁विधानसभा	-7364
▁सामर्थ्य	-7365
▁पद्धतियों	-7366
▁or	-7367
ment	-7368
म्बा	-7369
▁मेर	-7370
हीनता	-7371
▁खातों	-7372
▁भारती	-7373
▁पूर्वक	-7374
▁गंभीरता	-7375
▁सामुदायिक	-7376
▁भगत	-7377
▁1995	-7378
▁आलेख	-7379
▁लोगो	-7380
▁जीवंत	-7381
▁कंप्यूट	-7382
▁डेस्कटॉप	-7383
हम	-7384
िसा	-7385
▁अन्तः	-7386
▁स्नान	-7387
▁प्रचुर	-7388
▁खिलाड़ी	-7389
▁सचिवालय	-7390
▁संक्रिया	-7391
गिक	-7392
न्च	-7393
▁बोलने	-7394
▁सभाओं	-7395
▁निविदा	-7396
▁समाहित	-7397
▁मित्रता	-7398
▁आओ	-7399
▁ऋतु	-7400
▁मला	-7401
▁लची	-7402
▁गयीं	-7403
▁मानों	-7404
▁अभिन्न	-7405
▁ब्यूरो	-7406
▁निर्वाह	-7407
▁संतुलित	-7408
प्पा	-7409
▁अनंत	-7410
▁प्रोफ	-7411
▁व्यास	-7412
▁हैसियत	-7413
हान	-7414
▁ऑप	-7415
▁खपत	-7416
▁मुआ	-7417
▁लाए	-7418
▁वसूल	-7419
▁हिमन	-7420
ेन्द्र	-7421
▁कहलाता	-7422
▁अस्पष्ट	-7423
एव	-7424
ंड़	-7425
▁कॉन्	-7426
▁तृतीय	-7427
▁बदलें	-7428
▁अंतरिम	-7429
▁निकालना	-7430
▁विचित्र	-7431
ाइड	-7432
▁उछ	-7433
ोर्स	-7434
▁आधी	-7435
▁गेट	-7436
मार्क	-7437
▁यात्रियों	-7438
▁गतिविधियां	-7439
▁निर्माताओं	-7440
ृहीत	-7441
▁टेल	-7442
्रेषण	-7443
▁क्षे	-7444
▁घड़ी	-7445
▁चलना	-7446
▁नामों	-7447
▁परजीवी	-7448
▁पाठकों	-7449
▁संरक्षित	-7450
टरी	-7451
▁न्य	-7452
▁बाई	-7453
▁बंधन	-7454
्यात्मक	-7455
▁दुर्गा	-7456
▁व्याकरण	-7457
op	-7458
ख्	-7459
ोई	-7460
ers	-7461
▁थै	-7462
किया	-7463
माला	-7464
▁छेद	-7465
▁फॉर	-7466
न्नाथ	-7467
▁मृतक	-7468
▁यज्ञ	-7469
▁स्या	-7470
धारकों	-7471
संख्यक	-7472
▁निराश	-7473
▁पड़ोस	-7474
▁आंकड़ा	-7475
▁प्रौढ़	-7476
▁प्राइवेट	-7477
▁हानिकारक	-7478
▁हार्डवेयर	-7479
▁क्रियाकलाप	-7480
यम	-7481
▁पण	-7482
▁आँक	-7483
▁उगा	-7484
▁एंव	-7485
▁केल	-7486
▁बंट	-7487
▁बहुल	-7488
▁पंद्र	-7489
▁विच्छेद	-7490
▁अतिक्रमण	-7491
▁प्रभुत्व	-7492
▁प्रजातियों	-7493
इश	-7494
ँजी	-7495
▁कण	-7496
▁गर	-7497
▁शक	-7498
▁१७	-7499
रेशन	-7500
स्पद	-7501
▁अनो	-7502
▁नरम	-7503
▁दौरे	-7504
▁आवाज़	-7505
▁जितने	-7506
▁लड़का	-7507
▁संतान	-7508
▁डब्ल्यू	-7509
▁निष्पादित	-7510
ैम	-7511
बड़	-7512
▁कन	-7513
▁अधी	-7514
▁आवं	-7515
▁गौण	-7516
▁मैथ	-7517
▁मानद	-7518
▁वर्षो	-7519
▁वापिस	-7520
▁बढ़ाया	-7521
▁आस्ट्रेलिया	-7522
▁स्थानांतरित	-7523
चु	-7524
राई	-7525
डियों	-7526
▁ड्रा	-7527
▁नाइट	-7528
▁डोमेन	-7529
▁गतिशील	-7530
▁बंदरगाह	-7531
▁बदरूद्दीन	-7532
▁उदाहरणार्थ	-7533
▁उपभोक्ताओं	-7534
▁नद	-7535
बर्ट	-7536
▁स्टाफ	-7537
मेर	-7538
▁दार	-7539
▁मूर्ख	-7540
▁संयोग	-7541
▁पड़ोसी	-7542
▁चिह्नित	-7543
▁प्रतिकर	-7544
▁स्वायत्त	-7545
▁प्राणियों	-7546
▁शास्त्रीय	-7547
▁दीर्घकालिक	-7548
टकर	-7549
ियस	-7550
ंतुक	-7551
▁चूक	-7552
▁धूप	-7553
िकेशन	-7554
▁गवाह	-7555
▁अनन्य	-7556
▁क्षमा	-7557
▁लाहौर	-7558
▁ड्राइव	-7559
▁दोबारा	-7560
▁द्वारक	-7561
▁अध्यादेश	-7562
▁प्रख्यात	-7563
ॉग	-7564
शुदा	-7565
▁फौज	-7566
▁सुस	-7567
▁कारकों	-7568
▁वांछित	-7569
▁दंडादेश	-7570
▁निर्णायक	-7571
▁विनियमों	-7572
▁संस्थाएं	-7573
ity	-7574
भाई	-7575
र्षि	-7576
▁छंद	-7577
▁बचे	-7578
▁हरा	-7579
▁औजार	-7580
▁ड्रग	-7581
▁लौटा	-7582
▁संकु	-7583
▁सच्ची	-7584
▁जाएंगी	-7585
▁सोवियत	-7586
▁सतर्कता	-7587
▁उद्यमियों	-7588
ome	-7589
ाणु	-7590
िने	-7591
▁एआईआर	-7592
▁अर्पित	-7593
▁जगन्नाथ	-7594
.08	-7595
▁72	-7596
मियम	-7597
▁असं	-7598
दिग्ध	-7599
▁1985	-7600
▁मधुर	-7601
▁सख्त	-7602
▁फॉर्म	-7603
▁श्रेय	-7604
▁उर्वरक	-7605
▁लक्ष्म	-7606
▁दिलचस्प	-7607
▁अपर्याप्त	-7608
ैड	-7609
are	-7610
दिर	-7611
सेल	-7612
वाया	-7613
हत्या	-7614
▁ट्रा	-7615
▁सन्त	-7616
▁अकेला	-7617
▁अतिथि	-7618
▁इमारत	-7619
▁पैरों	-7620
▁बेकार	-7621
▁डिफ़ॉल्ट	-7622
विर	-7623
्लो	-7624
वर्स	-7625
▁ढाल	-7626
▁नानक	-7627
▁मास्ट	-7628
िरपेक्ष	-7629
▁विपक्ष	-7630
▁गुजराती	-7631
▁परिसीमा	-7632
▁अधिनियमों	-7633
▁साक्षियों	-7634
कस	-7635
पेट	-7636
ुगु	-7637
स्सी	-7638
▁आवृ	-7639
▁ताक	-7640
▁वान	-7641
▁इंजन	-7642
▁घायल	-7643
▁संकल	-7644
▁नाट्य	-7645
▁रणनीति	-7646
▁शासकों	-7647
▁अनावश्यक	-7648
▁युक्तियुक्त	-7649
ताप	-7650
दाद	-7651
साम	-7652
▁नॉ	-7653
युद्ध	-7654
▁1971	-7655
▁कीमतों	-7656
▁आंबेडकर	-7657
▁डेटाबेस	-7658
▁प्रवर्ग	-7659
ig	-7660
▁फूट	-7661
िल्ला	-7662
▁अतएव	-7663
▁क्लब	-7664
▁घातक	-7665
▁पाती	-7666
▁सिंग	-7667
▁भ्रूण	-7668
▁शर्मा	-7669
▁संपरि	-7670
▁उद्धृत	-7671
▁क्षमताओं	-7672
▁संप्रदाय	-7673
▁ऊंट	-7674
▁कहकर	-7675
▁विगत	-7676
वीक्षा	-7677
ियारों	-7678
▁राज़्य	-7679
▁क्रिस्ट	-7680
▁निःशुल्क	-7681
ir	-7682
जपे	-7683
नाल	-7684
्तन	-7685
▁इधर	-7686
▁कैम	-7687
▁1993	-7688
▁पुणे	-7689
▁मेहर	-7690
▁सुनी	-7691
▁महाका	-7692
▁अंतर्व	-7693
▁अद्भुत	-7694
▁प्रतिमा	-7695
▁उम्मीदवार	-7696
ag	-7697
▁बश	-7698
ोहित	-7699
▁बिख	-7700
▁रिफ	-7701
र्देश	-7702
िस्टर	-7703
▁1974	-7704
▁एसोसिएशन	-7705
ुलर	-7706
खण्ड	-7707
▁कूद	-7708
▁मज़	-7709
▁सौह	-7710
ंतव्य	-7711
विचार	-7712
▁जादू	-7713
▁टीवी	-7714
▁रूचि	-7715
▁चेहरा	-7716
▁जानती	-7717
▁अर्जुन	-7718
▁टुकड़े	-7719
ुलिप	-7720
▁भली	-7721
ोरेशन	-7722
▁किस्	-7723
▁धारक	-7724
▁पासवर्ड	-7725
▁संपादित	-7726
▁माध्यमिक	-7727
▁विधायिका	-7728
▁प्राधिकारियों	-7729
ेव	-7730
ंचन	-7731
▁56	-7732
▁भि	-7733
▁पडे	-7734
▁संश	-7735
▁चारा	-7736
▁दायर	-7737
▁भयान	-7738
▁स्टी	-7739
िवारिक	-7740
▁भूटान	-7741
▁हेक्ट	-7742
▁प्रेमी	-7743
▁बालकों	-7744
▁लक्ष्मी	-7745
▁आनुवंशिक	-7746
▁द्वारकानाथ	-7747
यित	-7748
्ली	-7749
तिया	-7750
▁300	-7751
▁अवा	-7752
▁नकल	-7753
▁महो	-7754
▁मोर	-7755
▁1000	-7756
ुस्तानी	-7757
▁ट्रांस	-7758
▁पिछड़े	-7759
▁परेशानी	-7760
▁संख़्या	-7761
ज्ह	-7762
▁सऋ	-7763
षकों	-7764
ियॉँ	-7765
▁बुश	-7766
▁लखन	-7767
▁कोटि	-7768
▁ऊतकों	-7769
▁लड़ने	-7770
▁जानबूझ	-7771
▁शान्ति	-7772
▁कूटशब्द	-7773
▁प्रपत्र	-7774
▁प्रतिवेदन	-7775
▁पारदर्शिता	-7776
▁कार्यवाहियां	-7777
▁ओह	-7778
▁वेग	-7779
▁लगाकर	-7780
▁मुख़्य	-7781
ौप	-7782
प्प	-7783
कार्	-7784
▁नाज	-7785
▁१९७	-7786
ोग्रा	-7787
▁चलकर	-7788
▁विवा	-7789
▁पहाड़	-7790
▁बनायी	-7791
▁भेजें	-7792
▁दिलचस्पी	-7793
▁निरपेक्ष	-7794
▁पर्यवेक्षण	-7795
ड़न	-7796
▁डाइ	-7797
▁मौल	-7798
▁अवयव	-7799
▁आगरा	-7800
▁कन्व	-7801
▁दायरे	-7802
▁धारित	-7803
▁दुर्बल	-7804
▁अपशिष्ट	-7805
▁निक्षेप	-7806
▁समावेशी	-7807
िपी	-7808
▁बेज	-7809
▁दादा	-7810
कृष्णन	-7811
▁एजेंट	-7812
▁सनातन	-7813
▁चुनावों	-7814
▁अभिप्राय	-7815
डू	-7816
ोही	-7817
▁नास	-7818
▁सेंटर	-7819
▁औचित्य	-7820
▁मत्स्य	-7821
▁एमएसएमई	-7822
▁पारिवारिक	-7823
वाट	-7824
शिप	-7825
ष्मा	-7826
▁जर्	-7827
त्तीस	-7828
▁निकला	-7829
▁बदलना	-7830
▁भागवत	-7831
▁गरीबों	-7832
▁नवीनतम	-7833
▁प्रवास	-7834
▁मजबूती	-7835
ढे	-7836
▁आइए	-7837
▁झुक	-7838
▁पदक	-7839
▁रोम	-7840
ियमित	-7841
▁अन्न	-7842
▁मिलन	-7843
क्षकों	-7844
▁काटने	-7845
▁तत्पर	-7846
▁सोसाय	-7847
▁उदासीन	-7848
▁हड़ताल	-7849
▁अनुमानित	-7850
▁कंपनियां	-7851
▁परिपूर्ण	-7852
▁सत्यापित	-7853
ंसी	-7854
स्थि	-7855
ेलना	-7856
ैर्य	-7857
▁नाथ	-7858
वर्धन	-7859
▁1976	-7860
▁यथास	-7861
्रीकरण	-7862
▁नर्मदा	-7863
▁प्रवासी	-7864
▁लक्षणों	-7865
▁श्रमिकों	-7866
▁वित्तपोषण	-7867
डक	-7868
गीय	-7869
▁फर्	-7870
यंत्र	-7871
▁चोरी	-7872
▁पावर	-7873
▁पाण्ड	-7874
▁विकृत	-7875
▁साधना	-7876
▁आरोपों	-7877
▁समर्थक	-7878
▁काश्मीर	-7879
▁विवेकान	-7880
▁अंतर्विष्ट	-7881
80	-7882
ap	-7883
ँगा	-7884
दाई	-7885
सनी	-7886
विजन	-7887
▁गिल	-7888
▁संजाल	-7889
▁निवेदन	-7890
शिला	-7891
सीआई	-7892
▁कैल	-7893
▁वृह	-7894
▁ईमेल	-7895
▁फलों	-7896
▁क्रोध	-7897
▁दावों	-7898
▁सिंधु	-7899
▁संपादक	-7900
▁प्रदेशों	-7901
RO	-7902
▁तन	-7903
वर्ग	-7904
वेदी	-7905
ुल्य	-7906
▁भोग	-7907
▁जबरद	-7908
▁धोखा	-7909
▁पायी	-7910
▁वनों	-7911
▁विवश	-7912
▁अस्थिर	-7913
▁आश्चर्यजनक	-7914
ef	-7915
ेम	-7916
नाई	-7917
बंद	-7918
्वत	-7919
कक्ष	-7920
न्दन	-7921
▁खाद	-7922
▁टेप	-7923
ताबिक	-7924
▁अम्ल	-7925
▁नाना	-7926
▁पांव	-7927
▁बजाए	-7928
▁दर्जा	-7929
▁श्वसन	-7930
▁अपीलीय	-7931
▁इच्छुक	-7932
▁संदिग्ध	-7933
▁क्रियाओं	-7934
▁प्रतिभूतियों	-7935
,6	-7936
नेस	-7937
▁१३	-7938
बिया	-7939
▁उलझ	-7940
तीकरण	-7941
र्कों	-7942
▁जमाने	-7943
▁फांसी	-7944
▁भयानक	-7945
▁जनजाति	-7946
▁जनजातियों	-7947
टिक	-7948
लाप	-7949
▁इम	-7950
▁com	-7951
▁एन्	-7952
ारण्य	-7953
▁1957	-7954
▁अभिनय	-7955
▁चरणों	-7956
▁जमींद	-7957
▁परिधि	-7958
▁मुस्क	-7959
▁आरक्षण	-7960
▁गिरावट	-7961
▁सर्वथा	-7962
िद	-7963
▁१४	-7964
डिंग	-7965
▁1.4	-7966
▁पवन	-7967
▁रेट	-7968
वस्थित	-7969
▁आबंटन	-7970
▁स्टाक	-7971
▁मुताबिक	-7972
▁विक्रेता	-7973
15	-7974
▁व्	-7975
▁तित	-7976
▁कराए	-7977
▁अब्दु	-7978
▁एकीकरण	-7979
▁जवाबदे	-7980
▁द्रव्य	-7981
▁मंत्रि	-7982
▁मास्टर	-7983
▁निरूपित	-7984
▁सूचनाओं	-7985
▁अभिरक्षा	-7986
▁तात्पर्य	-7987
▁प्रौद्योगिकियों	-7988
लत	-7989
ुलन	-7990
▁अनदे	-7991
▁आजीव	-7992
▁आन्त	-7993
▁सीडी	-7994
▁शिष्य	-7995
▁स्थाई	-7996
▁अर्द्ध	-7997
▁बंगाली	-7998
▁महर्षि	-7999
▁मंत्रिम	-8000
▁तात्कालिक	-8001
▁संभावनाओं	-8002
कश	-8003
सो	-8004
▁74	-8005
▁सउ	-8006
कर्म	-8007
▁अटल	-8008
▁दाँ	-8009
स्वती	-8010
▁लेबल	-8011
▁कोष्ठ	-8012
▁टेस्ट	-8013
▁निशान	-8014
▁वयस्क	-8015
क्रिप्ट	-8016
▁दरवाजे	-8017
▁आत्महत्या	-8018
ॉय	-8019
▁फेड	-8020
▁पूरक	-8021
▁ग्रुप	-8022
▁प्रभा	-8023
▁संचरण	-8024
▁दंडनीय	-8025
▁वाशिंग	-8026
▁व्यर्थ	-8027
▁चित्रों	-8028
▁सौहार्द	-8029
▁विशेषताओं	-8030
म्म	-8031
बंदी	-8032
सर्ग	-8033
▁लायक	-8034
▁लेगा	-8035
▁शाही	-8036
▁मूलतः	-8037
▁सूचका	-8038
र्थियों	-8039
▁अनुष्ठ	-8040
▁फ़ॉन्ट	-8041
▁बहुमूल्य	-8042
श्र	-8043
▁03	-8044
▁1949	-8045
▁उतने	-8046
▁आभूषण	-8047
▁मारने	-8048
▁ललिता	-8049
▁कामकाज	-8050
▁याचिकाकर्ता	-8051
un	-8052
▁उज	-8053
म्बित	-8054
▁सुनाई	-8055
▁उद्यमी	-8056
ch	-8057
रेन	-8058
▁58	-8059
▁Go	-8060
्रीट	-8061
▁नली	-8062
▁मुर	-8063
▁अवगत	-8064
▁पाइप	-8065
▁अवतार	-8066
▁गेहूं	-8067
▁जरुरी	-8068
▁पीड़क	-8069
▁संस्कार	-8070
ालक	-8071
फ़्ट	-8072
शोधन	-8073
▁ढूँ	-8074
▁बाइ	-8075
▁आज्ञा	-8076
▁घोड़े	-8077
▁जरुरत	-8078
▁बिस्त	-8079
▁यातना	-8080
▁सोचना	-8081
▁नाटकीय	-8082
▁स्वदेशी	-8083
70	-8084
▁पग	-8085
भावी	-8086
मुना	-8087
▁पडा	-8088
▁फेर	-8089
▁वाई	-8090
▁डिवी	-8091
▁असंगत	-8092
▁छोड़ा	-8093
▁दवाओं	-8094
▁विकार	-8095
▁बलिदान	-8096
▁नियोजित	-8097
▁मार्गदर्शक	-8098
ंकि	-8099
तको	-8100
शेर	-8101
िती	-8102
फीति	-8103
▁निब	-8104
▁गोला	-8105
▁जंतु	-8106
▁पटेल	-8107
▁सटीक	-8108
▁सीखा	-8109
▁बुराई	-8110
▁सच्चा	-8111
▁बढ़ाकर	-8112
▁बिलियन	-8113
▁सुश्री	-8114
▁प्रशांत	-8115
▁अधिग्रहण	-8116
▁मास्टर्स	-8117
▁स्थानांतरण	-8118
ter	-8119
▁उठे	-8120
▁कसौ	-8121
▁बहा	-8122
▁लगाई	-8123
▁आँखों	-8124
▁मुफ्त	-8125
▁उपरांत	-8126
▁पंद्रह	-8127
ate	-8128
ड़की	-8129
यंकर	-8130
ायती	-8131
▁धर्	-8132
▁नाश	-8133
▁पाय	-8134
▁मजा	-8135
▁1989	-8136
▁मौके	-8137
▁वाणी	-8138
▁खंडों	-8139
▁खेतों	-8140
▁विकेट	-8141
▁मणिपुर	-8142
▁चुंबकीय	-8143
▁महिलाएं	-8144
▁सार्वभौमिक	-8145
वह	-8146
पहर	-8147
सात	-8148
▁इश	-8149
▁इण्ड	-8150
▁एकड़	-8151
▁नींद	-8152
▁समीप	-8153
▁स्पी	-8154
▁छिद्र	-8155
▁ठहराया	-8156
▁बाजारों	-8157
▁पर्यावरणीय	-8158
ul	-8159
▁66	-8160
▁रच	-8161
▁ओवर	-8162
▁जोड	-8163
▁बोले	-8164
▁माला	-8165
दृष्टि	-8166
▁खाड़ी	-8167
▁मार्क	-8168
▁सिनेमा	-8169
थल	-8170
एनए	-8171
चनों	-8172
ापित	-8173
▁ईस्ट	-8174
▁बगैर	-8175
▁इंद्र	-8176
▁उठाकर	-8177
▁नजदीक	-8178
▁बनाएँ	-8179
▁करवाने	-8180
▁ट्रस्ट	-8181
▁लार्वा	-8182
▁अनियमित	-8183
▁सूचकांक	-8184
डब	-8185
वंत	-8186
▁पित	-8187
स्ट्र	-8188
▁प्रॉ	-8189
▁लखनऊ	-8190
▁सूरज	-8191
प्रदेश	-8192
▁चाहें	-8193
▁लेखों	-8194
▁अंतररा	-8195
▁गंतव्य	-8196
▁प्रत्यु	-8197
▁सोसायटी	-8198
▁नियन्त्रण	-8199
आइ	-8200
दह	-8201
▁53	-8202
▁बला	-8203
▁लहर	-8204
बोर्ड	-8205
श्यों	-8206
▁बशर्	-8207
▁रसीद	-8208
ष्णुता	-8209
▁एक्सट	-8210
▁भूकंप	-8211
▁विघटन	-8212
▁अनुबंध	-8213
▁निरस्त	-8214
▁पेड़ों	-8215
▁प्रवाहित	-8216
▁बक	-8217
▁किर	-8218
▁जाप	-8219
▁वाइ	-8220
जपेयी	-8221
▁1946	-8222
▁लिखत	-8223
▁समेत	-8224
▁अरुणा	-8225
▁जोड़ी	-8226
▁स्विच	-8227
▁अनुभाग	-8228
▁स्त्रोत	-8229
▁अद्वितीय	-8230
▁बीमाकर्ता	-8231
ुख	-8232
ताई	-8233
▁85	-8234
िकरण	-8235
ॉर्ट	-8236
▁खनन	-8237
▁जूट	-8238
▁भोज	-8239
▁साख	-8240
त्विक	-8241
▁1908	-8242
▁कारी	-8243
▁घुमा	-8244
▁बालों	-8245
▁भयंकर	-8246
▁रात्रि	-8247
▁संपादन	-8248
▁प्रतिलिपि	-8249
बुल	-8250
▁झट	-8251
▁रोब	-8252
ंजस्य	-8253
▁1970	-8254
▁जीने	-8255
▁वक्र	-8256
▁बैठकों	-8257
▁सरकारें	-8258
▁सम्भावना	-8259
▁सिफारिशें	-8260
us	-8261
कावट	-8262
पत्य	-8263
▁धनी	-8264
▁बैल	-8265
▁रिए	-8266
▁1981	-8267
▁डाली	-8268
▁देहा	-8269
▁बेहत	-8270
▁उपनिष	-8271
▁प्रको	-8272
▁लगेगा	-8273
िष्णुता	-8274
▁अग्रसर	-8275
▁दिखायी	-8276
▁बीमारियों	-8277
▁ऑस्ट्रेलिया	-8278
um	-8279
िग	-8280
▁सज	-8281
धर्म	-8282
ारिक	-8283
▁किरण	-8284
▁कैसा	-8285
▁रत्न	-8286
ास्टिक	-8287
▁पुकार	-8288
▁बदलते	-8289
▁मुल्क	-8290
▁आचार्य	-8291
▁आत्मनि	-8292
▁समुच्च	-8293
▁चाहेंगे	-8294
▁प्रभावों	-8295
बुद	-8296
▁we	-8297
गरीय	-8298
▁the	-8299
▁खैर	-8300
▁बूट	-8301
▁व्र	-8302
▁स्फ	-8303
वाहिक	-8304
▁दायी	-8305
▁बाबा	-8306
क्षमता	-8307
▁कारित	-8308
▁गार्ड	-8309
▁अंडमान	-8310
▁आवासीय	-8311
▁विलियम	-8312
▁नीतियां	-8313
▁क्रियाकलापों	-8314
पृ	-8315
जरी	-8316
लापन	-8317
▁सुपर	-8318
▁सौदा	-8319
▁हटाए	-8320
▁कम्पन	-8321
▁गवर्न	-8322
▁चित्त	-8323
▁फ्रेम	-8324
▁बलराम	-8325
▁दृढ़ता	-8326
▁सेनाओं	-8327
▁आजीविका	-8328
▁सुभाषबाबू	-8329
▁अंतःस्थापित	-8330
AT	-8331
सेन	-8332
▁चट	-8333
म्पर	-8334
ोतरी	-8335
▁किला	-8336
▁ग्लो	-8337
▁बनती	-8338
▁मेनन	-8339
नाइटेड	-8340
स्वामी	-8341
▁परिपथ	-8342
▁शुष्क	-8343
▁सरलता	-8344
▁हटाना	-8345
▁तेलुगु	-8346
▁राजकीय	-8347
▁चित्रित	-8348
▁फिल्मों	-8349
▁मुद्रित	-8350
▁वाजपेयी	-8351
▁व्याप्त	-8352
▁उत्पादित	-8353
▁प्रारम्भिक	-8354
ज़्	-8355
िथ्म	-8356
▁सभ्य	-8357
▁सौदे	-8358
िश्रमिक	-8359
ॉजी	-8360
▁उजा	-8361
▁साठ	-8362
धियां	-8363
▁पट्टे	-8364
▁पुर्त	-8365
▁भीतरी	-8366
▁स्वाद	-8367
▁हल्के	-8368
▁लाभदायक	-8369
▁सरस्वती	-8370
▁विशेषज्ञता	-8371
▁प्रतिस्थापित	-8372
▁शत	-8373
▁चंद	-8374
▁अमीर	-8375
▁चलाए	-8376
▁माया	-8377
▁मेनू	-8378
▁शिरा	-8379
▁सूखे	-8380
▁अर्जी	-8381
▁गोपाल	-8382
▁तार्क	-8383
▁निरोध	-8384
▁पारिश्रमिक	-8385
जान	-8386
परा	-8387
ोगी	-8388
▁हफ	-8389
माही	-8390
▁अलं	-8391
▁डेल	-8392
▁क्यो	-8393
▁ज्वर	-8394
▁ट्रैक	-8395
▁पूछताछ	-8396
▁चमत्कार	-8397
▁स्नातको	-8398
▁क्षेत्रफल	-8399
थाम	-8400
▁जज	-8401
वश्यक	-8402
▁तरंग	-8403
▁मोती	-8404
▁छत्तीस	-8405
▁तालिका	-8406
▁प्रामा	-8407
▁मशीनों	-8408
▁विजेता	-8409
▁दिनांकित	-8410
▁विशेषताएं	-8411
ट्स	-8412
दायी	-8413
▁मन्	-8414
▁कुर्	-8415
▁पोषक	-8416
▁बलों	-8417
▁अवशेष	-8418
▁पंचाट	-8419
▁दिलाने	-8420
▁मुद्रण	-8421
▁तीव्रता	-8422
▁प्रीमियम	-8423
▁रूपांतरण	-8424
▁उपाध्यक्ष	-8425
▁प्रस्तुति	-8426
▁संभावनाएं	-8427
▁हस्तांतरण	-8428
▁अनुपस्थिति	-8429
▁शांतिपूर्ण	-8430
लम	-8431
वेग	-8432
ब्बा	-8433
▁जन्	-8434
▁पंथ	-8435
▁फिन	-8436
ल्पित	-8437
▁खादी	-8438
▁पटना	-8439
▁फैले	-8440
▁बढ़ी	-8441
▁सिलस	-8442
▁डालना	-8443
▁मलयाल	-8444
▁पुर्तग	-8445
▁स्थगित	-8446
राधिकारी	-8447
▁दर्शाया	-8448
▁सिक्किम	-8449
▁आविष्कार	-8450
▁वर्गीकृत	-8451
▁ae	-8452
िल्ल	-8453
ीलाल	-8454
▁कोण	-8455
▁छोर	-8456
▁लाप	-8457
ल्लाह	-8458
▁कीर्	-8459
▁क्षय	-8460
▁हमसे	-8461
▁इंस्ट	-8462
▁पड़ते	-8463
▁चिंतित	-8464
▁उत्पत्ति	-8465
▁रेगिस्तान	-8466
ER	-8467
रात	-8468
िप्र	-8469
▁कीं	-8470
नागरी	-8471
नेशनल	-8472
▁1994	-8473
▁टिका	-8474
▁धमकी	-8475
▁धीमी	-8476
▁पद्य	-8477
▁हुईं	-8478
▁लक्ष्मण	-8479
▁पारिस्थित	-8480
▁अंतर्निहित	-8481
▁राधाकृष्णन	-8482
लीफ	-8483
लेस	-8484
▁थल	-8485
▁मोन	-8486
▁मुआव	-8487
▁मुना	-8488
▁आंखें	-8489
▁दर्शक	-8490
▁पूँजी	-8491
▁व्यंग	-8492
▁डिवीजन	-8493
▁ब्रिता	-8494
▁शृंखला	-8495
▁ग्रंथों	-8496
किक	-8497
▁लू	-8498
▁कमर	-8499
▁सघन	-8500
▁खोला	-8501
▁फर्क	-8502
▁बेशक	-8503
▁युवक	-8504
▁वकाल	-8505
▁सउदी	-8506
पत्रों	-8507
▁अंशदान	-8508
▁चुपचाप	-8509
▁ताजमहल	-8510
▁व्यायाम	-8511
▁संशोधनों	-8512
▁समाविष्ट	-8513
▁हथियारों	-8514
ञ्	-8515
जिन	-8516
राग	-8517
वात	-8518
▁लेट	-8519
▁सती	-8520
त्तूर	-8521
▁सरोज	-8522
▁सिवा	-8523
▁हरित	-8524
▁तुर्क	-8525
▁दोपहर	-8526
▁भ्रमण	-8527
▁मणीलाल	-8528
▁माइक्र	-8529
▁सीरिया	-8530
▁जनजातीय	-8531
▁स्वयंसे	-8532
▁न्यायपीठ	-8533
▁स्नातकोत्तर	-8534
बोध	-8535
म्य	-8536
आईटी	-8537
न्सी	-8538
ष्णा	-8539
मुक्त	-8540
▁दुष्	-8541
▁ब्रे	-8542
▁यकीन	-8543
▁लेनी	-8544
▁चलाना	-8545
▁मानकर	-8546
▁पर्यटक	-8547
▁सहयोगियों	-8548
गीर	-8549
▁लय	-8550
राइट	-8551
हाली	-8552
ोग्य	-8553
▁अभय	-8554
▁अखंड	-8555
▁क़ुर	-8556
▁समनु	-8557
▁धैर्य	-8558
▁पत्तन	-8559
▁समूचे	-8560
▁प्रिंट	-8561
▁लैंगिक	-8562
▁मॉड्यूल	-8563
▁नियोक्ता	-8564
ायन	-8565
ैंस	-8566
ogle	-8567
प्रण	-8568
बर्ग	-8569
▁बंदी	-8570
▁मंदी	-8571
▁शंका	-8572
▁सतत्	-8573
▁हाला	-8574
▁आखिरी	-8575
▁उत्पी	-8576
▁चक्कर	-8577
▁जगहों	-8578
ब्दियों	-8579
▁करूंगा	-8580
▁मुकाबला	-8581
▁समन्वित	-8582
▁प्रसारित	-8583
▁सामंजस्य	-8584
▁हेक्टेयर	-8585
▁नगरपालिका	-8586
बेट	-8587
रेटर	-8588
वस्तु	-8589
▁बुरे	-8590
▁मापन	-8591
▁मोटी	-8592
धिकारी	-8593
▁पढ़ना	-8594
▁नारियल	-8595
▁रोकथाम	-8596
▁सर्किट	-8597
▁इन्होंने	-8598
▁उपक्रमों	-8599
▁सेवानिवृत्त	-8600
णीत	-8601
्ये	-8602
▁इंच	-8603
▁खाल	-8604
▁नाप	-8605
▁ख्या	-8606
▁ताजा	-8607
▁बताए	-8608
▁सुलह	-8609
▁क्षेञ	-8610
▁ध्येय	-8611
▁फारसी	-8612
▁संसद्	-8613
▁समझती	-8614
ष्ट्रपति	-8615
▁निकोबार	-8616
▁नैतिकता	-8617
▁विश्राम	-8618
▁परंपराओं	-8619
▁पारदर्शी	-8620
▁समितियां	-8621
▁सम्बन्धों	-8622
40	-8623
60	-8624
ub	-8625
.05	-8626
▁99	-8627
आईसी	-8628
बंधन	-8629
▁पाउ	-8630
स्कृत	-8631
▁परमा	-8632
▁पेपर	-8633
▁साइन	-8634
▁नतीजा	-8635
▁विशेन	-8636
▁तयशुदा	-8637
▁मलयालम	-8638
▁निमंत्र	-8639
▁ब्रितानी	-8640
▁श्रेणियों	-8641
ंजर	-8642
द्घ	-8643
ित्	-8644
▁उब	-8645
▁रथ	-8646
पकों	-8647
देशिक	-8648
हार्य	-8649
▁अमान	-8650
▁कार्ट	-8651
▁दीजिए	-8652
▁प्रभु	-8653
▁रंगों	-8654
▁परिप्रे	-8655
▁प्लास्टिक	-8656
▁उत्तराधिकारी	-8657
.09	-8658
रेज	-8659
्रल	-8660
▁AR	-8661
▁जह	-8662
▁रिव	-8663
द्वार	-8664
▁चाहा	-8665
▁ड्यू	-8666
▁भण्ड	-8667
▁दिखता	-8668
ंत्रिकी	-8669
▁अपनाना	-8670
▁जापानी	-8671
▁आधुनिकीकरण	-8672
▁रजिस्ट्रीकृत	-8673
od	-8674
ान्	-8675
गणना	-8676
ड़ने	-8677
▁हॉल	-8678
▁गुस्	-8679
▁चंडी	-8680
▁पुष्	-8681
क्सीजन	-8682
▁चार्ट	-8683
▁आबंटित	-8684
▁ग्लोबल	-8685
▁निकाले	-8686
▁पोर्टल	-8687
▁सदियों	-8688
▁एल्गोरिथ्म	-8689
अली	-8690
फलक	-8691
▁92	-8692
▁यश	-8693
▁वॉ	-8694
▁गरम	-8695
▁शाल	-8696
▁निरी	-8697
पतियों	-8698
▁घटकों	-8699
▁प्रोज	-8700
▁भौतिकी	-8701
ँट	-8702
ोटा	-8703
ब्रे	-8704
ियाई	-8705
▁मर्	-8706
▁1972	-8707
▁पुरी	-8708
▁काल्प	-8709
▁दुश्म	-8710
▁सहारे	-8711
▁आदर्शों	-8712
▁देवनागरी	-8713
▁शब्दावली	-8714
▁निवासियों	-8715
जीत	-8716
▁II	-8717
▁sa	-8718
शियन	-8719
▁झलक	-8720
▁डूब	-8721
▁रवै	-8722
▁शंक	-8723
▁आयाम	-8724
▁बनते	-8725
▁सूखा	-8726
▁बिस्तर	-8727
▁रिश्वत	-8728
,7	-8729
ूद	-8730
नीस	-8731
भास	-8732
लेन	-8733
ुरु	-8734
▁खिस	-8735
▁मता	-8736
क्टरी	-8737
▁कहें	-8738
▁यूनिक	-8739
▁विराम	-8740
▁हास्य	-8741
धारियों	-8742
ोल्यूशन	-8743
▁विधिज्ञ	-8744
▁उपन्यासों	-8745
▁पुनर्निर्	-8746
ठों	-8747
माद	-8748
▁अने	-8749
▁बसे	-8750
▁युसु	-8751
▁मण्डल	-8752
▁निगमित	-8753
▁उत्प्रे	-8754
▁कृतियों	-8755
▁क्रमांक	-8756
▁प्रिंटर	-8757
▁भागीदारों	-8758
जारी	-8759
नामा	-8760
स्तर	-8761
▁1951	-8762
▁नौका	-8763
▁भेड़	-8764
न्दर्य	-8765
▁कामों	-8766
▁लिखें	-8767
▁श्वास	-8768
▁सिंधी	-8769
▁महानिदेशक	-8770
▁मुख्यमंत्री	-8771
वो	-8772
विड	-8773
िमी	-8774
ुवा	-8775
ेरा	-8776
ेली	-8777
▁ढी	-8778
ज्जा	-8779
ोसिस	-8780
ौर्य	-8781
▁Chr	-8782
▁उदर	-8783
▁ऋषि	-8784
▁पिट	-8785
दायगी	-8786
ेशनों	-8787
▁1984	-8788
▁तिलक	-8789
▁रुग्	-8790
▁सुखद	-8791
क्रमित	-8792
▁पुष्ट	-8793
▁Google	-8794
▁चट्टान	-8795
▁स्थावर	-8796
▁पर्वतीय	-8797
,9	-8798
▁तद	-8799
चेरी	-8800
प्ता	-8801
ॉक्स	-8802
▁पैट	-8803
धिकरण	-8804
▁1954	-8805
▁फ्रा	-8806
▁अपवर्	-8807
▁गर्भव	-8808
▁नोड्स	-8809
▁मानवा	-8810
▁हल्का	-8811
कारियों	-8812
▁अधिष्ठ	-8813
▁सारांश	-8814
▁स्वार्थ	-8815
▁टेलीविजन	-8816
▁वाशिंगटन	-8817
▁नवान्वेषी	-8818
कै	-8819
वस	-8820
▁कवर	-8821
▁कृषक	-8822
▁जायगा	-8823
▁जिज्ञ	-8824
▁धाराओं	-8825
▁प्ररूप	-8826
▁शासकीय	-8827
▁कित्तूर	-8828
▁अभिलिखित	-8829
▁भूतपूर्व	-8830
▁महाकाव्य	-8831
्यौ	-8832
▁68	-8833
बारी	-8834
▁आभा	-8835
▁गढ़	-8836
▁नाभ	-8837
िलोकन	-8838
▁तैना	-8839
▁बंगल	-8840
▁वाहक	-8841
वर्षीय	-8842
ापूर्ण	-8843
▁अंतरा	-8844
▁क्रोम	-8845
▁रवाना	-8846
▁असंख्य	-8847
▁चिन्ता	-8848
▁नौसेना	-8849
▁प्रेरक	-8850
▁प्रदाता	-8851
▁प्रशासक	-8852
ov	-8853
डम	-8854
▁63	-8855
▁शव	-8856
▁सफ़	-8857
▁हुस	-8858
कार्य	-8859
▁ऋणों	-8860
▁चालक	-8861
▁परिल	-8862
▁फैली	-8863
▁मृदा	-8864
▁्याय	-8865
▁युग्म	-8866
▁वकालत	-8867
▁वादों	-8868
▁बशर्ते	-8869
▁प्रस्तु	-8870
▁संस्थापक	-8871
▁अतिमानसिक	-8872
▁अब्दुल्ला	-8873
▁न्यूयार्क	-8874
ैश	-8875
जलि	-8876
लोक	-8877
▁73	-8878
▁एह	-8879
▁कैर	-8880
▁गोर	-8881
▁मीन	-8882
▁उज्ज	-8883
▁बादल	-8884
्लिकेशन	-8885
▁उपासना	-8886
▁क्रमिक	-8887
▁विद्वत	-8888
▁किनारों	-8889
▁द्वीपों	-8890
▁कार्यपाल	-8891
▁जुर्माना	-8892
▁व्यापारियों	-8893
डिश	-8894
खाना	-8895
▁घों	-8896
▁टोप	-8897
▁फंड	-8898
▁अविल	-8899
▁गाने	-8900
▁गुर्	-8901
▁गर्दन	-8902
▁फैसले	-8903
▁परंतुक	-8904
▁राजवंश	-8905
▁सम्प्र	-8906
▁नामांकन	-8907
▁प्रत्युत्तर	-8908
रीद	-8909
▁कं	-8910
▁फो	-8911
त्सव	-8912
धारक	-8913
▁रावण	-8914
▁एक्सप	-8915
▁ख्याल	-8916
▁जीतने	-8917
▁लगाये	-8918
▁उत्थान	-8919
▁मुम्बई	-8920
▁निर्भरता	-8921
▁सौन्दर्य	-8922
▁कार्यकलाप	-8923
,0	-8924
है	-8925
गृह	-8926
ुखी	-8927
▁59	-8928
▁एर	-8929
▁भीम	-8930
▁मदर	-8931
▁कृपा	-8932
▁श्या	-8933
▁हिला	-8934
▁क़्या	-8935
▁खुराक	-8936
▁फीसदी	-8937
▁बेरोज	-8938
▁हममें	-8939
▁तार्किक	-8940
▁दर्शकों	-8941
▁देखेंगे	-8942
▁आस्तियां	-8943
▁प्रामाणिक	-8944
▁अनुप्रयोगों	-8945
aoM	-8946
▁ओल	-8947
नियों	-8948
▁अफसर	-8949
▁कसौटी	-8950
▁खेलने	-8951
▁दंडित	-8952
▁परमिट	-8953
▁परिकल	-8954
▁बनाएं	-8955
▁साम्य	-8956
▁उल्लास	-8957
▁विचारा	-8958
▁समनुदेश	-8959
▁क्षेत्रक	-8960
▁कार्मिकों	-8961
▁77	-8962
ुकला	-8963
▁परो	-8964
▁मनी	-8965
ज्जित	-8966
▁पच्च	-8967
▁बेटा	-8968
▁सुलभ	-8969
▁किशोर	-8970
▁आक्षेप	-8971
▁ग्रंथि	-8972
▁खाद्यान	-8973
▁सुपुर्दगी	-8974
▁आतंकवादियों	-8975
्टन	-8976
▁एजे	-8977
▁जगा	-8978
▁जाऊ	-8979
▁शार	-8980
▁तटीय	-8981
▁सोना	-8982
▁केलिए	-8983
▁बुखार	-8984
▁निकलता	-8985
▁व्यतिक	-8986
▁सम्मुख	-8987
▁विशुद्ध	-8988
▁नागरिकता	-8989
,8	-8990
थिल	-8991
▁04	-8992
▁डू	-8993
ल्ले	-8994
्युन	-8995
▁इंट	-8996
▁अभिम	-8997
▁अभिश	-8998
▁भावा	-8999
▁बहुधा	-9000
▁मंडली	-9001
▁हिमनद	-9002
▁कोरिया	-9003
▁अप्रत्या	-9004
ँकि	-9005
क्व	-9006
▁88	-9007
▁जौ	-9008
त्सा	-9009
▁सीट	-9010
▁1960	-9011
▁1963	-9012
▁पौरा	-9013
▁बैंड	-9014
▁रसोई	-9015
▁वैसी	-9016
लेरिया	-9017
▁प्रोफ़	-9018
▁राजदूत	-9019
▁यथासंभव	-9020
▁उत्तेजित	-9021
▁सद्भावना	-9022
ुए	-9023
▁नह	-9024
क्ष्	-9025
्टीट	-9026
▁दाल	-9027
चर्या	-9028
नीकरण	-9029
परेशन	-9030
▁देरी	-9031
▁बंधक	-9032
▁वियत	-9033
▁कोयले	-9034
▁जॉर्ज	-9035
▁इंतजार	-9036
▁प्रेषण	-9037
▁गर्भवती	-9038
▁निदेशकों	-9039
▁सांविधिक	-9040
▁एक्सटेंशन	-9041
▁विमानक्षेत्र	-9042
आन	-9043
ंची	-9044
जिर	-9045
▁उम	-9046
सूरत	-9047
▁जनक	-9048
▁थाः	-9049
▁दहेज	-9050
▁लड़ा	-9051
▁खुलने	-9052
▁अनुयाय	-9053
▁आश्रित	-9054
▁कर्त्त	-9055
▁डिक्री	-9056
▁देखरेख	-9057
▁आन्तरिक	-9058
▁स्ट्रिंग	-9059
▁महाविद्यालय	-9060
दत्त	-9061
न्ने	-9062
ालेख	-9063
▁आगम	-9064
▁पिर	-9065
▁इनको	-9066
▁गणेश	-9067
▁निवे	-9068
▁पल्ल	-9069
▁बन्ध	-9070
▁मदों	-9071
▁रिहा	-9072
▁लगों	-9073
▁सोशल	-9074
▁परिमाण	-9075
▁बागवानी	-9076
▁लाभकारी	-9077
▁समुच्चय	-9078
▁व्यवसायी	-9079
▁साधारणतया	-9080
▁मनोवैज्ञानिक	-9081
्वल	-9082
टिंग	-9083
वाड़	-9084
ोपाल	-9085
▁छान	-9086
▁अन्ध	-9087
▁मरने	-9088
▁अनुमत	-9089
▁समरूप	-9090
▁चेन्नई	-9091
▁नवाचार	-9092
▁ब्राउज़र	-9093
▁संस्थापन	-9094
▁साझेदारी	-9095
▁प्रदर्शनी	-9096
em	-9097
▁ऊर्	-9098
▁लिट	-9099
▁्या	-9100
▁अभिस	-9101
▁असीम	-9102
▁करों	-9103
▁पौधा	-9104
▁महार	-9105
▁पाश्च	-9106
▁मैसूर	-9107
▁हुसैन	-9108
▁आईसीटी	-9109
▁पॉलिसी	-9110
▁आकांक्षाओं	-9111
’’	-9112
ोनी	-9113
बंधी	-9114
▁खरा	-9115
▁भाँ	-9116
▁मोल	-9117
▁माउस	-9118
▁साफ़	-9119
▁ग्रिड	-9120
▁तारों	-9121
▁फाउंड	-9122
▁बर्तन	-9123
▁रोकना	-9124
▁निवेशक	-9125
▁वर्षगा	-9126
▁विनम्र	-9127
▁सुंदरता	-9128
ॉस	-9129
धरी	-9130
फ्फ	-9131
▁पठ	-9132
▁अलम	-9133
▁हिर	-9134
▁1978	-9135
▁डिज़	-9136
▁बाँध	-9137
▁ईरानी	-9138
▁उर्वर	-9139
▁खतरों	-9140
▁नामित	-9141
▁लम्बा	-9142
▁शाश्व	-9143
▁सुप्र	-9144
▁ग्यारह	-9145
▁सेवाएँ	-9146
▁एनआईओएस	-9147
▁प्रमाणन	-9148
▁नामनिर्देश	-9149
▁परिस्थितियां	-9150
ध्द	-9151
ोत्	-9152
क्के	-9153
▁हड्ड	-9154
क्ताओं	-9155
▁चालुक	-9156
▁सहेजें	-9157
▁संप्रती	-9158
▁जानबूझकर	-9159
▁प्रतिमान	-9160
▁प्रेमचन्द	-9161
▁विश्वव्यापी	-9162
ँची	-9163
ङ्ग	-9164
सम्	-9165
िगर	-9166
▁असा	-9167
▁सत्	-9168
ट्रिक	-9169
निवेश	-9170
▁तिरु	-9171
▁फ़िर	-9172
▁गुलाम	-9173
▁दशाओं	-9174
▁भिक्ष	-9175
▁मिश्र	-9176
▁विक्ष	-9177
▁उद्धरण	-9178
▁ज़रूरी	-9179
▁दुबारा	-9180
▁परिप्रेक्ष्य	-9181
▁57	-9182
▁ढ़	-9183
क्रेट	-9184
▁कमिश	-9185
▁फ्री	-9186
▁बांड	-9187
▁सहभा	-9188
▁परवाह	-9189
▁जिन्ना	-9190
▁पकड़ने	-9191
▁मुद्रक	-9192
▁काल्पनिक	-9193
▁निदेशालय	-9194
▁भविष्यवाणी	-9195
▁पुनर्विलोकन	-9196
ोहण	-9197
▁अरे	-9198
▁टाल	-9199
▁तरा	-9200
▁1938	-9201
▁1955	-9202
▁1977	-9203
▁उद्घ	-9204
▁निवल	-9205
▁सपने	-9206
▁इलाके	-9207
▁वर्ल्ड	-9208
▁संरक्षक	-9209
▁सुप्रीम	-9210
▁अहमदाबाद	-9211
▁सिंगापुर	-9212
▁प्रोग्रामिंग	-9213
ोभ	-9214
ist	-9215
इंट	-9216
चों	-9217
जील	-9218
▁अमी	-9219
▁घेरे	-9220
▁बताई	-9221
▁हरेक	-9222
पोरेशन	-9223
▁उजागर	-9224
▁खेलों	-9225
▁स्पेन	-9226
▁हफ्ते	-9227
▁घटनाएं	-9228
▁दिशानि	-9229
▁निरर्थ	-9230
▁आवृत्ति	-9231
▁पात्रों	-9232
▁बाध्यता	-9233
▁अत्याचार	-9234
▁कन्वेंशन	-9235
▁वास्तुकला	-9236
▁प्रतिपूर्ति	-9237
लाभ	-9238
य्या	-9239
ालीस	-9240
▁120	-9241
▁अंज	-9242
▁हनु	-9243
▁अंडा	-9244
▁ढलान	-9245
▁सचेत	-9246
▁दिखाना	-9247
▁मानचित्र	-9248
▁छत्तीसगढ़	-9249
▁मध्यवर्ती	-9250
ob	-9251
▁05	-9252
▁खाम	-9253
▁झेल	-9254
▁मौन	-9255
▁कपास	-9256
▁ब्ला	-9257
▁श्ले	-9258
▁सजीव	-9259
▁डालता	-9260
▁डालते	-9261
▁डीएनए	-9262
▁वर्षीय	-9263
▁व्यतीत	-9264
▁सीमेंट	-9265
▁पौराणिक	-9266
▁करनेवाले	-9267
▁प्रायोजित	-9268
▁अप्रत्याशित	-9269
▁२५	-9270
कथित	-9271
जिये	-9272
▁अड़	-9273
▁शिल	-9274
▁हज़	-9275
▁कटाई	-9276
▁गायब	-9277
▁निःश	-9278
▁पीछा	-9279
▁शर्म	-9280
▁धूम्र	-9281
▁बैठकर	-9282
▁शिश्न	-9283
▁कानपुर	-9284
▁मानवाधिकार	-9285
ुदेव	-9286
▁नाव	-9287
▁बाघ	-9288
षिद्ध	-9289
िश्रण	-9290
▁दस्त	-9291
▁कालाव	-9292
▁यमुना	-9293
▁सब्सि	-9294
▁अस्त्र	-9295
▁स्नायु	-9296
▁फाउंडेशन	-9297
▁यूनाइटेड	-9298
▁कार्यकर्ताओं	-9299
दो	-9300
▁छल	-9301
गरों	-9302
रणीय	-9303
▁1952	-9304
▁इटली	-9305
▁घंटा	-9306
▁चार्	-9307
▁तेजा	-9308
▁वल्ल	-9309
▁कन्या	-9310
▁बढाने	-9311
▁ख्याति	-9312
▁दिशाओं	-9313
▁अरुणाचल	-9314
▁वैधानिक	-9315
▁पासपोर्ट	-9316
▁दिशानिर्देश	-9317
ीर	-9318
ॉं	-9319
ाम्	-9320
ूति	-9321
▁खुदरा	-9322
▁जिक्र	-9323
▁पक्का	-9324
▁रियास	-9325
▁जंगलों	-9326
▁मतदाता	-9327
▁आश्वस्त	-9328
▁अनुरक्षण	-9329
▁उत्तेजना	-9330
▁क्रमादेश	-9331
▁आत्मनिर्भ	-9332
▁अनुयायियों	-9333
्क	-9334
ंगर	-9335
ंदे	-9336
भीत	-9337
मयी	-9338
▁अछ	-9339
▁असु	-9340
▁कैप	-9341
▁समन	-9342
न्नति	-9343
▁निका	-9344
▁ऑपरेट	-9345
▁जोरदार	-9346
▁विवेका	-9347
▁अधिकथित	-9348
▁पूर्वानु	-9349
▁यांत्रिक	-9350
▁रजिस्ट्र	-9351
▁पंचवर्षीय	-9352
▁राष्ट्रीयता	-9353
यो	-9354
गोश	-9355
बिट	-9356
▁शाक	-9357
▁रूसी	-9358
▁पहलों	-9359
▁क्योकि	-9360
▁लक्षित	-9361
▁कलात्मक	-9362
▁खुशहाली	-9363
▁तकनीकों	-9364
▁कलाकारों	-9365
▁संदर्भित	-9366
▁कार्यशाला	-9367
कूट	-9368
च्य	-9369
▁aa	-9370
माना	-9371
▁उपजा	-9372
▁मेले	-9373
▁लीला	-9374
▁सर्प	-9375
▁मुर्ग	-9376
▁लगाते	-9377
▁नियोजक	-9378
▁स्वरुप	-9379
ोंग	-9380
▁कछ	-9381
ोगिक	-9382
▁दीन	-9383
.2012	-9384
▁अंगी	-9385
▁चिट्	-9386
▁पद्म	-9387
▁जीवनी	-9388
▁नाजुक	-9389
▁रक्षक	-9390
▁तत्समय	-9391
▁बिहारी	-9392
▁भाइयों	-9393
▁शाश्वत	-9394
▁अवस्थाओं	-9395
▁पंचायतों	-9396
▁पत्तियों	-9397
▁अपरिहार्य	-9398
.01	-9399
ोधी	-9400
▁67	-9401
▁95	-9402
▁कस्	-9403
▁भला	-9404
▁लाज	-9405
▁शिर	-9406
बिनेट	-9407
▁उभार	-9408
▁मादक	-9409
▁रूढ़	-9410
▁शाहज	-9411
▁जिनको	-9412
▁निष्क	-9413
▁मक्का	-9414
▁छुटकारा	-9415
▁निम्नतर	-9416
▁वृक्षों	-9417
▁समाजवाद	-9418
▁पीड़ितों	-9419
▁श्रद्धां	-9420
▁श्रीकृष्ण	-9421
▁शताब्दियों	-9422
▁अर्थशास्त्र	-9423
षद	-9424
णीय	-9425
मुझे	-9426
रहित	-9427
ात्य	-9428
▁अन्	-9429
▁एटी	-9430
▁डिब	-9431
▁नक़	-9432
▁बाप	-9433
▁हेम	-9434
▁चढ़ा	-9435
▁दरें	-9436
▁पूछे	-9437
▁बस्त	-9438
▁कब्जे	-9439
▁जयपुर	-9440
▁निपटा	-9441
▁निषेध	-9442
▁माणिक	-9443
▁जागरूक	-9444
▁अभिनेता	-9445
▁जुर्माने	-9446
▁समायोजित	-9447
▁साम्राज्यवाद	-9448
EE	-9449
ंशी	-9450
डेट	-9451
▁हौ	-9452
▁कंक	-9453
▁खाई	-9454
त्रिक	-9455
▁जवान	-9456
▁सिटी	-9457
▁बढ़ना	-9458
▁दर्शित	-9459
▁हालाँकि	-9460
▁प्रतिबंधित	-9461
्तों	-9462
▁इलै	-9463
▁खुर	-9464
▁घेर	-9465
▁बिछ	-9466
▁शैल	-9467
▁2017	-9468
▁चौथे	-9469
▁चौदह	-9470
▁सबका	-9471
▁स्का	-9472
▁आंत्र	-9473
▁दर्जे	-9474
▁यौगिक	-9475
▁सापेक्ष	-9476
▁स्वर्गी	-9477
कने	-9478
ग्व	-9479
ारस	-9480
▁टूल	-9481
▁दुक	-9482
▁बगी	-9483
▁लौह	-9484
भक्ति	-9485
विन्द	-9486
▁1969	-9487
▁डिजी	-9488
▁तरफ़	-9489
▁धुंध	-9490
▁क्लास	-9491
▁मुर्गी	-9492
▁लाभप्रद	-9493
▁त्रिपुरा	-9494
▁अपेक्षाओं	-9495
थर	-9496
मील	-9497
▁st	-9498
▁183	-9499
▁गंग	-9500
▁रेत	-9501
▁साई	-9502
त्नों	-9503
▁ठेके	-9504
▁फार्	-9505
▁मुहा	-9506
▁रोटी	-9507
▁संसू	-9508
वर्तित	-9509
▁चुनने	-9510
▁चौथाई	-9511
▁तुलसी	-9512
▁स्क्र	-9513
▁ऑपरेशन	-9514
▁पहचाना	-9515
▁प्रचलन	-9516
▁बढ़िया	-9517
▁संकेतों	-9518
▁इस्लामिक	-9519
18	-9520
ey	-9521
ोफ	-9522
ीदा	-9523
ूरक	-9524
▁69	-9525
▁कैद	-9526
▁आलोक	-9527
▁एंटी	-9528
▁अहसास	-9529
▁एकांत	-9530
▁जातीय	-9531
▁पश्चा	-9532
▁पंचांग	-9533
▁इकाइयां	-9534
▁संस्थित	-9535
▁स्वर्गीय	-9536
ँव	-9537
ढी	-9538
कोच	-9539
ीयों	-9540
▁मामल	-9541
▁फोल्डर	-9542
▁परिपत्र	-9543
▁प्रतिरूप	-9544
▁परिपक्वता	-9545
▁सशक्तीकरण	-9546
▁साफ्टवेयर	-9547
तुर	-9548
तौर	-9549
्यूम	-9550
▁झार	-9551
▁तूफ	-9552
▁बकर	-9553
▁आएगा	-9554
▁गाथा	-9555
▁पारे	-9556
▁मारा	-9557
▁विषम	-9558
▁कथाओं	-9559
▁करुणा	-9560
▁नगरों	-9561
▁गुप्ता	-9562
▁महाप्र	-9563
▁आदिवासी	-9564
▁इंस्टीट	-9565
▁पहुँचने	-9566
▁स्तंभों	-9567
▁विशिष्टता	-9568
▁आत्मविश्वास	-9569
17	-9570
खल	-9571
नक	-9572
ear	-9573
यता	-9574
सेफ	-9575
▁कुर	-9576
▁झूठ	-9577
▁टैग	-9578
▁हर्	-9579
मेन्ट	-9580
स्फीति	-9581
▁बैटरी	-9582
▁मल्टी	-9583
▁वेदों	-9584
▁कराधान	-9585
▁जुटाने	-9586
▁स्मार्ट	-9587
▁वर्षगांठ	-9588
ँसी	-9589
ुका	-9590
▁250	-9591
▁आदम	-9592
▁०००	-9593
▁अनुभ	-9594
▁अस्व	-9595
▁त्यो	-9596
▁दादी	-9597
▁पीले	-9598
▁व्रत	-9599
▁समया	-9600
▁अपहरण	-9601
▁क्रिस	-9602
▁डेविड	-9603
▁तुल्य	-9604
▁नामंज	-9605
▁बस्ती	-9606
▁बूढ़े	-9607
▁सीखना	-9608
▁अरविंद	-9609
▁गर्भाव	-9610
▁जोड़ना	-9611
▁प्रकटन	-9612
▁उच्छेदन	-9613
▁पूंजीगत	-9614
▁राजनयिक	-9615
▁सैकड़ों	-9616
▁स्टार्ट	-9617
▁धूम्रपान	-9618
▁प्रेमचंद	-9619
▁व्यक़्ति	-9620
▁भावनात्मक	-9621
ct	-9622
.07	-9623
डित	-9624
वटी	-9625
▁78	-9626
▁97	-9627
ंदाज	-9628
▁तैर	-9629
पृष्ठ	-9630
वालों	-9631
मुक्ति	-9632
▁नम्बर	-9633
▁बढावा	-9634
▁मंजिल	-9635
▁लीजिए	-9636
िपीडिया	-9637
▁करवाया	-9638
▁चेष्टा	-9639
▁केन्द्री	-9640
▁प्रॉक्सी	-9641
▁अधिनिर्णय	-9642
▁सहिष्णुता	-9643
▁श्रद्धांजलि	-9644
▁ओज	-9645
▁डु	-9646
सूची	-9647
ालाल	-9648
ूंगी	-9649
▁अवश	-9650
▁फ़र	-9651
▁भटक	-9652
▁मसौ	-9653
▁दलील	-9654
▁म्यू	-9655
▁लोहे	-9656
▁विस्	-9657
▁२००८	-9658
पक्षीय	-9659
▁ऊँचाई	-9660
▁खर्चा	-9661
▁जरिये	-9662
▁पाएंगे	-9663
▁मेगावाट	-9664
▁प्रोफाइल	-9665
▁सिद्धदोष	-9666
▁प्रादेशिक	-9667
▁कार्यकर्ता	-9668
ip	-9669
and	-9670
मैं	-9671
बाज़	-9672
▁लूट	-9673
विदों	-9674
ोरिया	-9675
▁1930	-9676
▁उठाते	-9677
▁कराते	-9678
▁भयभीत	-9679
▁वैद्य	-9680
▁पहुँचे	-9681
▁मेडिकल	-9682
▁अखबारों	-9683
▁अभयारण्य	-9684
▁संक्रामक	-9685
▁सब्जियों	-9686
▁बुद्धिमान	-9687
मह	-9688
ंजक	-9689
समूह	-9690
▁124	-9691
▁खां	-9692
▁चौक	-9693
▁नाच	-9694
नीयता	-9695
▁1975	-9696
▁उड़ा	-9697
▁ऑफिस	-9698
▁हमास	-9699
▁झुकाव	-9700
▁तलवार	-9701
▁पर्दा	-9702
▁वर्गम	-9703
▁वर्गा	-9704
▁अल्लाह	-9705
▁तिमाही	-9706
▁किस्मों	-9707
▁कामगारों	-9708
▁कट्टरपंथी	-9709
▁अत्यावश्यक	-9710
ंन	-9711
फु	-9712
ल्थ	-9713
स्स	-9714
▁89	-9715
चकों	-9716
जन्य	-9717
ुकता	-9718
▁जनन	-9719
▁टेक	-9720
▁टोक	-9721
▁पतली	-9722
▁लाये	-9723
▁डालें	-9724
▁पत्ते	-9725
▁रोबोट	-9726
▁एकाग्र	-9727
▁कविताएं	-9728
▁वर्गमूल	-9729
▁वियतनाम	-9730
▁प्रभारित	-9731
डोर	-9732
▁कत	-9733
/201	-9734
गारी	-9735
मिया	-9736
▁दुस	-9737
▁लसी	-9738
▁NAME	-9739
▁करोड	-9740
▁चाचा	-9741
▁पैदल	-9742
▁राजप	-9743
ड़ियां	-9744
▁कुष्ठ	-9745
▁गिनती	-9746
▁दुर्ग	-9747
▁धरोहर	-9748
वर्सिटी	-9749
▁दिखाता	-9750
▁मापदंड	-9751
▁विलम्ब	-9752
▁समकक्ष	-9753
▁हाइड्र	-9754
▁पृष्ठों	-9755
▁विलक्षण	-9756
ंतक	-9757
झान	-9758
▁06	-9759
▁लह	-9760
▁३०	-9761
▁PRO	-9762
▁चैन	-9763
▁सिग	-9764
▁असुर	-9765
▁इजाज	-9766
▁इसमे	-9767
▁कलाम	-9768
▁घिरा	-9769
▁चरित	-9770
▁नोडल	-9771
▁आँखें	-9772
▁इंसान	-9773
▁होस्ट	-9774
त्तियां	-9775
▁ड्रग्स	-9776
▁कालावधि	-9777
▁वचनबद्ध	-9778
▁प्रबन्धन	-9779
▁संक्रमित	-9780
ुज	-9781
सीए	-9782
▁चढ	-9783
▁नहर	-9784
▁वीं	-9785
▁सिम	-9786
▁हुक	-9787
▁हें	-9788
्लेषण	-9789
▁आईडी	-9790
▁क्षै	-9791
▁प्रक	-9792
▁मेला	-9793
▁साहा	-9794
णात्मक	-9795
▁कार्प	-9796
▁खरगोश	-9797
▁चालीस	-9798
▁वेस्ट	-9799
▁सेकंड	-9800
▁नीलामी	-9801
▁भूमिगत	-9802
▁मुखिया	-9803
▁अनुयायी	-9804
▁तथाकथित	-9805
▁त्योहार	-9806
▁शीघ्रता	-9807
▁न्यायोचित	-9808
▁प्रतिष्ठान	-9809
ख्श	-9810
गिन	-9811
षाण	-9812
▁ओं	-9813
वाइस	-9814
▁con	-9815
▁पला	-9816
▁बाण	-9817
▁वोट	-9818
▁सरो	-9819
▁सिड	-9820
▁1983	-9821
▁अम्ब	-9822
▁निया	-9823
▁फ़ाइ	-9824
▁मधुम	-9825
▁अंकों	-9826
▁अपनाए	-9827
▁अभ्या	-9828
▁ग्रेड	-9829
▁वायदा	-9830
▁किताबें	-9831
▁अपराधियों	-9832
▁पाश्चात्य	-9833
ंए	-9834
और	-9835
खने	-9836
जना	-9837
ेषण	-9838
िपरि	-9839
▁उठी	-9840
▁रुख	-9841
विवाह	-9842
▁आप्र	-9843
▁इष्ट	-9844
▁जीता	-9845
▁फायर	-9846
▁साम्	-9847
स्तरीय	-9848
▁दुर्व	-9849
▁परिशि	-9850
▁	-9851
ा	-9852
क	-9853
र	-9854
्	-9855
े	-9856
ि	-9857
न	-9858
स	-9859
त	-9860
ं	-9861
ी	-9862
ह	-9863
य	-9864
म	-9865
प	-9866
ो	-9867
व	-9868
ल	-9869
द	-9870
ज	-9871
ग	-9872
ै	-9873
ु	-9874
ब	-9875
अ	-9876
श	-9877
ध	-9878
ए	-9879
च	-9880
भ	-9881
।	-9882
थ	-9883
ू	-9884
ट	-9885
,	-9886
ष	-9887
उ	-9888
आ	-9889
ण	-9890
ड	-9891
औ	-9892
इ	-9893
ख	-9894
.	-9895
़	-9896
-	-9897
ई	-9898
फ	-9899
1	-9900
छ	-9901
ृ	-9902
0	-9903
)	-9904
(	-9905
ौ	-9906
2	-9907
ओ	-9908
ठ	-9909
घ	-9910
9	-9911
ँ	-9912
4	-9913
ऐ	-9914
ढ	-9915
झ	-9916
3	-9917
5	-9918
ः	-9919
e	-9920
ॉ	-9921
i	-9922
a	-9923
/	-9924
8	-9925
6	-9926
'	-9927
7	-9928
ञ	-9929
t	-9930
;	-9931
s	-9932
r	-9933
n	-9934
:	-9935
ऊ	-9936
?	-9937
o	-9938
h	-9939
ऋ	-9940
l	-9941
p	-9942
०	-9943
”	-9944
m	-9945
१	-9946
c	-9947
d	-9948
“	-9949
ऑ	-9950
%	-9951
u	-9952
‘	-9953
>	-9954
"	-9955
&	-9956
A	-9957
२	-9958
’	-9959
#	-9960
w	-9961
E	-9962
g	-9963
f	-9964
S	-9965
I	-9966
९	-9967
b	-9968
!	-9969
T	-9970
<	-9971
R	-9972
y	-9973
k	-9974
५	-9975
v	-9976
C	-9977
M	-9978
३	-9979
P	-9980
N	-9981
४	-9982
८	-9983
६	-9984
–	-9985
७	-9986
O	-9987
D	-9988
L	-9989
]	-9990
x	-9991
[	-9992
_	-9993
B	-9994
ङ	-9995
G	-9996
