<unk>	0
<s>	0
</s>	0
▁क	-0
▁स	-1
▁ह	-2
▁प	-3
▁म	-4
्र	-5
ार	-6
▁के	-7
▁अ	-8
▁व	-9
▁है	-10
्य	-11
ें	-12
▁ज	-13
▁न	-14
▁।	-15
ों	-16
▁ब	-17
या	-18
▁द	-19
र्	-20
▁,	-21
▁में	-22
ता	-23
▁उ	-24
ान	-25
▁ल	-26
▁प्र	-27
▁र	-28
िक	-29
▁की	-30
▁आ	-31
▁औ	-32
ने	-33
▁कि	-34
▁कर	-35
▁त	-36
्त	-37
▁और	-38
ित	-39
▁को	-40
▁का	-41
▁भ	-42
▁से	-43
ना	-44
▁ग	-45
▁इ	-46
▁पर	-47
▁वि	-48
्व	-49
▁ए	-50
▁.	-51
▁य	-52
▁हो	-53
▁सं	-54
▁श	-55
ाल	-56
▁-	-57
था	-58
िय	-59
िए	-60
्ष	-61
▁च	-62
▁इस	-63
ति	-64
▁हैं	-65
्ट	-66
▁एक	-67
▁सम	-68
्या	-69
ही	-70
▁जा	-71
न्	-72
ती	-73
▁लिए	-74
ते	-75
ाम	-76
स्	-77
वा	-78
▁नि	-79
के	-80
हा	-81
ड़	-82
त्र	-83
▁अप	-84
िया	-85
क्ष	-86
ोग	-87
▁अध	-88
सी	-89
से	-90
▁अन	-91
▁रा	-92
हीं	-93
▁दे	-94
िल	-95
▁या	-96
▁यह	-97
▁भी	-98
▁नहीं	-99
▁)	-100
▁(	-101
▁ख	-102
ारा	-103
ाह	-104
ास	-105
▁1	-106
कार	-107
▁किया	-108
▁जो	-109
▁ने	-110
री	-111
नी	-112
ष्ट	-113
रा	-114
क्त	-115
▁करने	-116
त्	-117
ंग	-118
का	-119
▁सा	-120
िन	-121
▁कार	-122
▁स्	-123
▁फ	-124
▁उस	-125
ेश	-126
▁उप	-127
▁थ	-128
द्	-129
ियों	-130
िस	-131
▁हम	-132
▁बा	-133
कर	-134
ले	-135
▁सक	-136
▁मु	-137
ला	-138
▁तथा	-139
ंध	-140
ाय	-141
▁ध	-142
ंत	-143
▁उन	-144
ूप	-145
▁था	-146
गा	-147
की	-148
▁ही	-149
▁भार	-150
▁अनु	-151
▁हु	-152
ूर्	-153
ाने	-154
भा	-155
मा	-156
्च	-157
▁द्व	-158
सा	-159
ओं	-160
▁सु	-161
्री	-162
▁गया	-163
ंद	-164
▁ले	-165
स्त	-166
▁2	-167
▁ऐ	-168
▁अधिक	-169
वि	-170
▁कु	-171
▁स्व	-172
द्ध	-173
▁आप	-174
ंड	-175
▁किसी	-176
▁तो	-177
▁ड	-178
▁रूप	-179
▁व्य	-180
▁द्वारा	-181
ल्	-182
▁राज	-183
▁विश	-184
ारी	-185
▁रह	-186
▁निर्	-187
म्	-188
▁वह	-189
ीन	-190
ोज	-191
द्य	-192
▁कार्य	-193
ाप	-194
ैं	-195
न्ह	-196
बंध	-197
देश	-198
▁अपने	-199
▁प्रति	-200
▁वाल	-201
धार	-202
रे	-203
ली	-204
त्त	-205
▁भा	-206
▁वर्	-207
▁परि	-208
▁पु	-209
▁वे	-210
▁पह	-211
▁ट	-212
भी	-213
▁घ	-214
योग	-215
▁चाह	-216
▁जिस	-217
▁साथ	-218
▁छ	-219
ार्	-220
ाना	-221
रण	-222
▁तक	-223
▁क्ष	-224
▁भारत	-225
क्ति	-226
ंत्र	-227
▁न्या	-228
में	-229
ारे	-230
दि	-231
▁स्थ	-232
क्र	-233
▁उन्ह	-234
जी	-235
कि	-236
▁राष्ट	-237
िर	-238
▁जाता	-239
दा	-240
▁/	-241
गी	-242
▁करना	-243
दी	-244
▁अव	-245
▁मह	-246
▁दो	-247
स्थ	-248
ष्	-249
▁मा	-250
ृत	-251
ूल	-252
▁थे	-253
ियम	-254
ुत	-255
चार	-256
▁कुछ	-257
▁सर	-258
▁मे	-259
▁'	-260
▁बह	-261
ढ़	-262
▁साम	-263
▁कोई	-264
खा	-265
नों	-266
▁थी	-267
ब्	-268
▁पा	-269
ंच	-270
▁ला	-271
िश	-272
▁सि	-273
▁मैं	-274
च्च	-275
▁सी	-276
मान	-277
▁होता	-278
▁दिया	-279
▁विक	-280
▁19	-281
्ञ	-282
▁जी	-283
्यों	-284
ुर	-285
▁सकता	-286
्छ	-287
ूर	-288
▁जब	-289
्रे	-290
ूर्ण	-291
ेत्र	-292
▁;	-293
गे	-294
न्द	-295
धि	-296
पा	-297
जा	-298
वर्	-299
न्न	-300
ाप्त	-301
ये	-302
▁इन	-303
िका	-304
▁मान	-305
र्थ	-306
▁बी	-307
▁समय	-308
▁कम	-309
▁संबंध	-310
▁क्षेत्र	-311
▁अभ	-312
ोक	-313
ीय	-314
▁मिल	-315
▁करते	-316
वे	-317
▁हुए	-318
▁जै	-319
हां	-320
▁करता	-321
भाव	-322
▁अंत	-323
कों	-324
▁न्याया	-325
धान	-326
▁सू	-327
▁अन्य	-328
गर	-329
च्छ	-330
▁सरकार	-331
वन	-332
▁पू	-333
▁लोग	-334
र्म	-335
क्षा	-336
▁राष्ट्र	-337
▁जाए	-338
▁बना	-339
▁:	-340
स्था	-341
ेष	-342
▁अपनी	-343
▁देश	-344
▁उत्	-345
नि	-346
▁चाहिए	-347
िप	-348
▁हि	-349
त्य	-350
▁3	-351
ोट	-352
्रीय	-353
▁20	-354
दान	-355
▁तर	-356
▁?	-357
▁सह	-358
▁प्रा	-359
्रा	-360
▁रहे	-361
▁राज्य	-362
▁उनके	-363
▁वर्ष	-364
▁रहा	-365
▁रख	-366
ज्ञ	-367
क्	-368
▁विश्व	-369
▁सम्	-370
ूर्व	-371
▁4	-372
▁बहुत	-373
चना	-374
▁होने	-375
▁गई	-376
गत	-377
▁वाले	-378
ज़	-379
को	-380
र्श	-381
लय	-382
▁बाद	-383
▁बात	-384
▁गु	-385
ूस	-386
▁प्राप्त	-387
तीय	-388
पति	-389
▁करें	-390
▁कहा	-391
▁ओ	-392
िक्ष	-393
▁दी	-394
श्य	-395
▁बन	-396
▁सभी	-397
करण	-398
वं	-399
दन	-400
▁जाने	-401
▁प्रकार	-402
▁उसके	-403
ौर	-404
▁सब	-405
ड़ा	-406
स्ता	-407
▁ऊ	-408
ेल	-409
ुक्त	-410
ोंने	-411
▁आय	-412
िव	-413
ुल	-414
ंक	-415
▁ऐसे	-416
▁होती	-417
िम	-418
ानी	-419
िख	-420
एं	-421
ोध	-422
जन	-423
▁व्यक्ति	-424
पूर्ण	-425
िति	-426
▁देख	-427
▁न्यायालय	-428
ड़ी	-429
▁पी	-430
▁चु	-431
▁कारण	-432
▁भारतीय	-433
ंप	-434
धिक	-435
ालय	-436
्ल	-437
▁लग	-438
ोल	-439
श्च	-440
▁तरह	-441
त्म	-442
▁होगा	-443
▁जि	-444
▁हुआ	-445
▁अधिन	-446
▁प्रश	-447
▁जन	-448
▁गए	-449
▁कह	-450
ध्य	-451
▁व्या	-452
▁इसके	-453
▁राष्ट्रपति	-454
▁विकास	-455
▁एवं	-456
द्योग	-457
▁उसे	-458
▁पूर्व	-459
ग्र	-460
▁सकते	-461
▁किए	-462
ड़े	-463
बा	-464
▁अधिनियम	-465
िट	-466
▁अनुस	-467
▁वा	-468
▁उन्हें	-469
▁माम	-470
▁उन्होंने	-471
▁आव	-472
▁यदि	-473
मी	-474
▁ना	-475
▁मूल	-476
▁क्या	-477
▁धारा	-478
▁नी	-479
िये	-480
▁दूस	-481
वी	-482
बर	-483
▁पहले	-484
र्व	-485
▁नाम	-486
किन	-487
तन	-488
▁अस	-489
▁काम	-490
▁दु	-491
▁आर	-492
▁जान	-493
त्व	-494
वल	-495
▁विचार	-496
ोजना	-497
▁लेकिन	-498
वाद	-499
िता	-500
▁ऐसा	-501
▁उच्च	-502
क्रम	-503
तिक	-504
▁ता	-505
▁विशेष	-506
मे	-507
▁समा	-508
▁हू	-509
▁क्र	-510
▁स्थान	-511
माण	-512
ुद्ध	-513
्यू	-514
▁ई	-515
तर	-516
झे	-517
चित	-518
ाली	-519
▁मुख	-520
▁ग्र	-521
धा	-522
श्यक	-523
▁स्त	-524
▁जाती	-525
▁बि	-526
▁ऐसी	-527
▁आधार	-528
ंट	-529
▁बढ़	-530
कृत	-531
िला	-532
▁लोगों	-533
ष्ठ	-534
पर	-535
्ड	-536
सर	-537
ूम	-538
▁निय	-539
▁पै	-540
▁अधिकार	-541
▁अब	-542
▁स्था	-543
न्त	-544
▁बारे	-545
▁भाग	-546
यी	-547
▁हमारे	-548
ां	-549
▁जीवन	-550
▁ये	-551
ोर	-552
▁आवश्यक	-553
▁बे	-554
िंग	-555
▁निक	-556
▁उनकी	-557
▁वै	-558
षण	-559
लों	-560
्स	-561
ियां	-562
▁अधीन	-563
ास्त	-564
▁जैसे	-565
▁प्रभाव	-566
▁सेवा	-567
▁समझ	-568
▁तु	-569
ाइ	-570
ोप	-571
▁शिक्ष	-572
▁होते	-573
▁उत्त	-574
ील	-575
ोर्	-576
क्षण	-577
िन्न	-578
▁5	-579
▁उपयोग	-580
▁सद	-581
▁हुई	-582
▁बार	-583
▁मन	-584
▁व्यव	-585
▁दिन	-586
▁रु	-587
▁क्यों	-588
▁मुझे	-589
प्र	-590
▁ओर	-591
▁केवल	-592
निक	-593
षा	-594
कृ	-595
ार्थ	-596
▁फिर	-597
टा	-598
ची	-599
▁जाना	-600
▁रही	-601
दार	-602
टी	-603
▁अल	-604
हाय	-605
▁कृ	-606
ंस	-607
क्रिया	-608
ल्प	-609
▁ठ	-610
ुद	-611
ख्या	-612
▁बीच	-613
▁जिन	-614
ंभ	-615
▁अथ	-616
▁प्रदान	-617
▁प्रयोग	-618
▁बाह	-619
ेक	-620
रों	-621
ताओं	-622
रिक	-623
▁सहाय	-624
▁श्री	-625
कारी	-626
▁चल	-627
वाह	-628
▁उत्पा	-629
ेत	-630
▁ढ	-631
चा	-632
ंब	-633
यन	-634
▁दृ	-635
िल्	-636
▁विर	-637
▁प्रत्य	-638
तः	-639
▁अथवा	-640
▁देने	-641
▁हों	-642
▁पुर	-643
▁पार	-644
मु	-645
तम	-646
धी	-647
वेश	-648
▁पास	-649
वार	-650
▁वाली	-651
ज्ञान	-652
▁“	-653
शन	-654
ून	-655
▁लोक	-656
कर्	-657
्न	-658
▁प्रक्रिया	-659
▁विभ	-660
▁खा	-661
▁जिसमें	-662
▁सो	-663
▁अपना	-664
▁निर्धार	-665
फल	-666
▁लगा	-667
लब्	-668
00	-669
▁विधि	-670
▁कै	-671
हार	-672
▁दोनों	-673
भव	-674
▁जहां	-675
दर्श	-676
▁s	-677
▁सकती	-678
▁स्प	-679
▁इसे	-680
▁उपलब्	-681
▁कंप	-682
ब्द	-683
त्ता	-684
पित	-685
▁करती	-686
▁राष्ट्रीय	-687
▁200	-688
णी	-689
▁निर	-690
▁व्याप	-691
व्य	-692
▁पश्च	-693
त्मक	-694
▁न्याय	-695
▁होना	-696
ेद	-697
▁झ	-698
ित्र	-699
▁महत्व	-700
▁तब	-701
▁पुन	-702
▁उसकी	-703
ेज	-704
▁पहु	-705
▁%	-706
टर	-707
▁सके	-708
▁बद	-709
▁सदस	-710
▁प्रण	-711
फ़	-712
▁संग	-713
▁योजना	-714
हाँ	-715
द्योगिक	-716
मिक	-717
▁विष	-718
ुक	-719
▁सामान	-720
युक्त	-721
▁करे	-722
▁हा	-723
▁हर	-724
ूत	-725
▁बै	-726
▁मौ	-727
त्रा	-728
▁अर्थ	-729
भाग	-730
▁लिया	-731
ोड़	-732
▁सबसे	-733
▁अच्छ	-734
▁वृ	-735
दे	-736
पी	-737
▁प्रे	-738
▁बैं	-739
▁उपलब्ध	-740
▁क्योंकि	-741
▁मुख्य	-742
▁फ़	-743
▁ऑ	-744
▁स्वा	-745
▁शिक्षा	-746
▁अर्	-747
▁वित	-748
▁शुर	-749
▁हमें	-750
▁जाते	-751
ंतु	-752
▁अंतर	-753
▁संबंधित	-754
ात	-755
▁पद	-756
▁पत्र	-757
ण्ड	-758
▁हूं	-759
▁उद्	-760
▁सूचना	-761
▁जर	-762
▁छोट	-763
▁बच्च	-764
ोजन	-765
ोह	-766
▁स्थिति	-767
▁१	-768
बी	-769
श्व	-770
शा	-771
▁दौर	-772
तंत्र	-773
▁ब्र	-774
▁अंग	-775
▁6	-776
▁कभी	-777
ामी	-778
िखा	-779
न्द्र	-780
▁प्रस	-781
▁वस्त	-782
वरण	-783
स्ट	-784
▁लिख	-785
चे	-786
▁स्ट	-787
कृति	-788
▁अति	-789
▁विषय	-790
▁i	-791
▁अनुसार	-792
▁अध्य	-793
▁नियम	-794
▁तै	-795
ंज	-796
ाला	-797
ष्टि	-798
ेट	-799
▁आज	-800
▁केंद	-801
▁जु	-802
▁शाम	-803
▁योग	-804
▁इसल	-805
ित्व	-806
▁उठ	-807
▁सहायता	-808
तों	-809
▁वास्त	-810
र्क	-811
▁कई	-812
▁उत्तर	-813
▁201	-814
▁सुर	-815
▁लिये	-816
▁शक्ति	-817
▁भाषा	-818
▁शब्द	-819
▁यु	-820
▁व्यक्त	-821
▁मै	-822
▁विभिन्न	-823
त्ति	-824
▁सर्व	-825
्यान	-826
▁जाएगा	-827
▁भूम	-828
▁दा	-829
नेक	-830
▁ऋ	-831
▁मामले	-832
▁दूसरे	-833
▁अगर	-834
ेय	-835
स्थान	-836
▁गा	-837
▁सामान्य	-838
रूप	-839
▁स्वी	-840
ासन	-841
▁बु	-842
▁मंत्र	-843
फी	-844
▁इत	-845
काश	-846
िस्ट	-847
▁इसलिए	-848
▁दौरान	-849
▁उसका	-850
▁7	-851
हर	-852
▁उनका	-853
▁अलग	-854
▁संघ	-855
मुख	-856
धन	-857
▁संप	-858
▁इसका	-859
▁>	-860
▁आई	-861
्म	-862
ोड	-863
▁पूर्ण	-864
▁वाला	-865
▁सुन	-866
▁ज्ञ	-867
▁"	-868
▁शामिल	-869
▁जल	-870
▁पक्ष	-871
▁परिवर्	-872
इट	-873
मत	-874
▁&	-875
ंजी	-876
▁कान	-877
काल	-878
वास	-879
▁विद्य	-880
▁वास्तव	-881
▁आदि	-882
▁तैय	-883
प्त	-884
वान	-885
▁उसने	-886
▁अनेक	-887
▁संस	-888
▁लाभ	-889
क्ट	-890
▁अवसर	-891
▁संख्या	-892
▁8	-893
िज	-894
डी	-895
▁एस	-896
ूह	-897
▁गये	-898
शि	-899
▁तीन	-900
▁h	-901
गम	-902
ुष	-903
▁दर	-904
▁पहुंच	-905
निया	-906
▁उपबंध	-907
ुट	-908
▁महा	-909
▁माध्य	-910
ोर्ट	-911
जार	-912
यं	-913
▁अं	-914
▁बता	-915
टना	-916
ाज	-917
▁जिसे	-918
ेंगे	-919
▁प्रत्येक	-920
▁कल	-921
▁रुप	-922
▁पृ	-923
▁दूर	-924
ृत्य	-925
▁साह	-926
▁सिद्ध	-927
णा	-928
न्तु	-929
▁प्रौ	-930
▁0	-931
शत	-932
▁निर्माण	-933
स्थित	-934
▁प्रया	-935
▁मानव	-936
नीय	-937
स्व	-938
र्इ	-939
▁प्रय	-940
▁समाज	-941
▁यहां	-942
▁उद्योग	-943
द्र	-944
पाल	-945
▁p	-946
▁संर	-947
▁बनाने	-948
▁भर	-949
कट	-950
▁ध्यान	-951
▁कार्यक्रम	-952
ूट	-953
▁होगी	-954
▁संवि	-955
▁उद	-956
▁संस्था	-957
▁महत्वपूर्ण	-958
▁नई	-959
▁वित्त	-960
▁स्पष्ट	-961
▁अंतर्	-962
क्षित	-963
▁आपको	-964
▁संस्	-965
▁मध्य	-966
▁तैयार	-967
▁रोग	-968
▁अग	-969
▁विदेश	-970
ाई	-971
दाय	-972
▁प्रयास	-973
▁जिसके	-974
▁ची	-975
▁स्तर	-976
▁आर्थ	-977
नल	-978
▁वस्तु	-979
बन्	-980
▁धर्म	-981
र्ष	-982
ांत	-983
▁हेत	-984
ग्रह	-985
▁बिना	-986
▁18	-987
सल	-988
▁शुरू	-989
▁‘	-990
▁पता	-991
▁बाहर	-992
▁खु	-993
▁हमारी	-994
▁प्रतिशत	-995
णय	-996
▁देता	-997
▁पि	-998
▁मत	-999
▁आर्थिक	-1000
वादी	-1001
ोन	-1002
▁44	-1003
▁जनता	-1004
▁रे	-1005
▁बैंक	-1006
▁पड़	-1007
▁हेतु	-1008
▁प्रौद्योगिक	-1009
स्या	-1010
▁#	-1011
▁प्रार	-1012
▁अन्त	-1013
्टी	-1014
▁ली	-1015
▁आदेश	-1016
▁भाव	-1017
ोष	-1018
▁विध	-1019
▁शी	-1020
▁समान	-1021
▁इससे	-1022
▁परिण	-1023
▁सौ	-1024
▁कर्म	-1025
▁”	-1026
▁माल	-1027
गू	-1028
▁विन	-1029
पन	-1030
मित	-1031
▁डा	-1032
▁आगे	-1033
▁चार	-1034
▁a	-1035
▁डि	-1036
▁शु	-1037
ठन	-1038
▁लेख	-1039
्ता	-1040
▁करके	-1041
▁चि	-1042
▁श्र	-1043
▁प्रो	-1044
▁सार	-1045
▁संस्थान	-1046
▁गति	-1047
▁आवश्यकता	-1048
▁मार्	-1049
साय	-1050
ूर्ति	-1051
ंह	-1052
धीश	-1053
धारा	-1054
▁देना	-1055
म्ब	-1056
▁बल्	-1057
▁निर्धारित	-1058
▁पर्या	-1059
▁समस्या	-1060
▁सभा	-1061
▁वहां	-1062
▁तुम	-1063
▁इसी	-1064
हास	-1065
त्या	-1066
▁क्षेत्रों	-1067
दिष्ट	-1068
▁इसमें	-1069
▁प्रमुख	-1070
▁विस्त	-1071
▁सीमा	-1072
▁लागू	-1073
▁खंड	-1074
▁उल्	-1075
्यता	-1076
▁निम्	-1077
षि	-1078
▁विश्वास	-1079
▁मज	-1080
▁गयी	-1081
▁निर्णय	-1082
▁नियंत्र	-1083
▁उद्देश	-1084
▁स्वयं	-1085
▁ती	-1086
ाइल	-1087
▁नीति	-1088
▁यू	-1089
मता	-1090
ाजिक	-1091
म्प	-1092
▁रिप	-1093
▁जारी	-1094
द्धि	-1095
ंख	-1096
▁पूरी	-1097
▁आपके	-1098
▁सामाजिक	-1099
▁ज़	-1100
▁प्रकाश	-1101
स्प	-1102
▁9	-1103
▁प्रस्त	-1104
▁मेरे	-1105
▁प्रणाली	-1106
▁काफी	-1107
िष्ट	-1108
▁हाल	-1109
▁आस	-1110
▁प्रस्ता	-1111
िश्च	-1112
▁आध	-1113
विधा	-1114
भग	-1115
▁स्वतंत्र	-1116
▁परिणाम	-1117
ूरी	-1118
▁स्क	-1119
टक	-1120
दों	-1121
▁आया	-1122
▁अपे	-1123
▁पूरा	-1124
▁सुधार	-1125
▁वी	-1126
ालन	-1127
द्व	-1128
▁विभाग	-1129
ेन	-1130
▁प्रबंध	-1131
्यादा	-1132
▁गै	-1133
▁दिखा	-1134
▁प्रौद्योगिकी	-1135
▁कवि	-1136
जू	-1137
re	-1138
तिहास	-1139
हत	-1140
▁कर्	-1141
▁घर	-1142
▁गुण	-1143
▁विनि	-1144
▁मी	-1145
▁समूह	-1146
पि	-1147
▁प्रस्ताव	-1148
वर	-1149
विद्य	-1150
▁गो	-1151
तियों	-1152
शी	-1153
▁स्थापित	-1154
ंदर	-1155
▁हिंद	-1156
ियो	-1157
▁ज्ञान	-1158
ियन	-1159
▁व्यवस्था	-1160
▁10	-1161
▁मूल्य	-1162
▁बैठ	-1163
▁माध्यम	-1164
वेदन	-1165
▁समुद	-1166
▁स्वीकार	-1167
एँ	-1168
बद्ध	-1169
▁लगभग	-1170
क्ष्य	-1171
चन	-1172
▁हाथ	-1173
विद्यालय	-1174
▁कंपनी	-1175
▁मामलों	-1176
▁क्रिया	-1177
रित	-1178
▁भवन	-1179
▁न्यायाधीश	-1180
शोध	-1181
▁पुस्त	-1182
ॉल	-1183
▁वर्ग	-1184
▁जैसा	-1185
▁कठ	-1186
▁आयोग	-1187
मार	-1188
▁सदस्य	-1189
▁दक्ष	-1190
▁सम्म	-1191
▁आम	-1192
▁मृत्य	-1193
▁सर्	-1194
▁हूँ	-1195
न्म	-1196
ीक	-1197
▁अवधि	-1198
▁निष्	-1199
▁सूची	-1200
▁जानकारी	-1201
▁मैंने	-1202
▁ऋण	-1203
▁प्राधिक	-1204
▁रिपोर्ट	-1205
▁सहयोग	-1206
▁बड़ी	-1207
हित	-1208
लेख	-1209
▁सुरक्षा	-1210
▁!	-1211
▁ht	-1212
▁श्रे	-1213
▁अपरा	-1214
▁टी	-1215
इन	-1216
वाई	-1217
▁अत्य	-1218
▁मद	-1219
▁केंद्र	-1220
▁सुविधा	-1221
▁कृषि	-1222
ेर	-1223
▁फै	-1224
er	-1225
▁अम	-1226
▁रंग	-1227
▁कौ	-1228
▁सफल	-1229
्ले	-1230
▁दर्श	-1231
▁संविधान	-1232
▁गण	-1233
▁व्यापार	-1234
▁किस	-1235
▁देशों	-1236
ान्त	-1237
▁समाप्त	-1238
▁बदल	-1239
पन्न	-1240
▁स्थित	-1241
ेशन	-1242
▁जिन्ह	-1243
एस	-1244
त्स	-1245
शील	-1246
▁धन	-1247
धारण	-1248
▁अमे	-1249
च्छेद	-1250
▁विश्वविद्यालय	-1251
ित्य	-1252
▁इसकी	-1253
▁अधिकारी	-1254
▁शरी	-1255
▁अभी	-1256
▁डे	-1257
▁जिससे	-1258
▁जिसका	-1259
▁संबंधी	-1260
▁विज्ञान	-1261
▁कुल	-1262
▁समर्थ	-1263
▁परिवर्तन	-1264
▁चिक	-1265
▁बाल	-1266
▁परी	-1267
▁ठीक	-1268
▁रखने	-1269
स्तान	-1270
▁अर	-1271
▁देते	-1272
▁कोश	-1273
वृ	-1274
तान	-1275
▁तरी	-1276
र्भ	-1277
ोस	-1278
पना	-1279
▁उत्पादन	-1280
ोषण	-1281
▁त्र	-1282
ुग	-1283
भार	-1284
▁रखा	-1285
▁छोड़	-1286
▁अंतर्गत	-1287
▁विशिष्ट	-1288
▁राम	-1289
▁प्रस्तुत	-1290
▁पिछ	-1291
▁महिला	-1292
▁उपधारा	-1293
▁जाये	-1294
▁बड़े	-1295
▁परिय	-1296
विध	-1297
▁आन	-1298
▁उद्देश्य	-1299
20	-1300
▁शै	-1301
▁जग	-1302
▁<	-1303
▁एन	-1304
▁शा	-1305
▁अनुम	-1306
▁ऊपर	-1307
▁परियोजना	-1308
▁अतिरिक	-1309
आई	-1310
टन	-1311
सित	-1312
यर	-1313
दारी	-1314
▁मंद	-1315
▁बल्कि	-1316
▁निश्च	-1317
▁डी	-1318
▁राशि	-1319
▁काल	-1320
थम	-1321
▁संशोध	-1322
▁199	-1323
िखित	-1324
▁शरीर	-1325
ंगा	-1326
सं	-1327
▁चाहते	-1328
▁अंग्रे	-1329
▁अभि	-1330
▁मेरी	-1331
राज	-1332
▁साल	-1333
बार	-1334
स्थ्य	-1335
ष्ण	-1336
ष्ट्रीय	-1337
हन	-1338
हरा	-1339
क़	-1340
ण्	-1341
ुओं	-1342
क्स	-1343
जों	-1344
▁२	-1345
▁आने	-1346
▁चिकित	-1347
वाल	-1348
▁क्षमता	-1349
ेड	-1350
▁बल	-1351
चान	-1352
▁डाल	-1353
▁सही	-1354
ाया	-1355
पत्र	-1356
▁वर्त	-1357
ाव	-1358
▁जीव	-1359
त्मा	-1360
▁वेब	-1361
▁समिति	-1362
िल्ली	-1363
ंधान	-1364
▁देखा	-1365
ीकरण	-1366
▁सै	-1367
▁अनुच्छेद	-1368
▁अतिरिक्त	-1369
▁शिक	-1370
▁दृष्टि	-1371
▁11	-1372
ंधी	-1373
▁सामने	-1374
▁अप्र	-1375
▁पश्चिम	-1376
▁निर्देश	-1377
▁प्रमाण	-1378
▁15	-1379
▁मार्ग	-1380
दम	-1381
▁चला	-1382
▁यहाँ	-1383
▁ज्यादा	-1384
▁नीचे	-1385
▁रो	-1386
ाहरण	-1387
▁आरंभ	-1388
▁पाठ	-1389
▁युद्ध	-1390
▁कहते	-1391
▁स्वास्थ्य	-1392
▁मार	-1393
्रो	-1394
कृतिक	-1395
यों	-1396
▁उदाहरण	-1397
बन्ध	-1398
▁बहु	-1399
▁अनुभव	-1400
▁यात्रा	-1401
▁प्रश्न	-1402
▁अपराध	-1403
▁लेने	-1404
▁प्रदेश	-1405
▁वर्षों	-1406
▁परिवार	-1407
▁अनुसंधान	-1408
▁परंतु	-1409
▁जरूर	-1410
▁पं	-1411
▁प्रशिक्ष	-1412
कल	-1413
▁मांग	-1414
▁साहित्य	-1415
▁प्रदर्श	-1416
▁वर्ण	-1417
▁निवेश	-1418
▁12	-1419
▁उत्पाद	-1420
जे	-1421
▁पानी	-1422
गार	-1423
▁वर्तमान	-1424
▁दक्षि	-1425
▁दिए	-1426
▁पढ़	-1427
▁जमा	-1428
▁छोटे	-1429
▁विवाह	-1430
▁चौ	-1431
▁विदेशी	-1432
▁निर्धारण	-1433
िश्चित	-1434
तिम	-1435
▁राजनी	-1436
▁संयुक्त	-1437
▁बंग	-1438
▁महान	-1439
▁करेगा	-1440
▁सच	-1441
▁उसी	-1442
लो	-1443
कर्ता	-1444
▁रचना	-1445
▁थीं	-1446
जरा	-1447
▁उससे	-1448
▁व्यक्तियों	-1449
ानों	-1450
्ते	-1451
म्ह	-1452
जर	-1453
▁कोर्इ	-1454
▁भीतर	-1455
▁बच्चों	-1456
▁होंगे	-1457
▁प्रती	-1458
जित	-1459
▁दंड	-1460
श्	-1461
▁बड़ा	-1462
▁परन्तु	-1463
▁पैदा	-1464
▁आधारित	-1465
भर	-1466
▁संच	-1467
▁रहने	-1468
पुर	-1469
▁तौर	-1470
▁कला	-1471
▁दिव	-1472
▁पीछ	-1473
▁हिस्	-1474
▁उच्चतम	-1475
▁उद्य	-1476
▁दुर्	-1477
ारण	-1478
▁सरकारी	-1479
▁चुन	-1480
▁प्रथम	-1481
▁मृत्यु	-1482
▁प्रधान	-1483
ेंट	-1484
▁भू	-1485
कता	-1486
▁अध्या	-1487
्रेस	-1488
पट	-1489
▁संभव	-1490
▁सार्व	-1491
▁नियंत्रण	-1492
▁इतिहास	-1493
▁रहते	-1494
▁सिंह	-1495
▁भूमि	-1496
रल	-1497
▁नही	-1498
▁एम	-1499
▁खोज	-1500
बल	-1501
▁तुम्ह	-1502
ँच	-1503
▁कॉ	-1504
▁लाख	-1505
▁अपेक्षा	-1506
ंश	-1507
▁यही	-1508
्यास	-1509
▁मंदिर	-1510
ic	-1511
▁वृद्धि	-1512
डा	-1513
ेप	-1514
▁प्रारंभ	-1515
▁वाप	-1516
▁बस	-1517
▁लगता	-1518
▁A	-1519
▁प्रेम	-1520
▁विकसित	-1521
▁दूसरी	-1522
▁लड़	-1523
र्जा	-1524
an	-1525
▁जन्म	-1526
▁विरोध	-1527
यां	-1528
▁नए	-1529
▁दिश	-1530
▁इस्ल	-1531
▁वित्तीय	-1532
ट्ट	-1533
▁अंतिम	-1534
▁कमी	-1535
▁अध्ययन	-1536
ष्य	-1537
▁घटना	-1538
▁जांच	-1539
▁नागर	-1540
▁मदद	-1541
▁करेंगे	-1542
▁आश	-1543
▁कांग	-1544
नाथ	-1545
्ष्	-1546
श्छ	-1547
▁आद	-1548
ग्री	-1549
▁गांधी	-1550
▁प्रकृति	-1551
▁बाजार	-1552
▁विंड	-1553
▁हिन्द	-1554
जूद	-1555
▁विस्तार	-1556
▁संसा	-1557
▁स्थापना	-1558
▁ऊण्	-1559
श्छ्ष्	-1560
▁ऊण्श्छ्ष्	-1561
र्जी	-1562
▁उत्पन्न	-1563
▁प्रग	-1564
शल	-1565
▁n	-1566
▁पुस्तक	-1567
▁अपील	-1568
▁लेकर	-1569
▁दिल्ली	-1570
▁भूमिका	-1571
▁पेश	-1572
▁कैसे	-1573
▁संभाव	-1574
▁किंतु	-1575
▁विवरण	-1576
ोजित	-1577
▁सदस्यों	-1578
▁मिला	-1579
▁संदेश	-1580
ार्ड	-1581
▁राज्यों	-1582
▁ते	-1583
▁पुल	-1584
चल	-1585
▁किये	-1586
वीं	-1587
ात्	-1588
▁विधान	-1589
▁पे	-1590
ोर्ड	-1591
▁बरा	-1592
▁पुनः	-1593
▁हमने	-1594
▁बंद	-1595
▁संद	-1596
▁अग्र	-1597
र्स	-1598
▁दाय	-1599
क्षम	-1600
000	-1601
▁न्यू	-1602
रि	-1603
▁मात्रा	-1604
भूत	-1605
▁रोक	-1606
▁भावना	-1607
▁स्वतंत्रता	-1608
▁आत्म	-1609
▁एक्स	-1610
▁माना	-1611
▁उल्लेख	-1612
▁बच	-1613
▁वाय	-1614
स्थिति	-1615
▁हित	-1616
▁संत	-1617
पूर्व	-1618
▁नौ	-1619
▁संसद	-1620
▁विनिर्	-1621
▁नागरिक	-1622
कल्प	-1623
▁शासन	-1624
िले	-1625
▁प्रतिक	-1626
▁चे	-1627
▁पौ	-1628
▁बाहरी	-1629
मन	-1630
तार	-1631
▁चित्र	-1632
र्च	-1633
र्द	-1634
▁तंत्र	-1635
ुस	-1636
▁आवेदन	-1637
▁गिर	-1638
▁तकनी	-1639
साइट	-1640
ल्क	-1641
▁बनाया	-1642
डियो	-1643
▁कानून	-1644
▁भुग	-1645
▁सहित	-1646
▁दिशा	-1647
▁198	-1648
▁भेज	-1649
▁भिन्न	-1650
▁अध्यक्ष	-1651
िना	-1652
▁संगठन	-1653
लाह	-1654
▁आत	-1655
र्य	-1656
▁पृष्ठ	-1657
▁अच्छा	-1658
▁उचित	-1659
▁सुनिश्चित	-1660
▁अच्छी	-1661
▁सिद्धांत	-1662
▁चिकित्	-1663
▁ताकि	-1664
षित	-1665
▁प्रगति	-1666
▁ब्रिट	-1667
▁नव	-1668
▁बनाए	-1669
▁भुगतान	-1670
▁बो	-1671
▁बढ़ा	-1672
▁केन्द्र	-1673
▁पिता	-1674
▁प्रशिक्षण	-1675
▁जाय	-1676
▁अर्था	-1677
in	-1678
▁राय	-1679
माल	-1680
▁धी	-1681
्रम	-1682
▁गल	-1683
नाव	-1684
ुनिक	-1685
स्क	-1686
००	-1687
▁196	-1688
▁जोड़	-1689
त्त्व	-1690
▁विप	-1691
▁सोच	-1692
▁रहता	-1693
▁जाएगी	-1694
मय	-1695
▁राजा	-1696
▁स्थानीय	-1697
▁मंत्रालय	-1698
▁सत्ता	-1699
▁दक्षिण	-1700
▁दुनिया	-1701
▁जबकि	-1702
201	-1703
ूं	-1704
▁खेल	-1705
▁बीमा	-1706
▁अला	-1707
रिका	-1708
▁खुल	-1709
▁14	-1710
en	-1711
▁विरुद्ध	-1712
▁बिल	-1713
▁टे	-1714
▁उसमें	-1715
भू	-1716
ंसा	-1717
▁वास्तविक	-1718
▁कांग्रेस	-1719
▁कित	-1720
्रिय	-1721
▁पहचान	-1722
ज्ञानिक	-1723
▁होकर	-1724
▁तहत	-1725
▁197	-1726
लू	-1727
र्फ	-1728
▁लक्ष्य	-1729
ैतिक	-1730
▁निर्दिष्ट	-1731
▁मुसल	-1732
▁संशोधन	-1733
गल	-1734
.1	-1735
▁तुल	-1736
कु	-1737
वरी	-1738
ैंड	-1739
▁व्यापक	-1740
▁जगह	-1741
▁अह	-1742
▁देव	-1743
▁इंड	-1744
▁बराबर	-1745
▁उनमें	-1746
▁श्रेणी	-1747
▁अमेरिका	-1748
तक	-1749
ेंस	-1750
▁195	-1751
आर	-1752
▁सत	-1753
▁सेना	-1754
▁पीछे	-1755
जनिक	-1756
▁पत्	-1757
▁प्रभावित	-1758
▁मुसलमान	-1759
▁मनुष	-1760
ियाँ	-1761
कम	-1762
ंथ	-1763
ुप	-1764
▁d	-1765
▁निदेश	-1766
▁पर्याप्त	-1767
▁प्रबंधन	-1768
▁वेबसाइट	-1769
▁बच्चे	-1770
▁आकार	-1771
▁pr	-1772
▁बेह	-1773
र्ण	-1774
▁चा	-1775
▁in	-1776
▁आधुनिक	-1777
▁सार्वजनिक	-1778
▁दिनों	-1779
्प	-1780
▁अफ	-1781
र्चा	-1782
▁क्ल	-1783
▁मिश	-1784
▁व्यवहार	-1785
▁मो	-1786
नलिखित	-1787
फार	-1788
▁पश्चात्	-1789
ज्	-1790
▁लगे	-1791
▁प्रतिनि	-1792
▁उपकरण	-1793
▁चाहिये	-1794
दय	-1795
श्वर	-1796
▁सन्	-1797
डर	-1798
▁पूंजी	-1799
▁परिष	-1800
▁जरूरत	-1801
क्रमण	-1802
हरी	-1803
▁निम्नलिखित	-1804
▁पिछले	-1805
▁मि	-1806
▁प्राय	-1807
on	-1808
▁आतंक	-1809
▁प्रवेश	-1810
▁रू	-1811
ौती	-1812
▁पुलिस	-1813
ड़ों	-1814
▁भवि	-1815
बू	-1816
वस्था	-1817
▁केंद्रीय	-1818
▁यथा	-1819
्ला	-1820
भीर	-1821
▁याद	-1822
▁पहली	-1823
वासी	-1824
▁सत्य	-1825
▁स्कूल	-1826
ीप	-1827
▁गैर	-1828
▁निकाल	-1829
▁गां	-1830
▁रोज	-1831
ायत	-1832
▁निर्या	-1833
▁लंब	-1834
▁भविष्य	-1835
ंडल	-1836
▁गुर	-1837
▁कहीं	-1838
▁शब्दों	-1839
▁छा	-1840
फारिश	-1841
▁सम्मान	-1842
ामीण	-1843
त्साह	-1844
▁इस्ते	-1845
▁सक्रिय	-1846
धिकार	-1847
▁अलावा	-1848
▁पद्ध	-1849
वधान	-1850
▁ग्रामीण	-1851
▁खरी	-1852
▁वार	-1853
▁13	-1854
धे	-1855
िको	-1856
▁निश्चित	-1857
▁कप	-1858
▁तथ	-1859
स्ल	-1860
▁ऊर्जा	-1861
▁मित्र	-1862
्यूटर	-1863
▁प्रकट	-1864
▁शाय	-1865
▁सिफारिश	-1866
▁शर्	-1867
▁निकल	-1868
▁औद्योगिक	-1869
▁चाहे	-1870
▁लौ	-1871
डे	-1872
द्रा	-1873
िवार	-1874
▁आयु	-1875
रोध	-1876
▁अनुमति	-1877
▁अभिय	-1878
▁उपाय	-1879
च्छा	-1880
र्ग	-1881
▁]	-1882
▁कट	-1883
▁194	-1884
▁दिख	-1885
स्कार	-1886
▁सर्वो	-1887
ानि	-1888
मंत्र	-1889
▁लिखा	-1890
▁समर्थन	-1891
▁ढंग	-1892
▁नदी	-1893
▁[	-1894
▁पांच	-1895
▁16	-1896
▁पुरुष	-1897
▁विवाद	-1898
▁मर	-1899
▁सां	-1900
▁बोर्ड	-1901
्वी	-1902
▁दल	-1903
स्ति	-1904
▁जिन्हें	-1905
ंबर	-1906
म्भ	-1907
न्व	-1908
ंकन	-1909
▁केन्द	-1910
▁लेखा	-1911
वर्ती	-1912
▁संदर्भ	-1913
बे	-1914
▁25	-1915
▁इस्लाम	-1916
▁शायद	-1917
▁तारी	-1918
▁दस्ता	-1919
▁देती	-1920
▁समाधान	-1921
▁राजनीतिक	-1922
▁फल	-1923
▁इस्तेमाल	-1924
▁चै	-1925
▁भग	-1926
्राम	-1927
tp	-1928
▁उत्स	-1929
▁मिले	-1930
▁प्रद	-1931
▁_	-1932
▁योग्य	-1933
▁वैज्ञानिक	-1934
▁पदार्थ	-1935
▁पृथ	-1936
ांति	-1937
▁S	-1938
▁संके	-1939
शु	-1940
फा	-1941
▁पाया	-1942
▁करा	-1943
▁जिनमें	-1944
▁सम्बन्ध	-1945
▁कार्यालय	-1946
णिज	-1947
्वेष	-1948
▁मश	-1949
वों	-1950
▁नेट	-1951
▁संरचना	-1952
▁रि	-1953
ुआ	-1954
.201	-1955
▁बर	-1956
▁इतना	-1957
सिक	-1958
▁गं	-1959
▁मुखर्जी	-1960
▁निर्वा	-1961
.0	-1962
कुल	-1963
▁फाइल	-1964
ंगे	-1965
▁वो	-1966
एम	-1967
▁करोड़	-1968
▁मही	-1969
▁रज	-1970
णिज्य	-1971
ेशा	-1972
▁संग्रह	-1973
▁ट्र	-1974
▁निर्यात	-1975
▁न्यायालयों	-1976
▁दिल	-1977
ोलन	-1978
▁पूछ	-1979
▁चिकित्सा	-1980
▁गी	-1981
▁भौ	-1982
▁मेरा	-1983
▁दृष्ट	-1984
▁प्रोत्साह	-1985
▁हमारा	-1986
▁सामग्री	-1987
न्दी	-1988
▁यूर	-1989
▁http	-1990
▁उठा	-1991
▁जैसी	-1992
▁न्यायिक	-1993
सन	-1994
▁तारीख	-1995
दित	-1996
▁चाहता	-1997
▁सक्षम	-1998
▁पूरे	-1999
▁मुक्त	-2000
▁उद्यम	-2001
▁१९	-2002
▁बंगाल	-2003
▁संरक्षण	-2004
▁मनुष्य	-2005
▁विभा	-2006
▁बज	-2007
▁सहायक	-2008
▁निजी	-2009
▁बढ	-2010
▁सृ	-2011
म्बर	-2012
▁संय	-2013
▁यद्य	-2014
▁वापस	-2015
▁रक्षा	-2016
▁वाणिज्य	-2017
▁बनाम	-2018
▁नया	-2019
▁प्रकाशित	-2020
▁मॉ	-2021
▁रक्त	-2022
▁खो	-2023
▁दश	-2024
▁साधारण	-2025
मू	-2026
▁दस्तावे	-2027
▁पुरस्कार	-2028
▁यद्यपि	-2029
चर	-2030
▁तत्व	-2031
ंतर	-2032
▁बने	-2033
▁सफलता	-2034
▁w	-2035
बाद	-2036
ग्	-2037
▁इनमें	-2038
सि	-2039
क्षर	-2040
थमिक	-2041
पात	-2042
▁अभिव	-2043
वाही	-2044
▁बुद्ध	-2045
▁कम्प	-2046
▁दें	-2047
सम	-2048
▁हे	-2049
यल	-2050
▁जे	-2051
▁अवस्था	-2052
▁रखना	-2053
ृह	-2054
▁समक्ष	-2055
▁शीर्ष	-2056
▁मास	-2057
▁पालन	-2058
▁सलाह	-2059
▁दशा	-2060
▁हमेशा	-2061
▁चर्चा	-2062
खी	-2063
▁प्राथमिक	-2064
at	-2065
कीय	-2066
▁युवा	-2067
▁जाति	-2068
▁सिर्फ	-2069
▁उत	-2070
▁लि	-2071
▁रकम	-2072
▁अधिकां	-2073
▁ऑफ	-2074
▁रखते	-2075
▁समझौ	-2076
▁शांति	-2077
▁आत्मा	-2078
▁सकेगा	-2079
▁फी	-2080
▁मंत्री	-2081
तया	-2082
▁सेवाओं	-2083
चीन	-2084
▁स्म	-2085
ोक्ता	-2086
▁एल	-2087
▁मुद्रा	-2088
घु	-2089
▁शक्त	-2090
▁वन	-2091
▁देखने	-2092
▁लागत	-2093
▁17	-2094
शिया	-2095
िल्म	-2096
▁विल	-2097
▁ईश्वर	-2098
▁केन्द्रीय	-2099
टे	-2100
▁डॉ	-2101
▁समुदाय	-2102
ड़क	-2103
ठित	-2104
▁शेय	-2105
राष्ट्रीय	-2106
इस	-2107
▁री	-2108
▁सुझ	-2109
▁संपत्ति	-2110
▁लाल	-2111
▁रिक	-2112
▁रेल	-2113
▁चुका	-2114
▁धीरे	-2115
▁बताया	-2116
मक	-2117
▁चाल	-2118
▁तीस	-2119
ैल	-2120
▁योगदान	-2121
▁30	-2122
सू	-2123
▁गंभीर	-2124
▁पर्य	-2125
▁जिसकी	-2126
▁किन्तु	-2127
पूर्वक	-2128
विल	-2129
▁दू	-2130
▁अधिकांश	-2131
▁जम	-2132
िकोण	-2133
▁छोटी	-2134
▁कदम	-2135
▁शहर	-2136
▁पंच	-2137
र्ट	-2138
▁अद	-2139
▁कानू	-2140
▁संभावना	-2141
ाये	-2142
▁दिखाई	-2143
▁सप	-2144
▁क्रम	-2145
▁बेहतर	-2146
फ्ट	-2147
▁सम्मिल	-2148
▁परीक्षा	-2149
▁मुद्	-2150
▁सेट	-2151
▁पद्धति	-2152
▁तत्	-2153
▁नेटवर्	-2154
▁दूसरा	-2155
ार्मिक	-2156
▁धार	-2157
त्री	-2158
▁निर्भर	-2159
▁दोष	-2160
▁थो	-2161
le	-2162
ल्ल	-2163
▁जिला	-2164
▁धार्मिक	-2165
▁चयन	-2166
▁वही	-2167
▁सीमित	-2168
▁आंद	-2169
▁तुलना	-2170
ंटर	-2171
▁ऊंच	-2172
▁पर्यावरण	-2173
▁वहाँ	-2174
▁पो	-2175
▁कोशिश	-2176
▁भे	-2177
▁बोल	-2178
▁प्रणब	-2179
्टर	-2180
मंत्री	-2181
कान	-2182
▁क़	-2183
न्दर	-2184
▁nic	-2185
▁प्रशासन	-2186
वर्ष	-2187
भूति	-2188
▁तरीके	-2189
ुन	-2190
क्टर	-2191
▁हृ	-2192
▁यूरोप	-2193
ल्पना	-2194
▁प्रभावी	-2195
हीन	-2196
क्षेप	-2197
टल	-2198
▁कविता	-2199
▁संकल्प	-2200
ंद्र	-2201
ृति	-2202
▁महारा	-2203
▁ब्रिटिश	-2204
संद	-2205
▁खर्च	-2206
▁सारे	-2207
▁चर	-2208
ंगी	-2209
▁संपर्क	-2210
▁व्यवसाय	-2211
▁मशीन	-2212
▁रहती	-2213
▁अनिवार	-2214
▁htm	-2215
▁शिकायत	-2216
▁हिन्दी	-2217
कद	-2218
ोषणा	-2219
▁उपचार	-2220
▁ढा	-2221
▁निधि	-2222
▁इका	-2223
वत्ता	-2224
द्द	-2225
▁डेटा	-2226
▁अंग्रेजी	-2227
▁ति	-2228
▁उनसे	-2229
पे	-2230
▁प्रवृ	-2231
▁वायु	-2232
▁संगी	-2233
▁कंप्यूटर	-2234
▁जित	-2235
तु	-2236
▁आता	-2237
▁मजब	-2238
▁विद्यार्थ	-2239
▁प्राकृतिक	-2240
▁निम्न	-2241
▁संस्कृति	-2242
▁कार्र	-2243
▁ख़	-2244
▁सूर	-2245
नेट	-2246
्यो	-2247
▁तेल	-2248
ारोह	-2249
▁कथ	-2250
▁गुणवत्ता	-2251
▁ग्रह	-2252
▁विधेय	-2253
▁पक	-2254
क्ष्म	-2255
▁सम्मिलित	-2256
▁विशाल	-2257
▁C	-2258
▁लघु	-2259
▁सकें	-2260
▁स्रो	-2261
वेद	-2262
▁जहाँ	-2263
▁आशा	-2264
▁देखते	-2265
▁युग	-2266
▁अस्त	-2267
भाल	-2268
▁परिस्थित	-2269
ायी	-2270
▁दस	-2271
▁मिट	-2272
▁अधिकारियों	-2273
▁असम	-2274
▁मोट	-2275
▁अंक	-2276
घा	-2277
ेलन	-2278
र्ड	-2279
र्ज	-2280
▁आए	-2281
▁खाद्य	-2282
▁अनिवार्य	-2283
ापन	-2284
स्वरूप	-2285
▁खुलती	-2286
ताल	-2287
▁ब्या	-2288
ंगत	-2289
पक	-2290
▁विचारों	-2291
▁उपभ	-2292
▁संह	-2293
▁रजिस्ट	-2294
ियर	-2295
▁हिस्सा	-2296
▁पड़ा	-2297
▁अध्याय	-2298
धनों	-2299
▁व्यक्तिगत	-2300
न्स	-2301
▁विंडों	-2302
चक	-2303
▁c	-2304
राज्य	-2305
▁आपकी	-2306
▁समारोह	-2307
चि	-2308
▁त्रुट	-2309
▁मिलता	-2310
▁संस्कृत	-2311
त्तर	-2312
लाई	-2313
वेयर	-2314
रीय	-2315
▁खिला	-2316
▁भोजन	-2317
▁नगर	-2318
▁आकर्	-2319
▁नेटवर्क	-2320
▁करनी	-2321
▁बधा	-2322
▁दिवस	-2323
▁प्रयोजन	-2324
वै	-2325
▁अत्यंत	-2326
▁शता	-2327
कारों	-2328
▁हैः	-2329
▁इला	-2330
▁समझा	-2331
▁लेना	-2332
▁निर्धारिती	-2333
स्लिम	-2334
▁दायित्व	-2335
िकी	-2336
▁महत्त्व	-2337
ee	-2338
टों	-2339
▁संहिता	-2340
▁अतः	-2341
▁निकट	-2342
▁बधाई	-2343
▁पाल	-2344
▁उपयुक्त	-2345
तित	-2346
▁भागी	-2347
चारी	-2348
▁24	-2349
▁संघर्ष	-2350
ar	-2351
▁जिनके	-2352
▁मुस्लिम	-2353
▁बचा	-2354
ैन	-2355
ारों	-2356
म्मे	-2357
▁शास्त	-2358
पु	-2359
▁भंड	-2360
▁अनुसू	-2361
▁विकल्प	-2362
ार्क	-2363
दृ	-2364
▁नेता	-2365
▁दृष्टिकोण	-2366
▁प्राचीन	-2367
▁शाखा	-2368
खंड	-2369
▁उपबंधों	-2370
▁आंदोलन	-2371
▁प्ल	-2372
▁इजरा	-2373
▁विद्व	-2374
▁एज	-2375
▁नियमों	-2376
▁संगीत	-2377
,000	-2378
▁भारी	-2379
ूँ	-2380
▁बौ	-2381
▁खोल	-2382
▁खास	-2383
फ्त	-2384
▁नर	-2385
▁जल्	-2386
▁अभिव्य	-2387
▁शुल्क	-2388
ान्व	-2389
डिया	-2390
▁खरीद	-2391
▁पंजी	-2392
▁पर्व	-2393
ंति	-2394
▁संस्थानों	-2395
▁आदर्श	-2396
▁पहल	-2397
किंग	-2398
▁गरी	-2399
▁निगम	-2400
ोग्राम	-2401
▁सिविल	-2402
▁तथापि	-2403
घ्र	-2404
et	-2405
▁आरोप	-2406
▁नये	-2407
▁आयोजित	-2408
वाब	-2409
▁घट	-2410
क्षी	-2411
▁वर्णन	-2412
▁हजार	-2413
▁पंजा	-2414
▁आते	-2415
▁I	-2416
▁पाने	-2417
▁लॉ	-2418
▁अस्प	-2419
▁विनिर्दिष्ट	-2420
▁ईसा	-2421
▁21	-2422
▁घोषणा	-2423
कालीन	-2424
▁अर्थव्य	-2425
▁–	-2426
त्न	-2427
▁जोर	-2428
बत	-2429
▁चीज	-2430
▁फ़ाइल	-2431
▁जानी	-2432
▁विविध	-2433
▁अर्थात्	-2434
▁हस्ता	-2435
▁संसाधन	-2436
▁पराम	-2437
▁हिन्दू	-2438
▁ii	-2439
▁कार्यवाही	-2440
ब्दी	-2441
▁नोट	-2442
▁सुझाव	-2443
▁कार्यों	-2444
ोम	-2445
▁खाते	-2446
▁पड़े	-2447
्वेषण	-2448
इयों	-2449
▁क्षति	-2450
▁जिसने	-2451
▁कार्रवाई	-2452
▁जानते	-2453
▁विधेयक	-2454
ोजनों	-2455
▁परिस	-2456
▁जरूरी	-2457
ड्ड	-2458
▁ध्व	-2459
▁व्यय	-2460
▁प्रशास	-2461
▁सुरक्षित	-2462
res	-2463
▁खुद	-2464
▁अंतरराष्ट्रीय	-2465
ंपरा	-2466
▁स्वरूप	-2467
▁अंश	-2468
▁अंदर	-2469
▁लेते	-2470
▁उपन	-2471
▁प्रसन्न	-2472
▁ग्राह	-2473
▁बनाना	-2474
मीर	-2475
भाषा	-2476
▁अच्छे	-2477
▁पारित	-2478
▁कठिन	-2479
▁हटा	-2480
▁चुनाव	-2481
▁अधि	-2482
▁निपट	-2483
इल	-2484
जनक	-2485
▁शि	-2486
▁गतिविध	-2487
▁प्रदर्शन	-2488
▁व्याव	-2489
▁पड़ता	-2490
▁ब्याज	-2491
▁संकेत	-2492
▁इच्छा	-2493
▁अना	-2494
▁शास	-2495
ंबई	-2496
शाली	-2497
▁कहना	-2498
▁मात्र	-2499
ोषित	-2500
▁सदन	-2501
▁प्राण	-2502
▁परंपरा	-2503
▁परामर्श	-2504
▁अक	-2505
न्ट	-2506
▁समृ	-2507
▁त्व	-2508
▁तम	-2509
▁कोशिका	-2510
▁खत	-2511
त्रों	-2512
ंदा	-2513
▁आदमी	-2514
धीन	-2515
क्षक	-2516
▁भगवान	-2517
▁अधिकारों	-2518
गु	-2519
▁P	-2520
▁राजन	-2521
▁नियुक्त	-2522
पालिका	-2523
वाय	-2524
▁तकनीकी	-2525
▁अर्थव्यवस्था	-2526
रो	-2527
्रिया	-2528
▁एशिया	-2529
or	-2530
▁बर्	-2531
▁मिली	-2532
▁होनी	-2533
▁विनियम	-2534
▁आग	-2535
▁गर्इ	-2536
▁सिर	-2537
▁इन्ह	-2538
▁अभिप	-2539
▁कृप	-2540
पादन	-2541
▁पेट	-2542
▁ग्राम	-2543
▁उपस्थित	-2544
▁छोटा	-2545
▁आतंकवाद	-2546
▁टै	-2547
▁माता	-2548
▁हृदय	-2549
▁सम्मेलन	-2550
▁उल्ल	-2551
▁तट	-2552
▁गलत	-2553
न्हीं	-2554
▁तर्क	-2555
व्र	-2556
▁संपूर्ण	-2557
▁लगाया	-2558
▁नाटक	-2559
▁सम्प	-2560
▁प्रत्यक्ष	-2561
▁कौन	-2562
एल	-2563
कला	-2564
▁जिम्मे	-2565
काम	-2566
स्पर	-2567
▁इंग	-2568
▁कहानी	-2569
▁वाणिज्यिक	-2570
ab	-2571
▁शुभ	-2572
एफ	-2573
▁प्रसि	-2574
▁मौजूद	-2575
ख़	-2576
िक्	-2577
▁लगी	-2578
▁पहला	-2579
▁तेजी	-2580
▁अप्रैल	-2581
▁सश	-2582
▁शेष	-2583
▁बाव	-2584
▁पश्चिमी	-2585
▁मार्च	-2586
▁193	-2587
वहन	-2588
ून्य	-2589
▁भाई	-2590
िनी	-2591
▁विद्यमान	-2592
▁वाता	-2593
▁कर्मचार	-2594
▁परीक्षण	-2595
▁f	-2596
▁स्थायी	-2597
▁महिलाओं	-2598
▁एच	-2599
▁तरफ	-2600
मेंट	-2601
▁फिल	-2602
िन्	-2603
▁वार्ष	-2604
▁खाता	-2605
मारी	-2606
▁दर्शन	-2607
म्र	-2608
▁प्रयोजनों	-2609
ग्न	-2610
▁महस	-2611
ल्ड	-2612
▁सका	-2613
▁शीघ्र	-2614
▁त्रुटि	-2615
▁गर्	-2616
▁प्रवर्	-2617
ठी	-2618
स्य	-2619
▁कार्यान्व	-2620
्राष्ट्रीय	-2621
तें	-2622
▁t	-2623
▁बनी	-2624
▁सरल	-2625
▁रहना	-2626
लाव	-2627
▁अश	-2628
ल्स	-2629
▁हास	-2630
▁अरब	-2631
ुसार	-2632
▁दौ	-2633
▁सात	-2634
▁पार्टी	-2635
▁मल	-2636
▁परिच	-2637
▁पाकि	-2638
▁चुके	-2639
▁हस्त	-2640
▁वाद	-2641
▁अनुज्ञ	-2642
▁मूल्या	-2643
▁मानसिक	-2644
▁अवि	-2645
भाष	-2646
▁समु	-2647
▁क्रा	-2648
▁परिषद	-2649
▁पुनर्	-2650
ितीय	-2651
▁आपका	-2652
▁मजबूत	-2653
▁गुना	-2654
▁शताब्दी	-2655
▁आंक	-2656
▁सित	-2657
▁कृपया	-2658
▁हट	-2659
▁उन्न	-2660
▁विज	-2661
▁महसूस	-2662
▁अनुक	-2663
जली	-2664
▁विस्तृत	-2665
ठा	-2666
▁अन्तर्	-2667
▁लाने	-2668
▁50	-2669
▁मोह	-2670
▁वातावरण	-2671
िक्री	-2672
ष्क	-2673
सभा	-2674
▁अंड	-2675
▁समाचार	-2676
्ति	-2677
▁द्वार	-2678
▁कर्मचारियों	-2679
▁बैठक	-2680
▁समुद्र	-2681
▁वस्तुओं	-2682
▁अभिक	-2683
▁तय	-2684
▁दबा	-2685
▁बंध	-2686
▁इंटर	-2687
ज्य	-2688
▁गांव	-2689
▁सांस्	-2690
as	-2691
▁दि	-2692
▁संदे	-2693
▁रखे	-2694
▁प्रतिनिध	-2695
ायक	-2696
▁एफ	-2697
▁इजरायल	-2698
▁जिन्होंने	-2699
▁अल्प	-2700
▁रोजगार	-2701
▁प्राप्ति	-2702
▁ढांच	-2703
▁T	-2704
▁अत्यधिक	-2705
इड	-2706
▁वेतन	-2707
▁बौद्ध	-2708
▁अनुप्र	-2709
▁चरण	-2710
▁ग्रहण	-2711
▁परिस्थितियों	-2712
▁काव्य	-2713
▁निर्मित	-2714
▁प्रतिष्ठ	-2715
▁जवाब	-2716
▁भौतिक	-2717
▁23	-2718
▁शून्य	-2719
▁नियमित	-2720
▁पहा	-2721
रिया	-2722
▁कल्पना	-2723
▁कथा	-2724
▁घंट	-2725
कृष्ट	-2726
▁pres	-2727
▁सूक्ष्म	-2728
स्म	-2729
▁संचार	-2730
▁दिये	-2731
▁मिलने	-2732
▁उपन्यास	-2733
▁अगले	-2734
▁प्रधानमंत्री	-2735
बि	-2736
▁पट	-2737
▁तथ्य	-2738
▁इत्या	-2739
▁विश्ले	-2740
▁22	-2741
ृत्व	-2742
▁कानूनी	-2743
▁भ्र	-2744
▁किन	-2745
▁असफल	-2746
▁कर्त	-2747
▁अनुमान	-2748
▁समस्याओं	-2749
▁सिस्ट	-2750
▁खे	-2751
▁सामना	-2752
ार्म	-2753
लब	-2754
▁रात	-2755
ष्ट्र	-2756
▁भाषण	-2757
▁इतनी	-2758
▁स्रोत	-2759
▁वर	-2760
▁जंग	-2761
▁कल्या	-2762
▁महाम	-2763
स्ती	-2764
▁हल	-2765
म्मी	-2766
ंघ	-2767
ंव	-2768
▁शुद्ध	-2769
▁आती	-2770
▁इंज	-2771
▁सच्च	-2772
▁विमान	-2773
िटी	-2774
▁द्र	-2775
▁B	-2776
▁नवान	-2777
▁आयुक्त	-2778
िर्	-2779
्वा	-2780
▁बढ़ाने	-2781
▁आवा	-2782
▁पत्नी	-2783
it	-2784
▁सांस्कृतिक	-2785
▁कराने	-2786
▁आंत	-2787
ोरी	-2788
ांकि	-2789
▁मान्यता	-2790
ent	-2791
▁निर्वाचन	-2792
al	-2793
्रेड	-2794
▁हालांकि	-2795
▁क्षेत्रीय	-2796
टिल	-2797
ूक	-2798
नाएं	-2799
▁वाह	-2800
▁दावा	-2801
▁प्रयासों	-2802
▁शेयर	-2803
्याग	-2804
तृत्व	-2805
▁निरंतर	-2806
▁सॉ	-2807
▁तुर	-2808
▁ब्रह	-2809
ंका	-2810
▁अनुवाद	-2811
▁अधिकरण	-2812
▁मंज	-2813
▁साम्रा	-2814
शाला	-2815
▁26	-2816
▁३	-2817
हरे	-2818
▁कीमत	-2819
▁प्राधिकरण	-2820
दिक	-2821
▁लेखक	-2822
शय	-2823
मल	-2824
▁युक्त	-2825
णु	-2826
▁उल	-2827
▁नामक	-2828
▁बावजूद	-2829
▁मध	-2830
▁आये	-2831
▁सफ	-2832
▁सीख	-2833
▁रेखा	-2834
सों	-2835
▁प्रभार	-2836
रान	-2837
▁वैश्व	-2838
▁पेज	-2839
▁विवे	-2840
▁आँ	-2841
▁दृश्य	-2842
▁हिंदू	-2843
▁गणराज्य	-2844
▁अदाल	-2845
लिक	-2846
थि	-2847
▁लक्षण	-2848
▁27	-2849
▁टिप	-2850
▁कार्	-2851
▁मुसलमानों	-2852
धर	-2853
▁अभिया	-2854
वक	-2855
्वर	-2856
गो	-2857
वाले	-2858
▁इनके	-2859
▁मामला	-2860
▁सर्वा	-2861
▁निकाय	-2862
▁प्रायः	-2863
▁इंडिया	-2864
▁वार्षिक	-2865
िरा	-2866
ालित	-2867
▁प्रसिद्ध	-2868
▁पाकिस्तान	-2869
▁टन	-2870
▁सुंदर	-2871
▁कल्याण	-2872
किल	-2873
▁हिंदी	-2874
▁कर्मचारी	-2875
▁सुना	-2876
▁महीने	-2877
▁प्रजा	-2878
▁संस्थाओं	-2879
▁रुपये	-2880
▁अनुकूल	-2881
▁अधिकतम	-2882
▁करार	-2883
▁अधिकारिता	-2884
her	-2885
▁सारी	-2886
▁प्रतिक्रिया	-2887
यान	-2888
ज़ी	-2889
प्रिय	-2890
▁इत्यादि	-2891
डल	-2892
र्घ	-2893
▁गठन	-2894
▁सीधे	-2895
▁गहरा	-2896
▁माह	-2897
▁बिजली	-2898
▁शैली	-2899
▁सचिव	-2900
▁जिनका	-2901
▁पसंद	-2902
▁गृह	-2903
लि	-2904
▁उत्तरदाय	-2905
▁हानि	-2906
▁अफ्री	-2907
▁विद्युत	-2908
ेतना	-2909
▁तुम्हें	-2910
्रण	-2911
▁प्रोग्राम	-2912
▁पाए	-2913
वेक्षण	-2914
दूर	-2915
▁स्वामी	-2916
ज़ा	-2917
▁अभिन	-2918
▁लौट	-2919
▁मूल्यांकन	-2920
▁31	-2921
▁साफ	-2922
▁अंतरण	-2923
▁लगाने	-2924
ंबा	-2925
विक	-2926
वें	-2927
▁उम्मी	-2928
ियत	-2929
▁मिलती	-2930
▁समर्	-2931
il	-2932
▁प्रावधान	-2933
ंता	-2934
▁मेल	-2935
▁२००	-2936
सत	-2937
▁समी	-2938
▁जल्दी	-2939
▁शुभकाम	-2940
वत	-2941
संगत	-2942
▁तभी	-2943
क्ट्र	-2944
▁आक्रमण	-2945
▁सिस्टम	-2946
▁E	-2947
▁किरा	-2948
मति	-2949
लाइन	-2950
▁प्रचार	-2951
्ताह	-2952
त्मिक	-2953
▁परम	-2954
▁आपने	-2955
▁g	-2956
▁अमरी	-2957
▁कारबार	-2958
राब	-2959
▁डाक	-2960
▁प्रवि	-2961
सान	-2962
▁नक	-2963
▁लो	-2964
▁उक्त	-2965
▁पत्त	-2966
▁रुपए	-2967
▁पुराने	-2968
▁सवाल	-2969
▁समस्त	-2970
▁अस्तित्व	-2971
उट	-2972
▁संब	-2973
▁स्थल	-2974
रीक्षण	-2975
दीय	-2976
▁श्व	-2977
▁सभ	-2978
▁करी	-2979
of	-2980
▁समन्व	-2981
▁प्रयुक्त	-2982
ुक्ति	-2983
ंटी	-2984
कर्ष	-2985
▁मुकद	-2986
▁लोकतंत्र	-2987
uk	-2988
▁देखभाल	-2989
▁विषयों	-2990
श्मीर	-2991
.2	-2992
ारात्मक	-2993
▁फूल	-2994
▁न्यायाधीशों	-2995
▁आध्या	-2996
▁पाठ्य	-2997
क्षेत्र	-2998
भूम	-2999
▁घरे	-3000
▁जनवरी	-3001
न्ध	-3002
▁मनो	-3003
्रय	-3004
▁आनंद	-3005
▁दै	-3006
▁अधिव	-3007
▁मू	-3008
▁बुद्धि	-3009
▁अनुमो	-3010
▁वज	-3011
▁पात्र	-3012
▁100	-3013
▁मानते	-3014
▁पथ	-3015
▁साझ	-3016
▁साधन	-3017
▁गुजरा	-3018
▁भागों	-3019
▁जनसं	-3020
नु	-3021
▁आयात	-3022
▁महत्त्वपूर्ण	-3023
▁बढ़ावा	-3024
दर	-3025
्याय	-3026
▁आजा	-3027
▁न्यून	-3028
▁स्थानों	-3029
▁राजनैतिक	-3030
मात्र	-3031
ोने	-3032
▁शिश	-3033
▁इन्हें	-3034
▁चले	-3035
▁शारी	-3036
▁तीव्र	-3037
▁जायेगा	-3038
▁कटौती	-3039
▁उम्मीद	-3040
▁संगण	-3041
▁कुंजी	-3042
▁वितरण	-3043
.5	-3044
रेट	-3045
▁नजर	-3046
▁नेतृत्व	-3047
▁साक्ष्य	-3048
▁28	-3049
▁रखी	-3050
▁बिक्री	-3051
es	-3052
▁प्रेरित	-3053
▁गतिविधियों	-3054
रक	-3055
▁घा	-3056
▁बातों	-3057
▁कलक	-3058
▁रोगी	-3059
▁उड़	-3060
▁टिप्प	-3061
▁पंजाब	-3062
▁फिल्म	-3063
id	-3064
▁एका	-3065
▁जोख	-3066
लेज	-3067
सीय	-3068
▁विशेषज्ञ	-3069
▁प्राधिकारी	-3070
▁विद्यार्थियों	-3071
र्न	-3072
▁फसल	-3073
▁चेतना	-3074
▁जून	-3075
▁संगठ	-3076
▁बैंकों	-3077
▁कठिना	-3078
ृंख	-3079
▁घरेलू	-3080
▁मौसम	-3081
▁शुभकामनाएं	-3082
▁उपा	-3083
▁नेहर	-3084
▁अख	-3085
▁चलता	-3086
▁ग्रंथ	-3087
▁अमेरिक	-3088
▁कंपन	-3089
▁नैतिक	-3090
न्य	-3091
ड़ित	-3092
तिहासिक	-3093
▁प्रदर्शित	-3094
▁R	-3095
लीय	-3096
▁बनाई	-3097
मद	-3098
▁G	-3099
ैक	-3100
▁शिव	-3101
ॉँ	-3102
िकल	-3103
▁खुशी	-3104
▁स्वागत	-3105
▁कुशल	-3106
▁कार्यक्रमों	-3107
▁उनको	-3108
▁जोखिम	-3109
▁आध्यात्मिक	-3110
▁याच	-3111
गण	-3112
ड़ाई	-3113
मूर्ति	-3114
▁पुत्र	-3115
▁बुनिया	-3116
▁शारीरिक	-3117
▁लिखित	-3118
▁टाइ	-3119
▁इं	-3120
▁अनुप्रयोग	-3121
▁फाय	-3122
▁35	-3123
वासियों	-3124
▁श्रेणीः	-3125
ानु	-3126
▁तरीका	-3127
▁घोषित	-3128
▁अपेक्षित	-3129
▁html	-3130
▁दीर्घ	-3131
▁देखें	-3132
भूमि	-3133
▁प्रसन्नता	-3134
▁मंच	-3135
▁बाबत	-3136
▁पहुँच	-3137
▁शक्तियों	-3138
▁नष्ट	-3139
▁प्रतीत	-3140
▁मंड	-3141
मर	-3142
धानिक	-3143
▁स्पष्टीकरण	-3144
▁मानक	-3145
▁गर्म	-3146
▁प्रदू	-3147
▁प्रोत्साहन	-3148
▁pran	-3149
▁संवर्	-3150
▁मां	-3151
▁मिलकर	-3152
▁हवा	-3153
धारित	-3154
▁सैनिक	-3155
▁दिस	-3156
▁v	-3157
▁प्रच	-3158
▁अंतर्राष्ट्रीय	-3159
ह्न	-3160
पों	-3161
▁मगर	-3162
▁उत्कृष्ट	-3163
muk	-3164
▁pranab	-3165
▁b	-3166
▁m	-3167
ेंशन	-3168
mukher	-3169
▁pranabmukher	-3170
▁लेता	-3171
▁अनुप	-3172
▁छह	-3173
▁इकाई	-3174
▁जटिल	-3175
▁मिशन	-3176
▁त्याग	-3177
▁prh	-3178
▁तेज	-3179
▁अधिस	-3180
▁प्रसार	-3181
▁माँ	-3182
▁अवश्य	-3183
▁चारों	-3184
िड	-3185
▁कृत	-3186
हिम	-3187
्यार	-3188
▁सर्वोच्च	-3189
ृंखला	-3190
नो	-3191
▁इले	-3192
▁अस्थ	-3193
रत	-3194
▁निहित	-3195
▁चीन	-3196
▁सेवाएं	-3197
▁चुकी	-3198
ंख्य	-3199
▁स्त्री	-3200
▁स्मृति	-3201
▁फीस	-3202
▁विधिक	-3203
कत	-3204
चरण	-3205
िप्त	-3206
▁अभिव्यक्ति	-3207
▁जहा	-3208
▁करेगी	-3209
▁पशु	-3210
▁लें	-3211
▁प्ले	-3212
▁मुंबई	-3213
▁विरोधी	-3214
रणा	-3215
चलित	-3216
▁प्रोट	-3217
▁वीडियो	-3218
▁अक्	-3219
▁मतलब	-3220
▁संसाधनों	-3221
ढ़ी	-3222
करी	-3223
▁वालों	-3224
फ्टवेयर	-3225
▁साब	-3226
▁आफ	-3227
्रेट	-3228
कालिक	-3229
▁लगातार	-3230
▁ऐतिहासिक	-3231
▁संबंधों	-3232
▁परिणामस्वरूप	-3233
▁कठोर	-3234
▁अभिले	-3235
▁प्रमाणपत्र	-3236
क्षिक	-3237
▁2000	-3238
▁मस्ति	-3239
ियोग	-3240
▁औष	-3241
▁वजह	-3242
ताब	-3243
▁आंतरिक	-3244
पाद	-3245
▁कूट	-3246
▁अगस्त	-3247
▁जनसंख्या	-3248
▁ज़र	-3249
राधिक	-3250
▁चीज़	-3251
is	-3252
▁४	-3253
क्शन	-3254
▁इंजीन	-3255
▁प्रशासनिक	-3256
▁उपयोगी	-3257
▁विश्लेषण	-3258
शास्त	-3259
▁यूनि	-3260
▁पश्चात	-3261
▁५	-3262
पान	-3263
▁रखता	-3264
▁हथ	-3265
ूंगा	-3266
▁प्रका	-3267
▁फर	-3268
▁पति	-3269
▁मना	-3270
▁सरकारों	-3271
ामा	-3272
▁बातें	-3273
▁न्यूनतम	-3274
▁वैश्विक	-3275
▁गोप	-3276
▁भूल	-3277
▁नागरिकों	-3278
कर्ताओं	-3279
▁छूट	-3280
▁गंगा	-3281
▁नेहरू	-3282
ion	-3283
्रीन	-3284
▁याचिका	-3285
ूबर	-3286
▁सुख	-3287
▁दीवार	-3288
▁आठ	-3289
ेंद	-3290
चारिक	-3291
▁द्वीप	-3292
▁हासिल	-3293
▁साम्राज्य	-3294
▁विफल	-3295
▁कृष्ण	-3296
▁हिम	-3297
ुस्तान	-3298
▁प्रवाह	-3299
▁बीज	-3300
चित्र	-3301
बन्धी	-3302
▁जाएं	-3303
▁चक्र	-3304
▁संचालन	-3305
कलन	-3306
▁192	-3307
▁मई	-3308
एन	-3309
▁निदेशक	-3310
स्ते	-3311
▁अल्	-3312
फे	-3313
▁श्रम	-3314
▁बनने	-3315
▁संसार	-3316
▁प्रयत्न	-3317
▁दस्तावेज	-3318
▁स्वर	-3319
▁सत्या	-3320
▁कमज	-3321
▁स्की	-3322
▁स्थिर	-3323
लग्न	-3324
▁स्वच्छ	-3325
ुम	-3326
▁अक्ष	-3327
om	-3328
तल	-3329
बन	-3330
▁विहित	-3331
▁नियुक्ति	-3332
▁आलो	-3333
▁अन्तर	-3334
त्तम	-3335
▁सप्ताह	-3336
▁महामहिम	-3337
नाम	-3338
▁नाट	-3339
▁पृथ्वी	-3340
जीव	-3341
▁कलकत्ता	-3342
ियल	-3343
▁निरा	-3344
▁ब्रा	-3345
▁खिलाफ	-3346
णों	-3347
▁बीमारी	-3348
▁अधिसू	-3349
▁सहकारी	-3350
▁प्रकाशन	-3351
▁आसान	-3352
▁छोड़कर	-3353
▁संगठनों	-3354
▁व्याख्या	-3355
▁ऑन	-3356
▁खी	-3357
▁काट	-3358
▁लेन	-3359
▁अदालत	-3360
▁शुरुआ	-3361
▁आह	-3362
पथ	-3363
रीत	-3364
▁उम्र	-3365
▁अभिलेख	-3366
▁संबद्ध	-3367
▁लोकप्रिय	-3368
क्ता	-3369
वाली	-3370
▁शाह	-3371
▁विशेषकर	-3372
▁प्रतीक	-3373
▁काय	-3374
▁कोल	-3375
▁कोड	-3376
▁वैसे	-3377
▁सड़क	-3378
▁सुभाष	-3379
▁कार्यवाह	-3380
▁विम	-3381
▁उद्योगों	-3382
ेह	-3383
▁एकता	-3384
▁संविदा	-3385
▁40	-3386
▁L	-3387
शनल	-3388
▁M	-3389
▁आरम्भ	-3390
यें	-3391
▁रीति	-3392
▁मीडिया	-3393
▁अके	-3394
▁माप	-3395
▁अनुरूप	-3396
दाता	-3397
▁जेल	-3398
▁सुल	-3399
▁चलते	-3400
▁सृजन	-3401
▁x	-3402
चीत	-3403
▁एड	-3404
di	-3405
▁दवा	-3406
▁कौशल	-3407
स्थापित	-3408
ैव	-3409
▁निः	-3410
▁जमीन	-3411
▁आपूर्ति	-3412
▁निष्कर्ष	-3413
▁सर्वाधिक	-3414
▁आख	-3415
▁जुड़े	-3416
▁विपरीत	-3417
ंकर	-3418
दर्शन	-3419
▁समुचित	-3420
▁पूजा	-3421
▁पीड़ित	-3422
▁विचारण	-3423
▁अफ्रीका	-3424
▁बुनियादी	-3425
▁बातचीत	-3426
▁बू	-3427
▁पूर्वी	-3428
▁ग्रा	-3429
▁पुरा	-3430
ज्ञा	-3431
▁शोध	-3432
▁जाँच	-3433
▁अभियान	-3434
▁गिरफ्त	-3435
▁प्रतिनिधित्व	-3436
▁सारा	-3437
▁परस्पर	-3438
▁विशेषता	-3439
▁re	-3440
▁समझौता	-3441
न्द्रनाथ	-3442
▁किसानों	-3443
▁दूध	-3444
▁आश्च	-3445
साधारण	-3446
▁N	-3447
▁e	-3448
▁संकट	-3449
▁रस	-3450
▁ताप	-3451
▁विजय	-3452
ूद्ध	-3453
्रित	-3454
▁आंख	-3455
▁अभिप्रे	-3456
▁पूर्ववर्ष	-3457
▁छि	-3458
▁गैस	-3459
▁प्रभ	-3460
ंगिक	-3461
भारत	-3462
वित्र	-3463
▁मुह	-3464
ॉन	-3465
धित	-3466
वाला	-3467
▁हत्या	-3468
▁मस्तिष्क	-3469
ियार	-3470
षक	-3471
▁लै	-3472
▁अंध	-3473
▁इन्	-3474
▁विभाजन	-3475
▁करो	-3476
▁न्यायमूर्ति	-3477
▁कथन	-3478
▁प्रस्तावित	-3479
.4	-3480
दास	-3481
▁कीट	-3482
▁अनुरोध	-3483
▁तमिल	-3484
▁मीटर	-3485
▁स्ना	-3486
▁टेली	-3487
▁उत्पादों	-3488
▁परिवहन	-3489
पय	-3490
▁एंड	-3491
▁दशक	-3492
▁कार्ड	-3493
ूब	-3494
▁बाग	-3495
सायिक	-3496
▁गुप्त	-3497
्यूट	-3498
▁बेच	-3499
▁इलेक्ट्र	-3500
िसी	-3501
ोथ	-3502
▁निवार	-3503
▁कर्तव्य	-3504
▁लिप	-3505
▁चढ़	-3506
▁सत्र	-3507
▁जाएंगे	-3508
▁मूल्यों	-3509
▁दृढ़	-3510
▁हस्ताक्षर	-3511
▁2015	-3512
▁एकल	-3513
▁नुक	-3514
▁पकड़	-3515
वंश	-3516
▁आनन्द	-3517
▁आश्चर्य	-3518
▁धर	-3519
▁ताल	-3520
▁भेजा	-3521
▁इतने	-3522
ँचा	-3523
▁अक्सर	-3524
▁अन्दर	-3525
▁एकत्र	-3526
उस	-3527
ोकन	-3528
▁दूरी	-3529
▁राज्यपाल	-3530
ुता	-3531
▁वकी	-3532
दारों	-3533
▁पत्थ	-3534
मंडल	-3535
वट	-3536
▁हिंसा	-3537
▁टा	-3538
▁काग	-3539
▁चुनौती	-3540
▁नयी	-3541
▁देवी	-3542
▁दर्शा	-3543
▁गीत	-3544
▁संसदीय	-3545
▁मस	-3546
▁धारण	-3547
▁यंत्र	-3548
▁2014	-3549
न्ना	-3550
▁कक्ष	-3551
▁अमेरिकी	-3552
▁औसत	-3553
दियों	-3554
▁करीब	-3555
▁भागीदारी	-3556
▁D	-3557
खे	-3558
▁टीम	-3559
ंकित	-3560
िकेट	-3561
ॉप	-3562
▁प्रतिभा	-3563
▁सर्वेक्षण	-3564
▁फॉ	-3565
▁उपभोक्ता	-3566
▁भेद	-3567
▁साबित	-3568
म्स	-3569
▁शे	-3570
▁राजनीति	-3571
▁परेश	-3572
▁तार	-3573
▁देगा	-3574
▁मृत्युद	-3575
▁अभियुक्त	-3576
▁फैल	-3577
▁लिखी	-3578
▁नवान्वेषण	-3579
▁महाराष्ट्र	-3580
▁लिम	-3581
▁परमाण	-3582
घात	-3583
▁चम	-3584
▁शह	-3585
▁आउट	-3586
परि	-3587
▁बॉ	-3588
▁वहीं	-3589
▁समित	-3590
▁सशक्त	-3591
▁आइ	-3592
जूदा	-3593
स्त्र	-3594
▁अभाव	-3595
▁डर	-3596
▁अभिप्रेत	-3597
▁अर्थात	-3598
ot	-3599
▁औप	-3600
▁रजिस्ट्री	-3601
▁जिले	-3602
▁कारणों	-3603
▁सावधान	-3604
▁मछ	-3605
▁गरीब	-3606
▁कश्मीर	-3607
▁प्रारंभिक	-3608
नर	-3609
पास	-3610
भाषित	-3611
▁नियत	-3612
▁शिख	-3613
▁गठित	-3614
▁डिस्क	-3615
▁बदलाव	-3616
▁परिवर्तित	-3617
▁बजाय	-3618
▁माइ	-3619
निष्ठ	-3620
▁29	-3621
▁कति	-3622
▁नमू	-3623
▁मौजूदा	-3624
▁संस्करण	-3625
निर्	-3626
▁बिल्	-3627
▁चिंता	-3628
ैर	-3629
ित्त	-3630
पादित	-3631
्रांस	-3632
▁चिह्न	-3633
▁अन्यथा	-3634
मार्	-3635
▁वर्षा	-3636
▁आमत	-3637
▁प्रेरणा	-3638
गोल	-3639
द्या	-3640
▁निभा	-3641
▁हिस्से	-3642
▁पहुंचा	-3643
▁समीक्षा	-3644
▁सुविधाओं	-3645
▁मांस	-3646
▁भाषाओं	-3647
▁जर्म	-3648
▁सम्बन्धी	-3649
पण	-3650
ज़र	-3651
मती	-3652
▁लंबा	-3653
▁समाप्ति	-3654
▁मिन	-3655
▁समग्र	-3656
▁अनुपात	-3657
▁सिक्	-3658
ंत्रिक	-3659
▁संतुल	-3660
सीसी	-3661
▁परियोजनाओं	-3662
.3	-3663
▁सर्वर	-3664
▁देय	-3665
ूंकि	-3666
तीत	-3667
▁वक्त	-3668
ोजी	-3669
▁आचरण	-3670
▁लक्ष	-3671
▁प्रोत्साहित	-3672
बाइल	-3673
▁गुरु	-3674
▁लिखने	-3675
▁अत	-3676
▁मैदान	-3677
▁रोकने	-3678
वण	-3679
▁कतिपय	-3680
ंदु	-3681
▁किलो	-3682
▁हैंः	-3683
▁आमतौर	-3684
▁पौध	-3685
▁2013	-3686
▁लिमिट	-3687
▁द्वितीय	-3688
▁प्रवृत्त	-3689
ध्या	-3690
▁देखकर	-3691
▁चूंकि	-3692
▁पवित्र	-3693
▁आकर्षित	-3694
▁शैक्षिक	-3695
▁पाई	-3696
▁सदा	-3697
▁रखें	-3698
▁शुरुआत	-3699
▁भय	-3700
▁उपक्रम	-3701
प्	-3702
ाब	-3703
▁साइ	-3704
साद	-3705
▁अकबर	-3706
▁सुसंगत	-3707
▁हक	-3708
▁गाय	-3709
श्किल	-3710
▁खाने	-3711
ंडी	-3712
ुरी	-3713
स्वी	-3714
▁गौर	-3715
क्का	-3716
▁अनुश	-3717
▁प्रत	-3718
▁इरा	-3719
नात्मक	-3720
▁जुलाई	-3721
▁आशय	-3722
▁हवाई	-3723
नन	-3724
▁अपन	-3725
▁अस्पताल	-3726
▁खाना	-3727
▁शहरी	-3728
▁आयोजन	-3729
▁देकर	-3730
डु	-3731
▁तल	-3732
▁खुश	-3733
▁जानता	-3734
▁बिल्कुल	-3735
थी	-3736
ताव	-3737
▁ब्ल	-3738
▁तकनीक	-3739
▁निवास	-3740
▁विंडो	-3741
▁शिकार	-3742
▁व्यावसायिक	-3743
▁ब्राह	-3744
▁जय	-3745
▁पाठ्यक्रम	-3746
▁सॉफ्टवेयर	-3747
ंदी	-3748
ष्टा	-3749
▁1961	-3750
▁2005	-3751
▁उधार	-3752
▁बाधा	-3753
▁बुरा	-3754
▁देर	-3755
ोल्	-3756
▁80	-3757
क्षीय	-3758
▁रहेगा	-3759
▁नियंत्रित	-3760
▁हार्	-3761
ड़ियों	-3762
▁यथ	-3763
भाग्य	-3764
▁आस्ति	-3765
▁जीवित	-3766
▁अधिकतर	-3767
▁निश्चय	-3768
▁इंस	-3769
▁सुब	-3770
▁संलग्न	-3771
शीलता	-3772
▁मानवीय	-3773
द्धा	-3774
ंछ	-3775
▁जितना	-3776
▁मुद्दों	-3777
धारी	-3778
▁चरित्र	-3779
▁मिट्टी	-3780
▁प्रार्थ	-3781
▁तिर	-3782
▁मुझ	-3783
▁तुरंत	-3784
▁सूर्य	-3785
गढ़	-3786
▁रिश	-3787
▁चलो	-3788
▁कितना	-3789
▁लिमिटेड	-3790
▁प्रतिनिधि	-3791
▁मुश्किल	-3792
▁परमाणु	-3793
▁गौ	-3794
▁सहज	-3795
▁खुले	-3796
▁आग्रह	-3797
▁बाह्य	-3798
▁समावेश	-3799
राव	-3800
▁कमजोर	-3801
त्कार	-3802
▁इंग्ल	-3803
राम	-3804
▁कारा	-3805
▁केरल	-3806
▁आसानी	-3807
▁प्रेष	-3808
देव	-3809
▁लाया	-3810
▁उत्तरी	-3811
णन	-3812
▁सांस	-3813
▁32	-3814
▁स्तंभ	-3815
▁ग्राहक	-3816
सु	-3817
▁मंडल	-3818
ंदन	-3819
▁घंटे	-3820
▁प्रारूप	-3821
नाश	-3822
▁जाकर	-3823
▁घटनाओं	-3824
▁एकमात्र	-3825
ुत्	-3826
भाविक	-3827
▁अन्तर्गत	-3828
▁191	-3829
▁विरूद्ध	-3830
▁निष्पादन	-3831
ग्ध	-3832
▁आसपास	-3833
▁थोड़ा	-3834
▁आल	-3835
▁समझौते	-3836
▁इंटरनेट	-3837
▁रवी	-3838
▁सहमति	-3839
▁उत्साह	-3840
पुट	-3841
बाज	-3842
▁अनुदान	-3843
▁गुजरात	-3844
▁इनका	-3845
▁जिनकी	-3846
▁स्कीम	-3847
▁साक्षी	-3848
घटना	-3849
▁आवाज	-3850
▁लाइन	-3851
विज्ञान	-3852
▁दर्ज	-3853
▁लंबे	-3854
▁बढ़ती	-3855
▁विमर्श	-3856
▁महात्मा	-3857
▁साध	-3858
▁दूसरों	-3859
▁नेताओं	-3860
णिक	-3861
मीटर	-3862
ोबार	-3863
▁प्रत्या	-3864
▁सहमत	-3865
▁सभ्यता	-3866
ौल	-3867
▁खेती	-3868
▁नुकसान	-3869
▁ज्ञात	-3870
▁श्रृंखला	-3871
▁जनजा	-3872
▁बाध्य	-3873
घाटन	-3874
▁टुक	-3875
▁आवास	-3876
▁खान	-3877
▁अंतः	-3878
▁ww	-3879
▁कव	-3880
▁फैस	-3881
▁वरि	-3882
ार्थी	-3883
माने	-3884
▁छुट	-3885
▁कू	-3886
▁सदैव	-3887
▁पंजीकरण	-3888
▁शुरु	-3889
्राइ	-3890
ाक	-3891
▁रिया	-3892
▁अपर	-3893
पूर्ति	-3894
▁प्रिय	-3895
▁फिली	-3896
▁रास्ता	-3897
▁विश्वविद्यालयों	-3898
▁कब	-3899
दिन	-3900
▁कितनी	-3901
▁अग्रिम	-3902
▁प्रतिकूल	-3903
▁प्रथा	-3904
▁स्वाम	-3905
जिए	-3906
▁www	-3907
▁गोल	-3908
▁कार्यान्वयन	-3909
dia	-3910
▁सजा	-3911
▁आहार	-3912
ंचित	-3913
▁कंपनियों	-3914
यण	-3915
▁प्रचलित	-3916
▁इसने	-3917
▁गेंद	-3918
क्षिप्त	-3919
▁असमर्थ	-3920
▁अनुसूचित	-3921
▁चोट	-3922
▁खतरा	-3923
▁नवीन	-3924
▁भावी	-3925
▁वृक्ष	-3926
▁पेड़	-3927
▁समझने	-3928
रू	-3929
स्फ	-3930
▁लिखे	-3931
▁संयंत्र	-3932
केट	-3933
▁मिस	-3934
▁लेखन	-3935
▁सूत्र	-3936
▁मोबाइल	-3937
श्त	-3938
▁दुख	-3939
▁मृत	-3940
▁पैरा	-3941
▁मालूम	-3942
▁संगम	-3943
ेक्ट	-3944
▁प्रार्थना	-3945
ंगल	-3946
▁लक	-3947
द्वीप	-3948
▁आपराधिक	-3949
हाद	-3950
िक्स	-3951
गाह	-3952
▁190	-3953
▁जरिए	-3954
▁उठाने	-3955
़्य	-3956
▁नोड	-3957
▁फोन	-3958
▁फा	-3959
▁दुः	-3960
ेश्वर	-3961
▁वीर	-3962
▁सतह	-3963
सीन	-3964
▁गाँ	-3965
▁नै	-3966
▁हितों	-3967
कां	-3968
▁खींच	-3969
▁चिकित्स	-3970
▁विधियों	-3971
प्रे	-3972
▁धारणा	-3973
ंजन	-3974
▁छवि	-3975
▁टिक	-3976
▁बीमार	-3977
▁शर्तों	-3978
▁अवै	-3979
▁वर्गों	-3980
▁हार	-3981
▁हाथों	-3982
▁जनरल	-3983
▁किनारे	-3984
▁रेलवे	-3985
▁उद्ध	-3986
▁परिषद्	-3987
▁सरदार	-3988
विधि	-3989
न्त्र	-3990
वर्तन	-3991
शास्त्र	-3992
▁पुरानी	-3993
▁दबाव	-3994
▁चलाने	-3995
ase	-3996
▁जाल	-3997
▁वाक	-3998
ोल्डर	-3999
्यु	-4000
▁जैव	-4001
▁किस्म	-4002
ंडा	-4003
▁समृद्ध	-4004
▁अनुसूची	-4005
▁उन्	-4006
पेक्ष	-4007
शक्ति	-4008
▁पोषण	-4009
्नों	-4010
ात्मक	-4011
▁सुदृ	-4012
▁विभिन्	-4013
▁लु	-4014
▁नारा	-4015
▁नाग	-4016
▁कुमार	-4017
▁निरीक्षण	-4018
वश	-4019
िकाओं	-4020
ॉक	-4021
▁कहान	-4022
▁पूर्ति	-4023
लिया	-4024
▁फरवरी	-4025
▁मालिक	-4026
▁गार	-4027
गन	-4028
▁वंश	-4029
▁भंडारण	-4030
▁राजस्व	-4031
▁विद्यालय	-4032
जि	-4033
▁स्वीकृति	-4034
▁सर्वोत्तम	-4035
▁प्रतिस्प	-4036
पंथ	-4037
▁अद्य	-4038
र्ती	-4039
▁किसान	-4040
▁देंगे	-4041
▁समन्वय	-4042
▁समर्पित	-4043
▁६	-4044
▁लंबी	-4045
▁भु	-4046
▁पूछा	-4047
▁उपस्थिति	-4048
▁अनुसरण	-4049
▁परा	-4050
▁ब्य	-4051
्यवाद	-4052
▁पैर	-4053
▁2007	-4054
▁दुर्घटना	-4055
▁सौर	-4056
▁मुद्र	-4057
▁पाते	-4058
▁रास्ते	-4059
▁आकर	-4060
▁सम्पूर्ण	-4061
▁काउ	-4062
▁राजस्थान	-4063
▁जीत	-4064
▁देन	-4065
▁अका	-4066
▁आस्त	-4067
▁मूर्	-4068
▁चालू	-4069
▁राजधान	-4070
▁फ्ल	-4071
▁संदाय	-4072
▁अधिर	-4073
वायु	-4074
पालन	-4075
म्मत	-4076
▁परिभाषित	-4077
धियों	-4078
▁विद्र	-4079
ing	-4080
न्ड	-4081
▁पर्यटन	-4082
▁योजनाओं	-4083
ेंसी	-4084
▁प्रदूषण	-4085
▁आवश्यकताओं	-4086
दु	-4087
▁डाटा	-4088
▁शिखर	-4089
▁सराह	-4090
▁नीतियों	-4091
▁शत्र	-4092
▁वरिष्ठ	-4093
तृ	-4094
▁हल्	-4095
▁सौंप	-4096
▁शीर्षक	-4097
▁संक्रमण	-4098
याल	-4099
▁सब्	-4100
▁खड़ा	-4101
▁श्रेष्ठ	-4102
▁प्राथमिकता	-4103
हल	-4104
वली	-4105
ग्रस्त	-4106
▁तुम्हारे	-4107
ीकृत	-4108
▁स्त्र	-4109
▁कमा	-4110
▁बोस	-4111
▁उदार	-4112
▁छात्र	-4113
▁रण	-4114
ोधित	-4115
▁सिल	-4116
▁सें	-4117
क्रिय	-4118
▁गवर्	-4119
▁विनिमय	-4120
गोर	-4121
▁ऑनलाइन	-4122
▁फ़िल्म	-4123
▁60	-4124
ख्यात	-4125
▁बाकी	-4126
▁संदेह	-4127
▁अचान	-4128
▁फर्म	-4129
▁मध्यम	-4130
▁क्रिकेट	-4131
▁..	-4132
▁पल	-4133
▁...	-4134
विष्ट	-4135
▁चलने	-4136
▁प्री	-4137
▁बनाये	-4138
▁01	-4139
▁होम	-4140
▁वकील	-4141
▁2018	-4142
▁आलोचना	-4143
▁असर	-4144
लन	-4145
india	-4146
▁बदले	-4147
▁ढांचे	-4148
▁प्रि	-4149
▁अस्था	-4150
▁अचानक	-4151
▁त्वचा	-4152
▁सिद्धांतों	-4153
ail	-4154
▁मृ	-4155
▁यौ	-4156
▁बिंदु	-4157
▁बदलने	-4158
▁स्वतः	-4159
▁विभाजित	-4160
▁मिलियन	-4161
▁स्वस्थ	-4162
फर	-4163
व्या	-4164
▁तला	-4165
▁हार्दिक	-4166
▁दिना	-4167
ाले	-4168
▁धो	-4169
र्की	-4170
▁दर्द	-4171
▁पढ़ने	-4172
मि	-4173
कृष्ण	-4174
▁रहें	-4175
▁सागर	-4176
▁यथास्थिति	-4177
दंड	-4178
ासत	-4179
▁वचन	-4180
▁आजादी	-4181
▁प्रशंसा	-4182
▁प्रवृत्ति	-4183
▁पत्थर	-4184
▁प्रतियोग	-4185
▁जड़	-4186
▁बिहार	-4187
▁झु	-4188
ंध्र	-4189
धारणा	-4190
▁कितने	-4191
▁मजदूर	-4192
▁सुनवाई	-4193
लेट	-4194
वैधानिक	-4195
▁पक्षकार	-4196
▁सुविधाएं	-4197
थित	-4198
▁दुर	-4199
▁धात	-4200
▁हाइ	-4201
▁प्रतिभूति	-4202
यत	-4203
गमन	-4204
▁2001	-4205
▁कम्पनी	-4206
▁पत	-4207
▁जागर	-4208
▁परे	-4209
▁विनिश्च	-4210
काब	-4211
▁मॉडल	-4212
क़्त	-4213
▁पूर्वो	-4214
▁समूहों	-4215
ोब	-4216
याँ	-4217
▁बुला	-4218
▁उल्लेखनीय	-4219
▁संक्षिप्त	-4220
▁देखना	-4221
▁संशोधित	-4222
▁दिव्य	-4223
▁सुदृढ़	-4224
▁आनु	-4225
▁लम्	-4226
▁इनकी	-4227
▁तोड़	-4228
▁पट्ट	-4229
▁पूर्	-4230
▁अत्या	-4231
▁अस्वी	-4232
▁समानता	-4233
▁निच	-4234
▁अर्ध	-4235
▁उसको	-4236
▁किताब	-4237
▁बल्ले	-4238
▁प्रारम्भ	-4239
▁स्वाभाविक	-4240
अर	-4241
▁झा	-4242
ष्ठा	-4243
ानिक	-4244
▁पार्	-4245
▁अनुमोदन	-4246
ट्र	-4247
▁नील	-4248
परी	-4249
▁घु	-4250
▁बाबू	-4251
▁विनय	-4252
▁तत्काल	-4253
▁निवारण	-4254
▁छो	-4255
▁चन्द्र	-4256
▁मृत्युदंड	-4257
▁मकान	-4258
▁पौधों	-4259
▁छात्रों	-4260
▁अवैध	-4261
▁प्राधिकार	-4262
ज्ज	-4263
▁राजधानी	-4264
▁औपचारिक	-4265
▁जिम्मेदारी	-4266
म्मद	-4267
▁जम्	-4268
▁दास	-4269
वां	-4270
▁वर्णित	-4271
र्त	-4272
▁ठोस	-4273
▁डाय	-4274
,1	-4275
▁गहन	-4276
▁प्रान्त	-4277
▁नेपाल	-4278
▁विज्ञ	-4279
▁ब्राह्म	-4280
▁फे	-4281
▁तिथि	-4282
▁डिजा	-4283
▁उद्घाटन	-4284
▁सन	-4285
▁जवाह	-4286
▁संप्र	-4287
तियां	-4288
▁संवाद	-4289
▁जलवायु	-4290
▁2012	-4291
▁ट्यू	-4292
▁बौद्धिक	-4293
खों	-4294
▁मण	-4295
▁पीठ	-4296
▁संवर्धन	-4297
▁प्रतिस्पर्	-4298
▁हिमालय	-4299
ंसिल	-4300
न्दु	-4301
▁हालत	-4302
▁प्रेस	-4303
▁हस्तक्षेप	-4304
▁det	-4305
ofindia	-4306
ट्	-4307
▁कच्च	-4308
▁समुद्री	-4309
▁लिंग	-4310
▁ब्रिटेन	-4311
▁भारतीयों	-4312
िरी	-4313
▁ग़	-4314
▁कैं	-4315
▁बजट	-4316
▁करवा	-4317
▁बालक	-4318
क्क	-4319
ासा	-4320
▁चुने	-4321
म्परा	-4322
▁द्वि	-4323
▁शिशु	-4324
दरा	-4325
▁दैनिक	-4326
▁सामूह	-4327
▁खत्म	-4328
▁खाली	-4329
▁क्लिक	-4330
▁अद्यतन	-4331
नाटक	-4332
▁अक्त	-4333
▁चुनौ	-4334
▁शिक्षक	-4335
▁ज़्यादा	-4336
ायें	-4337
▁तत्वों	-4338
▁वस्तुत	-4339
▁पड	-4340
▁2006	-4341
▁गरीबी	-4342
▁अय	-4343
सागर	-4344
▁अली	-4345
▁गहरी	-4346
▁45	-4347
▁अनि	-4348
न्थ	-4349
फ़ी	-4350
ident	-4351
▁गुफा	-4352
▁विपणन	-4353
▁प्रणाल	-4354
▁भले	-4355
▁रसाय	-4356
▁नौकरी	-4357
पो	-4358
बादी	-4359
▁मिनट	-4360
▁द्विप	-4361
बाजी	-4362
▁भेंट	-4363
जात	-4364
मार्ग	-4365
▁कष्ट	-4366
▁मिलाकर	-4367
▁सामूहिक	-4368
▁36	-4369
▁आकाश	-4370
▁विद्या	-4371
▁समृद्धि	-4372
ेंज	-4373
▁भक्ति	-4374
▁वर्गी	-4375
▁दान	-4376
▁भंडार	-4377
▁खतर	-4378
▁आदान	-4379
▁सोचा	-4380
▁ब्रह्म	-4381
▁तंत्रिका	-4382
▁उत्तरदायी	-4383
▁सामान्यतः	-4384
▁गू	-4385
▁परिक	-4386
▁34	-4387
ंडित	-4388
ज़ार	-4389
▁मिलते	-4390
▁सितंबर	-4391
क्सी	-4392
▁लाइस	-4393
▁सिद्धान्त	-4394
▁k	-4395
▁अज	-4396
▁आना	-4397
▁कमरे	-4398
भावना	-4399
▁बचाव	-4400
▁परम्परा	-4401
ार्ज	-4402
▁उपर	-4403
▁कहने	-4404
▁बांध	-4405
▁सकेगी	-4406
▁गांवों	-4407
▁president	-4408
▁press	-4409
जनन	-4410
▁रद्द	-4411
▁असाधारण	-4412
पत	-4413
मो	-4414
ेंड	-4415
▁अग्रणी	-4416
▁विद्वान	-4417
lease	-4418
▁गणना	-4419
▁राहत	-4420
▁कराया	-4421
▁प्रविष्टि	-4422
▁फार्म	-4423
▁हद	-4424
त्ती	-4425
▁यून	-4426
ूष	-4427
मूल	-4428
ेंद्र	-4429
.7	-4430
चार्य	-4431
▁चिंत	-4432
▁उच्चतर	-4433
ोटो	-4434
▁hi	-4435
▁सफेद	-4436
▁अभिला	-4437
▁जम्मू	-4438
▁release	-4439
▁o	-4440
वाना	-4441
▁यूरोपीय	-4442
▁निगर	-4443
▁अक्तूबर	-4444
▁निश	-4445
▁डाला	-4446
▁सांप	-4447
▁detail	-4448
▁पर्	-4449
▁बजा	-4450
▁पक्षों	-4451
▁निगरानी	-4452
▁उपनि	-4453
▁कर्नाटक	-4454
वित	-4455
▁क्रांति	-4456
▁कार्यवाहियों	-4457
▁कब्	-4458
▁कठिनाई	-4459
वृत्ति	-4460
▁उभर	-4461
▁खण्ड	-4462
▁नंबर	-4463
▁परिभाषा	-4464
ल्य	-4465
▁चाय	-4466
▁व्यक्तित्व	-4467
▁पाद	-4468
वरों	-4469
▁ग्ल	-4470
▁पड़ी	-4471
▁लड़के	-4472
▁सुबह	-4473
▁रवीन्द्रनाथ	-4474
▁तथ्यों	-4475
▁मैत्री	-4476
▁माध्यस्थ	-4477
▁आश्व	-4478
▁उत्तरा	-4479
▁पदार्थों	-4480
▁संवैधानिक	-4481
टु	-4482
▁भंग	-4483
▁लाइ	-4484
▁लड़ाई	-4485
▁शहरों	-4486
▁निपटान	-4487
▁विविधता	-4488
पीठ	-4489
▁मोड	-4490
▁बैंकिंग	-4491
ंतरण	-4492
▁बांग	-4493
▁आंध्र	-4494
▁घटा	-4495
▁नेशनल	-4496
▁आरंभिक	-4497
▁प्रतिबंध	-4498
ॉट	-4499
▁बाँ	-4500
▁आब	-4501
▁शान	-4502
▁चीजों	-4503
▁लगाना	-4504
ान्य	-4505
▁भूत	-4506
्रमण	-4507
शिष्ट	-4508
▁देशी	-4509
▁मुक्ति	-4510
▁सीमाओं	-4511
▁नृत्य	-4512
▁रहस्य	-4513
▁इस्लामी	-4514
▁जातियों	-4515
▁लाइसेंस	-4516
▁खड़े	-4517
▁चीनी	-4518
वादियों	-4519
▁अपनाया	-4520
▁स्वर्ण	-4521
▁कारावास	-4522
ग़	-4523
▁कहता	-4524
▁कामना	-4525
▁योग्यता	-4526
▁उतर	-4527
▁पौधे	-4528
नाक	-4529
ॉनिक	-4530
▁2002	-4531
▁खराब	-4532
▁न्यास	-4533
▁उन्नत	-4534
▁पश	-4535
रेखा	-4536
▁वैध	-4537
दर्शी	-4538
▁खतरे	-4539
▁पाँच	-4540
▁गुणा	-4541
▁मुकाब	-4542
ुति	-4543
▁33	-4544
▁परिचय	-4545
ंशिक	-4546
िल्प	-4547
▁उपे	-4548
▁खेत	-4549
▁वस्त्र	-4550
▁शिक्षण	-4551
▁जीवा	-4552
▁उपखंड	-4553
▁कोर्ट	-4554
▁देवता	-4555
▁ध्वनि	-4556
▁पंक्ति	-4557
▁मुद्दे	-4558
▁कहला	-4559
▁प्रसं	-4560
ao	-4561
िब	-4562
▁आक	-4563
ॉर्ड	-4564
▁अवल	-4565
▁2008	-4566
▁प्यार	-4567
▁सेटिंग	-4568
▁मक	-4569
▁वंचित	-4570
▁मूलभूत	-4571
▁सावधानी	-4572
▁न्यायपालिका	-4573
ोजक	-4574
▁क्	-4575
▁जैन	-4576
▁लेती	-4577
▁प्रक्रियाओं	-4578
जल	-4579
्वे	-4580
ास्ट	-4581
▁दरवा	-4582
▁प्रश्नों	-4583
▁ताकत	-4584
▁युक्ति	-4585
▁उपकरणों	-4586
▁अनुज्ञात	-4587
ङ्	-4588
▁अवसरों	-4589
▁निर्मा	-4590
▁अधिसूचना	-4591
▁यूनिट	-4592
▁स्क्रीन	-4593
▁साहित्यिक	-4594
▁हिंदुस्तान	-4595
▁अब्द	-4596
▁उतना	-4597
▁साझी	-4598
▁डिजाइन	-4599
▁अंतरिक्ष	-4600
▁डाउ	-4601
▁जानने	-4602
▁39	-4603
▁‘‘	-4604
▁तीसरे	-4605
.6	-4606
el	-4607
दायक	-4608
▁अपी	-4609
▁प्राधिकृत	-4610
ष्प	-4611
▁ट्रै	-4612
▁पैसे	-4613
▁मानना	-4614
▁विरासत	-4615
▁मंदिरों	-4616
▁y	-4617
▁उपायों	-4618
▁प्रतिबद्ध	-4619
▁बिलकुल	-4620
▁विक्रय	-4621
▁शक्तिशाली	-4622
मेल	-4623
▁दावे	-4624
▁अर्जित	-4625
▁संध्या	-4626
ंघन	-4627
▁मैने	-4628
▁पोर्ट	-4629
भि	-4630
रम	-4631
▁जहाज	-4632
▁जायें	-4633
▁बनाता	-4634
▁उठाया	-4635
▁अपराधों	-4636
लैंड	-4637
▁बेल	-4638
▁कक्षा	-4639
▁वाद्य	-4640
▁स्वभाव	-4641
▁कोय	-4642
▁अवमान	-4643
▁अधिरोप	-4644
वहार	-4645
▁कोट	-4646
▁मौलिक	-4647
ॉलर	-4648
▁वेद	-4649
▁उन्म	-4650
▁मजिस्ट	-4651
▁l	-4652
▁पैमाने	-4653
▁चू	-4654
▁इसील	-4655
ैया	-4656
▁वसू	-4657
▁टिप्पणी	-4658
मान्य	-4659
स्ट्रे	-4660
▁विनिश्चय	-4661
ल्ला	-4662
िस्त	-4663
16	-4664
ंभव	-4665
▁पृथक	-4666
▁मिथ	-4667
▁यहू	-4668
▁अनुचित	-4669
शे	-4670
▁चाहती	-4671
▁पेंशन	-4672
ंतिक	-4673
▁बजे	-4674
▁शोक	-4675
▁आराम	-4676
▁अमरीका	-4677
साइ	-4678
सनीय	-4679
▁नार	-4680
▁शर्त	-4681
▁पहुंचने	-4682
▁जीन	-4683
▁असाम	-4684
▁गर्भ	-4685
▁उपर्य	-4686
▁चंद्र	-4687
▁सम्पत्ति	-4688
▁प्रतियोगिता	-4689
▁2016	-4690
▁संचालित	-4691
ंठ	-4692
▁नेत्र	-4693
यात	-4694
▁धु	-4695
▁भरा	-4696
▁अगला	-4697
▁अपरि	-4698
▁स्वामित्व	-4699
उंड	-4700
श्म	-4701
▁शक्तियां	-4702
▁उद्देश्यों	-4703
▁द्विपक्षीय	-4704
ंगों	-4705
नीति	-4706
▁घूम	-4707
▁प्रवर्तन	-4708
ol	-4709
वधि	-4710
▁यो	-4711
▁वस	-4712
▁दिला	-4713
▁उपलब्धि	-4714
लाब	-4715
▁सदी	-4716
ूली	-4717
▁१५	-4718
▁घटक	-4719
▁मोटर	-4720
▁अस्थायी	-4721
▁मध्यस्थ	-4722
षे	-4723
▁खिल	-4724
▁रेश	-4725
▁भेजे	-4726
▁स्मार	-4727
शः	-4728
्रोल	-4729
▁अदा	-4730
▁फें	-4731
▁गुजर	-4732
▁दिमा	-4733
▁सराहना	-4734
▁संबोधित	-4735
▁विनिर्माण	-4736
ou	-4737
वती	-4738
़्त	-4739
▁निकाला	-4740
▁उपय	-4741
▁पहलू	-4742
▁साहस	-4743
▁फ्रांस	-4744
▁यथार्थ	-4745
▁जुड़	-4746
▁दण्ड	-4747
50	-4748
कोश	-4749
▁आवेद	-4750
▁पीढ़ी	-4751
▁बच्चा	-4752
▁भांति	-4753
▁परिवर्त	-4754
फोन	-4755
ग्रहण	-4756
▁ग्री	-4757
▁साइट	-4758
▁खि	-4759
▁ग्राफ	-4760
▁जुड़ा	-4761
▁रेडियो	-4762
▁पृष्ठभूमि	-4763
▁मानो	-4764
▁स्थाना	-4765
▁विभागों	-4766
ब्ल	-4767
▁महाराजा	-4768
▁कायम	-4769
▁तापमान	-4770
▁सकेंगे	-4771
ायर	-4772
क्रो	-4773
▁पोत	-4774
▁अंग्रेज	-4775
▁फ्र	-4776
▁लॉग	-4777
ंपरिक	-4778
▁उर्व	-4779
▁पर्वत	-4780
▁मनोर	-4781
▁श्रमिक	-4782
▁सेल	-4783
▁मुला	-4784
▁अत्यन्त	-4785
▁पत्रिका	-4786
ठे	-4787
▁मरा	-4788
▁जिनसे	-4789
कीर्ण	-4790
▁1999	-4791
▁तस्वी	-4792
▁संतुलन	-4793
अप	-4794
▁इंडियन	-4795
▁दिसंबर	-4796
▁कोशिकाओं	-4797
रचना	-4798
▁छाप	-4799
▁प्रतिदिन	-4800
▁ड्र	-4801
ड्डी	-4802
ख्यान	-4803
▁तमिलना	-4804
▁रजिस्ट्रीकरण	-4805
▁बहस	-4806
▁ईसाई	-4807
▁मूर्ति	-4808
▁इक	-4809
्त्र	-4810
▁पंडित	-4811
▁बनाकर	-4812
ac	-4813
▁रानी	-4814
▁अन्वेषण	-4815
▁’	-4816
▁कने	-4817
.2014	-4818
▁व्युत्	-4819
▁शास्त्र	-4820
▁विद्यार्थी	-4821
,2	-4822
ोक्	-4823
ंचाई	-4824
▁पोजी	-4825
▁ढांचा	-4826
▁कारोबार	-4827
▁ड़	-4828
▁जाग	-4829
▁परिश	-4830
▁तरीकों	-4831
▁युवाओं	-4832
▁इंजीनिय	-4833
▁दक्षिणी	-4834
क्तिक	-4835
▁ठहरा	-4836
▁समितियों	-4837
▁पच	-4838
व्यों	-4839
.8	-4840
▁दर्	-4841
▁संग्र	-4842
▁समझते	-4843
यिक	-4844
▁हटाने	-4845
▁अवधारणा	-4846
यक	-4847
▁वसूली	-4848
ब्र	-4849
▁लल	-4850
म्बई	-4851
सिंह	-4852
हारिक	-4853
▁समाय	-4854
ाइन	-4855
▁आर्	-4856
घर	-4857
ेदन	-4858
▁मुकदमे	-4859
▁राजभाषा	-4860
म्बे	-4861
▁लंबित	-4862
▁गिरफ्तार	-4863
▁चैतन	-4864
▁दिलच	-4865
▁देखे	-4866
▁जितनी	-4867
▁श्रीमती	-4868
▁उपर्युक्त	-4869
▁क्रियान्व	-4870
यु	-4871
▁कारक	-4872
▁उपयोगकर्ता	-4873
तरी	-4874
▁पॉल	-4875
▁नाते	-4876
14	-4877
हाई	-4878
▁49	-4879
▁मानी	-4880
▁संदेय	-4881
▁तत्त्व	-4882
▁पारंपरिक	-4883
शोथ	-4884
▁न्	-4885
▁वय	-4886
▁बचत	-4887
▁बांग्ला	-4888
▁चिप	-4889
▁हाँ	-4890
▁बोली	-4891
▁मिलेगी	-4892
्मी	-4893
पादक	-4894
▁खनि	-4895
▁क्षण	-4896
स्तानी	-4897
▁रहेंगे	-4898
ुरा	-4899
▁जाओ	-4900
▁लगती	-4901
▁आबादी	-4902
▁प्रभाग	-4903
▁जिम्मेदार	-4904
त्ते	-4905
▁पंख	-4906
▁चैनल	-4907
▁होंगी	-4908
▁परिवेश	-4909
▁पक्षकारों	-4910
▁मार्गदर्शन	-4911
रुप	-4912
क्राम	-4913
▁उतार	-4914
िर्धारित	-4915
▁O	-4916
▁नान	-4917
▁दुःख	-4918
▁दिखाया	-4919
▁धातु	-4920
▁कराना	-4921
▁फ़ोल्डर	-4922
दल	-4923
▁iii	-4924
▁खूब	-4925
▁गुल	-4926
▁चुना	-4927
▁संवेदन	-4928
▁37	-4929
ग्रा	-4930
▁बीस	-4931
▁हरि	-4932
▁गुरू	-4933
▁चैतन्य	-4934
▁मिलेगा	-4935
▁इलाज	-4936
▁रुचि	-4937
▁पोजीशन	-4938
▁महीनों	-4939
▁रिकार्ड	-4940
▁तात्	-4941
▁समझे	-4942
▁अकेले	-4943
▁अभिगम	-4944
▁स्तरों	-4945
▁आतंकवादी	-4946
▁सकारात्मक	-4947
▁व्यावहारिक	-4948
▁झू	-4949
▁बारह	-4950
दोष	-4951
▁१८	-4952
▁इसीलिए	-4953
भेद	-4954
▁छोड	-4955
कलापों	-4956
▁हकदार	-4957
▁हैदरा	-4958
▁188	-4959
▁अज्ञ	-4960
▁फैला	-4961
▁कॉलेज	-4962
कुमार	-4963
▁दोनो	-4964
▁उद्यान	-4965
▁केंद्रित	-4966
▁सहन	-4967
▁लड़की	-4968
ेयर	-4969
ँग	-4970
▁सद्	-4971
▁बिता	-4972
▁जोड़ने	-4973
▁उन्होने	-4974
▁निष्क्रिय	-4975
पंथी	-4976
▁अहम	-4977
▁तिल	-4978
▁बडी	-4979
च्छिक	-4980
▁बनाते	-4981
▁विद्रोह	-4982
द्रास	-4983
▁दोहरा	-4984
तांत्रिक	-4985
▁इलेक्ट्रॉनिक	-4986
▁189	-4987
▁ढूं	-4988
▁रिज	-4989
▁पेशे	-4990
▁गारंटी	-4991
▁महाभारत	-4992
बारा	-4993
लिंग	-4994
▁वादी	-4995
ध्यक्ष	-4996
▁अभिलाभ	-4997
▁संभावित	-4998
ुण	-4999
▁आपात	-5000
काय	-5001
सूर	-5002
▁चतु	-5003
▁धरती	-5004
▁सिंध	-5005
▁ऊंचाई	-5006
▁पालिसी	-5007
▁पुष्टि	-5008
्मा	-5009
▁फार	-5010
ंत्रित	-5011
▁डालने	-5012
▁भर्ती	-5013
▁सम्बंध	-5014
▁सिंचाई	-5015
▁पंजीकृत	-5016
▁पड़ती	-5017
▁ग्राहकों	-5018
▁अकाद	-5019
▁कट्ट	-5020
▁आधारभूत	-5021
▁संतु	-5022
▁पशुओं	-5023
▁बढ़ने	-5024
▁रूपों	-5025
▁भगवान्	-5026
▁कोष	-5027
▁भरी	-5028
▁भरे	-5029
▁प्रांत	-5030
▁वस्तुतः	-5031
▁एयर	-5032
▁लार	-5033
▁जाएँ	-5034
▁याची	-5035
▁रहित	-5036
▁चुनें	-5037
am	-5038
▁इमार	-5039
▁कहां	-5040
कांक्षा	-5041
▁परिवारों	-5042
▁उदा	-5043
▁दाख	-5044
▁हिस	-5045
▁वार्	-5046
▁रसायन	-5047
▁जायेगी	-5048
▁प्रेषित	-5049
िली	-5050
ड़िया	-5051
▁स्मरण	-5052
▁मजिस्ट्रेट	-5053
▁बारी	-5054
▁जानकर	-5055
▁अम्	-5056
▁चली	-5057
▁रिट	-5058
▁छाया	-5059
▁पट्टी	-5060
▁संतोष	-5061
▁उत्तरदायित्व	-5062
12	-5063
▁टूट	-5064
▁आंशिक	-5065
▁उल्लंघन	-5066
▁हैदराबाद	-5067
स्ट्रेलिया	-5068
ंदगी	-5069
▁2011	-5070
▁मद्रास	-5071
▁डिज	-5072
▁पदों	-5073
▁निकालने	-5074
he	-5075
▁असह	-5076
दायिक	-5077
▁ऊपरी	-5078
▁ट्रे	-5079
्टा	-5080
▁बहुमत	-5081
▁पहाड़ी	-5082
गि	-5083
जीवन	-5084
▁इंद	-5085
ायतों	-5086
▁मातृ	-5087
क्षणिक	-5088
▁मानता	-5089
▁अमरीकी	-5090
▁प्रतीक्षा	-5091
▁इच्छ	-5092
▁शांत	-5093
जीवी	-5094
▁प्लस	-5095
कल्पिक	-5096
▁फैसला	-5097
▁धा	-5098
▁स्टेशन	-5099
▁घृ	-5100
▁फु	-5101
वर्ड	-5102
▁आकलन	-5103
▁संपदा	-5104
▁पहुंचे	-5105
▁शिक्षकों	-5106
काता	-5107
ैण्ड	-5108
▁ईरान	-5109
▁एकदम	-5110
▁मुंह	-5111
▁जापान	-5112
▁परिसर	-5113
रलाल	-5114
र्थी	-5115
▁व्यापारी	-5116
कू	-5117
रस	-5118
▁शौ	-5119
मानी	-5120
ष्णु	-5121
▁आयी	-5122
श्वास	-5123
▁अभ्य	-5124
▁कागज	-5125
▁साझा	-5126
▁पार्क	-5127
▁तदन	-5128
▁कपड़े	-5129
▁पुरूष	-5130
शाह	-5131
▁पाप	-5132
▁स्वीकृत	-5133
▁प्रयोगशाला	-5134
▁मुगल	-5135
▁प्रजनन	-5136
▁कर्ण	-5137
▁सम्भव	-5138
ंधन	-5139
राशि	-5140
▁कड़ी	-5141
▁पांड	-5142
▁देखता	-5143
▁विवरणी	-5144
▁वैकल्पिक	-5145
▁एल्	-5146
बो	-5147
्रु	-5148
▁ज्यो	-5149
▁जोड़ा	-5150
▁थोड़ी	-5151
▁शान्त	-5152
▁मानवता	-5153
्नि	-5154
▁जला	-5155
द्दीन	-5156
▁हाथी	-5157
▁मुकदमा	-5158
▁किन्हीं	-5159
ुत्व	-5160
▁लगते	-5161
▁जर्मनी	-5162
▁पुस्तकों	-5163
पू	-5164
ज़े	-5165
▁चुप	-5166
▁लकड़ी	-5167
▁पूर्णतः	-5168
ार्ट	-5169
▁वर्मा	-5170
▁सिवाय	-5171
▁दस्तावेजों	-5172
ैट	-5173
तावनी	-5174
▁वापसी	-5175
▁समझता	-5176
इयां	-5177
▁187	-5178
▁धन्यवाद	-5179
▁चेक	-5180
▁गहराई	-5181
ड्य	-5182
▁43	-5183
▁हां	-5184
▁2003	-5185
▁पैके	-5186
▁विनियमन	-5187
जो	-5188
▁r	-5189
▁जवाहरलाल	-5190
लभ	-5191
बान	-5192
र्दू	-5193
्वान	-5194
▁गईं	-5195
ासंगिक	-5196
▁रिक्त	-5197
▁७	-5198
पूर	-5199
कलाप	-5200
▁संधि	-5201
▁संगठित	-5202
▁उल्लिखित	-5203
▁जमान	-5204
▁दार्	-5205
▁बैठे	-5206
▁रोगों	-5207
▁उन्हीं	-5208
▁चेतावनी	-5209
रेख	-5210
प्ति	-5211
▁कॉल	-5212
▁पाता	-5213
▁सूचित	-5214
▁खड़ी	-5215
▁लिंक	-5216
▁उत्तेज	-5217
▁पहलुओं	-5218
▁तमिलनाडु	-5219
▁बग	-5220
▁जमी	-5221
▁गद्य	-5222
▁गौरव	-5223
▁साधनों	-5224
ेरे	-5225
ायल	-5226
▁तृ	-5227
▁कही	-5228
▁मछली	-5229
▁2004	-5230
▁गाड़ी	-5231
▁ड्राइ	-5232
▁प्रसंस्	-5233
▁सम्पर्क	-5234
▁नकारात्मक	-5235
▁उर्दू	-5236
▁तुर्की	-5237
▁प्रतिष्ठित	-5238
▁पढ	-5239
▁सल	-5240
▁साझे	-5241
ाधिकार	-5242
▁मान्य	-5243
▁कुशलता	-5244
▁दक्षता	-5245
▁संभवतः	-5246
▁कानूनों	-5247
थान	-5248
▁चिन्ह	-5249
▁विवेक	-5250
▁गिरा	-5251
▁निवासी	-5252
शेष	-5253
▁चुकता	-5254
▁एप	-5255
▁एव	-5256
▁आखिर	-5257
▁शल्य	-5258
▁ब्राउ	-5259
▁इल	-5260
नलोड	-5261
र्गी	-5262
▁शोर	-5263
▁माने	-5264
▁भेजने	-5265
▁टिप्पण	-5266
▁इंग्लैंड	-5267
▁किलोमीटर	-5268
▁मधु	-5269
▁लोड	-5270
.2015	-5271
▁पड़ेगा	-5272
▁फलस्वरूप	-5273
▁शपथ	-5274
▁अंग्रेजों	-5275
वाने	-5276
▁अवय	-5277
▁सीधा	-5278
▁चयनित	-5279
गरी	-5280
ायण	-5281
▁बोध	-5282
▁उग्र	-5283
▁निरसन	-5284
▁गांधीजी	-5285
▁प्रतिबि	-5286
▁अभिनिर्धारित	-5287
▁u	-5288
ोहन	-5289
▁शो	-5290
न्या	-5291
▁अक्षम	-5292
▁अट	-5293
▁साहब	-5294
▁आपस	-5295
▁आबंट	-5296
▁डॉलर	-5297
▁प्रबल	-5298
▁स्त्रियों	-5299
▁दुकान	-5300
निंग	-5301
पक्ष	-5302
▁जुल	-5303
▁सतत	-5304
▁उतनी	-5305
▁रखकर	-5306
▁शानदार	-5307
▁प्रतिवादी	-5308
संरचना	-5309
▁रूपांत	-5310
धक	-5311
▁छिप	-5312
▁देखी	-5313
▁नवं	-5314
▁याता	-5315
▁यानी	-5316
▁चीजें	-5317
▁तैयारी	-5318
▁व्यवस्थित	-5319
नान	-5320
िटल	-5321
फेसर	-5322
▁अंतराल	-5323
▁कनेक्शन	-5324
▁क्रांतिक	-5325
▁तीनों	-5326
▁स्टेट	-5327
▁प्रतिर	-5328
▁मिश्रण	-5329
▁48	-5330
▁सेक	-5331
▁हरे	-5332
▁पाये	-5333
▁अपमान	-5334
▁विनाश	-5335
▁एकीकृत	-5336
▁भरो	-5337
▁जू	-5338
▁ज्व	-5339
▁सिख	-5340
▁उत्तम	-5341
▁सम्बन्धित	-5342
लिप	-5343
ारक	-5344
▁अफग	-5345
▁काला	-5346
▁अपनाने	-5347
▁प्रसाद	-5348
▁स्वाधीन	-5349
▁चिकित्सक	-5350
खन	-5351
▁बन्द	-5352
▁एजेंस	-5353
▁मुझसे	-5354
एच	-5355
▁ष	-5356
▁पहन	-5357
▁मेन	-5358
▁रेड	-5359
▁गुणों	-5360
िवृ	-5361
▁क्व	-5362
▁सड़	-5363
▁माध्यस्थम्	-5364
जु	-5365
स्को	-5366
▁भाष्	-5367
▁पत्रों	-5368
▁चुनौतियों	-5369
▁कस	-5370
▁खून	-5371
▁पोल	-5372
▁अखिल	-5373
▁दोस्त	-5374
▁हिसाब	-5375
▁चिकित्सीय	-5376
10	-5377
कना	-5378
▁हिमा	-5379
▁कीटों	-5380
▁नवंबर	-5381
▁घनिष्ठ	-5382
▁निष्ठा	-5383
▁अहि	-5384
▁सिक	-5385
ष्कार	-5386
▁खोलने	-5387
▁वृद्ध	-5388
▁अनुपालन	-5389
▁विश्वसनीय	-5390
गों	-5391
▁त्रि	-5392
▁कट्टर	-5393
▁जीवों	-5394
▁रहेगी	-5395
▁गतिविधि	-5396
iv	-5397
देन	-5398
▁पूर	-5399
▁अंततः	-5400
▁सैन्य	-5401
▁मशीनरी	-5402
▁संपन्न	-5403
▁कोलकाता	-5404
▁यातायात	-5405
प्रद	-5406
▁औषध	-5407
▁सुश	-5408
▁पैसा	-5409
▁प्रोफेसर	-5410
हे	-5411
ापरी	-5412
्रीम	-5413
▁वास	-5414
▁हमे	-5415
▁क्रमशः	-5416
▁विवादों	-5417
भौ	-5418
▁नज	-5419
शनिक	-5420
▁लाना	-5421
▁पोस्ट	-5422
▁डाउनलोड	-5423
▁९	-5424
लांग	-5425
वानी	-5426
वारी	-5427
▁सकल	-5428
ड़ीसा	-5429
▁अनाज	-5430
▁काले	-5431
ुणा	-5432
▁90	-5433
▁१९९	-5434
प्न	-5435
यक्तिक	-5436
▁अस्थि	-5437
▁मंजूर	-5438
▁कार्यान्वित	-5439
▁वैज्ञानिकों	-5440
राय	-5441
▁42	-5442
▁2009	-5443
▁प्रदत्त	-5444
ंसक	-5445
▁घो	-5446
▁ध्वज	-5447
न्दा	-5448
▁बडे	-5449
▁अपराधी	-5450
▁परिचित	-5451
▁मित्रों	-5452
▁स्थितियों	-5453
▁एजेंसी	-5454
▁कार्यपालिका	-5455
▁लोकतांत्रिक	-5456
गामी	-5457
▁इकट	-5458
▁प्लेट	-5459
▁बढ़ते	-5460
▁किराये	-5461
▁लोकसभा	-5462
▁सभापति	-5463
.9	-5464
सेना	-5465
▁महल	-5466
▁बहाद	-5467
▁तस्वीर	-5468
▁पुनर्व	-5469
▁दार्शनिक	-5470
काया	-5471
▁1956	-5472
▁उठाए	-5473
▁विलंब	-5474
▁अस्वीकार	-5475
ाहट	-5476
वृत्त	-5477
ec	-5478
रु	-5479
▁इस्	-5480
▁पीड़ा	-5481
▁रचनात्मक	-5482
▁घास	-5483
▁शंकर	-5484
▁हजारों	-5485
▁प्रतिफल	-5486
▁प्रमाणित	-5487
्टे	-5488
ड़ना	-5489
कियों	-5490
▁दोषी	-5491
▁आरक्षित	-5492
मुच	-5493
स्कर	-5494
▁186	-5495
त्रिम	-5496
▁कुटु	-5497
▁पंचा	-5498
▁बांट	-5499
▁आह्वान	-5500
▁ज्योति	-5501
थे	-5502
ोज़	-5503
▁सहारा	-5504
▁राष्ट्रों	-5505
▁वांछ	-5506
▁डिग्री	-5507
▁शैक्षणिक	-5508
िलों	-5509
▁चेहरे	-5510
▁शत्रु	-5511
▁मानकों	-5512
▁प्रतिष्ठा	-5513
▁क्षतिपूर्ति	-5514
कन	-5515
न्तर	-5516
▁आपसे	-5517
▁विनिधान	-5518
▁व्यापारिक	-5519
▁हमला	-5520
▁अधिरोपित	-5521
▁छु	-5522
▁फौ	-5523
▁भक्त	-5524
▁दिमाग	-5525
०००	-5526
्राव	-5527
▁घाटी	-5528
तन्त्र	-5529
▁आस्था	-5530
▁जुड़ी	-5531
▁सतर्क	-5532
मेन	-5533
▁गर्व	-5534
▁कालेज	-5535
▁क्रमा	-5536
▁ट्यूब	-5537
13	-5538
▁70	-5539
▁बढ़कर	-5540
▁जायेंगे	-5541
लक	-5542
▁75	-5543
▁वस्तुएं	-5544
ME	-5545
ोनें	-5546
▁झील	-5547
▁1947	-5548
▁सचमुच	-5549
▁गवर्नर	-5550
▁दिसम्बर	-5551
▁शिक्षित	-5552
▁समुदायों	-5553
▁विचारधारा	-5554
ation	-5555
▁देखो	-5556
▁बदला	-5557
▁संभाल	-5558
▁धनराशि	-5559
▁रूस	-5560
▁घरों	-5561
▁दिनांक	-5562
ँस	-5563
क़्	-5564
▁उभ	-5565
▁राह	-5566
गोलिक	-5567
▁असली	-5568
▁स्तरीय	-5569
▁कार्यरत	-5570
▁पुस्तिका	-5571
▁प्रासंगिक	-5572
▁निर्देशिका	-5573
▁८	-5574
▁तू	-5575
▁नवी	-5576
▁कृत्रिम	-5577
▁इंजीनियर	-5578
▁गि	-5579
▁पुण	-5580
ब्लिक	-5581
▁अभिर	-5582
▁कृति	-5583
▁पढ़ा	-5584
▁नवम्बर	-5585
▁सहयोगी	-5586
og	-5587
▁कबी	-5588
▁कथित	-5589
▁नस्ल	-5590
▁प्रतिरोध	-5591
कात	-5592
▁बम	-5593
र्जन	-5594
सलों	-5595
ार्इ	-5596
▁नकद	-5597
▁इकट्	-5598
▁बंदर	-5599
▁वाहन	-5600
▁हार्ड	-5601
थन	-5602
्रेता	-5603
▁दाखिल	-5604
▁ब्राह्मण	-5605
▁विद्वानों	-5606
▁मतदान	-5607
▁परिवर्तनों	-5608
ंजा	-5609
▁115	-5610
▁रिस	-5611
क़्ति	-5612
▁अंडे	-5613
▁आपसी	-5614
▁ईंधन	-5615
▁सम्रा	-5616
ोक्ताओं	-5617
▁भावनाओं	-5618
▁भौगोलिक	-5619
▁दुर्भाग्य	-5620
ed	-5621
▁टू	-5622
िकीय	-5623
▁जिसको	-5624
▁श्वेत	-5625
बेस	-5626
▁लीग	-5627
▁फोटो	-5628
▁समेक	-5629
▁स्तन	-5630
▁प्रक्रम	-5631
▁प्रभावशाली	-5632
▁सामान्यतया	-5633
▁कना	-5634
चालित	-5635
▁चट्ट	-5636
▁आदेशों	-5637
ख्त	-5638
बों	-5639
▁धम	-5640
विदा	-5641
▁उत्पादक	-5642
▁उपलब्धता	-5643
अल	-5644
ढ़े	-5645
यालय	-5646
▁सीता	-5647
▁फाइ	-5648
स्पति	-5649
▁असामान्य	-5650
हीत	-5651
▁पाइ	-5652
▁बुल	-5653
▁मासिक	-5654
▁लेंगे	-5655
▁लेखकों	-5656
▁परिस्थिति	-5657
▁अच	-5658
स्फोट	-5659
▁लिपि	-5660
▁शासक	-5661
▁अवरोध	-5662
▁अनुदेश	-5663
▁अमर	-5664
▁चावल	-5665
▁तलाश	-5666
▁बनता	-5667
▁अभ्यास	-5668
▁उड़ीसा	-5669
ad	-5670
ोद	-5671
जाल	-5672
▁38	-5673
ंतरित	-5674
▁खतरनाक	-5675
▁उपेक्षा	-5676
▁दर्शाता	-5677
▁अधिवक्ता	-5678
पेश	-5679
▁ऊतक	-5680
▁मेम	-5681
▁अर्जन	-5682
▁संवेद	-5683
▁दीक्षा	-5684
▁पूर्वा	-5685
▁सुन्दर	-5686
▁भव	-5687
▁अग्नि	-5688
▁अपवाद	-5689
▁ऑडियो	-5690
▁शुक्र	-5691
▁सेवान	-5692
▁अज्ञात	-5693
दनी	-5694
ंडिक	-5695
▁चमक	-5696
▁अतीत	-5697
▁ईमान	-5698
▁उपरा	-5699
▁गणित	-5700
▁क्रेड	-5701
▁शेयरों	-5702
▁इकाइयों	-5703
▁अपेक्षाकृत	-5704
▁प्रसंस्करण	-5705
क्की	-5706
वर्त	-5707
साइटी	-5708
▁निबंध	-5709
IN	-5710
▁कीम	-5711
▁जंगल	-5712
▁जमानत	-5713
▁वैदिक	-5714
▁पूर्ववर्ती	-5715
ोचित	-5716
▁लंबाई	-5717
▁नाब	-5718
▁बिट	-5719
▁सूच	-5720
▁कहाँ	-5721
▁लंदन	-5722
दाताओं	-5723
▁अनुक्रम	-5724
▁रजिस्टर	-5725
▁संक्षेप	-5726
जनों	-5727
▁उत्प	-5728
▁हाउस	-5729
▁तीसरा	-5730
▁हिमाचल	-5731
▁कार्मिक	-5732
वेट	-5733
▁अभिप्र	-5734
ानिस्तान	-5735
स्तु	-5736
▁कम्	-5737
▁गहरे	-5738
▁गोरा	-5739
स्परिक	-5740
▁नदियों	-5741
▁योजनाएं	-5742
▁सोसाइटी	-5743
ँचे	-5744
▁बेर	-5745
▁पैकेज	-5746
झा	-5747
वत्	-5748
▁निधन	-5749
▁जुर्म	-5750
▁त्वरित	-5751
▁मुख्यतः	-5752
ंपा	-5753
▁टिकट	-5754
▁अंकित	-5755
▁प्रणालियों	-5756
वाँ	-5757
▁185	-5758
▁चुक	-5759
▁मेघ	-5760
▁गीता	-5761
▁सुनने	-5762
▁केंद्रों	-5763
▁राज्यक्षेत्र	-5764
ेस	-5765
क्सा	-5766
▁परत	-5767
▁2010	-5768
▁आईटी	-5769
▁बुरी	-5770
▁कैंसर	-5771
▁प्रचालन	-5772
▁मादा	-5773
▁पिछली	-5774
▁संग्रहालय	-5775
रणों	-5776
▁आयकर	-5777
चन्द्र	-5778
▁प्रसारण	-5779
▁रिकॉर्ड	-5780
▁अजी	-5781
▁अहं	-5782
▁तनाव	-5783
▁फायदा	-5784
▁मतभेद	-5785
▁दिखाने	-5786
▁आस्तियों	-5787
▁यान	-5788
▁रखती	-5789
▁साथी	-5790
▁पक्षी	-5791
▁निर्णयों	-5792
▁व्युत्पन्न	-5793
्द	-5794
▁अगली	-5795
▁नकदी	-5796
▁आयुर्	-5797
▁कुरान	-5798
▁डाक्टर	-5799
▁वार्ता	-5800
ितु	-5801
▁खुला	-5802
▁बोलते	-5803
▁सेक्टर	-5804
▁प्रोटोक	-5805
▁खर्	-5806
▁सीखने	-5807
ानुभूति	-5808
▁परेशान	-5809
▁माननीय	-5810
▁विनिया	-5811
▁अनुमोदित	-5812
▁१०	-5813
दूरी	-5814
▁संकल्पना	-5815
▁अध्यक्षता	-5816
▁पारस्परिक	-5817
प्ट	-5818
▁असल	-5819
▁बंबई	-5820
▁मोटे	-5821
▁मौका	-5822
▁सोने	-5823
▁शासित	-5824
▁संगणक	-5825
ोपण	-5826
▁डो	-5827
▁बचने	-5828
▁दशकों	-5829
▁व्याख्यान	-5830
st	-5831
िमा	-5832
नाइट	-5833
भाषण	-5834
▁ताज	-5835
▁बलि	-5836
नेक्ट	-5837
▁बयान	-5838
▁सौंदर	-5839
▁अन्तिम	-5840
▁मंजूरी	-5841
▁रामायण	-5842
▁समर्पण	-5843
▁तदनुसार	-5844
▁आमंत्रित	-5845
▁वैयक्तिक	-5846
सेस	-5847
▁नल	-5848
▁किल	-5849
▁खबर	-5850
▁मस्	-5851
▁ज़रूर	-5852
▁मानदंड	-5853
▁विष्णु	-5854
▁व्यस्त	-5855
▁लक्ष्यों	-5856
डो	-5857
▁बनना	-5858
▁बचाने	-5859
▁लिखते	-5860
▁कच	-5861
▁पन	-5862
आईआर	-5863
▁ऑफ़	-5864
▁लोप	-5865
▁वजन	-5866
▁पाना	-5867
एमई	-5868
चाप	-5869
क्कर	-5870
संख्य	-5871
▁काली	-5872
▁क्रेडिट	-5873
डन	-5874
डि	-5875
ूण	-5876
कीन	-5877
▁ढल	-5878
▁खनिज	-5879
▁अनन्त	-5880
ंर	-5881
छा	-5882
सार	-5883
ांसी	-5884
▁स्टा	-5885
ियुक्त	-5886
▁चेन्न	-5887
▁क़्यों	-5888
▁साक्षा	-5889
▁विन्यास	-5890
▁विकासशील	-5891
मंड	-5892
ोसिए	-5893
▁वाम	-5894
▁टीका	-5895
▁गर्मी	-5896
▁हथियार	-5897
▁सितम्बर	-5898
▁इंजीनियरी	-5899
,3	-5900
▁तारा	-5901
▁चलाया	-5902
▁दांडिक	-5903
▁संगणना	-5904
▁उद्यमों	-5905
▁तुम्हारी	-5906
णित	-5907
▁रासाय	-5908
▁प्रबंधक	-5909
▁अवसंरचना	-5910
▁आदर	-5911
▁दौड़	-5912
▁लगाए	-5913
▁वरन्	-5914
▁चाहूंगा	-5915
णि	-5916
▁अर्ज	-5917
▁भाग्य	-5918
▁शाखाओं	-5919
▁परंपरागत	-5920
ुरत	-5921
▁खर	-5922
▁पेर	-5923
▁वासी	-5924
▁विजे	-5925
▁सहेज	-5926
प्राप्त	-5927
▁रिजर्व	-5928
▁आकांक्षा	-5929
ष्म	-5930
▁नर्म	-5931
▁सबूत	-5932
कारिता	-5933
ानुसार	-5934
▁इन्द्र	-5935
▁तीर्थ	-5936
▁कवियों	-5937
▁टॉ	-5938
▁फुट	-5939
▁मौत	-5940
▁उपरो	-5941
▁गलती	-5942
▁पैनल	-5943
▁अंतरित	-5944
▁पुराना	-5945
▁अभिव्यक्त	-5946
ेंच	-5947
ामिन	-5948
▁आवि	-5949
व्यापी	-5950
▁सेवानिवृ	-5951
दू	-5952
▁इसको	-5953
▁ऊंची	-5954
▁सृजित	-5955
▁पंजाबी	-5956
▁रचनाओं	-5957
▁अधीनस्थ	-5958
्फ	-5959
हता	-5960
▁स्वै	-5961
▁आंकड़े	-5962
▁स्वप्न	-5963
▁देवताओं	-5964
▁छत	-5965
▁समू	-5966
▁विट	-5967
▁अद्व	-5968
▁आजाद	-5969
▁टर्म	-5970
▁पारि	-5971
▁उपरोक्त	-5972
▁पॉ	-5973
▁डिप	-5974
▁निकलने	-5975
ार्थियों	-5976
▁अभियोजन	-5977
▁संयोजन	-5978
▁सम्मानित	-5979
▁मं	-5980
▁पुस्तकालय	-5981
▁प्रशिक्षित	-5982
▁आभ	-5983
▁जॉ	-5984
▁हड़	-5985
▁निरूप	-5986
▁लाभों	-5987
▁संग्रहण	-5988
▁रासायनिक	-5989
िथ	-5990
▁रन	-5991
स्तीन	-5992
▁टेक्	-5993
▁पचास	-5994
▁पाठक	-5995
▁हरिया	-5996
खर	-5997
▁वन्य	-5998
▁पेट्रोल	-5999
▁बल्लेबाज	-6000
विंद	-6001
▁अवर	-6002
▁किश	-6003
.2016	-6004
ब्ल्यू	-6005
▁संचित	-6006
▁जानवरों	-6007
▁नियंत्रक	-6008
पक्व	-6009
▁धूम	-6010
शुल्क	-6011
▁वैष्ण	-6012
▁अधिवेशन	-6013
▁पुस्तकें	-6014
▁विनियामक	-6015
▁at	-6016
स्टर	-6017
▁दांत	-6018
▁सेंट	-6019
श्रे	-6020
▁दमन	-6021
▁वेश	-6022
स्तीनी	-6023
▁अक्षर	-6024
▁प्रोटीन	-6025
▁सलाहकार	-6026
11	-6027
ध्व	-6028
▁नती	-6029
▁बडा	-6030
▁भिन्	-6031
▁श्रो	-6032
▁अनुया	-6033
▁लिखना	-6034
▁उपग्रह	-6035
▁दिखाएँ	-6036
ानाथ	-6037
▁अखबार	-6038
▁कमीशन	-6039
▁गर्भा	-6040
▁तीसरी	-6041
aa	-6042
ोधन	-6043
ूँगा	-6044
▁मेज	-6045
▁होटल	-6046
▁अपितु	-6047
▁तुमने	-6048
▁प्राइ	-6049
▁पूर्णता	-6050
uot	-6051
िनल	-6052
पर्य	-6053
▁एण्ड	-6054
▁तत्स	-6055
▁अधिका	-6056
▁स्पर्श	-6057
▁कविताओं	-6058
▁संतुष्ट	-6059
पोषण	-6060
▁क्यू	-6061
▁मोहन	-6062
▁विषा	-6063
▁फसलों	-6064
im	-6065
▁ऊंचे	-6066
▁जाया	-6067
▁पूर्णतया	-6068
▁परिकल्पना	-6069
विन	-6070
▁लगने	-6071
▁आकर्षण	-6072
▁परिश्रम	-6073
तो	-6074
ण्डल	-6075
ेनिस	-6076
▁रिज़	-6077
▁कृत्य	-6078
▁परिपक्व	-6079
▁सौंदर्य	-6080
▁निष्पक्ष	-6081
▁of	-6082
ूकता	-6083
▁कहे	-6084
▁विधा	-6085
▁विधायी	-6086
▁सम्पन्न	-6087
▁सैनिकों	-6088
▁कार्यालयों	-6089
,5	-6090
ैंक	-6091
कारा	-6092
ेडकर	-6093
▁हिल	-6094
▁बताते	-6095
▁स्कूलों	-6096
▁अंग्रेज़ी	-6097
▁कराई	-6098
▁दलों	-6099
▁निचले	-6100
▁छुट्टी	-6101
▁स्वाधीनता	-6102
एक	-6103
पीसी	-6104
िक्र	-6105
▁जुट	-6106
▁ग्रे	-6107
▁सबके	-6108
▁ग्रस्त	-6109
साई	-6110
▁शर	-6111
र्मी	-6112
▁प्रेमच	-6113
▁मरम्मत	-6114
▁सार्वभौ	-6115
▁उन्होनें	-6116
▁प्रभार्य	-6117
▁जगत	-6118
▁संभ	-6119
▁सज्	-6120
▁लम्बे	-6121
▁शर्तें	-6122
टो	-6123
सेट	-6124
▁उपज	-6125
▁तंग	-6126
▁ह्र	-6127
क्षरता	-6128
▁यहूदी	-6129
▁चित्रण	-6130
▁अभिभाषण	-6131
▁लेखापरी	-6132
▁विधियां	-6133
▁विस्फोट	-6134
▁तरल	-6135
▁सहानुभूति	-6136
दूत	-6137
मों	-6138
ूनी	-6139
▁एक्	-6140
▁ज़ि	-6141
▁बटन	-6142
▁प्रतिस्पर्धा	-6143
ुश	-6144
▁आधा	-6145
▁सूजन	-6146
▁विदेशों	-6147
▁क्रांतिकारी	-6148
तकों	-6149
▁असी	-6150
▁समर्थित	-6151
▁फिलीस्तीनी	-6152
▁वास्तविकता	-6153
ड्र	-6154
▁अमल	-6155
▁दाम	-6156
▁बनाती	-6157
▁सफलतापूर्वक	-6158
▁०	-6159
बाई	-6160
शाही	-6161
▁कनाडा	-6162
▁कमांड	-6163
गें	-6164
▁सेन	-6165
▁नर्स	-6166
▁मिटा	-6167
▁विधाय	-6168
दर्शिता	-6169
▁प्राणी	-6170
▁संदत्त	-6171
▁प्रावधानों	-6172
शित	-6173
हाल	-6174
▁बसव	-6175
▁सोल	-6176
▁अव्य	-6177
▁वृत्ति	-6178
ैस	-6179
खिक	-6180
▁क्रय	-6181
त्तियों	-6182
▁इन्हीं	-6183
19	-6184
ढ़ा	-6185
▁घात	-6186
▁ठाक	-6187
▁शादी	-6188
▁सकने	-6189
▁बहादुर	-6190
तना	-6191
▁नमक	-6192
▁कारख	-6193
▁पीने	-6194
▁जानना	-6195
चिक	-6196
पश्च	-6197
▁आधे	-6198
▁जाह	-6199
▁आपदा	-6200
▁निपटने	-6201
▁भरने	-6202
▁कलाकार	-6203
▁अनुज्ञा	-6204
▁महासागर	-6205
▁मुकाबले	-6206
टाई	-6207
वाणी	-6208
▁बढा	-6209
▁हिन्दुस्तान	-6210
ल्फ	-6211
▁इंत	-6212
▁शरण	-6213
▁जागरूकता	-6214
▁समस्याएं	-6215
यंती	-6216
▁भत्ता	-6217
▁वितरित	-6218
▁मुलाकात	-6219
▁नवान्वेष	-6220
▁उत्पादकता	-6221
▁कम्प्यूटर	-6222
ालों	-6223
▁बहन	-6224
व्यवहार	-6225
▁नारायण	-6226
▁टेलीफोन	-6227
▁बुक	-6228
▁शेर	-6229
▁प्रव	-6230
▁मंडप	-6231
▁सार्थ	-6232
▁सोचते	-6233
▁भागीदार	-6234
/2	-6235
▁धान	-6236
▁अड्ड	-6237
▁संगत	-6238
▁बढ़ता	-6239
▁अनुशासन	-6240
▁वनस्पति	-6241
▁तत्कालीन	-6242
▁एजेंसियों	-6243
हवीं	-6244
▁विघ	-6245
▁थोड़े	-6246
र्ता	-6247
▁मोड़	-6248
▁स्ट्र	-6249
तापूर्वक	-6250
▁रिज़र्व	-6251
▁vi	-6252
नीतिक	-6253
▁मानस	-6254
▁इनपुट	-6255
▁कारगर	-6256
▁मुहम्मद	-6257
▁रूपरेखा	-6258
▁कार्यकारी	-6259
गित	-6260
▁मिश्रित	-6261
▁प्रयोक्ता	-6262
ृंग	-6263
▁ढेर	-6264
▁आन्द	-6265
▁नौकर	-6266
▁नमूने	-6267
▁भरपूर	-6268
▁भरोसा	-6269
किम	-6270
▁प्य	-6271
▁बाढ़	-6272
▁स्वि	-6273
▁देखिए	-6274
▁मानने	-6275
▁गिरफ्तारी	-6276
▁उत्कृष्टता	-6277
घन	-6278
िट्	-6279
डीएफ	-6280
ादेश	-6281
▁जल्द	-6282
▁वैसा	-6283
▁आमदनी	-6284
▁ट्रेड	-6285
▁रूपये	-6286
▁सर्वप्र	-6287
बु	-6288
ूलन	-6289
▁लड	-6290
▁१२	-6291
▁जरा	-6292
दृश्य	-6293
▁अतिक	-6294
▁दिल्	-6295
▁स्वचालित	-6296
ंचल	-6297
ायिक	-6298
▁उन्हे	-6299
▁पड़ने	-6300
▁अप्रत्य	-6301
▁फ़ॉ	-6302
▁अरबी	-6303
▁खुली	-6304
▁निर्ण	-6305
▁पुनर्ग	-6306
▁चक	-6307
▁ठे	-6308
▁कंट	-6309
▁मजदूरी	-6310
▁शस्त्र	-6311
िफ	-6312
▁1950	-6313
▁राधा	-6314
▁जिलों	-6315
▁ज्ञापन	-6316
▁जरूरतों	-6317
▁नाबार्ड	-6318
▁प्रविष्ट	-6319
काव	-6320
▁रै	-6321
चेंज	-6322
▁चित	-6323
▁बहि	-6324
▁यों	-6325
▁उपभोग	-6326
▁मिलना	-6327
▁विशेषाधिकार	-6328
भु	-6329
▁रॉ	-6330
▁मैच	-6331
▁सकी	-6332
ुक़्त	-6333
▁बैठा	-6334
▁आवेदक	-6335
▁जयंती	-6336
▁लाखों	-6337
▁कार्बन	-6338
▁परिणामों	-6339
ay	-6340
रोग	-6341
वीय	-6342
▁08	-6343
▁आजकल	-6344
▁स्ने	-6345
▁आवश्य	-6346
▁जंगली	-6347
▁सदनों	-6348
▁स्थूल	-6349
▁बढ़ाना	-6350
▁व्यष्टि	-6351
▁राष्ट्री	-6352
मेह	-6353
टकों	-6354
र्फ़	-6355
▁अफ़	-6356
▁चिर	-6357
▁उठाना	-6358
▁शिल्प	-6359
▁शुरूआ	-6360
▁वर्गीकरण	-6361
▁रवि	-6362
▁दत्त	-6363
▁परिसी	-6364
▁पार्ट	-6365
▁अधिसूचित	-6366
राक	-6367
▁तप	-6368
▁इराक	-6369
▁बर्फ	-6370
▁समता	-6371
▁अवकाश	-6372
▁हानिक	-6373
▁कनेक्ट	-6374
▁बेस	-6375
▁श्ल	-6376
चरिता	-6377
मित्त	-6378
▁शोषण	-6379
▁अफगानिस्तान	-6380
मिन	-6381
ोरम	-6382
ासित	-6383
▁बाय	-6384
▁चौथा	-6385
▁यहीं	-6386
▁उपदेश	-6387
▁मराठी	-6388
▁आनुवंश	-6389
.19	-6390
▁केश	-6391
▁मोर्	-6392
▁मिस्र	-6393
▁साक्ष	-6394
▁दूरस्थ	-6395
▁गणतंत्र	-6396
▁शास्त्री	-6397
्ह	-6398
▁नु	-6399
▁दया	-6400
▁डिजिटल	-6401
▁एकत्रित	-6402
▁गोद	-6403
▁दंत	-6404
▁कराता	-6405
▁वाक्य	-6406
▁सुचरिता	-6407
▁पहुंचाने	-6408
▁राजकुमार	-6409
▁सिफारिशों	-6410
पद	-6411
मेट	-6412
▁बत	-6413
▁आँख	-6414
▁इंकार	-6415
▁समझना	-6416
▁जोड़ें	-6417
▁पार्श्व	-6418
▁देह	-6419
▁1948	-6420
▁भ्रम	-6421
▁विलय	-6422
▁सफाई	-6423
▁अधिकृत	-6424
▁इलाकों	-6425
एगा	-6426
ेटी	-6427
▁नाक	-6428
▁औषधि	-6429
क्रामक	-6430
▁अतिमान	-6431
▁राजमार्ग	-6432
▁घन	-6433
▁घुट	-6434
▁नाय	-6435
▁बड़	-6436
▁एमएस	-6437
▁फेंक	-6438
त्रियों	-6439
▁स्वदेश	-6440
▁स्रोतों	-6441
▁बांग्लादेश	-6442
▁डाले	-6443
▁बताने	-6444
▁सम्राट	-6445
▁संग्राम	-6446
▁सौभाग्य	-6447
क्ल	-6448
सास	-6449
▁an	-6450
द्दी	-6451
मुखी	-6452
स्मिक	-6453
▁किमी	-6454
▁गोली	-6455
▁सबको	-6456
▁आंखों	-6457
▁चिंतन	-6458
▁खरीदने	-6459
▁यात्री	-6460
▁उपनिवेश	-6461
▁निर्वाचित	-6462
पार	-6463
षेध	-6464
▁छू	-6465
▁भूख	-6466
▁नोटिस	-6467
▁विडियो	-6468
▁ज्यादातर	-6469
▁२०	-6470
▁ओपन	-6471
ख़्या	-6472
▁सीधी	-6473
▁आकृति	-6474
▁वृत्त	-6475
▁कंध	-6476
▁मील	-6477
▁घृणा	-6478
▁पढ़ाई	-6479
▁दुर्लभ	-6480
▁निवेशकों	-6481
▁दस्तावेज़	-6482
▁ः	-6483
▁घोष	-6484
▁1992	-6485
▁कीजिए	-6486
▁जानवर	-6487
▁निराशा	-6488
▁ग्रन्थ	-6489
▁अवमानना	-6490
▁नं	-6491
च्छेदन	-6492
▁किराया	-6493
▁वैष्णव	-6494
▁उपलब्धियों	-6495
पल	-6496
रीन	-6497
▁दह	-6498
वकों	-6499
▁लाह	-6500
▁आईसी	-6501
▁प्राप	-6502
बरा	-6503
▁टक	-6504
ताएं	-6505
त्रि	-6506
▁टेनिस	-6507
▁मस्जि	-6508
▁नो	-6509
▁गुट	-6510
▁भव्य	-6511
▁वरीय	-6512
▁अंगों	-6513
▁निर्व	-6514
क्तियों	-6515
▁एशियाई	-6516
▁सर्वप्रथम	-6517
जक	-6518
ण्ट	-6519
णुओं	-6520
ल्ली	-6521
शब्द	-6522
▁टाइप	-6523
▁प्लग	-6524
▁सिरे	-6525
ंबेडकर	-6526
▁टैगोर	-6527
▁तालाब	-6528
▁इस्पात	-6529
▁आकस्मिक	-6530
्चर	-6531
▁पान	-6532
▁बैक	-6533
▁मेहन	-6534
▁पुष्प	-6535
्रदायिक	-6536
▁प्रतिनिधियों	-6537
ंय	-6538
वेल	-6539
ब्बे	-6540
▁बोझ	-6541
▁निभ	-6542
▁नजदी	-6543
▁राजी	-6544
▁लम्बी	-6545
▁जैसाकि	-6546
▁श्रद्धा	-6547
्यक	-6548
▁पोष	-6549
संचार	-6550
▁1996	-6551
▁लाभा	-6552
▁सुदूर	-6553
▁अन्याय	-6554
▁आकर्षक	-6555
किट	-6556
म्मा	-6557
▁ठहर	-6558
▁अनुकरण	-6559
▁नियोजन	-6560
ur	-6561
शनी	-6562
▁नम	-6563
▁ऊंचा	-6564
▁सेशन	-6565
▁कमेटी	-6566
▁अकादमी	-6567
▁विकलांग	-6568
▁संस्थागत	-6569
▁कर्तव्यों	-6570
▁इस्लामवादी	-6571
ुड	-6572
पाई	-6573
▁डालर	-6574
▁बचपन	-6575
▁खासकर	-6576
▁निक्ष	-6577
▁सच्चे	-6578
▁समीकरण	-6579
▁अँ	-6580
▁बीत	-6581
निहित	-6582
▁एक्ट	-6583
▁ढूंढ	-6584
▁बिन्दु	-6585
▁समकालीन	-6586
▁क़्योंकि	-6587
िणी	-6588
▁जबर	-6589
▁असंभव	-6590
▁सुधारने	-6591
▁प्रतिवर्ष	-6592
▁अप्रत्यक्ष	-6593
ैक्ट	-6594
▁भ्रष्टा	-6595
▁विज्ञापन	-6596
मस	-6597
▁गंध	-6598
▁यौन	-6599
▁वसा	-6600
▁फूलों	-6601
▁अहिंसा	-6602
▁एससीसी	-6603
▁सशस्त्र	-6604
िवी	-6605
▁64	-6606
ंबित	-6607
ृश्य	-6608
▁जोड़े	-6609
▁कृत्यों	-6610
▁प्रतिलिप	-6611
णता	-6612
लील	-6613
▁खार	-6614
▁अभिने	-6615
▁महान्	-6616
ड्	-6617
भुत	-6618
लाल	-6619
ोहर	-6620
▁इनकार	-6621
▁उत्सव	-6622
▁अपूर्ण	-6623
▁उत्सुक	-6624
▁बुलाया	-6625
▁यूनियन	-6626
▁अवस्थित	-6627
ल्ह	-6628
▁चरम	-6629
▁मक्	-6630
▁नज़र	-6631
▁विकि	-6632
▁सुपु	-6633
▁माहौल	-6634
hr	-6635
उन	-6636
AME	-6637
स्थल	-6638
▁पेय	-6639
▁मंग	-6640
बीन	-6641
▁65	-6642
▁घाव	-6643
▁शेख	-6644
्यूशन	-6645
▁संकलन	-6646
▁सहभाग	-6647
▁इसलिये	-6648
▁उन्नयन	-6649
▁स्वर्ग	-6650
▁संव्यवहार	-6651
▁प्रतिरक्षा	-6652
ोश	-6653
▁02	-6654
▁पेशी	-6655
▁हुये	-6656
▁संघीय	-6657
▁सामुद	-6658
oc	-6659
ोरा	-6660
्रेम	-6661
ुपयोग	-6662
▁अमृत	-6663
▁कोने	-6664
▁निस्	-6665
▁इंदिरा	-6666
▁सड़कों	-6667
▁सदस्यता	-6668
▁पूर्वोक्त	-6669
▁सांप्रदायिक	-6670
फ्र	-6671
▁उदय	-6672
▁1998	-6673
▁भीड़	-6674
▁दरबार	-6675
▁नमूना	-6676
▁परिसंप	-6677
खाव	-6678
लित	-6679
ोगे	-6680
ोला	-6681
▁ओब	-6682
▁गठ	-6683
▁पते	-6684
▁ह्य	-6685
हाबाद	-6686
▁निर्गम	-6687
▁अनुभूति	-6688
▁वक्तव्य	-6689
जाम	-6690
▁देनी	-6691
क्साइड	-6692
ोसिएशन	-6693
▁सांवि	-6694
▁अनिवासी	-6695
▁अपीलार्थी	-6696
ज़न	-6697
▁फू	-6698
हारी	-6699
िकता	-6700
▁चिन	-6701
▁टैब	-6702
सिद्ध	-6703
▁1973	-6704
▁कच्चे	-6705
▁गाँधी	-6706
▁बम्बई	-6707
▁शिष्ट	-6708
▁समेकित	-6709
▁सुधारों	-6710
▁कहानियों	-6711
परक	-6712
▁छः	-6713
▁सोचने	-6714
▁निमित्त	-6715
▁प्रत्यर्थी	-6716
टित	-6717
▁स्त्रो	-6718
▁त्रुटिः	-6719
▁उत्तराधिकार	-6720
ूरो	-6721
ोसी	-6722
▁47	-6723
▁क्रूर	-6724
श्रेष्ठ	-6725
▁लाभांश	-6726
▁दूरसंचार	-6727
▁पुनरीक्षण	-6728
रता	-6729
▁केस	-6730
▁ठाकुर	-6731
▁समापन	-6732
▁अवधारण	-6733
▁नाटकों	-6734
▁शुरूआत	-6735
▁हरियाणा	-6736
▁प्रतिबद्धता	-6737
ँह	-6738
▁दम	-6739
शंकर	-6740
▁विच	-6741
प्रति	-6742
▁भेजी	-6743
▁मारे	-6744
▁मेगा	-6745
▁श्लोक	-6746
▁नेताजी	-6747
▁प्रसंग	-6748
▁मिथ्या	-6749
▁सिर्फ़	-6750
बिल	-6751
▁46	-6752
▁गेह	-6753
▁लोह	-6754
▁कबीर	-6755
▁हमले	-6756
▁मूत्र	-6757
▁१६	-6758
▁वें	-6759
दर्शक	-6760
बन्धन	-6761
▁एससी	-6762
▁काफ़ी	-6763
▁असफलता	-6764
▁आउटपुट	-6765
▁रम	-6766
▁वहन	-6767
रक्षण	-6768
▁कोमल	-6769
▁प्ला	-6770
▁माँग	-6771
▁सन्द	-6772
▁क्रियान्वयन	-6773
कोष	-6774
पाट	-6775
▁सोव	-6776
▁नामा	-6777
▁बेटे	-6778
▁रहीं	-6779
▁अपनाई	-6780
▁कौंसिल	-6781
▁गिन	-6782
▁नवा	-6783
▁असंत	-6784
▁पुराण	-6785
▁विधवा	-6786
विश्वास	-6787
▁गोपनीय	-6788
▁भेदभाव	-6789
▁माइक्रो	-6790
▁विटामिन	-6791
▁समाजवादी	-6792
▁फिलीस्तीन	-6793
os	-6794
▁मुक	-6795
▁हंस	-6796
सूत्र	-6797
स्थापन	-6798
▁अभिदाय	-6799
30	-6800
हृ	-6801
ठार	-6802
▁बेश	-6803
▁परित	-6804
▁सारणी	-6805
▁उद्भूत	-6806
▁टाइम्स	-6807
▁सच्चाई	-6808
▁राजपत्र	-6809
▁सत्यापन	-6810
▁पुनर्वास	-6811
▁साक्षरता	-6812
▁केन्द्रों	-6813
▁52	-6814
▁टि	-6815
मूल्य	-6816
▁अपार	-6817
▁छिपा	-6818
▁नायक	-6819
▁मंगल	-6820
▁आंकड़ों	-6821
▁अधिनियमित	-6822
ैंट	-6823
▁बिर	-6824
▁सेवक	-6825
▁जाहिर	-6826
▁पीछला	-6827
▁महाद्वीप	-6828
▁मंत्रियों	-6829
कोट	-6830
▁खज	-6831
▁माउ	-6832
▁विस	-6833
क्रिप	-6834
पोरेट	-6835
▁आवरण	-6836
▁राजाओं	-6837
▁निकायों	-6838
▁भ्रष्टाचार	-6839
▁साक्षात्कार	-6840
tr	-6841
द्म	-6842
▁उग	-6843
▁कोर	-6844
▁घुस	-6845
संदेह	-6846
▁अक्ट	-6847
▁आचार	-6848
▁ब्यौ	-6849
▁न्यूय	-6850
▁अधिनिर्	-6851
▁आन्दोलन	-6852
▁मजदूरों	-6853
▁हिस्सों	-6854
▁निर्देशों	-6855
गुण	-6856
▁तह	-6857
▁अजीब	-6858
▁हड्डी	-6859
▁जिंदगी	-6860
▁प्रबन्ध	-6861
▁पक्षियों	-6862
▁पेट्रोलियम	-6863
फ़ा	-6864
ेन्ट	-6865
▁गरि	-6866
▁निल	-6867
▁नोक	-6868
▁बताता	-6869
▁उन्मूलन	-6870
▁रोगियों	-6871
▁संवेदनशील	-6872
नीत	-6873
▁iv	-6874
भूषण	-6875
▁उधर	-6876
▁किंग	-6877
▁क्री	-6878
▁रंगम	-6879
▁ग्रीन	-6880
▁प्रसव	-6881
▁बताना	-6882
▁तुम्हारा	-6883
▁विस्तारित	-6884
शक	-6885
▁हॉ	-6886
रानी	-6887
▁थोड	-6888
▁आर्य	-6889
▁हर्ष	-6890
▁पेटेंट	-6891
▁११	-6892
▁पागल	-6893
▁पादप	-6894
▁शराब	-6895
▁आधिकार	-6896
▁शिकायतों	-6897
स्पी	-6898
▁नींव	-6899
▁पुनर	-6900
▁पृथक्	-6901
तापूर्ण	-6902
▁अज्ञान	-6903
▁अभिकरण	-6904
▁श्रद्ध	-6905
▁राव	-6906
▁सोम	-6907
▁चलती	-6908
▁रोचक	-6909
▁खोजने	-6910
▁पब्लिक	-6911
▁ब्रह्मा	-6912
▁पुनर्गठन	-6913
▁हिन्दुओं	-6914
गंध	-6915
भक्त	-6916
ॉल्ट	-6917
▁लाई	-6918
▁उठता	-6919
ce	-6920
.10	-6921
बूझ	-6922
▁वध	-6923
▁गम्	-6924
चंद्र	-6925
▁पराज	-6926
▁वर्न	-6927
▁धर्मों	-6928
▁पूर्वोत्तर	-6929
,4	-6930
ut	-6931
महल	-6932
▁500	-6933
▁नक्	-6934
▁रसी	-6935
▁कर्ता	-6936
▁बकाया	-6937
▁इकट्ठा	-6938
▁मैत्रीपूर्ण	-6939
टने	-6940
पटल	-6941
वीर	-6942
▁गज	-6943
रखाव	-6944
▁पहच	-6945
▁बृह	-6946
▁अनाव	-6947
▁गूगल	-6948
▁देगी	-6949
▁असमान	-6950
▁उपाधि	-6951
भूतियों	-6952
▁कामगार	-6953
▁निर्धन	-6954
▁मधुमेह	-6955
▁मुहैया	-6956
▁सामर्थ	-6957
▁शब्	-6958
पोर्ट	-6959
▁एनआई	-6960
▁निभाई	-6961
▁मामूली	-6962
▁आश्वासन	-6963
▁सम्बद्ध	-6964
▁किलोग्राम	-6965
▁प्रस्तावों	-6966
यू	-6967
षी	-6968
ैत	-6969
खार	-6970
▁सुप	-6971
लियों	-6972
▁कामका	-6973
▁कीटना	-6974
▁अक्टूबर	-6975
▁अधिकाधिक	-6976
▁दब	-6977
▁कदा	-6978
▁गड़	-6979
दाबाद	-6980
ष्कृत	-6981
ोत्तर	-6982
▁सिखा	-6983
▁कब्जा	-6984
▁श्रेण	-6985
▁स्वाय	-6986
▁रखरखाव	-6987
▁सार्थक	-6988
▁गर्भाशय	-6989
▁अनिश्चित	-6990
▁मुख्यालय	-6991
▁निर्देशित	-6992
▁सर्वश्रेष्ठ	-6993
चलन	-6994
ोन्	-6995
चेतन	-6996
▁घाट	-6997
▁सन्न	-6998
निर्देश	-6999
▁जीवाणु	-7000
▁पंचायत	-7001
▁प्रजाति	-7002
▁एक्सचेंज	-7003
▁विधानमंडल	-7004
बरी	-7005
▁बेहद	-7006
▁गरिमा	-7007
▁गीतों	-7008
▁विभेद	-7009
▁स्नेह	-7010
▁निरसित	-7011
▁स्नातक	-7012
▁पुरुषों	-7013
▁रेगि	-7014
▁समाह	-7015
▁आश्रम	-7016
▁लार्ड	-7017
▁सौंपा	-7018
▁उपबंधित	-7019
▁समायोजन	-7020
वैज्ञानिक	-7021
कोर	-7022
▁150	-7023
▁दाह	-7024
▁प्रगा	-7025
▁डॉक्टर	-7026
▁रिश्ते	-7027
▁मनोरंजन	-7028
▁मनुष्यों	-7029
▁साझीदारी	-7030
्याल	-7031
▁अद्	-7032
▁हाई	-7033
▁कोयला	-7034
▁सर्विस	-7035
▁निर्वहन	-7036
▁कठिनाइयों	-7037
शिंग	-7038
योग्य	-7039
▁अभिल	-7040
▁गाँव	-7041
▁गोवा	-7042
▁समझी	-7043
क्टरों	-7044
▁बच्चन	-7045
▁प्रदाह	-7046
▁काउंसिल	-7047
▁स्थिरता	-7048
.11	-7049
ंकी	-7050
▁झग	-7051
▁निप	-7052
▁पदा	-7053
▁बिग	-7054
▁आशंका	-7055
▁इंगित	-7056
▁मौखिक	-7057
▁स्टार	-7058
▁उपयोक्ता	-7059
▁सत्याग्रह	-7060
▁स्वीकार्य	-7061
डों	-7062
ब्ब	-7063
हरण	-7064
्ती	-7065
ुद्व	-7066
शियों	-7067
▁1988	-7068
▁कॉपी	-7069
▁दरों	-7070
▁दौरा	-7071
▁रोशनी	-7072
▁अभियोग	-7073
▁नीतिगत	-7074
▁आयुर्वेद	-7075
▁51	-7076
▁टो	-7077
▁बही	-7078
▁बिन	-7079
▁मरी	-7080
▁हैस	-7081
▁क्ला	-7082
▁चुंब	-7083
▁आवासी	-7084
▁ओबामा	-7085
▁मनाया	-7086
▁गम्भीर	-7087
▁झिल्ली	-7088
▁पहुँचा	-7089
▁शास्ति	-7090
▁संवेदना	-7091
▁उत्सर्जन	-7092
▁दीक्षांत	-7093
▁आगमन	-7094
▁मांसपेश	-7095
ow	-7096
मीन	-7097
िश्र	-7098
▁बाज़ार	-7099
▁मुद्दा	-7100
▁हिंदुओं	-7101
▁संस्थापित	-7102
▁ar	-7103
▁भूक	-7104
त्स्य	-7105
▁बोला	-7106
▁खर्चे	-7107
▁निंदा	-7108
▁श्रील	-7109
▁सालों	-7110
▁आधिकारिक	-7111
▁इलाहाबाद	-7112
▁उपयोगिता	-7113
▁निर्माता	-7114
▁प्रक्षेप	-7115
.00	-7116
▁पतन	-7117
क्तता	-7118
▁परिन	-7119
▁सिने	-7120
▁सुलझ	-7121
▁तत्पश्च	-7122
▁प्रोटोकॉल	-7123
ंडे	-7124
नें	-7125
मैन	-7126
▁माध	-7127
▁बढ़े	-7128
▁तिहाई	-7129
▁चौड़ाई	-7130
▁वरीयता	-7131
▁1990	-7132
▁तमाम	-7133
▁रहकर	-7134
▁विरा	-7135
▁विषयक	-7136
▁नियन्त	-7137
▁अनुभवों	-7138
▁संकीर्ण	-7139
ुतोष	-7140
▁द्रव	-7141
▁ध्रु	-7142
▁नारी	-7143
▁साकार	-7144
▁सोचता	-7145
▁एल्गोर	-7146
▁नवीकरण	-7147
▁पेशेवर	-7148
▁स्वच्छता	-7149
▁फेफ	-7150
▁१९८	-7151
.2013	-7152
▁जगत्	-7153
▁दुग्ध	-7154
▁बंगला	-7155
▁मजबूर	-7156
▁ज़रूरत	-7157
▁विख्यात	-7158
डऋ	-7159
मै	-7160
▁नाल	-7161
▁1997	-7162
▁उपास	-7163
▁आगामी	-7164
▁बेचने	-7165
▁संकाय	-7166
▁निधियों	-7167
▁निरन्तर	-7168
▁पर्यटकों	-7169
▁विशेषज्ञों	-7170
▁इंजीनियरिंग	-7171
▁54	-7172
▁माय	-7173
▁बांस	-7174
▁बेटी	-7175
▁मुँह	-7176
▁स्वे	-7177
▁छोड़ने	-7178
▁मोहम्मद	-7179
▁देशवासियों	-7180
▁आदत	-7181
▁गले	-7182
▁हरी	-7183
▁डेस्	-7184
▁सुगम	-7185
▁आजीवन	-7186
▁फायदे	-7187
▁रंगमंच	-7188
▁प्रगाढ़	-7189
▁सहभागिता	-7190
बाल	-7191
ब्ध	-7192
लाइ	-7193
▁बट	-7194
लेखन	-7195
▁अनू	-7196
ान्तर	-7197
▁आघात	-7198
▁घटित	-7199
▁सब्ज	-7200
▁सूचीबद्ध	-7201
जुट	-7202
▁छे	-7203
ापुर	-7204
▁सना	-7205
▁उड़ान	-7206
▁लौटने	-7207
▁उन्नति	-7208
▁बादशाह	-7209
▁लड़कियों	-7210
िज़	-7211
▁41	-7212
सन्द	-7213
ोरों	-7214
▁धूल	-7215
▁अश्व	-7216
▁रोका	-7217
▁सेवन	-7218
▁किराए	-7219
▁जर्मन	-7220
▁अवधारित	-7221
▁55	-7222
▁ऊँचा	-7223
▁कर्ज	-7224
▁समाम	-7225
▁शब्दा	-7226
▁पीडीएफ	-7227
▁अध्यापक	-7228
दिता	-7229
▁रोड	-7230
▁शीत	-7231
▁कहती	-7232
▁जैविक	-7233
▁श्रीलंका	-7234
केल	-7235
▁1986	-7236
▁महानि	-7237
▁मेहनत	-7238
▁मस्जिद	-7239
▁स्मारक	-7240
▁सुपुर्द	-7241
▁विनियमित	-7242
मलव	-7243
▁कां	-7244
▁सटी	-7245
▁1991	-7246
▁अण्ड	-7247
▁योनि	-7248
▁रोमा	-7249
▁ग्यार	-7250
▁बॉक्स	-7251
▁सुनकर	-7252
▁पुत्री	-7253
▁सांख्य	-7254
▁स्थलों	-7255
▁परिदृश्य	-7256
▁दायित्वों	-7257
▁स्वतन्त्र	-7258
▁अशोक	-7259
ढ़ियों	-7260
▁स्टॉक	-7261
▁हटाया	-7262
▁केन्द्रित	-7263
▁स्वैच्छिक	-7264
हि	-7265
ार्द	-7266
▁औरत	-7267
ड्यूल	-7268
▁कन्न	-7269
▁रोज़	-7270
▁अब्दुल	-7271
▁आशुतोष	-7272
▁तुरन्त	-7273
▁विकिरण	-7274
▁संचिका	-7275
▁परियोजनाएं	-7276
▁कार्यकलापों	-7277
▁गत	-7278
देवी	-7279
न्ता	-7280
मोहन	-7281
▁कों	-7282
▁जॉन	-7283
▁भूट	-7284
▁1980	-7285
▁कपड़ा	-7286
▁सृष्टि	-7287
▁साथियों	-7288
▁अन्तर्राष्ट्रीय	-7289
▁कड़	-7290
चित्य	-7291
▁बनकर	-7292
▁मणिप	-7293
▁रेशम	-7294
्याप्त	-7295
▁आपत्ति	-7296
▁निर्दोष	-7297
▁09	-7298
बाबू	-7299
▁भरत	-7300
▁रेख	-7301
▁क्षम	-7302
▁आश्रय	-7303
▁निकले	-7304
जनात्मक	-7305
▁लेखापरीक्षा	-7306
ओएस	-7307
जाज	-7308
ोटी	-7309
▁पटल	-7310
▁ज्या	-7311
▁एकजुट	-7312
▁खारिज	-7313
▁त्रिप	-7314
▁दशमलव	-7315
रूद्दीन	-7316
▁टर्मिनल	-7317
▁दुरुपयोग	-7318
दक	-7319
.12	-7320
▁इट	-7321
बूती	-7322
▁खोलें	-7323
▁निदान	-7324
▁पुनरा	-7325
▁अवलोकन	-7326
▁डेस्कट	-7327
▁परिचालन	-7328
▁महानिदेश	-7329
▁मूल्यवान	-7330
▁मंत्रालयों	-7331
▁रुक	-7332
बुद्ध	-7333
▁डिफ़	-7334
▁कुटुम्ब	-7335
▁सैक	-7336
▁1987	-7337
▁किले	-7338
▁चर्च	-7339
▁दीवारों	-7340
▁In	-7341
ेंडर	-7342
▁घोर	-7343
▁ध्य	-7344
▁उपहार	-7345
▁मेमोरी	-7346
▁कार्यकाल	-7347
ीस	-7348
मिल	-7349
▁07	-7350
ूर्त	-7351
▁इनसे	-7352
▁कॉर्	-7353
▁रिवा	-7354
▁सूचक	-7355
▁जिसमे	-7356
▁पूछता	-7357
▁व्याया	-7358
▁ईमानदारी	-7359
▁विधानसभा	-7360
▁सामर्थ्य	-7361
▁पद्धतियों	-7362
▁प्रगतिशील	-7363
▁or	-7364
ment	-7365
म्बा	-7366
▁मेर	-7367
हीनता	-7368
▁खातों	-7369
▁भारती	-7370
▁गंभीरता	-7371
▁सामुदायिक	-7372
▁भगत	-7373
▁मेड	-7374
▁1995	-7375
▁आलेख	-7376
▁लोगो	-7377
▁जीवंत	-7378
▁पूर्वक	-7379
▁कंप्यूट	-7380
▁डेस्कटॉप	-7381
हम	-7382
▁स्नान	-7383
▁प्रचुर	-7384
▁खिलाड़ी	-7385
▁संक्रिया	-7386
गिक	-7387
न्च	-7388
िसा	-7389
▁अन्तः	-7390
▁बोलने	-7391
▁सभाओं	-7392
▁निविदा	-7393
▁समाहित	-7394
▁मित्रता	-7395
▁आओ	-7396
ट्टा	-7397
▁ऋतु	-7398
▁लची	-7399
▁गयीं	-7400
▁मानों	-7401
▁अभिन्न	-7402
▁ब्यूरो	-7403
▁निर्वाह	-7404
▁संतुलित	-7405
▁सचिवालय	-7406
▁मला	-7407
▁अनंत	-7408
▁प्रोफ	-7409
▁व्यास	-7410
▁हैसियत	-7411
▁ऑप	-7412
प्पा	-7413
▁मुआ	-7414
▁लाए	-7415
▁वसूल	-7416
▁हिमन	-7417
ेन्द्र	-7418
▁कहलाता	-7419
▁अस्पष्ट	-7420
एव	-7421
ंड़	-7422
▁खपत	-7423
▁अहमद	-7424
▁कॉन्	-7425
▁तृतीय	-7426
▁बदलें	-7427
▁अंतरिम	-7428
▁विचित्र	-7429
हान	-7430
ाइड	-7431
▁उछ	-7432
ोर्स	-7433
▁आधी	-7434
मार्क	-7435
▁निकालना	-7436
▁यात्रियों	-7437
▁गतिविधियां	-7438
▁निर्माताओं	-7439
ृहीत	-7440
▁गेट	-7441
▁टेल	-7442
्रेषण	-7443
▁क्षे	-7444
▁घड़ी	-7445
▁चलना	-7446
▁नामों	-7447
▁परजीवी	-7448
▁पाठकों	-7449
▁संरक्षित	-7450
टरी	-7451
▁न्य	-7452
▁बाई	-7453
▁बंधन	-7454
्यात्मक	-7455
▁दुर्गा	-7456
op	-7457
ख्	-7458
ोई	-7459
ers	-7460
▁थै	-7461
माला	-7462
▁छेद	-7463
▁फॉर	-7464
न्नाथ	-7465
▁यज्ञ	-7466
धारकों	-7467
संख्यक	-7468
▁निराश	-7469
▁पड़ोस	-7470
▁आंकड़ा	-7471
▁प्रौढ़	-7472
▁व्याकरण	-7473
▁हानिकारक	-7474
▁हार्डवेयर	-7475
▁क्रियाकलाप	-7476
▁पण	-7477
▁आँक	-7478
▁उगा	-7479
▁केल	-7480
▁बहुल	-7481
▁स्या	-7482
▁पंद्र	-7483
▁विच्छेद	-7484
▁अतिक्रमण	-7485
▁प्रभुत्व	-7486
▁प्रजातियों	-7487
इश	-7488
यम	-7489
ँजी	-7490
▁कण	-7491
▁गर	-7492
▁शक	-7493
▁१७	-7494
किया	-7495
रेशन	-7496
▁अनो	-7497
▁एंव	-7498
▁नरम	-7499
▁बंट	-7500
▁दौरे	-7501
▁आवाज़	-7502
▁जितने	-7503
▁लड़का	-7504
▁संतान	-7505
▁प्राइवेट	-7506
▁निष्पादित	-7507
बड़	-7508
▁कन	-7509
▁आवं	-7510
▁गौण	-7511
▁मैथ	-7512
▁मानद	-7513
▁वर्षो	-7514
▁वापिस	-7515
▁बढ़ाया	-7516
▁आस्ट्रेलिया	-7517
▁स्थानांतरित	-7518
ैम	-7519
राई	-7520
स्पद	-7521
▁अधी	-7522
डियों	-7523
▁नाइट	-7524
▁डोमेन	-7525
▁बंदरगाह	-7526
▁बदरूद्दीन	-7527
▁उदाहरणार्थ	-7528
▁उपभोक्ताओं	-7529
चु	-7530
▁नद	-7531
बर्ट	-7532
▁ड्रा	-7533
▁स्टाफ	-7534
▁गतिशील	-7535
▁दार	-7536
▁मूर्ख	-7537
▁संयोग	-7538
▁पड़ोसी	-7539
▁चिह्नित	-7540
▁प्रतिकर	-7541
▁स्वायत्त	-7542
▁प्राणियों	-7543
▁शास्त्रीय	-7544
▁दीर्घकालिक	-7545
टकर	-7546
मेर	-7547
ियस	-7548
ंतुक	-7549
▁चूक	-7550
▁धूप	-7551
िकेशन	-7552
▁गवाह	-7553
▁अनन्य	-7554
▁क्षमा	-7555
▁लाहौर	-7556
▁ड्राइव	-7557
▁दोबारा	-7558
▁द्वारक	-7559
▁डब्ल्यू	-7560
▁अध्यादेश	-7561
▁प्रख्यात	-7562
ॉग	-7563
शुदा	-7564
▁फौज	-7565
▁सुस	-7566
▁कारकों	-7567
▁वांछित	-7568
▁विनियमों	-7569
▁संस्थाएं	-7570
ity	-7571
▁छंद	-7572
▁बचे	-7573
▁हरा	-7574
▁औजार	-7575
▁ड्रग	-7576
▁संकु	-7577
▁सच्ची	-7578
▁सोवियत	-7579
▁दंडादेश	-7580
▁सतर्कता	-7581
▁उद्यमियों	-7582
ome	-7583
ाणु	-7584
िने	-7585
▁लौटा	-7586
▁अर्पित	-7587
▁जाएंगी	-7588
▁जगन्नाथ	-7589
▁72	-7590
मियम	-7591
▁असं	-7592
दिग्ध	-7593
▁1985	-7594
▁मधुर	-7595
▁सख्त	-7596
▁एआईआर	-7597
▁फॉर्म	-7598
▁श्रेय	-7599
▁उर्वरक	-7600
▁लक्ष्म	-7601
▁दिलचस्प	-7602
▁निर्णायक	-7603
▁अपर्याप्त	-7604
ैड	-7605
.08	-7606
are	-7607
दिर	-7608
भाई	-7609
सेल	-7610
वाया	-7611
हत्या	-7612
▁ट्रा	-7613
▁सन्त	-7614
▁अकेला	-7615
▁अतिथि	-7616
▁इमारत	-7617
▁पैरों	-7618
▁बेकार	-7619
▁डिफ़ॉल्ट	-7620
विर	-7621
्लो	-7622
र्षि	-7623
वर्स	-7624
▁ढाल	-7625
▁नानक	-7626
▁मास्ट	-7627
िरपेक्ष	-7628
▁गुजराती	-7629
▁परिसीमा	-7630
▁अधिनियमों	-7631
पेट	-7632
साम	-7633
ुगु	-7634
स्सी	-7635
▁आवृ	-7636
▁ताक	-7637
▁वान	-7638
▁इंजन	-7639
▁घायल	-7640
▁संकल	-7641
▁नाट्य	-7642
▁रणनीति	-7643
▁विपक्ष	-7644
▁शासकों	-7645
▁अनावश्यक	-7646
▁युक्तियुक्त	-7647
दाद	-7648
▁नॉ	-7649
युद्ध	-7650
▁1971	-7651
▁कीमतों	-7652
▁आंबेडकर	-7653
▁डेटाबेस	-7654
▁प्रवर्ग	-7655
ig	-7656
कस	-7657
िल्ला	-7658
▁अतएव	-7659
▁क्लब	-7660
▁पाती	-7661
▁मृतक	-7662
▁सिंग	-7663
▁भ्रूण	-7664
▁संपरि	-7665
▁उद्धृत	-7666
▁क्षमताओं	-7667
▁संप्रदाय	-7668
▁ऊंट	-7669
▁फूट	-7670
▁कहकर	-7671
वीक्षा	-7672
▁राज़्य	-7673
▁निःशुल्क	-7674
ir	-7675
जपे	-7676
नाल	-7677
्तन	-7678
▁कैम	-7679
▁1993	-7680
▁घातक	-7681
▁पुणे	-7682
▁मेहर	-7683
ियारों	-7684
▁महाका	-7685
▁शर्मा	-7686
▁अंतर्व	-7687
▁अद्भुत	-7688
▁क्रिस्ट	-7689
▁प्रतिमा	-7690
▁उम्मीदवार	-7691
ag	-7692
▁बश	-7693
ोहित	-7694
▁इधर	-7695
▁बिख	-7696
▁रिफ	-7697
र्देश	-7698
▁1974	-7699
▁विगत	-7700
▁एसोसिएशन	-7701
ुलर	-7702
खण्ड	-7703
▁मज़	-7704
▁सौह	-7705
ंतव्य	-7706
िस्टर	-7707
▁जादू	-7708
▁टीवी	-7709
▁जानती	-7710
▁अर्जुन	-7711
▁टुकड़े	-7712
ताप	-7713
ुलिप	-7714
▁भली	-7715
विचार	-7716
ोरेशन	-7717
▁किस्	-7718
▁धारक	-7719
▁रूचि	-7720
▁सुनी	-7721
▁चेहरा	-7722
▁पासवर्ड	-7723
▁संपादित	-7724
▁विधायिका	-7725
▁साक्षियों	-7726
▁प्राधिकारियों	-7727
ेव	-7728
ंचन	-7729
▁भि	-7730
▁कूद	-7731
▁पडे	-7732
▁संश	-7733
▁चारा	-7734
▁भयान	-7735
▁स्टी	-7736
िवारिक	-7737
▁भूटान	-7738
▁हेक्ट	-7739
▁प्रेमी	-7740
▁बालकों	-7741
▁लक्ष्मी	-7742
▁आनुवंशिक	-7743
▁माध्यमिक	-7744
▁द्वारकानाथ	-7745
यित	-7746
्ली	-7747
तिया	-7748
▁अवा	-7749
▁नकल	-7750
▁1000	-7751
ुस्तानी	-7752
▁ट्रांस	-7753
▁पिछड़े	-7754
▁परेशानी	-7755
▁संख़्या	-7756
ज्ह	-7757
▁सऋ	-7758
षकों	-7759
ियॉँ	-7760
▁300	-7761
▁बुश	-7762
▁महो	-7763
▁कोटि	-7764
▁ऊतकों	-7765
▁लड़ने	-7766
▁जानबूझ	-7767
▁शान्ति	-7768
▁कूटशब्द	-7769
▁प्रपत्र	-7770
▁पारदर्शिता	-7771
▁कार्यवाहियां	-7772
▁ओह	-7773
▁मोर	-7774
▁वेग	-7775
▁लगाकर	-7776
▁मुख़्य	-7777
ौप	-7778
कार्	-7779
▁१९७	-7780
ोग्रा	-7781
▁चलकर	-7782
▁दायर	-7783
▁विवा	-7784
▁पहाड़	-7785
▁बनायी	-7786
▁भेजें	-7787
▁दिलचस्पी	-7788
▁निरपेक्ष	-7789
▁पर्यवेक्षण	-7790
ड़न	-7791
प्प	-7792
▁56	-7793
▁डाइ	-7794
▁नाज	-7795
▁मौल	-7796
▁अवयव	-7797
▁आगरा	-7798
▁कन्व	-7799
▁दायरे	-7800
▁दुर्बल	-7801
▁अपशिष्ट	-7802
▁निक्षेप	-7803
▁समावेशी	-7804
िपी	-7805
▁बेज	-7806
▁दादा	-7807
कृष्णन	-7808
▁एजेंट	-7809
▁धारित	-7810
▁सनातन	-7811
▁चुनावों	-7812
▁अभिप्राय	-7813
डू	-7814
ोही	-7815
▁नास	-7816
▁लखन	-7817
▁औचित्य	-7818
▁मत्स्य	-7819
▁एमएसएमई	-7820
▁पारिवारिक	-7821
वाट	-7822
शिप	-7823
ष्मा	-7824
▁जर्	-7825
▁निकला	-7826
▁बदलना	-7827
▁भागवत	-7828
▁सेंटर	-7829
▁गरीबों	-7830
▁नवीनतम	-7831
▁प्रवास	-7832
▁मजबूती	-7833
ढे	-7834
▁झुक	-7835
▁पदक	-7836
▁रोम	-7837
ियमित	-7838
▁अन्न	-7839
▁मिलन	-7840
क्षकों	-7841
▁काटने	-7842
▁तत्पर	-7843
▁सोसाय	-7844
▁उदासीन	-7845
▁हड़ताल	-7846
▁अनुमानित	-7847
▁कंपनियां	-7848
▁परिपूर्ण	-7849
▁सत्यापित	-7850
ंसी	-7851
स्थि	-7852
ेलना	-7853
ैर्य	-7854
▁आइए	-7855
वर्धन	-7856
▁1976	-7857
▁यथास	-7858
्रीकरण	-7859
▁नर्मदा	-7860
▁प्रवासी	-7861
▁लक्षणों	-7862
▁श्रमिकों	-7863
▁वित्तपोषण	-7864
डक	-7865
गीय	-7866
▁नाथ	-7867
▁फर्	-7868
यंत्र	-7869
▁पाण्ड	-7870
▁विकृत	-7871
▁साधना	-7872
▁समर्थक	-7873
▁काश्मीर	-7874
▁विवेकान	-7875
▁अंतर्विष्ट	-7876
ap	-7877
ँगा	-7878
दाई	-7879
सनी	-7880
विजन	-7881
▁गिल	-7882
▁पावर	-7883
▁संजाल	-7884
शिला	-7885
सीआई	-7886
▁कैल	-7887
▁वृह	-7888
▁ईमेल	-7889
▁चोरी	-7890
▁फलों	-7891
▁क्रोध	-7892
▁दावों	-7893
▁सिंधु	-7894
▁आरोपों	-7895
▁संपादक	-7896
▁प्रदेशों	-7897
RO	-7898
वर्ग	-7899
वेदी	-7900
ुल्य	-7901
▁भोग	-7902
▁जबरद	-7903
▁धोखा	-7904
▁वनों	-7905
▁विवश	-7906
▁अस्थिर	-7907
▁आश्चर्यजनक	-7908
80	-7909
ef	-7910
ेम	-7911
बंद	-7912
्वत	-7913
▁तन	-7914
कक्ष	-7915
न्दन	-7916
▁खाद	-7917
ताबिक	-7918
▁अम्ल	-7919
▁नाना	-7920
▁पांव	-7921
▁पायी	-7922
▁बजाए	-7923
▁दर्जा	-7924
▁श्वसन	-7925
▁इच्छुक	-7926
▁संदिग्ध	-7927
▁क्रियाओं	-7928
▁प्रतिभूतियों	-7929
,6	-7930
नाई	-7931
नेस	-7932
▁१३	-7933
▁उलझ	-7934
▁टेप	-7935
तीकरण	-7936
र्कों	-7937
▁जमाने	-7938
▁फांसी	-7939
▁भयानक	-7940
▁जनजातियों	-7941
लाप	-7942
▁इम	-7943
बिया	-7944
▁com	-7945
▁एन्	-7946
▁1957	-7947
▁अभिनय	-7948
▁चरणों	-7949
▁जमींद	-7950
▁परिधि	-7951
▁मुस्क	-7952
▁आरक्षण	-7953
▁गिरावट	-7954
▁जनजाति	-7955
▁सर्वथा	-7956
टिक	-7957
▁१४	-7958
डिंग	-7959
▁1.4	-7960
▁रेट	-7961
त्तीस	-7962
ारण्य	-7963
वस्थित	-7964
▁आबंटन	-7965
▁स्टाक	-7966
▁मुताबिक	-7967
▁विक्रेता	-7968
िद	-7969
▁तित	-7970
▁पवन	-7971
▁कराए	-7972
▁अब्दु	-7973
▁एकीकरण	-7974
▁जवाबदे	-7975
▁द्रव्य	-7976
▁मंत्रि	-7977
▁मास्टर	-7978
▁निरूपित	-7979
▁सूचनाओं	-7980
▁तात्पर्य	-7981
▁प्रौद्योगिकियों	-7982
लत	-7983
ुलन	-7984
▁व्	-7985
▁अनदे	-7986
▁आजीव	-7987
▁आन्त	-7988
▁सीडी	-7989
▁शिष्य	-7990
▁स्थाई	-7991
▁अपीलीय	-7992
▁अर्द्ध	-7993
▁बंगाली	-7994
▁महर्षि	-7995
▁मंत्रिम	-7996
▁अभिरक्षा	-7997
▁तात्कालिक	-7998
▁संभावनाओं	-7999
कश	-8000
सो	-8001
▁74	-8002
▁सउ	-8003
कर्म	-8004
▁अटल	-8005
▁दाँ	-8006
स्वती	-8007
▁लेबल	-8008
▁कोष्ठ	-8009
▁टेस्ट	-8010
▁वयस्क	-8011
क्रिप्ट	-8012
▁दरवाजे	-8013
▁आत्महत्या	-8014
ॉय	-8015
▁फेड	-8016
▁पूरक	-8017
▁ग्रुप	-8018
▁संचरण	-8019
▁वाशिंग	-8020
▁व्यर्थ	-8021
▁चित्रों	-8022
▁सौहार्द	-8023
▁विशेषताओं	-8024
बंदी	-8025
सर्ग	-8026
▁लायक	-8027
▁लेगा	-8028
▁शाही	-8029
▁प्रभा	-8030
▁मूलतः	-8031
▁सूचका	-8032
र्थियों	-8033
▁अनुष्ठ	-8034
▁दंडनीय	-8035
▁फ़ॉन्ट	-8036
▁बहुमूल्य	-8037
म्म	-8038
▁1949	-8039
▁उतने	-8040
▁आभूषण	-8041
▁मारने	-8042
▁ललिता	-8043
▁कामकाज	-8044
15	-8045
un	-8046
श्र	-8047
▁उज	-8048
म्बित	-8049
▁सुनाई	-8050
▁उद्यमी	-8051
ch	-8052
रेन	-8053
▁58	-8054
▁Go	-8055
्रीट	-8056
▁अवगत	-8057
▁पाइप	-8058
▁अवतार	-8059
▁गेहूं	-8060
▁जरुरी	-8061
▁पीड़क	-8062
▁संस्कार	-8063
ालक	-8064
फ़्ट	-8065
शोधन	-8066
▁ढूँ	-8067
▁बाइ	-8068
▁मुर	-8069
▁आज्ञा	-8070
▁घोड़े	-8071
▁जरुरत	-8072
▁बिस्त	-8073
▁यातना	-8074
▁सोचना	-8075
▁नाटकीय	-8076
▁निवेदन	-8077
▁स्वदेशी	-8078
▁पग	-8079
भावी	-8080
मुना	-8081
▁पडा	-8082
▁फेर	-8083
▁वाई	-8084
▁डिवी	-8085
▁छोड़ा	-8086
▁दवाओं	-8087
▁निशान	-8088
▁विकार	-8089
▁बलिदान	-8090
▁नियोजित	-8091
▁मार्गदर्शक	-8092
70	-8093
ंकि	-8094
तको	-8095
शेर	-8096
िती	-8097
फीति	-8098
▁निब	-8099
▁गोला	-8100
▁जंतु	-8101
▁पटेल	-8102
▁सटीक	-8103
▁सीखा	-8104
▁बुराई	-8105
▁सच्चा	-8106
▁बिलियन	-8107
▁अधिग्रहण	-8108
▁मास्टर्स	-8109
▁प्रतिवेदन	-8110
▁स्थानांतरण	-8111
ter	-8112
▁03	-8113
▁उठे	-8114
▁बहा	-8115
▁लगाई	-8116
▁मुफ्त	-8117
▁उपरांत	-8118
▁पंद्रह	-8119
▁बढ़ाकर	-8120
▁प्रशांत	-8121
ate	-8122
ड़की	-8123
यंकर	-8124
ायती	-8125
▁धर्	-8126
▁नली	-8127
▁नाश	-8128
▁मजा	-8129
▁1989	-8130
▁मौके	-8131
▁वाणी	-8132
▁असंगत	-8133
▁खंडों	-8134
▁खेतों	-8135
▁विकेट	-8136
▁मणिपुर	-8137
▁चुंबकीय	-8138
▁महिलाएं	-8139
▁सार्वभौमिक	-8140
वह	-8141
पहर	-8142
सात	-8143
▁कसौ	-8144
▁इण्ड	-8145
▁एकड़	-8146
▁नींद	-8147
▁समीप	-8148
▁स्पी	-8149
▁आँखों	-8150
▁छिद्र	-8151
▁बाजारों	-8152
▁पर्यावरणीय	-8153
ul	-8154
▁इश	-8155
▁रच	-8156
▁ओवर	-8157
▁जोड	-8158
▁पाय	-8159
▁बोले	-8160
▁माला	-8161
दृष्टि	-8162
▁खाड़ी	-8163
▁मार्क	-8164
▁सिनेमा	-8165
थल	-8166
एनए	-8167
चनों	-8168
ापित	-8169
▁ईस्ट	-8170
▁बगैर	-8171
▁इंद्र	-8172
▁उठाकर	-8173
▁बनाएँ	-8174
▁करवाने	-8175
▁ट्रस्ट	-8176
▁लार्वा	-8177
▁अनियमित	-8178
▁सूचकांक	-8179
डब	-8180
वंत	-8181
▁66	-8182
▁पित	-8183
स्ट्र	-8184
▁प्रॉ	-8185
▁सूरज	-8186
▁चाहें	-8187
▁नजदीक	-8188
▁लेखों	-8189
▁अंतररा	-8190
▁गंतव्य	-8191
▁ठहराया	-8192
▁प्रत्यु	-8193
▁सोसायटी	-8194
▁नियन्त्रण	-8195
आइ	-8196
दह	-8197
▁बला	-8198
▁लहर	-8199
बोर्ड	-8200
श्यों	-8201
▁बशर्	-8202
▁रसीद	-8203
प्रदेश	-8204
ष्णुता	-8205
▁एक्सट	-8206
▁भूकंप	-8207
▁विघटन	-8208
▁अनुबंध	-8209
▁पेड़ों	-8210
▁प्रवाहित	-8211
▁बक	-8212
▁जाप	-8213
▁वाइ	-8214
जपेयी	-8215
▁लिखत	-8216
▁समेत	-8217
▁जोड़ी	-8218
▁स्विच	-8219
▁निरस्त	-8220
▁स्त्रोत	-8221
▁अद्वितीय	-8222
▁बीमाकर्ता	-8223
ताई	-8224
▁53	-8225
िकरण	-8226
ॉर्ट	-8227
▁किर	-8228
▁खनन	-8229
▁जूट	-8230
▁भोज	-8231
▁साख	-8232
त्विक	-8233
▁1908	-8234
▁1946	-8235
▁कारी	-8236
▁घुमा	-8237
▁बालों	-8238
▁भयंकर	-8239
▁रात्रि	-8240
▁संपादन	-8241
▁प्रतिलिपि	-8242
ुख	-8243
बुल	-8244
▁85	-8245
▁झट	-8246
▁रोब	-8247
ंजस्य	-8248
▁जीने	-8249
▁लखनऊ	-8250
▁वक्र	-8251
▁अरुणा	-8252
▁बैठकों	-8253
▁सरकारें	-8254
▁सम्भावना	-8255
▁सिफारिशें	-8256
us	-8257
कावट	-8258
पत्य	-8259
▁धनी	-8260
▁रिए	-8261
▁1970	-8262
▁1981	-8263
▁डाली	-8264
▁देहा	-8265
▁बेहत	-8266
▁उपनिष	-8267
▁लगेगा	-8268
िष्णुता	-8269
▁दिखायी	-8270
▁बीमारियों	-8271
▁ऑस्ट्रेलिया	-8272
um	-8273
▁सज	-8274
धर्म	-8275
ारिक	-8276
▁बैल	-8277
▁कैसा	-8278
ास्टिक	-8279
▁पुकार	-8280
▁प्रको	-8281
▁बदलते	-8282
▁मुल्क	-8283
▁अग्रसर	-8284
▁अनुभाग	-8285
▁आचार्य	-8286
▁आत्मनि	-8287
▁समुच्च	-8288
▁चाहेंगे	-8289
▁प्रभावों	-8290
िग	-8291
बुद	-8292
▁we	-8293
गरीय	-8294
▁the	-8295
▁खैर	-8296
▁बूट	-8297
▁व्र	-8298
▁स्फ	-8299
▁दायी	-8300
▁बाबा	-8301
▁रत्न	-8302
क्षमता	-8303
▁अंडमान	-8304
▁आवासीय	-8305
▁विलियम	-8306
▁नीतियां	-8307
▁क्रियाकलापों	-8308
पृ	-8309
जरी	-8310
लापन	-8311
▁किरण	-8312
▁सुपर	-8313
▁सौदा	-8314
▁हटाए	-8315
▁कम्पन	-8316
▁गार्ड	-8317
▁चित्त	-8318
▁फ्रेम	-8319
▁बलराम	-8320
▁सुश्री	-8321
▁सेनाओं	-8322
▁आजीविका	-8323
▁सुभाषबाबू	-8324
▁अंतःस्थापित	-8325
AT	-8326
सेन	-8327
▁चट	-8328
म्पर	-8329
ोतरी	-8330
वाहिक	-8331
▁बनती	-8332
▁मेनन	-8333
नाइटेड	-8334
स्वामी	-8335
▁गवर्न	-8336
▁परिपथ	-8337
▁शुष्क	-8338
▁सरलता	-8339
▁हटाना	-8340
▁तेलुगु	-8341
▁दृढ़ता	-8342
▁राजकीय	-8343
▁चित्रित	-8344
▁फिल्मों	-8345
▁वाजपेयी	-8346
▁व्याप्त	-8347
▁उत्पादित	-8348
▁प्रारम्भिक	-8349
ज़्	-8350
िथ्म	-8351
▁ग्लो	-8352
▁सभ्य	-8353
▁सौदे	-8354
िश्रमिक	-8355
▁मुद्रित	-8356
ॉजी	-8357
▁उजा	-8358
▁साठ	-8359
धियां	-8360
▁किला	-8361
▁पट्टे	-8362
▁पुर्त	-8363
▁भीतरी	-8364
▁स्वाद	-8365
▁हल्के	-8366
▁लाभदायक	-8367
▁सरस्वती	-8368
▁विशेषज्ञता	-8369
▁प्रतिस्थापित	-8370
▁शत	-8371
▁अमीर	-8372
▁चलाए	-8373
▁माया	-8374
▁मेनू	-8375
▁शिरा	-8376
▁सूखे	-8377
▁तार्क	-8378
▁निरोध	-8379
▁पारिश्रमिक	-8380
जान	-8381
परा	-8382
ोगी	-8383
▁हफ	-8384
माही	-8385
▁अलं	-8386
▁डेल	-8387
▁क्यो	-8388
▁ज्वर	-8389
▁अर्जी	-8390
▁ट्रैक	-8391
▁चमत्कार	-8392
▁स्नातको	-8393
▁क्षेत्रफल	-8394
थाम	-8395
▁जज	-8396
वश्यक	-8397
▁तरंग	-8398
▁मोती	-8399
▁तालिका	-8400
▁पूछताछ	-8401
▁प्रामा	-8402
▁विजेता	-8403
▁विशेषताएं	-8404
ट्स	-8405
▁चंद	-8406
▁मन्	-8407
▁कुर्	-8408
▁पोषक	-8409
▁बलों	-8410
▁पंचाट	-8411
▁दिलाने	-8412
▁मशीनों	-8413
▁मुद्रण	-8414
▁तीव्रता	-8415
▁प्रीमियम	-8416
▁रूपांतरण	-8417
▁संभावनाएं	-8418
▁हस्तांतरण	-8419
▁अनुपस्थिति	-8420
▁शांतिपूर्ण	-8421
लम	-8422
वेग	-8423
दायी	-8424
▁जन्	-8425
▁पंथ	-8426
▁फिन	-8427
ल्पित	-8428
▁खादी	-8429
▁फैले	-8430
▁बढ़ी	-8431
▁सिलस	-8432
▁अवशेष	-8433
▁गोपाल	-8434
▁डालना	-8435
▁मलयाल	-8436
▁पुर्तग	-8437
▁स्थगित	-8438
राधिकारी	-8439
▁दर्शाया	-8440
▁सिक्किम	-8441
▁आविष्कार	-8442
▁वर्गीकृत	-8443
▁उपाध्यक्ष	-8444
▁प्रस्तुति	-8445
▁ae	-8446
ब्बा	-8447
िल्ल	-8448
ीलाल	-8449
▁कोण	-8450
▁छोर	-8451
▁लाप	-8452
ल्लाह	-8453
▁कीर्	-8454
▁क्षय	-8455
▁हमसे	-8456
▁इंस्ट	-8457
▁कारित	-8458
▁पड़ते	-8459
▁चिंतित	-8460
▁उत्पत्ति	-8461
▁दिनांकित	-8462
▁रेगिस्तान	-8463
ER	-8464
िप्र	-8465
▁कीं	-8466
नागरी	-8467
नेशनल	-8468
▁1994	-8469
▁टिका	-8470
▁धमकी	-8471
▁धीमी	-8472
▁पद्य	-8473
▁लक्ष्मण	-8474
▁पारिस्थित	-8475
▁अंतर्निहित	-8476
▁राधाकृष्णन	-8477
लीफ	-8478
लेस	-8479
▁थल	-8480
▁मोन	-8481
▁पटना	-8482
▁मुआव	-8483
▁मुना	-8484
▁हुईं	-8485
▁आंखें	-8486
▁दर्शक	-8487
▁पूँजी	-8488
▁व्यंग	-8489
▁डिवीजन	-8490
▁ब्रिता	-8491
▁शृंखला	-8492
▁ग्रंथों	-8493
किक	-8494
▁कमर	-8495
▁सघन	-8496
▁खोला	-8497
▁फर्क	-8498
▁बेशक	-8499
▁युवक	-8500
▁सउदी	-8501
पत्रों	-8502
▁अंशदान	-8503
▁चुपचाप	-8504
▁ताजमहल	-8505
▁व्यायाम	-8506
▁संशोधनों	-8507
ञ्	-8508
जिन	-8509
राग	-8510
रात	-8511
वात	-8512
▁लू	-8513
▁लेट	-8514
त्तूर	-8515
▁वकाल	-8516
▁सरोज	-8517
▁सिवा	-8518
▁हरित	-8519
▁तुर्क	-8520
▁दोपहर	-8521
▁मणीलाल	-8522
▁माइक्र	-8523
▁सीरिया	-8524
▁जनजातीय	-8525
▁स्वयंसे	-8526
▁न्यायपीठ	-8527
▁समाविष्ट	-8528
▁हथियारों	-8529
▁स्नातकोत्तर	-8530
बोध	-8531
म्य	-8532
आईटी	-8533
न्सी	-8534
▁सती	-8535
▁दुष्	-8536
▁ब्रे	-8537
▁यकीन	-8538
▁लेनी	-8539
▁चलाना	-8540
▁भ्रमण	-8541
▁मानकर	-8542
▁पर्यटक	-8543
▁सहयोगियों	-8544
गीर	-8545
▁लय	-8546
राइट	-8547
हाली	-8548
▁अभय	-8549
मुक्त	-8550
▁अखंड	-8551
▁क़ुर	-8552
▁समनु	-8553
▁धैर्य	-8554
▁पत्तन	-8555
▁समूचे	-8556
▁प्रिंट	-8557
▁लैंगिक	-8558
▁मॉड्यूल	-8559
▁नियोक्ता	-8560
ायन	-8561
ैंस	-8562
ogle	-8563
प्रण	-8564
बर्ग	-8565
ोग्य	-8566
▁बंदी	-8567
▁मंदी	-8568
▁शंका	-8569
▁सतत्	-8570
▁हाला	-8571
▁आखिरी	-8572
▁उत्पी	-8573
▁चक्कर	-8574
ब्दियों	-8575
▁करूंगा	-8576
▁छत्तीस	-8577
▁मुकाबला	-8578
▁समन्वित	-8579
▁प्रसारित	-8580
▁सामंजस्य	-8581
▁हेक्टेयर	-8582
बेट	-8583
्टन	-8584
▁झी	-8585
रेटर	-8586
वस्तु	-8587
▁बुरे	-8588
▁मापन	-8589
▁मोटी	-8590
▁जगहों	-8591
▁पढ़ना	-8592
▁नारियल	-8593
▁रोकथाम	-8594
▁सर्किट	-8595
▁इन्होंने	-8596
▁उपक्रमों	-8597
▁सेवानिवृत्त	-8598
्ये	-8599
ष्णा	-8600
▁इंच	-8601
▁खाल	-8602
▁नाप	-8603
▁ख्या	-8604
▁ताजा	-8605
▁बताए	-8606
▁सुलह	-8607
धिकारी	-8608
▁क्षेञ	-8609
▁ध्येय	-8610
▁फारसी	-8611
▁संसद्	-8612
▁समझती	-8613
ष्ट्रपति	-8614
▁निकोबार	-8615
▁नैतिकता	-8616
▁विश्राम	-8617
▁परंपराओं	-8618
▁पारदर्शी	-8619
▁समितियां	-8620
▁नगरपालिका	-8621
▁सम्बन्धों	-8622
ub	-8623
.05	-8624
णीत	-8625
आईसी	-8626
बंधन	-8627
स्कृत	-8628
▁परमा	-8629
▁पेपर	-8630
▁साइन	-8631
▁नतीजा	-8632
▁विशेन	-8633
▁तयशुदा	-8634
▁मलयालम	-8635
▁ब्रितानी	-8636
▁श्रेणियों	-8637
60	-8638
ंजर	-8639
द्घ	-8640
ित्	-8641
▁99	-8642
▁उब	-8643
▁रथ	-8644
पकों	-8645
देशिक	-8646
हार्य	-8647
▁अमान	-8648
▁रंगों	-8649
▁निमंत्र	-8650
▁परिप्रे	-8651
▁प्लास्टिक	-8652
▁उत्तराधिकारी	-8653
रेज	-8654
्रल	-8655
▁AR	-8656
▁जह	-8657
▁रिव	-8658
▁चाहा	-8659
▁ड्यू	-8660
▁भण्ड	-8661
▁दीजिए	-8662
▁प्रभु	-8663
ंत्रिकी	-8664
▁अपनाना	-8665
▁जापानी	-8666
▁आधुनिकीकरण	-8667
▁रजिस्ट्रीकृत	-8668
40	-8669
od	-8670
.09	-8671
गणना	-8672
ड़ने	-8673
▁पाउ	-8674
▁हॉल	-8675
द्वार	-8676
▁गुस्	-8677
▁पुष्	-8678
क्सीजन	-8679
▁दिखता	-8680
▁आबंटित	-8681
▁ग्लोबल	-8682
▁निकाले	-8683
▁पोर्टल	-8684
▁सदियों	-8685
▁एल्गोरिथ्म	-8686
अली	-8687
फलक	-8688
ान्	-8689
▁92	-8690
▁यश	-8691
▁वॉ	-8692
▁चंडी	-8693
पतियों	-8694
▁घटकों	-8695
▁चार्ट	-8696
▁प्रोज	-8697
▁भौतिकी	-8698
ँट	-8699
ोटा	-8700
ब्रे	-8701
ियाई	-8702
▁मर्	-8703
▁शाल	-8704
▁1972	-8705
▁पुरी	-8706
▁कार्ट	-8707
▁काल्प	-8708
▁दुश्म	-8709
▁सहारे	-8710
▁आदर्शों	-8711
▁देवनागरी	-8712
▁शब्दावली	-8713
▁II	-8714
▁sa	-8715
शियन	-8716
▁गरम	-8717
▁झलक	-8718
▁डूब	-8719
▁रवै	-8720
▁शंक	-8721
▁आयाम	-8722
▁बनते	-8723
▁सूखा	-8724
▁बिस्तर	-8725
▁रिश्वत	-8726
▁निवासियों	-8727
,7	-8728
ूद	-8729
नीस	-8730
लेन	-8731
▁खिस	-8732
▁मता	-8733
क्टरी	-8734
▁कहें	-8735
▁निरी	-8736
▁यूनिक	-8737
▁विराम	-8738
▁हास्य	-8739
धारियों	-8740
ोल्यूशन	-8741
▁विधिज्ञ	-8742
▁उपन्यासों	-8743
▁पुनर्निर्	-8744
ठों	-8745
माद	-8746
▁अने	-8747
▁बसे	-8748
▁युसु	-8749
▁मण्डल	-8750
▁निगमित	-8751
▁उत्प्रे	-8752
▁कृतियों	-8753
▁प्रिंटर	-8754
▁भागीदारों	-8755
जीत	-8756
भास	-8757
जारी	-8758
नामा	-8759
स्तर	-8760
▁1951	-8761
▁नौका	-8762
▁भेड़	-8763
न्दर्य	-8764
▁कामों	-8765
▁लिखें	-8766
▁श्वास	-8767
▁सिंधी	-8768
▁महानिदेशक	-8769
▁मुख्यमंत्री	-8770
िमी	-8771
ुवा	-8772
ेरा	-8773
ेली	-8774
ज्जा	-8775
ोसिस	-8776
ौर्य	-8777
▁Chr	-8778
▁उदर	-8779
▁ऋषि	-8780
▁पिट	-8781
दायगी	-8782
ेशनों	-8783
▁1984	-8784
▁तिलक	-8785
▁रुग्	-8786
▁सुखद	-8787
क्रमित	-8788
▁Google	-8789
▁चट्टान	-8790
▁स्थावर	-8791
▁पर्वतीय	-8792
,9	-8793
ुरु	-8794
▁ढी	-8795
▁तद	-8796
▁शव	-8797
चेरी	-8798
ॉक्स	-8799
▁पैट	-8800
▁1954	-8801
▁फ्रा	-8802
▁अपवर्	-8803
▁गर्भव	-8804
▁नोड्स	-8805
▁पुष्ट	-8806
▁मानवा	-8807
▁हल्का	-8808
कारियों	-8809
▁अधिष्ठ	-8810
▁सारांश	-8811
▁क्रमांक	-8812
▁स्वार्थ	-8813
▁टेलीविजन	-8814
▁वाशिंगटन	-8815
▁नवान्वेषी	-8816
कै	-8817
वस	-8818
विड	-8819
▁कवर	-8820
▁कृषक	-8821
▁जायगा	-8822
▁जिज्ञ	-8823
▁धाराओं	-8824
▁प्ररूप	-8825
▁शासकीय	-8826
▁कित्तूर	-8827
▁अभिलिखित	-8828
▁भूतपूर्व	-8829
▁महाकाव्य	-8830
▁याचिकाकर्ता	-8831
्यौ	-8832
▁आभा	-8833
▁गढ़	-8834
▁नाभ	-8835
िलोकन	-8836
▁वाहक	-8837
वर्षीय	-8838
ापूर्ण	-8839
▁अंतरा	-8840
▁क्रोम	-8841
▁रवाना	-8842
▁असंख्य	-8843
▁चिन्ता	-8844
▁नौसेना	-8845
▁प्रेरक	-8846
▁प्रदाता	-8847
▁प्रशासक	-8848
ov	-8849
डम	-8850
बारी	-8851
▁सफ़	-8852
कार्य	-8853
▁ऋणों	-8854
▁चालक	-8855
▁तैना	-8856
▁परिल	-8857
▁फैली	-8858
▁मृदा	-8859
▁्याय	-8860
▁युग्म	-8861
▁वकालत	-8862
▁वादों	-8863
▁बशर्ते	-8864
▁प्रस्तु	-8865
▁संस्थापक	-8866
▁अतिमानसिक	-8867
▁अब्दुल्ला	-8868
▁न्यूयार्क	-8869
ैश	-8870
जलि	-8871
लोक	-8872
▁एह	-8873
प्ता	-8874
▁कैर	-8875
▁गोर	-8876
▁मीन	-8877
▁हुस	-8878
▁उज्ज	-8879
▁बादल	-8880
्लिकेशन	-8881
▁उपासना	-8882
▁क्रमिक	-8883
▁विद्वत	-8884
▁किनारों	-8885
▁द्वीपों	-8886
▁कार्यपाल	-8887
▁जुर्माना	-8888
▁व्यापारियों	-8889
वो	-8890
डिश	-8891
▁63	-8892
▁73	-8893
खाना	-8894
▁घों	-8895
▁टोप	-8896
▁फंड	-8897
▁अविल	-8898
▁गाने	-8899
▁गर्दन	-8900
▁फैसले	-8901
▁परंतुक	-8902
▁राजवंश	-8903
▁सम्प्र	-8904
▁नामांकन	-8905
▁प्रत्युत्तर	-8906
रीद	-8907
▁68	-8908
▁फो	-8909
धारक	-8910
▁गुर्	-8911
▁रावण	-8912
▁ख्याल	-8913
▁जीतने	-8914
▁लगाये	-8915
▁उत्थान	-8916
▁मुम्बई	-8917
▁निर्भरता	-8918
▁सौन्दर्य	-8919
▁कार्यकलाप	-8920
गृह	-8921
▁एर	-8922
त्सव	-8923
▁भीम	-8924
▁मदर	-8925
▁बंगल	-8926
▁हिला	-8927
▁एक्सप	-8928
▁क़्या	-8929
▁खुराक	-8930
▁फीसदी	-8931
▁बेरोज	-8932
▁हममें	-8933
▁तार्किक	-8934
▁दर्शकों	-8935
▁देखेंगे	-8936
▁आस्तियां	-8937
▁प्रामाणिक	-8938
▁अनुप्रयोगों	-8939
है	-8940
aoM	-8941
ुखी	-8942
▁ओल	-8943
नियों	-8944
▁अफसर	-8945
▁श्या	-8946
▁दंडित	-8947
▁परमिट	-8948
▁परिकल	-8949
▁बनाएं	-8950
▁साम्य	-8951
▁उल्लास	-8952
▁विचारा	-8953
▁समनुदेश	-8954
▁क्षेत्रक	-8955
▁कार्मिकों	-8956
,0	-8957
▁77	-8958
▁कं	-8959
ुकला	-8960
▁परो	-8961
▁मनी	-8962
ज्जित	-8963
▁कृपा	-8964
▁पच्च	-8965
▁बेटा	-8966
▁सुलभ	-8967
▁खेलने	-8968
▁आक्षेप	-8969
▁ग्रंथि	-8970
▁खाद्यान	-8971
▁सुपुर्दगी	-8972
▁आतंकवादियों	-8973
▁59	-8974
▁एजे	-8975
▁जगा	-8976
▁जाऊ	-8977
▁शार	-8978
▁तटीय	-8979
▁सोना	-8980
▁कसौटी	-8981
▁किशोर	-8982
▁केलिए	-8983
▁बुखार	-8984
▁निकलता	-8985
▁व्यतिक	-8986
▁सम्मुख	-8987
▁विशुद्ध	-8988
▁नागरिकता	-8989
,8	-8990
थिल	-8991
्युन	-8992
▁इंट	-8993
▁अभिम	-8994
▁अभिश	-8995
▁भावा	-8996
लेरिया	-8997
▁बहुधा	-8998
▁मंडली	-8999
▁हिमनद	-9000
▁कोरिया	-9001
▁अप्रत्या	-9002
ँकि	-9003
क्व	-9004
▁04	-9005
▁88	-9006
▁जौ	-9007
▁डू	-9008
त्सा	-9009
▁सीट	-9010
▁1960	-9011
▁1963	-9012
▁पौरा	-9013
▁बैंड	-9014
▁रसोई	-9015
▁वैसी	-9016
▁प्रोफ़	-9017
▁राजदूत	-9018
▁यथासंभव	-9019
▁उत्तेजित	-9020
ुए	-9021
▁नह	-9022
क्ष्	-9023
ल्ले	-9024
्टीट	-9025
▁दाल	-9026
चर्या	-9027
धिकरण	-9028
नीकरण	-9029
परेशन	-9030
▁देरी	-9031
▁बंधक	-9032
▁वियत	-9033
▁कोयले	-9034
▁इंतजार	-9035
▁प्रेषण	-9036
▁गर्भवती	-9037
▁निदेशकों	-9038
▁सद्भावना	-9039
▁सांविधिक	-9040
▁एक्सटेंशन	-9041
▁विमानक्षेत्र	-9042
आन	-9043
जिर	-9044
सूरत	-9045
▁जनक	-9046
▁थाः	-9047
▁दहेज	-9048
▁लड़ा	-9049
▁खुलने	-9050
▁जॉर्ज	-9051
▁अनुयाय	-9052
▁आश्रित	-9053
▁कर्त्त	-9054
▁डिक्री	-9055
▁देखरेख	-9056
▁आन्तरिक	-9057
▁स्ट्रिंग	-9058
▁महाविद्यालय	-9059
दत्त	-9060
न्ने	-9061
ालेख	-9062
▁आगम	-9063
▁पिर	-9064
▁इनको	-9065
▁निवे	-9066
▁पल्ल	-9067
▁बन्ध	-9068
▁मदों	-9069
▁रिहा	-9070
▁लगों	-9071
▁सोशल	-9072
▁परिमाण	-9073
▁बागवानी	-9074
▁लाभकारी	-9075
▁समुच्चय	-9076
▁व्यवसायी	-9077
▁साधारणतया	-9078
▁मनोवैज्ञानिक	-9079
ंची	-9080
ोत्	-9081
्वल	-9082
▁उम	-9083
टिंग	-9084
वाड़	-9085
ोपाल	-9086
▁छान	-9087
▁अन्ध	-9088
▁गणेश	-9089
▁मरने	-9090
▁अनुमत	-9091
▁समरूप	-9092
▁नवाचार	-9093
▁ब्राउज़र	-9094
▁संस्थापन	-9095
▁साझेदारी	-9096
▁प्रदर्शनी	-9097
em	-9098
▁ऊर्	-9099
▁लिट	-9100
▁अभिस	-9101
▁असीम	-9102
▁करों	-9103
▁पौधा	-9104
▁महार	-9105
▁पाश्च	-9106
▁मैसूर	-9107
▁आईसीटी	-9108
▁पॉलिसी	-9109
▁आकांक्षाओं	-9110
’’	-9111
बंधी	-9112
▁खरा	-9113
▁मोल	-9114
▁्या	-9115
▁माउस	-9116
▁साफ़	-9117
▁ग्रिड	-9118
▁तारों	-9119
▁फाउंड	-9120
▁बर्तन	-9121
▁रोकना	-9122
▁हुसैन	-9123
▁निवेशक	-9124
▁वर्षगा	-9125
▁सुंदरता	-9126
ॉस	-9127
फ्फ	-9128
▁अलम	-9129
▁भाँ	-9130
▁हिर	-9131
▁1978	-9132
▁डिज़	-9133
▁बाँध	-9134
▁ईरानी	-9135
▁उर्वर	-9136
▁खतरों	-9137
▁नामित	-9138
▁लम्बा	-9139
▁शाश्व	-9140
▁सुप्र	-9141
▁ग्यारह	-9142
▁सेवाएँ	-9143
▁एनआईओएस	-9144
▁प्रमाणन	-9145
▁नामनिर्देश	-9146
▁परिस्थितियां	-9147
ध्द	-9148
ोनी	-9149
▁पठ	-9150
क्के	-9151
▁हड्ड	-9152
▁चालुक	-9153
▁सहेजें	-9154
▁संप्रती	-9155
▁जानबूझकर	-9156
▁प्रतिमान	-9157
▁प्रेमचन्द	-9158
▁विश्वव्यापी	-9159
ङ्ग	-9160
सम्	-9161
िगर	-9162
▁सत्	-9163
ट्रिक	-9164
निवेश	-9165
▁तिरु	-9166
▁फ़िर	-9167
क्ताओं	-9168
▁गुलाम	-9169
▁दशाओं	-9170
▁भिक्ष	-9171
▁मिश्र	-9172
▁विक्ष	-9173
▁उद्धरण	-9174
▁चेन्नई	-9175
▁ज़रूरी	-9176
▁दुबारा	-9177
▁विनम्र	-9178
▁परिप्रेक्ष्य	-9179
ँची	-9180
धरी	-9181
▁ढ़	-9182
▁कमिश	-9183
▁फ्री	-9184
▁बांड	-9185
▁सहभा	-9186
▁जिन्ना	-9187
▁पकड़ने	-9188
▁मुद्रक	-9189
▁काल्पनिक	-9190
▁भविष्यवाणी	-9191
▁पुनर्विलोकन	-9192
ोहण	-9193
▁अरे	-9194
▁टाल	-9195
▁तरा	-9196
क्रेट	-9197
▁1938	-9198
▁1977	-9199
▁उद्घ	-9200
▁निवल	-9201
▁सपने	-9202
▁इलाके	-9203
▁परवाह	-9204
▁वर्ल्ड	-9205
▁संरक्षक	-9206
▁निदेशालय	-9207
▁सिंगापुर	-9208
▁प्रोग्रामिंग	-9209
ोभ	-9210
ist	-9211
इंट	-9212
चों	-9213
जील	-9214
▁अमी	-9215
▁1955	-9216
▁घेरे	-9217
▁बताई	-9218
▁हरेक	-9219
पोरेशन	-9220
▁उजागर	-9221
▁खेलों	-9222
▁स्पेन	-9223
▁हफ्ते	-9224
▁घटनाएं	-9225
▁दिशानि	-9226
▁निरर्थ	-9227
▁आवृत्ति	-9228
▁पात्रों	-9229
▁बाध्यता	-9230
▁सुप्रीम	-9231
▁कन्वेंशन	-9232
▁वास्तुकला	-9233
▁प्रतिपूर्ति	-9234
लाभ	-9235
य्या	-9236
ालीस	-9237
▁120	-9238
▁अंज	-9239
▁हनु	-9240
▁अंडा	-9241
▁ढलान	-9242
▁सचेत	-9243
▁दिखाना	-9244
▁अत्याचार	-9245
▁मानचित्र	-9246
▁मध्यवर्ती	-9247
ob	-9248
▁खाम	-9249
▁झेल	-9250
▁मौन	-9251
▁कपास	-9252
▁ब्ला	-9253
▁श्ले	-9254
▁सजीव	-9255
▁डालता	-9256
▁डालते	-9257
▁डीएनए	-9258
▁वर्षीय	-9259
▁व्यतीत	-9260
▁सीमेंट	-9261
▁पौराणिक	-9262
▁अहमदाबाद	-9263
▁करनेवाले	-9264
▁प्रायोजित	-9265
▁अप्रत्याशित	-9266
▁57	-9267
▁२५	-9268
कथित	-9269
जिये	-9270
▁अड़	-9271
▁शिल	-9272
▁हज़	-9273
▁कटाई	-9274
▁निःश	-9275
▁पीछा	-9276
▁शर्म	-9277
▁धूम्र	-9278
▁बैठकर	-9279
▁शिश्न	-9280
▁कानपुर	-9281
▁मानवाधिकार	-9282
ुदेव	-9283
▁नाव	-9284
▁बाघ	-9285
षिद्ध	-9286
िश्रण	-9287
▁गायब	-9288
▁दस्त	-9289
▁कालाव	-9290
▁यमुना	-9291
▁सब्सि	-9292
▁अस्त्र	-9293
▁स्नायु	-9294
▁फाउंडेशन	-9295
▁यूनाइटेड	-9296
▁कार्यकर्ताओं	-9297
दो	-9298
▁छल	-9299
गरों	-9300
▁असा	-9301
▁1952	-9302
▁इटली	-9303
▁घंटा	-9304
▁चार्	-9305
▁तेजा	-9306
▁कन्या	-9307
▁बढाने	-9308
▁ख्याति	-9309
▁दिशाओं	-9310
▁वैधानिक	-9311
▁पासपोर्ट	-9312
▁दिशानिर्देश	-9313
ॉं	-9314
ाम्	-9315
▁05	-9316
▁वल्ल	-9317
▁खुदरा	-9318
▁जिक्र	-9319
▁पक्का	-9320
▁रियास	-9321
▁जंगलों	-9322
▁मतदाता	-9323
▁आश्वस्त	-9324
▁अनुरक्षण	-9325
▁उत्तेजना	-9326
▁क्रमादेश	-9327
▁आत्मनिर्भ	-9328
▁अनुयायियों	-9329
ंगर	-9330
ंदे	-9331
भीत	-9332
मयी	-9333
ूति	-9334
▁अछ	-9335
रणीय	-9336
▁कैप	-9337
▁समन	-9338
न्नति	-9339
▁निका	-9340
▁ऑपरेट	-9341
▁जोरदार	-9342
▁विवेका	-9343
▁अधिकथित	-9344
▁अरुणाचल	-9345
▁पूर्वानु	-9346
▁यांत्रिक	-9347
▁पंचवर्षीय	-9348
▁राष्ट्रीयता	-9349
यो	-9350
्क	-9351
गोश	-9352
बिट	-9353
▁असु	-9354
▁शाक	-9355
▁रूसी	-9356
▁पहलों	-9357
▁क्योकि	-9358
▁लक्षित	-9359
▁कलात्मक	-9360
▁खुशहाली	-9361
▁तकनीकों	-9362
▁कलाकारों	-9363
▁कार्यशाला	-9364
ीर	-9365
कूट	-9366
च्य	-9367
▁aa	-9368
▁उपजा	-9369
▁मेले	-9370
▁लीला	-9371
▁सर्प	-9372
▁मुर्ग	-9373
▁लगाते	-9374
▁नियोजक	-9375
▁स्वरुप	-9376
▁संदर्भित	-9377
▁कछ	-9378
माना	-9379
ोगिक	-9380
▁दीन	-9381
.2012	-9382
▁अंगी	-9383
▁चिट्	-9384
▁पद्म	-9385
▁जीवनी	-9386
▁रक्षक	-9387
▁तत्समय	-9388
▁बिहारी	-9389
▁भाइयों	-9390
▁शाश्वत	-9391
▁अवस्थाओं	-9392
▁पंचायतों	-9393
▁पत्तियों	-9394
▁रजिस्ट्र	-9395
▁अपरिहार्य	-9396
▁छत्तीसगढ़	-9397
.01	-9398
ोधी	-9399
रहित	-9400
▁कस्	-9401
▁भला	-9402
▁लाज	-9403
▁शिर	-9404
बिनेट	-9405
▁उभार	-9406
▁मादक	-9407
▁रूढ़	-9408
▁शाहज	-9409
▁जिनको	-9410
▁नाजुक	-9411
▁निष्क	-9412
▁मक्का	-9413
▁छुटकारा	-9414
▁निम्नतर	-9415
▁वृक्षों	-9416
▁समाजवाद	-9417
▁पीड़ितों	-9418
▁श्रद्धां	-9419
▁श्रीकृष्ण	-9420
▁शताब्दियों	-9421
षद	-9422
णीय	-9423
ोंग	-9424
▁67	-9425
मुझे	-9426
ात्य	-9427
▁अन्	-9428
▁एटी	-9429
▁डिब	-9430
▁नक़	-9431
▁बाप	-9432
▁हेम	-9433
▁चढ़ा	-9434
▁दरें	-9435
▁बस्त	-9436
▁कब्जे	-9437
▁निपटा	-9438
▁निषेध	-9439
▁माणिक	-9440
▁जागरूक	-9441
▁अभिनेता	-9442
▁जुर्माने	-9443
▁समायोजित	-9444
▁साम्राज्यवाद	-9445
EE	-9446
ंशी	-9447
डेट	-9448
▁हौ	-9449
▁कंक	-9450
▁खाई	-9451
त्रिक	-9452
▁जवान	-9453
▁पूछे	-9454
▁बढ़ना	-9455
▁दर्शित	-9456
▁हालाँकि	-9457
▁प्रतिबंधित	-9458
▁अर्थशास्त्र	-9459
▁95	-9460
्तों	-9461
▁इलै	-9462
▁खुर	-9463
▁घेर	-9464
▁बिछ	-9465
▁चौथे	-9466
▁चौदह	-9467
▁सबका	-9468
▁सिटी	-9469
▁स्का	-9470
▁आंत्र	-9471
▁दर्जे	-9472
▁यौगिक	-9473
▁सापेक्ष	-9474
कने	-9475
ग्व	-9476
ारस	-9477
▁टूल	-9478
▁दुक	-9479
▁बगी	-9480
▁लौह	-9481
▁शैल	-9482
भक्ति	-9483
विन्द	-9484
▁1969	-9485
▁डिजी	-9486
▁धुंध	-9487
▁क्लास	-9488
▁मुर्गी	-9489
▁लाभप्रद	-9490
▁अपेक्षाओं	-9491
थर	-9492
मील	-9493
▁st	-9494
▁183	-9495
▁गंग	-9496
▁रेत	-9497
त्नों	-9498
▁ठेके	-9499
▁फार्	-9500
▁मुहा	-9501
▁रोटी	-9502
▁संसू	-9503
वर्तित	-9504
▁चुनने	-9505
▁चौथाई	-9506
▁तुलसी	-9507
▁स्क्र	-9508
▁ऑपरेशन	-9509
▁पहचाना	-9510
▁प्रचलन	-9511
▁बढ़िया	-9512
▁संकेतों	-9513
▁इस्लामिक	-9514
▁त्रिपुरा	-9515
ey	-9516
ोफ	-9517
ीदा	-9518
ूरक	-9519
▁कैद	-9520
▁2017	-9521
▁एंटी	-9522
▁तरफ़	-9523
▁अहसास	-9524
▁एकांत	-9525
▁जयपुर	-9526
▁जातीय	-9527
▁पश्चा	-9528
▁पंचांग	-9529
▁इकाइयां	-9530
▁संस्थित	-9531
ँव	-9532
ढी	-9533
कोच	-9534
ीयों	-9535
▁साई	-9536
▁फोल्डर	-9537
▁परिपत्र	-9538
▁प्रतिरूप	-9539
▁परिपक्वता	-9540
▁सशक्तीकरण	-9541
▁साफ्टवेयर	-9542
तुर	-9543
तौर	-9544
यता	-9545
्यूम	-9546
▁तूफ	-9547
▁बकर	-9548
▁आएगा	-9549
▁गाथा	-9550
▁पारे	-9551
▁मामल	-9552
▁मारा	-9553
▁विषम	-9554
▁कथाओं	-9555
▁करुणा	-9556
▁नगरों	-9557
▁महाप्र	-9558
▁आदिवासी	-9559
▁इंस्टीट	-9560
▁पहुँचने	-9561
▁स्तंभों	-9562
▁विशिष्टता	-9563
▁आत्मविश्वास	-9564
खल	-9565
नक	-9566
ear	-9567
▁कुर	-9568
▁झूठ	-9569
▁टैग	-9570
▁हर्	-9571
मेन्ट	-9572
▁आलोक	-9573
स्फीति	-9574
▁बैटरी	-9575
▁मल्टी	-9576
▁वेदों	-9577
▁कराधान	-9578
▁जुटाने	-9579
▁वर्षगांठ	-9580
ँसी	-9581
सेफ	-9582
ुका	-9583
▁69	-9584
▁250	-9585
▁आदम	-9586
▁०००	-9587
▁अनुभ	-9588
▁त्यो	-9589
▁दादी	-9590
▁पीले	-9591
▁व्रत	-9592
▁समया	-9593
▁अपहरण	-9594
▁क्रिस	-9595
▁तुल्य	-9596
▁नामंज	-9597
▁बूढ़े	-9598
▁सीखना	-9599
▁अरविंद	-9600
▁गर्भाव	-9601
▁जोड़ना	-9602
▁उच्छेदन	-9603
▁पूंजीगत	-9604
▁राजनयिक	-9605
▁सैकड़ों	-9606
▁स्टार्ट	-9607
▁स्मार्ट	-9608
▁धूम्रपान	-9609
▁प्रेमचंद	-9610
▁व्यक़्ति	-9611
▁भावनात्मक	-9612
17	-9613
18	-9614
ct	-9615
डित	-9616
वटी	-9617
ंदाज	-9618
▁तैर	-9619
पृष्ठ	-9620
वालों	-9621
मुक्ति	-9622
▁नम्बर	-9623
▁बढावा	-9624
▁बस्ती	-9625
▁लीजिए	-9626
िपीडिया	-9627
▁करवाया	-9628
▁चेष्टा	-9629
▁केन्द्री	-9630
▁प्रॉक्सी	-9631
▁अधिनिर्णय	-9632
▁सहिष्णुता	-9633
▁श्रद्धांजलि	-9634
▁ओज	-9635
▁डु	-9636
सूची	-9637
ालाल	-9638
ूंगी	-9639
▁अवश	-9640
▁झार	-9641
▁फ़र	-9642
▁भटक	-9643
▁मसौ	-9644
▁अस्व	-9645
▁म्यू	-9646
▁लोहे	-9647
▁विस्	-9648
▁२००८	-9649
पक्षीय	-9650
▁ऊँचाई	-9651
▁खर्चा	-9652
▁जरिये	-9653
▁डेविड	-9654
▁मंजिल	-9655
▁गुप्ता	-9656
▁पाएंगे	-9657
▁मेगावाट	-9658
▁प्रोफाइल	-9659
▁सिद्धदोष	-9660
▁प्रादेशिक	-9661
▁कार्यकर्ता	-9662
ip	-9663
and	-9664
मैं	-9665
▁78	-9666
बाज़	-9667
▁लूट	-9668
विदों	-9669
ोरिया	-9670
▁1930	-9671
▁उठाते	-9672
▁कराते	-9673
▁भयभीत	-9674
▁वैद्य	-9675
▁पहुँचे	-9676
▁अखबारों	-9677
▁अभयारण्य	-9678
▁संक्रामक	-9679
▁सब्जियों	-9680
मह	-9681
ंजक	-9682
▁97	-9683
समूह	-9684
▁124	-9685
▁खां	-9686
▁नाच	-9687
नीयता	-9688
▁1975	-9689
▁उड़ा	-9690
▁ऑफिस	-9691
▁हमास	-9692
▁झुकाव	-9693
▁तलवार	-9694
▁पर्दा	-9695
▁वर्गम	-9696
▁वर्गा	-9697
▁अल्लाह	-9698
▁तिमाही	-9699
▁किस्मों	-9700
▁कामगारों	-9701
▁कट्टरपंथी	-9702
▁बुद्धिमान	-9703
▁अत्यावश्यक	-9704
ंन	-9705
फु	-9706
स्स	-9707
चकों	-9708
जन्य	-9709
ुकता	-9710
▁चौक	-9711
▁जनन	-9712
▁टेक	-9713
▁टोक	-9714
▁दलील	-9715
▁पतली	-9716
▁लाये	-9717
▁डालें	-9718
▁पत्ते	-9719
▁रोबोट	-9720
▁एकाग्र	-9721
▁मेडिकल	-9722
▁कविताएं	-9723
▁वर्गमूल	-9724
▁वियतनाम	-9725
▁प्रभारित	-9726
डोर	-9727
▁89	-9728
▁कत	-9729
गारी	-9730
मिया	-9731
▁दुस	-9732
▁लसी	-9733
▁NAME	-9734
▁करोड	-9735
▁पैदल	-9736
▁राजप	-9737
ड़ियां	-9738
▁कुष्ठ	-9739
▁गिनती	-9740
▁धरोहर	-9741
वर्सिटी	-9742
▁दिखाता	-9743
▁मापदंड	-9744
▁विलम्ब	-9745
▁समकक्ष	-9746
▁हाइड्र	-9747
▁पृष्ठों	-9748
▁विलक्षण	-9749
▁स्वर्गी	-9750
ंतक	-9751
झान	-9752
ल्थ	-9753
▁लह	-9754
▁३०	-9755
▁PRO	-9756
▁चैन	-9757
▁सिग	-9758
▁असुर	-9759
▁इजाज	-9760
▁इसमे	-9761
▁कलाम	-9762
▁घिरा	-9763
▁चरित	-9764
▁चाचा	-9765
▁नोडल	-9766
▁आँखें	-9767
▁इंसान	-9768
▁दुर्ग	-9769
▁होस्ट	-9770
त्तियां	-9771
▁ड्रग्स	-9772
▁कालावधि	-9773
▁वचनबद्ध	-9774
▁प्रबन्धन	-9775
▁संक्रमित	-9776
ुज	-9777
▁चढ	-9778
▁नहर	-9779
▁सिम	-9780
▁हुक	-9781
▁हें	-9782
्लेषण	-9783
▁आईडी	-9784
▁क्षै	-9785
▁प्रक	-9786
▁मेला	-9787
णात्मक	-9788
▁कार्प	-9789
▁खरगोश	-9790
▁चालीस	-9791
▁वेस्ट	-9792
▁सेकंड	-9793
▁नीलामी	-9794
▁प्रकटन	-9795
▁मुखिया	-9796
▁अनुयायी	-9797
▁तथाकथित	-9798
▁त्योहार	-9799
▁शीघ्रता	-9800
▁न्यायोचित	-9801
▁प्रतिष्ठान	-9802
ख्श	-9803
गिन	-9804
षाण	-9805
वाइस	-9806
▁con	-9807
▁पला	-9808
▁बाण	-9809
▁वोट	-9810
▁सरो	-9811
▁सिड	-9812
▁1983	-9813
▁अम्ब	-9814
▁निया	-9815
▁फ़ाइ	-9816
▁मधुम	-9817
▁साहा	-9818
▁अंकों	-9819
▁अपनाए	-9820
▁अभ्या	-9821
▁ग्रेड	-9822
▁भूमिगत	-9823
▁किताबें	-9824
▁अपराधियों	-9825
▁पाश्चात्य	-9826
ंए	-9827
खने	-9828
जना	-9829
ेषण	-9830
िपरि	-9831
▁उठी	-9832
▁रुख	-9833
▁वीं	-9834
विवाह	-9835
▁आप्र	-9836
▁इष्ट	-9837
▁जीता	-9838
▁साम्	-9839
स्तरीय	-9840
▁दुर्व	-9841
▁परिशि	-9842
▁बदलती	-9843
▁बारिश	-9844
▁वायदा	-9845
▁अकादमिक	-9846
▁निरर्थक	-9847
▁फ़ाइलें	-9848
▁बुद्धिम	-9849
▁सब्सिडी	-9850
▁	-9851
ा	-9852
क	-9853
र	-9854
्	-9855
े	-9856
ि	-9857
न	-9858
स	-9859
त	-9860
ं	-9861
ी	-9862
ह	-9863
य	-9864
म	-9865
प	-9866
ो	-9867
व	-9868
ल	-9869
द	-9870
ज	-9871
ग	-9872
ै	-9873
ु	-9874
ब	-9875
अ	-9876
श	-9877
ध	-9878
ए	-9879
च	-9880
भ	-9881
।	-9882
थ	-9883
ू	-9884
ट	-9885
,	-9886
ष	-9887
उ	-9888
आ	-9889
ण	-9890
ड	-9891
औ	-9892
इ	-9893
ख	-9894
.	-9895
़	-9896
-	-9897
ई	-9898
फ	-9899
1	-9900
छ	-9901
ृ	-9902
0	-9903
)	-9904
(	-9905
ौ	-9906
2	-9907
ओ	-9908
ठ	-9909
घ	-9910
9	-9911
ँ	-9912
ऐ	-9913
4	-9914
ढ	-9915
झ	-9916
3	-9917
5	-9918
ः	-9919
e	-9920
ॉ	-9921
i	-9922
a	-9923
/	-9924
8	-9925
6	-9926
'	-9927
7	-9928
ञ	-9929
t	-9930
;	-9931
s	-9932
r	-9933
n	-9934
:	-9935
ऊ	-9936
?	-9937
o	-9938
h	-9939
ऋ	-9940
l	-9941
p	-9942
०	-9943
”	-9944
m	-9945
१	-9946
c	-9947
d	-9948
“	-9949
ऑ	-9950
%	-9951
u	-9952
‘	-9953
>	-9954
"	-9955
&	-9956
A	-9957
२	-9958
’	-9959
#	-9960
w	-9961
E	-9962
g	-9963
f	-9964
S	-9965
I	-9966
९	-9967
b	-9968
!	-9969
T	-9970
<	-9971
R	-9972
y	-9973
k	-9974
५	-9975
v	-9976
C	-9977
M	-9978
३	-9979
P	-9980
N	-9981
४	-9982
८	-9983
६	-9984
–	-9985
७	-9986
O	-9987
D	-9988
L	-9989
]	-9990
x	-9991
[	-9992
_	-9993
B	-9994
ङ	-9995
G	-9996
