<unk>	0
<s>	0
</s>	0
்க	-0
்த	-1
ம்	-2
ன்	-3
க்க	-4
▁ப	-5
த்த	-6
ல்	-7
்ப	-8
▁க	-9
்ட	-10
ும்	-11
▁அ	-12
ிய	-13
▁ம	-14
▁வ	-15
ப்ப	-16
▁த	-17
ள்	-18
ரு	-19
▁ச	-20
ர்	-21
▁இ	-22
து	-23
ட்ட	-24
ந்த	-25
▁ந	-26
ில்	-27
ைய	-28
▁எ	-29
ங்க	-30
ின்	-31
ாக	-32
ிர	-33
ிற	-34
டு	-35
ற்	-36
ான	-37
க்கு	-38
▁உ	-39
ற்ற	-40
ர்க	-41
ிக	-42
ண்ட	-43
ன்ற	-44
்ச	-45
ிக்க	-46
ில	-47
▁ஆ	-48
ார	-49
▁மு	-50
ள்ள	-51
த்து	-52
ிரு	-53
▁ஒ	-54
ளை	-55
ாத	-56
லை	-57
▁அவ	-58
ுவ	-59
ார்	-60
ின	-61
▁செ	-62
ிவ	-63
க்	-64
▁கொ	-65
▁கு	-66
▁என்ற	-67
ப்	-68
்கு	-69
ர்கள்	-70
ட்டு	-71
ிப்ப	-72
ந்து	-73
ாய	-74
ான்	-75
ாவ	-76
ளு	-77
று	-78
▁இரு	-79
ெர	-80
▁அத	-81
▁போ	-82
ால்	-83
ிட	-84
ைக	-85
ாள	-86
▁தொ	-87
ன்ன	-88
▁ஒரு	-89
ுக	-90
ல்ல	-91
▁செய	-92
ால	-93
▁வி	-94
ச்ச	-95
ரச	-96
த்	-97
டைய	-98
▁பிர	-99
▁அம	-100
▁நட	-101
▁மற்ற	-102
ரா	-103
ட்ச	-104
▁ஜ	-105
க்கும்	-106
▁கூ	-107
த்தில்	-108
ங்கள்	-109
ுத	-110
த்தை	-111
▁மற்றும்	-112
ப்பட்ட	-113
ையும்	-114
▁அரச	-115
▁வே	-116
ித்த	-117
மான	-118
ிட்ட	-119
ன்ப	-120
ஸ்	-121
▁வெ	-122
ையில்	-123
▁இந்த	-124
▁ஏ	-125
டிய	-126
ங்கள	-127
டி	-128
▁என்று	-129
ளுக்கு	-130
▁தே	-131
ிற்கு	-132
டுத்த	-133
ண்டு	-134
்த்த	-135
தற	-136
ப்பு	-137
ம்ப	-138
னர்	-139
திர	-140
▁பெ	-141
வு	-142
தி	-143
▁"	-144
ாட்ட	-145
ழு	-146
▁பொ	-147
▁பு	-148
வே	-149
த்தின்	-150
ிறது	-151
மை	-152
மாக	-153
▁எதிர	-154
ின்ற	-155
ெரிக்க	-156
ரி	-157
ாங்க	-158
ண்	-159
▁அமெரிக்க	-160
டுக	-161
▁நா	-162
றை	-163
ித	-164
ர்கள	-165
▁பட	-166
ர்வ	-167
ாக்க	-168
ப்பட	-169
ற்ப	-170
ிருக்க	-171
டன்	-172
ச்	-173
▁தொழ	-174
னை	-175
ும்ப	-176
தை	-177
த்துவ	-178
▁ய	-179
ாம	-180
ள்ளது	-181
மு	-182
னு	-183
▁மே	-184
ிருந்த	-185
▁என	-186
ிலும்	-187
வும்	-188
ரை	-189
தாக	-190
மைய	-191
▁பே	-192
▁1	-193
வில்	-194
▁நீ	-195
்வ	-196
▁கட்ச	-197
ண்டும்	-198
டை	-199
்ப்ப	-200
தல	-201
▁வெள	-202
▁சம	-203
▁கொண்ட	-204
ியு	-205
▁என்ப	-206
▁அதிக	-207
்ய	-208
▁தொட	-209
▁மா	-210
▁'	-211
▁செய்த	-212
▁ஜன	-213
ிகள	-214
ிப	-215
ிகள்	-216
ன்று	-217
ர்த்த	-218
▁நில	-219
தற்கு	-220
▁அரசாங்க	-221
▁பா	-222
த்திய	-223
ஸ்த	-224
▁மூ	-225
ார்கள்	-226
ர்க்க	-227
▁மீ	-228
▁அற	-229
ுத்த	-230
▁நிற	-231
ண்ண	-232
ரோ	-233
ாம்	-234
சிய	-235
திய	-236
▁ஐ	-237
ரும்	-238
ிழ	-239
த்திற்கு	-240
▁ஆக	-241
▁கூற	-242
▁கா	-243
டிக்க	-244
▁ஈ	-245
ங்களை	-246
ிச	-247
▁தலை	-248
▁வா	-249
ித்து	-250
▁உள்ள	-251
ற்று	-252
ைகள்	-253
▁தொழில	-254
▁இரா	-255
▁பல	-256
க்கள்	-257
வை	-258
ோச	-259
▁அவர்	-260
▁வரு	-261
வர்	-262
▁2	-263
போ	-264
ையை	-265
00	-266
▁இர	-267
க்கிய	-268
ைகள	-269
▁சொ	-270
▁(	-271
தர	-272
▁குற	-273
▁அமை	-274
▁முன்ன	-275
ியல்	-276
▁ர	-277
▁இருந்த	-278
தவ	-279
▁பற்ற	-280
▁தொழிலாள	-281
▁பின்	-282
▁வழ	-283
▁இய	-284
ணுவ	-285
ற்க	-286
டுத்து	-287
▁கட	-288
▁தீ	-289
▁பெர	-290
▁மிக	-291
▁சு	-292
தற்க	-293
ுதிய	-294
மே	-295
▁து	-296
ைகளை	-297
▁உட	-298
லக	-299
▁கோ	-300
▁இராணுவ	-301
மா	-302
▁பய	-303
ப்பட்டு	-304
▁ட	-305
தே	-306
▁ஊ	-307
▁இது	-308
▁செய்ய	-309
▁தன	-310
கா	-311
டுக்க	-312
▁சே	-313
ெய	-314
▁நி	-315
தில்	-316
வாத	-317
▁அது	-318
▁அந்த	-319
▁பொரு	-320
▁அரசியல்	-321
ர்த	-322
ஷ்	-323
வில்லை	-324
ிக்	-325
வர்கள்	-326
ாக்கு	-327
னால்	-328
▁அவர்கள்	-329
▁அட	-330
த்திர	-331
▁கே	-332
ப்போ	-333
ுக்கு	-334
ிறார்	-335
▁கரு	-336
ேன்	-337
▁தெர	-338
லிய	-339
▁அள	-340
ஸ்ர	-341
ிற்க	-342
▁என்ன	-343
க்கொ	-344
▁வேண்டும்	-345
ரிய	-346
ிலே	-347
ாதார	-348
ாலும்	-349
ிருந்து	-350
டுவ	-351
ழை	-352
ர்களை	-353
▁பக	-354
ட்	-355
தும்	-356
ாய்	-357
ளில்	-358
ாயக	-359
▁ஆதர	-360
▁விர	-361
ிருப்ப	-362
▁நே	-363
ிப்பு	-364
ியை	-365
▁அல்ல	-366
ல்க	-367
ருவ	-368
வடிக்க	-369
▁இருந்து	-370
▁நான்	-371
ணை	-372
▁கர்த்த	-373
▁நடவடிக்க	-374
▁இட	-375
ினார்	-376
ளின்	-377
▁இருக்க	-378
▁வை	-379
ருக்கு	-380
▁முதல	-381
ியின்	-382
▁சீ	-383
▁பார	-384
▁ஹ	-385
ூக	-386
▁உறு	-387
▁அதிகார	-388
வர	-389
ஸ்ட	-390
▁உய	-391
▁வர	-392
நா	-393
▁வீ	-394
▁ல	-395
தல்	-396
ாவின்	-397
▁அப்ப	-398
▁கட்ட	-399
டிவ	-400
ழுது	-401
▁திர	-402
ஞ்ச	-403
நாயக	-404
சார	-405
▁வக	-406
▁குறிப்ப	-407
▁சிற	-408
ணி	-409
ாது	-410
ங்கு	-411
மும்	-412
ருக்க	-413
வி	-414
▁உலக	-415
▁தம	-416
▁குறை	-417
▁கொண்டு	-418
ந்திர	-419
ங்களில்	-420
▁வந்த	-421
▁தெ	-422
▁ஒன்ற	-423
ியில்	-424
▁ஏற்ப	-425
ழ்	-426
ங்களுக்கு	-427
ர்ந்த	-428
▁மேல	-429
▁தேவ	-430
▁நோ	-431
▁19	-432
ர்ப	-433
▁பொருள	-434
▁கூட்ட	-435
▁ஆய	-436
▁முற	-437
▁வேலை	-438
▁ஆனால்	-439
ப்படுத்த	-440
▁கட்சி	-441
▁திட்ட	-442
ாகிய	-443
ொரு	-444
ாதிப	-445
▁நிலை	-446
ின்றன	-447
▁வெளிய	-448
▁நெ	-449
ாப	-450
விர	-451
ொழுது	-452
▁இல	-453
▁ஜனநாயக	-454
▁முடிய	-455
▁பாது	-456
ள்க	-457
ராஜ	-458
வ்வ	-459
ிக்கும்	-460
▁கால	-461
க்கான	-462
▁பொருளாதார	-463
▁மூல	-464
ாமல்	-465
▁ஓ	-466
▁சந்த	-467
கு	-468
▁சமூக	-469
▁மக்க	-470
ிலிருந்து	-471
ுகள்	-472
▁தன்	-473
▁எதிர்ப்ப	-474
▁பி	-475
ர்களுக்கு	-476
▁தய	-477
▁சக	-478
▁அனு	-479
▁ஆகிய	-480
ர்ந்து	-481
ரோப்ப	-482
▁இருக்கும்	-483
▁வருக	-484
▁வல	-485
ிகளை	-486
▁தெரிவ	-487
ழுவ	-488
▁தாக்கு	-489
▁பாதுகா	-490
ற்கு	-491
▁இஸ்ர	-492
▁கார	-493
▁அறிவ	-494
ினர்	-495
▁தோ	-496
▁பற்றி	-497
▁நிர்வ	-498
▁ஐரோப்ப	-499
▁பிரச்ச	-500
ோத	-501
ல்வ	-502
தேச	-503
▁முக்கிய	-504
ோசல	-505
ிஸ்த	-506
▁சட்ட	-507
ப்படும்	-508
ளும்	-509
ன்க	-510
▁அதன்	-511
▁அனை	-512
▁தேர்த	-513
ையின்	-514
வர்கள	-515
▁என்	-516
▁சோசல	-517
ராக	-518
▁கண	-519
▁அல்லது	-520
▁நிர்வாக	-521
ப்பட்டது	-522
▁என்பது	-523
ாவது	-524
ட்க	-525
ட்சி	-526
▁ஆர	-527
▁சில	-528
▁கை	-529
றுத்த	-530
ாவில்	-531
கர	-532
▁பண	-533
ிருக்கிறது	-534
▁நிறுவ	-535
▁எந்த	-536
▁சர்வ	-537
an	-538
▁இத	-539
▁கட்டு	-540
ர்ம	-541
ினால்	-542
▁அடிப்ப	-543
▁மாத	-544
ல்லை	-545
▁கொள்ள	-546
னிய	-547
ோம்	-548
ியுள்ள	-549
▁முடிவ	-550
▁200	-551
▁பொது	-552
ிருக்கும்	-553
ித்துவ	-554
நில	-555
▁சா	-556
▁என்றும்	-557
▁அவன்	-558
▁மக்கள்	-559
ருடைய	-560
தான	-561
▁நேர	-562
▁அரசாங்கம்	-563
▁முய	-564
▁தொடர்ப	-565
▁ஆண்ட	-566
▁வர்க்க	-567
லா	-568
ேய	-569
▁வார	-570
▁சொல்ல	-571
ுடைய	-572
ினை	-573
டும்	-574
▁தயார	-575
▁''	-576
▁தமிழ	-577
பு	-578
▁நோக்க	-579
''	-580
▁கொள்க	-581
ொண்ட	-582
ரிக்க	-583
▁கடந்த	-584
ிவு	-585
▁ஜே	-586
▁குற்ற	-587
▁தனது	-588
▁தக	-589
ரின்	-590
ின்றனர்	-591
ிருக்கிற	-592
ிட்டு	-593
ியது	-594
ிடம்	-595
ர்களு	-596
ருக	-597
▁பர	-598
▁இன்ன	-599
▁நாடுக	-600
er	-601
▁மன	-602
▁ராஜ	-603
▁எதிராக	-604
▁காட்ட	-605
மன்ற	-606
ோடு	-607
ப்படுக	-608
ய்	-609
▁புல	-610
க்கூ	-611
▁போல	-612
▁தன்ன	-613
▁சோசலிச	-614
▁வள	-615
▁கண்ட	-616
ிற்ச	-617
ித்தார்	-618
▁புஷ்	-619
மார	-620
ியாக	-621
னி	-622
▁சி	-623
▁விவ	-624
ியா	-625
▁தேசிய	-626
."	-627
▁இப்ப	-628
ில்லிய	-629
லில்	-630
▁ஆப	-631
▁நடை	-632
▁புதிய	-633
்க்க	-634
▁செல	-635
▁எண்ண	-636
டுப்ப	-637
ர்ச்ச	-638
▁ஜனாதிப	-639
படி	-640
▁நிறுவன	-641
ட்ப	-642
▁முதலாள	-643
▁நடத்த	-644
▁பத	-645
சி	-646
▁நெருக்க	-647
▁அக	-648
்தான்	-649
▁சூ	-650
▁பின்னர்	-651
ல்ப	-652
▁யுத்த	-653
த்திற்க	-654
சு	-655
வற்ற	-656
▁சதவ	-657
மையான	-658
▁தூ	-659
▁வகையில்	-660
▁நிய	-661
▁ஈரா	-662
தற்காக	-663
போது	-664
தான்	-665
லைய	-666
ாளர்	-667
ச்சு	-668
▁பற்றிய	-669
வன்	-670
▁சர்வதேச	-671
த்துக்கு	-672
க்காக	-673
▁பயன்ப	-674
த்தையும்	-675
▁உரி	-676
ுள்ள	-677
▁மீது	-678
▁என்பதை	-679
▁இரண்டு	-680
▁உண்	-681
▁உருவ	-682
▁ஐரோப்பிய	-683
▁பாதுகாப்பு	-684
▁பெற்ற	-685
ட்டி	-686
ைக்	-687
▁எல்ல	-688
▁கீ	-689
தலை	-690
பெ	-691
▁போரா	-692
▁குமார	-693
▁பூ	-694
▁இருப்ப	-695
ரில்	-696
ொள்ள	-697
ரே	-698
வன	-699
▁பிற	-700
▁காண	-701
ங்களின்	-702
ையாக	-703
▁மத்திய	-704
▁அழை	-705
▁இல்ல	-706
▁C	-707
▁S	-708
ிம	-709
க்களை	-710
டக	-711
றுக	-712
ென	-713
on	-714
▁யூ	-715
▁முதலாளித்துவ	-716
▁கல	-717
▁மாற்ற	-718
கைய	-719
▁பாத	-720
▁காரண	-721
▁முயற்	-722
ோக	-723
ோர்	-724
ஸ்ட்	-725
ியுள்ளது	-726
ில்லியன்	-727
க்கிர	-728
▁நம்ப	-729
▁கூட	-730
▁விள	-731
ாச	-732
▁அப்பொழுது	-733
ப்பட்டுள்ள	-734
▁இந்திய	-735
ரான	-736
ந்தது	-737
ிகளின்	-738
▁வெளிப்ப	-739
ிக்கை	-740
▁மேலும்	-741
ுகளை	-742
▁இல்லை	-743
ப்படுவ	-744
தற்கான	-745
டன	-746
▁கிட	-747
▁பெரிய	-748
▁தொழிற்ச	-749
▁அதே	-750
▁உள்ளது	-751
▁ஜனாதிபதி	-752
வேண்டும்	-753
ேக	-754
்ச்ச	-755
▁நாட்ட	-756
ிட்டது	-757
ிக்கப்பட்ட	-758
ோவ	-759
ோது	-760
▁ஜேர்ம	-761
▁முதல்	-762
மையை	-763
▁-	-764
ர்களின்	-765
▁சம்ப	-766
▁மறு	-767
▁மூலம்	-768
ரிச	-769
ின்றது	-770
▁வழங்க	-771
னுக்கு	-772
▁உதவ	-773
▁மத	-774
முற	-775
▁எடுத்து	-776
▁கிர	-777
▁கொடுக்க	-778
▁3	-779
▁இயக்க	-780
லின்	-781
ட்டும்	-782
▁உட்ப	-783
ிலான	-784
▁ஷ	-785
▁தள	-786
▁அதை	-787
ளுக்கும்	-788
000	-789
▁எதிர்ப்பு	-790
க்குக	-791
▁கர்த்தர்	-792
▁முன்	-793
ிருந்தது	-794
ெல்ல	-795
▁நிர	-796
▁குடிய	-797
▁எதிரான	-798
ிங	-799
ஸ்க	-800
மாய	-801
▁அவர	-802
லாம்	-803
▁நல	-804
ியும்	-805
த்தான்	-806
தால்	-807
▁வாழ	-808
▁நிக	-809
▁உன்	-810
▁அடிப்படைய	-811
ுகிற	-812
▁விட	-813
ப்பா	-814
ொழ	-815
ள்வ	-816
வாக	-817
ிக்கு	-818
▁அதற்கு	-819
ோப	-820
▁உண	-821
▁கருத்து	-822
ென்ற	-823
▁விடு	-824
ாளர்கள்	-825
ரண	-826
த்தகைய	-827
▁தாக்குதல	-828
க்கில்	-829
▁ஒப்ப	-830
ாண	-831
ப்பின	-832
▁கிழ	-833
▁பெரும்	-834
▁கூறினார்	-835
▁இன்னும்	-836
▁செல்வ	-837
▁அமெரிக்கா	-838
▁எழு	-839
▁ஆண்டு	-840
▁தங்கள்	-841
ar	-842
▁பயன்படுத்த	-843
▁ஆகும்	-844
ார்த்த	-845
▁நடைபெ	-846
ாள்	-847
பி	-848
▁போன்ற	-849
▁உடன்ப	-850
▁மேற்க	-851
▁மக	-852
ற்றி	-853
▁கொடுத்த	-854
▁வில	-855
ையே	-856
▁புற	-857
▁கி	-858
டுத்துவ	-859
முறை	-860
▁விசார	-861
▁நிறுத்த	-862
மையில்	-863
ளையும்	-864
▁மட்டு	-865
▁திரும்ப	-866
தன்	-867
▁பெற	-868
▁வேண்ட	-869
ங்கர	-870
▁செயல்ப	-871
ாவை	-872
in	-873
▁பட்ட	-874
▁என்றார்	-875
▁தொழிற்சங்க	-876
▁நகர	-877
டுப	-878
ாகும்	-879
,000	-880
ந்	-881
ிகித	-882
▁செய்வ	-883
▁நீங்கள்	-884
▁எழ	-885
ியான	-886
▁போர்	-887
▁போராட்ட	-888
▁பகுத	-889
▁தர	-890
ிகளில்	-891
▁இடைய	-892
▁தொடர்ந்து	-893
▁பகுதிய	-894
னாகிய	-895
ீத	-896
நாட்டு	-897
்கள்	-898
▁இஸ்ரே	-899
▁ஆதரவு	-900
ங்கி	-901
▁வந்து	-902
▁நீதி	-903
ைகளில்	-904
▁நித	-905
▁தான்	-906
▁சீன	-907
▁பால	-908
▁தெள	-909
▁பிரிவ	-910
▁P	-911
▁தீவிர	-912
னின்	-913
ைக்க	-914
▁இஸ்ரவே	-915
ிகளுக்கு	-916
▁முறையில்	-917
▁குழு	-918
ுடன்	-919
னுடைய	-920
ாந்த	-921
ோட	-922
▁பேர	-923
விட	-924
▁அனைத்து	-925
மேல்	-926
▁பெய	-927
வரும்	-928
▁ஆயுத	-929
▁பங்க	-930
▁வாக்க	-931
ையான	-932
லும்	-933
▁பிரதி	-934
▁அழ	-935
க்கிரம	-936
▁பெரு	-937
▁தற்ப	-938
ிட்டார்	-939
ித்தது	-940
ட்டுக	-941
▁இருந்தது	-942
லி	-943
▁இழ	-944
▁தொழிலாளர்கள்	-945
த்தி	-946
al	-947
ைக்கு	-948
▁அமைப்பு	-949
▁மீண்டும்	-950
ைகளின்	-951
▁ஸ்த	-952
▁பத்திர	-953
ர்ப்ப	-954
▁தமிழ்	-955
ைகளுக்கு	-956
▁4	-957
▁முன்ப	-958
ஸ்ப	-959
நாட்ட	-960
▁பேச	-961
த்துடன்	-962
▁இலங்க	-963
▁ஏற்க	-964
க்கொண்ட	-965
▁திரு	-966
en	-967
ிஸ்தான	-968
▁பெரும்ப	-969
▁முழு	-970
ீன	-971
ங்களும்	-972
▁எதிர்க	-973
▁இணை	-974
▁விளை	-975
பா	-976
ொண்டு	-977
▁அமைப்ப	-978
டியாக	-979
▁நோக்கி	-980
ம்மு	-981
▁அவர்களை	-982
▁தன்னுடைய	-983
▁அண	-984
▁அங்க	-985
▁அனுப்ப	-986
▁எனக்கு	-987
▁அப	-988
க்கண	-989
▁முக	-990
▁சுத	-991
▁கட்சியின்	-992
ராக்	-993
▁மோச	-994
வரை	-995
▁அவரது	-996
▁A	-997
▁சென்ற	-998
▁படம்	-999
▁பிரச்சார	-1000
▁இற	-1001
ழ்ச்ச	-1002
நிற	-1003
▁நான	-1004
▁செய்தி	-1005
ிற்	-1006
க்கப்பட்ட	-1007
▁விடுதலை	-1008
▁இயக்கு	-1009
▁விரும்ப	-1010
..	-1011
ளவு	-1012
ிந்த	-1013
▁பேச்ச	-1014
▁வரும்	-1015
▁5	-1016
ிடத்தில்	-1017
ம்ம	-1018
க்கார	-1019
னம்	-1020
ங்களு	-1021
▁குட	-1022
ிங்ட	-1023
or	-1024
▁ஏன	-1025
▁பிரான்	-1026
▁இறு	-1027
ென்று	-1028
▁சக்த	-1029
▁வித	-1030
▁வச	-1031
ங்கரவாத	-1032
ஷிங்ட	-1033
ீர்	-1034
ையா	-1035
ள்ளார்	-1036
ிறார்கள்	-1037
▁ஸ்ர	-1038
ம்பர்	-1039
▁வாஷிங்ட	-1040
▁ஆண்டுக	-1041
▁செய்து	-1042
்த்து	-1043
ல்கள்	-1044
▁நிறை	-1045
▁ஆச	-1046
▁இவ	-1047
ைப்	-1048
▁நலன்க	-1049
ாளு	-1050
▁ஈராக்	-1051
மில்	-1052
த்திலே	-1053
▁பதவ	-1054
தாகவும்	-1055
▁பொறு	-1056
ப்போது	-1057
லைக	-1058
▁மிகவும்	-1059
▁உரிம	-1060
ிகளும்	-1061
▁நாங்கள்	-1062
▁வேறு	-1063
்து	-1064
ந்துக	-1065
▁மூன்று	-1066
▁M	-1067
ிடும்	-1068
▁குழுவ	-1069
▁தகவ	-1070
▁உறுப்பின	-1071
▁அவர்கள	-1072
▁அமைச்ச	-1073
ாளுமன்ற	-1074
ிருக்கிறார்	-1075
ப்பாட்ட	-1076
▁எப்ப	-1077
ங்களையும்	-1078
▁அளவ	-1079
▁ஆரம்ப	-1080
லு	-1081
▁பிட	-1082
▁பிரத	-1083
▁கொண்டுவ	-1084
▁L	-1085
ோன்	-1086
ூட	-1087
▁ஊழ	-1088
ீட்ட	-1089
க்கொள்ள	-1090
பூ	-1091
தையும்	-1092
▁வரை	-1093
▁சங்க	-1094
▁மனித	-1095
ம்முடைய	-1096
▁ஆல	-1097
▁நிலையில்	-1098
▁பழ	-1099
▁வெளி	-1100
னும்	-1101
▁தேர்தல்	-1102
▁B	-1103
திலும்	-1104
▁பிரிட்ட	-1105
▁பாக	-1106
es	-1107
▁ஒன்றிய	-1108
ட்டிய	-1109
▁குழ	-1110
▁ஆட்ச	-1111
▁இரண்ட	-1112
தோடு	-1113
▁ஊடக	-1114
தியாக	-1115
▁நூ	-1116
ப்படுகிறது	-1117
▁கடு	-1118
▁நாம்	-1119
▁நிதிய	-1120
▁அவருடைய	-1121
றி	-1122
▁போது	-1123
▁வாய	-1124
▁ஒன்று	-1125
▁புர	-1126
ங்கிய	-1127
மது	-1128
க்கம்	-1129
▁முழுவ	-1130
மர்	-1131
▁திற	-1132
ti	-1133
▁மீதான	-1134
த்தின	-1135
்ட்	-1136
படிய	-1137
▁தவிர	-1138
▁தெளிவ	-1139
ுவதற்கு	-1140
▁அல	-1141
▁ஜனநாயகக்	-1142
ரித்து	-1143
▁வைத்த	-1144
▁பேர்	-1145
▁போலீ	-1146
யே	-1147
ள்ளனர்	-1148
த்தைக்	-1149
▁அச்சு	-1150
▁தேச	-1151
லுக்கு	-1152
▁நினை	-1153
▁விரோத	-1154
▁199	-1155
ிலுள்ள	-1156
▁நியாய	-1157
▁ஆத	-1158
றும்	-1159
▁பிரெ	-1160
▁சதவிகித	-1161
▁நடந்த	-1162
டுகள்	-1163
ைத்	-1164
▁பத்திரிக	-1165
ேற்ற	-1166
▁ஏக	-1167
▁அடை	-1168
▁மந்திர	-1169
▁மனு	-1170
▁தலைவர்	-1171
வா	-1172
▁ஈடுப	-1173
▁ஆதரவ	-1174
▁முடியும்	-1175
▁ஆக்கிரம	-1176
▁மோ	-1177
ாவும்	-1178
த்திலும்	-1179
▁குறைந்த	-1180
செய	-1181
ஞ்சு	-1182
ர்வு	-1183
▁உற்ப	-1184
▁ஐக்கிய	-1185
மானது	-1186
ள்ளன	-1187
▁சதவீத	-1188
▁வட	-1189
▁துரு	-1190
டுக்கும்	-1191
▁வருவ	-1192
▁கவ	-1193
▁கூடு	-1194
▁இந்தப்	-1195
▁விட்ட	-1196
ும்படி	-1197
▁சுதந்திர	-1198
▁ஏற்று	-1199
மத	-1200
ழுத்த	-1201
▁அரசாங்கத்தின்	-1202
▁மாற	-1203
ம்பண்ண	-1204
▁ஒவ்வ	-1205
ர்களும்	-1206
▁அளவில்	-1207
பே	-1208
▁வலியு	-1209
ானது	-1210
▁ஆகியவற்ற	-1211
▁வய	-1212
லே	-1213
▁நடிக	-1214
▁தலைமை	-1215
ைத்த	-1216
▁அர	-1217
▁வெள்ள	-1218
▁மொ	-1219
துசார	-1220
▁வருகிறது	-1221
மீ	-1222
▁கெ	-1223
▁உருவாக்க	-1224
தில்லை	-1225
▁தா	-1226
▁பங்கு	-1227
▁மில்லியன்	-1228
▁எவ்வ	-1229
மைப்ப	-1230
▁6	-1231
ெய்	-1232
▁பரந்த	-1233
▁முயற்ச	-1234
▁இருக்கிறது	-1235
ஸ்ல	-1236
தா	-1237
மாக்க	-1238
▁தள்ள	-1239
தாகும்	-1240
▁புக	-1241
▁நடிக்க	-1242
▁உங்கள்	-1243
மாறு	-1244
▁போல்	-1245
▁அறிக்க	-1246
▁பாட	-1247
▁ஏற்படுத்த	-1248
▁ஆப்க	-1249
▁கிள	-1250
▁நடவடிக்கை	-1251
▁செல்ல	-1252
▁இப்பொழுது	-1253
▁உள்	-1254
▁ஆளும்	-1255
ெல்லாம்	-1256
ஜி	-1257
த்தால்	-1258
▁கைய	-1259
மையாக	-1260
ீர	-1261
▁பரிச	-1262
வுக	-1263
▁சொந்த	-1264
ிற்கும்	-1265
ஷ்ய	-1266
ோன	-1267
▁அடைய	-1268
▁சர	-1269
ருக்கும்	-1270
▁உடன	-1271
▁நிர்வாகம்	-1272
த்தக்க	-1273
ங்களது	-1274
▁அவர்களுக்கு	-1275
றிய	-1276
த்திற்கும்	-1277
▁சிர	-1278
ினி	-1279
▁தாக்க	-1280
▁வாங்க	-1281
▁பதில	-1282
▁படத்தில்	-1283
ும	-1284
ாடு	-1285
யம்	-1286
ளுடன்	-1287
▁அரசிய	-1288
▁பின்ன	-1289
▁தொழிலாளர்	-1290
▁மாதம்	-1291
▁சேர்ந்த	-1292
▁இன	-1293
▁எச்ச	-1294
▁கேட்ட	-1295
▁அச்சுறுத்த	-1296
--	-1297
▁சப	-1298
▁என்றான்	-1299
▁நடைபெற்ற	-1300
▁உற	-1301
▁தவ	-1302
▁வரலா	-1303
▁F	-1304
▁இதில்	-1305
ப்பட்டுள்ளது	-1306
ுவது	-1307
▁நாட்க	-1308
சே	-1309
▁சொன்ன	-1310
னவே	-1311
▁மட்டுமே	-1312
ர்களுடைய	-1313
ும்போது	-1314
▁அடுத்த	-1315
ீப	-1316
ென்றால்	-1317
▁வைத்து	-1318
▁முற்ற	-1319
▁அடிப்படையில்	-1320
▁விமான	-1321
பல	-1322
ுவார்த்த	-1323
▁முடி	-1324
▁பிரெஞ்சு	-1325
▁வேட்ப	-1326
▁முறை	-1327
▁எடுக்க	-1328
▁இதை	-1329
்களை	-1330
▁பயங்கரவாத	-1331
ூப	-1332
ம்ச	-1333
▁ஆர்ப்ப	-1334
ாதிபத்திய	-1335
▁குடும்ப	-1336
="	-1337
▁சமத்துவ	-1338
தற்கும்	-1339
யூ	-1340
▁ஊழிய	-1341
பூர்வ	-1342
▁அக்க	-1343
▁கூறிய	-1344
▁கொடுத்து	-1345
▁சார	-1346
ிருந்தார்	-1347
▁வார்த்த	-1348
ுவிட்ட	-1349
▁டால	-1350
▁தலைய	-1351
▁படைய	-1352
ீடு	-1353
▁என்னும்	-1354
▁விழ	-1355
▁ஏகாதிபத்திய	-1356
▁மாநில	-1357
▁D	-1358
▁ஆவ	-1359
ாவிற்கு	-1360
ஜன	-1361
ஸ்திர	-1362
▁ஏற்கனவே	-1363
▁அடிப்படை	-1364
▁பிரதிந	-1365
▁ஆப்கான	-1366
▁பேச்சுவார்த்த	-1367
ரம்	-1368
ிருத்த	-1369
ாதான	-1370
▁ரீ	-1371
▁அவரை	-1372
▁நேரத்தில்	-1373
▁அவை	-1374
▁ஈராக்க	-1375
ch	-1376
▁ரஷ்ய	-1377
▁வளர்ச்ச	-1378
▁வாச	-1379
▁தொலை	-1380
▁இதற்கு	-1381
▁செய்யும்	-1382
ரல்	-1383
▁எதிர்ப	-1384
▁செய்யப்பட்ட	-1385
▁தெரிவித்தார்	-1386
is	-1387
▁விடுதலைப்	-1388
▁ஒப்பந்த	-1389
தியான	-1390
▁G	-1391
▁கோரிக்க	-1392
▁அவனை	-1393
▁கீழ்	-1394
▁நீண்ட	-1395
▁போக	-1396
▁தமது	-1397
▁பாராளுமன்ற	-1398
ங்	-1399
▁ஆர்ப்பாட்ட	-1400
▁அமெரிக்காவின்	-1401
ினும்	-1402
▁முடிவு	-1403
ளைய	-1404
▁முன்னாள்	-1405
▁நிதி	-1406
க்கணக்கான	-1407
ப்பிட	-1408
▁மதிப்ப	-1409
▁முடியாது	-1410
தியில்	-1411
▁விஜ	-1412
▁ஏற்பட்ட	-1413
▁மாண	-1414
▁கூடுதல	-1415
▁அதிகாரிகள்	-1416
▁T	-1417
▁உன்ன	-1418
▁மரு	-1419
▁சும	-1420
▁தொடங்க	-1421
▁உட்பட	-1422
ிற்று	-1423
ிறேன்	-1424
▁தயாரிப்ப	-1425
▁மனுஷ	-1426
▁குடியரச	-1427
▁N	-1428
ிக்கொண்ட	-1429
மைப்பு	-1430
▁பெற்று	-1431
▁நீதிமன்ற	-1432
ளாக	-1433
கால	-1434
ணம்	-1435
வித	-1436
▁திட்டம	-1437
த்திலிருந்து	-1438
க்கி	-1439
வின்	-1440
▁R	-1441
▁நவ	-1442
ப்பை	-1443
ப்பான	-1444
ாட்டு	-1445
▁உண்ட	-1446
▁ஜூ	-1447
ிஸ்தான்	-1448
ாத்	-1449
▁ஆட்சி	-1450
▁வைக்க	-1451
ைகளையும்	-1452
▁இளை	-1453
ிலேயே	-1454
த்தர	-1455
▁இவ்வ	-1456
▁வங்க	-1457
▁வர்க்கத்தின்	-1458
ப்பிர	-1459
▁கூறுக	-1460
▁நிலைய	-1461
மாகும்	-1462
▁கர்த்தருடைய	-1463
▁வாத	-1464
▁அதின்	-1465
முடிய	-1466
்ப்பு	-1467
நிறுத்த	-1468
மூ	-1469
▁20	-1470
▁எது	-1471
▁கடை	-1472
▁கண்டு	-1473
▁கிழக்கு	-1474
▁கீழ	-1475
▁உயிர	-1476
சை	-1477
el	-1478
▁வெற்ற	-1479
▁படத்தை	-1480
▁தாக்குதல்	-1481
▁செயல	-1482
வெ	-1483
க்கட	-1484
▁பாக்க	-1485
▁தற்போது	-1486
ோர	-1487
ுகிறது	-1488
▁பிரதான	-1489
▁வாக்கு	-1490
▁நாட	-1491
வர்களை	-1492
ியுள்ளார்	-1493
▁அரசு	-1494
▁பார்க்க	-1495
▁எண்ணெய்	-1496
▁குறிப்பாக	-1497
▁7	-1498
மாய்	-1499
▁சுட்ட	-1500
▁வாழ்க்க	-1501
ப்ட	-1502
வான	-1503
க்கொண்டு	-1504
▁ஒப்பு	-1505
ர்க்	-1506
▁இத்தகைய	-1507
ந்ந	-1508
▁தி	-1509
▁தொடர்பாக	-1510
டைந்த	-1511
ிருப	-1512
ோடே	-1513
▁சமீப	-1514
▁ஒவ்வொரு	-1515
ீர்கள்	-1516
▁பிள	-1517
▁தேதி	-1518
▁இராஜ	-1519
▁டை	-1520
ப்புக்கள்	-1521
▁I	-1522
ாலே	-1523
▁செய்க	-1524
▁இப்போது	-1525
னில்	-1526
▁சமாதான	-1527
க்குவ	-1528
▁விவாத	-1529
றவு	-1530
▁இலங்கை	-1531
▁நாட்டின்	-1532
▁காங்க	-1533
ாந்திய	-1534
▁அத்தகைய	-1535
▁உழை	-1536
துசாரி	-1537
▁அறிக்கை	-1538
▁நெருக்கடிய	-1539
ுதல்	-1540
▁கொல்ல	-1541
▁ஒரே	-1542
▁எல்லா	-1543
▁ராஜாவ	-1544
▁கவன	-1545
வேண்ட	-1546
துடன்	-1547
த்துறை	-1548
்ர	-1549
கார	-1550
▁மட்டும்	-1551
ோதர	-1552
ோபாய	-1553
▁முன்னணி	-1554
▁குறித்து	-1555
▁இளைஞ	-1556
▁புத்திர	-1557
ெடுக்க	-1558
▁வெளியே	-1559
▁காங்கிர	-1560
மோ	-1561
▁ஈரான	-1562
▁மொத்த	-1563
▁அன்று	-1564
▁சகோதர	-1565
தாவது	-1566
▁எழுத	-1567
▁என்னை	-1568
ிரிய	-1569
▁ஆன	-1570
க்கூடிய	-1571
▁உங்களுக்கு	-1572
▁வலியுறுத்த	-1573
▁டி	-1574
▁இன்	-1575
▁தேவை	-1576
ாண்ட	-1577
▁இடது	-1578
▁பில்லியன்	-1579
▁அளவிற்கு	-1580
ல்களை	-1581
முக	-1582
▁இதன்	-1583
▁நல்ல	-1584
▁பார்	-1585
▁மறை	-1586
▁வர்த்த	-1587
கை	-1588
ிடுவ	-1589
▁இல்லாத	-1590
▁விட்டு	-1591
▁கடுமையான	-1592
த்தைப்	-1593
▁அச	-1594
ேச	-1595
மற்ற	-1596
▁அங்கு	-1597
▁10	-1598
re	-1599
ிப்பை	-1600
▁மெ	-1601
▁பாலஸ்த	-1602
▁தனிய	-1603
▁ஊதிய	-1604
▁கட்டுப்பாட்ட	-1605
க்ஷ	-1606
▁நாள	-1607
ூர்	-1608
▁விரை	-1609
▁கொண்டிருந்த	-1610
ணைய	-1611
▁சகல	-1612
ார்ந்த	-1613
▁கலந்து	-1614
▁உள்ளன	-1615
▁அவற்ற	-1616
▁நடவடிக்கைகள்	-1617
▁கொண்டுள்ளது	-1618
▁அழுத்த	-1619
லாத	-1620
ிகளையும்	-1621
▁இராணுவம்	-1622
ணிக	-1623
il	-1624
ாமா	-1625
டுகளை	-1626
திகள்	-1627
ப்பண்ண	-1628
▁வேண்டிய	-1629
▁குறிப்பிட	-1630
ிடுக	-1631
▁தோன்ற	-1632
▁படத்தின்	-1633
▁தெரிவித்த	-1634
▁உள்நாட்டு	-1635
க்கா	-1636
▁இந்தக்	-1637
▁இடையே	-1638
▁8	-1639
▁நெருக்கடி	-1640
▁போருக்கு	-1641
▁கம்	-1642
▁பிராந்திய	-1643
▁சாத	-1644
▁குறிப்பிட்டார்	-1645
ங்கும்	-1646
▁முன்னர்	-1647
▁இயக்குனர்	-1648
▁இவர்	-1649
▁பிரான்ச	-1650
▁முடியாத	-1651
யா	-1652
ப்படவில்லை	-1653
சாய	-1654
▁பெருக	-1655
▁காரணம்	-1656
லாக	-1657
ஷ்ட	-1658
▁வடிவ	-1659
▁வலை	-1660
▁தீர்க்க	-1661
▁மந்திரி	-1662
▁புது	-1663
த்துக்	-1664
வரி	-1665
it	-1666
▁வர்த்தக	-1667
▁விய	-1668
ரித்த	-1669
▁நாடுகள்	-1670
▁உடன்படிக்க	-1671
ழக	-1672
▁அவர்களுடைய	-1673
ோக்கு	-1674
▁வாக்கள	-1675
▁தடை	-1676
மய	-1677
ிந்து	-1678
▁துணை	-1679
▁ஒருவர்	-1680
▁அவருக்கு	-1681
ாவுக்கு	-1682
▁அப்படிய	-1683
ற்றுவ	-1684
குதிய	-1685
▁வேல	-1686
ர்மான	-1687
ய்வ	-1688
ழ்ந்த	-1689
▁முற்றிலும்	-1690
▁உடைய	-1691
▁அதில்	-1692
கள்	-1693
▁தங்களது	-1694
▁உறுதி	-1695
▁கிராம	-1696
▁தொழில்	-1697
▁அளவு	-1698
▁விசாரணை	-1699
▁நடவடிக்கைகளை	-1700
▁பிரச்சின	-1701
▁இடை	-1702
த்தட்ட	-1703
▁கம்யூ	-1704
▁புரட்ச	-1705
ாரும்	-1706
சா	-1707
▁அடி	-1708
▁இடம்	-1709
ர்த்து	-1710
▁கிட்ட	-1711
த்திட்ட	-1712
▁தட	-1713
▁குறிப்பிட்ட	-1714
▁W	-1715
▁எதிர்க்க	-1716
▁வெளியு	-1717
▁அனுமத	-1718
பவ	-1719
▁கொடுப்ப	-1720
▁தீர்மான	-1721
▁சோ	-1722
▁சிறு	-1723
▁அடையாள	-1724
▁நீர்	-1725
டுப்பு	-1726
ைகளும்	-1727
▁மக்களின்	-1728
விய	-1729
▁திருப்ப	-1730
▁பாவ	-1731
▁யூத	-1732
க்கூட	-1733
ளவில்	-1734
ெனில்	-1735
▁ஆசிய	-1736
▁வல்ல	-1737
▁தனியார்	-1738
க்கள	-1739
▁மிகப்	-1740
▁வெளியுறவு	-1741
ிவிட்ட	-1742
▁கட்சிய	-1743
▁சுக	-1744
மில்லை	-1745
▁தேர்தலில்	-1746
ங்களிலும்	-1747
ினார்கள்	-1748
ர்திருத்த	-1749
▁உர	-1750
ியுடன்	-1751
▁அலுவ	-1752
▁U	-1753
▁இஸ்ரவேல்	-1754
▁நிகழ்ச்ச	-1755
ிடையே	-1756
▁உன	-1757
▁அழைப்பு	-1758
om	-1759
▁எக	-1760
ெடுப்ப	-1761
▁கூடுதலான	-1762
ாக்	-1763
க்கை	-1764
▁குவ	-1765
த்தான	-1766
▁செலுத்த	-1767
▁மூன்ற	-1768
ென்	-1769
▁ஆதரவை	-1770
▁என்னவ	-1771
▁பார்த்த	-1772
நிலை	-1773
படுத்த	-1774
ிப்பட்ட	-1775
▁அவ்வ	-1776
மன	-1777
▁செலவ	-1778
▁வாஷிங்டன்	-1779
▁விஷ	-1780
▁மிகப்ப	-1781
டுத்துக	-1782
ொட	-1783
▁குடியரசு	-1784
▁வெளிப்படைய	-1785
ாலான	-1786
▁இன்ற	-1787
▁வருட	-1788
ளவ	-1789
ம்பெ	-1790
திப்ப	-1791
▁வீட்ட	-1792
ிக்கிறது	-1793
ளி	-1794
▁எப்படி	-1795
▁முழுவதும்	-1796
மர்ச	-1797
▁தலைமைய	-1798
ற்பட்ட	-1799
ாறு	-1800
▁தலைவர	-1801
▁வேலைநிறுத்த	-1802
▁H	-1803
▁ஈராக்கில்	-1804
▁பகுதியில்	-1805
ராள	-1806
▁காய	-1807
▁உம்முடைய	-1808
ரமான	-1809
▁போன	-1810
▁கொண்டிருக்க	-1811
▁தற்க	-1812
ட்டுக்	-1813
ிப்	-1814
▁பரிசுத்த	-1815
▁ஓர்	-1816
▁விமர்ச	-1817
▁மருத்துவ	-1818
▁சார்ப	-1819
ம்தான்	-1820
▁கைது	-1821
▁மூலோபாய	-1822
▁சூழ்	-1823
▁15	-1824
ou	-1825
▁கிற	-1826
▁கேட்க	-1827
),	-1828
▁பணி	-1829
▁வழிவ	-1830
ைக்கும்	-1831
▁காட்டுக	-1832
ப்புவ	-1833
▁வெற்றி	-1834
▁சமத்துவக்	-1835
ிஷ்	-1836
▁சிவ	-1837
ைப்பட	-1838
▁கத	-1839
▁நு	-1840
ரீ	-1841
▁கண்க	-1842
▁உத	-1843
ந்தன	-1844
ுகிறார்	-1845
▁உற்பத்தி	-1846
ாயிர	-1847
▁எகிப	-1848
▁மாறாக	-1849
▁நடத்திய	-1850
▁தெளிவாக	-1851
▁கொடுக்கும்	-1852
ோள	-1853
▁தொடர்பு	-1854
▁இருக்கிற	-1855
▁மக்கள	-1856
▁குற்றம்	-1857
▁இல்லாமல்	-1858
மதி	-1859
ணய	-1860
▁இப்பட	-1861
▁ஈராக்கிய	-1862
▁ஆலோச	-1863
▁கொள்கை	-1864
▁கம	-1865
▁குண்ட	-1866
பக்ஷ	-1867
ோட்ட	-1868
▁புத	-1869
ந்தைய	-1870
▁இலாப	-1871
ம்ஸ்	-1872
▁நடந்து	-1873
டிப்ப	-1874
வர்களின்	-1875
ித்திர	-1876
▁ஒத்து	-1877
▁ஒப	-1878
▁கூடிய	-1879
ேலிய	-1880
▁தெரிய	-1881
▁உண்மையான	-1882
▁எல்லை	-1883
▁முன்பாக	-1884
▁தாவ	-1885
ையால்	-1886
▁படப்பிட	-1887
▁முயற்சிய	-1888
▁எச்சரிக்க	-1889
▁ஒழு	-1890
at	-1891
▁9	-1892
▁செப்ட	-1893
▁போட்ட	-1894
வர்களுக்கு	-1895
▁படுக	-1896
▁சிறிய	-1897
த்துவம்	-1898
▁வாக்குக	-1899
▁E	-1900
பின்	-1901
▁மக்களை	-1902
▁வெளிநாட்டு	-1903
ுவிட்டது	-1904
▁இவற்ற	-1905
▁நிராக	-1906
ினிம	-1907
▁அணு	-1908
▁இதோ	-1909
▁நிகழ	-1910
ித்துக்	-1911
▁காலத்தில்	-1912
்தி	-1913
வது	-1914
▁மைய	-1915
▁ஏனைய	-1916
▁தூண்ட	-1917
▁முன்பு	-1918
▁கொண்டுள்ள	-1919
குத	-1920
▁கொழ	-1921
▁ஸ்ரால	-1922
க்களின்	-1923
ம்மை	-1924
▁முக்கியமான	-1925
த்தன	-1926
▁ஞ	-1927
▁உதவி	-1928
ப்பில்	-1929
▁உனக்கு	-1930
வோ	-1931
த்திற்கான	-1932
▁கன	-1933
▁விவசாய	-1934
▁உரிமைகள்	-1935
ாதாரண	-1936
யில்	-1937
▁கலை	-1938
▁சேவ	-1939
▁தவற	-1940
▁நான்கு	-1941
▁கிட்டத்தட்ட	-1942
▁ஆப்கானிஸ்தான	-1943
ியே	-1944
▁நிறைவே	-1945
வரு	-1946
ப்பின்	-1947
▁வலதுசாரி	-1948
▁விளக்க	-1949
▁அவனுக்கு	-1950
வுகளை	-1951
▁கம்யூனி	-1952
▁ரா	-1953
▁குழந்த	-1954
▁இராஜபக்ஷ	-1955
ாளர்கள	-1956
ல்வி	-1957
▁போலீஸ்	-1958
ப்படுத்துவ	-1959
டிம	-1960
ர்களுக்கும்	-1961
▁சென்ன	-1962
...	-1963
▁இத்த	-1964
▁தேர்ந்த	-1965
▁பிரதிநித	-1966
ோர்ஜ	-1967
ாட	-1968
▁கதை	-1969
ண்டும	-1970
்துறை	-1971
நாட்டில்	-1972
▁தனி	-1973
ங்களாக	-1974
க்கூடும்	-1975
▁இஸ்ரேலிய	-1976
▁தேவனாகிய	-1977
▁ஜோ	-1978
ுதாய	-1979
``	-1980
ருச	-1981
ச்சி	-1982
▁வெளியிட	-1983
பய	-1984
▁நியூ	-1985
▁பிரதம	-1986
▁சீர்திருத்த	-1987
▁பூம	-1988
ிக்கொள்ள	-1989
▁--	-1990
▁சந்தேக	-1991
▁உத்தர	-1992
▁காட்ச	-1993
▁மேலாக	-1994
▁காவ	-1995
▁பேரழ	-1996
▁பசு	-1997
▁வெளிவ	-1998
▁கூட்டு	-1999
▁போக்கு	-2000
ஸ்திரேலிய	-2001
மின்	-2002
▁சம்பவ	-2003
▁ஆகியவை	-2004
ol	-2005
▁ஹெ	-2006
ின்றி	-2007
▁198	-2008
▁நிற்க	-2009
▁பிறகு	-2010
▁சமுதாய	-2011
▁ஜோர்ஜ	-2012
ினாலும்	-2013
▁ஐந்து	-2014
▁மேற்கு	-2015
▁உழைக்கும்	-2016
பிட	-2017
▁ஆயிர	-2018
▁ஜேர்மனிய	-2019
▁மர	-2020
▁எங்கள்	-2021
ீனிய	-2022
ீட	-2023
▁பின்பு	-2024
▁எனக்	-2025
ீவ	-2026
▁வன்	-2027
▁வழி	-2028
▁அறிய	-2029
▁படுகொ	-2030
▁வாரம்	-2031
ிவிட	-2032
▁மாவ	-2033
மாகக்	-2034
▁ஸ்ட	-2035
ிறோம்	-2036
▁கூட்டணி	-2037
▁உடனடியாக	-2038
▁குற்றச்ச	-2039
ri	-2040
▁அருக	-2041
ந்துள்ள	-2042
▁இப்படி	-2043
▁மரண	-2044
▁வணிக	-2045
ியத்	-2046
▁அடுத்து	-2047
tion	-2048
▁கொலை	-2049
▁நடக்க	-2050
▁நடித்த	-2051
தோ	-2052
ுதான்	-2053
▁சம்பள	-2054
மொழ	-2055
▁நாள்	-2056
▁கட்டாய	-2057
தாம்	-2058
ிருக்கிறார்கள்	-2059
▁ஆழ	-2060
▁என்க	-2061
▁விரிவ	-2062
ப்பட்டன	-2063
▁அமெரிக்காவ	-2064
துக	-2065
ரக	-2066
▁ஆறு	-2067
சாரிய	-2068
ித்தன	-2069
▁கம்யூனிஸ்ட்	-2070
▁கருத	-2071
ையையும்	-2072
▁சோவ	-2073
▁வெளிப்படுத்த	-2074
▁ஜேர்மன்	-2075
▁நாடு	-2076
▁மேற்கொள்ள	-2077
▁இதே	-2078
த்தும்	-2079
▁ஆசாரிய	-2080
▁உண்மையில்	-2081
▁பட்டண	-2082
ையிலும்	-2083
ிகார	-2084
▁யோச	-2085
ற்றிய	-2086
வுகள்	-2087
▁மார்	-2088
▁காரணமாக	-2089
▁நன	-2090
et	-2091
▁பள்ள	-2092
▁தன்மை	-2093
▁மிகப்பெர	-2094
நோ	-2095
▁சுய	-2096
த்தில	-2097
▁ஆபிர	-2098
▁மோதல	-2099
▁தொடக்க	-2100
ார்க்க	-2101
▁உயர்ந்த	-2102
ாமலும்	-2103
▁உயர்	-2104
▁உரிமை	-2105
▁படைகள்	-2106
▁சார்க்க	-2107
▁சேர்ந்து	-2108
பர	-2109
▁என்னவென்றால்	-2110
▁நிர்வாகத்தின்	-2111
மக்கு	-2112
ித்துள்ளது	-2113
as	-2114
தன	-2115
▁அந	-2116
ளிப்ப	-2117
ட்டை	-2118
ிருப்பது	-2119
ெப	-2120
▁படை	-2121
ப்புற	-2122
▁நலன்களை	-2123
▁தண்ட	-2124
▁சிக்க	-2125
ஒரு	-2126
▁இணைந்து	-2127
▁அமைச்சர்	-2128
வேன்	-2129
▁ஆசிரிய	-2130
▁தயாராக	-2131
▁காங்கிரஸ்	-2132
am	-2133
▁கொழும்ப	-2134
▁தொடர்பான	-2135
▁ரோ	-2136
டனும்	-2137
மாட்ட	-2138
ிதி	-2139
ிவிட்டது	-2140
▁J	-2141
▁காத	-2142
▁ஒது	-2143
▁பண்ண	-2144
▁ஒன்றை	-2145
▁12	-2146
இந்த	-2147
ோதைய	-2148
ருசலே	-2149
▁ல்	-2150
சர	-2151
▁இன்று	-2152
▁எழுதிய	-2153
▁சிங்கள	-2154
▁விருப்ப	-2155
▁பெரும்பாலான	-2156
ளுடைய	-2157
▁விரு	-2158
▁பித	-2159
ப்படாத	-2160
▁30	-2161
▁நக	-2162
▁தந்த	-2163
ாகக்	-2164
ானிய	-2165
▁ஸ்ரீ	-2166
▁பொறுத்த	-2167
▁போரை	-2168
்ட்ட	-2169
▁கட்டுப்பா	-2170
▁தலைவர்கள்	-2171
ிகர	-2172
ினிச	-2173
▁இஸ்ரேல்	-2174
ிருந்தனர்	-2175
முள்ள	-2176
▁தோல்வ	-2177
▁உறுதிப்ப	-2178
▁ஜேர்மன	-2179
▁ஒத்துழை	-2180
வர்களும்	-2181
▁ஸ்திர	-2182
▁உத்திய	-2183
ப்புக்களை	-2184
▁ரச	-2185
▁பென்	-2186
▁மக்களுக்கு	-2187
▁வலைத்	-2188
▁சாத்திய	-2189
ொட்	-2190
▁பெரும்பான்	-2191
பிர	-2192
ாகவும்	-2193
ளிலும்	-2194
▁இடம்பெ	-2195
▁சல	-2196
ட்சிய	-2197
▁கடன்	-2198
▁கண்ண	-2199
ுகளின்	-2200
▁11	-2201
க்கே	-2202
ிக்கிற	-2203
தம்	-2204
ைச்	-2205
▁தற்போதைய	-2206
போல	-2207
▁இவை	-2208
▁பாலஸ்தீனிய	-2209
ண்ப	-2210
▁அண்	-2211
ிஸ்ட்	-2212
ஜே	-2213
வேறு	-2214
செய்ய	-2215
▁இவர்கள்	-2216
▁கட்டளைய	-2217
ில்ல	-2218
▁அங்கே	-2219
▁பார்த்து	-2220
▁வேற	-2221
▁உண்டு	-2222
▁வந்தது	-2223
▁பிரதிபல	-2224
ப்படுத்தும்	-2225
▁பிரிட்டிஷ்	-2226
▁பூக	-2227
ரையும்	-2228
ாய்ந்த	-2229
▁உணர்வ	-2230
▁கேட்டு	-2231
▁வடக்கு	-2232
▁பிரச்சன	-2233
▁அறிவித்தார்	-2234
▁உயர்த்த	-2235
ந்துள்ளது	-2236
ce	-2237
ிமுக	-2238
▁திட்டம்	-2239
▁வர்க்கம்	-2240
▁செப்டம்பர்	-2241
ட்சம்	-2242
க்குள்	-2243
▁விடுத்த	-2244
ீட்டு	-2245
▁அகற்ற	-2246
ஸ்லாம	-2247
▁எருசலே	-2248
▁பதிலாக	-2249
▁ஹீ	-2250
▁மணி	-2251
▁முன்னோ	-2252
▁பிள்ள	-2253
▁முன்வை	-2254
▁மற்றொரு	-2255
▁வீழ்ச்ச	-2256
▁வேட்பாள	-2257
சுவ	-2258
▁தல	-2259
▁பிற்ப	-2260
ிருப்பதாக	-2261
▁தொடர்ந்த	-2262
நாள்	-2263
த்துக	-2264
▁சோவியத்	-2265
ிடம	-2266
▁ட்ர	-2267
▁மனை	-2268
▁உமது	-2269
▁மேல்	-2270
▁போட்டிய	-2271
▁முடிந்த	-2272
▁வெறு	-2273
▁பல்க	-2274
கசிய	-2275
ாதிக்க	-2276
▁பொதும	-2277
ப்பட்டனர்	-2278
லம்	-2279
▁தகவல்	-2280
▁ஏனெனில்	-2281
▁இறுதியில்	-2282
▁குமாரனாகிய	-2283
▁அமெரிக்காவில்	-2284
▁மாக	-2285
ெட்	-2286
▁கற்ப	-2287
▁நிறைந்த	-2288
கம்	-2289
▁சரிய	-2290
ிப்பது	-2291
த்தா	-2292
ெடுத்து	-2293
▁தின	-2294
▁அனுபவ	-2295
ந்தர	-2296
▁சுற்ற	-2297
▁எடுத்துக்	-2298
▁ஆஸ்திரேலிய	-2299
▁ஜென	-2300
▁நியம	-2301
ளுக்கான	-2302
▁சிறப்பு	-2303
▁செய்தது	-2304
▁உத்தியோக	-2305
▁கோர	-2306
▁தண்ண	-2307
▁எதுவும்	-2308
▁சாட்ட	-2309
▁அதிகமாக	-2310
▁சரி	-2311
டித்த	-2312
▁சாதாரண	-2313
ாரம்	-2314
▁ஸ்ப	-2315
▁துறை	-2316
▁பழைய	-2317
▁அரசியல	-2318
▁உறுதிய	-2319
▁கோப	-2320
▁வட்ட	-2321
▁தகப்ப	-2322
▁இயக்குன	-2323
de	-2324
ாரண	-2325
ுக்கும்	-2326
▁அலுவலக	-2327
he	-2328
▁எதி	-2329
▁எகிப்த	-2330
▁என்றாலும்	-2331
ig	-2332
▁சதவிகிதம்	-2333
',	-2334
le	-2335
▁25	-2336
ிக்கொ	-2337
▁வெகு	-2338
டனான	-2339
▁நிப	-2340
▁தச	-2341
▁ரஜ	-2342
▁சுகாதார	-2343
▁தெரிவிக்க	-2344
▁கடி	-2345
▁தேவன்	-2346
▁பணியா	-2347
▁கொண்டிருக்கும்	-2348
▁திக	-2349
ராகிய	-2350
▁சம்பந்த	-2351
ிச்ச	-2352
▁இஸ்லாம	-2353
ிட்	-2354
▁சுர	-2355
▁சோத	-2356
▁திரைப்பட	-2357
▁பொறுப்ப	-2358
ிங்	-2359
▁புஷ்ஷ	-2360
குதியில்	-2361
▁பகிர	-2362
▁பிரதேச	-2363
▁என்றால்	-2364
க்களுக்கு	-2365
போல்	-2366
▁அதிகர	-2367
பட்ட	-2368
▁எனவே	-2369
▁தப்ப	-2370
▁சிறந்த	-2371
▁சென்று	-2372
பதி	-2373
▁பூகோள	-2374
ோல்	-2375
▁அதாவது	-2376
▁கிறிஸ்த	-2377
▁பகிரங்க	-2378
▁வெளியிட்ட	-2379
ன்மை	-2380
▁முரண	-2381
▁கைப்ப	-2382
▁பேச்சு	-2383
un	-2384
விட்டு	-2385
▁ஏற	-2386
▁வான	-2387
▁இரண்டாம்	-2388
னே	-2389
▁துற	-2390
்டோப	-2391
ப்பது	-2392
ளுக்காக	-2393
▁சுற்று	-2394
▁வளர்ச்சி	-2395
மல்ல	-2396
ப்படி	-2397
நீ	-2398
▁பசுமை	-2399
ியுள்ளனர்	-2400
▁உறுப்பினர்கள்	-2401
ாற	-2402
▁இச	-2403
▁எழுப்ப	-2404
ிருக்கின்றன	-2405
▁கணிச	-2406
▁சுட்டிக்க	-2407
▁பாக்கிஸ்தான	-2408
▁எடுத்த	-2409
▁அவர்களது	-2410
▁யோ	-2411
ப்ர	-2412
▁மாள	-2413
னாக	-2414
▁O	-2415
▁ஏற்ற	-2416
▁குறிப்பிடத்தக்க	-2417
ொல	-2418
▁பற	-2419
▁அறிமுக	-2420
ங்களைக்	-2421
ியுள்ளன	-2422
ிக்கப்பட	-2423
வாதிகள்	-2424
▁நாயக	-2425
ிக்கொண்டு	-2426
▁தவிர்க்க	-2427
▁பிரான்ஸ்	-2428
ுவிட	-2429
▁உடை	-2430
▁விலக	-2431
▁புலிகளின்	-2432
▁பரி	-2433
▁நிறுவனங்கள்	-2434
லைகள்	-2435
te	-2436
▁அச்ச	-2437
▁திரும	-2438
▁பகுதி	-2439
▁கிடைத்த	-2440
▁குழுவின்	-2441
லிச	-2442
▁197	-2443
▁பிரக	-2444
▁பெரும	-2445
▁குண்டு	-2446
▁யார்	-2447
ந்துகொண்ட	-2448
▁நிறுவனம்	-2449
ரான்	-2450
▁போதிலும்	-2451
▁நிலைமை	-2452
▁கொண்டது	-2453
▁கொண்டுவர	-2454
▁எண்ணிக்கை	-2455
▁அரசாங்கத்தை	-2456
▁அக்டோப	-2457
▁இந்தியா	-2458
▁எதிர்பார்க்க	-2459
▁பிளேய	-2460
▁கூட்டண	-2461
▁கையெ	-2462
க்குப்	-2463
▁முற்ப	-2464
▁பகுதிகளில்	-2465
▁கண்டன	-2466
க்களில்	-2467
▁திட	-2468
▁அன்ற	-2469
▁கேள்வ	-2470
▁தன்னை	-2471
▁ராஜா	-2472
▁செயற்ப	-2473
▁ஆக்கிரமிப்பு	-2474
ேயே	-2475
▁தார	-2476
▁சொல்லி	-2477
▁ஸ்ராலினிச	-2478
ரியா	-2479
▁ஏன்	-2480
▁கொட	-2481
▁ரூப	-2482
▁அம்ப	-2483
▁போய்	-2484
செ	-2485
வொரு	-2486
us	-2487
க்குற	-2488
▁வழக்க	-2489
▁டைம்ஸ்	-2490
▁தெற்கு	-2491
▁ஈடுபட்ட	-2492
▁அறிவித்த	-2493
▁வருகின்றன	-2494
▁தொழிலாளர்களை	-2495
▁அல்	-2496
▁பல்	-2497
▁உலகம்	-2498
▁பிரகடன	-2499
▁மண	-2500
▁அதிப	-2501
▁நம்பிக்க	-2502
ூதிய	-2503
▁உள்ளூர்	-2504
▁இருப்பதாக	-2505
▁பாதுகாப்ப	-2506
ாப்த	-2507
▁அதி	-2508
▁பொருட்க	-2509
▁வரலாற்று	-2510
▁ஆண்டுகளுக்கு	-2511
ீழ	-2512
▁பரவ	-2513
▁ஹீரோ	-2514
வர்களில்	-2515
▁எங்களுக்கு	-2516
▁விஜய	-2517
▁பல்கலை	-2518
▁உள்ளனர்	-2519
▁தீர்ப்ப	-2520
ட்டத்தில்	-2521
▁ஆய்	-2522
ுகளுக்கு	-2523
▁சூழ்நில	-2524
▁அப்படியே	-2525
ையொ	-2526
மீது	-2527
ொட்ஸ்க	-2528
▁ஸ்தாப	-2529
▁மாகாண	-2530
ர்களுடன்	-2531
▁புரி	-2532
▁அமைந்த	-2533
▁சார்ந்த	-2534
▁நடு	-2535
▁ரசிக	-2536
டுக்கு	-2537
▁நேற்று	-2538
ிதும்	-2539
▁கொள்வ	-2540
▁விசாரண	-2541
▁கொண்டிருக்கிறது	-2542
தின்	-2543
▁மத்தியில்	-2544
யோ	-2545
▁இங்க	-2546
ங்களுக்கும்	-2547
ur	-2548
நே	-2549
ாட்ச	-2550
னான	-2551
க்கால	-2552
▁அபிவ	-2553
ங்களால்	-2554
த்தினால்	-2555
▁ஆகையால்	-2556
▁சதவீதம்	-2557
▁மேற்பட்ட	-2558
▁இனி	-2559
▁வறு	-2560
ளிக்க	-2561
▁ஒபாமா	-2562
▁புள்ள	-2563
▁அந்தப்	-2564
▁தேவனுடைய	-2565
▁மேலாதிக்க	-2566
▁யூரோ	-2567
ல்களில்	-2568
▁நிலைப்பாட்ட	-2569
▁தசாப்த	-2570
▁கர்த்தருக்கு	-2571
மொ	-2572
த்தைத்	-2573
ில்தான்	-2574
▁நடத்துவ	-2575
த்துக்கும்	-2576
ன்ச	-2577
ாக்கி	-2578
ப்போல	-2579
▁பிணை	-2580
▁நிலைம	-2581
▁நாடுகளில்	-2582
▁உயர	-2583
▁இரகசிய	-2584
▁எதிர்த்து	-2585
▁யா	-2586
▁சுவ	-2587
▁டிச	-2588
▁மார்ச்	-2589
ப்படு	-2590
ார்கள	-2591
▁எர	-2592
▁போய	-2593
▁பக்க	-2594
▁வருஷ	-2595
நிறுவ	-2596
▁இரத்த	-2597
▁அவசர	-2598
ுகளில்	-2599
▁தாக்குதல்க	-2600
ிஸ்	-2601
▁அடித்த	-2602
▁தனக்கு	-2603
▁ட்ரொட்ஸ்க	-2604
கே	-2605
ation	-2606
▁ஆலய	-2607
▁வீர	-2608
ினான்	-2609
த்திற்காக	-2610
ிப்பதற்கு	-2611
ங்கா	-2612
▁உணவு	-2613
▁நாணய	-2614
▁காரிய	-2615
▁தாக்குதலை	-2616
ப்போக	-2617
ங்களுடைய	-2618
▁மேற்கொண்ட	-2619
லான	-2620
▁தாவீ	-2621
டித்து	-2622
வேண்டிய	-2623
▁விரைவில்	-2624
▁சித	-2625
▁ஆய்வ	-2626
▁சலுக	-2627
▁தொலைக்கா	-2628
▁நான்க	-2629
▁கிளர்ச்ச	-2630
▁பயிற்ச	-2631
க்கூடாது	-2632
▁வெளிப்படையாக	-2633
டா	-2634
ுகள	-2635
os	-2636
நாடு	-2637
▁ஒன்றும்	-2638
▁தொடர்ச்ச	-2639
▁ஆக்கிரமிப்ப	-2640
▁அரசாங்கத்திற்கு	-2641
▁பீ	-2642
▁வேண்டும	-2643
வேளை	-2644
ொழுத	-2645
▁மின்	-2646
▁இங்கு	-2647
களை	-2648
்பு	-2649
ுவதாக	-2650
▁விடுவ	-2651
▁ஆதிக்க	-2652
▁புலிகள்	-2653
▁18	-2654
▁கட்டுர	-2655
ic	-2656
ுந்த	-2657
▁அணி	-2658
ிகளுடன்	-2659
▁திட்டத்தை	-2660
▁தலைமையிலான	-2661
and	-2662
▁உள	-2663
ோடும்	-2664
▁ஈரான்	-2665
▁அதிகரித்து	-2666
of	-2667
▁லே	-2668
▁சென	-2669
▁அவர்களின்	-2670
▁பயன்படுத்தி	-2671
▁கர	-2672
மார்	-2673
▁மூட	-2674
▁கட்சிகள்	-2675
ிலோ	-2676
▁கருவ	-2677
▁இந்தத்	-2678
▁முரண்ப	-2679
▁பிரதமர்	-2680
▁கல்ல	-2681
ாமி	-2682
பொரு	-2683
ிகளுக்கும்	-2684
ிற்ப	-2685
ாட்டை	-2686
▁அவள்	-2687
▁பார்வ	-2688
▁படப்பிடிப்பு	-2689
ெய்ய	-2690
▁இதர	-2691
▁அவன	-2692
▁மொழ	-2693
▁இருத	-2694
ள்ளே	-2695
ுகிறேன்	-2696
▁வருமான	-2697
▁நவம்பர்	-2698
ஜா	-2699
ுவரும்	-2700
ராச	-2701
▁தக்க	-2702
ிருந்தும்	-2703
▁உற்பத்திய	-2704
▁விழு	-2705
த்தினர்	-2706
▁என்பதில்	-2707
▁நப	-2708
▁இதுவரை	-2709
தாய	-2710
மன்	-2711
▁தெலு	-2712
▁நிலையை	-2713
▁கிடைக்க	-2714
▁பல்வேறு	-2715
▁தங்க	-2716
▁வெள்ளை	-2717
ுவதை	-2718
▁ஏற்பட்டு	-2719
▁முன்னேற்ற	-2720
▁இறுதி	-2721
▁சோசலிஸ்ட்	-2722
▁இஸ்ரவேலின்	-2723
▁எதிர்கொள்ள	-2724
க்தி	-2725
▁தேர்ந்தெடுக்க	-2726
▁முகாம	-2727
▁அவனுடைய	-2728
▁எந்தவித	-2729
▁கூட்டத்தில்	-2730
im	-2731
▁உள்ளட	-2732
▁செய்தார்	-2733
▁ஜாத	-2734
▁ஆத்திர	-2735
ப்பட்டுள்ளன	-2736
ட்டோ	-2737
▁மன்ற	-2738
▁வரவே	-2739
▁அனைவரும்	-2740
▁செல்வந்த	-2741
▁எதிர்ப்பை	-2742
▁தொழிலாளர்களின்	-2743
▁இல்	-2744
▁கால்	-2745
▁வாய்ப்ப	-2746
▁இருந்தாலும்	-2747
▁பில	-2748
▁வயது	-2749
▁விலை	-2750
▁கணக்கான	-2751
ிற்கான	-2752
▁நூற்று	-2753
▁நம்பிக்கை	-2754
ையு	-2755
▁பொய	-2756
▁போவ	-2757
வாதம்	-2758
▁ஆண்டுகளில்	-2759
ிக்கப்பட்டது	-2760
▁செயல்படுத்த	-2761
ரவ	-2762
ோல	-2763
ாதபடி	-2764
ையாது	-2765
▁இருப	-2766
▁மாளிக	-2767
ாஸ்	-2768
ெடுத்த	-2769
▁இராணுவத்	-2770
▁ஆதார	-2771
மானால்	-2772
▁ஜனவரி	-2773
▁அறிந்த	-2774
ம்பெய	-2775
தியின்	-2776
க்காட்ட	-2777
▁நடிகர்	-2778
▁உண்மை	-2779
▁கணிசமான	-2780
▁விகித	-2781
க்களும்	-2782
ங்களைப்	-2783
▁அடிக்க	-2784
▁எந்தவொரு	-2785
ிவிடும்	-2786
▁குடியரசுக்	-2787
▁தெரிவித்து	-2788
ிவை	-2789
▁நாம	-2790
▁குமாரன்	-2791
ிஷ	-2792
ிடு	-2793
▁ஏழு	-2794
▁ஆனாலும்	-2795
▁தொழிற்க	-2796
▁வரலாற்ற	-2797
னா	-2798
்க்	-2799
▁சீனா	-2800
▁இடையில்	-2801
▁வாய்ப்பு	-2802
▁அந்ந	-2803
▁நிகழ்வ	-2804
ண்க	-2805
▁பாச	-2806
▁கவலை	-2807
▁முயற்சி	-2808
▁கண்டுபிட	-2809
▁இரண்டாவது	-2810
▁வீத	-2811
ின்று	-2812
▁சத்த	-2813
▁காண்ப	-2814
▁இஸ்லாமிய	-2815
▁டெ	-2816
ன்கள்	-2817
▁2002	-2818
▁நடந்தது	-2819
▁நேரடியாக	-2820
▁பற்றியும்	-2821
▁கப்ப	-2822
▁குடிம	-2823
ித்தனர்	-2824
ாலிக	-2825
▁அவசிய	-2826
▁சவ	-2827
ர்களில்	-2828
▁உத்தியோகபூர்வ	-2829
ing	-2830
ித்	-2831
ியோக	-2832
▁க்கு	-2833
ிருந்தன	-2834
▁முன்னண	-2835
▁துருப்புக்கள்	-2836
",	-2837
ிர்	-2838
ியையும்	-2839
ப்படுகின்றன	-2840
▁நன்கு	-2841
▁ஜனங்கள்	-2842
எம்	-2843
த்தைச்	-2844
▁ஆய்வு	-2845
▁50	-2846
ையைக்	-2847
▁தடைய	-2848
்த்	-2849
படியே	-2850
▁சம்ம	-2851
▁உரிமைகளை	-2852
்ப்	-2853
ுவேன்	-2854
▁உலகப்	-2855
▁ராஜாவாகிய	-2856
▁நிருப	-2857
ிகா	-2858
▁கண்காண	-2859
▁அக்டோபர்	-2860
ளம்	-2861
ங்கில்	-2862
▁வங்கி	-2863
▁முதலில்	-2864
▁இந்	-2865
▁எரி	-2866
▁பேசிய	-2867
▁நடக்கும்	-2868
ிடமிருந்து	-2869
ஹ்	-2870
▁அந்தக்	-2871
▁தீர்க்கத	-2872
▁சுட்டிக்காட்ட	-2873
▁பலர்	-2874
▁நூற்ற	-2875
▁பின்ப	-2876
▁பெயர்	-2877
ையாகும்	-2878
ப்படுவது	-2879
சம	-2880
்கூட	-2881
▁கிடையாது	-2882
ிப்பில்	-2883
பயங்கரவாத	-2884
ப்படுத்தப்பட்ட	-2885
ையாட	-2886
்டர்	-2887
▁முறைய	-2888
▁எல்லாவ	-2889
தியை	-2890
▁சந்தை	-2891
▁சுமார்	-2892
ோஷ	-2893
ிருக	-2894
ிகளால்	-2895
▁சென்னை	-2896
▁கட்சியை	-2897
▁40	-2898
ந்திய	-2899
▁நாட்டு	-2900
▁ஆவண	-2901
மாகிய	-2902
▁ஜூலை	-2903
▁சொல்லுகிறார்	-2904
ண்ட்	-2905
▁யின்	-2906
▁கொள்ளும்	-2907
▁மன்ன	-2908
▁வேறுபா	-2909
ஞ்	-2910
லர்	-2911
திகளை	-2912
ாவிட்ட	-2913
போக	-2914
மாத	-2915
▁வளை	-2916
துங்க	-2917
மையின்	-2918
ாதீன	-2919
▁வகு	-2920
▁அதிகம்	-2921
▁உட்படுத்த	-2922
▁செய்துள்ள	-2923
ra	-2924
▁ஓய்வ	-2925
▁கொடூ	-2926
ித்தம்	-2927
▁தாராள	-2928
▁சார்க்கோச	-2929
ent	-2930
ாய்வு	-2931
▁நிரூப	-2932
▁மிகுந்த	-2933
நகர	-2934
நிறுவன	-2935
ாவே	-2936
▁ஆபிரிக்க	-2937
▁வகை	-2938
ப்ரல்	-2939
கர்	-2940
ர்தான்	-2941
▁முந்தைய	-2942
ப்படுத்தி	-2943
▁எண்ணிக்க	-2944
▁நாடுகளின்	-2945
▁போராட்டம்	-2946
ang	-2947
ினாலே	-2948
▁ஒன்றில்	-2949
▁ஆற்ற	-2950
ிழமை	-2951
▁உச்ச	-2952
▁வெட்டு	-2953
▁வேலைத்திட்ட	-2954
▁தட்ட	-2955
▁ஆகியோர்	-2956
ூல	-2957
ியாவ	-2958
▁சேன	-2959
▁பதிவு	-2960
▁வழிவக	-2961
்தா	-2962
▁17	-2963
மட்டும்	-2964
▁சட்டம்	-2965
▁இயக்கம்	-2966
▁தொழிற்சங்கங்கள்	-2967
▁அதற்க	-2968
▁ஒட்டு	-2969
▁அளிக்க	-2970
ருடன்	-2971
▁வாழ்	-2972
▁14	-2973
▁எமது	-2974
▁நடைமுற	-2975
▁சுயாதீன	-2976
▁நிறைவேற்ற	-2977
▁பாரிய	-2978
▁அதிகாரத்துவ	-2979
▁குற்றச்சாட்டு	-2980
▁டிர	-2981
மடைந்த	-2982
▁மிகக்	-2983
▁தன்மையை	-2984
ுரி	-2985
▁வாக	-2986
▁சிந்த	-2987
ed	-2988
▁உளவு	-2989
▁நண்ப	-2990
▁ஒருவன்	-2991
▁தோற்றுவ	-2992
▁விதத்தில்	-2993
▁பிரதிநிதி	-2994
▁196	-2995
▁விற்ப	-2996
ங்கால	-2997
▁சண்ட	-2998
போதும்	-2999
▁அமைப்பின்	-3000
,"	-3001
க்கழக	-3002
▁அமைக்க	-3003
▁தலைவரான	-3004
▁நாட்டில்	-3005
களில்	-3006
▁கடற்ப	-3007
▁விளைவாக	-3008
▁பிரச்சாரம்	-3009
▁முழ	-3010
▁செலவின	-3011
▁வழக்கு	-3012
ையெல்லாம்	-3013
▁மாணவர்கள்	-3014
▁கழ	-3015
▁கொண்டார்	-3016
▁சேர்த்து	-3017
ல்லா	-3018
▁நடைமுறை	-3019
▁நிச்ச	-3020
ிவுபடுத்த	-3021
▁கடுமையாக	-3022
▁தாக்குதல்கள்	-3023
ந்த்	-3024
ன்ஸ்	-3025
ிஸ்ட	-3026
▁ஜூன்	-3027
▁ஏப்ரல்	-3028
▁காப்பா	-3029
▁நாடாளுமன்ற	-3030
அம	-3031
▁பயண	-3032
▁உண்மைய	-3033
▁வீட்டு	-3034
▁அதிகாரி	-3035
▁அனைத்துலக	-3036
டியான	-3037
▁குறைக்க	-3038
ப்பட்டார்	-3039
▁ஒருவ	-3040
வதற்கு	-3041
ையொட்டி	-3042
▁தாங்கள்	-3043
▁தேவையான	-3044
▁யுத்தம்	-3045
▁காட்டுகிறது	-3046
sp	-3047
▁எனது	-3048
▁செலு	-3049
▁பிரபு	-3050
▁சமீபத்திய	-3051
▁ஹூ	-3052
மாகவும்	-3053
▁தடுத்து	-3054
அரச	-3055
ாகி	-3056
▁மூத்த	-3057
▁அமெரிக்கப்	-3058
ேல்	-3059
▁முஷ	-3060
த்திரம்	-3061
▁கிழக்கில்	-3062
▁வருகிறார்	-3063
வேச	-3064
ியன்	-3065
▁ஜெய	-3066
▁அநேக	-3067
▁ஆபத்து	-3068
▁சொத்து	-3069
▁பொறுப்பு	-3070
▁பல்கலைக்கழக	-3071
ாகவே	-3072
ுங்கள்	-3073
▁குமாரதுங்க	-3074
ரோட	-3075
ிசை	-3076
ிபெ	-3077
▁ஓய்	-3078
▁சீர	-3079
▁ஆணைய	-3080
▁நுழை	-3081
ாளர்களை	-3082
ஜ்	-3083
▁தலைமையில்	-3084
▁விசுவ	-3085
நு	-3086
▁13	-3087
மைக்க	-3088
▁போலவே	-3089
ட்டர்	-3090
▁ஜப்பான	-3091
▁வெகுஜன	-3092
▁ஆகியவற்றை	-3093
▁ஆப்கானிஸ்தானில்	-3094
றிவ	-3095
ாட்சி	-3096
▁தமிழீழ	-3097
னான்	-3098
ைகளைக்	-3099
▁பிடித்து	-3100
▁பற்றாக்கு	-3101
பார	-3102
ெல்	-3103
ச்சார	-3104
ாயிருந்த	-3105
ஸின்	-3106
▁இதனால்	-3107
▁பிரிவு	-3108
ப்பதற்கு	-3109
▁இசை	-3110
▁கம்ப	-3111
▁காத்த	-3112
▁சினிம	-3113
▁செலவு	-3114
▁ஆர்	-3115
ானால்	-3116
▁ஆராய	-3117
▁அழைக்க	-3118
▁எதிர்கால	-3119
ாடுக	-3120
▁2003	-3121
னையும்	-3122
▁காலம்	-3123
▁நீண்டகால	-3124
ht	-3125
▁விஷய	-3126
▁ஒருவர	-3127
▁அண்மையில்	-3128
▁f	-3129
தைக்	-3130
▁எஸ்	-3131
▁அணுக	-3132
▁பெரிதும்	-3133
▁அகில	-3134
▁பணம்	-3135
▁போராள	-3136
▁இருந்தார்	-3137
பெர	-3138
ம்பு	-3139
ாராம்	-3140
▁மண்ட	-3141
▁பத்து	-3142
▁யூனிய	-3143
▁விவகார	-3144
▁இருவரும்	-3145
▁ஒன்றியம்	-3146
▁ஜோன்	-3147
▁எதிர்	-3148
▁சிலர்	-3149
▁உலகின்	-3150
▁கட்டளை	-3151
▁தாவீது	-3152
▁நாட்கள்	-3153
▁நம்முடைய	-3154
▁லெப	-3155
▁அதனை	-3156
▁வெட்ட	-3157
▁அபிவிரு	-3158
▁ஓய்வூதிய	-3159
▁16	-3160
▁அங்கீ	-3161
▁கல்வி	-3162
ித்தான்	-3163
அமெரிக்க	-3164
▁செய்வதற்கு	-3165
▁of	-3166
▁பத்திரிகைய	-3167
▁ரொ	-3168
ோவின்	-3169
▁கடின	-3170
டைந்து	-3171
▁அழைத்து	-3172
▁பிதாக்க	-3173
த்திற்குள்	-3174
▁நெருக்கமான	-3175
ாரா	-3176
க்கோ	-3177
ர்ட்	-3178
▁எனவும்	-3179
▁நினைக்க	-3180
▁செல்வாக்க	-3181
▁என்றார்கள்	-3182
▁சூழ	-3183
ஞ்சம்	-3184
▁2004	-3185
ிருக்கின்றனர்	-3186
▁கூறியுள்ளார்	-3187
ையோ	-3188
நுட்ப	-3189
▁கிரே	-3190
▁இனவாத	-3191
▁உங்களை	-3192
▁இப்போ	-3193
ிப்புக்கள்	-3194
▁ஆயுதங்கள்	-3195
▁பத்திரிகை	-3196
ேசு	-3197
ீர்கள	-3198
ப்பினர்	-3199
▁ஆழ்ந்த	-3200
▁ஏற்பாடு	-3201
லோ	-3202
▁பிரச	-3203
▁நேரம்	-3204
▁s	-3205
ீன்	-3206
▁தொக	-3207
▁வரவு	-3208
ங்கிணை	-3209
▁ஆட்சியை	-3210
.5	-3211
▁கொடு	-3212
ாக்கும்	-3213
▁கருதுக	-3214
▁வலியுறு	-3215
ஸில்	-3216
▁தாய	-3217
▁சிறை	-3218
▁நோக்கம்	-3219
▁அம்பல	-3220
▁போக்குவர	-3221
▁கொள்கைகளை	-3222
வுடன்	-3223
▁இயேசு	-3224
▁அதிகமான	-3225
ter	-3226
ொள்வ	-3227
▁சவு	-3228
▁சூர்	-3229
▁நிறு	-3230
ிக்கிர	-3231
னுக்கும்	-3232
▁தற்காலிக	-3233
▁ஆண்டுகளாக	-3234
▁யாவ	-3235
▁அப்போது	-3236
▁அனைத்தும்	-3237
▁வெளியேற்ற	-3238
ப்படுவதற்கு	-3239
▁சமீபத்தில்	-3240
▁100	-3241
▁பதவி	-3242
▁கூடும்	-3243
▁படுகொலை	-3244
200	-3245
ிவாய	-3246
▁உடன்	-3247
திக	-3248
▁தாங்க	-3249
▁உருவாக்கு	-3250
▁பிற்போக்கு	-3251
▁தாம	-3252
▁வேட	-3253
▁மிருக	-3254
▁மோசமான	-3255
ிட்டுள்ளது	-3256
ீம்	-3257
▁வின	-3258
ளித்த	-3259
▁பெறுவ	-3260
▁ஸ்பெய	-3261
▁மறுத்த	-3262
▁உறுதியாக	-3263
▁டிசம்பர்	-3264
▁ஒருங்கிணை	-3265
▁ஏற்றுக்கொள்ள	-3266
▁முக்கியத்துவம்	-3267
ுகோ	-3268
▁ஆர்வ	-3269
▁பல்ல	-3270
▁மலைய	-3271
▁ஆயிரக்கணக்கான	-3272
என்	-3273
மாற்ற	-3274
▁விசுவாச	-3275
▁சார்க்கோசி	-3276
ாதிகார	-3277
ிக்கார	-3278
▁இருதய	-3279
ிற்குள்	-3280
▁எடுப்ப	-3281
.)	-3282
▁காம	-3283
ட்டில்	-3284
▁நடிக்கிறார்	-3285
பொ	-3286
▁கேள்	-3287
▁போரில்	-3288
▁ஜேர்மனி	-3289
▁புறக்கண	-3290
▁என்பதற்கு	-3291
விழ	-3292
▁போட	-3293
விரோத	-3294
▁ஏராள	-3295
▁விவர	-3296
▁இந்து	-3297
ெடுப்பு	-3298
க்களையும்	-3299
சன்	-3300
....	-3301
▁செயலாளர்	-3302
▁அனுமதிக்க	-3303
▁கள	-3304
▁டே	-3305
▁விந	-3306
க்கின்	-3307
▁ஓய்வு	-3308
▁தோட்ட	-3309
ருகிறது	-3310
ர்களையும்	-3311
▁நான்காம்	-3312
▁பாதிக்கப்பட்ட	-3313
ிதாக	-3314
▁உரை	-3315
▁2001	-3316
▁கூறி	-3317
மையும்	-3318
ாயிற்று	-3319
ாவிலும்	-3320
▁இருந்தன	-3321
▁``	-3322
தைப்	-3323
ராஜ்	-3324
த்தார்	-3325
▁புத்த	-3326
▁எவ்வித	-3327
▁ஆண்டுகள்	-3328
▁வேலையின்	-3329
ையிலே	-3330
ுகளும்	-3331
ாடுகள்	-3332
ினதும்	-3333
▁சித்த	-3334
▁கூட்டம்	-3335
▁ஒன்றியத்தின்	-3336
ont	-3337
வனும்	-3338
மேலும்	-3339
▁குழப்ப	-3340
▁முழுவதிலும்	-3341
▁வெட	-3342
போன்ற	-3343
மயமாக்க	-3344
▁பாராட்ட	-3345
▁எதிர்த்த	-3346
▁கூறியுள்ளது	-3347
▁ரூ	-3348
▁படி	-3349
▁பதில்	-3350
ந்துகொள்ள	-3351
▁முழுமையாக	-3352
ாளர்களுக்கு	-3353
ிகிறது	-3354
டிக்கும்	-3355
▁தொழில்நுட்ப	-3356
▁இண	-3357
▁போத	-3358
▁குறுக	-3359
▁மாதிர	-3360
▁ஒழுங்க	-3361
ாதபடிக்கு	-3362
▁யுத்தத்தை	-3363
▁மல	-3364
▁2000	-3365
▁பெய்	-3366
▁வம்ச	-3367
ேஷ	-3368
ப்பான்	-3369
▁ஆகியோ	-3370
▁உன்னை	-3371
▁சித்திர	-3372
▁விமர்சன	-3373
la	-3374
தாகக்	-3375
னைக்கு	-3376
▁எவ்வாற	-3377
▁தடுக்க	-3378
▁பெறும்	-3379
▁புறப்பட்டு	-3380
புற	-3381
▁மற	-3382
▁இசைய	-3383
▁நெரு	-3384
▁துப்ப	-3385
▁குற்றவ	-3386
▁மிகப்பெரிய	-3387
▁துவ	-3388
▁இடையிலான	-3389
id	-3390
ணா	-3391
ரால்	-3392
▁தான	-3393
▁கார்	-3394
▁அடைந்த	-3395
▁அளித்த	-3396
ாளர்களின்	-3397
▁தனிப்பட்ட	-3398
▁வைக்கப்பட்ட	-3399
ப்பட்டுள்ளனர்	-3400
▁அரசாங்கங்கள்	-3401
ிப்போ	-3402
▁புலன	-3403
▁திரைய	-3404
▁முஸ்ல	-3405
▁இன்றைய	-3406
ீஸ்	-3407
லாமல்	-3408
ுவிடும்	-3409
▁பேரில்	-3410
▁மதிப்பு	-3411
▁கொள்கையை	-3412
▁பாதுக	-3413
ால்தான்	-3414
▁நாட்டை	-3415
▁செல்லும்	-3416
em	-3417
▁ஞான	-3418
ங்கம்	-3419
ப்போல்	-3420
▁இறங்க	-3421
ிக்கப்படும்	-3422
▁பெருநிறுவன	-3423
oc	-3424
ுவை	-3425
▁எம்	-3426
▁சான்ற	-3427
▁பதட்ட	-3428
▁இருப்பது	-3429
எஸ்	-3430
▁வலுவ	-3431
▁தோற்ற	-3432
▁கண்டனம்	-3433
▁முதலீட்ட	-3434
▁முன்னதாக	-3435
▁சர்வாதிகார	-3436
▁உறுதிப்படுத்த	-3437
ன்த	-3438
▁ஏழ	-3439
▁விநியோக	-3440
▁ஆரம்பத்தில்	-3441
▁ஈராக்கிற்கு	-3442
▁நூற்றுக்கணக்கான	-3443
30	-3444
ஞான	-3445
ராம	-3446
மான்	-3447
மாண்ட	-3448
▁கூறியது	-3449
▁வேட்பாளர்	-3450
ப்படவேண்டும்	-3451
வதை	-3452
▁கழக	-3453
▁ஜீவ	-3454
▁ஆகஸ்ட்	-3455
▁உறுப்பினர்	-3456
ாஜி	-3457
▁ஏதும்	-3458
▁நின்ற	-3459
▁எரிவாய	-3460
▁ஒப்புக்	-3461
▁பகிரங்கமாக	-3462
▁கோடி	-3463
ியாவின்	-3464
▁புரட்சிகர	-3465
ொன்ற	-3466
▁செவ்வ	-3467
சிவ	-3468
க்குழு	-3469
▁பாடல்	-3470
▁ஜெனரல்	-3471
▁விருது	-3472
ாயிருக்கிற	-3473
▁கர்த்தராகிய	-3474
▁சமரச	-3475
▁தருவ	-3476
▁தெளிவான	-3477
▁விக்கிர	-3478
▁அப்படி	-3479
▁விளங்க	-3480
▁பசுமைக்	-3481
▁பெல	-3482
▁அவற்றின்	-3483
▁புலம்பெய	-3484
▁வருகின்றனர்	-3485
ir	-3486
▁ஓர	-3487
▁சேர	-3488
▁வன்முற	-3489
▁வேலைகள்	-3490
ws	-3491
குதி	-3492
ம்பர	-3493
▁சால	-3494
ிவரும்	-3495
▁செய்திய	-3496
▁தொலைக்காட்சி	-3497
ளால்	-3498
▁பிழ	-3499
த்தல்	-3500
▁மோசே	-3501
▁வரைய	-3502
▁காப்ப	-3503
▁கேள்வி	-3504
▁ஆட்சிக்கு	-3505
▁பிரச்சினை	-3506
ிக்கான	-3507
▁கருத்தை	-3508
ப்பூ	-3509
▁தொகு	-3510
▁செய்வது	-3511
▁அமெரிக்கத்	-3512
ேகூட	-3513
▁பூச	-3514
▁இதனை	-3515
▁பட்டிய	-3516
▁ஸ்திரீ	-3517
ot	-3518
▁24	-3519
▁மாட்ட	-3520
டுகிறது	-3521
ென்றும்	-3522
▁இதுதான்	-3523
▁தேசியவாத	-3524
பட	-3525
ிகு	-3526
னியா	-3527
▁தொகை	-3528
▁மட்ட	-3529
ையானது	-3530
▁தங்களை	-3531
▁தடுப்ப	-3532
▁அழுத்தம்	-3533
ாப்	-3534
▁புச	-3535
முடியாத	-3536
▁பிறந்த	-3537
▁அடித்தள	-3538
▁பிளேயர்	-3539
▁இடங்களில்	-3540
▁வாக்குகளை	-3541
▁ஆரோ	-3542
▁நோய	-3543
▁வாகன	-3544
▁இழந்த	-3545
▁போலீச	-3546
▁எல்லாரும்	-3547
▁தாக்குதலுக்கு	-3548
பண்ண	-3549
▁கெர்	-3550
▁லண்ட	-3551
▁சுத்த	-3552
▁பொலிச	-3553
▁கடைசிய	-3554
▁ஐரோப்பா	-3555
▁நடத்தப்பட்ட	-3556
▁ஜீ	-3557
க்ஷ்	-3558
ொருவ	-3559
▁நிம	-3560
▁மாறு	-3561
ம்பரில்	-3562
த்திலுள்ள	-3563
விருக்கும்	-3564
ut	-3565
▁வில்	-3566
▁கடைசி	-3567
▁ஒதுக்க	-3568
▁படங்கள்	-3569
▁விட்டது	-3570
▁இராணுவத்தின்	-3571
இது	-3572
டியோ	-3573
▁கதா	-3574
ப்போவ	-3575
ுகின்ற	-3576
▁விஜய்	-3577
▁இளைஞர்கள்	-3578
▁இந்தியாவின்	-3579
▁அஞ்ச	-3580
▁விஞ்	-3581
ட்டின்	-3582
ாவுடன்	-3583
▁வல்லரச	-3584
ிகளிலும்	-3585
னைய	-3586
ர்ண	-3587
ப்பாக	-3588
ினரின்	-3589
▁சிங்க	-3590
▁முஷார	-3591
க்குகள்	-3592
டுகளில்	-3593
ைகளுக்கும்	-3594
▁அறிக்கையில்	-3595
▁உப	-3596
▁கடந்து	-3597
▁கையில்	-3598
▁முன்னே	-3599
▁நிபந்தன	-3600
▁தாக்குதல்களை	-3601
▁அமெரிக்காவிற்கு	-3602
ேயும்	-3603
த்திற்குப்	-3604
ப்படுத்துக	-3605
▁என்பதுதான்	-3606
▁பாக்கிஸ்தான்	-3607
வீ	-3608
ம்பே	-3609
▁துர	-3610
▁மிர	-3611
▁வலி	-3612
▁அனுமதி	-3613
▁பேரழிவ	-3614
ிடப்பட்ட	-3615
▁விடுக்க	-3616
▁கிடைக்கும்	-3617
▁வர்க்கத்தை	-3618
ெக	-3619
ைகளால்	-3620
க்கொள்வ	-3621
▁நிச்சய	-3622
▁மீதும்	-3623
▁உட்பட்ட	-3624
வருக்கும்	-3625
ie	-3626
ஆர்	-3627
ாந்தர	-3628
▁கடித	-3629
ங்களுடன்	-3630
▁இன்னமும்	-3631
▁இருக்கின்றன	-3632
ஷீ	-3633
ிகளு	-3634
▁2007	-3635
▁பெருகிய	-3636
▁படங்களில்	-3637
▁மட்டுமல்ல	-3638
வராக	-3639
ாயாக	-3640
▁ஷரோ	-3641
▁கூறு	-3642
▁சக்தி	-3643
▁டாலர்	-3644
▁பொதுவாக	-3645
▁இடத்தில்	-3646
▁உடன்பாடு	-3647
டாக	-3648
வீன	-3649
ியூ	-3650
▁In	-3651
▁அவைகளை	-3652
▁நடத்தி	-3653
▁கதாநாயக	-3654
▁சார்பில்	-3655
ad	-3656
ாலை	-3657
▁60	-3658
த்தோடு	-3659
மாறும்	-3660
▁இன்னொரு	-3661
▁எதையும்	-3662
▁குறுகிய	-3663
▁அத்துடன்	-3664
▁முதலாவது	-3665
▁நடிக்கும்	-3666
▁இலங்கையில்	-3667
▁பிரான்சின்	-3668
மின்றி	-3669
▁யாக்க	-3670
▁பென்டக	-3671
▁எதிர்பார	-3672
▁எல்லாவற்ற	-3673
▁இத்தால	-3674
▁போட்டி	-3675
▁போதுமான	-3676
ளான	-3677
ப்பெ	-3678
▁நன்ற	-3679
▁நடித்து	-3680
▁செய்தனர்	-3681
▁விரிவாக்க	-3682
▁அன	-3683
▁அதன	-3684
▁உட்க	-3685
▁ரஜினி	-3686
வரையும்	-3687
▁வருகிற	-3688
▁அடையாளம்	-3689
▁பிரகடனம்	-3690
▁வளர்ந்து	-3691
▁ஈராக்கின்	-3692
▁புலனாய்வு	-3693
▁பிரதிநிதிகள்	-3694
▁போக்குவரத்து	-3695
க்கட்ட	-3696
▁கைப்பற்ற	-3697
▁ஒப்பந்தம்	-3698
▁கையெழுத்த	-3699
ப்த	-3700
▁போர	-3701
▁முட	-3702
ச்செய	-3703
▁மகிழ	-3704
லையும்	-3705
ொழுதும்	-3706
▁ஈடுபட்டு	-3707
▁பிரிவினை	-3708
▁கட்சியும்	-3709
▁இருக்கிறார்	-3710
ணிய	-3711
ாளரான	-3712
▁பங்கள	-3713
▁சேர்க்க	-3714
▁பாதிப்ப	-3715
▁வன்முறை	-3716
ag	-3717
நாள	-3718
▁அய	-3719
▁ஸ்	-3720
பான்	-3721
▁ஸ்க	-3722
ிற்காக	-3723
▁நிறைய	-3724
▁நீக்க	-3725
ிடையில்	-3726
▁படிப்ப	-3727
▁பொருளாதாரம்	-3728
▁கொண்டிருந்தது	-3729
PD	-3730
பலிய	-3731
▁மட	-3732
▁பிரே	-3733
▁பொலி	-3734
▁அதிருப	-3735
▁பாலஸ்தீன	-3736
▁கட்சிக்கு	-3737
▁கூறுகிறது	-3738
▁அந்	-3739
▁முயன்ற	-3740
▁நிலைப்பா	-3741
▁விரோதமாக	-3742
▁மாநாட்டில்	-3743
த்ய	-3744
▁டோ	-3745
ின்ன	-3746
▁உதவிய	-3747
▁கூடாது	-3748
▁ஆயினும்	-3749
▁வாய்ந்த	-3750
▁கொழும்பு	-3751
▁சந்தர்ப்ப	-3752
▁பிரிட்டன்	-3753
ோசிய	-3754
▁மீற	-3755
▁மேய	-3756
▁ஆதரவாக	-3757
மையையும்	-3758
ிட்டுள்ள	-3759
▁அருகில்	-3760
▁விஞ்ஞான	-3761
ிருந்தால்	-3762
▁வாழ்க்கை	-3763
தீ	-3764
▁வன	-3765
னிக்க	-3766
▁வலது	-3767
ழுத்து	-3768
ங்களுக்காக	-3769
ும்படிக்கு	-3770
▁நடவடிக்கையை	-3771
டுகிற	-3772
விட்ட	-3773
தினால்	-3774
ையுடன்	-3775
▁அர்த்த	-3776
ப்படுவதை	-3777
▁கர்த்தரை	-3778
▁தீவிரவாத	-3779
▁தங்களுக்கு	-3780
ிருக்கின்றது	-3781
திவ	-3782
வாய	-3783
ிறு	-3784
வையாக	-3785
▁ஊக்குவ	-3786
▁திட்டமிட்ட	-3787
▁ஆசிரியர்	-3788
▁கொண்டனர்	-3789
▁தீவிரமாக	-3790
▁மகி	-3791
த்திடம்	-3792
▁போரின்	-3793
▁வட்டார	-3794
ொண்டுள்ள	-3795
▁எடுத்துக்காட்ட	-3796
ழி	-3797
கமாக	-3798
▁அறு	-3799
▁கட்டுரை	-3800
ுகின்றனர்	-3801
▁எச்சரிக்கை	-3802
▁செல்வாக்கு	-3803
▁டொல	-3804
▁ரில	-3805
ிகளாக	-3806
ிதான்	-3807
▁அன்ப	-3808
▁சேவை	-3809
▁கவர்	-3810
▁அடக்கு	-3811
▁தம்முடைய	-3812
▁எந்தவிதமான	-3813
ைகூ	-3814
▁உணர்வு	-3815
▁என்பதால்	-3816
▁ஊழியர்கள்	-3817
ியோ	-3818
▁1990	-3819
▁பேட்ட	-3820
ப்படுகிற	-3821
▁டாலர்கள்	-3822
▁தெலுங்கு	-3823
▁அமைப்புக்கள்	-3824
▁தேர்தல்களில்	-3825
▁பை	-3826
▁சாவ	-3827
சக்தி	-3828
▁சார்	-3829
ர்த்தி	-3830
▁துன்ப	-3831
▁ஆலோசனை	-3832
▁குண்டுவ	-3833
▁பேரழிவு	-3834
▁சட்டபூர்வ	-3835
▁நூற்றாண்ட	-3836
ிருந்தாலும்	-3837
▁திட்டங்களை	-3838
▁தொழிற்கட்சி	-3839
▁ஒள	-3840
ரியில்	-3841
▁ராஜ்ய	-3842
▁வங்கிகள்	-3843
▁காப்பாற்ற	-3844
▁தயாரிப்பு	-3845
▁ஆப்கானிஸ்தான்	-3846
மொத்த	-3847
▁பொருள்	-3848
ப்படலாம்	-3849
▁ஏராளமான	-3850
த்தின்படி	-3851
ாயிரக்கணக்கான	-3852
IA	-3853
ிலா	-3854
ெழு	-3855
யின்	-3856
▁2006	-3857
▁நிகழ்	-3858
▁நேரடி	-3859
ுவிட்டன	-3860
▁பெயரில்	-3861
▁குழுக்கள்	-3862
ிருக்கிறேன்	-3863
▁கொண்டிருப்ப	-3864
ர்கு	-3865
▁வழிய	-3866
▁உம்மை	-3867
▁பாகிஸ்தான	-3868
▁பாகிஸ்தான்	-3869
▁மய	-3870
த்துற	-3871
ணியில்	-3872
ுவதற்காக	-3873
ுவதற்கான	-3874
▁மகத்தான	-3875
▁அதிகரித்த	-3876
▁தங்களுடைய	-3877
50	-3878
ாரி	-3879
▁மரப	-3880
ினிமா	-3881
▁உமக்கு	-3882
▁இருந்தும்	-3883
▁வந்துள்ளது	-3884
PA	-3885
▁ஒழ	-3886
ன்களை	-3887
▁போய்வ	-3888
மில்லாத	-3889
▁நின்று	-3890
▁உறுதிமொழ	-3891
▁கொல்லப்பட்ட	-3892
▁பண்ட	-3893
▁சந்தோஷ	-3894
▁தொடக்கத்தில்	-3895
நல	-3896
ran	-3897
ரைக்	-3898
▁அரு	-3899
▁வரி	-3900
களின்	-3901
▁கூடார	-3902
▁அதனால்	-3903
▁ஆத்திரமூ	-3904
▁சிறுபான்	-3905
ul	-3906
வ்	-3907
▁இரட்ச	-3908
▁இலக்கு	-3909
▁ஒழுங்கு	-3910
▁பாத்திர	-3911
▁கருத்துக்கள்	-3912
ுகளையும்	-3913
▁ஆயுதங்களை	-3914
▁அதிகாரத்தை	-3915
▁ரி	-3916
▁சபை	-3917
▁திராட்ச	-3918
▁சட்டவிரோத	-3919
▁கட்டுப்பாட்டில்	-3920
வார	-3921
▁ஹை	-3922
▁194	-3923
ுவின்	-3924
▁பட்ச	-3925
▁ஜோர்ஜ்	-3926
▁அறிவிக்க	-3927
▁கொள்கைகள்	-3928
▁பாதுகாக்க	-3929
▁நெருக்கடியை	-3930
op	-3931
பீ	-3932
ொலை	-3933
▁Ch	-3934
லைகளை	-3935
ாளராக	-3936
▁வாழ்வ	-3937
▁எழுந்த	-3938
▁நிலைக்கு	-3939
▁அரசியலில்	-3940
▁அச்சுறுத்தல்	-3941
▁திண	-3942
மைகள்	-3943
வற்றை	-3944
▁எழுச்ச	-3945
▁வேலையில்	-3946
▁அரசியலமைப்பு	-3947
நெ	-3948
▁செவ	-3949
ழ்ப்ப	-3950
▁அழிவ	-3951
▁தலிப	-3952
▁செயல்	-3953
▁தீர்வு	-3954
ாவிட்டால்	-3955
வச	-3956
▁22	-3957
▁கமல்	-3958
ட்டார்	-3959
▁சாட்ச	-3960
▁சுரண்ட	-3961
▁எரிவாயு	-3962
▁தொடங்கி	-3963
▁நிலைநாட்ட	-3964
ருஷ	-3965
தைத்	-3966
ப்பர்	-3967
▁செயல்பட	-3968
▁சட்டத்தை	-3969
▁குறைந்தது	-3970
▁துருப்புக்களை	-3971
ந்தில்	-3972
▁வஸ்திர	-3973
▁புஷ்ஷின்	-3974
ீல	-3975
சால	-3976
▁எள	-3977
▁சதாம்	-3978
▁அதேவேளை	-3979
▁எல்லாம்	-3980
▁என்பதாகும்	-3981
▁l	-3982
மிக்க	-3983
▁கன்ன	-3984
▁இரயில்	-3985
▁தண்ணீர்	-3986
▁தயாரிக்க	-3987
▁பகுதியாக	-3988
▁அதிகரிக்க	-3989
CR	-3990
ர்வே	-3991
▁பணியாற்ற	-3992
ிதா	-3993
ியால்	-3994
▁இவன்	-3995
▁மந்த	-3996
ாட்டுக	-3997
▁முன்க	-3998
▁அதிர்ச்ச	-3999
▁கோரிக்கை	-4000
▁போராட்டத்தை	-4001
ber	-4002
ூறு	-4003
▁26	-4004
நாம்	-4005
ிபீட	-4006
▁இவர	-4007
்களில்	-4008
▁நியூயோ	-4009
▁முறையை	-4010
▁ஏற்படும்	-4011
▁அறிக்கையை	-4012
▁சொல்லுகிற	-4013
▁பாப	-4014
▁மகா	-4015
ட்டம்	-4016
▁திகதி	-4017
▁பக்கம்	-4018
▁தமிழில்	-4019
▁ஐரோப்பாவில்	-4020
▁தயாரிப்பாளர்	-4021
▁பிரச்சாரத்தை	-4022
மாண	-4023
ங்கே	-4024
ந்தி	-4025
ொல்ல	-4026
ிக்கோ	-4027
▁இணைய	-4028
▁தெற்க	-4029
னித்துவ	-4030
ின்றார்	-4031
▁உருவாக	-4032
▁எங்களை	-4033
▁குறித்த	-4034
▁குற்றஞ்ச	-4035
▁தொடங்கிய	-4036
▁அவர்களில்	-4037
▁ஏற்பட்டது	-4038
art	-4039
▁அமு	-4040
ினுடைய	-4041
▁கட்டிய	-4042
▁கோத்திர	-4043
▁நலன்கள்	-4044
▁பொருத்த	-4045
▁தங்களின்	-4046
▁வேண்டுகோ	-4047
19	-4048
▁யோவ	-4049
ர்களாக	-4050
▁பெறுக	-4051
▁கொன்று	-4052
▁வெளியேற	-4053
▁என்னுடைய	-4054
▁கொடூரமான	-4055
▁புத்திரர்	-4056
▁உடன்படிக்கை	-4057
ர்ன	-4058
தல்ல	-4059
▁யார	-4060
▁எட்டு	-4061
ிப்பதாக	-4062
▁பிரவேச	-4063
▁நீதிமன்றம்	-4064
▁ஜேர்மனியின்	-4065
டான	-4066
▁இயேச	-4067
▁விதி	-4068
▁ஆட்டு	-4069
▁விடைய	-4070
▁நேட்டோ	-4071
போதிலும்	-4072
▁காட்டிய	-4073
▁அனைத்தையும்	-4074
▁ஒல	-4075
▁சிதை	-4076
▁விக்	-4077
▁இறந்த	-4078
▁துருக்க	-4079
நான்	-4080
▁கேரக	-4081
▁தொடர	-4082
▁வேலைய	-4083
த்தனமான	-4084
▁வந்துள்ள	-4085
".	-4086
டனே	-4087
வெள	-4088
ிபர	-4089
ச்சா	-4090
னைக்	-4091
ென்ன	-4092
▁பெண்	-4093
▁ஒட்டி	-4094
▁தெரிந்த	-4095
த்தின்மேல்	-4096
▁நடைபெற்று	-4097
▁பிரான்சில்	-4098
▁திவ	-4099
ப்பும்	-4100
▁கைவிட	-4101
▁சற்று	-4102
ித்துள்ள	-4103
▁உறவுகளை	-4104
ாளர்களும்	-4105
▁ஒட்டுமொத்த	-4106
▁தீர்க்கதரிச	-4107
சீ	-4108
▁அம்ச	-4109
▁பிரய	-4110
▁பெறு	-4111
வரையில்	-4112
▁திரட்ட	-4113
▁தொலைபே	-4114
▁சாட்சிய	-4115
▁புரட்சி	-4116
▁தாராளவாத	-4117
▁நாட்களுக்கு	-4118
WS	-4119
▁பின	-4120
னுடன்	-4121
மைக்கு	-4122
வுக்கு	-4123
▁ரஷ்யா	-4124
▁அந்நிய	-4125
▁எவ்வாறு	-4126
▁பயிற்சி	-4127
▁பேச்சுவார்த்தை	-4128
ist	-4129
போன	-4130
▁ப்	-4131
ற்பு	-4132
ாயுத	-4133
▁உயர்ம	-4134
▁தீர்வ	-4135
▁அக்கறை	-4136
▁ஒன்றாக	-4137
▁படைகளை	-4138
▁எரிபொரு	-4139
▁வித்திய	-4140
▁ஆகியவற்றின்	-4141
▁புலம்பெயர்ந்த	-4142
▁Le	-4143
சின்	-4144
ப்படை	-4145
▁அட்ட	-4146
▁மார்க	-4147
▁அரசின்	-4148
▁சந்திர	-4149
▁என்பதையும்	-4150
▁திட்டங்கள்	-4151
▁அபிவிருத்தி	-4152
ஜீ	-4153
▁அதைக்	-4154
▁உச்சி	-4155
க்கடவன்	-4156
▁உக்கிர	-4157
▁ஏற்படுத்தும்	-4158
▁அணிவ	-4159
▁கல்வ	-4160
▁பிரகா	-4161
▁சினிமா	-4162
▁காட்டிக்	-4163
▁கட்சியினர்	-4164
ac	-4165
▁21	-4166
▁ஜெ	-4167
பேர்	-4168
▁தகன	-4169
ியைக்	-4170
▁அடிய	-4171
▁தூதர	-4172
▁பன்ன	-4173
▁வியட்	-4174
▁அணிதிர	-4175
▁அவைகள்	-4176
▁நிலவுக	-4177
▁பலிபீட	-4178
முடியும்	-4179
▁கருத்துக்களை	-4180
▁t	-4181
▁மகன்	-4182
கத்தில்	-4183
▁பொலிஸ்	-4184
▁அடங்கிய	-4185
▁கடற்படை	-4186
▁முடியாமல்	-4187
ன்ம	-4188
▁தூர	-4189
▁நாச	-4190
▁குறைவாக	-4191
க்காரர்கள்	-4192
▁படத்துக்கு	-4193
▁அரசாங்கமும்	-4194
▁தொடர்ச்சியான	-4195
▁நவீன	-4196
▁தயார்	-4197
▁சங்கம்	-4198
▁ஊழியக்கார	-4199
▁முடியவில்லை	-4200
ஷா	-4201
▁நிர்	-4202
▁நமக்கு	-4203
▁போட்டு	-4204
▁அறிவித்தது	-4205
▁முயற்சிகள்	-4206
▁அரசாங்கத்தில்	-4207
▁CP	-4208
ராம்	-4209
▁வலு	-4210
▁ஆத்து	-4211
▁குர்த	-4212
க்கொள்க	-4213
▁இந்தச்	-4214
▁தகவல்கள்	-4215
▁மாதங்களில்	-4216
▁ஆதரவாளர்கள்	-4217
▁புலிகளுக்கு	-4218
ஃப	-4219
ற்ச	-4220
ஸ்ஸ	-4221
▁தாம்	-4222
▁காதல்	-4223
▁விண்ண	-4224
▁எவரும்	-4225
▁தோல்வி	-4226
▁கிரேக்க	-4227
▁இயக்கத்தில்	-4228
ப்பட்டிருக்கிறது	-4229
▁ஹோ	-4230
ருமான	-4231
▁சராச	-4232
ின்படி	-4233
▁பட்டய	-4234
▁பிரசு	-4235
ருக்கான	-4236
ுகின்றன	-4237
நிலையில்	-4238
▁குறைந்தப	-4239
▁நடத்தும்	-4240
▁பின்பற்ற	-4241
▁மூன்றாம்	-4242
▁வாழ்க்கைத்	-4243
▁ஜேர்மனியில்	-4244
▁கலைஞ	-4245
▁முதன்	-4246
▁பயங்கர	-4247
▁விளைவு	-4248
வேண்டாம்	-4249
▁புதுப்ப	-4250
▁வித்தியாச	-4251
▁வேலையின்மை	-4252
ிருந்தார்கள்	-4253
▁Ne	-4254
span	-4255
ிற்ற	-4256
▁பவு	-4257
முதல்	-4258
▁இக்க	-4259
▁இட்டு	-4260
▁ஆண்டில்	-4261
▁கட்சியான	-4262
▁வார்த்தை	-4263
▁முயற்சியில்	-4264
ங்களே	-4265
றுக்க	-4266
▁கணக்க	-4267
▁சொல்வ	-4268
படியும்	-4269
▁ரீதியாக	-4270
▁நிலைமையை	-4271
▁நெருக்கடியின்	-4272
ரூ	-4273
▁மச	-4274
▁அரை	-4275
▁தரும்	-4276
▁நட்பு	-4277
▁பங்காள	-4278
ிக்கவும்	-4279
▁கொடுத்தது	-4280
▁அகிலத்தின்	-4281
▁சாக	-4282
▁ஈரானிய	-4283
▁பதவியில்	-4284
▁நிலைப்பாட்டை	-4285
ுவா	-4286
▁த்	-4287
▁டாக	-4288
▁ஒத்த	-4289
▁பேரண	-4290
ித்திய	-4291
▁அணுகு	-4292
▁இறுதியாக	-4293
ஃப்	-4294
▁ஆண	-4295
▁ஆக்க	-4296
▁நாளை	-4297
ருங்கள்	-4298
▁அவரின்	-4299
ல்களுக்கு	-4300
▁போலீசார்	-4301
கையில்	-4302
▁உங்கள	-4303
▁சத்து	-4304
▁மூலதன	-4305
ையிட்டு	-4306
▁இயக்குக	-4307
▁தலைவராக	-4308
▁விண்ணப்ப	-4309
▁பயன்படுத்துவ	-4310
▁அடிப்படையாகக்	-4311
நட	-4312
ின்க	-4313
மைவாத	-4314
காந்த்	-4315
ிப்பதற்காக	-4316
▁வெளிப்படையான	-4317
▁கூறப்படுகிறது	-4318
ard	-4319
்ச்	-4320
▁பகி	-4321
▁வோல்	-4322
▁ஸ்தல	-4323
▁அக்கற	-4324
▁எழுது	-4325
ழ்ப்பாண	-4326
▁எழும்ப	-4327
▁மாவட்ட	-4328
▁இடம்பெற்ற	-4329
▁கட்டுப்படுத்த	-4330
um	-4331
▁PS	-4332
ல்களின்	-4333
ியாகும்	-4334
▁அவற்றை	-4335
▁கலந்துர	-4336
▁கர்த்தாவே	-4337
▁பிரிவுகள்	-4338
சோ	-4339
மி	-4340
ீட்டை	-4341
▁கிடை	-4342
ம்பண்ணி	-4343
ிவிட்டு	-4344
▁கட்டிட	-4345
▁மாற்றம்	-4346
▁அணுசக்தி	-4347
▁விடுத்து	-4348
ிக்கவில்லை	-4349
▁நியாயப்படுத்த	-4350
ோய	-4351
ிகளான	-4352
▁சமாள	-4353
▁நமது	-4354
▁ஒற்று	-4355
▁நடைபெற	-4356
த்துள்ளது	-4357
▁கட்டளையிட்ட	-4358
▁போராட்டத்தில்	-4359
▁கலா	-4360
னன்று	-4361
ினேன்	-4362
▁2008	-4363
ுவதில்	-4364
ியாவில்	-4365
▁போன்று	-4366
▁தடுப்பு	-4367
▁கட்டாயம்	-4368
▁சுட்டிக்	-4369
▁துருப்பு	-4370
▁பெரும்பாலும்	-4371
10	-4372
20	-4373
யும்	-4374
▁பிரப	-4375
▁வறிய	-4376
▁ஏற்பட	-4377
▁கும்ப	-4378
▁காட்டும்	-4379
ிக்கப்பட்டு	-4380
ப்பட்டிருந்த	-4381
ers	-4382
▁பூர	-4383
த்தார	-4384
▁தளபதி	-4385
படியால்	-4386
▁என்கிற	-4387
▁சமூகப்	-4388
▁பெற்றது	-4389
▁சீனாவின்	-4390
▁முடிவிற்கு	-4391
▁அதிகாரபூர்வ	-4392
▁தொழிலாளர்கள	-4393
னைப்	-4394
ள்ளி	-4395
▁நேப	-4396
▁ஆச்ச	-4397
▁ரஜின	-4398
விற்கு	-4399
▁மனைவி	-4400
படியினால்	-4401
▁புரிந்து	-4402
▁உடன்பாட்ட	-4403
▁ஏனென்றால்	-4404
▁ஒப்புக்கொ	-4405
▁St	-4406
▁ரை	-4407
னையை	-4408
ோகன்	-4409
▁வடக	-4410
வாங்க	-4411
▁அரபு	-4412
பின்பு	-4413
▁பெருவ	-4414
ிப்புக்	-4415
▁யூனியன்	-4416
க்கொண்டார்	-4417
▁செய்தித்த	-4418
▁முன்வைக்க	-4419
▁காலனித்துவ	-4420
எதிர	-4421
டுவது	-4422
▁பணிய	-4423
▁வியா	-4424
▁தொழிற	-4425
▁பங்கை	-4426
▁காட்டு	-4427
▁தன்மைய	-4428
▁அனுப்பி	-4429
▁வழியில்	-4430
▁வருகின்ற	-4431
▁23	-4432
ப்பே	-4433
வுள்ள	-4434
▁சொல்	-4435
▁உந்து	-4436
▁காக்க	-4437
▁தேர்வு	-4438
▁துறைமுக	-4439
▁விழாவில்	-4440
▁முடிந்தது	-4441
▁தயாரிப்பாளர்கள்	-4442
▁ஸ்ட்	-4443
▁உதாரண	-4444
▁மலையாள	-4445
ைகளிலும்	-4446
▁யாழ்ப்பாண	-4447
▁வருகின்றது	-4448
▁சுற்றி	-4449
▁திருமண	-4450
▁ஒடுக்கு	-4451
▁தெரிவித்தனர்	-4452
GT	-4453
▁ஊக	-4454
▁சாய	-4455
▁காஷ்	-4456
▁வர்ண	-4457
ாடுகளை	-4458
▁பலவீன	-4459
▁சூர்யா	-4460
▁மறுக்க	-4461
▁தாக்கல்	-4462
▁கர்த்தரின்	-4463
▁வாஷிங்டனின்	-4464
▁நடவடிக்கைகளில்	-4465
▁பொறுத்தவரையில்	-4466
சீர	-4467
ன்ட	-4468
font	-4469
ாண்டு	-4470
▁தெரி	-4471
▁பெயர	-4472
▁சரிவு	-4473
▁சீற்ற	-4474
பவர்கள்	-4475
ப்பிற்கு	-4476
▁வீடுகள்	-4477
▁இராணுவப்	-4478
▁உள்ளிட்ட	-4479
▁திருமணம்	-4480
▁நலன்களுக்கு	-4481
▁பிரிட்டனின்	-4482
▁பிரச்சாரத்தின்	-4483
இட	-4484
ஸ்கோ	-4485
▁சிக	-4486
▁தாய்	-4487
▁ஆழமான	-4488
▁வறுமை	-4489
▁விளைவ	-4490
▁ஒடுக்க	-4491
▁நாட்களில்	-4492
▁CIA	-4493
▁கோட	-4494
▁கடும்	-4495
▁தவறான	-4496
▁வியாழ	-4497
க்குகளை	-4498
ிலிருந்த	-4499
▁இலக்காக	-4500
▁உரிமையை	-4501
▁நிரந்தர	-4502
▁உயர்மட்ட	-4503
▁தெரிகிறது	-4504
▁இயக்கத்தின்	-4505
ழ்க	-4506
▁கச	-4507
▁கலக	-4508
▁லாப	-4509
▁பற்றிக்	-4510
க்குறித்து	-4511
த்தே	-4512
ன்ட்	-4513
ஸ்ட்ட	-4514
ார்ட்	-4515
ும்கூட	-4516
▁உயர்வ	-4517
▁கிளின்	-4518
▁இருக்கு	-4519
▁சம்மந்த	-4520
▁ஒப்புதல்	-4521
▁பதவிக்கு	-4522
செல	-4523
ீழ்	-4524
▁விழா	-4525
▁மோசேய	-4526
▁சரியான	-4527
த்திலேயே	-4528
▁அவ்வாறு	-4529
▁ஏற்பட்டுள்ள	-4530
ay	-4531
ுள்	-4532
்பட	-4533
▁பட்	-4534
சிங்க	-4535
ையற்ற	-4536
▁lang	-4537
▁குரு	-4538
▁சரிவ	-4539
ர்க்கு	-4540
▁காட்சி	-4541
▁குடியே	-4542
▁விலக்க	-4543
▁அதிகாரம்	-4544
▁வழங்கும்	-4545
▁நிறுவனங்களின்	-4546
ீர்வ	-4547
▁தூத	-4548
ாக்கள்	-4549
▁அதைப்	-4550
▁கொன்ற	-4551
▁பிளவு	-4552
▁புருஷ	-4553
▁பேரின	-4554
ப்புவாத	-4555
ாவையும்	-4556
டுவதற்கு	-4557
▁படங்களை	-4558
▁நிராகரிக்க	-4559
▁காலை	-4560
ளவிற்கு	-4561
வில்லைய	-4562
▁தங்கிய	-4563
▁தந்திர	-4564
▁திங்கள	-4565
▁குறைவான	-4566
▁சிராக்க	-4567
▁ஜப்பான்	-4568
▁தெரியும்	-4569
▁வேண்டாம்	-4570
▁முன்னெடுக்க	-4571
ia	-4572
ாபா	-4573
▁1980	-4574
▁சீரழ	-4575
▁எச்சர	-4576
▁பிரித்த	-4577
▁குடியேற்ற	-4578
▁கட்சிகளும்	-4579
▁நியூயோர்க்	-4580
▁பெருமளவில்	-4581
▁வேலைநிறுத்தம்	-4582
ஸ்லி	-4583
▁ஆளு	-4584
▁இச்ச	-4585
▁தென்	-4586
▁தொழிற்	-4587
▁வந்தார்	-4588
த்துக்காக	-4589
▁கொண்டுள்ளன	-4590
▁பாதுகாப்புப்	-4591
▁மாதங்களுக்கு	-4592
திவு	-4593
▁மது	-4594
ாமற்ப	-4595
ினின்	-4596
ளவிலான	-4597
தார்த்த	-4598
▁ஒளிப்ப	-4599
▁கூற்று	-4600
▁மாநாட்ட	-4601
▁இயக்கும்	-4602
▁கூடுதலாக	-4603
ந்துகொண்டு	-4604
▁திங்களன்று	-4605
▁முன்னெடுப்ப	-4606
▁ஆட	-4607
▁2005	-4608
▁மாலை	-4609
மாய்ப்	-4610
ையிலான	-4611
▁வளைகு	-4612
ியடைந்த	-4613
).	-4614
பிய	-4615
▁27	-4616
▁ஐய	-4617
▁நாக	-4618
▁விப	-4619
ிக்காக	-4620
▁போதும்	-4621
▁அளவிலான	-4622
▁யூதாவின்	-4623
தூ	-4624
தார	-4625
▁ரெ	-4626
ெதிர	-4627
▁பாள	-4628
▁அப்பட	-4629
▁வழிமுற	-4630
▁முயன்று	-4631
▁கிறிஸ்தவ	-4632
▁ஒத்துழைப்பு	-4633
▁செய்துள்ளது	-4634
▁திட்டமிட்டு	-4635
ரள	-4636
tic	-4637
ூட்ட	-4638
துதான்	-4639
▁எண்ணெய	-4640
▁திறந்த	-4641
▁பிரச்சனை	-4642
▁நடா	-4643
▁நால	-4644
▁நுக	-4645
▁ஊழல்	-4646
▁கவிழ	-4647
▁பதின	-4648
▁கட்டி	-4649
▁கொந்த	-4650
▁மறுத்துவ	-4651
▁நிகழ்ச்சி	-4652
▁செயல்பட்டு	-4653
▁மனைவ	-4654
▁வின்	-4655
▁அடக்க	-4656
▁தனிமை	-4657
▁நிற்ப	-4658
▁அக்கிரம	-4659
▁உறுதியான	-4660
ையிலிருந்து	-4661
▁கூட்டமைப்பு	-4662
ion	-4663
ர்ஜ	-4664
▁1,	-4665
லைக்	-4666
▁துண்ட	-4667
▁பாசிச	-4668
க்குழுவ	-4669
▁ஆசீர்வ	-4670
▁நிர்ணய	-4671
▁ஆண்டவர்	-4672
▁கொண்டுவந்த	-4673
மிழ	-4674
ிகொ	-4675
▁மை	-4676
த்தது	-4677
த்தன்	-4678
த்தாழ	-4679
ைகளைப்	-4680
▁கூறும்	-4681
▁அதற்குப்	-4682
▁கணக்கில்	-4683
▁சக்திகள்	-4684
▁இஸ்ரேலின்	-4685
▁விளைவுகளை	-4686
ித்துள்ளார்	-4687
▁நாடுகளுக்கு	-4688
ec	-4689
கன்	-4690
ிவாரண	-4691
▁திசை	-4692
ப்ரவரி	-4693
▁போராட	-4694
▁இணைந்த	-4695
▁பார்வை	-4696
▁மாற்று	-4697
▁இயக்கிய	-4698
ப்படுத்திய	-4699
ினிடத்தில்	-4700
▁ன்	-4701
▁குர	-4702
▁ஹெல	-4703
▁உரிய	-4704
க்குத்	-4705
▁முறையாக	-4706
▁ஸ்பெயின்	-4707
▁இயக்கத்தை	-4708
ro	-4709
▁எல	-4710
▁ஞாய	-4711
▁தளம்	-4712
▁அழைப்ப	-4713
▁வெறும்	-4714
முடியாது	-4715
▁வலதுசார	-4716
▁பூமியின்	-4717
க்த	-4718
னிச	-4719
▁த்ரி	-4720
▁வரிச	-4721
டியில்	-4722
பெரும்	-4723
▁கூப்ப	-4724
▁வெட்க	-4725
▁நினைவு	-4726
▁பிடித்த	-4727
▁மார்க்ச	-4728
▁மில்லிய	-4729
ப்பார்க்க	-4730
▁அரசியல்வாத	-4731
▁குற்றஞ்சாட்ட	-4732
▁பெரும்பான்மை	-4733
லோக	-4734
ியைப்	-4735
▁அற்ப	-4736
▁காமெ	-4737
▁நம்பிய	-4738
▁இருந்தனர்	-4739
▁நிறுவனத்தின்	-4740
▁செய்யப்பட்டது	-4741
ரோக	-4742
▁சேத	-4743
▁சாதன	-4744
ம்பரிய	-4745
ிப்பாக	-4746
▁சின்ன	-4747
▁அறிந்து	-4748
ாவிற்கும்	-4749
ிருந்தான்	-4750
▁அனுப்பின	-4751
▁நிறுத்தி	-4752
▁தயாரிக்கும்	-4753
தொரு	-4754
▁சுன	-4755
முற்ற	-4756
ையைப்	-4757
▁ஏவுக	-4758
▁அடங்க	-4759
▁அருகே	-4760
▁மோதல்	-4761
▁சிராக்	-4762
▁தண்டனை	-4763
▁புதிதாக	-4764
▁வனாந்தர	-4765
▁யுத்தத்திற்கு	-4766
▁கொல்லப்பட்டனர்	-4767
▁வலியுறுத்தினார்	-4768
▁d	-4769
ாதே	-4770
ாளி	-4771
▁லு	-4772
ாதுகா	-4773
ீடுகள்	-4774
▁பிரிய	-4775
▁வாழும்	-4776
▁தெளிவுபடுத்த	-4777
ாஜ	-4778
ine	-4779
நாய	-4780
ட்டது	-4781
▁அவளை	-4782
▁விடய	-4783
▁காண்க	-4784
▁அந்தத்	-4785
▁படையின	-4786
்களுக்கு	-4787
▁முன்மொழ	-4788
▁குண்டுவீ	-4789
▁பின்னால்	-4790
▁வருங்கால	-4791
▁வாக்குகள்	-4792
▁முடிவுக்கு	-4793
▁சார்க்கோசிய	-4794
▁கொடுத்துள்ளது	-4795
th	-4796
முத	-4797
ஜித்	-4798
போய்	-4799
ியாய	-4800
▁CGT	-4801
▁சீஷ	-4802
செய்த	-4803
த்தினை	-4804
▁உரையா	-4805
▁உள்பட	-4806
▁பிரபல	-4807
▁வியாப	-4808
▁வைக்கும்	-4809
ிருக்கிறோம்	-4810
ரன்	-4811
▁LCR	-4812
▁அரங்க	-4813
▁உயர்ந்து	-4814
தொ	-4815
சில	-4816
▁அத்த	-4817
▁பத்த	-4818
ப்பற்றி	-4819
▁செவ்வாய	-4820
▁பார்வைய	-4821
▁அளவுக்கு	-4822
▁மகிழ்ச்ச	-4823
ியிலிருந்து	-4824
ாவு	-4825
▁வசன	-4826
▁கோரிய	-4827
▁மக்களது	-4828
▁தொடர்புடைய	-4829
▁விளக்கினார்	-4830
▁உடன்படிக்கையை	-4831
.2	-4832
▁28	-4833
▁லி	-4834
▁புள	-4835
தேசிய	-4836
ுவார்	-4837
▁ஆவார்	-4838
▁வல்லு	-4839
▁அதிபர்	-4840
▁முற்று	-4841
▁பேரினவாத	-4842
▁பின்வாங்க	-4843
▁கட்டுப்பாட்டு	-4844
ுண	-4845
ாபி	-4846
▁நய	-4847
▁சின	-4848
▁இவரது	-4849
▁பின்த	-4850
▁சனிக்க	-4851
▁எழுந்து	-4852
▁தற்கொலை	-4853
ினிமித்தம்	-4854
▁கிராமப்புற	-4855
▁எதிர்பார்த்த	-4856
ரும	-4857
▁ஜி	-4858
ினது	-4859
ஸ்லிம்	-4860
▁திடீர	-4861
▁பொய்ய	-4862
ரீதியான	-4863
▁நடிப்ப	-4864
▁ஆச்சரிய	-4865
▁எவ்வளவு	-4866
▁கட்சிகளின்	-4867
▁கொழும்பில்	-4868
▁குறிப்பிட்டு	-4869
▁இரவு	-4870
▁மரிய	-4871
▁ஊதியம்	-4872
▁காட்டி	-4873
▁ஆட்சியின்	-4874
▁இதையொட்டி	-4875
▁எரிபொருள்	-4876
▁துருக்கிய	-4877
▁பாரம்பரிய	-4878
▁பெறுவதற்கு	-4879
▁இந்தியாவில்	-4880
▁தாக்குதலில்	-4881
கிற	-4882
ில்லை	-4883
▁சிப்ப	-4884
▁லேவிய	-4885
▁இவ்வித	-4886
▁உரிமைய	-4887
▁மாநாடு	-4888
▁செய்கிற	-4889
▁முன்னரே	-4890
.4	-4891
▁பச	-4892
▁சமு	-4893
▁பாழ	-4894
செலவு	-4895
▁அம்ம	-4896
▁பண்ப	-4897
▁வயதான	-4898
▁தலைநகர	-4899
▁மனுஷன்	-4900
▁உறவுகள்	-4901
▁எங்களது	-4902
▁செய்துக	-4903
▁வெளியில்	-4904
▁இருந்தால்	-4905
▁கூறப்பட்ட	-4906
வின	-4907
ோடி	-4908
▁சாலொ	-4909
ோடேகூட	-4910
▁குறைகூ	-4911
ிருங்கள்	-4912
மில்லாமல்	-4913
▁அவைகளின்	-4914
▁நெருக்கமாக	-4915
▁தொடர்ந்தும்	-4916
▁என்னிடத்தில்	-4917
நேர	-4918
ிலு	-4919
▁கீழே	-4920
▁என்பத	-4921
▁கோட்ப	-4922
ிருப்பதை	-4923
▁ஆதரிக்க	-4924
▁ஜோடியாக	-4925
▁சந்திக்க	-4926
▁ராஜாவின்	-4927
ue	-4928
வாச	-4929
ிலை	-4930
ரைப்	-4931
வாறு	-4932
0,000	-4933
தலால்	-4934
ன்பது	-4935
மைகளை	-4936
ுவந்த	-4937
▁கூடுதல்	-4938
▁பாதிக்க	-4939
▁ஊடகங்கள்	-4940
▁குழந்தைகள்	-4941
▁தொழில்துறை	-4942
▁பொதுமக்கள்	-4943
▁இயக்குகிறார்	-4944
▁விரும்பவில்லை	-4945
'.	-4946
EP	-4947
▁யு	-4948
ில்லா	-4949
▁பட்ஜ	-4950
▁லட்ச	-4951
மாய்க்	-4952
▁வீடுக	-4953
▁உண்மையை	-4954
▁குமாரர்	-4955
▁குறிப்பு	-4956
▁வாக்குறு	-4957
▁பற்றாக்குற	-4958
▁தேர்தலுக்கு	-4959
▁உங்களுக்குச்	-4960
org	-4961
ேர்	-4962
▁al	-4963
ாகப்	-4964
▁1999	-4965
▁நடுவ	-4966
ப்படுப	-4967
▁உயிர்	-4968
ங்களைத்	-4969
த்தன்மை	-4970
▁சீர்கு	-4971
▁அப்பட்ட	-4972
▁இப்படிய	-4973
▁உள்துறை	-4974
▁எப்படிய	-4975
▁முஸ்லிம்	-4976
▁விவசாயிகள்	-4977
மெ	-4978
ிவர	-4979
சியா	-4980
▁அரி	-4981
▁சமய	-4982
▁பெண	-4983
ையைத்	-4984
▁இளைய	-4985
▁கிலோ	-4986
வர்களு	-4987
ீட்டர்	-4988
ோக்கான	-4989
▁பொதுஜன	-4990
▁கீழ்ப்ப	-4991
ுகிறார்கள்	-4992
▁படையெடுப்ப	-4993
▁கொண்டுள்ளனர்	-4994
▁WS	-4995
▁இள	-4996
▁தட்டு	-4997
▁மறுசீர	-4998
▁முடிவை	-4999
▁இஸ்ரவேல	-5000
▁பிரதியு	-5001
▁பெருக்க	-5002
▁மின்சார	-5003
த்துக்கான	-5004
▁இடைக்கால	-5005
▁இரண்டும்	-5006
▁உளவுத்துறை	-5007
▁அரசியலமைப்ப	-5008
▁யுத்தத்தின்	-5009
ign	-5010
▁ஹு	-5011
ன்னி	-5012
▁சூற	-5013
▁டைம்	-5014
▁தண்ணீ	-5015
▁மேற்ப	-5016
▁உயர்வு	-5017
▁படமாக்க	-5018
▁அதிருப்த	-5019
விட்	-5020
ஸ்தல	-5021
▁அரே	-5022
▁கல்லூ	-5023
▁பிந்தைய	-5024
▁இலங்கையின்	-5025
வழ	-5026
.''	-5027
▁ஆள	-5028
ற்றை	-5029
ஞ்செய	-5030
▁சத்ய	-5031
▁ஆகியவ	-5032
▁அணிவகு	-5033
▁என்பதே	-5034
▁ஏற்றுக்	-5035
▁திருத்த	-5036
▁பொறுத்தவரை	-5037
▁பிரிவினைவாத	-5038
▁சம்பந்தப்பட்ட	-5039
▁தண	-5040
----	-5041
லால்	-5042
ந்தர்	-5043
ாவதாக	-5044
▁எட்ட	-5045
▁கோரி	-5046
்களின்	-5047
ப்பூர்வ	-5048
▁வெளிச்ச	-5049
▁வேலைகளை	-5050
ிவிட்டார்	-5051
▁திரும்பி	-5052
▁ரசிகர்கள்	-5053
▁கொடுத்தார்	-5054
▁கலந்துரையாட	-5055
▁பிராந்தியத்தில்	-5056
ஷன்	-5057
வட்ட	-5058
திகார	-5059
த்தொட	-5060
▁நட்ச	-5061
ாய்கள்	-5062
▁அதுவும்	-5063
▁நீதிபதி	-5064
▁முத்திர	-5065
▁வாழ்த்த	-5066
▁இடதுசாரி	-5067
▁துருக்கி	-5068
த்துக்குப்	-5069
▁குறிப்பிடுக	-5070
.'	-5071
பெய	-5072
மிய	-5073
▁காச	-5074
▁பாளய	-5075
லாந்து	-5076
▁மும்ப	-5077
ுவார்கள்	-5078
▁முடிவுகள்	-5079
▁சட்டத்தின்	-5080
▁ஆர்ப்பாட்டம்	-5081
மணி	-5082
▁தரை	-5083
ஞ்சிய	-5084
▁உடனே	-5085
▁இயற்ற	-5086
▁கடத்த	-5087
▁ஸ்தான	-5088
ைகளுடன்	-5089
▁பென்டகன்	-5090
வர்களுக்கும்	-5091
▁கட்டுப்பாட்டை	-5092
மிர	-5093
ிது	-5094
ண்டி	-5095
ொழில	-5096
்துற	-5097
க்கடவ	-5098
ுமாறு	-5099
▁அணுவ	-5100
▁குடி	-5101
▁போஜன	-5102
▁அதன்ப	-5103
▁இழப்ப	-5104
▁கூறுபா	-5105
▁நிராகர	-5106
▁லெபனான	-5107
ிக்கொள்வ	-5108
▁இவ்வாறு	-5109
▁உள்ளார்	-5110
▁முன்னோக்கு	-5111
▁எடுக்கப்பட்ட	-5112
க்கீ	-5113
▁கவு	-5114
ாமின்	-5115
▁கதையை	-5116
▁சோதனை	-5117
ின்றோம்	-5118
▁உயிரிழ	-5119
▁தலையீடு	-5120
▁சீர்குலை	-5121
▁கட்சியில்	-5122
▁முக்கியமாக	-5123
▁முயற்சிகளை	-5124
யை	-5125
les	-5126
▁29	-5127
லைப்	-5128
▁தளப	-5129
▁WSWS	-5130
▁இந்ந	-5131
▁உடல்	-5132
▁வேளை	-5133
▁இங்கே	-5134
▁ஊடகம்	-5135
▁கிருப	-5136
▁பேட்டி	-5137
▁விளையா	-5138
ியுங்கள்	-5139
▁பெலிஸ்த	-5140
▁நெருக்கடிக்கு	-5141
பை	-5142
ஜாத	-5143
▁அறி	-5144
ிருஷ்	-5145
▁ஒபாம	-5146
▁யோசே	-5147
▁இயற்க	-5148
▁நீங்க	-5149
▁பூர்வ	-5150
▁போஸ்ட்	-5151
ளிக்கும்	-5152
▁சுருக்க	-5153
வர்களையும்	-5154
▁சேனைகளின்	-5155
▁மூன்றாவது	-5156
▁பிரச்சாரத்தில்	-5157
ap	-5158
ial	-5159
ணன்	-5160
▁மீள	-5161
▁இதற்க	-5162
▁இயங்க	-5163
▁தாவீத	-5164
வேண்டும	-5165
லுக்கும்	-5166
▁அதேபோல்	-5167
▁கட்சித்	-5168
▁கூறினர்	-5169
▁சிகிச்ச	-5170
ைகளுக்கான	-5171
▁வெளிவந்த	-5172
▁செய்யப்பட	-5173
▁அனைத்துலகக்	-5174
▁சூழ்நிலையில்	-5175
11	-5176
▁டொ	-5177
▁நசு	-5178
▁இந்தி	-5179
ிருக்கு	-5180
▁வரலாறு	-5181
▁அப்பால்	-5182
▁வளர்ந்த	-5183
▁வழங்கிய	-5184
மாயிருக்கிற	-5185
▁செல்வாக்கை	-5186
▁செய்யவில்லை	-5187
ங்கர்	-5188
ொன்று	-5189
▁உத்த	-5190
▁ஊக்க	-5191
▁ஆயத்த	-5192
▁அக்கின	-5193
▁ஈரானுக்கு	-5194
▁நிறுத்தம்	-5195
▁முதலாளித்துவம்	-5196
ிள	-5197
▁ற	-5198
▁டு	-5199
▁அலை	-5200
▁வைப்ப	-5201
▁பணத்தை	-5202
▁பொழுது	-5203
▁எதிர்கொண்ட	-5204
▁கொண்டுவருவ	-5205
▁சுதந்திரம்	-5206
ow	-5207
னோ	-5208
ீஸ	-5209
sch	-5210
மாவ	-5211
ானே	-5212
▁Re	-5213
▁சஞ்ச	-5214
▁பஞ்ச	-5215
▁யூதா	-5216
▁அறிவு	-5217
▁மேலான	-5218
▁உதவும்	-5219
▁அகதிகள்	-5220
▁பின்னும்	-5221
ித்தார்கள்	-5222
▁மக்களுடைய	-5223
ிருக்கவில்லை	-5224
▁முக்கியத்துவ	-5225
DP	-5226
தின	-5227
▁இயல	-5228
வைகள்	-5229
▁தாமத	-5230
▁பொய்	-5231
தந்திர	-5232
லையில்	-5233
▁மீட்ப	-5234
▁கைதிகள்	-5235
▁பார்ப்ப	-5236
▁தொலைபேசி	-5237
▁மூன்றில்	-5238
▁பொருட்கள்	-5239
▁சித்திரவதை	-5240
▁எப்பொழுதும்	-5241
வரே	-5242
▁குண	-5243
த்தலை	-5244
▁இளம்	-5245
▁சந்ந	-5246
▁ஆதலால்	-5247
▁வேலைத்	-5248
▁ஜோர்ஜிய	-5249
▁திட்டமிட	-5250
▁மோட்டார்	-5251
▁கூட்டாட்சி	-5252
▁தியே	-5253
ிவைக்க	-5254
▁மிக்க	-5255
▁மாணவர்	-5256
▁வழியாக	-5257
▁எதிர்க்	-5258
▁பெருந்த	-5259
▁பொதுவான	-5260
▁வெளியான	-5261
▁வேலைக்கார	-5262
▁ஆத்திரமூட்ட	-5263
omm	-5264
லின	-5265
ிலி	-5266
ம்மா	-5267
▁and	-5268
▁சிதற	-5269
▁மாளிகை	-5270
▁எகிப்து	-5271
▁செய்கிறது	-5272
▁இருக்கலாம்	-5273
▁கோரிக்கையை	-5274
▁மறுபடியும்	-5275
்க்கு	-5276
▁உள்ளே	-5277
▁குதிர	-5278
▁செல்க	-5279
▁கருத்த	-5280
▁காலமாக	-5281
▁மேலதிக	-5282
▁தலிபான்	-5283
▁ஏற்றுமதி	-5284
▁குழுவில்	-5285
▁அளிக்கும்	-5286
▁குடிமக்கள்	-5287
▁தேர்தல்கள்	-5288
▁வகுப்புவாத	-5289
▁வாக்களிக்க	-5290
கட்ட	-5291
▁பான	-5292
▁ஆவர்	-5293
▁வீடு	-5294
ாளிகள்	-5295
▁அதைச்	-5296
▁அலுவல	-5297
ational	-5298
மார்க்க	-5299
▁உலகில்	-5300
▁கால்ஷீ	-5301
▁வலுவான	-5302
▁யாக்கோப	-5303
▁அறிவிப்பு	-5304
▁வெளியுறவுக்	-5305
ெர்	-5306
▁நம	-5307
ுவர்	-5308
▁500	-5309
▁வால	-5310
க்ஷ்ன்	-5311
தியும்	-5312
ிப்பதை	-5313
▁எதுவு	-5314
▁நடிகை	-5315
மையன்று	-5316
▁ஏப்பிர	-5317
▁சுமத்த	-5318
▁இதற்காக	-5319
▁சுதந்தர	-5320
▁பூராவும்	-5321
▁காயமடைந்த	-5322
.3	-5323
கொ	-5324
ன்கொ	-5325
▁கான	-5326
▁ஊர்வ	-5327
▁அஜித்	-5328
▁அதனது	-5329
▁அடித்து	-5330
▁சொல்லிய	-5331
▁அணுவாயுத	-5332
உலக	-5333
▁193	-5334
▁பொன்ன	-5335
▁போக்க	-5336
ுகையில்	-5337
ெனினும்	-5338
▁வெடிப்ப	-5339
▁அடிக்கடி	-5340
▁நகரத்தில்	-5341
▁கட்சிக்கார	-5342
▁எதிர்க்கட்ச	-5343
▁சொல்லுகிறேன்	-5344
▁ஷ்	-5345
▁பெள	-5346
ிகளைக்	-5347
▁தினம்	-5348
▁நடப்ப	-5349
▁சமுத்திர	-5350
▁மக்களில்	-5351
▁ரீதியில்	-5352
▁மருத்துவமன	-5353
▁Al	-5354
▁ம்	-5355
முன்ன	-5356
▁பிலி	-5357
வர்களாக	-5358
த்தினாலே	-5359
▁விளைவுகள்	-5360
▁கூட்டமைப்ப	-5361
▁பேட்டியில்	-5362
▁பற்றாக்குறை	-5363
▁குறிப்பிட்டது	-5364
ங்கை	-5365
▁புகழ	-5366
▁சவால்	-5367
்குமார்	-5368
▁கெர்ரி	-5369
▁நகரில்	-5370
▁ஆசியாவில்	-5371
▁நட்சத்திர	-5372
▁வலியுறுத்தி	-5373
▁தை	-5374
ங்கட	-5375
முன்	-5376
வெளி	-5377
▁குள	-5378
▁வேத	-5379
▁நூறு	-5380
▁பொன்	-5381
▁வக்கீ	-5382
▁வில்ல	-5383
லைகளில்	-5384
▁முன்கூ	-5385
▁வருஷம்	-5386
▁சம்பளம்	-5387
▁ராஜாக்க	-5388
▁கருத்தில்	-5389
▁பட்டியலில்	-5390
ப்பட்டிருந்தது	-5391
▁சட	-5392
▁300	-5393
▁லிய	-5394
▁கிரிய	-5395
▁செனட்	-5396
▁மாம்ச	-5397
த்தியது	-5398
▁அங்கீகர	-5399
▁ரீதியான	-5400
▁செய்தித்	-5401
▁மதிப்பீடு	-5402
டுத்துகிறது	-5403
▁என்பதற்காக	-5404
▁சென்னையில்	-5405
▁வேறுபாடுகள்	-5406
▁நடவடிக்கையில்	-5407
ab	-5408
க்கல்	-5409
ற்றது	-5410
ியானது	-5411
வருக்கு	-5412
▁இப்பிர	-5413
▁ஏமாற்ற	-5414
▁டேவிட்	-5415
▁நானும்	-5416
▁இவருடைய	-5417
▁திருப்த	-5418
ைகளுக்காக	-5419
▁எனக்குத்	-5420
▁வீட்டில்	-5421
▁இராணுவத்தை	-5422
▁இருக்கிறார்கள்	-5423
▁ஆர்ப்பாட்டங்கள்	-5424
TE	-5425
all	-5426
த்தள	-5427
ிவான	-5428
ெங்க	-5429
▁பேசி	-5430
▁மீறி	-5431
▁இரக்க	-5432
▁களில்	-5433
▁பரிசீல	-5434
▁படையினர்	-5435
▁எதிர்கொள்ளும்	-5436
டோ	-5437
ாலய	-5438
ல்ட்	-5439
▁எல்	-5440
▁கடல்	-5441
▁செல்	-5442
▁அப்பா	-5443
▁நீதிப	-5444
▁கிழக்க	-5445
▁மாதிரி	-5446
ாலத்தில்	-5447
▁நெருக்கட	-5448
▁முடிவில்	-5449
க்குவதற்கு	-5450
▁வேண்டுமென்ற	-5451
னித	-5452
ிரா	-5453
ேயா	-5454
▁நொ	-5455
வந்த	-5456
▁சிப	-5457
▁தரு	-5458
▁கடவு	-5459
ிட்டனர்	-5460
▁சுரங்க	-5461
▁மேற்கோ	-5462
▁காவலில்	-5463
▁விற்பனை	-5464
▁இவற்றின்	-5465
திலிருந்து	-5466
▁கட்டமைப்ப	-5467
ியர்	-5468
▁195	-5469
ருகிற	-5470
▁நேர்	-5471
சுக்கு	-5472
ையாவது	-5473
▁அதைத்	-5474
▁உறவுக	-5475
▁தென்ன	-5476
▁பெயரை	-5477
▁இந்தோன	-5478
▁பொதுக்	-5479
ாயிருப்ப	-5480
▁அடங்கும்	-5481
▁குமாரத்த	-5482
▁பிரமாண்ட	-5483
▁பேசினார்	-5484
▁செயல்பட்ட	-5485
▁வர்க்கத்திற்கு	-5486
ov	-5487
ணு	-5488
ேஷ்	-5489
கமான	-5490
த்தீ	-5491
▁சாம	-5492
▁பகை	-5493
▁கற்பன	-5494
ிப்பேன்	-5495
▁பொதுச்	-5496
ப்போதும்	-5497
ிப்பிற்கு	-5498
▁என்பதும்	-5499
▁கால்ஷீட்	-5500
▁தகவல்களை	-5501
▁கருத்துக்	-5502
▁கூறியதாவது	-5503
▁நிலைப்பாடு	-5504
▁எதிர்க்கும்	-5505
▁சிறுபான்மைய	-5506
▁மிகப்பெரும்	-5507
மிக	-5508
ல்ஸ்	-5509
ிராய	-5510
▁வடகொ	-5511
▁விசே	-5512
த்துப்	-5513
▁முறிய	-5514
ப்போகிற	-5515
▁ஆதிக்கம்	-5516
▁சட்டமன்ற	-5517
▁விக்கிரம	-5518
▁விளக்கம்	-5519
ிருக்கையில்	-5520
▁சுயாதீனமான	-5521
▁அமெரிக்காவை	-5522
▁கொண்டுவந்து	-5523
▁திட்டத்தின்	-5524
▁கொடுக்கப்பட்ட	-5525
ace	-5526
ம்க	-5527
ராத	-5528
ியைத்	-5529
க்குக்	-5530
சிவாஜி	-5531
த்தரமாக	-5532
▁இருபது	-5533
▁கார்த்த	-5534
▁அழைப்புவ	-5535
▁இவருக்கு	-5536
ிப்பதற்கான	-5537
▁வருவதற்கு	-5538
▁தொடங்கியது	-5539
▁காலத்திற்கு	-5540
MP	-5541
ail	-5542
ிகை	-5543
ேக்	-5544
ட்ரோ	-5545
▁மோத	-5546
▁தகுத	-5547
▁கவனம்	-5548
வனுக்கு	-5549
▁ஆபத்தான	-5550
▁டாக்டர்	-5551
▁செயல்படும்	-5552
ப்பார்க்கிலும்	-5553
▁ஆகியவற்றிற்கு	-5554
▁எவ்வாறெனினும்	-5555
▁வெளியிடப்பட்ட	-5556
▁பிரதியுத்தரமாக	-5557
.7	-5558
au	-5559
ity	-5560
நாங்கள்	-5561
ட்சியின்	-5562
▁பொருந்த	-5563
▁முதலீடு	-5564
▁வியாபார	-5565
▁விழுந்த	-5566
▁உயரடுக்க	-5567
▁ஒவ்வொருவ	-5568
▁வெற்றிபெ	-5569
▁பின்னரும்	-5570
▁உண்மையிலேயே	-5571
▁நீதிமன்றத்தில்	-5572
ஜீவ	-5573
நகர்	-5574
ப்பி	-5575
ோரிட	-5576
▁1998	-5577
வருமான	-5578
▁ஈடுபட	-5579
▁உடனடி	-5580
▁புகழ்	-5581
▁வாழ்க	-5582
▁ஆட்சிய	-5583
▁எதிரொல	-5584
▁மிரட்ட	-5585
▁வழிவகு	-5586
த்தாக்கு	-5587
▁தீர்ப்பு	-5588
▁இருப்பினும்	-5589
▁அனைவருக்கும்	-5590
▁இயக்குனர்கள்	-5591
கோ	-5592
ian	-5593
ிரி	-5594
தைவிட	-5595
ரிடம்	-5596
்பந்த	-5597
ட்பட்ட	-5598
பொழுது	-5599
முறையை	-5600
ள்ளேயே	-5601
▁கடற்க	-5602
▁நிபுண	-5603
▁ஷரோன்	-5604
▁சந்நித	-5605
▁பாக்தா	-5606
த்தாலும்	-5607
▁எழுச்சி	-5608
▁ஏறத்தாழ	-5609
▁பேட்டிய	-5610
▁மறுத்து	-5611
▁விளம்பர	-5612
▁அங்கீகார	-5613
▁வீழ்ச்சி	-5614
▁தலைப்பில்	-5615
▁நிலைமைகள்	-5616
ஸை	-5617
ுற	-5618
ess	-5619
ஜன்	-5620
▁ஜெப	-5621
லுடன்	-5622
▁அருவ	-5623
ாபிமான	-5624
ித்தல்	-5625
▁கெல்ல	-5626
▁படைத்த	-5627
▁போக்கை	-5628
▁ஆண்டின்	-5629
▁போலீசார	-5630
▁கலாச்சார	-5631
▁சிறையில்	-5632
▁நிர்பந்த	-5633
▁அடிப்படையாக	-5634
.6	-5635
ெள	-5636
▁சத	-5637
▁டய	-5638
▁தனு	-5639
▁தரிச	-5640
தாலும்	-5641
▁தோற்க	-5642
▁திரைக்க	-5643
▁தெருக்க	-5644
▁தேசியக்	-5645
▁வருவதாக	-5646
▁பகுதிகள்	-5647
▁வகையிலும்	-5648
த்துக்கொள்ள	-5649
▁படத்திற்கு	-5650
▁நடத்துவதற்கு	-5651
▁பயன்படுத்திக்	-5652
▁p	-5653
▁லீ	-5654
▁மித	-5655
▁பால்	-5656
க்குறை	-5657
▁போகிற	-5658
ிகளிடம்	-5659
▁கூறுவது	-5660
▁கைவிட்ட	-5661
க்காட்டுக	-5662
▁நிகழ்த்த	-5663
▁கட்சியுடன்	-5664
▁துப்பாக்கி	-5665
▁வரலாற்றில்	-5666
▁கோரிக்கைகளை	-5667
▁பிரச்சினைகளை	-5668
DU	-5669
tr	-5670
ூழ	-5671
மோன்	-5672
ரங்க	-5673
▁மார	-5674
▁மெள	-5675
ேயின்	-5676
ிகளைப்	-5677
▁கிழமை	-5678
▁கேட்ப	-5679
ருகின்ற	-5680
▁பொல்லா	-5681
▁மறைமுக	-5682
▁அவசரகால	-5683
▁நிகழ்வு	-5684
▁நிகழ்ந்த	-5685
▁தீர்க்கதரி	-5686
▁கொடுத்துள்ள	-5687
▁பின்னணியில்	-5688
▁காட்டுகின்றன	-5689
ah	-5690
▁அபி	-5691
▁தேட	-5692
டையும்	-5693
▁குறைவ	-5694
▁ஷ்ரோட	-5695
▁பாரிஸ்	-5696
▁பில்லிய	-5697
▁விரைவாக	-5698
▁சந்தித்த	-5699
▁மோதல்கள்	-5700
▁வாக்காளர்கள்	-5701
▁35	-5702
ந்தை	-5703
ீடுக	-5704
ைகளு	-5705
▁கல்	-5706
▁அடிப	-5707
▁எனத்	-5708
தென்று	-5709
ள்ளும்	-5710
▁கெட்ட	-5711
▁நடுவே	-5712
▁முகம்	-5713
▁மெய்ய	-5714
வரியில்	-5715
ுகிறோம்	-5716
▁கேரக்ட	-5717
▁முன்பே	-5718
ளித்தார்	-5719
ிப்பதில்	-5720
▁வாங்கிய	-5721
▁வைத்திய	-5722
▁கேட்டுக்	-5723
▁தீர்மானம்	-5724
ாயிருக்கும்	-5725
▁போருக்குப்	-5726
▁மக்களிடையே	-5727
▁மேலாதிக்கம்	-5728
▁வெளியிட்டது	-5729
▁வரவிருக்கும்	-5730
▁கொள்கைகளுக்கு	-5731
.8	-5732
ாவி	-5733
▁the	-5734
▁ஏதே	-5735
▁சிய	-5736
▁ரவி	-5737
ியிலே	-5738
▁அஸ்த	-5739
▁கையா	-5740
▁இன்றி	-5741
மடைந்து	-5742
ுவிட்டு	-5743
▁கடிதம்	-5744
▁இயந்திர	-5745
▁பகுதியை	-5746
▁படிப்பின	-5747
▁தொழிற்சாலை	-5748
ப்படுகின்றனர்	-5749
▁உற்பத்தியில்	-5750
ாய்வ	-5751
▁அழக	-5752
▁சேம	-5753
▁மூழ்க	-5754
▁அமுல்ப	-5755
▁ஸ்தாபன	-5756
முறையில்	-5757
▁அச்சுறு	-5758
▁நீடித்த	-5759
▁இவற்றில்	-5760
▁சர்வாங்க	-5761
▁முறையின்	-5762
▁நடைபெறும்	-5763
▁முதலீட்டு	-5764
▁இருப்பதால்	-5765
▁ட்ரொட்ஸ்கி	-5766
▁தெரிவித்தது	-5767
▁பிரச்சினைகள்	-5768
ண்மை	-5769
▁ஆலை	-5770
▁லிப	-5771
ல்லாத	-5772
▁ஆங்க	-5773
டையில்	-5774
▁எனும்	-5775
▁கையாள	-5776
▁தூதரக	-5777
▁பாக்த	-5778
▁மிகத்	-5779
▁உண்டான	-5780
▁தனித்த	-5781
▁தொடர்க	-5782
▁இருப்பு	-5783
▁எருசலேம	-5784
ெல்லாரும்	-5785
▁ஒருவரும்	-5786
▁ஆட்சியில்	-5787
▁இசையமைப்ப	-5788
▁இப்போதும்	-5789
▁கடைசியில்	-5790
ப்பண்ணுவேன்	-5791
▁எதிராகவும்	-5792
▁கையெழுத்து	-5793
▁உருவாக்கும்	-5794
▁பிரித்தானிய	-5795
▁தொடர்ச்சியாக	-5796
▁வருகிறார்கள்	-5797
ஞர்	-5798
டம்	-5799
▁அஜ	-5800
ுமொரு	-5801
▁சேகர	-5802
▁ஷியை	-5803
▁அவனைக்	-5804
▁சத்திய	-5805
▁லட்சம்	-5806
▁முடிவுக	-5807
ிருக்கலாம்	-5808
▁நடிகர்கள்	-5809
▁மாதத்தில்	-5810
ித்துக்கொண்ட	-5811
▁ஆகியவற்றில்	-5812
▁சந்தேகத்திற்கு	-5813
க்ச	-5814
▁Un	-5815
ம்பி	-5816
▁SEP	-5817
▁தீய	-5818
▁1970	-5819
▁அண்ண	-5820
▁இதுவே	-5821
வருமாறு	-5822
▁ஆயிரம்	-5823
▁கண்டது	-5824
▁சிந்தன	-5825
▁மனுஷர்	-5826
▁வருவது	-5827
▁எடுக்கும்	-5828
▁காட்டியது	-5829
▁நடத்தினர்	-5830
▁சினிமாவில்	-5831
▁திட்டத்தில்	-5832
▁குறைந்தபட்சம்	-5833
▁திட்டத்திற்கு	-5834
மாற	-5835
இடது	-5836
சில்	-5837
ஜிங்	-5838
க்கிற	-5839
▁ஐம்ப	-5840
▁பாபில	-5841
▁தத்துவ	-5842
▁தீட்டு	-5843
▁பழங்கு	-5844
▁புள்ளி	-5845
▁வளைகுடா	-5846
▁உண்டாக்க	-5847
▁திருப்பி	-5848
▁வாக்களித்த	-5849
▁போராட்டத்தின்	-5850
▁பிரதிநிதித்துவ	-5851
GB	-5852
▁70	-5853
▁குஷ	-5854
புறம்	-5855
▁இயல்ப	-5856
ங்களைச்	-5857
▁சரியாக	-5858
▁உரையில்	-5859
▁பிரிவின	-5860
ங்களுக்கான	-5861
▁சுற்றிலும்	-5862
▁நடைபெற்றது	-5863
ப்படுகின்றது	-5864
▁செய்யப்படும்	-5865
▁உறுப்பினர்களை	-5866
man	-5867
தாய்	-5868
ிலிய	-5869
▁வீச	-5870
▁உறவு	-5871
▁கேரள	-5872
▁பெர்	-5873
ப்பொரு	-5874
▁அமைதி	-5875
▁கோரும்	-5876
▁சக்திவ	-5877
▁மோசமாக	-5878
▁தகப்பன்	-5879
▁போலந்து	-5880
▁விரிவான	-5881
▁இருப்பதை	-5882
▁வாழ்ந்து	-5883
ிடத்திற்கு	-5884
▁செய்திகள்	-5885
▁திட்டவட்ட	-5886
▁நிறுவனமான	-5887
▁வேண்டுகோள்	-5888
▁எதிர்பார்ப்ப	-5889
▁கொல	-5890
▁Fran	-5891
ஜனநாயக	-5892
▁ஆபிரக	-5893
▁மண்டல	-5894
ிருப்பு	-5895
▁திடீர்	-5896
▁பேசும்	-5897
▁உச்சிமா	-5898
▁சபையின்	-5899
▁நினைத்த	-5900
▁பிரகாஷ்	-5901
▁வந்தபோது	-5902
ிருக்கின்ற	-5903
▁வாக்குப்ப	-5904
▁பின்வருமாறு	-5905
BC	-5906
நாத	-5907
்கள	-5908
ார்வ	-5909
ப்போன	-5910
▁1991	-5911
▁பலிய	-5912
ப்பட்ச	-5913
▁சமயம்	-5914
ப்பண்ணி	-5915
▁வருத்த	-5916
ட்டுள்ளது	-5917
▁குறிக்கோ	-5918
▁சொந்தமான	-5919
▁கிறிஸ்துவ	-5920
▁பேச்சாளர்	-5921
▁போவதில்லை	-5922
▁என்பதற்கான	-5923
▁தொழிற்துறை	-5924
▁கூறப்பட்டது	-5925
▁நடத்தப்படும்	-5926
▁சார்க்கோசியின்	-5927
iv	-5928
யார	-5929
▁ஓட	-5930
நம்ப	-5931
ராஜா	-5932
தித்து	-5933
பாதுகா	-5934
▁வென்ற	-5935
▁சராசரி	-5936
▁பலரும்	-5937
▁ஈராக்கை	-5938
▁தலையங்க	-5939
▁குறைத்து	-5940
▁சீனாவில்	-5941
த்தினாலும்	-5942
▁பகிர்ந்து	-5943
▁பொருளாதாரத்தை	-5944
ak	-5945
காத	-5946
டியை	-5947
த்தொ	-5948
ிராத	-5949
ொள்க	-5950
▁ஏதோ	-5951
▁நெற	-5952
மூலம்	-5953
ிலில்	-5954
▁ஒட்ட	-5955
▁சிறுவ	-5956
▁தள்ளு	-5957
▁வந்தன	-5958
▁விற்க	-5959
க்கட்சி	-5960
▁எழுத்த	-5961
ட்படுத்த	-5962
▁அங்கத்த	-5963
▁அமைப்பை	-5964
▁இருந்தே	-5965
▁நடுவில்	-5966
▁ஆராய்ச்ச	-5967
▁இதுபோன்ற	-5968
▁எனக்குச்	-5969
▁முன்னால்	-5970
EA	-5971
ச்சல	-5972
▁கண்	-5973
▁மாய	-5974
னைகள்	-5975
▁தேவன	-5976
▁பதிவ	-5977
▁பரபர	-5978
ிடுவது	-5979
▁சேர்ப	-5980
▁தேவனை	-5981
▁கர்ப்ப	-5982
▁நாளில்	-5983
▁அந்தஸ்த	-5984
▁குற்றம்ச	-5985
▁தெரியாது	-5986
▁பொறுப்பை	-5987
▁எனப்படும்	-5988
▁அனைவரையும்	-5989
▁கட்டத்தில்	-5990
▁பொருளாதாரத்தின்	-5991
JP	-5992
od	-5993
வீர	-5994
வான்	-5995
▁எலிய	-5996
யாகும்	-5997
▁சூரிய	-5998
ாய்ந்து	-5999
▁இறக்கு	-6000
▁கம்பென	-6001
ர்களிடம்	-6002
ர்க்கும்	-6003
▁தடவையாக	-6004
▁புள்ளிவ	-6005
▁சூழ்நிலை	-6006
▁சொன்னார்	-6007
▁வைத்துக்	-6008
த்துக்குள்	-6009
▁தேசத்தில்	-6010
▁நாடுகளும்	-6011
?"	-6012
ாங்	-6013
ாமல	-6014
▁ரே	-6015
▁கைத	-6016
▁பயன	-6017
ிவந்த	-6018
▁அண்ட	-6019
▁அபாய	-6020
▁கோட்ட	-6021
▁நேபாள	-6022
▁பெண்ண	-6023
▁வசனம்	-6024
ரித்துவ	-6025
▁தீவின்	-6026
▁தூக்கி	-6027
▁வேண்டு	-6028
▁பெண்கள்	-6029
▁போர்க்கு	-6030
▁கொள்கையின்	-6031
▁கலந்துகொண்ட	-6032
ஸி	-6033
▁திம	-6034
▁மலை	-6035
▁ரம்	-6036
ட்கள்	-6037
ற்சாக	-6038
▁எளித	-6039
▁ஐந்த	-6040
▁கமிஷ	-6041
மென்று	-6042
▁அலங்க	-6043
▁வடிவே	-6044
▁பதவியை	-6045
▁சூப்பர்	-6046
▁பரிந்து	-6047
▁வழக்கறி	-6048
க்கத்தில்	-6049
ையின்மேல்	-6050
▁ஜப்பானிய	-6051
▁நிற்கும்	-6052
▁பேர்லின்	-6053
▁வருமானம்	-6054
▁ட்ரொட்ஸ்கிச	-6055
▁நூற்றாண்டின்	-6056
ச்சை	-6057
▁கெள	-6058
றிந்த	-6059
ல்லிய	-6060
வரின்	-6061
க்குச்	-6062
▁அறிகு	-6063
▁கட்டண	-6064
▁கார்ட	-6065
▁நம்பக	-6066
▁பாரிச	-6067
▁வருகை	-6068
அரசியல்	-6069
ர்களால்	-6070
▁எந்தப்	-6071
▁ரூபாய்	-6072
படுத்துவ	-6073
▁பழமைவாத	-6074
▁வந்தனர்	-6075
▁விகிதம்	-6076
▁குறைப்பு	-6077
▁கேட்டார்	-6078
▁பெய்ஜிங்	-6079
▁காட்சிகள்	-6080
▁திரும்பப்	-6081
ாவிலிருந்து	-6082
▁உருவாக்குவ	-6083
ப்படுவார்கள்	-6084
▁கட்டுரையில்	-6085
▁சுதந்திரமான	-6086
▁எச்சரித்தார்	-6087
SA	-6088
டந்த	-6089
ரீட்	-6090
ஸ்கி	-6091
▁ஷெர	-6092
▁பராம	-6093
த்தவிர	-6094
த்தோடே	-6095
▁வரம்ப	-6096
▁தடைகள்	-6097
்களையும்	-6098
▁புளோரிட	-6099
த்துகிறது	-6100
▁தேவையில்	-6101
▁துப்பாக்க	-6102
▁நெருங்கிய	-6103
▁அதிகரிக்கும்	-6104
our	-6105
ழுத	-6106
▁லூ	-6107
▁மீன	-6108
▁ஹால	-6109
தானது	-6110
மாகவே	-6111
▁விபர	-6112
கர்கள்	-6113
ங்களான	-6114
வர்களே	-6115
▁தம்மை	-6116
▁தியாக	-6117
ிப்பின்	-6118
▁தெளிவு	-6119
ையின்படி	-6120
▁கொள்ளைய	-6121
▁தடையற்ற	-6122
எதிர்ப்பு	-6123
ல்களையும்	-6124
▁அவர்களைப்	-6125
▁கிளின்டன்	-6126
▁கூறப்படும்	-6127
▁நிலவுகின்ற	-6128
▁உள்நாட்டுப்	-6129
▁நடைமுறையில்	-6130
▁பாக்கிஸ்தானிய	-6131
▁விக்கிரமசிங்க	-6132
SP	-6133
▁c	-6134
பர்	-6135
imes	-6136
திரு	-6137
▁பகு	-6138
▁பப்	-6139
பற்றி	-6140
ப்போம்	-6141
ப்போய்	-6142
▁ஆசியா	-6143
னுக்காக	-6144
▁இடைவிட	-6145
▁ஒருதலை	-6146
▁த்ரிஷா	-6147
▁போகும்	-6148
ப்படாமல்	-6149
▁ஈரானின்	-6150
▁சிறப்பாக	-6151
▁படைகளின்	-6152
ிலிருக்கிற	-6153
▁கட்டியெழு	-6154
▁அறிக்கைகள்	-6155
▁வாக்கெடுப்ப	-6156
▁அமெரிக்காவும்	-6157
ப்படுத்துவதற்கு	-6158
மாஜ	-6159
▁மஹ	-6160
வைகள	-6161
ாவிய	-6162
ையாய	-6163
ாட்டி	-6164
▁மொழி	-6165
ற்றும்	-6166
▁மேம்ப	-6167
ரீதியாக	-6168
▁சுதந்த	-6169
▁மடங்கு	-6170
▁அரசுகள்	-6171
▁கட்சியின	-6172
▁மாபெரும்	-6173
▁விருப்பம்	-6174
▁விடுத்தார்	-6175
▁செய்யப்பட்டு	-6176
▁உருவாக்கப்பட்ட	-6177
ர்ட	-6178
ாசன	-6179
ிணை	-6180
▁க்	-6181
ங்கொ	-6182
தைச்	-6183
▁முகா	-6184
▁காவல்	-6185
▁சண்டை	-6186
▁க்கும்	-6187
▁விஜயம்	-6188
▁நாடுகளை	-6189
த்தினதும்	-6190
ப்படுகின்ற	-6191
▁ஒருபோதும்	-6192
▁வெள்ளிக்க	-6193
ிலிருந்தும்	-6194
▁பாதிக்கும்	-6195
மாயிருக்கும்	-6196
▁விசாரணைக்கு	-6197
▁கொண்டிருந்தார்	-6198
se	-6199
டர்	-6200
த்ம	-6201
மட்ட	-6202
▁நிழ	-6203
கொண்ட	-6204
ரேனிய	-6205
▁கலவர	-6206
▁நாற்ப	-6207
அரசாங்க	-6208
களையும்	-6209
ப்புகள்	-6210
ையினால்	-6211
▁இழப்பு	-6212
▁உற்சாக	-6213
▁தளத்தில்	-6214
▁விடையிறு	-6215
▁என்கிறார்	-6216
▁இந்நிலையில்	-6217
▁தோன்றுகிறது	-6218
▁வேண்டுமென்று	-6219
ill	-6220
ஜ்ப	-6221
நான	-6222
நாம	-6223
பால	-6224
▁80	-6225
ானின்	-6226
▁கான்	-6227
▁நாடக	-6228
▁மூடி	-6229
▁அர்ப்ப	-6230
▁உறுப்பு	-6231
▁விவாதம்	-6232
▁கூறுகிறார்	-6233
▁சக்திகளின்	-6234
▁இப்படிப்பட்ட	-6235
▁அரசாங்கத்தால்	-6236
▁தொழிலாளர்களும்	-6237
ாசிய	-6238
ெட்ட	-6239
▁ஆணை	-6240
▁துத	-6241
குமார	-6242
மாகப்	-6243
▁சமுக	-6244
▁ஞாயிற	-6245
ல்களும்	-6246
▁இயற்கை	-6247
▁தொடர்வ	-6248
▁மறைக்க	-6249
நாட்டின்	-6250
ியாகவும்	-6251
▁என்னைக்	-6252
▁காணாமல்	-6253
▁துல்லிய	-6254
▁அவற்றில்	-6255
▁ஆதரவுடன்	-6256
▁பெற்றார்	-6257
▁அவர்களைக்	-6258
▁நகரத்தின்	-6259
▁நிறுத்துவ	-6260
▁பிரதேசத்தில்	-6261
ிக்கப்பட்டுள்ள	-6262
▁அறிவிக்கப்பட்ட	-6263
CI	-6264
ரசு	-6265
சமாஜ	-6266
நீதி	-6267
ாவிட	-6268
▁SPD	-6269
ந்தின்	-6270
▁கூறுவ	-6271
▁ரொம்ப	-6272
க்குட்ட	-6273
▁இழந்து	-6274
▁சாக்கு	-6275
ப்படுத்து	-6276
▁கட்டுமான	-6277
▁தலைவரும்	-6278
▁என்றுதான்	-6279
▁யூரோக்கள்	-6280
▁கூறுகையில்	-6281
▁கொள்ளவில்லை	-6282
▁எடுத்துக்கொள்ள	-6283
ich	-6284
▁400	-6285
▁ஒளிபர	-6286
▁தூக்க	-6287
▁வேறுவ	-6288
▁அப்புற	-6289
▁இரத்து	-6290
▁சிரியா	-6291
▁வருடம்	-6292
▁விடும்	-6293
▁குறைகூற	-6294
ெடுக்கும்	-6295
▁புகைப்பட	-6296
▁உருவாக்கிய	-6297
▁வாக்கெடுப்பு	-6298
▁வாரங்களுக்கு	-6299
ne	-6300
ர்த்	-6301
▁இறை	-6302
▁கர்	-6303
▁நம்ம	-6304
▁பிஜே	-6305
ிழக்கு	-6306
▁அத்திய	-6307
▁தஞ்சம்	-6308
▁பட்சம்	-6309
▁தேர்தலை	-6310
▁தேவைகளை	-6311
▁மூலமும்	-6312
▁குறைந்து	-6313
ிக்கின்றது	-6314
▁தேவனுக்கு	-6315
▁பொதுமக்கள	-6316
▁மார்க்சிச	-6317
▁கட்டமைப்பு	-6318
▁ஜனாதிபதியாக	-6319
ean	-6320
ட்ர	-6321
▁குஜ	-6322
▁கொச	-6323
ப்பன்	-6324
ான்ஸ்	-6325
▁பாவந	-6326
▁சிக்கன	-6327
▁சிறிது	-6328
ரியாவின்	-6329
▁அதுதான்	-6330
▁உத்தரவு	-6331
▁பணக்கார	-6332
▁எனக்குக்	-6333
▁ஏப்பிரல்	-6334
▁என்பதுடன்	-6335
▁தகப்பனாகிய	-6336
▁வேட்பாளராக	-6337
▁கட்டுப்பாடு	-6338
▁அழைக்கப்பட்ட	-6339
▁ஏற்பட்டுள்ளது	-6340
▁வெளியிட்டுள்ள	-6341
▁அதிகரித்துள்ளது	-6342
சாமி	-6343
▁இம்	-6344
▁தீப	-6345
▁அதிர	-6346
▁அல்க	-6347
▁வண்ண	-6348
ிரண்டு	-6349
ுகரமான	-6350
▁நயன்த	-6351
▁நிலவர	-6352
ாலையில்	-6353
▁இல்லைய	-6354
▁தேவாலய	-6355
▁பரவலாக	-6356
▁பொதுத்	-6357
மைக்கும்	-6358
▁வாடிக்க	-6359
▁கண்ணோட்ட	-6360
▁தீவிரமான	-6361
▁விழுந்து	-6362
▁வெடிப்பு	-6363
▁செலுத்துவ	-6364
▁புறப்பட்ட	-6365
▁போராளிகள்	-6366
▁தொடர்பாளர்	-6367
▁எதிர்ப்புக்	-6368
நூ	-6369
▁De	-6370
▁ஆற	-6371
▁பூஜ	-6372
ாரின்	-6373
▁கற்க	-6374
▁வான்	-6375
▁align	-6376
▁எழுதி	-6377
▁மின்ன	-6378
▁ஆற்றல்	-6379
▁இறந்து	-6380
ிக்கின்றன	-6381
▁சொன்னான்	-6382
▁தாவீதின்	-6383
▁பெருவணிக	-6384
▁நிச்சயமாக	-6385
க்களுக்கும்	-6386
▁செலுத்தும்	-6387
▁அடிப்படைவாத	-6388
▁நடவடிக்கைக்கு	-6389
மனை	-6390
▁ரு	-6391
ச்சே	-6392
▁எங்கே	-6393
ற்றுடன்	-6394
ின்கீழ்	-6395
▁ஆயுதம்	-6396
▁விஷயம்	-6397
▁மொத்தம்	-6398
ன்மார்க்க	-6399
▁நியாயமான	-6400
▁அடக்குமுறை	-6401
▁காட்டிக்கொ	-6402
▁குமாரத்திய	-6403
▁சத்துருக்க	-6404
▁நகரங்களில்	-6405
▁தெரியவில்லை	-6406
▁இதற்கிடையில்	-6407
.1	-6408
ேப	-6409
அது	-6410
ச்செ	-6411
▁UMP	-6412
▁தால	-6413
லங்கா	-6414
ழ்த்த	-6415
▁களின்	-6416
▁நகரம்	-6417
▁வட்டி	-6418
▁ஹெஸ்ப	-6419
ானுக்கு	-6420
▁சம்பாத	-6421
டுகின்றன	-6422
மாக்கும்	-6423
▁எதிர்நோ	-6424
▁கொஞ்சம்	-6425
▁செல்வம்	-6426
▁திறந்து	-6427
▁நித்திய	-6428
▁வாசஸ்தல	-6429
▁விக்ரம்	-6430
ந்துகொள்வ	-6431
▁துறையில்	-6432
த்தில்தான்	-6433
ிக்கொள்ளும்	-6434
▁உடன்பாட்டை	-6435
▁எண்ணிக்கையை	-6436
▁செய்யவேண்டும்	-6437
சம்	-6438
▁சரத	-6439
▁வரவ	-6440
▁2009	-6441
▁உம்ம	-6442
▁தரம்	-6443
திற்கு	-6444
ாவிடம்	-6445
ிப்போக	-6446
▁குரல்	-6447
▁தேசம்	-6448
▁நீதிய	-6449
▁பலத்த	-6450
▁பைனான்	-6451
▁வெளிநா	-6452
▁சபையில்	-6453
ிழமையன்று	-6454
▁பாதிப்பு	-6455
▁சந்தித்து	-6456
▁சந்தையில்	-6457
▁வாரங்களில்	-6458
▁வெளியிட்டு	-6459
▁முன்னணியின்	-6460
▁அச்சுறுத்தலை	-6461
▁நெருக்கடியில்	-6462
▁இருக்கவேண்டும்	-6463
EN	-6464
கூ	-6465
▁h	-6466
சுத	-6467
வனை	-6468
▁துய	-6469
▁அபிஷ	-6470
▁கஷ்ட	-6471
▁திபெ	-6472
▁ஹிட்	-6473
செய்து	-6474
▁கோருவ	-6475
▁துரோக	-6476
▁புகார்	-6477
▁சமாதானப்	-6478
▁ஞாயிறன்று	-6479
▁பொருட்களை	-6480
▁விரோதமாய்	-6481
▁விமானங்கள்	-6482
▁முன்கூட்டிய	-6483
▁அதிகாரத்துவம்	-6484
▁மி	-6485
ஜென்	-6486
மேக்	-6487
ியடை	-6488
▁சது	-6489
▁புவ	-6490
▁மோவ	-6491
ளுக்க	-6492
ஸ்டர்	-6493
▁காவல	-6494
▁தவறு	-6495
▁அதிலே	-6496
▁உறவின	-6497
▁கருணா	-6498
▁சிம்ப	-6499
▁ரிலீஸ	-6500
▁தப்புவ	-6501
▁தர்க்க	-6502
▁பெற்றோ	-6503
▁பணியில்	-6504
▁போன்றவை	-6505
▁சதவீதமாக	-6506
▁முறைக்கு	-6507
▁வழக்கில்	-6508
▁வீரர்கள்	-6509
▁முயற்சியை	-6510
▁உள்நாட்டில்	-6511
▁ஒப்பந்தத்தை	-6512
▁ஜனங்களுக்கு	-6513
▁அமெரிக்காவுடன்	-6514
மர	-6515
tern	-6516
▁படு	-6517
ும்பு	-6518
▁face	-6519
▁ஹோவர	-6520
▁இலக்க	-6521
▁பெண்க	-6522
மையுடன்	-6523
▁இலாபம்	-6524
▁ஆதரவைக்	-6525
▁குறைப்ப	-6526
▁யாவரும்	-6527
ெங்கிலும்	-6528
▁செய்யவும்	-6529
▁பணியாற்றி	-6530
ாவிட்டாலும்	-6531
▁குற்றவியல்	-6532
▁விரும்பும்	-6533
▁படங்களுக்கு	-6534
▁வார்த்தைகளை	-6535
▁ஏகாதிபத்தியம்	-6536
ூர	-6537
▁யெ	-6538
▁கதவ	-6539
▁ஹமா	-6540
ாவைப்	-6541
▁1930	-6542
▁தழுவ	-6543
▁பணிப	-6544
▁புலி	-6545
▁செலவழ	-6546
க்கிறது	-6547
ிலாந்து	-6548
▁இறப்பு	-6549
▁ஓடிப்ப	-6550
▁சார்பு	-6551
▁லண்டன்	-6552
ிமித்தம்	-6553
க்கொண்டது	-6554
▁அலுவலகம்	-6555
▁எப்பிராய	-6556
▁தயாரித்த	-6557
▁விக்கிரக	-6558
▁தற்பொழுது	-6559
▁ஸ்ரீலங்கா	-6560
▁நிராகரித்த	-6561
▁மனிதாபிமான	-6562
▁செய்தியாளர்	-6563
CF	-6564
ub	-6565
ork	-6566
ுமா	-6567
▁கிளை	-6568
▁ஜாக்	-6569
▁முனை	-6570
ிலாந்த	-6571
▁எங்கள	-6572
▁கொடூர	-6573
▁மிகச்	-6574
▁துண்டு	-6575
▁பணிகள்	-6576
ப்புள்ளி	-6577
▁பின்னடை	-6578
▁என்பதைக்	-6579
▁ஜனநாயகம்	-6580
▁பாபிலோன்	-6581
மாயிருந்தது	-6582
▁இராஜதந்திர	-6583
▁உத்தரவாதம்	-6584
▁சனிக்கிழமை	-6585
▁வந்தார்கள்	-6586
▁கூறுகின்றனர்	-6587
▁வேண்டுமென்றே	-6588
ய்தா	-6589
வைக்	-6590
▁காசா	-6591
▁கிளி	-6592
சமாஜக்	-6593
▁ஒப்பட	-6594
▁திறன்	-6595
▁நம்மை	-6596
த்துள்ள	-6597
ார்த்து	-6598
▁இடைவெள	-6599
▁ஒருவரை	-6600
▁மாற்றி	-6601
▁என்னைப்	-6602
▁ஏதேனும்	-6603
▁கொன்றுபோ	-6604
▁பிரிந்து	-6605
▁எப்போதும்	-6606
▁காட்டினார்	-6607
▁சமத்துவமின்	-6608
▁பெற்றுள்ளது	-6609
▁இருந்தார்கள்	-6610
▁கொண்டுள்ளார்	-6611
▁விரும்புகிறது	-6612
பயங்கரவாதத்தின்	-6613
st	-6614
இல	-6615
ell	-6616
நிதி	-6617
ாலம்	-6618
▁மடி	-6619
▁நாலு	-6620
▁யில்	-6621
றுப்பு	-6622
▁திவால	-6623
▁இயேசுவ	-6624
▁குறைவு	-6625
▁கொந்தள	-6626
▁சுன்னி	-6627
▁ஜனங்கள	-6628
▁பெய்ஜி	-6629
▁அமையும்	-6630
▁ஆகிலும்	-6631
▁நிதியம்	-6632
ப்பட்டால்	-6633
▁வாழ்த்து	-6634
▁நடத்தியது	-6635
▁தந்திரோபாய	-6636
▁பங்களிப்பு	-6637
▁வாஷிங்டனில்	-6638
▁ஒன்றியத்தில்	-6639
▁சக்திவாய்ந்த	-6640
ud	-6641
மள	-6642
வள	-6643
TTE	-6644
சதவ	-6645
ன்றி	-6646
▁உக்	-6647
▁ஓரா	-6648
▁யூக	-6649
மைச்ச	-6650
ிவுட்	-6651
த்தையே	-6652
▁துக்க	-6653
▁நாடுகள	-6654
▁நிரப்ப	-6655
மாட்டேன்	-6656
▁தோன்றிய	-6657
▁வெள்ளிய	-6658
ாளர்களில்	-6659
▁எருசலேமு	-6660
▁பெற்றுள்ள	-6661
▁தெலுங்கில்	-6662
▁இப்படத்தின்	-6663
▁நிராகரித்து	-6664
▁முழுவதையும்	-6665
-1	-6666
ank	-6667
ானி	-6668
ன்பே	-6669
▁மில	-6670
புத்த	-6671
▁பணவீ	-6672
▁ஊர்வல	-6673
▁கோருக	-6674
ோருக்கு	-6675
▁அந்தச்	-6676
▁ஆந்திர	-6677
▁ஆர்வம்	-6678
▁யோர்க்	-6679
▁வேறொரு	-6680
க்களுடன்	-6681
ித்தமும்	-6682
▁திரையிட	-6683
▁வசதிகள்	-6684
▁வேலைவாய	-6685
▁சிகிச்சை	-6686
▁பெப்ரவரி	-6687
▁முற்பட்ட	-6688
▁முஸ்லீம்	-6689
▁உருவாக்கி	-6690
▁கேள்விக்கு	-6691
▁துன்மார்க்க	-6692
▁பொருளாதாரத்தில்	-6693
சர்வ	-6694
ளிர்	-6695
▁யாத	-6696
▁விச	-6697
ட்டன்	-6698
ுவான்	-6699
▁வசதி	-6700
▁வாய்	-6701
டுகின்ற	-6702
▁செவிகொ	-6703
▁தமிழர்	-6704
▁நாயகன்	-6705
▁மோசேயை	-6706
▁வழிவகை	-6707
க்குமாறு	-6708
▁ஆதரித்த	-6709
▁பிடிக்க	-6710
▁முந்திய	-6711
▁முறையான	-6712
ாவுக்கும்	-6713
▁உதாரணமாக	-6714
▁பெற்றான்	-6715
▁யுத்தம்பண்ண	-6716
▁இராஜபக்ஷவின்	-6717
ord	-6718
ழைக்க	-6719
▁அரசை	-6720
நாயக்க	-6721
மக்கள்	-6722
ரியின்	-6723
ரியும்	-6724
ியுற்ற	-6725
ிவாங்க	-6726
▁இற்கு	-6727
▁பென்ய	-6728
▁மைக்க	-6729
களுக்கு	-6730
க்களால்	-6731
வுள்ளது	-6732
▁ஏதாவது	-6733
▁என்றாள்	-6734
▁எப்போது	-6735
▁கவனத்தை	-6736
▁செய்தியை	-6737
▁வேடத்தில்	-6738
▁இயக்குனராக	-6739
▁ஆசிரியர்கள்	-6740
▁என்கிறார்கள்	-6741
▁அரசாங்கத்துடன்	-6742
tp	-6743
வல்	-6744
ாமே	-6745
▁சரண	-6746
டுதல்	-6747
▁தேவர	-6748
சமாதான	-6749
ாளரும்	-6750
ுவிடுவ	-6751
▁அன்றி	-6752
▁மெல்ல	-6753
▁வாஜ்ப	-6754
ிவிட்டன	-6755
▁ஆங்கில	-6756
ாதிருப்ப	-6757
▁ஆண்டவரே	-6758
▁தொடரும்	-6759
▁முற்றுக	-6760
ுவிட்டார்	-6761
▁அணிதிரட்ட	-6762
▁தேசத்திலே	-6763
▁சந்நிதியில்	-6764
▁தசாப்தங்களாக	-6765
▁தனியார்மயமாக்க	-6766
TA	-6767
லன்	-6768
ழ்வ	-6769
பட்ச	-6770
ாவர்	-6771
▁New	-6772
▁ஆல்	-6773
▁இரச	-6774
ணர்வு	-6775
ோரின்	-6776
▁ஜோடி	-6777
▁நஷ்ட	-6778
▁விதை	-6779
ப்போர்	-6780
ளையில்	-6781
ிவிடுவ	-6782
▁கொஞ்ச	-6783
▁புஸ்த	-6784
▁போர்வ	-6785
▁அவனைப்	-6786
▁எந்தக்	-6787
▁வல்லுன	-6788
▁அர்ப்பண	-6789
▁உற்பத்த	-6790
▁எங்கும்	-6791
▁வீடுகளை	-6792
▁சோசலிசக்	-6793
▁அறிவித்து	-6794
▁கிளர்ச்சி	-6795
▁தொலைக்காட்ச	-6796
ref	-6797
ஜிய	-6798
ைகே	-6799
சாலை	-6800
தற்ப	-6801
ுதார	-6802
▁எத்த	-6803
▁ரூபா	-6804
ிடுகிற	-6805
▁சொல்க	-6806
▁பேராச	-6807
▁இரத்தம்	-6808
▁மேற்கோள	-6809
ிவிட்டனர்	-6810
▁ஒன்றாகும்	-6811
▁போருக்கான	-6812
▁வியட்நாம்	-6813
மாயிருக்கிறது	-6814
▁ஒருதலைப்பட்ச	-6815
▁ஜனாதிபதியின்	-6816
▁முன்னெடுத்து	-6817
DE	-6818
/200	-6819
வரான	-6820
▁அமீ	-6821
▁ஆசை	-6822
▁நன்	-6823
▁வெற	-6824
மொன்ற	-6825
ுரிமை	-6826
▁1995	-6827
▁நெடு	-6828
▁அப்போ	-6829
▁ஆழமாக	-6830
▁நாடாக	-6831
▁பெட்ட	-6832
▁வழியை	-6833
க்கத்தை	-6834
▁உத்திர	-6835
▁வாங்கி	-6836
த்தோடும்	-6837
▁உங்களது	-6838
ிக்கிறார்	-6839
▁தள்ளுபடி	-6840
▁வரவில்லை	-6841
▁வேறுபட்ட	-6842
க்கடவர்கள்	-6843
▁நிலைமையில்	-6844
▁அதிகாரிகளும்	-6845
▁தொழிற்சங்கம்	-6846
▁எதிர்ப்புக்கள்	-6847
:/	-6848
av	-6849
ob	-6850
▁ஆசர	-6851
▁செள	-6852
▁நேச	-6853
▁பரா	-6854
கத்தை	-6855
ுவதன்	-6856
ையைச்	-6857
▁இம்ம	-6858
▁மசோத	-6859
▁மோகன்	-6860
▁வற்பு	-6861
▁விவாக	-6862
▁காஷ்மீ	-6863
ப்பையும்	-6864
▁ஒன்றிணை	-6865
▁தலைமுறை	-6866
▁முழுக்க	-6867
▁வெடித்த	-6868
வர்களுடைய	-6869
வேண்டியது	-6870
▁இத்தாலிய	-6871
▁பாடல்கள்	-6872
▁நோக்கத்தை	-6873
▁செவ்வாயன்று	-6874
▁தற்காலிகமாக	-6875
▁யுத்தத்தில்	-6876
ங்களிலிருந்து	-6877
▁வேட்பாளர்கள்	-6878
▁அரசியல்வாதிகள்	-6879
▁நிர்வாகத்திற்கு	-6880
ww	-6881
://	-6882
தர்	-6883
நேக	-6884
பாக	-6885
மடை	-6886
▁90	-6887
▁si	-6888
http	-6889
▁ராம	-6890
ம்பிய	-6891
▁ஊடாக	-6892
▁ஓட்ட	-6893
▁கழுத	-6894
▁பெல்	-6895
டியும்	-6896
ீடுகளை	-6897
▁கதாபா	-6898
▁சவுல்	-6899
▁தேவனே	-6900
▁தொண்ட	-6901
▁மீட்க	-6902
திருப்ப	-6903
றுகிறது	-6904
▁அழிக்க	-6905
▁உயிரோட	-6906
▁செய்வதை	-6907
▁தகவலின்	-6908
▁தோட்டத்	-6909
▁பட்ஜெட்	-6910
▁விலைகள்	-6911
டிக்கொண்ட	-6912
▁வாய்ப்பை	-6913
▁ஊதியங்கள்	-6914
▁போனார்கள்	-6915
▁இங்கிலாந்த	-6916
▁சம்பவங்கள்	-6917
▁வார்த்தைகள்	-6918
▁இருக்கின்றது	-6919
▁ஒடுக்கப்பட்ட	-6920
▁எடுத்துக்கொண்டு	-6921
▁தெரிவித்துள்ளது	-6922
ff	-6923
500	-6924
eit	-6925
ஷ்ஷ	-6926
ாதா	-6927
▁2,	-6928
துரு	-6929
ரோடே	-6930
ாதது	-6931
ேசிய	-6932
▁இதழ	-6933
▁திச	-6934
▁யோன	-6935
▁எங்க	-6936
வையும்	-6937
▁சொற்க	-6938
▁மூப்ப	-6939
க்கடவது	-6940
ிப்பார்	-6941
▁இவற்றை	-6942
▁எழுதுக	-6943
▁ஒன்பது	-6944
▁கைச்சா	-6945
▁கையிலே	-6946
▁தடைகளை	-6947
ப்பண்ணின	-6948
▁அனுபவம்	-6949
▁ஒருவேளை	-6950
▁சம்பவம்	-6951
▁தாக்கிய	-6952
த்துடனும்	-6953
ப்போலவும்	-6954
▁ஒருவனும்	-6955
▁புதனன்று	-6956
▁அவர்களைத்	-6957
▁வழிவகுத்த	-6958
▁கொடுக்கவில்லை	-6959
▁வருடங்களுக்கு	-6960
▁முற்றுப்புள்ளி	-6961
7-	-6962
நக	-6963
www	-6964
▁An	-6965
▁எஜ	-6966
▁எட	-6967
போர்	-6968
்கிற	-6969
்குற	-6970
▁Comm	-6971
▁அமைய	-6972
▁ஓப்ப	-6973
ர்ச்சி	-6974
க்கியது	-6975
▁தளத்தை	-6976
ப்பிரமாண	-6977
▁ஆதரித்து	-6978
▁டாலர்களை	-6979
▁வெடித்து	-6980
ிருப்பதால்	-6981
▁வந்துள்ளன	-6982
▁வேண்டியது	-6983
ப்பட்டார்கள்	-6984
▁எதிர்ப்புத்	-6985
▁நிர்வாகத்தை	-6986
▁பயன்படுத்திய	-6987
▁அம்பலப்படுத்த	-6988
▁அறிவித்துள்ளது	-6989
▁எல்லாவற்றையும்	-6990
▁கொடுக்கப்படும்	-6991
▁பத்திரிகையாளர்	-6992
▁அகத	-6993
▁மலே	-6994
▁முன	-6995
புதிய	-6996
ஐரோப்ப	-6997
ாட்டம்	-6998
▁தப்பி	-6999
▁நுட்ப	-7000
▁அருவரு	-7001
▁பகுப்ப	-7002
முறையும்	-7003
▁இதுவும்	-7004
▁சொல்லும்	-7005
▁வெற்றியை	-7006
▁எழுதினார்	-7007
▁ஏற்படுத்திய	-7008
▁தயாரிப்பில்	-7009
▁தேவைப்படும்	-7010
▁குடும்பங்கள்	-7011
▁விரிவுபடுத்த	-7012
▁லெ	-7013
▁ஷா	-7014
ாராக	-7015
▁ஏழை	-7016
நாதன்	-7017
னுள்ள	-7018
▁குறு	-7019
▁பப்லோ	-7020
▁மண்டப	-7021
ீட்டில்	-7022
▁ஊக்கம்	-7023
▁எஞ்சிய	-7024
▁ஐம்பது	-7025
▁நடாத்த	-7026
▁பெட்ரோ	-7027
சுதந்திர	-7028
ித்தனமான	-7029
ினருக்கு	-7030
▁கைதிகளை	-7031
▁சாதகமாக	-7032
▁புலிகளை	-7033
▁பேர்லின	-7034
▁வரவேற்க	-7035
▁அனுப்பிய	-7036
▁அமைச்சரக	-7037
▁உணர்ந்து	-7038
▁பொலிசார்	-7039
▁அழைப்புவி	-7040
▁புரட்சியின்	-7041
▁அமைக்கப்பட்ட	-7042
▁குற்றம்சாட்ட	-7043
▁அடிப்படையிலான	-7044
oh	-7045
ung	-7046
ுதே	-7047
▁45	-7048
▁ஃப	-7049
என்ன	-7050
பால்	-7051
பொது	-7052
▁இழு	-7053
▁சென்	-7054
▁நெறி	-7055
▁வழிக	-7056
ாக்கிய	-7057
ுகளால்	-7058
ைக்கார	-7059
▁சூர்ய	-7060
▁தானிய	-7061
▁மானிய	-7062
▁அன்றாட	-7063
▁சிம்பு	-7064
▁யாக்கோ	-7065
▁ரம்ஸ்ப	-7066
ப்போவதாக	-7067
▁அதற்கான	-7068
▁என்பவர்	-7069
▁கல்லூரி	-7070
▁தியேட்ட	-7071
▁நடத்துக	-7072
▁மார்க்க	-7073
▁தொழிற்சா	-7074
▁யதார்த்த	-7075
▁முற்போக்கு	-7076
▁கூட்டணியில்	-7077
▁காட்டியுள்ளது	-7078
▁பயங்கரவாதிகள்	-7079
▁எதிர்கொண்டுள்ள	-7080
சூ	-7081
போய	-7082
மலை	-7083
ாலோ	-7084
▁சை	-7085
க்கெ	-7086
▁The	-7087
▁ஐஸ்	-7088
▁தோழ	-7089
த்தகு	-7090
நாட்க	-7091
முடைய	-7092
▁தானே	-7093
ந்தார்	-7094
▁தள்ளி	-7095
▁பயணம்	-7096
▁பள்ளி	-7097
▁பிரெள	-7098
செலவுத்	-7099
▁அன்றைய	-7100
▁அறிகுற	-7101
▁புத்தி	-7102
ிடுகிறது	-7103
▁அமர்த்த	-7104
▁என்னைத்	-7105
▁தளமாகக்	-7106
▁புறப்பட	-7107
▁வடிவமைப்ப	-7108
▁எதிர்கொண்டு	-7109
▁பிரிட்டனில்	-7110
▁பொருளாதாரத்	-7111
▁முன்னெடுத்த	-7112
▁யுத்தத்துக்கு	-7113
▁31	-7114
▁ஏத	-7115
ஸ்வர	-7116
▁அறை	-7117
▁இவ்	-7118
ையுலக	-7119
▁சவால	-7120
▁பிழை	-7121
த்தாக்க	-7122
ராகவும்	-7123
ாயினும்	-7124
▁அடைமான	-7125
▁அண்மைய	-7126
▁பிஜேபி	-7127
ந்துள்ளன	-7128
▁கடினமான	-7129
▁பின்னணி	-7130
▁மேர்க்க	-7131
▁விரோதப்	-7132
மாத்திரம்	-7133
▁அரங்கில்	-7134
▁மாறுபட்ட	-7135
ாளர்களிடம்	-7136
▁அமைப்பில்	-7137
▁ஆரம்பித்த	-7138
▁கிடைத்தது	-7139
▁நடத்தப்பட	-7140
▁கொடுக்கிறது	-7141
▁புத்திரரின்	-7142
▁மாவட்டத்தில்	-7143
AS	-7144
மாகி	-7145
ேயான	-7146
▁for	-7147
வைகளை	-7148
▁பத்ம	-7149
▁பெப்	-7150
சியில்	-7151
ரையில்	-7152
▁மோசடி	-7153
▁வேட்ட	-7154
டுங்கள்	-7155
ுக்குள்	-7156
▁மரித்த	-7157
▁வருவதை	-7158
▁மீதியான	-7159
▁கடைசியாக	-7160
▁குற்றவாள	-7161
▁அதையொட்டி	-7162
▁சம்பந்தமாக	-7163
▁விஜயகாந்த்	-7164
ப்பட்டவர்கள்	-7165
▁நிறுத்தத்தை	-7166
▁நடவடிக்கைகளின்	-7167
▁வெளியுறவுத்துறை	-7168
ஆய	-7169
ோரை	-7170
மீர்	-7171
▁அவு	-7172
▁நாய	-7173
▁புய	-7174
ிக்ஸ்	-7175
▁1960	-7176
▁href	-7177
▁சிங்	-7178
▁நிலவ	-7179
▁மைக்	-7180
ிடமும்	-7181
▁பணியை	-7182
▁யோர்த	-7183
கத்தின்	-7184
லுக்கான	-7185
▁இடத்தை	-7186
▁நோக்கு	-7187
▁பணிகளை	-7188
▁முறைகே	-7189
ப்படுவர்	-7190
▁இராணுவச்	-7191
▁பகுதிகளை	-7192
▁பழங்குடி	-7193
▁பழிவாங்க	-7194
▁இன்னுமொரு	-7195
▁காரணங்கள்	-7196
▁முடிவுகளை	-7197
▁கோடிட்டுக்	-7198
▁சுதந்திரக்	-7199
▁வந்திருந்த	-7200
வேண்டுமென்று	-7201
▁கூறியுள்ளனர்	-7202
▁மேலாதிக்கத்தை	-7203
▁இக	-7204
ight	-7205
சமூக	-7206
▁Mar	-7207
பட்டு	-7208
▁கையை	-7209
▁இழக்க	-7210
▁உறுமய	-7211
▁கவலைய	-7212
▁நன்மை	-7213
▁போர்க்	-7214
▁உறுதியள	-7215
குதிகளில்	-7216
▁மாதங்கள்	-7217
▁இருக்காது	-7218
▁ஒன்றுதான்	-7219
▁தடுக்கும்	-7220
▁பகுதிக்கு	-7221
ப்பகுதியில்	-7222
▁கொள்கையில்	-7223
▁நிகழ்வுகள்	-7224
▁அதிகரித்துவ	-7225
▁செய்வதற்காக	-7226
▁நாடுகளிலும்	-7227
▁பிரமாண்டமான	-7228
▁முன்னேற்றம்	-7229
▁வெட்டுக்கள்	-7230
▁கூட்டத்திற்கு	-7231
▁வலியுறுத்திக்	-7232
ond	-7233
ஈரா	-7234
சிற	-7235
ாயன	-7236
ாவோ	-7237
▁கடல	-7238
▁கரை	-7239
▁தூப	-7240
▁பர்வ	-7241
▁பேரை	-7242
▁வளாக	-7243
ப்பாடு	-7244
▁கோபம்	-7245
▁ரீதிய	-7246
ியதுடன்	-7247
▁காப்பு	-7248
▁அதற்காக	-7249
▁எனக்குப்	-7250
▁சமாதானம்	-7251
▁தளத்தின்	-7252
▁வடக்கில்	-7253
▁போன்றவற்ற	-7254
▁விசாரிக்க	-7255
▁அப்பட்டமான	-7256
▁ஒடுக்குமுறை	-7257
▁மிகப்பெரும்ப	-7258
▁இருக்கின்றனர்	-7259
▁இராணுவத்திற்கு	-7260
CP	-7261
ee	-7262
ேர	-7263
="3	-7264
பது	-7265
்தொ	-7266
▁Sh	-7267
▁ஷூ	-7268
மனித	-7269
ாராய	-7270
▁உம்	-7271
▁உரு	-7272
ளாதார	-7273
வருமே	-7274
ிறங்க	-7275
▁சுரு	-7276
ிகரமான	-7277
▁டாங்க	-7278
▁லங்கா	-7279
புத்திர	-7280
ாகிலும்	-7281
▁யாரும்	-7282
▁வெட்டி	-7283
▁காணிக்க	-7284
▁கூட்டாக	-7285
▁கூட்டாள	-7286
▁முன்னைய	-7287
ிப்புக்கு	-7288
▁அமைப்பான	-7289
▁ஆசாரியன்	-7290
▁சோசலிசம்	-7291
▁பிரிவின்	-7292
ிட்டார்கள்	-7293
▁இராணுவவாத	-7294
▁திரைக்கதை	-7295
▁மூலோபாயம்	-7296
▁வியாழனன்று	-7297
▁ஸ்ரீகாந்த்	-7298
▁வழங்கப்பட்ட	-7299
▁இராணுவத்தில்	-7300
US	-7301
டே	-7302
▁0	-7303
ூன்	-7304
ரைன்	-7305
ெற்ற	-7306
▁Sch	-7307
▁அரண	-7308
▁பீர	-7309
ticles	-7310
திக்கு	-7311
றித்து	-7312
ிப்போன	-7313
▁அரேபிய	-7314
▁கப்பல்	-7315
▁இடம்பெற	-7316
▁இப்படம்	-7317
▁கட்டவிழ	-7318
▁தேவரீர்	-7319
▁முப்பது	-7320
▁மதிப்பிட	-7321
▁யாக்கோபு	-7322
▁கேட்டபோது	-7323
▁தேசத்தின்	-7324
ப்போவதில்லை	-7325
▁அபிவிருத்த	-7326
▁கொள்கைக்கு	-7327
▁குண்டுவீச்சு	-7328
▁சமுதாயத்தின்	-7329
▁அமெரிக்கர்கள்	-7330
▁அதிகாரபூர்வமான	-7331
▁சதவிகிதத்தினர்	-7332
ய்த	-7333
▁Sp	-7334
▁லை	-7335
சைன்	-7336
ோனிச	-7337
▁ஆம்	-7338
ாவசிய	-7339
▁கூர்	-7340
▁தனிந	-7341
மிட்டு	-7342
ில்லாத	-7343
▁செயலா	-7344
▁ஏவுகணை	-7345
▁பரிசோத	-7346
▁பார்வோ	-7347
▁அதன்படி	-7348
▁போர்க்க	-7349
▁முடிக்க	-7350
▁சலுகைகளை	-7351
▁வெறுப்பு	-7352
பாதுகாப்பு	-7353
▁கருத்துத்	-7354
▁கூறவில்லை	-7355
▁கொடுத்துவ	-7356
▁பார்த்தால்	-7357
▁புள்ளிவிவர	-7358
▁சொல்லுகிறது	-7359
▁தெருக்களில்	-7360
▁மாநிலத்தில்	-7361
▁மொத்தத்தில்	-7362
▁சந்தர்ப்பவாத	-7363
▁அறிமுகப்படுத்த	-7364
▁இருந்தபோதிலும்	-7365
ai	-7366
ாவள	-7367
▁எரே	-7368
▁ஒடு	-7369
▁மழை	-7370
ினோம்	-7371
▁செய்	-7372
▁ரைஸ்	-7373
▁ரத்து	-7374
▁வெப்ப	-7375
க்குறைய	-7376
மையானது	-7377
▁10,000	-7378
▁அபிஷேக	-7379
▁இளைஞர்	-7380
▁நுகர்வ	-7381
▁வேண்டி	-7382
▁அசாதாரண	-7383
▁அலட்சிய	-7384
▁கணிப்பு	-7385
ப்பிரிக்க	-7386
▁பல்கலைக்	-7387
▁பாக்தாத்	-7388
▁திராட்சரச	-7389
▁எச்சரித்து	-7390
▁குறைக்கும்	-7391
▁சங்கத்தின்	-7392
▁கோரிக்கைகள்	-7393
▁அதிகாரிகளுக்கு	-7394
▁பாக்கிஸ்தானின்	-7395
▁மேற்கொள்ளப்பட்ட	-7396
தெ	-7397
▁w	-7398
ைகு	-7399
▁ஈச	-7400
sche	-7401
லையை	-7402
ினல்	-7403
பெற்ற	-7404
▁எங்கு	-7405
▁மிச்ச	-7406
வகையில்	-7407
▁துரத்த	-7408
▁மாஸ்கோ	-7409
▁ஷியைட்	-7410
articles	-7411
நீதிமன்ற	-7412
▁கடன்களை	-7413
▁நுழைந்த	-7414
▁வெளியாக	-7415
▁இரகசியமாக	-7416
▁பிரிவினர்	-7417
▁லெபனானில்	-7418
▁உட்கார்ந்த	-7419
▁அடிப்படையான	-7420
▁அவரிடத்தில்	-7421
▁நம்பிக்கையை	-7422
▁வெள்ளியன்று	-7423
▁இருப்பதாகவும்	-7424
.9	-7425
கி	-7426
சொ	-7427
ாதி	-7428
▁de	-7429
▁BJP	-7430
▁ஊடு	-7431
▁நம்	-7432
ங்கூட	-7433
ாலேயே	-7434
ிபோர்	-7435
ியைச்	-7436
▁ஆகவே	-7437
▁சரீர	-7438
▁ஸ்தோ	-7439
க்கியா	-7440
ாக்குவ	-7441
▁Times	-7442
▁தொடர்	-7443
▁பென்ன	-7444
▁ரூபாய	-7445
▁வலிமை	-7446
▁அவரும்	-7447
▁எத்தனை	-7448
▁பிறப்ப	-7449
▁மஹிந்த	-7450
▁சந்ததிய	-7451
▁சூழ்ச்ச	-7452
▁தொடுக்க	-7453
▁நீக்கம்	-7454
▁பெப்ருவ	-7455
ப்படுவதாக	-7456
▁சக்தியாக	-7457
▁சிறிதும்	-7458
▁நடிகைகள்	-7459
▁ஸ்ராலினி	-7460
▁பேராசிரிய	-7461
▁முழுமையான	-7462
▁படைகளுக்கு	-7463
▁இப்படத்தில்	-7464
▁கொண்டுவரும்	-7465
▁பங்கெடுத்து	-7466
▁படையெடுப்பு	-7467
▁விசாரணையில்	-7468
▁அபிவிருத்திய	-7469
▁வித்தியாசமான	-7470
▁அதிகாரத்திற்கு	-7471
▁நியமிக்கப்பட்ட	-7472
தள	-7473
ach	-7474
oun	-7475
ூம்	-7476
▁லோ	-7477
ணர்வ	-7478
நாமா	-7479
▁ஆசன	-7480
செய்வ	-7481
ாய்ப்	-7482
▁மண்ண	-7483
ிவைத்த	-7484
▁தற்கா	-7485
▁விலகி	-7486
▁அடைக்க	-7487
▁உதவியை	-7488
▁கற்பனை	-7489
▁சுனாமி	-7490
▁தொற்று	-7491
▁ஜனங்களை	-7492
▁வேறுவித	-7493
▁இராணுவக்	-7494
▁நாளைக்கு	-7495
▁ஸ்ட்ரீட்	-7496
த்துக்குத்	-7497
▁விசாரணையை	-7498
▁சாத்தியமான	-7499
▁டிசம்பரில்	-7500
▁தகவலின்படி	-7501
▁தொழிற்சங்கத்	-7502
ப்படுத்துகிறது	-7503
▁அவர்களுக்குச்	-7504
.,	-7505
கள	-7506
ier	-7507
தையே	-7508
ற்றே	-7509
ல்கள	-7510
ஸ்ரீ	-7511
ொபெய	-7512
▁இரத	-7513
▁சகா	-7514
▁சோக	-7515
▁பிச	-7516
ப்பிய	-7517
▁1989	-7518
▁சபைய	-7519
லிலும்	-7520
ாயிரம்	-7521
▁கெளரவ	-7522
▁நாயகி	-7523
▁வழிநட	-7524
தலுக்கு	-7525
▁சம்பிர	-7526
▁மனைவிய	-7527
▁வழக்கை	-7528
▁அவசியம்	-7529
▁ஆக்ஷ்ன்	-7530
▁ஆவணமற்ற	-7531
▁கடன்கள்	-7532
▁சியோனிச	-7533
த்தக்கதாக	-7534
▁செனட்டர்	-7535
▁தமிழர்கள்	-7536
▁நடக்கிறது	-7537
▁தேவையில்லை	-7538
▁நினைக்கிறேன்	-7539
▁சம்மந்தப்பட்ட	-7540
▁நியாயப்பிரமாண	-7541
ாரோ	-7542
▁75	-7543
ர்ஸ்	-7544
▁பாய	-7545
ர்தல்	-7546
ர்னல்	-7547
லாக்க	-7548
மாய்ச்	-7549
ையாளர்	-7550
▁அமீர்	-7551
▁இயலாத	-7552
▁சூழல்	-7553
▁வீதம்	-7554
ாரையும்	-7555
▁அறியாத	-7556
▁ஆட்சேப	-7557
▁இரசாயன	-7558
▁ஒப்பிட	-7559
▁திரளான	-7560
▁சேவைகள்	-7561
▁முஸ்லிம	-7562
▁கடைப்பிட	-7563
▁சந்தேகம்	-7564
▁வேறுபாடு	-7565
டுகின்றனர்	-7566
ர்களுக்கான	-7567
▁அடிக்கோடி	-7568
▁தலையங்கம்	-7569
த்திலிருந்த	-7570
ித்துள்ளனர்	-7571
▁கண்காணிப்பு	-7572
▁நடத்தப்பட்டது	-7573
▁கர்த்தருக்குப்	-7574
ry	-7575
ate	-7576
ற்த	-7577
விச	-7578
ாலி	-7579
▁As	-7580
வல்ல	-7581
▁தற்	-7582
▁தாக	-7583
▁படக	-7584
டுவதை	-7585
தொழில	-7586
ாலின்	-7587
▁அர்ஜ	-7588
▁அற்ற	-7589
▁டோனி	-7590
▁தேடி	-7591
▁கம்பெ	-7592
▁சம்மத	-7593
▁தகவலை	-7594
▁தவறாக	-7595
▁பரலோக	-7596
ண்டுகள்	-7597
ிற்குப்	-7598
▁தகுதிய	-7599
ாயிருக்க	-7600
▁இதற்கான	-7601
▁எல்லைப்	-7602
▁திடீரென	-7603
▁நிர்ப்ப	-7604
▁உனக்குக்	-7605
▁பிரிவில்	-7606
▁இஸ்ரவேலர்	-7607
▁ஏறக்குறைய	-7608
▁ஒபாமாவின்	-7609
▁கூட்டத்தை	-7610
▁கொலைசெய்ய	-7611
▁ஒளிப்பதிவு	-7612
▁முன்னோக்கை	-7613
▁கேள்விப்பட்ட	-7614
▁செய்துள்ளார்	-7615
▁தீர்க்கதரிசிய	-7616
ேட்	-7617
arty	-7618
ந்தே	-7619
ர்பு	-7620
ேகர்	-7621
ோர்ட	-7622
▁சீய	-7623
ாதான்	-7624
▁ஆதாய	-7625
▁யூகோ	-7626
னால்ட்	-7627
▁அடிமை	-7628
▁தென்ப	-7629
▁பலவித	-7630
▁மகிமை	-7631
மையுள்ள	-7632
ிப்பும்	-7633
▁அற்புத	-7634
▁உணர்வை	-7635
▁தக்கவை	-7636
▁நசுக்க	-7637
டுகிறார்	-7638
ரைக்கும்	-7639
ுகின்றது	-7640
▁ஆதரவைப்	-7641
▁குழந்தை	-7642
▁சிவிலிய	-7643
▁தகனபலிய	-7644
ுவிட்டனர்	-7645
▁அல்லாமல்	-7646
▁சிங்காசன	-7647
▁மேற்கோள்	-7648
▁விட்டார்	-7649
ங்களின்படி	-7650
▁தலைவர்களை	-7651
▁புரட்சிக்	-7652
மாட்டார்கள்	-7653
▁ஏற்படுத்தி	-7654
▁குற்றங்கள்	-7655
▁நாட்டிற்கு	-7656
▁பணியாற்றிய	-7657
ித்துக்கொள்ள	-7658
▁தலைவர்களும்	-7659
▁பத்திரிகையில்	-7660
▁பயன்படுத்தும்	-7661
▁வைக்கப்பட்டுள்ள	-7662
இர	-7663
லீ	-7664
''.	-7665
தைய	-7666
ிகளே	-7667
ினரை	-7668
▁அட்	-7669
டிமறை	-7670
▁வாசக	-7671
ிப்பான	-7672
▁மரணம்	-7673
▁வெண்க	-7674
ப்பிரிவ	-7675
▁காமெடி	-7676
▁கொள்ளை	-7677
▁செய்தல்	-7678
ிக்குமாறு	-7679
▁எதிராகப்	-7680
▁என்றென்ற	-7681
▁காஷ்மீர்	-7682
▁வேலைக்கு	-7683
▁ரஷ்யாவின்	-7684
▁வெளிநாட்ட	-7685
▁சமூகத்தின்	-7686
▁நிர்ப்பந்த	-7687
▁இருக்கவில்லை	-7688
▁சட்டத்திற்கு	-7689
▁மறுசீரமைப்பு	-7690
sk	-7691
ீம	-7692
கிர	-7693
ாட்	-7694
ுவே	-7695
சேன்	-7696
ரிமை	-7697
ரியை	-7698
▁நடன	-7699
ாபின்	-7700
ைகளாக	-7701
▁நாளே	-7702
▁முயல	-7703
▁என்றே	-7704
▁குறிய	-7705
▁ஊடுருவ	-7706
▁விட்டன	-7707
▁புதுமுக	-7708
▁மூடிமறை	-7709
வரைக்கும்	-7710
▁தலையீட்ட	-7711
▁இலக்காகக்	-7712
▁ஒன்றுக்கு	-7713
▁கண்களுக்கு	-7714
▁ஜனாதிபதித்	-7715
▁மாகாணத்தில்	-7716
▁அப்படிப்பட்ட	-7717
▁ஆக்கிரமிப்பை	-7718
▁ஆட்டுக்குட்ட	-7719
▁இராணுவத்தினர்	-7720
▁எண்ணிக்கையில்	-7721
ip	-7722
பேர	-7723
ிகாப	-7724
ிகிற	-7725
▁ஆஸ்ப	-7726
▁குரோ	-7727
▁தீவு	-7728
▁பந்த	-7729
▁பேரு	-7730
▁மனாச	-7731
▁சிரிய	-7732
▁நிமிட	-7733
முறையாக	-7734
ித்தும்	-7735
ுக்குப்	-7736
▁அச்சம்	-7737
▁அவரைப்	-7738
▁கார்த்	-7739
▁நேரில்	-7740
▁பண்டார	-7741
▁பயந்து	-7742
▁மற்றைய	-7743
▁கர்த்தர	-7744
▁கலிபோர்	-7745
▁பாசாங்க	-7746
▁ஷ்ரோடர்	-7747
▁எழுதியது	-7748
▁அத்தியாவசிய	-7749
▁ஏற்றுக்கொண்ட	-7750
▁தெரிவிக்கிறது	-7751
▁திட்டமிடப்பட்ட	-7752
ிசி	-7753
▁அசீ	-7754
சதவீத	-7755
ும்போ	-7756
▁கன்ச	-7757
▁தந்தை	-7758
▁நீட்ட	-7759
▁பிராண	-7760
▁சிவாஜி	-7761
▁ரிலீஸ்	-7762
மாயிற்று	-7763
ருக்குப்	-7764
லாந்தில்	-7765
▁எடுப்பு	-7766
▁நீடிக்க	-7767
▁மணிக்கு	-7768
▁பாராட்டு	-7769
▁உண்டுபண்ண	-7770
▁மெய்யாகவே	-7771
ிக்கின்றனர்	-7772
▁இருக்கின்ற	-7773
▁அவர்கள்மேல்	-7774
▁டிரில்லியன்	-7775
▁தீர்மானத்தை	-7776
▁சேர்ந்தவர்கள்	-7777
▁கொண்டிருந்தனர்	-7778
mer	-7779
மேய	-7780
ூல்	-7781
ரோடு	-7782
லட்ச	-7783
▁For	-7784
▁துண	-7785
▁பென	-7786
▁மேக	-7787
றுகள்	-7788
ஹ்ரான	-7789
ிட்டன	-7790
ிவருக	-7791
▁சிபி	-7792
க்கண்ட	-7793
மாய்த்	-7794
்களும்	-7795
▁ஆகியன	-7796
▁இதைச்	-7797
▁இரட்ட	-7798
▁சங்கட	-7799
▁சீரிய	-7800
▁ஹோட்ட	-7801
ித்தேன்	-7802
▁அவநம்ப	-7803
▁ஆத்தும	-7804
▁பெருமை	-7805
▁மும்பை	-7806
▁இருதயம்	-7807
▁ஹெலிகாப	-7808
▁சத்யராஜ்	-7809
▁சந்தைகள்	-7810
▁சாலொமோன்	-7811
▁யோசேப்பு	-7812
▁ஆட்டுக்கட	-7813
▁ஒன்றிற்கு	-7814
▁புலிகளுடன்	-7815
▁மந்திரியாக	-7816
▁குழுக்களின்	-7817
▁பொருளாதாரப்	-7818
▁அவர்களுக்குப்	-7819
▁வைத்திருக்கும்	-7820
த்ன	-7821
புர	-7822
வில	-7823
டான்	-7824
லைத்	-7825
▁செழ	-7826
▁நுழ	-7827
க்கிட	-7828
ுகளாக	-7829
▁ஆட்ட	-7830
▁கத்த	-7831
▁தெரு	-7832
நோக்கு	-7833
ீர்களா	-7834
▁சிறைய	-7835
சர்வதேச	-7836
▁அதேபோல	-7837
▁உட்குற	-7838
▁கண்கள்	-7839
▁கவனமாக	-7840
▁பெளத்த	-7841
▁மறைந்த	-7842
▁வேகமாக	-7843
ிக்கின்ற	-7844
▁நிலவும்	-7845
▁நோக்கிய	-7846
▁புசிக்க	-7847
▁மாற்றிய	-7848
▁மெல்லிய	-7849
வர்களுடன்	-7850
ுவிட்டதாக	-7851
▁செய்தான்	-7852
▁தெரிந்து	-7853
▁ஆஸ்பத்திர	-7854
▁செய்வதில்	-7855
▁எருசலேமின்	-7856
▁கதாபாத்திர	-7857
▁நூற்றாண்டு	-7858
▁வருடங்களாக	-7859
▁செய்தார்கள்	-7860
▁பூகோளமயமாக்க	-7861
▁b	-7862
சட்ட	-7863
பாத்	-7864
ழ்வு	-7865
ாவாக	-7866
ிவார	-7867
▁பொற	-7868
▁வீண	-7869
மாதிர	-7870
ுவிடு	-7871
▁ஆர்ப	-7872
▁உள்க	-7873
▁விண்	-7874
ட்டிங்	-7875
▁உள்ளூ	-7876
▁சலுகை	-7877
▁பூமிய	-7878
ிகளுடைய	-7879
▁அவரைக்	-7880
▁ஆக்கிர	-7881
▁இயலாது	-7882
▁உருவான	-7883
▁கண்களை	-7884
▁சகாப்த	-7885
▁ஷங்கர்	-7886
▁ஆசீர்வத	-7887
▁உணர்ந்த	-7888
▁காரியம்	-7889
▁நசுக்கு	-7890
▁வாஜ்பாய	-7891
ுவதற்கும்	-7892
▁அவளுக்கு	-7893
▁இத்திட்ட	-7894
▁இப்படிச்	-7895
ிடத்திலும்	-7896
▁அதின்மேல்	-7897
▁நவம்பரில்	-7898
▁பதிலளிக்க	-7899
▁செய்கிறார்	-7900
▁தொடர்புகள்	-7901
▁இஸ்ரேலுக்கு	-7902
▁குடியிருப்ப	-7903
▁உலகெங்கிலும்	-7904
▁போராட்டங்கள்	-7905
▁நிகழ்ச்சியில்	-7906
▁நிர்வாகத்தில்	-7907
▁பத்திரிகையின்	-7908
IF	-7909
aw	-7910
ph	-7911
என	-7912
▁ஃ	-7913
wsws	-7914
சேகர	-7915
ராது	-7916
ிர்வ	-7917
▁முர	-7918
நேரம்	-7919
மன்றி	-7920
ராமல்	-7921
▁அன்ன	-7922
▁யும்	-7923
▁ஸ்டு	-7924
றிந்து	-7925
ெதிரான	-7926
▁கற்று	-7927
▁கலங்க	-7928
▁சாப்ப	-7929
▁முந்த	-7930
▁தொகையை	-7931
▁பிரயாண	-7932
▁முயல்க	-7933
▁அழித்து	-7934
▁அவர்களு	-7935
▁நியாயம்	-7936
▁வளர்க்க	-7937
▁உள்ளடக்க	-7938
▁திரையுலக	-7939
▁மத்தியதர	-7940
▁லண்டனில்	-7941
▁பன்னாட்டு	-7942
▁மேற்கொண்டு	-7943
▁அதிகாரங்களை	-7944
ிருப்பதாகவும்	-7945
▁ஒருங்கிணைந்த	-7946
▁கருத்தின்படி	-7947
▁வலியுறுத்திய	-7948
ost	-7949
நித	-7950
பாண	-7951
மூல	-7952
ரவை	-7953
▁டூ	-7954
டிக்	-7955
மைக்	-7956
விழா	-7957
ஸ்டை	-7958
ாதம்	-7959
▁ஆள்	-7960
▁சம்	-7961
ச்சல்	-7962
▁அடைவ	-7963
▁பாதி	-7964
▁வகைய	-7965
▁கிலோம	-7966
▁சிநேக	-7967
அவர்கள்	-7968
ப்புடன்	-7969
▁அக்கால	-7970
▁அவனைத்	-7971
▁அவரவர்	-7972
▁ஆபத்தை	-7973
▁ஓராண்ட	-7974
▁கடைபிட	-7975
▁கிருஷ்	-7976
▁பாகமாக	-7977
▁புறஜாத	-7978
▁பூட்டோ	-7979
▁இடம்பெய	-7980
▁ஒருவரான	-7981
▁குறுக்க	-7982
▁பின்தொட	-7983
▁பென்யமீ	-7984
▁ஹோவர்ட்	-7985
▁அடைந்தது	-7986
▁இரயில்வே	-7987
▁எகிப்திய	-7988
▁ஒவ்வொன்ற	-7989
▁கட்சியாக	-7990
ப்பட்டபோது	-7991
▁பராக்கிரம	-7992
▁இந்தோனேசிய	-7993
▁சந்தைகளில்	-7994
▁வரவேண்டும்	-7995
▁முற்போக்கான	-7996
▁அதிகாரிகளின்	-7997
▁குடியிருப்பு	-7998
▁முரண்பாடுகள்	-7999
▁அவர்களுக்குக்	-8000
▁எதிர்ப்பையும்	-8001
▁குறைப்புக்கள்	-8002
▁புத்திரருக்கு	-8003
▁பெற்றுக்கொள்ள	-8004
▁வார்த்தைகளில்	-8005
▁சுட்டிக்காட்டுக	-8006
▁பெரும்பான்மையான	-8007
ஜோ	-8008
htm	-8009
சோசல	-8010
▁ஏழ்	-8011
▁மேஜ	-8012
▁வசத	-8013
மையைக்	-8014
▁கொடிய	-8015
▁துருவ	-8016
முறைகள்	-8017
ம்பாக்க	-8018
▁குழுவை	-8019
▁நிவாரண	-8020
▁பொதுப்	-8021
▁போனான்	-8022
▁முழக்க	-8023
▁வெண்கல	-8024
வர்களால்	-8025
▁கசப்பான	-8026
▁நீதிமான	-8027
▁மிகப்பெ	-8028
▁லெபனான்	-8029
▁விமானத்	-8030
ிப்படுத்த	-8031
▁கூறியதாக	-8032
▁முடிந்து	-8033
▁வர்க்கப்	-8034
▁அவர்களும்	-8035
▁இப்படத்தை	-8036
▁உறுதியற்ற	-8037
▁தயாரித்து	-8038
▁நிலைமைகளை	-8039
▁அணிவகுத்து	-8040
▁மனுபுத்திர	-8041
ப்படுவதில்லை	-8042
▁செய்வதற்கான	-8043
▁முடிந்ததும்	-8044
▁மாநிலங்களில்	-8045
▁நிறுவனங்களுக்கு	-8046
uc	-8047
மக	-8048
யில	-8049
ானா	-8050
▁GM	-8051
▁டீ	-8052
னைத்	-8053
மாம்	-8054
▁PSG	-8055
▁காக	-8056
▁ஜோத	-8057
▁நாஜ	-8058
ோவில்	-8059
▁ஜீவா	-8060
▁நானே	-8061
▁பில்	-8062
▁மேலே	-8063
▁வண்ட	-8064
நிலையை	-8065
ர்ப்பு	-8066
வாகும்	-8067
ார்களே	-8068
▁கொரிய	-8069
▁சற்றே	-8070
▁பாடுப	-8071
▁மாவோய	-8072
மிராண்ட	-8073
ாட்டில்	-8074
ிட்டான்	-8075
▁எதிர்வ	-8076
▁காத்து	-8077
▁குட்டி	-8078
▁செயலர்	-8079
▁மரியாத	-8080
▁விஜய்ய	-8081
▁அடைந்து	-8082
▁சகோதரர்	-8083
▁தகர்க்க	-8084
▁வந்தால்	-8085
டுகளுக்கு	-8086
▁கம்யூனிச	-8087
▁கேட்டான்	-8088
▁கேரக்டர்	-8089
▁சலுகைகள்	-8090
▁நினைத்து	-8091
▁பகுதியான	-8092
▁வகையிலான	-8093
ுகளுக்கும்	-8094
▁அதிருப்தி	-8095
▁வங்கியின்	-8096
▁அறிக்கைகளை	-8097
▁தொடர்புகளை	-8098
▁பேர்லினில்	-8099
ாயிருக்கிறது	-8100
▁ஐரோப்பாவின்	-8101
▁முன்னணியில்	-8102
▁வெளியிட்டார்	-8103
▁செயல்படுத்துவ	-8104
▁தெரிவித்ததாவது	-8105
பழ	-8106
எல்	-8107
வனோ	-8108
்ஸ்	-8109
முதல	-8110
மென்	-8111
விடு	-8112
▁பிஸ	-8113
▁பொல	-8114
▁ப்ர	-8115
▁யுவ	-8116
னைகளை	-8117
▁LTTE	-8118
▁எக்க	-8119
▁சமார	-8120
▁துயர	-8121
ுகொண்ட	-8122
▁கருது	-8123
▁பர்வத	-8124
▁முப்ப	-8125
டுகளின்	-8126
ாமற்போன	-8127
▁நடப்பு	-8128
▁அமைத்து	-8129
▁சென்றது	-8130
▁சேர்த்த	-8131
▁பொல்லாத	-8132
ட்டுக்கள்	-8133
▁கன்சர்வே	-8134
▁பெற்றனர்	-8135
தற்காகவும்	-8136
▁இந்தியில்	-8137
▁எகிப்தின்	-8138
▁திரும்பிய	-8139
▁மாதங்களாக	-8140
▁வரும்போது	-8141
ாயிருந்தான்	-8142
▁அதிகரிப்பு	-8143
▁இடம்பெற்று	-8144
▁என்பவர்கள்	-8145
▁முரண்பாடுக	-8146
▁பிரச்சனைகள்	-8147
▁செய்யப்பட்டனர்	-8148
▁தாக்குதல்களில்	-8149
uv	-8150
வல	-8151
ெட	-8152
மிட	-8153
யோக	-8154
ாரே	-8155
▁பன	-8156
தமிழ	-8157
ள்யூ	-8158
▁கீல	-8159
வனின்	-8160
ாந்த்	-8161
ாவார்	-8162
▁நபர்	-8163
▁பசிப	-8164
னையில்	-8165
▁அண்டை	-8166
▁தமிழக	-8167
▁பொறிய	-8168
ச்செய்ய	-8169
▁ஆயுதப்	-8170
ப்படுதல்	-8171
ப்போக்கு	-8172
▁இழுத்து	-8173
▁கண்டேன்	-8174
▁புரிந்த	-8175
▁மறுநாள்	-8176
▁முடித்த	-8177
▁முதலாம்	-8178
▁வைத்தது	-8179
த்தன்மையை	-8180
ேயிருந்து	-8181
▁குர்திஷ்	-8182
▁சென்றனர்	-8183
▁ஜோர்ஜியா	-8184
▁அரசாங்கத்	-8185
▁இதைத்தவிர	-8186
▁உணர்வுகளை	-8187
▁பெப்ருவரி	-8188
▁விரும்பிய	-8189
ternational	-8190
ப்படுத்திக்	-8191
▁அங்கீகாரம்	-8192
▁உள்ளடக்கிய	-8193
▁மிகப்பெரும	-8194
▁ஆஸ்திரேலியா	-8195
▁இடங்களிலும்	-8196
▁ஏற்படுத்துவ	-8197
▁தெரிவிக்கும்	-8198
▁இசையமைப்பாளர்	-8199
▁நீதிமன்றத்தின்	-8200
▁பார்க்கும்போது	-8201
வட	-8202
னல்	-8203
்டு	-8204
▁Pr	-8205
▁ஒர	-8206
க்ஸ்	-8207
பயோக	-8208
கட்சி	-8209
தென்ன	-8210
ளாவிய	-8211
ுவோம்	-8212
▁ஏஞ்ச	-8213
▁காலக	-8214
▁பயமு	-8215
த்தீன்	-8216
மாக்கு	-8217
ற்கும்	-8218
வனுடைய	-8219
ாக்குக	-8220
▁அபராத	-8221
▁அப்து	-8222
▁மீன்ப	-8223
▁அந்நாள	-8224
▁ஒப்புத	-8225
▁கடவுள்	-8226
▁நன்றாக	-8227
▁விதமான	-8228
▁பங்குச்	-8229
▁பிராங்க	-8230
▁ஆப்கானிய	-8231
▁தோல்வியை	-8232
▁முகாமில்	-8233
▁இவர்களில்	-8234
▁குறைவூதிய	-8235
▁தேர்தலின்	-8236
▁பிரசுரிக்க	-8237
▁கொடுக்கப்பட	-8238
▁பள்ளத்தாக்க	-8239
▁இவ்விதத்தில்	-8240
▁பதவியிலிருந்து	-8241
▁என்றென்றைக்கும்	-8242
மின	-8243
ரவு	-8244
வேலை	-8245
▁ஏறி	-8246
ocial	-8247
கரமான	-8248
ட்களை	-8249
த்னம்	-8250
மித்த	-8251
ர்காவ	-8252
ள்ளாக	-8253
ுடனான	-8254
▁கொழு	-8255
▁ஹூசே	-8256
ங்கின்	-8257
ாக்களை	-8258
ிக்கூட	-8259
▁Party	-8260
▁செய்ப	-8261
▁தனுஷ்	-8262
▁பூட்ட	-8263
ிப்போம்	-8264
▁தென்கொ	-8265
▁நாளிலே	-8266
▁படுத்த	-8267
▁பரவலான	-8268
ிருக்கக்	-8269
▁அவளுடைய	-8270
▁கைகளில்	-8271
▁பீட்டர்	-8272
▁வலிமையை	-8273
▁வளர்த்த	-8274
ாளர்களால்	-8275
▁ஆக்கிரோஷ	-8276
▁செல்வராக	-8277
▁புளோரிடா	-8278
▁மாற்றீடு	-8279
▁வளர்த்து	-8280
▁அரசாங்கக்	-8281
▁இறக்குமதி	-8282
▁பங்கிற்கு	-8283
▁பன்னிரண்டு	-8284
▁ராஜாவுக்கு	-8285
▁பெருகிவரும்	-8286
▁பத்திரிகைக்கு	-8287
▁கொடுத்துள்ளார்	-8288
▁முயற்சிகளுக்கு	-8289
ிக்கப்பட்டுள்ளது	-8290
▁பிரதிபலிக்கிறது	-8291
மோச	-8292
யின	-8293
▁ஜல	-8294
ஸார்	-8295
ாசன்	-8296
▁Mon	-8297
▁இஸ்	-8298
▁எசே	-8299
▁நூற	-8300
ிவகார	-8301
▁2010	-8302
ணக்கான	-8303
ன்புரி	-8304
ஸ்கார்	-8305
ிர்த்த	-8306
▁கழகம்	-8307
▁கிரிம	-8308
▁பால்க	-8309
▁ஊழியர்	-8310
▁காணும்	-8311
▁நோர்வே	-8312
ம்பண்ணின	-8313
▁எத்தகைய	-8314
▁ஒதுக்கி	-8315
▁நிறைவேற	-8316
ிருந்தேன்	-8317
▁உங்களில்	-8318
▁காட்சியை	-8319
▁வாங்கும்	-8320
▁வைத்தார்	-8321
ிப்பார்கள்	-8322
▁எல்லையில்	-8323
▁பரிந்துரை	-8324
▁பொறுப்பான	-8325
▁மேற்கொள்வ	-8326
▁தேர்தல்களை	-8327
▁போட்டியில்	-8328
▁வெளிப்பாடு	-8329
▁நிறுவனங்களை	-8330
▁பாதிப்பிற்கு	-8331
▁முன்கூட்டியே	-8332
ge	-8333
ty	-8334
ெல	-8335
வழி	-8336
ாலா	-8337
▁லொ	-8338
ப்பன	-8339
மதிய	-8340
ற்றொட	-8341
ினுள்	-8342
▁ஆகாய	-8343
டையின்	-8344
தினாலே	-8345
வருடைய	-8346
ிகரமாக	-8347
▁விசேட	-8348
ிப்பதன்	-8349
▁உதவித்	-8350
▁கருதிய	-8351
▁திறக்க	-8352
▁படமும்	-8353
▁பிரயோக	-8354
▁விடுதல	-8355
▁எல்லாப்	-8356
▁நாற்பது	-8357
▁பற்றிப்	-8358
▁பெப்பிர	-8359
▁மீன்பிட	-8360
▁காயமுற்ற	-8361
▁தவிர்ப்ப	-8362
▁தொழிலாளி	-8363
த்துவிட்டு	-8364
▁அணுகுமுறை	-8365
▁கைதுசெய்ய	-8366
▁சட்டங்கள்	-8367
▁சான்றுகள்	-8368
▁நீங்களும்	-8369
▁படங்களின்	-8370
▁மாற்றத்தை	-8371
▁இங்கிலாந்து	-8372
▁சாத்தியக்கூ	-8373
▁பிரச்சனைகளை	-8374
▁செய்தித்தாள்	-8375
▁நலன்களுக்காக	-8376
▁பகுதிகளிலும்	-8377
▁கிடைக்கவில்லை	-8378
▁செய்யப்பட்டுள்ள	-8379
SU	-8380
ok	-8381
ans	-8382
und	-8383
புல	-8384
▁65	-8385
விஸ்	-8386
ிலேய	-8387
ைகளே	-8388
▁150	-8389
▁ஒலி	-8390
▁சாப	-8391
▁சுழ	-8392
▁விம	-8393
களும்	-8394
ம்மைய	-8395
▁ஈட்ட	-8396
▁பல்லூ	-8397
▁பாளயம	-8398
▁வாலிப	-8399
ியினால்	-8400
னியாவில்	-8401
▁குடிக்க	-8402
▁தணிக்கை	-8403
▁தளர்த்த	-8404
▁புறநிலை	-8405
ிடுவதற்கு	-8406
▁அவன்மேல்	-8407
▁திரைக்கு	-8408
▁தீர்த்து	-8409
▁முறையும்	-8410
▁ஆதரவையும்	-8411
▁கண்டித்து	-8412
▁சரத்குமார்	-8413
▁நீதித்துறை	-8414
▁அமுல்படுத்த	-8415
▁கருத்துக்கண	-8416
▁சுதந்திரமாக	-8417
▁பிரச்சினையை	-8418
▁விரிவாக்கம்	-8419
▁மக்களுக்கும்	-8420
ிடத்திலிருந்து	-8421
▁அழைக்கப்படும்	-8422
▁எழுதியுள்ளார்	-8423
▁மட்டுமல்லாமல்	-8424
4-	-8425
80	-8426
tu	-8427
மேல	-8428
ுதேச	-8429
▁600	-8430
▁ஐயோ	-8431
ன்சேக	-8432
வாரம்	-8433
▁சிரம	-8434
▁நோய்	-8435
▁பஸ்க	-8436
தல்கள்	-8437
▁உபயோக	-8438
▁ஒருவன	-8439
▁கூடிவ	-8440
▁கொசோவ	-8441
▁தேர்வ	-8442
▁நிக்க	-8443
ஞ்செய்ய	-8444
▁இத்தனை	-8445
▁குஷ்பு	-8446
▁நாடும்	-8447
▁வீச்சு	-8448
க்கிற்கு	-8449
▁யுரேனிய	-8450
▁யூகோஸ்ல	-8451
▁வரையில்	-8452
பொருளாதார	-8453
▁உரையாற்ற	-8454
▁பாதிப்பை	-8455
▁பொருட்டு	-8456
▁மைக்கேல்	-8457
▁இந்தியாவை	-8458
▁திருப்பிய	-8459
ிக்கப்பட்டன	-8460
▁இடத்திற்கு	-8461
▁கூறுகின்றன	-8462
▁கொள்வதற்கு	-8463
▁நிலையங்கள்	-8464
▁பாதுகாப்பை	-8465
▁அரசியலுக்கு	-8466
▁உறுப்பினராக	-8467
▁கருதப்படும்	-8468
த்திலிருக்கிற	-8469
▁பாதுகாப்புக்	-8470
▁முக்கியமானது	-8471
▁நாடுகளுக்கும்	-8472
இரா	-8473
ரித	-8474
ிவா	-8475
ுமி	-8476
▁Ar	-8477
டுகள	-8478
ரைத்	-8479
ிகன்	-8480
ியம்	-8481
யுத்த	-8482
லானது	-8483
▁காதல	-8484
▁டயஸ்	-8485
▁வானொ	-8486
ராட்சி	-8487
லாகாது	-8488
▁காலவர	-8489
▁சுனாம	-8490
▁தவறிய	-8491
▁நிந்த	-8492
▁ரிச்ச	-8493
ித்தால்	-8494
▁குழாய்	-8495
▁சமூகத்	-8496
▁சிவில்	-8497
▁மீட்பு	-8498
▁மையமாக	-8499
ப்பட்டதை	-8500
▁அமர்ந்த	-8501
▁சேர்பிய	-8502
▁பொன்சேக	-8503
▁வாழ்ந்த	-8504
க்குகளில்	-8505
ுவதாகவும்	-8506
▁உத்தரவாத	-8507
▁தாக்கும்	-8508
▁வரவேற்பு	-8509
ாயிருந்தது	-8510
▁ஒப்படைக்க	-8511
▁தவிர்த்து	-8512
▁இராணுவமும்	-8513
▁திடீரென்று	-8514
▁முதலாளிகள்	-8515
▁வெளிப்பட்ட	-8516
▁வைத்துள்ளது	-8517
▁பாதுகாக்கும்	-8518
▁வேட்பாளர்களை	-8519
▁பெரும்பான்மைய	-8520
▁பாலஸ்தீனியர்கள்	-8521
▁வேலைநிறுத்தத்தை	-8522
end	-8523
டல்	-8524
ொன்	-8525
▁மழ	-8526
டுமா	-8527
நூறு	-8528
்சன்	-8529
▁தகர	-8530
▁ஹார	-8531
கடந்த	-8532
கையான	-8533
த்தம்	-8534
ிட்டி	-8535
ிழந்த	-8536
▁அப்ச	-8537
▁டஜன்	-8538
▁போலி	-8539
▁மறுப	-8540
▁வரிவ	-8541
▁வளம்	-8542
ச்சில்	-8543
ந்திரா	-8544
னியும்	-8545
ருளும்	-8546
▁பாண்ட	-8547
▁புதன்	-8548
▁முதிய	-8549
▁வேடம்	-8550
ருக்காக	-8551
ெங்கும்	-8552
▁கவுன்ச	-8553
▁புலம்ப	-8554
▁முகாம்	-8555
▁இவ்வளவு	-8556
▁தட்டின்	-8557
▁போயுள்ள	-8558
ிருப்பார்	-8559
▁நிறுத்து	-8560
▁முஷாரஃப்	-8561
▁ஆதாரங்கள்	-8562
▁எச்சரித்த	-8563
▁குடும்பம்	-8564
▁தெளிவாக்க	-8565
▁இருந்தபோது	-8566
▁எகிப்துதேச	-8567
▁சம்பந்தமான	-8568
▁விட்டுக்கொ	-8569
▁இருப்பதுடன்	-8570
▁குறைந்தபட்ச	-8571
▁செய்தித்தாள	-8572
▁நிலையத்தில்	-8573
▁பிதாக்களின்	-8574
▁விருப்பத்தை	-8575
▁உங்களுக்குக்	-8576
▁கேட்டுக்கொண்ட	-8577
MF	-8578
▁m	-8579
கல்	-8580
்வீ	-8581
="3"	-8582
அந்த	-8583
க்ரோ	-8584
ட்ஸ்	-8585
தனம்	-8586
ிர்க	-8587
▁அபு	-8588
▁ஆவி	-8589
▁கிய	-8590
▁சதி	-8591
ிறான்	-8592
▁எரிச	-8593
ப்புக்	-8594
ம்பரம்	-8595
ிட்டம்	-8596
▁ஏவுகண	-8597
▁சமமான	-8598
▁தரிசன	-8599
ட்டுகள்	-8600
▁பின்னண	-8601
▁பெருகி	-8602
▁மூலமாக	-8603
▁மைக்ரோ	-8604
▁அதனுடைய	-8605
▁ஒற்றுமை	-8606
▁குற்றச்	-8607
▁பங்கைக்	-8608
▁வளங்களை	-8609
டுகளையும்	-8610
▁இயங்கும்	-8611
▁உனக்குச்	-8612
▁எனக்கும்	-8613
▁கருவியாக	-8614
▁தந்துள்ள	-8615
▁பூர்த்தி	-8616
▁முத்திரை	-8617
▁உயரடுக்கு	-8618
▁உருவாகும்	-8619
ைகளையெல்லாம்	-8620
▁இருக்கிறேன்	-8621
▁இவர்களுக்கு	-8622
▁ஈடுபட்டுள்ள	-8623
▁செய்திருந்த	-8624
▁தாக்குதலின்	-8625
▁பாதுகாப்பான	-8626
▁பாத்திரத்தை	-8627
▁பொருளாதாரக்	-8628
▁பாராளுமன்றம்	-8629
ம்பண்ணினார்கள்	-8630
▁குமாரதுங்கவின்	-8631
▁தேவைப்படுகிறது	-8632
---	-8633
ain	-8634
erv	-8635
முய	-8636
யாண	-8637
ஷ்க	-8638
▁AF	-8639
▁Gu	-8640
amil	-8641
▁களை	-8642
▁நீள	-8643
▁பிய	-8644
▁ராக	-8645
ங்களோ	-8646
ண்டன்	-8647
ஸ்பன்	-8648
ாண்மை	-8649
ாயும்	-8650
ுவில்	-8651
▁டிரை	-8652
▁பதாக	-8653
▁பாடக	-8654
இராணுவ	-8655
▁அம்மா	-8656
▁கலந்த	-8657
▁கொலைக	-8658
▁ஜோர்ட	-8659
▁நாடான	-8660
▁விக்ர	-8661
ப்புகளை	-8662
வர்களது	-8663
▁நகரமான	-8664
▁பிரசுர	-8665
▁பேதுரு	-8666
க்கிறார்	-8667
முறையின்	-8668
ிகளுடனான	-8669
ிக்காட்ட	-8670
▁அழைப்பை	-8671
▁உட்பட்டு	-8672
▁சமசமாஜக்	-8673
▁செலுத்தி	-8674
▁மக்களும்	-8675
▁முதல்வர்	-8676
▁ஒளிப்பதிவ	-8677
▁சேர்த்துக்	-8678
▁நிருபர்கள்	-8679
▁வற்புறுத்த	-8680
▁ஆசாரியனாகிய	-8681
▁அதிகாரத்தில்	-8682
▁இப்பகுதியில்	-8683
▁சட்டபூர்வமான	-8684
▁போராட்டத்திற்கு	-8685
AW	-8686
▁ஸ	-8687
aul	-8688
சீக	-8689
ஷ்ப	-8690
ேகா	-8691
▁எய	-8692
html	-8693
நோய்	-8694
ாத்க	-8695
ிதழ்	-8696
▁உணர	-8697
ரியாக	-8698
ிலின்	-8699
ெயின்	-8700
▁Jean	-8701
▁திகை	-8702
▁பாலா	-8703
▁மணிர	-8704
மாக்கி	-8705
ுக்கான	-8706
்பெற்ற	-8707
▁இதன்ப	-8708
▁ஓரளவு	-8709
▁கடன்க	-8710
▁கொலைய	-8711
▁ஜெயம்	-8712
▁டொலர்	-8713
ாட்டின்	-8714
ியிலும்	-8715
▁தற்செய	-8716
▁தீவில்	-8717
▁பிரமுக	-8718
▁புத்தக	-8719
▁போவதாக	-8720
▁யோசுவா	-8721
▁வங்கிய	-8722
▁விரிவு	-8723
த்துப்போ	-8724
ிஸ்டுகள்	-8725
▁இடதுசார	-8726
▁கம்பெனி	-8727
▁சொற்றொட	-8728
▁நிலையம்	-8729
▁உந்துதல்	-8730
▁காக்கும்	-8731
▁சென்றார்	-8732
▁விட்டனர்	-8733
▁வீட்டிலே	-8734
▁ஸ்டுடியோ	-8735
▁ஆலயத்தின்	-8736
▁பாத்திரம்	-8737
▁வறுமையில்	-8738
▁விவரங்கள்	-8739
சீர்திருத்த	-8740
▁ஆதரிக்கும்	-8741
▁எதிர்கொள்க	-8742
▁செல்வதற்கு	-8743
▁மாற்றங்கள்	-8744
▁முடிவுகட்ட	-8745
▁கூட்டணியின்	-8746
▁செய்துகொண்ட	-8747
▁செலவினங்கள்	-8748
▁தனிமைப்படுத்த	-8749
▁எதிர்ப்புக்களை	-8750
▁கொண்டிருப்பதாக	-8751
▁பெரும்பான்மையை	-8752
▁அடிக்கோடிட்டுக்	-8753
97	-8754
வத	-8755
தாஸ்	-8756
ொன்ன	-8757
▁CPM	-8758
▁பீட	-8759
சியல்	-8760
னிடம்	-8761
ுவருக	-8762
ர்களான	-8763
ஸ்தான்	-8764
▁இதைத்	-8765
▁இராஜி	-8766
▁கைகளை	-8767
▁தடையை	-8768
க்காரர்	-8769
த்துவிட	-8770
வுகளில்	-8771
▁அமைத்த	-8772
▁உரையாட	-8773
▁ஊர்காவ	-8774
▁மனதில்	-8775
ப்பொழுது	-8776
ில்லாமல்	-8777
▁அரசியலை	-8778
▁தெஹ்ரான	-8779
▁தேசியப்	-8780
▁மருந்து	-8781
▁முடுக்க	-8782
▁வடிவேலு	-8783
▁வளங்கள்	-8784
▁அப்படிச்	-8785
▁இடமில்லை	-8786
▁உடன்பட்ட	-8787
▁கொண்டதாக	-8788
▁பிலிப்பை	-8789
▁ஜப்பானின்	-8790
▁தாக்கத்தை	-8791
▁பாவநிவாரண	-8792
▁விவாதிக்க	-8793
▁ஆப்பிரிக்க	-8794
▁இவற்றிற்கு	-8795
▁செலவினங்களை	-8796
▁நிர்வாகமும்	-8797
▁நீண்டகாலமாக	-8798
▁கட்சிகளுக்கு	-8799
▁கொண்டிருந்தன	-8800
▁செய்துள்ளனர்	-8801
▁வேலைவாய்ப்பு	-8802
▁ஏற்படுத்தியது	-8803
▁ஒப்பந்தத்தில்	-8804
▁மேற்கொண்டுள்ள	-8805
▁வந்திருக்கிறது	-8806
og	-8807
தில	-8808
யது	-8809
முனை	-8810
▁NPA	-8811
▁எப்	-8812
▁கவச	-8813
▁சன்	-8814
▁நகை	-8815
▁மால	-8816
த்தைய	-8817
ராஜன்	-8818
▁1996	-8819
▁அவரே	-8820
▁ஆனது	-8821
டுவதாக	-8822
▁ஆலோசக	-8823
▁இந்நா	-8824
▁தைரிய	-8825
▁நிர்ம	-8826
▁பரம்ப	-8827
▁விற்ற	-8828
முறைகளை	-8829
▁அடிபணி	-8830
▁குறைமத	-8831
▁நடத்து	-8832
▁பலமுறை	-8833
▁பிலிம்	-8834
▁வேலையை	-8835
ிப்புகள்	-8836
▁அவரிடம்	-8837
▁அவ்வளவு	-8838
▁நிலைத்த	-8839
▁பாலியல்	-8840
▁வரவேற்ப	-8841
க்காகவும்	-8842
▁உலகளாவிய	-8843
▁உள்ளடங்க	-8844
▁நெருக்கு	-8845
▁மாற்றிக்	-8846
▁வழக்கமான	-8847
▁விளக்குக	-8848
▁வீடுகளில்	-8849
▁காணப்படும்	-8850
▁முயற்சியாக	-8851
▁வாழ்க்கையை	-8852
▁இராணுவத்தின	-8853
▁சிராக்கிற்கு	-8854
▁பொருட்படுத்த	-8855
▁காட்டுமிராண்ட	-8856
▁ஆத்திரமூட்டும்	-8857
▁கருதப்படுகிறது	-8858
-2	-8859
3-	-8860
மட	-8861
ack	-8862
est	-8863
ாபன	-8864
▁ஜொ	-8865
க்கர	-8866
க்ஷீ	-8867
ன்னா	-8868
▁192	-8869
▁அவள	-8870
▁இதய	-8871
▁கவி	-8872
▁சடல	-8873
க்கர்	-8874
சேகர்	-8875
ழுவிய	-8876
ிவிடு	-8877
▁இவரை	-8878
▁சில்	-8879
ப்படல்	-8880
ாய்ப்ப	-8881
▁கன்னட	-8882
▁தூதர்	-8883
▁புனித	-8884
▁மீட்ட	-8885
▁கொண்டே	-8886
▁பாரதிர	-8887
ிகளாலும்	-8888
▁அக்கினி	-8889
▁அதிலும்	-8890
▁ஆலோசகர்	-8891
▁தெரியாத	-8892
▁விடையிற	-8893
▁அளவிலும்	-8894
▁நியமித்த	-8895
▁பங்குதார	-8896
▁பாரிசில்	-8897
க்குழுவின்	-8898
▁உறுதிமொழி	-8899
▁காட்சிகளை	-8900
▁குண்டுகள்	-8901
▁நண்பர்கள்	-8902
▁பயங்கரமான	-8903
▁வசிக்கும்	-8904
ிப்பதற்கும்	-8905
▁அவருக்குப்	-8906
▁என்னவெனில்	-8907
ப்படுத்துவது	-8908
▁சொத்துக்களை	-8909
ித்துக்கொண்டு	-8910
▁எதிர்க்கட்சி	-8911
▁பண்டாரநாயக்க	-8912
▁வெளிநாட்டுக்	-8913
▁அச்சுறுத்தலாக	-8914
▁நிறுவனங்களில்	-8915
ப்பட்டிருக்கும்	-8916
▁எடுத்துக்கொண்ட	-8917
EC	-8918
SPD	-8919
ern	-8920
gel	-8921
ஷம்	-8922
ாடி	-8923
▁in	-8924
சந்த	-8925
பவர்	-8926
வேல்	-8927
ிறகு	-8928
▁UPA	-8929
▁பலக	-8930
டிகள்	-8931
மைத்த	-8932
றுகளை	-8933
▁ஆவேச	-8934
▁எரிய	-8935
▁எலிச	-8936
▁ஒலிவ	-8937
▁கன்ம	-8938
▁புகல	-8939
ரிலும்	-8940
▁பராமர	-8941
▁பிஷ்ஷ	-8942
▁மீறிய	-8943
▁ஷியாவ	-8944
ந்திரன்	-8945
▁அழைத்த	-8946
▁இலக்கை	-8947
▁இவைகளை	-8948
▁தமக்கு	-8949
▁தெரியவ	-8950
▁பலாத்க	-8951
▁பாரசீக	-8952
▁பொதுநல	-8953
▁சொன்னது	-8954
▁நபர்கள்	-8955
▁முகத்தை	-8956
▁மூர்க்க	-8957
▁வடகொரிய	-8958
▁வளர்ப்ப	-8959
▁விமானப்	-8960
▁விருந்த	-8961
ிகளுக்கான	-8962
▁கேட்டால்	-8963
▁கைவிட்டு	-8964
▁கோடிட்டு	-8965
▁போக்கில்	-8966
த்துக்குக்	-8967
த்துறையில்	-8968
ிக்கொண்டது	-8969
▁அதிர்ச்சி	-8970
▁அனைத்துக்	-8971
▁அறிமுகமாக	-8972
▁எடுத்துச்	-8973
▁தனியார்மய	-8974
▁பிள்ளைகள்	-8975
▁மன்னிப்பு	-8976
▁மேற்பார்வ	-8977
▁வரிசையில்	-8978
▁அதிகாரிகளை	-8979
▁அழுத்தத்தை	-8980
▁சிறுபான்மை	-8981
▁மட்டத்தில்	-8982
ிருப்பார்கள்	-8983
▁அவனிடத்தில்	-8984
▁உன்னிடத்தில்	-8985
▁தொடர்பாகவும்	-8986
▁நடவடிக்கையாக	-8987
▁எடுக்கப்படும்	-8988
▁சீர்திருத்தம்	-8989
▁அமெரிக்காவிலும்	-8990
▁உடன்படிக்கையின்	-8991
if	-8992
போவ	-8993
ஷ்ச	-8994
▁37	-8995
▁வொ	-8996
சும்	-8997
மடைய	-8998
ராத்	-8999
ிதம்	-9000
▁அகல	-9001
▁உறை	-9002
▁ஓடி	-9003
▁கேள	-9004
▁சுட	-9005
▁பேண	-9006
ோறும்	-9007
▁அளவை	-9008
▁திரை	-9009
குதியை	-9010
பில்லா	-9011
ுள்ளது	-9012
▁கூற்ற	-9013
▁தகனபல	-9014
▁பங்கே	-9015
▁ஹமாஸ்	-9016
மாக்குவ	-9017
▁சமரசம்	-9018
▁வகையான	-9019
வையாகும்	-9020
▁செலவில்	-9021
▁பணிபுரி	-9022
▁அறிவியல்	-9023
▁இதேபோன்ற	-9024
▁விட்டுப்	-9025
ிப்புக்களை	-9026
▁செல்வத்தை	-9027
▁மக்களிடம்	-9028
ப்பட்டதற்கு	-9029
▁காட்டிலும்	-9030
▁சூழ்நிலையை	-9031
ப்படுத்தியது	-9032
▁ஆகியவற்றால்	-9033
▁கலந்துகொள்ள	-9034
▁பிரகாஷ்ராஜ்	-9035
▁வைத்திருந்த	-9036
▁அவுஸ்திரேலிய	-9037
▁கட்டியெழுப்ப	-9038
ப்படுகிறார்கள்	-9039
▁தேர்ந்தெடுத்த	-9040
▁ஒப்புக்கொடுத்த	-9041
▁கிளர்ச்சிக்கார	-9042
▁அனுமதிக்கப்பட்ட	-9043
io	-9044
ேவ	-9045
சீன	-9046
▁UN	-9047
▁ரவ	-9048
▁வத	-9049
டையை	-9050
ப்பண	-9051
ாவளி	-9052
▁பஸ்	-9053
முறைய	-9054
ிதமான	-9055
ோரும்	-9056
▁இனவெ	-9057
▁கந்த	-9058
▁நொறு	-9059
▁பரத்	-9060
▁வேறே	-9061
கொண்டு	-9062
▁உபதேச	-9063
▁செஞ்ச	-9064
▁நிதான	-9065
▁படமாக	-9066
▁பயந்த	-9067
▁பரப்ப	-9068
திகளின்	-9069
ீர்களாக	-9070
▁ஐஸ்வர்	-9071
▁சாட்சி	-9072
▁தடுத்த	-9073
▁வெற்று	-9074
▁கண்டனப்	-9075
▁வக்கீல்	-9076
ாயிருந்து	-9077
▁சமாளிக்க	-9078
▁செவ்வாய்	-9079
▁மணித்திய	-9080
▁அமைதியின்	-9081
▁இருந்தான்	-9082
▁கிரிமினல்	-9083
▁சம்பிரதாய	-9084
▁பிரிவுகளை	-9085
▁அவனுக்குப்	-9086
▁ஊடகங்களில்	-9087
▁நிலையிலும்	-9088
▁பத்திரிக்க	-9089
▁மற்றவர்கள்	-9090
▁மாளிகையில்	-9091
▁உறுப்பினரான	-9092
▁நிதியத்தின்	-9093
▁மட்டுமின்றி	-9094
▁மேற்கொள்ளும்	-9095
▁கருதுகின்றனர்	-9096
▁கையெழுத்திட்ட	-9097
▁அச்சுறுத்தல்கள்	-9098
!"	-9099
12	-9100
மண	-9101
CDU	-9102
இரு	-9103
முழ	-9104
ானை	-9105
ாயா	-9106
டியே	-9107
போதே	-9108
▁Met	-9109
▁அடு	-9110
▁கிண	-9111
▁கைக	-9112
▁நிஜ	-9113
▁யெர	-9114
▁வைர	-9115
ாடும்	-9116
▁ஒழிய	-9117
▁சான்	-9118
வர்க்க	-9119
▁அழிவு	-9120
▁எஜமான	-9121
▁பணிநீ	-9122
▁புறம்	-9123
தியுடன்	-9124
மைச்சர்	-9125
▁நடுப்ப	-9126
▁வழங்கி	-9127
▁விளைபய	-9128
ட்டுக்கு	-9129
ிடத்திலே	-9130
▁இத்தாலி	-9131
▁தேசத்தை	-9132
▁நடுவிலே	-9133
▁நித்திர	-9134
▁விமானம்	-9135
▁வெளிநில	-9136
▁கருவிகள்	-9137
▁பங்குகள்	-9138
▁போராடும்	-9139
▁அரசுகளின்	-9140
▁கொடுப்பது	-9141
▁தன்மையில்	-9142
▁ஸ்தோத்திர	-9143
▁அடிப்படைக்	-9144
▁படப்பிடிப்பை	-9145
▁இந்தியாவிற்கு	-9146
▁அமைப்புக்களின்	-9147
▁திட்டங்களுக்கு	-9148
▁வேலைத்திட்டத்தை	-9149
ys	-9150
ass	-9151
ிரத	-9152
▁இடி	-9153
▁பழை	-9154
ஆனால்	-9155
கொள்ள	-9156
ாய்க்	-9157
▁1997	-9158
▁ஆல்ப	-9159
▁கேளு	-9160
▁தம்ப	-9161
ழ்ந்து	-9162
▁ஏகபோக	-9163
▁கென்ன	-9164
▁தாண்ட	-9165
▁திண்ட	-9166
▁திறனை	-9167
▁நமிதா	-9168
▁பாட்ட	-9169
▁பேரணி	-9170
▁பேரம்	-9171
▁ப்ரிய	-9172
▁முருக	-9173
▁ஹாங்க	-9174
படிக்கு	-9175
ிறதற்கு	-9176
▁அவரால்	-9177
▁இணைக்க	-9178
▁இறங்கி	-9179
▁சாலொமோ	-9180
▁தரப்பு	-9181
▁தாக்கி	-9182
▁ராஜாவை	-9183
▁விஜயகா	-9184
▁ஹூசேன்	-9185
ப்படைகள்	-9186
▁சார்பாக	-9187
▁சிப்பாய	-9188
▁நிருபர்	-9189
▁விதிகளை	-9190
▁வினியோக	-9191
ுவருகிறது	-9192
▁இந்தியப்	-9193
▁நாட்களாக	-9194
▁பட்டியல்	-9195
▁பெற்றுக்	-9196
▁மாநாட்டு	-9197
▁அரசாங்கப்	-9198
▁இலக்குகளை	-9199
▁குழுக்களை	-9200
▁குழுவினர்	-9201
▁கூட்டணியை	-9202
▁செய்திகளை	-9203
▁தூண்டிவிட	-9204
▁தோன்றியது	-9205
▁நடத்துவது	-9206
▁அமைப்புகள்	-9207
▁தொடர்கிறது	-9208
▁சொன்னார்கள்	-9209
▁தோல்வியடைந்த	-9210
▁வலியுறுத்துக	-9211
▁ஒட்டுமொத்தமாக	-9212
▁வாக்குப்பதிவு	-9213
ூச	-9214
க்ஸ	-9215
நர்	-9216
ம்த	-9217
ோய்	-9218
▁ஈழ	-9219
▁ரஃ	-9220
ence	-9221
eral	-9222
ெனவே	-9223
▁அவமத	-9224
▁சிம்	-9225
▁நாஜி	-9226
▁விளி	-9227
ஞர்கள்	-9228
டாவில்	-9229
நாளில்	-9230
ாதிபதி	-9231
▁ஓட்டு	-9232
▁கட்டள	-9233
▁டெல்ல	-9234
▁பிதாவ	-9235
▁வாதம்	-9236
▁எலும்ப	-9237
▁ஓப்பல்	-9238
▁மன்றம்	-9239
▁ஆத்துமா	-9240
▁சாதகமான	-9241
▁அழித்துவ	-9242
▁விழிப்பு	-9243
ற்றுக்கும்	-9244
▁அவர்களைச்	-9245
▁கேளுங்கள்	-9246
▁கைச்சாத்த	-9247
▁கொள்ளலாம்	-9248
▁தெற்காசிய	-9249
▁பென்யமீன்	-9250
▁மூடப்பட்ட	-9251
▁ரஜினியின்	-9252
ப்படுகிறார்	-9253
மைக்கப்பட்ட	-9254
▁அதிகமாகும்	-9255
▁துல்லியமாக	-9256
▁அமைச்சர்கள்	-9257
▁உயரடுக்கின்	-9258
▁நிர்வாகிகள்	-9259
த்தினிமித்தம்	-9260
▁அதற்குப்பின்	-9261
▁கண்டுபிடிக்க	-9262
▁நடவடிக்கையின்	-9263
▁எதிர்காலத்தில்	-9264
ஷி	-9265
மேள	-9266
கந்த	-9267
ந்தீ	-9268
ானாக	-9269
ாறான	-9270
▁அசை	-9271
▁கூல	-9272
▁ஜோச	-9273
▁ரமே	-9274
▁ராத	-9275
க்கரு	-9276
தாக்க	-9277
தாரம்	-9278
முண்ட	-9279
ம்போல	-9280
ியடைய	-9281
▁மாறி	-9282
▁வெடி	-9283
மானவர்	-9284
ெதிராக	-9285
▁துரித	-9286
ங்கொண்ட	-9287
ர்களைக்	-9288
ாருக்கு	-9289
ிக்குப்	-9290
ுவதுடன்	-9291
▁பிரகாச	-9292
▁புறம்ப	-9293
▁மனிதர்	-9294
▁மாதவன்	-9295
க்கடவாய்	-9296
தெல்லாம்	-9297
ாவிலுள்ள	-9298
ையிலுள்ள	-9299
▁அதினால்	-9300
▁ஆப்கான்	-9301
▁கறுப்பு	-9302
▁தாழ்த்த	-9303
▁விருத்த	-9304
ையாகிலும்	-9305
▁அதிகாரப்	-9306
▁எனவேதான்	-9307
▁ஜனத்தின்	-9308
▁நலன்புரி	-9309
▁பேருக்கு	-9310
▁மொத்தமாக	-9311
▁யூதர்கள்	-9312
▁வியட்நாம	-9313
▁அவர்களால்	-9314
▁அவர்களோடே	-9315
▁சுகாதாரப்	-9316
▁நடைபெற்றன	-9317
▁பேரணியில்	-9318
▁வந்தாலும்	-9319
ிருப்பினும்	-9320
▁ஆரம்பித்து	-9321
▁தோற்கடிக்க	-9322
▁பிரச்சனையை	-9323
▁விளையாட்டு	-9324
▁வெளிவிவகார	-9325
▁அதிருப்தியை	-9326
▁எதிர்ப்பின்	-9327
▁திட்டவட்டமான	-9328
▁போட்டியிடும்	-9329
▁அதிகரித்துவரும்	-9330
▁எதிர்ப்பாளர்கள்	-9331
DF	-9332
nb	-9333
ேட	-9334
வள்	-9335
ாரை	-9336
ிகோ	-9337
▁வற	-9338
சேகா	-9339
மணிய	-9340
▁Ste	-9341
▁தாச	-9342
▁ரஹ்	-9343
▁ரிச	-9344
ement	-9345
ுவேல்	-9346
▁உண்ண	-9347
▁கருண	-9348
▁தலைக	-9349
▁அசின்	-9350
▁அவமான	-9351
▁ரயில்	-9352
த்தோட்ட	-9353
ிகழ்ச்ச	-9354
ேயாகும்	-9355
▁இருத்த	-9356
▁சரிந்த	-9357
▁செலவிட	-9358
▁நடுத்த	-9359
▁பெயின்	-9360
னுக்குக்	-9361
▁அளித்து	-9362
▁இணைப்பு	-9363
▁எளிதில்	-9364
▁நிர்மூல	-9365
▁குண்டுத்	-9366
▁கூறினால்	-9367
▁கொண்டால்	-9368
▁நயன்தாரா	-9369
▁விவகாரம்	-9370
▁குண்டுகளை	-9371
▁சர்வதேசிய	-9372
▁பின்பற்றி	-9373
▁அலுவலர்கள்	-9374
▁படுகொலைகள்	-9375
▁வெளியீட்டு	-9376
▁இப்பொழுதும்	-9377
▁இழப்புக்கள்	-9378
▁கட்சிக்கும்	-9379
▁பெற்றிருந்த	-9380
▁வைத்திருக்க	-9381
▁அளிக்கப்பட்ட	-9382
▁இருப்பவர்கள்	-9383
▁நிறுவனங்களும்	-9384
▁கட்சிக்காரர்கள்	-9385
15	-9386
உய	-9387
ens	-9388
ton	-9389
▁நர	-9390
மொழி	-9391
லிலே	-9392
ிபன்	-9393
▁Ouv	-9394
▁அஸ்	-9395
▁டபு	-9396
▁ஆராத	-9397
▁ஊற்ற	-9398
▁சரத்	-9399
▁தூது	-9400
▁பர்ம	-9401
போன்று	-9402
ியாகக்	-9403
▁உரையை	-9404
▁சேரன்	-9405
▁தேதிய	-9406
▁நன்றி	-9407
ட்டுமான	-9408
ிவைத்து	-9409
▁ஆற்றிய	-9410
▁கணக்கு	-9411
▁கணிப்ப	-9412
▁தேவையை	-9413
▁பங்குப	-9414
▁முன்நோ	-9415
ியடைந்து	-9416
▁காலத்தை	-9417
▁தலைப்பு	-9418
▁நாயகனாக	-9419
▁மேய்ப்ப	-9420
▁ஹீரோவாக	-9421
▁இரண்டுமே	-9422
▁ஏற்கெனவே	-9423
▁தோன்றும்	-9424
▁பொன்சேகா	-9425
▁காணவில்லை	-9426
▁பிளேயரின்	-9427
▁அடிப்படையை	-9428
▁அமெரிக்கக்	-9429
▁ஆசரிப்புக்	-9430
▁ஈடுபட்டனர்	-9431
▁மந்திரியான	-9432
▁இருப்பதற்கு	-9433
▁தடுப்பதற்கு	-9434
▁ஒப்புக்கொண்ட	-9435
▁நிறுவனத்தில்	-9436
▁பிற்போக்குத்தன	-9437
ப்படுத்தியுள்ளது	-9438
▁முதலீட்டாளர்கள்	-9439
")	-9440
1-	-9441
eb	-9442
ணீ	-9443
▁:	-9444
சாவ	-9445
த்ச	-9446
ிவ்	-9447
ுகூ	-9448
bert	-9449
எந்த	-9450
கும்	-9451
ையோர	-9452
▁ஜாக	-9453
▁நாவ	-9454
▁ப்ள	-9455
ிப்பட	-9456
▁இலவச	-9457
▁உறவை	-9458
▁பிரம	-9459
ப்போடு	-9460
▁இலட்ச	-9461
▁காற்ற	-9462
▁பலமான	-9463
▁மக்கட	-9464
▁மிலோச	-9465
▁மையம்	-9466
▁வடக்க	-9467
ர்களைப்	-9468
ுகளுடன்	-9469
ோவிற்கு	-9470
▁அல்லவா	-9471
▁இரட்டை	-9472
▁பிரசார	-9473
▁அத்தோடு	-9474
▁எழுத்து	-9475
▁சட்டவரை	-9476
▁தாங்கிய	-9477
▁பிரெளன்	-9478
▁முஷாரப்	-9479
படிக்கும்	-9480
▁இருபதாம்	-9481
▁சாயங்கால	-9482
▁செய்தால்	-9483
▁தடுத்துவ	-9484
▁தொகுப்பு	-9485
▁நிச்சயம்	-9486
▁நோக்கிக்	-9487
▁அடங்குவர்	-9488
▁இசையமைக்க	-9489
▁காணப்பட்ட	-9490
▁கூட்டுத்த	-9491
▁பகுதியின்	-9492
▁வாக்குச்ச	-9493
▁வாரத்தில்	-9494
▁அதிகாரியான	-9495
▁கதாநாயகனாக	-9496
▁கருதுகிறது	-9497
▁கொண்டுபோய்	-9498
▁சீனாவிற்கு	-9499
▁திரைப்படம்	-9500
▁பகுதியினர்	-9501
▁பலமுறையும்	-9502
▁மதிப்பீட்ட	-9503
▁வீட்டுக்கு	-9504
▁எதிர்த்துப்	-9505
▁பயங்கரவாதத்	-9506
▁முகாம்களில்	-9507
▁வெட்டுக்களை	-9508
▁வெற்றிகரமாக	-9509
▁நூற்றாண்டில்	-9510
▁செய்யப்பட்டார்	-9511
▁விரும்புகிறேன்	-9512
ve	-9513
.30	-9514
தீய	-9515
மனே	-9516
ஹ்ர	-9517
ிகே	-9518
ினா	-9519
ுவர	-9520
▁ஜய	-9521
ுண்ட	-9522
ேகன்	-9523
▁CDU	-9524
shtml	-9525
▁அவகா	-9526
▁கதிர	-9527
▁மரபு	-9528
▁விடை	-9529
நாட்டை	-9530
ந்தேதி	-9531
ுவதும்	-9532
▁Ouvri	-9533
▁ஏழாம்	-9534
▁கணவர்	-9535
▁நாமம்	-9536
▁புலன்	-9537
▁மூடிய	-9538
ச்செய்த	-9539
ச்செல்ல	-9540
டுகளும்	-9541
ர்ந்தது	-9542
▁ஒப்புவ	-9543
▁கல்யாண	-9544
▁சமூகநல	-9545
▁சர்ச்ச	-9546
▁சினேகா	-9547
▁தரத்தை	-9548
▁நல்லது	-9549
▁நிலப்ப	-9550
▁வகித்த	-9551
▁வண்ணம்	-9552
பூர்வமான	-9553
▁உண்டாகி	-9554
▁உலகப்போ	-9555
▁சிறைச்ச	-9556
▁சிவப்பு	-9557
▁தலைமையை	-9558
▁பசிபிக்	-9559
▁மாநிலம்	-9560
▁அதற்குக்	-9561
▁தொலைவில்	-9562
▁புட்டின்	-9563
▁யாவையும்	-9564
▁வாழ்வில்	-9565
▁அமைச்சரவை	-9566
▁இராஜிநாமா	-9567
▁கைக்கொள்ள	-9568
▁சிறப்புப்	-9569
▁திரையரங்க	-9570
▁நிர்வாகக்	-9571
▁பொருந்தும்	-9572
▁மேர்க்கெல்	-9573
▁வளர்ச்சியை	-9574
▁அழுத்தங்கள்	-9575
▁பாதுகாப்புச்	-9576
▁உங்களிடத்தில்	-9577
▁வேண்டியுள்ளது	-9578
▁கூறியிருந்தார்	-9579
▁தெரிவிக்கின்றன	-9580
▁அறிவித்துள்ளார்	-9581
▁மருத்துவமனையில்	-9582
199	-9583
anc	-9584
குற	-9585
▁IG	-9586
▁ஊர	-9587
பெரிய	-9588
ாததால்	-9589
▁இறக்க	-9590
▁முட்ட	-9591
▁ஆண்டவன	-9592
▁இழிந்த	-9593
▁ஈர்க்க	-9594
▁சத்தம்	-9595
▁சம்மேள	-9596
▁நாளும்	-9597
▁நோர்த்	-9598
▁பயனற்ற	-9599
▁முஷாரஃ	-9600
▁வாழ்வு	-9601
ண்டையிலே	-9602
ற்றுக்கு	-9603
▁அரிஸ்டை	-9604
▁அவருடன்	-9605
▁குஜராத்	-9606
▁தகர்த்த	-9607
▁மோதலில்	-9608
▁வரவேற்ற	-9609
▁விதிகள்	-9610
▁விளைவுக	-9611
▁என்பதைப்	-9612
▁நேரிடும்	-9613
▁பாடல்களை	-9614
▁மருந்துக	-9615
▁இப்பிரச்ச	-9616
▁பிரதானமாக	-9617
▁முன்வைத்த	-9618
ிருப்பதுடன்	-9619
▁தீர்க்கமான	-9620
▁பக்கத்தில்	-9621
▁வெள்ளாட்டு	-9622
ினிமித்தமும்	-9623
▁ஆய்வாளர்கள்	-9624
▁காணப்பட்டது	-9625
▁நிலைநிறுத்த	-9626
▁வாழ்க்கைத்த	-9627
ப்பட்டுள்ளார்	-9628
▁வாழ்க்கையில்	-9629
ிருக்கவேண்டும்	-9630
▁பிரதேசங்களில்	-9631
▁கொடுக்கப்பட்டது	-9632
TC	-9633
நூல	-9634
▁உல	-9635
றுதி	-9636
▁உதய	-9637
தற்கே	-9638
தலில்	-9639
ருத்த	-9640
▁அனுத	-9641
▁அரேப	-9642
▁ஆயின	-9643
▁கனவு	-9644
▁காத்	-9645
▁மேலை	-9646
க்களாக	-9647
டியின்	-9648
மேற்கு	-9649
▁உடந்த	-9650
▁சூடான	-9651
▁செட்ட	-9652
▁தளமாக	-9653
▁தொங்க	-9654
▁மாறிய	-9655
▁மீதிய	-9656
▁ரகசிய	-9657
க்கூட்ட	-9658
▁அவனவன்	-9659
▁ஆகியோர	-9660
▁உயரும்	-9661
▁கொரில்	-9662
▁செயல்த	-9663
▁லிங்கு	-9664
த்தினுள்	-9665
ுகிறிஸ்த	-9666
▁தொடுப்ப	-9667
▁வில்லிய	-9668
▁அரசிற்கு	-9669
▁இப்படியே	-9670
▁உண்மையாக	-9671
▁சுற்றில்	-9672
▁சொன்னால்	-9673
▁தடைசெய்ய	-9674
▁போயிற்று	-9675
ம்பண்ணுகிற	-9676
▁ஆரம்பிக்க	-9677
▁ஈடுபடுத்த	-9678
▁ஜனங்களும்	-9679
ிக்கொண்டார்	-9680
ிருப்பதற்கு	-9681
▁கைப்பற்றிய	-9682
▁கொந்தளிப்ப	-9683
▁நீதிபதிகள்	-9684
▁முன்னுரிமை	-9685
▁வீட்டிற்கு	-9686
▁அனுப்பினான்	-9687
▁சிப்பாய்கள்	-9688
▁திரும்பவும்	-9689
▁பொதுமக்களது	-9690
▁முயற்சிக்கு	-9691
▁அனுமதிக்கும்	-9692
▁இயேசுகிறிஸ்த	-9693
▁போராட்டங்களை	-9694
▁திராட்சத்தோட்ட	-9695
40	-9696
வண	-9697
ீய	-9698
அனை	-9699
வாட	-9700
்ரூ	-9701
ர்ப்	-9702
ாயின	-9703
ிசேஷ	-9704
▁இளவ	-9705
.....	-9706
▁News	-9707
▁எரேம	-9708
▁நந்த	-9709
▁புகு	-9710
▁பூமி	-9711
குமார்	-9712
ர்பச்ச	-9713
ார்களா	-9714
▁கருதி	-9715
▁கீழறு	-9716
▁குழாய	-9717
▁குளிர்	-9718
▁சமூகம்	-9719
▁செய்தன	-9720
▁திரையர	-9721
▁துவக்க	-9722
▁படிக்க	-9723
▁பதிலடி	-9724
▁பிள்ளை	-9725
▁மறுப்ப	-9726
▁முட்டு	-9727
▁விஷால்	-9728
▁அடையும்	-9729
▁ஆயிற்று	-9730
▁ஆலையில்	-9731
▁என்மேல்	-9732
▁செஞ்சில	-9733
▁நின்றது	-9734
காலத்தில்	-9735
ிடுகையில்	-9736
ித்ததுடன்	-9737
▁இடையேயான	-9738
▁பிப்ரவரி	-9739
▁போர்த்து	-9740
▁விவரிக்க	-9741
க்கூடியதாக	-9742
ித்திருந்த	-9743
▁ஆகியோரும்	-9744
▁உயிரிழந்த	-9745
▁செயற்பட்ட	-9746
▁தெளிவாகத்	-9747
▁நிற்கிறது	-9748
▁முடியாதது	-9749
▁விமர்சனம்	-9750
▁ஜனநாயகத்தை	-9751
▁மாநாட்டின்	-9752
▁இருக்கையில்	-9753
▁எதுவுமில்லை	-9754
▁தலைவர்களின்	-9755
▁நடைமுறைக்கு	-9756
க்காட்டுகிறது	-9757
▁அரசாங்கமானது	-9758
▁கூட்டமைப்பின்	-9759
▁கட்டுப்பாடுகளை	-9760
oy	-9761
JUS	-9762
TIF	-9763
iss	-9764
ler	-9765
ong	-9766
▁42	-9767
▁நை	-9768
ர்வ்	-9769
வாசி	-9770
ஸும்	-9771
▁Par	-9772
▁அரா	-9773
▁கிப	-9774
▁வேச	-9775
,000-	-9776
ிக்கூ	-9777
ோனின்	-9778
▁ஒரேய	-9779
▁கடமை	-9780
▁மாளவ	-9781
▁வசூல	-9782
JUSTIF	-9783
ரசாங்க	-9784
ொருவர்	-9785
▁ஆகஸ்ட	-9786
▁இணங்க	-9787
▁குத்த	-9788
▁பதினை	-9789
▁முன்த	-9790
▁மூடிவ	-9791
▁மேயர்	-9792
▁சீரழிவ	-9793
▁பின்னே	-9794
▁விவேக்	-9795
ாக்குதல்	-9796
ிப்போட்ட	-9797
ிறீர்கள்	-9798
▁என்றேன்	-9799
▁குடியேற	-9800
▁சிந்தனை	-9801
▁செலவுத்	-9802
▁தரங்கள்	-9803
▁நடிப்பு	-9804
▁நினைவுக	-9805
▁பிரசங்க	-9806
▁எரிசக்தி	-9807
▁ஒருபுறம்	-9808
▁தன்னிச்ச	-9809
▁தலைநகரான	-9810
▁பாணியில்	-9811
▁பெருமளவு	-9812
▁வாக்குப்	-9813
▁வாரங்கள்	-9814
ப்படுத்தின	-9815
▁அனைத்துப்	-9816
▁எப்பொழுது	-9817
▁சட்டங்களை	-9818
▁தலைமையின்	-9819
▁அவைகளுக்கு	-9820
▁இடம்பெறும்	-9821
▁குற்றங்களை	-9822
▁கொடுத்தான்	-9823
▁பேசுகையில்	-9824
▁என்றைக்கும்	-9825
▁சொத்துக்கள்	-9826
▁திசைதிருப்ப	-9827
▁தொடங்கினார்	-9828
▁பேச்சுக்கள்	-9829
▁சக்திகளுக்கு	-9830
▁காட்டுகின்றது	-9831
▁பாதுகாப்பிற்கு	-9832
சரி	-9833
ஷிய	-9834
்யூ	-9835
▁வண	-9836
nbsp	-9837
▁பிப	-9838
ச்சிற	-9839
துவாக	-9840
மாகத்	-9841
ொல்லா	-9842
க்கமான	-9843
ியுமான	-9844
▁கியூப	-9845
▁கோலிச	-9846
▁தகுதி	-9847
▁தங்கி	-9848
▁தயங்க	-9849
▁பிணைய	-9850
▁போனது	-9851
ஞ்செய்த	-9852
தற்குப்	-9853
▁அல்லவோ	-9854
▁ஆதாரம்	-9855
▁சான்று	-9856
▁மலேசிய	-9857
த்தக்கது	-9858
வில்லையா	-9859
▁அழிந்து	-9860
க்குகளின்	-9861
ிவருகிறது	-9862
▁அமைந்தது	-9863
▁என்பதைத்	-9864
▁ஒளிபரப்ப	-9865
▁கிறிஸ்து	-9866
▁விருந்து	-9867
த்தைத்தான்	-9868
க்கடவீர்கள்	-9869
▁குழுவிற்கு	-9870
▁சாட்டினார்	-9871
▁தங்கர்பச்ச	-9872
▁பார்க்கும்	-9873
▁பின்தங்கிய	-9874
▁பொதுத்துறை	-9875
▁வேட்பாளரான	-9876
▁புத்திரரில்	-9877
▁பொருட்களின்	-9878
▁போர்க்குற்ற	-9879
▁விரும்புகிற	-9880
▁பத்திரிகைகள்	-9881
ித்திருக்கிறது	-9882
▁வேலைத்திட்டம்	-9883
▁உறுப்பினர்களும்	-9884
்	-9885
▁	-9886
க	-9887
த	-9888
ு	-9889
ி	-9890
ப	-9891
ர	-9892
ட	-9893
ம	-9894
ா	-9895
ன	-9896
வ	-9897
ல	-9898
ய	-9899
ற	-9900
ை	-9901
ள	-9902
ச	-9903
ந	-9904
அ	-9905
ே	-9906
.	-9907
ெ	-9908
இ	-9909
ண	-9910
ோ	-9911
,	-9912
ொ	-9913
எ	-9914
ங	-9915
ழ	-9916
உ	-9917
ீ	-9918
ூ	-9919
ஆ	-9920
ஒ	-9921
ஸ	-9922
ஜ	-9923
"	-9924
'	-9925
0	-9926
ஷ	-9927
;	-9928
ஏ	-9929
e	-9930
a	-9931
1	-9932
-	-9933
i	-9934
n	-9935
r	-9936
2	-9937
o	-9938
t	-9939
ஐ	-9940
s	-9941
9	-9942
ஈ	-9943
l	-9944
ஞ	-9945
)	-9946
(	-9947
:	-9948
ஹ	-9949
ஊ	-9950
5	-9951
u	-9952
S	-9953
3	-9954
P	-9955
C	-9956
c	-9957
4	-9958
h	-9959
d	-9960
A	-9961
ஓ	-9962
m	-9963
8	-9964
7	-9965
6	-9966
g	-9967
?	-9968
M	-9969
D	-9970
T	-9971
p	-9972
I	-9973
f	-9974
F	-9975
L	-9976
B	-9977
E	-9978
y	-9979
G	-9980
N	-9981
R	-9982
b	-9983
U	-9984
k	-9985
w	-9986
!	-9987
W	-9988
`	-9989
/	-9990
v	-9991
O	-9992
=	-9993
J	-9994
H	-9995
ஃ	-9996
