<unk>	0
<s>	0
</s>	0
UuRrLl	0
DdAaTtEe	0
NnUuMm	0
ার	-0
য়	-1
▁ক	-2
▁প	-3
▁স	-4
▁ব	-5
▁এ	-6
্য	-7
ের	-8
্র	-9
্ত	-10
▁কর	-11
▁আ	-12
▁অ	-13
▁হ	-14
▁ন	-15
টি	-16
▁য	-17
ান	-18
িত	-19
▁প্র	-20
র্	-21
▁দ	-22
▁ত	-23
বে	-24
▁বি	-25
▁ম	-26
▁জ	-27
েছ	-28
িল	-29
বং	-30
্ষ	-31
▁এবং	-32
িক	-33
▁উ	-34
াল	-35
রা	-36
্ব	-37
▁যে	-38
ায়	-39
▁হয়	-40
কে	-41
লি	-42
েন	-43
▁নি	-44
ক্ষ	-45
তি	-46
ক্ত	-47
ন্য	-48
▁বা	-49
তে	-50
▁পর	-51
▁করা	-52
▁সম	-53
গু	-54
্ট	-55
াম	-56
▁শ	-57
েছিল	-58
কার	-59
্থ	-60
▁এক	-61
▁এই	-62
▁(	-63
্প	-64
দের	-65
েছে	-66
▁জন্য	-67
▁কো	-68
ওয়	-69
িস	-70
ভা	-71
▁অন	-72
দ্	-73
ারা	-74
গুলি	-75
েশ	-76
ইন	-77
মা	-78
্যা	-79
িন	-80
িয়	-81
থে	-82
▁চ	-83
▁রা	-84
▁র	-85
▁আদ	-86
োগ	-87
▁গ	-88
তা	-89
▁কোন	-90
▁সং	-91
▁সা	-92
▁অনু	-93
▁ভ	-94
বি	-95
ুক্ত	-96
▁দে	-97
ধান	-98
▁তা	-99
ির	-100
▁কোনও	-101
▁আইন	-102
▁উপ	-103
▁না	-104
ীয়	-105
▁করে	-106
▁ব্য	-107
▁তার	-108
ড়	-109
▁এর	-110
দন	-111
লা	-112
▁একটি	-113
ারে	-114
▁অধ	-115
াস	-116
না	-117
ন্	-118
▁পরি	-119
কারী	-120
▁ছ	-121
▁ক্ষ	-122
ত্র	-123
লে	-124
ত্ত	-125
ষ্ট	-126
ধ্য	-127
িতে	-128
াই	-129
▁নির্	-130
▁কার	-131
▁এটি	-132
স্থ	-133
▁আদাল	-134
ওয়া	-135
▁করার	-136
নে	-137
▁হয়েছিল	-138
▁দ্ব	-139
দ্ধ	-140
ুর	-141
▁আদালত	-142
বা	-143
াত	-144
▁সম্প	-145
স্ত	-146
▁যা	-147
▁আপ	-148
▁হবে	-149
▁ও	-150
াপ	-151
ভাবে	-152
র্ত	-153
▁হয়েছে	-154
চার	-155
জন	-156
ষ্	-157
াবে	-158
থেকে	-159
▁দ্বারা	-160
▁থেকে	-161
ুন	-162
য়ে	-163
ot	-164
▁ফ	-165
qu	-166
quot	-167
থা	-168
্চ	-169
▁ই	-170
ন্ত	-171
▁প্রতি	-172
▁ধ	-173
্ন	-174
দি	-175
▁সি	-176
▁কা	-177
▁-	-178
&#	-179
ভি	-180
▁করতে	-181
যোগ	-182
ঙ্	-183
ণের	-184
▁সু	-185
▁ছিল	-186
▁১	-187
্স	-188
মি	-189
▁হিস	-190
বেদন	-191
▁সাথে	-192
ৃত	-193
কা	-194
▁হিসাবে	-195
▁সর	-196
▁অব	-197
▁বিষ	-198
▁আপিল	-199
েত্র	-200
্ম	-201
▁পারে	-202
নের	-203
ওয়ার	-204
্ড	-205
▁ক্ষেত্র	-206
▁২	-207
জ্য	-208
নি	-209
▁ট	-210
ূল	-211
ছে	-212
▁অধী	-213
ক্ষে	-214
যুক্ত	-215
▁ড	-216
দেশ	-217
ধার	-218
েছিলেন	-219
▁ক্ষেত্রে	-220
ধ্যে	-221
▁অভি	-222
ক্র	-223
কর	-224
গুলির	-225
▁আবেদন	-226
র্থ	-227
▁মাম	-228
▁স্ব	-229
▁দেওয়া	-230
▁খ	-231
▁প্রয়	-232
▁অন্য	-233
িকার	-234
▁কর্ত	-235
রে	-236
ল্	-237
র্ট	-238
▁সে	-239
মন	-240
▁মধ্যে	-241
িনি	-242
▁ল	-243
▁বিচার	-244
▁সাল	-245
▁অধীনে	-246
▁ব্যক্ত	-247
ূর্	-248
াব	-249
োধ	-250
▁তবে	-251
▁কর্তৃ	-252
মাণ	-253
▁উচ	-254
▁প্রদ	-255
প্র	-256
▁/	-257
ারি	-258
বেচ	-259
▁নে	-260
্রহ	-261
▁রে	-262
ঙ্গ	-263
ধি	-264
▁কারণ	-265
▁সম্পর্	-266
শন	-267
িখ	-268
▁আম	-269
▁আদেশ	-270
দা	-271
▁&	-272
▁থা	-273
ানে	-274
▁ভার	-275
▁বিশ	-276
রু	-277
ষ্ঠ	-278
▁কার্য	-279
▁ব্যব	-280
▁আর	-281
▁নিয়	-282
চ্	-283
রি	-284
▁রাজ্য	-285
▁কে	-286
েছেন	-287
তার	-288
▁তাদের	-289
..	-290
▁উল্	-291
্ঞ	-292
▁এস	-293
▁বিবেচ	-294
▁বিষয়	-295
▁তিনি	-296
▁উপর	-297
▁সময়	-298
মে	-299
▁তারিখ	-300
▁ঘ	-301
মান	-302
▁অপ	-303
▁পা	-304
▁মা	-305
▁দায়	-306
ীর	-307
▁অনুস	-308
▁নয়	-309
▁উত্ত	-310
াতীয়	-311
পি	-312
ব্য	-313
য়েছে	-314
▁দিয়	-315
▁মূল	-316
▁জাতীয়	-317
্জ	-318
সি	-319
ান্ত	-320
রণ	-321
টির	-322
খন	-323
্দ	-324
▁যদি	-325
ন্ত্র	-326
▁আইনের	-327
▁সহ	-328
োজন	-329
ঞ্চ	-330
কো	-331
▁ভারত	-332
▁রয়েছে	-333
িকে	-334
েষ	-335
্যায়	-336
ভাগ	-337
দ্ধান	-338
দ্ধান্ত	-339
▁সিদ্ধান্ত	-340
▁বিধান	-341
▁স্থ	-342
▁পরে	-343
▁প্রশ	-344
বর্ত	-345
▁পি	-346
আই	-347
▁উত্তর	-348
▁সম্পর্ক	-349
▁২০	-350
নার	-351
খানে	-352
জ্ঞ	-353
ংশ	-354
বিধান	-355
লিখ	-356
▁পক্ষে	-357
িয়া	-358
▁আমরা	-359
▁উদ্	-360
▁কর্তৃক	-361
ীন	-362
▁হাই	-363
▁অধিকার	-364
োর	-365
লিখিত	-366
▁প্রয়োজন	-367
ক্ষণ	-368
▁সরকার	-369
্যান	-370
বল	-371
ষ্ট্র	-372
▁অনুম	-373
▁আপিলকারী	-374
র্শ	-375
▁করেছে	-376
াদ	-377
গুল	-378
▁মামলা	-379
▁আগ	-380
িসি	-381
▁বিধি	-382
▁১৯	-383
▁দু	-384
তির	-385
স্থা	-386
▁নং	-387
য়ের	-388
িত্ত	-389
▁অর্থ	-390
▁যায়	-391
▁হতে	-392
ন্দ	-393
বদ্ধ	-394
▁বে	-395
▁উচিত	-396
ত্য	-397
্ল	-398
▁কর্ম	-399
▁আদালতের	-400
▁করেছিলেন	-401
▁দা	-402
ীত	-403
▁ব্যক্তি	-404
র্ড	-405
▁পরিচ	-406
▁সম্পর্কিত	-407
▁আমা	-408
▁কমি	-409
ারের	-410
▁ভিত্ত	-411
রাম	-412
্রে	-413
কাশ	-414
ল্প	-415
আর	-416
কোর্ট	-417
▁বিভাগ	-418
▁এমন	-419
▁পূর্	-420
▁আমাদের	-421
▁আরও	-422
ানের	-423
▁হাইকোর্ট	-424
াড়	-425
রাধ	-426
রুদ্ধ	-427
▁ব্যা	-428
▁আস	-429
▁নির্ধার	-430
ুক্তি	-431
▁রায়	-432
ক্ষা	-433
লেখ	-434
▁কেবল	-435
▁অনুসারে	-436
ূপ	-437
দাতা	-438
▁গ্রহ	-439
কের	-440
▁সালের	-441
▁অভিযোগ	-442
▁প্রমাণ	-443
ম্ব	-444
ার্থ	-445
স্ব	-446
্লি	-447
▁কি	-448
▁পর্য	-449
চ্ছে	-450
▁রাষ্ট্র	-451
▁ধারা	-452
▁করেছেন	-453
▁উত	-454
▁সাম	-455
▁মাধ্য	-456
▁প্রক	-457
টে	-458
ুল	-459
োষ	-460
িক্ষ	-461
ডি	-462
▁অপরাধ	-463
▁নী	-464
িয়ে	-465
▁মাধ্যমে	-466
ঞ্জ	-467
▁বিষয়ে	-468
▁জান	-469
▁রাখ	-470
▁|	-471
ত্যা	-472
▁বছ	-473
▁উল্লেখ	-474
প্ত	-475
▁বল	-476
▁দেখ	-477
▁পরাম	-478
▁মত	-479
▁ট্র	-480
েয়	-481
▁অ্যা	-482
ভাব	-483
▁অংশ	-484
স্য	-485
▁কাজ	-486
▁সংশ	-487
এস	-488
▁&#	-489
▁পরামর্শ	-490
▁দেওয়ার	-491
▁পদ	-492
▁পরিচাল	-493
▁বিবেচনা	-494
ত্তি	-495
োক্ত	-496
রের	-497
▁মামল	-498
ন্ধ	-499
▁সংবিধান	-500
▁পুন	-501
থম	-502
েন্ট	-503
হার	-504
দেশ্য	-505
▁উদ্দেশ্য	-506
▁পার	-507
কি	-508
দ্য	-509
▁ক্ষম	-510
▁পূর্ব	-511
▁আবেদনকারী	-512
াজ	-513
▁বিরুদ্ধ	-514
িন্ন	-515
▁বিরুদ্ধে	-516
▁কেন	-517
▁তদন	-518
▁জমা	-519
গত	-520
▁সমস্ত	-521
ান্য	-522
বাহ	-523
রূপ	-524
▁রি	-525
▁কার্যকর	-526
▁একই	-527
▁উত্তরদাতা	-528
▁বলে	-529
াপ্ত	-530
গুলিতে	-531
েল	-532
ূর্ণ	-533
▁স্প	-534
▁বো	-535
▁কাছে	-536
পতি	-537
▁পুর	-538
যোগ্য	-539
ণ্ড	-540
▁করবে	-541
ণা	-542
োপ	-543
▁গু	-544
▁প্রয়োগ	-545
পক্ষ	-546
▁নির্দেশ	-547
▁বৈ	-548
▁জন	-549
▁যেখানে	-550
্দ্র	-551
ছু	-552
▁প্রা	-553
▁ভিত্তিতে	-554
▁বিশেষ	-555
▁অন্ত	-556
▁ডি	-557
▁প্রকাশ	-558
গ্র	-559
▁মান	-560
কাল	-561
▁বিষয়টি	-562
▁মো	-563
▁গ্রহণ	-564
জে	-565
▁অভিযুক্ত	-566
ীদের	-567
▁আগে	-568
▁অন্যান্য	-569
▁[	-570
▁তদন্ত	-571
▁শিক্ষ	-572
▁ইন	-573
▁দেয়	-574
▁অন্তর্	-575
▁কিছু	-576
▁কারণে	-577
▁উপস্থ	-578
▁অফ	-579
▁থাক	-580
▁শ্র	-581
ূলক	-582
বার	-583
▁পক্ষ	-584
▁আই	-585
ধা	-586
▁মৃত	-587
▁ছাড়	-588
▁হওয়ার	-589
বরা	-590
▁বিভ	-591
ম্ন	-592
ন্ন	-593
বর্তী	-594
রোধ	-595
▁মে	-596
বরাহ	-597
▁সেই	-598
▁সরবরাহ	-599
▁যেতে	-600
▁নেই	-601
▁ভা	-602
▁পরিমাণ	-603
শ্য	-604
▁অর্	-605
▁দায়ের	-606
েশন	-607
ীমা	-608
▁যেমন	-609
▁তারিখের	-610
ড়া	-611
নাম	-612
ভুক্ত	-613
▁অনুমো	-614
▁দাবি	-615
ষে	-616
ধারণ	-617
েন্স	-618
▁ক্ষমতা	-619
▁যোগ	-620
ীব	-621
▁নিম্ন	-622
▁মু	-623
সিসি	-624
▁কেন্দ্র	-625
স্	-626
দিষ্ট	-627
▁সংশোধ	-628
▁যথা	-629
▁উচ্চ	-630
▁যার	-631
▁ঘট	-632
▁করেছিল	-633
কৃত	-634
▁তথ	-635
▁তারা	-636
▁বর্	-637
▁হয়ে	-638
তিক	-639
াধ	-640
েক	-641
▁তথ্য	-642
▁উল্লিখিত	-643
▁তৈ	-644
▁প্রয়োজনীয়	-645
দে	-646
▁পরিস	-647
াপন	-648
িশ	-649
তরা	-650
চে	-651
▁কর্তৃপক্ষ	-652
▁প্রস	-653
▁পরী	-654
তরাং	-655
▁শর্ত	-656
▁নীতি	-657
্থিত	-658
▁২০১	-659
▁সুতরাং	-660
চ্ছ	-661
জি	-662
▁প্রথম	-663
▁স্পষ্ট	-664
▁অনুচ্ছে	-665
▁করেন	-666
্রু	-667
ানো	-668
▁দৃ	-669
▁নিয়ে	-670
▁সংস্থা	-671
▁নিয়োগ	-672
▁হয়নি	-673
▁ইউ	-674
ালিক	-675
....	-676
▁বিভিন্ন	-677
োচ	-678
কর্ড	-679
ক্ষেপ	-680
▁সাধারণ	-681
▁স্	-682
িত্ব	-683
ীল	-684
▁কোর্ট	-685
▁রেকর্ড	-686
▁প্রদান	-687
▁প্রস্ত	-688
িম	-689
▁প্রতিষ্ঠ	-690
সা	-691
▁ভারতের	-692
দার	-693
▁পরিস্থিত	-694
▁বিশ্ব	-695
▁টি	-696
▁লক্ষ	-697
▁তাকে	-698
এর	-699
য়ার	-700
ষ্টি	-701
▁যখন	-702
▁বেশ	-703
গ্রহ	-704
▁কিন	-705
শি	-706
▁ব্যক্তির	-707
▁এসসিসি	-708
োক	-709
ৃতি	-710
ণ্য	-711
▁লা	-712
▁লি	-713
ার্	-714
▁৩	-715
০০	-716
▁অবশ্য	-717
▁সদ	-718
▁স্বী	-719
▁প্রদত্ত	-720
▁প্রশ্ন	-721
▁হওয়া	-722
▁তৈরি	-723
▁টা	-724
▁সুর	-725
▁২০০	-726
বন্ধ	-727
দ্ব	-728
সু	-729
▁নির্দিষ্ট	-730
ৃহ	-731
মাত্র	-732
বাদ	-733
▁মহ	-734
করণ	-735
ক্স	-736
▁সংশোধন	-737
▁সত্য	-738
▁পু	-739
খ্যা	-740
▁সদস্য	-741
▁জে	-742
▁বিক্র	-743
▁পদ্ধ	-744
▁চে	-745
▁সংবিধানের	-746
▁আদেশের	-747
▁নো	-748
ম্বর	-749
যথ	-750
▁অবশ্যই	-751
▁স্থান	-752
াহ	-753
▁মামলার	-754
▁ক্ষতি	-755
▁যথাযথ	-756
▁চি	-757
বেশ	-758
তু	-759
লের	-760
▁ধার	-761
েট	-762
▁সম্ম	-763
▁রাষ্ট্রপতি	-764
রুত	-765
▁এন	-766
▁মি	-767
▁অন্তর্ভুক্ত	-768
ায়ী	-769
▁সাক্ষ	-770
িস্ট	-771
ান্তর	-772
▁বেঞ্চ	-773
▁নির্ধারিত	-774
.0	-775
▁তাঁ	-776
ভর	-777
শ্চ	-778
▁মূল্যায়	-779
▁অনুমতি	-780
▁হাইকোর্টের	-781
তায়	-782
এল	-783
স্ট	-784
▁ক্র	-785
্যাল	-786
▁বলা	-787
▁গঠ	-788
শীল	-789
▁তাঁর	-790
▁নির্ভর	-791
▁নেওয়া	-792
▁পিড	-793
▁প্রত্যা	-794
▁সম্পর্কে	-795
ধারা	-796
▁প্রক্র	-797
▁সর্	-798
▁চুক্তি	-799
▁বাদ	-800
▁রেখ	-801
▁আও	-802
বাচ	-803
াদন	-804
র্ম	-805
▁আসাম	-806
লিক	-807
▁আল	-808
▁ছিলেন	-809
▁উপস্থিত	-810
▁একজন	-811
সং	-812
ষ্কার	-813
▁পৃ	-814
▁পড়	-815
▁গুরুত	-816
▁বিচারক	-817
্রি	-818
▁কমিশন	-819
▁থাকে	-820
▁ব্যবহার	-821
▁পরিষে	-822
▁প্রাপ্ত	-823
ণি	-824
▁প্রকল্প	-825
▁বছরের	-826
▁যুক্ত	-827
্লু	-828
▁সুবি	-829
▁নিষ	-830
েছি	-831
▁প্রক্রিয়া	-832
তুন	-833
পরে	-834
▁ট্রাই	-835
▁অবস্থ	-836
এম	-837
রিক	-838
▁বাড়	-839
সিল	-840
▁নতুন	-841
▁কিনা	-842
▁প্রভাব	-843
▁উদ্দেশ্যে	-844
▁শ্রী	-845
পূর্ণ	-846
▁অফিস	-847
▁অঞ্চ	-848
▁জারি	-849
▁কেন্দ্রীয়	-850
িং	-851
▁উন্ন	-852
▁বর্ত	-853
▁মূল্যায়ন	-854
▁বিব	-855
▁বর্ণ	-856
▁সম্	-857
কর্ত	-858
রী	-859
হে	-860
▁গ্র	-861
▁উক্ত	-862
সম	-863
▁জমি	-864
▁কম	-865
▁অধি	-866
▁পরিবর্ত	-867
▁পরীক্ষা	-868
▁নিবন্ধ	-869
▁বিপ	-870
ুনাল	-871
ামত	-872
▁ট্রাইব্য	-873
টা	-874
ুম	-875
▁দিয়ে	-876
▁দেশ	-877
▁যুক্তি	-878
▁শু	-879
▁প্রস্তাব	-880
▁দল	-881
্লিউ	-882
িউ	-883
্যু	-884
▁তারিখে	-885
▁আমি	-886
▁ট্রাইব্যুনাল	-887
▁বাধ্য	-888
▁ব্যবস্থা	-889
▁প্রধান	-890
াধীন	-891
▁বিল	-892
নিয়	-893
ব্লিউ	-894
দিত	-895
),	-896
মাণের	-897
▁উভ	-898
▁উপযুক্ত	-899
▁চাল	-900
▁সীমা	-901
▁সিং	-902
▁দৃষ্টি	-903
▁শেষ	-904
▁বছর	-905
▁পর্যবে	-906
▁দিন	-907
▁ঘোষ	-908
▁সালে	-909
ক্ষম	-910
ূরণ	-911
▁স্ট	-912
▁এম	-913
ক্ট	-914
▁মূল্য	-915
▁নিশ্চ	-916
▁ধর	-917
▁যোগ্য	-918
▁মতামত	-919
প্রা	-920
াসের	-921
াস্ত	-922
▁রিট	-923
▁দোষ	-924
▁নিয়ন্ত্র	-925
▁উত্থ	-926
▁থাকা	-927
▁সামনে	-928
▁বিত	-929
লিশ	-930
▁নাম	-931
োল	-932
য়া	-933
তিল	-934
▁৪	-935
▁পর্যন্ত	-936
▁তাই	-937
াব্লু	-938
▁নির্বাচ	-939
▁প্রতিবেদন	-940
▁দুটি	-941
▁গৃহ	-942
▁শুর	-943
জা	-944
▁মনে	-945
▁সরকারী	-946
▁বাতিল	-947
▁পরিষেবা	-948
▁পণ্য	-949
▁চার	-950
▁বেশি	-951
▁উভয়	-952
▁প্রদানের	-953
িকভাবে	-954
র্ক	-955
▁বিজ্ঞ	-956
▁কেবলমাত্র	-957
▁বর্তমান	-958
▁চুক্ত	-959
▁অধীন	-960
াতে	-961
টিশ	-962
▁লক্ষ্য	-963
▁দিতে	-964
▁নিশ্চিত	-965
িতীয়	-966
▁পর্যবেক্ষণ	-967
িতা	-968
▁বহ	-969
▁তিন	-970
▁মতো	-971
▁ভারতীয়	-972
▁নিম্নলিখিত	-973
▁অনুমোদিত	-974
▁সম্পত্তি	-975
▁সর্ব	-976
ফল	-977
▁পুলিশ	-978
▁মামলায়	-979
▁খু	-980
▁টাকা	-981
ঙ্গিক	-982
▁জড়	-983
▁গৃহীত	-984
্বে	-985
▁0	-986
▁কর্মকর্ত	-987
ব্দ	-988
▁অপরাধের	-989
▁উপরোক্ত	-990
▁দ্বিতীয়	-991
▁আপিলের	-992
▁ব্যাখ্যা	-993
▁ব্যাং	-994
হত	-995
সর	-996
্রা	-997
িল্প	-998
্ধ	-999
▁আদালতে	-1000
▁দর	-1001
২০	-1002
ুরি	-1003
▁আওতায়	-1004
াসঙ্গিক	-1005
ভার	-1006
ন্ড	-1007
▁সহায়	-1008
▁৫	-1009
▁বিক্রয়	-1010
▁জড়িত	-1011
▁প্রতিটি	-1012
▁এখ	-1013
▁আইনী	-1014
ক্রম	-1015
যো	-1016
ঙ্ঘ	-1017
ৌজ	-1018
▁ন্যায়	-1019
ক্ষার	-1020
▁ধরে	-1021
▁অনুষ্ঠ	-1022
▁পাশ	-1023
ন্ট	-1024
▁সরকারের	-1025
▁বিদ্য	-1026
▁প্রার্থ	-1027
ভূ	-1028
ন্ধান	-1029
▁লঙ্ঘ	-1030
▁শিল্প	-1031
▁বিভাগের	-1032
কটি	-1033
ফার	-1034
্যান্ড	-1035
▁রাখা	-1036
▁হস্ত	-1037
দণ্ড	-1038
সার	-1039
▁অনুচ্ছেদে	-1040
▁সীমাবদ্ধ	-1041
▁তখন	-1042
▁দোষী	-1043
▁প্রযো	-1044
▁দুর্	-1045
নায়	-1046
িকিউ	-1047
▁ফৌজ	-1048
নীয়	-1049
ানি	-1050
ষ্টা	-1051
▁দিক	-1052
নির্	-1053
▁এখতি	-1054
মিক	-1055
▁পূর্বোক্ত	-1056
▁প্রাসঙ্গিক	-1057
▁ঘটনা	-1058
▁উত্প	-1059
▁শুরু	-1060
টিতে	-1061
▁বনাম	-1062
▁রাজ	-1063
ায়ের	-1064
▁এখন	-1065
▁গুরুত্ব	-1066
্যার	-1067
জিস্ট	-1068
িনিয়	-1069
▁পৃথ	-1070
টার	-1071
▁জীব	-1072
▁পরিচালিত	-1073
▁আয়	-1074
▁পদক্ষেপ	-1075
▁নিষ্প	-1076
টের	-1077
নো	-1078
▁নাগ	-1079
▁আবেদনের	-1080
ii	-1081
কালীন	-1082
▁নির্ধারণ	-1083
▁প্রযোজ্য	-1084
হেতু	-1085
ষণ	-1086
▁যদিও	-1087
স্থার	-1088
দ্র	-1089
▁স্বাধীন	-1090
▁জ্ঞ	-1091
▁সুবিধা	-1092
য়ন	-1093
োচনা	-1094
▁অনুমোদন	-1095
ঙ্গত	-1096
▁মালিক	-1097
▁রাজ্যের	-1098
▁আন্ত	-1099
▁পদ্ধতি	-1100
▁নিজ	-1101
থায়	-1102
▁বার	-1103
▁পৌ	-1104
▁ইতি	-1105
সুপ্রা	-1106
on	-1107
▁সুযোগ	-1108
ানা	-1109
▁ভূ	-1110
▁১৯৯	-1111
ৈতিক	-1112
▁ম্যা	-1113
▁দিয়েছিলেন	-1114
▁করি	-1115
▁চা	-1116
▁কর্মচার	-1117
▁চিক	-1118
গুলিকে	-1119
▁পুনর্	-1120
ণিজ্য	-1121
াপিত	-1122
▁যেহেতু	-1123
▁গণ	-1124
টেড	-1125
িক্ত	-1126
ঠিক	-1127
মূলক	-1128
▁করুন	-1129
েব	-1130
▁দেখা	-1131
টিকে	-1132
দ্দ	-1133
তিরিক্ত	-1134
▁মুখ	-1135
▁শে	-1136
তীত	-1137
▁হলে	-1138
পাত	-1139
২০১	-1140
▁সম্পূর্ণ	-1141
▁পৃথক	-1142
স্বরূপ	-1143
▁বিরোধ	-1144
াপা	-1145
▁দায়বদ্ধ	-1146
▁সুপ	-1147
▁বোর্ড	-1148
তন	-1149
▁সংস	-1150
বাস	-1151
▁অর্জন	-1152
ানির	-1153
▁পিডব্লিউ	-1154
▁ব্যয়	-1155
▁ফল	-1156
িসির	-1157
▁পাস	-1158
▁ক্ষতিপ	-1159
দারি	-1160
▁অগ্র	-1161
ালা	-1162
▁আন	-1163
▁যৌ	-1164
▁দখ	-1165
পত্র	-1166
▁কয়ে	-1167
ক্তি	-1168
▁বাণিজ্য	-1169
▁ব্যবহ	-1170
▁পরিস্থিতি	-1171
▁পরবর্তী	-1172
পো	-1173
▁নিয়ম	-1174
াপাশি	-1175
▁এমনকি	-1176
্টি	-1177
▁পাশাপাশি	-1178
▁দিকে	-1179
▁অতিরিক্ত	-1180
ভব	-1181
▁সন্ত	-1182
দাত	-1183
▁বৈধ	-1184
▁প্রত্য	-1185
▁নোটিশ	-1186
▁পারেন	-1187
ামূলক	-1188
▁কী	-1189
▁দায়িত্ব	-1190
ূড়	-1191
বাধ	-1192
▁আইনটি	-1193
▁স্ত	-1194
ূড়ান্ত	-1195
▁থাকবে	-1196
▁প্রসিকিউ	-1197
▁মন্ত্র	-1198
ূর	-1199
ed	-1200
▁চুক্তির	-1201
▁i	-1202
পে	-1203
▁বর্ণিত	-1204
এন	-1205
▁বোঝ	-1206
▁কাউ	-1207
িত্স	-1208
▁চূড়ান্ত	-1209
আইআর	-1210
▁বন্ধ	-1211
িল্লি	-1212
বিচার	-1213
্যালে	-1214
▁উপাদ	-1215
ৃদ্ধ	-1216
▁থাকতে	-1217
▁দিয়েছে	-1218
▁কর্প	-1219
▁প্রণ	-1220
নী	-1221
▁পিটি	-1222
▁সুপ্র	-1223
্যালেঞ্জ	-1224
▁আইনস	-1225
▁চ্যালেঞ্জ	-1226
▁বাই	-1227
ন্দে	-1228
▁.	-1229
▁নম্বর	-1230
▁গেছে	-1231
▁সক্ষম	-1232
▁স্বীকার	-1233
▁চিকিত্স	-1234
১৯	-1235
▁শুল্	-1236
▁সিদ্ধান্তের	-1237
েম	-1238
হিত	-1239
ংস	-1240
▁।	-1241
▁অঞ্চল	-1242
ঁচ	-1243
▁কর্তৃপক্ষের	-1244
েনে	-1245
▁প্রশাস	-1246
ালয়	-1247
▁গ্রহণের	-1248
▁সময়ে	-1249
▁পরিস্থিতিতে	-1250
▁মোট	-1251
▁স্থানান্তর	-1252
)।	-1253
▁যাতে	-1254
▁সাং	-1255
▁কাছ	-1256
জাত	-1257
▁অস্ব	-1258
▁পরিচালনা	-1259
▁পর্যায়	-1260
▁অধিগ্রহ	-1261
▁পাওয়া	-1262
ানোর	-1263
ুত	-1264
করণের	-1265
▁ব্যর্থ	-1266
▁সমর্থ	-1267
▁নিষ্পত্তি	-1268
মিটেড	-1269
▁কর্মকর্তা	-1270
▁লিমিটেড	-1271
▁ভাড়া	-1272
▁শ্রে	-1273
বায়	-1274
ুষ	-1275
▁নিজে	-1276
▁পিটিশন	-1277
........	-1278
েস	-1279
▁কমিটি	-1280
▁t	-1281
▁কৃ	-1282
েম্বর	-1283
ত্	-1284
▁শুন	-1285
▁উপাদান	-1286
ত্ম	-1287
খ্যান	-1288
▁বিচারিক	-1289
▁কোর্টের	-1290
▁নাগরিক	-1291
▁বলেছিলেন	-1292
▁ইত্যা	-1293
▁ব্যবস	-1294
▁উপল	-1295
এফ	-1296
▁নিয়োগের	-1297
▁এফ	-1298
▁আর্থ	-1299
▁শব্দ	-1300
▁চল	-1301
▁প্রায়	-1302
▁পুরষ্কার	-1303
▁অনুষ্ঠিত	-1304
▁,	-1305
ীর্	-1306
যুক্তি	-1307
▁পূর্ববর্তী	-1308
er	-1309
▁বিবেচিত	-1310
হ্ন	-1311
▁অনুরোধ	-1312
▁ব্যক্তিদের	-1313
▁উত্থাপিত	-1314
শনের	-1315
▁লঙ্ঘন	-1316
▁ভিত্তি	-1317
▁ক্ষতিপূরণ	-1318
▁জি	-1319
▁নেওয়ার	-1320
▁ফৌজদারি	-1321
▁জু	-1322
▁পেশ	-1323
▁সাব্য	-1324
▁বক্ত	-1325
▁সাব্যস্ত	-1326
▁“	-1327
▁তালিক	-1328
▁বিবেচনার	-1329
▁পে	-1330
▁অভ	-1331
▁মৌ	-1332
▁সংর	-1333
▁পৌঁ	-1334
ভঙ্গ	-1335
▁অনুসরণ	-1336
▁সুরক্ষা	-1337
▁কল	-1338
▁বাস্ত	-1339
▁পাল	-1340
▁গুরুত্বপূর্ণ	-1341
▁স্বা	-1342
ত্তির	-1343
▁চিহ্ন	-1344
স্প	-1345
▁উপরে	-1346
তিক্র	-1347
সে	-1348
▁যত	-1349
দান	-1350
▁এখানে	-1351
▁বিচারের	-1352
▁ইন্ড	-1353
▁উত্তরদাতাদের	-1354
ারিশ	-1355
▁কারা	-1356
▁সংজ্ঞ	-1357
▁নিম্নরূপ	-1358
▁সহায়তা	-1359
ল্পনা	-1360
▁যারা	-1361
▁দৃষ্টিভঙ্গ	-1362
ইস	-1363
▁বিকাশ	-1364
▁বিস্ত	-1365
▁পরিক	-1366
▁কাউন্	-1367
বহ	-1368
▁পুরো	-1369
▁অস্বী	-1370
▁বিদ্ব	-1371
িত্র	-1372
বাহী	-1373
▁বিধানের	-1374
▁জম	-1375
▁বিতর্ক	-1376
▁প্রের	-1377
▁উত্পাদন	-1378
▁নিয়ন্ত্রণ	-1379
ন্দেহ	-1380
▁মিঃ	-1381
মধ্যে	-1382
▁গঠন	-1383
▁জেলা	-1384
▁দরকার	-1385
যায়ী	-1386
▁শাস্ত	-1387
পোর্ট	-1388
▁ফলে	-1389
▁হল	-1390
▁সন্দেহ	-1391
পিসির	-1392
▁ফলস্বরূপ	-1393
▁অনুযায়ী	-1394
▁a	-1395
েয়ার	-1396
▁উত্স	-1397
▁অনুশীল	-1398
নিক	-1399
াস্থ	-1400
▁চেয়ে	-1401
▁ব্যতীত	-1402
ফারেন্স	-1403
▁প্রমাণিত	-1404
▁পুনরা	-1405
▁বিচারপতি	-1406
▁সিনিয়	-1407
▁কথা	-1408
সের	-1409
▁আর্থিক	-1410
▁সেখানে	-1411
▁অধিকারী	-1412
ক্রমে	-1413
▁প্রমাণের	-1414
▁সংস্থার	-1415
বিধানিক	-1416
▁ভুল	-1417
▁ব্যাংক	-1418
▁ঘোষণা	-1419
বিদ্য	-1420
▁হন	-1421
▁সুপ্রিম	-1422
িব	-1423
▁প্রকৃত	-1424
▁শিখ	-1425
▁প্রবেশ	-1426
তিতে	-1427
▁মৃত্যু	-1428
▁প্রয়োগের	-1429
▁আবেদনকারীর	-1430
োকে	-1431
মেন্ট	-1432
ক্য	-1433
কৃতি	-1434
▁যথাযথভাবে	-1435
▁এসসি	-1436
▁প্রত্যাখ্যান	-1437
্লিষ্ট	-1438
▁এখতিয়ার	-1439
▁প্রাথম	-1440
ৃতীয়	-1441
▁দখল	-1442
▁জানিয়	-1443
বেন	-1444
ফসিল	-1445
▁সিনিয়র	-1446
ামী	-1447
খিল	-1448
▁দিয়েছিল	-1449
▁বয়	-1450
ম্প	-1451
ড়ে	-1452
▁ইতিমধ্যে	-1453
বান	-1454
▁সুপারিশ	-1455
▁তদন্তের	-1456
▁মনো	-1457
ঠাম	-1458
▁সিদ্ধান্তে	-1459
▁বিচ	-1460
ক্ষি	-1461
▁ধারণা	-1462
▁জোর	-1463
▁আচ	-1464
▁ব্যক্তিগত	-1465
কাউ	-1466
▁ভি	-1467
▁বাইরে	-1468
তন্ত্র	-1469
▁বক্তব্য	-1470
জনক	-1471
▁পর্যায়ে	-1472
▁কার্যক্রম	-1473
াপত্র	-1474
▁হ্র	-1475
র্শন	-1476
ক্ষিত	-1477
▁আমার	-1478
▁মামলাটি	-1479
▁আসামি	-1480
▁সংশ্লিষ্ট	-1481
০০০	-1482
▁পক্ষের	-1483
বিধি	-1484
▁অবস্থান	-1485
▁চিঠ	-1486
▁দাখিল	-1487
▁অপ্র	-1488
▁জরি	-1489
▁এক্স	-1490
▁যিনি	-1491
▁প্রতিনি	-1492
▁হচ্ছে	-1493
▁রেখে	-1494
▁আলা	-1495
▁বিজ্ঞপ্ত	-1496
▁বিধানগুলি	-1497
বিল	-1498
▁চেষ্টা	-1499
▁কয়েকটি	-1500
▁তফসিল	-1501
মের	-1502
োট	-1503
ত্ক্ষণ	-1504
▁উত্তরদাত	-1505
▁করছ	-1506
▁বাদী	-1507
▁তৃতীয়	-1508
▁রেফারেন্স	-1509
▁অনুসন্ধান	-1510
▁যাবে	-1511
লী	-1512
▁ওয়	-1513
পরি	-1514
স্থান	-1515
াও	-1516
▁খুব	-1517
▁অস্বীকার	-1518
নাব	-1519
▁পো	-1520
▁আশ	-1521
▁সত্ত	-1522
ধীন	-1523
▁পরিবর্তন	-1524
▁প্রযুক্তি	-1525
তম	-1526
থেষ্ট	-1527
জীব	-1528
▁করবেন	-1529
▁s	-1530
▁মতে	-1531
▁শুল্ক	-1532
▁ছাড়াই	-1533
▁আলাদা	-1534
▁তারপরে	-1535
▁পুনরুদ্ধ	-1536
এক্স	-1537
সাই	-1538
কদের	-1539
▁অ্যাকাউ	-1540
▁জনাব	-1541
▁বিশ্ববিদ্য	-1542
▁বিবাহ	-1543
▁অফিসার	-1544
কারীর	-1545
▁যথেষ্ট	-1546
▁সাংবিধানিক	-1547
সাম	-1548
▁পারি	-1549
▁ইউনিয়	-1550
্যুর	-1551
িয়াল	-1552
▁অ্যাড	-1553
▁অনুচ্ছেদ	-1554
▁ন্যায়বিচার	-1555
ারিজ	-1556
▁সমাজ	-1557
াপনের	-1558
▁জেন	-1559
কল	-1560
▁ম্যাজিস্ট	-1561
২০০	-1562
▁তুল	-1563
▁সংসদ	-1564
▁বিশেষত	-1565
▁ডা	-1566
পাল	-1567
▁ভাল	-1568
▁প্রতিষ্ঠিত	-1569
▁গ্রে	-1570
▁ম্যাজিস্ট্রে	-1571
▁জনগ	-1572
▁প্রকাশিত	-1573
▁দিল্লি	-1574
▁সম্প্র	-1575
ভিল	-1576
▁হস্তক্ষেপ	-1577
▁নির্ধারণের	-1578
▁সময়ের	-1579
তামূলক	-1580
ক্রান্ত	-1581
▁মার	-1582
▁নথ	-1583
▁ব্যক্তিকে	-1584
▁বরা	-1585
▁আপিলকারীদের	-1586
▁খারিজ	-1587
রীতে	-1588
এই	-1589
▁রিপোর্ট	-1590
▁মেনে	-1591
র্যা	-1592
াস্ট	-1593
▁নিতে	-1594
ক্ষর	-1595
▁কৃষ	-1596
▁কর্পোর	-1597
ভূত	-1598
▁বিপরীতে	-1599
▁অস্ত	-1600
কল্প	-1601
▁পেয়	-1602
কারীদের	-1603
▁সন্তু	-1604
▁জা	-1605
ঘাত	-1606
▁চিহ্নিত	-1607
▁অ্যাকাউন্ট	-1608
▁চার্জ	-1609
▁ঝ	-1610
▁পৌঁছ	-1611
▁সম্ভব	-1612
্লে	-1613
▁জবা	-1614
▁একক	-1615
▁নিযুক্ত	-1616
▁সময়কাল	-1617
▁তালিকা	-1618
ীকে	-1619
োম	-1620
ারেল	-1621
▁কোড	-1622
▁তে	-1623
▁আহ	-1624
▁দণ্ড	-1625
▁বাজ	-1626
▁মহিল	-1627
▁c	-1628
▁প্রেরণ	-1629
▁বিদ্বান	-1630
▁ভব	-1631
বিধ	-1632
▁কাউন্সিল	-1633
িকা	-1634
▁বিবৃতি	-1635
পুর	-1636
▁আপনার	-1637
▁ভারতে	-1638
ার্ভ	-1639
▁ধরনের	-1640
▁বাধ্যতামূলক	-1641
▁লিখিত	-1642
...	-1643
▁বেঞ্চের	-1644
▁হ্রাস	-1645
▁পাঠ	-1646
▁সংস্	-1647
it	-1648
িন্দ	-1649
স্যু	-1650
▁জাম	-1651
তর	-1652
▁উন্নয়ন	-1653
ুমার	-1654
▁জীবন	-1655
▁মৌলিক	-1656
লাপ	-1657
or	-1658
▁অত	-1659
▁দিয়েছেন	-1660
▁প্রাথমিক	-1661
▁বিস্তৃত	-1662
▁এরপরে	-1663
চ্ছা	-1664
▁আগ্রহ	-1665
ৈধ	-1666
্যের	-1667
▁রাখতে	-1668
▁মৃত্যুর	-1669
ত্তর	-1670
াবলিক	-1671
▁খাল	-1672
▁সমর্থন	-1673
ট্র	-1674
▁রাখার	-1675
▁প্রচার	-1676
পক্ষে	-1677
▁পাওয়ার	-1678
ন্ম	-1679
▁শিশ	-1680
▁১৯৫	-1681
▁বৃদ্ধ	-1682
পা	-1683
ঙ্গে	-1684
পতির	-1685
▁প্রয়োজনীয়তা	-1686
▁বর	-1687
াজিক	-1688
▁বু	-1689
▁বিবরণ	-1690
▁থ	-1691
▁কঠ	-1692
নিয়োগ	-1693
▁পুনরায়	-1694
▁গো	-1695
▁সম্পত্তির	-1696
▁রূপ	-1697
ায়ে	-1698
▁অবৈধ	-1699
ইসেন্স	-1700
▁এইভাবে	-1701
▁বিশ্বাস	-1702
▁এল	-1703
▁ধর্ম	-1704
▁নীচে	-1705
▁প্রকল্পের	-1706
▁মেয়	-1707
▁সাপে	-1708
িসঙ্গত	-1709
ামের	-1710
ংসাপত্র	-1711
▁মিল	-1712
▁অনেক	-1713
বী	-1714
▁পরিকল্পনা	-1715
▁অধিকারের	-1716
▁শতা	-1717
▁অব্যা	-1718
▁পরিবেশ	-1719
ডাব্লু	-1720
▁গোপ	-1721
▁সাপেক্ষে	-1722
▁জরিমান	-1723
▁আপত্তি	-1724
েক্ষ	-1725
▁লাইসেন্স	-1726
▁আদেশটি	-1727
▁পর্যাল	-1728
প্রাপ্ত	-1729
াদি	-1730
মত	-1731
▁স্বাক্ষর	-1732
▁দক্ষ	-1733
াযোগ	-1734
▁কমিটির	-1735
াইল	-1736
▁ডিক	-1737
▁পাঁচ	-1738
▁বিনিয়োগ	-1739
▁শংসাপত্র	-1740
▁ইস্যু	-1741
▁উদ্য	-1742
▁সম্পাদন	-1743
চল	-1744
▁হার	-1745
▁শাস্তি	-1746
▁জবাব	-1747
▁আপিলকারীর	-1748
▁অনুমোদনের	-1749
--	-1750
বু	-1751
ক্ষিপ্ত	-1752
▁পছ	-1753
▁শিশু	-1754
▁আঘাত	-1755
▁পড়ে	-1756
বাদী	-1757
▁A	-1758
▁হাজ	-1759
ূচ	-1760
▁যুক্তিসঙ্গত	-1761
▁চিকিত্সা	-1762
শেষ	-1763
▁পাবলিক	-1764
▁দৃষ্টিভঙ্গি	-1765
ানী	-1766
াঁ	-1767
▁ইজ	-1768
▁ত্রু	-1769
▁আট	-1770
োপুরি	-1771
▁দলিল	-1772
▁ভাষ	-1773
▁অন্যথায়	-1774
▁দিনের	-1775
▁আবেদনটি	-1776
▁কু	-1777
▁মেয়াদ	-1778
▁পুরোপুরি	-1779
এব	-1780
▁সম্মতি	-1781
▁কোম্প	-1782
▁উপলব	-1783
▁রেকর্ডে	-1784
▁শিক্ষিত	-1785
▁ভর্ত	-1786
▁মঞ্জ	-1787
▁মধ্য	-1788
▁অতএব	-1789
▁সাক্ষী	-1790
দিকে	-1791
▁স্পষ্টভাবে	-1792
▁মাস	-1793
▁পরামর্শের	-1794
▁১১	-1795
্ডিং	-1796
▁মাসের	-1797
▁পদে	-1798
▁তহ	-1799
কম	-1800
▁মেড	-1801
▁ইউনি	-1802
▁দেশের	-1803
▁কুমার	-1804
▁পিডাব্লু	-1805
ক্ষণের	-1806
▁পরিমাণে	-1807
▁স্বীকৃতি	-1808
▁লাভ	-1809
জ্জ	-1810
্যে	-1811
ায়গ	-1812
▁অনুশীলন	-1813
▁জমির	-1814
▁যাওয়ার	-1815
ৃতির	-1816
▁সালিশ	-1817
▁তাত্ক্ষণ	-1818
▁লেন	-1819
▁সমান	-1820
▁নথি	-1821
▁সাব	-1822
▁জায়গ	-1823
▁মার্	-1824
▁ব্যবহৃত	-1825
▁যোগাযোগ	-1826
▁আত্ম	-1827
ঙ্ক	-1828
▁আরোপ	-1829
তের	-1830
▁ইজারা	-1831
হের	-1832
▁ট্যা	-1833
▁কমিশনের	-1834
▁যোগ্যতা	-1835
▁আবেদনকারীদের	-1836
▁আপিলকারীকে	-1837
ধারণের	-1838
▁সংযুক্ত	-1839
দেন	-1840
▁আইনটির	-1841
শোধ	-1842
▁বীমা	-1843
▁বলেছিল	-1844
▁৮	-1845
▁গভ	-1846
ইট	-1847
▁বিদ্যমান	-1848
▁বিচারকের	-1849
▁উপরের	-1850
▁স্বাধীনতা	-1851
্বেও	-1852
▁করেছি	-1853
▁সাজা	-1854
▁গণ্য	-1855
▁জজ	-1856
▁ধরণের	-1857
▁লোক	-1858
▁১৯৮	-1859
▁সিভিল	-1860
at	-1861
▁ঠিক	-1862
▁বিবেচনায়	-1863
ম্যান	-1864
▁মোক	-1865
▁ক্রিয়া	-1866
▁সত্ত্বেও	-1867
▁ইত্যাদি	-1868
ভোগ	-1869
▁আধ	-1870
লেজ	-1871
িতি	-1872
▁সালিস	-1873
▁আইপিসির	-1874
▁সামাজিক	-1875
▁আজ	-1876
▁আলোচনা	-1877
▁ক্যা	-1878
▁স্বার্থ	-1879
▁বিজ্ঞপ্তি	-1880
▁চলা	-1881
▁সদস্যদের	-1882
▁আব	-1883
ুগ	-1884
▁মারা	-1885
েলে	-1886
▁জনসা	-1887
▁অভিযোগের	-1888
াউ	-1889
▁কন	-1890
▁অধ্যায়	-1891
▁কমিশনার	-1892
কৃতিক	-1893
▁অধিগ্রহণ	-1894
▁রু	-1895
▁ইউনিয়ন	-1896
▁আচরণ	-1897
▁ত্রুটি	-1898
্ছ	-1899
▁বিদেশ	-1900
▁ফি	-1901
▁সমন	-1902
▁লেনদেন	-1903
▁প্রশিক্ষ	-1904
▁বিশ্ববিদ্যালয়	-1905
বিআই	-1906
▁অনুমান	-1907
▁প্রসঙ্গে	-1908
▁গিয়	-1909
▁পৃষ্ঠ	-1910
োলে	-1911
াবলী	-1912
▁তহবিল	-1913
▁শক্তি	-1914
▁প্রদেশ	-1915
▁প্রস্তুত	-1916
▁সংক্ষিপ্ত	-1917
ীরা	-1918
▁দুই	-1919
চাই	-1920
▁উপস্থাপন	-1921
▁কোটি	-1922
▁প্রত	-1923
in	-1924
▁নিজের	-1925
▁স্বতন্ত্র	-1926
ভাবনা	-1927
▁উদ্ধ	-1928
▁সংখ্যা	-1929
▁পদ্ধতিতে	-1930
▁পেন	-1931
ায়াল	-1932
▁অর্থন	-1933
▁যাচাই	-1934
▁গুরুতর	-1935
ক্তন	-1936
াক	-1937
▁বাধা	-1938
▁প্ল	-1939
▁নীতিম	-1940
▁বৃহ	-1941
▁প্রভাবিত	-1942
▁পছন্দ	-1943
▁ইন্ডিয়া	-1944
র্জাত	-1945
▁প্রত্যক্ষ	-1946
▁সংক্রান্ত	-1947
ion	-1948
▁আয়ের	-1949
▁তিনটি	-1950
▁শিক্ষা	-1951
▁আক	-1952
▁স্থায়ী	-1953
;।	-1954
▁সিআর	-1955
▁ষ	-1956
স্পষ্ট	-1957
▁নোট	-1958
▁অবি	-1959
▁পার্থ	-1960
িকেল	-1961
▁স্বাস্থ	-1962
োব	-1963
▁সন্তুষ্ট	-1964
▁কর্পোরেশন	-1965
▁মহিলা	-1966
▁১৩	-1967
ায়িত	-1968
▁স্থগ	-1969
▁রাজ্যে	-1970
সমূ	-1971
▁পূরণ	-1972
▁পঞ্চ	-1973
▁নির্দেশনা	-1974
▁জনগণের	-1975
▁d	-1976
▁বাহ	-1977
▁আন্তর্জাত	-1978
ুঁ	-1979
▁বরাদ্দ	-1980
▁বয়স	-1981
▁সঠিক	-1982
▁ডিক্রি	-1983
▁এতে	-1984
▁স্থাপন	-1985
▁কাঠাম	-1986
▁বিকল্প	-1987
▁জামিন	-1988
▁নিয়মিত	-1989
▁করেনি	-1990
ালার	-1991
an	-1992
▁ম্যাজিস্ট্রেট	-1993
কলাপ	-1994
▁বিভাগীয়	-1995
▁মৃত্যুদণ্ড	-1996
▁নগ	-1997
্ডার	-1998
র্ষণ	-1999
▁প্রশ্নটি	-2000
▁অবধি	-2001
▁শতাংশ	-2002
▁সম্পদ	-2003
▁বাস	-2004
্যাপ্ত	-2005
▁পর্যাপ্ত	-2006
▁আসে	-2007
▁কলেজ	-2008
▁মেডিকেল	-2009
▁বিষয়গুলি	-2010
্নে	-2011
▁এগ	-2012
▁উদ্যোগ	-2013
▁ট্রায়াল	-2014
▁জল	-2015
্লা	-2016
▁প্রকৃতির	-2017
▁পরিচালনার	-2018
▁গাড়	-2019
শিষ্ট	-2020
ণার	-2021
▁দশ	-2022
▁নির্বাচন	-2023
সিক	-2024
শ্রু	-2025
▁নিজেই	-2026
▁আদেশে	-2027
▁যান	-2028
বেগ	-2029
স্টি	-2030
▁মানুষ	-2031
))	-2032
▁দাঁ	-2033
য়ারী	-2034
সঙ্গত	-2035
▁আন্তর্জাতিক	-2036
হরণ	-2037
▁পার্থক্য	-2038
▁জানানো	-2039
▁মূল্যায়নকারী	-2040
▁হই	-2041
▁সো	-2042
িদ্ধ	-2043
▁ইঙ্গ	-2044
▁এজ	-2045
এইচ	-2046
▁ট্রাইব্যুনালের	-2047
্যানে	-2048
মন্ত্র	-2049
▁প্রদেয়	-2050
ুস	-2051
▁হাস	-2052
ভায়	-2053
▁ইঙ্গিত	-2054
▁জেনারেল	-2055
▁১৮	-2056
▁চিঠি	-2057
▁আইনসভা	-2058
▁জনসাধারণের	-2059
▁এইচ	-2060
▁ফলা	-2061
রাষ্ট্র	-2062
▁অংশী	-2063
▁উদ্ব	-2064
▁নিষিদ্ধ	-2065
▁স্বীকৃত	-2066
রাস	-2067
কতা	-2068
▁কার্যনির্	-2069
েক্ট	-2070
▁নামে	-2071
▁সকল	-2072
▁আইনজীব	-2073
জায়	-2074
লিপি	-2075
▁গঠিত	-2076
▁থাকার	-2077
▁কখন	-2078
িয়ার	-2079
▁সব	-2080
ঙ্খ	-2081
গ্রস্থ	-2082
▁প্রজ্ঞ	-2083
▁অর্থনৈতিক	-2084
▁গবে	-2085
▁ন্যায়সঙ্গত	-2086
ির্	-2087
বারের	-2088
▁সংগ্রহ	-2089
ীর্ঘ	-2090
িকারের	-2091
re	-2092
▁বহন	-2093
▁১৪	-2094
▁প্রসিকিউশন	-2095
▁ত্রা	-2096
▁ছু	-2097
ৃত্ব	-2098
▁রাম	-2099
হীন	-2100
▁দীর্ঘ	-2101
মিত	-2102
ক্তিক	-2103
▁সংশোধনী	-2104
▁পরিষ্কার	-2105
▁সংরক্ষণ	-2106
▁বেতন	-2107
▁স্বীকারোক্ত	-2108
▁চাকর	-2109
▁পরিশোধ	-2110
▁ফির	-2111
▁জ্ঞাত	-2112
▁পুনরুদ্ধার	-2113
▁পরিণ	-2114
▁দাব	-2115
▁গ্রেপ্ত	-2116
শাস	-2117
▁রোগ	-2118
▁শ্রেণ	-2119
▁রাখে	-2120
▁স্পষ্টত	-2121
▁স্ক	-2122
▁সমন্ব	-2123
▁পর্যালোচনা	-2124
▁বজায়	-2125
▁সংখ	-2126
▁ন্য	-2127
▁আছে	-2128
থাৎ	-2129
▁দেখতে	-2130
▁বিলম্ব	-2131
ান্স	-2132
▁বির	-2133
▁ক্রে	-2134
▁ব্যবসায়ের	-2135
▁ক্ষমতার	-2136
▁মঞ্জুর	-2137
▁উঠ	-2138
▁এগিয়ে	-2139
▁আন্তঃ	-2140
▁প্রাক্তন	-2141
বিধির	-2142
▁সামগ্র	-2143
সরকারী	-2144
▁গ্রাম	-2145
▁উত্তরদাতার	-2146
ar	-2147
▁o	-2148
েক্ষিতে	-2149
▁আদালতকে	-2150
▁p	-2151
বেচ্ছ	-2152
য়নের	-2153
ম্য	-2154
▁স্থানীয়	-2155
▁ট্যাক্স	-2156
▁ব্যবহারের	-2157
প্রিল	-2158
▁সন্ধান	-2159
▁মার্চ	-2160
▁নিবন্ধিত	-2161
▁এফআইআর	-2162
ত্ব	-2163
▁অর্থাৎ	-2164
▁ডিস	-2165
▁ভূমিক	-2166
▁স্ত্র	-2167
▁নিয়েছে	-2168
▁কঠোর	-2169
ৃঙ্খ	-2170
পাতাল	-2171
কারের	-2172
পদ	-2173
▁প্রকাশের	-2174
বেদ	-2175
▁এটিকে	-2176
▁ক্রিয়াকলাপ	-2177
হা	-2178
▁আদায়	-2179
▁চাপ	-2180
iii	-2181
১১	-2182
▁হাসপাতাল	-2183
▁প্রতিশ্রু	-2184
▁আয়কর	-2185
্যাম	-2186
চ্ছিন্ন	-2187
ভে	-2188
▁ডে	-2189
্টার	-2190
▁শক্ত	-2191
কারে	-2192
▁বাণিজ্যিক	-2193
রণের	-2194
▁সম্ভাবনা	-2195
▁এপ্রিল	-2196
▁প্রতিষ্ঠান	-2197
▁সুন	-2198
োচনার	-2199
▁সমাপ্ত	-2200
ুখ	-2201
োন	-2202
স্যা	-2203
▁মনোন	-2204
ফনাম	-2205
ারিত	-2206
▁কাজের	-2207
▁নিক	-2208
ানিক	-2209
▁দি	-2210
▁অর্থের	-2211
▁স্ম	-2212
▁খনি	-2213
al	-2214
শ্ব	-2215
▁নিষে	-2216
▁কর্মচারী	-2217
▁স্বেচ্ছ	-2218
পিসি	-2219
▁আইনে	-2220
▁প্রতিক্র	-2221
▁অবসর	-2222
পু	-2223
▁অঞ্চলে	-2224
াদার	-2225
▁আবার	-2226
▁তাত্ক্ষণিক	-2227
▁হস্তান্তর	-2228
▁উদ্বেগ	-2229
বেশন	-2230
▁হলফনাম	-2231
্ষিক	-2232
▁স্বাস্থ্য	-2233
▁ইং	-2234
▁জরিমানা	-2235
উট	-2236
▁গণনা	-2237
▁অংশীদার	-2238
▁ক্ল	-2239
চের	-2240
ন্দ্র	-2241
▁প্রস্তাবিত	-2242
▁আবেদনে	-2243
▁বাস্তবায়	-2244
▁সী	-2245
▁সুরক্ষার	-2246
▁কার্যনির্বাহী	-2247
▁শ্রেণি	-2248
োতে	-2249
▁বাধ্যবাধ	-2250
ংসা	-2251
▁পরিচালক	-2252
▁আহ্ব	-2253
▁অপসার	-2254
িয়ান	-2255
র্য	-2256
▁একইভাবে	-2257
▁পরীক্ষার	-2258
▁পরিপ্র	-2259
▁প্রতিশ্রুতি	-2260
কিং	-2261
▁ক্ষতিগ্রস্থ	-2262
▁ওয়েব	-2263
▁যোগ্যতার	-2264
▁ভাগ	-2265
▁স্পষ্টতই	-2266
▁পরিপ্রেক্ষিতে	-2267
▁উত্তরদাতাকে	-2268
িগ	-2269
▁সহযোগ	-2270
দু	-2271
▁ভূমিকা	-2272
▁১৫	-2273
▁এটির	-2274
en	-2275
প্ট	-2276
▁সুবিধার	-2277
রাসরি	-2278
▁আওতা	-2279
▁সাধারণত	-2280
িরো	-2281
দাহরণ	-2282
▁সমস্যা	-2283
মার	-2284
▁সার	-2285
▁সুরক্ষিত	-2286
▁দ্বি	-2287
▁পারবেন	-2288
▁এত	-2289
▁রক্ষণ	-2290
▁অনুপ	-2291
▁আবাস	-2292
▁প্রাকৃতিক	-2293
ুব	-2294
▁বৃদ্ধি	-2295
▁একমাত্র	-2296
▁যাই	-2297
▁বলেছে	-2298
▁সরাসরি	-2299
দর্শ	-2300
▁বেসরকারী	-2301
▁এখনও	-2302
▁লে	-2303
▁নিজস্ব	-2304
▁ফলাফল	-2305
▁ত্রাণ	-2306
▁অব্যাহত	-2307
▁প্রশংসা	-2308
▁ইউনিট	-2309
▁ফর্ম	-2310
▁রাষ্ট্রের	-2311
▁কাল	-2312
ূন্য	-2313
▁সংজ্ঞা	-2314
্তু	-2315
▁গোপনীয়	-2316
▁S	-2317
এলপি	-2318
▁উপলব্ধ	-2319
করা	-2320
▁প্রতিক্রিয়া	-2321
▁মার্ক	-2322
▁স্কি	-2323
▁অধিগ্রহণের	-2324
▁নির	-2325
▁জ্ঞান	-2326
▁পাই	-2327
▁বৈষ	-2328
▁দাঁড়	-2329
বিষ	-2330
্ক	-2331
▁শেয়ার	-2332
▁কোম্পানির	-2333
▁স্থগিত	-2334
▁উদাহরণ	-2335
▁লক্ষ্যে	-2336
▁করছে	-2337
▁অ্যাপ	-2338
▁গ্রহণযোগ্য	-2339
▁w	-2340
▁গঠনের	-2341
▁অর্প	-2342
আইন	-2343
▁প্যা	-2344
▁সার্ভ	-2345
▁২২	-2346
নাক্ত	-2347
▁অভিব্য	-2348
▁নজ	-2349
ত্ত্ব	-2350
▁প্রতিষ্ঠানের	-2351
▁ছাড়ের	-2352
▁প্রতিনিধ	-2353
▁প্রশিক্ষণ	-2354
▁আহ্বান	-2355
▁গ্রাহ	-2356
▁এআইআর	-2357
▁বিধ	-2358
িরোনাম	-2359
▁বিল্ডিং	-2360
▁মূলত	-2361
▁বিতরণ	-2362
ার্ন	-2363
▁উত্থাপন	-2364
▁হে	-2365
▁যেমনটি	-2366
▁মিথ	-2367
▁শিক্ষার্থ	-2368
▁বড়	-2369
▁রাজন	-2370
▁এটা	-2371
▁সমা	-2372
▁অ্যাক্ট	-2373
▁অসু	-2374
▁পিসি	-2375
▁প্রচে	-2376
োজ	-2377
রকম	-2378
▁লো	-2379
তিক্রম	-2380
াত্	-2381
▁সম্প্রদ	-2382
▁বোর্ডের	-2383
ারীর	-2384
ম্বাই	-2385
▁বিধানগুলির	-2386
▁অভিযোগকারী	-2387
লাই	-2388
ড়ি	-2389
ালয়ের	-2390
▁বিধিবদ্ধ	-2391
▁সংজ্ঞায়িত	-2392
টিয়া	-2393
▁পোস্ট	-2394
▁প্রকৃতি	-2395
▁ন্যা	-2396
▁পরিমাণের	-2397
▁প্রকৃতপক্ষে	-2398
▁কেস	-2399
▁I	-2400
▁কর্মীদের	-2401
ালী	-2402
he	-2403
▁বিভাগে	-2404
▁গ্রু	-2405
▁২০১৩	-2406
▁প্রসিকিউট	-2407
েলা	-2408
▁প্রতির	-2409
▁...	-2410
▁এগুলি	-2411
শা	-2412
ঞ্জস্য	-2413
▁রূপান্তর	-2414
▁রেজিস্ট	-2415
ক্রিয়	-2416
▁১০	-2417
▁অয	-2418
▁প্রশ্নে	-2419
▁প্রার্থনা	-2420
▁শূন্য	-2421
▁সুস্পষ্ট	-2422
▁উত্সাহ	-2423
কালে	-2424
য়ারের	-2425
▁রাষ্ট্রপতির	-2426
ছাই	-2427
▁প্রত্যাহার	-2428
▁রক্ষণাবে	-2429
▁ছয়	-2430
▁প্রণীত	-2431
ঘট	-2432
▁মোকাবে	-2433
▁মর্যা	-2434
▁কীভাবে	-2435
▁বন্দ	-2436
▁শিরোনাম	-2437
ফত	-2438
▁রাজস্ব	-2439
▁অত্য	-2440
ন্দ্ব	-2441
াদিত	-2442
▁খন	-2443
▁অভিযুক্তের	-2444
▁ন্যায়বিচারের	-2445
বিষ্য	-2446
▁সত্যতা	-2447
▁কারাদণ্ড	-2448
▁ওয়েবসাই	-2449
শ্র	-2450
জের	-2451
▁সরকারকে	-2452
▁গবেষ	-2453
▁অনুলিপি	-2454
▁অ্যাডভ	-2455
▁সমাধান	-2456
▁ইচ্ছা	-2457
ৃঙ্খলা	-2458
ইন্ড	-2459
য্য	-2460
▁জাল	-2461
▁সুদের	-2462
▁পরিবর্তে	-2463
স্তু	-2464
▁পেট	-2465
▁সংশোধিত	-2466
▁ফেল	-2467
খাস্ত	-2468
▁তাল	-2469
▁অবহিত	-2470
▁জবান	-2471
োলি	-2472
▁খুঁ	-2473
▁ভবিষ্য	-2474
ডে	-2475
▁সিস্ট	-2476
▁আপিলকারীরা	-2477
▁is	-2478
▁প্রতিনিধিত্ব	-2479
▁একে	-2480
▁জবানব	-2481
▁পের	-2482
্যান্ট	-2483
▁নির্মাণ	-2484
ির্দিষ্ট	-2485
েশনের	-2486
▁অক্ষম	-2487
▁ভ্র	-2488
▁সময়স	-2489
▁বার্ষিক	-2490
▁বৈধতা	-2491
লেন	-2492
▁জানু	-2493
▁তম	-2494
▁তবু	-2495
▁বিশ্লে	-2496
▁কৌ	-2497
▁উভয়ই	-2498
▁সার্ভিস	-2499
▁বৈশিষ্ট	-2500
োস	-2501
▁চলাকালীন	-2502
▁C	-2503
▁যৌথ	-2504
▁বোঝা	-2505
▁তবুও	-2506
................	-2507
▁সাক্ষ্য	-2508
▁কের	-2509
াধিকার	-2510
▁মজ	-2511
▁স্থানান্তরিত	-2512
র্ন	-2513
▁করের	-2514
নীতি	-2515
চিব	-2516
ধাজ্ঞ	-2517
▁আবেদনকারীকে	-2518
▁ব্যবসায়	-2519
▁অন্যদিকে	-2520
▁তত	-2521
▁জুন	-2522
যন্ত্র	-2523
▁সেগুলি	-2524
োন্ন	-2525
▁ফের	-2526
্যাপ	-2527
▁মানব	-2528
▁l	-2529
বিবেচ	-2530
▁হিন্দ	-2531
▁ইত্যাদ	-2532
▁গবেষণা	-2533
▁নিয়েছিল	-2534
▁প্রতিরোধ	-2535
▁অস্থ	-2536
▁হাতে	-2537
লার	-2538
শেষে	-2539
▁দূ	-2540
▁প্রতিনিধি	-2541
▁পূর্বে	-2542
▁হর	-2543
▁গ্রুপ	-2544
ভাব্য	-2545
▁কোর্	-2546
▁অভিযুক্তকে	-2547
▁উচ্চতর	-2548
▁নিষেধাজ্ঞ	-2549
▁ঘটনার	-2550
দানের	-2551
▁বলেছেন	-2552
▁কিন্তু	-2553
▁নির্বাচিত	-2554
▁সংঘ	-2555
▁খুঁজে	-2556
▁সাক্ষীর	-2557
00	-2558
েক্টর	-2559
ুৎ	-2560
▁আনা	-2561
ড়যন্ত্র	-2562
▁বরখাস্ত	-2563
▁অস	-2564
র্ষ	-2565
বাধিক	-2566
▁অ্যাডভোকে	-2567
▁বাড়ি	-2568
▁নিখ	-2569
▁সম্ভাব্য	-2570
▁অর্জনের	-2571
▁সামঞ্জস্য	-2572
্ট্রি	-2573
▁আহত	-2574
▁অযোগ্য	-2575
▁মার্কিন	-2576
▁উদ্ভূত	-2577
▁চেয়ার	-2578
▁বিশদ	-2579
▁পদোন্ন	-2580
▁পূর্বের	-2581
▁প্রবর্ত	-2582
ুক	-2583
▁প্রশাসনিক	-2584
েনি	-2585
es	-2586
▁আকর্ষণ	-2587
▁অনুচ্ছেদের	-2588
▁শব্দটি	-2589
▁আইনজীবী	-2590
▁এসএলপি	-2591
१०	-2592
গণ	-2593
▁পুনর্বিবেচ	-2594
▁টাকার	-2595
▁ভাই	-2596
▁পড়া	-2597
▁৯	-2598
▁মিথ্যা	-2599
▁গ্রেপ্তার	-2600
ষ্ণ	-2601
্যাট	-2602
▁সংস্থাগুলি	-2603
▁পেনশন	-2604
▁বিদেশী	-2605
▁সর্বাধিক	-2606
▁বৃহত্তর	-2607
▁বাধ্যবাধকতা	-2608
ct	-2609
গঠ	-2610
▁সভা	-2611
▁পরিবহ	-2612
ছাড়	-2613
ুদ্র	-2614
▁পরিচিত	-2615
▁অস্তিত্ব	-2616
▁কিছুই	-2617
াট	-2618
▁পালন	-2619
▁বৈশিষ্ট্য	-2620
▁ব্যবস্থ	-2621
ধন	-2622
▁অংশের	-2623
▁রক্ষা	-2624
▁লেখ	-2625
▁সিস্টেম	-2626
▁শর্তাদি	-2627
্রুত	-2628
▁তথ্যের	-2629
▁সনাক্ত	-2630
▁জানাতে	-2631
চেতন	-2632
▁সুনির্দিষ্ট	-2633
▁অত্যন্ত	-2634
১৯৯	-2635
রস	-2636
▁আগস্ট	-2637
▁ষড়যন্ত্র	-2638
▁কর্	-2639
▁সুদ	-2640
▁কার্যক্রমে	-2641
▁কৃষি	-2642
▁সরবরাহের	-2643
গার	-2644
ৃষ্টি	-2645
▁ধারাবাহ	-2646
▁শারীর	-2647
টিং	-2648
▁in	-2649
▁নীতিটি	-2650
▁দেশে	-2651
সমূহ	-2652
োরে	-2653
▁অভিন	-2654
▁সপ্ত	-2655
▁মনোনীত	-2656
আপ	-2657
িন্	-2658
▁চাই	-2659
▁বায়	-2660
▁হাইকোর্টে	-2661
ওয়ায়	-2662
▁নিজেকে	-2663
ডিশ	-2664
▁প্য	-2665
▁P	-2666
▁বিষয়গুলির	-2667
▁অথ	-2668
▁দ্রুত	-2669
▁প্রযুক্তিগত	-2670
▁পান	-2671
▁সিংহ	-2672
▁টে	-2673
▁R	-2674
▁উদ	-2675
▁স্বাধীনতার	-2676
▁অস্ত্র	-2677
▁পরিবারের	-2678
ইউ	-2679
▁ফো	-2680
▁সমাজের	-2681
▁অ্যাডভোকেট	-2682
▁ভর্তি	-2683
▁শিক্ষার	-2684
▁যুক্তিযুক্ত	-2685
দর্শন	-2686
▁উইন্ড	-2687
▁সিদ্ধান্তটি	-2688
ব্যব	-2689
▁উন্ম	-2690
▁সেপ্ট	-2691
▁শুনানি	-2692
ণাট	-2693
্রাম	-2694
▁একাধ	-2695
রূপে	-2696
▁ভবন	-2697
্দের	-2698
োধন	-2699
▁অভিজ্ঞ	-2700
খ্যার	-2701
ুসারে	-2702
▁পেয়েছে	-2703
▁পদার্থ	-2704
▁কোডের	-2705
▁কখনও	-2706
পক্ষের	-2707
েড	-2708
ন্দির	-2709
িনী	-2710
▁টেক	-2711
▁মাননীয়	-2712
▁এখতিয়ারের	-2713
▁খণ্ড	-2714
▁ভাষা	-2715
▁সত	-2716
িলেন	-2717
▁রো	-2718
▁৩০	-2719
▁রায়ের	-2720
▁কর্মচারীদের	-2721
▁প্রাপ্তির	-2722
▁ধারার	-2723
▁প্রতিরক্ষা	-2724
▁জ্যে	-2725
▁জ্যেষ্ঠ	-2726
▁স্যু	-2727
▁অসম	-2728
▁কর্ণাট	-2729
▁হারে	-2730
ছাড়াও	-2731
▁নয়াদ	-2732
▁একাধিক	-2733
▁বিদ্যুৎ	-2734
য়েন্ট	-2735
াসা	-2736
],	-2737
িকেশন	-2738
▁তদন্তকারী	-2739
▁ইত্যাদির	-2740
▁ডিসেম্বর	-2741
▁জর	-2742
▁একা	-2743
▁জনস্ব	-2744
▁তদনুসারে	-2745
▁এছাড়াও	-2746
▁প্রদর্শন	-2747
▁অভিব্যক্তি	-2748
▁অযৌ	-2749
চলিত	-2750
ূরণের	-2751
;,	-2752
▁আপনি	-2753
▁হওয়ায়	-2754
▁নিকট	-2755
▁এন্ট্রি	-2756
ালি	-2757
▁বৈষম্য	-2758
▁রাজনৈতিক	-2759
nd	-2760
▁মোহ	-2761
▁দুর্ঘট	-2762
▁জিন	-2763
▁বিকাশের	-2764
▁উন্মুক্ত	-2765
ককে	-2766
▁স্বামী	-2767
দিন	-2768
▁একমত	-2769
▁রয়	-2770
▁আলোকে	-2771
▁যন্ত্র	-2772
▁নীতিমালা	-2773
লাইন	-2774
িরা	-2775
্যাণ	-2776
▁প্রতিবন্ধ	-2777
▁যায়নি	-2778
েক্ষা	-2779
▁ওয়েবসাইট	-2780
ীপ	-2781
ডিও	-2782
স্টিটি	-2783
▁অনুপস্থ	-2784
▁পৃষ্ঠা	-2785
▁প্রচেষ্টা	-2786
▁ব্যক্তিরা	-2787
▁প্রতিযোগ	-2788
▁হইবে	-2789
মূল	-2790
ক্ষেপে	-2791
▁চেয়	-2792
▁দাবী	-2793
▁প্রতিষ্ঠা	-2794
ডব্লিউ	-2795
▁মানুষের	-2796
কর্ম	-2797
▁জুলাই	-2798
▁লাল	-2799
কেল	-2800
▁of	-2801
▁অনুরূপ	-2802
ডিশিয়াল	-2803
▁বিশেষজ্ঞ	-2804
▁নন	-2805
▁শুনানির	-2806
▁চুক্তিতে	-2807
▁২০১২	-2808
red	-2809
▁আনু	-2810
▁ঝুঁ	-2811
▁পরিচয়	-2812
তিহ	-2813
▁নির্ভরতা	-2814
▁নভ	-2815
▁চালিয়ে	-2816
▁অংশটি	-2817
▁দায়রা	-2818
▁সচেতন	-2819
ূন	-2820
▁জাতি	-2821
▁নির্বাহী	-2822
েব্রু	-2823
্যারান	-2824
▁শর্তে	-2825
▁তৈর	-2826
▁কেউ	-2827
▁চতু	-2828
▁ছোট	-2829
▁যতক্ষণ	-2830
▁যত্ন	-2831
▁তালিকার	-2832
ক্ষায়	-2833
গ্রহণ	-2834
▁অন্তর্বর্তী	-2835
▁আসল	-2836
োলা	-2837
াধ্য	-2838
▁পরিপ	-2839
▁গ্যারান	-2840
▁সর্বদা	-2841
▁নার	-2842
▁আওতাধীন	-2843
▁সেপ্টেম্বর	-2844
▁f	-2845
▁গাড়ি	-2846
তিষ্ঠ	-2847
▁প্রো	-2848
▁অগ্রগ	-2849
▁ইনস্টিটি	-2850
▁মুক্তি	-2851
▁অ্যান্ড	-2852
▁রেখেছিল	-2853
স্ফ	-2854
ূনতম	-2855
নির্দেশ	-2856
▁আসামির	-2857
▁b	-2858
িস্ত	-2859
দারী	-2860
ণী	-2861
▁ফেব্রু	-2862
▁উন্নত	-2863
▁গভর্ন	-2864
ফর	-2865
▁বাছাই	-2866
হর	-2867
▁প্রণব	-2868
ার্ম	-2869
হোক	-2870
▁এটিও	-2871
▁পশ্চ	-2872
▁অপরি	-2873
▁উইন্ডোতে	-2874
▁তাম	-2875
▁আবেদ	-2876
▁যাওয়া	-2877
▁হিন্দু	-2878
▁যাইহোক	-2879
▁২৮	-2880
▁প্রজ্ঞাপন	-2881
ডের	-2882
▁খালাস	-2883
▁অক্ট	-2884
▁ন্যূনতম	-2885
▁গিয়েছিল	-2886
▁স্কিম	-2887
▁শারীরিক	-2888
▁জবাবদি	-2889
▁সমিতি	-2890
▁বাড়িতে	-2891
▁রফত	-2892
▁পাঞ্জ	-2893
▁সীমাবদ্ধতা	-2894
▁হত	-2895
▁প্রোগ	-2896
▁অর্ড	-2897
▁২০১১	-2898
▁নভেম্বর	-2899
▁সচিব	-2900
▁দেবে	-2901
▁অবদান	-2902
▁দেখুন	-2903
▁যৌন	-2904
▁প্রশ্নের	-2905
▁জানুয়ারী	-2906
▁প্রতিবেদনের	-2907
▁কাঠামো	-2908
▁অবস্থিত	-2909
▁প্রাই	-2910
▁ছাড়াও	-2911
▁হলেও	-2912
ব্দের	-2913
▁প্রব	-2914
▁করেননি	-2915
ত্মক	-2916
▁রেজ	-2917
▁নির্বাচনের	-2918
মন্ত্রী	-2919
ারেশন	-2920
▁উত্তরদাতারা	-2921
▁বই	-2922
▁অযৌক্তিক	-2923
▁মোকাবেলা	-2924
▁রায়কে	-2925
▁প্রসারিত	-2926
▁h	-2927
▁একবার	-2928
▁দেখায়	-2929
▁উল্লেখযোগ্য	-2930
▁ইঞ্জ	-2931
▁de	-2932
▁অক্টোব	-2933
পিডাব্লু	-2934
▁খোলে	-2935
▁ভূমি	-2936
▁সংস্থাগুলির	-2937
▁অংশে	-2938
▁শি	-2939
▁স্যুট	-2940
▁স্থির	-2941
▁খনিজ	-2942
▁কার্যবিধির	-2943
▁চেয়ারম্যান	-2944
▁অভ্য	-2945
▁প্যারা	-2946
▁ন্যায্য	-2947
▁কার্যকার	-2948
▁পরেও	-2949
▁হোক	-2950
▁জনস্বার্থ	-2951
▁ওয়া	-2952
▁শব্দের	-2953
▁রেজিস্ট্র	-2954
িকারিক	-2955
▁আলোচনার	-2956
▁দিকনির্দেশ	-2957
▁পদ্ধতির	-2958
▁জুডিশিয়াল	-2959
▁খস	-2960
▁হাজার	-2961
▁দলগুলির	-2962
▁কল্যাণ	-2963
iv	-2964
সার্স	-2965
▁মহারা	-2966
▁প্রতিবেদনে	-2967
▁শৃঙ্খলা	-2968
▁বিশ্লেষণ	-2969
▁চেক	-2970
▁কর্মকর্তার	-2971
োপাধ্য	-2972
▁শ্রমিক	-2973
▁সম্মান	-2974
টিত	-2975
ফাজ	-2976
▁থাকলে	-2977
▁দেওয়	-2978
ারাধীন	-2979
ুরী	-2980
▁দৃষ্টিতে	-2981
▁ফৌজদারী	-2982
সূচ	-2983
▁ট্রাস্ট	-2984
শাসিত	-2985
▁অথবা	-2986
▁আসামী	-2987
▁মন	-2988
▁দক্ষতা	-2989
▁ব্যতিক্রম	-2990
▁হাউ	-2991
▁আধিকারিক	-2992
▁সিল	-2993
▁বিচারাধীন	-2994
াপনা	-2995
▁শ্রম	-2996
▁২০০৯	-2997
ুলে	-2998
▁রেল	-2999
েন্দ্র	-3000
▁পাঞ্জাব	-3001
▁উই	-3002
▁মন্দির	-3003
▁ব্যবসা	-3004
▁এইরকম	-3005
▁চালু	-3006
▁ওয়ার	-3007
ন্দি	-3008
্রিক	-3009
▁মালিকান	-3010
▁নীতিগুলি	-3011
▁কথায়	-3012
▁জবাবদিহ	-3013
▁সময়কালে	-3014
▁হেফাজ	-3015
▁সংবিধি	-3016
▁বন	-3017
▁ফেরত	-3018
▁পরিবার	-3019
্তা	-3020
▁নেত	-3021
▁মুখোম	-3022
ুখি	-3023
▁মুখোমুখি	-3024
▁N	-3025
▁কয়েক	-3026
িগ্ন	-3027
▁উদ্বিগ্ন	-3028
ক্ষেত্র	-3029
ic	-3030
িমূলক	-3031
▁প্রচ	-3032
▁পিছ	-3033
▁অগ্রাধিকার	-3034
▁প্রকল্পটি	-3035
▁চর	-3036
▁বিক্রি	-3037
▁শা	-3038
▁বলতে	-3039
িয়েছে	-3040
কেয়া	-3041
▁মেসার্স	-3042
▁কাউন্সিলের	-3043
শিত	-3044
▁গুণ	-3045
িরভাগ	-3046
ত্প	-3047
▁জন্ম	-3048
খণ্ড	-3049
▁২০১০	-3050
▁উদ্ভাব	-3051
▁প্রতিস্থ	-3052
রীত	-3053
▁কর্মসং	-3054
▁বেশিরভাগ	-3055
জার	-3056
▁হো	-3057
ূত্র	-3058
ঞ্চলিক	-3059
▁সমবায়	-3060
োচ্চ	-3061
▁চতুর্থ	-3062
▁on	-3063
▁সংশোধনীর	-3064
▁মুখোপাধ্য	-3065
▁লিপি	-3066
▁বাজার	-3067
▁ভাড়াটে	-3068
▁ডেট	-3069
েন্সি	-3070
▁ঘোষণার	-3071
▁কারণেই	-3072
▁বকেয়া	-3073
▁লঙ্ঘনের	-3074
▁মুক্ত	-3075
▁২৩	-3076
▁অভ্যন্ত	-3077
▁অন্ধ	-3078
▁চৌ	-3079
▁অধ্য	-3080
▁স্কুল	-3081
▁ভে	-3082
বিধা	-3083
▁উত্তরাধ	-3084
▁আইনসভার	-3085
ড়াতে	-3086
▁বিধিগুলির	-3087
োজনীয়	-3088
▁বিজ্ঞাপন	-3089
▁ফিরে	-3090
▁প্রবেশের	-3091
▁সর্বোচ্চ	-3092
▁আকারে	-3093
▁তফসিলের	-3094
কাঠাম	-3095
▁আঞ্চলিক	-3096
ভিশন	-3097
সির	-3098
▁ডাঃ	-3099
▁নয়াদিল্লি	-3100
▁বহাল	-3101
্ডে	-3102
▁বিচারকদের	-3103
११	-3104
▁জিনিস	-3105
▁আশা	-3106
াইড	-3107
▁দাবির	-3108
▁সংঘটিত	-3109
▁জায়গা	-3110
▁শর্তাবলী	-3111
▁পার্ট	-3112
▁রক্ত	-3113
▁আগ্রহী	-3114
▁প্রতিকার	-3115
হারের	-3116
শল	-3117
▁লিপিবদ্ধ	-3118
▁ধর্মীয়	-3119
▁সীমাবদ্ধতার	-3120
▁খাদ	-3121
▁ভারসাম	-3122
সই	-3123
▁পরিদর্শন	-3124
▁বিধিগুলি	-3125
▁পট	-3126
য়াল	-3127
ত্যার	-3128
▁বিপরীত	-3129
▁দায়বদ্ধতা	-3130
▁রাস্ত	-3131
▁বাস্তব	-3132
▁অধিকারকে	-3133
টেল	-3134
▁জিজ্ঞ	-3135
সিটি	-3136
মো	-3137
▁বোম্বাই	-3138
তেন	-3139
১০	-3140
▁অধিবেশন	-3141
▁ফর	-3142
▁u	-3143
▁সফল	-3144
▁মোটর	-3145
▁উন্নয়নের	-3146
১২	-3147
▁হাজির	-3148
ou	-3149
▁অবকাঠাম	-3150
▁খাত	-3151
▁পক্ষগুলির	-3152
▁নির্বি	-3153
বৃ	-3154
▁বর্ণনা	-3155
▁ব্যয়ের	-3156
রাজ	-3157
▁অ্যাক্স	-3158
▁বিষয়টির	-3159
▁the	-3160
▁২৯	-3161
▁২০১৪	-3162
পার	-3163
াদের	-3164
▁পুনরুদ্ধারের	-3165
▁লক্ষণ	-3166
▁সিন	-3167
▁সিবিআই	-3168
▁রাজ্যপাল	-3169
▁প্রশাসনের	-3170
▁কিছুটা	-3171
পত্রের	-3172
▁জীবনের	-3173
এক্সএক্স	-3174
ক্রমণ	-3175
▁অক্টোবর	-3176
পথ	-3177
কী	-3178
▁ইঞ্জিনিয়	-3179
ভেট	-3180
▁শীর্	-3181
নিবেশ	-3182
জিট	-3183
▁জালিয়া	-3184
▁অভিযোগে	-3185
ক্টর	-3186
▁জানায়	-3187
ঞ্চিত	-3188
▁সহকারী	-3189
▁নিরী	-3190
য়োজনীয়	-3191
▁ঘটনাটি	-3192
▁অ্যাক্সেস	-3193
▁গ্যারান্টি	-3194
▁পরামর্শদাতা	-3195
চ্ছি	-3196
▁বোঝায়	-3197
েরি	-3198
▁যাব	-3199
ডা	-3200
▁তৈরির	-3201
▁করছেন	-3202
▁২৪	-3203
ন্তু	-3204
▁বিধানটি	-3205
জরা	-3206
্যাক	-3207
▁প্রার্থীদের	-3208
▁প্রত্যেক	-3209
▁বছরে	-3210
▁জিজ্ঞাসা	-3211
▁খসড়া	-3212
▁কর্তৃত্ব	-3213
▁সাক্ষীদের	-3214
is	-3215
▁স্ত্রী	-3216
ারিং	-3217
বাদের	-3218
▁উপকরণ	-3219
▁রায়টি	-3220
▁বিস্ফ	-3221
দ্বন্দ্ব	-3222
২২	-3223
▁শাস	-3224
ীতে	-3225
▁বিচক্ষণ	-3226
▁রিজ	-3227
▁উপসং	-3228
▁ছুটি	-3229
াসেব	-3230
জ্জীব	-3231
▁উপস্থিতি	-3232
মানে	-3233
ওয়াল	-3234
,,	-3235
▁সংরক্ষণের	-3236
▁বহু	-3237
▁ভারসাম্য	-3238
▁অভিজ্ঞতা	-3239
▁গা	-3240
▁ঘটে	-3241
▁অর্ডার	-3242
▁জবানবন্দি	-3243
▁চিত্র	-3244
▁())	-3245
▁মিশ	-3246
তাদের	-3247
▁প্রোগ্রাম	-3248
▁বিমান	-3249
▁ধারাবাহিক	-3250
৯৯	-3251
▁6	-3252
▁সেন	-3253
▁আর্	-3254
থমে	-3255
▁আপিলগুলি	-3256
▁সূচ	-3257
▁মহারাষ্ট্র	-3258
▁দাম	-3259
▁কর্মসূচ	-3260
▁খনির	-3261
▁কার্যকরভাবে	-3262
র্নি	-3263
▁সম্ভবত	-3264
▁কারণগুলি	-3265
লম্ব	-3266
▁প্রতিদ্বন্দ্ব	-3267
▁আঘাতের	-3268
ন্দন	-3269
▁রাষ্ট্রপক্ষের	-3270
▁প্রথমে	-3271
▁অন্তর্নি	-3272
▁মূলধন	-3273
▁সম্পন্ন	-3274
▁লর্ড	-3275
▁তামিল	-3276
▁উত্তরাধিকার	-3277
্যক	-3278
ডিং	-3279
আইটি	-3280
টিল	-3281
▁নির্দেশিকা	-3282
▁লেনদেনের	-3283
▁তালিকাভুক্ত	-3284
▁রুপি	-3285
▁নীচের	-3286
▁জানিয়েছে	-3287
ম্বে	-3288
▁দাবিদার	-3289
▁টাই	-3290
▁গর্	-3291
▁আইটি	-3292
▁সংবিধিবদ্ধ	-3293
▁নিল	-3294
▁জায়গায়	-3295
▁ট্রে	-3296
▁অধিক	-3297
▁সরঞ্জ	-3298
ান্ড	-3299
▁অনি	-3300
▁আধার	-3301
▁বিবাদী	-3302
▁ছে	-3303
▁বিদ	-3304
▁ব্ল	-3305
চেয়ে	-3306
▁নিহত	-3307
▁মানসিক	-3308
▁কর্মকর্তাদের	-3309
▁নিয়ন্ত্রণের	-3310
▁হাত	-3311
স্কার	-3312
ান্তি	-3313
▁সরিয়ে	-3314
েন্টের	-3315
ন্তব্য	-3316
▁৩১	-3317
▁সম্প্রদায়ের	-3318
▁২০১৫	-3319
▁স্বাক্ষরিত	-3320
▁মারাত্মক	-3321
ত্পর্য	-3322
▁সংয	-3323
▁ক্ষেত্রের	-3324
ন্থ	-3325
ুতি	-3326
▁সময়সীমা	-3327
▁সহজ	-3328
▁২১	-3329
োরেট	-3330
▁কয়	-3331
▁তাত্পর্য	-3332
▁সবচেয়ে	-3333
যে	-3334
▁আদেশকে	-3335
▁নেট	-3336
▁শিকার	-3337
▁স্বেচ্ছাসেব	-3338
বিক	-3339
▁জৈ	-3340
##	-3341
▁আবেদনকারীরা	-3342
▁সাত	-3343
▁এলা	-3344
▁সম্মিল	-3345
▁সদস্যের	-3346
▁গুজরা	-3347
▁সালিসি	-3348
সম্প	-3349
িশালী	-3350
▁cred	-3351
▁সম্মত	-3352
▁কর্পোরেট	-3353
ভিস	-3354
ট্রিক	-3355
বর্	-3356
▁বরং	-3357
▁শক্তিশালী	-3358
▁প্রক্রিয়াটি	-3359
োলিউ	-3360
ত্তম	-3361
▁প্রচুর	-3362
▁চুক্তিটি	-3363
বাচক	-3364
▁অন্তর্নিহিত	-3365
▁অপ্রয়োজনীয়	-3366
▁চিন	-3367
▁খাদ্য	-3368
▁দিল্লির	-3369
চ্চ	-3370
বারে	-3371
▁১৯৯৯	-3372
ব্যবহার	-3373
▁মানদণ্ড	-3374
▁কেন্দ্রশাসিত	-3375
▁পঞ্চায়ে	-3376
ুট	-3377
চিত	-3378
▁সৃষ্টি	-3379
▁টেলি	-3380
▁বলেন	-3381
▁রিজার্ভ	-3382
▁পেয়েছিল	-3383
াবর	-3384
▁আচরণের	-3385
▁বিবাদ	-3386
▁পুরুষ	-3387
▁পুনঃ	-3388
▁নিয়েছিলেন	-3389
কির	-3390
▁ক্যাড	-3391
▁অ্যাট	-3392
▁সম্পাদনের	-3393
টন	-3394
----	-3395
▁কমপক্ষে	-3396
রিটি	-3397
▁বিতর্কিত	-3398
▁ইনস্টিটিউট	-3399
▁ম্যানে	-3400
জু	-3401
▁স্থানে	-3402
▁সংস্করণ	-3403
▁অনুপস্থিত	-3404
▁পদক্ষেপের	-3405
▁ক্ষেত্রেও	-3406
পরিষ	-3407
▁তুলনায়	-3408
▁পুরষ্কারের	-3409
▁m	-3410
▁ছাড়া	-3411
▁নির্দেশিত	-3412
জ্জীবন	-3413
▁শাখ	-3414
▁আমদ	-3415
নাড়	-3416
▁নৈতিক	-3417
িতার	-3418
▁মিস	-3419
▁মাত্র	-3420
▁সম্মেল	-3421
▁বিধানস	-3422
▁প্রাইভেট	-3423
▁ব্যাংকের	-3424
▁বর্ধ	-3425
▁বিচ্ছিন্ন	-3426
্যাস	-3427
▁সন্দেহের	-3428
গর	-3429
াম্ম	-3430
▁অভাব	-3431
as	-3432
▁পরিকল্প	-3433
▁হাসপাতালে	-3434
▁সেন্ট	-3435
▁সাই	-3436
▁ডেটা	-3437
▁৩৩	-3438
োলার	-3439
কার্য	-3440
িয়াম	-3441
▁ক্ষেত্রেই	-3442
ফি	-3443
▁জলের	-3444
▁বর্তমানে	-3445
▁গেলে	-3446
▁ধারায়	-3447
▁হয়েছিলেন	-3448
▁গভীর	-3449
▁উপায়ে	-3450
▁শীর্ষ	-3451
▁রোধ	-3452
টেন	-3453
▁তোলে	-3454
▁হত্যা	-3455
▁অপসারণের	-3456
রত	-3457
▁বিষয়ব	-3458
▁চলে	-3459
▁কার্যকারিতা	-3460
▁উপায়	-3461
▁তাতে	-3462
▁বাড়ানো	-3463
▁থান	-3464
▁মালিকানাধীন	-3465
ডিএ	-3466
▁টু	-3467
▁প্রাঙ্গ	-3468
টিক	-3469
▁১৯৪	-3470
ড়িয়ে	-3471
▁গে	-3472
▁আইটে	-3473
▁২০০৮	-3474
▁সম্মিলিত	-3475
▁শিক্ষার্থীদের	-3476
▁সরঞ্জাম	-3477
▁১২	-3478
▁দূর	-3479
▁সংখ্যক	-3480
▁ব্যাখ্যার	-3481
▁রক্ষণাবেক্ষণ	-3482
ro	-3483
▁Rs	-3484
▁হলফনামা	-3485
▁প্রয়োজনীয়তার	-3486
▁ছেড়ে	-3487
▁তদু	-3488
▁জব্দ	-3489
▁একত্র	-3490
▁যাবজ্জীবন	-3491
▁তদুপরি	-3492
▁বাড়ানোর	-3493
পত	-3494
▁কর্তব্য	-3495
িরাগত	-3496
টাই	-3497
▁শুল্কের	-3498
ান্ধ	-3499
▁নিয়োগকর্ত	-3500
▁ধরা	-3501
পিডব্লিউ	-3502
▁তেল	-3503
▁নগর	-3504
▁গোপনীয়তার	-3505
তনের	-3506
জী	-3507
টিও	-3508
▁তামিলনাড়	-3509
;)	-3510
োচিত	-3511
▁উদ্ধার	-3512
▁পরিষেবাগুলি	-3513
দ্দমা	-3514
সল	-3515
▁হবেন	-3516
▁বিবৃত	-3517
३०	-3518
াচার	-3519
▁সার্	-3520
মোক	-3521
▁শ্রদ্ধ	-3522
▁ক্রস	-3523
▁উদ্ধৃত	-3524
▁ব্র	-3525
▁পেয়েছিলেন	-3526
ফা	-3527
▁নগদ	-3528
▁পড়তে	-3529
হোল	-3530
িয়ানা	-3531
▁গভর্নর	-3532
▁হত্যার	-3533
▁অ্যাস	-3534
▁শুরুর	-3535
ছি	-3536
▁আবি	-3537
▁জানা	-3538
ান্ত্রিক	-3539
▁পেশাদার	-3540
▁মাল	-3541
▁উদ্ভি	-3542
▁মাসে	-3543
▁অ্যাটর্নি	-3544
ঝো	-3545
▁জয়	-3546
আপিল	-3547
▁কল্পনা	-3548
▁যানবাহ	-3549
▁রেজোলিউ	-3550
▁সেট	-3551
▁মুখ্য	-3552
▁অবলম্ব	-3553
ধাব	-3554
▁নান	-3555
▁অগ্রগতি	-3556
ভাই	-3557
▁কর্তৃপক্ষকে	-3558
▁সমঝো	-3559
দাতার	-3560
▁কর্মচারীর	-3561
্না	-3562
ওয়ে	-3563
▁সিক	-3564
▁উপভোগ	-3565
ক্ষেত্রে	-3566
▁পেতে	-3567
▁বাদীর	-3568
▁সংযোগ	-3569
▁অপরাধে	-3570
▁প্রার্থী	-3571
▁কথ	-3572
▁কর্ণাটক	-3573
▁আগেই	-3574
▁ডাব্লু	-3575
▁অস্থায়ী	-3576
▁পরিবর্তনের	-3577
▁২৫	-3578
্প্র	-3579
মানের	-3580
▁সমৃদ্ধ	-3581
▁সপ্তাহ	-3582
ণে	-3583
ার্ড	-3584
▁যুক্তরাষ্ট্র	-3585
▁আনন্দ	-3586
▁করব	-3587
▁বাল	-3588
▁স্টেট	-3589
▁কারণগুলির	-3590
▁শিশুদের	-3591
▁অভিযুক্তদের	-3592
▁বিধিম	-3593
জনের	-3594
▁ডিগ্র	-3595
▁আমান	-3596
▁রেখেছে	-3597
▁ভো	-3598
▁যথাক্রমে	-3599
▁দেখানো	-3600
▁উত্সাহিত	-3601
▁বেঁ	-3602
▁পরিণত	-3603
রীণ	-3604
▁উদাহরণস্বরূপ	-3605
▁সম্পূর্ণরূপে	-3606
▁ব্যবস্থার	-3607
▁তত্ত্ব	-3608
▁বিরত	-3609
▁পাবে	-3610
▁সংসদীয়	-3611
ভ্য	-3612
▁দিব	-3613
আইয়ের	-3614
▁পরিষেবার	-3615
▁সম্ব	-3616
▁বৈদ্য	-3617
ad	-3618
ছেন	-3619
▁নির্মাণের	-3620
ing	-3621
▁to	-3622
▁অশ	-3623
▁প্রদর্শ	-3624
▁মূল্যায়নের	-3625
▁প্রবিধান	-3626
▁অর্পণ	-3627
▁পূর্ণ	-3628
▁অপারেশন	-3629
▁বুঝ	-3630
গ্রহী	-3631
▁সোসাই	-3632
▁উপলক্ষে	-3633
ভাবেই	-3634
▁পুত্র	-3635
▁কারাদন	-3636
▁আংশ	-3637
▁মাদ্র	-3638
অভি	-3639
▁ড্র	-3640
▁সাম্প্র	-3641
▁স্থাপনের	-3642
ডেল	-3643
▁ক্রম	-3644
াত্র	-3645
▁নিঃ	-3646
▁ফেড	-3647
▁পরিবর্তিত	-3648
বোধ	-3649
▁দুর্বল	-3650
▁রাষ্ট্রীয়	-3651
▁বঞ্চিত	-3652
▁সিদ্ধান্তগুলি	-3653
ীকরণ	-3654
▁একর	-3655
প্রায়	-3656
▁পরামর্শটি	-3657
▁জাহ	-3658
▁হুম	-3659
রাজ্য	-3660
▁চরিত্র	-3661
▁জেল	-3662
হতি	-3663
ন্দর	-3664
▁মাথায়	-3665
▁উচ্	-3666
▁বাস্তবায়নের	-3667
ভেন	-3668
াদশ	-3669
পিএস	-3670
সাথে	-3671
্সের	-3672
▁credit	-3673
▁অবলম্বন	-3674
০৮	-3675
পেক্ষ	-3676
▁ক্লা	-3677
▁দায়েরের	-3678
▁দণ্ডিত	-3679
▁উপেক্ষা	-3680
▁গিয়েছিলেন	-3681
▁পিএস	-3682
▁রাইট	-3683
▁কোর্স	-3684
▁প্রবাহ	-3685
▁অনুপাত	-3686
▁সমর্থনে	-3687
▁তদার	-3688
ated	-3689
▁আক্রমণ	-3690
▁জ্ব	-3691
▁দেন	-3692
খান	-3693
গ্রে	-3694
▁আটক	-3695
▁বিরোধী	-3696
▁অনুশীলনের	-3697
▁মুখোপাধ্যায়	-3698
ষেধ	-3699
▁বের	-3700
▁সুবিধার্থ	-3701
▁অভ্যন্তরীণ	-3702
▁ধারণাটি	-3703
গরি	-3704
▁অঙ্গ	-3705
▁পশ্চিম	-3706
▁কিশ	-3707
▁অপসারণ	-3708
▁স্তরের	-3709
▁উত্পাদিত	-3710
াস্টি	-3711
▁অন্যতম	-3712
▁সহযোগিতা	-3713
▁কৌশল	-3714
▁শুভে	-3715
▁পৌঁছে	-3716
▁সংসদের	-3717
দেশের	-3718
▁ধারাটি	-3719
▁চিকিত্সার	-3720
কেও	-3721
▁বিজ	-3722
গুলিও	-3723
▁মন্তব্য	-3724
▁দন্ড	-3725
▁সত্যের	-3726
▁বিষয়বস্তু	-3727
▁ম্যাজিস্ট্রেটের	-3728
▁সেবা	-3729
▁রেখেছিলেন	-3730
१२	-3731
▁বাড়ির	-3732
▁ফ্ল	-3733
▁অবস্থানটি	-3734
▁পরিণতি	-3735
্লিকেশন	-3736
▁দৈ	-3737
নাকে	-3738
লিং	-3739
্টা	-3740
▁দাখিলের	-3741
▁জানিয়েছেন	-3742
▁পরিশোধের	-3743
▁পয়েন্ট	-3744
▁দলের	-3745
▁re	-3746
▁ভোট	-3747
▁মাঝ	-3748
▁পিটিশ	-3749
র্প	-3750
▁তর	-3751
▁হরিয়ানা	-3752
▁কাজটি	-3753
▁বিশেষভাবে	-3754
▁পড়ার	-3755
▁শিখলেন	-3756
▁কাগ	-3757
নামূলক	-3758
িনিষেধ	-3759
▁e	-3760
▁দিল	-3761
অন	-3762
▁বস	-3763
▁বুঝতে	-3764
▁নির্বাচনী	-3765
▁প্রত্যক্ষদর্শ	-3766
▁তহবিলের	-3767
▁অর্থে	-3768
িত্তিক	-3769
িত্বে	-3770
▁বিধিনিষেধ	-3771
মু	-3772
ঠিকভাবে	-3773
▁রিটার্ন	-3774
▁বোধ	-3775
▁ক্ষতির	-3776
▁স্ট্যান্ড	-3777
▁স্বার্থে	-3778
▁অর্জ	-3779
চেটিয়া	-3780
▁সম্পর্কের	-3781
াকে	-3782
▁প্রাপ	-3783
▁অ্যাপ্লিকেশন	-3784
▁গুপ্ত	-3785
▁হস্তক্ষেপের	-3786
▁০	-3787
▁স্মার	-3788
▁ইতিহ	-3789
▁ভবনে	-3790
▁সভায়	-3791
▁ব্রি	-3792
▁মুল	-3793
▁অভাবে	-3794
রচ	-3795
াহি	-3796
▁....	-3797
▁প্রাক	-3798
▁সূত্র	-3799
▁এসেছিল	-3800
▁রক্ষার	-3801
▁বিবৃতিতে	-3802
দী	-3803
▁পরিবহন	-3804
▁মামলাগুলি	-3805
্যিক	-3806
▁প্লট	-3807
▁E	-3808
ালের	-3809
▁শো	-3810
▁স্বীকারোক্তি	-3811
▁তল	-3812
▁সতর্ক	-3813
কার্যকর	-3814
▁বিধিবিধান	-3815
শের	-3816
▁পদোন্নতি	-3817
▁বাবা	-3818
▁ইচ্ছাকৃত	-3819
▁২০০২	-3820
গরিষ্ঠ	-3821
দাতাদের	-3822
▁অপরাধী	-3823
▁পরীক্ষায়	-3824
▁জানতে	-3825
কু	-3826
্বাস	-3827
▁আবদ্ধ	-3828
▁আবিষ্কার	-3829
▁পুনরাবৃ	-3830
▁7	-3831
কশন	-3832
▁করছি	-3833
▁সুবিধার্থে	-3834
বীণ	-3835
▁শুভেচ্ছা	-3836
াম্মদ	-3837
▁বিহার	-3838
▁শিল্পের	-3839
▁একচেটিয়া	-3840
ল্যান্ড	-3841
▁অব্যাহতি	-3842
▁অসুস্থ	-3843
ফল্ট	-3844
েন্ড	-3845
▁সন্	-3846
▁শ্রেণীর	-3847
▁অবস্থা	-3848
▁শ্রেণির	-3849
নাস্থ	-3850
▁অন্ধ্র	-3851
▁উপজা	-3852
▁ছাড়িয়ে	-3853
▁চাহি	-3854
▁সক্রিয়	-3855
▁ওরস	-3856
▁সংযোজন	-3857
▁জরুরি	-3858
▁প্রতিশ্রুতিবদ্ধ	-3859
্বর	-3860
▁সাফল	-3861
▁v	-3862
▁দিকটি	-3863
ণগ্রহী	-3864
গড়	-3865
▁অর্পিত	-3866
▁আনার	-3867
▁ইন্টার	-3868
▁সংখ্যাগরিষ্ঠ	-3869
▁হয়েছেন	-3870
▁মৃত্যুদণ্ডের	-3871
▁চারটি	-3872
▁অন্যদের	-3873
টর	-3874
▁জানিয়ে	-3875
৩৩	-3876
ent	-3877
▁গান্ধ	-3878
▁জাহাজ	-3879
িয়ন	-3880
ৃষ্ট	-3881
▁অভিপ্রায়	-3882
▁যুগ	-3883
▁ইস্যুতে	-3884
▁প্রতিবন্ধী	-3885
▁ঘন্ট	-3886
▁অর্থাত্	-3887
▁লক্ষণীয়	-3888
▁ডক	-3889
▁ঘাট	-3890
কেই	-3891
▁কার্ড	-3892
▁স্থিত	-3893
▁ভিত্তিক	-3894
▁গৌ	-3895
▁অভিযোগকারীর	-3896
▁ক্যান	-3897
র্মা	-3898
▁আনুষ্ঠ	-3899
চাল	-3900
▁ডঃ	-3901
▁মূল্যবান	-3902
▁মেয়ে	-3903
▁প্রতিষ্ঠার	-3904
▁ফাঁ	-3905
▁জমিটি	-3906
▁সংস্কার	-3907
▁ভুক্ত	-3908
▁ঘটনাস্থ	-3909
▁নেটওয়ার	-3910
]।	-3911
▁ভুক্তভোগ	-3912
ুনিক	-3913
▁নিরা	-3914
▁তামিলনাড়ু	-3915
▁নিউ	-3916
▁অঞ্চলের	-3917
▁ভবিষ্যতের	-3918
▁আবাসিক	-3919
▁প্রসিকিউটর	-3920
▁গেজে	-3921
▁ক্ষুদ্র	-3922
▁পটভূ	-3923
▁ভিডিও	-3924
▁সঠিকভাবে	-3925
▁সময়কালের	-3926
▁কর্মসংস্থান	-3927
▁ব্যাপ	-3928
তুল	-3929
▁দিয়েছি	-3930
▁নোটিশের	-3931
▁কম্প	-3932
জ্জিত	-3933
▁কয়লা	-3934
▁বিরোধের	-3935
সিআই	-3936
্যাম্প	-3937
▁বিশ্বের	-3938
বর	-3939
▁কুসং	-3940
▁অধ্যা	-3941
▁ভিন্ন	-3942
▁প্রবীণ	-3943
▁মর্যাদা	-3944
▁করেই	-3945
ইটি	-3946
▁পদ্ধতিটি	-3947
লিসি	-3948
▁জানিয়েছিলেন	-3949
িও	-3950
এরপরে	-3951
▁তফসিলি	-3952
▁প্রাণ	-3953
▁যেগুলি	-3954
সো	-3955
নাত	-3956
্ধি	-3957
▁বিনো	-3958
▁মজুরি	-3959
▁lo	-3960
▁এসসিআর	-3961
▁মাদ্রাজ	-3962
▁নিম্নরূপে	-3963
▁ইভ	-3964
▁বর্গ	-3965
▁আইটেম	-3966
▁বিচারপতির	-3967
▁৫০	-3968
▁অ্যাকাউন্টে	-3969
▁বায়ো	-3970
িন্দা	-3971
▁মহিলাদের	-3972
▁ফেব্রুয়ারী	-3973
গারি	-3974
▁দায়ী	-3975
▁হাউস	-3976
এসি	-3977
▁নাগরিকদের	-3978
▁লিমিটেডের	-3979
টিভ	-3980
ব্লু	-3981
▁ফাইল	-3982
▁কঠিন	-3983
▁সীমান	-3984
▁বিজ্ঞান	-3985
▁লিখিতভাবে	-3986
ন্ত্রাস	-3987
▁পণ্যগুলির	-3988
▁মৌখ	-3989
▁মিনি	-3990
▁যেভাবে	-3991
নীতির	-3992
▁ডিগ্রি	-3993
▁ট্রান্স	-3994
▁প্রদর্শিত	-3995
▁নীতিমালার	-3996
ুধ	-3997
▁অবমান	-3998
▁উপলব্ধি	-3999
▁তালিকায়	-4000
▁সিএ	-4001
▁মন্ত্রক	-4002
▁সামগ্রিক	-4003
▁অপব্যবহার	-4004
োঁ	-4005
▁ডিফল্ট	-4006
▁সংহত	-4007
▁তত্ক্ষণ	-4008
▁সমাপ্তির	-4009
▁অকার্যকর	-4010
▁প্রি	-4011
▁মডেল	-4012
▁আপনাকে	-4013
কোন	-4014
মিটার	-4015
▁পার্	-4016
▁ফিন	-4017
▁হলেন	-4018
th	-4019
ঠে	-4020
াপ্র	-4021
▁ফোরাম	-4022
▁নির্দেশে	-4023
▁অনুদান	-4024
পাতি	-4025
বের	-4026
▁এও	-4027
চিত্র	-4028
ার্জ	-4029
▁ক্ষত	-4030
িত্বের	-4031
পর	-4032
▁অসা	-4033
▁কারও	-4034
▁একাডে	-4035
▁অনুসন্ধানের	-4036
▁চিফ	-4037
▁আরোপিত	-4038
▁আঁ	-4039
▁দক্ষি	-4040
▁প্রদেশের	-4041
▁জটিল	-4042
▁পেটেন্ট	-4043
▁এজেন্ট	-4044
শই	-4045
▁१	-4046
পূর্	-4047
তিহ্য	-4048
▁বৃদ্ধির	-4049
োলন	-4050
▁লাইন	-4051
▁বাক্য	-4052
▁প্রাপ্তি	-4053
▁sh	-4054
▁গুজরাট	-4055
তান্ত্রিক	-4056
▁প্রচারের	-4057
▁বলার	-4058
▁লিখ	-4059
াইজ	-4060
▁বুদ্ধ	-4061
ায়েন্স	-4062
▁আবগারি	-4063
▁মতামতের	-4064
ফো	-4065
ামীণ	-4066
▁সিংহের	-4067
▁বাসিন্দা	-4068
পিএ	-4069
▁হেফাজতে	-4070
▁লাভের	-4071
▁একসাথে	-4072
▁সমন্বয়ে	-4073
কারীরা	-4074
▁)	-4075
▁ক্রয়	-4076
েরা	-4077
▁ট্র্যা	-4078
▁সন্তানের	-4079
▁মানবাধ	-4080
▁ভোগ	-4081
তী	-4082
▁রেজোলিউশন	-4083
▁প্রমাণগুলি	-4084
▁আদালতগুলি	-4085
▁সাম্প্রতিক	-4086
▁জার	-4087
▁পুনরুত	-4088
▁মিশ্র	-4089
▁প্রতিক্রিয়াশীল	-4090
▁খালি	-4091
▁চলতে	-4092
▁প্রায়শই	-4093
▁পরিকল্পনার	-4094
▁নিষ্পত্তির	-4095
▁loan	-4096
▁গণতন্ত্র	-4097
ূর্ত	-4098
▁গুলি	-4099
▁মতবাদ	-4100
▁অভিনন্দন	-4101
▁ঝুঁকি	-4102
ect	-4103
োয়	-4104
▁চাহিদা	-4105
জাতন্ত্র	-4106
▁সন্ত্রাস	-4107
পরী	-4108
▁তদ্ব	-4109
▁ফার্ম	-4110
▁গ্রামীণ	-4111
▁নিষেধাজ্ঞার	-4112
সন	-4113
▁গাইড	-4114
▁পুনর্বিবেচনার	-4115
▁কর্মী	-4116
il	-4117
▁আমদানি	-4118
▁যন্ত্রপাতি	-4119
ন্যা	-4120
▁অভিযোগপত্র	-4121
▁আদেশগুলি	-4122
▁চিঠির	-4123
▁স্বচ্ছ	-4124
▁প্রচলিত	-4125
ীতি	-4126
্রিস্ট	-4127
▁ইউপি	-4128
▁অ্যাসোস	-4129
ুঁত	-4130
চেঞ্জ	-4131
▁রফতানি	-4132
▁দায়বদ্ধতার	-4133
্সি	-4134
কারীকে	-4135
▁প্রার্থীর	-4136
চীন	-4137
▁ছুটির	-4138
▁শর্মা	-4139
▁বিদ্বিত	-4140
দ্দমার	-4141
▁ষড়যন্ত্রের	-4142
▁নজরে	-4143
▁থেকেই	-4144
▁পক্ষগুলি	-4145
▁বেঁচে	-4146
▁আধুনিক	-4147
▁বাড়িয়ে	-4148
▁ওজন	-4149
ভাবিক	-4150
▁আগের	-4151
িয়ায়	-4152
।,	-4153
▁সীমিত	-4154
সায়	-4155
▁এস্ট	-4156
▁শিক্ষক	-4157
▁নেতৃত্ব	-4158
▁সংক্ষেপে	-4159
সহ	-4160
▁পরিমা	-4161
▁সালিসী	-4162
▁সম্পদের	-4163
▁ওভার	-4164
ওনা	-4165
▁[(	-4166
▁প্রিন	-4167
▁দণ্ডনীয়	-4168
িংস	-4169
▁ডকুম	-4170
▁গ্রাহক	-4171
এটি	-4172
েন্ডার	-4173
▁আইনসভায়	-4174
নাথ	-4175
▁তুলে	-4176
▁পত্র	-4177
▁বিনিয়োগের	-4178
▁পিছনে	-4179
▁এজেন্সি	-4180
▁অপারে	-4181
▁জালিয়াতি	-4182
স্ক	-4183
▁ডান	-4184
▁বিভ্র	-4185
▁নির্ভরশীল	-4186
▁অবিচ্ছিন্ন	-4187
▁সাধারণভাবে	-4188
▁গিয়ে	-4189
▁সুপার	-4190
শে	-4191
all	-4192
▁বাঁ	-4193
▁সত্যই	-4194
▁ভর্তির	-4195
স্পরিক	-4196
▁ঘটেছিল	-4197
▁এক্সচেঞ্জ	-4198
▁চন্দ্র	-4199
▁প্রণয়ন	-4200
▁শ্রেণিবদ্ধ	-4201
▁লোকস	-4202
▁সিংয়ের	-4203
▁ন্যস্ত	-4204
▁পুনর্বাস	-4205
৪৪	-4206
সংশ	-4207
▁অবস্থায়	-4208
▁প্রাপ্য	-4209
▁রয়েছেন	-4210
▁ন্যান	-4211
▁পুনরাবৃত্তি	-4212
▁কিশোর	-4213
▁সমঝোতা	-4214
▁খ্রিস্ট	-4215
▁অন্যায়	-4216
▁প্রতিফল	-4217
▁যোগাযোগের	-4218
গঠন	-4219
▁গত	-4220
▁অভিযোগটি	-4221
▁প্রজাতন্ত্র	-4222
▁বয়সী	-4223
ামীর	-4224
▁এসি	-4225
ীকরণের	-4226
▁ব্যাপক	-4227
সব	-4228
▁বিবাহের	-4229
▁শেখ	-4230
বর্ধ	-4231
▁দেব	-4232
▁ব্যাল	-4233
▁নিখুঁত	-4234
▁বিভাগটি	-4235
▁ক্লজ	-4236
▁পারস্পরিক	-4237
য়াম	-4238
ুদ্ধ	-4239
▁X	-4240
▁গেল	-4241
▁সংরক্ষিত	-4242
▁অনুষ্ঠানে	-4243
ম্	-4244
▁আসলে	-4245
▁ডিজিট	-4246
▁কালেক্টর	-4247
▁তখনই	-4248
▁প্রর	-4249
▁মৌখিক	-4250
বির	-4251
এসআই	-4252
্যতীত	-4253
▁ঘোষিত	-4254
▁বরাদ্	-4255
গতভাবে	-4256
্যানেল	-4257
▁রূপান্তরিত	-4258
▁আমাকে	-4259
▁তদ্ব্যতীত	-4260
ay	-4261
▁গতি	-4262
▁অবশেষে	-4263
▁রক্ষণাবেক্ষণের	-4264
▁পুনর্বিবেচনা	-4265
▁উদ্ভিদ	-4266
ীম	-4267
▁পূরণের	-4268
▁প্রবণ	-4269
▁বিশাল	-4270
▁কোর্টে	-4271
▁নিষেধাজ্ঞা	-4272
বাই	-4273
▁কৃষ্ণ	-4274
▁সদস্যরা	-4275
▁বাস্তবায়ন	-4276
bt	-4277
সমূহের	-4278
▁প্রতিস্থাপন	-4279
▁আদায়ের	-4280
▁জাতির	-4281
▁উন্নতি	-4282
▁সজ্জিত	-4283
▁জানিয়েছিল	-4284
▁খেলা	-4285
▁ঘন্টা	-4286
িয়েছিল	-4287
ুদ	-4288
▁শাস্তির	-4289
▁অবস্থানের	-4290
▁পরবর্তীকালে	-4291
▁প্রশাসন	-4292
তুবি	-4293
▁জন্যও	-4294
▁কাম	-4295
▁ক্ষতিপূরণের	-4296
সেল	-4297
▁মানের	-4298
▁অংশগ্রহণ	-4299
▁আসন	-4300
▁দেয়নি	-4301
▁পরিমাপ	-4302
▁মূল্যের	-4303
গের	-4304
▁ইউনিয়নের	-4305
পুট	-4306
ফিক	-4307
▁x	-4308
্রাব	-4309
▁বিড	-4310
জেক্ট	-4311
্যাপী	-4312
▁স্তর	-4313
▁স্কেল	-4314
▁স্নাত	-4315
▁করছিল	-4316
▁মিসেস	-4317
▁n	-4318
▁দোক	-4319
▁হি	-4320
আইনী	-4321
▁আরে	-4322
▁ডিল	-4323
▁ত্র	-4324
▁দুর্নীতি	-4325
▁দুর্ঘটনার	-4326
ফের	-4327
▁or	-4328
▁নেয়	-4329
▁আসামিরা	-4330
▁অবকাঠামো	-4331
ীব্র	-4332
হার্য	-4333
▁দূরে	-4334
▁আনতে	-4335
▁তর্ক	-4336
্যুত	-4337
▁দেখার	-4338
স্ত্র	-4339
ুয়াল	-4340
▁আইনকে	-4341
▁অসুবিধা	-4342
▁মুলতুবি	-4343
ময়	-4344
▁বরাদ্দের	-4345
▁বিরূপ	-4346
▁ফিরিয়ে	-4347
বিশ্ব	-4348
▁দর্শ	-4349
ন্ত্রণ	-4350
ওয়ালা	-4351
▁চালিত	-4352
ষুধ	-4353
▁একেবারে	-4354
গা	-4355
▁তীব্র	-4356
।)	-4357
সিং	-4358
▁জনসং	-4359
▁বেছে	-4360
▁দুর্দ	-4361
মান্ড	-4362
ষ্টির	-4363
াপ্রতিষ্ঠ	-4364
ড়াই	-4365
▁প্রান্ত	-4366
বারিক	-4367
▁অ্যাল	-4368
▁থাকায়	-4369
▁ডিভিশন	-4370
অভিযুক্ত	-4371
▁অপরিহার্য	-4372
ানু	-4373
্বং	-4374
▁বৈঠ	-4375
▁অনুধাব	-4376
▁একাডেমিক	-4377
▁অভিযুক্তরা	-4378
ীর্ণ	-4379
▁ইংরে	-4380
ারাপ	-4381
▁সম্প্রদায়	-4382
াউন্ড	-4383
▁খোলা	-4384
▁ভ্রম	-4385
▁গোষ্ঠ	-4386
▁নির্যা	-4387
▁দ্বিতীয়ত	-4388
▁জনগণ	-4389
▁শিক্ষাপ্রতিষ্ঠ	-4390
শ্যক	-4391
ালয়ে	-4392
▁ওষুধ	-4393
▁প্রত্যাহারের	-4394
▁বিশ্বাসযোগ্য	-4395
▁মন্ত্রি	-4396
▁ভাতা	-4397
▁বিস্ফোর	-4398
▁ঘোষণ	-4399
▁উচ্ছে	-4400
▁জো	-4401
▁মিলিয়ন	-4402
▁নিরপেক্ষ	-4403
▁জরিমানার	-4404
▁সুস্পষ্টভাবে	-4405
▁বুদ্ধি	-4406
▁বস্তু	-4407
▁দলগুলি	-4408
▁দিচ্ছি	-4409
িষ্ট	-4410
দেশিক	-4411
▁স্মারক	-4412
▁ডকুমেন্ট	-4413
▁বিক্রয়ের	-4414
▁বিশিষ্ট	-4415
▁ক্রিয়াকলাপের	-4416
▁উদ্দেশ্যটি	-4417
▁ফেলে	-4418
▁শূন্যপদ	-4419
▁রাজস্থান	-4420
▁সুবিধাগুলি	-4421
ষ্ঠু	-4422
▁নির্দেশাবলী	-4423
শ্রম	-4424
▁করছিলেন	-4425
▁নিবন্ধন	-4426
▁কঠোরভাবে	-4427
হোল্ডার	-4428
তাকে	-4429
শনাল	-4430
▁বর্ধিত	-4431
▁পারিবারিক	-4432
▁২০০৩	-4433
বিদ	-4434
▁উপার্	-4435
▁পাওনা	-4436
▁বাচ্চ	-4437
▁কম্পিউ	-4438
▁পরিষ	-4439
▁নিলাম	-4440
েজ	-4441
▁কাটা	-4442
ফরম্যান	-4443
▁সমন্বয়	-4444
▁জবাবদিহি	-4445
▁আনুষ্ঠানিক	-4446
কাবিল	-4447
▁ফ্যা	-4448
▁যৌতু	-4449
▁টেকসই	-4450
▁নির্মিত	-4451
▁মোকাবিল	-4452
সূ	-4453
মৃত	-4454
ূরক	-4455
▁ঘাটতি	-4456
▁কাগজ	-4457
▁বয়সের	-4458
▁যাত্র	-4459
▁বিক্রে	-4460
▁সম্বোধন	-4461
▁চান	-4462
१३	-4463
▁ধ্বং	-4464
▁বিস্তারিত	-4465
সম্ম	-4466
▁মোহাম্মদ	-4467
▁পদোন্নতির	-4468
▁সরল	-4469
জিং	-4470
▁খারাপ	-4471
▁ব্যর্থতা	-4472
▁দখলে	-4473
▁অধিকন্তু	-4474
এবং	-4475
▁মাই	-4476
▁সিসি	-4477
▁মুহ	-4478
▁অভিব্যক্তিটি	-4479
▁অনিয়	-4480
▁শান্তি	-4481
▁সুষ্ঠু	-4482
ভাজন	-4483
▁মহাম	-4484
ধু	-4485
▁কেরালার	-4486
পির	-4487
ন্যাস	-4488
▁নম্ব	-4489
▁প্রাথমিকভাবে	-4490
▁পারেনি	-4491
▁সার্ব	-4492
am	-4493
▁জ্ঞানের	-4494
ডিট	-4495
▁৪৪	-4496
িয়র	-4497
াতার	-4498
▁২০০৫	-4499
▁দক্ষিণ	-4500
▁রাজ্যগুলির	-4501
▁সফ	-4502
ন্ডার	-4503
▁ততক্ষণ	-4504
▁নিখরচ	-4505
োষণ	-4506
▁হলফনামায়	-4507
বার্য	-4508
▁পারফরম্যান	-4509
এসই	-4510
▁নাব	-4511
▁সমাল	-4512
েয়াপ্ত	-4513
▁আক্রান্ত	-4514
▁তথ্যগুলি	-4515
▁সত্যিকারের	-4516
▁২০০৪	-4517
▁রিল	-4518
▁থানায়	-4519
▁বৈজ্ঞ	-4520
▁মন্ত্রিপরিষ	-4521
ter	-4522
▁পিত	-4523
▁মালিকানা	-4524
নিষ্ঠ	-4525
▁নিষ্ঠ	-4526
▁যাদের	-4527
▁আইনত	-4528
▁রাস্তা	-4529
▁নিঃস	-4530
▁মুদ্র	-4531
▁অনুধাবন	-4532
▁চাকরি	-4533
▁রেফারেন্সের	-4534
▁দিকনির্দেশনা	-4535
▁পাঠ্য	-4536
ুব্ধ	-4537
▁দিবস	-4538
সংক্ষেপে	-4539
▁বিলম্বের	-4540
▁অফিসিয়াল	-4541
▁কার্যক্রমের	-4542
ঘু	-4543
▁পায়	-4544
▁অনিবার্য	-4545
▁স্বেচ্ছাসেবী	-4546
ডিয়া	-4547
▁কাঠামোর	-4548
▁ফিনান্স	-4549
েমনি	-4550
▁সংগ	-4551
▁আমানত	-4552
▁পথ	-4553
হেলা	-4554
▁সংবেদন	-4555
▁সাহ	-4556
বিরোধ	-4557
▁পরিপূরক	-4558
▁অধ্যায়ে	-4559
▁নব	-4560
়ভাবে	-4561
▁স্তরে	-4562
▁দেওয়ানী	-4563
▁ফ্রে	-4564
▁যৌক্তিক	-4565
▁কর্পোরেশনের	-4566
▁অ্যাসোসিয়	-4567
▁পুনরুত্প	-4568
▁হতা	-4569
▁১৯৯৩	-4570
▁তেমনি	-4571
মন্ত্রীর	-4572
▁প্রভাবের	-4573
িপ	-4574
▁পরামর্শে	-4575
▁চেয়েছিলেন	-4576
▁পুনরুত্পাদন	-4577
▁বাজেয়াপ্ত	-4578
▁শিক্ষাব	-4579
স্তি	-4580
▁মের	-4581
স্থায়	-4582
▁কারাগ	-4583
▁ইভেন্ট	-4584
বহিরাগত	-4585
▁অবহেলা	-4586
▁কারাদণ্ডের	-4587
▁খা	-4588
▁স্বল্প	-4589
▁ম্যানেজ	-4590
ইড	-4591
বর্ধমান	-4592
▁নিখরচায়	-4593
▁আসামিদের	-4594
নবী	-4595
▁আমের	-4596
▁জানাই	-4597
▁ইতিহাস	-4598
▁জমিতে	-4599
▁চেয়েছিল	-4600
▁প্রস্তাবটি	-4601
id	-4602
▁সংবিধানে	-4603
▁বিষয়টিকে	-4604
োভ	-4605
▁নর	-4606
িন্দি	-4607
োত্তম	-4608
▁পুনর্নবী	-4609
▁চো	-4610
▁কুসংস্কার	-4611
▁বিজ্ঞপ্তির	-4612
▁যথ	-4613
▁..	-4614
এসসি	-4615
▁লোকের	-4616
▁চাকরিতে	-4617
▁দৃষ্টিভঙ্গির	-4618
▁ডাক্ত	-4619
▁লিঙ্গ	-4620
▁প্রথমত	-4621
▁দায়িত্বে	-4622
▁ক্রমবর্ধমান	-4623
চ্ছেদ	-4624
▁ট্রেড	-4625
ায়ক	-4626
▁জরিপ	-4627
▁বিনোদন	-4628
▁ঠ	-4629
কাঙ্	-4630
▁স্ক্র	-4631
▁যানবাহন	-4632
▁পঞ্চায়েত	-4633
▁নিয়ন্ত্রক	-4634
▁মৃতের	-4635
▁এস্টেট	-4636
▁যেটি	-4637
▁অজ	-4638
ডিআর	-4639
চারের	-4640
প্রদেশ	-4641
ক্রেট	-4642
▁ভবনের	-4643
▁প্রকৌ	-4644
ারদের	-4645
▁বাদে	-4646
▁আবাসন	-4647
▁অগ্রিম	-4648
শু	-4649
▁এসে	-4650
▁লাগ	-4651
▁গান্ধী	-4652
▁পর্যবেক্ষণগুলি	-4653
▁শহর	-4654
▁আগ্রহের	-4655
▁স্ত্রীর	-4656
▁পিতা	-4657
ব্যাপী	-4658
▁জমাটি	-4659
▁অল	-4660
▁পব	-4661
মুক্ত	-4662
▁প্রবণতা	-4663
▁সপ্তাহের	-4664
▁বাস্তবে	-4665
▁রায়টির	-4666
▁এড়	-4667
▁জ্বাল	-4668
জোর	-4669
▁ইক	-4670
মেন্টের	-4671
▁shall	-4672
▁অধিদ	-4673
▁বাহিনী	-4674
▁ভ্রান্ত	-4675
পূর্ব	-4676
▁কোনওভাবেই	-4677
জিৎ	-4678
▁আপাত	-4679
▁আইপিসি	-4680
▁আরেকটি	-4681
▁গাছ	-4682
ভিত্তিক	-4683
▁কাউন্সেল	-4684
▁আরোপের	-4685
▁বিশ্বাসের	-4686
▁বৈজ্ঞানিক	-4687
ঙ্গাল	-4688
▁অ্যাম	-4689
▁ক্ষুব্ধ	-4690
▁ঘন	-4691
▁পারত	-4692
মুনা	-4693
িনীর	-4694
▁প্রতিবেদনটি	-4695
▁গ্রামে	-4696
▁সেক্রেট	-4697
▁সন্ধানের	-4698
▁কার্যবিধি	-4699
▁য়	-4700
ন্দেহে	-4701
▁বিভক্ত	-4702
▁প্রত্যাশা	-4703
বঙ্গ	-4704
▁আহমে	-4705
স্থানের	-4706
▁সহায়ক	-4707
▁চিন্তা	-4708
▁ছড়িয়ে	-4709
▁বিধিমালা	-4710
▁পর্যালোচনার	-4711
মোকদ্দমা	-4712
▁আবেদনগুলি	-4713
▁তাত্ক্ষণিকভাবে	-4714
▁গোপনীয়তা	-4715
▁গণতান্ত্রিক	-4716
ড়ক	-4717
দূর	-4718
▁চায়	-4719
▁নীতির	-4720
▁সংসদে	-4721
▁প্রতার	-4722
▁দক্ষতার	-4723
▁আফ	-4724
▁নিয়ন্ত্রিত	-4725
উন	-4726
▁debt	-4727
▁হিন্দি	-4728
▁সংবেদনশীল	-4729
্যান্স	-4730
বছ	-4731
▁রেগুল	-4732
▁গেজেটে	-4733
▁পড়েছে	-4734
▁শপথ	-4735
▁অবস্থার	-4736
কাতা	-4737
▁পাট	-4738
গুণ	-4739
▁বিজয়	-4740
▁ময়	-4741
▁সকাল	-4742
▁ম্যান	-4743
▁শক্তির	-4744
ld	-4745
অনু	-4746
ীভূত	-4747
▁বোঝার	-4748
▁সৌ	-4749
▁ভয়	-4750
▁শ্রমিকদের	-4751
ঙ্গতি	-4752
▁খাব	-4753
িংয়ের	-4754
▁পৌঁছেছে	-4755
▁st	-4756
▁ক্ষয়	-4757
▁and	-4758
▁১৯৮৮	-4759
▁প্ররোচিত	-4760
▁ভাড়াটিয়া	-4761
▁জীবনয	-4762
▁উপসংহার	-4763
▁উদ্যোগের	-4764
▁ইন্ডিয়ান	-4765
▁শংসাপত্রের	-4766
শিপ	-4767
▁ভুলভাবে	-4768
▁মালিকের	-4769
▁পেট্র	-4770
▁বেতনের	-4771
▁ব্যবসায়িক	-4772
▁ত্রুটিযুক্ত	-4773
▁সিদ্ধান্তকে	-4774
▁তাত্পর্যপূর্ণ	-4775
সাল	-4776
▁অভিহিত	-4777
ইল	-4778
▁পথে	-4779
▁প্রবর্তন	-4780
▁মানবাধিকার	-4781
▁আসা	-4782
▁আসার	-4783
▁এটিই	-4784
▁অপরাধটি	-4785
জনীন	-4786
▁সমী	-4787
▁আন্দ	-4788
▁প্রত্যে	-4789
▁অধিষ্ঠ	-4790
▁পড়েছিল	-4791
আইএল	-4792
▁রাও	-4793
▁জুড়ে	-4794
▁নিঃসন্দেহে	-4795
েলের	-4796
▁নজর	-4797
▁তাড়া	-4798
▁চাওয়া	-4799
িলো	-4800
ition	-4801
▁ইতিবাচক	-4802
▁সক	-4803
▁সন্নিবেশ	-4804
▁ঘোষণাপত্র	-4805
▁অফিসের	-4806
জির	-4807
টিফ	-4808
ুত্ব	-4809
▁বেআইনী	-4810
▁বিরোধিতা	-4811
▁সর্বোত্তম	-4812
▁কার্যা	-4813
▁স্বামীর	-4814
▁রেকর্ডের	-4815
▁সমিত	-4816
শো	-4817
▁শাখা	-4818
▁দৃশ্য	-4819
▁ব্যাগ	-4820
▁অন্যের	-4821
▁প্রমাণাদি	-4822
▁প্রতিদ্বন্দ্বী	-4823
▁পেশা	-4824
▁একত্রিত	-4825
▁ভাষায়	-4826
▁খালাসের	-4827
▁নির্বিশেষে	-4828
▁অধীনস্থ	-4829
লেট	-4830
▁পেল	-4831
▁আটকের	-4832
োগত	-4833
▁be	-4834
ন্থী	-4835
▁হোটেল	-4836
▁অধিষ্ঠিত	-4837
▁সিআরপিসির	-4838
লিত	-4839
▁এড	-4840
▁সমানভাবে	-4841
▁কনভেন	-4842
▁কলকাতা	-4843
▁চাপিয়ে	-4844
▁সমন্বিত	-4845
▁অধ্যাদেশ	-4846
▁৪০	-4847
▁বার্তা	-4848
▁থাকাকালীন	-4849
▁পুনর্নির্	-4850
▁সাহা	-4851
▁এয়ার	-4852
▁প্রয়োগযোগ্য	-4853
▁প্রসিকিউটরিক	-4854
▁ছেলে	-4855
▁ধ্বংস	-4856
▁পরিস্থিতির	-4857
্যাগ	-4858
▁বিনি	-4859
▁ক্ষমতায়	-4860
▁প্রতিফলিত	-4861
▁চলার	-4862
▁ধারণার	-4863
▁বছরেরও	-4864
▁সম্প্রসার	-4865
▁রেজিস্ট্রার	-4866
▁No	-4867
▁প্রজাতন্ত্রের	-4868
িট	-4869
▁ঠিকাদার	-4870
ation	-4871
tor	-4872
ওয়্যার	-4873
ায়ণ	-4874
▁নিষ্	-4875
▁পরের	-4876
▁যুব	-4877
উত্তর	-4878
▁সংবাদ	-4879
▁অবজ্ঞ	-4880
▁প্রক্রিয়াটির	-4881
এনএ	-4882
▁রাই	-4883
▁সেরা	-4884
চারে	-4885
▁অবস	-4886
▁হাম	-4887
দর্শক	-4888
▁থাকবেন	-4889
▁চালানোর	-4890
▁অনুদানের	-4891
▁ব্যাংকিং	-4892
▁অপরাধমূলক	-4893
▁চ্যালেঞ্জের	-4894
িশীল	-4895
▁মধ্যেই	-4896
▁দুর্ঘটনা	-4897
মিতে	-4898
▁শেষে	-4899
▁অফিসে	-4900
আইএ	-4901
▁খান	-4902
১৮	-4903
▁জগ	-4904
▁আত্মহ	-4905
▁এভাবে	-4906
▁ক্ষমা	-4907
ব্যবহ	-4908
▁পিটিশনে	-4909
▁হাল	-4910
▁নক	-4911
ভুক্তি	-4912
্যালঘু	-4913
▁দ্বাদশ	-4914
গ্ধ	-4915
▁মুখার্জ	-4916
সিড	-4917
দ্রা	-4918
▁শাহ	-4919
কেন্ড	-4920
▁অর্জিত	-4921
▁এসেছিলেন	-4922
66	-4923
▁কাশ	-4924
▁যেত	-4925
▁রেড	-4926
▁ঘটেছে	-4927
▁আপিলেন্ট	-4928
▁পরিবেশগত	-4929
▁বৈষম্যমূলক	-4930
▁হয়র	-4931
▁নির্ভরযোগ্য	-4932
▁আবারও	-4933
▁সিপিসির	-4934
▁এসটি	-4935
▁আকৃষ্ট	-4936
▁উপস্থিতিতে	-4937
আসাম	-4938
▁আদর্শ	-4939
▁উপজাতি	-4940
▁ইম	-4941
▁উইল	-4942
▁জরুরী	-4943
▁মূল্যবোধ	-4944
ভূতি	-4945
▁ব্লক	-4946
▁শ্রেণিবি	-4947
▁আংশিকভাবে	-4948
▁সহিংস	-4949
▁আন্তরিক	-4950
ক্ষক	-4951
▁তদারকি	-4952
▁বিদ্যুত	-4953
▁উঠেছে	-4954
▁আবশ্যক	-4955
▁পাঁচটি	-4956
ংখ্যান	-4957
▁পদত্যা	-4958
ঞ্	-4959
ংসিত	-4960
ফর্ম	-4961
ection	-4962
▁স্মরণ	-4963
▁মন্ত্রকের	-4964
আরআই	-4965
▁তলব	-4966
▁পশ্চিমবঙ্গ	-4967
নকে	-4968
▁উপাদানগুলি	-4969
িন্দর	-4970
▁নমুনা	-4971
▁সামঞ্জস্যপূর্ণ	-4972
▁সম্মতিতে	-4973
▁দুর্দান্ত	-4974
▁নাগরিকের	-4975
▁ব্যবস্থাপ	-4976
▁ত্রি	-4977
১৫	-4978
▁লেখা	-4979
▁পাল্টা	-4980
▁সহায়তার	-4981
▁প্রতিযোগিত	-4982
▁অ্যান	-4983
▁অপ্রচলিত	-4984
▁th	-4985
্রয়	-4986
িকারক	-4987
▁মূল্যায়নকারীর	-4988
বাদে	-4989
▁প্রয়োগে	-4990
জীবি	-4991
ুর্ত	-4992
▁ঘনিষ্ঠ	-4993
▁টাইগার	-4994
▁দ্বন্দ্ব	-4995
▁লড়াই	-4996
▁স্টক	-4997
▁পক্ষপাত	-4998
▁পরিসংখ্যান	-4999
▁জারির	-5000
াবল	-5001
▁মুম্বাই	-5002
ুলের	-5003
বিভাগ	-5004
ল্লা	-5005
োগ্রা	-5006
▁কান	-5007
▁ফিল	-5008
ায়ার	-5009
▁অভিন্ন	-5010
▁প্রোভিস	-5011
em	-5012
▁বাকী	-5013
▁সিটি	-5014
▁সংকল্প	-5015
▁সমাধানের	-5016
▁ঘটনাস্থলে	-5017
▁আমদান	-5018
▁কাজগুলি	-5019
এমসি	-5020
ফে	-5021
▁সিকিও	-5022
াপনে	-5023
▁আন্ডার	-5024
▁আত্মীয়	-5025
ব্যবহারের	-5026
▁উপস্থাপনের	-5027
মির	-5028
ীরে	-5029
▁ক্রেতার	-5030
);	-5031
▁শহ	-5032
▁ডায়	-5033
▁দেবী	-5034
▁আরবি	-5035
▁কথিত	-5036
▁তেমন	-5037
াস্টার	-5038
▁অনলাইন	-5039
▁রাজ্যকে	-5040
▁সর্বশেষ	-5041
▁রেগুলেশন	-5042
▁ঘর	-5043
▁ইঞ্জিনিয়ারিং	-5044
▁রঙ	-5045
▁অনাব	-5046
▁শতাংশের	-5047
▁অভিযোগগুলি	-5048
ভাস	-5049
▁ডেভ	-5050
▁সংখ্যালঘু	-5051
ুরির	-5052
▁অতি	-5053
▁এমপি	-5054
१४	-5055
কৃ	-5056
▁বহি	-5057
চার্জ	-5058
▁প্রজ	-5059
▁বন্ধক	-5060
▁কারাদন্ডে	-5061
চা	-5062
ষণের	-5063
্লিতে	-5064
▁সপ্তম	-5065
▁স্বার্থের	-5066
চ্ছিল	-5067
▁আস্থা	-5068
▁সংগ্রহের	-5069
▁অনুপস্থিতিতে	-5070
▁হারের	-5071
▁হুমকি	-5072
▁দরপত্র	-5073
▁দাবিতে	-5074
▁নিবন্ধকরণ	-5075
▁জনস্বার্থে	-5076
▁এতটা	-5077
▁নেটওয়ার্ক	-5078
▁নিষ্ঠুর	-5079
▁সেকেন্ড	-5080
▁নিবন্ধের	-5081
▁tr	-5082
ঙ্গল	-5083
▁হ্যান্ড	-5084
▁প্রস্তাবের	-5085
▁ওর	-5086
এমই	-5087
য়ারি	-5088
▁জামিনের	-5089
▁টুকর	-5090
▁জোরদার	-5091
▁নথিভুক্ত	-5092
িনের	-5093
▁আইএ	-5094
▁বিলের	-5095
▁পরিমাণটি	-5096
▁যুক্তিটি	-5097
লায়	-5098
েনের	-5099
▁বাম	-5100
▁সেল	-5101
াস্ত্র	-5102
▁সেবার	-5103
▁মন্ত্রণ	-5104
দায়	-5105
বাইল	-5106
▁অপরের	-5107
▁অনুমানের	-5108
▁মর্যাদার	-5109
নিম্ন	-5110
▁রাসায়	-5111
▁পৌঁছানোর	-5112
▁প্রযুক্ত	-5113
ীরের	-5114
▁অস্পষ্ট	-5115
▁অধিকারগুলি	-5116
শনে	-5117
এসের	-5118
▁মোবাইল	-5119
▁মেয়াদে	-5120
▁মুছে	-5121
▁গ্যাস	-5122
▁অফিসারের	-5123
ঠি	-5124
▁মধ্যস্থ	-5125
রিদ্র	-5126
▁ভবিষ্যতে	-5127
াপুর	-5128
ত্বের	-5129
▁ভ্রমণ	-5130
▁উভয়ের	-5131
▁সমিতির	-5132
▁পৌর	-5133
▁লিজ	-5134
▁হা	-5135
▁ফেলা	-5136
▁সারা	-5137
▁ধর্মের	-5138
▁বিষয়গুলিতে	-5139
▁অধ্যয়ন	-5140
▁পেয়েছি	-5141
▁পরিপন্থী	-5142
ওর	-5143
▁অগ	-5144
ত্তিতে	-5145
▁ওঠে	-5146
▁সংস্থান	-5147
▁রাসায়নিক	-5148
▁দিনে	-5149
▁পেয়ে	-5150
▁মৃতদে	-5151
নির	-5152
য়ং	-5153
ান্তরের	-5154
▁পালনের	-5155
▁ইক্যু	-5156
▁সক্ষমতা	-5157
▁প্রয়োজনের	-5158
▁প্রেস	-5159
▁আউট	-5160
▁প্রসাদ	-5161
োক্তা	-5162
▁বিভ্রান্ত	-5163
▁বিশ্বব্যাপী	-5164
আরটি	-5165
আরসি	-5166
য়তা	-5167
▁অর্ধ	-5168
▁পৃষ্ঠায়	-5169
▁খাতের	-5170
▁বিপুল	-5171
▁লঙ্ঘনকারী	-5172
▁কপি	-5173
▁জেনে	-5174
▁সোসাইটি	-5175
▁পরিষেবাদি	-5176
▁গ্রেপ্তারের	-5177
▁দফ	-5178
▁চৌধ	-5179
▁গড়ে	-5180
▁মিটার	-5181
▁দরিদ্র	-5182
▁সাবধান	-5183
▁মামলাটির	-5184
হেল	-5185
▁II	-5186
▁নাও	-5187
▁গ্রুপের	-5188
▁দমন	-5189
▁বিরল	-5190
ায়ত্ত	-5191
▁প্যাকে	-5192
▁সহায়তায়	-5193
য়াদ	-5194
▁বিপণ	-5195
▁সির	-5196
▁সমাজে	-5197
▁সেক্রেটারি	-5198
▁দিই	-5199
▁বন্ধু	-5200
▁তদন্তে	-5201
▁শেয়	-5202
▁রোগীর	-5203
▁ম্যানেজমেন্ট	-5204
▁তত্ক্ষণাত	-5205
চ্ছেন	-5206
ীতিতে	-5207
▁অবিল	-5208
▁ফস	-5209
▁আইনি	-5210
▁পর্যবেক্ষণের	-5211
ুরু	-5212
▁টুকরো	-5213
▁অবিলম্বে	-5214
▁বিচারককে	-5215
▁কিলো	-5216
▁স্রাব	-5217
াসিক	-5218
▁হোল	-5219
েশ্বর	-5220
▁সলিসি	-5221
▁ডব্লিউ	-5222
▁তরল	-5223
▁হোম	-5224
তুল্য	-5225
ভাগ্য	-5226
▁ক্লি	-5227
▁সহকারে	-5228
লো	-5229
▁অট	-5230
▁এনসি	-5231
▁আমন্ত্রণ	-5232
▁মনের	-5233
▁আপিলকে	-5234
▁সাফল্য	-5235
▁আসতে	-5236
▁দিকের	-5237
▁পেয়েছেন	-5238
কাণ্ড	-5239
▁সমতা	-5240
২০০৯	-5241
স্টার	-5242
▁পরিবেশন	-5243
▁সংস্থাটি	-5244
্মা	-5245
▁co	-5246
▁সামগ্রীর	-5247
ুমো	-5248
▁করলে	-5249
▁মীমা	-5250
শার	-5251
আইডি	-5252
▁শাসন	-5253
▁শাস্তিযোগ্য	-5254
▁জলা	-5255
▁অবজেক্ট	-5256
▁দাঁড়িয়েছে	-5257
ড়ার	-5258
▁ক্রয়ের	-5259
▁দাঁড়িয়ে	-5260
▁বাজারে	-5261
▁শব্দগুলি	-5262
st	-5263
▁মামলাগুলির	-5264
গো	-5265
শী	-5266
▁অভিনয়	-5267
▁দেওয়ানি	-5268
▁মন্ত্রীর	-5269
▁সংস্থাকে	-5270
জাইন	-5271
সেবা	-5272
প্ল	-5273
ুতিন	-5274
▁কারণের	-5275
▁স্বায়ত্ত	-5276
ভারত	-5277
▁সমতুল্য	-5278
▁তাও	-5279
▁মহিলার	-5280
▁গ্রাহকদের	-5281
পিং	-5282
সুবিধা	-5283
▁মনোযোগ	-5284
▁কার্যধারা	-5285
৫০	-5286
কেন্দ্র	-5287
▁গ্রামের	-5288
▁বিতর্	-5289
▁_	-5290
▁স্বেচ্ছাচার	-5291
▁দখলের	-5292
▁ধর্ষণ	-5293
▁স্পিকার	-5294
▁সর্বনিম্ন	-5295
ঙ্কের	-5296
▁পেরে	-5297
▁বন্ধুত্ব	-5298
▁উপস্থাপনা	-5299
▁অগ্রসর	-5300
▁বিধানসভা	-5301
▁সলিসিটার	-5302
▁মর	-5303
▁নির্মা	-5304
▁পবিত্র	-5305
▁সন্তোষ	-5306
▁সমাবে	-5307
▁নীতিগুলির	-5308
এক্সএক্সএক্সএক্স	-5309
ামা	-5310
▁কেটে	-5311
▁স্থিতিশীল	-5312
গান	-5313
১৪	-5314
৮৮	-5315
দুল	-5316
র্ষের	-5317
▁চলেছে	-5318
adition	-5319
স্কৃতিক	-5320
০৩	-5321
▁খেলাপি	-5322
▁পণ্যগুলি	-5323
▁রেখেছি	-5324
▁স্থগিতা	-5325
পুরের	-5326
▁সেনা	-5327
▁দর্শন	-5328
১৩	-5329
দোষ	-5330
####	-5331
▁ওয়াক	-5332
▁স্বয়ং	-5333
▁ব্যবস্থাপনা	-5334
কুল	-5335
▁প্রশাসক	-5336
▁পৃথকভাবে	-5337
▁ঠিকানা	-5338
▁পিডব্লু	-5339
▁ফেডারেল	-5340
▁দেখে	-5341
সী	-5342
্রো	-5343
▁শ্রদ্ধা	-5344
▁কাশ্ম	-5345
▁ড্রাই	-5346
▁কর্মরত	-5347
▁রেলওয়ে	-5348
▁সম্মেলন	-5349
ঙ্কর	-5350
▁প্রতিক	-5351
▁মালিকদের	-5352
▁প্রসিকিউশনের	-5353
▁শিব	-5354
▁:	-5355
▁সন্ধ	-5356
▁উত্তোলন	-5357
ক্রো	-5358
▁এমএস	-5359
▁২০০১	-5360
▁ডিজাইন	-5361
▁আপিলদের	-5362
▁বাঁচ	-5363
):	-5364
লিম	-5365
▁নির্বাহ	-5366
▁একীভূত	-5367
▁উদ্বেগজনক	-5368
র্পণ	-5369
▁চার্জশি	-5370
ভাষ	-5371
সিএ	-5372
▁চিঠিতে	-5373
▁নম্বরের	-5374
▁রায়টিতে	-5375
▁বৈদ্যুতিন	-5376
▁বাক	-5377
স্থানীয়	-5378
▁ফ্ল্যাট	-5379
▁মুহুর্ত	-5380
▁বিল্ডিংয়ের	-5381
▁পৌরস	-5382
▁মোকাবিলা	-5383
তারা	-5384
▁সর্বজনীন	-5385
কথ	-5386
▁বিনা	-5387
▁আইনজীবি	-5388
▁((	-5389
▁পক্ষকে	-5390
▁দেরি	-5391
▁সেক্টর	-5392
▁উপার্জন	-5393
▁এক্ষেত্রে	-5394
ুটি	-5395
▁উদ্যান	-5396
▁দলিলের	-5397
মতি	-5398
ওয়ান	-5399
ণাঙ্গ	-5400
▁আপত্তিজনক	-5401
▁নিয়োগকর্তা	-5402
খের	-5403
▁অদ	-5404
্সিপাল	-5405
▁পুরানো	-5406
▁ইচ্ছাকৃতভাবে	-5407
এক	-5408
▁বী	-5409
ওয়াই	-5410
▁অপেক্ষা	-5411
িয়েছিলেন	-5412
াম্প	-5413
▁ফ্র	-5414
▁অফার	-5415
▁অভিয	-5416
▁ডিসি	-5417
ষিত	-5418
চ্ছেদ্য	-5419
▁পদার্থের	-5420
অপ	-5421
ক্তির	-5422
▁রিপোর্টের	-5423
▁মাইন	-5424
▁পণ্যের	-5425
▁প্রতিযোগিতা	-5426
জীবন	-5427
▁কারাগারে	-5428
▁প্রধানমন্ত্রী	-5429
▁মোহন	-5430
▁সঞ্চ	-5431
▁দোকান	-5432
▁......	-5433
▁নাবালিক	-5434
ছিল	-5435
্ডের	-5436
▁আচ্ছ	-5437
▁উপস্থাপিত	-5438
▁অবিচ্ছেদ্য	-5439
▁জৈন	-5440
▁অনুষ	-5441
▁রিলায়েন্স	-5442
▁সাংস্কৃতিক	-5443
]]	-5444
েশনে	-5445
▁tor	-5446
▁সাইট	-5447
▁এলাহা	-5448
▁সুপ্রীম	-5449
▁tradition	-5450
▁অ্যাক্টের	-5451
ধর	-5452
ন্দের	-5453
▁রাখেন	-5454
▁চালানো	-5455
▁অতিক্রম	-5456
▁পৌঁছেছিল	-5457
▁আত্মবিশ্ব	-5458
le	-5459
▁তোলা	-5460
ৎপ	-5461
ল্লী	-5462
▁ইউর	-5463
ন্মের	-5464
▁কখনই	-5465
▁আবদুল	-5466
▁অধ্যায়ের	-5467
▁ভোটার	-5468
▁ক্লায়	-5469
▁প্রতিদিন	-5470
বিদ্ধ	-5471
▁খাতে	-5472
▁ড্রা	-5473
াত্ম	-5474
▁প্যার	-5475
▁প্রিম	-5476
▁বোঝানো	-5477
▁প্রিন্সিপাল	-5478
োদ	-5479
▁বর্ণের	-5480
▁অ্যাসোসিয়েশন	-5481
তাড়ি	-5482
▁মঞ্জুরি	-5483
▁প্রতিকারের	-5484
ber	-5485
▁খোলার	-5486
কিট	-5487
▁রাজি	-5488
▁গাড়ির	-5489
▁বিস্ফোরক	-5490
▁কেন্দ্রের	-5491
▁দুর্ভাগ্য	-5492
▁প্রতিযোগিতামূলক	-5493
▁প্লা	-5494
▁সত্যটি	-5495
▁মুখার্জি	-5496
গঠিত	-5497
▁মহা	-5498
▁চাষ	-5499
মেয়াদ	-5500
▁আবেদকের	-5501
▁তাড়াতাড়ি	-5502
▁আগু	-5503
▁অনুপ্র	-5504
▁শৃঙ্খলাবদ্ধ	-5505
০২	-5506
কোর	-5507
েক্স	-5508
▁টার	-5509
▁ক্রেডিট	-5510
▁মাস্টার	-5511
▁রেখেছেন	-5512
▁সিস্টেমের	-5513
কতার	-5514
▁চেন	-5515
▁উত্থিত	-5516
য়িক	-5517
সূরি	-5518
▁লাই	-5519
▁আর্জি	-5520
▁খনন	-5521
▁পুলিশকে	-5522
▁অবমাননার	-5523
▁ইলে	-5524
▁তাদেরকে	-5525
▁প্রজ্ঞাপনের	-5526
▁জেনারে	-5527
▁নীতিগত	-5528
▁ফসল	-5529
▁বিবাহিত	-5530
▁মুনা	-5531
▁আওতাভুক্ত	-5532
কান	-5533
সংঘ	-5534
জিসি	-5535
▁এনআই	-5536
▁বিচক্ষণতা	-5537
ুশ	-5538
▁ভুগ	-5539
▁পদত্যাগ	-5540
▁দৃষ্টিভঙ্গিতে	-5541
শিক্ষ	-5542
▁অনেকগুলি	-5543
▁শিখেছিলেন	-5544
▁তত্	-5545
্যাংশ	-5546
▁অস্ট	-5547
▁উদ্বেগের	-5548
▁পুনর্গঠন	-5549
▁নজির	-5550
▁এড়াতে	-5551
চ্ছু	-5552
িকাল	-5553
িকেট	-5554
▁ডির	-5555
▁মাসিক	-5556
▁দন্ডিত	-5557
▁অস্থাবর	-5558
▁মন্ত্রন	-5559
লাল	-5560
▁শেয়ারের	-5561
ছক	-5562
্ভব	-5563
এমএস	-5564
▁এনজি	-5565
▁জ্যেষ্ঠতা	-5566
্মু	-5567
▁হায়	-5568
▁অবহেল	-5569
▁বসবাস	-5570
▁অফিসারদের	-5571
▁বৃ	-5572
▁সৈ	-5573
হারে	-5574
▁con	-5575
▁গুরু	-5576
▁স্মৃতি	-5577
▁প্রাচীন	-5578
▁সংযুক্তি	-5579
চ্যুত	-5580
▁অধ্যাপ	-5581
▁বৈদেশিক	-5582
▁শিক্ষকদের	-5583
▁আপিলগুলিতে	-5584
▁সিই	-5585
▁কলেজের	-5586
▁কর্ণাটকের	-5587
▁বিধিবিধানের	-5588
▁স্ট্যান্ডার্ড	-5589
জেন	-5590
▁এসআই	-5591
▁সমুদ্র	-5592
▁পূর্ণাঙ্গ	-5593
▁পিটিশনার	-5594
রাই	-5595
▁চিঠিটি	-5596
৩০	-5597
▁নিছক	-5598
▁দৃষ্টিকো	-5599
▁সংস্থায়	-5600
▁নির্বিচারে	-5601
যেমন	-5602
়তার	-5603
▁চাঁ	-5604
▁পিপি	-5605
▁সম্পাদিত	-5606
▁প্রতিনিধিদের	-5607
▁দাত	-5608
▁কন্ট	-5609
▁অংশীদারিত্ব	-5610
▁শী	-5611
গণের	-5612
▁ত্যাগ	-5613
▁বোম্বে	-5614
▁বাড়াতে	-5615
▁শ্রীমতি	-5616
▁আইনগুলির	-5617
▁জ্ঞানী	-5618
ভৌ	-5619
ডিএর	-5620
মূল্যায়	-5621
মস	-5622
াশ	-5623
▁টন	-5624
▁নবায়	-5625
▁তত্ত্বাব	-5626
▁রিপোর্টে	-5627
▁ব্যক্তিগতভাবে	-5628
েপা	-5629
োরণ	-5630
▁are	-5631
▁বোন	-5632
▁বাচ্চাদের	-5633
▁ফাই	-5634
▁জনসংখ্যার	-5635
▁রচ	-5636
▁কেজি	-5637
▁আশেপা	-5638
▁কোর্সে	-5639
▁চাকরির	-5640
-0	-5641
ম্ভ	-5642
▁ডিএনএ	-5643
▁বিবরণী	-5644
▁জাতিসংঘ	-5645
▁........	-5646
▁বিস্ফোরণ	-5647
▁প্রথমবারের	-5648
▁শুনেছি	-5649
▁বছরগুলিতে	-5650
▁স্বরাষ্ট্র	-5651
াফ	-5652
পেন	-5653
▁বদ	-5654
▁রিস	-5655
▁চলছে	-5656
ত্যক্ষ	-5657
▁গবেষণ	-5658
▁ছাড়পত্র	-5659
▁প্রণয়নের	-5660
কূল	-5661
▁এআই	-5662
▁ফান্ড	-5663
▁উপধারা	-5664
▁ভালভাবে	-5665
▁প্রযুক্তির	-5666
ly	-5667
মিট	-5668
▁পলি	-5669
▁থাকেন	-5670
মেট্রিক	-5671
▁পরিষ্কারভাবে	-5672
▁কং	-5673
▁ভগ	-5674
ৃশ্য	-5675
্তায়	-5676
তিবাচক	-5677
রুণ	-5678
▁খেল	-5679
▁দেখানোর	-5680
▁প্রশস্ত	-5681
▁সংক্ষিপ্তসার	-5682
▁১৯৯৪	-5683
63	-5684
র্থক	-5685
▁মিডিয়া	-5686
সম্মত	-5687
হল	-5688
▁উপা	-5689
▁অমান	-5690
▁পাঠানো	-5691
▁দেবেন	-5692
▁সালিসের	-5693
▁প্রতিষ্ঠানে	-5694
টেক	-5695
পিএল	-5696
▁আনন্দিত	-5697
▁পুলিশের	-5698
▁ক্ষয়ক্ষ	-5699
▁অষ্ট	-5700
▁ইন্ডাস্ট	-5701
▁প্রত্যাশিত	-5702
▁বিদ্যালয়ের	-5703
০৪	-5704
▁চেত	-5705
▁এইরূপ	-5706
▁দামের	-5707
▁পটভূমিতে	-5708
▁প্রতিকূল	-5709
▁স্বয়ংক্রিয়	-5710
▁ব্যর্থতার	-5711
্রেলি	-5712
▁পড়ুন	-5713
শুর	-5714
২০০৮	-5715
▁বান	-5716
▁জামিনে	-5717
▁বাজারের	-5718
টিই	-5719
▁আঁক	-5720
▁ইন্স	-5721
শস্ত্র	-5722
▁শতাব্দ	-5723
--------	-5724
▁সত্যতার	-5725
▁এসেছে	-5726
▁আইনগুলি	-5727
▁সম্পত্তিতে	-5728
▁তু	-5729
▁ভারী	-5730
▁বিকৃত	-5731
▁নেতিবাচক	-5732
▁ইংল্যান্ড	-5733
▁সন্তুষ্টি	-5734
জিল	-5735
▁ফোন	-5736
কিস্ত	-5737
▁ধীরে	-5738
▁করলেন	-5739
স্যার	-5740
▁অনন্য	-5741
▁সেন্টার	-5742
▁ট্রাস্টের	-5743
▁অঞ্চলগুলির	-5744
মিন	-5745
▁ভাষার	-5746
▁সিকিউ	-5747
ত্ত্বিক	-5748
▁অবদানের	-5749
ডার	-5750
অর্থ	-5751
▁মেহ	-5752
▁হরি	-5753
▁কনস্ট	-5754
▁বিভাজন	-5755
▁প্রকৃতিতে	-5756
▁প্রকল্পগুলি	-5757
একটি	-5758
▁বাকি	-5759
▁সভাপত	-5760
▁ধর্	-5761
েন্সের	-5762
▁আকাঙ্	-5763
▁সালিশের	-5764
▁মুখ্যমন্ত্রী	-5765
▁১৯৯৫	-5766
▁অসম্ভব	-5767
▁আত্মসম	-5768
ামে	-5769
▁ডাক	-5770
▁সহজে	-5771
▁হিমা	-5772
▁ইনস্ট	-5773
▁সত্তা	-5774
▁মেম	-5775
▁যাদ	-5776
▁বিবে	-5777
▁বোমা	-5778
▁রয়্যাল	-5779
▁সার্বভৌ	-5780
II	-5781
উপ	-5782
▁দাস	-5783
▁অনুভব	-5784
▁সামান্য	-5785
▁অবস্থানে	-5786
▁সংস্কৃতি	-5787
▁শর	-5788
▁আশ্বাস	-5789
▁ইঞ্জিনিয়ার	-5790
কুর	-5791
▁নকশা	-5792
▁সিজে	-5793
▁বন্দর	-5794
▁থাকলেও	-5795
০৯	-5796
▁৩৪	-5797
▁নিরাপদ	-5798
▁ঘটনাগুলি	-5799
;&	-5800
সমা	-5801
্টে	-5802
▁টায়	-5803
▁নিবন্ধগুলি	-5804
িৎ	-5805
্দে	-5806
াবলীর	-5807
▁বৈচিত্র	-5808
▁মন্ত্রী	-5809
▁তত্কালীন	-5810
▁স্ট্যাম্প	-5811
য়ান	-5812
/0	-5813
এএ	-5814
য়েল	-5815
▁নারায়ণ	-5816
▁সিবিআইয়ের	-5817
▁বায়োমেট্রিক	-5818
অব	-5819
▁XX	-5820
▁দূষণ	-5821
▁মুদ্রা	-5822
▁পেনশনের	-5823
▁শর্তগুলি	-5824
▁তুলনামূলক	-5825
▁সেচ	-5826
বিন্দ	-5827
▁অভিভাব	-5828
▁কনভেনশন	-5829
▁সমস্যার	-5830
▁চিকিত্সক	-5831
▁দণ্ডবিধির	-5832
▁স্থানান্তরের	-5833
াকুর	-5834
▁আরবিআই	-5835
ted	-5836
▁নির্দোষ	-5837
▁বাহ্যিক	-5838
▁গড়	-5839
▁বাং	-5840
বয়	-5841
▁ডলার	-5842
▁বেনি	-5843
▁বিসিসি	-5844
▁পুরষ্কারটি	-5845
২০১১	-5846
▁রোড	-5847
সিভিল	-5848
তিহাসিক	-5849
▁উদ্ভাবন	-5850
▁ম্যান্ড	-5851
মুখ	-5852
ট্রা	-5853
▁সংক	-5854
▁আইনশ	-5855
▁চলমান	-5856
▁ঘটনায়	-5857
▁জুনিয়র	-5858
▁নিয়মের	-5859
▁শেয়ারহোল্ডার	-5860
ce	-5861
ণিত	-5862
ঙ্কা	-5863
▁উদয	-5864
▁১০০	-5865
▁কাঁচ	-5866
▁ক্যাল	-5867
▁অসন্তু	-5868
▁প্রাণী	-5869
▁স্টেশন	-5870
ধে	-5871
০১	-5872
ver	-5873
▁ভেন	-5874
▁রোহ	-5875
▁শিখেছি	-5876
▁ব্রিটিশ	-5877
▁আসামীদের	-5878
▁রেজিস্ট্রেশন	-5879
দীপ	-5880
▁৩২	-5881
▁এপি	-5882
▁খতি	-5883
▁ভেঙ	-5884
▁দাবিটি	-5885
ঙ্গা	-5886
▁নেন	-5887
▁গোষ্ঠী	-5888
▁কর্মীরা	-5889
▁যুক্তির	-5890
▁প্রকাশ্য	-5891
▁উপাদানগুলির	-5892
ব্র	-5893
এলআর	-5894
▁গ্রেড	-5895
▁সূচনা	-5896
▁মহামান্য	-5897
▁স্বাভাবিক	-5898
▁g	-5899
▁কেনার	-5900
▁জম্মু	-5901
▁সশ্রম	-5902
▁পছন্দসই	-5903
পাতিক	-5904
▁ফসলের	-5905
▁রম	-5906
পিতে	-5907
▁মূল্যায়নকারীকে	-5908
▁খাবার	-5909
▁ধারাবাহিকভাবে	-5910
▁গর্ভ	-5911
▁ট্রাস্টি	-5912
▁নষ্ট	-5913
▁বিচারকরা	-5914
▁অস্ট্রেলি	-5915
▁নির্দেশের	-5916
▁অ্যাকাউন্টের	-5917
ার্ট	-5918
োজনে	-5919
▁মেশ	-5920
▁পঞ্চম	-5921
▁বিতর্কের	-5922
▁কম্পিউটার	-5923
২০১০	-5924
▁সঞ্জ	-5925
▁স্মারকলিপি	-5926
কায়	-5927
▁আপাতত	-5928
▁যৌতুকের	-5929
▁নিবন্ধনের	-5930
▁৩৫	-5931
▁অজ্ঞ	-5932
▁গণনার	-5933
vi	-5934
▁এমসি	-5935
▁ভেঙে	-5936
▁উদ্দেশ্যমূলক	-5937
▁সান	-5938
▁মেমো	-5939
▁প্রাঙ্গণ	-5940
ch	-5941
▁ইচ্ছ	-5942
▁মোটে	-5943
▁অবসান	-5944
▁এন্টার	-5945
▁খতিয়ে	-5946
▁এক্সপ্র	-5947
▁খ্রিস্টাব	-5948
▁মধ্যস্থতা	-5949
▁ব্যবস্থাপনার	-5950
শীলতা	-5951
মেয়াদী	-5952
▁অনুসন্ধানগুলি	-5953
▁উদার	-5954
▁বিচারে	-5955
१५	-5956
▁কিউ	-5957
▁নেবে	-5958
▁যখনই	-5959
ুমোদিত	-5960
▁প্রভিস	-5961
▁সংশ্লে	-5962
ংবিধানিক	-5963
ণদাতাদের	-5964
▁বৃহত্তম	-5965
▁ষ্ঠ	-5966
বাহ্যিক	-5967
▁স্কিমের	-5968
▁ফট	-5969
▁বসে	-5970
▁অধ্যাপক	-5971
▁বিদ্বানিত	-5972
▁অ্যাপয়েন্ট	-5973
র্ঘ	-5974
্লীল	-5975
▁দুধ	-5976
▁বিক	-5977
▁ঠাকুর	-5978
▁যেকোন	-5979
▁লোকদের	-5980
__	-5981
▁সশস্ত্র	-5982
▁বহিষ্কার	-5983
্নাই	-5984
▁জানান	-5985
▁পরিধি	-5986
▁ইক্যুইটি	-5987
▁আত্মহত্যা	-5988
▁নৈ	-5989
ক্ষিক	-5990
শক্তি	-5991
▁ধারণ	-5992
▁সড়ক	-5993
▁কাস্ট	-5994
কিল	-5995
াকা	-5996
স্তন	-5997
▁ল্যা	-5998
▁নিহতের	-5999
▁এমনভাবে	-6000
▁পাকিস্ত	-6001
▁বিবেচ্য	-6002
থার	-6003
ালে	-6004
১৯৯৯	-6005
▁বায়ু	-6006
▁ফ্রেম	-6007
▁ময়না	-6008
▁অক্ষমতা	-6009
▁যুক্তরাজ্য	-6010
জেড	-6011
▁লেখক	-6012
▁সীমানা	-6013
থিল	-6014
াপরি	-6015
ার্ক	-6016
▁ধার্য	-6017
▁ধারাটির	-6018
▁কমিশনারের	-6019
▁জালিয়াতির	-6020
ুপ্ত	-6021
▁ডাক্তার	-6022
▁রেড্ড	-6023
▁সংখ্যার	-6024
▁su	-6025
▁কত	-6026
▁রাজ্যস	-6027
সংশোধন	-6028
▁অস্বীকৃতি	-6029
▁দায়েরকৃত	-6030
▁সরবরাহকারী	-6031
▁ঝাড়	-6032
▁গাইডলাইন	-6033
▁কর্মসূচির	-6034
▁প্রক্রিয়াজাত	-6035
▁স্বাস্থ্যসেবা	-6036
▁পর্যটন	-6037
▁এশ	-6038
রায়	-6039
ডেন্ট	-6040
▁বাঁধ	-6041
▁অধস্তন	-6042
▁কৃষকদের	-6043
▁চেন্নাই	-6044
▁শব্দটির	-6045
০৫	-6046
ধিক	-6047
▁ফেলবে	-6048
টাল	-6049
▁চার্জের	-6050
▁অধিগ্রহণকৃত	-6051
▁৪৫	-6052
শাসন	-6053
▁২০০০	-6054
▁ব্যাক	-6055
▁উপকারী	-6056
ত্তা	-6057
▁অস্তিত্বের	-6058
টস	-6059
▁জিও	-6060
▁যাচ্ছে	-6061
▁সন্দেহজনক	-6062
ীয়মান	-6063
▁দৈনিক	-6064
▁অসাধারণ	-6065
▁আবেদকরা	-6066
▁কার্যাদি	-6067
▁প্রশিক্ষণের	-6068
দক	-6069
▁বাজে	-6070
▁বেনিফি	-6071
▁লোকেরা	-6072
▁আসবে	-6073
▁বিমানব	-6074
▁আরবিট্র	-6075
▁ধারাবাহিকতা	-6076
প্লে	-6077
▁বিয়ের	-6078
▁সহযোগী	-6079
▁অষ্টম	-6080
▁চিকিৎ	-6081
▁প্রবর্তিত	-6082
▁ওই	-6083
বিএস	-6084
▁গোপাল	-6085
▁রায়ে	-6086
▁প্রয়োজনে	-6087
চি	-6088
▁শুরুতে	-6089
▁অন্তর্গত	-6090
▁নিশ্চয়তা	-6091
▁ফেব্রুয়ারি	-6092
কাম	-6093
ুতিক	-6094
▁পল্লী	-6095
▁সহজেই	-6096
▁চ্যানেল	-6097
▁শীর্ষস্থানীয়	-6098
60	-6099
amp	-6100
▁ছবি	-6101
▁প্রকৌশ	-6102
▁বিলুপ্ত	-6103
▁শিরোনামে	-6104
▁অতীত	-6105
▁ইনস্টল	-6106
▁তারিখটি	-6107
▁পরীক্ষাটি	-6108
বিড়	-6109
▁pro	-6110
▁উদ্বোধন	-6111
ara	-6112
শাল	-6113
প্রতি	-6114
▁শুধু	-6115
▁দৈর্ঘ	-6116
▁নির্যাতন	-6117
▁পুনর্বাসন	-6118
▁হাসপাতালের	-6119
দ্ম	-6120
▁রাত	-6121
▁সকলের	-6122
▁হিমাচল	-6123
▁সম্মানের	-6124
▁আলী	-6125
দারের	-6126
▁মহান	-6127
▁ইনপুট	-6128
ামাল	-6129
▁ইউটি	-6130
▁কাজে	-6131
▁বিকশিত	-6132
▁উপসংহারে	-6133
▁উত্পাদনের	-6134
▁অবকাঠামোগত	-6135
▁কর্তৃত্বের	-6136
▁অবসরপ্রাপ্ত	-6137
▁কর্মকর্তাকে	-6138
খানা	-6139
▁পূর্বা	-6140
▁বিক্রির	-6141
▁এন্টারপ্র	-6142
▁প্রশ্নবিদ্ধ	-6143
কিউ	-6144
▁এড়ানো	-6145
▁অধ্যক্ষ	-6146
তিষ্ঠানিক	-6147
▁কর্মসূচি	-6148
▁বাড়িওয়ালা	-6149
▁বৌ	-6150
▁মানবিক	-6151
▁as	-6152
চন্দ্র	-6153
▁প্রবৃদ্ধ	-6154
▁প্রসিকিউটরিক্স	-6155
▁অম	-6156
▁পোর্ট	-6157
▁বাহিনীর	-6158
▁প্রশ্নগুলি	-6159
াগ	-6160
িকৃত	-6161
▁জবাবে	-6162
ায়ুক্ত	-6163
▁বিদেশে	-6164
▁সমাপ্তি	-6165
▁মোকদ্দমা	-6166
▁শ্রদ্ধার	-6167
▁প্ল্যান্ট	-6168
▁বুদ্ধিমান	-6169
▁মোকদ্দমার	-6170
▁জিজ্ঞাসাবাদ	-6171
▁স্বাস্থ্যের	-6172
▁নই	-6173
বর্তন	-6174
▁অর্থনীতির	-6175
খে	-6176
▁খাঁ	-6177
মর্যা	-6178
স্ক্র	-6179
▁বন্য	-6180
▁অসম্প	-6181
▁আকর্ষণীয়	-6182
▁ক্ষেত্রটি	-6183
▁আধিকারিকের	-6184
▁টিএ	-6185
ঙ্কার	-6186
▁অসাম	-6187
▁যতদূর	-6188
▁কেরালা	-6189
▁রক্তের	-6190
এসটি	-6191
▁ফুট	-6192
▁উপলভ্য	-6193
▁বিতর্কটি	-6194
▁সংবিধানিক	-6195
▁লাইসেন্সের	-6196
ব্যা	-6197
▁করত	-6198
▁১৯৩	-6199
▁দয়া	-6200
কোত্তর	-6201
▁বিধানে	-6202
▁বিষয়ক	-6203
▁সুযোগটি	-6204
ানুগ	-6205
▁দত্ত	-6206
▁নিরাপ	-6207
▁কারখান	-6208
▁অনুষ্ঠান	-6209
▁গ্রহণযোগ্যতা	-6210
▁বর্জ্য	-6211
▁তির	-6212
▁বারবার	-6213
▁মহাপরি	-6214
▁ব্যতিক্রমী	-6215
টেন্যান্ট	-6216
▁প্রক্রিয়াতে	-6217
ag	-6218
্দি	-6219
িনাল	-6220
বিজ্ঞ	-6221
▁নথির	-6222
োয়া	-6223
▁ছাপ	-6224
▁অশোক	-6225
▁এনসিটি	-6226
▁অনুভূতি	-6227
▁বার্তায়	-6228
ায়ন	-6229
▁মিশন	-6230
▁প্রবাহিত	-6231
▁অবত	-6232
ৃত্বে	-6233
▁দারি	-6234
▁মেমন	-6235
▁স্কে	-6236
▁উপাধি	-6237
▁জেলার	-6238
▁বৈদ্যুতিক	-6239
▁ধারক	-6240
▁হিসাব	-6241
▁বেঙ্গাল	-6242
▁লেফ	-6243
বাছাই	-6244
বিরোধী	-6245
▁আগামী	-6246
▁প্রদর্শনী	-6247
বাসী	-6248
▁ত্রিশ	-6249
▁উচ্ছেদ	-6250
▁আইনানুগ	-6251
▁দারিদ্র	-6252
ফলের	-6253
▁দ্বিধা	-6254
ণগ্রহীতা	-6255
▁str	-6256
ধারিত	-6257
মিশ্র	-6258
▁উন্নীত	-6259
▁বিদ্যুতের	-6260
ould	-6261
▁কাট	-6262
▁উপদে	-6263
▁যাকে	-6264
▁শিরোনামের	-6265
▁সনাক্তকরণ	-6266
▁যুক্তরাষ্ট্রে	-6267
▁সরানো	-6268
▁ব্যবসায়ী	-6269
70	-6270
▁বীর	-6271
চ্ছুক	-6272
▁পার্স	-6273
মোকদ্দমার	-6274
▁কর্মসংস্থানের	-6275
ডিসি	-6276
▁এনডি	-6277
▁অনুপস্থিতি	-6278
▁শোষ	-6279
স্বামী	-6280
▁লক্ষ্ম	-6281
▁নেতৃত্বে	-6282
▁স্নাতকোত্তর	-6283
▁দেহ	-6284
▁যতটা	-6285
ভাবনার	-6286
▁রাজধান	-6287
▁প্রচেষ্ট	-6288
▁মাধ্যমিক	-6289
▁অসম্পূর্ণ	-6290
se	-6291
ংয়ের	-6292
▁আছেন	-6293
▁পোষণ	-6294
▁ফাউন্ড	-6295
নিরী	-6296
ভারি	-6297
▁সেকশন	-6298
▁স্বেচ্ছায়	-6299
যদি	-6300
নুমোদিত	-6301
▁সন্ধ্যা	-6302
▁অপারেশনাল	-6303
▁ম্যানুয়াল	-6304
মিশন	-6305
কৃষ্ণ	-6306
▁আংশিক	-6307
▁বিবিধ	-6308
▁মিলিত	-6309
র্স	-6310
▁১৯৯১	-6311
▁আবেদক	-6312
▁নিরাম	-6313
▁অনুসন্ধানে	-6314
▁অপ্রত্যক্ষ	-6315
ভিউ	-6316
ভাইস	-6317
▁এমও	-6318
▁শিথিল	-6319
পাক্ষিক	-6320
▁বিদগ্ধ	-6321
ধানের	-6322
▁অনুবাদ	-6323
▁নিচে	-6324
▁পর্	-6325
▁রীতি	-6326
▁বৌদ্ধ	-6327
▁যথার্থ	-6328
শোনা	-6329
▁আইনটিতে	-6330
▁অধিকারটি	-6331
▁জবানবন্দ	-6332
▁সাক্ষাত্	-6333
▁বিধানসভার	-6334
ত্যাশিত	-6335
▁দিকগুলি	-6336
▁ডিজিটালি	-6337
67	-6338
▁by	-6339
ওয়ের	-6340
▁অখণ্ড	-6341
স্থায়ী	-6342
▁প্রশ্নই	-6343
▁অগ্রগতির	-6344
▁কিলোমিটার	-6345
▁লেফটেন্যান্ট	-6346
;(	-6347
▁আম্র	-6348
▁পক্ষই	-6349
▁বহিরাগত	-6350
▁সংমিশ্র	-6351
▁প্রধানের	-6352
▁মীমাংসিত	-6353
▁শুক	-6354
▁ক্রেতা	-6355
▁কমিশনকে	-6356
▁পরিবেশের	-6357
▁প্রাতিষ্ঠানিক	-6358
চালক	-6359
্যতা	-6360
▁যুদ্ধ	-6361
▁শ্বাস	-6362
▁হয়েছি	-6363
▁অনুসরণে	-6364
,00	-6365
িশ্চ	-6366
▁এএস	-6367
▁ক্যাডার	-6368
▁সিকিউরিটি	-6369
▁টির	-6370
ছিলেন	-6371
বাহিক	-6372
▁বিপদ	-6373
▁অগ্রণী	-6374
▁দাতব্য	-6375
পুরে	-6376
▁চালক	-6377
ণদাতার	-6378
▁সামগ্রী	-6379
▁শিক্ষার্থী	-6380
▁সামগ্রিকভাবে	-6381
জম	-6382
▁r	-6383
িকান	-6384
▁ক্রেতাদের	-6385
▁সুবিধাভোগ	-6386
▁রাজ্যপালের	-6387
▁ততোধ	-6388
▁সুন্দর	-6389
▁স্থাবর	-6390
▁সম্পত্তিটি	-6391
▁আর্ট	-6392
সামাজিক	-6393
ুরে	-6394
▁বীজ	-6395
▁এমএম	-6396
▁খণ্ডের	-6397
▁কোথা	-6398
▁বন্ড	-6399
▁কারণটি	-6400
▁পুনঃস্থ	-6401
▁বিভাগকে	-6402
▁এলাহাবাদ	-6403
▁প্রত্যক্ষদর্শী	-6404
▁আসামীকে	-6405
▁গণতন্ত্রের	-6406
▁ব্যাখ্যাটি	-6407
▁ডকুমেন্টারি	-6408
াৎ	-6409
▁কাঠ	-6410
▁মৃতদেহ	-6411
▁মুহুর্তে	-6412
লির	-6413
▁অর	-6414
▁সাফ	-6415
▁ট্রা	-6416
▁বাক্স	-6417
▁বিপণন	-6418
▁ব্যাখ	-6419
▁ততোধিক	-6420
▁সোসাইটির	-6421
োহ	-6422
▁জাত	-6423
াপূর্ণ	-6424
▁শ্রেণিবিন্যাস	-6425
মাস	-6426
▁অপর	-6427
▁কানা	-6428
▁কংগ্রে	-6429
▁উপদেষ্টা	-6430
▁চার্জশিট	-6431
▁ক্ষতিকারক	-6432
ong	-6433
▁ওড়	-6434
িয়াস	-6435
▁শূন্যপ	-6436
▁আম্রপাল	-6437
ফিল	-6438
▁মেঘ	-6439
▁লন্ড	-6440
▁হারা	-6441
জাতীয়	-6442
▁অপব্যবহারের	-6443
▁#	-6444
দাল	-6445
▁বৈধতার	-6446
▁আইনজীবীর	-6447
▁কাগজপত্র	-6448
ঞ্ছ	-6449
বন্ত	-6450
োপাল	-6451
▁গার্ড	-6452
▁অসাংবিধানিক	-6453
▁অন্তর্ভুক্তি	-6454
িটি	-6455
ৃতা	-6456
বর্তিত	-6457
▁অবৈধভাবে	-6458
▁নিয়োগকর্তার	-6459
ুতে	-6460
ember	-6461
স্তুর	-6462
▁আলোক	-6463
▁ব্যাঙ্ক	-6464
▁কোম্পানী	-6465
▁প্রকৌশলী	-6466
খ্যাত	-6467
▁গণপরিষ	-6468
▁অপ্রত্যাশিত	-6469
▁তৃ	-6470
▁সেমি	-6471
▁পেলাম	-6472
▁ফেলতে	-6473
▁হেফাজত	-6474
▁সুযোগের	-6475
▁অফিসারকে	-6476
▁মন্ত্রনালয়	-6477
দেব	-6478
ল্ল	-6479
▁কল্প	-6480
▁গোলা	-6481
▁পিতাম	-6482
▁স্কিমটি	-6483
▁হু	-6484
▁বিলটি	-6485
▁জাস্টি	-6486
▁বাইরের	-6487
▁সমালোচনা	-6488
▁গুরুত্বের	-6489
▁প্রত্যাখ্যানের	-6490
▁গ্যারান্টিযুক্ত	-6491
েমা	-6492
▁গোপন	-6493
▁নিষেধ	-6494
▁পঞ্চাশ	-6495
▁বিশেষজ্ঞের	-6496
▁পুনর্নবীকরণ	-6497
▁ডিফ	-6498
▁যুক্তরাষ্ট্রের	-6499
▁৯৯	-6500
▁রেন্ডার	-6501
▁সন্তোষজনক	-6502
▁পদক্ষেপগুলি	-6503
▁(&	-6504
▁আপীল	-6505
▁দেশীয়	-6506
▁ন্যায্যতা	-6507
▁সভ্য	-6508
▁কন্যা	-6509
▁গোয়া	-6510
চ্ছেদের	-6511
▁সুনির্দিষ্টভাবে	-6512
তল	-6513
্রাল	-6514
▁নীল	-6515
▁যেসব	-6516
▁দেশগুলির	-6517
▁সমস্যাগুলি	-6518
▁সম্প্রসারণ	-6519
▁আত্মবিশ্বাস	-6520
▁উপাস	-6521
▁বোধগ	-6522
বিধিতে	-6523
▁ভুক্তভোগী	-6524
▁আদালতগুলির	-6525
বলী	-6526
▁মাত	-6527
মাণবিক	-6528
ওয়ার্ড	-6529
িয়েছেন	-6530
▁বিনিয়োগকারীদের	-6531
ec	-6532
বুজ	-6533
লাইট	-6534
▁দাগ	-6535
▁উঠতে	-6536
▁ইউরোপ	-6537
▁মূল্যে	-6538
িক্ষেত্র	-6539
▁উদ্ভাবনী	-6540
▁অননুমোদিত	-6541
স্ম	-6542
্রিজ	-6543
▁কোথাও	-6544
▁পড়ছে	-6545
▁যুগ্ম	-6546
▁জেনারেলের	-6547
▁বিচক্ষণতার	-6548
▁এটিতে	-6549
▁অশ্লীল	-6550
▁স্থগিতাদেশ	-6551
াদক	-6552
▁আধি	-6553
▁ইস্যুটি	-6554
▁পারফরম্যান্স	-6555
শাক	-6556
▁শত	-6557
▁ঘরে	-6558
জুড়ে	-6559
াত্মক	-6560
টিস	-6561
েটের	-6562
▁রিক	-6563
▁আকারের	-6564
▁মন্ত্রিপরিষদের	-6565
ামি	-6566
এসএল	-6567
▁অল্প	-6568
▁এটাও	-6569
েবল	-6570
nder	-6571
▁ঘুষ	-6572
▁টাডা	-6573
▁উত্পন্ন	-6574
▁পদমর্যা	-6575
▁জ্বালানী	-6576
জনিত	-6577
পত্য	-6578
▁কমিয়ে	-6579
▁ক্যাডারে	-6580
▁প্রকাশনা	-6581
▁শিক্ষাগত	-6582
ীশ	-6583
▁এসপি	-6584
▁একদিকে	-6585
ভান	-6586
্যব	-6587
▁দুঃ	-6588
▁মাঝে	-6589
▁বিতর্ককে	-6590
▁দ্র	-6591
াদারের	-6592
▁নিবিড়	-6593
▁কভার	-6594
▁স্বর্	-6595
▁দ্বিগুণ	-6596
▁বিধিবিধি	-6597
▁যাচাইয়ের	-6598
ুকে	-6599
এফসি	-6600
্যর্থ	-6601
▁আধিপত্য	-6602
▁জাতিসংঘের	-6603
ণদাতা	-6604
▁চেম্ব	-6605
▁ডব্লিউপি	-6606
▁বিলম্বিত	-6607
▁মন্দিরের	-6608
▁নিম্নোক্ত	-6609
▁ব্যবস্থায়	-6610
▁ফা	-6611
▁আইও	-6612
ারিশ্র	-6613
▁উপকার	-6614
▁পাসের	-6615
▁চৌধুরী	-6616
▁সাক্ষীকে	-6617
▁অঞ্চলগুলি	-6618
▁প্রতিরোধের	-6619
▁যাদব	-6620
▁সদস্যকে	-6621
▁ন্যাশনাল	-6622
▁পারমাণবিক	-6623
▁ইন্দ	-6624
▁টার্ন	-6625
▁অনর্থক	-6626
▁চাপানো	-6627
▁সাবধানতার	-6628
চরা	-6629
▁শুনে	-6630
▁১৯৯০	-6631
▁মেট্র	-6632
▁বিপর্য	-6633
ারিশ্রমিক	-6634
▁চূড়ান্তভাবে	-6635
▁মুস	-6636
প্রকাশ	-6637
▁বিশ্লেষণের	-6638
▁বাধ্যবাধকতার	-6639
pp	-6640
বো	-6641
দীর	-6642
▁আটকে	-6643
▁এমবি	-6644
োলিয়াম	-6645
▁পাথ	-6646
এসসিসি	-6647
াভাবিক	-6648
▁হেক্টর	-6649
▁সম্মানিত	-6650
ালো	-6651
আইসি	-6652
্টের	-6653
▁বোধগম্য	-6654
▁আচ্ছাদিত	-6655
চু	-6656
হু	-6657
বাল	-6658
রোগ	-6659
পুটি	-6660
▁তুলনা	-6661
▁উপাচার	-6662
▁পরামিতি	-6663
▁অনুচ্ছেদটি	-6664
▁৪২	-6665
▁পৌরসভা	-6666
▁জাহাজের	-6667
▁আনুপাতিক	-6668
▁প্রেরণের	-6669
▁প্রবর্তনের	-6670
▁বেঙ্গালুরু	-6671
▁মতামতটি	-6672
▁অনা	-6673
▁পরা	-6674
▁সুপ্রা	-6675
▁Section	-6676
▁যৌথভাবে	-6677
▁অর্থনীতি	-6678
▁সেক্ষেত্রে	-6679
▁রকম	-6680
▁বিলোপ	-6681
▁strong	-6682
▁ক্লায়েন্ট	-6683
▁অঞ্চলগুলিতে	-6684
▁ক্ষতিগ্রস্থদের	-6685
পতিকে	-6686
▁আগাম	-6687
▁দুবাই	-6688
▁বিয়ে	-6689
▁অপারেটর	-6690
min	-6691
এআইআর	-6692
▁উদ্ধৃতি	-6693
২০০৩	-6694
▁উপহার	-6695
▁সঙ্গে	-6696
▁আশ্রয়	-6697
▁শিখেছেন	-6698
▁জীবনযাত্র	-6699
▁পারিশ্রমিক	-6700
▁সফর	-6701
োবস্ত	-6702
▁প্রোফ	-6703
▁বিনিময়	-6704
▁অংশীদারিত্বের	-6705
▁দফা	-6706
▁হতাশ	-6707
▁১৯৫১	-6708
▁করায়	-6709
▁খুচরা	-6710
▁ডিজিটাল	-6711
▁বিবাহবি	-6712
▁ভাড়াটি	-6713
পিস	-6714
▁তাপ	-6715
▁যাঁ	-6716
▁সুখ	-6717
▁রচনা	-6718
▁রোগী	-6719
▁মেশিন	-6720
▁সিঙ্গ	-6721
▁ডিভাইস	-6722
সুর	-6723
ুকি	-6724
বাসের	-6725
▁সিংকে	-6726
▁অযোগ্যতা	-6727
ধ্ব	-6728
▁সৃ	-6729
▁বিনাম	-6730
▁দেখাতে	-6731
▁ফোরামের	-6732
▁বন্দোবস্ত	-6733
▁প্রকল্পগুলির	-6734
▁বংশ	-6735
▁কালো	-6736
▁বিলে	-6737
▁১৯৫৫	-6738
▁পাওনাদার	-6739
▁৮০	-6740
ঞ্চল	-6741
▁রান	-6742
▁১৯০৮	-6743
▁জনগণকে	-6744
▁গোলাবার	-6745
▁হোল্ডিং	-6746
▁ডেপুটি	-6747
▁সালিশী	-6748
▁ক্ষয়ক্ষতি	-6749
▁বিজ্ঞপ্তিটি	-6750
▁রাজা	-6751
▁বহনকারী	-6752
ইজ	-6753
▁৪৩	-6754
ৃত্ত	-6755
ূল্যে	-6756
▁অবতরণ	-6757
▁আহমেদ	-6758
▁শান্ত	-6759
▁অবমাননা	-6760
▁নথিগুলি	-6761
▁হস্তান্তরিত	-6762
▁পেট্রোলিয়াম	-6763
▁বৈশিষ্ট্যগুলি	-6764
্বিত	-6765
▁রেস	-6766
▁পেশার	-6767
▁মাইনিং	-6768
▁রাজস্বের	-6769
▁আত্মসমর্পণ	-6770
যা	-6771
িজ	-6772
নেট	-6773
▁হাতের	-6774
▁একত্রে	-6775
▁অপরাধীর	-6776
▁ট্রাইব্যুনালে	-6777
ur	-6778
▁দফায়	-6779
▁শিখানো	-6780
▁দ্ব্যর্থ	-6781
ভিং	-6782
▁--	-6783
▁মাঝারি	-6784
▁প্রস্তুতি	-6785
▁প্রান্তিক	-6786
থান	-6787
ফোন	-6788
▁অঙ্ক	-6789
▁এনজে	-6790
▁ষষ্ঠ	-6791
▁নিয়েছেন	-6792
▁মনোনিবেশ	-6793
▁বিনামূল্যে	-6794
টিন	-6795
ভূমি	-6796
▁কুম	-6797
পমেন্ট	-6798
▁ব্যুর	-6799
▁ঝুঁকির	-6800
▁সঞ্চয়	-6801
rt	-6802
দরা	-6803
ণ্ডিত	-6804
▁আকার	-6805
গ্রহণের	-6806
চ্ছিলেন	-6807
▁পরিদর্শক	-6808
▁স্থগিতের	-6809
▁সম্ভাবনার	-6810
ডির	-6811
▁ডোম	-6812
▁বৃহত	-6813
▁রিভিউ	-6814
অনুচ্ছেদ	-6815
▁রায়গুলি	-6816
▁বিধানাবলী	-6817
▁শুধুমাত্র	-6818
▁আরবিট্রেশন	-6819
▁কিস্ত	-6820
ud	-6821
কেশ	-6822
বিশেষ	-6823
▁ফলাফলের	-6824
২৮	-6825
▁সাপ	-6826
▁পাইপ	-6827
▁সাফল্যের	-6828
▁সন্তুষ্টির	-6829
▁উত্তরাধিকারী	-6830
▁ঘৃ	-6831
▁সন	-6832
এসএস	-6833
▁মেটা	-6834
▁অন্যরা	-6835
▁শ্রীমত	-6836
▁রিমান্ড	-6837
▁কর্মচারীকে	-6838
▁প্রত্যেককে	-6839
,000	-6840
ীগড়	-6841
▁বেস	-6842
▁পরিষদ	-6843
▁মন্ত্রণালয়	-6844
কেট	-6845
তিরে	-6846
▁বক্তৃতা	-6847
থি	-6848
▁ইস্প	-6849
▁সবুজ	-6850
▁চালান	-6851
▁তুলতে	-6852
▁প্রতী	-6853
▁বেঞ্চে	-6854
ালায়	-6855
▁প্লে	-6856
▁পোশাক	-6857
▁অনুপাতের	-6858
▁অস্বাভাবিক	-6859
▁দ্ব্যর্থহীন	-6860
২৫	-6861
বিহীন	-6862
▁পার্ক	-6863
স্বাধীন	-6864
▁প্রকল্পে	-6865
▁গোলাবারুদ	-6866
▁রায়গুলির	-6867
▁;	-6868
▁সংগীত	-6869
▁ইভেন্টে	-6870
▁গাড়িটি	-6871
▁বিদায়ী	-6872
▁বক্তব্যে	-6873
ওভার	-6874
▁মজুরির	-6875
▁শাসনের	-6876
▁পিটিশনের	-6877
▁অভিযোগকারীকে	-6878
▁ইসি	-6879
▁হলেই	-6880
▁স্পর্শ	-6881
▁ধন	-6882
োজিত	-6883
▁his	-6884
টিফিকেশন	-6885
▁অ্যামিক	-6886
▁তদন্তটি	-6887
▁পরিষদের	-6888
▁গ্ল	-6889
▁খাঁটি	-6890
▁ছাত্র	-6891
▁সঙ্গতি	-6892
হো	-6893
▁१६	-6894
▁আইবি	-6895
▁কার্যত	-6896
▁রাজধানী	-6897
▁উত্থাপনের	-6898
▁নিষ্ক্রিয়	-6899
▁ভুক্তভোগীর	-6900
▁পারফরম্যান্সের	-6901
▁মাত্রা	-6902
▁কারখানা	-6903
▁প্রক্রিয়ায়	-6904
ধনের	-6905
▁বাছাইয়ের	-6906
বিধার	-6907
▁রেলপথ	-6908
▁অঞ্চলটি	-6909
▁ইনস্টিটিউ	-6910
77	-6911
▁কৃত	-6912
▁দশম	-6913
▁যেন	-6914
▁প্রেরিত	-6915
▁মুক্তির	-6916
▁বিশদভাবে	-6917
▁চিন্তাভাবনা	-6918
২৪	-6919
▁থানা	-6920
▁মাদক	-6921
▁সাড়ে	-6922
▁ইচ্ছুক	-6923
▁ইস্পাত	-6924
▁কার্যকরী	-6925
▁সম্প্রচার	-6926
▁যৌগ	-6927
▁পদের	-6928
▁সিকিওরিটি	-6929
▁অরু	-6930
▁নাথ	-6931
▁সিএম	-6932
▁তোলার	-6933
▁নার্স	-6934
▁নবায়ন	-6935
▁পদগুলিতে	-6936
▁আমদানিকৃত	-6937
▁মেসার্সের	-6938
▁খ্রিস্টাব্দে	-6939
র্যাপ্ত	-6940
▁শর্তটি	-6941
▁ভর্তুকি	-6942
▁বাণিজ্যের	-6943
সচিব	-6944
▁ততক্ষণে	-6945
▁মুখোপাধ্যায়ের	-6946
▁কুর	-6947
▁প্রসার	-6948
▁শিখেছে	-6949
▁প্যানেল	-6950
▁বৈবাহিক	-6951
▁হায়দরা	-6952
▁অপ্রাসঙ্গিক	-6953
ওএস	-6954
মোহ	-6955
▁লভ	-6956
▁বিন	-6957
ন্টার	-6958
রিটির	-6959
▁হালকা	-6960
▁প্রশংস	-6961
▁সেনাবাহ	-6962
▁সংজ্ঞাটি	-6963
যোগে	-6964
▁চাক	-6965
▁পনের	-6966
▁সংগ্র	-6967
▁সাহিত	-6968
▁অবিশ্ব	-6969
▁অক্ষমতার	-6970
▁চরিত্রের	-6971
▁পার্থক্যের	-6972
▁ব্যাপকভাবে	-6973
▁এন্টারপ্রাইজ	-6974
▁was	-6975
▁মেগা	-6976
▁নোটিশে	-6977
▁পানীয়	-6978
▁দর্শনের	-6979
▁সংস্কারের	-6980
িলা	-6981
্মার	-6982
▁কলক	-6983
▁গৌর	-6984
জ্	-6985
▁করানো	-6986
▁নৈতিকতা	-6987
▁নৌ	-6988
▁বেসিক	-6989
▁ক্ষমতাপ্রাপ্ত	-6990
▁নদী	-6991
▁নেতা	-6992
াস্থ্য	-6993
▁পড়বে	-6994
রাষ্ট্রীয়	-6995
▁কর্মকাণ্ড	-6996
▁বিধানকে	-6997
মূল্যায়ন	-6998
▁উচ্ছেদের	-6999
▁for	-7000
▁রাখবে	-7001
▁আপিলটি	-7002
▁উপাদানের	-7003
▁মোকাবেলায়	-7004
▁উদ্দেশ্যগুলির	-7005
▁শঙ্কর	-7006
▁ইন্ডিয়ার	-7007
▁Ex	-7008
ড়িষ	-7009
▁বিঘ	-7010
▁রঙের	-7011
▁স্যার	-7012
র্গ	-7013
বিসি	-7014
ary	-7015
▁ক্রমা	-7016
▁চেকের	-7017
▁বাংলা	-7018
▁মুসলিম	-7019
▁অধিদপ্ত	-7020
▁ডাব্লুপি	-7021
▁প্রধানমন্ত্রীর	-7022
মোট	-7023
কিয়ে	-7024
▁পিটিশনটি	-7025
▁অংশীদারদের	-7026
নোল	-7027
অন্য	-7028
করিক	-7029
▁জৈব	-7030
▁ডাল	-7031
▁চিত্রিত	-7032
ুনের	-7033
▁অপহরণ	-7034
▁পৃথিব	-7035
▁নিয়ন্ত্রণে	-7036
সূত্র	-7037
▁সফ্ট	-7038
▁টেক্স	-7039
▁প্রজা	-7040
▁অমান্য	-7041
▁নিজেরাই	-7042
▁অসন্তুষ্ট	-7043
ড়ের	-7044
▁দশক	-7045
▁পাহ	-7046
াড়ের	-7047
▁যোগদান	-7048
▁পিছিয়ে	-7049
য়ী	-7050
▁পুরস্কার	-7051
গম	-7052
োড	-7053
েলিক	-7054
▁ফরেন	-7055
▁বোঝাতে	-7056
▁আন্তঃসং	-7057
▁ব্যতিরে	-7058
▁যেখানেই	-7059
▁সুপারিশগুলি	-7060
▁রহ	-7061
▁আসুন	-7062
▁গল্প	-7063
▁ফর্মের	-7064
নির্ধারিত	-7065
▁কৃষিক্ষেত্র	-7066
কাশন	-7067
ঞ্চার	-7068
▁ডেকে	-7069
েন্টাল	-7070
▁পদ্ধতিগত	-7071
▁histor	-7072
▁দৃষ্টিকোণ	-7073
▁যানবাহনের	-7074
ড়ির	-7075
▁বৈঠকে	-7076
▁করিয়ে	-7077
▁ইউনিটের	-7078
▁মাইক্রো	-7079
▁দায়িত্বের	-7080
▁বিচারপতিদের	-7081
▁ম্যাজিস্ট্রেটকে	-7082
প্য	-7083
▁রাতে	-7084
▁অনুষদ	-7085
▁কারিগ	-7086
▁সাহায	-7087
▁প্রতিমা	-7088
▁পঞ্চায়েতের	-7089
▁পুনর্বাসনের	-7090
গাঁ	-7091
▁৫৫	-7092
ার্স	-7093
▁জাগ	-7094
দ্দিন	-7095
▁আরআই	-7096
▁প্ল্যান	-7097
▁মতবাদের	-7098
▁আগুন	-7099
▁পর্ষ	-7100
▁ফার্	-7101
▁পরোয়	-7102
▁অগত্যা	-7103
▁জাস্টিস	-7104
▁লভ্যাংশ	-7105
▁সমর্থিত	-7106
▁লোকায়ুক্ত	-7107
▁সফ্টওয়্যার	-7108
▁করাও	-7109
▁খুশি	-7110
▁তালা	-7111
▁under	-7112
▁করতেন	-7113
▁বইয়ের	-7114
▁মনোভাব	-7115
▁স্পিকারের	-7116
▁প্রত্যেকের	-7117
ভারে	-7118
িয়েল	-7119
▁ড্রাগ	-7120
▁তিনজন	-7121
▁সেখান	-7122
▁প্রোভিসো	-7123
ট্ট	-7124
▁কমান	-7125
▁আশঙ্কা	-7126
▁চাকুরী	-7127
▁পরীক্ষ	-7128
▁ভারতকে	-7129
▁সমস্যাটি	-7130
▁বরাদ্দকৃত	-7131
▁1	-7132
ওয়েল	-7133
▁কেনা	-7134
▁ডাকা	-7135
▁তরুণ	-7136
▁পানির	-7137
▁অবজ্ঞার	-7138
হান	-7139
▁৪১	-7140
▁উঠবে	-7141
▁প্রভ	-7142
শৃঙ্খলা	-7143
▁সমষ্টি	-7144
জো	-7145
কালের	-7146
▁চাঁদ	-7147
▁রফতান	-7148
▁লেখার	-7149
চ্ছাকৃত	-7150
▁কমিশনে	-7151
▁চুক্তিগুলি	-7152
▁মন্ত্রিপরিষদ	-7153
la	-7154
▁an	-7155
▁দ্য	-7156
▁মঙ্গল	-7157
▁লিজের	-7158
প্লেক্স	-7159
▁এনজেএসি	-7160
▁রাস্তার	-7161
প্রাণিত	-7162
▁কন্ট্র	-7163
▁পটভূমি	-7164
▁প্রমাণকে	-7165
্যাড	-7166
োলনের	-7167
▁চক্র	-7168
▁পরিষেবাদ	-7169
▁অনুষ্ঠানের	-7170
▁প্রশংসনীয়	-7171
▁দ্বিপাক্ষিক	-7172
;-	-7173
vii	-7174
মেড	-7175
সিভ	-7176
▁খে	-7177
্যারি	-7178
▁অত্যা	-7179
▁সময়সী	-7180
▁শর্তগুলির	-7181
বিত	-7182
র্ভ	-7183
▁কমই	-7184
▁para	-7185
▁সূচক	-7186
▁আকরিক	-7187
▁একাদশ	-7188
▁নেহের	-7189
▁পরোয়ানা	-7190
▁ব্যতিরেকে	-7191
▁দীর্ঘমেয়াদী	-7192
▁প্রতিবন্ধকতা	-7193
কন	-7194
ear	-7195
▁মস	-7196
▁মুর	-7197
▁উড়িষ	-7198
▁পারতেন	-7199
▁সময়সূচ	-7200
▁উল	-7201
কোনও	-7202
termin	-7203
ব্যক্তি	-7204
▁গ্রন্থ	-7205
▁ভাইয়ের	-7206
▁অভিব্যক্তির	-7207
▁বন্ধুত্বপূর্ণ	-7208
ভুত	-7209
▁কাঁ	-7210
▁আইডি	-7211
▁অনিশ্চ	-7212
▁অবহেলার	-7213
▁উদ্বৃত্ত	-7214
▁সময়সীমার	-7215
কলা	-7216
সিআর	-7217
২০০৫	-7218
▁এরও	-7219
▁করু	-7220
আসামি	-7221
▁সেন্টি	-7222
▁উপজাতির	-7223
▁এমএসএমই	-7224
▁সতর্কতা	-7225
▁determin	-7226
▁কার্যালয়	-7227
▁প্রার্থীকে	-7228
য়নে	-7229
▁পরম	-7230
▁ডিজি	-7231
▁দফার	-7232
্যাক্ট	-7233
ন্যাসের	-7234
▁অভিভাবক	-7235
জর	-7236
ন্দা	-7237
▁কৃষক	-7238
▁জনকে	-7239
র্ষণের	-7240
েক্ষাপ	-7241
▁পলিসি	-7242
▁সঞ্জয়	-7243
▁বিস্তৃতভাবে	-7244
োপলি	-7245
▁নবম	-7246
কর্মী	-7247
খণ্ডের	-7248
▁অ্যামিকাস	-7249
▁প্রেক্ষাপ	-7250
▁বিধিমালার	-7251
▁দুর	-7252
▁প্রয়াত	-7253
▁বেনিফিট	-7254
▁উপাচার্য	-7255
▁সরবরাহিত	-7256
গ্রহণযোগ্য	-7257
▁সেন্ট্রাল	-7258
গি	-7259
এনএল	-7260
▁লিঙ্ক	-7261
▁কাছাকা	-7262
71	-7263
দন্ত	-7264
▁কাশ্মীর	-7265
উত্তরদাতা	-7266
▁কাছাকাছি	-7267
▁দিল্লিতে	-7268
▁সার্ভিসেস	-7269
▁স্টা	-7270
▁শর্তের	-7271
▁ক্রমাগত	-7272
▁ডিরেক্টর	-7273
61	-7274
নেস	-7275
ধানে	-7276
▁দের	-7277
▁নীর	-7278
▁চলবে	-7279
▁সিআই	-7280
▁আমেরিকান	-7281
▁সতর্কতার	-7282
▁সুপারিশের	-7283
▁পুনর্নবীকরণের	-7284
od	-7285
▁wh	-7286
পিএফ	-7287
বছরের	-7288
য়ারে	-7289
▁নদীর	-7290
▁ভ্যান	-7291
্যান্সেল	-7292
▁অসঙ্গতি	-7293
▁সনাক্তকরণের	-7294
প্প	-7295
াহ্য	-7296
সম্পদ	-7297
▁এনআইটি	-7298
▁গবেষণার	-7299
▁রফতানির	-7300
▁সচেতনতা	-7301
▁প্রতিবেদ	-7302
▁বিষয়টিও	-7303
▁সংশোধনের	-7304
▁আলাদাভাবে	-7305
▁পিতামাতার	-7306
▁বৈচিত্র্য	-7307
▁কার্যালয়ে	-7308
tc	-7309
▁সুস্থ	-7310
▁সোনার	-7311
স্কারের	-7312
▁মেটাতে	-7313
▁সম্প্রতি	-7314
▁অনুপ্রাণিত	-7315
ity	-7316
গ্ন	-7317
ভের	-7318
োপরি	-7319
▁বিম	-7320
▁মাহ	-7321
▁একযোগে	-7322
▁সংকীর্ণ	-7323
▁বরখাস্তের	-7324
ওসি	-7325
▁ডাই	-7326
▁সভাপতির	-7327
▁অপরাধগুলি	-7328
▁ফলাফলগুলি	-7329
▁ম্যাট্রিক	-7330
▁আধিকারিকদের	-7331
বহুল	-7332
▁অদ্	-7333
▁গ্র্যা	-7334
▁স্নাতক	-7335
▁বস্তুগত	-7336
▁পাসপোর্ট	-7337
▁ক্যাডারের	-7338
▁নোটিফিকেশন	-7339
এসএ	-7340
েম্ব	-7341
ঙ্গার	-7342
▁দুঃখ	-7343
▁ওড়িশ	-7344
▁দুলের	-7345
বার্ষিক	-7346
োক্তাদের	-7347
▁সর্বোপরি	-7348
▁রাজ্যগুলি	-7349
ফ্র	-7350
টারের	-7351
▁আরডি	-7352
▁মহাস	-7353
▁ক্লাব	-7354
▁দারিদ্র্য	-7355
om	-7356
২৩	-7357
ভারের	-7358
▁থেকেও	-7359
▁বন্দী	-7360
▁মিনিটে	-7361
▁স্থিতি	-7362
▁নোটিশটি	-7363
▁সাক্ষাত	-7364
▁প্রতিবাদ	-7365
তো	-7366
ধারীর	-7367
▁১৯৮৫	-7368
▁সুপরি	-7369
ক্ষ্ম	-7370
▁স্টোরে	-7371
▁আপিলগুলির	-7372
▁ব্যবহারিক	-7373
▁ব্যাঙ্কের	-7374
▁বিজ্ঞপ্তিতে	-7375
▁ওয়ে	-7376
▁প্রকার	-7377
▁আন্দোলন	-7378
▁অভিজ্ঞতার	-7379
▁আইনশাস্ত্র	-7380
▁স্থায়ীভাবে	-7381
;&#	-7382
▁চু	-7383
আরএস	-7384
ৃহীত	-7385
ম্যের	-7386
সিটিই	-7387
সিসির	-7388
▁বিএস	-7389
▁সহ্য	-7390
▁প্রাক্	-7391
▁মর্যাদ	-7392
▁আমদানির	-7393
▁হিসাবেও	-7394
ঘ্র	-7395
আদাল	-7396
২০০২	-7397
▁নির্ম	-7398
▁সহযোগিতার	-7399
▁অগ্রহণযোগ্য	-7400
ত্রু	-7401
▁চির	-7402
▁পেম	-7403
ডব্লু	-7404
▁প্রমাণে	-7405
▁অগ্রাহ্য	-7406
▁পর্যায়ের	-7407
োরের	-7408
▁pay	-7409
▁ডিউ	-7410
▁কয়েকজন	-7411
▁প্ল্যাট	-7412
▁সম্মেলনে	-7413
▁শিক্ষাবর্ষের	-7414
ণদান	-7415
হিনী	-7416
▁অনিল	-7417
▁ইংরেজি	-7418
প্রাক্তন	-7419
▁নজরদারি	-7420
িকর	-7421
শায়	-7422
▁ভিত	-7423
▁মুখের	-7424
▁অন্যটি	-7425
▁পারেননি	-7426
▁সহিংসতা	-7427
▁কনস্টেবল	-7428
▁দলগুলিকে	-7429
্টির	-7430
▁পিস্ত	-7431
▁অদ্ভুত	-7432
▁সুপরিচিত	-7433
▁নেটওয়ার্	-7434
৫৫	-7435
এমএ	-7436
প্তি	-7437
▁উঠে	-7438
জ্জনক	-7439
▁জনপ্র	-7440
▁গাড়িতে	-7441
▁সুবিধাটি	-7442
▁অযোগ্যতার	-7443
▁বিদ্যালয়	-7444
▁অনিচ্ছাকৃত	-7445
▁বিধিগুলিতে	-7446
age	-7447
▁etc	-7448
▁আফ্র	-7449
▁পরেই	-7450
▁পার্টি	-7451
▁ট্র্যাক	-7452
দেখ	-7453
োঁজ	-7454
▁un	-7455
ঘ্রই	-7456
ধারী	-7457
▁উর্	-7458
েন্টি	-7459
▁উকিল	-7460
▁ব্যথা	-7461
▁সাজার	-7462
▁পুষ্টি	-7463
▁চার্টার	-7464
▁রেকর্ডিং	-7465
▁এক্সপ্রেস	-7466
িনা	-7467
▁শোক	-7468
▁আরটি	-7469
▁উন্নয়নে	-7470
▁জীবনযাত্রার	-7471
▁ইউজিসি	-7472
▁বাইরেও	-7473
▁ফার্মের	-7474
▁বেরিয়ে	-7475
▁অনুপ্রের	-7476
▁কমপ্লেক্স	-7477
▁ব্যালেন্স	-7478
ঘর	-7479
মহ	-7480
▁Cr	-7481
▁প্রভি	-7482
▁গুণমান	-7483
▁historic	-7484
▁জবানবন্দিতে	-7485
।&	-7486
াপ্প	-7487
▁পাত	-7488
▁জীবনে	-7489
▁ইংরেজী	-7490
▁রেড্ডি	-7491
▁বীমাকারীর	-7492
▁প্রাপ্তবয়	-7493
ak	-7494
বীর	-7495
১৯৮	-7496
ময়ে	-7497
▁তথা	-7498
▁স্ল	-7499
▁খ্যা	-7500
▁পার্টির	-7501
▁হয়রানি	-7502
▁রেকর্ডটি	-7503
▁ত্রুটিগুলি	-7504
▁প্রিমিয়াম	-7505
▁ট্রাইব্যুনালকে	-7506
99	-7507
শালী	-7508
খেলাপ	-7509
▁ঝুঁক	-7510
্যায়িত	-7511
▁জেলায়	-7512
ুলার	-7513
কৃতির	-7514
▁১৯৫০	-7515
▁প্রেম	-7516
▁ভেঙ্ক	-7517
▁গর্ভপাত	-7518
▁ট্যাক্সের	-7519
▁নির্যাতনের	-7520
▁পঠ	-7521
ণখেলাপ	-7522
িয়ামের	-7523
▁জলবায়	-7524
▁বৃষ্টি	-7525
▁আকাঙ্ক্ষা	-7526
▁প্রশ্নগুলির	-7527
▁সঙ্গতিপূর্ণ	-7528
▁সদর	-7529
▁দিলে	-7530
ক্ষরিক	-7531
▁বাবার	-7532
▁করযোগ্য	-7533
▁নিয়েছি	-7534
▁পালিয়ে	-7535
▁আপিলকারীটির	-7536
▁সংস্থাগুলিকে	-7537
ate	-7538
ere	-7539
ith	-7540
সমান	-7541
▁গেছেন	-7542
▁সংগৃহীত	-7543
▁প্রাঙ্গনে	-7544
বেল	-7545
শ্বিক	-7546
▁আসেন	-7547
▁ডিলার	-7548
▁প্যান	-7549
▁রোগীদের	-7550
▁জনসাধারণ	-7551
▁সমৃদ্ধির	-7552
▁পরিস্থিতিগুলির	-7553
দল	-7554
▁হৃ	-7555
▁কাপ	-7556
বৃদ্ধ	-7557
▁ছয়টি	-7558
▁সর্বা	-7559
ড্র	-7560
িসের	-7561
▁উৎপ	-7562
▁কোষ	-7563
াইডিং	-7564
▁নয়াদিল	-7565
সংক্ষিপ্ত	-7566
▁সম্মেলনের	-7567
▁বিমানবন্দর	-7568
ain	-7569
▁ঘটতে	-7570
▁সিএস	-7571
▁উড়িষ্যা	-7572
▁মেট্রোপলি	-7573
২০১৮	-7574
▁কিং	-7575
কুমার	-7576
▁অসম্ম	-7577
▁অবৈধতা	-7578
▁সামরিক	-7579
▁সিনেমা	-7580
ve	-7581
৯৪	-7582
▁আঙ	-7583
▁লু	-7584
▁৫১	-7585
▁গোল	-7586
▁ভূগ	-7587
▁রবি	-7588
▁১৯৪৪	-7589
▁would	-7590
▁কুষ্ঠ	-7591
▁রোগের	-7592
▁জমিটির	-7593
আপিলকারী	-7594
▁অপ্রতুল	-7595
▁ইউরোপীয়	-7596
▁প্রতিবেশ	-7597
▁স্বচ্ছতা	-7598
▁রায়গুলিতে	-7599
ess	-7600
ইসি	-7601
নামা	-7602
মিত্তিক	-7603
▁শনাক্ত	-7604
▁অপরাধকে	-7605
▁হ্রাসের	-7606
▁বিধিটি	-7607
▁প্যাকেজ	-7608
য়েন	-7609
▁আইআর	-7610
▁ছেলের	-7611
▁ভিতরে	-7612
▁পিস্তল	-7613
▁হাইলাইট	-7614
▁বৈষম্যের	-7615
▁প্রতিস্থাপনের	-7616
োপকথ	-7617
সাধারণ	-7618
ায়নের	-7619
▁টেস্ট	-7620
▁মাথার	-7621
ন্ত্রিত	-7622
▁সিমেন্ট	-7623
তাত্ত্বিক	-7624
▁Act	-7625
ামুটি	-7626
▁loans	-7627
▁ধর্ষণের	-7628
▁বিপজ্জনক	-7629
▁স্বাস্থ্যকর	-7630
িমা	-7631
▁এএ	-7632
▁ইসল	-7633
▁রমেশ	-7634
▁কামনা	-7635
▁জন্যই	-7636
▁যৌতুক	-7637
▁আয়োজন	-7638
▁পূর্বসূরি	-7639
▁ইন্ডাস্ট্রিজ	-7640
াসে	-7641
্দিরা	-7642
▁কথোপকথ	-7643
▁প্রিভি	-7644
▁বৈশ্বিক	-7645
▁সংবিধির	-7646
▁গভর্নরের	-7647
▁উপসংহারটি	-7648
ানার	-7649
২০১২	-7650
▁লাখ	-7651
▁গ্যা	-7652
▁দ্বীপ	-7653
কিংয়ের	-7654
▁ভোক্তা	-7655
▁তদারকির	-7656
▁উপাদানটি	-7657
▁মামলাটিতে	-7658
▁সম্মিলিতভাবে	-7659
ুকু	-7660
▁শৈ	-7661
▁মণি	-7662
▁রয়ে	-7663
▁ক্যাপ	-7664
▁রায়তে	-7665
▁স্টোরেজ	-7666
▁মোটামুটি	-7667
▁হয়রানির	-7668
▁প্রক্রিয়াকরণ	-7669
্ফ	-7670
২০১৫	-7671
মনীয়	-7672
শাসনের	-7673
▁কাউকে	-7674
▁পাচার	-7675
▁পাবেন	-7676
▁শত্রু	-7677
▁মেরামত	-7678
▁আক্ষরিক	-7679
▁পছন্দের	-7680
▁নৈমিত্তিক	-7681
▁বিবেচনাধীন	-7682
আরএ	-7683
িনিং	-7684
াধিকারের	-7685
বতী	-7686
এসপি	-7687
▁সেশন	-7688
▁ফেরতের	-7689
▁লিখেছেন	-7690
পী	-7691
াজের	-7692
ওয়াট	-7693
▁গৌরব	-7694
▁সেবিআই	-7695
▁আম্রপালী	-7696
▁দুর্বলতা	-7697
▁অপর্যাপ্ত	-7698
▁বিক্রেতার	-7699
▁१७	-7700
▁অবাধ	-7701
▁স্থল	-7702
▁মৃতকে	-7703
▁পৌঁছাতে	-7704
▁ল্যান্ড	-7705
▁জনপ্রিয়	-7706
র্টেম	-7707
▁রেজুল	-7708
▁সংগঠিত	-7709
▁উন্নতির	-7710
▁মতামতকে	-7711
▁অপরাধীদের	-7712
▁পণ্যগুলিতে	-7713
রন	-7714
▁ভিক	-7715
▁মানি	-7716
▁সভার	-7717
▁স্টি	-7718
▁ব্যাংকে	-7719
▁কোম্পানি	-7720
▁রেকর্ডকৃত	-7721
un	-7722
▁আগত	-7723
▁ইলেক	-7724
▁সবাই	-7725
্রামের	-7726
▁সীমান্ত	-7727
▁আশেপাশের	-7728
▁[[	-7729
▁চত্ব	-7730
▁বেড়	-7731
▁একজনকে	-7732
▁দূরত্ব	-7733
▁শীঘ্রই	-7734
▁পরিচালন	-7735
▁পোস্টের	-7736
▁কারাদণ্ডে	-7737
▁আন্তঃসংযোগ	-7738
et	-7739
পের	-7740
▁ডিপো	-7741
▁স্ট্র	-7742
▁উত্তরা	-7743
▁সংশ্লেষ	-7744
▁অপ্রত্যক্ষভাবে	-7745
pt	-7746
ফট	-7747
▁ভুট	-7748
▁কোটা	-7749
▁পিএম	-7750
গ্রস্ত	-7751
▁প্রসঙ্গ	-7752
▁রিজার্ভেশন	-7753
▁বাসিন্দাদের	-7754
▁যুগে	-7755
▁ত্রাণের	-7756
▁পদচ্যুত	-7757
▁সদস্যপদ	-7758
▁জানুয়ার	-7759
▁যথার্থতা	-7760
▁অভ্যন্তরে	-7761
▁প্রতিষ্ঠানগুলি	-7762
লাত	-7763
াইট	-7764
বিচারক	-7765
▁অরুণা	-7766
▁পাটনা	-7767
▁যৌগিক	-7768
▁সাথেও	-7769
▁সুপারিন	-7770
▁এমবিবিএস	-7771
▁পূর্বাভাস	-7772
▁পরিষেবাগুলির	-7773
▁y	-7774
ঠার	-7775
ডাল	-7776
ফেল	-7777
পাশে	-7778
▁শ্ব	-7779
▁৫০০	-7780
▁নিকা	-7781
দ্রব্য	-7782
▁সংগঠন	-7783
▁অনাবৃত	-7784
▁ব্যুরো	-7785
▁রয়েছি	-7786
দ্বিতীয়	-7787
▁মামলাতে	-7788
▁রয়্যালটি	-7789
▁মেট্রোপলিটন	-7790
এফটি	-7791
ডিএস	-7792
বাহিত	-7793
▁অনুভূত	-7794
▁অ্যালকো	-7795
▁টেলিফোন	-7796
▁উদ্ভাবনের	-7797
▁determination	-7798
চন	-7799
নাই	-7800
টিয়ে	-7801
দেখুন	-7802
চ্চিত্র	-7803
▁কুমারের	-7804
▁কোর্সের	-7805
ণগ্রহীতার	-7806
▁বাকস্বাধীন	-7807
বিট	-7808
সংখ	-7809
▁xx	-7810
▁[]]	-7811
▁অবন	-7812
▁ফুল	-7813
▁লাশ	-7814
▁বলেও	-7815
▁জানার	-7816
▁আইনটিকে	-7817
▁মনোনয়ন	-7818
▁মোটরসাই	-7819
▁বাধ্যতামূলকভাবে	-7820
ll	-7821
▁হৃদ	-7822
র্ভস্থ	-7823
সম্পর্ক	-7824
▁আদালতও	-7825
▁গ্রহণে	-7826
▁ফ্যাক্ট	-7827
▁শূন্যপদের	-7828
োরা	-7829
▁খণ্ডন	-7830
▁সহানু	-7831
▁সাহায্য	-7832
▁প্রতারণা	-7833
▁প্রাপ্যতা	-7834
▁ক্ষমতাগুলি	-7835
জমি	-7836
▁নেবেন	-7837
▁ভিজিল	-7838
▁সন্তান	-7839
▁এখতিয়ারে	-7840
▁চলচ্চিত্র	-7841
▁মদ	-7842
▁শিখে	-7843
▁পাশের	-7844
▁বর্জন	-7845
▁সেক্ট	-7846
▁সমীচীন	-7847
▁হুমকির	-7848
▁ফরেনসিক	-7849
বাক	-7850
▁ভূষণ	-7851
সংস্থা	-7852
▁অবকাশ	-7853
▁স্টিল	-7854
▁রিয়েল	-7855
▁স্বাগত	-7856
▁জায়গাটি	-7857
▁অনুপযুক্ত	-7858
▁এখতিয়ারকে	-7859
দাম	-7860
▁পদটি	-7861
▁শোষণ	-7862
▁একজনের	-7863
▁বিভাগগুলি	-7864
▁পদ্ধতিগুলি	-7865
▁রাশ	-7866
▁বয়সে	-7867
▁নামকরণ	-7868
▁হলফনামার	-7869
▁নিকটবর্তী	-7870
▁পদক্ষেপটি	-7871
▁বর্তমানের	-7872
▁পুনঃস্থাপনের	-7873
হক	-7874
বছর	-7875
শিল্প	-7876
্যাত্ম	-7877
▁সাশ্র	-7878
▁প্রস্থান	-7879
▁পদমর্যাদার	-7880
▁ওম	-7881
িমের	-7882
▁ভাব	-7883
▁সিনহা	-7884
▁সেগুলির	-7885
▁বিচারকগণ	-7886
▁প্রজ্ঞাপনে	-7887
▁নয়াদিল্লিতে	-7888
টরি	-7889
িরি	-7890
ঘন্য	-7891
িলের	-7892
▁ধারনা	-7893
▁অনুরোধের	-7894
▁তথ্যগুলির	-7895
▁প্রার্থনার	-7896
▁বিধানগুলিতে	-7897
উদ	-7898
িক্স	-7899
▁হাঁ	-7900
▁পুনে	-7901
▁কারখানার	-7902
▁খনিজগুলির	-7903
▁জনস্বার্থের	-7904
্যুতি	-7905
▁সাথেই	-7906
▁পণ্ডিত	-7907
▁তৃতীয়ত	-7908
▁নিয়মটি	-7909
▁ম্যানেজার	-7910
▁উদ্দেশ্যকে	-7911
▁উত্তরপ্রদেশ	-7912
▁কোং	-7913
যাত্র	-7914
▁চালা	-7915
▁কথাটি	-7916
▁বিধির	-7917
▁মোটেই	-7918
▁জলবায়ু	-7919
▁মানুষকে	-7920
তিহ্যবাহী	-7921
▁ওয়েবসাইটে	-7922
▁ব্যাখ্যায়	-7923
িপশন	-7924
▁স্ফ	-7925
▁কেউই	-7926
▁ছদ্ম	-7927
কর্মের	-7928
▁টিকিট	-7929
▁ল্যাব	-7930
▁কৌশলগত	-7931
▁পড়াশোনা	-7932
▁ঘটনাগুলির	-7933
▁মধ্যবর্তী	-7934
▁নিবন্ধকরণের	-7935
▁মুম্বাইয়ের	-7936
▁প্রমাণীকরণের	-7937
টাইল	-7938
ানিতে	-7939
▁চণ্ড	-7940
ণামূলক	-7941
▁বিধবা	-7942
▁মার্জ	-7943
▁সিলিং	-7944
ওয়ালার	-7945
▁অনুকূল	-7946
▁জন্মের	-7947
▁প্লটের	-7948
▁বিরক্ত	-7949
▁মায়ের	-7950
▁জমিগুলি	-7951
▁বিতরণের	-7952
▁প্রভিডেন্ট	-7953
ডু	-7954
rom	-7955
লোক	-7956
ন্ডা	-7957
▁আলি	-7958
▁স্টেক	-7959
▁দেখেছি	-7960
▁অ্যান্টি	-7961
▁আধ্যাত্ম	-7962
▁উদ্দেশ্যগুলি	-7963
ডিপি	-7964
শর্ত	-7965
▁নিম	-7966
▁অবগত	-7967
▁জঘন্য	-7968
▁উভয়কেই	-7969
▁বিশ্বজুড়ে	-7970
▁আন্তঃরাষ্ট্রীয়	-7971
খা	-7972
দাস	-7973
াগার	-7974
▁শস্য	-7975
▁ব্যয়ে	-7976
▁লর্ডশিপ	-7977
▁সাহায্যে	-7978
▁নির্বাচনে	-7979
▁পরামর্শদাতার	-7980
ow	-7981
▁আলোচিত	-7982
▁ভূগর্ভস্থ	-7983
...।	-7984
াদির	-7985
▁শোনার	-7986
▁ব্যস্ত	-7987
▁শোষণের	-7988
▁ইন্দিরা	-7989
▁টিকিয়ে	-7990
▁চ্যান্সেল	-7991
▁প্রেক্ষাপটে	-7992
।।	-7993
আইপি	-7994
▁ইস্ট	-7995
▁বনামের	-7996
▁যাত্রী	-7997
▁রাখবেন	-7998
▁হারাতে	-7999
▁ট্রেডিং	-8000
▁বোর্ডকে	-8001
▁সমকালীন	-8002
▁পরিবহনের	-8003
▁উপকরণগুলি	-8004
উন্ড	-8005
▁ত্ব	-8006
▁থাম	-8007
▁বিলি	-8008
▁নিকটে	-8009
▁সহজাত	-8010
▁ফাউন্ডেশন	-8011
যান	-8012
▁মও	-8013
▁শীত	-8014
▁হিম	-8015
গঠনের	-8016
াস্তব	-8017
▁নিরব	-8018
▁মেহতা	-8019
▁ইচ্ছার	-8020
▁রিকভারি	-8021
▁পরিবারকে	-8022
▁প্রত্যেকে	-8023
▁পরিষেবাদির	-8024
▁ব্যবস্থাটি	-8025
▁প্রতিস্থাপিত	-8026
দেশে	-8027
ায়া	-8028
▁সৌর	-8029
▁পাথর	-8030
▁মিনিট	-8031
▁উচ্চার	-8032
▁সময়টি	-8033
▁কাউন্টার	-8034
▁পুরুষদের	-8035
▁সিকিউরিটিজ	-8036
▁স্বতন্ত্রভাবে	-8037
ান্ট	-8038
▁দরজা	-8039
▁দস্ত	-8040
▁হ্যা	-8041
▁থানার	-8042
▁দেহের	-8043
▁ছদ্মবেশ	-8044
▁প্রকৌশল	-8045
▁মন্দিরে	-8046
▁রেকর্ডগুলি	-8047
▁প্রদানযোগ্য	-8048
কাজ	-8049
েনা	-8050
লাতক	-8051
▁আদি	-8052
▁কৌর	-8053
▁দীপ	-8054
োয়ার	-8055
▁আঁকতে	-8056
▁টার্ম	-8057
▁লেটার	-8058
▁শেষের	-8059
▁গোষ্ঠীর	-8060
▁বক্তব্যের	-8061
▁প্রচেষ্টার	-8062
▁টেব	-8063
▁পশু	-8064
▁cover	-8065
▁জার্ম	-8066
▁প্রসে	-8067
▁লিপ্ত	-8068
পক্ষীয়	-8069
▁বন্ধকী	-8070
▁সমাবেশ	-8071
▁সাবস্ক্র	-8072
▁সার্বভৌম	-8073
▁তৎ	-8074
সোর্	-8075
▁তুলেছে	-8076
▁ওয়ারেন্ট	-8077
টিসি	-8078
▁গুল	-8079
▁চরম	-8080
▁শাক	-8081
▁অজানা	-8082
▁অখণ্ডতা	-8083
▁প্রশমিত	-8084
▁বিচ্যুত	-8085
▁বিশেষজ্ঞদের	-8086
▁দাঁড়িয়েছিল	-8087
ab	-8088
িলি	-8089
▁১৯৮৯	-8090
দারদের	-8091
▁বিদ্র	-8092
▁ম্যাগ	-8093
▁রাজীব	-8094
েক্টরের	-8095
▁গর্ভাব	-8096
▁ইতিহাসের	-8097
▁নির্ধারণে	-8098
▁সুবিধাজনক	-8099
▁উল্লেখযোগ্যভাবে	-8100
▁মোড	-8101
আইডিএ	-8102
▁from	-8103
▁মাথা	-8104
▁বিরাজ	-8105
▁অভ্যাস	-8106
▁আহমেদা	-8107
▁স্বাক্ষ	-8108
▁কার্যনির্বাহ	-8109
বণ	-8110
▁ক্য	-8111
নিক্স	-8112
▁অক্স	-8113
▁মসজি	-8114
▁সুরেশ	-8115
▁সংক্রমণ	-8116
▁ঝাড়খণ্ড	-8117
পৃ	-8118
▁৫২	-8119
অপরাধ	-8120
াত্মা	-8121
▁আম্বে	-8122
▁উইলের	-8123
▁ক্যার	-8124
▁ফেলার	-8125
▁উত্সর্গ	-8126
▁জায়গার	-8127
▁প্রবন্ধ	-8128
▁বিল্ডার	-8129
ment	-8130
▁মতোই	-8131
▁দেখেন	-8132
▁সামনের	-8133
########	-8134
▁গ্রাহকের	-8135
এলটি	-8136
▁সিও	-8137
▁১৯৫২	-8138
▁ব্যভি	-8139
▁অর্জনে	-8140
▁শ্রমের	-8141
▁মেয়াদী	-8142
▁পরিস্থিতিগত	-8143
▁প্রতিরোধমূলক	-8144
▁অভিব্যক্তিটির	-8145
ri	-8146
ম্বই	-8147
▁খাম	-8148
কলাপে	-8149
▁itor	-8150
▁চাইতে	-8151
▁ডায়ের	-8152
▁শরীরের	-8153
▁দুর্নীতির	-8154
▁রাষ্ট্রকে	-8155
▁আধ্যাত্মিক	-8156
চাঁ	-8157
ফতরের	-8158
▁উত্সব	-8159
▁রেডিও	-8160
▁শাখার	-8161
▁পেমেন্ট	-8162
▁অনুশীলনে	-8163
▁অধ্যাদেশের	-8164
▁নয়াদিল্লির	-8165
▁প্রস্তাবগুলি	-8166
▁সংক্ষিপ্তভাবে	-8167
▁কীট	-8168
▁ধাপ	-8169
▁নাল	-8170
▁সিম	-8171
▁এরকম	-8172
▁বারো	-8173
▁রাখুন	-8174
ানিকভাবে	-8175
▁সফলভাবে	-8176
ণ্	-8177
১৯৯৩	-8178
▁জোন	-8179
▁লোড	-8180
▁আইসি	-8181
ক্ষমতা	-8182
▁কর্মের	-8183
▁গ্রহণযোগ্যতার	-8184
ফু	-8185
▁ex	-8186
▁কব	-8187
▁মুতা	-8188
ধারীদের	-8189
▁অভিযান	-8190
▁তফসিলে	-8191
▁বেড়েছে	-8192
▁স্বেচ্ছাচারিতা	-8193
কামী	-8194
বেদী	-8195
মত্ব	-8196
▁আরএফ	-8197
▁এমসিআই	-8198
▁মুনাফার	-8199
▁কুষ্ঠরোগ	-8200
▁প্রার্থীরা	-8201
tt	-8202
▁বেল	-8203
▁ভান	-8204
▁চেতনা	-8205
▁রুপির	-8206
▁পৌঁছানো	-8207
▁কনফারেন্স	-8208
▁নিয়োগপ্রাপ্ত	-8209
দূ	-8210
▁9	-8211
সর্	-8212
▁it	-8213
্যোগ	-8214
▁রোল	-8215
▁এসডি	-8216
▁দুজন	-8217
ুদ্রিক	-8218
▁একটির	-8219
▁বস্তি	-8220
▁বারের	-8221
▁সিপিসি	-8222
▁বিবাদীর	-8223
▁মূলধনের	-8224
▁অসুস্থতা	-8225
▁ডিক্রিটি	-8226
▁চেয়ারপার	-8227
▁রাজেন্দ্র	-8228
বিধানিকভাবে	-8229
▁পরিচালনায়	-8230
▁অন্ধ্রপ্রদেশ	-8231
▁প্রাসঙ্গিকতা	-8232
শংস	-8233
ূলে	-8234
▁আহম	-8235
▁জোরালো	-8236
▁বৈধভাবে	-8237
▁মহাত্মা	-8238
▁শব্দগুলিতে	-8239
▁সূর	-8240
▁ওপেন	-8241
▁পাশে	-8242
▁সৃজন	-8243
▁অভিমত	-8244
▁নিলামের	-8245
▁পদগুলির	-8246
▁সম্বলিত	-8247
পরীক্ষায়	-8248
▁মহাপরিচালক	-8249
লস	-8250
uary	-8251
▁ইমে	-8252
▁নীরব	-8253
▁মেধা	-8254
মান্ডে	-8255
▁চৌদ্দ	-8256
▁অনিয়ম	-8257
▁ফেলেছে	-8258
▁ইলেকট্র	-8259
▁নিরাময়	-8260
▁উত্তীর্ণ	-8261
▁প্রকারের	-8262
▁বিনোদনের	-8263
▁উদ্যোক্তা	-8264
▁প্রতীয়মান	-8265
▁সেন্টিমিটার	-8266
াংশ	-8267
▁সূ	-8268
পুরা	-8269
▁পরিধ	-8270
▁তৈরিতে	-8271
▁কার্যকলাপ	-8272
▁নরি	-8273
▁মুখে	-8274
▁ফার্মা	-8275
▁নির্মূল	-8276
▁মতবিরোধ	-8277
▁তত্ক্ষণাত্	-8278
and	-8279
▁ফু	-8280
ঞ্জন	-8281
বাদি	-8282
ামিন	-8283
▁not	-8284
▁লখন	-8285
▁পলাতক	-8286
▁আমানতের	-8287
▁স্রাবের	-8288
▁এআইসিটিই	-8289
▁বিপর্যয়	-8290
▁ঠিকাদারের	-8291
▁পরিবর্তনগুলি	-8292
ক্রে	-8293
▁অক্ষ	-8294
▁উজ্জ	-8295
▁এলাকা	-8296
▁ওষুধের	-8297
▁লাভজনক	-8298
▁উপস্থাপ	-8299
▁বৌদ্ধিক	-8300
▁মেঘালয়	-8301
▁কারাদন্ড	-8302
▁ভাড়াটেদের	-8303
▁পুনর্নির্মাণের	-8304
No	-8305
ৈত	-8306
▁ইতো	-8307
▁ফার	-8308
▁prov	-8309
▁আইআই	-8310
▁চুরি	-8311
▁ব্রা	-8312
▁তুলবে	-8313
▁নোটের	-8314
▁আম্বেদ	-8315
▁উৎপাদন	-8316
▁ধরেছিল	-8317
▁মুম্বই	-8318
▁শ্বশুর	-8319
▁ইতোমধ্যে	-8320
▁নির্ধারক	-8321
▁হিন্দিতে	-8322
▁ব্যাংকগুলির	-8323
▁পির	-8324
্যাটে	-8325
▁উষ্ণ	-8326
▁তারও	-8327
▁বর্ষ	-8328
▁আঙুলের	-8329
▁নেহেরু	-8330
▁রিমান্ডে	-8331
▁প্রস্তুতকার	-8332
)]	-8333
স্র	-8334
ভক্ত	-8335
▁এলএ	-8336
▁সুশীল	-8337
▁ভার্মা	-8338
▁মিনিটের	-8339
▁ইস্যুটির	-8340
▁ডিডাব্লু	-8341
▁সহিংসতার	-8342
▁স্ত্রীকে	-8343
▁ব্র্যান্ড	-8344
▁এক্সচেঞ্জের	-8345
▁ভৌ	-8346
▁টানা	-8347
▁মহড়া	-8348
▁বস্তুর	-8349
▁অনুরোধে	-8350
▁একেবারেই	-8351
▁এক্সট্রা	-8352
▁প্রভাবটি	-8353
▁মনোনয়নের	-8354
▁প্রয়োগকারী	-8355
অফ	-8356
ছুর	-8357
ডিউ	-8358
▁60	-8359
েকশন	-8360
▁গার্	-8361
দাতাকে	-8362
▁গ্লোব	-8363
▁দোষের	-8364
▁রিভিশন	-8365
▁মুদ্রার	-8366
▁রাস্তায়	-8367
▁উপস্থিতির	-8368
▁টেক্সটাইল	-8369
▁সামুদ্রিক	-8370
▁অব্যাহতিপ্রাপ্ত	-8371
কত	-8372
এমপি	-8373
গড়া	-8374
▁সাজ	-8375
স্টিক	-8376
▁বাতা	-8377
▁প্রযোজ	-8378
▁স্ট্রি	-8379
▁অ্যাসিড	-8380
▁ধারণাগুলি	-8381
▁শিক্ষার্থীরা	-8382
ir	-8383
টক	-8384
ক্ল	-8385
কর্প	-8386
▁দুল	-8387
ধান্য	-8388
সুপ্র	-8389
▁মওকু	-8390
▁সাইটের	-8391
▁স্বর্ণ	-8392
▁শ্রেণিতে	-8393
▁বৃষ্টিপাত	-8394
▁মেন	-8395
▁১৮৮	-8396
▁উপরও	-8397
▁নিষ্ঠুরতা	-8398
▁নিয়োগকারী	-8399
▁যুক্তিসঙ্গতভাবে	-8400
২৯	-8401
ভেল	-8402
ডিএফ	-8403
ভিসি	-8404
রাইট	-8405
▁অটোম	-8406
▁হারিয়ে	-8407
▁অধিদপ্তর	-8408
▁প্রাধান্য	-8409
▁মানদণ্ডের	-8410
▁শাস্তিমূলক	-8411
▁প্ল্যাটফর্ম	-8412
▁চর্	-8413
▁ইউএন	-8414
▁টিএন	-8415
▁এসএইচ	-8416
বাণিজ্য	-8417
▁আমেরিকা	-8418
▁নিরীক্ষা	-8419
▁দুর্ভাগ্যক্রমে	-8420
▁পূর্বনির্ধারিত	-8421
মনির	-8422
▁পাখ	-8423
▁শরী	-8424
▁জজের	-8425
▁জীবনকে	-8426
▁অবশিষ্ট	-8427
▁দুর্যোগ	-8428
▁যথাযথতা	-8429
▁জবাবদিহিতা	-8430
▁নিখুঁতভাবে	-8431
হাই	-8432
▁আজকের	-8433
▁ভগবান	-8434
▁রাজেশ	-8435
▁আইটিআর	-8436
▁ড্রাইভিং	-8437
▁বিভ্রান্তি	-8438
▁সভাপতিত্বে	-8439
▁সাব্যস্ততা	-8440
▁সুবিধাগুলির	-8441
বরণ	-8442
ডিটি	-8443
▁ওএস	-8444
লিয়া	-8445
▁with	-8446
▁ওরফে	-8447
▁গেলেন	-8448
▁জানেন	-8449
▁সংবাদপত্র	-8450
▁IS	-8451
▁কোর	-8452
তত্ত্ব	-8453
পাবলিক	-8454
▁নমনীয়	-8455
▁প্রতীক	-8456
▁যাত্রা	-8457
▁আয়োজিত	-8458
▁কমিটিতে	-8459
▁এপ্রিলের	-8460
▁সন্নিবেশিত	-8461
▁বিশ্বাসযোগ্যতা	-8462
েপ	-8463
বাজি	-8464
মানিক	-8465
▁জেজে	-8466
▁ওয়াই	-8467
▁চোখের	-8468
▁নিক্ষ	-8469
▁সুনীল	-8470
▁শিল্পে	-8471
▁সংযোগের	-8472
▁ঘটনাস্থল	-8473
▁নাবালিকা	-8474
▁প্রবৃদ্ধি	-8475
▁অ্যাক্সেসের	-8476
ীড়া	-8477
▁হামলা	-8478
▁যত্নের	-8479
▁সীমাতে	-8480
▁বোম্বাইয়ের	-8481
▁এএম	-8482
▁সুব	-8483
▁ট্রেন	-8484
মনিরপেক্ষ	-8485
▁কর্মকর্তারা	-8486
ডেট	-8487
ত্রিম	-8488
▁উদয়	-8489
▁শ্যাম	-8490
▁সিদ্ধ	-8491
▁সুস্ব	-8492
▁পিরিয়	-8493
▁পরামর্শক	-8494
▁উচ্চশিক্ষ	-8495
▁মেগাওয়াট	-8496
▁স্ক্রিনিং	-8497
▁কর্মচারীরা	-8498
▁প্রভাবশালী	-8499
▁আটকা	-8500
▁মেমনের	-8501
টেলমেন্ট	-8502
▁ক্ষমতাটি	-8503
▁পুনর্বার	-8504
▁অ্যাপার্ট	-8505
▁গ্রহণকারী	-8506
▁পরিচালকদের	-8507
মাল	-8508
লেই	-8509
সিএল	-8510
▁মাছ	-8511
▁ডেভল	-8512
কর্পোর	-8513
▁প্রথা	-8514
নির্বাচ	-8515
▁রাইফেল	-8516
▁প্রজন্মের	-8517
▁দুর্ভাগ্যজনক	-8518
চারী	-8519
ীকৃত	-8520
▁জলাশ	-8521
▁কোডটি	-8522
▁আসামিকে	-8523
▁ক্যাম্প	-8524
▁রীতিনীতি	-8525
▁নিয়মগুলি	-8526
▁লিখেছিলেন	-8527
▁বিভাগগুলির	-8528
▁ব্যাংকগুলি	-8529
তঃ	-8530
২১	-8531
দনা	-8532
বহা	-8533
াদে	-8534
▁१८	-8535
▁৮৮	-8536
ড়াল	-8537
▁কমন	-8538
পৃষ্ঠ	-8539
দাতারা	-8540
▁দশকের	-8541
▁জনসংখ্যা	-8542
▁প্রচারিত	-8543
গে	-8544
সিফ	-8545
্দা	-8546
টুকু	-8547
▁আসছে	-8548
▁খেয়	-8549
▁নির্ভ	-8550
▁চেম্বার	-8551
▁ভবিষ্যত	-8552
▁নিরীক্ষক	-8553
▁বিরোধগুলি	-8554
▁প্রক্রিয়ার	-8555
▁রাষ্ট্রপক্ষ	-8556
▁ধা	-8557
২০০৪	-8558
▁দীন	-8559
▁রোপ	-8560
▁কক্ষ	-8561
▁পালনে	-8562
▁কংগ্রেস	-8563
▁পদক্ষেপে	-8564
▁ছাড়পত্রের	-8565
▁নিম্নলিখিতটি	-8566
end	-8567
থের	-8568
▁পরপর	-8569
▁১৯৮০	-8570
▁উপকৃত	-8571
▁ওয়েল	-8572
▁টেলিক	-8573
▁লোহার	-8574
জেনারেল	-8575
▁ওয়ার্ক	-8576
▁ক্রীড়া	-8577
▁সংমিশ্রণ	-8578
▁শান্তিপূর্ণ	-8579
res	-8580
ত্ন	-8581
বেক	-8582
▁her	-8583
▁inc	-8584
▁দান	-8585
ন্টিং	-8586
▁মাটি	-8587
▁অভয়ার	-8588
▁সচিবের	-8589
▁পেরেছিল	-8590
▁প্রভিসো	-8591
▁নিরীক্ষণ	-8592
▁সত্যবাদী	-8593
▁পরিচালকের	-8594
▁অধিকারগুলির	-8595
রাও	-8596
▁বাঘ	-8597
▁প্রিজ	-8598
▁টেলিভিশন	-8599
▁বিবৃতিটি	-8600
▁উত্পাদনশীলতা	-8601
▁ধর্মনিরপেক্ষ	-8602
mp	-8603
▁৪৮	-8604
জীবী	-8605
▁তাহ	-8606
▁আসনের	-8607
▁নিকাশী	-8608
▁উপকরণের	-8609
▁পরিমাপের	-8610
▁বিচ্যুতি	-8611
▁পাঠ্যক্রম	-8612
▁গহ	-8613
▁ব্রো	-8614
▁প্রাস	-8615
▁স্থানের	-8616
▁প্রোফাইল	-8617
▁মূল্যবোধের	-8618
ser	-8619
▁গজ	-8620
▁ছুরি	-8621
▁মানে	-8622
▁নীতিতে	-8623
▁মারুতি	-8624
▁শীর্ষক	-8625
▁সম্মতির	-8626
▁কাঁচামাল	-8627
▁অভয়ারণ্য	-8628
র্দ	-8629
ঙ্গু	-8630
▁এসই	-8631
▁সনদ	-8632
▁ত্বর	-8633
▁১৯৫৪	-8634
▁সমঝোতার	-8635
▁রাজ্যপালকে	-8636
▁স্টেকহোল্ডার	-8637
ষ্প	-8638
▁খর	-8639
▁আবহা	-8640
▁থাকি	-8641
রওয়াল	-8642
▁বিসিসিআই	-8643
▁ইন্টারনেট	-8644
▁বিষয়টিতে	-8645
▁সার্ভিসের	-8646
▁প্রোগ্রামের	-8647
▁চুক্তিভিত্তিক	-8648
▁স্বীকারোক্তির	-8649
▁মল	-8650
ান্দ	-8651
▁ইনস	-8652
▁সিজি	-8653
▁থাকুক	-8654
▁প্রাদেশিক	-8655
▁বিজ্ঞাপনের	-8656
▁পরামর্শক্রমে	-8657
▁অচল	-8658
▁আপস	-8659
ব্যাং	-8660
▁কন্য	-8661
▁কেড়ে	-8662
▁ইউআইডিএ	-8663
▁এড়ানোর	-8664
▁নিষ্কাশন	-8665
▁বিশ্বস্ত	-8666
▁শ্রেণিবিন্যাসের	-8667
মিং	-8668
ুগত্য	-8669
▁অদম্য	-8670
পিডব্লু	-8671
▁চণ্ডীগড়	-8672
▁খ্রিস্টান	-8673
ডস	-8674
ুনি	-8675
আইএস	-8676
শ্রী	-8677
প্রথম	-8678
▁স্কো	-8679
▁ইন্দ্র	-8680
▁অ্যাডহক	-8681
▁বর্ধনের	-8682
▁সায়েন্স	-8683
▁বিধানসমূহ	-8684
▁মুতাওয়াল	-8685
----------------	-8686
২০০১	-8687
▁গুর	-8688
▁মাটির	-8689
▁রামের	-8690
▁গুণাবলী	-8691
▁অবিশ্বাস	-8692
▁বিনিময়ে	-8693
▁মালিকানার	-8694
▁সম্প্রসারণের	-8695
37	-8696
ফতর	-8697
▁তপ	-8698
▁জিপ	-8699
▁সরে	-8700
▁that	-8701
▁আনুষ	-8702
▁ফোরা	-8703
▁ক্লাস	-8704
▁জীবিত	-8705
তিষ্ঠিত	-8706
▁দলিলটি	-8707
▁অনুগ্রহ	-8708
▁প্রশান্ত	-8709
▁নিরবচ্ছিন্ন	-8710
্কা	-8711
সময়	-8712
▁অমর	-8713
▁চীন	-8714
ক্রিল	-8715
▁বলেছি	-8716
▁টেকনোল	-8717
▁কৃত্রিম	-8718
▁ক্রিকেট	-8719
▁যৌক্তিকতা	-8720
▁আদায়যোগ্য	-8721
▁ভিজিল্যান্স	-8722
▁সিদ্ধান্তগুলির	-8723
ফোর্ড	-8724
▁নোডাল	-8725
▁বিস্ম	-8726
নিরীক্ষা	-8727
▁আনুগত্য	-8728
▁তথ্যগুলিতে	-8729
সূর	-8730
চাঁদ	-8731
লগ্ন	-8732
ঙ্কুশ	-8733
ঞ্ছিত	-8734
▁দলকে	-8735
▁ক্রিম	-8736
▁পাত্র	-8737
▁থাকতেন	-8738
▁শাখায়	-8739
▁অর্থায়ন	-8740
▁প্রত্যাবর্তন	-8741
▁কৈ	-8742
▁জখ	-8743
এফআর	-8744
▁ধাত	-8745
▁বিছ	-8746
তৃতীয়	-8747
▁লার্ন	-8748
সাময়িক	-8749
▁উত্তেজ	-8750
▁অধিদফতর	-8751
▁দস্তাবে	-8752
▁সমীক্ষা	-8753
▁কর্মসূচী	-8754
▁ট্র্যাফিক	-8755
▁জবানবন্দির	-8756
▁ডেভলপমেন্ট	-8757
▁আদালতগুলিতে	-8758
▁ইংল্যান্ডের	-8759
▁বিধিনিষেধের	-8760
▁সাংবিধানিকভাবে	-8761
▁আচার	-8762
▁লাইনে	-8763
▁হার্ড	-8764
বিধানের	-8765
ভারতীয়	-8766
▁ক্যানভাস	-8767
▁উদ্দেশ্যটির	-8768
▁সংস্থাগুলিতে	-8769
▁অন্তর্ভুক্তির	-8770
ig	-8771
▁-।	-8772
▁আত	-8773
▁অনে	-8774
ৎপর্য	-8775
▁এনটি	-8776
▁স্কু	-8777
▁হননি	-8778
োগ্রাফ	-8779
▁দখলটি	-8780
▁দিল্ল	-8781
▁সকলেই	-8782
▁মুনাফা	-8783
▁মোটরযান	-8784
▁গঠনতন্ত্র	-8785
lt	-8786
▁পেছ	-8787
োত্তর	-8788
▁পঠিত	-8789
▁section	-8790
▁প্রতিশোধ	-8791
▁প্রত্যয়	-8792
▁বাস্তবতা	-8793
▁পেরেছিলেন	-8794
▁ট্রান্সফার	-8795
▁নির্দেশাবলীর	-8796
লাস	-8797
োমা	-8798
▁আনর	-8799
জিকাল	-8800
▁ডেভেল	-8801
▁স্টাডি	-8802
▁তাৎপর্য	-8803
▁স্থাপনা	-8804
ক্তিকভাবে	-8805
▁মন্ত্রিস	-8806
▁মৃত্যুদন	-8807
▁মানবসম্পদ	-8808
▁সরকারগুলি	-8809
▁সিকিওরিটির	-8810
▁ক্ষেত্রগুলি	-8811
▁সম্মতিযুক্ত	-8812
▁রিলায়েন্সকে	-8813
ers	-8814
ধায়	-8815
সংশোধ	-8816
ৃত্তি	-8817
▁ডাউন	-8818
▁লালন	-8819
▁উপকূল	-8820
▁প্রজন	-8821
▁খ্যাতি	-8822
▁ছাড়ার	-8823
▁উপকারের	-8824
▁নিবন্ধটি	-8825
▁মর্যাদাপূর্ণ	-8826
দাচ	-8827
্বল	-8828
▁at	-8829
্লাই	-8830
২০০০	-8831
বার্ড	-8832
মাধ্য	-8833
ান্বিত	-8834
▁যাঁরা	-8835
▁মেয়ের	-8836
▁বিলিয়ন	-8837
▁পরিবহণের	-8838
▁রাজ্যটির	-8839
▁সত্যায়িত	-8840
▁অ্যাকাউন্টিং	-8841
ut	-8842
ক্ষী	-8843
ঙ্কে	-8844
▁স্ন	-8845
দৃষ্টি	-8846
▁এনএইচ	-8847
▁প্রাচ	-8848
▁চিকিৎস	-8849
▁অরুণাচল	-8850
▁উত্তরটি	-8851
প্রযুক্তি	-8852
▁ফেডারেশন	-8853
▁পৌঁছেছিলেন	-8854
▁প্রিজাইডিং	-8855
▁হত্যাকাণ্ড	-8856
লিউ	-8857
আরবি	-8858
▁কুল	-8859
াতায়	-8860
▁দেড়	-8861
▁শোনা	-8862
▁১৯৫৯	-8863
▁herit	-8864
▁কভারে	-8865
▁উপলক্ষ	-8866
▁স্কুলে	-8867
ন্যাশনাল	-8868
▁উত্তরসূরি	-8869
▁প্রশাসকের	-8870
▁আইনজীবীদের	-8871
▁প্রতিদিনের	-8872
▁প্রমাণীকরণ	-8873
▁k	-8874
ill	-8875
ওপি	-8876
লিন	-8877
িকু	-8878
ুল্য	-8879
▁অসহ	-8880
▁ফলন	-8881
▁রাখি	-8882
▁সাদা	-8883
▁১৯৮১	-8884
▁আইনগত	-8885
▁পিতার	-8886
▁জীবিকা	-8887
▁দেখিয়ে	-8888
▁দৈর্ঘ্য	-8889
▁বিধানগুলিকে	-8890
us	-8891
কথিত	-8892
▁কোল	-8893
োকানো	-8894
▁জ্বল	-8895
▁ফ্রি	-8896
▁ভয়ে	-8897
▁লখনউ	-8898
▁সিপি	-8899
▁অথরিটি	-8900
▁ওড়িশা	-8901
▁দরকারী	-8902
▁সত্তার	-8903
▁ক্লিনিক	-8904
▁প্রতিবাদী	-8905
▁............	-8906
শোধিত	-8907
অভিযোগ	-8908
▁অংশকে	-8909
▁বয়স্ক	-8910
▁গ্লোবাল	-8911
▁নীতিটির	-8912
▁প্রসেসিং	-8913
▁বক্তব্যকে	-8914
▁ভিত্তিতেই	-8915
▁ত্বরান্বিত	-8916
▁প্রাক্কালে	-8917
▁কর্পোরেশনকে	-8918
ছবি	-8919
▁[]	-8920
েনেড	-8921
মাসিক	-8922
▁১৯৫৮	-8923
▁পোড়া	-8924
▁শুকনো	-8925
▁যোগদানের	-8926
▁সক্রিয়ভাবে	-8927
,0	-8928
ির্ভূত	-8929
েন্সির	-8930
▁জার্ন	-8931
▁ইউনিভার	-8932
▁সিরিয়াল	-8933
▁টার্নওভার	-8934
গভ	-8935
.00	-8936
নাগ	-8937
াসী	-8938
▁বেন	-8939
▁জনের	-8940
▁ঘটায়	-8941
▁মিত্ত	-8942
▁historical	-8943
▁পিটিশনগুলি	-8944
ংশন	-8945
▁()	-8946
▁ফে	-8947
▁এরই	-8948
▁ফরম	-8949
▁স্বপ	-8950
▁পান্ড	-8951
▁ফিল্ম	-8952
▁ভোটের	-8953
পরিদর্শক	-8954
▁টিএডিএর	-8955
▁উপার্জনের	-8956
▁অবিচ্ছিন্নভাবে	-8957
শত	-8958
৪০	-8959
▁00	-8960
▁ওপি	-8961
মালিক	-8962
ীতিকে	-8963
▁সকালে	-8964
▁স্বভাব	-8965
▁স্বরূপ	-8966
▁অংশগুলি	-8967
▁সার্টিফ	-8968
▁অনুপ্রবেশ	-8969
▁প্রদানকারী	-8970
াটি	-8971
▁আখ	-8972
▁৩৮	-8973
▁বলি	-8974
বাদিক	-8975
▁এলজে	-8976
▁বিভা	-8977
▁১৯৯২	-8978
ধ্যায়	-8979
▁চেকটি	-8980
▁অভাবের	-8981
▁আইআইটি	-8982
▁সামর্থ	-8983
▁অসম্মান	-8984
▁জমাগুলি	-8985
▁অসামান্য	-8986
▁ধারাগুলি	-8987
▁সভাপতিত্ব	-8988
▁এখতিয়ারটি	-8989
▁দীর্ঘায়িত	-8990
সৌ	-8991
ust	-8992
্বার	-8993
▁এন্ড	-8994
▁বৈঠক	-8995
▁রাধা	-8996
ভেন্সি	-8997
▁তহসিল	-8998
▁বিঘ্ন	-8999
বীন্দ্র	-9000
সুবিধার	-9001
▁খেয়াল	-9002
▁নিরঙ্কুশ	-9003
▁নৈতিকতার	-9004
▁দেখেছিলেন	-9005
▁শিক্ষামূলক	-9006
▁ব্যবহারকারীর	-9007
ha	-9008
ভেদ	-9009
▁হঠ	-9010
▁দফতর	-9011
▁বিক্ষ	-9012
ক্রিয়া	-9013
▁চাকরীর	-9014
▁পরিশ্রম	-9015
▁অংশগ্রহণের	-9016
আরও	-9017
ফ্ট	-9018
১৯৫	-9019
▁জিত	-9020
কেলের	-9021
▁নিপী	-9022
▁পরাজ	-9023
▁নেপাল	-9024
▁আশেপাশে	-9025
▁পৌঁছেছি	-9026
▁হরিয়ান	-9027
▁শিক্ষকের	-9028
▁বিকাশকারী	-9029
▁রেফারেন্সটি	-9030
▁স্বাধীনভাবে	-9031
লোড	-9032
▁উম	-9033
▁ষাঁ	-9034
পিসিতে	-9035
▁অনির্	-9036
▁ডেপুট	-9037
বর্তনীয়	-9038
▁সূক্ষ্ম	-9039
▁আপিলেন্টরা	-9040
▁নির্দেশিকাগুলি	-9041
সিংহ	-9042
▁পঁচ	-9043
িতায়	-9044
▁আরপি	-9045
▁এমএল	-9046
▁দূষিত	-9047
▁পেপার	-9048
▁অনুচিত	-9049
▁নিখোঁজ	-9050
▁অধিকারে	-9051
▁এড়িয়ে	-9052
▁কন্ট্রোল	-9053
▁সন্ত্রাসবাদী	-9054
গতি	-9055
ধারক	-9056
▁এনে	-9057
▁ভূম	-9058
ঞ্জিত	-9059
মার্ক	-9060
সরকার	-9061
▁ভারতী	-9062
▁শৃঙ্খ	-9063
লিংয়ের	-9064
▁কারিগরি	-9065
▁নথিপত্র	-9066
▁সংকল্পের	-9067
▁কমিশনারকে	-9068
▁সমসাময়িক	-9069
▁চূড়ান্ততা	-9070
▁পরীক্ষাগার	-9071
▁সম্ভাব্যতা	-9072
▁কার্যবিধিতে	-9073
লাম	-9074
▁তী	-9075
____	-9076
ourt	-9077
গাঁও	-9078
▁কির	-9079
▁কোণ	-9080
▁কষ্ট	-9081
▁ত্রৈ	-9082
▁গাছের	-9083
▁সকলকে	-9084
▁কার্তু	-9085
▁মার্শাল	-9086
▁জন্মগ্রহণ	-9087
▁প্রশিক্ষিত	-9088
▁বিচারযোগ্য	-9089
▁ব্যক্তিত্ব	-9090
▁সার্বভৌমত্ব	-9091
ra	-9092
আম	-9093
বৈ	-9094
ীনা	-9095
▁মাঠ	-9096
স্টিং	-9097
▁উদযাপন	-9098
▁ফায়ার	-9099
▁কল্যাণে	-9100
▁সমাবেশের	-9101
▁নিশ্চিতকরণ	-9102
ণ্ঠ	-9103
▁পল	-9104
মার্	-9105
▁এমএ	-9106
▁দিত	-9107
▁সাহে	-9108
প্রাকৃত	-9109
▁অটোমোব	-9110
▁মিশ্রণ	-9111
ার্থীদের	-9112
▁অবিভক্ত	-9113
▁উদ্যোগে	-9114
▁মহিলাকে	-9115
▁মহিলারা	-9116
▁পার্থক্যটি	-9117
▁উত্পাদনকারী	-9118
▁চেয়ারম্যানের	-9119
▁জোগ	-9120
▁মাধ	-9121
আদালত	-9122
▁হঠাৎ	-9123
▁হোস্ট	-9124
▁কলকাতার	-9125
▁স্পষ্টতা	-9126
▁পরিষেবাটি	-9127
▁ডিফল্টরূপে	-9128
▁নেটওয়ার্কের	-9129
▁প্রক্রিয়াটিকে	-9130
জনে	-9131
গলিক	-9132
ষ্ণু	-9133
▁টেম	-9134
▁ভাইস	-9135
▁স্বতঃ	-9136
▁শ্রেষ্ঠ	-9137
ব্যক্তিগত	-9138
▁কাঠামোগত	-9139
▁চেয়ারপারসন	-9140
আমা	-9141
▁সৎ	-9142
▁জোট	-9143
বিবাহ	-9144
▁লিকু	-9145
▁নথিতে	-9146
▁পিএইচ	-9147
▁ব্লকের	-9148
▁তথাকথিত	-9149
▁মূলনীতি	-9150
▁আনুমানিক	-9151
▁রামচন্দ্র	-9152
▁সন্ত্রাসী	-9153
▁প্রতারণামূলক	-9154
শিল	-9155
াউন	-9156
▁III	-9157
▁টিউ	-9158
ান্তে	-9159
ালিকা	-9160
িকারী	-9161
▁সুসং	-9162
▁এতটাই	-9163
▁নারীর	-9164
▁ডেন্টাল	-9165
▁শব্দগুলির	-9166
▁হাইকোর্টকে	-9167
▁বিসিসিআইয়ের	-9168
▁তুলনামূলকভাবে	-9169
ারী	-9170
▁পূ	-9171
▁এলি	-9172
ধারাটির	-9173
▁সমকামী	-9174
▁আদালতটি	-9175
▁অনুশীলনকে	-9176
▁সরকারগুলির	-9177
▁সুবিধাভোগী	-9178
▁বিচ্ছিন্নতা	-9179
সিস	-9180
পঞ্চ	-9181
োক্ষ	-9182
▁১৯৮৪	-9183
▁কার্ব	-9184
▁চলাচল	-9185
▁দিচ্ছে	-9186
▁ভৌগলিক	-9187
▁খারিজের	-9188
▁পেরিয়ে	-9189
▁বিক্ষোভ	-9190
▁সুযোগগুলি	-9191
▁ইনস্টিটিউটের	-9192
%।	-9193
ভবতী	-9194
▁ষাট	-9195
ধ্বতন	-9196
ল্লিশ	-9197
পেক্টর	-9198
সামরিক	-9199
▁ট্রান	-9200
▁কল্পিত	-9201
▁ব্যবধান	-9202
▁heritage	-9203
▁প্রতিবেদক	-9204
▁স্বাক্ষরের	-9205
▁আনুষ্ঠানিকতা	-9206
▁রাষ্ট্রপতিকে	-9207
▁নিষেধাজ্ঞাগুলি	-9208
মূ	-9209
াধু	-9210
▁ইনসো	-9211
▁যথাস	-9212
ক্রমিক	-9213
▁অসদাচ	-9214
বিচারিক	-9215
▁অর্ধেক	-9216
▁খেলোয়	-9217
▁চালানের	-9218
▁ফলাফলটি	-9219
▁লক্ষ্মী	-9220
টায়	-9221
▁ইয়	-9222
▁জ্য	-9223
▁মেল	-9224
বোর্ড	-9225
▁মুসল	-9226
▁গুণগত	-9227
▁ব্যাচ	-9228
▁মূর্ত	-9229
▁বিদ্যা	-9230
▁রবীন্দ্র	-9231
▁কালেক্টরের	-9232
............	-9233
সকে	-9234
াবহ	-9235
▁app	-9236
▁কেশ	-9237
▁ঝাঁ	-9238
▁ধন্য	-9239
▁বিগত	-9240
▁রোধে	-9241
▁টেবিল	-9242
▁পাম্প	-9243
▁বেঁধে	-9244
▁সাতটি	-9245
▁ফাইলটি	-9246
▁আইটেমের	-9247
▁ওয়াক্ফ	-9248
▁কার্তুজ	-9249
▁গুপ্তের	-9250
▁টেলিযোগ	-9251
▁প্রতিভা	-9252
▁বাহুল্য	-9253
▁মতবাদটি	-9254
▁আম্বেদকর	-9255
▁বাতিলকরণ	-9256
নিয়ন্ত্রণ	-9257
▁অধ্যয়নের	-9258
▁অনুশীলনটি	-9259
▁অবস্থানকে	-9260
▁traditional	-9261
▁নিবন্ধভুক্ত	-9262
▁ক্রিয়াকলাপে	-9263
.,	-9264
গির	-9265
ডিআই	-9266
োষ্ঠ	-9267
্যাশ	-9268
▁মিন	-9269
▁পুরা	-9270
পরবর্তী	-9271
▁পরোক্ষ	-9272
▁জনগোষ্ঠ	-9273
▁মালিককে	-9274
▁শতাব্দীর	-9275
▁সংশোধনীটি	-9276
▁ইউনিটগুলির	-9277
ষি	-9278
▁ওএ	-9279
▁অতীতে	-9280
▁বৃত্তি	-9281
▁ওয়ার্ড	-9282
▁ব্যয়কে	-9283
▁মালিকরা	-9284
▁ব্যয়বহুল	-9285
পোষ	-9286
▁খুল	-9287
▁জাপ	-9288
আমাদের	-9289
▁কাঠের	-9290
▁জায়ে	-9291
▁সমগ্র	-9292
▁গ্র্যাচু	-9293
▁দীর্ঘকাল	-9294
▁বুক	-9295
▁ভিস	-9296
পিটাল	-9297
▁আরসি	-9298
▁একের	-9299
▁মুন্	-9300
▁খাওয়	-9301
▁নরিমন	-9302
▁বিপ্ল	-9303
▁ব্রিজ	-9304
▁ভালবাস	-9305
▁নিবন্ধক	-9306
▁শ্রীমতী	-9307
▁পরিশিষ্ট	-9308
▁পরবর্তীতে	-9309
▁পেটেন্টের	-9310
▁পরামর্শদাতাদের	-9311
মতো	-9312
পণ্য	-9313
পিপি	-9314
মুখী	-9315
ার্চ	-9316
্যারে	-9317
▁করেও	-9318
▁গঠনে	-9319
▁পুনর	-9320
▁আসন্ন	-9321
▁ভাগের	-9322
বাসীদের	-9323
▁পেশাগত	-9324
▁বাসায়	-9325
▁সমাজকে	-9326
▁সূত্রে	-9327
▁অপারেটিভ	-9328
▁রিপোর্টটি	-9329
▁সহানুভূতি	-9330
▁সিঙ্গাপুর	-9331
তরফা	-9332
লিটি	-9333
্যালি	-9334
▁মওকুফ	-9335
যোগ্যতা	-9336
▁সত্যকে	-9337
▁তৎকালীন	-9338
▁প্যাটেল	-9339
▁দাঁড়াতে	-9340
▁ঘটনাক্রমে	-9341
▁অনুপ্রেরণা	-9342
▁স্বেচ্ছাসেবক	-9343
▁একচেটিয়াভাবে	-9344
xx	-9345
চয়	-9346
▁ফোক	-9347
ক্রাম	-9348
সংখ্য	-9349
বিজ্ঞান	-9350
▁অতীতের	-9351
▁একতরফা	-9352
▁এলাকায়	-9353
▁গর্ভবতী	-9354
▁অপরাধীকে	-9355
▁জমিগুলির	-9356
▁অর্থনীতিতে	-9357
▁জ্যেষ্ঠতার	-9358
তেই	-9359
▁আলো	-9360
▁জ্যো	-9361
▁আয়রন	-9362
▁বাল্য	-9363
▁অসংখ্য	-9364
▁বিন্যাস	-9365
▁সারচার্জ	-9366
▁ত্রৈমাসিক	-9367
বস	-9368
্জি	-9369
▁মনোহর	-9370
▁পাহাড়	-9371
▁পরিষেবাতে	-9372
▁সেকেন্ডের	-9373
▁স্বার্থকে	-9374
▁কুসংস্কারের	-9375
্নি	-9376
▁দৌ	-9377
▁নৃত	-9378
▁আগেও	-9379
▁নাবাল	-9380
▁মারধর	-9381
▁রেস্ত	-9382
▁মধ্যেও	-9383
▁ভূমিকার	-9384
▁প্রবিধানের	-9385
▁লক্ষ্যগুলি	-9386
দীশ	-9387
▁nd	-9388
ুয়া	-9389
▁টেন	-9390
স্থ্য	-9391
▁স্পন	-9392
▁ভাতার	-9393
▁শরীরে	-9394
ক্রমণের	-9395
▁রাখেনি	-9396
▁শিশুকে	-9397
▁সংলগ্ন	-9398
▁প্রাণীর	-9399
▁লাঞ্ছিত	-9400
▁উল্লেখ্য	-9401
▁জীবনযাপন	-9402
▁যন্ত্রণা	-9403
▁বিস্তারিতভাবে	-9404
6,	-9405
রম	-9406
তাল	-9407
বাজ	-9408
ুলভ	-9409
আবেদন	-9410
ধারার	-9411
▁সংকল	-9412
মাত্রা	-9413
হস্থ্য	-9414
েম্বরে	-9415
▁নির্মম	-9416
▁বিখ্যাত	-9417
▁ব্যাচের	-9418
▁সময়সূচী	-9419
▁ইউআইডিএআই	-9420
▁চিকিত্সকের	-9421
▁নিয়ন্ত্রণকারী	-9422
▁স্বায়ত্তশাসিত	-9423
রাট	-9424
▁অকাল	-9425
▁ক্ষু	-9426
▁আপডেট	-9427
▁চৌধুর	-9428
▁শ্রীব	-9429
▁অদৃশ্য	-9430
▁কোনওটিই	-9431
▁নিক্ষেপ	-9432
१९	-9433
বন	-9434
ttp	-9435
▁ডল	-9436
শ্বর	-9437
▁সের	-9438
আসামির	-9439
▁অসাধু	-9440
▁তালাক	-9441
▁পরপরই	-9442
▁ম্যাক	-9443
▁সুবিধ	-9444
▁সমালোচ	-9445
▁চার্টার্ড	-9446
▁চ্যান্সেলর	-9447
▁পর্যায়ক্রমে	-9448
যৌ	-9449
এমটি	-9450
▁মনি	-9451
▁মরি	-9452
▁আইএস	-9453
▁দলটি	-9454
▁রচিত	-9455
চ্ছন্দ	-9456
▁নম্বরে	-9457
▁স্বপ্ন	-9458
▁কপিরাইট	-9459
▁গন্তব্য	-9460
▁মোকাবিলার	-9461
▁পক্ষগুলিকে	-9462
▁মৃত্যুদন্ড	-9463
▁আবেগ	-9464
▁মিলস	-9465
▁শর্ম	-9466
▁অবিরত	-9467
▁ক্লিক	-9468
▁প্রত্ন	-9469
▁লিকুইড	-9470
▁ধন্যবাদ	-9471
▁অন্যভাবে	-9472
▁আগামীকাল	-9473
▁এক্সিকিউ	-9474
▁সাংবাদিক	-9475
▁স্বায়ত্তশাসন	-9476
▁প্রয়োগযোগ্যতা	-9477
পস	-9478
▁দাল	-9479
ডুচের	-9480
▁দশকে	-9481
জীবনের	-9482
▁অবনতি	-9483
▁স্টেন	-9484
▁লোকসভা	-9485
▁বিষয়েও	-9486
▁দ্বন্দ্বের	-9487
▁অপরিবর্তনীয়	-9488
৯০	-9489
▁ac	-9490
▁ডু	-9491
সিতে	-9492
াক্ত	-9493
▁অজু	-9494
▁বাসভব	-9495
▁কোয়ার	-9496
▁হিসাবর	-9497
▁টেন্ডার	-9498
▁দেখেছিল	-9499
▁পরিপূর্ণ	-9500
▁মেয়েদের	-9501
▁বিস্ফোরণের	-9502
▁মানবাধিকারের	-9503
if	-9504
est	-9505
জনকে	-9506
▁ছিন	-9507
▁নকল	-9508
▁আলোচ	-9509
▁একাই	-9510
▁এলআর	-9511
▁মঞ্চ	-9512
▁মহাব	-9513
▁লাইট	-9514
▁শহরে	-9515
▁উদ্দীপ	-9516
▁স্ফটিক	-9517
▁হচ্ছিল	-9518
েন্ডেন্ট	-9519
▁অপারেটিং	-9520
▁আগরওয়াল	-9521
▁ইন্স্যুর	-9522
▁বার্ষিকী	-9523
▁বিকল্পটি	-9524
▁যান্ত্রিক	-9525
▁নিয়মিতভাবে	-9526
েও	-9527
▁মেক	-9528
▁এনটাই	-9529
▁এমএইচ	-9530
▁ডক্টর	-9531
▁ইলেক্ট	-9532
▁দিবসের	-9533
▁বিশ্বে	-9534
▁নিষ্ঠুরতার	-9535
আমি	-9536
▁ভর	-9537
ট্রে	-9538
মাতে	-9539
▁সোন	-9540
কুলার	-9541
▁রাজু	-9542
▁সিবি	-9543
▁হরিশ	-9544
▁provid	-9545
▁রান্না	-9546
▁খাবারের	-9547
▁মুসলমান	-9548
▁সৃজনশীল	-9549
▁স্থানটি	-9550
▁অবিশ্বাস্য	-9551
▁সন্দেহভাজন	-9552
▁তামিলনাড়ুর	-9553
▁প্রতিষ্ঠাতা	-9554
▁প্রমাণগুলির	-9555
▁অ্যাপার্টমেন্ট	-9556
বাব	-9557
▁হের	-9558
মিয়া	-9559
ামেলা	-9560
▁ঘরের	-9561
স্তিষ্	-9562
▁দ্বার	-9563
▁সহজতর	-9564
▁এগুলির	-9565
▁ডিমান্ড	-9566
▁দৃশ্যমান	-9567
▁.........	-9568
▁নিয়োগকারীদের	-9569
য়োগ	-9570
স্তা	-9571
▁কোচ	-9572
▁ফিট	-9573
য়ায়	-9574
▁year	-9575
▁পাঠের	-9576
▁ফাংশন	-9577
▁বিন্দ	-9578
▁শতাব্দী	-9579
▁সাম্যতা	-9580
▁সত্যিকার	-9581
▁জিনিসগুলি	-9582
▁প্রাঙ্গণে	-9583
▁বক্তব্যটি	-9584
▁নির্ধারণকারী	-9585
▁স্বেচ্ছাসেবীর	-9586
▁CA	-9587
জন্য	-9588
▁দেউ	-9589
▁শোধ	-9590
▁প্রে	-9591
▁বিনোদ	-9592
বিচারের	-9593
▁সাক্ষর	-9594
▁ম্যাগাজ	-9595
▁সম্পাদক	-9596
▁আইনসম্মত	-9597
▁পরিচয়ের	-9598
▁ম্যাট্রিক্স	-9599
আন	-9600
▁উপন	-9601
মূল্য	-9602
▁বারে	-9603
▁ভুলে	-9604
দায়িক	-9605
▁একটিতে	-9606
▁পরিধির	-9607
▁স্বত্ব	-9608
▁অত্যধিক	-9609
▁গোবিন্দ	-9610
▁নিহতদের	-9611
▁যুক্তিতে	-9612
▁অ্যাপেক্স	-9613
▁নেতৃত্বের	-9614
▁স্বাচ্ছন্দ	-9615
pr	-9616
ৎস	-9617
এলএ	-9618
জাল	-9619
ুখী	-9620
▁হইতে	-9621
য়ারিং	-9622
▁কর্মীর	-9623
▁বিজয়ী	-9624
▁ফ্রান্স	-9625
▁সিডাব্লু	-9626
▁মুতাওয়াল্লি	-9627
ওয়াজ	-9628
্যাদি	-9629
▁কিমি	-9630
▁খ্রি	-9631
▁গ্রি	-9632
▁debts	-9633
▁চিন্ত	-9634
মিক্যাল	-9635
▁এলাকার	-9636
▁প্রজনন	-9637
▁প্রস্থ	-9638
▁ভয়াবহ	-9639
▁গঠনমূলক	-9640
▁কারাদন্ডের	-9641
▁হায়দরাবাদ	-9642
▁পরামর্শগুলি	-9643
▁প্রোগ্রামটি	-9644
69	-9645
গল	-9646
ক্ক	-9647
কেবল	-9648
▁আনো	-9649
▁ভাগ্য	-9650
▁কমান্ড	-9651
▁প্রদানে	-9652
▁শর্তাদির	-9653
▁অপরিশোধিত	-9654
▁অ্যালকোহল	-9655
▁গণপরিষদের	-9656
▁সংস্করণটি	-9657
▁প্রজ্ঞাপনটি	-9658
টো	-9659
▁ধরণ	-9660
গভর্ন	-9661
▁সবার	-9662
▁সৈকত	-9663
▁ঝগড়া	-9664
▁দেননি	-9665
▁বোঝাপ	-9666
▁প্যারে	-9667
▁দ্বারাও	-9668
▁পার্শ্ব	-9669
▁মিলিয়ে	-9670
▁রাজ্যটি	-9671
▁স্কেলের	-9672
▁গুজরাটের	-9673
▁গার্হস্থ্য	-9674
▁বাস্তবায়িত	-9675
eb	-9676
সিও	-9677
িরে	-9678
▁৫৯	-9679
র্মে	-9680
ার্থী	-9681
সোর্টি	-9682
▁সেমিন	-9683
▁আইসিটি	-9684
▁এতক্ষণ	-9685
▁পরাস্ত	-9686
াদান	-9687
▁করণ	-9688
▁খবর	-9689
▁টাইপ	-9690
▁টিরও	-9691
স্কদের	-9692
বিক্রয়	-9693
▁বোর্ডে	-9694
▁দূরবর্তী	-9695
▁নিরাপত্তা	-9696
▁মাদকদ্রব্য	-9697
▁চ্যালেঞ্জটি	-9698
▁সুপ্রতিষ্ঠিত	-9699
ia	-9700
কেস	-9701
ভাল	-9702
াইম	-9703
▁জও	-9704
▁তেজ	-9705
স্টের	-9706
▁অডিট	-9707
▁দ্রবী	-9708
▁জয়পুর	-9709
▁শর্মার	-9710
▁সুরেলা	-9711
কর্মীদের	-9712
▁কাটিয়ে	-9713
▁পুডুচের	-9714
▁মস্তিষ্	-9715
▁নরেন্দ্র	-9716
▁প্রেসক্র	-9717
▁প্রবেশিকা	-9718
▁বিধানসভায়	-9719
▁বাড়িওয়ালার	-9720
▁তালিকাভুক্তির	-9721
▁(&#	-9722
▁খরচ	-9723
▁রেট	-9724
ভাড়া	-9725
▁হ্রদ	-9726
▁করিতে	-9727
▁পড়লে	-9728
▁রেফার	-9729
▁সার্কিট	-9730
▁প্রজাতির	-9731
▁অটোমোবাইল	-9732
▁মাদ্রাজের	-9733
▁অভিযোগপত্রে	-9734
▁ইন্স্যুরেন্স	-9735
▁বিজ্ঞপ্তিগুলি	-9736
▁মুখ্যমন্ত্রীর	-9737
▁অ্যাকাউন্টগুলি	-9738
6-	-9739
ol	-9740
।]	-9741
এনআর	-9742
কূলে	-9743
ক্টি	-9744
তফসিল	-9745
থানাস	-9746
▁আকাশ	-9747
পরীক্ষা	-9748
▁আহতদের	-9749
▁ত্রুটির	-9750
▁প্রবর্তক	-9751
সুবিধাগুলি	-9752
▁মহারাষ্ট্রের	-9753
▁স্বাক্ষরকারী	-9754
%)	-9755
ফরম	-9756
বিশ	-9757
viii	-9758
বিতে	-9759
স্থল	-9760
▁স্নে	-9761
▁এইচএস	-9762
▁এডুকে	-9763
সম্পন্ন	-9764
বিচারকের	-9765
▁এনডিপিএস	-9766
▁গভীরভাবে	-9767
▁নথিগুলির	-9768
▁কারাগারের	-9769
▁আত্মহত্যার	-9770
▁অ্যাওয়ার্ড	-9771
▁ইন্টারন্যাশনাল	-9772
ডেম	-9773
ুসেন	-9774
টার্ন	-9775
পরিষে	-9776
▁এওআর	-9777
▁মোটেও	-9778
▁কয়লার	-9779
▁পাচ্ছি	-9780
▁অনলাইনে	-9781
▁রেস্তোঁ	-9782
▁ক্যান্টি	-9783
▁দাখিলগুলি	-9784
▁সম্পর্কেও	-9785
▁Se	-9786
▁বলব	-9787
▁এরূপ	-9788
▁কেসটি	-9789
▁টেম্প	-9790
▁অর্থবহ	-9791
▁সংহতকরণ	-9792
▁অপ্রাকৃত	-9793
▁দর্শানোর	-9794
▁বিষয়াদি	-9795
▁নির্দেশনার	-9796
▁পুনর্নির্মাণ	-9797
▁প্রক্রিয়াধীন	-9798
▁নম	-9799
▁এমস	-9800
▁মদন	-9801
▁সমাব	-9802
ভারতের	-9803
ুগোপাল	-9804
▁কোনটি	-9805
▁তুচ্ছ	-9806
▁অভিধান	-9807
▁আরটিআই	-9808
▁টেলিকম	-9809
▁প্রগতি	-9810
▁বাদীরা	-9811
▁স্পনসর	-9812
াস্থ্যের	-9813
▁গান্ধীর	-9814
▁প্রথমটি	-9815
▁সালিসির	-9816
▁বিচ্ছেদের	-9817
▁বিজ্ঞানের	-9818
ফৌজ	-9819
য়েড	-9820
▁রুট	-9821
▁সাদ	-9822
মান্ত	-9823
▁পর্ব	-9824
▁স্যান	-9825
▁আইনসুলভ	-9826
▁ইনসোফার	-9827
▁উদাহরণে	-9828
▁পিটিশনকে	-9829
▁রেজুলেশন	-9830
▁রেজোলিউশনের	-9831
ত্রা	-9832
▁নিট	-9833
তদন্ত	-9834
▁দীপক	-9835
পৃষ্ঠা	-9836
▁জামান	-9837
স্ফূর্ত	-9838
▁উদ্বোধ	-9839
▁পরিবহণ	-9840
▁ক্যাপ্ট	-9841
▁সমাবর্ত	-9842
সম্পর্কিত	-9843
▁আঘাতগুলি	-9844
▁নাগরিককে	-9845
▁প্রসিকিউটশন	-9846
▁প্রতিবেদনগুলি	-9847
্বই	-9848
;...	-9849
শস্য	-9850
▁হেড	-9851
ction	-9852
দিনের	-9853
▁টিভি	-9854
▁দম্প	-9855
▁কাপুর	-9856
▁দুর্গ	-9857
▁বাসের	-9858
▁রাকেশ	-9859
▁শিপিং	-9860
▁আটকানো	-9861
▁একীকরণ	-9862
▁নারীদের	-9863
▁যুবকদের	-9864
▁	-9865
র	-9866
া	-9867
্	-9868
ে	-9869
ি	-9870
ক	-9871
ন	-9872
ত	-9873
য	-9874
ব	-9875
স	-9876
প	-9877
ল	-9878
ম	-9879
দ	-9880
়	-9881
এ	-9882
ু	-9883
ট	-9884
হ	-9885
জ	-9886
আ	-9887
ো	-9888
ধ	-9889
শ	-9890
ী	-9891
ই	-9892
গ	-9893
ষ	-9894
অ	-9895
ছ	-9896
ং	-9897
,	-9898
।	-9899
চ	-9900
থ	-9901
ভ	-9902
ও	-9903
ণ	-9904
উ	-9905
ড	-9906
খ	-9907
ৃ	-9908
)	-9909
.	-9910
ূ	-9911
०	-9912
-	-9913
(	-9914
;	-9915
ফ	-9916
১	-9917
&	-9918
१	-9919
০	-9920
২	-9921
t	-9922
o	-9923
ঞ	-9924
ঠ	-9925
u	-9926
२	-9927
q	-9928
#	-9929
ঙ	-9930
৯	-9931
ঘ	-9932
:	-9933
/	-9934
i	-9935
ৈ	-9936
ঁ	-9937
0	-9938
৩	-9939
ৌ	-9940
३	-9941
e	-9942
৪	-9943
৫	-9944
a	-9945
৮	-9946
r	-9947
n	-9948
s	-9949
४	-9950
|	-9951
d	-9952
]	-9953
[	-9954
ঃ	-9955
५	-9956
ঝ	-9957
l	-9958
c	-9959
6	-9960
h	-9961
7	-9962
ৎ	-9963
६	-9964
?	-9965
p	-9966
%	-9967
v	-9968
m	-9969
A	-9970
I	-9971
७	-9972
f	-9973
“	-9974
b	-9975
g	-9976
८	-9977
y	-9978
w	-9979
C	-9980
x	-9981
S	-9982
R	-9983
९	-9984
P	-9985
1	-9986
N	-9987
E	-9988
k	-9989
3	-9990
_	-9991
X	-9992
9	-9993
