<unk>	0
<s>	0
</s>	0
UuRrLl	0
▁t	-0
he	-1
▁a	-2
in	-3
▁o	-4
▁the	-5
re	-6
on	-7
▁s	-8
er	-9
at	-10
▁#	-11
▁.	-12
en	-13
is	-14
▁of	-15
▁,	-16
nd	-17
▁w	-18
▁c	-19
it	-20
▁p	-21
es	-22
▁b	-23
al	-24
ed	-25
or	-26
an	-27
▁in	-28
▁f	-29
ion	-30
ar	-31
ou	-32
ing	-33
▁to	-34
▁m	-35
▁and	-36
ic	-37
▁d	-38
as	-39
▁h	-40
ent	-41
le	-42
ro	-43
▁th	-44
ct	-45
▁T	-46
▁I	-47
▁re	-48
▁n	-49
▁e	-50
os	-51
om	-52
▁be	-53
▁l	-54
il	-55
▁S	-56
▁A	-57
ve	-58
▁is	-59
ation	-60
us	-61
ut	-62
ot	-63
▁g	-64
ap	-65
ce	-66
im	-67
id	-68
▁C	-69
ur	-70
▁&	-71
ly	-72
▁for	-73
ad	-74
am	-75
▁The	-76
et	-77
▁on	-78
▁-	-79
▁P	-80
ver	-81
ol	-82
ch	-83
ay	-84
ment	-85
▁or	-86
ig	-87
ow	-88
▁that	-89
ir	-90
st	-91
▁M	-92
▁as	-93
▁pro	-94
el	-95
ul	-96
▁wh	-97
▁B	-98
▁con	-99
▁an	-100
▁st	-101
apos	-102
her	-103
▁it	-104
ith	-105
▁u	-106
ter	-107
ri	-108
ab	-109
▁al	-110
ate	-111
ect	-112
▁y	-113
ess	-114
▁H	-115
▁de	-116
ra	-117
▁with	-118
if	-119
▁su	-120
ge	-121
▁R	-122
▁by	-123
▁he	-124
res	-125
▁)	-126
▁(	-127
ers	-128
ist	-129
▁was	-130
od	-131
▁are	-132
▁D	-133
our	-134
qu	-135
ld	-136
▁com	-137
ity	-138
ak	-139
▁not	-140
▁v	-141
op	-142
▁ex	-143
▁G	-144
and	-145
em	-146
ill	-147
ere	-148
nt	-149
▁N	-150
iv	-151
ain	-152
est	-153
se	-154
ci	-155
um	-156
▁sh	-157
ant	-158
▁r	-159
▁at	-160
ive	-161
▁W	-162
▁this	-163
ort	-164
▁Ind	-165
ave	-166
ich	-167
art	-168
pp	-169
rom	-170
▁E	-171
ht	-172
ia	-173
ies	-174
ore	-175
ure	-176
▁which	-177
▁L	-178
end	-179
ac	-180
▁se	-181
▁from	-182
ud	-183
un	-184
all	-185
▁has	-186
▁have	-187
▁O	-188
ust	-189
▁F	-190
▁ne	-191
ould	-192
▁In	-193
▁his	-194
▁k	-195
▁le	-196
ous	-197
th	-198
▁ch	-199
ther	-200
ard	-201
▁you	-202
ions	-203
▁:	-204
▁we	-205
▁sp	-206
▁wor	-207
ind	-208
ag	-209
cc	-210
▁K	-211
▁all	-212
ome	-213
age	-214
▁int	-215
ated	-216
ight	-217
▁im	-218
ry	-219
▁India	-220
ance	-221
pt	-222
red	-223
ount	-224
▁comp	-225
▁so	-226
able	-227
▁pl	-228
ice	-229
▁j	-230
ans	-231
▁can	-232
ff	-233
▁J	-234
▁ad	-235
▁us	-236
ary	-237
rou	-238
nder	-239
ence	-240
▁ab	-241
▁U	-242
so	-243
ical	-244
over	-245
hi	-246
▁any	-247
ong	-248
av	-249
ear	-250
▁en	-251
▁app	-252
ast	-253
▁whe	-254
oc	-255
ult	-256
▁Th	-257
▁res	-258
▁cont	-259
▁dis	-260
ep	-261
ru	-262
og	-263
▁me	-264
▁un	-265
▁per	-266
▁other	-267
▁It	-268
pl	-269
▁under	-270
ell	-271
ction	-272
per	-273
ide	-274
▁its	-275
ial	-276
▁their	-277
▁will	-278
▁man	-279
▁been	-280
ish	-281
▁inc	-282
ost	-283
out	-284
▁one	-285
ame	-286
▁part	-287
du	-288
gh	-289
ations	-290
▁St	-291
vel	-292
▁;	-293
▁ag	-294
ok	-295
ub	-296
ie	-297
▁also	-298
ine	-299
ik	-300
▁tr	-301
iz	-302
ib	-303
▁had	-304
▁do	-305
ime	-306
▁there	-307
orm	-308
ang	-309
act	-310
▁V	-311
▁who	-312
ase	-313
ress	-314
overn	-315
ection	-316
▁imp	-317
▁up	-318
rit	-319
▁cl	-320
▁ar	-321
▁out	-322
▁but	-323
ood	-324
lic	-325
ian	-326
are	-327
ual	-328
▁were	-329
ire	-330
▁”	-331
ition	-332
ose	-333
cial	-334
very	-335
ail	-336
▁He	-337
ach	-338
▁such	-339
one	-340
▁ind	-341
▁am	-342
▁pe	-343
▁sub	-344
▁prov	-345
▁/	-346
ade	-347
▁“	-348
▁year	-349
ake	-350
ass	-351
ue	-352
▁they	-353
ourt	-354
▁acc	-355
▁comm	-356
erv	-357
aw	-358
▁Ch	-359
▁our	-360
ber	-361
▁may	-362
▁rel	-363
ign	-364
ord	-365
▁them	-366
ater	-367
aus	-368
ace	-369
ree	-370
ec	-371
overnment	-372
ident	-373
ory	-374
ational	-375
ens	-376
▁off	-377
▁Com	-378
ious	-379
ution	-380
▁qu	-381
▁no	-382
now	-383
▁time	-384
stit	-385
erson	-386
▁This	-387
▁pre	-388
ric	-389
ings	-390
▁cons	-391
iss	-392
ities	-393
▁ev	-394
form	-395
▁work	-396
ces	-397
▁him	-398
ike	-399
tern	-400
aid	-401
ople	-402
ee	-403
▁?	-404
▁tw	-405
ah	-406
▁te	-407
reat	-408
ack	-409
ove	-410
▁more	-411
hed	-412
▁bec	-413
▁should	-414
rib	-415
▁person	-416
▁would	-417
itt	-418
▁rec	-419
▁Y	-420
▁count	-421
▁reg	-422
▁%	-423
▁em	-424
▁As	-425
aj	-426
ays	-427
fter	-428
▁people	-429
▁only	-430
low	-431
▁po	-432
ject	-433
▁Act	-434
ip	-435
▁act	-436
int	-437
ath	-438
ild	-439
ause	-440
▁if	-441
velop	-442
▁pol	-443
▁ass	-444
▁some	-445
pe	-446
▁about	-447
▁know	-448
▁like	-449
▁into	-450
ments	-451
ite	-452
ound	-453
oy	-454
▁exp	-455
ook	-456
elf	-457
▁new	-458
▁over	-459
ied	-460
ates	-461
fere	-462
ile	-463
cess	-464
lect	-465
▁sc	-466
ond	-467
ank	-468
row	-469
ise	-470
amp	-471
▁form	-472
▁these	-473
▁Sh	-474
▁your	-475
ark	-476
fore	-477
ife	-478
▁when	-479
▁pr	-480
ced	-481
gr	-482
▁Comm	-483
▁made	-484
▁two	-485
▁dec	-486
ert	-487
ific	-488
▁sy	-489
me	-490
▁Con	-491
▁go	-492
ng	-493
▁Pro	-494
▁’	-495
▁shall	-496
▁pres	-497
▁Court	-498
ll	-499
▁her	-500
vers	-501
igh	-502
▁Government	-503
▁ob	-504
▁fe	-505
▁ro	-506
▁Indian	-507
ative	-508
old	-509
▁fir	-510
▁ac	-511
ally	-512
▁resp	-513
erm	-514
ism	-515
ublic	-516
▁than	-517
▁att	-518
ness	-519
▁rep	-520
ating	-521
ward	-522
▁bet	-523
▁trans	-524
▁develop	-525
▁ent	-526
▁Un	-527
rough	-528
ors	-529
uc	-530
▁State	-531
▁rem	-532
▁dif	-533
ful	-534
▁my	-535
▁being	-536
▁inv	-537
een	-538
ular	-539
▁said	-540
cy	-541
ener	-542
▁An	-543
▁through	-544
ov	-545
ission	-546
quot	-547
ower	-548
▁after	-549
uring	-550
ered	-551
▁But	-552
▁We	-553
▁eff	-554
led	-555
▁des	-556
▁cent	-557
gan	-558
▁produ	-559
▁where	-560
▁life	-561
wn	-562
▁pos	-563
▁sec	-564
ha	-565
▁And	-566
▁country	-567
ning	-568
▁years	-569
uth	-570
stem	-571
ty	-572
ax	-573
olog	-574
hy	-575
▁Pres	-576
li	-577
▁again	-578
ons	-579
lud	-580
ible	-581
als	-582
▁Pr	-583
▁first	-584
ink	-585
▁serv	-586
ob	-587
▁col	-588
ility	-589
▁So	-590
ature	-591
ne	-592
ural	-593
und	-594
ents	-595
ract	-596
▁ord	-597
▁right	-598
cept	-599
▁Bh	-600
▁very	-601
te	-602
▁law	-603
ange	-604
▁There	-605
▁set	-606
ft	-607
▁what	-608
▁ins	-609
arm	-610
fer	-611
▁Ex	-612
oth	-613
▁De	-614
▁world	-615
▁could	-616
up	-617
ati	-618
its	-619
lt	-620
▁need	-621
▁President	-622
ict	-623
▁get	-624
ision	-625
▁must	-626
▁call	-627
▁well	-628
▁op	-629
rap	-630
▁dist	-631
▁bl	-632
▁pur	-633
ght	-634
▁mem	-635
▁ed	-636
other	-637
▁num	-638
any	-639
con	-640
ided	-641
hen	-642
▁add	-643
▁Re	-644
▁bas	-645
▁giv	-646
ited	-647
▁system	-648
▁Ar	-649
▁case	-650
▁just	-651
urn	-652
air	-653
gt	-654
▁ra	-655
▁good	-656
pos	-657
aking	-658
▁spe	-659
ween	-660
▁Is	-661
▁ext	-662
les	-663
hip	-664
▁many	-665
▁mat	-666
ble	-667
▁before	-668
▁includ	-669
▁even	-670
▁requ	-671
ices	-672
▁cap	-673
▁between	-674
▁If	-675
▁char	-676
eth	-677
▁then	-678
▁writ	-679
iew	-680
ised	-681
▁fol	-682
▁used	-683
ily	-684
▁import	-685
stitut	-686
pport	-687
uch	-688
ures	-689
irect	-690
▁Hind	-691
inal	-692
ters	-693
own	-694
ral	-695
ough	-696
chn	-697
▁co	-698
▁ke	-699
▁tra	-700
▁min	-701
▁differe	-702
ren	-703
▁see	-704
▁make	-705
▁how	-706
ix	-707
round	-708
▁def	-709
▁public	-710
▁child	-711
▁own	-712
▁every	-713
▁var	-714
▁section	-715
▁Am	-716
ital	-717
▁long	-718
stitution	-719
▁val	-720
formation	-721
▁day	-722
▁inst	-723
ages	-724
▁mon	-725
▁most	-726
▁&#	-727
ries	-728
▁br	-729
ody	-730
ef	-731
▁inf	-732
▁use	-733
oun	-734
app	-735
ved	-736
▁end	-737
▁mod	-738
▁way	-739
▁lar	-740
▁sm	-741
iness	-742
uthor	-743
▁she	-744
▁gener	-745
▁They	-746
▁follow	-747
hes	-748
▁great	-749
▁i	-750
▁same	-751
ple	-752
▁state	-753
▁gr	-754
ouse	-755
ern	-756
▁equ	-757
ished	-758
▁power	-759
▁Min	-760
xt	-761
ivers	-762
▁car	-763
▁now	-764
aint	-765
▁For	-766
ety	-767
▁inter	-768
gal	-769
imes	-770
ruct	-771
ever	-772
ash	-773
▁conc	-774
▁hel	-775
▁process	-776
▁organ	-777
▁bu	-778
gram	-779
conom	-780
ick	-781
ven	-782
ament	-783
arli	-784
▁take	-785
▁disc	-786
▁place	-787
erest	-788
▁order	-789
▁pass	-790
ality	-791
lim	-792
▁number	-793
arch	-794
▁Cent	-795
▁fact	-796
▁adv	-797
▁You	-798
▁because	-799
▁hum	-800
▁av	-801
tic	-802
alth	-803
iod	-804
gg	-805
angu	-806
bers	-807
▁partic	-808
▁present	-809
icial	-810
▁Wh	-811
▁indust	-812
▁against	-813
▁during	-814
▁stud	-815
▁Ne	-816
▁fl	-817
▁development	-818
▁dem	-819
▁det	-820
▁help	-821
ention	-822
▁fam	-823
▁educ	-824
ana	-825
▁dep	-826
istr	-827
▁consid	-828
▁those	-829
▁back	-830
ired	-831
▁On	-832
▁did	-833
▁lead	-834
▁ret	-835
ined	-836
▁hand	-837
ork	-838
ars	-839
ified	-840
rop	-841
▁here	-842
ock	-843
▁different	-844
▁period	-845
▁interest	-846
▁med	-847
ck	-848
▁account	-849
ives	-850
ics	-851
▁occ	-852
get	-853
▁econom	-854
▁court	-855
ared	-856
ants	-857
min	-858
▁est	-859
ata	-860
ases	-861
ds	-862
▁sur	-863
ology	-864
▁tak	-865
▁grow	-866
man	-867
▁jud	-868
▁conf	-869
▁bus	-870
lish	-871
ting	-872
▁found	-873
ists	-874
ron	-875
▁Commission	-876
ted	-877
ner	-878
▁three	-879
▁iss	-880
▁fore	-881
▁Al	-882
▁To	-883
way	-884
▁term	-885
tc	-886
ained	-887
▁called	-888
▁Ad	-889
▁both	-890
▁effect	-891
▁does	-892
ten	-893
▁author	-894
▁down	-895
▁pay	-896
ale	-897
ges	-898
ides	-899
ather	-900
read	-901
▁mark	-902
ency	-903
ually	-904
▁fin	-905
ph	-906
ploy	-907
▁water	-908
▁cert	-909
▁bel	-910
▁cor	-911
▁comple	-912
▁&#9	-913
roup	-914
ues	-915
ull	-916
▁cre	-917
au	-918
▁respect	-919
oint	-920
RB	-921
▁etc	-922
▁government	-923
▁start	-924
▁rece	-925
▁given	-926
▁techn	-927
arn	-928
▁Mus	-929
riv	-930
▁National	-931
ES	-932
ister	-933
▁commun	-934
▁contin	-935
▁gu	-936
▁langu	-937
ination	-938
▁loc	-939
▁high	-940
▁name	-941
ros	-942
nce	-943
▁str	-944
▁poss	-945
▁ph	-946
▁Mah	-947
▁aff	-948
▁wom	-949
less	-950
ince	-951
▁direct	-952
▁view	-953
▁spec	-954
▁cond	-955
▁‘	-956
▁oper	-957
▁applic	-958
▁want	-959
▁much	-960
▁without	-961
icy	-962
ute	-963
not	-964
▁ref	-965
▁sect	-966
reme	-967
blem	-968
▁means	-969
ceed	-970
▁each	-971
▁important	-972
ici	-973
▁program	-974
▁del	-975
day	-976
▁gl	-977
▁information	-978
▁look	-979
▁let	-980
▁prev	-981
▁read	-982
▁fac	-983
iel	-984
▁human	-985
isions	-986
ool	-987
▁small	-988
▁book	-989
▁sim	-990
ines	-991
▁som	-992
▁amount	-993
here	-994
orts	-995
▁problem	-996
erg	-997
▁gre	-998
ya	-999
ari	-1000
▁within	-1001
▁body	-1002
lement	-1003
▁social	-1004
uk	-1005
▁sign	-1006
▁ty	-1007
▁All	-1008
rict	-1009
▁Le	-1010
pr	-1011
▁fun	-1012
▁avail	-1013
esh	-1014
▁business	-1015
ai	-1016
▁come	-1017
▁mar	-1018
▁prof	-1019
▁stand	-1020
ived	-1021
▁ser	-1022
▁No	-1023
▁polit	-1024
▁proper	-1025
▁..	-1026
▁cult	-1027
▁Rep	-1028
aving	-1029
▁incre	-1030
▁stre	-1031
ets	-1032
▁Eng	-1033
▁tem	-1034
iter	-1035
▁invest	-1036
▁point	-1037
▁relig	-1038
▁ide	-1039
crib	-1040
ized	-1041
▁various	-1042
por	-1043
ected	-1044
ror	-1045
ivid	-1046
▁vis	-1047
▁play	-1048
▁bank	-1049
▁happ	-1050
▁At	-1051
▁che	-1052
self	-1053
▁exper	-1054
af	-1055
lam	-1056
▁cle	-1057
▁large	-1058
ains	-1059
wards	-1060
arly	-1061
▁High	-1062
▁last	-1063
EN	-1064
▁fil	-1065
han	-1066
▁say	-1067
reed	-1068
▁sch	-1069
▁cr	-1070
▁think	-1071
ought	-1072
▁taken	-1073
rol	-1074
▁Muslim	-1075
▁support	-1076
med	-1077
▁employ	-1078
ining	-1079
▁another	-1080
ram	-1081
▁group	-1082
▁quest	-1083
▁soci	-1084
▁times	-1085
ession	-1086
▁dev	-1087
▁assess	-1088
▁education	-1089
▁cur	-1090
▁...	-1091
ways	-1092
ret	-1093
asht	-1094
▁known	-1095
▁!	-1096
ended	-1097
az	-1098
ason	-1099
ense	-1100
▁When	-1101
▁real	-1102
▁Ass	-1103
▁mind	-1104
▁Ben	-1105
▁while	-1106
ulation	-1107
▁Te	-1108
▁land	-1109
ically	-1110
ternal	-1111
▁open	-1112
▁activ	-1113
▁How	-1114
ried	-1115
▁result	-1116
▁level	-1117
▁company	-1118
▁Raj	-1119
har	-1120
stand	-1121
itions	-1122
ances	-1123
ferred	-1124
▁income	-1125
rial	-1126
▁ve	-1127
olution	-1128
▁Man	-1129
arliament	-1130
▁estab	-1131
▁Central	-1132
ize	-1133
▁prom	-1134
▁appro	-1135
work	-1136
▁find	-1137
▁Jud	-1138
▁prot	-1139
▁month	-1140
▁Shri	-1141
ves	-1142
▁move	-1143
▁going	-1144
irc	-1145
▁Sc	-1146
▁days	-1147
▁national	-1148
ething	-1149
eration	-1150
uss	-1151
▁allow	-1152
▁rev	-1153
riend	-1154
▁Off	-1155
ization	-1156
▁beh	-1157
▁elect	-1158
ased	-1159
▁cannot	-1160
▁ter	-1161
ged	-1162
▁wind	-1163
▁necess	-1164
ption	-1165
▁language	-1166
port	-1167
ledge	-1168
urther	-1169
▁non	-1170
ER	-1171
ium	-1172
▁OF	-1173
ternational	-1174
▁pop	-1175
▁These	-1176
land	-1177
ering	-1178
▁members	-1179
▁subject	-1180
▁health	-1181
ccess	-1182
▁give	-1183
lished	-1184
▁Ram	-1185
▁meet	-1186
▁ben	-1187
▁Dep	-1188
▁special	-1189
par	-1190
▁less	-1191
ording	-1192
▁old	-1193
▁lim	-1194
cil	-1195
atic	-1196
▁rest	-1197
▁Se	-1198
▁sci	-1199
▁leg	-1200
▁show	-1201
ential	-1202
omm	-1203
ately	-1204
▁{	-1205
▁particular	-1206
ued	-1207
▁policy	-1208
▁children	-1209
ability	-1210
▁pract	-1211
▁}	-1212
ug	-1213
▁bro	-1214
▁Or	-1215
▁—	-1216
▁div	-1217
▁four	-1218
▁Sing	-1219
▁class	-1220
▁Q	-1221
▁exist	-1222
onment	-1223
▁available	-1224
ivil	-1225
bs	-1226
ising	-1227
▁certain	-1228
▁What	-1229
ins	-1230
isation	-1231
ither	-1232
alf	-1233
ajor	-1234
▁sk	-1235
▁main	-1236
section	-1237
▁Res	-1238
▁death	-1239
ND	-1240
pect	-1241
ote	-1242
▁Brit	-1243
▁hist	-1244
▁came	-1245
▁common	-1246
ts	-1247
ks	-1248
ference	-1249
▁States	-1250
▁among	-1251
▁friend	-1252
ury	-1253
▁countries	-1254
▁regard	-1255
▁accept	-1256
▁cost	-1257
▁sit	-1258
▁today	-1259
▁sent	-1260
▁service	-1261
avan	-1262
▁Sup	-1263
▁PR	-1264
▁become	-1265
▁_	-1266
ode	-1267
inci	-1268
▁hig	-1269
ittee	-1270
▁fund	-1271
▁head	-1272
▁Rs	-1273
ator	-1274
▁Tr	-1275
put	-1276
ross	-1277
▁dra	-1278
▁too	-1279
oney	-1280
▁including	-1281
▁conn	-1282
oss	-1283
▁Del	-1284
ividual	-1285
att	-1286
▁lo	-1287
▁action	-1288
▁product	-1289
▁comput	-1290
ery	-1291
▁free	-1292
ification	-1293
▁sche	-1294
ran	-1295
▁war	-1296
▁whole	-1297
▁His	-1298
▁due	-1299
▁cases	-1300
itted	-1301
oard	-1302
isl	-1303
AT	-1304
▁par	-1305
ateg	-1306
ructure	-1307
iversity	-1308
duct	-1309
outh	-1310
▁self	-1311
▁matter	-1312
▁put	-1313
▁done	-1314
ministr	-1315
▁project	-1316
▁provisions	-1317
ON	-1318
▁services	-1319
▁met	-1320
ouncil	-1321
▁tre	-1322
▁object	-1323
▁Supreme	-1324
▁list	-1325
ware	-1326
▁She	-1327
na	-1328
▁family	-1329
▁area	-1330
▁care	-1331
▁Gand	-1332
▁rul	-1333
▁something	-1334
▁economic	-1335
▁trad	-1336
▁individual	-1337
cing	-1338
▁major	-1339
▁upon	-1340
▁tax	-1341
ala	-1342
uty	-1343
▁charact	-1344
▁x	-1345
▁respons	-1346
ently	-1347
▁build	-1348
▁Islam	-1349
▁political	-1350
▁vill	-1351
▁chang	-1352
▁belie	-1353
AR	-1354
ancial	-1355
▁sw	-1356
cl	-1357
otion	-1358
▁Parliament	-1359
▁society	-1360
▁tot	-1361
▁poet	-1362
idence	-1363
▁second	-1364
▁far	-1365
ield	-1366
▁women	-1367
▁Constitution	-1368
aim	-1369
gress	-1370
▁liter	-1371
▁Sec	-1372
▁success	-1373
▁value	-1374
▁Section	-1375
▁areas	-1376
▁provide	-1377
▁based	-1378
artment	-1379
ule	-1380
▁New	-1381
▁express	-1382
▁institut	-1383
irit	-1384
▁ask	-1385
▁const	-1386
▁capital	-1387
▁knowledge	-1388
▁plan	-1389
agement	-1390
ling	-1391
vir	-1392
▁food	-1393
▁men	-1394
▁supp	-1395
▁house	-1396
▁repres	-1397
alk	-1398
▁vi	-1399
pose	-1400
▁expl	-1401
▁rele	-1402
▁Delhi	-1403
eric	-1404
ending	-1405
▁keep	-1406
ID	-1407
sel	-1408
▁Pl	-1409
▁best	-1410
ticle	-1411
▁net	-1412
▁Gu	-1413
orth	-1414
ilities	-1415
▁nature	-1416
▁God	-1417
▁provided	-1418
▁circ	-1419
osed	-1420
ify	-1421
cies	-1422
soci	-1423
▁change	-1424
▁further	-1425
▁left	-1426
▁eng	-1427
▁making	-1428
ilit	-1429
▁concern	-1430
ples	-1431
▁words	-1432
▁Bhavan	-1433
urity	-1434
ys	-1435
ma	-1436
▁init	-1437
▁British	-1438
lection	-1439
ems	-1440
▁necessary	-1441
icult	-1442
▁Ag	-1443
▁away	-1444
▁benef	-1445
▁few	-1446
ricult	-1447
▁App	-1448
▁held	-1449
▁control	-1450
ourse	-1451
▁That	-1452
aining	-1453
ogn	-1454
eal	-1455
chie	-1456
icer	-1457
iqu	-1458
▁Rasht	-1459
▁reason	-1460
▁One	-1461
▁Gandhi	-1462
▁date	-1463
ittle	-1464
▁window	-1465
▁market	-1466
▁Singh	-1467
▁run	-1468
hys	-1469
▁always	-1470
▁English	-1471
▁orig	-1472
▁hold	-1473
▁kind	-1474
▁mill	-1475
▁having	-1476
▁heart	-1477
▁question	-1478
▁whether	-1479
▁still	-1480
ences	-1481
▁following	-1482
epend	-1483
▁sol	-1484
▁five	-1485
iding	-1486
▁thought	-1487
iver	-1488
▁full	-1489
▁el	-1490
▁proceed	-1491
▁school	-1492
▁spirit	-1493
▁mus	-1494
▁feel	-1495
ope	-1496
▁Hindi	-1497
vironment	-1498
▁age	-1499
▁Bengal	-1500
▁mater	-1501
▁required	-1502
▁foreign	-1503
rapati	-1504
ories	-1505
ior	-1506
▁Hindu	-1507
▁Reg	-1508
▁things	-1509
▁growth	-1510
adesh	-1511
▁young	-1512
▁address	-1513
▁sl	-1514
▁sector	-1515
mes	-1516
▁En	-1517
▁light	-1518
▁deal	-1519
ger	-1520
idd	-1521
thing	-1522
▁Rashtrapati	-1523
▁impro	-1524
▁little	-1525
emb	-1526
▁application	-1527
▁possible	-1528
▁mean	-1529
▁money	-1530
ENT	-1531
▁Cong	-1532
▁Council	-1533
▁Committee	-1534
ured	-1535
ards	-1536
▁data	-1537
iction	-1538
▁himself	-1539
▁Acc	-1540
▁above	-1541
▁ann	-1542
iving	-1543
▁return	-1544
▁bir	-1545
ats	-1546
▁perform	-1547
rent	-1548
▁sever	-1549
▁meas	-1550
▁total	-1551
▁later	-1552
ience	-1553
▁Law	-1554
▁achie	-1555
▁suff	-1556
▁sat	-1557
▁obs	-1558
▁beg	-1559
▁itself	-1560
▁After	-1561
▁contrib	-1562
▁purpose	-1563
▁Americ	-1564
ara	-1565
▁never	-1566
raph	-1567
▁report	-1568
orn	-1569
cribed	-1570
▁situ	-1571
▁Bank	-1572
▁Sub	-1573
▁exam	-1574
▁art	-1575
▁diff	-1576
▁clause	-1577
▁eas	-1578
ication	-1579
▁function	-1580
▁others	-1581
ises	-1582
ember	-1583
▁towards	-1584
ours	-1585
come	-1586
pportun	-1587
▁industry	-1588
io	-1589
▁love	-1590
▁plac	-1591
cious	-1592
▁Prov	-1593
AL	-1594
▁gra	-1595
ources	-1596
▁short	-1597
▁TH	-1598
▁position	-1599
▁local	-1600
▁record	-1601
1;	-1602
▁&#91;	-1603
▁several	-1604
ibility	-1605
egr	-1606
▁ple	-1607
▁mult	-1608
▁persons	-1609
▁rese	-1610
▁Congress	-1611
▁Ab	-1612
pecial	-1613
▁relations	-1614
▁princi	-1615
▁dise	-1616
▁ens	-1617
▁turn	-1618
▁propos	-1619
used	-1620
▁ii	-1621
asion	-1622
▁opportun	-1623
bit	-1624
▁Be	-1625
▁Pre	-1626
▁since	-1627
akes	-1628
ively	-1629
▁material	-1630
▁tru	-1631
▁character	-1632
▁RRB	-1633
▁around	-1634
▁stat	-1635
IN	-1636
▁civil	-1637
▁ri	-1638
uro	-1639
▁cred	-1640
▁represent	-1641
▁six	-1642
▁ident	-1643
ready	-1644
▁financial	-1645
▁air	-1646
▁es	-1647
▁er	-1648
▁understand	-1649
3;	-1650
▁&#93;	-1651
▁thir	-1652
▁sing	-1653
▁mess	-1654
istry	-1655
▁post	-1656
▁priv	-1657
▁complete	-1658
▁referred	-1659
▁maint	-1660
▁either	-1661
▁Pol	-1662
▁took	-1663
▁production	-1664
▁administr	-1665
▁ir	-1666
ocu	-1667
▁hard	-1668
▁appoint	-1669
▁Union	-1670
ees	-1671
▁streng	-1672
▁don	-1673
▁already	-1674
akh	-1675
▁difficult	-1676
ably	-1677
ample	-1678
▁decl	-1679
▁therefore	-1680
▁invol	-1681
▁region	-1682
▁Minister	-1683
▁office	-1684
▁course	-1685
reedom	-1686
ethod	-1687
▁type	-1688
▁treat	-1689
imal	-1690
▁plant	-1691
▁nat	-1692
▁progress	-1693
▁fail	-1694
selves	-1695
▁pat	-1696
lu	-1697
of	-1698
ggest	-1699
▁Me	-1700
▁dom	-1701
AN	-1702
osp	-1703
sh	-1704
▁LRB	-1705
▁home	-1706
▁quality	-1707
▁fa	-1708
erc	-1709
▁rate	-1710
ustom	-1711
▁higher	-1712
▁enc	-1713
ource	-1714
alc	-1715
▁With	-1716
igation	-1717
ann	-1718
▁sum	-1719
▁able	-1720
rought	-1721
der	-1722
ony	-1723
▁fut	-1724
▁however	-1725
▁inn	-1726
▁recogn	-1727
umb	-1728
▁claim	-1729
▁Gener	-1730
▁might	-1731
▁Z	-1732
▁flow	-1733
▁ut	-1734
▁phys	-1735
▁activities	-1736
els	-1737
▁better	-1738
▁bring	-1739
▁ey	-1740
aring	-1741
itional	-1742
oura	-1743
▁along	-1744
bsite	-1745
▁ground	-1746
▁lab	-1747
▁property	-1748
▁caus	-1749
▁suggest	-1750
▁However	-1751
oh	-1752
▁recomm	-1753
arat	-1754
▁Just	-1755
▁agree	-1756
▁demand	-1757
▁international	-1758
▁pet	-1759
▁ur	-1760
▁Dr	-1761
▁ver	-1762
▁received	-1763
▁side	-1764
▁University	-1765
most	-1766
▁Mr	-1767
▁method	-1768
▁Em	-1769
▁seen	-1770
▁equal	-1771
▁bo	-1772
arent	-1773
arth	-1774
▁force	-1775
▁Sp	-1776
empt	-1777
▁next	-1778
▁research	-1779
IT	-1780
▁abs	-1781
rodu	-1782
urs	-1783
▁pen	-1784
▁general	-1785
ta	-1786
▁ess	-1787
▁cause	-1788
▁Some	-1789
amb	-1790
jee	-1791
▁conv	-1792
hing	-1793
imum	-1794
▁Develop	-1795
▁went	-1796
▁occasion	-1797
abha	-1798
▁nation	-1799
▁Chi	-1800
atory	-1801
▁THE	-1802
▁appear	-1803
gether	-1804
▁together	-1805
▁strong	-1806
▁authority	-1807
▁discuss	-1808
itiz	-1809
▁mor	-1810
▁rights	-1811
rah	-1812
▁got	-1813
▁Serv	-1814
▁institutions	-1815
▁redu	-1816
▁ill	-1817
▁basis	-1818
ude	-1819
ita	-1820
udd	-1821
▁aut	-1822
ration	-1823
▁House	-1824
▁access	-1825
ving	-1826
▁Part	-1827
▁cell	-1828
▁history	-1829
acity	-1830
▁started	-1831
▁file	-1832
▁test	-1833
▁district	-1834
itation	-1835
▁future	-1836
▁became	-1837
▁proced	-1838
ke	-1839
▁implement	-1840
▁freedom	-1841
▁problems	-1842
▁thing	-1843
▁associ	-1844
▁website	-1845
▁though	-1846
▁big	-1847
ension	-1848
▁network	-1849
▁ten	-1850
▁goods	-1851
▁working	-1852
ened	-1853
▁ele	-1854
inary	-1855
▁docu	-1856
▁deep	-1857
omes	-1858
▁Department	-1859
▁computer	-1860
ruction	-1861
▁conduct	-1862
istan	-1863
▁party	-1864
▁ce	-1865
▁example	-1866
▁technology	-1867
ills	-1868
▁bre	-1869
▁super	-1870
▁Muk	-1871
▁related	-1872
ier	-1873
stitute	-1874
ION	-1875
▁initi	-1876
▁Sy	-1877
▁dest	-1878
cent	-1879
▁environment	-1880
▁Pradesh	-1881
▁often	-1882
▁written	-1883
medi	-1884
▁viol	-1885
▁matters	-1886
▁step	-1887
ached	-1888
▁determ	-1889
aster	-1890
▁Sw	-1891
▁agricult	-1892
side	-1893
▁sal	-1894
▁word	-1895
aper	-1896
▁live	-1897
▁unt	-1898
istic	-1899
ME	-1900
uf	-1901
ians	-1902
▁gen	-1903
▁key	-1904
▁once	-1905
▁months	-1906
IC	-1907
▁z	-1908
▁modern	-1909
▁Fin	-1910
▁Mad	-1911
▁di	-1912
▁entire	-1913
itor	-1914
itive	-1915
▁farm	-1916
rael	-1917
mitted	-1918
▁scheme	-1919
▁movement	-1920
▁sym	-1921
ched	-1922
riage	-1923
▁crit	-1924
anch	-1925
▁role	-1926
▁terms	-1927
▁try	-1928
▁Dis	-1929
une	-1930
ront	-1931
▁pub	-1932
▁design	-1933
aries	-1934
▁integr	-1935
▁security	-1936
▁conditions	-1937
▁considered	-1938
acy	-1939
▁Israel	-1940
▁relating	-1941
▁established	-1942
▁Chief	-1943
▁brought	-1944
▁Af	-1945
▁Im	-1946
▁independ	-1947
▁needs	-1948
▁pot	-1949
▁pow	-1950
ercial	-1951
mber	-1952
aged	-1953
▁mis	-1954
▁Col	-1955
lected	-1956
▁field	-1957
ji	-1958
ental	-1959
▁imm	-1960
aps	-1961
▁previous	-1962
▁Development	-1963
▁observ	-1964
▁leaders	-1965
▁separ	-1966
▁opp	-1967
▁energ	-1968
▁fel	-1969
▁paid	-1970
ina	-1971
▁top	-1972
▁deb	-1973
hile	-1974
amm	-1975
▁students	-1976
ring	-1977
▁vol	-1978
rish	-1979
▁manner	-1980
▁detail	-1981
OR	-1982
pur	-1983
▁link	-1984
▁norm	-1985
▁My	-1986
▁General	-1987
▁earli	-1988
▁text	-1989
▁Cont	-1990
rast	-1991
▁cro	-1992
▁close	-1993
▁Chand	-1994
▁Govern	-1995
▁line	-1996
▁mother	-1997
▁blood	-1998
▁Ministry	-1999
sequ	-2000
▁lib	-2001
▁Euro	-2002
▁PRES	-2003
▁true	-2004
▁member	-2005
▁creat	-2006
allen	-2007
▁sense	-2008
▁visit	-2009
erve	-2010
ane	-2011
▁saf	-2012
▁past	-2013
▁acqu	-2014
ev	-2015
isd	-2016
urance	-2017
▁religious	-2018
▁require	-2019
▁official	-2020
▁mov	-2021
▁Comp	-2022
atives	-2023
▁press	-2024
hold	-2025
oid	-2026
▁terror	-2027
▁sett	-2028
▁according	-2029
▁living	-2030
▁legal	-2031
ms	-2032
▁ded	-2033
obal	-2034
▁citiz	-2035
▁share	-2036
▁Europe	-2037
ait	-2038
▁dou	-2039
▁ful	-2040
▁story	-2041
▁decision	-2042
▁village	-2043
▁subst	-2044
▁community	-2045
cell	-2046
▁million	-2047
▁face	-2048
▁custom	-2049
oon	-2050
poses	-2051
ison	-2052
iminal	-2053
▁Now	-2054
ief	-2055
▁mach	-2056
▁consider	-2057
atch	-2058
▁except	-2059
unt	-2060
▁natural	-2061
▁Mukher	-2062
ape	-2063
ends	-2064
▁assist	-2065
▁industrial	-2066
▁rule	-2067
▁adop	-2068
▁learn	-2069
▁vari	-2070
▁cover	-2071
ott	-2072
▁Not	-2073
▁Sche	-2074
omb	-2075
▁particip	-2076
▁undert	-2077
action	-2078
▁parts	-2079
▁squ	-2080
ological	-2081
ali	-2082
▁Mukherjee	-2083
▁concerned	-2084
ung	-2085
▁personal	-2086
cri	-2087
▁cop	-2088
▁trade	-2089
▁passed	-2090
▁energy	-2091
▁purposes	-2092
▁exec	-2093
change	-2094
▁scient	-2095
▁grant	-2096
▁specified	-2097
acher	-2098
▁using	-2099
▁justice	-2100
▁Muslims	-2101
ches	-2102
▁study	-2103
▁opens	-2104
▁compet	-2105
▁Su	-2106
▁training	-2107
gu	-2108
sw	-2109
▁taking	-2110
ama	-2111
imate	-2112
▁loss	-2113
ler	-2114
▁Courts	-2115
IDENT	-2116
▁issue	-2117
▁democ	-2118
▁Ph	-2119
itness	-2120
▁rules	-2121
▁current	-2122
▁management	-2123
▁begin	-2124
▁Mar	-2125
▁provides	-2126
▁father	-2127
usion	-2128
ek	-2129
▁Par	-2130
IS	-2131
▁bea	-2132
ames	-2133
▁forward	-2134
▁United	-2135
krit	-2136
vant	-2137
▁peace	-2138
illed	-2139
▁legisl	-2140
▁institution	-2141
ship	-2142
▁Cor	-2143
ening	-2144
▁near	-2145
airs	-2146
▁*	-2147
mission	-2148
▁PRESIDENT	-2149
▁fr	-2150
▁transfer	-2151
▁early	-2152
ti	-2153
▁Cl	-2154
▁century	-2155
ners	-2156
▁sou	-2157
▁Direct	-2158
▁asked	-2159
ots	-2160
▁greater	-2161
▁pri	-2162
▁carry	-2163
▁External	-2164
irl	-2165
▁yet	-2166
ani	-2167
ient	-2168
▁religion	-2169
▁population	-2170
▁mag	-2171
▁Go	-2172
uted	-2173
▁developed	-2174
▁Div	-2175
▁credit	-2176
▁states	-2177
▁themselves	-2178
▁bra	-2179
asing	-2180
isf	-2181
▁neg	-2182
▁Pran	-2183
▁compl	-2184
▁Such	-2185
▁why	-2186
▁message	-2187
▁disease	-2188
line	-2189
ead	-2190
▁apply	-2191
▁Kh	-2192
▁influ	-2193
▁trib	-2194
▁condition	-2195
▁Board	-2196
▁establish	-2197
▁cast	-2198
▁port	-2199
▁Justice	-2200
▁outside	-2201
▁Co	-2202
▁experience	-2203
▁clear	-2204
▁Sabha	-2205
▁powers	-2206
▁allowed	-2207
vey	-2208
▁Ple	-2209
rest	-2210
▁building	-2211
▁Do	-2212
▁charge	-2213
ropri	-2214
▁really	-2215
ilt	-2216
▁introdu	-2217
ival	-2218
▁appeal	-2219
val	-2220
▁red	-2221
▁provision	-2222
▁assessment	-2223
▁consum	-2224
▁include	-2225
▁hy	-2226
▁pun	-2227
▁tell	-2228
▁jur	-2229
▁culture	-2230
▁mass	-2231
▁immedi	-2232
▁parties	-2233
mit	-2234
ask	-2235
▁ll	-2236
▁soon	-2237
▁Techn	-2238
▁literature	-2239
fully	-2240
▁books	-2241
▁programme	-2242
▁US	-2243
emed	-2244
inion	-2245
▁meeting	-2246
▁remov	-2247
aya	-2248
▁SC	-2249
▁stage	-2250
▁Pranab	-2251
ilar	-2252
ored	-2253
▁arr	-2254
ects	-2255
▁earlier	-2256
▁mention	-2257
ilk	-2258
▁anything	-2259
go	-2260
▁city	-2261
▁gave	-2262
▁Republic	-2263
▁original	-2264
▁Where	-2265
▁Pun	-2266
▁lay	-2267
avour	-2268
▁capacity	-2269
va	-2270
▁exc	-2271
▁prep	-2272
adi	-2273
▁aim	-2274
▁Public	-2275
ulated	-2276
orrow	-2277
▁writing	-2278
▁essential	-2279
cient	-2280
▁half	-2281
▁instru	-2282
▁structure	-2283
CT	-2284
▁Rec	-2285
▁boy	-2286
▁low	-2287
▁Int	-2288
▁signific	-2289
▁actually	-2290
ixed	-2291
ush	-2292
itable	-2293
eral	-2294
▁Let	-2295
▁changes	-2296
icient	-2297
▁exerc	-2298
▁whose	-2299
▁resources	-2300
▁assessee	-2301
▁Can	-2302
▁wide	-2303
iddle	-2304
▁challen	-2305
ousand	-2306
▁Our	-2307
▁almost	-2308
▁create	-2309
▁fall	-2310
▁bal	-2311
▁attack	-2312
eed	-2313
▁duty	-2314
bar	-2315
ift	-2316
▁payment	-2317
▁physical	-2318
aun	-2319
eness	-2320
▁aud	-2321
▁soft	-2322
lo	-2323
▁Information	-2324
chan	-2325
▁Jan	-2326
▁lat	-2327
▁medical	-2328
ctions	-2329
▁thus	-2330
ada	-2331
▁works	-2332
▁situation	-2333
▁Bill	-2334
▁talk	-2335
▁lear	-2336
jab	-2337
IA	-2338
▁achieve	-2339
▁eight	-2340
be	-2341
enty	-2342
▁typ	-2343
▁Please	-2344
▁news	-2345
▁bar	-2346
▁evidence	-2347
anskrit	-2348
▁decided	-2349
12	-2350
4;	-2351
124;	-2352
▁&#124;	-2353
▁X	-2354
let	-2355
▁Rel	-2356
▁police	-2357
▁issues	-2358
▁Brah	-2359
▁Arab	-2360
▁laws	-2361
▁article	-2362
▁woman	-2363
pecially	-2364
▁tele	-2365
▁Judge	-2366
▁products	-2367
▁enter	-2368
▁West	-2369
▁king	-2370
▁satisf	-2371
▁nothing	-2372
▁witness	-2373
ares	-2374
oot	-2375
abad	-2376
▁issued	-2377
men	-2378
itude	-2379
▁Leg	-2380
▁least	-2381
▁single	-2382
▁transl	-2383
oice	-2384
▁lot	-2385
▁ensure	-2386
▁global	-2387
ones	-2388
ams	-2389
▁innov	-2390
▁May	-2391
▁Even	-2392
▁efforts	-2393
▁vers	-2394
▁award	-2395
tax	-2396
▁IND	-2397
wise	-2398
anies	-2399
rote	-2400
estern	-2401
▁earth	-2402
▁thousand	-2403
▁son	-2404
▁indic	-2405
▁Pal	-2406
▁Apr	-2407
▁private	-2408
▁science	-2409
aff	-2410
▁dr	-2411
▁treatment	-2412
▁san	-2413
▁pati	-2414
osop	-2415
ufact	-2416
▁prim	-2417
▁letter	-2418
▁conscious	-2419
br	-2420
▁jo	-2421
▁fig	-2422
▁answ	-2423
▁till	-2424
▁sure	-2425
ew	-2426
▁specific	-2427
undred	-2428
▁job	-2429
▁wr	-2430
▁ever	-2431
▁makes	-2432
▁subs	-2433
▁profession	-2434
▁improve	-2435
▁created	-2436
▁Report	-2437
anda	-2438
▁II	-2439
▁While	-2440
augh	-2441
adem	-2442
icers	-2443
overed	-2444
▁enough	-2445
▁April	-2446
▁operation	-2447
▁inj	-2448
ategory	-2449
▁approach	-2450
▁kept	-2451
▁rural	-2452
▁especially	-2453
▁told	-2454
▁teacher	-2455
ging	-2456
▁obt	-2457
▁opportunity	-2458
▁proceedings	-2459
vi	-2460
▁Cons	-2461
▁Sanskrit	-2462
nam	-2463
▁univers	-2464
ators	-2465
▁continue	-2466
▁birth	-2467
▁wrote	-2468
▁tree	-2469
▁leave	-2470
▁front	-2471
uary	-2472
▁repl	-2473
▁serious	-2474
▁doing	-2475
ique	-2476
eng	-2477
ilosop	-2478
▁Trib	-2479
embly	-2480
▁increase	-2481
▁judicial	-2482
▁Pe	-2483
▁govern	-2484
▁investment	-2485
▁hon	-2486
▁behalf	-2487
▁procedure	-2488
▁Bar	-2489
▁published	-2490
▁insp	-2491
▁Op	-2492
itting	-2493
▁Ins	-2494
bed	-2495
for	-2496
▁depos	-2497
▁circum	-2498
ires	-2499
ores	-2500
estic	-2501
▁notice	-2502
▁Commissioner	-2503
▁South	-2504
▁temple	-2505
▁By	-2506
rect	-2507
▁sac	-2508
▁price	-2509
▁doub	-2510
▁road	-2511
▁check	-2512
▁Officer	-2513
▁bur	-2514
hood	-2515
▁path	-2516
▁meaning	-2517
pre	-2518
ourage	-2519
▁jurisd	-2520
▁hundred	-2521
▁belong	-2522
mir	-2523
agar	-2524
▁Mahar	-2525
▁providing	-2526
aves	-2527
▁Med	-2528
▁effective	-2529
▁night	-2530
▁Bi	-2531
▁Legisl	-2532
▁spread	-2533
▁economy	-2534
▁similar	-2535
▁pros	-2536
roll	-2537
▁vict	-2538
▁contract	-2539
▁den	-2540
▁third	-2541
▁poor	-2542
face	-2543
▁opinion	-2544
▁Mal	-2545
▁appropri	-2546
▁Dist	-2547
▁carried	-2548
apter	-2549
inate	-2550
▁truth	-2551
▁Gur	-2552
▁lakh	-2553
eech	-2554
▁seek	-2555
▁stru	-2556
▁Thus	-2557
▁Pak	-2558
▁tour	-2559
my	-2560
▁faith	-2561
▁stop	-2562
▁popular	-2563
ED	-2564
den	-2565
▁administration	-2566
▁forms	-2567
▁generally	-2568
▁Under	-2569
▁petition	-2570
eb	-2571
▁vide	-2572
▁quite	-2573
▁harm	-2574
▁contact	-2575
▁across	-2576
▁Article	-2577
iture	-2578
▁distrib	-2579
▁mere	-2580
play	-2581
▁manufact	-2582
▁Lord	-2583
encies	-2584
▁sens	-2585
rist	-2586
▁idea	-2587
IR	-2588
▁collect	-2589
▁anal	-2590
▁coop	-2591
sec	-2592
▁bill	-2593
▁prescribed	-2594
ying	-2595
▁List	-2596
▁March	-2597
rastructure	-2598
ili	-2599
▁ris	-2600
▁Punjab	-2601
utions	-2602
duc	-2603
▁hands	-2604
▁accord	-2605
▁East	-2606
▁percent	-2607
uck	-2608
▁reform	-2609
cle	-2610
gest	-2611
▁Income	-2612
▁stated	-2613
▁travel	-2614
ump	-2615
▁vir	-2616
▁courts	-2617
▁Chair	-2618
endment	-2619
ules	-2620
▁below	-2621
joy	-2622
▁relevant	-2623
▁source	-2624
▁Institute	-2625
▁size	-2626
▁Per	-2627
ban	-2628
ivity	-2629
▁During	-2630
▁draw	-2631
▁Your	-2632
▁places	-2633
▁International	-2634
rug	-2635
▁cut	-2636
▁practice	-2637
etimes	-2638
▁basic	-2639
▁central	-2640
▁Indust	-2641
▁cal	-2642
▁log	-2643
▁felt	-2644
▁Add	-2645
▁river	-2646
▁giving	-2647
▁importance	-2648
▁aspect	-2649
▁jurisdiction	-2650
▁emerg	-2651
▁sound	-2652
▁crop	-2653
▁jour	-2654
▁dri	-2655
racy	-2656
▁girl	-2657
▁parent	-2658
▁facilities	-2659
▁foc	-2660
hib	-2661
▁King	-2662
hest	-2663
ights	-2664
aka	-2665
▁comb	-2666
▁plus	-2667
▁write	-2668
▁Sur	-2669
▁god	-2670
uly	-2671
ulate	-2672
▁Pakistan	-2673
▁becomes	-2674
▁reach	-2675
arily	-2676
band	-2677
▁Spe	-2678
▁IN	-2679
AS	-2680
▁aware	-2681
by	-2682
pal	-2683
ouses	-2684
ex	-2685
earch	-2686
▁Trans	-2687
▁event	-2688
▁li	-2689
▁firm	-2690
▁commercial	-2691
osition	-2692
▁measures	-2693
▁note	-2694
▁accused	-2695
▁statement	-2696
▁coun	-2697
▁recommend	-2698
▁Governor	-2699
▁marriage	-2700
▁According	-2701
▁potential	-2702
dom	-2703
▁philosop	-2704
▁agreement	-2705
▁fast	-2706
istration	-2707
▁mer	-2708
▁Service	-2709
▁Afric	-2710
▁repe	-2711
▁bi	-2712
▁oil	-2713
▁strength	-2714
tt	-2715
▁dam	-2716
▁Calc	-2717
iry	-2718
raft	-2719
▁happy	-2720
▁circumst	-2721
▁criminal	-2722
utta	-2723
ender	-2724
▁comes	-2725
avi	-2726
▁citizens	-2727
▁wife	-2728
▁regular	-2729
aker	-2730
ously	-2731
▁began	-2732
gar	-2733
▁Pur	-2734
▁novel	-2735
adu	-2736
▁spiritual	-2737
▁Qu	-2738
▁Krish	-2739
leg	-2740
▁existing	-2741
▁enjoy	-2742
▁hope	-2743
▁followed	-2744
gy	-2745
ava	-2746
▁stri	-2747
▁prevent	-2748
ume	-2749
▁constitution	-2750
ned	-2751
haps	-2752
▁Day	-2753
▁exchange	-2754
▁room	-2755
▁Then	-2756
▁judge	-2757
▁–	-2758
▁disp	-2759
▁sun	-2760
▁pers	-2761
▁benefit	-2762
▁install	-2763
▁groups	-2764
▁usually	-2765
▁Mem	-2766
▁camp	-2767
▁whom	-2768
▁programmes	-2769
ney	-2770
ables	-2771
omp	-2772
▁brother	-2773
yond	-2774
▁gives	-2775
▁bound	-2776
▁punish	-2777
part	-2778
▁anim	-2779
▁simple	-2780
amental	-2781
▁activity	-2782
ancy	-2783
▁lower	-2784
▁responsible	-2785
▁prior	-2786
▁wrong	-2787
▁believe	-2788
▁und	-2789
▁wid	-2790
▁trust	-2791
▁bit	-2792
▁mot	-2793
ras	-2794
▁Educ	-2795
▁milit	-2796
▁space	-2797
▁attempt	-2798
▁particularly	-2799
▁existence	-2800
standing	-2801
▁emp	-2802
iles	-2803
▁until	-2804
▁film	-2805
▁Sm	-2806
▁concept	-2807
▁says	-2808
▁Som	-2809
▁Net	-2810
▁deg	-2811
▁Tra	-2812
▁Secret	-2813
nces	-2814
▁behind	-2815
▁increased	-2816
▁appropriate	-2817
▁offence	-2818
▁Sa	-2819
▁unit	-2820
equ	-2821
ingu	-2822
ox	-2823
▁lost	-2824
char	-2825
▁Wor	-2826
▁heav	-2827
▁doct	-2828
▁Every	-2829
▁request	-2830
ificate	-2831
▁American	-2832
▁sex	-2833
▁fair	-2834
▁prop	-2835
unal	-2836
▁cultural	-2837
▁soul	-2838
istered	-2839
utes	-2840
▁diss	-2841
iet	-2842
▁mom	-2843
▁mount	-2844
▁conver	-2845
▁rich	-2846
▁Technology	-2847
▁dire	-2848
▁mand	-2849
kar	-2850
body	-2851
▁beginning	-2852
enth	-2853
▁song	-2854
▁consist	-2855
alty	-2856
▁qual	-2857
▁poll	-2858
poration	-2859
amed	-2860
▁nor	-2861
▁lives	-2862
gn	-2863
▁Har	-2864
▁wall	-2865
▁Ma	-2866
ole	-2867
▁led	-2868
▁ep	-2869
▁der	-2870
▁forest	-2871
▁Calcutta	-2872
▁mut	-2873
▁stay	-2874
hem	-2875
rif	-2876
▁final	-2877
▁rather	-2878
uls	-2879
▁INDIA	-2880
▁occur	-2881
▁search	-2882
▁limited	-2883
ont	-2884
▁laun	-2885
new	-2886
▁Plan	-2887
isters	-2888
▁win	-2889
▁eyes	-2890
▁relation	-2891
▁circumstances	-2892
▁Mu	-2893
▁values	-2894
▁host	-2895
▁beyond	-2896
▁significant	-2897
▁crore	-2898
▁addition	-2899
ault	-2900
▁schol	-2901
▁TO	-2902
▁protection	-2903
▁feed	-2904
▁Lok	-2905
▁Code	-2906
▁histor	-2907
▁saw	-2908
▁appl	-2909
▁takes	-2910
sy	-2911
▁continued	-2912
use	-2913
▁systems	-2914
war	-2915
▁Sar	-2916
▁ideas	-2917
▁alone	-2918
▁projects	-2919
▁warm	-2920
▁adj	-2921
▁Bal	-2922
▁born	-2923
▁employment	-2924
▁Ak	-2925
▁built	-2926
▁remain	-2927
▁accepted	-2928
▁industries	-2929
iff	-2930
▁World	-2931
▁poetry	-2932
AY	-2933
▁expression	-2934
▁appointed	-2935
▁unf	-2936
though	-2937
▁learning	-2938
▁limit	-2939
▁Budd	-2940
▁seven	-2941
anation	-2942
ishes	-2943
atures	-2944
▁Author	-2945
etic	-2946
ober	-2947
ades	-2948
▁infrastructure	-2949
rick	-2950
▁continu	-2951
▁protect	-2952
▁IT	-2953
enditure	-2954
▁responsibility	-2955
ris	-2956
▁Pat	-2957
▁Gang	-2958
▁Prime	-2959
▁dig	-2960
▁banks	-2961
▁emb	-2962
reg	-2963
ouch	-2964
▁round	-2965
ze	-2966
▁trial	-2967
▁prob	-2968
ograph	-2969
iful	-2970
▁reference	-2971
ruit	-2972
▁Any	-2973
▁strugg	-2974
lege	-2975
▁Kash	-2976
▁Christ	-2977
▁From	-2978
▁arbit	-2979
ami	-2980
▁coming	-2981
▁Adv	-2982
rim	-2983
▁seed	-2984
▁cross	-2985
elling	-2986
▁mental	-2987
▁ways	-2988
▁getting	-2989
▁proposed	-2990
▁officer	-2991
▁respond	-2992
▁immediately	-2993
▁$	-2994
▁assistance	-2995
▁Bl	-2996
asons	-2997
▁Sat	-2998
ene	-2999
abor	-3000
▁setting	-3001
▁joint	-3002
rary	-3003
▁Bomb	-3004
▁sust	-3005
▁arrest	-3006
▁dre	-3007
▁har	-3008
▁includes	-3009
▁observed	-3010
vest	-3011
▁Tam	-3012
▁appre	-3013
utive	-3014
▁plants	-3015
▁normal	-3016
▁loan	-3017
▁increasing	-3018
ml	-3019
▁nar	-3020
▁music	-3021
▁wanted	-3022
anced	-3023
▁Many	-3024
▁Prof	-3025
ulations	-3026
▁details	-3027
▁Des	-3028
RI	-3029
▁broad	-3030
▁formed	-3031
▁direction	-3032
yle	-3033
▁functions	-3034
▁mechan	-3035
▁else	-3036
▁teach	-3037
miss	-3038
▁mentioned	-3039
▁cy	-3040
omen	-3041
▁drug	-3042
vention	-3043
▁territ	-3044
▁forces	-3045
▁Kashmir	-3046
▁officers	-3047
▁pal	-3048
ucle	-3049
▁aver	-3050
▁Ved	-3051
▁hosp	-3052
▁safe	-3053
abh	-3054
▁Expl	-3055
▁device	-3056
▁Guj	-3057
▁Program	-3058
▁produce	-3059
ellow	-3060
com	-3061
usp	-3062
▁dedu	-3063
▁lit	-3064
▁status	-3065
bol	-3066
▁engine	-3067
▁consideration	-3068
▁ste	-3069
ading	-3070
▁Centre	-3071
▁opt	-3072
umbai	-3073
▁perf	-3074
▁purs	-3075
▁attract	-3076
▁agricultural	-3077
▁violence	-3078
▁transport	-3079
▁strengt	-3080
rs	-3081
rant	-3082
▁secret	-3083
▁January	-3084
oke	-3085
uman	-3086
▁goes	-3087
▁document	-3088
▁instrument	-3089
▁ru	-3090
▁cele	-3091
▁presented	-3092
gment	-3093
oor	-3094
▁ancient	-3095
ley	-3096
▁sil	-3097
▁disci	-3098
▁Fund	-3099
▁fire	-3100
oted	-3101
▁famous	-3102
▁scale	-3103
▁connect	-3104
▁Bombay	-3105
▁prepared	-3106
where	-3107
ellect	-3108
▁speech	-3109
▁America	-3110
▁animals	-3111
▁fem	-3112
▁Sept	-3113
▁copy	-3114
▁paper	-3115
▁Sim	-3116
▁Education	-3117
ograp	-3118
▁workers	-3119
iva	-3120
▁North	-3121
▁companies	-3122
▁sn	-3123
know	-3124
▁relationship	-3125
osis	-3126
▁arch	-3127
▁medic	-3128
ales	-3129
▁refers	-3130
▁fight	-3131
cer	-3132
▁Aug	-3133
▁hus	-3134
ATION	-3135
▁included	-3136
▁max	-3137
▁languages	-3138
▁minus	-3139
▁receive	-3140
▁complaint	-3141
▁fear	-3142
▁longer	-3143
hic	-3144
anger	-3145
▁added	-3146
▁partners	-3147
▁Of	-3148
▁depend	-3149
▁active	-3150
▁connection	-3151
▁्	-3152
attle	-3153
inated	-3154
ikh	-3155
▁rad	-3156
ini	-3157
reen	-3158
▁Bab	-3159
icro	-3160
▁extent	-3161
▁week	-3162
elfare	-3163
▁otherwise	-3164
html	-3165
▁polic	-3166
▁correct	-3167
▁Fore	-3168
▁favour	-3169
▁wish	-3170
▁imag	-3171
NA	-3172
icit	-3173
inite	-3174
▁memory	-3175
asa	-3176
▁af	-3177
▁ign	-3178
▁obl	-3179
▁imper	-3180
▁page	-3181
UR	-3182
hru	-3183
nal	-3184
▁Oct	-3185
▁review	-3186
▁attention	-3187
PC	-3188
ton	-3189
▁user	-3190
▁accounts	-3191
▁fixed	-3192
▁involved	-3193
▁Provided	-3194
▁coll	-3195
▁pain	-3196
▁moment	-3197
▁base	-3198
▁arrange	-3199
▁break	-3200
▁Assembly	-3201
esides	-3202
▁Cr	-3203
▁Tur	-3204
▁tried	-3205
▁units	-3206
▁supply	-3207
enced	-3208
▁Bang	-3209
▁sold	-3210
▁caused	-3211
▁sea	-3212
▁directly	-3213
EE	-3214
hra	-3215
ensive	-3216
head	-3217
▁tool	-3218
▁twenty	-3219
▁produced	-3220
▁dram	-3221
uge	-3222
ratic	-3223
▁consult	-3224
▁black	-3225
▁interests	-3226
▁task	-3227
▁Tw	-3228
▁Work	-3229
road	-3230
▁beaut	-3231
▁display	-3232
IL	-3233
▁expenditure	-3234
▁hor	-3235
cember	-3236
▁funds	-3237
▁separate	-3238
▁friends	-3239
ey	-3240
aughter	-3241
stituted	-3242
▁Tax	-3243
▁ago	-3244
asure	-3245
▁stra	-3246
▁accordance	-3247
▁types	-3248
▁bad	-3249
▁Open	-3250
ites	-3251
▁pict	-3252
▁Chairman	-3253
▁scientific	-3254
▁Sri	-3255
▁labour	-3256
▁adopted	-3257
ext	-3258
▁Sch	-3259
la	-3260
▁June	-3261
▁speed	-3262
▁Hy	-3263
▁UN	-3264
▁Scheme	-3265
▁milk	-3266
▁inform	-3267
▁December	-3268
▁democracy	-3269
ticles	-3270
▁doubt	-3271
▁contained	-3272
itled	-3273
▁occup	-3274
▁heard	-3275
▁standard	-3276
▁appe	-3277
▁vision	-3278
▁domestic	-3279
hens	-3280
▁intellect	-3281
▁Utt	-3282
▁video	-3283
▁white	-3284
▁unless	-3285
gen	-3286
▁Well	-3287
▁Tamil	-3288
▁strateg	-3289
▁standards	-3290
ids	-3291
atever	-3292
▁Mumbai	-3293
▁Account	-3294
▁documents	-3295
▁Ac	-3296
▁tar	-3297
▁exercise	-3298
vere	-3299
▁pred	-3300
oting	-3301
▁assets	-3302
▁Whe	-3303
▁highest	-3304
▁CO	-3305
▁employees	-3306
iny	-3307
oly	-3308
▁reached	-3309
▁questions	-3310
▁Shah	-3311
▁Africa	-3312
▁husband	-3313
▁Er	-3314
▁clean	-3315
abled	-3316
▁software	-3317
▁Fir	-3318
▁complex	-3319
▁revolution	-3320
▁ant	-3321
▁fre	-3322
▁pie	-3323
▁ton	-3324
▁ge	-3325
▁contribution	-3326
▁Kal	-3327
▁laid	-3328
▁September	-3329
▁north	-3330
▁August	-3331
▁Mon	-3332
▁town	-3333
ternet	-3334
▁advance	-3335
que	-3336
osing	-3337
▁tur	-3338
add	-3339
▁likely	-3340
▁image	-3341
▁multip	-3342
▁summ	-3343
▁stor	-3344
▁Asia	-3345
▁print	-3346
▁Krishna	-3347
▁substant	-3348
▁Director	-3349
▁System	-3350
▁offer	-3351
▁beautiful	-3352
▁steps	-3353
▁October	-3354
▁Sam	-3355
▁easy	-3356
▁effort	-3357
▁Nehru	-3358
▁pack	-3359
to	-3360
phas	-3361
▁Civil	-3362
▁influence	-3363
▁dy	-3364
▁numbers	-3365
▁generation	-3366
▁context	-3367
▁distin	-3368
ellig	-3369
▁purch	-3370
▁Indians	-3371
▁performance	-3372
▁hours	-3373
▁insurance	-3374
▁reasons	-3375
▁species	-3376
ength	-3377
▁assign	-3378
▁pattern	-3379
▁Air	-3380
ager	-3381
▁District	-3382
▁bod	-3383
▁Char	-3384
▁furn	-3385
▁leading	-3386
▁export	-3387
▁technical	-3388
▁Its	-3389
▁fold	-3390
▁risk	-3391
▁quick	-3392
▁Category	-3393
▁Research	-3394
izing	-3395
▁weak	-3396
▁costs	-3397
▁placed	-3398
▁recent	-3399
cription	-3400
▁swe	-3401
has	-3402
▁south	-3403
▁largest	-3404
▁middle	-3405
▁majority	-3406
oll	-3407
uration	-3408
▁Bas	-3409
▁organisation	-3410
▁minor	-3411
▁connected	-3412
▁celebr	-3413
▁sometimes	-3414
▁Palest	-3415
▁Western	-3416
▁results	-3417
▁cells	-3418
▁orders	-3419
▁military	-3420
▁exceed	-3421
▁growing	-3422
▁Other	-3423
▁opportunities	-3424
▁policies	-3425
▁util	-3426
ressed	-3427
▁described	-3428
▁Ker	-3429
▁range	-3430
▁Judges	-3431
ora	-3432
▁frame	-3433
▁tradition	-3434
ground	-3435
▁answer	-3436
▁struggle	-3437
AC	-3438
▁unc	-3439
▁instead	-3440
iment	-3441
▁Mag	-3442
▁independence	-3443
▁implementation	-3444
▁charges	-3445
▁academ	-3446
▁threat	-3447
ING	-3448
▁educational	-3449
▁mob	-3450
▁Dev	-3451
verse	-3452
▁fully	-3453
▁consciousness	-3454
▁Red	-3455
▁tri	-3456
▁rail	-3457
▁Elect	-3458
rid	-3459
▁conflic	-3460
▁consequ	-3461
▁model	-3462
▁patient	-3463
olute	-3464
▁balance	-3465
▁affected	-3466
▁dark	-3467
onst	-3468
ailed	-3469
▁mode	-3470
▁temper	-3471
▁July	-3472
▁deemed	-3473
▁former	-3474
▁Val	-3475
ashtra	-3476
▁seems	-3477
▁egg	-3478
▁focus	-3479
▁green	-3480
▁Person	-3481
▁victim	-3482
▁nucle	-3483
▁Gh	-3484
▁Explanation	-3485
atha	-3486
▁Are	-3487
▁pan	-3488
▁ones	-3489
▁principle	-3490
▁mail	-3491
▁fort	-3492
▁quant	-3493
ipt	-3494
aught	-3495
▁origin	-3496
▁media	-3497
▁Prot	-3498
▁Hindus	-3499
▁measure	-3500
▁regarding	-3501
▁fine	-3502
ateral	-3503
▁NA	-3504
▁registered	-3505
pped	-3506
ysis	-3507
▁understanding	-3508
ional	-3509
▁China	-3510
▁team	-3511
▁inside	-3512
uff	-3513
▁Nove	-3514
cience	-3515
▁average	-3516
▁payable	-3517
▁gri	-3518
▁People	-3519
▁independent	-3520
▁Up	-3521
▁Chapter	-3522
▁Special	-3523
▁declared	-3524
▁selected	-3525
▁hab	-3526
▁vac	-3527
▁looking	-3528
asc	-3529
▁Tag	-3530
▁asset	-3531
pond	-3532
▁command	-3533
umn	-3534
rown	-3535
▁gold	-3536
ensation	-3537
raw	-3538
▁refer	-3539
▁perhaps	-3540
OS	-3541
ression	-3542
▁facilit	-3543
▁farmers	-3544
▁authorities	-3545
▁extra	-3546
resh	-3547
ields	-3548
▁guid	-3549
▁Islamic	-3550
▁November	-3551
▁Ob	-3552
▁cooperation	-3553
▁traditional	-3554
▁agriculture	-3555
asth	-3556
▁Def	-3557
▁animal	-3558
quiry	-3559
▁Rules	-3560
▁stock	-3561
porary	-3562
▁First	-3563
▁Gandhiji	-3564
▁associated	-3565
▁Uttar	-3566
▁content	-3567
▁nom	-3568
▁War	-3569
▁views	-3570
▁leader	-3571
inery	-3572
▁earn	-3573
EL	-3574
▁rap	-3575
▁sections	-3576
▁Management	-3577
▁Here	-3578
iciency	-3579
leep	-3580
▁dead	-3581
▁adequ	-3582
▁emphas	-3583
▁presence	-3584
▁advice	-3585
oga	-3586
ishn	-3587
with	-3588
▁lack	-3589
▁multi	-3590
▁useful	-3591
▁certificate	-3592
overy	-3593
▁youth	-3594
▁More	-3595
▁Therefore	-3596
▁uns	-3597
view	-3598
▁reve	-3599
▁length	-3600
▁creation	-3601
▁extended	-3602
ography	-3603
oms	-3604
ayan	-3605
▁eye	-3606
itle	-3607
order	-3608
▁prem	-3609
▁style	-3610
▁terrorism	-3611
▁advant	-3612
▁speak	-3613
▁located	-3614
pir	-3615
▁AND	-3616
▁Pand	-3617
▁autom	-3618
▁needed	-3619
ipur	-3620
▁Inf	-3621
▁larger	-3622
▁sentence	-3623
▁fra	-3624
▁divine	-3625
idy	-3626
uties	-3627
irm	-3628
▁rout	-3629
▁benefits	-3630
▁Division	-3631
ocation	-3632
▁centre	-3633
▁additional	-3634
aily	-3635
illing	-3636
▁hospital	-3637
▁Roy	-3638
▁fulf	-3639
▁San	-3640
aded	-3641
▁Feb	-3642
▁failed	-3643
▁symbol	-3644
▁Ter	-3645
▁committed	-3646
▁extreme	-3647
▁developing	-3648
▁hot	-3649
▁principles	-3650
oo	-3651
▁introduced	-3652
▁Corporation	-3653
▁Ur	-3654
▁won	-3655
ula	-3656
▁shown	-3657
▁difference	-3658
▁IS	-3659
▁drink	-3660
▁Policy	-3661
▁perman	-3662
▁schemes	-3663
uled	-3664
▁iii	-3665
▁calc	-3666
▁Project	-3667
hat	-3668
▁Aut	-3669
arant	-3670
▁ball	-3671
overty	-3672
dule	-3673
▁expressed	-3674
▁Most	-3675
▁fest	-3676
▁stories	-3677
▁ON	-3678
enior	-3679
▁registration	-3680
▁Excell	-3681
▁enact	-3682
nes	-3683
▁Rem	-3684
▁chem	-3685
▁Chandra	-3686
▁promote	-3687
AP	-3688
▁Ge	-3689
▁Child	-3690
▁Bhag	-3691
▁announ	-3692
▁wealth	-3693
▁successful	-3694
▁Cap	-3695
▁namely	-3696
▁objective	-3697
arma	-3698
▁Conference	-3699
we	-3700
▁Set	-3701
icate	-3702
▁Organ	-3703
▁thinking	-3704
▁everything	-3705
▁cash	-3706
oured	-3707
▁levels	-3708
▁someone	-3709
itis	-3710
▁Kum	-3711
apers	-3712
▁rise	-3713
ervation	-3714
icated	-3715
▁covered	-3716
▁extend	-3717
▁pric	-3718
▁chann	-3719
▁fif	-3720
▁examination	-3721
ially	-3722
vious	-3723
▁penalty	-3724
ga	-3725
iciary	-3726
▁danger	-3727
▁England	-3728
▁operations	-3729
▁Germ	-3730
▁played	-3731
▁appreci	-3732
ops	-3733
pper	-3734
▁names	-3735
▁poems	-3736
▁processing	-3737
▁shows	-3738
▁villages	-3739
▁mal	-3740
▁Secretary	-3741
▁item	-3742
▁commit	-3743
▁contains	-3744
▁soil	-3745
▁graph	-3746
▁AT	-3747
light	-3748
uation	-3749
ows	-3750
ague	-3751
▁virt	-3752
▁Maharashtra	-3753
tion	-3754
ifying	-3755
▁Tribunal	-3756
▁construction	-3757
▁lines	-3758
▁Us	-3759
▁wel	-3760
▁ideal	-3761
usive	-3762
▁Iran	-3763
▁Dh	-3764
▁minimum	-3765
▁phot	-3766
▁Bec	-3767
▁sale	-3768
▁machine	-3769
▁storage	-3770
force	-3771
▁resident	-3772
▁collection	-3773
▁merely	-3774
▁Mo	-3775
IV	-3776
adh	-3777
aches	-3778
▁walk	-3779
ahar	-3780
▁tal	-3781
venue	-3782
▁friendly	-3783
▁Mod	-3784
▁Nar	-3785
▁judges	-3786
▁constant	-3787
▁running	-3788
▁temples	-3789
ube	-3790
▁changed	-3791
ruary	-3792
▁skin	-3793
▁variety	-3794
▁entitled	-3795
dden	-3796
itch	-3797
▁bed	-3798
▁weight	-3799
▁publication	-3800
▁grand	-3801
cribe	-3802
▁surface	-3803
▁pray	-3804
ript	-3805
▁easily	-3806
▁unique	-3807
▁parents	-3808
▁lic	-3809
aji	-3810
aging	-3811
ronic	-3812
▁ship	-3813
▁vital	-3814
▁contem	-3815
▁raised	-3816
omic	-3817
eties	-3818
▁worship	-3819
▁department	-3820
▁cat	-3821
▁dispos	-3822
▁remark	-3823
▁prosper	-3824
▁Tagore	-3825
▁impact	-3826
▁primary	-3827
rated	-3828
▁external	-3829
unic	-3830
word	-3831
▁code	-3832
▁site	-3833
▁morning	-3834
▁February	-3835
lands	-3836
▁cand	-3837
iverse	-3838
▁block	-3839
▁desire	-3840
▁relief	-3841
▁engaged	-3842
olid	-3843
▁bow	-3844
ertain	-3845
▁square	-3846
▁session	-3847
▁Di	-3848
▁gets	-3849
▁files	-3850
▁Kerala	-3851
▁defined	-3852
ero	-3853
▁Inter	-3854
▁chief	-3855
▁maximum	-3856
▁Authority	-3857
ighb	-3858
enses	-3859
▁unity	-3860
▁Services	-3861
▁Judicial	-3862
▁expected	-3863
▁Fl	-3864
▁female	-3865
▁looked	-3866
rows	-3867
▁Second	-3868
▁remains	-3869
▁resolution	-3870
▁BC	-3871
▁vehic	-3872
omy	-3873
▁scholars	-3874
▁greet	-3875
▁withd	-3876
abilities	-3877
▁European	-3878
▁Nep	-3879
▁board	-3880
hab	-3881
aled	-3882
pees	-3883
▁critic	-3884
▁duties	-3885
▁wait	-3886
▁element	-3887
▁elements	-3888
▁Why	-3889
▁Since	-3890
▁equip	-3891
▁Ah	-3892
aken	-3893
▁Inst	-3894
▁Their	-3895
▁filed	-3896
▁shares	-3897
▁Finance	-3898
▁Agricult	-3899
ilateral	-3900
▁philosophy	-3901
▁excell	-3902
▁Also	-3903
▁slow	-3904
▁ready	-3905
▁fundamental	-3906
▁cere	-3907
▁neighb	-3908
▁Sir	-3909
▁convey	-3910
▁organization	-3911
prene	-3912
▁sup	-3913
▁enable	-3914
inet	-3915
▁cho	-3916
▁individuals	-3917
iting	-3918
▁rain	-3919
▁valid	-3920
▁Administr	-3921
▁Though	-3922
▁poverty	-3923
▁indeed	-3924
enance	-3925
▁nations	-3926
onse	-3927
▁Mark	-3928
▁whatever	-3929
rav	-3930
▁cou	-3931
▁card	-3932
reprene	-3933
sych	-3934
▁trying	-3935
▁communication	-3936
uries	-3937
▁acts	-3938
anes	-3939
▁error	-3940
▁prosec	-3941
▁feeling	-3942
heduled	-3943
▁saying	-3944
▁studies	-3945
▁magn	-3946
▁moral	-3947
▁annual	-3948
▁expect	-3949
▁ast	-3950
▁medium	-3951
▁enterpr	-3952
▁applications	-3953
▁discipl	-3954
▁pure	-3955
▁series	-3956
▁Because	-3957
▁throughout	-3958
▁flu	-3959
ilies	-3960
▁feet	-3961
▁send	-3962
▁reading	-3963
▁minister	-3964
II	-3965
hya	-3966
▁cultiv	-3967
▁Soci	-3968
▁susp	-3969
▁facts	-3970
aja	-3971
▁excl	-3972
▁ST	-3973
▁ult	-3974
▁items	-3975
▁affect	-3976
▁turned	-3977
▁requires	-3978
▁sacrif	-3979
▁integral	-3980
▁Lim	-3981
▁Panch	-3982
▁frequ	-3983
▁Gujarat	-3984
oti	-3985
▁points	-3986
▁Princi	-3987
▁leaves	-3988
▁granted	-3989
▁articles	-3990
▁Governments	-3991
erative	-3992
uit	-3993
▁entry	-3994
▁degree	-3995
atma	-3996
ivery	-3997
ests	-3998
▁rapid	-3999
▁aspects	-4000
▁Amendment	-4001
▁prison	-4002
▁Members	-4003
omet	-4004
▁compon	-4005
aviour	-4006
▁divided	-4007
▁removal	-4008
BI	-4009
aksh	-4010
▁sem	-4011
▁Karn	-4012
▁mainly	-4013
istics	-4014
▁sudden	-4015
ferences	-4016
▁km	-4017
▁Ant	-4018
▁suc	-4019
eless	-4020
▁Social	-4021
▁pressure	-4022
▁touch	-4023
▁practices	-4024
▁methods	-4025
oud	-4026
fort	-4027
▁Ann	-4028
▁Tod	-4029
▁suit	-4030
▁agency	-4031
▁powerful	-4032
▁Art	-4033
▁causes	-4034
▁dischar	-4035
▁incident	-4036
oming	-4037
▁suggested	-4038
▁mur	-4039
ped	-4040
ogle	-4041
▁quar	-4042
essing	-4043
▁Dem	-4044
ja	-4045
osh	-4046
▁receipt	-4047
▁incl	-4048
ricket	-4049
aug	-4050
▁impl	-4051
▁delay	-4052
▁defence	-4053
lex	-4054
▁Aud	-4055
▁literary	-4056
rate	-4057
lying	-4058
▁fert	-4059
▁foot	-4060
▁Langu	-4061
▁fields	-4062
▁safety	-4063
▁vast	-4064
▁offered	-4065
▁Guru	-4066
▁Rama	-4067
▁bear	-4068
▁requirements	-4069
rance	-4070
ousing	-4071
▁target	-4072
▁Pan	-4073
▁anti	-4074
▁rare	-4075
▁tend	-4076
▁nut	-4077
cript	-4078
▁staff	-4079
▁electric	-4080
▁tiss	-4081
▁belief	-4082
▁adequate	-4083
▁intellig	-4084
▁shape	-4085
▁Official	-4086
▁confident	-4087
▁daughter	-4088
▁daily	-4089
▁meant	-4090
▁contain	-4091
▁fee	-4092
▁sav	-4093
▁welfare	-4094
▁distribution	-4095
▁PRO	-4096
▁upd	-4097
▁universal	-4098
▁Her	-4099
▁wond	-4100
▁distance	-4101
▁gone	-4102
▁named	-4103
▁succeed	-4104
▁sides	-4105
▁schools	-4106
▁promotion	-4107
ishing	-4108
▁completed	-4109
anas	-4110
▁Stand	-4111
oph	-4112
▁convers	-4113
▁Ed	-4114
enture	-4115
▁Bharat	-4116
▁Vis	-4117
▁Aust	-4118
▁male	-4119
▁Associ	-4120
▁Health	-4121
▁follows	-4122
ps	-4123
▁lived	-4124
▁cities	-4125
▁wishes	-4126
▁Akbar	-4127
iring	-4128
▁destro	-4129
artments	-4130
▁discussion	-4131
vis	-4132
▁Out	-4133
actions	-4134
nel	-4135
asthan	-4136
▁factors	-4137
▁treated	-4138
▁teachers	-4139
▁construct	-4140
▁trou	-4141
▁Whether	-4142
▁confidence	-4143
▁eat	-4144
imately	-4145
chand	-4146
▁expand	-4147
▁learned	-4148
▁CH	-4149
▁School	-4150
olved	-4151
porate	-4152
aign	-4153
mosp	-4154
▁sectors	-4155
▁election	-4156
▁Car	-4157
▁Jap	-4158
▁caste	-4159
▁regional	-4160
▁rock	-4161
ils	-4162
una	-4163
▁knew	-4164
▁highly	-4165
▁Palestin	-4166
athy	-4167
▁establishment	-4168
▁argu	-4169
▁events	-4170
▁association	-4171
▁bab	-4172
atter	-4173
▁Bengali	-4174
▁root	-4175
▁fresh	-4176
▁altern	-4177
▁petitioner	-4178
▁esc	-4179
respond	-4180
▁actual	-4181
▁beauty	-4182
▁returned	-4183
▁Ro	-4184
▁worked	-4185
▁appears	-4186
▁maintain	-4187
▁positive	-4188
▁serve	-4189
▁figure	-4190
▁volunt	-4191
▁Mahatma	-4192
▁believed	-4193
▁remember	-4194
▁Sal	-4195
▁pra	-4196
▁Only	-4197
▁died	-4198
▁encoura	-4199
▁Kol	-4200
▁songs	-4201
▁script	-4202
▁avoid	-4203
▁master	-4204
izations	-4205
▁intellectual	-4206
▁gas	-4207
▁mid	-4208
urate	-4209
▁Himal	-4210
▁veget	-4211
▁bodies	-4212
▁reality	-4213
▁pleasure	-4214
cher	-4215
▁capt	-4216
▁Group	-4217
▁academic	-4218
▁machinery	-4219
▁strengthen	-4220
RA	-4221
▁door	-4222
▁abroad	-4223
▁option	-4224
▁absolute	-4225
▁insects	-4226
▁cru	-4227
▁Error	-4228
▁Inc	-4229
▁color	-4230
▁probably	-4231
ken	-4232
▁version	-4233
▁internal	-4234
▁bond	-4235
▁station	-4236
▁diseases	-4237
▁decisions	-4238
▁determined	-4239
▁prec	-4240
▁rupees	-4241
▁punishment	-4242
▁heavy	-4243
▁nuclear	-4244
▁sleep	-4245
▁families	-4246
▁pil	-4247
▁partnership	-4248
▁bri	-4249
▁Russ	-4250
▁failure	-4251
umer	-4252
▁Khan	-4253
▁dial	-4254
ception	-4255
▁branch	-4256
▁opening	-4257
ties	-4258
▁proved	-4259
▁Besides	-4260
▁Excellency	-4261
set	-4262
▁Post	-4263
▁newsp	-4264
▁atmosp	-4265
▁clearly	-4266
▁Google	-4267
▁arri	-4268
▁carrying	-4269
ARD	-4270
▁Nav	-4271
▁dim	-4272
▁joy	-4273
udget	-4274
▁agreed	-4275
urt	-4276
▁rank	-4277
▁dated	-4278
▁investigation	-4279
ming	-4280
cast	-4281
▁agencies	-4282
▁buy	-4283
▁keeping	-4284
ae	-4285
yan	-4286
▁id	-4287
ifest	-4288
▁Programme	-4289
ET	-4290
the	-4291
▁table	-4292
▁borrow	-4293
▁response	-4294
▁happened	-4295
▁army	-4296
▁goal	-4297
▁late	-4298
▁default	-4299
OL	-4300
isms	-4301
▁Bel	-4302
▁voice	-4303
isc	-4304
▁Today	-4305
▁prepar	-4306
▁thereof	-4307
▁delivery	-4308
iling	-4309
▁mutual	-4310
▁innovation	-4311
ologies	-4312
▁experi	-4313
▁conflict	-4314
▁sufficient	-4315
▁aw	-4316
▁cold	-4317
▁estim	-4318
▁Further	-4319
▁controll	-4320
▁recommended	-4321
rupt	-4322
▁Ham	-4323
putes	-4324
▁Form	-4325
▁Buddh	-4326
▁distingu	-4327
▁Legislative	-4328
cip	-4329
▁enem	-4330
▁Assam	-4331
▁Assist	-4332
▁attend	-4333
▁season	-4334
▁dealing	-4335
▁compensation	-4336
iance	-4337
stitu	-4338
▁passing	-4339
▁deduction	-4340
ray	-4341
▁Power	-4342
▁grass	-4343
▁candid	-4344
▁Sah	-4345
erted	-4346
▁amongst	-4347
▁accident	-4348
AG	-4349
▁Ira	-4350
▁hero	-4351
▁moon	-4352
▁Party	-4353
▁input	-4354
▁profit	-4355
▁reasonable	-4356
▁constituted	-4357
▁Proced	-4358
▁suitable	-4359
▁leadership	-4360
eria	-4361
rust	-4362
▁Bihar	-4363
▁Rajya	-4364
▁select	-4365
▁officials	-4366
▁Independ	-4367
arian	-4368
▁launched	-4369
▁Rajasthan	-4370
ira	-4371
▁doctor	-4372
▁Men	-4373
▁urban	-4374
▁happen	-4375
▁reduced	-4376
▁chemical	-4377
▁features	-4378
▁colour	-4379
▁advantage	-4380
▁Moh	-4381
elines	-4382
▁completely	-4383
▁Pet	-4384
▁College	-4385
▁applicable	-4386
aul	-4387
▁miss	-4388
rehens	-4389
▁draft	-4390
▁identity	-4391
▁ordinary	-4392
ura	-4393
▁Kar	-4394
▁fal	-4395
eks	-4396
▁adult	-4397
▁instance	-4398
▁encourage	-4399
EM	-4400
▁shr	-4401
inter	-4402
▁wild	-4403
▁Company	-4404
▁correspond	-4405
ataka	-4406
▁latter	-4407
▁dry	-4408
▁compr	-4409
▁Commercial	-4410
▁Cur	-4411
itect	-4412
▁Two	-4413
▁seem	-4414
vision	-4415
▁Ra	-4416
▁wood	-4417
▁Which	-4418
▁Andhra	-4419
EC	-4420
asm	-4421
vert	-4422
▁prices	-4423
▁Ev	-4424
▁Who	-4425
rench	-4426
▁instruct	-4427
▁planning	-4428
▁parliament	-4429
ply	-4430
▁Iraq	-4431
▁entered	-4432
▁box	-4433
▁crops	-4434
▁Pen	-4435
▁Both	-4436
▁mist	-4437
▁poem	-4438
▁hearing	-4439
▁subsequ	-4440
▁hour	-4441
▁Water	-4442
▁appell	-4443
▁Science	-4444
▁MS	-4445
▁Aff	-4446
▁Him	-4447
achal	-4448
▁guarant	-4449
het	-4450
▁stone	-4451
▁Another	-4452
▁administrative	-4453
ads	-4454
▁desp	-4455
▁concl	-4456
▁reserv	-4457
▁spent	-4458
▁excess	-4459
▁server	-4460
▁elected	-4461
▁Environment	-4462
▁recommendations	-4463
▁Att	-4464
▁fit	-4465
pective	-4466
▁reports	-4467
▁critical	-4468
▁permanent	-4469
▁liqu	-4470
▁counter	-4471
▁remained	-4472
▁assum	-4473
▁paint	-4474
▁initiatives	-4475
▁applied	-4476
▁centres	-4477
iers	-4478
▁materials	-4479
▁tom	-4480
▁motion	-4481
▁Ay	-4482
ancing	-4483
▁negative	-4484
▁supported	-4485
▁Lib	-4486
▁sand	-4487
▁breed	-4488
▁mouth	-4489
grat	-4490
▁Kumar	-4491
atically	-4492
▁notes	-4493
▁holding	-4494
▁approved	-4495
▁president	-4496
▁reject	-4497
▁inner	-4498
▁psych	-4499
▁watch	-4500
ika	-4501
ius	-4502
▁Port	-4503
▁drawn	-4504
▁incor	-4505
▁released	-4506
mark	-4507
▁agg	-4508
▁Prem	-4509
▁honour	-4510
▁achieved	-4511
▁characters	-4512
▁fat	-4513
▁latest	-4514
▁Speaker	-4515
▁aid	-4516
ented	-4517
▁nearly	-4518
▁sustain	-4519
▁Financial	-4520
▁governance	-4521
▁professional	-4522
▁Yoga	-4523
▁output	-4524
▁pip	-4525
anges	-4526
▁cook	-4527
▁explo	-4528
TER	-4529
▁moved	-4530
▁trees	-4531
▁surround	-4532
CC	-4533
jud	-4534
after	-4535
ittees	-4536
▁fruit	-4537
odes	-4538
▁ang	-4539
▁ende	-4540
▁damage	-4541
▁sanction	-4542
▁congrat	-4543
▁Bus	-4544
rency	-4545
▁greetings	-4546
▁Will	-4547
▁leaf	-4548
▁title	-4549
isations	-4550
▁sources	-4551
▁subjects	-4552
uel	-4553
▁Non	-4554
▁web	-4555
▁Office	-4556
▁privile	-4557
▁surv	-4558
▁appointment	-4559
▁participation	-4560
oj	-4561
lete	-4562
▁campaign	-4563
isition	-4564
▁mission	-4565
▁entreprene	-4566
ym	-4567
▁numer	-4568
ondon	-4569
▁sort	-4570
cean	-4571
igible	-4572
▁Human	-4573
▁plays	-4574
▁perfect	-4575
▁politics	-4576
▁interesting	-4577
▁undertaking	-4578
board	-4579
▁fram	-4580
▁worth	-4581
aks	-4582
udi	-4583
▁ec	-4584
▁territory	-4585
RO	-4586
key	-4587
▁iv	-4588
▁hear	-4589
▁sell	-4590
▁recorded	-4591
▁historical	-4592
era	-4593
▁removed	-4594
bal	-4595
pping	-4596
▁Econom	-4597
▁charged	-4598
lal	-4599
▁Jew	-4600
▁judgment	-4601
▁save	-4602
▁rates	-4603
▁legislation	-4604
▁Over	-4605
▁game	-4606
▁exact	-4607
▁concent	-4608
▁picture	-4609
▁standing	-4610
▁advoc	-4611
▁remove	-4612
▁creating	-4613
ulating	-4614
rel	-4615
▁Don	-4616
▁democratic	-4617
▁SCC	-4618
▁gard	-4619
▁Rail	-4620
▁weeks	-4621
▁Applic	-4622
arati	-4623
▁married	-4624
▁Insurance	-4625
▁commission	-4626
ayana	-4627
▁join	-4628
▁analysis	-4629
ka	-4630
▁Procedure	-4631
▁Sikh	-4632
▁London	-4633
▁deposit	-4634
▁eth	-4635
▁Hist	-4636
▁Internet	-4637
▁prosperity	-4638
▁Est	-4639
▁Lab	-4640
▁houses	-4641
▁committee	-4642
▁gain	-4643
▁tonnes	-4644
▁destroy	-4645
▁functioning	-4646
anya	-4647
▁Pri	-4648
▁finally	-4649
▁proport	-4650
▁Gl	-4651
iced	-4652
anged	-4653
thern	-4654
▁dece	-4655
▁shap	-4656
▁senior	-4657
▁Among	-4658
▁facility	-4659
▁Use	-4660
phone	-4661
▁east	-4662
▁Foreign	-4663
▁Could	-4664
▁choice	-4665
▁opened	-4666
▁Ret	-4667
▁obst	-4668
▁false	-4669
▁classes	-4670
▁Abd	-4671
▁lad	-4672
▁Bad	-4673
▁Tem	-4674
▁Bose	-4675
▁Sind	-4676
▁sole	-4677
▁match	-4678
▁Network	-4679
▁maintained	-4680
▁amb	-4681
▁theory	-4682
▁neither	-4683
▁challenges	-4684
▁Pers	-4685
▁obvious	-4686
rence	-4687
▁River	-4688
▁drugs	-4689
▁Member	-4690
▁profits	-4691
▁Schedule	-4692
▁conducted	-4693
▁huge	-4694
▁dispute	-4695
▁challenge	-4696
iveness	-4697
▁sought	-4698
▁solution	-4699
ider	-4700
▁Police	-4701
▁teaching	-4702
▁Ash	-4703
▁debt	-4704
▁dream	-4705
▁ability	-4706
▁weap	-4707
▁journey	-4708
▁constitutional	-4709
hern	-4710
▁Nag	-4711
utory	-4712
▁noted	-4713
▁factor	-4714
▁helped	-4715
▁Mission	-4716
▁submitted	-4717
oe	-4718
▁reb	-4719
▁stood	-4720
▁demonst	-4721
▁sitting	-4722
▁proposal	-4723
▁Karnataka	-4724
▁communities	-4725
otic	-4726
▁Home	-4727
▁grad	-4728
▁grown	-4729
▁banking	-4730
▁obtained	-4731
▁Christian	-4732
▁awareness	-4733
▁ban	-4734
astic	-4735
▁elections	-4736
▁transform	-4737
▁records	-4738
▁regions	-4739
▁consists	-4740
▁mort	-4741
▁Nepal	-4742
▁breat	-4743
▁defend	-4744
▁relative	-4745
issa	-4746
▁Exp	-4747
aling	-4748
▁Ganga	-4749
jection	-4750
▁outl	-4751
▁surpr	-4752
▁served	-4753
▁atmosphere	-4754
▁manufacture	-4755
mon	-4756
▁Ser	-4757
▁crime	-4758
▁accomp	-4759
▁volume	-4760
▁release	-4761
pta	-4762
erate	-4763
▁didn	-4764
▁waste	-4765
▁citizen	-4766
▁formal	-4767
▁letters	-4768
RL	-4769
▁Che	-4770
▁bott	-4771
essions	-4772
AM	-4773
orial	-4774
rical	-4775
icious	-4776
ester	-4777
▁west	-4778
▁squared	-4779
▁reduce	-4780
▁substance	-4781
iform	-4782
▁birds	-4783
▁effects	-4784
▁comment	-4785
▁reflect	-4786
▁pick	-4787
▁enhan	-4788
▁changing	-4789
▁expenses	-4790
▁objectives	-4791
▁universities	-4792
pret	-4793
▁wat	-4794
ankar	-4795
▁Show	-4796
▁folk	-4797
▁plat	-4798
▁amend	-4799
▁moving	-4800
▁affairs	-4801
▁Ka	-4802
▁Gov	-4803
CH	-4804
▁Nature	-4805
athe	-4806
iments	-4807
▁writer	-4808
▁situated	-4809
rew	-4810
ghal	-4811
olve	-4812
▁Each	-4813
ilarly	-4814
▁transferred	-4815
▁dign	-4816
▁ment	-4817
▁suffering	-4818
▁Lo	-4819
olly	-4820
▁Once	-4821
▁pill	-4822
▁healthy	-4823
▁approval	-4824
▁attached	-4825
orthern	-4826
ordinate	-4827
▁column	-4828
▁Austral	-4829
▁attitude	-4830
▁SH	-4831
▁Right	-4832
▁decades	-4833
▁Although	-4834
▁register	-4835
▁IP	-4836
▁maintenance	-4837
roc	-4838
▁thirty	-4839
▁bran	-4840
▁fish	-4841
▁student	-4842
▁Language	-4843
▁devotion	-4844
▁recently	-4845
▁pollution	-4846
ni	-4847
ocol	-4848
▁cry	-4849
▁sugar	-4850
▁mobile	-4851
▁division	-4852
essor	-4853
▁offences	-4854
▁description	-4855
ghan	-4856
▁operating	-4857
▁background	-4858
▁Va	-4859
▁Chrom	-4860
▁brain	-4861
▁Association	-4862
rad	-4863
▁hair	-4864
▁yield	-4865
▁online	-4866
▁climate	-4867
ird	-4868
lies	-4869
like	-4870
▁Self	-4871
▁processes	-4872
▁notification	-4873
aman	-4874
▁AIR	-4875
▁phase	-4876
▁Orissa	-4877
▁decide	-4878
▁collabor	-4879
▁architect	-4880
▁restrict	-4881
▁cam	-4882
▁irr	-4883
▁Press	-4884
▁colle	-4885
▁equipment	-4886
ested	-4887
▁lies	-4888
▁eleph	-4889
▁Invest	-4890
gypt	-4891
▁gar	-4892
▁Jain	-4893
▁nine	-4894
▁defin	-4895
▁impris	-4896
▁courage	-4897
▁principal	-4898
▁engineering	-4899
oved	-4900
▁Middle	-4901
▁absence	-4902
▁ourselves	-4903
ogue	-4904
▁Jaw	-4905
▁Pra	-4906
▁ble	-4907
▁spl	-4908
▁uses	-4909
anging	-4910
▁resist	-4911
▁Society	-4912
▁imprisonment	-4913
▁die	-4914
▁prime	-4915
aly	-4916
▁See	-4917
▁subt	-4918
▁joined	-4919
▁apart	-4920
▁greatest	-4921
▁settlement	-4922
imb	-4923
▁coal	-4924
▁compar	-4925
hus	-4926
▁bringing	-4927
▁track	-4928
holders	-4929
ST	-4930
▁gains	-4931
▁habit	-4932
▁Before	-4933
▁fellow	-4934
▁kn	-4935
ammu	-4936
▁marg	-4937
▁emotion	-4938
▁arm	-4939
urities	-4940
▁pending	-4941
aced	-4942
isher	-4943
▁survey	-4944
ij	-4945
▁Das	-4946
▁Women	-4947
ibilities	-4948
▁reported	-4949
▁users	-4950
▁disputes	-4951
uous	-4952
▁star	-4953
▁inaug	-4954
▁recognised	-4955
▁AD	-4956
▁Park	-4957
▁acid	-4958
ifications	-4959
▁amendment	-4960
nov	-4961
▁Ext	-4962
▁Mahab	-4963
ails	-4964
▁Nan	-4965
▁weather	-4966
▁becoming	-4967
▁execution	-4968
▁comprehens	-4969
hu	-4970
osure	-4971
aste	-4972
▁Egypt	-4973
▁phone	-4974
▁resource	-4975
▁Independence	-4976
▁Ali	-4977
▁store	-4978
▁smaller	-4979
▁priority	-4980
▁Nat	-4981
achment	-4982
xy	-4983
▁designed	-4984
▁medicine	-4985
▁helps	-4986
▁proceeding	-4987
▁translation	-4988
▁URL	-4989
▁rob	-4990
inent	-4991
▁Jammu	-4992
▁impart	-4993
oral	-4994
▁Vir	-4995
▁Limited	-4996
▁eld	-4997
▁expert	-4998
▁monitor	-4999
iled	-5000
▁Ent	-5001
▁although	-5002
▁efficient	-5003
▁Sect	-5004
▁looks	-5005
▁conclud	-5006
▁evening	-5007
▁purchase	-5008
UL	-5009
apt	-5010
▁piece	-5011
▁fed	-5012
▁Subhas	-5013
AD	-5014
rog	-5015
apur	-5016
▁Sun	-5017
▁scope	-5018
▁afford	-5019
▁commitment	-5020
▁manufacturing	-5021
▁Lt	-5022
▁Commun	-5023
▁Mother	-5024
▁behaviour	-5025
withstanding	-5026
▁union	-5027
▁mix	-5028
▁deals	-5029
▁simpl	-5030
▁Gaz	-5031
▁heat	-5032
ruption	-5033
▁actions	-5034
iant	-5035
▁capable	-5036
▁SP	-5037
▁Life	-5038
iation	-5039
▁bul	-5040
▁crow	-5041
▁wonder	-5042
▁arising	-5043
▁contempt	-5044
vent	-5045
▁Univers	-5046
▁spot	-5047
▁signed	-5048
▁possession	-5049
ips	-5050
▁Training	-5051
aram	-5052
icted	-5053
▁Stud	-5054
▁rice	-5055
▁format	-5056
▁scientists	-5057
▁radi	-5058
astern	-5059
hance	-5060
▁brief	-5061
▁pointed	-5062
▁festival	-5063
rees	-5064
▁solar	-5065
▁Divine	-5066
▁rivers	-5067
▁finance	-5068
▁password	-5069
▁bilateral	-5070
ESS	-5071
▁drive	-5072
▁revenue	-5073
known	-5074
▁Mand	-5075
omin	-5076
▁Bin	-5077
▁minutes	-5078
▁Bah	-5079
▁alt	-5080
▁kil	-5081
▁micro	-5082
ping	-5083
▁Emp	-5084
abinet	-5085
▁Madras	-5086
▁Rights	-5087
▁acquired	-5088
hel	-5089
▁defe	-5090
▁felicit	-5091
▁portion	-5092
▁implemented	-5093
▁Ke	-5094
▁Cop	-5095
▁Criminal	-5096
▁Industrial	-5097
▁flowers	-5098
▁appeared	-5099
▁identified	-5100
▁Ty	-5101
▁....	-5102
istrate	-5103
▁currency	-5104
▁interpret	-5105
▁performed	-5106
▁friendship	-5107
▁ap	-5108
▁Rad	-5109
▁cricket	-5110
▁manifest	-5111
▁shared	-5112
▁Sum	-5113
▁File	-5114
▁myst	-5115
▁channel	-5116
▁withdraw	-5117
▁executive	-5118
▁proof	-5119
▁Assessing	-5120
▁Hyder	-5121
▁commod	-5122
▁straight	-5123
▁calls	-5124
▁platform	-5125
▁zero	-5126
unicip	-5127
aration	-5128
▁Affairs	-5129
▁commence	-5130
▁chance	-5131
ranath	-5132
▁skills	-5133
▁initial	-5134
▁assigned	-5135
hai	-5136
▁filled	-5137
bon	-5138
▁mandap	-5139
inces	-5140
▁Those	-5141
▁Afghan	-5142
▁enforce	-5143
▁forth	-5144
▁oblig	-5145
▁trend	-5146
▁location	-5147
▁announced	-5148
▁installed	-5149
▁Like	-5150
▁lawy	-5151
▁dance	-5152
▁kinds	-5153
▁branches	-5154
▁distinct	-5155
▁satisfied	-5156
▁temperature	-5157
acc	-5158
redit	-5159
inding	-5160
▁severe	-5161
▁Israeli	-5162
▁Nations	-5163
▁Related	-5164
amin	-5165
▁Prom	-5166
▁aims	-5167
▁marketing	-5168
▁Nadu	-5169
▁reforms	-5170
▁Security	-5171
▁Houses	-5172
▁struct	-5173
▁delight	-5174
▁Business	-5175
amet	-5176
▁Time	-5177
▁stream	-5178
▁initiative	-5179
▁organizations	-5180
hara	-5181
ithm	-5182
roud	-5183
▁Jag	-5184
under	-5185
▁Reserve	-5186
▁discl	-5187
▁please	-5188
▁seemed	-5189
▁formation	-5190
▁represents	-5191
▁Stat	-5192
▁categ	-5193
▁partner	-5194
▁organized	-5195
▁amp	-5196
▁colon	-5197
▁beings	-5198
▁discussed	-5199
▁respective	-5200
▁environmental	-5201
▁secure	-5202
▁billion	-5203
▁offices	-5204
esty	-5205
▁evil	-5206
▁email	-5207
▁girls	-5208
▁poets	-5209
▁wants	-5210
▁extension	-5211
▁Deputy	-5212
▁Control	-5213
▁Something	-5214
▁upper	-5215
▁western	-5216
▁Protection	-5217
▁cloth	-5218
▁indig	-5219
▁battle	-5220
▁mostly	-5221
▁communal	-5222
▁collected	-5223
OU	-5224
▁hop	-5225
asant	-5226
▁Cert	-5227
▁band	-5228
▁pert	-5229
▁disapp	-5230
▁marked	-5231
ulty	-5232
▁mir	-5233
▁none	-5234
▁customer	-5235
▁centuries	-5236
rat	-5237
▁Fed	-5238
riving	-5239
▁Bangl	-5240
▁immediate	-5241
itage	-5242
▁narrow	-5243
▁possess	-5244
osite	-5245
▁wise	-5246
▁distur	-5247
▁plaint	-5248
CI	-5249
▁Hon	-5250
▁Kab	-5251
▁pregn	-5252
▁exists	-5253
ille	-5254
▁rid	-5255
right	-5256
▁Babu	-5257
▁absor	-5258
▁doesn	-5259
ensions	-5260
▁preced	-5261
▁compared	-5262
ila	-5263
atio	-5264
▁imposed	-5265
anj	-5266
▁ax	-5267
▁coast	-5268
▁fertil	-5269
▁simply	-5270
▁visited	-5271
▁eligible	-5272
mar	-5273
▁dia	-5274
▁Sard	-5275
▁conce	-5276
▁judiciary	-5277
che	-5278
oes	-5279
ette	-5280
▁liquid	-5281
▁deliver	-5282
▁mountain	-5283
▁thousands	-5284
ohn	-5285
stood	-5286
▁History	-5287
▁equality	-5288
▁improvement	-5289
ossible	-5290
▁tissue	-5291
▁equally	-5292
▁Ministers	-5293
▁governments	-5294
▁ear	-5295
▁advanced	-5296
▁Av	-5297
elled	-5298
▁runs	-5299
▁killed	-5300
▁remote	-5301
▁stands	-5302
▁framework	-5303
▁foundation	-5304
▁Met	-5305
▁cance	-5306
iration	-5307
▁prejud	-5308
▁sight	-5309
▁Select	-5310
▁council	-5311
▁Joint	-5312
▁containing	-5313
▁university	-5314
▁bone	-5315
▁French	-5316
▁Exec	-5317
▁blue	-5318
▁limits	-5319
ployment	-5320
▁movements	-5321
▁intended	-5322
▁properly	-5323
▁Dec	-5324
▁Pay	-5325
antic	-5326
minent	-5327
▁deleg	-5328
▁train	-5329
▁consumer	-5330
▁instruments	-5331
▁substantial	-5332
oring	-5333
▁sexual	-5334
▁Jawahar	-5335
▁delib	-5336
▁recognition	-5337
▁considerable	-5338
▁AS	-5339
▁Brahm	-5340
▁height	-5341
▁Det	-5342
▁cow	-5343
▁Land	-5344
▁welcome	-5345
▁composed	-5346
▁initiated	-5347
DA	-5348
▁hyd	-5349
▁fifty	-5350
▁orient	-5351
▁Tel	-5352
▁brid	-5353
▁Small	-5354
▁amended	-5355
▁employee	-5356
▁discharge	-5357
shi	-5358
▁griev	-5359
▁journal	-5360
▁permission	-5361
▁Palestinian	-5362
alg	-5363
utt	-5364
room	-5365
▁Ang	-5366
▁Data	-5367
▁divid	-5368
▁adjust	-5369
▁attrib	-5370
▁folder	-5371
▁screen	-5372
▁depends	-5373
▁visible	-5374
▁transaction	-5375
back	-5376
oses	-5377
ansion	-5378
▁entirely	-5379
iy	-5380
▁phen	-5381
▁organised	-5382
▁conference	-5383
▁Hel	-5384
oples	-5385
▁symp	-5386
▁Rural	-5387
▁figures	-5388
▁seeking	-5389
dess	-5390
▁vit	-5391
▁Micro	-5392
▁enhance	-5393
▁extremely	-5394
▁electricity	-5395
ffic	-5396
▁Vice	-5397
▁Year	-5398
▁bird	-5399
▁minds	-5400
▁category	-5401
▁Principal	-5402
▁undertaken	-5403
oken	-5404
▁guard	-5405
▁household	-5406
aud	-5407
▁Failed	-5408
▁overall	-5409
▁supreme	-5410
▁technologies	-5411
pto	-5412
▁Good	-5413
▁eggs	-5414
▁starting	-5415
hent	-5416
▁Know	-5417
▁sick	-5418
inating	-5419
▁career	-5420
▁personality	-5421
▁dog	-5422
▁vehicle	-5423
▁directed	-5424
gent	-5425
ulatory	-5426
unction	-5427
▁agent	-5428
▁ahead	-5429
▁prose	-5430
▁thank	-5431
▁feature	-5432
▁regulations	-5433
pro	-5434
inger	-5435
clause	-5436
▁opposition	-5437
▁Dur	-5438
▁lie	-5439
▁Food	-5440
▁raise	-5441
▁config	-5442
▁Sol	-5443
▁cave	-5444
▁fell	-5445
▁iron	-5446
▁loans	-5447
▁insect	-5448
▁creative	-5449
▁multiple	-5450
ih	-5451
▁Bur	-5452
▁arms	-5453
▁exports	-5454
▁liability	-5455
mer	-5456
ocal	-5457
▁cott	-5458
▁audit	-5459
▁competent	-5460
▁organisations	-5461
aut	-5462
otes	-5463
▁Back	-5464
▁claims	-5465
icon	-5466
▁dynam	-5467
▁employed	-5468
▁Hyderabad	-5469
anath	-5470
▁pursu	-5471
▁informed	-5472
▁directions	-5473
▁interested	-5474
mn	-5475
▁offers	-5476
DU	-5477
EP	-5478
▁Lal	-5479
▁Count	-5480
▁incur	-5481
▁hardly	-5482
▁sacrifice	-5483
▁Bangladesh	-5484
ien	-5485
▁Kan	-5486
ingly	-5487
▁Urdu	-5488
arp	-5489
aces	-5490
plom	-5491
▁closed	-5492
▁outstanding	-5493
▁felicitations	-5494
sc	-5495
▁Maj	-5496
idden	-5497
▁Enter	-5498
▁fourth	-5499
▁examples	-5500
▁Book	-5501
▁Force	-5502
▁sweet	-5503
▁choose	-5504
▁couple	-5505
▁Panchay	-5506
ux	-5507
▁myself	-5508
▁continues	-5509
▁customers	-5510
▁districts	-5511
akti	-5512
erce	-5513
▁blind	-5514
▁deeply	-5515
▁Scheduled	-5516
▁negoti	-5517
alle	-5518
▁fix	-5519
▁rent	-5520
▁demands	-5521
▁investig	-5522
▁comprehensive	-5523
▁mel	-5524
▁unw	-5525
▁Vishn	-5526
▁quickly	-5527
eum	-5528
tes	-5529
ammad	-5530
▁roll	-5531
▁shop	-5532
▁enabled	-5533
▁witnesses	-5534
▁tea	-5535
▁remed	-5536
▁Eastern	-5537
▁proportion	-5538
alam	-5539
▁rit	-5540
▁Pass	-5541
▁obtain	-5542
▁markets	-5543
▁railway	-5544
▁Var	-5545
▁hind	-5546
oration	-5547
ications	-5548
▁Process	-5549
▁Mahabhar	-5550
▁radio	-5551
▁procedures	-5552
asw	-5553
▁Tri	-5554
▁Swami	-5555
▁budget	-5556
▁objects	-5557
AB	-5558
atab	-5559
▁sin	-5560
uable	-5561
▁surg	-5562
ourses	-5563
▁happens	-5564
▁imperial	-5565
▁Legislature	-5566
▁disk	-5567
▁Hence	-5568
▁Trade	-5569
▁sacred	-5570
▁arbitration	-5571
anta	-5572
othes	-5573
▁John	-5574
▁prove	-5575
▁awarded	-5576
▁involve	-5577
ECT	-5578
asi	-5579
▁kill	-5580
▁proud	-5581
▁stamp	-5582
▁bright	-5583
▁conven	-5584
▁liberal	-5585
▁mechanism	-5586
▁alternative	-5587
mb	-5588
▁Yes	-5589
urally	-5590
▁drama	-5591
▁belonging	-5592
▁race	-5593
▁upgr	-5594
▁theme	-5595
▁discrim	-5596
hand	-5597
izes	-5598
▁Bir	-5599
▁Sen	-5600
organ	-5601
▁Fort	-5602
▁slight	-5603
▁Capital	-5604
▁playing	-5605
▁Award	-5606
▁transp	-5607
▁Ltd	-5608
▁alle	-5609
▁grounds	-5610
▁contributions	-5611
▁Chait	-5612
▁skill	-5613
▁Address	-5614
▁counsel	-5615
▁prosecution	-5616
▁instructions	-5617
▁Ban	-5618
▁Mat	-5619
▁addressed	-5620
umber	-5621
▁arrangement	-5622
▁horse	-5623
▁labor	-5624
▁describ	-5625
agh	-5626
uli	-5627
▁liable	-5628
▁distinguished	-5629
going	-5630
▁thoughts	-5631
▁impossible	-5632
king	-5633
▁pret	-5634
gments	-5635
▁arrived	-5636
▁explained	-5637
arya	-5638
▁Cre	-5639
▁Allah	-5640
▁understood	-5641
eds	-5642
▁jail	-5643
▁span	-5644
▁Awards	-5645
▁enacted	-5646
fall	-5647
▁Move	-5648
▁aspir	-5649
▁apparent	-5650
▁appearance	-5651
▁Application	-5652
▁exped	-5653
▁toler	-5654
▁Parliamentary	-5655
▁Az	-5656
ruits	-5657
▁Laws	-5658
▁religions	-5659
▁commencement	-5660
rosy	-5661
▁Assistant	-5662
▁promoting	-5663
osen	-5664
▁speaking	-5665
oles	-5666
encing	-5667
▁admitted	-5668
▁estimated	-5669
▁personnel	-5670
▁respectively	-5671
▁Tele	-5672
▁Economic	-5673
▁Exchange	-5674
▁masses	-5675
▁compound	-5676
▁intention	-5677
▁facilitate	-5678
CE	-5679
IF	-5680
▁core	-5681
▁inquiry	-5682
de	-5683
▁CON	-5684
▁Rule	-5685
▁Committees	-5686
▁efficiency	-5687
▁differences	-5688
▁requirement	-5689
▁lev	-5690
▁definite	-5691
▁Similarly	-5692
▁conclusion	-5693
▁respondent	-5694
cend	-5695
▁cris	-5696
▁spect	-5697
▁dedicated	-5698
▁effectively	-5699
▁legislative	-5700
agers	-5701
riages	-5702
▁acting	-5703
▁ritual	-5704
▁statutory	-5705
▁constitute	-5706
abet	-5707
▁peoples	-5708
▁sympt	-5709
▁everyone	-5710
▁intelligence	-5711
▁transactions	-5712
rut	-5713
umin	-5714
▁desert	-5715
▁arrested	-5716
ica	-5717
nan	-5718
kata	-5719
opal	-5720
▁pages	-5721
▁steel	-5722
▁Engine	-5723
▁acknow	-5724
▁showing	-5725
▁allowance	-5726
▁doll	-5727
▁Great	-5728
▁spite	-5729
▁availability	-5730
▁determination	-5731
▁pul	-5732
▁para	-5733
▁anyone	-5734
▁exclud	-5735
▁libert	-5736
▁covering	-5737
hal	-5738
▁elim	-5739
▁renew	-5740
▁Pandit	-5741
▁Germany	-5742
▁Institut	-5743
▁guidelines	-5744
▁Po	-5745
▁Rab	-5746
▁fees	-5747
▁Sardar	-5748
▁suffer	-5749
▁entrepreneurs	-5750
ota	-5751
▁vig	-5752
▁knows	-5753
▁propag	-5754
▁showed	-5755
▁Priv	-5756
▁definition	-5757
anish	-5758
▁launch	-5759
▁Speaking	-5760
▁evolution	-5761
elve	-5762
▁Web	-5763
while	-5764
ensity	-5765
▁Territ	-5766
▁Wind	-5767
▁rend	-5768
▁Order	-5769
▁Persian	-5770
▁uniform	-5771
▁victims	-5772
operative	-5773
▁emphasis	-5774
▁improved	-5775
▁recognized	-5776
▁Agriculture	-5777
iliar	-5778
▁diet	-5779
▁plans	-5780
unately	-5781
▁consent	-5782
▁finding	-5783
▁detailed	-5784
▁humanity	-5785
▁repeated	-5786
▁terrorist	-5787
top	-5788
▁lif	-5789
▁tim	-5790
▁render	-5791
▁leaving	-5792
▁improving	-5793
ader	-5794
▁Pras	-5795
▁Change	-5796
▁derived	-5797
▁phenomen	-5798
▁Top	-5799
▁Saty	-5800
ashing	-5801
▁selection	-5802
▁Innov	-5803
▁Jawaharlal	-5804
PS	-5805
norm	-5806
▁DNA	-5807
▁raw	-5808
▁Conf	-5809
▁sequ	-5810
▁motor	-5811
▁Madhya	-5812
▁writers	-5813
▁eval	-5814
▁representative	-5815
aur	-5816
▁Laksh	-5817
▁enemy	-5818
ciation	-5819
▁dismiss	-5820
▁quantity	-5821
▁certainly	-5822
▁happiness	-5823
▁convention	-5824
enous	-5825
▁upto	-5826
▁floor	-5827
raction	-5828
▁corporate	-5829
▁infection	-5830
▁Chen	-5831
▁Vishnu	-5832
▁Medical	-5833
▁remaining	-5834
▁Dal	-5835
▁fib	-5836
hibition	-5837
▁practical	-5838
▁difficulty	-5839
▁admin	-5840
▁Buddha	-5841
▁murder	-5842
▁consumption	-5843
▁thor	-5844
▁contemporary	-5845
eer	-5846
ooth	-5847
▁housing	-5848
EG	-5849
▁lect	-5850
▁lose	-5851
▁org	-5852
▁rub	-5853
rafts	-5854
▁Army	-5855
▁tools	-5856
▁double	-5857
▁string	-5858
▁settled	-5859
▁guidance	-5860
uddin	-5861
▁York	-5862
▁chapter	-5863
▁normally	-5864
iary	-5865
assion	-5866
▁kingdom	-5867
▁heritage	-5868
▁Convention	-5869
cont	-5870
▁baby	-5871
estion	-5872
▁papers	-5873
▁accompan	-5874
▁regarded	-5875
owed	-5876
▁lik	-5877
▁MSME	-5878
▁seeds	-5879
▁center	-5880
▁occurs	-5881
▁hill	-5882
▁About	-5883
▁Comput	-5884
▁inspired	-5885
▁strategy	-5886
house	-5887
▁Binoy	-5888
▁consultation	-5889
ny	-5890
▁sky	-5891
ailing	-5892
▁saint	-5893
▁solid	-5894
▁illust	-5895
▁stages	-5896
▁Brahmin	-5897
▁Through	-5898
▁Cal	-5899
▁Mult	-5900
▁drop	-5901
▁flag	-5902
▁ratio	-5903
▁complic	-5904
▁pension	-5905
▁disposal	-5906
▁computing	-5907
▁bag	-5908
ifies	-5909
▁Democ	-5910
▁Mount	-5911
unk	-5912
▁Bu	-5913
inct	-5914
▁FOR	-5915
▁cust	-5916
▁reply	-5917
▁Common	-5918
▁unable	-5919
unicipal	-5920
▁Industry	-5921
▁successfully	-5922
▁vess	-5923
▁emergency	-5924
▁telephone	-5925
riya	-5926
▁ego	-5927
▁hom	-5928
▁cool	-5929
ivered	-5930
▁difficulties	-5931
ilty	-5932
ander	-5933
▁remind	-5934
▁immense	-5935
▁indirect	-5936
▁sustainable	-5937
▁sad	-5938
▁syn	-5939
endra	-5940
▁Japan	-5941
▁settings	-5942
▁Afghanistan	-5943
▁Bra	-5944
icide	-5945
▁superior	-5946
▁flood	-5947
▁injury	-5948
▁attacks	-5949
▁investors	-5950
▁integrated	-5951
pet	-5952
▁Ref	-5953
venth	-5954
▁legs	-5955
icians	-5956
▁Gupta	-5957
▁holds	-5958
▁stead	-5959
▁crisis	-5960
▁Marriage	-5961
▁Chaitanya	-5962
wan	-5963
orous	-5964
▁du	-5965
▁era	-5966
▁enterprise	-5967
▁bact	-5968
▁flat	-5969
▁armed	-5970
▁strike	-5971
▁expansion	-5972
oned	-5973
asters	-5974
▁college	-5975
gor	-5976
asty	-5977
▁fill	-5978
mation	-5979
▁outer	-5980
▁garden	-5981
▁widely	-5982
▁Children	-5983
arh	-5984
▁UT	-5985
▁pu	-5986
onym	-5987
▁layer	-5988
▁owners	-5989
▁traffic	-5990
▁millions	-5991
▁involving	-5992
grim	-5993
▁owner	-5994
▁manager	-5995
▁talking	-5996
▁accurate	-5997
▁meetings	-5998
▁electronic	-5999
aniel	-6000
inity	-6001
▁Start	-6002
▁compuls	-6003
▁mos	-6004
▁finds	-6005
▁quiet	-6006
▁usual	-6007
▁walls	-6008
▁forests	-6009
▁tomorrow	-6010
▁writings	-6011
ommod	-6012
▁Name	-6013
▁sister	-6014
▁celebrated	-6015
▁contribute	-6016
▁ID	-6017
load	-6018
mony	-6019
bedkar	-6020
▁accom	-6021
▁founded	-6022
▁trained	-6023
▁Regional	-6024
iger	-6025
▁Yet	-6026
▁Gold	-6027
▁cart	-6028
aneous	-6029
▁Allow	-6030
▁chrom	-6031
▁messages	-6032
MS	-6033
ERS	-6034
▁Turk	-6035
▁fuel	-6036
▁scen	-6037
▁League	-6038
▁trouble	-6039
▁deposits	-6040
▁educated	-6041
▁determine	-6042
▁representatives	-6043
xic	-6044
isted	-6045
retion	-6046
▁alleg	-6047
oresaid	-6048
▁brings	-6049
▁Ambedkar	-6050
MP	-6051
▁adm	-6052
▁roads	-6053
▁director	-6054
▁remarkable	-6055
yal	-6056
aren	-6057
▁thick	-6058
▁border	-6059
▁taught	-6060
▁Companies	-6061
inese	-6062
▁blow	-6063
▁dealt	-6064
▁debate	-6065
▁controlled	-6066
▁arrangements	-6067
▁Nor	-6068
▁cos	-6069
▁viz	-6070
▁patri	-6071
▁forget	-6072
▁aforesaid	-6073
qual	-6074
ulpt	-6075
inance	-6076
▁discipline	-6077
hetic	-6078
▁neck	-6079
▁guide	-6080
▁tribal	-6081
▁twelve	-6082
▁Executive	-6083
▁voluntary	-6084
▁subsequent	-6085
▁investments	-6086
oman	-6087
▁Vol	-6088
active	-6089
▁Trust	-6090
▁harmony	-6091
▁herself	-6092
▁permitted	-6093
▁acquisition	-6094
rum	-6095
ananda	-6096
▁chosen	-6097
▁trading	-6098
▁delivered	-6099
▁plaintiff	-6100
▁bh	-6101
▁grew	-6102
▁gather	-6103
▁Tir	-6104
▁lock	-6105
▁guilty	-6106
▁argument	-6107
▁irrigation	-6108
▁IC	-6109
▁abol	-6110
▁chain	-6111
▁Russia	-6112
▁soldiers	-6113
▁destruction	-6114
▁UK	-6115
uran	-6116
▁Free	-6117
▁hall	-6118
lation	-6119
▁yourself	-6120
▁neighbour	-6121
▁discussions	-6122
▁Registration	-6123
▁Sud	-6124
▁cra	-6125
▁ignor	-6126
▁scene	-6127
▁Appell	-6128
▁divide	-6129
▁evident	-6130
▁Sk	-6131
oser	-6132
▁ocean	-6133
▁begins	-6134
▁significance	-6135
▁bail	-6136
▁fruits	-6137
▁contrary	-6138
▁Being	-6139
▁consisting	-6140
▁productivity	-6141
nergy	-6142
▁Vidy	-6143
agraph	-6144
▁leads	-6145
▁Credit	-6146
▁recovery	-6147
▁southern	-6148
▁universe	-6149
▁Gr	-6150
asks	-6151
ibly	-6152
lick	-6153
▁recall	-6154
inations	-6155
▁partition	-6156
▁ends	-6157
▁gradu	-6158
▁Academ	-6159
▁equity	-6160
▁resulting	-6161
▁conviction	-6162
uity	-6163
▁socio	-6164
▁departments	-6165
AGE	-6166
▁AP	-6167
▁Rev	-6168
▁Geor	-6169
▁nerv	-6170
▁Earth	-6171
▁chair	-6172
▁envis	-6173
▁burden	-6174
▁safegu	-6175
▁Kolkata	-6176
▁chargeable	-6177
▁competition	-6178
odh	-6179
▁Ja	-6180
▁depth	-6181
▁accompl	-6182
▁solutions	-6183
▁PC	-6184
▁broken	-6185
▁identify	-6186
obe	-6187
ugg	-6188
▁Apart	-6189
▁stick	-6190
▁verse	-6191
▁wound	-6192
▁Annual	-6193
▁Import	-6194
usal	-6195
▁bomb	-6196
▁innoc	-6197
▁filing	-6198
▁possibility	-6199
zy	-6200
raint	-6201
▁Mughal	-6202
▁sculpt	-6203
▁Chinese	-6204
▁convert	-6205
▁refused	-6206
ician	-6207
▁Text	-6208
▁empt	-6209
▁Banks	-6210
▁paras	-6211
ifically	-6212
▁numerous	-6213
▁approx	-6214
▁authent	-6215
▁valuable	-6216
▁Australia	-6217
▁kid	-6218
▁fasc	-6219
▁spoke	-6220
▁reaction	-6221
▁continuous	-6222
▁transmission	-6223
DUCT	-6224
hips	-6225
▁pig	-6226
allel	-6227
▁Advoc	-6228
▁stake	-6229
▁starts	-6230
▁Comment	-6231
ographical	-6232
▁acceptance	-6233
yas	-6234
etary	-6235
▁park	-6236
▁roof	-6237
▁click	-6238
▁thereby	-6239
▁Province	-6240
▁specially	-6241
care	-6242
uting	-6243
▁temporary	-6244
▁fift	-6245
▁goals	-6246
▁prompt	-6247
▁rulers	-6248
▁Britain	-6249
▁Magistrate	-6250
enn	-6251
▁hit	-6252
▁Raja	-6253
▁poetic	-6254
▁criticism	-6255
▁essentially	-6256
isdom	-6257
▁Legal	-6258
▁sanct	-6259
▁aggreg	-6260
▁stress	-6261
▁amounts	-6262
▁El	-6263
osit	-6264
uality	-6265
▁constitu	-6266
garh	-6267
▁Later	-6268
▁Chrome	-6269
▁bottom	-6270
▁diplom	-6271
wa	-6272
och	-6273
rival	-6274
▁clar	-6275
▁waiting	-6276
▁Pad	-6277
▁fav	-6278
atics	-6279
▁Writ	-6280
▁bats	-6281
▁pound	-6282
▁linked	-6283
▁largely	-6284
▁assembly	-6285
▁buildings	-6286
▁gradually	-6287
▁securities	-6288
uv	-6289
ema	-6290
anka	-6291
▁exch	-6292
▁gods	-6293
▁prote	-6294
▁verses	-6295
▁explain	-6296
▁faculty	-6297
▁weapons	-6298
▁familiar	-6299
▁excellence	-6300
▁coc	-6301
▁News	-6302
▁wholly	-6303
▁accommod	-6304
▁amendments	-6305
▁authorised	-6306
LE	-6307
▁boys	-6308
utation	-6309
▁breast	-6310
▁flower	-6311
▁suddenly	-6312
▁qualities	-6313
▁Kir	-6314
▁arg	-6315
▁Acts	-6316
▁poly	-6317
▁Enable	-6318
▁forwarded	-6319
▁satisfaction	-6320
rie	-6321
▁Gra	-6322
▁Gram	-6323
▁forg	-6324
▁succ	-6325
herent	-6326
▁images	-6327
▁strict	-6328
▁Himachal	-6329
▁conferred	-6330
inn	-6331
son	-6332
▁Jo	-6333
urse	-6334
▁Last	-6335
▁vary	-6336
▁Vedic	-6337
▁advised	-6338
▁comfort	-6339
▁infinite	-6340
▁producing	-6341
▁NI	-6342
▁Bet	-6343
▁France	-6344
▁feelings	-6345
▁accompanied	-6346
▁participate	-6347
▁III	-6348
▁proc	-6349
▁vote	-6350
▁Class	-6351
▁attain	-6352
▁replace	-6353
▁Sita	-6354
ronics	-6355
▁claimed	-6356
▁components	-6357
ola	-6358
▁Prasad	-6359
▁prepare	-6360
▁suffered	-6361
▁newspaper	-6362
▁encouraged	-6363
▁consequences	-6364
▁introduction	-6365
▁representation	-6366
OT	-6367
iso	-6368
well	-6369
▁Key	-6370
ullah	-6371
▁edge	-6372
▁Asian	-6373
▁seeing	-6374
▁mandapa	-6375
▁currently	-6376
▁categories	-6377
ena	-6378
ima	-6379
▁Ary	-6380
▁NAME	-6381
▁Ahmed	-6382
▁permit	-6383
▁accordingly	-6384
SS	-6385
▁Fam	-6386
▁tong	-6387
▁update	-6388
▁violent	-6389
▁employer	-6390
▁audio	-6391
▁links	-6392
▁decade	-6393
▁proposals	-6394
▁achievement	-6395
▁Universities	-6396
▁Lah	-6397
arita	-6398
eries	-6399
iques	-6400
▁Head	-6401
▁devices	-6402
▁willing	-6403
▁incorpor	-6404
▁hat	-6405
▁Gora	-6406
▁nurs	-6407
▁deriv	-6408
▁street	-6409
▁waters	-6410
▁concerns	-6411
▁symptoms	-6412
UT	-6413
atabase	-6414
▁digital	-6415
▁drinking	-6416
▁northern	-6417
▁Paper	-6418
▁deter	-6419
▁react	-6420
▁abnorm	-6421
▁crores	-6422
▁reader	-6423
▁Cabinet	-6424
▁examine	-6425
▁carefully	-6426
▁parliamentary	-6427
achi	-6428
orthy	-6429
peror	-6430
▁ensuring	-6431
ream	-6432
uses	-6433
▁Cle	-6434
▁hur	-6435
▁rom	-6436
▁prince	-6437
▁invited	-6438
▁litigation	-6439
▁anx	-6440
▁tab	-6441
▁tro	-6442
▁tub	-6443
anese	-6444
icket	-6445
akrish	-6446
▁gross	-6447
▁panel	-6448
▁Turkey	-6449
▁eastern	-6450
▁component	-6451
▁directory	-6452
▁kg	-6453
atre	-6454
ords	-6455
▁Disc	-6456
▁myth	-6457
▁solve	-6458
▁Export	-6459
▁exactly	-6460
▁confined	-6461
▁disabled	-6462
iti	-6463
▁Muh	-6464
▁Unit	-6465
▁adopt	-6466
▁poison	-6467
▁traditions	-6468
ayas	-6469
lets	-6470
▁alc	-6471
▁unb	-6472
▁Rest	-6473
▁node	-6474
▁Autom	-6475
▁CD	-6476
wing	-6477
ushed	-6478
▁cycle	-6479
▁throw	-6480
▁Integr	-6481
▁dignity	-6482
▁secular	-6483
▁pec	-6484
uster	-6485
▁City	-6486
▁Super	-6487
▁Market	-6488
▁despite	-6489
▁opposite	-6490
▁Sometimes	-6491
▁conversion	-6492
amy	-6493
urved	-6494
▁gall	-6495
▁Labour	-6496
▁stopped	-6497
▁unknown	-6498
▁incurred	-6499
▁prominent	-6500
▁suggestion	-6501
▁distributed	-6502
VE	-6503
cles	-6504
rier	-6505
▁shel	-6506
▁Master	-6507
zz	-6508
▁NAB	-6509
▁Sik	-6510
▁thr	-6511
ensus	-6512
actory	-6513
▁PRODUCT	-6514
▁customs	-6515
▁elephant	-6516
▁Appellate	-6517
rator	-6518
▁seats	-6519
▁Having	-6520
▁causing	-6521
▁pilgrim	-6522
OM	-6523
edia	-6524
▁Kam	-6525
▁sales	-6526
▁atomic	-6527
▁empower	-6528
▁Islamist	-6529
▁patients	-6530
▁distinction	-6531
wal	-6532
ilal	-6533
▁gland	-6534
▁intest	-6535
▁represented	-6536
araj	-6537
▁Sav	-6538
▁hence	-6539
▁appeals	-6540
▁tourism	-6541
▁followers	-6542
atar	-6543
▁Far	-6544
▁Lep	-6545
alore	-6546
entle	-6547
▁trem	-6548
▁allot	-6549
▁teeth	-6550
irement	-6551
▁nutrit	-6552
▁tender	-6553
▁Kingdom	-6554
▁inserted	-6555
▁involves	-6556
▁architecture	-6557
aph	-6558
▁Copy	-6559
rovers	-6560
▁advis	-6561
▁conqu	-6562
▁mixed	-6563
▁spend	-6564
habilit	-6565
▁sorrow	-6566
▁combination	-6567
mi	-6568
ears	-6569
auses	-6570
▁Road	-6571
▁abst	-6572
▁allows	-6573
▁eternal	-6574
▁commonly	-6575
▁hun	-6576
▁tank	-6577
▁advert	-6578
▁corner	-6579
▁studied	-6580
▁excellent	-6581
▁Flag	-6582
▁salt	-6583
▁occurred	-6584
OP	-6585
bing	-6586
writ	-6587
▁holy	-6588
▁lady	-6589
▁arise	-6590
▁owned	-6591
▁Custom	-6592
▁Bharati	-6593
▁Support	-6594
▁fighting	-6595
oli	-6596
▁wa	-6597
rain	-6598
▁fever	-6599
▁resign	-6600
▁quarter	-6601
▁recommendation	-6602
▁Due	-6603
▁Eff	-6604
▁mig	-6605
▁Soft	-6606
▁brows	-6607
▁Officers	-6608
▁applicant	-6609
ker	-6610
uru	-6611
▁Id	-6612
itud	-6613
▁hyp	-6614
iously	-6615
▁faced	-6616
▁shaped	-6617
▁yellow	-6618
▁illness	-6619
▁innovative	-6620
▁ties	-6621
▁escape	-6622
▁fifteen	-6623
▁passion	-6624
▁radical	-6625
▁achievements	-6626
ls	-6627
ded	-6628
mic	-6629
algam	-6630
icity	-6631
▁Shiv	-6632
▁hills	-6633
istries	-6634
▁secondary	-6635
▁experiment	-6636
▁dust	-6637
▁Mohan	-6638
▁Shiva	-6639
▁White	-6640
▁sheet	-6641
▁greatly	-6642
▁indicate	-6643
▁emotional	-6644
IG	-6645
▁pup	-6646
ients	-6647
▁falls	-6648
▁entrust	-6649
▁equival	-6650
▁diversity	-6651
▁Jay	-6652
▁bat	-6653
apped	-6654
▁grat	-6655
hening	-6656
▁courses	-6657
▁Ramayana	-6658
▁strategic	-6659
▁interpretation	-6660
▁transformation	-6661
nity	-6662
▁IPC	-6663
▁Found	-6664
▁signs	-6665
▁truly	-6666
▁cotton	-6667
▁pieces	-6668
▁sovere	-6669
▁harvest	-6670
▁Hinduism	-6671
▁rejected	-6672
▁receiving	-6673
RE	-6674
mp	-6675
orter	-6676
▁sports	-6677
▁managed	-6678
▁consumers	-6679
▁civilization	-6680
▁automatically	-6681
..	-6682
DP	-6683
▁Dw	-6684
▁Liter	-6685
▁victory	-6686
▁internet	-6687
▁mountains	-6688
▁Administrative	-6689
yl	-6690
ache	-6691
husi	-6692
▁Alm	-6693
▁ren	-6694
▁accum	-6695
▁convin	-6696
▁facing	-6697
▁discover	-6698
▁converted	-6699
eff	-6700
▁ly	-6701
oram	-6702
ture	-6703
▁seat	-6704
▁wear	-6705
▁aimed	-6706
▁rising	-6707
▁liberty	-6708
mentation	-6709
▁eve	-6710
▁Make	-6711
▁airc	-6712
▁Energy	-6713
▁NABARD	-6714
▁cancer	-6715
▁signal	-6716
▁Election	-6717
▁technique	-6718
▁compassion	-6719
▁technological	-6720
anga	-6721
▁Term	-6722
▁bath	-6723
▁stim	-6724
▁Nagar	-6725
▁palace	-6726
▁Interest	-6727
▁appellant	-6728
OC	-6729
▁Jh	-6730
ktop	-6731
▁Mir	-6732
▁Ord	-6733
▁cas	-6734
▁dro	-6735
▁resort	-6736
▁wisdom	-6737
▁realised	-6738
▁dependent	-6739
▁contributed	-6740
▁isol	-6741
▁manage	-6742
▁deceased	-6743
▁Notwithstanding	-6744
▁meat	-6745
▁Money	-6746
chandra	-6747
esterday	-6748
▁Working	-6749
▁notified	-6750
oom	-6751
▁ca	-6752
▁sam	-6753
▁antic	-6754
▁decre	-6755
ificial	-6756
▁Vaishn	-6757
▁diverse	-6758
▁backward	-6759
▁subscribe	-6760
▁Industries	-6761
HER	-6762
NAME	-6763
endar	-6764
missible	-6765
▁raising	-6766
▁dangerous	-6767
▁statements	-6768
▁developments	-6769
▁Dom	-6770
ranch	-6771
▁cattle	-6772
▁maintaining	-6773
▁strengthening	-6774
ums	-6775
▁CP	-6776
▁Equ	-6777
amber	-6778
▁Gree	-6779
▁Oper	-6780
▁Siva	-6781
▁pride	-6782
▁saved	-6783
▁enthusi	-6784
▁experts	-6785
▁Maharaja	-6786
▁candidates	-6787
leum	-6788
▁ring	-6789
▁tort	-6790
▁applies	-6791
▁ran	-6792
▁tube	-6793
▁insure	-6794
▁minute	-6795
▁desired	-6796
▁examined	-6797
▁Knowledge	-6798
▁affection	-6799
▁childhood	-6800
▁vegetables	-6801
▁Max	-6802
arathi	-6803
▁utter	-6804
▁salary	-6805
▁closely	-6806
▁multipl	-6807
▁proviso	-6808
▁structures	-6809
hibit	-6810
▁sons	-6811
▁rough	-6812
▁learnt	-6813
▁submit	-6814
▁brothers	-6815
yr	-6816
▁cheque	-6817
▁domain	-6818
▁tourist	-6819
▁guarantee	-6820
▁privilege	-6821
▁declaration	-6822
▁bull	-6823
orders	-6824
▁Bench	-6825
▁asking	-6826
▁therein	-6827
▁venture	-6828
▁influenced	-6829
IP	-6830
ria	-6831
antly	-6832
▁oral	-6833
erning	-6834
▁inval	-6835
▁visual	-6836
▁planned	-6837
▁strange	-6838
▁obligation	-6839
▁suggestions	-6840
utor	-6841
▁rig	-6842
▁vul	-6843
▁jobs	-6844
▁printed	-6845
▁Governance	-6846
▁cultivation	-6847
▁Mor	-6848
▁Taj	-6849
ports	-6850
▁Number	-6851
▁Online	-6852
▁shrine	-6853
▁eminent	-6854
▁naturally	-6855
▁Tal	-6856
▁avo	-6857
▁fault	-6858
▁fluid	-6859
▁glass	-6860
▁index	-6861
▁older	-6862
▁adverse	-6863
▁ceremony	-6864
▁experiences	-6865
ding	-6866
rane	-6867
umes	-6868
▁Dar	-6869
▁Did	-6870
▁Have	-6871
▁Look	-6872
othing	-6873
▁embra	-6874
▁elabor	-6875
▁passage	-6876
▁operative	-6877
▁primarily	-6878
▁institutional	-6879
ogen	-6880
▁inev	-6881
▁pipes	-6882
▁listed	-6883
▁od	-6884
oked	-6885
▁Shi	-6886
erved	-6887
▁forty	-6888
▁route	-6889
▁German	-6890
▁stored	-6891
▁custody	-6892
▁preparation	-6893
TI	-6894
▁Lad	-6895
▁rhy	-6896
celer	-6897
▁beat	-6898
▁amalgam	-6899
▁controvers	-6900
nai	-6901
iable	-6902
ollow	-6903
▁tail	-6904
▁seeks	-6905
▁carbon	-6906
▁opposed	-6907
▁reduction	-6908
jan	-6909
▁asc	-6910
▁nav	-6911
essed	-6912
itals	-6913
▁clim	-6914
uction	-6915
duction	-6916
iversary	-6917
▁Railway	-6918
▁drawing	-6919
▁pertaining	-6920
iri	-6921
▁Death	-6922
▁expiry	-6923
▁novels	-6924
▁overse	-6925
▁Gazette	-6926
rm	-6927
▁Note	-6928
▁Sant	-6929
▁genu	-6930
▁unre	-6931
▁algor	-6932
▁operate	-6933
▁whereas	-6934
▁attended	-6935
▁Agricultural	-6936
▁mic	-6937
▁via	-6938
▁ended	-6939
▁bridge	-6940
▁servant	-6941
▁resulted	-6942
▁discovered	-6943
▁instruction	-6944
▁subordinate	-6945
EF	-6946
pat	-6947
▁mo	-6948
▁Iss	-6949
▁Lat	-6950
▁vim	-6951
plete	-6952
▁Four	-6953
▁aside	-6954
▁noise	-6955
▁recip	-6956
▁Arabic	-6957
▁condem	-6958
▁entity	-6959
▁fulfil	-6960
▁realise	-6961
▁sharing	-6962
▁totally	-6963
▁supposed	-6964
▁happening	-6965
ught	-6966
▁Gita	-6967
▁burn	-6968
▁regime	-6969
▁goddess	-6970
▁percentage	-6971
osc	-6972
▁analy	-6973
▁diagn	-6974
▁persu	-6975
▁Basava	-6976
▁options	-6977
▁rational	-6978
▁ministers	-6979
▁thereafter	-6980
za	-6981
▁Verm	-6982
▁flex	-6983
▁marks	-6984
▁surre	-6985
▁forced	-6986
▁incent	-6987
▁Marathi	-6988
▁Perhaps	-6989
▁replied	-6990
▁specify	-6991
▁testing	-6992
▁computers	-6993
▁corruption	-6994
▁progressive	-6995
UM	-6996
▁vent	-6997
▁towns	-6998
▁caught	-6999
▁refuge	-7000
▁programs	-7001
▁rendered	-7002
his	-7003
aria	-7004
▁pull	-7005
roleum	-7006
▁twice	-7007
▁spoken	-7008
▁Consult	-7009
▁completion	-7010
▁situations	-7011
van	-7012
▁Fr	-7013
mits	-7014
▁irre	-7015
▁shif	-7016
▁Obama	-7017
▁Table	-7018
▁stuff	-7019
iculture	-7020
▁Persons	-7021
▁arranged	-7022
▁societies	-7023
▁revolutionary	-7024
▁ing	-7025
▁mad	-7026
▁Cult	-7027
▁load	-7028
▁rect	-7029
▁muscle	-7030
▁emerged	-7031
▁Buddhist	-7032
▁Mahabharata	-7033
▁Hari	-7034
▁keen	-7035
▁bills	-7036
▁sharp	-7037
▁shock	-7038
▁Search	-7039
▁covers	-7040
▁editor	-7041
da	-7042
▁Conn	-7043
▁Supp	-7044
ferent	-7045
▁coord	-7046
▁dress	-7047
▁framed	-7048
▁limitation	-7049
▁destination	-7050
itra	-7051
▁Fil	-7052
▁gift	-7053
▁lamp	-7054
▁decor	-7055
▁neare	-7056
aneously	-7057
▁pictures	-7058
▁prospect	-7059
▁techniques	-7060
AND	-7061
aven	-7062
▁Chh	-7063
▁Test	-7064
▁pron	-7065
▁Bills	-7066
▁ruling	-7067
▁Defence	-7068
▁besides	-7069
▁Muhammad	-7070
▁integrity	-7071
▁discretion	-7072
ML	-7073
▁TV	-7074
bles	-7075
hend	-7076
tical	-7077
▁buff	-7078
▁prol	-7079
▁Again	-7080
ilation	-7081
lammation	-7082
▁properties	-7083
nex	-7084
ulf	-7085
raid	-7086
▁Sov	-7087
itors	-7088
▁scar	-7089
▁ruled	-7090
▁mathem	-7091
▁anticip	-7092
▁publish	-7093
▁marriages	-7094
▁regularly	-7095
▁impression	-7096
asy	-7097
agon	-7098
▁Mur	-7099
▁Ren	-7100
abling	-7101
▁Anand	-7102
▁Lanka	-7103
▁aband	-7104
▁elder	-7105
▁heads	-7106
▁sites	-7107
▁player	-7108
▁reprodu	-7109
▁complaints	-7110
▁congratulate	-7111
▁Administration	-7112
irs	-7113
arge	-7114
▁Mac	-7115
▁jew	-7116
▁View	-7117
▁emerging	-7118
▁oriented	-7119
▁enforcement	-7120
▁Farm	-7121
▁synt	-7122
asions	-7123
▁television	-7124
▁Certificate	-7125
heb	-7126
inc	-7127
▁sus	-7128
ulous	-7129
▁Sund	-7130
▁sets	-7131
▁metal	-7132
▁earned	-7133
▁ideals	-7134
▁switch	-7135
▁virtue	-7136
▁displayed	-7137
▁extensive	-7138
▁specifically	-7139
ham	-7140
▁CS	-7141
rian	-7142
▁Rao	-7143
▁Circ	-7144
▁ille	-7145
aching	-7146
▁alive	-7147
▁Create	-7148
▁George	-7149
▁concess	-7150
▁rapidly	-7151
UN	-7152
▁Aj	-7153
▁Fac	-7154
▁enl	-7155
▁gate	-7156
▁menu	-7157
aryana	-7158
▁Never	-7159
▁revol	-7160
▁clothes	-7161
▁illegal	-7162
▁enterprises	-7163
▁operational	-7164
urg	-7165
atri	-7166
olic	-7167
▁fly	-7168
▁Arch	-7169
▁Five	-7170
▁lakhs	-7171
▁Punjabi	-7172
▁putting	-7173
▁Br	-7174
eenth	-7175
▁encl	-7176
▁immun	-7177
ishment	-7178
reement	-7179
▁mailing	-7180
▁organisms	-7181
▁monitoring	-7182
▁implementing	-7183
▁tou	-7184
▁Sett	-7185
▁roots	-7186
▁imagine	-7187
▁islands	-7188
▁enhanced	-7189
▁interface	-7190
▁constantly	-7191
exp	-7192
life	-7193
▁pond	-7194
endous	-7195
▁empow	-7196
▁Global	-7197
▁empire	-7198
▁organs	-7199
▁sensitive	-7200
▁calculated	-7201
▁collective	-7202
illa	-7203
ster	-7204
▁anc	-7205
▁Kann	-7206
▁Nath	-7207
▁indigenous	-7208
▁translated	-7209
▁constructed	-7210
▁imagination	-7211
aci	-7212
▁flour	-7213
▁marry	-7214
▁awards	-7215
▁depart	-7216
▁consolid	-7217
▁indicated	-7218
▁nd	-7219
▁Sou	-7220
▁Vij	-7221
rogen	-7222
▁bold	-7223
▁Green	-7224
▁Empire	-7225
▁deliber	-7226
▁warrant	-7227
▁Accounts	-7228
▁duration	-7229
▁depending	-7230
▁endeavour	-7231
wide	-7232
▁Dig	-7233
▁Benef	-7234
▁wheat	-7235
▁entrusted	-7236
ste	-7237
▁Gan	-7238
obile	-7239
istent	-7240
▁replaced	-7241
▁generations	-7242
▁transportation	-7243
isite	-7244
▁Bhut	-7245
▁thin	-7246
▁worker	-7247
▁Haryana	-7248
▁ordered	-7249
▁combined	-7250
▁offering	-7251
▁concerning	-7252
END	-7253
▁vs	-7254
chant	-7255
▁Keep	-7256
orious	-7257
▁models	-7258
▁chromos	-7259
▁reaching	-7260
▁newspapers	-7261
habilitation	-7262
▁characteristic	-7263
▁fet	-7264
▁irres	-7265
▁lover	-7266
▁Recomm	-7267
▁Sector	-7268
▁dynamic	-7269
▁Goa	-7270
▁fab	-7271
▁Phys	-7272
▁pair	-7273
▁Polit	-7274
▁Saudi	-7275
▁catch	-7276
▁cloud	-7277
▁desir	-7278
▁homes	-7279
▁royal	-7280
▁Review	-7281
▁comments	-7282
▁contrast	-7283
▁whenever	-7284
▁Sucharita	-7285
▁achieving	-7286
▁paragraph	-7287
▁perfection	-7288
adur	-7289
arsh	-7290
urch	-7291
▁Deb	-7292
▁Saf	-7293
issions	-7294
▁repeal	-7295
▁slowly	-7296
▁fertiliz	-7297
▁organism	-7298
▁Professor	-7299
▁supplement	-7300
▁Sem	-7301
▁Check	-7302
▁empty	-7303
▁litig	-7304
▁Proper	-7305
▁divers	-7306
▁ending	-7307
▁parallel	-7308
▁undertake	-7309
aem	-7310
▁Sr	-7311
iche	-7312
lied	-7313
▁unn	-7314
ching	-7315
▁Devi	-7316
▁wing	-7317
▁prefer	-7318
▁settle	-7319
▁burning	-7320
▁degrees	-7321
▁library	-7322
▁readers	-7323
▁selling	-7324
▁Innovation	-7325
ART	-7326
power	-7327
▁snow	-7328
▁Canada	-7329
▁Current	-7330
▁promise	-7331
operation	-7332
ugu	-7333
itative	-7334
▁paying	-7335
▁inclusive	-7336
▁resistance	-7337
Os	-7338
dy	-7339
▁elev	-7340
▁sixty	-7341
▁Forest	-7342
▁endeav	-7343
comm	-7344
kind	-7345
▁Nob	-7346
▁inher	-7347
▁wages	-7348
▁eating	-7349
▁handic	-7350
▁listen	-7351
▁unfort	-7352
▁factory	-7353
▁ultimate	-7354
▁everywhere	-7355
▁Engineering	-7356
lig	-7357
otal	-7358
▁Amb	-7359
▁rot	-7360
▁nerve	-7361
▁worry	-7362
▁Jewish	-7363
▁killing	-7364
▁routine	-7365
▁somebody	-7366
▁beneficial	-7367
▁IR	-7368
orne	-7369
▁bon	-7370
▁Bush	-7371
▁Cannot	-7372
▁Majesty	-7373
▁calling	-7374
▁defendant	-7375
addy	-7376
haust	-7377
▁rose	-7378
▁Penal	-7379
▁Welfare	-7380
▁helping	-7381
▁regards	-7382
isp	-7383
lin	-7384
▁MP	-7385
▁Oh	-7386
▁map	-7387
▁zone	-7388
▁enorm	-7389
▁Chennai	-7390
▁Leprosy	-7391
▁impress	-7392
▁earliest	-7393
▁extraord	-7394
▁historic	-7395
▁destroyed	-7396
▁requested	-7397
▁sustained	-7398
▁necessarily	-7399
▁Tar	-7400
▁pit	-7401
▁upl	-7402
▁Date	-7403
▁arises	-7404
▁condol	-7405
▁aggress	-7406
▁crucial	-7407
▁falling	-7408
▁executed	-7409
▁hundreds	-7410
▁collaboration	-7411
JP	-7412
iam	-7413
▁Mot	-7414
▁vib	-7415
▁duly	-7416
▁exem	-7417
▁Three	-7418
ATE	-7419
▁NG	-7420
stig	-7421
ective	-7422
▁Malay	-7423
▁auton	-7424
▁Terror	-7425
▁Washing	-7426
▁batsman	-7427
▁resolve	-7428
▁turning	-7429
▁colonial	-7430
▁Departments	-7431
enger	-7432
oking	-7433
▁cord	-7434
▁Sever	-7435
▁memor	-7436
▁suicide	-7437
▁considering	-7438
▁corresponding	-7439
just	-7440
▁Kap	-7441
▁Smt	-7442
▁Bach	-7443
▁epic	-7444
▁plug	-7445
urated	-7446
▁wings	-7447
▁audience	-7448
▁protected	-7449
▁Son	-7450
▁ash	-7451
ether	-7452
▁Stre	-7453
▁icon	-7454
▁shad	-7455
▁Young	-7456
▁stars	-7457
▁Access	-7458
▁recruit	-7459
▁aircraft	-7460
▁equivalent	-7461
ino	-7462
irt	-7463
uing	-7464
▁Get	-7465
▁Kor	-7466
▁Card	-7467
▁Love	-7468
▁cruel	-7469
▁tract	-7470
athered	-7471
▁subsid	-7472
▁varied	-7473
▁decline	-7474
▁stations	-7475
▁competitive	-7476
▁inspiration	-7477
▁obligations	-7478
orse	-7479
▁grace	-7480
▁evolved	-7481
▁prejudice	-7482
TS	-7483
US	-7484
bre	-7485
▁Sil	-7486
▁Mang	-7487
▁Soviet	-7488
▁defeat	-7489
▁tongue	-7490
▁Brahman	-7491
▁alleged	-7492
▁genuine	-7493
▁returns	-7494
▁tribunal	-7495
▁interaction	-7496
alal	-7497
ulus	-7498
▁Mun	-7499
▁Nic	-7500
night	-7501
unals	-7502
▁Mach	-7503
▁copies	-7504
▁circuit	-7505
▁realize	-7506
▁Ve	-7507
aked	-7508
▁Badr	-7509
▁horiz	-7510
▁entertain	-7511
▁healthcare	-7512
▁exploitation	-7513
▁incorporated	-7514
rete	-7515
▁Hand	-7516
▁Times	-7517
▁newly	-7518
▁tasks	-7519
adation	-7520
▁monthly	-7521
▁peaceful	-7522
▁terminal	-7523
▁commodities	-7524
▁Ach	-7525
▁DAY	-7526
▁RBI	-7527
▁Sign	-7528
▁scre	-7529
▁Click	-7530
▁farming	-7531
▁yesterday	-7532
▁derivative	-7533
agra	-7534
▁ICT	-7535
▁Kav	-7536
▁Rah	-7537
▁hurt	-7538
▁taxes	-7539
▁satell	-7540
▁belongs	-7541
▁Software	-7542
▁complain	-7543
▁multiply	-7544
▁consequence	-7545
▁Ms	-7546
▁SE	-7547
urit	-7548
▁haz	-7549
▁hes	-7550
▁Perm	-7551
▁Save	-7552
▁busy	-7553
orters	-7554
▁Local	-7555
▁Treat	-7556
▁Truth	-7557
▁bread	-7558
▁faces	-7559
▁grain	-7560
▁denied	-7561
▁finger	-7562
▁rememb	-7563
▁mistake	-7564
▁weakness	-7565
▁generated	-7566
▁residence	-7567
▁scheduled	-7568
▁regulation	-7569
▁composition	-7570
IM	-7571
▁Cy	-7572
enda	-7573
▁Log	-7574
▁wage	-7575
▁shift	-7576
▁Hindust	-7577
▁Nothing	-7578
▁feeding	-7579
▁territories	-7580
▁conservation	-7581
TP	-7582
ITs	-7583
ato	-7584
▁ju	-7585
▁Que	-7586
ureau	-7587
▁Lear	-7588
▁boat	-7589
▁blank	-7590
▁ruler	-7591
▁prayer	-7592
▁kilomet	-7593
▁succeeded	-7594
▁Washington	-7595
▁artificial	-7596
▁supporting	-7597
▁ice	-7598
▁pled	-7599
▁alter	-7600
▁legit	-7601
▁devoted	-7602
▁injured	-7603
▁Bangalore	-7604
▁recognize	-7605
▁PM	-7606
ymph	-7607
osted	-7608
▁trek	-7609
▁tooth	-7610
▁simult	-7611
▁Several	-7612
▁prestig	-7613
▁serving	-7614
▁Moreover	-7615
▁Investment	-7616
hash	-7617
▁USA	-7618
nasty	-7619
▁Govt	-7620
▁pump	-7621
▁silk	-7622
▁urge	-7623
▁intim	-7624
▁lying	-7625
▁miles	-7626
▁furnished	-7627
▁hal	-7628
APTER	-7629
▁pest	-7630
▁Mahal	-7631
▁spons	-7632
▁button	-7633
▁noticed	-7634
▁presentation	-7635
▁aer	-7636
▁mah	-7637
▁shell	-7638
▁summer	-7639
ographic	-7640
▁carries	-7641
▁intense	-7642
▁outlook	-7643
▁partial	-7644
▁overcome	-7645
▁vehicles	-7646
▁Regulation	-7647
▁tremendous	-7648
▁ultimately	-7649
ashi	-7650
▁Bro	-7651
▁dele	-7652
ections	-7653
▁afraid	-7654
▁biggest	-7655
▁recover	-7656
▁Japanese	-7657
▁channels	-7658
▁Recommend	-7659
▁attracted	-7660
▁obtaining	-7661
rh	-7662
time	-7663
▁dil	-7664
▁brill	-7665
▁bigger	-7666
▁deduct	-7667
▁winter	-7668
amination	-7669
▁Constitu	-7670
▁financing	-7671
▁references	-7672
▁rd	-7673
unch	-7674
▁Hall	-7675
▁Play	-7676
▁glad	-7677
▁memb	-7678
▁stom	-7679
hibited	-7680
▁hidden	-7681
▁database	-7682
▁disorder	-7683
▁thorough	-7684
▁referring	-7685
▁Foundation	-7686
▁frequently	-7687
▁substituted	-7688
fe	-7689
HAR	-7690
▁CA	-7691
riev	-7692
oding	-7693
▁charm	-7694
▁maybe	-7695
indranath	-7696
▁innocent	-7697
▁Allahabad	-7698
▁relatives	-7699
▁stability	-7700
▁configuration	-7701
what	-7702
▁lung	-7703
▁NATION	-7704
▁client	-7705
▁younger	-7706
rous	-7707
▁dow	-7708
▁dict	-7709
▁intu	-7710
▁wave	-7711
hemical	-7712
▁Sheikh	-7713
▁Ayurved	-7714
▁theatre	-7715
▁agreements	-7716
▁characteristics	-7717
▁Od	-7718
etan	-7719
pent	-7720
eches	-7721
oster	-7722
▁merg	-7723
▁castes	-7724
▁CHAPTER	-7725
▁assured	-7726
▁retired	-7727
▁dramatic	-7728
rem	-7729
▁Str	-7730
▁sed	-7731
▁Luck	-7732
▁larva	-7733
▁holder	-7734
▁lawyers	-7735
▁organic	-7736
▁sending	-7737
ictionary	-7738
▁Planning	-7739
▁exception	-7740
▁exercised	-7741
▁Accordingly	-7742
▁AM	-7743
▁Rav	-7744
▁Ste	-7745
▁loy	-7746
ecess	-7747
utosh	-7748
▁vacc	-7749
▁Sessions	-7750
▁contents	-7751
▁inherent	-7752
▁aggregate	-7753
▁varieties	-7754
▁attachment	-7755
acle	-7756
▁pool	-7757
▁stup	-7758
▁governed	-7759
▁performing	-7760
▁legislature	-7761
auc	-7762
utch	-7763
▁Nir	-7764
▁deity	-7765
▁penal	-7766
▁Speech	-7767
▁worshi	-7768
▁Consumer	-7769
▁classical	-7770
▁exclusive	-7771
▁positions	-7772
▁punishable	-7773
gin	-7774
▁CC	-7775
▁IV	-7776
▁Ir	-7777
quar	-7778
rine	-7779
▁err	-7780
irmed	-7781
▁genus	-7782
▁tells	-7783
▁Topics	-7784
▁Himalayas	-7785
▁discrimination	-7786
ns	-7787
ald	-7788
▁Sea	-7789
etime	-7790
▁Cell	-7791
▁fraud	-7792
▁motiv	-7793
entions	-7794
▁Telugu	-7795
▁circle	-7796
▁attempts	-7797
▁profound	-7798
▁constitut	-7799
▁occasions	-7800
▁pregnancy	-7801
▁radiation	-7802
ogy	-7803
▁cum	-7804
▁Mess	-7805
▁auth	-7806
liance	-7807
ricted	-7808
fulness	-7809
rations	-7810
▁easier	-7811
▁fairly	-7812
▁gained	-7813
▁Computer	-7814
▁protocol	-7815
asis	-7816
▁gun	-7817
▁Tour	-7818
▁mood	-7819
incial	-7820
▁loose	-7821
▁delete	-7822
▁thread	-7823
▁sanctioned	-7824
HA	-7825
The	-7826
how	-7827
oult	-7828
▁Bul	-7829
▁fle	-7830
rates	-7831
▁Arun	-7832
▁Forum	-7833
atories	-7834
▁closer	-7835
▁exhaust	-7836
▁pillars	-7837
▁profile	-7838
▁describe	-7839
oma	-7840
ictions	-7841
▁partly	-7842
▁Collect	-7843
▁disqual	-7844
▁genetic	-7845
▁musical	-7846
▁abnormal	-7847
▁bacteria	-7848
▁sequence	-7849
▁increases	-7850
▁Institutions	-7851
erals	-7852
▁Indo	-7853
▁Thank	-7854
lessness	-7855
▁extract	-7856
▁precious	-7857
▁reducing	-7858
▁strongly	-7859
▁preferred	-7860
▁experienced	-7861
▁representing	-7862
▁extraordinary	-7863
ida	-7864
ador	-7865
akar	-7866
cers	-7867
wood	-7868
▁flo	-7869
▁row	-7870
ariat	-7871
being	-7872
▁united	-7873
▁Private	-7874
▁produces	-7875
▁Prevention	-7876
ukh	-7877
ipped	-7878
▁Norm	-7879
▁axis	-7880
▁Arbit	-7881
▁landl	-7882
▁gathered	-7883
▁institute	-7884
ios	-7885
▁dh	-7886
avas	-7887
akers	-7888
ovable	-7889
▁furnish	-7890
▁payments	-7891
dev	-7892
off	-7893
▁SS	-7894
▁Sl	-7895
EECH	-7896
xide	-7897
▁Help	-7898
▁Major	-7899
▁Short	-7900
▁recon	-7901
▁Action	-7902
▁SPEECH	-7903
▁farmer	-7904
▁metres	-7905
▁spring	-7906
▁Centres	-7907
▁doctors	-7908
▁seriously	-7909
▁integration	-7910
▁AN	-7911
▁Path	-7912
coming	-7913
▁Entry	-7914
▁incap	-7915
▁sheep	-7916
▁turns	-7917
▁praise	-7918
▁cutting	-7919
▁anywhere	-7920
ss	-7921
jun	-7922
▁unl	-7923
▁Vide	-7924
▁emer	-7925
▁Dwark	-7926
▁Nanak	-7927
▁chest	-7928
▁lands	-7929
▁magaz	-7930
▁norms	-7931
itarian	-7932
▁Islands	-7933
▁enjoyed	-7934
▁scholar	-7935
▁servants	-7936
▁necessity	-7937
▁acceptable	-7938
▁identification	-7939
iya	-7940
pex	-7941
odox	-7942
▁Ele	-7943
▁Indeed	-7944
▁comprom	-7945
▁periods	-7946
▁pronoun	-7947
▁modified	-7948
▁recording	-7949
▁realisation	-7950
▁Na	-7951
itya	-7952
▁oxy	-7953
▁intr	-7954
▁clock	-7955
▁fails	-7956
▁plane	-7957
▁bearing	-7958
▁cad	-7959
lessly	-7960
▁Abdul	-7961
▁bonds	-7962
▁cater	-7963
▁grave	-7964
▁lingu	-7965
▁risks	-7966
▁Family	-7967
▁daniel	-7968
▁inputs	-7969
▁pretty	-7970
liminary	-7971
▁Ap	-7972
inth	-7973
olec	-7974
▁gap	-7975
itate	-7976
▁Cast	-7977
▁pace	-7978
isible	-7979
▁Light	-7980
▁inhab	-7981
▁wider	-7982
▁engage	-7983
▁stones	-7984
▁adoption	-7985
▁reposted	-7986
▁exceeding	-7987
▁programming	-7988
▁establishing	-7989
met	-7990
▁mould	-7991
itioner	-7992
▁Indira	-7993
▁flight	-7994
▁walking	-7995
criptions	-7996
▁revealed	-7997
▁acknowled	-7998
▁indicates	-7999
▁interview	-8000
▁appreciation	-8001
atra	-8002
▁Ven	-8003
▁Wik	-8004
igarh	-8005
▁font	-8006
▁Advis	-8007
▁Netaji	-8008
▁wherein	-8009
▁increasingly	-8010
zen	-8011
▁BY	-8012
gage	-8013
rative	-8014
▁fifth	-8015
▁darkness	-8016
▁convicted	-8017
uts	-8018
anth	-8019
bind	-8020
▁remedy	-8021
lamation	-8022
▁Bahadur	-8023
▁acceler	-8024
▁windows	-8025
▁contacts	-8026
ua	-8027
▁Six	-8028
▁vag	-8029
acing	-8030
▁Take	-8031
▁march	-8032
▁texts	-8033
▁genius	-8034
▁urgent	-8035
▁assumed	-8036
▁ownership	-8037
OV	-8038
▁spr	-8039
endix	-8040
▁Pune	-8041
▁mine	-8042
ancell	-8043
ilding	-8044
▁forum	-8045
▁incom	-8046
▁uncle	-8047
▁golden	-8048
▁imported	-8049
▁somewhat	-8050
▁Municipal	-8051
▁corporation	-8052
▁cav	-8053
ogram	-8054
engers	-8055
missions	-8056
▁Manipur	-8057
▁reflected	-8058
▁villagers	-8059
▁restrictions	-8060
▁Dav	-8061
▁Jos	-8062
eding	-8063
▁plot	-8064
▁scrut	-8065
▁faster	-8066
▁stayed	-8067
▁driving	-8068
▁enlight	-8069
▁enquiry	-8070
▁compulsory	-8071
▁remembered	-8072
down	-8073
herry	-8074
▁meal	-8075
▁Third	-8076
▁kings	-8077
atively	-8078
▁Unable	-8079
▁devote	-8080
▁fabric	-8081
▁impose	-8082
▁silent	-8083
ribution	-8084
▁Enterpr	-8085
▁harmful	-8086
▁invalid	-8087
▁silence	-8088
▁equation	-8089
▁continuing	-8090
▁institutes	-8091
▁HT	-8092
▁Gen	-8093
using	-8094
▁calm	-8095
▁adults	-8096
▁perpet	-8097
▁silver	-8098
▁package	-8099
▁reserve	-8100
▁enabling	-8101
▁tourists	-8102
▁wherever	-8103
▁appreciate	-8104
▁encouraging	-8105
DF	-8106
▁Han	-8107
▁cul	-8108
▁Zone	-8109
▁luck	-8110
alysis	-8111
▁lease	-8112
▁nodes	-8113
▁Lahore	-8114
▁Temple	-8115
▁fought	-8116
▁hearts	-8117
▁preval	-8118
▁smooth	-8119
▁imports	-8120
▁pleased	-8121
TH	-8122
uti	-8123
aved	-8124
iders	-8125
ipher	-8126
▁alien	-8127
▁infer	-8128
▁wheel	-8129
usively	-8130
▁Instead	-8131
▁stomach	-8132
▁literacy	-8133
▁reserved	-8134
▁Badruddin	-8135
▁describes	-8136
▁Employment	-8137
nic	-8138
wara	-8139
plate	-8140
lihood	-8141
▁brown	-8142
▁repay	-8143
ogether	-8144
▁gentle	-8145
▁talent	-8146
▁African	-8147
▁careful	-8148
▁mankind	-8149
▁premium	-8150
▁circular	-8151
▁province	-8152
▁eventually	-8153
▁complicated	-8154
opl	-8155
▁Ray	-8156
archy	-8157
▁Narm	-8158
▁Relig	-8159
▁Brahma	-8160
▁Ganges	-8161
▁artist	-8162
▁precise	-8163
▁retirement	-8164
▁fo	-8165
▁Chal	-8166
▁posts	-8167
▁headed	-8168
▁valley	-8169
▁Without	-8170
▁answers	-8171
▁surgery	-8172
▁Islamists	-8173
▁conventional	-8174
oa	-8175
oty	-8176
▁NS	-8177
unate	-8178
▁acute	-8179
▁alloc	-8180
▁plain	-8181
▁vested	-8182
▁disturb	-8183
▁formula	-8184
▁aspirations	-8185
▁geographical	-8186
omous	-8187
▁spin	-8188
▁wire	-8189
arency	-8190
▁feels	-8191
▁keeps	-8192
▁loved	-8193
▁merit	-8194
▁handle	-8195
▁heaven	-8196
▁repair	-8197
▁unlike	-8198
▁printing	-8199
orce	-8200
ouds	-8201
hical	-8202
▁indu	-8203
idency	-8204
▁dreams	-8205
▁colleges	-8206
▁entering	-8207
▁inspection	-8208
lor	-8209
▁Dam	-8210
angle	-8211
avior	-8212
▁Vill	-8213
▁worse	-8214
▁Swaraj	-8215
▁Academy	-8216
▁browser	-8217
▁enormous	-8218
▁algorithm	-8219
▁Docu	-8220
▁Paul	-8221
▁idol	-8222
▁Black	-8223
▁bears	-8224
▁bride	-8225
▁Valley	-8226
▁interpre	-8227
▁networks	-8228
▁visiting	-8229
ALL	-8230
ario	-8231
▁Ans	-8232
inder	-8233
urning	-8234
▁Print	-8235
▁intermedi	-8236
Cs	-8237
▁Ce	-8238
aming	-8239
stone	-8240
▁Agra	-8241
▁Mart	-8242
▁dear	-8243
apping	-8244
▁beach	-8245
▁begun	-8246
▁taste	-8247
▁batter	-8248
▁breath	-8249
▁dissem	-8250
▁firmly	-8251
iciently	-8252
▁Quality	-8253
▁Session	-8254
akrishnan	-8255
▁comprising	-8256
gi	-8257
▁Champ	-8258
▁ought	-8259
▁island	-8260
▁refund	-8261
▁licence	-8262
▁calendar	-8263
▁nominated	-8264
▁observations	-8265
▁subsequently	-8266
kh	-8267
alli	-8268
apse	-8269
mans	-8270
▁Reform	-8271
▁adding	-8272
▁native	-8273
▁complim	-8274
▁relates	-8275
▁mandatory	-8276
CO	-8277
je	-8278
▁Exc	-8279
▁mil	-8280
▁unp	-8281
▁Phot	-8282
▁brave	-8283
▁saving	-8284
▁revision	-8285
▁instituted	-8286
▁End	-8287
chers	-8288
ESSAGE	-8289
▁retain	-8290
▁thinks	-8291
ifferent	-8292
▁Federal	-8293
▁paramet	-8294
▁everybody	-8295
▁Organization	-8296
ela	-8297
ubs	-8298
▁EX	-8299
aras	-8300
▁tor	-8301
▁Auro	-8302
▁lake	-8303
▁tall	-8304
ashion	-8305
▁hotel	-8306
▁snake	-8307
▁resear	-8308
▁tribes	-8309
▁Display	-8310
▁exchanges	-8311
▁installation	-8312
asp	-8313
▁NH	-8314
ulum	-8315
▁Aur	-8316
▁bin	-8317
▁fan	-8318
▁fou	-8319
▁gif	-8320
▁wed	-8321
ivals	-8322
▁bare	-8323
itudes	-8324
rating	-8325
▁penet	-8326
▁slightly	-8327
▁Promotion	-8328
▁admission	-8329
▁membership	-8330
▁La	-8331
ffee	-8332
illy	-8333
▁Madh	-8334
▁Sank	-8335
▁horn	-8336
▁semi	-8337
▁adjud	-8338
▁depre	-8339
▁driven	-8340
▁nervous	-8341
▁Transfer	-8342
▁actively	-8343
▁advocate	-8344
▁handling	-8345
▁presents	-8346
▁candidate	-8347
▁convinced	-8348
▁stakeholders	-8349
▁dies	-8350
▁hide	-8351
▁orth	-8352
▁rein	-8353
▁resc	-8354
▁tack	-8355
▁thro	-8356
father	-8357
ulates	-8358
▁Repeal	-8359
▁Iranian	-8360
▁massive	-8361
▁breeding	-8362
▁expanded	-8363
▁Americans	-8364
▁disability	-8365
▁separately	-8366
iac	-8367
▁Cost	-8368
▁Requ	-8369
▁hunt	-8370
▁troops	-8371
▁elsewhere	-8372
▁obviously	-8373
UD	-8374
▁Has	-8375
▁Jam	-8376
▁Jews	-8377
▁Radh	-8378
▁amaz	-8379
▁tons	-8380
▁admit	-8381
istence	-8382
▁Nation	-8383
▁speedy	-8384
▁MESSAGE	-8385
▁Ministries	-8386
▁terrorists	-8387
pay	-8388
▁AW	-8389
▁Next	-8390
▁Kabir	-8391
▁broke	-8392
▁Scient	-8393
▁Windows	-8394
▁essence	-8395
▁keyboard	-8396
▁marginal	-8397
▁speeches	-8398
▁surprise	-8399
▁addresses	-8400
ICE	-8401
roid	-8402
▁Vive	-8403
▁stem	-8404
▁abuse	-8405
▁crowd	-8406
▁butter	-8407
▁peculi	-8408
▁struck	-8409
▁vessels	-8410
▁hardware	-8411
▁arguments	-8412
▁residential	-8413
AYS	-8414
▁AC	-8415
▁la	-8416
▁py	-8417
book	-8418
▁cin	-8419
hesis	-8420
▁Down	-8421
▁alcoh	-8422
▁driver	-8423
▁oxygen	-8424
▁desktop	-8425
▁preceding	-8426
▁violation	-8427
isal	-8428
rich	-8429
▁Til	-8430
itary	-8431
▁Hard	-8432
▁aged	-8433
▁cogn	-8434
person	-8435
▁logic	-8436
▁Product	-8437
▁Subhash	-8438
▁confirm	-8439
▁players	-8440
▁dialogue	-8441
▁premises	-8442
▁sympathy	-8443
▁excessive	-8444
▁governing	-8445
▁ignorance	-8446
▁originally	-8447
▁rehabilitation	-8448
BER	-8449
ocks	-8450
rase	-8451
agues	-8452
ridge	-8453
▁Band	-8454
▁noble	-8455
▁plate	-8456
▁agents	-8457
▁handed	-8458
resident	-8459
▁Deposit	-8460
▁Gujarati	-8461
▁download	-8462
▁supplied	-8463
▁withdrawal	-8464
UG	-8465
oz	-8466
IST	-8467
itan	-8468
▁Long	-8469
▁Spec	-8470
▁Vict	-8471
▁nose	-8472
▁vulner	-8473
▁acquire	-8474
▁expertise	-8475
▁Additional	-8476
awn	-8477
will	-8478
idity	-8479
▁movie	-8480
▁Partic	-8481
▁assert	-8482
▁knowing	-8483
▁finished	-8484
▁Standards	-8485
▁incidents	-8486
▁designated	-8487
EST	-8488
rue	-8489
ighter	-8490
inking	-8491
pector	-8492
essment	-8493
theless	-8494
▁Bureau	-8495
▁decimal	-8496
▁savings	-8497
sequently	-8498
▁Movement	-8499
▁generate	-8500
▁minority	-8501
▁overseas	-8502
▁occupation	-8503
▁formulation	-8504
aar	-8505
agn	-8506
kal	-8507
▁IPv	-8508
ammed	-8509
place	-8510
▁Kitt	-8511
▁arts	-8512
▁pock	-8513
iceroy	-8514
istrar	-8515
▁adapt	-8516
▁optim	-8517
▁topic	-8518
ignment	-8519
▁Modern	-8520
▁quoted	-8521
▁tendency	-8522
▁relatively	-8523
lers	-8524
▁pion	-8525
▁films	-8526
▁shoot	-8527
▁breach	-8528
quarters	-8529
▁telling	-8530
▁broadcast	-8531
▁Institution	-8532
▁Ny	-8533
▁Cho	-8534
▁lov	-8535
acific	-8536
▁Grand	-8537
▁Sahib	-8538
▁Solar	-8539
▁Vedas	-8540
▁evalu	-8541
▁holid	-8542
▁Default	-8543
bh	-8544
oda	-8545
otism	-8546
▁Shar	-8547
▁jump	-8548
▁Durga	-8549
▁glory	-8550
▁tests	-8551
▁Bhutan	-8552
▁ancest	-8553
▁lawyer	-8554
▁singing	-8555
▁cultures	-8556
▁monetary	-8557
▁patterns	-8558
anim	-8559
pura	-8560
vara	-8561
▁Yoj	-8562
▁bio	-8563
antra	-8564
▁Azad	-8565
▁inqu	-8566
▁Amrit	-8567
▁Citiz	-8568
▁gramm	-8569
▁pursue	-8570
▁protein	-8571
▁subsidy	-8572
▁utilised	-8573
▁conducting	-8574
▁particulars	-8575
kim	-8576
airy	-8577
oven	-8578
aimed	-8579
amboo	-8580
▁Main	-8581
▁Page	-8582
▁shut	-8583
▁warn	-8584
abetes	-8585
▁plains	-8586
▁Lucknow	-8587
▁affects	-8588
▁focused	-8589
▁protest	-8590
▁winning	-8591
▁engagement	-8592
▁determining	-8593
▁CR	-8594
▁Bhav	-8595
▁Jour	-8596
▁domin	-8597
▁planet	-8598
▁Articles	-8599
▁occupied	-8600
▁peculiar	-8601
▁schedule	-8602
▁Transport	-8603
▁communications	-8604
AK	-8605
ford	-8606
▁Sad	-8607
▁palm	-8608
asures	-8609
▁fract	-8610
▁india	-8611
▁rhyth	-8612
▁stable	-8613
▁breaking	-8614
▁machines	-8615
▁enhancing	-8616
▁tolerance	-8617
▁livelihood	-8618
DI	-8619
pes	-8620
▁Tib	-8621
▁mit	-8622
▁Thir	-8623
▁usage	-8624
attered	-8625
▁Region	-8626
▁concluded	-8627
▁empowered	-8628
▁absolutely	-8629
▁phenomenon	-8630
▁prevention	-8631
▁observation	-8632
▁Organisation	-8633
adra	-8634
▁isn	-8635
▁vii	-8636
attis	-8637
▁Mean	-8638
▁shot	-8639
olving	-8640
▁abdom	-8641
▁harmon	-8642
▁mineral	-8643
▁Himalayan	-8644
▁Christians	-8645
▁compliance	-8646
▁approximately	-8647
BC	-8648
uma	-8649
▁CL	-8650
▁NE	-8651
orry	-8652
▁Imple	-8653
▁Vivek	-8654
▁acted	-8655
▁anger	-8656
▁assemb	-8657
▁couldn	-8658
▁margin	-8659
▁vimana	-8660
▁writes	-8661
▁authors	-8662
▁insurer	-8663
▁mixture	-8664
▁Contract	-8665
▁preserve	-8666
▁EVE	-8667
▁rat	-8668
rible	-8669
▁Desp	-8670
▁Wild	-8671
▁Media	-8672
▁arrive	-8673
▁freely	-8674
▁levied	-8675
▁cancell	-8676
▁denomin	-8677
▁printer	-8678
▁Appendix	-8679
▁Resource	-8680
▁announce	-8681
▁objection	-8682
▁delegation	-8683
pa	-8684
ett	-8685
log	-8686
ahan	-8687
▁lac	-8688
alaya	-8689
▁clin	-8690
itated	-8691
ortion	-8692
▁Arabs	-8693
▁Const	-8694
▁bones	-8695
ologist	-8696
▁Jagann	-8697
▁sounds	-8698
▁visits	-8699
▁William	-8700
▁fashion	-8701
▁immovable	-8702
▁cooperative	-8703
bra	-8704
ese	-8705
uri	-8706
eals	-8707
▁voc	-8708
▁Loan	-8709
▁Nand	-8710
▁sake	-8711
▁supr	-8712
▁cease	-8713
▁genes	-8714
▁Agency	-8715
▁Narayan	-8716
▁creates	-8717
▁ignored	-8718
▁revised	-8719
▁reserves	-8720
▁succession	-8721
teen	-8722
upee	-8723
▁nod	-8724
▁rab	-8725
adequ	-8726
▁Type	-8727
▁Vish	-8728
▁stip	-8729
▁unem	-8730
▁Space	-8731
▁Bhagat	-8732
▁Sharma	-8733
▁Finally	-8734
▁outcome	-8735
▁streams	-8736
▁attained	-8737
▁experiments	-8738
▁innovations	-8739
▁involvement	-8740
▁modification	-8741
▁participants	-8742
▁Environmental	-8743
EV	-8744
oure	-8745
acles	-8746
▁ages	-8747
▁perce	-8748
▁reign	-8749
▁compan	-8750
▁humans	-8751
▁nearby	-8752
▁nobody	-8753
▁Minimum	-8754
▁exclusively	-8755
▁preliminary	-8756
ITY	-8757
arkar	-8758
onent	-8759
▁Care	-8760
▁sees	-8761
oultry	-8762
ounded	-8763
ushing	-8764
▁Senior	-8765
▁believes	-8766
▁dimension	-8767
▁colleagues	-8768
▁imperialism	-8769
DR	-8770
nut	-8771
▁bug	-8772
▁chap	-8773
▁fond	-8774
ancies	-8775
otions	-8776
▁Raman	-8777
▁abund	-8778
▁equals	-8779
▁exceeds	-8780
▁federal	-8781
▁Aurobind	-8782
▁attacked	-8783
▁qualified	-8784
▁personally	-8785
▁MW	-8786
▁Yam	-8787
▁Bhai	-8788
▁nest	-8789
▁Samaj	-8790
▁chart	-8791
▁hyper	-8792
▁Pension	-8793
▁binding	-8794
▁clauses	-8795
▁missing	-8796
▁Railways	-8797
▁commodity	-8798
▁discovery	-8799
▁Dwarkanath	-8800
▁surrounded	-8801
ocy	-8802
▁unh	-8803
▁Pract	-8804
▁molec	-8805
▁Design	-8806
▁Museum	-8807
▁Sindhi	-8808
▁agenda	-8809
▁Revenue	-8810
▁Viceroy	-8811
▁distant	-8812
▁enables	-8813
▁Standard	-8814
▁Technical	-8815
▁separated	-8816
▁surrender	-8817
▁electrical	-8818
▁capabilities	-8819
ENCE	-8820
aunt	-8821
▁Vid	-8822
▁tum	-8823
▁van	-8824
▁void	-8825
terior	-8826
▁magic	-8827
▁pestic	-8828
▁reward	-8829
▁destiny	-8830
▁realized	-8831
▁judgments	-8832
▁allocation	-8833
▁accommodation	-8834
UB	-8835
mo	-8836
pad	-8837
▁IF	-8838
emat	-8839
rawn	-8840
▁Jer	-8841
plant	-8842
ulses	-8843
▁Fest	-8844
▁dish	-8845
▁hung	-8846
▁outs	-8847
urrent	-8848
▁Level	-8849
▁Patna	-8850
▁repro	-8851
▁Status	-8852
▁serves	-8853
▁viewed	-8854
▁Subject	-8855
▁conform	-8856
▁drought	-8857
▁dynasty	-8858
▁entries	-8859
▁balanced	-8860
▁commerce	-8861
▁dividend	-8862
▁limitations	-8863
▁perspective	-8864
▁ha	-8865
▁ma	-8866
▁ul	-8867
chen	-8868
soon	-8869
▁Rat	-8870
▁Sin	-8871
▁kit	-8872
▁vex	-8873
▁Area	-8874
▁suits	-8875
▁Maurit	-8876
▁Freedom	-8877
▁observe	-8878
▁submission	-8879
▁substances	-8880
UK	-8881
uni	-8882
atta	-8883
▁Vin	-8884
▁Call	-8885
▁Conv	-8886
▁Ocean	-8887
▁indul	-8888
▁reass	-8889
▁Singles	-8890
▁avoided	-8891
▁enemies	-8892
▁NATIONAL	-8893
▁inferior	-8894
▁retained	-8895
▁wonderful	-8896
▁productive	-8897
▁restricted	-8898
▁Directorate	-8899
▁intervention	-8900
▁concentration	-8901
acco	-8902
rosc	-8903
▁Hus	-8904
▁ped	-8905
orney	-8906
▁Sikhs	-8907
▁spell	-8908
▁trick	-8909
▁Sikkim	-8910
▁thrown	-8911
▁declare	-8912
▁vitamin	-8913
▁Chancell	-8914
▁Commerce	-8915
▁repealed	-8916
▁safeguard	-8917
▁Integrated	-8918
▁accounting	-8919
eers	-8920
▁Opt	-8921
▁gro	-8922
ulent	-8923
agraha	-8924
atious	-8925
▁Grant	-8926
▁Video	-8927
▁storm	-8928
▁mining	-8929
▁estimate	-8930
▁Aurobindo	-8931
▁preparing	-8932
▁consistent	-8933
▁reputation	-8934
▁Soon	-8935
▁mart	-8936
akings	-8937
▁actor	-8938
inarily	-8939
▁allied	-8940
▁estate	-8941
▁forgot	-8942
▁harass	-8943
▁insert	-8944
▁museum	-8945
▁forming	-8946
▁advances	-8947
▁extending	-8948
▁addressing	-8949
▁Constituent	-8950
▁Dy	-8951
▁Ek	-8952
▁SA	-8953
▁widow	-8954
▁Shankar	-8955
▁license	-8956
▁tissues	-8957
▁Protocol	-8958
▁Question	-8959
▁attractive	-8960
▁separation	-8961
fare	-8962
▁Job	-8963
▁Oil	-8964
▁Tom	-8965
▁din	-8966
imony	-8967
▁Rece	-8968
▁Greek	-8969
▁Quran	-8970
▁brand	-8971
ailable	-8972
▁Forces	-8973
▁decree	-8974
▁grains	-8975
▁habits	-8976
▁untouch	-8977
▁suggests	-8978
▁photograph	-8979
▁Rabindranath	-8980
▁Radhakrishnan	-8981
ipp	-8982
osa	-8983
▁Ber	-8984
aland	-8985
▁peak	-8986
▁spir	-8987
▁flows	-8988
▁plural	-8989
▁entrance	-8990
▁Malayalam	-8991
▁cup	-8992
apore	-8993
▁hect	-8994
▁Gopal	-8995
▁therm	-8996
▁tight	-8997
▁Budget	-8998
▁Should	-8999
▁bought	-9000
▁insult	-9001
▁tenant	-9002
▁toward	-9003
onscious	-9004
▁Russian	-9005
▁chemicals	-9006
▁prisoners	-9007
▁connections	-9008
ju	-9009
icing	-9010
▁beet	-9011
▁favor	-9012
▁deleted	-9013
▁Abdullah	-9014
▁Agreement	-9015
▁desirable	-9016
conn	-9017
ndra	-9018
onic	-9019
▁Vig	-9020
andra	-9021
▁nurt	-9022
inions	-9023
stream	-9024
wealth	-9025
▁chick	-9026
▁assume	-9027
▁muscles	-9028
▁satisfy	-9029
▁skilled	-9030
▁dismissed	-9031
▁judgement	-9032
▁grievances	-9033
▁inevitable	-9034
▁liberation	-9035
▁developmental	-9036
valid	-9037
▁degr	-9038
▁tact	-9039
▁tiny	-9040
onomic	-9041
ressal	-9042
▁immig	-9043
▁advent	-9044
▁manpower	-9045
▁surrounding	-9046
▁ov	-9047
tery	-9048
▁Enc	-9049
▁tap	-9050
▁Tool	-9051
icable	-9052
▁helpl	-9053
ichever	-9054
▁miscon	-9055
▁therap	-9056
▁Library	-9057
▁contrad	-9058
attisgarh	-9059
▁approaches	-9060
▁AR	-9061
▁ho	-9062
tain	-9063
▁hors	-9064
▁foods	-9065
▁Employ	-9066
▁deaths	-9067
▁weapon	-9068
ificates	-9069
▁Airport	-9070
▁fraction	-9071
▁functional	-9072
▁Hem	-9073
▁Old	-9074
▁Vik	-9075
▁bes	-9076
▁Star	-9077
▁Sult	-9078
ipping	-9079
▁paddy	-9080
▁width	-9081
▁resemb	-9082
▁arrival	-9083
▁rendering	-9084
▁controversy	-9085
▁publications	-9086
var	-9087
obar	-9088
ques	-9089
▁Dou	-9090
▁tow	-9091
chron	-9092
rives	-9093
▁Prop	-9094
usions	-9095
▁sport	-9096
▁Center	-9097
▁Spirit	-9098
▁deeper	-9099
▁legend	-9100
▁reiter	-9101
▁streets	-9102
▁Ayurveda	-9103
▁disaster	-9104
▁Palestinians	-9105
▁Os	-9106
▁Lic	-9107
araja	-9108
▁Rate	-9109
▁monu	-9110
▁Indra	-9111
▁Koran	-9112
▁borne	-9113
▁ports	-9114
▁......	-9115
▁extends	-9116
▁lending	-9117
▁initially	-9118
▁collecting	-9119
▁psychological	-9120
SA	-9121
co	-9122
ourn	-9123
▁Prim	-9124
▁seiz	-9125
▁Audio	-9126
▁doors	-9127
▁reads	-9128
▁flying	-9129
▁hatred	-9130
▁Pacific	-9131
▁Turkish	-9132
▁exposed	-9133
▁Electric	-9134
▁railways	-9135
▁highlight	-9136
▁indirectly	-9137
▁transmitted	-9138
CP	-9139
das	-9140
kes	-9141
athi	-9142
emen	-9143
idav	-9144
pons	-9145
▁Haz	-9146
▁Prat	-9147
▁tape	-9148
liness	-9149
▁Total	-9150
acharya	-9151
▁Survey	-9152
▁patron	-9153
▁Install	-9154
▁Invalid	-9155
▁Monitor	-9156
▁inadequ	-9157
▁segment	-9158
▁romantic	-9159
▁substantially	-9160
▁VI	-9161
▁mm	-9162
bery	-9163
▁Mill	-9164
▁Viet	-9165
▁Ashok	-9166
▁penis	-9167
▁laying	-9168
▁losses	-9169
▁Appeals	-9170
▁anybody	-9171
▁funding	-9172
▁helpful	-9173
▁laboure	-9174
▁belonged	-9175
▁supports	-9176
orticulture	-9177
▁supramental	-9178
▁philosophical	-9179
cut	-9180
hta	-9181
▁Mer	-9182
▁mac	-9183
oused	-9184
▁Chak	-9185
▁Jord	-9186
▁bulk	-9187
▁Estab	-9188
▁Indus	-9189
▁Arabia	-9190
▁specim	-9191
▁cooking	-9192
▁festivals	-9193
▁responses	-9194
▁spreading	-9195
▁whichever	-9196
jo	-9197
gra	-9198
mat	-9199
hari	-9200
▁sul	-9201
astri	-9202
▁Sang	-9203
▁ster	-9204
▁Urban	-9205
▁ambit	-9206
▁dialog	-9207
esthetic	-9208
▁summary	-9209
▁coloured	-9210
▁possibly	-9211
▁studying	-9212
▁Palestine	-9213
▁Registrar	-9214
▁fulfilled	-9215
▁countrymen	-9216
▁enthusiasm	-9217
▁shareholders	-9218
▁transparency	-9219
▁simultaneously	-9220
▁eg	-9221
▁Suf	-9222
orate	-9223
point	-9224
▁Bhar	-9225
▁Fire	-9226
angers	-9227
▁Creat	-9228
▁shout	-9229
▁oldest	-9230
▁Despite	-9231
▁logical	-9232
▁plastic	-9233
▁warning	-9234
▁Advocate	-9235
▁Directors	-9236
▁incentives	-9237
▁mechanical	-9238
opp	-9239
▁PS	-9240
▁orn	-9241
▁Orig	-9242
▁Patel	-9243
▁depri	-9244
▁shops	-9245
▁eleven	-9246
▁videos	-9247
chnology	-9248
▁Hamachi	-9249
▁Upanish	-9250
▁shoulder	-9251
▁Political	-9252
▁dedication	-9253
▁prevailing	-9254
▁strengthened	-9255
hana	-9256
▁Hig	-9257
▁Gard	-9258
▁Guid	-9259
▁Rani	-9260
▁tied	-9261
▁unus	-9262
▁Menon	-9263
▁cryst	-9264
▁Prosec	-9265
▁fright	-9266
▁beliefs	-9267
▁Whatever	-9268
▁pregnant	-9269
▁intensity	-9270
▁explanation	-9271
▁transparent	-9272
hr	-9273
▁aqu	-9274
iscal	-9275
▁stro	-9276
charge	-9277
▁irrit	-9278
▁photo	-9279
▁slope	-9280
▁tends	-9281
manship	-9282
▁Contin	-9283
▁humble	-9284
▁shadow	-9285
▁splend	-9286
▁termin	-9287
▁thrust	-9288
▁Emperor	-9289
▁earthqu	-9290
▁interim	-9291
▁secured	-9292
▁assessed	-9293
▁appellate	-9294
▁brilliant	-9295
▁economies	-9296
▁protecting	-9297
▁Constitutional	-9298
▁ji	-9299
▁Abs	-9300
ashed	-9301
earing	-9302
▁Ident	-9303
▁bench	-9304
▁virus	-9305
▁Jordan	-9306
▁differ	-9307
▁treaty	-9308
ologists	-9309
▁Manager	-9310
▁reconst	-9311
▁Northern	-9312
▁allowing	-9313
▁regulate	-9314
▁envisaged	-9315
ago	-9316
▁Kath	-9317
▁Point	-9318
▁disag	-9319
▁mango	-9320
mitting	-9321
▁Father	-9322
▁Yojana	-9323
▁utmost	-9324
▁conspir	-9325
▁Panchayat	-9326
▁Terrorism	-9327
▁prevalent	-9328
▁accessible	-9329
▁anniversary	-9330
▁irrespective	-9331
▁Ken	-9332
cence	-9333
▁Poly	-9334
▁uter	-9335
enders	-9336
ipedia	-9337
isting	-9338
▁camera	-9339
▁answered	-9340
▁concrete	-9341
▁orthodox	-9342
▁inaugurated	-9343
elt	-9344
▁Ha	-9345
phal	-9346
▁Mrs	-9347
▁Nam	-9348
▁apt	-9349
▁tag	-9350
amese	-9351
aunch	-9352
acular	-9353
▁alarm	-9354
▁tears	-9355
▁anonym	-9356
▁crimes	-9357
▁grants	-9358
▁ceremon	-9359
▁Mohammed	-9360
▁introduce	-9361
▁provinces	-9362
▁withdrawn	-9363
▁incomplete	-9364
▁Territories	-9365
▁allegations	-9366
▁considerably	-9367
vas	-9368
▁Hit	-9369
▁Vaj	-9370
▁Link	-9371
▁Pack	-9372
▁epis	-9373
▁ling	-9374
▁mamm	-9375
▁Plant	-9376
viation	-9377
▁purity	-9378
▁coverage	-9379
▁expensive	-9380
▁inflation	-9381
HT	-9382
ihad	-9383
look	-9384
▁Ten	-9385
▁Case	-9386
▁disb	-9387
ickets	-9388
▁moves	-9389
▁prisoner	-9390
▁proceeds	-9391
▁rainfall	-9392
▁affecting	-9393
▁gathering	-9394
▁proceeded	-9395
▁satellite	-9396
▁Secretariat	-9397
▁recruitment	-9398
▁interference	-9399
azi	-9400
isha	-9401
▁Gre	-9402
rants	-9403
erving	-9404
holder	-9405
▁admir	-9406
▁honey	-9407
▁talks	-9408
▁Mobile	-9409
▁voting	-9410
▁Manilal	-9411
▁shelter	-9412
▁computed	-9413
▁managing	-9414
▁Evolution	-9415
▁Territory	-9416
▁commencing	-9417
PA	-9418
▁ww	-9419
isan	-9420
nagar	-9421
onged	-9422
▁chol	-9423
▁germ	-9424
▁Hamas	-9425
▁doubts	-9426
▁explos	-9427
▁extrem	-9428
▁reveal	-9429
▁Andaman	-9430
▁Benefit	-9431
▁lecture	-9432
▁statute	-9433
porations	-9434
▁demanded	-9435
unications	-9436
occ	-9437
MENT	-9438
keep	-9439
▁aug	-9440
▁vot	-9441
▁Camp	-9442
▁fool	-9443
▁crude	-9444
▁clouds	-9445
▁fisher	-9446
▁tempor	-9447
▁alcohol	-9448
▁magnetic	-9449
▁challenged	-9450
▁nationalism	-9451
▁respondents	-9452
▁Ib	-9453
iety	-9454
rued	-9455
stan	-9456
utra	-9457
▁Run	-9458
▁cha	-9459
▁une	-9460
▁www	-9461
▁Lake	-9462
▁Proc	-9463
▁neut	-9464
▁Basic	-9465
▁Royal	-9466
▁remun	-9467
▁Within	-9468
▁lesser	-9469
▁Details	-9470
▁discount	-9471
▁Europeans	-9472
▁basically	-9473
▁considers	-9474
▁witnessed	-9475
▁Recommendation	-9476
IAL	-9477
iot	-9478
▁Ris	-9479
eling	-9480
▁nice	-9481
ounter	-9482
roller	-9483
▁Queen	-9484
▁games	-9485
edience	-9486
▁Golden	-9487
▁Island	-9488
▁Tribes	-9489
▁exempt	-9490
▁Natural	-9491
▁suspect	-9492
▁utility	-9493
▁Buddhism	-9494
▁formulated	-9495
▁statistics	-9496
▁significantly	-9497
beh	-9498
▁kh	-9499
▁Bri	-9500
▁Fig	-9501
▁Lol	-9502
▁Pip	-9503
▁vel	-9504
▁Sidd	-9505
▁obsc	-9506
▁fourt	-9507
▁immort	-9508
▁Asutosh	-9509
▁nearest	-9510
▁touched	-9511
▁Recovery	-9512
▁contempl	-9513
▁connecting	-9514
rypt	-9515
▁Rai	-9516
▁Kore	-9517
▁NIOS	-9518
▁SHRI	-9519
usalem	-9520
▁Appro	-9521
▁Emerg	-9522
▁parad	-9523
▁smart	-9524
▁bamboo	-9525
▁dollar	-9526
▁Cricket	-9527
▁behavior	-9528
▁Jerusalem	-9529
▁Secondary	-9530
▁elephants	-9531
▁medicines	-9532
▁liabilities	-9533
PL	-9534
sar	-9535
uta	-9536
cetic	-9537
▁Hosp	-9538
▁gest	-9539
▁Tilak	-9540
▁cheap	-9541
▁unexp	-9542
▁Almast	-9543
▁Friend	-9544
▁hunger	-9545
▁monsoon	-9546
▁survive	-9547
▁acquaint	-9548
▁maturity	-9549
▁membrane	-9550
▁automatic	-9551
▁deposited	-9552
▁Revolution	-9553
▁Commonwealth	-9554
▁administrator	-9555
cel	-9556
erk	-9557
obi	-9558
appa	-9559
▁Fre	-9560
▁Yus	-9561
▁Best	-9562
▁lord	-9563
resent	-9564
urable	-9565
▁Broad	-9566
▁Works	-9567
▁bliss	-9568
▁laugh	-9569
▁pharm	-9570
▁Follow	-9571
▁Mahade	-9572
▁decent	-9573
▁emerge	-9574
▁Banking	-9575
▁matches	-9576
▁seconds	-9577
▁hospitals	-9578
▁recognise	-9579
▁conversation	-9580
▁professionals	-9581
onds	-9582
▁VII	-9583
▁Fold	-9584
▁bell	-9585
▁drew	-9586
▁wake	-9587
▁David	-9588
icating	-9589
▁Lolita	-9590
▁solemn	-9591
▁Housing	-9592
▁cluster	-9593
▁sincere	-9594
▁disposed	-9595
▁linkages	-9596
▁elaborate	-9597
ca	-9598
utors	-9599
▁agro	-9600
▁rear	-9601
▁guess	-9602
▁Prince	-9603
▁consec	-9604
aughters	-9605
▁Village	-9606
▁concepts	-9607
▁subjected	-9608
▁altogether	-9609
▁previously	-9610
▁notwithstanding	-9611
osy	-9612
ilee	-9613
▁SRI	-9614
▁Meet	-9615
▁SAYS	-9616
▁angry	-9617
▁mature	-9618
▁refuse	-9619
▁Conduct	-9620
▁allotted	-9621
▁diabetes	-9622
▁helpless	-9623
▁Regulatory	-9624
▁BI	-9625
▁Bo	-9626
▁Ru	-9627
aped	-9628
icts	-9629
▁cod	-9630
▁Line	-9631
▁oath	-9632
▁crack	-9633
▁enfor	-9634
▁cancel	-9635
▁guided	-9636
▁patent	-9637
▁timely	-9638
▁typical	-9639
▁watching	-9640
▁frequency	-9641
▁generating	-9642
▁legitimate	-9643
▁mechanisms	-9644
JEE	-9645
▁Tat	-9646
riers	-9647
▁Full	-9648
▁Pall	-9649
▁Poet	-9650
▁lays	-9651
advant	-9652
▁Yusuf	-9653
▁embod	-9654
▁minim	-9655
▁relie	-9656
imental	-9657
▁meters	-9658
▁presum	-9659
▁worksh	-9660
iliation	-9661
▁Digital	-9662
▁Studies	-9663
▁crossing	-9664
▁painting	-9665
▁residents	-9666
eps	-9667
iat	-9668
▁cm	-9669
arer	-9670
wari	-9671
▁Gar	-9672
▁jute	-9673
▁Khand	-9674
▁camel	-9675
itement	-9676
▁errors	-9677
▁Teacher	-9678
▁affidav	-9679
▁dollars	-9680
▁Personal	-9681
▁daughters	-9682
▁nationalist	-9683
roph	-9684
term	-9685
▁COM	-9686
▁hol	-9687
▁wet	-9688
▁ears	-9689
▁fate	-9690
▁kids	-9691
▁Exper	-9692
▁boost	-9693
▁attach	-9694
▁cavity	-9695
▁Sections	-9696
▁credited	-9697
▁frequent	-9698
▁Corporate	-9699
▁recovered	-9700
▁restraint	-9701
▁imperative	-9702
▁quantities	-9703
▁regulatory	-9704
▁Infrastructure	-9705
ba	-9706
abu	-9707
olk	-9708
▁EN	-9709
▁da	-9710
▁GDP	-9711
▁Mall	-9712
▁Audit	-9713
▁cocon	-9714
▁Chaluk	-9715
▁Kittur	-9716
▁Judiciary	-9717
▁locations	-9718
▁Processing	-9719
▁conception	-9720
▁endeavours	-9721
▁PL	-9722
▁sar	-9723
▁Read	-9724
▁pend	-9725
atical	-9726
▁upset	-9727
▁casual	-9728
▁themes	-9729
▁flowing	-9730
▁criteria	-9731
▁terrible	-9732
▁favourite	-9733
▁capability	-9734
▁passengers	-9735
▁procedural	-9736
▁substitute	-9737
▁Enterprises	-9738
venty	-9739
▁shed	-9740
▁curric	-9741
▁permits	-9742
▁Projects	-9743
▁Standing	-9744
▁Wikipedia	-9745
▁inclusion	-9746
▁testimony	-9747
▁controlling	-9748
▁administered	-9749
▁characterized	-9750
▁Ho	-9751
Tube	-9752
abil	-9753
udra	-9754
▁Decl	-9755
▁forb	-9756
▁grade	-9757
▁lists	-9758
▁surve	-9759
▁tiger	-9760
▁Estate	-9761
▁Shakti	-9762
▁advise	-9763
▁inspire	-9764
▁outward	-9765
▁tribute	-9766
unciation	-9767
▁subtract	-9768
▁treasure	-9769
▁variable	-9770
▁Governors	-9771
▁assignment	-9772
▁complement	-9773
▁continuously	-9774
zing	-9775
illary	-9776
▁hopes	-9777
▁midst	-9778
▁worst	-9779
▁Period	-9780
▁coffee	-9781
▁fallen	-9782
▁traged	-9783
▁Command	-9784
▁critics	-9785
▁undergo	-9786
▁minerals	-9787
▁validity	-9788
▁Singapore	-9789
oub	-9790
▁GN	-9791
anic	-9792
▁ISO	-9793
▁RTI	-9794
oresh	-9795
▁Birth	-9796
▁Staff	-9797
▁Choose	-9798
▁compos	-9799
▁crafts	-9800
▁Property	-9801
▁instinct	-9802
▁mortgage	-9803
▁scenario	-9804
▁vexatious	-9805
▁describing	-9806
▁philosopher	-9807
▁inflammation	-9808
▁Bre	-9809
▁PDF	-9810
ontal	-9811
▁Real	-9812
▁Rich	-9813
▁alph	-9814
▁Based	-9815
▁Griev	-9816
▁Issue	-9817
▁Model	-9818
▁diver	-9819
▁label	-9820
▁split	-9821
▁uncon	-9822
▁bitter	-9823
▁rarely	-9824
olutions	-9825
▁Contact	-9826
▁anxious	-9827
▁chamber	-9828
▁chronic	-9829
▁desires	-9830
▁volumes	-9831
▁Festival	-9832
▁respects	-9833
▁Arunachal	-9834
▁contracts	-9835
▁instances	-9836
▁evaluation	-9837
▁negotiations	-9838
iki	-9839
idal	-9840
▁Hyd	-9841
▁lod	-9842
▁ray	-9843
▁ven	-9844
▁Frame	-9845
▁Radio	-9846
▁Saroj	-9847
uminous	-9848
▁Amount	-9849
▁Bhagav	-9850
▁Branch	-9851
▁Delete	-9852
▁Kanpur	-9853
▁invite	-9854
▁receipts	-9855
▁Allowance	-9856
otechnology	-9857
▁transformed	-9858
▁Chhattisgarh	-9859
IAN	-9860
oys	-9861
rot	-9862
▁AB	-9863
gence	-9864
▁fles	-9865
▁Along	-9866
▁dowry	-9867
▁ships	-9868
rection	-9869
▁gender	-9870
▁upgrade	-9871
▁explains	-9872
▁invested	-9873
▁disadvant	-9874
▁factories	-9875
▁scientist	-9876
▁classified	-9877
▁threatened	-9878
▁satisfactory	-9879
▁Ba	-9880
▁sq	-9881
▁LIN	-9882
▁Poll	-9883
▁drum	-9884
▁Mater	-9885
▁Paris	-9886
▁hindi	-9887
ciences	-9888
▁buffal	-9889
▁buying	-9890
▁nomine	-9891
▁descend	-9892
▁artistic	-9893
▁uncertain	-9894
▁Electronics	-9895
eda	-9896
▁Ku	-9897
ATES	-9898
othe	-9899
pled	-9900
tered	-9901
▁merc	-9902
uscript	-9903
version	-9904
▁Clause	-9905
▁lesson	-9906
▁passes	-9907
▁Kannada	-9908
▁heights	-9909
▁leaflet	-9910
▁Building	-9911
▁devotees	-9912
▁	-9913
e	-9914
t	-9915
a	-9916
o	-9917
i	-9918
n	-9919
s	-9920
r	-9921
h	-9922
l	-9923
d	-9924
c	-9925
u	-9926
m	-9927
f	-9928
p	-9929
g	-9930
y	-9931
w	-9932
b	-9933
.	-9934
v	-9935
#	-9936
,	-9937
k	-9938
I	-9939
T	-9940
A	-9941
S	-9942
C	-9943
;	-9944
-	-9945
&	-9946
P	-9947
x	-9948
M	-9949
R	-9950
B	-9951
E	-9952
D	-9953
H	-9954
j	-9955
N	-9956
)	-9957
(	-9958
G	-9959
q	-9960
O	-9961
L	-9962
W	-9963
F	-9964
z	-9965
U	-9966
K	-9967
:	-9968
J	-9969
V	-9970
”	-9971
Y	-9972
/	-9973
“	-9974
?	-9975
%	-9976
’	-9977
9	-9978
‘	-9979
1	-9980
!	-9981
Q	-9982
{	-9983
}	-9984
—	-9985
_	-9986
X	-9987
Z	-9988
3	-9989
*	-9990
2	-9991
4	-9992
–	-9993
$	-9994
्	-9995
