<unk>	0
<s>	0
</s>	0
UuRrLl	0
DdAaTtEe	0
NnUuMm	0
▁t	-0
he	-1
▁a	-2
in	-3
▁o	-4
▁the	-5
re	-6
on	-7
er	-8
at	-9
▁s	-10
en	-11
is	-12
▁of	-13
nd	-14
▁w	-15
▁c	-16
it	-17
▁p	-18
es	-19
al	-20
▁b	-21
ed	-22
an	-23
or	-24
▁in	-25
▁f	-26
ar	-27
ion	-28
ou	-29
ing	-30
▁to	-31
▁m	-32
▁and	-33
ic	-34
▁d	-35
as	-36
▁h	-37
ent	-38
le	-39
ro	-40
▁th	-41
ct	-42
▁T	-43
▁I	-44
▁re	-45
▁n	-46
▁e	-47
om	-48
▁be	-49
il	-50
▁l	-51
st	-52
▁S	-53
ve	-54
▁A	-55
▁is	-56
ation	-57
ut	-58
▁g	-59
ce	-60
im	-61
id	-62
ur	-63
▁C	-64
ot	-65
ra	-66
▁for	-67
ly	-68
se	-69
▁The	-70
▁on	-71
et	-72
▁u	-73
ver	-74
ment	-75
▁P	-76
▁-	-77
ad	-78
ol	-79
ch	-80
ay	-81
▁or	-82
ig	-83
ow	-84
▁M	-85
▁that	-86
am	-87
ir	-88
▁as	-89
▁pro	-90
ul	-91
▁wh	-92
▁B	-93
▁con	-94
▁an	-95
▁st	-96
her	-97
▁it	-98
ith	-99
el	-100
ri	-101
ter	-102
ate	-103
▁al	-104
▁y	-105
▁su	-106
ab	-107
▁H	-108
if	-109
▁de	-110
▁with	-111
ge	-112
▁R	-113
ess	-114
▁by	-115
▁he	-116
ect	-117
res	-118
ist	-119
ers	-120
od	-121
▁was	-122
▁are	-123
▁(	-124
our	-125
▁D	-126
▁'	-127
ld	-128
ak	-129
▁com	-130
ity	-131
op	-132
▁not	-133
us	-134
▁G	-135
▁ha	-136
▁ex	-137
▁v	-138
pp	-139
ill	-140
ere	-141
nt	-142
iv	-143
em	-144
ain	-145
▁N	-146
qu	-147
est	-148
ia	-149
and	-150
um	-151
ci	-152
ant	-153
▁sh	-154
th	-155
ive	-156
▁at	-157
▁this	-158
▁Ind	-159
ich	-160
▁W	-161
rom	-162
os	-163
art	-164
ies	-165
ore	-166
ure	-167
ort	-168
▁r	-169
ht	-170
▁E	-171
▁L	-172
end	-173
▁which	-174
ac	-175
▁se	-176
ud	-177
▁from	-178
un	-179
all	-180
▁has	-181
▁have	-182
▁O	-183
ust	-184
▁ne	-185
▁F	-186
ould	-187
▁In	-188
▁his	-189
▁k	-190
▁le	-191
ous	-192
▁ch	-193
ther	-194
▁you	-195
ard	-196
ction	-197
▁wor	-198
ind	-199
ag	-200
▁K	-201
▁we	-202
▁sp	-203
cc	-204
pt	-205
ome	-206
▁all	-207
age	-208
ated	-209
ry	-210
▁int	-211
ight	-212
▁im	-213
ance	-214
▁India	-215
ount	-216
red	-217
▁comp	-218
ap	-219
▁so	-220
▁pl	-221
ice	-222
ans	-223
▁can	-224
▁ad	-225
▁j	-226
ff	-227
able	-228
ary	-229
▁J	-230
rou	-231
nder	-232
ions	-233
so	-234
ence	-235
▁ab	-236
hi	-237
over	-238
ical	-239
ong	-240
▁U	-241
▁any	-242
ear	-243
▁en	-244
ast	-245
oc	-246
▁app	-247
og	-248
▁Th	-249
▁whe	-250
ru	-251
ep	-252
▁cont	-253
▁dis	-254
ult	-255
▁me	-256
▁res	-257
▁per	-258
▁un	-259
pl	-260
▁other	-261
ell	-262
▁under	-263
du	-264
per	-265
▁It	-266
ide	-267
ish	-268
av	-269
▁will	-270
ial	-271
ost	-272
▁their	-273
▁man	-274
▁been	-275
gh	-276
out	-277
▁inc	-278
vel	-279
▁one	-280
▁part	-281
▁who	-282
ations	-283
▁St	-284
ub	-285
ok	-286
ik	-287
ie	-288
ine	-289
▁ag	-290
▁also	-291
ang	-292
ib	-293
iz	-294
▁do	-295
ame	-296
orm	-297
ime	-298
▁had	-299
▁there	-300
overn	-301
▁V	-302
ase	-303
▁us	-304
▁its	-305
rit	-306
ress	-307
▁imp	-308
▁up	-309
lic	-310
au	-311
ood	-312
ian	-313
▁out	-314
act	-315
▁ar	-316
▁but	-317
are	-318
▁cl	-319
ire	-320
▁were	-321
ition	-322
ally	-323
very	-324
ail	-325
one	-326
ach	-327
▁He	-328
▁ind	-329
▁pe	-330
▁such	-331
▁prov	-332
ake	-333
▁sub	-334
ass	-335
▁year	-336
ue	-337
▁am	-338
▁they	-339
erv	-340
▁acc	-341
▁Ch	-342
ourt	-343
ory	-344
ber	-345
aw	-346
▁comm	-347
▁our	-348
▁/	-349
▁may	-350
ord	-351
ose	-352
▁rel	-353
ign	-354
ater	-355
ace	-356
ree	-357
▁them	-358
ec	-359
overnment	-360
ational	-361
ens	-362
ident	-363
ection	-364
▁off	-365
cial	-366
▁Com	-367
ric	-368
ious	-369
ution	-370
▁qu	-371
now	-372
▁no	-373
stit	-374
▁time	-375
erson	-376
▁“	-377
ings	-378
▁This	-379
▁pre	-380
iss	-381
ities	-382
form	-383
▁cons	-384
ah	-385
▁ev	-386
tern	-387
▁work	-388
ces	-389
ople	-390
ike	-391
▁him	-392
▁tr	-393
aid	-394
ade	-395
▁te	-396
▁tw	-397
ove	-398
ack	-399
reat	-400
▁more	-401
te	-402
▁bec	-403
pe	-404
hed	-405
▁should	-406
rib	-407
▁person	-408
▁rec	-409
▁would	-410
▁count	-411
▁Y	-412
▁reg	-413
aj	-414
fter	-415
▁em	-416
ll	-417
ram	-418
▁As	-419
▁people	-420
ause	-421
ual	-422
ject	-423
ath	-424
ild	-425
▁only	-426
▁po	-427
ays	-428
▁tra	-429
ip	-430
velop	-431
ted	-432
ments	-433
▁Act	-434
▁pol	-435
▁some	-436
low	-437
▁if	-438
ite	-439
▁about	-440
▁know	-441
ank	-442
oy	-443
ound	-444
▁into	-445
▁like	-446
ook	-447
▁new	-448
▁exp	-449
▁act	-450
ond	-451
ates	-452
fere	-453
ied	-454
cess	-455
▁over	-456
▁sc	-457
ile	-458
row	-459
▁your	-460
ise	-461
ark	-462
▁Sh	-463
▁form	-464
ife	-465
▁these	-466
fore	-467
▁when	-468
ced	-469
▁fe	-470
▁made	-471
▁Comm	-472
me	-473
▁two	-474
ng	-475
▁dec	-476
ific	-477
▁go	-478
▁sy	-479
igh	-480
▁Con	-481
▁Pro	-482
lect	-483
▁ra	-484
▁pres	-485
vers	-486
▁Court	-487
▁shall	-488
▁her	-489
old	-490
sel	-491
▁Indian	-492
▁Government	-493
ative	-494
▁ob	-495
▁ro	-496
erm	-497
ert	-498
▁pr	-499
▁fir	-500
ph	-501
ism	-502
▁ac	-503
▁resp	-504
ublic	-505
▁than	-506
int	-507
ating	-508
▁rep	-509
ward	-510
▁att	-511
ness	-512
▁bet	-513
▁develop	-514
▁ent	-515
▁trans	-516
rough	-517
▁Un	-518
ors	-519
cy	-520
▁ass	-521
ful	-522
▁dif	-523
▁State	-524
▁rem	-525
we	-526
▁my	-527
uc	-528
▁being	-529
ular	-530
ener	-531
ov	-532
▁An	-533
▁inv	-534
ission	-535
▁through	-536
▁said	-537
ower	-538
uring	-539
▁after	-540
ered	-541
▁produ	-542
led	-543
▁eff	-544
eg	-545
ha	-546
▁But	-547
gan	-548
▁des	-549
▁cent	-550
▁life	-551
▁”	-552
▁We	-553
olog	-554
ning	-555
stem	-556
ty	-557
▁where	-558
wn	-559
uth	-560
ple	-561
▁country	-562
▁years	-563
ne	-564
ob	-565
ax	-566
ink	-567
▁sec	-568
▁And	-569
ons	-570
ible	-571
▁pos	-572
lud	-573
▁serv	-574
▁again	-575
als	-576
ran	-577
▁first	-578
ility	-579
▁Pres	-580
der	-581
ural	-582
▁spe	-583
ature	-584
▁col	-585
arm	-586
▁Bh	-587
▁So	-588
ble	-589
cept	-590
und	-591
▁very	-592
▁right	-593
▁what	-594
ef	-595
▁law	-596
▁set	-597
oth	-598
▁There	-599
ati	-600
ents	-601
▁world	-602
▁could	-603
ft	-604
its	-605
fer	-606
▁need	-607
ral	-608
con	-609
▁get	-610
ract	-611
up	-612
ision	-613
▁President	-614
▁well	-615
other	-616
▁op	-617
▁call	-618
any	-619
hen	-620
▁must	-621
▁dist	-622
▁pur	-623
▁bl	-624
ght	-625
▁num	-626
▁mem	-627
ided	-628
ited	-629
▁ed	-630
▁bas	-631
▁system	-632
▁giv	-633
▁add	-634
urn	-635
▁case	-636
▁just	-637
aking	-638
▁good	-639
pos	-640
les	-641
ween	-642
ict	-643
hip	-644
▁many	-645
ices	-646
eth	-647
▁mat	-648
▁ext	-649
▁Is	-650
▁requ	-651
▁before	-652
▁>	-653
▁writ	-654
xt	-655
▁even	-656
▁between	-657
uch	-658
▁char	-659
pport	-660
▁then	-661
▁ke	-662
iew	-663
▁used	-664
▁fol	-665
▁ph	-666
ised	-667
▁Hind	-668
arl	-669
stitut	-670
ily	-671
▁De	-672
▁If	-673
▁import	-674
▁prog	-675
chn	-676
ures	-677
inal	-678
▁lit	-679
▁<	-680
ting	-681
own	-682
ough	-683
▁includ	-684
▁ins	-685
ren	-686
▁co	-687
▁make	-688
▁differe	-689
round	-690
formation	-691
ange	-692
▁child	-693
▁min	-694
air	-695
▁how	-696
self	-697
ters	-698
▁every	-699
ages	-700
▁day	-701
▁def	-702
▁var	-703
ital	-704
stitution	-705
▁see	-706
▁own	-707
▁inst	-708
▁long	-709
▁mon	-710
▁val	-711
▁most	-712
▁public	-713
oun	-714
▁section	-715
ries	-716
ved	-717
ody	-718
irect	-719
▁Am	-720
▁use	-721
▁inf	-722
▁end	-723
▁cap	-724
iness	-725
ix	-726
▁way	-727
▁sm	-728
uthor	-729
ash	-730
▁mod	-731
▁state	-732
▁adv	-733
▁lar	-734
hes	-735
▁she	-736
▁follow	-737
▁Wh	-738
▁gener	-739
ouse	-740
ern	-741
▁same	-742
▁great	-743
ivers	-744
ven	-745
▁They	-746
▁car	-747
▁inter	-748
▁hel	-749
ts	-750
▁equ	-751
ished	-752
▁power	-753
ys	-754
ety	-755
imes	-756
▁Min	-757
▁Ex	-758
▁now	-759
▁conc	-760
ever	-761
▁process	-762
conom	-763
▁organ	-764
▁bu	-765
angu	-766
ave	-767
▁take	-768
▁Ar	-769
ten	-770
▁main	-771
ality	-772
▁disc	-773
eng	-774
erest	-775
▁place	-776
▁order	-777
ee	-778
arch	-779
▁Cent	-780
ks	-781
▁pass	-782
▁av	-783
▁number	-784
iod	-785
lim	-786
▁because	-787
min	-788
alth	-789
▁indust	-790
▁fact	-791
▁hum	-792
ana	-793
▁For	-794
tic	-795
▁help	-796
rad	-797
bers	-798
gg	-799
▁development	-800
▁fl	-801
▁present	-802
▁during	-803
▁dem	-804
▁You	-805
▁against	-806
▁partic	-807
▁stud	-808
▁Ad	-809
icial	-810
▁det	-811
tle	-812
ew	-813
▁fam	-814
ration	-815
ention	-816
▁Al	-817
ars	-818
▁dep	-819
▁educ	-820
▁back	-821
▁consid	-822
ired	-823
ron	-824
▁did	-825
ving	-826
▁those	-827
ruct	-828
ctions	-829
▁hand	-830
▁lead	-831
man	-832
▁ret	-833
ined	-834
ology	-835
ified	-836
ics	-837
▁leg	-838
nce	-839
▁med	-840
ives	-841
▁account	-842
▁interest	-843
▁period	-844
ata	-845
▁different	-846
ya	-847
..	-848
▁court	-849
▁econom	-850
ants	-851
ared	-852
get	-853
lish	-854
▁occ	-855
▁est	-856
ds	-857
▁here	-858
ases	-859
▁bus	-860
▁grow	-861
▁tak	-862
▁sur	-863
ner	-864
▁found	-865
▁conf	-866
ists	-867
▁"	-868
▁jud	-869
▁appro	-870
▁fore	-871
▁Commission	-872
▁three	-873
▁iss	-874
▁loc	-875
way	-876
tc	-877
▁term	-878
▁To	-879
ale	-880
elf	-881
▁mark	-882
),	-883
▁bel	-884
▁&	-885
▁called	-886
▁fin	-887
▁does	-888
read	-889
ather	-890
ained	-891
ploy	-892
▁effect	-893
ides	-894
ency	-895
▁down	-896
ick	-897
▁pay	-898
▁author	-899
▁langu	-900
▁br	-901
▁both	-902
roup	-903
arn	-904
▁cor	-905
ull	-906
▁water	-907
▁comple	-908
▁etc	-909
ES	-910
▁cert	-911
ues	-912
▁cre	-913
).	-914
▁techn	-915
ck	-916
▁start	-917
▁given	-918
▁respect	-919
▁National	-920
not	-921
ork	-922
▁government	-923
▁trad	-924
RB	-925
ince	-926
▁rece	-927
▁Mah	-928
here	-929
ister	-930
▁gu	-931
▁commun	-932
▁contin	-933
ros	-934
▁high	-935
▁name	-936
▁All	-937
▁wom	-938
less	-939
▁poss	-940
▁aff	-941
▁exam	-942
▁applic	-943
▁oper	-944
▁view	-945
▁want	-946
▁cond	-947
▁sect	-948
▁much	-949
icy	-950
blem	-951
▁spec	-952
ute	-953
▁On	-954
▁without	-955
ination	-956
ceed	-957
ool	-958
reme	-959
esh	-960
▁ref	-961
▁information	-962
ici	-963
▁each	-964
day	-965
ually	-966
▁gl	-967
▁program	-968
▁important	-969
▁gra	-970
ai	-971
▁means	-972
▁del	-973
erg	-974
▁Mus	-975
port	-976
▁look	-977
▁read	-978
ari	-979
▁fac	-980
iel	-981
▁‘	-982
▁book	-983
▁let	-984
ines	-985
ock	-986
▁small	-987
▁prev	-988
▁human	-989
isions	-990
▁problem	-991
▁som	-992
▁sim	-993
▁amount	-994
uk	-995
▁avail	-996
▁gre	-997
▁ty	-998
▁body	-999
riv	-1000
▁within	-1001
▁sign	-1002
▁business	-1003
▁come	-1004
▁fun	-1005
rat	-1006
han	-1007
EN	-1008
▁ele	-1009
ges	-1010
▁stand	-1011
▁mar	-1012
ived	-1013
▁proper	-1014
▁ser	-1015
▁incre	-1016
▁Eng	-1017
▁prof	-1018
mit	-1019
▁relig	-1020
▁polit	-1021
por	-1022
▁str	-1023
▁stre	-1024
▁direct	-1025
▁cult	-1026
af	-1027
ized	-1028
▁tem	-1029
▁Rep	-1030
▁Re	-1031
ier	-1032
crib	-1033
▁happ	-1034
▁bank	-1035
▁social	-1036
▁various	-1037
▁No	-1038
▁ide	-1039
▁invest	-1040
▁play	-1041
amp	-1042
har	-1043
ror	-1044
▁che	-1045
▁soci	-1046
ected	-1047
lam	-1048
pr	-1049
▁vis	-1050
▁sch	-1051
ivid	-1052
▁exper	-1053
▁At	-1054
▁cle	-1055
rol	-1056
▁sit	-1057
wards	-1058
med	-1059
▁think	-1060
ains	-1061
ways	-1062
arly	-1063
▁large	-1064
ought	-1065
reed	-1066
▁employ	-1067
ternal	-1068
▁support	-1069
▁taken	-1070
▁another	-1071
ining	-1072
▁0	-1073
▁say	-1074
▁High	-1075
▁times	-1076
rim	-1077
ccess	-1078
▁last	-1079
▁group	-1080
itte	-1081
▁Te	-1082
▁education	-1083
▁dev	-1084
ended	-1085
ason	-1086
▁quest	-1087
asht	-1088
▁Muslim	-1089
▁cur	-1090
mb	-1091
▁known	-1092
▁Raj	-1093
ulation	-1094
ense	-1095
▁fil	-1096
▁open	-1097
▁activ	-1098
▁mind	-1099
▁while	-1100
▁land	-1101
▁real	-1102
ried	-1103
ically	-1104
ateg	-1105
▁Man	-1106
▁OF	-1107
▁When	-1108
stand	-1109
▁level	-1110
▁result	-1111
▁How	-1112
ret	-1113
rial	-1114
eration	-1115
rict	-1116
▁company	-1117
na	-1118
itions	-1119
▁language	-1120
ize	-1121
arlia	-1122
olution	-1123
bs	-1124
ER	-1125
orts	-1126
rap	-1127
ium	-1128
irc	-1129
▁estab	-1130
▁income	-1131
▁prom	-1132
▁find	-1133
▁Central	-1134
ething	-1135
▁Sc	-1136
ization	-1137
arliament	-1138
ferred	-1139
▁month	-1140
ves	-1141
ug	-1142
▁meet	-1143
ances	-1144
ering	-1145
riend	-1146
az	-1147
▁going	-1148
▁days	-1149
▁wind	-1150
ased	-1151
▁prot	-1152
▁move	-1153
▁national	-1154
▁rev	-1155
uss	-1156
▁Off	-1157
▁cannot	-1158
▁allow	-1159
▁Shri	-1160
omm	-1161
ption	-1162
▁Ram	-1163
▁Jud	-1164
par	-1165
land	-1166
ording	-1167
▁Sing	-1168
ledge	-1169
ession	-1170
urther	-1171
▁ca	-1172
▁pop	-1173
▁necess	-1174
used	-1175
▁ter	-1176
ON	-1177
▁Pr	-1178
▁point	-1179
▁beh	-1180
▁give	-1181
▁health	-1182
▁These	-1183
cil	-1184
ternational	-1185
▁poet	-1186
▁old	-1187
▁members	-1188
oint	-1189
lished	-1190
▁lim	-1191
rop	-1192
▁subject	-1193
▁non	-1194
▁children	-1195
ins	-1196
▁rest	-1197
▁sci	-1198
ential	-1199
▁less	-1200
ued	-1201
▁Dep	-1202
▁policy	-1203
▁gr	-1204
ately	-1205
▁show	-1206
ability	-1207
▁ben	-1208
▁available	-1209
▁bro	-1210
AT	-1211
▁class	-1212
▁particular	-1213
▁Or	-1214
▁pract	-1215
ivil	-1216
▁four	-1217
ajor	-1218
onment	-1219
▁exist	-1220
▁Res	-1221
▁div	-1222
section	-1223
ising	-1224
isation	-1225
ote	-1226
ged	-1227
▁sk	-1228
▁certain	-1229
alf	-1230
pect	-1231
▁Q	-1232
put	-1233
ference	-1234
ither	-1235
minist	-1236
▁Se	-1237
...	-1238
ode	-1239
▁market	-1240
ury	-1241
▁cost	-1242
▁hist	-1243
▁death	-1244
▁friend	-1245
▁States	-1246
▁came	-1247
▁Brit	-1248
▁accept	-1249
▁become	-1250
▁common	-1251
▁prin	-1252
▁Rs	-1253
▁dra	-1254
▁countries	-1255
▁service	-1256
▁among	-1257
▁What	-1258
▁product	-1259
▁today	-1260
cl	-1261
▁too	-1262
▁sent	-1263
avan	-1264
ross	-1265
▁lo	-1266
outh	-1267
▁regard	-1268
oss	-1269
▁Del	-1270
▁success	-1271
▁fund	-1272
▁hig	-1273
▁head	-1274
▁sche	-1275
iversity	-1276
ification	-1277
▁comput	-1278
ittee	-1279
▁action	-1280
oard	-1281
tal	-1282
▁conn	-1283
▁due	-1284
ividual	-1285
▁free	-1286
oney	-1287
▁put	-1288
ructure	-1289
AR	-1290
▁Sup	-1291
▁whole	-1292
▁done	-1293
▁services	-1294
▁project	-1295
duct	-1296
▁She	-1297
▁matter	-1298
▁care	-1299
ND	-1300
▁His	-1301
isl	-1302
▁cases	-1303
▁list	-1304
ouncil	-1305
▁war	-1306
ala	-1307
ware	-1308
▁tre	-1309
▁something	-1310
▁self	-1311
▁area	-1312
▁provisions	-1313
▁economic	-1314
▁family	-1315
ery	-1316
▁object	-1317
▁Gand	-1318
▁met	-1319
▁major	-1320
▁ru	-1321
ules	-1322
cing	-1323
ently	-1324
▁charact	-1325
▁special	-1326
▁upon	-1327
ara	-1328
▁belie	-1329
▁build	-1330
aim	-1331
▁chang	-1332
▁individual	-1333
uty	-1334
▁New	-1335
▁respons	-1336
▁Supreme	-1337
▁liter	-1338
▁elect	-1339
otion	-1340
ancial	-1341
▁vill	-1342
idence	-1343
▁tax	-1344
artment	-1345
▁net	-1346
▁political	-1347
▁Islam	-1348
▁society	-1349
▁based	-1350
ID	-1351
▁women	-1352
▁second	-1353
▁{	-1354
▁far	-1355
▁areas	-1356
▁provide	-1357
ma	-1358
eric	-1359
▁Constitution	-1360
▁ask	-1361
ii	-1362
ield	-1363
▁Parliament	-1364
▁PR	-1365
▁value	-1366
ories	-1367
▁Pl	-1368
agement	-1369
▁house	-1370
▁plan	-1371
▁Sec	-1372
▁food	-1373
pose	-1374
▁express	-1375
▁knowledge	-1376
alk	-1377
▁institut	-1378
▁const	-1379
▁capital	-1380
vir	-1381
irit	-1382
▁supp	-1383
▁Ag	-1384
▁Delhi	-1385
ling	-1386
raph	-1387
▁men	-1388
▁including	-1389
▁Singh	-1390
ending	-1391
ilities	-1392
▁expl	-1393
▁circ	-1394
▁Gu	-1395
iver	-1396
▁best	-1397
▁keep	-1398
▁provided	-1399
▁rele	-1400
▁repres	-1401
▁Section	-1402
ricult	-1403
iqu	-1404
▁eng	-1405
▁God	-1406
▁making	-1407
▁change	-1408
soci	-1409
ticle	-1410
ify	-1411
▁nature	-1412
▁concern	-1413
eal	-1414
osed	-1415
urity	-1416
▁words	-1417
ilit	-1418
cies	-1419
▁further	-1420
▁window	-1421
▁left	-1422
ples	-1423
icult	-1424
ems	-1425
aining	-1426
▁away	-1427
▁Mr	-1428
▁control	-1429
▁British	-1430
▁benef	-1431
icer	-1432
▁init	-1433
▁rese	-1434
▁Bhavan	-1435
▁necessary	-1436
chie	-1437
▁few	-1438
ogn	-1439
▁held	-1440
ourse	-1441
▁school	-1442
▁always	-1443
▁reason	-1444
▁Hindi	-1445
work	-1446
▁Gandhi	-1447
▁hold	-1448
▁run	-1449
▁date	-1450
engal	-1451
▁One	-1452
▁:	-1453
▁English	-1454
▁el	-1455
▁sol	-1456
▁following	-1457
iding	-1458
▁That	-1459
▁kind	-1460
▁sl	-1461
▁ve	-1462
epend	-1463
▁having	-1464
▁mill	-1465
▁orig	-1466
▁heart	-1467
▁question	-1468
▁full	-1469
ope	-1470
▁thought	-1471
▁still	-1472
▁age	-1473
ences	-1474
▁Rasht	-1475
▁proceed	-1476
vironment	-1477
▁things	-1478
▁required	-1479
ior	-1480
▁sector	-1481
▁feel	-1482
mes	-1483
▁mater	-1484
▁five	-1485
▁Bengal	-1486
▁Hindu	-1487
ENT	-1488
▁spirit	-1489
▁Bank	-1490
thing	-1491
▁growth	-1492
▁young	-1493
▁address	-1494
▁application	-1495
lement	-1496
▁par	-1497
idd	-1498
rapati	-1499
▁Acc	-1500
▁deal	-1501
▁foreign	-1502
▁little	-1503
▁light	-1504
▁whether	-1505
ards	-1506
▁After	-1507
ured	-1508
oura	-1509
▁impro	-1510
▁Reg	-1511
▁En	-1512
▁possible	-1513
ta	-1514
iction	-1515
▁data	-1516
HE	-1517
▁sat	-1518
sh	-1519
io	-1520
▁mean	-1521
▁above	-1522
▁Council	-1523
rent	-1524
▁Committee	-1525
▁meas	-1526
▁sever	-1527
iving	-1528
▁ann	-1529
▁Cong	-1530
▁bir	-1531
ience	-1532
▁Americ	-1533
▁return	-1534
▁himself	-1535
▁perform	-1536
▁purpose	-1537
▁never	-1538
▁post	-1539
▁achie	-1540
▁industry	-1541
orn	-1542
▁later	-1543
▁money	-1544
▁total	-1545
▁Rashtrapati	-1546
▁contrib	-1547
▁suff	-1548
▁beg	-1549
▁asse	-1550
▁situ	-1551
▁obs	-1552
ember	-1553
▁Prov	-1554
▁itself	-1555
▁Sub	-1556
▁art	-1557
▁others	-1558
bit	-1559
▁diff	-1560
▁report	-1561
ication	-1562
AL	-1563
▁administ	-1564
▁Law	-1565
IN	-1566
▁eas	-1567
pportun	-1568
ises	-1569
cribed	-1570
orth	-1571
▁_	-1572
▁towards	-1573
ours	-1574
come	-1575
▁stat	-1576
▁love	-1577
▁function	-1578
▁Ab	-1579
ources	-1580
▁record	-1581
▁position	-1582
akes	-1583
▁mus	-1584
▁clause	-1585
of	-1586
ats	-1587
▁several	-1588
redit	-1589
▁plac	-1590
▁sing	-1591
▁Ass	-1592
▁Tr	-1593
▁App	-1594
cious	-1595
aint	-1596
hy	-1597
▁local	-1598
ibility	-1599
▁opportun	-1600
▁short	-1601
▁turn	-1602
▁relations	-1603
uro	-1604
▁ple	-1605
▁Pol	-1606
▁vi	-1607
▁mult	-1608
▁dise	-1609
▁character	-1610
▁air	-1611
akh	-1612
▁princi	-1613
▁ord	-1614
ively	-1615
▁persons	-1616
▁propos	-1617
▁material	-1618
▁ri	-1619
▁Spe	-1620
▁since	-1621
▁around	-1622
ocu	-1623
▁Congress	-1624
asion	-1625
▁x	-1626
AN	-1627
▁understand	-1628
ator	-1629
▁ident	-1630
▁instru	-1631
▁production	-1632
atic	-1633
▁tru	-1634
ready	-1635
istry	-1636
▁civil	-1637
▁Pre	-1638
▁represent	-1639
▁RRB	-1640
▁hard	-1641
▁er	-1642
▁took	-1643
▁complete	-1644
▁mess	-1645
▁don	-1646
▁es	-1647
umb	-1648
▁Ne	-1649
▁streng	-1650
oh	-1651
▁difficult	-1652
▁priv	-1653
▁thir	-1654
▁ir	-1655
▁pet	-1656
▁either	-1657
IT	-1658
ethod	-1659
▁financial	-1660
lu	-1661
▁already	-1662
▁decl	-1663
▁Union	-1664
▁home	-1665
▁region	-1666
▁office	-1667
▁fail	-1668
▁referred	-1669
bsite	-1670
▁nat	-1671
▁fa	-1672
▁therefore	-1673
▁six	-1674
▁invol	-1675
▁treat	-1676
reedom	-1677
▁type	-1678
▁ens	-1679
ony	-1680
▁pat	-1681
selves	-1682
imal	-1683
ann	-1684
▁Minister	-1685
osp	-1686
▁course	-1687
▁progress	-1688
ustom	-1689
▁dom	-1690
▁Z	-1691
ource	-1692
▁rate	-1693
▁plant	-1694
▁claim	-1695
▁quality	-1696
aring	-1697
▁better	-1698
▁THE	-1699
▁University	-1700
erc	-1701
ggest	-1702
arth	-1703
▁able	-1704
▁activities	-1705
igation	-1706
▁With	-1707
▁higher	-1708
arat	-1709
alc	-1710
▁ground	-1711
▁[	-1712
▁fut	-1713
sp	-1714
▁enc	-1715
▁ut	-1716
rought	-1717
▁Me	-1718
▁cr	-1719
itional	-1720
▁LRB	-1721
▁flow	-1722
▁along	-1723
rodu	-1724
▁sum	-1725
ably	-1726
▁assess	-1727
▁however	-1728
radesh	-1729
▁recogn	-1730
▁ey	-1731
▁might	-1732
ger	-1733
▁bo	-1734
most	-1735
▁Be	-1736
▁phys	-1737
▁inn	-1738
▁Gener	-1739
▁bring	-1740
▁demand	-1741
the	-1742
IC	-1743
ev	-1744
▁However	-1745
▁property	-1746
▁lab	-1747
arent	-1748
▁next	-1749
▁agree	-1750
▁recomm	-1751
rah	-1752
▁method	-1753
▁force	-1754
amb	-1755
▁side	-1756
urs	-1757
▁received	-1758
▁suggest	-1759
imum	-1760
▁seen	-1761
▁ur	-1762
ke	-1763
empt	-1764
▁research	-1765
hing	-1766
▁ver	-1767
▁equal	-1768
ION	-1769
▁cause	-1770
▁pen	-1771
▁abs	-1772
▁got	-1773
jee	-1774
▁website	-1775
▁Develop	-1776
▁Some	-1777
▁conv	-1778
▁nation	-1779
OR	-1780
oin	-1781
▁ess	-1782
▁mor	-1783
acity	-1784
▁Serv	-1785
▁went	-1786
▁basis	-1787
gether	-1788
▁together	-1789
▁started	-1790
ita	-1791
udd	-1792
itiz	-1793
▁Just	-1794
▁Ph	-1795
▁general	-1796
istan	-1797
abha	-1798
▁redu	-1799
▁aut	-1800
▁Dr	-1801
▁rights	-1802
lection	-1803
▁access	-1804
▁appear	-1805
▁authority	-1806
▁test	-1807
▁occasion	-1808
▁Pradesh	-1809
▁discuss	-1810
▁strong	-1811
cent	-1812
ills	-1813
atory	-1814
▁became	-1815
▁history	-1816
▁institutions	-1817
▁docu	-1818
▁Part	-1819
▁thing	-1820
▁problems	-1821
stitute	-1822
▁Chi	-1823
▁implement	-1824
▁future	-1825
ened	-1826
▁cell	-1827
▁Sy	-1828
▁House	-1829
▁computer	-1830
▁big	-1831
▁international	-1832
▁sw	-1833
▁technology	-1834
▁file	-1835
▁working	-1836
▁Le	-1837
app	-1838
▁goods	-1839
▁proced	-1840
▁related	-1841
▁Department	-1842
ension	-1843
▁ten	-1844
ira	-1845
▁conduct	-1846
ategory	-1847
inary	-1848
ograph	-1849
▁associ	-1850
omes	-1851
▁ill	-1852
cially	-1853
▁though	-1854
pur	-1855
▁deep	-1856
▁Em	-1857
see	-1858
▁ce	-1859
▁bre	-1860
▁party	-1861
▁example	-1862
▁freedom	-1863
uf	-1864
▁farm	-1865
▁Muk	-1866
ME	-1867
aster	-1868
▁often	-1869
▁agricult	-1870
▁dest	-1871
▁written	-1872
ji	-1873
side	-1874
mitted	-1875
▁super	-1876
▁matters	-1877
medi	-1878
une	-1879
ched	-1880
▁live	-1881
▁initi	-1882
▁environment	-1883
▁Fin	-1884
▁step	-1885
▁sal	-1886
▁integ	-1887
ached	-1888
▁Mad	-1889
▁word	-1890
▁determ	-1891
▁months	-1892
▁Af	-1893
aper	-1894
▁scheme	-1895
▁unt	-1896
▁entire	-1897
istic	-1898
▁viol	-1899
ude	-1900
ians	-1901
itive	-1902
itation	-1903
mber	-1904
▁Govern	-1905
▁key	-1906
▁modern	-1907
▁gen	-1908
iet	-1909
ina	-1910
▁terms	-1911
aries	-1912
▁once	-1913
▁Col	-1914
▁role	-1915
▁Sw	-1916
rael	-1917
▁considered	-1918
rish	-1919
▁try	-1920
▁crit	-1921
▁Dis	-1922
▁pot	-1923
▁design	-1924
▁movement	-1925
▁needs	-1926
riage	-1927
▁visit	-1928
▁security	-1929
▁conditions	-1930
▁deb	-1931
▁link	-1932
▁relating	-1933
▁established	-1934
▁pow	-1935
▁independ	-1936
▁z	-1937
rab	-1938
▁compl	-1939
▁cro	-1940
aged	-1941
▁pub	-1942
ental	-1943
▁Development	-1944
rast	-1945
ti	-1946
els	-1947
▁brought	-1948
lected	-1949
▁Im	-1950
▁Cl	-1951
ring	-1952
▁energ	-1953
▁PRES	-1954
hile	-1955
ray	-1956
▁paid	-1957
▁i	-1958
▁imm	-1959
isd	-1960
▁separ	-1961
▁observ	-1962
▁Israel	-1963
▁Chand	-1964
▁opp	-1965
▁earl	-1966
unt	-1967
▁top	-1968
▁detail	-1969
▁vol	-1970
▁students	-1971
leg	-1972
▁field	-1973
▁manner	-1974
▁leaders	-1975
▁mother	-1976
urance	-1977
▁blood	-1978
ung	-1979
▁fel	-1980
▁line	-1981
ercial	-1982
▁previous	-1983
▁Chief	-1984
ms	-1985
aps	-1986
erve	-1987
▁close	-1988
▁Euro	-1989
▁norm	-1990
▁General	-1991
▁past	-1992
IS	-1993
ait	-1994
▁require	-1995
rated	-1996
▁mov	-1997
ali	-1998
sequ	-1999
▁member	-2000
▁Ministry	-2001
▁saf	-2002
▁My	-2003
▁lib	-2004
▁text	-2005
hold	-2006
obal	-2007
ane	-2008
▁acqu	-2009
▁creat	-2010
oid	-2011
▁Cont	-2012
▁Comp	-2013
atives	-2014
▁press	-2015
▁sense	-2016
▁story	-2017
▁true	-2018
▁official	-2019
▁according	-2020
▁religious	-2021
▁living	-2022
oon	-2023
▁citiz	-2024
▁opens	-2025
▁Leg	-2026
ison	-2027
▁mis	-2028
▁Europe	-2029
▁decision	-2030
itor	-2031
▁dou	-2032
cell	-2033
▁share	-2034
00	-2035
▁ded	-2036
ront	-2037
▁custom	-2038
omb	-2039
▁mach	-2040
▁learn	-2041
riminal	-2042
ient	-2043
▁million	-2044
▁ful	-2045
▁natural	-2046
▁assist	-2047
▁face	-2048
augh	-2049
▁Sche	-2050
▁community	-2051
▁village	-2052
ani	-2053
▁consider	-2054
▁industrial	-2055
ief	-2056
ames	-2057
▁network	-2058
▁parts	-2059
poses	-2060
cri	-2061
ek	-2062
▁credit	-2063
▁rule	-2064
▁concerned	-2065
ological	-2066
▁cover	-2067
ton	-2068
▁legal	-2069
▁terror	-2070
▁squ	-2071
▁cop	-2072
ends	-2073
ches	-2074
IDENT	-2075
action	-2076
▁adop	-2077
change	-2078
▁grant	-2079
acher	-2080
▁energy	-2081
▁Now	-2082
krit	-2083
▁Mukher	-2084
▁particip	-2085
▁regist	-2086
▁trade	-2087
▁Sp	-2088
▁maint	-2089
▁commit	-2090
▁fall	-2091
▁Su	-2092
▁exec	-2093
▁justice	-2094
▁passed	-2095
▁undert	-2096
sw	-2097
ama	-2098
▁personal	-2099
▁Adv	-2100
▁using	-2101
imate	-2102
▁management	-2103
▁compet	-2104
oul	-2105
▁study	-2106
▁scient	-2107
▁purposes	-2108
▁Mukherjee	-2109
atch	-2110
▁training	-2111
▁Mar	-2112
▁Par	-2113
▁Cor	-2114
▁taking	-2115
ler	-2116
▁PRESIDENT	-2117
▁Muslims	-2118
▁subst	-2119
mission	-2120
illed	-2121
▁democ	-2122
usion	-2123
▁loss	-2124
▁rules	-2125
itness	-2126
▁Not	-2127
▁provides	-2128
▁issue	-2129
▁father	-2130
▁United	-2131
acy	-2132
▁begin	-2133
ruction	-2134
▁bea	-2135
▁Kh	-2136
ening	-2137
amm	-2138
irl	-2139
▁specified	-2140
▁except	-2141
ead	-2142
▁religion	-2143
▁la	-2144
▁current	-2145
ship	-2146
▁early	-2147
▁Courts	-2148
line	-2149
▁forward	-2150
for	-2151
ners	-2152
▁legisl	-2153
▁near	-2154
tt	-2155
▁transfer	-2156
▁states	-2157
▁asked	-2158
pri	-2159
▁century	-2160
▁peace	-2161
▁population	-2162
ape	-2163
▁institution	-2164
▁mag	-2165
▁greater	-2166
▁developed	-2167
uted	-2168
▁Div	-2169
ets	-2170
▁pri	-2171
▁Co	-2172
▁lot	-2173
▁Pran	-2174
▁Go	-2175
▁carry	-2176
asing	-2177
vant	-2178
▁Board	-2179
isf	-2180
.,	-2181
airs	-2182
▁bra	-2183
▁why	-2184
use	-2185
▁condition	-2186
ees	-2187
▁disease	-2188
▁themselves	-2189
▁Such	-2190
▁apply	-2191
▁neg	-2192
ask	-2193
▁Sabha	-2194
▁yet	-2195
ush	-2196
ival	-2197
▁consum	-2198
▁literature	-2199
rest	-2200
▁Techn	-2201
▁outside	-2202
val	-2203
▁really	-2204
▁establish	-2205
▁influ	-2206
▁experience	-2207
att	-2208
▁dire	-2209
▁message	-2210
▁clear	-2211
▁tell	-2212
▁building	-2213
▁port	-2214
▁cast	-2215
▁introdu	-2216
vey	-2217
▁appeal	-2218
▁charge	-2219
▁allowed	-2220
▁include	-2221
▁powers	-2222
▁district	-2223
▁trib	-2224
▁Direct	-2225
aya	-2226
▁red	-2227
▁parties	-2228
▁culture	-2229
oot	-2230
IA	-2231
bar	-2232
ored	-2233
vi	-2234
▁hy	-2235
▁provision	-2236
▁chall	-2237
CC	-2238
▁anything	-2239
chan	-2240
▁soon	-2241
▁Int	-2242
▁mass	-2243
▁books	-2244
fully	-2245
orrow	-2246
cient	-2247
▁assessment	-2248
▁city	-2249
go	-2250
be	-2251
▁Ple	-2252
▁jur	-2253
▁Information	-2254
▁pun	-2255
▁programme	-2256
▁gave	-2257
▁immedi	-2258
inion	-2259
▁meeting	-2260
▁capacity	-2261
▁Justice	-2262
emed	-2263
▁Do	-2264
essee	-2265
▁stage	-2266
▁low	-2267
Ex	-2268
▁writing	-2269
ilk	-2270
rate	-2271
▁prep	-2272
ilar	-2273
▁earlier	-2274
▁aim	-2275
ilt	-2276
▁Republic	-2277
eral	-2278
itable	-2279
▁mention	-2280
ulated	-2281
ousand	-2282
▁boy	-2283
▁Can	-2284
anskrit	-2285
abad	-2286
uses	-2287
▁Pranab	-2288
▁resources	-2289
▁lay	-2290
▁original	-2291
▁Pun	-2292
▁Rec	-2293
▁actually	-2294
ixed	-2295
▁changes	-2296
▁essential	-2297
▁half	-2298
icient	-2299
▁Public	-2300
▁dri	-2301
▁structure	-2302
▁wide	-2303
iddle	-2304
jab	-2305
▁bal	-2306
▁rad	-2307
▁whose	-2308
▁fram	-2309
CT	-2310
▁exerc	-2311
▁signific	-2312
▁remov	-2313
ada	-2314
men	-2315
▁payment	-2316
enty	-2317
▁aud	-2318
▁attack	-2319
▁products	-2320
eness	-2321
▁create	-2322
▁lat	-2323
ech	-2324
▁medical	-2325
▁Let	-2326
▁Rel	-2327
▁typ	-2328
▁almost	-2329
▁Category	-2330
▁evidence	-2331
lo	-2332
▁exc	-2333
▁talk	-2334
▁soft	-2335
▁physical	-2336
eed	-2337
range	-2338
▁lear	-2339
▁IND	-2340
▁police	-2341
▁duty	-2342
▁situation	-2343
▁Bill	-2344
▁woman	-2345
▁US	-2346
▁bar	-2347
▁thus	-2348
▁assessee	-2349
ex	-2350
▁decided	-2351
▁achieve	-2352
cle	-2353
▁enter	-2354
▁Our	-2355
▁san	-2356
▁single	-2357
▁king	-2358
▁Brah	-2359
itude	-2360
▁issues	-2361
▁vari	-2362
▁award	-2363
▁ensure	-2364
▁transl	-2365
▁laws	-2366
va	-2367
▁issued	-2368
sec	-2369
▁Pan	-2370
▁global	-2371
▁satisf	-2372
▁nothing	-2373
▁indic	-2374
▁Where	-2375
▁thousand	-2376
▁son	-2377
oice	-2378
▁vers	-2379
aff	-2380
ones	-2381
▁dr	-2382
pre	-2383
ufact	-2384
tax	-2385
▁earth	-2386
ament	-2387
▁List	-2388
▁least	-2389
▁article	-2390
▁West	-2391
pecially	-2392
estern	-2393
▁efforts	-2394
३०	-2395
osop	-2396
anies	-2397
External	-2398
▁Please	-2399
▁job	-2400
▁Judge	-2401
▁science	-2402
▁petition	-2403
to	-2404
▁Jan	-2405
▁Wor	-2406
anda	-2407
▁rural	-2408
▁witness	-2409
▁treatment	-2410
overed	-2411
▁letter	-2412
▁works	-2413
rote	-2414
▁pati	-2415
ique	-2416
▁answ	-2417
wise	-2418
▁till	-2419
▁enough	-2420
▁specific	-2421
▁Even	-2422
▁makes	-2423
▁di	-2424
pril	-2425
com	-2426
undred	-2427
adem	-2428
▁fig	-2429
▁private	-2430
▁sure	-2431
▁Sanskrit	-2432
▁created	-2433
▁X	-2434
▁wr	-2435
▁innov	-2436
▁ever	-2437
▁Pal	-2438
▁improve	-2439
agar	-2440
uary	-2441
▁operation	-2442
▁inj	-2443
icers	-2444
▁birth	-2445
▁doing	-2446
my	-2447
▁kept	-2448
▁prim	-2449
▁South	-2450
eb	-2451
▁profession	-2452
▁conscious	-2453
ilosop	-2454
▁teacher	-2455
▁approach	-2456
▁proceedings	-2457
▁Trib	-2458
▁Report	-2459
▁told	-2460
▁While	-2461
▁opportunity	-2462
▁hon	-2463
ares	-2464
▁obt	-2465
▁increase	-2466
▁Dist	-2467
▁Bar	-2468
▁tree	-2469
▁|	-2470
ots	-2471
▁depos	-2472
▁fav	-2473
▁leave	-2474
▁continue	-2475
estic	-2476
▁Mahar	-2477
▁wrote	-2478
▁investment	-2479
▁subs	-2480
hood	-2481
mbly	-2482
▁price	-2483
▁circum	-2484
▁Med	-2485
rug	-2486
▁Mal	-2487
by	-2488
▁govern	-2489
▁poor	-2490
▁serious	-2491
▁deg	-2492
▁repl	-2493
▁univers	-2494
▁providing	-2495
▁especially	-2496
▁notice	-2497
▁Bi	-2498
▁Pe	-2499
duc	-2500
▁behalf	-2501
rect	-2502
▁doub	-2503
IR	-2504
The	-2505
▁eight	-2506
▁procedure	-2507
rick	-2508
▁insp	-2509
▁Pak	-2510
▁published	-2511
ams	-2512
▁path	-2513
ourage	-2514
▁bur	-2515
▁Cons	-2516
ires	-2517
▁economy	-2518
ights	-2519
▁hundred	-2520
▁temple	-2521
▁effective	-2522
▁Officer	-2523
roll	-2524
▁sac	-2525
▁spread	-2526
den	-2527
▁lakh	-2528
▁May	-2529
bed	-2530
rist	-2531
▁road	-2532
▁belong	-2533
▁appropri	-2534
▁By	-2535
aves	-2536
▁meaning	-2537
▁judicial	-2538
▁den	-2539
▁II	-2540
rastructure	-2541
▁stop	-2542
▁vict	-2543
▁April	-2544
▁similar	-2545
face	-2546
▁pain	-2547
▁jurisd	-2548
▁opinion	-2549
▁Institute	-2550
play	-2551
aving	-2552
▁tour	-2553
▁third	-2554
▁carried	-2555
apter	-2556
▁Under	-2557
▁popular	-2558
▁manufact	-2559
▁bill	-2560
▁Commissioner	-2561
▁emerg	-2562
▁Gur	-2563
▁Legisl	-2564
▁truth	-2565
▁Op	-2566
aughter	-2567
▁seek	-2568
▁forms	-2569
ban	-2570
uck	-2571
▁ris	-2572
▁Thus	-2573
▁stru	-2574
▁faith	-2575
iture	-2576
▁distrib	-2577
sect	-2578
▁pros	-2579
▁Governor	-2580
.0	-2581
▁contract	-2582
mir	-2583
▁across	-2584
▁International	-2585
let	-2586
AS	-2587
▁harm	-2588
encies	-2589
▁contact	-2590
▁vide	-2591
▁percent	-2592
ili	-2593
▁quite	-2594
▁generally	-2595
ump	-2596
gest	-2597
gram	-2598
▁anal	-2599
▁Lord	-2600
ying	-2601
▁coop	-2602
▁accord	-2603
▁mere	-2604
joy	-2605
▁idea	-2606
▁rul	-2607
▁administration	-2608
ivity	-2609
▁East	-2610
amed	-2611
utions	-2612
ED	-2613
gar	-2614
▁travel	-2615
▁*	-2616
aka	-2617
▁below	-2618
▁Indust	-2619
▁Per	-2620
▁central	-2621
▁stated	-2622
▁King	-2623
▁river	-2624
yn	-2625
▁Punjab	-2626
▁size	-2627
▁prescribed	-2628
▁sens	-2629
▁According	-2630
▁hands	-2631
▁check	-2632
▁During	-2633
▁parent	-2634
earch	-2635
▁source	-2636
▁places	-2637
▁Your	-2638
▁Pakistan	-2639
▁courts	-2640
▁importance	-2641
▁bi	-2642
band	-2643
▁crop	-2644
▁facilities	-2645
▁coun	-2646
uly	-2647
▁reform	-2648
▁mot	-2649
▁cut	-2650
endment	-2651
▁practice	-2652
hest	-2653
▁night	-2654
leb	-2655
pal	-2656
etimes	-2657
inate	-2658
ores	-2659
part	-2660
▁basic	-2661
▁reach	-2662
▁Sur	-2663
▁vir	-2664
dom	-2665
▁god	-2666
▁repe	-2667
▁write	-2668
▁giving	-2669
▁cal	-2670
iry	-2671
▁front	-2672
gu	-2673
▁relevant	-2674
▁girl	-2675
▁log	-2676
▁aspect	-2677
▁Article	-2678
racy	-2679
hat	-2680
hib	-2681
▁jour	-2682
▁tele	-2683
▁sound	-2684
▁stri	-2685
ging	-2686
▁foc	-2687
▁bran	-2688
▁Trans	-2689
▁felt	-2690
▁draw	-2691
▁Pur	-2692
ouses	-2693
▁measures	-2694
char	-2695
▁jurisdiction	-2696
▁Arab	-2697
▁plus	-2698
▁becomes	-2699
▁Add	-2700
▁oil	-2701
▁March	-2702
▁accused	-2703
▁'%	-2704
osition	-2705
▁Mem	-2706
▁Chair	-2707
▁aware	-2708
▁comb	-2709
rative	-2710
▁Afric	-2711
▁Income	-2712
ulate	-2713
ender	-2714
▁event	-2715
arily	-2716
avi	-2717
▁laun	-2718
▁philosop	-2719
▁li	-2720
▁IN	-2721
▁potential	-2722
▁Krish	-2723
▁dam	-2724
▁circumst	-2725
▁strength	-2726
▁agreement	-2727
▁bit	-2728
ointed	-2729
▁recommend	-2730
▁benefit	-2731
▁fast	-2732
▁statement	-2733
▁note	-2734
▁began	-2735
▁enjoy	-2736
ney	-2737
aker	-2738
▁Day	-2739
ously	-2740
▁citizens	-2741
utta	-2742
▁comes	-2743
▁Educ	-2744
▁happy	-2745
▁marriage	-2746
▁regular	-2747
▁existing	-2748
▁wife	-2749
gy	-2750
▁firm	-2751
▁sun	-2752
▁Service	-2753
ava	-2754
ned	-2755
▁Qu	-2756
new	-2757
▁bat	-2758
reg	-2759
iles	-2760
▁believe	-2761
▁Ma	-2762
▁Asse	-2763
▁criminal	-2764
▁constitution	-2765
▁Calc	-2766
▁hope	-2767
ume	-2768
ras	-2769
▁followed	-2770
▁room	-2771
▁install	-2772
▁exchange	-2773
war	-2774
ancy	-2775
raft	-2776
▁appl	-2777
ables	-2778
▁INDIA	-2779
▁brother	-2780
rid	-2781
▁Tra	-2782
▁groups	-2783
▁spiritual	-2784
haps	-2785
▁prevent	-2786
▁simple	-2787
▁Technology	-2788
▁novel	-2789
ox	-2790
▁Sa	-2791
poration	-2792
▁programmes	-2793
▁judge	-2794
kar	-2795
▁wrong	-2796
▁activity	-2797
▁protect	-2798
▁responsible	-2799
▁gives	-2800
equ	-2801
yond	-2802
▁Ak	-2803
standing	-2804
▁lower	-2805
▁American	-2806
▁anim	-2807
▁existence	-2808
▁mer	-2809
▁whom	-2810
▁bound	-2811
▁disp	-2812
▁space	-2813
▁Som	-2814
▁until	-2815
▁prior	-2816
▁doct	-2817
▁attempt	-2818
ift	-2819
▁concept	-2820
▁appropriate	-2821
utes	-2822
▁usually	-2823
nces	-2824
:%	-2825
▁wid	-2826
▁increased	-2827
body	-2828
unal	-2829
ole	-2830
▁Then	-2831
vest	-2832
▁mount	-2833
▁behind	-2834
▁emp	-2835
▁sex	-2836
▁says	-2837
▁request	-2838
▁punish	-2839
iff	-2840
▁unit	-2841
ingu	-2842
▁milit	-2843
▁offence	-2844
▁rich	-2845
'.	-2846
▁heav	-2847
▁Net	-2848
▁mom	-2849
ificate	-2850
▁particularly	-2851
▁camp	-2852
▁poll	-2853
▁lost	-2854
▁wall	-2855
▁Plan	-2856
▁commercial	-2857
▁lives	-2858
▁qual	-2859
▁soul	-2860
▁trust	-2861
enth	-2862
RI	-2863
ris	-2864
ober	-2865
▁Sm	-2866
▁und	-2867
▁conver	-2868
▁forest	-2869
▁Bal	-2870
▁mand	-2871
▁Secret	-2872
▁collect	-2873
▁beginning	-2874
▁stay	-2875
▁crore	-2876
rif	-2877
▁insect	-2878
▁final	-2879
sy	-2880
ami	-2881
▁nor	-2882
▁cultural	-2883
▁appoint	-2884
▁fair	-2885
▁World	-2886
▁circumstances	-2887
alty	-2888
▁song	-2889
▁rather	-2890
▁consist	-2891
▁projects	-2892
▁respond	-2893
▁systems	-2894
▁addition	-2895
uls	-2896
▁win	-2897
▁employment	-2898
▁fif	-2899
ault	-2900
▁Ins	-2901
▁led	-2902
ruit	-2903
▁–	-2904
▁occur	-2905
▁search	-2906
▁limited	-2907
rant	-2908
▁Sar	-2909
▁Mu	-2910
▁Pat	-2911
▁der	-2912
▁Kash	-2913
▁eyes	-2914
UR	-2915
▁colle	-2916
▁limit	-2917
▁Gang	-2918
▁feed	-2919
▁Calcutta	-2920
▁ep	-2921
▁industries	-2922
▁saw	-2923
ators	-2924
▁connect	-2925
amil	-2926
▁mut	-2927
etic	-2928
▁warm	-2929
▁banks	-2930
▁host	-2931
▁relation	-2932
▁schol	-2933
▁beyond	-2934
▁significant	-2935
▁alone	-2936
▁values	-2937
▁Every	-2938
▁takes	-2939
▁accepted	-2940
▁learning	-2941
▁protection	-2942
▁born	-2943
▁seven	-2944
isters	-2945
▁Author	-2946
▁histor	-2947
▁continued	-2948
hem	-2949
though	-2950
▁built	-2951
▁remain	-2952
▁continu	-2953
AY	-2954
EE	-2955
rs	-2956
”.	-2957
▁Budd	-2958
▁ideas	-2959
▁infrastructure	-2960
▁Bl	-2961
rade	-2962
▁Har	-2963
▁Mon	-2964
atures	-2965
▁Lok	-2966
▁Code	-2967
▁expression	-2968
▁appointed	-2969
▁adj	-2970
▁officer	-2971
▁Sat	-2972
▁dig	-2973
▁Ben	-2974
ishes	-2975
▁arbit	-2976
ley	-2977
enditure	-2978
▁getting	-2979
gn	-2980
umbai	-2981
▁cross	-2982
▁poetry	-2983
anation	-2984
iful	-2985
rary	-2986
uman	-2987
▁seed	-2988
▁loan	-2989
pped	-2990
su	-2991
▁cat	-2992
icro	-2993
▁drug	-2994
▁assistance	-2995
▁responsibility	-2996
ouch	-2997
▁Prime	-2998
▁Christ	-2999
omp	-3000
▁TO	-3001
ATION	-3002
where	-3003
▁else	-3004
miss	-3005
▁dre	-3006
asons	-3007
▁From	-3008
ott	-3009
▁coming	-3010
abor	-3011
▁prob	-3012
▁trial	-3013
NA	-3014
▁Des	-3015
▁round	-3016
▁ways	-3017
▁reference	-3018
▁sust	-3019
▁engine	-3020
▁strugg	-3021
▁transport	-3022
utive	-3023
▁appre	-3024
anced	-3025
▁includes	-3026
cer	-3027
▁Many	-3028
▁plants	-3029
▁setting	-3030
yle	-3031
▁emb	-3032
▁formed	-3033
▁music	-3034
▁proposed	-3035
▁increasing	-3036
oor	-3037
▁wanted	-3038
▁Centre	-3039
▁mental	-3040
▁Any	-3041
▁mechan	-3042
▁Program	-3043
▁immediately	-3044
▁scale	-3045
▁observed	-3046
ulations	-3047
▁produce	-3048
▁pers	-3049
▁joint	-3050
▁Kashmir	-3051
▁aver	-3052
vention	-3053
▁functions	-3054
▁Education	-3055
▁broad	-3056
▁device	-3057
▁details	-3058
know	-3059
omen	-3060
▁Ved	-3061
▁pal	-3062
▁direction	-3063
▁nar	-3064
▁languages	-3065
▁opt	-3066
▁territ	-3067
reen	-3068
ellow	-3069
▁normal	-3070
▁mentioned	-3071
▁document	-3072
ene	-3073
oke	-3074
▁Bomb	-3075
▁coll	-3076
▁goes	-3077
▁North	-3078
▁officers	-3079
▁ste	-3080
umar	-3081
▁unf	-3082
▁teach	-3083
▁forces	-3084
▁agricultural	-3085
ule	-3086
ini	-3087
▁hosp	-3088
▁arrest	-3089
▁perf	-3090
▁America	-3091
▁status	-3092
▁consideration	-3093
▁sym	-3094
▁famous	-3095
ucle	-3096
▁Fund	-3097
ales	-3098
▁celeb	-3099
▁dedu	-3100
with	-3101
▁ancient	-3102
oll	-3103
gment	-3104
▁disci	-3105
▁Guj	-3106
▁speech	-3107
iii	-3108
oted	-3109
▁copy	-3110
▁instrument	-3111
▁fire	-3112
▁prepared	-3113
▁Sim	-3114
▁companies	-3115
▁presented	-3116
▁Bab	-3117
▁relationship	-3118
▁Expl	-3119
▁fem	-3120
▁hus	-3121
▁pan	-3122
▁violence	-3123
ellect	-3124
▁har	-3125
▁obl	-3126
▁arch	-3127
▁medic	-3128
osis	-3129
▁Air	-3130
▁sil	-3131
▁Tur	-3132
▁film	-3133
▁paper	-3134
RO	-3135
has	-3136
▁animals	-3137
iva	-3138
IL	-3139
▁workers	-3140
head	-3141
ression	-3142
hru	-3143
ikh	-3144
▁polic	-3145
▁depend	-3146
ze	-3147
road	-3148
▁longer	-3149
ugust	-3150
▁base	-3151
▁week	-3152
▁tool	-3153
▁fight	-3154
▁max	-3155
▁fear	-3156
ratic	-3157
▁Bang	-3158
▁units	-3159
anger	-3160
▁Bombay	-3161
▁IT	-3162
▁partners	-3163
▁af	-3164
elfare	-3165
▁included	-3166
▁review	-3167
▁receive	-3168
ext	-3169
▁wish	-3170
cember	-3171
▁accounts	-3172
▁added	-3173
icit	-3174
▁minus	-3175
▁cy	-3176
▁break	-3177
▁refers	-3178
▁page	-3179
▁memory	-3180
▁hor	-3181
▁Fore	-3182
▁stra	-3183
▁extent	-3184
elling	-3185
▁connection	-3186
ensive	-3187
▁Sch	-3188
inite	-3189
▁correct	-3190
▁Of	-3191
▁Prof	-3192
▁imper	-3193
▁supply	-3194
▁January	-3195
▁black	-3196
nal	-3197
▁moment	-3198
▁Utt	-3199
enced	-3200
inated	-3201
▁Mumbai	-3202
▁arrange	-3203
▁directly	-3204
PC	-3205
▁fixed	-3206
▁Scheme	-3207
▁ign	-3208
▁attention	-3209
uge	-3210
▁sold	-3211
esides	-3212
▁friends	-3213
▁pict	-3214
▁tried	-3215
▁involved	-3216
▁Sam	-3217
▁imag	-3218
AB	-3219
▁user	-3220
▁types	-3221
▁Sri	-3222
▁task	-3223
▁Open	-3224
▁produced	-3225
utiful	-3226
ites	-3227
▁funds	-3228
▁sea	-3229
▁Shah	-3230
▁caused	-3231
▁$	-3232
hra	-3233
▁active	-3234
▁display	-3235
▁accordance	-3236
▁expenditure	-3237
▁bad	-3238
▁Prin	-3239
▁Assembly	-3240
la	-3241
▁ago	-3242
ptember	-3243
▁attract	-3244
▁separate	-3245
▁documents	-3246
stituted	-3247
▁otherwise	-3248
ctober	-3249
▁consult	-3250
▁interests	-3251
ey	-3252
asure	-3253
▁secret	-3254
▁twenty	-3255
▁dram	-3256
iance	-3257
▁doubt	-3258
▁Tax	-3259
asa	-3260
▁Hy	-3261
▁adopted	-3262
hens	-3263
▁cong	-3264
▁stor	-3265
▁heard	-3266
▁speed	-3267
oly	-3268
▁domestic	-3269
▁Kal	-3270
itled	-3271
▁affect	-3272
ticles	-3273
▁scientific	-3274
▁tur	-3275
▁appe	-3276
▁labour	-3277
▁occup	-3278
▁clean	-3279
▁video	-3280
▁vision	-3281
▁Tamil	-3282
▁standards	-3283
▁milk	-3284
ternet	-3285
▁ul	-3286
▁tar	-3287
▁inform	-3288
oting	-3289
▁Account	-3290
▁standard	-3291
▁contained	-3292
vere	-3293
▁ton	-3294
▁husband	-3295
▁democracy	-3296
▁Africa	-3297
▁sn	-3298
abled	-3299
▁assets	-3300
▁employees	-3301
iny	-3302
irst	-3303
▁strateg	-3304
▁prop	-3305
▁town	-3306
▁Krishna	-3307
▁exercise	-3308
adi	-3309
hic	-3310
▁reached	-3311
▁intellect	-3312
▁Provided	-3313
▁revolution	-3314
▁System	-3315
ground	-3316
▁pie	-3317
.”	-3318
▁San	-3319
▁pred	-3320
▁white	-3321
▁software	-3322
atever	-3323
ades	-3324
▁Tw	-3325
▁Whe	-3326
▁pack	-3327
▁highest	-3328
▁contribution	-3329
ids	-3330
▁unless	-3331
▁complex	-3332
▁questions	-3333
osing	-3334
▁Asia	-3335
▁sett	-3336
▁north	-3337
▁likely	-3338
▁Ac	-3339
▁laid	-3340
▁easy	-3341
▁ge	-3342
▁fre	-3343
▁Nehru	-3344
▁Fl	-3345
ager	-3346
▁beautiful	-3347
▁generation	-3348
▁Research	-3349
▁purch	-3350
que	-3351
▁multip	-3352
▁risk	-3353
▁effort	-3354
add	-3355
▁summ	-3356
▁Er	-3357
▁numbers	-3358
asth	-3359
▁challeng	-3360
▁hours	-3361
▁steps	-3362
rog	-3363
ING	-3364
iter	-3365
ashtra	-3366
phas	-3367
ength	-3368
▁Chairman	-3369
ora	-3370
ional	-3371
ellig	-3372
▁performance	-3373
arma	-3374
▁image	-3375
▁offer	-3376
iation	-3377
cription	-3378
▁reasons	-3379
▁SC	-3380
inct	-3381
▁Dev	-3382
▁largest	-3383
▁influence	-3384
AC	-3385
▁ant	-3386
▁context	-3387
▁agg	-3388
▁species	-3389
▁majority	-3390
▁insurance	-3391
▁Director	-3392
▁District	-3393
▁technical	-3394
▁export	-3395
▁UN	-3396
▁June	-3397
▁pattern	-3398
▁Ge	-3399
▁swe	-3400
▁recent	-3401
▁Indians	-3402
▁south	-3403
uration	-3404
▁middle	-3405
pond	-3406
izing	-3407
ressed	-3408
▁fold	-3409
▁Its	-3410
▁Other	-3411
▁opportunities	-3412
▁Civil	-3413
▁advance	-3414
▁bod	-3415
▁costs	-3416
▁Western	-3417
▁answer	-3418
▁assign	-3419
▁charges	-3420
ps	-3421
iment	-3422
▁results	-3423
▁furn	-3424
▁organisation	-3425
▁placed	-3426
▁policies	-3427
▁range	-3428
▁Mag	-3429
▁team	-3430
LE	-3431
▁util	-3432
▁weak	-3433
▁leading	-3434
▁Red	-3435
▁connected	-3436
asc	-3437
▁sup	-3438
▁academ	-3439
▁rail	-3440
▁instead	-3441
ont	-3442
▁Bas	-3443
▁implementation	-3444
▁sometimes	-3445
▁exceed	-3446
ysis	-3447
▁cells	-3448
▁Uttar	-3449
▁War	-3450
▁mob	-3451
▁orders	-3452
ipt	-3453
▁quick	-3454
▁Are	-3455
▁seems	-3456
▁growing	-3457
▁Char	-3458
▁farmers	-3459
▁tradition	-3460
mbol	-3461
▁fra	-3462
cience	-3463
▁Person	-3464
▁described	-3465
▁independence	-3466
▁military	-3467
▁Ker	-3468
▁struggle	-3469
ography	-3470
▁patient	-3471
OS	-3472
pro	-3473
▁egg	-3474
li	-3475
▁mail	-3476
▁temper	-3477
▁balance	-3478
▁fully	-3479
▁measure	-3480
AP	-3481
▁tri	-3482
irm	-3483
onst	-3484
▁quant	-3485
atha	-3486
▁China	-3487
amental	-3488
ovember	-3489
▁December	-3490
resh	-3491
olute	-3492
▁Val	-3493
▁fort	-3494
▁ones	-3495
▁model	-3496
▁agriculture	-3497
▁mode	-3498
▁media	-3499
ensation	-3500
▁People	-3501
▁threat	-3502
▁consequ	-3503
raw	-3504
▁nucle	-3505
▁conflic	-3506
▁consciousness	-3507
▁affected	-3508
ows	-3509
▁Judges	-3510
ayan	-3511
▁dark	-3512
▁average	-3513
▁looking	-3514
▁green	-3515
▁selected	-3516
▁independent	-3517
▁advice	-3518
ishn	-3519
▁victim	-3520
uff	-3521
▁regarding	-3522
▁August	-3523
▁deemed	-3524
▁substant	-3525
▁principle	-3526
▁guid	-3527
▁Project	-3528
ipur	-3529
▁Pand	-3530
▁Well	-3531
▁fine	-3532
ateral	-3533
▁origin	-3534
leep	-3535
▁vac	-3536
▁Palest	-3537
▁former	-3538
▁facilit	-3539
▁registered	-3540
umn	-3541
▁Ob	-3542
rown	-3543
▁autom	-3544
▁Hindus	-3545
▁content	-3546
▁understanding	-3547
▁lack	-3548
▁extra	-3549
▁=	-3550
▁October	-3551
view	-3552
▁refer	-3553
idy	-3554
▁“”	-3555
▁gri	-3556
▁gradu	-3557
▁gold	-3558
porary	-3559
iciency	-3560
▁inside	-3561
▁declared	-3562
II	-3563
▁Tag	-3564
▁rupe	-3565
▁authorities	-3566
nes	-3567
▁ON	-3568
ields	-3569
▁leader	-3570
▁September	-3571
▁educational	-3572
quiry	-3573
▁Rules	-3574
▁payable	-3575
▁Inf	-3576
▁hab	-3577
verse	-3578
▁Organ	-3579
▁command	-3580
ula	-3581
overy	-3582
▁traditional	-3583
oms	-3584
▁Up	-3585
aught	-3586
▁earn	-3587
▁Management	-3588
oo	-3589
▁animal	-3590
▁Division	-3591
▁Corporation	-3592
itle	-3593
▁asset	-3594
▁perhaps	-3595
▁Def	-3596
▁Explanation	-3597
inery	-3598
order	-3599
▁dead	-3600
▁cooperation	-3601
▁presence	-3602
aily	-3603
▁prem	-3604
oga	-3605
▁views	-3606
▁Gandhiji	-3607
▁hot	-3608
▁associated	-3609
▁nom	-3610
▁Islamic	-3611
▁AND	-3612
▁located	-3613
uties	-3614
▁multi	-3615
▁advant	-3616
▁speak	-3617
▁length	-3618
▁settle	-3619
▁Chapter	-3620
▁benefits	-3621
▁creation	-3622
illing	-3623
▁minor	-3624
rust	-3625
▁adequ	-3626
ocation	-3627
▁won	-3628
▁reve	-3629
▁Here	-3630
▁rout	-3631
▁First	-3632
▁needed	-3633
▁Therefore	-3634
▁Roy	-3635
set	-3636
▁eye	-3637
ailed	-3638
▁certificate	-3639
▁style	-3640
▁extended	-3641
▁sections	-3642
▁Aut	-3643
arant	-3644
▁useful	-3645
pid	-3646
▁Gh	-3647
▁More	-3648
▁pric	-3649
▁Bhag	-3650
▁AT	-3651
▁drink	-3652
▁additional	-3653
pper	-3654
▁fulf	-3655
▁youth	-3656
▁centre	-3657
▁difference	-3658
uled	-3659
enior	-3660
▁Chandra	-3661
▁successful	-3662
IV	-3663
▁sentence	-3664
▁unc	-3665
▁ball	-3666
▁shown	-3667
▁schemes	-3668
▁principles	-3669
▁July	-3670
overty	-3671
▁covered	-3672
▁fit	-3673
▁introduced	-3674
▁Ur	-3675
▁Ter	-3676
▁Germ	-3677
▁Most	-3678
▁developing	-3679
▁announ	-3680
▁hospital	-3681
▁jo	-3682
▁Policy	-3683
▁fest	-3684
▁extreme	-3685
▁someone	-3686
▁terrorism	-3687
▁Child	-3688
▁failed	-3689
▁symbol	-3690
ervation	-3691
hab	-3692
▁stories	-3693
vious	-3694
▁chem	-3695
▁divine	-3696
dule	-3697
▁Rem	-3698
▁Maharashtra	-3699
▁calc	-3700
▁Special	-3701
▁thinking	-3702
▁expressed	-3703
icated	-3704
▁England	-3705
▁processing	-3706
▁Nep	-3707
▁diss	-3708
▁levels	-3709
▁played	-3710
▁wealth	-3711
▁storage	-3712
▁committed	-3713
▁everything	-3714
icate	-3715
▁code	-3716
▁promote	-3717
▁objective	-3718
▁operations	-3719
ruary	-3720
▁examination	-3721
▁Nar	-3722
apers	-3723
▁emphas	-3724
▁construction	-3725
▁registration	-3726
▁enact	-3727
▁namely	-3728
▁Prot	-3729
▁news	-3730
uation	-3731
▁perman	-3732
▁shows	-3733
▁Excell	-3734
▁cash	-3735
▁rise	-3736
▁expect	-3737
▁chann	-3738
▁graph	-3739
▁names	-3740
▁favour	-3741
adh	-3742
▁Us	-3743
ague	-3744
▁item	-3745
▁focus	-3746
ially	-3747
iciary	-3748
▁Conference	-3749
force	-3750
oured	-3751
▁machine	-3752
▁Set	-3753
ebruary	-3754
▁larger	-3755
ops	-3756
ube	-3757
itis	-3758
▁Iran	-3759
▁appreci	-3760
▁parents	-3761
▁poems	-3762
▁contains	-3763
ronic	-3764
▁Services	-3765
▁lines	-3766
▁minimum	-3767
▁villages	-3768
apt	-3769
een	-3770
▁ST	-3771
▁soil	-3772
ifying	-3773
▁penalty	-3774
▁Tribunal	-3775
▁sale	-3776
oad	-3777
▁...	-3778
▁mal	-3779
aches	-3780
rance	-3781
ript	-3782
▁wel	-3783
usive	-3784
▁collection	-3785
apan	-3786
▁cand	-3787
▁extend	-3788
ja	-3789
▁Ah	-3790
light	-3791
▁site	-3792
▁pray	-3793
▁walk	-3794
▁Secretary	-3795
▁phot	-3796
▁Elect	-3797
▁danger	-3798
▁virt	-3799
right	-3800
itch	-3801
word	-3802
venue	-3803
▁Also	-3804
▁Dh	-3805
▁running	-3806
▁judges	-3807
ighb	-3808
▁lic	-3809
▁tal	-3810
▁morning	-3811
▁Agricult	-3812
enses	-3813
▁skin	-3814
osh	-3815
▁entitled	-3816
rows	-3817
aging	-3818
▁resident	-3819
▁ideal	-3820
▁weight	-3821
▁constant	-3822
ricket	-3823
▁merely	-3824
▁changed	-3825
▁Mod	-3826
▁external	-3827
▁petitioner	-3828
dden	-3829
▁gets	-3830
▁department	-3831
ae	-3832
▁worth	-3833
olid	-3834
▁variety	-3835
▁Mo	-3836
▁bed	-3837
▁friendly	-3838
▁Di	-3839
unic	-3840
cribe	-3841
▁square	-3842
ertain	-3843
▁temples	-3844
▁Bec	-3845
▁rain	-3846
▁wait	-3847
▁engaged	-3848
▁worship	-3849
omy	-3850
▁remark	-3851
aled	-3852
lick	-3853
omic	-3854
▁grand	-3855
▁raised	-3856
▁expected	-3857
iverse	-3858
▁Kumar	-3859
▁female	-3860
▁sav	-3861
▁vital	-3862
▁dispos	-3863
▁easily	-3864
▁desire	-3865
▁impact	-3866
▁unique	-3867
▁Authority	-3868
▁contem	-3869
▁maximum	-3870
▁surface	-3871
ogle	-3872
▁Mark	-3873
▁publication	-3874
▁bow	-3875
tion	-3876
▁card	-3877
▁ship	-3878
▁filed	-3879
▁vehic	-3880
abilities	-3881
▁relief	-3882
▁equip	-3883
▁prosper	-3884
▁chief	-3885
▁European	-3886
oph	-3887
lands	-3888
▁Her	-3889
▁November	-3890
rav	-3891
inet	-3892
prene	-3893
▁Kerala	-3894
▁neighb	-3895
▁Inter	-3896
▁files	-3897
erative	-3898
▁philosophy	-3899
aken	-3900
iring	-3901
▁defined	-3902
▁primary	-3903
▁organization	-3904
▁board	-3905
▁Tagore	-3906
▁looked	-3907
▁scholars	-3908
▁cou	-3909
▁slow	-3910
▁Madh	-3911
▁excell	-3912
▁session	-3913
aksh	-3914
▁ready	-3915
▁elements	-3916
▁cho	-3917
▁Inst	-3918
▁Their	-3919
▁medium	-3920
reprene	-3921
▁suc	-3922
▁remains	-3923
▁CO	-3924
▁withd	-3925
▁Since	-3926
▁critic	-3927
▁element	-3928
▁sem	-3929
▁arri	-3930
▁facts	-3931
▁duties	-3932
▁Tem	-3933
▁greet	-3934
▁shares	-3935
uries	-3936
▁magn	-3937
▁resolution	-3938
In	-3939
▁enable	-3940
▁unity	-3941
▁fert	-3942
ilateral	-3943
▁Finance	-3944
▁enterpr	-3945
▁Akbar	-3946
▁Second	-3947
▁reading	-3948
▁Ant	-3949
▁Khan	-3950
▁poverty	-3951
sych	-3952
iting	-3953
▁valid	-3954
▁discipl	-3955
▁individuals	-3956
▁minister	-3957
▁fundamental	-3958
▁applications	-3959
▁prosec	-3960
▁Langu	-3961
▁convey	-3962
▁dyn	-3963
asthan	-3964
▁nations	-3965
▁saying	-3966
una	-3967
▁stock	-3968
▁annual	-3969
▁series	-3970
▁granted	-3971
▁Lim	-3972
',	-3973
isc	-3974
▁trying	-3975
▁feet	-3976
aji	-3977
▁acts	-3978
▁studies	-3979
▁integral	-3980
▁Governments	-3981
▁communication	-3982
atma	-3983
omet	-3984
▁Aust	-3985
▁Soci	-3986
▁cere	-3987
▁suit	-3988
▁items	-3989
▁Though	-3990
▁indeed	-3991
▁flu	-3992
BI	-3993
▁feeling	-3994
▁Ann	-3995
ivery	-3996
▁Work	-3997
▁pure	-3998
▁Administ	-3999
fort	-4000
▁compon	-4001
▁points	-4002
istics	-4003
▁Judicial	-4004
urg	-4005
▁foot	-4006
▁error	-4007
▁turned	-4008
▁00	-4009
chand	-4010
▁pressure	-4011
ests	-4012
heduled	-4013
▁articles	-4014
▁throughout	-4015
▁entry	-4016
▁agency	-4017
▁divided	-4018
oud	-4019
▁ult	-4020
▁requirements	-4021
▁ast	-4022
▁Hist	-4023
▁cultiv	-4024
▁%	-4025
▁send	-4026
▁degree	-4027
▁February	-4028
▁Karn	-4029
▁Social	-4030
▁sacrif	-4031
▁excl	-4032
▁moral	-4033
aviour	-4034
then	-4035
▁aspects	-4036
▁dischar	-4037
▁Japan	-4038
AM	-4039
▁frequ	-4040
▁safety	-4041
ferences	-4042
▁Members	-4043
▁practices	-4044
▁electric	-4045
oming	-4046
▁rapid	-4047
▁sudden	-4048
▁pra	-4049
cript	-4050
▁susp	-4051
▁leaves	-4052
▁prison	-4053
ero	-4054
▁whatever	-4055
▁mr	-4056
▁Dem	-4057
▁wond	-4058
▁cities	-4059
▁mainly	-4060
▁requires	-4061
ARD	-4062
▁Ed	-4063
▁nut	-4064
▁touch	-4065
▁learned	-4066
▁powerful	-4067
१०	-4068
vis	-4069
▁Because	-4070
▁Gujarat	-4071
▁fish	-4072
▁Panch	-4073
▁daily	-4074
▁methods	-4075
▁Why	-4076
▁Rama	-4077
ousing	-4078
mar	-4079
essing	-4080
▁target	-4081
▁Princi	-4082
▁causes	-4083
lying	-4084
▁quar	-4085
▁shape	-4086
aug	-4087
▁bear	-4088
▁staff	-4089
itect	-4090
▁Colle	-4091
▁delay	-4092
▁contain	-4093
▁succeed	-4094
▁daughter	-4095
yan	-4096
onse	-4097
▁impl	-4098
▁tend	-4099
▁incident	-4100
abh	-4101
▁receipt	-4102
▁distribution	-4103
▁bab	-4104
▁Aud	-4105
ils	-4106
▁Sir	-4107
▁named	-4108
▁Associ	-4109
▁fields	-4110
anas	-4111
▁eat	-4112
▁Guru	-4113
▁Post	-4114
▁Sah	-4115
▁School	-4116
▁suggested	-4117
▁mur	-4118
▁Bharat	-4119
▁offered	-4120
▁completed	-4121
▁Art	-4122
▁Health	-4123
▁belief	-4124
▁promotion	-4125
aja	-4126
▁rare	-4127
▁tiss	-4128
respond	-4129
nel	-4130
▁Stand	-4131
▁sides	-4132
▁sectors	-4133
▁Tod	-4134
▁gone	-4135
▁trou	-4136
▁convers	-4137
▁literary	-4138
▁IS	-4139
▁defence	-4140
▁schools	-4141
▁intellig	-4142
▁meant	-4143
artments	-4144
▁distance	-4145
actions	-4146
▁incl	-4147
▁Himal	-4148
▁vast	-4149
▁Group	-4150
▁welfare	-4151
▁Official	-4152
▁confident	-4153
▁lived	-4154
ken	-4155
athy	-4156
▁died	-4157
▁treated	-4158
▁adequate	-4159
CH	-4160
▁River	-4161
enture	-4162
▁dated	-4163
▁script	-4164
pping	-4165
imately	-4166
▁follows	-4167
▁election	-4168
▁discussion	-4169
▁—	-4170
aign	-4171
▁male	-4172
▁destro	-4173
▁confidence	-4174
▁anti	-4175
porate	-4176
▁veget	-4177
▁factors	-4178
▁complaint	-4179
lex	-4180
▁Ka	-4181
▁Out	-4182
▁km	-4183
▁fee	-4184
▁famil	-4185
▁expand	-4186
▁maintain	-4187
AG	-4188
cast	-4189
mosp	-4190
▁upd	-4191
olved	-4192
▁events	-4193
▁Party	-4194
▁wishes	-4195
iling	-4196
▁fresh	-4197
▁station	-4198
▁beauty	-4199
▁worked	-4200
▁believed	-4201
▁universal	-4202
▁avoid	-4203
▁Nav	-4204
▁teachers	-4205
▁Whether	-4206
▁establishment	-4207
▁gas	-4208
▁argu	-4209
▁master	-4210
▁returned	-4211
▁mid	-4212
▁door	-4213
▁serve	-4214
izations	-4215
ming	-4216
vision	-4217
▁abroad	-4218
▁Mahatma	-4219
▁regional	-4220
ius	-4221
▁association	-4222
AD	-4223
▁Cur	-4224
▁Pet	-4225
▁academic	-4226
▁Sal	-4227
▁capt	-4228
▁knew	-4229
▁branch	-4230
▁failure	-4231
▁positive	-4232
▁Ra	-4233
▁Power	-4234
▁altern	-4235
▁borrow	-4236
▁figure	-4237
▁internal	-4238
▁Vis	-4239
▁esc	-4240
▁newsp	-4241
▁sleep	-4242
▁Google	-4243
▁Bengali	-4244
▁opening	-4245
▁reality	-4246
▁prec	-4247
▁encoura	-4248
▁machinery	-4249
▁highly	-4250
▁volunt	-4251
▁hearing	-4252
umer	-4253
▁root	-4254
▁caste	-4255
▁songs	-4256
▁appell	-4257
▁Programme	-4258
’.	-4259
cher	-4260
▁Kol	-4261
▁bodies	-4262
urate	-4263
▁Only	-4264
▁heavy	-4265
▁appears	-4266
▁removal	-4267
▁diseases	-4268
▁pleasure	-4269
▁intellectual	-4270
▁color	-4271
▁remember	-4272
▁cold	-4273
▁Error	-4274
▁candid	-4275
▁mist	-4276
▁strengthen	-4277
udget	-4278
▁bond	-4279
▁buy	-4280
▁dim	-4281
▁army	-4282
▁goal	-4283
▁clearly	-4284
achal	-4285
▁actual	-4286
▁Besides	-4287
▁nuclear	-4288
▁families	-4289
▁Bel	-4290
▁insects	-4291
oti	-4292
▁Moh	-4293
ception	-4294
▁keeping	-4295
▁suitable	-4296
▁decisions	-4297
▁partnership	-4298
enge	-4299
▁cru	-4300
▁determined	-4301
▁bri	-4302
▁Russ	-4303
▁rank	-4304
▁probably	-4305
isms	-4306
▁joy	-4307
▁late	-4308
▁table	-4309
▁Palestin	-4310
ura	-4311
▁safe	-4312
▁voice	-4313
ologies	-4314
▁prepar	-4315
eria	-4316
▁Inc	-4317
▁dial	-4318
▁absolute	-4319
▁delivery	-4320
ifest	-4321
▁happened	-4322
adu	-4323
inc	-4324
elines	-4325
▁happen	-4326
▁agencies	-4327
US	-4328
oj	-4329
▁rupees	-4330
tenance	-4331
▁agreed	-4332
▁proved	-4333
▁version	-4334
▁carrying	-4335
eks	-4336
rupt	-4337
ataka	-4338
▁atmosp	-4339
▁punishment	-4340
▁input	-4341
▁doctor	-4342
▁prices	-4343
▁recommended	-4344
▁Will	-4345
▁aw	-4346
rang	-4347
▁accident	-4348
rel	-4349
urt	-4350
erted	-4351
▁compensation	-4352
▁pil	-4353
rench	-4354
▁Excellency	-4355
vert	-4356
▁box	-4357
▁enem	-4358
▁Rajasthan	-4359
ading	-4360
putes	-4361
▁Assist	-4362
▁College	-4363
▁response	-4364
▁season	-4365
stitu	-4366
phone	-4367
▁Further	-4368
▁officials	-4369
▁estim	-4370
▁Che	-4371
▁Regist	-4372
▁controll	-4373
vent	-4374
▁dry	-4375
▁experi	-4376
▁construct	-4377
....	-4378
▁disapp	-4379
▁Company	-4380
▁passing	-4381
▁sufficient	-4382
ika	-4383
uel	-4384
▁thereof	-4385
▁distingu	-4386
asm	-4387
▁Assam	-4388
▁Buddh	-4389
▁dealing	-4390
▁completely	-4391
▁urban	-4392
OL	-4393
co	-4394
jud	-4395
▁Ira	-4396
after	-4397
▁adult	-4398
▁applicable	-4399
▁attend	-4400
▁conflict	-4401
▁launched	-4402
▁Financial	-4403
▁miss	-4404
▁grass	-4405
iration	-4406
key	-4407
ply	-4408
▁reduced	-4409
▁chemical	-4410
arian	-4411
▁Water	-4412
▁profit	-4413
▁id	-4414
▁Lib	-4415
using	-4416
▁constituted	-4417
ondon	-4418
▁mutual	-4419
▁features	-4420
▁planning	-4421
▁Legislative	-4422
▁seem	-4423
rehens	-4424
▁advantage	-4425
▁wood	-4426
▁crops	-4427
▁watch	-4428
▁deduction	-4429
▁amongst	-4430
▁Pen	-4431
▁Port	-4432
▁Today	-4433
▁instance	-4434
“”	-4435
ties	-4436
▁Att	-4437
▁leadership	-4438
▁Which	-4439
▁sanction	-4440
▁wild	-4441
▁colour	-4442
▁Science	-4443
▁president	-4444
▁fal	-4445
▁encourage	-4446
ET	-4447
▁BC	-4448
igible	-4449
▁Bihar	-4450
▁ordinary	-4451
▁correspond	-4452
▁parliament	-4453
.—	-4454
▁Men	-4455
▁hero	-4456
▁default	-4457
▁CH	-4458
▁ang	-4459
▁spent	-4460
▁Proced	-4461
▁guarant	-4462
▁hour	-4463
▁stone	-4464
▁concl	-4465
▁Andhra	-4466
▁excess	-4467
▁identity	-4468
▁Iraq	-4469
▁compr	-4470
▁elected	-4471
▁Him	-4472
▁reasonable	-4473
App	-4474
ese	-4475
▁Cap	-4476
▁Two	-4477
▁counter	-4478
▁entered	-4479
▁innovation	-4480
ancing	-4481
pective	-4482
▁investigation	-4483
mark	-4484
▁Aff	-4485
rency	-4486
▁reports	-4487
▁Form	-4488
▁latter	-4489
▁poem	-4490
▁pursu	-4491
▁option	-4492
▁initiatives	-4493
▁liqu	-4494
▁latest	-4495
▁critical	-4496
▁Prem	-4497
▁desp	-4498
▁remained	-4499
▁recommendations	-4500
▁applied	-4501
▁materials	-4502
▁Kar	-4503
▁Independ	-4504
▁Both	-4505
▁reserv	-4506
▁centres	-4507
ka	-4508
▁mouth	-4509
▁holding	-4510
▁cook	-4511
▁assum	-4512
▁reject	-4513
TER	-4514
▁Ay	-4515
▁sustain	-4516
▁achieved	-4517
▁select	-4518
▁administrative	-4519
EC	-4520
▁fat	-4521
▁shr	-4522
▁Rajya	-4523
▁notes	-4524
▁Office	-4525
▁server	-4526
▁subsequ	-4527
▁released	-4528
▁Environment	-4529
EM	-4530
cean	-4531
like	-4532
▁sand	-4533
▁negative	-4534
▁History	-4535
▁incor	-4536
▁Another	-4537
▁supported	-4538
odes	-4539
era	-4540
itt	-4541
ped	-4542
▁web	-4543
ayana	-4544
▁Rail	-4545
▁professional	-4546
▁breed	-4547
▁psych	-4548
▁motion	-4549
▁characters	-4550
▁drawn	-4551
mon	-4552
▁hear	-4553
▁fruit	-4554
▁Econom	-4555
▁London	-4556
▁Over	-4557
▁inner	-4558
▁Insurance	-4559
▁governance	-4560
▁Human	-4561
isations	-4562
);	-4563
▁approved	-4564
▁aid	-4565
▁leaf	-4566
▁sell	-4567
▁trees	-4568
▁Park	-4569
▁entreprene	-4570
board	-4571
▁permanent	-4572
rator	-4573
▁game	-4574
▁damage	-4575
▁nearly	-4576
▁output	-4577
▁sources	-4578
▁Ash	-4579
▁democratic	-4580
▁Ham	-4581
▁participation	-4582
▁Yoga	-4583
▁defend	-4584
bal	-4585
▁surround	-4586
ented	-4587
▁Nepal	-4588
▁remove	-4589
▁campaign	-4590
▁Bus	-4591
arati	-4592
ittees	-4593
▁explo	-4594
▁Speaker	-4595
▁ende	-4596
▁moved	-4597
▁perfect	-4598
▁subjects	-4599
▁interesting	-4600
che	-4601
▁plays	-4602
▁charged	-4603
▁recorded	-4604
ankar	-4605
▁surv	-4606
▁drugs	-4607
pta	-4608
aded	-4609
▁sort	-4610
▁title	-4611
▁weeks	-4612
▁judgment	-4613
▁picture	-4614
▁politics	-4615
teen	-4616
isition	-4617
aks	-4618
▁exact	-4619
▁mission	-4620
ym	-4621
▁Gl	-4622
▁removed	-4623
lete	-4624
▁Who	-4625
▁dece	-4626
▁houses	-4627
▁congrat	-4628
▁tonnes	-4629
▁standing	-4630
▁Non	-4631
▁Pri	-4632
▁gard	-4633
ishing	-4634
▁greetings	-4635
▁rates	-4636
▁commission	-4637
▁historical	-4638
▁Abd	-4639
▁Police	-4640
▁architect	-4641
▁territory	-4642
▁appointment	-4643
aul	-4644
▁Ganga	-4645
ulating	-4646
▁privile	-4647
▁undertaking	-4648
anges	-4649
▁print	-4650
▁opened	-4651
▁concent	-4652
▁deposit	-4653
▁married	-4654
▁legislation	-4655
▁numer	-4656
▁Ser	-4657
▁Commercial	-4658
▁Bose	-4659
▁cred	-4660
▁senior	-4661
▁moon	-4662
▁advoc	-4663
▁block	-4664
atically	-4665
▁Internet	-4666
▁complain	-4667
▁committee	-4668
▁analysis	-4669
▁creating	-4670
▁conducted	-4671
▁-.	-4672
thern	-4673
▁debt	-4674
▁poin	-4675
▁Right	-4676
▁match	-4677
hu	-4678
▁Jew	-4679
▁waste	-4680
▁finally	-4681
▁Bad	-4682
▁Sikh	-4683
aly	-4684
▁join	-4685
udi	-4686
▁Est	-4687
orial	-4688
ports	-4689
▁endeav	-4690
▁Mission	-4691
▁facility	-4692
ird	-4693
ider	-4694
▁Don	-4695
▁Jain	-4696
▁huge	-4697
▁save	-4698
iant	-4699
▁submitted	-4700
ghan	-4701
iced	-4702
▁gain	-4703
hern	-4704
▁amb	-4705
▁regions	-4706
▁Lab	-4707
▁ban	-4708
aling	-4709
▁Sind	-4710
▁obst	-4711
▁shap	-4712
▁destroy	-4713
rations	-4714
▁challenge	-4715
ghal	-4716
▁prosperity	-4717
▁Nag	-4718
▁east	-4719
▁plat	-4720
▁dream	-4721
▁sought	-4722
▁mort	-4723
▁functioning	-4724
ij	-4725
ads	-4726
anya	-4727
olly	-4728
▁cam	-4729
▁eth	-4730
▁choice	-4731
▁served	-4732
▁theory	-4733
▁situated	-4734
▁maintained	-4735
▁false	-4736
▁ability	-4737
▁classes	-4738
▁CON	-4739
utory	-4740
iveness	-4741
▁journey	-4742
▁helped	-4743
▁dispute	-4744
▁letters	-4745
▁proport	-4746
▁proposal	-4747
▁challenges	-4748
ework	-4749
▁SCC	-4750
▁Use	-4751
▁Could	-4752
▁banking	-4753
ester	-4754
rence	-4755
▁solution	-4756
▁manufacture	-4757
▁weap	-4758
▁west	-4759
▁Austral	-4760
rew	-4761
▁lad	-4762
▁wat	-4763
▁Home	-4764
▁Among	-4765
▁consists	-4766
▁constitutional	-4767
oe	-4768
▁Car	-4769
▁Kan	-4770
▁grown	-4771
▁noted	-4772
▁obtained	-4773
ni	-4774
▁writer	-4775
▁Foreign	-4776
▁obvious	-4777
▁Procedure	-4778
▁outl	-4779
▁communities	-4780
▁reb	-4781
astic	-4782
▁Applic	-4783
▁records	-4784
▁changing	-4785
▁awareness	-4786
▁elections	-4787
▁didn	-4788
uit	-4789
▁sole	-4790
▁enhan	-4791
▁Member	-4792
▁reduce	-4793
▁demonst	-4794
▁release	-4795
▁squared	-4796
▁stood	-4797
▁Karnataka	-4798
icious	-4799
▁Christian	-4800
▁transform	-4801
otic	-4802
▁pill	-4803
▁breat	-4804
▁engineering	-4805
rical	-4806
▁effects	-4807
▁expenses	-4808
luding	-4809
▁draft	-4810
▁neither	-4811
lad	-4812
▁crime	-4813
▁factor	-4814
११	-4815
iled	-4816
issa	-4817
▁surpr	-4818
▁Invest	-4819
▁Pra	-4820
erate	-4821
jection	-4822
▁profits	-4823
▁sitting	-4824
▁Language	-4825
▁teaching	-4826
▁atmosphere	-4827
orthern	-4828
▁citizen	-4829
iform	-4830
▁Pers	-4831
▁volume	-4832
aman	-4833
▁accomp	-4834
▁formal	-4835
▁student	-4836
▁Schedule	-4837
▁approval	-4838
▁Gov	-4839
▁sugar	-4840
▁background	-4841
▁objectives	-4842
▁.	-4843
▁birds	-4844
essions	-4845
het	-4846
ocol	-4847
▁Ret	-4848
▁Association	-4849
▁attitude	-4850
▁pollution	-4851
▁moving	-4852
▁recently	-4853
▁register	-4854
.)	-4855
▁micro	-4856
▁universities	-4857
▁Each	-4858
▁mobile	-4859
ordinate	-4860
▁relative	-4861
▁substance	-4862
▁suffering	-4863
▁transferred	-4864
EL	-4865
ammu	-4866
olve	-4867
▁attached	-4868
▁maintenance	-4869
▁Mat	-4870
essor	-4871
▁folk	-4872
ilarly	-4873
▁affairs	-4874
▁decades	-4875
under	-4876
▁Once	-4877
ocks	-4878
▁comment	-4879
iments	-4880
▁climate	-4881
▁devotion	-4882
▁healthy	-4883
▁division	-4884
▁operating	-4885
▁ourselves	-4886
sc	-4887
▁Das	-4888
▁Show	-4889
▁amend	-4890
▁decide	-4891
▁Although	-4892
RA	-4893
▁dign	-4894
▁ment	-4895
▁uses	-4896
▁Mahab	-4897
▁Nature	-4898
▁processes	-4899
▁courage	-4900
nov	-4901
▁prime	-4902
▁equipment	-4903
▁description	-4904
ogue	-4905
▁yield	-4906
▁Va	-4907
▁cry	-4908
▁die	-4909
▁Press	-4910
▁principal	-4911
▁SH	-4912
gypt	-4913
iers	-4914
pret	-4915
▁marg	-4916
▁Society	-4917
▁absence	-4918
▁Ali	-4919
▁brain	-4920
lies	-4921
▁Self	-4922
▁lies	-4923
▁nine	-4924
▁defin	-4925
▁collabor	-4926
imb	-4927
▁pick	-4928
▁compar	-4929
▁joined	-4930
▁greatest	-4931
▁Bah	-4932
▁Emp	-4933
ricts	-4934
aced	-4935
isher	-4936
▁IP	-4937
▁Jaw	-4938
ested	-4939
▁star	-4940
▁resource	-4941
▁Chrom	-4942
▁users	-4943
hel	-4944
nam	-4945
▁offences	-4946
▁phase	-4947
urities	-4948
▁expert	-4949
ibilities	-4950
▁impris	-4951
▁notification	-4952
oved	-4953
▁union	-4954
▁honour	-4955
▁designed	-4956
ails	-4957
▁eleph	-4958
▁Commun	-4959
ifications	-4960
▁asp	-4961
▁apart	-4962
▁settlement	-4963
▁imprisonment	-4964
▁dia	-4965
▁spl	-4966
osure	-4967
▁Jammu	-4968
▁phone	-4969
▁store	-4970
▁becoming	-4971
▁manufacturing	-4972
▁Sun	-4973
▁helps	-4974
▁resist	-4975
▁weather	-4976
▁bringing	-4977
aste	-4978
▁thirty	-4979
eless	-4980
▁acid	-4981
▁coal	-4982
holders	-4983
▁impart	-4984
▁medicine	-4985
▁comprehens	-4986
odh	-4987
▁Egypt	-4988
▁Middle	-4989
▁cricket	-4990
▁monitor	-4991
▁amendment	-4992
▁Ev	-4993
aram	-4994
uous	-4995
▁disputes	-4996
▁wonder	-4997
▁emotion	-4998
▁reported	-4999
oral	-5000
▁survey	-5001
known	-5002
▁Life	-5003
ips	-5004
inent	-5005
▁gains	-5006
▁Orissa	-5007
▁Network	-5008
▁inaug	-5009
▁looks	-5010
outhern	-5011
▁fellow	-5012
▁translation	-5013
xy	-5014
ohn	-5015
▁Nan	-5016
▁habit	-5017
▁smaller	-5018
▁Nat	-5019
▁rob	-5020
apur	-5021
▁eld	-5022
▁scope	-5023
▁Limited	-5024
▁execution	-5025
cks	-5026
pat	-5027
achment	-5028
▁Before	-5029
▁Independence	-5030
▁priority	-5031
▁purchase	-5032
▁Ty	-5033
▁Sect	-5034
▁pending	-5035
▁restrict	-5036
▁efficient	-5037
▁SP	-5038
▁heat	-5039
▁Afghan	-5040
▁Training	-5041
▁behaviour	-5042
▁MS	-5043
▁hair	-5044
▁piece	-5045
▁afford	-5046
▁online	-5047
▁plaint	-5048
▁Ke	-5049
▁reflect	-5050
ESS	-5051
▁Sum	-5052
▁Mand	-5053
▁chance	-5054
▁evening	-5055
▁bul	-5056
▁actions	-5057
▁finance	-5058
▁Lt	-5059
▁Mother	-5060
▁possession	-5061
▁deals	-5062
▁Subhas	-5063
▁fertil	-5064
▁minutes	-5065
▁marketing	-5066
mer	-5067
▁spot	-5068
▁commitment	-5069
▁sam	-5070
hance	-5071
▁proceeding	-5072
▁irr	-5073
▁Women	-5074
▁format	-5075
▁signed	-5076
DU	-5077
▁Gra	-5078
astern	-5079
ruption	-5080
▁capable	-5081
▁recognised	-5082
hai	-5083
▁Ent	-5084
▁fed	-5085
▁rice	-5086
▁wise	-5087
▁battle	-5088
withstanding	-5089
▁Ext	-5090
▁Rad	-5091
▁festival	-5092
▁identified	-5093
▁simpl	-5094
▁Industrial	-5095
▁“%	-5096
▁Exp	-5097
▁crow	-5098
abinet	-5099
▁brief	-5100
▁straight	-5101
▁pip	-5102
▁Nadu	-5103
▁Rights	-5104
▁although	-5105
omin	-5106
▁Stud	-5107
▁filled	-5108
▁currency	-5109
▁implemented	-5110
▁Vir	-5111
▁commod	-5112
▁Gaz	-5113
▁kil	-5114
▁defe	-5115
▁solar	-5116
▁launch	-5117
▁rivers	-5118
▁appeared	-5119
▁scientists	-5120
anj	-5121
bon	-5122
rees	-5123
▁doesn	-5124
▁column	-5125
▁skills	-5126
▁portion	-5127
▁revenue	-5128
opy	-5129
▁See	-5130
▁arm	-5131
▁arising	-5132
lar	-5133
hara	-5134
ping	-5135
▁drive	-5136
▁Nations	-5137
Ind	-5138
oes	-5139
hand	-5140
▁Bin	-5141
▁calls	-5142
▁pointed	-5143
▁Univers	-5144
▁executive	-5145
▁rock	-5146
ranath	-5147
▁acquired	-5148
▁performed	-5149
▁password	-5150
▁platform	-5151
amin	-5152
▁alt	-5153
inger	-5154
▁aims	-5155
▁flowers	-5156
▁bilateral	-5157
hetic	-5158
▁Hyder	-5159
istrate	-5160
▁channel	-5161
UT	-5162
▁Av	-5163
inding	-5164
▁Divine	-5165
▁enforce	-5166
▁installed	-5167
amet	-5168
▁shared	-5169
▁branches	-5170
unch	-5171
▁000	-5172
▁AIR	-5173
▁Kab	-5174
▁trend	-5175
▁customer	-5176
▁announced	-5177
MS	-5178
cont	-5179
unicip	-5180
▁Affairs	-5181
▁contempt	-5182
▁friendship	-5183
▁commence	-5184
▁Fed	-5185
▁Hel	-5186
▁proof	-5187
▁felicit	-5188
▁withdraw	-5189
▁temperature	-5190
de	-5191
▁Jag	-5192
▁myst	-5193
▁Prom	-5194
▁discl	-5195
▁forth	-5196
▁distinct	-5197
▁Madras	-5198
▁billion	-5199
▁Security	-5200
▁manifest	-5201
RL	-5202
hus	-5203
ithm	-5204
osite	-5205
▁kinds	-5206
▁beings	-5207
▁stream	-5208
▁Business	-5209
▁formation	-5210
▁satisfied	-5211
SS	-5212
▁evil	-5213
▁council	-5214
▁initial	-5215
▁assigned	-5216
▁uns	-5217
roud	-5218
▁categ	-5219
▁dance	-5220
▁partner	-5221
▁Criminal	-5222
▁location	-5223
▁Ang	-5224
icted	-5225
▁Stat	-5226
▁Time	-5227
▁please	-5228
▁respective	-5229
ployment	-5230
▁initiative	-5231
▁lawy	-5232
▁organized	-5233
▁Related	-5234
▁western	-5235
▁mountain	-5236
▁organizations	-5237
ila	-5238
ffic	-5239
▁Like	-5240
▁oblig	-5241
▁Reserve	-5242
▁ap	-5243
▁killed	-5244
▁struct	-5245
▁environmental	-5246
ocal	-5247
▁zero	-5248
▁indig	-5249
▁mandap	-5250
▁seemed	-5251
▁severe	-5252
▁visited	-5253
▁compared	-5254
DA	-5255
iy	-5256
▁१	-5257
itage	-5258
▁simply	-5259
▁offices	-5260
▁interpret	-5261
▁foundation	-5262
esty	-5263
▁Sol	-5264
▁Rural	-5265
▁upper	-5266
ensions	-5267
▁reforms	-5268
cip	-5269
▁Bur	-5270
▁wants	-5271
▁delight	-5272
asant	-5273
▁runs	-5274
▁Micro	-5275
▁absor	-5276
▁colon	-5277
▁centuries	-5278
▁Count	-5279
▁Houses	-5280
▁extension	-5281
wan	-5282
▁marked	-5283
▁Israeli	-5284
▁eligible	-5285
▁ax	-5286
▁Sard	-5287
▁secure	-5288
▁Something	-5289
alg	-5290
▁Babu	-5291
▁John	-5292
▁cloth	-5293
▁poets	-5294
ulty	-5295
▁hop	-5296
▁Cert	-5297
▁Those	-5298
▁liquid	-5299
▁Province	-5300
▁category	-5301
▁immediate	-5302
▁thousands	-5303
▁represents	-5304
ossible	-5305
▁French	-5306
▁discussed	-5307
pto	-5308
atio	-5309
eties	-5310
stood	-5311
▁pert	-5312
▁girls	-5313
▁deliver	-5314
▁collected	-5315
▁Met	-5316
▁coast	-5317
▁exists	-5318
▁consumer	-5319
▁email	-5320
▁governments	-5321
▁narrow	-5322
▁Control	-5323
▁possess	-5324
▁improvement	-5325
▁;	-5326
▁pregn	-5327
rates	-5328
▁brid	-5329
▁loans	-5330
▁limits	-5331
▁mostly	-5332
▁train	-5333
▁distur	-5334
▁preced	-5335
back	-5336
▁Lal	-5337
▁cance	-5338
▁conce	-5339
▁tissue	-5340
▁equally	-5341
▁imposed	-5342
▁electricity	-5343
ears	-5344
oring	-5345
▁discharge	-5346
▁household	-5347
ena	-5348
iest	-5349
▁rid	-5350
▁tom	-5351
▁gram	-5352
▁height	-5353
▁communal	-5354
ux	-5355
oses	-5356
▁Hon	-5357
otton	-5358
▁career	-5359
▁advanced	-5360
▁instruments	-5361
EP	-5362
room	-5363
▁Ministers	-5364
▁cow	-5365
ammad	-5366
▁judiciary	-5367
▁properly	-5368
▁permission	-5369
):	-5370
▁Det	-5371
▁Food	-5372
▁remote	-5373
▁recognition	-5374
▁Pay	-5375
▁fell	-5376
clause	-5377
▁Jawah	-5378
▁Land	-5379
▁bott	-5380
▁sight	-5381
▁stands	-5382
▁employee	-5383
ladesh	-5384
unction	-5385
▁overall	-5386
▁containing	-5387
▁respondent	-5388
ansion	-5389
▁university	-5390
dess	-5391
▁bone	-5392
▁deleg	-5393
▁orient	-5394
▁enhance	-5395
▁figures	-5396
▁intended	-5397
▁lie	-5398
▁org	-5399
▁screen	-5400
▁sexual	-5401
▁movements	-5402
▁gar	-5403
▁vit	-5404
oples	-5405
▁band	-5406
▁equality	-5407
▁considerable	-5408
▁technologies	-5409
▁Tel	-5410
▁Brahm	-5411
▁Force	-5412
▁delib	-5413
▁raise	-5414
▁adjust	-5415
▁couple	-5416
▁depends	-5417
▁hyd	-5418
▁Data	-5419
▁blue	-5420
minent	-5421
▁Swami	-5422
▁seeking	-5423
▁ear	-5424
▁sick	-5425
▁Small	-5426
ulatory	-5427
▁prejud	-5428
▁counsel	-5429
▁supreme	-5430
▁welcome	-5431
▁griev	-5432
▁directed	-5433
▁initiated	-5434
▁undertaken	-5435
▁conference	-5436
PS	-5437
arya	-5438
oken	-5439
elled	-5440
▁guard	-5441
▁attrib	-5442
▁organised	-5443
▁personality	-5444
gen	-5445
▁folder	-5446
▁visible	-5447
▁composed	-5448
▁entirely	-5449
had	-5450
▁bird	-5451
▁none	-5452
▁transaction	-5453
▁Exec	-5454
▁Deputy	-5455
▁Hyderabad	-5456
▁framework	-5457
”,	-5458
arp	-5459
king	-5460
▁Select	-5461
▁amended	-5462
’,	-5463
▁ahead	-5464
▁fifty	-5465
▁claims	-5466
▁journal	-5467
otes	-5468
umber	-5469
▁agent	-5470
▁divid	-5471
▁employed	-5472
▁starting	-5473
▁extremely	-5474
UN	-5475
▁Dec	-5476
▁eggs	-5477
▁thank	-5478
▁exports	-5479
IF	-5480
edia	-5481
▁Ref	-5482
▁iron	-5483
▁Vishn	-5484
▁horse	-5485
▁multiple	-5486
▁liability	-5487
erce	-5488
hent	-5489
antic	-5490
idden	-5491
▁Book	-5492
▁phen	-5493
▁choose	-5494
▁Var	-5495
▁arms	-5496
▁interested	-5497
yl	-5498
anta	-5499
▁Pass	-5500
▁Enter	-5501
▁remed	-5502
ressive	-5503
▁hardly	-5504
▁districts	-5505
UL	-5506
ilm	-5507
akti	-5508
icon	-5509
▁Flag	-5510
▁hind	-5511
▁shop	-5512
▁feature	-5513
▁railway	-5514
▁vehicle	-5515
▁Mahabhar	-5516
▁customers	-5517
shi	-5518
▁Ban	-5519
▁Vice	-5520
▁Amendment	-5521
▁outstanding	-5522
agh	-5523
aur	-5524
ica	-5525
▁Failed	-5526
▁opposition	-5527
▁organisations	-5528
ien	-5529
▁dog	-5530
▁sin	-5531
▁Urdu	-5532
▁incur	-5533
▁directions	-5534
▁Palestinian	-5535
mn	-5536
ota	-5537
▁URL	-5538
▁rent	-5539
▁sweet	-5540
▁regulations	-5541
OC	-5542
luded	-5543
▁Know	-5544
▁Hence	-5545
,—	-5546
ette	-5547
▁awarded	-5548
▁Principal	-5549
▁sacrifice	-5550
▁Process	-5551
▁markets	-5552
▁unw	-5553
hered	-5554
▁minds	-5555
▁prose	-5556
▁config	-5557
▁offers	-5558
▁creative	-5559
asi	-5560
▁roll	-5561
abet	-5562
▁Bangladesh	-5563
eds	-5564
plom	-5565
arlal	-5566
▁Back	-5567
▁Award	-5568
▁quickly	-5569
aces	-5570
organ	-5571
▁cave	-5572
▁dynam	-5573
▁happens	-5574
▁comprehensive	-5575
▁Tri	-5576
othes	-5577
▁audit	-5578
▁track	-5579
▁closed	-5580
▁myself	-5581
▁Panchay	-5582
▁examples	-5583
▁il	-5584
alam	-5585
▁disk	-5586
▁prove	-5587
▁enabled	-5588
▁Scheduled	-5589
ker	-5590
▁mel	-5591
▁blind	-5592
▁stamp	-5593
oration	-5594
ourses	-5595
▁budget	-5596
▁procedures	-5597
▁instructions	-5598
alle	-5599
anging	-5600
▁Mount	-5601
ications	-5602
▁du	-5603
umin	-5604
▁Maj	-5605
▁Fort	-5606
▁continues	-5607
▁Az	-5608
fall	-5609
▁upg	-5610
▁Good	-5611
▁playing	-5612
▁informed	-5613
RE	-5614
▁Joint	-5615
▁deeply	-5616
▁tea	-5617
▁obtain	-5618
▁Eastern	-5619
▁felicitations	-5620
▁alle	-5621
▁conven	-5622
uable	-5623
▁pret	-5624
▁thoughts	-5625
uli	-5626
▁SE	-5627
▁Ltd	-5628
▁Move	-5629
▁fourth	-5630
▁competent	-5631
▁kill	-5632
▁surg	-5633
▁witnesses	-5634
▁Legislature	-5635
atab	-5636
▁rit	-5637
anish	-5638
▁diet	-5639
▁demands	-5640
▁AD	-5641
▁race	-5642
▁involve	-5643
▁mechanism	-5644
▁proportion	-5645
▁Agriculture	-5646
emb	-5647
useum	-5648
▁Trade	-5649
▁everyone	-5650
pet	-5651
ruits	-5652
▁skill	-5653
rut	-5654
going	-5655
▁admitted	-5656
▁impossible	-5657
ny	-5658
▁Gan	-5659
▁arbitration	-5660
▁Lo	-5661
endra	-5662
▁radio	-5663
▁liable	-5664
▁liberal	-5665
▁arrangement	-5666
asw	-5667
enous	-5668
▁jail	-5669
urally	-5670
▁sacred	-5671
▁objects	-5672
▁imperial	-5673
▁investig	-5674
▁belonging	-5675
▁prosecution	-5676
izes	-5677
ingly	-5678
▁drama	-5679
▁Awards	-5680
▁slight	-5681
▁Address	-5682
▁grounds	-5683
operative	-5684
▁alternative	-5685
▁ves	-5686
▁Engine	-5687
▁arrived	-5688
▁respectively	-5689
▁contributions	-5690
top	-5691
▁Sen	-5692
▁bright	-5693
▁Germany	-5694
ST	-5695
▁labor	-5696
▁describ	-5697
▁addressed	-5698
▁promoting	-5699
asad	-5700
▁Bir	-5701
CE	-5702
tes	-5703
▁Allah	-5704
▁explained	-5705
▁religions	-5706
▁requirement	-5707
▁Great	-5708
▁proud	-5709
▁understood	-5710
▁substantial	-5711
▁distinguished	-5712
▁FOR	-5713
gments	-5714
▁steel	-5715
▁Economic	-5716
HER	-5717
▁doll	-5718
▁discrim	-5719
▁appearance	-5720
▁facilitate	-5721
opal	-5722
▁cra	-5723
▁Laksh	-5724
raction	-5725
▁Exchange	-5726
▁estimated	-5727
nan	-5728
▁ec	-5729
▁Chait	-5730
▁conclusion	-5731
▁availability	-5732
orge	-5733
▁Web	-5734
▁span	-5735
▁theme	-5736
▁toler	-5737
▁kn	-5738
inction	-5739
kata	-5740
oles	-5741
osen	-5742
▁Army	-5743
▁happiness	-5744
▁guidelines	-5745
norm	-5746
▁Cre	-5747
▁exped	-5748
▁anyone	-5749
▁Assistant	-5750
▁efficiency	-5751
eer	-5752
▁speaking	-5753
▁differences	-5754
▁Parliamentary	-5755
▁fix	-5756
▁ren	-5757
▁core	-5758
▁cris	-5759
▁desert	-5760
▁transp	-5761
▁Protection	-5762
▁consumption	-5763
AME	-5764
▁enacted	-5765
▁compound	-5766
ss	-5767
usal	-5768
encing	-5769
▁acknow	-5770
▁effectively	-5771
▁transactions	-5772
▁La	-5773
rosy	-5774
while	-5775
▁sympt	-5776
▁acting	-5777
▁apparent	-5778
▁personnel	-5779
▁entrepreneurs	-5780
gent	-5781
▁pages	-5782
▁permit	-5783
▁legislative	-5784
▁commencement	-5785
▁Assessing	-5786
▁Similarly	-5787
▁dedicated	-5788
▁statutory	-5789
ola	-5790
▁peoples	-5791
▁definite	-5792
▁allowance	-5793
cend	-5794
▁lev	-5795
▁plans	-5796
▁masses	-5797
▁Institut	-5798
▁Committees	-5799
agers	-5800
▁selection	-5801
▁constitute	-5802
▁spect	-5803
asty	-5804
elve	-5805
▁Rab	-5806
▁determination	-5807
▁Dal	-5808
▁lose	-5809
ashing	-5810
▁Vishnu	-5811
▁arrested	-5812
▁intention	-5813
",	-5814
.“	-5815
For	-5816
▁Cal	-5817
▁hit	-5818
ensity	-5819
▁knows	-5820
▁tools	-5821
▁Sardar	-5822
▁showed	-5823
riages	-5824
▁Order	-5825
▁consent	-5826
▁showing	-5827
▁detailed	-5828
uru	-5829
ureau	-5830
▁renew	-5831
▁definition	-5832
anath	-5833
▁Chen	-5834
▁flat	-5835
▁motor	-5836
▁spite	-5837
▁Territ	-5838
▁ritual	-5839
▁lif	-5840
asters	-5841
▁dismiss	-5842
▁improving	-5843
▁intelligence	-5844
owed	-5845
▁Yes	-5846
▁pul	-5847
▁Persian	-5848
▁covering	-5849
▁improved	-5850
▁Buddha	-5851
▁suffer	-5852
▁quantity	-5853
iliar	-5854
▁eval	-5855
ciation	-5856
▁remaining	-5857
utt	-5858
▁elim	-5859
▁Pandit	-5860
▁murder	-5861
▁finding	-5862
oman	-5863
onym	-5864
▁Top	-5865
▁vig	-5866
▁Wind	-5867
▁sequ	-5868
unately	-5869
▁Madhya	-5870
▁center	-5871
▁propag	-5872
▁uniform	-5873
▁recognized	-5874
▁Application	-5875
OP	-5876
▁Rule	-5877
▁Saty	-5878
▁libert	-5879
▁traffic	-5880
▁repeated	-5881
▁infection	-5882
rum	-5883
▁raw	-5884
▁leaving	-5885
▁plaintiff	-5886
inese	-5887
▁rend	-5888
▁alleg	-5889
▁enemy	-5890
▁floor	-5891
ooth	-5892
▁Laws	-5893
inating	-5894
▁inquiry	-5895
▁kingdom	-5896
▁victims	-5897
▁evolution	-5898
▁Jawaharlal	-5899
▁Conf	-5900
▁baby	-5901
inance	-5902
▁Gupta	-5903
▁Change	-5904
▁Common	-5905
▁convention	-5906
▁representative	-5907
cles	-5908
▁tim	-5909
▁writers	-5910
▁certainly	-5911
▁Speaking	-5912
▁difficulty	-5913
▁Road	-5914
▁fees	-5915
▁unable	-5916
▁humanity	-5917
▁Turk	-5918
▁render	-5919
hibition	-5920
MP	-5921
ATE	-5922
uddin	-5923
▁thor	-5924
▁Banks	-5925
▁derived	-5926
▁phenomen	-5927
▁Afghanistan	-5928
sue	-5929
uni	-5930
house	-5931
▁pound	-5932
▁double	-5933
OT	-5934
uran	-5935
▁Democ	-5936
▁seeds	-5937
▁Medical	-5938
▁corporate	-5939
१२	-5940
rity	-5941
▁Bra	-5942
▁DNA	-5943
▁lik	-5944
active	-5945
▁Priv	-5946
▁drop	-5947
▁complic	-5948
▁Industry	-5949
▁solid	-5950
▁Comput	-5951
▁Capital	-5952
xic	-5953
▁rub	-5954
estion	-5955
▁chapter	-5956
▁college	-5957
▁settled	-5958
▁guidance	-5959
▁telephone	-5960
ilty	-5961
▁Mult	-5962
▁legs	-5963
assion	-5964
▁stead	-5965
▁arrang	-5966
▁regarded	-5967
▁practical	-5968
▁fib	-5969
rafts	-5970
▁About	-5971
unk	-5972
▁Bu	-5973
ader	-5974
riya	-5975
▁flag	-5976
▁Credit	-5977
▁contemporary	-5978
▁string	-5979
▁strategy	-5980
▁-,	-5981
▁accom	-5982
▁papers	-5983
▁heritage	-5984
▁terrorist	-5985
▁sustainable	-5986
orous	-5987
▁lect	-5988
▁Brahmin	-5989
oom	-5990
▁alg	-5991
▁era	-5992
▁injury	-5993
▁difficulties	-5994
arh	-5995
▁sad	-5996
icians	-5997
▁housing	-5998
▁Ja	-5999
iger	-6000
▁Gold	-6001
▁frame	-6002
▁links	-6003
▁reply	-6004
▁walls	-6005
▁occurs	-6006
▁Through	-6007
▁Regional	-6008
▁accompan	-6009
▁normally	-6010
▁Convention	-6011
mi	-6012
END	-6013
▁hom	-6014
▁ratio	-6015
▁stages	-6016
unicipal	-6017
▁manager	-6018
tery	-6019
ommod	-6020
▁tomorrow	-6021
▁El	-6022
▁hill	-6023
▁outer	-6024
▁yourself	-6025
▁successfully	-6026
ifies	-6027
▁York	-6028
▁garden	-6029
rem	-6030
icide	-6031
▁Name	-6032
▁cool	-6033
▁immense	-6034
▁expansion	-6035
▁consultation	-6036
roc	-6037
garh	-6038
oned	-6039
aniel	-6040
▁bact	-6041
▁upto	-6042
ananda	-6043
ivered	-6044
▁Binoy	-6045
▁forget	-6046
▁illust	-6047
▁'.	-6048
▁bh	-6049
▁bag	-6050
▁mos	-6051
▁filing	-6052
▁pension	-6053
▁tot	-6054
▁Tele	-6055
▁layer	-6056
oresaid	-6057
▁debate	-6058
▁disposal	-6059
▁investors	-6060
enn	-6061
▁Ms	-6062
aren	-6063
load	-6064
▁blow	-6065
▁holds	-6066
▁crisis	-6067
▁sister	-6068
▁vessel	-6069
▁meetings	-6070
▁integrated	-6071
▁forests	-6072
▁indirect	-6073
▁computing	-6074
▁electronic	-6075
ERS	-6076
udh	-6077
▁Nor	-6078
▁cust	-6079
▁fill	-6080
▁owner	-6081
▁owners	-6082
▁Chinese	-6083
▁attacks	-6084
▁superior	-6085
▁permitted	-6086
▁productivity	-6087
yal	-6088
ailing	-6089
▁strike	-6090
▁settings	-6091
▁aforesaid	-6092
▁File	-6093
mental	-6094
rating	-6095
▁flood	-6096
▁remind	-6097
▁widely	-6098
▁Children	-6099
▁emergency	-6100
IP	-6101
▁ego	-6102
isted	-6103
▁Innov	-6104
▁talking	-6105
▁trouble	-6106
▁inspired	-6107
▁determine	-6108
▁celebrated	-6109
egu	-6110
aneous	-6111
▁trading	-6112
mentation	-6113
▁discipline	-6114
van	-6115
▁chrom	-6116
▁League	-6117
▁writings	-6118
▁Chaitanya	-6119
▁competition	-6120
oz	-6121
mation	-6122
▁deposits	-6123
▁Sk	-6124
▁syn	-6125
inity	-6126
retion	-6127
▁armed	-6128
▁usual	-6129
▁trained	-6130
▁Cr	-6131
lude	-6132
▁guide	-6133
▁Russia	-6134
▁negoti	-6135
▁enterprise	-6136
grim	-6137
▁scen	-6138
▁dealt	-6139
▁Academ	-6140
▁border	-6141
▁Marriage	-6142
▁contribute	-6143
▁representatives	-6144
venth	-6145
▁roads	-6146
▁thick	-6147
▁taught	-6148
▁investments	-6149
,'	-6150
ulpt	-6151
▁fuel	-6152
▁accompl	-6153
▁accurate	-6154
▁messages	-6155
TI	-6156
mony	-6157
▁tro	-6158
▁illeg	-6159
▁quiet	-6160
▁involving	-6161
▁sky	-6162
▁Ambed	-6163
▁chain	-6164
▁finds	-6165
nergy	-6166
▁compuls	-6167
▁millions	-6168
▁arrangements	-6169
ugg	-6170
▁pu	-6171
▁cart	-6172
▁Class	-6173
thening	-6174
▁submit	-6175
▁controlled	-6176
▁remarkable	-6177
och	-6178
qual	-6179
▁shel	-6180
▁Ambedkar	-6181
▁irrigation	-6182
CO	-6183
▁bomb	-6184
▁Trust	-6185
▁brings	-6186
▁Companies	-6187
▁transmission	-6188
wal	-6189
▁viz	-6190
lation	-6191
▁Asian	-6192
▁harmony	-6193
▁director	-6194
▁voluntary	-6195
yas	-6196
▁Wik	-6197
▁Yet	-6198
▁nerv	-6199
▁fruits	-6200
▁twelve	-6201
▁neighbour	-6202
obe	-6203
hips	-6204
▁broken	-6205
▁educated	-6206
▁soldiers	-6207
ician	-6208
▁innoc	-6209
Laughter	-6210
▁emphasis	-6211
▁recovery	-6212
▁acquisition	-6213
▁Free	-6214
▁Gram	-6215
▁Vidy	-6216
agraph	-6217
▁chair	-6218
▁chosen	-6219
▁gather	-6220
▁Australia	-6221
lets	-6222
▁Ele	-6223
▁cos	-6224
▁delivered	-6225
DP	-6226
anka	-6227
▁Tir	-6228
etary	-6229
.%	-6230
care	-6231
▁grew	-6232
▁Being	-6233
▁wound	-6234
▁begins	-6235
▁founded	-6236
▁contrary	-6237
▁NAB	-6238
▁Earth	-6239
▁patri	-6240
▁evident	-6241
▁subsequent	-6242
▁destruction	-6243
▁clar	-6244
▁pit	-6245
uality	-6246
▁herself	-6247
▁conviction	-6248
oser	-6249
atics	-6250
▁ends	-6251
▁park	-6252
▁scene	-6253
▁Appell	-6254
▁Mughal	-6255
▁universe	-6256
IG	-6257
▁ocean	-6258
▁Kolkata	-6259
▁southern	-6260
▁discussions	-6261
ibly	-6262
▁Text	-6263
▁fasc	-6264
▁ignor	-6265
▁socio	-6266
▁Import	-6267
▁burden	-6268
▁refused	-6269
▁Executive	-6270
▁departments	-6271
uity	-6272
▁kid	-6273
▁bail	-6274
ronics	-6275
▁envis	-6276
▁leads	-6277
▁Prasad	-6278
▁identify	-6279
ographical	-6280
▁solutions	-6281
▁significance	-6282
AGE	-6283
rin	-6284
asks	-6285
mits	-6286
▁Vol	-6287
ients	-6288
▁depth	-6289
▁tribal	-6290
aut	-6291
▁abol	-6292
▁para	-6293
▁partition	-6294
▁resulting	-6295
▁possibility	-6296
ream	-6297
▁guilty	-6298
inations	-6299
wh	-6300
comm	-6301
▁Rev	-6302
uting	-6303
▁hall	-6304
▁Apart	-6305
▁Start	-6306
▁consisting	-6307
▁continuous	-6308
urse	-6309
▁Acts	-6310
▁City	-6311
▁Writ	-6312
▁goals	-6313
▁sculpt	-6314
▁Registration	-6315
inn	-6316
▁Pad	-6317
raint	-6318
▁Ahmed	-6319
▁divide	-6320
▁appellant	-6321
well	-6322
inces	-6323
▁empt	-6324
▁starts	-6325
ifically	-6326
▁acceptance	-6327
mp	-6328
idi	-6329
▁ji	-6330
▁Kir	-6331
▁crores	-6332
▁convert	-6333
▁assembly	-6334
▁reaction	-6335
▁valuable	-6336
▁temporary	-6337
▁Po	-6338
arsh	-6339
isdom	-6340
▁aggreg	-6341
▁equity	-6342
▁recall	-6343
▁willing	-6344
iti	-6345
▁stake	-6346
▁Annual	-6347
▁constitu	-6348
▁Year	-6349
▁verse	-6350
▁linked	-6351
▁safegu	-6352
▁waiting	-6353
▁argument	-6354
▁chargeable	-6355
zz	-6356
rier	-6357
▁Bet	-6358
eting	-6359
herent	-6360
▁prote	-6361
▁authent	-6362
▁claimed	-6363
▁thereby	-6364
▁buildings	-6365
▁PC	-6366
DUCT	-6367
alore	-6368
▁Vedic	-6369
▁NABARD	-6370
▁Comment	-6371
▁accommod	-6372
osit	-6373
rival	-6374
▁adapt	-6375
▁France	-6376
▁Britain	-6377
▁Himachal	-6378
▁numerous	-6379
rie	-6380
orks	-6381
▁Ary	-6382
▁unb	-6383
▁Raja	-6384
▁boys	-6385
▁roof	-6386
▁paras	-6387
▁approx	-6388
▁breast	-6389
▁amounts	-6390
▁explain	-6391
▁suddenly	-6392
▁specially	-6393
araj	-6394
allel	-6395
▁bats	-6396
▁forg	-6397
▁Advoc	-6398
▁spoke	-6399
utation	-6400
▁rulers	-6401
writ	-6402
▁Muh	-6403
▁gods	-6404
▁Later	-6405
▁sanct	-6406
▁gradually	-6407
▁components	-6408
ga	-6409
peror	-6410
▁prompt	-6411
▁stress	-6412
▁comfort	-6413
▁criticism	-6414
▁Magistrate	-6415
ima	-6416
▁AS	-6417
▁coc	-6418
▁satisfaction	-6419
▁neck	-6420
▁poetic	-6421
▁largely	-6422
▁familiar	-6423
▁excellence	-6424
▁wa	-6425
▁poly	-6426
▁flower	-6427
▁essentially	-6428
".	-6429
▁Far	-6430
▁Lah	-6431
▁pig	-6432
▁exch	-6433
▁diplom	-6434
▁verses	-6435
▁advised	-6436
▁qualities	-6437
▁categories	-6438
▁accordingly	-6439
plate	-6440
▁Head	-6441
▁proc	-6442
▁subt	-6443
▁weapons	-6444
▁ensuring	-6445
▁newspaper	-6446
▁securities	-6447
▁Jay	-6448
▁click	-6449
▁sales	-6450
▁Kingdom	-6451
▁faculty	-6452
▁infinite	-6453
▁authorised	-6454
atar	-6455
▁hur	-6456
▁nurs	-6457
▁Chrome	-6458
▁bottom	-6459
▁seeing	-6460
▁strict	-6461
▁waters	-6462
▁conferred	-6463
▁forwarded	-6464
▁producing	-6465
▁Autom	-6466
▁attain	-6467
PRO	-6468
gra	-6469
his	-6470
▁tub	-6471
▁Sita	-6472
▁vary	-6473
ords	-6474
▁III	-6475
▁dust	-6476
▁Integ	-6477
▁images	-6478
▁wholly	-6479
▁devices	-6480
▁suffered	-6481
▁symptoms	-6482
eff	-6483
▁Sik	-6484
iques	-6485
urved	-6486
▁prepare	-6487
▁amendments	-6488
▁participate	-6489
▁introduction	-6490
▁Jh	-6491
▁arg	-6492
▁cas	-6493
▁edge	-6494
▁Enable	-6495
▁replace	-6496
▁encouraged	-6497
▁accompanied	-6498
▁Ara	-6499
▁Kam	-6500
ullah	-6501
▁solve	-6502
aration	-6503
▁cotton	-6504
▁Support	-6505
▁proposals	-6506
▁achievement	-6507
wa	-6508
amy	-6509
▁Shiv	-6510
atabase	-6511
▁carefully	-6512
▁”“	-6513
atre	-6514
ander	-6515
ensus	-6516
▁vote	-6517
▁spend	-6518
▁drinking	-6519
▁incorpor	-6520
▁component	-6521
▁representation	-6522
▁Paper	-6523
▁react	-6524
▁concerns	-6525
▁conqu	-6526
▁Master	-6527
▁decade	-6528
▁defect	-6529
▁street	-6530
▁examine	-6531
▁feelings	-6532
▁Term	-6533
▁tong	-6534
actory	-6535
akrish	-6536
▁audio	-6537
▁throw	-6538
▁poison	-6539
▁reader	-6540
▁digital	-6541
▁employer	-6542
▁Universities	-6543
▁Id	-6544
▁hat	-6545
▁salt	-6546
▁Nagar	-6547
▁Super	-6548
▁exactly	-6549
▁consequences	-6550
achi	-6551
▁allot	-6552
▁mandapa	-6553
ema	-6554
▁anx	-6555
▁thr	-6556
▁seats	-6557
▁northern	-6558
▁opposite	-6559
▁currently	-6560
iso	-6561
▁alc	-6562
▁Turkey	-6563
▁directory	-6564
life	-6565
▁Due	-6566
▁Shi	-6567
ranch	-6568
▁gall	-6569
▁node	-6570
▁deriv	-6571
▁invited	-6572
▁inserted	-6573
▁architecture	-6574
▁parliamentary	-6575
son	-6576
▁Unit	-6577
▁cycle	-6578
▁hence	-6579
▁abnorm	-6580
▁advert	-6581
▁update	-6582
▁stopped	-6583
▁Taj	-6584
▁Gora	-6585
▁Export	-6586
▁Bharati	-6587
▁Cabinet	-6588
▁eastern	-6589
oli	-6590
▁kg	-6591
▁ow	-6592
▁Key	-6593
auses	-6594
▁Legal	-6595
▁adopt	-6596
▁deter	-6597
▁incurred	-6598
▁patients	-6599
ilal	-6600
▁prince	-6601
▁deceased	-6602
▁excellent	-6603
▁litigation	-6604
VE	-6605
rane	-6606
▁pec	-6607
eries	-6608
▁Soft	-6609
▁brows	-6610
▁tender	-6611
▁conversion	-6612
▁UK	-6613
olic	-6614
▁violent	-6615
▁traditions	-6616
FC	-6617
anga	-6618
▁tab	-6619
ushed	-6620
▁myth	-6621
▁panel	-6622
▁Labour	-6623
▁Officers	-6624
▁confined	-6625
▁Sometimes	-6626
▁distributed	-6627
▁mah	-6628
▁tank	-6629
▁advis	-6630
▁corner	-6631
radation	-6632
▁passeng	-6633
▁pilgrim	-6634
▁involves	-6635
It	-6636
▁Disc	-6637
▁Mohan	-6638
▁teeth	-6639
▁customs	-6640
▁dignity	-6641
▁followers	-6642
▁prominent	-6643
▁suggestion	-6644
▁gland	-6645
▁sorrow	-6646
▁despite	-6647
▁empower	-6648
▁illness	-6649
▁elephant	-6650
ache	-6651
bing	-6652
itud	-6653
arita	-6654
entle	-6655
rovers	-6656
▁arise	-6657
▁appeals	-6658
ald	-6659
▁rom	-6660
▁Last	-6661
▁nutrit	-6662
▁tourism	-6663
▁Max	-6664
▁MSME	-6665
irement	-6666
▁equival	-6667
▁unknown	-6668
mic	-6669
oram	-6670
▁Lat	-6671
icket	-6672
▁fever	-6673
▁owned	-6674
▁allows	-6675
▁represented	-6676
▁Copy	-6677
▁News	-6678
othing	-6679
▁White	-6680
▁Custom	-6681
▁atomic	-6682
▁intest	-6683
▁innovative	-6684
▁distinction	-6685
▁NAME	-6686
▁abst	-6687
▁holy	-6688
▁gross	-6689
habilit	-6690
▁Cle	-6691
▁trem	-6692
▁Found	-6693
▁Liter	-6694
▁faced	-6695
▁pieces	-6696
▁commonly	-6697
▁Ha	-6698
▁mig	-6699
▁Gree	-6700
▁lady	-6701
▁mixed	-6702
chandra	-6703
▁George	-6704
▁quarter	-6705
▁studied	-6706
▁victory	-6707
▁Ramayana	-6708
▁applicant	-6709
▁experiment	-6710
▁combination	-6711
▁civilization	-6712
▁(%	-6713
nity	-6714
▁Lep	-6715
▁Sav	-6716
▁meat	-6717
▁Having	-6718
▁shaped	-6719
▁yellow	-6720
▁courses	-6721
▁rejected	-6722
▁candidates	-6723
ham	-6724
▁AP	-6725
orter	-6726
▁resign	-6727
▁entrust	-6728
▁occurred	-6729
१३	-6730
NAME	-6731
▁Mor	-6732
▁Allow	-6733
▁Shiva	-6734
▁cancer	-6735
▁causing	-6736
▁discover	-6737
▁fighting	-6738
▁interpretation	-6739
▁recommendation	-6740
ixt	-6741
▁ID	-6742
▁decre	-6743
▁Appellate	-6744
▁Industries	-6745
iri	-6746
ayas	-6747
▁Eff	-6748
▁pup	-6749
▁bath	-6750
▁falls	-6751
▁sheet	-6752
▁rising	-6753
▁Hinduism	-6754
▁internet	-6755
▁dependent	-6756
▁transformation	-6757
▁airc	-6758
▁isol	-6759
▁wear	-6760
iously	-6761
▁signs	-6762
▁fifteen	-6763
▁greatly	-6764
▁harvest	-6765
▁childhood	-6766
▁mountains	-6767
▁secondary	-6768
▁hills	-6769
▁pipes	-6770
▁eternal	-6771
▁passion	-6772
▁secular	-6773
▁notified	-6774
▁emotional	-6775
▁contributed	-6776
husi	-6777
▁convin	-6778
▁escape	-6779
▁facing	-6780
▁sports	-6781
▁managed	-6782
▁Islamist	-6783
▁indicate	-6784
▁consumers	-6785
▁diversity	-6786
▁automatically	-6787
jan	-6788
ught	-6789
▁ties	-6790
arathi	-6791
ificial	-6792
▁entity	-6793
▁technique	-6794
▁achievements	-6795
Is	-6796
▁Dw	-6797
algam	-6798
▁Verm	-6799
▁symp	-6800
▁truly	-6801
▁signal	-6802
▁wisdom	-6803
▁maintaining	-6804
AND	-6805
ktop	-6806
▁hyp	-6807
esterday	-6808
▁examined	-6809
▁receiving	-6810
▁technological	-6811
iam	-6812
▁Tal	-6813
▁Oper	-6814
▁stim	-6815
uction	-6816
▁manage	-6817
▁palace	-6818
▁sovere	-6819
▁Cult	-6820
▁Rest	-6821
▁grat	-6822
▁aimed	-6823
▁older	-6824
istries	-6825
▁Working	-6826
▁compassion	-6827
▁vegetables	-6828
nai	-6829
▁fr	-6830
hibit	-6831
▁raising	-6832
▁fertiliz	-6833
▁converted	-6834
▁Administrative	-6835
rd	-6836
ICE	-6837
ria	-6838
▁Alm	-6839
▁dro	-6840
endar	-6841
plete	-6842
▁tube	-6843
missible	-6844
▁affection	-6845
▁operative	-6846
▁strategic	-6847
▁strengthening	-6848
OM	-6849
off	-6850
ums	-6851
▁IC	-6852
itra	-6853
▁Equ	-6854
▁ring	-6855
▁Number	-6856
▁resort	-6857
▁ran	-6858
amber	-6859
▁seat	-6860
▁minute	-6861
Am	-6862
▁ram	-6863
▁Energy	-6864
▁diverse	-6865
▁preparation	-6866
orders	-6867
▁Bench	-6868
▁Thank	-6869
▁fault	-6870
▁asking	-6871
▁liberty	-6872
▁radical	-6873
▁External	-6874
▁eve	-6875
▁accum	-6876
▁clust	-6877
▁Empire	-6878
▁stored	-6879
▁enthusi	-6880
▁realised	-6881
▁statements	-6882
St	-6883
▁Money	-6884
▁desired	-6885
▁experts	-6886
▁Election	-6887
▁Interest	-6888
▁declaration	-6889
rain	-6890
roph	-6891
ollow	-6892
▁Sant	-6893
▁glass	-6894
▁route	-6895
▁guarantee	-6896
▁Governance	-6897
▁influenced	-6898
▁developments	-6899
ded	-6900
just	-6901
leum	-6902
▁Chh	-6903
icity	-6904
▁jobs	-6905
▁Vaishn	-6906
▁domain	-6907
celer	-6908
iable	-6909
▁Chat	-6910
▁antic	-6911
▁saved	-6912
▁German	-6913
▁bridge	-6914
▁applies	-6915
▁printed	-6916
roduction	-6917
▁instruction	-6918
da	-6919
pad	-6920
▁avo	-6921
▁Main	-6922
▁index	-6923
▁closely	-6924
▁multipl	-6925
▁Maharaja	-6926
▁backward	-6927
▁dangerous	-6928
acc	-6929
▁Dom	-6930
▁mad	-6931
▁repeal	-6932
▁brothers	-6933
▁subscribe	-6934
▁Mahabharata	-6935
rar	-6936
▁Dar	-6937
▁bull	-6938
▁sons	-6939
▁ended	-6940
▁learnt	-6941
▁tourist	-6942
▁disabled	-6943
▁structures	-6944
UM	-6945
▁''	-6946
umes	-6947
erved	-6948
▁Online	-6949
iculture	-6950
▁Knowledge	-6951
▁Aj	-6952
oked	-6953
utor	-6954
▁hun	-6955
▁tort	-6956
erning	-6957
▁pride	-6958
▁Railway	-6959
We	-6960
ulf	-6961
▁Lad	-6962
▁beat	-6963
▁inev	-6964
▁oral	-6965
▁aside	-6966
▁cheque	-6967
▁therein	-6968
▁supposed	-6969
▁cultivation	-6970
ding	-6971
▁rig	-6972
▁Gita	-6973
▁Siva	-6974
▁fluid	-6975
▁utter	-6976
▁adverse	-6977
▁planned	-6978
▁defendant	-6979
asy	-6980
aria	-6981
▁Fac	-6982
▁Ord	-6983
essed	-6984
▁gift	-6985
▁Benef	-6986
▁algor	-6987
▁seeks	-6988
▁Muhammad	-6989
▁Agricultural	-6990
urer	-6991
▁Note	-6992
▁dress	-6993
▁listed	-6994
▁Marathi	-6995
▁strange	-6996
▁resulted	-6997
▁naturally	-6998
▁obligation	-6999
TH	-7000
▁vul	-7001
▁Durg	-7002
▁Farm	-7003
▁diagn	-7004
▁inval	-7005
▁rough	-7006
▁carbon	-7007
▁passage	-7008
▁proviso	-7009
▁enterprises	-7010
On	-7011
ogen	-7012
▁rhy	-7013
▁Hari	-7014
aryana	-7015
▁Green	-7016
▁marks	-7017
▁elabor	-7018
▁options	-7019
▁happening	-7020
▁primarily	-7021
▁privilege	-7022
hend	-7023
itals	-7024
ulous	-7025
▁Lanka	-7026
▁bills	-7027
▁incent	-7028
▁salary	-7029
▁eminent	-7030
▁ceremony	-7031
▁ministers	-7032
▁controvers	-7033
rm	-7034
lin	-7035
▁BY	-7036
ster	-7037
▁Sud	-7038
▁Vij	-7039
▁flex	-7040
▁genu	-7041
▁forty	-7042
▁noise	-7043
duction	-7044
reement	-7045
▁visual	-7046
▁concess	-7047
▁institutional	-7048
▁ly	-7049
▁od	-7050
▁Mur	-7051
▁Arch	-7052
ferent	-7053
▁shrine	-7054
▁experiences	-7055
▁Notwithstanding	-7056
ohan	-7057
▁asc	-7058
antly	-7059
▁burn	-7060
▁clim	-7061
▁Again	-7062
iversary	-7063
▁opposed	-7064
▁testing	-7065
▁whereas	-7066
▁completion	-7067
▁pertaining	-7068
UD	-7069
uv	-7070
nex	-7071
bles	-7072
otal	-7073
▁Fam	-7074
▁suppl	-7075
▁condem	-7076
▁expiry	-7077
▁drawing	-7078
▁reduction	-7079
▁percentage	-7080
▁suggestions	-7081
ls	-7082
exp	-7083
obile	-7084
▁prol	-7085
▁tail	-7086
▁Gazette	-7087
▁emerged	-7088
▁operate	-7089
▁sharing	-7090
▁pictures	-7091
▁computers	-7092
▁Test	-7093
▁Tour	-7094
▁embra	-7095
▁surre	-7096
▁twice	-7097
▁Indira	-7098
▁servant	-7099
▁attended	-7100
▁discovered	-7101
▁revolutionary	-7102
UK	-7103
agon	-7104
▁nav	-7105
works	-7106
ourable	-7107
▁Arabic	-7108
▁programs	-7109
▁prospect	-7110
▁regularly	-7111
▁stuff	-7112
▁novels	-7113
aneously	-7114
▁goddess	-7115
▁situations	-7116
zy	-7117
▁Nath	-7118
▁load	-7119
▁pull	-7120
▁shif	-7121
▁analy	-7122
▁towns	-7123
▁Search	-7124
▁cattle	-7125
▁caught	-7126
▁covers	-7127
▁clothes	-7128
▁properties	-7129
▁progressive	-7130
za	-7131
▁sets	-7132
▁vent	-7133
▁Anand	-7134
▁forced	-7135
▁spoken	-7136
▁custody	-7137
including	-7138
▁emerging	-7139
▁thereafter	-7140
▁Sov	-7141
▁Look	-7142
▁lamp	-7143
▁scar	-7144
▁unre	-7145
roleum	-7146
▁Times	-7147
▁regime	-7148
▁realise	-7149
▁totally	-7150
▁destination	-7151
irs	-7152
usp	-7153
▁CD	-7154
illa	-7155
▁Four	-7156
▁coord	-7157
▁venture	-7158
▁rendered	-7159
▁techniques	-7160
EECH	-7161
▁unn	-7162
▁vim	-7163
ipped	-7164
semin	-7165
▁pron	-7166
▁rect	-7167
▁decor	-7168
▁SPEECH	-7169
▁earned	-7170
▁framed	-7171
▁fulfil	-7172
▁Buddhist	-7173
▁societies	-7174
▁monitoring	-7175
arer	-7176
▁Sector	-7177
▁empire	-7178
▁arranged	-7179
ML	-7180
raid	-7181
urch	-7182
itors	-7183
▁Circ	-7184
ipedia	-7185
▁Death	-7186
▁aband	-7187
▁ruled	-7188
ishment	-7189
▁editor	-7190
▁amalgam	-7191
▁subordinate	-7192
nect	-7193
time	-7194
▁pond	-7195
▁aspir	-7196
▁elder	-7197
▁persu	-7198
▁sharp	-7199
ilation	-7200
▁muscle	-7201
▁Consult	-7202
▁Persons	-7203
▁replied	-7204
▁specify	-7205
▁television	-7206
CP	-7207
osc	-7208
icks	-7209
▁Five	-7210
▁keen	-7211
▁switch	-7212
▁extensive	-7213
▁corruption	-7214
▁implementing	-7215
▁Sund	-7216
▁gate	-7217
▁merg	-7218
▁metal	-7219
▁Basava	-7220
▁enhanced	-7221
▁enforcement	-7222
▁Cy	-7223
chant	-7224
power	-7225
▁menu	-7226
▁Bills	-7227
▁besides	-7228
▁discretion	-7229
▁limitation	-7230
heb	-7231
ste	-7232
aran	-7233
▁Mot	-7234
▁Rao	-7235
▁fly	-7236
▁tou	-7237
▁Bhut	-7238
abling	-7239
aching	-7240
▁Obama	-7241
▁Table	-7242
▁Defence	-7243
▁integrity	-7244
▁translated	-7245
TS	-7246
Pro	-7247
irable	-7248
▁publish	-7249
lammation	-7250
▁constructed	-7251
)(	-7252
BC	-7253
IM	-7254
▁ash	-7255
▁Bach	-7256
▁sites	-7257
▁refuge	-7258
▁ruling	-7259
▁oriented	-7260
▁displayed	-7261
▁Certificate	-7262
▁Engineering	-7263
▁sus	-7264
tical	-7265
▁Devi	-7266
▁heads	-7267
▁handic	-7268
▁mathem	-7269
▁promise	-7270
▁impression	-7271
kh	-7272
wide	-7273
▁Polit	-7274
▁roots	-7275
▁wages	-7276
▁awards	-7277
▁Perhaps	-7278
▁rapidly	-7279
▁offering	-7280
▁complaints	-7281
▁indigenous	-7282
▁specifically	-7283
eenth	-7284
▁Phys	-7285
asions	-7286
itting	-7287
▁lakhs	-7288
▁anticip	-7289
▁duration	-7290
▁congratulate	-7291
lig	-7292
▁buff	-7293
▁encl	-7294
orious	-7295
▁alive	-7296
▁flour	-7297
▁immun	-7298
▁revol	-7299
▁Soviet	-7300
▁player	-7301
▁virtue	-7302
▁putting	-7303
▁comments	-7304
▁rational	-7305
▁somebody	-7306
▁marriages	-7307
▁organisms	-7308
▁sensitive	-7309
▁constantly	-7310
▁Saf	-7311
▁anc	-7312
▁lock	-7313
▁stars	-7314
▁organs	-7315
▁worker	-7316
▁reaching	-7317
▁depending	-7318
▁indicated	-7319
▁interface	-7320
▁newspapers	-7321
hash	-7322
▁Goa	-7323
▁fab	-7324
▁ing	-7325
▁depart	-7326
▁Current	-7327
adur	-7328
kind	-7329
▁Deb	-7330
▁Sea	-7331
▁irre	-7332
issions	-7333
▁Create	-7334
▁slowly	-7335
▁Accounts	-7336
▁entrusted	-7337
▁generations	-7338
▁operational	-7339
▁Kap	-7340
oking	-7341
▁Date	-7342
▁View	-7343
▁ideals	-7344
▁library	-7345
▁achieving	-7346
ugu	-7347
▁Mac	-7348
▁Ren	-7349
ridge	-7350
▁synt	-7351
▁stick	-7352
▁Punjabi	-7353
▁imagine	-7354
▁ordered	-7355
▁Investment	-7356
▁imagination	-7357
EG	-7358
▁jew	-7359
▁Mahal	-7360
▁empow	-7361
▁marry	-7362
▁wheat	-7363
PRODUCT	-7364
▁Forest	-7365
▁Proper	-7366
▁Haryana	-7367
▁deliber	-7368
▁islands	-7369
▁mailing	-7370
▁Japanese	-7371
▁endeavour	-7372
▁ww	-7373
▁Sem	-7374
▁Tar	-7375
endous	-7376
person	-7377
▁worry	-7378
▁Access	-7379
▁warrant	-7380
▁transportation	-7381
bre	-7382
ching	-7383
isite	-7384
istent	-7385
▁Chennai	-7386
mat	-7387
ashi	-7388
▁Amb	-7389
▁fet	-7390
▁www	-7391
eping	-7392
▁Kann	-7393
▁homes	-7394
▁Canada	-7395
▁falling	-7396
▁replaced	-7397
▁Professor	-7398
▁calculated	-7399
▁concerning	-7400
OV	-7401
▁mo	-7402
▁Nic	-7403
▁rot	-7404
▁Bush	-7405
▁Stre	-7406
▁models	-7407
▁Bangalore	-7408
▁characteristic	-7409
ymph	-7410
▁pair	-7411
▁Never	-7412
▁royal	-7413
▁chromos	-7414
operation	-7415
▁contrast	-7416
▁collective	-7417
orne	-7418
▁Rah	-7419
▁rose	-7420
▁admit	-7421
▁combined	-7422
▁organism	-7423
▁cloud	-7424
▁ending	-7425
ictionary	-7426
habilitation	-7427
Os	-7428
addy	-7429
▁Ste	-7430
night	-7431
▁Card	-7432
▁thin	-7433
▁empty	-7434
itative	-7435
▁eating	-7436
▁Washing	-7437
▁whenever	-7438
▁Administration	-7439
▁Nob	-7440
▁exem	-7441
▁Malay	-7442
▁lover	-7443
▁Global	-7444
▁listen	-7445
▁Welfare	-7446
▁killing	-7447
▁consolid	-7448
▁ultimate	-7449
▁undertake	-7450
▁perfection	-7451
▁supplement	-7452
▁bon	-7453
▁htt	-7454
being	-7455
▁wing	-7456
▁catch	-7457
▁Review	-7458
▁divers	-7459
▁burning	-7460
▁factory	-7461
▁readers	-7462
▁vs	-7463
ulus	-7464
▁IPC	-7465
▁mix	-7466
rants	-7467
▁finger	-7468
▁prefer	-7469
▁dynamic	-7470
▁recruit	-7471
▁earliest	-7472
▁executed	-7473
▁Wikipedia	-7474
▁equivalent	-7475
▁Ach	-7476
haust	-7477
▁Supp	-7478
▁litig	-7479
▁nerve	-7480
▁helping	-7481
▁selling	-7482
isp	-7483
▁UT	-7484
▁elev	-7485
▁realize	-7486
▁parallel	-7487
▁paragraph	-7488
what	-7489
▁adm	-7490
▁Saudi	-7491
▁auton	-7492
▁inher	-7493
▁wings	-7494
▁routine	-7495
▁Sucharita	-7496
Ad	-7497
alal	-7498
▁Son	-7499
▁irres	-7500
▁Recomm	-7501
▁Allahabad	-7502
▁requested	-7503
dev	-7504
rian	-7505
▁Get	-7506
▁Rav	-7507
▁snow	-7508
ieties	-7509
▁paying	-7510
▁calling	-7511
▁degrees	-7512
▁Software	-7513
▁resistance	-7514
▁considering	-7515
▁Br	-7516
▁Three	-7517
▁consp	-7518
▁enorm	-7519
▁shoot	-7520
▁Jewish	-7521
▁batsman	-7522
▁aircraft	-7523
▁sustained	-7524
▁everywhere	-7525
▁TV	-7526
orse	-7527
▁map	-7528
▁Exam	-7529
▁Perm	-7530
▁boat	-7531
▁pump	-7532
▁supra	-7533
▁mistake	-7534
▁collaboration	-7535
iche	-7536
wood	-7537
rading	-7538
▁bread	-7539
▁arises	-7540
▁unfort	-7541
▁circuit	-7542
▁commodities	-7543
▁Kor	-7544
▁duly	-7545
▁shad	-7546
▁Check	-7547
▁grain	-7548
▁Hindust	-7549
▁regards	-7550
▁turning	-7551
▁colonial	-7552
▁hundreds	-7553
▁necessarily	-7554
fe	-7555
last	-7556
▁ice	-7557
▁Hand	-7558
▁Mang	-7559
▁hurt	-7560
▁zone	-7561
▁Local	-7562
▁Treat	-7563
▁memor	-7564
▁Cannot	-7565
▁Majesty	-7566
▁decline	-7567
▁illegal	-7568
▁audience	-7569
▁stations	-7570
▁competitive	-7571
HA	-7572
aked	-7573
rete	-7574
▁Log	-7575
ether	-7576
rogen	-7577
▁cord	-7578
▁Penal	-7579
▁alter	-7580
▁faces	-7581
▁alleged	-7582
▁destroyed	-7583
urit	-7584
▁Play	-7585
▁Click	-7586
▁Sever	-7587
hemical	-7588
▁copies	-7589
▁extraord	-7590
▁protected	-7591
▁Washington	-7592
▁territories	-7593
▁corresponding	-7594
JP	-7595
stig	-7596
▁ble	-7597
▁via	-7598
India	-7599
▁Young	-7600
▁tract	-7601
itioner	-7602
▁condol	-7603
▁vehicles	-7604
ART	-7605
enda	-7606
▁vib	-7607
▁Sign	-7608
▁plug	-7609
▁wage	-7610
urated	-7611
▁Leprosy	-7612
▁farming	-7613
▁resolve	-7614
▁yesterday	-7615
▁Accordingly	-7616
▁Mach	-7617
▁sixty	-7618
athered	-7619
▁genuine	-7620
▁historic	-7621
▁inclusive	-7622
▁beneficial	-7623
▁inspiration	-7624
▁interaction	-7625
▁conservation	-7626
▁Dav	-7627
▁upl	-7628
▁newly	-7629
▁defeat	-7630
▁prayer	-7631
▁returns	-7632
▁suicide	-7633
▁generated	-7634
▁obligations	-7635
TP	-7636
agra	-7637
oding	-7638
▁Lear	-7639
▁denied	-7640
▁injured	-7641
▁monthly	-7642
▁incorporated	-7643
▁Ir	-7644
▁Bul	-7645
▁DAY	-7646
▁Help	-7647
▁epic	-7648
▁icon	-7649
▁stom	-7650
orters	-7651
▁simult	-7652
▁tongue	-7653
▁evolved	-7654
▁healthcare	-7655
१४	-7656
ino	-7657
irt	-7658
▁NI	-7659
ecess	-7660
▁Love	-7661
ellite	-7662
▁paint	-7663
▁Terror	-7664
▁hidden	-7665
▁varied	-7666
▁belongs	-7667
▁crucial	-7668
▁terminal	-7669
▁composition	-7670
▁presentation	-7671
cers	-7672
▁Que	-7673
▁busy	-7674
ographic	-7675
▁innocent	-7676
ida	-7677
etan	-7678
unals	-7679
▁Abdul	-7680
▁Major	-7681
▁grace	-7682
▁horiz	-7683
fulness	-7684
▁Brahman	-7685
▁biggest	-7686
▁kilomet	-7687
▁entertain	-7688
▁Foundation	-7689
▁exploitation	-7690
dy	-7691
ua	-7692
law	-7693
met	-7694
pes	-7695
riev	-7696
▁Dig	-7697
▁Luck	-7698
▁shift	-7699
▁spons	-7700
ATIONAL	-7701
▁rememb	-7702
▁summer	-7703
▁obtaining	-7704
▁artificial	-7705
rh	-7706
▁Od	-7707
▁ju	-7708
▁Kav	-7709
▁RBI	-7710
▁Hall	-7711
▁Temple	-7712
▁Planning	-7713
▁thorough	-7714
▁financing	-7715
▁prejudice	-7716
UG	-7717
aud	-7718
rine	-7719
▁Bro	-7720
▁Jer	-7721
▁dow	-7722
utosh	-7723
▁cruel	-7724
▁tooth	-7725
▁infect	-7726
▁tribunal	-7727
▁weakness	-7728
▁agreements	-7729
▁supporting	-7730
▁consequence	-7731
De	-7732
how	-7733
uma	-7734
▁aer	-7735
▁pled	-7736
▁lying	-7737
▁ruler	-7738
▁tasks	-7739
▁Sharma	-7740
▁holder	-7741
▁Islands	-7742
▁organic	-7743
▁channels	-7744
▁multiply	-7745
▁recognize	-7746
▁regulation	-7747
uing	-7748
▁Mir	-7749
▁Indo	-7750
▁dele	-7751
▁shock	-7752
▁feeding	-7753
▁Moreover	-7754
▁referring	-7755
▁derivative	-7756
ios	-7757
log	-7758
ruddin	-7759
▁younger	-7760
▁attracted	-7761
▁sanctioned	-7762
▁ultimately	-7763
pent	-7764
quar	-7765
▁maybe	-7766
▁afraid	-7767
▁winter	-7768
▁devoted	-7769
▁residence	-7770
▁Innovation	-7771
HAR	-7772
utch	-7773
▁mic	-7774
▁Truth	-7775
▁miles	-7776
▁bigger	-7777
▁farmer	-7778
▁Several	-7779
▁recover	-7780
▁overcome	-7781
▁succeeded	-7782
▁varieties	-7783
ITs	-7784
itya	-7785
▁mil	-7786
osted	-7787
▁lung	-7788
▁taxes	-7789
▁intense	-7790
▁prestig	-7791
▁serving	-7792
▁furnished	-7793
ukh	-7794
▁dil	-7795
ropri	-7796
▁Arun	-7797
▁memb	-7798
▁fraud	-7799
indranath	-7800
▁database	-7801
akar	-7802
▁silk	-7803
▁trek	-7804
hibited	-7805
▁carries	-7806
▁noticed	-7807
▁classical	-7808
▁tremendous	-7809
jun	-7810
▁NG	-7811
▁Sil	-7812
▁hes	-7813
▁mir	-7814
APTER	-7815
▁dict	-7816
▁shut	-7817
▁urge	-7818
▁intim	-7819
▁legit	-7820
▁outlook	-7821
▁relatives	-7822
▁Sl	-7823
avas	-7824
▁scre	-7825
▁charm	-7826
▁shell	-7827
▁Sheikh	-7828
▁Speech	-7829
▁deduct	-7830
▁partial	-7831
▁Consumer	-7832
▁scheduled	-7833
▁references	-7834
ipp	-7835
▁hal	-7836
eches	-7837
▁Govt	-7838
▁pest	-7839
▁brill	-7840
▁Ayurved	-7841
▁assured	-7842
▁sending	-7843
▁disorder	-7844
▁Himalayas	-7845
▁positions	-7846
▁stability	-7847
▁configuration	-7848
endix	-7849
▁button	-7850
▁client	-7851
▁easier	-7852
▁theatre	-7853
▁protocol	-7854
▁characteristics	-7855
ato	-7856
rous	-7857
▁Smt	-7858
▁Ven	-7859
▁gun	-7860
▁Agra	-7861
▁Make	-7862
▁glad	-7863
▁rein	-7864
▁Short	-7865
▁Constitu	-7866
▁describe	-7867
▁peaceful	-7868
▁Recommend	-7869
▁substituted	-7870
will	-7871
xide	-7872
▁Han	-7873
▁cum	-7874
etime	-7875
▁legislature	-7876
▁dh	-7877
▁Arbit	-7878
▁loose	-7879
▁Telugu	-7880
▁remedy	-7881
▁Airport	-7882
▁lawyers	-7883
▁contents	-7884
▁aggregate	-7885
irmed	-7886
▁Cast	-7887
▁Cell	-7888
▁tells	-7889
atories	-7890
entions	-7891
▁castes	-7892
▁recording	-7893
▁frequently	-7894
ador	-7895
rors	-7896
▁intu	-7897
▁pool	-7898
▁vacc	-7899
▁blank	-7900
▁deity	-7901
▁larva	-7902
▁motiv	-7903
▁circle	-7904
▁exhaust	-7905
▁bacteria	-7906
▁performing	-7907
▁Institutions	-7908
▁MP	-7909
▁USA	-7910
▁mood	-7911
▁stup	-7912
ricted	-7913
▁gained	-7914
▁dramatic	-7915
▁governed	-7916
▁constitut	-7917
▁increases	-7918
atra	-7919
▁Ray	-7920
ariat	-7921
lause	-7922
▁Mart	-7923
coming	-7924
ilding	-7925
▁Relig	-7926
▁chest	-7927
▁thread	-7928
▁pillars	-7929
▁Sessions	-7930
▁exercised	-7931
▁attachment	-7932
▁experienced	-7933
▁integration	-7934
▁identification	-7935
aph	-7936
asis	-7937
▁rat	-7938
▁sed	-7939
▁Norm	-7940
resident	-7941
▁William	-7942
▁musical	-7943
▁payments	-7944
▁sequence	-7945
▁occasions	-7946
▁corporation	-7947
pex	-7948
▁ma	-7949
▁Mess	-7950
rators	-7951
▁norms	-7952
▁fairly	-7953
▁CHAPTER	-7954
▁retired	-7955
▁produces	-7956
▁exception	-7957
▁radiation	-7958
▁Departments	-7959
▁representing	-7960
down	-7961
inder	-7962
▁Save	-7963
▁penal	-7964
ictions	-7965
itarian	-7966
▁inputs	-7967
▁pretty	-7968
▁united	-7969
▁worshi	-7970
▁reducing	-7971
▁acceptable	-7972
oose	-7973
▁Dam	-7974
akers	-7975
erals	-7976
▁Pune	-7977
▁auth	-7978
▁genus	-7979
▁repay	-7980
▁Topics	-7981
▁delete	-7982
▁profile	-7983
▁preferred	-7984
SC	-7985
ogy	-7986
ubs	-7987
▁fle	-7988
▁loy	-7989
igarh	-7990
▁Path	-7991
lessness	-7992
▁Centres	-7993
▁genetic	-7994
▁inherent	-7995
▁precious	-7996
▁institute	-7997
▁pregnancy	-7998
▁punishable	-7999
▁Ap	-8000
▁Gen	-8001
▁gap	-8002
▁intr	-8003
▁pace	-8004
▁Action	-8005
▁closer	-8006
▁overse	-8007
▁praise	-8008
missions	-8009
▁bearing	-8010
▁abnormal	-8011
▁interpre	-8012
▁acknowled	-8013
▁exclusive	-8014
▁seriously	-8015
▁discrimination	-8016
SA	-8017
gage	-8018
▁Paul	-8019
▁axis	-8020
ovable	-8021
▁risks	-8022
▁turns	-8023
▁Family	-8024
▁stones	-8025
▁periods	-8026
▁attempts	-8027
yr	-8028
▁cad	-8029
▁flo	-8030
▁row	-8031
itate	-8032
incial	-8033
▁Advis	-8034
▁Forum	-8035
▁partly	-8036
▁Nothing	-8037
▁doctors	-8038
▁extract	-8039
▁Computer	-8040
▁Template	-8041
▁gathered	-8042
▁revealed	-8043
▁continuing	-8044
▁Organization	-8045
▁extraordinary	-8046
▁cater	-8047
▁lands	-8048
▁comprom	-8049
▁furnish	-8050
▁anywhere	-8051
▁profound	-8052
▁servants	-8053
▁indicates	-8054
oa	-8055
nut	-8056
ivek	-8057
omous	-8058
lihood	-8059
▁Black	-8060
▁landl	-8061
▁magaz	-8062
▁plane	-8063
▁pronoun	-8064
ns	-8065
olec	-8066
lessly	-8067
▁Light	-8068
▁grave	-8069
▁repair	-8070
▁spring	-8071
▁African	-8072
▁acceler	-8073
▁disqual	-8074
▁enquiry	-8075
▁strongly	-8076
▁interview	-8077
▁Employment	-8078
ela	-8079
book	-8080
▁vag	-8081
avior	-8082
▁inhab	-8083
▁Valley	-8084
▁Bahadur	-8085
▁cutting	-8086
▁enjoyed	-8087
▁package	-8088
▁wherein	-8089
▁establishing	-8090
▁oxy	-8091
▁meal	-8092
▁plot	-8093
▁Champ	-8094
▁wheel	-8095
atively	-8096
▁flight	-8097
▁Academy	-8098
▁stomach	-8099
▁walking	-8100
▁windows	-8101
criptions	-8102
anth	-8103
▁Nanak	-8104
▁metres	-8105
▁realisation	-8106
xx	-8107
cut	-8108
odox	-8109
▁haz	-8110
▁Zone	-8111
▁fails	-8112
▁saint	-8113
▁Bhutan	-8114
▁dreams	-8115
liminary	-8116
▁Collect	-8117
▁Private	-8118
▁scholar	-8119
▁circular	-8120
DF	-8121
isible	-8122
▁Dwark	-8123
▁bonds	-8124
▁wider	-8125
▁daniel	-8126
▁imported	-8127
▁necessity	-8128
▁eventually	-8129
▁institutes	-8130
adv	-8131
ario	-8132
▁Take	-8133
alysis	-8134
ixture	-8135
▁texts	-8136
▁Enterpr	-8137
▁modified	-8138
▁exceeding	-8139
▁ownership	-8140
zen	-8141
▁AN	-8142
acing	-8143
apped	-8144
▁orna	-8145
▁india	-8146
▁lingu	-8147
▁nodes	-8148
▁stayed	-8149
ribution	-8150
▁equation	-8151
▁convicted	-8152
▁complicated	-8153
▁programming	-8154
aved	-8155
eding	-8156
▁Wild	-8157
ancell	-8158
▁fifth	-8159
▁march	-8160
▁engage	-8161
Applause	-8162
▁assumed	-8163
▁formula	-8164
▁premium	-8165
▁darkness	-8166
▁appreciation	-8167
try	-8168
▁Vin	-8169
herry	-8170
▁SHRI	-8171
▁font	-8172
▁lease	-8173
▁recon	-8174
▁scrut	-8175
▁Brahma	-8176
▁adults	-8177
▁golden	-8178
▁talent	-8179
▁browser	-8180
▁literacy	-8181
▁reposted	-8182
▁appreciate	-8183
▁inspection	-8184
No	-8185
▁mould	-8186
▁Indeed	-8187
▁Netaji	-8188
▁fabric	-8189
▁faster	-8190
chnology	-8191
lamation	-8192
▁imports	-8193
▁adoption	-8194
▁Municipal	-8195
je	-8196
JEE	-8197
isal	-8198
▁End	-8199
▁cav	-8200
▁cul	-8201
iders	-8202
▁Docu	-8203
urrent	-8204
▁silent	-8205
▁urgent	-8206
▁Manipur	-8207
▁harmful	-8208
▁contacts	-8209
▁tourists	-8210
▁increasingly	-8211
UB	-8212
uri	-8213
▁kne	-8214
idity	-8215
▁luck	-8216
▁incap	-8217
▁sheep	-8218
usively	-8219
▁island	-8220
▁preval	-8221
▁remembered	-8222
DR	-8223
IAL	-8224
▁AM	-8225
▁IR	-8226
▁IV	-8227
ideo	-8228
wara	-8229
archy	-8230
tered	-8231
arency	-8232
▁Solar	-8233
▁incom	-8234
▁kings	-8235
▁Ganges	-8236
▁Lahore	-8237
▁Unable	-8238
▁devote	-8239
▁smooth	-8240
▁enlight	-8241
▁precise	-8242
▁savings	-8243
▁enabling	-8244
▁villagers	-8245
▁restrictions	-8246
illy	-8247
anged	-8248
place	-8249
▁keeps	-8250
▁movie	-8251
▁Bureau	-8252
▁entering	-8253
▁reserved	-8254
▁compulsory	-8255
pa	-8256
uti	-8257
▁CA	-8258
orce	-8259
rich	-8260
ipher	-8261
ogram	-8262
▁Entry	-8263
ogether	-8264
▁driven	-8265
▁Subhash	-8266
▁careful	-8267
▁mankind	-8268
▁Transport	-8269
▁reflected	-8270
▁encouraging	-8271
EF	-8272
gi	-8273
oty	-8274
▁ll	-8275
▁Nir	-8276
▁calm	-8277
▁mine	-8278
▁alien	-8279
▁infer	-8280
▁headed	-8281
▁answers	-8282
▁reserve	-8283
▁somewhat	-8284
▁describes	-8285
▁CP	-8286
bind	-8287
▁bio	-8288
▁forum	-8289
▁artist	-8290
▁fought	-8291
▁impose	-8292
▁valley	-8293
ifferent	-8294
▁silence	-8295
▁wherever	-8296
nic	-8297
pay	-8298
rue	-8299
alli	-8300
ffee	-8301
▁Mun	-8302
▁Vivek	-8303
▁brown	-8304
▁worse	-8305
▁gentle	-8306
▁hearts	-8307
▁silver	-8308
▁candidate	-8309
▁conventional	-8310
lor	-8311
▁eg	-8312
▁Sin	-8313
aints	-8314
▁Vill	-8315
idency	-8316
▁loved	-8317
▁posts	-8318
▁Instead	-8319
▁pleased	-8320
▁surgery	-8321
▁dissemin	-8322
▁printing	-8323
▁admission	-8324
▁algorithm	-8325
▁intermedi	-8326
SE	-8327
▁nin	-8328
arest	-8329
▁Have	-8330
▁heaven	-8331
▁Quality	-8332
▁colleges	-8333
▁province	-8334
▁retirement	-8335
▁Na	-8336
aming	-8337
stone	-8338
▁Prab	-8339
▁indu	-8340
▁tack	-8341
urning	-8342
▁Third	-8343
▁alloc	-8344
▁taste	-8345
▁saving	-8346
Amendment	-8347
▁networks	-8348
▁visiting	-8349
▁Badruddin	-8350
kim	-8351
acco	-8352
olit	-8353
▁Phot	-8354
▁wave	-8355
▁Kabir	-8356
▁acute	-8357
▁hotel	-8358
▁vested	-8359
▁Iranian	-8360
▁players	-8361
▁geographical	-8362
mans	-8363
▁Aur	-8364
▁Tib	-8365
unate	-8366
▁Narm	-8367
▁dies	-8368
▁idol	-8369
▁lake	-8370
▁resc	-8371
▁merit	-8372
▁plain	-8373
▁perpet	-8374
▁Without	-8375
▁disturb	-8376
▁driving	-8377
▁paramet	-8378
aras	-8379
emia	-8380
ulum	-8381
▁Chal	-8382
▁Media	-8383
▁feels	-8384
▁Region	-8385
▁licence	-8386
akrishnan	-8387
TR	-8388
▁PM	-8389
film	-8390
hical	-8391
plant	-8392
▁spin	-8393
father	-8394
ipping	-8395
▁thinks	-8396
▁Movement	-8397
▁enormous	-8398
▁presents	-8399
▁Islamists	-8400
ALL	-8401
ouds	-8402
▁Ans	-8403
▁cin	-8404
▁Hard	-8405
▁dear	-8406
itudes	-8407
▁adding	-8408
▁breath	-8409
▁handle	-8410
▁Promotion	-8411
▁aspirations	-8412
attis	-8413
chers	-8414
itary	-8415
▁hide	-8416
▁Works	-8417
▁beach	-8418
▁snake	-8419
▁refund	-8420
▁comprising	-8421
▁installation	-8422
pura	-8423
▁Yoj	-8424
▁wed	-8425
▁wire	-8426
ounder	-8427
▁Durga	-8428
▁bears	-8429
▁Swaraj	-8430
▁driver	-8431
▁retain	-8432
▁knowing	-8433
▁nervous	-8434
▁calendar	-8435
▁everybody	-8436
▁mandatory	-8437
▁HT	-8438
▁Bat	-8439
▁bin	-8440
▁thro	-8441
▁begun	-8442
▁Scient	-8443
▁unlike	-8444
iciently	-8445
▁massive	-8446
▁advocate	-8447
▁nominated	-8448
AK	-8449
▁ICT	-8450
ivals	-8451
▁bride	-8452
▁ought	-8453
▁firmly	-8454
▁complim	-8455
▁relates	-8456
▁actively	-8457
▁expanded	-8458
▁handling	-8459
▁slightly	-8460
apse	-8461
hari	-8462
▁Six	-8463
▁mit	-8464
▁alcoh	-8465
istence	-8466
▁tribes	-8467
▁confirm	-8468
▁marginal	-8469
▁arguments	-8470
▁membership	-8471
▁observations	-8472
rase	-8473
▁MUK	-8474
▁Requ	-8475
▁Vict	-8476
▁tall	-8477
ashion	-8478
▁brave	-8479
▁films	-8480
essment	-8481
▁Session	-8482
▁Railways	-8483
▁keyboard	-8484
▁convinced	-8485
▁subsequently	-8486
▁fo	-8487
chen	-8488
emat	-8489
▁hunt	-8490
ulates	-8491
▁genius	-8492
▁revision	-8493
▁violation	-8494
▁separately	-8495
▁residential	-8496
▁stakeholders	-8497
१५	-8498
oda	-8499
▁Oh	-8500
ford	-8501
roid	-8502
▁Has	-8503
▁Jam	-8504
▁Lar	-8505
▁unp	-8506
▁Sank	-8507
ESSAGE	-8508
▁holid	-8509
▁logic	-8510
▁penet	-8511
▁uncle	-8512
▁Nation	-8513
▁resear	-8514
▁elsewhere	-8515
erk	-8516
hal	-8517
▁tor	-8518
▁Auro	-8519
▁nose	-8520
▁semi	-8521
HERJEE	-8522
▁adjud	-8523
▁broke	-8524
▁Reform	-8525
▁butter	-8526
sequently	-8527
▁speeches	-8528
▁MUKHERJEE	-8529
▁exchanges	-8530
▁Ru	-8531
▁stem	-8532
▁Space	-8533
ignment	-8534
▁invalid	-8535
▁vessels	-8536
▁breeding	-8537
▁expertise	-8538
▁obviously	-8539
ipe	-8540
▁Did	-8541
▁Exc	-8542
▁din	-8543
▁kit	-8544
antra	-8545
▁horn	-8546
ancies	-8547
thodox	-8548
▁handed	-8549
▁Gujarati	-8550
▁hardware	-8551
▁Rat	-8552
▁gif	-8553
▁rab	-8554
hesis	-8555
▁Band	-8556
▁Vish	-8557
▁glory	-8558
▁Display	-8559
▁Federal	-8560
▁Product	-8561
▁Windows	-8562
▁finished	-8563
▁premises	-8564
▁excessive	-8565
▁disability	-8566
agn	-8567
▁da	-8568
ahan	-8569
▁Sad	-8570
▁oxygen	-8571
▁peculi	-8572
▁struck	-8573
▁troops	-8574
quarters	-8575
▁acquire	-8576
▁essence	-8577
▁download	-8578
▁Americans	-8579
▁Himalayan	-8580
▁addresses	-8581
▁governing	-8582
▁livelihood	-8583
asp	-8584
ammed	-8585
▁Radh	-8586
▁aged	-8587
▁bare	-8588
abetes	-8589
acific	-8590
▁Const	-8591
▁abuse	-8592
▁speedy	-8593
▁Lucknow	-8594
▁MESSAGE	-8595
▁subsidy	-8596
▁supplied	-8597
▁surprise	-8598
▁preceding	-8599
aar	-8600
kal	-8601
▁Ce	-8602
ndra	-8603
▁Next	-8604
▁amaz	-8605
▁cogn	-8606
▁pock	-8607
▁tons	-8608
ighter	-8609
inking	-8610
▁crowd	-8611
▁optim	-8612
▁topic	-8613
▁agents	-8614
▁Narayan	-8615
▁telling	-8616
▁Ministries	-8617
▁cooperative	-8618
▁communications	-8619
PL	-8620
ITY	-8621
oven	-8622
▁voc	-8623
▁Cost	-8624
▁Prat	-8625
pector	-8626
▁enlar	-8627
▁evalu	-8628
ailable	-8629
▁Bhagat	-8630
▁assert	-8631
▁Shankar	-8632
▁desktop	-8633
▁generate	-8634
▁Standards	-8635
▁ignorance	-8636
▁formulation	-8637
oma	-8638
airy	-8639
anim	-8640
araja	-8641
▁Jews	-8642
▁Amrit	-8643
▁Grand	-8644
▁Sahib	-8645
▁plate	-8646
▁tests	-8647
▁mixture	-8648
▁monetary	-8649
▁instituted	-8650
▁py	-8651
▁lov	-8652
agues	-8653
ighth	-8654
▁Spec	-8655
▁alph	-8656
▁arts	-8657
▁Indra	-8658
▁Level	-8659
▁noble	-8660
▁vulner	-8661
▁decimal	-8662
▁printer	-8663
▁protein	-8664
▁machines	-8665
▁tendency	-8666
▁conducting	-8667
AYS	-8668
bra	-8669
lers	-8670
▁Til	-8671
▁nod	-8672
amboo	-8673
otism	-8674
olving	-8675
▁Ocean	-8676
▁Vedas	-8677
▁Modern	-8678
▁schedule	-8679
▁tolerance	-8680
▁originally	-8681
▁Organisation	-8682
▁rehabilitation	-8683
BER	-8684
orry	-8685
▁raj	-8686
tings	-8687
▁Jour	-8688
▁overseas	-8689
▁sympathy	-8690
▁incidents	-8691
▁occupation	-8692
awn	-8693
iya	-8694
▁Job	-8695
▁Prim	-8696
ounded	-8697
▁ancest	-8698
▁native	-8699
▁Subject	-8700
▁focused	-8701
▁dialogue	-8702
▁patterns	-8703
▁enhancing	-8704
▁Governorate	-8705
▁IPv	-8706
asures	-8707
theless	-8708
▁singing	-8709
▁minority	-8710
▁utilised	-8711
▁broadcast	-8712
▁compliance	-8713
▁terrorists	-8714
▁withdrawal	-8715
anand	-8716
▁Down	-8717
▁Loan	-8718
▁hung	-8719
▁jump	-8720
▁usage	-8721
attered	-8722
▁Agency	-8723
▁Partic	-8724
▁humans	-8725
▁dynasty	-8726
▁preserve	-8727
▁concluded	-8728
▁designated	-8729
You	-8730
aci	-8731
iot	-8732
▁Nok	-8733
▁Yam	-8734
▁gov	-8735
adequ	-8736
aimed	-8737
inter	-8738
▁Long	-8739
▁Page	-8740
▁pion	-8741
▁shot	-8742
▁warn	-8743
iceroy	-8744
▁lawyer	-8745
▁margin	-8746
▁plains	-8747
▁Russian	-8748
▁affects	-8749
▁winning	-8750
attisgarh	-8751
▁Standard	-8752
▁announce	-8753
▁engagement	-8754
As	-8755
DI	-8756
EST	-8757
▁Azad	-8758
▁Care	-8759
inions	-8760
ologist	-8761
▁Museum	-8762
▁planet	-8763
▁pursue	-8764
▁protest	-8765
▁revised	-8766
▁Resource	-8767
▁AW	-8768
vara	-8769
▁Lake	-8770
▁unem	-8771
▁Quran	-8772
▁anger	-8773
▁peculiar	-8774
▁Technical	-8775
▁relatively	-8776
▁particulars	-8777
▁>%	-8778
▁”.	-8779
▁lac	-8780
aland	-8781
onent	-8782
▁inqu	-8783
▁Citiz	-8784
▁Imple	-8785
▁arrive	-8786
▁assemb	-8787
▁breach	-8788
▁levied	-8789
▁nearby	-8790
▁Deposit	-8791
▁cancell	-8792
▁Contract	-8793
▁cultures	-8794
▁prevention	-8795
▁Institution	-8796
▁observation	-8797
▁Ny	-8798
▁Fire	-8799
▁Mean	-8800
▁ages	-8801
▁clin	-8802
▁stip	-8803
▁quoted	-8804
▁stable	-8805
▁occupied	-8806
▁Additional	-8807
zb	-8808
das	-8809
mad	-8810
opl	-8811
ENCE	-8812
▁isn	-8813
arkar	-8814
▁Bhav	-8815
▁Link	-8816
▁Thir	-8817
▁viewed	-8818
▁outcome	-8819
▁discovery	-8820
GR	-8821
ca	-8822
rapy	-8823
soon	-8824
▁Tom	-8825
▁van	-8826
alled	-8827
▁Desp	-8828
▁Nand	-8829
▁genes	-8830
▁rhyth	-8831
▁nobody	-8832
▁sounds	-8833
▁visits	-8834
▁creates	-8835
▁destiny	-8836
▁Articles	-8837
▁empowered	-8838
▁objection	-8839
▁allocation	-8840
▁determining	-8841
▁exclusively	-8842
▁capabilities	-8843
chi	-8844
anic	-8845
eals	-8846
fare	-8847
▁Vik	-8848
ulent	-8849
▁Bhai	-8850
▁acted	-8851
tlement	-8852
▁writes	-8853
▁binding	-8854
▁ignored	-8855
▁attained	-8856
▁believes	-8857
▁breaking	-8858
▁commerce	-8859
▁phenomenon	-8860
▁involvement	-8861
MENT	-8862
▁EVE	-8863
alaya	-8864
rible	-8865
▁Greek	-8866
▁Patna	-8867
▁Maurit	-8868
▁agenda	-8869
▁couldn	-8870
▁Finally	-8871
▁authors	-8872
▁denomin	-8873
▁entries	-8874
▁commodity	-8875
ba	-8876
▁NH	-8877
▁Type	-8878
itated	-8879
otions	-8880
▁Pract	-8881
▁Samaj	-8882
▁abdom	-8883
▁abund	-8884
▁bones	-8885
▁freely	-8886
▁Cricket	-8887
▁attacked	-8888
▁accommodation	-8889
atri	-8890
erge	-8891
oure	-8892
▁Hem	-8893
▁Hus	-8894
▁Ran	-8895
▁Vid	-8896
▁palm	-8897
▁sake	-8898
▁Grant	-8899
▁Jagann	-8900
▁Sikkim	-8901
▁tenant	-8902
▁vimana	-8903
▁Minimum	-8904
▁fashion	-8905
▁NATIONAL	-8906
▁dimension	-8907
▁wonderful	-8908
▁experiments	-8909
gin	-8910
hta	-8911
What	-8912
▁bug	-8913
▁fan	-8914
imony	-8915
ulses	-8916
▁dish	-8917
▁depri	-8918
acharya	-8919
▁harmon	-8920
▁mineral	-8921
▁Transfer	-8922
▁reserves	-8923
▁delegation	-8924
▁surrounded	-8925
▁modification	-8926
▁participants	-8927
▁Haz	-8928
orney	-8929
▁Kore	-8930
▁PRAN	-8931
▁mira	-8932
stream	-8933
▁Arabs	-8934
▁cease	-8935
▁chart	-8936
▁depre	-8937
▁streams	-8938
▁personally	-8939
▁submission	-8940
▁innovations	-8941
rosc	-8942
amese	-8943
apore	-8944
▁sees	-8945
oultry	-8946
ushing	-8947
▁molec	-8948
▁perce	-8949
▁estate	-8950
▁Freedom	-8951
▁Singles	-8952
▁enemies	-8953
▁vitamin	-8954
▁estimate	-8955
▁qualified	-8956
▁Christians	-8957
▁limitations	-8958
ocy	-8959
▁Ul	-8960
lock	-8961
▁tum	-8962
▁Area	-8963
▁chap	-8964
▁favor	-8965
▁bought	-8966
▁exceeds	-8967
▁missing	-8968
▁Commerce	-8969
▁repealed	-8970
▁perspective	-8971
▁intervention	-8972
bh	-8973
ques	-8974
▁Oil	-8975
▁fond	-8976
wealth	-8977
▁serves	-8978
▁avoided	-8979
▁realized	-8980
▁surrender	-8981
▁absolutely	-8982
▁colleagues	-8983
▁reputation	-8984
iac	-8985
osa	-8986
isha	-8987
rawn	-8988
▁cup	-8989
▁Gard	-8990
▁Resp	-8991
tering	-8992
▁hyper	-8993
▁reign	-8994
▁Center	-8995
▁Island	-8996
▁compan	-8997
▁decree	-8998
▁equals	-8999
▁Revenue	-9000
▁drought	-9001
▁enables	-9002
▁Aurobind	-9003
▁balanced	-9004
▁immovable	-9005
▁succession	-9006
▁imperialism	-9007
▁approximately	-9008
EV	-9009
thal	-9010
▁tow	-9011
iracy	-9012
▁Shar	-9013
▁hect	-9014
▁nest	-9015
▁Gopal	-9016
▁Nokia	-9017
▁intern	-9018
▁pestic	-9019
▁reward	-9020
▁toward	-9021
▁Library	-9022
▁clauses	-9023
▁distant	-9024
▁separated	-9025
▁productive	-9026
▁restricted	-9027
III	-9028
which	-9029
▁peak	-9030
akings	-9031
▁penis	-9032
▁spell	-9033
▁Sindhi	-9034
▁conform	-9035
▁observe	-9036
▁inferior	-9037
▁electrical	-9038
▁Directorate	-9039
▁concentration	-9040
eers	-9041
▁Opt	-9042
▁Ris	-9043
▁ped	-9044
▁Conv	-9045
agraha	-9046
▁grains	-9047
▁thrown	-9048
▁Viceroy	-9049
▁declare	-9050
▁advances	-9051
▁Malayalam	-9052
▁substances	-9053
▁ii	-9054
andra	-9055
▁Fest	-9056
▁Fram	-9057
▁Star	-9058
▁bold	-9059
▁void	-9060
▁actor	-9061
▁indul	-9062
▁magic	-9063
▁suits	-9064
viation	-9065
▁Design	-9066
▁detect	-9067
▁insert	-9068
▁federal	-9069
▁dismissed	-9070
▁photograph	-9071
▁Ek	-9072
onut	-9073
▁mac	-9074
▁Rate	-9075
▁Forces	-9076
▁Status	-9077
▁allied	-9078
▁museum	-9079
▁Benefit	-9080
▁tissues	-9081
▁addressing	-9082
▁gro	-9083
orate	-9084
▁Chak	-9085
▁Sult	-9086
▁assume	-9087
▁Pension	-9088
▁forming	-9089
▁dividend	-9090
▁entrance	-9091
▁judgments	-9092
▁preparing	-9093
orticulture	-9094
otechnology	-9095
▁Dwarkanath	-9096
▁Environmental	-9097
▁Infrastructure	-9098
anes	-9099
oster	-9100
pless	-9101
▁Patel	-9102
▁Sikhs	-9103
▁storm	-9104
▁forgot	-9105
▁mining	-9106
▁miscon	-9107
▁weapon	-9108
onscious	-9109
▁Default	-9110
▁horizon	-9111
▁insurer	-9112
▁license	-9113
▁Chancell	-9114
▁Electric	-9115
▁extending	-9116
▁consistent	-9117
var	-9118
astri	-9119
valid	-9120
▁Viet	-9121
▁flows	-9122
inarily	-9123
▁PRANAB	-9124
▁deeper	-9125
▁harass	-9126
▁lending	-9127
▁retained	-9128
▁Aurobindo	-9129
▁attractive	-9130
▁separation	-9131
▁connections	-9132
▁developmental	-9133
isan	-9134
▁bulk	-9135
atious	-9136
▁admin	-9137
▁widow	-9138
▁Yojana	-9139
▁arrival	-9140
▁satisfy	-9141
▁segment	-9142
▁Agreement	-9143
▁prisoners	-9144
▁safeguard	-9145
▁inevitable	-9146
▁Radhakrishnan	-9147
ago	-9148
▁Ber	-9149
▁Dou	-9150
▁Soon	-9151
▁Tool	-9152
▁fron	-9153
isting	-9154
▁Ashok	-9155
▁David	-9156
▁reads	-9157
▁teleg	-9158
▁suggests	-9159
▁chemicals	-9160
▁accounting	-9161
▁Constituent	-9162
idav	-9163
obar	-9164
rass	-9165
▁Ken	-9166
▁bell	-9167
ressal	-9168
▁repro	-9169
▁Arabia	-9170
▁Survey	-9171
▁advent	-9172
▁habits	-9173
▁Pacific	-9174
▁deleted	-9175
▁skilled	-9176
▁Northern	-9177
▁fulfilled	-9178
▁judgement	-9179
ye	-9180
▁CS	-9181
▁Os	-9182
fect	-9183
kash	-9184
▁sul	-9185
▁Sang	-9186
▁mart	-9187
▁tact	-9188
▁tiny	-9189
onomic	-9190
▁therm	-9191
▁Budget	-9192
▁Repeal	-9193
▁Spirit	-9194
▁losses	-9195
▁muscles	-9196
▁Protocol	-9197
▁Prevention	-9198
▁Ba	-9199
onic	-9200
▁tap	-9201
▁beet	-9202
▁monu	-9203
▁nurt	-9204
▁Estab	-9205
▁borne	-9206
▁domin	-9207
▁Integrated	-9208
▁grievances	-9209
▁explanation	-9210
▁preliminary	-9211
▁Rabindranath	-9212
stan	-9213
▁Vig	-9214
icing	-9215
ordan	-9216
▁Kath	-9217
▁spir	-9218
charge	-9219
▁ambit	-9220
▁bench	-9221
▁brand	-9222
▁foods	-9223
▁pharm	-9224
▁width	-9225
▁Portug	-9226
▁insult	-9227
▁Turkish	-9228
▁studying	-9229
▁desirable	-9230
▁approaches	-9231
▁controversy	-9232
▁NE	-9233
▁ov	-9234
nagar	-9235
▁ster	-9236
resent	-9237
▁Indus	-9238
▁plural	-9239
▁helpful	-9240
▁Abdullah	-9241
▁Ayurveda	-9242
▁collecting	-9243
▁functional	-9244
▁surrounding	-9245
▁publications	-9246
iki	-9247
▁Jo	-9248
▁bes	-9249
chron	-9250
▁Mill	-9251
▁immig	-9252
▁deaths	-9253
ificates	-9254
▁earthqu	-9255
▁untouch	-9256
▁manpower	-9257
▁highlight	-9258
▁initially	-9259
▁respondents	-9260
▁simultaneously	-9261
ele	-9262
kes	-9263
opp	-9264
ourn	-9265
▁Enc	-9266
▁Old	-9267
▁spr	-9268
▁vex	-9269
cence	-9270
rives	-9271
water	-9272
▁Poly	-9273
▁sport	-9274
▁tight	-9275
ichever	-9276
▁eleven	-9277
▁resemb	-9278
▁Monitor	-9279
▁contrad	-9280
▁interim	-9281
▁plastic	-9282
▁streets	-9283
▁disaster	-9284
▁fraction	-9285
▁magnetic	-9286
ashed	-9287
point	-9288
▁Sidd	-9289
usions	-9290
▁Market	-9291
▁Should	-9292
▁oldest	-9293
▁extends	-9294
▁Regulation	-9295
▁dedication	-9296
▁enthusiasm	-9297
▁psychological	-9298
CL	-9299
SL	-9300
look	-9301
more	-9302
▁Bhar	-9303
▁Rani	-9304
▁Rich	-9305
▁paddy	-9306
▁flying	-9307
▁legend	-9308
▁videos	-9309
▁funding	-9310
▁Question	-9311
▁festivals	-9312
▁rendering	-9313
▁liberation	-9314
▁mechanical	-9315
▁transparency	-9316
▁Lit	-9317
▁Suf	-9318
▁disb	-9319
▁tied	-9320
▁Ident	-9321
▁mango	-9322
▁shops	-9323
▁Mahade	-9324
▁specim	-9325
▁beliefs	-9326
▁inadequ	-9327
▁incentives	-9328
iat	-9329
bery	-9330
angle	-9331
earing	-9332
erving	-9333
▁Creat	-9334
▁Urban	-9335
▁doors	-9336
▁Senior	-9337
▁Manager	-9338
▁exposed	-9339
▁indirectly	-9340
▁‘%	-9341
▁Lic	-9342
itted	-9343
▁seiz	-9344
▁stro	-9345
ustice	-9346
▁Total	-9347
▁disag	-9348
▁shout	-9349
▁Jordan	-9350
▁dialog	-9351
▁patron	-9352
ologists	-9353
▁anybody	-9354
▁cooking	-9355
▁Mohammed	-9356
▁behavior	-9357
▁coloured	-9358
▁supports	-9359
▁intensity	-9360
▁fertilizers	-9361
▁transmitted	-9362
ju	-9363
IST	-9364
▁ho	-9365
▁Beg	-9366
▁Nam	-9367
▁Ver	-9368
oused	-9369
liness	-9370
▁Point	-9371
▁uncon	-9372
▁dollar	-9373
▁hatred	-9374
▁laying	-9375
▁Invalid	-9376
▁Upanish	-9377
▁laboure	-9378
porations	-9379
▁airports	-9380
▁allowing	-9381
▁pregnant	-9382
unications	-9383
▁spreading	-9384
▁prevailing	-9385
▁allegations	-9386
▁Constitutional	-9387
.]	-9388
eling	-9389
angers	-9390
▁Audio	-9391
▁Video	-9392
▁photo	-9393
▁ports	-9394
manship	-9395
▁termin	-9396
▁Despite	-9397
▁railways	-9398
▁philosophical	-9399
occ	-9400
oshi	-9401
▁Hig	-9402
▁Hit	-9403
▁Rai	-9404
▁tape	-9405
ickets	-9406
▁logical	-9407
▁secured	-9408
▁belonged	-9409
▁shoulder	-9410
▁Political	-9411
▁automatic	-9412
▁whichever	-9413
▁supramental	-9414
▁shareholders	-9415
uta	-9416
phal	-9417
utra	-9418
▁cha	-9419
▁nice	-9420
▁unus	-9421
▁Menon	-9422
▁Print	-9423
▁contra	-9424
▁humble	-9425
▁thrust	-9426
esthetic	-9427
▁matches	-9428
▁Advocate	-9429
▁prevalent	-9430
▁Revolution	-9431
▁protecting	-9432
▁recruitment	-9433
%.	-9434
sa	-9435
cel	-9436
▁MW	-9437
anti	-9438
▁Hosp	-9439
enders	-9440
▁Plant	-9441
▁Royal	-9442
▁irrit	-9443
▁reass	-9444
▁virus	-9445
▁shadow	-9446
▁Emperor	-9447
▁alcohol	-9448
▁romantic	-9449
▁appellate	-9450
▁economies	-9451
▁envisaged	-9452
▁inflation	-9453
▁responses	-9454
▁Secretariat	-9455
▁Palestinians	-9456
eta	-9457
sar	-9458
tha	-9459
LECT	-9460
▁Gre	-9461
▁Str	-9462
▁apt	-9463
▁bot	-9464
▁cryst	-9465
▁tends	-9466
▁Employ	-9467
▁Mobile	-9468
▁treaty	-9469
▁Housing	-9470
▁possibly	-9471
▁watching	-9472
▁Directors	-9473
▁Panchayat	-9474
▁expensive	-9475
▁countrymen	-9476
▁anniversary	-9477
▁strengthened	-9478
Ch	-9479
beh	-9480
soft	-9481
iscal	-9482
▁Coun	-9483
▁Rece	-9484
acular	-9485
▁Golden	-9486
▁Prosec	-9487
▁fright	-9488
▁splend	-9489
▁Hamachi	-9490
▁Natural	-9491
▁concrete	-9492
▁proceeds	-9493
▁regulate	-9494
▁accessible	-9495
▁challenged	-9496
▁conversation	-9497
▁interference	-9498
abu	-9499
▁Ib	-9500
▁pa	-9501
onds	-9502
▁tag	-9503
▁chol	-9504
▁epis	-9505
▁lists	-9506
▁moves	-9507
▁slope	-9508
▁tears	-9509
▁differ	-9510
▁Details	-9511
▁warning	-9512
▁coverage	-9513
▁Registrar	-9514
▁Terrorism	-9515
▁proceeded	-9516
▁transparent	-9517
rus	-9518
emen	-9519
▁Bri	-9520
▁aqu	-9521
oters	-9522
onymous	-9523
▁immort	-9524
▁utmost	-9525
▁reconst	-9526
▁summary	-9527
▁suspect	-9528
▁answered	-9529
▁Territories	-9530
elt	-9531
obi	-9532
▁Fa	-9533
▁Call	-9534
▁kids	-9535
▁mamm	-9536
utical	-9537
▁Raman	-9538
▁alarm	-9539
▁talks	-9540
▁explos	-9541
▁assessed	-9542
▁rainfall	-9543
▁Allowance	-9544
▁provinces	-9545
▁incomplete	-9546
If	-9547
vas	-9548
▁VI	-9549
pass	-9550
▁Vaj	-9551
▁Case	-9552
▁Orig	-9553
▁Khand	-9554
▁crimes	-9555
▁lesser	-9556
▁voting	-9557
▁Andaman	-9558
▁Projects	-9559
▁orthodox	-9560
▁brilliant	-9561
▁introduce	-9562
▁withdrawn	-9563
rik	-9564
holder	-9565
urable	-9566
▁fourt	-9567
▁games	-9568
▁camera	-9569
▁statute	-9570
▁Personal	-9571
▁disposed	-9572
▁Evolution	-9573
▁Territory	-9574
▁affecting	-9575
▁satellite	-9576
▁formulated	-9577
▁inaugurated	-9578
▁considerably	-9579
▁irrespective	-9580
azi	-9581
▁Kitt	-9582
▁Pack	-9583
▁fool	-9584
▁germ	-9585
▁uter	-9586
▁wake	-9587
icable	-9588
▁Broad	-9589
▁grants	-9590
▁nearest	-9591
▁utility	-9592
▁demanded	-9593
▁residents	-9594
▁BI	-9595
rued	-9596
▁Tat	-9597
▁Camp	-9598
▁Hill	-9599
▁Line	-9600
roller	-9601
▁remun	-9602
▁Tribes	-9603
▁ceremon	-9604
▁Whatever	-9605
▁discount	-9606
▁maturity	-9607
▁deposited	-9608
▁medicines	-9609
▁recovered	-9610
▁Commonwealth	-9611
▁AR	-9612
▁CR	-9613
▁Mer	-9614
▁Pop	-9615
▁ling	-9616
▁Within	-9617
▁bamboo	-9618
▁doubts	-9619
▁exempt	-9620
▁invite	-9621
▁reveal	-9622
▁Manilal	-9623
▁monsoon	-9624
▁contempl	-9625
▁managing	-9626
▁painting	-9627
▁prisoner	-9628
▁gathering	-9629
▁commencing	-9630
▁liabilities	-9631
▁significantly	-9632
OU	-9633
was	-9634
wari	-9635
▁Abs	-9636
onged	-9637
......	-9638
▁Branch	-9639
▁Prince	-9640
▁extrem	-9641
▁Banking	-9642
▁Europeans	-9643
▁considers	-9644
▁recognise	-9645
▁regulatory	-9646
▁statistics	-9647
▁Chhattisgarh	-9648
CA	-9649
}.	-9650
oil	-9651
oub	-9652
awan	-9653
fast	-9654
omas	-9655
▁Fre	-9656
cetic	-9657
▁Poet	-9658
▁Proc	-9659
▁neut	-9660
▁rear	-9661
usalem	-9662
edience	-9663
▁fisher	-9664
▁purity	-9665
aceutical	-9666
▁Secondary	-9667
▁basically	-9668
▁Processing	-9669
▁professionals	-9670
▁substantially	-9671
SI	-9672
▁Ku	-9673
▁१६	-9674
ilee	-9675
orses	-9676
▁obsc	-9677
▁quad	-9678
advant	-9679
akhand	-9680
entral	-9681
▁Appro	-9682
▁cheap	-9683
▁honey	-9684
▁laugh	-9685
▁parad	-9686
▁Father	-9687
▁mature	-9688
▁tempor	-9689
▁affidav	-9690
▁Governors	-9691
▁witnessed	-9692
▁mechanisms	-9693
▁nationalism	-9694
iety	-9695
▁Fig	-9696
riers	-9697
▁gest	-9698
▁lord	-9699
▁oath	-9700
▁Paris	-9701
imental	-9702
▁Contin	-9703
▁Follow	-9704
▁clouds	-9705
▁touched	-9706
▁Buddhism	-9707
▁Recovery	-9708
▁frequency	-9709
▁connecting	-9710
▁Fe	-9711
▁tob	-9712
▁agro	-9713
▁Queen	-9714
▁crude	-9715
▁hindi	-9716
▁worst	-9717
▁Amount	-9718
▁emerge	-9719
▁hunger	-9720
▁reiter	-9721
▁Teacher	-9722
▁survive	-9723
▁crossing	-9724
▁linkages	-9725
▁membrane	-9726
▁hospitals	-9727
▁generating	-9728
▁Recommendation	-9729
PA	-9730
▁Lol	-9731
▁Yus	-9732
▁vel	-9733
▁Fold	-9734
▁Pall	-9735
▁angry	-9736
▁enfor	-9737
▁minim	-9738
▁unexp	-9739
version	-9740
▁timely	-9741
▁Studies	-9742
▁chronic	-9743
▁subsidi	-9744
unciation	-9745
▁allotted	-9746
▁concepts	-9747
▁diabetes	-9748
▁instruct	-9749
▁Palestine	-9750
▁passengers	-9751
▁administrator	-9752
ih	-9753
zing	-9754
utors	-9755
▁Hamas	-9756
▁Radio	-9757
▁Tilak	-9758
▁boost	-9759
arkhand	-9760
aterial	-9761
itement	-9762
▁fallen	-9763
▁Asutosh	-9764
▁dollars	-9765
▁elaborate	-9766
▁elephants	-9767
▁Regulatory	-9768
▁Cooperative	-9769
DM	-9770
kin	-9771
olk	-9772
▁',	-9773
usha	-9774
▁hol	-9775
agari	-9776
orthy	-9777
▁Full	-9778
▁drew	-9779
▁Koran	-9780
▁embod	-9781
▁grade	-9782
▁guess	-9783
▁rupee	-9784
icating	-9785
▁Friend	-9786
▁Period	-9787
▁cancel	-9788
▁worksh	-9789
aughters	-9790
▁Village	-9791
▁shelter	-9792
▁sincere	-9793
▁undergo	-9794
▁helpless	-9795
▁Singapore	-9796
▁complement	-9797
▁quantities	-9798
aped	-9799
rypt	-9800
▁cod	-9801
▁tit	-9802
▁jute	-9803
▁lays	-9804
▁bliss	-9805
ciences	-9806
▁Lolita	-9807
▁coffee	-9808
▁errors	-9809
▁presum	-9810
▁Contact	-9811
▁computed	-9812
▁criteria	-9813
▁Jerusalem	-9814
▁Judiciary	-9815
▁subjected	-9816
▁altogether	-9817
▁Enterprises	-9818
MM	-9819
bl	-9820
eda	-9821
gon	-9822
win	-9823
▁Ve	-9824
Tube	-9825
udra	-9826
▁Run	-9827
▁Sha	-9828
▁ray	-9829
▁sar	-9830
▁Mall	-9831
▁shed	-9832
▁Almast	-9833
▁consec	-9834
▁curric	-9835
▁guided	-9836
▁refuse	-9837
▁solemn	-9838
iliation	-9839
▁coconut	-9840
▁Community	-9841
▁locations	-9842
▁testimony	-9843
▁biological	-9844
▁capability	-9845
▁imperative	-9846
ibh	-9847
term	-9848
▁Mas	-9849
▁Mrs	-9850
▁Sab	-9851
▁Yusuf	-9852
▁smart	-9853
▁cavity	-9854
▁rarely	-9855
▁Connect	-9856
▁leaflet	-9857
▁controls	-9858
▁scenario	-9859
five	-9860
icts	-9861
▁Hum	-9862
▁Sit	-9863
▁SAYS	-9864
▁Step	-9865
▁Exper	-9866
▁camel	-9867
▁Kanpur	-9868
▁Object	-9869
▁Conduct	-9870
▁subtract	-9871
▁treasure	-9872
▁Arunachal	-9873
▁Corporate	-9874
▁daughters	-9875
▁Electronics	-9876
OD	-9877
uds	-9878
▁Mc	-9879
▁Gas	-9880
▁Hyd	-9881
▁wet	-9882
venty	-9883
▁Mich	-9884
▁outs	-9885
▁Appeal	-9886
▁Choose	-9887
▁Rajput	-9888
▁advise	-9889
▁attach	-9890
▁propri	-9891
▁typical	-9892
▁restraint	-9893
▁Literature	-9894
▁	-9895
e	-9896
t	-9897
a	-9898
i	-9899
o	-9900
n	-9901
s	-9902
r	-9903
h	-9904
l	-9905
d	-9906
c	-9907
u	-9908
m	-9909
f	-9910
p	-9911
g	-9912
y	-9913
w	-9914
b	-9915
.	-9916
v	-9917
,	-9918
k	-9919
I	-9920
T	-9921
A	-9922
S	-9923
C	-9924
-	-9925
P	-9926
x	-9927
M	-9928
०	-9929
R	-9930
B	-9931
E	-9932
D	-9933
H	-9934
'	-9935
j	-9936
N	-9937
)	-9938
(	-9939
G	-9940
O	-9941
L	-9942
१	-9943
q	-9944
W	-9945
F	-9946
z	-9947
K	-9948
U	-9949
:	-9950
J	-9951
२	-9952
V	-9953
;	-9954
/	-9955
”	-9956
Y	-9957
“	-9958
३	-9959
?	-9960
0	-9961
%	-9962
’	-9963
"	-9964
४	-9965
>	-9966
<	-9967
&	-9968
५	-9969
‘	-9970
Q	-9971
!	-9972
{	-9973
}	-9974
—	-9975
६	-9976
_	-9977
X	-9978
Z	-9979
[	-9980
]	-9981
७	-9982
*	-9983
८	-9984
|	-9985
ा	-9986
–	-9987
९	-9988
$	-9989
्	-9990
=	-9991
ि	-9992
स	-9993
