<unk>	0
<s>	0
</s>	0
UuRrLl	0
DdAaTtEe	0
NnUuMm	0
▁t	-0
he	-1
▁a	-2
▁the	-3
▁o	-4
in	-5
on	-6
re	-7
at	-8
er	-9
▁of	-10
en	-11
ed	-12
is	-13
▁c	-14
it	-15
▁s	-16
ion	-17
▁p	-18
nd	-19
▁b	-20
▁w	-21
▁in	-22
al	-23
or	-24
es	-25
▁f	-26
▁to	-27
ar	-28
an	-29
ing	-30
as	-31
ent	-32
ic	-33
▁d	-34
ou	-35
▁and	-36
ct	-37
▁re	-38
▁th	-39
▁m	-40
ro	-41
le	-42
▁be	-43
▁h	-44
▁C	-45
▁n	-46
st	-47
ation	-48
▁e	-49
▁is	-50
▁T	-51
▁S	-52
ce	-53
id	-54
▁A	-55
▁that	-56
ot	-57
ment	-58
ut	-59
om	-60
ll	-61
▁I	-62
ve	-63
▁con	-64
▁for	-65
se	-66
▁by	-67
▁or	-68
▁on	-69
▁as	-70
pp	-71
▁u	-72
ri	-73
ly	-74
▁pro	-75
▁su	-76
▁l	-77
ad	-78
our	-79
▁de	-80
▁(	-81
ate	-82
▁The	-83
▁an	-84
ur	-85
im	-86
▁P	-87
▁not	-88
ch	-89
il	-90
▁wh	-91
▁app	-92
▁was	-93
ant	-94
her	-95
ver	-96
ourt	-97
▁wit	-98
ter	-99
▁g	-100
ect	-101
ig	-102
ra	-103
▁it	-104
ld	-105
ow	-106
if	-107
▁with	-108
ay	-109
et	-110
▁M	-111
▁R	-112
ere	-113
▁ex	-114
ir	-115
ain	-116
▁Court	-117
qu	-118
ab	-119
ers	-120
am	-121
res	-122
ul	-123
ud	-124
▁H	-125
ess	-126
▁st	-127
nder	-128
▁com	-129
▁v	-130
us	-131
▁B	-132
▁under	-133
ich	-134
▁D	-135
ity	-136
▁has	-137
ge	-138
▁which	-139
▁N	-140
ther	-141
ol	-142
▁he	-143
and	-144
ated	-145
▁sh	-146
ions	-147
est	-148
▁are	-149
▁this	-150
▁al	-151
ist	-152
ak	-153
os	-154
ec	-155
▁ac	-156
▁le	-157
ore	-158
end	-159
iv	-160
▁appe	-161
▁G	-162
▁res	-163
ould	-164
▁any	-165
▁ha	-166
art	-167
ence	-168
od	-169
▁at	-170
ive	-171
ial	-172
▁cas	-173
ies	-174
rom	-175
nt	-176
red	-177
▁j	-178
all	-179
ice	-180
gh	-181
▁In	-182
ted	-183
▁sub	-184
▁from	-185
ition	-186
ust	-187
▁cont	-188
um	-189
igh	-190
ard	-191
▁been	-192
▁have	-193
la	-194
em	-195
ort	-196
ure	-197
▁O	-198
▁prov	-199
un	-200
pon	-201
▁there	-202
▁L	-203
▁J	-204
ance	-205
pl	-206
able	-207
▁Act	-208
aid	-209
▁dis	-210
ction	-211
▁whe	-212
so	-213
▁fa	-214
▁such	-215
▁St	-216
ff	-217
ia	-218
ord	-219
▁case	-220
▁E	-221
ie	-222
over	-223
▁per	-224
▁acc	-225
ned	-226
ution	-227
▁W	-228
ill	-229
▁ad	-230
▁F	-231
lic	-232
ary	-233
▁Ind	-234
▁im	-235
stit	-236
mis	-237
mit	-238
▁int	-239
der	-240
llant	-241
fore	-242
▁ag	-243
▁other	-244
sion	-245
per	-246
th	-247
▁part	-248
▁also	-249
pt	-250
oc	-251
ire	-252
▁we	-253
▁It	-254
su	-255
▁all	-256
▁comp	-257
cl	-258
▁appellant	-259
ru	-260
erv	-261
▁ab	-262
▁cons	-263
▁ch	-264
aw	-265
▁can	-266
overn	-267
▁rec	-268
ee	-269
ame	-270
erson	-271
ght	-272
▁ar	-273
▁had	-274
ous	-275
ade	-276
op	-277
▁y	-278
▁State	-279
▁High	-280
▁en	-281
du	-282
ear	-283
▁off	-284
▁ev	-285
▁no	-286
▁were	-287
..	-288
▁person	-289
▁would	-290
▁imp	-291
ag	-292
▁order	-293
▁may	-294
▁his	-295
ount	-296
▁dec	-297
ations	-298
▁shall	-299
ac	-300
▁jud	-301
age	-302
ection	-303
ision	-304
ied	-305
▁Com	-306
▁Con	-307
min	-308
sed	-309
overnment	-310
▁qu	-311
▁K	-312
pond	-313
rou	-314
▁reg	-315
ict	-316
▁Th	-317
▁U	-318
▁India	-319
ced	-320
ib	-321
ip	-322
▁No	-323
▁ob	-324
▁am	-325
ide	-326
ub	-327
▁rel	-328
fter	-329
pondent	-330
ree	-331
fer	-332
stitution	-333
▁made	-334
▁“	-335
▁se	-336
▁said	-337
▁sp	-338
ific	-339
▁law	-340
used	-341
ject	-342
▁ri	-343
▁its	-344
▁un	-345
pect	-346
orm	-347
▁who	-348
ran	-349
▁tak	-350
▁Government	-351
▁ne	-352
▁pre	-353
▁mat	-354
▁De	-355
ome	-356
ident	-357
sel	-358
use	-359
ments	-360
oin	-361
ind	-362
oun	-363
▁fact	-364
▁pres	-365
rib	-366
etition	-367
ces	-368
▁-	-369
ry	-370
ered	-371
mission	-372
▁Re	-373
ose	-374
iz	-375
▁out	-376
ha	-377
▁right	-378
me	-379
▁respondent	-380
ical	-381
▁year	-382
▁do	-383
ult	-384
▁rep	-385
tain	-386
▁me	-387
iew	-388
▁their	-389
▁before	-390
fere	-391
ise	-392
mitted	-393
▁,	-394
ove	-395
▁r	-396
▁issu	-397
▁only	-398
▁consid	-399
ty	-400
▁judg	-401
ail	-402
pos	-403
▁pur	-404
▁dated	-405
▁court	-406
ost	-407
▁ind	-408
uth	-409
▁if	-410
▁ent	-411
oll	-412
ime	-413
ory	-414
isions	-415
▁so	-416
rit	-417
ish	-418
ious	-419
ile	-420
ates	-421
▁again	-422
ue	-423
▁inv	-424
▁V	-425
form	-426
▁where	-427
▁inc	-428
▁cla	-429
out	-430
▁will	-431
.0	-432
▁one	-433
▁requ	-434
irect	-435
▁inter	-436
▁same	-437
▁applic	-438
▁lear	-439
▁accused	-440
ract	-441
uthor	-442
▁|	-443
ings	-444
ual	-445
istr	-446
▁ass	-447
▁man	-448
ating	-449
ber	-450
▁time	-451
▁ca	-452
▁petition	-453
og	-454
▁k	-455
▁em	-456
▁but	-457
▁As	-458
ong	-459
che	-460
▁learned	-461
ublic	-462
ention	-463
▁def	-464
ities	-465
▁fil	-466
cc	-467
clud	-468
▁SC	-469
ollow	-470
▁against	-471
▁leg	-472
ach	-473
▁held	-474
one	-475
▁being	-476
▁pas	-477
ceed	-478
▁follow	-479
▁Jud	-480
▁after	-481
▁exp	-482
▁should	-483
ine	-484
urther	-485
▁pl	-486
ased	-487
ason	-488
ood	-489
▁pow	-490
ative	-491
▁view	-492
idence	-493
▁Constitution	-494
),	-495
ci	-496
▁appeal	-497
vel	-498
rans	-499
▁pos	-500
not	-501
▁act	-502
▁judgment	-503
▁serv	-504
▁Ch	-505
▁matter	-506
eral	-507
ax	-508
▁provisions	-509
▁'	-510
ork	-511
▁This	-512
ferred	-513
▁spec	-514
ens	-515
▁comm	-516
▁pr	-517
act	-518
ward	-519
ign	-520
nce	-521
oint	-522
▁mak	-523
▁pay	-524
▁tw	-525
ound	-526
▁ter	-527
▁giv	-528
oy	-529
▁coun	-530
cy	-531
▁land	-532
▁Pro	-533
▁quest	-534
ational	-535
ffect	-536
▁record	-537
▁into	-538
ute	-539
▁they	-540
are	-541
▁reason	-542
ided	-543
▁cannot	-544
▁him	-545
▁proceed	-546
ged	-547
rial	-548
▁Sh	-549
▁proper	-550
old	-551
▁direct	-552
▁filed	-553
ok	-554
▁trans	-555
▁li	-556
▁author	-557
ving	-558
ved	-559
▁respect	-560
aint	-561
ility	-562
ified	-563
▁We	-564
▁op	-565
ature	-566
▁when	-567
▁two	-568
▁conc	-569
▁set	-570
ors	-571
▁‘	-572
lect	-573
▁evidence	-574
▁consider	-575
....	-576
ness	-577
▁further	-578
we	-579
iction	-580
▁.	-581
▁pla	-582
▁ext	-583
hed	-584
▁above	-585
▁our	-586
▁pol	-587
▁appro	-588
ast	-589
▁Su	-590
▁He	-591
▁counsel	-592
own	-593
▁must	-594
▁pri	-595
▁There	-596
ession	-597
med	-598
▁char	-599
led	-600
ase	-601
ath	-602
ular	-603
▁SCC	-604
ral	-605
rant	-606
▁bet	-607
▁public	-608
ired	-609
▁years	-610
▁taken	-611
▁regard	-612
icial	-613
▁state	-614
▁includ	-615
▁[	-616
erest	-617
el	-618
very	-619
ised	-620
ally	-621
cept	-622
erc	-623
▁question	-624
▁Un	-625
▁Ex	-626
ever	-627
irst	-628
▁present	-629
▁within	-630
ms	-631
isl	-632
▁them	-633
ph	-634
ible	-635
▁decision	-636
▁upon	-637
▁work	-638
wn	-639
▁power	-640
▁these	-641
▁amount	-642
ian	-643
pre	-644
bit	-645
▁over	-646
arl	-647
iod	-648
▁Rs	-649
▁Ben	-650
ond	-651
▁whether	-652
▁interest	-653
ploy	-654
ended	-655
ank	-656
▁bec	-657
ild	-658
▁On	-659
▁period	-660
▁App	-661
ween	-662
ges	-663
▁up	-664
ification	-665
▁cl	-666
ight	-667
rimin	-668
▁could	-669
any	-670
aj	-671
▁between	-672
velop	-673
▁cle	-674
▁dif	-675
▁Section	-676
▁given	-677
▁well	-678
▁sec	-679
▁her	-680
sec	-681
mitt	-682
ffic	-683
▁Commission	-684
).	-685
ustice	-686
its	-687
ules	-688
▁val	-689
▁Sing	-690
ited	-691
▁effect	-692
uring	-693
▁submitted	-694
▁application	-695
ecess	-696
▁compl	-697
ven	-698
duct	-699
ference	-700
irc	-701
▁bas	-702
ite	-703
▁mar	-704
▁writ	-705
▁claim	-706
▁concer	-707
ices	-708
▁passed	-709
▁grou	-710
▁supp	-711
ex	-712
▁disc	-713
▁att	-714
▁therefore	-715
▁persons	-716
ief	-717
▁poss	-718
pri	-719
▁clear	-720
▁exam	-721
▁Cent	-722
▁par	-723
ug	-724
▁PW	-725
▁cases	-726
▁rem	-727
ined	-728
und	-729
owever	-730
ances	-731
ior	-732
▁grant	-733
stru	-734
▁Mr	-735
serv	-736
▁even	-737
hi	-738
▁0	-739
▁cer	-740
▁date	-741
▁Pres	-742
▁necess	-743
▁first	-744
▁employ	-745
gu	-746
ale	-747
▁ra	-748
▁than	-749
▁accord	-750
▁Ad	-751
▁mean	-752
dition	-753
▁Bench	-754
▁invest	-755
▁mem	-756
▁read	-757
▁rele	-758
pose	-759
ily	-760
abl	-761
rad	-762
av	-763
▁circ	-764
▁sent	-765
▁prin	-766
ife	-767
▁inform	-768
▁fin	-769
ef	-770
▁suit	-771
oth	-772
eneral	-773
por	-774
ays	-775
▁does	-776
▁Judge	-777
▁cor	-778
▁more	-779
▁referred	-780
cess	-781
▁Ar	-782
rough	-783
▁stat	-784
xad	-785
aring	-786
▁est	-787
ack	-788
▁section	-789
itions	-790
▁observ	-791
part	-792
▁Min	-793
▁conf	-794
vant	-795
ass	-796
▁partic	-797
▁stated	-798
▁form	-799
▁offence	-800
unal	-801
▁prosec	-802
riminal	-803
▁find	-804
port	-805
▁te	-806
ash	-807
ress	-808
▁appellants	-809
▁property	-810
▁parties	-811
bitr	-812
▁while	-813
▁deal	-814
▁subject	-815
▁An	-816
ap	-817
▁through	-818
▁President	-819
ribunal	-820
▁exerc	-821
uris	-822
vers	-823
▁following	-824
ke	-825
▁min	-826
▁some	-827
▁allow	-828
▁purpose	-829
▁/	-830
▁without	-831
▁tax	-832
uted	-833
ull	-834
▁about	-835
con	-836
miss	-837
har	-838
ained	-839
▁&	-840
▁count	-841
▁af	-842
▁Central	-843
ores	-844
igation	-845
▁legisl	-846
mittee	-847
ees	-848
▁Appe	-849
▁var	-850
▁good	-851
▁proceedings	-852
ient	-853
▁av	-854
clus	-855
ep	-856
ater	-857
▁Singh	-858
ough	-859
▁acqu	-860
▁circum	-861
▁concerned	-862
▁report	-863
▁agree	-864
▁trial	-865
▁make	-866
ric	-867
ix	-868
▁facts	-869
▁basis	-870
te	-871
▁hold	-872
▁rece	-873
▁mon	-874
▁ro	-875
▁ground	-876
▁juris	-877
▁provision	-878
▁soc	-879
ner	-880
velopment	-881
ivil	-882
▁ben	-883
▁found	-884
oresaid	-885
▁aforesaid	-886
▁issued	-887
▁witness	-888
▁authority	-889
hal	-890
▁us	-891
▁circumst	-892
▁sc	-893
▁own	-894
▁gu	-895
ety	-896
▁disp	-897
ural	-898
▁Reg	-899
▁issue	-900
eg	-901
ries	-902
▁ord	-903
▁des	-904
sequ	-905
▁ret	-906
ability	-907
pra	-908
ished	-909
▁contract	-910
▁required	-911
▁Res	-912
▁necessary	-913
▁need	-914
ince	-915
▁bel	-916
ting	-917
bers	-918
ferent	-919
enior	-920
diction	-921
anc	-922
cil	-923
section	-924
▁post	-925
▁then	-926
▁Indian	-927
▁here	-928
▁Or	-929
▁appoint	-930
▁award	-931
▁hand	-932
▁process	-933
edu	-934
ith	-935
▁new	-936
▁word	-937
hip	-938
▁clause	-939
▁account	-940
▁Whe	-941
urn	-942
▁service	-943
PC	-944
ew	-945
▁having	-946
▁deter	-947
▁jurisdiction	-948
▁del	-949
▁occ	-950
▁stand	-951
iff	-952
ode	-953
▁different	-954
▁Shri	-955
▁those	-956
▁rev	-957
▁both	-958
▁down	-959
ption	-960
▁three	-961
▁take	-962
ality	-963
▁name	-964
▁establ	-965
cheme	-966
▁consideration	-967
▁ins	-968
▁benef	-969
▁relevant	-970
crib	-971
▁Committee	-972
▁place	-973
ceased	-974
tic	-975
self	-976
▁exec	-977
ister	-978
half	-979
ks	-980
erial	-981
▁Tribunal	-982
▁notice	-983
▁car	-984
iness	-985
ither	-986
▁petitioner	-987
▁behalf	-988
▁aff	-989
▁tre	-990
ouse	-991
ii	-992
other	-993
▁considered	-994
▁terms	-995
▁provid	-996
▁offic	-997
▁kn	-998
ital	-999
ency	-1000
▁arbitr	-1001
▁determin	-1002
▁death	-1003
cip	-1004
▁circumstances	-1005
ody	-1006
▁:	-1007
oard	-1008
▁did	-1009
▁prosecution	-1010
leg	-1011
▁various	-1012
esh	-1013
▁conv	-1014
▁lim	-1015
▁avail	-1016
of	-1017
uty	-1018
man	-1019
▁dem	-1020
▁deceased	-1021
▁col	-1022
lement	-1023
ences	-1024
▁provided	-1025
ants	-1026
tern	-1027
ts	-1028
supra	-1029
chn	-1030
▁like	-1031
raph	-1032
after	-1033
▁co	-1034
▁Del	-1035
▁pe	-1036
▁object	-1037
ren	-1038
onment	-1039
ized	-1040
▁oper	-1041
▁during	-1042
▁rights	-1043
IR	-1044
▁material	-1045
▁opin	-1046
▁prev	-1047
ocu	-1048
ointed	-1049
▁particular	-1050
ures	-1051
▁Rules	-1052
ination	-1053
ending	-1054
▁dist	-1055
▁information	-1056
omm	-1057
▁equ	-1058
▁Ru	-1059
▁she	-1060
▁inst	-1061
ier	-1062
▁Acc	-1063
ause	-1064
▁statement	-1065
▁certain	-1066
ents	-1067
▁what	-1068
▁company	-1069
lection	-1070
▁including	-1071
▁nature	-1072
ret	-1073
cedure	-1074
▁However	-1075
ful	-1076
▁Delhi	-1077
▁adv	-1078
▁opinion	-1079
▁det	-1080
▁docu	-1081
ram	-1082
▁conduct	-1083
▁agreement	-1084
▁legal	-1085
▁num	-1086
▁If	-1087
▁inj	-1088
▁comple	-1089
▁life	-1090
▁Sec	-1091
▁non	-1092
▁bus	-1093
▁month	-1094
▁produ	-1095
▁sit	-1096
▁priv	-1097
allen	-1098
▁main	-1099
olog	-1100
ring	-1101
aintiff	-1102
ages	-1103
/-	-1104
▁contin	-1105
▁import	-1106
▁Coun	-1107
▁exist	-1108
▁see	-1109
▁En	-1110
▁used	-1111
iety	-1112
han	-1113
▁Rule	-1114
▁Comp	-1115
▁rest	-1116
▁manner	-1117
▁respondents	-1118
ogn	-1119
ov	-1120
▁For	-1121
▁mention	-1122
▁Sp	-1123
arlia	-1124
ourse	-1125
▁cond	-1126
▁Offic	-1127
ople	-1128
arliament	-1129
▁med	-1130
icy	-1131
ived	-1132
▁Chief	-1133
▁Board	-1134
▁et	-1135
▁each	-1136
▁sy	-1137
▁Cha	-1138
▁vi	-1139
sequent	-1140
▁bu	-1141
▁cro	-1142
▁senior	-1143
▁exercise	-1144
▁because	-1145
▁prot	-1146
ris	-1147
▁Justice	-1148
ars	-1149
ave	-1150
.,	-1151
read	-1152
▁income	-1153
ivid	-1154
▁challen	-1155
ati	-1156
ivers	-1157
▁ref	-1158
▁etc	-1159
▁Code	-1160
▁entit	-1161
arge	-1162
▁ru	-1163
posed	-1164
▁members	-1165
▁tr	-1166
▁expres	-1167
▁sale	-1168
▁pun	-1169
▁constru	-1170
preme	-1171
▁due	-1172
▁country	-1173
▁constitution	-1174
▁abs	-1175
▁observed	-1176
gan	-1177
less	-1178
▁princip	-1179
ugned	-1180
▁Union	-1181
▁criminal	-1182
bt	-1183
atory	-1184
▁far	-1185
▁goods	-1186
▁action	-1187
▁police	-1188
cipl	-1189
▁tra	-1190
▁show	-1191
stem	-1192
▁fund	-1193
ning	-1194
see	-1195
the	-1196
tal	-1197
▁cap	-1198
▁impugned	-1199
▁prom	-1200
▁Parliament	-1201
▁cre	-1202
▁Supreme	-1203
cation	-1204
▁result	-1205
▁Wh	-1206
........	-1207
▁call	-1208
▁use	-1209
▁thus	-1210
ives	-1211
ble	-1212
▁business	-1213
ulation	-1214
▁test	-1215
cribed	-1216
priate	-1217
▁fun	-1218
▁compens	-1219
▁reference	-1220
▁inf	-1221
▁payment	-1222
les	-1223
▁allowed	-1224
▁charge	-1225
▁way	-1226
orpor	-1227
▁argu	-1228
▁let	-1229
ator	-1230
▁judicial	-1231
partment	-1232
▁fra	-1233
▁specific	-1234
ook	-1235
▁Ag	-1236
▁pen	-1237
ateg	-1238
iry	-1239
▁child	-1240
▁number	-1241
▁development	-1242
▁require	-1243
▁people	-1244
endment	-1245
▁Pol	-1246
▁since	-1247
▁i	-1248
▁possession	-1249
lig	-1250
▁sim	-1251
ify	-1252
ob	-1253
ES	-1254
▁sentence	-1255
istrict	-1256
▁available	-1257
ividual	-1258
▁Man	-1259
▁earl	-1260
osed	-1261
▁recorded	-1262
▁according	-1263
ivision	-1264
ft	-1265
▁pass	-1266
istration	-1267
ma	-1268
ising	-1269
row	-1270
clusion	-1271
▁assess	-1272
▁fail	-1273
als	-1274
tra	-1275
▁paid	-1276
▁apply	-1277
▁words	-1278
▁just	-1279
▁invol	-1280
tained	-1281
▁plaintiff	-1282
▁every	-1283
▁day	-1284
▁add	-1285
▁appointment	-1286
iance	-1287
par	-1288
▁very	-1289
stitut	-1290
▁situ	-1291
▁ident	-1292
ately	-1293
▁entitled	-1294
▁punish	-1295
:-	-1296
▁individual	-1297
▁Mar	-1298
ket	-1299
▁services	-1300
ecial	-1301
▁duty	-1302
▁OF	-1303
agraph	-1304
reed	-1305
▁subst	-1306
▁appropriate	-1307
▁party	-1308
▁opp	-1309
▁prof	-1310
▁edu	-1311
▁Y	-1312
▁expl	-1313
▁Law	-1314
▁Courts	-1315
ai	-1316
▁ple	-1317
▁defend	-1318
atis	-1319
▁viol	-1320
jud	-1321
ready	-1322
▁based	-1323
▁area	-1324
▁pract	-1325
▁orders	-1326
▁already	-1327
▁either	-1328
▁earlier	-1329
▁back	-1330
resent	-1331
▁investigation	-1332
▁Am	-1333
▁another	-1334
▁recomm	-1335
▁justice	-1336
ys	-1337
rol	-1338
▁conditions	-1339
▁ten	-1340
▁Therefore	-1341
ext	-1342
▁National	-1343
▁promot	-1344
▁sum	-1345
for	-1346
▁Bank	-1347
▁dra	-1348
▁Officer	-1349
▁complaint	-1350
atisf	-1351
▁compensation	-1352
▁making	-1353
00	-1354
▁At	-1355
▁fore	-1356
ah	-1357
▁contained	-1358
AR	-1359
ancial	-1360
unity	-1361
▁second	-1362
▁statut	-1363
▁special	-1364
ought	-1365
TI	-1366
ang	-1367
▁go	-1368
▁granted	-1369
inal	-1370
▁mentioned	-1371
▁Sub	-1372
▁States	-1373
▁indust	-1374
▁along	-1375
uk	-1376
▁fav	-1377
▁follows	-1378
king	-1379
▁letter	-1380
▁laid	-1381
▁itself	-1382
▁appeals	-1383
ilar	-1384
ctions	-1385
▁policy	-1386
▁came	-1387
▁system	-1388
▁cent	-1389
▁committed	-1390
app	-1391
▁Raj	-1392
▁scheme	-1393
▁General	-1394
pted	-1395
▁Division	-1396
alth	-1397
wise	-1398
ten	-1399
▁means	-1400
▁er	-1401
▁general	-1402
▁init	-1403
▁cause	-1404
▁principle	-1405
ditional	-1406
▁favour	-1407
▁position	-1408
▁placed	-1409
ON	-1410
ines	-1411
▁mer	-1412
▁reasons	-1413
▁ph	-1414
▁All	-1415
▁value	-1416
▁end	-1417
ple	-1418
▁ve	-1419
essee	-1420
▁course	-1421
▁loc	-1422
▁support	-1423
EN	-1424
ss	-1425
▁bl	-1426
▁provide	-1427
▁satisf	-1428
here	-1429
▁powers	-1430
▁Council	-1431
▁relating	-1432
▁matters	-1433
eep	-1434
hav	-1435
ested	-1436
ER	-1437
▁mis	-1438
▁Not	-1439
▁cost	-1440
▁rule	-1441
▁Minister	-1442
itation	-1443
▁though	-1444
pons	-1445
by	-1446
▁Sche	-1447
anding	-1448
▁techn	-1449
▁Leg	-1450
uman	-1451
▁dou	-1452
andid	-1453
▁Civil	-1454
▁days	-1455
▁officer	-1456
▁you	-1457
▁represent	-1458
ication	-1459
▁Petition	-1460
▁constitutional	-1461
ried	-1462
▁sur	-1463
▁provides	-1464
missed	-1465
▁herein	-1466
agistr	-1467
ining	-1468
▁Direct	-1469
uch	-1470
ential	-1471
af	-1472
▁candid	-1473
▁Author	-1474
▁dismissed	-1475
▁Se	-1476
▁sect	-1477
▁specified	-1478
conom	-1479
▁valid	-1480
ively	-1481
▁lead	-1482
poses	-1483
▁chan	-1484
▁except	-1485
▁witnesses	-1486
ruct	-1487
▁courts	-1488
▁body	-1489
▁Gu	-1490
ashtra	-1491
▁interpre	-1492
▁ens	-1493
▁gre	-1494
▁bank	-1495
rect	-1496
▁elect	-1497
▁meet	-1498
▁entire	-1499
▁prescribed	-1500
▁alle	-1501
▁transfer	-1502
▁compet	-1503
▁perform	-1504
▁enact	-1505
istered	-1506
▁IPC	-1507
▁point	-1508
ata	-1509
▁project	-1510
▁Ass	-1511
ording	-1512
▁rules	-1513
hib	-1514
▁depos	-1515
▁class	-1516
▁Thus	-1517
ared	-1518
▁accept	-1519
rie	-1520
agistrate	-1521
▁cred	-1522
▁society	-1523
▁prog	-1524
▁know	-1525
▁stud	-1526
▁Prad	-1527
quiry	-1528
▁accordance	-1529
▁submission	-1530
ering	-1531
llate	-1532
▁fam	-1533
▁house	-1534
▁received	-1535
▁decl	-1536
▁Lt	-1537
AN	-1538
▁sign	-1539
▁indic	-1540
ari	-1541
▁mod	-1542
▁Part	-1543
gg	-1544
▁ser	-1545
▁come	-1546
▁open	-1547
▁II	-1548
ather	-1549
wards	-1550
▁paragraph	-1551
▁categ	-1552
ell	-1553
agement	-1554
rime	-1555
▁aside	-1556
▁directed	-1557
▁alleged	-1558
▁dispute	-1559
▁purposes	-1560
▁namely	-1561
ology	-1562
▁Respondent	-1563
▁bro	-1564
ured	-1565
▁mere	-1566
iary	-1567
▁Ram	-1568
▁activ	-1569
▁taking	-1570
▁asse	-1571
▁continu	-1572
ck	-1573
▁discus	-1574
▁force	-1575
▁full	-1576
▁however	-1577
▁detail	-1578
soci	-1579
cing	-1580
▁orig	-1581
▁According	-1582
▁done	-1583
▁stage	-1584
▁Serv	-1585
▁office	-1586
ibility	-1587
tak	-1588
▁benefit	-1589
▁procedure	-1590
▁constit	-1591
▁give	-1592
▁medical	-1593
▁high	-1594
▁months	-1595
▁admin	-1596
▁statutory	-1597
with	-1598
▁build	-1599
▁Magistrate	-1600
irm	-1601
▁decisions	-1602
▁vide	-1603
missions	-1604
spect	-1605
▁conclusion	-1606
▁thereof	-1607
acy	-1608
▁lit	-1609
mber	-1610
urre	-1611
▁To	-1612
oss	-1613
ne	-1614
way	-1615
air	-1616
▁Prov	-1617
tific	-1618
▁Mem	-1619
▁Ltd	-1620
▁get	-1621
eed	-1622
▁notification	-1623
olution	-1624
▁otherwise	-1625
isition	-1626
taining	-1627
▁Te	-1628
mb	-1629
▁fl	-1630
ciples	-1631
AL	-1632
ya	-1633
▁establish	-1634
ulations	-1635
BI	-1636
epend	-1637
▁acce	-1638
▁Department	-1639
▁common	-1640
chan	-1641
▁met	-1642
▁Pradesh	-1643
▁important	-1644
val	-1645
oney	-1646
▁cust	-1647
▁che	-1648
▁offences	-1649
▁Police	-1650
umar	-1651
▁deem	-1652
▁Legisl	-1653
duced	-1654
▁That	-1655
orted	-1656
▁econom	-1657
▁appointed	-1658
stitutions	-1659
▁District	-1660
▁financial	-1661
▁assessee	-1662
▁exper	-1663
▁Commissioner	-1664
inary	-1665
▁Dr	-1666
▁aspect	-1667
ID	-1668
▁pat	-1669
ked	-1670
▁After	-1671
▁raised	-1672
lied	-1673
▁Govern	-1674
▁sett	-1675
▁conn	-1676
▁long	-1677
▁mind	-1678
orporation	-1679
▁purch	-1680
▁Judges	-1681
▁Eng	-1682
▁note	-1683
▁prior	-1684
empt	-1685
anies	-1686
get	-1687
overed	-1688
▁ir	-1689
fficient	-1690
▁clearly	-1691
▁my	-1692
▁Bh	-1693
mental	-1694
▁now	-1695
lause	-1696
▁hig	-1697
▁Par	-1698
▁recogn	-1699
dule	-1700
▁registered	-1701
ons	-1702
▁Col	-1703
▁Co	-1704
▁put	-1705
▁dep	-1706
igned	-1707
▁Univers	-1708
▁accepted	-1709
▁remain	-1710
▁But	-1711
▁refer	-1712
▁Authority	-1713
ool	-1714
▁New	-1715
utive	-1716
▁arbitration	-1717
rought	-1718
▁private	-1719
▁final	-1720
▁Special	-1721
ters	-1722
risonment	-1723
▁petitioners	-1724
▁expression	-1725
▁Pr	-1726
▁documents	-1727
▁noted	-1728
▁They	-1729
▁rate	-1730
▁sought	-1731
ulated	-1732
▁Cr	-1733
arily	-1734
▁Al	-1735
▁Public	-1736
▁Appeal	-1737
rest	-1738
ards	-1739
oh	-1740
hic	-1741
▁IN	-1742
▁These	-1743
▁correct	-1744
PW	-1745
▁Order	-1746
▁str	-1747
uf	-1748
itor	-1749
riage	-1750
▁less	-1751
up	-1752
▁Further	-1753
▁wom	-1754
▁doubt	-1755
▁total	-1756
▁organ	-1757
▁san	-1758
▁decided	-1759
▁recommend	-1760
▁government	-1761
▁reasonable	-1762
▁meaning	-1763
▁sever	-1764
▁Report	-1765
▁Cont	-1766
▁context	-1767
istry	-1768
▁opport	-1769
▁imprisonment	-1770
uly	-1771
▁decree	-1772
hes	-1773
▁extent	-1774
lf	-1775
▁defendant	-1776
ird	-1777
▁respons	-1778
▁appearing	-1779
▁ur	-1780
▁principles	-1781
▁age	-1782
...	-1783
▁fix	-1784
▁substant	-1785
▁assessment	-1786
arn	-1787
ging	-1788
▁charges	-1789
ury	-1790
▁applicable	-1791
▁education	-1792
▁Artic	-1793
ower	-1794
▁civil	-1795
▁water	-1796
▁contended	-1797
▁established	-1798
standing	-1799
▁incident	-1800
▁adver	-1801
▁reject	-1802
▁Kumar	-1803
▁nor	-1804
action	-1805
au	-1806
ainant	-1807
▁env	-1808
▁employees	-1809
sp	-1810
▁list	-1811
▁mand	-1812
▁undertak	-1813
ajor	-1814
iber	-1815
▁level	-1816
▁gen	-1817
▁separ	-1818
▁took	-1819
ik	-1820
ization	-1821
ufact	-1822
ray	-1823
IC	-1824
▁examined	-1825
▁lic	-1826
▁issues	-1827
▁relied	-1828
▁Criminal	-1829
▁den	-1830
ictim	-1831
ield	-1832
▁incre	-1833
▁affect	-1834
imum	-1835
▁ensure	-1836
▁family	-1837
▁called	-1838
▁Ma	-1839
▁below	-1840
▁review	-1841
oper	-1842
▁unless	-1843
▁Adv	-1844
▁human	-1845
▁initi	-1846
▁amendment	-1847
▁brought	-1848
day	-1849
▁subsequent	-1850
▁discl	-1851
▁meas	-1852
▁authorities	-1853
▁holding	-1854
▁When	-1855
▁Company	-1856
▁ann	-1857
arent	-1858
▁regarding	-1859
utes	-1860
▁fall	-1861
▁lease	-1862
▁suff	-1863
▁examination	-1864
▁Corporation	-1865
angu	-1866
▁hearing	-1867
▁market	-1868
sw	-1869
amental	-1870
osp	-1871
uses	-1872
urity	-1873
▁Lear	-1874
▁money	-1875
ron	-1876
▁sugg	-1877
--	-1878
ense	-1879
▁Nos	-1880
ically	-1881
ructure	-1882
▁victim	-1883
▁several	-1884
▁possible	-1885
omb	-1886
ached	-1887
▁care	-1888
itiz	-1889
ism	-1890
▁short	-1891
mes	-1892
ironment	-1893
▁function	-1894
havan	-1895
▁institutions	-1896
orld	-1897
▁demand	-1898
irection	-1899
▁decla	-1900
ger	-1901
▁independ	-1902
▁delay	-1903
hold	-1904
akh	-1905
▁relation	-1906
▁Mad	-1907
▁ess	-1908
▁ver	-1909
▁others	-1910
▁vehic	-1911
ps	-1912
overy	-1913
▁social	-1914
▁mot	-1915
tificate	-1916
hing	-1917
II	-1918
vi	-1919
▁liable	-1920
▁similar	-1921
ves	-1922
▁nan	-1923
eak	-1924
▁penal	-1925
▁treat	-1926
▁major	-1927
▁towards	-1928
ace	-1929
ira	-1930
▁implement	-1931
ways	-1932
pe	-1933
▁Learned	-1934
▁most	-1935
ercial	-1936
▁appre	-1937
▁complete	-1938
▁cop	-1939
ENT	-1940
▁Governor	-1941
▁relief	-1942
aged	-1943
▁direction	-1944
▁conviction	-1945
▁enter	-1946
▁propos	-1947
▁original	-1948
▁vis	-1949
mon	-1950
ana	-1951
urance	-1952
▁situation	-1953
▁PR	-1954
uled	-1955
▁become	-1956
▁Ministry	-1957
▁succ	-1958
▁light	-1959
▁institution	-1960
▁construction	-1961
▁control	-1962
▁Bhavan	-1963
▁manufact	-1964
▁pointed	-1965
na	-1966
AT	-1967
▁Pl	-1968
oid	-1969
idav	-1970
▁term	-1971
ually	-1972
▁complainant	-1973
▁free	-1974
▁deemed	-1975
▁express	-1976
band	-1977
▁your	-1978
▁document	-1979
come	-1980
chool	-1981
▁eng	-1982
▁Secret	-1983
▁artic	-1984
▁therein	-1985
▁And	-1986
▁plan	-1987
▁reserv	-1988
▁say	-1989
▁doct	-1990
▁interpret	-1991
▁head	-1992
▁member	-1993
▁Tax	-1994
▁pursu	-1995
▁till	-1996
▁product	-1997
▁judgments	-1998
▁previous	-1999
iso	-2000
▁share	-2001
HE	-2002
▁many	-2003
▁large	-2004
medi	-2005
anation	-2006
▁occas	-2007
▁relig	-2008
▁event	-2009
▁answ	-2010
atural	-2011
▁legislation	-2012
isation	-2013
▁pet	-2014
az	-2015
▁loss	-2016
▁sal	-2017
rust	-2018
▁qual	-2019
▁develop	-2020
▁areas	-2021
CI	-2022
▁finding	-2023
▁pending	-2024
▁declar	-2025
▁directions	-2026
▁err	-2027
▁wherein	-2028
iced	-2029
▁Director	-2030
▁vac	-2031
ledge	-2032
▁defin	-2033
▁disch	-2034
▁ke	-2035
▁relations	-2036
▁building	-2037
▁facil	-2038
unic	-2039
▁alleg	-2040
ories	-2041
▁trade	-2042
▁fundamental	-2043
▁giving	-2044
▁protect	-2045
▁While	-2046
▁proved	-2047
▁FIR	-2048
▁filing	-2049
lying	-2050
▁five	-2051
ta	-2052
ospital	-2053
iii	-2054
▁citiz	-2055
▁real	-2056
▁AIR	-2057
▁payable	-2058
▁submit	-2059
▁contention	-2060
ope	-2061
▁affidav	-2062
▁Under	-2063
▁higher	-2064
▁University	-2065
pati	-2066
१०	-2067
Ex	-2068
essions	-2069
▁Be	-2070
ably	-2071
▁six	-2072
bs	-2073
▁Scheme	-2074
▁proviso	-2075
ides	-2076
▁collect	-2077
ake	-2078
▁Muk	-2079
▁instru	-2080
▁para	-2081
mbly	-2082
▁health	-2083
une	-2084
DA	-2085
▁thereafter	-2086
▁include	-2087
▁Off	-2088
missible	-2089
illeg	-2090
ink	-2091
▁Fin	-2092
▁laws	-2093
essional	-2094
▁sufficient	-2095
▁involved	-2096
▁condition	-2097
▁tru	-2098
▁Development	-2099
▁bail	-2100
▁Schedule	-2101
▁price	-2102
▁saf	-2103
▁leave	-2104
▁norm	-2105
iding	-2106
▁absence	-2107
▁contain	-2108
ashtrapati	-2109
▁proceeding	-2110
chie	-2111
▁intern	-2112
▁neg	-2113
rat	-2114
▁statute	-2115
▁acquisition	-2116
▁arrest	-2117
▁illeg	-2118
ock	-2119
ricult	-2120
▁lo	-2121
▁Chap	-2122
com	-2123
reedom	-2124
pril	-2125
▁agg	-2126
to	-2127
▁Bill	-2128
▁sanction	-2129
▁Rashtrapati	-2130
ises	-2131
jee	-2132
phas	-2133
▁fee	-2134
▁treated	-2135
▁carry	-2136
▁contr	-2137
▁intention	-2138
anguage	-2139
],	-2140
IT	-2141
▁bre	-2142
▁four	-2143
▁written	-2144
▁pray	-2145
▁among	-2146
▁premis	-2147
▁regular	-2148
▁sm	-2149
work	-2150
▁crime	-2151
ium	-2152
▁grow	-2153
▁particip	-2154
▁achie	-2155
▁consist	-2156
▁officers	-2157
▁opportunity	-2158
▁keep	-2159
▁Chapter	-2160
que	-2161
▁deed	-2162
▁protection	-2163
▁world	-2164
▁Appellant	-2165
ience	-2166
uary	-2167
▁submissions	-2168
▁essential	-2169
ours	-2170
▁competent	-2171
▁By	-2172
▁wind	-2173
▁She	-2174
▁much	-2175
▁admitted	-2176
ends	-2177
ics	-2178
▁Writ	-2179
▁last	-2180
▁April	-2181
▁Med	-2182
▁Bomb	-2183
▁existing	-2184
▁guil	-2185
▁personal	-2186
vention	-2187
venue	-2188
▁fe	-2189
▁impro	-2190
▁left	-2191
▁children	-2192
▁Jan	-2193
▁challenge	-2194
acity	-2195
▁rend	-2196
▁framed	-2197
▁interpretation	-2198
▁tem	-2199
icult	-2200
▁fac	-2201
hen	-2202
▁war	-2203
▁fair	-2204
formation	-2205
▁Procedure	-2206
resh	-2207
▁Where	-2208
ternal	-2209
▁today	-2210
▁sche	-2211
▁serious	-2212
▁contem	-2213
usband	-2214
▁merely	-2215
▁March	-2216
▁judic	-2217
OR	-2218
▁acquit	-2219
ember	-2220
▁conducted	-2221
▁accordingly	-2222
▁dedu	-2223
▁allot	-2224
▁Bombay	-2225
▁heard	-2226
▁List	-2227
▁assist	-2228
▁bar	-2229
▁har	-2230
▁noticed	-2231
equ	-2232
▁aut	-2233
▁Such	-2234
▁legislative	-2235
ension	-2236
▁punishment	-2237
vey	-2238
▁legislature	-2239
▁reads	-2240
▁working	-2241
pur	-2242
▁THE	-2243
▁Me	-2244
▁occasion	-2245
yond	-2246
IN	-2247
▁awarded	-2248
ires	-2249
▁hel	-2250
▁port	-2251
erated	-2252
▁dri	-2253
▁furn	-2254
▁Soc	-2255
ties	-2256
▁Clause	-2257
reg	-2258
▁economic	-2259
▁proposed	-2260
▁enfor	-2261
▁House	-2262
ancy	-2263
▁marriage	-2264
▁immedi	-2265
▁providing	-2266
▁owner	-2267
▁super	-2268
▁Lim	-2269
▁step	-2270
▁followed	-2271
▁official	-2272
orth	-2273
go	-2274
▁activities	-2275
dra	-2276
ender	-2277
▁prep	-2278
lim	-2279
cluded	-2280
▁declaration	-2281
retion	-2282
IA	-2283
▁sust	-2284
▁freedom	-2285
ipt	-2286
▁beyond	-2287
LP	-2288
▁role	-2289
umb	-2290
▁fine	-2291
▁applied	-2292
▁approach	-2293
ently	-2294
enced	-2295
▁program	-2296
▁Indust	-2297
▁candidates	-2298
▁Secretary	-2299
▁Provided	-2300
▁contrary	-2301
▁bal	-2302
▁foreign	-2303
ocate	-2304
▁Service	-2305
▁produced	-2306
▁security	-2307
▁restr	-2308
▁dealing	-2309
▁rejected	-2310
atives	-2311
rieved	-2312
▁knowledge	-2313
▁field	-2314
▁observations	-2315
erve	-2316
▁companies	-2317
ault	-2318
▁consum	-2319
ery	-2320
law	-2321
TION	-2322
amp	-2323
▁needs	-2324
▁sector	-2325
round	-2326
uries	-2327
▁mining	-2328
ership	-2329
▁affidavit	-2330
▁Single	-2331
aries	-2332
▁belong	-2333
▁contrib	-2334
▁expressed	-2335
▁petitions	-2336
▁intro	-2337
▁declared	-2338
abil	-2339
▁certificate	-2340
▁Chand	-2341
anch	-2342
ught	-2343
▁tit	-2344
wal	-2345
▁und	-2346
▁Chair	-2347
▁commission	-2348
▁discretion	-2349
eration	-2350
ize	-2351
▁considering	-2352
de	-2353
aving	-2354
▁file	-2355
▁rendered	-2356
▁return	-2357
▁whole	-2358
▁anal	-2359
▁vill	-2360
enc	-2361
▁Asse	-2362
▁dam	-2363
▁how	-2364
▁bring	-2365
▁vehicle	-2366
▁functions	-2367
vest	-2368
▁best	-2369
▁natural	-2370
▁management	-2371
▁lakh	-2372
▁adjud	-2373
▁requirement	-2374
▁local	-2375
▁grounds	-2376
▁preferred	-2377
arant	-2378
▁start	-2379
▁practice	-2380
▁nex	-2381
ues	-2382
▁penalty	-2383
▁women	-2384
▁success	-2385
▁election	-2386
▁Pri	-2387
▁registration	-2388
▁es	-2389
)(	-2390
▁With	-2391
▁maintain	-2392
▁appreci	-2393
▁premises	-2394
under	-2395
▁imposed	-2396
ources	-2397
abad	-2398
▁fut	-2399
▁concept	-2400
▁distin	-2401
▁language	-2402
▁argued	-2403
................	-2404
aka	-2405
▁approval	-2406
▁appears	-2407
▁credit	-2408
▁run	-2409
ional	-2410
▁execution	-2411
▁receipt	-2412
▁Trial	-2413
sociation	-2414
omet	-2415
▁employee	-2416
▁known	-2417
▁punishable	-2418
▁Comm	-2419
▁states	-2420
tt	-2421
bsite	-2422
▁reliance	-2423
▁diff	-2424
▁Mukher	-2425
▁Judicial	-2426
thing	-2427
▁First	-2428
▁husband	-2429
icted	-2430
▁continue	-2431
ogniz	-2432
▁capital	-2433
▁inn	-2434
▁Hon	-2435
iving	-2436
▁questions	-2437
▁impl	-2438
▁gra	-2439
illed	-2440
▁basic	-2441
▁withdra	-2442
▁liability	-2443
ware	-2444
▁Dis	-2445
▁x	-2446
▁enc	-2447
encies	-2448
▁prohib	-2449
stitute	-2450
land	-2451
▁seen	-2452
▁third	-2453
▁whose	-2454
▁addition	-2455
▁carried	-2456
▁Even	-2457
▁book	-2458
▁additional	-2459
acc	-2460
▁benefits	-2461
▁great	-2462
▁ce	-2463
▁copy	-2464
▁repe	-2465
▁treatment	-2466
reng	-2467
▁liber	-2468
lines	-2469
▁termin	-2470
tion	-2471
▁fixed	-2472
imate	-2473
▁environment	-2474
▁Rec	-2475
opted	-2476
▁operation	-2477
ares	-2478
▁change	-2479
▁acquired	-2480
▁limited	-2481
▁dom	-2482
▁Cons	-2483
▁rent	-2484
▁plead	-2485
▁caused	-2486
११	-2487
▁failed	-2488
▁Appellate	-2489
▁Mukherjee	-2490
earch	-2491
ases	-2492
▁satisfied	-2493
▁Ab	-2494
▁trust	-2495
igating	-2496
ully	-2497
▁production	-2498
jection	-2499
▁emp	-2500
▁May	-2501
▁settled	-2502
▁wife	-2503
▁adopted	-2504
▁SLP	-2505
rong	-2506
duled	-2507
▁whom	-2508
▁request	-2509
lege	-2510
▁outs	-2511
▁Ent	-2512
ugust	-2513
▁executive	-2514
▁national	-2515
▁polit	-2516
alc	-2517
urrent	-2518
’.	-2519
▁Additional	-2520
ats	-2521
▁away	-2522
▁imm	-2523
▁Is	-2524
▁students	-2525
▁recovery	-2526
hod	-2527
racted	-2528
▁consp	-2529
acher	-2530
▁January	-2531
▁industrial	-2532
▁true	-2533
▁prevent	-2534
▁consequ	-2535
▁category	-2536
▁makes	-2537
cember	-2538
▁scope	-2539
cer	-2540
▁arising	-2541
▁consent	-2542
ony	-2543
▁defined	-2544
▁website	-2545
▁injuries	-2546
▁nothing	-2547
▁Sessions	-2548
imes	-2549
▁meeting	-2550
▁signific	-2551
▁Le	-2552
int	-2553
abour	-2554
▁Since	-2555
▁defence	-2556
▁himself	-2557
▁ut	-2558
▁elig	-2559
ans	-2560
▁corpor	-2561
▁remed	-2562
▁amended	-2563
ross	-2564
▁dealt	-2565
▁streng	-2566
▁related	-2567
▁commercial	-2568
▁Income	-2569
▁Karn	-2570
▁seeking	-2571
▁Information	-2572
▁difficult	-2573
▁Pre	-2574
airs	-2575
fully	-2576
istrative	-2577
▁ought	-2578
▁instant	-2579
oor	-2580
▁separate	-2581
ataka	-2582
arch	-2583
▁subs	-2584
▁posts	-2585
ators	-2586
▁determined	-2587
▁father	-2588
urd	-2589
▁suggest	-2590
▁resolution	-2591
abor	-2592
▁unt	-2593
▁Expl	-2594
▁details	-2595
▁arri	-2596
orts	-2597
unt	-2598
irt	-2599
▁capacity	-2600
orne	-2601
ying	-2602
▁sex	-2603
▁definition	-2604
acter	-2605
▁future	-2606
▁conferred	-2607
▁countries	-2608
eb	-2609
▁urged	-2610
▁Whether	-2611
▁sing	-2612
IS	-2613
▁determination	-2614
▁inquiry	-2615
war	-2616
▁claimed	-2617
▁help	-2618
▁lev	-2619
▁pension	-2620
▁underst	-2621
ruit	-2622
▁Regulations	-2623
▁eff	-2624
▁stip	-2625
▁bound	-2626
▁liberty	-2627
▁substantial	-2628
▁findings	-2629
▁once	-2630
erg	-2631
▁Pun	-2632
ptember	-2633
anced	-2634
▁applicant	-2635
▁permission	-2636
▁trad	-2637
▁minor	-2638
▁window	-2639
▁cogniz	-2640
▁obtained	-2641
▁August	-2642
▁Assembly	-2643
▁What	-2644
▁covered	-2645
▁nam	-2646
▁Articles	-2647
▁Bi	-2648
▁Karnataka	-2649
▁PRES	-2650
▁Arbitr	-2651
adem	-2652
▁look	-2653
▁outside	-2654
▁executed	-2655
▁prim	-2656
▁wrong	-2657
AC	-2658
▁ran	-2659
▁applications	-2660
▁permitted	-2661
▁acts	-2662
▁consult	-2663
▁quality	-2664
▁performance	-2665
▁specifically	-2666
▁ul	-2667
▁decide	-2668
▁forward	-2669
gether	-2670
▁together	-2671
▁contro	-2672
ancell	-2673
▁Limited	-2674
▁nom	-2675
▁later	-2676
▁December	-2677
▁appellate	-2678
▁Pat	-2679
ala	-2680
▁appear	-2681
ifications	-2682
▁guarant	-2683
▁challenged	-2684
rast	-2685
▁Ter	-2686
cement	-2687
▁Right	-2688
▁argument	-2689
ling	-2690
▁method	-2691
▁govern	-2692
inate	-2693
▁el	-2694
▁integ	-2695
▁training	-2696
cise	-2697
▁dispos	-2698
▁cover	-2699
uation	-2700
▁anything	-2701
ras	-2702
▁international	-2703
▁promotion	-2704
▁Second	-2705
▁assets	-2706
▁setting	-2707
idelines	-2708
▁data	-2709
▁existence	-2710
▁illegal	-2711
▁Legislature	-2712
▁mo	-2713
iture	-2714
uties	-2715
▁debt	-2716
▁judge	-2717
▁vol	-2718
▁convicted	-2719
▁exercised	-2720
▁contempl	-2721
▁expect	-2722
▁cult	-2723
wh	-2724
▁industry	-2725
IL	-2726
▁judiciary	-2727
▁custody	-2728
iet	-2729
▁cho	-2730
itive	-2731
▁cross	-2732
▁includes	-2733
▁character	-2734
sh	-2735
li	-2736
▁validity	-2737
00/-	-2738
tax	-2739
nel	-2740
▁absol	-2741
▁lar	-2742
▁limitation	-2743
▁independent	-2744
▁employment	-2745
▁constituted	-2746
▁next	-2747
▁title	-2748
▁group	-2749
▁violation	-2750
▁September	-2751
▁status	-2752
▁went	-2753
▁deals	-2754
jab	-2755
omes	-2756
▁resident	-2757
▁school	-2758
urer	-2759
▁fri	-2760
▁neither	-2761
▁Im	-2762
▁Cl	-2763
▁Sim	-2764
SC	-2765
▁examine	-2766
▁happ	-2767
▁prosecut	-2768
ource	-2769
▁injury	-2770
▁always	-2771
lfare	-2772
▁phys	-2773
withstanding	-2774
ifying	-2775
▁statements	-2776
▁Edu	-2777
▁informed	-2778
▁fit	-2779
▁entered	-2780
IDENT	-2781
▁gl	-2782
iver	-2783
▁Bar	-2784
clusive	-2785
▁candidate	-2786
▁mult	-2787
▁particularly	-2788
ote	-2789
pro	-2790
▁access	-2791
ober	-2792
▁minimum	-2793
▁thereby	-2794
▁kept	-2795
▁Senior	-2796
▁connect	-2797
▁selection	-2798
ored	-2799
▁discussion	-2800
view	-2801
▁effective	-2802
▁dismiss	-2803
▁Mahar	-2804
▁exceed	-2805
▁regul	-2806
io	-2807
urred	-2808
▁drawn	-2809
▁PRESIDENT	-2810
▁never	-2811
▁plea	-2812
▁supply	-2813
▁requires	-2814
▁intended	-2815
▁content	-2816
▁prove	-2817
▁plant	-2818
▁disposed	-2819
aled	-2820
atures	-2821
▁still	-2822
▁duties	-2823
irmed	-2824
▁relationship	-2825
३०	-2826
ins	-2827
▁growth	-2828
▁included	-2829
▁clar	-2830
agar	-2831
▁One	-2832
▁Engine	-2833
▁measures	-2834
ressed	-2835
▁instance	-2836
oms	-2837
▁opens	-2838
▁Hence	-2839
▁Sab	-2840
▁Trans	-2841
ruary	-2842
▁crit	-2843
▁revision	-2844
ebruary	-2845
▁political	-2846
▁deposit	-2847
▁commence	-2848
ubl	-2849
▁hence	-2850
▁ill	-2851
▁July	-2852
▁face	-2853
▁Admin	-2854
RA	-2855
▁kind	-2856
▁rightly	-2857
▁materials	-2858
▁stay	-2859
aper	-2860
EC	-2861
omp	-2862
▁Punjab	-2863
▁citizens	-2864
▁absolute	-2865
iation	-2866
▁Thereafter	-2867
cient	-2868
▁prepared	-2869
urrence	-2870
▁connection	-2871
pr	-2872
▁steps	-2873
▁joint	-2874
▁oblig	-2875
▁presum	-2876
aff	-2877
▁tribunal	-2878
▁Regulation	-2879
▁tenant	-2880
▁road	-2881
▁ear	-2882
▁play	-2883
▁properties	-2884
▁administration	-2885
gal	-2886
▁presence	-2887
erala	-2888
ctober	-2889
▁Pran	-2890
▁vested	-2891
▁occup	-2892
▁Chairman	-2893
▁territ	-2894
▁rese	-2895
▁virt	-2896
iously	-2897
selves	-2898
▁limit	-2899
▁mor	-2900
▁merit	-2901
▁mort	-2902
▁interim	-2903
▁extend	-2904
▁default	-2905
▁Em	-2906
mitting	-2907
▁Def	-2908
▁Techn	-2909
▁shown	-2910
▁discharge	-2911
▁guilty	-2912
'.	-2913
▁agreed	-2914
▁Lord	-2915
▁shares	-2916
▁agricult	-2917
▁approved	-2918
lu	-2919
▁community	-2920
usal	-2921
men	-2922
▁lay	-2923
jar	-2924
▁hospital	-2925
▁experience	-2926
vent	-2927
▁signed	-2928
adha	-2929
.)	-2930
▁educ	-2931
▁Sm	-2932
rish	-2933
▁records	-2934
▁transferred	-2935
▁Kerala	-2936
▁design	-2937
▁technical	-2938
▁prejud	-2939
▁obl	-2940
▁transaction	-2941
▁disputes	-2942
change	-2943
▁proble	-2944
▁Medical	-2945
▁sole	-2946
riev	-2947
amil	-2948
▁commit	-2949
EL	-2950
▁brother	-2951
ously	-2952
▁Fore	-2953
▁near	-2954
▁redu	-2955
▁enacted	-2956
▁democ	-2957
▁Nove	-2958
▁November	-2959
▁assum	-2960
herein	-2961
▁impos	-2962
▁February	-2963
▁created	-2964
▁Vs	-2965
accused	-2966
▁immediately	-2967
▁aspects	-2968
▁entry	-2969
▁June	-2970
▁Pranab	-2971
▁lands	-2972
▁least	-2973
▁directly	-2974
▁IND	-2975
rix	-2976
▁Prin	-2977
▁discrimin	-2978
▁single	-2979
▁accident	-2980
▁respective	-2981
lling	-2982
▁publ	-2983
▁turn	-2984
▁side	-2985
▁distrib	-2986
▁ren	-2987
▁Assist	-2988
rut	-2989
▁recommendations	-2990
alse	-2991
▁Explanation	-2992
▁ty	-2993
▁requirements	-2994
rated	-2995
▁small	-2996
▁Invest	-2997
▁arise	-2998
▁quant	-2999
▁determine	-3000
▁exem	-3001
cent	-3002
ists	-3003
▁)	-3004
▁Agree	-3005
▁address	-3006
ST	-3007
cell	-3008
ern	-3009
▁Hind	-3010
▁balance	-3011
be	-3012
▁factors	-3013
ictions	-3014
▁US	-3015
▁emphas	-3016
ead	-3017
▁judges	-3018
stituted	-3019
▁Fund	-3020
▁privacy	-3021
▁extended	-3022
▁passing	-3023
iracy	-3024
▁costs	-3025
▁food	-3026
▁October	-3027
▁writing	-3028
▁So	-3029
▁alia	-3030
▁hist	-3031
hereinafter	-3032
▁Intern	-3033
ricity	-3034
▁patient	-3035
att	-3036
▁merits	-3037
▁Dep	-3038
▁broad	-3039
▁village	-3040
▁Entry	-3041
].	-3042
▁unf	-3043
▁adequ	-3044
ali	-3045
oval	-3046
▁facilities	-3047
▁Lal	-3048
▁aggrieved	-3049
▁attempt	-3050
mar	-3051
▁false	-3052
▁conver	-3053
rastructure	-3054
▁deb	-3055
▁Counsel	-3056
’,	-3057
▁Moh	-3058
▁technology	-3059
▁Collect	-3060
ched	-3061
iring	-3062
▁concern	-3063
▁Education	-3064
▁compliance	-3065
▁yet	-3066
▁error	-3067
sequently	-3068
▁insp	-3069
ingu	-3070
far	-3071
▁deg	-3072
▁crores	-3073
▁Land	-3074
▁bid	-3075
▁gain	-3076
ick	-3077
ulf	-3078
▁Similar	-3079
ane	-3080
▁reading	-3081
unicip	-3082
▁Sha	-3083
▁amend	-3084
RI	-3085
▁alone	-3086
cle	-3087
urder	-3088
operative	-3089
▁permit	-3090
▁purchase	-3091
▁justified	-3092
ani	-3093
urs	-3094
reat	-3095
▁able	-3096
▁claims	-3097
▁preced	-3098
▁commun	-3099
kar	-3100
▁dign	-3101
▁guidelines	-3102
▁fresh	-3103
▁conspiracy	-3104
▁adj	-3105
▁dev	-3106
ograph	-3107
manent	-3108
▁safe	-3109
▁Sect	-3110
▁AN	-3111
▁admission	-3112
▁contra	-3113
▁article	-3114
▁equal	-3115
▁progress	-3116
▁fully	-3117
▁apart	-3118
▁allegations	-3119
▁Ins	-3120
▁Rep	-3121
▁charged	-3122
aging	-3123
▁cognizance	-3124
▁CBI	-3125
ocation	-3126
▁arbitrator	-3127
▁Lok	-3128
▁depend	-3129
ademic	-3130
▁IT	-3131
anj	-3132
▁ey	-3133
uting	-3134
▁Ac	-3135
ancies	-3136
▁son	-3137
▁murder	-3138
now	-3139
osure	-3140
CT	-3141
ental	-3142
▁constitute	-3143
▁sense	-3144
erted	-3145
▁majority	-3146
ems	-3147
▁district	-3148
▁Sur	-3149
▁susp	-3150
▁commencement	-3151
sofar	-3152
vement	-3153
▁around	-3154
kh	-3155
cience	-3156
ison	-3157
bitral	-3158
rine	-3159
enance	-3160
▁structure	-3161
▁warrant	-3162
▁Int	-3163
▁Speak	-3164
▁reit	-3165
din	-3166
adhaar	-3167
▁sk	-3168
▁Des	-3169
▁arran	-3170
▁becomes	-3171
.—	-3172
▁Elect	-3173
▁permissible	-3174
▁His	-3175
aryana	-3176
▁interests	-3177
rade	-3178
▁Nar	-3179
▁Maharashtra	-3180
adu	-3181
▁Services	-3182
▁importance	-3183
▁plot	-3184
▁got	-3185
▁Priv	-3186
▁self	-3187
itable	-3188
External	-3189
▁assistance	-3190
ches	-3191
▁Aadhaar	-3192
▁Shar	-3193
▁too	-3194
१२	-3195
▁tar	-3196
▁select	-3197
ulted	-3198
rid	-3199
▁aver	-3200
▁net	-3201
,00	-3202
▁bi	-3203
▁Tamil	-3204
No	-3205
▁Ann	-3206
▁Ors	-3207
▁Ra	-3208
enses	-3209
▁nation	-3210
▁research	-3211
using	-3212
ruitment	-3213
▁ado	-3214
urned	-3215
ills	-3216
▁Per	-3217
▁standards	-3218
▁duly	-3219
▁empow	-3220
though	-3221
rop	-3222
▁...	-3223
▁Agreement	-3224
ude	-3225
▁answer	-3226
▁Advocate	-3227
▁Haryana	-3228
▁obligation	-3229
▁III	-3230
ordinate	-3231
▁Trust	-3232
▁led	-3233
▁enquiry	-3234
gar	-3235
▁From	-3236
▁eligible	-3237
▁speak	-3238
▁removal	-3239
▁dead	-3240
most	-3241
▁implementation	-3242
▁failure	-3243
▁Scheduled	-3244
▁few	-3245
roup	-3246
lies	-3247
iting	-3248
▁Article	-3249
▁educational	-3250
▁arises	-3251
enditure	-3252
▁enj	-3253
▁div	-3254
UR	-3255
▁continued	-3256
▁asked	-3257
▁pop	-3258
▁fulf	-3259
achers	-3260
indu	-3261
▁max	-3262
anchay	-3263
▁investment	-3264
▁funds	-3265
▁activity	-3266
▁Tra	-3267
▁discipl	-3268
▁bor	-3269
utation	-3270
▁proof	-3271
▁Collector	-3272
AS	-3273
imately	-3274
atter	-3275
pecial	-3276
----	-3277
▁Amendment	-3278
hra	-3279
pite	-3280
▁Exec	-3281
▁significant	-3282
oad	-3283
▁move	-3284
▁attention	-3285
▁pot	-3286
jarat	-3287
▁Mo	-3288
▁bind	-3289
▁religious	-3290
▁Having	-3291
▁parent	-3292
▁Though	-3293
▁counter	-3294
▁occurrence	-3295
▁wee	-3296
▁mother	-3297
▁Deputy	-3298
▁ide	-3299
▁sold	-3300
▁old	-3301
In	-3302
▁Pra	-3303
▁initial	-3304
ici	-3305
▁wide	-3306
▁recovered	-3307
▁reve	-3308
▁enactment	-3309
▁Any	-3310
▁remedy	-3311
lled	-3312
▁cru	-3313
▁Applic	-3314
▁farm	-3315
▁International	-3316
▁Accordingly	-3317
istrar	-3318
▁adverse	-3319
▁likely	-3320
▁actual	-3321
▁Utt	-3322
Jud	-3323
▁Territ	-3324
ological	-3325
▁licence	-3326
▁responsible	-3327
▁firm	-3328
▁Society	-3329
The	-3330
▁belie	-3331
▁deduction	-3332
▁strong	-3333
▁Hindu	-3334
▁cur	-3335
▁concluded	-3336
ened	-3337
▁affected	-3338
▁Governments	-3339
▁projects	-3340
▁mach	-3341
▁agency	-3342
▁retire	-3343
orney	-3344
▁breach	-3345
▁department	-3346
cluding	-3347
▁Gujarat	-3348
ED	-3349
▁objection	-3350
▁indicated	-3351
▁home	-3352
▁themselves	-3353
▁deposed	-3354
abilities	-3355
▁advanced	-3356
PA	-3357
cri	-3358
▁Nadu	-3359
▁Legislative	-3360
▁submits	-3361
outh	-3362
▁Sal	-3363
▁why	-3364
▁products	-3365
▁identified	-3366
▁ult	-3367
▁United	-3368
unicipal	-3369
ration	-3370
▁resources	-3371
augh	-3372
▁added	-3373
▁doctrine	-3374
▁Sabha	-3375
▁univers	-3376
▁volunt	-3377
▁whereas	-3378
▁want	-3379
rig	-3380
▁keeping	-3381
▁portion	-3382
aintenance	-3383
▁fraud	-3384
▁increase	-3385
▁pers	-3386
▁quot	-3387
▁Group	-3388
St	-3389
▁INDIA	-3390
▁establishment	-3391
sy	-3392
▁litigation	-3393
▁amounts	-3394
▁regulations	-3395
▁identity	-3396
▁aware	-3397
▁doing	-3398
▁close	-3399
▁reported	-3400
▁bearing	-3401
▁transport	-3402
▁Prosec	-3403
▁virtue	-3404
▁academic	-3405
▁detention	-3406
▁More	-3407
▁undertaking	-3408
atch	-3409
▁griev	-3410
asth	-3411
▁frame	-3412
▁carrying	-3413
▁Case	-3414
▁sexual	-3415
▁Assess	-3416
ival	-3417
▁seek	-3418
▁create	-3419
▁physical	-3420
▁respectively	-3421
▁published	-3422
▁Sy	-3423
▁NO	-3424
▁Institute	-3425
▁Ms	-3426
▁live	-3427
▁Official	-3428
▁sol	-3429
rutin	-3430
qual	-3431
estic	-3432
▁defendants	-3433
ert	-3434
▁renew	-3435
▁stands	-3436
▁acquittal	-3437
▁difference	-3438
▁Plan	-3439
▁Bihar	-3440
▁completed	-3441
▁denied	-3442
▁PAR	-3443
▁factual	-3444
▁disposal	-3445
ysis	-3446
▁times	-3447
▁insurance	-3448
▁CO	-3449
▁substance	-3450
▁shows	-3451
▁gave	-3452
▁mandatory	-3453
▁might	-3454
▁going	-3455
▁Bengal	-3456
▁During	-3457
▁dignity	-3458
▁Assistant	-3459
▁Mah	-3460
▁stating	-3461
▁works	-3462
▁better	-3463
▁expenditure	-3464
▁think	-3465
▁sections	-3466
▁introduced	-3467
▁religion	-3468
,000	-3469
▁mut	-3470
▁recommended	-3471
▁invok	-3472
▁permanent	-3473
uri	-3474
▁void	-3475
▁enable	-3476
▁coming	-3477
▁bod	-3478
▁util	-3479
▁Other	-3480
▁Att	-3481
▁corporate	-3482
▁proced	-3483
▁somet	-3484
actions	-3485
▁custom	-3486
▁prosecutrix	-3487
▁partn	-3488
▁sheet	-3489
amination	-3490
▁draw	-3491
▁TA	-3492
ishes	-3493
▁employer	-3494
▁discussed	-3495
▁strict	-3496
▁seniority	-3497
▁Similarly	-3498
▁nar	-3499
▁Policy	-3500
▁adequate	-3501
▁consultation	-3502
▁interference	-3503
▁administrative	-3504
amb	-3505
portion	-3506
▁testim	-3507
▁quas	-3508
▁apparent	-3509
▁Pen	-3510
▁servant	-3511
ening	-3512
▁accounts	-3513
cted	-3514
▁dest	-3515
▁aim	-3516
lish	-3517
▁advert	-3518
▁committee	-3519
▁१	-3520
▁Registrar	-3521
lly	-3522
▁repro	-3523
▁infrastructure	-3524
iable	-3525
▁mortg	-3526
▁contemplated	-3527
sc	-3528
▁Uttar	-3529
▁until	-3530
▁associ	-3531
▁Ah	-3532
vision	-3533
▁sl	-3534
rs	-3535
▁Association	-3536
▁initiated	-3537
▁clauses	-3538
▁notified	-3539
alid	-3540
bed	-3541
▁daugh	-3542
▁incorpor	-3543
bor	-3544
▁standard	-3545
▁revenue	-3546
icated	-3547
▁altern	-3548
▁Companies	-3549
▁opined	-3550
▁Rel	-3551
erce	-3552
asthan	-3553
▁Ev	-3554
▁viz	-3555
▁innov	-3556
▁wholly	-3557
held	-3558
▁responsibility	-3559
asing	-3560
▁construed	-3561
▁Management	-3562
obal	-3563
▁mechan	-3564
aya	-3565
▁enjoy	-3566
▁confession	-3567
▁blood	-3568
▁articles	-3569
▁advance	-3570
▁aid	-3571
▁supplied	-3572
▁ow	-3573
▁hands	-3574
▁told	-3575
▁views	-3576
▁proceeded	-3577
▁—	-3578
pective	-3579
▁Centre	-3580
▁gone	-3581
▁English	-3582
▁Finance	-3583
▁sustain	-3584
▁arrange	-3585
ror	-3586
▁Sharma	-3587
▁served	-3588
sured	-3589
▁Madras	-3590
▁connected	-3591
▁belonging	-3592
amm	-3593
▁recording	-3594
adi	-3595
▁woman	-3596
illion	-3597
▁welfare	-3598
▁representation	-3599
ene	-3600
eng	-3601
ellant	-3602
▁excess	-3603
adre	-3604
▁marks	-3605
endency	-3606
▁impact	-3607
▁interfere	-3608
▁larger	-3609
▁recommendation	-3610
▁;	-3611
▁recruitment	-3612
▁lod	-3613
unction	-3614
▁referring	-3615
aching	-3616
▁reservation	-3617
▁Industrial	-3618
▁pertaining	-3619
▁ign	-3620
▁Rights	-3621
▁percent	-3622
ti	-3623
▁loan	-3624
▁scale	-3625
pecially	-3626
▁offer	-3627
▁extracted	-3628
▁mineral	-3629
▁Form	-3630
HA	-3631
▁PART	-3632
▁reached	-3633
▁seven	-3634
spective	-3635
▁Insurance	-3636
▁Mis	-3637
aster	-3638
▁engaged	-3639
▁leading	-3640
▁determining	-3641
▁individuals	-3642
▁collected	-3643
▁conflic	-3644
▁maintenance	-3645
▁distinction	-3646
▁enh	-3647
▁burd	-3648
▁Executive	-3649
Judge	-3650
▁objective	-3651
ples	-3652
utions	-3653
▁plaintiffs	-3654
▁cheque	-3655
irl	-3656
▁Supp	-3657
▁Panchay	-3658
▁prejudice	-3659
ouses	-3660
▁Members	-3661
▁reports	-3662
▁potential	-3663
▁comes	-3664
▁Princip	-3665
▁arguments	-3666
▁line	-3667
▁granting	-3668
▁units	-3669
▁Station	-3670
▁scrutin	-3671
state	-3672
▁efforts	-3673
hai	-3674
▁professional	-3675
ivery	-3676
▁lack	-3677
uls	-3678
▁especially	-3679
rug	-3680
atic	-3681
▁facie	-3682
▁influ	-3683
▁Penal	-3684
▁takes	-3685
▁Revenue	-3686
▁facilit	-3687
oot	-3688
hest	-3689
IV	-3690
iti	-3691
irth	-3692
overned	-3693
▁aud	-3694
▁beg	-3695
▁wid	-3696
▁calc	-3697
▁page	-3698
uction	-3699
▁Accused	-3700
▁governed	-3701
EM	-3702
▁tele	-3703
▁levy	-3704
▁remo	-3705
▁programme	-3706
CC	-3707
▁furnish	-3708
▁explained	-3709
pees	-3710
▁Before	-3711
▁Notification	-3712
▁Air	-3713
inery	-3714
▁Rajasthan	-3715
▁parts	-3716
▁detailed	-3717
▁sentenced	-3718
asm	-3719
▁wages	-3720
▁reflect	-3721
▁liqu	-3722
osite	-3723
▁communication	-3724
▁emer	-3725
▁motor	-3726
▁Rail	-3727
▁produce	-3728
▁Gand	-3729
▁binding	-3730
▁Andhra	-3731
▁completion	-3732
rd	-3733
▁Let	-3734
▁crore	-3735
ET	-3736
▁unit	-3737
azet	-3738
ban	-3739
▁tried	-3740
▁amongst	-3741
▁suggested	-3742
▁meant	-3743
▁stood	-3744
▁settlement	-3745
she	-3746
▁started	-3747
ott	-3748
gment	-3749
SI	-3750
▁AP	-3751
pta	-3752
laim	-3753
▁corro	-3754
▁safety	-3755
▁Member	-3756
▁Hindi	-3757
eness	-3758
illing	-3759
);	-3760
▁consequence	-3761
▁explanation	-3762
▁sell	-3763
ateral	-3764
▁Ministers	-3765
▁exemption	-3766
▁achieve	-3767
▁convey	-3768
▁asset	-3769
▁Madh	-3770
▁fire	-3771
▁thereto	-3772
▁contempt	-3773
▁Go	-3774
▁names	-3775
▁air	-3776
▁render	-3777
▁necessarily	-3778
ivity	-3779
▁lakhs	-3780
▁testimony	-3781
ioned	-3782
▁avoid	-3783
utor	-3784
ground	-3785
ieties	-3786
▁advant	-3787
▁regards	-3788
▁vot	-3789
▁quash	-3790
ift	-3791
▁coll	-3792
▁Krish	-3793
▁expenses	-3794
▁indicate	-3795
▁deposited	-3796
▁transactions	-3797
▁rates	-3798
clause	-3799
▁mess	-3800
▁der	-3801
▁proposal	-3802
▁vacancies	-3803
१३	-3804
▁option	-3805
▁situated	-3806
▁Ne	-3807
▁secured	-3808
eech	-3809
onoun	-3810
▁Power	-3811
▁arrived	-3812
▁dischar	-3813
▁pursuant	-3814
▁Ver	-3815
▁prob	-3816
▁search	-3817
clude	-3818
feren	-3819
holders	-3820
▁evident	-3821
▁Sc	-3822
▁Sol	-3823
▁remains	-3824
▁analysis	-3825
▁categories	-3826
ovable	-3827
▁perusal	-3828
line	-3829
▁uncon	-3830
▁.,	-3831
person	-3832
▁West	-3833
▁invalid	-3834
▁past	-3835
▁envis	-3836
▁pronoun	-3837
▁ris	-3838
▁wea	-3839
▁became	-3840
rief	-3841
▁coal	-3842
▁Super	-3843
▁supported	-3844
▁Arbitration	-3845
▁join	-3846
▁profession	-3847
▁retirement	-3848
pped	-3849
▁source	-3850
▁gives	-3851
▁using	-3852
▁undergo	-3853
▁AND	-3854
▁banks	-3855
▁refund	-3856
▁controvers	-3857
▁cancell	-3858
▁Contract	-3859
tin	-3860
▁emb	-3861
▁developed	-3862
▁Pur	-3863
duction	-3864
▁SE	-3865
▁reduced	-3866
▁expected	-3867
endant	-3868
▁depri	-3869
▁obv	-3870
▁cash	-3871
▁prayer	-3872
▁[(	-3873
▁neglig	-3874
▁arbitrary	-3875
▁maintained	-3876
▁Cer	-3877
ATION	-3878
▁Bhar	-3879
urities	-3880
▁burden	-3881
▁obtaining	-3882
rate	-3883
▁instead	-3884
▁actually	-3885
▁employed	-3886
▁agricultural	-3887
State	-3888
▁diss	-3889
▁corrobor	-3890
onom	-3891
▁Sar	-3892
▁buy	-3893
▁upheld	-3894
▁disclosed	-3895
▁principal	-3896
▁living	-3897
appellant	-3898
▁forth	-3899
ables	-3900
▁prevail	-3901
▁delivery	-3902
▁TO	-3903
▁TADA	-3904
▁Account	-3905
idd	-3906
▁Home	-3907
▁rig	-3908
▁obtain	-3909
▁places	-3910
▁Technology	-3911
lord	-3912
▁Gupta	-3913
olved	-3914
▁retro	-3915
▁sustained	-3916
▁seized	-3917
▁arrested	-3918
▁red	-3919
▁auction	-3920
▁example	-3921
▁receive	-3922
opal	-3923
▁expiry	-3924
itude	-3925
▁hon	-3926
inder	-3927
▁Prof	-3928
istic	-3929
▁strength	-3930
▁programmes	-3931
▁girl	-3932
▁attack	-3933
▁visit	-3934
▁objections	-3935
ancing	-3936
▁ordin	-3937
▁Attorney	-3938
▁reserved	-3939
aur	-3940
CO	-3941
▁prima	-3942
▁Our	-3943
▁men	-3944
▁summ	-3945
▁undertaken	-3946
▁Hospital	-3947
▁paragraphs	-3948
▁cert	-3949
umbai	-3950
▁site	-3951
▁maximum	-3952
▁former	-3953
ush	-3954
▁communic	-3955
▁understood	-3956
',	-3957
ipur	-3958
▁ascer	-3959
▁Gandhi	-3960
▁rather	-3961
▁disqual	-3962
▁register	-3963
▁investig	-3964
put	-3965
▁Sri	-3966
▁Mal	-3967
▁unre	-3968
ression	-3969
▁salary	-3970
▁Project	-3971
▁practices	-3972
onst	-3973
▁citizen	-3974
▁College	-3975
▁convict	-3976
racy	-3977
▁gener	-3978
▁rural	-3979
▁Evidence	-3980
▁flow	-3981
▁adopt	-3982
▁School	-3983
▁proposition	-3984
atio	-3985
porary	-3986
▁Ph	-3987
▁allotment	-3988
▁despite	-3989
▁youn	-3990
▁Bang	-3991
AY	-3992
III	-3993
▁la	-3994
ousing	-3995
▁degree	-3996
▁privile	-3997
▁exped	-3998
▁SCR	-3999
mentioned	-4000
▁hard	-4001
▁bodies	-4002
▁substantive	-4003
uven	-4004
▁expressly	-4005
iger	-4006
▁CPC	-4007
▁stri	-4008
▁Office	-4009
▁workers	-4010
cial	-4011
otel	-4012
▁imper	-4013
▁Mumbai	-4014
▁expert	-4015
▁deciding	-4016
▁domestic	-4017
pto	-4018
▁labour	-4019
▁released	-4020
▁hy	-4021
ulate	-4022
▁assigned	-4023
▁generally	-4024
▁ON	-4025
▁Principal	-4026
▁distingu	-4027
▁reiterated	-4028
ji	-4029
▁Ob	-4030
▁borrow	-4031
rises	-4032
▁across	-4033
▁spir	-4034
▁scient	-4035
▁lower	-4036
▁Application	-4037
▁controversy	-4038
▁Cust	-4039
▁mil	-4040
▁teachers	-4041
▁college	-4042
imal	-4043
▁friend	-4044
▁profits	-4045
hood	-4046
▁energ	-4047
hind	-4048
▁forms	-4049
respond	-4050
▁cut	-4051
ranch	-4052
▁remaining	-4053
asmuch	-4054
esides	-4055
▁appointments	-4056
▁daughter	-4057
izing	-4058
▁Kh	-4059
unities	-4060
▁Officers	-4061
▁history	-4062
▁ST	-4063
▁Har	-4064
▁holder	-4065
▁whereby	-4066
elt	-4067
▁Do	-4068
.-	-4069
cription	-4070
▁Speaker	-4071
▁Day	-4072
ship	-4073
▁distribution	-4074
▁equality	-4075
encing	-4076
▁Reference	-4077
▁station	-4078
▁ordinary	-4079
▁schemes	-4080
▁thought	-4081
▁distinct	-4082
▁stipulated	-4083
▁fif	-4084
icide	-4085
▁room	-4086
tection	-4087
▁injured	-4088
owry	-4089
uate	-4090
▁Cast	-4091
▁termination	-4092
ann	-4093
▁Bal	-4094
▁Some	-4095
▁annual	-4096
▁functioning	-4097
▁disclosure	-4098
▁extre	-4099
▁demonst	-4100
▁affairs	-4101
▁addressed	-4102
▁operations	-4103
▁cadre	-4104
▁Municipal	-4105
▁subsequently	-4106
▁died	-4107
esting	-4108
▁adjudication	-4109
▁Prog	-4110
▁extra	-4111
▁forest	-4112
▁strengthe	-4113
,000/-	-4114
ousand	-4115
▁disputed	-4116
▁returned	-4117
aking	-4118
▁rupees	-4119
▁applies	-4120
▁install	-4121
▁shop	-4122
azette	-4123
▁draft	-4124
▁suitable	-4125
▁Financial	-4126
▁furnished	-4127
▁limits	-4128
vironment	-4129
▁threat	-4130
▁Republic	-4131
▁bon	-4132
▁eye	-4133
▁energy	-4134
dom	-4135
▁ali	-4136
▁dise	-4137
▁faith	-4138
▁highl	-4139
▁Labour	-4140
▁elected	-4141
▁disability	-4142
▁alternative	-4143
▁satisfaction	-4144
▁prescrib	-4145
▁possess	-4146
▁attrib	-4147
▁message	-4148
▁try	-4149
apers	-4150
▁instructions	-4151
▁reply	-4152
▁arbitral	-4153
▁amendments	-4154
▁Person	-4155
▁recover	-4156
▁Aff	-4157
▁oil	-4158
▁primary	-4159
▁advantage	-4160
▁recognized	-4161
▁presumption	-4162
▁stru	-4163
▁increased	-4164
exure	-4165
▁sales	-4166
▁nomin	-4167
▁incons	-4168
MC	-4169
▁xx	-4170
▁Stat	-4171
▁Ordin	-4172
▁population	-4173
▁investigating	-4174
ception	-4175
ponse	-4176
▁choice	-4177
▁errone	-4178
▁Date	-4179
▁conclus	-4180
▁purchas	-4181
▁relates	-4182
▁ratio	-4183
▁afore	-4184
ara	-4185
ades	-4186
▁foc	-4187
mical	-4188
▁described	-4189
▁machinery	-4190
▁enforcement	-4191
▁ordered	-4192
rap	-4193
▁behind	-4194
operation	-4195
▁Red	-4196
▁landlord	-4197
▁inconsist	-4198
dy	-4199
▁global	-4200
phasis	-4201
▁const	-4202
▁staff	-4203
▁impose	-4204
▁normal	-4205
AB	-4206
ratic	-4207
▁directing	-4208
▁suffered	-4209
▁completely	-4210
▁contentions	-4211
PL	-4212
spector	-4213
▁spirit	-4214
▁pendency	-4215
▁unable	-4216
ederal	-4217
▁encour	-4218
▁terror	-4219
▁consequences	-4220
▁independence	-4221
▁extension	-4222
▁Control	-4223
▁operate	-4224
▁acquitted	-4225
▁presented	-4226
orand	-4227
▁Both	-4228
▁Every	-4229
▁Bu	-4230
herent	-4231
▁correspond	-4232
ama	-4233
▁advice	-4234
▁finally	-4235
▁alter	-4236
obile	-4237
▁Environment	-4238
▁disciplinary	-4239
iss	-4240
ferences	-4241
▁consequent	-4242
▁background	-4243
▁officials	-4244
▁upto	-4245
▁legit	-4246
▁corru	-4247
▁version	-4248
▁Madhya	-4249
rain	-4250
▁measure	-4251
▁removed	-4252
▁dismissal	-4253
▁fram	-4254
▁discuss	-4255
▁obligations	-4256
▁contribution	-4257
icate	-4258
▁often	-4259
▁quite	-4260
▁quashed	-4261
▁spot	-4262
▁points	-4263
▁inasmuch	-4264
▁ing	-4265
▁Tiger	-4266
▁greater	-4267
▁victims	-4268
▁Sw	-4269
▁attract	-4270
▁Pe	-4271
▁acceptance	-4272
▁mental	-4273
▁discrimination	-4274
▁oral	-4275
▁compre	-4276
▁Award	-4277
▁Joint	-4278
▁regulation	-4279
▁understand	-4280
▁electricity	-4281
▁peace	-4282
▁challenging	-4283
▁suffer	-4284
▁contains	-4285
alf	-4286
icit	-4287
▁creditor	-4288
▁Head	-4289
▁economy	-4290
▁Petitioner	-4291
▁association	-4292
▁serve	-4293
▁origin	-4294
eel	-4295
▁Pal	-4296
ivered	-4297
▁Reason	-4298
▁release	-4299
▁restrictions	-4300
gn	-4301
▁Sat	-4302
▁workmen	-4303
ager	-4304
▁intent	-4305
▁Che	-4306
▁norms	-4307
▁remained	-4308
ina	-4309
▁deliber	-4310
▁parents	-4311
▁birth	-4312
▁manif	-4313
▁issuing	-4314
▁Sections	-4315
▁tot	-4316
▁appeared	-4317
ream	-4318
ients	-4319
▁profit	-4320
▁extreme	-4321
▁temple	-4322
▁publication	-4323
ourses	-4324
▁Class	-4325
▁miscon	-4326
▁delivered	-4327
▁exception	-4328
▁debtor	-4329
▁multi	-4330
▁current	-4331
▁exercising	-4332
▁Prosecutor	-4333
▁identification	-4334
▁assail	-4335
▁damages	-4336
▁confirmed	-4337
▁recognised	-4338
▁particulars	-4339
cious	-4340
▁recent	-4341
▁Li	-4342
▁Smt	-4343
▁response	-4344
▁UN	-4345
▁conflict	-4346
hy	-4347
▁democracy	-4348
PS	-4349
▁rise	-4350
▁promote	-4351
isite	-4352
▁Ash	-4353
▁mortgage	-4354
enty	-4355
▁subsid	-4356
▁pursuance	-4357
dis	-4358
▁CrPC	-4359
▁things	-4360
▁governance	-4361
▁eas	-4362
▁press	-4363
▁Chandra	-4364
▁although	-4365
▁commerce	-4366
▁Program	-4367
▁allegation	-4368
ME	-4369
▁inspection	-4370
▁da	-4371
hens	-4372
▁valu	-4373
▁lie	-4374
▁Inter	-4375
orandum	-4376
▁study	-4377
▁values	-4378
▁issuance	-4379
▁protected	-4380
▁purchased	-4381
▁Pras	-4382
▁conven	-4383
▁Health	-4384
eria	-4385
▁Nag	-4386
▁Human	-4387
▁pan	-4388
▁thing	-4389
hent	-4390
▁exchange	-4391
▁schedule	-4392
▁thousand	-4393
set	-4394
▁classification	-4395
▁proportion	-4396
road	-4397
▁Gazette	-4398
▁Can	-4399
▁mode	-4400
▁offered	-4401
▁Notwithstanding	-4402
ark	-4403
nother	-4404
▁Prime	-4405
▁safegu	-4406
liminary	-4407
▁host	-4408
▁Pet	-4409
▁events	-4410
▁claimant	-4411
▁Employ	-4412
yan	-4413
achal	-4414
▁confidence	-4415
▁injunction	-4416
ply	-4417
▁wa	-4418
▁Mot	-4419
let	-4420
olid	-4421
▁Khan	-4422
▁mandate	-4423
struction	-4424
▁bo	-4425
▁simple	-4426
▁Another	-4427
partments	-4428
▁Agricult	-4429
१४	-4430
▁speech	-4431
▁categor	-4432
▁Mus	-4433
▁Road	-4434
▁dying	-4435
▁incurred	-4436
▁enough	-4437
▁Assessing	-4438
▁tend	-4439
▁Ja	-4440
▁sil	-4441
▁manufacture	-4442
utta	-4443
▁pack	-4444
▁Panchayat	-4445
▁Vice	-4446
▁Constitutional	-4447
leges	-4448
▁hours	-4449
PE	-4450
▁bag	-4451
▁drug	-4452
▁caste	-4453
▁elabor	-4454
▁changes	-4455
OS	-4456
▁export	-4457
▁highest	-4458
▁reform	-4459
▁results	-4460
▁notwithstanding	-4461
-0	-4462
vis	-4463
▁thereon	-4464
▁Trib	-4465
▁Research	-4466
▁young	-4467
▁Directors	-4468
▁confer	-4469
▁territory	-4470
DR	-4471
▁equity	-4472
▁worth	-4473
▁impart	-4474
▁tariff	-4475
▁voluntary	-4476
above	-4477
ilateral	-4478
▁million	-4479
▁inherent	-4480
▁phot	-4481
stitutes	-4482
▁Conf	-4483
▁hereby	-4484
▁enhance	-4485
rog	-4486
inning	-4487
ula	-4488
ront	-4489
▁sw	-4490
▁low	-4491
▁fees	-4492
▁acting	-4493
▁typ	-4494
▁rape	-4495
ayment	-4496
/0	-4497
AG	-4498
▁deep	-4499
▁gains	-4500
▁modern	-4501
▁Paragraph	-4502
umer	-4503
▁affirm	-4504
ING	-4505
▁problems	-4506
▁tri	-4507
▁opportunities	-4508
▁achieved	-4509
▁inserted	-4510
▁Sam	-4511
pping	-4512
ocates	-4513
▁suits	-4514
stitutional	-4515
▁situations	-4516
duce	-4517
▁empowered	-4518
CE	-4519
▁interested	-4520
▁thereunder	-4521
mittees	-4522
▁plaint	-4523
▁recognition	-4524
HI	-4525
orous	-4526
▁confirm	-4527
▁Moreover	-4528
▁IV	-4529
▁subordinate	-4530
▁incorporated	-4531
▁falls	-4532
▁Election	-4533
App	-4534
▁acres	-4535
▁agencies	-4536
▁understanding	-4537
appro	-4538
▁pred	-4539
▁effic	-4540
▁insofar	-4541
▁involving	-4542
MS	-4543
iling	-4544
▁taxes	-4545
▁CON	-4546
▁guilt	-4547
▁problem	-4548
▁risk	-4549
comp	-4550
▁equally	-4551
course	-4552
▁rever	-4553
▁excluded	-4554
▁lost	-4555
▁Organ	-4556
▁weeks	-4557
▁causing	-4558
▁network	-4559
▁creditors	-4560
▁po	-4561
▁getting	-4562
charge	-4563
▁brief	-4564
▁owners	-4565
▁prayed	-4566
▁environmental	-4567
▁ele	-4568
▁SEBI	-4569
▁region	-4570
▁conclusions	-4571
▁hereinabove	-4572
ump	-4573
while	-4574
▁Excise	-4575
anda	-4576
▁Cor	-4577
NA	-4578
▁requested	-4579
▁Rao	-4580
▁feel	-4581
▁partnership	-4582
uss	-4583
▁attached	-4584
▁resulted	-4585
▁indicates	-4586
▁Circ	-4587
▁contrad	-4588
▁authorised	-4589
▁accomp	-4590
▁weight	-4591
▁allowing	-4592
rown	-4593
▁abuse	-4594
▁appreciate	-4595
▁representatives	-4596
▁agreements	-4597
▁Axad	-4598
▁grad	-4599
▁Protection	-4600
▁suc	-4601
hibit	-4602
▁transp	-4603
▁Private	-4604
▁restriction	-4605
▁job	-4606
going	-4607
▁Devi	-4608
▁doctor	-4609
my	-4610
▁Jag	-4611
▁lap	-4612
▁almost	-4613
▁damage	-4614
ourn	-4615
▁Jain	-4616
▁NE	-4617
▁Judic	-4618
▁Commercial	-4619
▁unn	-4620
▁Excell	-4621
irs	-4622
▁driver	-4623
▁prison	-4624
respondent	-4625
▁PC	-4626
▁fig	-4627
▁agent	-4628
▁Mod	-4629
▁eval	-4630
▁compon	-4631
▁guaranteed	-4632
▁San	-4633
▁’	-4634
▁applying	-4635
GC	-4636
bted	-4637
▁Mon	-4638
iency	-4639
▁Work	-4640
▁soon	-4641
▁factor	-4642
▁formed	-4643
▁letters	-4644
▁Calc	-4645
▁Once	-4646
▁dowry	-4647
▁innoc	-4648
▁System	-4649
▁answered	-4650
▁immovable	-4651
▁quar	-4652
▁assign	-4653
▁succeed	-4654
▁selected	-4655
itness	-4656
▁xxx	-4657
▁cited	-4658
▁AC	-4659
utory	-4660
▁approached	-4661
▁preliminary	-4662
▁maintainable	-4663
rose	-4664
ourth	-4665
▁renewal	-4666
▁possibility	-4667
soever	-4668
▁allotted	-4669
▁books	-4670
▁industries	-4671
examination	-4672
ape	-4673
sheet	-4674
quisition	-4675
▁Ahmed	-4676
▁South	-4677
▁card	-4678
ighted	-4679
▁refers	-4680
▁enforce	-4681
▁confident	-4682
▁scrutiny	-4683
▁interpreted	-4684
▁levels	-4685
▁pleaded	-4686
▁certainly	-4687
▁moved	-4688
▁arose	-4689
▁necessity	-4690
ength	-4691
▁defici	-4692
▁handed	-4693
endent	-4694
▁Hy	-4695
right	-4696
icies	-4697
▁Nagar	-4698
▁Far	-4699
▁forum	-4700
CL	-4701
lead	-4702
▁mark	-4703
▁formal	-4704
▁falling	-4705
▁fell	-4706
▁rou	-4707
▁Gur	-4708
▁prem	-4709
▁correctness	-4710
amy	-4711
habil	-4712
▁owned	-4713
▁intercourse	-4714
endra	-4715
▁Para	-4716
▁fide	-4717
▁manifest	-4718
▁vs	-4719
▁Memon	-4720
ilities	-4721
▁affirmed	-4722
▁entertain	-4723
eav	-4724
▁alt	-4725
▁comb	-4726
▁irre	-4727
▁lodged	-4728
▁absolutely	-4729
ada	-4730
enture	-4731
▁overr	-4732
▁containing	-4733
lack	-4734
ronic	-4735
▁running	-4736
▁participation	-4737
▁Now	-4738
▁board	-4739
▁authent	-4740
▁instituted	-4741
▁Post	-4742
well	-4743
▁Forest	-4744
▁central	-4745
▁Calcutta	-4746
▁collection	-4747
▁Affairs	-4748
▁key	-4749
▁Child	-4750
▁raise	-4751
▁Gov	-4752
lawful	-4753
pic	-4754
▁art	-4755
▁truth	-4756
▁features	-4757
▁Met	-4758
▁contracts	-4759
Am	-4760
ique	-4761
▁Kal	-4762
▁tender	-4763
▁actions	-4764
▁heart	-4765
▁litig	-4766
▁log	-4767
▁Industries	-4768
PT	-4769
▁Cap	-4770
▁laun	-4771
▁claiming	-4772
▁withdraw	-4773
tle	-4774
▁adjust	-4775
▁ownership	-4776
▁subjected	-4777
▁instrument	-4778
UL	-4779
ensive	-4780
▁endeav	-4781
▁vehicles	-4782
▁resulting	-4783
▁AS	-4784
▁opt	-4785
▁Territory	-4786
▁named	-4787
uvenile	-4788
▁length	-4789
▁systems	-4790
▁creation	-4791
▁scientific	-4792
▁confessional	-4793
cast	-4794
▁none	-4795
ka	-4796
▁seiz	-4797
▁analy	-4798
usiness	-4799
▁properly	-4800
▁observation	-4801
▁z	-4802
atever	-4803
▁seeks	-4804
▁personnel	-4805
▁improve	-4806
▁accru	-4807
▁cruel	-4808
▁speed	-4809
▁violence	-4810
wan	-4811
uity	-4812
uter	-4813
▁fails	-4814
aram	-4815
▁early	-4816
▁regarded	-4817
▁Design	-4818
▁Judgment	-4819
▁rein	-4820
▁rigorous	-4821
▁suffering	-4822
▁residential	-4823
RO	-4824
ARD	-4825
position	-4826
inks	-4827
▁advocate	-4828
▁explain	-4829
▁rational	-4830
▁esc	-4831
▁felt	-4832
know	-4833
▁Reserve	-4834
▁circular	-4835
▁subxad	-4836
▁tradition	-4837
▁consistent	-4838
ones	-4839
▁Char	-4840
prises	-4841
vt	-4842
ikh	-4843
▁grievance	-4844
ij	-4845
▁paper	-4846
▁speaking	-4847
▁immediate	-4848
▁violative	-4849
▁successful	-4850
▁gross	-4851
▁Inspector	-4852
▁requisite	-4853
▁latter	-4854
ns	-4855
▁examining	-4856
icating	-4857
▁ordinarily	-4858
▁exclusive	-4859
sue	-4860
▁Leave	-4861
▁temporary	-4862
▁ultimately	-4863
▁ambit	-4864
▁Prasad	-4865
asonable	-4866
osition	-4867
▁proc	-4868
▁imposition	-4869
▁Sa	-4870
▁imported	-4871
▁pec	-4872
orial	-4873
▁poor	-4874
▁diver	-4875
▁sanctioned	-4876
▁strictly	-4877
AD	-4878
▁rank	-4879
▁classes	-4880
▁courses	-4881
▁residence	-4882
aches	-4883
▁estate	-4884
▁secure	-4885
▁pleadings	-4886
▁filled	-4887
▁Shah	-4888
▁entrust	-4889
▁reasoning	-4890
De	-4891
antly	-4892
▁Customs	-4893
▁representative	-4894
rel	-4895
anger	-4896
▁plain	-4897
▁assembly	-4898
▁element	-4899
ilt	-4900
undred	-4901
▁deserv	-4902
▁omission	-4903
▁half	-4904
▁suicide	-4905
mir	-4906
rep	-4907
▁entity	-4908
▁repeal	-4909
▁parame	-4910
▁cou	-4911
▁daily	-4912
▁model	-4913
TE	-4914
▁really	-4915
oj	-4916
yal	-4917
▁),	-4918
elled	-4919
▁text	-4920
▁longer	-4921
▁farmers	-4922
▁eviction	-4923
▁Certificate	-4924
▁acted	-4925
ales	-4926
▁Agg	-4927
oured	-4928
icitor	-4929
▁deleg	-4930
▁irres	-4931
▁conducting	-4932
▁sam	-4933
usion	-4934
▁ever	-4935
▁policies	-4936
▁substituted	-4937
wo	-4938
▁Dec	-4939
ervation	-4940
▁overall	-4941
▁guarantee	-4942
▁concurrent	-4943
▁objects	-4944
▁Parliamentary	-4945
▁ed	-4946
▁criteria	-4947
ques	-4948
▁nos	-4949
▁bear	-4950
▁ship	-4951
▁.[	-4952
▁lawy	-4953
▁retired	-4954
▁Arbitrator	-4955
uent	-4956
▁confined	-4957
▁revised	-4958
▁facility	-4959
▁Administrative	-4960
▁Page	-4961
▁Will	-4962
▁genu	-4963
▁defect	-4964
▁promis	-4965
▁retrospective	-4966
▁patent	-4967
▁comprom	-4968
▁alongwith	-4969
Ind	-4970
▁barred	-4971
▁unlawful	-4972
▁processing	-4973
omen	-4974
▁compound	-4975
▁modified	-4976
rity	-4977
rising	-4978
AM	-4979
▁Consequently	-4980
▁Of	-4981
ller	-4982
▁link	-4983
▁remand	-4984
▁implemented	-4985
uge	-4986
▁autom	-4987
▁conce	-4988
▁hereunder	-4989
US	-4990
▁mutual	-4991
▁envisaged	-4992
▁manufacturing	-4993
▁marked	-4994
▁located	-4995
▁considerations	-4996
▁Superint	-4997
▁Ordinance	-4998
▁purchaser	-4999
▁whatsoever	-5000
▁explos	-5001
▁conscious	-5002
▁withdrawn	-5003
ots	-5004
ulates	-5005
▁acknow	-5006
▁indirect	-5007
▁statutes	-5008
aul	-5009
amily	-5010
▁eight	-5011
▁restra	-5012
irty	-5013
istan	-5014
▁items	-5015
▁reach	-5016
▁totally	-5017
▁qua	-5018
AA	-5019
eric	-5020
▁Dig	-5021
▁legally	-5022
▁occurred	-5023
ett	-5024
itary	-5025
▁night	-5026
▁married	-5027
osing	-5028
itoring	-5029
ishing	-5030
▁Review	-5031
▁surre	-5032
▁Convention	-5033
nam	-5034
▁entries	-5035
▁Pvt	-5036
▁quoted	-5037
ishment	-5038
atal	-5039
ayan	-5040
▁Acts	-5041
amation	-5042
▁something	-5043
▁manufacturer	-5044
ask	-5045
uro	-5046
▁Ven	-5047
▁mechanism	-5048
athe	-5049
venth	-5050
▁arms	-5051
▁usu	-5052
▁Allah	-5053
▁check	-5054
▁seizure	-5055
▁negligence	-5056
):	-5057
Ch	-5058
▁summon	-5059
▁refused	-5060
▁erroneous	-5061
▁reproduced	-5062
een	-5063
▁lives	-5064
▁democratic	-5065
hensive	-5066
▁engine	-5067
▁circumstance	-5068
▁Laws	-5069
▁prospect	-5070
▁operational	-5071
kash	-5072
▁Ali	-5073
▁trib	-5074
▁Annexure	-5075
▁withdrawal	-5076
▁Dh	-5077
▁Di	-5078
▁comply	-5079
▁Aggrieved	-5080
▁performed	-5081
CA	-5082
▁Kash	-5083
▁sq	-5084
▁Exchange	-5085
▁generation	-5086
▁parameters	-5087
athi	-5088
▁Aud	-5089
ricted	-5090
▁distance	-5091
▁Build	-5092
▁erred	-5093
▁exclusion	-5094
▁receiving	-5095
▁Respondents	-5096
avy	-5097
bel	-5098
ayuk	-5099
▁payments	-5100
havi	-5101
lauses	-5102
▁Af	-5103
rule	-5104
▁dues	-5105
▁pain	-5106
urring	-5107
ergency	-5108
arth	-5109
minent	-5110
▁insurer	-5111
▁securities	-5112
ports	-5113
▁indeed	-5114
▁framework	-5115
▁passage	-5116
▁contents	-5117
▁quashing	-5118
▁Excellency	-5119
▁surv	-5120
▁Water	-5121
EP	-5122
eth	-5123
▁poll	-5124
▁ingred	-5125
▁believe	-5126
▁Engineer	-5127
▁disclose	-5128
▁seats	-5129
▁standing	-5130
▁twenty	-5131
▁creating	-5132
▁Acquisition	-5133
alg	-5134
bur	-5135
▁intim	-5136
ae	-5137
rees	-5138
▁Ext	-5139
▁base	-5140
▁sound	-5141
▁prohibition	-5142
dul	-5143
udh	-5144
▁inqu	-5145
▁worked	-5146
▁associated	-5147
hend	-5148
▁Full	-5149
▁willing	-5150
▁Universities	-5151
▁Bas	-5152
▁wish	-5153
▁stor	-5154
......	-5155
regular	-5156
▁struck	-5157
▁Dev	-5158
▁complied	-5159
▁influence	-5160
▁SH	-5161
▁Reliance	-5162
etings	-5163
inking	-5164
.(	-5165
▁Rent	-5166
▁notes	-5167
▁advertise	-5168
१५	-5169
’)	-5170
gest	-5171
oral	-5172
uous	-5173
▁driving	-5174
▁exceeding	-5175
▁Shiv	-5176
▁afford	-5177
▁whatever	-5178
▁attracted	-5179
prene	-5180
▁Solicitor	-5181
▁recall	-5182
▁satisfy	-5183
▁pleas	-5184
▁cul	-5185
isting	-5186
▁harass	-5187
▁capable	-5188
▁Non	-5189
▁grave	-5190
achment	-5191
reprene	-5192
Pro	-5193
grad	-5194
▁Allahabad	-5195
▁admissible	-5196
▁qualification	-5197
phold	-5198
▁bond	-5199
▁dele	-5200
▁team	-5201
▁arrangement	-5202
▁levied	-5203
including	-5204
▁ensuring	-5205
▁clarified	-5206
▁Goa	-5207
▁channel	-5208
▁uns	-5209
▁equip	-5210
▁complaints	-5211
▁wishes	-5212
▁concerning	-5213
▁King	-5214
▁type	-5215
essel	-5216
iform	-5217
▁divor	-5218
▁allocation	-5219
▁Electricity	-5220
fe	-5221
hanced	-5222
▁Assam	-5223
▁increasing	-5224
▁MCI	-5225
▁causes	-5226
▁compuls	-5227
▁exists	-5228
▁sister	-5229
▁bench	-5230
▁seems	-5231
▁rare	-5232
leb	-5233
▁Aust	-5234
haviour	-5235
▁Muslim	-5236
▁attend	-5237
▁framing	-5238
▁Defendant	-5239
▁availability	-5240
▁else	-5241
▁integrity	-5242
▁objectives	-5243
▁Bhag	-5244
▁Statement	-5245
▁seat	-5246
▁Foreign	-5247
▁Insofar	-5248
▁Business	-5249
▁Appellants	-5250
▁equival	-5251
▁strateg	-5252
▁prohibited	-5253
▁recon	-5254
▁liquid	-5255
▁assessed	-5256
▁procedural	-5257
▁sustainable	-5258
▁compar	-5259
▁Programme	-5260
▁jun	-5261
author	-5262
habilitation	-5263
▁belief	-5264
▁discharged	-5265
ita	-5266
vency	-5267
▁partly	-5268
▁Abdul	-5269
▁contend	-5270
▁involvement	-5271
▁defines	-5272
▁Up	-5273
▁enum	-5274
▁groups	-5275
▁uphold	-5276
▁consumers	-5277
▁Sign	-5278
▁bul	-5279
▁relying	-5280
▁colleges	-5281
▁contractor	-5282
onn	-5283
▁MS	-5284
▁Plaintiff	-5285
ga	-5286
▁Prom	-5287
▁Suit	-5288
▁needed	-5289
▁competence	-5290
▁Vol	-5291
▁legitimate	-5292
compl	-5293
▁Dist	-5294
▁media	-5295
▁learning	-5296
▁BC	-5297
▁Ed	-5298
▁tal	-5299
▁Deed	-5300
▁listed	-5301
▁disease	-5302
▁significance	-5303
▁iron	-5304
▁sens	-5305
ibilities	-5306
▁consumer	-5307
▁My	-5308
▁committing	-5309
UN	-5310
ibly	-5311
antial	-5312
▁active	-5313
▁Also	-5314
▁Interest	-5315
▁enhanced	-5316
▁br	-5317
▁Mohan	-5318
▁England	-5319
▁PS	-5320
▁pros	-5321
▁Small	-5322
▁repealed	-5323
▁justification	-5324
RE	-5325
uc	-5326
just	-5327
alore	-5328
▁Pand	-5329
▁complex	-5330
▁superior	-5331
ey	-5332
pet	-5333
olvency	-5334
▁Proper	-5335
▁remove	-5336
▁Anr	-5337
orship	-5338
▁sitting	-5339
.[	-5340
free	-5341
▁Tri	-5342
▁mag	-5343
▁distur	-5344
▁schools	-5345
▁positive	-5346
pper	-5347
▁repla	-5348
▁Investigating	-5349
▁lib	-5350
▁Apart	-5351
▁survey	-5352
▁manufactured	-5353
▁relative	-5354
▁foundation	-5355
▁vest	-5356
▁session	-5357
▁grat	-5358
▁vital	-5359
▁simply	-5360
▁showing	-5361
iar	-5362
▁North	-5363
▁Railway	-5364
▁inconsistent	-5365
wa	-5366
orse	-5367
where	-5368
▁Brit	-5369
▁huge	-5370
▁medic	-5371
▁conform	-5372
ocks	-5373
▁Are	-5374
etent	-5375
▁bringing	-5376
▁quantity	-5377
▁separately	-5378
▁Legal	-5379
▁Family	-5380
▁papers	-5381
▁deliver	-5382
▁doctors	-5383
▁cooperation	-5384
levant	-5385
▁founded	-5386
▁qualifications	-5387
pex	-5388
from	-5389
▁danger	-5390
▁verification	-5391
iy	-5392
ERS	-5393
arh	-5394
ols	-5395
iles	-5396
teen	-5397
▁Ant	-5398
iment	-5399
▁prop	-5400
▁allowance	-5401
▁irrespective	-5402
▁AT	-5403
cond	-5404
▁restrict	-5405
▁aforementioned	-5406
▁Third	-5407
▁transportation	-5408
▁hundred	-5409
▁friendly	-5410
▁chargeable	-5411
▁cong	-5412
▁DNA	-5413
ommod	-5414
▁imposing	-5415
▁valuable	-5416
▁procedures	-5417
redit	-5418
▁Americ	-5419
oice	-5420
ertion	-5421
▁facilitate	-5422
▁percentage	-5423
udence	-5424
▁Recovery	-5425
▁cm	-5426
requ	-5427
▁Vis	-5428
tinent	-5429
▁commenced	-5430
nai	-5431
▁Id	-5432
▁buildings	-5433
lar	-5434
anas	-5435
▁dil	-5436
▁acquire	-5437
▁efficient	-5438
▁applicability	-5439
▁Bl	-5440
oubted	-5441
paration	-5442
▁constructed	-5443
▁fem	-5444
▁motive	-5445
itations	-5446
▁minerals	-5447
,—	-5448
igil	-5449
▁Ret	-5450
▁annum	-5451
▁useful	-5452
▁autonom	-5453
▁beginning	-5454
▁greetings	-5455
organ	-5456
▁changed	-5457
▁throughout	-5458
dh	-5459
ulty	-5460
▁effectively	-5461
▁squ	-5462
istics	-5463
▁prices	-5464
▁enumerated	-5465
▁mal	-5466
▁factory	-5467
▁sectors	-5468
▁uniform	-5469
▁Transport	-5470
▁contravention	-5471
arc	-5472
▁Roh	-5473
RT	-5474
▁Arun	-5475
▁entrusted	-5476
oses	-5477
ammu	-5478
▁Pension	-5479
▁normally	-5480
▁misconduct	-5481
OC	-5482
ami	-5483
▁viti	-5484
▁initially	-5485
gy	-5486
▁declare	-5487
▁inference	-5488
▁irregular	-5489
raft	-5490
▁amb	-5491
▁Army	-5492
▁core	-5493
▁mobile	-5494
▁awarding	-5495
▁operating	-5496
▁appreciation	-5497
▁primarily	-5498
ev	-5499
▁mit	-5500
▁rail	-5501
▁Constit	-5502
rears	-5503
▁Trade	-5504
▁harmon	-5505
rigation	-5506
▁consequential	-5507
▁gold	-5508
▁rival	-5509
▁Castes	-5510
▁vessel	-5511
▁regulate	-5512
▁challenges	-5513
▁unreasonable	-5514
hon	-5515
▁vend	-5516
▁wound	-5517
▁People	-5518
▁holders	-5519
▁calculated	-5520
▁Val	-5521
▁Vill	-5522
▁earn	-5523
ley	-5524
comm	-5525
▁Jammu	-5526
▁continues	-5527
aren	-5528
▁cast	-5529
▁quantum	-5530
verse	-5531
▁Besides	-5532
erate	-5533
▁target	-5534
▁contact	-5535
▁Regional	-5536
▁eligibility	-5537
▁Ib	-5538
▁Kashmir	-5539
irms	-5540
▁lies	-5541
▁raising	-5542
▁qualified	-5543
▁governing	-5544
▁restricted	-5545
▁supplement	-5546
▁Registration	-5547
▁comprehensive	-5548
anging	-5549
▁estim	-5550
▁resol	-5551
ancellor	-5552
▁Welfare	-5553
▁authorized	-5554
Rs	-5555
lax	-5556
▁Again	-5557
▁famil	-5558
--------	-5559
▁Training	-5560
▁Superintendent	-5561
BS	-5562
isc	-5563
▁requiring	-5564
asw	-5565
▁types	-5566
▁culture	-5567
off	-5568
▁Him	-5569
▁Mand	-5570
▁incl	-5571
ported	-5572
ometric	-5573
▁highlighted	-5574
▁operative	-5575
▁deposition	-5576
▁organization	-5577
▁thirty	-5578
▁lac	-5579
abled	-5580
ifies	-5581
▁antic	-5582
▁happy	-5583
bts	-5584
isen	-5585
▁top	-5586
lease	-5587
▁city	-5588
▁space	-5589
▁little	-5590
▁Disp	-5591
▁sources	-5592
▁asserted	-5593
▁meetings	-5594
▁corresponding	-5595
body	-5596
▁says	-5597
itally	-5598
▁Banks	-5599
▁ready	-5600
▁accommod	-5601
▁equivalent	-5602
Os	-5603
▁save	-5604
abling	-5605
▁Sector	-5606
▁entirely	-5607
▁movement	-5608
vity	-5609
▁bad	-5610
prise	-5611
▁guard	-5612
▁ruled	-5613
oubtedly	-5614
▁amalg	-5615
▁Conference	-5616
co	-5617
▁invoked	-5618
reet	-5619
▁gas	-5620
lex	-5621
rency	-5622
▁load	-5623
▁anticip	-5624
▁organiz	-5625
rist	-5626
osh	-5627
rance	-5628
▁repeated	-5629
MP	-5630
▁commod	-5631
▁cultiv	-5632
▁definite	-5633
▁CR	-5634
▁focus	-5635
▁Bangalore	-5636
▁RBI	-5637
▁inflic	-5638
▁cruelty	-5639
▁Resolution	-5640
▁pure	-5641
▁interven	-5642
OL	-5643
ume	-5644
▁license	-5645
▁storage	-5646
ung	-5647
issa	-5648
▁Dhar	-5649
▁crop	-5650
▁unfair	-5651
▁saw	-5652
icing	-5653
▁heirs	-5654
▁holds	-5655
▁struct	-5656
▁accepting	-5657
▁questioned	-5658
▁Inf	-5659
overe	-5660
▁task	-5661
akf	-5662
▁null	-5663
▁newsp	-5664
▁banking	-5665
▁cultural	-5666
▁pertinent	-5667
▁Year	-5668
▁soft	-5669
▁Two	-5670
othes	-5671
▁exclus	-5672
▁consumption	-5673
▁fear	-5674
▁tenure	-5675
anied	-5676
▁stock	-5677
▁obviously	-5678
▁di	-5679
▁substantially	-5680
▁Meh	-5681
▁Chen	-5682
▁hear	-5683
▁extract	-5684
Amendment	-5685
▁initiatives	-5686
uel	-5687
employ	-5688
▁histor	-5689
istrator	-5690
▁Capital	-5691
▁Territories	-5692
▁Ge	-5693
rah	-5694
inet	-5695
.....	-5696
▁Compl	-5697
▁audit	-5698
▁clean	-5699
▁vires	-5700
▁reduce	-5701
▁elections	-5702
▁Pak	-5703
hibition	-5704
▁identify	-5705
emed	-5706
▁marg	-5707
▁arisen	-5708
CR	-5709
ugg	-5710
adav	-5711
▁Kar	-5712
▁City	-5713
▁Rajya	-5714
▁Selection	-5715
▁exc	-5716
derabad	-5717
▁dealer	-5718
stituting	-5719
▁partition	-5720
▁conversion	-5721
▁bona	-5722
▁supra	-5723
▁unnecess	-5724
ians	-5725
ategory	-5726
▁excise	-5727
▁emphasis	-5728
▁applicants	-5729
mort	-5730
▁Chh	-5731
▁Enter	-5732
▁crucial	-5733
▁sentences	-5734
VE	-5735
enth	-5736
oned	-5737
holder	-5738
▁accompanied	-5739
▁participated	-5740
▁cri	-5741
▁week	-5742
▁urban	-5743
▁motion	-5744
▁inclined	-5745
▁Designated	-5746
ja	-5747
▁Ur	-5748
ites	-5749
▁Kol	-5750
▁You	-5751
ayukta	-5752
▁fields	-5753
▁Austral	-5754
▁compromise	-5755
For	-5756
aug	-5757
▁Their	-5758
▁VI	-5759
ulating	-5760
▁ultimate	-5761
▁innovation	-5762
▁distinguished	-5763
AI	-5764
▁foot	-5765
▁aggreg	-5766
mination	-5767
▁borrower	-5768
▁Sun	-5769
▁late	-5770
estion	-5771
▁developing	-5772
▁Engineering	-5773
▁Govt	-5774
▁mist	-5775
▁Prakash	-5776
▁privilege	-5777
▁Committees	-5778
▁agriculture	-5779
▁cy	-5780
▁hom	-5781
▁warm	-5782
▁Session	-5783
▁chemical	-5784
▁Das	-5785
▁Manager	-5786
▁arrears	-5787
▁Bab	-5788
▁Dem	-5789
▁harm	-5790
sees	-5791
▁block	-5792
▁Bharat	-5793
nan	-5794
itan	-5795
▁sem	-5796
▁dr	-5797
omin	-5798
wari	-5799
▁Maj	-5800
▁relax	-5801
▁Mohd	-5802
▁consisting	-5803
vas	-5804
▁don	-5805
▁Food	-5806
▁felic	-5807
▁taxation	-5808
UD	-5809
HAN	-5810
sub	-5811
head	-5812
sych	-5813
▁send	-5814
▁pregn	-5815
▁touch	-5816
▁servants	-5817
utt	-5818
▁prefer	-5819
▁average	-5820
BC	-5821
▁NG	-5822
▁borne	-5823
▁finds	-5824
▁paying	-5825
▁universities	-5826
FT	-5827
▁tort	-5828
▁monthly	-5829
▁prosper	-5830
▁Security	-5831
▁photograph	-5832
▁Orissa	-5833
▁British	-5834
▁Hyderabad	-5835
ena	-5836
▁PM	-5837
▁Gre	-5838
▁stake	-5839
▁domain	-5840
▁weapons	-5841
mn	-5842
jit	-5843
▁anim	-5844
▁vote	-5845
▁planning	-5846
▁acceptable	-5847
▁nomination	-5848
oti	-5849
rav	-5850
▁paras	-5851
▁Consid	-5852
▁Tribes	-5853
▁documentary	-5854
▁Est	-5855
▁Mit	-5856
▁Unit	-5857
▁sure	-5858
▁effort	-5859
▁regulatory	-5860
▁size	-5861
▁offender	-5862
oke	-5863
▁defe	-5864
▁goes	-5865
▁front	-5866
▁liter	-5867
▁justify	-5868
▁largest	-5869
▁Administration	-5870
▁Kam	-5871
▁cancellation	-5872
otion	-5873
▁dates	-5874
ciation	-5875
ologies	-5876
▁clearance	-5877
▁Ve	-5878
aves	-5879
bhai	-5880
▁gets	-5881
▁identical	-5882
▁flat	-5883
▁Stand	-5884
▁Market	-5885
▁enabling	-5886
▁involves	-5887
alli	-5888
orrect	-5889
▁offices	-5890
▁dismissing	-5891
▁chain	-5892
▁Subject	-5893
▁opposed	-5894
▁concerns	-5895
▁beneficial	-5896
ependence	-5897
▁Imp	-5898
ortun	-5899
▁genuine	-5900
▁negative	-5901
cons	-5902
inger	-5903
amount	-5904
▁ingredients	-5905
▁Pan	-5906
▁Econom	-5907
▁science	-5908
▁suspension	-5909
iche	-5910
haust	-5911
▁fast	-5912
▁numbers	-5913
▁occupation	-5914
vance	-5915
▁entreprene	-5916
▁description	-5917
khand	-5918
▁input	-5919
▁Village	-5920
ESS	-5921
adh	-5922
esty	-5923
▁licen	-5924
▁Appeals	-5925
▁methods	-5926
▁maintaining	-5927
▁represented	-5928
sing	-5929
▁ban	-5930
▁copies	-5931
▁harassment	-5932
▁reasonably	-5933
▁underlying	-5934
▁Ans	-5935
▁divorce	-5936
▁insured	-5937
▁reb	-5938
▁Based	-5939
▁spread	-5940
▁notices	-5941
▁correctly	-5942
▁foregoing	-5943
▁RI	-5944
▁nut	-5945
▁Houses	-5946
▁workman	-5947
An	-5948
icro	-5949
▁Try	-5950
mortem	-5951
▁Ashok	-5952
▁Credit	-5953
▁multip	-5954
▁experts	-5955
▁computing	-5956
▁rejection	-5957
▁electronic	-5958
SCC	-5959
ocal	-5960
▁Dub	-5961
▁NCT	-5962
▁seed	-5963
▁highly	-5964
▁external	-5965
▁Net	-5966
▁CA	-5967
▁invited	-5968
▁cry	-5969
gress	-5970
▁Reddy	-5971
UM	-5972
▁gun	-5973
cture	-5974
▁Claim	-5975
▁round	-5976
▁Chennai	-5977
kata	-5978
ureau	-5979
▁honour	-5980
Em	-5981
ini	-5982
lam	-5983
▁१६	-5984
onsid	-5985
▁Survey	-5986
▁centres	-5987
garh	-5988
order	-5989
▁vision	-5990
▁ascertain	-5991
▁Sum	-5992
igarh	-5993
▁BCCI	-5994
▁hotel	-5995
▁relate	-5996
▁sovere	-5997
▁Arbitral	-5998
▁scheduled	-5999
ili	-6000
▁Port	-6001
essees	-6002
▁abroad	-6003
▁precedent	-6004
rab	-6005
uration	-6006
▁proceeds	-6007
▁Sah	-6008
▁rap	-6009
etary	-6010
▁inside	-6011
▁carefully	-6012
▁commitment	-6013
▁participate	-6014
bal	-6015
▁Aut	-6016
▁DEL	-6017
▁Her	-6018
▁Rav	-6019
▁hope	-6020
▁illust	-6021
▁mainly	-6022
▁forwarded	-6023
▁undue	-6024
▁Krishna	-6025
TH	-6026
▁exhaust	-6027
▁signature	-6028
▁designated	-6029
▁lying	-6030
ders	-6031
▁ment	-6032
▁crops	-6033
▁violated	-6034
olition	-6035
▁unique	-6036
▁depends	-6037
▁comprising	-6038
▁perspective	-6039
▁cart	-6040
aneous	-6041
▁Category	-6042
▁collective	-6043
▁Your	-6044
▁memo	-6045
▁Being	-6046
▁theory	-6047
▁jurispr	-6048
▁teaching	-6049
▁Digitally	-6050
▁allegedly	-6051
▁extremely	-6052
▁Art	-6053
▁God	-6054
▁cal	-6055
▁Found	-6056
▁explo	-6057
▁Notice	-6058
▁Himachal	-6059
▁conclude	-6060
▁Chairperson	-6061
whe	-6062
▁vag	-6063
▁Note	-6064
▁idea	-6065
roller	-6066
▁destro	-6067
▁square	-6068
▁subjects	-6069
▁appointing	-6070
tains	-6071
▁Stud	-6072
resident	-6073
▁ignored	-6074
▁continuing	-6075
▁organisation	-6076
LA	-6077
aks	-6078
▁Ca	-6079
▁rect	-6080
▁weapon	-6081
▁implied	-6082
▁partner	-6083
▁depending	-6084
mi	-6085
rew	-6086
laws	-6087
ially	-6088
eeping	-6089
▁preceding	-6090
▁Ay	-6091
▁ant	-6092
▁obs	-6093
▁anti	-6094
▁absor	-6095
General	-6096
▁propri	-6097
yam	-6098
▁Yadav	-6099
▁denial	-6100
▁wealth	-6101
▁implead	-6102
▁morality	-6103
▁incorrect	-6104
▁specify	-6105
▁Marriage	-6106
▁processes	-6107
▁admittedly	-6108
▁Add	-6109
▁shif	-6110
▁female	-6111
▁dispose	-6112
▁Transfer	-6113
▁biometric	-6114
▁suggestion	-6115
upon	-6116
▁Exp	-6117
oring	-6118
▁interf	-6119
▁Managing	-6120
▁continuous	-6121
▁advertisement	-6122
pal	-6123
▁armed	-6124
▁shared	-6125
▁exclusively	-6126
▁suggestions	-6127
ankar	-6128
▁obvious	-6129
▁Equ	-6130
adequ	-6131
▁opening	-6132
▁certified	-6133
ila	-6134
▁Reform	-6135
▁opened	-6136
▁Science	-6137
▁Authorities	-6138
▁limitations	-6139
▁IS	-6140
▁weak	-6141
▁moral	-6142
▁range	-6143
▁internal	-6144
See	-6145
▁story	-6146
▁Verified	-6147
▁promoted	-6148
▁informant	-6149
.00	-6150
▁PE	-6151
haps	-6152
▁Tem	-6153
▁friends	-6154
▁attained	-6155
▁lays	-6156
▁Force	-6157
▁Rural	-6158
▁ability	-6159
▁purview	-6160
▁Although	-6161
▁emergency	-6162
which	-6163
▁Branch	-6164
▁laying	-6165
▁vacancy	-6166
▁Property	-6167
▁Engineers	-6168
▁acknowled	-6169
▁outstanding	-6170
▁interpreting	-6171
owed	-6172
▁burn	-6173
enders	-6174
oration	-6175
▁colour	-6176
Con	-6177
oul	-6178
▁IST	-6179
▁NEW	-6180
uality	-6181
▁calls	-6182
▁Others	-6183
▁landing	-6184
▁reconsid	-6185
▁regional	-6186
bh	-6187
rand	-6188
▁Kish	-6189
▁formula	-6190
▁tenancy	-6191
▁authentication	-6192
RC	-6193
▁Vid	-6194
Civil	-6195
monial	-6196
▁imposs	-6197
▁considerable	-6198
Comp	-6199
▁lif	-6200
▁Social	-6201
▁perused	-6202
▁inclusive	-6203
▁alien	-6204
▁divid	-6205
atically	-6206
▁Exhibit	-6207
▁Pakistan	-6208
▁improvement	-6209
DS	-6210
aling	-6211
▁adduced	-6212
▁reduction	-6213
▁corporation	-6214
▁consequently	-6215
▁UGC	-6216
▁Issue	-6217
▁growing	-6218
▁infring	-6219
▁deserves	-6220
▁imperative	-6221
▁essentially	-6222
▁Sanj	-6223
isable	-6224
overty	-6225
▁excell	-6226
▁efficiency	-6227
ails	-6228
▁Vij	-6229
▁celeb	-6230
▁Clauses	-6231
▁currency	-6232
▁Crime	-6233
▁floor	-6234
▁feature	-6235
▁compared	-6236
▁revealed	-6237
▁controlled	-6238
ora	-6239
gone	-6240
▁suspic	-6241
▁villages	-6242
▁nominated	-6243
▁incidental	-6244
▁rehabilitation	-6245
urt	-6246
▁World	-6247
▁placing	-6248
▁Chandigarh	-6249
ni	-6250
writ	-6251
▁black	-6252
▁stayed	-6253
▁travel	-6254
▁adverted	-6255
▁computer	-6256
▁PWs	-6257
▁awards	-6258
▁narrow	-6259
▁studies	-6260
▁fulfilled	-6261
chol	-6262
inem	-6263
ushan	-6264
othing	-6265
▁indul	-6266
▁plants	-6267
▁consists	-6268
▁pleasure	-6269
▁priority	-6270
enable	-6271
▁equitable	-6272
▁rejecting	-6273
▁undertake	-6274
▁liabilities	-6275
def	-6276
▁spite	-6277
▁bilateral	-6278
▁modification	-6279
oles	-6280
▁Out	-6281
▁Women	-6282
▁advised	-6283
aksh	-6284
▁cum	-6285
▁Oper	-6286
▁plans	-6287
▁closed	-6288
▁Constituent	-6289
▁preparation	-6290
ATE	-6291
mun	-6292
leum	-6293
ellig	-6294
ruits	-6295
▁blast	-6296
▁Common	-6297
▁deprived	-6298
▁integral	-6299
▁Jay	-6300
▁ends	-6301
▁Corpor	-6302
▁corrupt	-6303
▁Standing	-6304
▁entities	-6305
ney	-6306
▁VII	-6307
▁mix	-6308
ching	-6309
isted	-6310
rapali	-6311
▁Awards	-6312
▁families	-6313
▁launched	-6314
▁establishing	-6315
▁congrat	-6316
▁innocent	-6317
▁construct	-6318
▁Op	-6319
▁Defence	-6320
tificates	-6321
▁unauthor	-6322
▁formulated	-6323
opp	-6324
ected	-6325
▁forfe	-6326
▁yield	-6327
▁perpet	-6328
▁liberal	-6329
▁Speaking	-6330
▁investors	-6331
▁lab	-6332
▁feed	-6333
▁crimes	-6334
▁felicitations	-6335
Un	-6336
iece	-6337
▁Euro	-6338
▁deposits	-6339
riages	-6340
▁tests	-6341
▁Object	-6342
▁moment	-6343
osen	-6344
▁admit	-6345
▁Follow	-6346
▁relatives	-6347
▁Var	-6348
▁orient	-6349
▁Tribunals	-6350
▁societies	-6351
Ad	-6352
izes	-6353
▁leases	-6354
ensation	-6355
▁Amrapali	-6356
▁soil	-6357
▁faculty	-6358
play	-6359
orily	-6360
▁incent	-6361
▁variety	-6362
more	-6363
▁FOR	-6364
▁hab	-6365
▁Consumer	-6366
▁implication	-6367
AIR	-6368
▁Each	-6369
▁ultra	-6370
▁fixing	-6371
▁expedit	-6372
▁Gh	-6373
▁Kaur	-6374
▁vacant	-6375
▁compulsory	-6376
inqu	-6377
▁Tar	-6378
▁stages	-6379
nov	-6380
raf	-6381
▁Jhar	-6382
▁similarly	-6383
unior	-6384
▁wanted	-6385
▁permits	-6386
▁reliable	-6387
EF	-6388
kn	-6389
mal	-6390
ows	-6391
vere	-6392
▁adult	-6393
▁built	-6394
▁loans	-6395
▁stamp	-6396
▁leaving	-6397
▁Railways	-6398
▁observing	-6399
▁Vin	-6400
▁decades	-6401
ropol	-6402
▁scen	-6403
▁Gopal	-6404
▁casual	-6405
▁prevailing	-6406
▁batch	-6407
appa	-6408
clear	-6409
▁town	-6410
roleum	-6411
▁declined	-6412
▁designed	-6413
▁aggregate	-6414
▁unnecessary	-6415
orn	-6416
public	-6417
▁qualifying	-6418
▁oath	-6419
abinet	-6420
irable	-6421
▁Money	-6422
▁sides	-6423
▁dishon	-6424
emphasis	-6425
▁undergone	-6426
▁prosperity	-6427
elling	-6428
▁resort	-6429
▁Revision	-6430
▁discriminatory	-6431
xx	-6432
▁code	-6433
▁uses	-6434
▁royal	-6435
ichever	-6436
▁effected	-6437
▁empowers	-6438
▁Institutions	-6439
▁Ro	-6440
chand	-6441
▁DELHI	-6442
▁Consult	-6443
▁surrender	-6444
▁departmental	-6445
▁bomb	-6446
▁chosen	-6447
▁visited	-6448
▁Planning	-6449
▁membership	-6450
▁shareholders	-6451
mp	-6452
uck	-6453
▁ge	-6454
▁eth	-6455
▁neigh	-6456
▁valuation	-6457
▁Car	-6458
▁Hotel	-6459
▁liquor	-6460
▁solely	-6461
▁NI	-6462
like	-6463
▁East	-6464
▁deeds	-6465
▁derived	-6466
▁backward	-6467
▁terminated	-6468
SL	-6469
ghal	-6470
igilance	-6471
▁relevance	-6472
▁institutional	-6473
▁notifications	-6474
Reg	-6475
ilos	-6476
▁persu	-6477
▁buyers	-6478
▁Secondly	-6479
▁Judicature	-6480
▁Jam	-6481
▁federal	-6482
▁cell	-6483
▁lines	-6484
▁essence	-6485
NG	-6486
▁Sale	-6487
judicial	-6488
▁Circular	-6489
▁organized	-6490
TS	-6491
ze	-6492
▁GO	-6493
▁brok	-6494
▁Patna	-6495
▁punished	-6496
▁behaviour	-6497
▁terrorist	-6498
▁communicated	-6499
▁circumstantial	-6500
enant	-6501
velled	-6502
▁socio	-6503
▁whichever	-6504
uddin	-6505
▁Only	-6506
▁Vish	-6507
▁mass	-6508
▁river	-6509
▁collabor	-6510
▁Societies	-6511
▁entertained	-6512
arency	-6513
▁Annual	-6514
apur	-6515
awan	-6516
icus	-6517
rase	-6518
▁Roy	-6519
▁mus	-6520
▁caution	-6521
▁exclude	-6522
▁housing	-6523
▁sentencing	-6524
MENT	-6525
▁Conc	-6526
▁tenants	-6527
▁Memorandum	-6528
,0	-6529
Su	-6530
uti	-6531
▁leads	-6532
▁Following	-6533
▁Prevention	-6534
▁affidavits	-6535
▁representing	-6536
lets	-6537
ulatory	-6538
▁choose	-6539
▁exempt	-6540
▁jointly	-6541
▁opposite	-6542
▁partners	-6543
▁treating	-6544
▁Foundation	-6545
▁indirectly	-6546
▁inadequ	-6547
▁Signature	-6548
▁cog	-6549
ilosop	-6550
▁fault	-6551
▁anyone	-6552
▁houses	-6553
car	-6554
▁dig	-6555
onance	-6556
▁joined	-6557
▁Seventh	-6558
▁enables	-6559
▁suspect	-6560
plaintiff	-6561
▁judicata	-6562
▁multiple	-6563
▁categorically	-6564
▁gift	-6565
▁entering	-6566
▁safeguard	-6567
aman	-6568
▁jail	-6569
▁announ	-6570
▁lawful	-6571
▁trading	-6572
▁).	-6573
▁AM	-6574
▁Federal	-6575
▁superann	-6576
actory	-6577
assion	-6578
▁MO	-6579
hana	-6580
look	-6581
▁Nath	-6582
▁enqu	-6583
▁reliefs	-6584
▁Sin	-6585
▁Persons	-6586
▁reveals	-6587
ropolitan	-6588
▁corroborated	-6589
amus	-6590
▁compr	-6591
oo	-6592
▁Div	-6593
▁alloc	-6594
▁panel	-6595
▁plots	-6596
▁expand	-6597
aneously	-6598
▁difficulty	-6599
▁endeavour	-6600
▁jurisprudence	-6601
Res	-6602
erous	-6603
anasia	-6604
▁smugg	-6605
▁Europe	-6606
▁multipl	-6607
▁premium	-6608
uthanasia	-6609
TA	-6610
▁bags	-6611
ducing	-6612
▁psych	-6613
▁observe	-6614
▁serving	-6615
▁recourse	-6616
▁equipment	-6617
▁Bud	-6618
▁Advis	-6619
▁firms	-6620
▁prospective	-6621
lad	-6622
▁precise	-6623
▁Agriculture	-6624
▁expressions	-6625
▁deficiencies	-6626
▁Gang	-6627
▁nine	-6628
▁Sales	-6629
▁exact	-6630
▁quota	-6631
▁teleph	-6632
▁involve	-6633
▁minority	-6634
▁customers	-6635
▁ND	-6636
▁Vik	-6637
▁rich	-6638
iveness	-6639
▁outset	-6640
▁played	-6641
▁series	-6642
▁IC	-6643
▁AIC	-6644
▁finality	-6645
▁Jharkhand	-6646
▁proposals	-6647
▁intervention	-6648
isp	-6649
▁nu	-6650
nergy	-6651
urate	-6652
uniary	-6653
▁animal	-6654
▁finger	-6655
rimonial	-6656
▁encourage	-6657
▁originally	-6658
▁investments	-6659
ulter	-6660
▁ideas	-6661
ruption	-6662
▁Nations	-6663
▁eventually	-6664
cont	-6665
▁Lie	-6666
▁Here	-6667
▁aged	-6668
▁juvenile	-6669
▁interview	-6670
▁promoting	-6671
▁monitoring	-6672
▁contractual	-6673
▁NJ	-6674
ario	-6675
▁sac	-6676
▁Dubai	-6677
▁Ident	-6678
▁allott	-6679
▁lessee	-6680
▁summons	-6681
▁impossible	-6682
▁organizations	-6683
▁Its	-6684
▁aims	-6685
▁tonn	-6686
ceived	-6687
▁forces	-6688
▁Mission	-6689
▁patients	-6690
MM	-6691
▁EC	-6692
agers	-6693
▁mercy	-6694
stwhile	-6695
▁saying	-6696
▁minutes	-6697
statement	-6698
▁turnover	-6699
▁corruption	-6700
▁Gl	-6701
arsh	-6702
▁Verma	-6703
▁depre	-6704
▁transl	-6705
▁cancelled	-6706
dd	-6707
ida	-6708
▁Dal	-6709
oming	-6710
worth	-6711
▁resign	-6712
inations	-6713
▁Mineral	-6714
▁Congress	-6715
▁reflected	-6716
▁consonance	-6717
▁practition	-6718
▁dim	-6719
▁assault	-6720
▁residing	-6721
▁admissions	-6722
▁enterprise	-6723
icket	-6724
itated	-6725
▁disturb	-6726
▁transform	-6727
▁sets	-6728
rolment	-6729
▁customs	-6730
▁assessing	-6731
▁box	-6732
▁urg	-6733
iration	-6734
▁irrigation	-6735
▁Confessional	-6736
no	-6737
▁je	-6738
▁Sir	-6739
▁neighb	-6740
▁Kolkata	-6741
▁animals	-6742
▁autonomy	-6743
▁directors	-6744
▁erstwhile	-6745
▁Saf	-6746
abric	-6747
▁camp	-6748
utable	-6749
rations	-6750
▁traffic	-6751
▁Mines	-6752
▁Bureau	-6753
▁speedy	-6754
▁departments	-6755
▁big	-6756
closed	-6757
ournal	-6758
olidated	-6759
earing	-6760
▁exceptional	-6761
▁territorial	-6762
va	-6763
ement	-6764
iddle	-6765
▁vers	-6766
endants	-6767
sections	-6768
▁pressure	-6769
▁territories	-6770
▁(“	-6771
being	-6772
▁fuel	-6773
▁item	-6774
▁Exper	-6775
▁drugs	-6776
▁looked	-6777
▁Lordship	-6778
inked	-6779
ressal	-6780
▁Appro	-6781
▁PWxad	-6782
▁lapse	-6783
▁roads	-6784
▁Master	-6785
▁centre	-6786
▁route	-6787
▁presently	-6788
ridge	-6789
▁Forum	-6790
atively	-6791
utenant	-6792
▁Housing	-6793
▁location	-6794
▁residents	-6795
▁appreciated	-6796
▁engineering	-6797
otal	-6798
▁fort	-6799
▁encro	-6800
▁approx	-6801
▁usually	-6802
▁enforced	-6803
▁inclusion	-6804
.]	-6805
▁worship	-6806
▁software	-6807
▁Technical	-6808
▁marketing	-6809
▁Inc	-6810
▁ded	-6811
▁milk	-6812
▁buyer	-6813
▁learn	-6814
▁desire	-6815
▁awareness	-6816
▁seriously	-6817
▁parliament	-6818
▁competitive	-6819
▁traditional	-6820
▁introduction	-6821
▁Mu	-6822
▁Neh	-6823
ertil	-6824
▁ammun	-6825
▁sometimes	-6826
▁regulating	-6827
▁safeguards	-6828
▁raw	-6829
▁Apex	-6830
▁heavy	-6831
▁Estate	-6832
▁adoption	-6833
▁Considering	-6834
DC	-6835
pers	-6836
▁Pay	-6837
amble	-6838
▁arch	-6839
▁vary	-6840
▁inaug	-6841
▁piece	-6842
Emphasis	-6843
EE	-6844
aji	-6845
rupt	-6846
burse	-6847
igher	-6848
▁elim	-6849
▁phone	-6850
▁unjust	-6851
▁inspect	-6852
▁critical	-6853
▁Mun	-6854
▁constitutes	-6855
aut	-6856
uit	-6857
▁How	-6858
▁hit	-6859
hension	-6860
▁Bhushan	-6861
▁Lieutenant	-6862
▁Regulatory	-6863
LR	-6864
▁NJAC	-6865
▁divers	-6866
anguages	-6867
▁careful	-6868
ettlement	-6869
▁Economic	-6870
▁occasions	-6871
▁transfere	-6872
▁allowances	-6873
▁contesting	-6874
▁Kan	-6875
▁Like	-6876
▁Then	-6877
▁Afric	-6878
▁youth	-6879
▁component	-6880
raj	-6881
owners	-6882
▁Urban	-6883
▁spect	-6884
▁Competent	-6885
Cr	-6886
known	-6887
▁male	-6888
eshwar	-6889
▁summar	-6890
▁voting	-6891
▁demands	-6892
▁wrongly	-6893
▁Petitions	-6894
▁converted	-6895
▁km	-6896
power	-6897
▁AICTE	-6898
▁Innov	-6899
▁waste	-6900
▁comment	-6901
▁poverty	-6902
▁advocates	-6903
▁enhancement	-6904
▁kg	-6905
▁१७	-6906
▁culp	-6907
▁Moham	-6908
▁Cabinet	-6909
▁implementing	-6910
ets	-6911
▁creates	-6912
▁hostile	-6913
▁winding	-6914
▁computed	-6915
▁averments	-6916
▁ways	-6917
▁thinks	-6918
IM	-6919
▁Nehru	-6920
▁assumed	-6921
▁calling	-6922
▁pattern	-6923
▁Building	-6924
▁elements	-6925
▁whenever	-6926
▁estimated	-6927
▁forthwith	-6928
rif	-6929
▁Nor	-6930
▁boy	-6931
▁fifteen	-6932
▁division	-6933
▁wherever	-6934
▁enactments	-6935
▁--	-6936
iman	-6937
▁bed	-6938
▁Sinha	-6939
▁respond	-6940
▁attended	-6941
NL	-6942
rum	-6943
▁heads	-6944
▁imped	-6945
▁scene	-6946
▁fraudul	-6947
DI	-6948
gi	-6949
▁rad	-6950
▁filling	-6951
▁retained	-6952
▁pollution	-6953
▁performing	-6954
▁Enterprises	-6955
▁arrangements	-6956
PR	-6957
▁Advocates	-6958
▁appearance	-6959
loc	-6960
ster	-6961
▁lat	-6962
▁Upon	-6963
ustain	-6964
▁Reforms	-6965
▁districts	-6966
▁strengthen	-6967
▁draf	-6968
ounded	-6969
aterial	-6970
iciaries	-6971
▁cognizable	-6972
▁Fl	-6973
inter	-6974
otton	-6975
▁Sant	-6976
▁earth	-6977
▁arrive	-6978
▁Keeping	-6979
▁affecting	-6980
▁competition	-6981
▁Fac	-6982
▁fill	-6983
ifiable	-6984
▁accorded	-6985
▁rendering	-6986
ima	-6987
▁Paper	-6988
▁depart	-6989
▁execute	-6990
▁permitting	-6991
▁Data	-6992
▁discrep	-6993
▁licensee	-6994
▁memorandum	-6995
ompl	-6996
▁Oil	-6997
▁wis	-6998
▁bill	-6999
▁posted	-7000
▁turned	-7001
isations	-7002
▁evaluation	-7003
▁pages	-7004
ordinary	-7005
▁clothes	-7006
▁lawyers	-7007
▁confirmation	-7008
▁contributions	-7009
▁CJ	-7010
athy	-7011
▁Gram	-7012
▁Christ	-7013
▁juncture	-7014
▁achieving	-7015
▁university	-7016
eck	-7017
pat	-7018
▁Na	-7019
amma	-7020
athan	-7021
▁acre	-7022
▁brib	-7023
▁dict	-7024
▁faced	-7025
▁sanct	-7026
ariness	-7027
▁Maruti	-7028
▁Temple	-7029
▁medium	-7030
▁regulated	-7031
▁mitigating	-7032
▁:-	-7033
life	-7034
▁acid	-7035
▁altered	-7036
▁perhaps	-7037
▁conscience	-7038
▁initiative	-7039
▁Agricultural	-7040
▁destroy	-7041
▁dependent	-7042
▁succession	-7043
▁Metropolitan	-7044
India	-7045
idance	-7046
▁killed	-7047
RD	-7048
▁hrs	-7049
▁summary	-7050
▁Language	-7051
vol	-7052
ming	-7053
▁Ban	-7054
▁NIT	-7055
▁Ibid	-7056
▁sons	-7057
▁Party	-7058
▁existed	-7059
ariat	-7060
▁born	-7061
▁wise	-7062
▁besides	-7063
▁surround	-7064
▁veget	-7065
▁fabric	-7066
▁empower	-7067
▁looking	-7068
▁Administrator	-7069
▁superannuation	-7070
mer	-7071
▁Pune	-7072
▁royalty	-7073
▁happened	-7074
▁separation	-7075
▁matrimonial	-7076
ler	-7077
▁Steel	-7078
▁fourth	-7079
▁figures	-7080
▁conformity	-7081
▁technologies	-7082
ava	-7083
▁Exh	-7084
aters	-7085
ellect	-7086
▁Motor	-7087
▁schol	-7088
Company	-7089
▁simult	-7090
▁resource	-7091
▁irrelevant	-7092
▁certificates	-7093
▁severe	-7094
▁claimants	-7095
▁convention	-7096
PP	-7097
▁sa	-7098
▁legality	-7099
▁declaring	-7100
▁purported	-7101
etic	-7102
ndra	-7103
chief	-7104
▁path	-7105
atform	-7106
▁aimed	-7107
▁NS	-7108
icity	-7109
▁cogent	-7110
▁leaders	-7111
▁scenario	-7112
▁stipulates	-7113
▁Investigation	-7114
▁UK	-7115
essor	-7116
akrish	-7117
▁annex	-7118
▁leaves	-7119
▁restored	-7120
▁reversed	-7121
▁accommodation	-7122
HER	-7123
iest	-7124
erved	-7125
▁stop	-7126
▁Controller	-7127
Appe	-7128
load	-7129
▁Just	-7130
▁fifty	-7131
▁assailed	-7132
▁philosop	-7133
▁presumed	-7134
▁illegality	-7135
▁revisional	-7136
▁beneficiaries	-7137
bar	-7138
▁See	-7139
▁alive	-7140
▁incap	-7141
▁viewed	-7142
atur	-7143
▁Higher	-7144
▁century	-7145
▁Industry	-7146
▁Lokayukta	-7147
▁interfered	-7148
▁substitute	-7149
▁supporting	-7150
▁undoubtedly	-7151
LE	-7152
iah	-7153
▁Son	-7154
▁Over	-7155
▁cere	-7156
ranches	-7157
▁considers	-7158
▁components	-7159
▁Cooperative	-7160
FC	-7161
time	-7162
▁Sik	-7163
▁rul	-7164
▁enun	-7165
▁fulfil	-7166
▁eminent	-7167
▁subscrib	-7168
▁household	-7169
▁Investment	-7170
da	-7171
▁Det	-7172
▁asp	-7173
astern	-7174
Section	-7175
▁deduct	-7176
▁phrase	-7177
▁institute	-7178
▁privileges	-7179
ansion	-7180
▁doubts	-7181
ictionary	-7182
OP	-7183
vii	-7184
▁BS	-7185
endix	-7186
▁nearly	-7187
▁offers	-7188
▁furnishing	-7189
rition	-7190
▁nexus	-7191
▁fairly	-7192
▁substanti	-7193
▁Grant	-7194
▁improper	-7195
▁invoking	-7196
▁anticipatory	-7197
van	-7198
▁gap	-7199
▁wisdom	-7200
▁contest	-7201
▁promise	-7202
▁amending	-7203
▁vitiated	-7204
Act	-7205
▁MC	-7206
face	-7207
plus	-7208
▁xad	-7209
rench	-7210
▁stra	-7211
▁entrepreneurs	-7212
yl	-7213
▁seem	-7214
▁Privy	-7215
▁Sanjay	-7216
▁returns	-7217
▁sharing	-7218
▁insolvency	-7219
▁discussions	-7220
▁CC	-7221
▁anc	-7222
posit	-7223
▁conj	-7224
▁Audit	-7225
▁demanded	-7226
▁compassion	-7227
▁communities	-7228
▁transparency	-7229
cum	-7230
drop	-7231
▁goal	-7232
active	-7233
▁nations	-7234
ordination	-7235
▁preference	-7236
▁discharging	-7237
%.	-7238
era	-7239
▁hes	-7240
thern	-7241
lihood	-7242
▁grand	-7243
▁ancient	-7244
▁evolved	-7245
▁expired	-7246
▁Assessment	-7247
▁SU	-7248
▁Gen	-7249
.......	-7250
▁confers	-7251
▁endorse	-7252
▁highlight	-7253
▁Chancellor	-7254
▁AD	-7255
▁Ten	-7256
▁cease	-7257
▁Agency	-7258
iliation	-7259
▁attempts	-7260
▁investigate	-7261
rin	-7262
▁Deb	-7263
▁Num	-7264
▁door	-7265
▁remote	-7266
▁Employees	-7267
▁prescribe	-7268
▁Petitioners	-7269
dar	-7270
▁spent	-7271
herry	-7272
▁green	-7273
uestion	-7274
witness	-7275
▁pecuniary	-7276
▁remission	-7277
▁Ref	-7278
▁stream	-7279
▁refusal	-7280
▁indicating	-7281
bu	-7282
eries	-7283
stant	-7284
ysore	-7285
▁perf	-7286
ussain	-7287
▁handling	-7288
▁resolved	-7289
apped	-7290
▁Jaipur	-7291
▁chance	-7292
▁retail	-7293
▁mistake	-7294
▁assumption	-7295
▁pronounced	-7296
▁transferee	-7297
fall	-7298
▁SA	-7299
▁frequ	-7300
▁gender	-7301
▁taxable	-7302
▁venture	-7303
▁Disputes	-7304
▁AW	-7305
akar	-7306
mary	-7307
alled	-7308
▁Good	-7309
▁throw	-7310
▁Energy	-7311
▁retain	-7312
▁contends	-7313
▁euthanasia	-7314
▁requisition	-7315
bir	-7316
▁Mere	-7317
▁experi	-7318
▁purely	-7319
▁Teachers	-7320
ustainable	-7321
UT	-7322
has	-7323
▁MP	-7324
itect	-7325
▁Prat	-7326
▁Tele	-7327
▁hardly	-7328
▁Process	-7329
▁securing	-7330
▁Principles	-7331
▁subxadsection	-7332
▁MW	-7333
oted	-7334
▁MSME	-7335
▁Thak	-7336
▁obliged	-7337
▁teacher	-7338
▁changing	-7339
▁concession	-7340
▁establishments	-7341
/-.	-7342
▁obsc	-7343
▁tour	-7344
▁Three	-7345
▁Vijay	-7346
▁Patent	-7347
▁branch	-7348
▁titled	-7349
▁cheques	-7350
▁extending	-7351
▁conclusive	-7352
idn	-7353
▁intr	-7354
▁remar	-7355
▁dispro	-7356
▁improving	-7357
▁computation	-7358
oly	-7359
itage	-7360
lands	-7361
▁stran	-7362
▁Despite	-7363
▁voluntarily	-7364
care	-7365
▁ore	-7366
▁Anil	-7367
applic	-7368
vation	-7369
▁deten	-7370
▁lesser	-7371
▁Nothing	-7372
▁drawing	-7373
▁morning	-7374
▁omitted	-7375
▁initiate	-7376
▁broadcast	-7377
▁demonstrate	-7378
▁constituting	-7379
SS	-7380
roc	-7381
▁wage	-7382
▁chart	-7383
ghalaya	-7384
▁strike	-7385
▁accompl	-7386
▁outcome	-7387
▁historical	-7388
opy	-7389
ains	-7390
para	-7391
▁lad	-7392
▁Anand	-7393
▁debate	-7394
▁discard	-7395
▁platform	-7396
▁depreciation	-7397
▁Nav	-7398
▁film	-7399
▁kill	-7400
▁bills	-7401
▁minds	-7402
▁client	-7403
▁protest	-7404
▁occurring	-7405
▁installation	-7406
▁PO	-7407
ridges	-7408
▁wider	-7409
▁street	-7410
ribution	-7411
▁Inquiry	-7412
▁prepare	-7413
▁remedies	-7414
TC	-7415
▁dro	-7416
▁user	-7417
▁Mehta	-7418
▁kinds	-7419
▁ticket	-7420
▁selling	-7421
▁therewith	-7422
▁emphasized	-7423
▁impermissible	-7424
▁Cle	-7425
▁table	-7426
▁confidential	-7427
emption	-7428
▁believed	-7429
▁legislations	-7430
hr	-7431
ded	-7432
▁love	-7433
▁incon	-7434
▁Associ	-7435
▁Independence	-7436
EB	-7437
olic	-7438
▁lot	-7439
▁China	-7440
▁aggrav	-7441
▁critic	-7442
omination	-7443
▁practical	-7444
MA	-7445
▁MB	-7446
▁CHA	-7447
▁Test	-7448
▁capt	-7449
▁Purch	-7450
▁Reasons	-7451
▁adulter	-7452
▁constitu	-7453
▁reaching	-7454
▁Secondary	-7455
cks	-7456
emn	-7457
▁hoc	-7458
▁Junior	-7459
laration	-7460
▁effects	-7461
▁duration	-7462
▁composition	-7463
Crl	-7464
uliar	-7465
▁club	-7466
▁heading	-7467
▁American	-7468
▁mandamus	-7469
▁executing	-7470
▁stakeholders	-7471
▁pist	-7472
▁accrued	-7473
▁display	-7474
▁student	-7475
▁disabilities	-7476
▁00	-7477
▁bott	-7478
▁domin	-7479
certain	-7480
reening	-7481
▁backdrop	-7482
▁fairness	-7483
DP	-7484
ba	-7485
mail	-7486
▁Rest	-7487
▁exhib	-7488
▁inputs	-7489
▁popular	-7490
▁desirable	-7491
▁pronounce	-7492
▁DW	-7493
otic	-7494
pura	-7495
arian	-7496
ensus	-7497
▁Town	-7498
▁cess	-7499
▁wall	-7500
▁purport	-7501
▁railway	-7502
▁samples	-7503
▁fixation	-7504
▁enrolment	-7505
▁Settlement	-7506
▁classified	-7507
VC	-7508
mat	-7509
amber	-7510
▁fulfill	-7511
▁peculiar	-7512
▁Australia	-7513
▁expansion	-7514
▁injustice	-7515
▁instances	-7516
▁contribute	-7517
▁compensatory	-7518
▁parliamentary	-7519
▁neck	-7520
▁figure	-7521
▁finance	-7522
▁litigant	-7523
▁pip	-7524
ensions	-7525
holding	-7526
▁surplus	-7527
▁NAB	-7528
aulted	-7529
▁maxim	-7530
▁failing	-7531
▁putting	-7532
▁livelihood	-7533
▁ec	-7534
pled	-7535
▁Shi	-7536
▁solemn	-7537
▁gr	-7538
▁Sush	-7539
▁therefrom	-7540
▁commencing	-7541
▁discipline	-7542
.'	-7543
IG	-7544
ulg	-7545
▁Lit	-7546
▁fla	-7547
attis	-7548
▁Chan	-7549
▁Ranj	-7550
▁abet	-7551
▁Conduct	-7552
▁relaxation	-7553
▁Lic	-7554
ether	-7555
orter	-7556
▁mala	-7557
▁vast	-7558
▁fired	-7559
▁steel	-7560
▁recently	-7561
▁Park	-7562
▁skill	-7563
▁incumb	-7564
▁measuring	-7565
▁suspicion	-7566
▁discretionary	-7567
PF	-7568
▁Lo	-7569
▁Sen	-7570
uated	-7571
▁simpl	-7572
▁losses	-7573
▁skills	-7574
▁healthy	-7575
▁newspaper	-7576
umn	-7577
nsic	-7578
chnama	-7579
ractor	-7580
▁refuse	-7581
▁Deposition	-7582
▁Limitation	-7583
▁Subsequently	-7584
hs	-7585
akes	-7586
▁Inst	-7587
▁easy	-7588
▁canvas	-7589
ications	-7590
▁knowing	-7591
▁Meghalaya	-7592
▁protecting	-7593
▁Orig	-7594
▁vehe	-7595
▁Mahat	-7596
▁Model	-7597
▁recip	-7598
ciences	-7599
▁Instru	-7600
▁easily	-7601
attisgarh	-7602
▁inflicted	-7603
▁Securities	-7604
▁contending	-7605
▁disqualified	-7606
▁transmission	-7607
hu	-7608
▁vex	-7609
▁rain	-7610
▁repl	-7611
▁Ramesh	-7612
▁guidance	-7613
▁unfortun	-7614
vert	-7615
▁Lep	-7616
▁Life	-7617
▁Count	-7618
▁break	-7619
iculture	-7620
ellectual	-7621
▁Mohammed	-7622
▁reducing	-7623
▁attributed	-7624
▁signatures	-7625
▁Six	-7626
▁pil	-7627
▁Doct	-7628
▁sick	-7629
ogether	-7630
▁Judiciary	-7631
▁deficiency	-7632
▁integrated	-7633
▁furtherance	-7634
▁presentation	-7635
▁cr	-7636
▁Vide	-7637
locutory	-7638
▁earning	-7639
▁adopting	-7640
▁Commissioners	-7641
▁dy	-7642
gery	-7643
rote	-7644
aland	-7645
▁grade	-7646
▁remin	-7647
▁Mysore	-7648
▁Furthermore	-7649
▁provisional	-7650
▁supervision	-7651
▁undertakings	-7652
econom	-7653
estern	-7654
regard	-7655
▁trying	-7656
mittedly	-7657
▁elaborate	-7658
▁convenience	-7659
▁administered	-7660
ole	-7661
ushed	-7662
▁enro	-7663
▁exceptions	-7664
▁hereinafter	-7665
')	-7666
▁Ka	-7667
▁UID	-7668
▁quo	-7669
▁Chow	-7670
▁secret	-7671
▁assuming	-7672
AGE	-7673
▁RD	-7674
▁monetary	-7675
▁starting	-7676
▁administer	-7677
▁Vehic	-7678
▁quasi	-7679
▁Please	-7680
▁belongs	-7681
▁fiction	-7682
▁excessive	-7683
▁generated	-7684
▁rely	-7685
fering	-7686
▁Caste	-7687
▁video	-7688
▁NABARD	-7689
▁pursue	-7690
▁Likewise	-7691
compliance	-7692
▁MM	-7693
▁Cro	-7694
inema	-7695
▁Trad	-7696
▁lieu	-7697
▁Nariman	-7698
▁divided	-7699
▁marriages	-7700
▁enforceable	-7701
▁chap	-7702
▁adversely	-7703
ugn	-7704
▁Many	-7705
▁Pursu	-7706
▁debts	-7707
▁drive	-7708
Appeals	-7709
veloper	-7710
▁Forces	-7711
▁online	-7712
▁reality	-7713
▁emerging	-7714
▁upholding	-7715
▁Admittedly	-7716
▁roll	-7717
▁blocks	-7718
▁cement	-7719
▁earned	-7720
▁allocated	-7721
▁arbitrariness	-7722
▁DG	-7723
▁Mur	-7724
▁tank	-7725
▁Establ	-7726
▁assent	-7727
▁channels	-7728
▁Vigilance	-7729
▁Directorate	-7730
RS	-7731
mity	-7732
cript	-7733
▁Indira	-7734
▁solution	-7735
▁reproduce	-7736
una	-7737
▁Da	-7738
▁covers	-7739
▁primacy	-7740
▁tendered	-7741
▁tribunals	-7742
▁differently	-7743
Ms	-7744
▁infer	-7745
▁negoti	-7746
plom	-7747
▁Sand	-7748
ertiliz	-7749
▁Recomm	-7750
▁enunci	-7751
▁tested	-7752
▁missing	-7753
▁guardian	-7754
▁amounting	-7755
▁assessees	-7756
▁municipal	-7757
ls	-7758
his	-7759
pla	-7760
▁TRA	-7761
▁Islam	-7762
▁fatal	-7763
▁Letter	-7764
▁supers	-7765
▁intellig	-7766
▁possibly	-7767
▁successfully	-7768
Ar	-7769
ding	-7770
▁pal	-7771
▁hect	-7772
▁prec	-7773
▁infirm	-7774
▁season	-7775
▁Kingdom	-7776
▁assured	-7777
▁immense	-7778
▁literal	-7779
aboratory	-7780
▁Departments	-7781
▁Examination	-7782
▁Gan	-7783
inous	-7784
opped	-7785
works	-7786
▁Disc	-7787
ladesh	-7788
▁praying	-7789
▁brothers	-7790
▁producing	-7791
▁engagement	-7792
▁extraordinary	-7793
ogue	-7794
▁Card	-7795
▁rapid	-7796
ardship	-7797
▁European	-7798
▁becoming	-7799
▁acknowledged	-7800
▁Av	-7801
atin	-7802
oday	-7803
▁inev	-7804
ensing	-7805
▁guide	-7806
▁conting	-7807
▁delayed	-7808
▁trained	-7809
▁alleging	-7810
▁deducted	-7811
▁overlook	-7812
▁jurisdictional	-7813
▁CL	-7814
▁enacting	-7815
▁personally	-7816
araj	-7817
hers	-7818
▁Joh	-7819
▁ensu	-7820
▁Taking	-7821
▁sealed	-7822
▁Narayan	-7823
▁species	-7824
▁approximately	-7825
▁ask	-7826
▁facto	-7827
▁sugar	-7828
▁manage	-7829
▁violate	-7830
▁perverse	-7831
▁prevention	-7832
▁resignation	-7833
jan	-7834
▁hyp	-7835
▁ambig	-7836
rection	-7837
▁Pursuant	-7838
▁compelled	-7839
▁explosives	-7840
▁Us	-7841
▁Ahm	-7842
urism	-7843
empted	-7844
rained	-7845
ricket	-7846
▁Those	-7847
economic	-7848
▁reforms	-7849
▁customer	-7850
▁formation	-7851
▁contraband	-7852
▁BY	-7853
▁zone	-7854
athered	-7855
▁driven	-7856
▁exchan	-7857
▁licences	-7858
▁simultaneously	-7859
▁Fact	-7860
▁imag	-7861
istries	-7862
▁Indeed	-7863
ederation	-7864
▁prescribes	-7865
▁Declaration	-7866
▁Environmental	-7867
▁Pass	-7868
▁twel	-7869
matter	-7870
▁unequ	-7871
▁Objects	-7872
▁exports	-7873
unication	-7874
▁supposed	-7875
long	-7876
▁Tel	-7877
▁knew	-7878
▁Press	-7879
▁fight	-7880
▁remun	-7881
▁brings	-7882
▁reveal	-7883
▁exceeds	-7884
▁markets	-7885
▁proving	-7886
▁tourism	-7887
)]	-7888
▁Din	-7889
▁vul	-7890
▁mines	-7891
▁apposite	-7892
▁earliest	-7893
▁vehement	-7894
▁expedient	-7895
oppel	-7896
▁Asia	-7897
stated	-7898
uments	-7899
▁Treat	-7900
▁weigh	-7901
whether	-7902
▁Africa	-7903
▁mandates	-7904
▁grievances	-7905
atel	-7906
sett	-7907
▁Rai	-7908
▁bur	-7909
ondon	-7910
▁Last	-7911
▁murd	-7912
▁Bills	-7913
▁apprehension	-7914
▁१८	-7915
▁Mil	-7916
▁Rat	-7917
▁resc	-7918
▁wrote	-7919
▁middle	-7920
▁Undertak	-7921
▁remember	-7922
▁expertise	-7923
▁structures	-7924
▁productivity	-7925
ronics	-7926
▁agents	-7927
▁asking	-7928
▁linked	-7929
▁mortem	-7930
▁scales	-7931
▁termed	-7932
▁hardship	-7933
▁commodity	-7934
▁strengthening	-7935
eet	-7936
iri	-7937
want	-7938
▁gar	-7939
bered	-7940
▁Ahmedabad	-7941
▁Promotion	-7942
▁Recommend	-7943
▁universal	-7944
▁assignment	-7945
▁supplementary	-7946
rical	-7947
▁Provin	-7948
▁desired	-7949
▁herself	-7950
▁installed	-7951
▁Governance	-7952
▁enterprises	-7953
ule	-7954
▁IR	-7955
rent	-7956
▁PRO	-7957
uriae	-7958
▁Liqu	-7959
▁Poll	-7960
▁affili	-7961
▁headed	-7962
▁Appoint	-7963
▁........	-7964
▁credibility	-7965
▁RE	-7966
rosy	-7967
▁Mrs	-7968
orrow	-7969
▁Area	-7970
▁Noida	-7971
▁convin	-7972
▁branches	-7973
▁illegally	-7974
▁specially	-7975
▁Construction	-7976
ordin	-7977
▁symb	-7978
▁shops	-7979
▁Nagpur	-7980
▁forming	-7981
▁exploitation	-7982
harma	-7983
atious	-7984
▁girls	-7985
▁train	-7986
▁Shaikh	-7987
▁afresh	-7988
▁delinqu	-7989
▁uncertain	-7990
▁corroboration	-7991
▁CE	-7992
▁ID	-7993
ilal	-7994
▁Rak	-7995
▁illness	-7996
▁suffers	-7997
▁covering	-7998
▁developments	-7999
▁pronouncement	-8000
▁reinstatement	-8001
It	-8002
On	-8003
▁Kap	-8004
▁Letters	-8005
▁annexed	-8006
akrishnan	-8007
▁gathered	-8008
▁excluding	-8009
▁Bangladesh	-8010
▁affirmative	-8011
▁formulation	-8012
▁instruments	-8013
▁disproportion	-8014
▁quote	-8015
▁assume	-8016
▁ceased	-8017
▁preval	-8018
▁Leprosy	-8019
▁ceiling	-8020
▁motorcy	-8021
bursement	-8022
▁comprised	-8023
coh	-8024
dict	-8025
eced	-8026
▁devi	-8027
service	-8028
▁availed	-8029
▁prohibit	-8030
▁attempted	-8031
Se	-8032
struct	-8033
▁Boards	-8034
▁Fourth	-8035
▁cities	-8036
▁narrated	-8037
▁sensitive	-8038
▁generating	-8039
▁ascertained	-8040
▁denomination	-8041
▁Luck	-8042
istence	-8043
▁Expert	-8044
▁guided	-8045
▁regime	-8046
▁decreed	-8047
▁Children	-8048
▁Commerce	-8049
▁paramount	-8050
▁Employment	-8051
▁expeditiously	-8052
CP	-8053
SA	-8054
iat	-8055
▁Mas	-8056
▁eld	-8057
▁lawyer	-8058
▁periods	-8059
▁promulg	-8060
▁director	-8061
▁diseases	-8062
▁verified	-8063
▁languages	-8064
PEAL	-8065
▁Mat	-8066
▁Death	-8067
▁command	-8068
▁exempted	-8069
▁apprehend	-8070
▁telephone	-8071
▁Sund	-8072
avings	-8073
▁relat	-8074
▁voice	-8075
▁coupled	-8076
▁nominee	-8077
UK	-8078
dden	-8079
inct	-8080
▁Bad	-8081
▁Hand	-8082
▁enshr	-8083
ferring	-8084
▁Orders	-8085
▁Tariff	-8086
▁diverse	-8087
▁falsely	-8088
▁pressed	-8089
▁extensive	-8090
▁substances	-8091
heet	-8092
▁Repe	-8093
▁marry	-8094
ableness	-8095
▁replaced	-8096
resentation	-8097
AND	-8098
iagn	-8099
▁Yet	-8100
▁Bach	-8101
▁Wakf	-8102
▁Grade	-8103
▁Scale	-8104
▁cryst	-8105
▁truck	-8106
ATIONAL	-8107
▁deleted	-8108
▁eve	-8109
▁mob	-8110
▁Most	-8111
ananda	-8112
ulative	-8113
▁Eastern	-8114
▁anteced	-8115
▁canvassed	-8116
▁discovery	-8117
▁excellence	-8118
ams	-8119
▁CS	-8120
▁Fee	-8121
▁COUR	-8122
▁usage	-8123
▁showed	-8124
▁Mahatma	-8125
▁entirety	-8126
▁dissolution	-8127
▁distributed	-8128
lal	-8129
uru	-8130
▁pp	-8131
five	-8132
▁Prem	-8133
▁Paras	-8134
▁Patel	-8135
itative	-8136
▁Without	-8137
▁preserve	-8138
▁Guidelines	-8139
▁stipulation	-8140
▁automatically	-8141
ARY	-8142
▁UP	-8143
prin	-8144
▁Crl	-8145
▁ago	-8146
enary	-8147
▁deny	-8148
▁sixty	-8149
▁Suresh	-8150
▁extingu	-8151
▁gravity	-8152
▁Accounts	-8153
▁arriving	-8154
▁assertion	-8155
▁impartial	-8156
▁tune	-8157
▁Ambed	-8158
▁Among	-8159
▁Canada	-8160
▁Online	-8161
▁Register	-8162
▁belonged	-8163
▁explicit	-8164
▁ourselves	-8165
▁innovative	-8166
▁distinguish	-8167
▁adjudicating	-8168
▁Amb	-8169
▁Pad	-8170
▁bud	-8171
▁Need	-8172
▁goals	-8173
▁reserve	-8174
▁cultivation	-8175
▁contemplates	-8176
▁IO	-8177
▁SI	-8178
odal	-8179
stone	-8180
trans	-8181
▁MBBS	-8182
▁eyes	-8183
▁twelve	-8184
▁whereof	-8185
▁Ambedkar	-8186
▁compelling	-8187
▁exhaustive	-8188
▁difficulties	-8189
FA	-8190
PTER	-8191
▁hyd	-8192
▁embod	-8193
▁amalgam	-8194
▁prisoner	-8195
▁proportionality	-8196
gaon	-8197
▁Bai	-8198
▁DDA	-8199
▁USA	-8200
▁sea	-8201
ament	-8202
▁Open	-8203
▁pict	-8204
▁alias	-8205
▁London	-8206
▁engage	-8207
▁grants	-8208
▁expectation	-8209
aq	-8210
els	-8211
▁magn	-8212
▁Local	-8213
▁stret	-8214
▁Return	-8215
▁repugn	-8216
▁conspir	-8217
▁secondary	-8218
▁inadequate	-8219
▁entitlement	-8220
▁BO	-8221
▁Mut	-8222
▁Venk	-8223
▁Adjud	-8224
▁inher	-8225
▁APPEAL	-8226
▁speaks	-8227
▁taxing	-8228
▁Reports	-8229
▁describ	-8230
▁Advisory	-8231
▁scholars	-8232
▁Tal	-8233
house	-8234
▁tools	-8235
▁Thakur	-8236
▁affects	-8237
▁extends	-8238
▁resolve	-8239
▁Juvenile	-8240
▁hospitals	-8241
▁hesitation	-8242
▁initiation	-8243
▁Chhattisgarh	-8244
▁Infrastructure	-8245
ION	-8246
exam	-8247
wala	-8248
▁Neg	-8249
ortion	-8250
▁invoke	-8251
▁assurance	-8252
▁innocence	-8253
▁pregnancy	-8254
▁Due	-8255
▁Rem	-8256
oided	-8257
▁Manual	-8258
▁answers	-8259
▁concent	-8260
ciplinary	-8261
▁Professor	-8262
▁acquiring	-8263
▁differences	-8264
bas	-8265
wali	-8266
▁DAY	-8267
claim	-8268
▁Coal	-8269
renades	-8270
▁escape	-8271
▁torture	-8272
▁incrimin	-8273
▁prejudicial	-8274
▁ER	-8275
zing	-8276
▁Cal	-8277
▁Rad	-8278
▁cam	-8279
▁pra	-8280
▁temper	-8281
clamation	-8282
▁pertains	-8283
▁regularly	-8284
▁CW	-8285
cles	-8286
▁Kas	-8287
▁ones	-8288
▁absent	-8289
▁vulner	-8290
▁testing	-8291
▁resorted	-8292
▁Secretariat	-8293
▁modifications	-8294
▁UT	-8295
assess	-8296
▁upper	-8297
▁Develop	-8298
▁Lucknow	-8299
▁receipts	-8300
▁secondly	-8301
▁transparent	-8302
▁practitioner	-8303
HO	-8304
▁bye	-8305
▁jur	-8306
ailable	-8307
▁avoided	-8308
▁Contempt	-8309
▁marginal	-8310
▁remanded	-8311
▁altogether	-8312
▁charitable	-8313
As	-8314
atar	-8315
▁vic	-8316
icable	-8317
▁settle	-8318
▁levelled	-8319
▁answering	-8320
▁Aj	-8321
mony	-8322
▁Bel	-8323
▁Mish	-8324
▁unsu	-8325
ivided	-8326
umping	-8327
▁Today	-8328
▁moving	-8329
▁nuclear	-8330
▁shifted	-8331
▁invested	-8332
▁numerous	-8333
▁Corporate	-8334
▁repayment	-8335
▁impression	-8336
▁leadership	-8337
▁clarification	-8338
lap	-8339
udi	-8340
rates	-8341
▁Dhan	-8342
▁Hold	-8343
▁curt	-8344
▁mill	-8345
TITION	-8346
▁newly	-8347
▁trend	-8348
▁Benches	-8349
▁convers	-8350
▁premise	-8351
IF	-8352
ksh	-8353
▁overt	-8354
▁format	-8355
▁drought	-8356
▁disregard	-8357
▁solutions	-8358
▁Um	-8359
apan	-8360
▁rob	-8361
▁van	-8362
▁Armed	-8363
▁Laksh	-8364
▁vehemently	-8365
eas	-8366
ops	-8367
pus	-8368
▁Kes	-8369
iques	-8370
▁Gold	-8371
▁John	-8372
▁inad	-8373
▁facing	-8374
▁matrix	-8375
▁CHAPTER	-8376
▁entitle	-8377
▁firstly	-8378
▁estoppel	-8379
▁enshrined	-8380
▁infirmity	-8381
▁arbitrators	-8382
▁interfering	-8383
arm	-8384
▁hour	-8385
▁disse	-8386
theless	-8387
▁emerged	-8388
▁mandated	-8389
▁assaulted	-8390
▁enhancing	-8391
▁fraudulent	-8392
▁subsidiary	-8393
NO	-8394
VI	-8395
IST	-8396
oon	-8397
▁Sel	-8398
iries	-8399
▁race	-8400
▁Pract	-8401
▁Sunil	-8402
▁dance	-8403
▁knife	-8404
▁Chaudh	-8405
▁Rajesh	-8406
▁occurs	-8407
ographic	-8408
▁Guarant	-8409
▁LA	-8410
▁|(	-8411
arden	-8412
▁bare	-8413
▁slum	-8414
making	-8415
▁allows	-8416
▁quarter	-8417
▁Chemical	-8418
▁attorney	-8419
▁utilised	-8420
▁Arunachal	-8421
▁prevented	-8422
▁cooperative	-8423
▁ITR	-8424
▁apt	-8425
▁sew	-8426
advant	-8427
▁occur	-8428
▁assert	-8429
▁Edition	-8430
▁respects	-8431
cellaneous	-8432
▁negligent	-8433
▁emphasised	-8434
▁Legislatures	-8435
Re	-8436
ox	-8437
▁Opp	-8438
▁Saw	-8439
▁suo	-8440
▁bars	-8441
▁sequ	-8442
cludes	-8443
▁Resident	-8444
▁incumbent	-8445
▁enunciated	-8446
ners	-8447
▁facet	-8448
▁Mishra	-8449
▁define	-8450
▁Centres	-8451
▁arm	-8452
▁Lead	-8453
▁Mills	-8454
▁parity	-8455
appellants	-8456
▁independently	-8457
▁maintainability	-8458
▁Und	-8459
indra	-8460
▁feet	-8461
▁quick	-8462
▁spouse	-8463
condition	-8464
▁Original	-8465
▁assisted	-8466
▁violates	-8467
▁sovereign	-8468
▁virtually	-8469
▁convenient	-8470
▁delegation	-8471
▁requesting	-8472
lor	-8473
oph	-8474
amin	-8475
oples	-8476
▁infl	-8477
▁rout	-8478
▁Plant	-8479
▁credited	-8480
▁Fundamental	-8481
▁accountability	-8482
▁Safety	-8483
▁device	-8484
▁sample	-8485
▁vexatious	-8486
▁delinquent	-8487
▁photographs	-8488
hara	-8489
▁Gas	-8490
before	-8491
▁alcoh	-8492
▁indig	-8493
▁Bharati	-8494
▁Product	-8495
▁SP	-8496
anti	-8497
▁Dar	-8498
▁tea	-8499
▁unp	-8500
▁votes	-8501
▁benefic	-8502
▁clarify	-8503
▁subsidy	-8504
▁Referring	-8505
▁Provisions	-8506
▁previously	-8507
▁endorsement	-8508
▁consistently	-8509
oking	-8510
▁jeep	-8511
▁grown	-8512
UG	-8513
▁Ir	-8514
▁Fif	-8515
▁Lax	-8516
▁NGT	-8517
▁Who	-8518
▁ste	-8519
▁UIDAI	-8520
▁composite	-8521
▁surcharge	-8522
▁remuneration	-8523
▁reconsideration	-8524
yer	-8525
▁watch	-8526
ography	-8527
▁PETITION	-8528
▁utilized	-8529
▁wrongful	-8530
▁questioning	-8531
▁investigations	-8532
ton	-8533
rier	-8534
atories	-8535
▁cotton	-8536
▁Banking	-8537
▁Shankar	-8538
▁consign	-8539
▁medicine	-8540
▁Sad	-8541
angan	-8542
ulled	-8543
▁ball	-8544
▁lacs	-8545
▁strongly	-8546
▁NC	-8547
▁PPA	-8548
ailed	-8549
attle	-8550
▁abol	-8551
ecific	-8552
▁saved	-8553
▁twice	-8554
▁vague	-8555
▁Mittal	-8556
▁Manipur	-8557
▁Natural	-8558
▁ensured	-8559
▁meantime	-8560
▁repeatedly	-8561
▁Commissions	-8562
▁restoration	-8563
▁irregularity	-8564
----------------	-8565
▁ang	-8566
▁wel	-8567
mises	-8568
ourage	-8569
▁panch	-8570
▁posed	-8571
▁closely	-8572
▁contributed	-8573
▁ICC	-8574
▁rif	-8575
▁Back	-8576
▁Cell	-8577
▁rice	-8578
igible	-8579
▁dwell	-8580
▁emerge	-8581
▁forced	-8582
▁Relying	-8583
▁partial	-8584
▁appended	-8585
▁motorcycle	-8586
▁satisfactory	-8587
▁fet	-8588
▁clin	-8589
▁sand	-8590
▁Number	-8591
▁revers	-8592
▁strugg	-8593
carriage	-8594
▁operates	-8595
▁enjoyment	-8596
▁chargesheet	-8597
▁amalgamation	-8598
iya	-8599
urg	-8600
anim	-8601
itate	-8602
utors	-8603
▁Time	-8604
▁varied	-8605
▁waters	-8606
▁conveyed	-8607
▁disadvant	-8608
▁incidents	-8609
▁discrepancies	-8610
aded	-8611
dish	-8612
▁Bro	-8613
▁Shyam	-8614
▁bonds	-8615
isputed	-8616
▁handic	-8617
▁misuse	-8618
▁heritage	-8619
▁threatened	-8620
osex	-8621
▁Dam	-8622
shall	-8623
aining	-8624
akhand	-8625
▁references	-8626
▁organisations	-8627
END	-8628
▁sake	-8629
▁Staff	-8630
▁flats	-8631
▁fruit	-8632
▁widow	-8633
urement	-8634
▁dividend	-8635
▁architect	-8636
▁contested	-8637
▁neighbour	-8638
▁absorption	-8639
▁alteration	-8640
▁submitting	-8641
▁orientation	-8642
▁ACT	-8643
PWxad	-8644
below	-8645
▁motiv	-8646
▁carries	-8647
▁Innovation	-8648
▁adjustment	-8649
rec	-8650
▁Mer	-8651
astic	-8652
▁Arms	-8653
▁sudden	-8654
▁Firstly	-8655
▁Registry	-8656
▁Ministries	-8657
▁apparently	-8658
▁indication	-8659
▁retrospect	-8660
▁continuance	-8661
Rup	-8662
fers	-8663
omal	-8664
worthy	-8665
ildlife	-8666
▁discon	-8667
▁pistol	-8668
▁prompt	-8669
▁Against	-8670
▁Majesty	-8671
▁confine	-8672
▁possessed	-8673
▁intimation	-8674
▁attributable	-8675
IP	-8676
Tax	-8677
ips	-8678
kin	-8679
atab	-8680
olve	-8681
▁Ger	-8682
Union	-8683
volous	-8684
▁convert	-8685
▁pleased	-8686
▁predecess	-8687
:—	-8688
wife	-8689
▁PAN	-8690
rafts	-8691
tical	-8692
▁prox	-8693
stante	-8694
▁meters	-8695
▁harmony	-8696
▁comments	-8697
▁promoter	-8698
▁electoral	-8699
▁recognize	-8700
▁attachment	-8701
▁comparison	-8702
▁technological	-8703
▁contradictions	-8704
▁Ty	-8705
IVIL	-8706
called	-8707
▁Record	-8708
▁budget	-8709
graduate	-8710
▁secular	-8711
▁Preamble	-8712
▁thereupon	-8713
▁pronouncements	-8714
▁MA	-8715
▁lis	-8716
ccess	-8717
▁reck	-8718
tation	-8719
▁Level	-8720
▁aband	-8721
▁factum	-8722
▁managing	-8723
▁committees	-8724
Bs	-8725
▁Use	-8726
arshan	-8727
▁micro	-8728
entions	-8729
▁Partic	-8730
▁unlike	-8731
▁enabled	-8732
▁analysed	-8733
▁charging	-8734
▁Gul	-8735
▁Const	-8736
▁Democ	-8737
▁latest	-8738
▁vendor	-8739
▁restraint	-8740
vals	-8741
raman	-8742
▁CIVIL	-8743
▁frust	-8744
▁double	-8745
▁billion	-8746
▁offering	-8747
▁witnessed	-8748
▁pm	-8749
ocon	-8750
▁die	-8751
▁runs	-8752
▁Juris	-8753
▁Later	-8754
▁Indians	-8755
▁adjourn	-8756
▁accounting	-8757
▁incentives	-8758
▁reputation	-8759
▁restraining	-8760
▁interlocutory	-8761
Dr	-8762
disha	-8763
Rupees	-8764
▁chest	-8765
▁Rakesh	-8766
▁Repeal	-8767
▁envisages	-8768
▁Uttarakhand	-8769
▁manufacturers	-8770
▁FO	-8771
iled	-8772
▁IIT	-8773
▁map	-8774
▁military	-8775
▁influenced	-8776
▁intellectual	-8777
duc	-8778
▁CG	-8779
aign	-8780
atern	-8781
▁feas	-8782
coming	-8783
▁trials	-8784
▁functional	-8785
▁miscarriage	-8786
▁conservation	-8787
ese	-8788
was	-8789
osis	-8790
▁hum	-8791
abhai	-8792
▁cycle	-8793
▁manip	-8794
▁Liquid	-8795
▁consec	-8796
▁merger	-8797
▁Proceed	-8798
mark	-8799
▁pad	-8800
owner	-8801
▁lose	-8802
▁nurs	-8803
orters	-8804
▁Citiz	-8805
▁intra	-8806
▁career	-8807
▁stress	-8808
priation	-8809
▁Finally	-8810
▁deserve	-8811
▁Dictionary	-8812
▁deductions	-8813
▁literature	-8814
▁multiplier	-8815
▁participating	-8816
▁unsustainable	-8817
▁ft	-8818
enger	-8819
ights	-8820
▁Five	-8821
▁mine	-8822
▁scri	-8823
▁Integ	-8824
▁unity	-8825
▁killing	-8826
▁unknown	-8827
▁representations	-8828
ils	-8829
room	-8830
▁War	-8831
▁scoot	-8832
ruction	-8833
▁Justices	-8834
▁frivolous	-8835
▁offending	-8836
▁functionaries	-8837
▁dry	-8838
ented	-8839
▁white	-8840
▁Neither	-8841
▁closure	-8842
▁machine	-8843
▁discount	-8844
▁investigated	-8845
unk	-8846
▁Sl	-8847
ohar	-8848
pass	-8849
urch	-8850
▁Jal	-8851
▁enl	-8852
itime	-8853
▁isol	-8854
entral	-8855
▁Payment	-8856
▁freedoms	-8857
▁impleaded	-8858
▁philosophy	-8859
▁prosecuted	-8860
▁surrounding	-8861
▁]	-8862
▁Ce	-8863
what	-8864
iscal	-8865
▁Sure	-8866
engers	-8867
▁bears	-8868
▁Global	-8869
▁happen	-8870
▁tonnes	-8871
▁chapter	-8872
▁stopped	-8873
▁attitude	-8874
▁guarantees	-8875
▁suppression	-8876
EST	-8877
ITY	-8878
▁ICT	-8879
▁Raju	-8880
▁embar	-8881
▁condol	-8882
▁upgrad	-8883
▁degrees	-8884
▁evening	-8885
ENCE	-8886
isms	-8887
▁Tehs	-8888
▁thor	-8889
▁ending	-8890
▁silver	-8891
▁forests	-8892
▁propose	-8893
▁refusing	-8894
▁overruled	-8895
▁friendship	-8896
▁adjudicated	-8897
▁prescribing	-8898
▁Adjudicating	-8899
MT	-8900
VER	-8901
dec	-8902
inc	-8903
▁haz	-8904
▁lists	-8905
▁Odisha	-8906
▁defaul	-8907
▁intest	-8908
▁nonxad	-8909
▁Various	-8910
▁vesting	-8911
ciliation	-8912
▁inviting	-8913
▁summoning	-8914
▁completing	-8915
hesh	-8916
▁Jaw	-8917
▁Ved	-8918
▁Anal	-8919
▁bone	-8920
▁ahead	-8921
▁colon	-8922
▁dilig	-8923
▁stone	-8924
▁thres	-8925
▁improved	-8926
▁hereinbelow	-8927
apt	-8928
mpt	-8929
▁CM	-8930
force	-8931
▁Drug	-8932
▁root	-8933
▁blank	-8934
▁profile	-8935
▁remarks	-8936
▁concepts	-8937
▁Petroleum	-8938
▁erroneously	-8939
▁characteristics	-8940
do	-8941
▁JJ	-8942
▁Bah	-8943
ambig	-8944
belie	-8945
▁MESS	-8946
▁Mach	-8947
▁ties	-8948
▁Vikas	-8949
▁Kishan	-8950
▁conced	-8951
▁defeat	-8952
▁incomp	-8953
▁unanim	-8954
▁artific	-8955
▁perfect	-8956
▁Resource	-8957
▁doubtful	-8958
▁hectares	-8959
▁exercises	-8960
Is	-8961
▁lik	-8962
ugopal	-8963
▁Lords	-8964
estival	-8965
▁reporting	-8966
▁Corruption	-8967
▁Monitoring	-8968
▁deputation	-8969
UMAR	-8970
apore	-8971
▁Bhat	-8972
▁abst	-8973
▁grass	-8974
▁bodily	-8975
▁condon	-8976
▁Certain	-8977
▁MESSAGE	-8978
▁restore	-8979
▁weightage	-8980
▁personality	-8981
▁appreciating	-8982
HT	-8983
ota	-8984
othe	-8985
▁Body	-8986
awalli	-8987
entures	-8988
raction	-8989
▁encumb	-8990
▁Greater	-8991
▁climate	-8992
▁onwards	-8993
▁unambig	-8994
▁opinions	-8995
▁prohibits	-8996
▁deliberate	-8997
▁healthcare	-8998
▁incriminating	-8999
)/	-9000
▁Nep	-9001
asion	-9002
▁Ravi	-9003
ortium	-9004
▁Export	-9005
▁surface	-9006
▁fertiliz	-9007
▁disposing	-9008
▁reiterate	-9009
▁Defendants	-9010
▁landowners	-9011
▁television	-9012
▁continuation	-9013
▁declarations	-9014
ford	-9015
ician	-9016
▁Autom	-9017
▁Griev	-9018
▁helps	-9019
▁trees	-9020
iversary	-9021
▁Personnel	-9022
▁Statutory	-9023
AYS	-9024
hik	-9025
oda	-9026
ukh	-9027
▁Cause	-9028
▁KUMAR	-9029
▁surve	-9030
▁volume	-9031
▁denying	-9032
▁managed	-9033
▁monitor	-9034
▁dedicated	-9035
▁Tour	-9036
▁kidn	-9037
▁reim	-9038
auvery	-9039
▁Ahmad	-9040
▁Guard	-9041
▁Hindus	-9042
▁leased	-9043
▁Marketing	-9044
▁penalties	-9045
▁prevalent	-9046
▁meaningful	-9047
▁techniques	-9048
▁establishes	-9049
▁substantiate	-9050
▁communications	-9051
ika	-9052
fort	-9053
wara	-9054
▁Van	-9055
▁empt	-9056
▁Raman	-9057
▁Stock	-9058
▁abund	-9059
▁blind	-9060
deceased	-9061
▁Whereas	-9062
▁broadly	-9063
▁prayers	-9064
▁attacked	-9065
ographical	-9066
▁financing	-9067
▁threshold	-9068
▁precedents	-9069
▁commodities	-9070
▁Establishment	-9071
hab	-9072
nty	-9073
▁Point	-9074
▁diagn	-9075
▁Statute	-9076
▁peoples	-9077
▁adjusted	-9078
▁suspended	-9079
▁compassionate	-9080
’).	-9081
▁WIT	-9082
▁dies	-9083
▁instal	-9084
▁treaty	-9085
▁prolong	-9086
sufficient	-9087
▁elaborately	-9088
▁deliberately	-9089
▁DE	-9090
▁RTI	-9091
▁drew	-9092
▁onus	-9093
▁peaceful	-9094
▁squarely	-9095
▁Standards	-9096
▁concluding	-9097
▁Subordinate	-9098
▁introducing	-9099
▁facilitating	-9100
Ann	-9101
▁SEC	-9102
ignty	-9103
▁York	-9104
▁cant	-9105
▁eman	-9106
▁Lease	-9107
▁parte	-9108
writing	-9109
▁contemn	-9110
▁enjoyed	-9111
▁relatable	-9112
▁strategic	-9113
organisation	-9114
MIN	-9115
Sec	-9116
▁IA	-9117
▁Deep	-9118
▁Item	-9119
▁Russ	-9120
▁bull	-9121
▁flex	-9122
visory	-9123
▁dynam	-9124
▁spons	-9125
▁Charge	-9126
▁Through	-9127
▁imposes	-9128
▁verdict	-9129
▁spectrum	-9130
▁Guarantee	-9131
▁announced	-9132
▁concurrently	-9133
▁unauthorized	-9134
ura	-9135
▁Rev	-9136
▁rid	-9137
ammad	-9138
appre	-9139
▁Book	-9140
ainted	-9141
▁aspir	-9142
▁versus	-9143
▁disappro	-9144
▁Pollution	-9145
▁rationale	-9146
▁undivided	-9147
▁obligatory	-9148
▁conditional	-9149
ceut	-9150
ixed	-9151
▁wil	-9152
agree	-9153
▁Arch	-9154
▁Draft	-9155
▁mouth	-9156
▁solar	-9157
▁Relief	-9158
▁cinema	-9159
▁thrown	-9160
▁earnest	-9161
▁footing	-9162
▁heinous	-9163
▁implies	-9164
▁Venugopal	-9165
▁antecedents	-9166
▁liquidation	-9167
ALL	-9168
URE	-9169
SION	-9170
eous	-9171
▁Edn	-9172
▁sun	-9173
▁Bhut	-9174
▁Major	-9175
▁efficacy	-9176
▁stations	-9177
▁comprises	-9178
▁nutrition	-9179
bi	-9180
Pre	-9181
iful	-9182
quar	-9183
term	-9184
▁EVE	-9185
▁Text	-9186
▁fish	-9187
▁vice	-9188
▁Supply	-9189
▁adhere	-9190
▁forged	-9191
▁daughters	-9192
ica	-9193
that	-9194
▁Pla	-9195
▁hire	-9196
▁plus	-9197
▁rede	-9198
ivable	-9199
rating	-9200
▁sheets	-9201
▁inquest	-9202
▁allottee	-9203
▁reviewed	-9204
▁implicated	-9205
CH	-9206
abh	-9207
join	-9208
▁cler	-9209
▁Cases	-9210
▁advis	-9211
▁inequ	-9212
▁Unless	-9213
▁discontin	-9214
▁insertion	-9215
▁passengers	-9216
▁utilization	-9217
eli	-9218
iva	-9219
ooth	-9220
viii	-9221
▁Mult	-9222
▁bids	-9223
▁owing	-9224
▁bidder	-9225
▁Forests	-9226
▁grievous	-9227
▁litigants	-9228
Sh	-9229
ux	-9230
ids	-9231
pee	-9232
isal	-9233
eding	-9234
▁blow	-9235
▁accum	-9236
▁remem	-9237
▁resid	-9238
▁wants	-9239
ucherry	-9240
▁Cauvery	-9241
▁Working	-9242
▁lodging	-9243
▁planned	-9244
▁sending	-9245
▁Implement	-9246
▁accompany	-9247
appropriate	-9248
▁adjudicate	-9249
▁construing	-9250
▁Disciplinary	-9251
▁Ak	-9252
▁Bye	-9253
▁Yog	-9254
▁Jail	-9255
▁seal	-9256
itical	-9257
▁Allow	-9258
▁trave	-9259
▁union	-9260
▁deploy	-9261
▁timely	-9262
▁Deposit	-9263
▁strategy	-9264
▁retention	-9265
▁terrorism	-9266
▁cartridges	-9267
▁purchasers	-9268
▁combination	-9269
SP	-9270
TO	-9271
ny	-9272
२०	-9273
▁Pud	-9274
▁sle	-9275
dhury	-9276
ighed	-9277
▁Farm	-9278
▁unex	-9279
▁analog	-9280
▁directive	-9281
▁Compensation	-9282
▁examinations	-9283
lt	-9284
abs	-9285
▁Az	-9286
▁Vi	-9287
▁pi	-9288
igam	-9289
▁APP	-9290
▁Late	-9291
▁Sukh	-9292
▁VIII	-9293
▁airc	-9294
▁xxxx	-9295
rative	-9296
▁Prabh	-9297
▁rebut	-9298
closure	-9299
▁modify	-9300
▁silent	-9301
▁decides	-9302
▁staying	-9303
▁Interpre	-9304
▁forfeiture	-9305
DF	-9306
lo	-9307
zz	-9308
Moh	-9309
dev	-9310
▁cat	-9311
▁Meet	-9312
▁news	-9313
▁brand	-9314
▁revol	-9315
ressing	-9316
▁skilled	-9317
▁Projects	-9318
▁Christian	-9319
▁legislate	-9320
▁variation	-9321
try	-9322
▁AR	-9323
book	-9324
▁cold	-9325
viable	-9326
▁utility	-9327
▁immunity	-9328
▁Complaint	-9329
▁departure	-9330
▁prospects	-9331
▁untenable	-9332
▁continuously	-9333
anta	-9334
rary	-9335
▁Know	-9336
▁TRAI	-9337
accept	-9338
legium	-9339
▁accus	-9340
▁intend	-9341
▁abscond	-9342
▁averred	-9343
▁emerges	-9344
harmaceut	-9345
▁interrog	-9346
▁mutually	-9347
▁stability	-9348
▁overriding	-9349
▁preventing	-9350
▁confessions	-9351
IO	-9352
alle	-9353
▁syn	-9354
▁Micro	-9355
▁Sever	-9356
▁Bachan	-9357
▁couple	-9358
▁errors	-9359
▁enrolled	-9360
termination	-9361
▁participants	-9362
▁AG	-9363
▁uf	-9364
ALCO	-9365
oves	-9366
ilder	-9367
▁jour	-9368
illary	-9369
▁rests	-9370
▁Coming	-9371
▁Regard	-9372
▁degrad	-9373
▁America	-9374
▁Instead	-9375
▁Directive	-9376
▁Singapore	-9377
enous	-9378
▁debar	-9379
▁Academ	-9380
▁facets	-9381
▁sphere	-9382
▁Network	-9383
▁Parties	-9384
▁Singhvi	-9385
▁logical	-9386
▁someone	-9387
▁tendency	-9388
▁Distribution	-9389
▁Organization	-9390
aran	-9391
eded	-9392
▁hor	-9393
▁bias	-9394
artial	-9395
▁attain	-9396
▁widely	-9397
iscation	-9398
▁occupied	-9399
▁striking	-9400
▁diversity	-9401
▁introduce	-9402
▁attendance	-9403
▁concurrence	-9404
PG	-9405
asa	-9406
▁ap	-9407
eces	-9408
iven	-9409
oked	-9410
▁....	-9411
▁hill	-9412
▁wakf	-9413
istent	-9414
▁shift	-9415
viously	-9416
▁begins	-9417
▁notion	-9418
▁Witness	-9419
▁prosecute	-9420
▁sovereignty	-9421
rim	-9422
▁Dw	-9423
▁Sk	-9424
ATES	-9425
iers	-9426
▁MUK	-9427
uster	-9428
▁Educ	-9429
▁fract	-9430
▁......	-9431
▁pleading	-9432
▁preparing	-9433
▁discovered	-9434
▁registering	-9435
▁prescription	-9436
▁unauthorised	-9437
▁collaboration	-9438
lier	-9439
venues	-9440
▁parade	-9441
▁cutting	-9442
▁Rajendra	-9443
▁minister	-9444
▁recruits	-9445
▁ambiguity	-9446
▁expiration	-9447
ulla	-9448
▁JUD	-9449
▁rod	-9450
▁regions	-9451
▁adultery	-9452
▁pointing	-9453
Respondent	-9454
▁locations	-9455
▁physically	-9456
▁calculation	-9457
▁deprivation	-9458
▁destruction	-9459
▁regularization	-9460
HAR	-9461
▁Grad	-9462
▁Chart	-9463
▁struggle	-9464
▁collecting	-9465
▁vulnerable	-9466
▁governmental	-9467
▁Gau	-9468
assed	-9469
ildar	-9470
▁amen	-9471
▁hurt	-9472
▁Medic	-9473
▁Salve	-9474
▁relie	-9475
▁coverage	-9476
▁inferred	-9477
▁WP	-9478
back	-9479
▁flu	-9480
▁forb	-9481
▁wood	-9482
▁Harish	-9483
▁quarrel	-9484
▁trustee	-9485
▁detained	-9486
▁thorough	-9487
▁exchanges	-9488
▁transfers	-9489
▁Puducherry	-9490
▁redemption	-9491
▁Presidential	-9492
▁infringement	-9493
.’	-9494
enda	-9495
▁hall	-9496
gments	-9497
▁Region	-9498
▁Sushil	-9499
▁advise	-9500
▁column	-9501
▁prospecting	-9502
DT	-9503
cel	-9504
ayal	-9505
▁Ham	-9506
▁ine	-9507
▁fake	-9508
▁Japan	-9509
▁vests	-9510
spection	-9511
▁Enquiry	-9512
▁NATIONAL	-9513
▁noticing	-9514
▁operated	-9515
▁trustees	-9516
▁Resources	-9517
▁abolition	-9518
▁Concurrent	-9519
▁postulates	-9520
▁Institution	-9521
▁suitability	-9522
▁proportionate	-9523
▁NT	-9524
oken	-9525
▁Band	-9526
▁Hari	-9527
▁chief	-9528
erating	-9529
▁fiscal	-9530
ffective	-9531
▁Several	-9532
▁options	-9533
▁weighed	-9534
▁remitted	-9535
▁removing	-9536
▁Federation	-9537
▁remembered	-9538
▁governments	-9539
harmaceutical	-9540
▁transformation	-9541
ivedi	-9542
▁Cond	-9543
▁Cost	-9544
▁Cult	-9545
▁Requ	-9546
▁detri	-9547
▁magaz	-9548
▁cleared	-9549
▁renewed	-9550
▁Addition	-9551
▁expanded	-9552
▁gratuity	-9553
▁pregnant	-9554
▁imparting	-9555
▁succeeded	-9556
▁confirming	-9557
▁conveyance	-9558
▁Consolidated	-9559
▁transferring	-9560
enn	-9561
omy	-9562
▁COURT	-9563
▁chose	-9564
alities	-9565
▁gather	-9566
▁Dwivedi	-9567
▁Hearing	-9568
▁adjudic	-9569
▁alcohol	-9570
▁successor	-9571
▁Panchayats	-9572
▁Consultation	-9573
%,	-9574
▁TN	-9575
will	-9576
▁Ess	-9577
▁mig	-9578
▁upd	-9579
▁wal	-9580
▁Sikk	-9581
▁Nigam	-9582
▁Amicus	-9583
▁fruits	-9584
▁master	-9585
▁scooter	-9586
▁consumed	-9587
▁prisoners	-9588
▁processed	-9589
missibility	-9590
▁legislatures	-9591
arya	-9592
rams	-9593
▁ven	-9594
ietal	-9595
plete	-9596
▁Tuls	-9597
▁brut	-9598
▁derog	-9599
▁sites	-9600
▁broken	-9601
▁leader	-9602
▁briefly	-9603
▁Appendix	-9604
▁combined	-9605
▁sanctity	-9606
▁premature	-9607
▁warranted	-9608
▁Prosecution	-9609
▁congratulate	-9610
▁preservation	-9611
Ass	-9612
▁Daw	-9613
▁Max	-9614
ipped	-9615
rence	-9616
▁beat	-9617
uating	-9618
▁coerc	-9619
▁ignore	-9620
▁utmost	-9621
▁Chander	-9622
▁advances	-9623
▁unnatural	-9624
▁artificial	-9625
▁Pow	-9626
▁win	-9627
inity	-9628
▁Cler	-9629
▁Norm	-9630
ailing	-9631
aswamy	-9632
▁breed	-9633
resents	-9634
▁deaths	-9635
▁Schemes	-9636
▁contradict	-9637
▁promotions	-9638
▁confiscation	-9639
bon	-9640
inth	-9641
▁Set	-9642
ighty	-9643
▁Copy	-9644
▁Wing	-9645
▁pled	-9646
▁tell	-9647
▁elder	-9648
▁Bhutan	-9649
▁corpus	-9650
▁worker	-9651
▁thinking	-9652
rup	-9653
▁sad	-9654
▁Guru	-9655
▁wait	-9656
▁Muslims	-9657
▁disabled	-9658
▁conferring	-9659
▁institutes	-9660
▁preventive	-9661
▁controlling	-9662
ero	-9663
mia	-9664
▁IF	-9665
▁fo	-9666
macy	-9667
meas	-9668
urit	-9669
▁MLA	-9670
hered	-9671
▁phase	-9672
▁print	-9673
▁Speech	-9674
▁adding	-9675
▁beings	-9676
▁rarest	-9677
▁Premises	-9678
▁internet	-9679
▁therefor	-9680
▁projected	-9681
▁ammunition	-9682
▁definitely	-9683
▁commutation	-9684
▁interesting	-9685
▁retrospectively	-9686
za	-9687
0/-	-9688
▁MH	-9689
irds	-9690
rich	-9691
▁tom	-9692
▁orna	-9693
▁sums	-9694
▁“...	-9695
wealth	-9696
▁Impro	-9697
▁slight	-9698
▁urgent	-9699
forcement	-9700
▁Chaudhary	-9701
Corporation	-9702
▁instruction	-9703
▁Recommendation	-9704
▁AOR	-9705
▁NCL	-9706
▁SPE	-9707
▁sty	-9708
▁rash	-9709
▁sear	-9710
▁Brief	-9711
▁empty	-9712
▁paddy	-9713
▁score	-9714
▁triable	-9715
▁Insolvency	-9716
▁undisputed	-9717
▁Prohibition	-9718
▁aggravating	-9719
▁correspondence	-9720
SO	-9721
Cri	-9722
▁RA	-9723
▁Beg	-9724
▁kil	-9725
▁shar	-9726
▁shel	-9727
rances	-9728
▁Benef	-9729
settled	-9730
▁Crores	-9731
▁Sikkim	-9732
▁behest	-9733
▁stored	-9734
▁strang	-9735
▁Standard	-9736
▁enclosed	-9737
▁somewhat	-9738
▁terminate	-9739
▁boundaries	-9740
▁convicting	-9741
▁represents	-9742
▁Complainant	-9743
▁Han	-9744
▁bra	-9745
▁won	-9746
ading	-9747
inety	-9748
▁Anti	-9749
▁Docu	-9750
▁WITH	-9751
▁heav	-9752
▁tool	-9753
▁About	-9754
▁Black	-9755
▁connot	-9756
dictions	-9757
▁decline	-9758
▁mission	-9759
▁Sciences	-9760
▁panchnama	-9761
▁complained	-9762
▁inevitable	-9763
▁Educational	-9764
▁identifying	-9765
▁reasonableness	-9766
PCL	-9767
och	-9768
oya	-9769
hari	-9770
▁Yoj	-9771
▁ped	-9772
▁pit	-9773
▁Nare	-9774
▁Team	-9775
▁motu	-9776
except	-9777
▁store	-9778
wellery	-9779
▁constant	-9780
▁drinking	-9781
▁provider	-9782
▁reflects	-9783
▁Plaintiffs	-9784
▁Secretaries	-9785
▁Organisation	-9786
WC	-9787
atha	-9788
▁inse	-9789
inding	-9790
invest	-9791
husband	-9792
▁allied	-9793
▁picture	-9794
▁mischief	-9795
▁interaction	-9796
BA	-9797
JEE	-9798
▁NH	-9799
▁RO	-9800
iyar	-9801
onds	-9802
▁ASG	-9803
-----	-9804
based	-9805
▁risks	-9806
▁Merely	-9807
▁ensures	-9808
▁journey	-9809
▁inferior	-9810
▁summoned	-9811
▁Obviously	-9812
▁confusion	-9813
▁delegated	-9814
▁demanding	-9815
▁developer	-9816
▁inability	-9817
▁Electronics	-9818
▁beneficiary	-9819
ola	-9820
oure	-9821
▁Ren	-9822
▁ble	-9823
▁mid	-9824
▁Radh	-9825
▁Rash	-9826
▁phen	-9827
▁ceases	-9828
▁Manohar	-9829
▁Meeting	-9830
▁inspire	-9831
▁actively	-9832
▁enforcing	-9833
▁contradiction	-9834
may	-9835
pol	-9836
▁EIA	-9837
▁Ele	-9838
▁Kum	-9839
aided	-9840
cking	-9841
▁Conv	-9842
raisal	-9843
▁Misra	-9844
▁expos	-9845
▁ideal	-9846
▁serial	-9847
▁Conserv	-9848
▁unconsc	-9849
▁suggests	-9850
▁dangerous	-9851
▁dishonest	-9852
son	-9853
ucid	-9854
▁Capt	-9855
▁Hard	-9856
▁Table	-9857
▁Units	-9858
▁bribe	-9859
▁seeing	-9860
▁survive	-9861
▁grenades	-9862
▁leviable	-9863
▁Liquidator	-9864
▁violations	-9865
▁Additionally	-9866
▁Identification	-9867
▁evid	-9868
▁Heard	-9869
▁diary	-9870
▁Dinesh	-9871
▁anomal	-9872
▁repair	-9873
chnology	-9874
▁newspapers	-9875
▁unfortunate	-9876
▁associations	-9877
,-	-9878
▁MT	-9879
norm	-9880
▁cards	-9881
▁seeds	-9882
▁blasts	-9883
▁visual	-9884
aturally	-9885
▁Jagdish	-9886
▁confron	-9887
▁movable	-9888
paragraph	-9889
agistrates	-9890
▁affirming	-9891
▁promotees	-9892
▁redressal	-9893
uj	-9894
Com	-9895
▁Care	-9896
▁emot	-9897
▁gate	-9898
erting	-9899
▁Price	-9900
▁aided	-9901
▁perman	-9902
▁sports	-9903
▁imports	-9904
▁tractor	-9905
▁External	-9906
▁campaign	-9907
▁generate	-9908
▁manpower	-9909
orticulture	-9910
▁communicate	-9911
Th	-9912
▁Loan	-9913
▁Madan	-9914
▁flood	-9915
▁	-9916
e	-9917
t	-9918
a	-9919
i	-9920
o	-9921
n	-9922
r	-9923
s	-9924
h	-9925
d	-9926
c	-9927
l	-9928
u	-9929
f	-9930
p	-9931
m	-9932
g	-9933
b	-9934
y	-9935
w	-9936
.	-9937
v	-9938
,	-9939
C	-9940
A	-9941
S	-9942
T	-9943
I	-9944
०	-9945
k	-9946
x	-9947
P	-9948
)	-9949
१	-9950
(	-9951
-	-9952
R	-9953
j	-9954
M	-9955
N	-9956
D	-9957
H	-9958
२	-9959
B	-9960
q	-9961
E	-9962
O	-9963
G	-9964
L	-9965
W	-9966
F	-9967
J	-9968
३	-9969
/	-9970
0	-9971
:	-9972
U	-9973
K	-9974
'	-9975
४	-9976
’	-9977
z	-9978
V	-9979
;	-9980
“	-9981
५	-9982
|	-9983
]	-9984
[	-9985
‘	-9986
६	-9987
&	-9988
Y	-9989
७	-9990
%	-9991
८	-9992
—	-9993
