<unk>	0
<s>	0
</s>	0
UuRrLl	0
DdAaTtEe	0
NnUuMm	0
▁	-3.19078
▁the	-3.19382
▁.	-3.43339
▁,	-3.51308
▁of	-3.53268
s	-3.76347
▁and	-3.99592
▁to	-4.03044
▁in	-4.1944
▁a	-4.3292
▁is	-4.67376
;	-4.89175
▁&	-4.94047
▁-	-5.0404
०	-5.06196
▁for	-5.07742
▁that	-5.14083
▁The	-5.16696
ing	-5.2112
ed	-5.24542
apos	-5.26159
▁be	-5.29102
▁or	-5.3501
▁by	-5.46236
▁on	-5.47102
▁)	-5.50076
▁(	-5.50463
▁as	-5.52376
▁was	-5.53951
▁s	-5.55029
▁with	-5.58275
▁are	-5.64763
१	-5.66569
▁it	-5.6709
.	-5.74566
▁not	-5.75502
▁this	-5.79527
d	-5.85888
▁which	-5.88218
▁I	-5.89401
▁from	-5.92821
▁have	-5.95336
▁has	-5.95799
▁an	-5.99643
▁his	-6.00609
▁at	-6.09751
ly	-6.09828
▁:	-6.13043
e	-6.13825
▁A	-6.13949
▁he	-6.20046
▁India	-6.2606
▁you	-6.26123
er	-6.27458
२	-6.31937
-	-6.34465
▁In	-6.36317
y	-6.37837
▁all	-6.38072
al	-6.43007
▁can	-6.46567
▁any	-6.48453
▁their	-6.50355
▁It	-6.50512
▁one	-6.50521
▁will	-6.51435
▁been	-6.51979
▁we	-6.54679
▁also	-6.58484
▁had	-6.60683
▁other	-6.61023
▁its	-6.68294
▁/	-6.68486
▁were	-6.68906
▁but	-6.69001
▁”	-6.69636
▁such	-6.72811
▁under	-6.73905
n	-6.7435
▁He	-6.75052
▁“	-6.75939
a	-6.7668
▁who	-6.81134
▁may	-6.81319
▁;	-6.81392
▁our	-6.83163
▁they	-6.83434
▁S	-6.83893
▁time	-6.85413
es	-6.87786
t	-6.88872
▁there	-6.88966
▁This	-6.90352
▁up	-6.93022
i	-6.93291
▁out	-6.94008
▁so	-6.9431
▁?	-6.95282
३	-6.95412
▁no	-6.96798
▁more	-6.98175
▁should	-6.98949
th	-6.99109
▁people	-6.99678
▁would	-7.00119
▁them	-7.01334
▁%	-7.01539
▁re	-7.02365
▁only	-7.04501
r	-7.05445
▁if	-7.05576
▁into	-7.06716
▁about	-7.06873
▁Act	-7.07559
ion	-7.08878
▁do	-7.11316
▁like	-7.13271
▁these	-7.14782
▁when	-7.14974
▁t	-7.15702
▁him	-7.16039
▁made	-7.16464
▁two	-7.16566
▁over	-7.16965
▁your	-7.1763
▁’	-7.19927
▁shall	-7.2001
▁some	-7.20787
▁Indian	-7.21499
or	-7.22692
in	-7.23741
▁new	-7.23923
▁P	-7.24457
▁than	-7.25677
m	-7.26316
l	-7.26652
▁State	-7.27375
▁Government	-7.28009
▁her	-7.29882
▁C	-7.31225
quot	-7.31372
ic	-7.33202
▁said	-7.33229
▁being	-7.34223
lt	-7.34279
▁But	-7.35528
▁life	-7.35534
able	-7.3609
▁Court	-7.365
▁after	-7.36502
ation	-7.36785
▁where	-7.38272
ity	-7.399
st	-7.40303
▁un	-7.40775
▁We	-7.40877
k	-7.41615
▁me	-7.41766
▁first	-7.41943
▁years	-7.42044
▁country	-7.42379
an	-7.42602
▁through	-7.43061
▁B	-7.44064
▁very	-7.45094
▁my	-7.45343
ers	-7.47332
▁what	-7.4782
▁year	-7.48792
▁work	-7.48811
४	-7.49001
▁world	-7.50442
▁President	-7.50636
▁could	-7.5096
▁So	-7.50994
▁must	-7.51958
▁well	-7.52569
▁And	-7.52616
▁person	-7.53198
▁case	-7.53387
▁b	-7.54589
gt	-7.54944
▁per	-7.57243
▁L	-7.57359
▁many	-7.58263
h	-7.58635
▁before	-7.58763
▁If	-7.59692
▁between	-7.5977
▁There	-7.60284
▁D	-7.61146
▁used	-7.61439
▁make	-7.62762
ar	-7.63216
▁part	-7.63646
ness	-7.63834
amp	-7.65402
▁day	-7.66189
▁even	-7.66922
▁section	-7.67283
en	-7.68034
▁To	-7.68748
▁sub	-7.6928
▁way	-7.70142
o	-7.70553
ment	-7.70647
▁then	-7.70669
ta	-7.70798
il	-7.72491
▁law	-7.7255
c	-7.72874
▁right	-7.7333
na	-7.7381
▁same	-7.73861
ri	-7.74105
▁system	-7.74708
le	-7.74801
ma	-7.74989
ti	-7.75243
▁They	-7.75502
▁An	-7.75942
▁take	-7.76293
▁Re	-7.76499
▁place	-7.76649
ive	-7.77012
▁most	-7.77188
it	-7.77302
▁now	-7.77334
▁development	-7.77689
▁As	-7.7787
▁order	-7.78022
▁number	-7.78034
▁M	-7.78115
▁get	-7.79139
u	-7.8003
us	-7.80236
on	-7.80937
ur	-7.80997
▁use	-7.81152
▁because	-7.81644
▁N	-7.82421
▁against	-7.83549
re	-7.83576
▁during	-7.83592
▁public	-7.83696
b	-7.83923
▁us	-7.84122
▁man	-7.85026
▁R	-7.85224
ate	-7.85487
▁those	-7.8563
▁long	-7.85656
▁G	-7.8584
▁power	-7.85856
▁own	-7.86107
ent	-7.86424
▁period	-7.88387
▁water	-7.88722
▁For	-7.8873
A	-7.89079
▁great	-7.89741
▁go	-7.89754
▁f	-7.89974
▁different	-7.9007
▁You	-7.90293
▁F	-7.90371
ant	-7.90379
▁just	-7.90379
▁de	-7.90908
am	-7.91384
▁set	-7.91453
५	-7.91556
▁three	-7.91647
▁good	-7.91868
▁both	-7.91988
▁need	-7.93089
▁E	-7.93384
ch	-7.9352
▁she	-7.93912
g	-7.94323
▁called	-7.94503
▁p	-7.94557
▁here	-7.96006
▁see	-7.96193
ul	-7.96242
▁K	-7.96269
▁No	-7.96527
te	-7.96983
▁form	-7.97621
▁etc	-7.97802
ary	-7.98148
▁did	-7.98159
▁given	-7.98323
▁e	-7.98765
▁National	-7.99302
▁know	-7.99342
at	-7.99437
▁T	-7.9951
ra	-8.00201
as	-8.00674
li	-8.00914
▁down	-8.01338
ism	-8.01558
id	-8.02191
▁‘	-8.02561
p	-8.02619
▁state	-8.02672
▁much	-8.03272
▁without	-8.0344
▁U	-8.04233
▁process	-8.04399
▁each	-8.04447
▁information	-8.04601
▁important	-8.04631
▁means	-8.04692
▁every	-8.04707
age	-8.05246
man	-8.05538
▁present	-8.05643
▁does	-8.05858
el	-8.06581
I	-8.06759
▁come	-8.07045
▁government	-8.07116
um	-8.07357
ro	-8.08184
S	-8.08185
▁how	-8.08326
▁back	-8.08348
la	-8.08804
▁m	-8.09015
▁help	-8.10119
▁found	-8.10208
▁body	-8.10458
▁within	-8.1052
▁co	-8.10685
▁business	-8.11238
▁am	-8.11373
▁account	-8.12601
▁human	-8.13912
▁various	-8.14344
x	-8.14607
▁c	-8.14631
▁end	-8.14639
▁social	-8.1499
▁d	-8.15082
ia	-8.15677
▁amount	-8.1572
▁When	-8.15945
f	-8.16112
B	-8.16316
▁v	-8.16563
▁court	-8.16909
▁last	-8.1696
sh	-8.17169
▁taken	-8.17446
▁High	-8.17591
▁another	-8.17867
▁name	-8.17876
less	-8.18017
▁education	-8.18395
▁!	-8.19216
▁known	-8.19311
▁income	-8.20071
▁respect	-8.20302
▁while	-8.20549
▁Shri	-8.20596
ter	-8.20979
▁On	-8.21028
▁view	-8.21203
▁small	-8.21241
▁Central	-8.2171
▁De	-8.21832
ish	-8.21843
▁company	-8.22024
se	-8.22285
ya	-8.22606
section	-8.23439
to	-8.2367
▁dis	-8.24381
▁give	-8.24424
▁Commission	-8.2445
P	-8.24691
▁language	-8.24728
▁large	-8.24933
▁going	-8.25021
▁All	-8.25086
▁H	-8.25512
▁cannot	-8.25812
ance	-8.25935
▁non	-8.26717
▁times	-8.2717
ry	-8.27337
▁want	-8.28097
C	-8.28156
▁high	-8.28406
▁These	-8.28822
▁days	-8.2892
▁OF	-8.2957
ir	-8.29634
▁{	-8.30249
▁policy	-8.30268
▁children	-8.30425
▁i	-8.3085
▁service	-8.30935
▁}	-8.30953
▁—	-8.3124
▁support	-8.31523
▁available	-8.31746
ver	-8.32154
▁What	-8.32351
di	-8.3253
▁mind	-8.32608
▁O	-8.32794
et	-8.32919
▁far	-8.33364
▁become	-8.33406
▁...	-8.33501
▁death	-8.33633
▁g	-8.33769
▁economic	-8.33788
▁At	-8.33802
▁came	-8.33913
▁countries	-8.34889
▁due	-8.34938
ol	-8.35007
ce	-8.3517
▁action	-8.35281
▁today	-8.35721
▁hand	-8.3574
▁J	-8.36167
▁matter	-8.36276
▁value	-8.36333
▁whole	-8.36431
▁including	-8.36611
is	-8.36748
▁say	-8.36795
▁members	-8.36996
j	-8.37022
▁His	-8.37114
▁interest	-8.37215
ni	-8.37503
▁W	-8.37882
▁provide	-8.38154
ut	-8.38189
▁land	-8.38203
est	-8.38281
▁Section	-8.384
▁political	-8.3855
▁national	-8.38646
lo	-8.38879
▁too	-8.3917
▁self	-8.39276
▁done	-8.39733
ist	-8.39838
▁fact	-8.39959
▁Rs	-8.39965
ies	-8.40002
▁area	-8.40125
▁Supreme	-8.40422
▁family	-8.40633
w	-8.40712
▁free	-8.40814
▁something	-8.40824
▁think	-8.40881
▁provisions	-8.40894
▁0	-8.41276
▁States	-8.41304
▁find	-8.41787
▁upon	-8.41929
▁services	-8.42003
▁look	-8.42781
ous	-8.43186
ge	-8.4338
▁society	-8.43579
op	-8.43658
▁women	-8.43688
▁cases	-8.43774
▁capital	-8.43899
pur	-8.44276
▁subject	-8.44343
im	-8.44513
▁change	-8.44525
▁common	-8.44536
▁head	-8.44629
▁V	-8.44928
▁date	-8.44936
▁level	-8.45083
६	-8.45094
▁She	-8.4517
▁based	-8.45315
ak	-8.4546
▁less	-8.45651
ated	-8.45655
▁certain	-8.45834
ling	-8.45855
▁four	-8.46014
▁knowledge	-8.46214
▁old	-8.46266
tra	-8.46345
▁point	-8.46652
ne	-8.4677
E	-8.46846
▁Delhi	-8.47423
▁nature	-8.4779
▁New	-8.47865
▁areas	-8.47971
▁control	-8.48069
▁British	-8.48192
▁result	-8.48233
▁provided	-8.4864
▁again	-8.48858
▁Bhavan	-8.48924
ot	-8.49092
▁making	-8.49155
▁further	-8.49172
▁left	-8.49243
▁food	-8.49471
▁best	-8.49632
▁cent	-8.49905
ga	-8.50114
▁_	-8.50139
▁necessary	-8.50348
▁Constitution	-8.5046
▁That	-8.50726
▁few	-8.50737
▁question	-8.50824
▁held	-8.50905
D	-8.51048
▁put	-8.5112
me	-8.51171
▁pro	-8.51173
▁away	-8.51177
▁One	-8.51184
▁words	-8.51243
▁Singh	-8.51357
▁window	-8.51565
ha	-8.5174
▁special	-8.51797
▁local	-8.52223
ad	-8.52309
▁always	-8.52623
▁con	-8.52637
▁English	-8.5267
ful	-8.52695
ine	-8.52744
▁Na	-8.52788
▁off	-8.52867
▁Dr	-8.52971
▁having	-8.52983
0	-8.53014
▁whether	-8.53241
▁still	-8.53363
▁following	-8.53593
ci	-8.5366
▁full	-8.53705
▁Sa	-8.5372
▁clause	-8.53788
▁age	-8.53809
▁five	-8.53848
▁child	-8.53998
▁position	-8.54006
▁book	-8.54025
▁sector	-8.54081
▁group	-8.54231
▁home	-8.54234
▁act	-8.54483
ru	-8.54744
va	-8.54745
▁Hindi	-8.54846
▁application	-8.55184
▁required	-8.55315
▁foreign	-8.55365
▁Committee	-8.56127
▁light	-8.56155
▁growth	-8.5618
▁second	-8.5631
ence	-8.56535
▁Ma	-8.56815
ting	-8.56958
▁health	-8.57117
▁little	-8.57211
▁God	-8.57221
▁Rashtrapati	-8.57434
H	-8.57439
▁possible	-8.57658
▁among	-8.57726
▁things	-8.57852
▁Council	-8.57933
▁money	-8.57959
▁data	-8.58063
▁purpose	-8.58251
▁love	-8.58341
▁above	-8.58636
he	-8.58692
▁himself	-8.58837
▁Parliament	-8.5898
▁war	-8.59049
▁Me	-8.59254
▁ex	-8.59358
▁heart	-8.59417
ty	-8.60068
mo	-8.60353
▁itself	-8.60364
▁total	-8.60371
▁After	-8.60441
tion	-8.60852
▁house	-8.61014
▁open	-8.61069
▁men	-8.62254
ll	-8.62496
▁towards	-8.62541
▁main	-8.62813
z	-8.6312
▁industry	-8.63144
▁Ka	-8.63251
ial	-8.63319
▁tax	-8.63436
sa	-8.63523
▁several	-8.63625
▁pre	-8.63949
om	-8.64123
▁later	-8.64182
▁individual	-8.64217
▁&#91;	-8.64524
▁equal	-8.64801
▁Congress	-8.64873
▁never	-8.64939
han	-8.65023
▁effect	-8.65029
▁research	-8.6506
ac	-8.65121
up	-8.65304
▁x	-8.65413
▁type	-8.6575
wa	-8.65798
▁RRB	-8.66017
▁around	-8.66142
lu	-8.66304
▁Hindu	-8.66416
▁Co	-8.66756
▁computer	-8.66841
▁cost	-8.67012
▁financial	-8.67041
M	-8.67053
▁production	-8.67085
▁side	-8.67188
▁Union	-8.67243
▁Minister	-8.67244
▁office	-8.67291
▁course	-8.67399
▁&#93;	-8.67425
▁young	-8.67494
▁list	-8.67511
▁let	-8.67601
RB	-8.6775
▁referred	-8.67992
tic	-8.68055
▁Department	-8.68087
▁post	-8.68553
be	-8.68622
▁took	-8.6877
v	-8.68864
▁Ra	-8.69014
▁rate	-8.6906
hi	-8.69135
▁already	-8.69145
▁therefore	-8.69369
▁either	-8.6947
ical	-8.6955
ted	-8.69796
▁market	-8.70167
▁thought	-8.70197
em	-8.70477
▁since	-8.70537
▁Con	-8.70545
vi	-8.71017
un	-8.7131
▁term	-8.71345
▁quality	-8.71667
▁kind	-8.71736
▁pay	-8.71879
▁persons	-8.71916
ja	-8.72013
▁occasion	-8.72112
ap	-8.7215
mb	-8.72276
▁higher	-8.7233
▁general	-8.7254
pi	-8.72603
▁however	-8.72813
R	-8.72854
de	-8.73041
▁problem	-8.73059
go	-8.73162
▁might	-8.73183
co	-8.73232
▁file	-8.73351
▁activities	-8.73462
▁better	-8.73476
ve	-8.73495
our	-8.73538
▁particular	-8.73711
▁property	-8.74028
▁website	-8.74196
▁cause	-8.74215
▁force	-8.74222
▁However	-8.74468
▁international	-8.75023
▁Some	-8.75046
▁University	-8.7535
▁received	-8.75468
▁plant	-8.75567
▁Ba	-8.75766
▁seen	-8.7586
▁Mr	-8.75893
▁Man	-8.75957
▁next	-8.75977
▁Muslim	-8.76021
▁bank	-8.76333
V	-8.76345
▁THE	-8.7646
▁nation	-8.76502
ji	-8.76791
▁short	-8.7694
▁keep	-8.76941
▁House	-8.76999
nd	-8.77028
▁along	-8.77187
▁play	-8.77331
▁Law	-8.77367
७	-8.77503
▁future	-8.77639
▁ten	-8.77714
▁reason	-8.77803
▁major	-8.77883
▁Su	-8.77937
N	-8.78001
▁together	-8.78006
ag	-8.78026
ating	-8.78106
▁authority	-8.78139
▁went	-8.7815
ure	-8.7826
▁don	-8.78503
▁project	-8.7858
▁role	-8.78659
▁thing	-8.78705
▁basis	-8.78781
O	-8.79146
▁got	-8.79197
▁face	-8.79199
▁Bank	-8.79388
▁sense	-8.79495
▁working	-8.79594
▁history	-8.79669
▁example	-8.7995
▁started	-8.79999
ct	-8.8001
▁institutions	-8.80051
▁St	-8.80076
▁became	-8.80107
▁credit	-8.80263
▁others	-8.80284
▁line	-8.80431
▁bring	-8.80616
▁freedom	-8.80643
fi	-8.80732
▁though	-8.80733
▁trade	-8.80855
▁report	-8.80894
▁General	-8.8092
▁network	-8.80923
▁return	-8.81442
▁With	-8.81608
00	-8.82011
▁word	-8.82124
▁technology	-8.82253
▁related	-8.82422
▁party	-8.82508
ally	-8.82559
▁visit	-8.82718
G	-8.82787
▁Pradesh	-8.8299
▁school	-8.83018
▁scheme	-8.83048
▁problems	-8.83081
▁movement	-8.83254
▁written	-8.83289
▁air	-8.83309
▁Do	-8.83943
▁La	-8.83995
L	-8.84088
▁Be	-8.84171
▁access	-8.84214
gu	-8.84303
▁legal	-8.84488
▁often	-8.84551
▁modern	-8.8458
▁manner	-8.84996
▁rights	-8.85002
▁once	-8.85077
▁class	-8.85631
▁field	-8.85678
T	-8.85715
rs	-8.85862
▁care	-8.85885
▁regard	-8.86023
▁months	-8.86171
▁security	-8.86362
▁read	-8.86441
▁address	-8.86458
▁Chief	-8.86556
▁relating	-8.86589
▁goods	-8.86746
▁brought	-8.8679
▁Development	-8.86793
▁established	-8.86793
▁considered	-8.86833
K	-8.86882
ities	-8.86887
▁matters	-8.86983
▁able	-8.87205
▁Bengal	-8.87423
▁transfer	-8.8745
▁Gandhi	-8.87577
ian	-8.87751
ke	-8.87795
▁previous	-8.87862
▁key	-8.88117
▁member	-8.88257
▁paid	-8.88355
▁conditions	-8.88423
os	-8.88473
▁terms	-8.88476
▁n	-8.88576
▁true	-8.88746
▁real	-8.89028
▁culture	-8.89112
▁progress	-8.89181
▁village	-8.8931
▁six	-8.89642
F	-8.89651
har	-8.89721
▁students	-8.89729
▁share	-8.8988
min	-8.89909
▁mother	-8.90053
▁blood	-8.90115
▁Ministry	-8.90218
▁live	-8.90238
ab	-8.90338
oc	-8.90489
▁Al	-8.90694
ud	-8.90709
▁decision	-8.90812
ven	-8.91027
no	-8.91286
▁religious	-8.9133
▁show	-8.91481
ana	-8.91498
con	-8.91503
▁million	-8.91507
▁past	-8.91611
▁strong	-8.91773
▁living	-8.92102
▁rule	-8.92153
kar	-8.92352
ee	-8.9241
▁needs	-8.92825
and	-8.92886
▁story	-8.9309
men	-8.9316
▁community	-8.93306
▁issue	-8.93324
▁clear	-8.93342
ise	-8.93352
iv	-8.93795
▁payment	-8.93873
ba	-8.94023
▁natural	-8.94048
▁art	-8.94374
vo	-8.94504
ram	-8.94589
▁material	-8.94913
▁Now	-8.9497
▁population	-8.95036
▁car	-8.95044
▁create	-8.95084
▁Ch	-8.95135
▁call	-8.95148
▁Mukherjee	-8.95358
▁complete	-8.95507
ions	-8.95633
ised	-8.95687
▁justice	-8.95821
▁energy	-8.95868
▁concerned	-8.95892
▁passed	-8.96159
▁personal	-8.9617
W	-8.96323
▁specified	-8.96393
▁condition	-8.96581
▁study	-8.96786
ized	-8.9687
ow	-8.96912
▁demand	-8.97002
▁training	-8.97004
ka	-8.9713
▁taking	-8.97199
▁management	-8.97426
▁disease	-8.97462
pt	-8.97491
ran	-8.97899
▁Justice	-8.97902
▁using	-8.98077
▁father	-8.98092
land	-8.9812
per	-8.98417
▁ve	-8.98467
▁programme	-8.98495
ium	-8.9895
▁religion	-8.98965
▁ensure	-8.98979
▁outside	-8.98995
ors	-8.99
ang	-8.9917
▁purposes	-8.99262
▁My	-8.99268
▁Muslims	-8.9931
▁stage	-8.99361
▁United	-8.9949
▁industrial	-8.99499
led	-8.99565
▁opens	-8.99577
▁message	-8.99625
ward	-8.99668
▁PRESIDENT	-8.99782
pa	-8.99805
▁physical	-8.99896
▁ground	-8.99964
▁early	-8.99978
▁External	-9.00127
▁Un	-9.00171
▁century	-9.00278
▁rules	-9.00299
▁experience	-9.00516
▁increase	-9.00647
ig	-9.00715
tu	-9.00747
▁asked	-9.00871
▁carry	-9.00957
cy	-9.00962
▁close	-9.0111
▁yet	-9.01135
Y	-9.01137
▁Sabha	-9.01248
▁greater	-9.01304
▁assessment	-9.01558
▁themselves	-9.0159
▁include	-9.01637
▁appeal	-9.01668
▁provision	-9.01724
▁Vi	-9.01727
▁building	-9.01742
▁why	-9.01787
▁developed	-9.01902
ization	-9.01928
▁Pa	-9.02003
▁rest	-9.02069
▁apply	-9.02294
▁start	-9.02601
▁Board	-9.02643
▁provides	-9.02666
ship	-9.0275
▁di	-9.02792
▁function	-9.02892
▁consider	-9.03231
▁Mo	-9.03232
▁district	-9.03258
▁Bar	-9.03273
▁literature	-9.03539
ize	-9.03545
▁science	-9.03599
▁allowed	-9.03773
▁character	-9.03788
▁really	-9.04036
tax	-9.04055
▁region	-9.0426
▁parts	-9.04283
▁Even	-9.04334
▁meeting	-9.04431
▁near	-9.04503
act	-9.04548
▁meet	-9.04628
hu	-9.0466
▁Go	-9.04772
▁hard	-9.05098
▁parties	-9.05108
▁inter	-9.05164
po	-9.05344
▁global	-9.05494
tro	-9.05498
▁ma	-9.05591
▁original	-9.05596
▁text	-9.05611
ca	-9.05861
ts	-9.05868
▁soon	-9.05936
▁writing	-9.06107
▁direct	-9.06246
▁police	-9.06261
▁structure	-9.06271
▁evidence	-9.06341
▁Pranab	-9.06382
▁approach	-9.06476
ile	-9.06628
▁earlier	-9.06707
mi	-9.06738
ite	-9.06771
▁anything	-9.06877
tal	-9.06884
▁gave	-9.06921
▁hope	-9.0695
▁assessee	-9.07078
▁city	-9.0712
▁Republic	-9.07156
ah	-9.07253
▁Where	-9.07286
▁Bill	-9.07296
od	-9.07302
ide	-9.07336
▁Article	-9.07361
▁test	-9.07789
▁states	-9.07794
▁exchange	-9.07855
▁Our	-9.07861
▁spirit	-9.07888
▁sp	-9.07889
▁capacity	-9.07913
▁mo	-9.07981
▁half	-9.07982
▁Public	-9.08061
▁w	-9.08068
▁sent	-9.08175
▁books	-9.08189
▁Report	-9.08242
unt	-9.08308
▁situation	-9.08346
ton	-9.0836
▁actually	-9.08535
▁Ha	-9.08801
▁wide	-9.08804
▁medical	-9.09184
▁whose	-9.09199
▁opinion	-9.09224
▁Ex	-9.09418
▁feel	-9.09489
▁almost	-9.09491
▁Information	-9.09517
▁Courts	-9.09611
▁resources	-9.09643
▁article	-9.09691
▁Judge	-9.09763
▁duty	-9.09776
▁specific	-9.0988
ala	-9.0992
▁civil	-9.09943
▁ii	-9.09978
▁agreement	-9.10023
ho	-9.10369
▁loss	-9.10409
▁thus	-9.10459
▁poor	-9.10529
cu	-9.1054
all	-9.10674
▁How	-9.10691
▁turn	-9.107
▁environment	-9.10708
▁Islam	-9.10745
▁May	-9.10916
▁powers	-9.10938
ible	-9.11013
U	-9.1103
▁private	-9.11122
▁notice	-9.11228
▁Please	-9.1142
ning	-9.11472
▁single	-9.11487
▁write	-9.11499
▁la	-9.1152
▁Commissioner	-9.11713
▁decided	-9.11852
▁believe	-9.11871
pe	-9.11939
▁big	-9.11982
▁similar	-9.1202
▁letter	-9.12047
▁ll	-9.12168
▁woman	-9.12193
da	-9.12302
▁treatment	-9.12425
▁vi	-9.12486
▁nothing	-9.12722
▁&#124;	-9.12926
▁West	-9.12949
fe	-9.12949
▁changes	-9.13111
▁effective	-9.13118
▁entire	-9.13181
▁least	-9.13451
▁issued	-9.13535
▁price	-9.13592
ative	-9.13672
rat	-9.1368
▁Mu	-9.13871
▁Ram	-9.13935
▁products	-9.14099
▁deal	-9.1431
▁leave	-9.14398
▁Thu	-9.14411
ash	-9.14423
▁Institute	-9.14456
▁according	-9.14528
▁lot	-9.14533
▁issues	-9.14744
▁difficult	-9.14749
▁method	-9.14802
▁accept	-9.14904
▁en	-9.14938
▁operation	-9.15025
▁sure	-9.15026
tri	-9.15089
ER	-9.15096
▁third	-9.15118
▁continue	-9.15157
der	-9.15295
▁till	-9.15389
▁tree	-9.15425
▁efforts	-9.15433
ph	-9.15438
▁author	-9.15506
▁understand	-9.15553
▁Di	-9.1556
▁film	-9.15563
▁answer	-9.15564
▁run	-9.15744
les	-9.15767
▁Ga	-9.15901
do	-9.15965
▁Whil	-9.16066
ten	-9.16102
▁contract	-9.16238
८	-9.16622
▁procedure	-9.16726
▁created	-9.1682
ever	-9.16828
ious	-9.16891
▁enough	-9.16909
▁investment	-9.16934
▁American	-9.16993
▁April	-9.16997
▁rural	-9.17135
▁kept	-9.17314
sha	-9.17324
▁especially	-9.17404
▁opportunity	-9.17586
▁Sanskrit	-9.17631
▁temple	-9.17651
▁Let	-9.17678
▁path	-9.17713
३०	-9.17767
ill	-9.1785
bi	-9.1801
▁Officer	-9.18027
▁wrote	-9.18041
▁Va	-9.18087
way	-9.18224
▁South	-9.18269
▁told	-9.18346
▁proceedings	-9.18489
▁Pro	-9.18504
▁idea	-9.18541
▁reference	-9.18614
▁top	-9.18616
▁Ro	-9.18672
▁Or	-9.18744
the	-9.18745
▁size	-9.18777
▁poet	-9.18777
▁judicial	-9.1882
▁behalf	-9.19004
▁son	-9.19007
ster	-9.19033
▁claim	-9.191
▁institution	-9.192
▁published	-9.1922
ring	-9.19753
ari	-9.19897
▁doing	-9.19946
▁move	-9.19973
▁ever	-9.20071
▁tell	-9.20123
▁check	-9.20165
du	-9.20194
▁practice	-9.20282
gen	-9.20464
▁providing	-9.20723
▁month	-9.20812
▁administration	-9.20817
▁imp	-9.20818
▁simple	-9.20864
▁sea	-9.21055
▁Pra	-9.21132
▁jurisdiction	-9.21146
▁economy	-9.21193
mit	-9.21228
▁By	-9.21356
▁List	-9.21414
▁Le	-9.2164
▁carried	-9.21665
▁truth	-9.21713
▁h	-9.2172
▁spread	-9.21728
▁laws	-9.21765
▁night	-9.21836
▁peace	-9.21846
AL	-9.21892
▁fund	-9.2192
line	-9.21987
mon	-9.22018
▁receive	-9.22095
▁Such	-9.22129
▁prevent	-9.22247
▁produce	-9.22424
ib	-9.2247
▁current	-9.22499
.0	-9.22538
▁criminal	-9.22759
▁mental	-9.2276
▁quite	-9.22839
▁forward	-9.22861
gra	-9.22945
▁generally	-9.23035
▁benefit	-9.23039
▁contact	-9.23095
▁source	-9.23141
▁across	-9.23143
▁central	-9.23201
▁rich	-9.23273
▁earth	-9.23342
ach	-9.23402
▁Centre	-9.2348
▁Lord	-9.23774
▁relations	-9.23789
▁allow	-9.23796
▁note	-9.23943
▁East	-9.2406
ability	-9.24122
▁bar	-9.24139
▁Your	-9.24179
▁prescribed	-9.24437
chi	-9.24481
▁March	-9.24543
▁Te	-9.24547
▁river	-9.24564
▁meaning	-9.24618
▁aim	-9.24623
▁seven	-9.24632
ens	-9.24717
▁talk	-9.2474
out	-9.24775
av	-9.24952
tr	-9.25018
▁front	-9.25127
▁Income	-9.25278
▁eight	-9.25304
▁space	-9.25342
▁sum	-9.25371
▁basic	-9.25431
▁success	-9.25433
isation	-9.2561
▁appropriate	-9.25622
war	-9.25934
▁works	-9.26049
▁relevant	-9.26116
▁below	-9.26285
▁Sri	-9.26488
ber	-9.26596
▁stated	-9.26601
▁During	-9.26685
▁makes	-9.26732
▁International	-9.26761
gi	-9.26825
ug	-9.26923
▁felt	-9.27114
IC	-9.27123
▁unit	-9.27153
▁giving	-9.2721
▁improve	-9.27407
▁Service	-9.27454
▁importance	-9.27629
▁anti	-9.27686
▁expression	-9.27705
▁statement	-9.27728
tin	-9.27749
▁marriage	-9.27779
ack	-9.27793
▁facilities	-9.27812
▁low	-9.27819
▁charge	-9.27821
son	-9.27865
▁Governor	-9.27885
ard	-9.27906
▁sound	-9.27929
▁plus	-9.28067
▁lower	-9.28081
▁reach	-9.28258
▁INDIA	-9.28266
▁Pakistan	-9.28316
▁Israel	-9.28407
▁oil	-9.28414
▁king	-9.28548
▁extend	-9.28756
▁Bha	-9.28904
▁Ne	-9.28922
▁Day	-9.29005
ator	-9.29108
▁spiritual	-9.29139
ie	-9.29168
▁trial	-9.29217
▁Ja	-9.29293
▁commercial	-9.29384
▁US	-9.29412
▁search	-9.29488
dy	-9.2969
▁plan	-9.29732
▁birth	-9.29789
▁accused	-9.29845
▁potential	-9.30154
▁fast	-9.30156
▁met	-9.30252
tor	-9.30464
ip	-9.30489
▁connection	-9.30596
▁strength	-9.30707
ki	-9.30768
▁consideration	-9.30852
▁k	-9.30908
mp	-9.31083
▁happy	-9.31085
▁forms	-9.31168
▁measures	-9.31194
▁wife	-9.31293
▁Bo	-9.31315
ex	-9.3146
▁Mar	-9.31554
ice	-9.31689
▁began	-9.31856
qu	-9.31895
rit	-9.3194
▁develop	-9.31945
▁existing	-9.32057
▁record	-9.32065
▁existence	-9.322
tha	-9.32271
▁followed	-9.32467
▁o	-9.32497
▁responsible	-9.32499
val	-9.32516
▁beginning	-9.32556
▁courts	-9.32575
▁doubt	-9.32657
▁grant	-9.32817
▁mode	-9.32835
▁conduct	-9.32885
▁leaders	-9.32943
▁usually	-9.32943
▁offence	-9.33038
▁Rama	-9.33061
▁cultural	-9.33077
▁nor	-9.33103
▁room	-9.33267
ner	-9.33283
▁video	-9.33367
cur	-9.3349
ung	-9.3349
▁activity	-9.33619
▁fire	-9.3363
▁lead	-9.3363
▁Li	-9.33704
ham	-9.3374
▁protect	-9.33748
▁whom	-9.33767
९	-9.34039
▁faith	-9.34115
king	-9.34131
▁until	-9.34237
▁firm	-9.343
▁para	-9.3432
▁risk	-9.34367
▁official	-9.34412
▁particularly	-9.3445
▁wish	-9.34452
▁step	-9.34467
▁relation	-9.3449
▁addition	-9.34503
▁Ta	-9.34586
ery	-9.34623
▁becomes	-9.34641
▁Cha	-9.3472
▁seek	-9.34772
▁behind	-9.35171
▁Pre	-9.35172
▁ch	-9.35184
▁flow	-9.35223
IS	-9.35398
▁soul	-9.35553
▁Mi	-9.35573
▁deep	-9.35583
▁except	-9.35594
▁increased	-9.35624
▁lost	-9.35657
▁essential	-9.35707
▁popular	-9.36035
▁programmes	-9.36183
▁scale	-9.36238
▁Raj	-9.36372
▁Education	-9.36424
▁Technology	-9.36479
▁Code	-9.36481
ff	-9.36563
▁hold	-9.36592
nt	-9.36647
ron	-9.36652
▁crore	-9.36689
▁try	-9.36724
▁fine	-9.36879
▁final	-9.36935
mer	-9.37008
ew	-9.37124
▁places	-9.37216
▁base	-9.37278
▁Calcutta	-9.3736
▁hands	-9.37527
▁War	-9.37626
ali	-9.3763
▁link	-9.37667
▁groups	-9.37679
▁design	-9.37706
▁rather	-9.37806
▁X	-9.37828
▁export	-9.37839
▁bit	-9.37841
▁Krishna	-9.3786
ani	-9.37861
▁San	-9.3788
▁sentence	-9.37888
vis	-9.37892
cal	-9.37954
▁protection	-9.38008
▁Ca	-9.38044
▁employment	-9.38138
▁Scheme	-9.38306
gar	-9.38334
ick	-9.3838
▁limited	-9.38449
mal	-9.38481
▁add	-9.38486
▁circumstances	-9.38554
▁beyond	-9.38586
nu	-9.38717
▁r	-9.38745
▁Under	-9.3877
gan	-9.38868
ual	-9.39072
▁suit	-9.39073
▁comes	-9.39132
▁serious	-9.39263
▁alone	-9.39269
▁saw	-9.39335
we	-9.39412
AN	-9.39482
▁continued	-9.39506
▁born	-9.39571
▁Lok	-9.39573
ology	-9.39681
▁Bi	-9.39689
▁Open	-9.39693
▁moment	-9.39705
▁infrastructure	-9.39795
▁media	-9.39878
▁built	-9.3994
▁Of	-9.39948
▁industries	-9.39997
▁poetry	-9.40142
▁World	-9.40167
▁warm	-9.40179
▁mean	-9.40191
▁eyes	-9.40209
▁correct	-9.40224
que	-9.40251
▁gives	-9.40277
▁learn	-9.40486
▁job	-9.40587
▁learning	-9.40652
▁accepted	-9.40672
▁appointed	-9.40755
▁range	-9.40766
▁officer	-9.40829
q	-9.40857
▁lives	-9.40878
tt	-9.4089
▁says	-9.40938
bar	-9.40939
light	-9.41185
▁ca	-9.41193
▁Prime	-9.41255
▁round	-9.41269
▁setting	-9.41279
▁cross	-9.41313
van	-9.41515
▁responsibility	-9.41543
▁Se	-9.41698
▁loan	-9.41708
den	-9.41767
tur	-9.41928
▁Then	-9.41946
bha	-9.42088
▁influence	-9.42198
▁direction	-9.42248
▁ideas	-9.42382
si	-9.42396
▁exercise	-9.42421
AT	-9.42438
▁From	-9.42546
▁hundred	-9.42614
tar	-9.42678
▁normal	-9.42723
▁getting	-9.42749
▁coming	-9.42757
▁proposed	-9.43004
▁immediately	-9.431
▁assistance	-9.43183
▁device	-9.43268
tes	-9.43289
▁Any	-9.43409
▁Dis	-9.4352
▁labour	-9.43523
▁object	-9.43532
▁projects	-9.4354
ft	-9.43593
▁fear	-9.43764
▁observed	-9.4388
▁Schedule	-9.44056
ng	-9.44174
▁citizens	-9.44305
bu	-9.44311
wan	-9.44313
dar	-9.44366
▁document	-9.44395
▁instrument	-9.44493
▁Part	-9.4451
▁Many	-9.44659
▁Sub	-9.44733
▁Ko	-9.44879
red	-9.44941
▁details	-9.44969
▁North	-9.44988
▁values	-9.44996
dra	-9.4507
▁mentioned	-9.45122
▁wrong	-9.45142
▁Kashmir	-9.45187
▁boy	-9.45218
let	-9.45234
▁separate	-9.4528
▁user	-9.45519
ging	-9.45604
▁TO	-9.45644
ub	-9.45653
▁pa	-9.45715
▁agricultural	-9.45788
▁paper	-9.45833
▁lakh	-9.4584
▁status	-9.45849
▁wanted	-9.45918
▁proper	-9.45937
qui	-9.45964
▁sun	-9.45967
▁America	-9.46035
▁ancient	-9.46048
▁judge	-9.46071
▁banks	-9.46159
▁na	-9.46163
▁violence	-9.4621
▁eye	-9.46234
▁famous	-9.46271
▁mis	-9.46296
▁Y	-9.46336
lan	-9.46506
▁product	-9.46659
▁January	-9.46695
▁Da	-9.46697
ell	-9.46834
mat	-9.47081
br	-9.47105
▁includes	-9.47146
▁red	-9.47153
▁formed	-9.47174
▁cl	-9.47194
▁goes	-9.47205
▁rise	-9.47259
▁machine	-9.4734
su	-9.47352
ement	-9.4739
▁page	-9.47393
▁officers	-9.47435
tent	-9.47553
ther	-9.4758
▁lay	-9.47611
▁cell	-9.47626
ik	-9.47662
▁speech	-9.47686
▁Bombay	-9.47734
▁trust	-9.47745
gg	-9.47763
▁prepared	-9.4779
▁hospital	-9.47795
▁Chairman	-9.47861
hy	-9.47873
▁Asia	-9.47891
▁Can	-9.4797
▁Sha	-9.47992
▁image	-9.48007
▁functions	-9.48007
▁week	-9.48261
▁expenditure	-9.4835
▁ago	-9.484
▁plants	-9.48409
▁companies	-9.48411
tre	-9.48497
ara	-9.48522
▁team	-9.4854
▁relationship	-9.48735
row	-9.48776
▁white	-9.48813
▁remain	-9.48862
▁follow	-9.48956
▁Pan	-9.49005
▁presented	-9.49051
▁Ho	-9.49068
ore	-9.49174
▁promote	-9.49195
▁moral	-9.4923
kh	-9.49426
▁workers	-9.49525
end	-9.4958
▁certificate	-9.49593
▁minus	-9.49596
▁scientific	-9.49656
▁struggle	-9.49656
▁animals	-9.49759
ration	-9.49788
▁forces	-9.49794
▁extent	-9.498
▁Per	-9.49801
ably	-9.49868
▁included	-9.49923
▁stand	-9.49952
▁bo	-9.50054
itis	-9.50057
form	-9.501
▁north	-9.50174
aries	-9.50189
▁task	-9.50301
tan	-9.50308
▁clean	-9.50349
▁touch	-9.50413
▁otherwise	-9.50464
▁added	-9.50488
▁cut	-9.50495
ect	-9.50495
▁longer	-9.50498
▁refers	-9.50539
▁music	-9.50542
▁witness	-9.50554
one	-9.50561
▁vision	-9.50648
und	-9.50771
▁attention	-9.50789
▁code	-9.5084
▁memory	-9.50852
▁build	-9.50877
ns	-9.50951
▁active	-9.50963
▁event	-9.50968
▁bear	-9.51036
▁takes	-9.51054
▁award	-9.51059
▁enable	-9.5112
▁review	-9.5114
▁performance	-9.51188
uc	-9.51195
▁Director	-9.51207
au	-9.51227
▁Po	-9.51379
▁bad	-9.51486
▁involved	-9.5149
▁publication	-9.5154
tation	-9.51604
▁fixed	-9.51668
▁Assembly	-9.51679
▁Provided	-9.51689
▁systems	-9.51722
▁supply	-9.51807
▁fair	-9.51896
▁Fa	-9.52029
▁Ar	-9.52086
▁Lo	-9.52097
▁tried	-9.5217
▁twenty	-9.52191
ified	-9.52208
▁Shah	-9.52288
▁standard	-9.52313
▁fit	-9.52314
▁domestic	-9.5232
▁black	-9.52384
▁super	-9.52414
▁directly	-9.52419
che	-9.52435
▁com	-9.5245
par	-9.52485
▁Art	-9.52501
uck	-9.52561
▁produced	-9.52576
▁Punjab	-9.52582
▁caused	-9.52614
▁Chandra	-9.52709
ple	-9.52764
▁Plan	-9.52893
cent	-9.52962
▁communication	-9.5303
▁style	-9.53099
▁Not	-9.53112
▁organisation	-9.5313
▁pi	-9.5319
▁traditional	-9.53207
▁ask	-9.53214
▁accordance	-9.53232
▁press	-9.53407
▁independent	-9.53419
▁Tribunal	-9.53549
▁stop	-9.53641
lic	-9.53681
▁milk	-9.53682
▁Well	-9.53737
▁join	-9.53838
▁Mon	-9.53839
▁road	-9.53845
▁balance	-9.53855
ev	-9.53862
▁ba	-9.53864
▁software	-9.53876
▁June	-9.53887
▁adopted	-9.53959
▁Tax	-9.54
▁IT	-9.54092
▁affect	-9.54107
▁technical	-9.54202
ama	-9.54246
▁contribution	-9.54303
▁December	-9.54333
▁democracy	-9.54333
uk	-9.54337
▁thousand	-9.54436
▁desire	-9.54449
▁content	-9.54489
▁European	-9.54548
▁south	-9.54598
▁advance	-9.54623
▁Mumbai	-9.54727
art	-9.54757
▁units	-9.54767
▁contained	-9.54795
▁Kar	-9.54914
▁According	-9.55031
▁heard	-9.55056
▁Tamil	-9.55061
▁copy	-9.55069
▁friends	-9.55207
ny	-9.55213
▁II	-9.55232
▁unless	-9.553
nath	-9.55398
▁generation	-9.55461
▁King	-9.55502
▁concept	-9.55507
▁focus	-9.55595
▁effort	-9.55781
▁highest	-9.55802
tter	-9.55895
▁Africa	-9.55898
▁green	-9.55922
▁percent	-9.55941
▁enter	-9.56035
▁Wa	-9.56051
▁husband	-9.56053
▁funds	-9.56084
▁secret	-9.56089
▁complex	-9.56255
▁patient	-9.56273
▁collection	-9.5632
▁stay	-9.5634
▁j	-9.56402
ck	-9.56458
▁damage	-9.56468
▁model	-9.56491
ada	-9.56618
▁led	-9.56628
▁reached	-9.56673
AR	-9.56722
▁September	-9.5679
bo	-9.56846
▁laid	-9.56849
▁August	-9.56924
▁beautiful	-9.56924
▁employees	-9.56971
▁documents	-9.57079
▁error	-9.57127
▁ways	-9.57265
mm	-9.57333
▁Research	-9.57397
▁attempt	-9.57414
▁standards	-9.57549
ound	-9.57584
set	-9.57685
▁languages	-9.57687
▁System	-9.57736
▁assets	-9.57798
▁session	-9.57804
▁significant	-9.57851
▁October	-9.57871
▁examination	-9.57871
▁Maha	-9.57891
istic	-9.57937
▁Nehru	-9.57939
▁easy	-9.58008
▁friend	-9.58093
▁color	-9.5822
ory	-9.58264
▁fight	-9.58314
ju	-9.5839
▁Civil	-9.58417
▁deposit	-9.58439
▁Guru	-9.58457
IN	-9.58463
ler	-9.58498
og	-9.58537
▁principle	-9.58545
▁female	-9.58553
▁insurance	-9.58553
▁Every	-9.58614
▁context	-9.58624
lam	-9.58632
▁creation	-9.5881
ay	-9.58862
▁species	-9.58896
▁Har	-9.58932
▁par	-9.59017
▁pattern	-9.59102
nce	-9.59136
ea	-9.59215
▁novel	-9.59225
▁cr	-9.59291
ants	-9.59329
▁types	-9.59338
ping	-9.59377
▁District	-9.59447
▁appear	-9.59467
▁serve	-9.59626
▁Category	-9.59654
▁middle	-9.59656
▁centre	-9.59705
▁recent	-9.59731
tive	-9.5981
▁limit	-9.5983
▁interests	-9.59832
▁People	-9.59862
▁likely	-9.5987
▁break	-9.59874
▁gas	-9.59913
ists	-9.59959
sis	-9.59966
hal	-9.59966
▁grow	-9.6004
ava	-9.60149
▁leading	-9.60151
▁majority	-9.60209
▁largest	-9.60246
▁Corporation	-9.60348
pl	-9.60425
▁fa	-9.60525
▁Sam	-9.60555
▁average	-9.60559
▁sometimes	-9.60559
▁Fund	-9.60668
▁Western	-9.60698
▁accounts	-9.60701
ency	-9.60767
▁Qu	-9.60789
▁connected	-9.60803
▁hours	-9.60803
▁regular	-9.60823
▁military	-9.60837
ition	-9.60854
▁implementation	-9.60865
tle	-9.60896
▁steps	-9.60915
▁program	-9.60942
fer	-9.6095
▁opportunities	-9.60977
▁policies	-9.60977
▁Chapter	-9.60977
▁Other	-9.61077
▁daughter	-9.61118
▁multi	-9.61133
▁attack	-9.61147
io	-9.61277
lin	-9.6128
ris	-9.61295
▁growing	-9.61456
▁Ad	-9.61463
▁described	-9.61465
ction	-9.61509
▁instead	-9.6154
▁va	-9.61545
her	-9.61595
▁placed	-9.61639
▁independence	-9.61681
▁net	-9.61694
▁worship	-9.61746
▁Division	-9.61751
▁compar	-9.6181
▁exist	-9.61853
▁Sur	-9.61914
▁IN	-9.61928
ze	-9.62046
▁card	-9.62116
▁consciousness	-9.62276
▁joint	-9.62321
▁innovation	-9.62389
oo	-9.62393
▁conflict	-9.6246
▁draw	-9.62519
▁import	-9.62593
▁questions	-9.62655
▁fall	-9.62671
▁sign	-9.627
▁Cr	-9.62711
nic	-9.62784
▁Tri	-9.62794
fo	-9.6283
▁Explanation	-9.6296
▁Special	-9.6296
▁surface	-9.62961
▁deemed	-9.62988
▁China	-9.62997
▁July	-9.63028
▁asset	-9.63124
pu	-9.63137
▁resolution	-9.63174
▁affected	-9.63246
▁annual	-9.6325
▁inside	-9.63289
▁educational	-9.6331
▁cells	-9.63314
▁animal	-9.63417
wi	-9.6345
▁request	-9.63512
▁understanding	-9.63621
time	-9.63637
▁cash	-9.63707
▁game	-9.63729
▁male	-9.63839
▁response	-9.63894
▁association	-9.64038
▁Conference	-9.64042
▁pain	-9.64087
ps	-9.64111
▁reasons	-9.64151
hold	-9.642
▁rain	-9.64216
ES	-9.6424
▁suffer	-9.64293
▁leader	-9.64398
▁payable	-9.64415
int	-9.6447
▁registered	-9.64483
▁former	-9.64669
▁Bharat	-9.64769
▁seems	-9.64837
▁bound	-9.64838
▁declared	-9.64866
▁advice	-9.64982
▁fundamental	-9.64982
▁command	-9.64983
▁charges	-9.65101
▁selected	-9.65148
▁regarding	-9.65153
▁perhaps	-9.65201
▁fully	-9.65271
▁En	-9.65285
▁authorities	-9.65298
▁Islamic	-9.6531
▁November	-9.65347
▁length	-9.65348
▁iii	-9.65421
▁agriculture	-9.65494
▁cooperation	-9.65572
▁Judges	-9.6565
▁dream	-9.65714
▁costs	-9.65738
ned	-9.65859
▁stock	-9.65864
▁title	-9.65868
ika	-9.65872
▁Gandhiji	-9.65896
▁First	-9.65935
▁farmers	-9.66023
▁associated	-9.66087
▁divine	-9.66304
▁origin	-9.66353
▁presence	-9.66379
▁honour	-9.66452
▁send	-9.66458
▁offer	-9.66533
▁Kan	-9.66591
▁Management	-9.66675
▁won	-9.66678
▁looking	-9.6669
▁additional	-9.6671
▁Par	-9.6677
▁dead	-9.66811
▁objective	-9.66842
▁useful	-9.66872
ble	-9.66938
▁ho	-9.66967
▁host	-9.67007
▁fish	-9.67062
▁professional	-9.67122
▁Rules	-9.67127
dha	-9.67134
▁shape	-9.67141
▁travel	-9.6717
▁lack	-9.67249
▁lo	-9.67272
▁difference	-9.67485
▁Therefore	-9.67494
▁Here	-9.67497
▁measure	-9.67587
ren	-9.67743
▁results	-9.67807
▁terrorism	-9.6788
▁door	-9.67894
▁advantage	-9.67944
▁located	-9.68045
▁App	-9.68111
▁Programme	-9.68114
▁ha	-9.68159
▁delay	-9.68198
▁weight	-9.68205
thi	-9.68258
▁ideal	-9.68298
▁root	-9.68302
▁extended	-9.68421
▁km	-9.68452
az	-9.68771
▁construction	-9.68798
▁larger	-9.68841
▁Project	-9.6885
▁instance	-9.68868
▁distance	-9.68937
▁colour	-9.68937
ED	-9.69214
▁AND	-9.69295
▁adequate	-9.69306
▁achieve	-9.69355
▁judgment	-9.69382
▁registration	-9.69382
▁committed	-9.69466
▁purchase	-9.69535
▁failed	-9.69627
▁Hindus	-9.69641
▁organization	-9.69672
▁reform	-9.6971
▁introduced	-9.69773
J	-9.69783
▁Bal	-9.69808
▁Policy	-9.69918
▁watch	-9.69998
bal	-9.70038
▁shown	-9.70104
▁youth	-9.70137
▁chief	-9.70148
▁broad	-9.70223
▁external	-9.70231
▁master	-9.70249
▁developing	-9.7033
▁Europe	-9.70357
▁stories	-9.70381
▁voice	-9.70457
▁else	-9.70461
RE	-9.70522
▁skin	-9.70614
▁sale	-9.7066
▁pass	-9.70719
▁Most	-9.70726
▁Min	-9.70785
▁expressed	-9.70806
▁successful	-9.70935
▁mass	-9.70973
▁Th	-9.71017
▁ball	-9.71066
AS	-9.7109
▁wealth	-9.71162
SE	-9.71238
▁pressure	-9.71249
ign	-9.71303
▁needed	-9.71378
▁universal	-9.71385
▁storage	-9.71385
ING	-9.7146
▁item	-9.71462
shi	-9.71522
▁everything	-9.71543
▁unique	-9.71559
▁vital	-9.71571
vel	-9.71652
▁increasing	-9.71706
▁someone	-9.71713
▁Gu	-9.7172
▁bill	-9.71823
tric	-9.72045
▁Car	-9.7208
▁penalty	-9.72092
▁principles	-9.72097
▁namely	-9.72198
▁square	-9.72276
▁Amendment	-9.72323
▁England	-9.72323
▁benefits	-9.72335
▁maintain	-9.72374
▁covered	-9.72456
cus	-9.72587
▁tradition	-9.726
yn	-9.72671
▁thinking	-9.72858
▁Fi	-9.72892
▁ON	-9.72894
▁Secretary	-9.72908
ath	-9.72959
▁Maharashtra	-9.73033
▁numbers	-9.73045
ec	-9.73082
▁Though	-9.73089
▁petitioner	-9.73164
▁br	-9.73231
▁cover	-9.73246
ations	-9.73268
▁soil	-9.73371
▁department	-9.73391
gro	-9.73506
▁avoid	-9.73623
ments	-9.73647
num	-9.73649
▁establishment	-9.73649
▁Arab	-9.73665
▁Science	-9.73667
▁substance	-9.73667
▁minimum	-9.73746
▁played	-9.73762
▁obtain	-9.73784
▁Jo	-9.73838
▁speak	-9.73919
▁Air	-9.73921
IT	-9.73951
▁permanent	-9.73986
ox	-9.73993
put	-9.74001
▁academic	-9.74065
▁Tagore	-9.74145
▁trans	-9.74181
day	-9.74184
▁merely	-9.74214
▁morning	-9.7439
▁poems	-9.74426
▁express	-9.74442
▁site	-9.74585
tta	-9.74616
▁running	-9.74647
▁friendly	-9.74649
▁version	-9.74657
▁contains	-9.74788
▁Office	-9.7485
com	-9.74852
▁Para	-9.74912
▁entitled	-9.74948
▁variety	-9.74948
ight	-9.75005
▁figure	-9.75014
▁pe	-9.75015
OR	-9.7516
tain	-9.75193
▁schemes	-9.75285
▁impact	-9.75291
cation	-9.75345
▁sufficient	-9.7539
▁easily	-9.75433
▁processing	-9.75434
▁crime	-9.75524
kha	-9.75735
▁Inter	-9.75741
▁Kerala	-9.75758
▁wind	-9.7579
▁orders	-9.75791
▁raised	-9.75885
▁changed	-9.75914
▁primary	-9.76007
▁eat	-9.76026
▁committee	-9.76083
chan	-9.76089
▁enjoy	-9.7615
▁win	-9.76166
▁wall	-9.76185
dal	-9.76195
▁Sp	-9.76231
▁manufacture	-9.76246
▁Judici	-9.76294
▁default	-9.76328
▁foot	-9.76342
▁views	-9.76342
▁block	-9.76378
▁appointment	-9.76379
RI	-9.76394
▁integral	-9.7641
▁convey	-9.7641
▁relief	-9.76412
▁operations	-9.7643
▁February	-9.76492
▁engaged	-9.76504
▁parents	-9.76615
▁maximum	-9.76662
▁Sir	-9.76668
▁defined	-9.76698
▁table	-9.76746
ep	-9.76772
▁Authority	-9.76847
▁volume	-9.76904
▁profit	-9.7694
▁investigation	-9.76984
▁mark	-9.76992
▁Am	-9.77141
▁vote	-9.77155
ue	-9.77234
▁Who	-9.77247
rous	-9.774
▁teaching	-9.77406
▁expected	-9.7743
▁Z	-9.77557
▁Khan	-9.77588
use	-9.77722
▁Finance	-9.77727
cr	-9.77728
▁unity	-9.77756
▁aid	-9.77782
▁brother	-9.77787
▁minister	-9.77797
▁duties	-9.77815
▁shows	-9.7785
▁Ni	-9.77855
▁Since	-9.77901
▁villages	-9.7797
▁Power	-9.77981
▁failure	-9.78067
▁ill	-9.78071
▁Why	-9.78092
▁philosophy	-9.78143
▁season	-9.78327
▁transport	-9.78331
▁UN	-9.78429
▁display	-9.78452
osis	-9.78555
ising	-9.7859
▁dance	-9.78601
▁ready	-9.78652
▁temples	-9.7871
ify	-9.78715
▁powerful	-9.78739
▁filed	-9.78792
▁reading	-9.78849
▁judges	-9.78945
▁rid	-9.78955
▁Also	-9.78993
▁feeling	-9.7906
ai	-9.79075
bb	-9.79076
either	-9.79229
▁board	-9.79253
fl	-9.79294
▁se	-9.79436
▁Pe	-9.79447
▁saying	-9.79466
▁lines	-9.79469
pos	-9.79524
▁elements	-9.79551
las	-9.79557
▁pleasure	-9.79568
▁positive	-9.79652
▁poverty	-9.79652
▁undertaking	-9.79737
▁safe	-9.79743
▁indeed	-9.7976
▁Bihar	-9.79769
▁suggest	-9.79879
▁dealing	-9.79939
▁degree	-9.79952
▁whatever	-9.80014
▁levels	-9.80092
▁favour	-9.80255
rt	-9.80266
▁remains	-9.8028
pp	-9.80323
▁studies	-9.8033
dh	-9.80405
▁medium	-9.80502
▁stream	-9.80518
▁punishment	-9.80529
cer	-9.80554
▁Services	-9.80596
▁Their	-9.80602
ko	-9.80657
▁Because	-9.80671
▁series	-9.80681
▁defence	-9.80769
▁throughout	-9.80777
▁screen	-9.80791
▁deduction	-9.80826
▁trying	-9.80944
▁Si	-9.80985
eg	-9.80985
▁feet	-9.81028
▁crop	-9.81176
bat	-9.81196
▁medicine	-9.8127
ric	-9.81312
gh	-9.81317
▁girl	-9.81506
▁Ke	-9.81512
▁promotion	-9.81613
▁SC	-9.81671
▁ship	-9.81687
ray	-9.81703
▁contain	-9.81787
▁Trans	-9.81866
▁festival	-9.81873
▁legislation	-9.81873
var	-9.81932
▁entry	-9.81976
▁Akbar	-9.82133
▁vast	-9.82155
▁Up	-9.82182
▁removal	-9.82261
▁fee	-9.82289
▁Gujarat	-9.82296
▁turned	-9.82422
rap	-9.82426
▁speed	-9.82493
▁Pat	-9.8258
ification	-9.82582
▁gain	-9.8262
▁feed	-9.82657
▁caste	-9.82713
▁granted	-9.82736
▁Uttar	-9.82742
▁Bengali	-9.82835
▁Raja	-9.8292
▁po	-9.83047
▁bone	-9.83063
▁distribution	-9.83209
▁agency	-9.83267
RA	-9.83351
▁debt	-9.83358
▁mainly	-9.83401
▁requires	-9.83446
ura	-9.83469
▁Br	-9.83552
af	-9.83612
▁divided	-9.83669
▁shares	-9.8369
▁remember	-9.83708
▁intellectual	-9.83795
yan	-9.83821
▁server	-9.83828
▁internal	-9.83878
za	-9.83888
▁items	-9.83922
▁aspects	-9.83932
▁receipt	-9.83969
▁sec	-9.84106
▁sort	-9.84136
▁discussion	-9.84147
▁complaint	-9.84158
▁suggested	-9.84161
▁cha	-9.8417
▁encourage	-9.84217
ient	-9.8422
▁literary	-9.84234
pro	-9.84322
rate	-9.84328
▁safety	-9.84341
ade	-9.84455
▁star	-9.8452
lock	-9.84579
▁target	-9.84588
▁names	-9.84607
▁Language	-9.84677
▁Kumar	-9.84717
▁staff	-9.84766
mark	-9.84813
ix	-9.84832
hara	-9.84835
▁habit	-9.84852
▁division	-9.84855
▁belief	-9.84855
▁sections	-9.84858
▁agree	-9.8491
▁election	-9.84936
▁tissue	-9.84944
▁perform	-9.8499
▁teacher	-9.84999
▁Official	-9.85033
▁offered	-9.85067
▁waste	-9.85076
▁agent	-9.85086
▁daily	-9.85125
▁phase	-9.85135
▁Ya	-9.85148
cle	-9.85183
▁welfare	-9.85211
▁motion	-9.85251
▁files	-9.85434
ties	-9.8544
▁fresh	-9.8548
▁Over	-9.85511
▁Error	-9.85659
esh	-9.85662
▁location	-9.85674
▁gone	-9.85756
mor	-9.85905
▁reduce	-9.85916
▁choice	-9.85929
▁finance	-9.8593
▁Indians	-9.85936
▁requirements	-9.86026
▁Mahatma	-9.86109
▁Health	-9.86114
▁phone	-9.86203
▁Force	-9.86212
▁cities	-9.86284
▁proceed	-9.86287
▁confidence	-9.86289
▁equipment	-9.86289
▁articles	-9.86365
▁Post	-9.86374
▁opening	-9.86377
▁wishes	-9.86382
▁leaves	-9.86412
uri	-9.86423
▁completed	-9.86447
▁ja	-9.86464
▁nations	-9.86498
▁option	-9.86548
▁moon	-9.8663
▁Whether	-9.86651
▁translation	-9.86742
▁individuals	-9.86788
hor	-9.86814
ped	-9.86855
▁School	-9.86923
▁treated	-9.86926
▁Nepal	-9.86932
▁ka	-9.86935
SS	-9.86968
▁lived	-9.8698
fu	-9.8704
▁count	-9.87053
▁regional	-9.87084
▁Ban	-9.87091
▁named	-9.87119
ou	-9.87122
ME	-9.87143
wal	-9.87144
▁practices	-9.87145
▁branch	-9.87178
▁Rajya	-9.87252
side	-9.87273
▁experiment	-9.87379
▁rock	-9.87391
▁College	-9.8747
▁Palestinian	-9.8747
▁knew	-9.8747
▁learned	-9.87668
▁actual	-9.87736
▁forest	-9.87738
▁methods	-9.87758
ire	-9.87765
▁station	-9.87778
▁decide	-9.87838
▁attitude	-9.87912
▁beauty	-9.87928
▁formal	-9.88024
▁sat	-9.88095
if	-9.88164
bil	-9.88236
▁Bu	-9.88287
▁train	-9.8834
lf	-9.88434
▁acts	-9.88491
▁spot	-9.88499
▁factors	-9.88512
▁Ku	-9.88543
▁Group	-9.88572
▁highly	-9.88576
▁pest	-9.88603
▁concern	-9.8867
aka	-9.88694
▁applications	-9.88701
▁machinery	-9.88704
▁dispute	-9.88719
▁reality	-9.8874
▁abroad	-9.88757
res	-9.88778
▁die	-9.88805
▁believed	-9.88811
▁buy	-9.88837
▁Rajasthan	-9.8885
▁Her	-9.889
▁teachers	-9.88922
▁bodies	-9.88943
▁hearing	-9.89009
▁Men	-9.89058
▁probably	-9.89128
▁heavy	-9.89129
▁late	-9.89152
▁ne	-9.89154
ulation	-9.89163
▁Water	-9.89167
for	-9.89221
▁holding	-9.89254
▁goal	-9.89289
▁nuclear	-9.89407
▁follows	-9.89441
▁petition	-9.89442
▁returned	-9.89456
▁symbol	-9.8948
▁Only	-9.89499
▁determined	-9.89536
▁sleep	-9.89594
▁songs	-9.89655
▁families	-9.89687
▁da	-9.89695
▁Ganga	-9.89858
cing	-9.89873
▁critical	-9.89873
▁partnership	-9.89883
&	-9.89899
▁died	-9.89902
▁rupees	-9.90034
▁Google	-9.90061
▁Mal	-9.90081
▁Christian	-9.901
▁insects	-9.90135
▁Excellency	-9.90155
▁Besides	-9.90156
▁Chand	-9.90199
▁terrorist	-9.90351
ger	-9.90365
▁causes	-9.90427
▁proved	-9.90454
▁save	-9.90466
▁require	-9.90475
▁fields	-9.90504
▁reasonable	-9.90537
EN	-9.90539
▁joy	-9.90545
▁Non	-9.90623
▁File	-9.90698
▁points	-9.90741
eration	-9.90746
▁facts	-9.90805
▁chemical	-9.90814
▁agencies	-9.90815
▁agreed	-9.90833
▁clearly	-9.90842
▁sc	-9.9088
TH	-9.90906
▁doctor	-9.90921
▁rank	-9.9094
▁events	-9.91007
▁appears	-9.91076
▁railway	-9.91196
▁micro	-9.91294
▁Account	-9.91308
▁height	-9.91336
▁Today	-9.91341
AC	-9.91352
▁army	-9.91432
▁compensation	-9.91478
▁attend	-9.91509
▁mutual	-9.91543
▁description	-9.91573
▁thereof	-9.9158
▁mission	-9.91611
▁delivery	-9.91615
▁happened	-9.91663
▁seed	-9.9171
▁dated	-9.91852
das	-9.92056
▁schools	-9.92061
▁perfect	-9.92088
▁Members	-9.92092
▁explain	-9.92099
LE	-9.92136
▁Further	-9.92146
▁sacrifice	-9.92228
IL	-9.92243
▁Assam	-9.92246
▁port	-9.92314
▁Legislative	-9.92337
▁cold	-9.92383
▁survey	-9.92433
▁recommended	-9.92434
oid	-9.92441
▁suitable	-9.92445
cha	-9.92522
▁historical	-9.92545
▁Ali	-9.92569
▁seem	-9.92573
bid	-9.9267
▁aware	-9.92684
▁extra	-9.92696
▁keeping	-9.9271
▁accident	-9.92722
▁graph	-9.92804
▁Use	-9.92853
▁Member	-9.92873
▁bi	-9.92877
fa	-9.9291
lar	-9.92917
▁Party	-9.92923
▁sitting	-9.92931
ular	-9.92934
▁amongst	-9.92968
▁leadership	-9.93027
▁sides	-9.93047
ier	-9.93068
of	-9.93149
▁revolution	-9.9317
▁poem	-9.93175
▁passing	-9.93222
▁constituted	-9.93251
▁Andhra	-9.93339
▁hour	-9.93359
▁tend	-9.93408
▁Sar	-9.93459
▁cons	-9.93459
▁expect	-9.93472
▁BC	-9.93489
▁Yoga	-9.93614
lay	-9.93697
▁le	-9.93726
▁launched	-9.93748
▁acc	-9.93777
▁constitutional	-9.93786
▁Israeli	-9.93807
▁Work	-9.93833
▁prove	-9.93844
▁Both	-9.93867
▁worked	-9.93878
▁applicable	-9.93884
▁reduced	-9.93919
▁urban	-9.93937
▁draft	-9.93982
▁horse	-9.93986
▁gets	-9.94079
▁Which	-9.94079
▁identity	-9.94079
▁ordinary	-9.94079
▁hero	-9.94097
▁hear	-9.94137
so	-9.94183
mu	-9.94225
▁chance	-9.94238
▁qu	-9.94248
▁Out	-9.94294
▁See	-9.94337
▁mechanism	-9.94372
▁Company	-9.94372
▁completely	-9.94388
▁latter	-9.9439
rr	-9.94437
▁journey	-9.9447
raj	-9.945
▁drama	-9.94529
izing	-9.94544
▁greeting	-9.94569
▁arrest	-9.94633
▁remove	-9.94657
▁Commercial	-9.94666
▁Speaker	-9.94666
▁Two	-9.94697
▁efficient	-9.94765
▁portion	-9.94772
iya	-9.94774
▁dry	-9.94796
▁Du	-9.94868
▁River	-9.94964
▁Sc	-9.94971
▁planning	-9.94983
▁features	-9.94992
▁heat	-9.95043
▁acid	-9.95067
▁sex	-9.95121
▁inner	-9.95136
▁Bas	-9.95137
▁negative	-9.95159
kan	-9.95175
kin	-9.95204
ob	-9.95283
▁decisions	-9.95344
DA	-9.95346
uff	-9.95425
▁stone	-9.95472
▁diseases	-9.95528
▁refer	-9.95581
bit	-9.95638
ov	-9.95782
jan	-9.95783
fin	-9.95809
▁Shi	-9.9582
▁sectors	-9.95892
aw	-9.9593
▁entered	-9.95939
▁administrative	-9.95951
▁Another	-9.95951
▁throw	-9.95977
▁mouth	-9.96051
▁respondent	-9.96077
▁select	-9.96114
▁foundation	-9.96162
▁release	-9.96167
▁spent	-9.96237
▁commission	-9.96253
▁brain	-9.96258
▁wood	-9.96306
▁element	-9.96337
▁elected	-9.96368
▁box	-9.96389
▁notification	-9.96414
▁Home	-9.96445
▁tri	-9.96534
▁yield	-9.9655
▁applied	-9.9655
pat	-9.96679
stood	-9.96739
▁update	-9.96754
▁picture	-9.96796
late	-9.9682
rd	-9.97011
xi	-9.9703
▁argument	-9.97051
ose	-9.97137
▁match	-9.97148
▁improvement	-9.97157
▁Human	-9.97175
▁remained	-9.97194
▁approved	-9.97206
▁senior	-9.97252
▁Procedure	-9.97252
▁officials	-9.97259
▁town	-9.97272
▁democratic	-9.97338
▁dark	-9.97342
▁Red	-9.97351
▁ju	-9.97369
▁settlement	-9.97386
avi	-9.97422
▁recommendations	-9.97426
▁discharge	-9.97465
▁walk	-9.97521
▁convert	-9.97538
▁permit	-9.97553
▁profession	-9.97572
▁fill	-9.97587
rm	-9.97647
▁Ph	-9.97709
dhi	-9.97761
▁suffering	-9.97809
▁drawn	-9.97828
▁latest	-9.97832
▁Ki	-9.97868
▁crops	-9.97901
▁released	-9.97944
ved	-9.9796
▁president	-9.98017
▁governance	-9.98072
▁Roy	-9.98104
▁achieved	-9.98133
CC	-9.98152
▁drive	-9.98215
▁initiatives	-9.98324
ef	-9.98342
EC	-9.98399
bra	-9.98424
▁worth	-9.98443
▁register	-9.98454
▁Financial	-9.98469
▁output	-9.98486
rn	-9.98492
▁tea	-9.98512
▁sand	-9.98514
▁store	-9.9852
▁nearly	-9.98533
▁establish	-9.98546
log	-9.9857
▁Mission	-9.98571
▁cre	-9.98638
▁principal	-9.98673
zi	-9.9886
▁load	-9.98886
▁Don	-9.98948
▁participation	-9.99111
▁cast	-9.99148
▁moved	-9.99205
▁web	-9.99236
jo	-9.9938
mar	-9.99407
▁campaign	-9.99494
▁facilitate	-9.99494
anda	-9.99569
▁Prof	-9.99585
▁folk	-9.99625
▁meant	-9.99662
▁Association	-9.997
▁border	-9.99701
stra	-9.9971
▁pan	-9.99716
▁ban	-9.99732
▁centres	-9.99782
▁app	-9.99824
rum	-9.99868
▁politics	-9.99907
▁challenge	-9.99947
▁cat	-9.99989
▁supported	-10.0007
▁prices	-10.0009
▁territory	-10.0011
▁battle	-10.0011
ture	-10.0028
▁union	-10.003
hana	-10.0038
▁gold	-10.0043
▁hair	-10.0046
ek	-10.0049
▁weak	-10.0054
▁conference	-10.0075
▁nine	-10.0082
▁depend	-10.0082
▁approval	-10.0084
▁couple	-10.0084
▁li	-10.0086
▁removed	-10.0089
▁creating	-10.0096
aya	-10.0096
▁format	-10.0098
▁exceed	-10.0103
▁emphasis	-10.0105
▁guarantee	-10.0105
by	-10.0111
▁charged	-10.0112
▁director	-10.0113
▁factor	-10.0115
▁ear	-10.0118
▁false	-10.0126
▁recorded	-10.0136
▁revenue	-10.0137
oph	-10.0137
pha	-10.0142
▁standing	-10.0143
▁Das	-10.015
cious	-10.0154
▁trouble	-10.0158
nal	-10.016
▁Islamist	-10.0163
▁Comp	-10.0166
ically	-10.0166
low	-10.0169
▁commitment	-10.0173
▁married	-10.0179
▁solution	-10.0195
▁bio	-10.02
▁shift	-10.02
▁Sikh	-10.0201
hat	-10.0201
▁news	-10.0205
▁Insurance	-10.021
▁analysis	-10.021
▁Bose	-10.0213
▁happen	-10.0216
▁operate	-10.0221
ID	-10.0224
▁lu	-10.0224
▁SCC	-10.023
▁Jain	-10.0239
▁London	-10.0242
▁center	-10.0243
dev	-10.0244
▁permission	-10.0245
ica	-10.0246
▁Sal	-10.0248
graph	-10.025
▁prosperity	-10.0253
▁garden	-10.0253
▁Internet	-10.0253
▁evil	-10.0256
▁interesting	-10.0259
▁proposal	-10.026
▁tonnes	-10.0274
ok	-10.028
vas	-10.0286
▁Show	-10.0291
▁Police	-10.0296
▁materials	-10.0298
▁CO	-10.0301
▁facility	-10.0306
▁Among	-10.0307
▁functioning	-10.0314
▁electronic	-10.0317
▁Hon	-10.032
gin	-10.032
til	-10.0322
ock	-10.0326
▁Could	-10.0327
▁finally	-10.0328
▁citizen	-10.0335
▁reports	-10.0339
▁ob	-10.0341
▁mention	-10.0344
ati	-10.0345
bul	-10.0353
▁plain	-10.0354
▁imm	-10.0356
▁folder	-10.0363
under	-10.0366
▁belong	-10.037
▁characters	-10.037
▁unre	-10.037
▁extension	-10.037
▁Network	-10.037
▁huge	-10.0371
▁classes	-10.0374
▁trees	-10.038
▁cor	-10.0382
▁east	-10.039
atory	-10.0397
▁murder	-10.0403
▁constitute	-10.041
▁Foreign	-10.0413
▁sources	-10.0414
▁rare	-10.0415
▁promot	-10.0418
▁Legislature	-10.0424
▁listen	-10.0425
▁du	-10.0435
▁comment	-10.0436
ony	-10.044
▁maintained	-10.0442
ature	-10.0445
▁Sen	-10.0452
ku	-10.0454
▁sought	-10.0455
car	-10.0456
▁Karnataka	-10.0457
▁mail	-10.0459
▁poll	-10.0459
cept	-10.0466
▁student	-10.0469
pect	-10.047
▁allowance	-10.0473
▁submitted	-10.048
▁atmosphere	-10.0489
▁communities	-10.0489
▁danger	-10.0491
▁awareness	-10.0506
▁conducted	-10.051
▁camp	-10.0515
▁grown	-10.0519
▁engine	-10.0522
▁cap	-10.0523
hur	-10.0528
▁cave	-10.0529
▁writer	-10.0531
▁apart	-10.0532
▁breath	-10.0533
▁drugs	-10.0534
▁Right	-10.0541
fully	-10.0544
▁strike	-10.0545
▁opened	-10.0546
aging	-10.0558
▁Tu	-10.0565
▁obtained	-10.0572
qua	-10.0574
▁finding	-10.0574
pla	-10.0576
▁pen	-10.0582
med	-10.0583
▁weeks	-10.0587
ess	-10.0587
body	-10.059
▁execution	-10.059
▁served	-10.06
▁earn	-10.061
hood	-10.0615
▁challenges	-10.0619
▁proportion	-10.0631
ese	-10.0632
▁retain	-10.0633
▁mar	-10.0636
▁El	-10.0637
CH	-10.0637
try	-10.0642
▁street	-10.0643
▁race	-10.0644
▁Em	-10.065
▁didn	-10.0654
▁squared	-10.066
▁pick	-10.0663
▁universities	-10.0665
hen	-10.0665
▁incident	-10.0665
▁changing	-10.0666
▁confident	-10.0674
▁Orissa	-10.0676
▁climate	-10.0676
▁prime	-10.0677
▁comp	-10.0685
▁banking	-10.0688
cc	-10.0689
▁consists	-10.0696
▁moving	-10.0698
▁Ab	-10.0701
▁profits	-10.0704
▁Second	-10.0706
▁expenses	-10.0706
volving	-10.0709
▁pollution	-10.072
▁temperature	-10.072
▁west	-10.0723
▁Nature	-10.0726
▁column	-10.0731
▁situated	-10.0731
▁discipline	-10.0743
▁mobile	-10.0743
ula	-10.0744
▁transferred	-10.0745
▁Each	-10.0751
AD	-10.0753
▁affairs	-10.0754
▁possession	-10.0764
▁constitution	-10.0767
IM	-10.078
▁elections	-10.0782
▁l	-10.0782
▁Once	-10.0784
char	-10.0785
▁Although	-10.0787
▁Fe	-10.0788
▁attached	-10.0791
▁plays	-10.0794
▁sin	-10.0797
▁Kha	-10.0798
ld	-10.0803
▁maintenance	-10.081
etic	-10.0814
▁birds	-10.0819
▁devotion	-10.0821
▁thirty	-10.0821
gri	-10.0821
▁More	-10.083
▁healthy	-10.0841
▁Time	-10.0844
▁executive	-10.0844
▁Sun	-10.0846
▁valid	-10.0849
▁helped	-10.0849
▁pra	-10.085
▁scene	-10.0855
▁Press	-10.086
owing	-10.0862
dr	-10.0862
▁sad	-10.0865
▁recently	-10.0869
▁raise	-10.0872
▁lose	-10.0878
▁background	-10.0878
ries	-10.0879
fr	-10.0886
ancy	-10.0888
▁sister	-10.0888
▁operating	-10.0889
atic	-10.0902
▁resource	-10.0911
▁solve	-10.0915
▁wear	-10.0918
east	-10.092
▁absence	-10.0923
▁Self	-10.0924
gam	-10.0926
▁signal	-10.0929
wo	-10.0933
▁frame	-10.0941
▁chapter	-10.0945
▁gift	-10.0945
VI	-10.0948
▁exp	-10.0949
▁amendment	-10.0949
▁AIR	-10.0953
▁rates	-10.0954
▁courage	-10.0957
▁Rule	-10.0957
PA	-10.0963
▁decades	-10.0965
▁pure	-10.0968
▁elephant	-10.0968
▁imprisonment	-10.0969
▁hill	-10.0975
▁engineering	-10.098
AM	-10.0986
▁arm	-10.0992
▁processes	-10.0996
▁online	-10.1002
ans	-10.1002
▁records	-10.1002
▁Middle	-10.1002
▁conclusion	-10.1002
abad	-10.1004
▁ourselves	-10.1004
▁notes	-10.1004
▁objectives	-10.1008
▁minor	-10.1008
ute	-10.1022
▁subjects	-10.1024
▁Society	-10.1025
▁cow	-10.1027
▁launch	-10.1032
▁weather	-10.1037
▁soft	-10.1047
▁theory	-10.1048
▁Ju	-10.105
last	-10.1053
▁flu	-10.1054
▁occur	-10.1058
▁Select	-10.1061
nagar	-10.1063
▁greatest	-10.1069
▁track	-10.1072
▁multiple	-10.1073
▁Tra	-10.1077
▁ocean	-10.1083
ET	-10.1083
▁becoming	-10.1083
ker	-10.1083
nda	-10.1087
port	-10.1092
▁Before	-10.1094
▁fellow	-10.1096
▁log	-10.1098
▁proceeding	-10.1109
▁Railway	-10.1118
some	-10.1118
▁Shiva	-10.1119
▁pending	-10.1122
▁spend	-10.1126
▁critic	-10.1127
▁piece	-10.1128
▁Women	-10.113
pal	-10.1136
ATION	-10.1139
ey	-10.1139
▁regions	-10.1142
▁audit	-10.1152
▁Assess	-10.1159
▁cricket	-10.1164
▁Life	-10.1166
dle	-10.1176
▁recognised	-10.1176
▁harm	-10.1177
▁aspect	-10.1181
▁letters	-10.1182
iz	-10.1183
▁reflect	-10.1187
ank	-10.1187
▁resident	-10.1188
▁ego	-10.1192
gn	-10.1193
▁billion	-10.1194
▁threat	-10.1197
▁lies	-10.1202
▁formation	-10.1203
ili	-10.1204
tam	-10.1204
▁deliver	-10.1211
▁debate	-10.1212
ini	-10.1216
▁Independence	-10.1222
▁severe	-10.1222
▁iron	-10.1226
▁ki	-10.1226
▁Shar	-10.1227
▁counsel	-10.1234
▁shop	-10.1234
▁edge	-10.1236
X	-10.1237
▁priority	-10.124
ata	-10.1241
▁houses	-10.1243
▁evening	-10.1244
▁behaviour	-10.1246
▁Reserve	-10.1246
ON	-10.1246
NS	-10.1249
▁Park	-10.1249
oy	-10.1249
▁iv	-10.1251
CE	-10.1251
▁adult	-10.1255
oli	-10.1262
nia	-10.1263
▁Babu	-10.1269
▁URL	-10.1269
▁sweet	-10.1269
▁Jammu	-10.127
▁Wi	-10.1271
clause	-10.1271
▁bringing	-10.1274
▁prince	-10.1281
▁zero	-10.1281
▁Social	-10.1282
EL	-10.1283
▁blue	-10.1293
▁cloth	-10.1295
ological	-10.1299
▁capable	-10.13
▁although	-10.1305
▁Limited	-10.1307
▁channel	-10.1315
▁Ru	-10.1326
lli	-10.1328
▁smaller	-10.1329
▁limitation	-10.1333
▁reported	-10.1335
▁Mah	-10.1335
▁bilateral	-10.134
▁Subhas	-10.1341
▁des	-10.1344
▁Form	-10.1349
lip	-10.1356
▁Ti	-10.1359
▁connect	-10.1363
▁manufacturing	-10.1364
arising	-10.1367
▁designed	-10.1369
▁offences	-10.1371
▁conscious	-10.1371
▁muscle	-10.1376
▁Mother	-10.1378
illa	-10.1379
ken	-10.1382
▁scope	-10.139
HA	-10.139
▁ability	-10.1392
▁gains	-10.1396
pri	-10.14
▁string	-10.1401
▁Jan	-10.1402
▁environmental	-10.1408
▁subscribe	-10.141
▁Province	-10.1411
▁Governments	-10.1416
▁choose	-10.1421
▁Training	-10.1423
hr	-10.1424
▁layer	-10.1435
▁intention	-10.1436
▁Comment	-10.1436
rag	-10.1437
▁privilege	-10.1441
▁disputes	-10.1441
pr	-10.1448
▁prior	-10.1452
▁contempt	-10.1459
▁endeavour	-10.1459
▁Add	-10.1463
ook	-10.1469
▁mu	-10.148
▁partner	-10.1483
▁identify	-10.1483
▁cease	-10.1484
▁Col	-10.1484
▁remote	-10.1495
▁hot	-10.1496
ras	-10.1497
▁rice	-10.1501
lat	-10.1508
▁Great	-10.1519
▁solar	-10.152
lum	-10.1524
ina	-10.1526
▁sur	-10.1526
vad	-10.1531
▁brief	-10.1531
▁Application	-10.1531
▁Change	-10.1532
ral	-10.1532
▁counter	-10.1543
▁password	-10.1544
▁Madras	-10.1544
▁Divine	-10.1544
▁radio	-10.1552
▁welcome	-10.1564
ole	-10.1564
▁signed	-10.1572
▁calculat	-10.1577
▁mistake	-10.158
▁scientists	-10.159
▁career	-10.1591
▁determine	-10.1591
▁please	-10.1603
▁Criminal	-10.1604
EM	-10.1606
▁effects	-10.1611
ories	-10.1613
▁Control	-10.1615
▁minutes	-10.1629
▁acquired	-10.1632
gal	-10.164
▁liquid	-10.1641
▁mere	-10.1644
▁initiative	-10.1647
▁upper	-10.1649
▁fruit	-10.165
▁email	-10.1653
▁infection	-10.1653
▁Are	-10.1656
▁identified	-10.1659
▁dec	-10.1661
pra	-10.1663
▁currency	-10.1665
▁adopt	-10.1665
▁friendship	-10.1667
▁implemented	-10.1668
lap	-10.1676
▁script	-10.168
▁delight	-10.1685
▁disk	-10.1685
iness	-10.1686
nam	-10.1687
▁defeat	-10.169
▁urge	-10.1692
▁users	-10.1694
▁advocate	-10.1702
▁Order	-10.1705
▁proof	-10.1717
▁corner	-10.1717
ong	-10.1724
▁platform	-10.1726
verse	-10.1726
▁bomb	-10.173
▁enhance	-10.1735
▁performed	-10.1737
▁reaction	-10.1739
▁lie	-10.1744
▁appeared	-10.1746
▁secure	-10.1749
▁customer	-10.1751
▁initial	-10.1754
▁Unit	-10.1755
▁tool	-10.1762
▁begin	-10.1763
▁Affairs	-10.1763
▁Industrial	-10.1772
▁disc	-10.1778
▁farm	-10.1778
▁Fo	-10.1788
▁grain	-10.1789
ography	-10.179
▁shared	-10.1791
▁assigned	-10.1794
len	-10.1797
lon	-10.1799
▁000	-10.1804
lia	-10.1813
▁Those	-10.1814
▁stress	-10.1814
▁scholars	-10.1818
▁mountain	-10.1825
▁liberal	-10.1825
▁trend	-10.1826
▁desert	-10.1826
▁installed	-10.183
▁announced	-10.1831
▁pointed	-10.1832
▁wise	-10.1834
▁contribute	-10.1834
▁satisfied	-10.1838
▁god	-10.185
▁Port	-10.1852
▁filled	-10.1853
▁strengthen	-10.1859
▁Ver	-10.186
▁Related	-10.1862
▁double	-10.1863
▁branches	-10.1865
▁mandapa	-10.1875
▁route	-10.1876
iva	-10.1879
▁Nadu	-10.1881
▁flowers	-10.1881
▁jail	-10.1882
▁alternative	-10.1888
▁Business	-10.1888
je	-10.1895
▁Rights	-10.1897
▁Economic	-10.19
▁employer	-10.19
▁communal	-10.19
▁mill	-10.1908
▁Ag	-10.1908
▁Security	-10.1913
▁quarter	-10.1913
▁sexual	-10.1914
bin	-10.1917
▁definition	-10.1925
▁tube	-10.1928
ush	-10.1931
▁Yes	-10.1933
▁owner	-10.1935
▁Iran	-10.194
▁respective	-10.1946
OS	-10.195
▁era	-10.1952
▁Nations	-10.1968
▁organized	-10.197
▁Deputy	-10.1988
▁narrow	-10.1988
▁Something	-10.1988
▁Protection	-10.1989
▁mid	-10.199
▁skills	-10.1991
NA	-10.1994
▁none	-10.1997
▁seemed	-10.1998
▁hit	-10.1999
▁discussed	-10.2
▁drop	-10.2
▁western	-10.2001
▁visited	-10.2005
▁council	-10.2014
▁cloud	-10.2014
▁immediate	-10.2016
▁civilization	-10.2017
tting	-10.2021
otic	-10.2034
uni	-10.2035
▁centuries	-10.2039
▁deals	-10.2042
▁collected	-10.2051
▁consumer	-10.2056
tel	-10.2069
▁manager	-10.2072
▁arbitration	-10.2078
▁Marriage	-10.209
▁marketing	-10.2092
ets	-10.2095
aj	-10.21
▁marked	-10.2111
▁doesn	-10.2113
▁wait	-10.2113
nation	-10.2113
▁wild	-10.2116
▁represents	-10.2116
▁ST	-10.2124
▁eligible	-10.2128
▁simply	-10.2128
▁fuel	-10.2128
▁bus	-10.2129
gr	-10.2132
▁judiciary	-10.2141
▁comprehensive	-10.2142
▁drug	-10.2142
▁employee	-10.2145
▁Data	-10.2148
▁str	-10.2153
▁constant	-10.2158
CA	-10.2166
▁History	-10.2168
IR	-10.2168
▁merit	-10.2169
▁pot	-10.2176
▁Gra	-10.2176
▁shrine	-10.218
▁wave	-10.2185
▁transaction	-10.2185
lab	-10.2188
▁fell	-10.2189
imposed	-10.219
▁gene	-10.2191
▁belonging	-10.2193
yo	-10.2194
▁Swami	-10.2195
▁Its	-10.2196
▁appearance	-10.2197
▁auto	-10.2198
ora	-10.2199
▁stands	-10.2204
ibility	-10.2206
▁framework	-10.2206
ita	-10.2207
▁Mad	-10.2215
raja	-10.2216
▁recognition	-10.2218
▁creative	-10.222
ges	-10.2227
▁treat	-10.2235
▁rivers	-10.2241
▁advanced	-10.2248
▁reforms	-10.2249
▁killed	-10.2257
▁Bangladesh	-10.2257
▁university	-10.2257
▁Joint	-10.2258
▁bird	-10.2261
▁French	-10.227
▁mostly	-10.2272
▁substantial	-10.2274
▁Master	-10.2276
ome	-10.2277
▁organizations	-10.2278
▁equality	-10.228
gni	-10.2282
OL	-10.2285
▁equally	-10.2288
▁metal	-10.2295
▁girls	-10.23
inal	-10.2307
▁Principal	-10.2309
▁Sat	-10.2314
▁Gha	-10.2315
▁intended	-10.2317
▁vehicle	-10.2318
ms	-10.2321
▁tribal	-10.2323
cor	-10.2324
name	-10.2328
▁Ran	-10.2328
▁containing	-10.2338
▁recommend	-10.2341
▁properly	-10.2345
ave	-10.2345
▁sight	-10.2346
▁reserve	-10.2346
table	-10.2351
▁feature	-10.2358
▁Kh	-10.2359
▁flower	-10.2361
▁chain	-10.2361
▁household	-10.2365
▁bed	-10.2368
nna	-10.237
▁fifty	-10.2375
▁Lal	-10.238
▁kill	-10.2381
▁Vice	-10.2387
▁Small	-10.2388
▁visible	-10.2389
▁Land	-10.239
▁initiated	-10.2391
▁composed	-10.2391
CS	-10.2391
over	-10.2393
ope	-10.2397
▁span	-10.2409
▁Ge	-10.2411
▁skill	-10.2412
▁bin	-10.2414
▁amended	-10.2423
OC	-10.2429
▁prose	-10.2434
▁Com	-10.2443
▁Rural	-10.2443
col	-10.2449
▁opposition	-10.2454
asi	-10.2464
▁lit	-10.2467
▁electricity	-10.247
▁bright	-10.2471
▁discuss	-10.2471
▁organised	-10.2472
rant	-10.2472
▁category	-10.248
▁photo	-10.248
▁qua	-10.2481
▁sit	-10.2481
▁attract	-10.2484
▁extremely	-10.2484
▁undertaken	-10.249
▁Year	-10.2494
▁escape	-10.2494
▁Trade	-10.2495
▁entirely	-10.2496
bor	-10.2505
▁exists	-10.2506
▁technologies	-10.2507
▁Failed	-10.2507
craft	-10.252
▁supreme	-10.252
▁Good	-10.2525
▁calls	-10.2533
▁Hyderabad	-10.2533
▁competent	-10.2534
▁pull	-10.2536
▁personality	-10.2556
▁seeking	-10.2556
▁def	-10.2557
▁Pal	-10.2569
tom	-10.2573
▁guide	-10.2576
▁possess	-10.2583
MS	-10.2586
▁thousands	-10.2593
▁fat	-10.2602
▁custom	-10.2607
▁blind	-10.2614
▁poets	-10.2614
▁traffic	-10.2627
▁grand	-10.2627
▁Mor	-10.2628
▁Nar	-10.263
▁looks	-10.2639
▁liability	-10.2642
▁prosecution	-10.2647
▁sick	-10.2655
cat	-10.2655
▁Food	-10.2655
▁song	-10.2656
▁Exchange	-10.2668
▁sugar	-10.2669
dan	-10.2677
▁representation	-10.2678
▁Head	-10.2679
▁employed	-10.2681
▁drink	-10.2695
▁victim	-10.2699
CR	-10.2699
▁Hari	-10.27
▁conviction	-10.2701
▁depends	-10.2704
▁ahead	-10.2708
▁starting	-10.2709
nes	-10.2714
mic	-10.2715
▁limits	-10.2717
ila	-10.2719
▁directed	-10.2721
▁outstanding	-10.2722
AP	-10.2727
▁regulations	-10.2727
bel	-10.2733
▁organ	-10.2733
▁felicitations	-10.2736
▁informed	-10.2736
▁eggs	-10.2738
▁wonder	-10.274
oon	-10.2746
▁accurate	-10.2749
▁Urdu	-10.2749
▁Hi	-10.2758
▁inform	-10.2763
▁absolute	-10.2768
▁Name	-10.2771
▁bond	-10.2773
my	-10.2779
crea	-10.2781
▁arise	-10.2788
cip	-10.2792
▁thank	-10.2796
▁hardly	-10.2798
▁rent	-10.28
stan	-10.2802
cho	-10.2806
▁instruments	-10.2813
▁fix	-10.2813
del	-10.2813
▁myself	-10.2818
pan	-10.2818
uous	-10.2819
▁Book	-10.2826
▁figures	-10.2835
▁flat	-10.2836
▁dog	-10.2839
ban	-10.2841
▁divide	-10.2843
▁Panchayat	-10.2845
rang	-10.2846
▁fourth	-10.2847
▁kinds	-10.2847
▁furnish	-10.2848
had	-10.2848
▁sold	-10.2851
▁consultation	-10.2853
arian	-10.2854
eous	-10.2856
▁actions	-10.2859
▁pension	-10.2859
▁strange	-10.286
▁Houses	-10.2861
▁coal	-10.2864
▁quickly	-10.2867
joined	-10.2876
▁closed	-10.2877
▁u	-10.2883
▁Enable	-10.2885
▁Pandit	-10.2887
comp	-10.2888
▁deeply	-10.2888
▁Madhya	-10.2888
gram	-10.2892
▁quick	-10.2893
▁Eastern	-10.29
▁runs	-10.2901
▁expand	-10.2907
▁witnesses	-10.291
▁arrangement	-10.2911
▁Award	-10.2916
▁enc	-10.2925
point	-10.2927
▁Vishnu	-10.2928
▁province	-10.2928
▁arms	-10.2929
▁collective	-10.2931
▁poetic	-10.2938
▁Capital	-10.2942
▁floor	-10.2942
▁panel	-10.2947
nar	-10.2948
▁enabled	-10.2948
▁slow	-10.2952
▁budget	-10.2956
▁seat	-10.2958
▁Assistant	-10.297
▁venture	-10.297
▁roll	-10.2981
bur	-10.2983
▁John	-10.2984
▁sacred	-10.2984
▁spoke	-10.2986
wn	-10.2987
▁stamp	-10.2988
▁Address	-10.2998
pati	-10.3001
gle	-10.3003
▁appreciate	-10.3012
ific	-10.3013
▁Sita	-10.3017
▁diet	-10.3018
▁proud	-10.3022
▁Hence	-10.3024
▁offices	-10.3034
▁Hu	-10.3035
ida	-10.3039
vat	-10.304
▁burden	-10.304
▁Sardar	-10.3041
▁socio	-10.3044
▁interested	-10.3049
▁pair	-10.306
unch	-10.3064
▁impossible	-10.3068
▁consent	-10.3074
▁assist	-10.3079
▁Election	-10.3082
▁Ltd	-10.3082
▁Op	-10.3087
▁Direct	-10.3093
▁helps	-10.3096
ain	-10.3101
▁tender	-10.3103
▁Magistrate	-10.311
▁prevail	-10.311
▁Siva	-10.3114
▁awarded	-10.3117
▁corporate	-10.3124
▁straight	-10.3124
▁steel	-10.3124
clo	-10.3133
▁Import	-10.3139
▁selection	-10.314
▁organisations	-10.3141
▁requirement	-10.3145
ley	-10.3147
IP	-10.3157
eb	-10.3157
▁sheet	-10.3161
▁respond	-10.3163
▁customers	-10.3164
▁loans	-10.3169
▁publish	-10.3171
▁su	-10.3177
▁liable	-10.3178
▁offers	-10.3185
▁fun	-10.3189
▁distinguished	-10.3192
like	-10.3203
▁exports	-10.3204
▁instructions	-10.3207
▁intelligence	-10.321
▁cheque	-10.321
▁ratio	-10.3213
uring	-10.3214
▁arrived	-10.3214
agon	-10.3216
▁consist	-10.322
▁Regulation	-10.3224
▁enacted	-10.3224
▁Persian	-10.3224
▁understood	-10.3226
▁Gora	-10.3228
▁movements	-10.3236
▁Buddha	-10.3238
▁directions	-10.3241
▁telephone	-10.3253
▁sanction	-10.3257
▁happens	-10.3258
OP	-10.3261
▁Micro	-10.3262
▁covering	-10.3266
▁ritual	-10.3267
▁examine	-10.3267
▁commencement	-10.3268
▁compound	-10.3268
▁Parliamentary	-10.3272
▁explained	-10.3274
pec	-10.3279
DI	-10.328
▁Export	-10.3283
▁Iraq	-10.3285
▁salt	-10.3286
▁playing	-10.3293
▁personnel	-10.3296
pho	-10.3307
▁Just	-10.3307
▁admitted	-10.3311
▁prayer	-10.3313
▁core	-10.332
▁Convention	-10.3324
ust	-10.3325
▁estimated	-10.3333
oma	-10.3334
▁respectively	-10.3336
▁determination	-10.3339
ugh	-10.3344
▁Free	-10.3345
▁Ministers	-10.3348
▁addressed	-10.3349
▁claims	-10.3351
▁reply	-10.3354
▁inquiry	-10.3354
▁travell	-10.3358
▁masses	-10.3359
▁efficiency	-10.3368
▁commenc	-10.3371
dia	-10.3379
gy	-10.3379
▁legislative	-10.3382
▁Like	-10.3385
▁Similarly	-10.3388
▁speaking	-10.3394
▁dedicated	-10.3397
▁cycle	-10.3397
TA	-10.3404
▁artist	-10.3407
phy	-10.3407
PC	-10.3417
▁statutory	-10.3419
▁submit	-10.3424
▁everyone	-10.3434
icide	-10.3435
DE	-10.3443
ase	-10.3445
▁remind	-10.3447
▁map	-10.3453
dis	-10.3461
▁Awards	-10.3463
▁representative	-10.3464
▁evolution	-10.347
▁parent	-10.3471
▁effectively	-10.3472
hra	-10.3484
▁availability	-10.3485
RO	-10.3488
▁spite	-10.3489
▁Gupta	-10.3499
▁exclud	-10.3499
▁objects	-10.3504
▁Nor	-10.3509
▁extensive	-10.3514
▁guidelines	-10.3514
▁passage	-10.352
▁anyone	-10.3521
१०	-10.3528
▁Germany	-10.3528
▁Auto	-10.3534
▁arrested	-10.3534
▁continues	-10.354
▁disorder	-10.3543
lit	-10.3544
▁prepare	-10.3545
mil	-10.3551
por	-10.3554
▁leaving	-10.3558
▁contributions	-10.3565
vil	-10.3571
head	-10.3571
▁uses	-10.3571
place	-10.3572
▁Buddhist	-10.3573
▁Speaking	-10.3573
▁Swa	-10.3573
▁Agriculture	-10.3603
▁uniform	-10.3603
▁succeed	-10.361
dir	-10.3613
▁wants	-10.3617
▁RE	-10.3618
▁composition	-10.3618
AB	-10.3621
rav	-10.3626
▁recognized	-10.3627
zar	-10.363
▁improving	-10.3632
▁districts	-10.3635
ivity	-10.3638
▁repeated	-10.3648
▁Note	-10.3653
▁derived	-10.3659
▁Mughal	-10.3662
▁Jawaharlal	-10.3662
▁procedures	-10.3662
▁detailed	-10.3663
▁Web	-10.3669
▁rapid	-10.367
II	-10.3671
▁humanity	-10.3674
house	-10.3678
▁handle	-10.3679
▁package	-10.368
▁talent	-10.3693
▁grass	-10.3693
▁raw	-10.3696
▁DNA	-10.3698
▁showing	-10.3699
▁transactions	-10.3701
hum	-10.3701
▁mine	-10.371
▁band	-10.371
pad	-10.3711
▁Vir	-10.3718
NAME	-10.3722
▁represent	-10.3722
▁happiness	-10.3722
▁quantity	-10.3722
▁enemy	-10.3722
▁client	-10.3724
▁demands	-10.3725
▁holder	-10.3729
riv	-10.3736
▁preparation	-10.3737
▁superior	-10.3737
▁Medical	-10.3738
▁journal	-10.374
▁acting	-10.3742
well	-10.3743
▁competition	-10.3752
LA	-10.3753
▁practical	-10.376
▁reject	-10.3761
rad	-10.3763
▁Nav	-10.3763
▁showed	-10.3766
▁sharp	-10.3769
mun	-10.3772
▁theme	-10.3772
▁consult	-10.3773
▁finger	-10.3773
▁bridge	-10.3774
ky	-10.3777
▁Mand	-10.3782
▁consumption	-10.3782
yl	-10.3788
▁upto	-10.379
▁applicant	-10.3798
▁disposal	-10.3798
des	-10.3801
११	-10.3801
▁egg	-10.3809
matic	-10.3812
▁contemporary	-10.3813
▁examples	-10.3813
▁mineral	-10.3813
CT	-10.3816
▁differences	-10.3816
▁heritage	-10.3828
▁housing	-10.3828
▁promise	-10.383
▁sky	-10.3835
hin	-10.3835
▁Q	-10.3838
▁difficulty	-10.384
▁Child	-10.3843
▁baby	-10.3844
▁verse	-10.3846
own	-10.3848
▁Che	-10.3849
▁victims	-10.3854
▁Army	-10.3854
▁cool	-10.3854
▁guidance	-10.3858
▁prospect	-10.3874
▁certainly	-10.3875
rel	-10.3875
▁settled	-10.3876
▁regime	-10.3877
▁partition	-10.3884
▁remaining	-10.3885
mination	-10.3886
▁saint	-10.3889
▁kingdom	-10.389
▁Set	-10.3894
▁passion	-10.3894
▁cook	-10.3904
▁MSME	-10.3904
▁Credit	-10.3904
▁York	-10.3904
▁adapt	-10.3904
▁minds	-10.3908
▁fees	-10.3923
▁enterprise	-10.3923
▁grounds	-10.3923
▁prisoner	-10.3923
back	-10.3924
dhar	-10.3926
meter	-10.3931
▁normally	-10.3932
▁strategy	-10.3935
▁elder	-10.3935
▁About	-10.3936
▁Dar	-10.3936
▁Ac	-10.3939
▁inspired	-10.395
▁acquisition	-10.395
▁appellant	-10.395
▁Binoy	-10.395
tus	-10.3952
▁dress	-10.3954
▁college	-10.3954
▁reli	-10.3955
▁Environment	-10.396
▁decade	-10.396
▁distinction	-10.3965
▁Through	-10.3965
▁imagine	-10.3965
▁Brahmin	-10.3967
▁Resource	-10.3981
▁computing	-10.3981
▁regulate	-10.3981
▁bail	-10.3983
▁reveal	-10.399
▁immense	-10.3996
▁virtue	-10.3996
▁palace	-10.3996
▁flag	-10.3998
nc	-10.4005
▁destroy	-10.4006
▁Industry	-10.4012
▁nerve	-10.4012
▁pages	-10.4012
kara	-10.4013
TI	-10.4019
▁FOR	-10.4019
▁writers	-10.4026
▁emergency	-10.4027
▁criticism	-10.4032
▁difficulties	-10.4035
▁install	-10.4043
ending	-10.4043
▁ensur	-10.4044
▁bath	-10.4053
▁successfully	-10.4058
▁zone	-10.4059
▁Japan	-10.4059
rc	-10.406
ched	-10.4066
▁opt	-10.4069
py	-10.4071
lig	-10.4072
▁Chaitanya	-10.4074
▁Afghanistan	-10.4074
▁sustainable	-10.4075
▁Bir	-10.4076
wer	-10.4076
▁markets	-10.4088
▁partial	-10.4091
adi	-10.4091
▁sell	-10.4091
▁Paper	-10.4095
cap	-10.4097
hari	-10.4099
reg	-10.4099
▁combination	-10.4105
▁expansion	-10.4105
▁flood	-10.4105
▁injury	-10.4105
▁fault	-10.4105
▁gui	-10.4108
▁integrated	-10.411
zz	-10.411
▁Fr	-10.4111
▁borrow	-10.4117
▁specify	-10.4121
▁crisis	-10.4121
BI	-10.4124
▁Executive	-10.4136
▁utter	-10.4138
▁unable	-10.414
▁regarded	-10.4147
wise	-10.4151
▁League	-10.4152
▁bag	-10.4153
▁tools	-10.4154
▁religions	-10.4161
HO	-10.4161
TE	-10.417
▁neighbour	-10.4183
▁repair	-10.4183
tem	-10.4193
▁Children	-10.42
▁investors	-10.4204
▁lake	-10.4205
▁defendant	-10.4208
ipp	-10.4209
▁quiet	-10.4215
▁happening	-10.4217
TION	-10.4222
ksha	-10.4225
▁occurs	-10.4226
dom	-10.4228
▁interpretation	-10.424
▁armed	-10.4241
pre	-10.4246
▁circle	-10.4247
▁switch	-10.4247
▁usual	-10.4251
▁exception	-10.4252
▁governments	-10.4265
▁bow	-10.4267
▁ble	-10.4271
▁sole	-10.4277
▁destination	-10.4278
▁violent	-10.4278
▁Pur	-10.4281
▁widely	-10.4285
▁afford	-10.4288
▁Start	-10.4289
▁editor	-10.4292
▁comprise	-10.4295
▁Market	-10.4299
▁plans	-10.4299
▁seeds	-10.4299
ST	-10.4306
▁Regional	-10.4306
▁tribunal	-10.431
▁tomorrow	-10.431
▁appoint	-10.4311
lessness	-10.4315
▁Chi	-10.4316
▁Yet	-10.4317
▁participate	-10.4326
▁irrigation	-10.4328
▁topic	-10.4333
ches	-10.4335
room	-10.4337
▁rever	-10.4337
▁Ambedkar	-10.4342
▁competitive	-10.4342
▁celebrated	-10.4343
▁filing	-10.4344
▁outer	-10.4345
▁mono	-10.4345
▁remarkable	-10.4348
▁legs	-10.4354
▁educated	-10.4357
▁prominent	-10.4358
▁motor	-10.4362
▁significance	-10.4374
▁amp	-10.4374
▁thick	-10.4375
▁Hol	-10.438
▁taught	-10.4381
▁thoughts	-10.4384
ench	-10.4385
▁trained	-10.4385
▁Sea	-10.4388
▁leg	-10.4388
▁Companies	-10.439
▁lecture	-10.439
ori	-10.4392
▁Rai	-10.4398
rush	-10.4398
▁controlled	-10.4399
▁blow	-10.44
ode	-10.4403
PS	-10.4403
▁aforesaid	-10.4406
▁crowd	-10.4406
▁viz	-10.4408
▁Cho	-10.4408
▁talking	-10.4408
▁Je	-10.4412
▁subsequent	-10.4416
▁twelve	-10.4422
▁dealt	-10.4425
lated	-10.4429
logical	-10.4433
bhu	-10.4436
endra	-10.4436
▁valuable	-10.4438
▁voluntary	-10.4438
▁input	-10.444
▁neck	-10.4441
▁permitted	-10.4441
DR	-10.4447
EA	-10.4451
▁Laws	-10.4451
▁implement	-10.4454
▁herself	-10.4455
▁harmony	-10.4455
cra	-10.4457
▁forget	-10.4459
▁whi	-10.4464
list	-10.4469
▁plaintiff	-10.4471
▁universe	-10.4471
▁trading	-10.4471
ena	-10.4471
▁transmission	-10.4471
▁chosen	-10.4475
terior	-10.4478
▁destruction	-10.4487
▁grew	-10.4487
▁conversion	-10.4488
▁fail	-10.4489
▁Trust	-10.449
▁papers	-10.4494
view	-10.4497
▁Russia	-10.4503
▁fifteen	-10.4503
▁guilty	-10.4503
▁dollar	-10.4503
▁Bench	-10.4511
UL	-10.4523
work	-10.4532
▁yourself	-10.4536
▁domain	-10.4536
▁manage	-10.4537
▁attain	-10.4537
▁delivered	-10.4544
face	-10.4546
▁Registration	-10.4552
▁evident	-10.4552
▁roof	-10.4552
▁prefer	-10.4554
▁Indo	-10.4556
▁hall	-10.4558
▁roads	-10.456
▁Nagar	-10.4564
▁Later	-10.4566
▁Appeal	-10.4568
load	-10.4575
active	-10.4576
▁digital	-10.4576
▁representatives	-10.4576
▁breed	-10.458
loom	-10.4582
▁boat	-10.4582
▁contrary	-10.4585
▁southern	-10.4585
▁progressive	-10.4589
▁Earth	-10.4591
long	-10.4593
▁UK	-10.4601
▁royal	-10.4601
▁productivity	-10.4602
ifi	-10.4603
▁Prasad	-10.4604
▁tour	-10.4605
▁drawing	-10.4612
▁attacks	-10.462
▁push	-10.4623
vit	-10.463
▁recovery	-10.463
nga	-10.463
▁snake	-10.4634
▁recall	-10.4634
worm	-10.4635
▁Mohan	-10.4636
hir	-10.4638
hole	-10.4643
▁insect	-10.4646
▁equity	-10.465
▁celebrat	-10.4654
▁arrangements	-10.4657
▁Road	-10.4658
Q	-10.4659
▁consisting	-10.4663
▁replace	-10.4665
▁Kolkata	-10.4667
▁radical	-10.4668
▁soldiers	-10.4669
▁forests	-10.4675
▁coin	-10.4678
▁Prem	-10.468
▁emotional	-10.4687
ane	-10.4687
▁dynamic	-10.469
▁Pu	-10.4693
▁remark	-10.4694
▁Provid	-10.4698
▁safeguard	-10.47
▁depth	-10.47
▁operative	-10.4701
▁settings	-10.4704
▁chargeable	-10.4704
yard	-10.4705
▁Apart	-10.4705
▁transformation	-10.4708
▁Hav	-10.4708
▁walls	-10.4712
▁litigation	-10.4717
hav	-10.4723
▁broken	-10.4728
lex	-10.4731
▁III	-10.4733
▁stick	-10.4736
▁wound	-10.4736
▁offering	-10.4744
▁possibility	-10.475
app	-10.475
▁leaf	-10.475
▁Australia	-10.4754
▁fluid	-10.4755
lv	-10.4763
▁backward	-10.4763
▁Gram	-10.4766
accompanied	-10.4767
▁Chinese	-10.4767
▁fertiliz	-10.4767
▁infinite	-10.4767
▁Annual	-10.4767
tant	-10.4769
bhi	-10.4775
▁Will	-10.4781
▁Committees	-10.4781
anta	-10.4782
▁guard	-10.4782
encies	-10.4782
▁numerous	-10.4783
▁poison	-10.4784
net	-10.4787
▁refused	-10.4788
▁Mala	-10.479
ami	-10.4791
▁continuous	-10.4794
▁authentic	-10.48
▁grievance	-10.48
▁Text	-10.48
▁Legal	-10.4801
▁Ben	-10.4809
▁acceptance	-10.481
▁holds	-10.481
ort	-10.4812
▁familiar	-10.4817
▁reader	-10.4817
▁Dh	-10.4819
▁Being	-10.4825
▁distinct	-10.483
▁absorb	-10.4833
▁bottom	-10.4833
▁prompt	-10.4834
▁laugh	-10.4837
▁click	-10.4837
▁founded	-10.4842
▁Chrome	-10.485
▁alter	-10.4852
ifying	-10.4855
▁deposits	-10.4856
▁temporary	-10.4867
▁sentiment	-10.4867
▁thereby	-10.4867
▁Britain	-10.4868
▁newspaper	-10.4873
▁begins	-10.4875
▁defect	-10.4882
stone	-10.4891
▁fruits	-10.4893
▁geo	-10.4895
▁semi	-10.4901
▁presid	-10.4901
▁satisfaction	-10.4901
▁eternal	-10.4904
ero	-10.4908
▁Final	-10.4912
ress	-10.4914
▁painting	-10.4914
▁excellence	-10.4918
▁pack	-10.4921
▁stages	-10.4923
ache	-10.4931
win	-10.4933
▁multiply	-10.4935
▁park	-10.4944
oth	-10.4947
▁pound	-10.4948
▁corporation	-10.4952
rg	-10.4953
ought	-10.496
▁detail	-10.4962
▁discussions	-10.4964
▁excess	-10.4965
▁introduction	-10.4969
logy	-10.497
▁essentially	-10.4971
▁waiting	-10.4973
▁extreme	-10.498
ola	-10.4985
▁assembly	-10.4986
▁audio	-10.4987
akh	-10.4988
▁France	-10.4989
▁download	-10.4989
deva	-10.499
▁gradually	-10.4992
poli	-10.4995
▁undertake	-10.4998
▁Himachal	-10.5003
▁faculty	-10.5003
▁securities	-10.5004
▁achievement	-10.5008
▁fulfil	-10.501
▁PR	-10.5011
▁specially	-10.5012
▁occupation	-10.502
▁wholly	-10.5021
▁authorised	-10.5025
chal	-10.5026
▁Ref	-10.5029
▁qualities	-10.5037
▁Asian	-10.5038
▁breast	-10.5038
part	-10.5045
▁conferred	-10.5055
eep	-10.5057
▁suddenly	-10.5059
rai	-10.506
▁solutions	-10.5062
▁commit	-10.5065
▁broke	-10.5065
▁disappear	-10.5071
▁Vedic	-10.5072
kal	-10.5086
▁Last	-10.5087
▁producing	-10.5089
vir	-10.5095
▁advised	-10.5097
parliamentary	-10.5102
▁Advocate	-10.5106
▁opposite	-10.5106
▁cotton	-10.5106
▁brave	-10.511
bon	-10.5114
▁Penal	-10.5115
▁noted	-10.5116
▁rulers	-10.512
▁component	-10.5121
▁Mat	-10.5121
▁protest	-10.5123
▁Class	-10.5124
▁tail	-10.5127
▁interpret	-10.5131
▁weapons	-10.5137
▁segment	-10.5141
▁visual	-10.5142
▁arch	-10.5142
gged	-10.5146
▁recognize	-10.5147
▁linked	-10.5147
▁departments	-10.5149
▁modification	-10.5158
▁resort	-10.5158
▁button	-10.5159
script	-10.5162
idi	-10.5165
▁Read	-10.5167
▁categories	-10.5175
▁http	-10.5175
▁meetings	-10.5179
▁pit	-10.5181
▁dependent	-10.5181
▁Make	-10.5182
eng	-10.5184
▁Four	-10.5185
PP	-10.5191
astic	-10.5192
▁terminal	-10.5195
▁Mac	-10.5197
▁writings	-10.5198
SP	-10.5199
▁largely	-10.5201
cular	-10.5206
▁legislature	-10.521
▁Labour	-10.5211
rao	-10.5211
▁encouraged	-10.5213
▁Char	-10.5225
▁Universities	-10.5227
▁teeth	-10.5227
▁Turkey	-10.5228
▁forwarded	-10.5228
band	-10.5234
ENT	-10.5234
tract	-10.524
▁suggestion	-10.5245
▁illegal	-10.5245
▁architecture	-10.5245
▁pray	-10.5246
▁teach	-10.5247
▁emb	-10.5248
▁currently	-10.5258
▁verses	-10.5259
▁Certificate	-10.5262
▁admit	-10.5262
▁northern	-10.5262
▁interaction	-10.5276
▁assess	-10.5276
▁investments	-10.5279
▁Cabinet	-10.528
▁Innovation	-10.528
▁Ap	-10.528
▁Audit	-10.5281
▁accordingly	-10.5282
▁node	-10.5285
▁Back	-10.5287
▁meal	-10.5291
▁menu	-10.5294
▁accomplish	-10.5297
▁circuit	-10.5297
▁strategic	-10.5297
▁carefully	-10.5298
▁German	-10.5298
▁messages	-10.53
▁symptoms	-10.5308
▁goals	-10.5309
▁gods	-10.5311
▁bas	-10.5312
▁abnormal	-10.5315
▁Dev	-10.5318
▁millions	-10.5327
▁sudden	-10.5328
▁monitor	-10.5331
garh	-10.5331
▁rose	-10.5332
▁leads	-10.5336
▁Gita	-10.5337
▁claimed	-10.534
▁consequences	-10.534
▁eastern	-10.535
▁drinking	-10.5351
▁gross	-10.5351
▁technological	-10.5352
▁components	-10.5353
▁invited	-10.5353
▁estimate	-10.5358
▁tab	-10.5358
▁directory	-10.5364
▁amendments	-10.5367
▁disabled	-10.5368
▁Print	-10.5369
▁icon	-10.537
▁Gr	-10.5371
▁collect	-10.5378
▁confined	-10.5379
▁exactly	-10.5384
nan	-10.5384
▁cancer	-10.5385
▁declaration	-10.5386
▁Area	-10.5396
TS	-10.5397
▁lesson	-10.5402
▁UT	-10.5402
don	-10.5406
▁Edit	-10.5408
▁transform	-10.5416
▁dangerous	-10.5418
▁unknown	-10.5421
▁dignity	-10.5421
▁secular	-10.5423
▁despite	-10.5424
tum	-10.5428
▁writ	-10.5431
pend	-10.5434
▁Sometimes	-10.5439
udi	-10.5443
vin	-10.5445
▁gall	-10.5447
▁Mus	-10.5449
US	-10.5454
▁incurred	-10.5457
▁stopped	-10.5459
▁resid	-10.5459
uit	-10.5468
fect	-10.5471
▁valley	-10.5475
▁font	-10.5475
Z	-10.5477
▁genetic	-10.5478
▁print	-10.5478
▁detect	-10.5484
▁recommendation	-10.549
quir	-10.549
▁fever	-10.5491
▁distributed	-10.5492
▁Appellate	-10.5493
▁PRODUCT	-10.5493
▁White	-10.5493
▁subordinate	-10.5493
▁atomic	-10.5493
MP	-10.5495
▁relative	-10.5495
chandra	-10.5499
▁cry	-10.5503
▁beat	-10.5503
▁Bri	-10.5504
▁grave	-10.5509
▁Egypt	-10.5509
▁causing	-10.5511
▁fort	-10.5517
▁epic	-10.5523
▁ran	-10.5524
▁indicate	-10.5526
▁empire	-10.5529
most	-10.5531
The	-10.5532
SU	-10.5538
▁collaboration	-10.5539
▁tear	-10.5546
▁eminent	-10.5547
▁profile	-10.5547
▁gland	-10.5559
▁Brahman	-10.5561
▁excellent	-10.5565
▁Ed	-10.5565
▁actor	-10.5567
▁Due	-10.5569
▁tourism	-10.557
▁dust	-10.5571
▁invest	-10.5573
▁Has	-10.5574
▁Brahma	-10.5577
▁Ve	-10.5578
▁prison	-10.5579
▁prejudice	-10.5582
▁protein	-10.5583
▁Kingdom	-10.5584
▁feelings	-10.5588
▁palm	-10.5591
MO	-10.5592
▁realise	-10.5597
mate	-10.5598
▁City	-10.5598
▁Bur	-10.56
▁Support	-10.5601
▁sorrow	-10.5601
duct	-10.5602
▁Ramayana	-10.5602
▁interface	-10.5602
▁proposals	-10.5606
nk	-10.5607
▁represented	-10.561
▁followers	-10.5614
▁inserted	-10.5616
▁Ten	-10.5619
▁tenant	-10.5621
▁discover	-10.5625
▁hence	-10.5631
ii	-10.5636
▁innovative	-10.5637
▁studied	-10.5637
▁widow	-10.5637
▁occurred	-10.5639
rust	-10.5643
▁mixed	-10.5645
▁tank	-10.5652
▁minute	-10.5655
▁Maharaja	-10.5657
▁Flag	-10.566
▁NAME	-10.566
▁obvious	-10.567
▁Custom	-10.5674
▁dam	-10.5675
▁warrant	-10.5677
▁lady	-10.5678
▁scar	-10.5679
▁emotion	-10.5688
una	-10.569
tech	-10.5692
▁harvest	-10.5692
▁Number	-10.5695
lim	-10.5695
▁concerns	-10.57
▁technique	-10.5704
▁boys	-10.5706
▁vis	-10.5707
▁solid	-10.5711
▁plane	-10.5713
▁spring	-10.5716
law	-10.5717
▁march	-10.5719
▁cri	-10.5722
▁images	-10.5722
▁yellow	-10.5729
▁holy	-10.5735
▁involves	-10.5735
▁taste	-10.5736
▁prop	-10.5739
apped	-10.5743
PO	-10.5744
▁fighting	-10.5747
▁pride	-10.5747
▁Lanka	-10.5748
zo	-10.5756
▁impression	-10.5757
▁illness	-10.5759
▁Hy	-10.5764
lal	-10.5765
▁passenger	-10.5766
lle	-10.5766
cri	-10.5767
▁Saudi	-10.5768
▁Imp	-10.5772
ene	-10.5773
▁proviso	-10.5784
▁secondary	-10.5791
▁Mark	-10.5792
▁customs	-10.5797
▁devotee	-10.5798
▁shaped	-10.5799
▁diversity	-10.5803
▁Lu	-10.5803
amba	-10.5803
▁commonly	-10.5807
▁seats	-10.5816
▁impart	-10.5822
▁Basava	-10.5825
appa	-10.5831
▁mini	-10.5839
▁receiving	-10.584
▁supplement	-10.584
▁truly	-10.584
▁sample	-10.5843
▁seeing	-10.5844
▁tourist	-10.5847
▁percentage	-10.5848
▁starts	-10.5849
▁rising	-10.5849
▁meat	-10.585
▁Author	-10.5852
▁kg	-10.5855
▁automatically	-10.5859
▁Hinduism	-10.5862
ino	-10.587
ordinat	-10.5876
▁Administrative	-10.5877
▁victory	-10.5877
▁internet	-10.5878
▁loose	-10.5878
▁wage	-10.5879
▁prohibit	-10.5882
clu	-10.5883
▁PC	-10.5883
metric	-10.5889
▁managed	-10.5891
▁IPC	-10.5892
down	-10.5892
worthy	-10.5894
▁survive	-10.5896
▁facing	-10.5897
▁diverse	-10.5897
▁faced	-10.5899
▁rejected	-10.5904
▁traditions	-10.5909
▁liberty	-10.5914
▁statute	-10.5914
▁affection	-10.5923
▁ring	-10.5925
▁eve	-10.5928
▁compassion	-10.5933
▁Energy	-10.5933
▁NABARD	-10.5933
▁accumulat	-10.5933
▁preserve	-10.5934
▁dividend	-10.5935
▁devices	-10.594
▁Nir	-10.5948
▁links	-10.5951
▁Gazette	-10.5952
▁audience	-10.5952
▁hang	-10.5954
▁manifest	-10.5956
▁edit	-10.5958
▁noise	-10.5958
leg	-10.5964
ref	-10.5965
cast	-10.5965
▁inclusive	-10.597
▁wisdom	-10.597
▁Bhi	-10.5974
ously	-10.5975
▁peak	-10.5976
▁advise	-10.5981
▁Notwithstanding	-10.5989
▁deceased	-10.5989
▁licence	-10.599
▁converted	-10.5993
▁obligation	-10.5993
▁hurt	-10.5994
▁Interest	-10.5995
▁achievements	-10.5996
▁impose	-10.5997
१२	-10.5998
▁Tr	-10.5998
can	-10.6003
▁sports	-10.6004
▁Bhag	-10.6007
▁tongue	-10.6008
▁realised	-10.6009
▁rough	-10.6009
▁contributed	-10.6013
▁Have	-10.6018
▁planet	-10.6018
▁avail	-10.6021
ND	-10.6025
▁Industries	-10.6027
▁raising	-10.6027
▁peaceful	-10.6031
▁buildings	-10.6031
▁repeal	-10.6031
▁Bor	-10.6034
▁Banks	-10.6037
▁glo	-10.604
▁ruling	-10.6047
▁index	-10.6048
▁rear	-10.6049
▁scholar	-10.6056
▁Mag	-10.6058
▁Jam	-10.6061
▁Ji	-10.6064
▁derivative	-10.6065
▁define	-10.6067
▁Money	-10.6067
▁killing	-10.6068
▁consistent	-10.607
▁crores	-10.607
▁catch	-10.6075
▁flight	-10.6077
▁gap	-10.6078
▁sales	-10.6079
▁Multi	-10.6082
▁cluster	-10.6084
ua	-10.6088
▁dramatic	-10.6088
▁exploit	-10.6096
▁notified	-10.6101
pot	-10.6103
▁Knowledge	-10.6103
▁movie	-10.6103
ogue	-10.6105
yam	-10.6107
▁Cur	-10.6108
▁Working	-10.6114
▁fan	-10.6114
▁coll	-10.6116
▁greatly	-10.6116
▁Table	-10.6118
▁database	-10.6122
▁applies	-10.6122
▁urgent	-10.6124
mir	-10.6124
▁childhood	-10.6126
▁reduction	-10.6131
▁dear	-10.6134
cient	-10.6135
▁www	-10.6141
▁salary	-10.6142
▁Test	-10.6143
▁saved	-10.6143
▁Jaya	-10.6143
pen	-10.6145
▁strengthening	-10.6148
▁patients	-10.6155
▁knows	-10.6158
▁examined	-10.616
▁aircraft	-10.6163
▁ID	-10.6172
▁Pass	-10.6177
▁indigenous	-10.618
▁carbon	-10.6181
▁insist	-10.6182
▁learnt	-10.6194
▁consumers	-10.6195
▁maintaining	-10.6197
▁Narayan	-10.6204
▁desired	-10.6205
pass	-10.6205
RT	-10.621
SC	-10.6213
▁vegetables	-10.6217
▁lac	-10.6217
▁cultivation	-10.6218
▁license	-10.6218
▁pieces	-10.6219
▁planned	-10.6221
▁Goa	-10.6221
▁servant	-10.6222
▁Mur	-10.6223
▁pursu	-10.6224
▁instruction	-10.6228
▁Sind	-10.6229
thy	-10.6233
▁Administration	-10.6237
▁descend	-10.6237
▁Governance	-10.6238
pertaining	-10.6239
FA	-10.6243
▁Devi	-10.6245
▁surrounding	-10.6247
▁closely	-10.6253
▁candidates	-10.6255
▁Os	-10.6255
▁Organization	-10.6257
▁Sector	-10.6258
▁Online	-10.6268
▁Card	-10.6269
gree	-10.6273
mus	-10.6276
responsibilities	-10.6276
▁ceremony	-10.6276
▁Question	-10.6276
▁glass	-10.6277
mur	-10.6277
▁adverse	-10.6277
▁assert	-10.6282
PL	-10.6283
▁characteristic	-10.6286
▁institutional	-10.6287
ret	-10.6288
▁experts	-10.6295
▁primarily	-10.6296
▁printed	-10.6296
▁Search	-10.6296
▁mountains	-10.6297
▁decree	-10.6297
cid	-10.63
rin	-10.6301
▁influenced	-10.6301
CON	-10.6302
▁Look	-10.6306
▁Global	-10.6315
▁lamp	-10.6316
▁Help	-10.6327
▁epi	-10.6331
ima	-10.6334
▁custody	-10.6335
▁magic	-10.6336
UN	-10.6336
▁cattle	-10.6336
▁abuse	-10.6338
▁poly	-10.6348
▁praise	-10.6349
▁depict	-10.6354
▁hills	-10.6355
▁row	-10.6358
▁enforce	-10.6369
▁Za	-10.6372
▁artificial	-10.6374
▁naturally	-10.6378
▁opposed	-10.6385
▁Mir	-10.6386
▁stored	-10.639
▁Sara	-10.6391
▁observ	-10.6391
▁George	-10.6393
▁lift	-10.6395
▁extract	-10.6399
▁Death	-10.64
▁via	-10.6409
▁partners	-10.641
▁falls	-10.6412
▁Organisation	-10.6413
▁continent	-10.6413
▁typical	-10.6413
▁expiry	-10.6413
▁Arabic	-10.6416
▁dimension	-10.6419
ily	-10.6424
▁Sil	-10.6428
▁Loan	-10.6428
▁Create	-10.643
▁Provision	-10.6433
▁Electronic	-10.6433
▁insurer	-10.6433
▁coast	-10.6437
▁older	-10.6441
▁mad	-10.6448
▁Agricultural	-10.6452
▁algorithm	-10.6452
▁accord	-10.6455
▁equation	-10.6458
▁pipes	-10.646
▁therein	-10.646
AK	-10.6462
▁signs	-10.6467
▁PRO	-10.6467
emia	-10.6468
▁intervention	-10.6473
▁sharing	-10.6474
▁emerge	-10.6474
▁suggestions	-10.6475
▁entity	-10.6476
▁corruption	-10.6477
▁supposed	-10.648
AY	-10.6486
▁owned	-10.6487
press	-10.6488
▁goddess	-10.6492
▁condemn	-10.6492
▁airport	-10.6494
▁attribute	-10.6497
▁asking	-10.6498
▁Ber	-10.6503
ket	-10.6507
lot	-10.6508
▁amend	-10.6508
▁discovered	-10.6509
▁completion	-10.6512
▁virtual	-10.6512
▁Marathi	-10.6512
▁sculpture	-10.6512
▁Bad	-10.6515
▁rational	-10.6517
but	-10.6521
hri	-10.6525
ambi	-10.6526
▁resolve	-10.653
▁Mahabharata	-10.6531
▁equivalent	-10.6532
▁replied	-10.6532
▁Perhaps	-10.6532
▁burn	-10.6532
▁Obama	-10.6532
▁Kal	-10.6537
▁punish	-10.6538
▁attended	-10.6542
▁twice	-10.6551
▁duration	-10.6553
▁caught	-10.6555
EP	-10.6556
▁trace	-10.6557
ential	-10.6557
▁television	-10.6571
▁vimana	-10.6572
▁Kam	-10.6581
▁Professor	-10.6591
▁sensitive	-10.6591
▁societies	-10.6591
▁silent	-10.6592
▁stuff	-10.6592
▁photograph	-10.6592
▁rendered	-10.6596
▁revolutionary	-10.6599
ouch	-10.6607
▁arranged	-10.6608
▁differ	-10.661
▁genuine	-10.6611
▁hotel	-10.6618
▁attachment	-10.6619
jee	-10.662
▁congratulate	-10.6623
▁generate	-10.6624
▁alive	-10.6625
▁player	-10.6626
run	-10.6626
IA	-10.6629
▁discretion	-10.6632
▁predict	-10.6632
▁shock	-10.6632
▁keen	-10.6633
▁plot	-10.6637
▁driver	-10.6638
▁emerged	-10.664
▁Punjabi	-10.665
▁totally	-10.665
▁plate	-10.6651
▁Muhammad	-10.6652
▁Officers	-10.6663
▁Gau	-10.6663
▁appeals	-10.6669
aught	-10.667
▁Tiru	-10.6672
▁Defence	-10.6672
ree	-10.6674
▁besides	-10.6675
▁fold	-10.6675
miss	-10.6689
▁integrity	-10.6692
▁Green	-10.6692
▁listed	-10.6695
▁brothers	-10.6697
▁forced	-10.6697
▁ties	-10.6699
▁framed	-10.6702
▁spoken	-10.6704
▁Municipal	-10.6712
▁Again	-10.6713
▁properties	-10.6714
▁Zone	-10.6718
▁Persons	-10.6723
▁mount	-10.6725
▁Dha	-10.6725
SL	-10.6729
vy	-10.6731
▁imagination	-10.6733
▁sustain	-10.6735
▁Grant	-10.6736
▁TV	-10.6736
▁Indira	-10.6737
duction	-10.6738
book	-10.6743
▁Empire	-10.6753
▁inspiration	-10.6753
▁suspect	-10.6753
▁Bhu	-10.6754
▁Bharati	-10.6759
▁Rao	-10.6762
▁jobs	-10.6769
▁printer	-10.6771
▁realize	-10.6773
▁wheel	-10.6773
▁emerging	-10.6773
▁empty	-10.6773
▁abandon	-10.6773
▁CA	-10.6774
▁oriented	-10.6774
▁variation	-10.6774
▁Saha	-10.6774
▁producer	-10.6775
▁pet	-10.6777
▁View	-10.6778
▁enforcement	-10.6778
tak	-10.6793
stat	-10.6796
▁testing	-10.6797
▁regularly	-10.6798
▁Save	-10.6801
hila	-10.6803
lash	-10.6806
▁Pol	-10.6809
▁disturb	-10.6812
IVE	-10.682
▁specifically	-10.6822
▁Hill	-10.6825
▁CD	-10.6833
▁beings	-10.6834
▁forty	-10.6834
▁illustrat	-10.6835
▁concession	-10.6835
▁summer	-10.6839
zy	-10.6839
tance	-10.6842
▁decline	-10.6849
▁wheat	-10.6855
▁thin	-10.686
key	-10.6861
▁rapidly	-10.6865
▁observe	-10.687
▁clothes	-10.6874
▁Oh	-10.6874
▁sequence	-10.6876
chieving	-10.6876
▁putting	-10.6894
▁ruled	-10.6897
▁grace	-10.6897
▁thereafter	-10.6899
position	-10.69
ela	-10.69
▁theatre	-10.6902
iff	-10.6903
▁Ham	-10.6904
gur	-10.6906
uda	-10.6907
▁assume	-10.691
▁Date	-10.691
▁earned	-10.6913
▁expert	-10.6916
▁parallel	-10.6917
▁peasant	-10.6917
not	-10.6918
▁legend	-10.6918
▁techniques	-10.6925
▁Access	-10.6925
▁pin	-10.6928
liness	-10.6928
▁islands	-10.6929
▁Five	-10.6929
▁organism	-10.6934
▁Er	-10.6934
CL	-10.6937
▁outcome	-10.6938
itch	-10.6939
▁residence	-10.694
▁glad	-10.6941
▁statements	-10.6942
▁Nath	-10.6942
▁pond	-10.6943
▁displayed	-10.6944
▁constantly	-10.6953
▁tremendous	-10.6958
▁mut	-10.6959
▁monitoring	-10.696
▁enhanced	-10.6965
▁implementing	-10.6966
▁operational	-10.6974
▁transportation	-10.6975
▁translated	-10.6977
▁Investment	-10.6979
▁consolidat	-10.6979
▁routine	-10.6979
▁Computer	-10.6979
▁Love	-10.6983
▁marry	-10.6984
▁aside	-10.6985
ologist	-10.6986
▁noble	-10.6987
▁constructed	-10.6988
▁declare	-10.6992
rup	-10.6996
reafter	-10.6996
▁mailing	-10.7001
▁estate	-10.7002
▁Off	-10.7002
▁Kali	-10.7004
fold	-10.7005
▁bold	-10.7009
▁indicated	-10.7012
▁presentation	-10.7013
▁towns	-10.7015
▁options	-10.7016
▁entrusted	-10.7021
▁suicide	-10.7022
undi	-10.7025
▁beach	-10.7032
▁narrat	-10.7033
▁organiz	-10.7033
▁Gen	-10.7037
▁Soviet	-10.7042
▁Adv	-10.705
▁corresponding	-10.7052
▁defend	-10.7058
mission	-10.706
▁Prince	-10.7063
▁Haryana	-10.7063
▁nest	-10.7065
▁acre	-10.7071
▁novels	-10.7073
▁pictures	-10.7074
▁Hall	-10.7075
▁willing	-10.7076
१३	-10.7076
▁combined	-10.7081
▁satisfy	-10.7084
▁replaced	-10.709
▁Keep	-10.709
▁referr	-10.709
▁Baba	-10.7091
▁historic	-10.7102
▁perfection	-10.7103
▁Consumer	-10.7105
▁surrender	-10.7105
▁paragraph	-10.7107
▁patent	-10.7108
▁depending	-10.7109
▁ended	-10.7112
bro	-10.7117
flow	-10.7121
▁marks	-10.7122
▁organisms	-10.7126
▁Sucharita	-10.7126
▁contrast	-10.7126
▁essay	-10.7126
NG	-10.7127
▁objection	-10.7128
▁Gur	-10.7129
▁Review	-10.7131
▁paint	-10.714
▁acquire	-10.714
▁burning	-10.7142
▁Deposit	-10.7147
rk	-10.7153
▁chart	-10.7156
▁enterprises	-10.7164
▁deliberate	-10.7168
▁stretch	-10.7168
▁cheap	-10.7169
▁Check	-10.7171
▁exceeding	-10.7172
▁CP	-10.7181
▁slowly	-10.7182
▁ends	-10.7182
▁concerning	-10.7187
▁library	-10.719
▁worse	-10.719
▁fly	-10.719
▁resistance	-10.7192
▁disclos	-10.7192
▁Local	-10.7193
▁trip	-10.7195
▁bills	-10.721
▁ultimate	-10.721
▁Current	-10.7211
▁snow	-10.7211
hand	-10.7212
bhai	-10.7213
▁Canada	-10.7213
▁programs	-10.7213
▁Region	-10.7216
lateral	-10.7228
▁forth	-10.7229
teen	-10.7231
▁Bush	-10.7232
▁concentrate	-10.7232
▁covers	-10.7235
▁lease	-10.7235
▁Durga	-10.7237
old	-10.7244
▁native	-10.7245
▁inspection	-10.7245
▁incentive	-10.7254
▁Arch	-10.7254
▁ministers	-10.7258
▁pursue	-10.7261
▁....	-10.7262
▁sixty	-10.7265
▁selling	-10.7265
▁structures	-10.7266
▁worker	-10.7273
▁wing	-10.7274
board	-10.7274
▁Forest	-10.7275
▁Vo	-10.7275
▁Engineering	-10.7275
▁everywhere	-10.7277
bol	-10.7278
EX	-10.7278
▁complaints	-10.7288
anga	-10.729
▁Jewish	-10.7296
▁beneficial	-10.7296
▁worry	-10.7296
▁nurse	-10.7297
▁Connect	-10.7297
▁sons	-10.7298
▁winter	-10.7304
▁organs	-10.7307
RU	-10.7308
▁somebody	-10.7311
▁arrive	-10.7311
▁plead	-10.7311
▁Key	-10.7312
▁factory	-10.7317
MENT	-10.7318
▁Majesty	-10.7318
▁Additional	-10.7318
▁disciple	-10.7318
▁innocent	-10.7318
▁stem	-10.7325
▁calling	-10.7338
▁aggregate	-10.7339
▁Speech	-10.7339
▁Fort	-10.734
wit	-10.7343
▁dwell	-10.7345
FC	-10.7346
▁sites	-10.7347
off	-10.7352
▁complain	-10.736
▁Chennai	-10.7361
▁Welfare	-10.7361
▁earliest	-10.7361
▁Click	-10.7365
▁scan	-10.7369
▁surround	-10.7372
PR	-10.7374
▁newspapers	-10.7376
▁unfortunate	-10.7378
▁mix	-10.7382
▁Leprosy	-10.7383
▁crucial	-10.7383
▁parliament	-10.7388
▁undergo	-10.7396
▁Three	-10.7405
▁lover	-10.7409
▁necessarily	-10.7412
▁sustained	-10.7417
▁ideals	-10.7419
▁Inde	-10.742
▁executed	-10.7422
para	-10.7422
▁Sad	-10.7425
▁colonial	-10.7426
▁batsman	-10.7426
▁destroyed	-10.7435
get	-10.7436
▁silk	-10.7436
▁graduate	-10.7439
▁consequence	-10.7439
▁delete	-10.7443
hya	-10.7444
▁courses	-10.7447
▁qualification	-10.7448
▁overcome	-10.7448
▁eating	-10.7449
▁duly	-10.7452
▁roots	-10.7455
▁regulation	-10.7461
och	-10.7464
▁Var	-10.7467
ternal	-10.7469
▁elaborate	-10.747
▁Smt	-10.747
▁label	-10.7472
▁ruler	-10.7477
▁experiences	-10.7479
oda	-10.7492
▁radiation	-10.7494
▁amounts	-10.7496
riya	-10.7503
▁Young	-10.7506
▁uncle	-10.7507
▁terror	-10.7508
▁Accounts	-10.7509
lp	-10.7509
▁deserve	-10.7514
▁varied	-10.7516
jit	-10.7517
vari	-10.7519
▁requested	-10.752
▁exploitation	-10.7521
ware	-10.7527
▁Agra	-10.7529
▁restore	-10.7529
▁Govt	-10.7536
▁dialogue	-10.7536
▁cooperative	-10.7538
▁wages	-10.754
fall	-10.7548
▁falling	-10.7551
▁evolved	-10.7551
▁forum	-10.7551
▁comments	-10.7553
▁neglect	-10.7558
▁yesterday	-10.7558
▁shoot	-10.7558
▁alleged	-10.7558
▁heaven	-10.7558
▁cancel	-10.7558
▁Iranian	-10.756
▁grade	-10.7564
▁Dan	-10.7568
▁serving	-10.758
▁copies	-10.758
▁chair	-10.7583
▁Sho	-10.7586
▁temp	-10.7599
productive	-10.7599
▁administrator	-10.7602
▁healthcare	-10.7602
▁incorporated	-10.7611
▁User	-10.7614
▁violation	-10.7615
posed	-10.7617
▁Software	-10.7624
▁commodities	-10.7624
▁vitamin	-10.7624
▁spell	-10.7624
▁Anti	-10.7626
right	-10.7627
ection	-10.763
▁enclos	-10.763
wat	-10.7635
▁refuse	-10.764
▁conservation	-10.7646
LI	-10.7646
▁intense	-10.7647
▁alien	-10.765
rab	-10.7651
▁RBI	-10.7653
▁schedule	-10.7662
▁turning	-10.7663
▁wings	-10.7668
▁satellite	-10.7668
▁Temple	-10.7668
▁busy	-10.7676
▁sphere	-10.7676
PM	-10.7678
▁Ash	-10.7678
version	-10.7678
▁Sign	-10.768
▁installation	-10.7683
▁marriages	-10.7683
▁protected	-10.7686
▁tooth	-10.7687
▁exclusive	-10.7691
▁configuration	-10.7691
▁geographical	-10.7691
▁Truth	-10.7691
▁denied	-10.7691
erg	-10.7692
dem	-10.7694
▁bread	-10.7695
▁Gi	-10.7695
▁lakhs	-10.7699
▁weakness	-10.7701
▁DAY	-10.7703
▁Play	-10.7707
eshwar	-10.7708
▁smile	-10.7711
▁chromosome	-10.7713
▁territories	-10.7713
▁decimal	-10.7713
▁Nothing	-10.7714
▁ICT	-10.7714
devi	-10.7715
▁situations	-10.7715
▁recover	-10.7718
▁scheduled	-10.7719
▁calm	-10.772
▁generated	-10.7722
▁organis	-10.7724
▁tract	-10.7728
▁monthly	-10.773
▁Take	-10.7733
▁Bangalore	-10.7736
▁Washington	-10.7736
▁obstruct	-10.7736
▁Foundation	-10.7736
▁disaster	-10.7736
▁blank	-10.7736
TER	-10.7737
▁submission	-10.774
▁mor	-10.7741
▁Creat	-10.7742
▁shut	-10.7744
▁farming	-10.7745
▁arises	-10.7749
▁considering	-10.7753
▁Benefit	-10.7758
▁injured	-10.7758
pura	-10.7758
▁miles	-10.7759
▁taxes	-10.7763
everal	-10.7765
▁USA	-10.7767
▁devoted	-10.7767
ella	-10.7767
▁awards	-10.7768
▁formulation	-10.7768
lop	-10.7769
▁Case	-10.7772
▁score	-10.7775
▁generations	-10.778
▁enormous	-10.7781
▁Syria	-10.7781
▁Moreover	-10.7781
▁organic	-10.7788
unk	-10.7799
vation	-10.78
vara	-10.78
▁pump	-10.7803
▁Issue	-10.7804
▁obligations	-10.7804
▁Type	-10.7805
yu	-10.7808
▁breach	-10.7815
▁succeeded	-10.7815
▁degrees	-10.7818
▁models	-10.7818
▁attach	-10.782
▁profound	-10.7826
▁Paris	-10.783
▁lung	-10.7831
▁Forum	-10.7838
cial	-10.7848
▁perspective	-10.7848
▁outlook	-10.7848
▁allegation	-10.7849
▁carries	-10.7851
itude	-10.786
▁Jag	-10.7864
▁confirm	-10.7864
▁Bills	-10.7864
rom	-10.7871
▁afraid	-10.7871
▁discrimination	-10.7871
▁biggest	-10.7871
▁Japanese	-10.7872
▁ultimately	-10.7872
▁IIT	-10.7876
▁shell	-10.7878
▁MP	-10.788
▁Ob	-10.7883
▁deduct	-10.7884
▁Dam	-10.7884
▁pace	-10.7884
pala	-10.7885
▁gun	-10.7887
▁furnished	-10.7889
▁financing	-10.7894
▁Abdul	-10.7894
▁Allahabad	-10.7894
▁bigger	-10.7897
▁feeding	-10.79
▁charm	-10.7901
▁formula	-10.7907
esis	-10.7908
VE	-10.7908
▁entrepreneurs	-10.7909
▁hidden	-10.7917
▁eleven	-10.7917
▁silence	-10.7917
▁gentle	-10.7917
▁guest	-10.7917
▁realisation	-10.7923
ney	-10.7931
▁frequently	-10.7934
▁Action	-10.7935
▁Christ	-10.7938
▁Get	-10.7939
▁substituted	-10.7939
▁smooth	-10.794
▁Sheikh	-10.794
▁stability	-10.7941
▁drum	-10.795
▁attracted	-10.7962
▁Hand	-10.7963
▁Copy	-10.7965
▁shot	-10.7965
▁levi	-10.7969
HI	-10.797
▁readers	-10.7971
▁hide	-10.7971
▁Tal	-10.7975
▁describe	-10.7977
▁pig	-10.7978
▁noticed	-10.7983
▁nutrition	-10.7986
▁Learn	-10.7986
him	-10.7987
gla	-10.799
▁Tan	-10.7993
top	-10.7996
▁judgement	-10.8002
▁CHAPTER	-10.8009
▁calendar	-10.8009
▁William	-10.8009
▁gram	-10.8009
▁Visit	-10.8009
▁bacteria	-10.8014
▁retired	-10.8017
▁convention	-10.8022
▁lying	-10.8022
▁Times	-10.8025
▁assured	-10.8027
▁maybe	-10.8029
▁institute	-10.8031
▁Private	-10.8032
▁suppress	-10.8032
▁inherent	-10.8032
▁silver	-10.8032
utosh	-10.8033
▁Planning	-10.8036
▁magn	-10.8039
▁African	-10.8039
▁Mahal	-10.8041
▁Give	-10.8042
▁Canno	-10.8042
▁prosecut	-10.8044
ender	-10.8047
▁stations	-10.8053
▁varieties	-10.8055
▁pool	-10.8061
▁highlight	-10.8065
▁stars	-10.8071
▁classical	-10.8072
rig	-10.8073
▁Bra	-10.8075
▁apparent	-10.8079
▁genus	-10.8079
▁ordered	-10.8079
▁helping	-10.8093
▁Telugu	-10.8101
▁Record	-10.8101
▁Short	-10.8102
▁digest	-10.8104
▁punishable	-10.8109
▁Accordingly	-10.8111
being	-10.8111
▁render	-10.8113
▁younger	-10.8119
▁governed	-10.8125
▁Topics	-10.8125
▁revision	-10.8125
rh	-10.8128
▁textile	-10.8132
▁cutting	-10.8132
▁Page	-10.8135
▁Sec	-10.8141
▁exercised	-10.8144
▁pregnancy	-10.8148
▁virus	-10.8149
▁Gir	-10.815
▁belongs	-10.815
▁interval	-10.8153
▁recording	-10.8155
itu	-10.816
▁NE	-10.8164
▁tape	-10.8168
gha	-10.8169
▁browser	-10.8171
▁tribute	-10.8171
▁easier	-10.8171
▁intimate	-10.8172
lai	-10.8176
▁Cell	-10.8176
▁farmer	-10.8177
ographic	-10.8179
ogen	-10.8184
▁ending	-10.8187
▁compete	-10.8187
▁musical	-10.8188
arch	-10.8194
▁Recommendation	-10.8195
▁protocol	-10.8195
▁thread	-10.8195
▁propagat	-10.8196
bir	-10.8196
▁Indra	-10.8199
▁hind	-10.8201
▁mood	-10.8202
▁Bala	-10.8204
ude	-10.8205
OI	-10.8206
cli	-10.821
▁deity	-10.821
▁bearing	-10.8212
▁preach	-10.8216
▁exhaust	-10.8218
▁Agreement	-10.8218
▁pledge	-10.8218
▁Thank	-10.822
▁performing	-10.8221
oa	-10.8222
▁Major	-10.8224
oz	-10.8225
ez	-10.8227
▁kilo	-10.8231
▁bitter	-10.8233
▁lawyers	-10.8233
▁compos	-10.8233
▁withdrawal	-10.8233
▁relatives	-10.8233
▁Light	-10.8234
▁characteristics	-10.8234
ira	-10.8238
▁politician	-10.8242
▁gate	-10.8247
▁vehicles	-10.825
▁fairly	-10.8254
▁hundreds	-10.8255
▁resist	-10.8256
▁extraordinary	-10.8266
▁integration	-10.8266
▁reducing	-10.8266
▁Himalayas	-10.8266
▁preferred	-10.8267
▁Sessions	-10.8268
▁precious	-10.827
▁pop	-10.8272
path	-10.8272
▁closer	-10.8272
▁sending	-10.8277
▁sanctioned	-10.8281
▁deco	-10.8286
▁fro	-10.8288
▁split	-10.8292
▁axis	-10.8297
▁Rate	-10.8302
▁tip	-10.831
▁Main	-10.831
▁Process	-10.8312
▁remedy	-10.8313
▁gained	-10.8313
▁channels	-10.8317
vati	-10.8328
▁Pension	-10.8337
▁IV	-10.8343
▁gathered	-10.8346
▁slip	-10.8351
▁representing	-10.8351
▁entertain	-10.8356
▁admission	-10.8361
▁Center	-10.8362
▁settle	-10.8362
▁slope	-10.8363
▁pillars	-10.8364
▁metres	-10.8364
▁preference	-10.8365
link	-10.8368
▁Ray	-10.8368
▁identification	-10.8385
▁Nanak	-10.8385
▁elect	-10.8387
rama	-10.839
▁anywhere	-10.8394
rim	-10.8398
▁logic	-10.8401
▁newly	-10.8408
▁Display	-10.8409
▁Prevention	-10.8409
▁appreciation	-10.8409
▁entrance	-10.8409
▁necessity	-10.8409
▁daniel	-10.8409
▁Greek	-10.8409
▁perception	-10.8409
▁slave	-10.8409
▁creature	-10.841
▁Entry	-10.841
▁marginal	-10.8411
▁norms	-10.8412
▁Bio	-10.8413
▁experienced	-10.8417
▁strongly	-10.8418
MM	-10.8418
▁chest	-10.8424
▁tasks	-10.8426
operative	-10.8427
▁fraction	-10.8433
▁modified	-10.8433
▁ticket	-10.8433
oor	-10.8433
ksh	-10.8435
▁Advance	-10.8436
DS	-10.8438
▁excessive	-10.8439
▁borrower	-10.8439
hol	-10.8442
▁acceptable	-10.8443
▁seriously	-10.8456
▁Bahadur	-10.8457
▁magazine	-10.8457
▁repost	-10.8458
▁acute	-10.8459
▁clock	-10.8467
wara	-10.8468
▁Personal	-10.8469
far	-10.8473
▁adoption	-10.8474
BS	-10.8475
▁conversation	-10.8481
▁Family	-10.8481
▁pretty	-10.8481
▁brown	-10.8482
▁definite	-10.8483
▁reward	-10.8489
▁functional	-10.8491
▁Institutions	-10.8496
▁usage	-10.85
cade	-10.8503
▁confront	-10.8505
▁programming	-10.8505
▁climb	-10.8505
▁cult	-10.8505
RS	-10.8518
charge	-10.8524
▁Netaji	-10.8529
▁mould	-10.853
▁interview	-10.8531
▁wider	-10.8532
cite	-10.8535
▁engagement	-10.8537
▁united	-10.8542
▁Command	-10.8547
▁honest	-10.8554
phal	-10.8556
▁Sindhi	-10.8556
▁ownership	-10.8556
comm	-10.8557
titut	-10.8559
OM	-10.856
▁impress	-10.8563
▁enjoyed	-10.8564
odi	-10.8568
▁nationalist	-10.8574
▁Turk	-10.8577
▁fifth	-10.8578
▁resembl	-10.8578
▁Bhutan	-10.8579
▁Islands	-10.8584
ove	-10.8587
GP	-10.8587
TO	-10.8588
▁Did	-10.8588
▁darkness	-10.859
▁invalid	-10.8603
▁shelter	-10.8603
FI	-10.8603
▁pour	-10.8607
▁convicted	-10.8611
vid	-10.8612
▁revealed	-10.8612
▁conventional	-10.8614
▁engage	-10.8616
▁increasingly	-10.8624
▁delegation	-10.8627
▁genius	-10.8627
▁ornament	-10.8629
lore	-10.863
connect	-10.8635
▁establishing	-10.8635
▁preced	-10.8647
▁castes	-10.8651
▁somewhat	-10.8652
▁variable	-10.8652
▁Qa	-10.8656
▁EVE	-10.8657
▁Pune	-10.8659
▁assumed	-10.8661
▁walking	-10.8661
▁golden	-10.8663
▁BY	-10.8666
pher	-10.8666
▁sheep	-10.8666
▁Six	-10.8667
▁ruin	-10.8669
night	-10.868
▁villagers	-10.8688
CB	-10.8689
▁servants	-10.8696
▁compulsory	-10.8701
▁enactment	-10.8701
▁driving	-10.8701
▁mechanical	-10.8701
▁Manipur	-10.8701
fil	-10.8704
▁harmful	-10.8706
▁Kama	-10.8709
▁unlike	-10.8711
▁enquiry	-10.8713
▁bull	-10.8722
fulness	-10.8724
▁margin	-10.8725
▁fabric	-10.8726
▁continuing	-10.8726
▁landlord	-10.8726
▁Third	-10.8726
▁fulfill	-10.8736
▁defi	-10.8742
▁digit	-10.8746
▁Enterprise	-10.8751
▁enabling	-10.8751
▁encouraging	-10.8751
▁distress	-10.8751
▁chamber	-10.8751
▁Present	-10.8751
▁Employment	-10.8752
▁retirement	-10.8752
▁luck	-10.8755
▁vary	-10.8761
▁Paul	-10.8769
▁Session	-10.8773
▁Badruddin	-10.8775
▁litigant	-10.8775
▁Valley	-10.8775
▁premium	-10.8775
▁stomach	-10.8775
▁Lahore	-10.8775
BA	-10.8777
▁fought	-10.8781
▁reflected	-10.8788
▁exact	-10.879
mind	-10.879
▁faster	-10.8795
▁partly	-10.8798
▁Instead	-10.88
▁literacy	-10.88
▁favor	-10.88
EE	-10.8801
▁admire	-10.8802
▁Super	-10.8809
▁Media	-10.8812
▁adjust	-10.8813
▁restrictions	-10.8818
▁careful	-10.8818
▁Veda	-10.8821
▁surprise	-10.8822
▁saving	-10.8825
▁circular	-10.8825
▁complicated	-10.8825
▁eventually	-10.8825
▁precise	-10.8825
▁mankind	-10.8825
▁upgrade	-10.8825
▁Natural	-10.8826
▁inputs	-10.8826
▁Airport	-10.8827
▁Seven	-10.8831
▁fails	-10.8832
▁imported	-10.8833
▁pleased	-10.8835
▁indicates	-10.884
PU	-10.8844
▁remembered	-10.8849
▁Transfer	-10.8852
▁bench	-10.8854
▁reserved	-10.8854
▁Common	-10.8855
▁Ganges	-10.8858
▁Line	-10.887
▁contents	-10.8874
▁concentration	-10.8876
▁surgery	-10.8876
▁decrease	-10.8876
▁Log	-10.8879
▁maha	-10.888
▁bonds	-10.889
▁stayed	-10.8897
ural	-10.8899
▁communicate	-10.8901
▁practitioner	-10.8901
▁Document	-10.8901
▁shadow	-10.8901
▁massive	-10.8915
▁Verma	-10.8919
▁cure	-10.892
▁nervous	-10.8926
▁priest	-10.8926
▁camel	-10.8927
▁Swaraj	-10.8929
▁Star	-10.8932
▁Payment	-10.8938
▁vested	-10.8939
▁attempts	-10.8945
▁compute	-10.8946
▁doctors	-10.8948
▁introduce	-10.8948
▁Russian	-10.8951
▁allocation	-10.8952
▁nose	-10.8963
▁camera	-10.8968
▁institutes	-10.8972
▁Academy	-10.8977
▁Padma	-10.898
▁printing	-10.898
▁aspirations	-10.9002
▁explanation	-10.9002
▁scholarship	-10.9004
▁candidate	-10.9005
▁anger	-10.9005
▁idol	-10.9009
resident	-10.9016
eck	-10.9024
print	-10.9024
▁Bureau	-10.9028
▁Black	-10.9028
▁Shu	-10.9044
▁withdraw	-10.9051
MT	-10.9052
▁intellect	-10.9052
▁Quality	-10.9053
▁Branch	-10.9054
▁begun	-10.9054
▁disseminat	-10.9054
▁describes	-10.9058
▁tourists	-10.906
ule	-10.9065
ht	-10.9069
card	-10.9073
charya	-10.9073
▁Bhai	-10.9075
▁warning	-10.9077
▁merchant	-10.9079
▁comprising	-10.9079
▁nominated	-10.9079
▁refund	-10.9079
adha	-10.9079
▁Kabir	-10.9081
▁tall	-10.9082
▁summon	-10.9084
▁stones	-10.9089
▁Satya	-10.9095
▁compliment	-10.9105
▁Federal	-10.9105
▁mandatory	-10.9105
▁patron	-10.9105
▁Arm	-10.9105
▁invite	-10.9107
eanwhile	-10.9111
▁subsequently	-10.9115
bert	-10.9116
▁tele	-10.9117
RC	-10.9121
▁nodes	-10.9123
▁repeat	-10.913
▁winning	-10.9134
▁Plant	-10.9135
▁Promotion	-10.9135
▁pursuit	-10.9136
IST	-10.9137
SM	-10.9137
▁membership	-10.914
▁interact	-10.914
▁treasure	-10.9156
▁pulse	-10.9156
▁tribes	-10.9156
▁Gujarati	-10.9159
▁entering	-10.916
▁firmly	-10.9161
▁instituted	-10.9162
▁everybody	-10.9164
▁comfort	-10.9176
▁empower	-10.9177
avan	-10.9178
▁Video	-10.9182
▁oppress	-10.9182
▁guess	-10.9182
▁Sahib	-10.9182
▁conceiv	-10.9184
▁infant	-10.9185
▁Movement	-10.9187
▁stable	-10.9187
lac	-10.9187
DC	-10.9194
▁Vol	-10.9195
▁filter	-10.9208
▁slightly	-10.9209
▁loved	-10.9215
▁club	-10.9216
▁recit	-10.9217
▁Nation	-10.9225
▁Pay	-10.9226
▁embrace	-10.9234
▁stakeholders	-10.9234
▁fashion	-10.9234
▁Arjun	-10.9235
ux	-10.9239
▁adults	-10.9241
term	-10.9244
▁convinced	-10.9246
WA	-10.9246
▁govern	-10.9253
▁relates	-10.9257
▁Communication	-10.926
▁MESSAGE	-10.926
▁arrival	-10.926
▁desktop	-10.926
▁Repeal	-10.926
SION	-10.9261
▁essence	-10.9261
▁drain	-10.9262
▁smoke	-10.9262
▁handling	-10.9262
▁driven	-10.9265
▁Rani	-10.9269
▁disability	-10.9275
▁Ty	-10.928
▁troops	-10.9286
▁elsewhere	-10.9287
▁broadcast	-10.9287
▁Vidya	-10.929
TR	-10.9299
TRA	-10.9301
▁MA	-10.9301
▁observations	-10.9302
▁bowl	-10.9306
▁Ministries	-10.9313
▁membrane	-10.9313
▁Jews	-10.9313
GA	-10.9318
▁obviously	-10.9319
▁mystic	-10.932
▁reverse	-10.9322
hot	-10.9326
bai	-10.9327
▁actively	-10.9329
▁colleges	-10.9332
▁demon	-10.9335
▁Next	-10.9339
▁hyper	-10.9339
▁Andaman	-10.9339
▁hardware	-10.934
amma	-10.9341
▁keyboard	-10.9341
▁Shankar	-10.9343
▁Institution	-10.9349
▁lawyer	-10.935
▁separately	-10.9359
▁expanded	-10.9359
▁speeches	-10.936
▁Ear	-10.9361
▁speedy	-10.9364
wad	-10.9364
▁oxygen	-10.9365
▁mixture	-10.9366
▁struck	-10.9367
▁strain	-10.9367
▁eliminat	-10.9368
▁residential	-10.937
▁Cal	-10.9374
▁Photo	-10.9379
▁distribut	-10.9383
dding	-10.9384
▁consequent	-10.9392
▁hazard	-10.9392
▁peculiar	-10.9392
▁knee	-10.9393
espite	-10.9393
▁addresses	-10.9399
▁breeding	-10.94
satisfactory	-10.9406
▁Long	-10.9411
▁observation	-10.9412
▁ignorance	-10.9418
▁premises	-10.9418
▁sympathy	-10.9418
▁rehabilitation	-10.942
▁Contract	-10.9421
▁preceding	-10.9424
▁Gar	-10.943
▁bare	-10.9432
ananda	-10.9433
▁Age	-10.9434
▁Windows	-10.9439
LS	-10.944
▁Subhash	-10.9442
▁alcohol	-10.9445
▁supplied	-10.9445
▁enrich	-10.9445
▁expertise	-10.9447
▁Point	-10.9448
▁Cost	-10.9456
abha	-10.9458
chor	-10.9462
▁Path	-10.9466
rip	-10.9466
▁recognise	-10.947
▁Principle	-10.9472
DM	-10.9472
read	-10.9472
▁governing	-10.9473
▁Bhagat	-10.948
AYS	-10.9488
▁adding	-10.9492
▁headed	-10.9492
▁Ocean	-10.9498
▁Queen	-10.9498
▁subtract	-10.9506
▁designated	-10.9509
babu	-10.9516
▁irre	-10.9521
▁overseas	-10.9525
▁Modern	-10.9526
▁tiger	-10.9526
▁leaflet	-10.9526
▁vessels	-10.9528
▁finished	-10.9537
▁minority	-10.954
▁Directorate	-10.9542
▁educat	-10.9546
NT	-10.9549
▁associate	-10.9551
▁Default	-10.9552
▁compromise	-10.9552
▁Machine	-10.9552
▁plastic	-10.9552
▁IPv	-10.9552
▁monetar	-10.9553
▁tendency	-10.9554
aksha	-10.9557
lusion	-10.9557
▁electric	-10.9564
▁systematic	-10.9568
▁originally	-10.9573
▁pronounce	-10.9579
▁pioneer	-10.9579
▁barrier	-10.9579
▁Azad	-10.958
evertheless	-10.9586
▁relatively	-10.9586
▁twin	-10.9594
▁Solar	-10.9596
▁Moh	-10.9596
▁Technical	-10.9606
▁holiday	-10.9606
▁End	-10.9607
▁adhere	-10.961
▁Sim	-10.9614
▁bell	-10.9623
▁NI	-10.9627
▁Product	-10.963
uli	-10.9632
▁contemplat	-10.9633
▁module	-10.9633
▁Manager	-10.9633
▁Space	-10.9633
▁Bho	-10.9634
▁jump	-10.9636
▁india	-10.9637
▁glory	-10.9637
▁involve	-10.9645
▁wonderful	-10.9657
▁Shan	-10.9657
aimed	-10.9659
▁neuro	-10.966
▁Registrar	-10.966
▁subsidy	-10.966
▁Transport	-10.9662
▁quoted	-10.9662
tory	-10.9664
▁gathering	-10.9672
▁Oil	-10.968
▁utilised	-10.9687
▁Lucknow	-10.9688
▁pocket	-10.9688
volu	-10.9688
▁tolerance	-10.9688
▁propose	-10.9688
▁gang	-10.9689
▁exhibit	-10.9689
▁arrow	-10.9689
▁singing	-10.9692
▁motive	-10.9692
▁attractive	-10.9696
▁mandate	-10.9698
▁implie	-10.9702
▁bud	-10.9708
▁Citizen	-10.9715
▁compliance	-10.9715
▁float	-10.9716
▁imperialism	-10.9716
▁Gopal	-10.9719
▁Standards	-10.972
chand	-10.9725
▁occupied	-10.9729
▁Taj	-10.9741
▁enhancing	-10.9742
▁livelihood	-10.9742
▁phenomenon	-10.9742
▁determining	-10.9744
▁savings	-10.9744
rine	-10.9744
▁dictat	-10.9744
▁assignment	-10.9749
more	-10.975
ference	-10.9751
▁plea	-10.9752
ique	-10.9754
▁adjustment	-10.9756
▁telling	-10.9759
▁rhythm	-10.977
▁reputation	-10.977
▁Sharma	-10.9772
▁aged	-10.9773
▁Kala	-10.9773
▁confer	-10.9775
▁Radio	-10.9776
▁players	-10.9778
▁Himalayan	-10.9779
▁electrical	-10.978
▁instant	-10.9782
hrew	-10.9782
▁concluded	-10.9789
▁succession	-10.9794
▁Tre	-10.9794
▁operator	-10.9797
▁approximately	-10.9805
claim	-10.9812
▁Highway	-10.9814
▁absolutely	-10.9815
ball	-10.9817
HR	-10.9824
▁Revenue	-10.9825
▁immovable	-10.9825
▁Village	-10.9825
▁binding	-10.9825
▁empowered	-10.9826
▁sake	-10.9827
▁temper	-10.9829
fusion	-10.983
cover	-10.9834
▁sect	-10.984
mount	-10.9841
shak	-10.9845
▁prevention	-10.9846
▁Standard	-10.9847
▁Appendix	-10.9853
▁Resolution	-10.9853
▁accommodation	-10.9853
▁Vedas	-10.9858
▁insight	-10.9864
▁manual	-10.9874
▁intelligent	-10.988
▁preliminar	-10.988
▁tight	-10.9881
▁Environmental	-10.989
current	-10.9897
wood	-10.9903
▁focused	-10.9905
▁Hard	-10.9908
elecommunication	-10.9908
▁commerce	-10.9908
▁doctrine	-10.9908
▁Survey	-10.9908
▁psychological	-10.9908
▁revised	-10.9908
▁Agency	-10.991
▁distant	-10.9913
▁agenda	-10.9913
▁emission	-10.9914
▁Yu	-10.9923
corn	-10.9932
▁ignored	-10.9935
▁Secretariat	-10.9936
▁mosque	-10.9936
▁redress	-10.9938
▁Samaj	-10.9938
GC	-10.9938
▁Dur	-10.994
▁involvement	-10.9941
▁conducting	-10.9943
▁Sale	-10.995
nthrop	-10.9952
▁breaking	-10.9959
▁Minimum	-10.9964
▁federal	-10.9964
▁mortgage	-10.9964
▁Senior	-10.9964
▁dispens	-10.9964
▁nearby	-10.9967
▁quote	-10.9969
▁conform	-10.9973
▁Poet	-10.9988
▁provider	-10.9991
▁Constituent	-10.9992
▁abolish	-10.9992
▁exclusively	-10.9992
▁participants	-10.9993
▁Automatic	-10.9993
▁fond	-10.9993
▁void	-11.0002
ARD	-11.0013
▁Subject	-11.002
▁qualified	-11.002
▁moderate	-11.0024
▁reign	-11.0026
▁attained	-11.0027
▁rail	-11.0027
▁Koran	-11.0029
ERS	-11.0032
titude	-11.0033
▁coat	-11.0037
▁Dwarkanath	-11.0049
▁commodity	-11.0049
▁Shr	-11.0055
▁Term	-11.0056
▁professor	-11.0056
▁missing	-11.0058
▁Zo	-11.0065
mukh	-11.0065
▁colleagues	-11.0071
field	-11.0073
▁Patna	-11.0074
▁discovery	-11.0075
▁Han	-11.0076
▁Aurobindo	-11.0077
▁Sikkim	-11.0077
▁capabilities	-11.0077
▁Viceroy	-11.0077
▁Museum	-11.0077
▁Estate	-11.0077
▁Design	-11.0077
▁tune	-11.0079
▁Him	-11.0105
▁emphasize	-11.0105
▁inferior	-11.0105
▁destiny	-11.0105
▁imperative	-11.0105
▁companion	-11.0105
▁wake	-11.0111
▁Setting	-11.0111
▁manifestation	-11.0127
▁affirm	-11.0134
▁dynasty	-11.0134
▁legitimate	-11.0134
▁wicket	-11.0134
▁Status	-11.0134
▁drought	-11.0134
▁Audio	-11.0134
▁inspire	-11.0134
▁entries	-11.0136
▁Level	-11.0137
▁compell	-11.0143
▁angle	-11.0145
▁freely	-11.0152
▁realized	-11.0156
▁lend	-11.0161
▁Freedom	-11.0163
▁arbitrator	-11.0163
▁Rep	-11.0166
▁rendering	-11.0172
▁Basic	-11.0175
▁transcend	-11.0184
▁oblig	-11.0185
▁drag	-11.0185
▁NATIONAL	-11.0191
▁enemies	-11.0191
▁indulg	-11.0191
PG	-11.0192
fact	-11.0193
▁lord	-11.0193
pol	-11.0197
▁conception	-11.0202
▁couldn	-11.0206
▁separated	-11.0212
▁attraction	-11.0213
▁Net	-11.022
▁Chancellor	-11.022
▁Commerce	-11.022
▁Integrated	-11.022
▁boost	-11.022
▁substitute	-11.022
▁Total	-11.0226
▁trick	-11.0226
escent	-11.0227
GE	-11.0227
unction	-11.023
▁attacked	-11.0233
▁restricted	-11.0235
space	-11.024
▁Model	-11.0241
▁Ven	-11.0241
▁inspect	-11.0241
▁Roman	-11.0244
▁personally	-11.0245
▁conclude	-11.0246
▁separation	-11.0249
▁preparing	-11.0249
▁conquer	-11.0249
▁Ganesh	-11.025
▁torture	-11.025
▁storm	-11.025
▁Move	-11.0251
▁insert	-11.0252
▁balanced	-11.0258
▁blame	-11.0259
▁cup	-11.0261
▁strict	-11.0262
▁mining	-11.027
utonomous	-11.0278
▁Protocol	-11.0278
▁museum	-11.0278
take	-11.0281
▁mud	-11.0285
▁allied	-11.0285
▁Purana	-11.0287
▁repealed	-11.03
▁Singles	-11.0306
▁Rabindranath	-11.0307
▁riot	-11.0309
▁weapon	-11.0312
▁Quran	-11.0312
assi	-11.0312
ough	-11.0335
▁Examination	-11.0336
▁Radhakrishnan	-11.0336
▁Political	-11.0336
▁plural	-11.0336
▁vertical	-11.0336
▁vice	-11.0338
▁brand	-11.0341
▁measurement	-11.0355
umber	-11.0363
▁Care	-11.0364
▁Malayalam	-11.0365
▁enlarge	-11.0365
▁mirror	-11.0365
▁pupil	-11.0365
▁foster	-11.0365
▁Disable	-11.0368
pore	-11.037
▁MW	-11.0371
▁Full	-11.0377
▁avoided	-11.0382
icular	-11.0383
mati	-11.0383
▁merge	-11.0393
▁monsoon	-11.0394
▁desirable	-11.0394
▁Should	-11.0394
▁anxious	-11.0394
inous	-11.0395
▁insult	-11.0395
▁bought	-11.0403
▁persist	-11.0406
▁Soon	-11.0407
▁Patel	-11.0408
▁helpful	-11.0412
TP	-11.0422
▁Abdullah	-11.0423
▁Budget	-11.0423
▁romantic	-11.0423
▁Spirit	-11.0423
▁abstract	-11.0423
▁signature	-11.0425
▁distinguish	-11.043
▁liberation	-11.043
▁Lake	-11.0433
haw	-11.044
▁arbitra	-11.0447
▁nice	-11.0452
▁Emperor	-11.0453
▁inevitable	-11.0453
▁Cooperative	-11.0455
▁sail	-11.046
▁deleted	-11.0462
HAN	-11.047
▁Clause	-11.0482
▁Allowance	-11.0484
▁smart	-11.0484
▁dominate	-11.0486
▁manpower	-11.0486
▁tiny	-11.0488
▁guy	-11.0489
ATE	-11.049
yog	-11.049
▁sport	-11.05
ALL	-11.0501
iga	-11.0504
▁dismissed	-11.0505
DO	-11.0508
▁Amar	-11.0511
▁Far	-11.0512
▁behavior	-11.0512
▁Dharma	-11.0513
▁ignore	-11.0513
▁Sankara	-11.0519
▁Jai	-11.053
▁lending	-11.0539
▁negotiat	-11.054
▁Ayurveda	-11.0542
▁Festival	-11.0542
▁Library	-11.0542
▁reservation	-11.0542
▁Invalid	-11.0542
gor	-11.0544
▁nut	-11.0553
▁strip	-11.0554
▁Tool	-11.0554
▁boot	-11.0558
▁Ek	-11.0569
▁skilled	-11.057
▁controversy	-11.0571
▁kidney	-11.0571
▁adjudicat	-11.0571
▁width	-11.0571
▁paddy	-11.0571
▁cadre	-11.0571
▁Sultan	-11.0572
hook	-11.0572
▁Guard	-11.0575
▁Call	-11.0578
bound	-11.0579
▁Old	-11.058
▁wire	-11.0585
▁violat	-11.0586
pun	-11.0588
▁approaches	-11.0592
▁Program	-11.0596
▁Palestine	-11.0601
▁incomplete	-11.0601
▁scenario	-11.0601
▁Urban	-11.0601
▁supramental	-11.0601
▁philosophical	-11.0601
▁flourish	-11.0602
▁reiterat	-11.0603
▁NIT	-11.0604
▁Ashok	-11.0604
▁dismiss	-11.0604
▁penis	-11.061
kumar	-11.0615
▁Band	-11.0617
▁Tea	-11.0628
▁pitch	-11.063
▁Pacific	-11.0631
▁clinic	-11.0634
▁frequent	-11.0639
▁humble	-11.0644
water	-11.0645
▁Mill	-11.0646
▁gov	-11.0647
▁robot	-11.066
▁Nicobar	-11.0661
▁Install	-11.0661
▁hatred	-11.0661
▁magnetic	-11.0662
▁transmitted	-11.0663
▁exposed	-11.0664
▁Turkish	-11.0664
▁Indus	-11.0665
kka	-11.067
▁Enter	-11.0673
▁indirectly	-11.0682
▁initially	-11.0686
▁awaken	-11.0687
tries	-11.0689
▁Yojana	-11.0691
▁deploy	-11.0691
▁delegate	-11.0691
▁indication	-11.0691
▁Link	-11.0693
▁bulk	-11.0694
▁Mode	-11.0697
▁deeper	-11.0704
UD	-11.0705
▁Pop	-11.0711
▁pipe	-11.0718
▁Kir	-11.0719
▁Aryan	-11.0721
▁bamboo	-11.0721
▁enthusiasm	-11.0721
▁monument	-11.0721
▁collecting	-11.0723
▁Low	-11.0733
hini	-11.0733
▁borne	-11.0741
▁flying	-11.0742
▁celebrate	-11.0743
▁substantially	-11.0743
▁participat	-11.0746
▁Arabia	-11.075
▁Corporate	-11.0752
▁concrete	-11.0752
▁demonstration	-11.0752
▁neighbor	-11.0752
▁specimen	-11.0752
▁transparency	-11.0752
▁casual	-11.0752
▁Tibet	-11.0752
▁guru	-11.076
ander	-11.0761
▁anybody	-11.0763
ieve	-11.0771
▁exhibition	-11.0781
▁possibly	-11.0782
▁contradict	-11.0782
▁summary	-11.0782
▁Federation	-11.0782
▁utilize	-11.0782
COM	-11.0784
▁accru	-11.0788
▁simultaneously	-11.079
▁Royal	-11.08
▁losses	-11.08
▁hydro	-11.0812
▁dedication	-11.0813
▁linguistic	-11.0813
▁Northern	-11.0813
▁contest	-11.0813
▁shout	-11.0814
▁crude	-11.0814
▁Ananda	-11.0817
roll	-11.0821
▁strive	-11.0825
▁curve	-11.0828
IG	-11.0828
erry	-11.0834
▁countrymen	-11.0834
▁eco	-11.0843
▁Hamachi	-11.0843
▁persuade	-11.0843
▁acknowledge	-11.0846
▁fulfilled	-11.0849
ister	-11.085
▁edition	-11.0851
▁Kur	-11.086
▁cooking	-11.086
▁Upanishad	-11.0874
▁divorce	-11.0874
▁pregnant	-11.0874
▁seizure	-11.0874
▁transparent	-11.0874
▁Vietnam	-11.0874
▁intensity	-11.0874
▁fibre	-11.0874
▁commend	-11.0874
▁crystal	-11.0874
▁patriot	-11.0883
▁mango	-11.0884
▁Menon	-11.0887
▁Whatever	-11.0891
▁cord	-11.09
▁sync	-11.0902
▁appellate	-11.0905
▁brilliant	-11.0905
▁economies	-11.0905
▁assurance	-11.0905
▁thrust	-11.0905
▁shortage	-11.0906
▁interference	-11.0907
▁transmit	-11.0907
▁recruitment	-11.0909
▁Relat	-11.0909
▁Collector	-11.0912
▁collaborat	-11.0918
▁interim	-11.0922
▁mature	-11.0922
▁Sch	-11.093
▁Jordan	-11.0936
▁Petition	-11.0936
▁earthquake	-11.0936
▁powder	-11.0936
▁prevalent	-11.0936
▁uncertain	-11.0936
▁honor	-11.0936
▁tied	-11.0937
▁offender	-11.0939
▁Cap	-11.0944
▁envisaged	-11.0959
▁Terrorism	-11.0966
▁anniversary	-11.0966
▁irrespective	-11.0966
▁sensation	-11.0967
▁interfere	-11.0967
▁favourite	-11.0971
▁Father	-11.0971
▁Constitutional	-11.0971
▁Wo	-11.0972
▁strengthened	-11.0973
▁treaty	-11.0975
▁Cat	-11.0976
▁accessible	-11.0977
▁penal	-11.0993
▁coloured	-11.0993
▁assessed	-11.0997
▁revolt	-11.0998
▁......	-11.0998
▁smell	-11.0998
ike	-11.1006
▁Kun	-11.1008
▁outward	-11.1014
▁nationalism	-11.1016
▁socialist	-11.1016
▁Van	-11.1023
▁reviv	-11.1024
economic	-11.1025
▁secured	-11.1026
scope	-11.1026
▁inaugurated	-11.1027
▁Mohammed	-11.1029
▁Territories	-11.1029
▁expensive	-11.1029
▁inflation	-11.1029
▁Price	-11.1029
▁alarm	-11.103
▁discount	-11.1031
▁considerably	-11.1035
▁coverage	-11.1041
▁shade	-11.1043
▁withdrawn	-11.1043
▁Island	-11.1057
▁Arunachal	-11.106
▁Regulator	-11.106
▁hunger	-11.106
▁Mobile	-11.106
▁perceive	-11.106
▁eighteen	-11.106
▁ease	-11.1061
▁purity	-11.1064
lice	-11.107
▁bore	-11.1076
▁endow	-11.1077
CO	-11.1081
▁subtle	-11.1083
▁Building	-11.1091
▁Manilal	-11.1091
▁Animal	-11.1091
▁rainfall	-11.1092
▁dawn	-11.1093
▁beetle	-11.1094
▁Pul	-11.1096
▁Hamas	-11.1098
TT	-11.11
aria	-11.1101
▁Iraqi	-11.1115
bble	-11.1116
▁Cricket	-11.1123
▁Evolution	-11.1123
▁Territory	-11.1123
▁dissolve	-11.1123
▁phrase	-11.1123
▁voting	-11.1124
▁honey	-11.1124
▁David	-11.1124
▁Dutt	-11.1125
▁buyer	-11.1131
osa	-11.1131
count	-11.1132
desh	-11.1133
▁managing	-11.1134
pac	-11.1144
▁Sufi	-11.1148
▁Send	-11.1149
AND	-11.1151
▁Details	-11.1154
▁parasite	-11.1155
trop	-11.1158
▁rob	-11.1163
▁clarifi	-11.1165
▁cm	-11.1167
▁Poly	-11.1176
▁Run	-11.1179
▁Den	-11.1183
▁psycho	-11.1186
▁constituent	-11.1186
▁Consider	-11.1186
▁fool	-11.1187
went	-11.1188
▁capture	-11.1191
OUR	-11.1193
▁odd	-11.1195
▁seller	-11.1214
▁intensive	-11.1218
▁SHRI	-11.1218
▁Tilak	-11.1218
▁reactor	-11.1218
▁Film	-11.1218
▁Delete	-11.122
▁advancement	-11.1227
▁basically	-11.1228
▁SRI	-11.1229
▁lion	-11.1234
▁fame	-11.1236
▁lone	-11.1239
opathy	-11.1244
▁successor	-11.1247
▁automatic	-11.1249
▁Buddhism	-11.125
▁Revolution	-11.125
▁municipal	-11.125
▁statistics	-11.125
▁utility	-11.125
▁ascertain	-11.125
▁complement	-11.125
onia	-11.1253
▁Golden	-11.1254
▁indirect	-11.1259
uv	-11.126
▁plantation	-11.1261
AF	-11.1264
▁formulated	-11.1269
▁challenged	-11.1273
ison	-11.1274
kat	-11.1279
▁immortal	-11.1281
▁Recovery	-11.1281
▁interrupt	-11.1282
▁Tribes	-11.1282
▁Within	-11.1285
▁Gold	-11.1287
culture	-11.1292
▁nearest	-11.13
▁Jerusalem	-11.1314
▁Journal	-11.1314
▁liabilities	-11.1314
▁disagree	-11.1314
▁surgical	-11.1314
▁NIOS	-11.1314
▁Operation	-11.1315
EG	-11.1317
▁Secondary	-11.1323
▁reflection	-11.133
▁१६	-11.1334
rana	-11.1341
▁fate	-11.1345
▁acquaint	-11.1346
▁Commonwealth	-11.1346
▁Friend	-11.1346
▁condolence	-11.1346
▁maturity	-11.1346
▁Almast	-11.1346
▁retail	-11.1346
▁exceptional	-11.1347
▁adventure	-11.1348
▁impartial	-11.1349
▁bride	-11.1351
▁Ravi	-11.1351
▁Charter	-11.1351
▁significantly	-11.1355
▁NO	-11.1364
▁Lolita	-11.1378
▁Message	-11.1378
▁bliss	-11.1378
▁chronic	-11.1378
▁comparison	-11.1379
▁Choose	-11.1379
▁matches	-11.1381
▁queen	-11.1381
▁fourteen	-11.1381
▁secur	-11.1385
▁sincere	-11.1391
▁tap	-11.1394
RM	-11.141
▁Lakshmi	-11.141
▁encounter	-11.141
▁solemn	-11.141
▁stipulat	-11.141
▁drew	-11.141
▁Housing	-11.1411
▁Success	-11.1411
▁wander	-11.1412
RY	-11.1416
▁Conduct	-11.1429
▁VII	-11.143
▁disposed	-11.1431
▁connecting	-11.1432
▁Fig	-11.1434
▁Digital	-11.1443
▁altogether	-11.1443
▁notwithstanding	-11.1443
▁Shakti	-11.1443
allotted	-11.1444
▁transition	-11.1445
▁prize	-11.1449
▁rope	-11.1455
▁cater	-11.1459
▁instruct	-11.1466
▁artistic	-11.1467
▁comply	-11.1474
▁Ahmed	-11.1475
▁diabetes	-11.1475
▁magistrate	-11.1475
▁terrible	-11.1475
▁generating	-11.1475
▁angry	-11.1477
▁crush	-11.1483
▁describ	-11.1489
▁resign	-11.1502
oldest	-11.1503
▁explore	-11.1506
▁frequency	-11.1508
▁Kittur	-11.1508
▁episode	-11.1508
▁biological	-11.151
▁gender	-11.1512
▁plugin	-11.1512
▁crack	-11.1513
▁oath	-11.1513
chari	-11.1515
uz	-11.1529
▁upset	-11.153
▁Best	-11.1536
▁Infrastructure	-11.1541
▁Studies	-11.1541
▁Yusuf	-11.1541
▁Object	-11.1541
▁workshop	-11.1541
▁Word	-11.1542
▁pilgrimage	-11.1543
▁evaluation	-11.1544
▁civilisation	-11.1548
ette	-11.1554
▁Div	-11.1554
rophy	-11.1567
▁affidavit	-11.1574
▁procedural	-11.1574
▁Teacher	-11.1574
▁Vijay	-11.1574
▁Value	-11.1575
▁Normal	-11.1577
▁guided	-11.1578
▁Korea	-11.158
▁Step	-11.1581
▁jute	-11.1588
▁Extension	-11.1607
▁inflammation	-11.1607
▁occupy	-11.1607
▁quantities	-11.1607
▁cavity	-11.1607
▁bottle	-11.1607
▁Prize	-11.1607
▁inclusion	-11.1607
▁rival	-11.1609
▁kids	-11.1609
▁remov	-11.1612
▁regulatory	-11.1612
▁narrative	-11.1613
▁Oriya	-11.1614
▁restraint	-11.1618
▁Radha	-11.1621
inder	-11.1632
iba	-11.1637
▁Hospital	-11.164
▁Wikipedia	-11.164
▁criteria	-11.164
▁departure	-11.164
▁GDP	-11.164
▁unusual	-11.164
▁advert	-11.164
▁Leader	-11.164
▁vein	-11.164
▁intend	-11.1641
▁grammar	-11.1641
▁Hind	-11.1644
▁remedi	-11.1645
▁Judiciary	-11.1654
▁hub	-11.1658
▁Chhattisgarh	-11.1673
▁vaccine	-11.1673
▁fortune	-11.1673
▁capability	-11.1676
plan	-11.1676
▁ISO	-11.1677
▁blend	-11.1677
veda	-11.1677
▁sword	-11.1677
▁scientist	-11.1679
▁apple	-11.1679
▁recovered	-11.1685
hap	-11.1701
▁Chalukya	-11.1706
▁Kannada	-11.1706
▁coffee	-11.1706
▁militant	-11.1706
▁testimony	-11.1706
▁vexatious	-11.1706
▁Register	-11.1706
▁coconut	-11.1706
▁Standing	-11.1706
▁Image	-11.1707
▁cum	-11.1708
▁outline	-11.1708
▁Station	-11.1712
scribed	-11.1729
▁controlling	-11.1738
▁dominant	-11.174
▁ascetic	-11.174
▁rescue	-11.1741
▁trait	-11.1743
▁combine	-11.1745
▁RTI	-11.1749
▁Processing	-11.175
▁administered	-11.1754
▁entrepreneur	-11.1756
▁Color	-11.1758
▁Phil	-11.1762
spread	-11.1764
DU	-11.1766
SD	-11.1768
▁Singapore	-11.1773
▁PDF	-11.1773
▁Period	-11.1773
▁worst	-11.1773
▁Egyptian	-11.1776
▁translate	-11.1781
▁continuously	-11.1785
therapy	-11.1786
▁validity	-11.1792
▁fallen	-11.1795
▁eliminate	-11.1805
maker	-11.1806
▁instinct	-11.1807
▁phenomena	-11.1807
▁philosopher	-11.1807
▁Staff	-11.1807
pathy	-11.1809
▁confusion	-11.181
▁Consultation	-11.1812
▁classification	-11.1813
EF	-11.1814
▁hire	-11.1819
▁midst	-11.1819
▁Shiv	-11.1822
▁Birth	-11.1827
▁hindi	-11.1834
elec	-11.184
▁initiat	-11.184
▁Property	-11.1841
▁exposure	-11.1841
▁substantive	-11.1841
▁Contact	-11.1841
▁conceal	-11.1841
▁negotiations	-11.1842
▁Rajput	-11.1844
▁rupee	-11.1851
▁Kanpur	-11.1854
▁painful	-11.1855
▁Come	-11.1863
OD	-11.1871
▁volunteer	-11.1875
▁carrier	-11.1875
▁disturbance	-11.1879
▁degrad	-11.1893
▁Amount	-11.1901
▁aesthetic	-11.1909
▁disadvantage	-11.1909
▁Summit	-11.1909
▁dowry	-11.1909
▁agitation	-11.1909
▁Return	-11.1909
▁Prior	-11.1909
▁flesh	-11.1909
▁Garden	-11.191
▁rarely	-11.1911
▁Socialist	-11.1914
▁restrict	-11.1915
▁classified	-11.1916
▁limb	-11.1919
▁factories	-11.1923
gir	-11.1926
DB	-11.1926
▁Fee	-11.193
▁specialist	-11.193
▁meters	-11.1939
▁stake	-11.1939
▁nominee	-11.1943
▁intestine	-11.1943
▁convenient	-11.1943
▁constructive	-11.1947
akshi	-11.1954
▁threatened	-11.1956
▁Along	-11.1958
ayya	-11.1961
EST	-11.1966
▁journalist	-11.1971
how	-11.1974
▁transformed	-11.1975
▁Grievance	-11.1977
▁YouTube	-11.1977
▁worldwide	-11.1977
▁absent	-11.1977
▁Front	-11.1978
▁steam	-11.1978
▁Large	-11.1979
▁flora	-11.198
▁Tender	-11.1985
▁Mount	-11.1986
▁Charge	-11.2001
▁Gang	-11.2004
▁invested	-11.2008
▁requisite	-11.2011
▁delicate	-11.2011
chang	-11.2012
▁Tripura	-11.2013
▁disclosure	-11.2014
▁shore	-11.2016
▁dual	-11.2021
cellular	-11.2021
▁imitat	-11.2024
▁Moon	-11.2026
▁passes	-11.2027
migration	-11.2027
patri	-11.2046
▁deficiency	-11.2046
▁denominator	-11.2046
▁hectare	-11.2046
▁ministry	-11.2046
▁HIV	-11.2046
▁auction	-11.2046
▁tackle	-11.2047
▁empowerment	-11.2052
▁loud	-11.2053
▁cable	-11.2057
MC	-11.2061
▁shame	-11.2062
▁migrat	-11.2066
▁Cross	-11.2081
▁insured	-11.2081
▁seminar	-11.2082
▁worried	-11.2089
▁authorized	-11.2091
▁confirmed	-11.2091
▁taxation	-11.2097
pons	-11.2097
▁gran	-11.2105
shah	-11.2106
TC	-11.2112
▁Community	-11.2115
▁Inspector	-11.2115
▁investigate	-11.2115
▁Continu	-11.2116
▁hypo	-11.2116
▁arrange	-11.2117
▁Person	-11.2121
▁jointly	-11.2121
▁everyday	-11.2129
▁seal	-11.213
iety	-11.213
▁characteriz	-11.2135
▁creed	-11.2136
▁Write	-11.2137
▁dose	-11.2141
▁preserv	-11.2141
▁successive	-11.2145
Sarojini	-11.215
▁Chandigarh	-11.215
▁Vivekananda	-11.215
▁disabilities	-11.215
▁goodwill	-11.215
▁parameters	-11.215
▁contend	-11.215
▁connectivity	-11.2151
▁Notice	-11.2156
▁Grand	-11.2158
▁corrupt	-11.2176
▁Deva	-11.2178
▁Had	-11.2181
▁Allow	-11.2182
▁Very	-11.2182
▁buffalo	-11.2185
▁injustice	-11.2185
▁medicinal	-11.2185
▁Church	-11.2185
▁chairman	-11.219
▁spare	-11.2199
▁Puri	-11.2205
reaching	-11.2205
▁deny	-11.2209
▁Develop	-11.2215
GO	-11.2216
▁cruel	-11.2218
▁MUKHERJEE	-11.222
▁physician	-11.222
▁vulnerable	-11.222
▁electoral	-11.222
▁Clear	-11.222
▁cinema	-11.2221
▁persistent	-11.2225
▁mouse	-11.2226
singh	-11.2228
▁offline	-11.2236
▁lowest	-11.2237
▁Lab	-11.2237
▁Preet	-11.2238
mulating	-11.2238
RES	-11.2239
▁exemption	-11.2239
▁exit	-11.2244
▁Comm	-11.2251
▁hate	-11.2255
▁Literature	-11.2255
▁Settlement	-11.2255
▁opponent	-11.2255
▁embryo	-11.2256
▁vagina	-11.2258
▁Find	-11.2266
▁Dhan	-11.2268
▁traders	-11.2274
ndranath	-11.2283
▁Actual	-11.2286
▁Vaishnava	-11.229
krishna	-11.229
▁impulse	-11.2291
▁Hanuman	-11.2291
▁resolved	-11.2291
▁relax	-11.2291
▁Certain	-11.2291
▁Mysore	-11.2291
▁decay	-11.2293
▁welcomed	-11.2303
divided	-11.2307
▁participated	-11.2307
▁argued	-11.2318
▁promised	-11.2321
▁purely	-11.2325
▁surplus	-11.2326
▁survival	-11.2326
▁ceiling	-11.2326
swami	-11.2329
▁Place	-11.2334
▁donation	-11.2336
▁revival	-11.2345
▁enquir	-11.2348
▁pose	-11.2354
▁Farm	-11.2358
▁Democratic	-11.2362
▁Implementation	-11.2362
▁Peace	-11.2362
▁laboratory	-11.2362
▁invitation	-11.2362
▁vest	-11.2362
▁Veer	-11.2374
▁mutually	-11.2375
▁assign	-11.2376
▁visitors	-11.2378
phil	-11.2379
▁liver	-11.2386
▁Tak	-11.2391
▁definitely	-11.2395
▁alphabet	-11.2397
▁emperor	-11.2397
▁glacier	-11.2397
▁confess	-11.2397
▁Indonesia	-11.2398
▁random	-11.2398
RAM	-11.2399
▁cough	-11.2402
▁Stock	-11.2403
nfortunately	-11.2406
▁germ	-11.241
NF	-11.2415
▁indian	-11.2415
IES	-11.242
▁assumption	-11.2433
▁proxy	-11.2433
▁Ghosh	-11.2433
▁disburs	-11.2434
▁Pun	-11.2434
▁coordinate	-11.2435
▁marble	-11.2436
▁spray	-11.2438
▁inaugurate	-11.244
▁realistic	-11.2441
▁calculation	-11.2442
▁Production	-11.2449
▁accountability	-11.2455
urban	-11.2464
▁Assistance	-11.2469
▁equipped	-11.2469
▁Dispute	-11.2469
▁Govind	-11.247
▁eradicat	-11.247
▁monkey	-11.247
▁tired	-11.2471
adhya	-11.2472
▁frontier	-11.2474
▁Gaza	-11.2475
▁lotus	-11.2475
▁congratulated	-11.2484
▁assure	-11.2489
▁viable	-11.2489
▁justified	-11.249
power	-11.2491
giri	-11.2496
▁recruit	-11.25
▁Sang	-11.2504
▁dissolution	-11.2505
▁Would	-11.2505
▁overwhelm	-11.2505
▁jihad	-11.2506
saheb	-11.2506
▁implications	-11.2506
keeper	-11.2513
▁argue	-11.2513
▁ranging	-11.2513
▁fig	-11.2524
▁finish	-11.2526
organisation	-11.253
▁coastal	-11.2535
▁sovereign	-11.254
kali	-11.2541
▁kitchen	-11.2542
▁poultry	-11.2542
▁tragedy	-11.2542
▁computation	-11.2542
▁requiring	-11.2542
▁levy	-11.2543
▁XX	-11.2544
▁urine	-11.2545
▁Brahmo	-11.2546
▁investor	-11.2546
▁reliable	-11.2557
▁Pores	-11.2558
▁liberat	-11.257
nthus	-11.2578
▁Jinnah	-11.2578
▁nutrient	-11.2578
▁reception	-11.2578
▁isolated	-11.2578
▁Abu	-11.258
▁globe	-11.2581
▁boundaries	-11.2582
IAL	-11.2587
▁marine	-11.2588
▁derive	-11.2588
ITY	-11.2594
▁practically	-11.2596
▁misuse	-11.2601
cut	-11.2602
▁enjoyment	-11.2605
▁Effect	-11.2614
▁communist	-11.2614
▁Folder	-11.2615
▁correspondence	-11.2616
▁Tha	-11.2616
▁impressive	-11.2621
▁Does	-11.2629
▁erect	-11.2639
▁weaken	-11.2647
FF	-11.2649
▁manuscript	-11.2651
▁quarrel	-11.2651
▁recipient	-11.2651
▁supplies	-11.2651
▁Deccan	-11.2651
▁pleasant	-11.2651
▁imposition	-11.2651
▁Express	-11.2653
▁proposition	-11.2655
▁hatch	-11.2656
▁construct	-11.2658
▁devise	-11.2661
▁hardship	-11.2662
flies	-11.2663
▁dense	-11.2668
▁owe	-11.2683
berg	-11.2684
▁Advisory	-11.2688
▁glorious	-11.2688
▁plenty	-11.2688
▁tobacco	-11.2688
▁triumph	-11.2688
▁analyse	-11.2689
▁Medi	-11.2689
▁pilot	-11.269
▁Various	-11.269
▁carved	-11.2693
▁auditor	-11.2695
▁batch	-11.2695
▁lapse	-11.2701
▁Siddh	-11.2703
▁cement	-11.271
▁advent	-11.2722
▁Maximum	-11.2725
▁Uttarakhand	-11.2725
▁depreciation	-11.2725
▁literally	-11.2725
▁Ahmedabad	-11.2725
sociat	-11.2725
▁denial	-11.2725
▁Leave	-11.2728
▁occurring	-11.2728
▁correspond	-11.2742
▁Surya	-11.2746
▁administer	-11.2746
▁homo	-11.2747
▁pillar	-11.2757
▁jungle	-11.2762
▁legacy	-11.2762
▁Guidelines	-11.2762
▁imposing	-11.2762
▁Claim	-11.2762
▁Jaipur	-11.2765
▁zeal	-11.2765
▁somewhere	-11.2769
▁throat	-11.2775
▁practis	-11.278
▁boil	-11.2791
▁hut	-11.2795
▁vessel	-11.2795
▁Remember	-11.2799
▁advertisement	-11.2799
▁debenture	-11.2799
▁supervision	-11.2799
▁battery	-11.2799
▁afternoon	-11.2799
▁NGOs	-11.2799
▁diplomatic	-11.28
▁sixteen	-11.2801
▁Left	-11.2805
▁tenure	-11.2819
▁Mc	-11.2824
▁Beg	-11.2825
▁Till	-11.2829
▁sponsored	-11.2833
▁apparently	-11.2835
▁Nagaland	-11.2836
▁ethical	-11.2836
▁speaker	-11.2837
tine	-11.2837
▁warn	-11.2845
▁weigh	-11.2848
JP	-11.2849
phone	-11.2851
plica	-11.2854
▁Anand	-11.2858
▁Nanala	-11.2858
▁Consequent	-11.2874
▁possibilities	-11.2874
▁Student	-11.2874
▁handicraft	-11.2874
▁occurrence	-11.2874
▁spouse	-11.2874
▁meaningful	-11.2876
gress	-11.288
five	-11.2884
▁complainant	-11.2885
box	-11.2886
▁thoroughly	-11.2888
▁larva	-11.2894
▁Rang	-11.2896
type	-11.2908
▁circum	-11.2911
▁ideology	-11.2912
▁supra	-11.2914
▁popularity	-11.2916
▁envisage	-11.2921
▁orthodox	-11.2927
▁Himalaya	-11.2937
▁Madhu	-11.2937
TU	-11.2939
▁threaten	-11.294
determin	-11.294
kot	-11.2941
▁nursing	-11.2949
▁mala	-11.2954
▁modest	-11.2954
▁Mary	-11.2959
▁passive	-11.297
▁suspended	-11.2982
▁Petroleum	-11.2987
▁circulation	-11.2987
▁steady	-11.2987
▁Excise	-11.2987
▁Street	-11.2987
▁grateful	-11.2987
▁qualify	-11.2987
▁Saving	-11.2988
▁blessing	-11.2988
ENCE	-11.2989
lick	-11.299
▁gather	-11.2995
gm	-11.2996
▁Eight	-11.3004
▁singer	-11.3012
▁Allah	-11.3015
▁assent	-11.3017
▁deem	-11.3021
▁laboratories	-11.3025
▁strategies	-11.3025
▁Religion	-11.3025
▁Yamuna	-11.3025
▁fraud	-11.3025
▁Nokia	-11.3025
▁sperm	-11.3025
▁verification	-11.3025
▁crown	-11.3027
▁sovereignty	-11.3027
losing	-11.3039
▁debit	-11.304
▁१७	-11.3043
phere	-11.3044
▁secretary	-11.3045
▁prima	-11.3045
▁larvae	-11.3047
pada	-11.3053
▁acknowledged	-11.306
▁maxim	-11.306
▁accelerate	-11.3063
▁cabinet	-11.3063
▁unfair	-11.3063
▁grasp	-11.3063
▁Progress	-11.3064
▁Cooperation	-11.3065
▁emergence	-11.3065
▁guardian	-11.3066
▁append	-11.3069
▁flash	-11.3071
▁refugees	-11.3073
▁rod	-11.3074
▁Mangal	-11.3075
▁underlying	-11.3075
ectomy	-11.3075
▁declined	-11.3078
▁deepen	-11.3083
▁Deep	-11.3092
▁bush	-11.3092
▁Burma	-11.3098
▁Arbitration	-11.3101
▁Gandharva	-11.3101
▁dioxide	-11.3101
▁scrutiny	-11.3101
▁identical	-11.3101
▁copper	-11.3102
▁vague	-11.3102
▁eager	-11.3102
▁sweat	-11.3104
wear	-11.3105
gupta	-11.3114
▁bunch	-11.3117
▁inaugura	-11.3134
▁captured	-11.3136
▁rating	-11.3137
▁exclusion	-11.314
▁lymph	-11.314
▁Equal	-11.314
▁prescribe	-11.3152
▁startup	-11.3157
brahma	-11.316
CU	-11.3161
eptic	-11.3164
▁Australian	-11.3169
▁Communist	-11.3179
▁conspiracy	-11.3179
▁nurture	-11.3179
▁abolition	-11.3179
▁ordinarily	-11.3179
▁articulat	-11.3179
uddin	-11.3188
▁electro	-11.3191
ARY	-11.3192
▁Never	-11.3193
▁cock	-11.3209
▁irregular	-11.3217
▁obstacle	-11.3217
▁relevance	-11.3217
▁structural	-11.3217
▁territorial	-11.3217
▁Zealand	-11.3217
▁babies	-11.3217
▁grief	-11.3217
▁Initial	-11.3217
▁PART	-11.3218
▁fatal	-11.3225
▁relate	-11.3231
▁Khadi	-11.3244
▁initiate	-11.3247
MAN	-11.3251
▁Convocation	-11.3256
▁Mauritius	-11.3256
▁Monitoring	-11.3256
▁surprising	-11.3256
▁Physical	-11.3256
▁beloved	-11.3256
▁regret	-11.3256
▁bodily	-11.3256
▁Source	-11.3256
▁humour	-11.3256
▁cosmic	-11.3256
▁labourers	-11.3258
IRDA	-11.3258
▁brick	-11.3261
▁dread	-11.3262
▁Governorate	-11.3286
▁fiscal	-11.3295
▁Remove	-11.3295
▁deciding	-11.3295
▁Draft	-11.3295
▁Course	-11.3295
▁Sports	-11.3296
▁Task	-11.3296
▁infected	-11.3297
▁surprised	-11.33
NU	-11.3301
▁relieve	-11.331
ayana	-11.3319
▁endorse	-11.3331
EAR	-11.3333
▁Mizoram	-11.3334
▁Universal	-11.3334
▁jewellery	-11.3334
▁utilization	-11.3334
▁decorated	-11.3335
▁density	-11.3335
▁mitigat	-11.3335
▁conscience	-11.3336
▁disciplinary	-11.3336
▁pursuance	-11.334
▁bowler	-11.3341
▁convict	-11.3342
▁Put	-11.3343
▁comfortable	-11.3344
▁zoo	-11.3349
▁seventy	-11.3349
▁strictly	-11.3365
▁analog	-11.3373
▁illumin	-11.3374
▁verified	-11.3375
▁inscription	-11.3375
▁hostile	-11.338
▁James	-11.3381
▁evaluate	-11.339
esvara	-11.3393
▁nomination	-11.3398
▁Fair	-11.3399
chrom	-11.3406
▁Jharkhand	-11.3413
▁assault	-11.3413
▁molecule	-11.3413
▁quantum	-11.3413
▁AIDS	-11.3413
▁dozen	-11.3414
▁distort	-11.3415
▁Reference	-11.342
ATED	-11.3421
▁somehow	-11.3423
▁Premchand	-11.3427
▁favourable	-11.3443
▁pilgrim	-11.345
▁Tata	-11.3451
▁Safety	-11.3453
▁Vajpayee	-11.3453
▁intuitive	-11.3453
▁Disease	-11.3453
▁Manik	-11.3455
▁Navy	-11.3456
▁Device	-11.346
ATAL	-11.3461
▁seized	-11.3461
▁dig	-11.3467
▁Puran	-11.3474
▁patch	-11.3477
▁Block	-11.348
▁Letter	-11.3485
▁Mail	-11.349
▁certifi	-11.3492
▁dialog	-11.3492
▁Emergency	-11.3493
▁inadequate	-11.3493
▁unexpected	-11.3493
▁BIHAR	-11.3493
▁caution	-11.3493
▁Website	-11.3493
▁Meeting	-11.3493
▁Club	-11.3493
▁modify	-11.3493
▁expectations	-11.3496
▁FDI	-11.3504
▁interven	-11.3506
▁hop	-11.3522
▁economically	-11.3524
lude	-11.3532
▁assemble	-11.3532
▁deprived	-11.3533
▁excavat	-11.3533
▁ambition	-11.3533
▁Improv	-11.3534
▁Rajendra	-11.3535
▁quest	-11.3538
iyar	-11.3539
▁repayment	-11.3541
▁cultivated	-11.3548
▁dying	-11.3554
▁Hor	-11.3554
▁restriction	-11.3556
▁assistant	-11.3557
blo	-11.3559
▁Range	-11.3564
URE	-11.3567
▁Acharya	-11.3567
UM	-11.3568
AGE	-11.3571
▁makers	-11.3571
▁LINK	-11.3573
▁Microsoft	-11.3573
▁Ordinance	-11.3573
▁prestige	-11.3573
▁historian	-11.3573
▁racial	-11.3573
▁cub	-11.3574
▁flame	-11.3574
where	-11.3574
ANAB	-11.3575
▁birthday	-11.3578
FS	-11.3578
▁announcement	-11.358
▁tales	-11.3581
▁evolve	-11.3585
▁Max	-11.3589
▁boundary	-11.3592
▁demonstrated	-11.36
door	-11.361
▁puppet	-11.3613
▁Culture	-11.3613
▁Remote	-11.3613
▁SELECT	-11.3613
▁Thomas	-11.3613
▁fetch	-11.3614
▁verbal	-11.3614
▁readily	-11.3617
▁mask	-11.3618
▁ninety	-11.3621
▁Bond	-11.3625
▁pole	-11.3648
▁Forward	-11.3653
▁Amritsar	-11.3654
▁Declaration	-11.3654
▁Primary	-11.3654
▁vibrant	-11.3654
▁Chemical	-11.3654
▁striking	-11.3654
▁reproduce	-11.3654
▁trunk	-11.3654
▁scriptures	-11.3654
▁Mountain	-11.3654
▁throne	-11.3656
▁harness	-11.3656
hearted	-11.3657
▁Function	-11.3659
structure	-11.366
tmost	-11.3662
▁Nobel	-11.3665
▁entertainment	-11.3666
▁Saint	-11.3666
▁realization	-11.3669
▁Jagannatha	-11.3673
▁portal	-11.3683
▁refuge	-11.3684
▁Relations	-11.3687
▁Try	-11.369
▁Selection	-11.369
disqualification	-11.3695
▁sanitation	-11.3695
▁Pipes	-11.3695
▁concert	-11.3695
▁warrior	-11.3695
▁Always	-11.3695
▁Wealth	-11.3695
▁sorry	-11.3696
▁delta	-11.3696
loka	-11.3699
▁Neuro	-11.37
▁leap	-11.3704
▁exempt	-11.3713
▁Democracy	-11.3735
▁Template	-11.3735
▁improper	-11.3735
▁intercourse	-11.3735
▁subsidiary	-11.3735
▁collapse	-11.3735
▁Goddess	-11.3736
▁macro	-11.3737
▁portray	-11.3738
▁worshipped	-11.3739
▁closing	-11.3739
▁Meher	-11.3745
pelled	-11.3747
▁DAC	-11.3756
▁Varma	-11.3773
▁Belarus	-11.3776
▁worn	-11.3777
▁Chakra	-11.3777
▁Desai	-11.3777
▁manipulat	-11.3777
▁await	-11.3777
▁passport	-11.3779
▁Maj	-11.378
▁plum	-11.3781
▁crash	-11.3783
LC	-11.3787
▁Host	-11.3807
▁SIDBI	-11.3817
▁immunity	-11.3817
▁imperfect	-11.3817
▁permissible	-11.3817
▁spectrum	-11.3818
▁leather	-11.3818
▁ethnic	-11.3818
▁Presidency	-11.3818
▁dropped	-11.3819
▁utilisation	-11.3822
DG	-11.3827
▁trustee	-11.383
▁introducing	-11.3859
▁misconduct	-11.3859
assembl	-11.3859
▁Purusha	-11.3859
▁dairy	-11.3859
▁prophet	-11.3859
▁Server	-11.3859
▁robust	-11.3859
OT	-11.3861
duced	-11.3873
▁varies	-11.3882
ometer	-11.3893
▁miracle	-11.39
▁Consolidat	-11.39
▁Southern	-11.3901
▁church	-11.3901
▁afterwards	-11.3902
▁optimis	-11.3902
▁reconstruction	-11.3903
▁Factor	-11.3903
▁combat	-11.3905
▁resignation	-11.3909
▁execute	-11.3915
▁flee	-11.3922
ogenic	-11.3931
▁coach	-11.3937
▁unconscious	-11.3942
▁nematode	-11.3942
▁remuneration	-11.3942
▁wildlife	-11.3942
▁County	-11.3942
▁loving	-11.3942
▁spark	-11.3942
▁arbitrary	-11.3946
▁issuing	-11.3946
gradation	-11.3952
▁rubber	-11.396
▁Ze	-11.3972
▁echo	-11.3982
▁Original	-11.3984
▁meditation	-11.3984
▁Study	-11.3984
▁Tourism	-11.3984
▁orientation	-11.3984
▁Close	-11.3985
▁Phase	-11.3987
QU	-11.3987
▁arose	-11.3988
▁ATM	-11.3988
▁symbolic	-11.3993
▁stir	-11.4
▁recess	-11.4002
▁occasionally	-11.4006
▁constru	-11.4024
▁Partnership	-11.4026
▁conservative	-11.4026
▁grassroots	-11.4026
▁carriage	-11.4026
▁Dominion	-11.4026
▁grey	-11.4026
▁basket	-11.4026
▁shortcut	-11.4028
▁giant	-11.403
ullah	-11.4033
DL	-11.4036
▁confused	-11.4038
▁affordable	-11.4043
▁Mall	-11.4064
▁medieval	-11.4068
▁frank	-11.4068
AYEE	-11.4069
▁Body	-11.4076
▁demonstrate	-11.4082
▁Kalam	-11.4089
▁Fat	-11.4097
▁curse	-11.41
▁Jubilee	-11.411
▁accompany	-11.411
▁flexible	-11.411
▁indicating	-11.411
▁vacancies	-11.411
▁diminish	-11.411
▁indicator	-11.411
▁VAJ	-11.4114
▁conven	-11.4134
▁wedding	-11.4134
rug	-11.4146
▁Kolhatkar	-11.4153
▁Securities	-11.4153
▁Resident	-11.4153
▁Ramalinga	-11.4153
▁SPEECHES	-11.4153
▁alliance	-11.4154
▁alert	-11.4157
▁patriotism	-11.4158
▁preservation	-11.416
▁highway	-11.4176
▁lust	-11.4186
▁chose	-11.4188
entrepreneurship	-11.419
▁loyal	-11.4195
▁Prosecutor	-11.4196
▁mathematics	-11.4196
▁psychic	-11.4196
▁unnecessary	-11.4196
▁comparatively	-11.4196
▁assimilat	-11.4196
▁Double	-11.4196
▁Raghu	-11.4196
▁Demand	-11.4196
▁termination	-11.4196
▁horizontal	-11.4197
LY	-11.42
▁grid	-11.4203
▁layout	-11.4203
▁attendance	-11.4207
▁uphold	-11.421
system	-11.4214
▁Kaur	-11.4219
▁incidental	-11.422
▁faithful	-11.4221
▁jaw	-11.4234
▁retreat	-11.4234
▁Brazil	-11.4239
▁hybrid	-11.4239
▁Unicode	-11.4239
▁hungry	-11.4239
▁innovators	-11.4239
▁prosperous	-11.4239
▁vigorous	-11.4239
▁Ravana	-11.4239
▁Latin	-11.4252
▁Still	-11.4254
▁Chair	-11.4254
▁garb	-11.4264
▁facilitating	-11.4282
▁predominant	-11.4282
▁uterus	-11.4282
▁Finland	-11.4282
▁injuries	-11.4282
▁framing	-11.4282
▁HOST	-11.4282
▁altitude	-11.4283
▁Harijan	-11.4283
▁Crown	-11.4284
▁halt	-11.4287
▁Electricity	-11.4287
▁Italy	-11.4292
plication	-11.4294
▁panic	-11.4295
▁Farid	-11.4296
▁hereby	-11.4297
▁Parsi	-11.4299
Tax	-11.4305
▁Portuguese	-11.4325
▁misbehaviour	-11.4325
▁threshold	-11.4325
▁transplant	-11.4325
▁smoking	-11.4325
▁Chamber	-11.4325
▁Clean	-11.4325
note	-11.4326
BU	-11.4327
▁generous	-11.4327
▁minorities	-11.433
▁Matter	-11.4345
capacity	-11.435
▁Profit	-11.4353
person	-11.4353
ocyte	-11.4368
▁Betwee	-11.4368
▁Bezbar	-11.4368
▁configure	-11.4368
▁ignorant	-11.4368
▁depression	-11.4368
▁illusion	-11.4369
▁tragic	-11.4369
▁magnitude	-11.4369
▁Blue	-11.4369
▁swelling	-11.4369
▁resume	-11.4373
▁clever	-11.4376
▁clay	-11.4388
word	-11.4408
▁Different	-11.4412
▁Attorney	-11.4412
▁Meghalaya	-11.4412
▁regulating	-11.4412
▁dialect	-11.4412
▁uplift	-11.4412
▁Vaishnav	-11.4414
▁jewel	-11.4415
▁deteriorat	-11.4415
▁civilian	-11.4427
▁Motion	-11.4432
▁login	-11.4443
▁clearance	-11.4443
▁Secret	-11.4453
▁Quit	-11.4455
▁Country	-11.4456
▁equitable	-11.4456
▁forgotten	-11.4456
▁propaganda	-11.4456
▁cherish	-11.4456
▁nourish	-11.4456
▁patience	-11.4456
▁rigid	-11.4456
▁culminat	-11.4458
▁vivid	-11.4458
▁Fire	-11.447
ESS	-11.4473
▁vide	-11.4489
▁Promot	-11.4493
▁Arya	-11.4494
▁adjourn	-11.45
▁magnificent	-11.45
▁renewable	-11.45
▁spontaneous	-11.45
▁cartoon	-11.45
▁rabbit	-11.45
▁Robert	-11.4502
▁Assamese	-11.4502
▁lips	-11.4502
▁Sunday	-11.4502
▁attainment	-11.4524
▁Arabian	-11.4526
▁soldier	-11.4541
▁PRESENT	-11.4544
examining	-11.4544
▁exponent	-11.4545
▁shoes	-11.4545
▁neighbourhood	-11.4546
▁entities	-11.4546
▁Milk	-11.4547
▁Know	-11.4547
▁gear	-11.4549
▁lime	-11.4552
▁Stop	-11.4553
▁underground	-11.4555
FR	-11.4555
vya	-11.4555
▁sensor	-11.4557
▁pale	-11.4562
▁Engine	-11.4589
▁Saraswati	-11.4589
▁abundant	-11.4589
▁aggressive	-11.4589
▁Pallava	-11.4589
▁premier	-11.4589
▁statue	-11.4589
▁certification	-11.4589
▁sketch	-11.459
▁Distribution	-11.4592
▁Medium	-11.4593
▁Hydro	-11.4599
▁fancy	-11.4606
▁Drug	-11.4612
▁quit	-11.4612
▁Collect	-11.4624
▁hoc	-11.4632
▁Societies	-11.4633
▁knock	-11.4633
▁Nagpur	-11.4633
▁Condition	-11.4633
▁annex	-11.4634
▁Bhopal	-11.4634
▁proclaim	-11.4637
▁terminate	-11.4637
▁lens	-11.4646
▁shake	-11.4647
▁chill	-11.4651
▁Town	-11.4659
▁Lock	-11.4662
▁Hindustan	-11.467
▁consensus	-11.4678
▁serpent	-11.4678
▁synthesis	-11.4678
▁measuring	-11.4678
▁warfare	-11.4678
▁Bhakti	-11.4678
▁alternate	-11.4678
▁multiplication	-11.4679
▁disrupt	-11.4679
▁Coast	-11.468
▁shipping	-11.4682
▁earnest	-11.4688
▁burnt	-11.4701
▁Panel	-11.4701
▁Bhavabhuti	-11.4723
▁Memorial	-11.4723
▁Telephone	-11.4723
▁petroleum	-11.4723
▁freight	-11.4723
▁DVD	-11.4723
▁Limit	-11.4725
▁deities	-11.4727
▁monk	-11.4728
ghat	-11.4733
▁१८	-11.4738
omitted	-11.4766
▁Satyagraha	-11.4769
▁Unknown	-11.4769
▁NHS	-11.4769
▁amazing	-11.4769
▁Balarama	-11.4769
▁Spain	-11.4771
▁turnover	-11.4773
▁Joshi	-11.4774
CCI	-11.4779
▁Rub	-11.4784
▁elementary	-11.4784
▁brush	-11.4786
▁Khu	-11.4798
▁Katha	-11.4806
▁Tab	-11.481
▁Afghan	-11.4814
nonymity	-11.4814
▁Canadian	-11.4814
▁dictionary	-11.4814
▁numerator	-11.4814
▁supplier	-11.4814
▁chicken	-11.4814
▁dividing	-11.4814
▁Witness	-11.4814
▁twist	-11.4814
▁Near	-11.4814
▁affair	-11.4815
▁serial	-11.4816
▁coordination	-11.4821
darshan	-11.4821
▁confine	-11.4832
▁presum	-11.4838
▁Jack	-11.4842
▁HTML	-11.486
isobedience	-11.486
▁Practice	-11.486
▁injunction	-11.486
▁pendency	-11.486
▁burst	-11.4861
▁compact	-11.4864
▁Everyone	-11.4865
▁Track	-11.4865
▁confidential	-11.4867
TED	-11.4874
▁URI	-11.4878
▁justification	-11.4879
▁Music	-11.4892
▁Nazi	-11.4893
▁Jail	-11.4893
location	-11.49
▁Team	-11.4905
▁Download	-11.4906
▁beneficiaries	-11.4906
▁capacities	-11.4906
▁landscape	-11.4906
▁heavily	-11.4906
▁Nizam	-11.4906
▁Rammoh	-11.4906
▁betray	-11.4908
General	-11.4909
▁onwards	-11.4917
wore	-11.4932
▁chat	-11.4938
▁fruitful	-11.4939
▁chip	-11.494
▁cache	-11.4942
▁Electric	-11.4945
proving	-11.4947
▁Vidyasagar	-11.4952
▁Vrindavan	-11.4952
▁auspicious	-11.4952
▁furniture	-11.4952
▁endanger	-11.4952
▁solving	-11.4952
▁Mahabharat	-11.4952
▁Attach	-11.4952
▁Italian	-11.4952
▁Sinha	-11.4953
▁Title	-11.4955
▁Anglo	-11.4955
▁vegetable	-11.4955
▁orange	-11.4959
▁upgradation	-11.4963
▁rub	-11.4964
operation	-11.4966
▁bias	-11.4977
▁horizon	-11.4997
▁leprosy	-11.4998
▁stimulate	-11.4998
▁unemployment	-11.4998
▁Odisha	-11.4998
▁wool	-11.4999
▁Update	-11.4999
▁citizenship	-11.5003
▁hint	-11.5008
▁grip	-11.501
▁Jati	-11.5019
▁Christianity	-11.5028
scribe	-11.5029
▁Ayodhya	-11.5044
▁acquiring	-11.5044
▁fracture	-11.5044
▁trigger	-11.5044
▁detention	-11.5044
▁inflict	-11.5044
▁blessed	-11.5045
burg	-11.5047
▁Sundar	-11.5056
▁END	-11.5057
▁Hindustani	-11.5064
▁execut	-11.5068
ILL	-11.508
dded	-11.5091
▁Chromium	-11.5091
▁provincial	-11.5091
▁velocity	-11.5091
▁Screen	-11.5091
▁unjust	-11.5091
▁postpone	-11.5091
▁Qatar	-11.5095
▁Shastri	-11.51
▁verify	-11.5101
▁Medal	-11.5106
▁Assessment	-11.5111
▁idle	-11.5115
ANT	-11.5116
▁behave	-11.5118
▁Ashram	-11.512
bhadra	-11.5121
▁grandfather	-11.5138
▁kilometres	-11.5138
▁suspension	-11.5138
▁sweep	-11.5138
▁Email	-11.5138
▁gesture	-11.5138
▁excuse	-11.514
▁array	-11.514
ANCE	-11.5158
privileged	-11.5163
HAR	-11.5177
▁Scientific	-11.5185
▁curriculum	-11.5185
▁deliberations	-11.5185
▁elevation	-11.5185
▁excitement	-11.5185
▁expeditious	-11.5185
▁exploration	-11.5185
▁reproduction	-11.5185
▁unprecedented	-11.5185
▁Maharshi	-11.5185
▁exaggerat	-11.5185
▁Field	-11.5185
▁petty	-11.519
▁garment	-11.5193
▁lump	-11.5195
▁stating	-11.5196
▁musician	-11.5196
India	-11.5204
▁NRI	-11.5209
▁specializ	-11.5223
▁exercising	-11.5233
▁intermediate	-11.5233
▁physics	-11.5233
▁predecessor	-11.5233
▁thirst	-11.5233
▁Daniel	-11.5233
▁inhibit	-11.5233
▁Panjab	-11.5233
▁Establishment	-11.5237
▁toxic	-11.5237
▁Window	-11.5243
otomy	-11.5263
AW	-11.5269
▁amalgamation	-11.528
▁convenience	-11.528
▁sophisticated	-11.528
▁Blood	-11.528
▁impair	-11.528
▁True	-11.5282
▁dependence	-11.5289
▁yoga	-11.5289
▁collector	-11.5291
▁tolerate	-11.5312
▁harassment	-11.5328
▁primitive	-11.5328
▁climatic	-11.5328
▁intuition	-11.5328
▁slogan	-11.5329
▁graphics	-11.5329
▁polity	-11.5329
▁ultra	-11.5331
▁Index	-11.5335
▁Graph	-11.5336
▁distinctive	-11.534
▁expense	-11.5341
▁Martin	-11.5346
bhava	-11.5372
▁architect	-11.5374
▁Channel	-11.5376
▁Dictionary	-11.5376
▁Jadunath	-11.5376
▁Supply	-11.5376
▁mercy	-11.5377
▁Kapil	-11.5378
▁detection	-11.5399
logist	-11.5403
▁Annexure	-11.5424
▁Michael	-11.5424
▁Provincial	-11.5424
▁Taliban	-11.5424
▁Investigat	-11.5425
▁Purchase	-11.5425
▁Alternat	-11.5425
▁Ghose	-11.5425
▁Memory	-11.5425
▁Switch	-11.5425
▁Volume	-11.5425
▁monarch	-11.5425
▁steep	-11.5426
MD	-11.543
possessed	-11.5442
▁packet	-11.5449
▁wipe	-11.5459
▁Ambassador	-11.5473
▁Richard	-11.5473
▁admissible	-11.5473
▁challenging	-11.5473
▁trekking	-11.5473
▁fodder	-11.5473
▁anticipatory	-11.5473
▁demerge	-11.5474
assuming	-11.5477
▁ascend	-11.5477
▁oppose	-11.5494
▁Sahitya	-11.5522
▁dignitaries	-11.5522
▁ingredient	-11.5522
▁Maulana	-11.5522
▁SHG	-11.5522
▁Doctor	-11.5522
▁gratitude	-11.5522
▁forehead	-11.5522
▁Jesus	-11.5522
▁augment	-11.5522
▁bleeding	-11.5523
▁wives	-11.5523
▁invasion	-11.5523
▁copyright	-11.5523
▁omission	-11.5524
▁congress	-11.5524
▁Turn	-11.5526
▁juice	-11.5529
▁Farmers	-11.553
▁recurr	-11.5542
▁Consult	-11.5564
▁Analysis	-11.5571
▁Intelligence	-11.5571
▁Priyobro	-11.5571
▁Sanctuary	-11.5571
▁conducive	-11.5571
▁despair	-11.5571
▁translator	-11.5571
▁deficit	-11.5571
▁dinner	-11.5571
▁oneself	-11.5571
▁incidence	-11.5571
▁Password	-11.5571
▁enroll	-11.5573
▁archive	-11.5584
▁Sangh	-11.5588
▁greed	-11.5598
▁Kum	-11.56
▁imperialist	-11.5615
▁abdomen	-11.562
▁discourse	-11.562
▁horticulture	-11.562
▁nineteenth	-11.562
▁republic	-11.562
▁thirteen	-11.562
▁anxiety	-11.562
▁excited	-11.562
▁Skill	-11.562
▁instalment	-11.562
▁Mehta	-11.562
▁Answer	-11.562
▁Narendra	-11.5623
▁Chitra	-11.563
▁loop	-11.5637
▁reproductive	-11.5639
IGN	-11.564
▁pink	-11.5652
▁wrongful	-11.5658
▁BEGIN	-11.567
▁Treatment	-11.567
▁automobile	-11.567
▁constraint	-11.567
▁potato	-11.567
▁ISRO	-11.567
▁allotment	-11.567
▁fiction	-11.567
▁curb	-11.5671
▁classroom	-11.5674
▁Font	-11.5677
▁remainder	-11.5678
▁Syed	-11.568
▁landmark	-11.5683
cession	-11.5686
practised	-11.5696
▁prohibition	-11.5704
▁GNOME	-11.5719
▁Mohammad	-11.5719
▁admiration	-11.5719
▁arithmetic	-11.5719
▁creativity	-11.5719
▁conquest	-11.5719
▁Tatya	-11.5719
▁amidst	-11.5719
▁champion	-11.5719
▁dried	-11.572
▁Except	-11.5725
▁dump	-11.5725
▁Peter	-11.5737
▁rape	-11.5738
▁induce	-11.5768
text	-11.5769
▁Aurangz	-11.5769
▁Fundamental	-11.5769
▁FROM	-11.5769
▁Introduction	-11.5769
▁Personnel	-11.5769
▁fluctuat	-11.5769
▁Saheb	-11.5769
▁Employees	-11.5769
▁injection	-11.5769
▁nominal	-11.577
ologies	-11.577
▁Charles	-11.5773
▁ongoing	-11.5773
propria	-11.581
▁rubb	-11.5811
▁Compensation	-11.582
▁pharmaceutical	-11.582
▁procurement	-11.582
▁Relief	-11.582
▁Saddam	-11.582
▁charitable	-11.582
▁prolonged	-11.582
▁tropical	-11.582
▁Client	-11.582
▁sniff	-11.582
▁coalition	-11.5822
▁Kabul	-11.5828
▁Guide	-11.5831
sisted	-11.5863
▁Semi	-11.5869
▁explicit	-11.587
▁Ubuntu	-11.587
▁apprehension	-11.587
▁Prakash	-11.587
▁decisive	-11.587
▁reckon	-11.587
▁swift	-11.587
▁Maratha	-11.587
▁artisans	-11.587
▁adorn	-11.587
▁discern	-11.5871
▁loyalty	-11.5872
▁shopping	-11.5873
▁fright	-11.5879
tunately	-11.5911
▁Available	-11.5921
▁renowned	-11.5921
▁boycott	-11.5921
▁Pothana	-11.5921
▁Position	-11.5921
▁guiding	-11.5921
▁pretend	-11.5922
▁vocal	-11.5922
▁washing	-11.5933
▁Individual	-11.5972
▁harmonious	-11.5972
▁indispensable	-11.5972
▁undoubtedly	-11.5972
▁Rupee	-11.5972
▁Gulf	-11.5975
▁ledger	-11.5976
▁denote	-11.598
▁Duty	-11.5982
▁Draw	-11.5984
▁dull	-11.5987
▁thro	-11.5991
ground	-11.6016
▁Pollution	-11.6023
▁contributing	-11.6023
▁investigating	-11.6023
▁messenger	-11.6023
▁prestigious	-11.6023
▁reinforce	-11.6023
▁widget	-11.6023
▁foregoing	-11.6023
▁impetus	-11.6023
▁inception	-11.6024
▁telecom	-11.6024
▁Tiger	-11.6026
rewith	-11.6027
▁mortality	-11.6029
ahdev	-11.6033
▁flock	-11.6045
▁Inflammation	-11.6075
▁impeachment	-11.6075
▁simplicity	-11.6075
▁bureau	-11.6075
▁requisition	-11.6075
▁expiration	-11.6075
▁temperament	-11.6075
▁hollow	-11.6075
▁Broad	-11.6075
▁tariff	-11.6075
▁endorsement	-11.6082
▁Wales	-11.6083
▁mild	-11.6084
▁Produc	-11.6087
DT	-11.609
AU	-11.6112
▁plug	-11.6121
▁Proclamation	-11.6127
▁Wildlife	-11.6127
▁restaurant	-11.6127
▁steadily	-11.6127
▁unlawful	-11.6127
▁whisper	-11.6127
▁Qaeda	-11.6127
▁tonnage	-11.6127
▁banyan	-11.6129
▁wireless	-11.6131
▁scrap	-11.6137
▁Load	-11.6143
▁Indic	-11.6159
▁merger	-11.6159
NB	-11.6178
▁neutral	-11.6179
▁California	-11.6179
▁Nivedita	-11.6179
▁accommodate	-11.6179
▁aggression	-11.6179
▁glimpse	-11.6179
▁Friday	-11.6179
▁Undertaking	-11.6179
▁enumerate	-11.6179
▁luminous	-11.6179
▁holistic	-11.6179
▁foremost	-11.6179
▁Madhav	-11.6184
▁banana	-11.6186
▁harsh	-11.6187
▁reliance	-11.6187
▁Bagh	-11.6189
▁Zionis	-11.62
▁approve	-11.6203
▁NOT	-11.6212
▁formulate	-11.6219
▁Absolute	-11.6231
▁nucleus	-11.6231
▁sugarcane	-11.6231
▁untouchable	-11.6231
▁encompass	-11.6231
▁Mahadevi	-11.6233
variably	-11.6233
▁Ratna	-11.6233
▁Dalit	-11.6234
▁Until	-11.6238
▁Half	-11.6238
▁solicit	-11.6244
▁abort	-11.6256
▁Devanagari	-11.6284
▁Guarantee	-11.6284
▁Vehicle	-11.6284
▁stupid	-11.6284
▁unanimous	-11.6284
▁portrait	-11.6284
▁dancing	-11.6284
▁Increase	-11.6284
▁Pratap	-11.6285
▁captain	-11.6287
▁composite	-11.6287
▁Notification	-11.6288
▁Motor	-11.6297
▁linga	-11.6324
▁Performance	-11.6337
▁ambulance	-11.6337
▁flexibility	-11.6337
▁hierarchy	-11.6337
▁responsive	-11.6337
▁Twenty	-11.6337
▁chemist	-11.6337
▁expedition	-11.6337
▁anticipate	-11.6337
▁hesitate	-11.6337
▁diplomacy	-11.6337
▁minimiz	-11.6337
▁counterpart	-11.6338
▁dispers	-11.6338
▁Generat	-11.636
▁fertile	-11.639
▁peripheral	-11.639
▁sanctum	-11.639
▁vacancy	-11.639
▁Treaty	-11.639
▁homage	-11.639
▁Dutch	-11.639
▁Vikram	-11.639
▁asleep	-11.639
▁seventeen	-11.6392
xxx	-11.6393
▁Joze	-11.6394
▁Unlike	-11.6394
▁labor	-11.6397
▁chlor	-11.641
▁Expenditure	-11.6443
▁Olympic	-11.6443
▁affiliate	-11.6443
▁ceremonial	-11.6443
▁whatsoever	-11.6443
▁Munshi	-11.6443
▁Sweden	-11.6443
▁disregard	-11.6443
▁imminent	-11.6443
▁cereal	-11.6443
▁hostility	-11.6443
▁memories	-11.6443
▁clerk	-11.6443
▁brutal	-11.6443
▁naked	-11.6444
▁Omitt	-11.6444
▁Corp	-11.6449
▁summari	-11.645
▁misery	-11.6451
▁Circ	-11.6452
class	-11.6485
▁Evidence	-11.6497
▁Varanasi	-11.6497
▁diagnose	-11.6497
▁superficial	-11.6497
▁unhappy	-11.6497
▁offensive	-11.6497
▁undue	-11.6498
▁pearl	-11.6499
▁brotherhood	-11.65
▁malaria	-11.6501
process	-11.6518
▁scarce	-11.6521
▁Cultural	-11.6551
▁HPCL	-11.6551
▁License	-11.6551
▁bracket	-11.6551
▁portfolio	-11.6551
▁temporarily	-11.6551
▁renounc	-11.6551
▁census	-11.6551
WORK	-11.6551
▁sikhara	-11.6551
▁mystery	-11.6551
assisted	-11.6552
▁mainstream	-11.6553
▁cordial	-11.6554
▁habitual	-11.6557
▁priorities	-11.6557
▁toilet	-11.657
▁utilis	-11.6601
▁mortal	-11.6603
▁SPEECH	-11.6605
▁tranquil	-11.6605
▁Moscow	-11.6605
▁autonomy	-11.6605
▁consecutive	-11.6605
▁incorrect	-11.6605
▁puzzle	-11.6605
▁gravity	-11.6605
▁monopoly	-11.6605
▁fragment	-11.6605
▁Tulsi	-11.6605
▁Chairperson	-11.6605
▁Inquiry	-11.6605
COUNT	-11.6606
▁spices	-11.6606
▁Venkata	-11.6606
▁Serial	-11.6606
▁telegraph	-11.6606
varying	-11.6615
▁addict	-11.6615
centric	-11.6631
▁dispose	-11.6632
▁Contribution	-11.666
▁Method	-11.666
▁esteem	-11.666
▁missile	-11.666
▁inhabitants	-11.6661
▁Kisan	-11.6661
▁biography	-11.6662
▁Phone	-11.6665
▁capita	-11.6681
▁occupie	-11.6687
▁identifie	-11.6687
writing	-11.6689
sufficient	-11.6689
▁Instrument	-11.6715
▁arrears	-11.6715
▁ethics	-11.6715
▁obstina	-11.6715
▁regain	-11.6715
▁curious	-11.6715
▁supervise	-11.6722
▁Bachan	-11.6725
mpress	-11.6743
▁NUMBER	-11.677
▁Century	-11.677
▁Hitler	-11.677
▁lifestyle	-11.677
▁IFCI	-11.677
▁plough	-11.677
▁drunk	-11.6771
▁boast	-11.6771
▁provok	-11.6771
▁bribery	-11.6772
▁weaver	-11.6774
▁Earlie	-11.6785
▁emanat	-11.679
▁restrain	-11.6807
▁dye	-11.6824
▁ambitious	-11.6826
▁renunciation	-11.6826
▁verdict	-11.6826
▁Hussein	-11.6826
▁Permanent	-11.6826
▁exciting	-11.6826
▁solitary	-11.6826
▁reputed	-11.6826
▁menace	-11.6826
▁STATE	-11.6827
▁bonus	-11.6827
▁activate	-11.6827
▁feedback	-11.6828
▁Scale	-11.6833
receptor	-11.6839
▁Victoria	-11.6882
▁suspicion	-11.6882
▁CONDOLE	-11.6882
▁authoritative	-11.6882
▁jealous	-11.6882
▁maritime	-11.6882
▁Simple	-11.6883
▁waist	-11.6884
▁Controller	-11.6885
▁Approv	-11.6891
▁Bapu	-11.6894
▁bullet	-11.6899
▁foe	-11.6905
intern	-11.6913
etropolitan	-11.6938
▁absorption	-11.6938
▁mosquito	-11.6938
▁nitrogen	-11.6938
▁infectious	-11.6938
▁Crime	-11.6938
▁Copyright	-11.6938
▁salaries	-11.6939
▁shaping	-11.6939
▁maternal	-11.6941
▁fringe	-11.6948
▁inventor	-11.6951
▁respirator	-11.6994
▁alignment	-11.6994
▁Little	-11.6994
▁completing	-11.6994
▁inclined	-11.6994
▁diameter	-11.6994
▁forecast	-11.6995
▁scroll	-11.6995
▁Kavya	-11.6997
▁Wood	-11.6998
▁Series	-11.6999
▁cited	-11.7
▁calf	-11.7001
▁announce	-11.7012
▁Elephant	-11.7051
▁explosion	-11.7051
▁mathematical	-11.7051
▁refresh	-11.7051
▁simplify	-11.7051
▁vocational	-11.7051
▁Bachchan	-11.7051
▁blossom	-11.7051
▁Character	-11.7051
▁vigour	-11.7051
▁pepper	-11.7051
▁Vedanta	-11.7051
▁Nawab	-11.7051
▁aspiration	-11.7052
▁Maurya	-11.7053
▁mammal	-11.7053
▁gateway	-11.7054
▁Daily	-11.7054
▁Usual	-11.7054
▁swing	-11.7059
▁Mexico	-11.7108
▁feudal	-11.7108
▁illiterate	-11.7108
▁remittance	-11.7108
▁Keyboard	-11.7109
▁ecological	-11.7109
▁abode	-11.7109
▁fiber	-11.711
▁cancelled	-11.7112
▁solvent	-11.7113
▁Single	-11.7113
▁ailment	-11.712
▁immigrant	-11.7166
▁umbrella	-11.7166
▁zamindar	-11.7166
▁rigorous	-11.7166
▁sulphur	-11.7166
▁upheld	-11.7166
▁buried	-11.7166
▁gauge	-11.7166
▁Specific	-11.7166
▁Ignor	-11.7167
▁isolation	-11.7167
▁Submission	-11.7168
▁Perfect	-11.7169
alumni	-11.717
lmost	-11.7179
stream	-11.7215
▁Independent	-11.7224
▁Peninsula	-11.7224
▁Vigyan	-11.7224
▁aggrieved	-11.7224
▁beneficiary	-11.7224
▁diagnosis	-11.7224
▁martyr	-11.7224
▁aquatic	-11.7224
▁divert	-11.7225
▁Accept	-11.7225
▁cruelty	-11.7227
▁fauna	-11.7227
▁sponsor	-11.7229
▁joke	-11.7232
▁pupa	-11.7251
consumed	-11.7264
▁Conservation	-11.7282
▁Khandekar	-11.7282
▁Savarkar	-11.7282
▁Ahmad	-11.7282
▁bargain	-11.7282
▁corpus	-11.7282
▁Browse	-11.7283
▁orphan	-11.7284
▁ripe	-11.729
▁Kalyan	-11.731
▁thorough	-11.7318
▁coordinat	-11.7339
▁Lebanon	-11.734
▁Publish	-11.734
▁Siyaramsharan	-11.734
▁Valmiki	-11.734
▁prejudicial	-11.734
▁pecuniar	-11.734
▁encoding	-11.734
▁thumb	-11.734
▁ideological	-11.734
▁Abbas	-11.7341
▁Poona	-11.7343
▁Presid	-11.7345
aunchpad	-11.7392
ORROW	-11.7399
▁Initiative	-11.7399
▁diamond	-11.7399
▁exemplary	-11.7399
▁frivolous	-11.7399
▁glucose	-11.7399
▁rebellion	-11.7399
▁unlimited	-11.7399
▁voluntarily	-11.7399
▁discontinu	-11.7399
▁Thakur	-11.7399
▁beneath	-11.7399
▁Aviation	-11.7399
▁Background	-11.7399
▁invented	-11.7399
▁Rahul	-11.74
▁Seminar	-11.7402
▁Cause	-11.741
▁stride	-11.7413
▁coincide	-11.7433
▁Celebrations	-11.7458
▁Contempt	-11.7458
▁Santiniketan	-11.7458
▁Suddenly	-11.7458
▁harbour	-11.7458
▁reimburse	-11.7458
▁tuberculosis	-11.7458
▁inspiring	-11.7458
▁spinning	-11.7458
▁heartfelt	-11.7458
▁skull	-11.7458
▁diagram	-11.7458
▁Palace	-11.7458
▁Bridge	-11.7458
▁Naidu	-11.7458
▁lodge	-11.7458
▁Think	-11.7458
▁hydrogen	-11.746
▁obey	-11.7461
▁steal	-11.7462
▁schema	-11.7469
CAIR	-11.7484
▁gradual	-11.7495
rbakhsh	-11.7518
▁Jodhpur	-11.7518
▁Nuclear	-11.7518
▁Superintendent	-11.7518
▁alchemist	-11.7518
▁curiosity	-11.7518
▁trekker	-11.7518
▁Amitabh	-11.7518
▁Steel	-11.7518
▁polish	-11.7518
▁bullock	-11.7519
OVER	-11.7522
▁Wild	-11.7522
▁vomit	-11.7522
▁hetero	-11.7526
PORT	-11.7526
WAY	-11.756
▁swollen	-11.7578
▁moisture	-11.7578
▁compiled	-11.7578
▁Writing	-11.7578
▁annuity	-11.7578
▁carpet	-11.7578
▁bundle	-11.7578
▁Opposition	-11.7579
▁Complex	-11.7579
▁Thiru	-11.7582
PATI	-11.7587
▁Capacity	-11.7638
▁Subsequent	-11.7638
▁denomination	-11.7638
▁precaution	-11.7638
▁tactics	-11.7638
▁memorable	-11.7638
▁scratch	-11.7638
▁HTTP	-11.7638
▁placing	-11.7638
▁architectural	-11.7638
▁stiff	-11.7639
▁Ramakrishna	-11.7639
▁consultancy	-11.7639
▁multilateral	-11.764
▁Ground	-11.764
▁knot	-11.7641
▁trash	-11.7642
dimensional	-11.7678
▁constitut	-11.768
▁Guwahati	-11.7698
▁Harishchandra	-11.7698
▁Pondicherry	-11.7698
▁Preamble	-11.7698
▁SERVICE	-11.7698
▁embodied	-11.7698
▁fascinating	-11.7698
▁fraudulent	-11.7698
▁hygiene	-11.7698
▁indifference	-11.7698
▁ordinance	-11.7698
▁superstition	-11.7698
▁memorial	-11.7698
▁Malaysia	-11.7698
▁Material	-11.7698
▁demographic	-11.7698
▁wicked	-11.7698
▁expired	-11.7698
▁Adalat	-11.7699
▁Vallabh	-11.7699
▁amenities	-11.7699
▁charity	-11.77
▁suspend	-11.7707
▁Similar	-11.7737
▁imprison	-11.7755
▁Prophet	-11.7759
▁congratulations	-11.7759
▁intestate	-11.7759
▁uranium	-11.7759
▁INAUGURAT	-11.7759
▁warehouse	-11.7759
▁Framework	-11.776
▁annoy	-11.776
▁dental	-11.776
▁Captain	-11.7761
▁straw	-11.7763
▁infrastructur	-11.7793
▁Certification	-11.7821
▁MINISTER	-11.7821
▁Medicine	-11.7821
▁Redressal	-11.7821
▁sympathetic	-11.7821
▁expedient	-11.7821
▁microscope	-11.7822
▁stuck	-11.7824
▁storing	-11.7824
▁angel	-11.7831
▁convergence	-11.7882
▁divisible	-11.7882
▁grievous	-11.7882
▁sanctuary	-11.7882
▁Infinite	-11.7882
▁domicile	-11.7882
▁humanitarian	-11.7882
▁Diwali	-11.7882
▁eldest	-11.7882
▁Austria	-11.7882
▁vacant	-11.7882
▁screw	-11.7882
▁Risk	-11.7883
▁revelation	-11.7883
▁Scientist	-11.7883
aceae	-11.7883
▁carving	-11.7883
▁immigration	-11.7883
▁thunder	-11.7885
▁implicat	-11.7922
animate	-11.7938
▁biotechnology	-11.7945
▁discourage	-11.7945
▁extremist	-11.7945
▁leisure	-11.7945
▁Preferences	-11.7945
▁Obvious	-11.7945
▁sediment	-11.7945
▁devoid	-11.7945
▁geography	-11.7945
▁Narmadashank	-11.7949
worth	-11.7964
▁AWARDS	-11.8007
▁conciliation	-11.8007
▁WITH	-11.8007
▁deceit	-11.8007
▁ladies	-11.8007
▁invisible	-11.8007
▁brood	-11.8007
▁fortnight	-11.8008
▁evict	-11.801
while	-11.8014
equality	-11.8038
science	-11.8038
prasad	-11.8067
▁illustrious	-11.807
▁unwilling	-11.807
rchaeological	-11.807
▁Maintenance	-11.807
▁Philosophy	-11.807
▁calcium	-11.807
▁fossil	-11.807
▁implicit	-11.807
▁statistical	-11.807
▁cottage	-11.807
▁Growth	-11.807
▁romance	-11.807
▁incapable	-11.807
▁Parvati	-11.8072
▁niche	-11.8082
▁convince	-11.8105
▁Academic	-11.8133
▁Akademi	-11.8133
▁Excellence	-11.8133
▁Receipt	-11.8133
▁enzyme	-11.8133
▁vegetation	-11.8133
▁imbibe	-11.8133
▁Problem	-11.8133
▁Circular	-11.8134
▁Terminal	-11.8134
▁Above	-11.8134
algia	-11.8137
▁slide	-11.8181
▁Participat	-11.8192
▁ISBN	-11.8197
▁leopard	-11.8197
▁BOLD	-11.8197
▁Regular	-11.8197
▁ministries	-11.8197
▁Quarter	-11.8197
▁swallow	-11.8197
▁buffer	-11.8197
▁facie	-11.8197
▁Guinea	-11.8197
▁COURT	-11.8197
▁hiding	-11.8197
▁nectar	-11.8198
▁concede	-11.8198
▁Adjust	-11.8261
▁Countries	-11.8261
▁Imperial	-11.8261
▁LIFE	-11.8261
▁contributor	-11.8261
▁cooperate	-11.8261
▁embedded	-11.8261
▁fertilise	-11.8261
▁fertility	-11.8261
▁opposing	-11.8261
▁panchayat	-11.8261
▁duplicate	-11.8261
▁complications	-11.8261
▁obscure	-11.8261
▁ozone	-11.8261
▁cursor	-11.8262
▁Discussion	-11.8326
▁aggravat	-11.8326
▁liquor	-11.8326
▁subscription	-11.8326
▁Reason	-11.8326
▁telegram	-11.8326
▁thorn	-11.8327
▁Mahendra	-11.8328
▁Vyas	-11.8333
▁repay	-11.8384
▁sentenc	-11.8388
▁Alexander	-11.839
▁VPN	-11.839
▁caterpillar	-11.839
▁hitherto	-11.839
▁jurisprudence	-11.839
▁livestock	-11.839
▁generator	-11.8391
▁probability	-11.8391
▁prescription	-11.8391
▁defense	-11.8391
▁seldom	-11.8391
▁Opinion	-11.8391
▁activist	-11.8391
▁retrieve	-11.8391
▁cousin	-11.8391
▁Everything	-11.8391
▁compulsion	-11.8391
▁Visva	-11.8391
▁choos	-11.8406
ustainable	-11.8407
▁incorporate	-11.8428
▁apparatus	-11.8456
▁hereinafter	-11.8456
▁peacock	-11.8456
▁proclamation	-11.8456
▁spectacular	-11.8456
▁fierce	-11.8456
▁matrix	-11.8456
▁compilation	-11.8456
▁Request	-11.8456
▁muslim	-11.8456
▁ICAR	-11.8457
olidarity	-11.8458
▁inquire	-11.8478
undergone	-11.8479
▁flour	-11.852
▁Myanmar	-11.8522
▁ambassador	-11.8522
▁reassessment	-11.8522
▁reservoir	-11.8522
▁Strength	-11.8522
▁afflict	-11.8522
▁trivial	-11.8522
▁milestone	-11.8522
▁album	-11.8522
▁refined	-11.8522
▁Venture	-11.8523
▁Mishra	-11.8524
▁Rishi	-11.8527
▁forgive	-11.8533
▁Appointment	-11.8588
▁Audacity	-11.8588
▁Structure	-11.8588
▁abdominal	-11.8588
▁credentials	-11.8588
▁feather	-11.8588
▁humility	-11.8588
▁inculcate	-11.8588
▁influential	-11.8588
▁promulgat	-11.8588
▁Mahavira	-11.8588
▁immune	-11.8588
▁Binding	-11.8588
▁salvation	-11.8588
▁pricing	-11.8588
▁spear	-11.8588
narayan	-11.859
shankar	-11.8616
praised	-11.8623
control	-11.8648
▁Ultimate	-11.8655
▁elevated	-11.8655
▁erstwhile	-11.8655
▁grandmother	-11.8655
▁penetration	-11.8655
▁clarity	-11.8655
▁pigeon	-11.8655
▁hesitation	-11.8655
▁Blair	-11.8655
▁ecosystem	-11.8655
▁plung	-11.8655
▁trauma	-11.8655
▁Yadav	-11.8655
▁Henry	-11.8655
▁rotation	-11.8656
▁imperial	-11.8658
▁Frame	-11.866
▁inhabit	-11.8694
▁bulb	-11.8699
▁equat	-11.8709
▁Joseph	-11.8722
▁Lakshmana	-11.8722
▁Madurai	-11.8722
▁Military	-11.8722
▁pixels	-11.8722
▁precision	-11.8722
▁sensitivity	-11.8722
▁Proposal	-11.8722
▁hormone	-11.8722
implified	-11.8722
▁declaring	-11.8722
▁junior	-11.8722
▁insecticide	-11.8723
▁cosine	-11.8724
pdf	-11.8741
▁suppose	-11.8761
▁Desktop	-11.8789
▁Dravidian	-11.8789
▁Empowerment	-11.8789
▁Facility	-11.8789
▁adjoining	-11.8789
▁appraisal	-11.8789
▁condoled	-11.8789
▁continuation	-11.8789
▁desperate	-11.8789
▁discharging	-11.8789
▁epidemic	-11.8789
▁inevitably	-11.8789
▁splendour	-11.8789
▁treasury	-11.8789
▁Atlantic	-11.8789
▁Release	-11.8789
▁medication	-11.8789
▁workforce	-11.8789
▁shrink	-11.8789
▁Spanish	-11.8789
▁Gobind	-11.8789
▁erosion	-11.8789
▁Okay	-11.8789
▁Storage	-11.8789
▁Nigeria	-11.8789
▁funeral	-11.8789
▁cheek	-11.8789
▁insulin	-11.8789
▁yarn	-11.879
▁typing	-11.879
▁Trading	-11.879
resumption	-11.8796
▁Govern	-11.8835
▁Assemblies	-11.8857
▁Currency	-11.8857
▁Gokhale	-11.8857
▁Puducherry	-11.8857
▁cultivator	-11.8857
▁energies	-11.8857
▁knife	-11.8857
▁mysterious	-11.8857
▁Shipping	-11.8857
▁premature	-11.8857
▁mythology	-11.8857
▁Atomic	-11.8857
▁chariot	-11.8857
▁truck	-11.8858
▁wilful	-11.8858
probable	-11.8859
▁conjunct	-11.889
▁Antarctic	-11.8926
▁Chicago	-11.8926
▁Thackeray	-11.8926
▁UNESCO	-11.8926
▁constituency	-11.8926
▁inconsistent	-11.8926
▁perpetual	-11.8926
▁reconcil	-11.8926
▁kilometers	-11.8926
▁MCX	-11.8926
▁Nalanda	-11.8926
▁curtain	-11.8926
▁mobilis	-11.8926
piece	-11.8928
▁shining	-11.8928
▁Sync	-11.8942
▁RASHTRA	-11.8995
PUBLIC	-11.8995
▁Chatterjee	-11.8995
▁convincing	-11.8995
▁equilibrium	-11.8995
▁navigation	-11.8995
▁Oriental	-11.8995
▁Tehran	-11.8995
▁Lecture	-11.8995
▁incarnation	-11.8995
▁Census	-11.8995
▁Circuit	-11.8995
▁Valid	-11.8995
▁retard	-11.8995
▁inhuman	-11.8997
▁tumor	-11.8999
▁Ishwar	-11.9003
▁attest	-11.9008
▁Literacy	-11.9064
▁Vigilance	-11.9064
▁cigarette	-11.9064
▁extinguish	-11.9064
▁memorandum	-11.9064
▁privacy	-11.9064
▁refrain	-11.9064
▁untouchability	-11.9064
▁cancellation	-11.9064
▁leverage	-11.9064
▁perpetrat	-11.9064
▁speculation	-11.9064
▁stabiliz	-11.9064
▁biomass	-11.9064
▁replies	-11.9064
▁Mecca	-11.9064
▁lyrical	-11.9064
▁compensate	-11.9064
▁Options	-11.9064
▁purification	-11.9065
▁Diploma	-11.9134
▁Bhagwati	-11.9134
▁Database	-11.9134
▁Ombudsman	-11.9134
▁Shakespeare	-11.9134
▁Statistics	-11.9134
▁atmospheric	-11.9134
▁eligibility	-11.9134
▁fascism	-11.9134
▁maternity	-11.9134
▁vegetarian	-11.9134
▁Facilitat	-11.9134
▁timber	-11.9134
▁Observ	-11.9134
▁embark	-11.9134
▁excise	-11.9134
▁Script	-11.9134
▁Bhagavath	-11.9134
▁agitate	-11.9135
▁coarse	-11.9135
▁grind	-11.9137
▁Memorandum	-11.9204
▁Thailand	-11.9204
▁enrolment	-11.9204
▁electorate	-11.9205
▁Activities	-11.9205
▁Karachi	-11.9205
▁Defens	-11.9205
▁Eleven	-11.9205
▁banknotes	-11.9205
▁muscular	-11.9205
▁vector	-11.9205
EMBER	-11.9205
▁Premises	-11.9205
▁Ireland	-11.9205
▁storeyed	-11.9205
▁mobiliz	-11.9205
▁Shyam	-11.9212
▁MOU	-11.9212
graduate	-11.9219
▁indefinite	-11.9275
▁applaud	-11.9275
▁disqualified	-11.9275
▁flavour	-11.9275
▁irrelevant	-11.9275
▁Anandamoy	-11.9275
▁thrill	-11.9275
▁civic	-11.9275
▁thigh	-11.9276
▁malign	-11.9276
▁disguise	-11.9276
▁appeas	-11.9276
spoken	-11.9294
▁proprietor	-11.9347
▁Devendranath	-11.9347
▁Domestic	-11.9347
▁Investor	-11.9347
▁algebra	-11.9347
▁eclipse	-11.9347
▁explosive	-11.9347
▁fascist	-11.9347
▁hypothesis	-11.9347
▁Motilal	-11.9347
▁Summary	-11.9347
▁calamity	-11.9347
▁intimidat	-11.9347
▁Fellow	-11.9347
▁depressed	-11.9347
▁turtle	-11.9347
▁garland	-11.9348
▁Smart	-11.9348
▁cheat	-11.9351
▁Ladie	-11.9358
▁disparit	-11.9362
treating	-11.9373
▁slaughter	-11.9419
▁syndrome	-11.9419
▁CALLS	-11.9419
▁Chatrik	-11.9419
▁invoked	-11.9419
▁Climate	-11.9419
▁plague	-11.9419
▁Alliance	-11.9419
▁blade	-11.9419
▁stool	-11.9419
▁forfeit	-11.9419
iferous	-11.9422
▁Yogi	-11.9424
▁graduat	-11.9436
▁devote	-11.9479
▁Narmada	-11.9487
▁Catholic	-11.9491
▁Counsel	-11.9491
▁Disabilities	-11.9491
▁Gentlemen	-11.9491
▁Udaipur	-11.9491
▁contravention	-11.9491
▁disillusion	-11.9491
▁indifferent	-11.9491
▁pseudo	-11.9491
▁redemption	-11.9491
▁redundant	-11.9491
▁Traffic	-11.9491
▁genital	-11.9491
▁drift	-11.9491
Residence	-11.9491
▁revenge	-11.9491
▁grandeur	-11.9491
▁purport	-11.9492
▁cultivate	-11.9536
▁Employ	-11.956
▁Effort	-11.9564
▁Saturday	-11.9564
▁advisable	-11.9564
▁optimum	-11.9564
▁purchasing	-11.9564
▁voyage	-11.9564
▁RFP	-11.9564
▁Cotton	-11.9564
▁increment	-11.9564
▁Watch	-11.9564
▁stanza	-11.9564
▁coerc	-11.9577
▁Cancel	-11.9579
▁differentiate	-11.9584
▁Bulh	-11.9602
cquitted	-11.9638
▁Francis	-11.9638
▁allegiance	-11.9638
▁deprivation	-11.9638
▁diabetic	-11.9638
▁imbalance	-11.9638
▁mumbai	-11.9638
▁obsolete	-11.9638
▁intimation	-11.9638
▁necessitat	-11.9638
▁Virtual	-11.9638
▁Kuwait	-11.9638
▁Dairy	-11.9638
▁unveil	-11.9638
▁glance	-11.9638
▁backbone	-11.9638
▁Average	-11.9638
▁flew	-11.9638
▁Complete	-11.964
▁predator	-11.9643
▁conclud	-11.9667
▁snap	-11.9681
sighted	-11.9684
▁comprehend	-11.9712
▁dilemma	-11.9712
▁fraternit	-11.9712
▁innocence	-11.9712
▁offspring	-11.9712
▁martial	-11.9712
▁restoration	-11.9712
▁drill	-11.9712
▁diesel	-11.9713
▁antenna	-11.9713
▁shirt	-11.9713
▁Libya	-11.9715
officio	-11.9765
▁Complaint	-11.9786
▁Hussain	-11.9786
▁VISIT	-11.9786
▁contagious	-11.9786
▁crocodile	-11.9786
▁grasshopper	-11.9786
▁credibility	-11.9787
▁ghost	-11.9787
▁Domain	-11.9787
▁Swadeshi	-11.9787
▁dentist	-11.9787
▁trump	-11.9787
▁vendor	-11.9787
▁swim	-11.9788
▁awake	-11.9797
altered	-11.9805
▁replicat	-11.9825
▁rhetoric	-11.9862
▁Religious	-11.9862
▁calamities	-11.9862
▁cholesterol	-11.9862
▁imaginary	-11.9862
▁impediment	-11.9862
▁libraries	-11.9862
▁steadfast	-11.9862
▁Jyoti	-11.9862
▁enmity	-11.9862
▁slender	-11.9862
▁Bodies	-11.9862
▁ninth	-11.9862
▁Width	-11.9862
▁alleviat	-11.9862
▁demise	-11.9863
rashtra	-11.9873
▁profess	-11.9903
screen	-11.9907
▁cautious	-11.9937
▁Inspection	-11.9937
▁Welcome	-11.9937
▁adjacent	-11.9937
▁avenues	-11.9937
▁enshrined	-11.9937
▁inappropriate	-11.9937
▁unsuccessful	-11.9937
▁detriment	-11.9937
▁pharma	-11.9937
▁massacre	-11.9937
▁theoretical	-11.9938
xistence	-11.9945
▁diploma	-12.0011
▁Darjeeling	-12.0014
▁Haplogroup	-12.0014
▁autobiography	-12.0014
▁destructive	-12.0014
▁embracing	-12.0014
▁fountain	-12.0014
▁apprehend	-12.0014
▁attorney	-12.0014
▁deception	-12.0014
▁forbidden	-12.0014
▁Mahasabha	-12.0014
▁Heritage	-12.0014
▁myriad	-12.0014
▁Nyaya	-12.0014
▁Psycho	-12.0014
▁Restrict	-12.0014
▁finite	-12.0014
swamy	-12.0015
▁salute	-12.0016
▁consume	-12.003
people	-12.0066
▁Prohibition	-12.0091
▁Rashtriya	-12.0091
▁amalgamated	-12.0091
▁luxury	-12.0091
▁mercury	-12.0091
▁negligence	-12.0091
▁skeleton	-12.0091
▁Failure	-12.0091
▁mischief	-12.0091
▁swimming	-12.0091
▁overlook	-12.0091
▁rhyme	-12.0091
▁anguish	-12.0091
▁infirm	-12.0091
▁aspire	-12.0099
pulsion	-12.0124
▁retire	-12.0136
▁causa	-12.0147
folk	-12.0168
malgamating	-12.0168
▁Irrigation	-12.0168
▁Oxford	-12.0168
▁Pandavas	-12.0168
▁segregat	-12.0168
▁Fifth	-12.0168
eterrence	-12.0168
▁stolen	-12.0168
▁excel	-12.0169
▁JSA	-12.017
▁stalk	-12.0171
▁irrigat	-12.0238
▁Kyrgyz	-12.0246
▁Identity	-12.0246
▁Netherlands	-12.0246
▁abundance	-12.0246
▁impugned	-12.0246
▁incumbent	-12.0246
▁luggage	-12.0246
▁motivation	-12.0246
▁paradigm	-12.0246
▁tunnel	-12.0246
▁frightened	-12.0246
▁Scott	-12.0246
▁Advaita	-12.0246
▁veteran	-12.0246
▁Andrew	-12.0246
▁ventilat	-12.0247
▁deplet	-12.0253
▁woke	-12.0273
▁Administrator	-12.0325
▁BHAVAN	-12.0325
▁Detailed	-12.0325
▁HIGH	-12.0325
▁Wimbledon	-12.0325
▁practicable	-12.0325
▁sanskrit	-12.0325
▁unemployed	-12.0325
sanitary	-12.0325
▁promising	-12.0325
▁surroga	-12.0325
▁Future	-12.0325
▁intrinsic	-12.0325
▁Understand	-12.0325
▁analyst	-12.0325
▁entail	-12.0325
▁polluted	-12.0325
▁consuming	-12.0325
▁miserable	-12.0325
▁PASS	-12.0325
▁christ	-12.0327
▁dilut	-12.0332
▁wholesale	-12.0339
bearer	-12.0399
upremacy	-12.0404
▁Fertilizer	-12.0404
▁Horticulture	-12.0404
▁Philippines	-12.0404
▁Regarding	-12.0404
▁convocation	-12.0404
▁enunciat	-12.0404
▁vernacular	-12.0404
▁Preparation	-12.0404
▁Estimat	-12.0404
▁Previous	-12.0404
▁gracious	-12.0405
▁Subordinate	-12.0405
▁Commodit	-12.0406
conscient	-12.0432
▁approximate	-12.0462
▁Calendar	-12.0484
▁Cambridge	-12.0484
▁Judgment	-12.0484
▁Maldives	-12.0484
▁continuity	-12.0484
▁cylinder	-12.0484
▁foodgrains	-12.0484
▁forefront	-12.0484
▁relentless	-12.0484
▁turmeric	-12.0484
▁analyze	-12.0484
▁terrain	-12.0484
▁crazy	-12.0484
▁drown	-12.0485
▁vertebra	-12.0551
ttributable	-12.0565
▁Almighty	-12.0565
▁Brahmaputra	-12.0565
▁Instruction	-12.0565
▁SAARC	-12.0565
▁Strategic	-12.0565
▁Suggest	-12.0565
▁Vijayanagar	-12.0565
▁ceremonies	-12.0565
▁feasible	-12.0565
▁impersonal	-12.0565
▁Harvard	-12.0565
▁rejuvenat	-12.0565
▁Expert	-12.0565
▁sensible	-12.0565
▁Explor	-12.0565
▁formidable	-12.0565
▁ethos	-12.0565
▁aromatic	-12.0565
▁Louis	-12.0565
▁colleague	-12.0581
OUT	-12.0608
selves	-12.0626
isciplinary	-12.0642
▁Acquisition	-12.0646
▁Dynamic	-12.0646
▁Tendulkar	-12.0646
▁appetite	-12.0646
▁constituencies	-12.0646
▁diagnostic	-12.0646
▁diarrhoea	-12.0646
▁hereditary	-12.0646
▁receivable	-12.0646
▁Vidyalaya	-12.0646
▁Tunisia	-12.0646
▁combining	-12.0646
▁horror	-12.0646
▁pillow	-12.0646
▁dispatch	-12.0646
▁unaware	-12.0646
cubation	-12.0646
▁engaging	-12.0646
▁Uzb	-12.0647
▁fortunate	-12.0666
enalties	-12.0667
▁Einstein	-12.0728
▁Legislation	-12.0728
▁Satellite	-12.0728
▁adhishthana	-12.0728
▁butterfly	-12.0728
▁contemporaries	-12.0728
▁divinity	-12.0728
▁matrimonial	-12.0728
▁subcontinent	-12.0728
▁fatigue	-12.0728
▁Valuation	-12.0728
▁Parallel	-12.0728
▁Ajmer	-12.0728
▁groundnut	-12.0728
▁complied	-12.0728
▁Vishwa	-12.0729
▁abilities	-12.0729
▁Break	-12.0729
▁locate	-12.0783
▁Argentina	-12.0811
▁Dakota	-12.0811
▁astronomy	-12.0811
▁bladder	-12.0811
▁cyclone	-12.0811
▁franchise	-12.0811
▁frustration	-12.0811
▁reconsider	-12.0811
▁Kapoor	-12.0811
2	-12.4126
1	-12.4479
3	-13.7157
4	-13.7157
्	-13.9001
$	-13.9002
–	-13.9003
*	-13.9004
_	-13.9005
—	-13.9006
}	-13.9007
{	-13.9008
!	-13.9009
‘	-13.901
9	-13.9011
#	-13.9012
’	-13.9013
%	-13.9014
?	-13.9015
“	-13.9016
”	-13.9017
/	-13.9018
:	-13.9019
(	-13.902
)	-13.9021
,	-13.9022
