<unk>	0
<s>	0
</s>	0
▁t	-0
▁a	-1
he	-2
in	-3
▁the	-4
▁o	-5
re	-6
▁s	-7
on	-8
er	-9
at	-10
en	-11
▁.	-12
is	-13
▁w	-14
▁of	-15
▁c	-16
▁,	-17
nd	-18
it	-19
▁p	-20
▁b	-21
es	-22
▁in	-23
al	-24
ed	-25
an	-26
or	-27
▁f	-28
ion	-29
ar	-30
▁m	-31
ou	-32
ing	-33
▁to	-34
▁and	-35
▁d	-36
ic	-37
▁h	-38
as	-39
ent	-40
le	-41
ro	-42
▁th	-43
ct	-44
▁re	-45
▁n	-46
▁e	-47
▁l	-48
os	-49
om	-50
▁be	-51
il	-52
ve	-53
▁is	-54
ation	-55
us	-56
ut	-57
▁g	-58
ot	-59
ap	-60
ce	-61
id	-62
im	-63
▁I	-64
▁for	-65
ur	-66
▁S	-67
▁&	-68
ly	-69
ad	-70
▁on	-71
am	-72
et	-73
▁C	-74
ver	-75
▁-	-76
▁it	-77
ol	-78
ch	-79
ay	-80
▁or	-81
▁he	-82
ment	-83
▁as	-84
▁that	-85
▁A	-86
▁wh	-87
ig	-88
ow	-89
▁pro	-90
st	-91
ir	-92
▁an	-93
▁con	-94
ul	-95
el	-96
▁P	-97
▁st	-98
apos	-99
▁u	-100
▁al	-101
if	-102
▁M	-103
▁y	-104
ith	-105
▁1	-106
ter	-107
ab	-108
ri	-109
▁su	-110
▁de	-111
▁with	-112
ate	-113
ect	-114
ess	-115
ra	-116
her	-117
ge	-118
▁by	-119
res	-120
▁B	-121
▁)	-122
▁(	-123
ers	-124
ist	-125
▁are	-126
▁was	-127
▁this	-128
od	-129
qu	-130
our	-131
▁we	-132
▁com	-133
ld	-134
▁not	-135
▁v	-136
▁ex	-137
ity	-138
ak	-139
▁R	-140
op	-141
and	-142
ill	-143
em	-144
iv	-145
▁G	-146
ain	-147
nt	-148
▁at	-149
est	-150
▁sh	-151
▁r	-152
ci	-153
▁T	-154
se	-155
▁D	-156
um	-157
ant	-158
ive	-159
th	-160
ave	-161
ich	-162
▁Ind	-163
pp	-164
rom	-165
▁2	-166
ia	-167
ht	-168
▁se	-169
red	-170
art	-171
▁which	-172
ies	-173
ort	-174
end	-175
▁from	-176
ac	-177
ore	-178
ud	-179
▁his	-180
▁ne	-181
▁N	-182
un	-183
ure	-184
▁have	-185
all	-186
▁has	-187
▁H	-188
ust	-189
▁le	-190
ould	-191
▁you	-192
▁k	-193
▁ch	-194
ous	-195
▁so	-196
▁:	-197
ther	-198
▁all	-199
▁sp	-200
ard	-201
▁wor	-202
ions	-203
▁L	-204
▁E	-205
ind	-206
ag	-207
cc	-208
▁whe	-209
▁int	-210
▁im	-211
ome	-212
age	-213
▁K	-214
ated	-215
▁comp	-216
ry	-217
▁can	-218
ight	-219
▁India	-220
▁pl	-221
▁ad	-222
pt	-223
▁but	-224
▁there	-225
▁j	-226
ount	-227
▁us	-228
able	-229
ance	-230
ice	-231
ans	-232
▁ab	-233
ff	-234
▁any	-235
ary	-236
rou	-237
nder	-238
▁go	-239
▁en	-240
so	-241
▁me	-242
ical	-243
▁J	-244
▁app	-245
ence	-246
av	-247
ong	-248
▁dis	-249
▁un	-250
▁/	-251
▁res	-252
▁cont	-253
▁19	-254
ide	-255
ult	-256
ast	-257
▁per	-258
oc	-259
ear	-260
▁under	-261
▁other	-262
▁one	-263
ru	-264
hi	-265
og	-266
▁man	-267
▁F	-268
▁its	-269
▁they	-270
▁their	-271
pl	-272
per	-273
ell	-274
▁O	-275
ction	-276
▁inc	-277
▁will	-278
ial	-279
ep	-280
ish	-281
▁been	-282
▁part	-283
ost	-284
out	-285
▁ag	-286
ame	-287
▁also	-288
du	-289
gh	-290
▁do	-291
▁tr	-292
ations	-293
vel	-294
▁;	-295
▁U	-296
ie	-297
ok	-298
ine	-299
ik	-300
▁cl	-301
ress	-302
ase	-303
▁had	-304
▁who	-305
▁imp	-306
ere	-307
iz	-308
ib	-309
▁ar	-310
▁tim	-311
ub	-312
vern	-313
ang	-314
rit	-315
▁up	-316
act	-317
▁if	-318
ection	-319
▁out	-320
orm	-321
▁such	-322
very	-323
▁prov	-324
▁acc	-325
ian	-326
▁am	-327
are	-328
▁were	-329
▁St	-330
lic	-331
00	-332
ail	-333
ire	-334
ual	-335
▁”	-336
▁ind	-337
▁our	-338
▁W	-339
▁pe	-340
▁sub	-341
ition	-342
▁3	-343
ose	-344
cial	-345
ident	-346
ach	-347
one	-348
▁no	-349
▁V	-350
▁comm	-351
ade	-352
▁year	-353
▁“	-354
▁rel	-355
ake	-356
ass	-357
ue	-358
▁may	-359
ourt	-360
aw	-361
erv	-362
ber	-363
▁ev	-364
ign	-365
▁them	-366
ord	-367
ater	-368
aus	-369
ree	-370
ace	-371
▁qu	-372
▁off	-373
vernment	-374
ory	-375
ational	-376
ens	-377
▁pre	-378
▁Ch	-379
▁when	-380
ee	-381
▁these	-382
▁pr	-383
ious	-384
▁time	-385
▁Go	-386
ution	-387
▁pers	-388
now	-389
▁cons	-390
stit	-391
▁some	-392
▁?	-393
▁tw	-394
omm	-395
ings	-396
▁te	-397
▁work	-398
iss	-399
ities	-400
form	-401
▁more	-402
ces	-403
▁bec	-404
▁him	-405
▁po	-406
tern	-407
ike	-408
aid	-409
▁rec	-410
ople	-411
ah	-412
reat	-413
ack	-414
▁reg	-415
ove	-416
▁person	-417
▁should	-418
ric	-419
▁em	-420
hed	-421
▁only	-422
ile	-423
▁would	-424
▁people	-425
rib	-426
▁count	-427
itt	-428
▁%	-429
▁spe	-430
▁act	-431
▁In	-432
▁af	-433
▁pol	-434
aj	-435
ays	-436
▁ass	-437
▁like	-438
▁about	-439
▁new	-440
ject	-441
▁exp	-442
ip	-443
int	-444
ath	-445
ild	-446
low	-447
ause	-448
con	-449
velop	-450
▁over	-451
▁know	-452
▁sc	-453
▁your	-454
cess	-455
▁Act	-456
▁into	-457
ments	-458
ite	-459
ound	-460
oy	-461
▁rep	-462
ook	-463
lect	-464
elf	-465
ied	-466
ates	-467
▁form	-468
▁after	-469
fere	-470
ank	-471
row	-472
▁two	-473
ise	-474
amp	-475
▁4	-476
ific	-477
ife	-478
ark	-479
▁sy	-480
fore	-481
▁what	-482
ced	-483
gr	-484
vers	-485
▁dec	-486
▁made	-487
▁pres	-488
me	-489
▁ob	-490
ert	-491
▁my	-492
▁fe	-493
igh	-494
▁fir	-495
▁ro	-496
▁shall	-497
ng	-498
▁Comm	-499
▁’	-500
▁Court	-501
▁5	-502
▁ac	-503
▁her	-504
▁Government	-505
▁Indian	-506
ood	-507
ative	-508
old	-509
▁trans	-510
▁resp	-511
▁att	-512
pe	-513
▁rem	-514
▁how	-515
▁ent	-516
▁develop	-517
ally	-518
01	-519
ublic	-520
ism	-521
▁bet	-522
▁Sh	-523
▁than	-524
ward	-525
ating	-526
ness	-527
erm	-528
uc	-529
▁inv	-530
led	-531
rough	-532
▁dif	-533
▁where	-534
ors	-535
resident	-536
te	-537
▁State	-538
▁through	-539
▁being	-540
we	-541
ful	-542
▁des	-543
ons	-544
ular	-545
▁said	-546
cy	-547
ener	-548
▁eff	-549
ission	-550
▁co	-551
quot	-552
ower	-553
uring	-554
▁produ	-555
▁life	-556
▁first	-557
▁pos	-558
▁200	-559
▁President	-560
der	-561
▁cent	-562
gan	-563
▁again	-564
wn	-565
▁country	-566
▁col	-567
ning	-568
uth	-569
ty	-570
stem	-571
▁years	-572
li	-573
▁she	-574
▁set	-575
▁Bh	-576
ax	-577
▁could	-578
▁serv	-579
▁even	-580
olog	-581
ov	-582
▁ins	-583
▁right	-584
lud	-585
als	-586
ible	-587
▁well	-588
ink	-589
▁law	-590
▁very	-591
ility	-592
▁The	-593
ural	-594
▁Un	-595
▁many	-596
und	-597
ract	-598
ran	-599
ents	-600
▁then	-601
cept	-602
ha	-603
▁add	-604
ature	-605
▁ref	-606
▁world	-607
▁op	-608
arm	-609
ob	-610
▁bl	-611
▁ed	-612
up	-613
ati	-614
▁mem	-615
▁get	-616
▁need	-617
ft	-618
oth	-619
▁just	-620
its	-621
▁dist	-622
▁now	-623
▁section	-624
▁num	-625
ict	-626
▁call	-627
▁As	-628
▁pur	-629
ices	-630
▁must	-631
lt	-632
▁before	-633
▁bas	-634
▁ra	-635
ision	-636
▁good	-637
▁ph	-638
ren	-639
rap	-640
▁giv	-641
▁every	-642
▁system	-643
ght	-644
▁ext	-645
other	-646
▁Con	-647
▁ke	-648
ided	-649
ited	-650
▁case	-651
▁cap	-652
▁mat	-653
air	-654
urn	-655
gt	-656
aking	-657
▁6	-658
▁Pro	-659
les	-660
▁requ	-661
pos	-662
ef	-663
▁import	-664
ween	-665
▁most	-666
▁writ	-667
▁fol	-668
▁char	-669
▁includ	-670
▁between	-671
hip	-672
▁supp	-673
▁ear	-674
ble	-675
eth	-676
▁inf	-677
▁see	-678
▁tra	-679
▁min	-680
▁used	-681
iew	-682
▁def	-683
▁inst	-684
ised	-685
ute	-686
ily	-687
▁public	-688
▁Hind	-689
▁use	-690
ures	-691
irect	-692
▁make	-693
▁child	-694
ters	-695
▁during	-696
inal	-697
own	-698
▁differe	-699
ral	-700
ough	-701
chn	-702
▁var	-703
▁mon	-704
▁gener	-705
xt	-706
ll	-707
▁long	-708
▁val	-709
▁own	-710
round	-711
ange	-712
▁mod	-713
ries	-714
▁Y	-715
ital	-716
▁day	-717
stitution	-718
▁sm	-719
formation	-720
ages	-721
▁Is	-722
▁end	-723
▁lar	-724
▁&#	-725
ond	-726
▁Ar	-727
any	-728
▁because	-729
ody	-730
app	-731
ved	-732
▁follow	-733
▁7	-734
oun	-735
▁inter	-736
▁way	-737
ick	-738
▁great	-739
ec	-740
iness	-741
▁power	-742
uthor	-743
▁equ	-744
ix	-745
▁Pr	-746
▁car	-747
▁same	-748
▁gr	-749
hes	-750
▁here	-751
▁fl	-752
▁process	-753
▁bu	-754
▁organ	-755
ern	-756
▁hel	-757
conom	-758
ouse	-759
▁state	-760
▁take	-761
▁conc	-762
ished	-763
ivers	-764
▁av	-765
arch	-766
▁main	-767
ety	-768
▁conf	-769
ash	-770
▁disc	-771
▁Ex	-772
▁8	-773
gal	-774
▁De	-775
ruct	-776
ered	-777
▁those	-778
ple	-779
▁pass	-780
gram	-781
▁number	-782
▁det	-783
▁hum	-784
▁let	-785
▁adv	-786
ament	-787
▁sec	-788
▁place	-789
ality	-790
▁dem	-791
ten	-792
▁art	-793
▁fact	-794
ys	-795
▁stud	-796
▁order	-797
▁201	-798
▁present	-799
▁indust	-800
▁educ	-801
erest	-802
▁ret	-803
lim	-804
▁partic	-805
▁development	-806
▁Min	-807
▁Cent	-808
iod	-809
▁help	-810
▁back	-811
▁dep	-812
alth	-813
▁both	-814
▁did	-815
▁against	-816
▁Am	-817
gg	-818
▁fam	-819
angu	-820
bers	-821
▁med	-822
ph	-823
uch	-824
icial	-825
▁account	-826
ention	-827
▁lead	-828
ever	-829
▁hand	-830
ified	-831
▁interest	-832
istr	-833
ds	-834
ana	-835
▁18	-836
▁econom	-837
▁fin	-838
▁loc	-839
▁different	-840
ired	-841
ics	-842
ted	-843
▁0	-844
ting	-845
▁est	-846
▁period	-847
ck	-848
▁sur	-849
▁occ	-850
ined	-851
▁three	-852
uk	-853
▁fore	-854
▁bus	-855
get	-856
ives	-857
▁appro	-858
▁grow	-859
▁som	-860
▁iss	-861
man	-862
▁br	-863
min	-864
▁while	-865
ared	-866
ants	-867
ata	-868
▁jud	-869
▁cre	-870
▁tak	-871
ases	-872
ology	-873
▁pay	-874
▁mark	-875
▁found	-876
ew	-877
lish	-878
▁court	-879
▁cert	-880
nce	-881
ars	-882
ists	-883
▁author	-884
▁Commission	-885
▁term	-886
▁down	-887
▁does	-888
▁water	-889
day	-890
▁effect	-891
▁sim	-892
riv	-893
ya	-894
ork	-895
▁start	-896
ron	-897
▁each	-898
ner	-899
▁cor	-900
way	-901
tc	-902
▁called	-903
ency	-904
▁techn	-905
ained	-906
eg	-907
▁bel	-908
▁comple	-909
ale	-910
ploy	-911
ides	-912
read	-913
ges	-914
ather	-915
ually	-916
▁given	-917
▁9	-918
▁rece	-919
▁applic	-920
▁&#9	-921
▁contin	-922
▁commun	-923
roup	-924
ues	-925
▁respect	-926
ull	-927
▁wom	-928
▁gu	-929
af	-930
▁langu	-931
▁name	-932
▁etc	-933
au	-934
RB	-935
▁view	-936
▁National	-937
ock	-938
err	-939
▁spec	-940
▁without	-941
▁direct	-942
oint	-943
▁government	-944
▁poss	-945
ister	-946
▁information	-947
▁Mah	-948
▁look	-949
▁aff	-950
▁oper	-951
▁cond	-952
ination	-953
▁Mus	-954
▁gl	-955
▁much	-956
ros	-957
▁Par	-958
▁polic	-959
ince	-960
▁program	-961
▁read	-962
▁rev	-963
less	-964
▁del	-965
▁high	-966
▁sect	-967
stitut	-968
▁‘	-969
▁want	-970
▁important	-971
not	-972
▁human	-973
▁prev	-974
▁small	-975
▁means	-976
▁fac	-977
▁another	-978
reme	-979
ool	-980
blem	-981
orts	-982
ceed	-983
▁ty	-984
rol	-985
▁amount	-986
ici	-987
▁str	-988
ts	-989
▁gre	-990
▁within	-991
▁book	-992
▁social	-993
▁sign	-994
▁accord	-995
▁opp	-996
▁however	-997
▁che	-998
iel	-999
ai	-1000
▁mar	-1001
isions	-1002
▁ser	-1003
erg	-1004
▁tem	-1005
▁problem	-1006
▁avail	-1007
lement	-1008
▁bank	-1009
▁prof	-1010
ines	-1011
▁business	-1012
▁fun	-1013
▁come	-1014
▁stand	-1015
ider	-1016
▁incre	-1017
▁last	-1018
▁polit	-1019
▁proper	-1020
ime	-1021
▁body	-1022
▁par	-1023
▁stre	-1024
▁i	-1025
▁invest	-1026
▁cur	-1027
▁various	-1028
▁cult	-1029
▁relig	-1030
har	-1031
▁vis	-1032
▁lit	-1033
▁point	-1034
▁open	-1035
▁199	-1036
▁cle	-1037
ived	-1038
▁10	-1039
esh	-1040
▁fil	-1041
pr	-1042
▁ide	-1043
▁play	-1044
aving	-1045
▁large	-1046
crib	-1047
▁exper	-1048
ized	-1049
tt	-1050
ets	-1051
▁quest	-1052
▁..	-1053
▁happ	-1054
wards	-1055
▁Eng	-1056
▁employ	-1057
lam	-1058
▁education	-1059
▁sch	-1060
por	-1061
ected	-1062
▁think	-1063
han	-1064
▁group	-1065
ivid	-1066
▁show	-1067
▁High	-1068
▁dev	-1069
▁say	-1070
self	-1071
ains	-1072
▁cr	-1073
▁prom	-1074
arn	-1075
▁ple	-1076
▁real	-1077
▁soci	-1078
▁taken	-1079
reed	-1080
▁land	-1081
ought	-1082
▁assess	-1083
▁Muslim	-1084
▁times	-1085
▁cannot	-1086
ining	-1087
▁activ	-1088
▁today	-1089
▁elect	-1090
▁among	-1091
med	-1092
ram	-1093
ession	-1094
▁list	-1095
▁known	-1096
▁provided	-1097
asht	-1098
▁allow	-1099
▁move	-1100
ways	-1101
▁!	-1102
ended	-1103
▁income	-1104
▁estab	-1105
▁mind	-1106
ason	-1107
az	-1108
▁find	-1109
ense	-1110
▁non	-1111
▁prot	-1112
ulation	-1113
ari	-1114
▁ve	-1115
▁lo	-1116
cond	-1117
▁special	-1118
ternal	-1119
▁support	-1120
ically	-1121
▁result	-1122
▁...	-1123
▁company	-1124
hen	-1125
erred	-1126
▁15	-1127
ried	-1128
▁level	-1129
▁wind	-1130
▁Raj	-1131
▁Central	-1132
stand	-1133
itions	-1134
▁Ben	-1135
rial	-1136
▁fur	-1137
olution	-1138
liament	-1139
▁month	-1140
ize	-1141
▁going	-1142
▁rest	-1143
work	-1144
▁beh	-1145
▁members	-1146
ances	-1147
▁sci	-1148
ret	-1149
▁health	-1150
ves	-1151
▁hist	-1152
▁Shri	-1153
▁days	-1154
irc	-1155
ething	-1156
▁children	-1157
uss	-1158
▁language	-1159
▁pop	-1160
ization	-1161
rict	-1162
riend	-1163
ne	-1164
▁national	-1165
▁something	-1166
tal	-1167
▁Jud	-1168
icle	-1169
▁subject	-1170
▁give	-1171
▁four	-1172
▁lim	-1173
▁necess	-1174
▁less	-1175
▁old	-1176
▁12	-1177
ged	-1178
ption	-1179
▁ben	-1180
error	-1181
▁An	-1182
▁meet	-1183
▁11	-1184
▁Ass	-1185
▁bro	-1186
▁class	-1187
▁certain	-1188
▁policy	-1189
ledge	-1190
ternational	-1191
▁due	-1192
▁Ram	-1193
land	-1194
▁leg	-1195
ium	-1196
▁particular	-1197
hy	-1198
par	-1199
lished	-1200
▁pract	-1201
ased	-1202
▁succ	-1203
▁sk	-1204
▁available	-1205
cil	-1206
atic	-1207
▁further	-1208
ND	-1209
▁Rep	-1210
rop	-1211
ential	-1212
ately	-1213
▁{	-1214
ued	-1215
▁div	-1216
▁conn	-1217
eal	-1218
ability	-1219
▁OF	-1220
▁exist	-1221
▁dra	-1222
▁fund	-1223
▁}	-1224
▁—	-1225
here	-1226
▁death	-1227
▁common	-1228
▁cost	-1229
▁free	-1230
iron	-1231
▁friend	-1232
▁whether	-1233
000	-1234
▁comput	-1235
ug	-1236
ins	-1237
isation	-1238
▁head	-1239
▁Off	-1240
▁consider	-1241
ither	-1242
▁sit	-1243
ising	-1244
ES	-1245
▁accept	-1246
▁_	-1247
alf	-1248
ajor	-1249
ivil	-1250
▁regard	-1251
▁service	-1252
▁Ad	-1253
▁sche	-1254
section	-1255
▁Sing	-1256
▁countries	-1257
ks	-1258
▁hig	-1259
▁Brit	-1260
▁war	-1261
▁project	-1262
▁came	-1263
▁Man	-1264
ev	-1265
▁action	-1266
▁States	-1267
▁product	-1268
▁sent	-1269
▁control	-1270
ification	-1271
▁too	-1272
outh	-1273
ference	-1274
▁become	-1275
bs	-1276
pect	-1277
avan	-1278
inci	-1279
▁net	-1280
ator	-1281
ittee	-1282
▁Rs	-1283
▁Sup	-1284
▁individ	-1285
▁including	-1286
▁Dep	-1287
▁put	-1288
▁tax	-1289
ross	-1290
ode	-1291
▁self	-1292
▁economic	-1293
▁trad	-1294
▁object	-1295
▁met	-1296
ury	-1297
▁major	-1298
▁cases	-1299
▁whole	-1300
▁rul	-1301
▁services	-1302
▁provisions	-1303
▁tre	-1304
▁care	-1305
itted	-1306
▁women	-1307
oard	-1308
oss	-1309
▁therefore	-1310
jee	-1311
isl	-1312
▁since	-1313
▁matter	-1314
▁area	-1315
▁done	-1316
ering	-1317
▁family	-1318
▁individual	-1319
iversity	-1320
ateg	-1321
oney	-1322
ote	-1323
ministr	-1324
▁second	-1325
▁build	-1326
▁political	-1327
▁chang	-1328
▁charact	-1329
▁respons	-1330
▁Te	-1331
ouncil	-1332
▁upon	-1333
▁Gand	-1334
▁Supreme	-1335
ware	-1336
▁change	-1337
cing	-1338
port	-1339
na	-1340
ER	-1341
▁ask	-1342
▁vill	-1343
▁success	-1344
▁Del	-1345
▁men	-1346
▁having	-1347
▁capital	-1348
omp	-1349
▁Sc	-1350
duct	-1351
▁based	-1352
▁provide	-1353
▁const	-1354
▁food	-1355
▁keep	-1356
▁liter	-1357
uty	-1358
▁belie	-1359
▁poet	-1360
ala	-1361
▁according	-1362
▁Th	-1363
▁value	-1364
▁Islam	-1365
▁finan	-1366
ortun	-1367
▁society	-1368
▁plan	-1369
ructure	-1370
ger	-1371
▁far	-1372
of	-1373
.2	-1374
▁Parliament	-1375
otion	-1376
▁express	-1377
▁knowledge	-1378
idence	-1379
▁areas	-1380
▁init	-1381
▁ru	-1382
aim	-1383
gress	-1384
▁rele	-1385
▁Constitution	-1386
▁expl	-1387
ently	-1388
ield	-1389
ling	-1390
▁spir	-1391
artment	-1392
▁house	-1393
▁repres	-1394
▁best	-1395
▁circ	-1396
▁mil	-1397
▁nature	-1398
▁later	-1399
agement	-1400
▁left	-1401
▁date	-1402
▁eng	-1403
ify	-1404
▁making	-1405
▁Delhi	-1406
▁window	-1407
▁ele	-1408
▁sol	-1409
cl	-1410
ending	-1411
▁run	-1412
▁God	-1413
alk	-1414
▁market	-1415
pose	-1416
att	-1417
▁always	-1418
▁orig	-1419
ilities	-1420
eric	-1421
▁still	-1422
osed	-1423
▁few	-1424
▁benef	-1425
▁address	-1426
▁following	-1427
▁words	-1428
▁concern	-1429
▁vi	-1430
▁question	-1431
sel	-1432
▁di	-1433
cies	-1434
▁fail	-1435
soci	-1436
▁thus	-1437
▁application	-1438
▁el	-1439
▁five	-1440
▁198	-1441
ukher	-1442
▁reason	-1443
ples	-1444
▁sever	-1445
▁env	-1446
▁Bhavan	-1447
▁young	-1448
▁necessary	-1449
▁British	-1450
ma	-1451
urity	-1452
▁foreign	-1453
AT	-1454
▁data	-1455
ured	-1456
icult	-1457
ven	-1458
▁record	-1459
ukherjee	-1460
▁kind	-1461
▁mean	-1462
ems	-1463
▁never	-1464
▁though	-1465
▁mus	-1466
▁hold	-1467
▁away	-1468
▁full	-1469
▁held	-1470
ricult	-1471
▁diff	-1472
icer	-1473
aining	-1474
▁Rasht	-1475
ourse	-1476
ogn	-1477
chie	-1478
▁Gandhi	-1479
iqu	-1480
▁mill	-1481
▁don	-1482
ittle	-1483
▁heart	-1484
▁English	-1485
▁school	-1486
▁Singh	-1487
▁20	-1488
▁proceed	-1489
▁Gu	-1490
▁mater	-1491
▁thought	-1492
put	-1493
▁impro	-1494
▁spirit	-1495
ON	-1496
▁institut	-1497
▁196	-1498
ences	-1499
▁things	-1500
▁age	-1501
epend	-1502
▁sl	-1503
iding	-1504
▁feel	-1505
▁II	-1506
▁197	-1507
▁several	-1508
▁total	-1509
▁ann	-1510
▁light	-1511
▁growth	-1512
▁Hindi	-1513
▁required	-1514
▁Bengal	-1515
ope	-1516
ironment	-1517
rapati	-1518
▁Al	-1519
▁little	-1520
▁above	-1521
▁Hindu	-1522
▁deal	-1523
ories	-1524
▁sector	-1525
ior	-1526
▁money	-1527
▁perform	-1528
adesh	-1529
▁possible	-1530
▁bir	-1531
AR	-1532
▁meas	-1533
mes	-1534
▁mult	-1535
▁return	-1536
▁Rashtrapati	-1537
▁hard	-1538
thing	-1539
▁exam	-1540
▁sat	-1541
▁clear	-1542
▁report	-1543
▁press	-1544
▁air	-1545
▁financial	-1546
▁aut	-1547
▁Committee	-1548
▁Council	-1549
idd	-1550
emb	-1551
▁short	-1552
▁suff	-1553
▁post	-1554
▁achie	-1555
▁contrib	-1556
▁himself	-1557
▁others	-1558
▁local	-1559
▁stat	-1560
▁beg	-1561
▁Cong	-1562
▁towards	-1563
▁obs	-1564
▁16	-1565
iction	-1566
▁situ	-1567
▁Se	-1568
rent	-1569
▁Res	-1570
▁clause	-1571
ery	-1572
▁Q	-1573
▁gra	-1574
▁rese	-1575
▁transf	-1576
ience	-1577
▁function	-1578
▁once	-1579
ats	-1580
▁love	-1581
▁purpose	-1582
▁14	-1583
▁itself	-1584
▁x	-1585
▁tru	-1586
iving	-1587
▁Americ	-1588
raph	-1589
▁eas	-1590
eration	-1591
orn	-1592
▁thir	-1593
cribed	-1594
▁cred	-1595
▁industry	-1596
▁ens	-1597
▁plac	-1598
12	-1599
▁position	-1600
▁ord	-1601
ises	-1602
▁princi	-1603
itation	-1604
▁dise	-1605
▁turn	-1606
▁persons	-1607
▁near	-1608
▁nor	-1609
▁around	-1610
▁propos	-1611
▁relations	-1612
▁ident	-1613
▁priv	-1614
▁character	-1615
cious	-1616
▁administr	-1617
ours	-1618
bit	-1619
▁Or	-1620
▁Tr	-1621
▁195	-1622
▁occas	-1623
▁civil	-1624
ources	-1625
▁mess	-1626
▁es	-1627
▁general	-1628
▁material	-1629
1;	-1630
▁&#91;	-1631
ibility	-1632
egr	-1633
▁six	-1634
▁opportun	-1635
▁Congress	-1636
ication	-1637
▁production	-1638
▁nat	-1639
▁type	-1640
▁enc	-1641
▁international	-1642
▁represent	-1643
used	-1644
▁appoint	-1645
ember	-1646
▁either	-1647
▁understand	-1648
akes	-1649
ead	-1650
ison	-1651
ively	-1652
▁along	-1653
▁dom	-1654
▁RRB	-1655
▁phys	-1656
▁sing	-1657
ara	-1658
▁Law	-1659
▁streng	-1660
uro	-1661
▁complete	-1662
▁region	-1663
▁plant	-1664
▁cust	-1665
▁13	-1666
▁treat	-1667
▁next	-1668
▁ri	-1669
▁progress	-1670
ready	-1671
ocu	-1672
▁already	-1673
3;	-1674
▁&#93;	-1675
▁lab	-1676
▁pat	-1677
▁history	-1678
▁quality	-1679
▁decl	-1680
▁office	-1681
istry	-1682
▁home	-1683
come	-1684
▁referred	-1685
▁inn	-1686
▁Union	-1687
▁took	-1688
▁difficult	-1689
▁invol	-1690
akh	-1691
▁rate	-1692
ees	-1693
▁sum	-1694
▁Minister	-1695
▁000	-1696
EN	-1697
adi	-1698
▁New	-1699
▁25	-1700
▁recogn	-1701
ample	-1702
hing	-1703
ably	-1704
aint	-1705
▁course	-1706
ards	-1707
▁fa	-1708
imal	-1709
▁higher	-1710
reedom	-1711
ethod	-1712
▁ut	-1713
stitute	-1714
▁related	-1715
▁claim	-1716
selves	-1717
▁webs	-1718
▁flow	-1719
▁bring	-1720
▁why	-1721
ggest	-1722
ttp	-1723
▁http	-1724
▁research	-1725
▁bo	-1726
▁fut	-1727
▁file	-1728
▁better	-1729
▁property	-1730
sh	-1731
▁access	-1732
osp	-1733
▁ur	-1734
▁LRB	-1735
▁cal	-1736
▁ey	-1737
▁194	-1738
▁able	-1739
▁demand	-1740
▁abs	-1741
▁sw	-1742
ource	-1743
▁network	-1744
▁ground	-1745
igation	-1746
▁recomm	-1747
▁activities	-1748
rought	-1749
▁ver	-1750
▁pen	-1751
▁suggest	-1752
▁caus	-1753
▁might	-1754
umb	-1755
lu	-1756
▁method	-1757
els	-1758
▁agree	-1759
ann	-1760
oh	-1761
oura	-1762
itional	-1763
▁key	-1764
▁redu	-1765
▁side	-1766
erc	-1767
▁force	-1768
arat	-1769
▁equal	-1770
▁received	-1771
IN	-1772
▁ess	-1773
▁Bank	-1774
▁Ag	-1775
▁docu	-1776
▁seen	-1777
▁agricult	-1778
▁University	-1779
▁pet	-1780
most	-1781
ilar	-1782
▁mor	-1783
▁cause	-1784
arent	-1785
ony	-1786
▁cell	-1787
▁discuss	-1788
HE	-1789
▁occasion	-1790
AL	-1791
empt	-1792
▁select	-1793
▁implement	-1794
▁computer	-1795
gether	-1796
▁together	-1797
▁test	-1798
rodu	-1799
▁Reg	-1800
▁ill	-1801
▁strong	-1802
▁goods	-1803
▁proced	-1804
▁conv	-1805
▁ten	-1806
▁freedom	-1807
▁institutions	-1808
▁sal	-1809
▁Dr	-1810
▁17	-1811
▁Chi	-1812
▁working	-1813
▁authority	-1814
▁website	-1815
▁ant	-1816
▁rights	-1817
▁appear	-1818
▁Mr	-1819
amb	-1820
▁got	-1821
▁nation	-1822
imum	-1823
▁went	-1824
ta	-1825
▁unt	-1826
ship	-1827
abha	-1828
iver	-1829
atory	-1830
▁technology	-1831
▁Pl	-1832
▁30	-1833
AN	-1834
▁bre	-1835
▁super	-1836
itiz	-1837
▁big	-1838
▁modern	-1839
▁step	-1840
▁associ	-1841
▁detail	-1842
pecial	-1843
▁basis	-1844
rah	-1845
▁cop	-1846
▁often	-1847
▁future	-1848
ita	-1849
▁environment	-1850
▁z	-1851
▁started	-1852
aring	-1853
acity	-1854
▁try	-1855
▁problems	-1856
▁ce	-1857
▁conduct	-1858
▁farm	-1859
▁became	-1860
ration	-1861
▁gen	-1862
▁dest	-1863
▁initi	-1864
▁yet	-1865
▁Z	-1866
▁norm	-1867
▁matters	-1868
▁Af	-1869
▁determ	-1870
▁sym	-1871
▁thing	-1872
ension	-1873
▁scheme	-1874
▁integr	-1875
▁example	-1876
▁word	-1877
ened	-1878
lection	-1879
inary	-1880
▁party	-1881
▁written	-1882
eb	-1883
omes	-1884
▁House	-1885
ving	-1886
▁text	-1887
ruction	-1888
▁viol	-1889
istan	-1890
▁live	-1891
▁Department	-1892
ches	-1893
▁visit	-1894
▁security	-1895
ills	-1896
▁crit	-1897
▁relating	-1898
▁outs	-1899
▁similar	-1900
▁deb	-1901
aster	-1902
▁pub	-1903
▁Pradesh	-1904
medi	-1905
ached	-1906
▁design	-1907
cent	-1908
▁vol	-1909
ier	-1910
nic	-1911
▁imm	-1912
aper	-1913
▁mis	-1914
▁role	-1915
▁earli	-1916
istic	-1917
idered	-1918
▁students	-1919
▁mother	-1920
▁months	-1921
▁terms	-1922
▁close	-1923
uf	-1924
cut	-1925
▁entire	-1926
▁pot	-1927
▁conditions	-1928
▁movement	-1929
mitted	-1930
▁previous	-1931
▁Mad	-1932
▁pow	-1933
▁independ	-1934
▁PR	-1935
▁established	-1936
itive	-1937
▁energ	-1938
▁top	-1939
ke	-1940
ians	-1941
▁true	-1942
rael	-1943
▁blood	-1944
▁Serv	-1945
▁separ	-1946
ME	-1947
ched	-1948
▁App	-1949
udd	-1950
▁saf	-1951
riage	-1952
▁creat	-1953
▁please	-1954
▁considered	-1955
▁Chief	-1956
▁lib	-1957
ude	-1958
▁custom	-1959
▁link	-1960
▁member	-1961
acy	-1962
▁needs	-1963
▁Israel	-1964
▁brought	-1965
▁current	-1966
aries	-1967
▁field	-1968
▁terror	-1969
▁leaders	-1970
▁paid	-1971
ercial	-1972
imes	-1973
▁glob	-1974
▁line	-1975
mber	-1976
▁legal	-1977
▁Sec	-1978
aged	-1979
▁cro	-1980
ji	-1981
▁observ	-1982
▁official	-1983
ental	-1984
cell	-1985
▁mov	-1986
▁past	-1987
aps	-1988
▁THE	-1989
▁except	-1990
▁No	-1991
▁fel	-1992
▁Pol	-1993
▁ded	-1994
▁Sub	-1995
▁religious	-1996
amm	-1997
▁manner	-1998
rish	-1999
▁industrial	-2000
▁Chand	-2001
.1	-2002
pur	-2003
▁citiz	-2004
▁For	-2005
▁dou	-2006
▁collect	-2007
une	-2008
rast	-2009
▁personal	-2010
ront	-2011
▁share	-2012
▁sett	-2013
itor	-2014
▁fr	-2015
▁rule	-2016
▁sense	-2017
▁acqu	-2018
▁Euro	-2019
▁deep	-2020
▁require	-2021
▁scient	-2022
▁Ministry	-2023
sequ	-2024
▁ir	-2025
▁Govern	-2026
▁learn	-2027
▁mach	-2028
▁community	-2029
▁natural	-2030
▁living	-2031
allen	-2032
▁using	-2033
▁training	-2034
▁Art	-2035
▁democ	-2036
ek	-2037
▁assist	-2038
erve	-2039
urance	-2040
▁trade	-2041
▁taking	-2042
▁village	-2043
isd	-2044
▁subst	-2045
ms	-2046
atives	-2047
▁particip	-2048
▁vari	-2049
▁justice	-2050
oid	-2051
▁ful	-2052
ton	-2053
▁exec	-2054
▁create	-2055
▁decision	-2056
hold	-2057
▁Develop	-2058
▁energy	-2059
▁adop	-2060
▁story	-2061
▁Europe	-2062
ait	-2063
▁So	-2064
▁face	-2065
▁rules	-2066
▁soon	-2067
▁Section	-2068
urs	-2069
▁issue	-2070
▁pri	-2071
▁grant	-2072
eh	-2073
omb	-2074
▁million	-2075
▁study	-2076
oon	-2077
poses	-2078
.201	-2079
ina	-2080
▁compet	-2081
▁loss	-2082
unt	-2083
▁squ	-2084
▁undert	-2085
▁red	-2086
▁maint	-2087
▁early	-2088
ends	-2089
▁management	-2090
▁article	-2091
ief	-2092
ape	-2093
iminal	-2094
▁parts	-2095
▁forward	-2096
▁concerned	-2097
▁mag	-2098
atch	-2099
▁aud	-2100
action	-2101
ological	-2102
▁Mukherjee	-2103
▁credit	-2104
▁purposes	-2105
imate	-2106
▁specified	-2107
cri	-2108
▁father	-2109
▁passed	-2110
change	-2111
▁opens	-2112
▁hy	-2113
mission	-2114
▁Development	-2115
▁begin	-2116
ung	-2117
▁Muslims	-2118
▁establish	-2119
acher	-2120
eneral	-2121
▁Sw	-2122
IC	-2123
ali	-2124
▁provides	-2125
▁port	-2126
▁apply	-2127
IT	-2128
ane	-2129
ID	-2130
ama	-2131
▁Em	-2132
▁ans	-2133
▁bea	-2134
▁peace	-2135
▁greater	-2136
▁Courts	-2137
itness	-2138
▁institution	-2139
▁categ	-2140
ustice	-2141
▁religion	-2142
▁neg	-2143
▁provision	-2144
▁message	-2145
usion	-2146
▁United	-2147
▁External	-2148
ient	-2149
▁carry	-2150
▁lot	-2151
▁sou	-2152
OR	-2153
ler	-2154
ames	-2155
▁compl	-2156
▁Comp	-2157
▁24	-2158
ION	-2159
▁introdu	-2160
▁asked	-2161
krit	-2162
▁consum	-2163
▁population	-2164
ners	-2165
▁*	-2166
airs	-2167
illed	-2168
▁legisl	-2169
pri	-2170
▁disease	-2171
▁century	-2172
▁bra	-2173
▁tell	-2174
▁actually	-2175
▁And	-2176
▁developed	-2177
▁Ab	-2178
▁earlier	-2179
▁condition	-2180
▁building	-2181
▁trib	-2182
▁cast	-2183
▁193	-2184
▁influ	-2185
▁immedi	-2186
▁Pran	-2187
irl	-2188
▁really	-2189
▁Kh	-2190
▁la	-2191
▁soft	-2192
▁outside	-2193
go	-2194
line	-2195
vant	-2196
▁mass	-2197
▁charge	-2198
▁pun	-2199
▁remov	-2200
▁powers	-2201
▁experience	-2202
▁states	-2203
▁transfer	-2204
▁themselves	-2205
▁assessment	-2206
▁21	-2207
▁almost	-2208
▁include	-2209
isf	-2210
▁enter	-2211
▁bi	-2212
asing	-2213
▁Board	-2214
▁nothing	-2215
ani	-2216
htm	-2217
▁original	-2218
▁district	-2219
▁allowed	-2220
▁jur	-2221
▁Sche	-2222
▁ter	-2223
▁Div	-2224
▁appeal	-2225
▁culture	-2226
▁anything	-2227
▁city	-2228
▁Col	-2229
orpor	-2230
▁Sabha	-2231
rest	-2232
vey	-2233
▁Part	-2234
▁meeting	-2235
▁check	-2236
▁physical	-2237
▁payment	-2238
▁writing	-2239
▁tele	-2240
▁capacity	-2241
▁programme	-2242
▁exc	-2243
▁stage	-2244
▁Sy	-2245
uted	-2246
▁books	-2247
▁literature	-2248
ening	-2249
mit	-2250
▁medical	-2251
▁parties	-2252
ival	-2253
over	-2254
▁low	-2255
▁half	-2256
▁cho	-2257
▁ii	-2258
▁lay	-2259
▁prep	-2260
▁X	-2261
▁General	-2262
▁king	-2263
▁mention	-2264
ask	-2265
▁changes	-2266
fully	-2267
▁dr	-2268
▁Pre	-2269
▁till	-2270
▁bal	-2271
▁typ	-2272
inion	-2273
▁essential	-2274
▁Pranab	-2275
▁aim	-2276
▁Le	-2277
▁signific	-2278
▁news	-2279
▁Me	-2280
▁instru	-2281
▁ll	-2282
aya	-2283
▁duty	-2284
▁boy	-2285
▁gave	-2286
▁prim	-2287
emed	-2288
▁Republic	-2289
▁SC	-2290
▁spee	-2291
▁exerc	-2292
▁Mar	-2293
▁wide	-2294
▁lat	-2295
▁global	-2296
▁whose	-2297
chan	-2298
▁Cal	-2299
avour	-2300
▁resources	-2301
ects	-2302
▁earth	-2303
orrow	-2304
ulated	-2305
eed	-2306
ilt	-2307
▁lear	-2308
ush	-2309
▁fall	-2310
eral	-2311
▁fix	-2312
▁police	-2313
▁innov	-2314
▁challen	-2315
▁talk	-2316
▁Direct	-2317
▁attack	-2318
▁efforts	-2319
▁laws	-2320
itable	-2321
icient	-2322
▁Brah	-2323
▁transl	-2324
▁Bill	-2325
▁works	-2326
▁assessee	-2327
▁He	-2328
iddle	-2329
▁achieve	-2330
▁science	-2331
▁private	-2332
ousand	-2333
▁Justice	-2334
▁jo	-2335
▁22	-2336
▁ensure	-2337
▁situation	-2338
▁ap	-2339
▁bar	-2340
▁Jan	-2341
▁evidence	-2342
eness	-2343
bar	-2344
ctions	-2345
▁US	-2346
ada	-2347
▁rural	-2348
▁structure	-2349
▁single	-2350
▁thousand	-2351
▁issues	-2352
oot	-2353
▁vers	-2354
▁subs	-2355
▁Pun	-2356
▁woman	-2357
jab	-2358
124	-2359
▁Fin	-2360
▁leave	-2361
pir	-2362
enty	-2363
▁witness	-2364
ned	-2365
anskrit	-2366
▁sure	-2367
▁issued	-2368
▁products	-2369
range	-2370
124;	-2371
apter	-2372
▁&#124;	-2373
▁decided	-2374
▁Arab	-2375
▁treatment	-2376
▁Judge	-2377
▁cover	-2378
▁West	-2379
▁generally	-2380
▁san	-2381
▁univers	-2382
▁improve	-2383
▁satisf	-2384
▁profession	-2385
▁letter	-2386
▁award	-2387
▁50	-2388
ares	-2389
▁ever	-2390
▁job	-2391
▁teacher	-2392
▁pati	-2393
▁repl	-2394
itude	-2395
▁specific	-2396
men	-2397
▁son	-2398
▁indic	-2399
▁least	-2400
pecially	-2401
den	-2402
abad	-2403
▁increase	-2404
▁third	-2405
lo	-2406
tax	-2407
▁vide	-2408
▁continue	-2409
▁investment	-2410
ams	-2411
▁wr	-2412
▁fig	-2413
wise	-2414
estern	-2415
va	-2416
▁All	-2417
▁Apr	-2418
▁birth	-2419
rote	-2420
▁conscious	-2421
▁especially	-2422
eng	-2423
▁eight	-2424
▁Ph	-2425
aff	-2426
▁operation	-2427
▁notice	-2428
▁contact	-2429
anies	-2430
▁stop	-2431
▁anal	-2432
▁tour	-2433
▁procedure	-2434
br	-2435
osop	-2436
ones	-2437
▁won	-2438
▁obt	-2439
cient	-2440
▁created	-2441
ufact	-2442
IA	-2443
nam	-2444
▁inj	-2445
▁depos	-2446
▁providing	-2447
for	-2448
▁price	-2449
undred	-2450
IS	-2451
▁pain	-2452
▁judicial	-2453
▁makes	-2454
▁enough	-2455
▁encoura	-2456
▁belong	-2457
▁path	-2458
▁Leg	-2459
ots	-2460
▁sac	-2461
▁note	-2462
▁displ	-2463
▁23	-2464
icers	-2465
▁effective	-2466
▁proceedings	-2467
▁doing	-2468
anda	-2469
▁April	-2470
▁approach	-2471
augh	-2472
itary	-2473
overed	-2474
▁tree	-2475
▁serious	-2476
adem	-2477
▁poor	-2478
▁hundred	-2479
▁opportunity	-2480
▁Pan	-2481
▁Sanskrit	-2482
▁distrib	-2483
▁kept	-2484
▁log	-2485
▁govern	-2486
▁told	-2487
▁road	-2488
▁published	-2489
▁Pal	-2490
ators	-2491
▁somet	-2492
▁Re	-2493
▁wrote	-2494
▁meaning	-2495
▁26	-2496
▁Mahar	-2497
▁bur	-2498
▁contract	-2499
uary	-2500
▁circum	-2501
ique	-2502
ilosop	-2503
▁sil	-2504
▁economy	-2505
embly	-2506
▁Officer	-2507
▁sens	-2508
ging	-2509
▁IND	-2510
▁Techn	-2511
▁jurisd	-2512
▁vir	-2513
▁den	-2514
▁South	-2515
▁temple	-2516
▁hon	-2517
▁night	-2518
▁behalf	-2519
icles	-2520
itting	-2521
▁spread	-2522
ires	-2523
▁quite	-2524
▁administration	-2525
▁copy	-2526
▁pros	-2527
▁vict	-2528
▁doub	-2529
▁Commissioner	-2530
▁popular	-2531
estic	-2532
▁truth	-2533
▁mere	-2534
rect	-2535
bed	-2536
▁appropri	-2537
▁Bar	-2538
▁basic	-2539
ox	-2540
▁draw	-2541
ENT	-2542
▁En	-2543
▁Lord	-2544
▁seek	-2545
▁Trib	-2546
mir	-2547
ores	-2548
▁Legisl	-2549
▁Gur	-2550
aves	-2551
hood	-2552
▁opinion	-2553
▁manufact	-2554
▁error	-2555
val	-2556
▁front	-2557
▁faith	-2558
let	-2559
▁cut	-2560
▁write	-2561
▁ris	-2562
▁carried	-2563
face	-2564
▁stru	-2565
▁install	-2566
agar	-2567
▁across	-2568
▁harm	-2569
inate	-2570
▁lakh	-2571
▁Pak	-2572
▁forms	-2573
▁source	-2574
▁travel	-2575
my	-2576
hat	-2577
▁Co	-2578
▁coop	-2579
▁prior	-2580
▁below	-2581
▁search	-2582
▁answ	-2583
▁percent	-2584
▁Report	-2585
▁sound	-2586
▁parent	-2587
▁reform	-2588
iture	-2589
▁size	-2590
▁idea	-2591
vi	-2592
▁mot	-2593
▁plus	-2594
▁event	-2595
▁jour	-2596
▁emerg	-2597
▁crop	-2598
encies	-2599
▁prescribed	-2600
▁East	-2601
▁commercial	-2602
▁March	-2603
▁100	-2604
▁27	-2605
▁hands	-2606
▁foc	-2607
rist	-2608
▁comb	-2609
▁giving	-2610
▁usually	-2611
ili	-2612
▁Punjab	-2613
rug	-2614
ored	-2615
rastructure	-2616
▁speech	-2617
▁enj	-2618
▁river	-2619
▁relevant	-2620
▁practice	-2621
▁fast	-2622
▁girl	-2623
cle	-2624
▁petition	-2625
gest	-2626
▁Chair	-2627
▁failed	-2628
▁regular	-2629
▁stated	-2630
▁oil	-2631
▁Institute	-2632
▁importance	-2633
ift	-2634
know	-2635
▁jurisdiction	-2636
▁Mal	-2637
▁bran	-2638
▁until	-2639
endment	-2640
ump	-2641
▁coun	-2642
▁courts	-2643
▁places	-2644
▁facilities	-2645
▁Bi	-2646
▁kn	-2647
▁unf	-2648
▁laun	-2649
▁li	-2650
CT	-2651
▁prob	-2652
▁bill	-2653
utions	-2654
▁statement	-2655
▁und	-2656
▁reach	-2657
▁aspect	-2658
▁recommend	-2659
▁simple	-2660
▁31	-2661
▁felt	-2662
▁measures	-2663
▁Information	-2664
verse	-2665
▁dele	-2666
▁firm	-2667
▁sun	-2668
▁aware	-2669
ivity	-2670
racy	-2671
▁marriage	-2672
hib	-2673
▁sometimes	-2674
▁Pakistan	-2675
▁philosop	-2676
▁192	-2677
▁hope	-2678
▁criminal	-2679
body	-2680
▁citizens	-2681
by	-2682
aka	-2683
▁er	-2684
ex	-2685
▁dam	-2686
ulate	-2687
▁prevent	-2688
▁becomes	-2689
▁sex	-2690
▁accused	-2691
▁potential	-2692
▁agreement	-2693
arily	-2694
▁Governor	-2695
▁exchange	-2696
band	-2697
hest	-2698
ouses	-2699
▁existing	-2700
pal	-2701
▁space	-2702
gar	-2703
uly	-2704
gu	-2705
▁circumst	-2706
▁god	-2707
ights	-2708
▁novel	-2709
▁strength	-2710
▁bit	-2711
▁Afric	-2712
istration	-2713
dom	-2714
▁enjoy	-2715
▁prose	-2716
▁rather	-2717
▁says	-2718
▁mer	-2719
▁happy	-2720
▁central	-2721
▁adj	-2722
▁Cont	-2723
▁wife	-2724
IR	-2725
▁anim	-2726
▁comes	-2727
▁spiritual	-2728
▁request	-2729
orth	-2730
▁attempt	-2731
.0	-2732
avi	-2733
▁Krish	-2734
▁began	-2735
▁lower	-2736
▁constitution	-2737
aker	-2738
ously	-2739
▁trust	-2740
iry	-2741
▁disp	-2742
▁camp	-2743
adu	-2744
▁programmes	-2745
▁ep	-2746
▁followed	-2747
ava	-2748
▁room	-2749
het	-2750
▁punish	-2751
▁bes	-2752
▁groups	-2753
▁diss	-2754
▁benefit	-2755
▁brother	-2756
ender	-2757
▁heav	-2758
▁doct	-2759
▁poll	-2760
ules	-2761
▁activity	-2762
▁details	-2763
ume	-2764
▁whom	-2765
▁wrong	-2766
▁Public	-2767
▁film	-2768
▁qual	-2769
▁behind	-2770
▁particularly	-2771
haps	-2772
▁Prime	-2773
osition	-2774
▁responsible	-2775
▁increased	-2776
▁–	-2777
▁fair	-2778
▁bound	-2779
ables	-2780
▁gives	-2781
▁histor	-2782
▁addition	-2783
▁concept	-2784
▁fif	-2785
yond	-2786
▁final	-2787
▁max	-2788
▁believe	-2789
amental	-2790
▁forest	-2791
▁cultural	-2792
raft	-2793
▁existence	-2794
ancy	-2795
▁feed	-2796
▁deg	-2797
char	-2798
▁protection	-2799
▁appropriate	-2800
▁seven	-2801
▁mut	-2802
▁joint	-2803
▁judge	-2804
▁rich	-2805
▁stri	-2806
▁banks	-2807
▁beginning	-2808
▁Su	-2809
▁dig	-2810
▁song	-2811
▁Sa	-2812
▁host	-2813
▁stay	-2814
▁conver	-2815
ott	-2816
▁display	-2817
▁lost	-2818
▁category	-2819
ras	-2820
▁beyond	-2821
▁dire	-2822
nces	-2823
▁consist	-2824
▁limited	-2825
▁offence	-2826
▁Income	-2827
equ	-2828
ney	-2829
▁mom	-2830
▁win	-2831
ingu	-2832
▁mand	-2833
▁perhaps	-2834
▁led	-2835
▁setting	-2836
▁employment	-2837
▁American	-2838
▁der	-2839
▁schol	-2840
▁continu	-2841
▁projects	-2842
standing	-2843
kar	-2844
▁28	-2845
ificate	-2846
▁soul	-2847
▁unit	-2848
▁significant	-2849
istered	-2850
▁wall	-2851
▁occur	-2852
alty	-2853
utes	-2854
▁opt	-2855
▁Service	-2856
▁connect	-2857
▁Day	-2858
▁loan	-2859
▁Ma	-2860
enth	-2861
cutta	-2862
▁industries	-2863
▁mount	-2864
▁reference	-2865
unal	-2866
▁dy	-2867
▁Mu	-2868
▁lives	-2869
▁built	-2870
▁seed	-2871
▁Sp	-2872
AS	-2873
▁appl	-2874
▁born	-2875
▁Calcutta	-2876
iet	-2877
▁IN	-2878
▁limit	-2879
▁learning	-2880
▁circumstances	-2881
amed	-2882
▁emp	-2883
▁infrastructure	-2884
▁Har	-2885
▁status	-2886
▁relation	-2887
▁eyes	-2888
reg	-2889
uls	-2890
▁King	-2891
▁poetry	-2892
▁cy	-2893
▁broad	-2894
▁values	-2895
▁instead	-2896
▁getting	-2897
▁immediately	-2898
gy	-2899
io	-2900
▁Code	-2901
▁35	-2902
isters	-2903
▁ideas	-2904
▁Secret	-2905
▁systems	-2906
▁continued	-2907
▁device	-2908
be	-2909
ault	-2910
▁arbit	-2911
▁cross	-2912
▁saw	-2913
▁document	-2914
▁Lok	-2915
▁takes	-2916
▁mental	-2917
▁assistance	-2918
▁paper	-2919
▁agricultural	-2920
▁coming	-2921
use	-2922
▁warm	-2923
▁alone	-2924
▁crore	-2925
▁normal	-2926
sy	-2927
▁Sar	-2928
▁round	-2929
▁Ak	-2930
▁Pers	-2931
▁remain	-2932
▁Kash	-2933
▁expression	-2934
ban	-2935
▁accepted	-2936
▁music	-2937
ring	-2938
▁protect	-2939
▁TO	-2940
▁increasing	-2941
▁sus	-2942
▁enable	-2943
▁appointed	-2944
▁responsibility	-2945
▁emb	-2946
▁Acc	-2947
▁otherwise	-2948
▁2000	-2949
▁dedu	-2950
▁print	-2951
▁Budd	-2952
though	-2953
atures	-2954
anation	-2955
ober	-2956
ishes	-2957
▁drug	-2958
war	-2959
▁mechan	-2960
▁Cl	-2961
ades	-2962
▁sust	-2963
▁teach	-2964
▁north	-2965
▁transport	-2966
▁page	-2967
▁trial	-2968
amil	-2969
▁nar	-2970
iff	-2971
etic	-2972
▁autom	-2973
▁Christ	-2974
enditure	-2975
▁engine	-2976
▁pal	-2977
▁INDIA	-2978
▁user	-2979
▁active	-2980
▁ancient	-2981
▁strengt	-2982
▁officers	-2983
ruit	-2984
▁tou	-2985
▁proposed	-2986
▁dre	-2987
ograph	-2988
▁plants	-2989
▁strugg	-2990
▁arrest	-2991
▁functions	-2992
iful	-2993
▁Pur	-2994
▁arch	-2995
▁Gang	-2996
▁export	-2997
▁ways	-2998
▁appre	-2999
to	-3000
▁respond	-3001
ami	-3002
miss	-3003
lege	-3004
▁aver	-3005
▁goes	-3006
▁Indust	-3007
▁sty	-3008
▁purs	-3009
▁hosp	-3010
elling	-3011
▁Corpor	-3012
▁includes	-3013
▁$	-3014
▁Sur	-3015
▁har	-3016
▁Dist	-3017
▁else	-3018
▁memory	-3019
rary	-3020
▁pan	-3021
▁direction	-3022
asons	-3023
AY	-3024
▁radi	-3025
▁sn	-3026
▁although	-3027
▁observed	-3028
ze	-3029
▁unless	-3030
▁scale	-3031
▁Bomb	-3032
ene	-3033
▁fem	-3034
▁wanted	-3035
▁fire	-3036
▁ste	-3037
ulations	-3038
ole	-3039
hem	-3040
▁formed	-3041
▁officer	-3042
icro	-3043
▁perf	-3044
▁black	-3045
▁Technology	-3046
▁Kashmir	-3047
▁Centre	-3048
▁forces	-3049
abor	-3050
▁Ved	-3051
▁territ	-3052
▁mentioned	-3053
▁connection	-3054
duc	-3055
▁Med	-3056
▁ign	-3057
▁white	-3058
vention	-3059
▁friends	-3060
▁instrument	-3061
▁International	-3062
▁video	-3063
▁produce	-3064
▁Bal	-3065
▁attract	-3066
▁Guj	-3067
▁medic	-3068
▁violence	-3069
ucle	-3070
▁famous	-3071
▁consideration	-3072
▁review	-3073
▁consequ	-3074
▁selected	-3075
▁fixed	-3076
rim	-3077
▁companies	-3078
▁imag	-3079
▁animals	-3080
▁It	-3081
ellow	-3082
▁accounts	-3083
▁milk	-3084
▁ren	-3085
▁cele	-3086
▁presented	-3087
▁disci	-3088
▁minus	-3089
bol	-3090
▁hor	-3091
▁Prov	-3092
▁workers	-3093
umbai	-3094
▁languages	-3095
▁democracy	-3096
gn	-3097
uck	-3098
▁January	-3099
▁software	-3100
ilit	-3101
▁base	-3102
oke	-3103
▁twenty	-3104
▁coll	-3105
ley	-3106
▁Plan	-3107
▁pran	-3108
▁prepared	-3109
▁fear	-3110
▁partners	-3111
▁tool	-3112
rs	-3113
oted	-3114
▁arrange	-3115
abh	-3116
▁May	-3117
▁pack	-3118
▁Bombay	-3119
▁relationship	-3120
▁bad	-3121
▁Article	-3122
▁ge	-3123
▁Pat	-3124
▁labour	-3125
▁fre	-3126
attle	-3127
▁origin	-3128
▁America	-3129
where	-3130
▁mal	-3131
ellect	-3132
▁defin	-3133
▁imper	-3134
▁depend	-3135
▁refers	-3136
▁supply	-3137
▁fight	-3138
▁added	-3139
▁expenditure	-3140
▁week	-3141
▁funds	-3142
ograp	-3143
▁IT	-3144
▁sea	-3145
gment	-3146
▁break	-3147
▁image	-3148
▁correct	-3149
orld	-3150
▁receive	-3151
osis	-3152
▁Sat	-3153
▁hus	-3154
▁obl	-3155
▁included	-3156
iva	-3157
▁Sept	-3158
cer	-3159
▁multip	-3160
com	-3161
▁insp	-3162
▁types	-3163
▁standard	-3164
rick	-3165
▁task	-3166
▁Chapter	-3167
▁tar	-3168
▁longer	-3169
ext	-3170
▁scientific	-3171
▁clean	-3172
▁separate	-3173
▁extent	-3174
▁favour	-3175
▁consult	-3176
▁pict	-3177
anger	-3178
▁Assembly	-3179
▁्	-3180
html	-3181
▁summ	-3182
ini	-3183
▁speed	-3184
head	-3185
ikh	-3186
▁wish	-3187
▁purch	-3188
▁domestic	-3189
elfare	-3190
▁units	-3191
icit	-3192
▁attention	-3193
ED	-3194
▁sold	-3195
oor	-3196
▁Aug	-3197
▁indeed	-3198
▁documents	-3199
▁Ins	-3200
asa	-3201
▁wid	-3202
▁Dis	-3203
▁stra	-3204
▁moment	-3205
▁pranab	-3206
▁fort	-3207
▁beaut	-3208
▁dram	-3209
▁involved	-3210
PC	-3211
▁tur	-3212
▁advance	-3213
▁produced	-3214
NA	-3215
▁Com	-3216
▁tried	-3217
▁directly	-3218
▁pranabm	-3219
▁questions	-3220
▁pranabmukherjee	-3221
▁appe	-3222
▁occup	-3223
▁caused	-3224
RI	-3225
▁Oct	-3226
▁tit	-3227
▁Be	-3228
enced	-3229
▁Bang	-3230
rep	-3231
▁Cons	-3232
ensive	-3233
▁pred	-3234
▁vision	-3235
▁Expl	-3236
▁recent	-3237
▁employees	-3238
oms	-3239
uge	-3240
▁Bab	-3241
ule	-3242
▁answer	-3243
▁interests	-3244
▁secret	-3245
▁strateg	-3246
ying	-3247
▁Sri	-3248
▁mob	-3249
▁40	-3250
▁2005	-3251
▁rail	-3252
▁assets	-3253
▁intellect	-3254
▁stor	-3255
▁inform	-3256
cember	-3257
▁Chairman	-3258
▁standards	-3259
▁besides	-3260
aughter	-3261
stituted	-3262
▁accordance	-3263
▁World	-3264
▁green	-3265
▁exercise	-3266
▁technical	-3267
▁ago	-3268
▁pleas	-3269
▁performance	-3270
▁insurance	-3271
▁ww	-3272
▁adopted	-3273
▁steps	-3274
▁pie	-3275
▁June	-3276
▁tal	-3277
▁fold	-3278
▁www	-3279
anced	-3280
▁Mumbai	-3281
▁complex	-3282
ites	-3283
▁highest	-3284
▁doubt	-3285
▁revolution	-3286
utive	-3287
▁December	-3288
▁contribution	-3289
▁implementation	-3290
rant	-3291
▁Educ	-3292
▁prem	-3293
▁contained	-3294
gen	-3295
▁prop	-3296
▁heard	-3297
vere	-3298
▁dri	-3299
▁emph	-3300
▁media	-3301
hens	-3302
ratic	-3303
▁Tamil	-3304
▁quick	-3305
icy	-3306
ids	-3307
▁Utt	-3308
▁nom	-3309
▁risk	-3310
atever	-3311
la	-3312
▁Kal	-3313
▁2014	-3314
▁assign	-3315
oting	-3316
▁easy	-3317
▁substant	-3318
▁agriculture	-3319
▁husband	-3320
▁UN	-3321
▁Neh	-3322
▁Africa	-3323
iny	-3324
▁offer	-3325
▁middle	-3326
▁reached	-3327
onn	-3328
▁We	-3329
▁academ	-3330
▁Shah	-3331
▁Director	-3332
▁29	-3333
abled	-3334
earch	-3335
▁town	-3336
▁scre	-3337
▁beautiful	-3338
II	-3339
vest	-3340
▁minor	-3341
▁swe	-3342
▁tradition	-3343
▁=	-3344
▁laid	-3345
▁August	-3346
▁likely	-3347
▁looking	-3348
osing	-3349
▁September	-3350
▁32	-3351
ternet	-3352
▁quant	-3353
▁majority	-3354
▁whatever	-3355
add	-3356
▁frame	-3357
▁Krishna	-3358
▁gold	-3359
▁leading	-3360
▁species	-3361
icip	-3362
▁furn	-3363
▁Asia	-3364
que	-3365
▁Im	-3366
▁effort	-3367
▁command	-3368
▁pattern	-3369
▁2015	-3370
▁Nehru	-3371
▁influence	-3372
▁certificate	-3373
▁Tur	-3374
▁Author	-3375
▁weak	-3376
▁context	-3377
▁numbers	-3378
▁reasons	-3379
▁generation	-3380
▁October	-3381
▁additional	-3382
▁organisation	-3383
▁mail	-3384
▁average	-3385
▁connected	-3386
▁balance	-3387
▁policies	-3388
hra	-3389
▁nucle	-3390
▁distin	-3391
▁former	-3392
▁corpor	-3393
▁charges	-3394
▁military	-3395
▁costs	-3396
▁entit	-3397
▁educational	-3398
▁hours	-3399
▁regarding	-3400
ellig	-3401
▁Indians	-3402
▁egg	-3403
ground	-3404
▁stock	-3405
▁results	-3406
▁Net	-3407
▁bod	-3408
▁extra	-3409
▁Mem	-3410
▁focus	-3411
▁tri	-3412
ength	-3413
iment	-3414
▁Prof	-3415
▁temper	-3416
▁conflic	-3417
▁wel	-3418
▁util	-3419
▁orders	-3420
▁minimum	-3421
▁independence	-3422
nal	-3423
ager	-3424
▁This	-3425
▁inside	-3426
▁lack	-3427
▁cells	-3428
▁placed	-3429
▁farmers	-3430
▁largest	-3431
▁uns	-3432
▁vac	-3433
▁mode	-3434
▁Sam	-3435
▁guid	-3436
▁animal	-3437
▁Western	-3438
▁range	-3439
▁celebr	-3440
▁growing	-3441
▁fully	-3442
cription	-3443
izing	-3444
▁Program	-3445
▁terrorism	-3446
▁opportunities	-3447
road	-3448
▁model	-3449
dden	-3450
uration	-3451
ora	-3452
ATION	-3453
▁dark	-3454
▁threat	-3455
▁maximum	-3456
▁apart	-3457
▁phot	-3458
▁Palest	-3459
▁exceed	-3460
▁described	-3461
▁registered	-3462
▁patient	-3463
▁Sm	-3464
▁struggle	-3465
inated	-3466
▁south	-3467
▁fine	-3468
▁Judges	-3469
▁traditional	-3470
▁Ker	-3471
▁multi	-3472
▁victim	-3473
▁content	-3474
▁principle	-3475
▁affected	-3476
▁measure	-3477
▁consciousness	-3478
▁everything	-3479
-2	-3480
▁registration	-3481
▁adequ	-3482
▁Int	-3483
▁gri	-3484
▁hab	-3485
▁chem	-3486
▁deemed	-3487
AC	-3488
ysis	-3489
▁2013	-3490
▁vo	-3491
▁understanding	-3492
oll	-3493
▁cash	-3494
IL	-3495
▁dead	-3496
has	-3497
▁useful	-3498
▁promote	-3499
olute	-3500
▁sections	-3501
▁seems	-3502
▁Explanation	-3503
▁Cr	-3504
▁someone	-3505
▁creation	-3506
▁independent	-3507
ont	-3508
UR	-3509
▁send	-3510
▁team	-3511
ashtra	-3512
▁perman	-3513
▁asset	-3514
▁graph	-3515
▁emphas	-3516
atha	-3517
▁China	-3518
▁Hindus	-3519
▁rap	-3520
ading	-3521
▁July	-3522
▁ones	-3523
▁presence	-3524
▁2007	-3525
▁Adv	-3526
▁cooperation	-3527
oly	-3528
aught	-3529
▁Scheme	-3530
ti	-3531
▁Sch	-3532
▁youth	-3533
▁Fund	-3534
▁payable	-3535
ressed	-3536
▁developing	-3537
pped	-3538
▁rout	-3539
▁declared	-3540
▁Nove	-3541
▁benefits	-3542
▁authorities	-3543
▁located	-3544
▁associated	-3545
asc	-3546
resh	-3547
uman	-3548
▁eye	-3549
▁speak	-3550
▁views	-3551
▁facilit	-3552
▁primary	-3553
▁processing	-3554
umn	-3555
▁leader	-3556
▁symbol	-3557
▁style	-3558
▁CO	-3559
▁length	-3560
▁schemes	-3561
▁North	-3562
ensation	-3563
ields	-3564
▁Islamic	-3565
▁November	-3566
▁On	-3567
ateral	-3568
▁advice	-3569
▁Gandhiji	-3570
rown	-3571
▁fra	-3572
▁soil	-3573
▁advant	-3574
.3	-3575
▁Op	-3576
▁You	-3577
▁hot	-3578
▁desp	-3579
▁Tra	-3580
quiry	-3581
porary	-3582
onst	-3583
▁extended	-3584
▁Education	-3585
▁calc	-3586
▁magn	-3587
ression	-3588
▁speaking	-3589
▁alle	-3590
asth	-3591
▁iii	-3592
▁initial	-3593
▁NA	-3594
▁virt	-3595
▁drink	-3596
▁Division	-3597
irm	-3598
▁sup	-3599
inery	-3600
▁Uttar	-3601
▁default	-3602
▁stories	-3603
▁hospital	-3604
▁construction	-3605
EE	-3606
rid	-3607
iciency	-3608
with	-3609
▁sudden	-3610
▁difference	-3611
OS	-3612
▁reve	-3613
oga	-3614
▁wait	-3615
▁reserv	-3616
▁extreme	-3617
▁machine	-3618
▁penalty	-3619
▁Tag	-3620
ishn	-3621
overy	-3622
▁larger	-3623
▁ball	-3624
ipt	-3625
uff	-3626
▁files	-3627
▁reflect	-3628
▁examination	-3629
ayan	-3630
omen	-3631
ography	-3632
▁80	-3633
▁expressed	-3634
▁divine	-3635
▁sentence	-3636
▁San	-3637
order	-3638
▁interp	-3639
iles	-3640
ching	-3641
▁needed	-3642
▁sale	-3643
▁Civil	-3644
▁objective	-3645
▁principles	-3646
▁successful	-3647
▁fest	-3648
▁remember	-3649
▁chann	-3650
▁sle	-3651
uties	-3652
▁collection	-3653
idy	-3654
rene	-3655
▁block	-3656
▁annual	-3657
▁committed	-3658
aily	-3659
ifying	-3660
▁resident	-3661
▁save	-3662
▁Pand	-3663
▁fulf	-3664
oo	-3665
▁ult	-3666
▁running	-3667
▁storage	-3668
▁Corporation	-3669
▁Trans	-3670
▁thinking	-3671
▁grand	-3672
iter	-3673
▁Conference	-3674
▁introduced	-3675
▁Hy	-3676
▁cat	-3677
▁01	-3678
▁shown	-3679
▁Feb	-3680
▁enact	-3681
▁wealth	-3682
illing	-3683
▁names	-3684
▁IS	-3685
▁announ	-3686
▁2006	-3687
ula	-3688
dra	-3689
uled	-3690
▁skin	-3691
▁60	-3692
dule	-3693
aded	-3694
arant	-3695
ipur	-3696
▁Bhag	-3697
▁rise	-3698
ey	-3699
▁Chandra	-3700
ional	-3701
▁namely	-3702
enior	-3703
▁shows	-3704
▁centre	-3705
▁parents	-3706
itis	-3707
▁item	-3708
▁lic	-3709
▁covered	-3710
▁levels	-3711
▁extend	-3712
▁2008	-3713
▁appreci	-3714
▁Dh	-3715
▁Gh	-3716
▁danger	-3717
▁contains	-3718
icate	-3719
▁operations	-3720
▁191	-3721
apers	-3722
arma	-3723
▁AND	-3724
▁throughout	-3725
▁upd	-3726
▁commit	-3727
▁merely	-3728
▁weight	-3729
enue	-3730
icated	-3731
▁poems	-3732
▁Tax	-3733
▁1961	-3734
▁villages	-3735
▁walk	-3736
▁England	-3737
iciary	-3738
▁finally	-3739
ops	-3740
▁Spe	-3741
▁ideal	-3742
▁ON	-3743
ague	-3744
▁Research	-3745
roll	-3746
▁Roy	-3747
▁dispos	-3748
▁played	-3749
tion	-3750
▁Tribunal	-3751
▁constant	-3752
pper	-3753
▁Secretary	-3754
▁Kum	-3755
▁lines	-3756
▁bow	-3757
▁female	-3758
▁slow	-3759
▁scholars	-3760
▁Management	-3761
▁Maharashtra	-3762
▁expected	-3763
▁publication	-3764
adh	-3765
ocation	-3766
▁unique	-3767
▁temples	-3768
▁surface	-3769
▁Iran	-3770
▁District	-3771
usive	-3772
▁card	-3773
▁rain	-3774
▁vital	-3775
▁relief	-3776
▁Mag	-3777
▁bed	-3778
▁ship	-3779
▁contem	-3780
▁impact	-3781
▁remark	-3782
▁hence	-3783
▁cand	-3784
force	-3785
▁pray	-3786
▁changed	-3787
een	-3788
▁Germ	-3789
▁Excell	-3790
▁session	-3791
▁variety	-3792
▁friendly	-3793
resp	-3794
▁sem	-3795
▁site	-3796
▁entry	-3797
▁frequ	-3798
▁worship	-3799
▁resolution	-3800
aches	-3801
▁series	-3802
▁department	-3803
ube	-3804
light	-3805
cience	-3806
▁studies	-3807
▁anti	-3808
▁easily	-3809
ING	-3810
▁judges	-3811
▁Finance	-3812
▁entitled	-3813
▁susp	-3814
▁System	-3815
▁flu	-3816
▁veh	-3817
▁2002	-3818
▁raised	-3819
▁square	-3820
▁element	-3821
▁Bas	-3822
ruary	-3823
▁worth	-3824
▁shares	-3825
▁reading	-3826
▁Not	-3827
▁prosper	-3828
▁articles	-3829
▁promotion	-3830
uit	-3831
ript	-3832
▁ready	-3833
▁unity	-3834
cribe	-3835
uation	-3836
▁prepar	-3837
aji	-3838
▁desire	-3839
▁morning	-3840
▁fundamental	-3841
ray	-3842
▁equip	-3843
word	-3844
verty	-3845
▁Tagore	-3846
▁AT	-3847
▁Dev	-3848
▁cou	-3849
eties	-3850
▁critic	-3851
yan	-3852
▁Kerala	-3853
▁applications	-3854
▁poverty	-3855
▁Rules	-3856
▁duties	-3857
▁valid	-3858
▁engaged	-3859
▁February	-3860
rated	-3861
▁gets	-3862
▁looked	-3863
▁individuals	-3864
anes	-3865
aging	-3866
enses	-3867
rows	-3868
▁Pe	-3869
lands	-3870
▁Fore	-3871
▁defined	-3872
▁electric	-3873
▁philosophy	-3874
▁Ah	-3875
ighb	-3876
oured	-3877
▁cere	-3878
▁remains	-3879
▁Air	-3880
ahar	-3881
oph	-3882
▁online	-3883
▁elements	-3884
▁communication	-3885
▁items	-3886
CC	-3887
▁removal	-3888
abilities	-3889
▁European	-3890
▁190	-3891
▁Madh	-3892
▁altern	-3893
omy	-3894
▁greet	-3895
▁keeping	-3896
▁organization	-3897
▁War	-3898
▁pref	-3899
▁convey	-3900
▁enterpr	-3901
▁delay	-3902
▁acts	-3903
▁code	-3904
▁medium	-3905
▁receipt	-3906
pees	-3907
▁sacr	-3908
▁trying	-3909
▁PRES	-3910
▁feeling	-3911
▁foot	-3912
▁daily	-3913
▁neighb	-3914
▁Rec	-3915
▁Char	-3916
▁expect	-3917
ilateral	-3918
▁Rev	-3919
▁internal	-3920
▁pure	-3921
▁chief	-3922
▁excell	-3923
▁incident	-3924
▁excl	-3925
▁Nar	-3926
▁Val	-3927
▁facts	-3928
▁saying	-3929
▁nations	-3930
▁Mo	-3931
▁color	-3932
▁filed	-3933
olid	-3934
▁establishment	-3935
▁rapid	-3936
▁target	-3937
▁Sir	-3938
▁nut	-3939
▁board	-3940
▁moral	-3941
▁discipl	-3942
▁quar	-3943
▁cultiv	-3944
▁Authority	-3945
▁regional	-3946
RA	-3947
▁Ur	-3948
▁tend	-3949
▁points	-3950
inet	-3951
ero	-3952
IV	-3953
aken	-3954
▁fert	-3955
▁Bihar	-3956
▁dischar	-3957
▁adequate	-3958
▁probably	-3959
▁teachers	-3960
▁sav	-3961
▁incl	-3962
reprene	-3963
▁convers	-3964
ga	-3965
sych	-3966
▁distribution	-3967
▁mainly	-3968
▁remove	-3969
▁Policy	-3970
▁affect	-3971
▁external	-3972
omet	-3973
heduled	-3974
▁leaves	-3975
uries	-3976
▁feet	-3977
▁compon	-3978
osh	-3979
▁Nep	-3980
▁integral	-3981
▁requires	-3982
▁male	-3983
▁withdra	-3984
▁avoid	-3985
▁prison	-3986
▁Gujarat	-3987
▁pressure	-3988
▁suit	-3989
▁turned	-3990
▁defence	-3991
▁eat	-3992
▁rare	-3993
▁staff	-3994
aja	-3995
▁Rel	-3996
▁impl	-3997
▁Amendment	-3998
▁master	-3999
▁safety	-4000
▁divided	-4001
▁subsequ	-4002
▁Karn	-4003
▁tiss	-4004
▁degree	-4005
▁granted	-4006
▁learned	-4007
oti	-4008
▁fee	-4009
▁causes	-4010
▁methods	-4011
▁absolute	-4012
▁literary	-4013
erative	-4014
▁opening	-4015
▁Governments	-4016
ken	-4017
ivery	-4018
▁Prot	-4019
vious	-4020
▁Panch	-4021
▁aspects	-4022
▁Judicial	-4023
aksh	-4024
atma	-4025
▁Can	-4026
▁failure	-4027
▁distance	-4028
▁intellig	-4029
▁moon	-4030
▁table	-4031
▁agency	-4032
▁election	-4033
▁universal	-4034
▁She	-4035
iting	-4036
ronic	-4037
▁capt	-4038
▁expand	-4039
▁suc	-4040
BI	-4041
lex	-4042
aviour	-4043
▁powerful	-4044
▁schools	-4045
▁practices	-4046
▁suggested	-4047
▁mur	-4048
▁welfare	-4049
ests	-4050
istics	-4051
▁36	-4052
eless	-4053
oming	-4054
▁vast	-4055
▁2001	-4056
▁Guru	-4057
▁Services	-4058
ogle	-4059
▁actual	-4060
▁Account	-4061
▁nuclear	-4062
una	-4063
onse	-4064
▁contain	-4065
▁gas	-4066
▁fresh	-4067
▁option	-4068
▁volunt	-4069
▁academic	-4070
▁bear	-4071
▁confident	-4072
▁veget	-4073
▁belief	-4074
▁impr	-4075
▁rock	-4076
essing	-4077
▁fields	-4078
▁minister	-4079
▁bri	-4080
▁pil	-4081
▁requirements	-4082
etail	-4083
▁Bharat	-4084
▁insects	-4085
▁president	-4086
after	-4087
▁root	-4088
ja	-4089
aug	-4090
▁pra	-4091
▁shape	-4092
▁version	-4093
oud	-4094
▁tonn	-4095
▁completed	-4096
▁web	-4097
ricket	-4098
▁discussion	-4099
▁gone	-4100
▁repe	-4101
▁cities	-4102
▁construct	-4103
▁bond	-4104
▁factors	-4105
▁daughter	-4106
▁named	-4107
▁offered	-4108
▁chemical	-4109
▁complaint	-4110
▁2012	-4111
▁input	-4112
▁km	-4113
▁Rama	-4114
▁fish	-4115
▁heavy	-4116
ferences	-4117
▁association	-4118
india	-4119
rance	-4120
ousing	-4121
▁meant	-4122
▁resol	-4123
▁script	-4124
▁mid	-4125
lease	-4126
▁destro	-4127
▁Ge	-4128
chand	-4129
▁famil	-4130
▁esc	-4131
▁bab	-4132
▁trou	-4133
▁argu	-4134
▁highly	-4135
rate	-4136
▁Mon	-4137
cript	-4138
▁caste	-4139
▁succeed	-4140
▁sides	-4141
▁events	-4142
▁substantial	-4143
ped	-4144
▁neither	-4145
▁innovation	-4146
▁positive	-4147
▁deduction	-4148
▁intellectual	-4149
hab	-4150
▁Akbar	-4151
▁server	-4152
anas	-4153
▁Aust	-4154
▁encourage	-4155
▁Where	-4156
▁repeal	-4157
artments	-4158
▁follows	-4159
enture	-4160
▁confidence	-4161
▁bat	-4162
▁flag	-4163
▁maintain	-4164
▁lived	-4165
▁excess	-4166
▁33	-4167
▁dial	-4168
▁treated	-4169
▁reality	-4170
▁strengthen	-4171
▁partnership	-4172
▁songs	-4173
actions	-4174
▁clearly	-4175
▁sectors	-4176
cher	-4177
▁miss	-4178
▁wishes	-4179
imately	-4180
▁diseases	-4181
▁administrative	-4182
▁door	-4183
▁beauty	-4184
▁figure	-4185
▁punishment	-4186
▁Jap	-4187
▁estim	-4188
▁newsp	-4189
▁decisions	-4190
aign	-4191
mosp	-4192
asthan	-4193
▁serve	-4194
lying	-4195
▁1999	-4196
▁died	-4197
▁late	-4198
co	-4199
▁Kol	-4200
▁buy	-4201
▁voice	-4202
▁cru	-4203
▁dim	-4204
▁Work	-4205
▁knew	-4206
▁Himal	-4207
▁Bengali	-4208
▁Palestin	-4209
▁distingu	-4210
▁dated	-4211
▁bodies	-4212
▁id	-4213
athy	-4214
▁cold	-4215
▁returned	-4216
▁machinery	-4217
▁urban	-4218
▁Mahatma	-4219
▁compensation	-4220
▁ST	-4221
▁aw	-4222
▁borrow	-4223
▁profit	-4224
▁families	-4225
▁Bl	-4226
-201	-4227
▁safe	-4228
▁appears	-4229
▁pleasure	-4230
ils	-4231
▁amongst	-4232
▁planning	-4233
▁click	-4234
respond	-4235
▁believed	-4236
▁response	-4237
▁worked	-4238
▁delivery	-4239
▁rank	-4240
izations	-4241
▁obvious	-4242
▁investigation	-4243
urate	-4244
▁abroad	-4245
▁Di	-4246
▁unc	-4247
▁thank	-4248
▁output	-4249
▁permanent	-4250
▁atmosp	-4251
▁carrying	-4252
▁Google	-4253
▁branch	-4254
▁determined	-4255
ows	-4256
▁Soci	-4257
▁army	-4258
▁mutual	-4259
▁season	-4260
▁station	-4261
▁34	-4262
▁dry	-4263
▁creating	-4264
▁Legislative	-4265
▁adult	-4266
▁rupees	-4267
rav	-4268
▁attend	-4269
▁psych	-4270
▁At	-4271
▁fal	-4272
▁joy	-4273
▁Khan	-4274
▁nearly	-4275
▁tom	-4276
▁wild	-4277
▁accident	-4278
▁sleep	-4279
▁hero	-4280
▁wood	-4281
▁Russ	-4282
▁liqu	-4283
▁draft	-4284
▁mix	-4285
▁prec	-4286
▁hearing	-4287
▁Excellency	-4288
▁candid	-4289
▁dealing	-4290
▁grass	-4291
▁proved	-4292
▁petitioner	-4293
udget	-4294
▁agreed	-4295
▁passing	-4296
▁agencies	-4297
▁conflict	-4298
▁sufficient	-4299
▁hur	-4300
▁arri	-4301
▁identity	-4302
cast	-4303
▁experi	-4304
▁Kar	-4305
▁sort	-4306
▁recommended	-4307
▁goal	-4308
rehens	-4309
▁counter	-4310
▁micro	-4311
▁suitable	-4312
▁Des	-4313
ifest	-4314
▁join	-4315
▁Princi	-4316
▁happened	-4317
▁ordinary	-4318
▁doctor	-4319
ales	-4320
isms	-4321
tenance	-4322
▁agg	-4323
▁enem	-4324
▁thereof	-4325
▁reduced	-4326
▁reports	-4327
▁negative	-4328
▁concl	-4329
▁officials	-4330
▁correspond	-4331
ira	-4332
▁Buddh	-4333
ologies	-4334
▁prices	-4335
▁features	-4336
▁professional	-4337
eria	-4338
ming	-4339
▁Open	-4340
▁Rajya	-4341
▁unable	-4342
▁sand	-4343
▁watch	-4344
▁disput	-4345
▁Assam	-4346
▁imprison	-4347
▁reasonable	-4348
rupt	-4349
▁Nav	-4350
ception	-4351
▁colour	-4352
▁constituted	-4353
cip	-4354
▁Ira	-4355
▁mist	-4356
▁leadership	-4357
▁box	-4358
stitu	-4359
▁notes	-4360
▁appointment	-4361
▁45	-4362
▁instruct	-4363
▁BC	-4364
▁fat	-4365
erted	-4366
▁cook	-4367
▁recommendations	-4368
▁shr	-4369
▁launched	-4370
▁recently	-4371
▁applicable	-4372
▁completely	-4373
▁assum	-4374
vert	-4375
▁reject	-4376
▁Project	-4377
▁critical	-4378
wal	-4379
▁Sah	-4380
▁numer	-4381
arian	-4382
▁guarant	-4383
▁Rajasthan	-4384
▁advantage	-4385
▁supported	-4386
ae	-4387
▁breed	-4388
▁Associ	-4389
▁applied	-4390
▁compr	-4391
▁stone	-4392
▁happen	-4393
elines	-4394
▁title	-4395
▁motion	-4396
.4	-4397
▁MS	-4398
rust	-4399
▁Moh	-4400
▁ang	-4401
▁College	-4402
▁unl	-4403
▁crops	-4404
▁holding	-4405
▁interesting	-4406
apt	-4407
▁fit	-4408
ourage	-4409
▁mouth	-4410
▁initiatives	-4411
▁If	-4412
▁School	-4413
▁instance	-4414
▁iv	-4415
▁lad	-4416
▁latter	-4417
aul	-4418
▁latest	-4419
▁entreprene	-4420
ura	-4421
▁seem	-4422
▁Andhra	-4423
▁sustain	-4424
▁hour	-4425
ications	-4426
eks	-4427
iling	-4428
itect	-4429
phone	-4430
▁elected	-4431
asm	-4432
▁His	-4433
▁PRO	-4434
▁governance	-4435
cel	-4436
▁Qu	-4437
ataka	-4438
▁elig	-4439
▁entered	-4440
▁Iraq	-4441
▁choose	-4442
▁surround	-4443
achal	-4444
▁materials	-4445
ply	-4446
▁leaf	-4447
▁solar	-4448
-1	-4449
▁poem	-4450
▁Organ	-4451
▁inner	-4452
ofindia	-4453
EL	-4454
▁Speaker	-4455
▁parliament	-4456
grat	-4457
IDENT	-4458
▁politics	-4459
▁Him	-4460
▁centres	-4461
▁Official	-4462
▁approved	-4463
▁sanction	-4464
▁Administr	-4465
▁Programme	-4466
ps	-4467
era	-4468
▁rates	-4469
▁trees	-4470
▁democratic	-4471
▁historical	-4472
▁fruit	-4473
▁spent	-4474
▁standing	-4475
OL	-4476
▁pip	-4477
▁mobile	-4478
hel	-4479
▁Ay	-4480
▁Lim	-4481
▁remained	-4482
iers	-4483
pective	-4484
▁damage	-4485
▁participation	-4486
▁star	-4487
ertain	-4488
▁concent	-4489
▁sources	-4490
oj	-4491
itch	-4492
rang	-4493
rench	-4494
▁Elect	-4495
▁obst	-4496
▁aid	-4497
▁drawn	-4498
▁explo	-4499
▁characters	-4500
▁Party	-4501
▁senior	-4502
▁privile	-4503
▁released	-4504
ties	-4505
inter	-4506
▁moved	-4507
atically	-4508
▁deposit	-4509
▁register	-4510
▁picture	-4511
ARD	-4512
bal	-4513
ius	-4514
▁Red	-4515
▁congrat	-4516
▁release	-4517
▁achieved	-4518
▁universities	-4519
ika	-4520
mark	-4521
▁honour	-4522
▁complain	-4523
▁undertaking	-4524
▁hear	-4525
▁legislation	-4526
lal	-4527
illi	-4528
odes	-4529
▁game	-4530
▁perfect	-4531
AG	-4532
▁fram	-4533
▁Yoga	-4534
▁surv	-4535
ittees	-4536
udi	-4537
▁00	-4538
▁Ham	-4539
▁Kumar	-4540
▁relative	-4541
isition	-4542
▁eth	-4543
▁ende	-4544
▁exact	-4545
▁curren	-4546
isations	-4547
▁accordingly	-4548
▁driv	-4549
▁volume	-4550
▁sell	-4551
▁touch	-4552
▁users	-4553
▁false	-4554
▁subjects	-4555
▁background	-4556
▁2003	-4557
▁appell	-4558
▁campaign	-4559
▁mission	-4560
▁priority	-4561
rel	-4562
▁banking	-4563
▁analysis	-4564
▁greetings	-4565
▁gard	-4566
▁Independ	-4567
tered	-4568
uel	-4569
ervation	-4570
▁teaching	-4571
▁75	-4572
board	-4573
▁removed	-4574
▁plays	-4575
cean	-4576
ondon	-4577
▁debt	-4578
▁judgment	-4579
▁drugs	-4580
▁ability	-4581
▁territory	-4582
jud	-4583
pping	-4584
▁charged	-4585
▁recorded	-4586
▁grad	-4587
▁mort	-4588
▁pick	-4589
key	-4590
▁189	-4591
▁reb	-4592
ented	-4593
▁folk	-4594
▁monitor	-4595
▁constitutional	-4596
▁Ac	-4597
▁ban	-4598
▁facility	-4599
▁didn	-4600
▁Langu	-4601
▁PRESIDENT	-4602
ka	-4603
▁phase	-4604
▁Company	-4605
▁advoc	-4606
▁London	-4607
▁houses	-4608
▁moving	-4609
▁married	-4610
▁Mun	-4611
▁amb	-4612
▁proport	-4613
▁elections	-4614
▁shap	-4615
aks	-4616
▁bott	-4617
▁journey	-4618
▁marg	-4619
ulating	-4620
▁reduce	-4621
▁situated	-4622
▁functioning	-4623
▁destroy	-4624
▁purchase	-4625
▁transform	-4626
▁Jew	-4627
▁gain	-4628
▁theory	-4629
▁sitting	-4630
▁proposal	-4631
arati	-4632
release	-4633
▁maintenance	-4634
ym	-4635
▁struct	-4636
▁Internet	-4637
▁approval	-4638
▁formal	-4639
▁profits	-4640
DA	-4641
iber	-4642
▁Nag	-4643
detail	-4644
▁refer	-4645
▁surpr	-4646
▁citizen	-4647
▁Up	-4648
▁rad	-4649
▁weeks	-4650
▁choice	-4651
teen	-4652
▁SCC	-4653
▁expenses	-4654
▁prosperity	-4655
isc	-4656
▁Ro	-4657
▁iron	-4658
▁nine	-4659
▁none	-4660
▁demonst	-4661
▁37	-4662
▁cam	-4663
▁Sikh	-4664
▁huge	-4665
▁weap	-4666
▁birds	-4667
▁sugar	-4668
▁notification	-4669
▁spl	-4670
ayana	-4671
ifice	-4672
▁sole	-4673
▁eleph	-4674
▁compar	-4675
iring	-4676
▁Assist	-4677
▁Ann	-4678
▁enhan	-4679
▁changing	-4680
the	-4681
▁2004	-4682
▁waste	-4683
▁remote	-4684
▁tonnes	-4685
▁awareness	-4686
thern	-4687
▁crime	-4688
▁opened	-4689
▁challenges	-4690
▁dream	-4691
▁Schedule	-4692
▁colle	-4693
▁factor	-4694
▁conducted	-4695
▁objectives	-4696
▁manufacture	-4697
▁Sind	-4698
▁dispute	-4699
▁password	-4700
▁solution	-4701
▁pollution	-4702
▁commission	-4703
▁Ka	-4704
▁Sal	-4705
▁amend	-4706
▁accomp	-4707
▁attach	-4708
▁thirty	-4709
▁letters	-4710
ishing	-4711
▁classes	-4712
▁regions	-4713
▁challenge	-4714
▁outl	-4715
▁records	-4716
▁maintained	-4717
▁description	-4718
▁Abd	-4719
▁irr	-4720
▁Bose	-4721
▁plat	-4722
▁column	-4723
▁cry	-4724
rence	-4725
▁defend	-4726
▁committee	-4727
▁coal	-4728
▁breat	-4729
▁effects	-4730
ET	-4731
mon	-4732
▁2011	-4733
▁sought	-4734
▁2009	-4735
▁subt	-4736
▁email	-4737
▁noted	-4738
▁healthy	-4739
▁Christian	-4740
▁engineering	-4741
▁grown	-4742
iveness	-4743
▁format	-4744
▁helped	-4745
▁Special	-4746
RO	-4747
▁Ra	-4748
umer	-4749
▁Karnataka	-4750
anya	-4751
▁comment	-4752
▁atmosphere	-4753
▁communities	-4754
nel	-4755
hern	-4756
utory	-4757
▁pill	-4758
▁Ganga	-4759
▁track	-4760
▁survey	-4761
▁climate	-4762
▁submitted	-4763
otic	-4764
-2018	-4765
▁phone	-4766
▁consists	-4767
omic	-4768
▁Ash	-4769
▁List	-4770
▁stood	-4771
▁dign	-4772
▁student	-4773
▁Agricult	-4774
▁obtained	-4775
▁principal	-4776
.5	-4777
RL	-4778
issa	-4779
▁dece	-4780
▁Nepal	-4781
▁wat	-4782
▁Proced	-4783
▁architect	-4784
oe	-4785
▁Stand	-4786
▁attached	-4787
astic	-4788
▁hair	-4789
▁Mission	-4790
▁scientists	-4791
▁Aff	-4792
orial	-4793
▁config	-4794
EM	-4795
▁east	-4796
▁ment	-4797
▁pert	-4798
▁served	-4799
▁substance	-4800
ille	-4801
▁188	-4802
▁fed	-4803
iform	-4804
▁weather	-4805
▁devotion	-4806
▁Commercial	-4807
rical	-4808
▁restrict	-4809
▁brain	-4810
▁squared	-4811
▁ble	-4812
essions	-4813
▁Members	-4814
▁collabor	-4815
HA	-4816
▁writer	-4817
▁operating	-4818
ester	-4819
jection	-4820
▁wonder	-4821
▁Env	-4822
▁acid	-4823
▁suffering	-4824
▁affairs	-4825
set	-4826
ankar	-4827
iments	-4828
▁pending	-4829
▁equipment	-4830
ij	-4831
pta	-4832
ghal	-4833
▁Gov	-4834
▁evol	-4835
▁absence	-4836
▁Jaw	-4837
▁gar	-4838
▁bringing	-4839
▁offences	-4840
olly	-4841
▁yield	-4842
▁Office	-4843
osure	-4844
▁habit	-4845
▁Austral	-4846
▁attitude	-4847
▁comprehens	-4848
▁uses	-4849
orthern	-4850
ordinate	-4851
▁courage	-4852
EC	-4853
▁Wh	-4854
vision	-4855
▁brief	-4856
▁decades	-4857
ads	-4858
▁settlement	-4859
▁Group	-4860
▁Health	-4861
▁decide	-4862
▁transferred	-4863
▁2016	-4864
▁resource	-4865
▁execution	-4866
aman	-4867
ocol	-4868
▁Def	-4869
▁translation	-4870
▁rob	-4871
inite	-4872
▁River	-4873
▁Social	-4874
▁processes	-4875
ghan	-4876
▁Pet	-4877
▁west	-4878
▁inaug	-4879
▁resist	-4880
▁Jain	-4881
▁efficient	-4882
▁bul	-4883
▁store	-4884
▁cricket	-4885
▁bilateral	-4886
imb	-4887
▁die	-4888
▁welcome	-4889
▁simpl	-4890
▁Orissa	-4891
▁fellow	-4892
▁revenue	-4893
▁Va	-4894
▁rice	-4895
▁everyone	-4896
▁Car	-4897
▁arm	-4898
▁lies	-4899
▁currency	-4900
▁IP	-4901
▁Kan	-4902
▁Per	-4903
▁Science	-4904
▁emotion	-4905
▁environmental	-4906
▁piece	-4907
▁imprisonment	-4908
▁disputes	-4909
▁joined	-4910
▁greatest	-4911
▁manufacturing	-4912
ni	-4913
▁ourselves	-4914
▁Pen	-4915
▁Environment	-4916
▁adjust	-4917
▁expert	-4918
▁medicine	-4919
▁scope	-4920
▁afford	-4921
▁starting	-4922
▁Mahab	-4923
▁battle	-4924
▁Insurance	-4925
▁dan	-4926
iced	-4927
lies	-4928
▁Park	-4929
▁heat	-4930
ogue	-4931
▁gains	-4932
holders	-4933
▁smaller	-4934
▁advanced	-4935
▁thousands	-4936
▁Vis	-4937
ett	-4938
gypt	-4939
▁Add	-4940
urities	-4941
▁impart	-4942
▁reported	-4943
▁extension	-4944
ammu	-4945
▁URL	-4946
▁earn	-4947
▁Child	-4948
▁audit	-4949
▁despite	-4950
▁recognised	-4951
▁eld	-4952
ibilities	-4953
▁location	-4954
▁Das	-4955
▁shared	-4956
▁becoming	-4957
▁designed	-4958
▁Ne	-4959
▁Nan	-4960
▁marketing	-4961
ested	-4962
▁Chrom	-4963
▁Egypt	-4964
▁Jammu	-4965
▁channel	-4966
ifications	-4967
▁executive	-4968
▁proceeding	-4969
▁looks	-4970
▁evening	-4971
▁division	-4972
▁Procedure	-4973
xy	-4974
▁indig	-4975
▁commitment	-4976
hile	-4977
▁187	-4978
anges	-4979
▁helps	-4980
▁rivers	-4981
▁capable	-4982
▁behaviour	-4983
▁185	-4984
▁crow	-4985
oved	-4986
▁spot	-4987
▁signed	-4988
▁amendment	-4989
aled	-4990
▁proof	-4991
▁actions	-4992
▁1961-2018	-4993
▁Ant	-4994
icious	-4995
▁severe	-4996
▁flowers	-4997
▁Commun	-4998
ricts	-4999
erring	-5000
▁unknow	-5001
▁drive	-5002
▁conclud	-5003
roc	-5004
▁Pra	-5005
▁commod	-5006
▁contempt	-5007
▁festival	-5008
▁Association	-5009
aling	-5010
▁Subhas	-5011
▁Lt	-5012
▁My	-5013
aced	-5014
▁Bel	-5015
▁Sard	-5016
▁minutes	-5017
▁formation	-5018
rog	-5019
apur	-5020
▁similarly	-5021
▁permission	-5022
withstanding	-5023
astern	-5024
▁deals	-5025
▁consumer	-5026
▁possession	-5027
▁Ob	-5028
iled	-5029
▁Port	-5030
ruption	-5031
arth	-5032
▁installed	-5033
odh	-5034
ips	-5035
▁44	-5036
▁lawy	-5037
▁equally	-5038
▁temperature	-5039
▁Gaz	-5040
▁stream	-5041
▁manifest	-5042
▁Bad	-5043
inent	-5044
▁zero	-5045
DU	-5046
▁kil	-5047
▁enforce	-5048
▁43	-5049
▁dynam	-5050
▁inval	-5051
▁friendship	-5052
oral	-5053
▁500	-5054
▁discl	-5055
▁Madras	-5056
▁straight	-5057
hance	-5058
icted	-5059
▁paral	-5060
▁mostly	-5061
▁defe	-5062
▁Reserve	-5063
▁pointed	-5064
▁Ali	-5065
▁arising	-5066
aram	-5067
▁Bah	-5068
▁pregn	-5069
▁liquid	-5070
▁calls	-5071
▁dia	-5072
▁sev	-5073
▁vit	-5074
▁myst	-5075
abinet	-5076
▁portion	-5077
▁reforms	-5078
▁eligible	-5079
▁multiple	-5080
view	-5081
▁Police	-5082
▁compared	-5083
▁implemented	-5084
▁Mod	-5085
▁blue	-5086
▁match	-5087
▁fertil	-5088
▁sexual	-5089
▁acquired	-5090
▁branches	-5091
▁Hyder	-5092
▁girls	-5093
▁platform	-5094
▁identified	-5095
▁dance	-5096
▁felicit	-5097
▁assigned	-5098
▁mountain	-5099
▁performed	-5100
▁band	-5101
▁upper	-5102
▁Independence	-5103
▁ax	-5104
▁hyd	-5105
▁Society	-5106
▁visited	-5107
▁disk	-5108
iation	-5109
▁griev	-5110
▁union	-5111
▁secure	-5112
▁normally	-5113
▁Lib	-5114
▁oblig	-5115
▁trend	-5116
▁Divine	-5117
▁folder	-5118
▁appeared	-5119
▁interpret	-5120
▁Afghan	-5121
▁commence	-5122
▁customer	-5123
▁Assessing	-5124
▁forth	-5125
▁poets	-5126
istrate	-5127
▁skills	-5128
agh	-5129
▁marked	-5130
▁journal	-5131
▁partner	-5132
▁coast	-5133
▁improvement	-5134
▁mir	-5135
ranath	-5136
▁Middle	-5137
▁disapp	-5138
▁tissue	-5139
▁organizations	-5140
▁distinct	-5141
▁42	-5142
uous	-5143
▁186	-5144
▁Mark	-5145
▁aims	-5146
▁prime	-5147
▁filled	-5148
▁mandap	-5149
▁Affairs	-5150
rad	-5151
▁Rail	-5152
▁narrow	-5153
▁communal	-5154
bon	-5155
omin	-5156
▁2010	-5157
▁loans	-5158
▁chance	-5159
▁screen	-5160
▁satisfied	-5161
iance	-5162
▁jail	-5163
▁budget	-5164
▁preced	-5165
▁examples	-5166
▁initiative	-5167
▁amp	-5168
inces	-5169
▁deleg	-5170
▁divid	-5171
▁kinds	-5172
▁possess	-5173
▁railway	-5174
▁electricity	-5175
oes	-5176
▁Jag	-5177
▁Prem	-5178
▁colon	-5179
▁immediate	-5180
esty	-5181
▁overall	-5182
president	-5183
▁announced	-5184
presidentofindia	-5185
▁Men	-5186
▁cow	-5187
▁hop	-5188
▁absor	-5189
▁prosec	-5190
▁Israeli	-5191
▁Jawahar	-5192
▁organized	-5193
hara	-5194
idge	-5195
▁Kab	-5196
▁fifty	-5197
▁delight	-5198
▁offices	-5199
▁represents	-5200
▁48	-5201
rees	-5202
▁Ter	-5203
▁Mand	-5204
▁evil	-5205
▁Member	-5206
▁simply	-5207
▁deliver	-5208
▁centuries	-5209
ST	-5210
amet	-5211
▁Nadu	-5212
▁wants	-5213
▁Deputy	-5214
▁enhance	-5215
▁equality	-5216
▁imposs	-5217
ithm	-5218
under	-5219
▁bone	-5220
▁respective	-5221
amin	-5222
roud	-5223
▁seemed	-5224
▁discharge	-5225
▁90	-5226
▁Bin	-5227
▁wise	-5228
▁cloth	-5229
▁radio	-5230
▁collected	-5231
▁foundation	-5232
▁alternative	-5233
▁train	-5234
▁beings	-5235
▁discussed	-5236
▁judiciary	-5237
icon	-5238
ulty	-5239
▁Your	-5240
▁Bangl	-5241
aration	-5242
▁distur	-5243
▁billion	-5244
▁evolution	-5245
OU	-5246
▁sick	-5247
▁height	-5248
▁SH	-5249
▁syn	-5250
▁doesn	-5251
▁orient	-5252
▁recognition	-5253
▁02	-5254
▁conce	-5255
▁plaint	-5256
▁unp	-5257
▁Home	-5258
▁French	-5259
▁Limited	-5260
▁Nations	-5261
▁finance	-5262
▁employee	-5263
▁attrib	-5264
▁insect	-5265
▁containing	-5266
▁limits	-5267
▁prejud	-5268
▁exports	-5269
▁transaction	-5270
▁ec	-5271
ensions	-5272
▁Rights	-5273
▁exists	-5274
▁visible	-5275
▁incorpor	-5276
▁tea	-5277
▁Babu	-5278
▁Nature	-5279
▁imposed	-5280
▁framework	-5281
hus	-5282
atio	-5283
ping	-5284
osite	-5285
▁Houses	-5286
▁considerable	-5287
onal	-5288
▁traff	-5289
▁Ministers	-5290
ohn	-5291
ette	-5292
▁eggs	-5293
▁pursu	-5294
▁Ed	-5295
▁audio	-5296
conomic	-5297
▁career	-5298
▁figures	-5299
▁movements	-5300
ila	-5301
stood	-5302
▁sight	-5303
minent	-5304
▁western	-5305
▁liability	-5306
▁AIR	-5307
▁killed	-5308
▁governments	-5309
elled	-5310
▁runs	-5311
▁blind	-5312
▁stands	-5313
▁detailed	-5314
▁properly	-5315
▁instruments	-5316
16	-5317
pat	-5318
▁Language	-5319
▁outstanding	-5320
▁pul	-5321
▁upgr	-5322
▁Brahm	-5323
▁guard	-5324
▁dog	-5325
▁cave	-5326
▁technologies	-5327
▁hardly	-5328
▁vehicle	-5329
oring	-5330
▁Vice	-5331
▁rent	-5332
▁claims	-5333
▁downlo	-5334
▁composed	-5335
▁intended	-5336
▁household	-5337
▁personality	-5338
fort	-5339
otton	-5340
▁....	-5341
▁university	-5342
ris	-5343
▁raise	-5344
▁initiated	-5345
ESS	-5346
▁seeking	-5347
▁extremely	-5348
iy	-5349
▁bird	-5350
▁fourth	-5351
▁organised	-5352
▁selection	-5353
▁Dem	-5354
▁Emp	-5355
antic	-5356
▁council	-5357
shi	-5358
▁cra	-5359
▁org	-5360
▁comprehensive	-5361
▁Aud	-5362
▁transp	-5363
▁creative	-5364
▁agent	-5365
▁amended	-5366
▁opposition	-5367
mar	-5368
▁depends	-5369
▁Palestinian	-5370
itual	-5371
ansion	-5372
▁sweet	-5373
▁entirely	-5374
back	-5375
▁Sect	-5376
▁arms	-5377
▁unknown	-5378
▁directed	-5379
hent	-5380
room	-5381
▁ast	-5382
▁apparent	-5383
▁competent	-5384
aste	-5385
irst	-5386
oses	-5387
oples	-5388
▁negoti	-5389
dess	-5390
▁minds	-5391
▁sympt	-5392
▁customers	-5393
▁undertaken	-5394
▁interested	-5395
▁regulations	-5396
▁upt	-5397
▁guidelines	-5398
▁integrated	-5399
▁Dur	-5400
▁Lal	-5401
▁lie	-5402
▁districts	-5403
▁availability	-5404
▁double	-5405
▁thereafter	-5406
▁Tel	-5407
▁ahead	-5408
▁bright	-5409
▁closed	-5410
▁suddenly	-5411
▁Do	-5412
▁mel	-5413
ulatory	-5414
▁obtain	-5415
▁employed	-5416
▁70	-5417
gent	-5418
isis	-5419
essor	-5420
▁remed	-5421
▁promoting	-5422
▁organisations	-5423
▁anyone	-5424
▁telephone	-5425
▁directions	-5426
▁Inf	-5427
inger	-5428
right	-5429
▁Self	-5430
clause	-5431
▁informed	-5432
▁fell	-5433
inating	-5434
▁Sardar	-5435
▁arbitration	-5436
▁distinguished	-5437
AM	-5438
▁Bus	-5439
▁shop	-5440
▁stamp	-5441
▁offers	-5442
▁liberal	-5443
▁imperial	-5444
▁Hyderabad	-5445
▁phen	-5446
mn	-5447
erce	-5448
hered	-5449
▁admitted	-5450
alg	-5451
ica	-5452
▁theme	-5453
▁allowance	-5454
▁facilitate	-5455
otes	-5456
▁Power	-5457
▁incur	-5458
▁supreme	-5459
▁Scheduled	-5460
▁corporate	-5461
▁witnesses	-5462
▁Bangladesh	-5463
sc	-5464
▁sin	-5465
▁Panchay	-5466
▁sacrifice	-5467
▁unw	-5468
iders	-5469
▁John	-5470
▁deeply	-5471
▁enabled	-5472
▁quickly	-5473
anath	-5474
▁Inter	-5475
plom	-5476
▁Sun	-5477
king	-5478
▁Lab	-5479
▁skill	-5480
▁conven	-5481
▁conference	-5482
▁impossible	-5483
ux	-5484
▁Pri	-5485
▁Urdu	-5486
▁kill	-5487
▁shar	-5488
▁Eastern	-5489
▁investig	-5490
▁currently	-5491
▁proportion	-5492
anta	-5493
▁race	-5494
▁horse	-5495
▁involve	-5496
ien	-5497
▁Maj	-5498
▁1947	-5499
▁couple	-5500
▁demands	-5501
▁markets	-5502
▁objects	-5503
▁instructions	-5504
▁felicitations	-5505
14	-5506
rat	-5507
▁115	-5508
idden	-5509
▁playing	-5510
aph	-5511
▁Hon	-5512
inding	-5513
▁myself	-5514
▁unfortun	-5515
▁belonging	-5516
▁continues	-5517
▁arrangement	-5518
akti	-5519
▁describ	-5520
▁leaving	-5521
▁Mahabhar	-5522
AD	-5523
▁Yes	-5524
▁core	-5525
▁discrim	-5526
▁Legislature	-5527
AB	-5528
eum	-5529
▁To	-5530
▁renew	-5531
▁pension	-5532
▁Criminal	-5533
▁du	-5534
▁1956	-5535
▁eval	-5536
ployment	-5537
▁procedures	-5538
unch	-5539
▁labor	-5540
▁finding	-5541
▁conclusion	-5542
▁39	-5543
▁Vishn	-5544
▁sacred	-5545
▁compound	-5546
▁mechanism	-5547
▁personnel	-5548
▁contributions	-5549
▁acknow	-5550
▁Swami	-5551
▁prove	-5552
▁slight	-5553
▁awarded	-5554
▁counsel	-5555
▁ca	-5556
oration	-5557
▁kingdom	-5558
▁partial	-5559
▁prevail	-5560
▁prosecution	-5561
ammad	-5562
▁spect	-5563
oken	-5564
▁Fed	-5565
▁diet	-5566
ourses	-5567
▁drama	-5568
▁proud	-5569
▁happens	-5570
▁thoughts	-5571
asi	-5572
uable	-5573
▁acting	-5574
▁housing	-5575
▁electronic	-5576
▁flat	-5577
▁Univers	-5578
▁grounds	-5579
▁invalid	-5580
▁statutory	-5581
utt	-5582
othes	-5583
▁Foreign	-5584
▁certainly	-5585
▁appearance	-5586
ird	-5587
rew	-5588
▁Ltd	-5589
hetic	-5590
▁Pres	-5591
ih	-5592
▁AS	-5593
atab	-5594
going	-5595
▁para	-5596
▁pret	-5597
urally	-5598
▁aspir	-5599
▁toler	-5600
▁render	-5601
mer	-5602
izes	-5603
organ	-5604
▁1998	-5605
▁differences	-5606
▁transactions	-5607
anj	-5608
aces	-5609
▁upto	-5610
▁emphasis	-5611
▁intelligence	-5612
.2014	-5613
▁span	-5614
▁Chait	-5615
▁steel	-5616
▁addressed	-5617
▁efficiency	-5618
▁requirement	-5619
▁raw	-5620
▁exped	-5621
▁Principal	-5622
▁estimated	-5623
▁improving	-5624
▁definition	-5625
mb	-5626
▁lev	-5627
▁Allah	-5628
nan	-5629
▁feature	-5630
▁showing	-5631
▁Vir	-5632
▁Supp	-5633
▁deliber	-5634
▁improved	-5635
▁Protection	-5636
▁Parliamentary	-5637
▁pages	-5638
▁Second	-5639
▁Assistant	-5640
uv	-5641
asw	-5642
hand	-5643
▁elim	-5644
▁fees	-5645
▁liable	-5646
▁explained	-5647
▁religions	-5648
▁Jawaharlal	-5649
EP	-5650
▁Post	-5651
▁uncon	-5652
TER	-5653
uli	-5654
arya	-5655
▁Cap	-5656
.2015	-5657
▁arrived	-5658
▁uniform	-5659
▁understood	-5660
▁commencement	-5661
▁motor	-5662
▁exclud	-5663
.6	-5664
gments	-5665
▁Awards	-5666
▁enacted	-5667
▁dedicated	-5668
fall	-5669
▁Ang	-5670
▁infection	-5671
▁intention	-5672
▁respectively	-5673
▁AD	-5674
ears	-5675
wing	-5676
▁determination	-5677
▁propag	-5678
▁peoples	-5679
▁whenever	-5680
▁happiness	-5681
yal	-5682
rosy	-5683
ruits	-5684
▁desert	-5685
▁repeated	-5686
▁38	-5687
osen	-5688
▁Bur	-5689
erate	-5690
encing	-5691
▁ritual	-5692
▁Finan	-5693
▁inquiry	-5694
▁quantity	-5695
ena	-5696
▁doll	-5697
▁seeds	-5698
▁masses	-5699
▁covering	-5700
▁Committees	-5701
▁effectively	-5702
▁08	-5703
oles	-5704
ror	-5705
▁What	-5706
▁thor	-5707
▁Human	-5708
▁libert	-5709
▁remaining	-5710
▁terrorist	-5711
▁constitute	-5712
▁Sum	-5713
▁alt	-5714
▁sad	-5715
ingly	-5716
▁definite	-5717
anging	-5718
▁emergency	-5719
▁Az	-5720
cend	-5721
▁poly	-5722
▁sequ	-5723
▁delete	-5724
▁victims	-5725
▁arrested	-5726
agers	-5727
riages	-5728
▁plans	-5729
▁center	-5730
▁writers	-5731
rut	-5732
abet	-5733
iverse	-5734
▁admin	-5735
▁murder	-5736
▁disposal	-5737
▁humanity	-5738
LE	-5739
umin	-5740
▁Nat	-5741
▁vig	-5742
▁drop	-5743
▁Water	-5744
▁authent	-5745
▁consent	-5746
▁tomorrow	-5747
▁representative	-5748
che	-5749
▁49	-5750
▁roads	-5751
▁launch	-5752
▁specif	-5753
▁Brahmin	-5754
ny	-5755
▁bact	-5756
▁Award	-5757
▁reply	-5758
▁spite	-5759
▁Pandit	-5760
▁inspir	-5761
▁suffer	-5762
▁inspired	-5763
▁practical	-5764
▁rend	-5765
▁Press	-5766
▁outer	-5767
▁string	-5768
▁Control	-5769
▁Germany	-5770
▁contemporary	-5771
kata	-5772
opal	-5773
▁1996	-5774
▁Pras	-5775
▁floor	-5776
▁knows	-5777
▁remind	-5778
▁Security	-5779
▁consumption	-5780
elve	-5781
▁arrang	-5782
▁seeing	-5783
▁dismiss	-5784
▁phenomen	-5785
▁65	-5786
▁Chen	-5787
▁showed	-5788
▁derived	-5789
▁settings	-5790
ota	-5791
alam	-5792
while	-5793
▁lif	-5794
anish	-5795
eries	-5796
ensity	-5797
▁Laksh	-5798
▁solid	-5799
▁tools	-5800
unction	-5801
▁illust	-5802
▁recognized	-5803
▁sustainable	-5804
IF	-5805
▁fill	-5806
▁Persian	-5807
▁lect	-5808
▁millions	-5809
▁convention	-5810
▁difficulty	-5811
▁Dal	-5812
iliar	-5813
▁Invest	-5814
▁papers	-5815
▁recovery	-5816
▁expansion	-5817
▁enemy	-5818
▁flood	-5819
isher	-5820
▁empt	-5821
▁hind	-5822
▁Madhya	-5823
▁compass	-5824
▁tot	-5825
▁Force	-5826
▁herit	-5827
▁accompan	-5828
▁indirect	-5829
norm	-5830
▁DNA	-5831
▁Territ	-5832
▁tender	-5833
▁twelve	-5834
▁trading	-5835
▁pu	-5836
enous	-5837
▁Saty	-5838
▁cart	-5839
▁hill	-5840
▁First	-5841
▁inflam	-5842
▁update	-5843
▁cool	-5844
▁armed	-5845
▁guidance	-5846
eer	-5847
▁maybe	-5848
▁owner	-5849
▁border	-5850
▁respondent	-5851
▁baby	-5852
▁complic	-5853
▁compuls	-5854
▁gradually	-5855
▁bag	-5856
▁ratio	-5857
▁Mother	-5858
▁deposits	-5859
▁enterprise	-5860
▁mos	-5861
▁tub	-5862
▁lose	-5863
▁Buddha	-5864
▁forget	-5865
hibition	-5866
▁traffic	-5867
▁strategy	-5868
▁introduction	-5869
▁successfully	-5870
top	-5871
▁Gl	-5872
▁Ban	-5873
▁rub	-5874
ciation	-5875
▁sister	-5876
▁stages	-5877
▁settled	-5878
▁investors	-5879
ashing	-5880
▁heritage	-5881
ooth	-5882
▁rid	-5883
▁Exec	-5884
▁There	-5885
PS	-5886
▁Mount	-5887
▁chrom	-5888
▁approx	-5889
▁Training	-5890
▁computing	-5891
▁voluntary	-5892
▁irrigation	-5893
▁difficulties	-5894
CE	-5895
aur	-5896
▁forests	-5897
gor	-5898
iary	-5899
▁pig	-5900
uddin	-5901
▁York	-5902
▁occurs	-5903
▁evident	-5904
▁consultation	-5905
egu	-5906
▁superior	-5907
▁legislative	-5908
▁Est	-5909
▁One	-5910
▁Vishnu	-5911
▁regarded	-5912
▁southern	-5913
owed	-5914
▁lik	-5915
▁MSME	-5916
▁quiet	-5917
▁meetings	-5918
▁arrangements	-5919
▁tribal	-5920
▁cos	-5921
▁ego	-5922
▁hom	-5923
rafts	-5924
uting	-5925
▁vess	-5926
▁Binoy	-5927
▁replace	-5928
▁talking	-5929
operative	-5930
CI	-5931
▁tro	-5932
ander	-5933
▁garden	-5934
▁owners	-5935
▁prompt	-5936
unk	-5937
▁ille	-5938
▁paras	-5939
▁injury	-5940
▁attacks	-5941
▁chapter	-5942
▁numerous	-5943
▁subsequent	-5944
oned	-5945
▁Att	-5946
ificial	-5947
▁crisis	-5948
▁partition	-5949
▁Convention	-5950
▁Industrial	-5951
gery	-5952
▁sky	-5953
▁patri	-5954
▁trained	-5955
▁educated	-5956
▁continuous	-5957
arh	-5958
tery	-5959
▁Tri	-5960
icians	-5961
▁strike	-5962
▁immense	-5963
▁manager	-5964
▁involving	-5965
▁legs	-5966
icipal	-5967
▁stead	-5968
raction	-5969
▁whereas	-5970
▁Afghanistan	-5971
▁ID	-5972
▁Japan	-5973
▁layer	-5974
wan	-5975
▁CON	-5976
▁Rab	-5977
▁load	-5978
ivered	-5979
▁abnorm	-5980
▁widely	-5981
▁discussions	-5982
▁transmission	-5983
CH	-5984
riya	-5985
▁But	-5986
icide	-5987
▁thick	-5988
▁digital	-5989
UL	-5990
▁era	-5991
▁shel	-5992
▁holds	-5993
▁ocean	-5994
▁stick	-5995
▁trouble	-5996
▁Chaitanya	-5997
ilty	-5998
endra	-5999
▁fuel	-6000
▁guide	-6001
▁messages	-6002
▁Financial	-6003
asty	-6004
inct	-6005
orous	-6006
▁Gupta	-6007
▁accom	-6008
entions	-6009
▁acquisition	-6010
pers	-6011
▁nerv	-6012
▁recall	-6013
▁convert	-6014
▁representatives	-6015
▁Ja	-6016
▁1992	-6017
▁breast	-6018
▁accurate	-6019
▁contrary	-6020
pet	-6021
reen	-6022
anese	-6023
▁1990	-6024
▁founded	-6025
▁waiting	-6026
▁northern	-6027
▁writings	-6028
▁contribute	-6029
grim	-6030
▁scen	-6031
asters	-6032
▁gradu	-6033
▁divide	-6034
▁determine	-6035
▁productivity	-6036
onym	-6037
▁Army	-6038
▁neck	-6039
▁debate	-6040
▁Network	-6041
▁permitted	-6042
▁1950	-6043
mation	-6044
▁usual	-6045
▁fruits	-6046
▁investments	-6047
inity	-6048
▁abol	-6049
▁blow	-6050
▁finds	-6051
▁walls	-6052
▁aggreg	-6053
▁bottom	-6054
▁temporary	-6055
rd	-6056
▁adm	-6057
▁kid	-6058
▁bail	-6059
▁lock	-6060
▁cotton	-6061
▁tourism	-6062
▁identify	-6063
▁controlled	-6064
tes	-6065
aren	-6066
oman	-6067
house	-6068
ommod	-6069
▁symptoms	-6070
▁celebrated	-6071
▁discipline	-6072
▁automatically	-6073
▁IC	-6074
▁UT	-6075
mony	-6076
bedkar	-6077
▁arriv	-6078
▁filing	-6079
▁gather	-6080
▁college	-6081
▁directory	-6082
▁remarkable	-6083
yl	-6084
rem	-6085
iger	-6086
aneous	-6087
▁brings	-6088
▁soldiers	-6089
▁Turk	-6090
▁League	-6091
▁allows	-6092
▁acceptance	-6093
hu	-6094
▁coc	-6095
isted	-6096
retion	-6097
▁ignor	-6098
▁prote	-6099
oresaid	-6100
▁People	-6101
▁broken	-6102
▁equity	-6103
▁Ambedkar	-6104
▁Cor	-6105
▁Sud	-6106
▁chain	-6107
▁depth	-6108
▁plaintiff	-6109
▁consisting	-6110
▁competition	-6111
▁destruction	-6112
▁Mat	-6113
inese	-6114
▁nurs	-6115
▁dealt	-6116
▁taught	-6117
▁harmony	-6118
▁argument	-6119
▁aforesaid	-6120
eds	-6121
active	-6122
▁Mughal	-6123
▁viz	-6124
▁Geor	-6125
▁fasc	-6126
▁roll	-6127
▁Exchange	-6128
MS	-6129
ulpt	-6130
inance	-6131
▁faculty	-6132
▁herself	-6133
▁secondary	-6134
▁Ent	-6135
inations	-6136
▁delivered	-6137
▁departments	-6138
oser	-6139
▁myth	-6140
▁scene	-6141
▁manage	-6142
▁neighbour	-6143
▁Tir	-6144
▁grew	-6145
▁chosen	-6146
▁amendments	-6147
▁conversion	-6148
ananda	-6149
▁innoc	-6150
▁safegu	-6151
▁stress	-6152
uran	-6153
▁Micro	-6154
▁Russia	-6155
▁explain	-6156
och	-6157
yas	-6158
▁Sen	-6159
▁Laws	-6160
▁wound	-6161
▁Appell	-6162
▁specially	-6163
▁securities	-6164
lel	-6165
▁Joint	-6166
▁universe	-6167
▁yourself	-6168
▁significance	-6169
13	-6170
xic	-6171
▁begins	-6172
▁guilty	-6173
ilitation	-6174
▁essentially	-6175
▁hit	-6176
▁alleg	-6177
▁sculpt	-6178
▁thereby	-6179
▁resulting	-6180
▁distributed	-6181
▁possibility	-6182
▁UK	-6183
▁FOR	-6184
▁proc	-6185
▁Institut	-6186
▁accommod	-6187
▁reaction	-6188
ugg	-6189
▁diplom	-6190
▁prepare	-6191
▁familiar	-6192
▁preparation	-6193
agraph	-6194
▁leads	-6195
▁sales	-6196
▁Engine	-6197
▁burden	-6198
▁criticism	-6199
▁solutions	-6200
▁chargeable	-6201
asks	-6202
ibly	-6203
▁thr	-6204
▁Vidy	-6205
▁ends	-6206
utation	-6207
▁prince	-6208
▁strict	-6209
▁accompl	-6210
▁conviction	-6211
▁Kolkata	-6212
▁47	-6213
▁55	-6214
▁envis	-6215
▁gross	-6216
▁verse	-6217
▁alc	-6218
▁refused	-6219
▁bomb	-6220
▁Order	-6221
▁Rural	-6222
▁Magistrate	-6223
de	-6224
▁PC	-6225
▁SP	-6226
lets	-6227
uity	-6228
▁Inn	-6229
▁socio	-6230
▁domain	-6231
▁Chinese	-6232
▁Business	-6233
▁bats	-6234
▁boys	-6235
▁clar	-6236
▁images	-6237
▁starts	-6238
▁categories	-6239
usal	-6240
.2016	-6241
▁goals	-6242
▁stake	-6243
▁valuable	-6244
raint	-6245
▁Women	-6246
▁amounts	-6247
▁appeals	-6248
▁Province	-6249
▁Australia	-6250
▁naturally	-6251
▁authorised	-6252
tic	-6253
▁elev	-6254
▁gall	-6255
▁producing	-6256
▁encouraged	-6257
▁46	-6258
▁spoke	-6259
▁poetic	-6260
▁poison	-6261
▁weapons	-6262
▁Marriage	-6263
▁ensuring	-6264
▁excellence	-6265
▁Bra	-6266
▁Trade	-6267
▁index	-6268
▁atomic	-6269
▁permit	-6270
▁participate	-6271
▁NI	-6272
▁Bir	-6273
▁tab	-6274
▁roof	-6275
hening	-6276
▁pound	-6277
▁flower	-6278
ographical	-6279
▁proposals	-6280
▁fib	-6281
etary	-6282
▁edge	-6283
▁gods	-6284
▁chair	-6285
▁intest	-6286
▁verses	-6287
▁customs	-6288
▁accompanied	-6289
care	-6290
cont	-6291
▁Cert	-6292
▁Form	-6293
▁nutrit	-6294
▁rulers	-6295
▁Britain	-6296
▁secular	-6297
▁buildings	-6298
▁pertaining	-6299
▁Ev	-6300
▁fav	-6301
▁mig	-6302
erior	-6303
▁exch	-6304
▁links	-6305
▁advert	-6306
▁Raja	-6307
▁vote	-6308
▁Himachal	-6309
▁director	-6310
▁elephant	-6311
TH	-6312
zy	-6313
ician	-6314
isdom	-6315
▁salt	-6316
▁datab	-6317
▁panel	-6318
▁linked	-6319
▁largely	-6320
▁Industry	-6321
▁constitu	-6322
▁disabled	-6323
EG	-6324
atics	-6325
▁abst	-6326
▁drinking	-6327
▁components	-6328
11	-6329
MP	-6330
tering	-6331
▁Chrome	-6332
▁attain	-6333
▁devices	-6334
▁prominent	-6335
▁qualities	-6336
anka	-6337
qual	-6338
▁arg	-6339
▁reader	-6340
▁comfort	-6341
▁infinite	-6342
▁forwarded	-6343
▁newspaper	-6344
ema	-6345
▁bh	-6346
urse	-6347
▁deriv	-6348
▁sanct	-6349
▁quarter	-6350
▁employer	-6351
▁representation	-6352
AGE	-6353
▁voc	-6354
▁hall	-6355
▁park	-6356
▁vary	-6357
▁wholly	-6358
▁consequences	-6359
SS	-6360
rum	-6361
▁1973	-6362
▁Such	-6363
▁street	-6364
▁Cabinet	-6365
▁empower	-6366
▁comments	-6367
▁achievement	-6368
inn	-6369
▁waters	-6370
▁conferred	-6371
▁satisfaction	-6372
▁tail	-6373
herent	-6374
▁France	-6375
▁exactly	-6376
▁pilgrim	-6377
▁patients	-6378
▁strengthening	-6379
DUCT	-6380
▁Vedic	-6381
▁cycle	-6382
▁react	-6383
▁excellent	-6384
▁Are	-6385
▁1948	-6386
▁1980	-6387
▁tong	-6388
▁advised	-6389
▁willing	-6390
▁feelings	-6391
▁carefully	-6392
▁Kir	-6393
▁hat	-6394
▁brows	-6395
▁cancer	-6396
▁yellow	-6397
▁claimed	-6398
▁radical	-6399
▁violent	-6400
▁Appellate	-6401
▁Sita	-6402
ronics	-6403
▁Asian	-6404
▁causing	-6405
▁examine	-6406
▁concerns	-6407
▁parallel	-6408
enn	-6409
▁Ary	-6410
▁mixed	-6411
▁specify	-6412
▁suffered	-6413
▁Executive	-6414
iso	-6415
well	-6416
▁cancel	-6417
▁Comment	-6418
▁Met	-6419
ullah	-6420
▁1997	-6421
▁mandapa	-6422
▁component	-6423
▁litigation	-6424
ola	-6425
▁throw	-6426
▁decade	-6427
▁unlike	-6428
▁Companies	-6429
▁innovative	-6430
▁architecture	-6431
▁Lah	-6432
▁anx	-6433
arita	-6434
▁node	-6435
liance	-6436
▁Trust	-6437
▁adopt	-6438
▁Prasad	-6439
garh	-6440
▁unb	-6441
▁Ahmed	-6442
▁gland	-6443
▁crores	-6444
▁courses	-6445
▁hyp	-6446
iques	-6447
▁allot	-6448
▁Gora	-6449
▁dust	-6450
▁holy	-6451
▁signs	-6452
▁monitoring	-6453
▁Muh	-6454
▁Pad	-6455
▁Top	-6456
▁Gram	-6457
▁solve	-6458
▁invited	-6459
achi	-6460
▁pec	-6461
peror	-6462
▁NAME	-6463
▁traditions	-6464
ixt	-6465
urer	-6466
▁Cur	-6467
▁oral	-6468
▁fever	-6469
▁visual	-6470
▁entrepreneur	-6471
▁parliamentary	-6472
uses	-6473
▁Turkey	-6474
▁salary	-6475
▁drawing	-6476
▁stopped	-6477
▁commonly	-6478
▁suggestion	-6479
▁combination	-6480
▁Dar	-6481
akrish	-6482
▁noise	-6483
▁seats	-6484
▁signal	-6485
▁strange	-6486
▁confined	-6487
▁considering	-6488
.7	-6489
▁mo	-6490
atre	-6491
tical	-6492
▁musc	-6493
▁teeth	-6494
▁treas	-6495
▁harvest	-6496
▁printed	-6497
▁artificial	-6498
antly	-6499
icket	-6500
▁Book	-6501
▁tank	-6502
ayas	-6503
▁Count	-6504
▁resign	-6505
▁dignity	-6506
aud	-6507
▁cas	-6508
ensus	-6509
ushed	-6510
▁lady	-6511
▁sports	-6512
▁fifteen	-6513
▁followers	-6514
yr	-6515
aut	-6516
son	-6517
▁Jh	-6518
edia	-6519
ilal	-6520
rier	-6521
▁bull	-6522
▁forg	-6523
▁meat	-6524
▁truly	-6525
▁carbon	-6526
▁eternal	-6527
▁incurred	-6528
▁strategic	-6529
ima	-6530
▁Sik	-6531
urved	-6532
▁Head	-6533
▁escape	-6534
▁shaped	-6535
▁submit	-6536
▁CD	-6537
rane	-6538
▁NAB	-6539
▁grat	-6540
▁isol	-6541
▁trem	-6542
▁accum	-6543
▁rising	-6544
▁Maharaja	-6545
▁assembly	-6546
▁consumers	-6547
▁achievements	-6548
▁interpretation	-6549
▁recommendation	-6550
iable	-6551
rator	-6552
▁Acts	-6553
▁faced	-6554
▁cattle	-6555
▁inserted	-6556
▁distinction	-6557
ords	-6558
▁sorrow	-6559
▁raising	-6560
mic	-6561
▁rect	-6562
▁conqu	-6563
▁rough	-6564
▁eastern	-6565
▁illness	-6566
▁victory	-6567
▁Islamist	-6568
▁fighting	-6569
zz	-6570
ERS	-6571
bind	-6572
▁Kam	-6573
▁stim	-6574
lation	-6575
▁spend	-6576
▁corner	-6577
▁PRODUCT	-6578
mi	-6579
lig	-6580
orted	-6581
▁sovere	-6582
▁opposite	-6583
▁receiving	-6584
▁ultimately	-6585
OC	-6586
▁rom	-6587
▁arise	-6588
▁involves	-6589
▁maintaining	-6590
▁institutional	-6591
ker	-6592
▁La	-6593
entle	-6594
▁Land	-6595
rovers	-6596
▁Innov	-6597
▁sheet	-6598
▁occurred	-6599
▁experiment	-6600
wa	-6601
▁54	-6602
araj	-6603
▁How	-6604
▁Lep	-6605
estion	-6606
▁saved	-6607
▁yester	-6608
▁Bharati	-6609
▁multipl	-6610
▁tourist	-6611
▁progressive	-6612
▁represented	-6613
▁technological	-6614
amy	-6615
▁pup	-6616
▁ring	-6617
▁symp	-6618
▁owned	-6619
▁greatly	-6620
▁passion	-6621
▁studied	-6622
▁52	-6623
▁Tem	-6624
alore	-6625
ients	-6626
▁1991	-6627
▁Rule	-6628
▁cheque	-6629
▁backward	-6630
▁depending	-6631
▁emotional	-6632
▁subscribe	-6633
▁Life	-6634
▁tort	-6635
▁recip	-6636
▁wisdom	-6637
▁experts	-6638
▁managed	-6639
▁rejected	-6640
▁reduction	-6641
▁declaration	-6642
▁sam	-6643
▁Stat	-6644
▁inev	-6645
▁algor	-6646
▁overse	-6647
▁entrust	-6648
▁candidates	-6649
▁percentage	-6650
▁vegetables	-6651
▁transformation	-6652
▁64	-6653
▁od	-6654
▁hun	-6655
▁1995	-6656
▁bath	-6657
▁seat	-6658
▁ties	-6659
▁Shiva	-6660
▁bills	-6661
▁ly	-6662
ache	-6663
itud	-6664
writ	-6665
▁Non	-6666
▁wear	-6667
▁analy	-6668
chandra	-6669
▁facing	-6670
▁dynamic	-6671
▁equival	-6672
▁imagine	-6673
▁mountains	-6674
▁compassion	-6675
▁civilization	-6676
▁150	-6677
▁hills	-6678
istries	-6679
missible	-6680
▁indicate	-6681
▁diversity	-6682
urt	-6683
▁dro	-6684
algam	-6685
essed	-6686
orter	-6687
iously	-6688
▁Advoc	-6689
▁glass	-6690
▁pieces	-6691
VE	-6692
mp	-6693
ria	-6694
▁falls	-6695
▁forty	-6696
▁listen	-6697
▁minute	-6698
▁wa	-6699
NAME	-6700
▁Aut	-6701
apped	-6702
▁scar	-6703
▁Mohan	-6704
▁advis	-6705
▁convin	-6706
▁liberty	-6707
▁recruit	-6708
▁Hinduism	-6709
▁applicant	-6710
▁technique	-6711
▁Jay	-6712
▁File	-6713
▁palace	-6714
▁Ramayana	-6715
▁instruction	-6716
▁suggestions	-6717
AP	-6718
DP	-6719
▁kg	-6720
arsh	-6721
▁eve	-6722
▁revol	-6723
▁rational	-6724
▁dependent	-6725
▁statements	-6726
ded	-6727
eff	-6728
bing	-6729
▁Shiv	-6730
▁burn	-6731
▁aimed	-6732
▁enthus	-6733
▁retire	-6734
rain	-6735
▁300	-6736
▁asc	-6737
▁rig	-6738
▁buff	-6739
▁tube	-6740
▁coord	-6741
▁fluid	-6742
▁older	-6743
▁converted	-6744
▁IPC	-6745
▁avo	-6746
▁empty	-6747
▁diverse	-6748
▁eminent	-6749
▁passage	-6750
▁Regional	-6751
▁childhood	-6752
oram	-6753
▁pride	-6754
▁NABARD	-6755
▁mathem	-6756
▁notified	-6757
▁obviously	-6758
▁contributed	-6759
▁Notwithstanding	-6760
oli	-6761
▁Fl	-6762
osit	-6763
▁Alm	-6764
▁desk	-6765
▁Nagar	-6766
▁diagn	-6767
▁asking	-6768
▁realised	-6769
▁developments	-6770
OM	-6771
olic	-6772
▁immun	-6773
▁publish	-6774
▁somebody	-6775
▁guarantee	-6776
OP	-6777
▁Dw	-6778
▁vul	-6779
▁Year	-6780
▁airc	-6781
▁bridge	-6782
▁options	-6783
▁sharing	-6784
▁deceased	-6785
▁dangerous	-6786
▁privilege	-6787
▁clus	-6788
▁peas	-6789
▁simult	-6790
▁closely	-6791
▁enthusi	-6792
▁windows	-6793
▁primarily	-6794
▁complaints	-6795
▁corruption	-6796
▁influenced	-6797
▁cultivation	-6798
TI	-6799
.10	-6800
▁rhy	-6801
▁rot	-6802
auses	-6803
▁incent	-6804
▁proviso	-6805
▁therein	-6806
▁Agriculture	-6807
▁AP	-6808
▁CP	-6809
▁nav	-6810
▁Unit	-6811
▁flex	-6812
actory	-6813
▁Vaishn	-6814
▁internet	-6815
▁extensive	-6816
▁Us	-6817
▁III	-6818
endar	-6819
▁prol	-6820
▁fault	-6821
▁applies	-6822
▁planned	-6823
▁obligation	-6824
oom	-6825
rie	-6826
▁Taj	-6827
▁ran	-6828
▁Gree	-6829
▁menu	-6830
▁learnt	-6831
▁adverse	-6832
▁brothers	-6833
▁appellant	-6834
▁controvers	-6835
▁destination	-6836
amber	-6837
ports	-6838
▁Siva	-6839
arathi	-6840
erning	-6841
▁elabor	-6842
▁desired	-6843
▁affection	-6844
▁structures	-6845
redit	-6846
▁beat	-6847
▁jobs	-6848
▁sons	-6849
▁forced	-6850
▁examined	-6851
▁computers	-6852
▁specifically	-6853
ums	-6854
anga	-6855
atar	-6856
▁Web	-6857
▁synt	-6858
▁decre	-6859
▁route	-6860
▁listed	-6861
▁amalgam	-6862
▁putting	-6863
▁venture	-6864
▁indu	-6865
▁pipes	-6866
▁muscle	-6867
▁testing	-6868
▁hundreds	-6869
▁operational	-6870
leum	-6871
hibit	-6872
▁stored	-6873
▁operative	-6874
▁yesterday	-6875
▁horiz	-6876
▁custody	-6877
▁goddess	-6878
▁fet	-6879
▁mic	-6880
▁Food	-6881
▁clim	-6882
orders	-6883
▁subordinate	-6884
aly	-6885
▁09	-6886
▁sites	-6887
▁Academ	-6888
▁emerging	-6889
▁paragraph	-6890
▁experiences	-6891
RE	-6892
iti	-6893
▁07	-6894
▁sharp	-6895
▁novels	-6896
▁Gazette	-6897
▁duration	-6898
▁revolutionary	-6899
▁56	-6900
ouch	-6901
▁upl	-6902
nergy	-6903
▁Know	-6904
▁embra	-6905
▁royal	-6906
▁expiry	-6907
▁shrine	-6908
▁slowly	-6909
▁ceremony	-6910
▁keyboard	-6911
uru	-6912
▁41	-6913
▁Gold	-6914
▁Stud	-6915
▁vent	-6916
▁condem	-6917
▁editor	-6918
▁completion	-6919
ding	-6920
ogen	-6921
umes	-6922
▁gate	-6923
▁metal	-6924
iculture	-6925
▁scholar	-6926
▁Ser	-6927
▁icon	-6928
▁Bench	-6929
▁wheat	-6930
▁entity	-6931
▁totally	-6932
▁pictures	-6933
iri	-6934
pad	-6935
oked	-6936
▁err	-6937
▁ing	-6938
▁surre	-6939
▁nobody	-6940
▁refuge	-6941
▁attended	-6942
▁download	-6943
▁automatic	-6944
▁happening	-6945
▁indigenous	-6946
▁properties	-6947
▁subsequently	-6948
▁TV	-6949
celer	-6950
▁seeks	-6951
▁Basava	-6952
▁caught	-6953
▁opposed	-6954
comm	-6955
▁Far	-6956
▁shif	-6957
▁aside	-6958
▁illegal	-6959
▁television	-6960
▁enforcement	-6961
▁via	-6962
itals	-6963
▁Hari	-6964
▁Sant	-6965
▁lamp	-6966
▁Arabic	-6967
iversary	-6968
▁anticip	-6969
▁concess	-6970
▁pull	-6971
▁sets	-6972
▁neare	-6973
▁shock	-6974
▁couldn	-6975
▁operate	-6976
▁discovered	-6977
jan	-6978
aria	-6979
▁vim	-6980
▁Gita	-6981
▁genu	-6982
▁pron	-6983
▁persu	-6984
▁twice	-6985
▁realise	-6986
▁reprodu	-6987
▁servant	-6988
▁integrity	-6989
▁collective	-6990
nex	-6991
▁51	-6992
▁ended	-6993
▁heads	-6994
▁German	-6995
▁fulfil	-6996
▁player	-6997
▁ruling	-6998
▁Marathi	-6999
▁resulted	-7000
▁societies	-7001
▁implementing	-7002
▁Gr	-7003
▁edit	-7004
▁Common	-7005
▁regime	-7006
▁arranged	-7007
▁programs	-7008
▁prospect	-7009
▁supposed	-7010
▁organisms	-7011
▁translated	-7012
▁Aj	-7013
ught	-7014
▁Tal	-7015
▁Right	-7016
▁aband	-7017
▁utter	-7018
▁spoken	-7019
▁library	-7020
▁situations	-7021
ML	-7022
nai	-7023
▁03	-7024
▁SE	-7025
▁Mir	-7026
▁enl	-7027
roleum	-7028
▁dress	-7029
▁marks	-7030
▁stuff	-7031
▁towns	-7032
▁paying	-7033
▁Medical	-7034
▁replied	-7035
▁database	-7036
▁marriages	-7037
▁discretion	-7038
za	-7039
▁pit	-7040
▁Priv	-7041
▁gift	-7042
▁decor	-7043
▁burning	-7044
▁Buddhist	-7045
▁rendered	-7046
▁interface	-7047
▁limitation	-7048
▁techniques	-7049
▁taxes	-7050
▁enhanced	-7051
▁ministers	-7052
▁Road	-7053
▁George	-7054
▁client	-7055
mits	-7056
▁Sim	-7057
▁hol	-7058
▁plug	-7059
▁Obama	-7060
▁elder	-7061
▁newspapers	-7062
▁supplement	-7063
▁Mahabharata	-7064
▁Registration	-7065
▁transportation	-7066
.11	-7067
▁CS	-7068
hend	-7069
▁fly	-7070
▁1986	-7071
▁snow	-7072
▁clothes	-7073
▁emerged	-7074
▁Muhammad	-7075
▁combined	-7076
▁fertiliz	-7077
▁sensitive	-7078
▁Chh	-7079
▁anc	-7080
▁jew	-7081
ifies	-7082
▁1988	-7083
▁bold	-7084
▁font	-7085
▁covers	-7086
▁framed	-7087
▁1993	-7088
▁encl	-7089
▁keen	-7090
▁eating	-7091
▁handic	-7092
TS	-7093
bles	-7094
roph	-7095
▁Anand	-7096
▁divers	-7097
aneously	-7098
▁factory	-7099
▁Officers	-7100
▁regularly	-7101
▁impression	-7102
▁enterprises	-7103
da	-7104
osc	-7105
nity	-7106
▁Great	-7107
▁Lanka	-7108
▁roots	-7109
▁warrant	-7110
▁consolid	-7111
▁reaching	-7112
▁referring	-7113
IP	-7114
heb	-7115
atri	-7116
▁shad	-7117
▁unre	-7118
▁lakhs	-7119
▁wages	-7120
ilation	-7121
▁copies	-7122
▁monthly	-7123
▁Universities	-7124
ulf	-7125
raid	-7126
▁Sov	-7127
▁fab	-7128
▁nerve	-7129
▁ruled	-7130
▁routine	-7131
▁selling	-7132
▁regulation	-7133
▁congratulate	-7134
▁72	-7135
▁News	-7136
abling	-7137
▁cloud	-7138
▁empire	-7139
▁ideals	-7140
▁virtue	-7141
▁mailing	-7142
▁discover	-7143
irs	-7144
erved	-7145
▁exem	-7146
▁zone	-7147
▁sixty	-7148
▁earned	-7149
▁persist	-7150
▁turning	-7151
▁oriented	-7152
▁Tele	-7153
▁blank	-7154
▁rapidly	-7155
▁displayed	-7156
▁addressing	-7157
▁eventually	-7158
▁constructed	-7159
▁imagination	-7160
▁characteristic	-7161
▁Sav	-7162
icity	-7163
ulous	-7164
▁alive	-7165
▁models	-7166
▁Brahman	-7167
▁Punjabi	-7168
▁chromos	-7169
▁sending	-7170
▁organism	-7171
▁wherever	-7172
▁constantly	-7173
▁hal	-7174
▁map	-7175
▁1971	-7176
▁Sund	-7177
▁feeding	-7178
▁readers	-7179
▁offering	-7180
▁everywhere	-7181
.8	-7182
ele	-7183
▁oh	-7184
itra	-7185
▁Rao	-7186
▁pair	-7187
▁empow	-7188
▁memor	-7189
▁organs	-7190
▁Kingdom	-7191
▁contrast	-7192
aci	-7193
▁53	-7194
▁aer	-7195
▁flo	-7196
aryana	-7197
▁auton	-7198
▁depart	-7199
▁Capital	-7200
▁islands	-7201
exp	-7202
inc	-7203
▁Gan	-7204
eenth	-7205
▁Kann	-7206
ayment	-7207
▁catch	-7208
▁flour	-7209
▁premises	-7210
▁terminal	-7211
▁Governance	-7212
mal	-7213
ukh	-7214
▁Hel	-7215
enger	-7216
▁marry	-7217
▁saint	-7218
▁worker	-7219
▁inclusive	-7220
▁calculated	-7221
▁concerning	-7222
▁conservation	-7223
▁Tw	-7224
life	-7225
▁Nath	-7226
▁thin	-7227
endous	-7228
▁litig	-7229
▁extract	-7230
▁helping	-7231
▁abnormal	-7232
▁generations	-7233
lin	-7234
▁Vij	-7235
▁awards	-7236
▁ending	-7237
▁ordered	-7238
▁Economic	-7239
▁Election	-7240
▁protocol	-7241
▁Professor	-7242
▁achieving	-7243
▁endeavour	-7244
▁indicated	-7245
▁competitive	-7246
▁inflammation	-7247
wide	-7248
▁Bhut	-7249
▁Master	-7250
▁undertake	-7251
irt	-7252
▁63	-7253
illa	-7254
ream	-7255
▁Mur	-7256
▁mad	-7257
rogen	-7258
▁inher	-7259
▁calling	-7260
▁killing	-7261
▁extraord	-7262
▁replaced	-7263
▁entrusted	-7264
▁perfection	-7265
▁CH	-7266
kind	-7267
▁1987	-7268
▁finger	-7269
▁switch	-7270
▁suicide	-7271
ste	-7272
van	-7273
▁Lo	-7274
▁Goa	-7275
chant	-7276
▁trek	-7277
▁desir	-7278
▁rehab	-7279
▁shoot	-7280
▁satell	-7281
▁Haryana	-7282
▁ha	-7283
iant	-7284
isite	-7285
▁1976	-7286
▁homes	-7287
Os	-7288
orse	-7289
ranch	-7290
▁wing	-7291
orious	-7292
▁Found	-7293
50	-7294
iche	-7295
▁Under	-7296
▁subsid	-7297
▁acceler	-7298
▁defendant	-7299
▁requested	-7300
▁presentation	-7301
▁Po	-7302
▁Saudi	-7303
▁Sucharita	-7304
▁resistance	-7305
▁composition	-7306
▁99	-7307
adur	-7308
▁Dec	-7309
▁ice	-7310
▁Bush	-7311
▁Ital	-7312
▁hide	-7313
▁irre	-7314
▁pest	-7315
▁rose	-7316
▁intim	-7317
▁shift	-7318
▁worry	-7319
▁settle	-7320
▁aggress	-7321
▁promise	-7322
▁ultimate	-7323
ohan	-7324
urch	-7325
▁duly	-7326
▁memb	-7327
▁pled	-7328
▁Canada	-7329
▁audience	-7330
▁everybody	-7331
▁attachment	-7332
EF	-7333
oma	-7334
urg	-7335
ster	-7336
▁VII	-7337
▁epic	-7338
▁vacc	-7339
▁Empire	-7340
▁Leprosy	-7341
▁printer	-7342
▁financing	-7343
▁frequently	-7344
▁collaboration	-7345
power	-7346
▁cord	-7347
▁endeav	-7348
▁degrees	-7349
▁profile	-7350
▁entertain	-7351
▁interaction	-7352
▁corresponding	-7353
ugu	-7354
▁vib	-7355
▁Fort	-7356
▁Small	-7357
▁newly	-7358
▁wings	-7359
itative	-7360
▁colonial	-7361
▁protected	-7362
▁beneficial	-7363
▁configuration	-7364
UM	-7365
▁vs	-7366
▁Sol	-7367
▁City	-7368
▁Banks	-7369
▁tasks	-7370
▁tooth	-7371
▁tract	-7372
▁impress	-7373
▁Industries	-7374
The	-7375
ham	-7376
▁ju	-7377
orne	-7378
▁sor	-7379
▁enorm	-7380
▁grace	-7381
▁Jewish	-7382
▁daniel	-7383
▁batsman	-7384
▁falling	-7385
▁contents	-7386
▁sustained	-7387
▁healthcare	-7388
dy	-7389
▁MP	-7390
▁Hall	-7391
▁wire	-7392
▁genus	-7393
issions	-7394
▁Labour	-7395
▁summer	-7396
▁Chennai	-7397
▁Majesty	-7398
▁decline	-7399
▁organic	-7400
▁regards	-7401
▁historic	-7402
▁references	-7403
▁inspiration	-7404
▁dear	-7405
▁paint	-7406
▁Sector	-7407
▁condol	-7408
▁prefer	-7409
▁resolve	-7410
▁returns	-7411
▁destroyed	-7412
▁prejudice	-7413
addy	-7414
haust	-7415
▁Malay	-7416
▁bread	-7417
▁grain	-7418
▁lying	-7419
▁Applic	-7420
▁button	-7421
▁winter	-7422
▁earliest	-7423
▁derivative	-7424
▁necessarily	-7425
hai	-7426
▁IR	-7427
▁1989	-7428
▁Devi	-7429
▁Earth	-7430
▁stars	-7431
▁circuit	-7432
▁crucial	-7433
▁executed	-7434
▁commodities	-7435
▁Sr	-7436
▁Shi	-7437
▁ash	-7438
▁bon	-7439
▁Democ	-7440
▁arises	-7441
▁genuine	-7442
▁lawyers	-7443
JP	-7444
▁58	-7445
rand	-7446
oking	-7447
orters	-7448
▁Penal	-7449
▁farming	-7450
▁aircraft	-7451
▁moreover	-7452
▁obligations	-7453
ino	-7454
alal	-7455
stig	-7456
▁Var	-7457
▁defeat	-7458
▁attempts	-7459
▁stations	-7460
▁weakness	-7461
▁obtaining	-7462
▁equivalent	-7463
hips	-7464
icing	-7465
▁Bach	-7466
▁merg	-7467
▁cruel	-7468
▁sheep	-7469
ishment	-7470
▁hidden	-7471
▁alleged	-7472
▁exploitation	-7473
▁incorporated	-7474
rh	-7475
rete	-7476
▁Kor	-7477
▁Verm	-7478
▁hurt	-7479
▁lake	-7480
urated	-7481
▁infect	-7482
▁tongue	-7483
▁varied	-7484
▁Consult	-7485
▁neglect	-7486
▁residence	-7487
UN	-7488
.12	-7489
▁busy	-7490
▁prayer	-7491
▁Defence	-7492
▁doctors	-7493
▁realize	-7494
▁recover	-7495
▁serving	-7496
▁peaceful	-7497
▁recording	-7498
20	-7499
ca	-7500
riev	-7501
time	-7502
▁stom	-7503
▁wave	-7504
athered	-7505
reement	-7506
▁Annual	-7507
▁assured	-7508
▁confirm	-7509
▁intense	-7510
▁multiply	-7511
▁reducing	-7512
▁recognize	-7513
▁supporting	-7514
asy	-7515
▁hes	-7516
▁sed	-7517
unals	-7518
▁1974	-7519
▁pump	-7520
▁wage	-7521
▁Credit	-7522
▁evolved	-7523
▁agreements	-7524
▁identification	-7525
▁NG	-7526
▁dow	-7527
▁boat	-7528
▁faces	-7529
▁Soviet	-7530
▁denied	-7531
▁mistake	-7532
▁outlook	-7533
▁generated	-7534
▁entrepreneurs	-7535
▁Badr	-7536
▁rememb	-7537
▁unfortunately	-7538
UT	-7539
aked	-7540
atin	-7541
ulus	-7542
▁Smt	-7543
▁haz	-7544
▁larva	-7545
▁saving	-7546
▁genetic	-7547
▁retired	-7548
▁printing	-7549
▁aggregate	-7550
▁Kav	-7551
▁Legal	-7552
adation	-7553
▁Washing	-7554
▁enables	-7555
▁package	-7556
▁philosoph	-7557
▁ICT	-7558
▁Kap	-7559
▁RBI	-7560
▁miles	-7561
▁exception	-7562
▁Ret	-7563
▁Vol	-7564
.2013	-7565
▁lung	-7566
▁clock	-7567
▁ruler	-7568
▁belongs	-7569
▁kilomet	-7570
▁consequence	-7571
HER	-7572
▁El	-7573
urit	-7574
▁Rah	-7575
▁Rav	-7576
▁ther	-7577
▁Bills	-7578
▁legit	-7579
▁channels	-7580
▁innocent	-7581
▁pregnancy	-7582
enda	-7583
▁dil	-7584
nasty	-7585
▁1985	-7586
▁lingu	-7587
▁thread	-7588
▁injured	-7589
▁prestig	-7590
▁classical	-7591
▁Washington	-7592
▁territories	-7593
▁66	-7594
▁Luc	-7595
▁Nic	-7596
▁cum	-7597
ureau	-7598
▁dict	-7599
▁vehicles	-7600
▁exclusive	-7601
▁stability	-7602
▁succeeded	-7603
▁Departments	-7604
ato	-7605
bre	-7606
agra	-7607
▁Ach	-7608
▁motiv	-7609
▁farmer	-7610
▁devoted	-7611
▁younger	-7612
operation	-7613
▁payments	-7614
▁performing	-7615
▁characteristics	-7616
IG	-7617
ymph	-7618
▁oxy	-7619
▁row	-7620
osted	-7621
▁Govt	-7622
▁urge	-7623
▁milit	-7624
▁uncle	-7625
▁afraid	-7626
▁bigger	-7627
▁deduct	-7628
▁disqual	-7629
▁overcome	-7630
▁thorough	-7631
▁tribunal	-7632
▁Bangalore	-7633
▁attracted	-7634
▁radiation	-7635
▁PM	-7636
asis	-7637
rian	-7638
▁USA	-7639
▁gun	-7640
roduct	-7641
▁Mahal	-7642
▁golden	-7643
▁spring	-7644
ographic	-7645
▁theatre	-7646
▁bacteria	-7647
▁furnished	-7648
▁preferred	-7649
▁relatives	-7650
ls	-7651
▁DAY	-7652
▁Sou	-7653
▁cad	-7654
▁loy	-7655
plete	-7656
▁Energy	-7657
▁adding	-7658
▁insert	-7659
▁imports	-7660
▁noticed	-7661
▁Japanese	-7662
▁dramatic	-7663
▁Allahabad	-7664
▁initially	-7665
▁Administrative	-7666
ype	-7667
aven	-7668
▁IIT	-7669
▁Indo	-7670
▁loose	-7671
▁Hindust	-7672
▁carries	-7673
▁adoption	-7674
▁disorder	-7675
▁enabling	-7676
▁varieties	-7677
▁tremendous	-7678
▁discrimination	-7679
.9	-7680
auc	-7681
▁dh	-7682
▁intu	-7683
▁pool	-7684
▁stup	-7685
▁circle	-7686
▁biggest	-7687
▁extraordinary	-7688
▁74	-7689
hash	-7690
▁Amb	-7691
▁Rad	-7692
▁Sil	-7693
▁glad	-7694
▁charm	-7695
▁holder	-7696
▁refund	-7697
▁inherent	-7698
ashi	-7699
lied	-7700
▁Ext	-7701
▁Agra	-7702
▁Pass	-7703
hibited	-7704
▁Constitu	-7705
▁inspection	-7706
▁substituted	-7707
▁68	-7708
uild	-7709
what	-7710
▁Que	-7711
oding	-7712
▁Wind	-7713
▁shell	-7714
▁Sheikh	-7715
▁Ayurved	-7716
indranath	-7717
▁tourists	-7718
..	-7719
etan	-7720
umber	-7721
▁partly	-7722
▁cutting	-7723
▁scheduled	-7724
▁Prevention	-7725
▁integration	-7726
▁85	-7727
secut	-7728
▁auth	-7729
▁Willi	-7730
▁bonds	-7731
▁warning	-7732
▁modified	-7733
▁compulsory	-7734
▁restrictions	-7735
utosh	-7736
▁Hist	-7737
▁Inst	-7738
▁Mang	-7739
▁Time	-7740
▁axis	-7741
ixture	-7742
▁castes	-7743
▁establishing	-7744
gi	-7745
▁Ke	-7746
cers	-7747
▁chest	-7748
▁deity	-7749
▁fraud	-7750
▁penal	-7751
▁worshi	-7752
▁Welfare	-7753
▁driving	-7754
▁musical	-7755
ictionary	-7756
▁describe	-7757
▁imported	-7758
▁exercised	-7759
▁increases	-7760
▁Ms	-7761
▁Che	-7762
▁fle	-7763
▁Arun	-7764
▁issu	-7765
isible	-7766
uality	-7767
▁acute	-7768
▁fifth	-7769
▁tells	-7770
▁closer	-7771
▁easier	-7772
▁exhaust	-7773
▁premium	-7774
▁walking	-7775
▁Sessions	-7776
▁governed	-7777
▁constitut	-7778
▁excessive	-7779
▁positions	-7780
▁representing	-7781
ns	-7782
▁Of	-7783
▁Nir	-7784
▁Ray	-7785
▁luck	-7786
▁mood	-7787
▁shut	-7788
▁Enter	-7789
▁kings	-7790
▁Topics	-7791
▁fairly	-7792
▁Railway	-7793
▁desktop	-7794
▁restric	-7795
▁profound	-7796
▁algorithm	-7797
acle	-7798
utch	-7799
▁Forum	-7800
▁contacts	-7801
▁sequence	-7802
▁Himalayas	-7803
▁acknowled	-7804
▁punishable	-7805
▁sanctioned	-7806
how	-7807
quar	-7808
rine	-7809
▁Exp	-7810
▁vag	-7811
irmed	-7812
▁adapt	-7813
▁norms	-7814
▁bearing	-7815
▁pillars	-7816
▁occasions	-7817
▁programming	-7818
▁Br	-7819
▁Lad	-7820
▁Ord	-7821
▁mun	-7822
▁intr	-7823
▁depre	-7824
▁turns	-7825
▁Telugu	-7826
▁dissem	-7827
▁calendar	-7828
▁literacy	-7829
▁continuing	-7830
ogy	-7831
▁Av	-7832
▁mole	-7833
▁width	-7834
fulness	-7835
▁Indira	-7836
▁adults	-7837
▁gained	-7838
▁praise	-7839
▁experienced	-7840
ida	-7841
oult	-7842
▁Aur	-7843
incial	-7844
▁cater	-7845
▁landl	-7846
atories	-7847
▁Address	-7848
▁circular	-7849
▁interpre	-7850
▁precious	-7851
▁strongly	-7852
▁admission	-7853
▁acceptable	-7854
▁installation	-7855
wood	-7856
rates	-7857
▁Advis	-7858
▁incap	-7859
▁silence	-7860
▁retirement	-7861
▁increasingly	-7862
▁Administration	-7863
ador	-7864
anth	-7865
pent	-7866
▁mac	-7867
being	-7868
▁Super	-7869
▁grave	-7870
▁plane	-7871
▁worse	-7872
ictions	-7873
▁flight	-7874
▁pretty	-7875
dev	-7876
▁CA	-7877
▁1970	-7878
▁artist	-7879
▁fabric	-7880
▁silver	-7881
▁comprom	-7882
▁federal	-7883
▁geographical	-7884
US	-7885
endix	-7886
▁lands	-7887
▁lease	-7888
▁magaz	-7889
▁risks	-7890
▁scrut	-7891
▁inputs	-7892
▁browser	-7893
▁furnish	-7894
▁pronoun	-7895
▁stomach	-7896
▁gathered	-7897
▁produces	-7898
▁indicates	-7899
▁originally	-7900
IM	-7901
ios	-7902
avas	-7903
ipped	-7904
▁pace	-7905
▁Liter	-7906
▁fails	-7907
▁mould	-7908
▁plain	-7909
▁recon	-7910
▁anywhere	-7911
▁ownership	-7912
▁villagers	-7913
▁legislature	-7914
jun	-7915
off	-7916
▁Sk	-7917
▁01.	-7918
akers	-7919
▁welcom	-7920
▁controll	-7921
▁seriously	-7922
▁encouraging	-7923
isp	-7924
▁Her	-7925
▁Som	-7926
▁emer	-7927
▁alcoh	-7928
▁NATION	-7929
▁metres	-7930
▁Persons	-7931
▁answers	-7932
▁servants	-7933
▁necessity	-7934
▁realisation	-7935
BC	-7936
TP	-7937
met	-7938
vis	-7939
part	-7940
ariat	-7941
▁Sett	-7942
▁plot	-7943
▁Dwark	-7944
▁engage	-7945
▁handle	-7946
▁darkness	-7947
▁reserved	-7948
▁Knowledge	-7949
▁interview	-7950
akar	-7951
▁cav	-7952
▁gap	-7953
▁Nanak	-7954
itarian	-7955
▁perpet	-7956
▁repair	-7957
▁enjoyed	-7958
▁somewhat	-7959
▁appreciation	-7960
ua	-7961
pex	-7962
▁Fr	-7963
down	-7964
inth	-7965
itya	-7966
odox	-7967
▁spin	-7968
lessness	-7969
▁Manipur	-7970
▁horizon	-7971
▁periods	-7972
▁precise	-7973
▁Foundation	-7974
▁Engineering	-7975
iya	-7976
atra	-7977
▁bin	-7978
▁mine	-7979
▁silk	-7980
▁wider	-7981
▁margin	-7982
▁smooth	-7983
▁stones	-7984
▁urgent	-7985
liminary	-7986
missions	-7987
▁Islands	-7988
▁careful	-7989
▁enquiry	-7990
▁surgery	-7991
▁wherein	-7992
▁revision	-7993
▁convicted	-7994
▁institutes	-7995
▁comparative	-7996
uter	-7997
itate	-7998
▁pond	-7999
lessly	-8000
▁alloc	-8001
▁inhab	-8002
▁brilli	-8003
▁faster	-8004
▁preparing	-8005
▁remedy	-8006
▁silent	-8007
▁Centres	-8008
▁nervous	-8009
▁entering	-8010
▁reposted	-8011
▁revealed	-8012
▁visiting	-8013
▁exceeding	-8014
▁residential	-8015
OT	-8016
▁lac	-8017
▁mit	-8018
igarh	-8019
▁Abdul	-8020
▁plate	-8021
▁Netaji	-8022
▁native	-8023
▁knowing	-8024
criptions	-8025
▁breeding	-8026
DF	-8027
kh	-8028
▁92	-8029
,000	-8030
rative	-8031
▁texts	-8032
▁genius	-8033
▁Bahadur	-8034
▁Process	-8035
▁assumed	-8036
▁harmful	-8037
▁mankind	-8038
▁savings	-8039
▁marginal	-8040
▁Municipal	-8041
zen	-8042
▁05	-8043
gage	-8044
aming	-8045
▁meal	-8046
▁Table	-8047
▁wheel	-8048
▁devote	-8049
▁paramet	-8050
▁monetary	-8051
▁institute	-8052
HAR	-8053
▁Wik	-8054
▁Chal	-8055
ovable	-8056
▁Paper	-8057
▁Truth	-8058
▁irres	-8059
▁butter	-8060
▁overseas	-8061
▁Innovation	-8062
▁membership	-8063
▁particulars	-8064
asp	-8065
▁da	-8066
▁Mor	-8067
▁isn	-8068
▁calm	-8069
▁resc	-8070
▁semi	-8071
▁hyper	-8072
▁snake	-8073
▁enlight	-8074
▁funding	-8075
▁equation	-8076
▁remembered	-8077
▁Jos	-8078
▁cul	-8079
▁Data	-8080
▁brown	-8081
▁forum	-8082
▁preval	-8083
▁resear	-8084
▁generate	-8085
▁intermedi	-8086
▁reflected	-8087
▁appreciate	-8088
▁Dav	-8089
herry	-8090
ogram	-8091
▁Pune	-8092
engers	-8093
▁alien	-8094
▁nodes	-8095
▁stayed	-8096
▁valley	-8097
▁formula	-8098
▁describes	-8099
▁withdrawal	-8100
▁au	-8101
▁Han	-8102
▁Mac	-8103
▁Son	-8104
▁orth	-8105
▁posts	-8106
▁dreams	-8107
▁hearts	-8108
▁impose	-8109
mentation	-8110
▁hardware	-8111
▁conventional	-8112
ATE	-8113
▁06	-8114
▁When	-8115
▁gentle	-8116
▁heaven	-8117
▁African	-8118
▁disability	-8119
▁simultaneously	-8120
uti	-8121
▁BY	-8122
▁Od	-8123
eding	-8124
▁1949	-8125
▁1994	-8126
▁Narm	-8127
▁Lahore	-8128
▁talent	-8129
▁vested	-8130
▁massive	-8131
▁revised	-8132
▁vitamin	-8133
▁colleges	-8134
▁mandatory	-8135
▁Regulation	-8136
usp	-8137
▁SS	-8138
▁fo	-8139
atter	-8140
plate	-8141
▁align	-8142
▁fought	-8143
▁pleased	-8144
▁electrical	-8145
-4	-8146
CP	-8147
opy	-8148
aved	-8149
▁1960	-8150
▁cogn	-8151
▁dies	-8152
▁rein	-8153
▁Champ	-8154
▁merit	-8155
usively	-8156
▁Ganges	-8157
▁Recomm	-8158
▁united	-8159
▁disturb	-8160
▁Badruddin	-8161
▁complicated	-8162
▁approximately	-8163
▁rehabilitation	-8164
▁idol	-8165
▁palm	-8166
lihood	-8167
▁Brahma	-8168
▁headed	-8169
▁Related	-8170
▁acquire	-8171
▁formulation	-8172
oa	-8173
▁Na	-8174
archy	-8175
using	-8176
▁1957	-8177
▁alter	-8178
▁hotel	-8179
▁photo	-8180
lamation	-8181
▁mineral	-8182
▁elsewhere	-8183
▁practition	-8184
▁corporation	-8185
rous	-8186
wara	-8187
▁cin	-8188
arency	-8189
▁Times	-8190
▁adjud	-8191
▁bride	-8192
▁optim	-8193
▁usage	-8194
▁enormous	-8195
▁handling	-8196
▁Islamists	-8197
▁broadcast	-8198
emia	-8199
erals	-8200
▁Name	-8201
▁tall	-8202
▁beach	-8203
▁brave	-8204
▁loved	-8205
rations	-8206
▁licence	-8207
▁comprising	-8208
▁personally	-8209
▁terrorists	-8210
▁aspirations	-8211
▁04	-8212
▁57	-8213
omous	-8214
▁bears	-8215
▁feels	-8216
▁keeps	-8217
▁taste	-8218
▁firmly	-8219
▁island	-8220
▁oxygen	-8221
▁Academy	-8222
▁Working	-8223
▁binding	-8224
▁networks	-8225
▁speeches	-8226
▁preliminary	-8227
▁communications	-8228
▁NS	-8229
ouds	-8230
eting	-8231
idency	-8232
▁Swaraj	-8233
▁assert	-8234
▁driven	-8235
▁retain	-8236
▁missing	-8237
▁province	-8238
opl	-8239
▁400	-8240
▁Ven	-8241
▁van	-8242
avior	-8243
ether	-8244
▁Paul	-8245
▁Integr	-8246
▁breath	-8247
▁driver	-8248
▁tribes	-8249
▁magnetic	-8250
▁nominated	-8251
DI	-8252
agon	-8253
▁Sev	-8254
▁mah	-8255
▁wed	-8256
ipher	-8257
▁bare	-8258
▁club	-8259
▁fash	-8260
▁horn	-8261
▁stem	-8262
▁logic	-8263
▁march	-8264
▁speedy	-8265
▁addresses	-8266
▁arguments	-8267
lor	-8268
▁py	-8269
ario	-8270
▁fan	-8271
▁fou	-8272
▁1981	-8273
▁nose	-8274
apping	-8275
urning	-8276
▁Kabir	-8277
▁enlar	-8278
▁Forest	-8279
▁fortun	-8280
▁complim	-8281
▁protein	-8282
▁relates	-8283
▁exchanges	-8284
▁meanwhile	-8285
CO	-8286
aras	-8287
▁Mil	-8288
▁Saf	-8289
stone	-8290
▁Move	-8291
▁jump	-8292
▁Benef	-8293
▁begun	-8294
▁incom	-8295
▁parad	-8296
▁penet	-8297
▁thinks	-8298
iciently	-8299
akrishnan	-8300
▁observations	-8301
▁73	-8302
▁gif	-8303
▁thro	-8304
▁tons	-8305
commun	-8306
▁ought	-8307
▁breach	-8308
▁slightly	-8309
apse	-8310
▁Mot	-8311
▁Til	-8312
▁tor	-8313
▁auto	-8314
▁tack	-8315
▁players	-8316
▁Accounts	-8317
▁dividend	-8318
▁finished	-8319
▁presents	-8320
▁instituted	-8321
▁88	-8322
▁rab	-8323
chers	-8324
▁holid	-8325
▁diabet	-8326
▁decimal	-8327
▁disable	-8328
▁expanded	-8329
▁candidate	-8330
▁ignorance	-8331
▁compliance	-8332
▁conducting	-8333
bra	-8334
nut	-8335
alli	-8336
ffee	-8337
mans	-8338
anged	-8339
▁1908	-8340
▁Auro	-8341
▁arts	-8342
▁topic	-8343
▁assemb	-8344
▁actively	-8345
▁Recommend	-8346
▁separately	-8347
▁stakeholders	-8348
ela	-8349
oda	-8350
▁ped	-8351
▁riv	-8352
ivals	-8353
▁Sank	-8354
▁Test	-8355
▁movie	-8356
achment	-8357
▁resort	-8358
▁troops	-8359
▁summary	-8360
▁preceding	-8361
▁presently	-8362
▁violation	-8363
▁relatively	-8364
▁87	-8365
▁IV	-8366
▁NH	-8367
ulum	-8368
ropri	-8369
itudes	-8370
rating	-8371
▁Valley	-8372
▁Appendix	-8373
▁minority	-8374
▁surprise	-8375
▁convinced	-8376
▁governing	-8377
▁Ministries	-8378
▁participants	-8379
10	-8380
rase	-8381
▁nod	-8382
ultan	-8383
▁1984	-8384
▁Circ	-8385
▁clin	-8386
▁pock	-8387
▁Death	-8388
▁abdom	-8389
▁noble	-8390
▁defect	-8391
▁Iranian	-8392
▁subsidy	-8393
▁prosecut	-8394
▁Americans	-8395
▁recruitment	-8396
▁ul	-8397
▁That	-8398
▁pion	-8399
father	-8400
ulates	-8401
▁abuse	-8402
▁crowd	-8403
▁evalu	-8404
▁Review	-8405
▁enhancing	-8406
▁accounting	-8407
▁cooperative	-8408
kal	-8409
▁183	-8410
▁Arbit	-8411
▁Bureau	-8412
▁agents	-8413
▁pestic	-8414
▁vulner	-8415
▁essence	-8416
▁dialogue	-8417
▁incidents	-8418
▁allocation	-8419
je	-8420
uliar	-8421
▁Jews	-8422
▁Radh	-8423
▁amaz	-8424
ESSAGE	-8425
▁White	-8426
▁broke	-8427
▁films	-8428
▁gramm	-8429
▁planet	-8430
▁Collect	-8431
▁sympathy	-8432
▁designated	-8433
▁AM	-8434
onic	-8435
antra	-8436
▁inqu	-8437
ipping	-8438
▁admit	-8439
▁rhyth	-8440
▁Emperor	-8441
▁singing	-8442
▁vessels	-8443
▁breaking	-8444
▁peculiar	-8445
▁tendency	-8446
▁tolerance	-8447
▁submission	-8448
▁determining	-8449
ALL	-8450
book	-8451
emat	-8452
rich	-8453
▁Mart	-8454
▁hunt	-8455
▁warn	-8456
▁Temple	-8457
▁quoted	-8458
▁struck	-8459
▁Registr	-8460
▁inspect	-8461
▁expertise	-8462
▁Agricultural	-8463
illy	-8464
isal	-8465
hesis	-8466
▁Arch	-8467
▁Cast	-8468
▁Cult	-8469
▁Glob	-8470
▁Vive	-8471
▁ordin	-8472
▁viewed	-8473
▁Gujarati	-8474
▁sacrific	-8475
▁occupation	-8476
▁innovations	-8477
▁79	-8478
▁Ap	-8479
▁Bul	-8480
ancell	-8481
▁Sahib	-8482
▁handed	-8483
▁Subhash	-8484
▁drought	-8485
▁protest	-8486
▁advocate	-8487
▁absolutely	-8488
hal	-8489
▁Jam	-8490
▁rat	-8491
agues	-8492
▁Back	-8493
▁Card	-8494
▁Text	-8495
▁Zone	-8496
▁nest	-8497
▁Vedas	-8498
▁pursue	-8499
▁patterns	-8500
▁supplied	-8501
AYS	-8502
awn	-8503
sec	-8504
ourn	-8505
▁Sea	-8506
▁nearby	-8507
▁MESSAGE	-8508
▁telling	-8509
▁announce	-8510
▁preserve	-8511
▁commodity	-8512
▁experiments	-8513
▁bio	-8514
▁bug	-8515
conds	-8516
▁unem	-8517
▁domin	-8518
▁fract	-8519
▁molec	-8520
▁ancest	-8521
▁interv	-8522
▁mining	-8523
▁winning	-8524
▁engagement	-8525
▁accommodation	-8526
Cs	-8527
▁77	-8528
vara	-8529
ammed	-8530
▁Conv	-8531
▁Prom	-8532
▁aged	-8533
ighter	-8534
▁glory	-8535
▁tests	-8536
theless	-8537
▁insist	-8538
▁lawyer	-8539
▁Support	-8540
▁reserve	-8541
▁delegation	-8542
▁livelihood	-8543
▁184	-8544
▁IPv	-8545
▁lov	-8546
oxide	-8547
▁Shar	-8548
iceroy	-8549
▁Durga	-8550
▁anger	-8551
▁magic	-8552
▁sounds	-8553
▁outcome	-8554
▁qualified	-8555
▁connecting	-8556
▁observation	-8557
bh	-8558
aar	-8559
agn	-8560
lers	-8561
▁Sem	-8562
acing	-8563
▁dish	-8564
acific	-8565
▁Categ	-8566
▁bones	-8567
▁Nation	-8568
▁stable	-8569
quarters	-8570
▁authors	-8571
▁focused	-8572
amination	-8573
▁advances	-8574
▁occupied	-8575
▁Himalayan	-8576
▁chemicals	-8577
▁phenomenon	-8578
-19	-8579
iac	-8580
▁Tar	-8581
▁Azad	-8582
▁Cust	-8583
▁Kitt	-8584
▁Nand	-8585
▁Bhutan	-8586
▁visits	-8587
▁clauses	-8588
▁observe	-8589
▁commerce	-8590
▁cultures	-8591
▁succession	-8592
▁involvement	-8593
kim	-8594
will	-8595
▁sul	-8596
ighth	-8597
otism	-8598
▁Amrit	-8599
▁Class	-8600
▁genes	-8601
▁spell	-8602
▁plains	-8603
▁History	-8604
▁mixture	-8605
▁machines	-8606
▁objection	-8607
▁surrounded	-8608
▁Organization	-8609
uri	-8610
▁Ny	-8611
anim	-8612
▁Inc	-8613
▁Ref	-8614
▁Yoj	-8615
▁kit	-8616
amboo	-8617
▁1000	-8618
▁Bhav	-8619
▁Term	-8620
▁surg	-8621
terior	-8622
▁Enterpr	-8623
▁affects	-8624
▁fashion	-8625
▁utilised	-8626
▁discovery	-8627
▁empowered	-8628
▁modification	-8629
AND	-8630
▁95	-8631
thal	-8632
▁mamm	-8633
ortion	-8634
▁immig	-8635
▁Lucknow	-8636
▁creates	-8637
▁entries	-8638
▁ignored	-8639
▁balanced	-8640
▁discount	-8641
▁reserves	-8642
▁imperialism	-8643
▁Institutions	-8644
UG	-8645
oz	-8646
▁AW	-8647
ford	-8648
pura	-8649
▁Fam	-8650
▁tap	-8651
aimed	-8652
▁Jagann	-8653
▁freely	-8654
▁humans	-8655
▁plastic	-8656
▁basically	-8657
▁immovable	-8658
▁provinces	-8659
uma	-8660
▁Ha	-8661
▁void	-8662
▁acted	-8663
▁railways	-8664
▁Christians	-8665
▁productive	-8666
▁HT	-8667
▁Out	-8668
▁tun	-8669
inder	-8670
▁shot	-8671
▁anonym	-8672
▁reward	-8673
▁vimana	-8674
▁writes	-8675
▁denomin	-8676
▁license	-8677
▁concluded	-8678
▁judgments	-8679
log	-8680
▁59	-8681
adra	-8682
eper	-8683
icals	-8684
▁chick	-8685
▁destiny	-8686
▁retained	-8687
▁restricted	-8688
▁nevertheless	-8689
▁transparency	-8690
▁Bro	-8691
▁cup	-8692
▁spr	-8693
obile	-8694
▁ages	-8695
▁Vivek	-8696
▁abund	-8697
▁reass	-8698
▁plural	-8699
▁anybody	-8700
▁insurer	-8701
▁inferior	-8702
▁dimension	-8703
▁surrender	-8704
▁separation	-8705
BER	-8706
▁62	-8707
▁CR	-8708
ahan	-8709
▁EVE	-8710
rible	-8711
▁Oper	-8712
▁hung	-8713
▁stip	-8714
▁cease	-8715
▁paddy	-8716
▁unexp	-8717
▁Museum	-8718
▁arrive	-8719
▁levied	-8720
▁Session	-8721
▁estimate	-8722
▁extending	-8723
▁intervention	-8724
▁concentration	-8725
orce	-8726
▁Dom	-8727
▁lob	-8728
▁tag	-8729
▁tum	-8730
▁unh	-8731
arkar	-8732
▁fond	-8733
▁hors	-8734
▁sake	-8735
itated	-8736
▁Arabs	-8737
▁pharm	-8738
ologist	-8739
▁dissol	-8740
▁flying	-8741
▁streams	-8742
▁Planning	-8743
▁exclusively	-8744
▁EX	-8745
▁Vish	-8746
▁With	-8747
▁supr	-8748
▁brand	-8749
▁Bhagat	-8750
▁compan	-8751
▁Narayan	-8752
▁William	-8753
▁attained	-8754
▁safeguard	-8755
▁limitations	-8756
▁perspective	-8757
pa	-8758
fer	-8759
adequ	-8760
▁1954	-8761
▁monso	-8762
▁perce	-8763
▁agenda	-8764
▁equals	-8765
▁declare	-8766
▁dynasty	-8767
▁forming	-8768
▁Consumer	-8769
▁colleagues	-8770
▁functional	-8771
▁78	-8772
oure	-8773
upee	-8774
▁gov	-8775
acles	-8776
orate	-8777
▁1963	-8778
ancies	-8779
oultry	-8780
▁storm	-8781
▁harmon	-8782
▁believes	-8783
▁schedule	-8784
▁highlight	-8785
▁inflation	-8786
▁mechanical	-8787
▁substances	-8788
airy	-8789
▁Tib	-8790
▁Yam	-8791
alaya	-8792
wered	-8793
▁1946	-8794
▁agro	-8795
▁sees	-8796
▁seiz	-8797
ushing	-8798
▁Raman	-8799
▁reign	-8800
▁suits	-8801
▁Sharma	-8802
▁Sindhi	-8803
▁exceeds	-8804
▁skilled	-8805
▁untouch	-8806
▁rendering	-8807
▁wonderful	-8808
▁consistent	-8809
▁67	-8810
▁gro	-8811
▁Bhai	-8812
▁chap	-8813
icable	-8814
▁toward	-8815
▁Viceroy	-8816
▁deleted	-8817
▁Aurobind	-8818
▁attacked	-8819
▁manpower	-8820
▁collecting	-8821
▁Certificate	-8822
▁capabilities	-8823
▁developmental	-8824
akings	-8825
▁Every	-8826
▁Samaj	-8827
▁eleven	-8828
▁resemb	-8829
▁tenant	-8830
▁distant	-8831
▁virtual	-8832
▁Chancell	-8833
▁realized	-8834
▁separated	-8835
▁Dwarkanath	-8836
▁consequently	-8837
ss	-8838
ocy	-8839
ocks	-8840
▁ster	-8841
otions	-8842
▁grains	-8843
▁respir	-8844
▁serves	-8845
▁therap	-8846
▁muscles	-8847
▁entrance	-8848
▁responses	-8849
▁attractive	-8850
OV	-8851
aunt	-8852
▁aqu	-8853
idity	-8854
▁Mach	-8855
▁merc	-8856
▁sail	-8857
▁Quran	-8858
▁chart	-8859
▁trick	-8860
▁detect	-8861
▁forgot	-8862
▁inadequ	-8863
▁lending	-8864
▁logical	-8865
▁redress	-8866
▁repealed	-8867
▁photograph	-8868
▁prevention	-8869
▁reputation	-8870
▁publications	-8871
reet	-8872
▁Vid	-8873
▁vex	-8874
ridge	-8875
ulses	-8876
▁1972	-8877
▁1977	-8878
▁peak	-8879
urrent	-8880
▁Patna	-8881
▁actor	-8882
▁cryst	-8883
▁tight	-8884
▁conform	-8885
▁enemies	-8886
▁Movement	-8887
▁possibly	-8888
▁surrounding	-8889
tha	-8890
chen	-8891
▁Dig	-8892
asion	-8893
▁beet	-8894
▁rand	-8895
▁Maurit	-8896
▁Sikkim	-8897
▁estate	-8898
▁thrown	-8899
▁avoided	-8900
▁Constituent	-8901
▁XX	-8902
▁Vin	-8903
▁ups	-8904
orney	-8905
▁indul	-8906
▁widow	-8907
▁allied	-8908
▁Singles	-8909
▁cooking	-8910
▁fraction	-8911
▁Directorate	-8912
fe	-8913
uni	-8914
acco	-8915
eers	-8916
rosc	-8917
▁Nor	-8918
▁Ran	-8919
▁tow	-8920
▁bulk	-8921
▁hort	-8922
▁nurt	-8923
▁Sikhs	-8924
▁Reform	-8925
▁harass	-8926
▁presum	-8927
▁conserv	-8928
▁restore	-8929
▁tissues	-8930
▁disaster	-8931
▁pregnant	-8932
▁elephants	-8933
▁liberation	-8934
.08	-8935
pay	-8936
▁ma	-8937
atta	-8938
ndra	-8939
▁Dam	-8940
▁Fil	-8941
▁NIT	-8942
attis	-8943
ulent	-8944
▁disb	-8945
agraha	-8946
atious	-8947
▁honey	-8948
▁ports	-8949
▁insult	-8950
▁legend	-8951
▁alcohol	-8952
▁withdraw	-8953
▁Aurobindo	-8954
▁judgement	-8955
▁satellite	-8956
▁grievances	-8957
UB	-8958
UK	-8959
das	-8960
onent	-8961
▁uter	-8962
▁label	-8963
▁penis	-8964
▁habits	-8965
▁losses	-8966
▁weapon	-8967
▁segment	-8968
▁Category	-8969
▁statistics	-8970
▁connections	-8971
ipp	-8972
▁By	-8973
▁Ek	-8974
▁MW	-8975
▁ov	-8976
imony	-8977
▁tact	-8978
ounded	-8979
▁favor	-8980
▁foods	-8981
▁Agency	-8982
▁decree	-8983
▁random	-8984
▁retail	-8985
▁shadow	-8986
▁suggests	-8987
▁inevitable	-8988
▁controversy	-8989
VIC	-8990
▁ho	-8991
fare	-8992
▁Jer	-8993
▁Band	-8994
▁tiny	-8995
▁Greek	-8996
▁irrit	-8997
▁bought	-8998
▁Shankar	-8999
▁Malayalam	-9000
▁Radhakrishnan	-9001
erk	-9002
▁69	-9003
ENCE	-9004
▁Vas	-9005
pless	-9006
▁chol	-9007
▁monu	-9008
▁Gopal	-9009
▁flows	-9010
▁assume	-9011
▁specim	-9012
▁Russian	-9013
▁Standards	-9014
▁desirable	-9015
▁Rabindranath	-9016
▁psychological	-9017
▁rej	-9018
▁vot	-9019
apore	-9020
plant	-9021
▁1930	-9022
▁hect	-9023
aching	-9024
wealth	-9025
▁camera	-9026
▁thrust	-9027
▁treaty	-9028
▁contrad	-9029
▁shoulder	-9030
▁prisoners	-9031
▁spreading	-9032
▁evaluation	-9033
▁incentives	-9034
night	-9035
▁1951	-9036
▁1955	-9037
▁mart	-9038
stream	-9039
▁mango	-9040
▁smart	-9041
▁deaths	-9042
▁laying	-9043
▁miscon	-9044
▁arrival	-9045
▁Abdullah	-9046
▁diabetes	-9047
▁managing	-9048
▁romantic	-9049
▁dismissed	-9050
▁irrespective	-9051
▁#	-9052
▁Equ	-9053
▁unm	-9054
▁1938	-9055
▁degr	-9056
▁tape	-9057
inions	-9058
▁Ashok	-9059
▁sport	-9060
▁tears	-9061
▁virus	-9062
▁satisfy	-9063
▁streets	-9064
▁allowing	-9065
▁behavior	-9066
▁coverage	-9067
▁approaches	-9068
ART	-9069
chi	-9070
▁Hus	-9071
aland	-9072
▁jute	-9073
▁Being	-9074
▁shops	-9075
▁split	-9076
▁advent	-9077
▁patron	-9078
▁videos	-9079
▁Airport	-9080
▁Commerce	-9081
▁Registrar	-9082
▁incomplete	-9083
30	-9084
▁Ib	-9085
▁NE	-9086
▁SA	-9087
▁Any	-9088
▁1939	-9089
▁stro	-9090
▁mouse	-9091
ichever	-9092
ogether	-9093
▁Family	-9094
▁dialog	-9095
▁museum	-9096
▁timely	-9097
▁proceeds	-9098
▁festivals	-9099
▁whichever	-9100
▁philosophical	-9101
▁97	-9102
emen	-9103
onut	-9104
▁1975	-9105
▁Vict	-9106
▁germ	-9107
▁ling	-9108
usions	-9109
▁Queen	-9110
▁accru	-9111
▁crude	-9112
▁deeper	-9113
▁Pacific	-9114
▁helpful	-9115
▁concrete	-9116
▁studying	-9117
▁indirectly	-9118
▁prevailing	-9119
bi	-9120
▁Vik	-9121
▁aug	-9122
eping	-9123
▁Rani	-9124
▁neut	-9125
▁Indra	-9126
▁Koran	-9127
▁Treat	-9128
▁overl	-9129
▁Region	-9130
▁coffee	-9131
ificates	-9132
▁interim	-9133
▁Ayurveda	-9134
▁shareholders	-9135
▁substantially	-9136
ques	-9137
▁orn	-9138
chron	-9139
▁1969	-9140
▁alarm	-9141
▁doors	-9142
▁reads	-9143
▁remun	-9144
lements	-9145
▁bamboo	-9146
▁hatred	-9147
▁laboure	-9148
▁reconst	-9149
▁supports	-9150
▁frequency	-9151
▁generating	-9152
▁transparent	-9153
▁Palestinians	-9154
▁AN	-9155
onso	-9156
▁Vig	-9157
araja	-9158
▁1978	-9159
▁unus	-9160
scious	-9161
▁Green	-9162
▁Indus	-9163
▁depri	-9164
▁moves	-9165
attered	-9166
▁Forces	-9167
▁Global	-9168
▁grants	-9169
▁extends	-9170
▁NATIONAL	-9171
▁opinions	-9172
▁vertical	-9173
▁economies	-9174
▁dedication	-9175
▁significantly	-9176
▁q	-9177
▁IF	-9178
idal	-9179
▁Bhar	-9180
▁Path	-9181
▁Money	-9182
▁Nicob	-9183
▁borne	-9184
▁india	-9185
▁lists	-9186
▁shout	-9187
▁sorry	-9188
▁tempor	-9189
▁termin	-9190
▁Turkish	-9191
▁exposed	-9192
▁intensity	-9193
▁enthusiasm	-9194
▁transmitted	-9195
UD	-9196
kes	-9197
bery	-9198
idav	-9199
▁120	-9200
point	-9201
▁tied	-9202
▁lymph	-9203
acharya	-9204
▁voting	-9205
▁surgical	-9206
▁Panchayat	-9207
▁Application	-9208
▁Cy	-9209
just	-9210
▁Jord	-9211
▁Viet	-9212
▁aest	-9213
liness	-9214
▁ambit	-9215
▁camel	-9216
▁grade	-9217
uilding	-9218
▁Arabia	-9219
▁belonged	-9220
▁coloured	-9221
▁Investment	-9222
▁protecting	-9223
▁supramental	-9224
DR	-9225
TE	-9226
iki	-9227
osa	-9228
rot	-9229
itan	-9230
aints	-9231
oused	-9232
▁minim	-9233
▁owing	-9234
▁fright	-9235
▁ignore	-9236
▁oldest	-9237
▁conspir	-9238
▁earthqu	-9239
▁omitted	-9240
▁secured	-9241
▁regulate	-9242
elt	-9243
▁Suf	-9244
angle	-9245
▁Chak	-9246
▁Kath	-9247
▁Mall	-9248
▁Sang	-9249
▁disag	-9250
▁fourt	-9251
▁games	-9252
▁herein	-9253
▁lesser	-9254
▁beliefs	-9255
▁utility	-9256
▁orthodox	-9257
▁Directors	-9258
▁Palestine	-9259
▁fulfilled	-9260
▁countrymen	-9261
▁regulatory	-9262
▁anniversary	-9263
▁Organisation	-9264
sar	-9265
var	-9266
▁Haz	-9267
▁Rem	-9268
▁Love	-9269
▁nice	-9270
angers	-9271
▁slope	-9272
▁explos	-9273
▁utmost	-9274
chnology	-9275
▁ceremon	-9276
▁matches	-9277
▁accessible	-9278
▁previously	-9279
his	-9280
hta	-9281
▁76	-9282
▁Ken	-9283
astri	-9284
▁Farm	-9285
▁Soft	-9286
▁fool	-9287
ipedia	-9288
▁Patel	-9289
▁sample	-9290
▁splend	-9291
▁Hamachi	-9292
▁Upanish	-9293
▁monsoon	-9294
▁typical	-9295
▁assessed	-9296
▁frequent	-9297
▁rainfall	-9298
▁introduce	-9299
▁medicines	-9300
▁strengthened	-9301
SA	-9302
ocal	-9303
▁250	-9304
▁Hem	-9305
▁Prat	-9306
▁wake	-9307
▁Entry	-9308
▁Menon	-9309
▁tends	-9310
viation	-9311
▁clouds	-9312
▁hunger	-9313
▁purity	-9314
▁Manilal	-9315
▁coconut	-9316
▁Children	-9317
▁prevalent	-9318
▁biological	-9319
▁procedural	-9320
▁allegations	-9321
▁AR	-9322
ashed	-9323
iscal	-9324
▁gest	-9325
▁bench	-9326
manship	-9327
▁Jordan	-9328
▁crimes	-9329
▁decent	-9330
▁errors	-9331
▁marine	-9332
▁Andaman	-9333
▁Deposit	-9334
▁Mohammed	-9335
▁painting	-9336
▁prisoner	-9337
▁variable	-9338
▁gathering	-9339
▁inclusion	-9340
▁Employment	-9341
▁interference	-9342
AK	-9343
▁89	-9344
▁ji	-9345
▁Nam	-9346
▁Rat	-9347
▁Sin	-9348
▁apt	-9349
▁epis	-9350
▁extrem	-9351
▁propri	-9352
ologists	-9353
▁Resource	-9354
▁answered	-9355
▁exposure	-9356
▁envisaged	-9357
▁expensive	-9358
▁nationalism	-9359
▁PS	-9360
oster	-9361
▁Fest	-9362
▁Free	-9363
roller	-9364
▁encry	-9365
▁relie	-9366
▁Yojana	-9367
▁doubts	-9368
▁exempt	-9369
▁humble	-9370
▁interc	-9371
▁abstract	-9372
▁affecting	-9373
▁Id	-9374
phal	-9375
cence	-9376
▁Thir	-9377
▁obsc	-9378
▁talks	-9379
▁patent	-9380
attisgarh	-9381
▁Railways	-9382
▁altogether	-9383
▁apparently	-9384
▁inaugurated	-9385
▁Commonwealth	-9386
amese	-9387
▁Conf	-9388
acular	-9389
▁Ocean	-9390
▁Mahade	-9391
▁binary	-9392
▁nearest	-9393
▁upgrade	-9394
▁membrane	-9395
▁hospitals	-9396
▁withdrawn	-9397
▁comparison	-9398
▁Territories	-9399
▁considerably	-9400
ago	-9401
ihad	-9402
▁Mrs	-9403
▁sar	-9404
▁Level	-9405
▁crack	-9406
▁guess	-9407
▁guided	-9408
▁manual	-9409
▁reveal	-9410
▁maturity	-9411
▁advantages	-9412
▁commencing	-9413
▁Institution	-9414
▁liabilities	-9415
▁administrator	-9416
ITY	-9417
▁81	-9418
▁Sl	-9419
▁Vaj	-9420
andra	-9421
riers	-9422
▁1962	-9423
▁cheap	-9424
edience	-9425
onsored	-9426
▁Federal	-9427
▁statute	-9428
▁crossing	-9429
▁contracts	-9430
▁proceeded	-9431
▁restraint	-9432
▁Secretariat	-9433
PA	-9434
azi	-9435
oven	-9436
▁Sad	-9437
rants	-9438
▁1952	-9439
▁kids	-9440
holder	-9441
ickets	-9442
▁dollar	-9443
▁rarely	-9444
▁worksh	-9445
▁affidav	-9446
▁critics	-9447
▁computed	-9448
▁visitors	-9449
▁returning	-9450
▁challenged	-9451
▁preference	-9452
▁explanation	-9453
isan	-9454
isha	-9455
▁Ste	-9456
▁cod	-9457
▁vel	-9458
▁wet	-9459
onged	-9460
▁rear	-9461
inking	-9462
▁Hamas	-9463
▁tiger	-9464
▁sincere	-9465
▁contempl	-9466
▁demanded	-9467
▁mortgage	-9468
▁advertise	-9469
▁considers	-9470
sa	-9471
▁cha	-9472
▁din	-9473
▁Ragh	-9474
▁oath	-9475
▁trig	-9476
▁Prize	-9477
▁relax	-9478
▁......	-9479
▁reiter	-9480
▁receipts	-9481
▁subtract	-9482
▁Territory	-9483
▁intensive	-9484
▁describing	-9485
IST	-9486
eals	-9487
iety	-9488
stan	-9489
utra	-9490
▁Kore	-9491
▁pend	-9492
▁digit	-9493
▁themes	-9494
▁Asutosh	-9495
▁suspect	-9496
▁Buddhism	-9497
▁criteria	-9498
▁minerals	-9499
▁Europeans	-9500
▁Wikipedia	-9501
▁elaborate	-9502
▁impartial	-9503
▁witnessed	-9504
▁formulated	-9505
▁passengers	-9506
occ	-9507
▁61	-9508
nagar	-9509
▁drew	-9510
▁laugh	-9511
▁buying	-9512
▁casual	-9513
▁gender	-9514
▁immort	-9515
▁outward	-9516
▁watching	-9517
▁residents	-9518
▁imperative	-9519
▁conversation	-9520
beh	-9521
vas	-9522
▁eg	-9523
▁Lol	-9524
▁Rai	-9525
▁grav	-9526
▁swit	-9527
▁dowry	-9528
▁advise	-9529
▁cavity	-9530
▁refuse	-9531
▁seconds	-9532
▁touched	-9533
▁moderate	-9534
▁scientist	-9535
▁assignment	-9536
▁CC	-9537
▁GN	-9538
Tube	-9539
▁600	-9540
▁Ber	-9541
▁lod	-9542
eeper	-9543
▁1967	-9544
▁NIOS	-9545
▁alph	-9546
atical	-9547
usalem	-9548
▁David	-9549
▁bliss	-9550
▁lotus	-9551
▁surve	-9552
▁emerge	-9553
▁offline	-9554
▁Agreement	-9555
▁Jerusalem	-9556
▁professionals	-9557
abu	-9558
uta	-9559
▁AC	-9560
▁Yus	-9561
▁Wild	-9562
urable	-9563
▁Tilak	-9564
▁angry	-9565
▁indif	-9566
essment	-9567
▁Almast	-9568
▁buffal	-9569
iliation	-9570
ribution	-9571
▁Inspect	-9572
▁shelter	-9573
▁survive	-9574
▁concepts	-9575
▁peripher	-9576
▁deposited	-9577
▁substitute	-9578
iat	-9579
▁tob	-9580
▁enfor	-9581
▁Manager	-9582
▁disposed	-9583
▁linkages	-9584
▁taxation	-9585
▁instances	-9586
▁recognise	-9587
▁BI	-9588
▁DE	-9589
▁nit	-9590
itors	-9591
▁They	-9592
▁unne	-9593
▁admir	-9594
▁embod	-9595
▁Lolita	-9596
▁solemn	-9597
▁instant	-9598
▁subjected	-9599
▁nationalist	-9600
▁classification	-9601
oub	-9602
▁mud	-9603
▁1979	-9604
▁Cell	-9605
▁Sidd	-9606
▁Khand	-9607
▁Island	-9608
▁Terror	-9609
▁astron	-9610
aughters	-9611
▁poultry	-9612
eneration	-9613
▁allotted	-9614
▁helpless	-9615
▁capability	-9616
▁legitimate	-9617
▁mechanisms	-9618
oys	-9619
▁96	-9620
▁Er	-9621
▁Jo	-9622
appa	-9623
ilee	-9624
▁Let	-9625
▁SAYS	-9626
▁drum	-9627
▁lays	-9628
▁boost	-9629
▁proxy	-9630
mitting	-9631
▁bitter	-9632
▁flowing	-9633
▁daughters	-9634
▁conception	-9635
▁respondents	-9636
icts	-9637
▁forb	-9638
▁Yusuf	-9639
▁enrol	-9640
▁moist	-9641
▁worst	-9642
▁Chaluk	-9643
▁Tribes	-9644
▁invite	-9645
▁dollars	-9646
▁inspire	-9647
▁validity	-9648
▁nutrition	-9649
▁afterwards	-9650
▁controlling	-9651
osy	-9652
▁82	-9653
▁Tat	-9654
▁hub	-9655
▁ton	-9656
▁Disc	-9657
▁Spir	-9658
advant	-9659
▁liver	-9660
imental	-9661
▁compos	-9662
▁curric	-9663
▁mirror	-9664
▁credited	-9665
▁removing	-9666
▁reporting	-9667
▁Recommendation	-9668
▁Ho	-9669
conn	-9670
like	-9671
▁CHA	-9672
▁Mys	-9673
▁Sha	-9674
▁bell	-9675
▁ears	-9676
icating	-9677
itement	-9678
▁Library	-9679
▁controls	-9680
▁instinct	-9681
▁listening	-9682
▁medicinal	-9683
▁recovered	-9684
▁complement	-9685
▁deficiency	-9686
▁quantities	-9687
▁philosopher	-9688
▁continuously	-9689
▁characterized	-9690
▁notwithstanding	-9691
nat	-9692
uan	-9693
▁PDF	-9694
orthy	-9695
▁Gard	-9696
▁Mess	-9697
▁quad	-9698
▁shed	-9699
▁deter	-9700
▁rupee	-9701
▁upset	-9702
▁Kittur	-9703
▁traged	-9704
▁Gandhar	-9705
▁everyday	-9706
▁favourite	-9707
▁locations	-9708
▁testimony	-9709
▁authorized	-9710
▁empowerment	-9711
▁reservation	-9712
▁administered	-9713
▁depreciation	-9714
obi	-9715
▁93	-9716
▁Exc	-9717
▁GDP	-9718
▁ISO	-9719
▁fro	-9720
▁1965	-9721
▁stab	-9722
▁YouTube	-9723
▁permits	-9724
▁predomin	-9725
▁terrible	-9726
▁Arunachal	-9727
▁Governors	-9728
▁endeavours	-9729
▁ordinarily	-9730
▁electronics	-9731
▁negotiations	-9732
ba	-9733
pes	-9734
▁Nob	-9735
▁cel	-9736
▁Vill	-9737
▁asce	-9738
ferent	-9739
▁hopes	-9740
▁midst	-9741
▁secre	-9742
▁ships	-9743
▁Center	-9744
▁filter	-9745
▁applying	-9746
▁disadvant	-9747
▁signature	-9748
▁classified	-9749
▁unexpected	-9750
▁transformed	-9751
▁VI	-9752
aran	-9753
sole	-9754
▁RTI	-9755
▁deed	-9756
▁lots	-9757
▁soph	-9758
▁Sultan	-9759
▁fallen	-9760
▁Benefit	-9761
▁coastal	-9762
▁reverse	-9763
▁torture	-9764
▁tribute	-9765
▁Software	-9766
▁scenario	-9767
▁uncertain	-9768
▁connectivity	-9769
JEE	-9770
▁OS	-9771
arer	-9772
▁SHRI	-9773
▁fate	-9774
▁fles	-9775
▁lion	-9776
▁push	-9777
▁unsu	-9778
▁mobil	-9779
▁resid	-9780
▁Export	-9781
▁Shakti	-9782
▁anyway	-9783
▁crafts	-9784
▁Revenue	-9785
▁undergo	-9786
unciation	-9787
▁secondly	-9788
▁appellate	-9789
▁brilliant	-9790
pro	-9791
uds	-9792
term	-9793
zing	-9794
▁Fac	-9795
▁Muk	-9796
▁jun	-9797
▁pix	-9798
illary	-9799
▁ineff	-9800
▁define	-9801
▁incomp	-9802
▁nomine	-9803
▁repeat	-9804
▁artists	-9805
▁battery	-9806
▁chamber	-9807
▁explains	-9808
▁interact	-9809
▁Singapore	-9810
▁enactment	-9811
▁vexatious	-9812
▁satisfactory	-9813
sor	-9814
udra	-9815
▁See	-9816
oresh	-9817
▁Roman	-9818
▁glaci	-9819
▁Bhagav	-9820
▁meters	-9821
▁thanks	-9822
▁anxious	-9823
▁desires	-9824
▁leaflet	-9825
▁tobacco	-9826
▁volumes	-9827
▁artistic	-9828
▁confirmed	-9829
▁factories	-9830
▁worldwide	-9831
▁practically	-9832
fol	-9833
yle	-9834
▁86	-9835
▁Ir	-9836
▁gh	-9837
▁Hit	-9838
▁1983	-9839
▁Five	-9840
▁amid	-9841
▁drag	-9842
▁ease	-9843
▁Grand	-9844
▁Saroj	-9845
▁semin	-9846
▁smoke	-9847
▁tries	-9848
▁Kanpur	-9849
▁contra	-9850
▁lesson	-9851
▁wooden	-9852
▁devotees	-9853
▁invested	-9854
▁respects	-9855
otechnology	-9856
▁perception	-9857
▁fertilizers	-9858
▁associations	-9859
fect	-9860
race	-9861
eader	-9862
gence	-9863
▁keys	-9864
▁suck	-9865
▁embry	-9866
▁waves	-9867
uminous	-9868
urement	-9869
▁Mysore	-9870
▁descend	-9871
▁Articles	-9872
▁apprehens	-9873
▁attempted	-9874
▁expanding	-9875
▁compromise	-9876
▁threatened	-9877
70	-9878
▁98	-9879
▁anth	-9880
▁enqu	-9881
rection	-9882
▁Senior	-9883
▁cement	-9884
▁jewell	-9885
▁passes	-9886
▁targets	-9887
▁Contract	-9888
▁electoral	-9889
▁substantive	-9890
▁accountability	-9891
eta	-9892
pled	-9893
usha	-9894
▁LIN	-9895
▁umb	-9896
icked	-9897
▁1968	-9898
▁Pall	-9899
▁Paris	-9900
▁cards	-9901
▁dimin	-9902
▁surpl	-9903
ciences	-9904
▁Estate	-9905
▁kidney	-9906
▁Kannada	-9907
▁	-9908
e	-9909
t	-9910
a	-9911
i	-9912
o	-9913
n	-9914
s	-9915
r	-9916
h	-9917
l	-9918
d	-9919
c	-9920
u	-9921
m	-9922
f	-9923
p	-9924
g	-9925
y	-9926
w	-9927
b	-9928
.	-9929
v	-9930
,	-9931
k	-9932
I	-9933
S	-9934
;	-9935
-	-9936
A	-9937
C	-9938
&	-9939
1	-9940
x	-9941
P	-9942
0	-9943
M	-9944
R	-9945
j	-9946
B	-9947
2	-9948
T	-9949
D	-9950
E	-9951
N	-9952
)	-9953
q	-9954
(	-9955
G	-9956
9	-9957
H	-9958
L	-9959
O	-9960
3	-9961
5	-9962
z	-9963
:	-9964
4	-9965
K	-9966
F	-9967
8	-9968
6	-9969
U	-9970
J	-9971
7	-9972
/	-9973
V	-9974
W	-9975
”	-9976
“	-9977
?	-9978
%	-9979
’	-9980
Y	-9981
#	-9982
‘	-9983
!	-9984
{	-9985
}	-9986
—	-9987
_	-9988
Q	-9989
X	-9990
Z	-9991
*	-9992
–	-9993
$	-9994
्	-9995
=	-9996
