<unk>	0
<s>	0
</s>	0
UuRrLl	0
DdAaTtEe	0
NnUuMm	0
▁t	-0
▁a	-1
he	-2
in	-3
▁the	-4
▁o	-5
re	-6
▁s	-7
on	-8
er	-9
▁c	-10
at	-11
en	-12
is	-13
▁p	-14
▁w	-15
▁of	-16
▁b	-17
it	-18
▁in	-19
an	-20
▁f	-21
es	-22
al	-23
▁an	-24
▁m	-25
ed	-26
or	-27
ar	-28
ion	-29
▁d	-30
ou	-31
ing	-32
▁to	-33
▁and	-34
▁h	-35
ic	-36
as	-37
▁l	-38
ent	-39
ro	-40
▁n	-41
▁th	-42
▁re	-43
ct	-44
▁e	-45
le	-46
▁g	-47
▁be	-48
om	-49
il	-50
▁is	-51
st	-52
ve	-53
ation	-54
ut	-55
ra	-56
▁u	-57
id	-58
im	-59
ce	-60
▁for	-61
ot	-62
se	-63
ly	-64
ur	-65
▁on	-66
et	-67
ver	-68
▁st	-69
▁it	-70
ment	-71
▁as	-72
▁-	-73
ad	-74
ol	-75
▁pro	-76
▁con	-77
ch	-78
▁he	-79
▁or	-80
ay	-81
ig	-82
▁that	-83
▁wh	-84
▁de	-85
ow	-86
ir	-87
am	-88
ul	-89
▁su	-90
▁y	-91
▁al	-92
if	-93
ith	-94
ri	-95
▁com	-96
ter	-97
▁v	-98
▁se	-99
ate	-100
▁we	-101
▁with	-102
ab	-103
ge	-104
▁k	-105
her	-106
▁by	-107
ess	-108
▁ind	-109
▁r	-110
res	-111
▁un	-112
ld	-113
ist	-114
▁ex	-115
ers	-116
▁are	-117
▁was	-118
▁this	-119
od	-120
▁sh	-121
▁(	-122
our	-123
oun	-124
▁not	-125
▁'	-126
and	-127
ak	-128
ity	-129
pe	-130
▁ch	-131
us	-132
▁j	-133
ill	-134
op	-135
un	-136
qu	-137
▁at	-138
iv	-139
▁ha	-140
ction	-141
ain	-142
ia	-143
est	-144
ci	-145
th	-146
um	-147
em	-148
ant	-149
ive	-150
▁ne	-151
pp	-152
ich	-153
rom	-154
os	-155
art	-156
red	-157
▁go	-158
ies	-159
ht	-160
end	-161
ort	-162
▁which	-163
ac	-164
▁i	-165
▁from	-166
ore	-167
▁his	-168
ud	-169
all	-170
der	-171
ure	-172
▁has	-173
▁have	-174
ust	-175
ould	-176
▁so	-177
el	-178
▁le	-179
▁you	-180
ous	-181
▁all	-182
▁wor	-183
ther	-184
ard	-185
▁ad	-186
▁en	-187
▁ac	-188
ind	-189
ren	-190
▁whe	-191
ag	-192
te	-193
▁pl	-194
▁im	-195
▁comp	-196
age	-197
pt	-198
▁india	-199
ome	-200
▁can	-201
ated	-202
▁ab	-203
ry	-204
ight	-205
▁comm	-206
▁but	-207
▁there	-208
▁ar	-209
ount	-210
▁man	-211
▁me	-212
ance	-213
ice	-214
fe	-215
ie	-216
ap	-217
ans	-218
ary	-219
able	-220
▁dis	-221
▁any	-222
▁res	-223
so	-224
ical	-225
▁do	-226
ence	-227
▁per	-228
▁act	-229
▁cont	-230
ide	-231
▁ra	-232
▁lo	-233
pl	-234
▁pres	-235
ions	-236
▁under	-237
▁one	-238
ru	-239
oug	-240
▁ag	-241
▁other	-242
▁am	-243
ult	-244
▁inc	-245
▁part	-246
per	-247
▁they	-248
ast	-249
▁will	-250
▁their	-251
ish	-252
ong	-253
ial	-254
ib	-255
▁us	-256
▁who	-257
▁int	-258
▁been	-259
ll	-260
▁cl	-261
du	-262
og	-263
av	-264
▁no	-265
out	-266
▁also	-267
▁af	-268
ations	-269
ik	-270
ost	-271
ine	-272
ame	-273
▁tim	-274
ip	-275
▁app	-276
vel	-277
▁its	-278
▁up	-279
iz	-280
▁imp	-281
ang	-282
ear	-283
rit	-284
▁had	-285
▁if	-286
▁acc	-287
vern	-288
▁prov	-289
▁sub	-290
▁out	-291
ase	-292
▁cour	-293
▁govern	-294
ound	-295
ian	-296
▁pe	-297
au	-298
orm	-299
▁such	-300
very	-301
act	-302
ok	-303
lic	-304
▁off	-305
▁pr	-306
ire	-307
▁te	-308
▁were	-309
ition	-310
ub	-311
ally	-312
▁our	-313
▁tr	-314
sion	-315
one	-316
▁may	-317
ident	-318
▁rel	-319
ach	-320
▁spe	-321
▁year	-322
▁sc	-323
▁qu	-324
▁sa	-325
ough	-326
▁pre	-327
▁sp	-328
ake	-329
ail	-330
ber	-331
erv	-332
▁ev	-333
ect	-334
ory	-335
ign	-336
cess	-337
ue	-338
▁state	-339
ass	-340
▁court	-341
ree	-342
▁/	-343
oc	-344
ater	-345
▁them	-346
▁pers	-347
ational	-348
▁cons	-349
ace	-350
▁reg	-351
▁government	-352
▁when	-353
cial	-354
▁em	-355
▁la	-356
▁new	-357
▁him	-358
▁time	-359
▁work	-360
▁po	-361
▁these	-362
ose	-363
▁pol	-364
ution	-365
▁cent	-366
ious	-367
now	-368
▁tra	-369
ord	-370
stit	-371
▁tw	-372
ings	-373
▁“	-374
are	-375
▁some	-376
▁rec	-377
▁mar	-378
form	-379
ities	-380
▁more	-381
ress	-382
▁peop	-383
▁bec	-384
ces	-385
tern	-386
▁person	-387
ath	-388
▁rep	-389
▁ro	-390
ile	-391
ike	-392
▁people	-393
ade	-394
ric	-395
ack	-396
low	-397
▁count	-398
▁should	-399
ep	-400
▁only	-401
ens	-402
hed	-403
rib	-404
▁gr	-405
▁would	-406
▁sy	-407
▁min	-408
reat	-409
▁your	-410
▁ma	-411
con	-412
▁co	-413
me	-414
ays	-415
▁fe	-416
▁know	-417
ause	-418
▁about	-419
ted	-420
▁like	-421
ild	-422
▁over	-423
ments	-424
ject	-425
▁hig	-426
velop	-427
ual	-428
ite	-429
▁bo	-430
▁ass	-431
▁develop	-432
▁form	-433
ank	-434
▁into	-435
ates	-436
lf	-437
▁after	-438
ied	-439
▁two	-440
▁my	-441
▁what	-442
▁dec	-443
ife	-444
feren	-445
ise	-446
▁ob	-447
ram	-448
ific	-449
fore	-450
row	-451
▁fir	-452
▁col	-453
ced	-454
▁trans	-455
▁exp	-456
▁mo	-457
▁made	-458
uc	-459
▁ent	-460
lect	-461
▁gen	-462
▁serv	-463
▁law	-464
▁her	-465
▁att	-466
ha	-467
▁indian	-468
ff	-469
▁dep	-470
▁section	-471
▁how	-472
▁shall	-473
▁par	-474
▁rem	-475
▁thr	-476
ative	-477
▁pub	-478
▁where	-479
pect	-480
▁inv	-481
▁des	-482
▁bet	-483
ood	-484
ward	-485
▁than	-486
we	-487
▁president	-488
ph	-489
ism	-490
ert	-491
▁ter	-492
har	-493
ating	-494
int	-495
vers	-496
▁ap	-497
▁dif	-498
cy	-499
▁br	-500
▁being	-501
ors	-502
▁ed	-503
▁through	-504
▁just	-505
▁produ	-506
ful	-507
▁aut	-508
▁she	-509
▁life	-510
hi	-511
▁mem	-512
▁right	-513
▁first	-514
wn	-515
ular	-516
▁world	-517
ission	-518
▁said	-519
▁mu	-520
ower	-521
ness	-522
uring	-523
▁op	-524
min	-525
ty	-526
▁dist	-527
▁set	-528
▁ph	-529
fect	-530
gan	-531
▁pur	-532
oy	-533
▁fun	-534
led	-535
▁jud	-536
▁bl	-537
▁pos	-538
▁pra	-539
▁add	-540
▁country	-541
▁again	-542
▁”	-543
olog	-544
ink	-545
▁years	-546
▁national	-547
▁high	-548
stem	-549
▁bas	-550
ning	-551
ble	-552
▁well	-553
▁even	-554
▁could	-555
ible	-556
lud	-557
▁fin	-558
▁fol	-559
als	-560
▁char	-561
▁gener	-562
ility	-563
▁system	-564
ural	-565
ts	-566
▁very	-567
▁many	-568
ange	-569
▁prog	-570
▁ins	-571
ved	-572
▁then	-573
▁ref	-574
ell	-575
cept	-576
ature	-577
its	-578
▁ke	-579
▁day	-580
▁inte	-581
ple	-582
▁public	-583
ents	-584
▁get	-585
ati	-586
▁need	-587
▁mat	-588
ons	-589
▁call	-590
▁num	-591
old	-592
ices	-593
ral	-594
▁sec	-595
▁now	-596
▁good	-597
▁sm	-598
▁every	-599
oth	-600
▁ext	-601
▁mon	-602
▁gu	-603
ision	-604
▁must	-605
▁ear	-606
▁before	-607
other	-608
▁supp	-609
▁giv	-610
▁provid	-611
▁dire	-612
▁development	-613
▁child	-614
▁case	-615
rest	-616
▁writ	-617
▁adv	-618
▁lit	-619
▁ben	-620
▁val	-621
ited	-622
▁del	-623
▁hind	-624
urn	-625
▁var	-626
▁import	-627
▁requ	-628
▁bh	-629
▁art	-630
ting	-631
les	-632
▁most	-633
man	-634
aking	-635
▁inst	-636
▁inform	-637
ween	-638
▁leg	-639
▁mod	-640
▁between	-641
ict	-642
ft	-643
eth	-644
ms	-645
▁eng	-646
hip	-647
▁use	-648
▁see	-649
▁>	-650
iew	-651
▁used	-652
ds	-653
▁indust	-654
stitut	-655
▁cap	-656
▁car	-657
▁mus	-658
ised	-659
ax	-660
chn	-661
ily	-662
▁make	-663
▁during	-664
▁inter	-665
ures	-666
▁includ	-667
▁<	-668
air	-669
▁differen	-670
▁offic	-671
▁fl	-672
▁organ	-673
▁bank	-674
▁med	-675
ving	-676
own	-677
▁power	-678
▁cor	-679
▁educ	-680
ix	-681
ne	-682
▁long	-683
▁own	-684
▁av	-685
self	-686
▁end	-687
ks	-688
ages	-689
▁inf	-690
hor	-691
ries	-692
ters	-693
▁great	-694
ital	-695
▁def	-696
▁lar	-697
stitution	-698
ket	-699
▁techn	-700
▁hel	-701
▁hum	-702
▁bu	-703
arm	-704
▁sur	-705
cc	-706
▁because	-707
▁equ	-708
▁process	-709
ody	-710
▁way	-711
▁follow	-712
ob	-713
▁account	-714
▁conc	-715
▁dem	-716
iness	-717
ys	-718
hes	-719
ought	-720
▁appe	-721
ouse	-722
▁order	-723
▁uni	-724
▁disc	-725
▁compan	-726
ya	-727
▁main	-728
▁same	-729
▁bus	-730
▁information	-731
ern	-732
▁fore	-733
▁conf	-734
▁here	-735
ality	-736
conom	-737
▁stud	-738
▁take	-739
▁author	-740
ctions	-741
▁let	-742
ten	-743
▁det	-744
▁number	-745
▁sing	-746
ished	-747
▁ret	-748
ety	-749
han	-750
ctor	-751
ond	-752
▁back	-753
▁help	-754
▁those	-755
▁pass	-756
▁econom	-757
▁present	-758
▁fam	-759
▁place	-760
angu	-761
▁fact	-762
de	-763
▁est	-764
ash	-765
xt	-766
▁partic	-767
▁loc	-768
▁commission	-769
▁did	-770
▁commit	-771
▁langu	-772
gg	-773
alth	-774
▁div	-775
▁hand	-776
pos	-777
lim	-778
su	-779
▁lead	-780
rb	-781
▁against	-782
▁interest	-783
▁bel	-784
▁program	-785
iod	-786
▁intern	-787
ics	-788
▁som	-789
▁water	-790
bers	-791
▁both	-792
ah	-793
▁resp	-794
▁cert	-795
ration	-796
▁polic	-797
▁found	-798
tle	-799
ention	-800
arch	-801
▁che	-802
▁period	-803
▁sim	-804
▁occ	-805
ified	-806
day	-807
▁pay	-808
▁name	-809
▁different	-810
▁commun	-811
ired	-812
▁three	-813
▁rev	-814
ives	-815
ology	-816
ruct	-817
▁appro	-818
get	-819
ick	-820
▁grow	-821
ata	-822
▁tak	-823
ffect	-824
ever	-825
▁gl	-826
▁down	-827
▁dev	-828
▁while	-829
▁wom	-830
ars	-831
way	-832
pre	-833
▁applic	-834
..	-835
▁start	-836
ants	-837
ared	-838
lish	-839
▁prof	-840
ases	-841
▁sche	-842
tc	-843
ale	-844
▁pri	-845
▁cre	-846
▁does	-847
na	-848
▁effect	-849
ists	-850
▁sch	-851
▁"	-852
▁house	-853
▁comple	-854
▁each	-855
▁cr	-856
▁central	-857
▁states	-858
oup	-859
ee	-860
inal	-861
▁ele	-862
▁education	-863
▁str	-864
▁human	-865
ency	-866
▁income	-867
▁cro	-868
),	-869
ploy	-870
▁rece	-871
ron	-872
▁called	-873
▁&	-874
▁exam	-875
▁oper	-876
ather	-877
ges	-878
ained	-879
▁gre	-880
▁given	-881
▁open	-882
▁stand	-883
the	-884
▁view	-885
not	-886
▁tem	-887
▁book	-888
▁prin	-889
▁ser	-890
▁contin	-891
▁vis	-892
▁cond	-893
ull	-894
▁gra	-895
▁ca	-896
ma	-897
less	-898
▁small	-899
▁ty	-900
▁etc	-901
▁social	-902
ana	-903
▁institut	-904
▁soci	-905
ck	-906
▁respect	-907
▁univers	-908
▁prev	-909
▁read	-910
erg	-911
ister	-912
▁report	-913
).	-914
read	-915
▁without	-916
▁fac	-917
▁look	-918
▁spec	-919
▁business	-920
▁poss	-921
▁much	-922
▁coun	-923
ner	-924
▁list	-925
ief	-926
▁invest	-927
▁sit	-928
▁group	-929
▁opp	-930
▁service	-931
▁want	-932
▁cur	-933
▁pa	-934
▁sci	-935
▁important	-936
▁another	-937
▁accord	-938
ute	-939
iss	-940
ined	-941
▁sign	-942
ove	-943
▁contro	-944
▁air	-945
▁amount	-946
ceed	-947
▁means	-948
up	-949
▁proper	-950
ually	-951
▁however	-952
▁avail	-953
▁cult	-954
▁proble	-955
ici	-956
▁company	-957
▁within	-958
▁polit	-959
▁employ	-960
▁war	-961
ool	-962
▁lim	-963
▁relig	-964
ov	-965
▁body	-966
▁sou	-967
▁‘	-968
▁play	-969
▁cle	-970
▁fil	-971
▁come	-972
▁language	-973
ef	-974
▁direct	-975
▁policy	-976
▁di	-977
▁incre	-978
isions	-979
▁support	-980
▁land	-981
▁suc	-982
▁health	-983
▁net	-984
wor	-985
▁members	-986
▁quest	-987
▁constitution	-988
▁last	-989
ines	-990
▁times	-991
▁various	-992
▁z	-993
ves	-994
▁dr	-995
mit	-996
▁prom	-997
▁exper	-998
ider	-999
wards	-1000
▁god	-1001
▁plan	-1002
▁isl	-1003
rent	-1004
▁ide	-1005
med	-1006
esh	-1007
▁happ	-1008
ived	-1009
ince	-1010
▁rul	-1011
▁sw	-1012
▁raj	-1013
▁non	-1014
▁large	-1015
▁move	-1016
▁wind	-1017
▁hist	-1018
ized	-1019
▁jo	-1020
ror	-1021
▁think	-1022
ier	-1023
▁ple	-1024
por	-1025
▁say	-1026
▁general	-1027
crib	-1028
▁eff	-1029
▁show	-1030
▁activ	-1031
▁tax	-1032
▁project	-1033
▁allow	-1034
▁services	-1035
▁ir	-1036
ime	-1037
▁cal	-1038
▁four	-1039
ave	-1040
ways	-1041
▁artic	-1042
▁real	-1043
▁expl	-1044
▁level	-1045
▁sol	-1046
▁muslim	-1047
amp	-1048
▁bro	-1049
asht	-1050
ains	-1051
▁shri	-1052
▁maj	-1053
▁special	-1054
ield	-1055
▁taken	-1056
▁today	-1057
reed	-1058
▁children	-1059
mb	-1060
▁rese	-1061
▁cannot	-1062
▁dra	-1063
▁estab	-1064
ss	-1065
▁meet	-1066
▁0	-1067
gal	-1068
▁depart	-1069
▁result	-1070
▁mind	-1071
ract	-1072
▁elect	-1073
▁ut	-1074
▁among	-1075
▁provided	-1076
ended	-1077
ason	-1078
▁committe	-1079
▁find	-1080
arn	-1081
▁x	-1082
▁known	-1083
cond	-1084
gr	-1085
▁class	-1086
▁ru	-1087
ium	-1088
ense	-1089
ulation	-1090
ination	-1091
▁fur	-1092
▁asse	-1093
▁rest	-1094
▁tri	-1095
stand	-1096
▁pop	-1097
lia	-1098
ateg	-1099
ically	-1100
▁fri	-1101
rap	-1102
▁month	-1103
aj	-1104
cl	-1105
▁poet	-1106
erred	-1107
▁market	-1108
ances	-1109
ize	-1110
rict	-1111
▁point	-1112
ark	-1113
▁vi	-1114
▁common	-1115
▁head	-1116
itions	-1117
ock	-1118
▁subject	-1119
bs	-1120
▁old	-1121
▁going	-1122
aug	-1123
▁days	-1124
▁self	-1125
ining	-1126
liament	-1127
ization	-1128
ething	-1129
▁nor	-1130
ug	-1131
▁beh	-1132
▁death	-1133
▁supre	-1134
▁parliament	-1135
▁prote	-1136
▁comput	-1137
▁pract	-1138
▁pun	-1139
▁sk	-1140
ivid	-1141
▁give	-1142
▁something	-1143
▁ri	-1144
▁bra	-1145
▁men	-1146
▁free	-1147
▁met	-1148
omm	-1149
cut	-1150
ption	-1151
par	-1152
▁bill	-1153
▁second	-1154
▁society	-1155
▁due	-1156
tal	-1157
▁finan	-1158
▁necess	-1159
▁available	-1160
ari	-1161
▁economic	-1162
▁less	-1163
ends	-1164
▁cost	-1165
▁women	-1166
▁supreme	-1167
▁product	-1168
▁certain	-1169
▁school	-1170
▁admin	-1171
ai	-1172
ered	-1173
used	-1174
▁er	-1175
▁pen	-1176
ledge	-1177
▁further	-1178
orts	-1179
atic	-1180
cil	-1181
ged	-1182
ger	-1183
ven	-1184
ession	-1185
ins	-1186
und	-1187
▁action	-1188
▁ver	-1189
▁particular	-1190
lished	-1191
▁civ	-1192
▁exist	-1193
▁international	-1194
▁far	-1195
section	-1196
▁success	-1197
ential	-1198
sel	-1199
ased	-1200
cu	-1201
▁food	-1202
work	-1203
▁env	-1204
ately	-1205
▁justice	-1206
▁ce	-1207
ability	-1208
▁nature	-1209
▁accept	-1210
▁liter	-1211
▁care	-1212
▁issu	-1213
▁sat	-1214
▁ann	-1215
onment	-1216
▁consider	-1217
▁ve	-1218
ising	-1219
isation	-1220
▁family	-1221
▁countries	-1222
▁major	-1223
▁put	-1224
▁rs	-1225
ference	-1226
▁capital	-1227
▁brit	-1228
▁regard	-1229
▁civil	-1230
ided	-1231
▁pat	-1232
ret	-1233
ither	-1234
▁area	-1235
▁change	-1236
▁whether	-1237
...	-1238
▁sent	-1239
▁technology	-1240
▁control	-1241
ification	-1242
▁too	-1243
▁bi	-1244
ator	-1245
▁post	-1246
▁came	-1247
▁become	-1248
▁administ	-1249
ode	-1250
avan	-1251
▁vill	-1252
▁cir	-1253
▁knowledge	-1254
▁provisions	-1255
▁build	-1256
▁individ	-1257
▁el	-1258
▁chang	-1259
▁foreign	-1260
▁mil	-1261
isl	-1262
oss	-1263
▁bir	-1264
▁cases	-1265
alf	-1266
▁trad	-1267
▁window	-1268
▁gand	-1269
▁matter	-1270
▁whole	-1271
▁committee	-1272
▁political	-1273
hen	-1274
ury	-1275
▁based	-1276
ering	-1277
ex	-1278
▁done	-1279
ala	-1280
▁sl	-1281
▁address	-1282
▁since	-1283
▁charact	-1284
▁respons	-1285
oney	-1286
▁therefore	-1287
▁const	-1288
▁individual	-1289
▁according	-1290
▁princi	-1291
▁object	-1292
▁ask	-1293
▁minister	-1294
▁fund	-1295
▁upon	-1296
▁research	-1297
▁benef	-1298
▁value	-1299
▁council	-1300
▁areas	-1301
▁spir	-1302
▁keep	-1303
ides	-1304
▁trib	-1305
▁init	-1306
▁date	-1307
▁repres	-1308
▁mah	-1309
cing	-1310
▁application	-1311
▁data	-1312
▁having	-1313
▁legisl	-1314
▁provide	-1315
ternal	-1316
▁manage	-1317
▁best	-1318
▁secur	-1319
ortun	-1320
▁bar	-1321
sh	-1322
▁courts	-1323
ructure	-1324
olution	-1325
duct	-1326
▁pet	-1327
▁eas	-1328
▁rele	-1329
uty	-1330
▁scheme	-1331
▁islam	-1332
▁sector	-1333
port	-1334
ote	-1335
otion	-1336
▁singh	-1337
aim	-1338
▁ach	-1339
▁cong	-1340
▁five	-1341
▁financial	-1342
▁mr	-1343
▁region	-1344
▁left	-1345
ently	-1346
idence	-1347
ii	-1348
▁record	-1349
▁mill	-1350
▁delhi	-1351
▁office	-1352
▁hindi	-1353
▁industry	-1354
▁question	-1355
▁{	-1356
az	-1357
▁lab	-1358
▁tal	-1359
▁run	-1360
▁making	-1361
▁youn	-1362
▁don	-1363
▁nat	-1364
▁bor	-1365
ues	-1366
▁later	-1367
▁orig	-1368
eric	-1369
ieve	-1370
▁always	-1371
▁including	-1372
▁home	-1373
pose	-1374
▁words	-1375
▁stat	-1376
▁bal	-1377
ending	-1378
▁authority	-1379
ilities	-1380
put	-1381
osed	-1382
▁full	-1383
▁fail	-1384
ify	-1385
▁cred	-1386
▁aff	-1387
▁union	-1388
▁light	-1389
▁age	-1390
▁concern	-1391
mes	-1392
▁away	-1393
▁spirit	-1394
▁thus	-1395
▁department	-1396
▁bhavan	-1397
▁money	-1398
▁following	-1399
ricult	-1400
icial	-1401
soci	-1402
▁mater	-1403
▁sever	-1404
▁mess	-1405
▁never	-1406
▁still	-1407
▁conv	-1408
▁agricult	-1409
cies	-1410
ples	-1411
▁few	-1412
▁mult	-1413
icult	-1414
▁king	-1415
▁sal	-1416
▁colle	-1417
▁reason	-1418
▁assess	-1419
▁thir	-1420
▁british	-1421
▁english	-1422
ems	-1423
▁heart	-1424
▁mean	-1425
▁necessary	-1426
aining	-1427
▁university	-1428
▁impro	-1429
▁held	-1430
▁though	-1431
▁pan	-1432
epend	-1433
▁field	-1434
▁ram	-1435
▁rasht	-1436
ta	-1437
▁kind	-1438
▁associ	-1439
ards	-1440
lement	-1441
▁proceed	-1442
raph	-1443
▁article	-1444
▁things	-1445
ogn	-1446
uss	-1447
▁diff	-1448
▁meas	-1449
▁love	-1450
▁tre	-1451
▁ho	-1452
▁envir	-1453
▁thought	-1454
▁growth	-1455
▁priv	-1456
▁bengal	-1457
▁total	-1458
▁gandhi	-1459
▁party	-1460
▁persons	-1461
▁dom	-1462
▁history	-1463
▁hindu	-1464
▁required	-1465
▁local	-1466
▁proced	-1467
▁several	-1468
▁beg	-1469
▁:	-1470
eration	-1471
▁deal	-1472
▁little	-1473
▁perform	-1474
▁circ	-1475
▁short	-1476
▁return	-1477
ences	-1478
▁feel	-1479
▁transf	-1480
rapati	-1481
▁ur	-1482
▁bre	-1483
▁judge	-1484
▁marri	-1485
ior	-1486
▁inn	-1487
▁force	-1488
uro	-1489
▁contrib	-1490
ling	-1491
▁chief	-1492
▁above	-1493
pr	-1494
hing	-1495
▁independ	-1496
▁environment	-1497
▁clear	-1498
▁rights	-1499
▁young	-1500
▁management	-1501
thing	-1502
▁others	-1503
▁fa	-1504
▁possible	-1505
idd	-1506
▁rules	-1507
▁es	-1508
ands	-1509
ps	-1510
▁obs	-1511
▁clause	-1512
ories	-1513
▁hy	-1514
▁cust	-1515
▁instru	-1516
▁sum	-1517
▁americ	-1518
▁rashtrapati	-1519
▁six	-1520
aw	-1521
▁mag	-1522
▁pal	-1523
▁himself	-1524
oura	-1525
▁tru	-1526
▁relations	-1527
▁treat	-1528
▁situ	-1529
▁dise	-1530
▁categ	-1531
▁purpose	-1532
iction	-1533
▁ident	-1534
ti	-1535
▁towards	-1536
▁hold	-1537
▁function	-1538
▁position	-1539
▁fel	-1540
▁official	-1541
▁related	-1542
▁resour	-1543
▁district	-1544
here	-1545
ience	-1546
ured	-1547
▁mor	-1548
▁regist	-1549
▁production	-1550
▁propos	-1551
▁once	-1552
▁occas	-1553
▁type	-1554
▁har	-1555
▁lib	-1556
▁quality	-1557
of	-1558
iving	-1559
▁turn	-1560
▁recomm	-1561
▁phys	-1562
rial	-1563
▁officer	-1564
▁itself	-1565
▁congress	-1566
ats	-1567
▁character	-1568
▁material	-1569
af	-1570
▁decl	-1571
▁plac	-1572
▁san	-1573
▁opportun	-1574
▁ten	-1575
▁rate	-1576
ises	-1577
▁assist	-1578
▁represent	-1579
cribed	-1580
▁hard	-1581
▁plant	-1582
▁file	-1583
▁near	-1584
▁security	-1585
▁_	-1586
▁around	-1587
que	-1588
ani	-1589
itation	-1590
▁agree	-1591
▁stren	-1592
▁member	-1593
hy	-1594
▁understand	-1595
▁test	-1596
▁enc	-1597
▁webs	-1598
ware	-1599
▁claim	-1600
akes	-1601
▁appo	-1602
▁infl	-1603
▁higher	-1604
ibility	-1605
ery	-1606
cious	-1607
▁next	-1608
▁mother	-1609
▁deter	-1610
ication	-1611
▁deb	-1612
▁rad	-1613
▁streng	-1614
▁minist	-1615
▁progress	-1616
▁along	-1617
▁press	-1618
▁why	-1619
▁mad	-1620
▁sun	-1621
▁working	-1622
▁access	-1623
ively	-1624
▁li	-1625
▁nation	-1626
▁property	-1627
▁complete	-1628
▁mal	-1629
▁meth	-1630
akh	-1631
jee	-1632
▁ord	-1633
aint	-1634
▁super	-1635
▁south	-1636
▁course	-1637
ann	-1638
▁either	-1639
▁institutions	-1640
▁key	-1641
▁continu	-1642
▁muk	-1643
ready	-1644
▁docu	-1645
▁network	-1646
▁difficult	-1647
▁cop	-1648
be	-1649
▁freed	-1650
▁ground	-1651
▁already	-1652
▁abs	-1653
▁rrb	-1654
▁anim	-1655
▁red	-1656
▁addition	-1657
▁industrial	-1658
▁fut	-1659
▁computer	-1660
▁activities	-1661
▁cell	-1662
▁flow	-1663
▁took	-1664
▁cit	-1665
▁invol	-1666
▁commer	-1667
ony	-1668
▁recogn	-1669
▁better	-1670
▁prad	-1671
▁programme	-1672
▁link	-1673
▁training	-1674
▁ey	-1675
ara	-1676
▁port	-1677
▁method	-1678
▁implement	-1679
umb	-1680
most	-1681
▁referred	-1682
aring	-1683
nect	-1684
▁learn	-1685
▁top	-1686
▁vol	-1687
▁website	-1688
ke	-1689
▁visit	-1690
selves	-1691
▁aud	-1692
▁bring	-1693
▁exe	-1694
ji	-1695
▁ren	-1696
▁freedom	-1697
▁energ	-1698
osp	-1699
▁farm	-1700
▁occasion	-1701
▁able	-1702
▁ess	-1703
igation	-1704
ggest	-1705
▁side	-1706
▁problem	-1707
▁trade	-1708
▁suggest	-1709
▁select	-1710
rodu	-1711
▁[	-1712
▁ill	-1713
▁rule	-1714
▁cause	-1715
▁might	-1716
▁modern	-1717
ches	-1718
▁big	-1719
▁lrb	-1720
▁credit	-1721
▁board	-1722
▁step	-1723
▁movement	-1724
▁pradesh	-1725
ably	-1726
▁equal	-1727
for	-1728
▁got	-1729
▁detail	-1730
▁received	-1731
▁conduct	-1732
▁goods	-1733
▁line	-1734
amb	-1735
▁glob	-1736
▁sour	-1737
gu	-1738
land	-1739
▁secret	-1740
▁design	-1741
erc	-1742
▁pap	-1743
▁crim	-1744
▁seen	-1745
▁suff	-1746
sue	-1747
▁custom	-1748
▁democ	-1749
▁term	-1750
gether	-1751
▁together	-1752
▁bud	-1753
▁pot	-1754
imum	-1755
▁initi	-1756
empt	-1757
▁judicial	-1758
▁ens	-1759
ilar	-1760
▁future	-1761
▁legal	-1762
atory	-1763
▁strong	-1764
cent	-1765
▁norm	-1766
ression	-1767
▁police	-1768
▁science	-1769
▁redu	-1770
▁problems	-1771
▁basis	-1772
▁started	-1773
abha	-1774
amm	-1775
go	-1776
pal	-1777
▁went	-1778
▁energy	-1779
ude	-1780
acity	-1781
▁often	-1782
▁try	-1783
▁fra	-1784
▁dest	-1785
cell	-1786
▁word	-1787
▁mach	-1788
▁pow	-1789
▁live	-1790
see	-1791
▁crit	-1792
▁exch	-1793
ream	-1794
▁west	-1795
▁mis	-1796
▁terror	-1797
▁corpor	-1798
▁became	-1799
▁matters	-1800
lo	-1801
▁imm	-1802
▁compl	-1803
▁thing	-1804
▁citiz	-1805
pri	-1806
▁creat	-1807
ane	-1808
▁written	-1809
▁example	-1810
sp	-1811
▁yet	-1812
▁ministry	-1813
▁relating	-1814
▁role	-1815
▁connect	-1816
▁unt	-1817
ograph	-1818
▁ste	-1819
▁terms	-1820
▁viol	-1821
▁similar	-1822
ened	-1823
▁message	-1824
▁north	-1825
▁students	-1826
ient	-1827
▁category	-1828
▁code	-1829
omes	-1830
▁mukher	-1831
▁conditions	-1832
ira	-1833
▁tur	-1834
▁earl	-1835
cially	-1836
io	-1837
mber	-1838
▁river	-1839
▁blood	-1840
pro	-1841
▁true	-1842
▁chand	-1843
▁natural	-1844
ched	-1845
medi	-1846
ried	-1847
br	-1848
▁months	-1849
▁united	-1850
▁mukherjee	-1851
inary	-1852
aster	-1853
idered	-1854
▁village	-1855
▁community	-1856
ours	-1857
king	-1858
▁scient	-1859
▁dou	-1860
▁nam	-1861
ached	-1862
▁procedure	-1863
▁consum	-1864
▁entire	-1865
itive	-1866
▁text	-1867
urs	-1868
▁award	-1869
▁city	-1870
▁deep	-1871
▁please	-1872
istic	-1873
▁close	-1874
▁ge	-1875
▁rural	-1876
bit	-1877
▁separ	-1878
▁needs	-1879
▁established	-1880
istan	-1881
▁hon	-1882
▁enter	-1883
▁medical	-1884
▁tele	-1885
▁considered	-1886
▁personal	-1887
▁leaders	-1888
side	-1889
rael	-1890
▁centre	-1891
▁previous	-1892
▁sha	-1893
▁collect	-1894
aries	-1895
▁observ	-1896
rish	-1897
▁paid	-1898
▁express	-1899
▁current	-1900
ublic	-1901
▁nar	-1902
▁particip	-1903
ember	-1904
ned	-1905
▁euro	-1906
▁east	-1907
uth	-1908
▁religious	-1909
aged	-1910
oid	-1911
▁pran	-1912
▁father	-1913
▁require	-1914
▁squ	-1915
▁spee	-1916
▁ded	-1917
▁acqu	-1918
▁brought	-1919
ians	-1920
mitted	-1921
▁institution	-1922
▁tradition	-1923
▁transfer	-1924
ross	-1925
▁face	-1926
▁issue	-1927
▁study	-1928
▁affect	-1929
▁compet	-1930
▁share	-1931
▁israel	-1932
▁living	-1933
▁story	-1934
val	-1935
▁opens	-1936
ina	-1937
▁undert	-1938
▁fig	-1939
▁laws	-1940
ait	-1941
▁manner	-1942
▁kh	-1943
▁fr	-1944
▁innov	-1945
▁sense	-1946
▁chap	-1947
urance	-1948
allen	-1949
▁neg	-1950
co	-1951
▁loss	-1952
▁vari	-1953
▁lat	-1954
▁peace	-1955
▁soft	-1956
▁earth	-1957
▁grant	-1958
▁early	-1959
▁ans	-1960
▁using	-1961
▁decision	-1962
▁religion	-1963
aps	-1964
isd	-1965
▁demand	-1966
atives	-1967
▁taking	-1968
▁ful	-1969
sequ	-1970
▁bat	-1971
▁introdu	-1972
▁literature	-1973
ton	-1974
▁forward	-1975
inted	-1976
▁million	-1977
▁adop	-1978
rast	-1979
▁create	-1980
app	-1981
pur	-1982
▁europe	-1983
erve	-1984
▁except	-1985
▁building	-1986
▁ment	-1987
fact	-1988
▁arm	-1989
imate	-1990
▁establish	-1991
▁vir	-1992
▁soon	-1993
ison	-1994
▁appeal	-1995
▁parts	-1996
00	-1997
▁hous	-1998
▁ara	-1999
▁bea	-2000
cri	-2001
▁subst	-2002
▁century	-2003
ront	-2004
mission	-2005
▁maint	-2006
▁wee	-2007
▁global	-2008
▁road	-2009
▁culture	-2010
▁bab	-2011
▁commercial	-2012
▁lot	-2013
acher	-2014
line	-2015
▁concerned	-2016
▁wit	-2017
▁purpos	-2018
▁pranab	-2019
▁friend	-2020
▁begin	-2021
ological	-2022
▁past	-2023
▁provision	-2024
▁muslims	-2025
action	-2026
▁son	-2027
▁coop	-2028
to	-2029
▁greater	-2030
▁purposes	-2031
▁condition	-2032
krit	-2033
▁tas	-2034
▁emp	-2035
itor	-2036
▁disease	-2037
▁passed	-2038
▁apply	-2039
▁phil	-2040
▁nothing	-2041
▁resources	-2042
▁prime	-2043
▁mass	-2044
usion	-2045
▁provides	-2046
▁republic	-2047
▁bur	-2048
▁tell	-2049
▁jur	-2050
▁population	-2051
ring	-2052
▁dri	-2053
▁criminal	-2054
els	-2055
▁assemb	-2056
▁note	-2057
▁meeting	-2058
▁charge	-2059
▁sabha	-2060
▁assessment	-2061
eral	-2062
▁transl	-2063
ners	-2064
▁chair	-2065
▁asked	-2066
illed	-2067
▁powers	-2068
augh	-2069
▁parties	-2070
▁carry	-2071
▁payment	-2072
▁specified	-2073
▁private	-2074
▁regul	-2075
▁investment	-2076
ama	-2077
omb	-2078
▁job	-2079
▁low	-2080
▁lay	-2081
▁mand	-2082
▁limited	-2083
ung	-2084
▁dam	-2085
▁sil	-2086
▁conver	-2087
▁judges	-2088
▁developed	-2089
va	-2090
tax	-2091
▁really	-2092
▁amend	-2093
▁books	-2094
vi	-2095
▁capacity	-2096
▁mot	-2097
▁brah	-2098
▁tour	-2099
▁actually	-2100
▁earlier	-2101
▁outside	-2102
▁experience	-2103
▁cho	-2104
▁exchange	-2105
▁prim	-2106
▁influ	-2107
▁immedi	-2108
▁cat	-2109
▁works	-2110
▁friends	-2111
▁fall	-2112
▁half	-2113
▁speak	-2114
▁path	-2115
bar	-2116
▁writing	-2117
▁petition	-2118
▁expect	-2119
▁include	-2120
une	-2121
ival	-2122
asing	-2123
▁temple	-2124
▁anything	-2125
ruction	-2126
▁physical	-2127
uk	-2128
▁typ	-2129
▁stage	-2130
▁depos	-2131
▁mount	-2132
vey	-2133
▁mahar	-2134
▁themselves	-2135
ril	-2136
▁birth	-2137
▁sam	-2138
▁teacher	-2139
▁bad	-2140
▁almost	-2141
ler	-2142
vant	-2143
▁prep	-2144
.,	-2145
▁institute	-2146
▁exc	-2147
▁allowed	-2148
▁gir	-2149
▁determin	-2150
▁marriage	-2151
▁changes	-2152
▁duty	-2153
▁original	-2154
tar	-2155
▁opin	-2156
▁till	-2157
▁evidence	-2158
▁truth	-2159
ita	-2160
▁anal	-2161
▁administration	-2162
▁aim	-2163
▁wide	-2164
▁fix	-2165
▁ii	-2166
▁challen	-2167
▁products	-2168
▁attack	-2169
▁third	-2170
verse	-2171
▁vict	-2172
▁sans	-2173
▁essential	-2174
com	-2175
▁single	-2176
ening	-2177
▁repe	-2178
▁excell	-2179
hold	-2180
airs	-2181
▁check	-2182
▁treatment	-2183
fully	-2184
▁witness	-2185
▁mention	-2186
acy	-2187
▁indic	-2188
▁protection	-2189
igh	-2190
▁vide	-2191
▁mic	-2192
▁gave	-2193
▁gur	-2194
▁reform	-2195
▁den	-2196
ls	-2197
itable	-2198
▁signific	-2199
abad	-2200
essee	-2201
▁trust	-2202
▁exerc	-2203
▁whose	-2204
sy	-2205
ura	-2206
chan	-2207
▁insurance	-2208
▁profession	-2209
▁banks	-2210
▁engine	-2211
▁achieve	-2212
▁rail	-2213
hib	-2214
▁woman	-2215
▁manu	-2216
▁thous	-2217
▁efforts	-2218
uses	-2219
▁dece	-2220
▁joint	-2221
▁letter	-2222
men	-2223
▁pati	-2224
▁structure	-2225
tic	-2226
▁recommend	-2227
cle	-2228
kar	-2229
▁jan	-2230
▁unit	-2231
▁issues	-2232
▁distrib	-2233
▁notice	-2234
▁leave	-2235
▁chapter	-2236
▁ensure	-2237
▁lord	-2238
ilt	-2239
icient	-2240
▁sav	-2241
▁price	-2242
jab	-2243
▁cover	-2244
iddle	-2245
▁situation	-2246
▁march	-2247
gar	-2248
▁arr	-2249
mental	-2250
▁mark	-2251
▁bran	-2252
enty	-2253
▁copy	-2254
▁subs	-2255
▁wr	-2256
▁laun	-2257
wh	-2258
emed	-2259
▁operation	-2260
▁improve	-2261
▁sanskrit	-2262
ada	-2263
▁contact	-2264
▁specific	-2265
eness	-2266
▁sac	-2267
ots	-2268
▁independence	-2269
▁inj	-2270
▁sure	-2271
▁jour	-2272
▁prem	-2273
▁assessee	-2274
▁mer	-2275
▁territ	-2276
▁oil	-2277
▁issued	-2278
▁aw	-2279
anda	-2280
▁stop	-2281
▁decided	-2282
▁ever	-2283
▁satis	-2284
▁protect	-2285
▁won	-2286
aya	-2287
den	-2288
▁speech	-2289
itude	-2290
▁execut	-2291
▁poor	-2292
ees	-2293
▁eight	-2294
▁increase	-2295
▁displ	-2296
▁industries	-2297
ones	-2298
wise	-2299
let	-2300
▁pain	-2301
▁je	-2302
▁generally	-2303
▁middle	-2304
▁repl	-2305
▁ris	-2306
▁basic	-2307
▁forest	-2308
▁sen	-2309
▁penal	-2310
▁infrast	-2311
▁least	-2312
▁night	-2313
osop	-2314
▁wes	-2315
▁proceedings	-2316
▁cut	-2317
▁deg	-2318
ali	-2319
▁tree	-2320
▁providing	-2321
▁enough	-2322
▁emerg	-2323
▁contract	-2324
▁doub	-2325
▁continue	-2326
▁search	-2327
pecially	-2328
▁wat	-2329
rad	-2330
adem	-2331
▁doing	-2332
▁conscious	-2333
▁bomb	-2334
३०	-2335
external	-2336
▁benefit	-2337
▁prose	-2338
▁sar	-2339
▁front	-2340
▁economy	-2341
▁agreement	-2342
▁hor	-2343
▁manufact	-2344
▁lakh	-2345
▁created	-2346
bo	-2347
▁obt	-2348
▁hund	-2349
▁approach	-2350
▁makes	-2351
rote	-2352
▁companies	-2353
by	-2354
▁division	-2355
gh	-2356
▁pak	-2357
▁ak	-2358
▁cy	-2359
ieved	-2360
▁error	-2361
rop	-2362
▁hundred	-2363
uary	-2364
▁effective	-2365
▁space	-2366
eng	-2367
▁officers	-2368
imes	-2369
▁fav	-2370
▁says	-2371
▁circum	-2372
▁opportunity	-2373
agar	-2374
▁jurisd	-2375
▁encoura	-2376
▁western	-2377
▁governor	-2378
▁install	-2379
▁especially	-2380
▁belong	-2381
bed	-2382
▁kept	-2383
▁fo	-2384
▁pros	-2385
▁employment	-2386
▁philosop	-2387
▁source	-2388
▁discuss	-2389
▁told	-2390
ators	-2391
▁q	-2392
▁popular	-2393
▁inse	-2394
▁sens	-2395
▁dig	-2396
▁constitut	-2397
▁appropri	-2398
▁serious	-2399
▁somet	-2400
▁opinion	-2401
▁paper	-2402
▁commissioner	-2403
▁bhar	-2404
▁forms	-2405
▁gang	-2406
▁administr	-2407
itary	-2408
▁spread	-2409
▁published	-2410
estic	-2411
▁meaning	-2412
▁size	-2413
ulated	-2414
▁|	-2415
▁wrote	-2416
▁agricultural	-2417
▁arbit	-2418
▁statement	-2419
hood	-2420
over	-2421
new	-2422
▁tend	-2423
▁rich	-2424
rect	-2425
▁tribun	-2426
know	-2427
▁krish	-2428
▁certific	-2429
▁write	-2430
▁assembly	-2431
▁citizens	-2432
▁bit	-2433
▁measures	-2434
▁programmes	-2435
▁practice	-2436
▁mere	-2437
▁faith	-2438
▁behalf	-2439
▁draw	-2440
▁camp	-2441
ires	-2442
▁prior	-2443
ying	-2444
▁ep	-2445
▁max	-2446
reg	-2447
▁quite	-2448
▁arch	-2449
▁harm	-2450
▁april	-2451
▁below	-2452
▁director	-2453
▁answ	-2454
▁stru	-2455
ging	-2456
▁mut	-2457
▁percent	-2458
▁sound	-2459
▁fif	-2460
▁event	-2461
▁fast	-2462
▁across	-2463
▁plus	-2464
▁agriculture	-2465
war	-2466
▁projects	-2467
face	-2468
mir	-2469
rug	-2470
▁carried	-2471
▁sud	-2472
▁win	-2473
▁host	-2474
▁divine	-2475
▁facilities	-2476
▁hope	-2477
▁infrastructure	-2478
▁foc	-2479
▁loan	-2480
▁micro	-2481
aughter	-2482
▁conference	-2483
▁dele	-2484
ev	-2485
cient	-2486
▁systems	-2487
▁poll	-2488
▁idea	-2489
▁lear	-2490
▁accounts	-2491
▁heav	-2492
▁labour	-2493
iture	-2494
▁conne	-2495
▁importance	-2496
▁log	-2497
▁jurisdiction	-2498
▁sex	-2499
▁regular	-2500
▁comb	-2501
▁academ	-2502
▁transport	-2503
.0	-2504
▁enj	-2505
▁deli	-2506
encies	-2507
▁hol	-2508
▁punjab	-2509
▁brother	-2510
▁stri	-2511
▁sea	-2512
▁review	-2513
ills	-2514
▁wal	-2515
ift	-2516
▁giving	-2517
▁simple	-2518
▁reach	-2519
fection	-2520
yn	-2521
ored	-2522
rist	-2523
▁places	-2524
aka	-2525
▁fort	-2526
▁hands	-2527
▁until	-2528
▁consult	-2529
▁ju	-2530
▁groups	-2531
▁finance	-2532
▁white	-2533
▁room	-2534
▁adj	-2535
▁fair	-2536
▁failed	-2537
▁cross	-2538
▁prescribed	-2539
▁nations	-2540
▁*	-2541
▁arab	-2542
▁aspect	-2543
▁stated	-2544
▁gold	-2545
▁tam	-2546
▁opt	-2547
▁accused	-2548
uted	-2549
▁relevant	-2550
▁usually	-2551
yal	-2552
aves	-2553
ili	-2554
oud	-2555
body	-2556
▁export	-2557
racy	-2558
▁cas	-2559
▁lower	-2560
▁assistance	-2561
▁tar	-2562
▁bes	-2563
▁details	-2564
▁forces	-2565
▁status	-2566
char	-2567
▁potential	-2568
▁appear	-2569
▁association	-2570
▁fire	-2571
▁final	-2572
ze	-2573
▁cultural	-2574
▁hosp	-2575
▁afric	-2576
▁broad	-2577
▁happy	-2578
▁request	-2579
▁hus	-2580
▁sri	-2581
▁qual	-2582
▁wall	-2583
▁black	-2584
iry	-2585
▁learning	-2586
▁strength	-2587
▁appoint	-2588
dra	-2589
▁der	-2590
▁existing	-2591
▁feed	-2592
▁firm	-2593
▁prob	-2594
▁prevent	-2595
gest	-2596
▁appl	-2597
ivity	-2598
▁felt	-2599
▁sometimes	-2600
▁drug	-2601
aren	-2602
▁enjoy	-2603
▁reference	-2604
▁circumst	-2605
▁unf	-2606
▁becomes	-2607
▁document	-2608
▁ban	-2609
▁ved	-2610
▁'%	-2611
▁respond	-2612
▁punish	-2613
aff	-2614
▁schol	-2615
iding	-2616
▁software	-2617
rate	-2618
▁autom	-2619
▁novel	-2620
▁spiritual	-2621
eed	-2622
▁tool	-2623
ca	-2624
▁page	-2625
▁insect	-2626
▁governments	-2627
▁rather	-2628
▁activity	-2629
▁bound	-2630
▁histor	-2631
dom	-2632
▁seven	-2633
▁wife	-2634
▁satisf	-2635
▁languages	-2636
ids	-2637
band	-2638
hest	-2639
▁song	-2640
utions	-2641
▁existence	-2642
▁green	-2643
▁display	-2644
lt	-2645
▁saw	-2646
▁began	-2647
▁comes	-2648
ava	-2649
ush	-2650
lling	-2651
▁cele	-2652
▁attempt	-2653
ously	-2654
iment	-2655
▁budd	-2656
▁film	-2657
▁wrong	-2658
▁concept	-2659
▁medic	-2660
▁american	-2661
ney	-2662
▁boy	-2663
▁mom	-2664
▁team	-2665
▁believe	-2666
▁lives	-2667
▁seed	-2668
▁mission	-2669
ancy	-2670
▁dut	-2671
▁followed	-2672
equ	-2673
ead	-2674
▁standards	-2675
▁music	-2676
▁round	-2677
▁responsible	-2678
▁increased	-2679
▁behind	-2680
▁tit	-2681
▁gives	-2682
▁scale	-2683
▁standard	-2684
▁led	-2685
come	-2686
▁appropriate	-2687
▁bey	-2688
▁mechan	-2689
lled	-2690
rs	-2691
ching	-2692
▁cast	-2693
▁crore	-2694
▁pakistan	-2695
▁registration	-2696
haps	-2697
▁prot	-2698
▁stay	-2699
▁whom	-2700
pped	-2701
▁limit	-2702
▁device	-2703
▁syn	-2704
where	-2705
inate	-2706
▁partners	-2707
▁lost	-2708
ume	-2709
▁kash	-2710
▁beginning	-2711
▁poetry	-2712
▁setting	-2713
▁gri	-2714
▁beyond	-2715
▁particularly	-2716
fered	-2717
▁offence	-2718
▁video	-2719
ables	-2720
▁sust	-2721
▁christ	-2722
▁trial	-2723
resh	-2724
▁aug	-2725
:%	-2726
osition	-2727
▁bod	-2728
▁news	-2729
ras	-2730
▁mental	-2731
▁consist	-2732
▁getting	-2733
iff	-2734
▁sym	-2735
▁user	-2736
▁emb	-2737
▁born	-2738
▁perhaps	-2739
ingu	-2740
utes	-2741
'.	-2742
▁bang	-2743
cutta	-2744
ension	-2745
▁summ	-2746
▁expend	-2747
▁revolution	-2748
▁significant	-2749
▁insp	-2750
▁occur	-2751
▁talk	-2752
▁circumstances	-2753
▁aver	-2754
▁warm	-2755
▁ign	-2756
▁coll	-2757
▁values	-2758
isters	-2759
▁built	-2760
▁certificate	-2761
enth	-2762
▁technical	-2763
▁id	-2764
▁instead	-2765
▁organisation	-2766
▁annual	-2767
▁hen	-2768
▁calcutta	-2769
▁explan	-2770
oting	-2771
▁eyes	-2772
ship	-2773
▁ancient	-2774
▁ideas	-2775
▁integr	-2776
▁responsibility	-2777
▁pack	-2778
▁soul	-2779
▁funds	-2780
▁media	-2781
standing	-2782
▁normal	-2783
▁relation	-2784
▁sty	-2785
▁disp	-2786
▁obl	-2787
▁alone	-2788
▁teach	-2789
ault	-2790
▁kal	-2791
▁expression	-2792
ruit	-2793
▁coming	-2794
▁immediately	-2795
cution	-2796
▁memory	-2797
▁–	-2798
miss	-2799
▁sad	-2800
▁units	-2801
▁plants	-2802
▁remain	-2803
▁corporation	-2804
▁accepted	-2805
▁supply	-2806
▁fre	-2807
▁base	-2808
▁continued	-2809
▁increasing	-2810
etic	-2811
▁fem	-2812
▁acts	-2813
▁army	-2814
jar	-2815
▁mumb	-2816
▁functions	-2817
▁mob	-2818
▁safe	-2819
▁integ	-2820
▁takes	-2821
ley	-2822
▁tag	-2823
▁external	-2824
▁democracy	-2825
▁enable	-2826
▁task	-2827
arily	-2828
▁imper	-2829
▁sik	-2830
ami	-2831
atures	-2832
▁ger	-2833
▁appointed	-2834
▁proposed	-2835
▁frame	-2836
”.	-2837
▁week	-2838
▁houses	-2839
▁strugg	-2840
▁dedu	-2841
though	-2842
ump	-2843
▁active	-2844
▁origin	-2845
▁else	-2846
▁extre	-2847
▁model	-2848
▁kashmir	-2849
▁regional	-2850
unt	-2851
▁strengthe	-2852
▁tou	-2853
▁stra	-2854
▁lok	-2855
▁scientific	-2856
bi	-2857
iful	-2858
rary	-2859
ishes	-2860
▁disci	-2861
▁arri	-2862
▁appre	-2863
▁expenditure	-2864
▁legislative	-2865
▁goes	-2866
▁workers	-2867
▁clean	-2868
la	-2869
▁break	-2870
▁strateg	-2871
▁town	-2872
▁ways	-2873
▁college	-2874
cer	-2875
ene	-2876
▁image	-2877
▁animals	-2878
has	-2879
▁mumbai	-2880
▁produce	-2881
▁oct	-2882
▁otherwise	-2883
asons	-2884
▁selected	-2885
▁sn	-2886
▁stor	-2887
▁although	-2888
▁milk	-2889
▁tribunal	-2890
je	-2891
with	-2892
▁fixed	-2893
▁includes	-2894
ctors	-2895
▁weak	-2896
▁purch	-2897
▁twenty	-2898
▁affairs	-2899
▁implementation	-2900
▁direction	-2901
▁employees	-2902
ran	-2903
▁wanted	-2904
▁america	-2905
▁additional	-2906
▁formed	-2907
oted	-2908
▁arrest	-2909
▁connection	-2910
▁fight	-2911
avi	-2912
ris	-2913
▁famous	-2914
▁consideration	-2915
▁pict	-2916
▁lic	-2917
▁card	-2918
▁intel	-2919
▁unless	-2920
▁observed	-2921
▁explanation	-2922
use	-2923
▁violence	-2924
▁sett	-2925
▁appell	-2926
▁arrange	-2927
oke	-2928
▁celebr	-2929
▁consequ	-2930
▁saf	-2931
▁speed	-2932
omp	-2933
gment	-2934
▁chairman	-2935
▁web	-2936
▁relationship	-2937
▁multip	-2938
▁documents	-2939
▁imag	-2940
▁defin	-2941
▁ic	-2942
▁mentioned	-2943
hru	-2944
▁range	-2945
▁domestic	-2946
▁guid	-2947
▁questions	-2948
▁fest	-2949
▁mail	-2950
ott	-2951
▁complex	-2952
ets	-2953
ini	-2954
▁depend	-2955
▁presented	-2956
▁kum	-2957
▁wid	-2958
▁master	-2959
ilit	-2960
text	-2961
rim	-2962
▁types	-2963
▁sept	-2964
▁election	-2965
▁prepared	-2966
▁ker	-2967
▁performance	-2968
ucle	-2969
▁vision	-2970
▁fed	-2971
▁fear	-2972
▁phot	-2973
iva	-2974
▁minus	-2975
hra	-2976
▁hot	-2977
▁dram	-2978
▁receive	-2979
asa	-2980
head	-2981
▁added	-2982
gen	-2983
▁chem	-2984
▁cooperation	-2985
ulate	-2986
▁nav	-2987
▁terrorism	-2988
▁assets	-2989
mar	-2990
osis	-2991
▁advance	-2992
▁organization	-2993
▁prop	-2994
▁farmers	-2995
▁minimum	-2996
▁mur	-2997
▁und	-2998
▁defence	-2999
▁risk	-3000
▁manag	-3001
▁settle	-3002
▁attention	-3003
▁principal	-3004
▁intellect	-3005
▁january	-3006
▁sections	-3007
▁mode	-3008
▁extent	-3009
att	-3010
▁correct	-3011
▁longer	-3012
▁schemes	-3013
ope	-3014
▁bombay	-3015
▁amendment	-3016
▁separate	-3017
▁occup	-3018
▁sold	-3019
▁beaut	-3020
li	-3021
▁refers	-3022
▁gradu	-3023
▁processing	-3024
▁welf	-3025
▁included	-3026
▁welfare	-3027
▁wish	-3028
▁enterpr	-3029
▁session	-3030
▁ton	-3031
▁recent	-3032
ober	-3033
▁youth	-3034
ratic	-3035
▁shah	-3036
▁krishna	-3037
gn	-3038
▁answer	-3039
▁principles	-3040
▁nucle	-3041
anger	-3042
▁funda	-3043
▁policies	-3044
ga	-3045
▁charges	-3046
▁directly	-3047
icit	-3048
enced	-3049
▁moment	-3050
ham	-3051
ensive	-3052
▁nehru	-3053
▁table	-3054
▁produced	-3055
▁indeed	-3056
▁educational	-3057
▁cra	-3058
iation	-3059
▁command	-3060
▁examination	-3061
▁attract	-3062
▁hospital	-3063
▁contribution	-3064
▁pred	-3065
rents	-3066
▁pand	-3067
▁rain	-3068
▁involved	-3069
uge	-3070
▁fit	-3071
▁tried	-3072
▁ago	-3073
▁animal	-3074
▁caused	-3075
ores	-3076
▁military	-3077
rep	-3078
▁generation	-3079
▁eye	-3080
▁entry	-3081
▁gujar	-3082
▁balance	-3083
▁besides	-3084
▁nom	-3085
▁vo	-3086
▁swe	-3087
▁stre	-3088
▁agg	-3089
▁ball	-3090
▁scre	-3091
▁exercise	-3092
▁$	-3093
▁du	-3094
▁steps	-3095
▁tamil	-3096
▁leader	-3097
▁results	-3098
anced	-3099
▁interests	-3100
▁accordance	-3101
▁pie	-3102
▁thousand	-3103
oor	-3104
▁transform	-3105
▁rupe	-3106
▁doubt	-3107
▁adopted	-3108
uls	-3109
▁majority	-3110
▁easy	-3111
▁advoc	-3112
▁pleas	-3113
▁orders	-3114
▁highest	-3115
▁administrative	-3116
▁wealth	-3117
▁electron	-3118
▁quant	-3119
▁yog	-3120
▁chann	-3121
▁heard	-3122
▁opportunities	-3123
▁secretary	-3124
▁africa	-3125
▁articles	-3126
▁instrument	-3127
▁authorities	-3128
▁multi	-3129
vere	-3130
▁agency	-3131
▁governance	-3132
iance	-3133
▁apart	-3134
▁beautiful	-3135
▁independent	-3136
▁extra	-3137
▁minor	-3138
▁ms	-3139
▁mix	-3140
▁vac	-3141
▁average	-3142
ese	-3143
▁compens	-3144
▁anti	-3145
ground	-3146
▁species	-3147
▁lad	-3148
▁looking	-3149
▁promotion	-3150
set	-3151
▁reasons	-3152
uck	-3153
iii	-3154
▁asia	-3155
▁assign	-3156
▁quick	-3157
▁termin	-3158
▁machine	-3159
▁resident	-3160
▁contained	-3161
▁cash	-3162
▁pattern	-3163
abled	-3164
▁chrom	-3165
▁temper	-3166
▁regarding	-3167
▁offer	-3168
▁uttar	-3169
▁reached	-3170
▁yes	-3171
▁former	-3172
▁costs	-3173
uration	-3174
▁laid	-3175
▁ast	-3176
▁recei	-3177
abor	-3178
▁numbers	-3179
ox	-3180
osing	-3181
▁weight	-3182
▁maximum	-3183
hic	-3184
orrow	-3185
▁china	-3186
▁likely	-3187
▁send	-3188
▁hours	-3189
▁internet	-3190
▁universities	-3191
.”	-3192
▁dark	-3193
▁electric	-3194
atever	-3195
▁hab	-3196
▁june	-3197
▁victim	-3198
▁lack	-3199
▁egg	-3200
▁util	-3201
▁conflic	-3202
▁gh	-3203
▁principle	-3204
▁furn	-3205
▁effort	-3206
ades	-3207
▁august	-3208
▁innovation	-3209
vered	-3210
▁graph	-3211
▁comment	-3212
▁entit	-3213
▁alle	-3214
izing	-3215
▁perman	-3216
▁studies	-3217
▁benefits	-3218
▁influence	-3219
▁content	-3220
yer	-3221
▁cells	-3222
▁indians	-3223
▁planning	-3224
ashtra	-3225
▁magn	-3226
▁symb	-3227
phas	-3228
▁largest	-3229
cription	-3230
▁patient	-3231
ength	-3232
▁grand	-3233
▁advice	-3234
ellig	-3235
▁connected	-3236
▁ali	-3237
▁dyn	-3238
▁leading	-3239
▁primary	-3240
▁husband	-3241
▁distin	-3242
▁traditional	-3243
▁inside	-3244
▁registered	-3245
▁measure	-3246
▁dream	-3247
▁refer	-3248
▁whatever	-3249
▁reven	-3250
che	-3251
▁understanding	-3252
ja	-3253
▁context	-3254
▁resolution	-3255
▁struggle	-3256
nal	-3257
▁stock	-3258
▁december	-3259
▁amb	-3260
▁analys	-3261
asth	-3262
▁sale	-3263
▁travel	-3264
▁files	-3265
▁fully	-3266
ites	-3267
▁wel	-3268
▁presence	-3269
▁placed	-3270
▁growing	-3271
▁consciousness	-3272
▁staff	-3273
▁storage	-3274
▁dead	-3275
▁bihar	-3276
▁threat	-3277
cul	-3278
▁everything	-3279
▁reserv	-3280
▁creation	-3281
▁kar	-3282
▁soil	-3283
▁executive	-3284
▁fine	-3285
▁october	-3286
▁medium	-3287
▁affected	-3288
▁drink	-3289
▁chandra	-3290
▁stories	-3291
▁construction	-3292
▁ant	-3293
▁bri	-3294
aid	-3295
▁jew	-3296
▁someone	-3297
▁argu	-3298
▁exceed	-3299
ayan	-3300
▁style	-3301
▁centres	-3302
ography	-3303
▁described	-3304
▁virt	-3305
▁seems	-3306
▁tub	-3307
▁vehic	-3308
onst	-3309
▁relief	-3310
▁substant	-3311
▁penalty	-3312
▁associated	-3313
pid	-3314
oll	-3315
▁asset	-3316
▁engineering	-3317
▁mun	-3318
▁gas	-3319
▁adequ	-3320
atha	-3321
▁cand	-3322
▁quar	-3323
▁communication	-3324
▁promote	-3325
▁ah	-3326
light	-3327
▁brow	-3328
▁useful	-3329
▁september	-3330
oved	-3331
▁desp	-3332
▁safety	-3333
yan	-3334
▁deemed	-3335
▁successful	-3336
▁ones	-3337
ressed	-3338
olute	-3339
▁developing	-3340
▁petitioner	-3341
▁views	-3342
▁hindus	-3343
▁length	-3344
▁urb	-3345
▁bhag	-3346
▁initial	-3347
▁fert	-3348
▁seek	-3349
▁wait	-3350
▁symbol	-3351
▁facilit	-3352
▁advant	-3353
▁located	-3354
▁flag	-3355
▁series	-3356
▁avoid	-3357
▁operations	-3358
pper	-3359
▁ult	-3360
▁vers	-3361
mat	-3362
▁bed	-3363
▁palest	-3364
▁philosophy	-3365
▁gandhiji	-3366
▁item	-3367
lection	-3368
▁pad	-3369
▁bow	-3370
▁panch	-3371
▁extended	-3372
mo	-3373
rene	-3374
▁diss	-3375
▁focus	-3376
▁payable	-3377
▁fundamental	-3378
porary	-3379
▁declared	-3380
umn	-3381
▁guru	-3382
▁scholars	-3383
▁difference	-3384
▁sle	-3385
▁urban	-3386
▁=	-3387
quiry	-3388
▁parents	-3389
▁islamic	-3390
dule	-3391
▁cere	-3392
▁miss	-3393
▁online	-3394
▁“”	-3395
▁save	-3396
ishn	-3397
▁july	-3398
iciency	-3399
▁names	-3400
▁upd	-3401
▁default	-3402
▁collection	-3403
ora	-3404
hedul	-3405
▁schedul	-3406
▁awards	-3407
▁deposit	-3408
▁station	-3409
▁speaking	-3410
▁distribution	-3411
ula	-3412
▁sudden	-3413
▁gram	-3414
ateral	-3415
aily	-3416
aught	-3417
inery	-3418
▁wild	-3419
▁branch	-3420
▁crow	-3421
da	-3422
▁pil	-3423
ming	-3424
▁gar	-3425
▁needed	-3426
▁print	-3427
▁intellig	-3428
▁schedule	-3429
overy	-3430
▁sentence	-3431
▁objective	-3432
▁extreme	-3433
erate	-3434
oms	-3435
▁equip	-3436
▁running	-3437
hab	-3438
▁ship	-3439
▁universal	-3440
▁remember	-3441
outh	-3442
▁dispos	-3443
rant	-3444
▁ash	-3445
▁site	-3446
▁square	-3447
▁covered	-3448
▁capt	-3449
▁skin	-3450
bru	-3451
▁greet	-3452
▁maharashtra	-3453
▁emphas	-3454
iny	-3455
▁dated	-3456
▁thinking	-3457
▁expressed	-3458
nes	-3459
▁announ	-3460
adi	-3461
ken	-3462
▁color	-3463
▁mas	-3464
▁gard	-3465
▁ham	-3466
▁fulf	-3467
▁rise	-3468
▁lines	-3469
▁daily	-3470
▁ip	-3471
oval	-3472
resp	-3473
▁ang	-3474
▁valu	-3475
ifying	-3476
▁kumar	-3477
▁poems	-3478
▁shown	-3479
gy	-3480
▁pursu	-3481
▁reading	-3482
▁partnership	-3483
▁reve	-3484
▁female	-3485
▁convention	-3486
▁temples	-3487
▁mid	-3488
▁valid	-3489
▁england	-3490
bruary	-3491
▁levels	-3492
▁introduced	-3493
▁enact	-3494
▁constant	-3495
▁applications	-3496
dered	-3497
▁impact	-3498
▁shows	-3499
▁atm	-3500
▁teachers	-3501
▁unity	-3502
▁ministers	-3503
▁aust	-3504
▁scri	-3505
verty	-3506
illing	-3507
▁flu	-3508
▁assam	-3509
▁schools	-3510
▁committed	-3511
▁bul	-3512
▁nut	-3513
▁cric	-3514
ocation	-3515
▁finally	-3516
orn	-3517
▁poverty	-3518
▁villages	-3519
road	-3520
▁hence	-3521
▁larger	-3522
▁ka	-3523
▁shar	-3524
▁fish	-3525
▁nove	-3526
iciary	-3527
▁duties	-3528
▁tagore	-3529
▁appreci	-3530
▁favour	-3531
▁played	-3532
▁danger	-3533
▁slow	-3534
▁namely	-3535
▁receipt	-3536
word	-3537
▁contains	-3538
▁khan	-3539
▁interpre	-3540
▁altern	-3541
▁german	-3542
▁repeal	-3543
▁eastern	-3544
▁morning	-3545
▁chemical	-3546
▁senior	-3547
force	-3548
ops	-3549
itis	-3550
▁establishment	-3551
▁unique	-3552
▁publication	-3553
▁extend	-3554
▁incl	-3555
inated	-3556
▁ideal	-3557
▁shares	-3558
▁railway	-3559
hu	-3560
▁rom	-3561
▁contem	-3562
▁expected	-3563
▁democratic	-3564
▁discipl	-3565
▁reflect	-3566
▁territory	-3567
▁frequ	-3568
▁merely	-3569
▁throughout	-3570
▁gov	-3571
▁thank	-3572
▁cricket	-3573
ont	-3574
▁foundation	-3575
▁oce	-3576
▁star	-3577
▁internal	-3578
usive	-3579
▁park	-3580
▁prepar	-3581
▁surface	-3582
▁parliamentary	-3583
apan	-3584
ussion	-3585
erative	-3586
▁critic	-3587
eties	-3588
▁vital	-3589
▁individuals	-3590
▁gets	-3591
▁worship	-3592
▁worth	-3593
▁stream	-3594
▁changed	-3595
▁...	-3596
aches	-3597
▁script	-3598
▁constitutional	-3599
▁items	-3600
▁integral	-3601
▁ready	-3602
▁keeping	-3603
▁nuclear	-3604
▁compensation	-3605
kh	-3606
iting	-3607
▁compon	-3608
▁november	-3609
▁standing	-3610
▁late	-3611
▁input	-3612
▁male	-3613
▁akbar	-3614
▁variety	-3615
▁kingdom	-3616
▁friendly	-3617
▁absolute	-3618
▁entitled	-3619
▁guar	-3620
▁kerala	-3621
▁banking	-3622
▁element	-3623
▁facts	-3624
▁target	-3625
ipur	-3626
▁sir	-3627
▁desire	-3628
▁prosper	-3629
teen	-3630
hens	-3631
▁psy	-3632
▁delay	-3633
▁nepal	-3634
▁sacr	-3635
▁raised	-3636
▁da	-3637
ighb	-3638
enses	-3639
▁elements	-3640
▁box	-3641
▁excl	-3642
▁resource	-3643
▁easily	-3644
ague	-3645
▁engaged	-3646
abilities	-3647
▁solar	-3648
▁academic	-3649
▁fee	-3650
▁neighb	-3651
▁european	-3652
oo	-3653
asc	-3654
pping	-3655
▁prison	-3656
tered	-3657
▁cam	-3658
▁title	-3659
ogle	-3660
tion	-3661
▁bin	-3662
▁wood	-3663
▁practices	-3664
wal	-3665
cribe	-3666
▁mobile	-3667
▁learned	-3668
after	-3669
▁convey	-3670
▁disput	-3671
▁pure	-3672
▁pressure	-3673
▁degree	-3674
▁veget	-3675
▁fat	-3676
idge	-3677
▁rapid	-3678
▁cities	-3679
▁cultiv	-3680
▁guarant	-3681
rated	-3682
▁filed	-3683
▁points	-3684
omy	-3685
osh	-3686
▁reality	-3687
▁consumer	-3688
▁distance	-3689
▁dischar	-3690
▁causes	-3691
▁doctor	-3692
▁remove	-3693
iring	-3694
▁bodies	-3695
▁defined	-3696
▁looked	-3697
▁incident	-3698
▁cru	-3699
oured	-3700
▁pref	-3701
▁interv	-3702
▁remains	-3703
▁chance	-3704
▁entrep	-3705
▁suit	-3706
▁failure	-3707
▁reports	-3708
▁km	-3709
▁bag	-3710
▁moon	-3711
▁server	-3712
▁resol	-3713
▁saying	-3714
▁survey	-3715
▁literary	-3716
▁feeling	-3717
▁agencies	-3718
▁discussion	-3719
▁madh	-3720
▁opening	-3721
▁shape	-3722
▁tom	-3723
chand	-3724
▁girl	-3725
▁vent	-3726
▁bil	-3727
▁trying	-3728
inet	-3729
assion	-3730
▁heavy	-3731
▁eat	-3732
omet	-3733
▁moral	-3734
icated	-3735
▁newsp	-3736
▁attend	-3737
▁respon	-3738
▁load	-3739
▁bharat	-3740
▁reserve	-3741
▁bear	-3742
▁february	-3743
▁requirements	-3744
atma	-3745
▁cou	-3746
▁monitor	-3747
▁methods	-3748
▁version	-3749
▁entreprene	-3750
▁beauty	-3751
▁dial	-3752
iles	-3753
▁intellectual	-3754
▁impl	-3755
▁caste	-3756
▁speaker	-3757
▁japan	-3758
▁aspects	-3759
▁organiz	-3760
oph	-3761
▁shr	-3762
▁granted	-3763
▁newspap	-3764
una	-3765
uries	-3766
▁feet	-3767
▁diseases	-3768
▁leaves	-3769
▁contain	-3770
▁passing	-3771
een	-3772
▁rare	-3773
asthan	-3774
▁famil	-3775
▁revenue	-3776
▁rama	-3777
▁yoga	-3778
▁province	-3779
ero	-3780
▁withdra	-3781
▁jaw	-3782
▁sand	-3783
▁stone	-3784
▁karn	-3785
▁rupees	-3786
abh	-3787
▁eth	-3788
▁divided	-3789
▁removal	-3790
▁suggested	-3791
',	-3792
▁sin	-3793
▁adequate	-3794
pa	-3795
▁mainly	-3796
▁analysis	-3797
▁probably	-3798
▁block	-3799
▁turned	-3800
▁cold	-3801
mi	-3802
▁gujarat	-3803
istics	-3804
▁rank	-3805
▁scheduled	-3806
ties	-3807
▁hur	-3808
▁foot	-3809
▁events	-3810
▁machinery	-3811
▁voice	-3812
▁motion	-3813
aken	-3814
▁dim	-3815
▁marg	-3816
▁vast	-3817
▁psych	-3818
▁accident	-3819
▁00	-3820
▁mos	-3821
▁fields	-3822
▁delivery	-3823
▁fresh	-3824
▁subsequ	-3825
▁complaint	-3826
▁fal	-3827
▁notes	-3828
▁door	-3829
▁completed	-3830
▁ay	-3831
▁dw	-3832
▁permanent	-3833
▁%	-3834
▁himal	-3835
▁belief	-3836
▁powerful	-3837
▁joy	-3838
cript	-3839
▁daughter	-3840
iously	-3841
▁requires	-3842
▁concl	-3843
▁punishment	-3844
▁legislature	-3845
▁factors	-3846
▁borrow	-3847
▁height	-3848
▁iran	-3849
▁estim	-3850
▁named	-3851
sc	-3852
▁plat	-3853
▁kan	-3854
▁counter	-3855
▁sectors	-3856
▁recommendations	-3857
ests	-3858
▁confident	-3859
uff	-3860
▁families	-3861
▁actual	-3862
▁identity	-3863
▁hour	-3864
▁liqu	-3865
▁officials	-3866
▁environmental	-3867
nel	-3868
▁click	-3869
▁expand	-3870
oming	-3871
१०	-3872
itect	-3873
▁gone	-3874
▁festival	-3875
▁settlement	-3876
▁root	-3877
▁prices	-3878
▁mahatma	-3879
▁profit	-3880
▁pollution	-3881
alu	-3882
yed	-3883
▁bc	-3884
▁professional	-3885
▁succeed	-3886
▁dry	-3887
▁sustain	-3888
▁mist	-3889
▁songs	-3890
▁mutual	-3891
▁insects	-3892
▁confidence	-3893
▁google	-3894
▁output	-3895
▁offered	-3896
▁distingu	-3897
cher	-3898
▁destro	-3899
▁architect	-3900
▁excess	-3901
ferences	-3902
▁hearing	-3903
▁kol	-3904
▁maintain	-3905
▁response	-3906
ka	-3907
irm	-3908
▁ran	-3909
▁abroad	-3910
▁cook	-3911
▁meant	-3912
▁option	-3913
▁positive	-3914
▁lived	-3915
▁facility	-3916
▁died	-3917
aviour	-3918
▁candid	-3919
▁sides	-3920
ae	-3921
oon	-3922
athy	-3923
lex	-3924
▁phase	-3925
actions	-3926
grat	-3927
▁treated	-3928
▁encourage	-3929
▁figure	-3930
▁deduction	-3931
▁rajasthan	-3932
▁goal	-3933
▁drugs	-3934
▁investigation	-3935
▁aid	-3936
▁nort	-3937
▁highly	-3938
ius	-3939
▁bon	-3940
▁clearly	-3941
▁crop	-3942
▁serve	-3943
aign	-3944
round	-3945
▁curren	-3946
▁follows	-3947
▁compre	-3948
▁season	-3949
▁wishes	-3950
▁profess	-3951
urate	-3952
imately	-3953
▁neither	-3954
▁—	-3955
ames	-3956
▁hero	-3957
▁volume	-3958
▁mechanism	-3959
▁cow	-3960
▁inaug	-3961
▁sleep	-3962
▁worked	-3963
▁elections	-3964
lying	-3965
▁decisions	-3966
▁atmosp	-3967
▁believed	-3968
▁returned	-3969
ika	-3970
▁bengali	-3971
▁register	-3972
jud	-3973
▁marketing	-3974
phone	-3975
▁greetings	-3976
jan	-3977
▁suitable	-3978
hn	-3979
▁background	-3980
aja	-3981
▁gaz	-3982
▁pill	-3983
▁grass	-3984
▁congrat	-3985
▁judiciary	-3986
achal	-3987
▁techni	-3988
▁sanction	-3989
▁construct	-3990
key	-3991
inc	-3992
▁pleasure	-3993
▁enem	-3994
▁seem	-3995
▁conflict	-3996
▁politics	-3997
▁russ	-3998
▁features	-3999
▁recommended	-4000
▁corresp	-4001
▁critical	-4002
▁dh	-4003
▁knew	-4004
▁adult	-4005
▁carrying	-4006
▁obv	-4007
▁ganga	-4008
▁orient	-4009
▁participation	-4010
▁campaign	-4011
▁perfect	-4012
udd	-4013
▁sort	-4014
▁crops	-4015
▁amongst	-4016
▁creating	-4017
▁initiatives	-4018
’.	-4019
eria	-4020
▁vid	-4021
aving	-4022
▁inner	-4023
▁materials	-4024
▁appears	-4025
▁breed	-4026
▁dealing	-4027
▁recently	-4028
shi	-4029
▁sev	-4030
▁debt	-4031
▁organis	-4032
▁applicable	-4033
▁trou	-4034
▁ira	-4035
▁cab	-4036
ender	-4037
rench	-4038
▁band	-4039
▁game	-4040
▁applied	-4041
▁holding	-4042
▁determined	-4043
▁ordinary	-4044
ils	-4045
mon	-4046
▁nearly	-4047
▁offices	-4048
▁leadership	-4049
▁release	-4050
aksh	-4051
▁audit	-4052
▁griev	-4053
▁unable	-4054
▁palestin	-4055
▁legislation	-4056
▁susp	-4057
▁agreed	-4058
▁budget	-4059
▁appointment	-4060
gra	-4061
wan	-4062
▁nad	-4063
▁guard	-4064
▁incor	-4065
ologies	-4066
▁experi	-4067
▁happen	-4068
▁join	-4069
nam	-4070
erted	-4071
ested	-4072
▁elig	-4073
areness	-4074
▁happened	-4075
cast	-4076
iling	-4077
▁mort	-4078
▁crime	-4079
▁reforms	-4080
▁excellency	-4081
tenance	-4082
▁proved	-4083
▁reduced	-4084
▁sufficient	-4085
▁unl	-4086
▁email	-4087
rupt	-4088
▁nag	-4089
▁andhra	-4090
▁buddh	-4091
▁sources	-4092
▁unc	-4093
ception	-4094
▁negative	-4095
vert	-4096
▁hall	-4097
▁aware	-4098
▁historical	-4099
▁eleph	-4100
▁regions	-4101
▁judgment	-4102
▁entr	-4103
▁rates	-4104
▁reject	-4105
▁das	-4106
▁leaf	-4107
▁latest	-4108
▁records	-4109
▁maintenance	-4110
▁throw	-4111
▁citizen	-4112
▁completely	-4113
▁hit	-4114
ataka	-4115
stitu	-4116
▁disputes	-4117
▁choose	-4118
▁launched	-4119
▁awareness	-4120
bind	-4121
load	-4122
▁coal	-4123
▁roy	-4124
▁complain	-4125
▁il	-4126
▁mouth	-4127
▁privile	-4128
▁assum	-4129
▁fruit	-4130
▁memor	-4131
▁supported	-4132
▁colour	-4133
▁constituted	-4134
aram	-4135
▁rob	-4136
▁thereof	-4137
▁interesting	-4138
ahar	-4139
▁advantage	-4140
lal	-4141
▁abd	-4142
▁vice	-4143
ourage	-4144
▁sell	-4145
▁rajya	-4146
iration	-4147
▁journal	-4148
▁picture	-4149
▁sho	-4150
▁uns	-4151
mp	-4152
het	-4153
using	-4154
▁climate	-4155
ondon	-4156
▁yield	-4157
▁accordingly	-4158
▁departments	-4159
▁substantial	-4160
ply	-4161
▁elected	-4162
▁letters	-4163
▁surround	-4164
arian	-4165
▁folk	-4166
▁jail	-4167
▁defend	-4168
▁instance	-4169
▁password	-4170
▁proposal	-4171
▁undertaking	-4172
▁numer	-4173
▁center	-4174
▁remark	-4175
▁constitu	-4176
asm	-4177
....	-4178
▁damage	-4179
rew	-4180
pective	-4181
▁theory	-4182
esty	-4183
▁compr	-4184
▁sugar	-4185
▁empire	-4186
▁dispute	-4187
▁purchase	-4188
“”	-4189
yas	-4190
▁waste	-4191
▁notification	-4192
bal	-4193
elines	-4194
▁teaching	-4195
▁reasonable	-4196
▁poem	-4197
▁spent	-4198
▁extension	-4199
▁iraq	-4200
▁remote	-4201
▁hun	-4202
icket	-4203
▁coast	-4204
▁manif	-4205
▁trees	-4206
.—	-4207
▁fram	-4208
▁radio	-4209
▁users	-4210
▁priority	-4211
▁correspond	-4212
tt	-4213
▁pit	-4214
astic	-4215
▁hear	-4216
▁obst	-4217
▁phone	-4218
▁magist	-4219
▁entered	-4220
▁translation	-4221
▁vig	-4222
▁struct	-4223
▁divers	-4224
▁fertil	-4225
▁london	-4226
▁false	-4227
▁fellow	-4228
▁latter	-4229
▁conserv	-4230
▁characters	-4231
▁eve	-4232
▁electricity	-4233
▁format	-4234
▁concent	-4235
▁hyd	-4236
▁mel	-4237
▁bills	-4238
▁organism	-4239
▁released	-4240
▁approval	-4241
▁allowance	-4242
cks	-4243
▁writer	-4244
▁provin	-4245
ications	-4246
▁approved	-4247
▁remained	-4248
▁channel	-4249
ertain	-4250
▁touch	-4251
▁achieved	-4252
▁regulations	-4253
▁suf	-4254
▁changing	-4255
▁currency	-4256
▁medicine	-4257
pta	-4258
▁rang	-4259
athi	-4260
odes	-4261
▁folder	-4262
▁situated	-4263
▁od	-4264
▁pip	-4265
▁drawn	-4266
▁subjects	-4267
uel	-4268
iled	-4269
▁bose	-4270
▁compar	-4271
▁explo	-4272
▁expenses	-4273
▁description	-4274
hol	-4275
▁exact	-4276
▁nine	-4277
▁surv	-4278
▁moved	-4279
▁solution	-4280
▁irr	-4281
▁ende	-4282
▁classes	-4283
▁pension	-4284
▁ja	-4285
▁spl	-4286
▁config	-4287
▁va	-4288
▁dia	-4289
▁student	-4290
▁tea	-4291
▁evolution	-4292
▁manufacturing	-4293
▁calls	-4294
oj	-4295
▁jag	-4296
▁hill	-4297
vision	-4298
);	-4299
iet	-4300
▁weap	-4301
▁plays	-4302
▁choice	-4303
▁objectives	-4304
▁enhan	-4305
▁ocean	-4306
▁journey	-4307
▁possess	-4308
ayana	-4309
▁equipment	-4310
▁sind	-4311
▁ability	-4312
▁committees	-4313
▁integrated	-4314
▁mac	-4315
▁charged	-4316
▁challenge	-4317
ni	-4318
anas	-4319
▁jain	-4320
▁reduce	-4321
▁manager	-4322
▁manufacture	-4323
▁advis	-4324
▁moving	-4325
▁honour	-4326
▁married	-4327
▁removed	-4328
▁weather	-4329
▁didn	-4330
▁housing	-4331
▁advanced	-4332
atically	-4333
▁effects	-4334
▁recorded	-4335
ns	-4336
era	-4337
iya	-4338
▁weeks	-4339
▁arbitration	-4340
▁tonnes	-4341
ped	-4342
▁gain	-4343
▁commod	-4344
▁demonst	-4345
▁hom	-4346
▁birds	-4347
▁corporate	-4348
isc	-4349
▁nan	-4350
isition	-4351
▁factor	-4352
▁challenges	-4353
▁cry	-4354
▁reb	-4355
▁huge	-4356
pers	-4357
▁operating	-4358
▁ec	-4359
ankar	-4360
board	-4361
▁opened	-4362
▁contempt	-4363
dy	-4364
cont	-4365
▁sard	-4366
▁relative	-4367
ghan	-4368
▁swit	-4369
▁surpr	-4370
▁wonder	-4371
▁sitting	-4372
▁conducted	-4373
▁die	-4374
▁subsid	-4375
▁acid	-4376
▁expert	-4377
▁pick	-4378
▁rice	-4379
▁proport	-4380
wa	-4381
▁attach	-4382
right	-4383
▁formal	-4384
▁sikh	-4385
▁endeav	-4386
▁prosperity	-4387
▁pul	-4388
▁upper	-4389
▁thirty	-4390
rence	-4391
▁functioning	-4392
▁offences	-4393
▁iron	-4394
▁karnataka	-4395
▁-.	-4396
hern	-4397
▁scientists	-4398
ifice	-4399
thern	-4400
▁prec	-4401
▁store	-4402
▁christian	-4403
▁submitted	-4404
▁sole	-4405
▁austral	-4406
▁devotion	-4407
lad	-4408
▁mahab	-4409
▁battle	-4410
▁ly	-4411
▁restrict	-4412
▁communities	-4413
▁lie	-4414
under	-4415
▁profits	-4416
appe	-4417
icate	-4418
ishing	-4419
▁loans	-4420
oti	-4421
overed	-4422
ordinate	-4423
▁maintained	-4424
▁vit	-4425
▁sought	-4426
▁enforce	-4427
▁brain	-4428
▁helped	-4429
▁mountain	-4430
▁selection	-4431
▁blue	-4432
▁served	-4433
▁drive	-4434
▁accomp	-4435
▁collabor	-4436
▁recovery	-4437
▁atmosphere	-4438
▁ox	-4439
hai	-4440
ques	-4441
▁brief	-4442
▁grown	-4443
▁consultation	-4444
iant	-4445
iveness	-4446
▁location	-4447
▁scope	-4448
▁framework	-4449
▁guidelines	-4450
ips	-4451
yers	-4452
▁mir	-4453
utory	-4454
▁shap	-4455
▁forum	-4456
▁consists	-4457
▁noted	-4458
▁healthy	-4459
▁islands	-4460
▁accompan	-4461
▁attached	-4462
▁everyone	-4463
anya	-4464
▁scc	-4465
▁dign	-4466
▁none	-4467
▁adjust	-4468
▁substance	-4469
urb	-4470
ghal	-4471
td	-4472
issa	-4473
▁hair	-4474
▁fourth	-4475
▁obtained	-4476
▁spot	-4477
▁labor	-4478
▁royal	-4479
▁rivers	-4480
sa	-4481
▁column	-4482
▁pu	-4483
ammu	-4484
hara	-4485
▁asp	-4486
ented	-4487
iform	-4488
▁traff	-4489
▁squared	-4490
rog	-4491
otic	-4492
▁kil	-4493
▁colon	-4494
▁screen	-4495
▁infin	-4496
▁stood	-4497
▁execution	-4498
▁poly	-4499
▁draft	-4500
▁track	-4501
▁resist	-4502
▁absence	-4503
apt	-4504
rav	-4505
▁tel	-4506
▁heat	-4507
▁courage	-4508
▁pert	-4509
▁walk	-4510
▁branches	-4511
rical	-4512
aling	-4513
▁param	-4514
▁initiative	-4515
osure	-4516
▁uses	-4517
▁habit	-4518
▁indig	-4519
▁jammu	-4520
▁plaint	-4521
▁processes	-4522
▁organizations	-4523
११	-4524
▁assistant	-4525
ocol	-4526
▁suffering	-4527
▁opposition	-4528
▁tren	-4529
▁attitude	-4530
▁northern	-4531
▁personnel	-4532
hana	-4533
▁rub	-4534
▁decide	-4535
▁transferred	-4536
▁.	-4537
▁nic	-4538
▁armed	-4539
▁discl	-4540
▁afghan	-4541
▁bringing	-4542
▁ax	-4543
▁kab	-4544
▁impris	-4545
▁lif	-4546
▁ven	-4547
▁simpl	-4548
▁panchay	-4549
▁customer	-4550
▁evol	-4551
▁decades	-4552
▁comprehens	-4553
gypt	-4554
▁lies	-4555
▁audio	-4556
▁imprisonment	-4557
▁dance	-4558
▁efficient	-4559
▁ourselves	-4560
▁claims	-4561
imb	-4562
▁eld	-4563
▁defe	-4564
▁bilateral	-4565
▁actions	-4566
jection	-4567
▁pending	-4568
iments	-4569
▁launch	-4570
▁welcome	-4571
▁starting	-4572
▁similarly	-4573
▁respondent	-4574
arma	-4575
iers	-4576
▁greatest	-4577
.)	-4578
▁ji	-4579
▁rout	-4580
▁joined	-4581
▁evening	-4582
▁tomorrow	-4583
▁proof	-4584
▁bah	-4585
luding	-4586
▁steel	-4587
hel	-4588
▁impart	-4589
▁dat	-4590
▁afford	-4591
▁babu	-4592
▁match	-4593
▁despite	-4594
▁behaviour	-4595
▁deleg	-4596
▁becoming	-4597
▁designed	-4598
▁introduction	-4599
▁dog	-4600
▁piece	-4601
▁platform	-4602
▁instruments	-4603
▁intelligence	-4604
rel	-4605
uous	-4606
▁lal	-4607
▁dhar	-4608
▁liquid	-4609
▁emotion	-4610
▁appellate	-4611
▁sick	-4612
▁span	-4613
▁train	-4614
▁prince	-4615
▁shared	-4616
▁thousands	-4617
ricts	-4618
▁dynam	-4619
▁girls	-4620
▁orissa	-4621
▁minutes	-4622
▁organisations	-4623
▁motor	-4624
▁egypt	-4625
▁partner	-4626
▁telephone	-4627
▁stamp	-4628
▁prohib	-4629
▁counsel	-4630
▁smaller	-4631
ibilities	-4632
ses	-4633
ogue	-4634
▁calc	-4635
▁zone	-4636
▁gains	-4637
▁emergency	-4638
▁unknow	-4639
▁domin	-4640
▁helps	-4641
▁looks	-4642
▁imperial	-4643
▁recommendation	-4644
▁temperature	-4645
aji	-4646
▁flowers	-4647
▁formation	-4648
▁paral	-4649
▁multiple	-4650
▁atom	-4651
▁bench	-4652
▁garden	-4653
iced	-4654
holders	-4655
▁technologies	-4656
ios	-4657
mic	-4658
▁wise	-4659
▁capable	-4660
▁reported	-4661
▁commitment	-4662
lies	-4663
▁signed	-4664
▁skills	-4665
ifications	-4666
▁myst	-4667
rat	-4668
▁kit	-4669
udi	-4670
▁zero	-4671
▁equality	-4672
▁permission	-4673
anged	-4674
oles	-4675
▁bird	-4676
issue	-4677
▁sexual	-4678
▁straight	-4679
▁possession	-4680
▁improvement	-4681
▁entrepreneurs	-4682
pra	-4683
▁nadu	-4684
▁agent	-4685
▁severe	-4686
▁friendship	-4687
▁cave	-4688
▁subhas	-4689
▁secondary	-4690
icip	-4691
▁pregn	-4692
▁renew	-4693
▁skill	-4694
▁vehicle	-4695
▁southern	-4696
▁eligible	-4697
▁proceeding	-4698
▁earn	-4699
▁installed	-4700
bh	-4701
▁deputy	-4702
▁delight	-4703
▁commence	-4704
▁evil	-4705
▁street	-4706
osite	-4707
▁digital	-4708
▁liability	-4709
▁na	-4710
▁pras	-4711
▁deals	-4712
▁electronic	-4713
▁recognised	-4714
ocks	-4715
▁bott	-4716
▁interpret	-4717
cape	-4718
olly	-4719
▁exports	-4720
▁tro	-4721
▁tourism	-4722
▁implemented	-4723
aled	-4724
inent	-4725
▁oblig	-4726
ruption	-4727
▁madras	-4728
▁jawahar	-4729
▁compared	-4730
▁doesn	-4731
▁identified	-4732
▁equally	-4733
▁watch	-4734
▁declar	-4735
▁library	-4736
▁substitut	-4737
▁az	-4738
▁poets	-4739
▁career	-4740
▁secure	-4741
▁districts	-4742
▁recognition	-4743
▁nab	-4744
▁filled	-4745
▁cabinet	-4746
withstanding	-4747
ork	-4748
▁uk	-4749
mark	-4750
▁aims	-4751
▁john	-4752
▁blind	-4753
▁horse	-4754
▁plans	-4755
▁sanct	-4756
▁portion	-4757
▁comprehensive	-4758
bon	-4759
▁“%	-4760
▁cot	-4761
▁ves	-4762
irect	-4763
▁shop	-4764
▁sight	-4765
▁alternative	-4766
▁twel	-4767
▁hyder	-4768
▁arising	-4769
▁hat	-4770
▁tissue	-4771
ded	-4772
▁iii	-4773
▁proportion	-4774
▁gan	-4775
▁overall	-4776
▁appeared	-4777
▁outstanding	-4778
imal	-4779
hance	-4780
▁bone	-4781
▁parent	-4782
▁acquired	-4783
▁investig	-4784
▁personality	-4785
ica	-4786
▁exhib	-4787
▁mostly	-4788
▁discharge	-4789
inger	-4790
▁lect	-4791
▁marked	-4792
▁enhance	-4793
▁performed	-4794
rees	-4795
what	-4796
▁burn	-4797
▁fifty	-4798
▁desert	-4799
▁sardar	-4800
▁billion	-4801
▁pointed	-4802
▁settings	-4803
▁centuries	-4804
▁organized	-4805
rol	-4806
▁cris	-4807
▁deliver	-4808
▁securities	-4809
▁disk	-4810
▁consol	-4811
▁enterprises	-4812
▁gop	-4813
▁appa	-4814
▁forth	-4815
▁ignor	-4816
▁imposs	-4817
▁assigned	-4818
▁limits	-4819
▁immediate	-4820
▁absor	-4821
▁remed	-4822
▁normally	-4823
▁border	-4824
▁felicit	-4825
▁communal	-4826
ray	-4827
back	-4828
▁rock	-4829
▁narrow	-4830
▁simply	-4831
▁valley	-4832
tes	-4833
▁rit	-4834
▁bond	-4835
ranath	-4836
▁kinds	-4837
▁distinct	-4838
look	-4839
▁mandap	-4840
▁announced	-4841
▁collected	-4842
▁transaction	-4843
ena	-4844
▁000	-4845
▁french	-4846
▁customs	-4847
▁visited	-4848
fts	-4849
fort	-4850
▁herit	-4851
▁municip	-4852
▁detailed	-4853
▁killed	-4854
▁sports	-4855
▁examples	-4856
mer	-4857
▁beings	-4858
▁satisfied	-4859
▁contributions	-4860
▁notwithstanding	-4861
ros	-4862
alid	-4863
athe	-4864
▁employee	-4865
▁magistrate	-4866
name	-4867
▁dal	-4868
▁rat	-4869
▁engage	-4870
▁markets	-4871
▁arms	-4872
▁bind	-4873
▁cloth	-4874
▁preced	-4875
▁inquiry	-4876
▁directions	-4877
▁dur	-4878
▁evalu	-4879
▁experiment	-4880
▁respective	-4881
cra	-4882
▁tab	-4883
icted	-4884
▁saty	-4885
▁download	-4886
oral	-4887
▁rati	-4888
▁runs	-4889
▁wants	-4890
ensions	-4891
oe	-4892
cip	-4893
gent	-4894
▁sympt	-4895
▁attrib	-4896
▁kir	-4897
▁heritage	-4898
ding	-4899
▁mit	-4900
▁core	-4901
▁race	-4902
▁incorpor	-4903
iest	-4904
ulty	-4905
aging	-4906
vest	-4907
▁fib	-4908
▁seemed	-4909
▁sacrifice	-4910
▁visible	-4911
▁windows	-4912
ila	-4913
▁swami	-4914
▁conven	-4915
▁haz	-4916
▁israeli	-4917
▁represents	-4918
▁१	-4919
pto	-4920
▁sky	-4921
▁traffic	-4922
▁dipl	-4923
▁fell	-4924
▁conce	-4925
▁links	-4926
▁pipes	-4927
▁double	-4928
▁figures	-4929
▁muse	-4930
▁containing	-4931
ping	-4932
▁chat	-4933
▁fees	-4934
▁exists	-4935
▁assessing	-4936
▁raise	-4937
▁trading	-4938
▁regulation	-4939
hamm	-4940
ladesh	-4941
▁sweet	-4942
▁customers	-4943
▁discussed	-4944
po	-4945
ux	-4946
clause	-4947
▁statutory	-4948
▁sus	-4949
▁admitted	-4950
▁properly	-4951
▁procedures	-4952
▁availability	-4953
▁buy	-4954
stood	-4955
▁cham	-4956
▁kill	-4957
▁bright	-4958
▁tender	-4959
▁creative	-4960
▁hal	-4961
▁mahabhar	-4962
aced	-4963
▁eggs	-4964
▁hardly	-4965
▁prejud	-4966
▁prosecution	-4967
▁territories	-4968
▁distinguished	-4969
▁kn	-4970
ivers	-4971
▁tools	-4972
▁seeking	-4973
▁conclusion	-4974
▁;	-4975
▁imposed	-4976
▁promoting	-4977
▁org	-4978
▁panel	-4979
▁movements	-4980
▁considerable	-4981
ker	-4982
▁sang	-4983
▁strengthen	-4984
▁raw	-4985
▁paras	-4986
▁liberal	-4987
untary	-4988
▁pret	-4989
▁tribal	-4990
▁brahmin	-4991
▁protocol	-4992
▁thereafter	-4993
no	-4994
▁doll	-4995
▁theme	-4996
▁stands	-4997
▁mart	-4998
▁delib	-4999
▁spect	-5000
▁instructions	-5001
room	-5002
▁employed	-5003
▁sustainable	-5004
):	-5005
▁alt	-5006
▁mak	-5007
minent	-5008
▁forests	-5009
▁organised	-5010
mine	-5011
hammad	-5012
▁enabled	-5013
▁directed	-5014
▁computing	-5015
▁kap	-5016
▁mov	-5017
▁anyone	-5018
▁unknown	-5019
hat	-5020
anta	-5021
▁hop	-5022
▁ahead	-5023
▁amended	-5024
▁intended	-5025
▁godd	-5026
▁ordin	-5027
▁couple	-5028
▁objects	-5029
antic	-5030
▁composed	-5031
▁extremely	-5032
▁hyderabad	-5033
▁baby	-5034
▁diet	-5035
▁closed	-5036
▁libert	-5037
▁depends	-5038
▁interested	-5039
▁discrim	-5040
▁playing	-5041
▁initiated	-5042
nan	-5043
▁drama	-5044
▁vishn	-5045
▁url	-5046
▁trave	-5047
▁competent	-5048
▁household	-5049
▁minds	-5050
▁apparent	-5051
▁efficiency	-5052
▁undertaken	-5053
▁iv	-5054
▁lake	-5055
erated	-5056
▁bangladesh	-5057
ithm	-5058
▁island	-5059
▁irrigation	-5060
▁monitoring	-5061
▁declaration	-5062
arya	-5063
▁para	-5064
▁urdu	-5065
▁obtain	-5066
▁peoples	-5067
▁suddenly	-5068
▁symp	-5069
▁entirely	-5070
▁happiness	-5071
▁impossible	-5072
▁coc	-5073
▁acknow	-5074
▁demands	-5075
▁arrangement	-5076
akti	-5077
comm	-5078
▁offers	-5079
▁excellence	-5080
▁allah	-5081
”,	-5082
ule	-5083
▁floor	-5084
▁outer	-5085
’,	-5086
anth	-5087
▁definition	-5088
▁facilitate	-5089
▁cart	-5090
icious	-5091
▁guide	-5092
▁acting	-5093
▁awarded	-5094
▁witnesses	-5095
luded	-5096
▁flat	-5097
▁golden	-5098
▁goddess	-5099
▁thoughts	-5100
▁thor	-5101
▁index	-5102
▁appearance	-5103
▁requirement	-5104
▁transactions	-5105
ole	-5106
idden	-5107
▁quickly	-5108
otes	-5109
▁gall	-5110
▁compound	-5111
ares	-5112
▁involve	-5113
cs	-5114
▁ltd	-5115
▁expans	-5116
▁palestinian	-5117
▁nurs	-5118
▁phen	-5119
▁chen	-5120
▁germany	-5121
▁elim	-5122
▁sales	-5123
▁empower	-5124
▁leaving	-5125
▁religions	-5126
▁jawaharlal	-5127
▁lev	-5128
▁gods	-5129
▁sacred	-5130
▁infinite	-5131
aly	-5132
asw	-5133
abet	-5134
,—	-5135
pet	-5136
oses	-5137
▁cos	-5138
▁gate	-5139
▁permit	-5140
▁happens	-5141
edia	-5142
while	-5143
▁prove	-5144
alg	-5145
amin	-5146
going	-5147
▁pages	-5148
▁toler	-5149
▁informed	-5150
▁rid	-5151
▁describ	-5152
▁comments	-5153
▁enterprise	-5154
▁dar	-5155
▁seeds	-5156
▁deeply	-5157
▁myself	-5158
▁partial	-5159
▁unfortun	-5160
▁improving	-5161
zy	-5162
cel	-5163
usted	-5164
▁currently	-5165
▁plaintiff	-5166
▁terrorist	-5167
▁representative	-5168
▁circu	-5169
▁invalid	-5170
▁disposal	-5171
▁manifest	-5172
▁exception	-5173
▁professor	-5174
othes	-5175
▁proud	-5176
▁strategy	-5177
▁finding	-5178
▁writers	-5179
▁partition	-5180
organ	-5181
▁fuel	-5182
oration	-5183
▁authen	-5184
▁continues	-5185
▁bact	-5186
▁diplom	-5187
▁papers	-5188
▁federal	-5189
▁exped	-5190
▁sister	-5191
▁uniform	-5192
▁belonging	-5193
▁societies	-5194
▁consumption	-5195
umin	-5196
▁hills	-5197
▁render	-5198
▁update	-5199
bb	-5200
hus	-5201
xic	-5202
wing	-5203
▁patri	-5204
▁slight	-5205
▁geor	-5206
▁deposits	-5207
▁differences	-5208
▁felicitations	-5209
▁cool	-5210
▁sequ	-5211
▁reply	-5212
▁museum	-5213
▁jun	-5214
essions	-5215
▁commencement	-5216
▁ray	-5217
fall	-5218
▁lik	-5219
▁scen	-5220
▁negoti	-5221
▁commerce	-5222
▁certainly	-5223
▁estimated	-5224
▁laksh	-5225
▁ratio	-5226
▁grounds	-5227
▁prevail	-5228
▁improved	-5229
▁infection	-5230
ota	-5231
oken	-5232
▁tot	-5233
▁directory	-5234
▁cotton	-5235
▁quantity	-5236
▁competition	-5237
▁chait	-5238
▁reader	-5239
▁feature	-5240
▁respectively	-5241
▁ta	-5242
▁fru	-5243
▁delete	-5244
▁salt	-5245
▁hydro	-5246
▁league	-5247
▁prevention	-5248
▁victims	-5249
▁advocate	-5250
▁addressed	-5251
▁liable	-5252
▁whenever	-5253
▁railways	-5254
▁dedicated	-5255
▁ga	-5256
aded	-5257
urally	-5258
▁flood	-5259
▁propag	-5260
▁solid	-5261
▁preserv	-5262
▁consolid	-5263
gi	-5264
omin	-5265
▁arrived	-5266
▁amendments	-5267
▁determination	-5268
gments	-5269
▁remaining	-5270
kata	-5271
uman	-5272
▁elev	-5273
▁incur	-5274
▁showing	-5275
▁explained	-5276
▁kid	-5277
▁palace	-5278
▁investors	-5279
▁practical	-5280
▁understood	-5281
norm	-5282
▁rou	-5283
endra	-5284
▁bure	-5285
▁castes	-5286
▁crisis	-5287
▁transmission	-5288
▁upto	-5289
▁atomic	-5290
▁consent	-5291
▁guidance	-5292
▁guarantee	-5293
▁tribes	-5294
▁inspired	-5295
▁wik	-5296
▁fill	-5297
amation	-5298
▁acquisition	-5299
▁productivity	-5300
▁voc	-5301
elling	-5302
encing	-5303
▁enemy	-5304
▁buddha	-5305
▁murder	-5306
▁quarter	-5307
▁repeated	-5308
mn	-5309
mony	-5310
▁dismiss	-5311
house	-5312
▁bail	-5313
▁holy	-5314
▁lepro	-5315
▁effectively	-5316
▁contemporary	-5317
ette	-5318
uran	-5319
▁owner	-5320
▁pandit	-5321
▁vishnu	-5322
▁py	-5323
usal	-5324
▁gupta	-5325
▁pound	-5326
▁willing	-5327
di	-5328
van	-5329
▁breath	-5330
▁madhya	-5331
▁seeing	-5332
▁criticism	-5333
▁expansion	-5334
▁pi	-5335
▁enacted	-5336
▁covering	-5337
▁intention	-5338
▁constitute	-5339
gor	-5340
eless	-5341
aneous	-5342
▁masses	-5343
▁meetings	-5344
▁voluntary	-5345
▁mathe	-5346
▁persian	-5347
▁humanity	-5348
aces	-5349
▁ritual	-5350
▁arrested	-5351
▁definite	-5352
▁filing	-5353
▁forget	-5354
▁vs	-5355
asty	-5356
▁mig	-5357
icide	-5358
▁lose	-5359
▁champ	-5360
▁innoc	-5361
▁ze	-5362
cend	-5363
▁era	-5364
▁row	-5365
onym	-5366
▁layer	-5367
▁roads	-5368
▁messages	-5369
▁universe	-5370
▁mountains	-5371
▁empt	-5372
▁knows	-5373
▁string	-5374
▁cooperative	-5375
writ	-5376
aland	-5377
▁rent	-5378
▁prasad	-5379
▁suffer	-5380
▁difficulty	-5381
▁dro	-5382
▁showed	-5383
",	-5384
.“	-5385
ensity	-5386
▁submit	-5387
▁leprosy	-5388
▁indirect	-5389
▁illust	-5390
▁specif	-5391
▁complic	-5392
▁superior	-5393
aks	-5394
▁rig	-5395
▁van	-5396
▁cancer	-5397
▁sessions	-5398
top	-5399
▁spite	-5400
▁recognized	-5401
can	-5402
▁pig	-5403
▁abol	-5404
▁lock	-5405
▁breast	-5406
▁owners	-5407
▁representatives	-5408
had	-5409
iam	-5410
rition	-5411
▁stead	-5412
▁washing	-5413
▁tig	-5414
isher	-5415
▁bureau	-5416
▁phenom	-5417
▁discipline	-5418
▁subt	-5419
▁ambed	-5420
▁chain	-5421
▁twelve	-5422
▁eternal	-5423
▁inspect	-5424
ola	-5425
cles	-5426
ller	-5427
▁ego	-5428
inese	-5429
▁fasc	-5430
▁datab	-5431
▁estate	-5432
▁treas	-5433
▁rulers	-5434
▁derived	-5435
▁fertiliz	-5436
▁investments	-5437
▁arrangements	-5438
garh	-5439
▁viz	-5440
▁tube	-5441
▁turk	-5442
▁adapt	-5443
▁debate	-5444
rie	-5445
iary	-5446
▁broken	-5447
▁vessel	-5448
▁airport	-5449
▁ambedkar	-5450
▁millions	-5451
▁architecture	-5452
▁difficulties	-5453
eds	-5454
osen	-5455
▁kam	-5456
ieving	-5457
▁goals	-5458
▁maybe	-5459
▁institutes	-5460
iliar	-5461
▁lands	-5462
raction	-5463
asi	-5464
▁ille	-5465
active	-5466
▁courses	-5467
▁devi	-5468
▁nerv	-5469
▁accom	-5470
▁bridge	-5471
▁injury	-5472
▁mughal	-5473
▁gradually	-5474
▁temporary	-5475
tery	-5476
▁brows	-5477
▁appeals	-5478
▁whereas	-5479
▁raja	-5480
▁arbitr	-5481
▁stages	-5482
▁faculty	-5483
▁symptoms	-5484
▁writings	-5485
▁approx	-5486
▁successfully	-5487
▁theat	-5488
ciation	-5489
▁strike	-5490
▁afghanistan	-5491
rut	-5492
▁dil	-5493
▁jay	-5494
▁tir	-5495
▁legs	-5496
▁tort	-5497
icians	-5498
▁domain	-5499
▁settled	-5500
▁discussions	-5501
▁os	-5502
▁dna	-5503
order	-5504
uddin	-5505
▁options	-5506
gs	-5507
१२	-5508
▁wa	-5509
▁editor	-5510
▁replace	-5511
▁continuous	-5512
▁conversion	-5513
bra	-5514
▁vedic	-5515
▁advert	-5516
▁equity	-5517
▁topics	-5518
▁attacks	-5519
▁evident	-5520
▁permitted	-5521
ads	-5522
ilty	-5523
▁blow	-5524
▁fruits	-5525
▁convert	-5526
▁talking	-5527
▁regarded	-5528
rd	-5529
▁club	-5530
▁trip	-5531
ificial	-5532
▁trouble	-5533
inn	-5534
owed	-5535
▁york	-5536
▁walls	-5537
▁gross	-5538
▁aggreg	-5539
▁crores	-5540
▁trained	-5541
▁waiting	-5542
▁subordinate	-5543
▁-,	-5544
▁lady	-5545
▁mant	-5546
▁prompt	-5547
▁waters	-5548
▁harmony	-5549
▁yourself	-5550
izes	-5551
orous	-5552
▁occurs	-5553
inations	-5554
kan	-5555
▁myth	-5556
▁asian	-5557
▁quiet	-5558
▁immense	-5559
▁strategic	-5560
▁desk	-5561
▁chinese	-5562
▁geograph	-5563
▁municipal	-5564
▁solutions	-5565
▁acceptance	-5566
▁litigation	-5567
pay	-5568
gery	-5569
▁elephant	-5570
▁cha	-5571
▁luc	-5572
enous	-5573
ikh	-5574
▁speeches	-5575
care	-5576
▁gent	-5577
▁bottom	-5578
▁emphasis	-5579
▁identify	-5580
▁fever	-5581
▁soldiers	-5582
▁determine	-5583
yl	-5584
▁oh	-5585
▁holds	-5586
ressive	-5587
▁abnorm	-5588
▁widely	-5589
▁appellant	-5590
▁representation	-5591
▁tail	-5592
ivered	-5593
▁binoy	-5594
▁linked	-5595
▁prosecut	-5596
▁subsequent	-5597
iy	-5598
▁'.	-5599
▁yel	-5600
aniel	-5601
▁kolkata	-5602
▁numerous	-5603
▁preparation	-5604
▁automatically	-5605
uch	-5606
aman	-5607
oned	-5608
ommod	-5609
▁dan	-5610
▁bull	-5611
▁emper	-5612
▁afores	-5613
▁contrary	-5614
▁educated	-5615
▁authorised	-5616
▁contribute	-5617
▁alleg	-5618
▁petro	-5619
entions	-5620
▁russia	-5621
▁aforesaid	-5622
▁involving	-5623
▁ba	-5624
ture	-5625
rates	-5626
▁boys	-5627
▁nagar	-5628
▁plate	-5629
▁saint	-5630
▁wound	-5631
laughter	-5632
▁testing	-5633
▁chaitanya	-5634
▁neighbour	-5635
mits	-5636
▁edge	-5637
▁depth	-5638
▁verses	-5639
▁accommod	-5640
▁categories	-5641
▁celebrated	-5642
▁controlled	-5643
grim	-5644
isted	-5645
▁advent	-5646
▁recall	-5647
▁recruit	-5648
▁newspaper	-5649
▁civilization	-5650
mal	-5651
▁clar	-5652
▁ahmed	-5653
▁clust	-5654
▁detect	-5655
▁grew	-5656
▁gather	-5657
▁components	-5658
▁usual	-5659
▁accompl	-5660
▁radical	-5661
▁destruction	-5662
atell	-5663
▁australia	-5664
▁conservation	-5665
ube	-5666
▁divide	-5667
▁accurate	-5668
▁institutional	-5669
uri	-5670
▁sah	-5671
retion	-5672
▁dealt	-5673
▁envis	-5674
▁taught	-5675
▁diction	-5676
▁tong	-5677
pection	-5678
▁explain	-5679
▁drinking	-5680
anath	-5681
▁finds	-5682
▁venture	-5683
▁buildings	-5684
▁technological	-5685
,'	-5686
▁react	-5687
▁allows	-5688
▁marriages	-5689
▁distributed	-5690
▁parag	-5691
▁thick	-5692
▁turkey	-5693
▁pilgrim	-5694
▁remarkable	-5695
▁bath	-5696
▁falls	-5697
▁flower	-5698
▁argument	-5699
▁proposals	-5700
odh	-5701
onal	-5702
oser	-5703
▁htt	-5704
▁rot	-5705
▁scene	-5706
▁devices	-5707
▁prepare	-5708
ulpt	-5709
▁taj	-5710
craft	-5711
▁socio	-5712
▁begins	-5713
▁brings	-5714
▁sculpt	-5715
▁tourist	-5716
▁chur	-5717
▁burden	-5718
▁daniel	-5719
▁safegu	-5720
▁founded	-5721
▁delivered	-5722
▁carbon	-5723
▁ceremony	-5724
▁regulatory	-5725
lu	-5726
▁vib	-5727
▁chrome	-5728
▁weapons	-5729
▁ensuring	-5730
▁himachal	-5731
▁patients	-5732
▁consisting	-5733
▁corruption	-5734
anka	-5735
▁cad	-5736
▁verse	-5737
▁poison	-5738
▁conviction	-5739
lets	-5740
▁map	-5741
▁stress	-5742
▁strict	-5743
▁visual	-5744
▁herself	-5745
▁reaction	-5746
▁possibility	-5747
▁ary	-5748
▁directors	-5749
▁specially	-5750
do	-5751
eter	-5752
▁cycle	-5753
▁stake	-5754
▁chosen	-5755
▁component	-5756
jay	-5757
life	-5758
▁shad	-5759
▁yellow	-5760
iso	-5761
etary	-5762
▁abst	-5763
▁sheet	-5764
product	-5765
▁images	-5766
▁familiar	-5767
.%	-5768
alam	-5769
▁vote	-5770
▁refused	-5771
▁resulting	-5772
▁achievement	-5773
▁significance	-5774
▁bats	-5775
▁bush	-5776
▁tank	-5777
vereign	-5778
▁france	-5779
lin	-5780
▁pac	-5781
▁dust	-5782
▁ends	-5783
▁wing	-5784
▁nabard	-5785
▁inflamm	-5786
▁thereby	-5787
ilitation	-5788
▁strengthening	-5789
▁starts	-5790
▁progressive	-5791
ourse	-5792
▁neck	-5793
▁roof	-5794
▁allot	-5795
▁leads	-5796
▁client	-5797
▁disabled	-5798
▁innovative	-5799
▁perfection	-5800
ibly	-5801
▁nin	-5802
▁swar	-5803
▁incent	-5804
▁enforcement	-5805
▁essentially	-5806
▁shiv	-5807
amy	-5808
grad	-5809
▁sul	-5810
▁guilty	-5811
zz	-5812
ows	-5813
▁oral	-5814
▁phar	-5815
▁uncon	-5816
▁instruction	-5817
urse	-5818
▁coord	-5819
▁intest	-5820
▁comfort	-5821
▁cup	-5822
▁indu	-5823
▁forty	-5824
▁mixed	-5825
▁listen	-5826
▁amounts	-5827
▁valuable	-5828
pat	-5829
rum	-5830
raint	-5831
▁ring	-5832
▁marks	-5833
▁backward	-5834
▁opposite	-5835
ban	-5836
cap	-5837
▁meat	-5838
▁victory	-5839
▁chargeable	-5840
cket	-5841
ician	-5842
▁bless	-5843
▁noise	-5844
▁revol	-5845
▁attain	-5846
▁claimed	-5847
▁compuls	-5848
▁paralle	-5849
▁excellent	-5850
▁naturally	-5851
▁producing	-5852
uity	-5853
ients	-5854
▁drop	-5855
▁signal	-5856
▁encouraged	-5857
▁pertaining	-5858
▁participate	-5859
got	-5860
rid	-5861
▁wisd	-5862
▁britain	-5863
▁properties	-5864
emb	-5865
ima	-5866
▁din	-5867
▁sita	-5868
▁gn	-5869
erable	-5870
▁accompanied	-5871
ipp	-5872
och	-5873
▁buff	-5874
▁deriv	-5875
▁poetic	-5876
▁retire	-5877
▁concerns	-5878
▁applicant	-5879
pc	-5880
rier	-5881
▁rhy	-5882
▁secular	-5883
▁employer	-5884
▁sovereign	-5885
time	-5886
▁spoke	-5887
▁mathemat	-5888
▁ber	-5889
▁games	-5890
▁cheque	-5891
▁handic	-5892
▁resign	-5893
▁qualities	-5894
▁heads	-5895
▁procl	-5896
▁defect	-5897
▁wisdom	-5898
▁artificial	-5899
▁salary	-5900
▁wholly	-5901
ulations	-5902
▁disappe	-5903
▁exactly	-5904
▁largely	-5905
▁automatic	-5906
▁childhood	-5907
▁conferred	-5908
▁diversity	-5909
▁satisfaction	-5910
▁rav	-5911
▁seat	-5912
▁adopt	-5913
▁analy	-5914
▁conqu	-5915
▁older	-5916
▁teeth	-5917
▁decade	-5918
ml	-5919
my	-5920
▁jer	-5921
▁node	-5922
▁immun	-5923
▁taxes	-5924
▁convers	-5925
▁drawing	-5926
▁consumers	-5927
▁prominent	-5928
▁provinces	-5929
plate	-5930
▁rect	-5931
▁seats	-5932
▁signs	-5933
▁carefully	-5934
ba	-5935
inct	-5936
▁grat	-5937
▁scar	-5938
▁vary	-5939
▁divid	-5940
▁route	-5941
▁flight	-5942
▁terminal	-5943
▁forwarded	-5944
▁television	-5945
▁consequences	-5946
part	-5947
india	-5948
▁corner	-5949
▁remind	-5950
▁advised	-5951
".	-5952
▁aer	-5953
▁supra	-5954
▁limitation	-5955
nd	-5956
icks	-5957
▁alm	-5958
▁examine	-5959
▁printed	-5960
▁interface	-5961
▁interpretation	-5962
▁algor	-5963
▁summer	-5964
▁raising	-5965
▁considering	-5966
utation	-5967
▁infect	-5968
▁brahman	-5969
▁emperor	-5970
▁candidates	-5971
ugg	-5972
▁chh	-5973
▁font	-5974
▁publish	-5975
za	-5976
lude	-5977
▁shi	-5978
ander	-5979
akrish	-5980
▁solve	-5981
▁circular	-5982
▁suffered	-5983
uv	-5984
▁ny	-5985
urved	-5986
▁gul	-5987
orter	-5988
ullah	-5989
▁glass	-5990
▁spend	-5991
▁unlike	-5992
ria	-5993
▁anx	-5994
▁queen	-5995
ulating	-5996
▁satell	-5997
▁concess	-5998
▁traditions	-5999
▁tun	-6000
ensus	-6001
▁jobs	-6002
▁tear	-6003
▁escape	-6004
▁rose	-6005
▁diagn	-6006
▁sorrow	-6007
▁illness	-6008
▁stopped	-6009
▁database	-6010
▁feelings	-6011
▁”“	-6012
oked	-6013
tical	-6014
▁owned	-6015
▁rising	-6016
▁liberty	-6017
▁isol	-6018
▁prol	-6019
▁mohan	-6020
▁george	-6021
▁violent	-6022
▁inserted	-6023
▁vegetables	-6024
his	-6025
▁unw	-6026
ading	-6027
▁dear	-6028
▁factory	-6029
▁specify	-6030
▁maharaja	-6031
▁maintaining	-6032
▁transformation	-6033
▁auton	-6034
▁shaped	-6035
▁causing	-6036
▁experts	-6037
▁hem	-6038
anges	-6039
▁icon	-6040
▁plug	-6041
chandra	-6042
▁invited	-6043
▁mandapa	-6044
▁presentation	-6045
▁gift	-6046
▁menu	-6047
▁accum	-6048
▁bharati	-6049
▁gazette	-6050
▁savings	-6051
▁commonly	-6052
▁ramayana	-6053
▁suggestion	-6054
▁achievements	-6055
ilal	-6056
▁vic	-6057
▁shiva	-6058
▁circuit	-6059
▁sharing	-6060
jun	-6061
off	-6062
▁cattle	-6063
▁dignity	-6064
▁followers	-6065
▁combination	-6066
▁ok	-6067
▁sr	-6068
urer	-6069
▁gal	-6070
▁flex	-6071
▁overse	-6072
▁developments	-6073
how	-6074
pad	-6075
▁sor	-6076
▁arise	-6077
▁calend	-6078
▁player	-6079
▁deceased	-6080
▁electronics	-6081
eries	-6082
▁gora	-6083
▁faced	-6084
▁truly	-6085
▁strange	-6086
▁incurred	-6087
▁percentage	-6088
oring	-6089
▁shel	-6090
▁stim	-6091
▁rejected	-6092
▁reduction	-6093
▁compassion	-6094
ache	-6095
cers	-6096
▁tor	-6097
▁agra	-6098
▁arts	-6099
▁gree	-6100
▁wear	-6101
▁fifteen	-6102
▁duration	-6103
▁computers	-6104
dev	-6105
▁hyp	-6106
▁lamp	-6107
▁saved	-6108
▁equival	-6109
▁fighting	-6110
lar	-6111
achi	-6112
hips	-6113
▁multipl	-6114
▁confined	-6115
▁literacy	-6116
▁receiving	-6117
▁cultivation	-6118
ushed	-6119
▁rough	-6120
▁dynamic	-6121
▁depending	-6122
▁ultimately	-6123
▁gun	-6124
▁trem	-6125
▁involves	-6126
▁complaints	-6127
▁statements	-6128
df	-6129
lig	-6130
▁semin	-6131
▁pieces	-6132
▁defendant	-6133
▁technique	-6134
itud	-6135
▁fab	-6136
▁pup	-6137
▁vul	-6138
▁passion	-6139
▁hinduism	-6140
▁pictures	-6141
▁paragraph	-6142
▁represented	-6143
ey	-6144
▁asc	-6145
▁vaj	-6146
iable	-6147
▁cord	-6148
▁fluid	-6149
▁minute	-6150
iversary	-6151
▁dependent	-6152
ales	-6153
▁edit	-6154
▁entity	-6155
▁gentle	-6156
iculture	-6157
▁parallel	-6158
▁somebody	-6159
▁emotional	-6160
▁distinction	-6161
▁beat	-6162
▁facing	-6163
▁kg	-6164
▁inev	-6165
▁ended	-6166
missible	-6167
▁managed	-6168
▁theatre	-6169
▁brothers	-6170
▁notified	-6171
▁newspapers	-6172
▁suggestions	-6173
▁revolutionary	-6174
leum	-6175
▁nath	-6176
▁peas	-6177
▁mahal	-6178
▁rehab	-6179
▁stick	-6180
▁wheat	-6181
▁convin	-6182
▁greatly	-6183
oram	-6184
orted	-6185
▁horiz	-6186
▁yester	-6187
▁fault	-6188
▁wages	-6189
▁imagine	-6190
▁occurred	-6191
▁operative	-6192
bel	-6193
vis	-6194
▁empty	-6195
▁studied	-6196
▁emerging	-6197
▁vehicles	-6198
▁(%	-6199
ogen	-6200
▁obvious	-6201
▁keyboard	-6202
▁stations	-6203
aste	-6204
▁sons	-6205
▁condem	-6206
▁simult	-6207
▁prospect	-6208
▁vim	-6209
orial	-6210
works	-6211
▁roll	-6212
herent	-6213
▁fifth	-6214
▁contributed	-6215
▁operational	-6216
१३	-6217
nai	-6218
▁bun	-6219
arita	-6220
urity	-6221
▁ties	-6222
oom	-6223
▁bhut	-6224
▁decre	-6225
▁utter	-6226
▁indicate	-6227
▁subscribe	-6228
▁pc	-6229
ayas	-6230
ports	-6231
▁govt	-6232
▁aimed	-6233
▁asking	-6234
▁destination	-6235
▁obligation	-6236
gram	-6237
▁jack	-6238
▁grace	-6239
▁stored	-6240
▁islamist	-6241
▁dangerous	-6242
▁financing	-6243
▁yesterday	-6244
▁constituent	-6245
ste	-6246
husi	-6247
▁jam	-6248
▁cloud	-6249
▁indira	-6250
▁monthly	-6251
▁passage	-6252
▁converted	-6253
▁communications	-6254
ught	-6255
▁ble	-6256
▁fly	-6257
▁hari	-6258
▁snow	-6259
▁pride	-6260
▁examined	-6261
▁payments	-6262
▁affection	-6263
▁extensive	-6264
▁cd	-6265
▁gita	-6266
▁beach	-6267
▁diverse	-6268
▁eminent	-6269
▁proviso	-6270
▁rational	-6271
▁broadcast	-6272
▁obviously	-6273
▁implementing	-6274
enn	-6275
ooth	-6276
ieves	-6277
▁wage	-6278
▁dress	-6279
▁trend	-6280
▁muscle	-6281
▁novels	-6282
▁sciences	-6283
▁indigenous	-6284
▁influenced	-6285
▁ministries	-6286
▁supplement	-6287
heb	-6288
mans	-6289
▁fet	-6290
▁prize	-6291
▁ruler	-6292
▁vaishn	-6293
▁returns	-6294
▁privilege	-6295
▁transportation	-6296
qual	-6297
alore	-6298
ingly	-6299
▁prox	-6300
▁ther	-6301
▁antic	-6302
▁hotel	-6303
▁kings	-6304
▁farming	-6305
▁profile	-6306
▁agreements	-6307
▁inspection	-6308
▁techniques	-6309
appro	-6310
▁clim	-6311
▁pron	-6312
▁sites	-6313
▁enthusi	-6314
▁marathi	-6315
▁enhanced	-6316
▁integrity	-6317
▁genu	-6318
erning	-6319
▁disse	-6320
▁calcul	-6321
▁structures	-6322
agra	-6323
▁ice	-6324
▁pull	-6325
▁lanka	-6326
▁metal	-6327
▁wikip	-6328
▁closely	-6329
▁putting	-6330
▁realised	-6331
▁fold	-6332
anging	-6333
orders	-6334
▁arabic	-6335
▁printer	-6336
▁scholar	-6337
▁translated	-6338
▁mahabharata	-6339
▁anc	-6340
▁sets	-6341
▁forced	-6342
▁slowly	-6343
▁adverse	-6344
▁applies	-6345
▁desired	-6346
▁primarily	-6347
▁controvers	-6348
▁submission	-6349
iar	-6350
book	-6351
▁spring	-6352
▁winter	-6353
▁organic	-6354
▁therein	-6355
▁muhammad	-6356
▁completion	-6357
▁specifically	-6358
eper	-6359
▁spr	-6360
▁acce	-6361
▁nobody	-6362
▁refuge	-6363
▁planned	-6364
▁advocates	-6365
▁commodities	-6366
▁tex	-6367
▁suppl	-6368
▁elabor	-6369
▁learnt	-6370
▁listed	-6371
▁programs	-6372
ema	-6373
▁ul	-6374
olic	-6375
▁shif	-6376
▁finger	-6377
▁au	-6378
▁aside	-6379
▁nerve	-6380
▁sharp	-6381
▁eating	-6382
▁desktop	-6383
▁hundreds	-6384
▁nutrition	-6385
▁socialist	-6386
▁anniversary	-6387
▁keen	-6388
▁repay	-6389
▁towns	-6390
▁uncle	-6391
▁custody	-6392
▁oriented	-6393
▁happening	-6394
▁hi	-6395
▁upl	-6396
▁delic	-6397
▁disturb	-6398
▁redress	-6399
▁warrant	-6400
▁premises	-6401
▁identification	-6402
ida	-6403
umes	-6404
▁exem	-6405
▁anand	-6406
▁lakhs	-6407
▁stars	-6408
inating	-6409
▁treaty	-6410
▁acceler	-6411
▁subsequently	-6412
nex	-6413
▁''	-6414
▁aband	-6415
▁decor	-6416
▁raman	-6417
▁sixty	-6418
▁twice	-6419
▁spoken	-6420
▁package	-6421
▁servant	-6422
▁combined	-6423
▁experiences	-6424
▁fle	-6425
▁encl	-6426
▁depri	-6427
▁seeks	-6428
▁expiry	-6429
▁shrine	-6430
▁operate	-6431
▁supposed	-6432
▁rao	-6433
▁chal	-6434
pected	-6435
▁shift	-6436
▁extract	-6437
▁sensitive	-6438
▁boat	-6439
▁siva	-6440
▁unre	-6441
▁amalg	-6442
▁bonds	-6443
ourable	-6444
▁burning	-6445
▁clothes	-6446
ju	-6447
bre	-6448
inter	-6449
▁bold	-6450
▁indo	-6451
▁reprodu	-6452
▁organisms	-6453
oh	-6454
arh	-6455
▁bio	-6456
▁bach	-6457
aryana	-6458
▁consp	-6459
▁cruel	-6460
▁homes	-6461
▁calling	-6462
▁harvest	-6463
▁attended	-6464
▁resulted	-6465
▁tv	-6466
▁nir	-6467
▁nit	-6468
▁empow	-6469
▁lingu	-6470
▁button	-6471
▁worker	-6472
▁william	-6473
including	-6474
▁overseas	-6475
▁collective	-6476
apur	-6477
▁lah	-6478
enger	-6479
itals	-6480
▁epic	-6481
▁aspir	-6482
▁neare	-6483
▁stuff	-6484
▁virtue	-6485
▁referring	-6486
ager	-6487
state	-6488
▁chron	-6489
▁elder	-6490
▁volun	-6491
▁caught	-6492
▁copies	-6493
▁discovered	-6494
▁sant	-6495
▁embra	-6496
▁paying	-6497
▁totally	-6498
▁configuration	-6499
mph	-6500
lord	-6501
▁lac	-6502
▁persu	-6503
▁opposed	-6504
▁contents	-6505
▁discretion	-6506
▁situations	-6507
▁silver	-6508
▁switch	-6509
▁emerged	-6510
▁selling	-6511
▁discover	-6512
▁offering	-6513
▁regularly	-6514
nic	-6515
chant	-6516
▁pest	-6517
▁basava	-6518
▁regime	-6519
▁repair	-6520
▁license	-6521
▁classical	-6522
▁healthcare	-6523
▁competitive	-6524
fil	-6525
atar	-6526
▁cin	-6527
▁nas	-6528
▁shut	-6529
▁ultimate	-6530
irs	-6531
▁aj	-6532
▁ww	-6533
▁couldn	-6534
▁ruling	-6535
▁anticip	-6536
▁aircraft	-6537
▁inclusive	-6538
avid	-6539
cure	-6540
power	-6541
▁wire	-6542
aneously	-6543
▁binding	-6544
▁promise	-6545
▁arranged	-6546
▁buddhist	-6547
▁presents	-6548
▁reaching	-6549
▁composition	-6550
fee	-6551
▁gd	-6552
inder	-6553
▁covers	-6554
▁ticket	-6555
▁realise	-6556
▁contrast	-6557
▁impression	-6558
kind	-6559
ouch	-6560
ster	-6561
wide	-6562
inity	-6563
▁chit	-6564
▁pled	-6565
▁roots	-6566
▁fulfil	-6567
▁mailing	-6568
▁recording	-6569
▁eventually	-6570
▁constructed	-6571
▁adm	-6572
▁sovi	-6573
▁trek	-6574
▁pharm	-6575
▁earned	-6576
▁surren	-6577
▁upgrad	-6578
▁majesty	-6579
▁addressing	-6580
▁err	-6581
▁goa	-6582
▁sed	-6583
▁kann	-6584
▁orth	-6585
▁outl	-6586
▁tasks	-6587
▁framed	-6588
▁models	-6589
▁lawyers	-6590
▁readers	-6591
▁printing	-6592
▁rendered	-6593
▁allahabad	-6594
raj	-6595
ental	-6596
ifies	-6597
▁stom	-6598
▁vacc	-6599
▁prayer	-6600
▁suicide	-6601
▁grievances	-6602
bert	-6603
nity	-6604
▁aur	-6605
▁hide	-6606
▁ruled	-6607
▁punjabi	-6608
▁routine	-6609
▁calendar	-6610
▁resistance	-6611
▁ll	-6612
▁ape	-6613
▁flo	-6614
▁ing	-6615
▁integration	-6616
▁installation	-6617
oking	-6618
▁dynasty	-6619
▁replied	-6620
▁achieving	-6621
▁imagination	-6622
▁kav	-6623
▁smt	-6624
antly	-6625
icing	-6626
▁amaz	-6627
▁flour	-6628
▁obama	-6629
▁posts	-6630
▁organs	-6631
▁feeding	-6632
▁wikipedia	-6633
▁celebrations	-6634
raid	-6635
iders	-6636
▁pair	-6637
▁magaz	-6638
▁killing	-6639
▁entertain	-6640
quar	-6641
erior	-6642
▁diam	-6643
▁farmer	-6644
▁hidden	-6645
▁turning	-6646
▁admission	-6647
▁bangalore	-6648
▁cum	-6649
▁wings	-6650
▁ideals	-6651
▁haryana	-6652
▁sending	-6653
▁template	-6654
▁generations	-6655
▁kor	-6656
▁bell	-6657
▁alive	-6658
▁bread	-6659
▁photo	-6660
▁canada	-6661
▁saving	-6662
▁assured	-6663
▁browser	-6664
▁enquiry	-6665
▁illegal	-6666
▁displayed	-6667
▁residence	-6668
hs	-6669
irable	-6670
orters	-6671
▁helping	-6672
▁rapidly	-6673
▁concerning	-6674
▁constantly	-6675
▁references	-6676
)(	-6677
uf	-6678
agers	-6679
▁chennai	-6680
▁chromos	-6681
▁wherever	-6682
▁attachment	-6683
▁everywhere	-6684
▁characteristic	-6685
▁vag	-6686
▁thin	-6687
▁grain	-6688
▁inher	-6689
▁channels	-6690
rh	-6691
▁fran	-6692
▁alter	-6693
▁compe	-6694
▁heaven	-6695
▁indicated	-6696
▁petroleum	-6697
▁congratulate	-6698
▁www	-6699
abling	-6700
orious	-6701
▁admit	-6702
▁ending	-6703
▁chamber	-6704
▁ordered	-6705
▁colonial	-6706
▁phenomen	-6707
▁obligations	-6708
dar	-6709
payee	-6710
▁worry	-6711
▁artist	-6712
▁persist	-6713
▁collaboration	-6714
▁litig	-6715
▁marry	-6716
▁paint	-6717
▁falling	-6718
▁endeavour	-6719
▁mm	-6720
▁wed	-6721
▁merg	-6722
▁circle	-6723
▁outlook	-6724
▁abnormal	-6725
▁extraord	-6726
▁entrusted	-6727
▁compulsory	-6728
▁inflammation	-6729
cal	-6730
▁cater	-6731
▁recon	-6732
▁japanese	-6733
▁governing	-6734
▁highlight	-6735
▁undertake	-6736
gin	-6737
▁nod	-6738
▁bare	-6739
▁busy	-6740
▁fate	-6741
▁intu	-6742
endous	-6743
▁vajpayee	-6744
▁retirement	-6745
ugu	-6746
▁via	-6747
▁irre	-6748
▁cheap	-6749
▁requested	-6750
▁interaction	-6751
ky	-6752
▁cla	-6753
▁han	-6754
▁oxy	-6755
being	-6756
▁arun	-6757
▁pool	-6758
▁sank	-6759
▁stup	-6760
▁malay	-6761
▁academy	-6762
hal	-6763
atri	-6764
▁tob	-6765
▁chest	-6766
▁deity	-6767
▁replaced	-6768
▁calculated	-6769
thy	-6770
▁ib	-6771
isite	-6772
▁condol	-6773
iday	-6774
▁maur	-6775
▁audience	-6776
▁protected	-6777
▁supporting	-6778
▁innovations	-6779
▁discrimination	-6780
ny	-6781
urg	-6782
illa	-6783
▁hurt	-6784
▁lung	-6785
▁blank	-6786
▁norms	-6787
▁hindust	-6788
▁wildlife	-6789
▁everybody	-6790
▁frequently	-6791
▁geographical	-6792
wood	-6793
▁ayurved	-6794
▁decline	-6795
▁historic	-6796
rain	-6797
uram	-6798
▁cav	-6799
▁hes	-6800
▁anth	-6801
▁brown	-6802
▁intim	-6803
▁newly	-6804
itative	-6805
▁imports	-6806
▁summary	-6807
▁moreover	-6808
▁varieties	-6809
das	-6810
oes	-6811
well	-6812
ipped	-6813
▁batsman	-6814
▁obtaining	-6815
▁equivalent	-6816
▁succession	-6817
▁residential	-6818
etan	-6819
▁saudi	-6820
▁soviet	-6821
▁doctors	-6822
▁ped	-6823
▁duly	-6824
▁glad	-6825
▁align	-6826
▁chart	-6827
▁tiger	-6828
▁tooth	-6829
▁degrees	-6830
▁realize	-6831
▁earliest	-6832
▁sustained	-6833
▁membership	-6834
son	-6835
▁abdul	-6836
▁lease	-6837
▁executed	-6838
▁corresponding	-6839
▁rehabilitation	-6840
unk	-6841
▁axis	-6842
▁cant	-6843
▁subh	-6844
▁membr	-6845
▁sheep	-6846
▁wheel	-6847
ilation	-6848
▁kilomet	-6849
▁mistake	-6850
▁premium	-6851
▁reducing	-6852
any	-6853
met	-6854
▁prest	-6855
▁smart	-6856
▁width	-6857
▁grants	-6858
▁alleged	-6859
▁inaugur	-6860
▁contacts	-6861
▁electrical	-6862
▁statistics	-6863
▁inspiration	-6864
rar	-6865
▁ipc	-6866
riage	-6867
▁auth	-6868
▁wave	-6869
▁enorm	-6870
▁faces	-6871
▁pregnancy	-6872
▁continuing	-6873
▁ine	-6874
▁pin	-6875
▁lying	-6876
▁plain	-6877
▁resolve	-6878
endix	-6879
▁drum	-6880
▁hort	-6881
▁rein	-6882
▁annex	-6883
▁genus	-6884
▁recover	-6885
▁regards	-6886
▁innocent	-6887
▁prejudice	-6888
▁dictionary	-6889
▁washington	-6890
xx	-6891
▁mira	-6892
▁motiv	-6893
▁jewish	-6894
▁genuine	-6895
▁licence	-6896
▁monetary	-6897
▁sucharita	-6898
adur	-6899
avas	-6900
▁dac	-6901
▁auto	-6902
▁hung	-6903
▁luck	-6904
▁shock	-6905
▁sharma	-6906
▁colleges	-6907
udh	-6908
rete	-6909
▁tongue	-6910
▁genetic	-6911
▁destroyed	-6912
▁intermedi	-6913
▁stability	-6914
▁derivative	-6915
▁exploitation	-6916
▁unfortunately	-6917
adv	-6918
ament	-6919
▁parad	-6920
▁arises	-6921
▁neglect	-6922
▁peaceful	-6923
▁necessarily	-6924
▁incorporated	-6925
bl	-6926
yr	-6927
▁tat	-6928
oding	-6929
▁milit	-6930
▁defeat	-6931
▁cutting	-6932
▁recruitment	-6933
cope	-6934
▁rbi	-6935
▁rand	-6936
athered	-6937
▁denied	-6938
▁marine	-6939
▁hardware	-6940
▁modified	-6941
▁networks	-6942
▁weakness	-6943
▁generated	-6944
▁yam	-6945
▁agro	-6946
▁alco	-6947
employ	-6948
▁miles	-6949
▁margin	-6950
▁thread	-6951
▁thorough	-6952
▁collector	-6953
▁ignorance	-6954
▁radiation	-6955
▁beneficial	-6956
▁sanctioned	-6957
aked	-6958
▁evolved	-6959
aci	-6960
alal	-6961
enda	-6962
▁vas	-6963
▁afraid	-6964
▁remedy	-6965
▁intense	-6966
▁attempts	-6967
▁recognize	-6968
▁dict	-6969
lessly	-6970
▁fraud	-6971
▁incap	-6972
▁crucial	-6973
▁deliber	-6974
▁driving	-6975
▁interim	-6976
▁liberation	-6977
▁performing	-6978
adh	-6979
view	-6980
▁mud	-6981
eding	-6982
▁hyper	-6983
▁vedas	-6984
▁church	-6985
▁holder	-6986
▁belongs	-6987
▁injured	-6988
▁convocation	-6989
▁programming	-6990
aut	-6991
▁dies	-6992
▁moham	-6993
▁insert	-6994
▁varied	-6995
▁serving	-6996
▁subsidy	-6997
▁younger	-6998
▁tribunals	-6999
▁disability	-7000
akar	-7001
▁lod	-7002
▁til	-7003
paren	-7004
▁narr	-7005
▁pond	-7006
▁silk	-7007
▁shell	-7008
▁exclusive	-7009
▁initially	-7010
▁publications	-7011
▁characteristics	-7012
iri	-7013
tha	-7014
▁emer	-7015
▁meal	-7016
▁gland	-7017
lessness	-7018
▁biggest	-7019
▁musical	-7020
▁dramatic	-7021
▁multiply	-7022
like	-7023
itted	-7024
▁unex	-7025
▁sheikh	-7026
▁disqual	-7027
▁warning	-7028
▁imported	-7029
▁revision	-7030
▁aggregate	-7031
१४	-7032
ador	-7033
aryn	-7034
will	-7035
▁gap	-7036
▁mole	-7037
▁prefer	-7038
utosh	-7039
▁ling	-7040
▁spin	-7041
▁brill	-7042
missions	-7043
▁retired	-7044
▁silence	-7045
▁overcome	-7046
▁attracted	-7047
▁dir	-7048
▁larva	-7049
▁alcohol	-7050
▁adoption	-7051
▁bacteria	-7052
▁accounting	-7053
▁empowerment	-7054
▁ud	-7055
amed	-7056
▁badr	-7057
▁neuro	-7058
▁verma	-7059
▁enables	-7060
▁sequence	-7061
▁acknowled	-7062
▁chemicals	-7063
▁interview	-7064
hari	-7065
▁loose	-7066
▁adding	-7067
▁bigger	-7068
▁vitamin	-7069
▁himalayas	-7070
▁positions	-7071
▁consequence	-7072
var	-7073
▁vish	-7074
▁tells	-7075
▁manual	-7076
▁restric	-7077
▁subhash	-7078
▁preferred	-7079
▁tow	-7080
commun	-7081
▁movie	-7082
▁prestig	-7083
▁describe	-7084
▁disorder	-7085
▁enabling	-7086
▁ownership	-7087
▁relatives	-7088
▁extraordinary	-7089
uru	-7090
ulous	-7091
▁exha	-7092
▁semi	-7093
▁kabir	-7094
▁risks	-7095
▁anonym	-7096
▁inputs	-7097
▁talent	-7098
▁managing	-7099
▁authentic	-7100
▁satellite	-7101
▁restrictions	-7102
▁pace	-7103
▁legit	-7104
▁driver	-7105
▁devoted	-7106
▁servants	-7107
▁tourists	-7108
▁comparative	-7109
▁jub	-7110
▁plot	-7111
▁easier	-7112
▁walking	-7113
▁advisory	-7114
▁excessive	-7115
▁succeeded	-7116
▁tremendous	-7117
asy	-7118
oly	-7119
▁ek	-7120
itya	-7121
mination	-7122
▁answers	-7123
▁bearing	-7124
▁destroy	-7125
▁pillars	-7126
▁handling	-7127
▁furnished	-7128
▁compliance	-7129
pent	-7130
this	-7131
▁vin	-7132
▁vot	-7133
cular	-7134
▁intr	-7135
▁plane	-7136
▁dreams	-7137
▁native	-7138
resident	-7139
▁bahadur	-7140
▁carries	-7141
▁precious	-7142
▁increases	-7143
▁establishing	-7144
ctr	-7145
osted	-7146
▁urge	-7147
▁behav	-7148
▁label	-7149
▁butter	-7150
▁summit	-7151
▁noticed	-7152
▁stomach	-7153
▁kne	-7154
▁clin	-7155
▁pray	-7156
▁scrut	-7157
▁snake	-7158
▁exchanges	-7159
▁disabilities	-7160
▁representing	-7161
cr	-7162
anes	-7163
coming	-7164
fulness	-7165
▁stones	-7166
▁revised	-7167
▁breeding	-7168
▁visiting	-7169
▁ug	-7170
rian	-7171
eters	-7172
▁closer	-7173
▁fabric	-7174
▁pretty	-7175
▁rabind	-7176
▁acceptable	-7177
▁math	-7178
▁pune	-7179
▁adjud	-7180
▁nanak	-7181
▁split	-7182
▁adults	-7183
▁praise	-7184
▁telugu	-7185
▁comprom	-7186
▁periods	-7187
map	-7188
▁vive	-7189
▁substituted	-7190
ino	-7191
ules	-7192
▁tib	-7193
▁acute	-7194
▁loyal	-7195
▁quran	-7196
▁worse	-7197
▁brahma	-7198
▁partly	-7199
▁refund	-7200
▁pronoun	-7201
▁surgery	-7202
▁darkness	-7203
zen	-7204
just	-7205
▁tum	-7206
ariat	-7207
grade	-7208
irmed	-7209
▁http	-7210
ection	-7211
atories	-7212
▁fairly	-7213
▁knowing	-7214
▁inherent	-7215
▁practition	-7216
▁experienced	-7217
kha	-7218
▁gif	-7219
▁palm	-7220
▁turns	-7221
▁governed	-7222
▁contracts	-7223
oz	-7224
rous	-7225
▁gro	-7226
▁pou	-7227
igarh	-7228
▁divor	-7229
▁grave	-7230
▁incom	-7231
▁bhutan	-7232
▁african	-7233
▁mineral	-7234
▁convicted	-7235
▁delegation	-7236
▁realisation	-7237
down	-7238
▁mood	-7239
isible	-7240
▁grade	-7241
ictions	-7242
▁gained	-7243
▁disable	-7244
▁formula	-7245
▁reserved	-7246
▁strongly	-7247
▁indicates	-7248
▁philosoph	-7249
▁immig	-7250
▁diabet	-7251
▁worshi	-7252
liminary	-7253
▁funding	-7254
▁manipur	-7255
▁anywhere	-7256
▁magnetic	-7257
▁marginal	-7258
▁commodity	-7259
▁exercised	-7260
▁occasions	-7261
▁particulars	-7262
ua	-7263
▁cul	-7264
▁moh	-7265
▁usa	-7266
erals	-7267
▁pall	-7268
▁pump	-7269
▁mortg	-7270
▁precise	-7271
sl	-7272
▁pp	-7273
ione	-7274
▁bol	-7275
▁sab	-7276
▁orna	-7277
▁paul	-7278
▁alloc	-7279
▁logic	-7280
▁handle	-7281
▁silent	-7282
▁players	-7283
▁gathered	-7284
▁headquar	-7285
▁produces	-7286
▁satyagra	-7287
▁punishable	-7288
sm	-7289
ogy	-7290
rer	-7291
atis	-7292
othe	-7293
▁apex	-7294
▁pars	-7295
▁arrow	-7296
▁usage	-7297
itarian	-7298
▁enlight	-7299
▁profound	-7300
▁villagers	-7301
iti	-7302
▁ages	-7303
▁bamb	-7304
▁jung	-7305
▁nose	-7306
▁horizon	-7307
▁allocation	-7308
▁conventional	-7309
▁inqu	-7310
ovable	-7311
vation	-7312
▁agenda	-7313
▁smooth	-7314
▁narayan	-7315
▁nervous	-7316
▁seriously	-7317
▁encouraging	-7318
▁appreciation	-7319
you	-7320
plete	-7321
lihood	-7322
▁biote	-7323
▁catch	-7324
▁dwark	-7325
▁inhab	-7326
▁sahib	-7327
▁texts	-7328
▁massive	-7329
▁entering	-7330
▁mc	-7331
itan	-7332
iter	-7333
▁dad	-7334
▁nig	-7335
▁rah	-7336
itate	-7337
▁mine	-7338
▁films	-7339
▁allied	-7340
▁faster	-7341
▁festiv	-7342
▁furnish	-7343
▁wherein	-7344
▁revealed	-7345
▁increasingly	-7346
uti	-7347
▁vel	-7348
▁noble	-7349
endment	-7350
▁deduct	-7351
▁careful	-7352
▁confirm	-7353
▁mankind	-7354
▁algorithm	-7355
itt	-7356
sar	-7357
sha	-7358
urt	-7359
▁isn	-7360
▁cogn	-7361
engers	-7362
▁abuse	-7363
▁nodes	-7364
▁optim	-7365
▁netaji	-7366
▁resear	-7367
▁masters	-7368
▁equation	-7369
▁panchayat	-7370
col	-7371
lor	-7372
appl	-7373
omous	-7374
▁shot	-7375
▁rhyth	-7376
▁ganges	-7377
▁minority	-7378
▁addresses	-7379
▁preparing	-7380
▁cof	-7381
▁tall	-7382
▁mould	-7383
embered	-7384
▁driven	-7385
▁preval	-7386
iliation	-7387
▁protest	-7388
▁necessity	-7389
▁livelihood	-7390
▁originally	-7391
nut	-7392
issu	-7393
▁alien	-7394
▁durga	-7395
▁wider	-7396
▁deaths	-7397
▁planet	-7398
▁urgent	-7399
▁cancell	-7400
▁enjoyed	-7401
▁pleased	-7402
▁discovery	-7403
▁gam	-7404
▁agents	-7405
▁oxygen	-7406
▁perpet	-7407
criptions	-7408
▁withdrawal	-7409
atra	-7410
odox	-7411
▁fan	-7412
▁topic	-7413
▁metres	-7414
▁harmful	-7415
▁landlord	-7416
▁memorial	-7417
▁designated	-7418
▁provincial	-7419
▁calm	-7420
▁brave	-7421
▁crown	-7422
▁devote	-7423
▁dialogue	-7424
▁machines	-7425
▁appreciate	-7426
▁complicated	-7427
▁formulation	-7428
▁simultaneously	-7429
▁tap	-7430
herry	-7431
▁doctr	-7432
▁serial	-7433
▁stayed	-7434
▁assumed	-7435
▁disaster	-7436
▁generate	-7437
▁bid	-7438
▁tan	-7439
▁vii	-7440
▁mamm	-7441
father	-7442
▁merit	-7443
▁missing	-7444
▁protein	-7445
▁somewhat	-7446
▁exceeding	-7447
▁evaluation	-7448
car	-7449
oda	-7450
▁ki	-7451
▁aged	-7452
▁stem	-7453
chnology	-7454
▁councils	-7455
▁mandatory	-7456
▁remembered	-7457
roph	-7458
▁mall	-7459
▁vigil	-7460
▁lahore	-7461
applause	-7462
amendment	-7463
oa	-7464
film	-7465
▁hub	-7466
icity	-7467
▁idol	-7468
urrent	-7469
▁reposted	-7470
▁candidate	-7471
▁describes	-7472
▁photograph	-7473
may	-7474
▁nand	-7475
ishment	-7476
▁swaraj	-7477
▁entries	-7478
▁tolerance	-7479
▁perspective	-7480
jo	-7481
agon	-7482
▁bay	-7483
▁prat	-7484
▁tack	-7485
▁irres	-7486
▁contra	-7487
▁hearts	-7488
▁acquire	-7489
▁reflected	-7490
▁transparen	-7491
cp	-7492
kim	-7493
chen	-7494
rich	-7495
▁fash	-7496
issions	-7497
usively	-7498
▁headed	-7499
operative	-7500
▁participants	-7501
chi	-7502
gue	-7503
kal	-7504
▁poc	-7505
archy	-7506
▁merc	-7507
stream	-7508
▁portra	-7509
▁shankar	-7510
▁grievance	-7511
▁preliminary	-7512
▁unb	-7513
cience	-7514
▁keeps	-7515
▁loved	-7516
▁taste	-7517
▁impose	-7518
▁plains	-7519
▁virtual	-7520
▁arguments	-7521
▁fer	-7522
▁que	-7523
ogram	-7524
uting	-7525
▁pant	-7526
▁thro	-7527
▁bears	-7528
▁depre	-7529
▁fails	-7530
▁tenant	-7531
▁incentives	-7532
▁transparency	-7533
ams	-7534
mad	-7535
▁ster	-7536
▁guess	-7537
▁fortun	-7538
▁patent	-7539
▁pestic	-7540
▁vested	-7541
▁winning	-7542
▁personally	-7543
▁fertilizers	-7544
▁cp	-7545
▁unp	-7546
▁aids	-7547
▁lion	-7548
▁sain	-7549
▁fought	-7550
▁speedy	-7551
▁thinks	-7552
▁seventh	-7553
▁expanded	-7554
▁elsewhere	-7555
sec	-7556
roll	-7557
uation	-7558
factory	-7559
▁assert	-7560
▁coffee	-7561
▁clauses	-7562
▁decimal	-7563
▁imperialism	-7564
▁stakeholders	-7565
▁accommodation	-7566
but	-7567
▁cel	-7568
▁narm	-7569
▁sidd	-7570
idency	-7571
▁vessels	-7572
▁finished	-7573
▁surprise	-7574
ario	-7575
atel	-7576
▁bac	-7577
▁sap	-7578
▁bhai	-7579
▁peak	-7580
▁enlar	-7581
▁penet	-7582
▁tests	-7583
▁retain	-7584
▁iranian	-7585
▁lecture	-7586
▁badruddin	-7587
▁judgments	-7588
▁conducting	-7589
▁laboratory	-7590
angle	-7591
▁quad	-7592
▁sect	-7593
▁bride	-7594
▁mining	-7595
▁airports	-7596
▁chancell	-7597
▁enormous	-7598
▁copyright	-7599
▁empowered	-7600
▁nominated	-7601
▁violation	-7602
ki	-7603
acco	-7604
asis	-7605
bles	-7606
orse	-7607
ouds	-7608
eenth	-7609
ipher	-7610
▁sult	-7611
▁abdom	-7612
▁breach	-7613
▁firmly	-7614
▁genius	-7615
▁destiny	-7616
▁entrance	-7617
▁enhancing	-7618
▁inclusion	-7619
▁comprising	-7620
▁approximately	-7621
▁chak	-7622
▁monu	-7623
▁tons	-7624
▁feels	-7625
▁excise	-7626
▁retail	-7627
akrishnan	-7628
▁himalayan	-7629
▁meanwhile	-7630
▁aspirations	-7631
isp	-7632
▁bha	-7633
▁yoj	-7634
chers	-7635
▁ange	-7636
ounder	-7637
▁flying	-7638
▁lucknow	-7639
▁relates	-7640
▁dividend	-7641
▁governors	-7642
▁dair	-7643
▁unic	-7644
itudes	-7645
▁glory	-7646
▁lists	-7647
▁tract	-7648
▁essence	-7649
▁slightly	-7650
▁islamists	-7651
▁terrorists	-7652
▁observations	-7653
emat	-7654
emia	-7655
last	-7656
wara	-7657
▁glaci	-7658
▁chronic	-7659
▁actively	-7660
▁expertise	-7661
▁mechanical	-7662
▁substances	-7663
▁experiments	-7664
urable	-7665
▁cards	-7666
▁resort	-7667
▁complim	-7668
▁gardens	-7669
▁reserves	-7670
▁engagement	-7671
usp	-7672
apse	-7673
▁auro	-7674
▁nest	-7675
▁tomb	-7676
▁amrit	-7677
▁begun	-7678
▁frank	-7679
▁ought	-7680
▁cancel	-7681
▁drought	-7682
attis	-7683
ulates	-7684
▁magic	-7685
▁worksh	-7686
iciently	-7687
▁lending	-7688
▁singing	-7689
▁tobacco	-7690
▁separately	-7691
▁spon	-7692
▁actor	-7693
▁suits	-7694
unction	-7695
▁gujarati	-7696
▁communist	-7697
iche	-7698
khand	-7699
▁bhav	-7700
▁figh	-7701
▁gene	-7702
▁jute	-7703
▁prak	-7704
estion	-7705
▁lotus	-7706
▁nearby	-7707
▁mixture	-7708
▁telling	-7709
▁advances	-7710
▁preserve	-7711
▁convinced	-7712
▁respondents	-7713
▁associations	-7714
fol	-7715
rase	-7716
▁radh	-7717
▁pione	-7718
▁bhagat	-7719
▁humans	-7720
▁announce	-7721
▁preceding	-7722
▁certification	-7723
ique	-7724
▁aqu	-7725
▁broke	-7726
▁lawyer	-7727
▁pocket	-7728
▁troops	-7729
▁vulner	-7730
▁balanced	-7731
▁patterns	-7732
▁unemploy	-7733
▁qualified	-7734
▁involvement	-7735
▁administrator	-7736
ec	-7737
▁anger	-7738
▁spell	-7739
▁plastic	-7740
▁federation	-7741
१५	-7742
▁ni	-7743
rers	-7744
ulum	-7745
▁dow	-7746
▁lun	-7747
plant	-7748
▁honey	-7749
▁handed	-7750
▁outcome	-7751
▁supplied	-7752
▁incidents	-7753
▁occupation	-7754
▁observation	-7755
ford	-7756
isal	-7757
ether	-7758
▁sadd	-7759
culiar	-7760
▁monso	-7761
▁bihari	-7762
▁tendency	-7763
▁americans	-7764
▁biological	-7765
▁instituted	-7766
▁intervention	-7767
thes	-7768
▁sid	-7769
▁push	-7770
▁genes	-7771
▁gopal	-7772
▁mouse	-7773
▁sounds	-7774
▁authors	-7775
▁beloved	-7776
▁breaking	-7777
▁discount	-7778
▁peculiar	-7779
▁sympathy	-7780
anish	-7781
ighth	-7782
▁surg	-7783
▁fashion	-7784
▁relatively	-7785
fare	-7786
mist	-7787
▁azad	-7788
▁helpl	-7789
▁shops	-7790
▁ancest	-7791
▁harmon	-7792
▁struck	-7793
▁viewed	-7794
▁focused	-7795
▁russian	-7796
▁estimate	-7797
▁occupied	-7798
▁orthodox	-7799
▁taxation	-7800
▁telecommun	-7801
▁developmental	-7802
▁beet	-7803
▁hars	-7804
▁jews	-7805
▁ware	-7806
▁disin	-7807
▁boards	-7808
▁explos	-7809
▁insist	-7810
▁behavior	-7811
▁diabetes	-7812
▁sacrific	-7813
▁engineers	-7814
▁festivals	-7815
▁objection	-7816
tr	-7817
▁sq	-7818
▁ipv	-7819
conds	-7820
lines	-7821
stone	-7822
▁ashok	-7823
▁crowd	-7824
▁foods	-7825
▁legend	-7826
▁reconst	-7827
▁presently	-7828
▁patel	-7829
▁patna	-7830
▁ports	-7831
▁pursue	-7832
▁arbitrator	-7833
▁functional	-7834
▁determining	-7835
▁modification	-7836
kia	-7837
▁yout	-7838
▁bones	-7839
▁favor	-7840
▁guest	-7841
▁penis	-7842
▁filter	-7843
▁propri	-7844
▁visits	-7845
▁writes	-7846
▁untouch	-7847
▁electoral	-7848
▁surrender	-7849
▁separation	-7850
agn	-7851
sub	-7852
vas	-7853
anga	-7854
more	-7855
agues	-7856
▁jump	-7857
▁kath	-7858
▁brand	-7859
▁sixth	-7860
▁quoted	-7861
▁stable	-7862
▁segment	-7863
▁inflation	-7864
which	-7865
wealth	-7866
▁attor	-7867
▁rupee	-7868
▁ambass	-7869
▁eleven	-7870
▁restricted	-7871
anim	-7872
vara	-7873
▁stip	-7874
▁shast	-7875
▁vicer	-7876
▁jagann	-7877
▁creates	-7878
▁observe	-7879
▁torture	-7880
▁shipping	-7881
▁hospitals	-7882
▁connecting	-7883
▁productive	-7884
▁surrounded	-7885
▁connections	-7886
▁consequently	-7887
uma	-7888
▁xx	-7889
▁vik	-7890
arkar	-7891
oxide	-7892
▁stro	-7893
▁mango	-7894
▁storm	-7895
▁singles	-7896
▁manpower	-7897
▁textiles	-7898
▁utilised	-7899
▁governorate	-7900
▁limitations	-7901
▁secretariat	-7902
▁consolidated	-7903
▁headquarters	-7904
▁ken	-7905
adequ	-7906
apore	-7907
▁alph	-7908
▁msme	-7909
▁poult	-7910
theless	-7911
▁bamboo	-7912
▁dollar	-7913
▁affects	-7914
▁ignored	-7915
▁utility	-7916
attisgarh	-7917
▁coverage	-7918
▁cultures	-7919
▁receipts	-7920
▁concluded	-7921
▁responses	-7922
▁sanctuary	-7923
▁phenomenon	-7924
▁capabilities	-7925
was	-7926
▁dawn	-7927
▁neut	-7928
▁tape	-7929
achment	-7930
ologist	-7931
▁dissol	-7932
▁mahade	-7933
▁reward	-7934
▁sikkim	-7935
▁patriot	-7936
▁valuation	-7937
▁cm	-7938
▁gt	-7939
▁bis	-7940
▁pear	-7941
▁void	-7942
urning	-7943
▁borne	-7944
▁honor	-7945
▁arrive	-7946
▁wicket	-7947
▁viceroy	-7948
▁youtube	-7949
▁dimension	-7950
▁absolutely	-7951
pes	-7952
▁dip	-7953
▁fron	-7954
▁quit	-7955
holder	-7956
▁abund	-7957
▁toward	-7958
▁nevertheless	-7959
▁ell	-7960
▁kore	-7961
assess	-7962
teenth	-7963
▁greek	-7964
▁paddy	-7965
▁repro	-7966
▁samaj	-7967
▁levied	-7968
▁plural	-7969
▁sample	-7970
▁weapon	-7971
▁immovable	-7972
▁registrar	-7973
▁wonderful	-7974
▁>%	-7975
▁”.	-7976
▁ras	-7977
▁crude	-7978
▁encry	-7979
▁conform	-7980
▁insight	-7981
▁statute	-7982
▁extending	-7983
▁judgement	-7984
▁exclusively	-7985
ona	-7986
umber	-7987
▁acted	-7988
▁cease	-7989
▁cryst	-7990
▁remun	-7991
▁deploy	-7992
▁freely	-7993
▁videos	-7994
▁vimana	-7995
▁believes	-7996
▁inferior	-7997
▁basically	-7998
▁prisoners	-7999
▁concentration	-8000
gged	-8001
rapy	-8002
▁wars	-8003
issues	-8004
▁grains	-8005
▁anybody	-8006
▁denomin	-8007
▁earthqu	-8008
▁restore	-8009
▁vivekan	-8010
▁inspector	-8011
▁rendering	-8012
▁directorate	-8013
▁ye	-8014
▁harb	-8015
▁lymph	-8016
▁widow	-8017
▁harass	-8018
▁terrib	-8019
▁skilled	-8020
▁attained	-8021
▁frequency	-8022
▁collecting	-8023
▁consistent	-8024
▁commonwealth	-8025
▁ng	-8026
parent	-8027
▁arabs	-8028
▁surve	-8029
▁thrust	-8030
▁deleted	-8031
▁forming	-8032
▁inadequ	-8033
▁logical	-8034
▁repealed	-8035
▁vex	-8036
there	-8037
▁bulk	-8038
▁impe	-8039
▁outs	-8040
▁trig	-8041
▁manus	-8042
acharya	-8043
rations	-8044
▁losses	-8045
▁cooking	-8046
▁declare	-8047
▁grammar	-8048
▁streams	-8049
▁attacked	-8050
▁factories	-8051
▁safeguard	-8052
▁reservation	-8053
hetic	-8054
point	-8055
urbed	-8056
▁sake	-8057
▁seiz	-8058
itated	-8059
▁naren	-8060
▁camera	-8061
▁decree	-8062
▁dialog	-8063
▁arrival	-8064
▁dollars	-8065
▁retained	-8066
▁christians	-8067
▁dv	-8068
imony	-8069
ulses	-8070
▁arth	-8071
▁epis	-8072
▁fond	-8073
▁rani	-8074
▁sees	-8075
▁viet	-8076
otions	-8077
ounded	-8078
▁khand	-8079
▁sport	-8080
▁clouds	-8081
▁enemies	-8082
▁matches	-8083
▁pacific	-8084
▁reputation	-8085
▁philosophical	-8086
▁avo	-8087
▁mes	-8088
▁fost	-8089
▁stal	-8090
ancies	-8091
▁reign	-8092
▁infant	-8093
▁shadow	-8094
▁ceremon	-8095
▁nationalism	-8096
▁thy	-8097
wered	-8098
ushing	-8099
▁bliss	-8100
▁perce	-8101
▁virus	-8102
▁bought	-8103
▁crimes	-8104
▁forgot	-8105
▁yojana	-8106
▁coastal	-8107
▁insurer	-8108
▁aurobind	-8109
▁romantic	-8110
▁elephants	-8111
▁separated	-8112
▁colleagues	-8113
bc	-8114
oty	-8115
spe	-8116
anti	-8117
aria	-8118
aved	-8119
▁kut	-8120
▁pel	-8121
▁nokia	-8122
▁refin	-8123
▁roman	-8124
▁deserv	-8125
▁equals	-8126
▁miscon	-8127
▁presum	-8128
▁serves	-8129
▁sindhi	-8130
▁exceeds	-8131
▁muscles	-8132
▁ayurveda	-8133
▁pregnant	-8134
▁realized	-8135
hta	-8136
▁ric	-8137
▁atal	-8138
▁tact	-8139
▁lesser	-8140
▁voting	-8141
▁avoided	-8142
▁tissues	-8143
▁signature	-8144
▁attractive	-8145
oma	-8146
▁cs	-8147
isha	-8148
▁wet	-8149
utical	-8150
▁canal	-8151
▁insult	-8152
▁portal	-8153
▁random	-8154
▁resemb	-8155
▁distant	-8156
▁offline	-8157
▁graduate	-8158
▁proceeds	-8159
▁rainfall	-8160
▁producers	-8161
▁generating	-8162
▁philosopher	-8163
fs	-8164
osa	-8165
bted	-8166
acing	-8167
water	-8168
▁uter	-8169
▁indus	-8170
▁koran	-8171
▁labou	-8172
▁tight	-8173
▁mosque	-8174
▁vietnam	-8175
▁attorney	-8176
▁mortgage	-8177
▁painting	-8178
▁malayalam	-8179
▁presidency	-8180
▁supramental	-8181
▁surrounding	-8182
kes	-8183
appo	-8184
ball	-8185
ilee	-8186
▁wil	-8187
iracy	-8188
▁mong	-8189
▁nice	-8190
▁oath	-8191
▁indul	-8192
▁arabia	-8193
▁assume	-8194
▁thrown	-8195
▁instant	-8196
▁withdraw	-8197
▁autonomous	-8198
dis	-8199
ocy	-8200
opl	-8201
▁bric	-8202
▁cure	-8203
usions	-8204
▁boost	-8205
▁sikhs	-8206
▁monsoon	-8207
▁fraction	-8208
▁dismissed	-8209
▁returning	-8210
▁inevitable	-8211
atch	-8212
▁hect	-8213
▁camel	-8214
▁david	-8215
▁flows	-8216
▁irrit	-8217
▁minim	-8218
▁laying	-8219
▁specim	-8220
▁designs	-8221
▁poultry	-8222
▁streets	-8223
▁publicity	-8224
▁psychological	-8225
▁ku	-8226
▁sut	-8227
▁sorry	-8228
▁tuberc	-8229
▁variable	-8230
▁visitors	-8231
▁aurobindo	-8232
▁medicines	-8233
▁scientist	-8234
▁dedication	-8235
▁controversy	-8236
onut	-8237
opal	-8238
▁keys	-8239
▁dairy	-8240
▁doors	-8241
▁deeper	-8242
▁layout	-8243
▁divorce	-8244
▁investor	-8245
▁possibly	-8246
▁advertise	-8247
▁reporting	-8248
▁dwarkanath	-8249
▁liabilities	-8250
oot	-8251
chron	-8252
▁maha	-8253
▁tiny	-8254
▁indra	-8255
▁reads	-8256
▁degrad	-8257
▁helpful	-8258
▁allowing	-8259
▁criteria	-8260
▁shoulder	-8261
▁studying	-8262
▁divisions	-8263
▁nationalist	-8264
▁legislatures	-8265
▁rabindranath	-8266
ago	-8267
▁fool	-8268
▁jord	-8269
▁kids	-8270
▁digit	-8271
▁nicob	-8272
▁tears	-8273
▁buffal	-8274
▁hunger	-8275
national	-8276
▁coconut	-8277
▁concrete	-8278
▁panchayats	-8279
▁bot	-8280
ulent	-8281
▁disb	-8282
▁dish	-8283
▁pipe	-8284
atious	-8285
▁clock	-8286
▁mirror	-8287
▁timely	-8288
▁minerals	-8289
▁mohammed	-8290
▁intensity	-8291
▁incomplete	-8292
▁radhakrishnan	-8293
iot	-8294
vii	-8295
▁ov	-8296
▁pm	-8297
▁gau	-8298
▁navy	-8299
▁scat	-8300
akings	-8301
▁affid	-8302
▁disag	-8303
▁remar	-8304
▁cement	-8305
▁census	-8306
▁county	-8307
▁habits	-8308
▁patron	-8309
▁extends	-8310
▁highway	-8311
▁nursing	-8312
▁permits	-8313
▁satisfy	-8314
▁secured	-8315
▁upanish	-8316
▁maturity	-8317
▁opinions	-8318
▁economies	-8319
▁advantages	-8320
tur	-8321
idal	-8322
▁apt	-8323
nagar	-8324
▁forb	-8325
▁wake	-8326
rating	-8327
▁ambit	-8328
▁secre	-8329
ichever	-8330
▁errors	-8331
▁oldest	-8332
▁tempor	-8333
▁affidav	-8334
▁suggests	-8335
▁surgical	-8336
▁spreading	-8337
▁approaches	-8338
▁protecting	-8339
▁shareholders	-8340
▁accountability	-8341
▁classification	-8342
tw	-8343
asp	-8344
▁fro	-8345
▁lan	-8346
▁rum	-8347
▁gest	-8348
▁grav	-8349
▁stan	-8350
▁shout	-8351
▁prophet	-8352
▁handicra	-8353
▁fulfilled	-8354
▁intensive	-8355
▁residents	-8356
▁transparent	-8357
▁horticulture	-8358
log	-8359
isan	-8360
ourn	-8361
soft	-8362
▁mul	-8363
▁rai	-8364
▁dual	-8365
▁govind	-8366
▁beliefs	-8367
▁contrad	-8368
▁abdullah	-8369
▁magazine	-8370
▁desirable	-8371
▁redressal	-8372
▁preference	-8373
▁allegations	-8374
bab	-8375
sored	-8376
▁dowry	-8377
▁binary	-8378
▁auditor	-8379
▁explore	-8380
▁turkish	-8381
▁aviation	-8382
▁scenario	-8383
▁comparison	-8384
▁prevailing	-8385
▁significantly	-8386
alli	-8387
▁nil	-8388
aimed	-8389
▁reci	-8390
▁tied	-8391
▁unus	-8392
▁astron	-8393
▁upgrade	-8394
▁membrane	-8395
▁enthusiasm	-8396
▁transmitted	-8397
▁entrepreneur	-8398
▁undertakings	-8399
▁professionals	-8400
bery	-8401
scious	-8402
▁accru	-8403
▁moves	-8404
▁decent	-8405
▁hatred	-8406
▁volunte	-8407
▁watching	-8408
▁arunachal	-8409
▁procedural	-8410
▁irrespective	-8411
hand	-8412
▁dub	-8413
▁ups	-8414
cence	-8415
▁dhan	-8416
▁macro	-8417
▁interc	-8418
▁shelter	-8419
▁medicinal	-8420
▁deficiency	-8421
▁privileges	-8422
▁laboratories	-8423
mas	-8424
▁naz	-8425
▁deed	-8426
icable	-8427
liness	-8428
▁naval	-8429
▁gender	-8430
▁supports	-8431
▁vertical	-8432
▁restraint	-8433
▁whichever	-8434
▁indirectly	-8435
▁certificates	-8436
▁chhattisgarh	-8437
▁interference	-8438
ela	-8439
ele	-8440
▁ragh	-8441
▁soph	-8442
▁tang	-8443
▁liver	-8444
▁tenth	-8445
▁thanks	-8446
▁physics	-8447
▁regulate	-8448
▁challenged	-8449
vol	-8450
▁si	-8451
idity	-8452
▁aest	-8453
▁ensu	-8454
▁menon	-8455
▁anyway	-8456
▁shakti	-8457
ologists	-8458
▁exposed	-8459
▁abstract	-8460
▁coloured	-8461
▁exposure	-8462
▁champions	-8463
▁impartial	-8464
▁conversation	-8465
onia	-8466
onic	-8467
▁ard	-8468
▁talks	-8469
▁jordan	-8470
▁centers	-8471
▁repayment	-8472
▁worldwide	-8473
due	-8474
that	-8475
▁cadre	-8476
▁owing	-8477
▁curric	-8478
▁edition	-8479
▁jubilee	-8480
▁prisoner	-8481
▁brilliant	-8482
▁prevalent	-8483
▁accessible	-8484
ym	-8485
rus	-8486
sor	-8487
▁‘%	-8488
▁bagh	-8489
▁rear	-8490
▁ignore	-8491
▁immort	-8492
▁invite	-8493
▁recess	-8494
▁ht	-8495
from	-8496
wari	-8497
▁pon	-8498
▁umb	-8499
▁sper	-8500
▁mines	-8501
▁splend	-8502
▁utmost	-8503
▁andaman	-8504
▁insured	-8505
▁crossing	-8506
▁frequent	-8507
emen	-8508
▁kaz	-8509
▁ward	-8510
▁diver	-8511
▁proxy	-8512
manship	-8513
▁fright	-8514
▁humble	-8515
▁rajput	-8516
▁rarely	-8517
▁answered	-8518
▁controls	-8519
▁expensive	-8520
.]	-8521
▁mw	-8522
file	-8523
▁bee	-8524
▁ict	-8525
lands	-8526
onent	-8527
▁slope	-8528
▁purity	-8529
▁nearest	-8530
▁belonged	-8531
▁apparently	-8532
▁passengers	-8533
▁mathematics	-8534
▁proclamation	-8535
uli	-8536
▁drag	-8537
▁batch	-8538
▁medal	-8539
▁paris	-8540
▁buying	-8541
▁cavity	-8542
▁cluster	-8543
▁subtract	-8544
▁envisaged	-8545
▁introduce	-8546
▁transition	-8547
▁inaugurated	-8548
▁corporations	-8549
%.	-8550
fast	-8551
asion	-8552
▁tends	-8553
edience	-8554
ogether	-8555
▁doubts	-8556
▁exempt	-8557
▁stores	-8558
▁hamachi	-8559
▁manilal	-8560
▁contempl	-8561
▁supplies	-8562
▁gathering	-8563
▁assignment	-8564
▁countrymen	-8565
▁satyagraha	-8566
▁palestinians	-8567
dr	-8568
nis	-8569
▁hut	-8570
▁une	-8571
iscal	-8572
▁hors	-8573
▁sach	-8574
▁worst	-8575
▁guided	-8576
▁critics	-8577
▁typical	-8578
▁receives	-8579
▁affecting	-8580
▁reception	-8581
▁scholarship	-8582
▁strengthened	-8583
▁lip	-8584
▁shy	-8585
aming	-8586
acular	-8587
▁nodal	-8588
▁postal	-8589
▁suspect	-8590
rak	-8591
▁gor	-8592
▁rab	-8593
▁gulf	-8594
▁sultan	-8595
▁assessed	-8596
▁buddhism	-8597
▁listening	-8598
▁proceeded	-8599
▁sponsored	-8600
▁previously	-8601
ird	-8602
umps	-8603
▁ank	-8604
▁bak	-8605
▁deer	-8606
▁drew	-8607
▁lays	-8608
▁khadi	-8609
▁relax	-8610
▁asutosh	-8611
▁procure	-8612
▁sincere	-8613
▁singapore	-8614
▁authorized	-8615
▁capability	-8616
▁describing	-8617
iat	-8618
net	-8619
▁jos	-8620
▁lin	-8621
▁nutri	-8622
▁compos	-8623
▁debent	-8624
▁fiscal	-8625
▁peripher	-8626
▁abolition	-8627
▁altogether	-8628
▁imperative	-8629
▁controlling	-8630
▁connectivity	-8631
sis	-8632
aras	-8633
▁cub	-8634
night	-8635
▁dupl	-8636
▁resc	-8637
▁veda	-8638
▁enfor	-8639
▁fract	-8640
▁tilak	-8641
▁crafts	-8642
▁traged	-8643
▁artists	-8644
▁concepts	-8645
▁considers	-8646
▁ordinance	-8647
▁recovered	-8648
▁withdrawn	-8649
▁formulated	-8650
▁considerably	-8651
aud	-8652
jit	-8653
akhand	-8654
▁moist	-8655
▁casual	-8656
▁reveal	-8657
▁themes	-8658
▁captain	-8659
▁linkages	-8660
▁complement	-8661
▁concession	-8662
▁mechanisms	-8663
arc	-8664
beh	-8665
emor	-8666
▁gol	-8667
▁pend	-8668
▁remo	-8669
angers	-8670
▁condu	-8671
▁smoke	-8672
▁bhagav	-8673
▁jewell	-8674
▁auction	-8675
▁inspire	-8676
▁demanded	-8677
▁adjustment	-8678
▁commencing	-8679
▁parameters	-8680
▁biotechnology	-8681
▁substantially	-8682
usha	-8683
▁kat	-8684
▁lux	-8685
ulter	-8686
▁camb	-8687
▁gran	-8688
necess	-8689
▁advise	-8690
▁heights	-8691
▁outward	-8692
▁quantum	-8693
▁disposed	-8694
▁pharmace	-8695
▁deposited	-8696
▁elaborate	-8697
▁locations	-8698
▁exhibition	-8699
bly	-8700
icle	-8701
mind	-8702
agger	-8703
▁stab	-8704
▁alarm	-8705
▁monop	-8706
▁ashram	-8707
▁moderate	-8708
▁recognise	-8709
▁structural	-8710
▁administered	-8711
▁vr	-8712
onged	-8713
▁erad	-8714
▁trop	-8715
▁angry	-8716
▁recip	-8717
▁resid	-8718
▁ships	-8719
▁bitter	-8720
▁confer	-8721
▁emerge	-8722
▁fallen	-8723
▁maurit	-8724
▁trends	-8725
▁startup	-8726
▁accepting	-8727
▁europeans	-8728
▁socialism	-8729
}.	-8730
iac	-8731
win	-8732
▁baz	-8733
▁miz	-8734
▁cher	-8735
usalem	-8736
▁admir	-8737
▁sword	-8738
▁bhakti	-8739
▁passive	-8740
▁touched	-8741
▁applying	-8742
▁instances	-8743
▁sentiment	-8744
▁publishing	-8745
mah	-8746
illy	-8747
list	-8748
▁rud	-8749
▁yus	-8750
▁bits	-8751
▁jhar	-8752
▁mich	-8753
▁shed	-8754
......	-8755
advant	-8756
▁chaluk	-8757
▁pledge	-8758
▁wooden	-8759
▁exhaust	-8760
▁lectures	-8761
▁removing	-8762
▁paintings	-8763
▁palestine	-8764
▁witnessed	-8765
▁dissolution	-8766
▁rh	-8767
▁१६	-8768
stan	-8769
▁lol	-8770
▁mol	-8771
▁mrs	-8772
▁eman	-8773
▁swed	-8774
person	-8775
▁calam	-8776
▁embod	-8777
▁photos	-8778
▁refuse	-8779
▁retrie	-8780
▁reverse	-8781
▁survive	-8782
▁allotted	-8783
▁sanitation	-8784
▁substitute	-8785
▁intelligent	-8786
eta	-8787
icy	-8788
five	-8789
▁pix	-8790
riers	-8791
▁asce	-8792
▁lots	-8793
▁warri	-8794
▁kanpur	-8795
▁repeat	-8796
▁leaflet	-8797
▁textile	-8798
▁alliance	-8799
▁brahmins	-8800
▁doctrine	-8801
▁helpless	-8802
▁validity	-8803
▁disadvant	-8804
aa	-8805
▁cc	-8806
hind	-8807
▁kun	-8808
icked	-8809
▁scan	-8810
▁thom	-8811
▁firms	-8812
▁hamas	-8813
▁indif	-8814
▁encoun	-8815
▁amalgam	-8816
unciation	-8817
▁testimony	-8818
▁supervision	-8819
▁pharmaceutical	-8820
ek	-8821
cho	-8822
nat	-8823
obi	-8824
▁muc	-8825
▁rup	-8826
mohan	-8827
▁mary	-8828
▁chick	-8829
▁mobil	-8830
itement	-8831
lements	-8832
▁powder	-8833
▁weekly	-8834
aughters	-8835
▁telecom	-8836
▁undergo	-8837
▁assurance	-8838
▁attempted	-8839
▁compromise	-8840
▁quantities	-8841
tp	-8842
def	-8843
▁',	-8844
▁mys	-8845
field	-8846
▁reit	-8847
▁jihad	-8848
▁thres	-8849
▁yusuf	-8850
▁define	-8851
▁pollut	-8852
▁solemn	-8853
▁charter	-8854
▁flowing	-8855
▁hanuman	-8856
▁borrower	-8857
▁computed	-8858
▁producer	-8859
▁economics	-8860
▁subjected	-8861
▁afterwards	-8862
▁acknowledge	-8863
▁continuously	-8864
acc	-8865
bas	-8866
uni	-8867
zing	-8868
▁grows	-8869
▁pilot	-8870
conomic	-8871
▁lolita	-8872
▁indones	-8873
▁volumes	-8874
▁everyday	-8875
▁daughters	-8876
▁jerusalem	-8877
▁uncertain	-8878
▁vexatious	-8879
▁classified	-8880
▁conception	-8881
▁inaugurate	-8882
▁negotiations	-8883
pus	-8884
sen	-8885
nath	-8886
▁bron	-8887
▁cler	-8888
▁ears	-8889
▁enqu	-8890
▁coins	-8891
▁almast	-8892
▁kannada	-8893
▁interact	-8894
▁mistakes	-8895
▁secondly	-8896
▁depreciation	-8897
▁disciplinary	-8898
▁governmental	-8899
arer	-8900
sole	-8901
stru	-8902
▁lag	-8903
▁por	-8904
▁desh	-8905
▁fles	-8906
▁flash	-8907
▁eighth	-8908
▁kidney	-8909
▁lesson	-8910
▁battery	-8911
▁colours	-8912
▁smoking	-8913
▁disclosure	-8914
▁endeavours	-8915
▁pilgrimage	-8916
▁transformed	-8917
fa	-8918
▁mp	-8919
haran	-8920
▁upset	-8921
▁lowest	-8922
▁nomine	-8923
▁targets	-8924
▁tribute	-8925
▁birthday	-8926
▁credited	-8927
▁ordinarily	-8928
▁satisfactory	-8929
cus	-8930
cute	-8931
pled	-8932
▁kin	-8933
agari	-8934
▁ease	-8935
▁grid	-8936
▁angle	-8937
▁james	-8938
▁login	-8939
▁meters	-8940
▁ranges	-8941
▁sensit	-8942
ographic	-8943
▁artistic	-8944
▁terrible	-8945
▁characterized	-8946
icts	-8947
term	-8948
▁gib	-8949
▁kas	-8950
gence	-8951
▁coin	-8952
▁hygi	-8953
▁globe	-8954
▁hopes	-8955
▁surpl	-8956
▁honest	-8957
▁anxious	-8958
▁corrupt	-8959
▁nicobar	-8960
▁synthes	-8961
▁instinct	-8962
▁expanding	-8963
▁favourite	-8964
▁conspiracy	-8965
▁threatened	-8966
▁unexpected	-8967
▁correspondence	-8968
▁ts	-8969
▁tin	-8970
▁tip	-8971
alled	-8972
▁rash	-8973
▁midst	-8974
▁seconds	-8975
▁traders	-8976
▁emotions	-8977
▁goodwill	-8978
▁enactment	-8979
▁attendance	-8980
▁chandigarh	-8981
▁legitimate	-8982
hem	-8983
iki	-8984
oman	-8985
quit	-8986
▁cod	-8987
▁hiv	-8988
andum	-8989
▁amid	-8990
▁maul	-8991
▁lover	-8992
rection	-8993
▁denial	-8994
▁kittur	-8995
▁constru	-8996
▁boundary	-8997
▁injuries	-8998
▁confirmed	-8999
▁presiding	-9000
▁diplomatic	-9001
atus	-9002
ashed	-9003
▁saha	-9004
▁cough	-9005
▁embry	-9006
▁saroj	-9007
▁legacy	-9008
▁saints	-9009
▁trials	-9010
▁desires	-9011
▁warming	-9012
▁respects	-9013
▁continent	-9014
▁attraction	-9015
▁manuscript	-9016
▁prohibition	-9017
▁territorial	-9018
▁uttarakhand	-9019
irt	-9020
vati	-9021
▁iso	-9022
vance	-9023
▁inex	-9024
▁radi	-9025
▁haven	-9026
▁paste	-9027
▁verte	-9028
▁veter	-9029
regular	-9030
▁mysore	-9031
▁rubber	-9032
▁compact	-9033
▁tragedy	-9034
▁explains	-9035
▁predomin	-9036
▁promised	-9037
▁reliance	-9038
▁presidential	-9039
:-	-9040
arus	-9041
▁sak	-9042
araja	-9043
▁pupp	-9044
▁kalam	-9045
▁cinema	-9046
▁colors	-9047
▁dharma	-9048
▁neglig	-9049
▁rating	-9050
▁ceiling	-9051
▁revival	-9052
▁unicode	-9053
▁worried	-9054
▁invested	-9055
▁survival	-9056
▁transcend	-9057
▁conferences	-9058
oli	-9059
rem	-9060
▁dy	-9061
▁hp	-9062
hous	-9063
▁rti	-9064
▁swim	-9065
▁tant	-9066
▁apple	-9067
▁dimin	-9068
▁dwell	-9069
uminous	-9070
▁copper	-9071
▁electr	-9072
▁incons	-9073
▁passes	-9074
▁plenty	-9075
▁capture	-9076
▁disappo	-9077
▁jointly	-9078
▁wearing	-9079
▁devotees	-9080
▁passport	-9081
▁confusion	-9082
▁renewable	-9083
▁practically	-9084
▁preferences	-9085
▁bom	-9086
▁dak	-9087
▁gad	-9088
▁cycl	-9089
worthy	-9090
▁recur	-9091
▁sulph	-9092
▁babies	-9093
▁jaipur	-9094
▁seventy	-9095
▁promoted	-9096
▁departure	-9097
▁perception	-9098
▁substantive	-9099
▁appointments	-9100
▁relationships	-9101
pan	-9102
rium	-9103
ulus	-9104
▁gdp	-9105
▁bund	-9106
▁gamb	-9107
▁hards	-9108
▁manip	-9109
▁tries	-9110
jections	-9111
▁descend	-9112
▁pursuit	-9113
▁reorgan	-9114
▁resolved	-9115
▁brotherhood	-9116
▁grandfather	-9117
hr	-9118
“%	-9119
inge	-9120
▁quot	-9121
▁samb	-9122
▁tone	-9123
tering	-9124
general	-9125
▁aurang	-9126
▁horses	-9127
▁revolt	-9128
▁sarasw	-9129
▁founder	-9130
▁leather	-9131
▁tripura	-9132
▁physically	-9133
▁vulnerable	-9134
▁participating	-9135
▁ital	-9136
▁nios	-9137
charge	-9138
▁escap	-9139
▁waves	-9140
▁ladies	-9141
▁purely	-9142
▁welcom	-9143
▁kitchen	-9144
▁lessons	-9145
▁thereto	-9146
▁reliable	-9147
▁unnecess	-9148
▁processed	-9149
▁strategies	-9150
▁advancement	-9151
▁utilization	-9152
gl	-9153
erous	-9154
▁grad	-9155
▁hier	-9156
▁disob	-9157
▁oriya	-9158
▁tales	-9159
▁tired	-9160
▁absent	-9161
▁hazard	-9162
▁penins	-9163
▁picked	-9164
▁breathing	-9165
▁requiring	-9166
▁vivekananda	-9167
▁qualifications	-9168
],	-9169
haz	-9170
rah	-9171
▁jh	-9172
▁uz	-9173
graph	-9174
harva	-9175
▁ausp	-9176
▁exit	-9177
▁ninet	-9178
▁overw	-9179
▁urine	-9180
▁vijay	-9181
icating	-9182
▁injust	-9183
▁talked	-9184
▁tariff	-9185
▁lasting	-9186
▁zealand	-9187
▁defeated	-9188
▁launchpad	-9189
▁microsoft	-9190
▁teachings	-9191
▁businesses	-9192
▁memorandum	-9193
▁citizenship	-9194
▁orientation	-9195
▁participated	-9196
▁reconstruction	-9197
she	-9198
yar	-9199
▁fi	-9200
happ	-9201
opard	-9202
place	-9203
▁amit	-9204
▁braz	-9205
▁synd	-9206
aching	-9207
▁pests	-9208
▁rains	-9209
▁blocks	-9210
▁sphere	-9211
▁absorbed	-9212
▁founding	-9213
▁nagaland	-9214
▁transmit	-9215
▁ahmedabad	-9216
▁occurring	-9217
▁passenger	-9218
▁boundaries	-9219
▁surprising	-9220
▁constructive	-9221
bu	-9222
lymp	-9223
omed	-9224
innah	-9225
pread	-9226
▁cock	-9227
▁drain	-9228
▁nemat	-9229
▁olymp	-9230
▁smell	-9231
▁aftern	-9232
▁discont	-9233
▁premier	-9234
▁competit	-9235
▁magnific	-9236
▁literally	-9237
▁imposition	-9238
▁sentiments	-9239
▁considerations	-9240
bat	-9241
law	-9242
bing	-9243
rose	-9244
▁lax	-9245
▁baba	-9246
▁hate	-9247
▁decay	-9248
▁grate	-9249
▁modes	-9250
istical	-9251
▁filling	-9252
▁alphabet	-9253
▁decrease	-9254
▁spending	-9255
▁stronger	-9256
▁celebrate	-9257
▁comprises	-9258
▁narrative	-9259
▁premchand	-9260
▁somewhere	-9261
▁occasionally	-9262
gm	-9263
babu	-9264
ograp	-9265
▁draf	-9266
▁maid	-9267
▁reck	-9268
eshwar	-9269
▁authent	-9270
▁dispens	-9271
▁existed	-9272
▁apprehen	-9273
▁frontier	-9274
▁intimate	-9275
▁isolated	-9276
▁likewise	-9277
▁mutually	-9278
▁sentences	-9279
."	-9280
osph	-9281
oning	-9282
rogen	-9283
▁bore	-9284
▁ghosh	-9285
▁quote	-9286
▁rocks	-9287
▁subtle	-9288
▁thomas	-9289
▁viable	-9290
▁damages	-9291
▁interfe	-9292
▁joining	-9293
▁welcomed	-9294
▁systematic	-9295
▁implications	-9296
pel	-9297
riya	-9298
▁gos	-9299
heart	-9300
unath	-9301
▁delta	-9302
▁meets	-9303
▁backup	-9304
▁borders	-9305
▁endorse	-9306
▁ethical	-9307
▁dominant	-9308
▁sarojini	-9309
▁provident	-9310
▁circulation	-9311
▁exceptional	-9312
py	-9313
ksh	-9314
▁puri	-9315
asaheb	-9316
ferent	-9317
▁dates	-9318
▁smile	-9319
▁trick	-9320
▁argued	-9321
▁closing	-9322
▁defense	-9323
▁prakrit	-9324
▁shifted	-9325
▁equipped	-9326
▁himalaya	-9327
▁overwhel	-9328
▁tubercul	-9329
▁geography	-9330
▁requisite	-9331
▁suspended	-9332
▁dimensions	-9333
oi	-9334
▁${	-9335
city	-9336
erson	-9337
▁desc	-9338
▁cable	-9339
▁deeds	-9340
▁cosmic	-9341
▁oceans	-9342
▁thereon	-9343
▁clearing	-9344
▁excluded	-9345
▁scrutiny	-9346
▁swelling	-9347
▁irregular	-9348
▁jewellery	-9349
▁ambassador	-9350
▁verification	-9351
oys	-9352
thi	-9353
▁lam	-9354
marks	-9355
▁lone	-9356
▁ahmad	-9357
▁appar	-9358
▁ninth	-9359
▁reset	-9360
▁invent	-9361
▁jinnah	-9362
▁mangal	-9363
▁earnings	-9364
▁afternoon	-9365
▁exemption	-9366
▁relevance	-9367
▁definitely	-9368
aur	-9369
fly	-9370
▁ol	-9371
pass	-9372
▁ors	-9373
rants	-9374
▁boot	-9375
ortion	-9376
▁preet	-9377
▁puran	-9378
▁steam	-9379
▁stret	-9380
holding	-9381
▁module	-9382
▁steady	-9383
ursement	-9384
▁conting	-9385
▁painful	-9386
▁findings	-9387
▁superint	-9388
▁impressed	-9389
▁petitions	-9390
▁linguistic	-9391
▁thoroughly	-9392
▁measurement	-9393
▁translations	-9394
rao	-9395
asts	-9396
apati	-9397
▁curt	-9398
▁dutt	-9399
▁rope	-9400
▁yamuna	-9401
▁ranging	-9402
▁sisters	-9403
▁somehow	-9404
▁glorious	-9405
▁respected	-9406
▁threshold	-9407
▁travelling	-9408
▁coordination	-9409
▁manufacturers	-9410
opy	-9411
istry	-9412
▁priy	-9413
ananda	-9414
▁ambul	-9415
▁nobel	-9416
▁shore	-9417
▁zones	-9418
▁tenure	-9419
▁nanalal	-9420
▁merchant	-9421
▁justified	-9422
▁probation	-9423
▁allowances	-9424
▁congratulated	-9425
aph	-9426
▁ns	-9427
juna	-9428
▁fis	-9429
▁sow	-9430
▁adhe	-9431
▁wash	-9432
illary	-9433
inking	-9434
▁maxim	-9435
▁urged	-9436
▁votes	-9437
▁archae	-9438
▁enters	-9439
▁merits	-9440
▁sevent	-9441
ilateral	-9442
▁contest	-9443
▁dioxide	-9444
▁visitor	-9445
▁accidents	-9446
▁intercourse	-9447
▁upgradation	-9448
▁acknowledged	-9449
▁remuneration	-9450
▁authentication	-9451
aki	-9452
ato	-9453
whe	-9454
▁dun	-9455
▁nal	-9456
gging	-9457
pered	-9458
▁grey	-9459
arshan	-9460
▁annum	-9461
▁lights	-9462
appropri	-9463
▁density	-9464
▁holiday	-9465
▁shortage	-9466
▁depression	-9467
▁elementary	-9468
▁reflection	-9469
▁sovereignty	-9470
▁superintend	-9471
▁termination	-9472
▁ow	-9473
▁eco	-9474
roots	-9475
▁mish	-9476
▁shat	-9477
ancing	-9478
▁crack	-9479
▁gandh	-9480
▁lakes	-9481
connect	-9482
▁extrem	-9483
▁surplus	-9484
▁graphics	-9485
▁treasure	-9486
▁enjoyment	-9487
▁jharkhand	-9488
▁popularity	-9489
▁resolutions	-9490
iban	-9491
isans	-9492
▁awak	-9493
▁brid	-9494
▁mini	-9495
▁onto	-9496
▁solv	-9497
▁wool	-9498
itting	-9499
▁appra	-9500
▁arithm	-9501
▁poresh	-9502
▁earning	-9503
▁freight	-9504
▁mizoram	-9505
▁rituals	-9506
▁disagree	-9507
▁distress	-9508
▁flexible	-9509
▁imposing	-9510
▁militant	-9511
▁disturbed	-9512
▁compliment	-9513
▁pesticides	-9514
▁vocational	-9515
▁resignation	-9516
▁possibilities	-9517
jj	-9518
▁kb	-9519
▁om	-9520
orph	-9521
otee	-9522
▁foss	-9523
▁wasn	-9524
▁ranks	-9525
▁basket	-9526
▁notion	-9527
▁racial	-9528
▁broadly	-9529
▁oneness	-9530
▁prayers	-9531
▁chapters	-9532
▁checking	-9533
▁declined	-9534
▁honoured	-9535
▁ideology	-9536
▁estimates	-9537
▁injustice	-9538
▁purchased	-9539
▁guaranteed	-9540
▁restriction	-9541
rix	-9542
etus	-9543
▁pale	-9544
▁ananda	-9545
▁autobi	-9546
▁carved	-9547
▁fourteen	-9548
▁shortcut	-9549
▁wireless	-9550
▁emergence	-9551
▁controller	-9552
gic	-9553
mother	-9554
▁embar	-9555
▁spots	-9556
▁essays	-9557
▁incomp	-9558
▁larvae	-9559
▁commend	-9560
▁measured	-9561
▁earthquake	-9562
fl	-9563
rot	-9564
quet	-9565
▁jad	-9566
▁suk	-9567
chief	-9568
▁amen	-9569
▁butt	-9570
▁impr	-9571
▁puts	-9572
▁cache	-9573
▁affirm	-9574
▁seller	-9575
▁senses	-9576
▁speaks	-9577
▁clients	-9578
▁inherit	-9579
▁deciding	-9580
▁strictly	-9581
▁associate	-9582
▁exclusion	-9583
▁invitation	-9584
▁underlying	-9585
▁unfortunate	-9586
▁conciliation	-9587
▁gy	-9588
▁ub	-9589
alous	-9590
anned	-9591
ridge	-9592
ropol	-9593
▁hapl	-9594
▁tran	-9595
▁alert	-9596
▁score	-9597
▁wides	-9598
▁differ	-9599
▁marble	-9600
▁surely	-9601
▁cellular	-9602
▁provider	-9603
▁mauritius	-9604
▁realistic	-9605
▁australian	-9606
▁denominator	-9607
▁permanently	-9608
▁preservation	-9609
cot	-9610
rass	-9611
▁alb	-9612
▁jes	-9613
print	-9614
ivided	-9615
▁antar	-9616
▁grief	-9617
▁liked	-9618
▁trium	-9619
▁priest	-9620
▁robust	-9621
▁holders	-9622
▁staying	-9623
▁thermal	-9624
▁captured	-9625
▁highways	-9626
▁instruct	-9627
▁refugees	-9628
▁identical	-9629
▁conscience	-9630
▁minorities	-9631
▁subsidiary	-9632
dep	-9633
inath	-9634
▁hell	-9635
▁suck	-9636
▁uphe	-9637
▁medie	-9638
▁overr	-9639
▁accred	-9640
▁ninety	-9641
▁devotee	-9642
▁operator	-9643
▁particles	-9644
▁prevented	-9645
▁scriptures	-9646
▁comfortable	-9647
▁entertainment	-9648
▁ana	-9649
andra	-9650
▁fare	-9651
▁ngos	-9652
itious	-9653
▁padma	-9654
▁comply	-9655
▁deccan	-9656
▁strive	-9657
▁unfair	-9658
▁walked	-9659
endranath	-9660
▁prohibited	-9661
▁variations	-9662
▁widespread	-9663
add	-9664
ails	-9665
flow	-9666
ille	-9667
oria	-9668
ysis	-9669
▁dos	-9670
▁naw	-9671
▁tie	-9672
▁coat	-9673
▁html	-9674
▁manik	-9675
▁teams	-9676
▁brazil	-9677
▁narmad	-9678
▁throne	-9679
▁rightly	-9680
▁vaccine	-9681
▁delicate	-9682
▁certified	-9683
▁employers	-9684
▁fertilizer	-9685
▁complainant	-9686
anny	-9687
lings	-9688
▁feas	-9689
▁publ	-9690
public	-9691
▁mills	-9692
▁humour	-9693
▁obstac	-9694
▁revers	-9695
▁automob	-9696
▁damaged	-9697
▁triumph	-9698
▁adventure	-9699
▁labourers	-9700
▁procurement	-9701
okes	-9702
▁gum	-9703
▁cows	-9704
▁eager	-9705
▁excav	-9706
▁mexic	-9707
▁spont	-9708
▁syria	-9709
▁token	-9710
▁varma	-9711
▁worthy	-9712
▁lakshmi	-9713
▁conclude	-9714
▁immunity	-9715
▁infected	-9716
▁medieval	-9717
▁favourable	-9718
▁safeguards	-9719
▁identifying	-9720
▁politicians	-9721
▁१७	-9722
idas	-9723
▁pod	-9724
apped	-9725
▁blog	-9726
▁fame	-9727
govern	-9728
▁coron	-9729
▁dense	-9730
▁essay	-9731
▁innum	-9732
▁toxic	-9733
▁creatures	-9734
▁decorated	-9735
▁prosecutor	-9736
▁introducing	-9737
▁specialized	-9738
▁economically	-9739
▁tuberculosis	-9740
nad	-9741
tra	-9742
emic	-9743
roid	-9744
▁bug	-9745
▁vij	-9746
anium	-9747
▁ours	-9748
▁turb	-9749
ulsion	-9750
▁alike	-9751
▁dread	-9752
▁prabh	-9753
▁inhabit	-9754
▁reaches	-9755
▁superst	-9756
▁improper	-9757
▁affidavit	-9758
▁horizontal	-9759
mus	-9760
mail	-9761
▁bez	-9762
▁kms	-9763
▁capac	-9764
▁hered	-9765
▁incub	-9766
▁bodily	-9767
▁mighty	-9768
▁creator	-9769
▁quarters	-9770
▁equitable	-9771
▁equipments	-9772
▁researchers	-9773
▁utilisation	-9774
iver	-9775
▁iit	-9776
rious	-9777
tings	-9778
▁peasant	-9779
▁pleasant	-9780
▁correctly	-9781
▁delighted	-9782
▁surprised	-9783
▁travelled	-9784
▁concessions	-9785
ukh	-9786
▁clay	-9787
▁hybr	-9788
▁lift	-9789
▁lust	-9790
▁gnome	-9791
▁leban	-9792
▁ceased	-9793
▁intens	-9794
▁caution	-9795
▁females	-9796
▁harness	-9797
▁shrines	-9798
▁packages	-9799
▁tropical	-9800
▁verified	-9801
▁disappear	-9802
▁vigilance	-9803
▁misconduct	-9804
▁expectations	-9805
▁facilitating	-9806
].	-9807
▁adh	-9808
▁bye	-9809
adian	-9810
human	-9811
▁bark	-9812
▁enum	-9813
▁hang	-9814
▁hole	-9815
▁nick	-9816
▁devan	-9817
▁rooms	-9818
▁shoot	-9819
▁belarus	-9820
▁civiliz	-9821
▁crossed	-9822
▁issuing	-9823
▁deprived	-9824
▁fulfilment	-9825
▁permissible	-9826
▁cu	-9827
▁tb	-9828
reen	-9829
rics	-9830
▁guy	-9831
eping	-9832
ugues	-9833
▁tent	-9834
▁meher	-9835
ghalaya	-9836
▁digest	-9837
▁mature	-9838
▁sankara	-9839
▁tension	-9840
▁dominion	-9841
▁highness	-9842
▁kilogram	-9843
▁conflicts	-9844
▁assemblies	-9845
▁meaningful	-9846
▁provisional	-9847
▁realization	-9848
isa	-9849
▁fu	-9850
▁nu	-9851
aran	-9852
rome	-9853
enary	-9854
▁wand	-9855
▁clubs	-9856
▁dying	-9857
▁meter	-9858
▁makers	-9859
▁phosph	-9860
▁solved	-9861
▁unanim	-9862
economic	-9863
▁defines	-9864
▁interven	-9865
▁reflects	-9866
▁segments	-9867
▁spectrum	-9868
▁intestine	-9869
▁variation	-9870
▁meditation	-9871
▁transplant	-9872
▁collections	-9873
uda	-9874
oven	-9875
thal	-9876
avati	-9877
▁alex	-9878
▁cars	-9879
▁chol	-9880
▁trap	-9881
ishers	-9882
▁breat	-9883
▁pulse	-9884
▁shame	-9885
▁edited	-9886
▁ethnic	-9887
▁invari	-9888
▁rhythm	-9889
▁throat	-9890
▁unhapp	-9891
▁augment	-9892
▁symbols	-9893
▁unusual	-9894
▁accorded	-9895
▁entities	-9896
▁guardian	-9897
▁rajendra	-9898
▁agitation	-9899
▁portugues	-9900
▁pursuance	-9901
▁vegetable	-9902
▁practitioner	-9903
uta	-9904
▁mi	-9905
▁wi	-9906
wali	-9907
▁mou	-9908
▁zam	-9909
▁alia	-9910
▁amar	-9911
▁mast	-9912
▁antib	-9913
▁italy	-9914
▁relate	-9915
▁tested	-9916
▁hostile	-9917
▁hunting	-9918
▁mandate	-9919
▁confront	-9920
▁	-9921
e	-9922
t	-9923
a	-9924
i	-9925
o	-9926
n	-9927
s	-9928
r	-9929
h	-9930
l	-9931
d	-9932
c	-9933
u	-9934
m	-9935
f	-9936
p	-9937
g	-9938
y	-9939
b	-9940
w	-9941
v	-9942
.	-9943
,	-9944
k	-9945
-	-9946
x	-9947
j	-9948
०	-9949
'	-9950
)	-9951
(	-9952
q	-9953
१	-9954
z	-9955
:	-9956
२	-9957
;	-9958
/	-9959
”	-9960
“	-9961
३	-9962
?	-9963
0	-9964
%	-9965
’	-9966
"	-9967
४	-9968
>	-9969
<	-9970
&	-9971
५	-9972
‘	-9973
!	-9974
{	-9975
}	-9976
—	-9977
६	-9978
_	-9979
[	-9980
]	-9981
७	-9982
*	-9983
८	-9984
|	-9985
ा	-9986
–	-9987
९	-9988
$	-9989
्	-9990
=	-9991
ि	-9992
स	-9993
