<unk>	0
<s>	0
</s>	0
▁t	-0
he	-1
▁a	-2
in	-3
▁o	-4
▁the	-5
re	-6
on	-7
▁s	-8
er	-9
at	-10
en	-11
▁.	-12
is	-13
▁of	-14
▁,	-15
nd	-16
▁w	-17
▁c	-18
it	-19
▁p	-20
es	-21
▁b	-22
al	-23
ed	-24
an	-25
or	-26
▁in	-27
▁f	-28
ion	-29
ar	-30
ou	-31
ing	-32
▁to	-33
▁m	-34
▁and	-35
ic	-36
▁d	-37
as	-38
▁h	-39
ent	-40
le	-41
ro	-42
▁th	-43
ct	-44
▁T	-45
▁I	-46
▁re	-47
▁n	-48
▁e	-49
os	-50
om	-51
▁be	-52
▁l	-53
il	-54
▁S	-55
ve	-56
▁A	-57
▁is	-58
ation	-59
us	-60
ut	-61
ot	-62
▁g	-63
ap	-64
ce	-65
id	-66
im	-67
ur	-68
▁C	-69
▁&	-70
ly	-71
▁for	-72
ad	-73
am	-74
▁The	-75
et	-76
▁on	-77
▁P	-78
ver	-79
▁-	-80
ol	-81
ch	-82
ay	-83
ment	-84
▁or	-85
ig	-86
st	-87
ow	-88
▁that	-89
ir	-90
▁M	-91
▁as	-92
▁pro	-93
el	-94
ul	-95
▁wh	-96
▁con	-97
▁B	-98
▁an	-99
her	-100
apos	-101
▁st	-102
▁it	-103
ith	-104
▁1	-105
▁u	-106
ter	-107
ri	-108
ab	-109
▁al	-110
ate	-111
ect	-112
▁y	-113
ess	-114
▁de	-115
ra	-116
▁with	-117
▁H	-118
if	-119
▁su	-120
ge	-121
▁R	-122
▁by	-123
res	-124
▁he	-125
▁)	-126
▁(	-127
ers	-128
ist	-129
▁was	-130
od	-131
▁are	-132
▁D	-133
our	-134
qu	-135
ld	-136
▁com	-137
ity	-138
ak	-139
▁not	-140
▁v	-141
op	-142
▁ex	-143
▁G	-144
and	-145
em	-146
ill	-147
ere	-148
nt	-149
iv	-150
▁N	-151
ain	-152
est	-153
se	-154
ci	-155
um	-156
▁sh	-157
ant	-158
▁at	-159
ive	-160
▁r	-161
▁W	-162
▁this	-163
ort	-164
▁Ind	-165
ave	-166
ich	-167
art	-168
pp	-169
rom	-170
▁2	-171
ht	-172
ia	-173
▁E	-174
ies	-175
ure	-176
ore	-177
▁which	-178
end	-179
▁L	-180
ac	-181
▁se	-182
▁from	-183
ud	-184
un	-185
all	-186
▁has	-187
▁have	-188
th	-189
▁O	-190
ust	-191
▁F	-192
▁ne	-193
ould	-194
▁In	-195
▁his	-196
▁k	-197
▁le	-198
ous	-199
▁ch	-200
▁:	-201
ther	-202
ard	-203
▁you	-204
ions	-205
ind	-206
▁we	-207
▁sp	-208
▁wor	-209
ag	-210
cc	-211
▁all	-212
▁K	-213
ome	-214
age	-215
▁int	-216
ated	-217
ight	-218
▁im	-219
ry	-220
▁India	-221
ance	-222
pt	-223
red	-224
ount	-225
▁comp	-226
▁so	-227
able	-228
▁pl	-229
ice	-230
▁j	-231
ans	-232
▁can	-233
ff	-234
▁us	-235
▁ad	-236
▁J	-237
ary	-238
rou	-239
nder	-240
ence	-241
▁ab	-242
so	-243
▁go	-244
ical	-245
▁U	-246
hi	-247
▁any	-248
ong	-249
av	-250
ear	-251
▁/	-252
▁en	-253
▁19	-254
ast	-255
▁whe	-256
oc	-257
▁app	-258
ult	-259
▁Th	-260
▁res	-261
▁cont	-262
▁dis	-263
ep	-264
ru	-265
og	-266
▁me	-267
▁un	-268
▁per	-269
▁other	-270
▁It	-271
pl	-272
▁under	-273
ell	-274
ction	-275
per	-276
ide	-277
▁its	-278
ial	-279
▁their	-280
▁will	-281
▁man	-282
▁been	-283
ish	-284
▁inc	-285
ost	-286
out	-287
▁one	-288
ame	-289
du	-290
▁part	-291
gh	-292
ations	-293
vel	-294
▁St	-295
▁;	-296
▁ag	-297
ub	-298
ie	-299
ok	-300
▁also	-301
ine	-302
ik	-303
ress	-304
ase	-305
▁tr	-306
iz	-307
ib	-308
▁had	-309
▁do	-310
ime	-311
orm	-312
▁there	-313
ang	-314
vern	-315
act	-316
▁who	-317
▁V	-318
ection	-319
▁imp	-320
▁up	-321
rit	-322
▁cl	-323
▁ar	-324
▁out	-325
▁but	-326
very	-327
lic	-328
ian	-329
are	-330
ail	-331
00	-332
ual	-333
▁were	-334
ire	-335
▁”	-336
ose	-337
▁3	-338
ition	-339
cial	-340
▁He	-341
ach	-342
▁such	-343
one	-344
▁ind	-345
▁am	-346
▁pe	-347
▁sub	-348
▁prov	-349
ade	-350
▁“	-351
▁year	-352
ake	-353
ass	-354
ue	-355
▁they	-356
▁acc	-357
▁comm	-358
ourt	-359
aw	-360
erv	-361
▁Ch	-362
▁our	-363
ber	-364
ident	-365
▁may	-366
▁rel	-367
ign	-368
ord	-369
▁them	-370
ater	-371
aus	-372
ace	-373
ree	-374
ec	-375
vernment	-376
▁Go	-377
ory	-378
ational	-379
ens	-380
▁off	-381
▁Com	-382
ious	-383
ution	-384
▁qu	-385
ee	-386
now	-387
▁no	-388
▁time	-389
stit	-390
erson	-391
▁This	-392
▁pre	-393
▁?	-394
ric	-395
ings	-396
▁cons	-397
iss	-398
ities	-399
▁ev	-400
form	-401
▁work	-402
ces	-403
▁him	-404
tern	-405
ike	-406
aid	-407
ople	-408
▁tw	-409
ah	-410
▁te	-411
reat	-412
ack	-413
ove	-414
▁po	-415
▁pr	-416
▁more	-417
hed	-418
▁bec	-419
▁should	-420
rib	-421
▁person	-422
▁would	-423
itt	-424
▁rec	-425
▁count	-426
▁Y	-427
▁reg	-428
▁%	-429
▁em	-430
▁As	-431
ays	-432
aj	-433
fter	-434
▁people	-435
▁only	-436
low	-437
▁Act	-438
ject	-439
int	-440
▁act	-441
ath	-442
ip	-443
ild	-444
ause	-445
▁if	-446
velop	-447
▁pol	-448
▁ass	-449
▁some	-450
pe	-451
▁know	-452
▁about	-453
▁like	-454
▁into	-455
ments	-456
ite	-457
ound	-458
▁exp	-459
oy	-460
▁new	-461
ook	-462
elf	-463
ied	-464
ates	-465
fere	-466
▁over	-467
ile	-468
cess	-469
▁sc	-470
lect	-471
ank	-472
ond	-473
row	-474
ise	-475
▁form	-476
▁these	-477
amp	-478
▁4	-479
▁Sh	-480
▁your	-481
ark	-482
fore	-483
ife	-484
▁when	-485
ced	-486
gr	-487
▁Comm	-488
vers	-489
▁made	-490
▁two	-491
▁dec	-492
ert	-493
ific	-494
▁sy	-495
me	-496
▁Con	-497
ng	-498
▁pres	-499
▁Pro	-500
▁’	-501
▁shall	-502
▁Court	-503
▁5	-504
ll	-505
▁her	-506
igh	-507
▁Government	-508
▁ob	-509
▁fe	-510
▁ro	-511
▁Indian	-512
ood	-513
ative	-514
old	-515
▁fir	-516
▁ac	-517
ally	-518
01	-519
erm	-520
ublic	-521
▁resp	-522
ism	-523
▁than	-524
▁att	-525
▁rep	-526
ating	-527
ness	-528
ward	-529
▁develop	-530
▁bet	-531
▁trans	-532
▁ent	-533
▁Un	-534
rough	-535
ors	-536
uc	-537
▁State	-538
▁rem	-539
▁dif	-540
ful	-541
▁my	-542
▁being	-543
▁inv	-544
een	-545
ular	-546
▁said	-547
cy	-548
ener	-549
▁An	-550
ission	-551
▁through	-552
ower	-553
quot	-554
▁after	-555
uring	-556
ered	-557
▁But	-558
▁We	-559
▁eff	-560
led	-561
▁des	-562
▁200	-563
▁cent	-564
gan	-565
▁produ	-566
▁where	-567
▁co	-568
▁life	-569
wn	-570
▁pos	-571
▁sec	-572
▁And	-573
ha	-574
▁So	-575
▁country	-576
ning	-577
uth	-578
stem	-579
ty	-580
▁years	-581
ax	-582
olog	-583
resident	-584
hy	-585
li	-586
▁again	-587
ons	-588
lud	-589
ible	-590
als	-591
▁first	-592
▁Pr	-593
ink	-594
▁serv	-595
▁col	-596
ility	-597
ne	-598
ature	-599
ural	-600
und	-601
ved	-602
ract	-603
ents	-604
▁right	-605
cept	-606
▁Bh	-607
▁ord	-608
▁law	-609
▁very	-610
te	-611
ob	-612
ange	-613
ft	-614
▁There	-615
▁set	-616
▁what	-617
▁ins	-618
arm	-619
fer	-620
▁Ex	-621
oth	-622
▁De	-623
▁world	-624
▁could	-625
up	-626
ati	-627
its	-628
lt	-629
▁need	-630
▁President	-631
ict	-632
▁get	-633
ision	-634
▁call	-635
▁well	-636
▁op	-637
▁must	-638
rap	-639
▁dist	-640
▁bl	-641
▁pur	-642
ght	-643
▁mem	-644
▁ed	-645
▁num	-646
con	-647
any	-648
other	-649
ided	-650
hen	-651
▁add	-652
▁Re	-653
ited	-654
▁giv	-655
▁bas	-656
▁system	-657
▁case	-658
gt	-659
urn	-660
▁Ar	-661
▁just	-662
air	-663
▁good	-664
pos	-665
aking	-666
▁ra	-667
▁6	-668
▁spe	-669
ween	-670
les	-671
▁Is	-672
▁ext	-673
hip	-674
▁many	-675
▁mat	-676
▁includ	-677
▁before	-678
▁even	-679
ices	-680
▁requ	-681
ble	-682
▁cap	-683
▁between	-684
▁If	-685
▁char	-686
eth	-687
▁then	-688
iew	-689
▁writ	-690
ised	-691
▁fol	-692
▁used	-693
ily	-694
▁import	-695
stitut	-696
pport	-697
uch	-698
ures	-699
irect	-700
▁Hind	-701
ters	-702
inal	-703
own	-704
ral	-705
ough	-706
chn	-707
▁ke	-708
▁tra	-709
▁min	-710
ren	-711
▁differe	-712
▁see	-713
▁make	-714
▁how	-715
ix	-716
▁def	-717
round	-718
▁public	-719
▁child	-720
▁own	-721
▁every	-722
▁var	-723
ital	-724
▁section	-725
▁Am	-726
▁long	-727
stitution	-728
formation	-729
▁val	-730
▁day	-731
▁inst	-732
ages	-733
▁mon	-734
▁most	-735
▁&#	-736
ries	-737
▁br	-738
ody	-739
ef	-740
▁inf	-741
▁use	-742
app	-743
▁end	-744
▁7	-745
ov	-746
oun	-747
▁mod	-748
▁way	-749
▁lar	-750
iness	-751
▁sm	-752
uthor	-753
▁she	-754
▁gener	-755
▁They	-756
▁follow	-757
hes	-758
▁great	-759
▁same	-760
ple	-761
▁i	-762
▁gr	-763
ouse	-764
▁state	-765
ern	-766
▁equ	-767
ished	-768
xt	-769
▁power	-770
▁Min	-771
ivers	-772
▁car	-773
▁now	-774
aint	-775
ety	-776
▁For	-777
▁inter	-778
▁8	-779
imes	-780
gal	-781
ruct	-782
▁conc	-783
ever	-784
▁hel	-785
ash	-786
▁process	-787
▁organ	-788
▁bu	-789
gram	-790
ven	-791
conom	-792
ick	-793
ament	-794
arli	-795
▁take	-796
▁disc	-797
▁201	-798
▁place	-799
erest	-800
▁pass	-801
▁order	-802
ality	-803
lim	-804
arch	-805
▁number	-806
▁Cent	-807
▁fact	-808
▁You	-809
▁because	-810
▁hum	-811
▁adv	-812
▁av	-813
tic	-814
alth	-815
gg	-816
iod	-817
bers	-818
angu	-819
▁partic	-820
▁present	-821
icial	-822
▁Wh	-823
▁against	-824
▁indust	-825
▁during	-826
▁stud	-827
▁fl	-828
▁development	-829
▁Ne	-830
▁det	-831
▁dem	-832
▁help	-833
ention	-834
▁fam	-835
▁educ	-836
ana	-837
▁dep	-838
istr	-839
▁18	-840
▁consid	-841
▁those	-842
ired	-843
▁back	-844
▁On	-845
▁did	-846
▁lead	-847
▁0	-848
▁ret	-849
ined	-850
▁hand	-851
ork	-852
ified	-853
rop	-854
ars	-855
uk	-856
▁here	-857
ock	-858
▁different	-859
▁period	-860
▁interest	-861
▁med	-862
ck	-863
▁account	-864
ives	-865
ics	-866
▁occ	-867
get	-868
▁econom	-869
ared	-870
min	-871
ants	-872
▁est	-873
ata	-874
ds	-875
ases	-876
▁sur	-877
ology	-878
▁court	-879
▁tak	-880
▁grow	-881
man	-882
lish	-883
▁conf	-884
▁bus	-885
ting	-886
▁jud	-887
ists	-888
▁found	-889
ron	-890
▁Commission	-891
ted	-892
ner	-893
▁three	-894
▁iss	-895
▁fore	-896
▁Al	-897
▁To	-898
way	-899
▁term	-900
tc	-901
ained	-902
▁called	-903
▁both	-904
▁down	-905
▁effect	-906
▁does	-907
ten	-908
▁author	-909
▁pay	-910
ale	-911
ges	-912
ides	-913
ather	-914
read	-915
▁Ad	-916
▁mark	-917
ually	-918
ency	-919
▁fin	-920
ph	-921
ploy	-922
▁9	-923
▁water	-924
▁cert	-925
▁bel	-926
▁&#9	-927
▁comple	-928
▁cor	-929
roup	-930
ues	-931
ull	-932
▁cre	-933
▁respect	-934
oint	-935
RB	-936
▁etc	-937
▁government	-938
▁start	-939
▁rece	-940
▁given	-941
au	-942
▁techn	-943
▁Mus	-944
arn	-945
riv	-946
▁National	-947
▁commun	-948
ister	-949
ES	-950
▁contin	-951
▁langu	-952
▁gu	-953
▁loc	-954
ination	-955
▁name	-956
ros	-957
▁high	-958
nce	-959
▁ph	-960
▁str	-961
▁poss	-962
▁aff	-963
▁Mah	-964
▁wom	-965
less	-966
▁view	-967
ince	-968
▁spec	-969
▁direct	-970
▁cond	-971
▁‘	-972
▁oper	-973
▁want	-974
▁applic	-975
icy	-976
▁much	-977
▁without	-978
ute	-979
not	-980
▁ref	-981
▁sect	-982
reme	-983
blem	-984
▁means	-985
ceed	-986
▁each	-987
▁important	-988
ici	-989
▁program	-990
▁gl	-991
▁information	-992
day	-993
▁del	-994
▁look	-995
▁let	-996
▁prev	-997
▁read	-998
▁fac	-999
iel	-1000
▁human	-1001
isions	-1002
ool	-1003
▁small	-1004
▁book	-1005
▁sim	-1006
ines	-1007
▁som	-1008
tt	-1009
▁amount	-1010
here	-1011
orts	-1012
▁problem	-1013
erg	-1014
▁gre	-1015
ya	-1016
▁within	-1017
ari	-1018
lement	-1019
▁social	-1020
▁body	-1021
▁sign	-1022
▁ty	-1023
▁All	-1024
pr	-1025
▁Le	-1026
▁avail	-1027
▁fun	-1028
rict	-1029
▁business	-1030
▁199	-1031
▁mar	-1032
▁come	-1033
▁prof	-1034
▁stand	-1035
ived	-1036
▁10	-1037
esh	-1038
ai	-1039
▁ser	-1040
▁polit	-1041
▁proper	-1042
▁cult	-1043
aving	-1044
▁Rep	-1045
▁incre	-1046
▁stre	-1047
ets	-1048
▁Eng	-1049
▁tem	-1050
iter	-1051
▁invest	-1052
▁No	-1053
▁ide	-1054
▁point	-1055
▁relig	-1056
crib	-1057
ized	-1058
▁..	-1059
▁various	-1060
por	-1061
▁vis	-1062
ected	-1063
ror	-1064
ivid	-1065
▁bank	-1066
▁play	-1067
▁happ	-1068
▁che	-1069
self	-1070
▁exper	-1071
af	-1072
lam	-1073
▁cle	-1074
ains	-1075
▁large	-1076
▁last	-1077
▁fil	-1078
wards	-1079
arly	-1080
▁High	-1081
reed	-1082
▁say	-1083
▁sch	-1084
▁think	-1085
ought	-1086
▁taken	-1087
EN	-1088
han	-1089
ram	-1090
▁Muslim	-1091
▁support	-1092
rol	-1093
▁employ	-1094
ining	-1095
▁another	-1096
med	-1097
▁group	-1098
▁quest	-1099
▁times	-1100
▁soci	-1101
ession	-1102
▁cr	-1103
▁assess	-1104
▁dev	-1105
▁cur	-1106
▁education	-1107
ways	-1108
asht	-1109
▁known	-1110
▁!	-1111
ended	-1112
ason	-1113
az	-1114
ense	-1115
ret	-1116
▁When	-1117
▁real	-1118
▁Ass	-1119
▁Te	-1120
▁mind	-1121
ulation	-1122
▁Ben	-1123
▁while	-1124
ternal	-1125
▁land	-1126
▁...	-1127
ically	-1128
▁lo	-1129
▁open	-1130
▁15	-1131
▁activ	-1132
▁How	-1133
ried	-1134
▁result	-1135
▁level	-1136
▁company	-1137
stand	-1138
▁Raj	-1139
har	-1140
itions	-1141
ances	-1142
▁income	-1143
ferred	-1144
rial	-1145
▁ve	-1146
olution	-1147
▁Man	-1148
arliament	-1149
▁estab	-1150
▁Central	-1151
ize	-1152
▁appro	-1153
▁prom	-1154
work	-1155
▁find	-1156
▁prot	-1157
▁month	-1158
ves	-1159
▁Jud	-1160
▁move	-1161
irc	-1162
▁going	-1163
▁Sc	-1164
▁national	-1165
eration	-1166
ething	-1167
▁Shri	-1168
▁days	-1169
uss	-1170
▁allow	-1171
▁rev	-1172
riend	-1173
ization	-1174
▁Off	-1175
▁beh	-1176
▁elect	-1177
ased	-1178
▁cannot	-1179
▁wind	-1180
▁ter	-1181
ged	-1182
▁12	-1183
▁necess	-1184
ption	-1185
▁language	-1186
port	-1187
▁11	-1188
ledge	-1189
urther	-1190
▁non	-1191
ium	-1192
ternational	-1193
▁pop	-1194
land	-1195
▁These	-1196
▁members	-1197
ering	-1198
▁subject	-1199
▁health	-1200
ccess	-1201
▁give	-1202
ER	-1203
lished	-1204
▁meet	-1205
▁Ram	-1206
▁Dep	-1207
▁ben	-1208
▁less	-1209
par	-1210
ording	-1211
▁old	-1212
omm	-1213
▁special	-1214
▁lim	-1215
cil	-1216
atic	-1217
▁Se	-1218
▁rest	-1219
▁sci	-1220
▁leg	-1221
▁OF	-1222
▁show	-1223
ential	-1224
ately	-1225
▁{	-1226
▁policy	-1227
ued	-1228
▁particular	-1229
▁children	-1230
ability	-1231
▁pract	-1232
ug	-1233
▁}	-1234
▁bro	-1235
▁—	-1236
▁div	-1237
▁four	-1238
▁Or	-1239
bs	-1240
▁Sing	-1241
▁class	-1242
▁exist	-1243
▁available	-1244
onment	-1245
000	-1246
▁What	-1247
▁certain	-1248
isation	-1249
ins	-1250
ither	-1251
ising	-1252
lease	-1253
▁_	-1254
alf	-1255
▁Q	-1256
ajor	-1257
ivil	-1258
▁sk	-1259
▁main	-1260
section	-1261
▁death	-1262
▁At	-1263
pect	-1264
ote	-1265
ts	-1266
▁hist	-1267
▁Brit	-1268
▁common	-1269
▁came	-1270
▁Res	-1271
ks	-1272
ference	-1273
ND	-1274
▁States	-1275
▁among	-1276
▁friend	-1277
ury	-1278
▁countries	-1279
▁sit	-1280
▁regard	-1281
▁accept	-1282
▁cost	-1283
▁today	-1284
ode	-1285
▁sent	-1286
▁service	-1287
avan	-1288
▁become	-1289
▁Sup	-1290
inci	-1291
▁hig	-1292
ittee	-1293
▁Tr	-1294
ator	-1295
▁fund	-1296
▁head	-1297
▁Rs	-1298
put	-1299
▁PR	-1300
▁dra	-1301
▁too	-1302
ross	-1303
oney	-1304
▁including	-1305
▁conn	-1306
oss	-1307
▁product	-1308
▁Del	-1309
ividual	-1310
▁action	-1311
▁comput	-1312
▁free	-1313
ery	-1314
ification	-1315
att	-1316
▁sche	-1317
ran	-1318
▁war	-1319
▁whole	-1320
▁His	-1321
▁due	-1322
▁cases	-1323
itted	-1324
oard	-1325
jee	-1326
isl	-1327
▁par	-1328
ateg	-1329
iversity	-1330
ructure	-1331
outh	-1332
▁self	-1333
duct	-1334
▁matter	-1335
▁put	-1336
▁project	-1337
▁services	-1338
▁done	-1339
ministr	-1340
▁provisions	-1341
ouncil	-1342
▁tre	-1343
▁list	-1344
▁object	-1345
ware	-1346
▁met	-1347
▁Supreme	-1348
▁She	-1349
▁care	-1350
▁family	-1351
▁area	-1352
▁rul	-1353
▁Gand	-1354
▁something	-1355
AT	-1356
na	-1357
▁economic	-1358
▁trad	-1359
▁individual	-1360
cing	-1361
▁major	-1362
▁upon	-1363
▁tax	-1364
uty	-1365
ala	-1366
▁charact	-1367
▁respons	-1368
ON	-1369
ently	-1370
▁build	-1371
▁Islam	-1372
▁political	-1373
▁chang	-1374
▁belie	-1375
▁vill	-1376
.2	-1377
ancial	-1378
cl	-1379
▁sw	-1380
otion	-1381
▁Parliament	-1382
▁society	-1383
▁poet	-1384
idence	-1385
▁second	-1386
▁tot	-1387
▁far	-1388
ield	-1389
▁women	-1390
▁Constitution	-1391
aim	-1392
gress	-1393
AR	-1394
▁net	-1395
▁liter	-1396
▁success	-1397
▁Sec	-1398
of	-1399
▁value	-1400
▁Section	-1401
▁areas	-1402
▁provide	-1403
▁based	-1404
ule	-1405
artment	-1406
▁New	-1407
▁institut	-1408
▁express	-1409
▁ask	-1410
irit	-1411
▁const	-1412
▁capital	-1413
▁knowledge	-1414
▁plan	-1415
agement	-1416
vir	-1417
ling	-1418
▁food	-1419
▁men	-1420
▁supp	-1421
▁house	-1422
▁vi	-1423
alk	-1424
▁repres	-1425
pose	-1426
▁expl	-1427
▁Delhi	-1428
eric	-1429
ending	-1430
▁keep	-1431
▁Pl	-1432
ID	-1433
▁best	-1434
ticle	-1435
orth	-1436
▁Gu	-1437
ilities	-1438
▁nature	-1439
▁God	-1440
▁provided	-1441
▁circ	-1442
osed	-1443
ify	-1444
sel	-1445
▁eng	-1446
cies	-1447
soci	-1448
▁change	-1449
▁further	-1450
▁198	-1451
▁left	-1452
▁making	-1453
ilit	-1454
ukher	-1455
▁concern	-1456
ples	-1457
▁Bhavan	-1458
▁words	-1459
urity	-1460
ys	-1461
ma	-1462
▁init	-1463
▁British	-1464
ems	-1465
ukherjee	-1466
lection	-1467
▁necessary	-1468
icult	-1469
▁Ag	-1470
▁benef	-1471
▁away	-1472
▁few	-1473
ricult	-1474
▁held	-1475
▁control	-1476
ourse	-1477
aining	-1478
▁That	-1479
chie	-1480
ogn	-1481
icer	-1482
iqu	-1483
▁Rasht	-1484
▁reason	-1485
▁One	-1486
eal	-1487
▁window	-1488
▁App	-1489
▁Gandhi	-1490
ittle	-1491
▁market	-1492
▁date	-1493
▁run	-1494
hys	-1495
▁Singh	-1496
▁always	-1497
▁English	-1498
▁20	-1499
▁kind	-1500
▁hold	-1501
▁orig	-1502
▁having	-1503
▁heart	-1504
▁question	-1505
▁mill	-1506
▁whether	-1507
▁still	-1508
▁196	-1509
epend	-1510
ences	-1511
▁following	-1512
▁sol	-1513
iding	-1514
▁five	-1515
iver	-1516
▁197	-1517
▁thought	-1518
▁mus	-1519
▁full	-1520
▁el	-1521
▁school	-1522
▁proceed	-1523
▁spirit	-1524
▁feel	-1525
ope	-1526
vironment	-1527
▁age	-1528
▁x	-1529
anab	-1530
▁Bengal	-1531
▁mater	-1532
▁required	-1533
▁Hindi	-1534
▁foreign	-1535
rapati	-1536
ories	-1537
▁Hindu	-1538
ior	-1539
▁Reg	-1540
▁things	-1541
▁growth	-1542
▁young	-1543
▁address	-1544
mes	-1545
▁sector	-1546
adesh	-1547
▁sl	-1548
▁En	-1549
▁light	-1550
▁deal	-1551
ger	-1552
idd	-1553
thing	-1554
▁Rashtrapati	-1555
lev	-1556
▁impro	-1557
▁little	-1558
emb	-1559
▁possible	-1560
▁mean	-1561
▁money	-1562
▁Cong	-1563
▁application	-1564
▁Committee	-1565
ards	-1566
▁Council	-1567
ured	-1568
ENT	-1569
▁data	-1570
▁above	-1571
▁himself	-1572
▁Acc	-1573
▁ann	-1574
iving	-1575
▁16	-1576
iction	-1577
▁return	-1578
ats	-1579
▁bir	-1580
rent	-1581
▁perform	-1582
▁sever	-1583
▁meas	-1584
▁total	-1585
▁later	-1586
ience	-1587
▁Law	-1588
▁achie	-1589
▁suff	-1590
▁sat	-1591
▁14	-1592
▁obs	-1593
▁beg	-1594
▁itself	-1595
▁After	-1596
▁contrib	-1597
▁purpose	-1598
▁Americ	-1599
raph	-1600
▁never	-1601
ara	-1602
orn	-1603
▁report	-1604
cribed	-1605
▁situ	-1606
▁Bank	-1607
▁art	-1608
▁diff	-1609
▁exam	-1610
▁clause	-1611
ication	-1612
▁Sub	-1613
▁eas	-1614
▁function	-1615
12	-1616
ember	-1617
ises	-1618
▁others	-1619
▁towards	-1620
ours	-1621
come	-1622
pportun	-1623
▁industry	-1624
▁press	-1625
▁love	-1626
▁plac	-1627
cious	-1628
▁195	-1629
▁Prov	-1630
ources	-1631
▁gra	-1632
▁short	-1633
▁local	-1634
▁position	-1635
io	-1636
1;	-1637
▁&#91;	-1638
▁several	-1639
ibility	-1640
egr	-1641
▁record	-1642
▁mult	-1643
▁persons	-1644
▁rese	-1645
▁Congress	-1646
bit	-1647
▁relations	-1648
▁dise	-1649
▁princi	-1650
▁ens	-1651
▁turn	-1652
pecial	-1653
▁propos	-1654
▁ii	-1655
▁Ab	-1656
asion	-1657
▁opportun	-1658
▁Be	-1659
▁Pre	-1660
used	-1661
▁since	-1662
akes	-1663
ively	-1664
▁material	-1665
▁tru	-1666
▁character	-1667
▁RRB	-1668
▁stat	-1669
▁around	-1670
▁ri	-1671
uro	-1672
▁13	-1673
HE	-1674
AL	-1675
▁cred	-1676
▁six	-1677
▁ident	-1678
ready	-1679
▁es	-1680
▁financial	-1681
▁represent	-1682
▁air	-1683
ocu	-1684
▁civil	-1685
▁er	-1686
▁understand	-1687
3;	-1688
▁&#93;	-1689
▁thir	-1690
▁mess	-1691
istry	-1692
IN	-1693
▁maint	-1694
▁complete	-1695
▁post	-1696
▁priv	-1697
▁referred	-1698
▁either	-1699
▁took	-1700
▁production	-1701
▁Pol	-1702
▁administr	-1703
▁ir	-1704
▁sing	-1705
ees	-1706
▁hard	-1707
▁appoint	-1708
▁Union	-1709
▁000	-1710
▁streng	-1711
▁25	-1712
▁don	-1713
▁already	-1714
akh	-1715
ample	-1716
▁difficult	-1717
ably	-1718
▁decl	-1719
▁therefore	-1720
▁invol	-1721
▁Minister	-1722
▁region	-1723
▁course	-1724
▁office	-1725
reedom	-1726
▁treat	-1727
ethod	-1728
▁type	-1729
imal	-1730
▁plant	-1731
▁nat	-1732
▁progress	-1733
▁fail	-1734
selves	-1735
▁pat	-1736
lu	-1737
ggest	-1738
▁Me	-1739
▁dom	-1740
osp	-1741
sh	-1742
▁home	-1743
▁LRB	-1744
▁fa	-1745
▁quality	-1746
▁194	-1747
erc	-1748
▁rate	-1749
ann	-1750
ustom	-1751
ource	-1752
ttp	-1753
▁higher	-1754
igation	-1755
alc	-1756
▁enc	-1757
▁able	-1758
▁http	-1759
▁With	-1760
rought	-1761
▁sum	-1762
der	-1763
ony	-1764
▁fut	-1765
AN	-1766
▁however	-1767
umb	-1768
▁inn	-1769
▁recogn	-1770
▁claim	-1771
▁ut	-1772
bsite	-1773
▁might	-1774
▁Gener	-1775
▁flow	-1776
els	-1777
▁activities	-1778
▁phys	-1779
▁better	-1780
aring	-1781
▁bring	-1782
▁ey	-1783
▁along	-1784
oura	-1785
itional	-1786
▁ground	-1787
▁lab	-1788
▁property	-1789
▁caus	-1790
▁suggest	-1791
▁However	-1792
▁Z	-1793
▁recomm	-1794
arat	-1795
▁international	-1796
▁agree	-1797
▁Just	-1798
▁demand	-1799
oh	-1800
▁ur	-1801
▁received	-1802
▁Dr	-1803
▁University	-1804
most	-1805
▁side	-1806
▁method	-1807
▁Em	-1808
▁seen	-1809
▁equal	-1810
▁bo	-1811
arent	-1812
arth	-1813
▁Sp	-1814
▁force	-1815
▁next	-1816
▁research	-1817
empt	-1818
▁abs	-1819
▁general	-1820
▁pen	-1821
urs	-1822
rodu	-1823
▁17	-1824
▁ess	-1825
▁cause	-1826
▁Some	-1827
amb	-1828
▁conv	-1829
hing	-1830
imum	-1831
▁Mr	-1832
▁Develop	-1833
▁went	-1834
▁occasion	-1835
IT	-1836
atory	-1837
▁nation	-1838
abha	-1839
▁Chi	-1840
▁30	-1841
ta	-1842
▁pet	-1843
gether	-1844
▁together	-1845
▁authority	-1846
▁strong	-1847
▁discuss	-1848
▁appear	-1849
itiz	-1850
▁mor	-1851
▁rights	-1852
rah	-1853
▁got	-1854
▁Serv	-1855
▁institutions	-1856
▁redu	-1857
▁access	-1858
▁ill	-1859
▁basis	-1860
ude	-1861
ita	-1862
udd	-1863
ration	-1864
acity	-1865
▁aut	-1866
▁House	-1867
ving	-1868
▁cell	-1869
▁history	-1870
▁file	-1871
▁started	-1872
▁THE	-1873
▁test	-1874
▁Part	-1875
itation	-1876
▁future	-1877
▁became	-1878
▁website	-1879
▁district	-1880
▁proced	-1881
ke	-1882
▁ver	-1883
▁implement	-1884
▁docu	-1885
▁freedom	-1886
▁problems	-1887
▁thing	-1888
ension	-1889
▁big	-1890
▁though	-1891
▁associ	-1892
▁network	-1893
▁ten	-1894
▁goods	-1895
▁working	-1896
ened	-1897
inary	-1898
omes	-1899
▁deep	-1900
▁computer	-1901
▁Department	-1902
ruction	-1903
▁ce	-1904
istan	-1905
▁conduct	-1906
▁example	-1907
ills	-1908
▁technology	-1909
▁mo	-1910
▁bre	-1911
▁super	-1912
▁related	-1913
ier	-1914
▁party	-1915
▁initi	-1916
stitute	-1917
cent	-1918
▁dest	-1919
▁Sy	-1920
▁environment	-1921
▁often	-1922
▁written	-1923
medi	-1924
▁viol	-1925
▁Pradesh	-1926
▁step	-1927
▁matters	-1928
ached	-1929
▁determ	-1930
aster	-1931
▁Sw	-1932
▁agricult	-1933
aper	-1934
side	-1935
nic	-1936
▁word	-1937
▁sal	-1938
▁unt	-1939
istic	-1940
▁live	-1941
ians	-1942
uf	-1943
▁gen	-1944
▁key	-1945
▁once	-1946
▁modern	-1947
▁months	-1948
ME	-1949
▁Fin	-1950
▁di	-1951
itor	-1952
▁entire	-1953
▁z	-1954
▁Mad	-1955
itive	-1956
▁farm	-1957
rael	-1958
mitted	-1959
ION	-1960
▁scheme	-1961
▁movement	-1962
▁sym	-1963
ched	-1964
riage	-1965
▁crit	-1966
▁role	-1967
anch	-1968
▁try	-1969
▁terms	-1970
▁Dis	-1971
une	-1972
▁pub	-1973
ront	-1974
▁design	-1975
aries	-1976
▁integr	-1977
▁security	-1978
▁conditions	-1979
▁considered	-1980
acy	-1981
▁Israel	-1982
▁relating	-1983
▁established	-1984
▁Chief	-1985
▁brought	-1986
▁Im	-1987
▁independ	-1988
▁Af	-1989
▁needs	-1990
IC	-1991
▁pot	-1992
▁pow	-1993
ercial	-1994
mber	-1995
aged	-1996
lected	-1997
▁field	-1998
ji	-1999
▁Col	-2000
▁mis	-2001
ental	-2002
▁imm	-2003
aps	-2004
▁previous	-2005
▁Development	-2006
▁observ	-2007
▁leaders	-2008
▁energ	-2009
▁separ	-2010
▁fel	-2011
▁top	-2012
▁paid	-2013
▁deb	-2014
ina	-2015
hile	-2016
▁students	-2017
▁vol	-2018
ring	-2019
▁ple	-2020
▁detail	-2021
▁opp	-2022
▁link	-2023
▁manner	-2024
.1	-2025
amm	-2026
rish	-2027
▁norm	-2028
▁text	-2029
▁My	-2030
▁General	-2031
▁Cont	-2032
▁earli	-2033
pur	-2034
rast	-2035
▁close	-2036
▁Govern	-2037
▁cro	-2038
▁line	-2039
▁Chand	-2040
▁blood	-2041
▁mother	-2042
sequ	-2043
▁lib	-2044
▁Ministry	-2045
▁Euro	-2046
▁true	-2047
OR	-2048
▁creat	-2049
▁member	-2050
allen	-2051
▁PRES	-2052
▁sense	-2053
▁visit	-2054
erve	-2055
ev	-2056
▁saf	-2057
ane	-2058
▁past	-2059
▁acqu	-2060
▁religious	-2061
urance	-2062
isd	-2063
▁Comp	-2064
▁official	-2065
▁require	-2066
atives	-2067
ms	-2068
hold	-2069
oid	-2070
▁terror	-2071
▁sett	-2072
▁legal	-2073
▁according	-2074
▁living	-2075
▁ded	-2076
▁citiz	-2077
▁share	-2078
▁Europe	-2079
▁story	-2080
▁dou	-2081
ait	-2082
▁ful	-2083
▁glob	-2084
▁decision	-2085
▁community	-2086
▁subst	-2087
▁village	-2088
cell	-2089
▁face	-2090
▁custom	-2091
ison	-2092
poses	-2093
▁million	-2094
unt	-2095
▁Now	-2096
.201	-2097
▁mach	-2098
▁consider	-2099
ief	-2100
atch	-2101
▁except	-2102
▁natural	-2103
ape	-2104
ends	-2105
▁assist	-2106
▁adop	-2107
▁rule	-2108
▁industrial	-2109
▁vari	-2110
iminal	-2111
ott	-2112
▁Not	-2113
▁Sche	-2114
▁learn	-2115
omb	-2116
▁particip	-2117
▁undert	-2118
action	-2119
▁parts	-2120
▁squ	-2121
ological	-2122
▁trade	-2123
▁concerned	-2124
cri	-2125
▁personal	-2126
ali	-2127
ung	-2128
▁cop	-2129
▁energy	-2130
▁Mukherjee	-2131
▁purposes	-2132
▁exec	-2133
change	-2134
▁passed	-2135
▁scient	-2136
▁opens	-2137
▁using	-2138
▁specified	-2139
acher	-2140
▁grant	-2141
▁Muslims	-2142
ches	-2143
▁study	-2144
▁compet	-2145
▁Su	-2146
▁training	-2147
gu	-2148
sw	-2149
▁Co	-2150
▁taking	-2151
imate	-2152
▁loss	-2153
ama	-2154
▁justice	-2155
ler	-2156
▁Courts	-2157
IDENT	-2158
▁democ	-2159
▁Ph	-2160
itness	-2161
▁issue	-2162
▁rules	-2163
▁current	-2164
▁management	-2165
▁Mar	-2166
▁begin	-2167
▁provides	-2168
▁father	-2169
usion	-2170
ek	-2171
▁Par	-2172
ames	-2173
▁bea	-2174
▁24	-2175
▁forward	-2176
▁United	-2177
krit	-2178
▁legisl	-2179
▁fr	-2180
▁peace	-2181
illed	-2182
ship	-2183
▁*	-2184
ening	-2185
orpor	-2186
airs	-2187
▁PRESIDENT	-2188
▁near	-2189
▁early	-2190
▁transfer	-2191
▁institution	-2192
mission	-2193
▁Cl	-2194
ners	-2195
▁ant	-2196
▁sou	-2197
▁century	-2198
IS	-2199
▁Direct	-2200
▁External	-2201
▁asked	-2202
ots	-2203
▁193	-2204
▁greater	-2205
▁pri	-2206
▁carry	-2207
line	-2208
go	-2209
▁yet	-2210
ient	-2211
▁population	-2212
▁religion	-2213
▁mag	-2214
ani	-2215
▁developed	-2216
▁states	-2217
irl	-2218
uted	-2219
▁ele	-2220
▁credit	-2221
▁themselves	-2222
▁Div	-2223
▁bra	-2224
▁21	-2225
asing	-2226
isf	-2227
▁why	-2228
▁Such	-2229
▁neg	-2230
▁message	-2231
▁disease	-2232
▁compl	-2233
ead	-2234
htm	-2235
▁apply	-2236
▁influ	-2237
▁Kh	-2238
▁trib	-2239
▁condition	-2240
▁Board	-2241
▁port	-2242
▁establish	-2243
▁cast	-2244
▁Do	-2245
▁outside	-2246
▁experience	-2247
▁Justice	-2248
▁clear	-2249
▁Sabha	-2250
▁powers	-2251
▁allowed	-2252
vey	-2253
▁building	-2254
rest	-2255
▁charge	-2256
aun	-2257
ropri	-2258
▁really	-2259
val	-2260
ilt	-2261
▁introdu	-2262
ival	-2263
▁provision	-2264
▁assessment	-2265
▁red	-2266
▁consum	-2267
▁include	-2268
▁hy	-2269
▁tell	-2270
vi	-2271
▁appeal	-2272
▁culture	-2273
▁pun	-2274
▁mass	-2275
▁immedi	-2276
▁parties	-2277
mit	-2278
ask	-2279
▁jur	-2280
▁Techn	-2281
▁soon	-2282
fully	-2283
▁literature	-2284
▁books	-2285
▁programme	-2286
emed	-2287
inion	-2288
▁US	-2289
▁meeting	-2290
▁Pranab	-2291
aya	-2292
▁stage	-2293
▁ll	-2294
ilar	-2295
ored	-2296
ects	-2297
▁arr	-2298
▁SC	-2299
▁earlier	-2300
▁mention	-2301
over	-2302
▁city	-2303
▁anything	-2304
ilk	-2305
▁gave	-2306
▁Republic	-2307
▁Where	-2308
▁lay	-2309
avour	-2310
▁original	-2311
▁Pun	-2312
▁capacity	-2313
▁Public	-2314
va	-2315
▁exc	-2316
▁prep	-2317
▁aim	-2318
ulated	-2319
adi	-2320
orrow	-2321
▁writing	-2322
▁essential	-2323
cient	-2324
▁half	-2325
▁instru	-2326
▁structure	-2327
▁Rec	-2328
▁low	-2329
▁boy	-2330
▁signific	-2331
▁Int	-2332
▁actually	-2333
ixed	-2334
CT	-2335
ush	-2336
▁changes	-2337
eral	-2338
itable	-2339
▁Let	-2340
▁resources	-2341
▁Can	-2342
icient	-2343
▁exerc	-2344
▁whose	-2345
ift	-2346
▁assessee	-2347
▁wide	-2348
iddle	-2349
▁challen	-2350
lo	-2351
ousand	-2352
▁Our	-2353
▁almost	-2354
▁aud	-2355
▁create	-2356
▁fall	-2357
▁Information	-2358
▁22	-2359
▁bal	-2360
eed	-2361
▁attack	-2362
bar	-2363
▁duty	-2364
▁payment	-2365
▁physical	-2366
▁soft	-2367
eness	-2368
▁lat	-2369
chan	-2370
▁thus	-2371
ctions	-2372
▁Jan	-2373
ada	-2374
▁medical	-2375
▁works	-2376
▁situation	-2377
▁Bill	-2378
▁news	-2379
▁talk	-2380
▁lear	-2381
be	-2382
124	-2383
▁achieve	-2384
▁eight	-2385
jab	-2386
enty	-2387
▁Please	-2388
▁typ	-2389
anskrit	-2390
▁evidence	-2391
IA	-2392
▁bar	-2393
124;	-2394
▁&#124;	-2395
▁decided	-2396
▁Rel	-2397
▁issues	-2398
▁article	-2399
▁Brah	-2400
▁Arab	-2401
▁laws	-2402
▁woman	-2403
▁police	-2404
pecially	-2405
▁products	-2406
▁enter	-2407
▁50	-2408
▁West	-2409
▁king	-2410
▁Judge	-2411
▁satisf	-2412
▁nothing	-2413
ares	-2414
▁witness	-2415
men	-2416
▁issued	-2417
▁single	-2418
itude	-2419
▁Leg	-2420
▁least	-2421
▁transl	-2422
▁lot	-2423
oice	-2424
▁relev	-2425
ones	-2426
▁global	-2427
▁ensure	-2428
ams	-2429
▁innov	-2430
▁Even	-2431
▁efforts	-2432
tax	-2433
▁vers	-2434
▁May	-2435
▁award	-2436
▁X	-2437
abad	-2438
wise	-2439
anies	-2440
estern	-2441
rote	-2442
▁earth	-2443
▁thousand	-2444
▁indic	-2445
▁IND	-2446
▁Apr	-2447
▁science	-2448
▁Pal	-2449
▁son	-2450
aff	-2451
▁cover	-2452
▁private	-2453
br	-2454
oot	-2455
▁treatment	-2456
▁dr	-2457
osop	-2458
ufact	-2459
▁pati	-2460
▁prim	-2461
▁letter	-2462
▁conscious	-2463
▁jo	-2464
ew	-2465
▁fig	-2466
▁san	-2467
▁answ	-2468
▁sure	-2469
▁till	-2470
▁specific	-2471
undred	-2472
let	-2473
▁wr	-2474
▁job	-2475
▁ever	-2476
▁subs	-2477
▁makes	-2478
▁profession	-2479
▁23	-2480
▁improve	-2481
▁created	-2482
▁Report	-2483
▁II	-2484
anda	-2485
icers	-2486
▁While	-2487
augh	-2488
adem	-2489
overed	-2490
▁enough	-2491
▁April	-2492
▁rural	-2493
▁operation	-2494
▁inj	-2495
▁approach	-2496
ategory	-2497
▁kept	-2498
▁especially	-2499
eng	-2500
▁told	-2501
▁teacher	-2502
▁opportunity	-2503
▁obt	-2504
▁Cons	-2505
▁Sanskrit	-2506
nam	-2507
ators	-2508
▁univers	-2509
▁continue	-2510
▁proceedings	-2511
▁birth	-2512
▁wrote	-2513
▁26	-2514
▁tree	-2515
uary	-2516
▁repl	-2517
▁serious	-2518
ique	-2519
▁doing	-2520
ilosop	-2521
▁front	-2522
ging	-2523
▁leave	-2524
▁Trib	-2525
embly	-2526
▁increase	-2527
▁judicial	-2528
▁investment	-2529
▁govern	-2530
▁Pe	-2531
for	-2532
▁published	-2533
▁Bar	-2534
▁insp	-2535
▁behalf	-2536
▁procedure	-2537
▁Op	-2538
itting	-2539
▁Ins	-2540
bed	-2541
ires	-2542
▁depos	-2543
▁circum	-2544
estic	-2545
▁Commissioner	-2546
▁notice	-2547
▁South	-2548
▁temple	-2549
rect	-2550
▁sac	-2551
▁check	-2552
▁price	-2553
▁doub	-2554
▁Bi	-2555
▁Officer	-2556
hood	-2557
▁bur	-2558
▁meaning	-2559
pre	-2560
▁path	-2561
ourage	-2562
▁hundred	-2563
▁belong	-2564
▁road	-2565
mir	-2566
▁providing	-2567
ores	-2568
▁Mahar	-2569
▁By	-2570
▁hon	-2571
▁effective	-2572
aves	-2573
▁Med	-2574
▁jurisd	-2575
▁night	-2576
▁Legisl	-2577
▁spread	-2578
▁economy	-2579
▁similar	-2580
▁pros	-2581
▁vict	-2582
▁contract	-2583
roll	-2584
▁den	-2585
▁third	-2586
▁poor	-2587
face	-2588
agar	-2589
apter	-2590
▁opinion	-2591
▁appropri	-2592
▁carried	-2593
▁Mal	-2594
eech	-2595
inate	-2596
▁truth	-2597
▁Gur	-2598
▁seek	-2599
▁stru	-2600
▁Thus	-2601
▁Pak	-2602
▁lakh	-2603
my	-2604
▁tour	-2605
▁Dist	-2606
▁vide	-2607
▁Under	-2608
▁faith	-2609
eb	-2610
▁stop	-2611
▁popular	-2612
den	-2613
▁forms	-2614
▁administration	-2615
▁generally	-2616
▁quite	-2617
▁harm	-2618
▁contact	-2619
▁across	-2620
iture	-2621
play	-2622
▁distrib	-2623
▁mere	-2624
▁Article	-2625
▁manufact	-2626
▁Lord	-2627
encies	-2628
▁idea	-2629
▁sens	-2630
▁100	-2631
▁collect	-2632
▁27	-2633
rist	-2634
▁anal	-2635
▁coop	-2636
▁bill	-2637
▁prescribed	-2638
IR	-2639
▁List	-2640
ying	-2641
ili	-2642
sec	-2643
▁March	-2644
▁ris	-2645
utions	-2646
rastructure	-2647
▁Punjab	-2648
▁hands	-2649
▁accord	-2650
▁East	-2651
duc	-2652
▁percent	-2653
irt	-2654
▁reform	-2655
cle	-2656
gest	-2657
ules	-2658
▁Income	-2659
uck	-2660
▁stated	-2661
▁travel	-2662
▁courts	-2663
ump	-2664
▁source	-2665
endment	-2666
▁Chair	-2667
▁below	-2668
joy	-2669
▁relevant	-2670
▁Institute	-2671
▁size	-2672
▁Per	-2673
ivity	-2674
▁draw	-2675
▁During	-2676
ban	-2677
▁Your	-2678
▁places	-2679
▁International	-2680
rug	-2681
▁cut	-2682
▁basic	-2683
▁practice	-2684
▁log	-2685
etimes	-2686
▁cal	-2687
▁central	-2688
▁31	-2689
▁felt	-2690
▁Indust	-2691
▁petition	-2692
▁Add	-2693
▁river	-2694
▁giving	-2695
▁importance	-2696
▁aspect	-2697
▁emerg	-2698
▁sound	-2699
▁jour	-2700
▁crop	-2701
▁dri	-2702
▁facilities	-2703
racy	-2704
ights	-2705
▁girl	-2706
▁parent	-2707
▁foc	-2708
▁jurisdiction	-2709
hest	-2710
▁King	-2711
ex	-2712
hib	-2713
▁192	-2714
▁comb	-2715
▁plus	-2716
▁write	-2717
▁god	-2718
▁Sur	-2719
ulate	-2720
aka	-2721
▁Pakistan	-2722
▁becomes	-2723
leg	-2724
▁reach	-2725
arily	-2726
▁Spe	-2727
band	-2728
▁aware	-2729
by	-2730
earch	-2731
▁Trans	-2732
ouses	-2733
▁commercial	-2734
pal	-2735
ED	-2736
uly	-2737
▁li	-2738
▁firm	-2739
▁event	-2740
osition	-2741
▁measures	-2742
▁bi	-2743
▁note	-2744
▁statement	-2745
▁laun	-2746
▁recommend	-2747
▁Governor	-2748
▁marriage	-2749
▁philosop	-2750
▁According	-2751
istration	-2752
▁potential	-2753
dom	-2754
▁accused	-2755
▁agreement	-2756
▁fast	-2757
AS	-2758
▁mer	-2759
▁Service	-2760
▁Afric	-2761
com	-2762
▁repe	-2763
▁IN	-2764
▁oil	-2765
▁strength	-2766
raft	-2767
▁dam	-2768
▁Calc	-2769
.0	-2770
iry	-2771
ender	-2772
▁happy	-2773
▁circumst	-2774
▁comes	-2775
▁citizens	-2776
avi	-2777
▁coun	-2778
▁wife	-2779
utta	-2780
ously	-2781
▁began	-2782
▁regular	-2783
aker	-2784
▁novel	-2785
▁Pur	-2786
▁spiritual	-2787
adu	-2788
▁Qu	-2789
▁Krish	-2790
▁existing	-2791
▁enjoy	-2792
gy	-2793
▁hope	-2794
▁followed	-2795
ava	-2796
▁stri	-2797
▁prevent	-2798
gar	-2799
ume	-2800
haps	-2801
▁install	-2802
▁criminal	-2803
▁exchange	-2804
▁Day	-2805
▁room	-2806
▁constitution	-2807
ned	-2808
▁Then	-2809
▁pers	-2810
▁–	-2811
▁disp	-2812
▁benefit	-2813
▁groups	-2814
▁usually	-2815
▁Mem	-2816
▁sun	-2817
▁whom	-2818
▁programmes	-2819
ney	-2820
▁camp	-2821
ables	-2822
▁brother	-2823
▁judge	-2824
yond	-2825
▁gives	-2826
part	-2827
▁anim	-2828
▁bound	-2829
▁simple	-2830
ancy	-2831
▁punish	-2832
▁activity	-2833
▁lower	-2834
amental	-2835
▁wrong	-2836
▁believe	-2837
▁responsible	-2838
▁und	-2839
▁prior	-2840
▁trust	-2841
▁mot	-2842
▁wid	-2843
▁mov	-2844
▁bit	-2845
▁milit	-2846
▁space	-2847
▁attempt	-2848
▁particularly	-2849
▁existence	-2850
standing	-2851
▁Educ	-2852
iles	-2853
▁until	-2854
▁emp	-2855
▁film	-2856
ras	-2857
▁Som	-2858
▁concept	-2859
▁says	-2860
▁Net	-2861
▁Sm	-2862
nces	-2863
▁Tra	-2864
▁behind	-2865
▁deg	-2866
▁increased	-2867
▁appropriate	-2868
equ	-2869
▁Sa	-2870
▁Secret	-2871
▁unit	-2872
ingu	-2873
▁offence	-2874
▁lost	-2875
ox	-2876
char	-2877
▁heav	-2878
▁Wor	-2879
▁doct	-2880
▁request	-2881
ificate	-2882
▁American	-2883
▁28	-2884
▁sex	-2885
▁fair	-2886
▁Every	-2887
unal	-2888
▁prop	-2889
▁diss	-2890
▁soul	-2891
istered	-2892
utes	-2893
▁cultural	-2894
alty	-2895
▁mount	-2896
▁conver	-2897
▁mom	-2898
▁Technology	-2899
▁dire	-2900
▁rich	-2901
body	-2902
▁mand	-2903
▁beginning	-2904
enth	-2905
▁consist	-2906
▁song	-2907
kar	-2908
▁qual	-2909
▁poll	-2910
gn	-2911
▁nor	-2912
ont	-2913
▁lives	-2914
amed	-2915
▁Har	-2916
▁wall	-2917
▁Ma	-2918
▁led	-2919
▁Calcutta	-2920
▁ep	-2921
▁der	-2922
rif	-2923
▁mut	-2924
▁forest	-2925
hem	-2926
ault	-2927
▁stay	-2928
▁final	-2929
▁search	-2930
▁tele	-2931
▁rather	-2932
uls	-2933
▁Corpor	-2934
new	-2935
▁occur	-2936
▁Plan	-2937
▁35	-2938
isters	-2939
▁limited	-2940
▁win	-2941
▁eyes	-2942
▁relation	-2943
▁circumstances	-2944
▁host	-2945
▁INDIA	-2946
▁values	-2947
▁beyond	-2948
▁Mu	-2949
▁significant	-2950
▁schol	-2951
▁addition	-2952
▁TO	-2953
▁feed	-2954
▁Lok	-2955
▁crore	-2956
▁takes	-2957
▁histor	-2958
▁protection	-2959
▁saw	-2960
sy	-2961
▁Code	-2962
▁continued	-2963
use	-2964
▁appl	-2965
▁projects	-2966
▁systems	-2967
▁Sar	-2968
▁ideas	-2969
▁alone	-2970
war	-2971
▁adj	-2972
▁warm	-2973
▁employment	-2974
▁Bal	-2975
▁born	-2976
▁Ak	-2977
etic	-2978
▁built	-2979
▁remain	-2980
▁accepted	-2981
▁industries	-2982
▁poetry	-2983
▁World	-2984
▁2000	-2985
iff	-2986
▁expression	-2987
though	-2988
▁learning	-2989
▁appointed	-2990
▁unf	-2991
▁limit	-2992
▁Budd	-2993
atures	-2994
anation	-2995
▁seven	-2996
ober	-2997
ishes	-2998
ades	-2999
▁Author	-3000
rick	-3001
▁infrastructure	-3002
AY	-3003
▁continu	-3004
▁protect	-3005
enditure	-3006
▁responsibility	-3007
reg	-3008
ris	-3009
▁Gang	-3010
▁dig	-3011
▁Prime	-3012
▁Pat	-3013
▁banks	-3014
▁IT	-3015
▁emb	-3016
oon	-3017
ouch	-3018
ograph	-3019
▁round	-3020
ze	-3021
▁trial	-3022
▁prob	-3023
iful	-3024
▁reference	-3025
ruit	-3026
▁Any	-3027
ami	-3028
▁arbit	-3029
▁strugg	-3030
▁Kash	-3031
▁Christ	-3032
▁From	-3033
▁getting	-3034
rim	-3035
▁seed	-3036
lege	-3037
elling	-3038
▁coming	-3039
▁mental	-3040
▁ways	-3041
▁cross	-3042
▁proposed	-3043
▁immediately	-3044
▁officer	-3045
▁Adv	-3046
▁$	-3047
rary	-3048
▁assistance	-3049
asons	-3050
▁Sat	-3051
ene	-3052
▁Bl	-3053
abor	-3054
▁setting	-3055
▁Bomb	-3056
▁sust	-3057
▁joint	-3058
▁dre	-3059
▁har	-3060
verage	-3061
▁includes	-3062
▁observed	-3063
vest	-3064
▁appre	-3065
▁arrest	-3066
▁Tam	-3067
utive	-3068
▁plants	-3069
▁normal	-3070
▁loan	-3071
▁increasing	-3072
ulations	-3073
▁details	-3074
▁music	-3075
▁wanted	-3076
anced	-3077
▁Many	-3078
▁Prof	-3079
▁nar	-3080
▁Des	-3081
▁direction	-3082
▁broad	-3083
▁formed	-3084
yle	-3085
▁functions	-3086
▁mechan	-3087
▁else	-3088
▁teach	-3089
▁mentioned	-3090
omp	-3091
▁cy	-3092
miss	-3093
▁drug	-3094
vention	-3095
▁officers	-3096
▁territ	-3097
▁forces	-3098
▁Kashmir	-3099
omen	-3100
ucle	-3101
▁Ved	-3102
▁pal	-3103
▁hosp	-3104
▁safe	-3105
▁Expl	-3106
▁device	-3107
▁Program	-3108
▁produce	-3109
▁Guj	-3110
ellow	-3111
ley	-3112
usp	-3113
oted	-3114
▁dedu	-3115
▁status	-3116
▁lit	-3117
bol	-3118
▁engine	-3119
▁consideration	-3120
▁ste	-3121
ading	-3122
▁Centre	-3123
abh	-3124
umbai	-3125
▁opt	-3126
▁purs	-3127
▁perf	-3128
▁attract	-3129
▁agricultural	-3130
▁violence	-3131
▁respond	-3132
▁strengt	-3133
rant	-3134
▁document	-3135
▁transport	-3136
rs	-3137
uman	-3138
oke	-3139
▁goes	-3140
▁January	-3141
▁instrument	-3142
▁ru	-3143
▁cele	-3144
▁presented	-3145
▁secret	-3146
▁ancient	-3147
RI	-3148
▁sil	-3149
▁Fund	-3150
▁disci	-3151
▁fire	-3152
▁scale	-3153
▁famous	-3154
▁Bombay	-3155
▁connect	-3156
gment	-3157
where	-3158
▁prepared	-3159
ellect	-3160
▁speech	-3161
▁animals	-3162
▁America	-3163
▁fem	-3164
▁Sept	-3165
▁copy	-3166
▁paper	-3167
▁Sim	-3168
ograp	-3169
▁workers	-3170
know	-3171
▁companies	-3172
iva	-3173
▁North	-3174
▁Education	-3175
▁sn	-3176
▁relationship	-3177
osis	-3178
▁arch	-3179
ales	-3180
▁medic	-3181
▁refers	-3182
▁Aug	-3183
▁fight	-3184
cer	-3185
▁hus	-3186
▁included	-3187
▁max	-3188
▁languages	-3189
▁minus	-3190
▁receive	-3191
▁complaint	-3192
oor	-3193
▁fear	-3194
▁longer	-3195
▁partners	-3196
hic	-3197
anger	-3198
▁added	-3199
▁depend	-3200
▁active	-3201
▁्	-3202
html	-3203
attle	-3204
inated	-3205
▁connection	-3206
ikh	-3207
ini	-3208
reen	-3209
▁rad	-3210
icro	-3211
▁Bab	-3212
▁polic	-3213
▁extent	-3214
▁week	-3215
elfare	-3216
▁otherwise	-3217
▁correct	-3218
▁Fore	-3219
▁favour	-3220
▁wish	-3221
▁imag	-3222
icit	-3223
▁ign	-3224
inite	-3225
▁imper	-3226
▁memory	-3227
asa	-3228
▁obl	-3229
▁Of	-3230
▁pranab	-3231
hru	-3232
▁Oct	-3233
ATION	-3234
▁page	-3235
▁review	-3236
▁af	-3237
▁user	-3238
▁attention	-3239
PC	-3240
▁accounts	-3241
▁fixed	-3242
▁involved	-3243
▁Provided	-3244
NA	-3245
▁coll	-3246
▁pain	-3247
▁moment	-3248
▁pranabm	-3249
▁pranabmukherjee	-3250
▁base	-3251
▁arrange	-3252
esides	-3253
▁break	-3254
▁Assembly	-3255
ton	-3256
▁Tur	-3257
▁tried	-3258
▁units	-3259
▁supply	-3260
EE	-3261
enced	-3262
▁sold	-3263
▁tool	-3264
▁caused	-3265
▁sea	-3266
▁directly	-3267
▁Bang	-3268
ensive	-3269
head	-3270
▁twenty	-3271
▁produced	-3272
hra	-3273
uge	-3274
▁dram	-3275
▁consult	-3276
ratic	-3277
▁black	-3278
▁interests	-3279
road	-3280
▁task	-3281
▁Work	-3282
▁40	-3283
▁2005	-3284
▁display	-3285
▁beaut	-3286
nal	-3287
▁Tw	-3288
▁expenditure	-3289
▁hor	-3290
▁funds	-3291
▁separate	-3292
cember	-3293
▁friends	-3294
stituted	-3295
▁Tax	-3296
ey	-3297
▁ago	-3298
asure	-3299
▁pict	-3300
aughter	-3301
▁accordance	-3302
▁bad	-3303
▁stra	-3304
▁Open	-3305
▁types	-3306
▁Cr	-3307
ites	-3308
▁scientific	-3309
▁labour	-3310
▁Chairman	-3311
▁adopted	-3312
ext	-3313
▁ww	-3314
▁documents	-3315
ticles	-3316
▁Sch	-3317
▁June	-3318
▁speed	-3319
▁Scheme	-3320
▁Hy	-3321
▁www	-3322
▁inform	-3323
la	-3324
▁milk	-3325
▁Sri	-3326
▁December	-3327
▁democracy	-3328
▁doubt	-3329
▁contained	-3330
▁UN	-3331
itled	-3332
▁occup	-3333
▁standard	-3334
▁vision	-3335
▁domestic	-3336
▁appe	-3337
▁heard	-3338
hens	-3339
▁Utt	-3340
▁intellect	-3341
▁Ac	-3342
▁video	-3343
▁white	-3344
▁unless	-3345
▁standards	-3346
▁Well	-3347
▁strateg	-3348
▁Tamil	-3349
ids	-3350
atever	-3351
▁Mumbai	-3352
▁Account	-3353
gen	-3354
▁2014	-3355
vere	-3356
▁tar	-3357
▁exercise	-3358
▁pred	-3359
▁assets	-3360
oting	-3361
▁Whe	-3362
▁remov	-3363
▁highest	-3364
▁employees	-3365
IL	-3366
to	-3367
iny	-3368
▁reached	-3369
▁questions	-3370
▁Er	-3371
▁Africa	-3372
▁husband	-3373
▁software	-3374
▁clean	-3375
▁29	-3376
abled	-3377
▁Shah	-3378
▁complex	-3379
▁revolution	-3380
▁Fir	-3381
etail	-3382
▁contribution	-3383
▁fre	-3384
▁pie	-3385
▁=	-3386
▁Kal	-3387
▁ton	-3388
▁laid	-3389
▁September	-3390
▁ge	-3391
▁north	-3392
▁Mon	-3393
▁32	-3394
ternet	-3395
▁August	-3396
▁advance	-3397
UR	-3398
que	-3399
osing	-3400
▁town	-3401
add	-3402
▁tur	-3403
▁image	-3404
▁likely	-3405
▁print	-3406
▁multip	-3407
▁summ	-3408
▁stor	-3409
▁Asia	-3410
▁2015	-3411
▁Krishna	-3412
▁substant	-3413
▁System	-3414
oly	-3415
▁offer	-3416
▁October	-3417
▁beautiful	-3418
▁steps	-3419
▁easy	-3420
▁effort	-3421
▁Director	-3422
▁Nehru	-3423
phas	-3424
▁Sam	-3425
verse	-3426
▁pack	-3427
▁influence	-3428
▁dy	-3429
AC	-3430
▁numbers	-3431
▁generation	-3432
▁context	-3433
▁distin	-3434
ellig	-3435
▁purch	-3436
▁Indians	-3437
▁performance	-3438
▁reasons	-3439
▁species	-3440
▁insurance	-3441
ength	-3442
▁Civil	-3443
▁pattern	-3444
▁hours	-3445
▁assign	-3446
ager	-3447
▁bod	-3448
▁Char	-3449
▁furn	-3450
▁leading	-3451
▁Air	-3452
▁quick	-3453
▁export	-3454
▁technical	-3455
▁fold	-3456
▁risk	-3457
▁Its	-3458
▁Category	-3459
▁Research	-3460
has	-3461
izing	-3462
▁weak	-3463
▁costs	-3464
▁placed	-3465
▁recent	-3466
cription	-3467
▁swe	-3468
▁south	-3469
▁largest	-3470
▁middle	-3471
▁majority	-3472
oll	-3473
ora	-3474
uration	-3475
▁CO	-3476
▁District	-3477
▁organisation	-3478
▁Bas	-3479
oved	-3480
▁celebr	-3481
▁sometimes	-3482
▁results	-3483
▁connected	-3484
▁minor	-3485
▁Palest	-3486
▁Western	-3487
▁cells	-3488
▁military	-3489
▁exceed	-3490
▁growing	-3491
▁policies	-3492
▁opportunities	-3493
▁Other	-3494
▁frame	-3495
▁util	-3496
ressed	-3497
▁described	-3498
▁Ker	-3499
▁Judges	-3500
▁orders	-3501
onst	-3502
▁range	-3503
▁tradition	-3504
ground	-3505
▁answer	-3506
▁struggle	-3507
▁instead	-3508
iment	-3509
▁implementation	-3510
▁independence	-3511
-2	-3512
▁Mag	-3513
▁charges	-3514
▁threat	-3515
▁educational	-3516
▁mob	-3517
▁academ	-3518
▁Dev	-3519
▁fully	-3520
▁2013	-3521
▁consciousness	-3522
rid	-3523
▁rail	-3524
▁Red	-3525
▁tri	-3526
▁Elect	-3527
▁conflic	-3528
▁consequ	-3529
▁mail	-3530
▁model	-3531
▁patient	-3532
olute	-3533
▁balance	-3534
▁affected	-3535
▁dark	-3536
▁mode	-3537
▁temper	-3538
▁deemed	-3539
▁former	-3540
▁Val	-3541
ashtra	-3542
▁seems	-3543
▁egg	-3544
▁fort	-3545
▁focus	-3546
▁Person	-3547
▁green	-3548
▁victim	-3549
▁nucle	-3550
▁Hindus	-3551
▁July	-3552
▁ones	-3553
▁Explanation	-3554
atha	-3555
▁pan	-3556
▁principle	-3557
▁Are	-3558
ING	-3559
▁Gh	-3560
▁2007	-3561
▁media	-3562
▁quant	-3563
ipt	-3564
aught	-3565
▁origin	-3566
▁Prot	-3567
ateral	-3568
▁measure	-3569
▁regarding	-3570
▁fine	-3571
ysis	-3572
▁registered	-3573
pped	-3574
ional	-3575
▁understanding	-3576
▁China	-3577
▁Nove	-3578
▁team	-3579
▁gri	-3580
▁inside	-3581
uff	-3582
cience	-3583
▁average	-3584
▁payable	-3585
▁NA	-3586
▁independent	-3587
▁Up	-3588
▁Chapter	-3589
▁declared	-3590
▁selected	-3591
▁hab	-3592
▁vac	-3593
▁People	-3594
▁looking	-3595
asc	-3596
ole	-3597
▁asset	-3598
▁command	-3599
umn	-3600
rown	-3601
▁refer	-3602
ensation	-3603
raw	-3604
▁gold	-3605
▁corpor	-3606
▁Special	-3607
▁facilit	-3608
ression	-3609
▁perhaps	-3610
▁farmers	-3611
▁authorities	-3612
ti	-3613
▁Tag	-3614
▁extra	-3615
▁November	-3616
▁guid	-3617
ields	-3618
▁Islamic	-3619
▁content	-3620
OS	-3621
▁Ob	-3622
▁cooperation	-3623
▁traditional	-3624
.3	-3625
▁animal	-3626
▁agriculture	-3627
▁Rules	-3628
quiry	-3629
resh	-3630
▁stock	-3631
porary	-3632
▁First	-3633
▁Gandhiji	-3634
▁associated	-3635
▁Uttar	-3636
▁Def	-3637
▁nom	-3638
iet	-3639
▁War	-3640
▁views	-3641
asth	-3642
▁Management	-3643
▁leader	-3644
inery	-3645
▁earn	-3646
▁rap	-3647
▁Here	-3648
iciency	-3649
leep	-3650
▁adequ	-3651
▁emphas	-3652
▁sections	-3653
with	-3654
▁presence	-3655
▁dead	-3656
▁advice	-3657
oga	-3658
▁lack	-3659
▁multi	-3660
▁useful	-3661
▁certificate	-3662
ishn	-3663
overy	-3664
▁youth	-3665
▁uns	-3666
▁More	-3667
▁Therefore	-3668
view	-3669
▁reve	-3670
▁length	-3671
▁creation	-3672
▁extended	-3673
▁80	-3674
▁prem	-3675
ography	-3676
oms	-3677
▁eye	-3678
itle	-3679
▁unc	-3680
order	-3681
▁style	-3682
▁terrorism	-3683
pond	-3684
▁advant	-3685
▁located	-3686
ayan	-3687
▁speak	-3688
pir	-3689
▁Pand	-3690
▁autom	-3691
▁needed	-3692
▁larger	-3693
▁sentence	-3694
▁Inf	-3695
▁fra	-3696
▁divine	-3697
uties	-3698
idy	-3699
irm	-3700
▁rout	-3701
▁benefits	-3702
▁Division	-3703
aily	-3704
illing	-3705
ocation	-3706
▁centre	-3707
▁hospital	-3708
▁additional	-3709
▁fulf	-3710
LE	-3711
▁Roy	-3712
▁Ter	-3713
▁failed	-3714
▁symbol	-3715
▁Feb	-3716
▁committed	-3717
▁01	-3718
▁extreme	-3719
▁developing	-3720
▁Corporation	-3721
▁principles	-3722
▁San	-3723
▁hot	-3724
▁won	-3725
▁introduced	-3726
▁AND	-3727
▁schemes	-3728
▁Ur	-3729
aded	-3730
▁shown	-3731
▁difference	-3732
▁2006	-3733
▁Policy	-3734
ula	-3735
▁drink	-3736
▁perman	-3737
▁Project	-3738
uled	-3739
▁iii	-3740
▁60	-3741
dule	-3742
ipur	-3743
▁Aut	-3744
arant	-3745
▁ball	-3746
hat	-3747
▁expressed	-3748
▁Most	-3749
▁calc	-3750
▁stories	-3751
▁fest	-3752
▁registration	-3753
▁IS	-3754
▁Rem	-3755
▁Excell	-3756
nes	-3757
▁ON	-3758
▁enact	-3759
▁chem	-3760
▁Child	-3761
▁promote	-3762
▁Ge	-3763
enior	-3764
▁Chandra	-3765
AP	-3766
we	-3767
▁Bhag	-3768
▁announ	-3769
▁wealth	-3770
▁objective	-3771
▁successful	-3772
▁Cap	-3773
▁namely	-3774
▁Conference	-3775
▁Set	-3776
▁2008	-3777
▁Organ	-3778
▁thinking	-3779
icate	-3780
▁everything	-3781
▁191	-3782
arma	-3783
apers	-3784
▁cash	-3785
oured	-3786
▁levels	-3787
▁someone	-3788
itis	-3789
▁rise	-3790
ervation	-3791
oo	-3792
icated	-3793
▁covered	-3794
▁1961	-3795
▁extend	-3796
ga	-3797
▁pric	-3798
▁penalty	-3799
ops	-3800
ially	-3801
vious	-3802
▁examination	-3803
iciary	-3804
▁danger	-3805
▁England	-3806
▁operations	-3807
▁Germ	-3808
▁chann	-3809
▁played	-3810
▁appreci	-3811
▁processing	-3812
pper	-3813
▁names	-3814
▁poems	-3815
▁shows	-3816
▁villages	-3817
▁contains	-3818
▁commit	-3819
▁mal	-3820
light	-3821
▁soil	-3822
▁graph	-3823
ows	-3824
▁item	-3825
▁Secretary	-3826
tion	-3827
▁Kum	-3828
ailed	-3829
uation	-3830
ague	-3831
▁virt	-3832
▁Maharashtra	-3833
▁wel	-3834
ifying	-3835
▁Tribunal	-3836
▁construction	-3837
▁fif	-3838
▁lines	-3839
▁Us	-3840
usive	-3841
▁ideal	-3842
▁Iran	-3843
▁minimum	-3844
▁phot	-3845
▁Dh	-3846
▁Bec	-3847
force	-3848
▁machine	-3849
▁storage	-3850
▁sale	-3851
▁collection	-3852
▁merely	-3853
▁files	-3854
▁Mo	-3855
aches	-3856
▁Mod	-3857
venue	-3858
▁walk	-3859
ube	-3860
▁friendly	-3861
▁resident	-3862
adh	-3863
ahar	-3864
▁tal	-3865
▁constant	-3866
▁Nar	-3867
▁judges	-3868
▁running	-3869
▁temples	-3870
▁2002	-3871
▁changed	-3872
▁publication	-3873
ruary	-3874
▁skin	-3875
▁variety	-3876
▁entitled	-3877
dden	-3878
itch	-3879
▁bed	-3880
▁weight	-3881
▁lic	-3882
▁grand	-3883
cribe	-3884
▁surface	-3885
▁AT	-3886
ript	-3887
▁easily	-3888
▁unique	-3889
▁parents	-3890
ronic	-3891
aji	-3892
▁ship	-3893
▁vital	-3894
▁contem	-3895
▁raised	-3896
omic	-3897
eties	-3898
▁worship	-3899
▁cat	-3900
▁dispos	-3901
▁remark	-3902
▁department	-3903
▁impact	-3904
▁prosper	-3905
aging	-3906
▁primary	-3907
▁external	-3908
rated	-3909
▁site	-3910
▁code	-3911
▁pray	-3912
word	-3913
▁morning	-3914
lands	-3915
▁cand	-3916
iverse	-3917
▁February	-3918
olid	-3919
unic	-3920
enses	-3921
ertain	-3922
▁desire	-3923
▁relief	-3924
▁engaged	-3925
CC	-3926
▁bow	-3927
▁Inter	-3928
▁block	-3929
▁Tagore	-3930
▁square	-3931
▁Authority	-3932
▁Di	-3933
▁gets	-3934
▁Kerala	-3935
▁defined	-3936
▁session	-3937
ero	-3938
▁maximum	-3939
ighb	-3940
▁unity	-3941
▁Services	-3942
▁chief	-3943
▁Judicial	-3944
IV	-3945
▁expected	-3946
▁Fl	-3947
▁female	-3948
▁looked	-3949
rows	-3950
▁remains	-3951
▁resolution	-3952
omy	-3953
▁vehic	-3954
▁Second	-3955
▁190	-3956
▁scholars	-3957
▁greet	-3958
▁withd	-3959
abilities	-3960
▁Nep	-3961
▁European	-3962
hab	-3963
▁board	-3964
aled	-3965
pees	-3966
▁critic	-3967
▁duties	-3968
▁wait	-3969
▁element	-3970
▁elements	-3971
▁Why	-3972
▁Inst	-3973
▁equip	-3974
aken	-3975
▁Since	-3976
▁Their	-3977
▁shares	-3978
▁philosophy	-3979
ilateral	-3980
▁Finance	-3981
▁Agricult	-3982
▁filed	-3983
▁excell	-3984
▁Also	-3985
▁slow	-3986
▁ready	-3987
▁fundamental	-3988
▁cere	-3989
▁neighb	-3990
▁Ah	-3991
▁convey	-3992
▁organization	-3993
prene	-3994
▁Sir	-3995
▁enable	-3996
verty	-3997
inet	-3998
▁cho	-3999
▁individuals	-4000
iting	-4001
▁rain	-4002
▁valid	-4003
▁Administr	-4004
▁sup	-4005
▁Though	-4006
▁poverty	-4007
▁rele	-4008
▁indeed	-4009
▁Mark	-4010
enance	-4011
▁nations	-4012
rav	-4013
onse	-4014
reprene	-4015
▁whatever	-4016
▁cou	-4017
▁card	-4018
sych	-4019
▁acts	-4020
▁trying	-4021
▁communication	-4022
uries	-4023
▁magn	-4024
anes	-4025
▁error	-4026
▁expect	-4027
▁feeling	-4028
heduled	-4029
▁studies	-4030
▁moral	-4031
▁saying	-4032
▁ast	-4033
▁annual	-4034
▁medium	-4035
▁enterpr	-4036
▁applications	-4037
▁discipl	-4038
▁flu	-4039
▁pure	-4040
▁prosec	-4041
▁series	-4042
▁Because	-4043
▁throughout	-4044
ilies	-4045
▁send	-4046
▁reading	-4047
▁minister	-4048
▁feet	-4049
II	-4050
▁facts	-4051
▁cultiv	-4052
▁articles	-4053
▁Soci	-4054
▁susp	-4055
hya	-4056
▁excl	-4057
▁items	-4058
▁Lim	-4059
▁ult	-4060
▁affect	-4061
▁turned	-4062
▁requires	-4063
aja	-4064
▁sacrif	-4065
▁integral	-4066
▁Panch	-4067
▁frequ	-4068
▁Gujarat	-4069
lex	-4070
▁points	-4071
uit	-4072
ivery	-4073
▁leaves	-4074
▁Governments	-4075
oti	-4076
▁entry	-4077
erative	-4078
omet	-4079
▁Princi	-4080
▁granted	-4081
atma	-4082
▁Amendment	-4083
ests	-4084
▁rapid	-4085
▁degree	-4086
▁prison	-4087
▁Members	-4088
▁aspects	-4089
▁Pres	-4090
▁compon	-4091
BI	-4092
aviour	-4093
▁divided	-4094
▁removal	-4095
aksh	-4096
▁sem	-4097
▁mainly	-4098
▁Ant	-4099
istics	-4100
▁sudden	-4101
ferences	-4102
▁36	-4103
▁suc	-4104
eless	-4105
▁pressure	-4106
▁practices	-4107
▁president	-4108
▁2001	-4109
▁Karn	-4110
▁touch	-4111
▁Social	-4112
▁methods	-4113
fort	-4114
▁Tod	-4115
▁powerful	-4116
ogle	-4117
▁Art	-4118
▁agency	-4119
▁suit	-4120
▁causes	-4121
▁ST	-4122
▁Ann	-4123
▁dischar	-4124
▁incident	-4125
oming	-4126
▁suggested	-4127
ped	-4128
▁mur	-4129
oud	-4130
essing	-4131
▁quar	-4132
ricket	-4133
ja	-4134
aug	-4135
▁Dem	-4136
▁receipt	-4137
▁incl	-4138
▁impl	-4139
▁delay	-4140
▁Aud	-4141
▁Langu	-4142
▁literary	-4143
rate	-4144
lying	-4145
▁fert	-4146
▁foot	-4147
▁fields	-4148
▁safety	-4149
▁defence	-4150
osh	-4151
▁2012	-4152
▁vast	-4153
▁offered	-4154
▁Rama	-4155
▁bear	-4156
▁requirements	-4157
india	-4158
rance	-4159
▁Guru	-4160
ousing	-4161
▁target	-4162
▁nut	-4163
▁rare	-4164
▁tend	-4165
cript	-4166
▁anti	-4167
▁staff	-4168
▁electric	-4169
▁tiss	-4170
▁belief	-4171
▁Pan	-4172
▁adequate	-4173
▁intellig	-4174
▁shape	-4175
▁Official	-4176
▁confident	-4177
▁daily	-4178
▁meant	-4179
▁contain	-4180
▁distribution	-4181
▁fee	-4182
▁welfare	-4183
▁daughter	-4184
▁sav	-4185
▁upd	-4186
▁universal	-4187
▁Her	-4188
▁wond	-4189
▁distance	-4190
▁gone	-4191
▁named	-4192
▁schools	-4193
▁succeed	-4194
ishing	-4195
▁sides	-4196
▁promotion	-4197
▁km	-4198
anas	-4199
▁Stand	-4200
▁completed	-4201
▁PRO	-4202
oph	-4203
▁convers	-4204
enture	-4205
▁Bharat	-4206
▁Ed	-4207
▁Vis	-4208
▁Aust	-4209
▁Associ	-4210
▁follows	-4211
▁male	-4212
▁lived	-4213
▁Health	-4214
▁cities	-4215
▁wishes	-4216
ps	-4217
▁33	-4218
iring	-4219
▁Akbar	-4220
▁destro	-4221
artments	-4222
▁discussion	-4223
actions	-4224
nel	-4225
vis	-4226
▁trou	-4227
▁factors	-4228
▁treated	-4229
▁teachers	-4230
▁construct	-4231
▁Whether	-4232
▁confidence	-4233
▁Out	-4234
▁eat	-4235
imately	-4236
chand	-4237
▁expand	-4238
olved	-4239
▁School	-4240
▁sectors	-4241
aign	-4242
mosp	-4243
▁Car	-4244
▁Jap	-4245
asthan	-4246
▁election	-4247
▁1999	-4248
▁caste	-4249
▁rock	-4250
ils	-4251
una	-4252
▁knew	-4253
▁highly	-4254
▁Palestin	-4255
athy	-4256
▁events	-4257
▁establishment	-4258
▁argu	-4259
▁learned	-4260
▁regional	-4261
▁bab	-4262
▁Bengali	-4263
atter	-4264
▁root	-4265
▁fresh	-4266
▁altern	-4267
▁association	-4268
-201	-4269
▁esc	-4270
respond	-4271
▁actual	-4272
▁beauty	-4273
▁returned	-4274
▁appears	-4275
▁maintain	-4276
▁positive	-4277
▁serve	-4278
▁remember	-4279
▁figure	-4280
▁volunt	-4281
▁worked	-4282
▁Mahatma	-4283
▁believed	-4284
▁Kol	-4285
▁Sal	-4286
▁Only	-4287
▁died	-4288
▁script	-4289
▁encoura	-4290
▁songs	-4291
▁bodies	-4292
▁master	-4293
▁avoid	-4294
izations	-4295
▁intellectual	-4296
▁gas	-4297
▁mid	-4298
urate	-4299
▁Himal	-4300
▁veget	-4301
▁reality	-4302
▁pleasure	-4303
cher	-4304
▁pra	-4305
▁capt	-4306
▁Group	-4307
▁machinery	-4308
▁strengthen	-4309
▁door	-4310
▁abroad	-4311
▁option	-4312
▁absolute	-4313
▁insects	-4314
▁academic	-4315
▁cru	-4316
▁34	-4317
▁Error	-4318
▁color	-4319
▁version	-4320
▁probably	-4321
▁decisions	-4322
co	-4323
ken	-4324
▁internal	-4325
▁Ro	-4326
▁bond	-4327
▁default	-4328
▁diseases	-4329
▁determined	-4330
▁rupees	-4331
▁punishment	-4332
▁heavy	-4333
▁nuclear	-4334
the	-4335
▁sleep	-4336
▁SE	-4337
▁bri	-4338
▁opening	-4339
▁families	-4340
▁pil	-4341
▁Russ	-4342
▁station	-4343
▁partnership	-4344
▁failure	-4345
RA	-4346
umer	-4347
▁dial	-4348
ception	-4349
▁branch	-4350
▁proved	-4351
▁Besides	-4352
▁Excellency	-4353
set	-4354
cast	-4355
▁newsp	-4356
▁atmosp	-4357
▁clearly	-4358
ming	-4359
▁Khan	-4360
ties	-4361
▁Nav	-4362
udget	-4363
▁arri	-4364
▁Google	-4365
▁carrying	-4366
▁dim	-4367
▁joy	-4368
▁Post	-4369
▁agreed	-4370
▁rank	-4371
▁investigation	-4372
ARD	-4373
urt	-4374
▁agencies	-4375
ae	-4376
▁buy	-4377
▁keeping	-4378
vert	-4379
ifest	-4380
▁table	-4381
▁Programme	-4382
yan	-4383
▁id	-4384
▁borrow	-4385
▁response	-4386
▁happened	-4387
▁army	-4388
▁prec	-4389
isms	-4390
▁Bel	-4391
▁voice	-4392
▁Today	-4393
▁prepar	-4394
▁thereof	-4395
▁delivery	-4396
▁goal	-4397
▁aw	-4398
iling	-4399
▁dated	-4400
ologies	-4401
▁mutual	-4402
▁innovation	-4403
▁experi	-4404
▁conflict	-4405
▁sufficient	-4406
▁CH	-4407
▁cold	-4408
▁estim	-4409
▁recommended	-4410
rupt	-4411
▁Ham	-4412
▁Inc	-4413
putes	-4414
▁Further	-4415
▁controll	-4416
▁Form	-4417
▁Assam	-4418
▁Buddh	-4419
▁attend	-4420
▁distingu	-4421
▁petitioner	-4422
cip	-4423
▁enem	-4424
▁Assist	-4425
▁season	-4426
▁Legislative	-4427
▁compensation	-4428
stitu	-4429
▁dealing	-4430
▁45	-4431
iance	-4432
▁late	-4433
▁passing	-4434
▁deduction	-4435
ray	-4436
▁Power	-4437
▁grass	-4438
▁candid	-4439
▁BC	-4440
erted	-4441
▁amongst	-4442
▁accident	-4443
▁Ira	-4444
▁hero	-4445
▁input	-4446
▁profit	-4447
▁reasonable	-4448
eria	-4449
▁Sah	-4450
▁Rajya	-4451
▁constituted	-4452
▁suitable	-4453
▁leadership	-4454
rust	-4455
▁Proced	-4456
▁select	-4457
▁officials	-4458
▁Bihar	-4459
▁Independ	-4460
arian	-4461
▁launched	-4462
▁features	-4463
ira	-4464
▁doctor	-4465
▁Men	-4466
▁urban	-4467
▁happen	-4468
▁reduced	-4469
▁chemical	-4470
.4	-4471
AG	-4472
elines	-4473
▁colour	-4474
▁Rajasthan	-4475
▁advantage	-4476
▁Company	-4477
▁completely	-4478
▁applicable	-4479
rehens	-4480
▁Party	-4481
▁Moh	-4482
▁draft	-4483
▁College	-4484
▁identity	-4485
▁fal	-4486
▁miss	-4487
▁ordinary	-4488
aul	-4489
▁Kar	-4490
▁adult	-4491
▁instance	-4492
▁encourage	-4493
ura	-4494
▁shr	-4495
inter	-4496
▁wild	-4497
▁correspond	-4498
▁latter	-4499
▁dry	-4500
▁compr	-4501
▁instruct	-4502
▁Commercial	-4503
eks	-4504
▁Cur	-4505
itect	-4506
ads	-4507
asm	-4508
▁Two	-4509
rench	-4510
▁moon	-4511
▁seem	-4512
▁parliament	-4513
▁wood	-4514
▁Which	-4515
▁Andhra	-4516
▁prices	-4517
▁planning	-4518
▁Ev	-4519
▁Who	-4520
ply	-4521
▁Att	-4522
ataka	-4523
▁Iraq	-4524
▁Water	-4525
▁entered	-4526
▁box	-4527
▁Both	-4528
▁crops	-4529
-1	-4530
▁mist	-4531
▁poem	-4532
ofindia	-4533
▁hearing	-4534
▁Pen	-4535
▁subsequ	-4536
▁Ra	-4537
▁hour	-4538
iation	-4539
▁Science	-4540
▁reports	-4541
achal	-4542
▁guarant	-4543
▁MS	-4544
▁Aff	-4545
▁stone	-4546
▁administrative	-4547
▁Him	-4548
▁desp	-4549
▁concl	-4550
▁Another	-4551
▁spent	-4552
▁excess	-4553
▁server	-4554
▁elected	-4555
▁Environment	-4556
▁recommendations	-4557
▁fit	-4558
pective	-4559
▁reserv	-4560
▁critical	-4561
▁permanent	-4562
▁liqu	-4563
▁counter	-4564
▁remained	-4565
▁initiatives	-4566
OL	-4567
▁assum	-4568
▁paint	-4569
▁applied	-4570
▁centres	-4571
iers	-4572
▁materials	-4573
ancing	-4574
▁motion	-4575
▁Lib	-4576
▁tom	-4577
▁negative	-4578
▁supported	-4579
▁Ay	-4580
▁sand	-4581
▁breed	-4582
▁mouth	-4583
TER	-4584
grat	-4585
atically	-4586
▁reject	-4587
▁holding	-4588
▁approved	-4589
▁notes	-4590
▁watch	-4591
▁inner	-4592
▁psych	-4593
▁Port	-4594
ius	-4595
▁Prem	-4596
mark	-4597
▁Che	-4598
▁drawn	-4599
▁released	-4600
bal	-4601
▁agg	-4602
▁appell	-4603
▁latest	-4604
▁achieved	-4605
▁characters	-4606
ika	-4607
▁Speaker	-4608
▁fat	-4609
▁nearly	-4610
▁sustain	-4611
▁aid	-4612
ented	-4613
▁Financial	-4614
▁governance	-4615
▁professional	-4616
▁00	-4617
▁Yoga	-4618
jud	-4619
ittees	-4620
▁output	-4621
▁web	-4622
anges	-4623
▁cook	-4624
▁explo	-4625
isition	-4626
▁pip	-4627
after	-4628
▁moved	-4629
▁trees	-4630
▁surround	-4631
▁Kumar	-4632
▁fruit	-4633
odes	-4634
▁honour	-4635
▁ang	-4636
▁2003	-4637
▁ende	-4638
▁damage	-4639
▁sanction	-4640
isc	-4641
▁congrat	-4642
▁Bus	-4643
rency	-4644
▁sources	-4645
▁greetings	-4646
▁leaf	-4647
▁title	-4648
isations	-4649
▁subjects	-4650
▁Non	-4651
▁Pet	-4652
▁Will	-4653
▁privile	-4654
▁surv	-4655
▁appointment	-4656
▁participation	-4657
uel	-4658
lete	-4659
▁Office	-4660
▁campaign	-4661
▁entreprene	-4662
▁75	-4663
▁mission	-4664
ym	-4665
▁RE	-4666
▁numer	-4667
ondon	-4668
▁sort	-4669
▁politics	-4670
▁interesting	-4671
cean	-4672
igible	-4673
▁plays	-4674
▁perfect	-4675
▁undertaking	-4676
oj	-4677
aks	-4678
board	-4679
pping	-4680
▁fram	-4681
▁Human	-4682
▁worth	-4683
▁territory	-4684
RO	-4685
key	-4686
▁189	-4687
▁hear	-4688
▁sell	-4689
▁recorded	-4690
▁historical	-4691
era	-4692
▁Econom	-4693
▁removed	-4694
▁iv	-4695
▁charged	-4696
▁legislation	-4697
lal	-4698
▁Jew	-4699
▁rates	-4700
▁save	-4701
rel	-4702
▁game	-4703
▁exact	-4704
▁concent	-4705
▁picture	-4706
▁creating	-4707
▁remove	-4708
▁standing	-4709
ulating	-4710
▁Don	-4711
▁democratic	-4712
release	-4713
▁gard	-4714
arati	-4715
▁Rail	-4716
▁judgment	-4717
▁Insurance	-4718
▁married	-4719
▁Over	-4720
detail	-4721
CH	-4722
ayana	-4723
▁join	-4724
▁commission	-4725
▁SCC	-4726
▁weeks	-4727
▁analysis	-4728
▁37	-4729
▁Sikh	-4730
▁Procedure	-4731
▁London	-4732
▁deposit	-4733
▁eth	-4734
▁Hist	-4735
▁Internet	-4736
▁prosperity	-4737
▁Lab	-4738
▁2004	-4739
▁houses	-4740
▁Est	-4741
▁gain	-4742
▁tonnes	-4743
▁destroy	-4744
▁functioning	-4745
anya	-4746
▁finally	-4747
▁proport	-4748
ka	-4749
▁Gl	-4750
iced	-4751
▁Pri	-4752
anged	-4753
phone	-4754
thern	-4755
▁dece	-4756
▁shap	-4757
▁committee	-4758
▁Among	-4759
▁Foreign	-4760
▁facility	-4761
▁east	-4762
▁Use	-4763
▁Could	-4764
▁Applic	-4765
▁choice	-4766
▁opened	-4767
▁senior	-4768
▁obst	-4769
▁false	-4770
▁classes	-4771
▁lad	-4772
▁River	-4773
▁match	-4774
▁Bad	-4775
▁Sind	-4776
▁sole	-4777
▁Network	-4778
▁Bose	-4779
▁maintained	-4780
▁Abd	-4781
▁Tem	-4782
▁amb	-4783
▁advoc	-4784
▁theory	-4785
▁neither	-4786
▁challenges	-4787
▁Pers	-4788
▁Member	-4789
▁obvious	-4790
rence	-4791
▁2011	-4792
▁drugs	-4793
▁profits	-4794
▁Schedule	-4795
▁conducted	-4796
▁2009	-4797
▁huge	-4798
▁dispute	-4799
▁challenge	-4800
iveness	-4801
▁sought	-4802
▁solution	-4803
ider	-4804
▁teaching	-4805
▁Ash	-4806
▁debt	-4807
▁dream	-4808
▁ability	-4809
athe	-4810
▁weap	-4811
▁journey	-4812
hern	-4813
▁Nag	-4814
utory	-4815
▁noted	-4816
▁constitutional	-4817
-2018	-4818
▁Home	-4819
▁factor	-4820
▁helped	-4821
▁Mission	-4822
▁submitted	-4823
▁reb	-4824
▁stood	-4825
▁banking	-4826
▁demonst	-4827
▁sitting	-4828
▁proposal	-4829
▁communities	-4830
otic	-4831
▁grad	-4832
▁grown	-4833
▁obtained	-4834
▁Christian	-4835
▁awareness	-4836
.5	-4837
astic	-4838
▁regions	-4839
▁elections	-4840
▁transform	-4841
mon	-4842
issa	-4843
▁Police	-4844
▁records	-4845
▁consists	-4846
▁Karnataka	-4847
▁mort	-4848
▁Ganga	-4849
▁Nepal	-4850
▁breat	-4851
▁relative	-4852
oe	-4853
▁Exp	-4854
aling	-4855
jection	-4856
▁volume	-4857
▁outl	-4858
▁surpr	-4859
▁atmosphere	-4860
▁manufacture	-4861
▁accomp	-4862
▁citizen	-4863
▁release	-4864
▁188	-4865
erate	-4866
▁didn	-4867
▁crime	-4868
▁waste	-4869
▁served	-4870
▁Ser	-4871
▁defend	-4872
▁formal	-4873
▁letters	-4874
orial	-4875
▁bott	-4876
RL	-4877
rical	-4878
ester	-4879
essions	-4880
▁squared	-4881
▁reduce	-4882
▁substance	-4883
▁ban	-4884
iform	-4885
▁birds	-4886
▁effects	-4887
▁comment	-4888
▁reflect	-4889
▁Lo	-4890
▁pick	-4891
▁enhan	-4892
▁changing	-4893
▁expenses	-4894
▁objectives	-4895
▁universities	-4896
pret	-4897
▁wat	-4898
▁west	-4899
udi	-4900
▁Show	-4901
▁folk	-4902
▁plat	-4903
▁amend	-4904
▁moving	-4905
▁affairs	-4906
▁Ka	-4907
▁Nature	-4908
rew	-4909
ghal	-4910
iments	-4911
▁writer	-4912
▁situated	-4913
pta	-4914
olve	-4915
▁Each	-4916
ilarly	-4917
▁dign	-4918
▁ment	-4919
▁suffering	-4920
olly	-4921
ankar	-4922
▁Once	-4923
▁pill	-4924
▁Right	-4925
▁healthy	-4926
▁approval	-4927
▁attached	-4928
orthern	-4929
ordinate	-4930
▁column	-4931
▁Austral	-4932
▁attitude	-4933
▁Gov	-4934
▁decades	-4935
▁Although	-4936
▁register	-4937
▁IP	-4938
▁maintenance	-4939
▁transferred	-4940
het	-4941
▁2016	-4942
▁thirty	-4943
▁Language	-4944
CE	-4945
▁student	-4946
▁devotion	-4947
▁recently	-4948
▁pollution	-4949
ocol	-4950
▁cry	-4951
▁bran	-4952
▁fish	-4953
▁sugar	-4954
▁mobile	-4955
▁division	-4956
like	-4957
essor	-4958
ni	-4959
roc	-4960
▁description	-4961
ghan	-4962
▁operating	-4963
▁background	-4964
▁Chrom	-4965
▁Press	-4966
▁brain	-4967
▁online	-4968
▁Association	-4969
▁hair	-4970
▁yield	-4971
▁climate	-4972
ird	-4973
▁Va	-4974
lies	-4975
▁Self	-4976
▁phase	-4977
▁offences	-4978
▁processes	-4979
▁notification	-4980
rad	-4981
▁AIR	-4982
▁Orissa	-4983
▁decide	-4984
▁collabor	-4985
▁restrict	-4986
▁architect	-4987
▁cam	-4988
▁irr	-4989
▁colle	-4990
▁equipment	-4991
aman	-4992
ested	-4993
▁lies	-4994
▁eleph	-4995
gypt	-4996
▁nine	-4997
▁defin	-4998
▁Invest	-4999
▁impris	-5000
▁courage	-5001
▁engineering	-5002
▁gar	-5003
▁principal	-5004
▁uses	-5005
▁Middle	-5006
▁absence	-5007
▁ourselves	-5008
ogue	-5009
▁Jaw	-5010
▁ble	-5011
▁spl	-5012
▁Jain	-5013
anging	-5014
▁resist	-5015
▁Society	-5016
▁imprisonment	-5017
▁Pra	-5018
▁die	-5019
▁prime	-5020
aly	-5021
▁subt	-5022
▁joined	-5023
AD	-5024
▁apart	-5025
▁greatest	-5026
▁settlement	-5027
imb	-5028
▁coal	-5029
▁compar	-5030
▁track	-5031
▁bringing	-5032
oral	-5033
holders	-5034
▁See	-5035
▁gains	-5036
▁habit	-5037
▁Before	-5038
▁fellow	-5039
hus	-5040
▁kn	-5041
▁marg	-5042
▁emotion	-5043
AM	-5044
▁arm	-5045
urities	-5046
▁pending	-5047
aced	-5048
isher	-5049
▁survey	-5050
DU	-5051
ij	-5052
▁users	-5053
ibilities	-5054
▁reported	-5055
ammu	-5056
▁disputes	-5057
uous	-5058
▁star	-5059
▁Women	-5060
▁inaug	-5061
▁recognised	-5062
▁Das	-5063
▁Ext	-5064
▁Park	-5065
▁acid	-5066
icious	-5067
ifications	-5068
▁amendment	-5069
nov	-5070
osure	-5071
▁Mahab	-5072
▁weather	-5073
▁comprehens	-5074
▁becoming	-5075
▁execution	-5076
xy	-5077
▁SH	-5078
▁phone	-5079
▁187	-5080
▁Egypt	-5081
achment	-5082
▁Independence	-5083
hu	-5084
aste	-5085
▁185	-5086
▁smaller	-5087
▁priority	-5088
▁resource	-5089
▁Nat	-5090
▁store	-5091
▁designed	-5092
▁medicine	-5093
▁Nan	-5094
▁Ret	-5095
▁URL	-5096
▁helps	-5097
▁Limited	-5098
▁1961-2018	-5099
▁proceeding	-5100
▁translation	-5101
▁rob	-5102
inent	-5103
▁Jammu	-5104
▁impart	-5105
▁monitor	-5106
▁eld	-5107
▁expert	-5108
ST	-5109
iled	-5110
▁Ent	-5111
▁although	-5112
▁efficient	-5113
▁looks	-5114
▁conclud	-5115
▁evening	-5116
▁purchase	-5117
ET	-5118
▁piece	-5119
▁fed	-5120
▁Subhas	-5121
▁scope	-5122
▁Commun	-5123
▁afford	-5124
▁commitment	-5125
▁manufacturing	-5126
▁Lt	-5127
apur	-5128
▁Mother	-5129
▁behaviour	-5130
withstanding	-5131
apt	-5132
rog	-5133
▁Sun	-5134
▁Sect	-5135
ruption	-5136
▁mix	-5137
▁deals	-5138
▁simpl	-5139
▁Ali	-5140
▁Gaz	-5141
▁heat	-5142
▁actions	-5143
▁44	-5144
iant	-5145
▁capable	-5146
▁bul	-5147
▁crow	-5148
▁union	-5149
▁wonder	-5150
▁Univers	-5151
che	-5152
▁Life	-5153
ips	-5154
▁43	-5155
▁spot	-5156
▁signed	-5157
▁possession	-5158
vent	-5159
▁500	-5160
▁Training	-5161
▁contempt	-5162
▁Stud	-5163
▁rice	-5164
▁format	-5165
▁scientists	-5166
▁radi	-5167
astern	-5168
▁brief	-5169
aram	-5170
icted	-5171
▁launch	-5172
▁SP	-5173
hance	-5174
known	-5175
▁pointed	-5176
▁bilateral	-5177
rees	-5178
▁solar	-5179
▁Divine	-5180
▁rivers	-5181
▁finance	-5182
▁revenue	-5183
▁festival	-5184
▁password	-5185
▁drive	-5186
ESS	-5187
▁arising	-5188
▁Bin	-5189
▁Mand	-5190
▁ap	-5191
omin	-5192
▁Bah	-5193
▁Emp	-5194
▁micro	-5195
▁Madras	-5196
▁kil	-5197
abinet	-5198
▁Rights	-5199
▁minutes	-5200
▁acquired	-5201
OU	-5202
▁Cop	-5203
▁defe	-5204
▁felicit	-5205
▁portion	-5206
▁implemented	-5207
▁alt	-5208
▁Ke	-5209
▁flowers	-5210
▁identified	-5211
ping	-5212
▁currency	-5213
▁interpret	-5214
▁performed	-5215
▁Industrial	-5216
▁friendship	-5217
▁Ty	-5218
▁Rad	-5219
▁cricket	-5220
▁appeared	-5221
▁manifest	-5222
▁email	-5223
▁shared	-5224
▁Sum	-5225
▁File	-5226
▁myst	-5227
istrate	-5228
▁withdraw	-5229
▁executive	-5230
▁proof	-5231
▁channel	-5232
▁Assessing	-5233
▁commod	-5234
▁Hyder	-5235
▁calls	-5236
▁platform	-5237
▁straight	-5238
hai	-5239
▁zero	-5240
aration	-5241
▁Affairs	-5242
▁Criminal	-5243
▁commence	-5244
▁42	-5245
▁186	-5246
▁chance	-5247
ranath	-5248
▁skills	-5249
▁initial	-5250
▁assigned	-5251
▁2010	-5252
unicip	-5253
▁filled	-5254
▁installed	-5255
bon	-5256
▁mandap	-5257
▁visited	-5258
inces	-5259
▁Those	-5260
▁Afghan	-5261
▁enforce	-5262
▁location	-5263
▁Like	-5264
▁forth	-5265
▁oblig	-5266
▁trend	-5267
▁announced	-5268
redit	-5269
▁lawy	-5270
▁kinds	-5271
▁Related	-5272
president	-5273
▁distinct	-5274
▁satisfied	-5275
▁temperature	-5276
presidentofindia	-5277
inding	-5278
▁dance	-5279
▁severe	-5280
▁Israeli	-5281
▁Nations	-5282
▁branches	-5283
▁Av	-5284
amin	-5285
▁Prom	-5286
▁aims	-5287
▁reforms	-5288
▁marketing	-5289
▁48	-5290
▁Cor	-5291
▁Nadu	-5292
▁Houses	-5293
▁stream	-5294
▁struct	-5295
▁delight	-5296
▁Security	-5297
▁initiative	-5298
amet	-5299
hara	-5300
▁Time	-5301
▁Business	-5302
▁organizations	-5303
ithm	-5304
roud	-5305
▁Jag	-5306
▁please	-5307
▁Reserve	-5308
under	-5309
▁discl	-5310
▁seemed	-5311
▁formation	-5312
▁represents	-5313
▁90	-5314
▁Stat	-5315
▁categ	-5316
▁partner	-5317
▁organized	-5318
▁respective	-5319
▁amp	-5320
▁colon	-5321
▁beings	-5322
▁offices	-5323
▁discussed	-5324
▁environmental	-5325
▁secure	-5326
▁billion	-5327
▁extension	-5328
EM	-5329
esty	-5330
▁evil	-5331
▁girls	-5332
▁poets	-5333
▁wants	-5334
▁AD	-5335
▁Deputy	-5336
▁Control	-5337
▁Something	-5338
▁upper	-5339
▁western	-5340
▁Protection	-5341
▁02	-5342
ille	-5343
▁cloth	-5344
▁indig	-5345
▁battle	-5346
▁mostly	-5347
▁communal	-5348
▁collected	-5349
ulty	-5350
▁hop	-5351
asant	-5352
▁Cert	-5353
▁pert	-5354
▁disapp	-5355
▁marked	-5356
anj	-5357
▁mir	-5358
▁band	-5359
▁none	-5360
▁customer	-5361
▁centuries	-5362
▁Fed	-5363
riving	-5364
▁Bangl	-5365
▁immediate	-5366
itage	-5367
▁narrow	-5368
▁possess	-5369
▁wise	-5370
▁distur	-5371
▁Kab	-5372
▁pregn	-5373
ensions	-5374
▁exists	-5375
▁preced	-5376
AB	-5377
▁rid	-5378
right	-5379
▁Babu	-5380
▁absor	-5381
▁doesn	-5382
▁compared	-5383
ila	-5384
rat	-5385
atio	-5386
▁plaint	-5387
▁imposed	-5388
mar	-5389
▁dia	-5390
▁coast	-5391
▁fertil	-5392
▁simply	-5393
▁eligible	-5394
▁ax	-5395
ette	-5396
▁Sard	-5397
▁conce	-5398
▁judiciary	-5399
▁liquid	-5400
▁deliver	-5401
▁mountain	-5402
▁thousands	-5403
stood	-5404
▁History	-5405
▁equality	-5406
▁improvement	-5407
ossible	-5408
▁tissue	-5409
▁equally	-5410
▁Ministers	-5411
▁governments	-5412
ohn	-5413
▁ear	-5414
▁remote	-5415
▁advanced	-5416
elled	-5417
▁killed	-5418
▁framework	-5419
16	-5420
▁stands	-5421
▁foundation	-5422
▁Met	-5423
▁runs	-5424
▁cance	-5425
iration	-5426
▁prejud	-5427
▁sight	-5428
▁Select	-5429
▁Hon	-5430
▁Joint	-5431
ployment	-5432
▁containing	-5433
▁university	-5434
oes	-5435
▁bone	-5436
▁French	-5437
▁council	-5438
DA	-5439
hel	-5440
▁Exec	-5441
▁blue	-5442
▁limits	-5443
▁movements	-5444
antic	-5445
▁....	-5446
▁jail	-5447
▁train	-5448
▁consumer	-5449
▁intended	-5450
▁properly	-5451
▁Pay	-5452
oring	-5453
minent	-5454
▁deleg	-5455
▁substantial	-5456
▁Brahm	-5457
▁sexual	-5458
▁Jawahar	-5459
▁welcome	-5460
▁instruments	-5461
▁delib	-5462
▁recognition	-5463
▁considerable	-5464
▁Land	-5465
▁height	-5466
▁cow	-5467
▁Data	-5468
▁composed	-5469
▁initiated	-5470
▁hyd	-5471
▁fifty	-5472
▁orient	-5473
▁Tel	-5474
▁vir	-5475
▁brid	-5476
▁Small	-5477
▁griev	-5478
▁amended	-5479
▁employee	-5480
▁incorpor	-5481
▁discharge	-5482
shi	-5483
room	-5484
▁Dec	-5485
▁journal	-5486
▁Palestinian	-5487
alg	-5488
▁Ang	-5489
▁divid	-5490
▁adjust	-5491
▁attrib	-5492
▁folder	-5493
▁screen	-5494
▁depends	-5495
▁visible	-5496
▁transaction	-5497
back	-5498
oses	-5499
ansion	-5500
▁entirely	-5501
▁permission	-5502
utt	-5503
▁phen	-5504
▁organised	-5505
▁conference	-5506
iy	-5507
▁Hel	-5508
▁org	-5509
oples	-5510
▁symp	-5511
▁Rural	-5512
▁figures	-5513
▁seeking	-5514
dess	-5515
▁vit	-5516
▁enhance	-5517
▁extremely	-5518
▁electricity	-5519
pro	-5520
▁Vice	-5521
▁bird	-5522
▁Micro	-5523
▁minds	-5524
▁category	-5525
▁undertaken	-5526
oken	-5527
osite	-5528
▁guard	-5529
▁Principal	-5530
▁household	-5531
CI	-5532
aud	-5533
pto	-5534
▁AS	-5535
ffic	-5536
▁Failed	-5537
▁overall	-5538
▁technologies	-5539
▁Know	-5540
▁Year	-5541
▁eggs	-5542
inating	-5543
▁starting	-5544
hent	-5545
▁sick	-5546
▁career	-5547
▁personality	-5548
▁dog	-5549
▁Good	-5550
ulatory	-5551
▁vehicle	-5552
▁directed	-5553
▁70	-5554
gent	-5555
unction	-5556
▁supreme	-5557
▁agent	-5558
▁ahead	-5559
▁thank	-5560
▁feature	-5561
▁regulations	-5562
ih	-5563
inger	-5564
clause	-5565
▁prose	-5566
▁opposition	-5567
▁lie	-5568
▁Food	-5569
▁raise	-5570
▁config	-5571
▁Bur	-5572
▁Dur	-5573
▁Sol	-5574
▁cave	-5575
▁fell	-5576
▁iron	-5577
▁loans	-5578
▁insect	-5579
▁creative	-5580
▁multiple	-5581
▁exports	-5582
▁liability	-5583
mer	-5584
ocal	-5585
▁arms	-5586
▁cott	-5587
▁audit	-5588
▁competent	-5589
▁organisations	-5590
icon	-5591
otes	-5592
▁Back	-5593
▁claims	-5594
mn	-5595
▁dynam	-5596
▁employed	-5597
▁informed	-5598
anath	-5599
▁pursu	-5600
▁Hyderabad	-5601
▁interested	-5602
arp	-5603
aut	-5604
erce	-5605
▁offers	-5606
plom	-5607
▁Count	-5608
▁incur	-5609
▁hardly	-5610
▁directions	-5611
▁sacrifice	-5612
▁Bangladesh	-5613
ingly	-5614
▁Urdu	-5615
ux	-5616
ien	-5617
aces	-5618
sc	-5619
▁Kan	-5620
▁1947	-5621
▁Book	-5622
▁closed	-5623
▁outstanding	-5624
▁felicitations	-5625
14	-5626
▁115	-5627
idden	-5628
▁Enter	-5629
▁fourth	-5630
▁examples	-5631
▁Lal	-5632
▁Maj	-5633
▁Force	-5634
▁sweet	-5635
▁choose	-5636
▁couple	-5637
▁Panchay	-5638
akti	-5639
alle	-5640
▁myself	-5641
▁continues	-5642
▁customers	-5643
▁districts	-5644
▁blind	-5645
▁deeply	-5646
▁Scheduled	-5647
▁hind	-5648
▁comprehensive	-5649
▁fix	-5650
▁1956	-5651
▁rent	-5652
▁negoti	-5653
▁demands	-5654
▁quickly	-5655
▁investig	-5656
▁mel	-5657
▁unw	-5658
▁shop	-5659
eum	-5660
▁39	-5661
▁ec	-5662
▁roll	-5663
▁Vishn	-5664
▁enabled	-5665
▁witnesses	-5666
▁tea	-5667
▁Pass	-5668
▁remed	-5669
▁Eastern	-5670
▁proportion	-5671
▁rit	-5672
▁markets	-5673
▁railway	-5674
alam	-5675
▁Var	-5676
oration	-5677
ications	-5678
▁Process	-5679
▁Mahabhar	-5680
ammad	-5681
▁radio	-5682
▁obtain	-5683
▁procedures	-5684
anta	-5685
▁Swami	-5686
▁Trade	-5687
▁budget	-5688
▁happens	-5689
▁objects	-5690
atab	-5691
uable	-5692
▁surg	-5693
ourses	-5694
▁imperial	-5695
▁Legislature	-5696
▁arbitration	-5697
tes	-5698
▁disk	-5699
▁Hence	-5700
▁sacred	-5701
othes	-5702
▁prove	-5703
▁awarded	-5704
▁involve	-5705
▁mechanism	-5706
mb	-5707
asi	-5708
▁Tri	-5709
▁John	-5710
▁kill	-5711
▁proud	-5712
▁stamp	-5713
▁bright	-5714
▁conven	-5715
▁liberal	-5716
▁alternative	-5717
▁Yes	-5718
▁sin	-5719
urally	-5720
▁drama	-5721
▁belonging	-5722
▁race	-5723
▁upgr	-5724
▁theme	-5725
▁discrim	-5726
▁instructions	-5727
izes	-5728
organ	-5729
▁1998	-5730
▁slight	-5731
▁transp	-5732
▁Capital	-5733
▁playing	-5734
▁Fort	-5735
▁Award	-5736
▁Address	-5737
▁contributions	-5738
▁Ltd	-5739
▁Sen	-5740
.2014	-5741
▁grounds	-5742
▁Bir	-5743
▁Chait	-5744
▁skill	-5745
▁prosecution	-5746
umber	-5747
▁addressed	-5748
asw	-5749
▁Mat	-5750
▁arrangement	-5751
hand	-5752
▁horse	-5753
▁labor	-5754
▁describ	-5755
uli	-5756
▁liable	-5757
▁distinguished	-5758
going	-5759
▁span	-5760
▁thoughts	-5761
▁impossible	-5762
agh	-5763
king	-5764
.2015	-5765
gments	-5766
▁Allah	-5767
▁arrived	-5768
▁explained	-5769
arya	-5770
▁Cre	-5771
▁understood	-5772
.6	-5773
de	-5774
eds	-5775
▁Awards	-5776
▁enacted	-5777
fall	-5778
▁Move	-5779
▁aspir	-5780
▁apparent	-5781
▁Application	-5782
▁exped	-5783
▁toler	-5784
▁Parliamentary	-5785
ruits	-5786
▁Laws	-5787
▁religions	-5788
▁commencement	-5789
▁Az	-5790
rosy	-5791
▁pret	-5792
▁Assistant	-5793
▁promoting	-5794
▁38	-5795
osen	-5796
▁speaking	-5797
oles	-5798
encing	-5799
▁Economic	-5800
▁Exchange	-5801
▁admitted	-5802
▁estimated	-5803
▁personnel	-5804
▁respectively	-5805
▁appearance	-5806
▁facilitate	-5807
▁08	-5808
▁masses	-5809
▁intention	-5810
▁core	-5811
▁inquiry	-5812
▁compound	-5813
IF	-5814
▁Rule	-5815
▁Committees	-5816
▁efficiency	-5817
▁differences	-5818
▁requirement	-5819
▁lev	-5820
▁cris	-5821
▁definite	-5822
▁Similarly	-5823
▁conclusion	-5824
cend	-5825
▁spect	-5826
▁dedicated	-5827
▁effectively	-5828
▁legislative	-5829
agers	-5830
riages	-5831
▁acting	-5832
▁ritual	-5833
▁statutory	-5834
▁constitute	-5835
abet	-5836
▁peoples	-5837
▁CON	-5838
▁sympt	-5839
▁everyone	-5840
▁intelligence	-5841
▁transactions	-5842
umin	-5843
▁Ban	-5844
▁pages	-5845
▁desert	-5846
▁arrested	-5847
ica	-5848
rut	-5849
▁49	-5850
▁steel	-5851
▁Engine	-5852
▁acknow	-5853
▁counsel	-5854
▁showing	-5855
▁allowance	-5856
PS	-5857
TH	-5858
▁pul	-5859
▁doll	-5860
▁Great	-5861
▁spite	-5862
▁availability	-5863
▁determination	-5864
▁para	-5865
▁anyone	-5866
▁exclud	-5867
▁libert	-5868
▁covering	-5869
▁guidelines	-5870
UL	-5871
kata	-5872
▁1996	-5873
▁elim	-5874
▁renew	-5875
▁Pandit	-5876
▁Germany	-5877
▁Institut	-5878
▁entrepreneurs	-5879
hal	-5880
▁fees	-5881
▁Sardar	-5882
▁suffer	-5883
nan	-5884
ota	-5885
▁65	-5886
▁Po	-5887
▁vig	-5888
▁knows	-5889
▁propag	-5890
▁showed	-5891
opal	-5892
▁Vir	-5893
▁definition	-5894
▁Web	-5895
anish	-5896
▁Priv	-5897
▁Territ	-5898
▁Speaking	-5899
▁evolution	-5900
VE	-5901
elve	-5902
▁Rab	-5903
while	-5904
▁Wind	-5905
ensity	-5906
▁rend	-5907
▁Persian	-5908
▁uniform	-5909
▁victims	-5910
operative	-5911
▁emphasis	-5912
▁improved	-5913
▁recognized	-5914
▁Agriculture	-5915
iliar	-5916
▁diet	-5917
▁plans	-5918
unately	-5919
▁consent	-5920
▁finding	-5921
▁detailed	-5922
▁humanity	-5923
▁repeated	-5924
▁terrorist	-5925
top	-5926
▁lif	-5927
▁tim	-5928
▁Order	-5929
▁render	-5930
▁leaving	-5931
▁improving	-5932
▁Change	-5933
▁derived	-5934
▁phenomen	-5935
ader	-5936
▁Top	-5937
▁Pras	-5938
▁Saty	-5939
ashing	-5940
▁Rev	-5941
▁Innov	-5942
▁selection	-5943
▁Jawaharlal	-5944
pet	-5945
norm	-5946
▁DNA	-5947
▁raw	-5948
▁Conf	-5949
▁sequ	-5950
▁motor	-5951
▁writers	-5952
▁eval	-5953
▁Madhya	-5954
▁representative	-5955
▁Laksh	-5956
▁enemy	-5957
ciation	-5958
▁quantity	-5959
▁certainly	-5960
▁happiness	-5961
▁convention	-5962
enous	-5963
▁upto	-5964
raction	-5965
▁dismiss	-5966
▁infection	-5967
▁floor	-5968
▁corporate	-5969
▁Vishnu	-5970
▁remaining	-5971
aur	-5972
▁Dal	-5973
▁fib	-5974
▁Chen	-5975
hibition	-5976
▁practical	-5977
▁difficulty	-5978
▁DE	-5979
▁admin	-5980
▁Buddha	-5981
▁murder	-5982
▁consumption	-5983
cont	-5984
▁thor	-5985
▁contemporary	-5986
ooth	-5987
▁tools	-5988
▁Medical	-5989
▁housing	-5990
▁lect	-5991
▁lose	-5992
▁chapter	-5993
rafts	-5994
▁Army	-5995
▁double	-5996
▁string	-5997
▁settled	-5998
▁guidance	-5999
eer	-6000
▁rub	-6001
uddin	-6002
▁York	-6003
▁normally	-6004
iary	-6005
▁drop	-6006
assion	-6007
▁kingdom	-6008
▁heritage	-6009
▁Convention	-6010
▁baby	-6011
estion	-6012
▁papers	-6013
▁accompan	-6014
▁regarded	-6015
owed	-6016
▁lik	-6017
▁MSME	-6018
▁seeds	-6019
▁center	-6020
▁occurs	-6021
▁hill	-6022
▁Comput	-6023
▁inspired	-6024
▁strategy	-6025
ny	-6026
house	-6027
▁About	-6028
▁Binoy	-6029
▁consultation	-6030
▁sky	-6031
▁flag	-6032
▁saint	-6033
▁solid	-6034
▁illust	-6035
▁stages	-6036
▁pension	-6037
▁Cal	-6038
▁Mult	-6039
▁ratio	-6040
▁Brahmin	-6041
▁complic	-6042
▁disposal	-6043
▁computing	-6044
yal	-6045
ifies	-6046
▁Mount	-6047
▁Common	-6048
unk	-6049
▁Bu	-6050
inct	-6051
▁cust	-6052
▁Democ	-6053
▁reply	-6054
▁unable	-6055
▁Industry	-6056
▁telephone	-6057
▁successfully	-6058
▁ego	-6059
▁vess	-6060
▁emergency	-6061
▁respondent	-6062
riya	-6063
▁bag	-6064
▁hom	-6065
▁cool	-6066
▁difficulties	-6067
MS	-6068
ander	-6069
▁remind	-6070
unicipal	-6071
▁immense	-6072
▁indirect	-6073
▁sustainable	-6074
▁Bra	-6075
▁sad	-6076
▁syn	-6077
ivered	-6078
▁Japan	-6079
▁settings	-6080
▁Afghanistan	-6081
▁FOR	-6082
▁Ref	-6083
icide	-6084
▁superior	-6085
▁flood	-6086
▁injury	-6087
▁attacks	-6088
▁investors	-6089
▁integrated	-6090
ilty	-6091
▁legs	-6092
ailing	-6093
icians	-6094
▁holds	-6095
▁stead	-6096
▁crisis	-6097
▁Marriage	-6098
▁Chaitanya	-6099
load	-6100
orous	-6101
▁du	-6102
▁era	-6103
endra	-6104
▁enterprise	-6105
CO	-6106
wan	-6107
▁1992	-6108
▁bact	-6109
▁flat	-6110
▁armed	-6111
▁strike	-6112
▁expansion	-6113
oned	-6114
aniel	-6115
▁1990	-6116
asters	-6117
▁Through	-6118
gor	-6119
asty	-6120
▁fill	-6121
mation	-6122
▁outer	-6123
▁widely	-6124
▁Children	-6125
arh	-6126
onym	-6127
▁chrom	-6128
▁layer	-6129
▁garden	-6130
▁owners	-6131
▁involving	-6132
▁electronic	-6133
▁UT	-6134
▁pu	-6135
grim	-6136
▁1950	-6137
▁Gupta	-6138
▁owner	-6139
▁college	-6140
▁talking	-6141
▁traffic	-6142
▁accurate	-6143
▁meetings	-6144
inity	-6145
▁Start	-6146
▁compuls	-6147
▁manager	-6148
▁millions	-6149
▁writings	-6150
▁mos	-6151
▁finds	-6152
▁quiet	-6153
▁usual	-6154
▁walls	-6155
▁forests	-6156
ommod	-6157
▁Name	-6158
▁sister	-6159
▁celebrated	-6160
▁contribute	-6161
▁ID	-6162
mony	-6163
bedkar	-6164
▁accom	-6165
▁founded	-6166
▁trained	-6167
▁Regional	-6168
iger	-6169
▁Yet	-6170
▁Gold	-6171
▁cart	-6172
▁Allow	-6173
▁trouble	-6174
▁messages	-6175
▁tomorrow	-6176
▁Turk	-6177
▁fuel	-6178
▁scen	-6179
▁League	-6180
▁deposits	-6181
▁educated	-6182
▁determine	-6183
▁representatives	-6184
RE	-6185
xic	-6186
aren	-6187
isted	-6188
retion	-6189
▁alleg	-6190
▁roads	-6191
oresaid	-6192
▁brings	-6193
▁Ambedkar	-6194
▁remarkable	-6195
▁adm	-6196
aneous	-6197
inese	-6198
▁thick	-6199
▁border	-6200
▁taught	-6201
▁Companies	-6202
▁blow	-6203
active	-6204
▁dealt	-6205
▁debate	-6206
▁controlled	-6207
▁arrangements	-6208
ERS	-6209
▁Nor	-6210
▁cos	-6211
▁patri	-6212
▁forget	-6213
▁aforesaid	-6214
qual	-6215
ulpt	-6216
inance	-6217
▁discipline	-6218
▁viz	-6219
hetic	-6220
▁neck	-6221
▁Trust	-6222
▁guide	-6223
▁tribal	-6224
▁twelve	-6225
▁Executive	-6226
▁permitted	-6227
▁voluntary	-6228
▁subsequent	-6229
▁investments	-6230
MP	-6231
oman	-6232
▁harmony	-6233
▁herself	-6234
▁director	-6235
▁acquisition	-6236
rum	-6237
▁bail	-6238
ananda	-6239
▁chosen	-6240
▁trading	-6241
▁grew	-6242
▁gather	-6243
▁abol	-6244
▁lock	-6245
▁argument	-6246
▁delivered	-6247
▁irrigation	-6248
▁bh	-6249
▁Tir	-6250
▁chain	-6251
▁Russia	-6252
▁soldiers	-6253
▁plaintiff	-6254
▁destruction	-6255
▁Registration	-6256
uran	-6257
▁Sud	-6258
▁Free	-6259
▁hall	-6260
lation	-6261
▁yourself	-6262
▁neighbour	-6263
▁discussions	-6264
13	-6265
▁ignor	-6266
▁scene	-6267
▁divide	-6268
▁evident	-6269
▁Sk	-6270
oser	-6271
▁cra	-6272
▁ocean	-6273
▁begins	-6274
▁guilty	-6275
▁significance	-6276
▁UK	-6277
▁fruits	-6278
▁contrary	-6279
▁Being	-6280
▁Credit	-6281
▁consisting	-6282
▁productivity	-6283
nergy	-6284
▁fift	-6285
agraph	-6286
▁leads	-6287
▁southern	-6288
▁universe	-6289
AGE	-6290
▁Gr	-6291
asks	-6292
ibly	-6293
lick	-6294
▁Vidy	-6295
▁recall	-6296
inations	-6297
▁recovery	-6298
▁partition	-6299
▁ends	-6300
▁gradu	-6301
▁Academ	-6302
▁equity	-6303
▁resulting	-6304
▁47	-6305
▁55	-6306
uity	-6307
▁socio	-6308
▁conviction	-6309
▁departments	-6310
▁nerv	-6311
▁Earth	-6312
▁chair	-6313
▁envis	-6314
▁burden	-6315
▁safegu	-6316
▁Kolkata	-6317
▁chargeable	-6318
▁competition	-6319
odh	-6320
▁Geor	-6321
▁Tele	-6322
▁depth	-6323
▁accompl	-6324
▁solutions	-6325
▁Appell	-6326
▁Import	-6327
▁broken	-6328
▁identify	-6329
ugg	-6330
▁PC	-6331
▁Apart	-6332
▁stick	-6333
▁verse	-6334
▁wound	-6335
yas	-6336
▁Ja	-6337
usal	-6338
▁Vol	-6339
.2016	-6340
▁innoc	-6341
▁possibility	-6342
zy	-6343
raint	-6344
▁Text	-6345
▁Mughal	-6346
▁sculpt	-6347
▁Chinese	-6348
▁convert	-6349
▁refused	-6350
ician	-6351
▁bomb	-6352
▁empt	-6353
▁Banks	-6354
▁paras	-6355
▁Annual	-6356
ifically	-6357
▁numerous	-6358
▁46	-6359
▁approx	-6360
▁filing	-6361
▁authent	-6362
▁valuable	-6363
▁Australia	-6364
▁IC	-6365
hips	-6366
▁kid	-6367
▁fasc	-6368
▁spoke	-6369
▁reaction	-6370
▁continuous	-6371
▁transmission	-6372
DUCT	-6373
▁pig	-6374
allel	-6375
▁stake	-6376
▁starts	-6377
▁Comment	-6378
ographical	-6379
▁acceptance	-6380
uv	-6381
etary	-6382
▁park	-6383
▁roof	-6384
▁click	-6385
▁thereby	-6386
▁Province	-6387
▁specially	-6388
SS	-6389
uting	-6390
▁goals	-6391
▁temporary	-6392
enn	-6393
▁prompt	-6394
▁rulers	-6395
▁Britain	-6396
▁Magistrate	-6397
wa	-6398
care	-6399
▁hit	-6400
▁Raja	-6401
▁poetic	-6402
▁criticism	-6403
▁essentially	-6404
osit	-6405
isdom	-6406
▁sanct	-6407
▁aggreg	-6408
▁stress	-6409
▁amounts	-6410
▁constitu	-6411
▁El	-6412
uality	-6413
▁Legal	-6414
11	-6415
▁Later	-6416
▁Chrome	-6417
▁bottom	-6418
▁diplom	-6419
atics	-6420
rival	-6421
▁News	-6422
▁clar	-6423
▁waiting	-6424
▁fav	-6425
▁bats	-6426
▁pound	-6427
▁linked	-6428
▁faculty	-6429
▁largely	-6430
▁assembly	-6431
▁buildings	-6432
▁gradually	-6433
ema	-6434
och	-6435
anka	-6436
▁Pad	-6437
▁exch	-6438
▁gods	-6439
▁prote	-6440
▁verses	-6441
▁explain	-6442
▁weapons	-6443
▁familiar	-6444
▁excellence	-6445
▁securities	-6446
▁coc	-6447
▁1973	-6448
▁wholly	-6449
▁accommod	-6450
▁amendments	-6451
▁authorised	-6452
▁Acts	-6453
▁boys	-6454
utation	-6455
▁Enable	-6456
▁breast	-6457
▁flower	-6458
▁suddenly	-6459
▁forwarded	-6460
▁qualities	-6461
son	-6462
▁arg	-6463
▁Last	-6464
herent	-6465
▁images	-6466
▁conferred	-6467
▁satisfaction	-6468
rie	-6469
▁Gra	-6470
▁Gram	-6471
▁forg	-6472
▁poly	-6473
▁succ	-6474
▁strict	-6475
▁advised	-6476
inn	-6477
▁Jo	-6478
urse	-6479
▁1948	-6480
▁1980	-6481
▁vary	-6482
▁Vedic	-6483
levision	-6484
▁comfort	-6485
▁infinite	-6486
▁producing	-6487
▁NI	-6488
▁France	-6489
▁Himachal	-6490
▁feelings	-6491
▁accompanied	-6492
▁participate	-6493
▁Bet	-6494
▁III	-6495
▁Writ	-6496
▁elev	-6497
▁proc	-6498
▁vote	-6499
▁Class	-6500
▁attain	-6501
▁replace	-6502
▁components	-6503
▁Sita	-6504
ronics	-6505
▁claimed	-6506
▁alle	-6507
▁edge	-6508
▁Asian	-6509
▁prepare	-6510
▁suffered	-6511
▁newspaper	-6512
▁encouraged	-6513
▁consequences	-6514
iso	-6515
ola	-6516
well	-6517
▁Key	-6518
ullah	-6519
▁1997	-6520
▁seeing	-6521
▁mandapa	-6522
▁currently	-6523
▁categories	-6524
▁introduction	-6525
▁representation	-6526
▁Ary	-6527
▁NAME	-6528
▁permit	-6529
▁accordingly	-6530
▁tong	-6531
▁Prasad	-6532
▁update	-6533
▁violent	-6534
▁employer	-6535
▁Fam	-6536
▁audio	-6537
▁links	-6538
▁decade	-6539
▁proposals	-6540
▁achievement	-6541
▁Universities	-6542
ena	-6543
garh	-6544
▁Lah	-6545
arita	-6546
eries	-6547
iques	-6548
▁devices	-6549
▁willing	-6550
ima	-6551
▁hat	-6552
▁Gora	-6553
▁Head	-6554
▁nurs	-6555
▁deriv	-6556
▁street	-6557
▁waters	-6558
▁concerns	-6559
▁symptoms	-6560
▁Advoc	-6561
▁Paper	-6562
atabase	-6563
▁digital	-6564
▁drinking	-6565
▁northern	-6566
▁carefully	-6567
▁parliamentary	-6568
ream	-6569
▁hur	-6570
▁rom	-6571
▁deter	-6572
▁react	-6573
▁abnorm	-6574
▁reader	-6575
▁Cabinet	-6576
▁examine	-6577
achi	-6578
orthy	-6579
peror	-6580
▁crores	-6581
▁ensuring	-6582
ords	-6583
uses	-6584
▁Cle	-6585
▁prince	-6586
▁invited	-6587
▁directory	-6588
▁litigation	-6589
iti	-6590
▁anx	-6591
▁tab	-6592
▁tro	-6593
▁tub	-6594
anese	-6595
icket	-6596
akrish	-6597
▁Ahmed	-6598
▁gross	-6599
▁panel	-6600
▁solve	-6601
▁Turkey	-6602
▁eastern	-6603
▁component	-6604
.7	-6605
atre	-6606
▁myth	-6607
▁Export	-6608
▁exactly	-6609
▁confined	-6610
▁disabled	-6611
▁Muh	-6612
▁Disc	-6613
▁node	-6614
▁adopt	-6615
▁poison	-6616
▁traditions	-6617
ayas	-6618
lets	-6619
wing	-6620
▁alc	-6621
▁unb	-6622
▁Rest	-6623
▁Unit	-6624
▁Autom	-6625
ears	-6626
ensus	-6627
ushed	-6628
▁cycle	-6629
▁throw	-6630
▁Integr	-6631
▁dignity	-6632
▁secular	-6633
▁unknown	-6634
▁AP	-6635
edia	-6636
▁pec	-6637
uster	-6638
▁Super	-6639
▁Market	-6640
▁despite	-6641
▁Sometimes	-6642
▁conversion	-6643
urved	-6644
▁City	-6645
▁gall	-6646
▁Labour	-6647
▁stopped	-6648
▁incurred	-6649
▁prominent	-6650
▁suggestion	-6651
▁distributed	-6652
cles	-6653
rier	-6654
▁shel	-6655
▁Master	-6656
zz	-6657
▁NAB	-6658
▁Sik	-6659
▁thr	-6660
actory	-6661
▁PRODUCT	-6662
▁customs	-6663
▁elephant	-6664
▁Appellate	-6665
rator	-6666
▁Glob	-6667
▁seats	-6668
▁Having	-6669
▁causing	-6670
▁pilgrim	-6671
▁CD	-6672
bind	-6673
▁sales	-6674
▁atomic	-6675
▁empower	-6676
▁Islamist	-6677
▁patients	-6678
▁distinction	-6679
amy	-6680
oli	-6681
ilal	-6682
▁Kam	-6683
▁gland	-6684
▁intest	-6685
aph	-6686
atar	-6687
▁hence	-6688
▁nutrit	-6689
▁tender	-6690
▁appeals	-6691
▁tourism	-6692
▁followers	-6693
▁Far	-6694
entle	-6695
▁trem	-6696
▁allot	-6697
▁teeth	-6698
irement	-6699
▁Kingdom	-6700
▁inserted	-6701
▁involves	-6702
▁architecture	-6703
▁Sav	-6704
▁Copy	-6705
▁tail	-6706
rovers	-6707
▁advis	-6708
▁conqu	-6709
▁mixed	-6710
▁spend	-6711
habilit	-6712
▁sorrow	-6713
▁combination	-6714
mi	-6715
▁54	-6716
araj	-6717
▁Lep	-6718
auses	-6719
▁abst	-6720
▁allows	-6721
▁corner	-6722
▁eternal	-6723
▁commonly	-6724
▁hun	-6725
▁tank	-6726
▁advert	-6727
▁studied	-6728
▁excellent	-6729
▁represented	-6730
wal	-6731
▁52	-6732
▁1991	-6733
▁Flag	-6734
▁salt	-6735
▁Bharati	-6736
▁occurred	-6737
bing	-6738
writ	-6739
▁mig	-6740
▁holy	-6741
▁lady	-6742
▁arise	-6743
▁owned	-6744
▁Custom	-6745
▁Support	-6746
▁fighting	-6747
▁wa	-6748
rain	-6749
▁Eff	-6750
alore	-6751
▁fever	-6752
▁resign	-6753
▁recommendation	-6754
▁64	-6755
▁Due	-6756
▁1995	-6757
▁Road	-6758
▁Soft	-6759
▁brows	-6760
▁quarter	-6761
▁Officers	-6762
TI	-6763
ls	-6764
ker	-6765
itud	-6766
▁hyp	-6767
iously	-6768
▁faced	-6769
▁shaped	-6770
▁yellow	-6771
▁illness	-6772
▁innovative	-6773
mic	-6774
▁Id	-6775
▁150	-6776
▁ties	-6777
▁escape	-6778
▁fifteen	-6779
▁passion	-6780
▁radical	-6781
▁achievements	-6782
ded	-6783
algam	-6784
▁hills	-6785
istries	-6786
▁opposite	-6787
▁secondary	-6788
▁experiment	-6789
▁dust	-6790
▁Shiva	-6791
▁White	-6792
▁greatly	-6793
▁indicate	-6794
▁emotional	-6795
▁pup	-6796
ients	-6797
▁falls	-6798
▁sheet	-6799
▁entrust	-6800
▁equival	-6801
▁diversity	-6802
OP	-6803
▁bat	-6804
apped	-6805
▁grat	-6806
hening	-6807
▁Mohan	-6808
▁courses	-6809
▁Ramayana	-6810
▁strategic	-6811
▁interpretation	-6812
▁transformation	-6813
DP	-6814
▁kg	-6815
nity	-6816
▁Jay	-6817
▁Shiv	-6818
▁Found	-6819
▁signs	-6820
▁truly	-6821
▁cotton	-6822
▁pieces	-6823
▁sovere	-6824
▁harvest	-6825
mentation	-6826
▁Hinduism	-6827
▁rejected	-6828
▁receiving	-6829
▁300	-6830
orter	-6831
▁sports	-6832
▁managed	-6833
▁consumers	-6834
▁civilization	-6835
▁automatically	-6836
ache	-6837
▁victory	-6838
▁internet	-6839
▁mountains	-6840
▁Administrative	-6841
yl	-6842
▁Dw	-6843
husi	-6844
▁Alm	-6845
▁IPC	-6846
▁ren	-6847
▁Liter	-6848
▁accum	-6849
▁convin	-6850
▁facing	-6851
▁converted	-6852
mp	-6853
eff	-6854
▁ly	-6855
ture	-6856
▁cas	-6857
▁seat	-6858
▁wear	-6859
▁aimed	-6860
▁rising	-6861
▁liberty	-6862
oram	-6863
▁eve	-6864
▁Make	-6865
▁airc	-6866
▁Energy	-6867
▁NABARD	-6868
▁cancer	-6869
▁signal	-6870
▁Election	-6871
▁technique	-6872
▁compassion	-6873
▁technological	-6874
OC	-6875
uru	-6876
anga	-6877
▁Term	-6878
▁bath	-6879
▁stim	-6880
▁index	-6881
▁palace	-6882
▁Interest	-6883
ktop	-6884
▁dro	-6885
▁sev	-6886
▁resort	-6887
▁wisdom	-6888
▁realised	-6889
▁dependent	-6890
▁contributed	-6891
▁Mir	-6892
▁Ord	-6893
▁isol	-6894
▁manage	-6895
▁deceased	-6896
▁Notwithstanding	-6897
.10	-6898
▁Jh	-6899
▁meat	-6900
chandra	-6901
esterday	-6902
▁Working	-6903
▁notified	-6904
▁Money	-6905
▁antic	-6906
▁decre	-6907
ificial	-6908
▁Vaishn	-6909
▁diverse	-6910
▁backward	-6911
▁subscribe	-6912
▁Industries	-6913
▁CP	-6914
NAME	-6915
endar	-6916
▁tort	-6917
missible	-6918
▁raising	-6919
▁dangerous	-6920
▁statements	-6921
▁ca	-6922
▁Dom	-6923
ranch	-6924
▁cattle	-6925
▁applicant	-6926
▁maintaining	-6927
▁developments	-6928
▁strengthening	-6929
ums	-6930
leum	-6931
▁Equ	-6932
▁sam	-6933
amber	-6934
▁Gree	-6935
▁Oper	-6936
▁Siva	-6937
▁Nagar	-6938
▁pride	-6939
▁saved	-6940
▁enthusi	-6941
▁experts	-6942
▁Maharaja	-6943
▁candidates	-6944
OT	-6945
▁ring	-6946
▁Knowledge	-6947
▁ran	-6948
▁tube	-6949
▁insure	-6950
▁minute	-6951
▁submit	-6952
▁applies	-6953
▁desired	-6954
▁examined	-6955
▁affection	-6956
▁childhood	-6957
▁vegetables	-6958
oom	-6959
▁Max	-6960
arathi	-6961
▁utter	-6962
▁salary	-6963
▁closely	-6964
▁multipl	-6965
▁proviso	-6966
▁structures	-6967
hibit	-6968
▁sons	-6969
▁rough	-6970
▁domain	-6971
▁learnt	-6972
▁brothers	-6973
yr	-6974
his	-6975
▁asking	-6976
▁cheque	-6977
▁tourist	-6978
▁guarantee	-6979
▁privilege	-6980
▁declaration	-6981
orders	-6982
▁Bench	-6983
▁therein	-6984
▁venture	-6985
▁influenced	-6986
▁09	-6987
antly	-6988
▁bull	-6989
erning	-6990
▁inval	-6991
▁visual	-6992
▁planned	-6993
▁strange	-6994
▁appellant	-6995
▁obligation	-6996
▁suggestions	-6997
▁07	-6998
▁rig	-6999
▁vul	-7000
▁jobs	-7001
▁oral	-7002
▁printed	-7003
▁Governance	-7004
▁cultivation	-7005
pat	-7006
ria	-7007
▁56	-7008
▁Shi	-7009
▁Taj	-7010
ports	-7011
▁Number	-7012
▁Online	-7013
▁shrine	-7014
▁eminent	-7015
▁naturally	-7016
▁41	-7017
▁Mor	-7018
▁avo	-7019
▁fault	-7020
▁fluid	-7021
▁glass	-7022
▁older	-7023
▁adverse	-7024
▁ceremony	-7025
▁experiences	-7026
ding	-7027
rane	-7028
umes	-7029
▁Dar	-7030
▁Did	-7031
▁Have	-7032
▁Look	-7033
othing	-7034
▁embra	-7035
▁elabor	-7036
▁passage	-7037
▁operative	-7038
▁primarily	-7039
▁institutional	-7040
comm	-7041
ogen	-7042
▁beat	-7043
▁inev	-7044
▁pipes	-7045
▁listed	-7046
oked	-7047
▁Tal	-7048
▁forty	-7049
▁route	-7050
▁sites	-7051
▁German	-7052
▁stored	-7053
▁custody	-7054
▁preparation	-7055
iri	-7056
▁Lad	-7057
▁rhy	-7058
celer	-7059
▁amalgam	-7060
▁controvers	-7061
IP	-7062
UT	-7063
▁od	-7064
erved	-7065
iable	-7066
ollow	-7067
▁seeks	-7068
▁carbon	-7069
▁opposed	-7070
▁reduction	-7071
▁asc	-7072
essed	-7073
itals	-7074
▁clim	-7075
uction	-7076
▁Death	-7077
duction	-7078
iversary	-7079
▁Railway	-7080
▁drawing	-7081
▁pertaining	-7082
pad	-7083
utor	-7084
▁Iss	-7085
▁nav	-7086
▁expiry	-7087
▁novels	-7088
▁overse	-7089
▁Gazette	-7090
rm	-7091
icity	-7092
▁Note	-7093
▁genu	-7094
▁unre	-7095
▁algor	-7096
▁operate	-7097
▁whereas	-7098
▁attended	-7099
▁Agricultural	-7100
▁51	-7101
▁via	-7102
▁Sant	-7103
▁ended	-7104
▁bridge	-7105
▁servant	-7106
▁sharing	-7107
▁resulted	-7108
▁discovered	-7109
▁subordinate	-7110
▁Lat	-7111
▁mic	-7112
▁vim	-7113
plete	-7114
▁Four	-7115
▁aside	-7116
▁noise	-7117
▁recip	-7118
▁Arabic	-7119
▁condem	-7120
▁entity	-7121
▁fulfil	-7122
▁realise	-7123
▁totally	-7124
▁supposed	-7125
▁happening	-7126
jan	-7127
ught	-7128
▁Gita	-7129
▁burn	-7130
▁forced	-7131
▁regime	-7132
▁goddess	-7133
▁percentage	-7134
▁instruction	-7135
nai	-7136
▁03	-7137
▁analy	-7138
▁diagn	-7139
▁persu	-7140
▁Basava	-7141
▁options	-7142
▁rational	-7143
▁ministers	-7144
▁thereafter	-7145
za	-7146
▁flex	-7147
▁marks	-7148
▁surre	-7149
▁incent	-7150
▁Marathi	-7151
▁Perhaps	-7152
▁replied	-7153
▁specify	-7154
▁computers	-7155
▁corruption	-7156
▁progressive	-7157
▁Verm	-7158
▁vent	-7159
roleum	-7160
▁towns	-7161
▁caught	-7162
▁refuge	-7163
▁testing	-7164
▁programs	-7165
▁rendered	-7166
aria	-7167
▁twice	-7168
▁spoken	-7169
▁Consult	-7170
▁Persons	-7171
▁completion	-7172
▁situations	-7173
UM	-7174
▁Fr	-7175
mits	-7176
▁irre	-7177
▁pull	-7178
▁shif	-7179
▁Obama	-7180
▁Table	-7181
▁stuff	-7182
iculture	-7183
▁arranged	-7184
▁societies	-7185
▁revolutionary	-7186
.11	-7187
▁ing	-7188
▁1986	-7189
▁Cult	-7190
▁load	-7191
▁rect	-7192
▁editor	-7193
▁muscle	-7194
▁emerged	-7195
▁Buddhist	-7196
▁pictures	-7197
▁Mahabharata	-7198
da	-7199
van	-7200
▁1988	-7201
▁Supp	-7202
▁keen	-7203
▁bills	-7204
▁sharp	-7205
▁shock	-7206
▁Search	-7207
▁covers	-7208
▁1993	-7209
▁Conn	-7210
▁Hari	-7211
ferent	-7212
▁coord	-7213
▁dress	-7214
▁framed	-7215
▁limitation	-7216
▁destination	-7217
bles	-7218
▁Fil	-7219
▁gift	-7220
▁lamp	-7221
▁decor	-7222
▁neare	-7223
aneously	-7224
▁besides	-7225
▁prospect	-7226
▁techniques	-7227
osc	-7228
itra	-7229
▁Bills	-7230
▁ruling	-7231
▁superv	-7232
▁Defence	-7233
▁Muhammad	-7234
▁integrity	-7235
▁discretion	-7236
ML	-7237
ham	-7238
▁TV	-7239
tical	-7240
▁Test	-7241
▁View	-7242
▁buff	-7243
▁prol	-7244
▁pron	-7245
▁Again	-7246
ilation	-7247
lammation	-7248
▁properties	-7249
nex	-7250
ulf	-7251
agon	-7252
raid	-7253
▁Mac	-7254
▁Mur	-7255
▁mad	-7256
itors	-7257
▁menu	-7258
▁scar	-7259
▁ruled	-7260
▁mathem	-7261
▁player	-7262
▁anticip	-7263
▁publish	-7264
▁marriages	-7265
▁regularly	-7266
▁impression	-7267
IG	-7268
asy	-7269
▁72	-7270
hend	-7271
▁Ren	-7272
abling	-7273
▁Lanka	-7274
▁aband	-7275
▁elder	-7276
▁heads	-7277
▁reprodu	-7278
▁complaints	-7279
▁congratulate	-7280
▁Administration	-7281
▁jew	-7282
▁Anand	-7283
▁emerging	-7284
▁oriented	-7285
▁enforcement	-7286
irs	-7287
▁Farm	-7288
▁synt	-7289
asions	-7290
▁television	-7291
▁Certificate	-7292
heb	-7293
ulous	-7294
▁Sund	-7295
▁sets	-7296
▁metal	-7297
▁earned	-7298
▁ideals	-7299
▁switch	-7300
▁virtue	-7301
▁displayed	-7302
▁extensive	-7303
▁specifically	-7304
inc	-7305
rian	-7306
▁sus	-7307
▁1971	-7308
▁Circ	-7309
▁ille	-7310
aching	-7311
▁alive	-7312
▁Create	-7313
▁concess	-7314
▁rapidly	-7315
.8	-7316
HER	-7317
arge	-7318
▁Fac	-7319
▁Rao	-7320
▁gate	-7321
▁Never	-7322
▁revol	-7323
▁George	-7324
▁clothes	-7325
▁illegal	-7326
▁enterprises	-7327
▁operational	-7328
▁53	-7329
olic	-7330
▁fly	-7331
▁Arch	-7332
▁Five	-7333
ishment	-7334
▁Punjabi	-7335
▁putting	-7336
▁monitoring	-7337
exp	-7338
urg	-7339
▁Br	-7340
atri	-7341
eenth	-7342
▁encl	-7343
aryana	-7344
▁immun	-7345
▁lakhs	-7346
reement	-7347
▁mailing	-7348
▁organisms	-7349
▁implementing	-7350
▁tou	-7351
▁Sett	-7352
▁roots	-7353
▁imagine	-7354
▁islands	-7355
▁enhanced	-7356
▁interface	-7357
▁constantly	-7358
▁Aj	-7359
▁CS	-7360
life	-7361
▁enl	-7362
▁pond	-7363
endous	-7364
▁empow	-7365
▁empire	-7366
▁organs	-7367
▁sensitive	-7368
▁calculated	-7369
▁collective	-7370
illa	-7371
ster	-7372
▁Chh	-7373
▁anc	-7374
▁Nath	-7375
▁Global	-7376
▁awards	-7377
▁consolid	-7378
▁indigenous	-7379
▁translated	-7380
▁constructed	-7381
▁imagination	-7382
wide	-7383
▁Vij	-7384
▁Kann	-7385
▁flour	-7386
▁marry	-7387
▁depart	-7388
▁discover	-7389
▁indicated	-7390
UN	-7391
aci	-7392
▁63	-7393
▁Kir	-7394
▁Sou	-7395
enger	-7396
rogen	-7397
▁bold	-7398
▁Green	-7399
▁Empire	-7400
▁deliber	-7401
▁warrant	-7402
▁Accounts	-7403
▁duration	-7404
▁depending	-7405
▁endeavour	-7406
AND	-7407
ATE	-7408
▁Dig	-7409
▁1987	-7410
▁Benef	-7411
▁wheat	-7412
▁entrusted	-7413
lin	-7414
ste	-7415
chant	-7416
obile	-7417
▁Sovi	-7418
istent	-7419
▁offering	-7420
▁replaced	-7421
▁generations	-7422
▁transportation	-7423
isite	-7424
▁1976	-7425
▁Bhut	-7426
▁worker	-7427
▁Haryana	-7428
▁ordered	-7429
▁combined	-7430
▁concerning	-7431
▁characteristic	-7432
ukh	-7433
▁Gan	-7434
▁Goa	-7435
▁Keep	-7436
orious	-7437
▁models	-7438
▁chromos	-7439
▁reaching	-7440
▁newspapers	-7441
habilitation	-7442
50	-7443
▁fet	-7444
▁irres	-7445
▁dynamic	-7446
▁comments	-7447
▁Saf	-7448
▁fab	-7449
▁Phys	-7450
▁pair	-7451
▁thin	-7452
▁Polit	-7453
▁Saudi	-7454
▁catch	-7455
▁cloud	-7456
▁desir	-7457
▁homes	-7458
▁royal	-7459
issions	-7460
▁Recomm	-7461
▁Review	-7462
▁contrast	-7463
▁whenever	-7464
▁Sucharita	-7465
▁achieving	-7466
▁paragraph	-7467
▁perfection	-7468
▁99	-7469
adur	-7470
arsh	-7471
urch	-7472
▁repeal	-7473
▁slowly	-7474
▁fertiliz	-7475
▁organism	-7476
▁Professor	-7477
▁supplement	-7478
END	-7479
▁Sem	-7480
▁Check	-7481
▁empty	-7482
▁litig	-7483
▁Proper	-7484
▁Sector	-7485
▁divers	-7486
▁ending	-7487
▁parallel	-7488
▁undertake	-7489
rd	-7490
iche	-7491
lied	-7492
▁unn	-7493
ching	-7494
▁prefer	-7495
▁settle	-7496
▁burning	-7497
▁library	-7498
▁readers	-7499
▁selling	-7500
▁Innovation	-7501
aem	-7502
▁Deb	-7503
▁upl	-7504
power	-7505
▁snow	-7506
▁Canada	-7507
▁Current	-7508
▁promise	-7509
operation	-7510
ugu	-7511
itative	-7512
▁paying	-7513
▁degrees	-7514
▁inclusive	-7515
▁resistance	-7516
▁NE	-7517
▁vs	-7518
▁Devi	-7519
▁wing	-7520
▁sixty	-7521
▁Forest	-7522
▁endeav	-7523
ICE	-7524
kind	-7525
otal	-7526
▁Nob	-7527
▁inher	-7528
▁wages	-7529
▁eating	-7530
▁handic	-7531
▁listen	-7532
▁unfort	-7533
▁factory	-7534
▁ultimate	-7535
▁everywhere	-7536
▁Engineering	-7537
lig	-7538
▁Amb	-7539
▁rot	-7540
▁nerve	-7541
▁worry	-7542
▁Jewish	-7543
▁killing	-7544
▁routine	-7545
▁somebody	-7546
▁beneficial	-7547
dy	-7548
orne	-7549
▁Bush	-7550
▁Cannot	-7551
▁Majesty	-7552
▁calling	-7553
isp	-7554
addy	-7555
▁bon	-7556
haust	-7557
▁rose	-7558
▁helping	-7559
▁regards	-7560
▁Oh	-7561
▁Sr	-7562
▁map	-7563
▁1989	-7564
▁zone	-7565
▁Penal	-7566
▁enorm	-7567
▁Welfare	-7568
▁impress	-7569
▁earliest	-7570
▁extraord	-7571
▁historic	-7572
▁destroyed	-7573
▁requested	-7574
▁sustained	-7575
▁necessarily	-7576
iam	-7577
▁Tar	-7578
▁pit	-7579
▁arises	-7580
▁condol	-7581
▁aggress	-7582
▁crucial	-7583
▁falling	-7584
▁executed	-7585
▁hundreds	-7586
▁collaboration	-7587
JP	-7588
The	-7589
▁58	-7590
▁MP	-7591
just	-7592
▁Mot	-7593
oking	-7594
▁duly	-7595
ective	-7596
▁Three	-7597
▁Chennai	-7598
▁Leprosy	-7599
▁defendant	-7600
▁IR	-7601
stig	-7602
▁exem	-7603
▁Malay	-7604
▁auton	-7605
▁Access	-7606
▁Terror	-7607
▁Washing	-7608
▁batsman	-7609
▁resolve	-7610
▁turning	-7611
▁colonial	-7612
▁Departments	-7613
ino	-7614
▁BE	-7615
▁vib	-7616
▁cord	-7617
▁suicide	-7618
▁corresponding	-7619
▁epic	-7620
▁plug	-7621
urated	-7622
▁Young	-7623
▁memor	-7624
▁wings	-7625
▁Detail	-7626
▁audience	-7627
▁protected	-7628
.12	-7629
▁Get	-7630
▁Kap	-7631
ether	-7632
▁Bach	-7633
▁Stre	-7634
▁icon	-7635
▁shad	-7636
▁stars	-7637
▁recruit	-7638
▁aircraft	-7639
▁stations	-7640
▁equivalent	-7641
▁considering	-7642
20	-7643
aven	-7644
uing	-7645
▁Card	-7646
▁Love	-7647
▁cruel	-7648
▁tract	-7649
athered	-7650
▁subsid	-7651
▁varied	-7652
▁decline	-7653
▁competitive	-7654
▁inspiration	-7655
▁obligations	-7656
Os	-7657
ART	-7658
bre	-7659
orse	-7660
▁Kor	-7661
▁ash	-7662
▁1974	-7663
▁Sever	-7664
▁grace	-7665
▁circuit	-7666
▁evolved	-7667
▁tribunal	-7668
▁prejudice	-7669
▁NG	-7670
▁Sil	-7671
▁Soviet	-7672
▁defeat	-7673
▁tongue	-7674
▁Brahman	-7675
▁alleged	-7676
▁genuine	-7677
▁returns	-7678
▁interaction	-7679
alal	-7680
ulus	-7681
▁Mun	-7682
▁Nic	-7683
unals	-7684
▁Mach	-7685
▁Mang	-7686
▁horiz	-7687
▁copies	-7688
▁realize	-7689
▁entertain	-7690
US	-7691
▁Ve	-7692
aked	-7693
▁Smt	-7694
▁Badr	-7695
▁Date	-7696
▁exploitation	-7697
▁incorporated	-7698
rete	-7699
▁Son	-7700
▁Hand	-7701
▁Sign	-7702
▁Times	-7703
▁Treat	-7704
▁newly	-7705
▁tasks	-7706
adation	-7707
▁monthly	-7708
▁peaceful	-7709
▁terminal	-7710
▁healthcare	-7711
▁commodities	-7712
TP	-7713
▁Ach	-7714
▁RBI	-7715
▁scre	-7716
▁Click	-7717
▁farming	-7718
▁yesterday	-7719
▁derivative	-7720
ca	-7721
agra	-7722
▁ICT	-7723
▁Kav	-7724
.2013	-7725
▁hurt	-7726
▁taxes	-7727
▁satell	-7728
▁belongs	-7729
▁Software	-7730
▁multiply	-7731
▁consequence	-7732
urit	-7733
▁Rah	-7734
▁haz	-7735
▁hes	-7736
▁Perm	-7737
▁Save	-7738
▁busy	-7739
orters	-7740
▁Local	-7741
▁Truth	-7742
▁bread	-7743
▁faces	-7744
▁grain	-7745
▁denied	-7746
▁finger	-7747
▁rememb	-7748
▁mistake	-7749
▁weakness	-7750
▁generated	-7751
▁residence	-7752
▁scheduled	-7753
▁regulation	-7754
▁composition	-7755
rem	-7756
▁Cy	-7757
enda	-7758
▁Log	-7759
▁1985	-7760
▁wage	-7761
▁shift	-7762
▁Nothing	-7763
▁feeding	-7764
▁complain	-7765
▁territories	-7766
▁conservation	-7767
ITs	-7768
ato	-7769
▁66	-7770
▁ju	-7771
▁Que	-7772
ureau	-7773
▁boat	-7774
▁blank	-7775
▁ruler	-7776
▁kilomet	-7777
▁succeeded	-7778
▁Washington	-7779
▁artificial	-7780
▁supporting	-7781
▁DAY	-7782
▁ice	-7783
▁Lear	-7784
▁pled	-7785
▁alter	-7786
▁legit	-7787
▁devoted	-7788
▁injured	-7789
▁recognize	-7790
ald	-7791
ymph	-7792
osted	-7793
▁trek	-7794
▁tooth	-7795
▁prayer	-7796
▁simult	-7797
▁Several	-7798
▁prestig	-7799
▁serving	-7800
▁Moreover	-7801
TS	-7802
▁USA	-7803
nasty	-7804
▁silk	-7805
▁urge	-7806
▁intim	-7807
▁lying	-7808
▁miles	-7809
ographic	-7810
▁Bangalore	-7811
▁furnished	-7812
▁Investment	-7813
▁Regulation	-7814
▁presentation	-7815
▁mah	-7816
APTER	-7817
▁Govt	-7818
▁pest	-7819
▁pump	-7820
▁Mahal	-7821
▁spons	-7822
▁button	-7823
▁noticed	-7824
IM	-7825
▁PM	-7826
▁aer	-7827
▁shell	-7828
▁summer	-7829
▁carries	-7830
▁intense	-7831
▁outlook	-7832
▁partial	-7833
▁overcome	-7834
▁vehicles	-7835
▁obtaining	-7836
▁tremendous	-7837
▁ultimately	-7838
.9	-7839
fe	-7840
law	-7841
ashi	-7842
▁Bro	-7843
▁dele	-7844
ections	-7845
▁afraid	-7846
▁biggest	-7847
▁Japanese	-7848
▁channels	-7849
▁attracted	-7850
▁financing	-7851
rh	-7852
▁74	-7853
hash	-7854
time	-7855
▁dil	-7856
▁Play	-7857
▁brill	-7858
▁bigger	-7859
▁deduct	-7860
▁winter	-7861
amination	-7862
▁Recommend	-7863
▁references	-7864
riev	-7865
unch	-7866
▁Hall	-7867
▁glad	-7868
▁memb	-7869
▁stom	-7870
hibited	-7871
▁hidden	-7872
▁Hindust	-7873
▁Constitu	-7874
▁database	-7875
▁disorder	-7876
▁thorough	-7877
▁Allahabad	-7878
▁referring	-7879
▁Foundation	-7880
▁frequently	-7881
▁substituted	-7882
▁68	-7883
oding	-7884
▁charm	-7885
▁maybe	-7886
▁client	-7887
indranath	-7888
▁innocent	-7889
▁relatives	-7890
▁stability	-7891
▁configuration	-7892
..	-7893
▁85	-7894
▁Ms	-7895
what	-7896
▁lung	-7897
▁younger	-7898
▁agreements	-7899
rous	-7900
▁dow	-7901
eches	-7902
▁dict	-7903
▁intu	-7904
▁wave	-7905
hemical	-7906
▁Sheikh	-7907
▁Ayurved	-7908
▁theatre	-7909
▁characteristics	-7910
HAR	-7911
▁Od	-7912
etan	-7913
pent	-7914
oster	-7915
▁merg	-7916
▁castes	-7917
▁CHAPTER	-7918
▁assured	-7919
▁retired	-7920
▁dramatic	-7921
▁Ste	-7922
▁Str	-7923
▁sed	-7924
▁larva	-7925
▁holder	-7926
▁lawyers	-7927
▁organic	-7928
▁sending	-7929
ictionary	-7930
▁Planning	-7931
▁inherent	-7932
▁exception	-7933
▁exercised	-7934
▁attachment	-7935
▁Accordingly	-7936
▁loy	-7937
ecess	-7938
utosh	-7939
▁Luck	-7940
▁vacc	-7941
▁NATION	-7942
▁contents	-7943
▁aggregate	-7944
▁varieties	-7945
HA	-7946
how	-7947
acle	-7948
▁Rav	-7949
▁pool	-7950
▁stup	-7951
▁Speech	-7952
▁Sessions	-7953
▁governed	-7954
▁performing	-7955
▁legislature	-7956
auc	-7957
gin	-7958
utch	-7959
▁Nir	-7960
▁deity	-7961
▁penal	-7962
entions	-7963
▁worshi	-7964
▁Consumer	-7965
▁classical	-7966
▁exclusive	-7967
▁positions	-7968
quar	-7969
rine	-7970
▁Sea	-7971
▁err	-7972
▁hal	-7973
etime	-7974
irmed	-7975
▁genus	-7976
▁tells	-7977
▁Topics	-7978
▁Himalayas	-7979
▁discrimination	-7980
ns	-7981
▁Ir	-7982
▁Cell	-7983
▁fraud	-7984
▁motiv	-7985
▁Telugu	-7986
▁circle	-7987
▁attempts	-7988
▁profound	-7989
▁constitut	-7990
▁occasions	-7991
▁pregnancy	-7992
▁radiation	-7993
▁punishable	-7994
ogy	-7995
▁IV	-7996
▁cum	-7997
▁Mess	-7998
▁auth	-7999
liance	-8000
ricted	-8001
fulness	-8002
rations	-8003
▁easier	-8004
▁fairly	-8005
▁gained	-8006
▁Computer	-8007
▁AM	-8008
▁Na	-8009
asis	-8010
oult	-8011
▁gun	-8012
▁Tour	-8013
▁mood	-8014
incial	-8015
▁loose	-8016
atories	-8017
▁delete	-8018
▁thread	-8019
▁protocol	-8020
▁sanctioned	-8021
OM	-8022
met	-8023
▁Bul	-8024
▁fle	-8025
rates	-8026
▁Forum	-8027
▁Thank	-8028
▁closer	-8029
▁exhaust	-8030
▁pillars	-8031
▁profile	-8032
▁describe	-8033
ss	-8034
oma	-8035
ador	-8036
being	-8037
▁Arun	-8038
ictions	-8039
▁partly	-8040
▁Collect	-8041
▁disqual	-8042
▁genetic	-8043
▁musical	-8044
▁abnormal	-8045
▁bacteria	-8046
▁sequence	-8047
▁increases	-8048
▁Institutions	-8049
erals	-8050
▁1970	-8051
▁Indo	-8052
lessness	-8053
▁extract	-8054
▁precious	-8055
▁reducing	-8056
▁strongly	-8057
▁preferred	-8058
▁experienced	-8059
▁representing	-8060
▁extraordinary	-8061
cers	-8062
wood	-8063
▁flo	-8064
▁row	-8065
▁recover	-8066
▁produces	-8067
▁Prevention	-8068
ios	-8069
akers	-8070
ipped	-8071
▁Norm	-8072
▁axis	-8073
▁Arbit	-8074
▁landl	-8075
▁united	-8076
▁Private	-8077
▁gathered	-8078
▁institute	-8079
avas	-8080
▁01.	-8081
ovable	-8082
▁Major	-8083
▁Centres	-8084
▁furnish	-8085
▁payments	-8086
dev	-8087
off	-8088
EECH	-8089
xide	-8090
▁Help	-8091
▁Short	-8092
▁recon	-8093
▁Action	-8094
▁SPEECH	-8095
▁farmer	-8096
▁metres	-8097
▁spring	-8098
▁cutting	-8099
▁doctors	-8100
▁seriously	-8101
▁integration	-8102
ida	-8103
▁Sl	-8104
ariat	-8105
▁Path	-8106
coming	-8107
▁Entry	-8108
▁incap	-8109
▁sheep	-8110
▁turns	-8111
▁praise	-8112
▁anywhere	-8113
jun	-8114
akar	-8115
▁Vide	-8116
▁emer	-8117
▁Nanak	-8118
▁chest	-8119
▁lands	-8120
▁magaz	-8121
▁norms	-8122
itarian	-8123
▁daniel	-8124
▁Islands	-8125
▁enjoyed	-8126
▁scholar	-8127
▁servants	-8128
▁necessity	-8129
▁acceptable	-8130
▁identification	-8131
adv	-8132
pex	-8133
▁dh	-8134
odox	-8135
▁Dwark	-8136
▁Indeed	-8137
▁comprom	-8138
▁periods	-8139
▁modified	-8140
▁recording	-8141
▁realisation	-8142
iya	-8143
anth	-8144
itya	-8145
▁cad	-8146
▁oxy	-8147
▁intr	-8148
▁clock	-8149
▁fails	-8150
▁plane	-8151
▁risks	-8152
▁bearing	-8153
▁pronoun	-8154
BC	-8155
lessly	-8156
▁Light	-8157
▁bonds	-8158
▁cater	-8159
▁grave	-8160
▁lingu	-8161
▁inputs	-8162
▁pretty	-8163
liminary	-8164
inth	-8165
▁gap	-8166
itate	-8167
▁Cast	-8168
▁pace	-8169
isible	-8170
▁Advis	-8171
▁inhab	-8172
▁wider	-8173
▁Family	-8174
▁engage	-8175
▁stones	-8176
▁adoption	-8177
▁reposted	-8178
▁exceeding	-8179
▁programming	-8180
▁establishing	-8181
▁Ap	-8182
▁Abdul	-8183
▁mould	-8184
▁flight	-8185
▁walking	-8186
criptions	-8187
▁revealed	-8188
▁acknowled	-8189
▁indicates	-8190
▁interview	-8191
▁appreciation	-8192
▁92	-8193
,000	-8194
atra	-8195
▁Wik	-8196
igarh	-8197
▁font	-8198
▁forum	-8199
▁Indira	-8200
▁Netaji	-8201
▁wherein	-8202
▁increasingly	-8203
zen	-8204
▁05	-8205
gage	-8206
▁Ven	-8207
rative	-8208
▁fifth	-8209
▁darkness	-8210
CP	-8211
uts	-8212
▁texts	-8213
▁remedy	-8214
lamation	-8215
▁Bahadur	-8216
▁acceler	-8217
▁windows	-8218
▁contacts	-8219
▁convicted	-8220
ua	-8221
▁CA	-8222
▁Six	-8223
▁vag	-8224
acing	-8225
▁Take	-8226
▁march	-8227
▁genius	-8228
▁urgent	-8229
▁assumed	-8230
▁ownership	-8231
▁spr	-8232
endix	-8233
▁mine	-8234
ancell	-8235
ilding	-8236
▁incom	-8237
▁uncle	-8238
▁golden	-8239
▁imported	-8240
▁somewhat	-8241
▁Municipal	-8242
asp	-8243
bra	-8244
▁AN	-8245
down	-8246
▁cav	-8247
ogram	-8248
▁Pune	-8249
engers	-8250
missions	-8251
▁Manipur	-8252
▁reflected	-8253
▁villagers	-8254
▁restrictions	-8255
DF	-8256
eding	-8257
herry	-8258
▁plot	-8259
▁scrut	-8260
▁faster	-8261
▁stayed	-8262
▁driving	-8263
▁enlight	-8264
▁enquiry	-8265
▁compulsory	-8266
▁remembered	-8267
▁06	-8268
▁BY	-8269
▁Dav	-8270
▁Docu	-8271
▁meal	-8272
▁Third	-8273
▁kings	-8274
atively	-8275
▁Unable	-8276
▁devote	-8277
▁fabric	-8278
▁impose	-8279
▁silent	-8280
ribution	-8281
▁Enterpr	-8282
▁harmful	-8283
▁invalid	-8284
▁silence	-8285
▁equation	-8286
▁continuing	-8287
▁institutes	-8288
▁corporation	-8289
▁Gen	-8290
▁Jos	-8291
using	-8292
▁1949	-8293
▁1994	-8294
▁Zone	-8295
▁calm	-8296
alysis	-8297
▁adults	-8298
▁perpet	-8299
▁silver	-8300
▁package	-8301
▁reserve	-8302
▁enabling	-8303
▁tourists	-8304
▁wherever	-8305
▁Employment	-8306
▁appreciate	-8307
▁encouraging	-8308
▁HT	-8309
▁Han	-8310
▁cul	-8311
▁lease	-8312
▁nodes	-8313
▁Lahore	-8314
▁fought	-8315
▁hearts	-8316
▁preval	-8317
▁smooth	-8318
▁imports	-8319
▁pleased	-8320
▁premium	-8321
-4	-8322
uti	-8323
aved	-8324
iders	-8325
ipher	-8326
▁1960	-8327
▁alien	-8328
▁infer	-8329
▁wheel	-8330
usively	-8331
▁Instead	-8332
▁stomach	-8333
▁circular	-8334
▁literacy	-8335
▁Badruddin	-8336
▁describes	-8337
▁SS	-8338
plate	-8339
lihood	-8340
▁brown	-8341
▁repay	-8342
ogether	-8343
▁Temple	-8344
▁gentle	-8345
▁talent	-8346
▁African	-8347
▁careful	-8348
▁mankind	-8349
▁province	-8350
▁eventually	-8351
▁complicated	-8352
opl	-8353
▁fo	-8354
▁Ray	-8355
archy	-8356
▁1957	-8357
▁Narm	-8358
▁luck	-8359
▁Relig	-8360
▁Ganges	-8361
▁artist	-8362
▁handle	-8363
▁precise	-8364
▁reserved	-8365
▁retirement	-8366
wara	-8367
▁Chal	-8368
▁mole	-8369
arency	-8370
▁posts	-8371
▁Brahma	-8372
▁headed	-8373
▁valley	-8374
▁Without	-8375
▁answers	-8376
▁surgery	-8377
▁Islamists	-8378
▁practition	-8379
▁conventional	-8380
oa	-8381
oty	-8382
unate	-8383
▁acute	-8384
▁alloc	-8385
▁plain	-8386
▁vested	-8387
▁disturb	-8388
▁formula	-8389
▁aspirations	-8390
▁geographical	-8391
▁04	-8392
▁57	-8393
▁NS	-8394
omous	-8395
▁spin	-8396
▁wire	-8397
▁feels	-8398
▁keeps	-8399
▁loved	-8400
▁merit	-8401
▁heaven	-8402
▁repair	-8403
▁unlike	-8404
▁printing	-8405
lor	-8406
orce	-8407
ouds	-8408
hical	-8409
idency	-8410
▁dreams	-8411
▁colleges	-8412
▁entering	-8413
▁inspection	-8414
▁400	-8415
angle	-8416
avior	-8417
▁indu	-8418
▁worse	-8419
▁Swaraj	-8420
▁Academy	-8421
▁browser	-8422
▁enormous	-8423
▁algorithm	-8424
gi	-8425
ails	-8426
▁Paul	-8427
▁idol	-8428
▁Black	-8429
▁Print	-8430
▁bears	-8431
▁bride	-8432
▁Valley	-8433
▁Session	-8434
▁interpre	-8435
▁networks	-8436
▁visiting	-8437
ario	-8438
▁1981	-8439
urning	-8440
▁dissem	-8441
▁intermedi	-8442
kh	-8443
▁Ce	-8444
▁Dam	-8445
aming	-8446
▁Agra	-8447
▁Mart	-8448
▁dear	-8449
apping	-8450
▁Champ	-8451
▁beach	-8452
▁begun	-8453
▁taste	-8454
▁batter	-8455
▁breath	-8456
▁firmly	-8457
▁saving	-8458
iciently	-8459
▁Quality	-8460
akrishnan	-8461
▁comprising	-8462
▁73	-8463
▁Ans	-8464
▁ought	-8465
▁Reform	-8466
▁island	-8467
▁refund	-8468
▁licence	-8469
▁calendar	-8470
▁nominated	-8471
▁observations	-8472
▁subsequently	-8473
ALL	-8474
ubs	-8475
apse	-8476
mans	-8477
▁adding	-8478
▁native	-8479
▁complim	-8480
▁relates	-8481
▁mandatory	-8482
▁88	-8483
▁Exc	-8484
▁unp	-8485
▁Phot	-8486
▁Vill	-8487
▁brave	-8488
▁instituted	-8489
je	-8490
▁La	-8491
▁End	-8492
▁bin	-8493
▁mil	-8494
chers	-8495
cular	-8496
▁1908	-8497
ESSAGE	-8498
▁retain	-8499
▁thinks	-8500
ifferent	-8501
▁Federal	-8502
▁paramet	-8503
▁Transfer	-8504
▁revision	-8505
▁everybody	-8506
▁Organization	-8507
ela	-8508
aras	-8509
inder	-8510
▁Auro	-8511
▁lake	-8512
▁tall	-8513
ashion	-8514
▁snake	-8515
▁resear	-8516
▁tribes	-8517
▁Display	-8518
▁exchanges	-8519
▁installation	-8520
▁87	-8521
▁EX	-8522
▁NH	-8523
alli	-8524
ulum	-8525
▁fan	-8526
▁fou	-8527
▁gif	-8528
ivals	-8529
▁bare	-8530
itudes	-8531
rating	-8532
▁adjud	-8533
▁hotel	-8534
▁penet	-8535
▁download	-8536
▁slightly	-8537
▁Promotion	-8538
▁membership	-8539
10	-8540
ffee	-8541
illy	-8542
▁Aur	-8543
▁wed	-8544
▁1984	-8545
▁Madh	-8546
▁Sank	-8547
▁horn	-8548
▁semi	-8549
▁depre	-8550
▁driven	-8551
▁nervous	-8552
▁actively	-8553
▁handling	-8554
▁presents	-8555
▁candidate	-8556
▁convinced	-8557
▁stakeholders	-8558
▁dies	-8559
▁hide	-8560
▁orth	-8561
▁rein	-8562
▁resc	-8563
▁tack	-8564
▁thro	-8565
father	-8566
ulates	-8567
▁Repeal	-8568
▁Iranian	-8569
▁massive	-8570
▁breeding	-8571
▁expanded	-8572
▁Americans	-8573
▁admission	-8574
▁disability	-8575
▁separately	-8576
▁la	-8577
▁183	-8578
▁Cost	-8579
▁Requ	-8580
▁hunt	-8581
▁Nation	-8582
▁troops	-8583
▁elsewhere	-8584
▁obviously	-8585
pay	-8586
book	-8587
▁Jews	-8588
▁Radh	-8589
▁amaz	-8590
▁tons	-8591
istence	-8592
▁speedy	-8593
▁MESSAGE	-8594
▁Windows	-8595
▁speeches	-8596
▁addresses	-8597
▁Ministries	-8598
▁terrorists	-8599
▁py	-8600
▁Has	-8601
▁Jam	-8602
▁Next	-8603
▁Kabir	-8604
▁broke	-8605
▁Scient	-8606
▁essence	-8607
▁keyboard	-8608
▁marginal	-8609
▁surprise	-8610
DI	-8611
roid	-8612
▁Vive	-8613
▁stem	-8614
▁abuse	-8615
▁admit	-8616
▁crowd	-8617
▁butter	-8618
▁peculi	-8619
▁struck	-8620
▁vessels	-8621
▁hardware	-8622
▁arguments	-8623
▁residential	-8624
AYS	-8625
▁cin	-8626
hesis	-8627
▁Down	-8628
▁alcoh	-8629
▁driver	-8630
▁oxygen	-8631
▁Product	-8632
▁desktop	-8633
▁preceding	-8634
▁violation	-8635
▁79	-8636
isal	-8637
rich	-8638
▁Til	-8639
▁tor	-8640
itary	-8641
▁cogn	-8642
person	-8643
▁logic	-8644
▁confirm	-8645
▁players	-8646
▁dialogue	-8647
▁premises	-8648
▁sympathy	-8649
▁excessive	-8650
▁governing	-8651
▁ignorance	-8652
▁originally	-8653
▁rehabilitation	-8654
UG	-8655
bh	-8656
ocks	-8657
rase	-8658
agues	-8659
ridge	-8660
▁Band	-8661
▁Hard	-8662
▁noble	-8663
▁plate	-8664
▁agents	-8665
▁handed	-8666
▁Deposit	-8667
▁Gujarati	-8668
▁supplied	-8669
▁withdrawal	-8670
BER	-8671
will	-8672
▁Spec	-8673
▁Vict	-8674
▁nose	-8675
▁vulner	-8676
▁Subhash	-8677
▁acquire	-8678
▁Standards	-8679
▁expertise	-8680
Cs	-8681
idity	-8682
▁Long	-8683
▁movie	-8684
essment	-8685
▁Partic	-8686
▁assert	-8687
▁knowing	-8688
▁savings	-8689
▁finished	-8690
▁incidents	-8691
▁Additional	-8692
▁designated	-8693
awn	-8694
rue	-8695
▁77	-8696
itan	-8697
▁mit	-8698
place	-8699
ighter	-8700
inking	-8701
theless	-8702
▁Bureau	-8703
▁decimal	-8704
sequently	-8705
▁Movement	-8706
▁generate	-8707
▁minority	-8708
▁overseas	-8709
▁occupation	-8710
▁formulation	-8711
oz	-8712
aar	-8713
agn	-8714
kal	-8715
▁184	-8716
▁IPv	-8717
▁Kitt	-8718
▁arts	-8719
▁pock	-8720
iceroy	-8721
▁adapt	-8722
▁films	-8723
▁optim	-8724
▁topic	-8725
ignment	-8726
▁Modern	-8727
▁quoted	-8728
▁tendency	-8729
▁relatively	-8730
iac	-8731
▁AW	-8732
lers	-8733
antra	-8734
stone	-8735
▁shoot	-8736
▁breach	-8737
quarters	-8738
▁telling	-8739
▁broadcast	-8740
▁Institution	-8741
-19	-8742
oda	-8743
▁Ny	-8744
▁Cho	-8745
▁lov	-8746
▁pion	-8747
acific	-8748
▁Grand	-8749
▁Sahib	-8750
▁Solar	-8751
▁Vedas	-8752
▁evalu	-8753
▁holid	-8754
▁Default	-8755
▁patterns	-8756
otism	-8757
▁jump	-8758
▁Durga	-8759
▁glory	-8760
▁tests	-8761
▁Bhutan	-8762
▁ancest	-8763
▁lawyer	-8764
▁pursue	-8765
▁singing	-8766
▁cultures	-8767
▁monetary	-8768
EL	-8769
anim	-8770
▁Yoj	-8771
▁1000	-8772
▁Azad	-8773
▁inqu	-8774
pector	-8775
▁Citiz	-8776
▁gramm	-8777
▁protein	-8778
▁subsidy	-8779
▁utilised	-8780
▁conducting	-8781
▁particulars	-8782
kim	-8783
▁95	-8784
airy	-8785
aimed	-8786
amboo	-8787
▁Shar	-8788
▁shut	-8789
▁warn	-8790
abetes	-8791
▁Amrit	-8792
▁plains	-8793
▁affects	-8794
▁focused	-8795
▁protest	-8796
▁winning	-8797
▁engagement	-8798
▁determining	-8799
OV	-8800
UB	-8801
ford	-8802
▁Bhav	-8803
▁Jour	-8804
▁Main	-8805
istrar	-8806
▁domin	-8807
▁planet	-8808
▁Lucknow	-8809
▁Articles	-8810
▁occupied	-8811
▁peculiar	-8812
▁schedule	-8813
▁Transport	-8814
▁communications	-8815
UD	-8816
pes	-8817
pura	-8818
▁Sad	-8819
ammed	-8820
▁palm	-8821
asures	-8822
▁fract	-8823
▁rhyth	-8824
▁stable	-8825
▁breaking	-8826
▁enhancing	-8827
▁tolerance	-8828
▁livelihood	-8829
▁CR	-8830
▁Tib	-8831
▁Page	-8832
▁usage	-8833
attered	-8834
▁Region	-8835
▁machines	-8836
▁concluded	-8837
▁empowered	-8838
▁absolutely	-8839
▁phenomenon	-8840
▁prevention	-8841
▁observation	-8842
▁Organisation	-8843
DR	-8844
TR	-8845
▁59	-8846
▁gov	-8847
▁isn	-8848
▁vii	-8849
▁Mean	-8850
▁shot	-8851
olving	-8852
▁abdom	-8853
▁harmon	-8854
▁mineral	-8855
▁advocate	-8856
▁Himalayan	-8857
▁Christians	-8858
▁compliance	-8859
▁approximately	-8860
EP	-8861
orry	-8862
▁bug	-8863
▁Imple	-8864
▁Media	-8865
▁Vivek	-8866
▁acted	-8867
▁anger	-8868
▁assemb	-8869
▁couldn	-8870
▁margin	-8871
▁viewed	-8872
▁vimana	-8873
▁writes	-8874
▁authors	-8875
▁insurer	-8876
▁mixture	-8877
▁Contract	-8878
▁preserve	-8879
MM	-8880
ett	-8881
log	-8882
uma	-8883
▁62	-8884
adra	-8885
▁EVE	-8886
rible	-8887
▁Desp	-8888
▁Wild	-8889
▁arrive	-8890
▁freely	-8891
▁levied	-8892
▁cancell	-8893
▁denomin	-8894
▁printer	-8895
▁Appendix	-8896
▁announce	-8897
▁objection	-8898
▁delegation	-8899
alaya	-8900
▁clin	-8901
▁sake	-8902
itated	-8903
ortion	-8904
▁Arabs	-8905
▁Const	-8906
▁bones	-8907
ologist	-8908
▁Jagann	-8909
▁sounds	-8910
▁visits	-8911
▁fashion	-8912
▁Resource	-8913
▁immovable	-8914
▁cooperative	-8915
ese	-8916
uri	-8917
eals	-8918
vara	-8919
▁voc	-8920
▁Loan	-8921
▁Nand	-8922
▁supr	-8923
▁cease	-8924
▁genes	-8925
▁india	-8926
▁William	-8927
▁creates	-8928
▁ignored	-8929
▁revised	-8930
▁commerce	-8931
▁reserves	-8932
▁succession	-8933
pa	-8934
teen	-8935
upee	-8936
▁lac	-8937
▁nod	-8938
adequ	-8939
▁1954	-8940
▁Type	-8941
▁Vish	-8942
▁stip	-8943
▁unem	-8944
ancies	-8945
▁Space	-8946
▁Agency	-8947
▁Bhagat	-8948
▁Finally	-8949
▁outcome	-8950
▁streams	-8951
▁attained	-8952
▁experiments	-8953
▁innovations	-8954
▁involvement	-8955
▁modification	-8956
▁participants	-8957
▁Environmental	-8958
▁78	-8959
▁CL	-8960
oure	-8961
acles	-8962
▁1963	-8963
▁Thir	-8964
▁ages	-8965
oultry	-8966
▁perce	-8967
▁compan	-8968
▁humans	-8969
▁nearby	-8970
▁nobody	-8971
▁Minimum	-8972
▁Narayan	-8973
▁exclusively	-8974
▁preliminary	-8975
ITY	-8976
nut	-8977
▁rab	-8978
onent	-8979
▁1946	-8980
▁Care	-8981
▁sees	-8982
ounded	-8983
ushing	-8984
▁reign	-8985
▁Sharma	-8986
▁believes	-8987
▁dimension	-8988
▁colleagues	-8989
▁imperialism	-8990
▁67	-8991
ENCE	-8992
▁rat	-8993
arkar	-8994
▁chap	-8995
▁fond	-8996
otions	-8997
▁Raman	-8998
▁abund	-8999
▁equals	-9000
▁exceeds	-9001
▁federal	-9002
▁Aurobind	-9003
▁attacked	-9004
▁Technical	-9005
▁qualified	-9006
▁personally	-9007
▁Yam	-9008
▁Bhai	-9009
▁nest	-9010
akings	-9011
▁Samaj	-9012
▁chart	-9013
▁hyper	-9014
▁Senior	-9015
▁Pension	-9016
▁binding	-9017
▁clauses	-9018
▁missing	-9019
▁Railways	-9020
▁Standard	-9021
▁commodity	-9022
▁discovery	-9023
▁Dwarkanath	-9024
▁surrounded	-9025
ocy	-9026
▁unh	-9027
▁Pract	-9028
▁Design	-9029
▁Museum	-9030
▁Sindhi	-9031
▁agenda	-9032
▁Revenue	-9033
▁Viceroy	-9034
▁distant	-9035
▁enables	-9036
▁separated	-9037
▁surrender	-9038
▁electrical	-9039
▁capabilities	-9040
UK	-9041
EST	-9042
aunt	-9043
emat	-9044
▁tum	-9045
▁van	-9046
▁aged	-9047
▁void	-9048
terior	-9049
▁magic	-9050
▁pestic	-9051
▁reward	-9052
▁destiny	-9053
▁realized	-9054
▁judgments	-9055
▁allocation	-9056
▁accommodation	-9057
▁IF	-9058
rawn	-9059
▁Jer	-9060
plant	-9061
ulses	-9062
▁1972	-9063
▁1977	-9064
▁dish	-9065
▁hung	-9066
▁outs	-9067
urrent	-9068
▁Level	-9069
▁Patna	-9070
▁repro	-9071
▁Status	-9072
▁serves	-9073
▁Subject	-9074
▁conform	-9075
▁drought	-9076
▁dynasty	-9077
▁entries	-9078
▁balanced	-9079
▁dividend	-9080
▁limitations	-9081
▁perspective	-9082
mo	-9083
▁ha	-9084
▁ul	-9085
chen	-9086
soon	-9087
▁Vid	-9088
▁kit	-9089
▁vex	-9090
▁Fest	-9091
▁suits	-9092
▁Maurit	-9093
▁Freedom	-9094
▁observe	-9095
▁submission	-9096
▁substances	-9097
uni	-9098
▁ho	-9099
▁Area	-9100
▁Call	-9101
▁Ocean	-9102
▁indul	-9103
▁reass	-9104
▁Singles	-9105
▁avoided	-9106
▁enemies	-9107
▁Commerce	-9108
▁inferior	-9109
▁retained	-9110
▁wonderful	-9111
▁productive	-9112
▁restricted	-9113
▁intervention	-9114
▁concentration	-9115
▁ma	-9116
acco	-9117
ahan	-9118
rosc	-9119
▁Hus	-9120
▁Sin	-9121
▁Vin	-9122
▁ped	-9123
orney	-9124
▁Sikhs	-9125
▁spell	-9126
▁trick	-9127
▁Sikkim	-9128
▁thrown	-9129
▁declare	-9130
▁vitamin	-9131
▁Chancell	-9132
▁repealed	-9133
▁safeguard	-9134
▁Integrated	-9135
▁accounting	-9136
▁Directorate	-9137
.08	-9138
▁SA	-9139
atta	-9140
eers	-9141
▁Opt	-9142
▁gro	-9143
ulent	-9144
agraha	-9145
atious	-9146
▁Grant	-9147
▁Video	-9148
▁storm	-9149
▁mining	-9150
▁estimate	-9151
▁Aurobindo	-9152
▁preparing	-9153
▁consistent	-9154
▁reputation	-9155
MENT	-9156
ndra	-9157
▁bio	-9158
attis	-9159
▁Conv	-9160
▁Soon	-9161
▁mart	-9162
▁actor	-9163
inarily	-9164
▁allied	-9165
▁forgot	-9166
▁harass	-9167
▁insert	-9168
▁museum	-9169
▁forming	-9170
▁advances	-9171
▁extending	-9172
▁addressing	-9173
▁Dy	-9174
▁Ek	-9175
▁Rat	-9176
▁estate	-9177
▁license	-9178
▁tissues	-9179
▁NATIONAL	-9180
▁Protocol	-9181
▁Question	-9182
▁attractive	-9183
▁separation	-9184
▁Constituent	-9185
▁MW	-9186
fare	-9187
▁Job	-9188
▁Oil	-9189
▁Tom	-9190
▁din	-9191
imony	-9192
night	-9193
▁Rece	-9194
▁Greek	-9195
▁Quran	-9196
▁brand	-9197
▁widow	-9198
ailable	-9199
▁Forces	-9200
▁decree	-9201
▁grains	-9202
▁habits	-9203
▁untouch	-9204
▁suggests	-9205
▁photograph	-9206
▁Radhakrishnan	-9207
PA	-9208
ipp	-9209
osa	-9210
▁69	-9211
▁Ber	-9212
▁peak	-9213
▁spir	-9214
▁flows	-9215
▁plural	-9216
▁Russian	-9217
▁Shankar	-9218
▁entrance	-9219
▁Malayalam	-9220
▁cup	-9221
aland	-9222
apore	-9223
▁1930	-9224
▁hect	-9225
▁therm	-9226
▁tight	-9227
▁Budget	-9228
▁Should	-9229
▁bought	-9230
▁insult	-9231
▁tenant	-9232
▁toward	-9233
onscious	-9234
▁chemicals	-9235
▁prisoners	-9236
▁connections	-9237
▁Rabindranath	-9238
conn	-9239
icing	-9240
▁1951	-9241
▁1955	-9242
▁beet	-9243
stream	-9244
wealth	-9245
▁favor	-9246
▁deleted	-9247
▁Abdullah	-9248
▁Agreement	-9249
▁desirable	-9250
ju	-9251
▁#	-9252
onic	-9253
▁Vig	-9254
▁1938	-9255
▁nurt	-9256
inions	-9257
▁chick	-9258
▁immig	-9259
▁assume	-9260
▁muscles	-9261
▁satisfy	-9262
▁skilled	-9263
▁dismissed	-9264
▁judgement	-9265
▁grievances	-9266
▁inevitable	-9267
▁liberation	-9268
▁publications	-9269
▁developmental	-9270
valid	-9271
▁degr	-9272
▁tact	-9273
▁tiny	-9274
onomic	-9275
ressal	-9276
▁Gopal	-9277
▁manpower	-9278
▁surrounding	-9279
30	-9280
AK	-9281
▁ov	-9282
tery	-9283
▁tap	-9284
andra	-9285
▁1939	-9286
▁Tool	-9287
icable	-9288
▁helpl	-9289
ichever	-9290
▁advent	-9291
▁miscon	-9292
▁therap	-9293
▁Library	-9294
▁contrad	-9295
▁approaches	-9296
EC	-9297
▁97	-9298
▁AR	-9299
lock	-9300
tain	-9301
▁1975	-9302
▁hors	-9303
ipping	-9304
▁foods	-9305
▁Employ	-9306
▁deaths	-9307
▁weapon	-9308
ificates	-9309
▁Airport	-9310
▁fraction	-9311
▁functional	-9312
▁Enc	-9313
▁Old	-9314
▁Vik	-9315
▁bes	-9316
▁Star	-9317
▁Sult	-9318
▁paddy	-9319
▁width	-9320
▁resemb	-9321
▁arrival	-9322
▁rendering	-9323
▁controversy	-9324
obar	-9325
ques	-9326
▁Dou	-9327
▁Hem	-9328
chron	-9329
rives	-9330
▁1969	-9331
▁Prop	-9332
usions	-9333
▁sport	-9334
▁Center	-9335
▁Spirit	-9336
▁deeper	-9337
▁legend	-9338
▁reiter	-9339
▁streets	-9340
▁Ayurveda	-9341
▁disaster	-9342
▁Palestinians	-9343
▁Os	-9344
▁Lic	-9345
▁tow	-9346
araja	-9347
▁1978	-9348
▁Rate	-9349
▁monu	-9350
▁Indra	-9351
▁Koran	-9352
▁borne	-9353
▁ports	-9354
▁extends	-9355
▁lending	-9356
▁initially	-9357
▁collecting	-9358
▁psychological	-9359
var	-9360
ourn	-9361
▁Prim	-9362
▁seiz	-9363
▁Audio	-9364
▁Total	-9365
▁doors	-9366
▁reads	-9367
▁flying	-9368
▁hatred	-9369
▁Install	-9370
▁Pacific	-9371
▁Turkish	-9372
▁exposed	-9373
▁Electric	-9374
▁railways	-9375
▁highlight	-9376
▁indirectly	-9377
▁transmitted	-9378
kes	-9379
athi	-9380
bery	-9381
emen	-9382
idav	-9383
pons	-9384
▁120	-9385
▁Haz	-9386
▁Mer	-9387
▁tape	-9388
liness	-9389
acharya	-9390
▁Survey	-9391
▁patron	-9392
▁Invalid	-9393
▁Monitor	-9394
▁inadequ	-9395
▁segment	-9396
▁romantic	-9397
▁substantially	-9398
SA	-9399
das	-9400
▁eg	-9401
▁mac	-9402
point	-9403
▁Mill	-9404
▁Viet	-9405
▁penis	-9406
▁laying	-9407
▁losses	-9408
▁Appeals	-9409
▁anybody	-9410
▁funding	-9411
▁helpful	-9412
▁laboure	-9413
▁belonged	-9414
▁supports	-9415
orticulture	-9416
▁supramental	-9417
▁philosophical	-9418
cut	-9419
oused	-9420
▁Jord	-9421
▁Prat	-9422
▁bulk	-9423
▁Ashok	-9424
▁Estab	-9425
▁Indus	-9426
▁Arabia	-9427
▁specim	-9428
▁cooking	-9429
▁festivals	-9430
▁responses	-9431
▁spreading	-9432
▁whichever	-9433
▁transparency	-9434
jo	-9435
mat	-9436
▁sul	-9437
▁Sang	-9438
▁ster	-9439
▁Urban	-9440
▁ambit	-9441
▁dialog	-9442
esthetic	-9443
▁summary	-9444
▁coloured	-9445
▁possibly	-9446
▁studying	-9447
▁Palestine	-9448
▁fulfilled	-9449
▁countrymen	-9450
▁enthusiasm	-9451
▁shareholders	-9452
▁simultaneously	-9453
gra	-9454
hta	-9455
▁VI	-9456
hari	-9457
▁Suf	-9458
orate	-9459
▁Bhar	-9460
▁Chak	-9461
▁Fire	-9462
angers	-9463
▁Creat	-9464
▁shout	-9465
▁Contin	-9466
▁oldest	-9467
▁videos	-9468
▁Despite	-9469
▁logical	-9470
▁plastic	-9471
▁warning	-9472
▁Directors	-9473
▁incentives	-9474
▁mechanical	-9475
opp	-9476
▁76	-9477
▁orn	-9478
astri	-9479
ipedia	-9480
▁Patel	-9481
▁depri	-9482
▁shops	-9483
▁eleven	-9484
chnology	-9485
▁Hamachi	-9486
▁Upanish	-9487
▁shoulder	-9488
▁Political	-9489
▁dedication	-9490
▁prevailing	-9491
▁explanation	-9492
▁strengthened	-9493
hana	-9494
▁250	-9495
▁Guid	-9496
▁Rani	-9497
▁tied	-9498
▁unus	-9499
▁Menon	-9500
▁cryst	-9501
▁fright	-9502
▁treaty	-9503
▁beliefs	-9504
▁Whatever	-9505
▁pregnant	-9506
▁Registrar	-9507
▁intensity	-9508
▁transparent	-9509
LECT	-9510
▁aqu	-9511
iscal	-9512
▁Gard	-9513
▁Orig	-9514
▁stro	-9515
charge	-9516
▁irrit	-9517
▁photo	-9518
▁slope	-9519
▁tends	-9520
manship	-9521
▁humble	-9522
▁shadow	-9523
▁splend	-9524
▁termin	-9525
▁thrust	-9526
▁Emperor	-9527
▁earthqu	-9528
▁interim	-9529
▁secured	-9530
▁assessed	-9531
▁brilliant	-9532
▁economies	-9533
▁protecting	-9534
hr	-9535
▁89	-9536
▁Ha	-9537
▁PS	-9538
▁Abs	-9539
▁Hig	-9540
▁tag	-9541
ashed	-9542
earing	-9543
▁Ident	-9544
▁virus	-9545
▁Jordan	-9546
▁differ	-9547
ologists	-9548
▁Manager	-9549
▁reconst	-9550
▁Northern	-9551
▁allowing	-9552
▁regulate	-9553
▁envisaged	-9554
▁Constitutional	-9555
▁ji	-9556
▁Kath	-9557
▁Point	-9558
▁disag	-9559
▁mango	-9560
mitting	-9561
▁Father	-9562
▁Yojana	-9563
▁utmost	-9564
▁conspir	-9565
▁Panchayat	-9566
▁Terrorism	-9567
▁prevalent	-9568
▁accessible	-9569
▁anniversary	-9570
▁irrespective	-9571
ago	-9572
▁Ken	-9573
cence	-9574
▁uter	-9575
enders	-9576
isting	-9577
▁Prosec	-9578
▁camera	-9579
▁answered	-9580
▁concrete	-9581
▁orthodox	-9582
▁inaugurated	-9583
elt	-9584
phal	-9585
▁Nam	-9586
▁apt	-9587
amese	-9588
aunch	-9589
▁Link	-9590
▁Poly	-9591
acular	-9592
▁Plant	-9593
▁alarm	-9594
▁tears	-9595
▁anonym	-9596
▁crimes	-9597
▁grants	-9598
▁ceremon	-9599
attisgarh	-9600
▁Mohammed	-9601
▁introduce	-9602
▁provinces	-9603
▁withdrawn	-9604
▁incomplete	-9605
▁Territories	-9606
▁allegations	-9607
▁considerably	-9608
▁Hit	-9609
▁Vaj	-9610
▁cha	-9611
▁Pack	-9612
▁epis	-9613
▁ling	-9614
▁mamm	-9615
▁purity	-9616
▁coverage	-9617
▁appellate	-9618
▁expensive	-9619
▁inflation	-9620
▁81	-9621
ihad	-9622
look	-9623
▁lob	-9624
▁1962	-9625
▁disb	-9626
ickets	-9627
▁bench	-9628
▁moves	-9629
▁prisoner	-9630
▁proceeds	-9631
▁rainfall	-9632
▁affecting	-9633
▁gathering	-9634
▁proceeded	-9635
▁satellite	-9636
▁recruitment	-9637
▁interference	-9638
azi	-9639
vas	-9640
▁Mrs	-9641
▁Ten	-9642
rants	-9643
▁1952	-9644
erving	-9645
holder	-9646
▁admir	-9647
▁honey	-9648
▁talks	-9649
▁Mobile	-9650
▁voting	-9651
▁Manilal	-9652
▁shelter	-9653
▁statute	-9654
▁computed	-9655
unications	-9656
▁Evolution	-9657
▁Territory	-9658
▁commencing	-9659
isan	-9660
isha	-9661
▁Gre	-9662
onged	-9663
▁chol	-9664
▁germ	-9665
▁Hamas	-9666
▁doubts	-9667
▁explos	-9668
▁extrem	-9669
▁reveal	-9670
▁Andaman	-9671
▁Benefit	-9672
▁Details	-9673
▁lecture	-9674
▁demanded	-9675
▁managing	-9676
▁Secretariat	-9677
keep	-9678
utra	-9679
▁vot	-9680
▁fool	-9681
▁crude	-9682
▁......	-9683
▁clouds	-9684
▁fisher	-9685
▁tempor	-9686
▁alcohol	-9687
▁magnetic	-9688
▁considers	-9689
▁challenged	-9690
▁nationalism	-9691
iety	-9692
oven	-9693
rued	-9694
stan	-9695
▁Run	-9696
▁une	-9697
nagar	-9698
▁Camp	-9699
▁Lake	-9700
▁Proc	-9701
▁neut	-9702
▁Basic	-9703
▁Royal	-9704
▁remun	-9705
▁Within	-9706
▁lesser	-9707
▁discount	-9708
▁Europeans	-9709
▁basically	-9710
▁witnessed	-9711
iki	-9712
iot	-9713
▁61	-9714
▁Ris	-9715
▁aug	-9716
eling	-9717
▁nice	-9718
ounter	-9719
roller	-9720
▁Queen	-9721
▁games	-9722
edience	-9723
▁Golden	-9724
▁Island	-9725
▁Tribes	-9726
▁exempt	-9727
▁Natural	-9728
▁utility	-9729
▁Buddhism	-9730
▁formulated	-9731
▁statistics	-9732
▁significantly	-9733
▁Recommendation	-9734
beh	-9735
occ	-9736
▁Ib	-9737
▁Bri	-9738
▁Fig	-9739
▁Lol	-9740
▁Sidd	-9741
▁obsc	-9742
▁Emerg	-9743
▁fourt	-9744
▁immort	-9745
▁Asutosh	-9746
▁nearest	-9747
▁suspect	-9748
▁touched	-9749
▁Recovery	-9750
▁contempl	-9751
▁connecting	-9752
IST	-9753
iat	-9754
rypt	-9755
▁600	-9756
▁Pip	-9757
▁Rai	-9758
▁1967	-9759
▁Kore	-9760
▁NIOS	-9761
▁SHRI	-9762
usalem	-9763
▁Appro	-9764
▁Broad	-9765
▁parad	-9766
▁bamboo	-9767
▁dollar	-9768
▁Cricket	-9769
▁behavior	-9770
▁Jerusalem	-9771
▁Secondary	-9772
▁elephants	-9773
▁medicines	-9774
▁liabilities	-9775
sar	-9776
cetic	-9777
▁Hosp	-9778
▁gest	-9779
▁Tilak	-9780
▁cheap	-9781
▁smart	-9782
▁unexp	-9783
▁Almast	-9784
▁Friend	-9785
▁hunger	-9786
▁matches	-9787
▁monsoon	-9788
▁survive	-9789
▁acquaint	-9790
▁maturity	-9791
▁membrane	-9792
▁automatic	-9793
▁deposited	-9794
▁Revolution	-9795
▁Commonwealth	-9796
▁administrator	-9797
cel	-9798
erk	-9799
▁AC	-9800
▁kh	-9801
▁Bre	-9802
▁Fre	-9803
▁Yus	-9804
▁Best	-9805
▁lord	-9806
resent	-9807
urable	-9808
▁Works	-9809
▁bliss	-9810
▁laugh	-9811
▁pharm	-9812
▁Follow	-9813
▁Mahade	-9814
▁decent	-9815
▁emerge	-9816
▁Banking	-9817
▁seconds	-9818
▁hospitals	-9819
▁recognise	-9820
▁conversation	-9821
▁professionals	-9822
onds	-9823
▁VII	-9824
▁vel	-9825
utors	-9826
▁Fold	-9827
▁bell	-9828
▁drew	-9829
▁wake	-9830
icating	-9831
▁Lolita	-9832
▁solemn	-9833
▁Housing	-9834
▁cluster	-9835
▁sincere	-9836
▁disposed	-9837
▁linkages	-9838
▁elaborate	-9839
uta	-9840
▁96	-9841
▁Det	-9842
▁1979	-9843
▁Meet	-9844
▁agro	-9845
▁rear	-9846
▁David	-9847
▁guess	-9848
▁Prince	-9849
▁consec	-9850
aughters	-9851
▁concepts	-9852
▁subjected	-9853
▁Regulatory	-9854
▁altogether	-9855
▁notwithstanding	-9856
osy	-9857
▁BI	-9858
▁Bo	-9859
ilee	-9860
▁Case	-9861
▁SAYS	-9862
▁angry	-9863
▁enfor	-9864
▁mature	-9865
▁refuse	-9866
▁Conduct	-9867
▁Advocate	-9868
▁allotted	-9869
▁diabetes	-9870
▁helpless	-9871
▁previously	-9872
acc	-9873
▁EN	-9874
▁Ru	-9875
aped	-9876
appa	-9877
icts	-9878
▁cod	-9879
▁Line	-9880
▁oath	-9881
▁crack	-9882
▁cancel	-9883
▁guided	-9884
▁timely	-9885
▁typical	-9886
▁watching	-9887
▁frequency	-9888
▁generating	-9889
▁legitimate	-9890
▁mechanisms	-9891
JEE	-9892
▁82	-9893
▁Tat	-9894
riers	-9895
▁Full	-9896
▁Pall	-9897
▁Poet	-9898
▁lays	-9899
advant	-9900
▁Yusuf	-9901
▁embod	-9902
▁minim	-9903
▁relie	-9904
imental	-9905
▁attach	-9906
▁patent	-9907
▁	-9908
e	-9909
t	-9910
a	-9911
o	-9912
i	-9913
n	-9914
s	-9915
r	-9916
h	-9917
l	-9918
d	-9919
c	-9920
u	-9921
m	-9922
f	-9923
p	-9924
g	-9925
y	-9926
w	-9927
b	-9928
.	-9929
v	-9930
,	-9931
k	-9932
I	-9933
T	-9934
A	-9935
S	-9936
C	-9937
;	-9938
-	-9939
&	-9940
1	-9941
P	-9942
x	-9943
M	-9944
R	-9945
B	-9946
0	-9947
E	-9948
D	-9949
j	-9950
H	-9951
N	-9952
2	-9953
)	-9954
(	-9955
G	-9956
q	-9957
O	-9958
L	-9959
9	-9960
W	-9961
F	-9962
3	-9963
5	-9964
z	-9965
:	-9966
4	-9967
K	-9968
U	-9969
8	-9970
6	-9971
J	-9972
7	-9973
/	-9974
V	-9975
”	-9976
Y	-9977
“	-9978
?	-9979
%	-9980
’	-9981
#	-9982
‘	-9983
!	-9984
Q	-9985
{	-9986
}	-9987
—	-9988
_	-9989
X	-9990
Z	-9991
*	-9992
–	-9993
$	-9994
्	-9995
=	-9996
