<unk>	0
<s>	0
</s>	0
UuRrLl	0
DdAaTtEe	0
NnUuMm	0
▁the	-3.18206
▁	-3.46017
▁.	-3.47279
▁of	-3.52105
▁,	-3.52608
s	-3.7572
▁and	-3.98426
▁to	-4.0187
▁in	-4.18097
▁a	-4.31621
▁is	-4.66195
;	-4.89101
▁&	-4.92967
▁-	-5.02619
▁for	-5.06579
0	-5.08535
▁that	-5.12926
▁The	-5.15527
ing	-5.1885
ed	-5.21766
apos	-5.25105
▁be	-5.27916
▁or	-5.33704
▁by	-5.45066
▁on	-5.45826
▁s	-5.48322
▁)	-5.48897
▁(	-5.49286
▁as	-5.51122
▁was	-5.52792
▁with	-5.57116
▁are	-5.63605
▁it	-5.65789
▁not	-5.74339
▁this	-5.78369
d	-5.83056
▁which	-5.87061
▁I	-5.88065
▁from	-5.9166
.	-5.94124
▁have	-5.94178
▁has	-5.94683
▁an	-5.9815
▁his	-5.9945
1	-6.07037
▁at	-6.0843
ly	-6.08642
▁A	-6.10616
▁:	-6.11896
e	-6.14317
▁he	-6.18022
▁India	-6.24883
▁you	-6.2496
er	-6.27729
▁In	-6.35021
y	-6.36126
▁all	-6.36825
al	-6.3889
-	-6.39777
▁can	-6.45384
▁any	-6.473
▁will	-6.48777
▁their	-6.49224
▁It	-6.49384
▁one	-6.49408
▁been	-6.50824
▁we	-6.52702
▁also	-6.57326
▁had	-6.59492
▁other	-6.59854
▁its	-6.67174
▁/	-6.67547
▁were	-6.67749
▁but	-6.67823
▁”	-6.68479
n	-6.71425
▁such	-6.71654
▁under	-6.72711
▁He	-6.73829
▁“	-6.74777
a	-6.76049
▁;	-6.76144
▁who	-6.79971
▁may	-6.80168
▁our	-6.81884
▁they	-6.82352
▁S	-6.83659
▁time	-6.84183
es	-6.86252
2	-6.87182
▁there	-6.87856
▁This	-6.89195
t	-6.89385
▁up	-6.91688
▁out	-6.92736
▁so	-6.93199
▁?	-6.9412
▁no	-6.95426
▁more	-6.96999
▁should	-6.97792
i	-6.98207
▁people	-6.98514
▁would	-6.98962
▁re	-6.99349
r	-7.00001
▁%	-7.00381
▁them	-7.00449
th	-7.00977
▁only	-7.03357
▁if	-7.04321
ion	-7.04988
▁into	-7.05565
▁about	-7.05716
▁Act	-7.06109
▁do	-7.10044
▁t	-7.11454
▁like	-7.12071
▁these	-7.13604
▁when	-7.13817
▁him	-7.14856
▁made	-7.15307
▁two	-7.15409
▁over	-7.15765
m	-7.1643
▁your	-7.1649
▁’	-7.18757
▁shall	-7.18853
▁some	-7.19571
▁Indian	-7.20341
in	-7.20688
▁P	-7.2187
or	-7.22365
l	-7.22728
▁new	-7.2275
▁than	-7.24516
▁C	-7.25144
▁State	-7.26204
▁Government	-7.26842
▁her	-7.28849
ic	-7.30173
quot	-7.30231
▁said	-7.32071
lt	-7.32927
▁being	-7.33121
▁But	-7.34372
▁life	-7.34376
k	-7.35278
▁Court	-7.35322
▁after	-7.35344
ation	-7.35883
able	-7.36748
▁where	-7.37096
▁un	-7.37746
▁We	-7.39533
▁me	-7.39788
ity	-7.40074
▁first	-7.40785
▁years	-7.40901
st	-7.41119
▁country	-7.41222
▁B	-7.41643
▁through	-7.41904
3	-7.4325
▁very	-7.43948
an	-7.44057
▁my	-7.4413
ers	-7.46386
▁what	-7.46663
▁work	-7.47562
▁year	-7.47577
▁world	-7.49285
▁President	-7.49479
▁So	-7.49739
▁could	-7.49798
▁must	-7.50801
▁well	-7.51355
▁And	-7.51456
▁person	-7.52
▁case	-7.52216
gt	-7.53807
▁b	-7.54024
▁per	-7.54882
▁L	-7.56485
h	-7.56625
▁many	-7.57107
ar	-7.57186
▁before	-7.57606
▁D	-7.57687
▁If	-7.58539
▁between	-7.58613
▁1	-7.58846
▁There	-7.59142
▁used	-7.60301
na	-7.60785
▁make	-7.61435
▁part	-7.62162
ness	-7.62962
il	-7.64589
amp	-7.6477
▁day	-7.64897
▁section	-7.65546
▁even	-7.65749
o	-7.66526
en	-7.67334
▁To	-7.67803
▁sub	-7.68124
▁way	-7.68751
ment	-7.69003
▁then	-7.69868
ta	-7.69923
▁law	-7.71323
▁right	-7.7211
▁same	-7.72703
▁M	-7.73428
▁system	-7.73512
▁They	-7.74372
c	-7.74438
le	-7.7477
us	-7.74871
▁take	-7.75074
▁place	-7.75393
▁An	-7.7594
ti	-7.75962
▁most	-7.75962
▁now	-7.76179
▁development	-7.76531
it	-7.76659
▁order	-7.76834
▁number	-7.76864
▁As	-7.77044
ive	-7.77158
▁get	-7.77922
ri	-7.78122
on	-7.79035
re	-7.79661
▁use	-7.79846
ma	-7.80133
▁because	-7.80486
▁Re	-7.80794
▁G	-7.81333
ant	-7.81544
u	-7.81933
▁us	-7.81986
▁against	-7.82391
▁during	-7.82411
▁public	-7.82538
4	-7.82935
▁man	-7.83057
▁R	-7.83191
▁N	-7.83587
▁E	-7.83594
▁long	-7.84425
▁those	-7.84473
▁power	-7.84652
▁own	-7.8489
▁de	-7.85066
ent	-7.85739
ur	-7.85871
A	-7.86279
te	-7.86289
▁period	-7.87229
▁water	-7.87522
ul	-7.87666
▁For	-7.87673
▁go	-7.87976
ate	-7.8798
▁T	-7.88284
▁great	-7.88581
g	-7.887
▁F	-7.88864
▁different	-7.88912
▁You	-7.8913
▁just	-7.8922
am	-7.89574
▁p	-7.90083
▁set	-7.90363
▁three	-7.90489
▁good	-7.90698
▁both	-7.90831
▁need	-7.91831
▁she	-7.92647
▁K	-7.93079
▁called	-7.93351
▁here	-7.94853
▁see	-7.95005
at	-7.9508
▁No	-7.95279
▁form	-7.96343
id	-7.96506
▁etc	-7.9662
▁did	-7.97008
▁given	-7.97169
li	-7.97421
b	-7.97666
5	-7.97935
▁National	-7.98145
um	-7.98164
▁know	-7.9817
as	-7.99007
ary	-7.9928
el	-8.00055
▁down	-8.00106
▁2	-8.00413
ch	-8.0043
▁e	-8.00601
▁‘	-8.01403
▁state	-8.01491
▁much	-8.02115
▁without	-8.02278
p	-8.02474
▁m	-8.0252
x	-8.02832
▁process	-8.032
▁each	-8.03274
ism	-8.0332
▁information	-8.03444
▁important	-8.03474
▁means	-8.03534
▁every	-8.03549
▁c	-8.04296
▁present	-8.04471
▁does	-8.04686
man	-8.04741
S	-8.05612
▁come	-8.05895
▁government	-8.0593
▁co	-8.06896
▁back	-8.07089
▁how	-8.0712
▁amount	-8.07338
ro	-8.0754
▁am	-8.07565
f	-8.07638
ra	-8.07916
I	-8.08034
▁d	-8.08683
▁help	-8.08923
▁found	-8.09054
▁body	-8.09162
▁within	-8.09387
la	-8.09878
▁f	-8.09975
▁business	-8.10081
▁account	-8.11431
▁U	-8.11758
▁human	-8.12754
▁end	-8.13122
▁various	-8.13186
▁social	-8.13833
ia	-8.14657
▁When	-8.14788
B	-8.15266
▁last	-8.15664
▁court	-8.15738
▁taken	-8.16295
▁High	-8.16417
▁name	-8.16581
▁another	-8.1671
▁v	-8.17023
▁education	-8.17235
less	-8.17955
▁!	-8.18059
▁known	-8.18159
sh	-8.18171
ish	-8.18824
▁income	-8.18913
▁respect	-8.19211
▁while	-8.19277
▁Shri	-8.19454
to	-8.19491
lo	-8.19697
▁On	-8.19883
▁view	-8.19931
▁H	-8.19945
age	-8.19998
▁small	-8.20084
▁Central	-8.20553
▁company	-8.20867
ter	-8.20956
ya	-8.21755
▁give	-8.23249
▁Commission	-8.23292
section	-8.23295
▁language	-8.23557
▁large	-8.23769
▁going	-8.23884
▁All	-8.23975
se	-8.24278
▁dis	-8.24463
ance	-8.24522
▁cannot	-8.24664
▁g	-8.24838
ir	-8.25109
P	-8.25261
▁i	-8.25535
▁non	-8.25591
▁times	-8.26063
▁W	-8.26868
▁want	-8.26914
tra	-8.26999
▁high	-8.27246
ne	-8.27516
▁These	-8.27655
▁days	-8.27812
is	-8.28008
ous	-8.2811
C	-8.28348
▁OF	-8.28376
▁con	-8.28956
▁{	-8.29092
▁policy	-8.29111
▁children	-8.29267
ry	-8.29316
▁service	-8.29746
▁}	-8.29796
et	-8.29871
▁—	-8.30025
▁O	-8.30278
▁support	-8.30351
▁available	-8.30589
ist	-8.30728
▁What	-8.31194
▁mind	-8.31376
ated	-8.31744
j	-8.31812
▁far	-8.32098
▁become	-8.32235
ut	-8.32268
▁...	-8.32449
▁death	-8.32477
▁At	-8.32568
▁economic	-8.32568
▁came	-8.3274
▁J	-8.32749
ce	-8.33497
▁countries	-8.33732
▁due	-8.33785
6	-8.34078
▁action	-8.34111
ol	-8.34491
▁today	-8.34578
▁hand	-8.34633
▁matter	-8.35109
▁value	-8.35163
▁whole	-8.35276
▁including	-8.35454
▁say	-8.35589
▁members	-8.35847
▁His	-8.35965
▁V	-8.36012
▁interest	-8.36017
ies	-8.36225
est	-8.36279
▁land	-8.36508
▁provide	-8.36967
▁Section	-8.37242
▁political	-8.37393
▁De	-8.37419
▁national	-8.37494
▁self	-8.38118
▁too	-8.38137
▁done	-8.38591
▁fact	-8.38716
▁Rs	-8.38876
w	-8.38916
▁3	-8.38977
▁area	-8.38978
▁Supreme	-8.39265
▁family	-8.39475
▁free	-8.39649
▁something	-8.39666
▁think	-8.39711
▁provisions	-8.39744
▁States	-8.40188
▁find	-8.40619
▁upon	-8.40778
▁services	-8.40862
▁look	-8.41598
▁society	-8.42422
▁women	-8.4253
ling	-8.42554
▁cases	-8.4265
▁capital	-8.42741
ge	-8.43014
▁subject	-8.43173
▁less	-8.43204
▁head	-8.43314
▁change	-8.43343
▁common	-8.43376
▁date	-8.43768
im	-8.43836
▁level	-8.43912
▁She	-8.43937
▁based	-8.44161
▁Dr	-8.44286
▁certain	-8.44674
▁old	-8.4481
▁four	-8.4487
▁knowledge	-8.45057
▁point	-8.45308
ad	-8.4539
di	-8.46027
ak	-8.46192
▁Delhi	-8.4622
ot	-8.46297
▁nature	-8.46633
▁New	-8.46711
▁areas	-8.4684
▁control	-8.46877
▁4	-8.46895
▁British	-8.47034
▁result	-8.47062
▁provided	-8.47491
▁again	-8.47701
▁Bhavan	-8.47766
E	-8.47837
▁making	-8.47998
▁further	-8.48015
▁left	-8.48086
▁food	-8.48317
▁cent	-8.48464
▁best	-8.48467
▁_	-8.48866
▁necessary	-8.4919
▁Constitution	-8.49297
▁That	-8.4956
▁few	-8.49598
▁question	-8.49654
▁put	-8.49692
▁held	-8.4975
▁pro	-8.4987
▁away	-8.50022
▁One	-8.50031
▁words	-8.50096
ting	-8.50195
▁Singh	-8.502
▁Na	-8.50384
▁window	-8.50408
z	-8.50674
▁special	-8.50697
ence	-8.50863
▁local	-8.51066
ine	-8.51114
▁always	-8.51466
▁English	-8.51513
H	-8.51557
ful	-8.51739
me	-8.51785
▁having	-8.51824
ni	-8.51834
▁age	-8.51851
M	-8.51903
▁off	-8.51904
▁whether	-8.52084
op	-8.52172
▁still	-8.52205
▁clause	-8.52426
▁following	-8.52441
▁full	-8.52543
▁five	-8.52615
▁book	-8.52729
▁position	-8.52732
▁child	-8.52841
▁act	-8.52901
▁sector	-8.5291
▁group	-8.5306
▁home	-8.53077
▁Hindi	-8.53689
▁Sa	-8.5381
▁application	-8.54014
▁required	-8.5416
▁foreign	-8.54207
ci	-8.54401
▁light	-8.54592
ver	-8.54906
▁Committee	-8.54932
▁growth	-8.55022
▁second	-8.55153
▁health	-8.55958
▁little	-8.56054
▁God	-8.56065
ru	-8.56248
▁Rashtrapati	-8.56276
▁possible	-8.56501
▁among	-8.5657
▁things	-8.56706
ty	-8.56711
▁Council	-8.56775
▁money	-8.56802
▁data	-8.56907
▁war	-8.56916
▁purpose	-8.57081
▁love	-8.5717
▁above	-8.57479
han	-8.57677
▁himself	-8.5768
▁Parliament	-8.57823
▁heart	-8.579
mo	-8.58094
▁men	-8.58371
▁Me	-8.58489
▁total	-8.59195
▁itself	-8.59206
▁After	-8.59283
▁house	-8.59675
D	-8.59731
▁open	-8.59869
va	-8.59934
▁ex	-8.60222
▁pre	-8.60547
▁towards	-8.61384
O	-8.61595
▁tax	-8.6161
ha	-8.61636
▁main	-8.61656
▁x	-8.61804
he	-8.61927
▁industry	-8.61987
▁later	-8.62238
ga	-8.62272
▁several	-8.62469
▁individual	-8.63047
ll	-8.63103
▁&#91;	-8.63367
▁Con	-8.63477
▁equal	-8.63641
▁Congress	-8.63716
▁5	-8.63723
▁never	-8.63775
▁effect	-8.63859
▁research	-8.63903
ial	-8.6404
▁type	-8.64556
up	-8.64774
▁RRB	-8.64861
▁around	-8.65136
▁Hindu	-8.65245
pur	-8.65437
lu	-8.65573
wa	-8.65617
▁computer	-8.65684
▁side	-8.65719
sa	-8.6579
▁cost	-8.65843
▁financial	-8.65883
▁production	-8.65927
▁let	-8.65966
▁Minister	-8.66073
▁Union	-8.66088
▁office	-8.66115
▁list	-8.6616
7	-8.66193
▁course	-8.66229
▁&#93;	-8.66268
ct	-8.66282
▁young	-8.66342
ja	-8.66516
v	-8.66563
RB	-8.66567
▁referred	-8.66837
▁Department	-8.6693
▁took	-8.67175
▁post	-8.67311
ating	-8.67447
om	-8.67447
▁Ra	-8.67447
▁rate	-8.67574
mb	-8.67668
▁either	-8.67981
▁already	-8.67988
R	-8.68126
▁therefore	-8.68212
ac	-8.68529
tion	-8.68786
tic	-8.68835
ted	-8.6886
▁market	-8.68986
▁thought	-8.69028
▁since	-8.69376
go	-8.69521
ical	-8.70031
▁term	-8.70047
be	-8.7012
our	-8.70378
▁quality	-8.7051
▁kind	-8.70568
ap	-8.70583
▁pay	-8.70723
▁persons	-8.70802
▁occasion	-8.70955
▁higher	-8.71172
▁general	-8.7138
hi	-8.71624
▁however	-8.71656
▁problem	-8.71887
vi	-8.71904
▁might	-8.72027
▁Ka	-8.72098
▁file	-8.72177
▁activities	-8.72305
▁better	-8.72326
▁Man	-8.72484
▁particular	-8.72552
▁property	-8.72871
▁cause	-8.73036
▁website	-8.73038
▁force	-8.73047
▁Co	-8.73153
▁However	-8.73311
co	-8.73322
▁Do	-8.73674
▁international	-8.73866
▁Some	-8.73891
▁University	-8.74193
▁received	-8.74316
▁plant	-8.74394
▁Mr	-8.74705
▁seen	-8.74796
▁next	-8.7482
▁Muslim	-8.7485
▁nation	-8.75027
▁Ba	-8.75079
▁bank	-8.7515
▁THE	-8.75272
▁Ma	-8.75292
▁keep	-8.75476
▁short	-8.75741
▁House	-8.75829
▁along	-8.7603
ji	-8.76036
▁play	-8.7613
▁Law	-8.76172
▁future	-8.76482
V	-8.76486
▁reason	-8.76642
pi	-8.76691
▁major	-8.76726
▁together	-8.76848
▁went	-8.76889
un	-8.76918
▁authority	-8.76982
▁19	-8.77064
G	-8.77163
▁don	-8.7717
▁project	-8.77409
▁role	-8.77499
▁thing	-8.77502
▁basis	-8.77624
ure	-8.77734
▁face	-8.7784
▁n	-8.77866
▁got	-8.7806
▁Bank	-8.78185
ities	-8.78207
▁St	-8.78257
▁sense	-8.78338
▁working	-8.78483
▁history	-8.78512
N	-8.78561
▁line	-8.78575
de	-8.78578
▁Su	-8.78698
ag	-8.78704
▁example	-8.78778
▁started	-8.78854
▁institutions	-8.78903
▁became	-8.78949
▁Be	-8.79014
▁credit	-8.79105
▁art	-8.79211
▁others	-8.79234
▁bring	-8.79461
▁freedom	-8.79486
▁though	-8.79575
▁trade	-8.79692
8	-8.79693
▁General	-8.79694
▁report	-8.79713
▁La	-8.7973
▁network	-8.79766
▁return	-8.8027
no	-8.80416
▁With	-8.80448
▁word	-8.80878
▁technology	-8.81095
▁related	-8.81247
▁party	-8.81359
▁visit	-8.81545
▁able	-8.81705
▁Pradesh	-8.81833
▁school	-8.81847
▁scheme	-8.81877
▁problems	-8.81939
▁movement	-8.82084
▁written	-8.82098
▁air	-8.82233
ee	-8.8236
W	-8.83043
▁access	-8.83066
nd	-8.83077
▁legal	-8.83328
▁often	-8.83381
▁modern	-8.83423
L	-8.83648
▁manner	-8.8384
▁6	-8.83863
▁rights	-8.83885
▁once	-8.83925
▁field	-8.84395
▁class	-8.8441
▁care	-8.84604
rs	-8.84733
▁regard	-8.84838
ian	-8.84947
os	-8.84995
▁months	-8.85023
T	-8.85067
▁read	-8.85158
▁security	-8.85204
gu	-8.8525
▁address	-8.85285
▁Chief	-8.85399
mi	-8.85414
▁relating	-8.85431
ally	-8.85517
▁goods	-8.85623
▁brought	-8.85632
▁Development	-8.85636
▁established	-8.85641
▁considered	-8.85688
▁matters	-8.85846
▁Bengal	-8.86266
ana	-8.8627
▁transfer	-8.86291
K	-8.86329
▁Gandhi	-8.8642
ud	-8.86441
▁previous	-8.86705
▁key	-8.86788
▁member	-8.87086
▁paid	-8.87199
▁conditions	-8.87279
▁terms	-8.87335
▁true	-8.87589
▁ten	-8.87788
▁culture	-8.87847
iv	-8.87876
▁real	-8.87926
▁progress	-8.88024
▁village	-8.88139
▁six	-8.88504
▁students	-8.88577
▁share	-8.88711
▁mother	-8.88895
▁blood	-8.88957
ba	-8.89029
▁live	-8.89053
▁Ministry	-8.89061
F	-8.89146
▁Al	-8.89449
min	-8.89559
▁decision	-8.89641
men	-8.90006
▁religious	-8.90173
▁show	-8.90277
9	-8.90292
▁million	-8.90338
▁past	-8.90463
▁strong	-8.90613
ise	-8.90646
▁Ch	-8.90689
ig	-8.90938
▁living	-8.90944
▁rule	-8.90968
hu	-8.90977
oc	-8.91168
ram	-8.91351
kar	-8.91623
▁needs	-8.91703
▁story	-8.91933
har	-8.92049
and	-8.9207
▁issue	-8.92141
▁community	-8.92148
▁clear	-8.92182
fi	-8.92453
▁payment	-8.92674
▁natural	-8.92888
▁di	-8.93208
ang	-8.93278
▁car	-8.93587
▁material	-8.93742
▁Now	-8.93817
▁population	-8.93878
▁create	-8.93907
▁call	-8.9395
▁Mukherjee	-8.942
▁complete	-8.94338
con	-8.94496
ised	-8.9465
▁justice	-8.94663
▁energy	-8.94711
▁concerned	-8.94741
▁passed	-8.95008
▁personal	-8.95036
▁h	-8.95146
ck	-8.95233
▁specified	-8.95236
▁condition	-8.9541
ow	-8.95547
▁study	-8.95629
ran	-8.95644
▁demand	-8.95831
▁training	-8.95852
▁taking	-8.96041
▁ve	-8.96227
▁management	-8.96269
▁disease	-8.96292
ka	-8.96363
▁Justice	-8.96744
▁father	-8.96934
▁using	-8.96963
▁w	-8.97076
ions	-8.9719
ized	-8.97247
▁programme	-8.97307
ors	-8.97467
▁religion	-8.97794
▁ensure	-8.97819
▁outside	-8.97838
land	-8.97866
▁My	-8.98115
▁purposes	-8.98125
▁Muslims	-8.9817
▁stage	-8.98188
▁United	-8.98337
▁industrial	-8.98347
▁Un	-8.98368
▁opens	-8.9844
▁message	-8.98455
Y	-8.98549
▁ma	-8.98615
▁PRESIDENT	-8.98625
▁ground	-8.98721
▁physical	-8.98739
▁early	-8.98822
ward	-8.98835
▁External	-8.9897
▁century	-8.9912
▁rules	-8.99156
▁experience	-8.99337
▁Vi	-8.99457
▁increase	-8.99481
▁asked	-8.99723
▁carry	-8.99799
led	-8.99872
▁close	-8.99936
▁yet	-8.99975
ile	-9.00013
▁Sabha	-9.00089
U	-9.00119
▁greater	-9.00146
tu	-9.00344
▁assessment	-9.00401
▁themselves	-9.00428
▁include	-9.00452
▁appeal	-9.00498
▁building	-9.00537
▁provision	-9.00553
▁why	-9.00631
▁developed	-9.00726
ph	-9.00846
▁rest	-9.0096
▁inter	-9.01077
▁apply	-9.01139
bi	-9.0131
▁Mo	-9.0133
▁start	-9.01402
ization	-9.01404
ide	-9.01481
▁Board	-9.01486
ium	-9.01526
▁provides	-9.01536
pa	-9.01635
ven	-9.01689
▁function	-9.01708
▁la	-9.02015
▁consider	-9.02045
▁district	-9.02087
per	-9.02106
▁Bar	-9.02219
▁science	-9.02379
▁literature	-9.02382
ship	-9.02463
▁allowed	-9.02628
▁character	-9.02686
▁really	-9.02881
ize	-9.03049
▁region	-9.03086
▁Even	-9.03175
▁parts	-9.03202
▁meeting	-9.03274
▁near	-9.03321
▁en	-9.03343
▁meet	-9.03467
cy	-9.03545
▁Go	-9.03626
▁mo	-9.03726
▁Pa	-9.03796
tax	-9.03916
▁hard	-9.0392
▁parties	-9.03954
ah	-9.04206
▁global	-9.04336
▁text	-9.04371
▁original	-9.04422
▁soon	-9.04786
▁writing	-9.04865
▁sp	-9.04979
▁structure	-9.05006
▁direct	-9.05083
▁police	-9.05104
▁evidence	-9.05184
▁Pranab	-9.05225
▁approach	-9.05317
ite	-9.05372
ve	-9.05423
ca	-9.05439
ill	-9.05441
▁earlier	-9.0555
▁anything	-9.0572
▁gave	-9.05768
▁hope	-9.05789
▁assessee	-9.05921
▁city	-9.05976
▁Republic	-9.05999
▁Where	-9.06129
▁Bill	-9.06133
▁Article	-9.06204
▁test	-9.06602
▁capacity	-9.06661
ari	-9.06669
▁states	-9.06675
▁exchange	-9.06697
▁Our	-9.06701
▁spirit	-9.0673
▁Public	-9.06821
▁half	-9.06825
▁sent	-9.07035
▁books	-9.07066
▁Report	-9.07127
▁situation	-9.07176
tal	-9.07336
od	-9.0737
▁actually	-9.07379
ts	-9.07586
▁wide	-9.0764
ious	-9.07728
em	-9.07747
vo	-9.07938
▁medical	-9.08026
▁whose	-9.08038
▁opinion	-9.08067
▁Ex	-9.08153
unt	-9.08254
▁Information	-9.08318
▁almost	-9.08335
▁feel	-9.08336
▁resources	-9.08491
▁article	-9.0852
▁Courts	-9.08526
ton	-9.08545
▁Judge	-9.08552
▁vi	-9.08555
▁ii	-9.08578
▁duty	-9.08619
▁specific	-9.08724
▁civil	-9.08785
▁Ha	-9.08836
▁agreement	-9.08867
ho	-9.0906
▁aim	-9.09219
▁loss	-9.09251
pt	-9.09255
▁thus	-9.09299
▁poor	-9.09372
pe	-9.09472
▁turn	-9.09517
▁How	-9.09517
▁environment	-9.09555
▁ll	-9.09567
▁Islam	-9.09579
▁May	-9.0958
ala	-9.09791
▁powers	-9.09826
▁private	-9.09965
ning	-9.10045
▁notice	-9.10066
▁Please	-9.10263
▁single	-9.1033
▁write	-9.10338
ER	-9.10444
all	-9.10517
▁Commissioner	-9.10557
▁decided	-9.10699
▁believe	-9.10705
tro	-9.10768
▁big	-9.10784
act	-9.10799
▁similar	-9.10863
▁letter	-9.10876
▁&#124;	-9.10949
▁woman	-9.11035
rat	-9.11195
▁treatment	-9.11271
▁nothing	-9.11565
▁k	-9.11703
▁West	-9.1177
▁effective	-9.11958
▁changes	-9.11981
▁entire	-9.1202
ab	-9.12213
▁least	-9.12294
▁issued	-9.12387
▁price	-9.12421
▁ch	-9.12516
ber	-9.12603
▁Ram	-9.12607
ative	-9.1264
tri	-9.12771
ster	-9.12803
▁7	-9.12848
▁products	-9.12913
▁deal	-9.1317
▁lot	-9.13172
▁leave	-9.13227
▁Institute	-9.13298
▁according	-9.13371
▁Di	-9.13385
▁difficult	-9.13589
▁issues	-9.13604
▁method	-9.1363
▁accept	-9.13733
▁operation	-9.13754
▁sure	-9.13788
▁third	-9.13961
▁continue	-9.13977
les	-9.14048
▁Thu	-9.14144
▁cr	-9.14207
▁tree	-9.14235
▁till	-9.14241
▁efforts	-9.14285
▁author	-9.14347
▁understand	-9.14383
▁run	-9.14386
▁film	-9.14405
▁answer	-9.14407
▁o	-9.14555
▁Mu	-9.14665
▁reach	-9.14731
▁Ga	-9.14901
▁Whil	-9.14911
▁contract	-9.15082
cu	-9.15132
ib	-9.15251
da	-9.15297
ach	-9.15549
▁procedure	-9.15555
▁created	-9.15665
ever	-9.15665
ible	-9.15711
▁investment	-9.15717
▁enough	-9.15752
▁American	-9.15839
▁rural	-9.15978
▁Ne	-9.16065
▁kept	-9.1616
▁especially	-9.16247
ring	-9.16303
▁path	-9.16366
po	-9.16381
▁opportunity	-9.16428
▁Sanskrit	-9.16474
▁temple	-9.1648
▁Ro	-9.16491
▁top	-9.16505
▁Let	-9.16561
▁Officer	-9.16859
▁son	-9.16867
▁wrote	-9.16884
ten	-9.16912
▁South	-9.17112
▁told	-9.17215
▁proceedings	-9.17338
▁idea	-9.17341
▁reference	-9.17457
▁size	-9.17561
▁imp	-9.17602
▁Or	-9.17616
▁poet	-9.17632
▁judicial	-9.17662
▁claim	-9.17774
▁behalf	-9.17847
▁ever	-9.17868
▁institution	-9.18023
▁published	-9.18067
way	-9.18136
der	-9.18317
▁Pro	-9.18435
gen	-9.18727
▁move	-9.18789
▁Pra	-9.18876
▁doing	-9.18887
▁tell	-9.18952
▁check	-9.19005
▁practice	-9.19111
ens	-9.19181
tin	-9.19209
the	-9.19393
▁providing	-9.19566
▁month	-9.19637
▁administration	-9.1966
▁simple	-9.19707
▁sea	-9.1976
mit	-9.1987
▁jurisdiction	-9.19989
▁economy	-9.20036
▁By	-9.20217
▁List	-9.20255
▁spread	-9.20428
▁night	-9.20492
▁carried	-9.20508
▁truth	-9.20555
▁r	-9.20577
▁laws	-9.20664
▁peace	-9.2069
▁fund	-9.20746
du	-9.20832
▁receive	-9.20929
tor	-9.20934
▁Such	-9.20973
▁Le	-9.21033
▁prevent	-9.21087
▁current	-9.21173
▁produce	-9.21251
▁mental	-9.21574
▁criminal	-9.21602
▁quite	-9.21682
▁forward	-9.21694
AL	-9.21698
do	-9.21741
gra	-9.21796
▁benefit	-9.21868
▁generally	-9.21882
▁contact	-9.21937
▁source	-9.2197
▁across	-9.21985
▁central	-9.22043
line	-9.22073
▁bar	-9.22103
▁rich	-9.22112
▁earth	-9.22183
▁Centre	-9.22322
▁note	-9.22323
▁allow	-9.2261
▁Lord	-9.22631
▁relations	-9.22644
▁20	-9.22811
tr	-9.22825
▁East	-9.22903
mon	-9.22959
▁Your	-9.23041
▁prescribed	-9.23281
▁river	-9.23401
▁meaning	-9.23468
▁seven	-9.23475
▁talk	-9.23569
ip	-9.23804
ability	-9.23901
▁front	-9.23969
▁space	-9.24014
▁Income	-9.24121
▁eight	-9.24144
ash	-9.24236
▁success	-9.24271
▁basic	-9.24275
▁appropriate	-9.24465
isation	-9.24469
chi	-9.2472
▁relevant	-9.24958
▁works	-9.2496
▁sum	-9.24971
▁Va	-9.25065
▁below	-9.25136
ard	-9.25142
▁stated	-9.25471
▁During	-9.25529
▁Sri	-9.25536
▁International	-9.25603
▁makes	-9.25674
qu	-9.25811
cur	-9.2593
▁unit	-9.25979
▁felt	-9.25994
▁giving	-9.26053
▁10	-9.26093
AN	-9.26096
son	-9.2612
▁8	-9.26241
▁improve	-9.26248
▁Service	-9.26283
▁low	-9.26284
▁charge	-9.26439
▁importance	-9.26472
▁anti	-9.26512
▁expression	-9.26549
▁statement	-9.2656
war	-9.26575
▁marriage	-9.26608
▁facilities	-9.26654
▁sound	-9.26715
▁Governor	-9.26729
▁king	-9.26788
▁plus	-9.26909
▁lower	-9.26923
av	-9.27075
▁INDIA	-9.27108
nath	-9.2713
▁Pakistan	-9.27159
▁Israel	-9.27241
▁oil	-9.27273
▁extend	-9.27584
▁Day	-9.27717
▁US	-9.27776
▁plan	-9.27913
ie	-9.27943
▁spiritual	-9.27982
▁trial	-9.28064
ery	-9.28165
▁commercial	-9.28226
▁Mar	-9.2831
▁search	-9.28331
ner	-9.28372
dy	-9.28544
▁Ja	-9.28548
▁birth	-9.28631
▁accused	-9.28784
▁Cha	-9.2893
▁fast	-9.28996
▁potential	-9.28997
out	-9.29216
▁Bo	-9.29296
▁connection	-9.29468
▁strength	-9.29548
king	-9.29616
▁consideration	-9.29696
▁happy	-9.29928
gi	-9.30016
▁measures	-9.30046
▁forms	-9.30075
▁content	-9.30105
ice	-9.30125
▁wife	-9.30136
rit	-9.3063
▁began	-9.3069
▁develop	-9.30759
▁record	-9.30866
▁existing	-9.30909
▁existence	-9.31043
▁met	-9.31158
▁followed	-9.31323
▁responsible	-9.31341
▁beginning	-9.31346
▁courts	-9.3146
▁doubt	-9.315
▁mode	-9.31638
▁grant	-9.31639
▁conduct	-9.31717
▁room	-9.31784
▁usually	-9.31787
▁leaders	-9.31797
▁nor	-9.31816
▁cultural	-9.31856
▁offence	-9.3187
▁Te	-9.32141
▁Rama	-9.32205
▁video	-9.32211
▁Ca	-9.32273
▁9	-9.32384
▁lead	-9.32447
▁activity	-9.32462
▁protect	-9.32573
▁cl	-9.3264
▁whom	-9.32691
▁fire	-9.32717
ung	-9.32785
▁faith	-9.3296
cal	-9.33026
▁until	-9.33075
▁firm	-9.33143
▁X	-9.33188
▁Pre	-9.33204
▁risk	-9.33209
▁official	-9.3324
▁step	-9.33283
▁wish	-9.33296
▁particularly	-9.33298
▁relation	-9.33319
▁addition	-9.33345
▁Li	-9.33506
▁becomes	-9.33521
▁seek	-9.33619
ew	-9.33639
tre	-9.33639
▁flow	-9.33791
ali	-9.33961
▁behind	-9.34014
▁para	-9.34072
ki	-9.34359
▁deep	-9.34422
▁soul	-9.34431
▁except	-9.34434
▁lost	-9.34445
▁increased	-9.34479
▁essential	-9.34547
▁Pan	-9.34716
▁hold	-9.34717
ham	-9.34735
ual	-9.34773
▁popular	-9.34878
ff	-9.34912
▁try	-9.3498
▁programmes	-9.35036
▁scale	-9.3508
IC	-9.35135
▁Code	-9.35205
▁Education	-9.35266
▁Technology	-9.35266
▁Raj	-9.3529
si	-9.35348
val	-9.35419
tur	-9.35422
IS	-9.35472
▁crore	-9.35522
ron	-9.35598
ex	-9.35668
▁final	-9.35775
▁hands	-9.36046
▁bit	-9.3605
▁fine	-9.3607
▁base	-9.36089
▁places	-9.36135
▁Calcutta	-9.36203
▁link	-9.36234
▁Mi	-9.3624
▁War	-9.36419
▁design	-9.36531
▁groups	-9.36553
▁rather	-9.36648
▁export	-9.3667
ug	-9.36702
▁Krishna	-9.36703
▁sentence	-9.3673
▁protection	-9.36853
▁employment	-9.36992
ani	-9.37114
▁San	-9.37129
▁Scheme	-9.37149
▁Ta	-9.37184
▁add	-9.37302
▁limited	-9.37303
▁circumstances	-9.37397
▁beyond	-9.37428
▁Under	-9.37612
gar	-9.37882
▁suit	-9.37924
▁comes	-9.38027
gan	-9.38032
▁serious	-9.38103
▁alone	-9.38111
tar	-9.38221
▁saw	-9.38272
▁continued	-9.3836
▁born	-9.38415
▁Lok	-9.38431
▁Open	-9.38537
▁moment	-9.38552
sha	-9.38569
▁infrastructure	-9.38637
dra	-9.38653
▁Mon	-9.38679
▁built	-9.38782
▁Of	-9.38821
▁industries	-9.38839
▁poetry	-9.38984
▁World	-9.3901
▁warm	-9.3903
ng	-9.39041
▁eyes	-9.39055
▁sun	-9.39057
▁correct	-9.39067
▁Bi	-9.39124
▁gives	-9.39163
ology	-9.39203
▁learn	-9.393
▁job	-9.39424
▁learning	-9.39508
▁media	-9.39513
▁accepted	-9.39534
▁range	-9.39571
▁appointed	-9.39603
▁Dis	-9.39631
bar	-9.39654
▁officer	-9.39667
q	-9.39698
▁lives	-9.39747
ect	-9.39804
▁says	-9.39821
▁mean	-9.39831
ub	-9.39992
▁Prime	-9.40098
▁setting	-9.40113
▁cross	-9.40156
▁responsibility	-9.40386
mer	-9.405
▁loan	-9.40537
nu	-9.40685
ator	-9.40729
gg	-9.40846
▁round	-9.40865
light	-9.4099
▁Then	-9.41023
▁influence	-9.41032
▁direction	-9.41081
▁Sub	-9.41093
mal	-9.41093
▁ideas	-9.41243
▁Par	-9.41247
▁exercise	-9.41256
ke	-9.41356
▁From	-9.4139
▁hundred	-9.41444
br	-9.41456
AR	-9.41463
▁normal	-9.41563
que	-9.41569
▁getting	-9.41598
▁coming	-9.41645
den	-9.4178
▁proposed	-9.41849
van	-9.41861
▁immediately	-9.41944
▁assistance	-9.42026
▁device	-9.42097
▁Any	-9.42303
ik	-9.42306
ft	-9.42307
▁15	-9.42319
▁object	-9.42362
▁labour	-9.42365
▁projects	-9.42408
ging	-9.42519
▁fear	-9.42646
▁observed	-9.42729
red	-9.42868
▁ha	-9.42897
▁Schedule	-9.42899
ore	-9.43118
▁citizens	-9.43155
▁pa	-9.43223
▁document	-9.43233
▁Y	-9.43312
▁instrument	-9.43322
▁Sha	-9.43344
▁Ko	-9.43488
▁red	-9.435
▁Many	-9.4351
ara	-9.4352
tation	-9.43632
▁Part	-9.43716
ack	-9.43802
▁details	-9.43816
▁North	-9.4383
▁values	-9.43879
au	-9.43962
▁mentioned	-9.43973
▁wrong	-9.43987
▁Kashmir	-9.4403
▁boy	-9.44044
▁separate	-9.44111
wan	-9.44217
▁TO	-9.4444
▁user	-9.44452
lan	-9.44588
▁agricultural	-9.4463
▁paper	-9.44662
▁lakh	-9.4467
▁status	-9.44691
▁proper	-9.44779
▁wanted	-9.44809
ell	-9.4486
▁America	-9.44872
▁ancient	-9.44892
▁judge	-9.449
▁Bha	-9.44915
▁mis	-9.44916
hy	-9.4496
vis	-9.44965
▁Se	-9.45009
▁banks	-9.45029
▁eye	-9.4505
▁violence	-9.45053
let	-9.45059
▁famous	-9.45113
▁Da	-9.45136
tent	-9.45158
tha	-9.45416
▁com	-9.45458
▁bear	-9.45503
▁Can	-9.45596
nt	-9.4564
▁Fa	-9.45659
ick	-9.45665
che	-9.45717
▁formed	-9.45734
▁lay	-9.45859
ition	-9.45891
▁includes	-9.46019
▁goes	-9.46055
tan	-9.46057
▁rise	-9.46069
▁machine	-9.46183
▁page	-9.46204
▁officers	-9.46293
cent	-9.46363
▁product	-9.46371
▁cell	-9.46445
qui	-9.46457
▁speech	-9.46527
dar	-9.46531
▁Bombay	-9.46576
▁trust	-9.46582
ration	-9.46594
▁prepared	-9.46636
▁hospital	-9.46638
▁Chairman	-9.46704
▁Asia	-9.46729
▁ago	-9.46742
▁image	-9.46835
▁functions	-9.46872
▁week	-9.47086
▁expenditure	-9.47192
▁companies	-9.47254
▁plants	-9.4728
tes	-9.47352
▁team	-9.47385
▁relationship	-9.47578
▁white	-9.47656
▁remain	-9.47663
▁follow	-9.47757
tive	-9.47762
itis	-9.47845
▁presented	-9.47955
▁promote	-9.47966
ably	-9.47966
▁bo	-9.48055
▁moral	-9.48068
▁March	-9.48247
kh	-9.48251
▁Ho	-9.48342
row	-9.48372
▁workers	-9.48376
▁certificate	-9.48436
▁minus	-9.48438
▁scientific	-9.48498
▁struggle	-9.48498
one	-9.48513
▁join	-9.48534
▁animals	-9.48613
ther	-9.48617
▁extent	-9.48642
▁forces	-9.48668
▁stand	-9.4871
▁included	-9.48779
oo	-9.48885
▁Po	-9.48942
▁na	-9.48981
▁north	-9.49015
uc	-9.49082
▁task	-9.4913
▁cut	-9.4916
▁added	-9.49168
▁clean	-9.49191
▁touch	-9.49257
▁otherwise	-9.49307
ns	-9.49327
▁longer	-9.4934
▁music	-9.49379
▁refers	-9.49389
▁witness	-9.49395
▁active	-9.49401
▁vision	-9.49491
form	-9.49518
▁ca	-9.49589
▁attention	-9.49632
▁code	-9.49684
▁memory	-9.49695
▁build	-9.49707
▁event	-9.49802
aries	-9.49868
▁award	-9.49889
▁enable	-9.49955
▁takes	-9.49968
▁Per	-9.49983
▁review	-9.49984
▁performance	-9.5003
▁Director	-9.50051
▁bad	-9.50227
▁involved	-9.50335
▁publication	-9.50389
▁fixed	-9.50517
▁Assembly	-9.50522
▁Provided	-9.50537
▁Lo	-9.50575
▁systems	-9.50639
▁supply	-9.5065
▁fair	-9.50739
bha	-9.50821
ement	-9.50917
ris	-9.50987
end	-9.51012
▁tried	-9.51025
▁twenty	-9.51034
▁standard	-9.51142
▁Shah	-9.51148
▁domestic	-9.51163
und	-9.51206
▁black	-9.51227
▁super	-9.51258
▁directly	-9.51266
▁Punjab	-9.51427
▁produced	-9.5143
▁caused	-9.51475
▁Chandra	-9.51629
▁Plan	-9.51694
▁organisation	-9.51779
▁Not	-9.51806
▁communication	-9.51872
▁IT	-9.51884
▁style	-9.51941
▁traditional	-9.52035
▁accordance	-9.52075
▁Art	-9.5217
▁ask	-9.52186
▁press	-9.52204
par	-9.52208
▁independent	-9.52261
▁Tribunal	-9.52326
▁stop	-9.52337
▁fit	-9.52403
▁milk	-9.52522
bu	-9.52583
▁Well	-9.52591
lic	-9.52609
▁balance	-9.52623
▁Tax	-9.52694
▁road	-9.527
▁software	-9.52719
▁adopted	-9.5281
▁affect	-9.52932
ev	-9.5296
▁Kar	-9.52971
tter	-9.5303
▁technical	-9.53044
▁contribution	-9.53132
▁democracy	-9.53176
▁thousand	-9.53265
▁desire	-9.53284
nce	-9.53303
art	-9.53377
▁European	-9.53399
uk	-9.5342
▁south	-9.5344
▁advance	-9.53456
▁Mumbai	-9.5357
▁units	-9.53632
▁contained	-9.53649
▁led	-9.53839
▁According	-9.53871
▁Tamil	-9.539
▁copy	-9.53911
▁heard	-9.53916
▁friends	-9.54064
▁II	-9.54126
▁unless	-9.54146
▁j	-9.54275
▁generation	-9.54291
▁concept	-9.54352
▁focus	-9.54428
▁King	-9.54438
hal	-9.54472
▁effort	-9.54609
▁pi	-9.54646
▁highest	-9.54646
ada	-9.54723
▁Africa	-9.54738
▁green	-9.54764
ple	-9.54769
▁percent	-9.54777
▁enter	-9.54819
fe	-9.54879
▁husband	-9.54896
▁secret	-9.54932
▁funds	-9.54946
▁Maha	-9.55032
▁sign	-9.55035
uck	-9.55089
▁complex	-9.55098
▁patient	-9.55102
▁collection	-9.55163
▁stay	-9.55167
▁damage	-9.55324
▁model	-9.55327
ny	-9.55363
▁reached	-9.55638
▁laid	-9.55697
▁beautiful	-9.55767
▁employees	-9.55821
we	-9.55827
▁documents	-9.55927
▁error	-9.55969
ama	-9.56051
ified	-9.56088
▁ways	-9.56172
▁multi	-9.56198
lin	-9.56214
▁Research	-9.56239
▁attempt	-9.56244
▁fo	-9.56367
▁standards	-9.56407
▁Th	-9.56514
bo	-9.56564
ned	-9.56568
▁196	-9.56575
▁System	-9.56578
▁languages	-9.5658
▁session	-9.56647
▁assets	-9.56653
▁significant	-9.56691
▁examination	-9.56714
▁Nehru	-9.56782
▁easy	-9.5685
▁friend	-9.56919
▁Tri	-9.57018
▁Civil	-9.57054
▁color	-9.57062
ory	-9.57102
▁fight	-9.5714
ay	-9.57224
sis	-9.57275
▁deposit	-9.57275
▁Guru	-9.57302
▁par	-9.57344
▁principle	-9.57374
▁insurance	-9.57396
▁female	-9.57396
ze	-9.5741
▁Every	-9.57456
▁context	-9.57468
▁Sur	-9.57494
istic	-9.57532
og	-9.57568
ists	-9.57584
▁creation	-9.57602
▁species	-9.57739
▁Har	-9.57839
IN	-9.57916
▁pattern	-9.57945
▁novel	-9.58054
▁types	-9.5817
▁District	-9.5822
▁appear	-9.5828
ants	-9.58411
▁serve	-9.58461
▁Category	-9.58497
▁middle	-9.58499
▁centre	-9.58532
▁recent	-9.5858
▁IN	-9.58606
▁limit	-9.5864
▁break	-9.58704
▁People	-9.58704
▁interests	-9.58722
▁likely	-9.58744
▁grow	-9.5887
▁net	-9.58919
▁leading	-9.5901
▁majority	-9.59052
▁largest	-9.59088
ler	-9.59148
▁Corporation	-9.59191
▁average	-9.59401
▁sometimes	-9.59402
▁Fund	-9.59517
▁Western	-9.5954
su	-9.59541
▁Qu	-9.59583
▁accounts	-9.596
▁hours	-9.59656
▁12	-9.5966
▁regular	-9.59663
▁military	-9.5968
ency	-9.5969
▁implementation	-9.59708
▁connected	-9.59769
▁steps	-9.59792
tt	-9.598
▁program	-9.59811
▁opportunities	-9.5982
▁policies	-9.5982
▁Chapter	-9.5982
▁Other	-9.59919
tle	-9.59933
▁daughter	-9.5996
▁attack	-9.59961
▁gas	-9.60051
cl	-9.6015
ping	-9.60167
▁growing	-9.60312
▁described	-9.60314
▁instead	-9.60382
▁independence	-9.60523
▁placed	-9.60535
▁worship	-9.60588
▁Division	-9.60594
▁compar	-9.60664
▁exist	-9.60673
set	-9.60699
▁Wa	-9.60715
lam	-9.60716
▁card	-9.60761
aw	-9.60866
ction	-9.61071
▁consciousness	-9.61119
▁fall	-9.61145
▁joint	-9.61174
▁innovation	-9.61232
▁stone	-9.613
▁conflict	-9.61303
▁draw	-9.61347
▁import	-9.61417
▁questions	-9.61539
▁App	-9.61577
▁Special	-9.61735
▁Explanation	-9.61802
▁surface	-9.61804
▁deemed	-9.61833
▁China	-9.61844
▁asset	-9.61941
▁resolution	-9.62017
▁annual	-9.62093
▁affected	-9.62105
▁inside	-9.62134
▁educational	-9.62162
▁cells	-9.62173
▁animal	-9.62246
▁ho	-9.62256
▁request	-9.6234
▁understanding	-9.62484
▁cash	-9.62546
▁game	-9.6257
int	-9.62632
▁male	-9.6265
▁response	-9.62736
▁association	-9.62881
▁Ad	-9.62884
▁Conference	-9.62885
ign	-9.62897
▁pain	-9.62965
▁reasons	-9.63002
▁rain	-9.63051
▁suffer	-9.63122
▁leader	-9.63226
▁fa	-9.63228
▁payable	-9.63256
ES	-9.63278
▁registered	-9.63337
time	-9.63356
▁bound	-9.63424
▁fully	-9.63469
▁former	-9.63476
ava	-9.63597
▁Bharat	-9.63669
▁seems	-9.63692
▁declared	-9.63711
mat	-9.63756
▁advice	-9.63825
▁fundamental	-9.63825
▁command	-9.63826
nic	-9.63837
▁En	-9.63855
hold	-9.63927
▁charges	-9.63963
▁selected	-9.64001
▁regarding	-9.64023
▁lo	-9.64038
▁perhaps	-9.64044
▁authorities	-9.64142
▁Islamic	-9.6416
▁length	-9.6419
mm	-9.64275
▁Kan	-9.64287
▁iii	-9.64291
▁agriculture	-9.64337
her	-9.64408
▁cooperation	-9.64415
ju	-9.64425
▁April	-9.64484
▁Judges	-9.64518
fer	-9.64554
▁dream	-9.64557
▁costs	-9.64617
thi	-9.6463
▁stock	-9.64706
▁title	-9.6471
▁Gandhiji	-9.64739
▁First	-9.64778
▁farmers	-9.64871
▁associated	-9.64932
▁divine	-9.65147
▁presence	-9.65222
ika	-9.65226
▁offer	-9.65231
▁br	-9.65236
▁January	-9.65295
▁honour	-9.65295
▁send	-9.65306
▁Management	-9.65517
▁won	-9.65526
▁additional	-9.65556
▁looking	-9.65576
▁dead	-9.65663
▁objective	-9.6567
cc	-9.65708
▁useful	-9.65716
▁travel	-9.65763
ea	-9.65765
▁host	-9.65848
▁fish	-9.6591
▁professional	-9.65964
▁Rules	-9.65978
▁shape	-9.6599
dha	-9.66005
▁lack	-9.66104
▁difference	-9.66314
▁Therefore	-9.66337
▁Here	-9.66375
▁cha	-9.66403
▁measure	-9.66414
▁door	-9.66564
ble	-9.66682
▁results	-9.66694
▁terrorism	-9.66723
ight	-9.66765
▁advantage	-9.66787
▁located	-9.66888
▁Programme	-9.66955
io	-9.67009
▁delay	-9.67042
▁weight	-9.67061
▁ideal	-9.67086
▁root	-9.67171
fl	-9.67283
▁extended	-9.67286
IT	-9.6729
▁km	-9.67328
▁construction	-9.67641
ps	-9.67681
▁Project	-9.67693
▁larger	-9.67703
ED	-9.67704
▁instance	-9.67711
pl	-9.67721
▁colour	-9.67765
AS	-9.67779
▁distance	-9.67785
▁AND	-9.67867
▁adequate	-9.68149
AT	-9.68165
▁achieve	-9.68188
▁judgment	-9.68225
▁registration	-9.68225
▁committed	-9.68309
▁purchase	-9.68378
▁failed	-9.68477
▁organization	-9.68501
▁Hindus	-9.68527
▁reform	-9.68539
▁Bal	-9.68562
shi	-9.68577
▁11	-9.68591
▁introduced	-9.68618
▁Policy	-9.6876
▁watch	-9.6884
▁youth	-9.68923
▁shown	-9.68955
▁chief	-9.68991
ations	-9.69036
▁broad	-9.69065
▁external	-9.69074
▁pass	-9.69086
▁master	-9.69094
▁Europe	-9.6919
▁developing	-9.69191
▁Fi	-9.69194
▁Ar	-9.69213
ob	-9.69214
▁stories	-9.69223
▁voice	-9.69299
▁else	-9.69303
▁Most	-9.69381
▁skin	-9.69467
▁sale	-9.69488
▁ball	-9.6954
▁port	-9.69594
▁expressed	-9.69663
▁Min	-9.69696
▁successful	-9.69775
▁mass	-9.69819
J	-9.69937
▁pe	-9.69958
▁wealth	-9.70005
▁item	-9.70011
▁pressure	-9.70092
▁universal	-9.70227
▁storage	-9.70228
az	-9.70235
pu	-9.70255
▁needed	-9.70308
mp	-9.7033
▁everything	-9.70386
▁unique	-9.70402
▁vital	-9.70412
▁increasing	-9.70546
kha	-9.70552
▁someone	-9.70557
bal	-9.70616
▁bill	-9.70631
vel	-9.70824
com	-9.70825
▁December	-9.7093
▁penalty	-9.70935
▁principles	-9.70955
▁namely	-9.71053
▁Cr	-9.71057
▁Amendment	-9.71087
▁Car	-9.71088
▁square	-9.7111
use	-9.71112
▁England	-9.71165
▁ON	-9.7118
ING	-9.71187
▁maintain	-9.71189
▁benefits	-9.71201
▁covered	-9.71314
ath	-9.71342
▁Gu	-9.71359
▁tradition	-9.71446
ments	-9.71582
cation	-9.71673
▁Secretary	-9.71686
▁cover	-9.71745
▁thinking	-9.71748
▁Maharashtra	-9.71875
▁Though	-9.71954
▁numbers	-9.71975
▁petitioner	-9.72007
ture	-9.72186
▁department	-9.7222
▁soil	-9.72274
▁September	-9.7243
▁avoid	-9.7245
ification	-9.72484
▁establishment	-9.72493
▁Arab	-9.72495
▁Science	-9.72509
▁substance	-9.7251
▁graph	-9.72534
ire	-9.72572
▁minimum	-9.72589
▁obtain	-9.72612
▁played	-9.72643
▁speak	-9.72738
▁permanent	-9.72828
▁Air	-9.72837
▁academic	-9.72908
ound	-9.7295
▁Tagore	-9.72988
▁merely	-9.73058
▁version	-9.73142
▁trans	-9.7316
▁morning	-9.73233
▁express	-9.73271
▁poems	-9.7328
RI	-9.7337
▁site	-9.73409
day	-9.73429
cus	-9.73467
▁running	-9.7349
▁friendly	-9.73495
▁contains	-9.73644
▁pur	-9.73685
▁Office	-9.73688
▁entitled	-9.73791
▁variety	-9.73791
put	-9.73801
gro	-9.73843
▁figure	-9.73844
▁Ni	-9.73863
tain	-9.74075
▁sufficient	-9.74084
▁impact	-9.74133
▁schemes	-9.74162
▁adult	-9.74197
▁Sam	-9.74215
▁easily	-9.74276
ue	-9.74309
▁processing	-9.74347
▁crime	-9.74366
wi	-9.7437
▁Jo	-9.74416
▁Inter	-9.74491
tric	-9.74576
▁Kerala	-9.746
▁wind	-9.74631
▁win	-9.74639
▁orders	-9.74726
▁raised	-9.74732
▁eat	-9.74779
▁changed	-9.74787
▁primary	-9.7485
mor	-9.74891
▁mark	-9.74917
▁Z	-9.74919
▁table	-9.74922
▁committee	-9.74926
▁June	-9.74943
▁enjoy	-9.74977
▁wall	-9.75004
▁manufacture	-9.75089
▁ba	-9.75106
ren	-9.75115
▁Judici	-9.75137
▁default	-9.75171
▁Am	-9.75199
eg	-9.75204
▁block	-9.7522
▁appointment	-9.75223
▁views	-9.7524
▁August	-9.75252
▁integral	-9.75252
▁convey	-9.75253
▁relief	-9.75255
▁operations	-9.75299
▁engaged	-9.7535
▁Si	-9.75359
▁Para	-9.75385
▁foot	-9.75458
▁parents	-9.75466
ec	-9.75466
▁ill	-9.75494
ko	-9.75505
▁maximum	-9.75505
ric	-9.75533
▁defined	-9.75545
▁Sir	-9.75593
▁Authority	-9.75607
mu	-9.75739
▁volume	-9.75744
▁profit	-9.75769
▁investigation	-9.75827
▁vote	-9.7588
yn	-9.7608
▁Khan	-9.76241
▁teaching	-9.76254
▁expected	-9.76286
▁Who	-9.76305
pro	-9.7634
ix	-9.7639
dh	-9.76416
▁Sp	-9.76554
▁UN	-9.76564
▁Finance	-9.7657
▁unity	-9.7661
▁brother	-9.76616
▁minister	-9.76626
chan	-9.76627
▁duties	-9.76657
▁shows	-9.76726
▁18	-9.76728
ai	-9.76738
▁Since	-9.76745
▁Power	-9.76824
▁villages	-9.76846
▁failure	-9.7691
▁Why	-9.76939
pp	-9.7694
dal	-9.76946
▁philosophy	-9.76985
▁aid	-9.77095
osis	-9.77165
▁season	-9.7717
▁transport	-9.77175
▁va	-9.77207
▁die	-9.77233
▁display	-9.7728
▁ki	-9.77393
▁dance	-9.7744
▁ja	-9.77471
▁October	-9.77486
ising	-9.77495
▁ready	-9.775
▁temples	-9.77578
▁powerful	-9.77579
▁filed	-9.77662
▁board	-9.77703
▁reading	-9.77724
▁Also	-9.77752
▁rid	-9.77793
▁judges	-9.77806
RA	-9.77841
rn	-9.77847
▁feeling	-9.77915
ili	-9.78088
▁ship	-9.78241
▁lines	-9.7834
▁saying	-9.78362
gh	-9.78389
▁elements	-9.78405
▁pleasure	-9.7841
ify	-9.78462
▁positive	-9.78495
▁poverty	-9.78495
▁safe	-9.78556
▁undertaking	-9.7858
▁indeed	-9.78602
yan	-9.78631
▁Bihar	-9.78656
▁suggest	-9.78704
▁degree	-9.78776
▁dealing	-9.78806
▁whatever	-9.78858
▁levels	-9.7899
either	-9.79036
▁favour	-9.79098
▁remains	-9.79143
▁studies	-9.79173
▁stream	-9.79209
bb	-9.79211
▁Pe	-9.79231
▁medium	-9.79344
▁punishment	-9.79373
▁Services	-9.79462
▁Because	-9.79514
▁screen	-9.79522
▁series	-9.79525
▁Their	-9.79539
▁defence	-9.79612
▁throughout	-9.79616
▁deduction	-9.7967
▁po	-9.79717
▁trying	-9.79802
▁SC	-9.79853
▁feet	-9.79895
▁exp	-9.79955
▁fe	-9.79965
▁crop	-9.80032
▁Pat	-9.80041
aya	-9.8009
▁medicine	-9.80113
▁girl	-9.80334
▁November	-9.80371
▁promotion	-9.80457
▁contain	-9.80594
var	-9.80657
▁Trans	-9.80708
▁festival	-9.80716
▁legislation	-9.80716
ox	-9.80738
▁connect	-9.80748
pos	-9.80764
▁entry	-9.80816
▁vast	-9.8096
▁Akbar	-9.80976
▁da	-9.81026
▁removal	-9.81105
▁Gujarat	-9.81141
▁turned	-9.81295
▁speed	-9.81333
▁fee	-9.81358
▁Ke	-9.81389
▁gain	-9.8149
▁caste	-9.81501
▁Br	-9.81565
▁Uttar	-9.81585
▁Raja	-9.81594
▁granted	-9.81603
▁Bengali	-9.81678
RE	-9.81781
▁14	-9.81787
▁bone	-9.8191
▁feed	-9.82029
▁distribution	-9.82052
▁sat	-9.82085
ages	-9.82107
▁agency	-9.82109
esh	-9.82169
dia	-9.82181
▁debt	-9.822
▁mainly	-9.82253
▁divided	-9.82269
▁requires	-9.82302
cer	-9.82392
▁fi	-9.82397
▁remember	-9.82535
▁shares	-9.82571
▁intellectual	-9.82638
▁server	-9.82677
▁internal	-9.82734
ient	-9.82752
▁items	-9.82778
▁aspects	-9.82783
▁receipt	-9.82811
▁sec	-9.82865
▁discussion	-9.82978
▁complaint	-9.82989
▁suggested	-9.83019
▁sort	-9.83026
▁encourage	-9.83051
▁se	-9.83073
▁literary	-9.83076
ulation	-9.83083
▁safety	-9.83185
ura	-9.83189
za	-9.83209
▁le	-9.83311
▁star	-9.8336
af	-9.83385
▁target	-9.83431
▁names	-9.83437
res	-9.83492
▁agree	-9.83513
▁Language	-9.83519
lock	-9.8353
▁Kumar	-9.83607
▁staff	-9.83609
▁habit	-9.83695
▁belief	-9.83698
▁Up	-9.83753
▁election	-9.83766
▁tissue	-9.83786
▁store	-9.83789
▁perform	-9.83806
▁sections	-9.83808
▁teacher	-9.83827
▁25	-9.83843
ries	-9.83857
OR	-9.83865
▁Official	-9.83875
▁agent	-9.83923
▁offered	-9.83927
rate	-9.83954
▁waste	-9.83958
▁daily	-9.83968
▁phase	-9.83977
▁division	-9.84009
▁welfare	-9.84054
▁ab	-9.84078
▁motion	-9.84094
▁location	-9.84316
▁fresh	-9.84323
▁files	-9.84327
wal	-9.84424
▁Over	-9.84432
▁Ya	-9.84459
▁Error	-9.84502
▁gone	-9.84633
mark	-9.84682
▁reduce	-9.8475
▁choice	-9.84771
▁finance	-9.84772
▁phone	-9.84799
▁requirements	-9.84877
▁Indians	-9.84944
▁Mahatma	-9.84951
▁Health	-9.84957
▁July	-9.85031
▁Force	-9.85056
▁proceed	-9.85117
▁confidence	-9.85132
▁equipment	-9.85132
▁cities	-9.85142
▁wishes	-9.85227
▁articles	-9.85237
▁Post	-9.85249
▁opening	-9.85264
▁leaves	-9.85283
▁completed	-9.85311
▁nations	-9.85371
▁option	-9.85379
ves	-9.85432
▁moon	-9.85478
▁Whether	-9.85494
ans	-9.85551
▁translation	-9.85584
▁count	-9.85601
▁individuals	-9.85675
▁School	-9.85766
▁Nepal	-9.85776
▁lived	-9.85842
▁treated	-9.85848
hor	-9.85876
▁regional	-9.8594
▁13	-9.85968
▁named	-9.85996
▁practices	-9.86014
▁branch	-9.86019
▁16	-9.86032
pat	-9.86035
▁Rajya	-9.86095
SS	-9.86156
▁experiment	-9.86221
▁rock	-9.86234
▁College	-9.86312
▁Palestinian	-9.86312
▁knew	-9.86312
▁qu	-9.86336
▁late	-9.86339
▁origin	-9.86467
▁forest	-9.86488
ties	-9.86491
▁learned	-9.86534
ier	-9.86566
▁actual	-9.86577
▁methods	-9.86632
▁station	-9.86663
▁decide	-9.86672
▁formal	-9.86742
▁attitude	-9.86752
▁beauty	-9.86771
lar	-9.86796
▁train	-9.87145
aka	-9.87321
▁spot	-9.8734
▁factors	-9.87369
▁acts	-9.87375
cle	-9.87398
▁Group	-9.87415
▁highly	-9.87432
▁pest	-9.87465
▁concern	-9.87471
▁Ban	-9.87493
hara	-9.87512
▁machinery	-9.87546
▁dispute	-9.87548
▁reality	-9.87583
▁applications	-9.87594
▁abroad	-9.876
▁believed	-9.87672
▁buy	-9.87674
side	-9.87688
▁Rajasthan	-9.87692
▁Com	-9.87708
▁Bu	-9.87732
▁teachers	-9.87779
▁bodies	-9.87785
▁prove	-9.87836
▁hearing	-9.87864
▁probably	-9.87971
▁heavy	-9.87971
LE	-9.87989
▁Water	-9.88008
▁Men	-9.88018
ump	-9.88065
▁holding	-9.88116
ped	-9.88118
▁goal	-9.88168
▁nuclear	-9.8825
▁petition	-9.88284
▁symbol	-9.88291
▁follows	-9.88305
▁returned	-9.88342
▁Only	-9.88355
▁determined	-9.88384
&	-9.8839
▁sleep	-9.88437
▁songs	-9.8851
▁families	-9.8853
crea	-9.88666
▁Ganga	-9.88694
▁critical	-9.8871
▁partnership	-9.88726
char	-9.88755
▁died	-9.88872
▁rupees	-9.8888
▁Google	-9.88904
▁Christian	-9.88943
▁Excellency	-9.88998
▁Besides	-9.88998
▁Chand	-9.89133
▁terrorist	-9.89194
bil	-9.89206
▁ka	-9.89238
▁save	-9.89266
cr	-9.89282
▁require	-9.89294
▁insects	-9.89302
▁causes	-9.89312
▁Her	-9.89317
▁proved	-9.89318
▁reasonable	-9.89379
▁fields	-9.89383
▁joy	-9.89384
uri	-9.89523
▁File	-9.89554
▁points	-9.89638
▁chemical	-9.89657
▁agencies	-9.89657
eration	-9.89666
▁agreed	-9.89684
▁clearly	-9.89692
▁facts	-9.89704
pec	-9.89723
▁doctor	-9.8975
▁rank	-9.89799
▁events	-9.89868
▁appears	-9.89938
▁mission	-9.89991
▁railway	-9.90039
▁micro	-9.90091
of	-9.90115
▁Account	-9.90137
▁Today	-9.90186
▁height	-9.90201
▁army	-9.90276
▁compensation	-9.9032
▁Non	-9.9033
for	-9.90336
▁attend	-9.90336
▁Ku	-9.90342
▁mutual	-9.90383
▁description	-9.90416
▁thereof	-9.90427
▁delivery	-9.90459
rt	-9.90508
▁happened	-9.90519
EN	-9.90557
▁seed	-9.9058
▁dated	-9.90753
ade	-9.90826
▁explain	-9.90927
▁perfect	-9.90929
▁schools	-9.90943
▁Members	-9.90948
cha	-9.90983
▁Further	-9.90988
▁Assam	-9.90993
▁sacrifice	-9.91069
▁Legislative	-9.9118
▁cold	-9.91236
▁survey	-9.91276
▁cor	-9.91287
▁suitable	-9.91287
▁recommended	-9.91288
▁Ali	-9.91365
▁historical	-9.91383
▁seem	-9.91427
tta	-9.91458
▁Mal	-9.91523
▁aware	-9.91524
cing	-9.91545
▁accident	-9.91564
▁Use	-9.91584
▁keeping	-9.91598
▁extra	-9.91606
▁Member	-9.91702
▁sitting	-9.91774
▁Party	-9.91776
▁amongst	-9.91809
▁Sar	-9.91834
▁leadership	-9.9187
ou	-9.91907
▁sides	-9.91924
IL	-9.91943
kan	-9.91946
▁poem	-9.91998
ular	-9.92008
▁tend	-9.92008
▁revolution	-9.92013
▁30	-9.92057
ME	-9.92059
▁passing	-9.92081
▁constituted	-9.92104
ger	-9.92128
ved	-9.92149
▁Andhra	-9.92179
▁hour	-9.92192
TH	-9.92267
▁expect	-9.92285
▁Yoga	-9.92456
ep	-9.92475
▁l	-9.92495
▁urban	-9.92502
▁launched	-9.92603
raj	-9.92622
▁constitutional	-9.92623
▁Work	-9.92662
▁Israeli	-9.92667
▁Both	-9.92706
▁applicable	-9.92727
▁tri	-9.92741
▁reduced	-9.92772
▁draft	-9.92825
▁horse	-9.92828
▁worked	-9.9289
▁February	-9.92922
▁Which	-9.92922
▁identity	-9.92922
▁ordinary	-9.92922
▁hero	-9.92948
▁gets	-9.93025
▁chance	-9.93092
▁hear	-9.93099
▁Out	-9.93145
AC	-9.93165
▁comp	-9.93168
▁Bas	-9.93176
▁mechanism	-9.93215
▁Company	-9.93215
▁latter	-9.93234
▁completely	-9.93238
▁journey	-9.93313
▁drama	-9.93366
atory	-9.93382
▁See	-9.93398
▁Commercial	-9.93411
▁BC	-9.93423
▁arrest	-9.9346
▁remove	-9.93479
▁Speaker	-9.93509
▁greeting	-9.93519
▁Two	-9.93542
▁efficient	-9.93607
oid	-9.93618
kin	-9.93646
▁portion	-9.93662
lay	-9.93763
anda	-9.93773
▁dry	-9.93781
▁River	-9.93806
▁Sc	-9.93818
izing	-9.93823
▁planning	-9.93827
▁features	-9.93845
▁acid	-9.93916
▁sex	-9.93944
dhi	-9.93987
▁negative	-9.94001
num	-9.94059
▁inner	-9.94135
▁decisions	-9.94225
▁Ph	-9.94237
ose	-9.94334
▁diseases	-9.94406
▁refer	-9.94416
▁bi	-9.94564
uff	-9.94609
iya	-9.94697
▁heat	-9.94743
▁sectors	-9.94789
▁administrative	-9.94794
▁Another	-9.94794
▁wood	-9.94797
▁entered	-9.94804
▁throw	-9.94814
port	-9.94815
▁Shi	-9.94815
fin	-9.94863
▁mouth	-9.94893
so	-9.94911
▁respondent	-9.9492
▁select	-9.9494
▁box	-9.94962
▁release	-9.95001
▁Red	-9.95003
▁foundation	-9.95012
▁spent	-9.95082
▁commission	-9.95096
▁brain	-9.951
DA	-9.9512
▁element	-9.95166
▁elected	-9.95217
▁Home	-9.95265
vol	-9.95267
▁notification	-9.95294
VI	-9.95351
▁yield	-9.95392
▁applied	-9.95392
▁Du	-9.95401
▁ob	-9.9547
ank	-9.95489
stood	-9.95583
▁update	-9.9561
▁picture	-9.95625
▁Procedure	-9.95793
▁argument	-9.95894
▁improvement	-9.96003
▁match	-9.96014
▁Human	-9.96018
▁approved	-9.9605
▁remained	-9.9606
▁senior	-9.96095
▁du	-9.961
▁town	-9.96121
gn	-9.96122
▁officials	-9.96128
oph	-9.96155
▁dark	-9.96177
▁democratic	-9.96185
▁dr	-9.96227
▁settlement	-9.96229
▁lu	-9.96265
▁recommendations	-9.96276
▁discharge	-9.96308
▁walk	-9.9635
▁fill	-9.96364
▁convert	-9.96366
ook	-9.96393
▁permit	-9.96399
▁profession	-9.96416
jan	-9.9642
▁worth	-9.96511
▁24	-9.96519
▁suffering	-9.96669
▁latest	-9.96674
▁drawn	-9.96676
log	-9.96733
▁crops	-9.96761
ef	-9.96791
▁released	-9.96795
ov	-9.96893
▁president	-9.96895
▁governance	-9.96914
▁Roy	-9.96936
▁achieved	-9.96987
▁tea	-9.9708
▁drive	-9.97086
▁load	-9.97117
fu	-9.97129
▁initiatives	-9.97178
▁register	-9.97282
▁Financial	-9.97311
▁output	-9.9733
▁establish	-9.97359
▁sand	-9.97371
▁nearly	-9.97383
▁app	-9.97399
▁Mission	-9.97414
ically	-9.97428
▁cast	-9.97443
▁principal	-9.97516
ute	-9.97591
II	-9.97612
ati	-9.97628
xi	-9.97678
ature	-9.97702
lat	-9.97737
▁mu	-9.97875
▁participation	-9.97954
▁web	-9.97981
▁moved	-9.98067
▁ban	-9.98102
▁Prof	-9.98108
▁Don	-9.9811
low	-9.98308
▁folk	-9.98335
▁campaign	-9.98337
▁facilitate	-9.98337
▁border	-9.98441
▁Association	-9.98543
▁meant	-9.98551
zi	-9.98623
▁centres	-9.98647
ess	-9.98729
▁politics	-9.9875
▁challenge	-9.98768
▁supported	-9.98881
fa	-9.98916
▁territory	-9.98957
▁prices	-9.98961
▁battle	-9.98962
mar	-9.99066
▁union	-9.99189
bra	-9.99259
▁gold	-9.99276
▁hair	-9.99331
▁pan	-9.99405
▁weak	-9.99419
▁conference	-9.99598
las	-9.996
▁depend	-9.99635
▁Tu	-9.99684
▁approval	-9.99685
▁couple	-9.99687
das	-9.99706
▁nine	-9.99733
▁format	-9.99737
▁removed	-9.99747
▁creating	-9.9979
▁exceed	-9.99864
CC	-9.99878
▁emphasis	-9.99894
▁guarantee	-9.99894
▁director	-9.99932
▁factor	-9.99977
▁charged	-9.9998
▁Das	-9.99997
▁ear	-10.0001
▁false	-10.001
▁cat	-10.0016
▁revenue	-10.0021
▁recorded	-10.0023
▁standing	-10.003
▁trouble	-10.0042
ula	-10.0042
▁Islamist	-10.0048
▁commitment	-10.0057
▁married	-10.0063
▁Sikh	-10.0064
jo	-10.0071
▁solution	-10.0078
▁shift	-10.0084
▁Insurance	-10.0095
▁analysis	-10.0095
endra	-10.0096
▁happen	-10.0096
▁Bose	-10.0097
cious	-10.0099
▁bio	-10.0105
▁operate	-10.0105
▁news	-10.0107
▁SCC	-10.0114
bit	-10.0115
ID	-10.0121
▁London	-10.0126
▁center	-10.0128
▁permission	-10.0129
▁Jain	-10.0133
▁prosperity	-10.0137
▁garden	-10.0137
▁Internet	-10.0137
▁evil	-10.014
CH	-10.0141
▁proposal	-10.0143
▁interesting	-10.015
▁tonnes	-10.0159
▁Show	-10.0175
▁Police	-10.018
ica	-10.0182
▁east	-10.0184
▁materials	-10.0186
▁Comp	-10.0188
▁facility	-10.019
▁Among	-10.0191
▁electronic	-10.0201
▁functioning	-10.0202
▁Hon	-10.0205
vas	-10.0208
rm	-10.0212
▁Could	-10.0212
▁finally	-10.0213
▁citizen	-10.0218
▁50	-10.0219
▁Sal	-10.0224
bul	-10.0224
▁mention	-10.0225
▁reports	-10.0228
▁plain	-10.0236
avi	-10.0246
▁folder	-10.0248
▁belong	-10.0251
graph	-10.0253
▁extension	-10.0255
▁Network	-10.0255
▁huge	-10.0255
gin	-10.0256
▁characters	-10.0257
▁classes	-10.0258
▁Foreign	-10.0265
▁str	-10.0265
▁trees	-10.0267
by	-10.0276
▁murder	-10.0287
▁CO	-10.0293
▁constitute	-10.0293
▁rare	-10.0299
▁cap	-10.03
▁sources	-10.0301
▁Legislature	-10.0308
▁listen	-10.031
▁promot	-10.0314
▁comment	-10.0319
hat	-10.0328
▁maintained	-10.0329
▁imm	-10.0329
▁Sen	-10.0331
under	-10.0337
▁sought	-10.034
▁Karnataka	-10.0341
▁poll	-10.0341
▁mail	-10.0343
▁student	-10.0352
▁allowance	-10.0358
ome	-10.036
▁submitted	-10.0364
cept	-10.0371
▁atmosphere	-10.0373
▁communities	-10.0373
▁danger	-10.0375
▁pen	-10.0378
▁Em	-10.0386
▁awareness	-10.039
▁conducted	-10.0397
▁unre	-10.0398
▁camp	-10.0402
▁ver	-10.0403
▁grown	-10.0404
▁engine	-10.0406
▁cave	-10.0417
▁breath	-10.0417
▁apart	-10.0418
▁writer	-10.0419
▁drugs	-10.042
▁Right	-10.0424
pha	-10.0426
▁strike	-10.0429
▁opened	-10.0437
car	-10.0441
▁Kha	-10.0442
ony	-10.0445
gri	-10.0447
▁mar	-10.0457
▁obtained	-10.0458
▁finding	-10.0465
▁weeks	-10.0474
▁execution	-10.0475
▁served	-10.0485
▁earn	-10.0496
hood	-10.05
▁challenges	-10.0505
▁treat	-10.0511
▁proportion	-10.0516
▁retain	-10.0518
EC	-10.052
▁street	-10.0527
aging	-10.0528
▁race	-10.0528
fully	-10.0531
▁Ki	-10.0534
nal	-10.0539
▁ju	-10.0539
▁didn	-10.054
▁squared	-10.0546
▁pick	-10.0548
▁universities	-10.0549
▁Orissa	-10.0549
▁changing	-10.055
▁incident	-10.0552
▁confident	-10.0558
body	-10.056
▁climate	-10.056
▁prime	-10.0561
ld	-10.0574
▁banking	-10.0577
▁consists	-10.0581
▁moving	-10.0582
ras	-10.0587
▁Second	-10.059
▁profits	-10.059
▁expenses	-10.0591
volving	-10.0593
▁pollution	-10.0605
▁temperature	-10.0605
▁El	-10.0606
NG	-10.0609
▁Nature	-10.0612
▁west	-10.0616
▁column	-10.0616
▁situated	-10.0616
▁discipline	-10.0627
▁mobile	-10.0627
▁transferred	-10.063
ini	-10.0636
▁Each	-10.0637
▁affairs	-10.0638
ET	-10.0648
▁possession	-10.0649
▁constitution	-10.0652
ata	-10.0657
▁elections	-10.0668
▁Once	-10.0669
ku	-10.067
▁Although	-10.0672
▁attached	-10.0676
atic	-10.0679
hana	-10.0679
▁plays	-10.0684
▁maintenance	-10.0694
▁Ran	-10.0702
▁birds	-10.0704
▁devotion	-10.0705
▁thirty	-10.0705
▁More	-10.0717
▁Time	-10.0724
▁healthy	-10.0726
▁executive	-10.0729
▁valid	-10.0733
▁Sun	-10.0738
▁scene	-10.074
nda	-10.0741
rd	-10.0744
▁helped	-10.0744
ey	-10.0745
▁Press	-10.0745
▁sister	-10.0753
▁recently	-10.0753
▁raise	-10.0755
▁lose	-10.0761
▁sad	-10.0761
▁background	-10.0762
owing	-10.0763
ancy	-10.0768
▁operating	-10.0773
▁frame	-10.0773
▁solve	-10.0784
▁wear	-10.0788
▁resource	-10.0794
▁pra	-10.0795
▁absence	-10.0807
▁Self	-10.0808
fr	-10.0815
▁signal	-10.0817
▁sin	-10.0817
ek	-10.0825
▁chapter	-10.083
▁gift	-10.083
▁amendment	-10.0832
lli	-10.0834
▁Rule	-10.0835
▁AIR	-10.0837
▁Fe	-10.0838
▁arm	-10.084
▁courage	-10.0841
▁log	-10.0842
▁rates	-10.0843
ese	-10.0848
▁decades	-10.0851
▁elephant	-10.0852
▁imprisonment	-10.0853
▁launch	-10.0859
▁engineering	-10.0864
▁hill	-10.0864
ker	-10.0871
IM	-10.0879
▁iv	-10.0879
▁processes	-10.0882
▁Middle	-10.0887
▁conclusion	-10.0887
▁ourselves	-10.0887
▁online	-10.0887
▁records	-10.089
▁minor	-10.0892
▁objectives	-10.0894
▁Society	-10.0898
▁notes	-10.0899
ita	-10.0913
▁cow	-10.0914
▁subjects	-10.0915
▁weather	-10.0921
abad	-10.093
▁soft	-10.0932
▁flu	-10.0935
east	-10.0935
hen	-10.0935
▁occur	-10.0937
▁theory	-10.094
▁Select	-10.0945
nagar	-10.0947
ert	-10.0947
dev	-10.0953
▁greatest	-10.0954
▁track	-10.0956
▁multiple	-10.0957
if	-10.0959
▁ocean	-10.0967
▁becoming	-10.0968
lf	-10.0971
ken	-10.0973
wo	-10.0975
▁Before	-10.0979
▁fellow	-10.098
▁proceeding	-10.0993
▁piece	-10.0994
▁Railway	-10.1002
▁Shiva	-10.1004
▁pending	-10.1006
▁spend	-10.101
▁critic	-10.1012
▁Women	-10.1013
▁aspect	-10.1017
ON	-10.1018
▁resident	-10.1027
▁regions	-10.1029
▁audit	-10.1036
▁ability	-10.1039
▁harm	-10.104
iz	-10.1042
▁Assess	-10.1043
1-2018	-10.1048
▁cricket	-10.1048
▁Life	-10.105
rap	-10.1058
▁recognised	-10.1061
▁letters	-10.107
▁reflect	-10.107
▁ego	-10.1071
▁billion	-10.1079
▁threat	-10.1081
▁lies	-10.1087
▁formation	-10.1088
▁31	-10.109
▁edge	-10.1094
▁deliver	-10.1094
▁debate	-10.1096
▁Independence	-10.1107
▁severe	-10.1107
▁iron	-10.1108
▁transform	-10.1111
▁Form	-10.1118
▁counsel	-10.1118
▁shop	-10.1118
AD	-10.112
▁priority	-10.1124
dle	-10.1127
▁behaviour	-10.113
▁Reserve	-10.113
▁Gra	-10.1131
▁houses	-10.1133
ock	-10.114
CE	-10.1141
▁pure	-10.1141
▁evening	-10.1143
etic	-10.1143
▁Babu	-10.1148
▁URL	-10.1154
▁sweet	-10.1154
▁Jammu	-10.1154
▁bringing	-10.1163
PA	-10.1165
▁prince	-10.1165
▁zero	-10.1166
▁Social	-10.1166
▁Park	-10.1167
gam	-10.1169
▁Ab	-10.1172
▁blue	-10.1177
▁cloth	-10.1179
nia	-10.1184
▁capable	-10.1184
pra	-10.1186
▁although	-10.1189
▁Limited	-10.1191
▁21	-10.1193
▁channel	-10.1198
▁privilege	-10.1202
▁disc	-10.1208
▁smaller	-10.1213
X	-10.1214
ological	-10.1217
▁Col	-10.1218
▁limitation	-10.1218
iness	-10.122
▁em	-10.1222
▁reported	-10.1225
▁bilateral	-10.1225
▁Subhas	-10.1226
tam	-10.1226
lip	-10.1232
nam	-10.1233
AM	-10.1233
▁scope	-10.1236
not	-10.1243
▁u	-10.1246
▁manufacturing	-10.1248
some	-10.1253
▁conscious	-10.1255
clause	-10.1256
▁designed	-10.1256
▁Mah	-10.1257
last	-10.1258
▁offences	-10.1259
▁muscle	-10.126
rag	-10.1261
▁Mother	-10.1262
arising	-10.1269
EL	-10.128
▁gains	-10.1282
illa	-10.1289
▁environmental	-10.1291
▁subscribe	-10.1293
▁string	-10.1295
▁Province	-10.1296
▁choose	-10.13
lia	-10.1306
▁Training	-10.1308
▁Governments	-10.1318
▁layer	-10.132
▁intention	-10.132
pal	-10.1321
▁Comment	-10.1324
▁disputes	-10.1327
ida	-10.1329
icide	-10.1331
▁hot	-10.1332
▁Add	-10.1332
aj	-10.1333
▁prior	-10.1336
HA	-10.1338
vad	-10.134
▁contempt	-10.1343
▁endeavour	-10.1343
▁sexual	-10.1345
▁Jan	-10.1357
rr	-10.1366
▁Ti	-10.1366
▁partner	-10.1367
▁identify	-10.1367
▁cease	-10.1368
lon	-10.1379
▁remote	-10.138
▁rice	-10.1384
▁Application	-10.1404
▁Great	-10.1404
▁solar	-10.1405
▁Ru	-10.1406
▁brief	-10.1416
▁Change	-10.1416
▁password	-10.1428
▁counter	-10.1428
▁Madras	-10.1428
▁Divine	-10.1428
▁radio	-10.1433
len	-10.1434
▁welcome	-10.1447
▁sha	-10.146
▁calculat	-10.1461
▁mistake	-10.1464
▁signed	-10.1465
EM	-10.1473
▁determine	-10.1474
▁scientists	-10.1474
▁career	-10.1476
pad	-10.1477
▁Wi	-10.1482
nes	-10.1483
▁please	-10.1486
▁Ju	-10.1488
▁Criminal	-10.1488
ina	-10.1491
▁17	-10.1495
▁Shar	-10.1496
▁script	-10.1497
▁Control	-10.15
▁effects	-10.1501
ories	-10.1507
▁minutes	-10.1514
▁acquired	-10.1517
▁liquid	-10.1525
▁Are	-10.1528
▁mere	-10.153
▁initiative	-10.153
▁23	-10.1532
▁upper	-10.1532
▁fruit	-10.1532
pla	-10.1533
▁email	-10.1537
▁infection	-10.1537
▁identified	-10.1544
▁adopt	-10.1548
▁currency	-10.1549
▁friendship	-10.1551
▁implemented	-10.1553
ets	-10.1561
▁delight	-10.1569
▁disk	-10.157
▁li	-10.1572
▁lie	-10.1574
▁defeat	-10.1574
▁urge	-10.1575
▁Order	-10.1577
til	-10.1577
▁users	-10.1581
ope	-10.1583
▁advocate	-10.1586
▁sight	-10.1592
▁corner	-10.16
▁proof	-10.1601
▁Fo	-10.1607
▁platform	-10.1611
ong	-10.1611
▁bomb	-10.1614
▁enhance	-10.1619
▁reaction	-10.1623
▁performed	-10.1624
ral	-10.1624
▁secure	-10.1632
▁appeared	-10.1633
▁customer	-10.1634
▁Unit	-10.1635
▁Affairs	-10.1635
▁initial	-10.1638
▁tool	-10.1638
oli	-10.1638
▁wise	-10.1639
▁27	-10.1642
▁begin	-10.1647
▁des	-10.1655
ATION	-10.1655
▁Industrial	-10.1656
SE	-10.1663
▁farm	-10.1664
▁dec	-10.1667
▁grain	-10.1673
verse	-10.1676
▁assigned	-10.1679
▁shared	-10.1679
ography	-10.1679
▁Those	-10.1698
▁stress	-10.1698
▁scholars	-10.1703
▁liberal	-10.171
▁trend	-10.171
▁mountain	-10.171
▁desert	-10.171
▁installed	-10.1716
▁announced	-10.1716
▁contribute	-10.1718
▁satisfied	-10.1722
▁pointed	-10.1724
▁Port	-10.1725
▁Tra	-10.1727
▁god	-10.1729
iva	-10.1731
▁filled	-10.1739
ush	-10.174
▁strengthen	-10.1741
▁Mad	-10.1742
▁Related	-10.1744
▁double	-10.1747
▁22	-10.1747
▁branches	-10.175
▁mandapa	-10.1759
▁Nadu	-10.1765
▁route	-10.1766
▁flowers	-10.1767
▁jail	-10.1767
lum	-10.1768
▁mill	-10.1768
▁alternative	-10.1772
▁Business	-10.1772
▁Rights	-10.1783
lit	-10.1783
▁Economic	-10.1784
▁communal	-10.1784
▁Security	-10.1797
▁quarter	-10.1797
comp	-10.1803
▁definition	-10.181
▁tube	-10.1811
▁Yes	-10.1818
▁owner	-10.1821
▁employer	-10.1827
▁Iran	-10.1828
▁respective	-10.183
hr	-10.1834
over	-10.1839
▁ST	-10.1849
▁Nations	-10.1853
▁organized	-10.1855
▁bed	-10.1856
▁Protection	-10.1861
▁Deputy	-10.1872
▁narrow	-10.1873
▁Something	-10.1873
▁hit	-10.1873
▁skills	-10.1877
OS	-10.1878
otic	-10.1878
cor	-10.1879
▁seemed	-10.1881
tom	-10.1884
▁western	-10.1885
▁none	-10.1885
▁discussed	-10.1886
▁drop	-10.189
▁visited	-10.1895
▁council	-10.1898
▁cloud	-10.1898
▁immediate	-10.19
▁civilization	-10.1901
ms	-10.1903
▁centuries	-10.1923
▁Ver	-10.1923
inal	-10.1924
▁deals	-10.193
▁collected	-10.1936
▁consumer	-10.1938
▁manager	-10.1957
pri	-10.1961
▁arbitration	-10.1962
tel	-10.1969
▁Marriage	-10.1974
▁marketing	-10.1982
gal	-10.1986
▁wait	-10.1996
▁marked	-10.1998
▁wild	-10.2
▁represents	-10.2002
▁bus	-10.2003
▁pot	-10.2004
▁Ag	-10.2006
▁sc	-10.2009
▁eligible	-10.2012
▁simply	-10.2012
▁doesn	-10.2012
▁fuel	-10.2013
▁era	-10.2023
▁judiciary	-10.2025
▁comprehensive	-10.2026
▁drug	-10.2027
mun	-10.2027
▁employee	-10.2029
▁Data	-10.2032
▁constant	-10.2041
▁History	-10.2052
▁merit	-10.2054
▁gene	-10.206
▁shrine	-10.2064
▁wave	-10.2064
▁transaction	-10.2068
▁lit	-10.2068
bin	-10.207
NA	-10.2073
▁fell	-10.2074
▁belonging	-10.2079
▁Swami	-10.2079
▁auto	-10.2081
▁appearance	-10.2081
▁Gha	-10.2083
▁ni	-10.2086
ibility	-10.209
▁framework	-10.209
▁Kh	-10.21
▁stands	-10.2102
▁recognition	-10.2103
▁creative	-10.2103
▁Its	-10.2105
ora	-10.2111
raja	-10.2111
▁possess	-10.2114
▁Sat	-10.2123
▁rivers	-10.2126
▁advanced	-10.2134
▁reforms	-10.2136
▁Bangladesh	-10.2141
▁university	-10.2141
▁Joint	-10.2142
▁killed	-10.2143
▁bird	-10.2144
▁equality	-10.2144
▁French	-10.2155
▁substantial	-10.2158
▁mostly	-10.2159
▁Master	-10.2161
▁organizations	-10.2165
▁bin	-10.217
▁equally	-10.2173
▁metal	-10.2179
▁girls	-10.2186
CA	-10.2191
▁Principal	-10.2193
▁vehicle	-10.2201
▁intended	-10.2202
▁tribal	-10.2207
col	-10.2223
▁recommend	-10.2224
▁containing	-10.2225
hur	-10.2226
▁properly	-10.223
▁reserve	-10.223
OL	-10.2232
rant	-10.224
▁feature	-10.2241
imposed	-10.2243
▁flower	-10.2244
own	-10.2246
▁chain	-10.2247
▁household	-10.2249
my	-10.2252
gni	-10.2253
sp	-10.2254
TA	-10.2254
▁fifty	-10.2259
hin	-10.2261
▁Land	-10.2262
▁kill	-10.2264
rum	-10.2265
▁Vice	-10.2272
▁Small	-10.2272
▁Ge	-10.2272
▁visible	-10.2273
▁initiated	-10.2276
▁composed	-10.2276
▁insect	-10.229
▁skill	-10.2293
▁span	-10.2298
▁Lal	-10.2307
▁su	-10.2308
▁amended	-10.2308
rg	-10.2315
rc	-10.2316
▁prose	-10.2317
asi	-10.2322
late	-10.2324
▁Rural	-10.2328
name	-10.2328
▁opposition	-10.2338
▁discuss	-10.2354
▁electricity	-10.2354
▁bright	-10.2356
▁organised	-10.2357
ave	-10.236
▁sit	-10.2361
lab	-10.2364
▁category	-10.2364
▁photo	-10.2365
▁Year	-10.2365
▁attract	-10.2367
▁extremely	-10.2369
▁undertaken	-10.2374
▁Trade	-10.2376
▁escape	-10.2378
▁qua	-10.2379
▁entirely	-10.2381
▁technologies	-10.2391
▁Failed	-10.2391
▁exists	-10.2392
lap	-10.2399
craft	-10.2404
▁supreme	-10.2404
▁def	-10.2405
▁Good	-10.2408
▁Hyderabad	-10.2418
▁competent	-10.2418
▁pull	-10.242
OC	-10.2422
▁calls	-10.2422
MS	-10.2424
▁Pal	-10.2433
▁personality	-10.244
▁seeking	-10.2444
▁guide	-10.2459
▁fat	-10.2464
ban	-10.2466
try	-10.2472
IR	-10.248
▁thousands	-10.248
▁custom	-10.249
▁blind	-10.2498
▁poets	-10.2502
▁grand	-10.2509
▁traffic	-10.2512
▁liability	-10.2526
▁prosecution	-10.2531
▁looks	-10.2532
▁sick	-10.2532
▁Exchange	-10.2539
▁Food	-10.254
▁song	-10.254
CS	-10.2551
▁sugar	-10.2554
▁representation	-10.2563
▁amp	-10.2565
▁Head	-10.2567
▁Nar	-10.2569
▁drink	-10.2578
▁prohibit	-10.2579
▁victim	-10.2582
▁conviction	-10.2585
▁depends	-10.259
▁ahead	-10.2593
▁employed	-10.2593
▁starting	-10.2598
▁Mor	-10.2601
▁limits	-10.2604
▁organ	-10.2606
▁outstanding	-10.2606
▁directed	-10.261
▁regulations	-10.2612
▁bat	-10.2613
▁Name	-10.2618
▁felicitations	-10.262
▁informed	-10.2621
▁eggs	-10.2623
▁wonder	-10.2624
▁Hari	-10.2629
▁accurate	-10.2633
▁Urdu	-10.2634
▁inform	-10.2649
▁absolute	-10.2652
▁bond	-10.2656
▁80	-10.2661
▁arise	-10.2672
fo	-10.2676
▁Dev	-10.2676
▁rent	-10.268
LA	-10.268
▁hardly	-10.2684
▁thank	-10.2688
▁assist	-10.2689
table	-10.2693
▁Hi	-10.2694
▁Book	-10.2696
yo	-10.27
▁fix	-10.27
▁instruments	-10.27
▁myself	-10.2702
▁flat	-10.272
▁figures	-10.2721
▁dog	-10.2722
▁divide	-10.2726
▁Panchayat	-10.2729
▁fourth	-10.273
▁furnish	-10.2731
je	-10.2731
▁sold	-10.2735
gr	-10.2737
▁kinds	-10.2737
▁consultation	-10.2738
arian	-10.2739
▁pension	-10.2744
▁strange	-10.2745
rop	-10.2745
▁Houses	-10.2751
▁actions	-10.2752
▁quickly	-10.2752
▁enc	-10.2752
▁coal	-10.2756
uring	-10.2758
▁closed	-10.2765
▁Op	-10.2768
▁Enable	-10.2769
▁Madhya	-10.2771
▁Pandit	-10.2772
▁deeply	-10.2773
▁quick	-10.2777
▁Eastern	-10.2785
▁runs	-10.279
▁expand	-10.2791
pan	-10.2792
▁arrangement	-10.2794
▁witnesses	-10.2795
▁Award	-10.2801
▁Vishnu	-10.2812
▁province	-10.2812
CR	-10.2812
▁poetic	-10.2815
▁arms	-10.2816
▁collective	-10.2816
▁roll	-10.2819
nc	-10.2824
rang	-10.2826
▁Capital	-10.2826
▁floor	-10.2826
▁panel	-10.2831
eep	-10.2831
▁enabled	-10.2834
▁slow	-10.2838
▁budget	-10.284
bor	-10.2842
▁seat	-10.2847
AP	-10.2851
▁Assistant	-10.2854
▁venture	-10.2854
pati	-10.2864
▁John	-10.2868
▁sacred	-10.2868
▁spoke	-10.2871
▁stamp	-10.2872
▁Address	-10.2882
oma	-10.2895
▁appreciate	-10.2896
nar	-10.2904
▁proud	-10.2906
▁Sita	-10.2907
▁diet	-10.2909
▁Hence	-10.2912
cip	-10.2918
▁burden	-10.2924
▁offices	-10.2925
▁Sardar	-10.2925
▁socio	-10.2928
point	-10.2934
vat	-10.2936
eous	-10.2936
cho	-10.2942
▁interested	-10.2943
▁pair	-10.2944
IP	-10.2949
▁mid	-10.2951
▁impossible	-10.2952
hya	-10.2952
▁consent	-10.2953
ches	-10.2958
reg	-10.296
bur	-10.2966
cat	-10.2966
▁Election	-10.2966
▁Ltd	-10.2967
del	-10.2974
▁Direct	-10.2978
rel	-10.2979
▁tender	-10.2987
▁helps	-10.2991
▁Magistrate	-10.2994
▁prevail	-10.2994
ley	-10.2996
▁Siva	-10.2999
ain	-10.3004
▁awarded	-10.3005
uous	-10.3005
▁corporate	-10.3009
▁straight	-10.3009
▁steel	-10.3009
gy	-10.3011
▁Import	-10.3023
▁selection	-10.3025
▁organisations	-10.3028
▁requirement	-10.3028
▁fun	-10.3029
11	-10.303
▁respond	-10.3047
▁sheet	-10.3048
▁customers	-10.305
dan	-10.3054
▁publish	-10.3054
▁loans	-10.3057
▁liable	-10.3061
OP	-10.3068
▁offers	-10.3073
▁ratio	-10.3076
▁distinguished	-10.3077
▁exports	-10.3091
▁instructions	-10.3092
▁intelligence	-10.3094
▁cheque	-10.3094
▁Mand	-10.3099
▁arrived	-10.3099
wn	-10.3102
▁Gora	-10.3104
▁Regulation	-10.3108
▁enacted	-10.3108
▁Persian	-10.3108
▁understood	-10.3111
oon	-10.3112
▁consist	-10.3119
▁Buddha	-10.3122
▁movements	-10.3126
▁directions	-10.3129
pher	-10.3129
por	-10.3133
.2	-10.3133
▁telephone	-10.3137
▁sanction	-10.314
▁happens	-10.3144
▁Micro	-10.3146
agon	-10.3149
▁examine	-10.3151
▁ritual	-10.3151
▁commencement	-10.3152
▁compound	-10.3152
▁covering	-10.3153
▁Parliamentary	-10.3156
▁explained	-10.316
▁Export	-10.3167
▁Iraq	-10.3167
AB	-10.3169
▁salt	-10.3171
▁ga	-10.3176
like	-10.3176
rad	-10.3178
▁personnel	-10.318
▁playing	-10.3183
▁Just	-10.3191
▁admitted	-10.3196
▁prayer	-10.3198
▁Convention	-10.3209
▁Hu	-10.321
ky	-10.3213
▁core	-10.3214
▁estimated	-10.3218
qua	-10.3218
▁respectively	-10.322
▁determination	-10.3223
phy	-10.3226
▁Free	-10.3226
▁reply	-10.3238
▁inquiry	-10.3238
▁Ministers	-10.3239
▁claims	-10.3239
▁addressed	-10.324
▁masses	-10.3244
▁efficiency	-10.3252
▁commenc	-10.3255
▁legislative	-10.3267
▁Like	-10.327
▁Similarly	-10.3272
▁speaking	-10.3281
▁cycle	-10.3281
▁dedicated	-10.3286
▁travell	-10.3291
▁Swa	-10.3293
▁artist	-10.3297
▁statutory	-10.3303
▁submit	-10.3309
ifi	-10.3312
▁everyone	-10.3318
CT	-10.3319
▁remind	-10.3331
▁map	-10.3338
▁representative	-10.3347
▁Awards	-10.3349
▁evolution	-10.3354
▁parent	-10.3354
oth	-10.3356
▁effectively	-10.3357
▁availability	-10.337
▁spite	-10.3373
▁Nor	-10.3382
▁Gupta	-10.3384
▁exclud	-10.3384
▁objects	-10.3391
ST	-10.3392
ila	-10.3396
▁extensive	-10.3398
▁guidelines	-10.3398
▁anyone	-10.3406
RO	-10.341
▁Germany	-10.3412
▁passage	-10.3414
▁Auto	-10.3418
▁arrested	-10.342
riv	-10.3425
▁disorder	-10.3428
▁prepare	-10.3428
▁continues	-10.3429
ust	-10.3436
▁leaving	-10.3442
unch	-10.3448
▁contributions	-10.3452
▁Buddhist	-10.3457
▁Speaking	-10.3457
uni	-10.3462
DI	-10.3463
▁uses	-10.3471
ivity	-10.3474
bel	-10.3482
dis	-10.3484
▁Nav	-10.3485
▁Agriculture	-10.3487
▁uniform	-10.3487
▁succeed	-10.3492
gle	-10.3502
▁composition	-10.3503
PC	-10.3508
▁band	-10.3509
▁wants	-10.3512
▁recognized	-10.3512
▁improving	-10.3517
▁mine	-10.352
▁districts	-10.3524
oke	-10.3525
vil	-10.3527
ole	-10.3527
▁repeated	-10.3533
▁Note	-10.3538
eb	-10.3538
▁Vir	-10.3538
▁derived	-10.3543
▁handle	-10.3544
▁Mughal	-10.3546
▁Jawaharlal	-10.3546
▁Q	-10.3547
▁Web	-10.3547
▁detailed	-10.3549
▁procedures	-10.3551
▁rapid	-10.3554
tus	-10.3555
head	-10.3558
▁humanity	-10.3558
▁package	-10.3571
place	-10.3576
▁talent	-10.3577
▁grass	-10.3577
▁raw	-10.358
▁DNA	-10.3583
▁transactions	-10.3587
▁35	-10.3588
▁showing	-10.3589
▁represent	-10.3602
▁happiness	-10.3606
▁quantity	-10.3606
▁enemy	-10.3606
▁client	-10.3608
▁holder	-10.3613
▁demands	-10.3614
adi	-10.3617
▁preparation	-10.3621
▁superior	-10.3621
▁Medical	-10.3622
▁journal	-10.3626
pre	-10.3635
▁acting	-10.3635
▁competition	-10.3636
▁bridge	-10.3642
▁reject	-10.3644
▁practical	-10.3644
▁sharp	-10.3653
▁verse	-10.3654
▁finger	-10.3657
▁showed	-10.3657
▁consult	-10.3657
EA	-10.366
house	-10.3661
▁consumption	-10.3667
▁disposal	-10.3667
yl	-10.3676
▁upto	-10.3678
▁applicant	-10.3682
▁RE	-10.3689
NS	-10.369
▁egg	-10.3692
▁mineral	-10.3696
▁contemporary	-10.3697
▁differences	-10.3703
joined	-10.3704
▁examples	-10.3704
NAME	-10.3706
nation	-10.3712
▁heritage	-10.3712
▁housing	-10.3712
▁promise	-10.3713
pho	-10.3714
▁theme	-10.3715
kara	-10.372
▁sky	-10.3722
▁difficulty	-10.3725
▁Child	-10.3727
▁baby	-10.3728
ake	-10.3731
well	-10.3738
▁Army	-10.3739
▁cool	-10.3739
▁victims	-10.374
▁guidance	-10.3743
ugh	-10.375
▁ac	-10.3754
▁prospect	-10.3758
▁settled	-10.3761
▁certainly	-10.3761
▁regime	-10.3764
ane	-10.3768
▁partition	-10.377
mination	-10.3771
▁remaining	-10.3772
▁saint	-10.3773
▁kingdom	-10.3774
matic	-10.3775
▁passion	-10.3779
▁cook	-10.3785
▁Set	-10.3785
▁minds	-10.3788
▁MSME	-10.3788
▁Credit	-10.3788
▁York	-10.3788
▁adapt	-10.3789
ress	-10.379
hari	-10.3797
ipp	-10.3801
dhar	-10.3805
▁enterprise	-10.3806
▁prisoner	-10.3808
▁grounds	-10.3812
▁normally	-10.3817
▁strategy	-10.3819
▁elder	-10.3819
▁About	-10.382
▁fees	-10.3828
▁acquisition	-10.3834
▁appellant	-10.3834
▁Binoy	-10.3834
duct	-10.3835
▁inspired	-10.3835
▁college	-10.3837
▁dress	-10.384
▁reli	-10.3841
▁decade	-10.3843
▁Environment	-10.3844
DE	-10.3848
▁distinction	-10.385
▁Through	-10.385
▁imagine	-10.385
▁Brahmin	-10.3851
▁Resource	-10.3865
▁regulate	-10.3865
▁computing	-10.3865
▁bail	-10.3866
lig	-10.3871
ami	-10.3872
▁reveal	-10.3873
▁flag	-10.3879
▁immense	-10.3881
▁virtue	-10.3881
▁palace	-10.3881
▁opt	-10.3887
▁destroy	-10.3888
▁Industry	-10.3896
▁nerve	-10.3897
▁pages	-10.3905
▁writers	-10.3907
▁emergency	-10.3912
back	-10.3915
▁criticism	-10.3916
zz	-10.3917
▁difficulties	-10.392
▁Bir	-10.3923
▁install	-10.3926
▁ensur	-10.3928
▁ble	-10.3936
▁successfully	-10.3943
▁zone	-10.3943
▁Japan	-10.3943
▁gui	-10.3945
zar	-10.3954
▁Dar	-10.3955
ksha	-10.3957
▁Chaitanya	-10.3958
▁Afghanistan	-10.3958
▁sustainable	-10.3959
tting	-10.3964
▁partial	-10.3975
▁sell	-10.3977
▁markets	-10.3978
▁bag	-10.3986
ending	-10.3986
▁combination	-10.3989
▁expansion	-10.3989
▁flood	-10.3989
▁injury	-10.3989
▁fault	-10.3989
▁integrated	-10.3994
▁Paper	-10.3995
wer	-10.3997
▁bath	-10.3997
▁borrow	-10.4001
BI	-10.4001
▁specify	-10.4005
▁crisis	-10.4006
charya	-10.4016
▁Executive	-10.4021
▁utter	-10.4023
▁unable	-10.4025
hra	-10.4027
▁League	-10.4036
▁regarded	-10.4039
▁tools	-10.4042
▁religions	-10.4051
▁neighbour	-10.4067
▁repair	-10.4068
▁Che	-10.408
TE	-10.4081
▁Children	-10.4084
▁lake	-10.4088
▁investors	-10.4089
▁defendant	-10.4092
dom	-10.4094
tem	-10.4097
▁quiet	-10.41
app	-10.4102
▁happening	-10.4103
cap	-10.4103
▁Mala	-10.4104
▁FOR	-10.4105
TION	-10.411
▁occurs	-10.4112
▁interpretation	-10.4124
▁armed	-10.4127
▁Pur	-10.4129
▁circle	-10.4131
▁switch	-10.4131
▁formula	-10.4134
▁usual	-10.4136
wise	-10.4138
▁exception	-10.4139
▁bow	-10.415
▁sole	-10.4154
▁governments	-10.4161
▁destination	-10.4163
▁violent	-10.4163
HO	-10.4166
▁widely	-10.417
▁afford	-10.4172
▁Start	-10.4174
▁editor	-10.4177
▁comprise	-10.4179
▁Market	-10.4183
▁seeds	-10.4186
▁plans	-10.4186
▁Regional	-10.4191
ench	-10.4193
▁appoint	-10.4194
▁tribunal	-10.4194
▁tomorrow	-10.4194
lessness	-10.4201
▁Yet	-10.4201
dor	-10.4207
▁rever	-10.4209
▁participate	-10.421
▁irrigation	-10.4212
▁topic	-10.4215
▁mono	-10.4216
▁Ambedkar	-10.4226
▁competitive	-10.4226
ena	-10.4227
▁outer	-10.4228
▁celebrated	-10.4229
▁filing	-10.4231
▁leg	-10.4232
▁remarkable	-10.4232
▁28	-10.4237
▁legs	-10.4239
oy	-10.424
▁educated	-10.4242
▁prominent	-10.4242
ori	-10.4243
▁motor	-10.4247
bhu	-10.425
▁significance	-10.4258
▁thick	-10.4259
▁Rai	-10.4261
▁taught	-10.4265
▁trained	-10.4272
▁Companies	-10.4274
▁lecture	-10.4274
▁thoughts	-10.4275
▁Sea	-10.4277
▁blow	-10.4283
▁controlled	-10.4284
des	-10.429
▁aforesaid	-10.429
▁crowd	-10.429
room	-10.4292
▁viz	-10.4293
▁Fr	-10.4295
▁talking	-10.4297
▁Hol	-10.4297
▁subsequent	-10.43
ched	-10.4305
▁twelve	-10.4307
▁dealt	-10.4309
press	-10.4313
▁valuable	-10.4323
▁voluntary	-10.4323
▁neck	-10.4323
▁permitted	-10.4325
▁input	-10.4331
ific	-10.4334
▁implement	-10.4336
▁herself	-10.4339
▁harmony	-10.4339
▁Laws	-10.4343
▁forget	-10.4343
rush	-10.4348
▁Cho	-10.4349
▁plaintiff	-10.4355
▁universe	-10.4355
▁trading	-10.4355
▁transmission	-10.4355
▁Trust	-10.4358
▁chosen	-10.436
logical	-10.4362
dding	-10.4362
▁Ac	-10.4365
▁destruction	-10.4371
▁grew	-10.4371
▁conversion	-10.4373
▁fail	-10.4375
nga	-10.4382
▁papers	-10.4382
▁tour	-10.4386
▁Russia	-10.4387
▁fifteen	-10.4387
▁guilty	-10.4387
▁dollar	-10.4387
▁Bench	-10.4399
loom	-10.44
▁Registration	-10.4404
hir	-10.4405
▁yourself	-10.442
▁domain	-10.442
▁attain	-10.442
▁whi	-10.4425
▁delivered	-10.443
terior	-10.4433
▁evident	-10.4436
▁roof	-10.4436
▁prefer	-10.4438
▁Mat	-10.444
▁hall	-10.444
▁roads	-10.4441
▁Nagar	-10.4444
▁Later	-10.4451
▁Appeal	-10.4453
▁digital	-10.446
▁Indo	-10.446
▁representatives	-10.4462
▁breed	-10.4463
▁manage	-10.4465
▁boat	-10.4468
▁contrary	-10.4469
▁southern	-10.4469
mic	-10.447
▁progressive	-10.4473
▁Earth	-10.4475
view	-10.4478
▁alter	-10.4482
▁UK	-10.4484
▁royal	-10.4485
▁productivity	-10.4486
▁Prasad	-10.4488
▁26	-10.4498
▁drawing	-10.4499
ode	-10.45
▁attacks	-10.4507
▁push	-10.4508
▁recovery	-10.4514
▁operative	-10.4517
work	-10.4518
▁snake	-10.4518
▁recall	-10.4519
era	-10.4519
rou	-10.452
worm	-10.452
▁Mohan	-10.4523
▁Prem	-10.4523
AY	-10.4524
▁equity	-10.4535
face	-10.4535
▁celebrat	-10.4536
▁sur	-10.4539
▁Road	-10.4542
▁arrangements	-10.4543
▁replace	-10.4544
▁consisting	-10.4549
hole	-10.4551
▁Je	-10.4551
▁Kolkata	-10.4551
▁radical	-10.4552
▁soldiers	-10.4554
▁dynamic	-10.4557
load	-10.4562
▁forests	-10.4563
▁coin	-10.4566
▁emotional	-10.457
long	-10.4573
cra	-10.4575
active	-10.4576
▁remark	-10.4578
list	-10.4581
▁Provid	-10.4581
▁Hav	-10.4582
▁safeguard	-10.4584
▁depth	-10.4584
▁chargeable	-10.4589
▁Apart	-10.459
yard	-10.4591
▁settings	-10.4592
▁SE	-10.4595
▁transformation	-10.4596
▁walls	-10.4599
▁litigation	-10.4601
net	-10.4606
▁broken	-10.4613
▁2015	-10.4618
vit	-10.4618
▁stick	-10.462
▁Gram	-10.462
▁wound	-10.462
udi	-10.4628
▁offering	-10.4631
▁possibility	-10.4634
meter	-10.4634
▁leaf	-10.4635
▁III	-10.4637
▁Australia	-10.4638
logy	-10.4638
▁fluid	-10.4639
Q	-10.4641
ort	-10.4641
stan	-10.4642
▁backward	-10.4648
accompanied	-10.4651
▁Chinese	-10.4651
▁fertiliz	-10.4651
▁infinite	-10.4651
▁Annual	-10.4651
▁Legal	-10.4652
▁guard	-10.4666
▁Will	-10.4667
▁numerous	-10.4668
▁poison	-10.4668
▁refused	-10.4673
▁Committees	-10.4674
▁continuous	-10.4678
encies	-10.468
▁authentic	-10.4684
▁grievance	-10.4684
▁Text	-10.4684
▁acceptance	-10.4694
▁holds	-10.4696
▁reader	-10.47
▁familiar	-10.4701
▁Chi	-10.4701
▁distinct	-10.4714
▁absorb	-10.4718
▁bottom	-10.4718
▁prompt	-10.4718
zo	-10.472
▁laugh	-10.4721
▁click	-10.4722
DR	-10.4727
▁Being	-10.4727
▁Chrome	-10.4735
▁Dh	-10.4736
ifying	-10.4736
▁founded	-10.4742
▁deposits	-10.4743
lex	-10.475
▁thereby	-10.4751
▁temporary	-10.4751
▁sentiment	-10.4751
▁Britain	-10.4752
▁newspaper	-10.4756
▁begins	-10.4762
▁defect	-10.4767
▁pit	-10.4776
▁fruits	-10.4779
▁satisfaction	-10.4785
▁presid	-10.4786
▁eternal	-10.4788
▁Ref	-10.4789
ua	-10.4791
▁Final	-10.4796
▁pack	-10.4798
▁painting	-10.48
hav	-10.4801
▁excellence	-10.4802
had	-10.4807
▁PR	-10.4813
▁stages	-10.4814
pr	-10.4817
▁multiply	-10.4819
▁pound	-10.4831
▁park	-10.4831
▁corporation	-10.4836
ought	-10.4839
▁detail	-10.4843
▁excess	-10.4849
▁discussions	-10.4851
▁introduction	-10.4853
▁essentially	-10.4856
▁waiting	-10.4859
▁extreme	-10.4864
▁assembly	-10.487
▁audio	-10.4871
▁France	-10.4873
▁download	-10.4874
win	-10.4874
stone	-10.4874
▁gradually	-10.4877
▁Ben	-10.4879
▁ran	-10.4879
▁undertake	-10.4881
rin	-10.4886
▁Himachal	-10.4887
▁faculty	-10.4887
▁securities	-10.4888
py	-10.4891
▁achievement	-10.4891
▁fulfil	-10.4892
▁Gr	-10.4893
▁specially	-10.4898
▁occupation	-10.4904
▁wholly	-10.4905
▁authorised	-10.4909
bat	-10.4918
▁qualities	-10.4921
idi	-10.4921
▁breast	-10.4922
▁Asian	-10.4924
ase	-10.4935
▁conferred	-10.4939
▁arch	-10.4941
nan	-10.4942
▁suddenly	-10.4943
▁solutions	-10.4948
▁broke	-10.4948
ola	-10.4949
▁commit	-10.495
▁bull	-10.4951
▁Mac	-10.4956
▁disappear	-10.4956
▁Vedic	-10.4956
▁semi	-10.4969
▁Last	-10.4972
▁producing	-10.4973
▁advised	-10.4982
▁Advocate	-10.499
▁opposite	-10.499
▁cotton	-10.499
▁brave	-10.4994
▁Penal	-10.5003
▁component	-10.5004
parliamentary	-10.5005
▁rulers	-10.5006
▁prejudice	-10.5007
▁protest	-10.5008
▁Class	-10.5008
▁tail	-10.501
akh	-10.5012
part	-10.5013
PP	-10.5013
▁interpret	-10.5015
ray	-10.5017
▁weapons	-10.5022
▁segment	-10.5025
▁visual	-10.5026
▁recognize	-10.503
bon	-10.5031
deva	-10.5035
▁departments	-10.5036
▁linked	-10.5036
eng	-10.5037
▁modification	-10.5042
▁resort	-10.5042
▁button	-10.5043
▁Make	-10.5044
▁Read	-10.505
▁bas	-10.5057
ENT	-10.5058
TI	-10.5058
▁categories	-10.5059
▁http	-10.5059
▁dependent	-10.5066
▁meetings	-10.5069
▁Four	-10.5069
▁terminal	-10.5079
SP	-10.5081
ero	-10.5082
▁largely	-10.5087
▁writings	-10.5088
▁legislature	-10.5094
▁Labour	-10.5095
▁encouraged	-10.5099
PO	-10.5108
▁Universities	-10.5112
▁teeth	-10.5112
▁Turkey	-10.5112
script	-10.5115
▁forwarded	-10.5118
▁pray	-10.5126
▁suggestion	-10.5128
▁illegal	-10.5129
▁architecture	-10.513
▁teach	-10.5139
▁currently	-10.5143
▁verses	-10.5145
▁Certificate	-10.5147
▁admit	-10.5147
▁northern	-10.5147
▁noted	-10.5151
tract	-10.5159
▁assess	-10.5159
cular	-10.5159
▁interaction	-10.516
▁Cabinet	-10.5164
▁Innovation	-10.5164
▁node	-10.5165
▁Audit	-10.5166
▁accordingly	-10.5167
▁Imp	-10.5168
▁investments	-10.5169
▁Back	-10.5171
kal	-10.5175
gged	-10.5175
▁Multi	-10.518
▁menu	-10.518
▁accomplish	-10.5182
▁circuit	-10.5182
▁strategic	-10.5182
▁German	-10.5182
▁carefully	-10.5182
astic	-10.5185
▁messages	-10.519
▁meal	-10.5191
▁symptoms	-10.5193
▁goals	-10.5196
▁gods	-10.5198
▁abnormal	-10.5199
ndi	-10.5204
▁prop	-10.5209
garh	-10.5211
▁sudden	-10.5212
▁rose	-10.5213
▁monitor	-10.5214
▁tab	-10.5215
▁millions	-10.5218
▁UT	-10.5219
▁Gita	-10.5221
uit	-10.5224
▁leads	-10.5225
▁115	-10.5225
▁consequences	-10.5225
▁claimed	-10.5229
▁eastern	-10.5235
▁Mus	-10.5235
▁gross	-10.5235
▁technological	-10.5236
▁drinking	-10.5237
▁invited	-10.5238
▁components	-10.5238
▁estimate	-10.5241
rai	-10.5245
▁directory	-10.5249
emia	-10.5252
▁icon	-10.5253
▁disabled	-10.5253
▁Print	-10.5253
▁amendments	-10.5253
▁vis	-10.5258
▁collect	-10.5259
eri	-10.5263
▁confined	-10.5264
fect	-10.5267
▁cancer	-10.5268
▁exactly	-10.5269
▁declaration	-10.527
ene	-10.5274
▁Char	-10.5278
▁Area	-10.5282
can	-10.5285
MP	-10.5285
▁print	-10.5287
▁lesson	-10.5287
rao	-10.53
▁Edit	-10.5302
SU	-10.5303
▁dangerous	-10.5303
▁Pu	-10.5305
▁unknown	-10.5306
▁dignity	-10.5306
▁secular	-10.5307
▁despite	-10.5308
chal	-10.5312
▁writ	-10.5314
98	-10.5322
▁Sometimes	-10.5324
band	-10.5326
▁gall	-10.5331
tech	-10.5333
ord	-10.5334
vir	-10.5336
▁incurred	-10.5341
▁stopped	-10.5343
▁resid	-10.5352
▁valley	-10.5359
▁font	-10.5362
▁genetic	-10.5362
▁detect	-10.5368
PS	-10.5371
▁recommendation	-10.5372
▁fever	-10.5376
▁Appellate	-10.5377
▁PRODUCT	-10.5377
▁White	-10.5377
▁subordinate	-10.5378
▁distributed	-10.5378
▁relative	-10.5378
▁atomic	-10.5378
chandra	-10.5383
▁grave	-10.5389
▁fort	-10.5391
▁Egypt	-10.5394
▁causing	-10.5395
US	-10.54
vin	-10.5401
▁Has	-10.5407
▁indicate	-10.5408
▁epic	-10.5409
▁cry	-10.5409
▁empire	-10.5413
▁Bri	-10.5415
▁collaboration	-10.5424
▁NAME	-10.5424
▁eminent	-10.5431
▁profile	-10.5431
▁tear	-10.5442
▁gland	-10.5444
▁beat	-10.5444
lim	-10.5447
▁Ed	-10.5448
▁ring	-10.5448
▁excellent	-10.5449
▁tourism	-10.5454
▁actor	-10.5454
▁Brahma	-10.5456
▁dust	-10.5458
▁Due	-10.5459
▁invest	-10.546
▁Brahman	-10.546
▁prison	-10.5462
Z	-10.5465
▁palm	-10.5466
▁protein	-10.5467
▁Kingdom	-10.5468
▁feelings	-10.5475
▁Bur	-10.548
▁realise	-10.5481
▁Support	-10.5485
▁Ramayana	-10.5485
▁sorrow	-10.5485
▁interface	-10.5487
▁City	-10.5489
▁proposals	-10.5493
▁represented	-10.5496
▁tenant	-10.5498
▁followers	-10.5498
▁Ten	-10.5499
▁inserted	-10.5501
pend	-10.5502
quir	-10.5505
▁discover	-10.5507
TS	-10.5511
The	-10.5513
▁hence	-10.5521
▁innovative	-10.5522
▁studied	-10.5522
▁widow	-10.5522
▁occurred	-10.5523
don	-10.553
▁mixed	-10.5531
▁100	-10.5537
▁minute	-10.5538
▁tank	-10.5538
▁Maharaja	-10.5541
▁Flag	-10.5544
▁obvious	-10.5554
▁Custom	-10.5558
▁warrant	-10.5561
▁lady	-10.5563
▁emotion	-10.5574
▁harvest	-10.5576
▁dam	-10.5578
▁Number	-10.5579
▁technique	-10.5586
▁concerns	-10.5587
▁boys	-10.5594
▁solid	-10.5595
▁plane	-10.5599
▁spring	-10.56
▁images	-10.561
▁yellow	-10.5613
ii	-10.5614
ove	-10.5614
▁taste	-10.5619
▁involves	-10.562
▁holy	-10.5621
▁pride	-10.5632
▁Lanka	-10.5633
▁fighting	-10.5634
▁impose	-10.564
▁impression	-10.5642
▁illness	-10.5643
lle	-10.5645
▁Mark	-10.5645
▁passenger	-10.565
▁Saudi	-10.5652
▁Hy	-10.5662
▁Ve	-10.5663
ily	-10.5667
▁proviso	-10.5668
▁PC	-10.567
amba	-10.5671
▁secondary	-10.5675
▁customs	-10.5683
▁devotee	-10.5683
▁mini	-10.5684
▁shaped	-10.5686
▁diversity	-10.5687
▁commonly	-10.5694
▁seats	-10.5702
▁impart	-10.5707
▁Mag	-10.5707
appa	-10.5708
▁Basava	-10.5712
▁receiving	-10.5724
▁supplement	-10.5724
▁truly	-10.5724
▁sample	-10.5727
▁tourist	-10.573
▁rising	-10.5733
▁Bhag	-10.5734
▁percentage	-10.5736
▁Author	-10.5736
SC	-10.5739
▁starts	-10.5739
▁meat	-10.5739
▁kg	-10.5742
▁automatically	-10.5743
▁seeing	-10.5746
▁Hinduism	-10.5746
▁wage	-10.5759
▁Administrative	-10.5761
▁victory	-10.5761
▁internet	-10.5763
▁loose	-10.5763
anta	-10.5763
ordinat	-10.5771
▁IPC	-10.5773
▁managed	-10.5776
▁survive	-10.578
▁facing	-10.5781
▁diverse	-10.5782
▁faced	-10.5789
▁rejected	-10.579
▁traditions	-10.5797
▁liberty	-10.5798
▁statute	-10.5798
▁preserve	-10.5805
▁affection	-10.5808
▁Energy	-10.5817
▁NABARD	-10.5817
▁accumulat	-10.5817
▁compassion	-10.5817
▁dividend	-10.5819
metric	-10.5826
▁devices	-10.5828
CON	-10.5829
▁march	-10.583
▁hang	-10.5831
▁edit	-10.5833
▁Bhi	-10.5834
▁Gazette	-10.5836
▁audience	-10.5836
una	-10.5839
▁merge	-10.5839
▁links	-10.584
▁manifest	-10.584
▁noise	-10.5844
▁Nir	-10.5844
▁fan	-10.5849
lal	-10.5851
▁inclusive	-10.5855
▁wisdom	-10.5855
▁peak	-10.586
▁Interest	-10.586
▁ID	-10.5862
▁advise	-10.5864
▁Lu	-10.587
▁Notwithstanding	-10.5874
▁deceased	-10.5874
▁licence	-10.5874
▁obligation	-10.5876
▁hurt	-10.5877
leg	-10.5877
rk	-10.5878
▁converted	-10.588
▁achievements	-10.5882
▁Jam	-10.5883
▁sports	-10.589
worthy	-10.5892
▁tongue	-10.5893
▁rough	-10.5893
▁realised	-10.5894
▁Have	-10.5896
▁contributed	-10.5899
▁planet	-10.5902
▁avail	-10.5905
down	-10.591
▁Industries	-10.5911
▁raising	-10.5912
▁peaceful	-10.5914
▁repeal	-10.5914
law	-10.5918
▁buildings	-10.5921
most	-10.5924
▁Banks	-10.5928
▁ruling	-10.5931
▁index	-10.5932
RT	-10.5934
ogue	-10.5934
▁scholar	-10.5939
run	-10.5943
ously	-10.5945
▁rear	-10.5945
▁derivative	-10.5949
▁define	-10.5951
▁Money	-10.5952
▁killing	-10.5954
▁consistent	-10.5954
cast	-10.5956
ache	-10.5956
yam	-10.5957
▁crores	-10.5959
▁flight	-10.5959
▁catch	-10.5962
▁sales	-10.5966
▁row	-10.5967
▁cluster	-10.5968
▁dramatic	-10.5973
▁exploit	-10.5981
▁notified	-10.5982
▁coll	-10.5982
▁Knowledge	-10.5987
▁movie	-10.5987
cient	-10.5993
▁gap	-10.5993
▁Working	-10.6
▁greatly	-10.6004
▁Cur	-10.6006
▁database	-10.6006
▁applies	-10.6006
▁urgent	-10.6008
▁Table	-10.601
▁childhood	-10.601
▁reduction	-10.6015
▁Pass	-10.6023
▁dear	-10.6025
▁www	-10.6026
▁Test	-10.6026
▁salary	-10.6027
▁praise	-10.6028
▁saved	-10.6029
▁Bor	-10.6029
ept	-10.6031
▁Jaya	-10.6034
▁strengthening	-10.6035
anga	-10.6039
▁mad	-10.6043
▁patients	-10.6043
▁Narayan	-10.6045
▁examined	-10.6045
▁aircraft	-10.6047
▁glo	-10.6052
▁knows	-10.6058
▁Ji	-10.6063
▁indigenous	-10.6064
pot	-10.6064
▁carbon	-10.6065
rav	-10.6066
▁lac	-10.6071
▁learnt	-10.6078
▁eve	-10.6081
▁consumers	-10.6082
▁maintaining	-10.6085
▁desired	-10.6091
▁Goa	-10.6095
▁vegetables	-10.6101
▁cultivation	-10.6102
▁license	-10.6102
ich	-10.6104
▁servant	-10.6105
▁planned	-10.6105
▁pieces	-10.6105
▁Mur	-10.6111
▁instruction	-10.6111
▁pursu	-10.6113
▁Sind	-10.6114
▁Os	-10.6121
▁Administration	-10.6122
▁descend	-10.6122
▁Governance	-10.6122
pertaining	-10.6124
▁surrounding	-10.6133
▁closely	-10.6139
▁candidates	-10.614
▁Organization	-10.6141
▁Sector	-10.6142
hila	-10.6144
mur	-10.615
▁Online	-10.6152
▁Devi	-10.6157
mate	-10.6157
responsibilities	-10.616
▁ceremony	-10.616
▁Question	-10.616
▁cri	-10.6161
▁glass	-10.6161
▁adverse	-10.6161
pass	-10.6167
▁assert	-10.6167
▁characteristic	-10.6169
▁institutional	-10.6173
▁epi	-10.618
▁mountains	-10.618
▁primarily	-10.618
▁Search	-10.618
▁experts	-10.6181
▁decree	-10.6181
▁printed	-10.6182
.3	-10.6185
▁Card	-10.6186
▁influenced	-10.6188
▁Look	-10.6191
lot	-10.6193
▁lamp	-10.6199
▁Global	-10.6199
▁geo	-10.6203
▁Help	-10.6211
▁emb	-10.6211
▁custody	-10.6219
▁dimension	-10.622
▁magic	-10.622
▁cattle	-10.622
▁abuse	-10.6226
▁Ven	-10.6226
12	-10.6231
▁poly	-10.6233
▁hills	-10.6233
▁depict	-10.6239
▁Mir	-10.6243
▁Sara	-10.6246
een	-10.6252
▁enforce	-10.6253
▁Bad	-10.6255
ima	-10.6256
▁artificial	-10.6258
bro	-10.6262
▁naturally	-10.6264
▁opposed	-10.627
▁extract	-10.6273
▁George	-10.6277
▁lift	-10.6279
▁Death	-10.6283
▁stored	-10.6284
▁via	-10.6295
▁partners	-10.6297
▁continent	-10.6297
▁Organisation	-10.6297
▁Provision	-10.6297
▁typical	-10.6297
▁expiry	-10.6297
▁observ	-10.6297
▁Kal	-10.6299
▁falls	-10.63
▁Arabic	-10.6301
cri	-10.6301
mir	-10.6305
▁Adv	-10.6309
▁Za	-10.6312
▁Create	-10.6314
▁Loan	-10.6316
▁Agricultural	-10.6317
▁Electronic	-10.6317
▁insurer	-10.6317
▁coast	-10.632
ential	-10.6322
▁older	-10.6325
thy	-10.6328
▁emerge	-10.6334
▁algorithm	-10.6337
▁accord	-10.6338
▁equation	-10.6342
▁pipes	-10.6345
bh	-10.6352
▁therein	-10.6353
▁Mas	-10.6354
▁attribute	-10.6357
▁intervention	-10.6357
▁ties	-10.6359
▁entity	-10.6359
▁sharing	-10.636
▁suggestions	-10.6361
▁Sil	-10.6361
▁corruption	-10.6361
▁PRO	-10.6363
▁supposed	-10.6365
UL	-10.6374
▁goddess	-10.6376
▁condemn	-10.6376
▁airport	-10.6379
▁amend	-10.6391
▁signs	-10.6394
▁discovered	-10.6395
▁owned	-10.6395
▁completion	-10.6396
▁virtual	-10.6396
▁Marathi	-10.6396
▁sculpture	-10.6396
▁asking	-10.6398
▁rational	-10.64
PL	-10.6406
▁resolve	-10.6414
▁burn	-10.6414
▁Mahabharata	-10.6415
▁Perhaps	-10.6416
▁equivalent	-10.6416
▁replied	-10.6416
▁Obama	-10.6416
▁punish	-10.6423
▁attended	-10.6429
▁twice	-10.6436
▁duration	-10.6437
▁caught	-10.6439
▁trace	-10.644
▁pin	-10.645
ino	-10.6451
▁television	-10.6456
▁vimana	-10.6456
▁Ber	-10.6457
but	-10.6459
▁fold	-10.6467
▁Professor	-10.6476
▁sensitive	-10.6476
▁societies	-10.6476
▁silent	-10.6476
▁stuff	-10.6476
▁photograph	-10.6476
▁rendered	-10.6482
▁revolutionary	-10.6483
▁Kam	-10.6483
git	-10.6486
▁arranged	-10.6492
▁differ	-10.6493
▁genuine	-10.6496
FA	-10.6496
▁hotel	-10.6503
▁attachment	-10.6503
ND	-10.6505
▁plate	-10.6505
▁congratulate	-10.6507
▁player	-10.6507
▁alive	-10.6507
▁generate	-10.6508
ouch	-10.6513
UN	-10.6514
▁CA	-10.6515
▁discretion	-10.6516
▁2016	-10.6516
▁predict	-10.6516
▁shock	-10.6516
aught	-10.6517
▁keen	-10.6518
jee	-10.6518
▁Ham	-10.6519
▁plot	-10.6522
▁driver	-10.6524
▁emerged	-10.6525
▁Punjabi	-10.6534
cid	-10.6536
▁Muhammad	-10.6536
▁totally	-10.6537
▁mount	-10.654
hri	-10.6544
▁Tiru	-10.6549
▁Officers	-10.6553
▁Defence	-10.6556
ambi	-10.6559
▁besides	-10.6559
▁appeals	-10.656
▁spoken	-10.6561
▁Gau	-10.6561
ela	-10.6562
AK	-10.6574
▁integrity	-10.6576
EP	-10.6576
▁Green	-10.6577
▁Bhu	-10.6584
▁brothers	-10.6584
▁forced	-10.6587
▁framed	-10.6588
iff	-10.659
▁listed	-10.659
ket	-10.6593
▁Municipal	-10.6597
▁Again	-10.6597
▁properties	-10.6598
▁Zone	-10.6603
lash	-10.6604
▁Persons	-10.6608
zy	-10.6611
▁imagination	-10.6617
▁Indira	-10.6617
▁sustain	-10.6618
duction	-10.6618
▁Grant	-10.6622
▁TV	-10.6622
▁Bharati	-10.6626
rim	-10.6635
▁Empire	-10.6637
▁inspiration	-10.6637
▁suspect	-10.6637
ref	-10.6641
▁Rao	-10.6646
▁ray	-10.6647
gur	-10.6654
▁jobs	-10.6655
▁printer	-10.6655
▁realize	-10.6656
MO	-10.6656
▁wheel	-10.6658
▁emerging	-10.6658
▁empty	-10.6658
▁abandon	-10.6658
▁oriented	-10.6658
▁variation	-10.6658
▁View	-10.6662
▁enforcement	-10.6662
▁producer	-10.6663
lop	-10.6672
▁Dha	-10.6674
▁Saha	-10.6675
▁Save	-10.668
▁regularly	-10.6683
▁testing	-10.6687
IVE	-10.6695
▁disturb	-10.6696
ret	-10.6705
▁specifically	-10.6706
▁Hill	-10.6711
IA	-10.6717
▁illustrat	-10.6719
▁concession	-10.672
▁summer	-10.6723
book	-10.673
▁observe	-10.673
▁decline	-10.6733
▁forty	-10.6736
uda	-10.6737
▁thin	-10.6739
▁wheat	-10.6739
apped	-10.6744
pen	-10.6744
▁beings	-10.6744
RU	-10.6746
rom	-10.6747
▁pet	-10.6748
▁rapidly	-10.675
key	-10.6754
▁29	-10.6755
▁clothes	-10.6759
▁sequence	-10.676
chieving	-10.676
▁Oh	-10.6761
SL	-10.6767
tance	-10.6767
▁putting	-10.6779
▁grace	-10.6781
▁ruled	-10.6786
▁theatre	-10.6787
▁Pol	-10.6787
▁thereafter	-10.6788
▁assume	-10.6793
99	-10.6796
▁earned	-10.68
▁expert	-10.68
▁parallel	-10.6801
▁peasant	-10.6801
▁2014	-10.6801
▁legend	-10.6802
▁Access	-10.6809
▁Date	-10.6809
tak	-10.6811
▁techniques	-10.6811
▁Five	-10.6813
▁islands	-10.6813
▁Deb	-10.6816
▁organism	-10.6817
liness	-10.6818
▁outcome	-10.6822
▁residence	-10.6824
▁glad	-10.6824
▁CP	-10.6825
▁Nath	-10.6826
titut	-10.6827
▁pond	-10.6827
▁displayed	-10.6832
▁statements	-10.6832
▁constantly	-10.6838
▁tremendous	-10.6843
▁monitoring	-10.6846
▁Love	-10.6847
▁enhanced	-10.685
▁implementing	-10.6852
▁transportation	-10.6859
▁operational	-10.686
▁translated	-10.6861
▁Investment	-10.6863
▁consolidat	-10.6863
▁routine	-10.6864
▁Computer	-10.6864
has	-10.6866
▁marry	-10.6868
▁noble	-10.6871
▁constructed	-10.6873
▁declare	-10.6875
reafter	-10.6875
▁Off	-10.6879
▁aside	-10.688
▁CD	-10.6884
▁estate	-10.6886
▁mailing	-10.6887
tum	-10.6888
position	-10.6892
▁bold	-10.6893
▁indicated	-10.6897
▁presentation	-10.6898
▁towns	-10.6902
itch	-10.6903
▁options	-10.6904
▁entrusted	-10.6905
▁suicide	-10.6906
▁Kali	-10.691
▁beach	-10.6912
▁narrat	-10.6914
▁organiz	-10.6916
ologist	-10.6916
▁mut	-10.6923
▁Soviet	-10.6926
rup	-10.6929
▁nest	-10.6932
▁corresponding	-10.6937
▁defend	-10.6942
och	-10.6945
▁Gur	-10.6946
▁Consumer	-10.6947
▁Prince	-10.6947
▁Haryana	-10.6947
▁Baba	-10.6955
▁Hall	-10.696
▁novels	-10.6961
▁pictures	-10.6961
▁combined	-10.6965
▁satisfy	-10.6968
▁objection	-10.6969
fold	-10.6971
▁referr	-10.6971
▁Keep	-10.6975
▁replaced	-10.6976
▁acre	-10.698
▁historic	-10.6987
▁perfection	-10.6988
▁surrender	-10.6989
▁paragraph	-10.6991
▁patent	-10.6992
▁depending	-10.6996
▁Sad	-10.7007
▁fly	-10.7008
▁marks	-10.7009
▁Sucharita	-10.701
▁contrast	-10.701
▁essay	-10.701
▁organisms	-10.7011
▁paint	-10.7013
▁ended	-10.7015
▁Review	-10.7015
▁acquire	-10.7023
▁Deposit	-10.7025
▁burning	-10.7027
mission	-10.7028
▁Gen	-10.7037
rb	-10.7038
▁chart	-10.7038
▁Vo	-10.7042
unk	-10.7044
▁enterprises	-10.705
▁deliberate	-10.7053
▁stretch	-10.7053
▁cheap	-10.7053
▁trip	-10.7054
▁Check	-10.7054
▁exceeding	-10.7059
▁forth	-10.7059
▁slowly	-10.7066
▁concerning	-10.7074
▁library	-10.7074
▁worse	-10.7074
▁resistance	-10.7076
▁disclos	-10.7076
▁Local	-10.7077
rab	-10.7082
▁ends	-10.7082
▁....	-10.7083
▁ultimate	-10.7094
▁Current	-10.7095
▁snow	-10.7096
▁Canada	-10.7098
▁bills	-10.7098
▁Durga	-10.71
▁Region	-10.71
▁programs	-10.7102
flow	-10.7113
▁Bush	-10.7114
▁concentrate	-10.7116
▁Arch	-10.7117
wit	-10.7119
▁lease	-10.712
▁covers	-10.7123
stat	-10.7125
▁inspection	-10.7129
▁native	-10.7129
▁incentive	-10.7138
ira	-10.7142
▁pursue	-10.7143
▁ministers	-10.7146
▁sixty	-10.715
▁40	-10.715
▁selling	-10.7151
▁worker	-10.7155
▁structures	-10.7156
▁Engineering	-10.7159
▁Forest	-10.7159
get	-10.7159
EX	-10.716
▁everywhere	-10.7161
miss	-10.7165
bhai	-10.7166
▁complaints	-10.7176
▁wing	-10.7179
ude	-10.718
▁Jewish	-10.7181
▁beneficial	-10.7181
▁worry	-10.7181
▁nurse	-10.7181
▁Connect	-10.7182
eve	-10.7183
MENT	-10.7183
▁winter	-10.7188
▁sons	-10.7189
▁Key	-10.7193
▁organs	-10.7194
▁arrive	-10.7195
▁plead	-10.7195
▁somebody	-10.7195
▁factory	-10.7201
▁Majesty	-10.7202
▁disciple	-10.7202
▁Additional	-10.7202
▁innocent	-10.7202
▁stem	-10.7211
▁aggregate	-10.7224
▁Speech	-10.7224
▁scan	-10.7229
▁dwell	-10.723
▁calling	-10.723
▁sites	-10.7235
hand	-10.7238
▁complain	-10.7243
▁Chennai	-10.7245
▁Welfare	-10.7245
▁earliest	-10.7245
▁parliament	-10.7248
▁Click	-10.725
▁surround	-10.7255
▁undergo	-10.7255
board	-10.7259
▁newspapers	-10.7261
▁unfortunate	-10.7263
▁mix	-10.7266
▁Leprosy	-10.7267
▁crucial	-10.7267
▁fur	-10.7272
▁Fort	-10.7274
▁necessarily	-10.7284
▁Three	-10.7289
▁Inde	-10.7291
▁graduate	-10.7292
off	-10.7292
▁lover	-10.7298
▁Var	-10.7301
▁sustained	-10.7303
CL	-10.7303
▁executed	-10.7307
▁ideals	-10.7308
FC	-10.731
▁colonial	-10.731
▁2013	-10.731
▁batsman	-10.731
▁destroyed	-10.7321
▁silk	-10.7321
▁consequence	-10.7322
ternal	-10.7324
▁delete	-10.7326
▁roots	-10.7331
▁qualification	-10.7332
▁overcome	-10.7332
ection	-10.7334
▁eating	-10.7338
▁duly	-10.7339
▁courses	-10.7341
PR	-10.7343
▁regulation	-10.7344
▁elaborate	-10.7354
▁Smt	-10.7354
▁AT	-10.7356
▁label	-10.7356
▁ruler	-10.7363
para	-10.7369
oda	-10.7371
▁experiences	-10.7371
vara	-10.7371
▁radiation	-10.7378
media	-10.7388
▁Young	-10.7391
▁terror	-10.7393
▁uncle	-10.7394
▁Accounts	-10.7397
▁deserve	-10.7398
▁varied	-10.74
▁exploitation	-10.7405
vy	-10.7406
▁requested	-10.7409
WA	-10.741
▁restore	-10.7414
riya	-10.7415
▁Agra	-10.7417
▁Govt	-10.742
▁dialogue	-10.742
▁cooperative	-10.7423
old	-10.7426
▁wages	-10.7429
▁Sho	-10.7431
▁evolved	-10.7436
▁falling	-10.7439
▁comments	-10.744
▁neglect	-10.7442
▁yesterday	-10.7442
▁shoot	-10.7442
▁alleged	-10.7442
▁heaven	-10.7442
▁cancel	-10.7442
vari	-10.7443
▁Iranian	-10.7444
▁grade	-10.7447
itude	-10.7462
▁serving	-10.7464
▁copies	-10.7464
▁chair	-10.7469
▁temp	-10.747
▁administrator	-10.7486
▁healthcare	-10.7486
▁tract	-10.749
▁incorporated	-10.7496
▁User	-10.7497
▁violation	-10.7499
▁forum	-10.75
rust	-10.7504
▁spell	-10.7505
▁Ash	-10.7508
▁Software	-10.7508
▁commodities	-10.7508
▁vitamin	-10.7508
nav	-10.7512
▁enclos	-10.7515
▁Anti	-10.7517
jit	-10.7519
▁refuse	-10.7524
▁gram	-10.7526
▁conservation	-10.753
▁intense	-10.7531
▁sphere	-10.7532
▁alien	-10.7534
fall	-10.7534
▁RBI	-10.7537
▁schedule	-10.7546
yu	-10.7548
▁satellite	-10.7553
▁Temple	-10.7553
▁turning	-10.7554
▁wings	-10.7555
▁smile	-10.7558
▁busy	-10.7561
posed	-10.7563
▁Sign	-10.7567
▁installation	-10.7567
▁marriages	-10.7573
▁exclusive	-10.7575
▁configuration	-10.7575
▁geographical	-10.7575
▁Truth	-10.7575
▁denied	-10.7575
▁protected	-10.7577
▁bread	-10.758
ware	-10.7583
▁weakness	-10.7586
▁lakhs	-10.7588
▁DAY	-10.7589
eshwar	-10.7591
▁Play	-10.7592
▁chromosome	-10.7597
▁territories	-10.7597
▁Foundation	-10.7597
▁decimal	-10.7597
▁migrat	-10.7598
▁Nothing	-10.7598
▁ICT	-10.7599
▁recover	-10.7601
wh	-10.7601
▁calm	-10.7602
▁scheduled	-10.7604
▁situations	-10.7607
▁generated	-10.7607
▁tooth	-10.7614
▁Take	-10.7614
▁organis	-10.7615
▁monthly	-10.7616
▁MP	-10.7619
▁obstruct	-10.762
▁Bangalore	-10.762
▁Washington	-10.762
▁disaster	-10.762
▁blank	-10.762
▁submission	-10.7625
poli	-10.7626
▁Creat	-10.7627
▁shut	-10.7628
▁farming	-10.7632
▁arises	-10.7635
▁Benefit	-10.7642
▁injured	-10.7642
▁miles	-10.7643
▁considering	-10.7645
▁taxes	-10.7649
▁USA	-10.765
HI	-10.765
everal	-10.7651
▁devoted	-10.7652
rama	-10.7654
▁formulation	-10.7654
▁Case	-10.7656
▁awards	-10.7658
▁score	-10.7659
vation	-10.7661
version	-10.7663
▁enormous	-10.7665
▁Syria	-10.7665
▁Moreover	-10.7666
▁generations	-10.7668
▁32	-10.7673
ella	-10.7675
▁organic	-10.7677
right	-10.7679
LI	-10.768
▁breach	-10.7687
▁Issue	-10.7688
▁Type	-10.769
▁obligations	-10.769
▁pump	-10.7697
▁succeeded	-10.7702
▁attach	-10.7703
▁degrees	-10.7705
▁models	-10.7707
▁profound	-10.771
▁Dam	-10.7711
▁Jag	-10.7712
▁lung	-10.7715
TER	-10.7722
▁Forum	-10.7726
▁perspective	-10.7733
▁outlook	-10.7733
▁mor	-10.7733
▁allegation	-10.7733
▁carries	-10.7736
▁confirm	-10.7747
▁afraid	-10.7755
▁discrimination	-10.7755
▁biggest	-10.7755
▁Allahabad	-10.7756
▁Bills	-10.7756
▁Japanese	-10.7756
▁ultimately	-10.7757
▁Get	-10.7762
▁shell	-10.7763
▁pace	-10.7764
▁IIT	-10.7765
▁deduct	-10.7769
▁Ob	-10.7772
▁gun	-10.7774
lp	-10.7775
▁furnished	-10.7776
undi	-10.7777
▁financing	-10.7778
▁Abdul	-10.7778
▁bigger	-10.7781
▁charm	-10.7785
▁feeding	-10.7788
▁NE	-10.7792
devi	-10.7792
▁entrepreneurs	-10.7794
▁eleven	-10.7801
▁hidden	-10.7801
▁gentle	-10.7801
▁silence	-10.7801
▁guest	-10.7802
esis	-10.7804
▁realisation	-10.7808
wat	-10.7817
▁frequently	-10.7818
▁Give	-10.782
▁Christ	-10.7823
▁smooth	-10.7824
▁Sheikh	-10.7824
▁substituted	-10.7824
▁stability	-10.7825
▁Action	-10.7829
ender	-10.7837
▁Tre	-10.7839
▁drum	-10.7839
▁bacteria	-10.7841
▁Dan	-10.7848
▁attracted	-10.7848
▁shot	-10.7849
▁Copy	-10.7849
▁lying	-10.7854
▁levi	-10.7854
▁hide	-10.7856
▁readers	-10.7857
odi	-10.7858
▁describe	-10.7859
▁pig	-10.7864
VE	-10.7866
▁nutrition	-10.787
▁Learn	-10.787
▁noticed	-10.7872
▁Tal	-10.7874
ney	-10.788
▁judgement	-10.7887
him	-10.7889
▁scar	-10.7892
▁CHAPTER	-10.7893
▁calendar	-10.7893
▁William	-10.7893
▁Visit	-10.7894
▁Gi	-10.7897
▁retired	-10.7902
▁convention	-10.7906
cial	-10.7906
▁Times	-10.7911
▁assured	-10.7912
▁maybe	-10.7912
▁institute	-10.7913
▁Private	-10.7916
▁suppress	-10.7916
▁inherent	-10.7916
▁silver	-10.7916
utosh	-10.7917
▁Planning	-10.792
▁African	-10.7925
▁prosecut	-10.7928
▁Mahal	-10.7934
▁varieties	-10.7939
▁stations	-10.7941
▁Tan	-10.7943
▁pool	-10.7946
▁ending	-10.7949
▁highlight	-10.7949
▁preach	-10.7952
▁classical	-10.7956
48	-10.7956
▁stars	-10.7959
▁apparent	-10.7963
▁genus	-10.7963
round	-10.7973
▁Hand	-10.7979
▁Telugu	-10.7986
▁Gir	-10.7986
▁Record	-10.7986
▁Short	-10.7986
▁digest	-10.7988
MM	-10.7988
▁punishable	-10.7993
▁ordered	-10.7993
▁render	-10.7994
▁helping	-10.7996
▁Accordingly	-10.7996
▁younger	-10.8004
pura	-10.8007
▁Topics	-10.8009
▁suspend	-10.8009
▁revision	-10.8009
▁governed	-10.801
RS	-10.8011
▁textile	-10.8017
▁cutting	-10.8017
▁Sec	-10.8026
▁exercised	-10.8032
▁pregnancy	-10.8032
▁virus	-10.8033
path	-10.8036
▁belongs	-10.8037
▁interval	-10.8038
rig	-10.8039
lv	-10.8042
▁recording	-10.8045
▁tape	-10.8052
▁browser	-10.8056
▁tribute	-10.8056
▁easier	-10.8056
▁intimate	-10.8056
▁farmer	-10.8059
▁Cell	-10.8062
ographic	-10.8071
▁Page	-10.8072
▁musical	-10.8074
▁Recommendation	-10.8079
▁protocol	-10.8079
▁thread	-10.8079
▁propagat	-10.808
▁hind	-10.8083
▁Bala	-10.8084
▁Major	-10.8085
▁mood	-10.8087
▁Indra	-10.8088
▁compete	-10.8091
▁deity	-10.8099
▁exhaust	-10.8103
▁Agreement	-10.8103
▁pledge	-10.8103
rh	-10.8103
being	-10.8104
▁Taj	-10.8104
▁Thank	-10.8104
▁fro	-10.8106
▁performing	-10.8109
gram	-10.8109
▁bearing	-10.8113
▁bitter	-10.8117
▁withdrawal	-10.8118
▁lawyers	-10.8118
▁Light	-10.8119
▁relatives	-10.8119
▁characteristics	-10.812
cade	-10.8122
▁politician	-10.8126
▁compos	-10.8127
▁vehicles	-10.8137
▁fairly	-10.8139
▁hundreds	-10.8144
▁Main	-10.8149
▁extraordinary	-10.815
▁integration	-10.815
▁reducing	-10.815
▁Himalayas	-10.8151
▁preferred	-10.8151
▁gate	-10.8154
▁Sessions	-10.8154
▁precious	-10.8154
ez	-10.8155
▁closer	-10.8159
▁pop	-10.8161
itu	-10.8162
▁sending	-10.8166
▁sanctioned	-10.8168
bir	-10.8168
oor	-10.8171
▁vary	-10.8171
▁split	-10.8176
▁Bra	-10.8179
▁axis	-10.8181
arch	-10.8182
▁resist	-10.8184
pala	-10.8185
▁Rate	-10.8187
▁logic	-10.8191
▁Process	-10.8195
▁remedy	-10.8197
▁tip	-10.8199
▁gained	-10.8202
▁channels	-10.8204
ogen	-10.8218
▁Pension	-10.8221
OM	-10.8223
▁IV	-10.8228
▁gathered	-10.8231
▁representing	-10.8238
▁entertain	-10.824
▁slip	-10.8241
▁Ray	-10.8244
▁admission	-10.8246
▁settle	-10.8246
▁Center	-10.8246
▁slope	-10.8247
▁metres	-10.8249
▁pillars	-10.8249
ksh	-10.8249
▁preference	-10.825
gla	-10.8254
▁elect	-10.8264
▁Prevention	-10.8269
▁identification	-10.8269
▁Nanak	-10.8269
▁Entry	-10.827
▁anywhere	-10.8278
OI	-10.8288
▁Display	-10.8293
▁appreciation	-10.8293
▁entrance	-10.8293
▁necessity	-10.8293
▁Greek	-10.8293
▁daniel	-10.8293
▁perception	-10.8293
▁creature	-10.8293
▁marginal	-10.8294
▁slave	-10.8294
▁norms	-10.8296
▁newly	-10.8301
▁strongly	-10.8304
▁experienced	-10.8306
▁chest	-10.831
▁tasks	-10.8316
▁modified	-10.8317
▁ticket	-10.8317
▁fraction	-10.8318
wara	-10.8319
▁Advance	-10.832
▁excessive	-10.8323
▁borrower	-10.8323
▁acceptable	-10.8327
▁Bahadur	-10.8341
▁magazine	-10.8341
▁seriously	-10.8342
▁repost	-10.8342
▁acute	-10.8344
link	-10.8349
▁Personal	-10.8352
▁clock	-10.8352
▁Institutions	-10.8357
vati	-10.8357
▁nut	-10.8358
▁adoption	-10.8359
phal	-10.8363
▁conversation	-10.8365
▁Family	-10.8365
▁pretty	-10.8365
▁brown	-10.8366
▁definite	-10.8367
▁functional	-10.8374
▁reward	-10.8375
operative	-10.8387
▁cult	-10.8389
▁confront	-10.8389
▁climb	-10.839
▁programming	-10.839
ural	-10.8396
lai	-10.8413
▁Netaji	-10.8414
▁mould	-10.8414
▁Command	-10.8414
▁interview	-10.8416
oa	-10.8417
▁wider	-10.8419
▁engagement	-10.8421
▁Bio	-10.8422
▁usage	-10.8433
▁united	-10.8434
lore	-10.8436
▁honest	-10.8438
▁Sindhi	-10.844
▁ownership	-10.844
cite	-10.8441
▁impress	-10.8446
▁enjoyed	-10.8453
▁nationalist	-10.8456
▁Turk	-10.8461
▁fifth	-10.8462
▁resembl	-10.8462
▁Bhutan	-10.8463
▁Islands	-10.847
DM	-10.847
▁darkness	-10.8474
▁invalid	-10.8487
▁shelter	-10.8487
▁deco	-10.8489
▁Did	-10.849
▁pour	-10.8493
▁convicted	-10.8496
far	-10.8496
▁conventional	-10.8499
▁revealed	-10.8499
▁engage	-10.8499
charge	-10.8508
▁increasingly	-10.8509
▁delegation	-10.8511
▁genius	-10.8511
▁ornament	-10.8513
▁establishing	-10.8522
▁Canno	-10.8525
▁preced	-10.853
▁somewhat	-10.8536
▁variable	-10.8536
▁castes	-10.854
▁EVE	-10.8542
▁Kama	-10.8543
▁Pune	-10.8544
▁assumed	-10.8546
▁ruin	-10.8547
▁golden	-10.8547
▁walking	-10.8549
▁sheep	-10.8551
▁BY	-10.8551
▁Six	-10.8556
BS	-10.8557
GP	-10.8563
▁villagers	-10.8572
▁servants	-10.8582
▁compulsory	-10.8585
▁enactment	-10.8585
▁driving	-10.8585
▁mechanical	-10.8585
▁Manipur	-10.8585
▁harmful	-10.859
▁unlike	-10.8596
▁enquiry	-10.8597
fulness	-10.8608
▁continuing	-10.861
▁fabric	-10.861
▁landlord	-10.861
▁Third	-10.861
▁margin	-10.861
connect	-10.8615
▁fulfill	-10.8621
▁digit	-10.8633
▁Enterprise	-10.8635
▁enabling	-10.8635
▁encouraging	-10.8635
▁chamber	-10.8635
▁distress	-10.8635
▁Present	-10.8635
▁Employment	-10.8636
▁retirement	-10.8636
▁luck	-10.8641
▁Session	-10.8656
▁Paul	-10.8657
▁Badruddin	-10.866
▁litigant	-10.866
▁Valley	-10.866
▁premium	-10.866
▁stomach	-10.866
▁Lahore	-10.866
eanwhile	-10.866
▁fought	-10.8664
night	-10.8666
▁Media	-10.8667
▁cure	-10.8672
▁exact	-10.8673
▁reflected	-10.8675
▁faster	-10.8679
▁194	-10.8683
▁Instead	-10.8685
▁literacy	-10.8685
▁favor	-10.8685
dem	-10.8685
▁admire	-10.8686
▁partly	-10.869
▁Qa	-10.8692
▁Super	-10.8693
▁defi	-10.8695
▁adjust	-10.8697
RC	-10.87
▁careful	-10.8702
▁restrictions	-10.8703
▁inputs	-10.8704
▁surprise	-10.8706
▁saving	-10.8708
▁circular	-10.871
▁complicated	-10.871
▁eventually	-10.871
▁precise	-10.871
▁mankind	-10.871
▁upgrade	-10.871
▁Natural	-10.871
▁fails	-10.8711
▁Airport	-10.8711
vid	-10.8713
▁Seven	-10.8715
▁pleased	-10.8721
▁imported	-10.8723
▁indicates	-10.8726
▁Arm	-10.8726
lac	-10.8727
▁decrease	-10.8735
▁Transfer	-10.8737
▁Common	-10.8738
▁remembered	-10.8738
▁reserved	-10.874
▁bench	-10.8741
▁Ganges	-10.8743
▁Line	-10.8757
▁Log	-10.8759
▁concentration	-10.876
▁Document	-10.876
▁surgery	-10.8761
▁Veda	-10.8764
▁Rest	-10.8771
▁bonds	-10.8777
mind	-10.8782
DS	-10.8783
▁communicate	-10.8785
▁practitioner	-10.8785
▁shadow	-10.8785
▁stayed	-10.8786
▁massive	-10.8799
▁Bhai	-10.8801
▁Verma	-10.8802
MT	-10.8803
▁nervous	-10.881
▁priest	-10.881
▁Swaraj	-10.8814
▁Star	-10.8822
▁Payment	-10.8822
▁vested	-10.8824
TO	-10.8826
▁camel	-10.883
▁compute	-10.8831
▁introduce	-10.8832
▁attempts	-10.8834
▁doctors	-10.8836
▁allocation	-10.8836
▁Russian	-10.8836
▁MA	-10.8839
hol	-10.8842
CB	-10.8847
▁nose	-10.8847
▁camera	-10.8853
▁Shu	-10.8854
▁institutes	-10.8858
▁Academy	-10.8861
FI	-10.8863
▁Padma	-10.8864
▁printing	-10.8866
PU	-10.8881
▁explanation	-10.8886
▁aspirations	-10.8887
▁candidate	-10.8887
▁anger	-10.8888
▁scholarship	-10.8888
bol	-10.8889
▁Fu	-10.889
▁idol	-10.8892
avan	-10.8897
▁Bureau	-10.8912
▁Black	-10.8912
▁withdraw	-10.8934
▁intellect	-10.8937
▁Quality	-10.8938
▁begun	-10.8938
▁Branch	-10.8938
▁disseminat	-10.8938
▁describes	-10.8944
▁tourists	-10.8946
▁tall	-10.8948
BA	-10.8951
▁warning	-10.8962
▁merchant	-10.8963
▁comprising	-10.8963
▁nominated	-10.8963
▁refund	-10.8963
▁Kabir	-10.8965
▁summon	-10.8969
▁Satya	-10.8976
▁compliment	-10.8989
▁Federal	-10.8989
▁mandatory	-10.8989
▁patron	-10.8989
▁invite	-10.899
ema	-10.8994
▁subsequently	-10.8999
resident	-10.9
▁tele	-10.9002
▁interact	-10.9007
▁nodes	-10.9008
claim	-10.901
▁repeat	-10.9012
▁winning	-10.9018
▁Promotion	-10.902
▁pursuit	-10.902
▁membership	-10.9024
▁Plant	-10.9037
,000	-10.904
▁treasure	-10.904
▁pulse	-10.9041
▁tribes	-10.9041
▁Gujarati	-10.9043
▁Movement	-10.9045
▁firmly	-10.9046
▁bid	-10.9047
▁instituted	-10.9047
▁everybody	-10.9048
▁entering	-10.905
▁empower	-10.906
▁maha	-10.906
▁comfort	-10.906
▁stable	-10.9066
▁Video	-10.9066
▁oppress	-10.9066
▁Sahib	-10.9067
▁guess	-10.9067
▁conceiv	-10.9069
▁infant	-10.907
amma	-10.9071
print	-10.9079
adha	-10.9079
▁Vol	-10.9084
IST	-10.909
▁filter	-10.9092
▁slightly	-10.9093
▁club	-10.9097
▁Nation	-10.9102
▁Pay	-10.9108
▁loved	-10.9108
▁recit	-10.911
▁Communication	-10.9118
▁embrace	-10.9118
▁stakeholders	-10.9118
▁fashion	-10.9118
▁Repeal	-10.9118
lusion	-10.9119
▁Arjun	-10.9119
ule	-10.9125
bai	-10.9127
▁convinced	-10.913
▁govern	-10.9134
▁relates	-10.9142
▁MESSAGE	-10.9144
▁arrival	-10.9144
▁desktop	-10.9144
▁essence	-10.9145
SION	-10.9145
▁smoke	-10.9146
▁drain	-10.9147
▁handling	-10.9148
▁driven	-10.915
▁disability	-10.9159
▁Age	-10.9162
▁Rani	-10.9168
term	-10.9169
▁troops	-10.9171
▁elsewhere	-10.9171
▁broadcast	-10.9172
▁Vidya	-10.9175
istan	-10.9175
▁employ	-10.9179
▁observations	-10.9187
▁bowl	-10.9191
▁Ministries	-10.9197
▁membrane	-10.9197
▁Jews	-10.9197
▁bug	-10.9201
▁obviously	-10.9203
▁mystic	-10.9204
▁reverse	-10.9206
▁actively	-10.9214
NT	-10.9216
▁colleges	-10.9218
▁demon	-10.922
AYS	-10.922
▁Next	-10.9223
▁hyper	-10.9223
▁Andaman	-10.9224
▁hardware	-10.9225
▁keyboard	-10.9225
▁Ear	-10.9226
▁Shankar	-10.9227
▁tension	-10.9229
▁Ty	-10.923
▁Institution	-10.9232
▁lawyer	-10.9233
▁separately	-10.9244
▁speeches	-10.9244
▁expanded	-10.9246
▁speedy	-10.9249
▁oxygen	-10.925
▁mixture	-10.925
▁strain	-10.9251
▁struck	-10.9251
▁eliminat	-10.9253
▁residential	-10.9254
▁Photo	-10.9264
▁distribut	-10.9266
▁hazard	-10.9276
▁consequent	-10.9276
▁peculiar	-10.9276
▁knee	-10.9277
▁Contract	-10.9279
▁mat	-10.9279
espite	-10.9281
wad	-10.9281
▁addresses	-10.9284
▁breeding	-10.9286
comm	-10.9293
▁observation	-10.9295
▁Long	-10.9295
▁ignorance	-10.9303
▁premises	-10.9303
▁sympathy	-10.9303
EE	-10.9303
▁rehabilitation	-10.9304
aksha	-10.9305
▁preceding	-10.9309
satisfactory	-10.9313
▁bare	-10.9318
▁Windows	-10.9324
▁NI	-10.9326
▁Subhash	-10.9327
▁Cost	-10.9328
▁alcohol	-10.9329
▁supplied	-10.9329
▁enrich	-10.9329
▁expertise	-10.9331
ux	-10.9331
▁Point	-10.9333
ananda	-10.9341
ique	-10.9343
SM	-10.9344
▁recognise	-10.9353
▁Principle	-10.9356
▁governing	-10.9359
▁Bhagat	-10.9365
▁Path	-10.9374
TRA	-10.9375
▁Ocean	-10.9383
▁Queen	-10.9384
gha	-10.9386
▁subtract	-10.9391
▁headed	-10.9394
▁designated	-10.9394
card	-10.9396
inous	-10.9399
babu	-10.9402
▁Sim	-10.9407
▁Moh	-10.9408
▁overseas	-10.9409
▁Modern	-10.941
▁tiger	-10.941
▁leaflet	-10.9411
hot	-10.9411
▁vessels	-10.9413
▁Gar	-10.9414
uli	-10.9418
,	-10.9419
hai	-10.9422
▁finished	-10.9423
▁minority	-10.9424
▁Directorate	-10.9425
▁irre	-10.9428
▁educat	-10.9429
▁associate	-10.9435
▁Default	-10.9436
▁compromise	-10.9436
▁Machine	-10.9436
▁plastic	-10.9436
▁IPv	-10.9436
▁monetar	-10.9437
▁tendency	-10.9438
▁electric	-10.9448
▁systematic	-10.9453
read	-10.9458
▁originally	-10.9458
▁adding	-10.9458
▁bell	-10.9459
▁pronounce	-10.9463
▁pioneer	-10.9463
▁barrier	-10.9464
▁Azad	-10.9464
evertheless	-10.947
▁relatively	-10.947
▁twin	-10.9478
ht	-10.9481
▁Solar	-10.9481
▁Technical	-10.949
▁holiday	-10.949
▁trap	-10.9493
▁adhere	-10.9495
▁Bho	-10.9515
▁Product	-10.9517
▁contemplat	-10.9517
▁module	-10.9517
▁Manager	-10.9517
▁Space	-10.9518
▁End	-10.9518
▁glory	-10.9521
▁neuro	-10.9521
▁jump	-10.9521
▁involve	-10.9527
▁quoted	-10.9529
▁wonderful	-10.9541
▁Citizen	-10.9545
▁Registrar	-10.9545
▁subsidy	-10.9545
▁Transport	-10.9546
▁gathering	-10.9557
▁Oil	-10.9567
▁propose	-10.9571
▁utilised	-10.9572
▁Lucknow	-10.9572
▁pocket	-10.9572
▁tolerance	-10.9572
GA	-10.9573
▁arrow	-10.9573
▁exhibit	-10.9573
▁Rep	-10.9577
▁motive	-10.9577
▁Standards	-10.9578
▁singing	-10.958
▁attractive	-10.9581
▁mandate	-10.9584
▁implie	-10.9587
▁Gopal	-10.9589
LS	-10.959
▁productive	-10.9591
▁Sale	-10.9592
▁compliance	-10.9599
▁imperialism	-10.96
18	-10.9607
▁occupied	-10.9614
▁enhancing	-10.9627
▁livelihood	-10.9627
▁phenomenon	-10.9627
▁determining	-10.9628
▁dictat	-10.9629
▁plea	-10.963
▁savings	-10.963
rif	-10.9631
▁assignment	-10.9634
ference	-10.9637
ough	-10.9639
▁adjustment	-10.9641
▁telling	-10.9651
▁Radio	-10.9652
▁rhythm	-10.9654
▁reputation	-10.9654
▁Sharma	-10.9655
▁aged	-10.9658
▁instant	-10.966
▁confer	-10.9661
▁Himalayan	-10.9663
▁electrical	-10.9664
hrew	-10.9666
▁players	-10.9667
ike	-10.9671
19	-10.9673
▁concluded	-10.9674
TR	-10.9678
▁succession	-10.968
▁operator	-10.9682
▁approximately	-10.9689
chand	-10.9697
▁Highway	-10.9698
▁absolutely	-10.97
▁gang	-10.9706
▁Revenue	-10.9709
▁immovable	-10.9709
▁Village	-10.9709
▁binding	-10.971
▁empowered	-10.9711
▁Kala	-10.9713
fusion	-10.9715
▁temper	-10.9718
tory	-10.972
▁Standard	-10.973
▁prevention	-10.9732
▁Appendix	-10.9737
▁Resolution	-10.9737
▁accommodation	-10.9737
▁Vedas	-10.9742
more	-10.9748
▁insight	-10.975
▁sect	-10.9753
▁manual	-10.9759
ERS	-10.9759
DC	-10.9764
▁intelligent	-10.9765
▁preliminar	-10.9765
▁tight	-10.9768
▁Environmental	-10.9775
▁Shan	-10.9783
▁Hard	-10.9787
elecommunication	-10.9792
▁commerce	-10.9792
▁doctrine	-10.9792
▁Survey	-10.9792
▁revised	-10.9793
▁psychological	-10.9793
▁Agency	-10.9794
ball	-10.9795
▁distant	-10.9796
▁focused	-10.9796
▁emission	-10.9798
▁sake	-10.9798
▁agenda	-10.9798
▁Yu	-10.9805
▁quote	-10.9807
cover	-10.9814
▁Secretariat	-10.982
mount	-10.9821
▁mosque	-10.9821
▁ignored	-10.9821
▁redress	-10.9822
abha	-10.9824
▁involvement	-10.9825
▁conducting	-10.9834
▁Samaj	-10.9838
nthrop	-10.9838
▁Minimum	-10.9848
▁mortgage	-10.9848
▁federal	-10.9848
▁Senior	-10.9848
▁dispens	-10.9849
▁breaking	-10.9849
▁nearby	-10.9852
▁conform	-10.9859
▁Dur	-10.9862
pol	-10.9868
▁Poet	-10.987
tine	-10.9873
▁Constituent	-10.9877
▁abolish	-10.9877
▁exclusively	-10.9877
▁Automatic	-10.9877
▁participants	-10.9877
▁Shr	-10.9882
▁fond	-10.9883
▁provider	-10.9885
▁void	-10.9886
wood	-10.9887
current	-10.9889
▁Subject	-10.9905
▁qualified	-10.9905
▁moderate	-10.9908
17	-10.9908
▁rail	-10.991
▁reign	-10.9913
▁Koran	-10.9914
▁attained	-10.9914
▁Dwarkanath	-10.9933
▁commodity	-10.9933
▁professor	-10.9941
▁missing	-10.9941
▁Term	-10.9953
▁colleagues	-10.9956
▁discovery	-10.996
97	-10.996
▁Patna	-10.996
▁tune	-10.9961
▁Aurobindo	-10.9961
▁Sikkim	-10.9961
▁capabilities	-10.9961
▁Viceroy	-10.9961
▁Museum	-10.9961
▁Estate	-10.9961
▁Design	-10.9961
▁Him	-10.998
▁emphasize	-10.999
▁inferior	-10.999
▁destiny	-10.999
▁imperative	-10.999
▁companion	-10.999
▁44	-10.9991
▁Setting	-10.9995
▁wake	-10.9996
fact	-10.9997
▁Zo	-11.0005
▁manifestation	-11.0011
GC	-11.0017
▁inspire	-11.0018
▁affirm	-11.0018
▁dynasty	-11.0018
▁legitimate	-11.0018
▁wicket	-11.0018
▁Status	-11.0018
▁Audio	-11.0018
▁drought	-11.0019
▁entries	-11.002
▁Level	-11.0022
▁angle	-11.0023
▁accus	-11.0025
▁compell	-11.003
▁UP	-11.0034
▁freely	-11.004
▁realized	-11.0041
▁coat	-11.0042
▁lend	-11.0045
▁Freedom	-11.0047
▁arbitrator	-11.0048
▁Han	-11.0054
field	-11.0055
▁rendering	-11.0058
▁transcend	-11.0065
▁oblig	-11.0069
▁NATIONAL	-11.0075
▁enemies	-11.0075
▁indulg	-11.0076
▁lord	-11.0079
▁Total	-11.0081
▁Basic	-11.0084
rine	-11.0085
▁conception	-11.0087
▁attraction	-11.0098
iga	-11.0099
▁separated	-11.01
▁substitute	-11.0104
▁Chancellor	-11.0104
▁Commerce	-11.0104
▁Integrated	-11.0104
▁boost	-11.0105
▁couldn	-11.0108
▁trick	-11.0111
▁inspect	-11.0116
unction	-11.0117
▁bud	-11.0119
▁restricted	-11.0121
icular	-11.0121
▁attacked	-11.0123
▁Model	-11.0125
mukh	-11.0126
▁Roman	-11.0129
▁personally	-11.013
▁conclude	-11.013
▁separation	-11.0133
▁preparing	-11.0133
▁conquer	-11.0133
▁Ganesh	-11.0134
▁torture	-11.0134
▁storm	-11.0134
▁Move	-11.0137
▁insert	-11.0142
▁blame	-11.0143
▁cup	-11.0146
▁balanced	-11.0146
▁strict	-11.0147
▁mining	-11.015
GE	-11.0151
utonomous	-11.0162
▁Protocol	-11.0162
▁museum	-11.0162
▁drag	-11.0166
ARD	-11.0167
▁Purana	-11.0169
▁allied	-11.0169
▁repealed	-11.0187
escent	-11.0187
▁mud	-11.0188
▁Rabindranath	-11.0191
▁Singles	-11.0191
▁riot	-11.0192
▁weapon	-11.0195
▁Quran	-11.0196
umber	-11.0211
▁Examination	-11.022
▁Radhakrishnan	-11.022
▁Political	-11.022
▁plural	-11.022
▁vice	-11.022
▁vertical	-11.022
▁Call	-11.0224
▁brand	-11.0226
space	-11.0228
▁Care	-11.0234
▁measurement	-11.024
TP	-11.0249
▁Malayalam	-11.0249
▁enlarge	-11.0249
▁mirror	-11.0249
▁pupil	-11.0249
▁33	-11.0251
▁Disable	-11.0253
▁foster	-11.0254
▁MW	-11.0261
PG	-11.0261
▁Net	-11.0264
yog	-11.0264
▁Full	-11.0265
mati	-11.0265
▁avoided	-11.0271
▁monsoon	-11.0278
▁desirable	-11.0278
▁Should	-11.0278
▁anxious	-11.0278
▁insult	-11.028
ATE	-11.0286
▁bought	-11.0288
▁Patel	-11.0295
▁Soon	-11.0295
▁helpful	-11.0296
titude	-11.0296
▁fra	-11.0305
▁Abdullah	-11.0308
▁romantic	-11.0308
▁Spirit	-11.0308
▁Budget	-11.0308
▁abstract	-11.0308
▁signature	-11.031
▁distinguish	-11.0312
▁liberation	-11.0315
▁Lake	-11.0323
▁persist	-11.033
▁arbitra	-11.0332
▁Emperor	-11.0337
▁inevitable	-11.0337
▁Cooperative	-11.0339
▁nice	-11.0341
▁sail	-11.0344
▁deleted	-11.0347
▁Clause	-11.0367
▁Allowance	-11.0369
▁smart	-11.0369
▁manpower	-11.037
▁dominate	-11.037
▁tiny	-11.0371
▁guy	-11.0371
pore	-11.0372
▁dismissed	-11.0391
▁Jai	-11.0395
▁ignore	-11.0396
▁behavior	-11.0396
▁Dharma	-11.0397
▁sport	-11.0403
▁Sankara	-11.0403
ALL	-11.0408
▁Amar	-11.0421
▁negotiat	-11.0424
▁lending	-11.0425
▁Ayurveda	-11.0426
▁Festival	-11.0426
▁Library	-11.0426
▁reservation	-11.0426
▁Invalid	-11.0426
▁Band	-11.0427
▁Tool	-11.0438
▁strip	-11.0441
▁Sch	-11.0448
▁Far	-11.0454
▁controversy	-11.0456
▁kidney	-11.0456
▁adjudicat	-11.0456
▁width	-11.0456
▁paddy	-11.0456
▁cadre	-11.0456
▁Sultan	-11.0456
▁skilled	-11.0458
hook	-11.0459
▁Guard	-11.0459
▁Old	-11.0464
▁wire	-11.0469
▁violat	-11.047
rava	-11.0471
▁approaches	-11.0477
▁NIT	-11.0477
▁Program	-11.048
▁dismiss	-11.0482
▁boot	-11.0482
▁flourish	-11.0485
▁Palestine	-11.0485
▁incomplete	-11.0485
▁scenario	-11.0485
▁supramental	-11.0485
▁philosophical	-11.0486
▁Urban	-11.0486
▁reiterat	-11.0487
▁Ashok	-11.049
▁Ek	-11.0492
▁penis	-11.0495
HAN	-11.0501
kumar	-11.0501
▁eco	-11.0509
▁Pacific	-11.0515
▁Tea	-11.0517
▁clinic	-11.0518
▁pitch	-11.0519
▁frequent	-11.0523
▁gov	-11.0523
▁Kir	-11.0526
lateral	-11.0527
▁humble	-11.053
UD	-11.0533
kka	-11.0536
▁Mill	-11.0537
▁robot	-11.0545
▁Nicobar	-11.0545
▁hatred	-11.0545
▁Install	-11.0545
▁transmitted	-11.0547
▁Mode	-11.0548
▁exposed	-11.0548
hini	-11.0548
▁Turkish	-11.0549
▁Indus	-11.0549
▁Enter	-11.0557
▁presum	-11.0561
▁indirectly	-11.0567
▁initially	-11.0571
▁awaken	-11.0573
▁deploy	-11.0575
▁Yojana	-11.0575
▁delegate	-11.0576
▁indication	-11.0576
▁Link	-11.0576
▁bulk	-11.0577
▁pipe	-11.0585
▁deeper	-11.0588
bound	-11.0596
▁magnetic	-11.0601
▁Low	-11.0605
▁bamboo	-11.0606
▁enthusiasm	-11.0606
▁monument	-11.0606
▁Aryan	-11.0606
▁......	-11.0606
▁collecting	-11.061
assi	-11.061
▁Pop	-11.0616
▁borne	-11.0625
▁celebrate	-11.0627
▁substantially	-11.0628
▁flying	-11.0628
water	-11.063
▁participat	-11.0633
▁Arabia	-11.0634
▁Corporate	-11.0636
▁concrete	-11.0636
▁demonstration	-11.0636
▁neighbor	-11.0636
▁specimen	-11.0636
▁transparency	-11.0636
▁casual	-11.0636
▁Tibet	-11.0636
▁guru	-11.0643
▁anybody	-11.0648
▁exhibition	-11.0665
▁contradict	-11.0666
▁possibly	-11.0666
▁summary	-11.0666
▁Federation	-11.0666
▁utilize	-11.0666
▁accru	-11.0667
▁simultaneously	-11.0674
▁losses	-11.0685
▁Royal	-11.0686
erry	-11.0688
▁Cap	-11.069
▁hydro	-11.0696
▁dedication	-11.0697
▁linguistic	-11.0697
▁Northern	-11.0697
▁contest	-11.0697
▁shout	-11.0698
▁crude	-11.0699
▁Ananda	-11.0699
▁curve	-11.071
▁strive	-11.0711
AND	-11.0713
ander	-11.0717
▁countrymen	-11.072
pac	-11.0724
▁Hamachi	-11.0727
▁persuade	-11.0727
▁acknowledge	-11.0729
▁Cat	-11.073
▁edition	-11.0735
▁fulfilled	-11.0735
IG	-11.0736
pun	-11.0741
▁cooking	-11.0747
▁Spec	-11.0758
▁Upanishad	-11.0758
▁Vietnam	-11.0758
▁divorce	-11.0758
▁pregnant	-11.0758
▁seizure	-11.0758
▁transparent	-11.0758
▁intensity	-11.0758
▁commend	-11.0758
▁fibre	-11.0758
▁crystal	-11.0758
▁patriot	-11.0764
▁mango	-11.0771
▁Menon	-11.0772
▁Whatever	-11.0775
▁Kur	-11.0776
▁sync	-11.0783
▁bore	-11.0787
▁Relat	-11.0787
▁appellate	-11.0789
▁brilliant	-11.0789
▁economies	-11.0789
▁assurance	-11.0789
▁thrust	-11.0789
▁interference	-11.0791
▁transmit	-11.0792
▁recruitment	-11.0793
▁Collector	-11.0796
▁collaborat	-11.0802
▁cord	-11.0805
▁interim	-11.0807
▁tied	-11.0808
▁37	-11.0811
▁mature	-11.0813
▁Jordan	-11.082
▁earthquake	-11.082
▁powder	-11.082
▁prevalent	-11.082
▁uncertain	-11.082
▁Petition	-11.082
▁honor	-11.082
CO	-11.0822
▁offender	-11.0823
roll	-11.0824
rug	-11.0826
▁shortage	-11.0833
▁Kun	-11.0842
▁envisaged	-11.0844
▁anniversary	-11.0851
▁irrespective	-11.0851
▁sensation	-11.0851
▁interfere	-11.0851
▁Terrorism	-11.0852
▁Father	-11.0855
▁favourite	-11.0855
▁accessible	-11.0861
▁strengthened	-11.0861
▁Constitutional	-11.0863
▁treaty	-11.0868
lice	-11.0872
▁revolt	-11.0882
▁smell	-11.0882
▁coloured	-11.0883
▁assessed	-11.0884
▁outward	-11.0899
▁nationalism	-11.09
▁socialist	-11.0902
▁reviv	-11.0907
▁inaugurated	-11.0912
▁Mohammed	-11.0913
▁Territories	-11.0913
▁expensive	-11.0913
▁inflation	-11.0913
▁Price	-11.0914
▁alarm	-11.0914
▁secured	-11.0914
▁discount	-11.0916
sisted	-11.0917
▁considerably	-11.0919
▁coverage	-11.0924
▁withdrawn	-11.0928
▁penal	-11.0929
▁Island	-11.094
▁ease	-11.0941
▁Arunachal	-11.0944
▁Regulator	-11.0944
▁hunger	-11.0944
▁Mobile	-11.0944
▁perceive	-11.0944
▁eighteen	-11.0946
▁Pul	-11.0948
▁Van	-11.096
gree	-11.0961
▁endow	-11.0962
ison	-11.0965
▁Dutt	-11.0965
▁subtle	-11.0967
RM	-11.0968
▁purity	-11.0969
▁fame	-11.0969
▁rob	-11.0975
▁Building	-11.0976
▁Manilal	-11.0976
▁Animal	-11.0976
▁rainfall	-11.0976
▁dawn	-11.0977
▁beetle	-11.0978
osa	-11.0982
▁Hamas	-11.0982
desh	-11.0984
uv	-11.1
▁Iraqi	-11.1003
▁shade	-11.1006
▁Cricket	-11.1007
▁Evolution	-11.1007
▁Territory	-11.1007
▁dissolve	-11.1007
▁phrase	-11.1007
▁voting	-11.1008
▁honey	-11.1008
▁David	-11.1008
economic	-11.101
scope	-11.1011
▁buyer	-11.1016
▁managing	-11.1019
▁Send	-11.1026
▁Sufi	-11.1027
▁Details	-11.1039
▁parasite	-11.1039
▁Den	-11.104
kat	-11.1045
tries	-11.1049
▁clarifi	-11.1052
bble	-11.1054
▁Poly	-11.1059
▁Run	-11.1064
▁psycho	-11.107
▁constituent	-11.107
▁Consider	-11.107
▁Abhi	-11.1074
▁capture	-11.1075
▁odd	-11.1078
EG	-11.1081
▁cm	-11.1083
OUR	-11.1084
DO	-11.1097
▁seller	-11.1098
▁SHRI	-11.1102
▁intensive	-11.1102
▁Tilak	-11.1102
▁reactor	-11.1102
▁Film	-11.1102
▁Delete	-11.1104
▁advancement	-11.1112
▁basically	-11.1113
▁SRI	-11.1114
count	-11.1117
▁lion	-11.1117
opathy	-11.1121
▁lone	-11.1123
▁successor	-11.1132
▁automatic	-11.1133
▁municipal	-11.1134
▁Buddhism	-11.1134
▁Revolution	-11.1134
▁ascertain	-11.1134
▁statistics	-11.1134
▁utility	-11.1134
▁complement	-11.1134
▁formulated	-11.1137
▁Golden	-11.1138
onia	-11.1141
▁indirect	-11.1143
▁plantation	-11.1149
CU	-11.1159
▁challenged	-11.1159
96	-11.1165
▁immortal	-11.1166
▁Recovery	-11.1166
▁interrupt	-11.1166
▁Tribes	-11.1166
▁Within	-11.1171
▁Gold	-11.1172
went	-11.1173
▁NO	-11.1183
▁nearest	-11.1185
▁Jerusalem	-11.1198
▁Journal	-11.1198
▁disagree	-11.1198
▁liabilities	-11.1198
▁surgical	-11.1198
▁NIOS	-11.1198
▁Operation	-11.1199
▁fate	-11.1207
▁Secondary	-11.1208
▁reflection	-11.1215
▁exceptional	-11.1226
▁Commonwealth	-11.123
▁Friend	-11.123
▁acquaint	-11.123
▁condolence	-11.123
▁maturity	-11.123
▁Almast	-11.123
▁retail	-11.123
▁adventure	-11.1232
▁impartial	-11.1233
TT	-11.1234
▁Charter	-11.1235
▁bride	-11.1235
▁significantly	-11.1241
▁explore	-11.1243
▁Lolita	-11.1262
▁fourteen	-11.1262
▁Message	-11.1262
▁bliss	-11.1262
▁chronic	-11.1262
▁comparison	-11.1263
▁Choose	-11.1263
▁queen	-11.1265
▁matches	-11.1266
▁tap	-11.127
▁secur	-11.1271
▁sincere	-11.1276
culture	-11.1277
▁Lakshmi	-11.1295
▁encounter	-11.1295
▁stipulat	-11.1295
▁solemn	-11.1295
▁Housing	-11.1295
▁Success	-11.1295
▁wander	-11.1296
▁drew	-11.1297
lude	-11.1305
▁Conduct	-11.1314
▁disposed	-11.1316
take	-11.1322
▁Digital	-11.1327
▁altogether	-11.1327
▁notwithstanding	-11.1327
▁Shakti	-11.1327
allotted	-11.1328
▁Fig	-11.1329
▁transition	-11.133
▁prize	-11.1331
▁cater	-11.1338
▁instruct	-11.135
▁Ravi	-11.1357
▁Ahmed	-11.1359
▁diabetes	-11.136
▁magistrate	-11.136
▁terrible	-11.136
▁generating	-11.136
▁angry	-11.1361
▁artistic	-11.1364
▁comply	-11.1367
▁crush	-11.1369
▁describ	-11.1372
EF	-11.1372
▁rope	-11.1375
▁resign	-11.1386
▁Extension	-11.1392
▁frequency	-11.1392
▁Kittur	-11.1392
▁episode	-11.1392
rophy	-11.1394
▁biological	-11.1395
▁gender	-11.1397
▁plugin	-11.1397
▁crack	-11.1398
▁oath	-11.1398
rip	-11.1403
▁upset	-11.1413
▁Best	-11.1424
▁Infrastructure	-11.1425
▁Studies	-11.1425
▁Yusuf	-11.1425
▁Object	-11.1425
▁workshop	-11.1425
▁evaluation	-11.1429
▁pilgrimage	-11.1429
▁Word	-11.1431
▁civilisation	-11.1433
▁scr	-11.1446
RY	-11.1456
▁affidavit	-11.1458
▁procedural	-11.1458
▁Teacher	-11.1458
▁Vijay	-11.1459
▁Value	-11.1459
▁Div	-11.146
▁Normal	-11.1461
▁guided	-11.1464
▁Korea	-11.1464
▁Step	-11.1464
▁36	-11.1466
DU	-11.1467
inder	-11.147
▁jute	-11.1472
AF	-11.148
▁inflammation	-11.1491
▁occupy	-11.1491
▁quantities	-11.1491
▁cavity	-11.1491
▁bottle	-11.1491
▁Prize	-11.1491
▁inclusion	-11.1491
▁rival	-11.1493
▁kids	-11.1494
▁regulatory	-11.1497
▁narrative	-11.1498
▁remov	-11.1498
▁Oriya	-11.1498
▁restraint	-11.1502
▁Radha	-11.1506
▁Ur	-11.1512
▁intend	-11.1523
▁Hospital	-11.1524
▁Wikipedia	-11.1524
▁criteria	-11.1524
▁departure	-11.1524
▁GDP	-11.1524
▁unusual	-11.1524
▁advert	-11.1524
▁Leader	-11.1524
▁grammar	-11.1525
▁Hind	-11.1525
▁vein	-11.1525
▁remedi	-11.1527
▁Judiciary	-11.1538
▁hub	-11.1542
▁Chhattisgarh	-11.1557
▁vaccine	-11.1557
▁fortune	-11.1558
▁ISO	-11.156
▁capability	-11.156
▁sword	-11.1561
▁blend	-11.1561
▁scientist	-11.1562
▁apple	-11.1568
▁recovered	-11.1571
▁cum	-11.1574
uz	-11.1589
▁Chalukya	-11.1591
▁Kannada	-11.1591
▁Register	-11.1591
▁coffee	-11.1591
▁militant	-11.1591
▁testimony	-11.1591
▁vexatious	-11.1591
▁coconut	-11.1591
▁Standing	-11.1591
▁hire	-11.1591
▁Image	-11.1592
▁outline	-11.1595
88	-11.1598
ayya	-11.1598
OD	-11.1601
▁Processing	-11.1602
▁Station	-11.1603
type	-11.1614
scribed	-11.1616
▁controlling	-11.1624
▁dominant	-11.1624
▁ascetic	-11.1624
▁rescue	-11.1625
▁trait	-11.1627
▁combine	-11.1629
▁entrepreneur	-11.1629
▁RTI	-11.1633
▁administered	-11.1639
▁Color	-11.1642
veda	-11.1645
oldest	-11.165
SD	-11.1656
▁Singapore	-11.1658
▁PDF	-11.1658
▁Period	-11.1658
▁worst	-11.1658
▁Egyptian	-11.166
▁translate	-11.1664
▁Phil	-11.1664
▁continuously	-11.167
therapy	-11.1672
▁validity	-11.1676
▁fallen	-11.168
▁eliminate	-11.1688
▁Shiv	-11.1689
▁phenomena	-11.1691
▁philosopher	-11.1691
▁instinct	-11.1691
▁Staff	-11.1691
▁confusion	-11.1694
▁Consultation	-11.1696
▁classification	-11.1697
▁midst	-11.1701
pathy	-11.1708
▁Birth	-11.1711
▁hindi	-11.1718
▁initiat	-11.1722
RD	-11.1724
▁Property	-11.1725
▁exposure	-11.1725
▁substantive	-11.1725
▁Contact	-11.1725
▁conceal	-11.1725
▁negotiations	-11.1727
▁Rajput	-11.1729
▁rupee	-11.1734
▁Kanpur	-11.1736
▁painful	-11.1738
-20	-11.1745
spread	-11.1751
elec	-11.1758
▁volunteer	-11.1759
▁carrier	-11.1759
ette	-11.176
▁disturbance	-11.1763
▁Amount	-11.1786
▁aesthetic	-11.1793
▁disadvantage	-11.1793
▁Summit	-11.1793
▁dowry	-11.1793
▁Return	-11.1793
▁Prior	-11.1793
▁agitation	-11.1793
▁flesh	-11.1793
▁Garden	-11.1794
shak	-11.1796
▁rarely	-11.1797
▁restrict	-11.1798
▁Socialist	-11.1798
▁classified	-11.18
▁limb	-11.1801
▁factories	-11.1807
akshi	-11.1809
EST	-11.181
▁meters	-11.1817
▁stake	-11.1819
▁specialist	-11.182
chang	-11.1826
▁nominee	-11.1827
▁intestine	-11.1827
▁convenient	-11.1828
▁constructive	-11.1831
▁Fee	-11.1838
▁threatened	-11.1842
▁Along	-11.1844
▁journalist	-11.1851
▁Grievance	-11.1861
▁YouTube	-11.1861
▁worldwide	-11.1861
▁absent	-11.1862
▁Front	-11.1862
▁steam	-11.1862
▁degrad	-11.1863
▁creed	-11.1863
▁Large	-11.1863
▁flora	-11.1864
▁Tender	-11.187
▁Charge	-11.1871
▁Mount	-11.1871
▁Gang	-11.1893
▁invested	-11.1895
▁requisite	-11.1896
▁delicate	-11.1896
▁Cross	-11.1896
▁Tripura	-11.1898
▁disclosure	-11.1898
▁shore	-11.19
▁imitat	-11.1908
▁dual	-11.191
▁Moon	-11.1911
▁passes	-11.1912
cellular	-11.192
▁deficiency	-11.193
▁denominator	-11.193
▁ministry	-11.193
▁HIV	-11.193
▁auction	-11.1931
▁tackle	-11.1931
patri	-11.1932
▁Come	-11.1933
▁empowerment	-11.1936
▁loud	-11.1938
ett	-11.1949
▁gran	-11.195
▁shame	-11.1951
▁cable	-11.1952
▁characteriz	-11.196
▁worried	-11.1965
▁insured	-11.1966
▁seminar	-11.1966
trop	-11.1969
▁authorized	-11.1975
▁confirmed	-11.1978
▁taxation	-11.198
iety	-11.1999
▁Community	-11.2
▁Inspector	-11.2
▁investigate	-11.2
pons	-11.2
▁hypo	-11.2
▁arrange	-11.2
▁Continu	-11.2
▁Person	-11.2005
▁jointly	-11.2007
▁34	-11.2008
▁seal	-11.2008
▁Had	-11.2013
▁everyday	-11.2014
gir	-11.2018
▁Write	-11.2022
▁dose	-11.2025
▁successive	-11.203
Sarojini	-11.2034
▁Chandigarh	-11.2034
▁Vivekananda	-11.2034
▁disabilities	-11.2034
▁goodwill	-11.2034
▁parameters	-11.2034
▁contend	-11.2035
▁connectivity	-11.2036
▁Notice	-11.204
how	-11.2044
▁Grand	-11.2048
▁preserv	-11.2052
▁corrupt	-11.206
▁Allow	-11.2066
▁Very	-11.2068
▁buffalo	-11.2069
▁injustice	-11.2069
▁medicinal	-11.2069
▁Church	-11.2069
▁chairman	-11.2074
RAM	-11.2075
▁spare	-11.2084
▁Puri	-11.2092
▁deny	-11.2093
▁Lab	-11.2099
▁Develop	-11.21
▁cruel	-11.2103
▁MUKHERJEE	-11.2104
▁physician	-11.2104
▁vulnerable	-11.2104
▁electoral	-11.2104
▁Clear	-11.2105
▁cinema	-11.2105
▁persistent	-11.2109
▁Deva	-11.211
▁mouse	-11.211
▁offline	-11.212
▁lowest	-11.2121
▁Preet	-11.2123
▁exemption	-11.2123
▁exit	-11.2127
▁Dhan	-11.213
▁Literature	-11.214
▁Settlement	-11.214
▁Vaishnava	-11.214
▁opponent	-11.214
▁embryo	-11.2141
▁vagina	-11.2141
▁pose	-11.2148
DB	-11.2149
▁Find	-11.2151
▁traders	-11.2158
▁Actual	-11.2172
krishna	-11.2174
▁Hanuman	-11.2175
▁impulse	-11.2175
▁Certain	-11.2175
▁relax	-11.2175
▁Mysore	-11.2175
▁resolved	-11.2177
▁decay	-11.2177
singh	-11.2182
▁Place	-11.2183
▁welcomed	-11.2189
▁participated	-11.2195
▁hate	-11.2198
▁argued	-11.2204
▁75	-11.2204
▁practis	-11.2206
▁promised	-11.2207
cut	-11.2209
▁purely	-11.2209
▁surplus	-11.221
▁survival	-11.221
▁ceiling	-11.221
swami	-11.2213
▁donation	-11.2222
TC	-11.2226
▁revival	-11.223
▁enquir	-11.2233
▁Farm	-11.2239
▁germ	-11.2241
▁Democratic	-11.2246
▁Implementation	-11.2246
▁Peace	-11.2246
▁laboratory	-11.2246
▁invitation	-11.2246
mulating	-11.2252
▁indian	-11.2258
▁assign	-11.2259
▁mutually	-11.226
▁Kat	-11.2261
berg	-11.2262
▁visitors	-11.2262
maker	-11.2263
▁Bhatt	-11.2266
▁45	-11.2267
▁liver	-11.227
▁vest	-11.2278
▁definitely	-11.228
IES	-11.228
▁alphabet	-11.2282
▁confess	-11.2282
▁glacier	-11.2282
▁emperor	-11.2282
▁Indonesia	-11.2282
▁random	-11.2283
NF	-11.2283
▁Stock	-11.2287
▁cough	-11.2288
nfortunately	-11.2288
divided	-11.2292
▁Pun	-11.2302
▁assumption	-11.2318
▁Ghosh	-11.2318
▁proxy	-11.2318
▁disburs	-11.2318
▁coordinate	-11.2318
▁marble	-11.232
▁spray	-11.232
shah	-11.2321
▁Tak	-11.2323
▁inaugurate	-11.2324
▁Sang	-11.2325
▁realistic	-11.2326
▁calculation	-11.2327
▁Production	-11.2334
▁accountability	-11.2339
▁owe	-11.2349
▁Assistance	-11.2354
▁equipped	-11.2354
▁Dispute	-11.2354
▁eradicat	-11.2354
▁Govind	-11.2354
▁monkey	-11.2354
▁tired	-11.2355
▁Veer	-11.2358
▁frontier	-11.2358
▁Gaza	-11.236
URE	-11.236
▁lotus	-11.2362
ometer	-11.2366
▁congratulated	-11.237
▁assure	-11.2373
▁justified	-11.2374
▁viable	-11.2374
kali	-11.2378
giri	-11.2379
▁recruit	-11.2385
▁overwhelm	-11.239
▁Would	-11.239
▁dissolution	-11.239
▁jihad	-11.239
saheb	-11.239
▁implications	-11.2391
▁ranging	-11.2396
▁argue	-11.2397
▁finish	-11.2408
▁coastal	-11.242
▁sovereign	-11.2424
▁kitchen	-11.2426
▁poultry	-11.2426
▁tragedy	-11.2426
▁computation	-11.2426
▁requiring	-11.2426
▁levy	-11.2427
▁XX	-11.2429
▁urine	-11.2429
▁investor	-11.2429
▁Brahmo	-11.243
▁reliable	-11.2441
▁Pores	-11.2444
▁Abu	-11.2453
▁liberat	-11.2455
▁Jinnah	-11.2462
▁nutrient	-11.2462
▁reception	-11.2462
▁isolated	-11.2463
▁globe	-11.2466
▁boundaries	-11.2466
▁derive	-11.2471
▁marine	-11.2472
urban	-11.2475
power	-11.2475
ITY	-11.2479
▁practically	-11.2481
MC	-11.2486
▁erect	-11.2486
▁misuse	-11.2487
▁enjoyment	-11.249
▁Effect	-11.2499
▁communist	-11.2499
▁Folder	-11.2499
▁correspondence	-11.2501
▁impressive	-11.2505
udge	-11.251
organisation	-11.2515
IAL	-11.2521
▁devise	-11.2529
▁weaken	-11.2532
▁manuscript	-11.2535
▁quarrel	-11.2535
▁recipient	-11.2535
▁supplies	-11.2535
▁imposition	-11.2536
▁pleasant	-11.2536
▁Deccan	-11.2536
▁Express	-11.2538
▁proposition	-11.2539
▁hatch	-11.2539
▁construct	-11.2541
▁hardship	-11.2547
flies	-11.2549
▁dense	-11.255
▁Advisory	-11.2572
▁glorious	-11.2572
▁plenty	-11.2572
▁tobacco	-11.2572
▁triumph	-11.2572
▁analyse	-11.2573
▁pilot	-11.2574
▁Various	-11.2574
FF	-11.2577
▁carved	-11.2577
▁auditor	-11.258
▁lapse	-11.2583
▁cement	-11.2594
▁advent	-11.2607
▁Maximum	-11.2609
▁Uttarakhand	-11.2609
▁depreciation	-11.2609
▁literally	-11.2609
▁Claim	-11.2609
▁Ahmedabad	-11.261
▁denial	-11.261
sociat	-11.261
▁Leave	-11.2612
▁occurring	-11.2613
▁correspond	-11.2625
▁administer	-11.2629
▁Medi	-11.263
▁Surya	-11.2632
▁homo	-11.2632
▁Sama	-11.2636
▁pillar	-11.264
▁jungle	-11.2646
▁legacy	-11.2646
▁Guidelines	-11.2646
▁imposing	-11.2646
▁Jaipur	-11.2648
▁zeal	-11.2649
▁somewhere	-11.2653
▁throat	-11.266
UM	-11.2677
▁boil	-11.2678
▁vessel	-11.2678
▁orthodox	-11.268
▁hut	-11.2681
▁Remember	-11.2683
▁advertisement	-11.2683
▁debenture	-11.2683
▁supervision	-11.2683
▁battery	-11.2683
▁sixteen	-11.2683
▁afternoon	-11.2683
▁diplomatic	-11.2684
▁batch	-11.2687
▁Left	-11.269
ORE	-11.2693
▁tenure	-11.2701
▁sponsored	-11.2718
▁apparently	-11.272
▁Nagaland	-11.2721
▁ethical	-11.2721
▁Till	-11.2722
▁speaker	-11.2727
▁weigh	-11.2732
▁Mc	-11.2734
▁Nanala	-11.2742
▁Anand	-11.2746
JP	-11.2749
keeper	-11.2755
▁Beg	-11.2757
▁fig	-11.2758
▁Consequent	-11.2758
▁possibilities	-11.2758
▁Student	-11.2758
▁handicraft	-11.2758
▁occurrence	-11.2758
▁spouse	-11.2758
▁meaningful	-11.276
▁larva	-11.276
▁complainant	-11.277
▁thoroughly	-11.2773
tmost	-11.2774
box	-11.2795
▁circum	-11.2796
▁ideology	-11.2796
▁supra	-11.2798
▁popularity	-11.28
▁envisage	-11.2804
▁mala	-11.2811
▁Madhu	-11.2814
▁Himalaya	-11.2819
▁warn	-11.2821
▁threaten	-11.2823
determin	-11.2829
plica	-11.2833
▁nursing	-11.2833
▁modest	-11.2839
▁Mary	-11.2844
▁passive	-11.2855
five	-11.287
▁Petroleum	-11.2871
▁circulation	-11.2871
▁steady	-11.2871
▁Excise	-11.2871
▁Street	-11.2871
▁grateful	-11.2871
▁qualify	-11.2871
▁Saving	-11.2872
▁blessing	-11.2872
phone	-11.2873
ENCE	-11.2873
▁gather	-11.2878
gress	-11.2886
kot	-11.2888
▁deem	-11.2891
▁Eight	-11.2891
▁Allah	-11.2901
▁singer	-11.2901
▁assent	-11.2902
losing	-11.2903
▁laboratories	-11.2909
▁strategies	-11.2909
▁Religion	-11.2909
▁Yamuna	-11.2909
▁Nokia	-11.2909
▁sperm	-11.291
▁fraud	-11.2911
▁sovereignty	-11.2911
▁verification	-11.2912
▁crown	-11.2912
▁Dec	-11.2916
▁rod	-11.2921
CD	-11.2923
▁prima	-11.2923
▁debit	-11.2924
▁secretary	-11.2929
▁larvae	-11.2931
▁Range	-11.2931
lick	-11.2943
▁maxim	-11.2944
▁acknowledged	-11.2946
▁Arbitration	-11.2947
▁accelerate	-11.2947
▁cabinet	-11.2947
▁unfair	-11.2947
▁grasp	-11.2948
▁Progress	-11.2948
▁Cooperation	-11.2949
▁emergence	-11.2949
▁guardian	-11.2951
▁append	-11.2953
▁flash	-11.2954
▁refugees	-11.2958
▁Mangal	-11.2959
▁underlying	-11.296
ectomy	-11.2962
▁declined	-11.2963
▁deepen	-11.2969
▁Deep	-11.2975
▁bush	-11.2977
▁Burma	-11.2977
▁Gandharva	-11.2986
▁dioxide	-11.2986
▁scrutiny	-11.2986
▁identical	-11.2986
▁vague	-11.2986
▁copper	-11.2986
▁eager	-11.2986
▁sweat	-11.2988
89	-11.2995
gupta	-11.2997
▁bunch	-11.3
▁inaugura	-11.3018
▁captured	-11.3021
▁exclusion	-11.3024
▁lymph	-11.3024
▁Equal	-11.3025
▁prescribe	-11.3035
▁startup	-11.3042
▁Australian	-11.3054
ARY	-11.3059
▁Communist	-11.3063
▁conspiracy	-11.3063
▁nurture	-11.3063
▁abolition	-11.3063
▁ordinarily	-11.3063
▁Never	-11.3075
uddin	-11.3075
▁electro	-11.3075
wear	-11.3076
▁originate	-11.3077
▁irregular	-11.3102
▁obstacle	-11.3102
▁relevance	-11.3102
▁structural	-11.3102
▁territorial	-11.3102
▁Zealand	-11.3102
▁babies	-11.3102
▁grief	-11.3102
▁Initial	-11.3102
▁PART	-11.3102
▁stroke	-11.3103
▁relate	-11.3106
pada	-11.3108
▁fatal	-11.3109
▁Khadi	-11.312
▁initiate	-11.3131
▁Put	-11.3132
▁zoo	-11.3138
▁Convocation	-11.314
▁Mauritius	-11.314
▁surprising	-11.314
▁Physical	-11.314
▁humour	-11.314
▁beloved	-11.3141
▁bodily	-11.3141
▁regret	-11.3141
▁Source	-11.3141
▁cosmic	-11.3141
▁labourers	-11.3142
IRDA	-11.3143
▁brick	-11.3145
▁dread	-11.3146
▁Governorate	-11.317
▁kilogram	-11.318
▁Remove	-11.318
▁deciding	-11.318
▁fiscal	-11.318
▁Course	-11.318
▁Draft	-11.318
▁Task	-11.3181
▁Sports	-11.3181
▁infected	-11.3181
▁surprised	-11.3186
▁relieve	-11.3195
NU	-11.321
▁endorse	-11.3216
▁Mizoram	-11.3219
▁Universal	-11.3219
▁jewellery	-11.3219
▁utilization	-11.3219
▁valuation	-11.3219
▁decorated	-11.3219
▁density	-11.3219
▁mitigat	-11.3219
▁conscience	-11.322
▁disciplinary	-11.3221
▁pursuance	-11.3224
▁convict	-11.3225
▁bowler	-11.3226
▁comfortable	-11.3228
▁seventy	-11.3234
▁strictly	-11.325
eptic	-11.3257
▁illumin	-11.3259
▁inscription	-11.3259
▁analog	-11.326
▁verified	-11.3261
▁hostile	-11.3265
▁James	-11.3267
▁evaluate	-11.3273
plasm	-11.3281
▁nomination	-11.3283
▁Fair	-11.3286
▁Jharkhand	-11.3298
▁molecule	-11.3298
▁assault	-11.3298
▁quantum	-11.3298
▁AIDS	-11.3298
▁dozen	-11.3298
▁distort	-11.33
ATED	-11.33
▁assemble	-11.3301
▁Reference	-11.3303
▁somehow	-11.3307
▁Premchand	-11.3312
▁favourable	-11.3327
▁pilgrim	-11.3332
▁Safety	-11.3337
▁Vajpayee	-11.3337
▁intuitive	-11.3337
▁Disease	-11.3337
▁invention	-11.3338
▁Manik	-11.3343
▁Navy	-11.3344
chrom	-11.3344
▁seized	-11.3345
▁Device	-11.3345
▁Tata	-11.3353
▁patch	-11.3359
▁Mail	-11.3363
▁Puran	-11.3364
▁Block	-11.3365
▁Letter	-11.3369
▁dialog	-11.3377
▁certifi	-11.3377
▁BIHAR	-11.3377
▁Emergency	-11.3377
▁inadequate	-11.3377
▁unexpected	-11.3377
▁caution	-11.3377
▁Website	-11.3377
▁Meeting	-11.3377
▁modify	-11.3378
▁Club	-11.3378
▁expectations	-11.338
▁dig	-11.3382
▁FDI	-11.3388
▁interven	-11.3389
▁Hor	-11.3396
ATAL	-11.3399
▁economically	-11.3408
▁hop	-11.3417
▁excavat	-11.3417
▁ambition	-11.3417
▁Improv	-11.3418
▁Rajendra	-11.342
▁quest	-11.3421
▁repayment	-11.3426
▁deprived	-11.3428
▁dist	-11.3429
▁cultivated	-11.3433
▁dying	-11.3434
▁cub	-11.3435
▁restriction	-11.344
iyar	-11.3443
▁assistant	-11.3443
▁Max	-11.3446
▁makers	-11.3454
▁LINK	-11.3457
▁Microsoft	-11.3457
▁Ordinance	-11.3457
▁prestige	-11.3457
▁historian	-11.3457
▁racial	-11.3458
▁flame	-11.3458
ANAB	-11.346
▁birthday	-11.3462
▁tales	-11.3464
▁announcement	-11.3465
▁evolve	-11.3469
▁boundary	-11.3476
▁demonstrated	-11.3485
▁Culture	-11.3498
▁puppet	-11.3498
▁Remote	-11.3498
▁SELECT	-11.3498
▁Thomas	-11.3498
▁fetch	-11.3498
▁verbal	-11.35
▁readily	-11.3501
▁mask	-11.3503
▁ninety	-11.3505
▁Bond	-11.3509
loka	-11.3533
OT	-11.3534
COM	-11.3534
▁Forward	-11.3538
FS	-11.3538
▁Amritsar	-11.3538
▁Declaration	-11.3538
▁vibrant	-11.3538
▁Chemical	-11.3538
▁Primary	-11.3538
▁striking	-11.3538
▁trunk	-11.3538
▁reproduce	-11.3538
▁scriptures	-11.3538
▁Mountain	-11.3539
▁Try	-11.3539
▁harness	-11.354
▁throne	-11.354
AGE	-11.3541
▁pole	-11.3543
▁Function	-11.3544
▁Nobel	-11.3548
▁entertainment	-11.355
▁Saint	-11.355
▁realization	-11.3553
▁Jagannatha	-11.3558
where	-11.3564
▁refuge	-11.3568
▁Selection	-11.3576
▁Relations	-11.3578
disqualification	-11.3579
▁sanitation	-11.3579
▁Pipes	-11.3579
▁warrior	-11.3579
▁Always	-11.3579
▁concert	-11.3579
▁Wealth	-11.358
▁sorry	-11.358
▁delta	-11.358
▁Neuro	-11.3586
▁leap	-11.3589
▁Maj	-11.3594
▁exempt	-11.3598
door	-11.3613
▁Democracy	-11.362
▁Template	-11.362
▁intercourse	-11.362
▁subsidiary	-11.362
▁improper	-11.362
▁collapse	-11.362
▁Goddess	-11.362
▁portray	-11.3621
▁macro	-11.3621
▁worshipped	-11.3623
▁closing	-11.3623
▁Meher	-11.3629
structure	-11.364
▁DAC	-11.3641
▁Varma	-11.3656
▁Belarus	-11.3661
▁worn	-11.3661
▁Chakra	-11.3661
▁Desai	-11.3661
▁await	-11.3661
▁manipulat	-11.3661
▁passport	-11.3663
RES	-11.3666
rtha	-11.3668
▁crash	-11.3669
▁plum	-11.3678
▁Host	-11.3689
▁SIDBI	-11.3702
▁immunity	-11.3702
▁imperfect	-11.3702
▁permissible	-11.3702
▁spectrum	-11.3702
▁ethnic	-11.3702
▁leather	-11.3702
▁Presidency	-11.3702
▁dropped	-11.3704
▁utilisation	-11.3707
▁trustee	-11.3715
gradation	-11.3732
▁Purusha	-11.3743
▁introducing	-11.3743
▁misconduct	-11.3743
▁dairy	-11.3743
▁Server	-11.3743
▁prophet	-11.3744
▁robust	-11.3744
▁Mall	-11.3747
pelled	-11.375
▁varies	-11.3766
duced	-11.3773
▁Consolidat	-11.3785
▁miracle	-11.3785
▁Southern	-11.3785
▁church	-11.3785
▁afterwards	-11.3786
▁optimis	-11.3787
▁Factor	-11.3788
▁reconstruction	-11.3788
▁combat	-11.3788
▁resignation	-11.3794
▁execute	-11.3798
▁flee	-11.3802
▁coach	-11.382
▁nematode	-11.3826
▁remuneration	-11.3826
▁unconscious	-11.3826
▁wildlife	-11.3826
▁County	-11.3826
▁loving	-11.3826
▁spark	-11.3827
ogenic	-11.3828
▁arbitrary	-11.383
▁issuing	-11.383
▁rubber	-11.3844
▁echo	-11.3863
assembl	-11.3864
▁Original	-11.3868
▁meditation	-11.3868
▁Study	-11.3868
▁Tourism	-11.3868
▁orientation	-11.3868
▁Close	-11.387
▁arose	-11.3872
▁Phase	-11.3873
▁stir	-11.3883
▁recess	-11.3884
QU	-11.3886
▁occasionally	-11.389
▁symbolic	-11.3892
▁Vaish	-11.3893
▁ATM	-11.3895
▁constru	-11.3908
▁Partnership	-11.391
▁conservative	-11.391
▁grassroots	-11.391
▁carriage	-11.391
▁Dominion	-11.391
▁grey	-11.391
▁basket	-11.3911
77	-11.3912
▁shortcut	-11.3912
▁giant	-11.3913
ullah	-11.3918
▁confused	-11.3922
▁affordable	-11.3927
LT	-11.3928
▁medieval	-11.3952
▁Kalam	-11.3952
▁frank	-11.3953
AYEE	-11.3953
▁Body	-11.396
▁demonstrate	-11.3965
▁curse	-11.3979
▁accompany	-11.3995
▁diminish	-11.3995
▁Jubilee	-11.3995
▁flexible	-11.3995
▁indicating	-11.3995
▁vacancies	-11.3995
▁indicator	-11.3995
▁VAJ	-11.3999
▁conven	-11.4021
▁Kolhatkar	-11.4037
▁Securities	-11.4037
▁Resident	-11.4037
▁Ramalinga	-11.4037
▁SPEECHES	-11.4038
▁alliance	-11.4038
▁retreat	-11.4038
▁patriotism	-11.4042
▁alert	-11.4043
▁preservation	-11.4045
▁highway	-11.4061
kash	-11.4067
▁chose	-11.4073
▁loyal	-11.4079
▁assimilat	-11.408
▁Prosecutor	-11.408
▁mathematics	-11.408
▁psychic	-11.408
▁unnecessary	-11.408
▁comparatively	-11.408
▁Double	-11.408
▁Raghu	-11.408
▁Demand	-11.408
▁termination	-11.408
▁horizontal	-11.4081
▁Kaur	-11.4081
▁grid	-11.4086
entrepreneurship	-11.4086
▁layout	-11.4087
▁attendance	-11.4092
▁incidental	-11.4094
▁uphold	-11.4094
esvara	-11.4096
▁faithful	-11.4103
LY	-11.4103
▁garb	-11.4107
▁lust	-11.4112
DG	-11.4116
▁jaw	-11.4118
▁Brazil	-11.4123
▁Unicode	-11.4123
▁hungry	-11.4123
▁hybrid	-11.4123
▁innovators	-11.4123
▁prosperous	-11.4123
▁vigorous	-11.4123
▁Ravana	-11.4123
hearted	-11.4126
▁Latin	-11.4137
▁Still	-11.414
▁Chair	-11.4141
▁panic	-11.4155
▁facilitating	-11.4166
▁predominant	-11.4166
▁uterus	-11.4166
▁Finland	-11.4166
▁injuries	-11.4166
▁framing	-11.4166
▁HOST	-11.4166
▁altitude	-11.4167
▁Harijan	-11.4168
▁Crown	-11.4168
▁Ze	-11.4171
▁Electricity	-11.4172
▁Italy	-11.4177
▁hereby	-11.4181
▁Farid	-11.4182
plication	-11.4196
system	-11.4199
▁Parsi	-11.4205
▁transplant	-11.4209
▁Portuguese	-11.4209
▁misbehaviour	-11.4209
▁threshold	-11.4209
▁smoking	-11.4209
▁Chamber	-11.4209
▁generous	-11.4209
▁Clean	-11.4209
▁minorities	-11.4215
▁Matter	-11.4227
▁Profit	-11.4237
▁Betwee	-11.4253
▁Bezbar	-11.4253
▁configure	-11.4253
▁ignorant	-11.4253
▁magnitude	-11.4253
▁depression	-11.4253
▁illusion	-11.4253
▁tragic	-11.4253
▁Blue	-11.4253
▁swelling	-11.4254
▁resume	-11.4257
LC	-11.4259
▁clever	-11.4262
78	-11.4263
ocyte	-11.4271
▁clay	-11.4274
Tax	-11.429
ESS	-11.429
▁Different	-11.4296
▁Attorney	-11.4296
▁Meghalaya	-11.4296
▁regulating	-11.4296
▁dialect	-11.4296
▁uplift	-11.4296
▁jewel	-11.4298
▁deteriorat	-11.43
▁civilian	-11.4312
▁Motion	-11.4316
▁clearance	-11.4328
▁login	-11.4328
capacity	-11.4335
▁Quit	-11.4337
▁Secret	-11.4338
▁Country	-11.434
▁equitable	-11.434
▁forgotten	-11.434
▁propaganda	-11.434
▁cherish	-11.434
▁nourish	-11.434
▁patience	-11.434
▁rigid	-11.4341
▁culminat	-11.4342
▁vivid	-11.4342
▁Fire	-11.4343
▁vide	-11.4368
▁Arya	-11.437
▁lips	-11.4375
▁Promot	-11.4377
▁adjourn	-11.4384
▁renewable	-11.4384
▁spontaneous	-11.4384
▁cartoon	-11.4384
▁rabbit	-11.4384
▁Robert	-11.4384
▁magnificent	-11.4385
▁Siddha	-11.4386
▁Assamese	-11.4386
▁attainment	-11.4409
▁pale	-11.4411
▁Arabian	-11.4411
▁Stop	-11.4413
▁lime	-11.4423
▁soldier	-11.4424
▁PRESENT	-11.4429
examining	-11.4429
▁exponent	-11.4429
▁shoes	-11.4429
▁neighbourhood	-11.443
▁entities	-11.443
▁Know	-11.4431
▁Milk	-11.4431
▁gear	-11.4432
MD	-11.4434
▁underground	-11.4439
person	-11.444
▁sensor	-11.4442
▁Engine	-11.4473
▁Saraswati	-11.4473
▁Societies	-11.4473
▁abundant	-11.4473
▁aggressive	-11.4473
▁Pallava	-11.4473
▁premier	-11.4473
▁statue	-11.4473
▁Hydro	-11.4474
▁certification	-11.4474
▁Bhopal	-11.4474
▁sketch	-11.4474
▁quit	-11.4475
▁Distribution	-11.4477
▁Medium	-11.4477
▁fancy	-11.4488
BU	-11.4507
▁Collect	-11.4508
▁Limit	-11.4517
▁knock	-11.4518
▁Nagpur	-11.4518
▁annex	-11.4518
▁proclaim	-11.4521
▁lens	-11.4521
▁terminate	-11.4522
▁chill	-11.4539
▁hoc	-11.4539
▁Town	-11.4545
▁Lock	-11.4549
▁Hindustan	-11.4554
▁yes	-11.4558
▁consensus	-11.4562
▁serpent	-11.4562
▁synthesis	-11.4562
▁measuring	-11.4563
▁warfare	-11.4563
▁Bhakti	-11.4563
▁alternate	-11.4563
▁disrupt	-11.4563
▁multiplication	-11.4563
▁Coast	-11.4564
▁shipping	-11.4567
▁surge	-11.4571
▁earnest	-11.4572
▁burnt	-11.4585
▁Panel	-11.459
ghat	-11.4607
▁Bhavabhuti	-11.4608
▁Memorial	-11.4608
▁Telephone	-11.4608
▁petroleum	-11.4608
▁freight	-11.4608
▁DVD	-11.4608
▁Rub	-11.4608
▁monk	-11.4609
vya	-11.461
▁Tab	-11.462
▁Kum	-11.4631
word	-11.4642
FR	-11.4646
omitted	-11.4651
▁Satyagraha	-11.4653
▁Unknown	-11.4653
▁NHS	-11.4653
▁amazing	-11.4653
▁Balarama	-11.4653
▁Spain	-11.4655
▁turnover	-11.4657
▁Joshi	-11.4658
CCI	-11.4658
▁elementary	-11.4668
▁brush	-11.467
▁Plate	-11.4681
▁affair	-11.4697
▁Afghan	-11.4698
nonymity	-11.4698
▁Canadian	-11.4698
▁dictionary	-11.4698
▁numerator	-11.4698
▁supplier	-11.4698
▁chicken	-11.4698
▁dividing	-11.4698
▁Witness	-11.4698
▁twist	-11.4698
▁2012	-11.4701
▁serial	-11.4701
▁coordination	-11.4705
darshan	-11.4705
▁confine	-11.4716
▁Jack	-11.4728
▁Pap	-11.4728
▁Katha	-11.4737
▁HTML	-11.4744
▁Practice	-11.4744
▁injunction	-11.4744
▁pendency	-11.4744
▁burst	-11.4745
▁Track	-11.4749
▁compact	-11.4749
▁Everyone	-11.4749
▁confidential	-11.4751
▁URI	-11.4761
▁justification	-11.4765
ANT	-11.477
▁Nazi	-11.4771
▁Music	-11.4771
▁rub	-11.4779
▁Jail	-11.478
▁Team	-11.4789
▁Download	-11.479
▁beneficiaries	-11.479
▁capacities	-11.479
▁landscape	-11.479
▁heavily	-11.479
▁Nizam	-11.479
▁Rammoh	-11.479
▁betray	-11.4792
DL	-11.4795
TED	-11.48
▁onwards	-11.4801
▁cache	-11.4821
▁fruitful	-11.4823
▁chip	-11.4825
▁Electric	-11.483
▁Vidyasagar	-11.4836
▁Vrindavan	-11.4836
▁auspicious	-11.4836
▁furniture	-11.4836
▁solving	-11.4836
▁endanger	-11.4836
▁frustrat	-11.4836
▁Attach	-11.4836
▁Italian	-11.4836
▁Sinha	-11.4837
▁Mahabharat	-11.4838
▁vegetable	-11.4838
proving	-11.4839
▁Title	-11.4839
▁Anglo	-11.4839
▁orange	-11.4843
▁upgradation	-11.4847
▁bias	-11.486
▁shake	-11.4877
▁horizon	-11.4881
▁leprosy	-11.4882
▁stimulate	-11.4882
▁unemployment	-11.4882
▁Odisha	-11.4882
▁wool	-11.4883
▁Update	-11.4883
▁hint	-11.4886
▁citizenship	-11.4887
location	-11.4892
▁grip	-11.4892
General	-11.4894
scribe	-11.4903
burg	-11.4904
wore	-11.491
▁Christianity	-11.4912
▁Ayodhya	-11.4929
▁fracture	-11.4929
▁acquiring	-11.4929
▁trigger	-11.4929
▁detention	-11.4929
▁inflict	-11.4929
▁blessed	-11.493
▁END	-11.494
▁Sundar	-11.4942
▁Khu	-11.4946
▁Hindustani	-11.4948
▁execut	-11.4951
operation	-11.4951
▁Jati	-11.4963
ILL	-11.4964
ANCE	-11.4968
▁Chromium	-11.4975
▁provincial	-11.4975
▁velocity	-11.4975
▁Screen	-11.4975
▁unjust	-11.4975
▁postpone	-11.4976
▁specializ	-11.4979
▁Qatar	-11.4979
bhadra	-11.4981
▁Shastri	-11.4985
▁idle	-11.4987
▁Medal	-11.4991
▁Assessment	-11.4996
▁behave	-11.5001
▁Ashram	-11.5006
▁verify	-11.5021
▁grandfather	-11.5022
▁suspension	-11.5022
▁gesture	-11.5022
▁sweep	-11.5022
▁Email	-11.5022
▁array	-11.5023
▁excuse	-11.5024
▁exaggerat	-11.507
▁Scientific	-11.507
▁curriculum	-11.507
▁deliberations	-11.507
▁elevation	-11.507
▁excitement	-11.507
▁expeditious	-11.507
▁exploration	-11.507
▁reproduction	-11.507
▁unprecedented	-11.507
▁Maharshi	-11.507
▁Field	-11.507
▁petty	-11.5074
▁garment	-11.5075
▁stating	-11.5078
▁lump	-11.508
▁musician	-11.5081
▁NRI	-11.5093
HAR	-11.5106
79	-11.5112
▁exercising	-11.5117
▁innumerable	-11.5117
▁intermediate	-11.5117
▁physics	-11.5117
▁predecessor	-11.5117
▁thirst	-11.5117
▁Daniel	-11.5117
▁inhibit	-11.5117
▁Establishment	-11.5121
▁toxic	-11.5122
▁Window	-11.5126
▁neo	-11.5139
otomy	-11.5153
abhi	-11.5159
▁amalgamation	-11.5165
▁convenience	-11.5165
▁sophisticated	-11.5165
▁Blood	-11.5165
▁impair	-11.5165
▁True	-11.5165
▁yoga	-11.5173
▁dependence	-11.5174
▁collector	-11.5176
bhava	-11.5176
India	-11.5189
▁tolerate	-11.52
▁harassment	-11.5212
▁primitive	-11.5212
▁climatic	-11.5212
▁intuition	-11.5213
▁slogan	-11.5213
▁polity	-11.5213
▁ultra	-11.5216
▁Index	-11.522
▁expense	-11.5224
▁distinctive	-11.5224
▁Martin	-11.5234
▁architect	-11.5259
▁Channel	-11.526
▁Dictionary	-11.526
▁Jadunath	-11.526
▁Supply	-11.526
▁mercy	-11.5261
▁Kapil	-11.5262
logist	-11.5276
▁detection	-11.5284
▁Annexure	-11.5309
▁Michael	-11.5309
▁Provincial	-11.5309
▁Taliban	-11.5309
▁Investigat	-11.5309
▁Purchase	-11.5309
▁Alternat	-11.5309
▁Ghose	-11.5309
▁Memory	-11.5309
▁Switch	-11.5309
▁Volume	-11.5309
▁monarch	-11.5309
▁steep	-11.531
▁packet	-11.5334
▁wipe	-11.5336
▁Ambassador	-11.5357
▁Richard	-11.5357
▁admissible	-11.5357
▁challenging	-11.5357
▁trekking	-11.5357
▁fodder	-11.5357
▁anticipatory	-11.5357
▁demerge	-11.5358
▁ascend	-11.5361
assuming	-11.5362
▁rape	-11.5373
▁oppose	-11.5377
▁Sahitya	-11.5406
▁dignitaries	-11.5406
▁ingredient	-11.5406
▁Maulana	-11.5406
▁SHG	-11.5406
▁gratitude	-11.5406
▁Doctor	-11.5406
▁forehead	-11.5407
▁Jesus	-11.5407
▁augment	-11.5407
▁bleeding	-11.5407
▁wives	-11.5408
▁invasion	-11.5408
▁copyright	-11.5408
▁Sunday	-11.5409
▁omission	-11.5409
▁congress	-11.5409
▁Turn	-11.5412
▁juice	-11.5412
▁Farmers	-11.5415
▁recurr	-11.5427
▁Sangh	-11.5448
▁Consult	-11.5448
▁Priyobro	-11.5455
▁Analysis	-11.5455
▁Intelligence	-11.5455
▁Sanctuary	-11.5455
▁conducive	-11.5455
▁despair	-11.5455
▁translator	-11.5455
▁deficit	-11.5455
▁oneself	-11.5455
▁dinner	-11.5455
▁incidence	-11.5455
▁Password	-11.5455
▁enroll	-11.5457
▁archive	-11.5468
▁greed	-11.5468
▁imperialist	-11.5499
▁abdomen	-11.5504
▁discourse	-11.5504
▁horticulture	-11.5504
▁nineteenth	-11.5504
▁reproductive	-11.5504
▁republic	-11.5504
▁thirteen	-11.5504
▁anxiety	-11.5504
▁excited	-11.5504
▁Skill	-11.5504
▁instalment	-11.5504
▁Mehta	-11.5505
▁Answer	-11.5505
▁Narendra	-11.5506
▁Chitra	-11.5516
▁loop	-11.552
IGN	-11.5536
▁pink	-11.554
▁wrongful	-11.554
privileged	-11.5548
▁BEGIN	-11.5554
▁Treatment	-11.5554
▁automobile	-11.5554
▁constraint	-11.5554
▁potato	-11.5554
▁ISRO	-11.5554
▁allotment	-11.5554
▁curb	-11.5555
▁fiction	-11.5558
▁classroom	-11.5558
cession	-11.5559
▁Font	-11.5561
▁remainder	-11.5562
▁Syed	-11.5564
▁landmark	-11.5567
▁GNOME	-11.5604
▁Mohammad	-11.5604
▁admiration	-11.5604
▁arithmetic	-11.5604
▁creativity	-11.5604
▁Saheb	-11.5604
▁conquest	-11.5604
▁Tatya	-11.5604
▁amidst	-11.5604
▁champion	-11.5604
▁dried	-11.5605
▁Except	-11.5609
▁Peter	-11.5622
▁induce	-11.5636
▁fluctuat	-11.5654
▁Aurangz	-11.5654
▁Fundamental	-11.5654
▁FROM	-11.5654
▁Introduction	-11.5654
▁Personnel	-11.5654
▁Employees	-11.5654
▁injection	-11.5654
▁1990	-11.5654
▁nominal	-11.5654
ologies	-11.5655
▁Charles	-11.5657
▁ongoing	-11.5658
▁rubb	-11.5684
▁Compensation	-11.5704
▁charitable	-11.5704
▁pharmaceutical	-11.5704
▁procurement	-11.5704
▁Relief	-11.5704
▁Saddam	-11.5704
▁prolonged	-11.5704
▁tropical	-11.5704
▁Client	-11.5704
▁sniff	-11.5704
▁coalition	-11.5707
▁Kabul	-11.5712
▁Guide	-11.5716
text	-11.5753
▁Ubuntu	-11.5754
▁apprehension	-11.5754
▁explicit	-11.5754
▁decisive	-11.5754
▁swift	-11.5754
▁reckon	-11.5754
▁Maratha	-11.5755
▁discern	-11.5755
▁Prakash	-11.5756
▁loyalty	-11.5757
▁shopping	-11.5757
▁fright	-11.5762
▁greet	-11.5772
▁edible	-11.5773
tunately	-11.5795
▁Available	-11.5805
▁boycott	-11.5805
▁renowned	-11.5805
▁1956	-11.5805
▁Pothana	-11.5805
▁Position	-11.5805
▁vocal	-11.5806
▁guiding	-11.5806
▁pretend	-11.5806
▁washing	-11.5818
▁Semi	-11.5834
AU	-11.5835
▁Individual	-11.5856
▁harmonious	-11.5856
▁indispensable	-11.5856
▁undoubtedly	-11.5856
▁Rupee	-11.5856
▁Gulf	-11.5859
▁ledger	-11.5861
emic	-11.5861
▁denote	-11.5862
▁Duty	-11.5866
▁dull	-11.5872
▁thro	-11.5876
▁Pollution	-11.5907
▁contributing	-11.5907
▁investigating	-11.5907
▁messenger	-11.5907
▁prestigious	-11.5907
▁reinforce	-11.5907
▁widget	-11.5907
▁foregoing	-11.5907
▁impetus	-11.5907
▁inception	-11.5908
▁telecom	-11.5909
rewith	-11.591
▁Tiger	-11.591
▁mortality	-11.5913
▁Produc	-11.5913
▁rites	-11.5914
ahdev	-11.5917
▁flock	-11.5925
▁requisition	-11.5959
▁Inflammation	-11.5959
▁impeachment	-11.5959
▁simplicity	-11.5959
▁bureau	-11.5959
▁expiration	-11.5959
▁temperament	-11.5959
▁hollow	-11.5959
▁Broad	-11.5959
▁tariff	-11.5959
▁mild	-11.596
▁endorsement	-11.5967
▁Wales	-11.5967
▁plug	-11.6001
▁Proclamation	-11.6011
▁Wildlife	-11.6011
▁restaurant	-11.6011
▁steadily	-11.6011
▁tonnage	-11.6011
▁unlawful	-11.6011
▁whisper	-11.6011
▁Qaeda	-11.6011
▁banyan	-11.6014
▁wireless	-11.6016
▁Load	-11.6028
▁lib	-11.6037
▁Indic	-11.6045
▁Bagh	-11.6059
▁neutral	-11.6063
▁California	-11.6063
▁Nivedita	-11.6063
▁accommodate	-11.6063
▁aggression	-11.6063
▁glimpse	-11.6063
▁Undertaking	-11.6063
▁enumerate	-11.6063
▁luminous	-11.6063
▁holistic	-11.6063
▁foremost	-11.6063
▁269	-11.6067
▁Madhav	-11.6068
▁harsh	-11.6068
▁banana	-11.607
▁reliance	-11.6072
▁Zionis	-11.6084
▁approve	-11.6087
▁NOT	-11.6108
▁encompass	-11.6115
▁Absolute	-11.6115
▁nucleus	-11.6115
▁sugarcane	-11.6115
▁untouchable	-11.6115
▁Mahadevi	-11.6117
variably	-11.6117
▁Ratna	-11.6118
▁Dalit	-11.6119
▁Half	-11.6121
▁Until	-11.6121
▁solicit	-11.6128
▁linga	-11.6132
▁abort	-11.6144
▁scrap	-11.6149
▁Devanagari	-11.6168
▁Guarantee	-11.6168
▁Vehicle	-11.6168
▁enthusiast	-11.6168
▁stupid	-11.6168
▁unanimous	-11.6168
▁portrait	-11.6168
▁dancing	-11.6168
▁1980	-11.6168
▁Increase	-11.6169
▁Pratap	-11.617
▁captain	-11.6171
▁composite	-11.6171
▁Notification	-11.6173
ground	-11.6176
▁Motor	-11.6182
▁Evidence	-11.6221
▁Performance	-11.6221
▁ambulance	-11.6221
▁flexibility	-11.6221
▁hierarchy	-11.6221
▁responsive	-11.6221
▁Twenty	-11.6221
▁chemist	-11.6221
▁anticipate	-11.6221
▁hesitate	-11.6221
▁diplomacy	-11.6222
▁minimiz	-11.6222
▁counterpart	-11.6222
▁dispers	-11.6223
practised	-11.6228
▁Generat	-11.6228
▁fertile	-11.6274
▁peripheral	-11.6274
▁sanctum	-11.6274
▁vacancy	-11.6274
▁Treaty	-11.6274
▁seventeen	-11.6274
▁homage	-11.6274
▁Dutch	-11.6274
▁Vikram	-11.6274
▁asleep	-11.6274
▁Joze	-11.6279
▁Unlike	-11.6279
▁labor	-11.628
▁rash	-11.6297
▁summari	-11.6317
▁Expenditure	-11.6327
▁Olympic	-11.6327
▁affiliate	-11.6327
▁ceremonial	-11.6327
▁disregard	-11.6327
▁whatsoever	-11.6327
▁Sweden	-11.6327
▁imminent	-11.6327
▁Munshi	-11.6327
▁cereal	-11.6327
▁hostility	-11.6327
▁memories	-11.6327
▁clerk	-11.6328
▁brutal	-11.6328
▁naked	-11.6328
▁Omitt	-11.6328
▁Corp	-11.6333
▁misery	-11.6336
▁Circ	-11.6336
▁chlor	-11.6361
▁Varanasi	-11.6381
▁diagnose	-11.6381
▁superficial	-11.6381
▁unhappy	-11.6381
▁offensive	-11.6381
▁undue	-11.6382
▁pearl	-11.6383
▁brotherhood	-11.6384
▁malaria	-11.6385
▁scarce	-11.64
▁Cultural	-11.6435
▁HPCL	-11.6435
▁License	-11.6435
▁arrears	-11.6435
▁bracket	-11.6435
▁portfolio	-11.6435
▁renounc	-11.6435
▁temporarily	-11.6435
▁census	-11.6435
▁sikhara	-11.6435
WORK	-11.6435
▁mystery	-11.6435
▁mainstream	-11.6437
▁cordial	-11.6439
▁habitual	-11.6441
▁priorities	-11.6442
▁toilet	-11.6455
class	-11.6462
▁dye	-11.6463
▁utilis	-11.6484
▁mortal	-11.6487
▁SPEECH	-11.6489
▁tranquil	-11.649
▁Moscow	-11.649
▁autonomy	-11.649
▁consecutive	-11.649
▁incorrect	-11.649
▁puzzle	-11.649
▁gravity	-11.649
▁monopoly	-11.649
▁fragment	-11.649
▁Chairperson	-11.649
▁Inquiry	-11.649
COUNT	-11.649
▁spices	-11.649
▁Serial	-11.649
▁Venkata	-11.649
▁telegraph	-11.6491
▁addict	-11.6499
process	-11.6504
▁dispose	-11.6515
▁Contribution	-11.6544
▁esteem	-11.6544
▁Method	-11.6544
▁missile	-11.6545
▁inhabitants	-11.6545
▁Kisan	-11.6545
▁biography	-11.6547
▁Phone	-11.655
NB	-11.6557
centric	-11.6565
▁capita	-11.6568
▁occupie	-11.657
▁identifie	-11.657
▁Instrument	-11.6599
▁NUMBER	-11.6599
▁ethics	-11.6599
▁obstina	-11.6599
▁regain	-11.6599
▁curious	-11.66
▁supervise	-11.6606
▁Bachan	-11.661
▁Century	-11.6654
▁Hitler	-11.6654
▁lifestyle	-11.6654
▁IFCI	-11.6654
▁plough	-11.6654
▁boast	-11.6655
▁provok	-11.6655
▁2002	-11.6655
▁STATE	-11.6655
▁bribery	-11.6656
▁drunk	-11.6656
▁weaver	-11.6658
▁Earlie	-11.6669
writing	-11.6674
sufficient	-11.6675
▁emanat	-11.6679
▁restrain	-11.6692
▁ambitious	-11.671
▁renunciation	-11.671
▁verdict	-11.671
▁Hussein	-11.671
▁Permanent	-11.671
▁exciting	-11.671
▁solitary	-11.671
▁reputed	-11.671
▁menace	-11.6711
▁bonus	-11.6711
▁activate	-11.6712
▁feedback	-11.6712
▁Scale	-11.6718
possessed	-11.6719
receptor	-11.6724
▁Victoria	-11.6766
▁suspicion	-11.6766
▁CONDOLE	-11.6766
▁authoritative	-11.6766
▁jealous	-11.6766
▁maritime	-11.6766
▁Approv	-11.6767
▁Simple	-11.6768
▁waist	-11.6768
▁Controller	-11.6769
roused	-11.6776
▁Bapu	-11.6777
▁mosquito	-11.6822
etropolitan	-11.6822
▁absorption	-11.6822
▁nitrogen	-11.6822
▁infectious	-11.6822
▁Copyright	-11.6823
▁Crime	-11.6823
▁salaries	-11.6823
▁shaping	-11.6826
▁maternal	-11.6826
▁fringe	-11.6831
▁inventor	-11.6834
▁respirator	-11.6879
▁alignment	-11.6879
▁inclined	-11.6879
▁Little	-11.6879
▁completing	-11.6879
▁diameter	-11.6879
▁forecast	-11.6879
▁Wood	-11.6879
▁scroll	-11.6879
▁Kavya	-11.6881
▁cited	-11.6883
▁calf	-11.6884
▁Series	-11.6884
▁announce	-11.6896
▁aspiration	-11.6935
▁refresh	-11.6935
▁Elephant	-11.6935
▁blossom	-11.6935
▁explosion	-11.6935
▁mathematical	-11.6935
▁simplify	-11.6935
▁vocational	-11.6935
▁Bachchan	-11.6935
▁Character	-11.6935
▁pepper	-11.6935
▁vigour	-11.6935
▁Vedanta	-11.6935
▁Nawab	-11.6936
▁Maurya	-11.6937
▁mammal	-11.6938
▁gateway	-11.6938
▁Usual	-11.6938
▁Daily	-11.6938
▁swing	-11.6943
lmost	-11.6958
▁Mexico	-11.6993
▁illiterate	-11.6993
▁remittance	-11.6993
▁feudal	-11.6993
▁2005	-11.6993
▁Keyboard	-11.6993
▁ecological	-11.6993
▁abode	-11.6995
▁cancelled	-11.6996
▁Single	-11.6996
▁solvent	-11.6997
▁fiber	-11.7002
▁ailment	-11.7006
▁immigrant	-11.705
▁rigorous	-11.705
▁umbrella	-11.705
▁zamindar	-11.705
▁sulphur	-11.705
▁upheld	-11.705
▁buried	-11.705
▁gauge	-11.7051
▁Ignor	-11.7052
▁isolation	-11.7052
▁Submission	-11.7052
▁Perfect	-11.7054
alumni	-11.7054
▁Independent	-11.7108
▁Peninsula	-11.7108
▁aggrieved	-11.7108
▁beneficiary	-11.7108
▁diagnosis	-11.7108
▁Friday	-11.7108
▁Vigyan	-11.7108
▁martyr	-11.7108
▁aquatic	-11.7108
▁divert	-11.7109
▁Accept	-11.7109
▁cruelty	-11.7111
▁fauna	-11.7111
▁sponsor	-11.7112
▁joke	-11.7116
▁pupa	-11.7119
▁ripe	-11.7137
▁Publish	-11.7166
▁Conservation	-11.7166
▁Khandekar	-11.7166
▁Savarkar	-11.7166
▁Ahmad	-11.7166
▁bargain	-11.7166
▁corpus	-11.7166
▁Browse	-11.7167
▁orphan	-11.7168
▁Specific	-11.7193
▁Kalyan	-11.7194
▁thorough	-11.7202
stream	-11.7204
▁Lebanon	-11.7224
▁Siyaramsharan	-11.7224
▁Valmiki	-11.7224
▁prejudicial	-11.7224
▁pecuniar	-11.7224
▁encoding	-11.7224
▁thumb	-11.7224
▁ideological	-11.7225
▁coordinat	-11.7225
▁Abbas	-11.7226
▁Poona	-11.7227
▁Presid	-11.7229
▁discontinu	-11.7283
ORROW	-11.7283
▁Initiative	-11.7283
▁diamond	-11.7283
▁exemplary	-11.7283
▁frivolous	-11.7283
▁glucose	-11.7283
▁rebellion	-11.7283
▁unlimited	-11.7283
▁voluntarily	-11.7283
▁Thakur	-11.7283
▁beneath	-11.7283
▁Aviation	-11.7284
▁Background	-11.7284
▁invented	-11.7284
▁Rahul	-11.7284
▁Seminar	-11.7286
▁Cause	-11.7295
▁stride	-11.7301
▁coincide	-11.7326
consumed	-11.7337
▁harbour	-11.7342
▁reimburse	-11.7342
▁Celebrations	-11.7342
▁Contempt	-11.7342
▁Santiniketan	-11.7342
▁Suddenly	-11.7342
▁tuberculosis	-11.7342
▁heartfelt	-11.7342
▁inspiring	-11.7342
▁spinning	-11.7342
▁diagram	-11.7342
▁skull	-11.7342
▁Palace	-11.7343
▁Bridge	-11.7343
▁Naidu	-11.7343
▁lodge	-11.7343
▁Think	-11.7343
▁brahma	-11.7344
▁hydrogen	-11.7344
▁obey	-11.7345
▁steal	-11.7346
▁schema	-11.7354
CAIR	-11.7375
propria	-11.7375
▁gradual	-11.7379
intern	-11.7396
rbakhsh	-11.7402
▁Jodhpur	-11.7402
▁Nuclear	-11.7402
▁Superintendent	-11.7402
▁alchemist	-11.7402
▁curiosity	-11.7402
▁trekker	-11.7402
▁Amitabh	-11.7402
▁Steel	-11.7402
▁polish	-11.7402
▁bullock	-11.7404
▁vomit	-11.7406
OVER	-11.7406
▁Wild	-11.7407
PORT	-11.7407
▁hetero	-11.7413
PATI	-11.7419
▁swollen	-11.7462
▁moisture	-11.7462
▁annuity	-11.7462
▁carpet	-11.7462
▁Writing	-11.7462
▁compiled	-11.7462
▁bundle	-11.7462
▁Opposition	-11.7463
▁Complex	-11.7463
▁Thiru	-11.7466
▁Capacity	-11.7522
▁Subsequent	-11.7522
▁denomination	-11.7522
▁precaution	-11.7522
▁tactics	-11.7522
▁memorable	-11.7522
▁scratch	-11.7522
▁HTTP	-11.7522
▁placing	-11.7522
▁architectural	-11.7522
▁stiff	-11.7523
▁multilateral	-11.7523
▁Ramakrishna	-11.7524
▁consultancy	-11.7524
▁trash	-11.7526
▁constitut	-11.7561
aunchpad	-11.7572
▁Guwahati	-11.7583
▁Harishchandra	-11.7583
▁Pondicherry	-11.7583
▁Preamble	-11.7583
▁SERVICE	-11.7583
▁embodied	-11.7583
▁fascinating	-11.7583
▁fraudulent	-11.7583
▁hygiene	-11.7583
▁indifference	-11.7583
▁ordinance	-11.7583
▁superstition	-11.7583
▁memorial	-11.7583
▁Material	-11.7583
▁demographic	-11.7583
▁Malaysia	-11.7583
▁wicked	-11.7583
▁expired	-11.7583
▁Adalat	-11.7583
▁Vallabh	-11.7583
▁amenities	-11.7583
▁charity	-11.7584
varying	-11.7617
▁Similar	-11.7621
▁imprison	-11.7639
▁INAUGURAT	-11.7644
▁Prophet	-11.7644
▁congratulations	-11.7644
▁intestate	-11.7644
▁uranium	-11.7644
▁warehouse	-11.7644
▁Framework	-11.7644
▁dental	-11.7645
▁Captain	-11.7645
▁straw	-11.7648
▁infrastructur	-11.7678
▁Certification	-11.7705
▁MINISTER	-11.7705
▁Medicine	-11.7705
▁Redressal	-11.7705
▁sympathetic	-11.7705
▁expedient	-11.7705
▁microscope	-11.7706
▁stuck	-11.7707
▁storing	-11.7709
▁angel	-11.7715
▁convergence	-11.7767
▁divisible	-11.7767
▁grievous	-11.7767
▁immigration	-11.7767
▁sanctuary	-11.7767
▁Infinite	-11.7767
▁domicile	-11.7767
▁humanitarian	-11.7767
▁Diwali	-11.7767
▁eldest	-11.7767
▁Austria	-11.7767
▁vacant	-11.7767
▁Result	-11.7767
▁revelation	-11.7767
▁Risk	-11.7767
▁Scientist	-11.7767
aceae	-11.7767
▁carving	-11.7767
▁2003	-11.7767
▁thunder	-11.7768
▁screw	-11.7768
▁implicat	-11.7782
dimensional	-11.7826
▁Narmadashank	-11.7828
▁biotechnology	-11.7829
▁discourage	-11.7829
▁extremist	-11.7829
▁leisure	-11.7829
▁Preferences	-11.7829
▁Obvious	-11.7829
▁devoid	-11.7829
▁sediment	-11.7829
▁geography	-11.7829
▁AWARDS	-11.7891
▁Maintenance	-11.7891
▁conciliation	-11.7891
▁WITH	-11.7891
▁deceit	-11.7891
▁ladies	-11.7891
▁invisible	-11.7891
▁brood	-11.7892
▁fortnight	-11.7892
▁evict	-11.7894
worth	-11.7949
rchaeological	-11.7954
▁Philosophy	-11.7954
▁calcium	-11.7954
▁illustrious	-11.7954
▁implicit	-11.7954
▁statistical	-11.7954
▁unwilling	-11.7954
▁cottage	-11.7954
▁fossil	-11.7954
▁Growth	-11.7954
▁romance	-11.7954
▁incapable	-11.7955
▁Parvati	-11.7956
▁convince	-11.7988
animate	-11.8
▁Academic	-11.8018
▁Akademi	-11.8018
▁Excellence	-11.8018
▁Receipt	-11.8018
▁enzyme	-11.8018
▁vegetation	-11.8018
▁imbibe	-11.8018
▁Problem	-11.8018
▁COURT	-11.8018
▁Circular	-11.8018
▁Terminal	-11.8018
▁Above	-11.8019
algia	-11.8022
equality	-11.8023
science	-11.8023
prasad	-11.8047
▁slide	-11.8063
▁Participat	-11.8078
▁ISBN	-11.8081
▁leopard	-11.8081
▁BOLD	-11.8081
▁Regular	-11.8081
▁ministries	-11.8081
▁swallow	-11.8081
▁Quarter	-11.8081
▁buffer	-11.8081
▁facie	-11.8081
▁Guinea	-11.8081
▁nectar	-11.8082
▁hiding	-11.8082
▁concede	-11.8083
▁2001	-11.8083
narayan	-11.81
▁Adjust	-11.8145
▁Countries	-11.8145
▁LIFE	-11.8145
▁contributor	-11.8145
▁cooperate	-11.8145
▁embedded	-11.8145
▁fertility	-11.8145
▁opposing	-11.8145
▁ozone	-11.8145
▁panchayat	-11.8145
▁Imperial	-11.8145
▁duplicate	-11.8145
▁fertilise	-11.8145
▁complications	-11.8145
▁obscure	-11.8145
▁cursor	-11.8146
▁inhabit	-11.8203
welfth	-11.821
▁Anniversary	-11.821
▁Discussion	-11.821
▁aggravat	-11.821
▁liquor	-11.821
▁subscription	-11.821
▁Reason	-11.821
▁telegram	-11.821
▁thorn	-11.8211
▁Mahendra	-11.8212
▁Vyas	-11.8218
▁repay	-11.8268
▁Alexander	-11.8275
▁VPN	-11.8275
▁caterpillar	-11.8275
▁compulsion	-11.8275
▁hitherto	-11.8275
▁jurisprudence	-11.8275
▁livestock	-11.8275
▁generator	-11.8275
▁probability	-11.8275
▁prescription	-11.8275
▁defense	-11.8275
▁seldom	-11.8275
▁Opinion	-11.8275
▁activist	-11.8275
▁retrieve	-11.8275
▁cousin	-11.8275
▁Everything	-11.8275
▁sentenc	-11.8275
▁Visva	-11.8276
ustainable	-11.8291
▁incorporate	-11.8311
▁choos	-11.8318
▁Strength	-11.834
▁apparatus	-11.834
▁hereinafter	-11.834
▁peacock	-11.834
▁proclamation	-11.834
▁spectacular	-11.834
▁matrix	-11.834
▁compilation	-11.834
▁fierce	-11.834
▁Request	-11.834
▁muslim	-11.834
▁ICAR	-11.8341
▁console	-11.8341
olidarity	-11.8342
▁inquire	-11.8354
assisted	-11.8373
▁Myanmar	-11.8406
▁Traditional	-11.8406
▁afflict	-11.8406
▁ambassador	-11.8406
▁reassessment	-11.8406
▁reservoir	-11.8406
▁trivial	-11.8406
▁milestone	-11.8406
▁album	-11.8406
▁refined	-11.8406
▁Mishra	-11.8409
▁Rishi	-11.8413
▁forgive	-11.8416
undergone	-11.8453
▁Appointment	-11.8472
▁Audacity	-11.8472
▁Structure	-11.8472
▁abdominal	-11.8472
▁articulate	-11.8472
▁credentials	-11.8472
▁humility	-11.8472
▁inculcate	-11.8472
▁influential	-11.8472
▁promulgat	-11.8472
▁Mahavira	-11.8472
▁immune	-11.8472
▁Binding	-11.8472
▁feather	-11.8472
▁salvation	-11.8472
▁pricing	-11.8472
▁spear	-11.8473
bhara	-11.8516
shankar	-11.852
▁Ultimate	-11.8539
▁elevated	-11.8539
▁erstwhile	-11.8539
▁grandmother	-11.8539
▁penetration	-11.8539
▁pigeon	-11.8539
▁clarity	-11.8539
▁hesitation	-11.8539
▁Blair	-11.8539
▁ecosystem	-11.8539
▁plung	-11.8539
▁trauma	-11.8539
▁Yadav	-11.8539
▁Henry	-11.8539
▁anchor	-11.8541
▁imperial	-11.8543
▁Frame	-11.8545
▁bulb	-11.8572
▁equat	-11.8592
▁Lakshmana	-11.8606
▁Madurai	-11.8606
▁Military	-11.8606
▁hormone	-11.8606
▁pixels	-11.8606
▁precision	-11.8606
▁sensitivity	-11.8606
▁Joseph	-11.8606
▁Proposal	-11.8606
implified	-11.8606
▁declaring	-11.8606
▁junior	-11.8606
▁cosine	-11.8608
control	-11.8633
▁suppose	-11.8644
▁Atlantic	-11.8673
▁Desktop	-11.8673
▁Dravidian	-11.8673
▁Empowerment	-11.8673
▁Facility	-11.8673
▁adjoining	-11.8673
▁appraisal	-11.8673
▁condoled	-11.8673
▁continuation	-11.8673
▁desperate	-11.8673
▁discharging	-11.8673
▁epidemic	-11.8673
▁inevitably	-11.8673
▁shrink	-11.8673
▁splendour	-11.8673
▁treasury	-11.8673
▁Release	-11.8673
▁medication	-11.8673
▁workforce	-11.8673
▁Spanish	-11.8674
▁erosion	-11.8674
▁Gobind	-11.8674
▁Okay	-11.8674
▁Storage	-11.8674
▁Nigeria	-11.8674
▁2007	-11.8674
▁funeral	-11.8674
▁cheek	-11.8674
▁insulin	-11.8674
▁typing	-11.8674
▁yarn	-11.8674
▁Trading	-11.8674
pdf	-11.8699
▁Govern	-11.8719
▁Assemblies	-11.8742
▁Currency	-11.8742
▁Gokhale	-11.8742
▁Puducherry	-11.8742
▁cultivator	-11.8742
▁knife	-11.8742
▁mysterious	-11.8742
▁Shipping	-11.8742
▁chariot	-11.8742
▁premature	-11.8742
▁mythology	-11.8742
▁Atomic	-11.8742
▁truck	-11.8742
▁wilful	-11.8742
probable	-11.8744
▁conjunct	-11.8778
▁reconcil	-11.881
▁Antarctic	-11.881
▁Chicago	-11.881
▁Thackeray	-11.881
▁UNESCO	-11.881
▁constituency	-11.881
▁inconsistent	-11.881
▁kilometers	-11.881
▁perpetual	-11.881
▁MCX	-11.881
▁Nalanda	-11.881
▁Graphic	-11.881
▁curtain	-11.881
▁mobilis	-11.8811
▁magnifi	-11.8812
▁Sync	-11.8824
▁RASHTRA	-11.8879
PUBLIC	-11.8879
▁Chatterjee	-11.8879
▁convincing	-11.8879
▁equilibrium	-11.8879
▁navigation	-11.8879
▁Oriental	-11.8879
▁Tehran	-11.8879
▁incarnation	-11.8879
▁Lecture	-11.8879
▁Census	-11.8879
▁Circuit	-11.8879
▁retard	-11.888
▁inhuman	-11.888
▁tumor	-11.8882
▁Ishwar	-11.8887
▁attest	-11.8892
piece	-11.8913
▁Literacy	-11.8948
▁Vigilance	-11.8948
▁cigarette	-11.8948
▁extinguish	-11.8948
▁memorandum	-11.8948
▁perpetrat	-11.8948
▁privacy	-11.8948
▁refrain	-11.8948
▁untouchability	-11.8948
▁leverage	-11.8948
▁stabiliz	-11.8948
▁biomass	-11.8948
▁cancellation	-11.8948
▁replies	-11.8948
▁speculation	-11.8948
▁Mecca	-11.8948
▁lyrical	-11.8948
▁compensate	-11.8949
▁Options	-11.8949
▁spoil	-11.8949
▁Facilitat	-11.9018
▁Bhagwati	-11.9018
▁Database	-11.9018
▁Diploma	-11.9018
▁Ombudsman	-11.9018
▁Shakespeare	-11.9018
▁Statistics	-11.9018
▁atmospheric	-11.9018
▁eligibility	-11.9018
▁fascism	-11.9018
▁maternity	-11.9018
▁vegetarian	-11.9018
▁timber	-11.9018
▁Observ	-11.9018
▁embark	-11.9018
▁excise	-11.9018
▁2009	-11.9018
▁Bhagavath	-11.9018
▁Script	-11.9019
▁coarse	-11.9019
▁grind	-11.9021
▁Memorandum	-11.9089
▁Thailand	-11.9089
▁enrolment	-11.9089
▁banknotes	-11.9089
▁electorate	-11.9089
▁Activities	-11.9089
▁Defens	-11.9089
▁Karachi	-11.9089
▁muscular	-11.9089
▁Eleven	-11.9089
▁vector	-11.9089
▁Premises	-11.9089
▁Ireland	-11.9089
▁mobiliz	-11.909
▁MOU	-11.9094
▁Shyam	-11.9097
▁flavour	-11.916
▁Anandamoy	-11.916
▁applaud	-11.916
▁disqualified	-11.916
▁indefinite	-11.916
▁irrelevant	-11.916
▁thrill	-11.916
▁civic	-11.916
▁thigh	-11.916
▁2006	-11.916
▁malign	-11.916
▁disguise	-11.9161
▁appeas	-11.9161
graduate	-11.9204
▁cheat	-11.9229
▁intimidat	-11.9231
▁Domestic	-11.9231
▁algebra	-11.9231
▁eclipse	-11.9231
▁explosive	-11.9231
▁fascist	-11.9231
▁hypothesis	-11.9231
▁proprietor	-11.9231
▁Motilal	-11.9231
▁Summary	-11.9231
▁calamity	-11.9231
▁Fellow	-11.9231
▁Investor	-11.9231
▁depressed	-11.9231
▁turtle	-11.9231
▁2004	-11.9231
▁garland	-11.9232
▁Smart	-11.9232
▁Ladie	-11.9243
▁disparit	-11.9246
spoken	-11.9279
praised	-11.9302
▁slaughter	-11.9303
▁syndrome	-11.9303
▁CALLS	-11.9303
▁Chatrik	-11.9303
▁invoked	-11.9303
▁Climate	-11.9303
▁plague	-11.9303
▁Counter	-11.9303
EMBER	-11.9303
▁Alliance	-11.9303
▁blade	-11.9303
▁forfeit	-11.9303
▁stool	-11.9304
iferous	-11.9306
▁Yogi	-11.9308
▁graduat	-11.9321
▁devote	-11.9361
▁disillusion	-11.9376
▁Catholic	-11.9376
▁Counsel	-11.9376
▁Disabilities	-11.9376
▁Gentlemen	-11.9376
▁Udaipur	-11.9376
▁contravention	-11.9376
▁genital	-11.9376
▁indifferent	-11.9376
▁redemption	-11.9376
▁redundant	-11.9376
▁Traffic	-11.9376
▁pseudo	-11.9376
▁revenge	-11.9376
Residence	-11.9376
▁grandeur	-11.9376
▁drift	-11.9376
▁Narmada	-11.9377
▁cultivate	-11.9419
▁Employ	-11.9444
▁Terror	-11.9445
▁Effort	-11.9449
▁advisable	-11.9449
▁optimum	-11.9449
▁purchasing	-11.9449
▁RFP	-11.9449
▁voyage	-11.9449
▁Cotton	-11.9449
▁increment	-11.9449
▁stanza	-11.9449
▁Watch	-11.9449
▁1970	-11.9449
▁coerc	-11.9462
▁Cancel	-11.9464
▁differentiate	-11.947
▁Bulh	-11.9487
▁necessitat	-11.9522
cquitted	-11.9522
▁allegiance	-11.9522
▁deprivation	-11.9522
▁diabetic	-11.9522
▁imbalance	-11.9522
▁mumbai	-11.9522
▁obsolete	-11.9522
▁Francis	-11.9522
▁intimation	-11.9522
▁Virtual	-11.9522
▁Kuwait	-11.9522
▁unveil	-11.9522
▁Dairy	-11.9522
▁glance	-11.9522
▁Average	-11.9522
▁backbone	-11.9522
▁flew	-11.9522
▁Complete	-11.9525
▁predator	-11.9528
▁snap	-11.9548
▁conclud	-11.9549
▁comprehend	-11.9596
▁Religious	-11.9596
▁dilemma	-11.9596
▁fraternit	-11.9596
▁innocence	-11.9596
▁offspring	-11.9596
▁martial	-11.9596
▁restoration	-11.9596
▁antenna	-11.9597
▁shirt	-11.9597
▁Libya	-11.9599
officio	-11.9665
▁consume	-11.9668
▁Complaint	-11.9671
▁Hussain	-11.9671
▁VISIT	-11.9671
▁contagious	-11.9671
▁crocodile	-11.9671
▁grasshopper	-11.9671
▁credibility	-11.9671
▁ghost	-11.9671
▁Domain	-11.9671
▁Swadeshi	-11.9671
▁2008	-11.9671
▁dentist	-11.9671
▁trump	-11.9671
▁vendor	-11.9671
▁swim	-11.9673
▁polio	-11.9674
▁awake	-11.9678
▁replicat	-11.9699
▁calamities	-11.9746
▁cholesterol	-11.9746
▁imaginary	-11.9746
▁impediment	-11.9746
▁libraries	-11.9746
▁rhetoric	-11.9746
▁steadfast	-11.9746
▁Jyoti	-11.9746
▁enmity	-11.9746
▁slender	-11.9746
▁Bodies	-11.9746
▁ninth	-11.9746
▁Width	-11.9746
▁alleviat	-11.9746
▁demise	-11.9747
▁profess	-11.9787
▁Inspection	-11.9822
▁Welcome	-11.9822
▁adjacent	-11.9822
▁avenues	-11.9822
▁cautious	-11.9822
▁enshrined	-11.9822
▁inappropriate	-11.9822
▁unsuccessful	-11.9822
▁detriment	-11.9822
▁pharma	-11.9822
▁massacre	-11.9822
▁theoretical	-11.9822
xistence	-11.9831
screen	-11.9892
▁diploma	-11.9895
▁apprehend	-11.9898
▁Darjeeling	-11.9898
▁Haplogroup	-11.9898
▁autobiography	-11.9898
▁destructive	-11.9898
▁embracing	-11.9898
▁forbidden	-11.9898
▁fountain	-11.9898
▁attorney	-11.9898
▁deception	-11.9898
▁Mahasabha	-11.9898
▁Heritage	-11.9898
▁myriad	-11.9898
▁Psycho	-11.9898
▁Nyaya	-11.9898
▁finite	-11.9898
▁Restrict	-11.9899
swamy	-11.9899
▁magnet	-11.9909
▁Prohibition	-11.9975
▁Rashtriya	-11.9975
▁amalgamated	-11.9975
▁luxury	-11.9975
▁mercury	-11.9975
▁mischief	-11.9975
▁negligence	-11.9975
▁skeleton	-11.9975
▁Failure	-11.9975
▁overlook	-11.9975
▁rhyme	-11.9975
▁swimming	-11.9975
▁infirm	-11.9975
▁anguish	-11.9975
▁aspire	-11.9983
▁retire	-12.0019
▁causa	-12.0022
people	-12.0051
▁segregat	-12.0052
malgamating	-12.0052
▁Irrigation	-12.0052
▁Oxford	-12.0052
▁Pandavas	-12.0052
▁Fifth	-12.0053
eterrence	-12.0053
▁stolen	-12.0053
▁hurry	-12.0053
▁excel	-12.0053
▁JSA	-12.0054
▁stalk	-12.0055
▁irrigat	-12.0122
▁Identity	-12.0131
▁Netherlands	-12.0131
▁abundance	-12.0131
▁impugned	-12.0131
▁incumbent	-12.0131
▁luggage	-12.0131
▁motivation	-12.0131
▁paradigm	-12.0131
▁tunnel	-12.0131
▁Kyrgyz	-12.0131
▁frightened	-12.0131
▁Scott	-12.0131
▁Advaita	-12.0131
▁veteran	-12.0131
▁ventilat	-12.0131
▁Andrew	-12.0131
▁abiding	-12.0131
▁deplet	-12.0137
folk	-12.0152
▁surroga	-12.0209
▁Administrator	-12.0209
▁BHAVAN	-12.0209
▁Detailed	-12.0209
▁HIGH	-12.0209
▁Wimbledon	-12.0209
▁practicable	-12.0209
▁sanskrit	-12.0209
▁unemployed	-12.0209
▁Understand	-12.0209
▁Uzbek	-12.0209
▁consuming	-12.0209
sanitary	-12.0209
▁intrinsic	-12.0209
▁promising	-12.0209
▁analyst	-12.0209
▁entail	-12.0209
▁polluted	-12.0209
▁miserable	-12.0209
▁PASS	-12.021
▁christ	-12.0212
▁dilut	-12.0217
▁wholesale	-12.0224
upremacy	-12.0289
▁Fertilizer	-12.0289
▁Horticulture	-12.0289
▁Philippines	-12.0289
▁Regarding	-12.0289
▁convocation	-12.0289
▁vernacular	-12.0289
▁enunciat	-12.0289
▁Preparation	-12.0289
▁Commodit	-12.0289
▁Estimat	-12.0289
▁Previous	-12.0289
▁gracious	-12.0289
▁Subordinate	-12.0289
conscient	-12.0293
respect	-12.0298
▁approximate	-12.0346
▁Calendar	-12.0369
▁Cambridge	-12.0369
▁Judgment	-12.0369
▁Maldives	-12.0369
▁continuity	-12.0369
▁cylinder	-12.0369
▁foodgrains	-12.0369
▁forefront	-12.0369
▁relentless	-12.0369
▁terrain	-12.0369
▁turmeric	-12.0369
▁analyze	-12.0369
▁crazy	-12.0369
▁vertebra	-12.038
enalties	-12.0408
ttributable	-12.0449
▁Almighty	-12.0449
▁Brahmaputra	-12.0449
▁Instruction	-12.0449
▁SAARC	-12.0449
▁Strategic	-12.0449
▁Vijayanagar	-12.0449
▁ceremonies	-12.0449
▁feasible	-12.0449
▁impersonal	-12.0449
▁rejuvenat	-12.0449
▁Suggest	-12.0449
▁Harvard	-12.0449
▁Expert	-12.0449
▁sensible	-12.0449
▁Explor	-12.0449
▁ethos	-12.0449
▁formidable	-12.0449
▁NSIC	-12.045
▁aromatic	-12.045
▁Louis	-12.045
OUT	-12.0462
▁colleague	-12.0464
isciplinary	-12.0527
▁Acquisition	-12.0531
▁Dynamic	-12.0531
▁Tendulkar	-12.0531
▁appetite	-12.0531
▁constituencies	-12.0531
▁diagnostic	-12.0531
▁diarrhoea	-12.0531
▁hereditary	-12.0531
▁receivable	-12.0531
▁Vidyalaya	-12.0531
▁Valuation	-12.0531
▁horror	-12.0531
▁Tunisia	-12.0531
▁combining	-12.0531
▁pillow	-12.0531
▁unaware	-12.0531
्	-13.4535
$	-13.4536
–	-13.4537
*	-13.4538
_	-13.4539
—	-13.454
}	-13.4541
{	-13.4542
!	-13.4543
‘	-13.4544
#	-13.4545
’	-13.4546
%	-13.4547
?	-13.4548
“	-13.4549
”	-13.455
/	-13.4551
:	-13.4552
(	-13.4553
)	-13.4554
