<unk>	0
<s>	0
</s>	0
UuRrLl	0
DdAaTtEe	0
NnUuMm	0
▁t	-0
he	-1
▁a	-2
▁the	-3
▁o	-4
in	-5
on	-6
re	-7
at	-8
er	-9
▁of	-10
en	-11
ed	-12
is	-13
▁c	-14
it	-15
▁s	-16
ion	-17
▁p	-18
nd	-19
▁b	-20
▁w	-21
▁in	-22
al	-23
or	-24
es	-25
▁f	-26
▁to	-27
ar	-28
an	-29
as	-30
ent	-31
ing	-32
ic	-33
▁d	-34
ou	-35
▁and	-36
ct	-37
▁re	-38
▁th	-39
▁m	-40
ro	-41
le	-42
▁be	-43
▁h	-44
▁C	-45
▁n	-46
st	-47
ation	-48
▁e	-49
▁is	-50
▁T	-51
▁S	-52
ce	-53
id	-54
▁A	-55
▁that	-56
ot	-57
ment	-58
ut	-59
om	-60
ll	-61
▁I	-62
ve	-63
▁con	-64
▁for	-65
se	-66
▁by	-67
▁or	-68
▁on	-69
▁as	-70
pp	-71
▁u	-72
ly	-73
ri	-74
▁pro	-75
▁su	-76
▁l	-77
ad	-78
▁de	-79
our	-80
▁(	-81
ate	-82
▁The	-83
▁an	-84
ur	-85
im	-86
▁P	-87
▁not	-88
ch	-89
il	-90
▁wh	-91
▁app	-92
▁was	-93
ant	-94
her	-95
ver	-96
ourt	-97
▁wit	-98
ter	-99
▁g	-100
ect	-101
ig	-102
ra	-103
▁it	-104
ld	-105
ow	-106
if	-107
▁with	-108
ay	-109
et	-110
▁M	-111
▁R	-112
ere	-113
▁ex	-114
ir	-115
ain	-116
qu	-117
▁Court	-118
ab	-119
ers	-120
am	-121
res	-122
ul	-123
ud	-124
▁H	-125
ess	-126
▁st	-127
nder	-128
▁com	-129
▁v	-130
us	-131
▁B	-132
ich	-133
▁under	-134
▁D	-135
ity	-136
▁has	-137
ge	-138
▁which	-139
▁N	-140
ther	-141
ol	-142
▁he	-143
and	-144
ated	-145
▁sh	-146
est	-147
ions	-148
▁are	-149
▁this	-150
▁al	-151
ak	-152
ist	-153
os	-154
ec	-155
▁ac	-156
▁le	-157
ore	-158
end	-159
iv	-160
▁appe	-161
▁G	-162
▁res	-163
ould	-164
▁any	-165
▁ha	-166
art	-167
ence	-168
▁at	-169
ive	-170
od	-171
ial	-172
▁cas	-173
rom	-174
ies	-175
nt	-176
red	-177
▁j	-178
all	-179
ice	-180
gh	-181
▁In	-182
ted	-183
▁sub	-184
▁from	-185
ition	-186
ust	-187
▁cont	-188
um	-189
igh	-190
ard	-191
▁been	-192
▁have	-193
la	-194
em	-195
ort	-196
ure	-197
▁O	-198
▁prov	-199
pon	-200
un	-201
▁there	-202
▁L	-203
▁J	-204
ance	-205
pl	-206
able	-207
▁Act	-208
aid	-209
▁dis	-210
ction	-211
▁whe	-212
so	-213
▁fa	-214
▁such	-215
ff	-216
ia	-217
▁St	-218
ord	-219
▁case	-220
▁E	-221
ie	-222
over	-223
▁per	-224
ned	-225
▁acc	-226
ution	-227
▁W	-228
ill	-229
▁ad	-230
▁F	-231
lic	-232
ary	-233
▁Ind	-234
▁im	-235
stit	-236
mit	-237
mis	-238
▁int	-239
llant	-240
der	-241
fore	-242
▁ag	-243
▁other	-244
per	-245
sion	-246
th	-247
▁part	-248
▁also	-249
oc	-250
pt	-251
ire	-252
▁we	-253
▁It	-254
su	-255
▁all	-256
cl	-257
▁comp	-258
▁appellant	-259
ru	-260
erv	-261
▁ab	-262
▁cons	-263
▁ch	-264
aw	-265
▁can	-266
overn	-267
ame	-268
▁rec	-269
▁se	-270
ght	-271
erson	-272
▁had	-273
ade	-274
▁ar	-275
ous	-276
op	-277
▁y	-278
▁High	-279
▁State	-280
▁en	-281
du	-282
▁were	-283
▁no	-284
▁ev	-285
..	-286
▁off	-287
▁would	-288
▁imp	-289
▁person	-290
▁order	-291
ag	-292
▁may	-293
▁his	-294
ount	-295
▁dec	-296
ations	-297
ac	-298
ear	-299
▁shall	-300
▁jud	-301
age	-302
ection	-303
ision	-304
ied	-305
▁Con	-306
▁Com	-307
min	-308
sed	-309
overnment	-310
▁qu	-311
pond	-312
▁K	-313
rou	-314
▁Th	-315
▁reg	-316
ict	-317
▁U	-318
▁India	-319
ced	-320
ip	-321
ib	-322
▁No	-323
ee	-324
▁am	-325
▁ob	-326
ide	-327
ub	-328
▁rel	-329
fter	-330
pondent	-331
fer	-332
ree	-333
stitution	-334
▁made	-335
▁said	-336
▁“	-337
▁sp	-338
ific	-339
used	-340
▁law	-341
ject	-342
▁its	-343
▁ri	-344
▁un	-345
pect	-346
orm	-347
ran	-348
▁who	-349
▁tak	-350
▁Government	-351
▁ne	-352
▁pre	-353
▁mat	-354
ome	-355
ident	-356
▁De	-357
sel	-358
use	-359
ments	-360
oin	-361
oun	-362
ind	-363
▁fact	-364
▁pres	-365
rib	-366
etition	-367
ces	-368
▁-	-369
ry	-370
ered	-371
mission	-372
ose	-373
▁Re	-374
iz	-375
▁out	-376
ha	-377
▁right	-378
▁respondent	-379
me	-380
ical	-381
▁year	-382
▁do	-383
ult	-384
▁rep	-385
tain	-386
▁me	-387
iew	-388
▁their	-389
▁before	-390
fere	-391
ise	-392
mitted	-393
▁,	-394
ove	-395
▁only	-396
▁r	-397
▁issu	-398
▁consid	-399
ty	-400
▁judg	-401
pos	-402
▁pur	-403
ail	-404
▁dated	-405
ost	-406
▁ind	-407
uth	-408
▁if	-409
▁court	-410
▁ent	-411
oll	-412
ime	-413
isions	-414
▁so	-415
ory	-416
rit	-417
ious	-418
ish	-419
ile	-420
ates	-421
▁again	-422
ue	-423
▁V	-424
▁inv	-425
form	-426
▁where	-427
▁inc	-428
▁will	-429
▁cla	-430
out	-431
▁one	-432
.0	-433
▁requ	-434
irect	-435
▁same	-436
▁inter	-437
▁applic	-438
▁lear	-439
▁|	-440
ract	-441
▁accused	-442
uthor	-443
ual	-444
ings	-445
▁ass	-446
▁man	-447
istr	-448
ating	-449
ber	-450
▁time	-451
▁petition	-452
▁ca	-453
og	-454
▁k	-455
▁em	-456
▁but	-457
▁As	-458
che	-459
ong	-460
▁learned	-461
ublic	-462
▁def	-463
cc	-464
ities	-465
ention	-466
▁fil	-467
clud	-468
ollow	-469
▁SC	-470
▁against	-471
ach	-472
▁leg	-473
▁held	-474
one	-475
▁being	-476
▁pas	-477
▁follow	-478
ceed	-479
▁Jud	-480
▁should	-481
▁pl	-482
▁after	-483
ine	-484
urther	-485
▁exp	-486
ased	-487
ood	-488
ason	-489
ative	-490
▁view	-491
▁pow	-492
idence	-493
▁Constitution	-494
),	-495
ci	-496
vel	-497
▁appeal	-498
rans	-499
▁pos	-500
not	-501
▁judgment	-502
▁act	-503
▁serv	-504
▁Ch	-505
ax	-506
▁matter	-507
eral	-508
▁provisions	-509
ork	-510
▁'	-511
▁This	-512
ferred	-513
▁spec	-514
▁comm	-515
act	-516
▁pr	-517
ward	-518
ign	-519
nce	-520
ens	-521
oint	-522
▁mak	-523
▁pay	-524
▁tw	-525
ound	-526
▁giv	-527
▁ter	-528
oy	-529
▁coun	-530
cy	-531
▁land	-532
▁quest	-533
▁Pro	-534
ffect	-535
ational	-536
▁record	-537
▁into	-538
ute	-539
▁they	-540
are	-541
▁reason	-542
ided	-543
▁him	-544
▁cannot	-545
ged	-546
rial	-547
▁proceed	-548
▁Sh	-549
▁proper	-550
old	-551
▁direct	-552
▁filed	-553
ok	-554
▁trans	-555
▁li	-556
ved	-557
▁author	-558
ving	-559
▁respect	-560
aint	-561
▁We	-562
ified	-563
ility	-564
▁op	-565
ature	-566
▁when	-567
▁two	-568
lect	-569
▁conc	-570
▁set	-571
ors	-572
....	-573
▁consider	-574
▁evidence	-575
ness	-576
▁further	-577
▁‘	-578
we	-579
▁.	-580
▁pla	-581
▁ext	-582
iction	-583
▁our	-584
▁above	-585
hed	-586
▁appro	-587
▁He	-588
▁counsel	-589
ast	-590
own	-591
▁pol	-592
▁must	-593
▁pri	-594
ession	-595
▁There	-596
▁Su	-597
▁char	-598
ase	-599
led	-600
med	-601
ular	-602
ral	-603
ath	-604
▁SCC	-605
▁bet	-606
rant	-607
ired	-608
▁taken	-609
▁public	-610
▁years	-611
▁regard	-612
▁[	-613
erest	-614
ffic	-615
cept	-616
▁state	-617
very	-618
▁includ	-619
ally	-620
el	-621
erc	-622
ised	-623
▁question	-624
▁Ex	-625
ever	-626
▁Un	-627
irst	-628
▁present	-629
ms	-630
isl	-631
▁within	-632
▁them	-633
ph	-634
ible	-635
▁decision	-636
▁work	-637
▁upon	-638
wn	-639
▁power	-640
▁these	-641
▁amount	-642
bit	-643
ian	-644
▁over	-645
arl	-646
pre	-647
▁Rs	-648
▁Ben	-649
iod	-650
▁interest	-651
▁whether	-652
ond	-653
ploy	-654
ank	-655
ended	-656
▁bec	-657
ild	-658
▁On	-659
ges	-660
▁period	-661
ween	-662
ification	-663
▁App	-664
▁up	-665
▁cl	-666
any	-667
▁could	-668
velop	-669
aj	-670
ight	-671
▁between	-672
▁cle	-673
▁dif	-674
▁given	-675
rimin	-676
▁well	-677
▁sec	-678
▁her	-679
▁Section	-680
mitt	-681
icial	-682
▁Commission	-683
sec	-684
).	-685
its	-686
▁val	-687
ustice	-688
ules	-689
▁effect	-690
uring	-691
▁Sing	-692
▁submitted	-693
ecess	-694
▁application	-695
ven	-696
ited	-697
▁compl	-698
ference	-699
duct	-700
▁bas	-701
irc	-702
ite	-703
▁writ	-704
▁claim	-705
▁mar	-706
ices	-707
▁concer	-708
▁passed	-709
▁supp	-710
▁grou	-711
ex	-712
▁disc	-713
▁att	-714
▁therefore	-715
ief	-716
▁poss	-717
▁persons	-718
pri	-719
▁clear	-720
▁Cent	-721
▁par	-722
▁exam	-723
ug	-724
▁PW	-725
▁rem	-726
ined	-727
▁cases	-728
ior	-729
und	-730
ances	-731
stru	-732
owever	-733
▁Mr	-734
▁grant	-735
▁even	-736
serv	-737
▁0	-738
▁Pres	-739
hi	-740
▁date	-741
▁cer	-742
▁necess	-743
▁first	-744
▁employ	-745
gu	-746
ale	-747
▁ra	-748
▁than	-749
▁accord	-750
dition	-751
▁Ad	-752
▁Bench	-753
▁mean	-754
▁mem	-755
pose	-756
▁read	-757
▁invest	-758
▁rele	-759
ily	-760
abl	-761
av	-762
▁sent	-763
▁circ	-764
ef	-765
▁prin	-766
ife	-767
▁inform	-768
▁fin	-769
oth	-770
▁suit	-771
rad	-772
eneral	-773
por	-774
▁Judge	-775
▁does	-776
ays	-777
▁cor	-778
▁referred	-779
▁more	-780
cess	-781
rough	-782
▁stat	-783
aring	-784
▁est	-785
▁Ar	-786
ack	-787
▁Min	-788
itions	-789
part	-790
xad	-791
vant	-792
▁observ	-793
▁conf	-794
▁partic	-795
▁stated	-796
▁section	-797
ass	-798
▁form	-799
unal	-800
▁offence	-801
▁te	-802
▁find	-803
ash	-804
▁prosec	-805
▁appellants	-806
ress	-807
port	-808
▁property	-809
bitr	-810
▁President	-811
▁parties	-812
▁deal	-813
riminal	-814
▁while	-815
▁subject	-816
ap	-817
▁through	-818
ribunal	-819
▁exerc	-820
vers	-821
ke	-822
uris	-823
▁following	-824
▁An	-825
▁some	-826
▁min	-827
▁tax	-828
▁/	-829
▁allow	-830
▁purpose	-831
uted	-832
▁without	-833
ull	-834
▁about	-835
con	-836
miss	-837
ained	-838
▁count	-839
▁af	-840
har	-841
ep	-842
▁Central	-843
ores	-844
▁legisl	-845
igation	-846
▁good	-847
mittee	-848
▁&	-849
ees	-850
▁var	-851
▁Appe	-852
ient	-853
clus	-854
ater	-855
▁proceedings	-856
▁av	-857
ough	-858
▁acqu	-859
▁Singh	-860
▁circum	-861
▁concerned	-862
▁agree	-863
▁trial	-864
ric	-865
▁make	-866
▁report	-867
ix	-868
▁facts	-869
▁basis	-870
te	-871
▁hold	-872
▁ro	-873
▁rece	-874
▁mon	-875
velopment	-876
▁provision	-877
▁ground	-878
▁soc	-879
▁juris	-880
ner	-881
▁ben	-882
oresaid	-883
▁found	-884
▁aforesaid	-885
ivil	-886
▁issued	-887
▁witness	-888
▁us	-889
hal	-890
▁circumst	-891
▁authority	-892
▁own	-893
▁sc	-894
▁gu	-895
ety	-896
▁disp	-897
ural	-898
▁issue	-899
ries	-900
eg	-901
▁ord	-902
▁des	-903
▁Reg	-904
▁ret	-905
sequ	-906
▁contract	-907
ability	-908
ished	-909
pra	-910
▁required	-911
▁Res	-912
▁necessary	-913
▁need	-914
bers	-915
ince	-916
▁bel	-917
enior	-918
ting	-919
ferent	-920
anc	-921
cil	-922
section	-923
diction	-924
▁post	-925
▁then	-926
▁here	-927
▁appoint	-928
▁Indian	-929
edu	-930
▁process	-931
▁hand	-932
▁award	-933
▁new	-934
ith	-935
hip	-936
▁clause	-937
▁word	-938
▁Or	-939
▁account	-940
▁Whe	-941
▁service	-942
urn	-943
ew	-944
▁having	-945
▁deter	-946
▁occ	-947
PC	-948
▁del	-949
iff	-950
▁jurisdiction	-951
▁Shri	-952
▁different	-953
▁stand	-954
ode	-955
▁those	-956
▁rev	-957
▁both	-958
ption	-959
▁three	-960
▁take	-961
▁down	-962
ality	-963
▁name	-964
cheme	-965
▁consideration	-966
▁Offic	-967
▁establ	-968
▁benef	-969
▁ins	-970
▁relevant	-971
crib	-972
▁Committee	-973
▁place	-974
ceased	-975
▁exec	-976
ister	-977
self	-978
iness	-979
half	-980
▁car	-981
erial	-982
▁Tribunal	-983
ks	-984
▁notice	-985
ither	-986
▁aff	-987
▁behalf	-988
tic	-989
▁petitioner	-990
ouse	-991
other	-992
ital	-993
▁terms	-994
▁tre	-995
▁considered	-996
▁kn	-997
▁provid	-998
ency	-999
▁offic	-1000
ii	-1001
▁arbitr	-1002
▁determin	-1003
cip	-1004
▁:	-1005
▁circumstances	-1006
▁death	-1007
oard	-1008
▁did	-1009
ody	-1010
leg	-1011
▁various	-1012
of	-1013
▁avail	-1014
esh	-1015
man	-1016
▁lim	-1017
▁col	-1018
uty	-1019
▁dem	-1020
▁deceased	-1021
▁conv	-1022
lement	-1023
▁prosecution	-1024
▁provided	-1025
ants	-1026
ences	-1027
tern	-1028
ts	-1029
chn	-1030
▁like	-1031
supra	-1032
raph	-1033
after	-1034
▁co	-1035
▁pe	-1036
▁object	-1037
ren	-1038
ized	-1039
▁oper	-1040
▁during	-1041
onment	-1042
▁Del	-1043
▁material	-1044
▁opin	-1045
ointed	-1046
▁particular	-1047
ocu	-1048
ures	-1049
▁prev	-1050
▁rights	-1051
▁dist	-1052
▁Rules	-1053
ination	-1054
ending	-1055
▁information	-1056
▁Ru	-1057
▁equ	-1058
▁she	-1059
omm	-1060
▁inst	-1061
ier	-1062
▁Acc	-1063
IR	-1064
ause	-1065
▁what	-1066
ents	-1067
▁company	-1068
▁statement	-1069
lection	-1070
▁certain	-1071
▁including	-1072
▁nature	-1073
ret	-1074
▁However	-1075
▁adv	-1076
▁opinion	-1077
▁docu	-1078
cedure	-1079
ram	-1080
▁If	-1081
▁agreement	-1082
▁num	-1083
▁comple	-1084
▁Delhi	-1085
▁conduct	-1086
▁bus	-1087
▁det	-1088
▁Sec	-1089
▁life	-1090
▁legal	-1091
▁inj	-1092
ful	-1093
▁non	-1094
▁month	-1095
▁sit	-1096
▁priv	-1097
▁produ	-1098
allen	-1099
▁main	-1100
olog	-1101
aintiff	-1102
ring	-1103
/-	-1104
▁contin	-1105
▁Coun	-1106
▁import	-1107
▁exist	-1108
▁En	-1109
▁see	-1110
▁used	-1111
iety	-1112
▁Rule	-1113
▁manner	-1114
▁respondents	-1115
han	-1116
▁Comp	-1117
ov	-1118
▁rest	-1119
▁mention	-1120
▁For	-1121
ages	-1122
ogn	-1123
arlia	-1124
arliament	-1125
ople	-1126
▁med	-1127
ourse	-1128
▁cond	-1129
icy	-1130
▁Sp	-1131
ived	-1132
▁Chief	-1133
▁each	-1134
▁sy	-1135
▁et	-1136
▁Board	-1137
▁senior	-1138
▁bu	-1139
▁Cha	-1140
▁cro	-1141
sequent	-1142
▁because	-1143
▁exercise	-1144
▁income	-1145
ave	-1146
ars	-1147
▁Justice	-1148
read	-1149
ati	-1150
ising	-1151
ivers	-1152
▁vi	-1153
▁challen	-1154
ivid	-1155
▁prot	-1156
▁ref	-1157
▁etc	-1158
▁entit	-1159
.,	-1160
▁tr	-1161
arge	-1162
▁members	-1163
▁constru	-1164
▁ru	-1165
posed	-1166
▁Code	-1167
▁sale	-1168
▁country	-1169
▁constitution	-1170
▁due	-1171
▁abs	-1172
▁expres	-1173
gan	-1174
▁princip	-1175
less	-1176
ugned	-1177
▁pun	-1178
▁observed	-1179
▁goods	-1180
atory	-1181
bt	-1182
▁Union	-1183
preme	-1184
▁tra	-1185
▁action	-1186
ning	-1187
▁show	-1188
cipl	-1189
see	-1190
stem	-1191
▁fund	-1192
▁far	-1193
▁criminal	-1194
▁cap	-1195
the	-1196
▁Parliament	-1197
tal	-1198
▁impugned	-1199
arch	-1200
cation	-1201
........	-1202
▁prom	-1203
▁Wh	-1204
▁cre	-1205
▁call	-1206
▁business	-1207
▁police	-1208
▁use	-1209
▁result	-1210
▁thus	-1211
ives	-1212
ble	-1213
cribed	-1214
ulation	-1215
▁test	-1216
priate	-1217
▁fun	-1218
▁reference	-1219
les	-1220
▁way	-1221
▁Supreme	-1222
▁payment	-1223
▁inf	-1224
▁allowed	-1225
orpor	-1226
▁let	-1227
▁argu	-1228
▁charge	-1229
ator	-1230
partment	-1231
▁development	-1232
ook	-1233
▁Ag	-1234
▁judicial	-1235
▁fra	-1236
▁specific	-1237
ateg	-1238
▁people	-1239
iry	-1240
▁number	-1241
▁child	-1242
▁require	-1243
▁pen	-1244
▁compens	-1245
▁since	-1246
▁possession	-1247
ES	-1248
endment	-1249
lig	-1250
▁Pol	-1251
▁i	-1252
▁sentence	-1253
▁sim	-1254
ify	-1255
ob	-1256
istrict	-1257
▁Man	-1258
ividual	-1259
▁earl	-1260
osed	-1261
▁available	-1262
▁recorded	-1263
▁according	-1264
▁pass	-1265
ivision	-1266
ma	-1267
ft	-1268
▁assess	-1269
row	-1270
tra	-1271
clusion	-1272
▁paid	-1273
▁fail	-1274
ris	-1275
▁apply	-1276
▁invol	-1277
▁words	-1278
▁just	-1279
tained	-1280
▁appointment	-1281
▁day	-1282
▁plaintiff	-1283
als	-1284
▁very	-1285
stitut	-1286
par	-1287
▁every	-1288
▁situ	-1289
▁add	-1290
▁ident	-1291
iance	-1292
▁entitled	-1293
:-	-1294
ket	-1295
ately	-1296
▁services	-1297
▁individual	-1298
▁OF	-1299
▁–	-1300
agraph	-1301
▁prof	-1302
▁subst	-1303
ecial	-1304
▁edu	-1305
istration	-1306
▁opp	-1307
▁appropriate	-1308
▁party	-1309
▁duty	-1310
ai	-1311
▁Y	-1312
▁expl	-1313
▁ple	-1314
▁punish	-1315
▁defend	-1316
reed	-1317
atis	-1318
ready	-1319
▁area	-1320
▁Courts	-1321
jud	-1322
▁based	-1323
▁already	-1324
▁pract	-1325
▁orders	-1326
▁Law	-1327
▁back	-1328
▁either	-1329
▁earlier	-1330
▁viol	-1331
resent	-1332
rol	-1333
▁ten	-1334
▁another	-1335
▁conditions	-1336
▁investigation	-1337
▁Therefore	-1338
ys	-1339
▁Am	-1340
ext	-1341
▁Bank	-1342
▁National	-1343
▁sum	-1344
▁recomm	-1345
for	-1346
▁promot	-1347
▁Officer	-1348
▁dra	-1349
▁complaint	-1350
▁justice	-1351
▁At	-1352
atisf	-1353
▁making	-1354
00	-1355
▁fore	-1356
AR	-1357
▁contained	-1358
ancial	-1359
ah	-1360
▁special	-1361
TI	-1362
▁second	-1363
ought	-1364
unity	-1365
▁go	-1366
▁mentioned	-1367
ang	-1368
▁statut	-1369
▁granted	-1370
inal	-1371
▁Sub	-1372
▁indust	-1373
▁compensation	-1374
uk	-1375
▁along	-1376
▁States	-1377
▁letter	-1378
▁follows	-1379
▁fav	-1380
▁laid	-1381
king	-1382
▁policy	-1383
▁cent	-1384
▁appeals	-1385
▁itself	-1386
ctions	-1387
▁came	-1388
▁system	-1389
▁scheme	-1390
▁committed	-1391
ilar	-1392
app	-1393
▁General	-1394
▁Raj	-1395
pted	-1396
▁Division	-1397
alth	-1398
wise	-1399
ten	-1400
▁means	-1401
▁general	-1402
▁init	-1403
▁principle	-1404
ditional	-1405
▁position	-1406
▁er	-1407
ON	-1408
▁mer	-1409
▁placed	-1410
▁cause	-1411
▁favour	-1412
▁reasons	-1413
▁value	-1414
▁end	-1415
▁ph	-1416
essee	-1417
ines	-1418
ple	-1419
▁All	-1420
▁ve	-1421
▁support	-1422
EN	-1423
▁loc	-1424
▁course	-1425
▁bl	-1426
ss	-1427
▁Council	-1428
hav	-1429
▁provide	-1430
▁satisf	-1431
▁powers	-1432
here	-1433
ested	-1434
▁relating	-1435
▁Minister	-1436
▁cost	-1437
▁matters	-1438
▁Not	-1439
ER	-1440
▁rule	-1441
itation	-1442
▁though	-1443
▁Sche	-1444
by	-1445
▁techn	-1446
anding	-1447
pons	-1448
▁Leg	-1449
▁mis	-1450
andid	-1451
▁dou	-1452
▁days	-1453
▁you	-1454
▁represent	-1455
ication	-1456
▁Civil	-1457
▁sur	-1458
missed	-1459
ried	-1460
▁constitutional	-1461
▁Petition	-1462
▁herein	-1463
uch	-1464
ential	-1465
ining	-1466
▁Direct	-1467
▁officer	-1468
eep	-1469
agistr	-1470
▁provides	-1471
▁candid	-1472
af	-1473
▁Author	-1474
▁dismissed	-1475
conom	-1476
uman	-1477
▁Se	-1478
▁specified	-1479
▁sect	-1480
▁valid	-1481
ively	-1482
poses	-1483
▁chan	-1484
▁lead	-1485
ruct	-1486
▁witnesses	-1487
ashtra	-1488
▁except	-1489
▁gre	-1490
▁body	-1491
▁bank	-1492
▁elect	-1493
▁interpre	-1494
▁Gu	-1495
▁ens	-1496
▁meet	-1497
▁transfer	-1498
rect	-1499
▁entire	-1500
▁prescribed	-1501
▁courts	-1502
▁compet	-1503
▁project	-1504
▁perform	-1505
▁alle	-1506
ata	-1507
▁Ass	-1508
▁point	-1509
ording	-1510
▁enact	-1511
istered	-1512
▁depos	-1513
▁class	-1514
▁accept	-1515
rie	-1516
▁Thus	-1517
▁prog	-1518
ared	-1519
▁rules	-1520
▁IPC	-1521
▁cred	-1522
▁stud	-1523
▁know	-1524
agistrate	-1525
▁society	-1526
hib	-1527
quiry	-1528
▁submission	-1529
▁accordance	-1530
ari	-1531
ering	-1532
▁fam	-1533
ell	-1534
▁decl	-1535
AN	-1536
▁house	-1537
▁received	-1538
▁Lt	-1539
▁sign	-1540
▁indic	-1541
▁mod	-1542
▁Part	-1543
▁open	-1544
▁come	-1545
▁II	-1546
wards	-1547
agement	-1548
ather	-1549
▁paragraph	-1550
▁ser	-1551
llate	-1552
▁categ	-1553
ology	-1554
▁purposes	-1555
rime	-1556
gg	-1557
▁dispute	-1558
▁aside	-1559
▁directed	-1560
▁activ	-1561
▁asse	-1562
▁Respondent	-1563
ured	-1564
▁namely	-1565
▁continu	-1566
▁alleged	-1567
▁taking	-1568
▁mere	-1569
▁Prad	-1570
▁bro	-1571
▁full	-1572
ck	-1573
iary	-1574
soci	-1575
▁According	-1576
▁Ram	-1577
▁force	-1578
▁however	-1579
▁detail	-1580
▁stage	-1581
cing	-1582
▁done	-1583
▁discus	-1584
▁orig	-1585
▁Serv	-1586
▁office	-1587
tak	-1588
▁benefit	-1589
▁constit	-1590
▁medical	-1591
ibility	-1592
▁give	-1593
▁build	-1594
▁high	-1595
with	-1596
▁months	-1597
▁procedure	-1598
▁admin	-1599
irm	-1600
▁Magistrate	-1601
▁statutory	-1602
▁decisions	-1603
▁vide	-1604
▁thereof	-1605
acy	-1606
▁conclusion	-1607
missions	-1608
▁lit	-1609
spect	-1610
mber	-1611
▁To	-1612
urre	-1613
ne	-1614
way	-1615
▁get	-1616
tific	-1617
▁Mem	-1618
air	-1619
▁Prov	-1620
▁notification	-1621
▁Ltd	-1622
isition	-1623
oss	-1624
mb	-1625
olution	-1626
AL	-1627
▁Te	-1628
taining	-1629
eed	-1630
epend	-1631
ciples	-1632
▁otherwise	-1633
BI	-1634
ulations	-1635
▁acce	-1636
▁establish	-1637
▁Department	-1638
▁common	-1639
▁fl	-1640
chan	-1641
▁met	-1642
val	-1643
ya	-1644
▁important	-1645
arg	-1646
oney	-1647
▁che	-1648
▁econom	-1649
▁Pradesh	-1650
▁deem	-1651
▁Legisl	-1652
duced	-1653
orted	-1654
▁That	-1655
stitutions	-1656
▁offences	-1657
▁Police	-1658
umar	-1659
▁appointed	-1660
▁assessee	-1661
▁District	-1662
▁financial	-1663
ID	-1664
▁exper	-1665
▁Dr	-1666
▁aspect	-1667
▁pat	-1668
▁Commissioner	-1669
ked	-1670
▁Govern	-1671
▁cust	-1672
▁After	-1673
inary	-1674
▁raised	-1675
lied	-1676
▁sett	-1677
▁conn	-1678
▁Judges	-1679
▁long	-1680
▁mind	-1681
orporation	-1682
▁purch	-1683
▁Eng	-1684
▁prior	-1685
anies	-1686
▁ir	-1687
▁my	-1688
▁clearly	-1689
overed	-1690
▁Pr	-1691
▁note	-1692
fficient	-1693
▁now	-1694
lause	-1695
▁hig	-1696
dule	-1697
▁Col	-1698
▁Bh	-1699
▁Par	-1700
mental	-1701
▁Co	-1702
▁recogn	-1703
▁Univers	-1704
ons	-1705
▁put	-1706
▁registered	-1707
▁dep	-1708
▁accepted	-1709
▁refer	-1710
▁But	-1711
igned	-1712
▁remain	-1713
utive	-1714
ool	-1715
▁Authority	-1716
rought	-1717
▁arbitration	-1718
▁private	-1719
▁New	-1720
▁final	-1721
ters	-1722
▁petitioners	-1723
▁documents	-1724
▁sought	-1725
▁rate	-1726
▁They	-1727
risonment	-1728
▁Special	-1729
arily	-1730
▁Al	-1731
▁IN	-1732
ulated	-1733
hic	-1734
▁Public	-1735
uf	-1736
▁noted	-1737
▁Appeal	-1738
ards	-1739
▁correct	-1740
PW	-1741
itor	-1742
▁These	-1743
▁Cr	-1744
▁str	-1745
oh	-1746
▁expression	-1747
▁total	-1748
▁less	-1749
▁organ	-1750
up	-1751
▁wom	-1752
▁Order	-1753
▁doubt	-1754
▁Further	-1755
▁decided	-1756
▁government	-1757
▁opport	-1758
▁meaning	-1759
▁recommend	-1760
▁sever	-1761
istry	-1762
▁context	-1763
▁san	-1764
rest	-1765
hes	-1766
▁extent	-1767
uly	-1768
▁defendant	-1769
▁reasonable	-1770
▁assessment	-1771
▁ur	-1772
▁imprisonment	-1773
▁Cont	-1774
▁decree	-1775
▁appearing	-1776
lf	-1777
empt	-1778
▁principles	-1779
▁fix	-1780
▁respons	-1781
▁substant	-1782
arn	-1783
▁education	-1784
▁Report	-1785
▁charges	-1786
▁age	-1787
...	-1788
▁water	-1789
▁contended	-1790
ird	-1791
▁applicable	-1792
ower	-1793
ury	-1794
standing	-1795
▁established	-1796
▁civil	-1797
▁adver	-1798
▁reject	-1799
▁nor	-1800
▁incident	-1801
▁env	-1802
action	-1803
▁Kumar	-1804
ainant	-1805
au	-1806
▁undertak	-1807
sp	-1808
ajor	-1809
▁list	-1810
▁employees	-1811
▁mand	-1812
▁gen	-1813
▁level	-1814
▁Artic	-1815
▁separ	-1816
riage	-1817
ufact	-1818
▁took	-1819
ization	-1820
ik	-1821
IC	-1822
iber	-1823
ray	-1824
▁issues	-1825
▁relied	-1826
▁lic	-1827
ield	-1828
▁examined	-1829
▁den	-1830
▁incre	-1831
▁affect	-1832
▁called	-1833
▁below	-1834
▁ensure	-1835
ictim	-1836
▁Ma	-1837
▁family	-1838
oper	-1839
▁review	-1840
imum	-1841
▁Criminal	-1842
▁unless	-1843
day	-1844
▁brought	-1845
▁Adv	-1846
▁initi	-1847
▁discl	-1848
▁subsequent	-1849
▁amendment	-1850
▁When	-1851
▁Company	-1852
▁ann	-1853
▁meas	-1854
▁authorities	-1855
arent	-1856
▁holding	-1857
▁human	-1858
▁lease	-1859
▁regarding	-1860
utes	-1861
▁market	-1862
▁fall	-1863
▁Corporation	-1864
angu	-1865
▁hearing	-1866
▁examination	-1867
--	-1868
osp	-1869
sw	-1870
uses	-1871
▁Lear	-1872
ron	-1873
urity	-1874
▁money	-1875
▁suff	-1876
ically	-1877
amental	-1878
ructure	-1879
▁possible	-1880
ense	-1881
▁sugg	-1882
▁several	-1883
omb	-1884
▁Nos	-1885
ached	-1886
havan	-1887
mes	-1888
▁care	-1889
ism	-1890
▁institutions	-1891
ironment	-1892
▁function	-1893
▁victim	-1894
▁short	-1895
orld	-1896
▁demand	-1897
itiz	-1898
irection	-1899
▁decla	-1900
▁independ	-1901
▁delay	-1902
hold	-1903
▁relation	-1904
▁ess	-1905
▁ver	-1906
▁vehic	-1907
▁social	-1908
akh	-1909
hing	-1910
▁others	-1911
eak	-1912
ira	-1913
overy	-1914
ps	-1915
tificate	-1916
▁Mad	-1917
▁liable	-1918
▁mot	-1919
II	-1920
▁major	-1921
ves	-1922
▁similar	-1923
▁towards	-1924
▁Learned	-1925
▁implement	-1926
▁nan	-1927
vi	-1928
ways	-1929
ercial	-1930
ace	-1931
▁most	-1932
▁penal	-1933
▁appre	-1934
ENT	-1935
▁Governor	-1936
▁treat	-1937
▁complete	-1938
pe	-1939
▁cop	-1940
aged	-1941
▁propos	-1942
▁direction	-1943
▁enter	-1944
▁PR	-1945
▁original	-1946
▁relief	-1947
▁Bhavan	-1948
▁vis	-1949
▁situation	-1950
▁become	-1951
get	-1952
mon	-1953
uled	-1954
▁construction	-1955
urance	-1956
ana	-1957
▁succ	-1958
▁manufact	-1959
▁institution	-1960
▁Ministry	-1961
▁pointed	-1962
▁light	-1963
▁control	-1964
ging	-1965
▁Pl	-1966
▁conviction	-1967
AT	-1968
oid	-1969
▁your	-1970
na	-1971
idav	-1972
ually	-1973
▁deemed	-1974
▁complainant	-1975
come	-1976
▁term	-1977
▁express	-1978
▁document	-1979
band	-1980
chool	-1981
▁free	-1982
▁eng	-1983
▁Secret	-1984
▁therein	-1985
▁And	-1986
▁head	-1987
▁reserv	-1988
▁product	-1989
▁member	-1990
▁Tax	-1991
▁interpret	-1992
▁doct	-1993
▁plan	-1994
▁say	-1995
▁till	-1996
▁previous	-1997
▁judgments	-1998
iso	-1999
▁artic	-2000
▁pursu	-2001
▁share	-2002
HE	-2003
▁large	-2004
anation	-2005
▁occas	-2006
▁many	-2007
▁event	-2008
atural	-2009
medi	-2010
▁answ	-2011
▁sal	-2012
isation	-2013
rust	-2014
CI	-2015
▁pet	-2016
▁areas	-2017
▁develop	-2018
az	-2019
▁legislation	-2020
▁qual	-2021
▁declar	-2022
▁pending	-2023
ledge	-2024
▁relig	-2025
▁trade	-2026
▁relations	-2027
▁directions	-2028
▁building	-2029
▁wherein	-2030
iced	-2031
▁loss	-2032
▁finding	-2033
▁alleg	-2034
▁vac	-2035
▁err	-2036
▁Director	-2037
▁ke	-2038
▁disch	-2039
unic	-2040
▁defin	-2041
▁facil	-2042
ories	-2043
ospital	-2044
ta	-2045
▁While	-2046
▁proved	-2047
lying	-2048
▁contention	-2049
▁five	-2050
pati	-2051
▁giving	-2052
▁payable	-2053
▁FIR	-2054
▁University	-2055
▁fundamental	-2056
▁higher	-2057
▁real	-2058
▁filing	-2059
▁submit	-2060
▁affidav	-2061
ope	-2062
Ex	-2063
▁protect	-2064
▁Under	-2065
essions	-2066
bs	-2067
▁Be	-2068
ably	-2069
▁citiz	-2070
▁Muk	-2071
▁proviso	-2072
iii	-2073
▁six	-2074
▁collect	-2075
▁Scheme	-2076
ides	-2077
ake	-2078
DA	-2079
mbly	-2080
▁instru	-2081
▁para	-2082
une	-2083
▁Fin	-2084
▁thereafter	-2085
ink	-2086
essional	-2087
▁health	-2088
missible	-2089
▁condition	-2090
१०	-2091
▁involved	-2092
▁Schedule	-2093
▁Development	-2094
▁tru	-2095
▁price	-2096
▁include	-2097
ashtrapati	-2098
▁bail	-2099
illeg	-2100
▁leave	-2101
▁sufficient	-2102
▁norm	-2103
▁saf	-2104
iding	-2105
ery	-2106
chie	-2107
▁absence	-2108
▁contain	-2109
▁laws	-2110
▁acquisition	-2111
ricult	-2112
▁statute	-2113
▁proceeding	-2114
▁lo	-2115
▁Rashtrapati	-2116
ock	-2117
▁neg	-2118
▁intern	-2119
rat	-2120
jee	-2121
com	-2122
pril	-2123
to	-2124
▁agg	-2125
▁illeg	-2126
▁treated	-2127
▁carry	-2128
▁fee	-2129
▁Chap	-2130
],	-2131
phas	-2132
▁Bill	-2133
anguage	-2134
▁sanction	-2135
▁contr	-2136
IT	-2137
ises	-2138
ium	-2139
▁sm	-2140
▁grow	-2141
▁AIR	-2142
▁arrest	-2143
▁particip	-2144
▁intention	-2145
▁four	-2146
▁pray	-2147
▁achie	-2148
▁bre	-2149
▁among	-2150
▁written	-2151
▁premis	-2152
▁opportunity	-2153
▁crime	-2154
▁regular	-2155
▁consist	-2156
que	-2157
▁keep	-2158
reedom	-2159
▁world	-2160
work	-2161
▁deed	-2162
▁officers	-2163
uary	-2164
▁essential	-2165
▁Appellant	-2166
▁wind	-2167
ience	-2168
▁Chapter	-2169
▁protection	-2170
▁By	-2171
▁submissions	-2172
▁much	-2173
ours	-2174
▁competent	-2175
▁She	-2176
▁admitted	-2177
▁Med	-2178
ends	-2179
▁last	-2180
▁Writ	-2181
venue	-2182
▁April	-2183
▁Bomb	-2184
▁fe	-2185
ics	-2186
▁impro	-2187
▁left	-2188
▁existing	-2189
▁children	-2190
acity	-2191
▁Jan	-2192
▁guil	-2193
▁personal	-2194
▁rend	-2195
▁challenge	-2196
▁interpretation	-2197
▁tem	-2198
▁framed	-2199
▁fac	-2200
▁fair	-2201
▁today	-2202
formation	-2203
resh	-2204
ternal	-2205
▁war	-2206
icult	-2207
hen	-2208
▁sche	-2209
▁Where	-2210
OR	-2211
▁dedu	-2212
▁serious	-2213
erated	-2214
▁merely	-2215
ember	-2216
▁March	-2217
▁judic	-2218
▁Procedure	-2219
▁allot	-2220
▁conducted	-2221
▁contem	-2222
usband	-2223
▁accordingly	-2224
vention	-2225
▁Bombay	-2226
▁List	-2227
▁noticed	-2228
equ	-2229
▁heard	-2230
▁aut	-2231
vey	-2232
ension	-2233
▁assist	-2234
▁working	-2235
▁legislative	-2236
▁THE	-2237
▁occasion	-2238
▁acquit	-2239
▁legislature	-2240
▁Such	-2241
pur	-2242
▁dri	-2243
▁har	-2244
▁hel	-2245
IN	-2246
▁reads	-2247
▁awarded	-2248
▁Me	-2249
▁port	-2250
▁furn	-2251
▁economic	-2252
▁Soc	-2253
ires	-2254
yond	-2255
▁House	-2256
▁Clause	-2257
▁proposed	-2258
▁punishment	-2259
▁step	-2260
ties	-2261
▁enfor	-2262
▁activities	-2263
ancy	-2264
▁owner	-2265
dra	-2266
reg	-2267
orth	-2268
▁Lim	-2269
▁prep	-2270
▁immedi	-2271
▁followed	-2272
▁providing	-2273
cluded	-2274
▁super	-2275
ender	-2276
▁declaration	-2277
retion	-2278
IA	-2279
▁sust	-2280
LP	-2281
▁role	-2282
▁program	-2283
ipt	-2284
lim	-2285
umb	-2286
▁Indust	-2287
▁approach	-2288
enced	-2289
▁candidates	-2290
▁applied	-2291
▁beyond	-2292
ently	-2293
▁official	-2294
▁fine	-2295
▁Secretary	-2296
▁Provided	-2297
▁foreign	-2298
▁bal	-2299
▁Service	-2300
▁knowledge	-2301
▁contrary	-2302
▁security	-2303
erve	-2304
▁field	-2305
▁rejected	-2306
▁Mar	-2307
▁produced	-2308
ault	-2309
rieved	-2310
▁companies	-2311
▁observations	-2312
TION	-2313
▁sector	-2314
atives	-2315
ocate	-2316
▁consum	-2317
▁marriage	-2318
▁dealing	-2319
▁freedom	-2320
amp	-2321
▁mining	-2322
▁needs	-2323
round	-2324
eration	-2325
ership	-2326
▁restr	-2327
▁bar	-2328
law	-2329
▁contrib	-2330
aries	-2331
uries	-2332
▁affidavit	-2333
▁Single	-2334
▁belong	-2335
▁expressed	-2336
▁intro	-2337
▁petitions	-2338
▁declared	-2339
abil	-2340
▁Chair	-2341
ught	-2342
▁Chand	-2343
▁commission	-2344
▁discretion	-2345
▁und	-2346
▁certificate	-2347
ize	-2348
anch	-2349
▁rendered	-2350
wal	-2351
aving	-2352
▁return	-2353
de	-2354
▁file	-2355
▁vill	-2356
▁considering	-2357
▁whole	-2358
▁tit	-2359
enc	-2360
▁Asse	-2361
▁anal	-2362
▁best	-2363
▁vehicle	-2364
▁how	-2365
▁management	-2366
▁bring	-2367
▁natural	-2368
▁functions	-2369
vest	-2370
go	-2371
▁dam	-2372
▁adjud	-2373
▁local	-2374
▁lakh	-2375
▁preferred	-2376
▁requirement	-2377
▁success	-2378
▁practice	-2379
▁nex	-2380
▁start	-2381
arant	-2382
▁election	-2383
▁grounds	-2384
▁women	-2385
▁penalty	-2386
ues	-2387
▁es	-2388
▁appreci	-2389
▁fut	-2390
ources	-2391
▁imposed	-2392
▁maintain	-2393
▁concept	-2394
▁Pri	-2395
▁premises	-2396
)(	-2397
▁With	-2398
................	-2399
abad	-2400
▁argued	-2401
▁distin	-2402
▁run	-2403
under	-2404
▁approval	-2405
▁language	-2406
aka	-2407
omet	-2408
▁credit	-2409
bsite	-2410
▁appears	-2411
▁execution	-2412
▁known	-2413
▁receipt	-2414
▁Mukher	-2415
sociation	-2416
▁employee	-2417
ional	-2418
▁Comm	-2419
▁Trial	-2420
▁reliance	-2421
▁states	-2422
▁capital	-2423
thing	-2424
▁continue	-2425
tt	-2426
▁punishable	-2427
▁diff	-2428
▁Judicial	-2429
ogniz	-2430
▁questions	-2431
▁husband	-2432
illed	-2433
▁impl	-2434
▁withdra	-2435
▁Hon	-2436
ware	-2437
▁First	-2438
▁basic	-2439
iving	-2440
encies	-2441
▁Dis	-2442
▁carried	-2443
▁x	-2444
▁seen	-2445
stitute	-2446
icted	-2447
▁Even	-2448
▁enc	-2449
▁additional	-2450
▁gra	-2451
▁book	-2452
▁inn	-2453
acc	-2454
land	-2455
▁great	-2456
▁registration	-2457
reng	-2458
▁third	-2459
▁ce	-2460
▁whose	-2461
▁benefits	-2462
▁addition	-2463
▁copy	-2464
▁liability	-2465
▁repe	-2466
▁termin	-2467
opted	-2468
▁acquired	-2469
▁change	-2470
▁operation	-2471
▁environment	-2472
▁fixed	-2473
▁Mukherjee	-2474
ares	-2475
imate	-2476
▁rent	-2477
tion	-2478
▁dom	-2479
▁plead	-2480
▁Cons	-2481
▁liber	-2482
▁limited	-2483
▁trust	-2484
▁Rec	-2485
lines	-2486
▁failed	-2487
▁prohib	-2488
erg	-2489
▁treatment	-2490
▁satisfied	-2491
jection	-2492
▁Ab	-2493
▁caused	-2494
▁May	-2495
▁settled	-2496
▁Appellate	-2497
▁adopted	-2498
lege	-2499
ases	-2500
▁emp	-2501
duled	-2502
igating	-2503
▁production	-2504
▁SLP	-2505
▁wife	-2506
▁whom	-2507
▁Ent	-2508
▁executive	-2509
▁polit	-2510
ully	-2511
▁outs	-2512
▁request	-2513
▁students	-2514
▁Additional	-2515
ugust	-2516
▁national	-2517
११	-2518
urrent	-2519
▁consp	-2520
▁industrial	-2521
ats	-2522
racted	-2523
▁away	-2524
alc	-2525
▁Is	-2526
▁January	-2527
hod	-2528
▁website	-2529
▁imm	-2530
▁recovery	-2531
▁true	-2532
▁consent	-2533
▁category	-2534
cember	-2535
▁arising	-2536
cer	-2537
acher	-2538
▁consequ	-2539
▁nothing	-2540
▁Sessions	-2541
▁makes	-2542
ony	-2543
’.	-2544
▁scope	-2545
▁signific	-2546
▁injuries	-2547
▁defined	-2548
▁meeting	-2549
▁Le	-2550
abour	-2551
▁prevent	-2552
imes	-2553
▁Since	-2554
int	-2555
▁ut	-2556
▁elig	-2557
▁himself	-2558
▁corpor	-2559
▁streng	-2560
▁defence	-2561
▁amended	-2562
▁Income	-2563
ans	-2564
ross	-2565
▁commercial	-2566
▁dealt	-2567
▁related	-2568
▁Information	-2569
▁seeking	-2570
▁Karn	-2571
▁instant	-2572
▁subs	-2573
istrative	-2574
airs	-2575
ators	-2576
▁difficult	-2577
▁ought	-2578
▁determined	-2579
▁separate	-2580
▁posts	-2581
ataka	-2582
▁Expl	-2583
▁details	-2584
orts	-2585
▁remed	-2586
unt	-2587
▁father	-2588
urd	-2589
abor	-2590
▁unt	-2591
▁arri	-2592
▁suggest	-2593
▁capacity	-2594
fully	-2595
▁future	-2596
▁resolution	-2597
oor	-2598
irt	-2599
orne	-2600
▁Pre	-2601
acter	-2602
▁sing	-2603
ying	-2604
▁sex	-2605
▁urged	-2606
IS	-2607
▁determination	-2608
▁lev	-2609
▁Whether	-2610
▁inquiry	-2611
▁conferred	-2612
▁help	-2613
▁definition	-2614
eb	-2615
ruit	-2616
▁countries	-2617
▁Regulations	-2618
▁claimed	-2619
rong	-2620
▁eff	-2621
▁underst	-2622
▁window	-2623
anced	-2624
▁pension	-2625
war	-2626
▁stip	-2627
▁substantial	-2628
▁trad	-2629
▁permission	-2630
ptember	-2631
▁bound	-2632
▁findings	-2633
▁once	-2634
▁PRES	-2635
▁What	-2636
▁nam	-2637
▁Assembly	-2638
adem	-2639
▁cogniz	-2640
▁minor	-2641
▁obtained	-2642
▁liberty	-2643
▁covered	-2644
▁ran	-2645
▁August	-2646
AC	-2647
▁Articles	-2648
▁Karnataka	-2649
▁Arbitr	-2650
▁executed	-2651
▁look	-2652
▁applications	-2653
▁consult	-2654
▁outside	-2655
▁applicant	-2656
▁prim	-2657
▁permitted	-2658
▁quality	-2659
▁Pun	-2660
▁Bi	-2661
▁nom	-2662
ancell	-2663
▁decide	-2664
▁performance	-2665
▁specifically	-2666
▁forward	-2667
gether	-2668
▁together	-2669
▁contro	-2670
▁December	-2671
▁Limited	-2672
ala	-2673
▁appellate	-2674
▁later	-2675
▁ul	-2676
▁appear	-2677
ifications	-2678
▁Pat	-2679
▁argument	-2680
rast	-2681
▁acts	-2682
▁govern	-2683
▁challenged	-2684
▁guarant	-2685
▁method	-2686
ling	-2687
▁training	-2688
▁Ter	-2689
cement	-2690
cise	-2691
▁integ	-2692
▁anything	-2693
uation	-2694
▁el	-2695
▁assets	-2696
▁cover	-2697
inate	-2698
ras	-2699
▁Legislature	-2700
▁data	-2701
▁dispos	-2702
▁Second	-2703
▁setting	-2704
iture	-2705
▁promotion	-2706
▁existence	-2707
▁vol	-2708
▁mo	-2709
▁international	-2710
▁debt	-2711
▁cult	-2712
▁contempl	-2713
▁illegal	-2714
▁expect	-2715
▁industry	-2716
iet	-2717
uties	-2718
▁guide	-2719
▁judge	-2720
▁exercised	-2721
▁cho	-2722
wh	-2723
tax	-2724
▁character	-2725
▁judiciary	-2726
IL	-2727
itive	-2728
00/-	-2729
▁Right	-2730
▁validity	-2731
li	-2732
sh	-2733
▁convicted	-2734
▁absol	-2735
▁cross	-2736
▁constituted	-2737
▁next	-2738
▁includes	-2739
nel	-2740
▁employment	-2741
▁limitation	-2742
▁independent	-2743
▁wrong	-2744
▁went	-2745
▁title	-2746
▁September	-2747
omes	-2748
▁resident	-2749
▁school	-2750
▁fri	-2751
urer	-2752
▁neither	-2753
▁status	-2754
pr	-2755
▁group	-2756
▁Im	-2757
▁deals	-2758
▁happ	-2759
▁examine	-2760
ource	-2761
SC	-2762
▁violation	-2763
▁Cl	-2764
▁Sim	-2765
withstanding	-2766
jab	-2767
IDENT	-2768
▁informed	-2769
▁always	-2770
▁custody	-2771
▁Edu	-2772
▁gl	-2773
▁fit	-2774
▁phys	-2775
ifying	-2776
▁entered	-2777
▁prosecut	-2778
▁statements	-2779
iver	-2780
clusive	-2781
▁candidate	-2782
▁injury	-2783
▁mult	-2784
lfare	-2785
▁particularly	-2786
ote	-2787
▁Bar	-2788
▁selection	-2789
ored	-2790
▁access	-2791
▁thereby	-2792
ober	-2793
▁connect	-2794
pro	-2795
▁kept	-2796
▁PRESIDENT	-2797
▁Senior	-2798
▁exceed	-2799
▁minimum	-2800
▁discussion	-2801
▁dismiss	-2802
▁effective	-2803
▁Mahar	-2804
▁regul	-2805
urred	-2806
▁drawn	-2807
io	-2808
▁never	-2809
▁growth	-2810
▁plea	-2811
▁opens	-2812
▁supply	-2813
▁intended	-2814
atures	-2815
▁plant	-2816
▁relationship	-2817
▁content	-2818
aled	-2819
irmed	-2820
▁still	-2821
view	-2822
▁clar	-2823
oms	-2824
▁Hence	-2825
▁larg	-2826
▁disposed	-2827
▁measures	-2828
▁Engine	-2829
ins	-2830
▁duties	-2831
▁requires	-2832
▁revision	-2833
▁political	-2834
▁Trans	-2835
ressed	-2836
agar	-2837
▁One	-2838
▁Sab	-2839
▁hence	-2840
▁prove	-2841
▁deposit	-2842
▁included	-2843
ruary	-2844
ebruary	-2845
▁instance	-2846
३०	-2847
▁face	-2848
▁commence	-2849
ubl	-2850
▁July	-2851
▁Admin	-2852
▁ill	-2853
RA	-2854
EC	-2855
aper	-2856
▁crit	-2857
▁stay	-2858
omp	-2859
▁materials	-2860
iation	-2861
▁absolute	-2862
▁rightly	-2863
urrence	-2864
▁Thereafter	-2865
cient	-2866
▁connection	-2867
▁prepared	-2868
▁steps	-2869
▁joint	-2870
aff	-2871
▁kind	-2872
▁road	-2873
▁tribunal	-2874
▁play	-2875
▁Regulation	-2876
▁Pran	-2877
erala	-2878
▁oblig	-2879
▁tenant	-2880
▁presum	-2881
▁ear	-2882
▁citizens	-2883
▁rese	-2884
▁Punjab	-2885
▁occup	-2886
ctober	-2887
▁vested	-2888
▁properties	-2889
▁merit	-2890
▁Chairman	-2891
gal	-2892
▁presence	-2893
▁default	-2894
▁virt	-2895
selves	-2896
▁mor	-2897
iously	-2898
▁administration	-2899
▁Techn	-2900
▁Def	-2901
▁mort	-2902
▁interim	-2903
▁territ	-2904
▁agricult	-2905
▁shown	-2906
mitting	-2907
▁approved	-2908
▁limit	-2909
▁agreed	-2910
▁extend	-2911
▁Em	-2912
▁Lord	-2913
'.	-2914
adha	-2915
lu	-2916
▁hospital	-2917
▁shares	-2918
▁discharge	-2919
▁experience	-2920
men	-2921
▁educ	-2922
▁Kerala	-2923
▁community	-2924
▁guilty	-2925
usal	-2926
change	-2927
▁design	-2928
vent	-2929
▁transferred	-2930
▁technical	-2931
jar	-2932
rish	-2933
▁signed	-2934
▁Medical	-2935
.)	-2936
▁Sm	-2937
riev	-2938
▁proble	-2939
▁disputes	-2940
▁prejud	-2941
▁records	-2942
amil	-2943
▁obl	-2944
▁transaction	-2945
EL	-2946
▁lay	-2947
▁brother	-2948
▁Nove	-2949
▁near	-2950
▁redu	-2951
▁Pranab	-2952
▁November	-2953
▁impos	-2954
ously	-2955
▁assum	-2956
accused	-2957
▁Fore	-2958
▁IND	-2959
▁democ	-2960
▁enacted	-2961
▁commit	-2962
▁entry	-2963
▁February	-2964
▁Vs	-2965
herein	-2966
▁aspects	-2967
▁June	-2968
▁created	-2969
▁lands	-2970
▁single	-2971
▁directly	-2972
▁Prin	-2973
▁least	-2974
▁immediately	-2975
▁distrib	-2976
rix	-2977
▁ren	-2978
▁accident	-2979
▁turn	-2980
lling	-2981
▁respective	-2982
▁Assist	-2983
▁Explanation	-2984
▁ty	-2985
▁publ	-2986
▁side	-2987
▁discrimin	-2988
▁sole	-2989
▁requirements	-2990
▁exem	-2991
▁small	-2992
cell	-2993
ists	-2994
rated	-2995
▁arise	-2996
▁Invest	-2997
▁Hind	-2998
▁determine	-2999
▁Agree	-3000
▁quant	-3001
▁)	-3002
cent	-3003
▁recommendations	-3004
ern	-3005
rut	-3006
▁US	-3007
▁address	-3008
▁balance	-3009
▁judges	-3010
ST	-3011
▁privacy	-3012
be	-3013
ead	-3014
▁factors	-3015
▁Fund	-3016
iracy	-3017
▁emphas	-3018
▁extended	-3019
▁passing	-3020
▁costs	-3021
stituted	-3022
▁writing	-3023
▁hist	-3024
▁October	-3025
▁patient	-3026
ricity	-3027
ictions	-3028
▁food	-3029
].	-3030
▁village	-3031
▁So	-3032
▁unf	-3033
hereinafter	-3034
▁alia	-3035
▁Dep	-3036
▁Entry	-3037
▁merits	-3038
▁broad	-3039
▁adequ	-3040
att	-3041
oval	-3042
▁Intern	-3043
alse	-3044
▁aggrieved	-3045
▁technology	-3046
▁facilities	-3047
▁conver	-3048
▁Collect	-3049
rastructure	-3050
ched	-3051
▁Counsel	-3052
▁Lal	-3053
▁yet	-3054
▁concern	-3055
iring	-3056
▁Land	-3057
▁insp	-3058
▁error	-3059
▁crores	-3060
▁attempt	-3061
▁Education	-3062
ali	-3063
sequently	-3064
▁bid	-3065
far	-3066
▁gain	-3067
ingu	-3068
▁Moh	-3069
▁deb	-3070
operative	-3071
▁alone	-3072
▁Sha	-3073
unicip	-3074
▁reading	-3075
ulf	-3076
▁compliance	-3077
ane	-3078
mar	-3079
RI	-3080
’,	-3081
urs	-3082
▁Similar	-3083
ani	-3084
urder	-3085
▁purchase	-3086
▁preced	-3087
▁conspiracy	-3088
cle	-3089
▁dev	-3090
▁fresh	-3091
▁commun	-3092
▁permit	-3093
kar	-3094
▁justified	-3095
▁deg	-3096
▁able	-3097
ograph	-3098
▁amend	-3099
▁guidelines	-3100
▁adj	-3101
▁dign	-3102
manent	-3103
▁admission	-3104
▁progress	-3105
▁claims	-3106
▁AN	-3107
▁contra	-3108
▁safe	-3109
▁Sect	-3110
▁Rep	-3111
▁apart	-3112
▁allegations	-3113
▁false	-3114
▁fully	-3115
▁equal	-3116
ocation	-3117
▁charged	-3118
aging	-3119
ademic	-3120
▁IT	-3121
ick	-3122
▁cognizance	-3123
reat	-3124
▁depend	-3125
▁Ins	-3126
▁Ac	-3127
▁CBI	-3128
▁Lok	-3129
▁arbitrator	-3130
▁comput	-3131
▁ey	-3132
ancies	-3133
▁district	-3134
▁majority	-3135
vement	-3136
▁son	-3137
sofar	-3138
ems	-3139
now	-3140
▁Sur	-3141
▁Speak	-3142
▁article	-3143
▁constitute	-3144
anj	-3145
▁murder	-3146
osure	-3147
cience	-3148
▁sense	-3149
CT	-3150
eng	-3151
ental	-3152
adhaar	-3153
▁structure	-3154
bitral	-3155
▁around	-3156
▁susp	-3157
▁warrant	-3158
▁sk	-3159
erted	-3160
▁commencement	-3161
rade	-3162
rine	-3163
▁Des	-3164
▁reit	-3165
▁arran	-3166
▁becomes	-3167
din	-3168
▁Int	-3169
▁Elect	-3170
kh	-3171
▁His	-3172
enance	-3173
▁permissible	-3174
External	-3175
▁self	-3176
▁Services	-3177
▁interests	-3178
itable	-3179
adu	-3180
▁Aadhaar	-3181
▁importance	-3182
▁got	-3183
▁plot	-3184
aryana	-3185
▁Maharashtra	-3186
ison	-3187
▁net	-3188
▁bi	-3189
▁Priv	-3190
▁select	-3191
▁assistance	-3192
ches	-3193
▁too	-3194
▁research	-3195
▁aver	-3196
▁nation	-3197
rid	-3198
ulted	-3199
▁Tamil	-3200
enses	-3201
No	-3202
▁Shar	-3203
ruitment	-3204
,00	-3205
▁ado	-3206
ills	-3207
urned	-3208
▁Ra	-3209
▁Nar	-3210
though	-3211
▁duly	-3212
▁Ann	-3213
▁Agreement	-3214
▁Per	-3215
▁standards	-3216
▁Trust	-3217
▁answer	-3218
rop	-3219
ude	-3220
using	-3221
▁empow	-3222
▁enquiry	-3223
▁led	-3224
most	-3225
▁eligible	-3226
▁III	-3227
▁speak	-3228
enditure	-3229
▁dead	-3230
▁obligation	-3231
▁From	-3232
▁removal	-3233
▁Scheduled	-3234
▁...	-3235
▁Haryana	-3236
▁investment	-3237
१२	-3238
▁Advocate	-3239
▁educational	-3240
▁implementation	-3241
▁continued	-3242
lies	-3243
▁enj	-3244
▁asked	-3245
UR	-3246
roup	-3247
▁few	-3248
▁funds	-3249
ordinate	-3250
▁activity	-3251
▁Tra	-3252
▁failure	-3253
▁pop	-3254
▁div	-3255
anchay	-3256
▁Collector	-3257
▁bor	-3258
▁arises	-3259
AS	-3260
▁fulf	-3261
----	-3262
achers	-3263
pecial	-3264
indu	-3265
▁discipl	-3266
▁attention	-3267
▁significant	-3268
imately	-3269
hra	-3270
oad	-3271
▁Exec	-3272
iting	-3273
▁move	-3274
▁pot	-3275
pite	-3276
▁Mo	-3277
▁max	-3278
▁Having	-3279
▁proof	-3280
▁mother	-3281
▁Amendment	-3282
▁occurrence	-3283
▁bind	-3284
▁parent	-3285
▁Though	-3286
▁wee	-3287
▁Deputy	-3288
atter	-3289
▁sold	-3290
▁old	-3291
jarat	-3292
▁counter	-3293
▁ide	-3294
ici	-3295
▁initial	-3296
▁reve	-3297
In	-3298
▁Pra	-3299
▁enactment	-3300
▁recovered	-3301
rig	-3302
▁wide	-3303
▁Any	-3304
▁religious	-3305
Jud	-3306
▁Ors	-3307
lled	-3308
▁Accordingly	-3309
▁firm	-3310
▁likely	-3311
▁actual	-3312
▁adverse	-3313
▁deduction	-3314
gar	-3315
▁Off	-3316
▁Applic	-3317
ological	-3318
▁Society	-3319
▁mut	-3320
▁strong	-3321
istrar	-3322
▁remedy	-3323
▁licence	-3324
ened	-3325
▁belie	-3326
▁Territ	-3327
▁concluded	-3328
▁Utt	-3329
▁International	-3330
▁projects	-3331
orney	-3332
▁Governments	-3333
▁responsible	-3334
▁mach	-3335
▁affected	-3336
ED	-3337
▁cur	-3338
▁retire	-3339
▁Hindu	-3340
▁agency	-3341
cluding	-3342
▁indicated	-3343
▁objection	-3344
▁advanced	-3345
▁products	-3346
The	-3347
▁breach	-3348
▁Sal	-3349
▁themselves	-3350
▁department	-3351
outh	-3352
▁home	-3353
▁Article	-3354
abilities	-3355
▁deposed	-3356
▁resources	-3357
▁cru	-3358
▁Nadu	-3359
PA	-3360
▁why	-3361
▁Gujarat	-3362
▁Legislative	-3363
cri	-3364
▁volunt	-3365
▁univers	-3366
▁identified	-3367
ration	-3368
▁want	-3369
unicipal	-3370
▁submits	-3371
augh	-3372
▁Sabha	-3373
▁portion	-3374
▁INDIA	-3375
▁whereas	-3376
▁doctrine	-3377
▁added	-3378
▁farm	-3379
▁fraud	-3380
▁keeping	-3381
▁ult	-3382
▁pers	-3383
▁quot	-3384
▁increase	-3385
▁litigation	-3386
▁identity	-3387
St	-3388
sy	-3389
▁Group	-3390
▁aware	-3391
aintenance	-3392
▁close	-3393
▁doing	-3394
▁establishment	-3395
▁academic	-3396
▁regulations	-3397
▁bearing	-3398
▁reported	-3399
▁undertaking	-3400
▁griev	-3401
▁virtue	-3402
atch	-3403
▁amounts	-3404
▁Assess	-3405
▁transport	-3406
▁More	-3407
▁carrying	-3408
asth	-3409
▁Institute	-3410
▁Prosec	-3411
▁renew	-3412
▁sexual	-3413
▁sol	-3414
▁seek	-3415
▁Official	-3416
▁Sy	-3417
ival	-3418
▁respectively	-3419
▁completed	-3420
▁published	-3421
▁Ms	-3422
▁Case	-3423
▁Plan	-3424
▁create	-3425
ert	-3426
▁NO	-3427
qual	-3428
▁live	-3429
▁PAR	-3430
▁difference	-3431
▁denied	-3432
▁stands	-3433
▁defendants	-3434
estic	-3435
▁substance	-3436
▁factual	-3437
▁physical	-3438
▁CO	-3439
▁During	-3440
▁works	-3441
▁insurance	-3442
▁gave	-3443
▁times	-3444
▁detention	-3445
▁expenditure	-3446
▁going	-3447
rutin	-3448
▁frame	-3449
▁think	-3450
▁stating	-3451
▁disposal	-3452
▁Assistant	-3453
▁United	-3454
▁acquittal	-3455
▁mandatory	-3456
▁Bengal	-3457
ysis	-3458
▁Mah	-3459
▁might	-3460
▁introduced	-3461
▁shows	-3462
▁better	-3463
▁Bihar	-3464
▁util	-3465
▁dignity	-3466
▁permanent	-3467
uri	-3468
,000	-3469
▁coming	-3470
▁enable	-3471
▁void	-3472
▁Att	-3473
▁corporate	-3474
actions	-3475
▁somet	-3476
▁partn	-3477
▁sheet	-3478
▁invok	-3479
ishes	-3480
▁prosecutrix	-3481
▁bod	-3482
▁custom	-3483
▁TA	-3484
▁draw	-3485
▁consultation	-3486
▁employer	-3487
▁seniority	-3488
▁Policy	-3489
▁adequate	-3490
▁sections	-3491
▁recommended	-3492
▁religion	-3493
amination	-3494
▁administrative	-3495
▁strict	-3496
▁apparent	-3497
portion	-3498
▁nar	-3499
ening	-3500
▁testim	-3501
lish	-3502
▁Other	-3503
▁accounts	-3504
▁dest	-3505
▁interference	-3506
cted	-3507
▁repro	-3508
▁Similarly	-3509
▁quas	-3510
▁advert	-3511
▁proced	-3512
amb	-3513
lly	-3514
iable	-3515
▁contemplated	-3516
▁discussed	-3517
▁mortg	-3518
▁associ	-3519
▁infrastructure	-3520
▁committee	-3521
▁until	-3522
▁clauses	-3523
▁aim	-3524
▁sl	-3525
▁notified	-3526
▁Registrar	-3527
▁Pen	-3528
rs	-3529
alid	-3530
▁servant	-3531
▁initiated	-3532
sc	-3533
▁Ah	-3534
vision	-3535
erce	-3536
bed	-3537
▁Uttar	-3538
▁incorpor	-3539
▁Association	-3540
▁daugh	-3541
▁innov	-3542
▁revenue	-3543
bor	-3544
obal	-3545
▁altern	-3546
▁viz	-3547
▁Companies	-3548
▁Management	-3549
▁opined	-3550
▁wholly	-3551
icated	-3552
▁construed	-3553
asthan	-3554
▁enjoy	-3555
▁advance	-3556
asing	-3557
▁Rel	-3558
▁mechan	-3559
▁responsibility	-3560
▁supplied	-3561
held	-3562
▁aid	-3563
aya	-3564
▁told	-3565
▁blood	-3566
▁proceeded	-3567
▁articles	-3568
▁confession	-3569
▁१	-3570
▁ow	-3571
▁hands	-3572
▁Centre	-3573
▁views	-3574
▁English	-3575
▁Ev	-3576
▁Finance	-3577
sured	-3578
▁sustain	-3579
▁arrange	-3580
▁served	-3581
ror	-3582
illion	-3583
adi	-3584
▁gone	-3585
▁Madras	-3586
▁standard	-3587
▁connected	-3588
▁woman	-3589
amm	-3590
pective	-3591
▁belonging	-3592
adre	-3593
▁excess	-3594
▁referring	-3595
▁recommendation	-3596
▁representation	-3597
▁marks	-3598
▁larger	-3599
▁recording	-3600
▁recruitment	-3601
ellant	-3602
▁reservation	-3603
aching	-3604
▁Sharma	-3605
ene	-3606
▁lod	-3607
▁offer	-3608
▁Industrial	-3609
▁impact	-3610
▁;	-3611
▁ign	-3612
pecially	-3613
▁extracted	-3614
▁loan	-3615
endency	-3616
unction	-3617
▁mineral	-3618
▁percent	-3619
▁PART	-3620
▁pertaining	-3621
▁scale	-3622
▁seven	-3623
ti	-3624
▁reached	-3625
▁interfere	-3626
spective	-3627
▁welfare	-3628
▁Form	-3629
▁Insurance	-3630
▁engaged	-3631
▁enh	-3632
Judge	-3633
ariff	-3634
aster	-3635
▁collected	-3636
▁Mis	-3637
▁Executive	-3638
HA	-3639
utions	-3640
▁cheque	-3641
▁Members	-3642
▁objective	-3643
▁conflic	-3644
▁prejudice	-3645
▁burd	-3646
▁leading	-3647
▁maintenance	-3648
▁Supp	-3649
▁Panchay	-3650
▁plaintiffs	-3651
▁distinction	-3652
irl	-3653
ples	-3654
▁individuals	-3655
▁units	-3656
▁Princip	-3657
▁reports	-3658
▁determining	-3659
ouses	-3660
▁efforts	-3661
▁potential	-3662
▁arguments	-3663
▁line	-3664
▁comes	-3665
▁Station	-3666
▁granting	-3667
▁Revenue	-3668
▁professional	-3669
state	-3670
rug	-3671
▁especially	-3672
ivery	-3673
▁influ	-3674
hai	-3675
oot	-3676
▁page	-3677
▁takes	-3678
IV	-3679
▁facie	-3680
▁aud	-3681
▁programme	-3682
uction	-3683
▁beg	-3684
EM	-3685
atic	-3686
▁levy	-3687
▁tele	-3688
▁scrutin	-3689
hest	-3690
▁facilit	-3691
iti	-3692
▁lack	-3693
▁Air	-3694
inery	-3695
▁furnish	-3696
▁Notification	-3697
overned	-3698
▁Before	-3699
asm	-3700
▁wid	-3701
▁remo	-3702
▁Rights	-3703
▁governed	-3704
▁communication	-3705
▁parts	-3706
▁Accused	-3707
▁detailed	-3708
▁explained	-3709
▁reflect	-3710
▁sentenced	-3711
▁Gand	-3712
▁emer	-3713
▁liqu	-3714
▁Penal	-3715
▁wages	-3716
▁Rajasthan	-3717
▁calc	-3718
osite	-3719
rd	-3720
▁crore	-3721
ET	-3722
azet	-3723
▁unit	-3724
▁binding	-3725
▁Rail	-3726
pees	-3727
▁motor	-3728
▁Let	-3729
▁Andhra	-3730
▁produce	-3731
▁completion	-3732
▁amongst	-3733
CC	-3734
ban	-3735
she	-3736
▁meant	-3737
▁settlement	-3738
▁Hindi	-3739
ott	-3740
▁tried	-3741
▁stood	-3742
▁started	-3743
pta	-3744
SI	-3745
▁suggested	-3746
▁corro	-3747
▁asset	-3748
▁safety	-3749
▁exemption	-3750
▁explanation	-3751
irth	-3752
ateral	-3753
illing	-3754
▁AP	-3755
eness	-3756
▁convey	-3757
▁achieve	-3758
gment	-3759
▁Ministers	-3760
▁sell	-3761
▁consequence	-3762
laim	-3763
▁Go	-3764
▁fire	-3765
▁names	-3766
▁air	-3767
▁thereto	-3768
▁necessarily	-3769
ivity	-3770
▁advant	-3771
ieties	-3772
▁render	-3773
▁testimony	-3774
ground	-3775
▁Member	-3776
▁vot	-3777
oung	-3778
clause	-3779
▁avoid	-3780
ift	-3781
▁coll	-3782
▁expenses	-3783
utor	-3784
uls	-3785
ioned	-3786
▁lakhs	-3787
▁regards	-3788
▁mess	-3789
▁quash	-3790
▁transactions	-3791
▁Krish	-3792
▁proposal	-3793
▁Madh	-3794
▁rates	-3795
▁secured	-3796
▁vacancies	-3797
);	-3798
▁indicate	-3799
▁Sol	-3800
clude	-3801
▁search	-3802
▁situated	-3803
▁deposited	-3804
▁Ne	-3805
feren	-3806
▁arrived	-3807
holders	-3808
▁option	-3809
▁der	-3810
▁Power	-3811
▁pursuant	-3812
▁.,	-3813
ovable	-3814
▁remains	-3815
▁past	-3816
▁Ver	-3817
▁Sc	-3818
onoun	-3819
person	-3820
▁envis	-3821
▁invalid	-3822
▁uncon	-3823
▁analysis	-3824
▁categories	-3825
line	-3826
▁evident	-3827
▁perusal	-3828
▁supported	-3829
▁prob	-3830
▁became	-3831
▁profession	-3832
put	-3833
▁wea	-3834
rief	-3835
▁undergo	-3836
▁join	-3837
▁source	-3838
▁ris	-3839
▁West	-3840
▁Super	-3841
▁retirement	-3842
▁Arbitration	-3843
pped	-3844
▁pronoun	-3845
▁Contract	-3846
▁AND	-3847
▁banks	-3848
▁coal	-3849
▁gives	-3850
▁controvers	-3851
▁emb	-3852
▁using	-3853
▁SE	-3854
▁cancell	-3855
▁developed	-3856
▁refund	-3857
endant	-3858
१३	-3859
urities	-3860
▁cash	-3861
▁reduced	-3862
ATION	-3863
▁expected	-3864
tin	-3865
▁obv	-3866
▁[(	-3867
▁prayer	-3868
▁agricultural	-3869
duction	-3870
▁Cer	-3871
▁obtaining	-3872
▁maintained	-3873
▁employed	-3874
▁Pur	-3875
▁actually	-3876
onom	-3877
▁forth	-3878
▁arbitrary	-3879
rate	-3880
▁depri	-3881
▁TO	-3882
▁Bhar	-3883
▁corrobor	-3884
State	-3885
▁diss	-3886
▁burden	-3887
▁instead	-3888
▁principal	-3889
▁Account	-3890
▁disclosed	-3891
▁rig	-3892
▁TADA	-3893
▁Technology	-3894
lord	-3895
▁Sar	-3896
▁neglig	-3897
olved	-3898
▁living	-3899
appellant	-3900
▁delivery	-3901
idd	-3902
▁places	-3903
▁auction	-3904
ables	-3905
▁Gupta	-3906
▁prevail	-3907
▁sustained	-3908
▁buy	-3909
▁retro	-3910
▁red	-3911
▁Prof	-3912
▁programmes	-3913
▁obtain	-3914
▁upheld	-3915
▁receive	-3916
▁strength	-3917
▁visit	-3918
▁Home	-3919
inder	-3920
▁example	-3921
itude	-3922
ancing	-3923
opal	-3924
▁hon	-3925
istic	-3926
CO	-3927
▁Our	-3928
▁expiry	-3929
▁seized	-3930
▁girl	-3931
▁ordin	-3932
▁Attorney	-3933
▁undertaken	-3934
▁attack	-3935
▁Hospital	-3936
▁prima	-3937
▁arrested	-3938
▁objections	-3939
▁paragraphs	-3940
▁reserved	-3941
▁men	-3942
umbai	-3943
▁site	-3944
aur	-3945
▁summ	-3946
▁former	-3947
ipur	-3948
▁Gandhi	-3949
ush	-3950
▁College	-3951
▁communic	-3952
▁Project	-3953
',	-3954
▁disqual	-3955
onst	-3956
▁Sri	-3957
▁cert	-3958
▁ascer	-3959
▁understood	-3960
▁salary	-3961
▁Mal	-3962
▁rural	-3963
▁gener	-3964
▁unre	-3965
▁rather	-3966
▁convict	-3967
racy	-3968
▁practices	-3969
atio	-3970
porary	-3971
▁adopt	-3972
▁proposition	-3973
ression	-3974
▁allotment	-3975
▁School	-3976
▁Ph	-3977
▁la	-3978
AY	-3979
▁Bang	-3980
▁privile	-3981
▁flow	-3982
▁young	-3983
▁investig	-3984
▁register	-3985
III	-3986
uven	-3987
▁citizen	-3988
▁maximum	-3989
iger	-3990
▁hard	-3991
▁exped	-3992
▁despite	-3993
▁ON	-3994
▁Mumbai	-3995
otel	-3996
▁SCR	-3997
▁stri	-3998
▁degree	-3999
▁hy	-4000
▁bodies	-4001
▁substantive	-4002
▁CPC	-4003
mentioned	-4004
▁assigned	-4005
▁imper	-4006
▁expert	-4007
▁labour	-4008
▁released	-4009
earch	-4010
▁Evidence	-4011
▁Principal	-4012
▁expressly	-4013
▁borrow	-4014
▁workers	-4015
ulate	-4016
▁Office	-4017
▁college	-4018
▁domestic	-4019
▁deciding	-4020
pto	-4021
ousing	-4022
▁distingu	-4023
▁controversy	-4024
ji	-4025
▁energ	-4026
▁generally	-4027
rises	-4028
▁spir	-4029
▁scient	-4030
▁profits	-4031
▁across	-4032
▁reiterated	-4033
▁mil	-4034
▁lower	-4035
▁friend	-4036
▁teachers	-4037
▁Ob	-4038
▁cut	-4039
▁remaining	-4040
asmuch	-4041
esides	-4042
ranch	-4043
respond	-4044
cial	-4045
hood	-4046
▁appointments	-4047
hind	-4048
▁Cust	-4049
▁Application	-4050
unities	-4051
▁Speaker	-4052
izing	-4053
▁forms	-4054
▁Officers	-4055
▁Day	-4056
▁holder	-4057
▁whereby	-4058
▁daughter	-4059
▁distribution	-4060
▁Do	-4061
▁ST	-4062
▁history	-4063
▁Kh	-4064
elt	-4065
▁schemes	-4066
▁distinct	-4067
ship	-4068
encing	-4069
cription	-4070
icide	-4071
▁thought	-4072
uate	-4073
▁Cast	-4074
▁annual	-4075
▁injured	-4076
▁station	-4077
▁ordinary	-4078
▁Reference	-4079
▁Some	-4080
▁equality	-4081
▁stipulated	-4082
▁termination	-4083
.-	-4084
tection	-4085
▁room	-4086
owry	-4087
▁operations	-4088
▁Prog	-4089
▁demonst	-4090
▁disclosure	-4091
▁Bal	-4092
▁functioning	-4093
▁strengthe	-4094
ann	-4095
▁Har	-4096
▁fif	-4097
▁cadre	-4098
▁install	-4099
▁extre	-4100
▁affairs	-4101
▁Financial	-4102
▁Municipal	-4103
▁addressed	-4104
azette	-4105
esting	-4106
▁extra	-4107
▁disputed	-4108
▁shop	-4109
,000/-	-4110
▁adjudication	-4111
▁energy	-4112
▁Republic	-4113
▁died	-4114
▁suitable	-4115
▁subsequently	-4116
▁applies	-4117
vironment	-4118
▁returned	-4119
▁furnished	-4120
▁forest	-4121
aking	-4122
uting	-4123
▁Labour	-4124
▁ali	-4125
▁eye	-4126
▁elected	-4127
ousand	-4128
▁disability	-4129
▁bon	-4130
▁alternative	-4131
▁message	-4132
apers	-4133
▁faith	-4134
▁highl	-4135
▁rupees	-4136
▁threat	-4137
▁possess	-4138
▁satisfaction	-4139
▁try	-4140
▁compr	-4141
▁limits	-4142
▁oil	-4143
▁advantage	-4144
▁reply	-4145
▁sales	-4146
▁Person	-4147
▁primary	-4148
▁prescrib	-4149
▁dise	-4150
▁draft	-4151
▁recover	-4152
▁arbitral	-4153
dom	-4154
▁attrib	-4155
▁increased	-4156
▁recognized	-4157
▁presumption	-4158
▁instructions	-4159
▁stru	-4160
▁nomin	-4161
▁population	-4162
▁xx	-4163
▁Aff	-4164
ception	-4165
▁incons	-4166
▁choice	-4167
▁described	-4168
ara	-4169
▁foc	-4170
operation	-4171
MC	-4172
▁Ordin	-4173
▁ratio	-4174
▁global	-4175
▁relates	-4176
▁amendments	-4177
ades	-4178
▁purchas	-4179
ponse	-4180
▁Date	-4181
▁landlord	-4182
▁machinery	-4183
▁Red	-4184
▁conclus	-4185
AB	-4186
▁errone	-4187
▁staff	-4188
▁contempt	-4189
dy	-4190
mical	-4191
▁inconsist	-4192
▁Stat	-4193
▁behind	-4194
▁normal	-4195
imal	-4196
phasis	-4197
▁const	-4198
▁investigating	-4199
▁contentions	-4200
▁enforcement	-4201
▁completely	-4202
▁afore	-4203
▁unable	-4204
exure	-4205
▁impose	-4206
▁pendency	-4207
▁directing	-4208
▁independence	-4209
▁ordered	-4210
▁extension	-4211
PL	-4212
▁spirit	-4213
▁terror	-4214
▁Control	-4215
▁operate	-4216
▁presented	-4217
eech	-4218
ratic	-4219
spector	-4220
▁encour	-4221
▁advice	-4222
orand	-4223
▁Bu	-4224
▁finally	-4225
▁correspond	-4226
▁consequences	-4227
▁Both	-4228
ferences	-4229
▁background	-4230
▁Environment	-4231
ama	-4232
rap	-4233
▁alter	-4234
obile	-4235
▁Every	-4236
▁suffered	-4237
▁version	-4238
▁contribution	-4239
rain	-4240
ederal	-4241
▁removed	-4242
▁consequent	-4243
▁Tiger	-4244
▁acquitted	-4245
▁dismissal	-4246
▁upto	-4247
▁quite	-4248
▁inasmuch	-4249
herent	-4250
▁corru	-4251
icate	-4252
▁legit	-4253
▁points	-4254
▁measure	-4255
▁Sw	-4256
▁disciplinary	-4257
▁oral	-4258
▁Award	-4259
▁attract	-4260
▁discuss	-4261
▁acceptance	-4262
▁ing	-4263
utation	-4264
▁understand	-4265
▁electricity	-4266
▁obligations	-4267
iss	-4268
▁quashed	-4269
▁spot	-4270
▁greater	-4271
▁Joint	-4272
▁economy	-4273
alf	-4274
▁fram	-4275
▁compre	-4276
▁association	-4277
▁challenging	-4278
▁workmen	-4279
▁officials	-4280
▁Petitioner	-4281
▁Pe	-4282
▁Madhya	-4283
▁creditor	-4284
▁mental	-4285
▁discrimination	-4286
icit	-4287
▁peace	-4288
▁regulation	-4289
▁contains	-4290
gn	-4291
ivered	-4292
▁often	-4293
▁release	-4294
▁suffer	-4295
ager	-4296
▁Che	-4297
▁origin	-4298
▁Sat	-4299
▁Head	-4300
▁tot	-4301
▁restrictions	-4302
eel	-4303
▁norms	-4304
▁serve	-4305
▁Reason	-4306
▁temple	-4307
▁Pal	-4308
▁issuing	-4309
▁remained	-4310
ina	-4311
ream	-4312
▁parents	-4313
ourses	-4314
▁manif	-4315
▁profit	-4316
▁victims	-4317
ients	-4318
▁debtor	-4319
▁extreme	-4320
▁appeared	-4321
▁multi	-4322
eria	-4323
▁delivered	-4324
▁deliber	-4325
▁exercising	-4326
▁assail	-4327
▁confirmed	-4328
▁particulars	-4329
▁publication	-4330
▁current	-4331
▁Class	-4332
▁Li	-4333
▁intent	-4334
cious	-4335
▁birth	-4336
▁exception	-4337
▁subsid	-4338
▁identification	-4339
▁Sections	-4340
▁response	-4341
▁Prosecutor	-4342
PS	-4343
▁recent	-4344
▁commerce	-4345
▁democracy	-4346
hy	-4347
isite	-4348
▁Program	-4349
▁damages	-4350
▁conflict	-4351
▁mortgage	-4352
enty	-4353
▁governance	-4354
ME	-4355
▁things	-4356
▁allegation	-4357
▁recognised	-4358
▁although	-4359
▁UN	-4360
▁Smt	-4361
▁eas	-4362
▁rise	-4363
▁pursuance	-4364
▁inspection	-4365
▁da	-4366
▁valu	-4367
▁promote	-4368
▁exchange	-4369
▁Inter	-4370
▁purchased	-4371
hent	-4372
▁press	-4373
orandum	-4374
▁Ash	-4375
▁thing	-4376
▁conven	-4377
▁Chandra	-4378
hens	-4379
▁Prime	-4380
▁Health	-4381
▁values	-4382
▁issuance	-4383
set	-4384
▁Gazette	-4385
▁schedule	-4386
▁classification	-4387
road	-4388
▁study	-4389
▁miscon	-4390
▁offered	-4391
▁lie	-4392
▁pan	-4393
liminary	-4394
dis	-4395
nother	-4396
▁Notwithstanding	-4397
▁proportion	-4398
▁Nag	-4399
ark	-4400
▁Pet	-4401
▁CrPC	-4402
▁Employ	-4403
▁protected	-4404
let	-4405
achal	-4406
▁host	-4407
▁thousand	-4408
▁Agricult	-4409
▁safegu	-4410
▁Pras	-4411
▁mode	-4412
▁Another	-4413
▁confidence	-4414
yan	-4415
▁Mot	-4416
▁mandate	-4417
▁dying	-4418
partments	-4419
olid	-4420
▁events	-4421
▁simple	-4422
▁injunction	-4423
▁bo	-4424
arged	-4425
▁pack	-4426
struction	-4427
▁Road	-4428
▁Vice	-4429
▁Assessing	-4430
▁manufacture	-4431
leges	-4432
▁tend	-4433
▁categor	-4434
▁incurred	-4435
▁Ja	-4436
▁wa	-4437
▁Can	-4438
ply	-4439
▁enough	-4440
▁bag	-4441
▁sil	-4442
▁export	-4443
▁drug	-4444
▁Panchayat	-4445
OS	-4446
▁Khan	-4447
▁changes	-4448
PE	-4449
▁Trib	-4450
▁thereon	-4451
▁claimant	-4452
utta	-4453
▁reform	-4454
▁Research	-4455
▁notwithstanding	-4456
▁elabor	-4457
▁equity	-4458
▁highest	-4459
-0	-4460
▁million	-4461
▁Directors	-4462
▁confer	-4463
ilateral	-4464
▁caste	-4465
▁tariff	-4466
▁voluntary	-4467
▁hours	-4468
▁results	-4469
▁impart	-4470
▁enhance	-4471
▁Conf	-4472
ula	-4473
▁Mus	-4474
▁worth	-4475
vis	-4476
inning	-4477
▁territory	-4478
DR	-4479
AG	-4480
above	-4481
ront	-4482
▁typ	-4483
▁fees	-4484
▁hereby	-4485
▁Constitutional	-4486
▁phot	-4487
ayment	-4488
▁gains	-4489
▁modern	-4490
stitutes	-4491
ING	-4492
▁deep	-4493
▁sw	-4494
▁affirm	-4495
▁problems	-4496
१४	-4497
▁opportunities	-4498
mittees	-4499
umer	-4500
▁tri	-4501
▁Paragraph	-4502
stitutional	-4503
duce	-4504
▁low	-4505
pping	-4506
▁rape	-4507
▁achieved	-4508
▁interested	-4509
▁situations	-4510
rog	-4511
CE	-4512
HI	-4513
orous	-4514
▁Human	-4515
▁inherent	-4516
ocates	-4517
appro	-4518
▁falls	-4519
▁suits	-4520
▁plaint	-4521
▁confirm	-4522
MS	-4523
▁understanding	-4524
/0	-4525
App	-4526
▁CON	-4527
▁acting	-4528
▁incorporated	-4529
▁pred	-4530
▁taxes	-4531
▁insofar	-4532
▁Election	-4533
▁acres	-4534
▁Moreover	-4535
▁agencies	-4536
▁empowered	-4537
▁recognition	-4538
iling	-4539
▁effic	-4540
▁inserted	-4541
▁network	-4542
▁equally	-4543
▁problem	-4544
▁excluded	-4545
▁Sam	-4546
course	-4547
▁owners	-4548
▁thereunder	-4549
charge	-4550
▁weeks	-4551
▁SEBI	-4552
▁lost	-4553
▁Organ	-4554
▁po	-4555
ump	-4556
▁IV	-4557
▁risk	-4558
▁involving	-4559
▁environmental	-4560
▁brief	-4561
▁guilt	-4562
▁rever	-4563
▁prayed	-4564
▁region	-4565
▁conclusions	-4566
▁getting	-4567
▁Excise	-4568
▁subordinate	-4569
▁ele	-4570
▁indicates	-4571
▁hereinabove	-4572
▁Cor	-4573
while	-4574
▁creditors	-4575
▁appreciate	-4576
anda	-4577
▁accomp	-4578
▁requested	-4579
rown	-4580
▁weight	-4581
▁causing	-4582
▁partnership	-4583
NA	-4584
▁grad	-4585
▁contrad	-4586
▁resulted	-4587
▁agreements	-4588
▁Excell	-4589
▁attached	-4590
▁NE	-4591
▁Rao	-4592
▁almost	-4593
▁representatives	-4594
▁allowing	-4595
▁Protection	-4596
my	-4597
▁Jag	-4598
▁suc	-4599
▁Circ	-4600
▁transp	-4601
▁Commercial	-4602
▁job	-4603
▁authorised	-4604
▁eval	-4605
▁feel	-4606
▁driver	-4607
▁Judic	-4608
▁lap	-4609
▁unn	-4610
▁doctor	-4611
respondent	-4612
ourn	-4613
hibit	-4614
▁compon	-4615
GC	-4616
▁Devi	-4617
▁Jain	-4618
uss	-4619
▁abuse	-4620
▁Private	-4621
comp	-4622
irs	-4623
▁Mon	-4624
▁soon	-4625
bted	-4626
▁San	-4627
▁fig	-4628
▁agent	-4629
▁assign	-4630
▁’	-4631
going	-4632
iency	-4633
▁System	-4634
▁letters	-4635
▁Work	-4636
▁formed	-4637
▁renewal	-4638
▁immovable	-4639
▁guaranteed	-4640
▁quar	-4641
▁restriction	-4642
▁Mod	-4643
▁applying	-4644
▁Once	-4645
itness	-4646
▁dowry	-4647
▁approached	-4648
rose	-4649
▁factor	-4650
▁answered	-4651
▁selected	-4652
▁industries	-4653
▁preliminary	-4654
▁AC	-4655
▁xxx	-4656
▁succeed	-4657
quisition	-4658
▁allotted	-4659
ourth	-4660
utory	-4661
▁possibility	-4662
▁Calc	-4663
ape	-4664
sheet	-4665
soever	-4666
▁books	-4667
▁damage	-4668
▁confident	-4669
▁cited	-4670
▁enforce	-4671
▁Axad	-4672
▁Ahmed	-4673
▁refers	-4674
▁card	-4675
ighted	-4676
▁South	-4677
examination	-4678
▁pleaded	-4679
▁maintainable	-4680
▁arose	-4681
endent	-4682
▁moved	-4683
▁defici	-4684
▁PC	-4685
▁levels	-4686
icies	-4687
▁mark	-4688
▁certainly	-4689
right	-4690
▁handed	-4691
▁interpreted	-4692
▁fell	-4693
▁necessity	-4694
▁prison	-4695
lead	-4696
▁Far	-4697
▁Hy	-4698
▁Memon	-4699
▁forum	-4700
CL	-4701
▁rou	-4702
ength	-4703
▁prem	-4704
▁scrutiny	-4705
▁intercourse	-4706
eav	-4707
▁vs	-4708
▁alt	-4709
▁Para	-4710
▁owned	-4711
▁correctness	-4712
▁formal	-4713
▁irre	-4714
▁Nagar	-4715
▁running	-4716
▁absolutely	-4717
endra	-4718
ronic	-4719
▁fide	-4720
enture	-4721
▁falling	-4722
▁affirmed	-4723
▁manifest	-4724
▁Gur	-4725
habil	-4726
▁Post	-4727
▁authent	-4728
▁entertain	-4729
▁participation	-4730
amy	-4731
ilities	-4732
▁lodged	-4733
well	-4734
▁collection	-4735
lack	-4736
▁containing	-4737
▁comb	-4738
▁overr	-4739
▁innoc	-4740
▁features	-4741
pic	-4742
▁raise	-4743
▁Gov	-4744
▁Now	-4745
▁art	-4746
▁board	-4747
ique	-4748
▁key	-4749
▁Child	-4750
▁central	-4751
▁heart	-4752
▁contracts	-4753
▁log	-4754
▁laun	-4755
▁Affairs	-4756
ada	-4757
▁Forest	-4758
▁tender	-4759
▁Calcutta	-4760
▁litig	-4761
UL	-4762
▁opt	-4763
▁named	-4764
▁endeav	-4765
▁withdraw	-4766
▁ownership	-4767
▁instrument	-4768
▁Kal	-4769
uvenile	-4770
▁Industries	-4771
▁AS	-4772
▁Cap	-4773
▁actions	-4774
▁vehicles	-4775
▁Met	-4776
▁instituted	-4777
▁claiming	-4778
tle	-4779
cast	-4780
usiness	-4781
▁adjust	-4782
▁creation	-4783
▁confessional	-4784
▁z	-4785
▁analy	-4786
▁seeks	-4787
▁truth	-4788
▁systems	-4789
▁improve	-4790
atever	-4791
▁accru	-4792
▁length	-4793
▁scientific	-4794
▁observation	-4795
ARD	-4796
aram	-4797
lawful	-4798
▁speed	-4799
▁regarded	-4800
▁none	-4801
▁early	-4802
▁rigorous	-4803
▁Territory	-4804
RO	-4805
▁residential	-4806
▁Design	-4807
▁subjected	-4808
wan	-4809
▁fails	-4810
▁properly	-4811
▁personnel	-4812
Am	-4813
▁esc	-4814
▁seiz	-4815
ensive	-4816
ka	-4817
position	-4818
▁rational	-4819
inks	-4820
▁Reserve	-4821
PT	-4822
▁felt	-4823
▁circular	-4824
▁successful	-4825
▁tradition	-4826
▁consistent	-4827
▁grievance	-4828
ikh	-4829
▁explain	-4830
▁advocate	-4831
know	-4832
uity	-4833
prises	-4834
▁gross	-4835
▁paper	-4836
▁latter	-4837
▁Judgment	-4838
▁speaking	-4839
▁violative	-4840
ones	-4841
▁rein	-4842
▁ordinarily	-4843
▁examining	-4844
▁exclusive	-4845
▁requisite	-4846
▁subxad	-4847
ij	-4848
icating	-4849
▁immediate	-4850
▁temporary	-4851
▁proc	-4852
▁Inspector	-4853
▁resulting	-4854
osition	-4855
▁imported	-4856
▁suffering	-4857
▁imposition	-4858
▁Leave	-4859
sue	-4860
asonable	-4861
▁ambit	-4862
▁poor	-4863
▁rank	-4864
▁ultimately	-4865
▁strictly	-4866
▁Sa	-4867
▁diver	-4868
vt	-4869
aches	-4870
▁courses	-4871
▁filled	-4872
▁secure	-4873
▁representative	-4874
▁sanctioned	-4875
AD	-4876
De	-4877
▁plain	-4878
▁Customs	-4879
▁estate	-4880
▁pleadings	-4881
ilt	-4882
▁model	-4883
▁classes	-4884
▁residence	-4885
▁repeal	-4886
▁suicide	-4887
▁omission	-4888
antly	-4889
ger	-4890
yal	-4891
▁entrust	-4892
rel	-4893
▁Shah	-4894
▁half	-4895
▁cruel	-4896
▁Prasad	-4897
▁really	-4898
▁assembly	-4899
▁reasoning	-4900
▁violence	-4901
mir	-4902
▁text	-4903
▁parame	-4904
rep	-4905
▁cou	-4906
oured	-4907
undred	-4908
▁deserv	-4909
oj	-4910
orial	-4911
▁daily	-4912
▁element	-4913
▁farmers	-4914
▁eviction	-4915
icitor	-4916
▁entity	-4917
▁Certificate	-4918
▁),	-4919
elled	-4920
▁policies	-4921
▁Agg	-4922
▁acted	-4923
▁pec	-4924
▁ever	-4925
▁deleg	-4926
ervation	-4927
▁substituted	-4928
▁longer	-4929
▁Parliamentary	-4930
▁.[	-4931
▁ship	-4932
▁conducting	-4933
anger	-4934
usion	-4935
▁overall	-4936
TE	-4937
▁sam	-4938
▁Char	-4939
▁bear	-4940
▁concurrent	-4941
▁objects	-4942
ales	-4943
▁ed	-4944
▁lawy	-4945
wo	-4946
uent	-4947
▁facility	-4948
▁Dec	-4949
▁promis	-4950
▁alongwith	-4951
▁Administrative	-4952
ques	-4953
▁guarantee	-4954
▁Arbitrator	-4955
▁nos	-4956
▁irres	-4957
▁defect	-4958
▁processing	-4959
▁genu	-4960
▁patent	-4961
▁retired	-4962
▁retrospective	-4963
ns	-4964
▁Will	-4965
▁compound	-4966
▁confined	-4967
▁criteria	-4968
ller	-4969
▁link	-4970
▁speech	-4971
▁manufacturing	-4972
Ind	-4973
uge	-4974
▁barred	-4975
▁mutual	-4976
AM	-4977
▁Consequently	-4978
▁conce	-4979
▁modified	-4980
▁Of	-4981
rity	-4982
▁explos	-4983
▁envisaged	-4984
▁marked	-4985
▁comprom	-4986
▁located	-4987
▁Superint	-4988
▁revised	-4989
▁implemented	-4990
US	-4991
ots	-4992
▁Page	-4993
▁autom	-4994
▁hereunder	-4995
▁items	-4996
▁purchaser	-4997
▁considerations	-4998
▁totally	-4999
▁conscious	-5000
▁whatsoever	-5001
omen	-5002
▁withdrawn	-5003
AA	-5004
▁reach	-5005
▁remand	-5006
ulates	-5007
▁indirect	-5008
▁Ordinance	-5009
aul	-5010
▁eight	-5011
itoring	-5012
ett	-5013
amily	-5014
osing	-5015
▁night	-5016
▁acknow	-5017
irty	-5018
▁occurred	-5019
▁unlawful	-5020
▁qua	-5021
nam	-5022
istan	-5023
▁restra	-5024
▁married	-5025
▁statutes	-5026
▁surre	-5027
itary	-5028
▁legally	-5029
▁arms	-5030
▁entries	-5031
atal	-5032
▁Dig	-5033
▁something	-5034
▁manufacturer	-5035
▁quoted	-5036
▁usu	-5037
▁prospect	-5038
▁reproduced	-5039
venth	-5040
▁wish	-5041
▁engine	-5042
ask	-5043
een	-5044
▁Ven	-5045
▁Acts	-5046
▁check	-5047
▁lives	-5048
Ch	-5049
athe	-5050
▁summon	-5051
▁withdrawal	-5052
eric	-5053
▁Allah	-5054
▁Exchange	-5055
▁erroneous	-5056
▁mechanism	-5057
▁circumstance	-5058
▁trib	-5059
▁refused	-5060
▁generation	-5061
▁negligence	-5062
▁Di	-5063
▁Review	-5064
▁Aggrieved	-5065
CA	-5066
▁Ali	-5067
▁Laws	-5068
▁operational	-5069
):	-5070
kash	-5071
▁Build	-5072
amation	-5073
▁comply	-5074
▁performed	-5075
▁democratic	-5076
▁Dh	-5077
ayuk	-5078
hensive	-5079
▁sq	-5080
ayan	-5081
ishment	-5082
▁parameters	-5083
avy	-5084
▁seizure	-5085
▁distance	-5086
▁securities	-5087
▁Pvt	-5088
▁exclusion	-5089
▁Kash	-5090
lauses	-5091
▁Excellency	-5092
ricted	-5093
▁contents	-5094
▁receiving	-5095
bel	-5096
arth	-5097
rule	-5098
▁seats	-5099
▁insurer	-5100
▁Respondents	-5101
EP	-5102
urring	-5103
▁Water	-5104
▁erred	-5105
▁passage	-5106
eth	-5107
▁dues	-5108
▁poll	-5109
▁Acquisition	-5110
ports	-5111
▁indeed	-5112
▁disclose	-5113
▁Aud	-5114
▁surv	-5115
athi	-5116
minent	-5117
ergency	-5118
▁Af	-5119
havi	-5120
▁base	-5121
▁Annexure	-5122
▁payments	-5123
▁standing	-5124
▁associated	-5125
udh	-5126
▁twenty	-5127
▁believe	-5128
▁Engineer	-5129
▁quashing	-5130
▁Universities	-5131
▁Full	-5132
▁intim	-5133
▁sound	-5134
▁ingred	-5135
ae	-5136
bur	-5137
▁willing	-5138
uro	-5139
▁inqu	-5140
▁pain	-5141
▁stor	-5142
▁worked	-5143
▁creating	-5144
hend	-5145
etings	-5146
ishing	-5147
rees	-5148
▁Ext	-5149
inking	-5150
alg	-5151
▁SH	-5152
......	-5153
regular	-5154
dul	-5155
▁influence	-5156
▁driving	-5157
▁struck	-5158
’)	-5159
▁Dev	-5160
prene	-5161
▁notes	-5162
▁complied	-5163
▁Bas	-5164
▁exceeding	-5165
oral	-5166
▁afford	-5167
.(	-5168
▁Rent	-5169
▁recall	-5170
▁Solicitor	-5171
▁advertise	-5172
▁pleas	-5173
▁whatever	-5174
▁attracted	-5175
▁Reliance	-5176
reprene	-5177
arget	-5178
▁Shiv	-5179
▁satisfy	-5180
uous	-5181
achment	-5182
▁qualification	-5183
isting	-5184
▁framework	-5185
▁cul	-5186
▁team	-5187
▁levied	-5188
▁wishes	-5189
▁capable	-5190
▁channel	-5191
▁prohibition	-5192
▁Goa	-5193
▁Non	-5194
▁arrangement	-5195
▁uns	-5196
▁clarified	-5197
▁bond	-5198
▁equip	-5199
▁allocation	-5200
▁dele	-5201
▁Allahabad	-5202
▁Convention	-5203
▁complaints	-5204
phold	-5205
▁admissible	-5206
Pro	-5207
▁harass	-5208
including	-5209
▁MCI	-5210
▁cong	-5211
▁type	-5212
▁concerning	-5213
▁increasing	-5214
grad	-5215
hanced	-5216
▁Electricity	-5217
leb	-5218
iform	-5219
essel	-5220
▁grave	-5221
▁sister	-5222
▁Defendant	-5223
▁exists	-5224
▁Insofar	-5225
▁ensuring	-5226
▁objectives	-5227
▁seems	-5228
▁Bhag	-5229
▁seat	-5230
▁bench	-5231
▁divor	-5232
▁causes	-5233
fe	-5234
▁rare	-5235
▁Assam	-5236
▁liquid	-5237
▁Business	-5238
▁Appellants	-5239
▁availability	-5240
▁Programme	-5241
१५	-5242
onn	-5243
▁Foreign	-5244
▁strateg	-5245
▁else	-5246
▁discharged	-5247
▁sustainable	-5248
▁jun	-5249
▁assessed	-5250
▁Statement	-5251
▁integrity	-5252
▁compar	-5253
▁involvement	-5254
▁Aust	-5255
haviour	-5256
▁consumers	-5257
author	-5258
▁attend	-5259
▁contend	-5260
▁equival	-5261
▁colleges	-5262
▁recon	-5263
habilitation	-5264
vency	-5265
▁partly	-5266
▁relying	-5267
▁learning	-5268
▁competence	-5269
▁enum	-5270
▁Up	-5271
▁bul	-5272
▁Prom	-5273
ita	-5274
▁iron	-5275
▁needed	-5276
▁framing	-5277
▁contractor	-5278
▁My	-5279
▁media	-5280
▁uphold	-5281
▁Plaintiff	-5282
▁BC	-5283
▁MS	-5284
▁tal	-5285
compl	-5286
▁Abdul	-5287
▁belief	-5288
▁King	-5289
▁significance	-5290
▁Ed	-5291
▁Vol	-5292
▁Muslim	-5293
UN	-5294
▁Sign	-5295
▁Suit	-5296
▁listed	-5297
▁defines	-5298
ibilities	-5299
▁Dist	-5300
▁legitimate	-5301
▁sens	-5302
▁active	-5303
▁prohibited	-5304
▁Deed	-5305
▁consumer	-5306
▁enhanced	-5307
▁Interest	-5308
RE	-5309
alore	-5310
▁pros	-5311
▁Small	-5312
▁groups	-5313
▁disease	-5314
ibly	-5315
antial	-5316
▁Proper	-5317
▁committing	-5318
.[	-5319
orship	-5320
▁schools	-5321
▁procedural	-5322
▁br	-5323
pper	-5324
▁justification	-5325
uc	-5326
just	-5327
▁Mohan	-5328
▁remove	-5329
▁complex	-5330
▁sitting	-5331
▁repealed	-5332
pet	-5333
▁PS	-5334
▁Apart	-5335
arh	-5336
▁mag	-5337
▁England	-5338
free	-5339
olvency	-5340
▁manufactured	-5341
▁Also	-5342
▁Pand	-5343
▁distur	-5344
▁survey	-5345
▁session	-5346
▁positive	-5347
▁superior	-5348
▁foundation	-5349
▁Tri	-5350
etent	-5351
▁huge	-5352
▁North	-5353
ocks	-5354
▁Are	-5355
▁doctors	-5356
▁cooperation	-5357
▁medic	-5358
▁papers	-5359
▁relative	-5360
▁vest	-5361
▁repla	-5362
▁separately	-5363
▁inconsistent	-5364
▁Investigating	-5365
orse	-5366
▁showing	-5367
ey	-5368
where	-5369
▁deliver	-5370
▁founded	-5371
from	-5372
▁lib	-5373
▁Brit	-5374
▁vital	-5375
▁compuls	-5376
levant	-5377
▁Railway	-5378
▁conform	-5379
▁quantity	-5380
▁qualifications	-5381
wa	-5382
ili	-5383
ols	-5384
▁Family	-5385
▁verification	-5386
ERS	-5387
cond	-5388
iles	-5389
teen	-5390
▁bringing	-5391
▁chargeable	-5392
▁friendly	-5393
▁grat	-5394
▁simply	-5395
▁transportation	-5396
iment	-5397
▁prop	-5398
▁imposing	-5399
▁allowance	-5400
ommod	-5401
▁valuable	-5402
▁Third	-5403
▁commenced	-5404
redit	-5405
▁acquire	-5406
▁hundred	-5407
▁Recovery	-5408
▁percentage	-5409
pex	-5410
itations	-5411
nai	-5412
▁AT	-5413
▁Vis	-5414
▁buildings	-5415
▁efficient	-5416
▁greetings	-5417
oice	-5418
▁Ret	-5419
ami	-5420
▁Id	-5421
anas	-5422
▁dil	-5423
oubted	-5424
▁irrespective	-5425
▁Bl	-5426
▁DNA	-5427
▁Legal	-5428
▁constructed	-5429
igil	-5430
requ	-5431
ulty	-5432
▁Ant	-5433
ertion	-5434
▁useful	-5435
▁autonom	-5436
▁aforementioned	-5437
▁squ	-5438
organ	-5439
▁danger	-5440
▁motive	-5441
▁procedures	-5442
▁applicability	-5443
▁fem	-5444
▁annum	-5445
▁prices	-5446
▁minerals	-5447
▁beginning	-5448
▁facilitate	-5449
hon	-5450
▁cm	-5451
tinent	-5452
▁Americ	-5453
paration	-5454
▁sectors	-5455
▁restrict	-5456
RT	-5457
▁changed	-5458
▁factory	-5459
▁throughout	-5460
▁contravention	-5461
yam	-5462
▁enumerated	-5463
▁effectively	-5464
oses	-5465
udence	-5466
▁uniform	-5467
▁Roh	-5468
▁Arun	-5469
▁Pension	-5470
▁normally	-5471
▁inference	-5472
▁Army	-5473
▁Transport	-5474
ammu	-5475
▁rail	-5476
▁Trade	-5477
▁declare	-5478
▁viti	-5479
rigation	-5480
▁Constit	-5481
▁entrusted	-5482
▁initially	-5483
▁irregular	-5484
OC	-5485
istics	-5486
▁Castes	-5487
▁operating	-5488
rears	-5489
▁core	-5490
▁rival	-5491
▁mit	-5492
▁challenges	-5493
▁appreciation	-5494
▁gold	-5495
▁vessel	-5496
▁unreasonable	-5497
dh	-5498
▁Anr	-5499
▁Val	-5500
▁amb	-5501
▁mobile	-5502
comm	-5503
raft	-5504
erate	-5505
▁Vill	-5506
▁earn	-5507
▁vend	-5508
▁Besides	-5509
ev	-5510
▁harmon	-5511
▁holders	-5512
▁awarding	-5513
▁Jammu	-5514
▁consequential	-5515
▁di	-5516
irms	-5517
▁cast	-5518
▁People	-5519
verse	-5520
ancellor	-5521
▁continues	-5522
anging	-5523
--------	-5524
▁contact	-5525
▁quantum	-5526
▁Regional	-5527
▁regulate	-5528
▁primarily	-5529
ley	-5530
▁qualified	-5531
▁eligibility	-5532
aren	-5533
▁raising	-5534
▁Superintendent	-5535
BS	-5536
▁estim	-5537
ometric	-5538
▁Kashmir	-5539
▁culture	-5540
▁Training	-5541
▁governing	-5542
co	-5543
ini	-5544
▁resol	-5545
▁wound	-5546
▁calculated	-5547
Rs	-5548
▁types	-5549
asw	-5550
ugg	-5551
ung	-5552
▁lac	-5553
▁target	-5554
▁restricted	-5555
▁organization	-5556
lax	-5557
▁Him	-5558
▁happy	-5559
lease	-5560
▁authorized	-5561
isen	-5562
▁mal	-5563
▁Mand	-5564
▁city	-5565
▁antic	-5566
▁operative	-5567
▁requiring	-5568
▁supplement	-5569
▁highlighted	-5570
▁top	-5571
▁incl	-5572
▁lies	-5573
▁comprehensive	-5574
prise	-5575
estion	-5576
▁Banks	-5577
▁deposition	-5578
Os	-5579
bts	-5580
▁Ib	-5581
abled	-5582
▁Sector	-5583
▁Disp	-5584
▁Again	-5585
▁ready	-5586
▁thirty	-5587
▁Welfare	-5588
▁sources	-5589
▁asserted	-5590
▁Conference	-5591
▁corresponding	-5592
gy	-5593
body	-5594
▁gas	-5595
▁little	-5596
▁accommod	-5597
reet	-5598
abling	-5599
oubtedly	-5600
▁meetings	-5601
vity	-5602
▁bad	-5603
ifies	-5604
▁says	-5605
▁movement	-5606
ported	-5607
▁entirely	-5608
▁misconduct	-5609
lex	-5610
rency	-5611
▁load	-5612
▁anticip	-5613
▁organiz	-5614
▁equivalent	-5615
MP	-5616
▁save	-5617
▁focus	-5618
▁commod	-5619
▁repeated	-5620
▁Bangalore	-5621
itally	-5622
▁cultiv	-5623
▁ruled	-5624
▁storage	-5625
▁definite	-5626
▁interven	-5627
OL	-5628
▁crop	-5629
▁struct	-5630
▁unfair	-5631
▁accepting	-5632
isc	-5633
▁CR	-5634
▁RBI	-5635
▁amalg	-5636
▁guard	-5637
▁license	-5638
▁questioned	-5639
arc	-5640
icing	-5641
▁null	-5642
▁soft	-5643
▁banking	-5644
▁Resolution	-5645
▁Inf	-5646
▁pure	-5647
▁saw	-5648
othes	-5649
rance	-5650
▁Year	-5651
▁holds	-5652
▁invoked	-5653
▁task	-5654
▁newsp	-5655
▁tenure	-5656
▁cultural	-5657
osh	-5658
rist	-5659
▁consumption	-5660
▁Dhar	-5661
ume	-5662
anied	-5663
▁heirs	-5664
▁space	-5665
▁exclus	-5666
▁stock	-5667
uel	-5668
▁Two	-5669
▁histor	-5670
▁initiatives	-5671
▁Ge	-5672
▁audit	-5673
▁Chen	-5674
▁hear	-5675
▁elections	-5676
▁extract	-5677
▁obviously	-5678
▁pertinent	-5679
▁clean	-5680
▁arisen	-5681
inet	-5682
▁Meh	-5683
.....	-5684
▁dealer	-5685
▁reduce	-5686
istrator	-5687
▁Capital	-5688
▁cruelty	-5689
▁Selection	-5690
▁Territories	-5691
▁substantially	-5692
▁identify	-5693
rah	-5694
issa	-5695
▁Rajya	-5696
▁vires	-5697
▁inflic	-5698
employ	-5699
▁conversion	-5700
▁excise	-5701
▁sentences	-5702
akf	-5703
adav	-5704
▁You	-5705
overe	-5706
ayukta	-5707
▁Compl	-5708
ategory	-5709
derabad	-5710
▁partition	-5711
VE	-5712
aug	-5713
mort	-5714
▁fear	-5715
▁fields	-5716
▁emphasis	-5717
▁accompanied	-5718
▁participated	-5719
▁City	-5720
▁bona	-5721
▁marg	-5722
▁unnecess	-5723
▁innovation	-5724
CR	-5725
▁urban	-5726
▁Kol	-5727
▁Pak	-5728
holder	-5729
▁Designated	-5730
▁applicants	-5731
AI	-5732
For	-5733
▁exc	-5734
▁week	-5735
▁foot	-5736
▁warm	-5737
▁Enter	-5738
▁motion	-5739
hibition	-5740
stituting	-5741
▁inclined	-5742
▁Committees	-5743
enth	-5744
▁Chh	-5745
▁Govt	-5746
▁Their	-5747
▁borrower	-5748
▁agriculture	-5749
ians	-5750
▁crucial	-5751
▁developing	-5752
▁Ur	-5753
ites	-5754
▁mist	-5755
▁block	-5756
mination	-5757
▁Session	-5758
▁ultimate	-5759
▁privilege	-5760
▁Engineering	-5761
▁distinguished	-5762
ja	-5763
▁cri	-5764
▁late	-5765
ulating	-5766
Amendment	-5767
▁aggreg	-5768
▁Austral	-5769
▁Manager	-5770
▁arrears	-5771
▁compromise	-5772
▁VI	-5773
▁supra	-5774
▁Prakash	-5775
omin	-5776
sees	-5777
▁sem	-5778
emed	-5779
▁Sun	-5780
▁felic	-5781
▁Bharat	-5782
▁taxation	-5783
▁Maj	-5784
▁don	-5785
wari	-5786
▁Dem	-5787
▁hom	-5788
▁chemical	-5789
▁universities	-5790
nan	-5791
▁cy	-5792
itan	-5793
oned	-5794
▁Bab	-5795
▁relax	-5796
▁prosper	-5797
▁consisting	-5798
BC	-5799
utt	-5800
▁dr	-5801
▁Security	-5802
sub	-5803
▁pregn	-5804
▁average	-5805
UD	-5806
head	-5807
▁Food	-5808
▁send	-5809
▁paying	-5810
HAN	-5811
vas	-5812
▁NG	-5813
▁borne	-5814
▁nomination	-5815
jit	-5816
▁Gre	-5817
▁finds	-5818
▁domain	-5819
▁monthly	-5820
▁photograph	-5821
FT	-5822
ena	-5823
oti	-5824
▁Mohd	-5825
▁weapons	-5826
▁sure	-5827
▁touch	-5828
▁Tribes	-5829
▁effort	-5830
▁British	-5831
▁documentary	-5832
▁PM	-5833
sych	-5834
▁stake	-5835
▁prefer	-5836
▁largest	-5837
▁planning	-5838
▁Hyderabad	-5839
▁defe	-5840
▁liter	-5841
▁acceptable	-5842
▁regulatory	-5843
▁vote	-5844
ologies	-5845
rav	-5846
▁Das	-5847
▁Unit	-5848
▁goes	-5849
▁clearance	-5850
oke	-5851
▁Kam	-5852
▁front	-5853
▁paras	-5854
ga	-5855
alli	-5856
▁Est	-5857
▁gets	-5858
ciation	-5859
▁Kar	-5860
▁Mit	-5861
▁Consid	-5862
▁justify	-5863
otion	-5864
▁flat	-5865
▁size	-5866
▁dates	-5867
ependence	-5868
▁offender	-5869
▁servants	-5870
▁identical	-5871
▁cancellation	-5872
aves	-5873
ortun	-5874
▁opposed	-5875
▁enabling	-5876
▁involves	-5877
▁beneficial	-5878
▁harm	-5879
▁offices	-5880
▁Administration	-5881
▁dismissing	-5882
bhai	-5883
inger	-5884
▁Stand	-5885
▁science	-5886
iche	-5887
▁fast	-5888
amount	-5889
▁chain	-5890
▁Subject	-5891
▁genuine	-5892
▁concerns	-5893
▁entreprene	-5894
ESS	-5895
▁Pan	-5896
▁Econom	-5897
▁Market	-5898
▁negative	-5899
▁Orissa	-5900
▁Ve	-5901
▁input	-5902
▁Appeals	-5903
▁numbers	-5904
▁represented	-5905
▁RI	-5906
cons	-5907
▁Village	-5908
▁correctly	-5909
▁occupation	-5910
▁suspension	-5911
▁underlying	-5912
▁ingredients	-5913
▁Ans	-5914
▁ban	-5915
▁Houses	-5916
▁insured	-5917
▁maintaining	-5918
adh	-5919
esty	-5920
icro	-5921
sing	-5922
vance	-5923
▁workman	-5924
▁description	-5925
▁Try	-5926
▁reb	-5927
haust	-5928
▁licen	-5929
▁computing	-5930
▁electronic	-5931
▁reasonably	-5932
▁Imp	-5933
khand	-5934
▁seed	-5935
▁Credit	-5936
mortem	-5937
orrect	-5938
▁notices	-5939
▁rejection	-5940
▁nut	-5941
▁Based	-5942
▁experts	-5943
▁methods	-5944
▁harassment	-5945
▁Reddy	-5946
▁external	-5947
▁Registration	-5948
SCC	-5949
gress	-5950
▁copies	-5951
▁multip	-5952
▁centres	-5953
▁divorce	-5954
▁CA	-5955
▁Dub	-5956
▁round	-5957
▁highly	-5958
▁vision	-5959
▁Chennai	-5960
▁Net	-5961
cture	-5962
onsid	-5963
▁Survey	-5964
▁invited	-5965
ocal	-5966
▁NCT	-5967
▁cry	-5968
▁Ashok	-5969
▁Arbitral	-5970
▁honour	-5971
▁spread	-5972
kata	-5973
ially	-5974
▁BCCI	-5975
▁Port	-5976
lam	-5977
igarh	-5978
▁abroad	-5979
▁proceeds	-5980
▁ascertain	-5981
▁precedent	-5982
▁participate	-5983
rab	-5984
▁Sum	-5985
essees	-5986
▁scheduled	-5987
An	-5988
▁DEL	-5989
▁hotel	-5990
▁relate	-5991
▁carefully	-5992
▁foregoing	-5993
UM	-5994
▁Aut	-5995
▁gun	-5996
uration	-5997
▁illust	-5998
▁inside	-5999
▁mainly	-6000
▁rap	-6001
▁hope	-6002
Em	-6003
▁Her	-6004
order	-6005
▁Claim	-6006
▁forwarded	-6007
▁crops	-6008
▁designated	-6009
bal	-6010
▁ment	-6011
▁unique	-6012
▁signature	-6013
▁collective	-6014
TH	-6015
▁Your	-6016
ders	-6017
▁Found	-6018
▁undue	-6019
▁teaching	-6020
ureau	-6021
▁theory	-6022
▁conclude	-6023
▁commitment	-6024
▁comprising	-6025
mn	-6026
▁Sah	-6027
▁vag	-6028
▁square	-6029
resident	-6030
▁Krishna	-6031
▁depends	-6032
▁perspective	-6033
▁Stud	-6034
▁memo	-6035
▁Category	-6036
▁Himachal	-6037
▁subjects	-6038
▁Chairperson	-6039
▁God	-6040
▁cal	-6041
▁cart	-6042
aneous	-6043
roller	-6044
▁Being	-6045
▁exhaust	-6046
▁extremely	-6047
▁lying	-6048
▁ignored	-6049
▁allegedly	-6050
▁organisation	-6051
▁obs	-6052
olition	-6053
▁Notice	-6054
▁destro	-6055
▁implied	-6056
▁appointing	-6057
▁continuing	-6058
LA	-6059
rew	-6060
▁Ca	-6061
laws	-6062
▁Note	-6063
▁idea	-6064
▁rect	-6065
▁explo	-6066
▁implead	-6067
▁partner	-6068
aks	-6069
tains	-6070
▁propri	-6071
▁biometric	-6072
mi	-6073
whe	-6074
▁Ay	-6075
garh	-6076
▁Art	-6077
etary	-6078
▁wealth	-6079
▁Transfer	-6080
▁preceding	-6081
▁processes	-6082
▁sovere	-6083
▁depending	-6084
▁Rav	-6085
▁absor	-6086
▁weapon	-6087
▁dispose	-6088
▁violated	-6089
▁denial	-6090
▁shared	-6091
▁jurispr	-6092
▁obvious	-6093
▁Digitally	-6094
▁admittedly	-6095
▁suggestion	-6096
▁exclusively	-6097
▁१६	-6098
upon	-6099
oring	-6100
▁anti	-6101
▁specify	-6102
▁morality	-6103
▁Add	-6104
▁shif	-6105
▁Yadav	-6106
▁armed	-6107
▁female	-6108
▁interf	-6109
▁continuous	-6110
ila	-6111
General	-6112
▁Reform	-6113
▁opened	-6114
▁Managing	-6115
▁IS	-6116
▁friends	-6117
▁Equ	-6118
▁anim	-6119
▁Science	-6120
▁Authorities	-6121
▁advertisement	-6122
▁range	-6123
▁opening	-6124
▁internal	-6125
See	-6126
oration	-6127
pal	-6128
owed	-6129
▁NEW	-6130
▁Rural	-6131
▁moral	-6132
▁landing	-6133
▁Although	-6134
▁Property	-6135
▁certified	-6136
▁limitations	-6137
▁Exp	-6138
▁Tem	-6139
▁Force	-6140
▁story	-6141
▁promoted	-6142
▁reconsid	-6143
▁outstanding	-6144
▁interpreting	-6145
▁authentication	-6146
iy	-6147
.00	-6148
▁PE	-6149
adequ	-6150
▁weak	-6151
eeping	-6152
▁Engineers	-6153
haps	-6154
enders	-6155
▁Branch	-6156
▁colour	-6157
▁ability	-6158
which	-6159
▁burn	-6160
▁calls	-6161
▁formula	-6162
▁incorrect	-6163
▁informant	-6164
▁suggestions	-6165
Con	-6166
▁ant	-6167
ankar	-6168
▁alien	-6169
▁imposs	-6170
▁perused	-6171
▁vacancy	-6172
▁inclusive	-6173
▁considerable	-6174
bh	-6175
▁UGC	-6176
▁lif	-6177
monial	-6178
uality	-6179
▁divid	-6180
▁tenancy	-6181
DS	-6182
off	-6183
rand	-6184
▁excell	-6185
▁adduced	-6186
▁Verified	-6187
▁improvement	-6188
Comp	-6189
▁Vid	-6190
Civil	-6191
▁Kish	-6192
▁celeb	-6193
▁Social	-6194
▁acknowled	-6195
▁emergency	-6196
▁Out	-6197
▁Vij	-6198
overty	-6199
▁famil	-6200
▁purview	-6201
▁corporation	-6202
aling	-6203
▁Clauses	-6204
▁growing	-6205
▁currency	-6206
▁efficiency	-6207
▁imperative	-6208
▁essentially	-6209
gone	-6210
▁IST	-6211
atically	-6212
▁regional	-6213
▁feature	-6214
▁attained	-6215
▁revealed	-6216
▁reduction	-6217
▁Exhibit	-6218
▁computer	-6219
▁nominated	-6220
▁consequently	-6221
ni	-6222
chol	-6223
isable	-6224
▁black	-6225
▁suspic	-6226
▁studies	-6227
▁adverted	-6228
▁deserves	-6229
▁pleasure	-6230
▁priority	-6231
▁controlled	-6232
▁Issue	-6233
▁plants	-6234
▁stayed	-6235
▁compared	-6236
▁Chandigarh	-6237
▁incidental	-6238
writ	-6239
▁placing	-6240
▁bilateral	-6241
▁rehabilitation	-6242
othing	-6243
▁Others	-6244
▁infring	-6245
▁Pakistan	-6246
▁villages	-6247
▁equitable	-6248
urt	-6249
▁Sanj	-6250
enable	-6251
▁travel	-6252
def	-6253
mun	-6254
▁Oper	-6255
▁awards	-6256
▁consists	-6257
▁undertake	-6258
▁liabilities	-6259
ora	-6260
aksh	-6261
leum	-6262
▁PWs	-6263
ruits	-6264
▁World	-6265
▁Constituent	-6266
▁modification	-6267
ATE	-6268
inem	-6269
▁Common	-6270
▁advised	-6271
▁fulfilled	-6272
▁rejecting	-6273
oles	-6274
ushan	-6275
▁lays	-6276
▁blast	-6277
▁spite	-6278
▁laying	-6279
▁narrow	-6280
▁families	-6281
RC	-6282
▁cum	-6283
▁mix	-6284
ellig	-6285
isted	-6286
▁indul	-6287
▁plans	-6288
▁Awards	-6289
▁closed	-6290
▁congrat	-6291
▁integral	-6292
▁ends	-6293
▁launched	-6294
▁construct	-6295
▁deprived	-6296
opp	-6297
ails	-6298
▁Jay	-6299
▁Crime	-6300
▁Speaking	-6301
▁entities	-6302
▁felicitations	-6303
▁yield	-6304
▁Corpor	-6305
▁Standing	-6306
▁deposits	-6307
▁investors	-6308
▁preparation	-6309
▁Defence	-6310
tificates	-6311
ney	-6312
osen	-6313
▁unauthor	-6314
▁formulated	-6315
▁Op	-6316
▁VII	-6317
ching	-6318
▁floor	-6319
▁perpet	-6320
▁corrupt	-6321
▁liberal	-6322
▁soil	-6323
▁admit	-6324
▁forfe	-6325
▁Follow	-6326
▁moment	-6327
▁faculty	-6328
▁societies	-6329
iece	-6330
▁incent	-6331
▁Tribunals	-6332
▁FOR	-6333
ected	-6334
▁Women	-6335
▁tests	-6336
▁establishing	-6337
▁lab	-6338
▁leases	-6339
izes	-6340
▁orient	-6341
Ad	-6342
▁Object	-6343
▁crimes	-6344
▁variety	-6345
nov	-6346
raf	-6347
▁relatives	-6348
▁implication	-6349
Un	-6350
iar	-6351
▁Consumer	-6352
inqu	-6353
more	-6354
▁hab	-6355
▁vacant	-6356
▁expedit	-6357
▁reliable	-6358
AIR	-6359
play	-6360
▁adult	-6361
▁fixing	-6362
▁wanted	-6363
▁leaving	-6364
▁Each	-6365
▁built	-6366
EF	-6367
▁loans	-6368
▁ultra	-6369
▁Railways	-6370
▁similarly	-6371
▁stamp	-6372
rapali	-6373
roleum	-6374
▁batch	-6375
▁permits	-6376
ows	-6377
unior	-6378
▁Money	-6379
▁stages	-6380
▁undergone	-6381
▁prosperity	-6382
mal	-6383
orily	-6384
▁Kaur	-6385
▁town	-6386
emphasis	-6387
▁decades	-6388
▁declined	-6389
kn	-6390
clear	-6391
▁Jhar	-6392
▁scen	-6393
▁Gopal	-6394
▁royal	-6395
▁dishon	-6396
▁prevailing	-6397
▁Institutions	-6398
abinet	-6399
elling	-6400
▁DELHI	-6401
▁sides	-6402
ichever	-6403
▁chosen	-6404
▁Gh	-6405
▁ge	-6406
▁casual	-6407
▁Revision	-6408
▁designed	-6409
▁effected	-6410
▁unnecessary	-6411
appa	-6412
vere	-6413
▁uses	-6414
▁neigh	-6415
▁aggregate	-6416
▁valuation	-6417
ropol	-6418
▁Hotel	-6419
▁surrender	-6420
▁shareholders	-6421
▁NI	-6422
▁Vin	-6423
▁Consult	-6424
▁Amrapali	-6425
▁Planning	-6426
▁innocent	-6427
▁membership	-6428
orn	-6429
uck	-6430
▁bomb	-6431
▁code	-6432
chand	-6433
▁feed	-6434
▁oath	-6435
irable	-6436
▁resort	-6437
▁qualifying	-6438
▁terminated	-6439
▁institutional	-6440
mp	-6441
xx	-6442
▁departmental	-6443
like	-6444
▁Euro	-6445
▁persu	-6446
▁backward	-6447
▁notifications	-6448
▁discriminatory	-6449
TS	-6450
▁Ro	-6451
▁solely	-6452
igilance	-6453
▁Secondly	-6454
▁empowers	-6455
ilos	-6456
▁eth	-6457
▁East	-6458
public	-6459
▁deeds	-6460
▁organized	-6461
▁Judicature	-6462
▁derived	-6463
▁visited	-6464
▁observing	-6465
NG	-6466
▁GO	-6467
▁cell	-6468
▁river	-6469
▁socio	-6470
▁collabor	-6471
ze	-6472
velled	-6473
ensation	-6474
judicial	-6475
▁passeng	-6476
▁relevance	-6477
▁whichever	-6478
rase	-6479
▁Sale	-6480
▁liquor	-6481
▁terrorist	-6482
▁circumstantial	-6483
oul	-6484
ghal	-6485
▁Annual	-6486
▁Marriage	-6487
▁Societies	-6488
SL	-6489
Reg	-6490
▁Only	-6491
▁federal	-6492
▁representing	-6493
icus	-6494
uddin	-6495
▁brok	-6496
▁mass	-6497
▁essence	-6498
▁Circular	-6499
▁Foundation	-6500
▁entertained	-6501
▁communicated	-6502
uti	-6503
▁mus	-6504
enant	-6505
▁Vish	-6506
▁exclude	-6507
▁jointly	-6508
▁Memorandum	-6509
arency	-6510
▁Patna	-6511
ulatory	-6512
▁caution	-6513
▁partners	-6514
▁Following	-6515
▁sentencing	-6516
▁dig	-6517
▁exempt	-6518
▁tenants	-6519
▁treating	-6520
MENT	-6521
▁fault	-6522
▁buyers	-6523
▁indirectly	-6524
▁choose	-6525
▁inadequ	-6526
▁punished	-6527
,0	-6528
Su	-6529
▁Roy	-6530
▁Conc	-6531
ilosop	-6532
onance	-6533
▁lines	-6534
plaintiff	-6535
▁behaviour	-6536
▁categorically	-6537
▁affidavits	-6538
awan	-6539
▁announ	-6540
▁Seventh	-6541
▁entering	-6542
▁opposite	-6543
apur	-6544
lets	-6545
▁gift	-6546
▁trading	-6547
▁judicata	-6548
▁Sin	-6549
▁leads	-6550
▁houses	-6551
▁joined	-6552
▁enables	-6553
▁MO	-6554
aman	-6555
amus	-6556
hana	-6557
▁enl	-6558
▁enqu	-6559
▁multiple	-6560
▁compulsory	-6561
▁AM	-6562
▁cog	-6563
▁lawful	-6564
▁safeguard	-6565
look	-6566
▁alloc	-6567
▁smugg	-6568
▁anyone	-6569
▁expand	-6570
▁reliefs	-6571
▁).	-6572
▁Car	-6573
▁Jam	-6574
▁jail	-6575
▁plots	-6576
▁Persons	-6577
▁Signature	-6578
▁corroborated	-6579
actory	-6580
▁firms	-6581
▁observe	-6582
▁premium	-6583
▁reveals	-6584
▁tort	-6585
▁panel	-6586
▁multipl	-6587
ropolitan	-6588
▁endeavour	-6589
▁Bud	-6590
erous	-6591
▁bags	-6592
anasia	-6593
aneously	-6594
▁housing	-6595
uthanasia	-6596
▁recourse	-6597
TA	-6598
▁Advis	-6599
▁quota	-6600
▁serving	-6601
▁superann	-6602
▁equipment	-6603
▁difficulty	-6604
▁Agriculture	-6605
▁prospective	-6606
▁Vik	-6607
▁nine	-6608
ducing	-6609
▁Sales	-6610
▁exact	-6611
▁teleph	-6612
▁customers	-6613
▁rich	-6614
arging	-6615
iveness	-6616
▁outset	-6617
▁involve	-6618
▁precise	-6619
▁minority	-6620
▁deficiencies	-6621
Res	-6622
lad	-6623
nergy	-6624
ulter	-6625
assion	-6626
▁played	-6627
▁investments	-6628
▁ND	-6629
▁nu	-6630
▁Nath	-6631
▁IC	-6632
▁Dubai	-6633
▁finger	-6634
▁series	-6635
▁Federal	-6636
▁suspect	-6637
▁monitoring	-6638
▁NJ	-6639
▁Here	-6640
▁tonn	-6641
ceived	-6642
▁Ident	-6643
▁psych	-6644
rimonial	-6645
▁Mission	-6646
▁juvenile	-6647
▁interview	-6648
▁proposals	-6649
▁expressions	-6650
▁intervention	-6651
isp	-6652
▁sac	-6653
▁Gang	-6654
▁aged	-6655
▁eventually	-6656
▁contractual	-6657
▁jurisprudence	-6658
▁organizations	-6659
urate	-6660
▁mercy	-6661
▁lessee	-6662
▁impossible	-6663
▁Its	-6664
▁finality	-6665
▁patients	-6666
▁encourage	-6667
oo	-6668
▁AIC	-6669
▁Var	-6670
agers	-6671
▁depre	-6672
▁forces	-6673
▁turnover	-6674
▁promoting	-6675
▁corruption	-6676
▁enterprise	-6677
MM	-6678
dd	-6679
▁Div	-6680
▁Lie	-6681
icket	-6682
ruption	-6683
▁resign	-6684
▁saying	-6685
▁summons	-6686
statement	-6687
▁Jharkhand	-6688
▁originally	-6689
▁ideas	-6690
▁allott	-6691
inations	-6692
▁Congress	-6693
▁transform	-6694
▁consonance	-6695
ario	-6696
arsh	-6697
worth	-6698
▁aims	-6699
▁sets	-6700
iration	-6701
▁Mineral	-6702
▁residing	-6703
▁cancelled	-6704
▁reflected	-6705
▁irrigation	-6706
▁Confessional	-6707
▁Gl	-6708
▁Dal	-6709
oming	-6710
▁Verma	-6711
stwhile	-6712
▁transl	-6713
itated	-6714
rolment	-6715
▁neighb	-6716
▁minutes	-6717
▁je	-6718
▁dim	-6719
rations	-6720
▁directors	-6721
▁urg	-6722
▁assault	-6723
▁traffic	-6724
▁autonomy	-6725
▁Prevention	-6726
▁admissions	-6727
ida	-6728
▁Sir	-6729
▁camp	-6730
closed	-6731
▁Mines	-6732
▁Kolkata	-6733
▁customs	-6734
▁disturb	-6735
▁Saf	-6736
▁departments	-6737
▁box	-6738
▁speedy	-6739
no	-6740
▁fuel	-6741
▁vers	-6742
▁drugs	-6743
▁erstwhile	-6744
iddle	-6745
earing	-6746
olidated	-6747
▁practition	-6748
cont	-6749
▁big	-6750
▁item	-6751
▁roads	-6752
endants	-6753
▁centre	-6754
▁pressure	-6755
▁assessing	-6756
▁presently	-6757
▁residents	-6758
ressal	-6759
utable	-6760
▁Exper	-6761
▁lapse	-6762
▁route	-6763
sections	-6764
▁Lordship	-6765
▁engineering	-6766
▁exceptional	-6767
▁(“	-6768
inked	-6769
ournal	-6770
▁Forum	-6771
atively	-6772
▁worship	-6773
▁software	-6774
▁marketing	-6775
▁appreciated	-6776
▁territorial	-6777
▁Europe	-6778
▁location	-6779
.]	-6780
va	-6781
otal	-6782
ertil	-6783
▁Appro	-6784
▁ammun	-6785
▁learn	-6786
▁inclusion	-6787
▁raw	-6788
being	-6789
ement	-6790
▁fort	-6791
▁Master	-6792
▁approx	-6793
▁desire	-6794
▁looked	-6795
▁usually	-6796
▁Technical	-6797
▁seriously	-6798
▁competitive	-6799
DC	-6800
▁EC	-6801
▁Neh	-6802
▁ded	-6803
amble	-6804
▁arch	-6805
▁buyer	-6806
▁encro	-6807
▁inaug	-6808
▁Housing	-6809
▁awareness	-6810
▁parliament	-6811
▁territories	-6812
▁milk	-6813
utenant	-6814
▁traditional	-6815
▁introduction	-6816
EE	-6817
▁vary	-6818
▁Bureau	-6819
▁Estate	-6820
▁Nations	-6821
▁enforced	-6822
▁Mu	-6823
▁Inc	-6824
ridge	-6825
uniary	-6826
▁heavy	-6827
pers	-6828
▁NJAC	-6829
▁piece	-6830
ettlement	-6831
▁adoption	-6832
▁critical	-6833
▁sometimes	-6834
aji	-6835
▁How	-6836
burse	-6837
igher	-6838
▁Then	-6839
▁Regulatory	-6840
uit	-6841
rupt	-6842
▁Pay	-6843
abric	-6844
▁elim	-6845
▁phone	-6846
▁youth	-6847
▁Competent	-6848
▁transfere	-6849
▁safeguards	-6850
▁Considering	-6851
roc	-6852
▁Mun	-6853
owners	-6854
▁spect	-6855
▁unjust	-6856
anguages	-6857
▁careful	-6858
▁regulating	-6859
▁km	-6860
▁hit	-6861
Emphasis	-6862
▁Economic	-6863
▁component	-6864
▁allowances	-6865
▁Innov	-6866
▁PWxad	-6867
▁voting	-6868
▁Bhushan	-6869
▁Like	-6870
▁waste	-6871
hension	-6872
▁occasions	-6873
▁Lieutenant	-6874
▁contesting	-6875
▁implementing	-6876
aut	-6877
▁Urban	-6878
▁poverty	-6879
▁wrongly	-6880
▁computed	-6881
▁Petitions	-6882
▁converted	-6883
ets	-6884
▁kg	-6885
▁Kan	-6886
▁Apex	-6887
▁summar	-6888
▁inspect	-6889
▁constitutes	-6890
▁enhancement	-6891
▁demands	-6892
▁estimated	-6893
▁forthwith	-6894
known	-6895
eshwar	-6896
▁divers	-6897
▁Cabinet	-6898
▁Building	-6899
DI	-6900
NL	-6901
rif	-6902
rum	-6903
▁Afric	-6904
▁Nehru	-6905
▁comment	-6906
▁hostile	-6907
power	-6908
▁Sinha	-6909
▁creates	-6910
▁attended	-6911
▁division	-6912
▁averments	-6913
▁SI	-6914
▁bed	-6915
▁male	-6916
▁thinks	-6917
▁advocates	-6918
Cr	-6919
▁rad	-6920
▁culp	-6921
▁AICTE	-6922
▁assumed	-6923
▁calling	-6924
▁pattern	-6925
▁retained	-6926
▁arrangements	-6927
▁--	-6928
▁Nor	-6929
▁Moham	-6930
▁fifteen	-6931
▁elements	-6932
▁wherever	-6933
▁districts	-6934
▁appearance	-6935
iman	-6936
ustain	-6937
▁Reforms	-6938
▁fraudul	-6939
▁whenever	-6940
▁pollution	-6941
▁boy	-6942
otton	-6943
▁heads	-6944
▁filling	-6945
▁respond	-6946
▁winding	-6947
▁Advocates	-6948
▁enactments	-6949
▁lat	-6950
▁earth	-6951
aration	-6952
▁arrive	-6953
▁performing	-6954
▁competition	-6955
LR	-6956
loc	-6957
ster	-6958
▁Fac	-6959
▁imped	-6960
▁scene	-6961
aterial	-6962
iciaries	-6963
▁strengthen	-6964
▁Enterprises	-6965
▁Upon	-6966
▁draf	-6967
▁ways	-6968
ounded	-6969
▁Paper	-6970
▁execute	-6971
▁cognizable	-6972
ima	-6973
ompl	-6974
▁Oil	-6975
▁wis	-6976
▁Data	-6977
▁Sant	-6978
▁accorded	-6979
▁evaluation	-6980
▁permitting	-6981
▁CJ	-6982
▁Gram	-6983
▁fill	-6984
▁pages	-6985
ifiable	-6986
▁depart	-6987
▁clothes	-6988
▁university	-6989
raj	-6990
inter	-6991
ordinary	-6992
▁Keeping	-6993
▁discrep	-6994
▁lawyers	-6995
▁licensee	-6996
▁rendering	-6997
▁confirmation	-6998
▁contributions	-6999
athy	-7000
▁turned	-7001
▁juncture	-7002
▁१७	-7003
▁Maruti	-7004
▁medium	-7005
▁achieving	-7006
▁initiative	-7007
▁memorandum	-7008
▁Agricultural	-7009
▁nec	-7010
▁acid	-7011
▁bill	-7012
▁brib	-7013
▁dict	-7014
▁faced	-7015
ariness	-7016
▁altered	-7017
▁affecting	-7018
▁mitigating	-7019
idance	-7020
isations	-7021
▁conscience	-7022
▁Ban	-7023
▁Temple	-7024
▁killed	-7025
▁posted	-7026
▁Language	-7027
▁dependent	-7028
Ar	-7029
▁:-	-7030
▁Fl	-7031
▁hrs	-7032
▁acre	-7033
▁wise	-7034
▁destroy	-7035
▁perhaps	-7036
RD	-7037
gi	-7038
ming	-7039
ariat	-7040
▁sanct	-7041
▁animal	-7042
▁besides	-7043
vol	-7044
amma	-7045
life	-7046
▁veget	-7047
▁existed	-7048
▁royalty	-7049
▁regulated	-7050
pat	-7051
India	-7052
▁summary	-7053
▁Metropolitan	-7054
▁technologies	-7055
▁schol	-7056
▁empower	-7057
▁looking	-7058
▁happened	-7059
▁resource	-7060
▁surround	-7061
▁separation	-7062
aters	-7063
▁born	-7064
▁sons	-7065
▁Party	-7066
Company	-7067
▁fourth	-7068
ava	-7069
▁Na	-7070
▁NIT	-7071
athan	-7072
▁succession	-7073
▁matrimonial	-7074
▁certificates	-7075
PP	-7076
▁Pune	-7077
▁Christ	-7078
▁figures	-7079
▁Administrator	-7080
ler	-7081
▁sa	-7082
ellect	-7083
▁Steel	-7084
▁convention	-7085
▁irrelevant	-7086
etic	-7087
▁Exh	-7088
HER	-7089
▁path	-7090
▁Motor	-7091
▁claimants	-7092
▁declaring	-7093
ultaneously	-7094
▁conformity	-7095
ndra	-7096
essor	-7097
▁Ibid	-7098
▁Just	-7099
▁stop	-7100
▁severe	-7101
▁animals	-7102
▁leaders	-7103
▁purported	-7104
▁Controller	-7105
▁accommodation	-7106
▁superannuation	-7107
akrish	-7108
▁cogent	-7109
▁Industry	-7110
▁assailed	-7111
▁legality	-7112
▁scenario	-7113
▁Lokayukta	-7114
▁stipulates	-7115
iest	-7116
load	-7117
atform	-7118
▁annex	-7119
▁presumed	-7120
▁restored	-7121
▁revisional	-7122
▁beneficiaries	-7123
iah	-7124
chief	-7125
▁alive	-7126
▁incap	-7127
ranches	-7128
▁leaves	-7129
▁philosop	-7130
▁subscrib	-7131
▁Investment	-7132
▁undoubtedly	-7133
LE	-7134
▁Sik	-7135
▁asp	-7136
▁aimed	-7137
▁Higher	-7138
▁phrase	-7139
▁viewed	-7140
▁century	-7141
▁household	-7142
▁components	-7143
▁privileges	-7144
▁Cooperative	-7145
▁Investigation	-7146
FC	-7147
era	-7148
▁NS	-7149
▁enun	-7150
▁supporting	-7151
OP	-7152
da	-7153
atur	-7154
erved	-7155
▁eminent	-7156
▁interfered	-7157
▁substitute	-7158
icity	-7159
ansion	-7160
astern	-7161
▁deduct	-7162
▁fabric	-7163
▁offers	-7164
PR	-7165
time	-7166
▁Det	-7167
▁Son	-7168
endix	-7169
▁cere	-7170
▁reversed	-7171
▁institute	-7172
▁substanti	-7173
▁furnishing	-7174
▁illegality	-7175
▁fifty	-7176
▁doubts	-7177
▁fairly	-7178
▁anticipatory	-7179
van	-7180
▁BS	-7181
▁fulfil	-7182
▁wisdom	-7183
▁considers	-7184
▁entrepreneurs	-7185
plus	-7186
▁rul	-7187
▁Over	-7188
▁Grant	-7189
▁nexus	-7190
▁nearly	-7191
▁MC	-7192
▁contest	-7193
▁promise	-7194
▁returns	-7195
▁invoking	-7196
▁insolvency	-7197
▁anc	-7198
posit	-7199
rition	-7200
▁demanded	-7201
face	-7202
▁Guide	-7203
▁nations	-7204
▁vitiated	-7205
▁discussions	-7206
rench	-7207
active	-7208
▁ancient	-7209
▁sharing	-7210
▁improper	-7211
▁Assessment	-7212
▁Chancellor	-7213
%.	-7214
cum	-7215
▁SU	-7216
▁goal	-7217
▁seem	-7218
▁stra	-7219
▁cease	-7220
▁expired	-7221
ictionary	-7222
ordination	-7223
▁transparency	-7224
yl	-7225
Act	-7226
mer	-7227
▁AD	-7228
drop	-7229
▁Deb	-7230
▁conj	-7231
▁grand	-7232
▁amending	-7233
▁CC	-7234
▁hes	-7235
thern	-7236
.......	-7237
Section	-7238
▁remote	-7239
▁endorse	-7240
▁evolved	-7241
▁UK	-7242
▁Gen	-7243
▁Num	-7244
▁gap	-7245
▁door	-7246
lihood	-7247
▁confers	-7248
▁Employees	-7249
dar	-7250
vii	-7251
▁Sanjay	-7252
▁xad	-7253
▁Privy	-7254
▁green	-7255
▁prescribe	-7256
▁remission	-7257
▁preference	-7258
▁discharging	-7259
▁Audit	-7260
iliation	-7261
▁attempts	-7262
▁resolved	-7263
▁highlight	-7264
▁communities	-7265
bu	-7266
stant	-7267
▁stream	-7268
▁Ten	-7269
eries	-7270
uestion	-7271
▁Jaipur	-7272
▁retail	-7273
▁refusal	-7274
▁venture	-7275
▁indicating	-7276
▁pronounced	-7277
▁transferee	-7278
▁Petitioners	-7279
herry	-7280
ysore	-7281
▁perf	-7282
witness	-7283
▁chance	-7284
▁mistake	-7285
▁taxable	-7286
▁assumption	-7287
▁compassion	-7288
fall	-7289
▁Ref	-7290
apped	-7291
▁Good	-7292
▁Agency	-7293
▁Energy	-7294
▁Disputes	-7295
▁contends	-7296
has	-7297
rin	-7298
▁frequ	-7299
▁retain	-7300
▁Process	-7301
ustainable	-7302
▁MSME	-7303
▁concession	-7304
▁euthanasia	-7305
▁requisition	-7306
UT	-7307
itect	-7308
▁Thak	-7309
▁tour	-7310
▁changing	-7311
▁investigate	-7312
▁AW	-7313
▁MW	-7314
▁SA	-7315
alled	-7316
▁Mere	-7317
ussain	-7318
▁Three	-7319
▁Vijay	-7320
▁dispro	-7321
▁teacher	-7322
▁handling	-7323
▁extending	-7324
▁Principles	-7325
▁establishments	-7326
itage	-7327
▁Prat	-7328
▁Tele	-7329
▁branch	-7330
▁improving	-7331
▁conclusive	-7332
▁computation	-7333
bir	-7334
care	-7335
oted	-7336
▁ore	-7337
▁obsc	-7338
▁throw	-7339
▁experi	-7340
▁purely	-7341
▁cheques	-7342
idn	-7343
mary	-7344
▁intr	-7345
▁Patent	-7346
▁hardly	-7347
▁Nothing	-7348
▁obliged	-7349
▁demonstrate	-7350
▁voluntarily	-7351
/-.	-7352
akar	-7353
▁chart	-7354
▁stran	-7355
▁gender	-7356
▁lesser	-7357
▁Despite	-7358
▁accompl	-7359
▁drawing	-7360
▁outcome	-7361
▁pecuniary	-7362
▁historical	-7363
oly	-7364
opy	-7365
lands	-7366
▁spent	-7367
▁morning	-7368
▁omitted	-7369
▁broadcast	-7370
▁installation	-7371
MA	-7372
ains	-7373
para	-7374
▁wage	-7375
▁discard	-7376
▁securing	-7377
▁depreciation	-7378
▁subxadsection	-7379
▁Anil	-7380
▁client	-7381
▁street	-7382
▁strike	-7383
▁ticket	-7384
▁prepare	-7385
Appe	-7386
applic	-7387
▁bills	-7388
▁deten	-7389
ribution	-7390
▁constituting	-7391
TC	-7392
▁minds	-7393
▁Inquiry	-7394
▁selling	-7395
▁Teachers	-7396
▁occurring	-7397
▁PO	-7398
▁Nav	-7399
▁dro	-7400
▁lad	-7401
▁user	-7402
▁table	-7403
emption	-7404
▁Associ	-7405
▁Independence	-7406
▁Cle	-7407
ridges	-7408
vation	-7409
▁Anand	-7410
▁Mehta	-7411
omination	-7412
▁platform	-7413
▁confidential	-7414
▁impermissible	-7415
SS	-7416
▁MP	-7417
▁adulter	-7418
▁constitu	-7419
▁MB	-7420
▁lot	-7421
▁love	-7422
▁incon	-7423
ghalaya	-7424
▁protest	-7425
▁believed	-7426
▁therewith	-7427
ded	-7428
▁hoc	-7429
▁film	-7430
▁kill	-7431
▁initiate	-7432
▁emphasized	-7433
cks	-7434
olic	-7435
▁China	-7436
▁wider	-7437
▁debate	-7438
▁reaching	-7439
emn	-7440
▁Test	-7441
▁aggrav	-7442
▁heading	-7443
▁mandamus	-7444
▁disabilities	-7445
EB	-7446
ba	-7447
▁00	-7448
▁capt	-7449
reening	-7450
▁accrued	-7451
▁student	-7452
▁American	-7453
▁Secondary	-7454
▁composition	-7455
Crl	-7456
ensus	-7457
▁domin	-7458
▁Junior	-7459
▁Reasons	-7460
▁railway	-7461
▁duration	-7462
▁executing	-7463
▁Settlement	-7464
DP	-7465
▁bott	-7466
laration	-7467
▁practical	-7468
▁classified	-7469
▁legislations	-7470
▁parliamentary	-7471
hr	-7472
▁cess	-7473
▁kinds	-7474
▁titled	-7475
▁backdrop	-7476
▁fairness	-7477
▁fixation	-7478
▁injustice	-7479
▁contribute	-7480
▁compensatory	-7481
▁stakeholders	-7482
mat	-7483
▁DW	-7484
▁club	-7485
▁pist	-7486
▁prec	-7487
▁Purch	-7488
▁exhib	-7489
▁remar	-7490
▁inputs	-7491
▁finance	-7492
▁popular	-7493
▁samples	-7494
▁enrolment	-7495
▁expansion	-7496
▁NAB	-7497
▁pip	-7498
amber	-7499
holding	-7500
▁surplus	-7501
VC	-7502
▁neck	-7503
▁wall	-7504
certain	-7505
▁display	-7506
▁fulfill	-7507
▁litigant	-7508
pura	-7509
▁See	-7510
uliar	-7511
▁Town	-7512
▁maxim	-7513
▁desirable	-7514
pled	-7515
▁Rest	-7516
▁effects	-7517
▁failing	-7518
▁Australia	-7519
ulg	-7520
▁ec	-7521
mail	-7522
▁Chan	-7523
▁vast	-7524
▁steel	-7525
▁purport	-7526
▁putting	-7527
▁therefrom	-7528
▁commencing	-7529
▁discipline	-7530
▁gr	-7531
otic	-7532
arian	-7533
▁Park	-7534
▁fired	-7535
▁skill	-7536
ensions	-7537
▁critic	-7538
▁figure	-7539
▁remedies	-7540
▁livelihood	-7541
▁Sush	-7542
▁abet	-7543
▁mala	-7544
aulted	-7545
riages	-7546
▁recently	-7547
▁relaxation	-7548
▁discretionary	-7549
▁Shi	-7550
ether	-7551
orter	-7552
▁peculiar	-7553
▁Deposition	-7554
umn	-7555
▁Lit	-7556
attis	-7557
▁simpl	-7558
▁incumb	-7559
▁suspicion	-7560
PF	-7561
▁fla	-7562
▁skills	-7563
▁Lic	-7564
uated	-7565
▁Orig	-7566
▁Ranj	-7567
chnama	-7568
ractor	-7569
▁Mahat	-7570
▁recip	-7571
▁canvas	-7572
▁measuring	-7573
▁newspaper	-7574
▁pronounce	-7575
▁Securities	-7576
hs	-7577
▁Lo	-7578
▁Lep	-7579
▁easy	-7580
▁rain	-7581
ciences	-7582
▁refuse	-7583
iculture	-7584
▁Conduct	-7585
▁guidance	-7586
▁unfortun	-7587
▁contending	-7588
▁Subsequently	-7589
')	-7590
▁Sen	-7591
▁pil	-7592
▁vex	-7593
▁Inst	-7594
▁repl	-7595
▁Instru	-7596
ications	-7597
▁deficiency	-7598
▁disqualified	-7599
▁transmission	-7600
akes	-7601
▁Life	-7602
▁vehe	-7603
▁reducing	-7604
▁Limitation	-7605
▁protecting	-7606
▁presentation	-7607
rote	-7608
▁CHA	-7609
▁break	-7610
attisgarh	-7611
ellectual	-7612
▁instances	-7613
hu	-7614
▁cr	-7615
▁Model	-7616
ogether	-7617
▁integrated	-7618
▁signatures	-7619
▁furtherance	-7620
▁undertakings	-7621
GH	-7622
▁Doct	-7623
econom	-7624
▁easily	-7625
▁adopting	-7626
▁Judiciary	-7627
▁convenience	-7628
▁Commissioners	-7629
ole	-7630
▁dy	-7631
▁UID	-7632
▁Count	-7633
▁grade	-7634
▁remin	-7635
▁Mysore	-7636
▁trying	-7637
locutory	-7638
▁earning	-7639
▁healthy	-7640
AGE	-7641
nsic	-7642
▁quo	-7643
ushed	-7644
▁sick	-7645
regard	-7646
▁Ramesh	-7647
▁losses	-7648
▁assuming	-7649
▁Meghalaya	-7650
▁attributed	-7651
▁Furthermore	-7652
vert	-7653
▁Please	-7654
▁belongs	-7655
▁knowing	-7656
▁Mohammed	-7657
▁provisional	-7658
▁administered	-7659
▁RD	-7660
▁Vide	-7661
▁NABARD	-7662
mittedly	-7663
▁elaborate	-7664
▁administer	-7665
▁Six	-7666
▁enro	-7667
estern	-7668
▁fiction	-7669
▁generated	-7670
▁hereinafter	-7671
▁supervision	-7672
▁Ka	-7673
▁MM	-7674
▁Chow	-7675
▁video	-7676
▁secret	-7677
▁Nariman	-7678
▁exceptions	-7679
▁enforceable	-7680
aland	-7681
inema	-7682
▁Trad	-7683
▁Vehic	-7684
▁Likewise	-7685
compliance	-7686
▁excessive	-7687
▁inflicted	-7688
▁Cro	-7689
▁lieu	-7690
▁rely	-7691
▁Caste	-7692
▁drive	-7693
Appeals	-7694
bar	-7695
▁tank	-7696
▁quasi	-7697
▁blocks	-7698
▁pursue	-7699
▁divided	-7700
▁starting	-7701
▁Many	-7702
▁Forces	-7703
▁Indira	-7704
▁cement	-7705
▁emerging	-7706
▁adversely	-7707
▁allocated	-7708
▁arbitrariness	-7709
.'	-7710
ugn	-7711
▁Establ	-7712
▁assent	-7713
▁primacy	-7714
▁reality	-7715
▁channels	-7716
▁tendered	-7717
▁reproduce	-7718
▁differently	-7719
RS	-7720
una	-7721
fering	-7722
▁debts	-7723
▁Vigilance	-7724
▁Admittedly	-7725
▁Directorate	-7726
Ms	-7727
cript	-7728
▁roll	-7729
▁Pursu	-7730
ertiliz	-7731
▁covers	-7732
▁earned	-7733
▁online	-7734
▁upholding	-7735
▁Da	-7736
▁TRA	-7737
▁negoti	-7738
▁successfully	-7739
▁hect	-7740
▁infer	-7741
▁enunci	-7742
▁season	-7743
▁tested	-7744
▁assured	-7745
▁missing	-7746
▁intellig	-7747
▁solution	-7748
plom	-7749
works	-7750
veloper	-7751
▁Letter	-7752
▁assessees	-7753
▁tribunals	-7754
▁engagement	-7755
ls	-7756
▁Mur	-7757
▁Sand	-7758
▁infirm	-7759
▁supers	-7760
▁monetary	-7761
his	-7762
ding	-7763
ogue	-7764
inous	-7765
▁fatal	-7766
▁immense	-7767
▁literal	-7768
▁brothers	-7769
▁deducted	-7770
▁municipal	-7771
▁Departments	-7772
▁extraordinary	-7773
▁jurisdictional	-7774
pla	-7775
atin	-7776
oday	-7777
▁Gan	-7778
▁chap	-7779
▁Islam	-7780
ardship	-7781
▁conting	-7782
▁possibly	-7783
▁CL	-7784
▁pal	-7785
opped	-7786
ladesh	-7787
▁rapid	-7788
aboratory	-7789
▁alleging	-7790
▁Card	-7791
▁delayed	-7792
▁trained	-7793
▁acknowledged	-7794
▁ask	-7795
▁inev	-7796
▁becoming	-7797
▁enacting	-7798
▁overlook	-7799
▁explosives	-7800
▁Examination	-7801
▁hyp	-7802
▁ensu	-7803
▁sugar	-7804
▁manage	-7805
▁sealed	-7806
▁praying	-7807
▁amounting	-7808
▁personally	-7809
▁resignation	-7810
▁approximately	-7811
▁Us	-7812
▁facto	-7813
▁Recomm	-7814
▁Taking	-7815
economic	-7816
▁customer	-7817
▁guardian	-7818
▁perverse	-7819
▁formation	-7820
▁contraband	-7821
▁BY	-7822
araj	-7823
hers	-7824
▁Joh	-7825
urism	-7826
▁zone	-7827
empted	-7828
istries	-7829
▁exchan	-7830
▁species	-7831
matter	-7832
rained	-7833
rection	-7834
▁driven	-7835
▁exports	-7836
▁producing	-7837
jan	-7838
gery	-7839
▁Pass	-7840
ensing	-7841
▁Those	-7842
▁reveal	-7843
▁exceeds	-7844
▁markets	-7845
▁licences	-7846
▁compelled	-7847
▁Disc	-7848
▁imag	-7849
▁unequ	-7850
▁reforms	-7851
▁Pursuant	-7852
▁Environmental	-7853
mity	-7854
▁Fact	-7855
ricket	-7856
▁mines	-7857
▁remun	-7858
athered	-7859
▁tourism	-7860
▁violate	-7861
▁grievances	-7862
oppel	-7863
▁twel	-7864
▁Bills	-7865
▁Indeed	-7866
▁Objects	-7867
unication	-7868
▁Declaration	-7869
▁simultaneously	-7870
)]	-7871
▁Mil	-7872
▁Tel	-7873
▁bur	-7874
ondon	-7875
▁Last	-7876
▁resc	-7877
uments	-7878
▁ambig	-7879
▁wrote	-7880
▁middle	-7881
▁Narayan	-7882
ederation	-7883
▁structures	-7884
sett	-7885
▁Rai	-7886
▁Asia	-7887
▁murd	-7888
▁Africa	-7889
▁brings	-7890
▁solemn	-7891
▁apposite	-7892
▁earliest	-7893
▁vehement	-7894
▁expedient	-7895
▁productivity	-7896
▁strengthening	-7897
atel	-7898
long	-7899
▁Rat	-7900
ronics	-7901
stated	-7902
▁weigh	-7903
▁commodity	-7904
▁assignment	-7905
▁Ahm	-7906
▁vul	-7907
rical	-7908
▁knew	-7909
▁Press	-7910
▁fight	-7911
▁agents	-7912
▁proving	-7913
▁hardship	-7914
▁remember	-7915
▁expertise	-7916
▁installed	-7917
▁prescribes	-7918
▁prevention	-7919
eet	-7920
iri	-7921
▁IR	-7922
▁Liqu	-7923
▁affili	-7924
▁linked	-7925
▁Appoint	-7926
▁Undertak	-7927
▁mandates	-7928
▁Ahmedabad	-7929
▁Governance	-7930
rosy	-7931
▁PRO	-7932
▁Poll	-7933
whether	-7934
▁headed	-7935
▁scales	-7936
▁herself	-7937
▁enterprises	-7938
▁apprehension	-7939
▁RE	-7940
bered	-7941
orrow	-7942
▁Area	-7943
▁asking	-7944
▁mortem	-7945
▁Kingdom	-7946
▁desired	-7947
▁forming	-7948
▁branches	-7949
▁supposed	-7950
▁Promotion	-7951
▁Din	-7952
ordin	-7953
uriae	-7954
▁Shaikh	-7955
▁credibility	-7956
want	-7957
harma	-7958
atious	-7959
▁shops	-7960
▁Provin	-7961
▁convin	-7962
▁termed	-7963
▁illness	-7964
▁universal	-7965
▁corroboration	-7966
▁supplementary	-7967
ule	-7968
▁girls	-7969
▁train	-7970
▁delinqu	-7971
▁specially	-7972
▁disproportion	-7973
▁pronouncement	-7974
▁Av	-7975
rent	-7976
▁Mrs	-7977
▁Rak	-7978
▁symb	-7979
▁Nagpur	-7980
▁afresh	-7981
▁Leprosy	-7982
bursement	-7983
▁........	-7984
▁affirmative	-7985
▁formulation	-7986
▁Construction	-7987
▁developments	-7988
▁exploitation	-7989
▁gar	-7990
▁Noida	-7991
service	-7992
▁Letters	-7993
▁availed	-7994
▁comprised	-7995
▁uncertain	-7996
▁reinstatement	-7997
On	-7998
▁CE	-7999
▁ID	-8000
eced	-8001
▁quote	-8002
▁attempted	-8003
▁excluding	-8004
▁illegally	-8005
▁generating	-8006
▁denomination	-8007
▁cities	-8008
▁ceiling	-8009
akrishnan	-8010
▁Commerce	-8011
▁European	-8012
▁covering	-8013
▁Recommend	-8014
▁Bangladesh	-8015
coh	-8016
dict	-8017
▁Luck	-8018
▁assume	-8019
▁annexed	-8020
▁promulg	-8021
▁suffers	-8022
▁gathered	-8023
▁paramount	-8024
▁ascertained	-8025
▁expeditiously	-8026
CP	-8027
IM	-8028
SA	-8029
ilal	-8030
▁devi	-8031
▁Boards	-8032
▁Expert	-8033
▁ceased	-8034
▁preval	-8035
It	-8036
Se	-8037
▁Kap	-8038
▁eld	-8039
▁relat	-8040
▁Children	-8041
▁exempted	-8042
▁Employment	-8043
▁instruments	-8044
▁guided	-8045
▁lawyer	-8046
▁command	-8047
▁motorcy	-8048
▁verified	-8049
▁languages	-8050
▁telephone	-8051
UK	-8052
car	-8053
▁१८	-8054
▁Mas	-8055
▁Treat	-8056
istence	-8057
▁Fourth	-8058
▁coupled	-8059
▁periods	-8060
▁narrated	-8061
▁sensitive	-8062
dden	-8063
▁Repe	-8064
avings	-8065
▁Tariff	-8066
▁diverse	-8067
▁substances	-8068
▁DG	-8069
heet	-8070
inct	-8071
▁Mat	-8072
▁Grade	-8073
▁Orders	-8074
▁decreed	-8075
▁nominee	-8076
▁prohibit	-8077
▁apprehend	-8078
▁extensive	-8079
resentation	-8080
▁excellence	-8081
iat	-8082
iagn	-8083
▁Yet	-8084
▁eve	-8085
▁Bach	-8086
▁Most	-8087
ananda	-8088
▁Refer	-8089
ATIONAL	-8090
▁regime	-8091
▁anteced	-8092
PEAL	-8093
▁Bad	-8094
▁mob	-8095
▁Hand	-8096
▁cryst	-8097
▁truck	-8098
▁Eastern	-8099
▁Mahatma	-8100
▁pressed	-8101
▁canvassed	-8102
▁distributed	-8103
AND	-8104
▁Sund	-8105
▁Scale	-8106
ableness	-8107
▁deleted	-8108
▁preserve	-8109
ams	-8110
uru	-8111
▁CS	-8112
prin	-8113
▁COUR	-8114
▁Paras	-8115
▁marry	-8116
▁voice	-8117
▁showed	-8118
▁Accounts	-8119
▁belonged	-8120
▁director	-8121
▁diseases	-8122
▁entirety	-8123
▁assertion	-8124
ARY	-8125
five	-8126
▁Fee	-8127
enary	-8128
▁deny	-8129
▁Ambed	-8130
▁Among	-8131
▁Patel	-8132
itative	-8133
ulative	-8134
▁extingu	-8135
▁falsely	-8136
▁impartial	-8137
▁ourselves	-8138
▁innovative	-8139
▁dissolution	-8140
▁stipulation	-8141
▁UP	-8142
▁pp	-8143
odal	-8144
▁ago	-8145
struct	-8146
▁sixty	-8147
▁usage	-8148
▁gravity	-8149
▁cultivation	-8150
▁distinguish	-8151
▁Amb	-8152
▁MBBS	-8153
▁Prem	-8154
▁tune	-8155
▁embod	-8156
▁enshr	-8157
▁goals	-8158
▁Online	-8159
▁Suresh	-8160
▁Without	-8161
▁Ambedkar	-8162
▁automatically	-8163
lal	-8164
▁bud	-8165
▁sea	-8166
▁London	-8167
▁reserve	-8168
▁whereof	-8169
▁arriving	-8170
▁discovery	-8171
FA	-8172
▁Crl	-8173
▁DDA	-8174
▁Pad	-8175
▁USA	-8176
▁hyd	-8177
▁Need	-8178
▁Open	-8179
▁conspir	-8180
▁Register	-8181
▁prisoner	-8182
▁replaced	-8183
▁compelling	-8184
▁adjudicating	-8185
▁BO	-8186
▁Bai	-8187
trans	-8188
▁eyes	-8189
▁Return	-8190
▁taxing	-8191
▁twelve	-8192
▁explicit	-8193
▁scholars	-8194
▁expectation	-8195
▁IO	-8196
▁Wakf	-8197
▁magn	-8198
▁stret	-8199
▁exhaustive	-8200
▁inadequate	-8201
els	-8202
stone	-8203
▁tools	-8204
▁engage	-8205
▁speaks	-8206
▁amalgam	-8207
▁Advisory	-8208
▁Juvenile	-8209
▁entitlement	-8210
▁contemplates	-8211
▁difficulties	-8212
ION	-8213
▁Tal	-8214
▁pict	-8215
ortion	-8216
▁alias	-8217
▁grants	-8218
▁repugn	-8219
▁answers	-8220
▁resolve	-8221
▁hospitals	-8222
▁secondary	-8223
▁DAY	-8224
▁Due	-8225
house	-8226
▁Adjud	-8227
renades	-8228
▁extends	-8229
▁acquiring	-8230
▁Infrastructure	-8231
▁proportionality	-8232
exam	-8233
oided	-8234
▁Coal	-8235
▁Venk	-8236
▁Manual	-8237
▁Thakur	-8238
▁concent	-8239
▁Professor	-8240
▁assurance	-8241
▁hesitation	-8242
▁initiation	-8243
bas	-8244
▁Neg	-8245
ament	-8246
▁inher	-8247
▁escape	-8248
▁describ	-8249
clamation	-8250
▁pregnancy	-8251
▁Secretariat	-8252
▁differences	-8253
▁Chhattisgarh	-8254
zing	-8255
▁Mut	-8256
▁Rad	-8257
▁Rem	-8258
▁cam	-8259
▁pra	-8260
▁ones	-8261
▁Local	-8262
▁APPEAL	-8263
▁invoke	-8264
▁testing	-8265
▁pertains	-8266
▁UT	-8267
cles	-8268
wali	-8269
assess	-8270
▁upper	-8271
▁absent	-8272
▁Lucknow	-8273
▁Reports	-8274
ciplinary	-8275
▁receipts	-8276
▁charitable	-8277
aq	-8278
▁ER	-8279
claim	-8280
▁incrimin	-8281
▁resorted	-8282
▁secondly	-8283
▁regularly	-8284
wala	-8285
▁Kas	-8286
▁Canada	-8287
▁affects	-8288
▁avoided	-8289
▁nuclear	-8290
▁repayment	-8291
▁Guidelines	-8292
▁altogether	-8293
▁leadership	-8294
As	-8295
atar	-8296
gaon	-8297
▁jur	-8298
▁mill	-8299
ivided	-8300
umping	-8301
▁Today	-8302
▁settle	-8303
▁Benches	-8304
▁levelled	-8305
▁impression	-8306
udi	-8307
▁Bel	-8308
▁bye	-8309
rates	-8310
▁Hold	-8311
icable	-8312
▁vulner	-8313
▁shifted	-8314
▁solutions	-8315
▁transparent	-8316
IF	-8317
▁unsu	-8318
TITION	-8319
▁moving	-8320
▁drought	-8321
▁numerous	-8322
▁Corporate	-8323
▁prejudicial	-8324
VI	-8325
lap	-8326
▁CW	-8327
▁Kes	-8328
▁vic	-8329
▁Laksh	-8330
▁format	-8331
▁temper	-8332
▁Develop	-8333
▁invested	-8334
▁remanded	-8335
▁clarification	-8336
▁modifications	-8337
HO	-8338
apan	-8339
▁rob	-8340
▁van	-8341
▁Gold	-8342
▁overt	-8343
▁matrix	-8344
▁estoppel	-8345
▁marginal	-8346
▁disregard	-8347
▁enhancing	-8348
▁innocence	-8349
ops	-8350
▁Um	-8351
▁Cal	-8352
▁Dhan	-8353
▁Armed	-8354
▁newly	-8355
▁facing	-8356
ographic	-8357
▁Guarant	-8358
▁convers	-8359
▁firstly	-8360
▁answering	-8361
▁infirmity	-8362
▁subsidiary	-8363
ksh	-8364
▁Aj	-8365
▁|(	-8366
mony	-8367
▁trend	-8368
theless	-8369
▁emerged	-8370
▁entitle	-8371
▁premise	-8372
▁quarter	-8373
▁attorney	-8374
▁vehemently	-8375
▁arbitrators	-8376
▁cooperative	-8377
NO	-8378
arden	-8379
▁bare	-8380
▁hour	-8381
▁slum	-8382
▁Chaudh	-8383
▁Chemical	-8384
▁mandated	-8385
▁fraudulent	-8386
▁Legislatures	-8387
▁practitioner	-8388
IST	-8389
▁LA	-8390
▁Opp	-8391
▁Sel	-8392
▁apt	-8393
iques	-8394
iries	-8395
▁John	-8396
▁utilised	-8397
ox	-8398
PTER	-8399
ners	-8400
▁curt	-8401
▁Pract	-8402
▁dance	-8403
▁disse	-8404
▁facet	-8405
▁occur	-8406
▁occurs	-8407
▁Centres	-8408
▁Arunachal	-8409
▁ITR	-8410
▁Lead	-8411
▁Mish	-8412
making	-8413
▁Sunil	-8414
▁Rajesh	-8415
▁Resident	-8416
▁respects	-8417
cellaneous	-8418
▁assaulted	-8419
▁incumbent	-8420
▁enunciated	-8421
▁interfering	-8422
▁maintainability	-8423
arm	-8424
▁Saw	-8425
▁inad	-8426
oon	-8427
pus	-8428
advant	-8429
▁assert	-8430
▁Original	-8431
▁assisted	-8432
▁delegation	-8433
▁requesting	-8434
lor	-8435
▁Und	-8436
▁rout	-8437
▁sequ	-8438
cludes	-8439
▁knife	-8440
▁credited	-8441
appellants	-8442
▁enshrined	-8443
▁accountability	-8444
▁Gas	-8445
▁arm	-8446
▁sew	-8447
▁bars	-8448
▁Mills	-8449
▁Plant	-8450
▁device	-8451
▁Edition	-8452
▁Product	-8453
condition	-8454
▁negligent	-8455
▁prevented	-8456
▁vexatious	-8457
▁virtually	-8458
▁Fundamental	-8459
▁independently	-8460
eas	-8461
hara	-8462
before	-8463
▁Death	-8464
▁allows	-8465
▁benefic	-8466
▁subsidy	-8467
▁delinquent	-8468
▁emphasised	-8469
amin	-8470
▁tea	-8471
▁infl	-8472
▁grown	-8473
▁define	-8474
▁parity	-8475
▁Bharati	-8476
▁clarify	-8477
▁convenient	-8478
▁previously	-8479
▁photographs	-8480
▁SP	-8481
indra	-8482
▁feet	-8483
▁UIDAI	-8484
▁alcoh	-8485
▁indig	-8486
▁quick	-8487
▁Safety	-8488
▁spouse	-8489
▁Referring	-8490
oph	-8491
▁unp	-8492
▁jeep	-8493
▁votes	-8494
▁violates	-8495
▁endorsement	-8496
▁remuneration	-8497
▁reconsideration	-8498
▁Lax	-8499
oking	-8500
▁cotton	-8501
▁sample	-8502
▁composite	-8503
▁surcharge	-8504
▁Who	-8505
▁ste	-8506
▁suo	-8507
▁lacs	-8508
atories	-8509
▁Mishra	-8510
▁Banking	-8511
▁PETITION	-8512
▁medicine	-8513
▁utilized	-8514
▁Ir	-8515
rier	-8516
▁Fif	-8517
▁PPA	-8518
▁vague	-8519
▁watch	-8520
▁Natural	-8521
▁restoration	-8522
----------------	-8523
▁NGT	-8524
▁Sad	-8525
▁wel	-8526
mises	-8527
oples	-8528
▁ball	-8529
▁panch	-8530
▁saved	-8531
▁repeatedly	-8532
anti	-8533
ulled	-8534
igible	-8535
▁posed	-8536
▁Manipur	-8537
▁consign	-8538
Re	-8539
▁ang	-8540
▁fet	-8541
▁rif	-8542
attle	-8543
▁Cell	-8544
▁sand	-8545
ecific	-8546
▁dwell	-8547
▁ensured	-8548
▁appended	-8549
▁meantime	-8550
▁contributed	-8551
▁consistently	-8552
ton	-8553
yer	-8554
angan	-8555
▁race	-8556
ourage	-8557
▁twice	-8558
▁emerge	-8559
▁strugg	-8560
▁CHAPTER	-8561
▁Relying	-8562
▁closely	-8563
▁strongly	-8564
▁irregularity	-8565
urg	-8566
aded	-8567
anim	-8568
utors	-8569
ography	-8570
▁Number	-8571
▁waters	-8572
▁conveyed	-8573
▁heritage	-8574
▁chargesheet	-8575
▁investigations	-8576
▁NC	-8577
ailed	-8578
shall	-8579
▁Shankar	-8580
▁partial	-8581
▁threatened	-8582
▁questioning	-8583
▁satisfactory	-8584
osex	-8585
▁rice	-8586
aining	-8587
▁Staff	-8588
▁bonds	-8589
ailable	-8590
isputed	-8591
urement	-8592
▁Mittal	-8593
▁handic	-8594
▁revers	-8595
▁varied	-8596
▁architect	-8597
▁contested	-8598
▁enjoyment	-8599
▁references	-8600
▁discrepancies	-8601
itate	-8602
▁Time	-8603
▁clin	-8604
▁Shyam	-8605
▁fruit	-8606
▁dividend	-8607
▁operates	-8608
▁incidents	-8609
▁neighbour	-8610
▁sovereign	-8611
▁Innovation	-8612
▁Dam	-8613
▁abol	-8614
▁sake	-8615
▁motiv	-8616
▁disadvant	-8617
▁Ministries	-8618
▁Provisions	-8619
▁absorption	-8620
▁apparently	-8621
▁motorcycle	-8622
▁submitting	-8623
dish	-8624
▁ACT	-8625
below	-8626
akhand	-8627
▁widow	-8628
▁forced	-8629
▁Majesty	-8630
▁intimation	-8631
▁continuance	-8632
▁Arms	-8633
worthy	-8634
▁sudden	-8635
▁carries	-8636
▁Registry	-8637
▁predecess	-8638
END	-8639
Tax	-8640
ips	-8641
wife	-8642
astic	-8643
rafts	-8644
▁misuse	-8645
▁prompt	-8646
▁attachment	-8647
▁indication	-8648
▁retrospect	-8649
▁Commissions	-8650
▁amalgamation	-8651
▁organisations	-8652
kin	-8653
rec	-8654
▁Ty	-8655
olve	-8656
▁Bro	-8657
Union	-8658
▁Back	-8659
volous	-8660
▁discon	-8661
graduate	-8662
▁Firstly	-8663
▁convert	-8664
▁Preamble	-8665
▁alteration	-8666
▁orientation	-8667
IP	-8668
iya	-8669
▁MA	-8670
IVIL	-8671
atab	-8672
fers	-8673
▁PAN	-8674
stante	-8675
▁Level	-8676
ildlife	-8677
▁pleased	-8678
▁secular	-8679
▁possessed	-8680
▁adjustment	-8681
▁committees	-8682
▁technological	-8683
tical	-8684
▁flats	-8685
▁electoral	-8686
▁recognize	-8687
▁comparison	-8688
▁attributable	-8689
Bs	-8690
Rup	-8691
omal	-8692
▁Use	-8693
ccess	-8694
▁prox	-8695
▁reck	-8696
▁micro	-8697
▁budget	-8698
▁pistol	-8699
▁unlike	-8700
▁harmony	-8701
▁managing	-8702
▁thereupon	-8703
called	-8704
▁aband	-8705
▁frust	-8706
▁factum	-8707
▁enabled	-8708
▁charging	-8709
▁comments	-8710
▁offering	-8711
▁promoter	-8712
▁contradictions	-8713
ocon	-8714
▁lis	-8715
arshan	-8716
tation	-8717
▁CIVIL	-8718
▁Against	-8719
▁incentives	-8720
vals	-8721
▁die	-8722
▁Repeal	-8723
▁double	-8724
▁latest	-8725
▁billion	-8726
▁analysed	-8727
▁witnessed	-8728
▁IIT	-8729
entions	-8730
▁Partic	-8731
▁meters	-8732
▁Indians	-8733
▁envisages	-8734
▁accounting	-8735
▁FO	-8736
PWxad	-8737
raman	-8738
coming	-8739
▁Democ	-8740
▁Rakesh	-8741
▁adjourn	-8742
▁functional	-8743
▁interlocutory	-8744
duc	-8745
abhai	-8746
atern	-8747
▁runs	-8748
▁Const	-8749
▁Later	-8750
▁Liquid	-8751
▁vendor	-8752
▁restraining	-8753
▁conservation	-8754
ese	-8755
aign	-8756
▁Dar	-8757
▁map	-8758
▁Juris	-8759
▁chest	-8760
▁career	-8761
▁consec	-8762
▁Finally	-8763
▁restraint	-8764
▁influenced	-8765
▁Uttarakhand	-8766
▁intellectual	-8767
▁manufacturers	-8768
▁unsustainable	-8769
osis	-8770
▁Gul	-8771
disha	-8772
ights	-8773
▁feas	-8774
orters	-8775
▁Integ	-8776
▁unity	-8777
▁trials	-8778
priation	-8779
▁military	-8780
▁multiplier	-8781
▁participating	-8782
was	-8783
▁pm	-8784
▁lose	-8785
▁nurs	-8786
▁scri	-8787
Rupees	-8788
▁manip	-8789
▁scoot	-8790
▁deductions	-8791
▁literature	-8792
iled	-8793
▁pad	-8794
ented	-8795
▁white	-8796
▁machine	-8797
▁Justices	-8798
▁pronouncements	-8799
unk	-8800
▁Sl	-8801
room	-8802
▁ICC	-8803
itime	-8804
▁Five	-8805
▁mine	-8806
entral	-8807
▁intra	-8808
▁merger	-8809
▁Neither	-8810
▁deserve	-8811
▁frivolous	-8812
▁impleaded	-8813
▁functionaries	-8814
ils	-8815
▁Ce	-8816
▁ft	-8817
▁bears	-8818
▁stress	-8819
▁tonnes	-8820
▁Proceed	-8821
▁closure	-8822
▁confine	-8823
▁philosophy	-8824
▁War	-8825
iscal	-8826
owner	-8827
▁isol	-8828
▁condol	-8829
▁Payment	-8830
▁killing	-8831
▁unknown	-8832
▁Contempt	-8833
▁discount	-8834
mark	-8835
pass	-8836
urch	-8837
uter	-8838
what	-8839
▁ICT	-8840
▁dry	-8841
▁Citiz	-8842
▁Global	-8843
▁Record	-8844
▁happen	-8845
▁upgrad	-8846
▁friendship	-8847
▁surrounding	-8848
EST	-8849
ITY	-8850
ENCE	-8851
▁Jal	-8852
▁haz	-8853
ruction	-8854
▁silver	-8855
▁evening	-8856
▁propose	-8857
▁vesting	-8858
▁representations	-8859
▁]	-8860
inc	-8861
▁Ger	-8862
▁Jaw	-8863
▁Ved	-8864
▁Sure	-8865
▁Tehs	-8866
▁cycle	-8867
▁intest	-8868
▁degrees	-8869
▁stopped	-8870
ciliation	-8871
▁attitude	-8872
▁offending	-8873
▁overruled	-8874
▁Dictionary	-8875
▁suppression	-8876
▁investigated	-8877
dec	-8878
▁hum	-8879
force	-8880
▁Raju	-8881
▁thor	-8882
▁ahead	-8883
▁dilig	-8884
▁lists	-8885
▁marriages	-8886
VER	-8887
isms	-8888
▁Drug	-8889
▁MESS	-8890
▁bone	-8891
▁Vikas	-8892
▁forests	-8893
▁hectares	-8894
▁improved	-8895
▁Petroleum	-8896
▁deputation	-8897
▁guarantees	-8898
▁reputation	-8899
▁hereinbelow	-8900
▁Adjudicating	-8901
▁CM	-8902
▁root	-8903
▁blank	-8904
▁colon	-8905
▁stone	-8906
▁defaul	-8907
▁defeat	-8908
▁ending	-8909
▁unanim	-8910
▁Various	-8911
▁perfect	-8912
▁profile	-8913
▁Resource	-8914
▁concepts	-8915
▁freedoms	-8916
▁inviting	-8917
▁refusing	-8918
▁prosecuted	-8919
▁adjudicated	-8920
▁prescribing	-8921
▁characteristics	-8922
Is	-8923
▁JJ	-8924
ohar	-8925
▁Bah	-8926
▁ties	-8927
estival	-8928
▁Odisha	-8929
▁MESSAGE	-8930
▁artific	-8931
▁weightage	-8932
▁Monitoring	-8933
MT	-8934
apt	-8935
mpt	-8936
ambig	-8937
belie	-8938
▁Anal	-8939
ugopal	-8940
▁thres	-8941
▁Kishan	-8942
▁condon	-8943
▁chapter	-8944
▁doubtful	-8945
▁summoning	-8946
▁Corruption	-8947
▁completing	-8948
▁healthcare	-8949
▁appreciating	-8950
hesh	-8951
▁Nep	-8952
apore	-8953
▁Bhat	-8954
▁Lords	-8955
▁grass	-8956
▁Export	-8957
▁Certain	-8958
▁onwards	-8959
▁fertiliz	-8960
▁exercises	-8961
▁reiterate	-8962
▁landowners	-8963
▁continuation	-8964
Dr	-8965
othe	-8966
▁lik	-8967
▁Body	-8968
▁Mach	-8969
ortium	-8970
raction	-8971
▁incomp	-8972
iversary	-8973
▁climate	-8974
▁reporting	-8975
▁erroneously	-8976
▁declarations	-8977
AYS	-8978
oda	-8979
ford	-8980
asion	-8981
▁abst	-8982
▁Autom	-8983
▁Griev	-8984
▁helps	-8985
entures	-8986
▁conced	-8987
▁Greater	-8988
▁restore	-8989
▁unambig	-8990
▁Defendants	-8991
▁personality	-8992
ota	-8993
ician	-8994
▁Tour	-8995
auvery	-8996
▁trees	-8997
▁nonxad	-8998
▁volume	-8999
▁managed	-9000
▁monitor	-9001
▁meaningful	-9002
▁substantiate	-9003
wara	-9004
▁Guard	-9005
▁Stock	-9006
▁surve	-9007
▁encumb	-9008
▁leased	-9009
▁surface	-9010
ographical	-9011
▁Personnel	-9012
▁dedicated	-9013
▁incriminating	-9014
do	-9015
▁Van	-9016
▁empt	-9017
▁kidn	-9018
▁Hindus	-9019
▁bodily	-9020
▁prayers	-9021
▁opinions	-9022
▁Statutory	-9023
▁disposing	-9024
▁commodities	-9025
▁communications	-9026
ika	-9027
awalli	-9028
▁Cause	-9029
▁blind	-9030
▁diagn	-9031
deceased	-9032
▁remarks	-9033
▁adjusted	-9034
▁attacked	-9035
▁Marketing	-9036
▁financing	-9037
▁precedents	-9038
▁television	-9039
▁Establishment	-9040
)/	-9041
’).	-9042
▁Mer	-9043
▁drew	-9044
▁reim	-9045
▁abund	-9046
▁Whereas	-9047
▁peoples	-9048
▁suspended	-9049
▁techniques	-9050
▁establishes	-9051
hab	-9052
▁DE	-9053
UMAR	-9054
▁RTI	-9055
▁WIT	-9056
▁dies	-9057
▁Point	-9058
▁enjoyed	-9059
▁peaceful	-9060
▁squarely	-9061
▁prevalent	-9062
▁relatable	-9063
▁Subordinate	-9064
▁eman	-9065
▁flex	-9066
▁Lease	-9067
▁spons	-9068
▁Charge	-9069
▁instal	-9070
▁broadly	-9071
▁spectrum	-9072
sufficient	-9073
▁Guarantee	-9074
▁prohibits	-9075
▁strategic	-9076
▁threshold	-9077
▁deliberate	-9078
organisation	-9079
CH	-9080
hik	-9081
ukh	-9082
▁SEC	-9083
visory	-9084
▁aspir	-9085
▁imposes	-9086
▁disappro	-9087
▁announced	-9088
▁undivided	-9089
▁concluding	-9090
▁obligatory	-9091
▁introducing	-9092
▁deliberately	-9093
▁facilitating	-9094
▁IA	-9095
fort	-9096
▁bull	-9097
▁cant	-9098
▁Raman	-9099
▁parte	-9100
▁solar	-9101
writing	-9102
▁treaty	-9103
▁versus	-9104
▁Statute	-9105
▁denying	-9106
▁earnest	-9107
▁Pollution	-9108
▁Standards	-9109
▁elaborately	-9110
▁concurrently	-9111
▁unauthorized	-9112
nty	-9113
ura	-9114
ceut	-9115
ixed	-9116
▁Book	-9117
▁Ravi	-9118
▁onus	-9119
ainted	-9120
▁KUMAR	-9121
▁dynam	-9122
▁mouth	-9123
▁Relief	-9124
▁thrown	-9125
▁footing	-9126
▁heinous	-9127
▁prolong	-9128
▁verdict	-9129
▁penalties	-9130
▁antecedents	-9131
▁conditional	-9132
▁liquidation	-9133
ALL	-9134
term	-9135
▁EVE	-9136
▁cinema	-9137
▁Through	-9138
▁implies	-9139
▁stations	-9140
▁Venugopal	-9141
▁rationale	-9142
URE	-9143
ica	-9144
SION	-9145
iful	-9146
▁Rev	-9147
▁sun	-9148
appre	-9149
▁Arch	-9150
▁Deep	-9151
▁Text	-9152
▁fish	-9153
▁rede	-9154
▁vice	-9155
ivable	-9156
▁Ahmad	-9157
▁Major	-9158
▁inquest	-9159
▁comprises	-9160
▁compassionate	-9161
bi	-9162
Ann	-9163
quar	-9164
▁rid	-9165
ignty	-9166
▁plus	-9167
rating	-9168
▁Supply	-9169
▁daughters	-9170
▁nutrition	-9171
▁utilization	-9172
eous	-9173
ooth	-9174
that	-9175
▁Edn	-9176
▁Item	-9177
▁bids	-9178
▁Unless	-9179
▁forged	-9180
▁passengers	-9181
Sh	-9182
Sec	-9183
abh	-9184
pee	-9185
aran	-9186
▁hire	-9187
▁advis	-9188
▁bidder	-9189
▁Cauvery	-9190
▁allottee	-9191
▁efficacy	-9192
▁litigants	-9193
ids	-9194
isal	-9195
▁flu	-9196
ammad	-9197
eding	-9198
ilder	-9199
▁Jail	-9200
▁Mult	-9201
▁Russ	-9202
▁cler	-9203
▁accum	-9204
▁sheets	-9205
▁strategy	-9206
▁accompany	-9207
▁discontin	-9208
▁retention	-9209
appropriate	-9210
▁construing	-9211
▁implicated	-9212
TO	-9213
MIN	-9214
▁Ak	-9215
join	-9216
agree	-9217
▁Bhut	-9218
▁seal	-9219
▁Draft	-9220
▁inequ	-9221
▁owing	-9222
▁remem	-9223
▁trave	-9224
▁wants	-9225
▁Deposit	-9226
▁Forests	-9227
▁planned	-9228
▁sending	-9229
▁grievous	-9230
▁directive	-9231
▁adjudicate	-9232
lt	-9233
eli	-9234
iva	-9235
▁pi	-9236
▁Bye	-9237
▁Pla	-9238
▁Yog	-9239
▁reviewed	-9240
▁terrorism	-9241
lo	-9242
abs	-9243
▁cat	-9244
dhury	-9245
▁Meet	-9246
▁unex	-9247
ucherry	-9248
▁analog	-9249
▁deploy	-9250
▁timely	-9251
▁Working	-9252
▁lodging	-9253
▁staying	-9254
▁Projects	-9255
▁Implement	-9256
▁insertion	-9257
▁combination	-9258
▁Disciplinary	-9259
▁examinations	-9260
DF	-9261
SP	-9262
ny	-9263
igam	-9264
▁Late	-9265
▁airc	-9266
▁modify	-9267
▁silent	-9268
▁Interpre	-9269
▁variation	-9270
▁cartridges	-9271
▁forfeiture	-9272
▁purchasers	-9273
zz	-9274
rary	-9275
viii	-9276
▁Pud	-9277
▁sle	-9278
▁Farm	-9279
▁TRAI	-9280
▁xxxx	-9281
accept	-9282
legium	-9283
▁Prabh	-9284
▁rebut	-9285
▁resid	-9286
▁intend	-9287
▁abscond	-9288
▁skilled	-9289
▁utility	-9290
▁prospects	-9291
▁untenable	-9292
Pre	-9293
alle	-9294
ighed	-9295
▁Know	-9296
rative	-9297
viable	-9298
▁Micro	-9299
▁brand	-9300
▁revol	-9301
▁union	-9302
ressing	-9303
▁Bachan	-9304
▁adhere	-9305
harmaceut	-9306
▁mutually	-9307
▁Complaint	-9308
▁departure	-9309
▁stability	-9310
▁continuously	-9311
ALCO	-9312
book	-9313
▁APP	-9314
▁cold	-9315
▁news	-9316
▁contemn	-9317
termination	-9318
▁participants	-9319
▁AR	-9320
▁Vi	-9321
▁Sukh	-9322
▁VIII	-9323
▁York	-9324
▁blow	-9325
▁jour	-9326
illary	-9327
▁Sever	-9328
▁debar	-9329
▁Regard	-9330
▁couple	-9331
▁Instead	-9332
▁decides	-9333
▁emerges	-9334
▁Directive	-9335
▁legislate	-9336
dev	-9337
▁AG	-9338
▁Az	-9339
▁uf	-9340
oves	-9341
▁hor	-9342
enous	-9343
artial	-9344
▁Cases	-9345
▁accus	-9346
▁Academ	-9347
▁facets	-9348
▁Singhvi	-9349
▁averred	-9350
▁logical	-9351
▁Singapore	-9352
▁overriding	-9353
▁concurrence	-9354
▁Distribution	-9355
PG	-9356
▁hill	-9357
▁Coming	-9358
▁errors	-9359
▁sphere	-9360
▁Witness	-9361
▁occupied	-9362
▁introduce	-9363
▁preventing	-9364
IO	-9365
Moh	-9366
anta	-9367
iven	-9368
▁syn	-9369
▁bias	-9370
itical	-9371
▁rests	-9372
▁shift	-9373
closure	-9374
▁notion	-9375
▁Parties	-9376
▁enrolled	-9377
▁striking	-9378
▁collaboration	-9379
rim	-9380
▁ap	-9381
ATES	-9382
eded	-9383
lier	-9384
oked	-9385
▁MUK	-9386
uster	-9387
▁Educ	-9388
▁Allow	-9389
▁parade	-9390
▁widely	-9391
iscation	-9392
▁minister	-9393
▁pleading	-9394
▁Christian	-9395
▁preparing	-9396
▁expiration	-9397
▁prescription	-9398
UG	-9399
▁Dw	-9400
▁wil	-9401
istent	-9402
viously	-9403
▁attain	-9404
▁begins	-9405
▁Network	-9406
▁cutting	-9407
▁regions	-9408
▁adultery	-9409
▁recruits	-9410
▁locations	-9411
▁attendance	-9412
▁Organization	-9413
▁Sk	-9414
▁rod	-9415
▁Grad	-9416
▁fract	-9417
▁miscar	-9418
▁someone	-9419
▁Rajendra	-9420
▁struggle	-9421
▁collecting	-9422
▁discovered	-9423
▁confessions	-9424
▁governmental	-9425
▁unauthorised	-9426
▁Salve	-9427
▁......	-9428
▁interrog	-9429
▁pointing	-9430
▁sovereignty	-9431
▁regularization	-9432
२०	-9433
asa	-9434
iers	-9435
ulla	-9436
▁JUD	-9437
▁Medic	-9438
▁Harish	-9439
▁inferred	-9440
▁exchanges	-9441
▁physically	-9442
▁redemption	-9443
▁registering	-9444
arp	-9445
assed	-9446
ildar	-9447
▁....	-9448
▁relie	-9449
▁prospecting	-9450
▁Presidential	-9451
ux	-9452
▁WP	-9453
back	-9454
eces	-9455
▁hall	-9456
gments	-9457
venues	-9458
▁Chart	-9459
▁Sushil	-9460
▁column	-9461
▁trustee	-9462
▁NATIONAL	-9463
▁coverage	-9464
▁prosecute	-9465
▁vulnerable	-9466
▁destruction	-9467
cel	-9468
▁NT	-9469
ayal	-9470
▁amen	-9471
▁vests	-9472
▁Region	-9473
▁America	-9474
▁options	-9475
▁noticing	-9476
▁remitted	-9477
▁tendency	-9478
▁thorough	-9479
▁trustees	-9480
Respondent	-9481
▁diversity	-9482
▁calculation	-9483
▁deprivation	-9484
▁suitability	-9485
▁transformation	-9486
▁forb	-9487
▁hurt	-9488
▁wakf	-9489
▁wood	-9490
▁Japan	-9491
▁chief	-9492
▁fiscal	-9493
spection	-9494
▁quarrel	-9495
▁Resources	-9496
▁transfers	-9497
▁Puducherry	-9498
▁conveyance	-9499
harmaceutical	-9500
▁Consolidated	-9501
▁proportionate	-9502
HAR	-9503
enn	-9504
omy	-9505
▁Gau	-9506
▁Band	-9507
▁Enquiry	-9508
▁Several	-9509
▁cleared	-9510
▁renewed	-9511
▁detained	-9512
▁pregnant	-9513
▁ambiguity	-9514
▁postulates	-9515
▁remembered	-9516
▁Consultation	-9517
enda	-9518
▁Cost	-9519
▁Sikk	-9520
▁magaz	-9521
erating	-9522
▁advise	-9523
▁fruits	-9524
▁Hearing	-9525
▁scooter	-9526
▁weighed	-9527
▁expanded	-9528
▁operated	-9529
▁imparting	-9530
▁processed	-9531
▁successor	-9532
▁Ess	-9533
▁Ham	-9534
▁ine	-9535
ivedi	-9536
▁Cult	-9537
▁Nigam	-9538
▁chose	-9539
▁sites	-9540
▁gather	-9541
▁leader	-9542
▁Dwivedi	-9543
▁alcohol	-9544
▁succeeded	-9545
▁warranted	-9546
▁governments	-9547
▁miscarriage	-9548
▁congratulate	-9549
▁legislatures	-9550
▁preservation	-9551
rams	-9552
▁Requ	-9553
▁Tuls	-9554
uating	-9555
▁COURT	-9556
▁detri	-9557
▁Amicus	-9558
▁ignore	-9559
ffective	-9560
▁adjudic	-9561
▁immunity	-9562
▁unnatural	-9563
▁Concurrent	-9564
▁Panchayats	-9565
▁confirming	-9566
▁Institution	-9567
▁infringement	-9568
Ass	-9569
▁TN	-9570
arya	-9571
oken	-9572
▁Daw	-9573
▁mig	-9574
▁upd	-9575
▁wal	-9576
▁win	-9577
ietal	-9578
ipped	-9579
▁fake	-9580
resents	-9581
▁master	-9582
▁briefly	-9583
▁Appendix	-9584
▁consumed	-9585
▁removing	-9586
▁abolition	-9587
▁premature	-9588
▁Federation	-9589
▁transferring	-9590
DT	-9591
▁Max	-9592
▁ven	-9593
inity	-9594
▁Copy	-9595
▁brut	-9596
aswamy	-9597
alities	-9598
▁Chander	-9599
▁Schemes	-9600
▁combined	-9601
▁gratuity	-9602
▁sanctity	-9603
▁thinking	-9604
missibility	-9605
▁artificial	-9606
▁promotions	-9607
bon	-9608
▁pled	-9609
▁elder	-9610
▁broken	-9611
▁utmost	-9612
mia	-9613
▁IF	-9614
thly	-9615
urit	-9616
will	-9617
▁sad	-9618
ighty	-9619
plete	-9620
rence	-9621
▁Cond	-9622
▁Guru	-9623
▁Norm	-9624
▁tell	-9625
▁breed	-9626
▁coerc	-9627
▁rarest	-9628
▁Premises	-9629
▁advances	-9630
▁disabled	-9631
▁ammunition	-9632
▁contradict	-9633
▁interesting	-9634
▁Compensation	-9635
▁confiscation	-9636
0/-	-9637
ero	-9638
rup	-9639
▁MH	-9640
meas	-9641
▁Set	-9642
hered	-9643
▁Hari	-9644
▁beat	-9645
wealth	-9646
▁Impro	-9647
▁derog	-9648
▁Addition	-9649
▁projected	-9650
▁conferring	-9651
▁definitely	-9652
▁institutes	-9653
TRA	-9654
macy	-9655
▁tom	-9656
▁sums	-9657
▁print	-9658
▁slight	-9659
▁preventive	-9660
▁commutation	-9661
▁fo	-9662
rich	-9663
▁MLA	-9664
▁Pow	-9665
▁SPE	-9666
▁kil	-9667
▁sty	-9668
offic	-9669
▁Benef	-9670
▁empty	-9671
▁paddy	-9672
▁phase	-9673
settled	-9674
▁Sikkim	-9675
▁stored	-9676
▁urgent	-9677
▁worker	-9678
▁triable	-9679
▁therefor	-9680
▁Chaudhary	-9681
Corporation	-9682
▁represents	-9683
▁undisputed	-9684
▁correspondence	-9685
▁retrospectively	-9686
.’	-9687
▁bra	-9688
▁won	-9689
▁rash	-9690
ailing	-9691
▁Brief	-9692
▁score	-9693
▁corpus	-9694
▁strang	-9695
▁mission	-9696
▁enclosed	-9697
▁aggravating	-9698
▁controlling	-9699
▁instruction	-9700
▁Recommendation	-9701
Cri	-9702
PCL	-9703
▁RA	-9704
▁AOR	-9705
▁Beg	-9706
▁Han	-9707
▁Yoj	-9708
▁Cler	-9709
▁wait	-9710
except	-9711
▁About	-9712
wellery	-9713
▁Bhutan	-9714
▁behest	-9715
▁beings	-9716
▁connot	-9717
▁degrad	-9718
▁Muslims	-9719
▁decline	-9720
▁Sciences	-9721
▁provider	-9722
▁somewhat	-9723
▁convicting	-9724
▁Educational	-9725
▁Organisation	-9726
SO	-9727
WC	-9728
oya	-9729
ading	-9730
▁WITH	-9731
▁Wing	-9732
▁shel	-9733
▁store	-9734
▁Crores	-9735
▁adding	-9736
▁drinking	-9737
▁terminate	-9738
▁boundaries	-9739
▁Prosecution	-9740
▁Secretaries	-9741
%,	-9742
BA	-9743
za	-9744
JEE	-9745
och	-9746
▁RO	-9747
▁ASG	-9748
▁NCL	-9749
▁ped	-9750
▁pit	-9751
-----	-9752
▁Docu	-9753
▁Team	-9754
▁inse	-9755
▁sear	-9756
inding	-9757
rances	-9758
husband	-9759
▁Standard	-9760
▁reflects	-9761
▁panchnama	-9762
▁inevitable	-9763
▁beneficiary	-9764
▁interaction	-9765
IG	-9766
▁CG	-9767
▁mid	-9768
▁Nare	-9769
▁orna	-9770
invest	-9771
▁allied	-9772
▁Meeting	-9773
▁journey	-9774
▁constant	-9775
▁internet	-9776
▁summoned	-9777
▁Obviously	-9778
▁prisoners	-9779
▁Electronics	-9780
▁Ele	-9781
▁Kum	-9782
▁Ren	-9783
▁ble	-9784
inety	-9785
▁Radh	-9786
▁heav	-9787
▁tool	-9788
▁Black	-9789
▁ideal	-9790
▁Merely	-9791
▁deaths	-9792
▁Conserv	-9793
▁ensures	-9794
forcement	-9795
▁Plaintiffs	-9796
▁contradiction	-9797
▁reasonableness	-9798
iyar	-9799
onds	-9800
aided	-9801
▁Rash	-9802
▁phen	-9803
▁“...	-9804
raisal	-9805
▁risks	-9806
▁ceases	-9807
▁seeing	-9808
▁unconsc	-9809
▁actively	-9810
▁grenades	-9811
▁inferior	-9812
▁mischief	-9813
▁confusion	-9814
▁demanding	-9815
▁inability	-9816
▁Insolvency	-9817
▁Liquidator	-9818
▁Identification	-9819
hari	-9820
ucid	-9821
cking	-9822
▁Units	-9823
chnology	-9824
▁inspire	-9825
▁picture	-9826
▁suggests	-9827
▁delegated	-9828
▁dishonest	-9829
▁enforcing	-9830
▁complained	-9831
▁newspapers	-9832
ola	-9833
▁NH	-9834
atha	-9835
▁EIA	-9836
▁Capt	-9837
▁evid	-9838
▁cards	-9839
▁serial	-9840
▁confron	-9841
▁movable	-9842
▁survive	-9843
▁leviable	-9844
▁developer	-9845
▁promotees	-9846
▁Complainant	-9847
▁Prohibition	-9848
▁unfortunate	-9849
▁associations	-9850
based	-9851
▁aided	-9852
▁bribe	-9853
▁perman	-9854
▁repair	-9855
▁imports	-9856
▁generate	-9857
▁wrongful	-9858
agistrates	-9859
orticulture	-9860
▁identifying	-9861
▁MT	-9862
oure	-9863
▁Loan	-9864
▁gate	-9865
▁Misra	-9866
▁expos	-9867
▁seeds	-9868
▁Causes	-9869
▁anomal	-9870
▁blasts	-9871
aturally	-9872
personal	-9873
▁Jagdish	-9874
▁Manohar	-9875
▁defects	-9876
▁torture	-9877
paragraph	-9878
▁manpower	-9879
▁passenger	-9880
,-	-9881
pol	-9882
▁SHRI	-9883
▁motu	-9884
▁skin	-9885
oconut	-9886
▁Heard	-9887
▁Motion	-9888
▁visual	-9889
dictions	-9890
▁tractor	-9891
▁campaign	-9892
▁affirming	-9893
▁dangerous	-9894
▁redressal	-9895
▁adequately	-9896
▁communicate	-9897
may	-9898
norm	-9899
▁CJI	-9900
▁mos	-9901
▁Anti	-9902
▁Care	-9903
▁Price	-9904
▁Table	-9905
▁diary	-9906
▁thank	-9907
otiable	-9908
▁sports	-9909
▁validly	-9910
▁perceived	-9911
Th	-9912
uj	-9913
son	-9914
reen	-9915
▁	-9916
e	-9917
t	-9918
a	-9919
i	-9920
o	-9921
n	-9922
r	-9923
s	-9924
h	-9925
d	-9926
c	-9927
l	-9928
u	-9929
f	-9930
p	-9931
m	-9932
g	-9933
b	-9934
y	-9935
w	-9936
.	-9937
v	-9938
,	-9939
C	-9940
A	-9941
S	-9942
T	-9943
I	-9944
०	-9945
k	-9946
x	-9947
P	-9948
)	-9949
१	-9950
(	-9951
-	-9952
R	-9953
j	-9954
M	-9955
N	-9956
D	-9957
H	-9958
B	-9959
२	-9960
q	-9961
E	-9962
O	-9963
G	-9964
L	-9965
W	-9966
F	-9967
J	-9968
३	-9969
/	-9970
0	-9971
:	-9972
U	-9973
K	-9974
'	-9975
’	-9976
४	-9977
z	-9978
V	-9979
;	-9980
“	-9981
५	-9982
|	-9983
]	-9984
[	-9985
‘	-9986
६	-9987
Y	-9988
&	-9989
७	-9990
%	-9991
८	-9992
–	-9993
