<unk>	0
<s>	0
</s>	0
UuRrLl	0
DdAaTtEe	0
NnUuMm	0
▁t	-0
he	-1
▁a	-2
▁the	-3
in	-4
▁o	-5
re	-6
on	-7
er	-8
at	-9
en	-10
▁of	-11
▁s	-12
ed	-13
is	-14
▁,	-15
it	-16
▁c	-17
▁p	-18
▁w	-19
▁.	-20
nd	-21
▁b	-22
ion	-23
▁in	-24
or	-25
es	-26
▁f	-27
al	-28
an	-29
ar	-30
▁to	-31
as	-32
▁d	-33
ing	-34
ou	-35
ic	-36
▁and	-37
ent	-38
▁h	-39
▁m	-40
▁th	-41
▁re	-42
le	-43
ct	-44
ro	-45
▁n	-46
▁be	-47
▁is	-48
▁T	-49
▁S	-50
▁e	-51
ce	-52
ot	-53
▁C	-54
id	-55
os	-56
▁A	-57
ation	-58
▁that	-59
▁I	-60
il	-61
us	-62
om	-63
ut	-64
ve	-65
▁l	-66
▁on	-67
im	-68
ment	-69
et	-70
ad	-71
ur	-72
ly	-73
▁for	-74
▁P	-75
▁con	-76
▁as	-77
▁The	-78
am	-79
ap	-80
▁by	-81
▁or	-82
▁pro	-83
▁g	-84
▁de	-85
st	-86
▁su	-87
▁&	-88
her	-89
▁was	-90
▁not	-91
ch	-92
ll	-93
pp	-94
ri	-95
ate	-96
▁u	-97
▁wh	-98
ver	-99
▁an	-100
our	-101
ay	-102
▁wit	-103
ow	-104
▁M	-105
ir	-106
▁it	-107
ant	-108
ain	-109
▁st	-110
ld	-111
if	-112
se	-113
▁R	-114
ter	-115
▁with	-116
▁B	-117
apos	-118
ig	-119
ere	-120
▁he	-121
ul	-122
ab	-123
▁H	-124
qu	-125
ect	-126
ess	-127
▁D	-128
▁app	-129
ers	-130
▁)	-131
▁(	-132
ol	-133
▁has	-134
▁ex	-135
res	-136
▁N	-137
ition	-138
ge	-139
▁com	-140
and	-141
▁v	-142
ist	-143
▁al	-144
ourt	-145
ra	-146
ak	-147
▁-	-148
▁are	-149
est	-150
ated	-151
ity	-152
cc	-153
od	-154
ich	-155
ore	-156
ther	-157
end	-158
▁which	-159
▁G	-160
▁at	-161
ud	-162
▁sh	-163
▁ha	-164
▁this	-165
rom	-166
art	-167
nder	-168
iv	-169
um	-170
ould	-171
▁/	-172
ence	-173
▁res	-174
▁Court	-175
nt	-176
ort	-177
ec	-178
▁from	-179
▁O	-180
▁under	-181
ies	-182
▁E	-183
gh	-184
▁le	-185
la	-186
▁In	-187
▁have	-188
▁y	-189
ive	-190
ure	-191
ial	-192
ase	-193
ice	-194
em	-195
un	-196
▁his	-197
etition	-198
▁L	-199
▁there	-200
▁W	-201
ard	-202
▁been	-203
ction	-204
ted	-205
so	-206
ill	-207
all	-208
op	-209
ell	-210
▁j	-211
pl	-212
▁acc	-213
▁any	-214
ust	-215
red	-216
▁petition	-217
▁F	-218
▁cont	-219
pon	-220
▁fa	-221
▁K	-222
ord	-223
oc	-224
▁dis	-225
▁whe	-226
aid	-227
ff	-228
▁se	-229
able	-230
▁ad	-231
ance	-232
▁also	-233
▁sub	-234
▁J	-235
▁per	-236
th	-237
▁ch	-238
ie	-239
ia	-240
▁ab	-241
▁can	-242
▁case	-243
ame	-244
▁It	-245
▁had	-246
ary	-247
▁r	-248
▁:	-249
ear	-250
mit	-251
▁all	-252
ag	-253
▁ev	-254
▁ag	-255
▁Ind	-256
lic	-257
der	-258
fore	-259
▁no	-260
used	-261
▁int	-262
▁part	-263
▁im	-264
sion	-265
ous	-266
ac	-267
▁were	-268
▁such	-269
ned	-270
over	-271
ision	-272
▁other	-273
ire	-274
pt	-275
igh	-276
du	-277
▁Th	-278
▁k	-279
▁comp	-280
▁prov	-281
ution	-282
▁St	-283
per	-284
▁rec	-285
rou	-286
age	-287
ue	-288
ade	-289
▁sp	-290
ount	-291
▁No	-292
ind	-293
ide	-294
▁ne	-295
mis	-296
ip	-297
▁said	-298
▁tr	-299
▁ar	-300
▁en	-301
▁inc	-302
▁cons	-303
ib	-304
ict	-305
▁off	-306
ee	-307
erv	-308
▁Act	-309
ome	-310
▁V	-311
▁order	-312
▁would	-313
fter	-314
▁dec	-315
pos	-316
out	-317
ght	-318
use	-319
pond	-320
▁qu	-321
ical	-322
▁un	-323
▁U	-324
aw	-325
port	-326
rit	-327
ime	-328
ection	-329
▁reg	-330
▁pl	-331
erson	-332
▁we	-333
ish	-334
ass	-335
▁who	-336
ans	-337
pondent	-338
ub	-339
ied	-340
▁their	-341
▁do	-342
▁pres	-343
ations	-344
▁pos	-345
ru	-346
▁He	-347
▁person	-348
ong	-349
overn	-350
▁petitioner	-351
▁tak	-352
ced	-353
▁made	-354
orm	-355
▁me	-356
▁one	-357
aint	-358
iz	-359
▁but	-360
▁out	-361
ree	-362
▁its	-363
istr	-364
▁Ch	-365
iff	-366
▁rel	-367
oin	-368
▁am	-369
▁so	-370
ments	-371
ident	-372
▁De	-373
▁Com	-374
▁India	-375
ult	-376
▁pre	-377
▁wor	-378
▁respondent	-379
ail	-380
▁may	-381
ered	-382
▁accused	-383
av	-384
▁ob	-385
▁mat	-386
▁will	-387
ased	-388
▁him	-389
▁they	-390
▁fact	-391
▁man	-392
ast	-393
▁def	-394
one	-395
ness	-396
▁year	-397
og	-398
ok	-399
overnment	-400
▁only	-401
stit	-402
▁time	-403
▁her	-404
ellant	-405
pect	-406
ces	-407
ific	-408
ine	-409
ile	-410
▁State	-411
ry	-412
are	-413
ove	-414
rib	-415
mitted	-416
▁again	-417
▁if	-418
▁As	-419
ings	-420
idence	-421
▁pr	-422
ach	-423
▁you	-424
ious	-425
uth	-426
ory	-427
mission	-428
hed	-429
ject	-430
▁ent	-431
▁before	-432
▁same	-433
ik	-434
▁appellant	-435
ise	-436
▁Re	-437
▁;	-438
form	-439
▁ri	-440
▁Ex	-441
▁sc	-442
▁ind	-443
ual	-444
▁applic	-445
ood	-446
▁ass	-447
▁iss	-448
me	-449
▁em	-450
▁after	-451
ang	-452
ound	-453
▁inv	-454
▁Sh	-455
sel	-456
▁law	-457
ath	-458
▁ref	-459
▁shall	-460
▁Government	-461
▁jud	-462
▁consid	-463
ty	-464
▁This	-465
ber	-466
▁where	-467
▁Su	-468
amp	-469
uthor	-470
erm	-471
▁when	-472
.0	-473
el	-474
▁ac	-475
▁evidence	-476
▁There	-477
ah	-478
oy	-479
ating	-480
urther	-481
▁dated	-482
inal	-483
▁them	-484
ention	-485
not	-486
iew	-487
▁against	-488
vel	-489
very	-490
▁fil	-491
▁Con	-492
▁being	-493
▁imp	-494
▁tw	-495
ates	-496
▁should	-497
ost	-498
ign	-499
▁requ	-500
▁court	-501
ight	-502
▁work	-503
ert	-504
aj	-505
▁record	-506
▁cla	-507
▁writ	-508
▁inter	-509
ities	-510
ose	-511
▁up	-512
▁pur	-513
▁pol	-514
▁right	-515
nce	-516
oint	-517
▁into	-518
▁conc	-519
▁pla	-520
ank	-521
▁act	-522
▁pass	-523
▁about	-524
▁giv	-525
▁cannot	-526
ark	-527
own	-528
▁bec	-529
▁state	-530
ward	-531
▁lear	-532
ian	-533
▁cl	-534
ract	-535
▁fir	-536
ex	-537
▁On	-538
ceed	-539
irect	-540
▁disc	-541
▁comm	-542
▁two	-543
▁mak	-544
▁further	-545
oll	-546
▁provision	-547
▁gr	-548
▁serv	-549
▁over	-550
ular	-551
▁PW	-552
▁present	-553
▁these	-554
ite	-555
stitution	-556
led	-557
▁0	-558
ower	-559
leg	-560
ause	-561
▁witness	-562
ublic	-563
ason	-564
▁kn	-565
ens	-566
ress	-567
wn	-568
old	-569
ack	-570
ative	-571
ffic	-572
▁set	-573
lect	-574
▁proper	-575
ute	-576
amin	-577
estion	-578
▁author	-579
ond	-580
pre	-581
▁att	-582
eal	-583
act	-584
▁spec	-585
ained	-586
▁rem	-587
▁some	-588
▁dece	-589
▁stated	-590
▁land	-591
ays	-592
ever	-593
▁learned	-594
▁char	-595
sec	-596
ved	-597
dition	-598
▁could	-599
rial	-600
▁rep	-601
ational	-602
een	-603
▁she	-604
▁bet	-605
▁view	-606
▁more	-607
ci	-608
ild	-609
uring	-610
ession	-611
▁deceased	-612
▁our	-613
▁report	-614
oun	-615
▁held	-616
▁matter	-617
round	-618
▁Pro	-619
any	-620
▁taken	-621
▁first	-622
▁trans	-623
▁even	-624
▁issu	-625
lud	-626
eral	-627
▁proceed	-628
ature	-629
▁filed	-630
▁reason	-631
ash	-632
▁An	-633
▁op	-634
ility	-635
ible	-636
ised	-637
ife	-638
▁plaint	-639
▁pay	-640
▁form	-641
▁years	-642
▁Ad	-643
ike	-644
▁judg	-645
cy	-646
ving	-647
▁Y	-648
▁diff	-649
ided	-650
▁compl	-651
▁pe	-652
ors	-653
▁det	-654
▁sec	-655
▁Pr	-656
iction	-657
ited	-658
▁decision	-659
ired	-660
▁prosec	-661
▁given	-662
▁Sing	-663
ffect	-664
▁produ	-665
▁question	-666
▁claim	-667
▁ro	-668
oth	-669
ug	-670
▁ext	-671
▁regard	-672
ploy	-673
▁poss	-674
irc	-675
ax	-676
▁exp	-677
ven	-678
▁”	-679
reat	-680
▁consider	-681
▁leg	-682
▁well	-683
ollow	-684
velop	-685
endant	-686
rough	-687
ha	-688
▁te	-689
▁%	-690
▁Un	-691
ified	-692
▁must	-693
▁High	-694
ween	-695
▁respect	-696
▁appro	-697
ting	-698
▁term	-699
▁supp	-700
ough	-701
part	-702
▁mem	-703
▁des	-704
▁Jud	-705
owever	-706
ook	-707
▁follow	-708
▁application	-709
▁between	-710
▁than	-711
▁found	-712
▁plaintiff	-713
ily	-714
▁inst	-715
cept	-716
▁“	-717
▁just	-718
ful	-719
ram	-720
▁upon	-721
▁us	-722
▁suit	-723
▁like	-724
▁conf	-725
▁above	-726
ouse	-727
▁inform	-728
ep	-729
▁through	-730
▁Rs	-731
erred	-732
▁cle	-733
▁therefore	-734
▁go	-735
erc	-736
ble	-737
▁then	-738
▁bel	-739
iod	-740
▁employ	-741
▁new	-742
▁public	-743
▁examin	-744
▁circ	-745
self	-746
▁within	-747
▁count	-748
▁i	-749
ended	-750
▁direct	-751
▁Bh	-752
▁amount	-753
▁submitted	-754
▁did	-755
other	-756
hi	-757
li	-758
▁power	-759
▁find	-760
vers	-761
▁We	-762
▁period	-763
ody	-764
▁passed	-765
▁here	-766
▁place	-767
erest	-768
ople	-769
preme	-770
▁defendant	-771
▁Mr	-772
▁ra	-773
ale	-774
▁bas	-775
▁does	-776
▁without	-777
its	-778
▁judgment	-779
te	-780
ules	-781
▁par	-782
ances	-783
▁date	-784
rim	-785
▁provisions	-786
▁offic	-787
abl	-788
ording	-789
ral	-790
▁includ	-791
cess	-792
▁Supreme	-793
ural	-794
▁val	-795
ification	-796
▁invest	-797
▁prosecution	-798
▁Section	-799
▁Singh	-800
ng	-801
▁cert	-802
istrict	-803
▁occ	-804
▁appeal	-805
ient	-806
ocu	-807
▁interest	-808
▁inj	-809
ari	-810
ater	-811
esh	-812
rap	-813
▁Ar	-814
▁petitioners	-815
▁own	-816
▁ret	-817
ince	-818
▁Indian	-819
urn	-820
ric	-821
▁est	-822
▁people	-823
▁differe	-824
▁cor	-825
ule	-826
ew	-827
▁what	-828
hen	-829
und	-830
ged	-831
▁?	-832
▁rece	-833
▁hand	-834
▁docu	-835
▁clear	-836
▁But	-837
▁persons	-838
▁see	-839
▁SC	-840
arm	-841
uc	-842
▁av	-843
ases	-844
ix	-845
▁mon	-846
▁very	-847
▁purpos	-848
▁gen	-849
▁whether	-850
ief	-851
▁Offic	-852
bit	-853
▁call	-854
▁partic	-855
ft	-856
▁If	-857
▁effect	-858
▁Commission	-859
▁alleg	-860
ital	-861
▁gu	-862
▁ins	-863
▁issued	-864
▁mark	-865
▁while	-866
▁col	-867
▁App	-868
ished	-869
▁name	-870
ros	-871
▁know	-872
tern	-873
ally	-874
▁inf	-875
▁post	-876
▁trial	-877
▁grant	-878
▁statement	-879
ices	-880
▁nec	-881
▁circum	-882
▁concer	-883
▁used	-884
▁account	-885
▁sy	-886
▁read	-887
app	-888
▁make	-889
por	-890
hy	-891
▁show	-892
▁prin	-893
uted	-894
▁ground	-895
▁during	-896
▁develop	-897
ctions	-898
▁min	-899
ents	-900
▁property	-901
ene	-902
erial	-903
▁car	-904
▁both	-905
ior	-906
▁circumst	-907
duct	-908
sh	-909
▁ear	-910
▁take	-911
▁&#	-912
▁because	-913
igation	-914
▁my	-915
▁bl	-916
aining	-917
▁disp	-918
ange	-919
▁need	-920
▁rele	-921
▁section	-922
▁num	-923
▁good	-924
▁facts	-925
▁authority	-926
▁process	-927
ob	-928
▁having	-929
▁get	-930
▁house	-931
▁soc	-932
▁police	-933
▁your	-934
ner	-935
posed	-936
ith	-937
▁comple	-938
▁allow	-939
row	-940
▁parties	-941
▁let	-942
▁Or	-943
erence	-944
con	-945
▁necess	-946
ode	-947
▁adv	-948
▁dem	-949
▁stand	-950
ized	-951
bers	-952
▁basis	-953
ning	-954
▁aff	-955
▁pri	-956
▁different	-957
▁District	-958
▁way	-959
▁Res	-960
▁sent	-961
miss	-962
▁obs	-963
▁material	-964
ather	-965
illa	-966
▁life	-967
iness	-968
▁three	-969
▁rev	-970
ai	-971
▁word	-972
▁those	-973
ave	-974
gan	-975
read	-976
partment	-977
▁offence	-978
man	-979
▁back	-980
▁hold	-981
▁service	-982
▁appear	-983
ool	-984
ink	-985
▁came	-986
uris	-987
anc	-988
▁Ram	-989
▁proceedings	-990
▁establ	-991
▁Ben	-992
▁opp	-993
min	-994
ption	-995
sequ	-996
▁down	-997
▁Wh	-998
▁ord	-999
lt	-1000
iet	-1001
▁avail	-1002
ister	-1003
▁And	-1004
als	-1005
▁Pres	-1006
ants	-1007
ivil	-1008
▁dist	-1009
▁&#9	-1010
ures	-1011
▁Judge	-1012
med	-1013
ges	-1014
▁’	-1015
ither	-1016
▁For	-1017
urre	-1018
▁Cent	-1019
▁day	-1020
▁cases	-1021
ores	-1022
▁Acc	-1023
▁notice	-1024
▁condition	-1025
▁stat	-1026
▁Officer	-1027
ati	-1028
olog	-1029
▁subject	-1030
ten	-1031
▁equ	-1032
crib	-1033
▁Pol	-1034
▁required	-1035
ism	-1036
▁exerc	-1037
mitt	-1038
▁cap	-1039
ived	-1040
han	-1041
ross	-1042
ring	-1043
▁company	-1044
uch	-1045
▁bus	-1046
▁child	-1047
ality	-1048
▁co	-1049
▁juris	-1050
stem	-1051
▁circumstances	-1052
▁Raj	-1053
▁considered	-1054
▁concerned	-1055
ees	-1056
lement	-1057
lection	-1058
▁af	-1059
▁country	-1060
less	-1061
umar	-1062
▁observ	-1063
▁contin	-1064
chn	-1065
after	-1066
bitr	-1067
▁import	-1068
▁witnesses	-1069
▁agree	-1070
▁ed	-1071
ock	-1072
diction	-1073
eg	-1074
way	-1075
▁Reg	-1076
▁sit	-1077
stru	-1078
les	-1079
ency	-1080
▁Therefore	-1081
ides	-1082
▁cent	-1083
▁However	-1084
ey	-1085
▁action	-1086
mittee	-1087
oard	-1088
ribun	-1089
▁fam	-1090
▁fl	-1091
▁So	-1092
▁li	-1093
▁beh	-1094
▁body	-1095
ending	-1096
▁ple	-1097
▁every	-1098
▁appoint	-1099
ability	-1100
riminal	-1101
▁test	-1102
▁Constitution	-1103
▁death	-1104
▁month	-1105
▁issue	-1106
▁purpose	-1107
IR	-1108
eth	-1109
▁jurisdiction	-1110
hes	-1111
ivers	-1112
iry	-1113
▁Par	-1114
ically	-1115
▁use	-1116
▁cre	-1117
tic	-1118
lus	-1119
ret	-1120
arch	-1121
▁Man	-1122
gg	-1123
har	-1124
▁sim	-1125
up	-1126
▁non	-1127
▁contract	-1128
ull	-1129
▁conduct	-1130
▁They	-1131
▁med	-1132
icial	-1133
▁due	-1134
▁particular	-1135
ared	-1136
▁lit	-1137
uty	-1138
ov	-1139
ined	-1140
▁support	-1141
▁respondents	-1142
▁now	-1143
ages	-1144
▁del	-1145
▁exec	-1146
▁Am	-1147
▁acqu	-1148
enef	-1149
▁come	-1150
cil	-1151
vant	-1152
▁coun	-1153
arge	-1154
▁number	-1155
air	-1156
ries	-1157
▁Sec	-1158
▁Min	-1159
▁each	-1160
quot	-1161
▁var	-1162
oresaid	-1163
ribunal	-1164
alf	-1165
▁aforesaid	-1166
▁President	-1167
ck	-1168
▁another	-1169
▁point	-1170
▁necessary	-1171
▁since	-1172
▁long	-1173
▁nature	-1174
▁mention	-1175
bt	-1176
ourse	-1177
▁party	-1178
▁end	-1179
▁information	-1180
▁po	-1181
▁Ass	-1182
▁great	-1183
▁benef	-1184
▁Sc	-1185
▁many	-1186
▁prev	-1187
▁bu	-1188
▁Comp	-1189
aring	-1190
▁ca	-1191
▁She	-1192
pri	-1193
▁Kumar	-1194
▁lim	-1195
▁exist	-1196
▁abs	-1197
▁mis	-1198
ator	-1199
▁terms	-1200
ought	-1201
▁Rules	-1202
▁award	-1203
▁system	-1204
ying	-1205
ately	-1206
▁fail	-1207
allen	-1208
na	-1209
pra	-1210
▁At	-1211
▁second	-1212
cip	-1213
▁possession	-1214
▁oper	-1215
anch	-1216
of	-1217
▁stud	-1218
▁sign	-1219
▁Hon	-1220
▁et	-1221
▁letter	-1222
▁injur	-1223
▁available	-1224
AR	-1225
▁Mah	-1226
PC	-1227
▁Coun	-1228
sequent	-1229
▁Ap	-1230
▁mar	-1231
chool	-1232
▁..	-1233
▁add	-1234
▁conv	-1235
▁etc	-1236
▁che	-1237
▁referred	-1238
▁ve	-1239
inion	-1240
▁various	-1241
▁result	-1242
▁members	-1243
▁Sp	-1244
▁world	-1245
▁business	-1246
ination	-1247
ried	-1248
icy	-1249
▁along	-1250
▁All	-1251
uk	-1252
ace	-1253
▁sche	-1254
ured	-1255
ready	-1256
▁sm	-1257
▁Police	-1258
raph	-1259
▁Shri	-1260
ST	-1261
▁charge	-1262
ugned	-1263
EN	-1264
▁lead	-1265
here	-1266
▁bro	-1267
quiry	-1268
▁already	-1269
▁consideration	-1270
▁relevant	-1271
ains	-1272
▁impugned	-1273
isl	-1274
▁expl	-1275
▁recorded	-1276
eep	-1277
illage	-1278
▁Tr	-1279
ya	-1280
▁called	-1281
▁Is	-1282
▁most	-1283
▁loc	-1284
▁opinion	-1285
▁itself	-1286
▁tax	-1287
▁rest	-1288
ick	-1289
ointed	-1290
▁Central	-1291
▁open	-1292
▁Tribunal	-1293
▁provided	-1294
▁challen	-1295
ences	-1296
ata	-1297
▁certain	-1298
▁prog	-1299
resent	-1300
▁cause	-1301
▁str	-1302
▁When	-1303
▁Sub	-1304
▁...	-1305
▁ph	-1306
▁appellants	-1307
lp	-1308
hip	-1309
▁mod	-1310
▁bank	-1311
ives	-1312
▁commun	-1313
▁put	-1314
enior	-1315
ateg	-1316
▁That	-1317
▁maint	-1318
▁sur	-1319
▁fore	-1320
▁incident	-1321
▁dismiss	-1322
ren	-1323
▁following	-1324
▁legal	-1325
▁Committee	-1326
▁supra	-1327
▁including	-1328
▁vi	-1329
▁deal	-1330
▁according	-1331
▁list	-1332
▁fav	-1333
▁mind	-1334
▁Thus	-1335
▁dra	-1336
cedure	-1337
istration	-1338
▁complaint	-1339
au	-1340
▁prom	-1341
▁arbitr	-1342
▁investigation	-1343
▁init	-1344
▁agreement	-1345
ising	-1346
▁days	-1347
▁educ	-1348
▁Department	-1349
lim	-1350
gu	-1351
▁meet	-1352
ron	-1353
▁dire	-1354
ually	-1355
▁Rule	-1356
▁far	-1357
▁examination	-1358
▁though	-1359
▁transf	-1360
▁Board	-1361
▁based	-1362
uation	-1363
▁object	-1364
att	-1365
cribed	-1366
▁ser	-1367
uman	-1368
▁course	-1369
▁done	-1370
▁den	-1371
▁documents	-1372
get	-1373
▁dou	-1374
gt	-1375
ana	-1376
▁alleged	-1377
af	-1378
▁indust	-1379
tal	-1380
▁Eng	-1381
▁give	-1382
AT	-1383
orpor	-1384
▁say	-1385
alth	-1386
iety	-1387
▁ident	-1388
▁ver	-1389
▁Code	-1390
iding	-1391
roup	-1392
▁family	-1393
pur	-1394
▁development	-1395
▁pen	-1396
olution	-1397
ples	-1398
▁favour	-1399
IC	-1400
▁entire	-1401
ilar	-1402
▁start	-1403
▁manner	-1404
▁earli	-1405
▁vide	-1406
▁Gu	-1407
▁mean	-1408
ogn	-1409
angu	-1410
unction	-1411
▁sett	-1412
▁entit	-1413
ple	-1414
ork	-1415
istered	-1416
wards	-1417
ph	-1418
▁Cr	-1419
▁represent	-1420
otion	-1421
▁institution	-1422
▁much	-1423
▁orig	-1424
ulation	-1425
▁admitted	-1426
▁final	-1427
inary	-1428
▁To	-1429
▁conn	-1430
AN	-1431
▁allowed	-1432
rol	-1433
▁submit	-1434
ines	-1435
▁organ	-1436
▁constru	-1437
ivision	-1438
ially	-1439
lig	-1440
▁Bank	-1441
▁either	-1442
▁cross	-1443
conom	-1444
▁sale	-1445
imes	-1446
ER	-1447
▁sat	-1448
▁means	-1449
▁help	-1450
▁Petition	-1451
ortun	-1452
omm	-1453
▁SCC	-1454
par	-1455
▁general	-1456
▁Adv	-1457
pe	-1458
▁position	-1459
▁appointment	-1460
▁high	-1461
az	-1462
▁however	-1463
▁subst	-1464
▁fin	-1465
ext	-1466
reed	-1467
▁Col	-1468
▁received	-1469
▁determ	-1470
▁making	-1471
err	-1472
▁vis	-1473
ird	-1474
▁Ag	-1475
▁Direct	-1476
▁cr	-1477
▁respon	-1478
▁prot	-1479
▁mentioned	-1480
▁Bench	-1481
pted	-1482
▁words	-1483
▁tre	-1484
▁area	-1485
▁look	-1486
▁Mag	-1487
▁Al	-1488
ons	-1489
ering	-1490
▁took	-1491
▁income	-1492
ense	-1493
▁sum	-1494
▁cop	-1495
rie	-1496
▁According	-1497
▁Del	-1498
▁others	-1499
ached	-1500
▁After	-1501
▁herein	-1502
▁exercise	-1503
▁assess	-1504
▁techn	-1505
section	-1506
▁how	-1507
▁earlier	-1508
by	-1509
▁invol	-1510
isf	-1511
▁common	-1512
▁policy	-1513
▁Se	-1514
▁pun	-1515
▁left	-1516
▁last	-1517
▁seek	-1518
hib	-1519
▁document	-1520
▁Dr	-1521
▁clause	-1522
▁orders	-1523
▁payment	-1524
osp	-1525
ology	-1526
▁complain	-1527
▁mer	-1528
▁ten	-1529
atory	-1530
▁behalf	-1531
▁criminal	-1532
ication	-1533
oney	-1534
▁office	-1535
▁registered	-1536
▁tem	-1537
▁exper	-1538
▁examined	-1539
▁class	-1540
▁Te	-1541
ars	-1542
lusion	-1543
▁prof	-1544
iversity	-1545
▁argu	-1546
▁entitled	-1547
▁depos	-1548
ditional	-1549
agement	-1550
ics	-1551
ivid	-1552
stand	-1553
▁doubt	-1554
ield	-1555
▁justice	-1556
▁written	-1557
eed	-1558
ets	-1559
onment	-1560
▁water	-1561
▁ask	-1562
▁father	-1563
ake	-1564
▁perform	-1565
owers	-1566
▁Delhi	-1567
▁Gen	-1568
▁paid	-1569
▁important	-1570
lected	-1571
▁continu	-1572
▁officer	-1573
ves	-1574
▁dep	-1575
▁thus	-1576
▁placed	-1577
ruct	-1578
▁demand	-1579
ience	-1580
▁require	-1581
▁princip	-1582
▁National	-1583
▁taking	-1584
▁br	-1585
▁stage	-1586
▁committed	-1587
ression	-1588
▁below	-1589
00	-1590
ways	-1591
AL	-1592
▁langu	-1593
▁rights	-1594
▁seen	-1595
▁discus	-1596
▁want	-1597
ization	-1598
▁econom	-1599
▁granted	-1600
itation	-1601
ledge	-1602
▁services	-1603
▁contr	-1604
▁dispute	-1605
▁exc	-1606
▁detail	-1607
jection	-1608
osed	-1609
▁cand	-1610
istrate	-1611
▁lo	-1612
▁satisf	-1613
ES	-1614
ested	-1615
▁complainant	-1616
▁tra	-1617
val	-1618
▁real	-1619
wise	-1620
▁proved	-1621
oh	-1622
▁activ	-1623
▁fund	-1624
arent	-1625
▁Vs	-1626
▁viol	-1627
▁government	-1628
▁book	-1629
▁ir	-1630
▁observed	-1631
utes	-1632
▁head	-1633
▁mere	-1634
▁nor	-1635
▁sugg	-1636
ony	-1637
▁Commissioner	-1638
▁wom	-1639
▁original	-1640
day	-1641
▁priv	-1642
▁cost	-1643
▁candid	-1644
▁duty	-1645
ibility	-1646
▁four	-1647
▁indic	-1648
rought	-1649
▁light	-1650
▁known	-1651
▁raised	-1652
lf	-1653
▁Civil	-1654
▁dev	-1655
▁reference	-1656
▁conditions	-1657
ocate	-1658
▁obt	-1659
rect	-1660
▁hig	-1661
▁accept	-1662
▁reasons	-1663
▁Magistrate	-1664
▁These	-1665
▁General	-1666
▁value	-1667
▁special	-1668
▁opportun	-1669
ms	-1670
see	-1671
fficient	-1672
▁fee	-1673
ively	-1674
▁You	-1675
▁ty	-1676
▁war	-1677
▁vict	-1678
su	-1679
overed	-1680
▁human	-1681
▁less	-1682
▁admin	-1683
▁money	-1684
▁away	-1685
ON	-1686
war	-1687
▁accord	-1688
▁Author	-1689
jud	-1690
▁happ	-1691
▁pract	-1692
▁directed	-1693
atural	-1694
ensation	-1695
▁file	-1696
▁months	-1697
▁incre	-1698
▁care	-1699
▁som	-1700
▁Division	-1701
orn	-1702
▁brought	-1703
▁except	-1704
▁establish	-1705
▁rule	-1706
▁son	-1707
▁judicial	-1708
▁appropri	-1709
cing	-1710
idav	-1711
▁met	-1712
endent	-1713
▁large	-1714
ENT	-1715
▁prep	-1716
▁contention	-1717
▁legisl	-1718
ize	-1719
▁going	-1720
ger	-1721
soci	-1722
▁group	-1723
▁Chand	-1724
▁decl	-1725
agraph	-1726
▁age	-1727
▁dismissed	-1728
ists	-1729
▁build	-1730
▁Corpor	-1731
▁project	-1732
▁towards	-1733
3;	-1734
▁&#93;	-1735
▁rules	-1736
▁pat	-1737
▁punish	-1738
ancial	-1739
▁scheme	-1740
▁play	-1741
▁submission	-1742
▁himself	-1743
▁produced	-1744
uly	-1745
▁cred	-1746
▁complete	-1747
1;	-1748
▁&#91;	-1749
▁succ	-1750
▁Sri	-1751
▁individ	-1752
band	-1753
▁Sche	-1754
▁clearly	-1755
▁till	-1756
▁ey	-1757
▁acce	-1758
▁main	-1759
▁side	-1760
▁wife	-1761
▁possible	-1762
▁went	-1763
oss	-1764
▁stre	-1765
▁Serv	-1766
▁small	-1767
essee	-1768
mb	-1769
agar	-1770
ospital	-1771
▁Courts	-1772
▁respons	-1773
▁cust	-1774
▁knowledge	-1775
▁categ	-1776
ts	-1777
▁specific	-1778
▁level	-1779
▁become	-1780
▁apply	-1781
▁sever	-1782
▁established	-1783
ani	-1784
▁constit	-1785
▁society	-1786
ions	-1787
eration	-1788
▁children	-1789
▁victim	-1790
▁run	-1791
▁got	-1792
▁provide	-1793
▁University	-1794
▁counsel	-1795
▁fix	-1796
▁contended	-1797
▁product	-1798
▁individual	-1799
▁Pl	-1800
▁il	-1801
▁Law	-1802
▁village	-1803
iance	-1804
▁never	-1805
No	-1806
▁purch	-1807
▁think	-1808
▁cro	-1809
ressed	-1810
▁social	-1811
▁Not	-1812
▁appointed	-1813
▁ann	-1814
▁reported	-1815
ificate	-1816
▁affidav	-1817
ellate	-1818
amm	-1819
adesh	-1820
▁decided	-1821
▁appropriate	-1822
▁aspect	-1823
▁eng	-1824
▁conclusion	-1825
▁five	-1826
▁thereafter	-1827
▁mother	-1828
▁Mus	-1829
▁prior	-1830
▁Company	-1831
▁short	-1832
▁school	-1833
▁grow	-1834
▁tend	-1835
ala	-1836
rest	-1837
▁initi	-1838
ify	-1839
▁relating	-1840
urrence	-1841
▁civil	-1842
RB	-1843
duced	-1844
▁illeg	-1845
ters	-1846
hic	-1847
▁powers	-1848
▁enc	-1849
▁relig	-1850
▁prescribed	-1851
usband	-1852
▁gl	-1853
aged	-1854
▁keep	-1855
lia	-1856
ajor	-1857
▁education	-1858
ope	-1859
▁Cont	-1860
▁proble	-1861
▁polit	-1862
▁bre	-1863
▁copy	-1864
▁FIR	-1865
▁whole	-1866
▁regarding	-1867
▁accepted	-1868
▁Director	-1869
igned	-1870
▁reject	-1871
▁language	-1872
▁Spec	-1873
▁program	-1874
▁delay	-1875
▁Chief	-1876
▁Apex	-1877
hing	-1878
▁regular	-1879
anj	-1880
▁Mad	-1881
▁employees	-1882
riage	-1883
▁instru	-1884
▁relief	-1885
▁Order	-1886
▁goods	-1887
umb	-1888
▁compensation	-1889
aking	-1890
▁authorities	-1891
▁Co	-1892
▁separ	-1893
error	-1894
▁cult	-1895
▁compet	-1896
ember	-1897
▁several	-1898
▁near	-1899
asht	-1900
sw	-1901
▁OF	-1902
▁adver	-1903
utory	-1904
▁Ab	-1905
▁discl	-1906
▁total	-1907
▁recomm	-1908
liament	-1909
▁Even	-1910
▁free	-1911
▁old	-1912
medi	-1913
▁defendants	-1914
▁market	-1915
▁Q	-1916
▁force	-1917
▁procedure	-1918
▁IST	-1919
ential	-1920
▁appears	-1921
ging	-1922
resh	-1923
action	-1924
IT	-1925
▁Respondent	-1926
▁Ins	-1927
▁husband	-1928
▁transfer	-1929
▁Hind	-1930
▁among	-1931
ium	-1932
isation	-1933
▁benefit	-1934
alk	-1935
▁pray	-1936
▁natural	-1937
▁san	-1938
▁too	-1939
▁full	-1940
▁sought	-1941
▁matters	-1942
▁similar	-1943
▁Be	-1944
▁paragraph	-1945
▁times	-1946
▁accordance	-1947
▁appre	-1948
empt	-1949
overy	-1950
▁working	-1951
▁qual	-1952
▁Council	-1953
▁rate	-1954
▁Engl	-1955
▁Corporation	-1956
▁His	-1957
▁suff	-1958
▁nex	-1959
▁otherwise	-1960
ricult	-1961
▁fri	-1962
▁laid	-1963
ciples	-1964
mber	-1965
ably	-1966
▁direction	-1967
▁meas	-1968
▁occurrence	-1969
ling	-1970
▁adop	-1971
▁sing	-1972
▁interf	-1973
▁prim	-1974
que	-1975
▁New	-1976
ours	-1977
▁deed	-1978
▁En	-1979
▁fe	-1980
▁share	-1981
arily	-1982
▁artic	-1983
▁major	-1984
▁valid	-1985
IN	-1986
ieve	-1987
▁plan	-1988
▁aside	-1989
idd	-1990
▁Further	-1991
▁wind	-1992
▁hearing	-1993
urity	-1994
▁ide	-1995
iving	-1996
▁Union	-1997
ware	-1998
▁defence	-1999
vi	-2000
ery	-2001
ends	-2002
▁blood	-2003
▁control	-2004
▁correct	-2005
▁What	-2006
OR	-2007
sure	-2008
aly	-2009
▁brother	-2010
▁principle	-2011
▁Bi	-2012
▁six	-2013
▁field	-2014
▁medical	-2015
▁opportunity	-2016
▁affidavit	-2017
▁substant	-2018
▁assessment	-2019
td	-2020
ris	-2021
▁sk	-2022
icult	-2023
▁note	-2024
▁failed	-2025
▁spot	-2026
ething	-2027
▁reasonable	-2028
▁return	-2029
▁x	-2030
▁dead	-2031
▁subsequent	-2032
▁change	-2033
▁health	-2034
▁move	-2035
hys	-2036
oid	-2037
▁neg	-2038
▁Aug	-2039
acher	-2040
▁Comm	-2041
abad	-2042
▁Authority	-2043
▁recogn	-2044
▁later	-2045
ta	-2046
▁propos	-2047
ern	-2048
▁vac	-2049
▁true	-2050
▁super	-2051
▁charact	-2052
▁trad	-2053
▁injuries	-2054
▁private	-2055
▁answ	-2056
▁still	-2057
akh	-2058
▁Nos	-2059
▁success	-2060
▁decree	-2061
▁Special	-2062
▁function	-2063
▁vehic	-2064
ems	-2065
▁Public	-2066
▁proceeding	-2067
▁Pradesh	-2068
▁charges	-2069
imum	-2070
work	-2071
duc	-2072
▁principles	-2073
ali	-2074
▁Ann	-2075
▁sw	-2076
gar	-2077
▁objection	-2078
▁es	-2079
▁plead	-2080
▁official	-2081
▁next	-2082
atic	-2083
▁sufficient	-2084
▁ur	-2085
▁today	-2086
▁ful	-2087
▁sus	-2088
▁affect	-2089
tle	-2090
ship	-2091
▁sal	-2092
▁sl	-2093
▁ess	-2094
▁financial	-2095
▁States	-2096
▁Prov	-2097
▁pref	-2098
ane	-2099
▁intern	-2100
▁always	-2101
▁fram	-2102
▁higher	-2103
vest	-2104
▁Pat	-2105
▁IPC	-2106
▁provides	-2107
▁Develop	-2108
ipl	-2109
ats	-2110
▁Muslim	-2111
ension	-2112
▁finding	-2113
▁applicant	-2114
▁chang	-2115
▁contained	-2116
lied	-2117
▁national	-2118
▁One	-2119
▁mand	-2120
▁caused	-2121
▁indep	-2122
▁port	-2123
endment	-2124
▁self	-2125
▁undert	-2126
orth	-2127
▁giving	-2128
▁Part	-2129
thing	-2130
venue	-2131
augh	-2132
▁impro	-2133
▁relations	-2134
▁Z	-2135
sed	-2136
ury	-2137
▁Secret	-2138
▁presence	-2139
▁meeting	-2140
ks	-2141
▁nothing	-2142
▁bring	-2143
▁Ltd	-2144
▁sect	-2145
arat	-2146
▁enquiry	-2147
▁dri	-2148
lam	-2149
▁With	-2150
▁namely	-2151
▁nam	-2152
▁Cla	-2153
▁best	-2154
१०	-2155
▁treat	-2156
▁fac	-2157
▁once	-2158
outh	-2159
▁mot	-2160
▁elect	-2161
▁prepared	-2162
▁Kh	-2163
▁injury	-2164
▁arrest	-2165
▁Med	-2166
uf	-2167
▁meaning	-2168
▁Parliament	-2169
amination	-2170
▁bey	-2171
▁asked	-2172
▁third	-2173
▁fall	-2174
▁ii	-2175
▁step	-2176
▁wr	-2177
▁senior	-2178
▁beyond	-2179
▁extent	-2180
istry	-2181
▁lic	-2182
ote	-2183
▁Ext	-2184
▁conducted	-2185
▁Kar	-2186
▁kind	-2187
▁PR	-2188
▁areas	-2189
come	-2190
▁prove	-2191
▁By	-2192
▁denied	-2193
for	-2194
▁situation	-2195
▁holding	-2196
ann	-2197
vir	-2198
dule	-2199
▁guil	-2200
▁Advocate	-2201
aper	-2202
▁loss	-2203
▁submits	-2204
ructure	-2205
▁div	-2206
ercial	-2207
▁intention	-2208
HE	-2209
▁Just	-2210
▁norm	-2211
ape	-2212
▁decla	-2213
▁sust	-2214
▁unless	-2215
une	-2216
▁Station	-2217
ush	-2218
▁Pre	-2219
▁Minister	-2220
illed	-2221
standing	-2222
▁hist	-2223
vey	-2224
ample	-2225
▁notification	-2226
▁Educ	-2227
▁specified	-2228
ID	-2229
to	-2230
▁tit	-2231
ribution	-2232
▁petitions	-2233
▁immedi	-2234
▁local	-2235
▁outs	-2236
ulated	-2237
▁thereof	-2238
▁Such	-2239
▁certificate	-2240
▁able	-2241
igating	-2242
ards	-2243
ara	-2244
▁carry	-2245
▁pop	-2246
▁review	-2247
▁Development	-2248
hold	-2249
▁occas	-2250
gether	-2251
▁together	-2252
utive	-2253
▁filing	-2254
unt	-2255
▁statutory	-2256
ected	-2257
ma	-2258
ault	-2259
anation	-2260
urned	-2261
▁While	-2262
▁something	-2263
ories	-2264
▁fal	-2265
ept	-2266
▁bar	-2267
ties	-2268
▁doct	-2269
▁liable	-2270
▁mo	-2271
▁lab	-2272
▁difficult	-2273
ently	-2274
acity	-2275
▁Ra	-2276
▁home	-2277
▁started	-2278
▁students	-2279
ened	-2280
▁relied	-2281
go	-2282
rish	-2283
▁deposed	-2284
▁employee	-2285
lege	-2286
▁capital	-2287
▁therein	-2288
▁courts	-2289
▁hard	-2290
irm	-2291
▁absence	-2292
indu	-2293
▁decisions	-2294
▁Sm	-2295
▁states	-2296
▁applicable	-2297
▁previous	-2298
▁Under	-2299
urd	-2300
▁issues	-2301
▁bail	-2302
▁lib	-2303
▁comput	-2304
▁serious	-2305
▁aut	-2306
bs	-2307
▁belong	-2308
avan	-2309
▁Govern	-2310
ND	-2311
▁Senior	-2312
isition	-2313
acy	-2314
iary	-2315
▁political	-2316
▁member	-2317
▁fair	-2318
▁phys	-2319
▁Page	-2320
▁ut	-2321
▁economic	-2322
▁credit	-2323
▁character	-2324
▁wrong	-2325
▁X	-2326
▁Panch	-2327
▁few	-2328
▁settled	-2329
▁construction	-2330
▁ach	-2331
▁assessee	-2332
▁ill	-2333
▁Me	-2334
▁daugh	-2335
gin	-2336
▁expression	-2337
ruit	-2338
▁Gand	-2339
alc	-2340
selves	-2341
▁around	-2342
with	-2343
▁food	-2344
▁el	-2345
▁Soc	-2346
ubl	-2347
▁Lim	-2348
▁disch	-2349
▁unt	-2350
▁Hindu	-2351
▁sentence	-2352
▁event	-2353
▁May	-2354
▁dom	-2355
urance	-2356
▁countries	-2357
▁false	-2358
erg	-2359
..	-2360
ues	-2361
▁declar	-2362
▁II	-2363
▁purposes	-2364
arma	-2365
essions	-2366
▁recei	-2367
▁foreign	-2368
▁merely	-2369
▁maintain	-2370
▁pending	-2371
▁Cre	-2372
▁shown	-2373
adi	-2374
amb	-2375
▁arri	-2376
irt	-2377
▁kept	-2378
cious	-2379
▁refer	-2380
irit	-2381
iting	-2382
▁leave	-2383
▁building	-2384
▁marriage	-2385
▁candidates	-2386
▁wherein	-2387
▁AIR	-2388
ancy	-2389
▁Jan	-2390
▁English	-2391
▁Leg	-2392
▁Beng	-2393
▁fut	-2394
ternal	-2395
▁statements	-2396
▁conviction	-2397
▁admission	-2398
▁resident	-2399
▁eff	-2400
▁Brit	-2401
▁sanction	-2402
▁rejected	-2403
vironment	-2404
▁para	-2405
▁production	-2406
▁women	-2407
▁followed	-2408
ufact	-2409
▁crit	-2410
▁aver	-2411
rix	-2412
▁activities	-2413
▁accordingly	-2414
ership	-2415
▁election	-2416
▁forward	-2417
▁institutions	-2418
▁Hence	-2419
ama	-2420
▁pursu	-2421
▁particip	-2422
▁defin	-2423
ita	-2424
▁ded	-2425
ulations	-2426
▁Invest	-2427
▁offences	-2428
fully	-2429
▁why	-2430
▁trade	-2431
ION	-2432
▁publ	-2433
▁Mun	-2434
▁Dis	-2435
omes	-2436
II	-2437
▁Secretary	-2438
ethod	-2439
law	-2440
▁Mar	-2441
▁personal	-2442
▁Counsel	-2443
▁vol	-2444
▁Appeal	-2445
ires	-2446
▁Since	-2447
▁vehicle	-2448
ead	-2449
▁Criminal	-2450
▁ele	-2451
▁considering	-2452
▁management	-2453
eb	-2454
▁equal	-2455
lu	-2456
▁bal	-2457
emed	-2458
▁From	-2459
▁net	-2460
▁implement	-2461
▁whose	-2462
▁department	-2463
▁things	-2464
anies	-2465
▁wee	-2466
stitute	-2467
▁informed	-2468
▁Rec	-2469
▁face	-2470
▁mil	-2471
▁promotion	-2472
▁und	-2473
▁interpre	-2474
erve	-2475
ched	-2476
▁commit	-2477
tion	-2478
▁follows	-2479
rated	-2480
▁request	-2481
▁challenge	-2482
▁facil	-2483
▁thought	-2484
uses	-2485
▁impos	-2486
▁School	-2487
ught	-2488
▁Assist	-2489
▁noted	-2490
eric	-2491
▁saf	-2492
▁God	-2493
▁inn	-2494
▁claimed	-2495
▁involved	-2496
▁men	-2497
▁Prin	-2498
▁Education	-2499
aving	-2500
▁gave	-2501
▁assist	-2502
▁receipt	-2503
▁Thereafter	-2504
▁THE	-2505
atives	-2506
▁price	-2507
aff	-2508
▁restr	-2509
▁Islam	-2510
▁dispos	-2511
▁fixed	-2512
▁commission	-2513
itiz	-2514
inate	-2515
▁road	-2516
iss	-2517
▁Cl	-2518
ills	-2519
▁might	-2520
▁imm	-2521
▁illegal	-2522
aul	-2523
irst	-2524
▁streng	-2525
▁grounds	-2526
▁HC	-2527
ament	-2528
▁mult	-2529
ti	-2530
▁turn	-2531
▁design	-2532
▁stay	-2533
▁Justice	-2534
▁spirit	-2535
ril	-2536
▁method	-2537
▁connection	-2538
▁mor	-2539
ource	-2540
▁plaintiffs	-2541
▁approach	-2542
.-	-2543
▁manufact	-2544
aya	-2545
▁executed	-2546
▁agricult	-2547
▁context	-2548
ources	-2549
▁contrary	-2550
▁associ	-2551
most	-2552
▁occasion	-2553
usal	-2554
▁situ	-2555
▁March	-2556
urrent	-2557
iced	-2558
▁effort	-2559
▁treated	-2560
▁Sy	-2561
rant	-2562
▁parent	-2563
uled	-2564
▁Annex	-2565
▁title	-2566
▁future	-2567
▁Service	-2568
▁registration	-2569
▁seeking	-2570
▁bound	-2571
▁needs	-2572
▁oppos	-2573
▁security	-2574
▁heard	-2575
hai	-2576
icated	-2577
▁prob	-2578
▁carried	-2579
reg	-2580
▁related	-2581
▁young	-2582
▁Will	-2583
▁owner	-2584
▁dam	-2585
▁expect	-2586
▁ensure	-2587
▁recovery	-2588
rah	-2589
examination	-2590
▁consum	-2591
uary	-2592
men	-2593
rop	-2594
▁Sar	-2595
▁Now	-2596
▁appreci	-2597
arant	-2598
imate	-2599
▁additional	-2600
▁Sim	-2601
▁became	-2602
▁susp	-2603
▁specif	-2604
▁counter	-2605
ental	-2606
▁properties	-2607
▁cover	-2608
IL	-2609
▁plant	-2610
itive	-2611
erated	-2612
mes	-2613
▁Tax	-2614
▁lod	-2615
▁Additional	-2616
▁told	-2617
▁daughter	-2618
▁allegations	-2619
▁constitution	-2620
▁industry	-2621
▁declaration	-2622
▁penal	-2623
▁crime	-2624
▁role	-2625
icip	-2626
▁Lal	-2627
oad	-2628
▁Let	-2629
▁obtained	-2630
▁Writ	-2631
▁relation	-2632
▁declared	-2633
▁framed	-2634
▁details	-2635
▁yet	-2636
ety	-2637
▁exam	-2638
int	-2639
▁poet	-2640
enced	-2641
▁cast	-2642
▁rese	-2643
udd	-2644
ored	-2645
▁eas	-2646
▁address	-2647
▁spe	-2648
▁continue	-2649
▁outside	-2650
ED	-2651
ancell	-2652
▁allot	-2653
▁prosecut	-2654
▁little	-2655
▁arbitration	-2656
▁ce	-2657
▁independent	-2658
▁competent	-2659
▁First	-2660
▁permission	-2661
▁Em	-2662
atch	-2663
▁Where	-2664
ude	-2665
itor	-2666
land	-2667
▁officers	-2668
▁Report	-2669
▁writing	-2670
▁reserv	-2671
▁lar	-2672
▁sector	-2673
NIC	-2674
▁furn	-2675
▁joint	-2676
▁rend	-2677
▁shows	-2678
▁room	-2679
▁heart	-2680
▁reached	-2681
▁Muk	-2682
▁impl	-2683
omp	-2684
ises	-2685
▁whom	-2686
▁applied	-2687
▁hospital	-2688
▁arr	-2689
▁testim	-2690
▁better	-2691
▁instant	-2692
▁window	-2693
ison	-2694
▁teacher	-2695
▁recommend	-2696
ares	-2697
▁intro	-2698
▁trust	-2699
▁district	-2700
▁revision	-2701
UR	-2702
▁Indust	-2703
istrative	-2704
▁single	-2705
AM	-2706
▁fr	-2707
▁data	-2708
acc	-2709
omb	-2710
११	-2711
▁agg	-2712
▁British	-2713
lying	-2714
▁Fin	-2715
▁bo	-2716
oted	-2717
▁particularly	-2718
▁Sur	-2719
▁existing	-2720
▁Assistant	-2721
▁discussion	-2722
▁quality	-2723
▁Cons	-2724
▁April	-2725
▁Ministry	-2726
▁Created	-2727
▁Bhavan	-2728
▁records	-2729
▁Hindi	-2730
▁Gandhi	-2731
▁makes	-2732
▁interim	-2733
▁acquit	-2734
▁Annexure	-2735
▁existence	-2736
▁Village	-2737
▁execution	-2738
▁minor	-2739
▁House	-2740
aries	-2741
▁Petitioner	-2742
▁strong	-2743
▁capacity	-2744
▁applications	-2745
pir	-2746
▁Rep	-2747
▁citiz	-2748
▁liter	-2749
▁treatment	-2750
▁mur	-2751
▁summ	-2752
▁enact	-2753
mises	-2754
▁join	-2755
now	-2756
▁Sah	-2757
airs	-2758
▁Ph	-2759
aster	-2760
▁anything	-2761
ayat	-2762
▁eye	-2763
missible	-2764
▁thing	-2765
▁Sat	-2766
▁Artic	-2767
▁Procedure	-2768
▁Pal	-2769
dra	-2770
▁growth	-2771
▁Rasht	-2772
▁separate	-2773
▁themselves	-2774
cent	-2775
▁Le	-2776
▁close	-2777
▁Sw	-2778
▁type	-2779
▁sense	-2780
UD	-2781
▁live	-2782
▁employment	-2783
▁art	-2784
▁search	-2785
▁hence	-2786
▁fra	-2787
▁subs	-2788
▁entered	-2789
▁prevent	-2790
wal	-2791
jee	-2792
▁station	-2793
pr	-2794
cri	-2795
▁findings	-2796
cle	-2797
▁Lab	-2798
▁coming	-2799
▁Im	-2800
uction	-2801
▁Bar	-2802
▁mill	-2803
▁appellate	-2804
rs	-2805
▁Limited	-2806
▁neither	-2807
AD	-2808
aka	-2809
▁line	-2810
▁sol	-2811
▁Clause	-2812
▁consist	-2813
▁love	-2814
though	-2815
▁Sessions	-2816
kar	-2817
reedom	-2818
▁Cong	-2819
▁occur	-2820
▁lay	-2821
▁operation	-2822
▁story	-2823
▁passing	-2824
irl	-2825
▁region	-2826
enc	-2827
▁elig	-2828
▁created	-2829
▁immediately	-2830
▁cut	-2831
▁Americ	-2832
▁alone	-2833
asad	-2834
hibit	-2835
▁industrial	-2836
▁Bihar	-2837
▁seized	-2838
▁posts	-2839
tt	-2840
▁During	-2841
▁ter	-2842
ertain	-2843
▁mus	-2844
▁approval	-2845
▁doing	-2846
ift	-2847
▁fun	-2848
▁include	-2849
▁died	-2850
▁access	-2851
▁specifically	-2852
▁selection	-2853
▁murder	-2854
▁Guj	-2855
io	-2856
▁Do	-2857
CT	-2858
ipur	-2859
▁Bengal	-2860
▁Single	-2861
▁Dep	-2862
▁amendment	-2863
▁inquiry	-2864
▁published	-2865
▁draw	-2866
▁Off	-2867
▁led	-2868
ening	-2869
rapati	-2870
▁Trial	-2871
olute	-2872
▁IT	-2873
▁pointed	-2874
▁reve	-2875
▁Bal	-2876
imal	-2877
▁Scheme	-2878
▁rendered	-2879
ously	-2880
MENT	-2881
ieved	-2882
gr	-2883
▁mach	-2884
▁directions	-2885
oice	-2886
▁analy	-2887
▁marked	-2888
▁benefits	-2889
▁occup	-2890
▁friend	-2891
▁liability	-2892
▁dest	-2893
▁integ	-2894
▁don	-2895
▁Pun	-2896
adu	-2897
formation	-2898
arth	-2899
▁har	-2900
▁lat	-2901
▁Though	-2902
▁past	-2903
▁Pra	-2904
▁Dece	-2905
▁mess	-2906
▁begin	-2907
lector	-2908
▁nar	-2909
▁gone	-2910
▁fresh	-2911
▁providing	-2912
▁z	-2913
▁status	-2914
ji	-2915
▁progress	-2916
▁limited	-2917
▁performance	-2918
ront	-2919
ilities	-2920
▁tried	-2921
▁Rashtrapati	-2922
▁Krish	-2923
ators	-2924
▁living	-2925
▁discipl	-2926
▁gre	-2927
▁key	-2928
▁merit	-2929
endra	-2930
▁physical	-2931
▁fit	-2932
▁materials	-2933
▁Medical	-2934
▁least	-2935
▁dise	-2936
▁Lear	-2937
▁firm	-2938
▁scale	-2939
oor	-2940
semb	-2941
vention	-2942
▁night	-2943
irth	-2944
▁enfor	-2945
▁judge	-2946
▁reply	-2947
ott	-2948
▁nom	-2949
▁requirement	-2950
▁questions	-2951
▁Some	-2952
▁custom	-2953
▁Per	-2954
verse	-2955
▁testimony	-2956
adem	-2957
▁distin	-2958
▁proposed	-2959
▁ign	-2960
bsite	-2961
pector	-2962
▁remed	-2963
▁contem	-2964
▁addition	-2965
▁bid	-2966
▁actually	-2967
▁Congress	-2968
ians	-2969
▁parts	-2970
uro	-2971
▁decide	-2972
▁air	-2973
atures	-2974
▁adjud	-2975
▁punishment	-2976
▁presum	-2977
change	-2978
retion	-2979
roll	-2980
▁adopted	-2981
▁continued	-2982
▁drawn	-2983
▁pension	-2984
▁My	-2985
▁dr	-2986
▁Ne	-2987
▁permit	-2988
▁August	-2989
▁withdra	-2990
▁Legisl	-2991
pective	-2992
▁Exec	-2993
▁Nar	-2994
▁Trans	-2995
▁history	-2996
▁Pur	-2997
▁Dh	-2998
ada	-2999
put	-3000
▁lower	-3001
▁hands	-3002
▁Oct	-3003
▁experience	-3004
▁using	-3005
▁version	-3006
▁often	-3007
▁problem	-3008
▁guarant	-3009
▁deemed	-3010
▁January	-3011
▁appearing	-3012
▁challenged	-3013
▁saw	-3014
eng	-3015
elling	-3016
▁Lord	-3017
▁red	-3018
▁Moh	-3019
▁Engine	-3020
opp	-3021
▁accident	-3022
▁link	-3023
▁plea	-3024
▁impris	-3025
oot	-3026
▁resolution	-3027
▁Smt	-3028
▁Pand	-3029
▁Mahar	-3030
eness	-3031
▁Applic	-3032
▁recovered	-3033
▁adj	-3034
▁Feb	-3035
▁essential	-3036
▁international	-3037
ier	-3038
apter	-3039
▁Fore	-3040
▁pert	-3041
▁statute	-3042
equ	-3043
▁freedom	-3044
▁Chh	-3045
▁July	-3046
▁Intern	-3047
▁Second	-3048
▁produce	-3049
▁Techn	-3050
▁unf	-3051
▁Chair	-3052
istic	-3053
▁environment	-3054
▁emp	-3055
aging	-3056
▁tender	-3057
▁signific	-3058
▁Sept	-3059
▁instance	-3060
▁works	-3061
▁scope	-3062
▁aud	-3063
cell	-3064
aps	-3065
▁truth	-3066
▁December	-3067
▁squ	-3068
▁feel	-3069
▁fine	-3070
ns	-3071
sequently	-3072
▁community	-3073
▁rather	-3074
▁noticed	-3075
▁absolute	-3076
using	-3077
▁example	-3078
▁news	-3079
▁products	-3080
asing	-3081
icted	-3082
vis	-3083
pec	-3084
▁shop	-3085
▁proof	-3086
▁disposed	-3087
ung	-3088
▁advert	-3089
▁premises	-3090
ruitment	-3091
▁govern	-3092
▁category	-3093
ival	-3094
RI	-3095
▁prosecutrix	-3096
orrow	-3097
▁RRB	-3098
hra	-3099
▁Pri	-3100
▁aware	-3101
▁comes	-3102
ration	-3103
▁website	-3104
▁Ev	-3105
aled	-3106
▁conver	-3107
▁tradition	-3108
▁becomes	-3109
▁Judicial	-3110
bed	-3111
▁steps	-3112
▁loan	-3113
▁error	-3114
▁attempt	-3115
luded	-3116
▁Mem	-3117
▁Prasad	-3118
oper	-3119
ober	-3120
ots	-3121
▁lands	-3122
▁guilty	-3123
▁protection	-3124
BI	-3125
▁laws	-3126
chan	-3127
▁influ	-3128
▁acquired	-3129
▁perman	-3130
ran	-3131
▁Sab	-3132
▁attention	-3133
▁mort	-3134
▁vari	-3135
▁commercial	-3136
aching	-3137
ili	-3138
▁Def	-3139
▁Deputy	-3140
▁imprisonment	-3141
view	-3142
▁basic	-3143
▁claims	-3144
▁consequ	-3145
▁Accordingly	-3146
▁injured	-3147
▁More	-3148
▁farm	-3149
▁reading	-3150
▁September	-3151
▁deep	-3152
▁Dist	-3153
▁host	-3154
▁religious	-3155
▁research	-3156
▁virt	-3157
▁discretion	-3158
anda	-3159
▁administration	-3160
▁quant	-3161
▁preferred	-3162
▁Arbitr	-3163
▁Learned	-3164
▁lakh	-3165
▁responsible	-3166
▁soon	-3167
▁assum	-3168
▁ult	-3169
▁respective	-3170
▁setting	-3171
sing	-3172
▁covered	-3173
▁Int	-3174
pite	-3175
ruary	-3176
encies	-3177
uties	-3178
▁sold	-3179
▁conscious	-3180
▁create	-3181
▁Mo	-3182
▁deli	-3183
iso	-3184
▁sole	-3185
▁identified	-3186
▁cell	-3187
jab	-3188
AS	-3189
line	-3190
▁big	-3191
inated	-3192
▁enter	-3193
▁Pen	-3194
▁Ac	-3195
▁satisfied	-3196
bar	-3197
▁pot	-3198
▁February	-3199
▁permitted	-3200
▁June	-3201
▁hy	-3202
▁talk	-3203
▁relationship	-3204
▁College	-3205
▁Income	-3206
ourn	-3207
▁attack	-3208
▁accounts	-3209
▁fire	-3210
▁US	-3211
▁examine	-3212
amental	-3213
▁names	-3214
▁Princip	-3215
▁balance	-3216
▁Collector	-3217
tation	-3218
▁consent	-3219
ina	-3220
▁agreed	-3221
▁express	-3222
▁evident	-3223
▁violation	-3224
▁LRB	-3225
▁suggestion	-3226
▁problems	-3227
icipal	-3228
ager	-3229
▁half	-3230
▁computer	-3231
▁mut	-3232
▁concept	-3233
▁practice	-3234
▁representation	-3235
ps	-3236
▁wide	-3237
▁judgments	-3238
▁Bl	-3239
uel	-3240
▁explanation	-3241
rd	-3242
▁Similar	-3243
ami	-3244
▁rent	-3245
▁paper	-3246
▁born	-3247
▁almost	-3248
▁whereas	-3249
va	-3250
▁Schedule	-3251
▁Panchayat	-3252
▁informant	-3253
▁completed	-3254
▁acquisition	-3255
▁Gr	-3256
▁Har	-3257
▁nation	-3258
garh	-3259
▁sheet	-3260
istrar	-3261
uck	-3262
▁enj	-3263
▁page	-3264
▁di	-3265
ender	-3266
▁quite	-3267
▁custody	-3268
▁List	-3269
▁awarded	-3270
▁const	-3271
ograph	-3272
▁movement	-3273
▁Ple	-3274
ankar	-3275
▁girl	-3276
ological	-3277
▁penalty	-3278
▁Punjab	-3279
▁woman	-3280
▁extended	-3281
▁opposite	-3282
▁remain	-3283
▁argument	-3284
iture	-3285
pecially	-3286
▁Devi	-3287
▁Ah	-3288
sis	-3289
heduled	-3290
▁Af	-3291
ras	-3292
▁payable	-3293
els	-3294
riev	-3295
▁entry	-3296
ET	-3297
▁JUD	-3298
▁exercised	-3299
▁thereby	-3300
▁gra	-3301
▁top	-3302
▁Gujarat	-3303
estic	-3304
▁getting	-3305
▁Sharma	-3306
▁appeals	-3307
▁Ma	-3308
▁duties	-3309
▁technology	-3310
▁stands	-3311
▁seiz	-3312
▁included	-3313
▁developed	-3314
▁effective	-3315
rob	-3316
▁network	-3317
▁Inspector	-3318
▁Other	-3319
▁West	-3320
cription	-3321
duction	-3322
▁defined	-3323
▁Admin	-3324
▁Ash	-3325
▁Sun	-3326
▁reliance	-3327
▁article	-3328
ingu	-3329
▁October	-3330
hood	-3331
▁....	-3332
▁dealing	-3333
iously	-3334
▁threat	-3335
▁peace	-3336
▁partn	-3337
▁situated	-3338
anced	-3339
▁modern	-3340
▁Executive	-3341
▁punishable	-3342
▁behind	-3343
▁attract	-3344
▁simple	-3345
▁Information	-3346
▁proviso	-3347
▁pack	-3348
body	-3349
▁check	-3350
▁answer	-3351
▁minimum	-3352
▁technical	-3353
▁argued	-3354
be	-3355
▁parents	-3356
▁enough	-3357
▁weap	-3358
▁especially	-3359
▁fully	-3360
▁supported	-3361
▁Ka	-3362
▁cogn	-3363
▁sex	-3364
kh	-3365
▁returned	-3366
▁imposed	-3367
▁training	-3368
▁acts	-3369
▁liqu	-3370
▁text	-3371
▁supply	-3372
▁Brah	-3373
▁JUDG	-3374
rieved	-3375
▁portion	-3376
▁until	-3377
▁Go	-3378
▁tele	-3379
▁ever	-3380
▁limit	-3381
▁ought	-3382
▁books	-3383
imately	-3384
▁clar	-3385
▁guide	-3386
▁birth	-3387
▁cur	-3388
▁early	-3389
▁corpor	-3390
▁really	-3391
▁observations	-3392
▁approved	-3393
nat	-3394
▁wa	-3395
▁current	-3396
▁profession	-3397
▁source	-3398
▁Appellant	-3399
▁requires	-3400
▁Chandra	-3401
▁employer	-3402
▁register	-3403
▁phot	-3404
▁injunction	-3405
▁cancell	-3406
▁Hospital	-3407
▁duly	-3408
▁suggest	-3409
▁Bomb	-3410
▁pros	-3411
▁hon	-3412
▁United	-3413
▁Principal	-3414
▁committee	-3415
itude	-3416
▁hours	-3417
▁settlement	-3418
▁pers	-3419
▁Appellate	-3420
▁quar	-3421
▁scient	-3422
lusive	-3423
rut	-3424
amil	-3425
▁energ	-3426
▁visit	-3427
▁typ	-3428
▁install	-3429
CC	-3430
ones	-3431
▁deg	-3432
▁option	-3433
▁JUDGMENT	-3434
▁stip	-3435
▁likely	-3436
obile	-3437
▁Office	-3438
▁companies	-3439
▁Case	-3440
▁deposit	-3441
avi	-3442
▁ren	-3443
rast	-3444
▁boy	-3445
▁protect	-3446
▁democ	-3447
endence	-3448
▁Investigating	-3449
▁default	-3450
▁connected	-3451
▁discussed	-3452
▁marks	-3453
▁signed	-3454
rig	-3455
▁quas	-3456
▁Pe	-3457
▁lease	-3458
sembly	-3459
▁perusal	-3460
▁fundamental	-3461
▁Mal	-3462
com	-3463
▁prejud	-3464
ifying	-3465
▁Bombay	-3466
▁understand	-3467
▁altern	-3468
▁articles	-3469
uru	-3470
▁temple	-3471
ground	-3472
▁Nagar	-3473
▁job	-3474
▁seven	-3475
dom	-3476
pta	-3477
▁villa	-3478
▁la	-3479
▁mag	-3480
enses	-3481
▁facie	-3482
▁collect	-3483
▁failure	-3484
ayan	-3485
▁discharge	-3486
IA	-3487
enance	-3488
▁enjoy	-3489
ancies	-3490
apers	-3491
porary	-3492
OU	-3493
▁recruitment	-3494
▁fraud	-3495
▁Work	-3496
▁insp	-3497
▁Nove	-3498
oke	-3499
▁Shiv	-3500
▁substantial	-3501
▁Sam	-3502
▁sound	-3503
ins	-3504
▁Sci	-3505
▁Associ	-3506
▁functions	-3507
isc	-3508
▁ST	-3509
▁Gov	-3510
३०	-3511
▁wid	-3512
lack	-3513
▁activity	-3514
ining	-3515
▁actual	-3516
▁Registrar	-3517
▁places	-3518
▁initiated	-3519
▁apart	-3520
▁terror	-3521
▁determined	-3522
▁CR	-3523
▁November	-3524
wan	-3525
▁obl	-3526
▁Bab	-3527
▁low	-3528
assion	-3529
ifications	-3530
१२	-3531
ference	-3532
▁shares	-3533
duce	-3534
▁Isra	-3535
▁sustained	-3536
elt	-3537
▁seizure	-3538
▁transaction	-3539
▁instead	-3540
▁definition	-3541
hest	-3542
erate	-3543
let	-3544
▁believe	-3545
▁assets	-3546
▁strength	-3547
▁instrument	-3548
under	-3549
▁Of	-3550
lines	-3551
▁says	-3552
▁Penal	-3553
AG	-3554
▁fig	-3555
istan	-3556
▁revenue	-3557
ne	-3558
▁log	-3559
▁aspects	-3560
▁generally	-3561
▁facilities	-3562
▁export	-3563
▁sister	-3564
▁communication	-3565
▁permanent	-3566
▁Revenue	-3567
adav	-3568
▁sil	-3569
▁greater	-3570
▁Israel	-3571
▁Provided	-3572
▁adverse	-3573
irmed	-3574
▁Management	-3575
ett	-3576
ales	-3577
▁oral	-3578
▁achieve	-3579
▁expressed	-3580
▁Super	-3581
▁lodged	-3582
obal	-3583
▁fell	-3584
▁improve	-3585
ams	-3586
▁Plan	-3587
▁unit	-3588
▁doctor	-3589
▁bod	-3590
▁energy	-3591
▁cogniz	-3592
krit	-3593
▁front	-3594
▁Application	-3595
herjee	-3596
▁transferred	-3597
▁directly	-3598
▁structure	-3599
ulate	-3600
oti	-3601
itable	-3602
▁prima	-3603
▁candidate	-3604
eared	-3605
▁Bhag	-3606
▁fulf	-3607
▁territ	-3608
oud	-3609
▁Patna	-3610
▁Prof	-3611
▁Institute	-3612
-0	-3613
▁Euro	-3614
▁transport	-3615
▁constituted	-3616
▁city	-3617
oj	-3618
▁remedy	-3619
▁religion	-3620
▁extra	-3621
▁served	-3622
▁remained	-3623
▁site	-3624
▁signature	-3625
▁Then	-3626
▁lost	-3627
ows	-3628
iddle	-3629
▁Shah	-3630
▁Chairman	-3631
▁assistance	-3632
enty	-3633
▁aim	-3634
▁importance	-3635
▁PRES	-3636
▁changes	-3637
▁Des	-3638
▁submissions	-3639
ilt	-3640
ump	-3641
▁Mand	-3642
▁bill	-3643
▁percent	-3644
▁costs	-3645
▁takes	-3646
▁Chapter	-3647
▁million	-3648
utta	-3649
operative	-3650
▁Mukherjee	-3651
ousand	-3652
▁East	-3653
▁contribution	-3654
dd	-3655
▁substance	-3656
▁Rail	-3657
▁Karnat	-3658
▁Ors	-3659
▁administrative	-3660
EC	-3661
▁Dev	-3662
▁agricultural	-3663
rid	-3664
▁normal	-3665
▁increase	-3666
▁affected	-3667
▁purchase	-3668
▁population	-3669
iny	-3670
▁efforts	-3671
▁educational	-3672
▁faith	-3673
▁Any	-3674
▁includes	-3675
▁conferred	-3676
▁Europe	-3677
ordinate	-3678
iti	-3679
▁max	-3680
▁Exhibit	-3681
▁arrange	-3682
rug	-3683
▁forms	-3684
▁PO	-3685
▁stru	-3686
▁study	-3687
▁Judges	-3688
▁advance	-3689
▁intended	-3690
▁gives	-3691
itary	-3692
▁Karnataka	-3693
▁Bang	-3694
▁lack	-3695
OM	-3696
ouses	-3697
▁described	-3698
▁arrived	-3699
▁er	-3700
▁keeping	-3701
uting	-3702
hem	-3703
▁leading	-3704
▁agency	-3705
▁Stand	-3706
▁goes	-3707
▁message	-3708
▁convicted	-3709
▁sou	-3710
▁prayer	-3711
aken	-3712
▁harm	-3713
aran	-3714
▁apparent	-3715
ables	-3716
▁Sabha	-3717
▁enforce	-3718
▁limitation	-3719
▁Land	-3720
▁difference	-3721
erty	-3722
essing	-3723
ask	-3724
eria	-3725
▁stri	-3726
▁offer	-3727
▁burd	-3728
▁preced	-3729
▁running	-3730
▁Tamil	-3731
▁engaged	-3732
▁Bill	-3733
de	-3734
▁oblig	-3735
abh	-3736
IS	-3737
ocation	-3738
ga	-3739
▁eligible	-3740
▁resources	-3741
aut	-3742
▁coll	-3743
▁remains	-3744
▁Municipal	-3745
▁ris	-3746
stituted	-3747
urer	-3748
▁sure	-3749
rastructure	-3750
▁emph	-3751
▁Qu	-3752
▁interpretation	-3753
▁debt	-3754
▁mental	-3755
▁disclos	-3756
▁programme	-3757
ke	-3758
wh	-3759
▁forth	-3760
▁carrying	-3761
▁merits	-3762
▁Muslims	-3763
▁investment	-3764
▁emer	-3765
▁inside	-3766
▁advertise	-3767
athi	-3768
▁compliance	-3769
▁griev	-3770
▁Lok	-3771
▁Krishna	-3772
,00	-3773
▁Similarly	-3774
▁disease	-3775
elf	-3776
gment	-3777
▁Account	-3778
▁selected	-3779
▁remo	-3780
▁opens	-3781
▁patient	-3782
▁speak	-3783
▁added	-3784
▁Sa	-3785
▁Kash	-3786
▁Our	-3787
▁earth	-3788
ij	-3789
enditure	-3790
▁Bas	-3791
esides	-3792
▁receive	-3793
▁exceed	-3794
apur	-3795
▁Services	-3796
▁disclosed	-3797
▁allegation	-3798
▁offered	-3799
EL	-3800
▁Hy	-3801
▁International	-3802
▁Jag	-3803
ishing	-3804
▁00	-3805
▁arise	-3806
▁distance	-3807
▁completion	-3808
▁arising	-3809
▁Society	-3810
▁staff	-3811
▁measures	-3812
▁Assam	-3813
▁eight	-3814
▁arbitrator	-3815
▁recording	-3816
▁volunt	-3817
▁century	-3818
IDENT	-3819
▁IN	-3820
▁bad	-3821
vision	-3822
▁presented	-3823
ademic	-3824
▁standard	-3825
mir	-3826
▁mechan	-3827
▁Pran	-3828
▁else	-3829
▁bearing	-3830
▁determination	-3831
▁forest	-3832
▁der	-3833
robor	-3834
▁lot	-3835
ading	-3836
cise	-3837
▁Yadav	-3838
▁Red	-3839
▁South	-3840
▁responsibility	-3841
▁explained	-3842
asm	-3843
ban	-3844
▁legislation	-3845
inding	-3846
rote	-3847
▁Stat	-3848
attis	-3849
▁Das	-3850
▁Labour	-3851
▁memo	-3852
ches	-3853
anskrit	-3854
▁amended	-3855
▁constitutional	-3856
▁establishment	-3857
▁heav	-3858
▁contact	-3859
▁Right	-3860
▁weeks	-3861
rog	-3862
oval	-3863
▁funds	-3864
icate	-3865
▁extract	-3866
▁Mon	-3867
umbai	-3868
▁size	-3869
▁construct	-3870
▁thousand	-3871
uls	-3872
uge	-3873
▁mass	-3874
▁Son	-3875
▁Expl	-3876
▁stating	-3877
anga	-3878
ashtra	-3879
▁External	-3880
▁citizens	-3881
▁retire	-3882
▁bi	-3883
▁arrested	-3884
▁requirements	-3885
▁SH	-3886
sect	-3887
▁comb	-3888
▁Governor	-3889
ishes	-3890
▁Health	-3891
▁liberty	-3892
aily	-3893
▁PRESIDENT	-3894
attisgarh	-3895
nces	-3896
▁none	-3897
ora	-3898
lies	-3899
icide	-3900
▁reads	-3901
adh	-3902
▁across	-3903
▁refers	-3904
▁wanted	-3905
▁disputed	-3906
▁collected	-3907
▁corrobor	-3908
▁How	-3909
▁Som	-3910
▁emb	-3911
▁rightly	-3912
ava	-3913
▁Both	-3914
▁Post	-3915
▁culture	-3916
▁claimant	-3917
▁factors	-3918
▁aggrieved	-3919
rief	-3920
▁burden	-3921
▁significant	-3922
rate	-3923
▁indicated	-3924
▁soft	-3925
▁Nag	-3926
▁univers	-3927
▁contempl	-3928
▁esc	-3929
ini	-3930
▁partition	-3931
rown	-3932
▁Jain	-3933
▁breach	-3934
▁extre	-3935
▁IND	-3936
ricity	-3937
▁imper	-3938
▁wrote	-3939
▁poor	-3940
▁pleaded	-3941
undred	-3942
AY	-3943
▁Calc	-3944
▁labour	-3945
ional	-3946
▁appeared	-3947
▁disciplinary	-3948
▁Utt	-3949
ING	-3950
▁pan	-3951
▁points	-3952
estern	-3953
▁detention	-3954
▁AP	-3955
illing	-3956
▁amounts	-3957
▁licence	-3958
▁tell	-3959
▁expected	-3960
▁Chhattisgarh	-3961
▁Can	-3962
aded	-3963
▁exchange	-3964
▁formed	-3965
▁Gupta	-3966
▁rural	-3967
eet	-3968
▁meant	-3969
▁obligation	-3970
sy	-3971
▁Add	-3972
▁incorpor	-3973
▁Trust	-3974
▁adequ	-3975
rine	-3976
▁emphas	-3977
▁teachers	-3978
ength	-3979
▁contrad	-3980
play	-3981
usted	-3982
▁Fund	-3983
▁unre	-3984
▁oil	-3985
▁Article	-3986
▁tree	-3987
ortem	-3988
▁advant	-3989
▁maintenance	-3990
▁cond	-3991
▁broad	-3992
tax	-3993
▁transl	-3994
▁cash	-3995
▁mal	-3996
▁scrut	-3997
▁ow	-3998
▁sell	-3999
▁Every	-4000
▁Sanskrit	-4001
▁detailed	-4002
▁warrant	-4003
▁pursuant	-4004
anger	-4005
▁enable	-4006
▁Andhra	-4007
▁literature	-4008
etimes	-4009
▁charged	-4010
▁Mumbai	-4011
▁conven	-4012
▁measure	-4013
▁interfere	-4014
▁uns	-4015
▁Republic	-4016
▁frame	-4017
liminary	-4018
▁expenditure	-4019
▁disputes	-4020
▁respectively	-4021
▁inqu	-4022
▁whol	-4023
▁subsequently	-4024
othes	-4025
▁majority	-4026
▁quash	-4027
olk	-4028
▁officials	-4029
▁units	-4030
▁encour	-4031
▁background	-4032
▁NO	-4033
▁१	-4034
ique	-4035
▁lev	-4036
▁objections	-4037
▁extend	-4038
erala	-4039
▁interference	-4040
aves	-4041
iring	-4042
▁completely	-4043
,000	-4044
▁excess	-4045
▁ordinary	-4046
▁central	-4047
▁arm	-4048
▁Before	-4049
▁wall	-4050
▁workers	-4051
osh	-4052
▁Whe	-4053
▁felt	-4054
▁Pranab	-4055
▁Kal	-4056
AP	-4057
▁Road	-4058
ikh	-4059
utor	-4060
▁CPC	-4061
▁gold	-4062
▁servant	-4063
▁try	-4064
▁Power	-4065
eech	-4066
▁interests	-4067
▁although	-4068
▁mode	-4069
▁science	-4070
▁path	-4071
▁Regulations	-4072
▁entr	-4073
▁proceeded	-4074
dy	-4075
▁ll	-4076
▁Evidence	-4077
▁fast	-4078
▁Kerala	-4079
ivity	-4080
▁asc	-4081
▁suc	-4082
▁calc	-4083
▁Centre	-4084
▁repro	-4085
bitral	-4086
▁salary	-4087
▁Calcutta	-4088
nam	-4089
▁Gh	-4090
▁spread	-4091
▁schedule	-4092
osop	-4093
▁dealt	-4094
▁initial	-4095
▁sac	-4096
IV	-4097
▁Mark	-4098
▁tri	-4099
▁looking	-4100
▁Maharashtra	-4101
ammu	-4102
wa	-4103
▁regards	-4104
ributed	-4105
▁Class	-4106
▁mom	-4107
atever	-4108
vere	-4109
▁util	-4110
▁categor	-4111
▁removal	-4112
▁hundred	-4113
iency	-4114
▁domestic	-4115
▁Please	-4116
earch	-4117
▁Head	-4118
▁Jammu	-4119
▁succeed	-4120
▁cal	-4121
▁properly	-4122
▁tot	-4123
pper	-4124
▁maintained	-4125
▁length	-4126
▁conflic	-4127
she	-4128
▁handed	-4129
actions	-4130
▁granting	-4131
▁idea	-4132
▁standing	-4133
oon	-4134
▁Ent	-4135
▁advocate	-4136
▁validity	-4137
▁constitute	-4138
▁legislature	-4139
▁global	-4140
▁Shankar	-4141
▁publication	-4142
ncy	-4143
▁anim	-4144
▁indicate	-4145
▁alternative	-4146
▁strict	-4147
▁base	-4148
▁round	-4149
▁wound	-4150
▁motor	-4151
▁virtue	-4152
▁eyes	-4153
▁proposal	-4154
▁innov	-4155
▁Arab	-4156
▁river	-4157
▁justified	-4158
oms	-4159
ilosop	-4160
abor	-4161
raft	-4162
▁introduced	-4163
▁Pak	-4164
▁won	-4165
▁stood	-4166
▁disposal	-4167
▁cy	-4168
▁unable	-4169
▁Ms	-4170
mortem	-4171
▁prayed	-4172
▁admit	-4173
▁consult	-4174
▁Association	-4175
▁Their	-4176
▁contents	-4177
▁king	-4178
▁pred	-4179
▁tenant	-4180
▁contain	-4181
▁Cert	-4182
▁black	-4183
▁letters	-4184
▁poll	-4185
▁AS	-4186
▁degree	-4187
ATION	-4188
▁longer	-4189
enth	-4190
uss	-4191
▁preliminary	-4192
atio	-4193
▁reit	-4194
oo	-4195
▁analysis	-4196
aram	-4197
▁quashed	-4198
iable	-4199
▁sustain	-4200
ula	-4201
▁trib	-4202
▁reports	-4203
▁dischar	-4204
▁laun	-4205
vell	-4206
aulted	-4207
▁instructions	-4208
▁Elect	-4209
▁named	-4210
▁AG	-4211
▁Scheduled	-4212
▁mandatory	-4213
hab	-4214
▁arbitrary	-4215
thern	-4216
▁vested	-4217
▁miscon	-4218
▁aid	-4219
▁demon	-4220
ply	-4221
▁Industrial	-4222
haps	-4223
▁diss	-4224
१३	-4225
▁avoid	-4226
▁insurance	-4227
▁projects	-4228
▁week	-4229
▁&#1	-4230
▁Khan	-4231
ley	-4232
usion	-4233
▁guidelines	-4234
▁camp	-4235
izing	-4236
▁cheque	-4237
▁commence	-4238
▁increased	-4239
nother	-4240
▁corres	-4241
▁unc	-4242
▁principal	-4243
▁rail	-4244
olved	-4245
▁requested	-4246
▁standards	-4247
▁accomp	-4248
▁Whether	-4249
▁obv	-4250
▁daily	-4251
▁released	-4252
▁Another	-4253
right	-4254
▁numbers	-4255
▁Br	-4256
▁Moreover	-4257
▁Regulation	-4258
reement	-4259
▁vacancies	-4260
▁maintainable	-4261
▁late	-4262
▁economy	-4263
▁infrastructure	-4264
▁fem	-4265
abilities	-4266
wari	-4267
▁viz	-4268
▁space	-4269
▁despite	-4270
▁err	-4271
▁exem	-4272
▁mobile	-4273
▁Once	-4274
▁qualification	-4275
▁response	-4276
▁popular	-4277
▁confidence	-4278
▁mist	-4279
▁arguments	-4280
▁guilt	-4281
▁Priv	-4282
▁seems	-4283
ades	-4284
where	-4285
▁Mu	-4286
▁door	-4287
orse	-4288
ailed	-4289
▁Group	-4290
▁prohib	-4291
▁Op	-4292
▁former	-4293
▁convey	-4294
▁beginning	-4295
PS	-4296
asth	-4297
▁morning	-4298
▁attached	-4299
▁Commercial	-4300
▁stamp	-4301
▁Project	-4302
▁King	-4303
▁insect	-4304
▁undertaking	-4305
▁SCA	-4306
▁litigation	-4307
gn	-4308
▁Vish	-4309
▁larger	-4310
▁academic	-4311
▁implementation	-4312
▁belonging	-4313
▁expert	-4314
▁rise	-4315
▁write	-4316
▁remaining	-4317
▁foc	-4318
▁board	-4319
▁refused	-4320
▁Explanation	-4321
▁autom	-4322
▁journ	-4323
▁termination	-4324
▁CH	-4325
▁whereby	-4326
▁contempt	-4327
ox	-4328
eel	-4329
▁invok	-4330
▁Prosec	-4331
▁primary	-4332
▁bodies	-4333
▁ali	-4334
▁Ur	-4335
▁purchased	-4336
▁expenses	-4337
hya	-4338
racy	-4339
▁investigating	-4340
▁banks	-4341
ograp	-4342
▁fear	-4343
▁contains	-4344
▁iii	-4345
rist	-4346
▁Prog	-4347
▁Uttar	-4348
▁Ak	-4349
▁vot	-4350
▁plus	-4351
▁Policy	-4352
▁groups	-4353
ateral	-4354
▁Day	-4355
▁cou	-4356
▁Char	-4357
▁advertisement	-4358
▁Finance	-4359
▁located	-4360
▁assaulted	-4361
nel	-4362
▁turned	-4363
DA	-4364
▁borrow	-4365
▁pleadings	-4366
▁Block	-4367
▁pain	-4368
▁repe	-4369
ler	-4370
▁Form	-4371
▁sections	-4372
▁Inter	-4373
▁results	-4374
ques	-4375
▁weak	-4376
▁reform	-4377
▁possess	-4378
....	-4379
▁Her	-4380
▁TO	-4381
ulted	-4382
▁highest	-4383
▁speed	-4384
▁Tw	-4385
▁usually	-4386
rew	-4387
▁deb	-4388
▁events	-4389
endency	-4390
▁correspond	-4391
ota	-4392
▁Kam	-4393
▁release	-4394
▁vital	-4395
NA	-4396
▁hope	-4397
▁extension	-4398
▁deposited	-4399
▁determine	-4400
▁dig	-4401
ni	-4402
leb	-4403
▁rout	-4404
▁temporary	-4405
▁sle	-4406
ailing	-4407
▁suffered	-4408
▁Net	-4409
▁reach	-4410
▁issuance	-4411
▁prop	-4412
▁formal	-4413
▁acquittal	-4414
▁potential	-4415
▁maximum	-4416
▁interested	-4417
▁items	-4418
▁Here	-4419
▁advantage	-4420
▁Technology	-4421
ze	-4422
ndra	-4423
▁Ved	-4424
▁ready	-4425
cient	-4426
▁schools	-4427
▁Your	-4428
chol	-4429
pped	-4430
▁weight	-4431
▁guarantee	-4432
▁ratio	-4433
lal	-4434
▁film	-4435
inating	-4436
▁delib	-4437
▁applicants	-4438
▁built	-4439
▁element	-4440
▁god	-4441
▁removed	-4442
arya	-4443
ighb	-4444
erted	-4445
▁finally	-4446
▁Ob	-4447
▁proced	-4448
▁saying	-4449
▁tar	-4450
▁proc	-4451
▁Resident	-4452
▁perf	-4453
inery	-4454
▁drug	-4455
▁colour	-4456
▁finds	-4457
▁worked	-4458
▁valu	-4459
aksh	-4460
▁approached	-4461
▁presumption	-4462
▁Mod	-4463
▁moment	-4464
▁Air	-4465
▁deals	-4466
▁nos	-4467
iment	-4468
▁objective	-4469
▁send	-4470
▁novel	-4471
▁user	-4472
▁concluded	-4473
ites	-4474
rif	-4475
▁Control	-4476
▁entertain	-4477
▁Sal	-4478
▁risk	-4479
▁extreme	-4480
▁influence	-4481
ton	-4482
▁AND	-4483
▁void	-4484
iciary	-4485
iece	-4486
▁demonst	-4487
▁understanding	-4488
udh	-4489
ume	-4490
▁Rel	-4491
▁crores	-4492
▁retirement	-4493
▁crore	-4494
▁deduction	-4495
▁recommendations	-4496
▁prejudice	-4497
▁pal	-4498
▁cognizance	-4499
▁recent	-4500
▁bear	-4501
▁pleas	-4502
gy	-4503
▁contentions	-4504
▁phone	-4505
▁distingu	-4506
EAR	-4507
▁medic	-4508
▁hereby	-4509
▁industries	-4510
▁neighb	-4511
▁factual	-4512
AC	-4513
orial	-4514
▁employed	-4515
▁philosop	-4516
▁views	-4517
▁delivery	-4518
▁North	-4519
the	-4520
▁ordered	-4521
▁raise	-4522
▁imag	-4523
rel	-4524
▁item	-4525
▁stock	-4526
▁notes	-4527
▁Having	-4528
▁PM	-4529
owry	-4530
▁violence	-4531
▁hum	-4532
▁engine	-4533
▁survey	-4534
▁team	-4535
▁fight	-4536
▁assault	-4537
▁suggested	-4538
▁recommended	-4539
yle	-4540
uct	-4541
▁eval	-4542
▁legislative	-4543
gest	-4544
oured	-4545
▁amongst	-4546
▁partnership	-4547
▁filled	-4548
dden	-4549
▁Kashmir	-4550
▁Manager	-4551
▁Mis	-4552
▁card	-4553
▁moved	-4554
▁notified	-4555
▁dismissal	-4556
▁complex	-4557
▁chem	-4558
▁incur	-4559
▁rank	-4560
▁Ahmed	-4561
▁render	-4562
operation	-4563
▁Up	-4564
▁showing	-4565
▁adequate	-4566
▁square	-4567
▁changed	-4568
▁AT	-4569
▁Are	-4570
▁lives	-4571
▁wholly	-4572
▁affairs	-4573
icit	-4574
▁bed	-4575
itness	-4576
▁caste	-4577
▁assigned	-4578
▁ing	-4579
▁Person	-4580
▁impact	-4581
▁addressed	-4582
▁confirmed	-4583
▁Insurance	-4584
▁clean	-4585
▁happy	-4586
▁began	-4587
▁motive	-4588
inent	-4589
▁urged	-4590
▁San	-4591
▁dying	-4592
▁arises	-4593
▁elected	-4594
▁satisfaction	-4595
PA	-4596
▁married	-4597
orld	-4598
▁undergo	-4599
aches	-4600
▁DW	-4601
▁license	-4602
▁executive	-4603
▁compassion	-4604
inder	-4605
utation	-4606
▁Superint	-4607
▁Est	-4608
▁stop	-4609
▁pure	-4610
▁investig	-4611
upees	-4612
▁happened	-4613
essor	-4614
▁Official	-4615
▁sides	-4616
▁papers	-4617
iy	-4618
▁distribution	-4619
issa	-4620
ja	-4621
head	-4622
▁seniority	-4623
▁identification	-4624
idy	-4625
▁cruel	-4626
▁Science	-4627
▁Car	-4628
▁foot	-4629
▁American	-4630
▁bon	-4631
▁ep	-4632
bhai	-4633
ensive	-4634
▁Bharat	-4635
▁programmes	-4636
▁deserv	-4637
▁proposition	-4638
▁burn	-4639
▁leaders	-4640
ictions	-4641
▁distinct	-4642
▁Cor	-4643
▁pron	-4644
▁lying	-4645
▁break	-4646
▁referring	-4647
appa	-4648
olid	-4649
▁advanced	-4650
cial	-4651
▁conce	-4652
▁discrim	-4653
▁involve	-4654
▁reduced	-4655
▁Vij	-4656
ourth	-4657
▁Ant	-4658
▁Agreement	-4659
▁Assembly	-4660
▁flow	-4661
▁Afric	-4662
▁successful	-4663
▁feed	-4664
▁safe	-4665
▁cultural	-4666
▁Prot	-4667
herent	-4668
▁enh	-4669
▁clothes	-4670
withstanding	-4671
cribe	-4672
ka	-4673
▁sitting	-4674
▁spiritual	-4675
▁causing	-4676
▁permissible	-4677
▁Govt	-4678
▁amend	-4679
▁twenty	-4680
una	-4681
▁highly	-4682
▁connect	-4683
▁binding	-4684
▁issuing	-4685
requ	-4686
▁tribunal	-4687
▁Supp	-4688
▁collection	-4689
▁active	-4690
▁opened	-4691
▁sym	-4692
aneous	-4693
▁driver	-4694
▁Att	-4695
▁bur	-4696
▁Orissa	-4697
▁indicates	-4698
▁suspic	-4699
▁pattern	-4700
▁ble	-4701
orney	-4702
▁multip	-4703
▁Amendment	-4704
▁Ali	-4705
▁Assessing	-4706
▁circumstance	-4707
antly	-4708
▁directing	-4709
▁Agricult	-4710
AB	-4711
attle	-4712
▁mortg	-4713
oned	-4714
▁World	-4715
▁newsp	-4716
alid	-4717
▁INDIA	-4718
andum	-4719
ounce	-4720
omen	-4721
stood	-4722
▁pict	-4723
▁scientific	-4724
▁rul	-4725
▁save	-4726
▁seed	-4727
iya	-4728
▁cad	-4729
▁sun	-4730
road	-4731
▁Circ	-4732
orandum	-4733
▁speech	-4734
▁sudden	-4735
▁totally	-4736
achment	-4737
▁minutes	-4738
▁secured	-4739
▁thereto	-4740
▁cho	-4741
▁whatever	-4742
▁grand	-4743
uration	-4744
▁attend	-4745
▁undertaken	-4746
▁brief	-4747
▁ap	-4748
itate	-4749
ception	-4750
▁values	-4751
aji	-4752
▁depri	-4753
▁increasing	-4754
▁sem	-4755
▁win	-4756
▁liquid	-4757
▁visited	-4758
▁Award	-4759
▁Engineer	-4760
▁town	-4761
▁Nadu	-4762
ousing	-4763
▁Institution	-4764
yer	-4765
mise	-4766
reen	-4767
▁cited	-4768
▁device	-4769
▁bond	-4770
▁mount	-4771
▁containing	-4772
rick	-4773
while	-4774
iation	-4775
▁ways	-4776
ancing	-4777
▁Jh	-4778
▁press	-4779
▁sample	-4780
▁display	-4781
▁hab	-4782
▁manif	-4783
▁looked	-4784
▁pendency	-4785
▁huge	-4786
▁Bu	-4787
MC	-4788
▁Kan	-4789
▁ago	-4790
▁bit	-4791
▁Ord	-4792
lude	-4793
▁certainly	-4794
▁lie	-4795
▁Sanj	-4796
▁systems	-4797
accused	-4798
▁Railway	-4799
mi	-4800
▁depart	-4801
▁weapon	-4802
lex	-4803
pto	-4804
▁sens	-4805
▁soul	-4806
kash	-4807
▁block	-4808
▁innoc	-4809
▁Roy	-4810
▁promot	-4811
▁conspir	-4812
▁Officers	-4813
▁hot	-4814
▁latter	-4815
▁suitable	-4816
etic	-4817
▁song	-4818
▁plants	-4819
▁fif	-4820
▁Program	-4821
azar	-4822
▁task	-4823
▁types	-4824
▁harass	-4825
▁transactions	-4826
▁rich	-4827
▁description	-4828
▁schol	-4829
▁rap	-4830
ellig	-4831
▁Only	-4832
▁sexual	-4833
▁Spe	-4834
ieties	-4835
▁closed	-4836
urs	-4837
▁Employ	-4838
chand	-4839
▁neglig	-4840
▁rates	-4841
▁fat	-4842
▁milk	-4843
▁Tal	-4844
▁histor	-4845
▁Chen	-4846
▁wages	-4847
▁genu	-4848
atha	-4849
lfare	-4850
▁seats	-4851
▁welfare	-4852
asa	-4853
▁Legislature	-4854
urb	-4855
AK	-4856
▁Accused	-4857
▁exhib	-4858
▁minister	-4859
qual	-4860
▁Budd	-4861
▁renew	-4862
▁furnished	-4863
opal	-4864
▁panch	-4865
ruption	-4866
ira	-4867
▁secret	-4868
azet	-4869
▁quoted	-4870
▁friends	-4871
▁danger	-4872
▁Met	-4873
▁gets	-4874
▁profit	-4875
▁obtaining	-4876
▁consequence	-4877
▁possibility	-4878
irs	-4879
ivered	-4880
▁joined	-4881
▁individuals	-4882
▁ens	-4883
▁music	-4884
▁Christ	-4885
▁criteria	-4886
ients	-4887
▁dowry	-4888
held	-4889
▁defect	-4890
IM	-4891
▁lap	-4892
ratic	-4893
▁wish	-4894
iful	-4895
atter	-4896
esting	-4897
akes	-4898
▁fort	-4899
▁serve	-4900
▁operations	-4901
▁ant	-4902
ovable	-4903
▁Pakistan	-4904
▁identity	-4905
▁sanctioned	-4906
▁commencement	-4907
▁solution	-4908
PL	-4909
▁hereinafter	-4910
▁Categ	-4911
▁alia	-4912
abled	-4913
▁adjudication	-4914
▁CO	-4915
▁vs	-4916
▁cultiv	-4917
regular	-4918
▁hostile	-4919
▁piece	-4920
▁motion	-4921
athe	-4922
▁college	-4923
▁associated	-4924
▁PS	-4925
▁factor	-4926
asw	-4927
leges	-4928
▁chief	-4929
▁obtain	-4930
▁learning	-4931
lear	-4932
▁clos	-4933
▁negative	-4934
oly	-4935
▁jail	-4936
▁Many	-4937
▁deposition	-4938
▁exercising	-4939
elled	-4940
▁necessarily	-4941
▁scene	-4942
▁allotment	-4943
▁white	-4944
▁annual	-4945
▁Its	-4946
▁gener	-4947
▁video	-4948
rep	-4949
anded	-4950
▁limits	-4951
▁ideas	-4952
portion	-4953
ream	-4954
▁lad	-4955
▁uncon	-4956
▁compar	-4957
▁cry	-4958
ila	-4959
▁memory	-4960
▁middle	-4961
ika	-4962
▁Organ	-4963
▁series	-4964
▁trying	-4965
▁damages	-4966
▁Companies	-4967
icies	-4968
holders	-4969
▁Nath	-4970
owered	-4971
▁Prime	-4972
▁choice	-4973
▁contro	-4974
▁conflict	-4975
TH	-4976
▁reflect	-4977
uous	-4978
▁plot	-4979
▁Joint	-4980
▁chann	-4981
▁deleg	-4982
▁Research	-4983
▁delivered	-4984
▁played	-4985
▁animals	-4986
▁recognized	-4987
▁observation	-4988
▁assign	-4989
▁acted	-4990
▁sometimes	-4991
omic	-4992
oring	-4993
▁acquitted	-4994
▁understood	-4995
▁departmental	-4996
▁select	-4997
▁allotted	-4998
▁strugg	-4999
▁distinction	-5000
iling	-5001
▁surf	-5002
▁enacted	-5003
lace	-5004
▁concern	-5005
▁confirm	-5006
▁irregular	-5007
▁YEAR	-5008
▁Inf	-5009
▁equip	-5010
▁travel	-5011
▁creation	-5012
▁Cap	-5013
▁celeb	-5014
▁comprom	-5015
▁worth	-5016
utt	-5017
onial	-5018
cer	-5019
gor	-5020
▁occurred	-5021
▁AD	-5022
▁Kish	-5023
aur	-5024
▁Sant	-5025
▁consequent	-5026
▁draft	-5027
▁damage	-5028
▁performed	-5029
then	-5030
▁bag	-5031
▁acceptance	-5032
▁villages	-5033
▁useful	-5034
▁recommendation	-5035
१४	-5036
▁Yog	-5037
▁bird	-5038
▁upto	-5039
▁chemical	-5040
▁holder	-5041
▁Category	-5042
▁touch	-5043
▁arbitral	-5044
isite	-5045
▁Also	-5046
▁forces	-5047
▁feet	-5048
▁prison	-5049
▁warm	-5050
▁Contract	-5051
▁absolutely	-5052
AV	-5053
▁remark	-5054
▁dele	-5055
▁Articles	-5056
▁claiming	-5057
▁asset	-5058
▁poetry	-5059
▁suffer	-5060
▁opening	-5061
▁deciding	-5062
hu	-5063
▁ax	-5064
▁reservation	-5065
▁content	-5066
▁controll	-5067
▁paragraphs	-5068
▁Arbitrator	-5069
▁rape	-5070
▁auction	-5071
ifted	-5072
▁lines	-5073
▁Hyder	-5074
▁alt	-5075
▁contra	-5076
▁Although	-5077
▁receiving	-5078
▁Di	-5079
▁Pan	-5080
ications	-5081
▁inherent	-5082
▁System	-5083
▁female	-5084
▁killed	-5085
atically	-5086
▁willing	-5087
▁knew	-5088
▁ultimately	-5089
▁Respondents	-5090
▁America	-5091
ellect	-5092
▁sleep	-5093
▁needed	-5094
▁challenging	-5095
▁consequences	-5096
bur	-5097
▁convict	-5098
▁suicide	-5099
▁opportunities	-5100
▁OR	-5101
▁tool	-5102
▁floor	-5103
raj	-5104
▁box	-5105
▁radi	-5106
ague	-5107
▁pertaining	-5108
▁functioning	-5109
asthan	-5110
▁answered	-5111
ounced	-5112
▁manufacturing	-5113
▁envis	-5114
▁Home	-5115
▁reserved	-5116
▁mix	-5117
▁believed	-5118
▁arch	-5119
▁Child	-5120
▁definite	-5121
▁Tur	-5122
▁Raipur	-5123
▁Rao	-5124
▁Vice	-5125
▁remove	-5126
▁prem	-5127
▁citizen	-5128
▁recover	-5129
▁perhaps	-5130
osis	-5131
▁irre	-5132
▁division	-5133
▁Inc	-5134
▁throughout	-5135
iles	-5136
▁Pay	-5137
▁Aud	-5138
▁Non	-5139
▁Out	-5140
▁machinery	-5141
▁advice	-5142
▁secure	-5143
▁cul	-5144
▁alter	-5145
▁exped	-5146
▁indeed	-5147
▁ancient	-5148
▁repl	-5149
▁average	-5150
▁appointments	-5151
SL	-5152
▁easy	-5153
▁Chenn	-5154
▁gun	-5155
▁Aff	-5156
▁intim	-5157
▁doctrine	-5158
▁Notification	-5159
▁democracy	-5160
▁drink	-5161
aintiff	-5162
ken	-5163
▁mainly	-5164
▁Him	-5165
▁copies	-5166
▁City	-5167
▁dark	-5168
▁coal	-5169
▁sentenced	-5170
▁disclosure	-5171
▁Certificate	-5172
▁Superintendent	-5173
▁ball	-5174
▁absor	-5175
▁equally	-5176
ena	-5177
▁voice	-5178
▁classes	-5179
ror	-5180
▁Election	-5181
▁pressure	-5182
bel	-5183
hand	-5184
▁manufacture	-5185
orage	-5186
▁Excise	-5187
▁positive	-5188
▁construed	-5189
▁range	-5190
inet	-5191
orthy	-5192
▁policies	-5193
▁PC	-5194
▁rein	-5195
▁YEARS	-5196
kn	-5197
▁dy	-5198
▁Consequently	-5199
mbol	-5200
▁Val	-5201
▁anti	-5202
▁neck	-5203
▁Defendant	-5204
▁Members	-5205
ahar	-5206
▁subjected	-5207
▁Che	-5208
▁relative	-5209
▁generation	-5210
ATE	-5211
ulating	-5212
▁teleph	-5213
▁electricity	-5214
ont	-5215
▁Directors	-5216
rises	-5217
▁famous	-5218
▁AB	-5219
▁Arbitration	-5220
▁regulations	-5221
irty	-5222
▁Hyderabad	-5223
▁association	-5224
OC	-5225
▁England	-5226
▁farmers	-5227
▁herself	-5228
▁teaching	-5229
▁shape	-5230
▁internal	-5231
▁CBI	-5232
isted	-5233
▁exact	-5234
▁model	-5235
ider	-5236
▁Ashok	-5237
▁confession	-5238
▁sea	-5239
▁walk	-5240
▁stopp	-5241
umn	-5242
uity	-5243
▁Subh	-5244
▁Swami	-5245
▁WP	-5246
▁surv	-5247
▁stipulated	-5248
onn	-5249
▁Dec	-5250
▁Ret	-5251
▁languages	-5252
▁categories	-5253
athy	-5254
▁Bai	-5255
alore	-5256
▁falls	-5257
ertained	-5258
▁Judgment	-5259
▁sav	-5260
▁external	-5261
OS	-5262
sible	-5263
▁Mohan	-5264
▁IS	-5265
▁Const	-5266
▁disclose	-5267
cla	-5268
▁minus	-5269
iver	-5270
▁vision	-5271
▁quantity	-5272
anes	-5273
▁learn	-5274
▁Member	-5275
▁achieved	-5276
▁Open	-5277
▁acting	-5278
struction	-5279
▁forwarded	-5280
▁sn	-5281
▁resort	-5282
▁schemes	-5283
▁explain	-5284
umari	-5285
▁Thak	-5286
lax	-5287
▁media	-5288
▁deserves	-5289
▁inspection	-5290
lord	-5291
▁style	-5292
▁contemplated	-5293
▁Apart	-5294
▁machine	-5295
▁supplied	-5296
know	-5297
▁suffering	-5298
vt	-5299
▁belief	-5300
▁hit	-5301
▁Private	-5302
hru	-5303
▁transp	-5304
▁fold	-5305
▁omission	-5306
anged	-5307
▁III	-5308
▁causes	-5309
cl	-5310
▁grat	-5311
ourses	-5312
▁immediate	-5313
▁ON	-5314
▁destro	-5315
▁Rajasthan	-5316
▁Dar	-5317
▁gover	-5318
▁depend	-5319
▁Assessee	-5320
▁impression	-5321
▁green	-5322
▁someone	-5323
▁Financial	-5324
▁photograph	-5325
▁Aj	-5326
▁facility	-5327
▁conspiracy	-5328
▁professional	-5329
ray	-5330
▁pec	-5331
ishra	-5332
ronic	-5333
▁north	-5334
▁relates	-5335
▁categorically	-5336
asmuch	-5337
▁invalid	-5338
▁promote	-5339
asi	-5340
order	-5341
inarily	-5342
▁simply	-5343
ests	-5344
▁revised	-5345
▁software	-5346
▁instituted	-5347
▁War	-5348
▁pet	-5349
ilateral	-5350
▁intellect	-5351
▁Aut	-5352
▁Tri	-5353
▁command	-5354
light	-5355
urrency	-5356
▁organisation	-5357
era	-5358
▁governed	-5359
known	-5360
▁Trib	-5361
▁strateg	-5362
▁Cha	-5363
▁lies	-5364
▁scrutiny	-5365
▁reiterated	-5366
▁agriculture	-5367
icro	-5368
▁stra	-5369
▁kill	-5370
▁UN	-5371
▁cat	-5372
▁workman	-5373
RA	-5374
▁particulars	-5375
▁soil	-5376
▁easily	-5377
▁eld	-5378
▁abuse	-5379
▁posted	-5380
▁repeated	-5381
▁admittedly	-5382
▁quick	-5383
▁capable	-5384
▁files	-5385
▁image	-5386
▁south	-5387
▁centre	-5388
▁recall	-5389
IST	-5390
aph	-5391
▁Na	-5392
▁dram	-5393
▁impart	-5394
▁grievance	-5395
bal	-5396
▁ge	-5397
▁Sum	-5398
inger	-5399
▁organization	-5400
▁Sr	-5401
aste	-5402
ibly	-5403
▁averments	-5404
▁ones	-5405
▁heavy	-5406
▁rupees	-5407
▁theory	-5408
▁documentary	-5409
ocates	-5410
▁Party	-5411
sheet	-5412
▁compos	-5413
▁suspension	-5414
▁incorporated	-5415
fer	-5416
uli	-5417
▁Chennai	-5418
astic	-5419
▁examining	-5420
▁privile	-5421
tees	-5422
▁Forest	-5423
▁leaving	-5424
achal	-5425
▁Allah	-5426
▁Entry	-5427
▁involving	-5428
▁independence	-5429
▁spite	-5430
▁conducting	-5431
▁Tah	-5432
▁branch	-5433
▁controvers	-5434
sych	-5435
enture	-5436
▁Ge	-5437
▁rejection	-5438
▁Nehru	-5439
▁Besides	-5440
▁beat	-5441
▁Social	-5442
▁expiry	-5443
▁purchas	-5444
appellant	-5445
▁Administrative	-5446
ctor	-5447
aviour	-5448
▁defe	-5449
▁compr	-5450
ettlement	-5451
▁circular	-5452
amet	-5453
▁tour	-5454
aks	-5455
atel	-5456
▁code	-5457
▁Dur	-5458
▁Tel	-5459
▁cadre	-5460
▁houses	-5461
yam	-5462
▁prec	-5463
▁session	-5464
▁species	-5465
▁Western	-5466
▁growing	-5467
rack	-5468
▁reb	-5469
▁compon	-5470
▁features	-5471
yan	-5472
ching	-5473
▁People	-5474
▁surround	-5475
▁Registration	-5476
▁male	-5477
▁legit	-5478
ommod	-5479
▁Madras	-5480
▁accompan	-5481
▁safety	-5482
▁Nav	-5483
▁Well	-5484
▁bringing	-5485
▁certified	-5486
opy	-5487
▁sugar	-5488
▁everything	-5489
▁consciousness	-5490
▁Rem	-5491
▁Madh	-5492
▁fees	-5493
▁agent	-5494
▁beaut	-5495
▁Bus	-5496
eshwar	-5497
▁revolution	-5498
▁Governments	-5499
▁arrangement	-5500
▁cere	-5501
▁Two	-5502
▁hear	-5503
▁inasmuch	-5504
far	-5505
pet	-5506
▁leaves	-5507
▁determining	-5508
▁cart	-5509
▁surre	-5510
▁Africa	-5511
▁claimants	-5512
▁exists	-5513
▁listed	-5514
▁Fr	-5515
▁recognised	-5516
▁mid	-5517
▁ship	-5518
above	-5519
▁chain	-5520
▁cruelty	-5521
▁remember	-5522
▁frequ	-5523
dish	-5524
▁elements	-5525
▁processing	-5526
▁gain	-5527
▁judges	-5528
▁Teacher	-5529
hana	-5530
▁Fam	-5531
▁Verm	-5532
▁desire	-5533
▁student	-5534
▁lac	-5535
istics	-5536
▁owners	-5537
▁corporate	-5538
▁compassionate	-5539
▁compre	-5540
▁military	-5541
▁Bec	-5542
▁rare	-5543
uff	-5544
▁Ban	-5545
▁Sir	-5546
▁resulted	-5547
▁Port	-5548
▁levels	-5549
▁raising	-5550
▁contractor	-5551
▁signatures	-5552
▁mouth	-5553
▁invited	-5554
▁Vijay	-5555
▁acknow	-5556
▁largest	-5557
▁mechanism	-5558
ole	-5559
▁Ed	-5560
▁pick	-5561
▁symbol	-5562
▁forum	-5563
ography	-5564
▁entries	-5565
▁retired	-5566
▁unn	-5567
▁Asia	-5568
▁exception	-5569
arc	-5570
▁profits	-5571
▁wealth	-5572
▁normally	-5573
▁ban	-5574
▁refund	-5575
▁Prakash	-5576
▁empowered	-5577
rav	-5578
essel	-5579
▁vers	-5580
▁rain	-5581
▁seat	-5582
lag	-5583
anges	-5584
▁afford	-5585
aker	-5586
prise	-5587
▁enforcement	-5588
TC	-5589
aja	-5590
▁Er	-5591
▁viti	-5592
erences	-5593
▁chance	-5594
▁residing	-5595
▁developing	-5596
▁Fl	-5597
hens	-5598
▁initially	-5599
writ	-5600
▁Tem	-5601
III	-5602
▁Guru	-5603
▁contend	-5604
▁Prosecutor	-5605
soever	-5606
LA	-5607
olve	-5608
▁Mot	-5609
▁estim	-5610
▁allowing	-5611
▁nuc	-5612
▁Most	-5613
▁fault	-5614
▁waste	-5615
▁contrib	-5616
▁bul	-5617
▁relax	-5618
▁divided	-5619
▁elections	-5620
▁kid	-5621
▁Mahe	-5622
▁personnel	-5623
▁inquest	-5624
▁temper	-5625
ervation	-5626
▁agencies	-5627
▁traditional	-5628
▁amb	-5629
▁exclusive	-5630
▁Abd	-5631
▁beautiful	-5632
aling	-5633
▁assert	-5634
▁incons	-5635
▁representatives	-5636
▁entirely	-5637
▁participation	-5638
▁skin	-5639
▁ben	-5640
▁fest	-5641
▁prepar	-5642
▁notices	-5643
▁operate	-5644
▁residence	-5645
uddin	-5646
▁Patel	-5647
▁table	-5648
▁Bad	-5649
▁representative	-5650
iform	-5651
▁workmen	-5652
urt	-5653
▁audit	-5654
▁Pandey	-5655
asc	-5656
actory	-5657
▁Plaintiff	-5658
sue	-5659
awan	-5660
▁fide	-5661
▁effic	-5662
▁inflic	-5663
▁lakhs	-5664
▁misconduct	-5665
▁accompanied	-5666
gers	-5667
▁armed	-5668
▁storage	-5669
▁voluntary	-5670
▁Gl	-5671
▁gas	-5672
▁struggle	-5673
▁animal	-5674
▁Indians	-5675
▁sustainable	-5676
▁actions	-5677
▁landlord	-5678
▁resulting	-5679
▁compromise	-5680
▁consistent	-5681
▁Bah	-5682
king	-5683
▁gross	-5684
▁Mishra	-5685
▁Bangalore	-5686
▁annex	-5687
entially	-5688
▁discharged	-5689
▁moral	-5690
▁Rajesh	-5691
▁strengthen	-5692
▁cancellation	-5693
▁spent	-5694
▁Vis	-5695
▁cells	-5696
▁plain	-5697
▁illegality	-5698
▁mutual	-5699
▁Reference	-5700
▁substantive	-5701
nu	-5702
▁tort	-5703
▁currency	-5704
▁root	-5705
ducing	-5706
▁cancelled	-5707
▁Para	-5708
▁enhance	-5709
▁Sections	-5710
oming	-5711
▁afore	-5712
▁repeal	-5713
▁evening	-5714
▁worship	-5715
▁constructed	-5716
▁China	-5717
acharya	-5718
▁Hindus	-5719
▁modified	-5720
▁ingred	-5721
▁Environment	-5722
▁appreciation	-5723
▁Rama	-5724
▁integral	-5725
▁represented	-5726
omy	-5727
▁calling	-5728
▁famil	-5729
▁Ay	-5730
struct	-5731
▁Family	-5732
▁cooperation	-5733
▁authorised	-5734
▁fields	-5735
▁accommod	-5736
▁appearance	-5737
▁Because	-5738
▁Through	-5739
▁reliable	-5740
▁incurred	-5741
▁sons	-5742
▁Islamic	-5743
▁purport	-5744
▁alongwith	-5745
RE	-5746
▁surface	-5747
▁applying	-5748
rupt	-5749
igil	-5750
▁identify	-5751
▁subjects	-5752
▁committing	-5753
▁sort	-5754
▁confined	-5755
▁confident	-5756
arp	-5757
▁wear	-5758
erce	-5759
▁sam	-5760
▁Like	-5761
▁seeks	-5762
▁enactment	-5763
OL	-5764
▁vend	-5765
▁owned	-5766
▁Crl	-5767
▁Palest	-5768
omet	-5769
ushed	-5770
▁irres	-5771
▁guard	-5772
ming	-5773
▁manifest	-5774
▁hereinabove	-5775
▁Again	-5776
▁Madhya	-5777
▁leader	-5778
arh	-5779
▁clauses	-5780
▁creating	-5781
▁Selection	-5782
▁magn	-5783
DS	-5784
▁disapp	-5785
▁disqual	-5786
▁requisite	-5787
▁CW	-5788
▁cm	-5789
encing	-5790
▁knife	-5791
▁applies	-5792
▁residential	-5793
▁vessel	-5794
▁thinking	-5795
▁withdrawn	-5796
▁foundation	-5797
DER	-5798
▁pra	-5799
▁stone	-5800
▁destroy	-5801
▁inconsist	-5802
▁speaking	-5803
▁unreason	-5804
▁methods	-5805
ura	-5806
yal	-5807
▁hour	-5808
rose	-5809
▁egg	-5810
▁Commun	-5811
▁intellig	-5812
pping	-5813
▁negoti	-5814
▁adduced	-5815
▁families	-5816
▁master	-5817
▁demanded	-5818
▁equality	-5819
▁fourth	-5820
▁sources	-5821
▁variety	-5822
▁admissible	-5823
▁recognition	-5824
EP	-5825
▁youth	-5826
ript	-5827
▁sealed	-5828
▁sand	-5829
▁Others	-5830
▁practices	-5831
alg	-5832
ero	-5833
▁errone	-5834
▁season	-5835
▁barred	-5836
▁mistake	-5837
▁ignored	-5838
▁upheld	-5839
▁Legislative	-5840
▁critic	-5841
▁objects	-5842
▁subordinate	-5843
urate	-5844
▁depends	-5845
▁satisfy	-5846
▁compared	-5847
aman	-5848
▁Crime	-5849
▁earn	-5850
▁studies	-5851
▁figure	-5852
▁Imp	-5853
unior	-5854
▁Champ	-5855
▁Gazet	-5856
▁withdraw	-5857
iva	-5858
ioned	-5859
▁Econom	-5860
▁feeling	-5861
▁obligations	-5862
▁Dem	-5863
overty	-5864
▁medium	-5865
▁framing	-5866
sofar	-5867
▁separately	-5868
▁rival	-5869
▁input	-5870
▁equity	-5871
rees	-5872
lined	-5873
▁Gram	-5874
rical	-5875
▁location	-5876
▁eligibility	-5877
▁payments	-5878
isp	-5879
▁nut	-5880
ships	-5881
▁weapons	-5882
▁Sad	-5883
▁capt	-5884
ola	-5885
osen	-5886
▁Germ	-5887
▁AC	-5888
▁km	-5889
▁Prem	-5890
▁unique	-5891
eav	-5892
pons	-5893
▁exemption	-5894
▁AM	-5895
▁dim	-5896
▁fails	-5897
▁Transport	-5898
▁Branch	-5899
▁confer	-5900
▁Tag	-5901
▁Water	-5902
UL	-5903
▁cloth	-5904
ils	-5905
roc	-5906
▁pip	-5907
▁retros	-5908
▁Cust	-5909
▁watch	-5910
pected	-5911
▁focus	-5912
CI	-5913
▁paras	-5914
▁Standing	-5915
▁superior	-5916
▁roll	-5917
▁levy	-5918
▁lock	-5919
▁supplement	-5920
▁seem	-5921
ev	-5922
▁endeav	-5923
▁iv	-5924
eting	-5925
▁slow	-5926
elfare	-5927
▁Human	-5928
▁allegedly	-5929
▁immovable	-5930
▁wood	-5931
▁relatives	-5932
laws	-5933
▁Pvt	-5934
▁opt	-5935
going	-5936
▁Narayan	-5937
▁overall	-5938
▁Gandhiji	-5939
▁terrorism	-5940
atta	-5941
▁arose	-5942
▁deeds	-5943
▁divine	-5944
▁Date	-5945
▁stick	-5946
▁Welfare	-5947
▁carefully	-5948
▁interview	-5949
▁thirty	-5950
▁ends	-5951
▁Ven	-5952
▁bone	-5953
▁pursuance	-5954
▁whatsoever	-5955
vert	-5956
▁furnish	-5957
▁Conference	-5958
▁classification	-5959
aped	-5960
rench	-5961
▁partner	-5962
▁temples	-5963
▁Administration	-5964
▁id	-5965
▁nearly	-5966
▁Rural	-5967
▁operating	-5968
▁MS	-5969
▁Park	-5970
▁litig	-5971
▁cheques	-5972
▁railway	-5973
▁Ve	-5974
ails	-5975
▁lived	-5976
▁Security	-5977
▁struct	-5978
▁Industries	-5979
▁dt	-5980
▁qualified	-5981
▁authorized	-5982
▁Bel	-5983
▁bott	-5984
▁iron	-5985
▁Nor	-5986
▁Excell	-5987
▁Settlement	-5988
▁availability	-5989
१५	-5990
dar	-5991
hon	-5992
hent	-5993
▁Foreign	-5994
▁propri	-5995
▁stayed	-5996
▁bab	-5997
▁organiz	-5998
▁Div	-5999
▁grad	-6000
▁excell	-6001
▁happen	-6002
▁paying	-6003
ls	-6004
ube	-6005
▁ideal	-6006
▁sales	-6007
▁affili	-6008
▁complaints	-6009
▁Rav	-6010
▁Year	-6011
▁wishes	-6012
▁extracted	-6013
▁inference	-6014
▁controversy	-6015
EM	-6016
▁Vol	-6017
▁Suit	-6018
ih	-6019
ames	-6020
itis	-6021
▁calls	-6022
▁strictly	-6023
▁Trade	-6024
▁prices	-6025
ocal	-6026
▁opposed	-6027
lands	-6028
▁flat	-6029
▁target	-6030
▁Univers	-6031
▁vehicles	-6032
▁ownership	-6033
▁impossible	-6034
▁reality	-6035
icating	-6036
▁agreements	-6037
▁PD	-6038
▁nine	-6039
▁stories	-6040
mn	-6041
▁mortgage	-6042
▁Ja	-6043
▁appreciate	-6044
▁philosophy	-6045
umer	-6046
▁gar	-6047
▁honour	-6048
▁vacant	-6049
▁deliver	-6050
▁Protection	-6051
▁consumption	-6052
FA	-6053
ader	-6054
▁genuine	-6055
hend	-6056
▁shock	-6057
▁upper	-6058
▁stopped	-6059
▁regarded	-6060
▁Abdul	-6061
▁drive	-6062
▁Inst	-6063
▁universal	-6064
▁Full	-6065
▁Allahabad	-6066
▁Resolution	-6067
▁implemented	-6068
doc	-6069
amma	-6070
▁antic	-6071
▁bow	-6072
▁continuous	-6073
▁trees	-6074
▁Petitioners	-6075
▁PRO	-6076
▁aged	-6077
AME	-6078
▁Ragh	-6079
▁anyone	-6080
▁emotion	-6081
redit	-6082
▁enqu	-6083
▁holds	-6084
▁allowance	-6085
▁Us	-6086
▁reveals	-6087
laced	-6088
▁attracted	-6089
▁ordinarily	-6090
▁yield	-6091
ibilities	-6092
▁acid	-6093
▁chosen	-6094
GAL	-6095
load	-6096
▁abroad	-6097
▁Constable	-6098
hel	-6099
▁pleasure	-6100
ica	-6101
look	-6102
▁sacrif	-6103
▁friendly	-6104
itect	-6105
oph	-6106
▁Sol	-6107
▁psych	-6108
▁disability	-6109
▁ang	-6110
▁Food	-6111
▁Claim	-6112
▁compuls	-6113
▁probably	-6114
▁necessity	-6115
ighted	-6116
▁Tod	-6117
aband	-6118
▁Babu	-6119
▁opined	-6120
▁Maj	-6121
▁height	-6122
alli	-6123
▁explo	-6124
▁compound	-6125
▁Nep	-6126
▁vast	-6127
like	-6128
▁Enter	-6129
▁Regional	-6130
egu	-6131
ports	-6132
▁mandate	-6133
▁planning	-6134
▁revealed	-6135
▁brain	-6136
▁unity	-6137
▁advised	-6138
▁arre	-6139
aryana	-6140
▁Pension	-6141
▁falling	-6142
▁Verma	-6143
▁narrated	-6144
▁Pet	-6145
▁park	-6146
▁Langu	-6147
▁emerg	-6148
▁grave	-6149
▁veget	-6150
▁Why	-6151
habil	-6152
prene	-6153
anging	-6154
oral	-6155
ecess	-6156
sc	-6157
anand	-6158
▁dues	-6159
▁imple	-6160
▁Exh	-6161
▁qualifications	-6162
abinet	-6163
▁track	-6164
▁anticip	-6165
▁SP	-6166
▁poems	-6167
▁happens	-6168
▁interven	-6169
▁Programme	-6170
▁considerable	-6171
▁IV	-6172
eries	-6173
▁elabor	-6174
mosp	-6175
word	-6176
arden	-6177
chief	-6178
nagar	-6179
▁indul	-6180
reprene	-6181
▁caught	-6182
▁colleges	-6183
▁efficient	-6184
▁equipment	-6185
▁seal	-6186
▁moving	-6187
▁quarrel	-6188
▁proportion	-6189
▁dil	-6190
velled	-6191
▁ORDER	-6192
hensive	-6193
▁consists	-6194
iled	-6195
▁Art	-6196
ishment	-6197
▁Haryana	-6198
ME	-6199
▁buy	-6200
▁installed	-6201
▁SE	-6202
▁poverty	-6203
orrect	-6204
▁liquor	-6205
▁thereon	-6206
▁postmortem	-6207
iate	-6208
▁cas	-6209
isting	-6210
▁selling	-6211
▁brothers	-6212
▁crop	-6213
IF	-6214
▁latest	-6215
▁courses	-6216
▁rational	-6217
▁Ham	-6218
▁urban	-6219
▁involvement	-6220
▁participate	-6221
▁DR	-6222
acco	-6223
prises	-6224
▁prosper	-6225
anta	-6226
▁legally	-6227
▁European	-6228
▁Va	-6229
▁driving	-6230
▁qua	-6231
▁demands	-6232
▁pi	-6233
▁upd	-6234
▁prefer	-6235
▁script	-6236
▁Bhar	-6237
▁narrow	-6238
▁Hig	-6239
udget	-6240
▁Mahat	-6241
▁relying	-6242
▁corporation	-6243
▁outstanding	-6244
▁fill	-6245
▁falsely	-6246
▁picture	-6247
inqu	-6248
▁Det	-6249
▁hardly	-6250
▁victims	-6251
arian	-6252
▁DNA	-6253
▁Prom	-6254
charge	-6255
▁Sunil	-6256
▁Those	-6257
▁recon	-6258
▁Thakur	-6259
▁equival	-6260
▁territory	-6261
ildar	-6262
▁valuable	-6263
▁Secondary	-6264
▁Town	-6265
▁column	-6266
▁consumer	-6267
▁consultation	-6268
author	-6269
▁cities	-6270
▁entrusted	-6271
▁nomination	-6272
▁Gan	-6273
▁Each	-6274
▁partners	-6275
▁clarified	-6276
▁pronounce	-6277
key	-6278
▁fert	-6279
▁launched	-6280
gery	-6281
▁preparation	-6282
▁cum	-6283
▁reduce	-6284
▁severe	-6285
▁uniform	-6286
▁valuation	-6287
▁Jay	-6288
▁Lib	-6289
hara	-6290
bh	-6291
▁Lax	-6292
▁Lit	-6293
▁suits	-6294
▁liberal	-6295
otic	-6296
▁cru	-6297
oratory	-6298
▁Tagore	-6299
▁atmosp	-6300
▁reflected	-6301
amy	-6302
▁wel	-6303
ricted	-6304
▁Mandal	-6305
▁origin	-6306
▁tenure	-6307
▁infring	-6308
ayana	-6309
etary	-6310
▁choose	-6311
▁continues	-6312
▁amendments	-6313
▁reproduced	-6314
▁dry	-6315
▁dign	-6316
▁wants	-6317
▁ability	-6318
▁Gur	-6319
▁heirs	-6320
▁online	-6321
▁unknown	-6322
▁vacancy	-6323
OUT	-6324
oom	-6325
▁Dal	-6326
isher	-6327
▁cook	-6328
▁Akbar	-6329
▁remote	-6330
▁safegu	-6331
▁democratic	-6332
▁Recovery	-6333
▁Ter	-6334
▁union	-6335
▁contractual	-6336
antial	-6337
▁adjust	-6338
▁commod	-6339
▁dict	-6340
▁nations	-6341
▁promoted	-6342
▁judgement	-6343
▁cog	-6344
▁rapid	-6345
▁asking	-6346
▁behaviour	-6347
▁grass	-6348
▁critical	-6349
▁negligence	-6350
UM	-6351
bted	-6352
▁Aust	-6353
arkhand	-6354
▁perfect	-6355
ulatory	-6356
auty	-6357
ricket	-6358
▁constitu	-6359
pal	-6360
ilal	-6361
▁Vin	-6362
▁cold	-6363
▁powerful	-6364
▁Survey	-6365
DC	-6366
▁Anr	-6367
▁Nand	-6368
▁impose	-6369
▁attitude	-6370
▁banking	-6371
▁acceptable	-6372
▁ambit	-6373
▁invoked	-6374
▁suspicion	-6375
ishad	-6376
▁crops	-6377
▁changing	-6378
▁deliber	-6379
▁obvious	-6380
▁villagers	-6381
▁Press	-6382
▁dates	-6383
▁terminated	-6384
▁lif	-6385
▁finger	-6386
▁showed	-6387
▁pret	-6388
▁denial	-6389
▁quashing	-6390
my	-6391
▁Exp	-6392
▁Hem	-6393
▁mah	-6394
▁wat	-6395
▁Supra	-6396
▁Fri	-6397
just	-6398
ented	-6399
lusively	-6400
▁Kolk	-6401
inance	-6402
▁purchaser	-6403
▁Hari	-6404
▁multiple	-6405
▁hor	-6406
▁seeing	-6407
▁corresponding	-6408
upon	-6409
▁regional	-6410
▁incorrect	-6411
▁Ba	-6412
▁bra	-6413
aduate	-6414
▁Rights	-6415
ips	-6416
erous	-6417
ourage	-6418
hs	-6419
▁tonn	-6420
▁bills	-6421
▁estate	-6422
▁Mat	-6423
luding	-6424
▁extremely	-6425
▁essentially	-6426
ropri	-6427
▁Oper	-6428
▁lady	-6429
▁Being	-6430
▁Managing	-6431
▁Engineering	-6432
mark	-6433
▁pil	-6434
▁Sush	-6435
▁blow	-6436
▁gains	-6437
▁passage	-6438
▁uses	-6439
▁norms	-6440
▁ingredients	-6441
▁Russ	-6442
▁greet	-6443
▁difficulty	-6444
fe	-6445
▁RO	-6446
▁Jap	-6447
hanced	-6448
▁divor	-6449
▁encro	-6450
cast	-6451
▁Enquiry	-6452
▁ascertain	-6453
ima	-6454
▁Reddy	-6455
▁harassment	-6456
oken	-6457
▁Mang	-6458
▁Ganga	-6459
▁Today	-6460
▁Jy	-6461
▁army	-6462
▁excluded	-6463
iqu	-6464
▁train	-6465
▁intent	-6466
▁thereunder	-6467
▁rect	-6468
▁graph	-6469
▁execute	-6470
▁respond	-6471
▁formation	-6472
unct	-6473
▁trou	-6474
urities	-6475
ogle	-6476
▁eat	-6477
▁intellectual	-6478
▁kil	-6479
ieving	-6480
▁Doctor	-6481
▁Higher	-6482
icing	-6483
▁assessed	-6484
▁partly	-6485
▁verification	-6486
pat	-6487
▁panel	-6488
▁monthly	-6489
▁hom	-6490
▁bidd	-6491
▁experi	-6492
▁missing	-6493
▁straight	-6494
▁Din	-6495
▁map	-6496
oration	-6497
▁convin	-6498
▁memorandum	-6499
▁notwithstanding	-6500
▁telephone	-6501
SH	-6502
▁comment	-6503
▁putting	-6504
▁Jharkhand	-6505
ologies	-6506
▁founded	-6507
hat	-6508
icity	-6509
▁journey	-6510
mentioned	-6511
▁literary	-6512
▁percentage	-6513
▁discussions	-6514
da	-6515
rat	-6516
ificates	-6517
▁contracts	-6518
▁Av	-6519
▁habit	-6520
▁considerations	-6521
▁Legal	-6522
▁adopt	-6523
▁attrib	-6524
▁careful	-6525
▁convers	-6526
▁territorial	-6527
GC	-6528
unch	-6529
▁Nan	-6530
▁Iran	-6531
▁goal	-6532
▁Anand	-6533
▁cerem	-6534
▁Ty	-6535
anya	-6536
ondon	-6537
▁reliefs	-6538
▁complied	-6539
rigation	-6540
▁Exchange	-6541
▁measuring	-6542
▁fab	-6543
▁songs	-6544
▁Master	-6545
▁besides	-6546
▁Pad	-6547
state	-6548
▁Stud	-6549
▁lapse	-6550
▁indirect	-6551
▁recently	-6552
▁challenges	-6553
▁uncle	-6554
▁legitimate	-6555
▁significance	-6556
ae	-6557
▁CON	-6558
▁Var	-6559
▁moon	-6560
itions	-6561
▁Notice	-6562
▁illust	-6563
▁authent	-6564
▁Planning	-6565
▁newspaper	-6566
▁rock	-6567
▁rigor	-6568
▁channel	-6569
▁situations	-6570
alog	-6571
▁sequ	-6572
▁minority	-6573
▁Admitted	-6574
▁designed	-6575
▁decades	-6576
▁sectors	-6577
aign	-6578
▁gift	-6579
▁Business	-6580
▁enhanced	-6581
LE	-6582
▁MO	-6583
▁persu	-6584
▁Consid	-6585
▁neighbour	-6586
▁interesting	-6587
▁Who	-6588
▁flu	-6589
▁traffic	-6590
▁emphasis	-6591
▁buildings	-6592
TE	-6593
▁ec	-6594
▁game	-6595
▁girls	-6596
▁Schools	-6597
▁diseases	-6598
▁ran	-6599
essed	-6600
▁alive	-6601
▁Kolkata	-6602
SS	-6603
▁BY	-6604
▁murd	-6605
▁drawing	-6606
▁CD	-6607
ement	-6608
▁governance	-6609
▁fruit	-6610
▁pleased	-6611
▁Professor	-6612
iah	-6613
▁dial	-6614
▁hero	-6615
iveness	-6616
▁format	-6617
het	-6618
▁bare	-6619
▁summons	-6620
▁accepting	-6621
AND	-6622
▁anc	-6623
▁thr	-6624
▁Sure	-6625
essment	-6626
▁innocent	-6627
▁Women	-6628
▁adult	-6629
▁volume	-6630
▁feature	-6631
ector	-6632
ruits	-6633
wah	-6634
▁enem	-6635
▁urg	-6636
▁Bengali	-6637
▁approx	-6638
▁Conf	-6639
▁drugs	-6640
▁Indep	-6641
▁pregn	-6642
▁prime	-6643
▁figures	-6644
▁Interest	-6645
▁infl	-6646
▁comply	-6647
anas	-6648
lick	-6649
▁raw	-6650
ester	-6651
iplom	-6652
▁throw	-6653
RL	-6654
eev	-6655
▁rob	-6656
▁dishon	-6657
ifies	-6658
▁simpl	-6659
▁belongs	-6660
▁primarily	-6661
▁Final	-6662
▁domain	-6663
▁consequential	-6664
itch	-6665
▁lik	-6666
▁Rajya	-6667
itated	-6668
ARD	-6669
▁AO	-6670
▁Fed	-6671
ancellor	-6672
itan	-6673
inite	-6674
▁kinds	-6675
▁insects	-6676
▁IC	-6677
owed	-6678
▁Men	-6679
algam	-6680
▁Affairs	-6681
▁proceeds	-6682
mer	-6683
▁BC	-6684
▁Raja	-6685
▁cave	-6686
▁Brahm	-6687
▁beauty	-6688
▁inserted	-6689
▁Unit	-6690
holding	-6691
ordinary	-6692
▁assembly	-6693
▁envisaged	-6694
esty	-6695
▁Build	-6696
▁deduct	-6697
▁mission	-6698
TA	-6699
▁eth	-6700
▁Show	-6701
▁null	-6702
▁escape	-6703
▁commenced	-6704
▁pertinent	-6705
iri	-6706
alpur	-6707
▁London	-6708
▁Mahatma	-6709
▁restricted	-6710
▁About	-6711
▁CrPC	-6712
▁factory	-6713
▁Kab	-6714
▁runs	-6715
▁shared	-6716
▁centres	-6717
▁entering	-6718
orts	-6719
▁pages	-6720
▁Admittedly	-6721
akar	-6722
▁Set	-6723
▁monitor	-6724
▁objectives	-6725
▁sight	-6726
igilance	-6727
▁Mission	-6728
▁Reserve	-6729
▁photographs	-6730
▁automatically	-6731
aug	-6732
hari	-6733
▁See	-6734
anches	-6735
▁procedural	-6736
▁improvement	-6737
ghan	-6738
khand	-6739
▁knowing	-6740
▁expressly	-6741
▁Lect	-6742
▁continuing	-6743
▁Mur	-6744
▁Time	-6745
▁minds	-6746
▁entity	-6747
▁Gazette	-6748
▁adoption	-6749
▁Az	-6750
▁pill	-6751
▁bench	-6752
▁erroneous	-6753
▁Excellency	-6754
oe	-6755
▁MP	-6756
▁conform	-6757
▁unreasonable	-6758
cher	-6759
▁Math	-6760
▁Buddh	-6761
▁store	-6762
▁offices	-6763
habilitation	-6764
IP	-6765
rity	-6766
▁culp	-6767
▁unfair	-6768
▁Grade	-6769
▁quota	-6770
athered	-6771
▁Vishnu	-6772
▁customers	-6773
▁loans	-6774
▁processes	-6775
▁consequently	-6776
▁Rat	-6777
▁mun	-6778
▁ment	-6779
▁Himal	-6780
▁Later	-6781
▁diary	-6782
▁sharp	-6783
▁equivalent	-6784
mar	-6785
eces	-6786
▁Jew	-6787
▁Over	-6788
▁Palestin	-6789
▁irrespective	-6790
bon	-6791
lar	-6792
▁inner	-6793
▁Google	-6794
▁fairly	-6795
▁serving	-6796
▁roof	-6797
liance	-6798
▁ignor	-6799
▁regulation	-6800
anti	-6801
▁Sen	-6802
▁alien	-6803
▁whenever	-6804
▁Ti	-6805
▁XX	-6806
uries	-6807
▁Mere	-6808
▁affirm	-6809
▁Authorities	-6810
▁Hist	-6811
▁exha	-6812
▁ABOUT	-6813
▁defic	-6814
▁endorse	-6815
▁perverse	-6816
▁parliament	-6817
▁discrimination	-6818
ster	-6819
▁Bose	-6820
▁priority	-6821
cipl	-6822
▁Kumari	-6823
▁cogent	-6824
▁meetings	-6825
▁obviously	-6826
▁effects	-6827
▁nuclear	-6828
▁chest	-6829
isations	-6830
▁concent	-6831
board	-6832
cribes	-6833
▁facilitate	-6834
▁withdrawal	-6835
▁Sin	-6836
▁Error	-6837
▁Force	-6838
▁color	-6839
xy	-6840
▁grade	-6841
▁subsid	-6842
▁Training	-6843
▁tob	-6844
▁Tahs	-6845
▁sick	-6846
ulates	-6847
▁modification	-6848
▁MD	-6849
▁Dhar	-6850
▁borne	-6851
▁Agriculture	-6852
▁Bin	-6853
▁web	-6854
▁Acqu	-6855
▁arms	-6856
▁grown	-6857
▁joy	-6858
eeping	-6859
▁winding	-6860
▁starting	-6861
▁atmosphere	-6862
▁fabric	-6863
▁hair	-6864
▁visible	-6865
▁innovation	-6866
▁threatened	-6867
▁tal	-6868
▁resist	-6869
room	-6870
▁Late	-6871
▁fired	-6872
▁stages	-6873
▁customer	-6874
▁ourselves	-6875
▁commitment	-6876
▁occupation	-6877
▁environmental	-6878
adur	-6879
▁output	-6880
▁paramet	-6881
▁reputation	-6882
▁appreciated	-6883
asan	-6884
▁spl	-6885
▁Dhan	-6886
▁infirm	-6887
▁Jaw	-6888
▁Ranj	-6889
▁deten	-6890
▁circumstantial	-6891
grat	-6892
▁encl	-6893
▁plat	-6894
▁Which	-6895
▁prepare	-6896
▁entertained	-6897
AJ	-6898
ops	-6899
▁phase	-6900
▁consisting	-6901
▁leadership	-6902
▁bh	-6903
▁Sav	-6904
▁judiciary	-6905
▁Sanjay	-6906
▁tobacco	-6907
▁distinguished	-6908
▁Among	-6909
▁observe	-6910
▁hyp	-6911
▁Great	-6912
▁Technical	-6913
apped	-6914
▁gathered	-6915
▁medicine	-6916
udi	-6917
▁leads	-6918
olition	-6919
▁Proper	-6920
▁effected	-6921
▁institute	-6922
▁scheduled	-6923
▁questioned	-6924
▁Copy	-6925
▁Rajendra	-6926
▁corroborated	-6927
uj	-6928
▁alc	-6929
▁thor	-6930
▁struck	-6931
▁becoming	-6932
▁evaluation	-6933
erk	-6934
idal	-6935
▁helped	-6936
▁supporting	-6937
▁effectively	-6938
▁kidn	-6939
▁Directorate	-6940
▁universities	-6941
▁NS	-6942
▁wise	-6943
▁elder	-6944
▁assail	-6945
▁Ref	-6946
▁derived	-6947
▁president	-6948
▁tank	-6949
▁Distt	-6950
▁Gopal	-6951
▁amalgam	-6952
ortunately	-6953
oda	-6954
▁expos	-6955
▁arrive	-6956
▁departments	-6957
▁comprehensive	-6958
▁Ira	-6959
▁Book	-6960
▁Commit	-6961
▁concerning	-6962
▁establishing	-6963
▁FOR	-6964
▁Luck	-6965
▁server	-6966
▁identical	-6967
more	-6968
▁match	-6969
▁replied	-6970
▁SCR	-6971
▁scen	-6972
itations	-6973
oz	-6974
clause	-6975
▁depending	-6976
▁surrender	-6977
▁avo	-6978
▁ahead	-6979
Ms	-6980
▁similarly	-6981
idden	-6982
▁east	-6983
▁breed	-6984
▁ruled	-6985
▁steel	-6986
aneously	-6987
▁servants	-6988
▁converted	-6989
▁stream	-6990
▁unauthor	-6991
▁Himachal	-6992
iments	-6993
▁Revision	-6994
▁dependent	-6995
▁entreprene	-6996
▁Tir	-6997
▁Laws	-6998
riginal	-6999
▁Review	-7000
▁marketing	-7001
▁historical	-7002
uit	-7003
▁Sl	-7004
▁Speaker	-7005
▁Small	-7006
ictionary	-7007
▁Lo	-7008
ammad	-7009
▁Sind	-7010
levant	-7011
▁communities	-7012
ham	-7013
▁CC	-7014
▁BAN	-7015
▁Laksh	-7016
▁justification	-7017
otton	-7018
▁Agra	-7019
▁rice	-7020
▁plays	-7021
▁couple	-7022
▁discrep	-7023
mity	-7024
▁knows	-7025
▁successfully	-7026
eding	-7027
hension	-7028
ribunals	-7029
▁procedures	-7030
▁empt	-7031
▁wild	-7032
▁Count	-7033
▁River	-7034
▁healthy	-7035
▁practical	-7036
▁participated	-7037
nan	-7038
▁Arun	-7039
▁deposits	-7040
▁Rai	-7041
▁dro	-7042
▁leaf	-7043
▁playing	-7044
ba	-7045
▁fatal	-7046
▁Network	-7047
▁controlled	-7048
▁sq	-7049
▁acknowled	-7050
▁protected	-7051
▁engineering	-7052
RO	-7053
▁Beg	-7054
astern	-7055
▁Middle	-7056
▁involves	-7057
▁exceeding	-7058
odh	-7059
▁Prat	-7060
▁band	-7061
▁experts	-7062
▁inclined	-7063
▁Life	-7064
▁repay	-7065
▁quantum	-7066
▁Reliance	-7067
▁Prevention	-7068
odes	-7069
▁Jam	-7070
▁double	-7071
▁initiatives	-7072
ua	-7073
oes	-7074
▁Iraq	-7075
course	-7076
▁covering	-7077
▁discipline	-7078
▁Ir	-7079
nsic	-7080
▁acres	-7081
▁mining	-7082
▁Sard	-7083
▁strike	-7084
▁west	-7085
▁suggests	-7086
▁operative	-7087
▁university	-7088
gen	-7089
omin	-7090
▁career	-7091
▁Christian	-7092
▁requisition	-7093
udence	-7094
▁Territ	-7095
▁Test	-7096
▁arrears	-7097
▁Language	-7098
▁brib	-7099
▁campaign	-7100
▁wage	-7101
▁returns	-7102
▁Tele	-7103
▁poem	-7104
▁evalu	-7105
MA	-7106
elve	-7107
ulty	-7108
▁convenience	-7109
▁Use	-7110
▁accru	-7111
▁poison	-7112
▁architect	-7113
▁household	-7114
▁pollution	-7115
▁characters	-7116
▁Don	-7117
▁perpet	-7118
▁Considering	-7119
▁१६	-7120
pura	-7121
▁Capital	-7122
▁attained	-7123
▁Institutions	-7124
▁applicability	-7125
vent	-7126
▁Yoga	-7127
▁Credit	-7128
▁awareness	-7129
▁intervention	-7130
join	-7131
▁Sikh	-7132
▁crow	-7133
▁caution	-7134
▁regularly	-7135
▁substituted	-7136
▁Universities	-7137
▁Appeals	-7138
▁holders	-7139
▁Ministers	-7140
▁forthwith	-7141
▁Rah	-7142
▁Last	-7143
▁slight	-7144
ifteen	-7145
▁doubtful	-7146
▁districts	-7147
▁Cro	-7148
▁roads	-7149
▁smaller	-7150
▁encourage	-7151
▁maintaining	-7152
▁tea	-7153
▁assumed	-7154
▁differences	-7155
▁communicated	-7156
ORE	-7157
▁hes	-7158
▁blue	-7159
▁Ramesh	-7160
stitutes	-7161
▁permits	-7162
▁director	-7163
▁eviction	-7164
▁politics	-7165
▁Tar	-7166
▁Gang	-7167
▁ultimate	-7168
set	-7169
▁sad	-7170
▁earliest	-7171
▁Societies	-7172
▁inflicted	-7173
erior	-7174
▁heat	-7175
▁tick	-7176
▁birds	-7177
▁unlaw	-7178
▁Session	-7179
▁sending	-7180
▁preceding	-7181
oli	-7182
▁prospect	-7183
▁interpreted	-7184
▁CS	-7185
▁lect	-7186
▁lose	-7187
▁promise	-7188
▁supposed	-7189
▁correctness	-7190
▁rid	-7191
venth	-7192
▁stret	-7193
▁tests	-7194
▁discard	-7195
▁estimated	-7196
▁efficiency	-7197
ux	-7198
izes	-7199
▁Mit	-7200
▁certificates	-7201
lets	-7202
▁Yet	-7203
▁bona	-7204
▁broken	-7205
▁producing	-7206
▁retrospective	-7207
cean	-7208
abling	-7209
▁dream	-7210
▁tonnes	-7211
▁core	-7212
▁finance	-7213
▁reasoning	-7214
▁attorney	-7215
cum	-7216
▁Back	-7217
▁star	-7218
▁mineral	-7219
▁organized	-7220
▁compulsory	-7221
▁imposition	-7222
▁perspective	-7223
▁Hot	-7224
▁Rak	-7225
▁die	-7226
▁email	-7227
▁singh	-7228
▁sovere	-7229
▁Shankaracharya	-7230
sp	-7231
▁elim	-7232
▁rejecting	-7233
anth	-7234
isen	-7235
burse	-7236
erved	-7237
▁Swar	-7238
▁Venk	-7239
▁declare	-7240
▁samples	-7241
▁wrongly	-7242
▁Paragraph	-7243
▁governing	-7244
ERS	-7245
nath	-7246
rary	-7247
▁fish	-7248
▁Mahab	-7249
▁cance	-7250
▁Compl	-7251
▁congrat	-7252
ertaining	-7253
▁Ahmedabad	-7254
▁transform	-7255
▁rad	-7256
▁shot	-7257
▁stake	-7258
unci	-7259
minent	-7260
▁Acquisition	-7261
▁club	-7262
▁symp	-7263
idance	-7264
▁desir	-7265
▁annexed	-7266
▁secondary	-7267
▁conversion	-7268
▁averred	-7269
▁perused	-7270
za	-7271
▁Path	-7272
▁marry	-7273
▁ensuring	-7274
▁Committees	-7275
▁representing	-7276
▁Vidy	-7277
▁regularization	-7278
▁Self	-7279
▁users	-7280
▁Lucknow	-7281
▁Internet	-7282
▁attachment	-7283
▁organizations	-7284
▁scholar	-7285
▁invoking	-7286
▁greetings	-7287
▁designated	-7288
▁aw	-7289
ureau	-7290
▁Taluk	-7291
pass	-7292
▁COM	-7293
▁Sik	-7294
bered	-7295
▁lodging	-7296
▁rigorous	-7297
▁convention	-7298
▁suggestions	-7299
▁Due	-7300
▁waiting	-7301
▁attended	-7302
▁dia	-7303
▁wis	-7304
▁evid	-7305
othing	-7306
▁SRI	-7307
▁offers	-7308
▁writer	-7309
▁council	-7310
ocol	-7311
osing	-7312
▁Original	-7313
▁rely	-7314
▁overr	-7315
▁Cabinet	-7316
▁bye	-7317
▁mov	-7318
inous	-7319
▁Deep	-7320
▁orna	-7321
▁incrim	-7322
ss	-7323
unk	-7324
▁Gar	-7325
▁legs	-7326
uri	-7327
▁Austral	-7328
▁privilege	-7329
▁FSL	-7330
▁Common	-7331
▁proving	-7332
▁branches	-7333
▁platform	-7334
▁extraordinary	-7335
▁fed	-7336
▁remand	-7337
▁framework	-7338
▁EX	-7339
ners	-7340
▁organism	-7341
cellaneous	-7342
▁Meh	-7343
▁crucial	-7344
▁formula	-7345
▁Attorney	-7346
▁infirmity	-7347
ghal	-7348
▁multi	-7349
▁constr	-7350
▁regions	-7351
▁devotion	-7352
▁IP	-7353
▁evil	-7354
▁undue	-7355
▁prosperity	-7356
▁ID	-7357
vity	-7358
atively	-7359
LI	-7360
▁Exs	-7361
ether	-7362
organ	-7363
▁Pandit	-7364
▁managed	-7365
▁festival	-7366
▁vitiated	-7367
imb	-7368
iers	-7369
▁pull	-7370
▁Nepal	-7371
▁pleading	-7372
▁specially	-7373
▁Subsequently	-7374
ohol	-7375
▁instruments	-7376
Os	-7377
alle	-7378
▁Ten	-7379
▁trading	-7380
▁bidder	-7381
▁reveal	-7382
▁announced	-7383
off	-7384
▁Good	-7385
▁blind	-7386
▁Economic	-7387
▁occasions	-7388
▁introduction	-7389
uv	-7390
cribing	-7391
▁competition	-7392
▁performing	-7393
itt	-7394
uliar	-7395
ooth	-7396
urved	-7397
▁burnt	-7398
▁prompt	-7399
▁insurer	-7400
▁consolid	-7401
▁relaxation	-7402
CE	-7403
pa	-7404
▁Vik	-7405
▁Banks	-7406
▁aband	-7407
▁fixing	-7408
▁disturb	-7409
▁western	-7410
▁constant	-7411
▁CP	-7412
▁MC	-7413
▁pad	-7414
▁peculiar	-7415
▁Convention	-7416
▁apex	-7417
▁dealer	-7418
▁fifteen	-7419
▁motorcy	-7420
ESS	-7421
▁Dw	-7422
▁heads	-7423
▁discuss	-7424
▁calculated	-7425
▁personality	-7426
▁Prim	-7427
▁Nir	-7428
resents	-7429
▁seriously	-7430
▁translation	-7431
▁trend	-7432
▁incent	-7433
▁matrim	-7434
▁restrictions	-7435
▁Pass	-7436
▁Could	-7437
▁fifty	-7438
▁settle	-7439
▁wonder	-7440
▁nominated	-7441
▁undertake	-7442
▁greatest	-7443
▁Acts	-7444
▁Pers	-7445
▁contradictions	-7446
▁Rad	-7447
▁mail	-7448
▁Nature	-7449
▁twelve	-7450
▁collabor	-7451
▁didn	-7452
SA	-7453
▁cow	-7454
▁vic	-7455
ampur	-7456
▁indig	-7457
▁multipl	-7458
▁belonged	-7459
pro	-7460
▁cloud	-7461
▁brings	-7462
▁expired	-7463
▁electronic	-7464
▁originally	-7465
▁represents	-7466
EE	-7467
▁NC	-7468
▁accom	-7469
▁looks	-7470
▁instruction	-7471
iant	-7472
▁Gul	-7473
▁Han	-7474
▁PWs	-7475
▁mortem	-7476
▁pieces	-7477
▁street	-7478
▁shifted	-7479
▁initiate	-7480
rase	-7481
▁Rev	-7482
▁DIST	-7483
▁arisen	-7484
▁AN	-7485
▁Joh	-7486
▁stained	-7487
▁probation	-7488
▁prevailing	-7489
ICE	-7490
▁Motor	-7491
▁Agg	-7492
▁Amb	-7493
issue	-7494
▁Look	-7495
▁brid	-7496
holder	-7497
icable	-7498
▁Ach	-7499
▁upgr	-7500
▁Prabh	-7501
▁Junior	-7502
▁Record	-7503
▁Prakhand	-7504
▁imposing	-7505
▁intercourse	-7506
▁restriction	-7507
OP	-7508
riya	-7509
▁hall	-7510
▁Mother	-7511
▁mostly	-7512
▁courage	-7513
▁unnecess	-7514
▁contraband	-7515
lter	-7516
▁hoc	-7517
▁org	-7518
eros	-7519
▁Cal	-7520
umber	-7521
▁plans	-7522
▁borrower	-7523
▁satisfactory	-7524
laim	-7525
oudh	-7526
roud	-7527
▁felic	-7528
▁spect	-7529
och	-7530
▁Neg	-7531
ropol	-7532
▁fract	-7533
▁helps	-7534
▁outer	-7535
atra	-7536
▁vary	-7537
▁shops	-7538
IG	-7539
▁coin	-7540
▁usual	-7541
▁beings	-7542
▁dispose	-7543
▁premium	-7544
▁creditors	-7545
ym	-7546
▁mob	-7547
▁fuel	-7548
▁enum	-7549
▁client	-7550
▁orient	-7551
▁refuse	-7552
▁termed	-7553
▁answers	-7554
▁chargeable	-7555
▁endorsement	-7556
▁fulfilled	-7557
ju	-7558
▁purely	-7559
▁requiring	-7560
▁appointing	-7561
ema	-7562
▁route	-7563
▁scrutin	-7564
▁squared	-7565
▁exclusion	-7566
▁resc	-7567
ansion	-7568
▁deprived	-7569
UB	-7570
▁Kap	-7571
▁apprehend	-7572
▁Om	-7573
▁Tra	-7574
▁sake	-7575
appropri	-7576
▁Advocates	-7577
fort	-7578
▁Roh	-7579
▁folk	-7580
▁royal	-7581
▁Process	-7582
▁proposals	-7583
ressive	-7584
▁dw	-7585
▁Zone	-7586
▁inher	-7587
▁aggreg	-7588
▁resign	-7589
▁reaching	-7590
▁Examination	-7591
MS	-7592
▁Dy	-7593
▁Paper	-7594
▁judic	-7595
▁spoken	-7596
▁accompl	-7597
▁consumers	-7598
▁exclusively	-7599
ids	-7600
▁Mrs	-7601
cript	-7602
▁sites	-7603
▁Eastern	-7604
▁communal	-7605
▁opposition	-7606
FC	-7607
▁unjust	-7608
▁Jawahar	-7609
▁Panchay	-7610
▁guidance	-7611
HAR	-7612
oses	-7613
▁rit	-7614
ander	-7615
inity	-7616
▁sets	-7617
vation	-7618
▁Transfer	-7619
▁resource	-7620
▁aims	-7621
roller	-7622
▁relev	-7623
▁spons	-7624
▁axe	-7625
▁Cast	-7626
▁unlawful	-7627
BC	-7628
▁Mohd	-7629
▁boys	-7630
back	-7631
isis	-7632
onies	-7633
▁bilateral	-7634
▁reasonably	-7635
▁shareholders	-7636
▁exch	-7637
ounded	-7638
▁Vaish	-7639
▁awards	-7640
▁History	-7641
▁cutting	-7642
▁Emp	-7643
▁USA	-7644
▁bot	-7645
▁faced	-7646
writing	-7647
▁computing	-7648
rup	-7649
anath	-7650
oubted	-7651
▁wisdom	-7652
▁conclude	-7653
▁TV	-7654
oyal	-7655
▁Mil	-7656
aught	-7657
cular	-7658
rating	-7659
▁alias	-7660
▁Bureau	-7661
▁fraudul	-7662
▁File	-7663
▁Upon	-7664
▁Works	-7665
▁housing	-7666
▁purview	-7667
▁initiative	-7668
akti	-7669
▁Agency	-7670
▁please	-7671
▁climate	-7672
▁conclusions	-7673
amus	-7674
▁colle	-7675
▁forced	-7676
▁divorce	-7677
▁justify	-7678
▁investors	-7679
gi	-7680
▁ND	-7681
▁fellow	-7682
▁substantially	-7683
mad	-7684
▁Disp	-7685
▁eleph	-7686
▁utter	-7687
chandra	-7688
▁discovery	-7689
▁affidavits	-7690
TER	-7691
chnama	-7692
ogether	-7693
▁facing	-7694
▁simult	-7695
▁parameters	-7696
▁exceptional	-7697
▁arrangements	-7698
▁MM	-7699
▁Vir	-7700
▁breath	-7701
▁occurs	-7702
▁backward	-7703
▁creditor	-7704
▁superann	-7705
▁purported	-7706
▁pm	-7707
▁Chrom	-7708
rations	-7709
▁laying	-7710
▁infection	-7711
che	-7712
ker	-7713
▁Id	-7714
▁000	-7715
▁annum	-7716
▁tenancy	-7717
▁Divisional	-7718
▁inaug	-7719
▁casual	-7720
piration	-7721
▁placing	-7722
▁discovered	-7723
▁aforementioned	-7724
ny	-7725
itage	-7726
▁illegally	-7727
▁Chancellor	-7728
AI	-7729
▁phen	-7730
▁span	-7731
▁desert	-7732
▁presumed	-7733
▁Bur	-7734
▁Data	-7735
▁earned	-7736
▁precise	-7737
▁reduction	-7738
▁vag	-7739
▁Saty	-7740
▁wait	-7741
▁empty	-7742
▁solely	-7743
▁weather	-7744
▁integrity	-7745
▁matrimonial	-7746
AGE	-7747
▁Jyot	-7748
▁zero	-7749
shi	-7750
▁screen	-7751
▁Independence	-7752
urch	-7753
▁Equ	-7754
▁unw	-7755
rafts	-7756
▁Mult	-7757
rule	-7758
▁Urban	-7759
ranath	-7760
▁string	-7761
▁Letters	-7762
▁Investigation	-7763
mal	-7764
alled	-7765
▁Nations	-7766
▁Parliamentary	-7767
▁accommodation	-7768
▁incriminating	-7769
TS	-7770
▁ste	-7771
▁Sarasw	-7772
▁injust	-7773
▁rivers	-7774
▁Nothing	-7775
▁concerns	-7776
▁enabling	-7777
▁thousands	-7778
▁transmission	-7779
gypt	-7780
▁essence	-7781
▁Circular	-7782
▁exhibited	-7783
apa	-7784
alla	-7785
▁Aur	-7786
▁Sector	-7787
▁battle	-7788
▁nearby	-7789
▁contributions	-7790
▁Rab	-7791
▁bull	-7792
▁skills	-7793
etime	-7794
cience	-7795
▁creates	-7796
▁societies	-7797
▁transportation	-7798
▁Po	-7799
▁Houses	-7800
▁budget	-7801
▁concession	-7802
▁Electricity	-7803
▁implication	-7804
▁Tiwari	-7805
▁defend	-7806
▁extending	-7807
TI	-7808
▁Body	-7809
▁Subhas	-7810
▁garden	-7811
amber	-7812
▁fertil	-7813
▁Shar	-7814
▁silent	-7815
▁scholars	-7816
▁precedent	-7817
loc	-7818
leum	-7819
afide	-7820
▁taxes	-7821
▁NE	-7822
▁dignity	-7823
▁inviting	-7824
▁succeeded	-7825
cel	-7826
▁Egypt	-7827
▁Agricultural	-7828
▁paint	-7829
istence	-7830
▁Instru	-7831
▁forged	-7832
▁quarter	-7833
▁witnessed	-7834
▁substitute	-7835
▁mala	-7836
▁cycle	-7837
rection	-7838
▁exports	-7839
▁refusal	-7840
▁treating	-7841
▁motorcycle	-7842
ida	-7843
▁Chow	-7844
▁oath	-7845
▁stab	-7846
▁expand	-7847
▁........	-7848
▁promoting	-7849
▁Chak	-7850
▁vote	-7851
▁Third	-7852
▁inconsistent	-7853
Rs	-7854
▁Saf	-7855
▁Urdu	-7856
▁teach	-7857
▁venture	-7858
▁Children	-7859
▁duration	-7860
▁Sk	-7861
inct	-7862
▁Sardar	-7863
▁exhaust	-7864
▁reforms	-7865
▁attributed	-7866
fall	-7867
▁Lah	-7868
force	-7869
▁devi	-7870
ounder	-7871
▁Govind	-7872
▁URL	-7873
enger	-7874
▁doubts	-7875
▁cricket	-7876
▁admissions	-7877
▁Ren	-7878
▁investments	-7879
▁Yes	-7880
hemical	-7881
▁absent	-7882
▁levied	-7883
▁improper	-7884
▁difficulties	-7885
top	-7886
yas	-7887
▁Nare	-7888
▁delinqu	-7889
▁package	-7890
▁hop	-7891
ellow	-7892
▁Suresh	-7893
▁supreme	-7894
ajan	-7895
▁eyew	-7896
uality	-7897
▁Mahto	-7898
▁markets	-7899
▁sin	-7900
emark	-7901
erent	-7902
ighty	-7903
oubtedly	-7904
▁doctors	-7905
▁specify	-7906
▁scientists	-7907
rates	-7908
▁Debt	-7909
ceived	-7910
▁batch	-7911
▁Patent	-7912
▁acquire	-7913
▁testator	-7914
▁expansion	-7915
▁injustice	-7916
▁cognizable	-7917
▁AY	-7918
▁RBI	-7919
▁hat	-7920
▁pit	-7921
▁drop	-7922
▁relate	-7923
▁exactly	-7924
▁flowers	-7925
▁journal	-7926
ropolitan	-7927
ographical	-7928
▁personally	-7929
UT	-7930
mat	-7931
▁skill	-7932
▁Customs	-7933
▁jointly	-7934
▁empower	-7935
▁trademark	-7936
akf	-7937
▁zone	-7938
▁dimension	-7939
▁emergency	-7940
ganj	-7941
pled	-7942
▁Rest	-7943
▁thrown	-7944
▁pressed	-7945
▁password	-7946
uni	-7947
▁SA	-7948
ogue	-7949
▁Area	-7950
▁recip	-7951
▁alleging	-7952
roleum	-7953
▁coast	-7954
▁imagination	-7955
▁apprehension	-7956
▁Sund	-7957
▁Divine	-7958
▁ritual	-7959
▁seemed	-7960
▁instances	-7961
▁conference	-7962
ef	-7963
▁Addl	-7964
▁solar	-7965
▁talking	-7966
▁declined	-7967
▁liabilities	-7968
▁vir	-7969
▁inev	-7970
joinder	-7971
▁Um	-7972
▁ROAD	-7973
▁sweet	-7974
▁outcome	-7975
▁tim	-7976
isory	-7977
▁Note	-7978
▁unex	-7979
▁alcohol	-7980
▁Vigilance	-7981
▁movements	-7982
▁conversation	-7983
▁Far	-7984
▁blank	-7985
▁Accounts	-7986
CO	-7987
omach	-7988
▁Anil	-7989
▁conj	-7990
▁myself	-7991
▁tissue	-7992
▁routine	-7993
▁installation	-7994
▁fet	-7995
arpur	-7996
▁convert	-7997
▁replace	-7998
▁Sud	-7999
▁bears	-8000
▁enabled	-8001
▁Ku	-8002
▁Raju	-8003
▁cool	-8004
▁Statute	-8005
▁murdered	-8006
▁receipts	-8007
▁correctly	-8008
▁organised	-8009
▁Ray	-8010
▁deny	-8011
▁incap	-8012
itnesses	-8013
▁tenants	-8014
▁friendship	-8015
▁temperature	-8016
▁१७	-8017
▁Fac	-8018
▁Bahadur	-8019
▁compelled	-8020
lo	-8021
ulous	-8022
▁Point	-8023
▁Industry	-8024
▁resolved	-8025
▁La	-8026
▁Sand	-8027
▁incumb	-8028
▁Primary	-8029
▁beneficial	-8030
▁VI	-8031
▁Choudh	-8032
▁renewal	-8033
icipality	-8034
▁Provision	-8035
▁influenced	-8036
icon	-8037
▁gate	-8038
▁Sinha	-8039
▁newly	-8040
▁faculty	-8041
▁Marriage	-8042
▁centuries	-8043
vol	-8044
rows	-8045
▁Ear	-8046
▁Army	-8047
▁Jail	-8048
▁Sidd	-8049
▁erred	-8050
▁patent	-8051
▁corruption	-8052
▁implicated	-8053
▁governments	-8054
amed	-8055
ithm	-8056
onal	-8057
▁PDD	-8058
▁hel	-8059
▁hyd	-8060
ashing	-8061
▁Exper	-8062
▁Sushil	-8063
▁dedicated	-8064
▁kg	-8065
antic	-8066
▁Bangl	-8067
▁config	-8068
▁Question	-8069
isputed	-8070
▁Select	-8071
preci	-8072
▁Gold	-8073
▁organisations	-8074
▁Notwithstanding	-8075
▁tune	-8076
▁lawful	-8077
▁Despite	-8078
▁improved	-8079
▁confusion	-8080
▁subsection	-8081
▁prohibition	-8082
▁provisional	-8083
DU	-8084
▁sla	-8085
oples	-8086
▁Deed	-8087
▁dance	-8088
▁Afghan	-8089
▁defeat	-8090
▁revers	-8091
▁dangerous	-8092
▁corroboration	-8093
▁Ans	-8094
▁Dam	-8095
▁isol	-8096
riages	-8097
▁fifth	-8098
▁ancest	-8099
▁Something	-8100
▁Statement	-8101
▁daughters	-8102
▁Educational	-8103
ese	-8104
▁da	-8105
oman	-8106
▁Inn	-8107
▁jew	-8108
engers	-8109
▁membership	-8110
norm	-8111
indra	-8112
▁Liqu	-8113
▁Term	-8114
▁Vide	-8115
▁micro	-8116
▁Estate	-8117
▁Related	-8118
▁everyone	-8119
▁directory	-8120
▁investigate	-8121
▁CL	-8122
oria	-8123
▁Conc	-8124
empted	-8125
▁sanct	-8126
▁seeds	-8127
▁twice	-8128
▁confirmation	-8129
rier	-8130
▁Lic	-8131
employ	-8132
▁horse	-8133
▁manage	-8134
▁emerged	-8135
rh	-8136
▁Cur	-8137
▁dog	-8138
▁deem	-8139
▁saved	-8140
▁Annual	-8141
▁attacked	-8142
▁monetary	-8143
▁thorough	-8144
▁SL	-8145
anka	-8146
▁rub	-8147
▁tur	-8148
akrish	-8149
apping	-8150
▁glass	-8151
▁billion	-8152
▁examples	-8153
▁suddenly	-8154
▁assessing	-8155
▁deliberately	-8156
▁irregularity	-8157
JC	-8158
▁syn	-8159
▁doesn	-8160
▁hotel	-8161
▁cattle	-8162
▁Defence	-8163
▁Without	-8164
▁travell	-8165
▁younger	-8166
▁initiation	-8167
▁irrigation	-8168
▁Vid	-8169
▁Shuk	-8170
▁kumar	-8171
▁cancel	-8172
▁margin	-8173
▁combined	-8174
▁restrict	-8175
▁presentation	-8176
▁Kir	-8177
▁earning	-8178
▁newspapers	-8179
▁Ha	-8180
▁mos	-8181
oning	-8182
▁Main	-8183
▁Local	-8184
▁gather	-8185
▁speaks	-8186
▁Israeli	-8187
▁killing	-8188
▁affirmed	-8189
▁Constitutional	-8190
rum	-8191
▁assured	-8192
▁formulated	-8193
▁mixed	-8194
jan	-8195
hemat	-8196
amount	-8197
▁analog	-8198
▁mir	-8199
onance	-8200
▁Micro	-8201
▁quasi	-8202
▁French	-8203
▁disbel	-8204
▁Housing	-8205
▁mountain	-8206
▁verified	-8207
▁comparison	-8208
▁load	-8209
▁driven	-8210
▁catch	-8211
▁contravention	-8212
iche	-8213
▁gap	-8214
ressing	-8215
▁tested	-8216
▁Whereas	-8217
▁rendering	-8218
pic	-8219
icus	-8220
▁Issue	-8221
▁poets	-8222
▁ring	-8223
▁tract	-8224
▁Discipl	-8225
▁prohibited	-8226
RIC	-8227
▁suspect	-8228
▁numerous	-8229
▁statutes	-8230
▁endeavour	-8231
▁Mas	-8232
▁Know	-8233
ruction	-8234
▁passion	-8235
▁intelligence	-8236
.00	-8237
dess	-8238
house	-8239
▁abst	-8240
▁anticipatory	-8241
▁supplementary	-8242
BS	-8243
vast	-8244
yers	-8245
▁baby	-8246
▁poly	-8247
▁deeply	-8248
▁composed	-8249
▁sacrifice	-8250
▁distributed	-8251
ugh	-8252
alam	-8253
ohan	-8254
▁sky	-8255
enders	-8256
▁dynam	-8257
▁reass	-8258
▁chapter	-8259
▁forming	-8260
▁beg	-8261
▁dispro	-8262
▁thinks	-8263
▁retained	-8264
▁structures	-8265
HI	-8266
▁NH	-8267
▁covers	-8268
▁welcome	-8269
▁violated	-8270
▁Memorandum	-8271
orter	-8272
▁fled	-8273
▁belie	-8274
▁disabled	-8275
▁offender	-8276
▁voluntarily	-8277
▁Ser	-8278
▁existed	-8279
▁filling	-8280
▁trained	-8281
▁underlying	-8282
posit	-8283
▁elic	-8284
ensity	-8285
▁quiet	-8286
▁naturally	-8287
EG	-8288
▁votes	-8289
▁Kishore	-8290
▁returning	-8291
ainted	-8292
locutory	-8293
ensus	-8294
▁customs	-8295
▁Secondly	-8296
SP	-8297
rad	-8298
▁Mir	-8299
▁fle	-8300
aints	-8301
igarh	-8302
▁Name	-8303
▁ended	-8304
▁fulfil	-8305
▁offering	-8306
▁relevance	-8307
from	-8308
▁Ang	-8309
▁misc	-8310
▁Found	-8311
▁Awards	-8312
▁ignorance	-8313
▁indicating	-8314
▁Mor	-8315
▁Sit	-8316
▁bonds	-8317
▁component	-8318
▁delinquent	-8319
▁securities	-8320
▁Mam	-8321
umping	-8322
▁shift	-8323
▁viewed	-8324
▁compens	-8325
▁summary	-8326
▁writings	-8327
▁residents	-8328
▁components	-8329
▁guaranteed	-8330
▁superannuation	-8331
ped	-8332
▁forc	-8333
▁chair	-8334
▁deserve	-8335
▁Teachers	-8336
▁accorded	-8337
▁engagement	-8338
▁enterprise	-8339
inter	-8340
▁noise	-8341
▁surpr	-8342
▁intest	-8343
▁sacred	-8344
▁starts	-8345
▁radio	-8346
▁flower	-8347
▁tribal	-8348
▁Railways	-8349
▁Employees	-8350
▁approximately	-8351
▁Ank	-8352
▁meters	-8353
▁digital	-8354
▁awarding	-8355
▁projected	-8356
▁altogether	-8357
ario	-8358
izon	-8359
▁hect	-8360
▁thank	-8361
raction	-8362
▁center	-8363
▁contends	-8364
▁creative	-8365
▁technologies	-8366
arer	-8367
oure	-8368
race	-8369
endar	-8370
▁thumb	-8371
▁retain	-8372
prudence	-8373
▁quickly	-8374
▁Register	-8375
▁levelled	-8376
▁anx	-8377
iliar	-8378
▁stomach	-8379
▁terminal	-8380
▁inclusive	-8381
▁Cooperative	-8382
wara	-8383
▁Bet	-8384
▁expedit	-8385
▁reinstate	-8386
▁VII	-8387
▁unb	-8388
▁race	-8389
▁closely	-8390
▁attempted	-8391
▁criticism	-8392
▁executing	-8393
▁extensive	-8394
▁possessed	-8395
▁competitive	-8396
▁maintainability	-8397
▁clin	-8398
▁print	-8399
▁arranged	-8400
▁pointing	-8401
▁du	-8402
oshi	-8403
▁theme	-8404
▁Rakesh	-8405
▁lawyer	-8406
kha	-8407
▁UK	-8408
zing	-8409
▁Sil	-8410
scious	-8411
▁Leave	-8412
▁divid	-8413
▁concurrent	-8414
▁cultivation	-8415
son	-8416
▁TR	-8417
lier	-8418
▁flo	-8419
▁spoke	-8420
▁teeth	-8421
▁vague	-8422
▁denying	-8423
▁preparing	-8424
▁enumerated	-8425
heb	-8426
▁Succ	-8427
▁bids	-8428
▁Tender	-8429
▁minute	-8430
▁sympt	-8431
ainable	-8432
▁bidders	-8433
▁kh	-8434
▁amp	-8435
arwal	-8436
▁eggs	-8437
▁prose	-8438
▁folder	-8439
▁warning	-8440
▁patients	-8441
▁Champaran	-8442
▁representations	-8443
▁NIT	-8444
▁tab	-8445
etent	-8446
▁Shyam	-8447
▁enmity	-8448
▁failing	-8449
▁Property	-8450
▁manufactured	-8451
▁Oil	-8452
▁tom	-8453
▁desired	-8454
▁printed	-8455
▁occupied	-8456
▁Palestinian	-8457
▁York	-8458
▁APP	-8459
▁John	-8460
▁bath	-8461
arding	-8462
▁Tribes	-8463
▁diplom	-8464
▁vendor	-8465
▁anybody	-8466
▁affecting	-8467
oop	-8468
▁AGED	-8469
▁Arch	-8470
▁Mant	-8471
▁flood	-8472
▁solid	-8473
▁tools	-8474
▁admits	-8475
▁insofar	-8476
▁gratuity	-8477
▁punished	-8478
▁incidents	-8479
▁Employment	-8480
▁revisional	-8481
time	-8482
▁Band	-8483
▁fulfill	-8484
▁observing	-8485
▁Bangladesh	-8486
SR	-8487
ded	-8488
▁Free	-8489
▁Sita	-8490
▁diet	-8491
▁begins	-8492
alal	-8493
▁CIT	-8494
▁Dub	-8495
▁Key	-8496
▁MAN	-8497
▁Rent	-8498
▁Based	-8499
▁Guarant	-8500
▁imported	-8501
▁replaced	-8502
▁assumption	-8503
▁integrated	-8504
▁cord	-8505
▁Temple	-8506
▁propag	-8507
▁assuming	-8508
▁comments	-8509
▁interrog	-8510
▁regulate	-8511
▁UGC	-8512
▁Web	-8513
▁None	-8514
▁Three	-8515
▁Failed	-8516
▁implied	-8517
▁phenomen	-8518
▁reaction	-8519
▁apparently	-8520
gaon	-8521
▁Chait	-8522
▁linked	-8523
▁emerging	-8524
▁improving	-8525
▁comprising	-8526
▁Disc	-8527
▁Sale	-8528
▁crisis	-8529
▁thoughts	-8530
▁attendance	-8531
▁irrelevant	-8532
emn	-8533
▁Lat	-8534
▁ram	-8535
▁Geor	-8536
▁disk	-8537
ocated	-8538
wahati	-8539
worthy	-8540
▁visual	-8541
▁Market	-8542
▁firing	-8543
▁enforced	-8544
▁entrance	-8545
gue	-8546
▁Naw	-8547
nergy	-8548
urbed	-8549
▁ceremony	-8550
▁contradict	-8551
▁1	-8552
aon	-8553
pay	-8554
▁MA	-8555
▁flag	-8556
▁lays	-8557
▁planned	-8558
▁terrorist	-8559
▁violative	-8560
▁assignment	-8561
▁destruction	-8562
endix	-8563
▁accurate	-8564
▁bribe	-8565
▁learnt	-8566
▁remind	-8567
▁combination	-8568
▁crim	-8569
arency	-8570
ignment	-8571
▁artific	-8572
▁deleted	-8573
▁illness	-8574
▁Guwahati	-8575
▁securing	-8576
UK	-8577
▁Working	-8578
▁qualifying	-8579
PW	-8580
SI	-8581
dev	-8582
ixed	-8583
utable	-8584
▁southern	-8585
anchi	-8586
▁hill	-8587
▁Hotel	-8588
▁chart	-8589
▁cryst	-8590
▁revol	-8591
▁bottom	-8592
▁ruling	-8593
▁demonstrate	-8594
▁pist	-8595
▁Design	-8596
▁Speaking	-8597
▁religions	-8598
▁discharging	-8599
atab	-8600
▁Bag	-8601
▁ast	-8602
▁Sang	-8603
iaries	-8604
itating	-8605
▁Sheikh	-8606
▁lesser	-8607
▁studied	-8608
▁presently	-8609
atti	-8610
▁launch	-8611
actor	-8612
enous	-8613
stitu	-8614
▁Hand	-8615
▁myst	-8616
▁walls	-8617
▁widely	-8618
▁equitable	-8619
allel	-8620
unath	-8621
▁Hold	-8622
▁depth	-8623
▁distrib	-8624
▁Building	-8625
▁instruct	-8626
▁Furthermore	-8627
Ws	-8628
Nos	-8629
▁Da	-8630
atar	-8631
▁Bil	-8632
hetic	-8633
▁Level	-8634
▁solemn	-8635
▁Brahman	-8636
▁Germany	-8637
▁Hindust	-8638
▁joining	-8639
▁rehabilitation	-8640
aces	-8641
▁wire	-8642
▁Ambed	-8643
▁drama	-8644
▁weigh	-8645
▁Change	-8646
▁Reform	-8647
▁promis	-8648
person	-8649
▁bright	-8650
▁Inquiry	-8651
▁generated	-8652
▁prevented	-8653
▁felicitations	-8654
appl	-8655
ridge	-8656
▁Phys	-8657
▁innocence	-8658
▁definitely	-8659
▁infringement	-8660
▁Cell	-8661
▁Raman	-8662
▁attain	-8663
▁contest	-8664
▁Ambedkar	-8665
lete	-8666
active	-8667
verted	-8668
▁auton	-8669
▁remem	-8670
▁manager	-8671
zz	-8672
▁Vas	-8673
▁bomb	-8674
▁Dharm	-8675
▁proud	-8676
theless	-8677
▁Mobile	-8678
▁debate	-8679
bursement	-8680
▁Mahabhar	-8681
▁finality	-8682
▁Metropolitan	-8683
▁TH	-8684
▁Mos	-8685
▁Text	-8686
▁immun	-8687
▁praying	-8688
▁conscience	-8689
▁contribute	-8690
andi	-8691
gone	-8692
▁Wind	-8693
▁sear	-8694
▁widow	-8695
ECT	-8696
sell	-8697
▁doll	-8698
lihood	-8699
ariness	-8700
▁drinking	-8701
▁celebrated	-8702
▁interfered	-8703
hin	-8704
abha	-8705
▁cotton	-8706
▁invoke	-8707
▁burning	-8708
▁trouble	-8709
▁bleeding	-8710
▁completing	-8711
coming	-8712
▁immense	-8713
▁resolve	-8714
▁declaring	-8715
▁evolution	-8716
▁unnecessary	-8717
▁clarification	-8718
EF	-8719
RC	-8720
▁pu	-8721
ician	-8722
▁shad	-8723
akings	-8724
▁layer	-8725
itional	-8726
▁forget	-8727
▁evolved	-8728
▁sequence	-8729
sa	-8730
tes	-8731
itle	-8732
▁hur	-8733
▁suffers	-8734
▁Constitu	-8735
▁Standard	-8736
▁imperial	-8737
arn	-8738
uter	-8739
▁amen	-8740
▁socio	-8741
▁matern	-8742
▁worker	-8743
▁Neither	-8744
▁protest	-8745
eree	-8746
▁Dom	-8747
▁upl	-8748
▁Buddha	-8749
▁sharing	-8750
▁heritage	-8751
▁peaceful	-8752
▁furnishing	-8753
▁succession	-8754
▁pp	-8755
▁enemy	-8756
▁Depart	-8757
▁corner	-8758
▁testing	-8759
▁recourse	-8760
▁Ahmad	-8761
▁Forum	-8762
▁avoided	-8763
▁propriet	-8764
▁simultaneously	-8765
▁NI	-8766
▁Had	-8767
useum	-8768
▁Chit	-8769
▁Tata	-8770
▁quot	-8771
orters	-8772
▁aimed	-8773
▁brand	-8774
rosy	-8775
▁kit	-8776
adequ	-8777
▁Card	-8778
▁thick	-8779
itative	-8780
▁Controller	-8781
▁distinguish	-8782
▁wed	-8783
▁allows	-8784
▁stress	-8785
LC	-8786
▁Bir	-8787
ocket	-8788
▁Amar	-8789
▁Move	-8790
▁Democ	-8791
▁corrupt	-8792
▁developments	-8793
▁substantiate	-8794
▁IA	-8795
abet	-8796
▁Top	-8797
▁ego	-8798
ariat	-8799
▁adap	-8800
▁Japan	-8801
▁carbon	-8802
▁delayed	-8803
▁Saraswati	-8804
▁destroyed	-8805
TP	-8806
aria	-8807
▁fib	-8808
▁vul	-8809
▁Indeed	-8810
▁Shukla	-8811
▁scales	-8812
▁Likewise	-8813
▁messages	-8814
▁tendered	-8815
▁surrounding	-8816
▁Castes	-8817
▁assume	-8818
▁fruits	-8819
▁Pleader	-8820
▁carries	-8821
▁educated	-8822
▁affection	-8823
▁Jawaharlal	-8824
▁intimation	-8825
▁discretionary	-8826
▁Innov	-8827
▁nobody	-8828
▁commerce	-8829
▁strategy	-8830
▁Promotion	-8831
aterial	-8832
erosene	-8833
▁masses	-8834
▁Subhash	-8835
▁preference	-8836
ugg	-8837
▁links	-8838
▁Brahmin	-8839
▁humanity	-8840
▁happening	-8841
▁contemporary	-8842
hus	-8843
▁prol	-8844
▁oppon	-8845
▁stead	-8846
▁Ganesh	-8847
▁peoples	-8848
▁Nig	-8849
▁devot	-8850
▁Import	-8851
▁engage	-8852
▁somebody	-8853
▁permitting	-8854
iel	-8855
▁haz	-8856
▁Coal	-8857
▁Dinesh	-8858
▁abnorm	-8859
▁sports	-8860
▁wearing	-8861
▁wherever	-8862
cles	-8863
▁Kor	-8864
▁plastic	-8865
▁amounting	-8866
▁dismissing	-8867
got	-8868
▁incon	-8869
▁electric	-8870
▁directors	-8871
▁Ji	-8872
▁ru	-8873
bing	-8874
apore	-8875
▁Bach	-8876
▁Docu	-8877
▁alarm	-8878
▁exhibit	-8879
▁largely	-8880
▁Consumer	-8881
▁commonly	-8882
▁Ele	-8883
ortium	-8884
▁coupled	-8885
▁Ary	-8886
▁Dil	-8887
ealth	-8888
▁sleeping	-8889
▁Sometimes	-8890
,0	-8891
raid	-8892
ipher	-8893
▁hind	-8894
▁Audit	-8895
▁Cases	-8896
▁wider	-8897
▁serial	-8898
▁taught	-8899
▁competence	-8900
▁Adh	-8901
▁regime	-8902
▁inspired	-8903
▁tomorrow	-8904
▁accompany	-8905
▁classified	-8906
▁Nay	-8907
▁Til	-8908
urers	-8909
▁Tehs	-8910
mental	-8911
▁previously	-8912
▁Occ	-8913
ingly	-8914
▁Care	-8915
▁Money	-8916
▁harmony	-8917
▁northern	-8918
▁evidences	-8919
▁interlocutory	-8920
sha	-8921
ivek	-8922
asion	-8923
iverse	-8924
▁manip	-8925
▁insured	-8926
▁hereunder	-8927
▁consonance	-8928
▁mr	-8929
will	-8930
▁Sign	-8931
▁edge	-8932
▁lung	-8933
▁estopp	-8934
▁attempts	-8935
▁Laboratory	-8936
▁Departments	-8937
▁supervision	-8938
▁CA	-8939
▁Lad	-8940
vastava	-8941
▁torture	-8942
rain	-8943
▁cong	-8944
▁creat	-8945
▁phrase	-8946
▁enables	-8947
UN	-8948
yl	-8949
achi	-8950
night	-8951
▁......	-8952
▁Instead	-8953
▁considers	-8954
▁happiness	-8955
▁prominent	-8956
▁convenient	-8957
▁implementing	-8958
▁NCT	-8959
▁coc	-8960
▁defines	-8961
▁literal	-8962
▁prayers	-8963
▁familiar	-8964
▁ornaments	-8965
ius	-8966
▁ju	-8967
isal	-8968
▁Bij	-8969
▁signs	-8970
▁Orders	-8971
▁decline	-8972
▁strange	-8973
▁meantime	-8974
▁physically	-8975
▁limitations	-8976
▁attacks	-8977
▁forests	-8978
▁options	-8979
▁passengers	-8980
▁aspir	-8981
aha	-8982
zen	-8983
▁Tue	-8984
▁vent	-8985
▁Integ	-8986
▁rough	-8987
▁onwards	-8988
▁livelihood	-8989
▁credibility	-8990
mon	-8991
pad	-8992
▁era	-8993
▁Ravi	-8994
▁vires	-8995
▁border	-8996
▁Conduct	-8997
▁partial	-8998
▁realised	-8999
▁recognize	-9000
▁undisputed	-9001
▁cam	-9002
▁Ajay	-9003
▁Odish	-9004
▁Sales	-9005
▁laboure	-9006
▁writers	-9007
▁incumbent	-9008
▁continuously	-9009
▁Arj	-9010
▁mic	-9011
▁fate	-9012
▁truly	-9013
▁commodities	-9014
▁enhancement	-9015
▁MR	-9016
▁Bro	-9017
andra	-9018
▁canv	-9019
▁Durga	-9020
▁cease	-9021
▁incom	-9022
▁unlike	-9023
▁Persian	-9024
▁discover	-9025
▁Gir	-9026
▁Naz	-9027
ginal	-9028
▁fron	-9029
▁fallen	-9030
▁inadequ	-9031
ustainable	-9032
▁indirectly	-9033
▁entertainment	-9034
▁NG	-9035
▁Pas	-9036
▁ven	-9037
▁tear	-9038
▁staying	-9039
▁Appendix	-9040
▁expressions	-9041
▁Bid	-9042
▁abet	-9043
▁Aurang	-9044
▁devoid	-9045
▁pistol	-9046
▁titled	-9047
▁Consult	-9048
▁strongly	-9049
▁probability	-9050
care	-9051
stone	-9052
▁Misc	-9053
▁onus	-9054
▁Manoj	-9055
▁pursue	-9056
▁affects	-9057
▁eastern	-9058
▁fixation	-9059
▁subsidiary	-9060
▁institutional	-9061
▁mit	-9062
▁Mount	-9063
▁Chaitanya	-9064
▁desirable	-9065
▁submitting	-9066
DP	-9067
URU	-9068
▁jobs	-9069
ananda	-9070
▁frust	-9071
▁Circle	-9072
▁Lordships	-9073
▁assurance	-9074
▁contending	-9075
▁operational	-9076
ys	-9077
▁GR	-9078
SION	-9079
ache	-9080
▁errors	-9081
▁Natural	-9082
▁millions	-9083
ALL	-9084
▁ma	-9085
▁bridge	-9086
▁comfort	-9087
aza	-9088
▁Sou	-9089
▁bottle	-9090
▁collective	-9091
▁excellence	-9092
edia	-9093
▁unsu	-9094
examin	-9095
▁signal	-9096
▁Lecturer	-9097
▁collecting	-9098
▁encouraged	-9099
▁contributed	-9100
inn	-9101
cond	-9102
atell	-9103
▁stones	-9104
▁managing	-9105
▁enjoyment	-9106
▁imperative	-9107
▁Si	-9108
ture	-9109
▁drag	-9110
incial	-9111
▁Russia	-9112
▁allocation	-9113
GA	-9114
▁Norm	-9115
ronics	-9116
▁rooms	-9117
▁Mahesh	-9118
▁Odisha	-9119
▁insert	-9120
▁advocates	-9121
▁suspicious	-9122
kumar	-9123
▁absorption	-9124
▁Five	-9125
▁drew	-9126
▁hurt	-9127
▁sixty	-9128
▁factum	-9129
resident	-9130
▁entities	-9131
▁aggregate	-9132
▁restraining	-9133
▁notifications	-9134
▁OP	-9135
asty	-9136
oked	-9137
▁quo	-9138
▁Stre	-9139
▁Energy	-9140
▁tempor	-9141
▁eminent	-9142
▁municipal	-9143
sues	-9144
▁ITAT	-9145
▁Pune	-9146
▁Bazar	-9147
▁index	-9148
▁cancer	-9149
▁Ordinance	-9150
▁conformity	-9151
aked	-9152
ding	-9153
▁cos	-9154
▁Pratap	-9155
▁lawyers	-9156
▁unconscious	-9157
▁१८	-9158
atrix	-9159
cation	-9160
▁Sever	-9161
▁Steel	-9162
▁divide	-9163
▁kingdom	-9164
▁Commerce	-9165
▁contradiction	-9166
EV	-9167
inese	-9168
▁Allow	-9169
▁Plant	-9170
▁Times	-9171
▁sword	-9172
▁ultra	-9173
▁breast	-9174
▁decade	-9175
▁redress	-9176
▁Forensic	-9177
eli	-9178
▁Sukh	-9179
▁airc	-9180
▁Vehic	-9181
▁Arbitral	-9182
▁internet	-9183
▁convinced	-9184
▁foregoing	-9185
▁television	-9186
▁insisted	-9187
comm	-9188
▁Turk	-9189
▁obst	-9190
ifiable	-9191
▁Return	-9192
▁conclusive	-9193
pers	-9194
anese	-9195
▁shut	-9196
ologist	-9197
▁Number	-9198
▁waters	-9199
▁achieving	-9200
▁Enterprises	-9201
chen	-9202
quar	-9203
compl	-9204
▁patri	-9205
▁agents	-9206
▁Australia	-9207
▁displayed	-9208
▁allowances	-9209
▁productivity	-9210
wad	-9211
▁Kol	-9212
▁Modi	-9213
▁speedy	-9214
▁feelings	-9215
▁legality	-9216
▁reflects	-9217
▁remedies	-9218
▁Chandigarh	-9219
▁Foundation	-9220
grim	-9221
▁tor	-9222
▁Mach	-9223
▁Export	-9224
▁diverse	-9225
▁asserted	-9226
▁tub	-9227
▁Grant	-9228
adation	-9229
▁Letter	-9230
▁repair	-9231
▁GO	-9232
▁UT	-9233
ainty	-9234
▁MSME	-9235
▁erst	-9236
▁Binoy	-9237
▁Vivek	-9238
▁organs	-9239
▁Keeping	-9240
▁kilomet	-9241
▁obliged	-9242
▁conveyed	-9243
▁settings	-9244
▁handwriting	-9245
hew	-9246
plete	-9247
▁Chat	-9248
▁urge	-9249
▁goals	-9250
▁muscle	-9251
▁periods	-9252
▁eventually	-9253
▁Dra	-9254
▁apt	-9255
oices	-9256
▁Fort	-9257
▁subt	-9258
ensing	-9259
▁secular	-9260
▁anywhere	-9261
auhan	-9262
▁bact	-9263
▁desc	-9264
▁grew	-9265
▁tied	-9266
▁Green	-9267
▁accus	-9268
▁inferior	-9269
▁kerosene	-9270
▁qualities	-9271
▁undergone	-9272
▁artificial	-9273
▁exceptions	-9274
uti	-9275
▁Opp	-9276
▁Und	-9277
inces	-9278
tical	-9279
ivided	-9280
▁logical	-9281
▁elaborate	-9282
▁sovereign	-9283
rete	-9284
▁Nil	-9285
▁PIL	-9286
▁shr	-9287
▁vit	-9288
▁inad	-9289
▁reop	-9290
▁Bhawan	-9291
▁gradually	-9292
var	-9293
veer	-9294
▁Max	-9295
quest	-9296
▁chrom	-9297
▁remun	-9298
▁Academ	-9299
▁League	-9300
▁metres	-9301
judicial	-9302
▁Engineers	-9303
▁excessive	-9304
▁solutions	-9305
▁Appellants	-9306
▁expectation	-9307
obe	-9308
atre	-9309
otal	-9310
alaya	-9311
allan	-9312
▁Basic	-9313
▁backd	-9314
▁locality	-9315
▁supports	-9316
▁currently	-9317
▁remarkable	-9318
▁appreciating	-9319
MP	-9320
br	-9321
ouch	-9322
▁View	-9323
▁Vedic	-9324
▁audio	-9325
▁score	-9326
version	-9327
▁outset	-9328
▁possibly	-9329
▁Afghanistan	-9330
▁Organization	-9331
ahan	-9332
shan	-9333
abhai	-9334
uncture	-9335
▁devices	-9336
▁Registry	-9337
▁scenario	-9338
▁contested	-9339
heet	-9340
what	-9341
▁cav	-9342
▁Mean	-9343
▁Death	-9344
ilation	-9345
▁enunci	-9346
▁stored	-9347
▁Several	-9348
bey	-9349
▁rig	-9350
arkar	-9351
▁mine	-9352
▁fluid	-9353
▁yourself	-9354
▁electoral	-9355
▁erstwhile	-9356
▁followers	-9357
▁restraint	-9358
▁subscribe	-9359
▁suspended	-9360
ART	-9361
▁flex	-9362
▁tong	-9363
istries	-9364
▁reserve	-9365
▁download	-9366
▁supervis	-9367
▁visiting	-9368
▁sentences	-9369
▁incidental	-9370
▁Start	-9371
▁surpl	-9372
▁Liquid	-9373
▁afraid	-9374
▁adopting	-9375
▁channels	-9376
▁Kun	-9377
▁CWJC	-9378
ipping	-9379
▁Hasan	-9380
▁bread	-9381
▁shoot	-9382
▁Chinese	-9383
ESH	-9384
▁Persons	-9385
▁shoulder	-9386
▁jurisprudence	-9387
VE	-9388
book	-9389
▁Kav	-9390
atisf	-9391
▁.....	-9392
▁Arora	-9393
▁abdom	-9394
▁Unless	-9395
▁crimes	-9396
▁symptoms	-9397
▁resignation	-9398
▁Disciplinary	-9399
ria	-9400
▁Deg	-9401
▁Dig	-9402
▁Pursu	-9403
▁plots	-9404
▁Tribunals	-9405
▁mig	-9406
aniel	-9407
▁Polit	-9408
▁violent	-9409
▁Chemical	-9410
▁remembered	-9411
▁repeatedly	-9412
▁arbitrariness	-9413
St	-9414
▁Wa	-9415
asks	-9416
atern	-9417
▁Vers	-9418
▁pled	-9419
▁scre	-9420
▁images	-9421
▁Insofar	-9422
▁enclosed	-9423
▁Bengaluru	-9424
▁prescribe	-9425
▁testatrix	-9426
▁frequently	-9427
▁furtherance	-9428
▁investigated	-9429
▁unauthorized	-9430
iae	-9431
iders	-9432
▁Earth	-9433
istical	-9434
▁gained	-9435
▁honest	-9436
▁decreed	-9437
▁detenue	-9438
▁Dictionary	-9439
▁decre	-9440
▁label	-9441
▁bodily	-9442
ensed	-9443
▁cant	-9444
▁feels	-9445
▁unequ	-9446
▁verse	-9447
ichever	-9448
▁Comment	-9449
was	-9450
▁Mys	-9451
▁via	-9452
uniary	-9453
▁varied	-9454
▁Province	-9455
▁traditions	-9456
▁communications	-9457
ML	-9458
uran	-9459
▁nerv	-9460
▁ocean	-9461
▁adding	-9462
▁headed	-9463
lessness	-9464
▁demanding	-9465
▁emotional	-9466
▁achievement	-9467
▁prospective	-9468
we	-9469
▁El	-9470
▁Rani	-9471
▁abund	-9472
▁disag	-9473
▁nowhere	-9474
▁intermedi	-9475
▁transparent	-9476
PF	-9477
SC	-9478
mp	-9479
asim	-9480
▁Bhav	-9481
▁pair	-9482
▁diagn	-9483
▁pipes	-9484
▁Bharati	-9485
▁shif	-9486
ulsion	-9487
▁Caste	-9488
▁overt	-9489
▁spend	-9490
ableness	-9491
▁misappropri	-9492
ITY	-9493
▁Dav	-9494
▁OCC	-9495
uster	-9496
▁Benef	-9497
▁Never	-9498
▁yellow	-9499
▁Bhagwan	-9500
▁accrued	-9501
▁soldiers	-9502
▁monitoring	-9503
oles	-9504
father	-9505
▁specim	-9506
▁fighting	-9507
onic	-9508
▁AGE	-9509
▁BEN	-9510
▁pig	-9511
▁prote	-9512
arriage	-9513
iculture	-9514
▁Kingdom	-9515
▁inclusion	-9516
▁sensitive	-9517
▁delegation	-9518
▁beneficiary	-9519
▁SI	-9520
▁tro	-9521
▁Bhat	-9522
▁fasc	-9523
▁gall	-9524
earing	-9525
▁Jagdish	-9526
HC	-9527
udge	-9528
iques	-9529
▁Asian	-9530
▁Cross	-9531
▁forty	-9532
▁Kanpur	-9533
▁ending	-9534
▁rushed	-9535
▁Highway	-9536
▁grievances	-9537
▁resistance	-9538
▁Construction	-9539
▁correspondence	-9540
peror	-9541
▁Need	-9542
▁Siva	-9543
▁accum	-9544
▁mahazar	-9545
▁mandamus	-9546
▁whichever	-9547
rin	-9548
ashi	-9549
▁Madan	-9550
▁nomin	-9551
▁Crores	-9552
▁George	-9553
hibition	-9554
▁Ayurved	-9555
▁enjoyed	-9556
▁successor	-9557
▁Mac	-9558
▁Nat	-9559
▁row	-9560
▁van	-9561
▁pool	-9562
▁Telang	-9563
▁preval	-9564
▁arriving	-9565
▁universe	-9566
▁arrival	-9567
▁emerges	-9568
▁assailants	-9569
▁trem	-9570
ursing	-9571
▁motiv	-9572
▁treas	-9573
ailable	-9574
▁Scient	-9575
▁ignore	-9576
▁Condition	-9577
▁fraudulent	-9578
dict	-9579
ulpt	-9580
▁curt	-9581
▁firstly	-9582
▁contesting	-9583
▁constitutes	-9584
eer	-9585
lav	-9586
enda	-9587
▁Soft	-9588
▁Mehta	-9589
fulness	-9590
iliation	-9591
▁handling	-9592
▁resorted	-9593
▁clearance	-9594
▁requesting	-9595
▁apprehended	-9596
▁Shiva	-9597
▁Charge	-9598
▁Finally	-9599
▁functional	-9600
DUCT	-9601
char	-9602
▁Check	-9603
▁deriv	-9604
atories	-9605
▁Taking	-9606
▁beaten	-9607
▁realise	-9608
▁Pursuant	-9609
▁hardship	-9610
▁removing	-9611
▁adversely	-9612
▁attending	-9613
▁administer	-9614
▁continuation	-9615
▁parliamentary	-9616
PCL	-9617
▁SW	-9618
▁Vi	-9619
asis	-9620
▁solve	-9621
▁hidden	-9622
▁marginal	-9623
▁Singapore	-9624
▁virtually	-9625
▁guarantees	-9626
SE	-9627
▁ww	-9628
orted	-9629
▁Kaur	-9630
▁Lakh	-9631
▁Autom	-9632
▁reader	-9633
▁verses	-9634
▁voters	-9635
▁turning	-9636
▁occurring	-9637
ibi	-9638
▁MT	-9639
▁Poll	-9640
▁busy	-9641
▁France	-9642
▁parallel	-9643
▁repealed	-9644
▁Petitions	-9645
lat	-9646
▁assisted	-9647
▁infinite	-9648
ordination	-9649
▁experiment	-9650
▁hesitation	-9651
▁composition	-9652
▁destination	-9653
▁participating	-9654
The	-9655
▁SEC	-9656
oking	-9657
▁lieu	-9658
▁Bhatt	-9659
▁imports	-9660
▁Presiding	-9661
▁Deb	-9662
▁www	-9663
uated	-9664
▁Bhai	-9665
▁cards	-9666
▁Merely	-9667
▁Mughal	-9668
co	-9669
hal	-9670
▁Kot	-9671
stated	-9672
▁Black	-9673
▁lowest	-9674
▁Britain	-9675
▁invested	-9676
▁Limitation	-9677
▁mechanical	-9678
akk	-9679
ued	-9680
▁pa	-9681
hers	-9682
onds	-9683
want	-9684
▁array	-9685
▁Establ	-9686
▁escaped	-9687
▁exclude	-9688
▁whereof	-9689
▁searched	-9690
▁stations	-9691
cont	-9692
orry	-9693
▁Mer	-9694
▁Sem	-9695
▁Drug	-9696
▁Kann	-9697
▁emerge	-9698
▁surplus	-9699
▁separated	-9700
▁deliberate	-9701
▁ped	-9702
ipped	-9703
▁semi	-9704
ompany	-9705
▁Guide	-9706
▁logic	-9707
▁loose	-9708
ulative	-9709
▁rulers	-9710
▁Recruitment	-9711
▁discrepancies	-9712
▁pronouncement	-9713
iam	-9714
oram	-9715
ammed	-9716
gence	-9717
▁meat	-9718
▁relies	-9719
▁update	-9720
▁Product	-9721
ERE	-9722
life	-9723
▁SHO	-9724
▁Gora	-9725
▁Online	-9726
▁degrees	-9727
▁utility	-9728
▁Maharaja	-9729
▁appended	-9730
▁entitlement	-9731
how	-9732
adra	-9733
▁Six	-9734
avior	-9735
▁Relig	-9736
▁afresh	-9737
▁inputs	-9738
▁silver	-9739
▁Subject	-9740
▁somewhat	-9741
▁administr	-9742
▁automatic	-9743
▁excellent	-9744
▁technique	-9745
itud	-9746
ashed	-9747
hered	-9748
▁Farm	-9749
idavit	-9750
▁Vinod	-9751
▁handic	-9752
▁verify	-9753
▁vessels	-9754
▁travelling	-9755
▁registering	-9756
▁undoubtedly	-9757
▁Cy	-9758
▁IR	-9759
ogen	-9760
▁tow	-9761
herry	-9762
▁availed	-9763
▁juncture	-9764
jit	-9765
▁NAB	-9766
xygen	-9767
▁Chauhan	-9768
▁elsewhere	-9769
▁practition	-9770
▁independently	-9771
iat	-9772
mail	-9773
▁fever	-9774
▁losses	-9775
▁indication	-9776
▁vegetables	-9777
NL	-9778
▁RF	-9779
▁cod	-9780
▁Kesh	-9781
▁sculpt	-9782
▁overlook	-9783
▁excluding	-9784
▁safeguard	-9785
▁reinstatement	-9786
▁Age	-9787
iries	-9788
▁Gaut	-9789
▁Srin	-9790
▁reck	-9791
▁tail	-9792
hement	-9793
▁meter	-9794
▁pound	-9795
▁parade	-9796
▁poetic	-9797
lamation	-9798
▁disposs	-9799
▁Desh	-9800
▁dear	-9801
▁gods	-9802
▁STATE	-9803
osition	-9804
▁Chrome	-9805
▁Vaishn	-9806
▁greatly	-9807
▁litigant	-9808
▁remanded	-9809
▁Telangana	-9810
▁therefrom	-9811
▁ascertained	-9812
▁transparency	-9813
vals	-9814
▁nin	-9815
assed	-9816
▁Ward	-9817
▁miss	-9818
▁redu	-9819
rative	-9820
resentation	-9821
▁amalgamation	-9822
pus	-9823
▁AR	-9824
lock	-9825
arita	-9826
orous	-9827
urism	-9828
▁Sahu	-9829
▁bats	-9830
▁crowd	-9831
▁circle	-9832
▁seller	-9833
▁altered	-9834
▁Advisory	-9835
▁backdrop	-9836
▁taxation	-9837
umes	-9838
▁Nal	-9839
▁Sha	-9840
▁Mill	-9841
▁dies	-9842
▁touc	-9843
▁White	-9844
inatory	-9845
▁absorbed	-9846
▁passport	-9847
▁Knowledge	-9848
▁interpret	-9849
▁pregnancy	-9850
▁adjustment	-9851
▁administered	-9852
▁prescription	-9853
▁FA	-9854
▁Goa	-9855
▁enl	-9856
▁myth	-9857
▁usage	-9858
edience	-9859
▁smooth	-9860
▁Follow	-9861
▁Address	-9862
▁finished	-9863
▁characteristics	-9864
▁Wed	-9865
▁ante	-9866
▁Table	-9867
▁quote	-9868
▁disreg	-9869
▁golden	-9870
▁conting	-9871
▁vehement	-9872
▁inevitable	-9873
▁fo	-9874
▁Str	-9875
▁enorm	-9876
▁Enable	-9877
▁Narain	-9878
▁prince	-9879
▁safely	-9880
▁suppressed	-9881
▁affiliation	-9882
▁Anti	-9883
▁chose	-9884
atabase	-9885
▁Search	-9886
▁rising	-9887
▁pilgrim	-9888
▁inferred	-9889
▁constantly	-9890
▁technological	-9891
dh	-9892
kin	-9893
▁Dri	-9894
▁raj	-9895
agger	-9896
▁Prad	-9897
▁angle	-9898
▁benefic	-9899
▁designs	-9900
▁calculation	-9901
▁prejudicial	-9902
CH	-9903
chant	-9904
▁dust	-9905
orship	-9906
▁Saroj	-9907
▁beating	-9908
▁closure	-9909
▁mutation	-9910
▁utilized	-9911
▁transferee	-9912
▁Secretariat	-9913
UST	-9914
▁Jal	-9915
entle	-9916
▁Kail	-9917
▁NAME	-9918
▁Next	-9919
▁stim	-9920
▁genes	-9921
▁metal	-9922
▁saving	-9923
▁tenders	-9924
▁calendar	-9925
▁reducing	-9926
▁tendency	-9927
▁Guarantee	-9928
▁End	-9929
▁Radh	-9930
▁penet	-9931
olished	-9932
▁Turkey	-9933
▁shaped	-9934
▁survive	-9935
▁refusing	-9936
▁discarded	-9937
osite	-9938
▁dilig	-9939
▁Ranchi	-9940
▁sheets	-9941
▁delight	-9942
▁Colleges	-9943
▁marriages	-9944
▁complained	-9945
▁innovative	-9946
▁Municipality	-9947
▁Jit	-9948
▁htt	-9949
▁ties	-9950
lessly	-9951
▁Ident	-9952
▁forfe	-9953
▁remarks	-9954
▁concealed	-9955
AGAR	-9956
outs	-9957
power	-9958
▁deity	-9959
▁hills	-9960
▁mandapa	-9961
▁tourist	-9962
▁realized	-9963
respondent	-9964
▁references	-9965
▁acknowledged	-9966
EST	-9967
erer	-9968
▁bat	-9969
▁rom	-9970
▁Puri	-9971
▁salt	-9972
▁Harish	-9973
▁stretch	-9974
▁assertion	-9975
▁Corruption	-9976
▁eve	-9977
▁Huss	-9978
▁holy	-9979
▁delic	-9980
▁lodge	-9981
▁Meeting	-9982
▁disposing	-9983
▁strategic	-9984
▁regulatory	-9985
lor	-9986
wani	-9987
▁Kath	-9988
▁fard	-9989
▁Indore	-9990
▁strang	-9991
▁Reforms	-9992
▁fracture	-9993
▁weakness	-9994
▁wrongful	-9995
▁exploitation	-9996
LR	-9997
▁mad	-9998
▁Khat	-9999
▁Thir	-10000
▁Academy	-10001
▁acquiring	-10002
▁disturbed	-10003
▁rejoinder	-10004
▁correction	-10005
▁translated	-10006
▁Taj	-10007
▁pup	-10008
▁Sahib	-10009
▁rebut	-10010
examined	-10011
▁tourism	-10012
▁Hinduism	-10013
▁reporting	-10014
ayuk	-10015
▁unp	-10016
▁vex	-10017
▁Indira	-10018
▁valley	-10019
▁operated	-10020
▁computation	-10021
▁achievements	-10022
▁transformation	-10023
▁DV	-10024
▁dh	-10025
cane	-10026
wide	-10027
rants	-10028
▁Mall	-10029
▁Surat	-10030
▁grain	-10031
▁repos	-10032
▁packets	-10033
▁prevail	-10034
▁fairness	-10035
▁diversity	-10036
▁approaching	-10037
▁enterprises	-10038
ARY	-10039
agi	-10040
▁Pip	-10041
▁nav	-10042
▁bind	-10043
▁tube	-10044
▁cater	-10045
▁NABARD	-10046
esterday	-10047
▁silence	-10048
▁delegated	-10049
▁impartial	-10050
▁deficiency	-10051
ATH	-10052
▁Fil	-10053
▁Bills	-10054
▁procure	-10055
▁preserve	-10056
▁incomplete	-10057
▁differently	-10058
▁strengthening	-10059
uma	-10060
mans	-10061
▁hal	-10062
▁lamp	-10063
▁trap	-10064
▁wheat	-10065
▁eternal	-10066
▁radical	-10067
▁aircraft	-10068
▁expertise	-10069
▁institutes	-10070
ORT	-10071
enn	-10072
▁Bul	-10073
▁tape	-10074
▁gland	-10075
▁highl	-10076
▁flight	-10077
▁contrast	-10078
▁overcome	-10079
▁convicting	-10080
DR	-10081
wing	-10082
▁Rath	-10083
▁clim	-10084
advant	-10085
▁Ghosh	-10086
▁mould	-10087
▁wheel	-10088
▁architecture	-10089
▁entrepreneur	-10090
CL	-10091
▁XV	-10092
anim	-10093
▁Vire	-10094
▁worn	-10095
▁harmon	-10096
▁passes	-10097
▁PRODUCT	-10098
▁coloured	-10099
▁childhood	-10100
▁impleaded	-10101
▁consistently	-10102
▁Bri	-10103
omous	-10104
▁node	-10105
▁grace	-10106
▁stuff	-10107
▁atomic	-10108
▁kitchen	-10109
▁techniques	-10110
ERA	-10111
his	-10112
▁Muh	-10113
eties	-10114
▁Sudh	-10115
▁Vict	-10116
▁ceased	-10117
▁sorrow	-10118
▁thread	-10119
▁harvest	-10120
▁undivided	-10121
▁pronounced	-10122
▁territories	-10123
▁Ish	-10124
▁Baba	-10125
▁Flag	-10126
▁Shik	-10127
▁Except	-10128
▁posting	-10129
▁assailed	-10130
▁turnover	-10131
▁highlighted	-10132
▁interfering	-10133
१९	-10134
ayas	-10135
husi	-10136
▁vii	-10137
acent	-10138
▁sket	-10139
▁parte	-10140
▁Jagann	-10141
▁urgent	-10142
▁Perhaps	-10143
▁testified	-10144
osity	-10145
▁Paul	-10146
▁vice	-10147
▁BENGAL	-10148
▁Canada	-10149
▁inspire	-10150
▁prisoner	-10151
▁Aggrieved	-10152
▁dishonest	-10153
ASH	-10154
mic	-10155
▁keen	-10156
▁Liter	-10157
tension	-10158
▁summar	-10159
▁disorder	-10160
▁oriented	-10161
▁adjudicated	-10162
▁characteristic	-10163
itya	-10164
sman	-10165
▁Sep	-10166
▁Tour	-10167
▁picked	-10168
▁confron	-10169
▁Islamist	-10170
▁computers	-10171
▁MB	-10172
cers	-10173
▁Hard	-10174
▁facto	-10175
▁adhere	-10176
ointment	-10177
▁studying	-10178
▁possessing	-10179
▁civilization	-10180
▁negotiations	-10181
met	-10182
iger	-10183
orrh	-10184
▁Rup	-10185
▁Sak	-10186
▁smt	-10187
▁buff	-10188
▁rear	-10189
GALORE	-10190
▁Mahal	-10191
▁roots	-10192
▁omitted	-10193
▁Computer	-10194
▁pecuniary	-10195
▁accounting	-10196
▁vehemently	-10197
ori	-10198
alat	-10199
▁Cult	-10200
▁Gaya	-10201
▁bags	-10202
▁German	-10203
▁adjourn	-10204
▁Parishad	-10205
▁printing	-10206
▁positions	-10207
▁cooperative	-10208
ugu	-10209
▁ash	-10210
▁rat	-10211
acious	-10212
▁Staff	-10213
▁editor	-10214
▁profile	-10215
▁financing	-10216
▁rhy	-10217
commun	-10218
terior	-10219
▁Dubey	-10220
▁split	-10221
▁Bhagat	-10222
▁conced	-10223
▁stamps	-10224
▁continuance	-10225
▁expeditiously	-10226
haz	-10227
▁pul	-10228
beyan	-10229
▁News	-10230
▁wick	-10231
▁pride	-10232
▁truck	-10233
ineness	-10234
▁ceiling	-10235
▁enthusi	-10236
▁gravity	-10237
▁propose	-10238
▁realize	-10239
▁victory	-10240
▁Investment	-10241
▁geographical	-10242
▁manufacturer	-10243
izer	-10244
▁Gaj	-10245
▁Lep	-10246
▁Wakf	-10247
▁fash	-10248
orders	-10249
▁retail	-10250
▁dropped	-10251
▁utilised	-10252
▁comprised	-10253
▁informing	-10254
▁examinations	-10255
▁fly	-10256
▁Conn	-10257
▁nexus	-10258
▁compan	-10259
▁guided	-10260
▁shadow	-10261
ciliation	-10262
▁elephant	-10263
▁answering	-10264
▁controlling	-10265
▁remuneration	-10266
▁stakeholders	-10267
hani	-10268
▁ASI	-10269
▁lists	-10270
▁width	-10271
alities	-10272
▁excise	-10273
▁palace	-10274
▁shelter	-10275
▁Ramayana	-10276
▁mountains	-10277
▁experienced	-10278
▁hun	-10279
aspur	-10280
▁Global	-10281
▁vacated	-10282
▁boundary	-10283
▁describe	-10284
▁restored	-10285
▁BANGALORE	-10286
▁meanwhile	-10287
▁stipulation	-10288
▁KAR	-10289
▁spr	-10290
▁tall	-10291
▁bones	-10292
▁Chaudh	-10293
quarters	-10294
▁confisc	-10295
▁imagine	-10296
▁Mohammed	-10297
▁pictures	-10298
▁disadvant	-10299
oves	-10300
▁BDA	-10301
▁Tre	-10302
▁Radi	-10303
▁insu	-10304
▁advis	-10305
▁homes	-10306
▁older	-10307
▁Mysore	-10308
▁tremend	-10309
▁MW	-10310
▁din	-10311
rition	-10312
▁brown	-10313
▁disob	-10314
▁paddy	-10315
▁Tahsil	-10316
▁refuge	-10317
▁machines	-10318
▁genuineness	-10319
archy	-10320
cause	-10321
▁Till	-10322
▁decor	-10323
▁handle	-10324
▁utmost	-10325
appellants	-10326
▁unsustainable	-10327
ILL	-10328
URE	-10329
▁AIC	-10330
arest	-10331
▁Rece	-10332
▁Medic	-10333
▁toler	-10334
▁culmin	-10335
▁reward	-10336
▁Airport	-10337
▁counted	-10338
▁discont	-10339
▁Territory	-10340
▁Panchayats	-10341
onym	-10342
▁Alm	-10343
▁Phot	-10344
▁Push	-10345
▁unus	-10346
▁faces	-10347
▁resid	-10348
▁Claims	-10349
estation	-10350
▁defeated	-10351
▁detaining	-10352
▁proprietor	-10353
▁progressive	-10354
▁impermissible	-10355
rits	-10356
adevi	-10357
amble	-10358
▁Make	-10359
▁Maur	-10360
orious	-10361
▁Prior	-10362
▁cable	-10363
▁clock	-10364
▁towns	-10365
▁tongue	-10366
▁Punjabi	-10367
▁detained	-10368
▁goodwill	-10369
▁ignoring	-10370
▁Marketing	-10371
▁prisoners	-10372
▁repayment	-10373
▁Ball	-10374
▁Sach	-10375
illary	-10376
▁Chart	-10377
▁lathi	-10378
▁turns	-10379
▁Negoti	-10380
▁Supply	-10381
▁inability	-10382
▁variation	-10383
ims	-10384
ogy	-10385
van	-10386
omal	-10387
▁Hal	-10388
▁Vad	-10389
agers	-10390
rance	-10391
▁Gita	-10392
▁thin	-10393
reshold	-10394
▁cement	-10395
▁surprise	-10396
▁suspected	-10397
▁irregularities	-10398
Ch	-10399
ki	-10400
ukh	-10401
▁UP	-10402
anja	-10403
ktop	-10404
▁Haz	-10405
▁Kur	-10406
▁seg	-10407
semin	-10408
▁Gree	-10409
▁forcibly	-10410
▁Assessment	-10411
oi	-10412
▁Baj	-10413
▁wing	-10414
atable	-10415
▁blows	-10416
▁buyer	-10417
▁shirt	-10418
▁Action	-10419
▁listen	-10420
▁Governance	-10421
▁electrical	-10422
▁protecting	-10423
OT	-10424
▁DD	-10425
ford	-10426
apati	-10427
parable	-10428
▁Manual	-10429
▁helping	-10430
▁horizon	-10431
▁subsidy	-10432
▁elicited	-10433
▁Tq	-10434
aved	-10435
asted	-10436
▁tang	-10437
▁Tilak	-10438
▁Swaraj	-10439
▁assemb	-10440
▁stains	-10441
▁Support	-10442
▁estimate	-10443
▁Compensation	-10444
eem	-10445
▁pow	-10446
▁Hall	-10447
laimed	-10448
▁flour	-10449
▁allied	-10450
▁reverse	-10451
▁taxable	-10452
▁judicata	-10453
▁enforceable	-10454
▁establishes	-10455
▁experiences	-10456
oma	-10457
iguous	-10458
ushing	-10459
onation	-10460
▁Degree	-10461
▁recons	-10462
▁Hussain	-10463
▁surgery	-10464
▁telling	-10465
▁amending	-10466
▁Resources	-10467
▁jurisdictional	-10468
agra	-10469
▁Bagh	-10470
▁milit	-10471
▁firmly	-10472
▁Corporate	-10473
di	-10474
RICT	-10475
iram	-10476
▁Unf	-10477
▁mel	-10478
▁homic	-10479
▁consumed	-10480
ECH	-10481
NAME	-10482
ayam	-10483
bles	-10484
▁Did	-10485
cence	-10486
▁Begum	-10487
▁grants	-10488
▁entirety	-10489
▁precious	-10490
▁surrounded	-10491
▁dissolution	-10492
▁liquidation	-10493
▁VAT	-10494
▁Kant	-10495
▁fake	-10496
▁films	-10497
ourable	-10498
iversary	-10499
▁advances	-10500
▁portions	-10501
▁departure	-10502
eas	-10503
asha	-10504
illy	-10505
▁Bhut	-10506
▁Parm	-10507
▁wake	-10508
▁Major	-10509
▁dress	-10510
▁trace	-10511
▁invite	-10512
▁pestic	-10513
▁Marathi	-10514
▁adjacent	-10515
▁offending	-10516
▁charitable	-10517
igare	-10518
▁frivol	-10519
▁lessee	-10520
▁misrep	-10521
▁shrine	-10522
▁Disputes	-10523
▁produces	-10524
▁Subordinate	-10525
sees	-10526
side	-10527
▁cra	-10528
▁peas	-10529
▁proves	-10530
▁Looking	-10531
▁Parties	-10532
▁detected	-10533
▁exhibits	-10534
▁licensee	-10535
▁passenger	-10536
▁commencing	-10537
▁realisation	-10538
bre	-10539
lin	-10540
imla	-10541
onda	-10542
stig	-10543
▁cin	-10544
astri	-10545
▁bold	-10546
▁plug	-10547
▁Dwark	-10548
▁castes	-10549
▁summer	-10550
▁computed	-10551
▁separation	-10552
▁manufacturers	-10553
utch	-10554
▁Bol	-10555
▁Ver	-10556
▁forb	-10557
▁nose	-10558
▁Kamal	-10559
▁Treat	-10560
▁locus	-10561
▁Krishn	-10562
▁verdict	-10563
▁Mahendra	-10564
▁slightly	-10565
▁subjective	-10566
▁Log	-10567
▁Sank	-10568
olving	-10569
▁click	-10570
▁pocket	-10571
▁vulner	-10572
▁defects	-10573
▁walking	-10574
▁DISTRICT	-10575
▁Federation	-10576
▁regulating	-10577
▁Distribution	-10578
▁constituting	-10579
ino	-10580
▁LA	-10581
▁vig	-10582
anama	-10583
▁meal	-10584
▁Clear	-10585
▁owing	-10586
itarian	-10587
▁player	-10588
▁sisters	-10589
▁purchasing	-10590
rao	-10591
pless	-10592
▁Amit	-10593
▁spouse	-10594
▁disproportion	-10595
khar	-10596
eenth	-10597
▁Gwal	-10598
▁Kaly	-10599
▁Gujar	-10600
▁inhab	-10601
▁closer	-10602
▁delete	-10603
▁Against	-10604
▁programs	-10605
▁sympathy	-10606
▁discloses	-10607
▁homicidal	-10608
▁operators	-10609
▁affirmative	-10610
▁chargesheet	-10611
▁discriminatory	-10612
thy	-10613
raon	-10614
rove	-10615
▁RPC	-10616
▁Rub	-10617
anjan	-10618
▁Rang	-10619
▁Trip	-10620
icians	-10621
▁Years	-10622
▁renewed	-10623
▁adjusted	-10624
▁labourers	-10625
iki	-10626
▁ly	-10627
wood	-10628
inant	-10629
▁synt	-10630
ruddin	-10631
▁rests	-10632
▁native	-10633
▁ocular	-10634
▁dynamic	-10635
▁deducted	-10636
▁quarters	-10637
▁commodity	-10638
▁constable	-10639
▁ministers	-10640
▁prevalent	-10641
▁Environmental	-10642
▁Miscellaneous	-10643
▁CM	-10644
▁Ke	-10645
down	-10646
rich	-10647
▁Gas	-10648
▁Nam	-10649
▁Ran	-10650
▁pant	-10651
istent	-10652
▁eating	-10653
▁grievous	-10654
▁describes	-10655
▁indigenous	-10656
gal	-10657
▁vim	-10658
▁lacs	-10659
▁Bhopal	-10660
▁Church	-10661
▁Region	-10662
▁probate	-10663
▁expanded	-10664
▁hundreds	-10665
▁prescribes	-10666
▁measurement	-10667
▁miscarriage	-10668
selling	-10669
▁Arabic	-10670
▁ideals	-10671
▁Current	-10672
▁Muhammad	-10673
preciation	-10674
▁configuration	-10675
▁Infrastructure	-10676
LT	-10677
▁Je	-10678
gent	-10679
ulla	-10680
utosh	-10681
ortion	-10682
▁Joshi	-10683
▁Basava	-10684
▁Recomm	-10685
▁boundaries	-10686
▁beneficiaries	-10687
ums	-10688
▁Ce	-10689
▁embar	-10690
▁rapidly	-10691
▁assaulting	-10692
▁regularized	-10693
uda	-10694
▁Jha	-10695
▁bore	-10696
▁veil	-10697
▁Mahan	-10698
▁Pract	-10699
▁algor	-10700
▁defam	-10701
▁maxim	-10702
▁novels	-10703
▁oxygen	-10704
▁Santosh	-10705
▁Highways	-10706
▁laboratory	-10707
amar	-10708
ffee	-10709
isan	-10710
▁irr	-10711
▁Youn	-10712
▁boat	-10713
▁thro	-10714
▁Lanka	-10715
▁library	-10716
▁savings	-10717
lementary	-10718
▁Software	-10719
▁maternal	-10720
DI	-10721
▁Ori	-10722
▁SAR	-10723
▁Sult	-10724
icides	-10725
▁Journ	-10726
▁Saudi	-10727
▁shell	-10728
▁actively	-10729
▁perfection	-10730
▁suppression	-10731
▁Ek	-10732
▁Akh	-10733
▁Que	-10734
rogen	-10735
▁ample	-10736
▁genus	-10737
▁incomp	-10738
ifferent	-10739
▁flowing	-10740
▁goddess	-10741
▁dividend	-10742
▁enquired	-10743
▁admitting	-10744
▁complicated	-10745
oa	-10746
▁Ca	-10747
▁Price	-10748
▁slowly	-10749
▁Deposit	-10750
▁pregnant	-10751
▁Tahsildar	-10752
▁thereupon	-10753
ste	-10754
▁IIT	-10755
▁Old	-10756
itors	-10757
▁Sham	-10758
▁idol	-10759
▁doors	-10760
▁plate	-10761
ecessor	-10762
▁deploy	-10763
▁depose	-10764
▁lifted	-10765
▁exceeds	-10766
▁Buddhist	-10767
▁credited	-10768
▁culpable	-10769
▁railways	-10770
HA	-10771
nic	-10772
emat	-10773
ibai	-10774
State	-10775
oster	-10776
▁COMM	-10777
▁reim	-10778
▁imped	-10779
▁debtor	-10780
▁prestig	-10781
akrishnan	-10782
▁homicide	-10783
▁Mahabharata	-10784
▁generations	-10785
▁Corporations	-10786
aco	-10787
▁scan	-10788
▁whip	-10789
atious	-10790
▁Range	-10791
▁debts	-10792
▁embod	-10793
▁risks	-10794
▁Center	-10795
▁models	-10796
▁Projects	-10797
▁hectares	-10798
▁obstruct	-10799
▁copyright	-10800
▁safeguards	-10801
▁revolutionary	-10802
ANG	-10803
ador	-10804
agon	-10805
ishi	-10806
emption	-10807
▁Indica	-10808
ammation	-10809
▁decides	-10810
kind	-10811
▁Naya	-10812
▁PMLA	-10813
▁gang	-10814
▁Obama	-10815
▁Purch	-10816
▁broke	-10817
▁deter	-10818
▁Boards	-10819
▁Telugu	-10820
▁Narendra	-10821
▁audience	-10822
▁mathemat	-10823
▁Community	-10824
▁disregard	-10825
▁hospitals	-10826
▁exhaustive	-10827
qf	-10828
▁Dutt	-10829
▁draf	-10830
▁aided	-10831
▁carved	-10832
▁exposed	-10833
▁respects	-10834
▁Standards	-10835
▁interface	-10836
olu	-10837
olic	-10838
▁shed	-10839
▁Analy	-10840
▁inspect	-10841
▁Hindustan	-10842
▁alternate	-10843
▁tremendous	-10844
▁demonstrated	-10845
▁PP	-10846
▁Save	-10847
▁intr	-10848
▁vest	-10849
essful	-10850
▁Short	-10851
▁Centres	-10852
▁Competent	-10853
▁regulated	-10854
▁restrained	-10855
RS	-10856
▁fro	-10857
▁Indra	-10858
▁Title	-10859
▁coerc	-10860
▁bullet	-10861
▁belated	-10862
▁BENGALURU	-10863
▁corrected	-10864
▁frivolous	-10865
▁discussing	-10866
▁acknowledge	-10867
cut	-10868
uram	-10869
ubhai	-10870
▁fals	-10871
▁menu	-10872
▁Malay	-10873
▁illit	-10874
▁spell	-10875
▁eleven	-10876
▁matrix	-10877
ortunate	-10878
▁Lokayuk	-10879
▁Manipur	-10880
▁objected	-10881
compliance	-10882
▁stability	-10883
▁Principles	-10884
IAL	-10885
ghar	-10886
unda	-10887
▁Jai	-10888
▁Van	-10889
▁vib	-10890
▁merc	-10891
▁squarely	-10892
▁practically	-10893
▁congratulate	-10894
▁Gor	-10895
▁ine	-10896
▁Init	-10897
▁Mess	-10898
▁talks	-10899
▁tooth	-10900
▁Brahma	-10901
▁fiction	-10902
▁therewith	-10903
▁neighbours	-10904
▁interaction	-10905
▁predecessor	-10906
▁collaboration	-10907
asp	-10908
▁HL	-10909
▁Ess	-10910
▁Gop	-10911
▁Sov	-10912
ighed	-10913
opard	-10914
▁erect	-10915
▁Repeal	-10916
▁extingu	-10917
▁postpon	-10918
▁Provident	-10919
▁addresses	-10920
▁compelling	-10921
▁preventive	-10922
▁Instruments	-10923
▁interpreting	-10924
▁GA	-10925
iple	-10926
ohar	-10927
▁Kat	-10928
avati	-10929
eeper	-10930
▁Fire	-10931
rupted	-10932
▁appra	-10933
▁teleg	-10934
▁theft	-10935
▁wings	-10936
▁Declar	-10937
▁Satish	-10938
▁abused	-10939
▁butter	-10940
▁islands	-10941
▁convincing	-10942
▁everywhere	-10943
▁unfortunate	-10944
▁confidential	-10945
▁conservation	-10946
bu	-10947
ulum	-10948
▁Aged	-10949
▁dedu	-10950
ainant	-10951
▁upset	-10952
▁Valley	-10953
▁explicit	-10954
▁secondly	-10955
▁adjudicate	-10956
agn	-10957
yar	-10958
▁EM	-10959
▁Indo	-10960
▁tent	-10961
idency	-10962
▁Citiz	-10963
▁photo	-10964
manship	-10965
▁Expert	-10966
▁button	-10967
▁cigare	-10968
▁detrim	-10969
▁voting	-10970
▁worshi	-10971
▁farming	-10972
▁Liquidator	-10973
wala	-10974
▁Ult	-10975
▁ice	-10976
erman	-10977
▁bund	-10978
venile	-10979
▁Create	-10980
▁jewell	-10981
▁earnest	-10982
▁coverage	-10983
▁operator	-10984
▁sugarcane	-10985
▁threshold	-10986
▁affiliated	-10987
zy	-10988
acts	-10989
wati	-10990
▁Arms	-10991
▁Sher	-10992
▁firms	-10993
attered	-10994
▁empire	-10995
▁abscond	-10996
▁circuit	-10997
▁Thu	-10998
▁cha	-10999
▁bulk	-11000
asters	-11001
icitor	-11002
▁miles	-11003
▁mines	-11004
▁worry	-11005
▁Empire	-11006
▁endors	-11007
▁theatre	-11008
▁enormous	-11009
▁organisms	-11010
▁healthcare	-11011
▁advertisements	-11012
oga	-11013
abai	-11014
amine	-11015
▁gramm	-11016
▁holid	-11017
▁nerve	-11018
▁Access	-11019
▁breaking	-11020
▁concrete	-11021
▁empowers	-11022
▁permanently	-11023
abi	-11024
adhy	-11025
aland	-11026
arked	-11027
being	-11028
▁butt	-11029
▁flows	-11030
▁feeding	-11031
▁mailing	-11032
▁Regulatory	-11033
kal	-11034
eren	-11035
shaw	-11036
arers	-11037
eches	-11038
izers	-11039
ogram	-11040
▁ensh	-11041
▁snow	-11042
▁acute	-11043
Section	-11044
▁Object	-11045
▁modify	-11046
▁Clauses	-11047
▁intense	-11048
▁darkness	-11049
▁supplies	-11050
▁Following	-11051
▁fardbeyan	-11052
▁introduce	-11053
▁trustworthy	-11054
▁adjudicating	-11055
▁Mut	-11056
▁Hans	-11057
▁NSEL	-11058
▁Poly	-11059
▁Along	-11060
atellite	-11061
▁Gwalior	-11062
▁harmful	-11063
▁formulation	-11064
CS	-11065
▁Nic	-11066
▁nep	-11067
eship	-11068
▁rose	-11069
▁Baner	-11070
▁lover	-11071
versity	-11072
▁Command	-11073
▁Minimum	-11074
▁chromos	-11075
▁damaged	-11076
▁Petroleum	-11077
▁abandoned	-11078
▁panchnama	-11079
▁terminate	-11080
▁Oh	-11081
▁DAY	-11082
agues	-11083
▁tells	-11084
▁ticket	-11085
▁closing	-11086
▁devoted	-11087
▁minerals	-11088
▁Political	-11089
▁Help	-11090
▁desp	-11091
elihood	-11092
▁tariff	-11093
▁visits	-11094
▁challan	-11095
▁historic	-11096
▁confirming	-11097
▁mentioning	-11098
odal	-11099
urai	-11100
▁Enc	-11101
▁MOU	-11102
▁Bush	-11103
▁Camp	-11104
▁prox	-11105
▁sees	-11106
ponent	-11107
▁Bhart	-11108
▁Stock	-11109
▁Truth	-11110
endants	-11111
▁Majesty	-11112
▁processed	-11113
▁surprising	-11114
▁undertakings	-11115
isha	-11116
yard	-11117
▁Manj	-11118
▁bias	-11119
▁limb	-11120
▁pest	-11121
rowser	-11122
▁misle	-11123
▁Soviet	-11124
▁agenda	-11125
▁differ	-11126
▁helpless	-11127
▁reviewed	-11128
▁summoned	-11129
nes	-11130
▁Yus	-11131
▁Bish	-11132
▁germ	-11133
▁pace	-11134
▁Sagar	-11135
▁argue	-11136
▁crack	-11137
▁tasks	-11138
▁Undert	-11139
▁Regular	-11140
▁extends	-11141
▁heavily	-11142
▁prohibit	-11143
▁province	-11144
▁attaining	-11145
▁enhancing	-11146
▁yesterday	-11147
▁derivative	-11148
▁prevention	-11149
▁AW	-11150
▁Khas	-11151
▁Lead	-11152
▁gunt	-11153
▁cavity	-11154
▁opponent	-11155
▁highlight	-11156
▁Innovation	-11157
▁enunciated	-11158
▁entrepreneurs	-11159
▁Ga	-11160
▁Pharm	-11161
▁valued	-11162
▁Country	-11163
▁mutually	-11164
beh	-11165
thal	-11166
▁SPE	-11167
urated	-11168
▁rescue	-11169
▁Certain	-11170
▁Sucharita	-11171
▁disappear	-11172
▁exercises	-11173
▁hereafter	-11174
▁sufficiently	-11175
HO	-11176
US	-11177
ahi	-11178
rent	-11179
phone	-11180
liness	-11181
▁dealers	-11182
▁helpful	-11183
▁tension	-11184
▁abnormal	-11185
▁Recommend	-11186
▁increases	-11187
▁emphasized	-11188
▁invocation	-11189
▁likelihood	-11190
etan	-11191
▁Hit	-11192
▁Inj	-11193
▁Sea	-11194
▁enlar	-11195
▁grams	-11196
▁magaz	-11197
▁demarc	-11198
▁musical	-11199
▁graduate	-11200
▁concluding	-11201
▁LP	-11202
wali	-11203
▁Jer	-11204
▁Lak	-11205
▁gla	-11206
▁Star	-11207
▁tact	-11208
▁Nanak	-11209
▁Peeth	-11210
▁Gautam	-11211
▁attach	-11212
▁manual	-11213
▁winter	-11214
▁omissions	-11215
▁regularisation	-11216
▁ors	-11217
ulter	-11218
▁scar	-11219
▁Stamp	-11220
▁Terror	-11221
▁Washing	-11222
▁implies	-11223
indranath	-11224
▁Resource	-11225
▁immunity	-11226
▁unemploy	-11227
▁Otherwise	-11228
▁medicines	-11229
▁occupants	-11230
▁inadequate	-11231
▁inspiration	-11232
▁Unfortunately	-11233
QU	-11234
bir	-11235
▁Md	-11236
▁Ut	-11237
acle	-11238
▁sed	-11239
amper	-11240
▁Loan	-11241
▁condol	-11242
▁windows	-11243
▁Document	-11244
stitutional	-11245
inc	-11246
▁HT	-11247
gical	-11248
oting	-11249
vency	-11250
▁Garg	-11251
▁Love	-11252
▁Young	-11253
ATIONAL	-11254
▁Jewish	-11255
▁dispar	-11256
▁timely	-11257
▁Federal	-11258
▁prolong	-11259
▁multiply	-11260
▁reassessment	-11261
▁suo	-11262
ITION	-11263
ushan	-11264
▁Bans	-11265
▁Chal	-11266
▁Mart	-11267
▁Wild	-11268
▁epic	-11269
▁Refer	-11270
▁farmer	-11271
▁Personal	-11272
▁Whatever	-11273
▁averment	-11274
▁behavior	-11275
▁colonial	-11276
▁credible	-11277
▁probable	-11278
▁deputation	-11279
▁preventing	-11280
▁Ib	-11281
awar	-11282
▁hors	-11283
▁drain	-11284
▁Cannot	-11285
▁bigger	-11286
▁organic	-11287
▁vendors	-11288
▁generate	-11289
▁basically	-11290
▁substances	-11291
VER	-11292
▁EC	-11293
▁Pa	-11294
alia	-11295
▁Bra	-11296
▁Get	-11297
▁ICT	-11298
umped	-11299
▁acre	-11300
▁Nigam	-11301
▁favor	-11302
▁keeps	-11303
▁ruler	-11304
▁Mukesh	-11305
▁parity	-11306
▁sticks	-11307
▁Agarwal	-11308
▁illicit	-11309
▁restore	-11310
▁promised	-11311
▁classical	-11312
▁fabricated	-11313
▁irrational	-11314
▁neighbourhood	-11315
▁establishments	-11316
tar	-11317
wat	-11318
quer	-11319
veen	-11320
▁RES	-11321
▁Tom	-11322
amboo	-11323
▁medi	-11324
▁rash	-11325
▁Track	-11326
▁Yusuf	-11327
▁laugh	-11328
▁lingu	-11329
▁Colony	-11330
▁junior	-11331
▁Leprosy	-11332
▁Quality	-11333
▁readers	-11334
▁recalled	-11335
▁shortage	-11336
▁striking	-11337
▁varieties	-11338
▁Aurangabad	-11339
▁colleagues	-11340
▁connecting	-11341
▁constructive	-11342
ea	-11343
▁Ber	-11344
▁Nirm	-11345
▁Play	-11346
isible	-11347
▁scrib	-11348
▁freely	-11349
▁invari	-11350
▁Kailash	-11351
▁cleared	-11352
▁desires	-11353
▁lending	-11354
▁premise	-11355
▁traders	-11356
▁believes	-11357
▁integration	-11358
▁restoration	-11359
ulus	-11360
▁Yam	-11361
plant	-11362
▁hide	-11363
▁mood	-11364
▁vacc	-11365
alment	-11366
▁Preet	-11367
▁everybody	-11368
▁Ministries	-11369
▁arbitrarily	-11370
oult	-11371
owing	-11372
▁Light	-11373
▁Minor	-11374
▁Relief	-11375
▁batter	-11376
▁locked	-11377
▁versus	-11378
▁Banking	-11379
▁batsman	-11380
▁Defendants	-11381
▁confronted	-11382
▁eyewitness	-11383
▁stipulates	-11384
२०	-11385
▁HO	-11386
eena	-11387
▁Gos	-11388
▁mud	-11389
ammal	-11390
▁Narm	-11391
▁sessions	-11392
▁approaches	-11393
▁instructed	-11394
▁OS	-11395
oved	-11396
▁Cost	-11397
▁icon	-11398
▁Cause	-11399
▁maybe	-11400
▁stars	-11401
▁misuse	-11402
▁spring	-11403
▁neglect	-11404
▁pillars	-11405
▁Personnel	-11406
▁defective	-11407
▁incapable	-11408
▁addressing	-11409
oul	-11410
apat	-11411
ayya	-11412
pent	-11413
▁LPA	-11414
▁awa	-11415
▁rod	-11416
▁Tuls	-11417
▁Mines	-11418
▁worthy	-11419
▁Payment	-11420
fficiency	-11421
▁Gujarati	-11422
▁transmit	-11423
▁composite	-11424
▁collateral	-11425
PSC	-11426
▁gri	-11427
▁Lake	-11428
▁glad	-11429
▁jung	-11430
▁hyper	-11431
▁loyal	-11432
▁Street	-11433
▁blocks	-11434
▁biggest	-11435
▁distant	-11436
▁presents	-11437
▁subscrib	-11438
▁consortium	-11439
UG	-11440
eta	-11441
cope	-11442
▁Dou	-11443
▁ther	-11444
ulance	-11445
▁Tribe	-11446
▁Paswan	-11447
▁Taluka	-11448
▁layout	-11449
▁serves	-11450
▁underw	-11451
▁wooden	-11452
▁Contempt	-11453
▁allocated	-11454
has	-11455
noon	-11456
matic	-11457
▁AICTE	-11458
▁march	-11459
▁Netaji	-11460
▁adjour	-11461
▁forgot	-11462
▁parcel	-11463
▁supers	-11464
▁outlook	-11465
▁protocol	-11466
▁receives	-11467
▁exchanges	-11468
▁incentives	-11469
▁invitation	-11470
▁Prohibition	-11471
EO	-11472
nasty	-11473
▁epis	-11474
▁yard	-11475
▁bride	-11476
▁easier	-11477
▁insist	-11478
▁Complex	-11479
▁unusual	-11480
▁dramatic	-11481
▁preserved	-11482
▁Srivastava	-11483
▁conveyance	-11484
▁contradictory	-11485
ney	-11486
▁je	-11487
▁Lod	-11488
▁Desai	-11489
▁Total	-11490
▁modes	-11491
▁query	-11492
▁Fourth	-11493
▁Speech	-11494
▁adduce	-11495
▁united	-11496
▁Succession	-11497
▁promotions	-11498
END	-11499
Ins	-11500
ocks	-11501
roid	-11502
▁Bor	-11503
▁wil	-11504
▁Club	-11505
▁Near	-11506
▁Modern	-11507
▁Present	-11508
▁repairs	-11509
▁guardian	-11510
▁profound	-11511
▁premature	-11512
▁Negotiable	-11513
▁Washington	-11514
▁entertaining	-11515
▁publications	-11516
geon	-11517
ymph	-11518
▁neut	-11519
▁Arjun	-11520
respass	-11521
▁talked	-11522
▁approve	-11523
▁confers	-11524
▁Academic	-11525
▁database	-11526
▁initiating	-11527
▁communicate	-11528
▁transmitted	-11529
▁conventional	-11530
nut	-11531
omed	-11532
▁bio	-11533
▁Azad	-11534
▁rope	-11535
▁Click	-11536
▁Privy	-11537
▁guntas	-11538
▁exempted	-11539
▁shifting	-11540
▁encouraging	-11541
HAN	-11542
AVAN	-11543
APTER	-11544
▁begun	-11545
▁brill	-11546
▁enshr	-11547
▁worse	-11548
▁bitter	-11549
▁disall	-11550
▁Firstly	-11551
▁genetic	-11552
▁nearest	-11553
▁Whenever	-11554
▁intimate	-11555
▁favourable	-11556
▁formalities	-11557
▁implications	-11558
rous	-11559
adeep	-11560
▁Take	-11561
▁depict	-11562
▁vexatious	-11563
aras	-11564
ivals	-11565
▁switch	-11566
▁Perform	-11567
▁Japanese	-11568
▁Northern	-11569
▁announce	-11570
▁reserves	-11571
▁producers	-11572
▁Accountant	-11573
▁Prosecution	-11574
▁circulation	-11575
▁transferring	-11576
▁miscellaneous	-11577
issues	-11578
▁Maharaj	-11579
▁vitamin	-11580
▁reversed	-11581
▁insufficient	-11582
eds	-11583
log	-11584
utors	-11585
▁Real	-11586
▁cous	-11587
▁font	-11588
▁Media	-11589
▁Russian	-11590
▁concepts	-11591
▁mentally	-11592
▁panchanama	-11593
▁prosecuted	-11594
TR	-11595
ighth	-11596
tered	-11597
▁Long	-11598
▁eman	-11599
▁trek	-11600
iorari	-11601
▁Samaj	-11602
▁exempt	-11603
▁misbeh	-11604
▁traced	-11605
▁nominee	-11606
▁contacts	-11607
▁hypothes	-11608
▁mentions	-11609
▁reproduce	-11610
▁introducing	-11611
isa	-11612
tha	-11613
▁Cri	-11614
▁DRT	-11615
▁NDPS	-11616
▁bene	-11617
▁stup	-11618
▁Appro	-11619
▁Broad	-11620
▁Juris	-11621
▁Thank	-11622
▁blunt	-11623
▁fourt	-11624
▁Ranjan	-11625
▁vacate	-11626
▁opinions	-11627
▁pertains	-11628
▁trustees	-11629
▁Chartered	-11630
▁Raghunath	-11631
▁enactments	-11632
▁questioning	-11633
▁supervisory	-11634
▁disqualified	-11635
si	-11636
▁exit	-11637
▁tant	-11638
▁Paras	-11639
▁labor	-11640
▁plane	-11641
plicate	-11642
▁defaul	-11643
▁exempl	-11644
▁sketch	-11645
▁confine	-11646
▁locations	-11647
▁negligent	-11648
▁Declaration	-11649
▁advancement	-11650
kes	-11651
zed	-11652
araj	-11653
eper	-11654
▁Nas	-11655
▁Asst	-11656
▁Bhub	-11657
▁Line	-11658
▁Pack	-11659
▁intu	-11660
▁overw	-11661
▁skull	-11662
▁uncond	-11663
▁CHAPTER	-11664
▁cooking	-11665
▁hanging	-11666
▁balanced	-11667
▁requests	-11668
▁Regarding	-11669
▁whereupon	-11670
▁Guidelines	-11671
▁increasingly	-11672
▁participants	-11673
econ	-11674
xide	-11675
▁Muz	-11676
▁exh	-11677
aksha	-11678
iscal	-11679
point	-11680
▁hire	-11681
▁fisher	-11682
▁powder	-11683
▁heading	-11684
▁massive	-11685
▁py	-11686
rage	-11687
▁Fif	-11688
▁swe	-11689
▁Four	-11690
▁Purn	-11691
▁ward	-11692
inking	-11693
oining	-11694
viously	-11695
▁Coming	-11696
▁advise	-11697
▁tribes	-11698
▁unsucc	-11699
▁Freedom	-11700
▁presume	-11701
▁specimen	-11702
▁accessible	-11703
▁thoroughly	-11704
▁encroachment	-11705
▁LC	-11706
hera	-11707
kers	-11708
▁Abs	-11709
▁Bap	-11710
▁adm	-11711
udent	-11712
▁shap	-11713
▁Sugar	-11714
▁Nation	-11715
▁Reason	-11716
▁improb	-11717
▁overse	-11718
▁enlight	-11719
valuation	-11720
▁unnatural	-11721
▁relatively	-11722
eri	-11723
▁Bye	-11724
▁Shak	-11725
▁tack	-11726
▁consec	-11727
ographic	-11728
▁Proceed	-11729
▁dissemin	-11730
missibility	-11731
▁generating	-11732
▁KV	-11733
▁PL	-11734
▁SD	-11735
arai	-11736
rence	-11737
▁Miss	-11738
▁impe	-11739
▁noble	-11740
▁Rupees	-11741
▁patron	-11742
▁Hanuman	-11743
▁surrend	-11744
▁weighed	-11745
▁radiation	-11746
▁EN	-11747
▁GN	-11748
jeet	-11749
▁Call	-11750
▁extr	-11751
▁Mahav	-11752
▁Course	-11753
▁Rajeev	-11754
▁fought	-11755
▁treaty	-11756
▁players	-11757
▁carriage	-11758
▁incentive	-11759
▁travelled	-11760
▁misconceived	-11761
▁pronouncements	-11762
--	-11763
tas	-11764
▁Fa	-11765
▁COUR	-11766
▁Dass	-11767
utical	-11768
▁Clerk	-11769
▁Amicus	-11770
▁pretty	-11771
▁talent	-11772
▁Bod	-11773
peeth	-11774
reams	-11775
▁Fast	-11776
▁palm	-11777
▁Guard	-11778
▁Model	-11779
▁larva	-11780
▁island	-11781
▁loaded	-11782
▁resemb	-11783
▁sometime	-11784
▁responded	-11785
▁dedication	-11786
▁testimonies	-11787
abu	-11788
▁lord	-11789
▁Vikas	-11790
▁hered	-11791
▁honor	-11792
erating	-11793
viation	-11794
▁Lahore	-11795
▁Status	-11796
iability	-11797
▁Islands	-11798
▁ensured	-11799
▁literacy	-11800
▁mischief	-11801
▁Chaudhary	-11802
▁envisages	-11803
▁cumulative	-11804
▁willingness	-11805
▁Organisation	-11806
▁Commissioners	-11807
tr	-11808
amba	-11809
emia	-11810
umin	-11811
▁unh	-11812
anpur	-11813
ludes	-11814
essees	-11815
▁Debts	-11816
▁sheep	-11817
▁cooper	-11818
▁fashion	-11819
▁Sciences	-11820
▁Surendra	-11821
▁bacteria	-11822
▁equation	-11823
▁frequent	-11824
▁overwhel	-11825
▁Admission	-11826
▁prosecutor	-11827
▁significantly	-11828
iac	-11829
osa	-11830
arsa	-11831
bind	-11832
onut	-11833
ulam	-11834
▁Tat	-11835
▁Geet	-11836
▁canal	-11837
▁loved	-11838
▁focused	-11839
▁skilled	-11840
▁Nagaland	-11841
▁crossing	-11842
▁patterns	-11843
▁tourists	-11844
▁Himalayas	-11845
▁obligatory	-11846
ek	-11847
▁BI	-11848
▁DG	-11849
odox	-11850
ping	-11851
▁Den	-11852
▁ITS	-11853
▁tag	-11854
▁VIII	-11855
▁ease	-11856
ridges	-11857
▁Rajiv	-11858
▁Laxman	-11859
▁Result	-11860
▁Topics	-11861
▁intact	-11862
▁thrust	-11863
▁mankind	-11864
▁tissues	-11865
▁borrowed	-11866
▁operates	-11867
▁Extension	-11868
▁broadcast	-11869
▁perversity	-11870
▁attributable	-11871
▁collectively	-11872
▁constituency	-11873
▁BO	-11874
▁RA	-11875
▁tends	-11876
▁absurd	-11877
sections	-11878
▁dominant	-11879
▁trespass	-11880
▁jewellery	-11881
▁litigants	-11882
▁describing	-11883
▁expressing	-11884
▁realization	-11885
▁improvements	-11886
▁substitution	-11887
hoc	-11888
▁AL	-11889
▁BH	-11890
▁GP	-11891
osure	-11892
ulled	-11893
▁axis	-11894
▁Khand	-11895
▁topic	-11896
▁Forces	-11897
▁condem	-11898
▁define	-11899
▁invent	-11900
▁bonafide	-11901
▁cheating	-11902
▁Meanwhile	-11903
▁declarations	-11904
VC	-11905
inh	-11906
iated	-11907
▁Soon	-11908
▁luck	-11909
▁threw	-11910
▁adults	-11911
▁footing	-11912
aceutical	-11913
▁Mohammad	-11914
▁estoppel	-11915
▁invoices	-11916
▁reasoned	-11917
▁successive	-11918
▁Territories	-11919
▁aspirations	-11920
▁disabilities	-11921
▁Cle	-11922
▁Kas	-11923
▁unm	-11924
iniyam	-11925
▁Royal	-11926
▁inequ	-11927
▁heaven	-11928
▁praise	-11929
▁sounds	-11930
▁comprises	-11931
EX	-11932
cha	-11933
lance	-11934
▁Gaur	-11935
▁Poon	-11936
▁keys	-11937
▁Vedas	-11938
▁mobil	-11939
▁texts	-11940
iencies	-11941
▁Naresh	-11942
▁deaths	-11943
▁Express	-11944
▁chamber	-11945
▁pursued	-11946
▁revival	-11947
▁signing	-11948
▁abstract	-11949
▁producer	-11950
▁veracity	-11951
▁attesting	-11952
▁kms	-11953
▁odd	-11954
aming	-11955
enary	-11956
hesis	-11957
▁calm	-11958
▁tons	-11959
▁Dilip	-11960
▁anger	-11961
▁taste	-11962
▁charas	-11963
▁briefly	-11964
▁measured	-11965
▁quantities	-11966
BER	-11967
▁FT	-11968
▁jur	-11969
▁voc	-11970
▁brut	-11971
▁inex	-11972
▁Laxmi	-11973
▁gazet	-11974
▁insol	-11975
▁wounds	-11976
▁associates	-11977
▁unilateral	-11978
▁identifying	-11979
fl	-11980
oty	-11981
wami	-11982
andom	-11983
bhanga	-11984
▁Varan	-11985
▁Santro	-11986
▁faster	-11987
▁gentle	-11988
inations	-11989
▁Jyotish	-11990
▁attested	-11991
▁publicity	-11992
▁equipments	-11993
IGH	-11994
▁Ras	-11995
▁Pram	-11996
matter	-11997
▁penis	-11998
▁Motion	-11999
▁kidney	-12000
▁stable	-12001
▁Seventh	-12002
▁Various	-12003
▁exagger	-12004
▁inherit	-12005
▁malafide	-12006
▁manpower	-12007
▁discontin	-12008
▁explaining	-12009
▁programming	-12010
iba	-12011
kim	-12012
llah	-12013
serv	-12014
▁XII	-12015
▁rot	-12016
▁degr	-12017
▁feas	-12018
▁mole	-12019
▁David	-12020
▁Value	-12021
▁liver	-12022
▁saint	-12023
▁SPEECH	-12024
▁buying	-12025
▁superv	-12026
▁highway	-12027
▁counting	-12028
▁promoter	-12029
▁Referring	-12030
▁privileges	-12031
▁intervening	-12032
▁practitioner	-12033
▁Yoj	-12034
vable	-12035
▁monu	-12036
▁pond	-12037
itudes	-12038
▁Grand	-12039
▁campus	-12040
▁explos	-12041
▁wholes	-12042
▁sincere	-12043
▁urgency	-12044
▁Bilaspur	-12045
▁discount	-12046
▁imparting	-12047
▁magistrate	-12048
▁phenomenon	-12049
▁psychological	-12050
ky	-12051
▁Trad	-12052
▁inel	-12053
▁jack	-12054
▁wash	-12055
enable	-12056
▁African	-12057
▁bottles	-12058
▁discern	-12059
▁receiver	-12060
▁Governing	-12061
▁certification	-12062
▁ER	-12063
arus	-12064
utra	-12065
▁Khar	-12066
▁Maint	-12067
▁blame	-12068
▁shout	-12069
▁hazard	-12070
▁unequiv	-12071
▁speeches	-12072
▁philosoph	-12073
▁attractive	-12074
xic	-12075
▁Py	-12076
▁REP	-12077
▁tap	-12078
▁hunt	-12079
▁slip	-12080
opping	-12081
▁Father	-12082
▁Shimla	-12083
▁Within	-12084
▁daniel	-12085
▁tainted	-12086
▁Pollution	-12087
▁afternoon	-12088
▁intimated	-12089
▁meaningful	-12090
▁Chairperson	-12091
▁Mc	-12092
▁RC	-12093
tain	-12094
▁HLEC	-12095
▁cows	-12096
ivable	-12097
▁Param	-12098
▁intra	-12099
▁artist	-12100
▁enters	-12101
▁occupy	-12102
▁nullity	-12103
▁threats	-12104
▁Ayurveda	-12105
▁licences	-12106
▁detection	-12107
▁perception	-12108
▁constructions	-12109
iser	-12110
▁Inv	-12111
▁puts	-12112
apuram	-12113
▁Exhib	-12114
▁Jagat	-12115
▁hears	-12116
▁monop	-12117
▁Lastly	-12118
▁demise	-12119
▁fright	-12120
▁Edition	-12121
▁muscles	-12122
▁Consolid	-12123
▁reposted	-12124
▁disclosing	-12125
▁sentencing	-12126
▁categorical	-12127
Is	-12128
awn	-12129
hati	-12130
cated	-12131
▁Conv	-12132
▁True	-12133
▁sper	-12134
ardens	-12135
reight	-12136
▁Pawan	-12137
▁guess	-12138
▁grains	-12139
▁plural	-12140
▁Pradhan	-12141
▁streams	-12142
▁mistakes	-12143
▁Badruddin	-12144
▁eliminate	-12145
▁partially	-12146
▁DA	-12147
adar	-12148
rian	-12149
▁Fee	-12150
▁Arts	-12151
▁Read	-12152
▁lift	-12153
▁stem	-12154
ighter	-12155
▁prays	-12156
▁tight	-12157
actorily	-12158
▁federal	-12159
▁fraction	-12160
▁inconven	-12161
▁overseas	-12162
▁expedient	-12163
▁vulnerable	-12164
▁shareholder	-12165
▁Establishment	-12166
rik	-12167
uja	-12168
umps	-12169
▁Jat	-12170
▁Niz	-12171
▁Abdu	-12172
▁spin	-12173
▁kings	-12174
uminous	-12175
▁Unable	-12176
▁upload	-12177
▁crossed	-12178
▁touched	-12179
▁artistic	-12180
▁emission	-12181
▁solitary	-12182
▁conciliation	-12183
ibhai	-12184
▁accur	-12185
astipur	-12186
▁Nagpur	-12187
▁hearts	-12188
▁raises	-12189
▁consign	-12190
▁Varanasi	-12191
▁Adhiniyam	-12192
▁Choudhury	-12193
▁recognise	-12194
▁somewhere	-12195
▁repetition	-12196
▁unauthorised	-12197
▁unfortunately	-12198
ingh	-12199
▁bes	-12200
▁pin	-12201
akshi	-12202
▁garb	-12203
▁sine	-12204
▁Kabir	-12205
▁dwell	-12206
▁bought	-12207
▁Tripathi	-12208
▁breeding	-12209
▁adjourned	-12210
▁arbitrators	-12211
▁connections	-12212
▁considerably	-12213
alp	-12214
opsy	-12215
▁Hus	-12216
▁RTI	-12217
▁Suk	-12218
▁bin	-12219
▁cess	-12220
thened	-12221
▁Mitra	-12222
▁disin	-12223
▁Ganges	-12224
▁Mangal	-12225
▁Journal	-12226
▁anxious	-12227
▁versions	-12228
▁complying	-12229
▁impressed	-12230
▁accusation	-12231
obi	-12232
rell	-12233
▁XXX	-12234
▁Auto	-12235
▁cure	-12236
▁Drugs	-12237
▁raped	-12238
▁Rather	-12239
▁equals	-12240
▁trials	-12241
istrates	-12242
▁prudent	-12243
▁publish	-12244
▁recruit	-12245
▁enshrined	-12246
▁Conditions	-12247
▁Integrated	-12248
▁governmental	-12249
oys	-12250
RISH	-12251
oused	-12252
▁heir	-12253
▁Taxes	-12254
▁react	-12255
▁smell	-12256
▁Madhub	-12257
▁Studies	-12258
▁abdomen	-12259
▁matches	-12260
▁readily	-12261
▁pursuing	-12262
▁chemicals	-12263
▁strengthened	-12264
▁satisfactorily	-12265
In	-12266
occ	-12267
rab	-12268
▁Kad	-12269
▁Say	-12270
▁cup	-12271
▁lis	-12272
▁lake	-12273
iences	-12274
▁accel	-12275
▁bunch	-12276
▁indef	-12277
▁nodes	-12278
▁divers	-12279
▁entitle	-12280
▁royalty	-12281
▁trustee	-12282
▁watching	-12283
▁Choudhary	-12284
▁ancestral	-12285
▁dissolved	-12286
▁associations	-12287
IFR	-12288
aki	-12289
ulg	-12290
ariya	-12291
▁Cutt	-12292
mother	-12293
▁Zilla	-12294
▁unamb	-12295
ulously	-12296
▁detenu	-12297
▁pretext	-12298
▁networks	-12299
▁touching	-12300
▁precisely	-12301
▁elementary	-12302
▁Presidential	-12303
▁interrogation	-12304
▁IX	-12305
amal	-12306
avas	-12307
▁Dip	-12308
acles	-12309
inath	-12310
▁Ghaz	-12311
▁Sany	-12312
▁flee	-12313
▁sums	-12314
icular	-12315
oultry	-12316
▁beach	-12317
▁bamboo	-12318
▁corpus	-12319
▁sphere	-12320
▁viable	-12321
▁Madurai	-12322
▁nervous	-12323
▁Purchase	-12324
▁Bhagalpur	-12325
▁implicate	-12326
▁continuity	-12327
KAR	-12328
▁Ny	-12329
oose	-12330
▁Insp	-12331
▁hier	-12332
▁orth	-12333
▁Sangh	-12334
▁embra	-12335
▁dreams	-12336
▁Iranian	-12337
▁prosecute	-12338
▁Honourable	-12339
▁dictionary	-12340
▁discrepancy	-12341
▁............	-12342
IX	-12343
▁#	-12344
ENCE	-12345
vind	-12346
▁Saw	-12347
▁Have	-12348
▁bell	-12349
uously	-12350
▁optim	-12351
▁transc	-12352
▁Benefit	-12353
▁Lakshmi	-12354
▁checked	-12355
▁forgery	-12356
▁sponsored	-12357
▁Complainant	-12358
▁consolidated	-12359
GR	-12360
▁Ju	-12361
▁NB	-12362
▁Sus	-12363
▁wet	-12364
▁Proc	-12365
▁Veer	-12366
acular	-12367
aneswar	-12368
▁repeat	-12369
▁unanim	-12370
▁dialogue	-12371
▁withheld	-12372
▁narration	-12373
▁biological	-12374
abs	-12375
ibh	-12376
omas	-12377
▁Vic	-12378
▁rup	-12379
▁Alam	-12380
▁Heard	-12381
▁Space	-12382
▁deeper	-12383
▁purity	-12384
▁denomin	-12385
▁funding	-12386
forcement	-12387
▁checking	-12388
▁Implement	-12389
▁Islamists	-12390
▁Panchnama	-12391
▁intervene	-12392
▁perfectly	-12393
▁promotional	-12394
▁gratification	-12395
ulu	-12396
hesh	-12397
▁wip	-12398
▁Said	-12399
▁http	-12400
▁swit	-12401
▁Armed	-12402
▁midst	-12403
onymous	-12404
▁camera	-12405
ographer	-12406
▁Monitor	-12407
▁apprent	-12408
▁broadly	-12409
▁clarify	-12410
▁protein	-12411
▁Judiciary	-12412
▁Provisions	-12413
▁terrorists	-12414
▁condonation	-12415
▁Gad	-12416
▁Hyd	-12417
▁FIRs	-12418
▁spon	-12419
▁ster	-12420
▁Scale	-12421
▁Ansari	-12422
▁Sports	-12423
▁prints	-12424
........	-12425
▁William	-12426
▁mixture	-12427
▁afforded	-12428
▁amenities	-12429
▁tolerance	-12430
▁tribunals	-12431
▁constrained	-12432
eda	-12433
▁Has	-12434
▁Jab	-12435
odara	-12436
▁untr	-12437
▁Sikkim	-12438
▁pushed	-12439
ensively	-12440
▁Cuttack	-12441
▁browser	-12442
▁explains	-12443
▁isolated	-12444
▁Obviously	-12445
▁algorithm	-12446
▁associate	-12447
▁reception	-12448
▁OM	-12449
▁asp	-12450
▁Mary	-12451
▁silk	-12452
igible	-12453
▁Indus	-12454
▁Custom	-12455
▁genius	-12456
▁packet	-12457
▁weaker	-12458
▁Details	-12459
▁clients	-12460
▁defense	-12461
▁qualify	-12462
▁winning	-12463
▁convened	-12464
▁upholding	-12465
▁surrendered	-12466
▁developmental	-12467
▁modifications	-12468
▁IF	-12469
iven	-12470
▁SLP	-12471
▁Sai	-12472
▁Auro	-12473
▁wave	-12474
▁miser	-12475
▁smart	-12476
▁trite	-12477
▁Should	-12478
▁advent	-12479
▁intend	-12480
▁notion	-12481
▁conserv	-12482
▁streets	-12483
▁equipped	-12484
▁superint	-12485
▁weighing	-12486
▁Allowance	-12487
das	-12488
ugn	-12489
cons	-12490
eced	-12491
▁Tea	-12492
▁aug	-12493
▁mol	-12494
▁Muns	-12495
▁Team	-12496
▁brave	-12497
▁Contin	-12498
▁uphold	-12499
▁Acharya	-12500
▁Reports	-12501
▁hardware	-12502
▁panchayat	-12503
bled	-12504
▁Requ	-12505
▁aunt	-12506
▁ware	-12507
▁movie	-12508
▁nucle	-12509
▁Safety	-12510
▁Windows	-12511
▁dragged	-12512
▁accidents	-12513
▁festivals	-12514
▁Profession	-12515
▁resolutions	-12516
▁Departmental	-12517
idas	-12518
▁hut	-12519
oding	-12520
▁Down	-12521
▁Malk	-12522
master	-12523
▁Video	-12524
▁recru	-12525
▁Deepak	-12526
▁Rajput	-12527
▁remitted	-12528
▁threatening	-12529
▁FR	-12530
abetes	-12531
▁minim	-12532
▁snake	-12533
▁Mamlat	-12534
▁Shakti	-12535
▁Spirit	-12536
▁Versus	-12537
▁Display	-12538
▁mediation	-12539
▁paramount	-12540
▁alteration	-12541
▁utilization	-12542
oil	-12543
opl	-12544
▁Bis	-12545
▁auto	-12546
ussion	-12547
▁mango	-12548
▁Challen	-12549
▁coconut	-12550
▁Banerjee	-12551
▁abolition	-12552
▁gathering	-12553
▁inherited	-12554
orticulture	-12555
▁precedents	-12556
▁gro	-12557
▁Exts	-12558
▁Kali	-12559
▁TRAN	-12560
▁amaz	-12561
▁arts	-12562
▁laps	-12563
ESSAGE	-12564
▁sixth	-12565
▁troops	-12566
▁decimal	-12567
▁fitness	-12568
▁singing	-12569
▁provider	-12570
▁adjoining	-12571
▁disbelieve	-12572
▁concentration	-12573
ARE	-12574
ugal	-12575
▁Run	-12576
▁Tap	-12577
▁bug	-12578
▁fer	-12579
▁excav	-12580
▁glory	-12581
▁shoes	-12582
▁authors	-12583
▁Movement	-12584
▁implicit	-12585
▁mortgaged	-12586
▁persuaded	-12587
▁Scientific	-12588
▁irreparable	-12589
▁intentionally	-12590
allu	-12591
asive	-12592
▁nurt	-12593
▁obsc	-12594
▁pump	-12595
ranted	-12596
anishad	-12597
▁custod	-12598
▁humble	-12599
▁keyboard	-12600
▁predomin	-12601
▁redressal	-12602
▁prescribing	-12603
▁temporarily	-12604
AYS	-12605
pes	-12606
uka	-12607
andan	-12608
▁Kush	-12609
▁fond	-12610
▁Griev	-12611
▁Menon	-12612
▁Shant	-12613
▁burns	-12614
▁pharm	-12615
▁realm	-12616
▁rigid	-12617
▁vicar	-12618
▁franch	-12619
▁vagina	-12620
▁Library	-12621
▁envelop	-12622
▁intends	-12623
▁Americans	-12624
▁hypothesis	-12625
dam	-12626
hot	-12627
nar	-12628
rot	-12629
upp	-12630
eers	-12631
lesh	-12632
▁fan	-12633
aiver	-12634
outed	-12635
▁Jews	-12636
▁Memo	-12637
acific	-12638
venues	-12639
▁ports	-12640
▁Agrawal	-12641
▁Sanjeev	-12642
HAL	-12643
▁CB	-12644
itra	-12645
▁Pop	-12646
▁SER	-12647
▁Tik	-12648
▁hol	-12649
brane	-12650
otism	-12651
▁pion	-12652
owners	-12653
▁harsh	-12654
▁Serial	-12655
▁toward	-12656
▁desktop	-12657
▁insight	-12658
▁rituals	-12659
▁persuade	-12660
▁inception	-12661
▁recruited	-12662
▁retention	-12663
▁compliment	-12664
win	-12665
iscl	-12666
orms	-12667
othe	-12668
ancer	-12669
front	-12670
▁Iron	-12671
▁Rate	-12672
▁mant	-12673
▁spir	-12674
anchal	-12675
making	-12676
▁Solar	-12677
▁MESSAGE	-12678
▁directs	-12679
▁Darbhanga	-12680
▁diligence	-12681
▁Constituent	-12682
▁accountability	-12683
▁reasonableness	-12684
soon	-12685
▁Ken	-12686
▁Unt	-12687
▁ton	-12688
scale	-12689
▁Prit	-12690
▁Rana	-12691
▁Saha	-12692
▁ages	-12693
▁india	-12694
▁Muzaff	-12695
▁writes	-12696
position	-12697
▁enlarge	-12698
▁somehow	-12699
▁assigning	-12700
▁possibilities	-12701
२१	-12702
vara	-12703
▁elev	-12704
▁pink	-12705
▁flying	-12706
▁worksh	-12707
▁Default	-12708
▁anteced	-12709
▁bidding	-12710
▁deprive	-12711
▁printer	-12712
▁stamped	-12713
▁Councils	-12714
▁endorsed	-12715
▁forehead	-12716
▁promptly	-12717
▁Mamlatdar	-12718
▁canvassed	-12719
▁inspected	-12720
▁autonomous	-12721
▁Enforcement	-12722
aba	-12723
▁Chin	-12724
▁Word	-12725
▁grab	-12726
▁hung	-12727
rolled	-12728
▁Blood	-12729
▁Mills	-12730
▁nephew	-12731
▁therap	-12732
graduate	-12733
▁Chatter	-12734
▁promulg	-12735
▁segment	-12736
Inspector	-12737
▁Protocol	-12738
▁devotees	-12739
▁responses	-12740
▁warranted	-12741
▁Electronics	-12742
▁counselling	-12743
▁unsuccessful	-12744
▁Bre	-12745
▁cyl	-12746
▁ske	-12747
▁Roll	-12748
before	-12749
▁Manik	-12750
▁Panel	-12751
▁Honble	-12752
▁terrib	-12753
▁enlarged	-12754
▁magnitude	-12755
▁accidental	-12756
ato	-12757
def	-12758
▁Ud	-12759
irms	-12760
term	-12761
▁Ast	-12762
▁Kaz	-12763
▁Squ	-12764
ullah	-12765
▁sport	-12766
▁Needless	-12767
▁fourteen	-12768
▁pesticides	-12769
▁presenting	-12770
▁productive	-12771
▁forthcoming	-12772
▁confessional	-12773
▁disobedience	-12774
▁distinguishable	-12775
bat	-12776
nty	-12777
appu	-12778
▁Pin	-12779
achar	-12780
riers	-12781
▁Link	-12782
aution	-12783
bursed	-12784
▁chick	-12785
▁mercy	-12786
▁Budget	-12787
▁compel	-12788
▁connot	-12789
▁humans	-12790
economic	-12791
▁corners	-12792
▁enemies	-12793
▁succumb	-12794
▁vesting	-12795
▁Specific	-12796
▁Christians	-12797
▁experiments	-12798
▁Applications	-12799
▁accompanying	-12800
▁ascertaining	-12801
▁admissibility	-12802
▁authorization	-12803
ipp	-12804
▁ADV	-12805
ietal	-12806
▁Best	-12807
▁earm	-12808
▁Curiae	-12809
▁Sindhi	-12810
▁laches	-12811
chnology	-12812
▁Kannada	-12813
▁Surender	-12814
▁consensus	-12815
▁prospects	-12816
OUN	-12817
veli	-12818
▁OBC	-12819
angle	-12820
anker	-12821
eless	-12822
ulses	-12823
▁Duty	-12824
▁pays	-12825
▁push	-12826
ouring	-12827
▁magic	-12828
▁Adalat	-12829
▁Bhutan	-12830
▁plains	-12831
▁Mohalla	-12832
▁accepts	-12833
▁recruits	-12834
▁Electrical	-12835
▁purchasers	-12836
▁retrospect	-12837
▁Statistical	-12838
▁capabilities	-12839
▁mm	-12840
▁IPv	-12841
▁Job	-12842
▁Put	-12843
▁RAM	-12844
▁Tib	-12845
isive	-12846
venty	-12847
wealth	-12848
▁Mandi	-12849
▁Advert	-12850
▁Bihari	-12851
▁Immedi	-12852
▁affair	-12853
▁drought	-12854
▁movable	-12855
▁spreading	-12856
▁capability	-12857
▁satisfying	-12858
▁contemplates	-12859
agu	-12860
▁BS	-12861
▁sew	-12862
isers	-12863
▁Priy	-12864
▁Prob	-12865
▁Syed	-12866
▁Phase	-12867
▁judged	-12868
▁Emperor	-12869
▁chances	-12870
▁tenable	-12871
▁NATIONAL	-12872
▁appealed	-12873
▁conceded	-12874
▁peripher	-12875
▁Himalayan	-12876
▁conceived	-12877
▁invention	-12878
▁medically	-12879
▁conception	-12880
▁Bhubaneswar	-12881
Sh	-12882
▁Bodh	-12883
▁Very	-12884
▁peak	-12885
▁slog	-12886
ducted	-12887
nership	-12888
▁Perman	-12889
▁kumari	-12890
▁planet	-12891
▁cultures	-12892
▁vertical	-12893
▁adequately	-12894
▁Radhakrishnan	-12895
EA	-12896
MI	-12897
asy	-12898
UMAR	-12899
▁isn	-12900
andal	-12901
▁Brief	-12902
▁moves	-12903
▁scrap	-12904
▁assent	-12905
▁merger	-12906
▁poured	-12907
▁reluct	-12908
▁sensit	-12909
▁Trading	-12910
▁evaluate	-12911
▁maturity	-12912
▁literally	-12913
▁Contractor	-12914
nis	-12915
eded	-12916
fect	-12917
▁PET	-12918
▁pel	-12919
▁Anth	-12920
▁Bhim	-12921
▁Brij	-12922
▁Type	-12923
urable	-12924
▁reign	-12925
▁rhyth	-12926
▁coffee	-12927
▁couldn	-12928
▁crystal	-12929
▁enquire	-12930
▁reaches	-12931
▁eyewitnesses	-12932
▁nevertheless	-12933
rus	-12934
▁DP	-12935
well	-12936
▁Sid	-12937
▁Vaj	-12938
▁lone	-12939
▁mart	-12940
▁encry	-12941
▁smoke	-12942
▁trick	-12943
▁Museum	-12944
▁encumb	-12945
▁decrees	-12946
▁expense	-12947
▁advertised	-12948
▁invariably	-12949
▁deficiencies	-12950
▁administrator	-12951
▁GM	-12952
▁IO	-12953
pread	-12954
▁Fair	-12955
▁Fest	-12956
▁Host	-12957
▁Item	-12958
essors	-12959
▁actor	-12960
▁Transl	-12961
▁hatred	-12962
ffective	-12963
▁destiny	-12964
▁extraneous	-12965
▁publishing	-12966
▁variations	-12967
▁imperialism	-12968
▁innovations	-12969
aidu	-12970
meas	-12971
forma	-12972
▁JUST	-12973
▁ears	-12974
▁fool	-12975
▁Sikhs	-12976
▁Diplom	-12977
▁cousin	-12978
▁ration	-12979
aternity	-12980
▁restruct	-12981
▁Administr	-12982
▁intensity	-12983
▁demolition	-12984
▁forwarding	-12985
▁deprivation	-12986
▁extensively	-12987
▁Rehabilitation	-12988
uta	-12989
▁Gok	-12990
Judge	-12991
▁Tool	-12992
▁Chann	-12993
▁Patil	-12994
▁Siwan	-12995
▁stores	-12996
▁verbal	-12997
▁signals	-12998
▁airports	-12999
▁dwelling	-13000
▁factories	-13001
▁propriety	-13002
▁statistics	-13003
▁Jyotishpeeth	-13004
Reg	-13005
sex	-13006
▁JN	-13007
ucid	-13008
udra	-13009
ulal	-13010
▁Jog	-13011
itime	-13012
▁Soni	-13013
stream	-13014
▁Chowk	-13015
▁Quran	-13016
▁Rahul	-13017
▁tries	-13018
▁Earlier	-13019
▁nominal	-13020
▁Aurobind	-13021
▁Exhibits	-13022
▁exposure	-13023
▁mandates	-13024
▁Lokayukta	-13025
▁expanding	-13026
▁uncertain	-13027
▁certiorari	-13028
▁committees	-13029
▁structural	-13030
▁justifiable	-13031
▁procurement	-13032
▁Rabindranath	-13033
▁economically	-13034
▁Cad	-13035
▁Mak	-13036
▁nit	-13037
▁Durg	-13038
▁Vill	-13039
▁Queen	-13040
▁fides	-13041
▁maker	-13042
▁Arabia	-13043
▁curric	-13044
▁fiscal	-13045
▁habits	-13046
▁jungle	-13047
▁ninety	-13048
▁vimana	-13049
▁adulter	-13050
▁untouch	-13051
▁volumes	-13052
▁weightage	-13053
▁advantages	-13054
▁dimensions	-13055
ads	-13056
awa	-13057
fare	-13058
▁CRL	-13059
▁EVE	-13060
▁OFF	-13061
▁tum	-13062
aided	-13063
ettled	-13064
▁virus	-13065
▁Jaipur	-13066
▁Period	-13067
stituting	-13068
▁Intellig	-13069
▁abetment	-13070
▁restrain	-13071
▁Governors	-13072
▁incidence	-13073
▁complement	-13074
▁obstruction	-13075
▁lots	-13076
▁Arabs	-13077
▁excuse	-13078
▁noting	-13079
▁audited	-13080
▁beliefs	-13081
▁edition	-13082
▁forensic	-13083
▁Malayalam	-13084
▁enforcing	-13085
▁Partnership	-13086
▁grandfather	-13087
ela	-13088
obar	-13089
▁hem	-13090
▁sen	-13091
rator	-13092
▁Kart	-13093
▁fing	-13094
▁Dutta	-13095
▁Nayak	-13096
▁dimin	-13097
▁lacks	-13098
▁denies	-13099
▁detect	-13100
▁waiver	-13101
▁Witness	-13102
▁indulged	-13103
▁Ultimately	-13104
▁horizontal	-13105
▁overlooked	-13106
▁undergoing	-13107
▁prosecuting	-13108
ocy	-13109
heda	-13110
tery	-13111
▁Deo	-13112
▁sue	-13113
▁umb	-13114
▁motu	-13115
▁Lower	-13116
▁mills	-13117
▁Kishan	-13118
▁Thomas	-13119
itorious	-13120
▁affixed	-13121
▁controls	-13122
▁frequency	-13123
▁Processing	-13124
▁characterized	-13125
YA	-13126
lay	-13127
oja	-13128
oni	-13129
▁ji	-13130
quit	-13131
▁Mic	-13132
ignty	-13133
valid	-13134
▁caut	-13135
▁ling	-13136
▁Ocean	-13137
▁irrit	-13138
▁posed	-13139
orrhage	-13140
▁Mechan	-13141
▁phones	-13142
▁assumes	-13143
▁guiding	-13144
▁Tehsildar	-13145
▁inflation	-13146
▁Dwarkanath	-13147
▁Nevertheless	-13148
ESI	-13149
anty	-13150
five	-13151
▁Raw	-13152
gging	-13153
▁Qual	-13154
▁Vicer	-13155
▁deems	-13156
▁tears	-13157
verting	-13158
▁decent	-13159
▁Tenancy	-13160
▁availing	-13161
▁honoured	-13162
▁parental	-13163
▁expensive	-13164
▁illiterate	-13165
▁headquarters	-13166
▁legislations	-13167
▁Bac	-13168
▁Own	-13169
apsed	-13170
cetic	-13171
plate	-13172
▁Turn	-13173
▁loud	-13174
▁Surya	-13175
▁immig	-13176
▁Venkat	-13177
▁insult	-13178
▁Mineral	-13179
▁founder	-13180
witnesses	-13181
▁Aurobindo	-13182
▁wonderful	-13183
▁Production	-13184
▁conferring	-13185
▁hereinbefore	-13186
▁Ara	-13187
▁SID	-13188
arman	-13189
athan	-13190
▁Left	-13191
▁Step	-13192
▁appr	-13193
▁maid	-13194
▁uter	-13195
▁wrap	-13196
▁Paris	-13197
▁meets	-13198
ickshaw	-13199
▁Amount	-13200
▁Volume	-13201
▁carrier	-13202
▁dynasty	-13203
▁Vehicles	-13204
▁formally	-13205
▁interact	-13206
▁ordering	-13207
▁cartridges	-13208
▁tun	-13209
▁Yash	-13210
opathy	-13211
▁Radha	-13212
▁Saran	-13213
▁foods	-13214
▁Charan	-13215
esthetic	-13216
▁Cricket	-13217
▁Offices	-13218
▁ongoing	-13219
▁tickets	-13220
▁Material	-13221
▁cultivated	-13222
▁preservation	-13223
▁deliberations	-13224
afi	-13225
uded	-13226
▁Maz	-13227
▁RFP	-13228
illai	-13229
▁Waqf	-13230
▁dual	-13231
▁rans	-13232
akhand	-13233
▁crude	-13234
▁debit	-13235
▁numer	-13236
▁dinner	-13237
▁execut	-13238
▁ladies	-13239
▁disable	-13240
▁recital	-13241
▁Abdullah	-13242
▁certainty	-13243
▁purchases	-13244
▁realistic	-13245
▁transfers	-13246
▁incorporation	-13247
▁professionals	-13248
cho	-13249
▁ul	-13250
▁moh	-13251
odium	-13252
▁Greek	-13253
▁payee	-13254
▁worst	-13255
▁Auditor	-13256
▁JUSTICE	-13257
▁Physical	-13258
▁earnings	-13259
▁exchanged	-13260
▁businesses	-13261
olf	-13262
▁gh	-13263
▁Tan	-13264
▁ail	-13265
▁hrs	-13266
▁Kend	-13267
▁Patt	-13268
▁fare	-13269
apters	-13270
urring	-13271
▁Hemant	-13272
▁clouds	-13273
▁encash	-13274
▁leased	-13275
▁lesson	-13276
▁makers	-13277
▁rarely	-13278
▁sharma	-13279
▁superf	-13280
▁lateral	-13281
▁disaster	-13282
▁deviation	-13283
▁searching	-13284
▁conditional	-13285
▁Kon	-13286
▁MLC	-13287
osted	-13288
▁Kore	-13289
▁SHRI	-13290
witness	-13291
▁Yojana	-13292
▁photoc	-13293
▁Singles	-13294
▁charging	-13295
▁reciproc	-13296
▁confessed	-13297
▁fulfilment	-13298
osy	-13299
chron	-13300
▁Parv	-13301
▁tiny	-13302
agraha	-13303
inates	-13304
▁Tahas	-13305
▁abate	-13306
▁resum	-13307
▁vivid	-13308
▁Golden	-13309
Division	-13310
▁explore	-13311
▁Arunachal	-13312
▁divisions	-13313
▁Elementary	-13314
▁fulfilling	-13315
▁reflection	-13316
▁suggesting	-13317
▁confiscation	-13318
▁inadmissible	-13319
alu	-13320
hek	-13321
▁Bo	-13322
ikar	-13323
▁sty	-13324
▁Gate	-13325
▁beet	-13326
liable	-13327
▁Given	-13328
▁Dharam	-13329
▁museum	-13330
ologists	-13331
▁Schemes	-13332
▁Permanent	-13333
▁Irrigation	-13334
▁Provincial	-13335
▁concurrence	-13336
▁depreciation	-13337
ANT	-13338
angi	-13339
▁BAL	-13340
▁Dab	-13341
▁ICC	-13342
▁Pul	-13343
lings	-13344
▁Poth	-13345
▁Prav	-13346
▁Summ	-13347
▁daco	-13348
verage	-13349
▁Audio	-13350
▁angry	-13351
company	-13352
▁gender	-13353
▁legend	-13354
▁Pacific	-13355
▁seconds	-13356
▁Ravindra	-13357
▁swelling	-13358
▁improbable	-13359
GP	-13360
ii	-13361
ago	-13362
▁Nom	-13363
FAESI	-13364
▁Jose	-13365
▁Rich	-13366
ralaya	-13367
▁ambig	-13368
▁knock	-13369
itement	-13370
▁dictum	-13371
▁induce	-13372
▁Invalid	-13373
▁survival	-13374
▁enthusiasm	-13375
▁intelligent	-13376
ipt	-13377
ket	-13378
▁KI	-13379
osph	-13380
▁CAV	-13381
mohan	-13382
▁Activ	-13383
▁games	-13384
▁toile	-13385
examine	-13386
▁bounds	-13387
▁buffal	-13388
▁enrich	-13389
▁varies	-13390
▁clarity	-13391
▁Normally	-13392
▁Objection	-13393
▁abolished	-13394
▁secretary	-13395
▁liberation	-13396
▁mechanisms	-13397
▁precaution	-13398
▁concessions	-13399
▁specialized	-13400
Us	-13401
▁SIT	-13402
▁haw	-13403
▁torn	-13404
▁Floor	-13405
▁Naval	-13406
▁rites	-13407
▁lapsed	-13408
▁oldest	-13409
▁senses	-13410
▁autopsy	-13411
▁deficit	-13412
▁telecommun	-13413
▁contractors	-13414
shot	-13415
▁Gob	-13416
▁Hab	-13417
▁Jul	-13418
▁rab	-13419
▁Much	-13420
▁Samb	-13421
ENSION	-13422
▁Draft	-13423
▁memor	-13424
▁parad	-13425
▁patta	-13426
▁handing	-13427
ideration	-13428
▁Manufact	-13429
▁petroleum	-13430
▁agricultur	-13431
▁comparable	-13432
▁compulsion	-13433
▁sentiments	-13434
▁Ill	-13435
▁Lay	-13436
▁WOR	-13437
nings	-13438
▁Answ	-13439
▁disl	-13440
▁limbs	-13441
▁mosque	-13442
▁videos	-13443
▁Viceroy	-13444
▁compare	-13445
▁lifting	-13446
▁everyday	-13447
▁packages	-13448
▁variable	-13449
▁Upanishad	-13450
▁satellite	-13451
▁similarity	-13452
▁comparative	-13453
▁sovereignty	-13454
OME	-13455
babu	-13456
bury	-13457
phal	-13458
wadi	-13459
▁dub	-13460
lease	-13461
▁Mans	-13462
▁Mich	-13463
▁Pray	-13464
▁cens	-13465
iating	-13466
itably	-13467
▁Birth	-13468
▁Units	-13469
▁admir	-13470
▁loses	-13471
▁semen	-13472
▁sworn	-13473
▁unfit	-13474
▁opposing	-13475
▁consuming	-13476
▁ineligible	-13477
▁preferably	-13478
organisation	-13479
▁appropriately	-13480
▁SR	-13481
atri	-13482
face	-13483
ikip	-13484
inar	-13485
▁Hir	-13486
▁Suf	-13487
▁aqu	-13488
▁mac	-13489
▁horn	-13490
▁misp	-13491
▁Naidu	-13492
▁honey	-13493
▁zones	-13494
▁postal	-13495
ructuous	-13496
▁Benches	-13497
▁chronic	-13498
▁varying	-13499
▁morality	-13500
▁engineers	-13501
▁respected	-13502
▁distinctive	-13503
▁empowerment	-13504
▁philosophical	-13505
HER	-13506
lph	-13507
agan	-13508
▁BCC	-13509
▁Sch	-13510
▁cot	-13511
▁Cant	-13512
▁Nanda	-13513
▁Nizam	-13514
▁Suraj	-13515
▁delays	-13516
▁random	-13517
▁regret	-13518
▁ranging	-13519
▁typical	-13520
▁Medicine	-13521
▁Southern	-13522
▁enjoying	-13523
▁Fundamental	-13524
▁Commonwealth	-13525
▁connectivity	-13526
▁corporations	-13527
▁investigations	-13528
IVE	-13529
deo	-13530
ATED	-13531
have	-13532
▁Kak	-13533
▁MFA	-13534
▁Pud	-13535
▁Syn	-13536
▁tol	-13537
claim	-13538
field	-13539
▁Plot	-13540
▁whis	-13541
▁Koran	-13542
▁Radio	-13543
▁abras	-13544
▁hopes	-13545
▁wives	-13546
▁Prince	-13547
▁behest	-13548
▁dialog	-13549
▁Digital	-13550
▁acquies	-13551
▁passive	-13552
▁confused	-13553
▁instinct	-13554
▁membrane	-13555
▁rainfall	-13556
▁relieved	-13557
▁therefor	-13558
▁penalties	-13559
▁Concession	-13560
▁Securities	-13561
▁tantamount	-13562
▁individually	-13563
▁relationships	-13564
vil	-13565
adia	-13566
pose	-13567
usha	-13568
▁Dham	-13569
▁gest	-13570
mities	-13571
▁Goyal	-13572
▁brick	-13573
▁ranks	-13574
▁remit	-13575
▁vests	-13576
▁Vikram	-13577
▁Yamuna	-13578
▁landed	-13579
▁merged	-13580
▁unexpl	-13581
▁Systems	-13582
▁neutral	-13583
▁nursing	-13584
▁suffice	-13585
▁socially	-13586
▁subtract	-13587
▁supplying	-13588
otechnology	-13589
▁Samastipur	-13590
▁infructuous	-13591
▁disbursement	-13592
ede	-13593
▁ba	-13594
stan	-13595
ucks	-13596
vial	-13597
▁Imm	-13598
▁LPG	-13599
▁kin	-13600
▁lal	-13601
▁len	-13602
CTION	-13603
eterm	-13604
▁bars	-13605
▁exon	-13606
▁soph	-13607
▁debar	-13608
▁Ashish	-13609
▁subtle	-13610
izations	-13611
▁pursuit	-13612
▁mandated	-13613
▁Solicitor	-13614
▁Performance	-13615
▁Palestinians	-13616
KA	-13617
OD	-13618
▁SS	-13619
anki	-13620
ptic	-13621
▁Camb	-13622
▁Jord	-13623
▁indis	-13624
▁Commod	-13625
▁Island	-13626
▁indemn	-13627
▁ascetic	-13628
▁cluster	-13629
▁validly	-13630
▁vitiate	-13631
▁Vadodara	-13632
▁painting	-13633
▁romantic	-13634
▁surgical	-13635
▁breathing	-13636
▁Institutes	-13637
OW	-13638
ico	-13639
▁xx	-13640
ttes	-13641
▁Jun	-13642
▁NOC	-13643
amind	-13644
angal	-13645
▁Amin	-13646
usible	-13647
▁coord	-13648
▁gradu	-13649
▁surely	-13650
ikipedia	-13651
▁Pradeep	-13652
▁Turkish	-13653
renchment	-13654
▁lifetime	-13655
▁Generally	-13656
▁economies	-13657
▁employers	-13658
▁countrymen	-13659
▁anniversary	-13660
▁inaugurated	-13661
२२	-13662
aga	-13663
ifts	-13664
last	-13665
urit	-13666
▁Ros	-13667
iples	-13668
▁lean	-13669
itting	-13670
▁Treas	-13671
▁Sultan	-13672
▁petrol	-13673
▁redund	-13674
▁repugn	-13675
▁reside	-13676
▁Andaman	-13677
▁Manohar	-13678
▁Records	-13679
▁Tourism	-13680
▁abusing	-13681
▁inhabit	-13682
▁monsoon	-13683
▁Graduate	-13684
▁distress	-13685
▁enacting	-13686
▁Democratic	-13687
▁shareholding	-13688
do	-13689
▁na	-13690
▁Anj	-13691
▁Lol	-13692
▁tin	-13693
▁Viet	-13694
▁barg	-13695
▁bere	-13696
▁Field	-13697
▁escal	-13698
▁opted	-13699
▁slope	-13700
▁Manish	-13701
▁rubber	-13702
▁firearm	-13703
▁investor	-13704
▁Palestine	-13705
▁medicinal	-13706
▁deductions	-13707
▁altercation	-13708
▁supramental	-13709
▁Intelligence	-13710
▁facilitating	-13711
vy	-13712
bra	-13713
▁HR	-13714
▁Ki	-13715
made	-13716
pati	-13717
igate	-13718
▁cane	-13719
▁earthqu	-13720
▁fingers	-13721
▁hearsay	-13722
▁induced	-13723
▁loading	-13724
▁Accident	-13725
▁Statutes	-13726
▁analysed	-13727
▁warrants	-13728
▁provinces	-13729
▁Chatterjee	-13730
▁judicially	-13731
▁Uttarakhand	-13732
cop	-13733
▁ov	-13734
▁sa	-13735
ivas	-13736
▁Kitt	-13737
▁Meas	-13738
▁nice	-13739
▁Mahas	-13740
▁alike	-13741
▁capac	-13742
▁splend	-13743
▁Bhushan	-13744
▁cordial	-13745
▁SARFAESI	-13746
▁avoiding	-13747
▁deterior	-13748
▁orthodox	-13749
▁untenable	-13750
▁Mantralaya	-13751
▁afterwards	-13752
▁indicative	-13753
▁constituent	-13754
▁neighbouring	-13755
bert	-13756
olen	-13757
▁Loh	-13758
askar	-13759
ollen	-13760
▁NCTE	-13761
RISHNA	-13762
▁bliss	-13763
▁cheap	-13764
▁rupee	-13765
▁Altern	-13766
▁dollar	-13767
▁throat	-13768
▁washed	-13769
▁Inspect	-13770
▁Tripura	-13771
▁outward	-13772
▁pressing	-13773
▁defaulter	-13774
▁unreliable	-13775
gedy	-13776
ilee	-13777
rium	-13778
▁Doct	-13779
▁Fate	-13780
▁Goods	-13781
▁flesh	-13782
▁Ashram	-13783
▁Hamachi	-13784
▁License	-13785
▁heinous	-13786
▁implead	-13787
▁planted	-13788
▁apposite	-13789
▁exceeded	-13790
▁inquired	-13791
▁Terrorism	-13792
▁Litigation	-13793
▁systematic	-13794
▁Appointment	-13795
LD	-13796
▁ts	-13797
adha	-13798
▁ANN	-13799
▁Cop	-13800
▁Pot	-13801
▁Kund	-13802
▁cock	-13803
▁Pipes	-13804
▁demer	-13805
▁intox	-13806
▁urine	-13807
imental	-13808
▁lights	-13809
▁Vietnam	-13810
▁diabetes	-13811
▁foremost	-13812
▁inaction	-13813
▁spending	-13814
▁stronger	-13815
▁totality	-13816
▁Statutory	-13817
▁affording	-13818
▁disciples	-13819
▁evaluated	-13820
▁forgotten	-13821
▁consignment	-13822
▁Recommendation	-13823
BH	-13824
rec	-13825
▁CF	-13826
fast	-13827
ihad	-13828
itha	-13829
▁Nok	-13830
▁nic	-13831
▁ray	-13832
▁sli	-13833
adhar	-13834
iscrim	-13835
itates	-13836
lacing	-13837
oucher	-13838
▁Areas	-13839
▁COURT	-13840
▁Saheb	-13841
▁cargo	-13842
▁Accept	-13843
▁Sandeep	-13844
▁battery	-13845
▁dollars	-13846
▁lacking	-13847
▁unaided	-13848
▁proposes	-13849
▁perceived	-13850
▁Tahasildar	-13851
▁delivering	-13852
▁inordinate	-13853
▁misleading	-13854
▁redemption	-13855
NAT	-13856
eek	-13857
▁DC	-13858
▁SEZ	-13859
▁Rash	-13860
▁pale	-13861
▁trigg	-13862
▁Examin	-13863
▁Khasra	-13864
▁Gandhar	-13865
▁Greater	-13866
▁Install	-13867
▁Manilal	-13868
▁Shastri	-13869
▁handled	-13870
▁autonomy	-13871
▁magnetic	-13872
▁visitors	-13873
▁appraisal	-13874
▁enquiries	-13875
▁worldwide	-13876
▁circulated	-13877
▁fertilizers	-13878
▁specification	-13879
AA	-13880
oqu	-13881
urg	-13882
▁--	-13883
ethe	-13884
▁bog	-13885
arium	-13886
▁ampl	-13887
▁nest	-13888
▁Sadar	-13889
▁calam	-13890
▁shame	-13891
▁ships	-13892
▁tribe	-13893
▁Tehsil	-13894
▁airport	-13895
▁stressed	-13896
▁collusion	-13897
▁condemned	-13898
▁narrative	-13899
▁Submission	-13900
▁Immediately	-13901
▁disposition	-13902
▁nationalism	-13903
▁Communication	-13904
▁Implementation	-13905
kay	-13906
mani	-13907
▁Panj	-13908
▁jute	-13909
▁noon	-13910
▁tone	-13911
▁abide	-13912
▁storm	-13913
▁Jordan	-13914
warranted	-13915
▁embodied	-13916
▁vicinity	-13917
▁Evolution	-13918
▁provident	-13919
▁reiterate	-13920
▁attributes	-13921
▁endeavours	-13922
▁unambiguous	-13923
▁inconvenience	-13924
xx	-13925
▁ip	-13926
anag	-13927
born	-13928
rics	-13929
▁Sao	-13930
▁hub	-13931
▁Rout	-13932
ulator	-13933
▁boost	-13934
▁dairy	-13935
▁Sudhir	-13936
▁colours	-13937
▁doubted	-13938
▁Buddhism	-13939
▁baseless	-13940
▁attribute	-13941
▁intestine	-13942
▁isolation	-13943
▁coordinate	-13944
▁Vivekananda	-13945
▁consolidation	-13946
WA	-13947
▁ME	-13948
AKSH	-13949
mith	-13950
▁API	-13951
▁Kes	-13952
anium	-13953
araja	-13954
owner	-13955
▁Send	-13956
▁erad	-13957
▁unac	-13958
rishna	-13959
atience	-13960
▁TRANSP	-13961
▁hunger	-13962
▁micros	-13963
▁commend	-13964
▁entrust	-13965
▁parting	-13966
▁Memorial	-13967
▁dissatisf	-13968
▁Maintenance	-13969
▁disbelieved	-13970
Gen	-13971
▁PIN	-13972
▁VRS	-13973
ankaj	-13974
inees	-13975
▁Mass	-13976
▁Zila	-13977
▁twin	-13978
▁Metro	-13979
▁Still	-13980
▁lungs	-13981
iration	-13982
▁oppose	-13983
▁Advance	-13984
▁harness	-13985
▁researc	-13986
▁trivial	-13987
▁ministry	-13988
▁numbered	-13989
▁spectrum	-13990
▁Initially	-13991
▁minorities	-13992
▁practicable	-13993
AKA	-13994
thi	-13995
ahal	-13996
deed	-13997
tier	-13998
▁Fig	-13999
▁rib	-14000
▁une	-14001
heres	-14002
▁Bhup	-14003
▁MBBS	-14004
▁chol	-14005
▁harb	-14006
▁hole	-14007
▁knee	-14008
▁lend	-14009
▁spur	-14010
ughter	-14011
▁Demand	-14012
▁Pramod	-14013
▁catena	-14014
▁drawer	-14015
▁conject	-14016
▁virtual	-14017
▁Supervis	-14018
▁clearing	-14019
▁emotions	-14020
▁increment	-14021
▁reopening	-14022
▁candidature	-14023
▁transformed	-14024
▁upgradation	-14025
▁expectations	-14026
▁IB	-14027
▁VS	-14028
post	-14029
▁Bhu	-14030
▁Rig	-14031
▁Hamas	-14032
▁yards	-14033
▁embarr	-14034
▁ransom	-14035
▁remitt	-14036
▁Applying	-14037
▁condoned	-14038
▁interval	-14039
▁prolonged	-14040
▁vegetable	-14041
▁Monitoring	-14042
▁unwarranted	-14043
▁Conciliation	-14044
cot	-14045
anqu	-14046
brid	-14047
etus	-14048
▁Lac	-14049
▁NRI	-14050
▁ink	-14051
arted	-14052
ivance	-14053
ponder	-14054
▁typed	-14055
ductive	-14056
▁Pillai	-14057
▁immort	-14058
▁pledge	-14059
▁summon	-14060
▁Courses	-14061
▁episode	-14062
▁delegate	-14063
▁Europeans	-14064
▁Represent	-14065
▁finalized	-14066
▁nutrition	-14067
▁particles	-14068
▁Plaintiffs	-14069
▁Magistrates	-14070
▁reconstruction	-14071
ITH	-14072
pse	-14073
▁Es	-14074
ATES	-14075
conn	-14076
iler	-14077
ilst	-14078
▁Bik	-14079
▁Dash	-14080
▁KIAD	-14081
▁Maul	-14082
▁NIOS	-14083
▁Pond	-14084
▁agro	-14085
▁gram	-14086
▁kids	-14087
▁lien	-14088
▁nurs	-14089
▁zeal	-14090
ardhan	-14091
venant	-14092
▁Coast	-14093
▁Karan	-14094
▁inacc	-14095
▁overl	-14096
▁standi	-14097
▁Jyotirm	-14098
▁lectures	-14099
▁procured	-14100
▁stranger	-14101
▁Revolution	-14102
▁expiration	-14103
▁indefinite	-14104
▁recommending	-14105
GE	-14106
GS	-14107
ARI	-14108
qbal	-14109
▁DTA	-14110
▁lin	-14111
orate	-14112
▁Cash	-14113
▁Wing	-14114
▁drum	-14115
adhyay	-14116
viable	-14117
▁Crown	-14118
ructural	-14119
▁Asutosh	-14120
▁Brother	-14121
▁inspite	-14122
▁upgrade	-14123
▁earmarked	-14124
▁misplaced	-14125
▁connivance	-14126
▁provincial	-14127
▁Muzaffarpur	-14128
▁conflicting	-14129
▁meritorious	-14130
▁reimbursement	-14131
cm	-14132
imet	-14133
▁Lee	-14134
▁Nit	-14135
▁Ankit	-14136
▁Emerg	-14137
▁Ratan	-14138
▁proxy	-14139
▁torch	-14140
General	-14141
▁losing	-14142
▁pulled	-14143
▁tamper	-14144
▁marital	-14145
▁poultry	-14146
▁intensive	-14147
▁plausible	-14148
TPA	-14149
hee	-14150
▁Hum	-14151
▁SEL	-14152
▁Sex	-14153
▁aus	-14154
▁Meal	-14155
▁Moti	-14156
▁Sarp	-14157
▁cros	-14158
▁stro	-14159
itious	-14160
usalem	-14161
▁metic	-14162
▁notew	-14163
▁Animal	-14164
▁coastal	-14165
▁Products	-14166
▁drawings	-14167
▁kilogram	-14168
▁moderate	-14169
▁salaries	-14170
▁Jerusalem	-14171
▁elephants	-14172
▁multiplier	-14173
▁ho	-14174
ette	-14175
▁Kul	-14176
▁gal	-14177
endum	-14178
itius	-14179
▁Kach	-14180
▁Keep	-14181
▁Shat	-14182
▁dent	-14183
▁stig	-14184
▁unch	-14185
▁Frame	-14186
▁Almast	-14187
▁Ground	-14188
▁Lolita	-14189
▁symbols	-14190
▁Festival	-14191
▁Madhubani	-14192
▁TRANSPORT	-14193
▁assistant	-14194
▁attracting	-14195
▁noteworthy	-14196
▁replacement	-14197
▁withdrawing	-14198
▁probabilities	-14199
JEE	-14200
zer	-14201
ante	-14202
olly	-14203
▁GDP	-14204
▁ISO	-14205
▁Miz	-14206
▁SIM	-14207
astra	-14208
human	-14209
liers	-14210
▁Chaw	-14211
▁Chet	-14212
▁Film	-14213
▁Fold	-14214
▁Lala	-14215
▁Poet	-14216
▁SERV	-14217
teenth	-14218
▁embry	-14219
▁incul	-14220
▁infant	-14221
▁arrayed	-14222
▁sophist	-14223
▁confront	-14224
▁terrible	-14225
▁Exception	-14226
▁ambiguity	-14227
▁teachings	-14228
▁specifying	-14229
EB	-14230
ITED	-14231
abar	-14232
imity	-14233
▁BIFR	-14234
▁FTIL	-14235
akshmi	-14236
▁Daily	-14237
▁Kaush	-14238
▁clerk	-14239
olation	-14240
▁Dental	-14241
▁deadly	-14242
▁explan	-14243
umerable	-14244
▁artists	-14245
▁predict	-14246
unciation	-14247
▁dealings	-14248
▁linkages	-14249
▁monopoly	-14250
▁Applicant	-14251
▁evidently	-14252
▁retrenchment	-14253
▁authoritative	-14254
hik	-14255
▁PA	-14256
▁ld	-14257
asti	-14258
igha	-14259
iraj	-14260
▁HON	-14261
▁Kha	-14262
▁MUK	-14263
atore	-14264
oresh	-14265
parte	-14266
▁Bhoj	-14267
▁Budh	-14268
▁gifts	-14269
▁roles	-14270
▁tiger	-14271
▁waves	-14272
▁buried	-14273
▁routes	-14274
▁stolen	-14275
▁welcom	-14276
▁seventh	-14277
▁smoking	-14278
▁PETITION	-14279
▁succeeds	-14280
▁Affidavit	-14281
▁agitation	-14282
▁selecting	-14283
▁adjournment	-14284
▁inconsistency	-14285
sey	-14286
voc	-14287
▁LL	-14288
otes	-14289
udev	-14290
▁Beh	-14291
▁imb	-14292
marks	-14293
▁SAYS	-14294
▁Same	-14295
isable	-14296
▁Intro	-14297
▁digit	-14298
▁glaci	-14299
▁Chaluk	-14300
▁Summit	-14301
▁indulge	-14302
▁targets	-14303
▁Devendra	-14304
▁brilliant	-14305
▁estimates	-14306
▁Jyotirmath	-14307
▁depositing	-14308
▁concurrently	-14309
Ps	-14310
INK	-14311
▁Vr	-14312
anny	-14313
▁Dad	-14314
▁vel	-14315
▁Meer	-14316
▁NGOs	-14317
▁Subs	-14318
called	-14319
erving	-14320
▁Large	-14321
▁Puran	-14322
▁unreg	-14323
▁Dharma	-14324
▁cinema	-14325
▁counts	-14326
▁mirror	-14327
▁sevent	-14328
▁uncert	-14329
▁Workmen	-14330
▁centers	-14331
▁lasting	-14332
▁parking	-14333
▁crystall	-14334
▁decrease	-14335
▁infected	-14336
▁prevents	-14337
▁Mauritius	-14338
▁favourite	-14339
▁furniture	-14340
▁succumbed	-14341
▁succeeding	-14342
▁concealment	-14343
OND	-14344
uis	-14345
anna	-14346
aryn	-14347
iman	-14348
▁mes	-14349
least	-14350
▁NEET	-14351
▁camel	-14352
▁rider	-14353
irement	-14354
▁Mosque	-14355
▁horses	-14356
▁Between	-14357
▁renders	-14358
▁vaginal	-14359
▁magazine	-14360
▁hereditary	-14361
▁transplant	-14362
▁Cooperation	-14363
▁erroneously	-14364
▁sanctioning	-14365
auc	-14366
▁Ox	-14367
arial	-14368
▁Bare	-14369
▁pipe	-14370
▁Nokia	-14371
▁guest	-14372
▁naked	-14373
▁aggrav	-14374
▁infect	-14375
imbatore	-14376
▁Vehicle	-14377
▁critics	-14378
▁tractor	-14379
▁resigned	-14380
▁rotation	-14381
▁Relations	-14382
▁Wikipedia	-14383
▁hierarchy	-14384
▁scientist	-14385
▁cancelling	-14386
▁cigarettes	-14387
▁impediment	-14388
▁nationalist	-14389
▁unjustified	-14390
IAN	-14391
lad	-14392
ansi	-14393
teen	-14394
▁PAR	-14395
eline	-14396
▁Farid	-14397
▁grows	-14398
▁ninet	-14399
▁smugg	-14400
ampered	-14401
uscript	-14402
▁Garden	-14403
▁Kittur	-14404
▁Sunita	-14405
▁themes	-14406
▁condone	-14407
▁tribute	-14408
▁Sarojini	-14409
▁clothing	-14410
▁shopping	-14411
▁welcomed	-14412
▁assembled	-14413
▁providers	-14414
▁Coimbatore	-14415
▁overwhelming	-14416
can	-14417
isk	-14418
▁IM	-14419
apse	-14420
cotic	-14421
▁Heav	-14422
▁Pant	-14423
▁obey	-14424
asaheb	-14425
▁Youth	-14426
▁pests	-14427
assador	-14428
▁Rohtas	-14429
▁ceases	-14430
▁evolve	-14431
▁lapses	-14432
▁refunded	-14433
▁Presently	-14434
▁intending	-14435
▁paintings	-14436
▁depression	-14437
▁linguistic	-14438
▁scholarship	-14439
▁Professional	-14440
▁inflammation	-14441
▁specifications	-14442
ASS	-14443
Tube	-14444
▁Gal	-14445
▁ank	-14446
▁cab	-14447
▁cel	-14448
anish	-14449
orily	-14450
▁Mian	-14451
▁Relying	-14452
▁refuses	-14453
▁resides	-14454
▁restaur	-14455
▁washing	-14456
▁Universal	-14457
▁companion	-14458
▁subsistence	-14459
▁Consultation	-14460
▁superintendence	-14461
ania	-14462
avur	-14463
▁HIV	-14464
▁Prop	-14465
▁ours	-14466
ritsar	-14467
▁moist	-14468
▁Bhagav	-14469
▁Option	-14470
▁copper	-14471
▁roster	-14472
▁Krishan	-14473
▁relinqu	-14474
▁Backward	-14475
▁Citizens	-14476
▁aesthetic	-14477
▁Literature	-14478
▁capacities	-14479
▁insecticides	-14480
▁intermediate	-14481
IO	-14482
.--	-14483
iro	-14484
▁AID	-14485
▁PDF	-14486
olish	-14487
▁alph	-14488
▁onto	-14489
▁trip	-14490
atible	-14491
▁boxes	-14492
▁enjoin	-14493
piratory	-14494
▁cabinet	-14495
▁offline	-14496
▁Sarpanch	-14497
▁acquaint	-14498
▁eighteen	-14499
▁ancillary	-14500
▁formulate	-14501
▁possesses	-14502
▁Assistance	-14503
▁terminating	-14504
▁reservations	-14505
▁unconditional	-14506
Ind	-14507
appy	-14508
ball	-14509
▁Wal	-14510
ringe	-14511
▁brah	-14512
appeal	-14513
▁Incre	-14514
▁bonus	-14515
▁Delete	-14516
▁Sunder	-14517
▁academ	-14518
▁filter	-14519
▁Counter	-14520
▁heights	-14521
▁worried	-14522
idespread	-14523
▁noticing	-14524
▁prestige	-14525
▁Complaint	-14526
▁Different	-14527
▁Emergency	-14528
▁Religious	-14529
▁ambulance	-14530
▁surprised	-14531
▁liquidator	-14532
▁Proceedings	-14533
TO	-14534
ULT	-14535
▁Ky	-14536
▁PB	-14537
▁Ro	-14538
▁SM	-14539
list	-14540
orph	-14541
oven	-14542
▁Apr	-14543
▁Was	-14544
▁rum	-14545
▁Quar	-14546
▁RERA	-14547
▁Swed	-14548
▁jeep	-14549
racted	-14550
▁Iqbal	-14551
▁Choose	-14552
▁minded	-14553
▁equated	-14554
▁freight	-14555
▁promiss	-14556
▁tragedy	-14557
▁wedding	-14558
▁delicate	-14559
▁complainants	-14560
UF	-14561
vo	-14562
las	-14563
▁Kr	-14564
inth	-14565
uate	-14566
▁Bay	-14567
▁Kum	-14568
▁bif	-14569
ercul	-14570
isons	-14571
▁Bhan	-14572
▁Decc	-14573
▁User	-14574
▁gran	-14575
▁kick	-14576
ispens	-14577
ubilee	-14578
▁Zonal	-14579
▁hindi	-14580
▁crafts	-14581
▁refrain	-14582
▁annually	-14583
▁militant	-14584
[...]
