<unk>	0
<s>	0
</s>	0
UuRrLl	0
DdAaTtEe	0
NnUuMm	0
▁	-3.1899
▁the	-3.19459
▁.	-3.43325
▁,	-3.51157
▁of	-3.53343
s	-3.76796
▁and	-3.99672
▁to	-4.03133
▁in	-4.19545
▁a	-4.33116
▁is	-4.67463
;	-4.89229
▁&	-4.94103
▁-	-5.04141
०	-5.06027
▁for	-5.0771
▁that	-5.14173
▁The	-5.16785
ing	-5.21511
ed	-5.24388
apos	-5.26226
▁be	-5.29205
▁or	-5.35113
▁by	-5.46323
▁on	-5.47116
▁)	-5.49722
▁(	-5.50107
▁as	-5.52417
▁was	-5.54036
▁s	-5.55303
▁with	-5.58346
▁are	-5.6485
१	-5.66215
▁it	-5.67164
.	-5.69796
▁not	-5.75602
▁this	-5.79609
d	-5.85432
▁which	-5.88311
▁I	-5.89472
▁from	-5.92884
▁have	-5.95429
▁has	-5.95892
▁an	-6.00197
▁his	-6.00701
▁at	-6.09845
ly	-6.101
▁:	-6.13075
▁A	-6.13969
e	-6.14253
▁he	-6.20121
▁India	-6.26151
▁you	-6.2621
er	-6.30861
२	-6.3178
-	-6.33826
y	-6.36362
▁In	-6.36577
▁all	-6.38163
al	-6.42649
▁can	-6.46645
▁any	-6.4855
▁their	-6.50411
▁It	-6.50611
▁one	-6.50626
▁will	-6.5152
▁been	-6.52068
▁we	-6.54757
▁also	-6.58577
▁had	-6.60775
▁other	-6.61125
▁/	-6.66937
▁its	-6.68355
▁were	-6.68953
▁but	-6.69093
▁”	-6.69721
▁such	-6.72906
n	-6.73955
▁under	-6.73982
a	-6.75126
▁He	-6.7513
▁“	-6.76024
▁who	-6.8122
▁may	-6.81412
▁;	-6.81505
▁S	-6.82407
▁our	-6.83255
▁they	-6.83578
▁time	-6.85515
es	-6.85667
▁there	-6.89053
t	-6.89684
▁This	-6.90421
▁up	-6.93062
▁out	-6.94102
▁so	-6.9429
३	-6.95364
▁?	-6.95375
▁no	-6.96437
i	-6.97795
th	-6.97818
▁more	-6.98268
▁should	-6.99022
▁people	-6.99771
▁would	-7.00212
▁%	-7.01631
▁re	-7.01697
▁them	-7.0173
r	-7.02001
▁only	-7.04592
▁if	-7.05646
▁into	-7.06837
▁about	-7.06966
▁Act	-7.07672
▁do	-7.1131
▁like	-7.13364
▁these	-7.14749
▁when	-7.15067
▁him	-7.16127
m	-7.16378
▁made	-7.16515
▁two	-7.16659
▁over	-7.17056
▁your	-7.17734
▁t	-7.19145
or	-7.19651
▁’	-7.19995
▁shall	-7.20104
▁some	-7.2088
▁Indian	-7.21601
in	-7.22661
▁new	-7.24018
▁P	-7.24555
▁than	-7.25766
▁State	-7.2747
l	-7.27781
▁Government	-7.28111
▁her	-7.29978
ion	-7.30494
▁C	-7.31072
quot	-7.31464
ic	-7.32118
▁said	-7.33322
▁being	-7.34308
lt	-7.34333
ation	-7.35074
▁But	-7.35622
▁life	-7.35627
▁Court	-7.36541
▁after	-7.36594
able	-7.37322
▁where	-7.38365
▁un	-7.39061
▁We	-7.40993
▁first	-7.42035
st	-7.42095
▁years	-7.42128
▁country	-7.42472
▁me	-7.42529
▁through	-7.43146
ity	-7.43255
▁B	-7.43598
▁very	-7.45187
▁my	-7.45439
ers	-7.46037
an	-7.47695
▁what	-7.47913
k	-7.48061
▁year	-7.48894
▁work	-7.48918
४	-7.4901
▁world	-7.50535
▁President	-7.50729
▁So	-7.5099
▁could	-7.51052
▁must	-7.52049
▁well	-7.52662
▁And	-7.52665
▁person	-7.53304
▁case	-7.53453
gt	-7.55034
▁b	-7.55676
h	-7.56885
▁per	-7.5737
▁many	-7.58357
▁before	-7.58763
▁L	-7.58917
▁If	-7.59788
▁between	-7.59863
▁There	-7.60375
ar	-7.61124
▁used	-7.61534
▁D	-7.61685
▁make	-7.62861
▁part	-7.63463
ness	-7.6384
amp	-7.6531
o	-7.65622
▁day	-7.66297
il	-7.66337
▁even	-7.67015
▁section	-7.67315
▁To	-7.68306
en	-7.685
▁sub	-7.69985
▁way	-7.70246
ment	-7.70627
▁then	-7.70826
▁law	-7.72656
u	-7.72691
▁right	-7.73434
ma	-7.73585
le	-7.73714
▁same	-7.73953
na	-7.74149
▁system	-7.7481
▁They	-7.75615
▁An	-7.75671
ta	-7.76356
▁take	-7.76386
▁M	-7.7666
▁place	-7.76757
▁most	-7.77282
▁now	-7.77425
us	-7.77499
on	-7.77777
▁development	-7.77782
▁As	-7.77915
▁order	-7.77952
▁number	-7.78136
▁Re	-7.78313
ive	-7.78859
▁G	-7.7897
▁get	-7.7924
c	-7.79536
ri	-7.802
▁use	-7.81254
▁because	-7.81737
ti	-7.81788
ur	-7.82234
re	-7.83477
▁against	-7.83641
▁during	-7.83685
▁R	-7.837
▁public	-7.83788
▁N	-7.8401
▁us	-7.84336
ate	-7.84424
▁man	-7.84829
▁those	-7.85723
▁long	-7.85755
b	-7.85781
▁power	-7.85959
it	-7.86003
▁own	-7.86235
▁F	-7.88002
ent	-7.88079
▁period	-7.8848
▁For	-7.8868
▁water	-7.88815
▁go	-7.89214
▁great	-7.8984
ul	-7.89858
▁different	-7.90163
am	-7.90222
▁You	-7.90383
g	-7.90457
▁just	-7.90471
ant	-7.91321
▁set	-7.91543
५	-7.91546
▁three	-7.91688
▁good	-7.91971
▁both	-7.92082
▁de	-7.92136
▁p	-7.92319
▁E	-7.92837
▁need	-7.93192
▁she	-7.93841
▁called	-7.94331
li	-7.94785
at	-7.94971
▁K	-7.9513
A	-7.95206
▁No	-7.95401
▁here	-7.96095
p	-7.96154
▁see	-7.9628
▁etc	-7.97819
▁form	-7.97858
ary	-7.97963
▁did	-7.98255
▁given	-7.98417
id	-7.99099
ch	-7.99111
▁National	-7.99395
▁know	-7.99443
te	-7.99734
as	-7.99985
▁T	-8.00609
ra	-8.00677
▁f	-8.01249
▁down	-8.01432
▁state	-8.02316
▁‘	-8.02654
ism	-8.03155
▁much	-8.03368
▁without	-8.03532
▁e	-8.03546
▁process	-8.04498
▁each	-8.04539
▁information	-8.04694
▁important	-8.04724
▁means	-8.04781
▁every	-8.048
▁present	-8.05704
man	-8.05729
el	-8.05949
▁does	-8.05951
ro	-8.06486
I	-8.06628
um	-8.06874
▁come	-8.07171
la	-8.0719
▁government	-8.07218
▁co	-8.08106
▁how	-8.08424
S	-8.08454
▁U	-8.08898
▁m	-8.09333
▁back	-8.09759
▁help	-8.10222
▁found	-8.10298
▁body	-8.10552
▁within	-8.10622
▁business	-8.11331
▁account	-8.12703
f	-8.12785
▁am	-8.1287
▁human	-8.14007
ia	-8.14028
x	-8.14423
▁various	-8.14437
▁end	-8.14704
▁v	-8.14919
▁social	-8.15087
▁c	-8.15198
▁amount	-8.15822
▁When	-8.16038
▁court	-8.16791
▁last	-8.17065
to	-8.17537
▁taken	-8.1754
▁High	-8.17684
B	-8.17688
▁name	-8.17891
▁another	-8.1796
less	-8.18016
▁education	-8.18486
▁d	-8.19276
▁!	-8.19309
▁known	-8.19405
▁income	-8.20164
▁respect	-8.20395
▁Shri	-8.20573
age	-8.20613
▁while	-8.20641
▁On	-8.21115
▁view	-8.21305
▁small	-8.21339
▁Central	-8.21803
sh	-8.2187
▁company	-8.22117
section	-8.23535
ya	-8.23649
ter	-8.24087
P	-8.24103
▁dis	-8.24304
▁give	-8.24524
▁Commission	-8.24545
▁language	-8.2483
▁large	-8.25025
ish	-8.25072
▁going	-8.25081
▁non	-8.25104
▁All	-8.25191
▁H	-8.25368
▁cannot	-8.25908
se	-8.26077
ry	-8.26133
ance	-8.26555
▁times	-8.27222
▁want	-8.28198
▁high	-8.28505
▁OF	-8.28513
C	-8.28525
▁These	-8.28784
▁days	-8.28995
▁i	-8.29037
▁W	-8.29558
ce	-8.29629
▁{	-8.30342
▁policy	-8.30361
▁children	-8.30518
▁service	-8.31038
▁}	-8.31046
▁—	-8.31333
▁De	-8.31608
▁support	-8.31615
▁available	-8.31839
et	-8.32063
▁What	-8.32445
▁mind	-8.3271
▁...	-8.33082
ni	-8.33176
▁far	-8.33386
▁become	-8.33508
is	-8.33591
▁death	-8.33726
▁economic	-8.33881
▁J	-8.33896
▁At	-8.33935
▁came	-8.34005
di	-8.34045
▁countries	-8.34982
▁due	-8.35035
▁today	-8.35418
▁action	-8.35604
▁g	-8.3567
ir	-8.35677
▁hand	-8.36042
▁matter	-8.36216
▁V	-8.36263
▁value	-8.36436
ver	-8.36509
▁whole	-8.36526
▁including	-8.36704
▁say	-8.3686
ut	-8.3691
ated	-8.37016
ge	-8.37032
▁members	-8.37082
▁His	-8.37184
▁interest	-8.37319
▁provide	-8.38249
▁land	-8.38299
▁O	-8.38333
j	-8.38354
▁Section	-8.38493
▁political	-8.38643
▁national	-8.38744
est	-8.39027
▁self	-8.39369
▁too	-8.39417
ol	-8.3979
▁fact	-8.39812
▁done	-8.39826
▁Rs	-8.40106
▁area	-8.4025
▁Supreme	-8.40515
▁family	-8.40725
▁free	-8.40903
▁something	-8.40917
▁think	-8.40976
▁provisions	-8.40982
▁0	-8.41177
ies	-8.41364
▁States	-8.41367
ous	-8.41801
▁find	-8.41882
lo	-8.41883
w	-8.4189
▁upon	-8.41965
▁services	-8.42085
▁look	-8.42885
ling	-8.4292
ist	-8.43621
▁society	-8.43672
▁women	-8.43781
▁cases	-8.43845
▁capital	-8.43992
pur	-8.44431
▁subject	-8.44445
▁change	-8.44626
▁common	-8.44629
▁head	-8.44716
ine	-8.44802
▁date	-8.44806
▁She	-8.44955
६	-8.45054
ot	-8.45097
▁level	-8.45186
ne	-8.45402
▁based	-8.45409
▁less	-8.45754
▁certain	-8.45928
im	-8.46007
▁four	-8.46103
tra	-8.46162
ak	-8.46238
▁knowledge	-8.46307
▁old	-8.46367
E	-8.46632
▁point	-8.46755
▁Delhi	-8.47493
▁nature	-8.47883
▁New	-8.47936
▁areas	-8.48056
D	-8.48141
▁control	-8.48162
▁British	-8.48284
▁result	-8.48336
ci	-8.48363
▁provided	-8.48734
op	-8.4874
▁again	-8.48952
▁Bhavan	-8.48972
▁further	-8.49082
▁making	-8.49248
▁left	-8.49336
▁food	-8.49564
▁best	-8.49704
▁cent	-8.50005
▁Singh	-8.50124
▁_	-8.50232
me	-8.50396
▁necessary	-8.50441
▁Constitution	-8.50529
▁That	-8.50819
▁few	-8.50848
▁question	-8.50926
▁held	-8.50998
▁pro	-8.51024
▁put	-8.51152
▁away	-8.51269
▁One	-8.51275
▁words	-8.51329
▁window	-8.51658
▁special	-8.5193
▁local	-8.52316
0	-8.52639
▁Dr	-8.52693
▁always	-8.52716
▁English	-8.52763
▁con	-8.52766
ful	-8.52806
▁Na	-8.52928
▁having	-8.53075
▁off	-8.53088
▁whether	-8.53334
▁still	-8.53456
▁following	-8.53518
▁full	-8.53796
ad	-8.53822
▁clause	-8.53881
▁five	-8.53932
va	-8.54087
▁child	-8.54091
▁position	-8.54103
▁book	-8.54127
▁sector	-8.54183
▁ex	-8.54186
▁home	-8.54327
▁group	-8.54334
▁application	-8.54716
▁act	-8.54721
▁Sa	-8.54775
▁Hindi	-8.54939
▁age	-8.55031
▁required	-8.55409
▁foreign	-8.55458
de	-8.55654
H	-8.55797
ha	-8.5602
▁Committee	-8.56229
▁light	-8.56249
▁growth	-8.56273
▁second	-8.56403
▁Ma	-8.56534
he	-8.56884
mo	-8.569
▁health	-8.57209
ence	-8.57298
▁little	-8.57304
▁God	-8.57312
▁Rashtrapati	-8.57526
ac	-8.57748
▁possible	-8.57751
▁among	-8.5782
▁things	-8.57937
▁Council	-8.58026
▁money	-8.58052
▁data	-8.58154
hi	-8.58329
▁purpose	-8.58354
▁love	-8.58427
ting	-8.58508
▁above	-8.58729
▁himself	-8.5893
▁Me	-8.58991
▁Parliament	-8.59073
▁war	-8.59107
▁heart	-8.59497
ty	-8.59834
tion	-8.60123
▁Mr	-8.60137
▁total	-8.60439
▁itself	-8.60457
▁After	-8.60534
▁men	-8.60657
▁house	-8.61117
▁open	-8.61173
z	-8.6133
▁pre	-8.61919
▁towards	-8.62634
ll	-8.62723
▁main	-8.62908
▁industry	-8.63237
tic	-8.63323
▁tax	-8.63529
▁several	-8.63718
lu	-8.6391
▁later	-8.64272
▁individual	-8.6432
▁&#91;	-8.64457
▁equal	-8.64896
▁Congress	-8.64966
▁never	-8.65032
▁Ka	-8.65032
sa	-8.65122
▁effect	-8.65133
▁research	-8.65153
▁x	-8.65186
ial	-8.65628
be	-8.65832
▁type	-8.65854
ga	-8.66086
▁RRB	-8.66111
▁around	-8.66235
up	-8.66252
▁Hindu	-8.66501
ja	-8.66849
▁computer	-8.66934
▁cost	-8.67116
▁financial	-8.67133
▁production	-8.6717
M	-8.67179
▁side	-8.67297
▁Union	-8.67324
▁office	-8.67334
▁Minister	-8.67346
▁&#93;	-8.67353
▁Co	-8.67363
▁list	-8.67401
vi	-8.67467
wa	-8.67482
▁course	-8.67501
▁young	-8.67598
▁let	-8.6768
RB	-8.67847
om	-8.67995
▁referred	-8.68085
▁Department	-8.6818
▁Ra	-8.68347
▁post	-8.68552
v	-8.68666
▁took	-8.68807
▁already	-8.69238
ating	-8.6937
go	-8.69433
▁therefore	-8.69462
▁either	-8.69564
▁market	-8.70272
▁thought	-8.703
▁rate	-8.70314
ag	-8.70315
▁since	-8.7063
ted	-8.71025
fi	-8.71259
▁term	-8.71445
em	-8.71615
▁quality	-8.7176
▁kind	-8.71838
▁pay	-8.71976
▁persons	-8.71977
R	-8.72117
▁occasion	-8.72205
ical	-8.72413
▁higher	-8.72414
▁general	-8.72633
co	-8.72635
mb	-8.72752
▁however	-8.72906
pi	-8.731
▁problem	-8.73162
▁might	-8.73277
▁file	-8.73293
▁activities	-8.73555
our	-8.73578
▁better	-8.73591
un	-8.73623
▁Man	-8.73718
▁particular	-8.73805
▁property	-8.74121
ap	-8.74179
▁website	-8.74289
▁cause	-8.74315
▁force	-8.74372
▁Do	-8.74383
no	-8.74396
▁However	-8.74561
▁Con	-8.74863
▁international	-8.75086
▁Some	-8.75138
▁University	-8.75443
▁received	-8.75562
▁plant	-8.75665
▁next	-8.75951
▁seen	-8.75954
V	-8.76068
▁Muslim	-8.76124
▁Ba	-8.76342
▁THE	-8.76373
▁bank	-8.76438
ji	-8.7649
▁nation	-8.76616
ct	-8.7691
▁short	-8.76991
▁keep	-8.77062
▁House	-8.77102
▁along	-8.7728
७	-8.77413
▁play	-8.77439
▁Law	-8.77479
N	-8.77491
▁future	-8.77732
▁reason	-8.77907
▁major	-8.77978
▁together	-8.78098
▁authority	-8.78231
▁went	-8.78244
▁don	-8.78599
▁project	-8.78683
ure	-8.78715
▁role	-8.78752
▁thing	-8.78809
▁basis	-8.78874
▁face	-8.7929
▁got	-8.79299
ru	-8.79382
O	-8.79443
▁Bank	-8.79492
▁sense	-8.79656
▁working	-8.79679
▁history	-8.79764
▁example	-8.80052
▁started	-8.80093
▁institutions	-8.80137
▁became	-8.80199
▁others	-8.80233
▁credit	-8.80356
▁line	-8.80531
▁bring	-8.80633
▁freedom	-8.80736
▁though	-8.80826
▁trade	-8.80948
▁report	-8.80996
▁General	-8.81013
▁network	-8.81016
▁With	-8.81163
▁return	-8.81534
00	-8.82104
gu	-8.82131
▁word	-8.82227
G	-8.82293
▁technology	-8.82345
▁related	-8.82497
▁party	-8.82607
▁La	-8.82789
▁visit	-8.8281
▁Pradesh	-8.82922
ally	-8.83101
▁school	-8.8312
▁scheme	-8.8315
▁problems	-8.83163
▁air	-8.83277
▁movement	-8.83356
▁written	-8.83382
ee	-8.83513
oc	-8.83696
▁Su	-8.83989
▁access	-8.84308
▁legal	-8.84483
nd	-8.84519
▁modern	-8.84673
▁often	-8.84692
T	-8.84723
rs	-8.84767
L	-8.85056
▁rights	-8.85065
▁manner	-8.85088
▁once	-8.85208
ve	-8.85459
▁class	-8.85723
▁care	-8.8574
kar	-8.85777
▁field	-8.85782
min	-8.85839
▁regard	-8.86117
▁months	-8.86259
K	-8.86291
▁security	-8.86454
▁read	-8.86537
▁address	-8.86548
▁matters	-8.86597
▁Chief	-8.86649
▁relating	-8.86682
ck	-8.86753
▁St	-8.86754
▁goods	-8.86814
ba	-8.86866
▁brought	-8.86882
▁Development	-8.86886
▁established	-8.86886
ities	-8.86904
▁considered	-8.86926
▁able	-8.87076
▁Bengal	-8.87484
mi	-8.87511
▁transfer	-8.87543
ian	-8.87545
▁Gandhi	-8.8767
ab	-8.87901
▁previous	-8.87955
ka	-8.88136
▁key	-8.88217
▁member	-8.8836
▁paid	-8.88449
▁Be	-8.88477
▁conditions	-8.88507
▁terms	-8.88557
▁true	-8.88875
▁real	-8.89146
F	-8.89152
▁culture	-8.89205
▁progress	-8.89275
▁village	-8.89413
▁n	-8.8971
▁six	-8.89734
▁students	-8.89819
▁Al	-8.89878
▁share	-8.89991
▁mother	-8.90146
▁blood	-8.90208
▁Ministry	-8.90311
▁live	-8.90335
▁decision	-8.90914
▁ten	-8.91311
▁religious	-8.91423
▁show	-8.91584
▁million	-8.91605
▁past	-8.91708
con	-8.91739
▁strong	-8.91866
and	-8.92142
▁living	-8.92195
▁rule	-8.92252
os	-8.92399
men	-8.92523
ise	-8.9288
▁needs	-8.92892
ud	-8.92968
ven	-8.93049
▁story	-8.93189
▁community	-8.93399
▁issue	-8.93423
▁clear	-8.93436
ig	-8.93646
▁payment	-8.93967
▁natural	-8.94141
▁art	-8.94374
▁di	-8.94468
ang	-8.94541
iv	-8.94638
har	-8.94826
▁material	-8.95015
▁Now	-8.9506
▁population	-8.95128
▁create	-8.95176
▁car	-8.95201
▁call	-8.9525
▁justice	-8.95329
▁Mukherjee	-8.95451
▁complete	-8.95598
pt	-8.95638
ram	-8.95741
ised	-8.9587
▁energy	-8.95961
▁concerned	-8.95985
▁passed	-8.96252
▁personal	-8.96268
W	-8.96289
▁specified	-8.96486
▁condition	-8.96684
ran	-8.96697
▁study	-8.96879
▁training	-8.97096
▁demand	-8.97104
han	-8.97184
▁taking	-8.97292
ana	-8.97332
▁management	-8.97519
▁disease	-8.97565
▁ve	-8.97665
▁Ch	-8.97768
▁Justice	-8.9792
▁using	-8.98163
land	-8.98168
▁father	-8.98185
ized	-8.98433
▁programme	-8.98579
ors	-8.98682
ium	-8.99027
▁ensure	-8.99062
▁religion	-8.99067
▁outside	-8.99088
▁Vi	-8.99233
▁purposes	-8.99341
per	-8.99346
▁My	-8.99377
▁Muslims	-8.9939
▁stage	-8.99463
▁United	-8.99583
▁industrial	-8.99597
ward	-8.99654
▁opens	-8.99655
▁message	-8.99728
▁early	-8.99728
▁PRESIDENT	-8.99875
▁Pa	-8.99923
▁physical	-8.99989
▁ground	-9.00067
▁Un	-9.00128
▁External	-9.0022
▁century	-9.00371
▁rules	-9.0038
▁experience	-9.00616
tu	-9.00663
▁ma	-9.00712
▁increase	-9.00738
vo	-9.00765
pa	-9.00894
▁asked	-9.00963
▁carry	-9.0105
▁appeal	-9.01099
Y	-9.01173
▁close	-9.01199
▁yet	-9.01228
▁Sabha	-9.0134
▁greater	-9.0138
▁assessment	-9.01651
▁themselves	-9.01678
▁include	-9.01738
▁provision	-9.01827
▁building	-9.01844
▁why	-9.0188
▁developed	-9.01996
▁rest	-9.0213
▁apply	-9.02391
act	-9.02402
hu	-9.02482
▁inter	-9.02522
ization	-9.02668
▁start	-9.02705
▁Board	-9.02736
▁provides	-9.02741
ship	-9.02891
▁function	-9.02996
▁Bar	-9.0306
led	-9.03138
▁consider	-9.03324
▁district	-9.0336
▁Mo	-9.03486
▁literature	-9.03632
▁science	-9.03692
▁allowed	-9.03787
U	-9.03909
▁character	-9.03938
▁really	-9.04128
tax	-9.04137
ow	-9.04341
▁parts	-9.04361
▁region	-9.04362
▁Even	-9.04426
▁meeting	-9.04531
ize	-9.04537
▁near	-9.04597
▁meet	-9.04722
▁parties	-9.04879
▁Go	-9.05047
ts	-9.05068
▁hard	-9.05188
ph	-9.05413
ions	-9.0552
▁global	-9.05587
▁original	-9.0569
▁text	-9.05704
▁mo	-9.05757
▁soon	-9.06033
ile	-9.06169
▁writing	-9.06211
▁direct	-9.0634
▁police	-9.06354
▁structure	-9.06374
ite	-9.06422
▁evidence	-9.06434
▁Pranab	-9.06475
▁sp	-9.06525
▁approach	-9.06567
▁earlier	-9.068
▁anything	-9.0697
▁gave	-9.07017
▁hope	-9.07038
od	-9.07072
▁assessee	-9.07171
ide	-9.07227
▁Republic	-9.07249
▁Where	-9.0738
▁Bill	-9.07403
▁Article	-9.07413
▁w	-9.07437
ca	-9.07438
▁test	-9.07875
▁states	-9.07888
ho	-9.07899
▁exchange	-9.07948
▁Our	-9.07948
▁spirit	-9.07981
▁city	-9.07986
▁capacity	-9.08006
▁half	-9.08075
▁Public	-9.08154
▁sent	-9.08245
▁books	-9.08266
▁Report	-9.08334
ah	-9.08393
▁situation	-9.08449
tal	-9.08457
▁actually	-9.08628
ton	-9.08723
ill	-9.08732
▁wide	-9.08896
▁Ha	-9.08959
▁la	-9.09066
▁medical	-9.09276
▁whose	-9.09284
▁opinion	-9.09317
▁feel	-9.0943
▁Ex	-9.09513
▁almost	-9.09584
▁Information	-9.0961
▁civil	-9.09658
▁Courts	-9.09658
▁resources	-9.09732
▁article	-9.09751
▁Judge	-9.09783
▁duty	-9.09869
tri	-9.09951
▁specific	-9.09973
▁ii	-9.09993
▁agreement	-9.10116
tro	-9.10202
all	-9.10306
▁loss	-9.105
▁thus	-9.10553
▁poor	-9.10623
da	-9.1064
ning	-9.1075
▁turn	-9.10794
▁How	-9.10795
▁environment	-9.10801
cy	-9.1084
▁Islam	-9.10841
▁powers	-9.10996
▁May	-9.11021
ari	-9.11158
▁private	-9.11215
cu	-9.11246
ible	-9.1126
▁notice	-9.11304
▁Please	-9.11513
▁single	-9.1158
▁write	-9.11595
ash	-9.11674
bi	-9.11681
▁Commissioner	-9.118
▁decided	-9.11946
▁believe	-9.11962
▁big	-9.12089
▁similar	-9.12113
▁letter	-9.12149
pe	-9.12198
▁woman	-9.12286
▁ll	-9.123
▁treatment	-9.12518
unt	-9.12533
der	-9.1268
▁nothing	-9.12815
▁West	-9.12999
▁&#124;	-9.13019
▁vi	-9.13074
▁changes	-9.13185
▁effective	-9.1321
▁entire	-9.13274
▁least	-9.13544
▁issued	-9.1363
▁en	-9.13649
▁Di	-9.13672
▁Ram	-9.13676
▁price	-9.13694
ative	-9.1389
▁products	-9.14184
▁deal	-9.14417
▁leave	-9.14501
ER	-9.14515
▁Thu	-9.1454
▁Institute	-9.14548
▁according	-9.14621
▁lot	-9.14657
▁issues	-9.14825
ten	-9.1483
▁difficult	-9.14841
▁method	-9.14904
▁sure	-9.14953
▁accept	-9.14997
▁operation	-9.15128
▁third	-9.15211
▁continue	-9.15257
▁till	-9.15485
▁tree	-9.1551
▁efforts	-9.15519
ib	-9.15564
▁author	-9.15601
▁understand	-9.15648
▁film	-9.15655
▁answer	-9.15657
▁run	-9.1585
les	-9.15951
▁Whil	-9.16162
do	-9.16303
▁contract	-9.1633
▁Ne	-9.16551
८	-9.16625
ever	-9.1671
▁procedure	-9.16828
▁created	-9.16916
▁enough	-9.17002
▁investment	-9.17037
▁American	-9.17086
▁April	-9.1709
▁Ro	-9.17094
▁rural	-9.17228
▁kept	-9.17407
ster	-9.17461
▁especially	-9.17497
▁Ga	-9.17624
▁opportunity	-9.17679
▁path	-9.1769
▁Sanskrit	-9.17724
▁Let	-9.17735
▁temple	-9.17754
३०	-9.17878
▁Officer	-9.18037
rat	-9.18067
▁top	-9.18119
▁wrote	-9.18134
mit	-9.18163
way	-9.18274
▁South	-9.18362
▁Or	-9.18381
▁told	-9.18435
du	-9.18496
▁proceedings	-9.18532
ke	-9.18592
▁idea	-9.18644
▁Pro	-9.18676
▁reference	-9.18707
▁size	-9.18825
the	-9.18846
▁judicial	-9.18913
▁poet	-9.18918
▁son	-9.19078
▁behalf	-9.19097
▁claim	-9.19205
▁institution	-9.19302
▁published	-9.19313
ug	-9.19468
▁Va	-9.19687
▁Le	-9.19786
ious	-9.19903
▁doing	-9.20027
▁move	-9.20083
▁ever	-9.20122
▁tell	-9.20215
▁check	-9.20256
▁Pra	-9.20264
▁practice	-9.20384
▁imp	-9.20702
▁month	-9.20723
▁providing	-9.20816
▁administration	-9.2091
▁simple	-9.20957
▁sea	-9.21132
▁jurisdiction	-9.21192
▁List	-9.2126
AL	-9.2127
▁economy	-9.21286
gen	-9.21433
▁By	-9.21449
ach	-9.21521
▁carried	-9.21758
▁truth	-9.21808
▁laws	-9.21815
▁spread	-9.21821
▁night	-9.21931
▁peace	-9.21938
▁fund	-9.2202
▁Such	-9.22156
▁receive	-9.22186
line	-9.223
▁prevent	-9.22356
gra	-9.22441
.0	-9.22475
▁produce	-9.22508
▁current	-9.22593
▁criminal	-9.22613
▁mental	-9.22853
ring	-9.22926
▁quite	-9.22932
▁forward	-9.22953
▁generally	-9.23127
▁benefit	-9.23142
po	-9.23145
▁contact	-9.23188
▁across	-9.23236
▁source	-9.23244
av	-9.23288
▁central	-9.23293
▁rich	-9.23319
mon	-9.23431
▁earth	-9.23435
▁note	-9.23567
▁Centre	-9.23572
tin	-9.23651
▁Lord	-9.23818
▁allow	-9.23836
▁relations	-9.23872
▁East	-9.24153
ability	-9.24211
▁bar	-9.24225
▁Te	-9.24279
▁Your	-9.24282
chi	-9.24384
▁prescribed	-9.24531
▁March	-9.24635
▁river	-9.24669
▁aim	-9.24669
▁meaning	-9.24709
▁seven	-9.24725
▁talk	-9.24835
▁Bha	-9.25001
▁h	-9.25158
▁appropriate	-9.25175
▁front	-9.2522
▁Income	-9.25371
▁eight	-9.25398
▁space	-9.25435
▁basic	-9.25524
▁sum	-9.25534
▁success	-9.25541
isation	-9.25781
▁works	-9.26094
qu	-9.26133
out	-9.26188
▁relevant	-9.26208
▁below	-9.26378
▁Sri	-9.26461
▁stated	-9.26705
▁makes	-9.26748
▁During	-9.26778
▁International	-9.26854
gi	-9.26898
▁felt	-9.27243
▁unit	-9.27272
▁giving	-9.27303
IC	-9.27312
▁improve	-9.275
▁importance	-9.27521
▁Service	-9.27557
▁anti	-9.2759
dy	-9.27618
ber	-9.27721
▁Cha	-9.27783
▁expression	-9.27784
▁statement	-9.27831
▁marriage	-9.27881
▁facilities	-9.27905
▁charge	-9.27924
▁low	-9.27926
▁Governor	-9.27978
ator	-9.28005
▁sound	-9.28021
▁INDIA	-9.28106
▁plus	-9.2816
▁lower	-9.28168
cur	-9.28209
▁reach	-9.28373
▁Pakistan	-9.28409
▁Israel	-9.28498
▁oil	-9.2851
▁king	-9.2871
▁San	-9.28824
▁extend	-9.28848
▁Day	-9.29089
▁spiritual	-9.29232
▁US	-9.29305
▁trial	-9.29311
son	-9.29317
ala	-9.29354
▁commercial	-9.29477
▁search	-9.29581
▁plan	-9.29835
▁birth	-9.29882
▁accused	-9.29938
▁Bo	-9.30235
▁potential	-9.30247
▁fast	-9.3025
▁r	-9.30374
dar	-9.30474
sha	-9.30518
▁connection	-9.30677
mp	-9.30702
ip	-9.30703
▁strength	-9.30802
▁Mar	-9.30927
▁consideration	-9.30947
ard	-9.31044
▁happy	-9.31178
ex	-9.3119
▁forms	-9.31247
war	-9.31269
▁measures	-9.3128
▁wife	-9.31386
tor	-9.3144
rit	-9.31702
▁record	-9.31843
ie	-9.31925
▁began	-9.31956
▁develop	-9.32039
▁existing	-9.32149
▁existence	-9.32292
▁Li	-9.32483
king	-9.32519
▁followed	-9.32561
▁responsible	-9.32591
▁beginning	-9.32649
▁courts	-9.32653
val	-9.3267
ki	-9.3275
▁doubt	-9.3275
▁grant	-9.32903
▁mode	-9.32906
▁o	-9.32974
▁conduct	-9.32996
▁leaders	-9.3303
▁usually	-9.33036
▁met	-9.33067
▁Rama	-9.3309
▁nor	-9.33099
▁offence	-9.33141
▁cultural	-9.3317
▁room	-9.33361
▁video	-9.3346
ner	-9.33701
▁activity	-9.33712
▁fire	-9.33721
▁lead	-9.3374
▁protect	-9.33857
▁Mu	-9.33875
९	-9.33918
▁whom	-9.3395
▁Ta	-9.34096
▁para	-9.34183
▁faith	-9.34207
▁ch	-9.3422
▁addition	-9.34273
▁until	-9.3433
▁firm	-9.34393
▁risk	-9.34459
▁official	-9.34514
▁wish	-9.34542
▁particularly	-9.34542
▁step	-9.34572
▁relation	-9.34594
▁Raj	-9.34595
▁becomes	-9.34707
ung	-9.34711
▁seek	-9.34862
ens	-9.3488
ham	-9.34886
▁Pan	-9.34888
cal	-9.34942
▁deep	-9.35032
▁Pre	-9.35154
nt	-9.35197
▁behind	-9.35264
▁flow	-9.3532
▁soul	-9.35676
▁k	-9.35702
▁increased	-9.3572
▁except	-9.35723
▁lost	-9.35749
ery	-9.3576
▁essential	-9.358
▁Ca	-9.3587
▁Mi	-9.35933
sion	-9.35952
ff	-9.36015
▁popular	-9.3613
bu	-9.3622
▁programmes	-9.36262
▁scale	-9.36331
gar	-9.36494
▁Education	-9.36517
▁Technology	-9.36572
▁Code	-9.36578
▁hold	-9.36693
▁crore	-9.36792
ali	-9.36813
▁try	-9.36833
gan	-9.36841
▁fine	-9.36947
▁X	-9.36982
▁Y	-9.37014
▁final	-9.37027
▁hands	-9.37093
mal	-9.37276
▁places	-9.37276
▁base	-9.37367
▁Calcutta	-9.37453
▁War	-9.37639
ron	-9.37715
▁groups	-9.37749
▁link	-9.37771
IS	-9.37774
▁Krishna	-9.37786
▁design	-9.37797
we	-9.37829
nu	-9.37846
▁bit	-9.37886
▁rather	-9.37899
▁export	-9.37942
▁sentence	-9.37971
▁protection	-9.38083
▁employment	-9.38231
▁Scheme	-9.38399
mer	-9.38434
▁limited	-9.38542
▁add	-9.38597
▁circumstances	-9.38646
▁beyond	-9.38679
ng	-9.38755
▁Bi	-9.38825
▁Under	-9.38863
ani	-9.39094
ice	-9.39107
▁suit	-9.3917
▁comes	-9.39195
que	-9.39199
gg	-9.39243
ik	-9.39281
▁serious	-9.39356
▁alone	-9.39362
si	-9.39385
▁saw	-9.39395
▁Lok	-9.39459
tar	-9.39572
AN	-9.396
▁continued	-9.39601
▁born	-9.39665
▁Open	-9.39784
▁moment	-9.39801
ual	-9.39829
▁infrastructure	-9.39888
▁Of	-9.4001
▁built	-9.40033
▁industries	-9.4009
q	-9.40093
▁poetry	-9.40235
▁World	-9.4026
▁warm	-9.40263
▁mean	-9.40264
▁eyes	-9.40292
▁correct	-9.40317
▁gives	-9.40339
tha	-9.40387
▁learn	-9.4058
tt	-9.40607
▁job	-9.40695
▁learning	-9.40743
▁officer	-9.40761
▁accepted	-9.40766
van	-9.40781
▁media	-9.40787
▁direction	-9.40793
ology	-9.40794
▁appointed	-9.40848
▁range	-9.4085
▁Ja	-9.4087
▁lives	-9.40959
den	-9.4097
▁says	-9.41006
▁setting	-9.41028
bar	-9.4106
light	-9.41283
▁Prime	-9.41348
▁round	-9.41362
▁cross	-9.41406
▁Se	-9.4147
▁responsibility	-9.41636
tur	-9.41753
▁loan	-9.41809
▁Then	-9.42115
AT	-9.42164
▁influence	-9.4229
tes	-9.42347
wan	-9.42448
▁ideas	-9.42462
▁exercise	-9.42513
▁From	-9.42639
▁hundred	-9.42717
▁normal	-9.42817
▁getting	-9.42841
▁coming	-9.42882
▁proposed	-9.43097
▁immediately	-9.43193
▁pa	-9.43238
▁assistance	-9.43276
▁device	-9.43371
che	-9.43478
▁Any	-9.43522
▁Dis	-9.436
▁projects	-9.43614
▁labour	-9.43615
▁object	-9.43671
ub	-9.43691
▁fear	-9.43894
▁observed	-9.43973
tre	-9.44107
▁Schedule	-9.44149
▁citizens	-9.44392
▁document	-9.44498
▁Sub	-9.44541
▁Part	-9.44586
▁instrument	-9.44596
▁mis	-9.44597
ew	-9.44664
dra	-9.44718
▁Many	-9.44764
row	-9.44834
▁Ko	-9.44927
au	-9.44972
▁details	-9.45058
▁values	-9.4506
▁North	-9.45081
▁mentioned	-9.45215
▁Kashmir	-9.4522
▁wrong	-9.45234
▁boy	-9.45323
▁separate	-9.45371
tter	-9.4542
▁user	-9.4556
let	-9.45576
▁na	-9.45635
▁TO	-9.45648
qui	-9.45655
▁com	-9.45671
▁agricultural	-9.45881
▁lakh	-9.45882
▁paper	-9.45936
▁status	-9.45942
▁sun	-9.46013
▁wanted	-9.46014
▁proper	-9.46035
▁judge	-9.46051
▁America	-9.46126
▁ancient	-9.46141
▁banks	-9.46232
▁violence	-9.46303
▁eye	-9.4634
▁famous	-9.46364
ft	-9.46657
▁January	-9.46667
lan	-9.46721
▁Da	-9.46734
ack	-9.4674
▁product	-9.46795
hy	-9.46871
▁formed	-9.4692
red	-9.47027
ell	-9.47101
▁includes	-9.47223
bha	-9.47279
▁goes	-9.47312
▁rise	-9.47333
ther	-9.47338
▁machine	-9.47433
▁page	-9.47483
▁Can	-9.47518
▁officers	-9.47522
▁red	-9.4763
ement	-9.47671
▁lay	-9.47723
▁cell	-9.47725
▁speech	-9.47777
▁Bombay	-9.47827
▁trust	-9.47832
▁prepared	-9.47884
▁hospital	-9.47888
▁Chairman	-9.47954
mat	-9.47976
▁Asia	-9.47985
og	-9.48023
▁functions	-9.48085
▁Fa	-9.481
▁week	-9.48108
▁image	-9.48109
tent	-9.48111
▁expenditure	-9.48442
▁plants	-9.48482
▁ago	-9.48503
▁companies	-9.48504
ore	-9.48618
▁team	-9.48637
▁Sha	-9.48781
▁relationship	-9.48828
▁white	-9.48905
▁remain	-9.48966
tan	-9.48998
▁follow	-9.49063
▁Per	-9.49118
▁presented	-9.49147
▁Ho	-9.49171
▁promote	-9.49205
▁moral	-9.49323
one	-9.49502
end	-9.49519
▁bo	-9.49526
▁workers	-9.49619
▁certificate	-9.49686
▁minus	-9.49689
▁scientific	-9.49749
▁struggle	-9.49749
▁animals	-9.49843
▁forces	-9.49866
▁stand	-9.49887
▁extent	-9.49893
form	-9.49992
▁included	-9.50019
ably	-9.5005
und	-9.50199
▁north	-9.50269
su	-9.50327
▁task	-9.50404
▁clean	-9.50442
ration	-9.50533
▁otherwise	-9.50557
▁longer	-9.50561
▁added	-9.50581
▁Po	-9.50587
▁cut	-9.50595
ns	-9.50603
▁refers	-9.50626
▁music	-9.50635
▁witness	-9.50644
itis	-9.50657
aries	-9.50669
ging	-9.50729
▁vision	-9.50745
ick	-9.50813
▁attention	-9.50882
▁memory	-9.50945
▁code	-9.50958
▁build	-9.50972
▁active	-9.51007
▁event	-9.51074
▁takes	-9.51092
▁review	-9.51107
▁touch	-9.51111
▁award	-9.51158
▁bear	-9.51197
▁enable	-9.51209
▁performance	-9.5128
▁Director	-9.51297
ara	-9.51321
ect	-9.5134
▁bad	-9.51555
▁involved	-9.51583
▁publication	-9.5164
▁Lo	-9.5168
▁systems	-9.5176
▁fixed	-9.51761
▁Assembly	-9.51772
▁Provided	-9.51782
▁supply	-9.519
▁fair	-9.51984
fe	-9.52009
cent	-9.52263
▁tried	-9.52265
▁twenty	-9.52284
ified	-9.52326
▁fit	-9.52395
▁domestic	-9.52413
▁standard	-9.52416
par	-9.52418
▁black	-9.52477
▁directly	-9.52511
▁super	-9.52511
▁cl	-9.52579
▁Punjab	-9.52614
▁produced	-9.52671
▁caused	-9.52711
▁Chandra	-9.52723
tation	-9.5274
▁ba	-9.52788
ple	-9.52937
▁Plan	-9.53002
▁ask	-9.53072
ny	-9.53106
▁communication	-9.53122
▁Not	-9.53189
▁style	-9.53191
▁organisation	-9.53233
nath	-9.53246
▁IT	-9.53253
▁traditional	-9.53299
▁accordance	-9.53325
lic	-9.53413
▁independent	-9.53512
▁stop	-9.53588
▁Tribunal	-9.53642
ama	-9.53685
▁milk	-9.53772
▁press	-9.53808
▁Well	-9.53838
▁Mon	-9.53868
▁join	-9.53915
bo	-9.53934
▁balance	-9.53946
▁road	-9.53952
▁software	-9.53969
▁June	-9.5398
▁adopted	-9.54052
▁Kar	-9.54057
▁Tax	-9.54096
▁Art	-9.54133
▁affect	-9.54216
▁technical	-9.54295
▁contribution	-9.54406
▁December	-9.54426
▁democracy	-9.54426
▁thousand	-9.54539
▁desire	-9.5454
▁content	-9.54591
▁heard	-9.54616
▁European	-9.54638
▁south	-9.54691
▁pi	-9.54731
▁advance	-9.54737
▁Mumbai	-9.5482
▁II	-9.5483
▁units	-9.54846
▁contained	-9.54888
ava	-9.54913
▁Tamil	-9.55084
ev	-9.55097
▁According	-9.55124
▁copy	-9.55162
▁friends	-9.55291
▁unless	-9.55397
▁Ar	-9.55418
▁generation	-9.55564
▁King	-9.55622
▁concept	-9.55624
▁focus	-9.55687
▁effort	-9.55884
▁highest	-9.55895
▁Africa	-9.5599
▁green	-9.56015
▁percent	-9.56024
▁enter	-9.56127
▁husband	-9.56146
▁funds	-9.56163
▁secret	-9.56182
art	-9.56264
▁complex	-9.56348
▁patient	-9.56375
▁collection	-9.56403
▁stay	-9.56432
tru	-9.56437
▁led	-9.56475
nce	-9.5653
▁damage	-9.56575
▁model	-9.56604
▁September	-9.56748
▁reached	-9.56767
▁documents	-9.56823
▁laid	-9.56944
▁cr	-9.56954
▁August	-9.57017
▁beautiful	-9.57017
▁employees	-9.57058
▁error	-9.5722
▁ways	-9.57294
ay	-9.57324
ada	-9.57438
▁Research	-9.5749
▁attempt	-9.57516
AR	-9.57549
oo	-9.57566
▁standards	-9.57632
▁Maha	-9.57635
ound	-9.57676
set	-9.57686
▁languages	-9.57744
▁Z	-9.57754
ping	-9.57807
▁System	-9.57828
▁ca	-9.57862
▁assets	-9.57881
▁session	-9.57898
▁Shah	-9.57925
▁significant	-9.57944
▁October	-9.57964
▁examination	-9.57964
▁Civil	-9.57964
▁Nehru	-9.58032
▁easy	-9.58101
▁friend	-9.58197
▁color	-9.58313
istic	-9.58401
▁fight	-9.58408
▁Har	-9.5844
lam	-9.58472
▁Guru	-9.58534
▁Sam	-9.58617
▁female	-9.58646
▁insurance	-9.58646
▁principle	-9.58648
▁deposit	-9.58698
▁Every	-9.58707
▁context	-9.58717
IN	-9.58738
▁creation	-9.58905
▁species	-9.58989
▁pattern	-9.59195
▁novel	-9.59328
hal	-9.59338
▁types	-9.59404
▁District	-9.5954
▁appear	-9.59569
uck	-9.59715
▁serve	-9.5972
▁Category	-9.59747
▁middle	-9.59749
▁centre	-9.59796
▁recent	-9.59826
▁interests	-9.59893
tle	-9.59898
▁limit	-9.59931
▁People	-9.59955
▁likely	-9.59958
ants	-9.59958
▁break	-9.5997
nic	-9.59981
ler	-9.59995
tive	-9.60086
▁grow	-9.60136
sis	-9.60217
▁leading	-9.60241
▁majority	-9.60298
▁largest	-9.60336
▁Corporation	-9.60441
▁par	-9.6047
ze	-9.60639
▁Qu	-9.60646
▁average	-9.60652
▁sometimes	-9.60652
▁Sur	-9.60684
ea	-9.60704
▁accounts	-9.60753
▁Fund	-9.60763
▁Western	-9.60791
▁hours	-9.60888
▁connected	-9.60896
▁regular	-9.60916
▁military	-9.6093
▁implementation	-9.60959
ition	-9.6096
▁steps	-9.60991
ory	-9.61054
▁opportunities	-9.6107
▁policies	-9.6107
▁Chapter	-9.6107
▁program	-9.6108
uk	-9.61088
▁gas	-9.61123
▁Wa	-9.61168
▁Other	-9.61168
▁daughter	-9.6121
▁multi	-9.61217
▁attack	-9.61249
▁IN	-9.61343
▁iii	-9.61526
lin	-9.61535
▁growing	-9.61547
▁described	-9.61559
▁instead	-9.61632
ency	-9.61633
▁placed	-9.61744
▁independence	-9.61774
▁net	-9.61825
▁worship	-9.61839
▁Division	-9.61844
▁adv	-9.61889
▁compar	-9.61925
▁exist	-9.61959
her	-9.6196
ju	-9.61963
▁va	-9.62085
fer	-9.62163
pl	-9.62172
▁card	-9.62247
fo	-9.62355
▁consciousness	-9.62369
▁joint	-9.62415
▁innovation	-9.62482
ists	-9.62549
▁conflict	-9.62553
▁draw	-9.62616
▁import	-9.62686
▁questions	-9.62718
▁fall	-9.62766
io	-9.628
▁sign	-9.62803
▁Explanation	-9.63052
▁Special	-9.63052
▁surface	-9.63054
▁deemed	-9.6308
▁China	-9.63081
▁July	-9.63127
▁asset	-9.63228
▁resolution	-9.63267
▁affected	-9.6334
▁annual	-9.63343
▁inside	-9.63382
▁cells	-9.63395
▁educational	-9.63404
▁Cr	-9.63428
OR	-9.63466
▁animal	-9.6352
uc	-9.63532
▁request	-9.63604
▁Tri	-9.63635
▁understanding	-9.6371
▁cash	-9.63793
▁game	-9.63833
time	-9.63914
▁male	-9.63952
ps	-9.63957
▁response	-9.63986
▁association	-9.64059
▁Conference	-9.64135
pu	-9.64184
▁pain	-9.64196
▁reasons	-9.6422
▁Bharat	-9.64239
hold	-9.64271
▁rain	-9.6431
▁suffer	-9.64387
ned	-9.64399
▁leader	-9.64493
▁payable	-9.64505
▁registered	-9.64577
ES	-9.64704
▁former	-9.64719
mm	-9.64875
▁seems	-9.64924
▁bound	-9.64926
▁En	-9.64953
▁declared	-9.64959
▁fundamental	-9.65075
▁command	-9.65076
▁advice	-9.65084
▁charges	-9.65179
▁regarding	-9.65241
▁selected	-9.65241
▁perhaps	-9.65294
▁fully	-9.65371
▁authorities	-9.6539
▁Islamic	-9.65404
▁November	-9.6544
▁length	-9.6544
▁agriculture	-9.65587
▁cooperation	-9.65665
int	-9.65727
▁Judges	-9.65729
▁costs	-9.65805
▁dream	-9.65807
▁stock	-9.65956
▁title	-9.6596
▁Gandhiji	-9.65989
▁ha	-9.66011
▁First	-9.66028
▁Kan	-9.66105
▁farmers	-9.66113
▁associated	-9.6618
▁fa	-9.66221
▁divine	-9.66397
▁additional	-9.66434
▁origin	-9.66446
▁presence	-9.66472
▁lo	-9.66495
▁delay	-9.66499
▁honour	-9.66545
▁offer	-9.66555
▁send	-9.66585
ble	-9.66692
wi	-9.6673
▁Management	-9.66767
▁won	-9.66774
▁looking	-9.66776
▁Par	-9.6685
▁dead	-9.66899
▁objective	-9.66943
▁useful	-9.66964
ika	-9.67023
▁Ad	-9.67049
▁host	-9.671
▁fish	-9.67134
▁Rules	-9.67213
▁professional	-9.67215
▁shape	-9.67251
▁travel	-9.67259
ren	-9.67263
▁lack	-9.67355
▁j	-9.67438
▁Here	-9.67583
▁Therefore	-9.67587
▁difference	-9.67588
▁cha	-9.67688
▁measure	-9.67689
▁ho	-9.6775
▁App	-9.67797
▁results	-9.67868
▁terrorism	-9.67973
▁door	-9.68037
▁advantage	-9.68037
▁located	-9.68138
▁Programme	-9.68205
▁weight	-9.68306
▁ideal	-9.6841
ight	-9.68437
▁root	-9.68463
▁extended	-9.68515
▁km	-9.6855
▁construction	-9.68887
▁Project	-9.68943
▁larger	-9.68943
▁instance	-9.68961
▁ON	-9.68972
▁colour	-9.69029
▁distance	-9.6903
▁AND	-9.69108
ED	-9.69189
J	-9.69224
▁adequate	-9.69399
▁achieve	-9.69446
thi	-9.69462
▁judgment	-9.69475
▁registration	-9.69475
▁committed	-9.69559
▁purchase	-9.69628
▁Hindus	-9.69685
▁Bal	-9.69696
▁failed	-9.6972
▁pe	-9.69737
▁organization	-9.69775
▁reform	-9.69811
▁introduced	-9.69867
bal	-9.69918
ING	-9.69938
▁Policy	-9.70011
▁master	-9.70036
▁chief	-9.70088
▁watch	-9.70091
▁shown	-9.70198
▁youth	-9.70261
▁broad	-9.70316
▁external	-9.70324
▁developing	-9.7042
cus	-9.70449
▁Europe	-9.70454
▁stories	-9.70474
▁voice	-9.7055
▁else	-9.70554
▁skin	-9.70706
▁Fi	-9.70742
▁pass	-9.70752
▁sale	-9.70761
▁Most	-9.70816
vel	-9.70833
▁expressed	-9.709
▁item	-9.7092
dha	-9.70971
▁Min	-9.71025
▁successful	-9.71028
▁mass	-9.71066
▁Th	-9.71135
▁ball	-9.71167
▁wealth	-9.71255
▁pressure	-9.71342
▁Sp	-9.71455
▁needed	-9.71475
▁universal	-9.71478
▁storage	-9.71478
ign	-9.71479
tric	-9.71538
az	-9.71631
▁everything	-9.71636
▁unique	-9.71651
▁vital	-9.71661
SE	-9.71713
▁increasing	-9.718
▁someone	-9.71807
▁Gu	-9.71872
▁bill	-9.71957
▁principles	-9.72178
▁Car	-9.72179
▁penalty	-9.72185
dal	-9.72206
▁petitioner	-9.72234
▁namely	-9.7229
gro	-9.72357
▁square	-9.72367
▁benefits	-9.72412
▁Amendment	-9.72416
▁England	-9.72416
▁maintain	-9.72468
cation	-9.72548
▁covered	-9.7255
▁tradition	-9.72705
ations	-9.7286
RE	-9.72867
▁thinking	-9.72943
▁Secretary	-9.73001
▁numbers	-9.73073
▁Jo	-9.73074
▁Maharashtra	-9.73126
▁Though	-9.73182
ments	-9.73314
▁cover	-9.73337
▁department	-9.73493
▁soil	-9.73515
com	-9.73544
put	-9.7356
IT	-9.73583
day	-9.73652
▁avoid	-9.73715
ox	-9.73727
▁establishment	-9.73742
▁Arab	-9.73757
▁Science	-9.7376
▁substance	-9.7376
ai	-9.73805
▁minimum	-9.73839
▁played	-9.73857
▁obtain	-9.73876
▁Air	-9.7396
▁speak	-9.74008
▁permanent	-9.74078
▁trans	-9.74101
▁academic	-9.74158
▁Tagore	-9.74238
shi	-9.74269
▁merely	-9.74306
▁morning	-9.74483
▁poems	-9.7451
▁Para	-9.74528
▁express	-9.74559
▁site	-9.74691
▁running	-9.7474
▁friendly	-9.74741
▁version	-9.74743
vis	-9.74757
yn	-9.74834
▁contains	-9.74872
RI	-9.74919
▁Office	-9.7494
▁entitled	-9.75041
▁variety	-9.75041
tain	-9.75052
▁figure	-9.75117
kh	-9.75153
chan	-9.75309
▁schemes	-9.75354
▁impact	-9.75413
▁orders	-9.75441
▁sufficient	-9.75483
▁processing	-9.75516
▁easily	-9.75526
▁crime	-9.75617
▁Inter	-9.75626
ath	-9.7569
▁Kerala	-9.75769
▁wind	-9.75888
▁raised	-9.75979
▁changed	-9.76013
▁primary	-9.761
▁eat	-9.76127
▁committee	-9.76176
ris	-9.76179
▁enjoy	-9.76242
▁Ni	-9.76252
▁wall	-9.7629
▁manufacture	-9.76339
fl	-9.76369
▁Judici	-9.76387
▁views	-9.76391
▁default	-9.76421
▁foot	-9.76434
▁Khan	-9.76456
▁block	-9.7647
▁appointment	-9.76472
▁win	-9.7648
▁February	-9.76503
▁integral	-9.76503
▁convey	-9.76503
▁operations	-9.76505
▁relief	-9.76505
▁engaged	-9.76598
▁parents	-9.76702
▁maximum	-9.76755
▁Sir	-9.7676
▁Kumar	-9.76792
▁defined	-9.76792
▁table	-9.76808
▁Authority	-9.76939
▁volume	-9.76997
rous	-9.77008
br	-9.77035
▁profit	-9.77043
▁investigation	-9.77077
▁mark	-9.77099
tta	-9.77107
▁vote	-9.77219
▁Am	-9.77333
▁Who	-9.77421
eg	-9.7746
▁teaching	-9.77498
▁expected	-9.77524
▁Finance	-9.7782
▁unity	-9.77841
▁brother	-9.77889
▁minister	-9.779
ep	-9.77903
▁duties	-9.77908
▁shows	-9.7792
▁aid	-9.77988
▁Since	-9.77994
▁villages	-9.7804
esh	-9.78051
▁Power	-9.78074
use	-9.78105
▁failure	-9.7816
▁Why	-9.78188
ec	-9.78189
pos	-9.78197
▁philosophy	-9.78235
▁UN	-9.78341
▁season	-9.7842
▁transport	-9.78423
cr	-9.78504
▁display	-9.78544
▁ja	-9.78633
▁dance	-9.78688
▁ready	-9.78749
▁temples	-9.78785
pro	-9.78798
▁powerful	-9.78833
▁filed	-9.78883
▁ill	-9.78887
▁reading	-9.78937
▁judges	-9.79027
▁Also	-9.79086
ger	-9.79108
▁rid	-9.79142
▁feeling	-9.79161
▁board	-9.79178
either	-9.79318
osis	-9.79344
▁po	-9.79416
AS	-9.7945
ko	-9.79455
▁lines	-9.79536
▁saying	-9.79551
▁Si	-9.79612
▁elements	-9.79635
▁pleasure	-9.79661
▁Pe	-9.79696
▁positive	-9.79745
▁poverty	-9.79745
ify	-9.79766
▁Bihar	-9.79805
▁safe	-9.79826
▁undertaking	-9.7983
tr	-9.79836
▁indeed	-9.79856
gh	-9.79983
▁suggest	-9.79989
ric	-9.79997
▁dealing	-9.80027
▁degree	-9.80055
▁whatever	-9.80107
▁levels	-9.80148
▁se	-9.80194
dh	-9.80326
▁favour	-9.80349
▁remains	-9.8036
▁studies	-9.80423
▁Their	-9.80555
▁medium	-9.80595
▁stream	-9.80611
▁punishment	-9.80622
▁Services	-9.80672
▁Because	-9.80764
▁series	-9.80774
▁defence	-9.80862
▁throughout	-9.80869
▁screen	-9.80884
▁deduction	-9.80911
▁trying	-9.81034
ages	-9.81064
▁feet	-9.81144
bb	-9.81247
RA	-9.81257
▁crop	-9.81278
pp	-9.81303
▁medicine	-9.81363
▁girl	-9.81609
ray	-9.81649
▁promotion	-9.81691
▁ship	-9.81785
▁contain	-9.81891
▁SC	-9.81898
▁Trans	-9.81924
▁festival	-9.81966
▁legislation	-9.81966
ue	-9.82043
▁entry	-9.82069
▁Akbar	-9.82226
▁vast	-9.82248
▁Gujarat	-9.82305
▁Ke	-9.82332
▁removal	-9.82354
▁turned	-9.82516
za	-9.82572
▁speed	-9.82584
▁Pat	-9.82601
▁fee	-9.82619
cer	-9.82671
ification	-9.82676
▁Uttar	-9.82748
▁Raja	-9.82769
▁gain	-9.82773
▁caste	-9.82813
▁granted	-9.8283
▁Bengali	-9.82923
▁bone	-9.83158
▁feed	-9.83273
▁distribution	-9.83296
▁agency	-9.8336
▁debt	-9.8345
▁mainly	-9.83492
▁requires	-9.8353
yan	-9.8356
▁shares	-9.83763
▁divided	-9.83764
ves	-9.83764
▁remember	-9.838
▁intellectual	-9.83888
▁server	-9.83925
▁Adv	-9.83936
▁internal	-9.8397
▁Br	-9.84014
▁aspects	-9.84017
▁items	-9.84019
▁receipt	-9.84061
cing	-9.84214
▁discussion	-9.84239
▁suggested	-9.84255
▁complaint	-9.84261
▁sort	-9.84264
▁encourage	-9.84308
▁literary	-9.84327
▁safety	-9.84434
wal	-9.84518
ura	-9.8453
▁sec	-9.84534
▁names	-9.84586
▁star	-9.84647
ped	-9.84647
▁ka	-9.8467
af	-9.84681
▁target	-9.84681
▁Language	-9.8477
▁staff	-9.84859
▁sections	-9.84883
ising	-9.84911
las	-9.84937
▁habit	-9.84945
▁belief	-9.84948
mark	-9.84954
lock	-9.84968
▁agree	-9.85004
▁election	-9.85033
▁tissue	-9.85037
▁perform	-9.85084
▁teacher	-9.85099
▁waste	-9.85099
▁Official	-9.85126
▁offered	-9.8516
▁agent	-9.85179
ix	-9.85184
▁hearing	-9.85188
ient	-9.852
▁daily	-9.85218
▁phase	-9.85228
▁welfare	-9.85304
▁motion	-9.85345
▁division	-9.85361
▁fe	-9.85378
▁Ya	-9.8542
▁Over	-9.85489
▁files	-9.85506
▁fresh	-9.85573
rate	-9.85673
▁Error	-9.85752
▁location	-9.85768
iti	-9.85791
bat	-9.85806
▁gone	-9.85852
ties	-9.85853
▁Indians	-9.85906
▁reduce	-9.86007
▁choice	-9.86022
▁finance	-9.86022
▁requirements	-9.86112
▁Mahatma	-9.86202
▁Health	-9.86207
▁phone	-9.86302
▁Force	-9.86314
mor	-9.86322
▁cities	-9.86377
▁confidence	-9.86382
▁equipment	-9.86382
▁proceed	-9.86382
cle	-9.86431
▁articles	-9.86439
▁Post	-9.86442
▁opening	-9.86463
▁wishes	-9.86479
▁leaves	-9.86485
▁completed	-9.86544
ME	-9.86545
uri	-9.86555
▁nations	-9.86561
▁Ban	-9.86596
▁option	-9.86641
▁moon	-9.86721
▁Whether	-9.86744
▁translation	-9.86835
▁individuals	-9.86848
▁branch	-9.86996
ou	-9.87
▁School	-9.87016
▁treated	-9.8702
▁Nepal	-9.87027
▁lived	-9.87077
▁count	-9.87148
▁regional	-9.87179
lf	-9.87182
▁named	-9.87215
eration	-9.87217
▁practices	-9.87219
▁Rajya	-9.87345
side	-9.87383
ili	-9.87399
▁experiment	-9.87471
▁rock	-9.87484
ction	-9.87559
▁College	-9.87563
▁Palestinian	-9.87563
▁knew	-9.87563
▁learned	-9.87762
▁forest	-9.87815
▁actual	-9.87829
▁methods	-9.87831
hor	-9.87835
▁station	-9.87878
▁decide	-9.87929
▁attitude	-9.88004
▁beauty	-9.88021
▁Up	-9.88105
▁formal	-9.88111
res	-9.88266
ov	-9.88392
▁train	-9.88436
char	-9.88455
▁petition	-9.88513
▁acts	-9.88543
▁spot	-9.88592
▁factors	-9.88596
▁applications	-9.88621
▁Group	-9.88665
▁highly	-9.88666
▁sat	-9.88675
▁pest	-9.88718
lar	-9.88765
▁concern	-9.88774
▁machinery	-9.88797
▁dispute	-9.88822
▁reality	-9.88828
▁Rajasthan	-9.8885
▁abroad	-9.8885
▁Bu	-9.88877
▁believed	-9.88908
▁buy	-9.88923
▁Her	-9.88966
▁ne	-9.88987
▁teachers	-9.89005
▁Men	-9.89025
▁bodies	-9.89036
▁die	-9.89088
▁late	-9.89179
▁probably	-9.89221
▁heavy	-9.89222
▁Water	-9.89258
ulation	-9.89304
▁holding	-9.89343
cha	-9.89363
▁goal	-9.894
▁nuclear	-9.895
▁follows	-9.89519
▁returned	-9.89551
▁da	-9.89552
LE	-9.89584
▁Only	-9.89589
▁symbol	-9.89597
▁determined	-9.89631
bil	-9.89668
▁sleep	-9.89687
▁Com	-9.89744
▁songs	-9.89745
▁families	-9.8978
ire	-9.89786
▁Ganga	-9.89938
▁critical	-9.89966
▁partnership	-9.89976
&	-9.89988
aka	-9.90047
▁died	-9.90109
for	-9.90112
▁rupees	-9.90124
▁Google	-9.90154
▁Christian	-9.90195
▁Chand	-9.90241
▁Excellency	-9.90248
▁Besides	-9.90248
▁Ku	-9.9025
▁facts	-9.90369
▁terrorist	-9.90442
▁causes	-9.9049
▁save	-9.90509
▁le	-9.90525
pri	-9.90526
das	-9.90531
▁insects	-9.90535
▁proved	-9.90547
▁fields	-9.90569
hara	-9.90574
▁require	-9.90576
fu	-9.9059
▁reasonable	-9.90628
▁joy	-9.90637
▁points	-9.90793
▁File	-9.90801
▁Non	-9.90853
ier	-9.90859
▁chemical	-9.90907
▁agencies	-9.90908
▁agreed	-9.90927
▁clearly	-9.90934
EN	-9.91003
raj	-9.91017
▁doctor	-9.91024
▁rank	-9.91042
TH	-9.91068
▁events	-9.91086
SS	-9.9112
▁appears	-9.91155
▁railway	-9.91289
▁micro	-9.91388
▁Account	-9.9141
IL	-9.91411
▁Today	-9.91435
▁height	-9.91445
▁Du	-9.91466
▁army	-9.91526
ular	-9.91528
▁compensation	-9.91571
▁attend	-9.91602
▁mutual	-9.91636
▁description	-9.91666
▁thereof	-9.91673
kha	-9.91688
▁delivery	-9.91709
▁mission	-9.9172
▁happened	-9.91756
▁bi	-9.91828
▁seed	-9.91834
bra	-9.91873
▁dated	-9.91965
late	-9.91984
AC	-9.92052
ef	-9.92089
▁schools	-9.92125
▁Members	-9.92174
▁explain	-9.92192
▁perfect	-9.92199
▁Further	-9.92239
▁Assam	-9.92243
▁Ali	-9.92273
▁sacrifice	-9.92312
▁port	-9.92404
▁Legislative	-9.9243
▁cold	-9.92478
▁survey	-9.92526
▁recommended	-9.92528
▁suitable	-9.92537
▁historical	-9.92637
▁seem	-9.92724
▁aware	-9.92776
▁extra	-9.92795
▁keeping	-9.92797
▁accident	-9.92815
▁Use	-9.92873
▁graph	-9.929
▁Member	-9.92976
▁Party	-9.93018
▁sitting	-9.93024
▁amongst	-9.93057
ati	-9.93082
iya	-9.93092
kan	-9.93093
▁sides	-9.93103
▁leadership	-9.9312
rr	-9.9317
bid	-9.93184
▁tend	-9.9321
fa	-9.9323
▁cons	-9.9325
▁revolution	-9.93263
▁poem	-9.93278
of	-9.93283
▁passing	-9.93313
▁Andhra	-9.93334
▁constituted	-9.93346
▁Mal	-9.93393
▁hour	-9.93461
▁Sar	-9.9349
▁expect	-9.93564
▁BC	-9.93584
lay	-9.93685
▁Yoga	-9.93712
shan	-9.93822
▁launched	-9.93843
▁prove	-9.93864
▁constitutional	-9.93879
▁Israeli	-9.93904
▁Work	-9.93927
▁Both	-9.93961
▁acc	-9.93965
▁applicable	-9.93977
▁worked	-9.93979
▁reduced	-9.94014
▁urban	-9.94029
▁draft	-9.94075
▁horse	-9.94078
▁gets	-9.94093
▁Which	-9.94172
▁identity	-9.94172
▁ordinary	-9.94172
▁hero	-9.94249
▁hear	-9.94297
▁chance	-9.94332
▁qu	-9.94345
DA	-9.94352
▁Out	-9.94382
▁mechanism	-9.94465
▁Company	-9.94465
▁completely	-9.94479
▁latter	-9.94485
▁respondent	-9.94491
▁See	-9.94495
▁journey	-9.94563
jan	-9.94629
▁drama	-9.9463
▁greeting	-9.94662
▁arrest	-9.94725
▁remove	-9.94737
▁Commercial	-9.94759
▁Speaker	-9.94759
▁Two	-9.94789
▁portion	-9.94837
▁sc	-9.94856
▁efficient	-9.94858
▁dry	-9.95005
izing	-9.95045
▁River	-9.95056
aya	-9.95069
▁planning	-9.95076
▁features	-9.95077
▁Sc	-9.95107
dhi	-9.95133
▁acid	-9.95174
oid	-9.95175
▁sex	-9.95214
▁inner	-9.95214
▁negative	-9.95251
▁app	-9.95401
▁decisions	-9.95409
kin	-9.95441
▁stone	-9.95576
uff	-9.95594
▁diseases	-9.95595
oph	-9.95652
▁refer	-9.95722
▁heat	-9.95845
▁Shi	-9.95857
▁sectors	-9.95948
so	-9.95964
var	-9.96033
▁entered	-9.96033
▁administrative	-9.96044
▁Another	-9.96044
▁throw	-9.96073
▁mouth	-9.96144
xi	-9.96186
▁select	-9.96226
▁tri	-9.96227
▁Ki	-9.96235
▁release	-9.96258
▁foundation	-9.96264
▁spent	-9.9633
▁commission	-9.96347
▁brain	-9.9635
▁wood	-9.964
rd	-9.96424
▁element	-9.9644
▁discharge	-9.96453
▁elected	-9.96461
▁box	-9.96486
▁notification	-9.96506
▁Home	-9.96525
rt	-9.96562
▁yield	-9.96642
▁applied	-9.96643
fin	-9.96713
stood	-9.96832
▁update	-9.96855
▁picture	-9.96898
▁argument	-9.97144
ose	-9.97198
pat	-9.97205
▁match	-9.97238
rn	-9.97243
▁improvement	-9.97251
▁Human	-9.97268
▁remained	-9.97288
EC	-9.97296
▁approved	-9.97299
▁officials	-9.97334
▁Procedure	-9.97345
▁senior	-9.97345
▁town	-9.97403
ob	-9.97422
▁democratic	-9.9743
▁dark	-9.97439
▁settlement	-9.97479
▁recommendations	-9.97513
▁fill	-9.97607
▁walk	-9.97615
▁convert	-9.9763
▁permit	-9.9765
▁profession	-9.97662
▁Red	-9.97666
if	-9.97732
▁cre	-9.97852
▁suffering	-9.97899
▁drawn	-9.97922
▁latest	-9.97924
pla	-9.9797
▁crops	-9.97982
▁Roy	-9.98004
▁released	-9.98038
avi	-9.98039
▁president	-9.98134
mar	-9.98141
▁governance	-9.98164
ute	-9.98198
▁achieved	-9.98229
▁drive	-9.98333
▁pan	-9.9838
▁initiatives	-9.98408
CC	-9.98436
▁tea	-9.98503
zi	-9.98523
▁worth	-9.98523
▁register	-9.98546
fr	-9.98547
▁Financial	-9.98562
▁output	-9.9858
▁store	-9.98611
▁nearly	-9.98625
jo	-9.98636
▁establish	-9.9864
▁Mission	-9.98664
▁principal	-9.98766
▁load	-9.98981
bit	-9.99084
▁Ph	-9.99173
▁participation	-9.99198
▁cast	-9.99204
▁ban	-9.99237
▁Don	-9.99264
▁moved	-9.99301
▁web	-9.99325
▁sand	-9.99423
rum	-9.99446
▁campaign	-9.99587
▁facilitate	-9.99587
stra	-9.99628
▁folk	-9.99733
▁meant	-9.99748
▁Association	-9.99793
▁border	-9.99794
▁union	-9.99801
▁centres	-9.99859
▁du	-9.99935
▁politics	-10
▁challenge	-10.0005
▁prices	-10.0016
▁supported	-10.0017
▁territory	-10.0021
▁battle	-10.0021
rm	-10.0023
log	-10.0029
cious	-10.0029
mu	-10.0048
▁gold	-10.0052
▁Jain	-10.0055
▁hair	-10.0056
▁weak	-10.0066
ert	-10.0072
▁conference	-10.0085
▁nine	-10.0092
▁depend	-10.0093
▁approval	-10.0094
▁couple	-10.0094
▁cat	-10.0097
▁removed	-10.0099
▁Das	-10.0101
▁creating	-10.0106
ture	-10.0109
lat	-10.0109
▁exceed	-10.0113
▁format	-10.0113
▁emphasis	-10.0114
▁guarantee	-10.0114
▁charged	-10.0122
low	-10.0122
▁director	-10.0126
▁factor	-10.0126
▁ear	-10.0127
▁false	-10.0135
ically	-10.0136
▁revenue	-10.0146
▁recorded	-10.0146
▁standing	-10.0153
anda	-10.016
▁trouble	-10.0167
▁Islamist	-10.0171
dev	-10.0175
ID	-10.0175
▁commitment	-10.0182
▁married	-10.0188
▁news	-10.0201
▁Bose	-10.0201
▁permission	-10.0201
▁bio	-10.0203
▁solution	-10.0206
▁li	-10.0208
▁shift	-10.0209
▁Sikh	-10.0211
by	-10.0217
▁Insurance	-10.022
▁analysis	-10.022
▁happen	-10.0227
▁lu	-10.0228
▁operate	-10.0231
▁Comp	-10.0232
▁SCC	-10.024
nal	-10.0241
▁Sal	-10.0244
▁London	-10.0251
▁center	-10.0254
graph	-10.0255
▁prosperity	-10.0262
▁garden	-10.0262
▁Internet	-10.0262
▁evil	-10.0265
gin	-10.0266
▁interesting	-10.0267
▁proposal	-10.0271
▁tonnes	-10.0284
pha	-10.0289
▁Show	-10.03
▁materials	-10.0305
▁Police	-10.0305
▁Hon	-10.0306
hat	-10.0308
▁Em	-10.0309
▁facility	-10.0315
▁Among	-10.0316
▁functioning	-10.0323
▁electronic	-10.0326
car	-10.0331
▁Could	-10.0337
▁finally	-10.0337
▁ob	-10.0338
▁citizen	-10.0345
▁reports	-10.0345
▁ju	-10.0352
▁mention	-10.0352
under	-10.0362
▁plain	-10.0363
▁folder	-10.0373
▁cor	-10.0376
▁characters	-10.0376
▁extension	-10.038
▁Network	-10.038
▁huge	-10.038
▁belong	-10.038
▁classes	-10.0384
▁trees	-10.0387
▁imm	-10.039
▁east	-10.0398
ek	-10.041
▁murder	-10.0412
▁pra	-10.0417
▁constitute	-10.0419
▁sources	-10.0421
▁Foreign	-10.0423
bul	-10.0423
▁rare	-10.0425
atory	-10.0425
▁Legislature	-10.0433
▁listen	-10.0434
▁promot	-10.0444
▁comment	-10.0446
▁Tu	-10.0449
▁maintained	-10.0452
▁Karnataka	-10.0455
▁sought	-10.0465
ature	-10.0468
▁poll	-10.0469
▁mail	-10.0469
cept	-10.0474
▁cap	-10.048
▁student	-10.048
▁allowance	-10.0482
▁submitted	-10.0489
▁atmosphere	-10.0499
▁communities	-10.0499
▁danger	-10.05
aging	-10.0501
▁CO	-10.0502
hur	-10.0505
pect	-10.0507
▁awareness	-10.0515
CH	-10.0515
▁sad	-10.0518
▁conducted	-10.0519
▁Kha	-10.0522
▁camp	-10.0524
▁grown	-10.0528
▁engine	-10.0531
▁unre	-10.0533
▁breath	-10.0542
▁writer	-10.0542
▁cave	-10.0542
▁apart	-10.0543
▁drugs	-10.0543
▁Right	-10.0552
fully	-10.0553
▁strike	-10.0554
▁opened	-10.0556
gam	-10.0558
ica	-10.0558
try	-10.0564
ku	-10.0567
▁obtained	-10.0581
▁finding	-10.0583
ony	-10.0588
vas	-10.0593
aw	-10.0596
▁weeks	-10.0596
▁execution	-10.0599
body	-10.06
▁pen	-10.0607
▁served	-10.0609
til	-10.0613
▁earn	-10.0621
hood	-10.0626
▁challenges	-10.0628
▁mar	-10.0633
▁ki	-10.0636
▁proportion	-10.0641
▁retain	-10.0642
▁street	-10.0652
▁race	-10.0653
▁didn	-10.0663
▁comp	-10.0665
ula	-10.0668
▁squared	-10.067
▁pick	-10.0673
▁universities	-10.0674
▁changing	-10.0675
▁incident	-10.0675
▁confident	-10.0683
▁Orissa	-10.0685
▁climate	-10.0685
▁prime	-10.0686
IM	-10.0692
▁sin	-10.0694
▁banking	-10.0697
▁west	-10.0699
last	-10.0699
▁consists	-10.0705
ese	-10.0705
▁moving	-10.0707
▁profits	-10.0712
▁Ran	-10.0715
▁Second	-10.0715
▁expenses	-10.0715
volving	-10.0718
ET	-10.0719
▁pollution	-10.073
▁temperature	-10.073
hen	-10.0731
gri	-10.0731
▁Nature	-10.0736
▁column	-10.0741
▁situated	-10.0741
AD	-10.0744
▁El	-10.0746
▁discipline	-10.0752
▁mobile	-10.0752
▁transferred	-10.0755
▁Each	-10.0761
▁affairs	-10.0763
VI	-10.0763
▁constitution	-10.0765
▁l	-10.0766
▁possession	-10.0772
ade	-10.0772
ank	-10.078
▁Ju	-10.078
▁Sun	-10.0783
▁Sen	-10.0788
▁elections	-10.079
▁Once	-10.0794
▁Although	-10.0797
▁plays	-10.08
▁attached	-10.08
▁maintenance	-10.0819
▁Fe	-10.0825
▁birds	-10.0827
▁devotion	-10.083
▁thirty	-10.083
▁More	-10.084
ld	-10.0849
pra	-10.085
▁healthy	-10.0851
▁Time	-10.0853
▁executive	-10.0854
▁valid	-10.0858
ATION	-10.0859
▁helped	-10.0859
ancy	-10.0861
▁scene	-10.0865
hr	-10.0868
ON	-10.0869
▁Press	-10.087
▁recently	-10.0878
▁raise	-10.0881
ries	-10.0882
▁lose	-10.0886
▁background	-10.0887
▁sister	-10.0898
▁operating	-10.0898
wo	-10.09
ina	-10.0908
▁Ti	-10.0913
PA	-10.0916
etic	-10.0917
▁solve	-10.0919
▁resource	-10.0921
▁absence	-10.0932
▁Self	-10.0933
rag	-10.0933
▁wear	-10.0936
atic	-10.0937
▁signal	-10.0939
▁rates	-10.0949
▁frame	-10.095
pal	-10.0954
▁chapter	-10.0955
▁gift	-10.0955
▁amendment	-10.096
▁exp	-10.0963
▁AIR	-10.0963
oy	-10.0963
▁courage	-10.0966
▁Rule	-10.0966
▁decades	-10.0974
▁pure	-10.0974
▁launch	-10.0975
▁elephant	-10.0977
▁imprisonment	-10.0978
east	-10.098
▁hill	-10.0987
▁engineering	-10.0989
▁arm	-10.1003
▁processes	-10.1007
nagar	-10.101
▁records	-10.1011
▁online	-10.1011
▁Middle	-10.1012
▁conclusion	-10.1012
▁ourselves	-10.1012
▁objectives	-10.1016
▁minor	-10.1017
NA	-10.1021
▁notes	-10.1027
iz	-10.1028
▁subjects	-10.1029
▁Society	-10.1035
lli	-10.1044
▁theory	-10.1044
▁cow	-10.1045
ker	-10.1046
▁weather	-10.1046
▁soft	-10.1056
AM	-10.106
▁flu	-10.106
▁Tra	-10.106
ved	-10.1062
abad	-10.1066
▁occur	-10.107
▁Select	-10.1072
▁des	-10.1076
▁greatest	-10.1078
some	-10.108
▁track	-10.1081
▁multiple	-10.1082
ita	-10.1083
ini	-10.1088
▁ocean	-10.1092
▁becoming	-10.1093
▁Shiva	-10.1099
▁Before	-10.1104
▁log	-10.1104
▁fellow	-10.1105
dle	-10.111
▁proceeding	-10.1119
▁pending	-10.112
tam	-10.1121
port	-10.1123
▁Railway	-10.1127
owing	-10.1131
hana	-10.1132
▁spend	-10.1136
▁critic	-10.1137
▁Women	-10.1138
▁piece	-10.1139
nda	-10.1139
▁regions	-10.1148
▁counsel	-10.115
▁audit	-10.1163
▁Assess	-10.1168
▁cricket	-10.1173
▁Life	-10.1175
▁harm	-10.1179
▁recognised	-10.1186
▁letters	-10.1188
▁aspect	-10.1191
▁resident	-10.1198
▁reflect	-10.1199
nia	-10.1199
▁billion	-10.1201
▁ego	-10.1203
▁threat	-10.1207
▁lies	-10.1211
▁formation	-10.1211
ras	-10.1213
SA	-10.1215
▁deliver	-10.1221
▁debate	-10.1221
▁edge	-10.1223
▁Independence	-10.1232
▁severe	-10.1232
▁iron	-10.1235
▁iv	-10.1241
▁shop	-10.1243
▁sha	-10.1244
▁Babu	-10.1245
X	-10.1247
▁houses	-10.1248
▁priority	-10.1249
▁evening	-10.1251
▁behaviour	-10.1255
▁Reserve	-10.1255
▁br	-10.1256
▁Park	-10.1257
▁adult	-10.1265
▁Jammu	-10.1267
▁Ru	-10.1273
▁URL	-10.1279
▁sweet	-10.1279
clause	-10.128
▁bringing	-10.1282
CE	-10.1289
▁prince	-10.129
▁zero	-10.1291
▁Social	-10.1292
ok	-10.1301
▁blue	-10.1302
▁cloth	-10.1304
ook	-10.1307
EL	-10.1308
▁capable	-10.1309
▁although	-10.1314
▁Limited	-10.1316
▁channel	-10.1325
gn	-10.1334
▁smaller	-10.1334
▁Jan	-10.1336
ological	-10.1337
▁Subhas	-10.1339
▁limitation	-10.1343
▁reported	-10.1344
▁Form	-10.1347
▁bilateral	-10.135
▁Mah	-10.1355
arising	-10.1372
▁manufacturing	-10.1373
▁connect	-10.1375
▁mu	-10.1376
ans	-10.1376
▁offences	-10.1378
▁designed	-10.1378
▁conscious	-10.1381
▁muscle	-10.1385
▁Mother	-10.1387
▁Wi	-10.1393
HA	-10.1395
▁string	-10.1397
▁scope	-10.1399
▁ability	-10.1402
▁gains	-10.1403
▁Governments	-10.141
▁environmental	-10.1417
▁subscribe	-10.1419
▁Province	-10.1421
▁choose	-10.1425
▁Training	-10.1433
lip	-10.1435
▁Col	-10.1438
▁intention	-10.1445
▁layer	-10.1445
icide	-10.1445
▁privilege	-10.1448
▁Comment	-10.1449
▁disputes	-10.1449
EM	-10.1451
medi	-10.1455
▁Add	-10.1459
▁prior	-10.1462
ata	-10.1462
▁contempt	-10.1468
▁endeavour	-10.1468
▁sur	-10.1475
illa	-10.148
▁identify	-10.1492
▁cease	-10.1493
▁partner	-10.1493
ken	-10.1496
▁remote	-10.1505
lia	-10.1505
▁hot	-10.1506
▁rice	-10.151
▁Shar	-10.151
▁Application	-10.1517
ole	-10.1524
▁Great	-10.1529
▁solar	-10.153
▁Fo	-10.1534
ms	-10.154
▁brief	-10.1541
▁Change	-10.1541
▁counter	-10.1552
▁password	-10.1553
▁Madras	-10.1553
▁Divine	-10.1554
vad	-10.1555
▁radio	-10.1562
▁welcome	-10.1573
▁Gra	-10.1578
▁signed	-10.1581
▁calculat	-10.1589
▁mistake	-10.1589
ories	-10.159
ush	-10.1594
▁scientists	-10.1599
▁career	-10.16
▁determine	-10.1601
▁please	-10.1612
▁Criminal	-10.1613
ey	-10.1615
▁effects	-10.1616
▁Control	-10.1625
▁Ab	-10.1637
▁minutes	-10.1637
▁advocate	-10.1638
▁acquired	-10.1642
▁script	-10.1643
▁liquid	-10.165
▁mere	-10.1653
▁Are	-10.1654
▁initiative	-10.1656
gal	-10.1657
▁upper	-10.1658
▁fruit	-10.166
lum	-10.1662
▁email	-10.1662
▁infection	-10.1662
▁identified	-10.1668
▁currency	-10.1674
▁adopt	-10.1676
▁friendship	-10.1676
▁implemented	-10.1677
iness	-10.1687
▁disk	-10.1691
▁delight	-10.1694
▁defeat	-10.1699
▁urge	-10.17
▁users	-10.1702
je	-10.1708
▁Order	-10.1714
▁sight	-10.1716
nam	-10.1716
▁tool	-10.1723
▁proof	-10.1726
▁corner	-10.1726
▁platform	-10.1736
▁bomb	-10.1739
▁enhance	-10.1744
▁performed	-10.1747
verse	-10.1747
▁Unit	-10.175
▁lie	-10.175
▁reaction	-10.1752
▁appeared	-10.1755
▁secure	-10.1758
▁customer	-10.1761
▁initial	-10.1763
lon	-10.1763
▁Affairs	-10.1773
▁begin	-10.1773
▁Industrial	-10.1781
▁farm	-10.1793
▁grain	-10.1798
yo	-10.1799
▁shared	-10.1802
ography	-10.1803
▁assigned	-10.1803
ral	-10.1807
▁disc	-10.1807
bin	-10.1812
▁000	-10.1813
tting	-10.1818
▁stress	-10.1823
▁Those	-10.1823
▁scholars	-10.1826
▁liberal	-10.1835
▁trend	-10.1835
▁mountain	-10.1836
▁desert	-10.1836
lab	-10.1838
▁installed	-10.1839
▁announced	-10.1841
▁pointed	-10.1842
▁contribute	-10.1843
▁wise	-10.1844
▁satisfied	-10.1847
iva	-10.185
rant	-10.185
▁dec	-10.1853
▁Port	-10.1862
▁filled	-10.1862
▁strengthen	-10.1868
▁Related	-10.1868
▁double	-10.1872
▁god	-10.1873
▁branches	-10.1875
▁Nadu	-10.1877
▁mandapa	-10.1884
▁route	-10.1886
▁flowers	-10.1889
▁jail	-10.1892
▁Ver	-10.1892
▁mill	-10.1895
▁alternative	-10.1897
▁Business	-10.1897
▁Rights	-10.1905
▁Economic	-10.1909
▁communal	-10.1909
▁employer	-10.1909
▁Security	-10.1922
▁quarter	-10.1922
oli	-10.1923
▁Prof	-10.1923
▁sexual	-10.1924
▁definition	-10.1935
▁tube	-10.1936
▁owner	-10.1947
▁Yes	-10.1947
▁Iran	-10.1953
▁respective	-10.1955
▁era	-10.1959
▁bus	-10.1975
▁Nations	-10.1977
▁organized	-10.1979
▁hit	-10.1989
▁ST	-10.1994
IR	-10.1995
▁Deputy	-10.1998
▁narrow	-10.1998
▁Something	-10.1998
▁Protection	-10.1998
▁skills	-10.1999
▁seemed	-10.2004
▁discussed	-10.201
▁none	-10.201
▁western	-10.201
▁drop	-10.2012
▁visited	-10.2014
ora	-10.2023
▁council	-10.2023
▁cloud	-10.2023
▁immediate	-10.2026
▁civilization	-10.2026
ong	-10.2033
pad	-10.2036
tel	-10.2043
nation	-10.2044
▁centuries	-10.2048
▁deals	-10.2048
▁bed	-10.2052
▁collected	-10.206
▁consumer	-10.2066
NS	-10.2079
▁manager	-10.2082
cho	-10.2086
▁arbitration	-10.2087
▁Marriage	-10.2099
▁marketing	-10.21
tom	-10.21
OS	-10.2101
ope	-10.2105
ets	-10.2106
mun	-10.2109
lit	-10.2109
ock	-10.211
▁bin	-10.211
len	-10.2118
CA	-10.2119
▁marked	-10.212
asi	-10.2122
▁wait	-10.2122
rap	-10.2123
▁represents	-10.2125
▁wild	-10.2125
▁doesn	-10.2127
▁eligible	-10.2137
▁simply	-10.2137
▁fuel	-10.2138
▁Mad	-10.2139
▁judiciary	-10.215
▁comprehensive	-10.2151
▁drug	-10.2152
otic	-10.2155
▁employee	-10.2155
▁Data	-10.2156
raja	-10.2158
rc	-10.2164
▁constant	-10.2167
▁Its	-10.2176
▁History	-10.2177
▁merit	-10.2178
gni	-10.2179
▁shrine	-10.2189
▁wave	-10.2194
▁transaction	-10.2195
▁fell	-10.22
▁gene	-10.22
imposed	-10.2202
▁belonging	-10.2202
▁Swami	-10.2204
▁appearance	-10.2206
▁auto	-10.2207
ibility	-10.2215
▁framework	-10.2215
▁stands	-10.222
▁recognition	-10.2228
▁creative	-10.2229
▁Master	-10.2233
▁pot	-10.2235
cc	-10.2241
▁Gha	-10.2246
▁rivers	-10.2247
▁treat	-10.2248
▁reforms	-10.2257
▁advanced	-10.2257
▁Bangladesh	-10.2266
▁university	-10.2266
▁killed	-10.2266
▁Joint	-10.2267
▁bird	-10.2272
inal	-10.2278
▁French	-10.228
▁mostly	-10.2281
▁substantial	-10.2283
▁organizations	-10.2286
▁equality	-10.2289
uni	-10.2289
name	-10.229
▁equally	-10.2297
▁metal	-10.2303
▁girls	-10.2308
col	-10.2316
▁Principal	-10.2318
▁intended	-10.2326
▁Ag	-10.2328
▁vehicle	-10.2328
ida	-10.2332
▁tribal	-10.2332
cor	-10.2333
OC	-10.2335
aj	-10.2341
clo	-10.2345
▁containing	-10.2347
▁recommend	-10.235
▁Lal	-10.2351
▁properly	-10.2354
▁dr	-10.2355
▁reserve	-10.2356
▁feature	-10.2368
▁flower	-10.237
▁chain	-10.2372
▁household	-10.2374
▁initiated	-10.238
▁fifty	-10.2384
table	-10.2386
▁kill	-10.239
▁Small	-10.2397
▁Vice	-10.2398
▁visible	-10.2398
▁Land	-10.2399
▁composed	-10.2401
▁insect	-10.2416
▁skill	-10.2422
▁span	-10.2422
▁qua	-10.2423
lap	-10.2432
▁amended	-10.2432
▁sit	-10.2439
▁prose	-10.2442
▁Rural	-10.2453
▁Sat	-10.2454
OL	-10.2455
own	-10.2456
▁Ge	-10.2456
▁opposition	-10.2463
bor	-10.2474
▁Pal	-10.2476
over	-10.2477
▁electricity	-10.2479
▁bright	-10.248
▁organised	-10.2481
▁discuss	-10.2482
▁category	-10.249
▁photo	-10.249
▁extremely	-10.2494
▁attract	-10.2496
▁undertaken	-10.2499
▁supreme	-10.2503
▁Year	-10.2503
▁escape	-10.2503
▁Trade	-10.2504
▁entirely	-10.2505
my	-10.2506
▁exists	-10.2513
▁technologies	-10.2516
▁Failed	-10.2516
craft	-10.2529
▁Good	-10.2535
▁calls	-10.2539
▁Hyderabad	-10.2543
▁competent	-10.2543
▁pull	-10.2545
▁def	-10.2553
▁personality	-10.2564
▁seeking	-10.2565
CS	-10.2578
▁Nar	-10.2582
▁guide	-10.2585
▁Kh	-10.2588
▁possess	-10.2594
▁lit	-10.2595
▁fat	-10.2597
▁thousands	-10.26
nna	-10.2608
▁custom	-10.2618
▁poets	-10.262
del	-10.2622
▁blind	-10.2623
▁Mor	-10.263
CR	-10.2631
▁traffic	-10.2637
▁grand	-10.2637
▁looks	-10.2643
▁sick	-10.2651
▁liability	-10.2652
pan	-10.2653
▁prosecution	-10.2655
des	-10.2662
▁Food	-10.2665
▁song	-10.2666
▁Exchange	-10.2677
MS	-10.2679
▁sugar	-10.2679
▁representation	-10.2688
▁Head	-10.2688
▁employed	-10.2691
nes	-10.27
▁drink	-10.2704
ban	-10.2709
▁victim	-10.2709
▁conviction	-10.271
▁Hari	-10.2711
▁depends	-10.2712
bel	-10.2715
AP	-10.2715
▁Hi	-10.2717
▁ahead	-10.2718
▁starting	-10.2718
▁limits	-10.2724
▁directed	-10.2731
▁outstanding	-10.2731
▁regulations	-10.2736
▁felicitations	-10.2745
▁informed	-10.2745
▁eggs	-10.2746
▁organ	-10.2748
▁wonder	-10.2749
▁Name	-10.2756
▁accurate	-10.2759
▁Urdu	-10.2759
▁inform	-10.2772
▁absolute	-10.2777
▁bond	-10.2783
▁su	-10.2792
▁arise	-10.2795
dan	-10.2797
comp	-10.2799
▁thank	-10.28
▁hardly	-10.2808
gram	-10.2808
▁rent	-10.281
rel	-10.2812
rang	-10.2815
crea	-10.2818
▁instruments	-10.282
▁fix	-10.2822
▁mr	-10.2825
▁myself	-10.2827
▁Book	-10.2835
▁figures	-10.2842
▁flat	-10.2846
▁dog	-10.2847
arian	-10.285
▁kinds	-10.2852
▁divide	-10.2852
nc	-10.2853
ila	-10.2854
▁Panchayat	-10.2854
▁fourth	-10.2856
▁furnish	-10.2857
pec	-10.2859
▁sold	-10.286
▁actions	-10.2861
▁consultation	-10.2863
cip	-10.2864
uous	-10.2866
▁Houses	-10.2866
had	-10.2866
▁strange	-10.2869
▁pension	-10.287
▁coal	-10.2877
▁quickly	-10.2877
▁Madhya	-10.2882
▁closed	-10.2887
joined	-10.2888
▁Enable	-10.2894
cra	-10.2894
▁Vishnu	-10.2896
▁Pandit	-10.2896
▁deeply	-10.2898
▁quick	-10.2902
gr	-10.2904
wn	-10.2905
▁runs	-10.2908
eous	-10.2909
▁Eastern	-10.291
▁expand	-10.2917
▁witnesses	-10.292
▁arrangement	-10.2921
▁Award	-10.2926
point	-10.2936
▁poetic	-10.2937
▁arms	-10.2937
▁province	-10.2937
▁collective	-10.2941
▁Op	-10.2941
nar	-10.2946
▁Assistant	-10.2951
▁Capital	-10.2951
▁floor	-10.2951
▁panel	-10.2956
▁enabled	-10.2958
▁slow	-10.2961
▁budget	-10.2965
ome	-10.2967
mic	-10.2979
▁venture	-10.2979
▁seat	-10.298
▁roll	-10.2991
▁John	-10.2993
▁sacred	-10.2993
▁spoke	-10.2995
▁enc	-10.2996
▁stamp	-10.2998
▁Address	-10.3007
bur	-10.3011
▁appreciate	-10.3021
▁diet	-10.3028
▁proud	-10.3031
▁Sita	-10.3031
▁Hence	-10.3034
▁offices	-10.3039
ches	-10.3046
▁mid	-10.3046
▁burden	-10.3049
▁Sardar	-10.305
▁socio	-10.3054
▁interested	-10.3058
ain	-10.3061
uring	-10.3067
▁pair	-10.3069
DI	-10.3076
▁impossible	-10.3077
adi	-10.3081
▁consent	-10.3083
▁assist	-10.3088
▁Election	-10.3091
▁Ltd	-10.3092
▁helps	-10.3097
▁Hu	-10.3099
▁Direct	-10.3103
▁tender	-10.3111
▁FOR	-10.3113
num	-10.3116
▁Magistrate	-10.3119
▁prevail	-10.3119
dia	-10.3122
▁Siva	-10.3125
▁awarded	-10.3126
pre	-10.3132
▁corporate	-10.3134
▁straight	-10.3134
▁steel	-10.3134
agon	-10.3142
IP	-10.3145
▁selection	-10.3147
▁organisations	-10.3148
▁Import	-10.3148
▁requirement	-10.3155
▁sheet	-10.3157
pati	-10.3162
ley	-10.3168
▁fun	-10.3168
▁directions	-10.317
▁respond	-10.3172
▁customers	-10.3172
▁loans	-10.3176
▁publish	-10.3181
▁liable	-10.3187
▁offers	-10.3193
▁distinguished	-10.3202
like	-10.3209
▁exports	-10.321
▁instructions	-10.3215
▁intelligence	-10.3219
▁cheque	-10.3219
▁ratio	-10.3221
▁arrived	-10.3223
▁Bas	-10.3226
▁consist	-10.323
▁Regulation	-10.3233
▁enacted	-10.3233
▁Persian	-10.3233
▁understood	-10.3236
qua	-10.3238
▁Gora	-10.324
▁movements	-10.3241
▁Buddha	-10.3247
OP	-10.3259
▁telephone	-10.3262
▁happens	-10.3266
▁sanction	-10.3267
▁Micro	-10.3271
place	-10.3273
▁covering	-10.3275
▁ritual	-10.3276
▁examine	-10.3276
▁commencement	-10.3277
▁compound	-10.3277
▁Parliamentary	-10.3281
▁explained	-10.3283
▁Export	-10.3292
▁Iraq	-10.3294
▁salt	-10.3295
▁playing	-10.3301
dis	-10.3302
▁personnel	-10.3305
▁Just	-10.3314
▁admitted	-10.3321
▁prayer	-10.3324
ase	-10.3328
▁core	-10.333
▁u	-10.3331
▁Convention	-10.3334
ific	-10.3337
▁estimated	-10.3342
▁respectively	-10.3345
▁determination	-10.3348
▁Free	-10.3351
▁Ministers	-10.3352
▁claims	-10.3357
▁addressed	-10.3359
▁reply	-10.3363
▁inquiry	-10.3363
▁travell	-10.3369
▁masses	-10.3369
▁efficiency	-10.3377
▁commenc	-10.338
▁Swa	-10.3388
clu	-10.3389
▁Like	-10.3389
AB	-10.3391
▁legislative	-10.3392
▁Gupta	-10.3392
pho	-10.3392
▁Similarly	-10.3397
▁speaking	-10.3403
▁dedicated	-10.3406
▁cycle	-10.3406
vat	-10.341
oma	-10.3416
▁artist	-10.3417
ky	-10.3418
phy	-10.3422
CT	-10.3423
oon	-10.3427
▁statutory	-10.3428
DE	-10.3429
PC	-10.3433
▁submit	-10.3434
▁everyone	-10.3443
▁remind	-10.3456
▁map	-10.3456
RO	-10.3466
dir	-10.3469
▁Awards	-10.3471
▁representative	-10.3474
▁evolution	-10.3479
▁effectively	-10.3481
▁parent	-10.3482
gy	-10.349
▁availability	-10.3495
▁spite	-10.3498
tus	-10.3499
LA	-10.3502
hya	-10.3503
▁exclud	-10.3509
▁objects	-10.351
▁Nor	-10.3514
▁extensive	-10.3523
▁guidelines	-10.3523
▁anyone	-10.3531
▁Germany	-10.3537
▁passage	-10.3539
▁Auto	-10.3543
▁arrested	-10.3543
por	-10.3544
▁continues	-10.3546
१०	-10.3551
▁disorder	-10.3553
▁prepare	-10.3554
TA	-10.3555
unch	-10.3562
▁leaving	-10.3567
▁uses	-10.3572
▁contributions	-10.3572
riv	-10.3575
rav	-10.3576
ress	-10.3576
head	-10.358
▁Buddhist	-10.3582
▁Speaking	-10.3582
▁RE	-10.3594
▁Agriculture	-10.3612
▁uniform	-10.3612
▁succeed	-10.3619
▁wants	-10.3619
gle	-10.3627
▁composition	-10.3628
vil	-10.3634
▁recognized	-10.3636
▁districts	-10.364
▁improving	-10.3642
▁Che	-10.3642
▁handle	-10.3649
hra	-10.3653
▁repeated	-10.3657
ivity	-10.366
▁Note	-10.3668
▁derived	-10.3668
▁procedures	-10.3668
▁Mughal	-10.3672
▁Jawaharlal	-10.3672
▁detailed	-10.3673
▁Vir	-10.3674
▁Web	-10.3678
▁rapid	-10.3679
▁humanity	-10.3682
II	-10.3683
house	-10.3687
▁raw	-10.369
▁package	-10.3696
▁talent	-10.3702
▁grass	-10.3702
▁showing	-10.3708
▁DNA	-10.3708
▁transactions	-10.3709
▁filing	-10.3717
▁band	-10.372
dhar	-10.3723
▁mine	-10.3728
▁demands	-10.373
NAME	-10.3731
▁happiness	-10.3731
▁quantity	-10.3731
▁enemy	-10.3731
▁represent	-10.3732
▁client	-10.3733
▁holder	-10.3741
▁preparation	-10.3746
▁superior	-10.3746
▁Medical	-10.3747
▁acting	-10.3749
▁journal	-10.3751
well	-10.3752
▁competition	-10.3762
reg	-10.3766
▁practical	-10.3769
cat	-10.3775
▁showed	-10.3776
▁applicant	-10.3777
▁Nav	-10.3777
▁sharp	-10.3778
hum	-10.3781
▁finger	-10.3782
▁consult	-10.3782
yl	-10.3783
▁bridge	-10.3784
▁Ac	-10.379
▁consumption	-10.3792
▁Mand	-10.3804
▁upto	-10.3805
cap	-10.3807
▁disposal	-10.3807
११	-10.3812
▁examples	-10.3818
▁egg	-10.382
▁mineral	-10.3822
▁contemporary	-10.3822
▁baby	-10.3823
▁differences	-10.3823
rad	-10.3828
kara	-10.3829
ave	-10.3835
▁appellant	-10.3837
▁heritage	-10.3837
▁housing	-10.3837
▁promise	-10.3839
▁sky	-10.3846
▁theme	-10.385
▁difficulty	-10.385
▁Child	-10.3852
▁verse	-10.3855
▁III	-10.3856
▁Q	-10.3857
▁victims	-10.3862
▁cool	-10.3863
▁Army	-10.3864
▁guidance	-10.3868
zar	-10.3876
▁prospect	-10.3883
▁certainly	-10.3884
▁settled	-10.3886
▁regime	-10.3887
▁partition	-10.3893
▁remaining	-10.3893
▁saint	-10.3899
▁passion	-10.3899
▁kingdom	-10.3899
mination	-10.3902
▁Set	-10.3904
▁minds	-10.3909
▁cook	-10.3913
▁Credit	-10.3913
▁MSME	-10.3913
▁York	-10.3913
▁adapt	-10.3914
meter	-10.3916
▁grounds	-10.3928
matic	-10.3931
▁enterprise	-10.3933
▁prisoner	-10.3934
back	-10.3935
▁normally	-10.3941
▁strategy	-10.3944
▁elder	-10.3945
▁About	-10.3945
▁fees	-10.3948
▁inspired	-10.3959
▁acquisition	-10.3959
▁Binoy	-10.3959
▁dress	-10.3964
▁college	-10.3965
▁Environment	-10.3969
▁decade	-10.397
▁distinction	-10.3972
▁Through	-10.3975
▁imagine	-10.3975
▁Brahmin	-10.3976
▁reli	-10.3979
ugh	-10.398
▁Resource	-10.399
▁regulate	-10.399
▁computing	-10.399
▁bail	-10.3994
py	-10.3998
▁reveal	-10.3999
▁flag	-10.4006
▁virtue	-10.4006
▁palace	-10.4006
▁immense	-10.4006
▁Dar	-10.4006
ending	-10.4009
▁destroy	-10.4015
▁Fr	-10.4019
▁Industry	-10.4021
▁nerve	-10.4022
endra	-10.4024
▁pages	-10.4025
ipp	-10.4026
▁writers	-10.4033
▁emergency	-10.4037
▁criticism	-10.4041
▁difficulties	-10.4044
wer	-10.4047
▁install	-10.4052
▁ensur	-10.4057
▁Bir	-10.4064
▁bath	-10.4064
▁successfully	-10.4067
ench	-10.4067
▁zone	-10.4068
▁Japan	-10.4068
▁opt	-10.4078
▁Chaitanya	-10.4083
▁Afghanistan	-10.4083
▁sustainable	-10.4084
▁markets	-10.4091
hari	-10.4099
▁sell	-10.4099
▁partial	-10.41
▁Paper	-10.4104
TE	-10.4109
▁combination	-10.4114
▁expansion	-10.4114
▁flood	-10.4114
▁injury	-10.4114
▁fault	-10.4115
▁integrated	-10.4119
BI	-10.412
▁borrow	-10.4125
▁specify	-10.413
▁crisis	-10.4131
▁gui	-10.4132
▁Executive	-10.4146
▁utter	-10.4148
▁unable	-10.415
wise	-10.4155
zz	-10.4156
▁regarded	-10.4157
▁League	-10.4161
tem	-10.4162
ksha	-10.4162
▁tools	-10.4162
HO	-10.4165
▁religions	-10.4167
lig	-10.4176
▁bag	-10.4177
ori	-10.4184
dom	-10.4188
▁neighbour	-10.4192
▁repair	-10.4193
▁Children	-10.4209
▁investors	-10.4213
▁lake	-10.4214
▁defendant	-10.4217
▁ble	-10.4218
eb	-10.4224
▁tomorrow	-10.4224
▁quiet	-10.4225
▁happening	-10.4226
▁occurs	-10.4234
▁Pur	-10.4241
▁interpretation	-10.4249
▁armed	-10.425
▁exception	-10.4251
hin	-10.4254
▁circle	-10.4256
▁switch	-10.4256
▁usual	-10.4261
▁governments	-10.4265
▁bow	-10.4272
▁Rai	-10.4275
ami	-10.4276
▁destination	-10.4288
▁violent	-10.4288
▁sole	-10.4288
▁widely	-10.4294
▁afford	-10.4297
▁Start	-10.4297
▁Je	-10.4298
▁editor	-10.4302
ero	-10.4303
▁comprise	-10.4304
bre	-10.4305
▁plans	-10.4306
bhu	-10.4306
▁seeds	-10.4307
▁Mala	-10.4308
▁Market	-10.4308
▁rever	-10.4309
hir	-10.4312
▁Regional	-10.4315
▁tribunal	-10.4319
▁appoint	-10.4321
lessness	-10.4324
▁Yet	-10.4327
rg	-10.433
▁participate	-10.4336
▁outer	-10.4336
▁irrigation	-10.4337
ena	-10.4338
▁amp	-10.4338
▁topic	-10.4339
▁Cho	-10.434
▁Hol	-10.4346
▁Ambedkar	-10.4351
▁competitive	-10.4351
▁celebrated	-10.4353
room	-10.4353
▁mono	-10.4356
▁remarkable	-10.4357
not	-10.4358
▁legs	-10.4363
PS	-10.4364
▁educated	-10.4366
▁prominent	-10.4367
rush	-10.4369
▁motor	-10.4372
▁significance	-10.4383
▁thick	-10.4385
▁thoughts	-10.4388
▁taught	-10.439
▁Bench	-10.4394
▁trained	-10.4395
logical	-10.4399
▁Companies	-10.4399
▁lecture	-10.4399
▁ga	-10.4406
▁controlled	-10.4408
▁blow	-10.4409
press	-10.4409
▁leg	-10.4415
▁aforesaid	-10.4415
▁crowd	-10.4415
▁Appeal	-10.4416
▁talking	-10.4417
▁viz	-10.4417
▁Sea	-10.4421
▁subsequent	-10.4425
▁twelve	-10.4432
▁dealt	-10.4434
nga	-10.4438
DR	-10.4441
▁valuable	-10.4448
▁voluntary	-10.4448
▁neck	-10.445
▁permitted	-10.445
▁input	-10.4452
▁Laws	-10.4455
▁implement	-10.4464
▁herself	-10.4464
▁harmony	-10.4464
▁forget	-10.4469
▁whi	-10.447
EA	-10.4477
▁plaintiff	-10.448
▁universe	-10.448
▁trading	-10.448
▁transmission	-10.448
▁Prasad	-10.4483
▁chosen	-10.4485
▁destruction	-10.4496
▁grew	-10.4496
▁conversion	-10.4498
▁Trust	-10.4499
▁papers	-10.4501
▁fail	-10.4504
view	-10.4506
▁Russia	-10.4512
▁fifteen	-10.4512
▁guilty	-10.4512
▁dollar	-10.4512
▁Nagar	-10.452
work	-10.4541
▁yourself	-10.4545
▁domain	-10.4545
▁Mohan	-10.4545
▁attain	-10.4546
terior	-10.4548
▁Indo	-10.4552
▁delivered	-10.4553
face	-10.4559
▁Registration	-10.4561
▁evident	-10.4561
▁roof	-10.4562
▁prefer	-10.4563
▁roads	-10.4566
▁hall	-10.457
▁Later	-10.4575
▁Ap	-10.4578
loom	-10.4581
Q	-10.4582
load	-10.4583
▁representatives	-10.4584
▁digital	-10.4585
▁manage	-10.4592
▁breed	-10.4592
▁boat	-10.4594
▁contrary	-10.4594
▁southern	-10.4594
▁progressive	-10.4598
long	-10.4598
▁tour	-10.4599
▁Earth	-10.46
▁Pu	-10.4602
tant	-10.4608
▁UK	-10.4609
ode	-10.4609
▁royal	-10.461
▁prop	-10.4611
▁productivity	-10.4611
▁drawing	-10.462
▁attacks	-10.4627
▁push	-10.4633
active	-10.4633
list	-10.4634
ND	-10.4639
▁recovery	-10.4639
hole	-10.464
▁snake	-10.4643
▁recall	-10.4644
worm	-10.4645
▁equity	-10.466
▁celebrat	-10.4661
▁arrangements	-10.4665
▁Road	-10.4667
▁consisting	-10.4672
▁replace	-10.4675
▁Kolkata	-10.4676
▁radical	-10.4677
▁soldiers	-10.4678
logy	-10.4679
▁forests	-10.4683
ola	-10.4689
▁coin	-10.469
▁emotional	-10.4696
▁dynamic	-10.47
▁remark	-10.4703
▁Provid	-10.4708
yard	-10.4709
▁safeguard	-10.4709
▁depth	-10.4709
▁operative	-10.4711
▁Dh	-10.4711
▁Hav	-10.4712
▁settings	-10.4712
▁Prem	-10.4713
▁chargeable	-10.4713
▁Apart	-10.4715
▁transformation	-10.4717
▁walls	-10.4719
▁litigation	-10.4726
▁broken	-10.4738
▁stick	-10.4745
▁wound	-10.4746
lex	-10.4752
app	-10.4752
▁offering	-10.4753
▁possibility	-10.4759
▁leaf	-10.476
▁Legal	-10.4761
▁Australia	-10.4763
▁fluid	-10.4764
ifi	-10.4771
▁backward	-10.4772
ane	-10.4774
▁Gram	-10.4776
accompanied	-10.4776
▁Chinese	-10.4776
▁fertiliz	-10.4776
▁infinite	-10.4776
▁Annual	-10.4776
net	-10.478
hak	-10.4781
▁Committees	-10.4784
ort	-10.4787
▁guard	-10.4791
▁Will	-10.4792
▁numerous	-10.4793
▁poison	-10.4793
▁refused	-10.4797
▁Ben	-10.4803
▁continuous	-10.4804
▁authentic	-10.4809
▁grievance	-10.4809
▁Text	-10.481
encies	-10.481
▁holds	-10.4816
▁acceptance	-10.4819
▁Being	-10.4824
▁reader	-10.4825
▁familiar	-10.4826
tas	-10.4836
▁distinct	-10.4841
▁absorb	-10.4843
▁bottom	-10.4843
▁prompt	-10.4843
▁laugh	-10.4846
▁click	-10.4846
▁founded	-10.4852
▁Chrome	-10.486
▁deposits	-10.4862
▁alter	-10.4862
ifying	-10.4871
ched	-10.4875
▁temporary	-10.4876
▁thereby	-10.4876
▁sentiment	-10.4876
▁Britain	-10.4877
▁begins	-10.4883
win	-10.4883
▁newspaper	-10.4883
TION	-10.4889
deva	-10.4894
▁defect	-10.4894
▁geo	-10.4897
stone	-10.49
▁fruits	-10.4901
▁semi	-10.4907
▁satisfaction	-10.491
▁presid	-10.4913
▁eternal	-10.4913
▁Final	-10.4922
▁pack	-10.4923
▁painting	-10.4923
eep	-10.4924
▁excellence	-10.4927
▁stages	-10.4929
▁multiply	-10.4944
▁park	-10.4954
▁pound	-10.4958
▁corporation	-10.4961
ought	-10.497
▁discussions	-10.4971
▁detail	-10.4972
fect	-10.4973
▁excess	-10.4974
▁introduction	-10.4978
vir	-10.4978
▁essentially	-10.498
part	-10.4982
▁waiting	-10.4982
kal	-10.4986
▁extreme	-10.499
▁Himachal	-10.4995
▁assembly	-10.4995
▁audio	-10.4996
▁France	-10.4998
▁download	-10.4999
▁gradually	-10.5001
▁undertake	-10.5007
▁PR	-10.501
▁faculty	-10.5012
▁securities	-10.5013
▁fulfil	-10.5015
akh	-10.5017
▁achievement	-10.5018
▁specially	-10.5021
poli	-10.5025
▁occupation	-10.5029
▁wholly	-10.503
chal	-10.5032
▁Ref	-10.5033
▁authorised	-10.5034
▁Mus	-10.5036
▁qualities	-10.5046
▁Asian	-10.5047
▁breast	-10.5047
nk	-10.5053
▁modification	-10.5064
▁conferred	-10.5064
▁suddenly	-10.5068
▁solutions	-10.5069
ENT	-10.5072
▁broke	-10.5074
▁commit	-10.5075
▁disappear	-10.5081
▁Vedic	-10.5081
PP	-10.5087
▁Last	-10.5096
▁Advocate	-10.5098
▁producing	-10.5098
▁Bri	-10.5098
udi	-10.5103
▁advised	-10.511
parliamentary	-10.5111
▁opposite	-10.5115
▁cotton	-10.5115
▁brave	-10.5119
▁Penal	-10.5125
rai	-10.5125
▁rulers	-10.5129
▁component	-10.5131
▁protest	-10.5133
▁Class	-10.5133
▁noted	-10.5136
▁tail	-10.5136
▁interpret	-10.514
▁weapons	-10.5146
bon	-10.5148
▁segment	-10.515
▁visual	-10.5151
▁departments	-10.5156
▁recognize	-10.5156
▁linked	-10.5157
hav	-10.516
▁arch	-10.5167
▁resort	-10.5167
▁button	-10.5168
TI	-10.5171
▁Read	-10.5175
oth	-10.5175
▁bri	-10.5177
eng	-10.5181
gged	-10.5182
▁meetings	-10.5184
▁categories	-10.5184
▁http	-10.5184
▁accordingly	-10.5186
▁dependent	-10.5191
▁Make	-10.5191
▁Four	-10.5194
▁Mac	-10.5202
▁writings	-10.5203
▁terminal	-10.5204
▁largely	-10.5209
▁legislature	-10.5219
▁Labour	-10.522
▁Mat	-10.522
▁encouraged	-10.5223
SP	-10.5225
band	-10.5231
▁Universities	-10.5237
▁teeth	-10.5237
▁Turkey	-10.5237
▁forwarded	-10.5238
▁vis	-10.5249
tract	-10.5252
▁suggestion	-10.5252
▁emb	-10.5253
▁illegal	-10.5254
▁architecture	-10.5255
▁pray	-10.5255
▁str	-10.5262
▁bas	-10.5265
▁teach	-10.5265
▁verses	-10.5267
▁currently	-10.5267
▁Certificate	-10.5272
▁northern	-10.5272
▁admit	-10.5272
▁assess	-10.5284
▁interaction	-10.5284
▁investments	-10.5285
▁Cabinet	-10.5289
▁Innovation	-10.5289
▁Audit	-10.529
▁Back	-10.5297
▁meal	-10.5299
▁pit	-10.5304
▁node	-10.5304
▁messages	-10.5305
▁accomplish	-10.5307
▁circuit	-10.5307
▁strategic	-10.5307
▁carefully	-10.5307
▁German	-10.5307
rao	-10.5309
▁menu	-10.531
▁Dev	-10.5313
▁goals	-10.5317
▁symptoms	-10.5317
▁gods	-10.5319
▁rose	-10.5324
▁abnormal	-10.5324
garh	-10.5325
▁millions	-10.5332
pend	-10.5334
▁sudden	-10.5337
▁monitor	-10.5341
▁leads	-10.5342
don	-10.5343
▁tab	-10.5345
▁Gita	-10.5347
▁consequences	-10.5349
▁claimed	-10.5349
▁Imp	-10.5355
▁drinking	-10.536
▁eastern	-10.536
▁gross	-10.536
▁UT	-10.536
▁components	-10.5361
▁technological	-10.5361
vin	-10.5362
▁invited	-10.5362
▁estimate	-10.5367
▁directory	-10.5374
▁Ve	-10.5374
▁amendments	-10.5374
▁Char	-10.5375
cular	-10.5376
▁disabled	-10.5378
▁Print	-10.5378
▁icon	-10.5379
▁writ	-10.5385
▁confined	-10.5388
uit	-10.5389
▁collect	-10.539
MO	-10.5393
▁exactly	-10.5393
▁cancer	-10.5394
▁declaration	-10.5395
▁Area	-10.5407
▁ran	-10.5408
▁lesson	-10.5413
tech	-10.5421
mate	-10.5423
ache	-10.5424
▁transform	-10.5425
▁dangerous	-10.5428
tir	-10.5428
▁unknown	-10.5431
▁dignity	-10.5431
▁Edit	-10.5432
▁secular	-10.5432
▁despite	-10.5433
una	-10.5439
tum	-10.5445
▁Sometimes	-10.5449
Z	-10.545
chandra	-10.5455
▁gall	-10.5463
▁incurred	-10.5466
eri	-10.5467
▁stopped	-10.5468
MP	-10.547
▁resid	-10.5473
▁valley	-10.5484
▁font	-10.5485
▁print	-10.5487
▁genetic	-10.5487
▁detect	-10.5495
most	-10.5498
▁recommendation	-10.55
▁distributed	-10.5502
▁Appellate	-10.5502
▁PRODUCT	-10.5502
▁White	-10.5502
▁subordinate	-10.5503
▁atomic	-10.5503
▁fever	-10.5503
▁relative	-10.5506
▁fort	-10.5513
▁cry	-10.5513
▁Egypt	-10.5519
▁grave	-10.5519
▁causing	-10.552
quir	-10.5531
▁epic	-10.5532
▁indicate	-10.5536
▁empire	-10.5538
The	-10.5542
▁collaboration	-10.5547
▁eminent	-10.5556
▁profile	-10.5556
▁Ed	-10.556
rk	-10.5563
▁gland	-10.5568
▁tear	-10.5569
▁Brahman	-10.5571
▁excellent	-10.5574
▁Lu	-10.5575
▁dust	-10.5577
▁Has	-10.5577
▁tourism	-10.5579
▁actor	-10.5579
▁Due	-10.558
▁invest	-10.5586
▁prison	-10.5586
▁prejudice	-10.5589
▁beat	-10.5589
stan	-10.5589
CON	-10.5591
▁protein	-10.5592
▁Brahma	-10.5593
▁Kingdom	-10.5593
▁feelings	-10.5595
ref	-10.5597
▁palm	-10.5601
▁City	-10.5603
duct	-10.5605
▁realise	-10.5606
▁Bur	-10.5606
▁Ten	-10.5609
▁Support	-10.561
▁sorrow	-10.5611
▁Ramayana	-10.5611
▁interface	-10.5612
▁proposals	-10.5614
▁tenant	-10.5619
▁represented	-10.5619
▁followers	-10.5623
▁inserted	-10.5625
▁NAME	-10.5634
▁discover	-10.5634
PO	-10.5639
▁hence	-10.5641
law	-10.5644
▁innovative	-10.5647
▁studied	-10.5647
▁widow	-10.5647
▁occurred	-10.5648
▁mixed	-10.5655
▁san	-10.5659
▁tank	-10.5661
▁Maharaja	-10.5666
▁minute	-10.5667
▁Flag	-10.5669
▁obvious	-10.5679
▁scar	-10.5683
▁Custom	-10.5683
▁warrant	-10.5686
▁lady	-10.5688
▁dam	-10.569
▁emotion	-10.5698
▁harvest	-10.5701
cri	-10.5703
▁Number	-10.5704
▁concerns	-10.5707
▁boys	-10.5712
▁technique	-10.5714
▁solid	-10.572
lle	-10.5722
▁spring	-10.5724
▁images	-10.5728
▁plane	-10.5731
▁march	-10.5732
▁cri	-10.5734
▁yellow	-10.5738
▁involves	-10.5744
▁holy	-10.5744
▁taste	-10.5749
▁fighting	-10.5755
▁pride	-10.5757
leg	-10.5757
▁Lanka	-10.5758
▁impression	-10.5765
▁illness	-10.5768
ii	-10.5768
lal	-10.5771
▁passenger	-10.5775
▁Saudi	-10.5777
▁Hy	-10.5779
can	-10.5782
appa	-10.579
▁proviso	-10.5793
▁Mark	-10.5797
nan	-10.5799
▁secondary	-10.5801
▁customs	-10.5805
▁devotee	-10.5809
▁shaped	-10.5809
▁diversity	-10.5812
ene	-10.5813
▁commonly	-10.5816
anga	-10.5817
▁seats	-10.5824
zo	-10.5826
▁fan	-10.5831
▁impart	-10.5832
▁Basava	-10.5833
▁mini	-10.5839
cast	-10.584
ously	-10.5846
▁receiving	-10.5849
▁supplement	-10.5849
▁seeing	-10.5851
▁truly	-10.5852
▁sample	-10.5852
▁starts	-10.5853
▁tourist	-10.5857
▁rising	-10.5858
▁percentage	-10.5861
▁Author	-10.5862
▁meat	-10.5862
▁kg	-10.5864
amba	-10.5866
▁automatically	-10.5868
▁Hinduism	-10.5871
▁Nir	-10.5874
metric	-10.5885
▁Administrative	-10.5886
▁victory	-10.5886
▁loose	-10.5888
▁internet	-10.5888
▁wage	-10.5888
▁rejected	-10.5893
▁prohibit	-10.5894
▁Tr	-10.5895
▁managed	-10.59
▁PC	-10.59
▁IPC	-10.5901
▁survive	-10.5905
worthy	-10.5906
▁facing	-10.5906
▁diverse	-10.5907
ordinat	-10.5909
▁faced	-10.591
▁ring	-10.5914
▁traditions	-10.5916
▁preserve	-10.5923
▁liberty	-10.5923
▁statute	-10.5924
▁affection	-10.5927
down	-10.5929
▁eve	-10.5933
▁Energy	-10.5942
▁NABARD	-10.5942
▁compassion	-10.5942
▁accumulat	-10.5942
▁Bhi	-10.5944
▁dividend	-10.5944
▁devices	-10.5946
▁hang	-10.5952
▁Mur	-10.5953
▁links	-10.5957
▁Jam	-10.5958
▁Gazette	-10.5961
▁audience	-10.5961
▁manifest	-10.5966
▁edit	-10.5967
▁noise	-10.5968
IA	-10.5973
▁merge	-10.5977
▁inclusive	-10.598
▁wisdom	-10.598
▁Bhag	-10.598
▁lac	-10.5982
१२	-10.5985
▁peak	-10.5985
lim	-10.5997
▁Notwithstanding	-10.5999
▁deceased	-10.5999
▁licence	-10.5999
▁advise	-10.5999
TS	-10.6001
▁converted	-10.6002
▁impose	-10.6003
▁hurt	-10.6003
▁obligation	-10.6003
▁Interest	-10.6004
▁achievements	-10.6004
▁sports	-10.6013
▁tongue	-10.6018
▁realised	-10.6018
▁rough	-10.6019
ST	-10.6022
▁contributed	-10.6023
▁planet	-10.6028
▁Ji	-10.6028
▁Have	-10.6028
▁avail	-10.6031
▁buildings	-10.6035
▁Industries	-10.6036
▁raising	-10.6037
▁peaceful	-10.604
▁Banks	-10.604
pot	-10.6041
▁repeal	-10.6041
▁Bor	-10.6052
▁ruling	-10.6056
▁index	-10.6057
mir	-10.6063
▁rear	-10.6063
▁scholar	-10.6067
▁glo	-10.6069
▁derivative	-10.6074
▁crores	-10.6076
▁define	-10.6076
▁Money	-10.6077
▁killing	-10.6077
▁consistent	-10.6079
▁flight	-10.6085
▁sales	-10.6085
▁catch	-10.6087
▁Multi	-10.6092
▁cluster	-10.6093
▁dramatic	-10.6098
ela	-10.6103
▁exploit	-10.6106
ogue	-10.6106
▁notified	-10.6111
▁Knowledge	-10.6112
▁movie	-10.6113
▁gap	-10.6116
▁Sara	-10.6116
▁mad	-10.6117
▁Cur	-10.6119
▁Os	-10.612
▁Working	-10.6123
uda	-10.6124
▁greatly	-10.6124
PL	-10.6125
▁Table	-10.6126
▁ID	-10.6127
SC	-10.6128
▁Jaya	-10.613
▁database	-10.6131
▁applies	-10.6131
▁urgent	-10.6133
▁childhood	-10.6135
cient	-10.6139
▁reduction	-10.614
RT	-10.6143
▁dear	-10.6145
▁Mag	-10.6148
▁www	-10.6151
▁Test	-10.6151
cid	-10.6151
▁salary	-10.6152
▁saved	-10.6152
gree	-10.6156
▁knows	-10.6156
ua	-10.6156
▁strengthening	-10.6157
lv	-10.616
▁patients	-10.6162
▁examined	-10.6169
▁aircraft	-10.6172
▁Sind	-10.6181
mur	-10.6183
▁insist	-10.6183
▁indigenous	-10.6189
▁carbon	-10.619
▁Pass	-10.6191
▁consumers	-10.6203
▁learnt	-10.6203
▁maintaining	-10.6206
uch	-10.6208
▁Devi	-10.6211
▁Narayan	-10.6213
▁desired	-10.6214
▁vegetables	-10.6225
▁pieces	-10.6227
yam	-10.6227
▁cultivation	-10.6227
▁license	-10.6227
▁planned	-10.623
▁Goa	-10.6232
▁servant	-10.6232
▁instruction	-10.6237
wl	-10.6238
▁pursu	-10.624
thy	-10.6246
▁Administration	-10.6247
▁descend	-10.6247
▁Governance	-10.6247
pertaining	-10.6248
▁surrounding	-10.6256
▁closely	-10.6262
▁candidates	-10.6263
▁Organization	-10.6266
▁Sector	-10.6267
AY	-10.6274
▁coll	-10.6276
▁Online	-10.6277
ily	-10.6279
▁Card	-10.628
responsibilities	-10.6285
▁ceremony	-10.6285
▁Question	-10.6285
▁glass	-10.6286
▁adverse	-10.6286
▁assert	-10.6293
▁institutional	-10.6296
▁characteristic	-10.6296
▁experts	-10.6303
▁mountains	-10.6304
▁primarily	-10.6305
▁printed	-10.6305
▁Search	-10.6306
▁decree	-10.6306
▁influenced	-10.6311
▁Look	-10.6315
▁Global	-10.6324
▁lamp	-10.6325
FA	-10.6327
anta	-10.633
mus	-10.6336
▁Help	-10.6336
▁epi	-10.6341
▁custody	-10.6344
▁magic	-10.6345
▁cattle	-10.6345
apped	-10.6347
▁abuse	-10.6348
jee	-10.635
▁praise	-10.6355
▁poly	-10.6358
▁hills	-10.6361
▁George	-10.6363
▁depict	-10.6364
▁enforce	-10.6378
▁artificial	-10.6383
▁Mir	-10.6385
▁naturally	-10.6388
AK	-10.6389
hila	-10.6392
▁opposed	-10.6394
ambi	-10.6396
▁stored	-10.6399
▁continent	-10.6403
▁lift	-10.6405
pass	-10.6407
▁extract	-10.6408
▁Death	-10.6409
▁row	-10.6418
▁partners	-10.6418
▁falls	-10.6419
▁observ	-10.6419
▁via	-10.6421
▁Organisation	-10.6422
▁typical	-10.6422
▁expiry	-10.6422
▁CA	-10.6424
▁Gau	-10.6425
▁Arabic	-10.6425
▁dimension	-10.6428
UL	-10.643
▁Loan	-10.6436
▁Create	-10.6438
▁Provision	-10.6442
▁Electronic	-10.6442
▁insurer	-10.6442
▁older	-10.6445
▁coast	-10.6446
ential	-10.6447
▁PRO	-10.6455
▁Agricultural	-10.6462
▁algorithm	-10.6462
▁accord	-10.6464
▁Bad	-10.6466
▁equation	-10.6467
▁pipes	-10.6469
▁therein	-10.6473
▁signs	-10.6474
▁Sil	-10.6475
▁emerge	-10.6481
▁intervention	-10.6482
▁suggestions	-10.6483
ket	-10.6485
▁sharing	-10.6485
▁entity	-10.6485
UN	-10.6485
▁corruption	-10.6485
▁attribute	-10.6489
▁supposed	-10.649
▁Dha	-10.6498
▁owned	-10.6498
▁goddess	-10.6501
▁condemn	-10.6501
▁Kal	-10.6503
▁airport	-10.6504
▁asking	-10.6511
▁amend	-10.6516
tak	-10.6517
▁discovered	-10.6519
▁completion	-10.6521
▁virtual	-10.6521
▁Marathi	-10.6521
▁sculpture	-10.6521
▁rational	-10.6526
▁resolve	-10.6539
▁Mahabharata	-10.654
▁equivalent	-10.6541
▁replied	-10.6541
▁Perhaps	-10.6541
▁Obama	-10.6542
▁burn	-10.6542
▁punish	-10.6548
▁attended	-10.6551
emia	-10.656
▁twice	-10.6561
▁appeals	-10.6561
▁duration	-10.6562
▁caught	-10.6564
▁trace	-10.6566
EP	-10.6566
▁television	-10.6581
▁vimana	-10.6581
bro	-10.6584
▁Ber	-10.6589
lot	-10.6596
▁Professor	-10.6601
▁sensitive	-10.6601
▁societies	-10.6601
▁silent	-10.6601
▁stuff	-10.6601
▁photograph	-10.6601
ret	-10.6605
▁rendered	-10.6606
▁revolutionary	-10.6608
▁Za	-10.6613
▁arranged	-10.6617
▁differ	-10.6619
▁genuine	-10.6621
▁listed	-10.6625
▁hotel	-10.6627
▁attachment	-10.6628
▁congratulate	-10.6632
▁player	-10.6632
▁generate	-10.6633
▁plate	-10.6634
▁alive	-10.6634
▁discretion	-10.6641
▁predict	-10.6641
▁shock	-10.6641
aught	-10.6641
▁keen	-10.6642
▁Indira	-10.6645
▁plot	-10.6646
▁driver	-10.6649
▁emerged	-10.665
▁Kam	-10.6651
▁Ham	-10.6651
▁Punjabi	-10.6658
▁totally	-10.6659
▁Muhammad	-10.6661
▁Officers	-10.6669
run	-10.6673
SL	-10.6675
miss	-10.6676
▁Defence	-10.6681
▁Tiru	-10.6683
▁besides	-10.6684
rup	-10.6693
▁Bhu	-10.6699
▁fold	-10.67
▁integrity	-10.6701
▁Green	-10.6701
▁ties	-10.6702
▁brothers	-10.6704
▁forced	-10.6707
key	-10.6709
stat	-10.6711
▁framed	-10.6712
vy	-10.6712
hri	-10.6714
▁spoken	-10.6714
▁Date	-10.6719
▁Municipal	-10.6722
▁Again	-10.6722
▁properties	-10.6723
▁Zone	-10.6728
▁Grant	-10.673
▁Persons	-10.6732
▁mount	-10.6735
duction	-10.6736
▁imagination	-10.6742
▁sustain	-10.6744
▁TV	-10.6745
book	-10.6751
tance	-10.6759
▁Saha	-10.676
ection	-10.6761
▁Empire	-10.6762
▁inspiration	-10.6762
▁suspect	-10.6762
▁jobs	-10.6772
▁Rao	-10.6773
▁pet	-10.6774
trap	-10.6776
▁Bharati	-10.6779
▁printer	-10.6781
▁Pol	-10.6781
▁realize	-10.6782
▁empty	-10.6783
▁emerging	-10.6783
▁wheel	-10.6783
▁abandon	-10.6783
▁oriented	-10.6783
▁variation	-10.6783
▁View	-10.6787
▁enforcement	-10.6787
▁producer	-10.6787
IVE	-10.679
lash	-10.6792
but	-10.6796
▁Save	-10.68
▁testing	-10.6805
▁regularly	-10.6807
▁beings	-10.682
▁disturb	-10.6821
▁specifically	-10.6831
zy	-10.6834
▁Hill	-10.6835
▁illustrat	-10.6844
▁CD	-10.6845
▁concession	-10.6845
▁forty	-10.6847
▁summer	-10.6848
position	-10.6856
▁decline	-10.6858
▁observe	-10.686
▁wheat	-10.6864
▁mut	-10.6865
gur	-10.6867
▁thin	-10.687
▁aside	-10.6872
pen	-10.6874
▁rapidly	-10.6875
▁Oh	-10.6883
▁clothes	-10.6884
▁sequence	-10.6885
chieving	-10.6885
ake	-10.6899
▁putting	-10.6903
▁grace	-10.6906
▁ruled	-10.6907
▁thereafter	-10.6908
▁Nath	-10.6909
▁theatre	-10.6911
▁assume	-10.6919
▁earned	-10.6922
▁parallel	-10.6926
▁peasant	-10.6926
▁legend	-10.6927
▁expert	-10.6927
▁techniques	-10.6933
▁Er	-10.6936
▁Access	-10.6936
▁islands	-10.6938
▁Five	-10.6939
liness	-10.6941
▁organism	-10.6945
▁outcome	-10.6947
▁statements	-10.6947
▁residence	-10.6949
▁glad	-10.6951
▁pond	-10.6952
▁displayed	-10.6953
▁options	-10.6961
▁constantly	-10.6962
▁tremendous	-10.6968
▁monitoring	-10.6969
▁Gen	-10.6971
▁enhanced	-10.6974
▁implementing	-10.6975
▁Love	-10.6978
▁pin	-10.698
▁operational	-10.6984
▁transportation	-10.6984
▁translated	-10.6985
▁Investment	-10.6989
▁consolidat	-10.6989
▁routine	-10.6989
▁Computer	-10.6989
undi	-10.6992
▁marry	-10.6994
▁noble	-10.6996
▁constructed	-10.6998
▁declare	-10.7001
reafter	-10.7006
fold	-10.7007
itch	-10.7009
▁mailing	-10.701
▁estate	-10.7011
▁Off	-10.7017
▁Kali	-10.7018
▁bold	-10.7018
▁Sad	-10.702
▁indicated	-10.7021
▁towns	-10.7022
▁presentation	-10.7024
▁entrusted	-10.703
▁suicide	-10.7031
▁beach	-10.7032
rin	-10.7033
▁organiz	-10.704
▁narrat	-10.7046
▁Haryana	-10.7051
१३	-10.7051
▁Soviet	-10.7051
mission	-10.7054
▁corresponding	-10.7061
ologist	-10.7061
▁defend	-10.7068
▁Prince	-10.7072
CL	-10.7072
▁nest	-10.7074
▁willing	-10.7077
▁novels	-10.7079
▁acre	-10.708
▁pictures	-10.7081
▁Baba	-10.7084
▁Hall	-10.7086
▁combined	-10.709
▁referr	-10.7091
▁satisfy	-10.7093
▁Keep	-10.71
▁replaced	-10.71
script	-10.7102
NG	-10.7103
▁perfection	-10.7108
▁historic	-10.7111
▁Consumer	-10.7114
▁surrender	-10.7114
▁paragraph	-10.7116
▁patent	-10.7117
▁depending	-10.7118
▁ended	-10.7122
▁objection	-10.7127
▁marks	-10.7128
▁Gur	-10.7128
▁organisms	-10.7134
▁Sucharita	-10.7135
▁contrast	-10.7135
▁essay	-10.7135
▁Review	-10.7141
▁paint	-10.7146
▁acquire	-10.7149
▁burning	-10.7151
flow	-10.7155
EX	-10.7158
▁Deposit	-10.7161
▁fly	-10.7162
▁enterprises	-10.7172
▁chart	-10.7175
▁CP	-10.7176
▁deliberate	-10.7178
▁stretch	-10.7178
▁cheap	-10.7178
▁trip	-10.7178
▁Check	-10.718
▁exceeding	-10.7181
▁ends	-10.7181
▁slowly	-10.7191
▁concerning	-10.7195
▁library	-10.7199
▁worse	-10.7199
▁resistance	-10.7201
▁disclos	-10.7201
▁Local	-10.7202
bhai	-10.721
▁Deb	-10.7211
riya	-10.7214
▁bills	-10.7216
▁ultimate	-10.7219
▁programs	-10.722
▁Current	-10.722
▁snow	-10.7221
▁Canada	-10.7223
▁Region	-10.7226
teen	-10.7237
▁Bush	-10.724
lateral	-10.7241
▁concentrate	-10.7241
▁lease	-10.7245
▁covers	-10.7245
▁Durga	-10.7246
US	-10.725
▁inspection	-10.7252
▁native	-10.7254
▁incentive	-10.7263
▁pursue	-10.7264
MENT	-10.7265
▁ministers	-10.7265
▁forth	-10.7266
▁Chi	-10.7267
▁worker	-10.7269
▁Arch	-10.727
▁structures	-10.727
▁sixty	-10.7274
▁selling	-10.7274
board	-10.7283
▁Forest	-10.7284
▁Engineering	-10.7284
▁wing	-10.7285
▁everywhere	-10.7286
▁....	-10.729
▁complaints	-10.7295
old	-10.7297
▁sons	-10.7302
ima	-10.7303
rom	-10.7304
▁Jewish	-10.7306
▁beneficial	-10.7306
▁worry	-10.7306
▁nurse	-10.7306
▁Connect	-10.7307
▁winter	-10.7313
▁organs	-10.7315
▁somebody	-10.732
▁arrive	-10.732
▁Key	-10.7321
▁plead	-10.7323
▁factory	-10.7326
▁Majesty	-10.7327
▁Additional	-10.7327
▁disciple	-10.7327
▁Three	-10.7327
▁innocent	-10.7327
▁Var	-10.7333
vara	-10.7336
▁stem	-10.7337
PR	-10.734
BA	-10.7341
▁calling	-10.7346
▁Fort	-10.7348
▁aggregate	-10.7349
▁Speech	-10.7349
▁sites	-10.7354
▁dwell	-10.7354
off	-10.7358
FC	-10.7364
▁complain	-10.7369
▁Chennai	-10.737
▁Welfare	-10.737
▁earliest	-10.737
▁scan	-10.7371
wit	-10.7371
LI	-10.7374
▁Click	-10.7374
jit	-10.7377
▁surround	-10.7381
▁newspapers	-10.7383
▁Ash	-10.7383
▁unfortunate	-10.7387
▁mix	-10.7392
▁Leprosy	-10.7392
▁crucial	-10.7392
tala	-10.7396
▁parliament	-10.7397
city	-10.74
SU	-10.7402
▁undergo	-10.7408
iff	-10.7408
RU	-10.7416
▁necessarily	-10.7422
▁lover	-10.7423
▁ideals	-10.7426
▁sustained	-10.7426
▁executed	-10.7431
itude	-10.7432
▁Inde	-10.7433
▁colonial	-10.7435
▁batsman	-10.7435
gha	-10.7443
▁roots	-10.7444
▁destroyed	-10.7444
▁silk	-10.7446
▁graduate	-10.7447
▁courses	-10.7449
▁consequence	-10.7449
▁delete	-10.7452
▁qualification	-10.7457
▁overcome	-10.7457
▁eating	-10.7459
oda	-10.746
▁duly	-10.7463
para	-10.7465
▁regulation	-10.7471
vari	-10.7472
ternal	-10.7477
▁elaborate	-10.7479
▁Smt	-10.748
▁label	-10.7482
▁experiences	-10.7483
▁ruler	-10.7488
▁amounts	-10.7493
▁radiation	-10.7503
och	-10.7509
▁Dan	-10.7512
rish	-10.7513
▁Young	-10.7516
▁Accounts	-10.7516
▁uncle	-10.7516
▁terror	-10.7518
▁deserve	-10.7523
▁varied	-10.7525
▁Sho	-10.7526
▁requested	-10.753
▁exploitation	-10.753
ware	-10.753
▁restore	-10.754
▁Agra	-10.754
▁Govt	-10.7545
▁dialogue	-10.7545
▁cooperative	-10.7548
rab	-10.7548
▁wages	-10.7551
▁reject	-10.7551
get	-10.7554
fall	-10.7557
▁forum	-10.7559
▁falling	-10.756
▁comments	-10.756
▁evolved	-10.756
▁neglect	-10.7567
▁yesterday	-10.7567
▁shoot	-10.7567
▁alleged	-10.7567
▁heaven	-10.7567
▁cancel	-10.7567
▁Iranian	-10.7569
erg	-10.757
▁grade	-10.7573
▁serving	-10.7589
▁copies	-10.7589
▁chair	-10.7593
devi	-10.7598
productive	-10.7603
wat	-10.7606
▁temp	-10.7606
▁Anti	-10.7607
▁administrator	-10.7611
▁healthcare	-10.7611
▁incorporated	-10.7621
▁violation	-10.7622
▁User	-10.7623
right	-10.7623
posed	-10.7625
▁spell	-10.7633
▁Software	-10.7633
▁commodities	-10.7633
▁vitamin	-10.7633
ense	-10.7637
▁enclos	-10.764
▁refuse	-10.7649
▁conservation	-10.7655
▁intense	-10.7656
▁alien	-10.7659
▁RBI	-10.7662
▁turning	-10.7671
▁schedule	-10.7672
▁wings	-10.7677
▁satellite	-10.7678
▁Temple	-10.7678
pura	-10.7679
TER	-10.7681
▁smile	-10.7683
▁sphere	-10.7685
▁busy	-10.7686
▁marriages	-10.7688
PM	-10.7689
▁Sign	-10.7689
▁installation	-10.7692
▁tooth	-10.7693
▁protected	-10.7696
▁exclusive	-10.77
▁configuration	-10.77
▁geographical	-10.77
▁Truth	-10.77
▁denied	-10.77
lp	-10.7704
▁bread	-10.7705
▁lakhs	-10.7705
▁weakness	-10.7711
▁DAY	-10.7712
▁Gi	-10.7712
▁considering	-10.7717
▁Play	-10.7717
▁situations	-10.772
▁chromosome	-10.7722
▁territories	-10.7722
▁decimal	-10.7722
▁Nothing	-10.7723
▁ICT	-10.7725
▁recover	-10.7727
▁scheduled	-10.7729
▁calm	-10.7729
▁organis	-10.7732
▁generated	-10.7732
▁tract	-10.7735
▁Take	-10.7739
▁monthly	-10.774
HI	-10.7741
eshwar	-10.7742
▁Bangalore	-10.7745
▁Washington	-10.7745
▁Foundation	-10.7745
▁disaster	-10.7745
▁blank	-10.7745
▁mor	-10.7748
▁submission	-10.775
▁shut	-10.7754
▁farming	-10.7754
▁arises	-10.7756
▁Creat	-10.7761
version	-10.7767
▁Benefit	-10.7767
▁injured	-10.7767
▁miles	-10.7768
unk	-10.7769
ella	-10.7772
everal	-10.7774
▁awards	-10.7774
▁taxes	-10.7775
▁devoted	-10.7776
▁formulation	-10.7778
▁USA	-10.7781
▁Case	-10.7781
▁score	-10.7784
▁generations	-10.7786
▁enormous	-10.779
▁Syria	-10.779
▁Moreover	-10.7791
gla	-10.7794
▁organic	-10.7797
cial	-10.7806
▁obligations	-10.7812
▁Abdul	-10.7812
▁pump	-10.7813
▁Issue	-10.7813
utosh	-10.7813
▁Type	-10.7815
▁models	-10.7824
vation	-10.7824
▁breach	-10.7824
▁degrees	-10.7824
▁succeeded	-10.7825
▁attach	-10.783
▁profound	-10.7835
lop	-10.7838
▁lung	-10.784
▁Forum	-10.7847
▁Paris	-10.785
▁Action	-10.7851
▁gun	-10.7851
▁perspective	-10.7858
▁outlook	-10.7858
▁allegation	-10.7858
▁carries	-10.786
▁Bills	-10.7868
▁pace	-10.7872
▁confirm	-10.7873
▁Tan	-10.7874
▁afraid	-10.788
▁discrimination	-10.788
▁biggest	-10.788
▁Japanese	-10.7881
▁Ob	-10.7881
▁ultimately	-10.7882
▁IIT	-10.7885
▁shell	-10.7888
▁MP	-10.7894
▁deduct	-10.7895
▁furnished	-10.7899
him	-10.7901
▁Christ	-10.7902
▁financing	-10.7903
▁Allahabad	-10.7903
esis	-10.7905
▁bigger	-10.7906
▁feeding	-10.7909
▁charm	-10.7911
▁Dam	-10.7912
▁entrepreneurs	-10.7918
▁formula	-10.7918
ney	-10.7925
▁eleven	-10.7926
▁hidden	-10.7926
▁silence	-10.7926
▁gentle	-10.7926
▁guest	-10.7927
▁realisation	-10.7933
▁frequently	-10.7943
▁substituted	-10.7949
▁smooth	-10.7949
▁Sheikh	-10.7949
▁stability	-10.795
ez	-10.7956
▁Get	-10.7963
▁drum	-10.7964
▁attracted	-10.7971
▁shot	-10.7974
ira	-10.7974
▁Copy	-10.7974
▁Hand	-10.7976
VE	-10.7978
▁levi	-10.7979
▁readers	-10.7979
▁Jag	-10.798
▁hide	-10.7981
▁Tal	-10.7985
▁describe	-10.7987
▁pig	-10.7988
▁noticed	-10.7993
▁nutrition	-10.7995
▁William	-10.7995
▁Learn	-10.7995
ender	-10.7997
▁judgement	-10.8011
dem	-10.8016
▁CHAPTER	-10.8018
▁calendar	-10.8018
▁inherent	-10.8018
▁Visit	-10.8019
▁bacteria	-10.8025
▁retired	-10.8027
vati	-10.8027
▁gram	-10.8028
▁lying	-10.8031
▁convention	-10.8031
▁Times	-10.8031
▁Bra	-10.8035
▁assured	-10.8036
▁Give	-10.8038
cli	-10.804
▁maybe	-10.804
▁Private	-10.8041
▁suppress	-10.8041
▁institute	-10.8041
▁silver	-10.8041
▁Planning	-10.8045
▁magn	-10.8048
▁African	-10.8049
▁Mahal	-10.8053
▁prosecut	-10.8056
▁stations	-10.806
▁varieties	-10.8064
▁pool	-10.8071
▁highlight	-10.8074
▁stars	-10.8078
▁classical	-10.8081
▁apparent	-10.8088
▁genus	-10.8088
▁ordered	-10.8092
kumar	-10.8096
▁helping	-10.8099
▁Telugu	-10.8111
▁Record	-10.8111
▁digest	-10.8111
▁Short	-10.8111
▁punishable	-10.8118
▁Accordingly	-10.812
▁Bala	-10.812
▁render	-10.8122
▁younger	-10.8124
bble	-10.8125
oz	-10.8128
hand	-10.8128
being	-10.8128
bir	-10.8131
▁Topics	-10.8134
▁governed	-10.8134
▁revision	-10.8134
rama	-10.8135
▁cutting	-10.8141
▁textile	-10.8141
OI	-10.8142
lai	-10.815
rust	-10.8153
▁exercised	-10.8154
▁pregnancy	-10.8157
▁belongs	-10.8157
▁virus	-10.8158
▁Sec	-10.816
▁interval	-10.8163
▁recording	-10.8164
▁tape	-10.8175
▁compete	-10.8177
arch	-10.8179
▁browser	-10.8181
▁tribute	-10.8181
▁easier	-10.8181
▁intimate	-10.8181
▁hind	-10.8184
▁Cell	-10.8185
▁farmer	-10.8186
ographic	-10.8194
▁ending	-10.8195
▁musical	-10.8198
▁Page	-10.8202
▁Recommendation	-10.8204
▁protocol	-10.8204
▁thread	-10.8204
▁propagat	-10.8205
▁Indra	-10.8208
ksh	-10.8211
▁mood	-10.8211
▁NE	-10.8213
▁deity	-10.8216
▁lawyers	-10.8218
▁bearing	-10.8221
▁exhaust	-10.8228
▁Agreement	-10.8228
▁pledge	-10.8228
▁Taj	-10.8228
▁preach	-10.8229
▁Thank	-10.8229
▁performing	-10.823
▁Canno	-10.8231
▁Major	-10.8234
▁Did	-10.8237
▁kilo	-10.8241
▁compos	-10.8241
▁relatives	-10.8241
▁bitter	-10.8242
▁withdrawal	-10.8242
▁characteristics	-10.8243
▁Light	-10.8244
▁politician	-10.8251
▁vehicles	-10.8257
▁hundreds	-10.826
▁fairly	-10.8263
▁resist	-10.8266
wara	-10.8267
▁Himalayas	-10.8275
▁extraordinary	-10.8275
▁integration	-10.8275
▁reducing	-10.8275
▁preferred	-10.8276
▁gate	-10.8276
▁Sessions	-10.8277
▁precious	-10.8279
▁fro	-10.828
▁closer	-10.8283
▁sending	-10.8286
▁pop	-10.8289
▁sanctioned	-10.8291
▁split	-10.8302
▁Gir	-10.8303
▁axis	-10.8306
▁tip	-10.8315
▁Rate	-10.8317
▁entertain	-10.8318
▁remedy	-10.8322
▁Process	-10.8323
▁gained	-10.8323
▁channels	-10.8324
▁IV	-10.8329
▁Main	-10.8329
ogen	-10.833
oa	-10.8333
itu	-10.8345
MM	-10.8346
▁Pension	-10.8346
▁gathered	-10.8355
link	-10.8358
▁representing	-10.836
▁slip	-10.8363
▁admission	-10.8371
▁Center	-10.8371
▁settle	-10.8371
▁slope	-10.8372
▁pillars	-10.8372
▁metres	-10.8373
▁preference	-10.8374
▁Ray	-10.8387
▁identification	-10.8394
▁Nanak	-10.8394
▁elect	-10.8395
vit	-10.8401
▁anywhere	-10.8403
operative	-10.8411
▁logic	-10.8411
pala	-10.8411
▁newly	-10.8415
▁Display	-10.8418
▁Greek	-10.8418
▁Prevention	-10.8418
▁appreciation	-10.8418
▁entrance	-10.8418
▁necessity	-10.8418
▁daniel	-10.8418
▁perception	-10.8418
far	-10.8419
▁creature	-10.8419
▁slave	-10.8419
▁Entry	-10.8419
▁marginal	-10.842
▁deco	-10.8421
▁norms	-10.8421
▁strongly	-10.8427
▁experienced	-10.8427
cade	-10.8428
▁tasks	-10.8432
▁chest	-10.8433
▁Bio	-10.8441
▁Bahadur	-10.8442
▁modified	-10.8442
▁fraction	-10.8442
▁ticket	-10.8442
▁excessive	-10.8448
▁Advance	-10.8449
▁borrower	-10.8449
▁acceptable	-10.8452
FI	-10.8452
▁seriously	-10.8465
▁magazine	-10.8466
▁repost	-10.8467
▁acute	-10.8468
▁clock	-10.8476
▁Personal	-10.8478
▁adoption	-10.848
▁conversation	-10.849
▁Family	-10.849
▁pretty	-10.849
▁brown	-10.8491
▁definite	-10.8492
▁reward	-10.8499
▁functional	-10.85
▁Institutions	-10.8504
▁confront	-10.8514
▁climb	-10.8515
▁programming	-10.8515
▁cult	-10.8515
khan	-10.8516
OM	-10.8532
charge	-10.8535
▁Netaji	-10.8539
▁mould	-10.8539
▁Command	-10.8539
phal	-10.854
▁interview	-10.8541
cite	-10.8541
▁wider	-10.8543
▁engagement	-10.8546
▁united	-10.8552
▁usage	-10.8559
▁honest	-10.8563
▁ownership	-10.8565
▁Sindhi	-10.8566
▁impress	-10.8574
▁enjoyed	-10.8574
path	-10.8576
lore	-10.8576
▁nationalist	-10.8578
▁Verma	-10.858
▁Turk	-10.8587
▁fifth	-10.8587
▁resembl	-10.8587
titut	-10.8588
▁Bhutan	-10.8588
▁Islands	-10.8593
▁darkness	-10.8599
▁Kama	-10.8608
▁Qa	-10.8611
▁invalid	-10.8612
▁shelter	-10.8612
▁pour	-10.8618
▁Pune	-10.8619
▁convicted	-10.862
▁revealed	-10.8622
▁conventional	-10.8624
tory	-10.8624
▁engage	-10.8625
pher	-10.863
GP	-10.8633
▁increasingly	-10.8633
▁delegation	-10.8636
▁genius	-10.8636
▁ornament	-10.8638
connect	-10.8644
▁establishing	-10.8644
vid	-10.8644
▁BY	-10.865
▁preced	-10.8657
▁castes	-10.8658
▁somewhat	-10.8661
▁variable	-10.8661
▁bench	-10.8666
▁EVE	-10.8666
▁walking	-10.867
▁assumed	-10.867
oor	-10.8671
▁golden	-10.8672
▁ruin	-10.8674
▁sheep	-10.8675
CB	-10.8676
▁Six	-10.8677
▁maha	-10.8678
▁chamber	-10.8686
▁Manipur	-10.8686
night	-10.8691
▁villagers	-10.8697
▁servants	-10.8704
DS	-10.8709
▁compulsory	-10.871
▁enactment	-10.871
▁driving	-10.871
▁mechanical	-10.871
▁harmful	-10.8715
▁unlike	-10.8721
▁enquiry	-10.8722
▁bull	-10.8732
fulness	-10.8733
▁margin	-10.8734
▁continuing	-10.8735
▁fabric	-10.8735
▁landlord	-10.8735
▁Third	-10.8735
▁defi	-10.8738
▁Paul	-10.8747
▁digit	-10.8749
▁fulfill	-10.875
▁Enterprise	-10.876
▁enabling	-10.876
▁encouraging	-10.876
▁distress	-10.876
▁Present	-10.876
▁Employment	-10.8761
▁retirement	-10.8761
▁luck	-10.8766
TO	-10.8774
▁vary	-10.8776
hol	-10.8777
ural	-10.8779
▁Session	-10.8783
▁Badruddin	-10.8785
▁litigant	-10.8785
▁Valley	-10.8785
▁premium	-10.8785
▁stomach	-10.8785
▁Lahore	-10.8785
▁fought	-10.879
▁reflected	-10.8797
▁faster	-10.8801
▁partly	-10.8807
▁Instead	-10.881
▁literacy	-10.881
▁favor	-10.881
▁admire	-10.8811
▁exact	-10.8812
▁Super	-10.8818
▁Media	-10.8822
▁adjust	-10.8822
▁restrictions	-10.8826
▁careful	-10.8827
▁surprise	-10.8831
▁fails	-10.8833
▁inputs	-10.8834
▁circular	-10.8835
▁complicated	-10.8835
▁eventually	-10.8835
▁precise	-10.8835
▁mankind	-10.8835
▁upgrade	-10.8835
▁Natural	-10.8835
▁saving	-10.8835
▁Airport	-10.8836
▁Seven	-10.884
▁imported	-10.8843
▁pleased	-10.8844
▁indicates	-10.8848
▁Veda	-10.8849
rim	-10.8851
EE	-10.8852
MT	-10.8855
▁remembered	-10.8859
▁Transfer	-10.8862
▁Common	-10.8863
▁reserved	-10.8864
▁Ganges	-10.8868
PU	-10.8879
▁contents	-10.888
▁Arm	-10.8882
▁Line	-10.8885
▁concentration	-10.8885
▁surgery	-10.8885
▁decrease	-10.8885
mind	-10.8885
▁bonds	-10.8897
▁Log	-10.8903
▁stayed	-10.8906
▁communicate	-10.891
▁practitioner	-10.891
▁Document	-10.891
▁shadow	-10.891
▁massive	-10.8924
▁Star	-10.8933
▁camel	-10.8934
▁nervous	-10.8935
▁priest	-10.8936
▁Swaraj	-10.8939
▁Payment	-10.8947
▁vested	-10.8948
▁attempts	-10.8951
▁doctors	-10.8955
▁compute	-10.8955
▁introduce	-10.8958
▁cure	-10.8958
▁Vol	-10.896
▁Russian	-10.8961
▁allocation	-10.8961
▁nose	-10.897
card	-10.8977
▁camera	-10.8979
▁institutes	-10.898
▁Academy	-10.8986
▁printing	-10.8989
▁Padma	-10.8989
bert	-10.8994
▁aspirations	-10.9011
▁explanation	-10.9011
▁Branch	-10.9012
▁scholarship	-10.9013
▁candidate	-10.9015
▁idol	-10.9018
▁anger	-10.9022
resident	-10.9024
print	-10.9026
▁Bureau	-10.9037
▁comprising	-10.9037
▁Black	-10.9037
▁Satya	-10.9048
IST	-10.9049
▁withdraw	-10.906
▁intellect	-10.9062
▁Quality	-10.9063
▁begun	-10.9063
▁Sharma	-10.9063
▁disseminat	-10.9063
▁describes	-10.9067
▁tourists	-10.9068
RC	-10.9079
charya	-10.9083
▁Bhai	-10.9084
▁tall	-10.9084
▁warning	-10.9086
▁merchant	-10.9088
▁nominated	-10.9088
▁refund	-10.9088
▁Kabir	-10.909
bol	-10.9092
▁summon	-10.9094
▁stones	-10.9095
avan	-10.9103
SM	-10.9106
DC	-10.911
▁compliment	-10.9114
▁Federal	-10.9114
▁mandatory	-10.9114
▁patron	-10.9114
▁invite	-10.9115
eanwhile	-10.9115
▁MA	-10.9119
▁subsequently	-10.9124
▁tele	-10.9127
▁nodes	-10.9133
odi	-10.9136
▁interact	-10.9137
▁Plant	-10.9138
▁repeat	-10.9139
▁winning	-10.9143
▁Promotion	-10.9144
▁pursuit	-10.9145
▁membership	-10.9149
▁treasure	-10.9165
▁pulse	-10.9166
▁tribes	-10.9166
▁Gujarati	-10.9168
▁entering	-10.9169
▁Shankar	-10.9169
▁firmly	-10.917
▁instituted	-10.9171
▁everybody	-10.9173
rig	-10.9182
▁comfort	-10.9185
▁empower	-10.9186
▁Video	-10.9191
▁guess	-10.9191
▁oppress	-10.9192
▁Sahib	-10.9192
action	-10.9192
▁conceiv	-10.9193
▁infant	-10.9195
▁stable	-10.9196
▁Movement	-10.9196
term	-10.9204
comm	-10.9206
▁filter	-10.9217
▁slightly	-10.9218
▁Age	-10.9226
▁club	-10.9226
▁loved	-10.9226
▁recit	-10.9231
▁Ty	-10.9232
▁Pay	-10.9232
▁Nation	-10.9235
wad	-10.9235
▁embrace	-10.9243
▁stakeholders	-10.9243
▁fashion	-10.9243
SION	-10.9244
▁Arjun	-10.9244
WA	-10.9245
▁adults	-10.9248
bai	-10.9251
ouch	-10.9252
▁convinced	-10.9255
BS	-10.9259
▁relates	-10.9265
▁govern	-10.9266
▁Communication	-10.927
▁MESSAGE	-10.927
▁arrival	-10.927
▁desktop	-10.927
▁Repeal	-10.927
▁essence	-10.927
▁smoke	-10.9271
▁drain	-10.9272
▁handling	-10.9272
▁driven	-10.9274
▁Rani	-10.928
▁Moh	-10.9281
▁disability	-10.9284
RS	-10.9286
▁troops	-10.9296
▁elsewhere	-10.9296
▁broadcast	-10.9297
▁Vidya	-10.93
ux	-10.9306
▁observations	-10.931
▁bowl	-10.9319
▁Ministries	-10.9322
▁membrane	-10.9322
▁Jews	-10.9322
▁obviously	-10.9328
▁mystic	-10.9329
▁reverse	-10.933
▁Ear	-10.9337
ule	-10.9338
▁actively	-10.9338
▁colleges	-10.9339
▁demon	-10.9346
▁Next	-10.9348
▁hyper	-10.9348
▁Andaman	-10.9349
▁hardware	-10.935
▁keyboard	-10.935
rh	-10.9351
▁Tre	-10.9353
GA	-10.9355
▁tension	-10.936
▁Institution	-10.936
▁lawyer	-10.936
hot	-10.9363
▁separately	-10.9368
▁expanded	-10.9369
▁speeches	-10.937
dding	-10.9371
▁speedy	-10.9374
▁oxygen	-10.9375
▁Gar	-10.9375
▁mixture	-10.9375
▁struck	-10.9376
▁strain	-10.9376
NT	-10.9379
▁residential	-10.9379
TRA	-10.9382
▁Cal	-10.9384
▁Photo	-10.9387
▁distribut	-10.9394
ht	-10.9396
▁consequent	-10.9401
▁hazard	-10.9401
▁peculiar	-10.9401
▁knee	-10.9402
espite	-10.9402
▁breeding	-10.9409
▁addresses	-10.941
ananda	-10.9414
chor	-10.9415
satisfactory	-10.9416
▁Long	-10.942
▁observation	-10.9422
▁ignorance	-10.9428
▁premises	-10.9428
▁sympathy	-10.9428
TR	-10.9428
▁rehabilitation	-10.9429
▁Contract	-10.943
▁preceding	-10.9433
▁bare	-10.9442
▁Windows	-10.9448
▁Subhash	-10.9452
▁alcohol	-10.9454
▁supplied	-10.9454
▁enrich	-10.9454
▁Cost	-10.9456
▁expertise	-10.9456
▁Point	-10.9458
▁recognise	-10.9479
▁Principle	-10.9481
▁pronounce	-10.9481
▁governing	-10.9483
DM	-10.9486
▁Bhagat	-10.949
▁india	-10.9492
babu	-10.9495
AYS	-10.9498
▁adding	-10.95
▁headed	-10.9502
▁Ocean	-10.9508
▁Queen	-10.9508
▁Sim	-10.9512
▁subtract	-10.9515
▁designated	-10.9519
aksha	-10.9525
▁Path	-10.9527
▁irre	-10.9529
rif	-10.9534
▁overseas	-10.9534
▁Modern	-10.9535
▁tiger	-10.9535
▁leaflet	-10.9536
▁vessels	-10.9536
▁finished	-10.9547
▁minority	-10.9548
▁Directorate	-10.9551
▁educat	-10.9557
chand	-10.956
▁associate	-10.956
▁Default	-10.9561
▁compromise	-10.9561
▁Machine	-10.9561
▁plastic	-10.9561
▁IPv	-10.9561
▁monetar	-10.9562
▁tendency	-10.9563
▁electric	-10.9573
▁systematic	-10.9578
▁originally	-10.9582
▁pioneer	-10.9588
▁barrier	-10.9589
▁Azad	-10.959
evertheless	-10.9595
▁relatively	-10.9595
▁Shan	-10.9598
▁twin	-10.9603
▁Solar	-10.9606
▁Registrar	-10.9615
▁Technical	-10.9615
▁holiday	-10.9615
▁End	-10.9619
▁adhere	-10.962
▁NI	-10.9623
amma	-10.9628
▁Bho	-10.9638
▁Product	-10.9642
▁contemplat	-10.9642
▁module	-10.9642
▁Manager	-10.9643
▁Space	-10.9643
▁jump	-10.9645
▁glory	-10.9646
▁involve	-10.9655
▁bell	-10.966
aimed	-10.9661
▁wonderful	-10.9666
▁neuro	-10.9669
▁subsidy	-10.967
▁Transport	-10.9671
▁quoted	-10.9671
volu	-10.9672
read	-10.9675
▁gathering	-10.9681
▁Oil	-10.969
pol	-10.9691
▁utilised	-10.9696
▁Lucknow	-10.9697
▁pocket	-10.9697
▁tolerance	-10.9697
▁propose	-10.9697
▁arrow	-10.9698
▁singing	-10.9701
▁exhibit	-10.9701
▁motive	-10.9702
▁attractive	-10.9705
▁Gopal	-10.9707
▁mandate	-10.9708
▁implie	-10.9712
HR	-10.9716
▁Muk	-10.9718
▁Citizen	-10.9724
▁compliance	-10.9724
▁float	-10.9725
▁imperialism	-10.9725
▁Standards	-10.9728
▁occupied	-10.9738
▁enhancing	-10.9752
▁livelihood	-10.9752
▁phenomenon	-10.9752
▁savings	-10.9752
▁determining	-10.9753
▁dictat	-10.9754
more	-10.9754
▁assignment	-10.9759
ference	-10.9759
▁plea	-10.976
▁adjustment	-10.9765
▁telling	-10.9767
▁Kala	-10.9768
claim	-10.9773
▁rhythm	-10.9779
▁reputation	-10.9779
▁aged	-10.9781
▁confer	-10.9785
▁players	-10.9786
▁Radio	-10.9787
▁Himalayan	-10.9788
▁electrical	-10.9789
▁instant	-10.9791
hrew	-10.9791
▁succession	-10.9794
▁concluded	-10.9798
▁operator	-10.9807
▁approximately	-10.9814
▁Highway	-10.9823
▁absolutely	-10.9824
ball	-10.9827
▁Revenue	-10.9834
▁immovable	-10.9834
▁Village	-10.9834
▁binding	-10.9835
▁empowered	-10.9835
▁temper	-10.9838
fusion	-10.9839
cover	-10.9841
▁prevention	-10.9845
▁sect	-10.9847
mount	-10.985
▁Standard	-10.9858
▁gang	-10.9861
▁Appendix	-10.9862
▁Resolution	-10.9862
▁accommodation	-10.9862
▁Vedas	-10.9866
▁insight	-10.9874
▁manual	-10.9883
▁intelligent	-10.989
▁preliminar	-10.989
▁tight	-10.9891
abha	-10.9894
current	-10.9899
▁Environmental	-10.99
▁sake	-10.9905
▁Sale	-10.9911
wood	-10.9912
▁focused	-10.9915
elecommunication	-10.9918
▁commerce	-10.9918
▁doctrine	-10.9918
▁Survey	-10.9918
▁revised	-10.9918
▁psychological	-10.9918
▁Dur	-10.9918
▁Agency	-10.9919
▁Hard	-10.9922
▁distant	-10.9922
▁agenda	-10.9923
▁emission	-10.9923
ERS	-10.9934
mukh	-10.9936
▁ignored	-10.9944
▁Secretariat	-10.9945
▁mosque	-10.9946
▁redress	-10.9947
▁Samaj	-10.9947
▁involvement	-10.995
▁conducting	-10.9952
nthrop	-10.996
▁breaking	-10.9968
▁Minimum	-10.9973
▁mortgage	-10.9973
▁federal	-10.9973
▁Senior	-10.9973
▁dispens	-10.9974
▁nearby	-10.9977
ough	-10.9977
GC	-10.9979
corn	-10.9982
▁conform	-10.9982
▁quote	-10.9983
▁Poet	-10.9996
▁Yu	-10.9998
ARD	-11
▁Constituent	-11.0002
▁abolish	-11.0002
▁exclusively	-11.0002
▁participants	-11.0002
▁fond	-11.0002
▁Automatic	-11.0002
▁provider	-11.0008
▁void	-11.0011
▁Subject	-11.003
▁qualified	-11.003
adha	-11.003
▁reign	-11.0035
▁attained	-11.0037
▁rail	-11.0037
▁moderate	-11.0038
▁Koran	-11.0039
▁Shr	-11.004
▁Han	-11.0046
▁Term	-11.0055
▁Dwarkanath	-11.0058
▁Sikkim	-11.0058
▁commodity	-11.0058
▁Basic	-11.0064
▁professor	-11.0066
▁missing	-11.0067
▁Him	-11.0075
▁colleagues	-11.008
field	-11.0081
▁Patna	-11.0083
titude	-11.0084
▁discovery	-11.0085
▁Aurobindo	-11.0086
▁capabilities	-11.0086
▁Viceroy	-11.0086
▁Museum	-11.0086
▁Estate	-11.0086
▁Design	-11.0087
▁tune	-11.0087
▁emphasize	-11.0115
▁inferior	-11.0115
▁destiny	-11.0115
▁imperative	-11.0115
▁companion	-11.0115
GE	-11.0119
rine	-11.012
▁Setting	-11.012
▁wake	-11.0121
umber	-11.0134
▁manifestation	-11.0136
▁affirm	-11.0143
▁dynasty	-11.0143
▁legitimate	-11.0143
▁wicket	-11.0143
▁Status	-11.0143
▁inspire	-11.0143
▁Audio	-11.0143
▁drought	-11.0144
▁entries	-11.0145
▁Level	-11.0147
▁Oc	-11.015
▁angle	-11.0151
▁compell	-11.0156
▁freely	-11.0161
▁Ven	-11.0161
▁realized	-11.0165
▁coat	-11.0167
▁Freedom	-11.0172
▁arbitrator	-11.0173
▁lord	-11.0174
▁lend	-11.0176
▁rendering	-11.0181
▁transcend	-11.0187
space	-11.0194
▁oblig	-11.0194
opa	-11.0199
▁NATIONAL	-11.02
▁enemies	-11.02
▁indulg	-11.0201
▁conception	-11.0201
PG	-11.0208
▁attraction	-11.0216
▁Rep	-11.0219
▁couldn	-11.0219
▁Zo	-11.022
▁separated	-11.0222
▁Chancellor	-11.0229
▁Commerce	-11.0229
▁Integrated	-11.0229
▁substitute	-11.0229
▁boost	-11.023
unction	-11.023
▁bud	-11.0234
▁Total	-11.0234
▁trick	-11.0237
▁attacked	-11.0242
▁restricted	-11.0245
ATE	-11.0248
▁inspect	-11.0253
▁personally	-11.0253
▁Move	-11.0254
▁Model	-11.0254
▁Roman	-11.0254
▁conclude	-11.0257
▁separation	-11.0258
▁preparing	-11.0258
▁conquer	-11.0258
▁Ganesh	-11.0259
▁torture	-11.0259
▁storm	-11.0259
HAN	-11.0267
▁blame	-11.0268
▁balanced	-11.0268
▁cup	-11.027
▁strict	-11.0271
ike	-11.0273
▁insert	-11.0275
▁mining	-11.028
utonomous	-11.0287
▁Protocol	-11.0287
▁museum	-11.0287
▁Purana	-11.0293
▁allied	-11.0294
▁mud	-11.0294
yog	-11.0299
▁repealed	-11.0309
mati	-11.0312
▁Singles	-11.0315
▁Rabindranath	-11.0316
▁Jai	-11.0316
▁riot	-11.0318
▁Quran	-11.0321
▁weapon	-11.0322
escent	-11.0331
▁Far	-11.0337
▁Examination	-11.0345
▁Radhakrishnan	-11.0345
▁Political	-11.0345
▁plural	-11.0345
▁vertical	-11.0345
▁vice	-11.0346
▁brand	-11.0349
▁Care	-11.0349
LS	-11.0356
▁Patel	-11.0359
▁measurement	-11.0365
pore	-11.0371
rated	-11.0372
▁Malayalam	-11.0374
▁enlarge	-11.0374
▁mirror	-11.0374
▁pupil	-11.0374
▁foster	-11.0374
▁Disable	-11.0377
▁MW	-11.038
singh	-11.0383
▁clarifi	-11.0385
▁Full	-11.0387
▁drag	-11.039
▁avoided	-11.0391
▁desirable	-11.0403
▁monsoon	-11.0403
▁Should	-11.0403
▁anxious	-11.0403
▁insult	-11.0405
▁bought	-11.0413
▁persist	-11.0415
▁Soon	-11.042
▁helpful	-11.0421
inous	-11.0428
▁Net	-11.0432
▁Abdullah	-11.0433
▁romantic	-11.0433
▁Spirit	-11.0433
▁abstract	-11.0433
▁Budget	-11.0433
▁signature	-11.0434
▁liberation	-11.0438
▁distinguish	-11.0439
▁Lake	-11.0447
▁dismissed	-11.0455
▁arbitra	-11.0457
▁nice	-11.0458
▁Emperor	-11.0462
▁inevitable	-11.0462
▁Cooperative	-11.0464
▁sail	-11.047
TP	-11.047
▁deleted	-11.0471
DO	-11.0471
pun	-11.0475
▁Clause	-11.0492
rip	-11.0492
▁Amar	-11.0493
▁Allowance	-11.0494
▁smart	-11.0494
▁manpower	-11.0495
▁dominate	-11.0495
▁tiny	-11.0497
▁guy	-11.0498
▁Ek	-11.0505
▁sport	-11.0509
▁behavior	-11.0521
▁ignore	-11.0522
▁Dharma	-11.0523
icular	-11.0527
ALL	-11.0529
▁Sankara	-11.053
▁lending	-11.0548
▁negotiat	-11.055
▁Ayurveda	-11.0551
▁Festival	-11.0551
▁Library	-11.0551
▁reservation	-11.0551
▁Invalid	-11.0551
▁boot	-11.0558
▁strip	-11.056
▁Tool	-11.0561
▁nut	-11.0568
hook	-11.0578
▁skilled	-11.058
▁adjudicat	-11.0581
▁controversy	-11.0581
▁kidney	-11.0581
▁width	-11.0581
▁paddy	-11.0581
▁cadre	-11.0581
▁Sultan	-11.0581
UD	-11.0582
▁Guard	-11.0584
bound	-11.0587
▁Old	-11.0588
▁Band	-11.0592
▁wire	-11.0594
▁Call	-11.0595
▁violat	-11.0598
▁approaches	-11.0603
▁Program	-11.0606
▁NIT	-11.0606
▁Palestine	-11.061
▁incomplete	-11.061
▁scenario	-11.061
▁supramental	-11.061
▁philosophical	-11.0611
▁Urban	-11.0611
▁flourish	-11.0612
▁reiterat	-11.0613
▁Ashok	-11.0613
▁penis	-11.0619
▁dismiss	-11.0631
▁Pacific	-11.064
▁pitch	-11.0641
▁clinic	-11.0643
▁frequent	-11.0648
▁humble	-11.0652
water	-11.0653
▁Mill	-11.0663
▁robot	-11.0668
▁Nicobar	-11.067
▁Install	-11.0671
▁hatred	-11.0671
▁magnetic	-11.0671
▁transmitted	-11.0672
▁exposed	-11.0673
▁Turkish	-11.0674
▁Indus	-11.0674
tries	-11.0675
▁Mode	-11.0682
▁Enter	-11.0682
▁NO	-11.0683
▁indirectly	-11.0692
▁initially	-11.0695
▁awaken	-11.0697
▁Yojana	-11.0701
▁deploy	-11.0701
▁delegate	-11.0701
▁indication	-11.0701
▁Link	-11.0703
▁bulk	-11.0703
▁deeper	-11.0711
hini	-11.0713
▁gov	-11.0722
▁pipe	-11.0725
▁bamboo	-11.0731
▁enthusiasm	-11.0731
▁Petition	-11.0731
▁monument	-11.0731
▁Aryan	-11.0731
▁Kir	-11.0732
▁collecting	-11.0732
▁Tea	-11.0733
kka	-11.0741
▁interim	-11.0748
▁borne	-11.075
▁flying	-11.0751
▁substantially	-11.0753
▁celebrate	-11.0755
▁Arabia	-11.0759
▁Corporate	-11.0761
▁concrete	-11.0761
▁demonstration	-11.0761
▁neighbor	-11.0761
▁specimen	-11.0761
▁transparency	-11.0761
▁casual	-11.0761
▁Tibet	-11.0761
▁Kur	-11.0768
▁guru	-11.0769
▁participat	-11.0772
▁anybody	-11.0773
▁Low	-11.0774
roll	-11.0777
▁eco	-11.0785
▁exhibition	-11.0786
▁possibly	-11.0791
▁contradict	-11.0791
▁summary	-11.0791
▁Federation	-11.0792
▁utilize	-11.0792
▁accru	-11.0796
desh	-11.0798
▁simultaneously	-11.0799
▁Ananda	-11.0805
▁Royal	-11.0809
▁losses	-11.0811
▁hydro	-11.0821
▁dedication	-11.0822
▁linguistic	-11.0822
▁Northern	-11.0822
▁crude	-11.0822
▁contest	-11.0822
▁shout	-11.0823
▁Pop	-11.0823
ister	-11.0831
▁strive	-11.0831
▁curve	-11.0837
▁countrymen	-11.0844
IG	-11.0849
erry	-11.0852
▁Hamachi	-11.0853
▁persuade	-11.0853
▁acknowledge	-11.0855
▁edition	-11.0856
▁fulfilled	-11.0859
▁cooking	-11.0869
lusion	-11.0875
▁Upanishad	-11.0883
▁Vietnam	-11.0883
▁divorce	-11.0883
▁pregnant	-11.0883
▁seizure	-11.0883
▁transparent	-11.0883
▁intensity	-11.0883
▁commend	-11.0883
▁fibre	-11.0883
▁crystal	-11.0884
ique	-11.0885
▁patriot	-11.0892
▁Cat	-11.0892
▁mango	-11.0895
▁Menon	-11.0897
▁Whatever	-11.09
▁Kun	-11.0902
ander	-11.0904
▁sync	-11.0909
▁cord	-11.0912
▁appellate	-11.0914
▁brilliant	-11.0914
▁economies	-11.0914
▁assurance	-11.0914
▁thrust	-11.0914
▁interference	-11.0916
▁transmit	-11.0917
trop	-11.0918
▁recruitment	-11.0918
▁Collector	-11.0921
▁collaborat	-11.093
▁mature	-11.0931
▁tied	-11.0942
▁earthquake	-11.0945
▁powder	-11.0945
▁prevalent	-11.0945
▁uncertain	-11.0945
▁Jordan	-11.0945
▁honor	-11.0945
▁offender	-11.0948
▁shortage	-11.0959
▁Pul	-11.0962
▁envisaged	-11.0968
▁Abhi	-11.0969
▁Terrorism	-11.0976
▁anniversary	-11.0976
▁irrespective	-11.0976
▁sensation	-11.0976
▁interfere	-11.0976
▁Father	-11.098
▁favourite	-11.098
▁Constitutional	-11.0982
▁strengthened	-11.0983
▁Cap	-11.0985
▁treaty	-11.0985
▁accessible	-11.0986
▁Sch	-11.0993
▁coloured	-11.1003
▁assessed	-11.1007
▁Mohammed	-11.1007
▁revolt	-11.1007
▁......	-11.1007
▁smell	-11.1007
▁socialist	-11.1019
▁outward	-11.1023
▁nationalism	-11.1025
▁penal	-11.1025
▁Relat	-11.1026
▁reviv	-11.1033
economic	-11.1034
scope	-11.1035
▁secured	-11.1036
▁inaugurated	-11.1037
▁Arunachal	-11.1038
▁Territories	-11.1038
▁expensive	-11.1038
▁inflation	-11.1038
▁Price	-11.1039
▁alarm	-11.1039
▁discount	-11.1041
▁considerably	-11.1044
lice	-11.1045
▁coverage	-11.1049
TT	-11.1053
▁withdrawn	-11.1053
▁eliminate	-11.1055
osa	-11.106
▁Island	-11.1067
▁bore	-11.1068
CO	-11.1068
▁Regulator	-11.1069
▁hunger	-11.1069
▁Mobile	-11.1069
▁ease	-11.1069
▁perceive	-11.1069
▁eighteen	-11.1069
uv	-11.1072
▁purity	-11.1073
▁endow	-11.1084
▁subtle	-11.1092
▁fame	-11.1097
AND	-11.1098
▁Building	-11.1101
▁Manilal	-11.1101
▁Animal	-11.1101
▁rainfall	-11.1102
▁Dutt	-11.1102
▁dawn	-11.1102
▁beetle	-11.1103
▁Hamas	-11.1107
ison	-11.111
▁Iraqi	-11.1125
▁Cricket	-11.1132
▁Evolution	-11.1132
▁Territory	-11.1132
▁dissolve	-11.1132
▁phrase	-11.1132
▁Consider	-11.1132
▁voting	-11.1133
▁honey	-11.1133
▁David	-11.1133
onia	-11.1133
▁Van	-11.1136
COM	-11.1139
count	-11.1141
▁buyer	-11.1143
▁Sufi	-11.1143
▁managing	-11.1144
▁shade	-11.1149
▁Ravi	-11.1156
ette	-11.1157
▁Details	-11.1164
▁parasite	-11.1164
▁Send	-11.1169
CU	-11.1171
▁rob	-11.1177
▁Poly	-11.1182
OUR	-11.1185
▁Run	-11.1192
▁cm	-11.1194
▁psycho	-11.1195
▁constituent	-11.1195
went	-11.1196
▁fool	-11.1196
▁capture	-11.12
▁odd	-11.1205
▁seller	-11.1224
▁intensive	-11.1227
▁SHRI	-11.1227
▁Tilak	-11.1227
▁reactor	-11.1227
▁Film	-11.1227
▁Delete	-11.1229
▁advancement	-11.1237
▁basically	-11.1238
▁lion	-11.1238
▁SRI	-11.124
▁disposed	-11.1247
take	-11.1248
▁lone	-11.1248
opathy	-11.1257
▁automatic	-11.1258
▁successor	-11.1258
▁Buddhism	-11.1259
▁Revolution	-11.1259
▁municipal	-11.1259
▁statistics	-11.1259
▁utility	-11.1259
▁ascertain	-11.1259
▁complement	-11.1259
▁Golden	-11.1263
ieve	-11.1267
▁indirect	-11.1268
▁plantation	-11.1272
▁formulated	-11.1279
▁१६	-11.128
▁challenged	-11.1282
▁immortal	-11.1291
▁Recovery	-11.1291
▁Tribes	-11.1291
▁interrupt	-11.1291
▁Within	-11.1295
AF	-11.1296
▁Gold	-11.1297
culture	-11.13
▁nearest	-11.1309
▁Jerusalem	-11.1323
▁Journal	-11.1323
▁liabilities	-11.1323
▁disagree	-11.1323
▁surgical	-11.1323
▁NIOS	-11.1323
RM	-11.1324
▁Operation	-11.1324
uz	-11.1331
▁reflection	-11.1333
▁Secondary	-11.1333
▁fate	-11.1343
▁Den	-11.1351
▁Commonwealth	-11.1355
▁Lakshmi	-11.1355
▁acquaint	-11.1355
▁condolence	-11.1355
▁Friend	-11.1355
▁maturity	-11.1355
▁Almast	-11.1355
▁retail	-11.1355
▁exceptional	-11.1356
▁adventure	-11.1357
iga	-11.1358
▁impartial	-11.1358
▁Charter	-11.136
EG	-11.1361
▁significantly	-11.1365
▁bride	-11.1365
assi	-11.1367
▁tap	-11.1383
▁Lolita	-11.1387
▁Message	-11.1387
▁bliss	-11.1387
▁chronic	-11.1387
▁comparison	-11.1388
▁Choose	-11.1388
▁queen	-11.139
▁fourteen	-11.139
▁matches	-11.1391
▁secur	-11.1397
▁sincere	-11.14
▁Ahmed	-11.1419
▁encounter	-11.142
▁solemn	-11.142
▁stipulat	-11.142
▁Housing	-11.142
▁Success	-11.142
▁wander	-11.1421
▁drew	-11.1421
▁VII	-11.144
▁Conduct	-11.144
▁connecting	-11.1441
▁Shu	-11.1441
istan	-11.1444
▁Digital	-11.1452
▁altogether	-11.1452
▁notwithstanding	-11.1452
▁Shakti	-11.1452
allotted	-11.1453
▁prize	-11.1453
▁Fig	-11.1454
▁transition	-11.1455
▁cater	-11.1462
▁rope	-11.1465
inder	-11.1471
▁artistic	-11.1474
RY	-11.1477
▁instruct	-11.1477
▁comply	-11.1483
▁diabetes	-11.1485
▁magistrate	-11.1485
▁terrible	-11.1485
▁generating	-11.1485
▁Vijay	-11.1485
▁angry	-11.1486
▁crush	-11.1493
▁describ	-11.1498
oldest	-11.1504
plan	-11.151
▁resign	-11.1511
▁explore	-11.1512
EF	-11.1513
▁frequency	-11.1517
▁Kittur	-11.1517
▁episode	-11.1517
▁biological	-11.152
▁gender	-11.1521
▁crack	-11.1521
▁plugin	-11.1522
▁oath	-11.1522
▁upset	-11.154
▁Best	-11.1541
▁Infrastructure	-11.155
▁Studies	-11.155
▁Yusuf	-11.155
▁Object	-11.155
▁workshop	-11.155
▁Word	-11.155
▁evaluation	-11.1553
▁pilgrimage	-11.1554
▁Div	-11.1557
▁civilisation	-11.1558
▁Ur	-11.1573
▁affidavit	-11.1583
▁procedural	-11.1583
▁Teacher	-11.1583
▁Value	-11.1585
▁Normal	-11.1586
▁guided	-11.1587
▁Korea	-11.1589
▁Step	-11.1589
▁jute	-11.1596
rophy	-11.161
▁Extension	-11.1616
▁inflammation	-11.1616
▁quantities	-11.1616
▁occupy	-11.1616
▁cavity	-11.1616
▁bottle	-11.1616
▁Prize	-11.1616
▁inclusion	-11.1616
▁rival	-11.1618
▁kids	-11.1619
▁regulatory	-11.1622
▁narrative	-11.1623
▁Oriya	-11.1623
▁remov	-11.1625
▁restraint	-11.1627
▁Radha	-11.163
rana	-11.1644
▁Chhattisgarh	-11.1649
▁Hospital	-11.1649
▁Wikipedia	-11.1649
▁criteria	-11.1649
▁departure	-11.1649
▁GDP	-11.1649
▁unusual	-11.1649
▁Leader	-11.1649
▁Hind	-11.165
▁intend	-11.165
▁grammar	-11.165
▁vein	-11.165
▁Judiciary	-11.1663
▁exemption	-11.1664
▁hub	-11.1669
veda	-11.1681
▁vaccine	-11.1682
▁fortune	-11.1683
khar	-11.1684
▁capability	-11.1685
▁ISO	-11.1686
▁blend	-11.1686
▁sword	-11.1686
▁scientist	-11.1689
▁recovered	-11.1694
▁apple	-11.1706
▁Chalukya	-11.1716
▁Kannada	-11.1716
▁Register	-11.1716
▁coffee	-11.1716
▁militant	-11.1716
▁testimony	-11.1716
▁vexatious	-11.1716
▁coconut	-11.1716
▁Standing	-11.1716
▁Station	-11.1716
▁Image	-11.1717
▁outline	-11.1717
▁cum	-11.1723
scribed	-11.174
▁controlling	-11.1748
▁dominant	-11.1749
▁ascetic	-11.1749
▁rescue	-11.175
▁trait	-11.1752
▁Rajput	-11.1753
▁combine	-11.1754
▁RTI	-11.1758
▁Processing	-11.1759
SD	-11.1763
▁administered	-11.1763
▁entrepreneur	-11.1766
▁Color	-11.1769
spread	-11.1773
how	-11.1777
▁Singapore	-11.1783
▁PDF	-11.1783
▁Period	-11.1783
▁worst	-11.1783
therapy	-11.1783
▁Egyptian	-11.1785
▁Shiv	-11.179
▁translate	-11.179
▁continuously	-11.1794
▁validity	-11.18
▁fallen	-11.1804
OD	-11.1813
▁Phil	-11.1814
pathy	-11.1814
▁phenomena	-11.1816
▁philosopher	-11.1816
▁instinct	-11.1816
▁Staff	-11.1816
▁confusion	-11.1819
▁Consultation	-11.1821
▁classification	-11.1822
▁midst	-11.1826
EST	-11.1832
▁Birth	-11.1836
akshi	-11.1839
▁hire	-11.184
▁hindi	-11.184
maker	-11.1848
▁Property	-11.185
▁exposure	-11.185
▁substantive	-11.185
▁Contact	-11.185
▁conceal	-11.185
▁negotiations	-11.1852
DB	-11.1855
▁rupee	-11.1861
▁Kanpur	-11.1863
▁painful	-11.1864
gir	-11.1865
▁volunteer	-11.1884
▁carrier	-11.1884
▁disturbance	-11.1888
▁degrad	-11.1893
gad	-11.1905
▁Amount	-11.191
▁aesthetic	-11.1918
▁disadvantage	-11.1918
▁Summit	-11.1918
▁dowry	-11.1918
▁agitation	-11.1918
▁Return	-11.1918
▁Prior	-11.1918
▁flesh	-11.1918
▁Garden	-11.1919
▁rarely	-11.1921
▁Socialist	-11.1923
▁classified	-11.1926
▁restrict	-11.1926
▁limb	-11.1928
▁factories	-11.1932
▁specialist	-11.1936
▁stake	-11.1944
▁meters	-11.1948
elec	-11.1951
▁intestine	-11.1952
▁nominee	-11.1952
▁convenient	-11.1953
ayya	-11.1953
▁constructive	-11.1956
▁Fee	-11.1964
▁threatened	-11.1966
▁Along	-11.1967
▁journalist	-11.1977
TC	-11.1984
▁transformed	-11.1985
▁Grievance	-11.1986
▁YouTube	-11.1986
▁worldwide	-11.1986
▁absent	-11.1986
▁Front	-11.1987
▁steam	-11.1987
hap	-11.1987
▁Tripura	-11.1988
▁Large	-11.1988
▁flora	-11.1989
▁Tender	-11.1994
▁Mount	-11.1995
▁Charge	-11.1996
migration	-11.2008
▁invested	-11.2018
▁requisite	-11.2021
▁delicate	-11.2021
▁disclosure	-11.2023
▁Based	-11.2025
▁Gang	-11.2025
▁shore	-11.2025
cellular	-11.2031
▁dual	-11.2032
chang	-11.2033
▁Moon	-11.2035
▁imitat	-11.2036
▁passes	-11.2037
▁Come	-11.2037
▁deficiency	-11.2055
▁denominator	-11.2055
▁hectare	-11.2055
▁ministry	-11.2055
▁HIV	-11.2055
▁auction	-11.2056
▁tackle	-11.2056
▁empowerment	-11.2061
▁loud	-11.2062
▁cable	-11.2063
▁Deva	-11.2066
MC	-11.2069
▁shame	-11.2076
▁Cross	-11.209
▁insured	-11.2091
▁seminar	-11.2091
patri	-11.2092
▁worried	-11.2098
▁authorized	-11.21
▁confirmed	-11.21
▁characteriz	-11.2103
▁migrat	-11.2103
▁taxation	-11.2107
pons	-11.2112
▁gran	-11.2116
▁Community	-11.2125
▁Inspector	-11.2125
▁investigate	-11.2125
▁hypo	-11.2125
▁Continu	-11.2125
krishna	-11.2126
▁arrange	-11.2126
▁seal	-11.2126
▁jointly	-11.213
▁Person	-11.2131
▁everyday	-11.2138
▁Write	-11.2146
▁creed	-11.2148
▁dose	-11.2149
▁successive	-11.2154
Sarojini	-11.2159
▁Chandigarh	-11.2159
▁Vivekananda	-11.2159
▁disabilities	-11.2159
▁goodwill	-11.2159
▁parameters	-11.2159
▁contend	-11.216
▁connectivity	-11.216
▁Grand	-11.2164
▁chairman	-11.2164
▁Notice	-11.2165
▁Puri	-11.2171
shah	-11.2187
▁corrupt	-11.2187
▁Allow	-11.2188
▁preserv	-11.2189
reaching	-11.2193
▁Very	-11.2193
▁injustice	-11.2194
▁medicinal	-11.2194
▁buffalo	-11.2194
▁Church	-11.2195
▁Had	-11.2197
▁spare	-11.2206
▁Preet	-11.2212
▁deny	-11.2219
▁Develop	-11.2225
▁cruel	-11.2228
▁MUKHERJEE	-11.2229
▁physician	-11.2229
▁vulnerable	-11.2229
▁electoral	-11.2229
▁Clear	-11.223
▁cinema	-11.223
▁persistent	-11.2234
▁mouse	-11.2235
▁Dhan	-11.2245
▁offline	-11.2245
▁lowest	-11.2246
mulating	-11.2247
▁exit	-11.2251
GO	-11.2258
▁Literature	-11.2265
▁Settlement	-11.2265
▁opponent	-11.2265
▁embryo	-11.2266
▁vagina	-11.2267
▁hate	-11.227
▁Lab	-11.227
▁Find	-11.2278
▁traders	-11.2283
NF	-11.2296
▁Actual	-11.2296
▁Vaishnava	-11.2299
▁Hanuman	-11.23
▁impulse	-11.23
▁Certain	-11.23
▁relax	-11.23
▁Mysore	-11.23
▁resolved	-11.23
▁decay	-11.2302
▁welcomed	-11.2312
divided	-11.2316
▁participated	-11.2317
▁argued	-11.2328
▁promised	-11.2331
▁purely	-11.2335
▁surplus	-11.2335
▁survival	-11.2335
▁ceiling	-11.2335
swami	-11.2338
▁Place	-11.234
ndranath	-11.2341
▁donation	-11.2348
▁revival	-11.2354
RAM	-11.2355
▁enquir	-11.2357
▁pose	-11.2364
▁Democratic	-11.2371
▁Implementation	-11.2371
▁Peace	-11.2371
▁laboratory	-11.2371
▁invitation	-11.2371
▁Farm	-11.2372
▁mutually	-11.2384
▁Veer	-11.2385
▁assign	-11.2385
▁visitors	-11.2387
▁liver	-11.2397
▁definitely	-11.2404
▁vest	-11.2406
▁alphabet	-11.2407
▁emperor	-11.2407
▁glacier	-11.2407
▁confess	-11.2407
▁Indonesia	-11.2407
▁random	-11.2408
▁cough	-11.241
▁Stock	-11.2411
nfortunately	-11.2415
▁indian	-11.2425
IES	-11.2432
▁coordinate	-11.244
▁calculation	-11.2442
▁assumption	-11.2443
▁proxy	-11.2443
▁Ghosh	-11.2443
▁disburs	-11.2443
▁marble	-11.2445
▁germ	-11.2445
▁spray	-11.2448
▁inaugurate	-11.2449
▁realistic	-11.245
▁Pun	-11.2454
URE	-11.2454
▁Production	-11.2456
▁accountability	-11.2464
giri	-11.2471
urban	-11.2477
▁Assistance	-11.2479
▁equipped	-11.2479
▁Dispute	-11.2479
▁Govind	-11.2479
▁eradicat	-11.2479
▁monkey	-11.2479
▁frontier	-11.2483
▁Gaza	-11.2484
▁tired	-11.2485
▁lotus	-11.2486
keeper	-11.2491
▁congratulated	-11.2494
▁viable	-11.2498
▁assure	-11.2498
RES	-11.2499
power	-11.2499
▁justified	-11.2499
▁recruit	-11.251
▁Would	-11.2515
▁dissolution	-11.2515
▁overwhelm	-11.2515
▁jihad	-11.2515
saheb	-11.2515
▁implications	-11.2515
wari	-11.2519
▁argue	-11.2522
▁ranging	-11.2523
▁finish	-11.2535
▁fig	-11.2537
organisation	-11.2539
▁coastal	-11.2544
▁sovereign	-11.2549
▁kitchen	-11.2551
▁poultry	-11.2551
▁tragedy	-11.2551
▁computation	-11.2551
▁requiring	-11.2551
▁levy	-11.2552
▁XX	-11.2554
▁urine	-11.2555
▁Brahmo	-11.2555
▁investor	-11.2557
▁Abu	-11.2558
udge	-11.2564
▁reliable	-11.2566
▁Pores	-11.2569
▁liberat	-11.2581
▁Jinnah	-11.2587
▁nutrient	-11.2587
▁reception	-11.2587
▁isolated	-11.2588
kali	-11.259
▁globe	-11.2591
▁boundaries	-11.2591
▁derive	-11.2597
▁marine	-11.2598
▁Anand	-11.2598
ITY	-11.2604
▁practically	-11.2605
▁Tha	-11.2605
▁misuse	-11.2612
▁enjoyment	-11.2615
▁Tak	-11.2621
▁Effect	-11.2624
▁communist	-11.2624
▁Folder	-11.2624
▁correspondence	-11.2626
▁impressive	-11.263
▁owe	-11.2635
▁Deep	-11.265
▁weaken	-11.2655
▁manuscript	-11.266
▁quarrel	-11.266
▁recipient	-11.266
▁supplies	-11.266
▁Deccan	-11.266
▁pleasant	-11.2661
▁imposition	-11.2661
▁Express	-11.2663
▁devise	-11.2663
▁proposition	-11.2664
▁hatch	-11.2665
▁construct	-11.2669
▁hardship	-11.2672
berg	-11.2672
flies	-11.2673
▁dense	-11.2682
▁erect	-11.2685
▁Advisory	-11.2697
▁Uttarakhand	-11.2697
▁glorious	-11.2697
▁plenty	-11.2697
▁tobacco	-11.2697
▁triumph	-11.2697
▁analyse	-11.2698
FF	-11.2698
▁pilot	-11.2699
▁Various	-11.2699
▁auditor	-11.2701
▁carved	-11.2702
▁batch	-11.2705
▁lapse	-11.271
▁Medi	-11.2713
▁cement	-11.2719
gress	-11.2734
▁Maximum	-11.2734
▁depreciation	-11.2734
▁literally	-11.2734
▁Ahmedabad	-11.2735
▁denial	-11.2735
sociat	-11.2735
▁Leave	-11.2737
▁occurring	-11.2737
IAL	-11.274
▁correspond	-11.2752
▁advent	-11.2752
▁administer	-11.2756
▁Surya	-11.2756
▁homo	-11.2757
▁pillar	-11.2768
▁jungle	-11.2771
▁legacy	-11.2771
▁Guidelines	-11.2771
▁imposing	-11.2771
▁Claim	-11.2771
▁Jaipur	-11.2774
▁zeal	-11.2775
▁somewhere	-11.2778
▁throat	-11.2785
▁practis	-11.2788
phone	-11.2797
▁boil	-11.2802
▁hut	-11.2804
▁Beg	-11.2805
▁vessel	-11.2806
▁Nagaland	-11.2808
▁Remember	-11.2808
▁advertisement	-11.2808
▁debenture	-11.2808
▁supervision	-11.2808
▁battery	-11.2808
▁afternoon	-11.2808
▁NGOs	-11.2808
▁diplomatic	-11.2809
▁sixteen	-11.2811
▁Left	-11.2815
gupta	-11.2821
cut	-11.2825
▁tenure	-11.2825
▁mala	-11.284
jna	-11.284
▁sponsored	-11.2842
▁Till	-11.2842
▁apparently	-11.2844
▁ethical	-11.2846
▁Mc	-11.2846
▁speaker	-11.2849
▁weigh	-11.2857
box	-11.2859
JP	-11.2861
▁warn	-11.2864
DU	-11.2866
▁Nanala	-11.2868
▁Consequent	-11.2883
▁possibilities	-11.2883
▁Student	-11.2883
▁handicraft	-11.2883
▁occurrence	-11.2883
▁spouse	-11.2883
▁meaningful	-11.2885
▁complainant	-11.2894
five	-11.2896
▁thoroughly	-11.2897
plica	-11.2901
▁larva	-11.2908
type	-11.2918
▁circum	-11.2921
▁ideology	-11.2921
▁supra	-11.2923
▁popularity	-11.2924
▁envisage	-11.293
▁orthodox	-11.2935
▁threaten	-11.2946
▁Madhu	-11.2946
▁Himalaya	-11.2947
determin	-11.2949
▁annum	-11.2952
▁nursing	-11.2958
▁modest	-11.2963
▁Mary	-11.297
kot	-11.2971
▁१७	-11.2976
▁passive	-11.2979
▁suspended	-11.2991
▁Petroleum	-11.2996
▁circulation	-11.2996
▁steady	-11.2996
▁Excise	-11.2996
▁Street	-11.2996
▁grateful	-11.2996
▁qualify	-11.2996
▁Saving	-11.2997
▁blessing	-11.2997
ENCE	-11.2998
▁gather	-11.3006
▁Eight	-11.3015
▁singer	-11.3022
▁Allah	-11.3024
▁assent	-11.3026
▁deem	-11.303
▁sperm	-11.3033
▁laboratories	-11.3034
▁strategies	-11.3034
▁Yamuna	-11.3034
▁fraud	-11.3034
▁Religion	-11.3034
▁Nokia	-11.3034
▁verification	-11.3035
▁sovereignty	-11.3036
▁crown	-11.3036
lick	-11.3046
▁debit	-11.3049
▁fol	-11.3051
losing	-11.3052
phere	-11.3053
▁secretary	-11.3054
▁larvae	-11.3056
▁prima	-11.306
▁Range	-11.3062
▁maxim	-11.307
▁acknowledged	-11.307
▁accelerate	-11.3072
▁cabinet	-11.3072
▁unfair	-11.3072
▁grasp	-11.3073
▁Progress	-11.3074
▁Cooperation	-11.3074
▁emergence	-11.3074
▁guardian	-11.3076
▁append	-11.3078
▁flash	-11.3079
▁refugees	-11.3083
▁Mangal	-11.3084
▁underlying	-11.3084
ectomy	-11.3085
▁declined	-11.3087
▁deepen	-11.309
▁bush	-11.3104
▁Burma	-11.3106
pada	-11.3106
▁Arbitration	-11.3111
▁Gandharva	-11.3111
▁dioxide	-11.3111
▁scrutiny	-11.3111
▁identical	-11.3111
▁copper	-11.3111
▁vague	-11.3111
▁eager	-11.3111
▁sweat	-11.3114
▁rod	-11.312
▁bunch	-11.3125
wear	-11.3127
▁inaugura	-11.3144
▁captured	-11.3145
▁exclusion	-11.3149
▁lymph	-11.3149
▁PART	-11.315
▁Equal	-11.315
EAR	-11.3155
▁initiate	-11.316
▁prescribe	-11.3161
eptic	-11.3165
brahma	-11.3165
▁startup	-11.3166
haw	-11.3177
▁Australian	-11.3178
▁Communist	-11.3188
▁conspiracy	-11.3188
▁abolition	-11.3188
▁nurture	-11.3188
▁ordinarily	-11.3188
▁articulat	-11.3189
MAN	-11.3191
▁electro	-11.3196
ARY	-11.3198
uddin	-11.3201
▁Never	-11.3203
▁Zealand	-11.3227
▁irregular	-11.3227
▁obstacle	-11.3227
▁relevance	-11.3227
▁structural	-11.3227
▁territorial	-11.3227
▁babies	-11.3227
▁grief	-11.3227
▁stroke	-11.3227
▁Initial	-11.3229
▁fatal	-11.3234
▁relate	-11.3244
▁Khadi	-11.3255
▁Put	-11.3259
▁Convocation	-11.3266
▁Mauritius	-11.3266
▁Monitoring	-11.3266
▁surprising	-11.3266
▁Physical	-11.3266
▁beloved	-11.3266
▁bodily	-11.3266
▁regret	-11.3266
▁Source	-11.3266
▁humour	-11.3266
▁cosmic	-11.3266
▁labourers	-11.3267
IRDA	-11.3267
▁dread	-11.3271
▁brick	-11.3271
▁Governorate	-11.3296
▁Mizoram	-11.3305
▁fiscal	-11.3305
▁Remove	-11.3305
▁deciding	-11.3305
▁Draft	-11.3305
▁Course	-11.3305
▁Sports	-11.3305
▁Task	-11.3305
▁infected	-11.3306
▁surprised	-11.331
▁relieve	-11.3319
iety	-11.3337
▁endorse	-11.334
▁zoo	-11.3342
▁Universal	-11.3344
▁jewellery	-11.3344
▁utilization	-11.3344
▁density	-11.3344
▁mitigat	-11.3344
▁decorated	-11.3344
▁conscience	-11.3345
▁disciplinary	-11.3346
▁pursuance	-11.3349
▁bowler	-11.3351
NU	-11.3353
▁comfortable	-11.3353
▁convict	-11.3354
▁seventy	-11.3359
▁strictly	-11.3374
ayana	-11.3377
▁Jharkhand	-11.3383
▁illumin	-11.3384
▁verified	-11.3384
▁inscription	-11.3384
▁analog	-11.3386
▁hostile	-11.3389
▁evaluate	-11.339
▁James	-11.3391
rtha	-11.3404
▁nomination	-11.3408
▁Fair	-11.3408
chrom	-11.3413
▁molecule	-11.3423
▁assault	-11.3423
▁quantum	-11.3423
▁AIDS	-11.3423
▁dozen	-11.3423
▁distort	-11.3425
▁Reference	-11.3429
ATED	-11.3431
▁somehow	-11.3432
▁Premchand	-11.3436
▁favourable	-11.3452
▁pilgrim	-11.3457
blo	-11.346
▁Safety	-11.3462
▁Vajpayee	-11.3462
▁intuitive	-11.3462
▁Disease	-11.3462
▁Thomas	-11.3462
▁Navy	-11.3466
▁Manik	-11.3468
▁Device	-11.347
▁Tata	-11.347
▁seized	-11.347
ATAL	-11.347
▁assistant	-11.3486
▁Puran	-11.3487
▁patch	-11.3488
▁Block	-11.3489
▁Letter	-11.3494
▁dialog	-11.3502
▁certifi	-11.3502
▁BIHAR	-11.3502
▁Emergency	-11.3502
▁inadequate	-11.3502
▁unexpected	-11.3502
▁caution	-11.3502
▁Website	-11.3502
▁Meeting	-11.3502
▁Club	-11.3503
▁modify	-11.3503
▁expectations	-11.3505
UM	-11.3509
▁Mail	-11.3512
▁FDI	-11.3514
▁interven	-11.3515
▁obstruct	-11.3531
▁economically	-11.3533
▁assemble	-11.3536
▁excavat	-11.3542
▁ambition	-11.3543
▁hop	-11.3543
▁Improv	-11.3543
▁Rajendra	-11.3545
▁quest	-11.3549
▁repayment	-11.3551
▁deprived	-11.3553
AGE	-11.3554
▁Hor	-11.3557
▁cultivated	-11.3558
▁dying	-11.3563
door	-11.3565
▁restriction	-11.3565
▁Relations	-11.357
iyar	-11.3571
▁Acharya	-11.3576
▁cub	-11.3577
▁makers	-11.3581
▁LINK	-11.3582
▁Microsoft	-11.3582
▁Ordinance	-11.3582
▁prestige	-11.3582
▁historian	-11.3582
▁reproduce	-11.3582
▁racial	-11.3583
where	-11.3583
▁flame	-11.3583
ANAB	-11.3585
▁birthday	-11.3587
▁announcement	-11.359
▁tales	-11.359
▁Max	-11.3593
▁evolve	-11.3594
▁boundary	-11.3602
▁demonstrated	-11.3609
▁puppet	-11.3623
▁Culture	-11.3623
▁Remote	-11.3623
▁SELECT	-11.3623
▁fetch	-11.3623
▁verbal	-11.3623
▁readily	-11.3626
▁mask	-11.3627
▁ninety	-11.363
OT	-11.3631
▁Bond	-11.3633
▁pole	-11.366
▁Forward	-11.3662
▁Amritsar	-11.3663
▁Declaration	-11.3663
▁Primary	-11.3663
▁vibrant	-11.3663
▁Chemical	-11.3663
▁striking	-11.3663
▁scriptures	-11.3663
▁trunk	-11.3663
▁Mountain	-11.3664
▁throne	-11.3665
▁harness	-11.3665
▁Function	-11.3669
structure	-11.3669
hearted	-11.3673
▁Meher	-11.3673
▁Nobel	-11.3674
▁Saint	-11.3675
▁entertainment	-11.3675
loka	-11.3678
▁realization	-11.3678
▁Jagannatha	-11.3682
▁portal	-11.3692
▁refuge	-11.3693
▁Selection	-11.3693
▁Try	-11.3701
disqualification	-11.3704
▁sanitation	-11.3704
▁Pipes	-11.3704
▁Chakra	-11.3704
▁concert	-11.3704
▁warrior	-11.3704
▁Always	-11.3704
▁Wealth	-11.3705
▁sorry	-11.3705
▁delta	-11.3705
▁leap	-11.3714
▁Neuro	-11.3721
▁exempt	-11.3726
▁Democracy	-11.3745
▁Template	-11.3745
▁improper	-11.3745
▁intercourse	-11.3745
▁subsidiary	-11.3745
▁collapse	-11.3745
▁Goddess	-11.3745
▁macro	-11.3747
▁portray	-11.3747
▁worshipped	-11.3748
▁closing	-11.3748
pelled	-11.3748
tmost	-11.375
▁DAC	-11.3766
▁Varma	-11.3783
LC	-11.3785
▁Belarus	-11.3786
▁worn	-11.3786
▁Desai	-11.3786
▁await	-11.3786
▁manipulat	-11.3787
▁passport	-11.3788
▁plum	-11.3791
▁crash	-11.3793
▁Host	-11.3815
FS	-11.382
▁SIDBI	-11.3827
▁immunity	-11.3827
▁imperfect	-11.3827
▁permissible	-11.3827
▁spectrum	-11.3827
▁leather	-11.3827
▁ethnic	-11.3827
▁Presidency	-11.3827
▁dropped	-11.3829
▁utilisation	-11.3832
▁trustee	-11.384
DG	-11.3843
▁Maj	-11.3861
▁Purusha	-11.3868
▁introducing	-11.3868
▁misconduct	-11.3868
▁robust	-11.3868
▁dairy	-11.3868
▁Server	-11.3869
▁prophet	-11.3869
assembl	-11.3874
duced	-11.3885
▁varies	-11.3891
person	-11.3891
ometer	-11.3904
▁Consolidat	-11.391
▁miracle	-11.391
▁Southern	-11.391
▁frank	-11.391
▁church	-11.391
▁afterwards	-11.3911
▁optimis	-11.3911
▁reconstruction	-11.3912
▁Factor	-11.3913
▁combat	-11.3915
▁resignation	-11.3919
▁execute	-11.3925
▁flee	-11.3929
LT	-11.3934
▁coach	-11.3945
▁nematode	-11.3951
▁remuneration	-11.3951
▁unconscious	-11.3951
▁wildlife	-11.3951
▁County	-11.3951
▁loving	-11.3951
▁spark	-11.3952
▁arbitrary	-11.3955
▁issuing	-11.3955
ogenic	-11.396
▁rubber	-11.3969
gradation	-11.3973
▁echo	-11.399
▁symbolic	-11.3991
▁Original	-11.3993
▁Study	-11.3993
▁Tourism	-11.3993
▁meditation	-11.3993
▁orientation	-11.3993
▁Close	-11.3994
▁Phase	-11.3996
▁arose	-11.3997
▁ATM	-11.3998
QU	-11.3999
▁Mall	-11.4004
▁occasionally	-11.4015
▁Partnership	-11.4035
▁conservative	-11.4035
▁grassroots	-11.4035
▁Dominion	-11.4035
▁carriage	-11.4035
▁grey	-11.4035
▁basket	-11.4036
▁constru	-11.4036
▁shortcut	-11.4037
▁giant	-11.4039
ullah	-11.4042
▁confused	-11.4047
▁affordable	-11.4052
LY	-11.4055
▁medieval	-11.4077
AYEE	-11.4078
plication	-11.4079
▁Body	-11.4086
▁demonstrate	-11.4091
▁Kalam	-11.4106
▁curse	-11.4111
▁Jubilee	-11.412
▁flexible	-11.412
▁indicating	-11.412
▁vacancies	-11.412
▁accompany	-11.412
▁diminish	-11.412
▁indicator	-11.412
▁VAJ	-11.4123
▁conven	-11.4142
▁wedding	-11.4143
▁Kolhatkar	-11.4162
▁Securities	-11.4162
▁Resident	-11.4162
▁Ramalinga	-11.4162
▁SPEECHES	-11.4163
▁alliance	-11.4163
▁patriotism	-11.4167
▁alert	-11.4169
▁preservation	-11.417
▁highway	-11.4186
▁chose	-11.4197
entrepreneurship	-11.4199
▁loyal	-11.4204
▁Prosecutor	-11.4205
▁mathematics	-11.4205
▁psychic	-11.4205
▁unnecessary	-11.4205
▁assimilat	-11.4205
▁comparatively	-11.4205
▁Double	-11.4205
▁Raghu	-11.4205
▁Chamber	-11.4205
▁Demand	-11.4205
▁termination	-11.4205
▁horizontal	-11.4206
▁lust	-11.4208
▁layout	-11.4212
▁grid	-11.4212
▁attendance	-11.4216
▁Kaur	-11.4218
▁uphold	-11.4219
system	-11.4223
▁incidental	-11.4229
▁faithful	-11.4231
esvara	-11.4232
▁recess	-11.424
▁retreat	-11.4245
▁Brazil	-11.4248
▁Unicode	-11.4248
▁hungry	-11.4248
▁hybrid	-11.4248
▁innovators	-11.4248
▁prosperous	-11.4248
▁vigorous	-11.4248
▁Ravana	-11.4248
▁Vaishnav	-11.4249
▁garb	-11.426
▁Latin	-11.4261
▁Still	-11.4263
▁Chair	-11.4264
▁jaw	-11.427
▁facilitating	-11.4291
▁predominant	-11.4291
▁uterus	-11.4291
▁Finland	-11.4291
▁injuries	-11.4291
▁framing	-11.4291
▁HOST	-11.4291
▁altitude	-11.4292
▁Siddha	-11.4293
▁Harijan	-11.4293
▁Crown	-11.4293
▁halt	-11.4296
▁Electricity	-11.4297
▁Italy	-11.4301
▁panic	-11.4302
▁Farid	-11.4303
▁hereby	-11.4306
Tax	-11.4314
▁Parsi	-11.4324
▁Portuguese	-11.4334
▁misbehaviour	-11.4334
▁threshold	-11.4334
▁transplant	-11.4334
▁smoking	-11.4334
▁Clean	-11.4334
▁generous	-11.4336
▁minorities	-11.434
▁Matter	-11.4355
▁Profit	-11.4356
capacity	-11.4359
ocyte	-11.4365
▁Betwee	-11.4378
▁Bezbar	-11.4378
▁Meghalaya	-11.4378
▁configure	-11.4378
▁ignorant	-11.4378
▁depression	-11.4378
▁illusion	-11.4378
▁tragic	-11.4378
▁magnitude	-11.4378
BU	-11.4378
▁Blue	-11.4379
▁swelling	-11.4379
▁resume	-11.4382
▁clever	-11.4385
MD	-11.4392
▁clay	-11.4397
word	-11.4416
▁Attorney	-11.4421
▁Different	-11.4421
▁regulating	-11.4421
▁dialect	-11.4421
▁uplift	-11.4421
▁jewel	-11.4424
▁deteriorat	-11.4425
▁civilian	-11.4436
▁Motion	-11.4442
▁clearance	-11.4452
▁login	-11.4453
▁Secret	-11.4463
▁Country	-11.4465
▁equitable	-11.4465
▁forgotten	-11.4465
▁propaganda	-11.4465
▁cherish	-11.4465
▁nourish	-11.4465
▁patience	-11.4466
▁rigid	-11.4466
▁annex	-11.4466
▁culminat	-11.4467
▁vivid	-11.4467
▁Quit	-11.447
▁Fire	-11.4486
▁Arya	-11.4499
▁vide	-11.4504
▁Promot	-11.4504
▁adjourn	-11.4509
▁magnificent	-11.4509
▁renewable	-11.4509
▁spontaneous	-11.4509
▁cartoon	-11.4509
▁rabbit	-11.4509
▁lips	-11.451
▁Robert	-11.4511
▁Assamese	-11.4511
▁Sunday	-11.4512
ESS	-11.4526
▁attainment	-11.4534
▁Arabian	-11.4536
▁Stop	-11.4537
▁soldier	-11.4551
▁PRESENT	-11.4554
examining	-11.4554
▁Bhakti	-11.4554
▁exponent	-11.4554
▁shoes	-11.4554
▁lime	-11.4555
▁neighbourhood	-11.4555
▁entities	-11.4556
▁Milk	-11.4556
▁Know	-11.4556
▁gear	-11.4558
▁Joshi	-11.4559
vya	-11.4559
▁underground	-11.4564
▁sensor	-11.4565
▁pale	-11.458
FR	-11.4585
▁Engine	-11.4598
▁Saraswati	-11.4598
▁abundant	-11.4598
▁aggressive	-11.4598
▁Pallava	-11.4598
▁premier	-11.4598
▁statue	-11.4599
▁certification	-11.4599
▁Hydro	-11.4599
▁sketch	-11.4599
▁Distribution	-11.4601
▁Medium	-11.4602
▁fancy	-11.4614
▁Drug	-11.4616
▁quit	-11.4624
▁Collect	-11.4633
▁Societies	-11.4643
▁knock	-11.4643
▁Nagpur	-11.4643
▁Condition	-11.4643
▁Bhopal	-11.4643
▁Sinha	-11.4644
▁proclaim	-11.4646
▁terminate	-11.4647
▁१८	-11.4657
▁chill	-11.4664
▁hoc	-11.4665
▁Town	-11.4669
▁Lock	-11.4672
▁Hindustan	-11.4679
▁lens	-11.468
▁consensus	-11.4688
▁serpent	-11.4688
▁synthesis	-11.4688
▁measuring	-11.4688
▁warfare	-11.4688
▁alternate	-11.4688
▁multiplication	-11.4688
▁disrupt	-11.4688
▁Coast	-11.4689
▁shipping	-11.4692
▁earnest	-11.4697
▁burnt	-11.471
▁Panel	-11.4714
DL	-11.4715
▁Bhavabhuti	-11.4733
▁Memorial	-11.4733
▁Telephone	-11.4733
▁petroleum	-11.4733
▁freight	-11.4733
▁DVD	-11.4733
▁Nizam	-11.4733
▁Limit	-11.4734
▁deities	-11.4736
▁monk	-11.4738
ghat	-11.4747
▁Katha	-11.4773
omitted	-11.4774
▁Satyagraha	-11.4778
▁Unknown	-11.4778
▁NHS	-11.4778
▁amazing	-11.4778
▁Balarama	-11.4778
▁Spain	-11.478
CCI	-11.4781
▁turnover	-11.4782
▁Tab	-11.4786
▁elementary	-11.4793
▁brush	-11.4794
▁Rub	-11.4796
▁Khu	-11.482
▁Afghan	-11.4823
nonymity	-11.4823
▁Canadian	-11.4823
▁dictionary	-11.4823
▁numerator	-11.4823
▁supplier	-11.4823
▁chicken	-11.4823
▁dividing	-11.4823
▁Witness	-11.4823
▁twist	-11.4823
▁affair	-11.4825
▁serial	-11.4826
▁coordination	-11.4829
HAR	-11.4838
▁confine	-11.4841
ANT	-11.4852
▁Jack	-11.4853
▁presum	-11.4869
isobedience	-11.4869
▁HTML	-11.4869
▁Practice	-11.4869
▁injunction	-11.4869
▁pendency	-11.4869
▁burst	-11.487
▁Everyone	-11.4874
▁confidential	-11.4876
▁Track	-11.4876
TED	-11.4879
▁Nazi	-11.4886
▁URI	-11.4887
▁justification	-11.4888
▁compact	-11.4896
▁Music	-11.49
▁Jail	-11.4902
▁Download	-11.4915
▁beneficiaries	-11.4915
▁capacities	-11.4915
▁landscape	-11.4915
▁heavily	-11.4915
location	-11.4915
▁Rammoh	-11.4915
▁Team	-11.4917
▁betray	-11.4917
General	-11.4918
▁onwards	-11.4926
▁rub	-11.4941
▁cache	-11.4941
▁Sangh	-11.4944
wore	-11.4945
▁fruitful	-11.4948
▁chip	-11.4949
▁Electric	-11.4955
proving	-11.4956
▁Vidyasagar	-11.4961
▁Vrindavan	-11.4961
▁auspicious	-11.4961
▁furniture	-11.4961
▁Odisha	-11.4961
▁endanger	-11.4961
▁solving	-11.4961
▁frustrat	-11.4961
▁Attach	-11.4961
▁Italian	-11.4961
▁Mahabharat	-11.4963
▁Title	-11.4964
▁Anglo	-11.4964
▁vegetable	-11.4966
▁orange	-11.4968
▁upgradation	-11.4972
operation	-11.4975
▁bias	-11.4986
▁shake	-11.4988
▁horizon	-11.5006
▁leprosy	-11.5007
▁stimulate	-11.5007
▁unemployment	-11.5007
▁wool	-11.5008
▁Update	-11.5008
▁Jati	-11.5011
▁citizenship	-11.5012
▁hint	-11.5015
▁grip	-11.5018
▁Christianity	-11.5037
scribe	-11.5041
▁Ayodhya	-11.5054
▁acquiring	-11.5054
▁fracture	-11.5054
▁trigger	-11.5054
▁detention	-11.5054
▁inflict	-11.5054
▁blessed	-11.5055
▁Sundar	-11.5067
▁END	-11.5067
▁Hindustani	-11.5073
burg	-11.5077
▁execut	-11.5078
ILL	-11.5091
dded	-11.5099
▁Chromium	-11.51
▁provincial	-11.51
▁velocity	-11.51
▁Screen	-11.51
▁unjust	-11.51
▁postpone	-11.5101
▁Qatar	-11.5104
bhadra	-11.5105
▁Shastri	-11.511
▁verify	-11.511
▁Medal	-11.5116
▁Assessment	-11.5121
▁idle	-11.5124
▁behave	-11.5124
▁Ashram	-11.513
▁grandfather	-11.5147
▁kilometres	-11.5147
▁suspension	-11.5147
▁gesture	-11.5147
▁sweep	-11.5147
▁Email	-11.5147
▁STATE	-11.5148
▁excuse	-11.5149
▁array	-11.5149
▁specializ	-11.5157
ANCE	-11.5168
privileged	-11.518
▁expeditious	-11.5195
▁Scientific	-11.5195
▁curriculum	-11.5195
▁deliberations	-11.5195
▁elevation	-11.5195
▁excitement	-11.5195
▁exploration	-11.5195
▁reproduction	-11.5195
▁unprecedented	-11.5195
▁Maharshi	-11.5195
▁Field	-11.5195
▁petty	-11.5199
▁garment	-11.5202
▁lump	-11.5204
▁musician	-11.5205
▁stating	-11.5205
India	-11.5212
▁NRI	-11.5218
▁exercising	-11.5242
▁innumerable	-11.5242
▁intermediate	-11.5242
▁physics	-11.5242
▁predecessor	-11.5242
▁thirst	-11.5242
▁Daniel	-11.5242
▁inhibit	-11.5242
AW	-11.5243
▁Establishment	-11.5246
logist	-11.525
▁Syed	-11.5252
▁toxic	-11.5253
▁Window	-11.5254
otomy	-11.5272
▁amalgamation	-11.529
▁convenience	-11.529
▁sophisticated	-11.529
▁Blood	-11.529
▁impair	-11.529
▁True	-11.5291
▁dependence	-11.5298
▁yoga	-11.5299
bhava	-11.53
▁collector	-11.5301
▁harassment	-11.5337
▁primitive	-11.5337
▁climatic	-11.5337
▁tolerate	-11.5337
▁intuition	-11.5338
▁slogan	-11.5338
▁polity	-11.5338
▁graphics	-11.5338
▁ultra	-11.5341
▁Index	-11.5344
▁Graph	-11.5346
▁Martin	-11.5348
▁distinctive	-11.5349
▁expense	-11.5352
▁architect	-11.5384
▁Annexure	-11.5385
▁Channel	-11.5385
▁Dictionary	-11.5385
▁Jadunath	-11.5385
▁Supply	-11.5385
▁Prakash	-11.5386
▁mercy	-11.5386
▁Kapil	-11.5388
▁rejection	-11.5401
▁detection	-11.5404
cession	-11.5407
▁Investigat	-11.5434
▁Michael	-11.5434
▁Provincial	-11.5434
▁Taliban	-11.5434
▁Purchase	-11.5434
▁Ghose	-11.5434
▁Alternat	-11.5434
▁Switch	-11.5434
▁Volume	-11.5434
▁Memory	-11.5434
▁monarch	-11.5434
▁steep	-11.5435
possessed	-11.5454
▁packet	-11.5458
▁wipe	-11.5468
▁Ambassador	-11.5482
▁Richard	-11.5482
▁admissible	-11.5482
▁challenging	-11.5482
▁trekking	-11.5482
▁fodder	-11.5482
▁anticipatory	-11.5482
▁demerge	-11.5484
assuming	-11.5486
▁ascend	-11.5486
▁oppose	-11.5503
▁Sahitya	-11.5531
▁dignitaries	-11.5531
▁ingredient	-11.5531
▁FROM	-11.5531
▁Maulana	-11.5531
▁SHG	-11.5531
▁Doctor	-11.5531
▁gratitude	-11.5531
▁forehead	-11.5532
▁Jesus	-11.5532
▁augment	-11.5532
▁bleeding	-11.5532
▁wives	-11.5533
▁invasion	-11.5533
▁copyright	-11.5533
▁omission	-11.5534
▁Narendra	-11.5534
▁congress	-11.5534
▁Turn	-11.5536
▁juice	-11.5537
▁Farmers	-11.554
▁recurr	-11.5561
▁Consult	-11.5573
▁Analysis	-11.558
▁Intelligence	-11.558
▁Priyobro	-11.558
▁Sanctuary	-11.558
▁conducive	-11.558
▁despair	-11.558
▁translator	-11.558
▁deficit	-11.558
▁dinner	-11.558
▁oneself	-11.558
▁incidence	-11.558
▁Mehta	-11.558
▁Password	-11.558
▁enroll	-11.5582
▁rape	-11.5588
AU	-11.5591
▁archive	-11.5593
▁Kum	-11.5599
▁greed	-11.5608
▁pink	-11.5611
▁imperialist	-11.5624
▁Chit	-11.5626
▁Mohammad	-11.5629
▁abdomen	-11.5629
▁discourse	-11.5629
▁horticulture	-11.5629
▁nineteenth	-11.5629
▁republic	-11.5629
▁thirteen	-11.5629
▁anxiety	-11.5629
▁excited	-11.5629
▁Skill	-11.5629
▁instalment	-11.5629
▁Answer	-11.563
▁loop	-11.5645
▁reproductive	-11.5649
IGN	-11.5662
▁wrongful	-11.5667
▁BEGIN	-11.5679
▁Treatment	-11.5679
▁automobile	-11.5679
▁constraint	-11.5679
▁potato	-11.5679
▁ISRO	-11.5679
▁allotment	-11.5679
▁fiction	-11.5679
▁curb	-11.5681
▁classroom	-11.5683
▁harsh	-11.5685
▁Font	-11.5687
▁remainder	-11.5688
▁landmark	-11.5692
practised	-11.5706
▁prohibition	-11.5708
▁GNOME	-11.5729
▁admiration	-11.5729
▁arithmetic	-11.5729
▁creativity	-11.5729
▁conquest	-11.5729
▁Tatya	-11.5729
▁amidst	-11.5729
▁champion	-11.5729
▁dried	-11.573
▁Except	-11.5734
▁dump	-11.5734
▁Peter	-11.5746
▁induce	-11.5769
text	-11.5777
▁Aurangz	-11.5779
▁Fundamental	-11.5779
▁Introduction	-11.5779
▁fluctuat	-11.5779
▁Personnel	-11.5779
▁Saheb	-11.5779
▁Employees	-11.5779
▁injection	-11.5779
▁nominal	-11.5779
ologies	-11.578
▁Charles	-11.5782
▁ongoing	-11.5783
▁rubb	-11.5822
propria	-11.5828
▁Compensation	-11.5829
▁charitable	-11.5829
▁pharmaceutical	-11.5829
▁procurement	-11.5829
▁Relief	-11.5829
▁Saddam	-11.5829
▁prolonged	-11.5829
▁tropical	-11.5829
▁Client	-11.5829
▁sniff	-11.5829
▁coalition	-11.5831
▁Kabul	-11.5837
▁Guide	-11.584
▁Ubuntu	-11.5879
▁apprehension	-11.5879
▁explicit	-11.5879
▁decisive	-11.5879
▁swift	-11.5879
▁reckon	-11.5879
▁Maratha	-11.588
▁artisans	-11.588
▁adorn	-11.588
▁discern	-11.588
▁loyalty	-11.5882
▁shopping	-11.5883
▁fright	-11.5887
sisted	-11.589
▁Semi	-11.5897
▁Chitra	-11.5914
tunately	-11.5919
▁Available	-11.593
▁renowned	-11.593
▁boycott	-11.593
▁Pothana	-11.593
▁Position	-11.593
▁guiding	-11.5931
▁vocal	-11.5931
▁pretend	-11.5931
▁washing	-11.5942
▁Individual	-11.5981
▁harmonious	-11.5981
▁indispensable	-11.5981
▁undoubtedly	-11.5981
▁Rupee	-11.5981
▁Gulf	-11.5985
▁denote	-11.5985
▁ledger	-11.5986
▁Duty	-11.5991
▁Draw	-11.5992
▁obstruction	-11.5995
▁dull	-11.5997
▁thro	-11.5998
ground	-11.6025
▁Pollution	-11.6032
▁contributing	-11.6032
▁investigating	-11.6032
▁messenger	-11.6032
▁prestigious	-11.6032
▁reinforce	-11.6032
▁widget	-11.6032
▁foregoing	-11.6032
▁impetus	-11.6032
▁inception	-11.6033
▁telecom	-11.6034
▁Tiger	-11.6035
rewith	-11.6036
▁mortality	-11.6038
ahdev	-11.6043
▁flock	-11.6052
▁Inflammation	-11.6084
▁impeachment	-11.6084
▁simplicity	-11.6084
▁bureau	-11.6084
▁requisition	-11.6084
▁expiration	-11.6084
▁temperament	-11.6084
▁hollow	-11.6084
▁Broad	-11.6084
▁tariff	-11.6084
▁mild	-11.6085
▁endorsement	-11.6092
▁Wales	-11.6092
▁Produc	-11.6095
▁plug	-11.6129
NB	-11.613
▁Proclamation	-11.6136
▁Wildlife	-11.6136
▁restaurant	-11.6136
▁steadily	-11.6136
▁unlawful	-11.6136
▁whisper	-11.6136
▁Qaeda	-11.6136
▁tonnage	-11.6136
▁Pratap	-11.6137
▁banyan	-11.6139
▁wireless	-11.6141
▁scrap	-11.6146
▁Load	-11.6152
▁Indic	-11.6168
▁neutral	-11.6188
▁Ahmad	-11.6188
▁California	-11.6188
▁Nivedita	-11.6188
▁accommodate	-11.6188
▁aggression	-11.6188
▁glimpse	-11.6188
▁Friday	-11.6188
▁Undertaking	-11.6188
▁enumerate	-11.6188
▁luminous	-11.6188
▁holistic	-11.6188
▁foremost	-11.6188
▁Madhav	-11.6193
▁banana	-11.6195
▁reliance	-11.6197
▁Bagh	-11.6203
▁Zionis	-11.6207
▁approve	-11.6212
▁formulate	-11.6228
▁Absolute	-11.624
▁nucleus	-11.624
▁sugarcane	-11.624
▁untouchable	-11.624
▁encompass	-11.624
▁Mahadevi	-11.6242
variably	-11.6242
▁Ratna	-11.6243
▁Dalit	-11.6244
▁Until	-11.6247
▁Half	-11.6247
▁NOT	-11.627
▁abort	-11.628
▁enthusiast	-11.6293
▁unanimous	-11.6293
▁Devanagari	-11.6293
▁Guarantee	-11.6293
▁Vehicle	-11.6293
▁stupid	-11.6293
▁portrait	-11.6293
▁dancing	-11.6293
▁Increase	-11.6294
▁captain	-11.6296
▁composite	-11.6296
▁Notification	-11.6297
▁Motor	-11.6306
▁linga	-11.6321
▁Performance	-11.6346
▁ambulance	-11.6346
▁flexibility	-11.6346
▁hierarchy	-11.6346
▁responsive	-11.6346
▁Twenty	-11.6346
▁chemist	-11.6346
▁expedition	-11.6346
▁anticipate	-11.6346
▁hesitate	-11.6346
▁diplomacy	-11.6347
▁minimiz	-11.6347
▁counterpart	-11.6347
▁dispers	-11.6349
▁fertile	-11.6399
▁peripheral	-11.6399
▁sanctum	-11.6399
▁vacancy	-11.6399
▁Treaty	-11.6399
▁homage	-11.6399
▁Dutch	-11.6399
▁Vikram	-11.6399
▁asleep	-11.6399
▁chlor	-11.6401
▁seventeen	-11.6401
xxx	-11.6402
▁Unlike	-11.6404
▁Joze	-11.6404
▁elimination	-11.6405
▁labor	-11.6406
▁Expenditure	-11.6452
▁Olympic	-11.6452
▁affiliate	-11.6452
▁ceremonial	-11.6452
▁disregard	-11.6452
▁whatsoever	-11.6452
▁Munshi	-11.6452
▁Sweden	-11.6452
▁imminent	-11.6452
▁cereal	-11.6452
▁hostility	-11.6452
▁memories	-11.6453
▁brutal	-11.6453
▁clerk	-11.6453
▁naked	-11.6453
▁Omitt	-11.6453
▁summari	-11.6458
▁Corp	-11.6458
▁Circ	-11.646
▁misery	-11.646
class	-11.6493
▁Evidence	-11.6506
▁Varanasi	-11.6506
▁diagnose	-11.6506
▁superficial	-11.6506
▁unhappy	-11.6506
▁offensive	-11.6506
▁undue	-11.6507
▁pearl	-11.6508
▁brotherhood	-11.6509
▁malaria	-11.651
process	-11.6527
▁scarce	-11.653
▁Jahan	-11.6531
▁Generat	-11.6538
▁Cultural	-11.656
▁HPCL	-11.656
▁bracket	-11.656
▁portfolio	-11.656
▁temporarily	-11.656
▁License	-11.656
▁renounc	-11.656
▁census	-11.656
WORK	-11.656
▁sikhara	-11.656
▁mystery	-11.656
assisted	-11.6562
▁mainstream	-11.6562
▁cordial	-11.6564
▁habitual	-11.6566
▁priorities	-11.6567
▁toilet	-11.6581
▁cake	-11.6587
▁utilis	-11.661
▁mortal	-11.6612
▁SPEECH	-11.6614
▁Moscow	-11.6615
▁autonomy	-11.6615
▁consecutive	-11.6615
▁incorrect	-11.6615
▁puzzle	-11.6615
▁tranquil	-11.6615
▁gravity	-11.6615
▁monopoly	-11.6615
▁Venkata	-11.6615
▁fragment	-11.6615
▁Tulsi	-11.6615
▁Chairperson	-11.6615
▁Inquiry	-11.6615
COUNT	-11.6615
▁spices	-11.6615
varying	-11.6615
▁Serial	-11.6615
▁telegraph	-11.6616
▁addict	-11.6626
▁dispose	-11.6641
centric	-11.6644
▁Contribution	-11.6669
▁esteem	-11.6669
▁Method	-11.6669
▁missile	-11.667
▁inhabitants	-11.667
▁Kisan	-11.667
▁biography	-11.6672
▁Phone	-11.6675
▁capita	-11.6689
▁occupie	-11.6696
▁identifie	-11.6696
writing	-11.6698
sufficient	-11.6698
▁Instrument	-11.6724
▁arrears	-11.6724
▁ethics	-11.6724
▁obstina	-11.6724
▁regain	-11.6724
▁curious	-11.6725
▁supervise	-11.6729
▁Bachan	-11.6735
▁Century	-11.6779
▁NUMBER	-11.6779
▁Hitler	-11.6779
▁bribery	-11.6779
▁lifestyle	-11.6779
▁IFCI	-11.6779
▁plough	-11.678
▁boast	-11.678
▁solicit	-11.678
▁provok	-11.678
▁drunk	-11.6781
▁weaver	-11.6783
vardhan	-11.6789
▁Earlie	-11.6795
▁Sukh	-11.6797
▁emanat	-11.6802
▁restrain	-11.6817
▁dye	-11.6834
▁ambitious	-11.6835
▁renunciation	-11.6835
▁verdict	-11.6835
▁Hussein	-11.6835
▁Permanent	-11.6835
▁exciting	-11.6835
▁solitary	-11.6835
▁reputed	-11.6835
▁menace	-11.6836
▁bonus	-11.6836
▁activate	-11.6837
▁feedback	-11.6837
▁Scale	-11.6843
receptor	-11.6849
▁Victoria	-11.6891
▁suspicion	-11.6891
▁CONDOLE	-11.6891
▁authoritative	-11.6891
▁jealous	-11.6891
▁maritime	-11.6891
▁inclined	-11.6891
▁Simple	-11.6893
▁waist	-11.6893
▁Controller	-11.6894
▁Approv	-11.6901
▁Bapu	-11.6903
▁bullet	-11.6908
▁foe	-11.6914
etropolitan	-11.6947
▁absorption	-11.6947
▁mosquito	-11.6947
▁nitrogen	-11.6947
▁infectious	-11.6947
▁Crime	-11.6948
▁Copyright	-11.6948
▁salaries	-11.6948
▁maternal	-11.6951
▁shaping	-11.6951
▁fringe	-11.6957
▁inventor	-11.6961
intern	-11.6969
▁respirator	-11.7004
▁alignment	-11.7004
▁Little	-11.7004
▁completing	-11.7004
▁diameter	-11.7004
▁forecast	-11.7004
▁Wood	-11.7004
▁scroll	-11.7005
▁Kavya	-11.7006
▁Series	-11.7008
▁cited	-11.7009
▁calf	-11.701
▁announce	-11.7022
▁Elephant	-11.706
▁explosion	-11.706
▁mathematical	-11.706
▁vocational	-11.706
▁Bachchan	-11.706
▁blossom	-11.706
▁refresh	-11.706
▁simplify	-11.706
▁Character	-11.706
▁pepper	-11.706
▁vigour	-11.706
▁remedies	-11.706
▁Vedanta	-11.706
▁Nawab	-11.7061
▁aspiration	-11.7062
▁Maurya	-11.7062
▁mammal	-11.7063
▁gateway	-11.7063
▁Daily	-11.7063
▁Usual	-11.7063
▁swing	-11.7068
▁Mexico	-11.7118
▁Respondent	-11.7118
▁illiterate	-11.7118
▁remittance	-11.7118
▁feudal	-11.7118
▁Keyboard	-11.7118
▁ecological	-11.7118
▁abode	-11.7118
▁fiber	-11.7119
▁cancelled	-11.7121
▁solvent	-11.7122
▁Single	-11.7124
▁ailment	-11.713
▁immigrant	-11.7175
▁rigorous	-11.7175
▁umbrella	-11.7175
▁zamindar	-11.7175
▁sulphur	-11.7175
▁upheld	-11.7175
▁buried	-11.7175
▁Specific	-11.7175
▁Ignor	-11.7176
▁gauge	-11.7176
▁isolation	-11.7177
▁Submission	-11.7177
alumni	-11.7179
lmost	-11.7209
stream	-11.7225
▁Independent	-11.7233
▁Peninsula	-11.7233
▁Professional	-11.7233
▁aggrieved	-11.7233
▁beneficiary	-11.7233
▁diagnosis	-11.7233
▁Vigyan	-11.7233
▁martyr	-11.7233
▁aquatic	-11.7233
▁Rahul	-11.7234
▁divert	-11.7234
▁Accept	-11.7235
▁cruelty	-11.7236
▁fauna	-11.7236
▁sponsor	-11.7238
▁joke	-11.7241
▁pupa	-11.7263
consumed	-11.7277
▁ripe	-11.7289
▁Conservation	-11.7291
▁Khandekar	-11.7291
▁Savarkar	-11.7291
▁bargain	-11.7291
▁corpus	-11.7291
▁Browse	-11.7292
▁orphan	-11.7293
▁Kalyan	-11.7318
▁thorough	-11.7327
▁Lebanon	-11.7349
▁Siyaramsharan	-11.7349
▁Valmiki	-11.7349
▁prejudicial	-11.7349
▁Publish	-11.7349
▁pecuniar	-11.7349
▁encoding	-11.7349
▁thumb	-11.735
▁ideological	-11.735
▁Abbas	-11.7351
▁Poona	-11.7352
▁Presid	-11.7354
▁coordinat	-11.7356
ORROW	-11.7408
▁diamond	-11.7408
▁discontinu	-11.7408
▁exemplary	-11.7408
▁frivolous	-11.7408
▁glucose	-11.7408
▁rebellion	-11.7408
▁unlimited	-11.7408
▁voluntarily	-11.7408
▁Initiative	-11.7408
▁beneath	-11.7408
▁Thakur	-11.7408
▁Aviation	-11.7409
▁Background	-11.7409
▁invented	-11.7409
▁Mishra	-11.741
▁Seminar	-11.7411
▁stride	-11.7419
▁Cause	-11.7419
▁coincide	-11.744
▁Celebrations	-11.7467
▁Contempt	-11.7467
▁Santiniketan	-11.7467
▁Suddenly	-11.7467
▁harbour	-11.7467
▁reimburse	-11.7467
▁tuberculosis	-11.7467
▁heartfelt	-11.7467
▁inspiring	-11.7467
▁spinning	-11.7467
▁skull	-11.7467
▁diagram	-11.7468
▁Palace	-11.7468
▁Bridge	-11.7468
▁Naidu	-11.7468
▁lodge	-11.7468
▁Think	-11.7468
▁hydrogen	-11.7469
▁obey	-11.747
▁steal	-11.7471
▁schema	-11.7479
CAIR	-11.7494
▁gradual	-11.7505
rbakhsh	-11.7527
▁Jodhpur	-11.7527
▁Nuclear	-11.7527
▁Superintendent	-11.7527
▁alchemist	-11.7527
▁curiosity	-11.7527
▁trekker	-11.7527
▁Amitabh	-11.7527
▁Steel	-11.7527
▁polish	-11.7528
▁bullock	-11.7528
▁hetero	-11.7531
OVER	-11.7531
▁Wild	-11.7532
▁vomit	-11.7532
PORT	-11.7534
▁eliminat	-11.7548
WAY	-11.7571
prasad	-11.7579
▁moisture	-11.7587
▁swollen	-11.7587
▁annuity	-11.7587
▁compiled	-11.7587
▁Writing	-11.7587
▁carpet	-11.7587
▁bundle	-11.7587
▁Yadav	-11.7587
▁Opposition	-11.7588
▁Complex	-11.7588
▁Thiru	-11.7591
PATI	-11.7599
▁Subsequent	-11.7647
▁Capacity	-11.7647
▁denomination	-11.7647
▁precaution	-11.7647
▁tactics	-11.7647
▁memorable	-11.7647
▁scratch	-11.7647
▁Ground	-11.7647
▁HTTP	-11.7647
▁placing	-11.7647
▁architectural	-11.7647
▁stiff	-11.7648
▁Ramakrishna	-11.7649
▁consultancy	-11.7649
▁multilateral	-11.7649
▁trash	-11.7651
▁knot	-11.7651
▁constitut	-11.7689
dimensional	-11.7689
▁Guwahati	-11.7708
▁Harishchandra	-11.7708
▁Pondicherry	-11.7708
▁Preamble	-11.7708
▁SERVICE	-11.7708
▁embodied	-11.7708
▁fascinating	-11.7708
▁fraudulent	-11.7708
▁hygiene	-11.7708
▁indifference	-11.7708
▁ordinance	-11.7708
▁superstition	-11.7708
▁memorial	-11.7708
▁Material	-11.7708
▁demographic	-11.7708
▁Malaysia	-11.7708
▁wicked	-11.7708
▁expired	-11.7708
▁Adalat	-11.7708
▁Vallabh	-11.7708
▁amenities	-11.7708
▁charity	-11.7709
▁suspend	-11.7716
▁Similar	-11.7746
aunchpad	-11.775
▁imprison	-11.7764
▁INAUGURAT	-11.7769
▁Prophet	-11.7769
▁congratulations	-11.7769
▁intestate	-11.7769
▁uranium	-11.7769
▁warehouse	-11.7769
▁Framework	-11.7769
▁COURT	-11.7769
▁annoy	-11.777
▁dental	-11.777
▁Captain	-11.777
▁straw	-11.7771
▁infrastructur	-11.7803
▁Certification	-11.783
▁MINISTER	-11.783
▁Medicine	-11.783
▁Redressal	-11.783
▁sympathetic	-11.783
▁expedient	-11.783
▁Narmadashank	-11.783
▁microscope	-11.7831
▁stuck	-11.7833
▁storing	-11.7834
▁angel	-11.7841
▁convergence	-11.7892
▁divisible	-11.7892
▁grievous	-11.7892
▁sanctuary	-11.7892
▁Infinite	-11.7892
▁domicile	-11.7892
▁humanitarian	-11.7892
▁Diwali	-11.7892
▁eldest	-11.7892
▁Austria	-11.7892
▁vacant	-11.7892
▁screw	-11.7892
▁Risk	-11.7892
▁revelation	-11.7892
▁Scientist	-11.7892
aceae	-11.7892
▁carving	-11.7892
▁immigration	-11.7892
▁thunder	-11.7894
▁inviting	-11.7895
▁biotechnology	-11.7954
▁discourage	-11.7954
▁extremist	-11.7954
▁leisure	-11.7954
▁Preferences	-11.7954
▁Obvious	-11.7954
▁sediment	-11.7954
▁devoid	-11.7954
▁geography	-11.7954
▁implicat	-11.7958
animate	-11.7966
worth	-11.7973
▁AWARDS	-11.8016
▁conciliation	-11.8016
▁WITH	-11.8016
▁deceit	-11.8016
▁invisible	-11.8016
▁ladies	-11.8016
▁brood	-11.8017
▁fortnight	-11.8017
▁evict	-11.8019
while	-11.8035
equality	-11.8047
science	-11.8047
UST	-11.8056
▁implicit	-11.8079
▁unwilling	-11.8079
rchaeological	-11.8079
▁Maintenance	-11.8079
▁Philosophy	-11.8079
▁calcium	-11.8079
▁fossil	-11.8079
▁illustrious	-11.8079
▁statistical	-11.8079
▁cottage	-11.8079
▁Growth	-11.8079
▁romance	-11.808
▁incapable	-11.808
▁Parvati	-11.8081
▁convince	-11.8114
▁Academic	-11.8143
▁Akademi	-11.8143
▁Excellence	-11.8143
▁Receipt	-11.8143
▁enzyme	-11.8143
▁substitution	-11.8143
▁vegetation	-11.8143
▁imbibe	-11.8143
▁Above	-11.8143
▁Problem	-11.8143
▁Circular	-11.8143
▁Terminal	-11.8143
algia	-11.8147
▁slide	-11.8193
▁Participat	-11.8206
▁ISBN	-11.8206
▁leopard	-11.8206
▁BOLD	-11.8206
▁Regular	-11.8206
▁ministries	-11.8206
▁swallow	-11.8206
▁Quarter	-11.8206
▁buffer	-11.8206
▁facie	-11.8206
▁Guinea	-11.8206
▁hiding	-11.8207
▁nectar	-11.8207
▁concede	-11.8207
▁LIFE	-11.827
▁fertilise	-11.827
▁Adjust	-11.827
▁Countries	-11.827
▁contributor	-11.827
▁embedded	-11.827
▁fertility	-11.827
▁opposing	-11.827
▁panchayat	-11.827
▁Imperial	-11.827
▁cooperate	-11.827
▁duplicate	-11.827
▁complications	-11.827
▁obscure	-11.827
▁ozone	-11.827
▁cursor	-11.8271
▁Discussion	-11.8335
▁liquor	-11.8335
▁aggravat	-11.8335
▁subscription	-11.8335
▁Reason	-11.8335
▁telegram	-11.8336
▁thorn	-11.8336
▁Mahendra	-11.8337
▁Vyas	-11.8343
▁repay	-11.8393
▁Alexander	-11.84
▁VPN	-11.84
▁caterpillar	-11.84
▁hitherto	-11.84
▁jurisprudence	-11.84
▁livestock	-11.84
▁prescription	-11.84
▁generator	-11.84
▁probability	-11.84
▁seldom	-11.84
▁Opinion	-11.84
▁activist	-11.84
▁retrieve	-11.84
▁cousin	-11.84
▁Everything	-11.84
▁compulsion	-11.84
▁Visva	-11.8401
▁defense	-11.8401
▁Rishi	-11.8406
▁sentenc	-11.8409
ustainable	-11.8416
▁incorporate	-11.8437
▁choos	-11.8443
▁apparatus	-11.8465
▁hereinafter	-11.8465
▁peacock	-11.8465
▁proclamation	-11.8465
▁spectacular	-11.8465
▁fierce	-11.8465
▁matrix	-11.8465
▁compilation	-11.8465
▁Request	-11.8465
▁muslim	-11.8465
▁ICAR	-11.8466
olidarity	-11.8467
▁inquire	-11.8482
undergone	-11.849
▁flour	-11.8529
▁Myanmar	-11.8531
▁Strength	-11.8531
▁ambassador	-11.8531
▁reassessment	-11.8531
▁reservoir	-11.8531
▁afflict	-11.8531
▁trivial	-11.8531
▁milestone	-11.8531
▁album	-11.8531
▁refined	-11.8531
▁Venture	-11.8532
▁forgive	-11.8542
narayan	-11.8582
▁Appointment	-11.8597
▁Audacity	-11.8597
▁Structure	-11.8597
▁abdominal	-11.8597
▁credentials	-11.8597
▁humility	-11.8597
▁inculcate	-11.8597
▁influential	-11.8597
▁promulgat	-11.8597
▁Mahavira	-11.8597
▁immune	-11.8597
▁Binding	-11.8597
▁feather	-11.8597
▁salvation	-11.8597
▁pricing	-11.8597
▁spear	-11.8598
praised	-11.8656
control	-11.8657
▁Ultimate	-11.8664
▁elevated	-11.8664
▁erstwhile	-11.8664
▁grandmother	-11.8664
▁penetration	-11.8664
▁clarity	-11.8664
▁pigeon	-11.8664
▁hesitation	-11.8664
▁Blair	-11.8664
▁ecosystem	-11.8664
▁plung	-11.8664
▁trauma	-11.8664
▁Henry	-11.8664
▁rotation	-11.8665
▁imperial	-11.8668
▁Frame	-11.8669
▁inhabit	-11.8703
▁bulb	-11.8705
bhara	-11.8716
▁equat	-11.872
▁Lakshmana	-11.8731
▁Madurai	-11.8731
▁Military	-11.8731
▁pixels	-11.8731
▁sensitivity	-11.8731
▁Joseph	-11.8731
▁Proposal	-11.8731
▁hormone	-11.8731
▁junior	-11.8731
▁precision	-11.8731
implified	-11.8731
▁declaring	-11.8731
▁cosine	-11.8733
pdf	-11.875
▁suppose	-11.877
▁desperate	-11.8798
▁Desktop	-11.8799
▁Dravidian	-11.8799
▁Empowerment	-11.8799
▁Facility	-11.8799
▁adjoining	-11.8799
▁appraisal	-11.8799
▁condoled	-11.8799
▁continuation	-11.8799
▁discharging	-11.8799
▁epidemic	-11.8799
▁inevitably	-11.8799
▁splendour	-11.8799
▁treasury	-11.8799
▁Atlantic	-11.8799
▁workforce	-11.8799
▁Release	-11.8799
▁shrink	-11.8799
▁Spanish	-11.8799
▁Gobind	-11.8799
▁Okay	-11.8799
▁Storage	-11.8799
▁Nigeria	-11.8799
▁medication	-11.8799
▁funeral	-11.8799
▁erosion	-11.8799
▁cheek	-11.8799
▁insulin	-11.8799
▁yarn	-11.8799
▁typing	-11.8799
▁Trading	-11.88
resumption	-11.8804
▁Govern	-11.8844
▁Assemblies	-11.8867
▁Currency	-11.8867
▁Gokhale	-11.8867
▁Puducherry	-11.8867
▁cultivator	-11.8867
▁energies	-11.8867
▁knife	-11.8867
▁mysterious	-11.8867
▁Shipping	-11.8867
▁premature	-11.8867
▁chariot	-11.8867
▁mythology	-11.8867
▁Atomic	-11.8867
▁Options	-11.8867
▁wilful	-11.8867
▁truck	-11.8867
probable	-11.8868
▁conjunct	-11.8899
▁Antarctic	-11.8935
▁Chicago	-11.8935
▁Thackeray	-11.8935
▁UNESCO	-11.8935
▁constituency	-11.8935
▁inconsistent	-11.8935
▁perpetual	-11.8935
▁reconcil	-11.8935
▁kilometers	-11.8935
▁MCX	-11.8935
▁Nalanda	-11.8935
▁curtain	-11.8935
▁mobilis	-11.8936
piece	-11.8937
▁shining	-11.8937
▁Perfecti	-11.8945
▁Sync	-11.8949
PUBLIC	-11.9004
▁Chatterjee	-11.9004
▁RASHTRA	-11.9004
▁convincing	-11.9004
▁equilibrium	-11.9004
▁navigation	-11.9004
▁Oriental	-11.9004
▁Tehran	-11.9004
▁Census	-11.9004
▁Lecture	-11.9004
▁incarnation	-11.9004
▁Circuit	-11.9004
▁Valid	-11.9004
▁retard	-11.9005
▁inhuman	-11.9006
▁tumor	-11.9008
▁Ishwar	-11.9013
▁attest	-11.9018
▁Construction	-11.9073
▁Literacy	-11.9073
▁Vigilance	-11.9073
▁cigarette	-11.9073
▁extinguish	-11.9073
▁memorandum	-11.9073
▁perpetrat	-11.9073
▁privacy	-11.9073
▁refrain	-11.9073
▁untouchability	-11.9073
▁cancellation	-11.9073
▁speculation	-11.9073
▁stabiliz	-11.9073
▁biomass	-11.9073
▁leverage	-11.9073
▁replies	-11.9073
▁Mecca	-11.9073
▁lyrical	-11.9074
▁compensate	-11.9074
▁spoil	-11.9074
▁purification	-11.9074
▁Diploma	-11.9143
▁Bhagwati	-11.9143
▁Database	-11.9143
▁Facilitat	-11.9143
▁Ombudsman	-11.9143
▁Shakespeare	-11.9143
▁Statistics	-11.9143
▁atmospheric	-11.9143
▁eligibility	-11.9143
▁fascism	-11.9143
▁maternity	-11.9143
▁vegetarian	-11.9143
▁timber	-11.9143
▁Observ	-11.9143
▁embark	-11.9143
▁excise	-11.9143
▁Script	-11.9144
▁Bhagavath	-11.9144
▁agitate	-11.9144
▁coarse	-11.9144
▁grind	-11.9146
▁Shyam	-11.9153
▁Memorandum	-11.9214
▁Thailand	-11.9214
▁advertising	-11.9214
▁enrolment	-11.9214
▁banknotes	-11.9214
▁electorate	-11.9214
▁Activities	-11.9214
▁Karachi	-11.9214
▁Eleven	-11.9214
▁muscular	-11.9214
▁vector	-11.9214
EMBER	-11.9214
▁Premises	-11.9214
▁Ireland	-11.9214
▁storeyed	-11.9214
▁mobiliz	-11.9215
▁Defens	-11.9215
▁MOU	-11.9221
graduate	-11.9228
▁Anandamoy	-11.9285
▁applaud	-11.9285
▁disqualified	-11.9285
▁flavour	-11.9285
▁indefinite	-11.9285
▁irrelevant	-11.9285
▁thrill	-11.9285
▁civic	-11.9285
▁thigh	-11.9285
▁malign	-11.9285
▁disguise	-11.9286
▁appeas	-11.9286
spoken	-11.9303
▁algebra	-11.9356
▁Devendranath	-11.9356
▁Domestic	-11.9356
▁eclipse	-11.9356
▁explosive	-11.9356
▁fascist	-11.9356
▁hypothesis	-11.9356
▁intimidat	-11.9356
▁proprietor	-11.9356
▁Investor	-11.9356
▁Motilal	-11.9356
▁Summary	-11.9356
▁calamity	-11.9356
▁Fellow	-11.9356
▁depressed	-11.9356
▁turtle	-11.9357
▁garland	-11.9357
▁Smart	-11.9358
treating	-11.9365
▁Ladie	-11.9368
▁disparit	-11.9371
▁cheat	-11.9374
▁slaughter	-11.9428
▁syndrome	-11.9428
▁CALLS	-11.9428
▁Chatrik	-11.9428
▁Counsel	-11.9428
▁invoked	-11.9428
▁Climate	-11.9428
▁plague	-11.9428
▁Alliance	-11.9428
▁blade	-11.9428
▁forfeit	-11.9428
▁stool	-11.9429
iferous	-11.9431
▁graduat	-11.9447
▁devote	-11.9482
▁Catholic	-11.9501
▁Disabilities	-11.9501
▁Gentlemen	-11.9501
▁Udaipur	-11.9501
▁contravention	-11.9501
▁disillusion	-11.9501
▁genital	-11.9501
▁indifferent	-11.9501
▁pseudo	-11.9501
▁redemption	-11.9501
▁redundant	-11.9501
▁Traffic	-11.9501
Residence	-11.9501
▁revenge	-11.9501
▁grandeur	-11.9501
▁drift	-11.9501
▁purport	-11.9501
▁cultivate	-11.9545
▁Employ	-11.9569
▁Effort	-11.9574
▁Saturday	-11.9574
▁optimum	-11.9574
▁purchasing	-11.9574
▁RFP	-11.9574
▁advisable	-11.9574
▁voyage	-11.9574
▁Cotton	-11.9574
▁increment	-11.9574
▁stanza	-11.9574
▁Watch	-11.9574
swamy	-11.9574
▁SUB	-11.9578
▁coerc	-11.9587
▁Cancel	-11.9588
▁differentiate	-11.9594
▁Bulh	-11.9613
▁Steve	-11.9632
▁Narmada	-11.9647
▁Francis	-11.9647
cquitted	-11.9647
▁Hussain	-11.9647
▁allegiance	-11.9647
▁deprivation	-11.9647
▁diabetic	-11.9647
▁imbalance	-11.9647
▁mumbai	-11.9647
▁necessitat	-11.9647
▁obsolete	-11.9647
▁intimation	-11.9647
▁Virtual	-11.9647
▁Dairy	-11.9647
▁unveil	-11.9647
▁Kuwait	-11.9647
▁glance	-11.9647
▁Average	-11.9647
▁backbone	-11.9647
▁flew	-11.9647
▁Complete	-11.965
▁predator	-11.9652
▁snap	-11.9655
rashtra	-11.9658
▁conclud	-11.9673
▁comprehend	-11.9721
▁dilemma	-11.9721
▁fraternit	-11.9721
▁innocence	-11.9721
▁offspring	-11.9721
▁martial	-11.9721
▁restoration	-11.9721
▁diesel	-11.9722
▁antenna	-11.9722
▁shirt	-11.9722
▁Libya	-11.9724
officio	-11.9781
▁Complaint	-11.9796
▁VISIT	-11.9796
▁contagious	-11.9796
▁crocodile	-11.9796
▁grasshopper	-11.9796
▁credibility	-11.9796
▁ghost	-11.9796
▁Domain	-11.9796
▁Swadeshi	-11.9796
▁dentist	-11.9796
▁vendor	-11.9796
▁trump	-11.9796
▁swim	-11.9798
▁awake	-11.9805
altered	-11.9816
▁Religious	-11.9871
▁calamities	-11.9871
▁cholesterol	-11.9871
▁imaginary	-11.9871
▁impediment	-11.9871
▁libraries	-11.9871
▁rhetoric	-11.9871
▁steadfast	-11.9871
▁Jyoti	-11.9871
▁enmity	-11.9871
▁slender	-11.9871
▁Bodies	-11.9871
▁ninth	-11.9871
▁Width	-11.9871
▁alleviat	-11.9872
▁Belove	-11.9872
▁demise	-11.9872
▁profess	-11.9914
screen	-11.9916
▁Inspection	-11.9947
▁Welcome	-11.9947
▁adjacent	-11.9947
▁avenues	-11.9947
▁cautious	-11.9947
▁enshrined	-11.9947
▁inappropriate	-11.9947
▁unsuccessful	-11.9947
▁detriment	-11.9947
▁Mahasabha	-11.9947
▁pharma	-11.9947
▁massacre	-11.9947
▁theoretical	-11.9947
xistence	-11.9954
▁retire	-11.9991
▁diploma	-12.002
▁Darjeeling	-12.0023
▁Haplogroup	-12.0023
▁autobiography	-12.0023
▁destructive	-12.0023
▁embracing	-12.0023
▁fountain	-12.0023
▁apprehend	-12.0023
▁attorney	-12.0023
▁deception	-12.0023
▁forbidden	-12.0023
▁Heritage	-12.0023
▁myriad	-12.0023
▁Psycho	-12.0023
▁Nyaya	-12.0023
▁Restrict	-12.0023
▁finite	-12.0023
▁consume	-12.0035
people	-12.0075
▁Prohibition	-12.01
▁Rashtriya	-12.01
▁amalgamated	-12.01
▁luxury	-12.01
▁mercury	-12.01
▁mischief	-12.01
▁negligence	-12.01
▁skeleton	-12.01
▁Failure	-12.01
▁rhyme	-12.01
▁swimming	-12.01
▁overlook	-12.01
▁anguish	-12.01
▁infirm	-12.01
▁aspire	-12.0108
▁causa	-12.0143
folk	-12.0175
malgamating	-12.0177
▁Irrigation	-12.0177
▁Oxford	-12.0177
▁Pandavas	-12.0177
▁segregat	-12.0177
▁Fifth	-12.0178
eterrence	-12.0178
▁stolen	-12.0178
▁excel	-12.0179
▁christ	-12.0179
▁stalk	-12.018
▁replicat	-12.0193
▁irrigat	-12.0249
pulsion	-12.0253
▁Identity	-12.0256
▁Kyrgyz	-12.0256
▁Netherlands	-12.0256
▁abundance	-12.0256
▁impugned	-12.0256
▁incumbent	-12.0256
▁luggage	-12.0256
▁motivation	-12.0256
▁paradigm	-12.0256
▁tunnel	-12.0256
▁frightened	-12.0256
▁Scott	-12.0256
▁veteran	-12.0256
▁Advaita	-12.0256
▁Andrew	-12.0256
▁ventilat	-12.0256
▁deplet	-12.0264
▁woke	-12.0282
▁Administrator	-12.0334
▁BHAVAN	-12.0334
▁Detailed	-12.0334
▁Wimbledon	-12.0334
▁practicable	-12.0334
▁sanskrit	-12.0334
▁surroga	-12.0334
▁unemployed	-12.0334
▁HIGH	-12.0334
▁Future	-12.0334
▁intrinsic	-12.0334
▁promising	-12.0334
▁Understand	-12.0334
▁analyst	-12.0334
▁entail	-12.0334
▁polluted	-12.0334
sanitary	-12.0334
▁Vishwa	-12.0334
▁consuming	-12.0335
▁miserable	-12.0335
▁PASS	-12.0335
▁dilut	-12.0342
▁wholesale	-12.0348
bearer	-12.0358
upremacy	-12.0414
▁Fertilizer	-12.0414
▁Horticulture	-12.0414
▁Philippines	-12.0414
▁Regarding	-12.0414
▁convocation	-12.0414
▁enunciat	-12.0414
▁vernacular	-12.0414
▁Preparation	-12.0414
▁Commodit	-12.0414
▁Estimat	-12.0414
▁Previous	-12.0414
▁gracious	-12.0414
▁Subordinate	-12.0414
conscient	-12.0442
▁approximate	-12.0471
▁relentless	-12.0494
▁Calendar	-12.0494
▁Cambridge	-12.0494
▁Judgment	-12.0494
▁Maldives	-12.0494
▁continuity	-12.0494
▁cylinder	-12.0494
▁foodgrains	-12.0494
▁forefront	-12.0494
▁turmeric	-12.0494
▁analyze	-12.0494
▁terrain	-12.0494
▁crazy	-12.0494
▁vertebra	-12.0561
ttributable	-12.0574
▁Almighty	-12.0574
▁Brahmaputra	-12.0574
▁Instruction	-12.0574
▁SAARC	-12.0574
▁Strategic	-12.0574
▁Suggest	-12.0574
▁Vijayanagar	-12.0574
▁ceremonies	-12.0574
▁feasible	-12.0574
▁impersonal	-12.0574
▁Harvard	-12.0574
▁rejuvenat	-12.0574
▁Expert	-12.0574
▁sensible	-12.0574
▁Explor	-12.0574
▁formidable	-12.0574
▁ethos	-12.0575
▁aromatic	-12.0575
▁Louis	-12.0575
OUT	-12.0584
▁colleague	-12.0591
enalties	-12.0613
isciplinary	-12.0652
▁Acquisition	-12.0656
▁Dynamic	-12.0656
▁Tendulkar	-12.0656
▁appetite	-12.0656
▁constituencies	-12.0656
▁diagnostic	-12.0656
▁diarrhoea	-12.0656
▁hereditary	-12.0656
▁receivable	-12.0656
▁Vidyalaya	-12.0656
▁Tunisia	-12.0656
▁Voice	-12.0656
▁combining	-12.0656
▁horror	-12.0656
▁pillow	-12.0656
▁dispatch	-12.0656
▁unaware	-12.0656
cubation	-12.0656
▁engaging	-12.0656
▁Uzb	-12.0656
▁fortunate	-12.0677
▁Einstein	-12.0738
▁Legislation	-12.0738
▁Satellite	-12.0738
▁adhishthana	-12.0738
▁butterfly	-12.0738
▁contemporaries	-12.0738
▁divinity	-12.0738
▁matrimonial	-12.0738
▁subcontinent	-12.0738
▁fatigue	-12.0738
▁Valuation	-12.0738
▁Parallel	-12.0738
▁Ajmer	-12.0738
▁groundnut	-12.0738
▁complied	-12.0738
▁abilities	-12.0738
▁Break	-12.0738
▁locate	-12.0792
▁reconsider	-12.082
▁Argentina	-12.082
▁Dakota	-12.082
2	-12.4135
1	-12.4488
3	-13.7166
4	-13.7166
्	-13.9011
$	-13.9012
–	-13.9013
*	-13.9014
_	-13.9015
—	-13.9016
}	-13.9017
{	-13.9018
!	-13.9019
‘	-13.902
9	-13.9021
#	-13.9022
’	-13.9023
%	-13.9024
?	-13.9025
“	-13.9026
”	-13.9027
/	-13.9028
:	-13.9029
(	-13.903
)	-13.9031
,	-13.9032
