<unk>	0
<s>	0
</s>	0
UuRrLl	0
DdAaTtEe	0
NnUuMm	0
▁t	-0
he	-1
▁a	-2
▁the	-3
in	-4
▁o	-5
re	-6
on	-7
er	-8
at	-9
en	-10
▁of	-11
▁s	-12
ed	-13
is	-14
▁,	-15
it	-16
▁c	-17
▁p	-18
▁w	-19
▁.	-20
nd	-21
▁b	-22
ion	-23
▁in	-24
or	-25
es	-26
▁f	-27
an	-28
al	-29
ar	-30
▁to	-31
as	-32
▁d	-33
ing	-34
ou	-35
ic	-36
▁and	-37
ent	-38
▁h	-39
▁m	-40
▁th	-41
▁re	-42
le	-43
ct	-44
ro	-45
▁n	-46
▁be	-47
▁is	-48
▁T	-49
▁S	-50
▁e	-51
ce	-52
ot	-53
▁C	-54
os	-55
id	-56
▁A	-57
ation	-58
▁I	-59
▁that	-60
il	-61
us	-62
om	-63
ut	-64
ve	-65
▁l	-66
▁on	-67
im	-68
ment	-69
et	-70
ad	-71
ur	-72
ly	-73
▁for	-74
▁P	-75
▁con	-76
▁The	-77
▁as	-78
am	-79
ap	-80
▁by	-81
▁or	-82
▁pro	-83
▁g	-84
▁de	-85
st	-86
▁su	-87
▁&	-88
her	-89
▁was	-90
▁not	-91
ch	-92
ll	-93
ri	-94
pp	-95
ate	-96
▁u	-97
▁wh	-98
ver	-99
▁an	-100
our	-101
ay	-102
▁wit	-103
▁M	-104
ow	-105
ir	-106
▁it	-107
ant	-108
ain	-109
▁st	-110
ld	-111
if	-112
se	-113
▁R	-114
ter	-115
▁with	-116
▁B	-117
apos	-118
ig	-119
ere	-120
▁he	-121
ul	-122
ab	-123
▁H	-124
qu	-125
ect	-126
ess	-127
▁D	-128
▁app	-129
ers	-130
▁)	-131
▁(	-132
ol	-133
▁has	-134
▁ex	-135
res	-136
▁N	-137
ge	-138
ition	-139
▁com	-140
and	-141
▁v	-142
ist	-143
▁al	-144
ra	-145
ourt	-146
▁-	-147
ak	-148
▁are	-149
est	-150
ated	-151
ity	-152
cc	-153
od	-154
ich	-155
ore	-156
ther	-157
end	-158
▁G	-159
▁which	-160
▁at	-161
ud	-162
▁sh	-163
▁ha	-164
▁this	-165
art	-166
rom	-167
nder	-168
iv	-169
um	-170
ould	-171
▁/	-172
ence	-173
▁res	-174
nt	-175
▁Court	-176
ort	-177
▁from	-178
ec	-179
▁O	-180
▁under	-181
ies	-182
▁E	-183
gh	-184
▁le	-185
la	-186
▁In	-187
▁have	-188
▁y	-189
ive	-190
ure	-191
ial	-192
ase	-193
ice	-194
em	-195
un	-196
▁his	-197
etition	-198
▁L	-199
▁W	-200
▁there	-201
ard	-202
▁been	-203
ction	-204
ted	-205
so	-206
ill	-207
all	-208
op	-209
ell	-210
▁j	-211
pl	-212
▁acc	-213
▁any	-214
ust	-215
red	-216
▁petition	-217
▁F	-218
▁cont	-219
pon	-220
▁fa	-221
▁K	-222
oc	-223
ord	-224
▁dis	-225
▁whe	-226
aid	-227
ff	-228
▁se	-229
able	-230
▁ad	-231
ance	-232
▁also	-233
▁sub	-234
▁J	-235
th	-236
▁ch	-237
ie	-238
ia	-239
▁ab	-240
▁can	-241
▁per	-242
▁case	-243
ame	-244
▁It	-245
▁had	-246
ary	-247
▁r	-248
▁:	-249
ear	-250
mit	-251
▁all	-252
ag	-253
▁Ind	-254
▁ag	-255
▁ev	-256
lic	-257
fore	-258
der	-259
▁no	-260
used	-261
▁int	-262
▁part	-263
▁im	-264
sion	-265
ous	-266
ac	-267
▁were	-268
▁such	-269
ned	-270
over	-271
▁other	-272
ision	-273
ire	-274
pt	-275
igh	-276
du	-277
▁Th	-278
▁k	-279
▁comp	-280
▁prov	-281
ution	-282
▁St	-283
per	-284
▁rec	-285
rou	-286
age	-287
ue	-288
ade	-289
▁sp	-290
ount	-291
▁No	-292
ind	-293
ide	-294
▁ne	-295
mis	-296
ip	-297
▁tr	-298
▁ar	-299
▁said	-300
▁en	-301
▁inc	-302
▁cons	-303
ib	-304
ict	-305
▁off	-306
ee	-307
ome	-308
erv	-309
▁V	-310
▁Act	-311
▁would	-312
▁order	-313
fter	-314
▁dec	-315
pos	-316
out	-317
ght	-318
use	-319
▁qu	-320
pond	-321
ical	-322
▁un	-323
▁U	-324
aw	-325
port	-326
rit	-327
ime	-328
ection	-329
▁reg	-330
▁pl	-331
erson	-332
▁we	-333
ish	-334
ass	-335
▁who	-336
ans	-337
ub	-338
pondent	-339
ied	-340
▁their	-341
▁do	-342
▁pres	-343
ations	-344
▁pos	-345
▁He	-346
ru	-347
▁person	-348
ong	-349
overn	-350
▁petitioner	-351
▁tak	-352
ced	-353
orm	-354
▁made	-355
▁me	-356
▁one	-357
iz	-358
aint	-359
▁but	-360
▁out	-361
▁its	-362
ree	-363
▁Ch	-364
istr	-365
iff	-366
▁rel	-367
oin	-368
▁am	-369
▁so	-370
▁De	-371
▁India	-372
▁Com	-373
ident	-374
ments	-375
ult	-376
▁pre	-377
▁wor	-378
▁respondent	-379
▁may	-380
ail	-381
ered	-382
av	-383
▁accused	-384
▁ob	-385
▁mat	-386
▁will	-387
ased	-388
▁him	-389
▁they	-390
ast	-391
▁man	-392
▁fact	-393
one	-394
▁def	-395
ness	-396
▁year	-397
og	-398
ok	-399
overnment	-400
▁only	-401
stit	-402
▁time	-403
▁her	-404
ellant	-405
pect	-406
ces	-407
ific	-408
ine	-409
ile	-410
▁State	-411
ry	-412
ove	-413
rib	-414
are	-415
mitted	-416
▁again	-417
▁if	-418
▁As	-419
ings	-420
ach	-421
idence	-422
▁pr	-423
▁you	-424
ious	-425
uth	-426
ory	-427
hed	-428
mission	-429
ject	-430
▁ent	-431
▁before	-432
ik	-433
▁same	-434
▁appellant	-435
ise	-436
▁Re	-437
▁;	-438
form	-439
▁ri	-440
▁Ex	-441
▁sc	-442
▁ind	-443
ual	-444
ood	-445
▁applic	-446
▁ass	-447
me	-448
▁iss	-449
▁em	-450
ang	-451
ound	-452
▁after	-453
▁inv	-454
▁Sh	-455
sel	-456
▁law	-457
ath	-458
▁ref	-459
▁shall	-460
▁Government	-461
▁This	-462
ty	-463
▁jud	-464
ber	-465
▁consid	-466
▁Su	-467
▁where	-468
amp	-469
erm	-470
uthor	-471
▁when	-472
el	-473
▁ac	-474
▁There	-475
.0	-476
ah	-477
oy	-478
ating	-479
▁evidence	-480
urther	-481
inal	-482
▁dated	-483
▁them	-484
not	-485
vel	-486
ention	-487
iew	-488
▁against	-489
very	-490
▁fil	-491
▁Con	-492
▁being	-493
▁tw	-494
▁should	-495
▁imp	-496
ates	-497
ost	-498
ign	-499
▁requ	-500
ight	-501
▁court	-502
▁work	-503
aj	-504
ert	-505
▁cla	-506
▁writ	-507
ities	-508
▁inter	-509
▁record	-510
ose	-511
▁up	-512
▁pur	-513
▁pol	-514
▁right	-515
nce	-516
oint	-517
▁into	-518
▁conc	-519
ank	-520
▁pla	-521
▁act	-522
▁about	-523
▁cannot	-524
▁pass	-525
▁giv	-526
ark	-527
own	-528
▁bec	-529
ward	-530
ian	-531
▁state	-532
▁cl	-533
ract	-534
▁lear	-535
▁fir	-536
ex	-537
ceed	-538
irect	-539
▁disc	-540
▁On	-541
▁comm	-542
▁two	-543
▁mak	-544
oll	-545
▁further	-546
▁gr	-547
▁provision	-548
▁serv	-549
▁over	-550
ular	-551
▁present	-552
▁PW	-553
▁these	-554
ite	-555
stitution	-556
led	-557
▁0	-558
ower	-559
ause	-560
leg	-561
▁kn	-562
▁witness	-563
ublic	-564
ason	-565
ress	-566
ens	-567
wn	-568
old	-569
ack	-570
ative	-571
ffic	-572
▁set	-573
lect	-574
ute	-575
▁proper	-576
amin	-577
estion	-578
ond	-579
pre	-580
▁author	-581
▁att	-582
act	-583
▁rem	-584
eal	-585
▁some	-586
ained	-587
▁spec	-588
▁dece	-589
ays	-590
▁stated	-591
▁land	-592
ever	-593
ved	-594
▁char	-595
▁learned	-596
sec	-597
▁could	-598
dition	-599
rial	-600
▁rep	-601
ational	-602
een	-603
▁more	-604
▁she	-605
▁bet	-606
▁view	-607
ci	-608
ild	-609
▁our	-610
uring	-611
ession	-612
▁deceased	-613
▁report	-614
▁held	-615
oun	-616
▁matter	-617
▁Pro	-618
round	-619
any	-620
▁taken	-621
▁trans	-622
▁first	-623
▁even	-624
▁issu	-625
eral	-626
lud	-627
ature	-628
▁proceed	-629
ash	-630
▁filed	-631
▁An	-632
▁reason	-633
▁op	-634
ility	-635
ible	-636
ised	-637
ife	-638
▁pay	-639
▁form	-640
▁years	-641
▁plaint	-642
▁Ad	-643
ike	-644
cy	-645
▁judg	-646
▁Y	-647
ving	-648
▁diff	-649
ided	-650
▁pe	-651
ors	-652
▁compl	-653
▁Pr	-654
▁det	-655
▁sec	-656
ited	-657
ired	-658
▁decision	-659
iction	-660
▁given	-661
▁prosec	-662
▁Sing	-663
ffect	-664
▁produ	-665
▁ro	-666
▁question	-667
▁claim	-668
oth	-669
▁ext	-670
ploy	-671
▁regard	-672
ug	-673
▁poss	-674
irc	-675
ax	-676
▁exp	-677
ven	-678
▁”	-679
reat	-680
▁leg	-681
▁consider	-682
ollow	-683
▁well	-684
velop	-685
ha	-686
▁te	-687
rough	-688
▁%	-689
▁Un	-690
ified	-691
▁must	-692
endant	-693
▁High	-694
ween	-695
▁appro	-696
ting	-697
▁respect	-698
▁term	-699
▁supp	-700
part	-701
▁mem	-702
ough	-703
▁des	-704
ook	-705
owever	-706
▁Jud	-707
▁follow	-708
▁application	-709
▁than	-710
▁between	-711
▁found	-712
ily	-713
▁inst	-714
▁plaintiff	-715
cept	-716
▁“	-717
▁just	-718
ram	-719
▁us	-720
▁upon	-721
ful	-722
▁like	-723
▁conf	-724
▁suit	-725
ouse	-726
▁inform	-727
▁above	-728
ep	-729
▁through	-730
▁Rs	-731
erred	-732
▁therefore	-733
▁go	-734
ble	-735
erc	-736
▁then	-737
iod	-738
▁bel	-739
▁employ	-740
▁new	-741
▁cle	-742
▁public	-743
▁circ	-744
▁count	-745
self	-746
▁examin	-747
▁within	-748
▁i	-749
ended	-750
▁Bh	-751
▁direct	-752
▁amount	-753
▁did	-754
hi	-755
other	-756
li	-757
▁submitted	-758
▁We	-759
▁power	-760
vers	-761
ody	-762
▁period	-763
▁here	-764
▁place	-765
ople	-766
▁find	-767
erest	-768
▁passed	-769
preme	-770
▁ra	-771
▁Mr	-772
ale	-773
▁defendant	-774
▁bas	-775
▁without	-776
▁does	-777
its	-778
te	-779
▁judgment	-780
ances	-781
ules	-782
▁par	-783
▁date	-784
rim	-785
ording	-786
abl	-787
▁offic	-788
ral	-789
cess	-790
▁includ	-791
▁provisions	-792
ural	-793
▁Supreme	-794
▁val	-795
ification	-796
▁invest	-797
ng	-798
▁prosecution	-799
▁Singh	-800
▁Section	-801
▁cert	-802
istrict	-803
▁occ	-804
ient	-805
▁appeal	-806
ocu	-807
▁interest	-808
ater	-809
ari	-810
esh	-811
▁inj	-812
▁Ar	-813
rap	-814
▁own	-815
▁petitioners	-816
ince	-817
▁ret	-818
▁Indian	-819
urn	-820
ric	-821
▁est	-822
▁people	-823
▁differe	-824
ew	-825
ule	-826
▁cor	-827
▁what	-828
hen	-829
und	-830
ged	-831
▁?	-832
▁rece	-833
▁hand	-834
▁But	-835
▁docu	-836
▁see	-837
▁persons	-838
▁SC	-839
arm	-840
uc	-841
▁clear	-842
ases	-843
▁av	-844
ix	-845
▁mon	-846
▁very	-847
▁purpos	-848
▁gen	-849
▁whether	-850
ief	-851
▁Offic	-852
bit	-853
▁call	-854
ft	-855
▁partic	-856
▁If	-857
▁effect	-858
▁Commission	-859
ital	-860
▁gu	-861
▁ins	-862
▁alleg	-863
▁mark	-864
▁issued	-865
▁col	-866
▁App	-867
ished	-868
▁know	-869
▁while	-870
▁name	-871
tern	-872
ros	-873
ally	-874
▁inf	-875
ices	-876
▁post	-877
▁used	-878
▁nec	-879
▁grant	-880
▁circum	-881
▁concer	-882
▁trial	-883
▁account	-884
▁statement	-885
▁sy	-886
▁read	-887
app	-888
hy	-889
▁make	-890
por	-891
▁prin	-892
uted	-893
▁develop	-894
▁during	-895
▁ground	-896
ctions	-897
▁min	-898
▁show	-899
ents	-900
ene	-901
▁property	-902
▁car	-903
erial	-904
▁both	-905
▁circumst	-906
ior	-907
sh	-908
duct	-909
▁ear	-910
▁take	-911
▁&#	-912
▁because	-913
▁my	-914
▁bl	-915
igation	-916
aining	-917
ange	-918
▁need	-919
▁disp	-920
▁num	-921
▁section	-922
▁good	-923
▁rele	-924
▁process	-925
ob	-926
▁facts	-927
▁authority	-928
▁get	-929
▁soc	-930
▁house	-931
▁having	-932
▁your	-933
▁police	-934
ner	-935
posed	-936
ith	-937
▁comple	-938
row	-939
▁allow	-940
con	-941
▁let	-942
▁Or	-943
erence	-944
▁parties	-945
▁necess	-946
ode	-947
▁adv	-948
▁dem	-949
▁stand	-950
ized	-951
bers	-952
ning	-953
▁basis	-954
▁different	-955
▁pri	-956
▁District	-957
▁aff	-958
▁Res	-959
▁way	-960
▁sent	-961
miss	-962
▁obs	-963
illa	-964
ather	-965
▁life	-966
iness	-967
▁three	-968
▁material	-969
▁rev	-970
▁word	-971
ave	-972
gan	-973
▁those	-974
ai	-975
read	-976
partment	-977
man	-978
▁offence	-979
▁back	-980
▁hold	-981
▁service	-982
ool	-983
ink	-984
▁came	-985
anc	-986
▁appear	-987
▁Ram	-988
▁proceedings	-989
▁establ	-990
uris	-991
▁Ben	-992
min	-993
▁opp	-994
▁Wh	-995
▁down	-996
ption	-997
sequ	-998
lt	-999
iet	-1000
▁And	-1001
▁ord	-1002
ister	-1003
▁avail	-1004
▁Pres	-1005
ants	-1006
ivil	-1007
▁dist	-1008
▁&#9	-1009
ures	-1010
als	-1011
med	-1012
▁’	-1013
▁Judge	-1014
ges	-1015
▁For	-1016
▁day	-1017
▁Cent	-1018
ither	-1019
urre	-1020
▁Acc	-1021
▁cases	-1022
olog	-1023
ati	-1024
▁stat	-1025
▁notice	-1026
▁condition	-1027
▁Officer	-1028
▁equ	-1029
ten	-1030
▁subject	-1031
▁Pol	-1032
crib	-1033
ores	-1034
▁required	-1035
ism	-1036
▁cap	-1037
▁exerc	-1038
mitt	-1039
ived	-1040
han	-1041
▁br	-1042
ross	-1043
▁bus	-1044
uch	-1045
▁child	-1046
▁company	-1047
▁co	-1048
ality	-1049
stem	-1050
▁circumstances	-1051
▁Raj	-1052
ees	-1053
▁juris	-1054
▁concerned	-1055
▁considered	-1056
lement	-1057
▁country	-1058
lection	-1059
less	-1060
▁contin	-1061
▁observ	-1062
chn	-1063
umar	-1064
▁import	-1065
after	-1066
▁ed	-1067
bitr	-1068
ock	-1069
▁af	-1070
way	-1071
eg	-1072
▁agree	-1073
▁witnesses	-1074
▁sit	-1075
les	-1076
stru	-1077
▁Therefore	-1078
▁cent	-1079
ency	-1080
▁Reg	-1081
ides	-1082
ey	-1083
▁action	-1084
▁However	-1085
diction	-1086
▁fam	-1087
▁fl	-1088
oard	-1089
ribun	-1090
mittee	-1091
▁So	-1092
▁li	-1093
▁body	-1094
▁beh	-1095
ending	-1096
▁every	-1097
▁appoint	-1098
ability	-1099
▁ple	-1100
▁Constitution	-1101
riminal	-1102
▁test	-1103
▁death	-1104
▁month	-1105
▁issue	-1106
eth	-1107
▁purpose	-1108
hes	-1109
ivers	-1110
IR	-1111
▁Par	-1112
▁use	-1113
▁cre	-1114
▁jurisdiction	-1115
tic	-1116
ically	-1117
iry	-1118
arch	-1119
ret	-1120
lus	-1121
▁Man	-1122
har	-1123
up	-1124
▁sim	-1125
ull	-1126
▁non	-1127
▁contract	-1128
▁They	-1129
▁conduct	-1130
▁med	-1131
icial	-1132
▁lit	-1133
▁particular	-1134
ared	-1135
▁due	-1136
gg	-1137
ov	-1138
uty	-1139
ined	-1140
▁support	-1141
▁respondents	-1142
▁now	-1143
▁Am	-1144
ages	-1145
▁del	-1146
▁acqu	-1147
▁exec	-1148
enef	-1149
▁come	-1150
cil	-1151
err	-1152
vant	-1153
▁number	-1154
arge	-1155
ries	-1156
air	-1157
▁Sec	-1158
▁Min	-1159
▁each	-1160
▁coun	-1161
quot	-1162
▁var	-1163
ribunal	-1164
alf	-1165
▁President	-1166
ck	-1167
oresaid	-1168
▁another	-1169
▁point	-1170
▁necessary	-1171
▁long	-1172
▁since	-1173
▁nature	-1174
▁aforesaid	-1175
▁mention	-1176
bt	-1177
ourse	-1178
▁end	-1179
▁po	-1180
▁party	-1181
▁information	-1182
▁great	-1183
▁Ass	-1184
▁benef	-1185
▁Sc	-1186
▁many	-1187
▁prev	-1188
▁bu	-1189
▁She	-1190
▁Comp	-1191
▁ca	-1192
pri	-1193
aring	-1194
▁exist	-1195
▁Kumar	-1196
▁abs	-1197
▁lim	-1198
▁mis	-1199
ator	-1200
ought	-1201
▁terms	-1202
▁system	-1203
▁Rules	-1204
ately	-1205
▁award	-1206
ying	-1207
▁fail	-1208
allen	-1209
na	-1210
▁At	-1211
pra	-1212
▁second	-1213
cip	-1214
▁oper	-1215
anch	-1216
▁possession	-1217
▁stud	-1218
▁sign	-1219
of	-1220
▁et	-1221
▁Hon	-1222
▁injur	-1223
AR	-1224
▁Mah	-1225
▁available	-1226
▁letter	-1227
▁mar	-1228
sequent	-1229
PC	-1230
▁Ap	-1231
chool	-1232
▁Coun	-1233
▁add	-1234
▁..	-1235
▁conv	-1236
▁str	-1237
▁etc	-1238
▁che	-1239
▁various	-1240
▁ve	-1241
▁result	-1242
▁referred	-1243
inion	-1244
▁members	-1245
▁world	-1246
▁Sp	-1247
▁business	-1248
ination	-1249
ried	-1250
icy	-1251
▁All	-1252
uk	-1253
ace	-1254
▁along	-1255
▁sche	-1256
▁sm	-1257
▁Police	-1258
ready	-1259
ured	-1260
▁Shri	-1261
ST	-1262
EN	-1263
raph	-1264
▁lead	-1265
▁charge	-1266
▁bro	-1267
here	-1268
▁already	-1269
ains	-1270
▁relevant	-1271
isl	-1272
▁consideration	-1273
quiry	-1274
▁expl	-1275
eep	-1276
illage	-1277
▁Tr	-1278
ugned	-1279
▁Is	-1280
▁recorded	-1281
ya	-1282
▁called	-1283
▁most	-1284
▁loc	-1285
▁tax	-1286
▁impugned	-1287
▁itself	-1288
▁rest	-1289
ick	-1290
▁opinion	-1291
ointed	-1292
▁Central	-1293
▁open	-1294
▁Tribunal	-1295
▁provided	-1296
▁challen	-1297
ata	-1298
▁prog	-1299
ences	-1300
▁cause	-1301
▁certain	-1302
▁When	-1303
resent	-1304
▁Sub	-1305
▁...	-1306
▁ph	-1307
lp	-1308
▁mod	-1309
hip	-1310
▁bank	-1311
▁appellants	-1312
ives	-1313
▁commun	-1314
▁That	-1315
ateg	-1316
▁put	-1317
▁sur	-1318
▁fore	-1319
▁maint	-1320
ren	-1321
▁dismiss	-1322
▁incident	-1323
▁following	-1324
▁legal	-1325
enior	-1326
▁Committee	-1327
▁supra	-1328
▁vi	-1329
▁including	-1330
▁according	-1331
▁deal	-1332
▁list	-1333
▁mind	-1334
▁Thus	-1335
▁dra	-1336
▁fav	-1337
istration	-1338
▁prom	-1339
cedure	-1340
au	-1341
▁educ	-1342
ising	-1343
▁days	-1344
▁init	-1345
▁arbitr	-1346
▁investigation	-1347
▁Department	-1348
▁agreement	-1349
▁complaint	-1350
lim	-1351
gu	-1352
▁dire	-1353
ually	-1354
▁meet	-1355
▁Rule	-1356
▁far	-1357
▁examination	-1358
▁Board	-1359
▁transf	-1360
uation	-1361
▁though	-1362
att	-1363
▁object	-1364
▁based	-1365
uman	-1366
▁done	-1367
▁ser	-1368
▁den	-1369
▁course	-1370
cribed	-1371
gt	-1372
ron	-1373
get	-1374
ana	-1375
▁dou	-1376
af	-1377
▁indust	-1378
▁documents	-1379
tal	-1380
▁Eng	-1381
AT	-1382
▁alleged	-1383
▁give	-1384
▁say	-1385
orpor	-1386
alth	-1387
▁ident	-1388
iety	-1389
roup	-1390
▁family	-1391
▁ver	-1392
pur	-1393
iding	-1394
▁Code	-1395
▁development	-1396
▁pen	-1397
olution	-1398
ples	-1399
IC	-1400
▁start	-1401
▁favour	-1402
ilar	-1403
▁earli	-1404
▁manner	-1405
▁entire	-1406
▁vide	-1407
▁Gu	-1408
▁mean	-1409
angu	-1410
ogn	-1411
unction	-1412
ork	-1413
▁sett	-1414
▁entit	-1415
ple	-1416
wards	-1417
ph	-1418
istered	-1419
▁institution	-1420
otion	-1421
▁much	-1422
▁represent	-1423
▁Cr	-1424
ulation	-1425
▁orig	-1426
▁final	-1427
▁To	-1428
▁admitted	-1429
AN	-1430
▁conn	-1431
inary	-1432
▁allowed	-1433
rol	-1434
▁organ	-1435
ines	-1436
▁constru	-1437
▁submit	-1438
ially	-1439
conom	-1440
▁Bank	-1441
lig	-1442
ivision	-1443
imes	-1444
▁either	-1445
ER	-1446
▁sale	-1447
▁cross	-1448
▁help	-1449
▁means	-1450
▁sat	-1451
▁Petition	-1452
▁SCC	-1453
ortun	-1454
par	-1455
omm	-1456
pe	-1457
▁general	-1458
▁Adv	-1459
▁position	-1460
▁high	-1461
az	-1462
▁appointment	-1463
▁however	-1464
▁fin	-1465
ext	-1466
▁subst	-1467
reed	-1468
▁Col	-1469
▁making	-1470
▁received	-1471
▁vis	-1472
▁determ	-1473
ird	-1474
▁Ag	-1475
▁cr	-1476
▁respon	-1477
▁Direct	-1478
▁prot	-1479
▁words	-1480
pted	-1481
▁Bench	-1482
▁mentioned	-1483
▁tre	-1484
▁look	-1485
▁area	-1486
▁Al	-1487
ons	-1488
ering	-1489
▁took	-1490
ense	-1491
▁Mag	-1492
▁sum	-1493
▁income	-1494
rie	-1495
▁According	-1496
▁Del	-1497
▁others	-1498
▁cop	-1499
ached	-1500
▁After	-1501
▁techn	-1502
▁how	-1503
▁herein	-1504
▁exercise	-1505
section	-1506
▁assess	-1507
▁earlier	-1508
▁common	-1509
by	-1510
▁invol	-1511
▁policy	-1512
▁Se	-1513
isf	-1514
▁left	-1515
▁last	-1516
▁seek	-1517
▁pun	-1518
hib	-1519
osp	-1520
ology	-1521
▁Dr	-1522
▁clause	-1523
▁document	-1524
▁payment	-1525
▁mer	-1526
▁ten	-1527
atory	-1528
oney	-1529
▁orders	-1530
▁exper	-1531
ication	-1532
▁office	-1533
▁tem	-1534
▁Te	-1535
▁behalf	-1536
▁class	-1537
▁criminal	-1538
▁registered	-1539
ars	-1540
▁complain	-1541
▁prof	-1542
▁examined	-1543
iversity	-1544
▁argu	-1545
lusion	-1546
▁entitled	-1547
▁depos	-1548
agement	-1549
ics	-1550
ditional	-1551
ivid	-1552
stand	-1553
ield	-1554
▁justice	-1555
▁doubt	-1556
eed	-1557
onment	-1558
▁water	-1559
▁ask	-1560
ets	-1561
▁written	-1562
▁father	-1563
ake	-1564
▁Delhi	-1565
▁perform	-1566
▁important	-1567
owers	-1568
▁paid	-1569
▁Gen	-1570
▁continu	-1571
lected	-1572
ves	-1573
ruct	-1574
▁dep	-1575
▁officer	-1576
ience	-1577
▁thus	-1578
▁demand	-1579
▁National	-1580
▁require	-1581
▁princip	-1582
▁placed	-1583
▁stage	-1584
▁taking	-1585
ression	-1586
ways	-1587
AL	-1588
▁committed	-1589
▁langu	-1590
▁rights	-1591
00	-1592
▁want	-1593
▁discus	-1594
▁seen	-1595
▁econom	-1596
ization	-1597
▁below	-1598
ledge	-1599
▁granted	-1600
itation	-1601
▁services	-1602
▁exc	-1603
▁contr	-1604
▁dispute	-1605
▁cand	-1606
osed	-1607
▁detail	-1608
▁lo	-1609
jection	-1610
ES	-1611
ested	-1612
▁real	-1613
▁tra	-1614
▁satisf	-1615
istrate	-1616
val	-1617
wise	-1618
▁activ	-1619
▁Vs	-1620
▁complainant	-1621
oh	-1622
▁fund	-1623
▁proved	-1624
▁viol	-1625
▁book	-1626
▁government	-1627
▁observed	-1628
▁ir	-1629
▁head	-1630
arent	-1631
utes	-1632
▁nor	-1633
day	-1634
▁wom	-1635
▁mere	-1636
ony	-1637
▁priv	-1638
▁cost	-1639
▁Commissioner	-1640
▁duty	-1641
▁candid	-1642
▁original	-1643
ibility	-1644
▁four	-1645
rought	-1646
▁light	-1647
▁known	-1648
lf	-1649
▁raised	-1650
▁dev	-1651
▁Civil	-1652
▁sugg	-1653
▁reference	-1654
▁indic	-1655
▁conditions	-1656
ocate	-1657
▁obt	-1658
▁hig	-1659
rect	-1660
▁These	-1661
▁accept	-1662
▁reasons	-1663
▁value	-1664
▁General	-1665
ms	-1666
▁special	-1667
▁opportun	-1668
▁Magistrate	-1669
▁fee	-1670
see	-1671
fficient	-1672
ively	-1673
▁You	-1674
▁ty	-1675
▁war	-1676
su	-1677
▁human	-1678
▁less	-1679
▁vict	-1680
overed	-1681
▁admin	-1682
ON	-1683
▁away	-1684
▁money	-1685
war	-1686
▁accord	-1687
▁happ	-1688
jud	-1689
▁Author	-1690
▁pract	-1691
atural	-1692
▁directed	-1693
▁months	-1694
▁incre	-1695
▁som	-1696
ensation	-1697
▁file	-1698
▁brought	-1699
orn	-1700
▁Division	-1701
▁rule	-1702
▁except	-1703
▁establish	-1704
▁son	-1705
▁judicial	-1706
▁appropri	-1707
cing	-1708
▁large	-1709
▁met	-1710
ENT	-1711
ize	-1712
endent	-1713
▁prep	-1714
▁going	-1715
ger	-1716
▁legisl	-1717
soci	-1718
▁group	-1719
▁care	-1720
idav	-1721
▁contention	-1722
▁Chand	-1723
ists	-1724
▁age	-1725
▁decl	-1726
▁dismissed	-1727
▁project	-1728
▁build	-1729
▁Corpor	-1730
▁towards	-1731
agraph	-1732
3;	-1733
▁&#93;	-1734
▁pat	-1735
▁rules	-1736
ancial	-1737
▁play	-1738
▁scheme	-1739
▁himself	-1740
▁punish	-1741
▁cred	-1742
uly	-1743
1;	-1744
▁&#91;	-1745
▁complete	-1746
▁submission	-1747
▁succ	-1748
▁individ	-1749
▁Sri	-1750
band	-1751
▁produced	-1752
▁Sche	-1753
▁acce	-1754
▁main	-1755
▁till	-1756
▁ey	-1757
▁wife	-1758
▁side	-1759
▁possible	-1760
▁went	-1761
▁stre	-1762
▁small	-1763
▁Serv	-1764
mb	-1765
oss	-1766
essee	-1767
ospital	-1768
agar	-1769
▁respons	-1770
▁cust	-1771
ts	-1772
▁knowledge	-1773
▁categ	-1774
▁Courts	-1775
▁level	-1776
▁clearly	-1777
▁become	-1778
ani	-1779
▁sever	-1780
▁apply	-1781
▁specific	-1782
▁established	-1783
▁society	-1784
ions	-1785
▁children	-1786
▁constit	-1787
eration	-1788
▁run	-1789
▁victim	-1790
▁got	-1791
▁provide	-1792
▁University	-1793
▁product	-1794
▁fix	-1795
▁individual	-1796
▁Pl	-1797
▁never	-1798
▁Law	-1799
▁contended	-1800
▁counsel	-1801
▁village	-1802
No	-1803
▁think	-1804
▁cro	-1805
iance	-1806
▁il	-1807
▁social	-1808
ressed	-1809
▁purch	-1810
▁reported	-1811
▁Not	-1812
▁appointed	-1813
adesh	-1814
ificate	-1815
▁ann	-1816
amm	-1817
▁appropriate	-1818
▁decided	-1819
▁five	-1820
▁eng	-1821
▁Mus	-1822
▁mother	-1823
▁thereafter	-1824
▁aspect	-1825
▁affidav	-1826
▁school	-1827
▁prior	-1828
▁short	-1829
ellate	-1830
▁grow	-1831
▁conclusion	-1832
ala	-1833
▁Company	-1834
rest	-1835
▁initi	-1836
▁tend	-1837
RB	-1838
ify	-1839
ters	-1840
▁relating	-1841
▁civil	-1842
▁relig	-1843
urrence	-1844
▁illeg	-1845
▁powers	-1846
hic	-1847
▁enc	-1848
▁gl	-1849
usband	-1850
▁education	-1851
duced	-1852
lia	-1853
ajor	-1854
▁keep	-1855
aged	-1856
▁proble	-1857
ope	-1858
▁prescribed	-1859
▁polit	-1860
▁whole	-1861
▁bre	-1862
▁Cont	-1863
▁accepted	-1864
▁program	-1865
▁language	-1866
▁Director	-1867
▁regarding	-1868
▁reject	-1869
igned	-1870
▁Chief	-1871
▁delay	-1872
▁copy	-1873
▁Spec	-1874
hing	-1875
▁regular	-1876
▁Mad	-1877
anj	-1878
▁Apex	-1879
▁employees	-1880
▁instru	-1881
▁FIR	-1882
▁goods	-1883
riage	-1884
▁relief	-1885
umb	-1886
aking	-1887
▁Co	-1888
▁cult	-1889
error	-1890
▁separ	-1891
▁authorities	-1892
asht	-1893
▁compensation	-1894
ember	-1895
▁Order	-1896
▁compet	-1897
▁OF	-1898
▁near	-1899
▁several	-1900
sw	-1901
▁Ab	-1902
utory	-1903
▁total	-1904
▁adver	-1905
▁free	-1906
liament	-1907
▁Even	-1908
▁recomm	-1909
▁old	-1910
medi	-1911
▁market	-1912
▁Q	-1913
▁discl	-1914
▁force	-1915
IT	-1916
ential	-1917
resh	-1918
▁IST	-1919
▁defendants	-1920
▁Hind	-1921
action	-1922
▁procedure	-1923
ging	-1924
▁husband	-1925
▁Respondent	-1926
▁Ins	-1927
▁among	-1928
ium	-1929
isation	-1930
alk	-1931
▁benefit	-1932
▁natural	-1933
▁full	-1934
▁too	-1935
▁pray	-1936
▁san	-1937
▁times	-1938
▁Be	-1939
▁sought	-1940
▁matters	-1941
▁similar	-1942
▁accordance	-1943
▁appears	-1944
empt	-1945
▁working	-1946
overy	-1947
▁qual	-1948
▁paragraph	-1949
▁His	-1950
▁Engl	-1951
▁Council	-1952
▁appre	-1953
▁rate	-1954
▁Corporation	-1955
▁fri	-1956
ricult	-1957
▁nex	-1958
ciples	-1959
▁suff	-1960
mber	-1961
▁laid	-1962
ably	-1963
▁otherwise	-1964
▁meas	-1965
▁direction	-1966
ling	-1967
▁sing	-1968
▁adop	-1969
▁occurrence	-1970
▁interf	-1971
que	-1972
ours	-1973
▁New	-1974
▁prim	-1975
▁En	-1976
▁fe	-1977
▁share	-1978
▁deed	-1979
▁major	-1980
arily	-1981
IN	-1982
▁artic	-1983
ieve	-1984
▁valid	-1985
ane	-1986
▁wind	-1987
idd	-1988
▁aside	-1989
urity	-1990
▁ide	-1991
▁Further	-1992
iving	-1993
ware	-1994
▁Union	-1995
ery	-1996
▁blood	-1997
ends	-1998
vi	-1999
▁hearing	-2000
▁What	-2001
▁control	-2002
▁defence	-2003
OR	-2004
sure	-2005
▁correct	-2006
aly	-2007
▁principle	-2008
▁brother	-2009
▁Bi	-2010
▁field	-2011
▁six	-2012
▁medical	-2013
▁transfer	-2014
ris	-2015
▁sk	-2016
▁opportunity	-2017
icult	-2018
ething	-2019
td	-2020
▁substant	-2021
▁assessment	-2022
▁dead	-2023
▁note	-2024
▁x	-2025
▁spot	-2026
▁move	-2027
▁return	-2028
▁failed	-2029
▁affidavit	-2030
▁health	-2031
▁reasonable	-2032
▁change	-2033
▁subsequent	-2034
oid	-2035
hys	-2036
abad	-2037
acher	-2038
▁recogn	-2039
▁Aug	-2040
▁neg	-2041
ern	-2042
ta	-2043
▁later	-2044
▁propos	-2045
▁charact	-2046
▁Comm	-2047
▁trad	-2048
▁Authority	-2049
▁super	-2050
▁true	-2051
▁vac	-2052
▁private	-2053
▁still	-2054
▁injuries	-2055
▁answ	-2056
akh	-2057
▁success	-2058
▁function	-2059
ems	-2060
▁Nos	-2061
▁Public	-2062
▁Special	-2063
▁vehic	-2064
▁Pradesh	-2065
▁decree	-2066
work	-2067
imum	-2068
▁principles	-2069
ali	-2070
▁charges	-2071
▁proceeding	-2072
duc	-2073
▁sw	-2074
gar	-2075
▁es	-2076
atic	-2077
▁next	-2078
▁today	-2079
▁objection	-2080
▁ur	-2081
▁official	-2082
▁sufficient	-2083
tle	-2084
ship	-2085
▁sal	-2086
▁sl	-2087
▁Ann	-2088
▁ess	-2089
▁affect	-2090
▁ful	-2091
▁sus	-2092
▁States	-2093
▁financial	-2094
▁plead	-2095
▁Prov	-2096
▁intern	-2097
▁plan	-2098
▁pref	-2099
▁always	-2100
▁higher	-2101
vest	-2102
▁fram	-2103
▁Pat	-2104
▁Muslim	-2105
▁Develop	-2106
ats	-2107
▁provides	-2108
ension	-2109
ipl	-2110
▁IPC	-2111
▁chang	-2112
▁national	-2113
▁One	-2114
▁finding	-2115
▁applicant	-2116
lied	-2117
▁mand	-2118
▁indep	-2119
▁self	-2120
orth	-2121
▁contained	-2122
▁port	-2123
▁caused	-2124
▁undert	-2125
▁Part	-2126
▁giving	-2127
thing	-2128
endment	-2129
▁relations	-2130
▁impro	-2131
venue	-2132
augh	-2133
▁Z	-2134
ury	-2135
▁presence	-2136
ks	-2137
▁Secret	-2138
sed	-2139
▁sect	-2140
▁bring	-2141
▁nothing	-2142
▁meeting	-2143
arat	-2144
▁Ltd	-2145
lam	-2146
▁With	-2147
▁dri	-2148
▁best	-2149
▁nam	-2150
outh	-2151
▁treat	-2152
▁namely	-2153
▁once	-2154
▁mot	-2155
▁Cla	-2156
▁elect	-2157
▁Kh	-2158
▁prepared	-2159
▁enquiry	-2160
▁arrest	-2161
१०	-2162
▁Med	-2163
uf	-2164
▁Parliament	-2165
▁fac	-2166
▁injury	-2167
▁meaning	-2168
▁asked	-2169
amination	-2170
▁third	-2171
▁step	-2172
▁bey	-2173
▁fall	-2174
▁wr	-2175
▁extent	-2176
▁ii	-2177
▁beyond	-2178
istry	-2179
ote	-2180
▁senior	-2181
▁lic	-2182
▁PR	-2183
▁Kar	-2184
▁areas	-2185
▁By	-2186
come	-2187
▁conducted	-2188
▁denied	-2189
▁situation	-2190
vir	-2191
for	-2192
▁holding	-2193
ann	-2194
▁prove	-2195
▁kind	-2196
▁Ext	-2197
▁guil	-2198
dule	-2199
ructure	-2200
▁div	-2201
aper	-2202
▁Advocate	-2203
HE	-2204
▁submits	-2205
▁intention	-2206
▁Just	-2207
▁loss	-2208
ape	-2209
▁norm	-2210
▁sust	-2211
▁decla	-2212
▁Station	-2213
ush	-2214
ercial	-2215
une	-2216
standing	-2217
▁Minister	-2218
▁Pre	-2219
▁unless	-2220
illed	-2221
▁hist	-2222
ample	-2223
vey	-2224
▁specified	-2225
ID	-2226
▁Educ	-2227
ribution	-2228
to	-2229
▁outs	-2230
▁immedi	-2231
▁petitions	-2232
▁tit	-2233
▁local	-2234
▁notification	-2235
▁Such	-2236
ulated	-2237
ards	-2238
▁pop	-2239
ara	-2240
igating	-2241
▁carry	-2242
▁Development	-2243
▁certificate	-2244
hold	-2245
▁able	-2246
▁review	-2247
gether	-2248
▁together	-2249
asion	-2250
▁thereof	-2251
unt	-2252
ma	-2253
utive	-2254
ected	-2255
ault	-2256
▁statutory	-2257
urned	-2258
anation	-2259
▁something	-2260
▁filing	-2261
▁While	-2262
ories	-2263
ept	-2264
▁fal	-2265
▁doct	-2266
ties	-2267
▁lab	-2268
▁mo	-2269
▁bar	-2270
▁difficult	-2271
▁liable	-2272
ently	-2273
acity	-2274
▁Ra	-2275
▁home	-2276
▁started	-2277
ened	-2278
▁students	-2279
go	-2280
rish	-2281
▁capital	-2282
▁deposed	-2283
lege	-2284
▁relied	-2285
▁hard	-2286
▁employee	-2287
irm	-2288
indu	-2289
▁states	-2290
▁courts	-2291
▁Sm	-2292
▁absence	-2293
▁Under	-2294
▁therein	-2295
▁previous	-2296
▁decisions	-2297
urd	-2298
▁lib	-2299
▁applicable	-2300
▁comput	-2301
▁issues	-2302
bs	-2303
▁serious	-2304
▁aut	-2305
▁belong	-2306
avan	-2307
ND	-2308
▁Govern	-2309
▁political	-2310
isition	-2311
acy	-2312
▁bail	-2313
▁member	-2314
▁ut	-2315
▁economic	-2316
▁phys	-2317
▁fair	-2318
▁character	-2319
▁few	-2320
▁credit	-2321
▁X	-2322
▁Page	-2323
▁ach	-2324
▁assessee	-2325
▁Panch	-2326
▁settled	-2327
▁wrong	-2328
▁Senior	-2329
▁construction	-2330
▁ill	-2331
▁Gand	-2332
gin	-2333
▁Me	-2334
▁food	-2335
▁expression	-2336
▁daugh	-2337
▁around	-2338
alc	-2339
selves	-2340
ruit	-2341
▁el	-2342
▁Soc	-2343
ubl	-2344
with	-2345
▁unt	-2346
▁Lim	-2347
▁Hindu	-2348
▁sentence	-2349
▁disch	-2350
▁event	-2351
▁May	-2352
▁dom	-2353
▁countries	-2354
..	-2355
urance	-2356
erg	-2357
▁false	-2358
ues	-2359
▁purposes	-2360
▁II	-2361
arma	-2362
▁recei	-2363
essions	-2364
▁declar	-2365
▁foreign	-2366
▁merely	-2367
▁maintain	-2368
▁pending	-2369
▁Cre	-2370
adi	-2371
amb	-2372
▁kept	-2373
▁shown	-2374
cious	-2375
irit	-2376
iary	-2377
irt	-2378
▁arri	-2379
iting	-2380
▁leave	-2381
▁building	-2382
▁candidates	-2383
▁AIR	-2384
▁marriage	-2385
▁wherein	-2386
▁Jan	-2387
ancy	-2388
▁Beng	-2389
▁English	-2390
ternal	-2391
▁Leg	-2392
▁fut	-2393
▁Brit	-2394
▁eff	-2395
▁resident	-2396
▁admission	-2397
▁conviction	-2398
vironment	-2399
▁women	-2400
▁rejected	-2401
▁production	-2402
▁sanction	-2403
ufact	-2404
▁crit	-2405
▁followed	-2406
▁activities	-2407
ership	-2408
▁accordingly	-2409
▁statements	-2410
▁institutions	-2411
▁para	-2412
▁Hence	-2413
ama	-2414
rix	-2415
▁election	-2416
▁pursu	-2417
▁forward	-2418
▁particip	-2419
ita	-2420
▁aver	-2421
▁ded	-2422
▁why	-2423
▁Invest	-2424
ulations	-2425
ION	-2426
▁defin	-2427
▁trade	-2428
▁Mun	-2429
ethod	-2430
▁publ	-2431
▁Dis	-2432
fully	-2433
▁Mar	-2434
omes	-2435
▁vol	-2436
▁offences	-2437
▁Secretary	-2438
▁Since	-2439
law	-2440
▁personal	-2441
II	-2442
▁Appeal	-2443
ead	-2444
▁ele	-2445
▁Criminal	-2446
ires	-2447
▁considering	-2448
eb	-2449
▁management	-2450
▁equal	-2451
▁vehicle	-2452
lu	-2453
▁net	-2454
emed	-2455
▁bal	-2456
▁Counsel	-2457
▁implement	-2458
▁whose	-2459
▁things	-2460
▁wee	-2461
anies	-2462
stitute	-2463
▁informed	-2464
▁department	-2465
▁mil	-2466
▁Rec	-2467
▁face	-2468
▁interpre	-2469
erve	-2470
▁promotion	-2471
ched	-2472
▁und	-2473
tion	-2474
▁commit	-2475
▁follows	-2476
▁thought	-2477
rated	-2478
▁facil	-2479
▁challenge	-2480
▁impos	-2481
eric	-2482
▁request	-2483
▁School	-2484
uses	-2485
▁God	-2486
ught	-2487
▁saf	-2488
▁noted	-2489
▁men	-2490
▁Assist	-2491
▁inn	-2492
▁Prin	-2493
▁gave	-2494
▁involved	-2495
▁Education	-2496
▁Thereafter	-2497
▁assist	-2498
▁THE	-2499
▁claimed	-2500
aving	-2501
atives	-2502
▁receipt	-2503
aff	-2504
▁Islam	-2505
itiz	-2506
▁price	-2507
▁restr	-2508
▁dispos	-2509
▁might	-2510
iss	-2511
ills	-2512
▁fixed	-2513
▁imm	-2514
inate	-2515
▁Cl	-2516
▁road	-2517
ament	-2518
▁mult	-2519
▁streng	-2520
aul	-2521
▁commission	-2522
ti	-2523
▁turn	-2524
▁illegal	-2525
irst	-2526
▁stay	-2527
▁HC	-2528
▁design	-2529
▁spirit	-2530
▁method	-2531
▁Justice	-2532
▁mor	-2533
ril	-2534
ource	-2535
.-	-2536
▁connection	-2537
▁approach	-2538
▁manufact	-2539
aya	-2540
▁grounds	-2541
▁agricult	-2542
▁context	-2543
▁associ	-2544
ources	-2545
▁plaintiffs	-2546
most	-2547
▁From	-2548
▁executed	-2549
▁contrary	-2550
▁effort	-2551
urrent	-2552
▁situ	-2553
▁March	-2554
▁treated	-2555
▁occasion	-2556
▁Sy	-2557
iced	-2558
rant	-2559
▁parent	-2560
▁Service	-2561
▁future	-2562
uled	-2563
▁needs	-2564
▁security	-2565
▁bound	-2566
hai	-2567
▁title	-2568
icated	-2569
▁registration	-2570
▁prob	-2571
▁seeking	-2572
▁young	-2573
▁related	-2574
reg	-2575
▁carried	-2576
▁heard	-2577
▁oppos	-2578
▁expect	-2579
▁Will	-2580
rah	-2581
▁ensure	-2582
▁consum	-2583
▁owner	-2584
▁Annex	-2585
uary	-2586
▁recovery	-2587
men	-2588
rop	-2589
▁fr	-2590
▁Sar	-2591
▁Now	-2592
arant	-2593
imate	-2594
examination	-2595
▁dam	-2596
▁became	-2597
▁additional	-2598
▁Sim	-2599
▁susp	-2600
▁cover	-2601
▁appreci	-2602
ental	-2603
▁plant	-2604
▁properties	-2605
IL	-2606
mes	-2607
itive	-2608
▁Tax	-2609
▁told	-2610
▁specif	-2611
erated	-2612
▁counter	-2613
▁lod	-2614
▁constitution	-2615
▁daughter	-2616
▁industry	-2617
▁Additional	-2618
▁penal	-2619
oad	-2620
▁Let	-2621
▁role	-2622
icip	-2623
▁Lal	-2624
▁crime	-2625
▁declaration	-2626
▁allegations	-2627
▁Writ	-2628
▁relation	-2629
▁obtained	-2630
▁poet	-2631
▁yet	-2632
▁declared	-2633
▁rese	-2634
ety	-2635
▁exam	-2636
▁details	-2637
enced	-2638
▁framed	-2639
udd	-2640
int	-2641
ored	-2642
▁eas	-2643
▁continue	-2644
▁cast	-2645
▁address	-2646
▁outside	-2647
▁spe	-2648
ED	-2649
▁little	-2650
▁ce	-2651
▁allot	-2652
▁arbitration	-2653
▁independent	-2654
ancell	-2655
▁Em	-2656
▁prosecut	-2657
atch	-2658
land	-2659
ude	-2660
▁Where	-2661
▁competent	-2662
itor	-2663
▁First	-2664
▁lar	-2665
▁permission	-2666
▁sector	-2667
▁officers	-2668
▁writing	-2669
▁reserv	-2670
▁Report	-2671
▁heart	-2672
NIC	-2673
▁furn	-2674
▁Muk	-2675
▁joint	-2676
▁rend	-2677
▁impl	-2678
▁room	-2679
▁reached	-2680
ises	-2681
▁hospital	-2682
omp	-2683
▁arr	-2684
▁better	-2685
▁applied	-2686
▁window	-2687
▁whom	-2688
ison	-2689
▁teacher	-2690
UR	-2691
▁intro	-2692
▁recommend	-2693
AM	-2694
▁district	-2695
ares	-2696
▁single	-2697
▁Indust	-2698
▁data	-2699
istrative	-2700
▁trust	-2701
omb	-2702
▁British	-2703
▁testim	-2704
pr	-2705
▁agg	-2706
▁instant	-2707
▁Fin	-2708
▁bo	-2709
▁revision	-2710
lying	-2711
▁quality	-2712
▁existing	-2713
▁discussion	-2714
▁particularly	-2715
११	-2716
oted	-2717
acc	-2718
▁Sur	-2719
▁Bhavan	-2720
▁Cons	-2721
▁Ministry	-2722
▁April	-2723
▁Hindi	-2724
▁Gandhi	-2725
▁Assistant	-2726
▁Created	-2727
▁Village	-2728
▁interim	-2729
▁existence	-2730
▁minor	-2731
▁House	-2732
▁acquit	-2733
▁execution	-2734
aries	-2735
▁strong	-2736
▁makes	-2737
▁shows	-2738
▁Petitioner	-2739
▁records	-2740
▁liter	-2741
▁Annexure	-2742
▁citiz	-2743
▁capacity	-2744
▁treatment	-2745
▁applications	-2746
pir	-2747
▁Sah	-2748
▁join	-2749
▁Ph	-2750
now	-2751
airs	-2752
▁mur	-2753
aster	-2754
▁enact	-2755
mises	-2756
▁summ	-2757
▁Rep	-2758
▁anything	-2759
ayat	-2760
missible	-2761
▁Artic	-2762
▁thing	-2763
▁eye	-2764
▁growth	-2765
▁Sat	-2766
▁Rasht	-2767
dra	-2768
▁Pal	-2769
cent	-2770
▁Procedure	-2771
▁themselves	-2772
▁Le	-2773
▁separate	-2774
▁Sw	-2775
▁type	-2776
▁sense	-2777
▁live	-2778
▁close	-2779
▁art	-2780
UD	-2781
▁employment	-2782
▁search	-2783
▁subs	-2784
▁hence	-2785
▁prevent	-2786
▁fra	-2787
jee	-2788
wal	-2789
▁entered	-2790
cle	-2791
▁station	-2792
cri	-2793
▁coming	-2794
▁mill	-2795
▁Lab	-2796
▁Im	-2797
▁Bar	-2798
rs	-2799
▁Limited	-2800
AD	-2801
▁sol	-2802
▁line	-2803
uction	-2804
aka	-2805
▁love	-2806
▁neither	-2807
▁consist	-2808
▁Cong	-2809
reedom	-2810
▁Clause	-2811
though	-2812
kar	-2813
▁occur	-2814
▁Sessions	-2815
▁operation	-2816
▁lay	-2817
▁story	-2818
ring	-2819
▁region	-2820
▁findings	-2821
▁appellate	-2822
irl	-2823
▁mus	-2824
▁passing	-2825
enc	-2826
▁immediately	-2827
▁created	-2828
▁cut	-2829
▁elig	-2830
▁Americ	-2831
▁alone	-2832
▁Bihar	-2833
▁industrial	-2834
asad	-2835
▁seized	-2836
tt	-2837
ertain	-2838
▁During	-2839
hibit	-2840
▁doing	-2841
▁approval	-2842
ift	-2843
▁access	-2844
▁posts	-2845
▁fun	-2846
▁ter	-2847
▁include	-2848
io	-2849
▁died	-2850
▁Guj	-2851
▁Do	-2852
ipur	-2853
▁murder	-2854
▁Bengal	-2855
CT	-2856
▁selection	-2857
▁specifically	-2858
rapati	-2859
▁Trial	-2860
▁draw	-2861
▁Dep	-2862
▁Off	-2863
▁Single	-2864
▁IT	-2865
ening	-2866
▁published	-2867
olute	-2868
imal	-2869
▁inquiry	-2870
▁Bal	-2871
▁amendment	-2872
▁pointed	-2873
gr	-2874
▁Scheme	-2875
oice	-2876
MENT	-2877
ieved	-2878
▁mach	-2879
▁rendered	-2880
▁friend	-2881
▁directions	-2882
▁dest	-2883
ously	-2884
▁marked	-2885
▁integ	-2886
▁occup	-2887
▁don	-2888
▁led	-2889
▁analy	-2890
▁benefits	-2891
arth	-2892
▁Pun	-2893
adu	-2894
▁liability	-2895
formation	-2896
▁lat	-2897
▁har	-2898
▁past	-2899
▁mess	-2900
▁Pra	-2901
▁begin	-2902
▁Though	-2903
▁Dece	-2904
▁nar	-2905
▁gone	-2906
▁fresh	-2907
▁z	-2908
▁providing	-2909
lector	-2910
ji	-2911
▁progress	-2912
▁Rashtrapati	-2913
▁limited	-2914
▁status	-2915
▁performance	-2916
ront	-2917
▁tried	-2918
ilities	-2919
▁living	-2920
▁gre	-2921
▁key	-2922
▁Krish	-2923
▁merit	-2924
endra	-2925
▁fit	-2926
ators	-2927
▁physical	-2928
▁dise	-2929
▁firm	-2930
▁least	-2931
▁discipl	-2932
oor	-2933
▁Medical	-2934
semb	-2935
▁scale	-2936
irth	-2937
▁night	-2938
▁enfor	-2939
▁Lear	-2940
▁judge	-2941
▁Some	-2942
▁materials	-2943
vention	-2944
▁requirement	-2945
ott	-2946
▁reply	-2947
▁nom	-2948
▁custom	-2949
▁questions	-2950
adem	-2951
▁ign	-2952
bsite	-2953
verse	-2954
▁distin	-2955
▁Congress	-2956
▁proposed	-2957
▁actually	-2958
▁addition	-2959
pector	-2960
ians	-2961
▁remed	-2962
uro	-2963
▁bid	-2964
▁contem	-2965
▁air	-2966
▁parts	-2967
▁testimony	-2968
▁decide	-2969
atures	-2970
change	-2971
▁dr	-2972
▁continued	-2973
▁presum	-2974
retion	-2975
▁adopted	-2976
▁My	-2977
▁adjud	-2978
▁Ne	-2979
▁punishment	-2980
▁drawn	-2981
▁withdra	-2982
▁permit	-2983
▁pension	-2984
▁August	-2985
▁Legisl	-2986
roll	-2987
▁Exec	-2988
▁history	-2989
▁Trans	-2990
ada	-2991
▁Dh	-2992
▁Nar	-2993
▁reve	-2994
put	-2995
▁Pur	-2996
▁hands	-2997
▁experience	-2998
▁often	-2999
▁Oct	-3000
pective	-3001
▁problem	-3002
▁using	-3003
▁lower	-3004
▁guarant	-3005
▁version	-3006
▁January	-3007
▁saw	-3008
elling	-3009
eng	-3010
▁Lord	-3011
▁deemed	-3012
▁challenged	-3013
opp	-3014
▁red	-3015
▁Engine	-3016
▁link	-3017
▁Moh	-3018
▁impris	-3019
▁plea	-3020
▁appearing	-3021
▁Mahar	-3022
oot	-3023
▁Pand	-3024
▁Smt	-3025
eness	-3026
▁accident	-3027
erring	-3028
▁Applic	-3029
▁resolution	-3030
▁essential	-3031
ier	-3032
▁adj	-3033
▁international	-3034
▁recovered	-3035
▁Feb	-3036
apter	-3037
▁freedom	-3038
▁statute	-3039
▁Fore	-3040
▁Chh	-3041
▁Intern	-3042
▁Techn	-3043
▁Second	-3044
equ	-3045
▁pert	-3046
▁unf	-3047
▁produce	-3048
▁July	-3049
▁environment	-3050
istic	-3051
▁Chair	-3052
▁signific	-3053
aging	-3054
▁emp	-3055
▁Sept	-3056
▁works	-3057
cell	-3058
▁feel	-3059
▁instance	-3060
aps	-3061
▁aud	-3062
▁squ	-3063
▁truth	-3064
▁tender	-3065
sequently	-3066
▁fine	-3067
▁community	-3068
ns	-3069
▁December	-3070
▁example	-3071
▁scope	-3072
▁Per	-3073
▁absolute	-3074
▁products	-3075
▁noticed	-3076
asing	-3077
using	-3078
▁news	-3079
icted	-3080
▁rather	-3081
ung	-3082
vis	-3083
▁proof	-3084
▁disposed	-3085
pec	-3086
▁shop	-3087
▁premises	-3088
RI	-3089
▁govern	-3090
ival	-3091
▁advert	-3092
▁category	-3093
ruitment	-3094
orrow	-3095
▁RRB	-3096
hra	-3097
▁Pri	-3098
▁aware	-3099
ration	-3100
▁prosecutrix	-3101
▁website	-3102
▁Ev	-3103
▁tradition	-3104
▁comes	-3105
▁conver	-3106
bed	-3107
▁steps	-3108
▁attempt	-3109
▁loan	-3110
▁error	-3111
▁becomes	-3112
▁Judicial	-3113
aled	-3114
▁Prasad	-3115
ots	-3116
luded	-3117
ober	-3118
▁Mem	-3119
oper	-3120
▁protection	-3121
chan	-3122
▁influ	-3123
▁laws	-3124
▁lands	-3125
ran	-3126
▁guilty	-3127
BI	-3128
▁Sab	-3129
▁vari	-3130
aching	-3131
▁acquired	-3132
ili	-3133
▁attention	-3134
▁Def	-3135
▁basic	-3136
▁perman	-3137
▁Accordingly	-3138
▁imprisonment	-3139
▁mort	-3140
view	-3141
▁consequ	-3142
▁farm	-3143
▁Deputy	-3144
▁commercial	-3145
▁claims	-3146
▁reading	-3147
▁injured	-3148
▁More	-3149
▁deep	-3150
▁September	-3151
▁research	-3152
▁Dist	-3153
▁religious	-3154
▁host	-3155
▁discretion	-3156
anda	-3157
▁administration	-3158
▁virt	-3159
▁lakh	-3160
▁preferred	-3161
▁Arbitr	-3162
▁soon	-3163
▁assum	-3164
▁quant	-3165
▁responsible	-3166
▁ult	-3167
▁Learned	-3168
sing	-3169
▁setting	-3170
▁Int	-3171
pite	-3172
▁sold	-3173
encies	-3174
▁conscious	-3175
▁create	-3176
▁covered	-3177
ruary	-3178
▁Mo	-3179
uties	-3180
▁cell	-3181
▁deli	-3182
▁identified	-3183
jab	-3184
▁big	-3185
line	-3186
▁sole	-3187
▁enter	-3188
▁respective	-3189
AS	-3190
▁pot	-3191
bar	-3192
iso	-3193
▁talk	-3194
▁hy	-3195
inated	-3196
▁Pen	-3197
▁permitted	-3198
▁Ac	-3199
▁relationship	-3200
▁College	-3201
▁February	-3202
▁June	-3203
▁attack	-3204
ourn	-3205
▁Income	-3206
▁US	-3207
amental	-3208
▁accounts	-3209
▁fire	-3210
▁examine	-3211
▁satisfied	-3212
▁Princip	-3213
tation	-3214
ina	-3215
▁names	-3216
▁balance	-3217
▁Collector	-3218
▁consent	-3219
▁agreed	-3220
▁express	-3221
▁LRB	-3222
▁problems	-3223
▁violation	-3224
▁half	-3225
▁suggestion	-3226
icipal	-3227
▁computer	-3228
▁concept	-3229
▁practice	-3230
▁mut	-3231
ager	-3232
ps	-3233
▁wide	-3234
▁Bl	-3235
▁representation	-3236
uel	-3237
va	-3238
ami	-3239
▁almost	-3240
▁born	-3241
rd	-3242
▁explanation	-3243
▁nation	-3244
▁Panchayat	-3245
▁Gr	-3246
▁acquisition	-3247
garh	-3248
▁paper	-3249
▁Similar	-3250
▁Schedule	-3251
▁informant	-3252
▁Har	-3253
▁completed	-3254
uck	-3255
▁enj	-3256
▁rent	-3257
▁di	-3258
▁whereas	-3259
▁judgments	-3260
ender	-3261
▁quite	-3262
▁custody	-3263
▁page	-3264
▁Ple	-3265
▁const	-3266
▁movement	-3267
▁List	-3268
istrar	-3269
▁awarded	-3270
ological	-3271
ograph	-3272
▁sheet	-3273
▁girl	-3274
ankar	-3275
▁penalty	-3276
▁Punjab	-3277
▁woman	-3278
▁remain	-3279
▁argument	-3280
▁extended	-3281
iture	-3282
▁Af	-3283
▁Ah	-3284
pecially	-3285
▁Devi	-3286
els	-3287
heduled	-3288
ET	-3289
sis	-3290
▁top	-3291
▁entry	-3292
▁Gujarat	-3293
▁opposite	-3294
▁payable	-3295
riev	-3296
▁JUD	-3297
▁exercised	-3298
▁technology	-3299
▁gra	-3300
▁Ma	-3301
▁stands	-3302
▁network	-3303
▁developed	-3304
▁getting	-3305
▁appeals	-3306
▁effective	-3307
rob	-3308
estic	-3309
▁Sharma	-3310
▁included	-3311
▁duties	-3312
▁thereby	-3313
▁seiz	-3314
▁Other	-3315
▁West	-3316
duction	-3317
▁Inspector	-3318
▁defined	-3319
▁Ash	-3320
▁Admin	-3321
cription	-3322
▁article	-3323
▁Sun	-3324
ingu	-3325
▁....	-3326
▁reliance	-3327
hood	-3328
▁October	-3329
▁partn	-3330
▁threat	-3331
▁peace	-3332
▁modern	-3333
▁dealing	-3334
▁refer	-3335
iously	-3336
▁evident	-3337
▁behind	-3338
▁situated	-3339
anced	-3340
▁Executive	-3341
▁attract	-3342
▁simple	-3343
▁Information	-3344
body	-3345
▁check	-3346
▁proviso	-3347
▁answer	-3348
▁technical	-3349
▁pack	-3350
▁minimum	-3351
▁punishable	-3352
▁enough	-3353
▁parents	-3354
be	-3355
▁weap	-3356
▁Ka	-3357
▁fully	-3358
kh	-3359
▁sex	-3360
▁especially	-3361
▁training	-3362
▁argued	-3363
▁supported	-3364
▁text	-3365
▁Brah	-3366
▁liqu	-3367
▁imposed	-3368
▁returned	-3369
▁acts	-3370
▁until	-3371
▁supply	-3372
▁Go	-3373
▁JUDG	-3374
▁tele	-3375
rieved	-3376
▁cogn	-3377
▁ever	-3378
▁early	-3379
▁birth	-3380
▁books	-3381
▁portion	-3382
imately	-3383
▁really	-3384
▁limit	-3385
▁ought	-3386
▁clar	-3387
▁observations	-3388
▁corpor	-3389
▁guide	-3390
▁current	-3391
▁cur	-3392
▁approved	-3393
▁profession	-3394
▁source	-3395
▁Chandra	-3396
nat	-3397
▁Appellant	-3398
▁wa	-3399
▁register	-3400
▁Hospital	-3401
▁requires	-3402
▁employer	-3403
▁Bomb	-3404
▁injunction	-3405
▁phot	-3406
▁hon	-3407
itude	-3408
▁United	-3409
▁pros	-3410
▁duly	-3411
▁Principal	-3412
▁hours	-3413
▁cancell	-3414
▁scient	-3415
▁quar	-3416
▁energ	-3417
▁settlement	-3418
▁committee	-3419
▁visit	-3420
amil	-3421
lusive	-3422
CC	-3423
ones	-3424
▁install	-3425
▁Appellate	-3426
rut	-3427
▁deg	-3428
▁typ	-3429
▁pers	-3430
▁option	-3431
▁JUDGMENT	-3432
▁likely	-3433
▁companies	-3434
▁stip	-3435
▁Office	-3436
obile	-3437
avi	-3438
▁boy	-3439
rast	-3440
▁deposit	-3441
▁ren	-3442
▁Case	-3443
▁democ	-3444
▁protect	-3445
endence	-3446
▁Investigating	-3447
▁default	-3448
▁connected	-3449
rig	-3450
▁marks	-3451
▁Pe	-3452
▁signed	-3453
▁discussed	-3454
▁quas	-3455
▁fundamental	-3456
sembly	-3457
▁Mal	-3458
▁prejud	-3459
com	-3460
▁Bombay	-3461
ifying	-3462
uru	-3463
▁understand	-3464
▁lease	-3465
ras	-3466
ground	-3467
▁job	-3468
▁temple	-3469
▁Nagar	-3470
dom	-3471
▁seven	-3472
▁articles	-3473
▁la	-3474
▁mag	-3475
▁villa	-3476
IA	-3477
▁altern	-3478
enses	-3479
pta	-3480
ayan	-3481
▁enjoy	-3482
▁collect	-3483
enance	-3484
▁failure	-3485
porary	-3486
▁discharge	-3487
ancies	-3488
OU	-3489
▁Work	-3490
oke	-3491
▁Nove	-3492
▁insp	-3493
▁fraud	-3494
▁Sam	-3495
▁sound	-3496
▁recruitment	-3497
ins	-3498
apers	-3499
▁Shiv	-3500
▁Sci	-3501
▁ST	-3502
▁Gov	-3503
▁Associ	-3504
lack	-3505
▁substantial	-3506
▁activity	-3507
▁functions	-3508
isc	-3509
▁wid	-3510
▁terror	-3511
assion	-3512
ining	-3513
▁facie	-3514
▁initiated	-3515
▁November	-3516
wan	-3517
▁CR	-3518
▁low	-3519
ference	-3520
▁places	-3521
▁actual	-3522
▁Bab	-3523
३०	-3524
▁determined	-3525
▁apart	-3526
▁obl	-3527
▁shares	-3528
duce	-3529
▁Isra	-3530
elt	-3531
ifications	-3532
▁Registrar	-3533
▁sustained	-3534
१२	-3535
▁transaction	-3536
▁seizure	-3537
▁instead	-3538
hest	-3539
▁believe	-3540
let	-3541
erate	-3542
▁strength	-3543
▁Of	-3544
▁says	-3545
▁instrument	-3546
AG	-3547
under	-3548
▁assets	-3549
▁definition	-3550
istan	-3551
▁Penal	-3552
▁log	-3553
lines	-3554
▁suggest	-3555
▁facilities	-3556
▁fig	-3557
ne	-3558
▁export	-3559
▁generally	-3560
▁sister	-3561
▁revenue	-3562
▁aspects	-3563
▁greater	-3564
adav	-3565
▁Israel	-3566
▁sil	-3567
▁permanent	-3568
▁Revenue	-3569
▁Provided	-3570
▁Management	-3571
▁communication	-3572
irmed	-3573
ales	-3574
ett	-3575
▁adverse	-3576
obal	-3577
▁achieve	-3578
▁fell	-3579
▁expressed	-3580
ams	-3581
▁improve	-3582
▁energy	-3583
▁Plan	-3584
▁unit	-3585
▁bod	-3586
▁oral	-3587
herjee	-3588
krit	-3589
▁doctor	-3590
▁Super	-3591
▁front	-3592
▁structure	-3593
ulate	-3594
▁lodged	-3595
▁Application	-3596
▁Bhag	-3597
itable	-3598
▁transferred	-3599
▁directly	-3600
oud	-3601
▁fulf	-3602
▁candidate	-3603
oti	-3604
eared	-3605
▁Prof	-3606
▁Institute	-3607
▁Patna	-3608
▁Euro	-3609
▁cogniz	-3610
▁city	-3611
▁transport	-3612
-0	-3613
▁territ	-3614
▁religion	-3615
oj	-3616
▁constituted	-3617
▁extra	-3618
▁Then	-3619
▁remedy	-3620
▁prima	-3621
▁served	-3622
▁remained	-3623
ows	-3624
iddle	-3625
▁lost	-3626
▁Chairman	-3627
▁aim	-3628
▁PRES	-3629
▁Shah	-3630
▁changes	-3631
▁signature	-3632
▁importance	-3633
enty	-3634
▁assistance	-3635
ilt	-3636
▁Des	-3637
▁site	-3638
▁bill	-3639
ump	-3640
▁takes	-3641
▁costs	-3642
▁percent	-3643
▁Mand	-3644
▁million	-3645
▁Mukherjee	-3646
▁Chapter	-3647
utta	-3648
▁East	-3649
ousand	-3650
▁contribution	-3651
▁Rail	-3652
▁Ors	-3653
operative	-3654
dd	-3655
EC	-3656
▁substance	-3657
▁submissions	-3658
▁Karnat	-3659
▁Dev	-3660
▁agricultural	-3661
▁administrative	-3662
rid	-3663
▁normal	-3664
▁increase	-3665
▁population	-3666
▁affected	-3667
▁faith	-3668
▁efforts	-3669
▁Any	-3670
▁educational	-3671
▁Europe	-3672
iny	-3673
iti	-3674
▁max	-3675
▁purchase	-3676
rug	-3677
▁arrange	-3678
▁PO	-3679
▁includes	-3680
▁forms	-3681
ordinate	-3682
▁study	-3683
▁stru	-3684
▁advance	-3685
▁conferred	-3686
itary	-3687
▁Judges	-3688
OM	-3689
ouses	-3690
▁intended	-3691
▁gives	-3692
▁Exhibit	-3693
▁Bang	-3694
▁Karnataka	-3695
▁keeping	-3696
hem	-3697
▁described	-3698
uting	-3699
▁lack	-3700
▁arrived	-3701
▁leading	-3702
▁sou	-3703
▁message	-3704
▁Stand	-3705
▁agency	-3706
▁harm	-3707
▁convicted	-3708
aran	-3709
aken	-3710
▁Sabha	-3711
ables	-3712
▁enforce	-3713
erty	-3714
▁difference	-3715
▁prayer	-3716
ask	-3717
▁limitation	-3718
▁stri	-3719
eria	-3720
▁Land	-3721
▁offer	-3722
▁running	-3723
▁burd	-3724
▁goes	-3725
▁preced	-3726
essing	-3727
▁Tamil	-3728
abh	-3729
IS	-3730
ocation	-3731
ga	-3732
▁engaged	-3733
▁oblig	-3734
de	-3735
aut	-3736
▁coll	-3737
▁Bill	-3738
▁remains	-3739
▁resources	-3740
▁eligible	-3741
▁Municipal	-3742
▁ris	-3743
▁sure	-3744
rastructure	-3745
▁Qu	-3746
urer	-3747
▁emph	-3748
stituted	-3749
▁programme	-3750
▁interpretation	-3751
ke	-3752
▁debt	-3753
▁Muslims	-3754
wh	-3755
▁mental	-3756
▁inside	-3757
▁investment	-3758
▁carrying	-3759
athi	-3760
▁apparent	-3761
▁Lok	-3762
▁Krishna	-3763
▁merits	-3764
▁griev	-3765
▁compliance	-3766
▁forth	-3767
▁disease	-3768
▁advertise	-3769
▁disclos	-3770
elf	-3771
▁emer	-3772
,00	-3773
▁opens	-3774
▁patient	-3775
▁selected	-3776
gment	-3777
▁Account	-3778
▁Similarly	-3779
▁remo	-3780
▁Sa	-3781
▁earth	-3782
▁Our	-3783
▁speak	-3784
▁Kash	-3785
ij	-3786
▁added	-3787
▁Bas	-3788
apur	-3789
enditure	-3790
esides	-3791
▁receive	-3792
▁offered	-3793
▁Services	-3794
EL	-3795
▁International	-3796
▁Hy	-3797
▁Jag	-3798
▁arise	-3799
▁exceed	-3800
▁disclosed	-3801
▁er	-3802
▁distance	-3803
ishing	-3804
▁00	-3805
▁allegation	-3806
▁completion	-3807
▁staff	-3808
▁Society	-3809
▁measures	-3810
▁Assam	-3811
▁arising	-3812
▁eight	-3813
▁century	-3814
IDENT	-3815
▁volunt	-3816
▁arbitrator	-3817
▁IN	-3818
▁bad	-3819
▁mechan	-3820
▁standard	-3821
▁Pran	-3822
vision	-3823
ademic	-3824
▁else	-3825
▁presented	-3826
mir	-3827
▁forest	-3828
▁der	-3829
▁lot	-3830
robor	-3831
▁recording	-3832
ading	-3833
cise	-3834
▁South	-3835
▁responsibility	-3836
▁explained	-3837
▁determination	-3838
▁Red	-3839
▁Yadav	-3840
▁bearing	-3841
asm	-3842
inding	-3843
▁legislation	-3844
ban	-3845
rote	-3846
attis	-3847
ches	-3848
▁Das	-3849
▁constitutional	-3850
▁Stat	-3851
anskrit	-3852
▁Labour	-3853
▁contact	-3854
▁weeks	-3855
rog	-3856
▁heav	-3857
▁Right	-3858
▁size	-3859
▁establishment	-3860
umbai	-3861
▁memo	-3862
▁construct	-3863
oval	-3864
▁Mon	-3865
▁amended	-3866
▁funds	-3867
▁thousand	-3868
icate	-3869
uge	-3870
▁mass	-3871
ashtra	-3872
▁External	-3873
▁citizens	-3874
anga	-3875
▁Son	-3876
▁Expl	-3877
▁bi	-3878
uls	-3879
▁stating	-3880
▁arrested	-3881
sect	-3882
▁comb	-3883
▁SH	-3884
▁extract	-3885
▁Governor	-3886
▁PRESIDENT	-3887
▁retire	-3888
▁liberty	-3889
▁requirements	-3890
attisgarh	-3891
ora	-3892
▁Health	-3893
aily	-3894
nces	-3895
ishes	-3896
adh	-3897
lies	-3898
icide	-3899
▁reads	-3900
▁across	-3901
▁refers	-3902
▁How	-3903
▁wanted	-3904
▁emb	-3905
▁Som	-3906
▁none	-3907
▁corrobor	-3908
ava	-3909
▁Both	-3910
▁culture	-3911
▁disputed	-3912
▁Post	-3913
▁collected	-3914
▁factors	-3915
▁rightly	-3916
▁significant	-3917
▁soft	-3918
▁univers	-3919
▁burden	-3920
▁Nag	-3921
rief	-3922
rown	-3923
▁esc	-3924
ini	-3925
▁aggrieved	-3926
▁extre	-3927
▁claimant	-3928
▁IND	-3929
▁partition	-3930
▁Jain	-3931
▁imper	-3932
▁wrote	-3933
▁indicated	-3934
undred	-3935
AY	-3936
▁poor	-3937
▁contempl	-3938
▁breach	-3939
▁Calc	-3940
▁labour	-3941
ING	-3942
rate	-3943
▁Utt	-3944
ricity	-3945
estern	-3946
▁pan	-3947
▁pleaded	-3948
▁tell	-3949
illing	-3950
▁amounts	-3951
▁AP	-3952
▁Can	-3953
▁points	-3954
▁expected	-3955
▁Chhattisgarh	-3956
▁appeared	-3957
▁exchange	-3958
▁rural	-3959
▁licence	-3960
▁disciplinary	-3961
ional	-3962
aded	-3963
eet	-3964
▁formed	-3965
▁detention	-3966
▁Gupta	-3967
▁meant	-3968
rine	-3969
▁Add	-3970
sy	-3971
▁Trust	-3972
▁adequ	-3973
▁emphas	-3974
ength	-3975
▁incorpor	-3976
▁teachers	-3977
play	-3978
▁obligation	-3979
▁oil	-3980
▁tree	-3981
▁Article	-3982
▁unre	-3983
usted	-3984
▁Fund	-3985
▁transl	-3986
▁contrad	-3987
▁maintenance	-3988
tax	-3989
▁broad	-3990
▁cond	-3991
▁mal	-3992
▁Every	-3993
ortem	-3994
▁Sanskrit	-3995
anger	-3996
▁cash	-3997
▁pursuant	-3998
▁literature	-3999
▁ow	-4000
▁Andhra	-4001
▁enable	-4002
etimes	-4003
▁scrut	-4004
▁warrant	-4005
▁charged	-4006
▁advant	-4007
▁sell	-4008
▁Mumbai	-4009
▁Republic	-4010
▁detailed	-4011
▁measure	-4012
▁uns	-4013
othes	-4014
▁conven	-4015
▁interfere	-4016
▁expenditure	-4017
▁inqu	-4018
▁whol	-4019
▁frame	-4020
▁respectively	-4021
olk	-4022
▁units	-4023
▁majority	-4024
▁encour	-4025
▁subsequently	-4026
ique	-4027
▁quash	-4028
liminary	-4029
▁background	-4030
▁NO	-4031
▁officials	-4032
▁disputes	-4033
▁lev	-4034
erala	-4035
▁extend	-4036
▁central	-4037
▁arm	-4038
▁Before	-4039
▁completely	-4040
▁workers	-4041
▁wall	-4042
▁Pranab	-4043
▁ordinary	-4044
▁Whe	-4045
iring	-4046
▁felt	-4047
▁excess	-4048
osh	-4049
,000	-4050
▁objections	-4051
▁interference	-4052
▁Road	-4053
▁Kal	-4054
aves	-4055
AP	-4056
▁१	-4057
▁gold	-4058
ikh	-4059
eech	-4060
▁Power	-4061
▁try	-4062
▁science	-4063
▁mode	-4064
▁path	-4065
utor	-4066
▁ll	-4067
▁interests	-4068
▁entr	-4069
▁although	-4070
dy	-4071
▁Evidence	-4072
▁fast	-4073
▁Kerala	-4074
ivity	-4075
▁proceeded	-4076
▁CPC	-4077
▁asc	-4078
▁suc	-4079
▁Centre	-4080
▁servant	-4081
▁spread	-4082
▁Regulations	-4083
▁salary	-4084
▁Gh	-4085
▁Calcutta	-4086
osop	-4087
▁calc	-4088
nam	-4089
▁sac	-4090
bitral	-4091
IV	-4092
▁tri	-4093
▁Mark	-4094
▁looking	-4095
▁Maharashtra	-4096
▁initial	-4097
▁schedule	-4098
wa	-4099
▁repro	-4100
▁mom	-4101
▁regards	-4102
vere	-4103
atever	-4104
ributed	-4105
▁util	-4106
▁dealt	-4107
▁Class	-4108
▁hundred	-4109
ammu	-4110
▁Please	-4111
▁removal	-4112
iency	-4113
▁cal	-4114
earch	-4115
▁succeed	-4116
▁Head	-4117
▁domestic	-4118
▁properly	-4119
pper	-4120
▁length	-4121
▁categor	-4122
▁Jammu	-4123
▁conflic	-4124
actions	-4125
▁tot	-4126
▁idea	-4127
▁standing	-4128
▁maintained	-4129
▁validity	-4130
oon	-4131
▁global	-4132
▁granting	-4133
▁handed	-4134
ncy	-4135
▁legislature	-4136
▁anim	-4137
▁Shankar	-4138
▁round	-4139
▁wound	-4140
▁advocate	-4141
she	-4142
▁base	-4143
▁strict	-4144
▁constitute	-4145
▁publication	-4146
▁motor	-4147
▁Ent	-4148
▁innov	-4149
▁Arab	-4150
▁eyes	-4151
▁river	-4152
oms	-4153
ilosop	-4154
▁justified	-4155
▁alternative	-4156
abor	-4157
▁virtue	-4158
▁proposal	-4159
raft	-4160
▁Pak	-4161
▁stood	-4162
▁introduced	-4163
▁cy	-4164
▁won	-4165
▁consult	-4166
▁Their	-4167
▁king	-4168
▁admit	-4169
▁unable	-4170
▁disposal	-4171
▁prayed	-4172
mortem	-4173
▁Association	-4174
▁Ms	-4175
▁pred	-4176
▁black	-4177
▁contain	-4178
▁poll	-4179
ATION	-4180
▁Cert	-4181
▁degree	-4182
▁longer	-4183
▁tenant	-4184
enth	-4185
▁AS	-4186
▁letters	-4187
uss	-4188
▁indicate	-4189
oo	-4190
aram	-4191
atio	-4192
▁contents	-4193
ula	-4194
iable	-4195
▁reit	-4196
▁trib	-4197
▁preliminary	-4198
▁sustain	-4199
▁analysis	-4200
▁laun	-4201
▁quashed	-4202
▁instructions	-4203
▁named	-4204
▁AG	-4205
aulted	-4206
▁Elect	-4207
vell	-4208
▁dischar	-4209
▁Scheduled	-4210
▁reports	-4211
▁aid	-4212
▁arbitrary	-4213
hab	-4214
thern	-4215
▁vested	-4216
▁mandatory	-4217
haps	-4218
▁week	-4219
▁avoid	-4220
▁projects	-4221
▁Industrial	-4222
ley	-4223
▁Khan	-4224
▁diss	-4225
▁miscon	-4226
ply	-4227
▁camp	-4228
usion	-4229
▁insurance	-4230
▁&#1	-4231
▁increased	-4232
▁guidelines	-4233
izing	-4234
▁cheque	-4235
▁unc	-4236
nother	-4237
१३	-4238
▁commence	-4239
▁rail	-4240
olved	-4241
▁principal	-4242
▁Whether	-4243
▁standards	-4244
right	-4245
▁corres	-4246
usal	-4247
▁accomp	-4248
▁Another	-4249
▁requested	-4250
▁daily	-4251
▁obv	-4252
▁numbers	-4253
▁Br	-4254
▁economy	-4255
▁vacancies	-4256
▁Regulation	-4257
▁released	-4258
▁maintainable	-4259
▁infrastructure	-4260
▁Moreover	-4261
▁fem	-4262
▁space	-4263
reement	-4264
▁late	-4265
abilities	-4266
wari	-4267
▁demon	-4268
▁Once	-4269
▁despite	-4270
▁viz	-4271
▁exem	-4272
▁popular	-4273
▁qualification	-4274
▁mobile	-4275
▁response	-4276
▁Priv	-4277
▁seems	-4278
▁confidence	-4279
▁mist	-4280
▁guilt	-4281
ades	-4282
where	-4283
▁Mu	-4284
▁Group	-4285
▁Op	-4286
ailed	-4287
▁former	-4288
▁err	-4289
▁beginning	-4290
orse	-4291
▁arguments	-4292
asth	-4293
▁door	-4294
▁convey	-4295
▁prohib	-4296
PS	-4297
▁King	-4298
▁insect	-4299
▁Project	-4300
▁morning	-4301
▁attached	-4302
gn	-4303
▁larger	-4304
▁litigation	-4305
▁Vish	-4306
▁academic	-4307
▁undertaking	-4308
▁stamp	-4309
▁implementation	-4310
▁write	-4311
▁expert	-4312
▁foc	-4313
▁belonging	-4314
▁SCA	-4315
▁refused	-4316
▁remaining	-4317
▁journ	-4318
▁rise	-4319
▁CH	-4320
▁Explanation	-4321
▁primary	-4322
ox	-4323
▁autom	-4324
▁board	-4325
▁bodies	-4326
eel	-4327
▁invok	-4328
hya	-4329
▁contempt	-4330
racy	-4331
▁banks	-4332
▁ali	-4333
▁fear	-4334
▁Commercial	-4335
ograp	-4336
▁Prosec	-4337
rist	-4338
▁expenses	-4339
▁termination	-4340
▁investigating	-4341
▁Ur	-4342
▁Prog	-4343
▁Uttar	-4344
▁Ak	-4345
▁plus	-4346
ateral	-4347
▁groups	-4348
▁iii	-4349
▁whereby	-4350
▁purchased	-4351
▁Day	-4352
▁Policy	-4353
▁contains	-4354
▁Finance	-4355
▁vot	-4356
▁cou	-4357
▁turned	-4358
▁located	-4359
DA	-4360
▁assaulted	-4361
nel	-4362
ler	-4363
▁Char	-4364
▁repe	-4365
▁Block	-4366
▁pain	-4367
▁Inter	-4368
▁borrow	-4369
▁results	-4370
▁weak	-4371
....	-4372
▁reform	-4373
▁sections	-4374
▁advertisement	-4375
▁Form	-4376
ques	-4377
▁Tw	-4378
▁highest	-4379
▁usually	-4380
rew	-4381
▁TO	-4382
▁deb	-4383
▁speed	-4384
▁possess	-4385
ulted	-4386
▁Her	-4387
▁events	-4388
endency	-4389
▁hope	-4390
ota	-4391
▁vital	-4392
NA	-4393
▁dig	-4394
leb	-4395
▁Kam	-4396
▁deposited	-4397
▁correspond	-4398
ni	-4399
▁Net	-4400
▁release	-4401
▁sle	-4402
▁rout	-4403
ailing	-4404
▁extension	-4405
▁determine	-4406
▁prop	-4407
▁temporary	-4408
▁potential	-4409
▁reach	-4410
▁maximum	-4411
▁formal	-4412
▁Technology	-4413
▁Ved	-4414
▁Here	-4415
▁interested	-4416
ze	-4417
▁pleadings	-4418
▁suffered	-4419
▁schools	-4420
ndra	-4421
cient	-4422
▁items	-4423
▁Your	-4424
▁ready	-4425
chol	-4426
pped	-4427
▁issuance	-4428
▁acquittal	-4429
▁weight	-4430
▁guarantee	-4431
▁film	-4432
▁ratio	-4433
lal	-4434
▁built	-4435
▁god	-4436
▁advantage	-4437
inating	-4438
arya	-4439
▁removed	-4440
ighb	-4441
▁delib	-4442
▁element	-4443
▁applicants	-4444
▁tar	-4445
▁finally	-4446
▁Resident	-4447
erted	-4448
▁saying	-4449
▁drug	-4450
inery	-4451
▁perf	-4452
▁proc	-4453
▁colour	-4454
▁proced	-4455
▁Ob	-4456
aksh	-4457
▁worked	-4458
▁moment	-4459
▁approached	-4460
▁Air	-4461
iment	-4462
▁presumption	-4463
▁valu	-4464
▁deals	-4465
▁novel	-4466
▁objective	-4467
▁send	-4468
▁user	-4469
ites	-4470
▁Mod	-4471
rif	-4472
▁nos	-4473
▁Sal	-4474
▁extreme	-4475
▁AND	-4476
iciary	-4477
▁risk	-4478
▁Control	-4479
▁concluded	-4480
▁influence	-4481
ton	-4482
▁entertain	-4483
▁understanding	-4484
iece	-4485
▁Rel	-4486
▁crores	-4487
▁void	-4488
ume	-4489
▁pal	-4490
▁recommendations	-4491
▁finds	-4492
gy	-4493
▁crore	-4494
▁pleas	-4495
▁recent	-4496
▁retirement	-4497
udh	-4498
▁deduction	-4499
▁prejudice	-4500
▁bear	-4501
▁industries	-4502
EAR	-4503
▁medic	-4504
▁phone	-4505
▁distingu	-4506
▁neighb	-4507
▁philosop	-4508
AC	-4509
▁hereby	-4510
the	-4511
▁North	-4512
▁employed	-4513
▁delivery	-4514
▁imag	-4515
▁raise	-4516
▁stock	-4517
▁notes	-4518
▁views	-4519
▁engine	-4520
▁violence	-4521
rel	-4522
▁item	-4523
▁factual	-4524
▁cognizance	-4525
▁hum	-4526
▁fight	-4527
▁PM	-4528
▁ordered	-4529
▁team	-4530
▁survey	-4531
▁eval	-4532
▁assault	-4533
yle	-4534
owry	-4535
uct	-4536
gest	-4537
orial	-4538
▁suggested	-4539
▁partnership	-4540
▁legislative	-4541
▁filled	-4542
oured	-4543
▁amongst	-4544
▁demonst	-4545
dden	-4546
▁Having	-4547
▁recommended	-4548
▁Mis	-4549
▁card	-4550
▁Kashmir	-4551
▁moved	-4552
operation	-4553
▁complex	-4554
▁contentions	-4555
▁chem	-4556
▁render	-4557
▁Manager	-4558
▁dismissal	-4559
▁Up	-4560
▁notified	-4561
▁Are	-4562
▁AT	-4563
▁Ahmed	-4564
▁lives	-4565
▁adequate	-4566
▁square	-4567
▁affairs	-4568
▁bed	-4569
▁incur	-4570
▁changed	-4571
▁showing	-4572
▁wholly	-4573
▁rank	-4574
▁Person	-4575
▁impact	-4576
▁caste	-4577
icit	-4578
▁clean	-4579
▁happy	-4580
itness	-4581
▁began	-4582
▁confirmed	-4583
▁Insurance	-4584
▁ing	-4585
inent	-4586
▁addressed	-4587
▁elected	-4588
▁urged	-4589
▁arises	-4590
orld	-4591
▁motive	-4592
▁San	-4593
aches	-4594
▁married	-4595
▁undergo	-4596
▁assigned	-4597
▁dying	-4598
PA	-4599
▁Est	-4600
▁stop	-4601
▁satisfaction	-4602
inder	-4603
▁executive	-4604
▁license	-4605
▁compassion	-4606
▁DW	-4607
▁pure	-4608
▁happened	-4609
essor	-4610
upees	-4611
▁Official	-4612
utation	-4613
ja	-4614
▁investig	-4615
issa	-4616
▁distribution	-4617
▁identification	-4618
head	-4619
iy	-4620
▁Science	-4621
▁American	-4622
▁Superint	-4623
idy	-4624
▁bon	-4625
▁foot	-4626
bhai	-4627
▁Car	-4628
▁programmes	-4629
▁ep	-4630
▁Bharat	-4631
▁leaders	-4632
▁seniority	-4633
▁burn	-4634
▁cruel	-4635
ensive	-4636
▁proposition	-4637
▁sides	-4638
▁papers	-4639
▁lying	-4640
▁break	-4641
▁distinct	-4642
▁deserv	-4643
▁reduced	-4644
cial	-4645
▁pron	-4646
▁discrim	-4647
olid	-4648
▁Vij	-4649
ictions	-4650
ourth	-4651
▁conce	-4652
▁Assembly	-4653
appa	-4654
▁Cor	-4655
▁Afric	-4656
▁flow	-4657
▁cultural	-4658
▁Ant	-4659
▁advanced	-4660
▁successful	-4661
▁feed	-4662
▁clothes	-4663
▁Prot	-4664
▁referring	-4665
withstanding	-4666
▁involve	-4667
▁Agreement	-4668
▁safe	-4669
▁enh	-4670
herent	-4671
▁spiritual	-4672
ka	-4673
▁sitting	-4674
cribe	-4675
▁Govt	-4676
▁permissible	-4677
una	-4678
▁twenty	-4679
▁binding	-4680
▁connect	-4681
▁causing	-4682
▁highly	-4683
▁sym	-4684
▁Supp	-4685
▁active	-4686
▁collection	-4687
requ	-4688
▁bur	-4689
▁opened	-4690
▁amend	-4691
▁Orissa	-4692
▁tribunal	-4693
aneous	-4694
▁pattern	-4695
▁Att	-4696
▁multip	-4697
▁driver	-4698
▁suspic	-4699
▁issuing	-4700
▁Amendment	-4701
▁ble	-4702
▁directing	-4703
▁circumstance	-4704
attle	-4705
▁Agricult	-4706
AB	-4707
▁Ali	-4708
▁INDIA	-4709
▁World	-4710
omen	-4711
▁seed	-4712
▁Assessing	-4713
alid	-4714
oned	-4715
▁mortg	-4716
▁scientific	-4717
▁rul	-4718
ounce	-4719
aji	-4720
▁sun	-4721
stood	-4722
▁pict	-4723
▁newsp	-4724
road	-4725
▁speech	-4726
andum	-4727
▁Circ	-4728
▁save	-4729
orney	-4730
▁cho	-4731
▁sudden	-4732
antly	-4733
▁grand	-4734
achment	-4735
uration	-4736
▁whatever	-4737
▁attend	-4738
▁cad	-4739
orandum	-4740
▁values	-4741
mi	-4742
▁ap	-4743
itate	-4744
ception	-4745
▁totally	-4746
▁undertaken	-4747
▁win	-4748
▁sem	-4749
▁depri	-4750
▁increasing	-4751
▁brief	-4752
▁thereto	-4753
▁liquid	-4754
▁town	-4755
▁visited	-4756
▁secured	-4757
ousing	-4758
▁minutes	-4759
▁Nadu	-4760
▁device	-4761
▁Engineer	-4762
mise	-4763
▁mount	-4764
yer	-4765
▁Award	-4766
reen	-4767
▁Institution	-4768
rick	-4769
▁bond	-4770
▁ways	-4771
while	-4772
ancing	-4773
iation	-4774
▁Jh	-4775
▁looked	-4776
▁display	-4777
▁containing	-4778
▁press	-4779
▁bit	-4780
▁hab	-4781
▁huge	-4782
▁Bu	-4783
▁ago	-4784
▁pendency	-4785
▁Kan	-4786
▁cited	-4787
MC	-4788
▁sample	-4789
▁systems	-4790
▁Railway	-4791
▁soul	-4792
iya	-4793
▁Ord	-4794
▁lie	-4795
▁sens	-4796
lex	-4797
▁depart	-4798
lude	-4799
▁Roy	-4800
kash	-4801
pto	-4802
▁Sanj	-4803
▁block	-4804
▁innoc	-4805
▁latter	-4806
▁promot	-4807
▁weapon	-4808
▁hot	-4809
▁song	-4810
▁plants	-4811
▁Officers	-4812
▁suitable	-4813
etic	-4814
▁Program	-4815
▁certainly	-4816
▁task	-4817
▁fif	-4818
▁rich	-4819
▁manif	-4820
▁transactions	-4821
azar	-4822
▁schol	-4823
ellig	-4824
▁Only	-4825
▁types	-4826
▁Spe	-4827
▁rap	-4828
accused	-4829
▁conspir	-4830
▁description	-4831
urs	-4832
▁Employ	-4833
▁harass	-4834
chand	-4835
▁closed	-4836
▁sexual	-4837
▁milk	-4838
▁indicates	-4839
▁fat	-4840
▁histor	-4841
▁Tal	-4842
ieties	-4843
▁rates	-4844
▁wages	-4845
atha	-4846
lfare	-4847
▁welfare	-4848
asa	-4849
▁seats	-4850
AK	-4851
▁genu	-4852
▁Chen	-4853
urb	-4854
▁Accused	-4855
▁Legislature	-4856
▁exhib	-4857
qual	-4858
▁Budd	-4859
▁minister	-4860
ira	-4861
▁panch	-4862
▁neglig	-4863
▁renew	-4864
▁secret	-4865
▁friends	-4866
▁furnished	-4867
▁danger	-4868
opal	-4869
▁gets	-4870
irs	-4871
▁possibility	-4872
azet	-4873
▁ens	-4874
▁Met	-4875
▁music	-4876
▁profit	-4877
▁consequence	-4878
▁individuals	-4879
ruption	-4880
▁Christ	-4881
▁joined	-4882
ratic	-4883
ivered	-4884
IM	-4885
▁wish	-4886
▁obtaining	-4887
iful	-4888
▁criteria	-4889
▁lap	-4890
▁fort	-4891
▁quoted	-4892
▁Pakistan	-4893
held	-4894
▁ant	-4895
ients	-4896
▁serve	-4897
▁identity	-4898
▁operations	-4899
akes	-4900
▁defect	-4901
▁solution	-4902
▁Categ	-4903
atter	-4904
▁dowry	-4905
▁sanctioned	-4906
▁commencement	-4907
PL	-4908
esting	-4909
ovable	-4910
▁hereinafter	-4911
abled	-4912
▁CO	-4913
▁vs	-4914
▁cultiv	-4915
▁motion	-4916
▁associated	-4917
▁PS	-4918
athe	-4919
▁piece	-4920
▁factor	-4921
▁college	-4922
asw	-4923
regular	-4924
▁hostile	-4925
▁learning	-4926
lear	-4927
▁adjudication	-4928
▁alia	-4929
▁chief	-4930
oly	-4931
leges	-4932
▁negative	-4933
▁Many	-4934
▁clos	-4935
elled	-4936
▁exercising	-4937
▁jail	-4938
▁Its	-4939
▁scene	-4940
▁white	-4941
▁obtain	-4942
▁necessarily	-4943
▁annual	-4944
▁gener	-4945
▁video	-4946
▁ideas	-4947
▁allotment	-4948
ream	-4949
anded	-4950
▁compar	-4951
▁lad	-4952
▁uncon	-4953
▁deposition	-4954
▁memory	-4955
ika	-4956
ila	-4957
rep	-4958
▁middle	-4959
icies	-4960
▁series	-4961
▁trying	-4962
▁Prime	-4963
holders	-4964
▁choice	-4965
▁Organ	-4966
portion	-4967
▁limits	-4968
▁Companies	-4969
TH	-4970
▁Nath	-4971
▁chann	-4972
▁conflict	-4973
▁deleg	-4974
▁animals	-4975
uous	-4976
▁Research	-4977
▁recognized	-4978
▁observation	-4979
▁played	-4980
owered	-4981
▁sometimes	-4982
▁Joint	-4983
▁plot	-4984
▁contro	-4985
▁delivered	-4986
omic	-4987
▁cry	-4988
▁acted	-4989
oring	-4990
▁select	-4991
▁strugg	-4992
▁surf	-4993
▁assign	-4994
▁understood	-4995
lace	-4996
▁YEAR	-4997
▁concern	-4998
▁acquitted	-4999
▁travel	-5000
▁confirm	-5001
▁allotted	-5002
▁creation	-5003
▁distinction	-5004
▁Inf	-5005
▁celeb	-5006
▁enacted	-5007
▁equip	-5008
▁Cap	-5009
▁worth	-5010
iling	-5011
▁irregular	-5012
▁departmental	-5013
cer	-5014
onial	-5015
utt	-5016
▁comprom	-5017
gor	-5018
aur	-5019
▁AD	-5020
▁performed	-5021
then	-5022
▁Sant	-5023
▁reflect	-5024
▁occurred	-5025
▁bag	-5026
▁draft	-5027
▁damage	-5028
▁acceptance	-5029
▁Kish	-5030
▁useful	-5031
▁villages	-5032
▁Yog	-5033
▁bird	-5034
▁Category	-5035
▁recommendation	-5036
▁chemical	-5037
▁Also	-5038
▁touch	-5039
▁forces	-5040
▁consequent	-5041
▁upto	-5042
▁warm	-5043
▁damages	-5044
▁arbitral	-5045
▁feet	-5046
▁prison	-5047
▁dele	-5048
▁Contract	-5049
▁absolutely	-5050
isite	-5051
▁claiming	-5052
AV	-5053
▁remark	-5054
▁poetry	-5055
▁Articles	-5056
१४	-5057
▁asset	-5058
hu	-5059
▁holder	-5060
▁suffer	-5061
▁content	-5062
▁opening	-5063
▁ax	-5064
▁reservation	-5065
▁rape	-5066
▁lines	-5067
▁auction	-5068
▁Arbitrator	-5069
▁controll	-5070
▁deciding	-5071
ifted	-5072
▁Hyder	-5073
▁Although	-5074
ications	-5075
▁Di	-5076
▁alt	-5077
▁System	-5078
▁killed	-5079
▁receiving	-5080
▁paragraphs	-5081
▁willing	-5082
▁Pan	-5083
▁knew	-5084
▁contra	-5085
▁female	-5086
atically	-5087
▁America	-5088
▁inherent	-5089
ellect	-5090
▁ultimately	-5091
▁Respondents	-5092
▁consequences	-5093
▁sleep	-5094
▁opportunities	-5095
▁challenging	-5096
▁tool	-5097
▁floor	-5098
▁convict	-5099
raj	-5100
▁needed	-5101
▁OR	-5102
bur	-5103
▁box	-5104
▁radi	-5105
▁suicide	-5106
asthan	-5107
ounced	-5108
ague	-5109
▁Home	-5110
▁answered	-5111
▁manufacturing	-5112
▁pertaining	-5113
▁functioning	-5114
▁mix	-5115
▁arch	-5116
▁Child	-5117
▁believed	-5118
▁envis	-5119
▁reserved	-5120
▁Tur	-5121
▁Raipur	-5122
▁citizen	-5123
▁remove	-5124
▁definite	-5125
osis	-5126
▁Inc	-5127
▁Vice	-5128
▁irre	-5129
▁prem	-5130
▁perhaps	-5131
▁recover	-5132
▁throughout	-5133
iles	-5134
▁Rao	-5135
▁Out	-5136
▁advice	-5137
▁division	-5138
▁machinery	-5139
▁Non	-5140
▁ancient	-5141
▁Aud	-5142
▁Pay	-5143
▁appointments	-5144
▁cul	-5145
▁exped	-5146
▁indeed	-5147
▁average	-5148
▁alter	-5149
SL	-5150
▁easy	-5151
▁repl	-5152
▁secure	-5153
▁doctrine	-5154
▁drink	-5155
▁democracy	-5156
▁intim	-5157
▁gun	-5158
ken	-5159
▁Aff	-5160
▁dark	-5161
▁Chenn	-5162
▁Notification	-5163
▁ball	-5164
▁sentenced	-5165
▁voice	-5166
▁absor	-5167
▁classes	-5168
▁Election	-5169
▁pressure	-5170
▁Certificate	-5171
▁City	-5172
▁coal	-5173
▁mainly	-5174
▁manufacture	-5175
ena	-5176
▁Him	-5177
orage	-5178
aintiff	-5179
▁construed	-5180
ror	-5181
▁range	-5182
▁equally	-5183
▁positive	-5184
hand	-5185
▁policies	-5186
▁Excise	-5187
▁YEARS	-5188
▁disclosure	-5189
bel	-5190
▁dy	-5191
▁copies	-5192
▁Consequently	-5193
kn	-5194
▁PC	-5195
orthy	-5196
mbol	-5197
▁anti	-5198
▁Superintendent	-5199
ahar	-5200
inet	-5201
▁rein	-5202
▁Val	-5203
▁neck	-5204
▁Members	-5205
▁relative	-5206
ATE	-5207
▁Che	-5208
▁Defendant	-5209
▁generation	-5210
ulating	-5211
▁teleph	-5212
ont	-5213
▁famous	-5214
▁AB	-5215
▁subjected	-5216
rises	-5217
▁Directors	-5218
▁association	-5219
irty	-5220
▁England	-5221
▁teaching	-5222
▁electricity	-5223
OC	-5224
▁farmers	-5225
▁regulations	-5226
▁exact	-5227
▁shape	-5228
▁Hyderabad	-5229
▁internal	-5230
▁Arbitration	-5231
▁sea	-5232
isted	-5233
ider	-5234
▁walk	-5235
▁model	-5236
▁herself	-5237
▁Ashok	-5238
▁stopp	-5239
▁Subh	-5240
▁surv	-5241
onn	-5242
▁CBI	-5243
▁Swami	-5244
▁languages	-5245
▁confession	-5246
uity	-5247
▁Dec	-5248
athy	-5249
▁Ret	-5250
umn	-5251
▁categories	-5252
▁Bai	-5253
sible	-5254
▁IS	-5255
ertained	-5256
OS	-5257
▁WP	-5258
▁sav	-5259
alore	-5260
▁minus	-5261
▁stipulated	-5262
iver	-5263
▁falls	-5264
▁Judgment	-5265
▁external	-5266
anes	-5267
▁Const	-5268
▁learn	-5269
▁Open	-5270
▁Mohan	-5271
▁Member	-5272
▁achieved	-5273
▁vision	-5274
▁schemes	-5275
▁sn	-5276
▁acting	-5277
struction	-5278
▁resort	-5279
cla	-5280
umari	-5281
▁media	-5282
▁explain	-5283
▁style	-5284
▁forwarded	-5285
lord	-5286
▁Thak	-5287
▁quantity	-5288
▁machine	-5289
▁inspection	-5290
lax	-5291
▁belief	-5292
▁hit	-5293
▁Apart	-5294
▁Private	-5295
hru	-5296
know	-5297
▁deserves	-5298
vt	-5299
▁fold	-5300
▁suffering	-5301
cl	-5302
ourses	-5303
▁omission	-5304
▁supplied	-5305
▁contemplated	-5306
▁causes	-5307
▁ON	-5308
anged	-5309
▁destro	-5310
▁Dar	-5311
▁Rajasthan	-5312
▁III	-5313
▁green	-5314
▁depend	-5315
▁Financial	-5316
▁immediate	-5317
▁someone	-5318
▁gover	-5319
▁Assessee	-5320
▁facility	-5321
ronic	-5322
▁north	-5323
▁professional	-5324
▁Aj	-5325
▁disclose	-5326
▁impression	-5327
▁grat	-5328
asi	-5329
order	-5330
▁transp	-5331
▁promote	-5332
▁photograph	-5333
ray	-5334
ests	-5335
▁War	-5336
asmuch	-5337
▁software	-5338
▁pet	-5339
ilateral	-5340
▁invalid	-5341
▁intellect	-5342
ishra	-5343
inarily	-5344
▁simply	-5345
▁command	-5346
▁Tri	-5347
▁instituted	-5348
era	-5349
▁Aut	-5350
light	-5351
urrency	-5352
▁revised	-5353
▁strateg	-5354
▁conspiracy	-5355
known	-5356
▁Trib	-5357
▁agriculture	-5358
▁stra	-5359
▁governed	-5360
▁relates	-5361
▁UN	-5362
icro	-5363
▁Cha	-5364
▁cat	-5365
▁kill	-5366
▁lies	-5367
▁organisation	-5368
RA	-5369
▁categorically	-5370
▁soil	-5371
▁eld	-5372
▁scrutiny	-5373
▁reiterated	-5374
▁particulars	-5375
▁quick	-5376
▁repeated	-5377
▁south	-5378
▁easily	-5379
▁files	-5380
▁centre	-5381
▁posted	-5382
▁image	-5383
▁capable	-5384
▁workman	-5385
IST	-5386
aph	-5387
▁dram	-5388
bal	-5389
inger	-5390
▁recall	-5391
▁grievance	-5392
▁impart	-5393
▁Na	-5394
▁ge	-5395
aste	-5396
▁Sum	-5397
▁theory	-5398
▁Sr	-5399
▁ones	-5400
▁abuse	-5401
▁heavy	-5402
ibly	-5403
▁organization	-5404
▁Party	-5405
▁compos	-5406
▁rupees	-5407
▁admittedly	-5408
uli	-5409
astic	-5410
▁suspension	-5411
tees	-5412
ocates	-5413
▁leaving	-5414
▁incorporated	-5415
▁independence	-5416
▁Allah	-5417
▁privile	-5418
▁Forest	-5419
▁Chennai	-5420
sych	-5421
▁documentary	-5422
enture	-5423
▁branch	-5424
▁examining	-5425
achal	-5426
▁Tah	-5427
▁Nehru	-5428
▁spite	-5429
▁conducting	-5430
sheet	-5431
▁involving	-5432
▁Ge	-5433
aviour	-5434
▁Social	-5435
▁purchas	-5436
▁beat	-5437
▁Besides	-5438
ctor	-5439
▁defe	-5440
▁Entry	-5441
▁controvers	-5442
▁expiry	-5443
▁Administrative	-5444
aks	-5445
amet	-5446
▁tour	-5447
ettlement	-5448
atel	-5449
▁Dur	-5450
▁houses	-5451
▁session	-5452
▁species	-5453
▁circular	-5454
▁rejection	-5455
▁Tel	-5456
▁compr	-5457
▁Western	-5458
▁growing	-5459
appellant	-5460
▁averments	-5461
▁prec	-5462
yan	-5463
▁People	-5464
yam	-5465
ching	-5466
▁features	-5467
rack	-5468
▁code	-5469
▁legit	-5470
▁surround	-5471
▁reb	-5472
▁male	-5473
▁compon	-5474
▁Registration	-5475
▁Nav	-5476
▁Madras	-5477
ommod	-5478
▁Well	-5479
▁safety	-5480
▁cadre	-5481
▁accompan	-5482
▁bringing	-5483
▁consciousness	-5484
▁beaut	-5485
▁everything	-5486
▁Bus	-5487
eshwar	-5488
▁certified	-5489
▁revolution	-5490
▁fees	-5491
▁Rem	-5492
▁Two	-5493
▁Governments	-5494
▁cere	-5495
▁agent	-5496
▁hear	-5497
▁sugar	-5498
▁arrangement	-5499
▁Madh	-5500
▁cart	-5501
▁Africa	-5502
opy	-5503
pet	-5504
▁inasmuch	-5505
▁determining	-5506
▁recognised	-5507
far	-5508
▁Fr	-5509
▁ship	-5510
▁claimants	-5511
▁mid	-5512
▁surre	-5513
▁exists	-5514
▁remember	-5515
▁listed	-5516
▁chain	-5517
▁elements	-5518
▁processing	-5519
▁frequ	-5520
dish	-5521
hana	-5522
▁judges	-5523
istics	-5524
▁desire	-5525
▁Teacher	-5526
▁cruelty	-5527
▁military	-5528
▁Bec	-5529
▁rare	-5530
uff	-5531
▁leaves	-5532
▁student	-5533
▁corporate	-5534
▁Sir	-5535
▁gain	-5536
▁Port	-5537
▁Fam	-5538
▁compre	-5539
▁owners	-5540
▁raising	-5541
▁compassionate	-5542
▁levels	-5543
▁Ban	-5544
▁lac	-5545
above	-5546
▁Verm	-5547
▁mouth	-5548
▁resulted	-5549
▁mechanism	-5550
▁largest	-5551
▁Ed	-5552
▁pick	-5553
▁Vijay	-5554
▁symbol	-5555
▁invited	-5556
▁contractor	-5557
▁Asia	-5558
ography	-5559
ole	-5560
▁acknow	-5561
▁retired	-5562
▁unn	-5563
▁profits	-5564
▁exception	-5565
▁forum	-5566
▁signatures	-5567
▁ban	-5568
▁vers	-5569
▁refund	-5570
▁wealth	-5571
rav	-5572
▁Ref	-5573
▁rain	-5574
lag	-5575
anges	-5576
essel	-5577
▁Prakash	-5578
▁entries	-5579
▁normally	-5580
arc	-5581
aker	-5582
▁enforcement	-5583
prise	-5584
aja	-5585
▁seat	-5586
▁Er	-5587
▁viti	-5588
▁empowered	-5589
▁developing	-5590
▁Fl	-5591
erences	-5592
▁afford	-5593
TC	-5594
▁Tem	-5595
▁chance	-5596
▁Guru	-5597
hens	-5598
▁nuc	-5599
▁residing	-5600
LA	-5601
olve	-5602
writ	-5603
▁Most	-5604
▁contend	-5605
▁contrib	-5606
▁waste	-5607
▁Mot	-5608
▁divided	-5609
▁allowing	-5610
III	-5611
▁bul	-5612
soever	-5613
▁fault	-5614
ervation	-5615
▁Prosecutor	-5616
▁traditional	-5617
▁Mahe	-5618
▁estim	-5619
▁temper	-5620
▁personnel	-5621
▁amb	-5622
▁relax	-5623
▁inquest	-5624
▁agencies	-5625
▁beautiful	-5626
▁elections	-5627
▁initially	-5628
▁kid	-5629
▁Abd	-5630
▁exclusive	-5631
▁participation	-5632
aling	-5633
▁skin	-5634
▁assert	-5635
▁entirely	-5636
▁representatives	-5637
▁table	-5638
▁Bad	-5639
▁fest	-5640
▁incons	-5641
▁ben	-5642
uddin	-5643
▁Patel	-5644
▁prepar	-5645
▁representative	-5646
urt	-5647
▁operate	-5648
▁residence	-5649
iform	-5650
▁audit	-5651
▁Pandey	-5652
▁notices	-5653
asc	-5654
sue	-5655
▁workmen	-5656
awan	-5657
▁Plaintiff	-5658
▁fide	-5659
actory	-5660
gers	-5661
▁armed	-5662
▁effic	-5663
▁lakhs	-5664
▁accompanied	-5665
▁inflic	-5666
▁storage	-5667
▁Gl	-5668
▁gas	-5669
▁animal	-5670
▁struggle	-5671
▁voluntary	-5672
▁Indians	-5673
▁misconduct	-5674
▁Bah	-5675
▁resulting	-5676
▁actions	-5677
▁landlord	-5678
▁sustainable	-5679
king	-5680
entially	-5681
▁consistent	-5682
▁moral	-5683
▁compromise	-5684
▁strengthen	-5685
▁discharged	-5686
▁cells	-5687
▁Rajesh	-5688
▁Bangalore	-5689
▁spent	-5690
▁Vis	-5691
▁gross	-5692
▁Mishra	-5693
nu	-5694
▁mutual	-5695
▁Reference	-5696
▁tort	-5697
▁currency	-5698
▁root	-5699
ducing	-5700
▁plain	-5701
▁substantive	-5702
oming	-5703
▁repeal	-5704
▁worship	-5705
▁cancelled	-5706
▁China	-5707
▁constructed	-5708
▁evening	-5709
▁pec	-5710
acharya	-5711
▁Hindus	-5712
▁illegality	-5713
▁Environment	-5714
▁cancellation	-5715
▁enhance	-5716
▁Para	-5717
▁integral	-5718
omy	-5719
▁Rama	-5720
▁Sections	-5721
▁modified	-5722
▁famil	-5723
▁calling	-5724
▁cooperation	-5725
▁represented	-5726
▁ingred	-5727
▁Ay	-5728
▁Because	-5729
▁appearance	-5730
struct	-5731
▁Through	-5732
▁reliable	-5733
▁Islamic	-5734
▁fields	-5735
▁surface	-5736
▁appreciation	-5737
RE	-5738
▁annex	-5739
▁accommod	-5740
▁Family	-5741
▁purport	-5742
▁sons	-5743
▁confident	-5744
▁wear	-5745
▁identify	-5746
▁authorised	-5747
arp	-5748
▁Like	-5749
OL	-5750
▁seeks	-5751
▁confined	-5752
▁incurred	-5753
▁alongwith	-5754
▁sort	-5755
▁afore	-5756
▁applying	-5757
▁subjects	-5758
erce	-5759
igil	-5760
rupt	-5761
▁sam	-5762
▁Palest	-5763
▁committing	-5764
omet	-5765
▁Crl	-5766
ushed	-5767
▁guard	-5768
▁enactment	-5769
▁vend	-5770
▁owned	-5771
ming	-5772
▁Madhya	-5773
▁leader	-5774
▁Again	-5775
▁creating	-5776
arh	-5777
▁magn	-5778
DS	-5779
▁cm	-5780
encing	-5781
▁irres	-5782
▁disapp	-5783
▁clauses	-5784
▁disqual	-5785
▁stone	-5786
▁vessel	-5787
▁destroy	-5788
▁thinking	-5789
▁withdrawn	-5790
▁knife	-5791
▁applies	-5792
▁Selection	-5793
▁requisite	-5794
▁foundation	-5795
DER	-5796
▁pra	-5797
▁CW	-5798
▁methods	-5799
yal	-5800
▁hour	-5801
rose	-5802
▁egg	-5803
▁Commun	-5804
▁intellig	-5805
▁speaking	-5806
▁unreason	-5807
▁inconsist	-5808
ura	-5809
pping	-5810
▁master	-5811
▁equality	-5812
▁families	-5813
▁residential	-5814
▁fourth	-5815
▁demanded	-5816
▁recognition	-5817
▁youth	-5818
▁variety	-5819
▁hereinabove	-5820
ript	-5821
EP	-5822
▁admissible	-5823
▁Others	-5824
▁practices	-5825
alg	-5826
ero	-5827
▁sand	-5828
▁sources	-5829
▁manifest	-5830
▁season	-5831
▁sealed	-5832
▁negoti	-5833
▁Legislative	-5834
▁critic	-5835
▁ignored	-5836
▁mistake	-5837
urate	-5838
▁barred	-5839
▁objects	-5840
▁upheld	-5841
▁depends	-5842
aman	-5843
▁subordinate	-5844
▁satisfy	-5845
▁compared	-5846
▁earn	-5847
▁Crime	-5848
▁studies	-5849
iva	-5850
▁Champ	-5851
overty	-5852
▁withdraw	-5853
▁obligations	-5854
▁Dem	-5855
▁Econom	-5856
▁figure	-5857
▁feeling	-5858
unior	-5859
▁Imp	-5860
▁equity	-5861
▁errone	-5862
▁Gazet	-5863
▁medium	-5864
▁separately	-5865
▁input	-5866
lined	-5867
rical	-5868
sofar	-5869
▁Gram	-5870
▁framing	-5871
▁location	-5872
ships	-5873
▁payments	-5874
▁nut	-5875
▁capt	-5876
▁weapons	-5877
▁eligibility	-5878
ola	-5879
rees	-5880
▁Sad	-5881
▁Germ	-5882
▁km	-5883
▁unique	-5884
▁adduced	-5885
▁AC	-5886
osen	-5887
isp	-5888
▁dim	-5889
▁Prem	-5890
▁Water	-5891
▁fails	-5892
▁exemption	-5893
eav	-5894
▁Tag	-5895
▁cloth	-5896
UL	-5897
pons	-5898
▁AM	-5899
ioned	-5900
▁Branch	-5901
▁Transport	-5902
▁pip	-5903
▁watch	-5904
ils	-5905
roc	-5906
▁focus	-5907
▁retros	-5908
▁Cust	-5909
CI	-5910
▁paras	-5911
▁superior	-5912
pected	-5913
▁levy	-5914
▁lock	-5915
▁rival	-5916
ev	-5917
▁roll	-5918
▁seem	-5919
▁Standing	-5920
▁slow	-5921
▁Human	-5922
▁endeav	-5923
▁supplement	-5924
eting	-5925
▁wood	-5926
▁iv	-5927
▁Gandhiji	-5928
▁terrorism	-5929
elfare	-5930
▁arose	-5931
▁Narayan	-5932
atta	-5933
▁opt	-5934
▁divine	-5935
▁overall	-5936
▁Pvt	-5937
going	-5938
▁relatives	-5939
▁Date	-5940
▁stick	-5941
▁immovable	-5942
▁thirty	-5943
▁Welfare	-5944
▁interview	-5945
▁Ven	-5946
▁bone	-5947
▁deeds	-5948
▁pursuance	-5949
▁Conference	-5950
laws	-5951
rench	-5952
▁temples	-5953
▁id	-5954
vert	-5955
▁nearly	-5956
▁partner	-5957
▁operating	-5958
▁Administration	-5959
▁classification	-5960
▁MS	-5961
▁Rural	-5962
▁litig	-5963
▁furnish	-5964
▁railway	-5965
▁allegedly	-5966
▁whatsoever	-5967
aped	-5968
▁Park	-5969
▁ends	-5970
▁lived	-5971
▁Ve	-5972
ails	-5973
▁Security	-5974
▁Bel	-5975
▁struct	-5976
▁Industries	-5977
▁dt	-5978
▁Excell	-5979
▁cheques	-5980
▁carefully	-5981
dar	-5982
▁bott	-5983
▁qualified	-5984
▁iron	-5985
▁Foreign	-5986
▁Settlement	-5987
▁Nor	-5988
▁bab	-5989
▁authorized	-5990
▁stayed	-5991
▁organiz	-5992
▁availability	-5993
▁Div	-5994
▁grad	-5995
▁excell	-5996
▁propri	-5997
hent	-5998
▁happen	-5999
ih	-6000
ls	-6001
ube	-6002
▁paying	-6003
▁ideal	-6004
▁sales	-6005
▁affili	-6006
▁wishes	-6007
१५	-6008
ames	-6009
itis	-6010
▁Year	-6011
▁calls	-6012
▁Rav	-6013
▁Vol	-6014
▁prices	-6015
hon	-6016
lands	-6017
▁target	-6018
▁strictly	-6019
▁inference	-6020
▁impossible	-6021
EM	-6022
ocal	-6023
▁Suit	-6024
▁Trade	-6025
▁reality	-6026
▁complaints	-6027
▁controversy	-6028
▁flat	-6029
▁opposed	-6030
▁stories	-6031
▁vehicles	-6032
▁nine	-6033
▁Univers	-6034
▁PD	-6035
▁Ja	-6036
▁extracted	-6037
▁ownership	-6038
mn	-6039
icating	-6040
▁philosophy	-6041
▁honour	-6042
▁gar	-6043
▁consumption	-6044
umer	-6045
▁deliver	-6046
▁agreements	-6047
▁mortgage	-6048
▁regarded	-6049
▁vacant	-6050
▁genuine	-6051
▁Protection	-6052
▁stopped	-6053
ader	-6054
▁Inst	-6055
▁Abdul	-6056
▁shock	-6057
▁upper	-6058
▁universal	-6059
▁drive	-6060
▁implemented	-6061
amma	-6062
hend	-6063
▁Allahabad	-6064
FA	-6065
▁bow	-6066
doc	-6067
▁trees	-6068
▁appreciate	-6069
▁continuous	-6070
▁PRO	-6071
▁Full	-6072
▁antic	-6073
AME	-6074
▁aged	-6075
▁Resolution	-6076
▁Ragh	-6077
▁anyone	-6078
▁emotion	-6079
▁allowance	-6080
laced	-6081
▁holds	-6082
▁Us	-6083
▁attracted	-6084
▁Petitioners	-6085
▁acid	-6086
▁enqu	-6087
▁yield	-6088
ibilities	-6089
GAL	-6090
▁abroad	-6091
▁ordinarily	-6092
hel	-6093
load	-6094
redit	-6095
▁pleasure	-6096
▁chosen	-6097
▁sacrif	-6098
▁friendly	-6099
ica	-6100
itect	-6101
oph	-6102
▁psych	-6103
▁Constable	-6104
look	-6105
▁ang	-6106
▁Food	-6107
▁probably	-6108
▁necessity	-6109
▁disability	-6110
▁Sol	-6111
▁Tod	-6112
ighted	-6113
▁Maj	-6114
▁Babu	-6115
▁height	-6116
▁Claim	-6117
▁explo	-6118
▁Nep	-6119
▁vast	-6120
alli	-6121
like	-6122
▁Enter	-6123
▁planning	-6124
egu	-6125
ports	-6126
▁opined	-6127
▁compound	-6128
▁compuls	-6129
▁mandate	-6130
▁unity	-6131
▁brain	-6132
▁Pension	-6133
▁Regional	-6134
aryana	-6135
▁veget	-6136
▁Pet	-6137
▁Why	-6138
aband	-6139
prene	-6140
▁park	-6141
▁Langu	-6142
▁advised	-6143
▁falling	-6144
oral	-6145
▁arre	-6146
▁emerg	-6147
anging	-6148
anand	-6149
ecess	-6150
habil	-6151
sc	-6152
▁grave	-6153
▁narrated	-6154
▁imple	-6155
▁dues	-6156
▁Exh	-6157
▁Programme	-6158
▁SP	-6159
mosp	-6160
▁Verma	-6161
▁poems	-6162
▁track	-6163
▁considerable	-6164
word	-6165
nagar	-6166
reprene	-6167
▁elabor	-6168
▁revealed	-6169
▁efficient	-6170
▁equipment	-6171
eries	-6172
▁anticip	-6173
arden	-6174
▁consists	-6175
▁qualifications	-6176
▁IV	-6177
▁Art	-6178
abinet	-6179
▁caught	-6180
▁moving	-6181
iled	-6182
▁ORDER	-6183
▁indul	-6184
▁happens	-6185
▁colleges	-6186
▁proportion	-6187
ishment	-6188
▁Haryana	-6189
▁poverty	-6190
▁quarrel	-6191
▁interven	-6192
▁installed	-6193
ME	-6194
▁SE	-6195
▁buy	-6196
hensive	-6197
▁selling	-6198
▁dil	-6199
velled	-6200
▁crop	-6201
isting	-6202
orrect	-6203
▁latest	-6204
▁courses	-6205
▁brothers	-6206
▁rational	-6207
iate	-6208
▁urban	-6209
▁postmortem	-6210
IF	-6211
▁thereon	-6212
▁Ham	-6213
chief	-6214
▁seal	-6215
▁liquor	-6216
▁prosper	-6217
prises	-6218
▁European	-6219
▁participate	-6220
▁Va	-6221
▁cas	-6222
▁pi	-6223
anta	-6224
▁script	-6225
▁demands	-6226
▁Bhar	-6227
▁legally	-6228
▁upd	-6229
udget	-6230
▁narrow	-6231
▁Hig	-6232
▁Mahat	-6233
▁involvement	-6234
▁DR	-6235
▁outstanding	-6236
▁fill	-6237
▁victims	-6238
▁Those	-6239
▁corporation	-6240
acco	-6241
arian	-6242
▁falsely	-6243
▁picture	-6244
▁territory	-6245
▁DNA	-6246
▁Det	-6247
▁Sunil	-6248
▁driving	-6249
▁relying	-6250
▁consumer	-6251
▁consultation	-6252
▁recon	-6253
▁cities	-6254
▁hardly	-6255
▁equival	-6256
▁Secondary	-6257
▁Each	-6258
▁Town	-6259
▁Thakur	-6260
▁qua	-6261
▁fert	-6262
▁partners	-6263
▁Gan	-6264
▁Prom	-6265
charge	-6266
▁launched	-6267
▁clarified	-6268
key	-6269
inqu	-6270
▁valuable	-6271
▁entrusted	-6272
gery	-6273
▁severe	-6274
ildar	-6275
▁reduce	-6276
▁pronounce	-6277
▁preparation	-6278
▁Jay	-6279
author	-6280
▁uniform	-6281
bh	-6282
▁Lax	-6283
▁cum	-6284
▁atmosp	-6285
▁column	-6286
▁nomination	-6287
hara	-6288
otic	-6289
▁Lib	-6290
▁liberal	-6291
▁Lit	-6292
▁wel	-6293
oratory	-6294
▁Tagore	-6295
▁valuation	-6296
▁cru	-6297
ayana	-6298
▁origin	-6299
▁infring	-6300
▁Mandal	-6301
▁choose	-6302
▁tenure	-6303
▁continues	-6304
▁dry	-6305
etary	-6306
▁dign	-6307
▁wants	-6308
▁online	-6309
OUT	-6310
amy	-6311
oom	-6312
isher	-6313
ricted	-6314
▁Akbar	-6315
▁heirs	-6316
▁ability	-6317
▁unknown	-6318
▁cook	-6319
▁Gur	-6320
▁democratic	-6321
▁Dal	-6322
▁suits	-6323
▁remote	-6324
▁safegu	-6325
▁reflected	-6326
▁amendments	-6327
▁adjust	-6328
▁nations	-6329
▁Recovery	-6330
▁Ter	-6331
▁rapid	-6332
▁union	-6333
▁commod	-6334
▁promoted	-6335
▁behaviour	-6336
▁grass	-6337
▁asking	-6338
▁judgement	-6339
UM	-6340
▁perfect	-6341
▁vacancy	-6342
▁critical	-6343
antial	-6344
auty	-6345
▁dict	-6346
ricket	-6347
ulatory	-6348
▁reproduced	-6349
ilal	-6350
▁cold	-6351
arkhand	-6352
▁powerful	-6353
pal	-6354
bted	-6355
▁constitu	-6356
▁contractual	-6357
DC	-6358
▁Vin	-6359
▁cog	-6360
▁Anr	-6361
▁Survey	-6362
▁negligence	-6363
▁Aust	-6364
▁acceptable	-6365
▁Nand	-6366
▁attitude	-6367
▁crops	-6368
▁banking	-6369
▁invoked	-6370
▁changing	-6371
▁impose	-6372
▁suspicion	-6373
▁villagers	-6374
▁lif	-6375
ishad	-6376
▁Press	-6377
▁wat	-6378
▁ambit	-6379
▁finger	-6380
▁showed	-6381
my	-6382
▁Exp	-6383
ented	-6384
▁obvious	-6385
▁quashing	-6386
▁Hem	-6387
▁mah	-6388
▁dates	-6389
▁denial	-6390
▁terminated	-6391
▁deliber	-6392
just	-6393
▁Fri	-6394
▁Kolk	-6395
▁pret	-6396
▁purchaser	-6397
inance	-6398
lusively	-6399
▁seeing	-6400
▁hor	-6401
▁Hari	-6402
▁Supra	-6403
▁multiple	-6404
▁regional	-6405
▁Ba	-6406
▁bra	-6407
aduate	-6408
▁Rights	-6409
ips	-6410
upon	-6411
▁corresponding	-6412
erous	-6413
▁tonn	-6414
ourage	-6415
▁incorrect	-6416
▁bills	-6417
▁essentially	-6418
▁extremely	-6419
mark	-6420
▁Mat	-6421
▁Being	-6422
hs	-6423
▁pil	-6424
▁Sush	-6425
▁lady	-6426
▁uses	-6427
ropri	-6428
▁blow	-6429
▁gains	-6430
▁estate	-6431
▁Engineering	-6432
▁Russ	-6433
▁greet	-6434
▁Managing	-6435
▁Jap	-6436
▁RO	-6437
▁Oper	-6438
▁norms	-6439
fe	-6440
▁encro	-6441
▁passage	-6442
▁difficulty	-6443
ima	-6444
cast	-6445
oken	-6446
luding	-6447
▁ascertain	-6448
▁Mang	-6449
▁Today	-6450
▁divor	-6451
hanced	-6452
▁Ganga	-6453
▁Reddy	-6454
▁ingredients	-6455
iqu	-6456
▁army	-6457
▁train	-6458
▁rect	-6459
▁graph	-6460
▁intent	-6461
▁Jy	-6462
▁trou	-6463
▁Enquiry	-6464
ogle	-6465
▁eat	-6466
urities	-6467
▁excluded	-6468
▁formation	-6469
▁harassment	-6470
▁intellectual	-6471
unct	-6472
▁kil	-6473
▁respond	-6474
▁Higher	-6475
▁thereunder	-6476
pat	-6477
▁Doctor	-6478
▁partly	-6479
▁hom	-6480
icing	-6481
▁execute	-6482
ieving	-6483
▁panel	-6484
▁straight	-6485
▁verification	-6486
▁experi	-6487
▁monthly	-6488
▁assessed	-6489
▁missing	-6490
▁telephone	-6491
▁notwithstanding	-6492
SH	-6493
oration	-6494
ologies	-6495
▁memorandum	-6496
▁Din	-6497
▁comment	-6498
▁journey	-6499
▁putting	-6500
▁literary	-6501
icity	-6502
▁Jharkhand	-6503
hat	-6504
▁bidd	-6505
▁founded	-6506
▁contracts	-6507
▁discussions	-6508
da	-6509
rat	-6510
▁Av	-6511
▁attrib	-6512
▁percentage	-6513
▁Iran	-6514
▁goal	-6515
▁Anand	-6516
▁habit	-6517
unch	-6518
▁Nan	-6519
▁Legal	-6520
▁adopt	-6521
▁cerem	-6522
▁convin	-6523
▁Ty	-6524
▁map	-6525
ondon	-6526
▁considerations	-6527
anya	-6528
rigation	-6529
▁convers	-6530
▁songs	-6531
▁Master	-6532
ificates	-6533
▁Pad	-6534
▁fab	-6535
state	-6536
▁Stud	-6537
▁recently	-6538
▁challenges	-6539
▁Conf	-6540
▁lapse	-6541
▁besides	-6542
▁Exchange	-6543
▁legitimate	-6544
▁significance	-6545
ae	-6546
▁CON	-6547
▁moon	-6548
▁Planning	-6549
▁rock	-6550
▁uncle	-6551
▁illust	-6552
▁measuring	-6553
▁situations	-6554
GC	-6555
▁reveals	-6556
▁complied	-6557
alog	-6558
▁Var	-6559
▁sequ	-6560
▁channel	-6561
▁newspaper	-6562
itions	-6563
▁rigor	-6564
▁Notice	-6565
▁reliefs	-6566
▁sectors	-6567
▁designed	-6568
▁authent	-6569
▁Business	-6570
▁minority	-6571
LE	-6572
▁MO	-6573
aign	-6574
▁gift	-6575
▁decades	-6576
▁Admitted	-6577
▁Who	-6578
▁flu	-6579
mentioned	-6580
▁neighbour	-6581
TE	-6582
▁game	-6583
▁girls	-6584
▁indirect	-6585
▁ec	-6586
▁Consid	-6587
▁traffic	-6588
▁diseases	-6589
▁buildings	-6590
▁interesting	-6591
▁ran	-6592
▁Kolkata	-6593
▁enhanced	-6594
▁BY	-6595
ement	-6596
▁emphasis	-6597
▁governance	-6598
▁territorial	-6599
essed	-6600
▁alive	-6601
▁fruit	-6602
▁Professor	-6603
iah	-6604
▁CD	-6605
▁dial	-6606
▁murd	-6607
▁format	-6608
▁Schools	-6609
▁drawing	-6610
▁pleased	-6611
AND	-6612
het	-6613
▁hero	-6614
▁persu	-6615
iveness	-6616
SS	-6617
▁adult	-6618
▁volume	-6619
▁feature	-6620
▁anc	-6621
▁thr	-6622
ruits	-6623
▁Women	-6624
▁enem	-6625
▁Bengali	-6626
▁accepting	-6627
▁urg	-6628
▁Sure	-6629
essment	-6630
▁innocent	-6631
ector	-6632
▁drugs	-6633
wah	-6634
▁prime	-6635
▁Indep	-6636
▁pregn	-6637
▁approx	-6638
anas	-6639
lick	-6640
▁raw	-6641
ester	-6642
iplom	-6643
▁infl	-6644
▁figures	-6645
RL	-6646
▁rob	-6647
▁comply	-6648
▁summons	-6649
▁Interest	-6650
▁throw	-6651
eev	-6652
▁domain	-6653
itch	-6654
ifies	-6655
▁simpl	-6656
▁Final	-6657
▁Rajya	-6658
▁belongs	-6659
ARD	-6660
▁Fed	-6661
▁primarily	-6662
inite	-6663
▁insects	-6664
▁IC	-6665
▁lik	-6666
▁AO	-6667
▁BC	-6668
▁Men	-6669
algam	-6670
▁beauty	-6671
▁dishon	-6672
▁Affairs	-6673
▁proceeds	-6674
mer	-6675
owed	-6676
▁Raja	-6677
▁cave	-6678
itated	-6679
▁Brahm	-6680
▁consequential	-6681
▁kinds	-6682
ordinary	-6683
▁mission	-6684
esty	-6685
itan	-6686
▁Unit	-6687
▁escape	-6688
▁assembly	-6689
▁inserted	-6690
▁envisaged	-6691
▁eth	-6692
▁Build	-6693
▁London	-6694
▁deduct	-6695
ancellor	-6696
▁Mahatma	-6697
iri	-6698
▁About	-6699
▁pertinent	-6700
▁Show	-6701
▁factory	-6702
▁Kab	-6703
alpur	-6704
▁null	-6705
▁runs	-6706
▁centres	-6707
TA	-6708
▁shared	-6709
▁commenced	-6710
▁entering	-6711
orts	-6712
holding	-6713
▁Mission	-6714
▁restricted	-6715
▁Set	-6716
▁CrPC	-6717
▁monitor	-6718
▁Admittedly	-6719
▁objectives	-6720
akar	-6721
▁See	-6722
▁sight	-6723
▁procedural	-6724
aug	-6725
ghan	-6726
khand	-6727
▁Reserve	-6728
▁improvement	-6729
anches	-6730
▁knowing	-6731
▁expressly	-6732
▁continuing	-6733
▁automatically	-6734
hari	-6735
▁Time	-6736
▁pages	-6737
igilance	-6738
▁Excellency	-6739
oe	-6740
▁Mur	-6741
▁Lect	-6742
▁pill	-6743
▁entity	-6744
▁Az	-6745
▁bench	-6746
▁conform	-6747
▁photographs	-6748
▁unreasonable	-6749
IP	-6750
▁minds	-6751
cher	-6752
▁Math	-6753
▁Buddh	-6754
▁store	-6755
▁Vishnu	-6756
▁Gazette	-6757
▁offices	-6758
▁adoption	-6759
▁customers	-6760
rity	-6761
▁culp	-6762
▁unfair	-6763
▁processes	-6764
habilitation	-6765
▁Rat	-6766
▁ment	-6767
▁Grade	-6768
▁Later	-6769
▁quota	-6770
▁consequently	-6771
mar	-6772
eces	-6773
▁Jew	-6774
▁mun	-6775
▁Himal	-6776
▁loans	-6777
▁sharp	-6778
athered	-6779
▁Palestin	-6780
▁MP	-6781
▁Over	-6782
▁inner	-6783
▁Google	-6784
bon	-6785
▁equivalent	-6786
liance	-6787
▁ignor	-6788
uries	-6789
lar	-6790
▁XX	-6791
▁Sen	-6792
▁Hist	-6793
▁ABOUT	-6794
▁fairly	-6795
▁serving	-6796
▁Authorities	-6797
anti	-6798
▁alien	-6799
▁parliament	-6800
▁Ti	-6801
ster	-6802
▁Bose	-6803
▁roof	-6804
▁defic	-6805
▁affirm	-6806
▁whenever	-6807
▁discrimination	-6808
▁Mere	-6809
▁exha	-6810
▁priority	-6811
▁regulation	-6812
▁Kumari	-6813
▁effects	-6814
▁nuclear	-6815
▁irrespective	-6816
▁concent	-6817
isations	-6818
▁endorse	-6819
▁meetings	-6820
▁obviously	-6821
▁Sin	-6822
board	-6823
▁Error	-6824
▁chest	-6825
▁color	-6826
▁perverse	-6827
▁Training	-6828
▁erroneous	-6829
▁facilitate	-6830
▁withdrawal	-6831
xy	-6832
fer	-6833
▁cogent	-6834
▁modification	-6835
▁MD	-6836
▁Tahs	-6837
▁sick	-6838
ulates	-6839
▁Force	-6840
▁subsid	-6841
▁Bin	-6842
▁web	-6843
▁Dhar	-6844
▁arms	-6845
cribes	-6846
▁grade	-6847
▁grown	-6848
▁atmosphere	-6849
▁joy	-6850
eeping	-6851
▁starting	-6852
▁Agriculture	-6853
cipl	-6854
▁borne	-6855
▁hair	-6856
▁fabric	-6857
▁visible	-6858
▁resist	-6859
▁innovation	-6860
▁tal	-6861
▁Acqu	-6862
▁fired	-6863
▁stages	-6864
▁winding	-6865
▁customer	-6866
▁threatened	-6867
room	-6868
▁Late	-6869
▁commitment	-6870
adur	-6871
▁diary	-6872
▁output	-6873
▁occupation	-6874
▁Dhan	-6875
▁paramet	-6876
▁ourselves	-6877
▁environmental	-6878
asan	-6879
▁Jaw	-6880
▁tob	-6881
▁spl	-6882
▁plat	-6883
▁Which	-6884
▁reputation	-6885
AJ	-6886
ops	-6887
▁phase	-6888
grat	-6889
▁judiciary	-6890
▁leadership	-6891
▁bh	-6892
▁Sav	-6893
▁entertained	-6894
▁circumstantial	-6895
▁Among	-6896
▁prepare	-6897
▁hyp	-6898
▁Ranj	-6899
▁Technical	-6900
▁consisting	-6901
▁distinguished	-6902
▁Great	-6903
▁Sanjay	-6904
▁appreciated	-6905
udi	-6906
▁deten	-6907
▁Proper	-6908
▁infirm	-6909
▁observe	-6910
▁medicine	-6911
▁questioned	-6912
apped	-6913
▁gathered	-6914
▁corroborated	-6915
uj	-6916
▁becoming	-6917
▁institute	-6918
▁evaluation	-6919
▁leads	-6920
olition	-6921
▁helped	-6922
▁alc	-6923
▁universities	-6924
▁NS	-6925
▁wise	-6926
▁Rajendra	-6927
▁effected	-6928
▁effectively	-6929
idal	-6930
▁thor	-6931
▁elder	-6932
▁struck	-6933
▁tobacco	-6934
▁president	-6935
▁scheduled	-6936
▁supporting	-6937
erk	-6938
▁Copy	-6939
▁Distt	-6940
▁assail	-6941
▁amalgam	-6942
ortunately	-6943
▁Directorate	-6944
▁kidn	-6945
▁tank	-6946
▁Ira	-6947
▁Book	-6948
▁Gopal	-6949
▁Commit	-6950
▁arrive	-6951
▁derived	-6952
▁departments	-6953
▁establishing	-6954
▁FOR	-6955
▁match	-6956
▁replied	-6957
oda	-6958
▁Luck	-6959
▁scen	-6960
▁server	-6961
itations	-6962
▁concerning	-6963
▁comprehensive	-6964
▁expos	-6965
▁depending	-6966
more	-6967
▁surrender	-6968
oz	-6969
▁SCR	-6970
▁ahead	-6971
▁identical	-6972
▁avo	-6973
▁east	-6974
▁breed	-6975
▁converted	-6976
Ms	-6977
idden	-6978
▁encl	-6979
▁stream	-6980
clause	-6981
▁ruled	-6982
aneously	-6983
▁similarly	-6984
▁steel	-6985
iments	-6986
▁entreprene	-6987
▁historical	-6988
▁Laws	-6989
riginal	-6990
▁Speaker	-6991
▁dependent	-6992
▁marketing	-6993
uit	-6994
▁Tir	-6995
ictionary	-6996
▁servants	-6997
▁Lo	-6998
▁Sl	-6999
levant	-7000
▁communities	-7001
▁CC	-7002
▁BAN	-7003
ammad	-7004
▁Sind	-7005
▁Laksh	-7006
▁Review	-7007
▁Himachal	-7008
▁Revision	-7009
▁unauthor	-7010
ham	-7011
otton	-7012
▁rice	-7013
▁plays	-7014
▁couple	-7015
▁knows	-7016
▁Agra	-7017
▁Small	-7018
eding	-7019
▁empt	-7020
▁wild	-7021
▁Count	-7022
▁River	-7023
ribunals	-7024
▁healthy	-7025
▁practical	-7026
▁justification	-7027
nan	-7028
mity	-7029
▁deposits	-7030
▁dro	-7031
hension	-7032
▁discrep	-7033
▁playing	-7034
ba	-7035
▁Rai	-7036
▁leaf	-7037
▁Network	-7038
▁procedures	-7039
▁participated	-7040
▁sq	-7041
▁Arun	-7042
▁careful	-7043
▁protected	-7044
▁engineering	-7045
asions	-7046
astern	-7047
▁fatal	-7048
▁Middle	-7049
RO	-7050
▁band	-7051
▁inclined	-7052
▁involves	-7053
▁controlled	-7054
▁experts	-7055
odes	-7056
▁Life	-7057
▁Prat	-7058
▁Reliance	-7059
▁acknowled	-7060
▁initiatives	-7061
▁successfully	-7062
ua	-7063
odh	-7064
▁Iraq	-7065
▁covering	-7066
▁discipline	-7067
oes	-7068
▁Ir	-7069
nsic	-7070
▁acres	-7071
▁repay	-7072
▁double	-7073
▁quantum	-7074
▁Beg	-7075
▁Sard	-7076
▁west	-7077
course	-7078
▁strike	-7079
▁university	-7080
▁career	-7081
▁Christian	-7082
gen	-7083
omin	-7084
▁Jam	-7085
▁operative	-7086
▁Language	-7087
▁Prevention	-7088
▁evalu	-7089
▁confer	-7090
▁exceeding	-7091
▁requisition	-7092
▁Test	-7093
▁Territ	-7094
▁mining	-7095
▁campaign	-7096
▁Tele	-7097
▁brib	-7098
▁poem	-7099
udence	-7100
MA	-7101
▁wage	-7102
▁arrears	-7103
▁Use	-7104
▁architect	-7105
▁pollution	-7106
▁characters	-7107
ulty	-7108
▁poison	-7109
▁household	-7110
elve	-7111
▁Don	-7112
▁returns	-7113
▁Yoga	-7114
▁perpet	-7115
▁awareness	-7116
▁intervention	-7117
▁applicability	-7118
pura	-7119
vent	-7120
▁crow	-7121
▁accru	-7122
▁Capital	-7123
▁caution	-7124
▁attained	-7125
▁Considering	-7126
▁convenience	-7127
▁Credit	-7128
▁Ministers	-7129
▁Sikh	-7130
▁slight	-7131
▁districts	-7132
▁regularly	-7133
▁Institutions	-7134
join	-7135
ifteen	-7136
▁Appeals	-7137
▁smaller	-7138
▁encourage	-7139
▁forthwith	-7140
▁substituted	-7141
▁Universities	-7142
▁Cro	-7143
▁Rah	-7144
▁Last	-7145
▁roads	-7146
▁assumed	-7147
ORE	-7148
▁tea	-7149
▁blue	-7150
stitutes	-7151
▁doubtful	-7152
▁differences	-7153
▁maintaining	-7154
▁१६	-7155
▁holders	-7156
▁permits	-7157
▁politics	-7158
▁ultimate	-7159
▁communicated	-7160
▁Tar	-7161
▁sad	-7162
▁Gang	-7163
▁hes	-7164
erior	-7165
▁heat	-7166
▁birds	-7167
▁Ramesh	-7168
▁Session	-7169
▁director	-7170
▁unlaw	-7171
▁supposed	-7172
oli	-7173
▁lect	-7174
▁lose	-7175
▁promise	-7176
set	-7177
▁rid	-7178
venth	-7179
▁stret	-7180
▁prefer	-7181
▁sending	-7182
▁preceding	-7183
▁CS	-7184
▁tick	-7185
▁tests	-7186
▁Societies	-7187
▁inflicted	-7188
▁efficiency	-7189
▁interpreted	-7190
izes	-7191
lets	-7192
▁Mit	-7193
▁Yet	-7194
▁earliest	-7195
▁producing	-7196
▁correctness	-7197
ux	-7198
cean	-7199
▁bona	-7200
abling	-7201
▁dream	-7202
▁tonnes	-7203
▁discard	-7204
▁prospect	-7205
▁broken	-7206
▁finance	-7207
▁eviction	-7208
▁retrospective	-7209
▁core	-7210
▁estimated	-7211
▁die	-7212
▁star	-7213
▁Hot	-7214
▁email	-7215
▁singh	-7216
▁sovere	-7217
▁mineral	-7218
▁organized	-7219
▁certificates	-7220
▁Back	-7221
▁reasoning	-7222
▁imposition	-7223
▁Shankaracharya	-7224
ERS	-7225
cum	-7226
rary	-7227
▁Rak	-7228
erved	-7229
▁Venk	-7230
▁elim	-7231
▁Mahab	-7232
anth	-7233
isen	-7234
▁fish	-7235
▁cance	-7236
▁congrat	-7237
▁declare	-7238
▁rejecting	-7239
▁compulsory	-7240
nath	-7241
▁rad	-7242
▁shot	-7243
▁samples	-7244
▁Paragraph	-7245
unci	-7246
burse	-7247
▁Swar	-7248
minent	-7249
▁stake	-7250
▁Ahmedabad	-7251
▁governing	-7252
▁symp	-7253
idance	-7254
▁desir	-7255
▁secondary	-7256
▁transform	-7257
▁club	-7258
▁wrongly	-7259
▁conversion	-7260
▁marry	-7261
ertaining	-7262
▁ensuring	-7263
▁Committees	-7264
▁Path	-7265
▁Acquisition	-7266
▁Self	-7267
▁users	-7268
▁Internet	-7269
za	-7270
▁averred	-7271
▁scholar	-7272
▁greetings	-7273
▁attachment	-7274
▁organizations	-7275
▁aw	-7276
▁Lucknow	-7277
▁COM	-7278
▁Sik	-7279
ureau	-7280
▁Vidy	-7281
▁Taluk	-7282
▁convention	-7283
▁waiting	-7284
▁attorney	-7285
▁invoking	-7286
▁regularization	-7287
▁Due	-7288
▁dia	-7289
bered	-7290
othing	-7291
▁attended	-7292
▁suggestions	-7293
pass	-7294
▁SRI	-7295
▁wis	-7296
▁offers	-7297
▁writer	-7298
▁rigorous	-7299
▁perspective	-7300
ocol	-7301
▁council	-7302
osing	-7303
▁Compl	-7304
▁Original	-7305
▁designated	-7306
▁mov	-7307
▁Deep	-7308
▁orna	-7309
▁rely	-7310
unk	-7311
▁legs	-7312
▁lodging	-7313
▁representing	-7314
uri	-7315
▁Gar	-7316
▁evid	-7317
▁overr	-7318
▁Common	-7319
▁perused	-7320
▁platform	-7321
ss	-7322
▁privilege	-7323
▁extraordinary	-7324
ners	-7325
▁fed	-7326
▁incrim	-7327
▁Cabinet	-7328
▁branches	-7329
▁organism	-7330
▁framework	-7331
▁FSL	-7332
▁crucial	-7333
▁formula	-7334
▁EX	-7335
ghal	-7336
▁bye	-7337
inous	-7338
▁multi	-7339
▁regions	-7340
▁devotion	-7341
▁IP	-7342
▁Meh	-7343
▁evil	-7344
▁proving	-7345
▁prosperity	-7346
▁ID	-7347
atively	-7348
▁constr	-7349
▁remand	-7350
▁Austral	-7351
cellaneous	-7352
LI	-7353
organ	-7354
▁Pandit	-7355
▁Attorney	-7356
▁festival	-7357
iers	-7358
▁pull	-7359
▁Nepal	-7360
▁annexed	-7361
▁vitiated	-7362
▁Subsequently	-7363
imb	-7364
▁managed	-7365
Os	-7366
vity	-7367
▁trading	-7368
▁instruments	-7369
ohol	-7370
▁undue	-7371
▁pleading	-7372
▁announced	-7373
▁specially	-7374
alle	-7375
ether	-7376
uv	-7377
▁Ten	-7378
▁Good	-7379
▁blind	-7380
▁Economic	-7381
▁infirmity	-7382
▁competition	-7383
▁introduction	-7384
pa	-7385
itt	-7386
off	-7387
uliar	-7388
cribing	-7389
▁prompt	-7390
▁performing	-7391
CE	-7392
ooth	-7393
▁Exs	-7394
▁burnt	-7395
▁CP	-7396
▁Vik	-7397
▁pad	-7398
urved	-7399
▁bidder	-7400
▁insurer	-7401
▁western	-7402
▁constant	-7403
▁occasions	-7404
▁Banks	-7405
▁fixing	-7406
▁disturb	-7407
▁motorcy	-7408
▁peculiar	-7409
ESS	-7410
▁MC	-7411
▁apex	-7412
▁aband	-7413
▁fifteen	-7414
▁consolid	-7415
▁Convention	-7416
▁relaxation	-7417
▁personality	-7418
▁discuss	-7419
▁Nir	-7420
▁heads	-7421
▁Dw	-7422
▁trend	-7423
resents	-7424
▁incent	-7425
▁seriously	-7426
▁translation	-7427
▁Pass	-7428
▁Prim	-7429
▁Could	-7430
▁matrim	-7431
▁fifty	-7432
▁dealer	-7433
▁wonder	-7434
▁greatest	-7435
▁undertake	-7436
▁calculated	-7437
▁settle	-7438
▁nominated	-7439
▁restrictions	-7440
▁Pers	-7441
▁Rad	-7442
▁mail	-7443
▁Nature	-7444
▁collabor	-7445
▁cow	-7446
▁Acts	-7447
▁didn	-7448
▁indig	-7449
▁multipl	-7450
▁belonged	-7451
▁vic	-7452
▁brings	-7453
▁twelve	-7454
▁electronic	-7455
▁accom	-7456
▁cloud	-7457
▁looks	-7458
▁represents	-7459
▁instruction	-7460
EE	-7461
iant	-7462
▁Han	-7463
▁pieces	-7464
▁expired	-7465
SA	-7466
pro	-7467
▁DIST	-7468
▁originally	-7469
▁contradictions	-7470
▁AN	-7471
▁NC	-7472
rase	-7473
▁street	-7474
▁stained	-7475
▁initiate	-7476
▁prevailing	-7477
ICE	-7478
▁Joh	-7479
▁Rev	-7480
▁arisen	-7481
▁shifted	-7482
▁Gul	-7483
ampur	-7484
issue	-7485
▁mortem	-7486
holder	-7487
▁Prakhand	-7488
▁probation	-7489
▁Ach	-7490
▁Amb	-7491
▁PWs	-7492
▁Look	-7493
▁brid	-7494
▁upgr	-7495
▁Prabh	-7496
▁Mother	-7497
▁courage	-7498
▁imposing	-7499
▁intercourse	-7500
▁Agg	-7501
▁org	-7502
▁hall	-7503
icable	-7504
▁Motor	-7505
▁mostly	-7506
OP	-7507
lter	-7508
riya	-7509
▁Cal	-7510
umber	-7511
▁plans	-7512
▁Junior	-7513
▁Record	-7514
▁unnecess	-7515
▁hoc	-7516
laim	-7517
roud	-7518
▁felic	-7519
▁spect	-7520
eros	-7521
▁helps	-7522
▁restriction	-7523
och	-7524
▁vary	-7525
▁satisfactory	-7526
IG	-7527
atra	-7528
oudh	-7529
▁coin	-7530
▁Works	-7531
▁usual	-7532
▁borrower	-7533
ym	-7534
▁mob	-7535
▁fuel	-7536
▁beings	-7537
▁dispose	-7538
▁contraband	-7539
▁fract	-7540
▁outer	-7541
▁client	-7542
▁orient	-7543
▁chargeable	-7544
ropol	-7545
▁refuse	-7546
▁answers	-7547
▁premium	-7548
ju	-7549
▁creditors	-7550
▁fulfilled	-7551
▁appointing	-7552
ema	-7553
▁Neg	-7554
▁shops	-7555
▁termed	-7556
▁squared	-7557
ansion	-7558
▁purely	-7559
▁requiring	-7560
▁deprived	-7561
▁endorsement	-7562
UB	-7563
▁Om	-7564
▁resc	-7565
▁scrutin	-7566
▁route	-7567
▁exclusion	-7568
fort	-7569
▁Kap	-7570
▁folk	-7571
▁royal	-7572
▁Process	-7573
▁apprehend	-7574
▁Roh	-7575
▁enum	-7576
ressive	-7577
▁aggreg	-7578
▁resign	-7579
appropri	-7580
▁proposals	-7581
▁dw	-7582
▁sake	-7583
▁inher	-7584
▁spoken	-7585
▁accompl	-7586
▁reaching	-7587
▁Advocates	-7588
▁consumers	-7589
▁Examination	-7590
MS	-7591
▁Mrs	-7592
cript	-7593
▁Zone	-7594
▁Eastern	-7595
▁communal	-7596
▁opposition	-7597
▁exclusively	-7598
▁Dy	-7599
▁Paper	-7600
▁judic	-7601
▁Jawahar	-7602
▁guidance	-7603
oses	-7604
▁rit	-7605
ids	-7606
ander	-7607
inity	-7608
▁aims	-7609
▁sites	-7610
▁unjust	-7611
▁resource	-7612
FC	-7613
HAR	-7614
▁sets	-7615
vation	-7616
▁Panchay	-7617
▁axe	-7618
▁Cast	-7619
▁boys	-7620
▁relev	-7621
▁unlawful	-7622
BC	-7623
isis	-7624
▁bilateral	-7625
▁shareholders	-7626
ounded	-7627
▁Vaish	-7628
▁spons	-7629
▁awards	-7630
▁History	-7631
back	-7632
▁Emp	-7633
▁USA	-7634
▁faced	-7635
▁cutting	-7636
▁reasonably	-7637
▁bot	-7638
▁computing	-7639
▁Mil	-7640
anath	-7641
aught	-7642
▁Mohd	-7643
▁Bureau	-7644
▁wisdom	-7645
cular	-7646
rating	-7647
▁initiative	-7648
rup	-7649
akti	-7650
oyal	-7651
▁exch	-7652
oubted	-7653
▁alias	-7654
writing	-7655
▁climate	-7656
▁fraudul	-7657
▁housing	-7658
amus	-7659
onies	-7660
▁File	-7661
▁colle	-7662
▁purview	-7663
gi	-7664
▁TV	-7665
▁fellow	-7666
▁forced	-7667
▁please	-7668
▁investors	-7669
mad	-7670
rafts	-7671
▁eleph	-7672
▁utter	-7673
▁conclude	-7674
TER	-7675
chandra	-7676
▁reveal	-7677
▁divorce	-7678
▁Transfer	-7679
▁discovery	-7680
▁exceptional	-7681
▁arrangements	-7682
▁Vir	-7683
▁Disp	-7684
▁breath	-7685
▁occurs	-7686
▁justify	-7687
▁backward	-7688
▁parameters	-7689
▁conclusions	-7690
roller	-7691
▁Chrom	-7692
▁Agency	-7693
▁simult	-7694
▁infection	-7695
▁purported	-7696
ker	-7697
▁Id	-7698
chnama	-7699
▁facing	-7700
▁laying	-7701
che	-7702
▁ND	-7703
▁000	-7704
▁annum	-7705
▁inaug	-7706
piration	-7707
ny	-7708
itage	-7709
ogether	-7710
rations	-7711
▁discovered	-7712
▁Tra	-7713
▁phen	-7714
▁tenancy	-7715
▁substantially	-7716
AI	-7717
▁Bur	-7718
▁Data	-7719
▁span	-7720
▁desert	-7721
▁earned	-7722
▁precise	-7723
▁creditor	-7724
▁presumed	-7725
▁superann	-7726
▁reduction	-7727
▁MM	-7728
▁wait	-7729
▁empty	-7730
▁placing	-7731
▁weather	-7732
AGE	-7733
▁pm	-7734
▁vag	-7735
▁Jyot	-7736
▁zero	-7737
▁casual	-7738
▁illegally	-7739
▁integrity	-7740
▁matrimonial	-7741
shi	-7742
▁Saty	-7743
▁Divisional	-7744
▁Independence	-7745
urch	-7746
▁unw	-7747
▁Mult	-7748
▁solely	-7749
▁Chancellor	-7750
▁Equ	-7751
ranath	-7752
▁screen	-7753
rule	-7754
▁string	-7755
▁Parliamentary	-7756
mal	-7757
▁ste	-7758
alled	-7759
▁Sarasw	-7760
▁injust	-7761
▁rivers	-7762
▁Letters	-7763
▁Nothing	-7764
▁enabling	-7765
▁thousands	-7766
▁affidavits	-7767
TS	-7768
▁Nations	-7769
▁concerns	-7770
▁exhibited	-7771
▁transmission	-7772
▁Investigation	-7773
gypt	-7774
▁Aur	-7775
▁battle	-7776
▁Circular	-7777
▁accommodation	-7778
▁Rab	-7779
▁Urban	-7780
▁Sector	-7781
▁nearby	-7782
▁essence	-7783
apa	-7784
etime	-7785
▁bull	-7786
cience	-7787
▁contributions	-7788
▁incriminating	-7789
▁Houses	-7790
▁budget	-7791
▁skills	-7792
▁creates	-7793
▁implication	-7794
▁transportation	-7795
▁Po	-7796
alla	-7797
▁defend	-7798
▁concession	-7799
▁aforementioned	-7800
▁Subhas	-7801
▁extending	-7802
amber	-7803
▁fertil	-7804
▁societies	-7805
▁Electricity	-7806
▁Shar	-7807
▁Tiwari	-7808
▁garden	-7809
▁scholars	-7810
leum	-7811
▁Body	-7812
TI	-7813
loc	-7814
afide	-7815
▁precedent	-7816
cel	-7817
▁NE	-7818
▁taxes	-7819
▁dignity	-7820
▁Agricultural	-7821
▁Egypt	-7822
▁silent	-7823
▁succeeded	-7824
▁paint	-7825
▁quarter	-7826
▁motorcycle	-7827
▁substitute	-7828
▁Chow	-7829
▁stab	-7830
▁cycle	-7831
rection	-7832
▁exports	-7833
▁........	-7834
▁promoting	-7835
▁oath	-7836
▁Third	-7837
istence	-7838
▁Instru	-7839
▁expand	-7840
▁refusal	-7841
▁inviting	-7842
▁witnessed	-7843
▁Saf	-7844
▁Chak	-7845
▁mala	-7846
▁teach	-7847
▁treating	-7848
ida	-7849
▁Sk	-7850
inct	-7851
▁Urdu	-7852
▁forged	-7853
▁venture	-7854
▁Children	-7855
▁duration	-7856
▁devi	-7857
▁vote	-7858
ounder	-7859
▁Sardar	-7860
▁perusal	-7861
▁reforms	-7862
▁inconsistent	-7863
fall	-7864
▁URL	-7865
▁Upon	-7866
▁Govind	-7867
▁doubts	-7868
▁cricket	-7869
▁Lah	-7870
▁exhaust	-7871
▁investments	-7872
▁Ren	-7873
▁Yes	-7874
enger	-7875
▁admissions	-7876
▁difficulties	-7877
Rs	-7878
yas	-7879
▁absent	-7880
▁levied	-7881
▁hop	-7882
ellow	-7883
hemical	-7884
▁Suresh	-7885
▁package	-7886
▁supreme	-7887
▁attributed	-7888
ajan	-7889
force	-7890
▁Nare	-7891
▁sin	-7892
▁eyew	-7893
▁Mahto	-7894
▁markets	-7895
▁improper	-7896
▁scientists	-7897
top	-7898
emark	-7899
erent	-7900
uality	-7901
▁acquire	-7902
▁expansion	-7903
▁injustice	-7904
▁pit	-7905
ighty	-7906
▁batch	-7907
▁delinqu	-7908
▁doctors	-7909
▁exactly	-7910
▁journal	-7911
UT	-7912
▁RBI	-7913
▁drop	-7914
ceived	-7915
▁Patent	-7916
oubtedly	-7917
▁flowers	-7918
▁Debt	-7919
▁skill	-7920
▁testator	-7921
ographical	-7922
▁personally	-7923
▁Customs	-7924
▁specify	-7925
▁trademark	-7926
mat	-7927
▁AY	-7928
▁hat	-7929
▁Rest	-7930
▁zone	-7931
▁thrown	-7932
▁empower	-7933
▁password	-7934
▁dimension	-7935
▁emergency	-7936
akf	-7937
ganj	-7938
ogue	-7939
▁Area	-7940
ropolitan	-7941
ef	-7942
uni	-7943
roleum	-7944
▁coast	-7945
▁recip	-7946
pled	-7947
▁Sund	-7948
▁Divine	-7949
▁ritual	-7950
▁seemed	-7951
▁jointly	-7952
▁pressed	-7953
▁alleging	-7954
▁conference	-7955
▁imagination	-7956
▁solar	-7957
▁relate	-7958
▁talking	-7959
▁instances	-7960
▁SA	-7961
▁vir	-7962
▁cognizable	-7963
▁apprehension	-7964
▁ROAD	-7965
▁inev	-7966
▁sweet	-7967
▁liabilities	-7968
isory	-7969
▁Addl	-7970
▁suggests	-7971
▁movements	-7972
▁tim	-7973
▁Note	-7974
▁declined	-7975
CO	-7976
▁Um	-7977
omach	-7978
▁unex	-7979
joinder	-7980
▁myself	-7981
▁tissue	-7982
▁alcohol	-7983
▁outcome	-7984
▁routine	-7985
arpur	-7986
▁conj	-7987
▁Far	-7988
▁Sud	-7989
▁fet	-7990
▁Anil	-7991
▁blank	-7992
▁enabled	-7993
▁replace	-7994
▁conversation	-7995
▁cool	-7996
▁convert	-7997
▁Accounts	-7998
▁organised	-7999
▁deny	-8000
▁Vigilance	-8001
▁correctly	-8002
▁friendship	-8003
▁temperature	-8004
▁Ray	-8005
▁Raju	-8006
▁incap	-8007
▁Bahadur	-8008
▁Statute	-8009
▁tenants	-8010
▁murdered	-8011
▁eyewitness	-8012
▁Fac	-8013
▁resolved	-8014
▁compelled	-8015
▁installation	-8016
lo	-8017
▁Ku	-8018
▁La	-8019
▁Sand	-8020
▁Point	-8021
▁bears	-8022
▁Industry	-8023
ulous	-8024
▁receipts	-8025
▁influenced	-8026
icon	-8027
▁gate	-8028
▁Sinha	-8029
icipality	-8030
▁centuries	-8031
▁beneficial	-8032
rows	-8033
▁Ear	-8034
▁Jail	-8035
▁Sidd	-8036
▁newly	-8037
▁Primary	-8038
▁Marriage	-8039
vol	-8040
▁VI	-8041
amed	-8042
onal	-8043
▁PDD	-8044
▁hel	-8045
▁hyd	-8046
▁Army	-8047
ashing	-8048
▁Choudh	-8049
▁Sushil	-8050
▁incumb	-8051
▁patent	-8052
▁faculty	-8053
▁renewal	-8054
▁dedicated	-8055
▁governments	-8056
ithm	-8057
▁Bangl	-8058
▁config	-8059
▁Question	-8060
▁Provision	-8061
▁implicated	-8062
▁kg	-8063
rates	-8064
▁Exper	-8065
▁corruption	-8066
antic	-8067
▁Gold	-8068
▁erred	-8069
▁Select	-8070
▁Notwithstanding	-8071
▁१७	-8072
▁Despite	-8073
▁improved	-8074
▁subsection	-8075
▁organisations	-8076
DU	-8077
▁sla	-8078
oples	-8079
▁bare	-8080
▁dance	-8081
▁Afghan	-8082
▁defeat	-8083
▁dangerous	-8084
▁Dam	-8085
▁isol	-8086
riages	-8087
▁Something	-8088
▁confusion	-8089
▁da	-8090
▁Deed	-8091
▁fifth	-8092
▁ancest	-8093
▁lawful	-8094
sp	-8095
ese	-8096
norm	-8097
oman	-8098
▁Inn	-8099
▁jew	-8100
preci	-8101
▁Liqu	-8102
▁Vide	-8103
▁tune	-8104
engers	-8105
▁micro	-8106
▁revers	-8107
▁Related	-8108
▁everyone	-8109
▁daughters	-8110
▁membership	-8111
▁Educational	-8112
▁prohibition	-8113
▁corroboration	-8114
▁CL	-8115
▁Ans	-8116
indra	-8117
▁Term	-8118
empted	-8119
isputed	-8120
▁Estate	-8121
▁provisional	-8122
▁confirmation	-8123
oria	-8124
▁horse	-8125
▁seeds	-8126
▁manage	-8127
▁directory	-8128
▁Lic	-8129
▁dog	-8130
▁sanct	-8131
anka	-8132
▁Cur	-8133
▁rub	-8134
▁tur	-8135
akrish	-8136
employ	-8137
▁twice	-8138
▁Annual	-8139
▁billion	-8140
▁emerged	-8141
▁attacked	-8142
▁examples	-8143
▁suddenly	-8144
JC	-8145
rh	-8146
▁SL	-8147
rier	-8148
▁syn	-8149
▁deem	-8150
▁doesn	-8151
▁younger	-8152
▁monetary	-8153
▁Statement	-8154
▁irrigation	-8155
▁kumar	-8156
▁cattle	-8157
▁Defence	-8158
▁Without	-8159
▁travell	-8160
▁combined	-8161
▁investigate	-8162
▁Shuk	-8163
apping	-8164
▁glass	-8165
▁saved	-8166
▁cancel	-8167
▁margin	-8168
▁restrict	-8169
▁thorough	-8170
▁Vid	-8171
▁Conc	-8172
▁hotel	-8173
▁assessing	-8174
▁irregularity	-8175
▁presentation	-8176
▁Kir	-8177
▁mos	-8178
▁gather	-8179
▁Israeli	-8180
▁killing	-8181
▁affirmed	-8182
▁initiation	-8183
▁deliberately	-8184
rum	-8185
▁Ha	-8186
▁Main	-8187
▁Local	-8188
oning	-8189
▁assured	-8190
▁Constitutional	-8191
jan	-8192
hemat	-8193
▁mixed	-8194
▁analog	-8195
▁earning	-8196
▁mir	-8197
onance	-8198
▁quasi	-8199
▁French	-8200
▁speaks	-8201
▁mountain	-8202
▁newspapers	-8203
▁load	-8204
amount	-8205
▁comparison	-8206
▁formulated	-8207
▁Micro	-8208
▁gap	-8209
▁disbel	-8210
▁tested	-8211
▁Housing	-8212
▁Issue	-8213
▁catch	-8214
▁poets	-8215
ressing	-8216
▁rendering	-8217
iche	-8218
icus	-8219
▁ring	-8220
▁tract	-8221
▁Whereas	-8222
▁prohibited	-8223
RIC	-8224
▁driven	-8225
▁suspect	-8226
▁verified	-8227
ruction	-8228
▁passion	-8229
▁numerous	-8230
▁statutes	-8231
▁intelligence	-8232
pic	-8233
dess	-8234
▁Mas	-8235
house	-8236
▁Know	-8237
yers	-8238
▁abst	-8239
▁baby	-8240
▁poly	-8241
▁composed	-8242
▁endeavour	-8243
▁sacrifice	-8244
▁distributed	-8245
▁contravention	-8246
alam	-8247
ohan	-8248
▁dynam	-8249
▁deeply	-8250
▁chapter	-8251
BS	-8252
.00	-8253
vast	-8254
▁beg	-8255
▁sky	-8256
▁reass	-8257
▁welcome	-8258
▁structures	-8259
▁anticipatory	-8260
HI	-8261
orter	-8262
▁fled	-8263
▁Discipl	-8264
▁forming	-8265
▁offender	-8266
▁voluntarily	-8267
ugh	-8268
▁NH	-8269
▁Ser	-8270
▁belie	-8271
▁covers	-8272
▁trained	-8273
▁disabled	-8274
▁retained	-8275
▁violated	-8276
▁supplementary	-8277
▁existed	-8278
▁naturally	-8279
▁underlying	-8280
posit	-8281
▁quiet	-8282
▁filling	-8283
ainted	-8284
ensity	-8285
▁thinks	-8286
▁returning	-8287
EG	-8288
ensus	-8289
▁elic	-8290
enders	-8291
locutory	-8292
▁customs	-8293
▁Secondly	-8294
▁Memorandum	-8295
rad	-8296
▁fle	-8297
aints	-8298
▁Name	-8299
▁dispro	-8300
▁fulfil	-8301
▁Ang	-8302
▁Found	-8303
▁Awards	-8304
▁Kishore	-8305
▁Mor	-8306
▁Sit	-8307
igarh	-8308
▁misc	-8309
▁ended	-8310
▁offering	-8311
▁ignorance	-8312
▁relevance	-8313
SP	-8314
▁Mam	-8315
▁Mir	-8316
▁votes	-8317
▁viewed	-8318
▁writings	-8319
▁guaranteed	-8320
▁securities	-8321
▁component	-8322
▁enterprise	-8323
from	-8324
umping	-8325
▁bonds	-8326
▁shift	-8327
▁intest	-8328
▁sacred	-8329
▁Teachers	-8330
▁residents	-8331
▁components	-8332
ped	-8333
▁forc	-8334
▁radio	-8335
▁flower	-8336
▁tribal	-8337
▁compens	-8338
▁deserve	-8339
▁summary	-8340
▁Railways	-8341
▁chair	-8342
▁noise	-8343
▁surpr	-8344
▁starts	-8345
▁digital	-8346
▁Employees	-8347
▁delinquent	-8348
ario	-8349
▁thank	-8350
▁awarding	-8351
▁creative	-8352
▁projected	-8353
▁indicating	-8354
▁technologies	-8355
izon	-8356
▁Ank	-8357
▁center	-8358
▁meters	-8359
▁quickly	-8360
▁contends	-8361
▁engagement	-8362
▁approximately	-8363
▁superannuation	-8364
race	-8365
endar	-8366
iliar	-8367
inter	-8368
raction	-8369
▁stomach	-8370
arer	-8371
oure	-8372
wara	-8373
▁Bet	-8374
▁hect	-8375
▁accorded	-8376
▁terminal	-8377
▁unb	-8378
▁race	-8379
prudence	-8380
▁attempted	-8381
▁criticism	-8382
▁altogether	-8383
▁Cooperative	-8384
▁print	-8385
▁retain	-8386
▁expedit	-8387
▁Register	-8388
▁arranged	-8389
▁pointing	-8390
▁extensive	-8391
▁inclusive	-8392
▁reinstate	-8393
▁competitive	-8394
oshi	-8395
▁theme	-8396
▁levelled	-8397
▁du	-8398
▁Sil	-8399
▁anx	-8400
▁clin	-8401
▁divid	-8402
▁closely	-8403
kha	-8404
son	-8405
▁TR	-8406
zing	-8407
▁VII	-8408
scious	-8409
▁Leave	-8410
▁spoke	-8411
▁teeth	-8412
▁thumb	-8413
▁Rakesh	-8414
▁lawyer	-8415
▁executing	-8416
▁possessed	-8417
▁UK	-8418
▁flo	-8419
▁preparing	-8420
▁cultivation	-8421
heb	-8422
▁denying	-8423
lier	-8424
▁sympt	-8425
▁amp	-8426
▁Succ	-8427
▁eggs	-8428
▁vague	-8429
ainable	-8430
▁Tender	-8431
▁patients	-8432
▁Champaran	-8433
▁maintainability	-8434
▁NIT	-8435
▁bids	-8436
▁prose	-8437
▁folder	-8438
▁minute	-8439
▁manufactured	-8440
▁Oil	-8441
▁tom	-8442
▁Shyam	-8443
▁warning	-8444
▁Property	-8445
▁Palestinian	-8446
▁representations	-8447
▁tab	-8448
arwal	-8449
▁York	-8450
▁failing	-8451
▁occupied	-8452
▁concurrent	-8453
▁kh	-8454
arding	-8455
▁diplom	-8456
▁enmity	-8457
▁anybody	-8458
▁desired	-8459
▁printed	-8460
etent	-8461
▁AGED	-8462
▁Arch	-8463
▁John	-8464
▁solid	-8465
▁tools	-8466
▁Tribes	-8467
▁incidents	-8468
▁Employment	-8469
▁APP	-8470
▁Band	-8471
▁Mant	-8472
▁bath	-8473
▁flood	-8474
▁Bangladesh	-8475
▁enumerated	-8476
time	-8477
▁Sita	-8478
▁bidders	-8479
▁punished	-8480
▁observing	-8481
ded	-8482
alal	-8483
▁Dub	-8484
▁Key	-8485
▁Free	-8486
▁diet	-8487
▁Guarant	-8488
▁replaced	-8489
▁affecting	-8490
▁integrated	-8491
SR	-8492
oop	-8493
▁CIT	-8494
▁MAN	-8495
▁Temple	-8496
▁admits	-8497
▁begins	-8498
▁propag	-8499
▁insofar	-8500
▁imported	-8501
▁interrog	-8502
▁assumption	-8503
▁Web	-8504
▁None	-8505
▁cord	-8506
▁Three	-8507
▁Failed	-8508
▁vendor	-8509
▁gratuity	-8510
▁phenomen	-8511
▁reaction	-8512
▁fulfill	-8513
▁implied	-8514
▁assuming	-8515
▁improving	-8516
▁Disc	-8517
▁Based	-8518
▁crisis	-8519
▁linked	-8520
▁comments	-8521
▁regulate	-8522
▁thoughts	-8523
▁irrelevant	-8524
▁revisional	-8525
emn	-8526
gaon	-8527
▁ram	-8528
▁Geor	-8529
▁Sale	-8530
▁Chait	-8531
▁apparently	-8532
▁comprising	-8533
▁disk	-8534
ocated	-8535
worthy	-8536
▁Market	-8537
▁visual	-8538
▁entrance	-8539
▁attendance	-8540
▁Lat	-8541
nergy	-8542
wahati	-8543
▁firing	-8544
▁ceremony	-8545
▁enforced	-8546
gue	-8547
▁Naw	-8548
urbed	-8549
▁flag	-8550
▁planned	-8551
▁terrorist	-8552
▁destruction	-8553
pay	-8554
▁lays	-8555
▁accurate	-8556
▁emerging	-8557
▁violative	-8558
▁MA	-8559
▁learnt	-8560
▁remind	-8561
▁contradict	-8562
▁combination	-8563
endix	-8564
arency	-8565
▁artific	-8566
▁deleted	-8567
▁securing	-8568
▁1	-8569
▁UGC	-8570
person	-8571
▁bribe	-8572
ignment	-8573
▁Working	-8574
▁assignment	-8575
SI	-8576
UK	-8577
aon	-8578
▁Guwahati	-8579
▁southern	-8580
dev	-8581
▁crim	-8582
▁hill	-8583
utable	-8584
▁Hotel	-8585
▁bottom	-8586
▁qualifying	-8587
anchi	-8588
▁Rent	-8589
▁pist	-8590
▁revol	-8591
▁illness	-8592
▁Speaking	-8593
▁religions	-8594
atab	-8595
▁ast	-8596
▁Sang	-8597
iaries	-8598
▁Design	-8599
▁ruling	-8600
▁presently	-8601
▁launch	-8602
▁lesser	-8603
atti	-8604
▁Bag	-8605
enous	-8606
▁Hand	-8607
▁myst	-8608
▁chart	-8609
itating	-8610
▁Sheikh	-8611
▁widely	-8612
▁equitable	-8613
ixed	-8614
stitu	-8615
▁Hold	-8616
▁depth	-8617
▁walls	-8618
▁instruct	-8619
▁Bil	-8620
unath	-8621
▁Germany	-8622
▁Hindust	-8623
▁studied	-8624
▁Building	-8625
atar	-8626
allel	-8627
hetic	-8628
▁wire	-8629
▁Ambed	-8630
▁Level	-8631
▁drama	-8632
▁promis	-8633
▁Brahman	-8634
▁Furthermore	-8635
▁discharging	-8636
▁Da	-8637
▁Change	-8638
▁bright	-8639
▁solemn	-8640
▁joining	-8641
▁prevented	-8642
▁felicitations	-8643
aces	-8644
▁innocence	-8645
▁infringement	-8646
▁rehabilitation	-8647
PW	-8648
Ws	-8649
Nos	-8650
ridge	-8651
▁Raman	-8652
▁attain	-8653
▁Ambedkar	-8654
▁definitely	-8655
lete	-8656
actor	-8657
▁Cell	-8658
▁Phys	-8659
active	-8660
▁auton	-8661
▁remem	-8662
▁distrib	-8663
▁generated	-8664
▁Vas	-8665
▁bomb	-8666
▁proud	-8667
▁weigh	-8668
theless	-8669
▁Reform	-8670
▁debate	-8671
▁Inquiry	-8672
▁contest	-8673
▁manager	-8674
▁Mahabhar	-8675
zz	-8676
▁TH	-8677
▁Mos	-8678
▁Text	-8679
▁immun	-8680
▁Mobile	-8681
▁finality	-8682
▁conscience	-8683
▁contribute	-8684
andi	-8685
verted	-8686
▁Dharm	-8687
▁praying	-8688
ECT	-8689
gone	-8690
▁doll	-8691
lihood	-8692
▁widow	-8693
▁drinking	-8694
▁celebrated	-8695
hin	-8696
abha	-8697
appl	-8698
▁Wind	-8699
▁sear	-8700
▁cotton	-8701
▁burning	-8702
▁trouble	-8703
bursement	-8704
▁interfered	-8705
▁demonstrate	-8706
▁Metropolitan	-8707
sell	-8708
▁invoke	-8709
▁immense	-8710
▁bleeding	-8711
▁completing	-8712
▁pu	-8713
ician	-8714
▁shad	-8715
akings	-8716
ariness	-8717
itional	-8718
▁forget	-8719
▁evolved	-8720
▁resolve	-8721
▁evolution	-8722
sa	-8723
tes	-8724
▁hur	-8725
▁cryst	-8726
▁layer	-8727
▁suffers	-8728
▁imperial	-8729
▁sequence	-8730
▁declaring	-8731
▁unnecessary	-8732
arn	-8733
coming	-8734
▁socio	-8735
▁matern	-8736
▁worker	-8737
▁Neither	-8738
▁protest	-8739
▁Constitu	-8740
▁clarification	-8741
EF	-8742
RC	-8743
itle	-8744
▁upl	-8745
▁Buddha	-8746
▁sharing	-8747
▁Standard	-8748
▁heritage	-8749
▁peaceful	-8750
▁succession	-8751
▁pp	-8752
uter	-8753
▁amen	-8754
▁enemy	-8755
▁Depart	-8756
▁corner	-8757
▁testing	-8758
▁recourse	-8759
eree	-8760
▁avoided	-8761
▁propriet	-8762
▁furnishing	-8763
▁Had	-8764
useum	-8765
▁Ahmad	-8766
▁aimed	-8767
▁brand	-8768
rosy	-8769
▁Dom	-8770
▁quot	-8771
▁thick	-8772
▁simultaneously	-8773
▁kit	-8774
adequ	-8775
▁Tata	-8776
▁allows	-8777
▁stress	-8778
▁NI	-8779
▁wed	-8780
ocket	-8781
▁Card	-8782
▁Move	-8783
▁Democ	-8784
itative	-8785
▁distinguish	-8786
abet	-8787
▁Bir	-8788
▁Top	-8789
▁ego	-8790
▁Chit	-8791
▁Japan	-8792
▁Saraswati	-8793
▁destroyed	-8794
▁developments	-8795
aria	-8796
▁vul	-8797
ariat	-8798
▁adap	-8799
orters	-8800
▁Indeed	-8801
▁carbon	-8802
▁Likewise	-8803
▁surrounding	-8804
▁substantiate	-8805
▁fib	-8806
▁Amar	-8807
▁Forum	-8808
▁Shukla	-8809
▁assume	-8810
▁fruits	-8811
▁scales	-8812
▁educated	-8813
▁messages	-8814
▁tendered	-8815
▁Jawaharlal	-8816
▁intimation	-8817
TP	-8818
▁IA	-8819
▁Innov	-8820
▁Castes	-8821
▁Pleader	-8822
▁strategy	-8823
▁affection	-8824
aterial	-8825
▁masses	-8826
▁delayed	-8827
▁commerce	-8828
▁preference	-8829
▁discretionary	-8830
ugg	-8831
▁nobody	-8832
▁Brahmin	-8833
▁Subhash	-8834
▁carries	-8835
▁corrupt	-8836
▁humanity	-8837
▁contemporary	-8838
hus	-8839
▁links	-8840
▁oppon	-8841
▁stead	-8842
▁peoples	-8843
▁happening	-8844
LC	-8845
▁prol	-8846
▁devot	-8847
erosene	-8848
▁Ganesh	-8849
▁Import	-8850
▁engage	-8851
iel	-8852
▁Dinesh	-8853
▁abnorm	-8854
▁wearing	-8855
▁somebody	-8856
▁Promotion	-8857
cles	-8858
▁Kor	-8859
▁Coal	-8860
▁wherever	-8861
▁amounting	-8862
▁permitting	-8863
got	-8864
▁Nig	-8865
▁haz	-8866
▁incon	-8867
▁sports	-8868
▁plastic	-8869
▁Ji	-8870
▁ru	-8871
bing	-8872
▁alarm	-8873
▁commonly	-8874
▁electric	-8875
▁Controller	-8876
▁dismissing	-8877
▁Ele	-8878
▁Bach	-8879
▁largely	-8880
▁Consumer	-8881
▁Ary	-8882
▁Dil	-8883
ealth	-8884
▁Docu	-8885
witness	-8886
▁exhibit	-8887
raid	-8888
apore	-8889
▁hind	-8890
▁taught	-8891
▁Sometimes	-8892
ortium	-8893
▁wider	-8894
▁regime	-8895
▁serial	-8896
▁coupled	-8897
▁inspired	-8898
▁sleeping	-8899
▁tomorrow	-8900
▁Til	-8901
ipher	-8902
urers	-8903
mental	-8904
▁Cases	-8905
▁accompany	-8906
▁competence	-8907
▁previously	-8908
,0	-8909
▁Adh	-8910
▁Occ	-8911
▁harmony	-8912
▁directors	-8913
▁classified	-8914
sha	-8915
▁Nay	-8916
ingly	-8917
iverse	-8918
▁Audit	-8919
▁manip	-8920
▁consonance	-8921
▁interlocutory	-8922
▁mr	-8923
ivek	-8924
will	-8925
▁Tehs	-8926
▁edge	-8927
▁Money	-8928
▁attempts	-8929
▁northern	-8930
▁Laboratory	-8931
▁Departments	-8932
▁supervision	-8933
▁Lad	-8934
▁Sign	-8935
▁lung	-8936
▁torture	-8937
▁hereunder	-8938
▁estopp	-8939
▁enables	-8940
▁evidences	-8941
yl	-8942
▁CA	-8943
achi	-8944
rain	-8945
▁cong	-8946
▁creat	-8947
vastava	-8948
▁......	-8949
▁phrase	-8950
▁happiness	-8951
▁prominent	-8952
▁implementing	-8953
UN	-8954
▁coc	-8955
night	-8956
▁Instead	-8957
▁literal	-8958
▁familiar	-8959
▁ornaments	-8960
ius	-8961
▁ju	-8962
isal	-8963
▁Bij	-8964
▁decline	-8965
▁limitations	-8966
▁NCT	-8967
▁signs	-8968
▁attacks	-8969
▁forests	-8970
▁options	-8971
▁strange	-8972
▁meantime	-8973
▁aspir	-8974
▁defines	-8975
▁insured	-8976
▁convenient	-8977
▁passengers	-8978
zen	-8979
▁rough	-8980
▁considers	-8981
▁livelihood	-8982
aha	-8983
pad	-8984
▁era	-8985
▁vent	-8986
▁Orders	-8987
▁border	-8988
▁onwards	-8989
▁realised	-8990
▁recognize	-8991
▁credibility	-8992
mon	-8993
▁cam	-8994
▁Integ	-8995
▁Sales	-8996
▁vires	-8997
▁Conduct	-8998
▁laboure	-8999
▁partial	-9000
▁prayers	-9001
▁writers	-9002
▁physically	-9003
▁Arj	-9004
▁Ajay	-9005
▁Ravi	-9006
▁continuously	-9007
▁Tue	-9008
▁mic	-9009
▁canv	-9010
▁Durga	-9011
▁Odish	-9012
▁cease	-9013
▁truly	-9014
▁unlike	-9015
▁Persian	-9016
▁discover	-9017
▁Bro	-9018
▁Naz	-9019
▁fate	-9020
▁fron	-9021
▁incumbent	-9022
▁commodities	-9023
▁MR	-9024
▁Pas	-9025
ginal	-9026
▁tear	-9027
▁incom	-9028
▁fallen	-9029
▁inadequ	-9030
ustainable	-9031
▁enhancement	-9032
▁entertainment	-9033
▁NG	-9034
▁Gir	-9035
▁ven	-9036
stone	-9037
▁Aurang	-9038
▁pistol	-9039
▁Consult	-9040
care	-9041
▁Bid	-9042
andra	-9043
▁devoid	-9044
▁pursue	-9045
▁titled	-9046
▁affects	-9047
▁eastern	-9048
▁staying	-9049
▁Appendix	-9050
▁undisputed	-9051
▁probability	-9052
▁institutional	-9053
▁mit	-9054
▁Mount	-9055
▁strongly	-9056
▁desirable	-9057
ys	-9058
URU	-9059
▁abet	-9060
▁jobs	-9061
▁onus	-9062
▁frust	-9063
▁Circle	-9064
▁indirectly	-9065
▁subsidiary	-9066
▁expressions	-9067
DP	-9068
ache	-9069
▁Manoj	-9070
▁Natural	-9071
▁fixation	-9072
▁millions	-9073
▁Chaitanya	-9074
▁Lordships	-9075
▁assurance	-9076
ALL	-9077
▁GR	-9078
▁ma	-9079
SION	-9080
ananda	-9081
▁errors	-9082
▁comfort	-9083
▁contending	-9084
▁submitting	-9085
▁operational	-9086
aza	-9087
▁Misc	-9088
▁excellence	-9089
edia	-9090
▁Sou	-9091
▁unsu	-9092
▁bottle	-9093
▁bridge	-9094
▁signal	-9095
▁encouraged	-9096
▁contributed	-9097
inn	-9098
▁managing	-9099
▁enjoyment	-9100
▁collecting	-9101
▁collective	-9102
cond	-9103
atell	-9104
▁drag	-9105
▁Russia	-9106
▁allocation	-9107
GA	-9108
ture	-9109
ronics	-9110
▁stones	-9111
▁Lecturer	-9112
▁imperative	-9113
kumar	-9114
▁Norm	-9115
▁drew	-9116
incial	-9117
▁sixty	-9118
▁Odisha	-9119
resident	-9120
▁entities	-9121
▁aggregate	-9122
▁absorption	-9123
▁Si	-9124
asty	-9125
▁Five	-9126
▁hurt	-9127
examin	-9128
▁Energy	-9129
▁Mahesh	-9130
▁insert	-9131
▁eminent	-9132
▁advocates	-9133
▁suspicious	-9134
▁OP	-9135
oked	-9136
sues	-9137
▁Stre	-9138
▁Bazar	-9139
▁rooms	-9140
▁cancer	-9141
▁municipal	-9142
▁conformity	-9143
ding	-9144
▁cos	-9145
▁quo	-9146
▁index	-9147
▁lawyers	-9148
▁Ordinance	-9149
▁restraining	-9150
▁notifications	-9151
aked	-9152
atrix	-9153
▁Pune	-9154
▁Sever	-9155
▁Steel	-9156
▁divide	-9157
▁kingdom	-9158
▁unconscious	-9159
EV	-9160
inese	-9161
▁ITAT	-9162
▁sword	-9163
▁Pratap	-9164
▁decade	-9165
▁tempor	-9166
▁Forensic	-9167
▁ultra	-9168
▁breast	-9169
▁factum	-9170
▁redress	-9171
▁Commerce	-9172
▁internet	-9173
▁contradiction	-9174
▁airc	-9175
▁Plant	-9176
▁Times	-9177
▁insisted	-9178
▁television	-9179
comm	-9180
▁Sukh	-9181
▁Turk	-9182
▁obst	-9183
cation	-9184
▁Allow	-9185
▁Vehic	-9186
ifiable	-9187
▁Arbitral	-9188
▁foregoing	-9189
eli	-9190
anese	-9191
ologist	-9192
▁Number	-9193
▁waters	-9194
▁achieving	-9195
pers	-9196
▁Return	-9197
▁agents	-9198
▁displayed	-9199
▁Enterprises	-9200
▁productivity	-9201
wad	-9202
chen	-9203
quar	-9204
▁feelings	-9205
▁convinced	-9206
▁Foundation	-9207
▁conclusive	-9208
▁१८	-9209
▁Kol	-9210
▁Mach	-9211
▁shut	-9212
▁patri	-9213
▁Export	-9214
▁speedy	-9215
▁diverse	-9216
▁remedies	-9217
▁allowances	-9218
grim	-9219
▁tor	-9220
▁tub	-9221
▁asserted	-9222
▁Chandigarh	-9223
▁GO	-9224
compl	-9225
▁Care	-9226
▁MSME	-9227
▁Binoy	-9228
▁Grant	-9229
adation	-9230
▁Letter	-9231
▁organs	-9232
▁repair	-9233
▁Keeping	-9234
▁kilomet	-9235
▁Australia	-9236
▁handwriting	-9237
ainty	-9238
▁erst	-9239
▁Vivek	-9240
▁goals	-9241
▁muscle	-9242
▁obliged	-9243
▁periods	-9244
▁settings	-9245
▁UT	-9246
▁apt	-9247
▁urge	-9248
▁secular	-9249
▁conveyed	-9250
▁eventually	-9251
▁Dra	-9252
oices	-9253
plete	-9254
▁Fort	-9255
▁bact	-9256
▁desc	-9257
▁grew	-9258
▁subt	-9259
▁tied	-9260
ensing	-9261
▁inferior	-9262
▁legality	-9263
▁qualities	-9264
▁artificial	-9265
▁exceptions	-9266
hew	-9267
uti	-9268
tical	-9269
▁Chat	-9270
▁Green	-9271
▁logical	-9272
▁anywhere	-9273
▁sovereign	-9274
▁undergone	-9275
▁Nil	-9276
▁Opp	-9277
▁Und	-9278
▁shr	-9279
▁vit	-9280
inces	-9281
ivided	-9282
▁kerosene	-9283
▁elaborate	-9284
▁gradually	-9285
var	-9286
quest	-9287
▁chrom	-9288
▁Academ	-9289
▁Bhawan	-9290
▁metres	-9291
▁Engineers	-9292
▁solutions	-9293
▁expectation	-9294
obe	-9295
atre	-9296
veer	-9297
▁Max	-9298
▁PIL	-9299
▁inad	-9300
▁League	-9301
judicial	-9302
▁remarkable	-9303
MP	-9304
br	-9305
otal	-9306
ouch	-9307
▁Basic	-9308
▁Vedic	-9309
▁backd	-9310
▁supports	-9311
▁currently	-9312
▁Afghanistan	-9313
▁Modi	-9314
▁View	-9315
▁audio	-9316
version	-9317
▁devices	-9318
▁locality	-9319
▁possibly	-9320
▁scenario	-9321
▁excessive	-9322
rete	-9323
shan	-9324
what	-9325
abhai	-9326
alaya	-9327
▁Mean	-9328
▁reop	-9329
▁Death	-9330
▁score	-9331
uncture	-9332
▁enunci	-9333
▁stored	-9334
▁Several	-9335
▁contested	-9336
▁Appellants	-9337
ahan	-9338
▁cav	-9339
▁rig	-9340
▁fluid	-9341
▁remun	-9342
▁yourself	-9343
▁electoral	-9344
▁followers	-9345
▁subscribe	-9346
▁Organization	-9347
▁appreciating	-9348
ART	-9349
arkar	-9350
▁mine	-9351
▁tong	-9352
istries	-9353
▁outset	-9354
▁reserve	-9355
▁Registry	-9356
▁channels	-9357
▁download	-9358
▁visiting	-9359
▁erstwhile	-9360
▁restraint	-9361
▁sentences	-9362
▁flex	-9363
▁Start	-9364
ilation	-9365
▁Liquid	-9366
▁afraid	-9367
▁adopting	-9368
▁supervis	-9369
▁suspended	-9370
▁Kun	-9371
▁CWJC	-9372
▁Hasan	-9373
▁bread	-9374
▁shoot	-9375
▁Chinese	-9376
ESH	-9377
ipping	-9378
▁accus	-9379
▁surpl	-9380
▁Persons	-9381
▁incidental	-9382
VE	-9383
▁Kav	-9384
▁.....	-9385
▁Arora	-9386
▁Unless	-9387
▁shoulder	-9388
▁symptoms	-9389
▁resignation	-9390
bey	-9391
ria	-9392
book	-9393
heet	-9394
▁Dig	-9395
auhan	-9396
▁abdom	-9397
▁plots	-9398
▁Deg	-9399
▁mig	-9400
aniel	-9401
atisf	-9402
▁violent	-9403
▁reflects	-9404
▁Tribunals	-9405
▁remembered	-9406
▁jurisprudence	-9407
asks	-9408
▁Vers	-9409
▁pled	-9410
▁Polit	-9411
▁crimes	-9412
▁Bengaluru	-9413
▁testatrix	-9414
▁frequently	-9415
▁repeatedly	-9416
atern	-9417
iders	-9418
▁scre	-9419
▁Earth	-9420
▁Pursu	-9421
▁gained	-9422
▁images	-9423
▁Insofar	-9424
▁Chemical	-9425
▁Dictionary	-9426
▁furtherance	-9427
iae	-9428
▁decre	-9429
▁label	-9430
▁decreed	-9431
▁investigated	-9432
▁arbitrariness	-9433
St	-9434
▁cant	-9435
▁verse	-9436
▁bodily	-9437
▁Comment	-9438
▁Wa	-9439
▁Mys	-9440
ensed	-9441
▁feels	-9442
▁honest	-9443
▁varied	-9444
▁Province	-9445
▁prescribe	-9446
▁traditions	-9447
ML	-9448
was	-9449
uran	-9450
▁via	-9451
▁nerv	-9452
▁ocean	-9453
ichever	-9454
▁adding	-9455
lessness	-9456
▁achievement	-9457
▁Disciplinary	-9458
▁communications	-9459
▁El	-9460
istical	-9461
▁emotional	-9462
▁unauthorized	-9463
PF	-9464
SC	-9465
mp	-9466
we	-9467
▁Bhav	-9468
▁Rani	-9469
▁pair	-9470
▁diagn	-9471
▁disag	-9472
▁pipes	-9473
▁headed	-9474
▁Bharati	-9475
▁demanding	-9476
▁intermedi	-9477
ulsion	-9478
▁Caste	-9479
▁detenue	-9480
▁prospective	-9481
▁transparent	-9482
asim	-9483
▁Dav	-9484
▁OCC	-9485
▁shif	-9486
▁Never	-9487
▁overt	-9488
▁spend	-9489
▁yellow	-9490
ableness	-9491
▁Bhagwan	-9492
▁soldiers	-9493
▁monitoring	-9494
ITY	-9495
oles	-9496
uster	-9497
▁unequ	-9498
▁fighting	-9499
▁delegation	-9500
▁AGE	-9501
▁BEN	-9502
▁pig	-9503
▁gall	-9504
▁Benef	-9505
▁prote	-9506
▁beneficiary	-9507
▁misappropri	-9508
▁SI	-9509
onic	-9510
▁tro	-9511
▁Bhat	-9512
father	-9513
arriage	-9514
▁Kingdom	-9515
▁accrued	-9516
▁sensitive	-9517
HC	-9518
allan	-9519
iques	-9520
▁fasc	-9521
▁Asian	-9522
▁Cross	-9523
▁forty	-9524
▁Kanpur	-9525
▁specim	-9526
▁Highway	-9527
▁Jagdish	-9528
▁inclusion	-9529
▁resistance	-9530
▁Construction	-9531
peror	-9532
▁Siva	-9533
▁accum	-9534
▁rushed	-9535
iculture	-9536
▁mandamus	-9537
▁grievances	-9538
ashi	-9539
earing	-9540
▁nomin	-9541
▁Crores	-9542
▁George	-9543
▁ending	-9544
hibition	-9545
▁Ayurved	-9546
▁enjoyed	-9547
udge	-9548
▁Mac	-9549
▁row	-9550
▁van	-9551
▁Need	-9552
▁pool	-9553
▁Madan	-9554
▁preval	-9555
▁mahazar	-9556
▁universe	-9557
▁successor	-9558
▁whichever	-9559
▁Nat	-9560
▁arrival	-9561
▁trem	-9562
▁motiv	-9563
▁treas	-9564
▁Telang	-9565
▁ignore	-9566
▁Condition	-9567
dict	-9568
▁curt	-9569
ursing	-9570
▁Scient	-9571
▁assailants	-9572
▁correspondence	-9573
lav	-9574
ulpt	-9575
ailable	-9576
▁arriving	-9577
▁fraudulent	-9578
▁Soft	-9579
▁Mehta	-9580
▁Shiva	-9581
fulness	-9582
iliation	-9583
▁enclosed	-9584
▁handling	-9585
▁clearance	-9586
▁functional	-9587
▁constitutes	-9588
eer	-9589
rin	-9590
DUCT	-9591
char	-9592
▁deriv	-9593
atories	-9594
▁Finally	-9595
▁realise	-9596
▁hardship	-9597
▁resorted	-9598
▁apprehended	-9599
▁parliamentary	-9600
▁Check	-9601
▁solve	-9602
▁Taking	-9603
▁hidden	-9604
▁administer	-9605
PCL	-9606
▁SW	-9607
▁ww	-9608
enda	-9609
orted	-9610
▁beaten	-9611
▁verses	-9612
▁turning	-9613
▁marginal	-9614
▁removing	-9615
▁attending	-9616
▁requesting	-9617
asis	-9618
▁Kaur	-9619
▁Lakh	-9620
▁Poll	-9621
▁Autom	-9622
▁abund	-9623
▁France	-9624
▁Pursuant	-9625
▁occurring	-9626
▁guarantees	-9627
SE	-9628
▁MT	-9629
▁busy	-9630
▁Charge	-9631
▁reader	-9632
▁infinite	-9633
▁repealed	-9634
▁Singapore	-9635
▁adversely	-9636
▁contesting	-9637
▁experiment	-9638
▁composition	-9639
▁destination	-9640
▁continuation	-9641
ibi	-9642
lat	-9643
▁Vi	-9644
▁SEC	-9645
▁voters	-9646
▁emerges	-9647
▁firstly	-9648
▁assisted	-9649
▁parallel	-9650
ordination	-9651
▁Petitions	-9652
▁virtually	-9653
▁participating	-9654
The	-9655
▁Deb	-9656
▁www	-9657
▁Bhatt	-9658
▁Black	-9659
▁Merely	-9660
▁Mughal	-9661
co	-9662
hal	-9663
▁Kot	-9664
oking	-9665
uated	-9666
▁lieu	-9667
▁cards	-9668
▁Britain	-9669
▁imports	-9670
▁hesitation	-9671
▁mechanical	-9672
▁pa	-9673
hers	-9674
onds	-9675
▁Bhai	-9676
▁Establ	-9677
▁lowest	-9678
▁exclude	-9679
▁invested	-9680
ued	-9681
want	-9682
▁Sem	-9683
▁Kann	-9684
▁searched	-9685
▁Presiding	-9686
▁separated	-9687
▁deliberate	-9688
akk	-9689
ipped	-9690
▁Drug	-9691
▁semi	-9692
▁array	-9693
▁rulers	-9694
▁stations	-9695
iam	-9696
cont	-9697
oram	-9698
orry	-9699
▁Mer	-9700
▁ped	-9701
▁logic	-9702
▁loose	-9703
▁update	-9704
▁Product	-9705
▁escaped	-9706
▁surplus	-9707
▁Limitation	-9708
ERE	-9709
life	-9710
gence	-9711
▁Gora	-9712
▁meat	-9713
stated	-9714
▁Guide	-9715
▁degrees	-9716
how	-9717
adra	-9718
▁Six	-9719
ammed	-9720
ompany	-9721
▁Online	-9722
▁inputs	-9723
▁relies	-9724
▁silver	-9725
▁Subject	-9726
▁Maharaja	-9727
▁somewhat	-9728
▁excellent	-9729
▁technique	-9730
▁pronouncement	-9731
itud	-9732
▁SHO	-9733
ashed	-9734
▁Farm	-9735
ulative	-9736
▁afresh	-9737
▁utility	-9738
▁automatic	-9739
▁discrepancies	-9740
▁Cy	-9741
▁IR	-9742
ogen	-9743
avior	-9744
▁Relig	-9745
▁Vinod	-9746
▁emerge	-9747
▁handic	-9748
▁verify	-9749
▁vessels	-9750
▁administr	-9751
▁travelling	-9752
▁entitlement	-9753
▁NAB	-9754
▁availed	-9755
▁juncture	-9756
▁practition	-9757
▁Recruitment	-9758
jit	-9759
▁cod	-9760
▁tow	-9761
hered	-9762
herry	-9763
xygen	-9764
▁fever	-9765
▁elsewhere	-9766
▁vegetables	-9767
▁registering	-9768
▁undoubtedly	-9769
▁RF	-9770
idavit	-9771
▁appended	-9772
▁independently	-9773
iat	-9774
▁Age	-9775
▁tail	-9776
▁pound	-9777
▁parade	-9778
▁poetic	-9779
▁sculpt	-9780
lamation	-9781
▁excluding	-9782
▁safeguard	-9783
▁indication	-9784
▁reinstatement	-9785
NL	-9786
iries	-9787
▁Desh	-9788
▁Srin	-9789
▁dear	-9790
▁gods	-9791
▁STATE	-9792
osition	-9793
▁Chrome	-9794
▁Vaishn	-9795
▁losses	-9796
▁greatly	-9797
▁litigant	-9798
▁transparency	-9799
mail	-9800
assed	-9801
▁Gaut	-9802
▁Kesh	-9803
▁reck	-9804
▁redu	-9805
▁meter	-9806
▁disposs	-9807
▁overlook	-9808
▁ascertained	-9809
▁amalgamation	-9810
▁AR	-9811
lock	-9812
vals	-9813
▁nin	-9814
arita	-9815
orous	-9816
urism	-9817
▁bats	-9818
▁miss	-9819
rative	-9820
▁crowd	-9821
▁circle	-9822
▁altered	-9823
▁Advisory	-9824
▁taxation	-9825
▁Telangana	-9826
▁therefrom	-9827
umes	-9828
▁Nal	-9829
▁Mill	-9830
▁Sahu	-9831
▁Ward	-9832
▁dies	-9833
▁touc	-9834
▁White	-9835
▁backdrop	-9836
▁passport	-9837
▁interpret	-9838
▁pregnancy	-9839
▁adjustment	-9840
pus	-9841
▁FA	-9842
▁Goa	-9843
▁Sha	-9844
▁myth	-9845
▁usage	-9846
edience	-9847
▁seller	-9848
▁Knowledge	-9849
▁administered	-9850
inatory	-9851
▁Follow	-9852
▁smooth	-9853
▁Address	-9854
▁nowhere	-9855
▁absorbed	-9856
▁finished	-9857
▁remanded	-9858
resentation	-9859
▁prescription	-9860
▁characteristics	-9861
▁Wed	-9862
▁ante	-9863
▁quote	-9864
▁disreg	-9865
▁golden	-9866
▁Str	-9867
▁enl	-9868
▁Table	-9869
▁enorm	-9870
▁Enable	-9871
▁prince	-9872
▁inevitable	-9873
▁fo	-9874
▁chose	-9875
atabase	-9876
▁rising	-9877
▁constantly	-9878
▁suppressed	-9879
▁technological	-9880
▁raj	-9881
agger	-9882
▁Prad	-9883
hement	-9884
▁angle	-9885
▁Search	-9886
▁benefic	-9887
▁conting	-9888
▁pilgrim	-9889
▁affiliation	-9890
▁calculation	-9891
▁prejudicial	-9892
CH	-9893
kin	-9894
▁dust	-9895
▁Narain	-9896
▁Chauhan	-9897
▁closure	-9898
▁designs	-9899
▁utilized	-9900
▁Secretariat	-9901
UST	-9902
entle	-9903
▁Anti	-9904
▁NAME	-9905
▁Next	-9906
▁stim	-9907
orship	-9908
▁saving	-9909
▁beating	-9910
▁reducing	-9911
▁Guarantee	-9912
▁transferee	-9913
dh	-9914
▁Jal	-9915
chant	-9916
▁Kail	-9917
▁Radh	-9918
▁Saroj	-9919
▁genes	-9920
▁penet	-9921
olished	-9922
▁Turkey	-9923
▁shaped	-9924
▁calendar	-9925
▁Dri	-9926
▁End	-9927
▁metal	-9928
▁Ranchi	-9929
▁safely	-9930
▁delight	-9931
▁survive	-9932
▁Colleges	-9933
▁inferred	-9934
▁marriages	-9935
▁innovative	-9936
▁Jit	-9937
▁htt	-9938
osite	-9939
▁ties	-9940
▁Ident	-9941
▁forfe	-9942
▁refusing	-9943
▁tendency	-9944
▁discarded	-9945
▁Municipality	-9946
AGAR	-9947
power	-9948
lessly	-9949
▁hills	-9950
▁mandapa	-9951
▁tourist	-9952
▁mutation	-9953
▁realized	-9954
▁acknowledged	-9955
EST	-9956
erer	-9957
outs	-9958
▁bat	-9959
▁rom	-9960
▁salt	-9961
▁deity	-9962
▁Harish	-9963
▁stretch	-9964
▁tenders	-9965
▁vehement	-9966
▁concealed	-9967
▁eve	-9968
▁holy	-9969
▁dilig	-9970
▁sheets	-9971
▁remarks	-9972
▁assertion	-9973
▁strategic	-9974
▁complained	-9975
▁Huss	-9976
▁Puri	-9977
▁delic	-9978
▁lodge	-9979
▁Indore	-9980
▁weakness	-9981
▁disposing	-9982
▁references	-9983
▁regulatory	-9984
▁exploitation	-9985
LR	-9986
lor	-9987
wani	-9988
▁mad	-9989
▁Kath	-9990
▁strang	-9991
▁Academy	-9992
▁Meeting	-9993
▁whereof	-9994
▁correction	-9995
▁translated	-9996
▁Taj	-9997
▁pup	-9998
▁tourism	-9999
▁Hinduism	-10000
▁disturbed	-10001
▁unp	-10002
▁vex	-10003
▁Thir	-10004
▁Sahib	-10005
▁Indira	-10006
▁valley	-10007
▁Reforms	-10008
▁operated	-10009
▁reporting	-10010
▁computation	-10011
▁achievements	-10012
▁transformation	-10013
ayuk	-10014
wide	-10015
▁grain	-10016
▁repos	-10017
▁fracture	-10018
respondent	-10019
▁diversity	-10020
▁approaching	-10021
▁enterprises	-10022
ARY	-10023
▁DV	-10024
▁dh	-10025
▁Pip	-10026
▁nav	-10027
rants	-10028
▁Khat	-10029
▁bind	-10030
▁tube	-10031
▁Bills	-10032
▁NABARD	-10033
esterday	-10034
▁silence	-10035
▁acquiring	-10036
▁rejoinder	-10037
▁Corruption	-10038
ATH	-10039
agi	-10040
▁Fil	-10041
▁Mall	-10042
▁Surat	-10043
▁rebut	-10044
examined	-10045
▁packets	-10046
▁prevail	-10047
▁fairness	-10048
▁preserve	-10049
▁deficiency	-10050
▁strengthening	-10051
uma	-10052
cane	-10053
▁fard	-10054
▁lamp	-10055
▁trap	-10056
▁wheat	-10057
▁eternal	-10058
▁radical	-10059
▁wrongful	-10060
▁delegated	-10061
▁impartial	-10062
▁institutes	-10063
▁differently	-10064
enn	-10065
▁Bul	-10066
▁hal	-10067
▁cater	-10068
▁gland	-10069
▁flight	-10070
▁procure	-10071
▁aircraft	-10072
▁contrast	-10073
▁overcome	-10074
▁expertise	-10075
▁incomplete	-10076
DR	-10077
ORT	-10078
wing	-10079
▁clim	-10080
▁tape	-10081
advant	-10082
▁Ghosh	-10083
▁highl	-10084
▁mould	-10085
▁wheel	-10086
▁architecture	-10087
▁entrepreneur	-10088
anim	-10089
mans	-10090
▁worn	-10091
▁harmon	-10092
▁PRODUCT	-10093
▁childhood	-10094
▁convicting	-10095
▁consistently	-10096
CL	-10097
▁XV	-10098
▁Rath	-10099
▁Vire	-10100
▁node	-10101
▁grace	-10102
▁stuff	-10103
▁atomic	-10104
▁passes	-10105
▁impleaded	-10106
▁techniques	-10107
ERA	-10108
▁Bri	-10109
omous	-10110
▁Vict	-10111
▁sorrow	-10112
▁thread	-10113
▁harvest	-10114
▁kitchen	-10115
▁undivided	-10116
▁pronounced	-10117
his	-10118
▁Ish	-10119
▁Muh	-10120
eties	-10121
▁Baba	-10122
▁Flag	-10123
▁Shik	-10124
▁Except	-10125
▁coloured	-10126
husi	-10127
▁Jagann	-10128
▁ceased	-10129
▁Perhaps	-10130
▁highlighted	-10131
▁territories	-10132
ayas	-10133
▁vii	-10134
▁BENGAL	-10135
▁Canada	-10136
▁urgent	-10137
▁assailed	-10138
▁Aggrieved	-10139
▁testified	-10140
ASH	-10141
mic	-10142
acent	-10143
osity	-10144
▁Paul	-10145
▁keen	-10146
▁sket	-10147
tension	-10148
▁posting	-10149
▁disorder	-10150
▁oriented	-10151
▁interfering	-10152
▁characteristic	-10153
itya	-10154
sman	-10155
▁Sudh	-10156
▁Liter	-10157
▁parte	-10158
▁picked	-10159
▁confron	-10160
▁Islamist	-10161
▁turnover	-10162
▁computers	-10163
▁adjudicated	-10164
▁Sep	-10165
▁Hard	-10166
▁vice	-10167
▁facto	-10168
▁adhere	-10169
▁summar	-10170
▁inspire	-10171
▁prisoner	-10172
▁studying	-10173
▁civilization	-10174
iger	-10175
▁Rup	-10176
▁smt	-10177
▁buff	-10178
▁rear	-10179
GALORE	-10180
▁Mahal	-10181
▁roots	-10182
ointment	-10183
met	-10184
▁MB	-10185
cers	-10186
▁Cult	-10187
▁Gaya	-10188
▁bags	-10189
▁German	-10190
▁positions	-10191
▁accounting	-10192
▁cooperative	-10193
१९	-10194
ori	-10195
ugu	-10196
alat	-10197
orrh	-10198
▁ash	-10199
▁rat	-10200
▁Staff	-10201
▁editor	-10202
▁profile	-10203
▁Computer	-10204
▁printing	-10205
▁dishonest	-10206
▁negotiations	-10207
▁Sak	-10208
▁rhy	-10209
▁Tour	-10210
commun	-10211
terior	-10212
▁Dubey	-10213
▁Bhagat	-10214
▁stamps	-10215
▁omitted	-10216
▁financing	-10217
▁continuance	-10218
haz	-10219
▁pul	-10220
▁News	-10221
▁wick	-10222
acious	-10223
▁pride	-10224
▁conced	-10225
▁adjourn	-10226
▁enthusi	-10227
▁propose	-10228
▁realize	-10229
▁victory	-10230
▁Investment	-10231
▁Gaj	-10232
▁Lep	-10233
▁fash	-10234
orders	-10235
▁split	-10236
▁retail	-10237
▁dropped	-10238
▁Parishad	-10239
▁utilised	-10240
▁examinations	-10241
▁geographical	-10242
▁expeditiously	-10243
izer	-10244
▁fly	-10245
▁Conn	-10246
▁truck	-10247
▁shadow	-10248
▁gravity	-10249
▁elephant	-10250
▁possessing	-10251
▁manufacturer	-10252
▁stakeholders	-10253
▁Wakf	-10254
▁lists	-10255
▁nexus	-10256
ineness	-10257
▁compan	-10258
▁guided	-10259
▁palace	-10260
▁shelter	-10261
▁Ramayana	-10262
▁informing	-10263
▁mountains	-10264
hani	-10265
▁hun	-10266
aspur	-10267
▁width	-10268
alities	-10269
▁Global	-10270
▁describe	-10271
▁BANGALORE	-10272
▁answering	-10273
▁experienced	-10274
▁ASI	-10275
▁KAR	-10276
▁spr	-10277
▁bones	-10278
▁excise	-10279
▁ceiling	-10280
▁imagine	-10281
▁boundary	-10282
▁pictures	-10283
▁restored	-10284
▁disadvant	-10285
▁controlling	-10286
▁stipulation	-10287
oves	-10288
▁Tre	-10289
beyan	-10290
▁Radi	-10291
▁tall	-10292
▁homes	-10293
▁older	-10294
▁Chaudh	-10295
▁Mysore	-10296
quarters	-10297
▁tremend	-10298
▁vacated	-10299
ciliation	-10300
▁comprised	-10301
▁meanwhile	-10302
▁vehemently	-10303
iser	-10304
▁BDA	-10305
▁din	-10306
▁insu	-10307
rition	-10308
▁brown	-10309
▁disob	-10310
▁paddy	-10311
▁Tahsil	-10312
▁refuge	-10313
▁confisc	-10314
▁Mohammed	-10315
▁machines	-10316
▁remuneration	-10317
archy	-10318
▁Till	-10319
▁decor	-10320
▁handle	-10321
▁utmost	-10322
ILL	-10323
URE	-10324
▁MW	-10325
▁AIC	-10326
▁Rece	-10327
▁Medic	-10328
▁toler	-10329
▁Airport	-10330
▁counted	-10331
▁unsustainable	-10332
onym	-10333
▁Phot	-10334
▁faces	-10335
▁discont	-10336
▁defeated	-10337
▁proprietor	-10338
▁genuineness	-10339
rits	-10340
adevi	-10341
arest	-10342
▁Make	-10343
▁Maur	-10344
▁Push	-10345
▁unus	-10346
orious	-10347
▁cable	-10348
▁clock	-10349
▁resid	-10350
▁culmin	-10351
▁reward	-10352
▁tongue	-10353
estation	-10354
▁goodwill	-10355
▁ignoring	-10356
▁Territory	-10357
▁Panchayats	-10358
▁progressive	-10359
▁Alm	-10360
amble	-10361
▁Sach	-10362
illary	-10363
▁Prior	-10364
▁towns	-10365
▁turns	-10366
▁Claims	-10367
▁Punjabi	-10368
▁Marketing	-10369
▁detaining	-10370
▁inability	-10371
▁prisoners	-10372
▁impermissible	-10373
ogy	-10374
van	-10375
▁Hal	-10376
▁Vad	-10377
cause	-10378
▁Ball	-10379
▁Gita	-10380
▁thin	-10381
▁lathi	-10382
reshold	-10383
▁Supply	-10384
▁variation	-10385
ims	-10386
ukh	-10387
▁UP	-10388
▁Haz	-10389
▁seg	-10390
semin	-10391
▁Gree	-10392
▁cement	-10393
▁surprise	-10394
appellants	-10395
▁repayment	-10396
▁suspected	-10397
Ch	-10398
oi	-10399
omal	-10400
▁Baj	-10401
▁Kur	-10402
rance	-10403
▁wing	-10404
▁Chart	-10405
▁blows	-10406
▁listen	-10407
▁detained	-10408
▁Governance	-10409
▁electrical	-10410
▁protecting	-10411
ki	-10412
▁DD	-10413
ford	-10414
ktop	-10415
agers	-10416
▁shirt	-10417
▁Negoti	-10418
▁subsidy	-10419
▁forcibly	-10420
▁Assessment	-10421
▁irregularities	-10422
OT	-10423
▁Tq	-10424
aved	-10425
apati	-10426
atable	-10427
isable	-10428
▁Tilak	-10429
parable	-10430
▁Action	-10431
▁assemb	-10432
▁stains	-10433
▁Support	-10434
▁helping	-10435
▁horizon	-10436
▁pow	-10437
asted	-10438
▁Hall	-10439
▁tang	-10440
laimed	-10441
▁buyer	-10442
▁flour	-10443
▁taxable	-10444
▁judicata	-10445
▁experiences	-10446
eem	-10447
oma	-10448
iguous	-10449
▁Manual	-10450
▁recons	-10451
▁surgery	-10452
▁telling	-10453
▁elicited	-10454
▁estimate	-10455
▁Resources	-10456
▁Compensation	-10457
anja	-10458
▁Bagh	-10459
ushing	-10460
▁milit	-10461
▁Degree	-10462
▁Swaraj	-10463
▁allied	-10464
▁firmly	-10465
▁Hussain	-10466
▁jurisdictional	-10467
di	-10468
RICT	-10469
agra	-10470
▁Unf	-10471
▁mel	-10472
onation	-10473
▁reverse	-10474
▁consumed	-10475
▁Corporate	-10476
ECH	-10477
NAME	-10478
bles	-10479
▁Did	-10480
cence	-10481
▁grants	-10482
▁amending	-10483
▁precious	-10484
▁enforceable	-10485
▁VAT	-10486
▁Bhut	-10487
▁Kant	-10488
▁fake	-10489
▁films	-10490
▁homic	-10491
iversary	-10492
▁advances	-10493
▁dissolution	-10494
▁liquidation	-10495
illy	-10496
▁Parm	-10497
▁wake	-10498
▁Major	-10499
▁dress	-10500
▁invite	-10501
▁pestic	-10502
▁portions	-10503
▁departure	-10504
▁surrounded	-10505
iram	-10506
▁trace	-10507
ourable	-10508
▁frivol	-10509
▁shrine	-10510
▁produces	-10511
▁charitable	-10512
▁establishes	-10513
eas	-10514
asha	-10515
▁cra	-10516
▁peas	-10517
▁Marathi	-10518
▁Parties	-10519
▁adjacent	-10520
▁detected	-10521
▁entirety	-10522
▁licensee	-10523
▁commencing	-10524
▁realisation	-10525
bre	-10526
lin	-10527
onda	-10528
sees	-10529
side	-10530
stig	-10531
▁cin	-10532
▁vim	-10533
▁bold	-10534
▁plug	-10535
▁lessee	-10536
▁summer	-10537
▁Disputes	-10538
▁computed	-10539
▁exhibits	-10540
▁separation	-10541
▁manufacturers	-10542
ayam	-10543
utch	-10544
astri	-10545
▁Treat	-10546
▁misrep	-10547
▁Looking	-10548
▁verdict	-10549
▁Mahendra	-10550
▁slightly	-10551
▁passenger	-10552
▁Subordinate	-10553
▁Bol	-10554
▁Log	-10555
▁Ver	-10556
▁Sank	-10557
▁nose	-10558
▁Begum	-10559
▁Dwark	-10560
▁Kamal	-10561
▁click	-10562
▁castes	-10563
▁pocket	-10564
▁vulner	-10565
▁walking	-10566
▁DISTRICT	-10567
▁offending	-10568
▁Federation	-10569
▁LA	-10570
▁vig	-10571
▁forb	-10572
▁meal	-10573
▁locus	-10574
itarian	-10575
▁player	-10576
▁defects	-10577
▁regulating	-10578
anama	-10579
pless	-10580
▁Amit	-10581
olving	-10582
▁Clear	-10583
▁owing	-10584
▁Krishn	-10585
▁spouse	-10586
▁sisters	-10587
▁subjective	-10588
▁constituting	-10589
rao	-10590
eenth	-10591
▁Gwal	-10592
▁Kaly	-10593
▁delete	-10594
▁programs	-10595
▁sympathy	-10596
▁operators	-10597
▁purchasing	-10598
▁affirmative	-10599
▁Distribution	-10600
ino	-10601
raon	-10602
igare	-10603
▁Rang	-10604
icians	-10605
▁inhab	-10606
▁closer	-10607
▁Against	-10608
▁renewed	-10609
▁adjusted	-10610
▁labourers	-10611
iki	-10612
khar	-10613
rove	-10614
wood	-10615
inant	-10616
▁Trip	-10617
▁synt	-10618
▁Years	-10619
▁rests	-10620
▁native	-10621
▁dynamic	-10622
▁quarters	-10623
▁commodity	-10624
▁homicidal	-10625
▁ministers	-10626
▁prevalent	-10627
▁Environmental	-10628
▁discriminatory	-10629
▁Ke	-10630
▁ly	-10631
down	-10632
rich	-10633
▁Ran	-10634
anjan	-10635
ruddin	-10636
▁Gujar	-10637
▁eating	-10638
▁ocular	-10639
▁constable	-10640
▁describes	-10641
▁indigenous	-10642
thy	-10643
▁CM	-10644
▁Gas	-10645
▁Nam	-10646
▁pant	-10647
istent	-10648
▁Church	-10649
▁Region	-10650
▁proves	-10651
▁deducted	-10652
▁expanded	-10653
▁hundreds	-10654
▁Miscellaneous	-10655
gal	-10656
▁Arabic	-10657
▁ideals	-10658
▁Current	-10659
▁chargesheet	-10660
▁miscarriage	-10661
▁configuration	-10662
▁Infrastructure	-10663
LT	-10664
▁Je	-10665
ulla	-10666
utosh	-10667
▁Joshi	-10668
▁Basava	-10669
▁Muhammad	-10670
▁boundaries	-10671
▁measurement	-10672
▁beneficiaries	-10673
ums	-10674
gent	-10675
ortion	-10676
selling	-10677
▁Recomm	-10678
▁probate	-10679
▁rapidly	-10680
preciation	-10681
▁assaulting	-10682
▁disproportion	-10683
▁Rub	-10684
▁bore	-10685
▁veil	-10686
▁Pract	-10687
▁algor	-10688
▁embar	-10689
▁maxim	-10690
▁novels	-10691
▁Highways	-10692
▁grievous	-10693
uda	-10694
▁Ce	-10695
amar	-10696
ffee	-10697
imla	-10698
isan	-10699
▁Jha	-10700
▁irr	-10701
▁Youn	-10702
▁boat	-10703
▁Lanka	-10704
▁Mahan	-10705
▁Bhopal	-10706
▁oxygen	-10707
▁library	-10708
▁savings	-10709
▁maternal	-10710
▁laboratory	-10711
▁prescribes	-10712
DI	-10713
▁Ori	-10714
▁Sult	-10715
▁thro	-10716
icides	-10717
▁Journ	-10718
▁Saudi	-10719
▁shell	-10720
▁Santosh	-10721
▁Software	-10722
▁actively	-10723
▁regularized	-10724
▁Ek	-10725
rogen	-10726
▁genus	-10727
ifferent	-10728
▁goddess	-10729
lementary	-10730
▁dividend	-10731
▁perfection	-10732
▁complicated	-10733
▁suppression	-10734
▁Que	-10735
▁RPC	-10736
▁incomp	-10737
▁slowly	-10738
▁admitting	-10739
oa	-10740
ste	-10741
▁Akh	-10742
▁IIT	-10743
▁Old	-10744
itors	-10745
▁idol	-10746
▁lacs	-10747
▁defam	-10748
▁doors	-10749
▁depose	-10750
▁Deposit	-10751
▁exceeds	-10752
▁flowing	-10753
▁Buddhist	-10754
▁enquired	-10755
▁pregnant	-10756
▁railways	-10757
▁Tahsildar	-10758
▁thereupon	-10759
nic	-10760
▁Ca	-10761
emat	-10762
ibai	-10763
oster	-10764
▁COMM	-10765
▁ample	-10766
▁debtor	-10767
▁deploy	-10768
▁lifted	-10769
▁prestig	-10770
akrishnan	-10771
▁credited	-10772
▁culpable	-10773
▁homicide	-10774
▁Mahabharata	-10775
▁generations	-10776
HA	-10777
▁reim	-10778
atious	-10779
▁Price	-10780
▁Range	-10781
▁embod	-10782
▁imped	-10783
▁plate	-10784
▁risks	-10785
▁Center	-10786
▁models	-10787
▁Projects	-10788
▁obstruct	-10789
▁copyright	-10790
▁safeguards	-10791
▁revolutionary	-10792
aco	-10793
▁SAR	-10794
▁Sham	-10795
▁whip	-10796
▁debts	-10797
ecessor	-10798
▁Indica	-10799
ammation	-10800
▁decides	-10801
▁Corporations	-10802
ANG	-10803
ador	-10804
agon	-10805
kind	-10806
State	-10807
▁gang	-10808
▁scan	-10809
▁Obama	-10810
▁broke	-10811
▁Telugu	-10812
▁audience	-10813
▁mathemat	-10814
▁Community	-10815
▁discloses	-10816
▁disregard	-10817
▁hospitals	-10818
ishi	-10819
▁PMLA	-10820
▁aided	-10821
emption	-10822
▁Boards	-10823
▁exposed	-10824
▁hectares	-10825
▁respects	-10826
▁Standards	-10827
▁interface	-10828
▁Naya	-10829
▁Analy	-10830
▁inspect	-10831
▁Narendra	-10832
▁Hindustan	-10833
▁tremendous	-10834
olu	-10835
olic	-10836
▁Save	-10837
▁shed	-10838
essful	-10839
▁carved	-10840
▁Centres	-10841
▁exhaustive	-10842
RS	-10843
▁PP	-10844
▁Dutt	-10845
▁intr	-10846
▁Purch	-10847
▁Short	-10848
▁bullet	-10849
▁BENGALURU	-10850
▁frivolous	-10851
▁regulated	-10852
▁restrained	-10853
▁acknowledge	-10854
cut	-10855
▁fro	-10856
ubhai	-10857
▁draf	-10858
▁menu	-10859
▁vest	-10860
▁Malay	-10861
▁Title	-10862
▁coerc	-10863
▁spell	-10864
ortunate	-10865
▁Manipur	-10866
▁belated	-10867
▁alternate	-10868
▁corrected	-10869
▁stability	-10870
▁Principles	-10871
▁demonstrated	-10872
IAL	-10873
ghar	-10874
▁Van	-10875
▁Indra	-10876
▁Lokayuk	-10877
▁Competent	-10878
▁interaction	-10879
▁congratulate	-10880
unda	-10881
▁Gor	-10882
▁vib	-10883
▁Init	-10884
▁Mess	-10885
▁merc	-10886
▁talks	-10887
▁tooth	-10888
▁Brahma	-10889
▁eleven	-10890
▁matrix	-10891
▁squarely	-10892
▁discussing	-10893
▁practically	-10894
▁collaboration	-10895
asp	-10896
▁HL	-10897
uram	-10898
▁Gop	-10899
▁Jai	-10900
▁Sov	-10901
▁ine	-10902
opard	-10903
▁Repeal	-10904
▁extingu	-10905
▁fiction	-10906
▁postpon	-10907
▁objected	-10908
compliance	-10909
▁compelling	-10910
▁neighbours	-10911
▁interpreting	-10912
qf	-10913
▁GA	-10914
iple	-10915
▁Kat	-10916
▁Fire	-10917
▁fals	-10918
rupted	-10919
▁wings	-10920
▁Declar	-10921
▁butter	-10922
▁islands	-10923
▁addresses	-10924
▁everywhere	-10925
▁unfortunate	-10926
▁confidential	-10927
▁conservation	-10928
ohar	-10929
ulum	-10930
avati	-10931
eeper	-10932
▁Aged	-10933
▁erect	-10934
▁illit	-10935
▁Valley	-10936
▁preventive	-10937
▁predecessor	-10938
bu	-10939
yar	-10940
▁Ess	-10941
▁Indo	-10942
idency	-10943
▁Citiz	-10944
▁photo	-10945
▁teleg	-10946
▁theft	-10947
▁Expert	-10948
▁button	-10949
▁voting	-10950
▁worshi	-10951
▁farming	-10952
▁Provident	-10953
▁Liquidator	-10954
▁Instruments	-10955
agn	-10956
▁EM	-10957
wala	-10958
▁Ult	-10959
▁ice	-10960
▁bund	-10961
▁dedu	-10962
▁tent	-10963
▁appra	-10964
▁Create	-10965
▁Satish	-10966
▁earnest	-10967
▁explicit	-10968
▁therewith	-10969
▁threshold	-10970
▁adjudicate	-10971
▁affiliated	-10972
zy	-10973
acts	-10974
wati	-10975
erman	-10976
▁Sher	-10977
venile	-10978
▁empire	-10979
▁jewell	-10980
▁circuit	-10981
▁coverage	-10982
▁operator	-10983
▁convincing	-10984
▁cha	-10985
ighed	-10986
asters	-10987
▁firms	-10988
▁miles	-10989
▁upset	-10990
▁worry	-10991
manship	-10992
▁Empire	-10993
▁abused	-10994
▁abscond	-10995
▁theatre	-10996
▁enormous	-10997
▁secondly	-10998
▁organisms	-10999
▁healthcare	-11000
oga	-11001
▁Thu	-11002
▁bulk	-11003
icitor	-11004
▁gramm	-11005
▁holid	-11006
▁nerve	-11007
▁Access	-11008
▁sugarcane	-11009
▁advertisements	-11010
abai	-11011
adhy	-11012
aland	-11013
amine	-11014
arked	-11015
▁Arms	-11016
▁mines	-11017
attered	-11018
▁endors	-11019
▁feeding	-11020
▁mailing	-11021
▁breaking	-11022
▁empowers	-11023
▁introduce	-11024
▁Regulatory	-11025
abi	-11026
shaw	-11027
being	-11028
eches	-11029
izers	-11030
ogram	-11031
▁butt	-11032
▁ensh	-11033
▁snow	-11034
ainant	-11035
▁acute	-11036
▁flows	-11037
▁intense	-11038
▁darkness	-11039
▁Following	-11040
▁trustworthy	-11041
arers	-11042
▁NSEL	-11043
▁Poly	-11044
▁Along	-11045
▁detrim	-11046
▁Gwalior	-11047
▁harmful	-11048
▁concrete	-11049
kal	-11050
eren	-11051
▁Mut	-11052
▁Nic	-11053
eship	-11054
▁rose	-11055
▁lover	-11056
▁cigare	-11057
▁modify	-11058
atellite	-11059
▁Command	-11060
▁Minimum	-11061
▁chromos	-11062
▁supplies	-11063
▁Petroleum	-11064
▁panchnama	-11065
▁formulation	-11066
▁permanently	-11067
CS	-11068
▁Oh	-11069
▁DAY	-11070
agues	-11071
▁tells	-11072
▁Object	-11073
▁devoted	-11074
▁abandoned	-11075
▁terminate	-11076
▁adjudicating	-11077
▁Help	-11078
▁desp	-11079
▁Baner	-11080
▁deter	-11081
▁tariff	-11082
▁Clauses	-11083
▁minerals	-11084
▁Political	-11085
▁confirming	-11086
odal	-11087
▁Enc	-11088
▁nep	-11089
▁Camp	-11090
▁Hans	-11091
▁Stock	-11092
▁Truth	-11093
versity	-11094
▁visits	-11095
▁Majesty	-11096
▁damaged	-11097
▁historic	-11098
▁fardbeyan	-11099
▁processed	-11100
▁undertakings	-11101
▁Bush	-11102
▁bias	-11103
▁pest	-11104
▁prox	-11105
ponent	-11106
rowser	-11107
▁misle	-11108
endants	-11109
▁Soviet	-11110
▁ticket	-11111
▁closing	-11112
▁helpless	-11113
nes	-11114
isha	-11115
urai	-11116
yard	-11117
▁Bish	-11118
▁germ	-11119
▁pace	-11120
▁Bhart	-11121
▁tasks	-11122
elihood	-11123
▁differ	-11124
▁Regular	-11125
▁province	-11126
▁reviewed	-11127
▁attaining	-11128
▁enhancing	-11129
▁yesterday	-11130
▁derivative	-11131
▁surprising	-11132
▁Lead	-11133
▁Manj	-11134
▁sees	-11135
▁Sagar	-11136
▁argue	-11137
▁crack	-11138
▁agenda	-11139
▁opponent	-11140
▁summoned	-11141
▁highlight	-11142
▁Innovation	-11143
▁enunciated	-11144
▁prevention	-11145
▁entrepreneurs	-11146
▁AW	-11147
▁Yus	-11148
▁Khas	-11149
▁limb	-11150
▁Pharm	-11151
Section	-11152
▁Undert	-11153
▁cavity	-11154
▁Country	-11155
▁extends	-11156
▁mutually	-11157
▁mentioning	-11158
▁Ga	-11159
▁SPE	-11160
▁gunt	-11161
urated	-11162
▁rescue	-11163
▁Certain	-11164
▁heavily	-11165
▁Sucharita	-11166
HO	-11167
US	-11168
ahi	-11169
beh	-11170
rent	-11171
thal	-11172
▁MOU	-11173
phone	-11174
liness	-11175
▁valued	-11176
▁tension	-11177
▁abnormal	-11178
▁exercises	-11179
▁hereafter	-11180
▁increases	-11181
▁emphasized	-11182
▁sufficiently	-11183
etan	-11184
▁Hit	-11185
▁Inj	-11186
▁Sea	-11187
▁grams	-11188
▁magaz	-11189
▁helpful	-11190
▁musical	-11191
▁graduate	-11192
▁Recommend	-11193
▁disappear	-11194
▁invocation	-11195
wali	-11196
▁Jer	-11197
▁Lak	-11198
▁gla	-11199
▁Nanak	-11200
▁Peeth	-11201
▁attach	-11202
▁winter	-11203
▁regularisation	-11204
▁LP	-11205
▁ors	-11206
ulter	-11207
▁Star	-11208
▁scar	-11209
▁tact	-11210
▁Terror	-11211
▁manual	-11212
▁Washing	-11213
▁dealers	-11214
▁implies	-11215
indranath	-11216
▁Resource	-11217
▁immunity	-11218
▁prohibit	-11219
▁medicines	-11220
▁likelihood	-11221
▁inspiration	-11222
▁Unfortunately	-11223
▁Ut	-11224
acle	-11225
▁sed	-11226
▁Loan	-11227
▁Stamp	-11228
▁Gautam	-11229
▁condol	-11230
▁demarc	-11231
▁windows	-11232
▁unemploy	-11233
▁occupants	-11234
▁omissions	-11235
stitutional	-11236
▁inadequate	-11237
QU	-11238
bir	-11239
inc	-11240
▁Md	-11241
amper	-11242
oting	-11243
vency	-11244
▁Bans	-11245
▁Love	-11246
▁Young	-11247
▁enlar	-11248
ATIONAL	-11249
▁Jewish	-11250
▁dispar	-11251
▁timely	-11252
▁Federal	-11253
▁Document	-11254
▁multiply	-11255
▁Otherwise	-11256
ITION	-11257
gical	-11258
▁Chal	-11259
▁Garg	-11260
▁Mart	-11261
▁Wild	-11262
▁epic	-11263
▁prolong	-11264
▁Whatever	-11265
▁colonial	-11266
▁probable	-11267
▁preventing	-11268
▁Ib	-11269
awar	-11270
ushan	-11271
▁drain	-11272
▁Cannot	-11273
▁bigger	-11274
▁farmer	-11275
▁organic	-11276
▁Personal	-11277
▁behavior	-11278
▁credible	-11279
▁generate	-11280
▁substances	-11281
▁reassessment	-11282
VER	-11283
▁EC	-11284
▁HT	-11285
▁Bra	-11286
▁Get	-11287
▁ICT	-11288
▁acre	-11289
▁hors	-11290
▁favor	-11291
▁keeps	-11292
▁ruler	-11293
▁restore	-11294
▁vendors	-11295
▁promised	-11296
▁classical	-11297
▁irrational	-11298
▁establishments	-11299
▁Pa	-11300
veen	-11301
▁Tom	-11302
amboo	-11303
▁Play	-11304
isible	-11305
▁Track	-11306
▁laugh	-11307
▁lingu	-11308
▁Mukesh	-11309
▁sticks	-11310
▁Leprosy	-11311
▁Quality	-11312
▁readers	-11313
▁recalled	-11314
▁shortage	-11315
▁striking	-11316
▁basically	-11317
▁varieties	-11318
▁Aurangabad	-11319
▁colleagues	-11320
▁concluding	-11321
▁connecting	-11322
▁fabricated	-11323
▁constructive	-11324
▁neighbourhood	-11325
ea	-11326
▁RES	-11327
▁suo	-11328
umped	-11329
▁Nirm	-11330
▁medi	-11331
▁Colony	-11332
▁freely	-11333
▁junior	-11334
▁Agarwal	-11335
▁Kailash	-11336
▁cleared	-11337
▁illicit	-11338
▁lending	-11339
▁traders	-11340
▁believes	-11341
▁integration	-11342
tar	-11343
wat	-11344
ulus	-11345
▁Yam	-11346
plant	-11347
▁hide	-11348
▁mood	-11349
▁vacc	-11350
▁Nigam	-11351
▁Yusuf	-11352
▁scrib	-11353
▁invari	-11354
▁parity	-11355
▁averment	-11356
▁everybody	-11357
▁Ministries	-11358
▁deputation	-11359
alia	-11360
oult	-11361
quer	-11362
▁Light	-11363
▁Minor	-11364
▁Preet	-11365
▁batter	-11366
▁versus	-11367
▁Witness	-11368
▁batsman	-11369
▁confronted	-11370
▁stipulates	-11371
▁restoration	-11372
▁HO	-11373
▁Ber	-11374
▁Narm	-11375
alment	-11376
▁Relief	-11377
▁challan	-11378
▁premise	-11379
▁approaches	-11380
▁instructed	-11381
▁arbitrarily	-11382
▁OS	-11383
eena	-11384
oved	-11385
▁Gos	-11386
▁Cost	-11387
▁icon	-11388
▁maybe	-11389
▁stars	-11390
▁locked	-11391
▁spring	-11392
▁Banking	-11393
▁desires	-11394
▁pillars	-11395
▁Defendants	-11396
▁addressing	-11397
oul	-11398
ayya	-11399
pent	-11400
▁awa	-11401
▁mud	-11402
owing	-11403
▁misuse	-11404
fficiency	-11405
▁sessions	-11406
▁Personnel	-11407
▁defective	-11408
▁incapable	-11409
▁collateral	-11410
apat	-11411
▁gri	-11412
▁rod	-11413
ammal	-11414
▁glad	-11415
▁jung	-11416
▁hyper	-11417
▁loyal	-11418
▁Payment	-11419
▁biggest	-11420
▁distant	-11421
▁subscrib	-11422
▁transmit	-11423
▁composite	-11424
UG	-11425
PSC	-11426
eta	-11427
cope	-11428
▁Dou	-11429
▁Lake	-11430
▁Tuls	-11431
▁rash	-11432
▁ther	-11433
ulance	-11434
▁Cause	-11435
▁Mines	-11436
▁Paswan	-11437
▁Street	-11438
▁Taluka	-11439
▁underw	-11440
▁wooden	-11441
▁neglect	-11442
▁presents	-11443
२०	-11444
noon	-11445
▁LPA	-11446
▁AICTE	-11447
▁Tribe	-11448
▁march	-11449
▁Netaji	-11450
▁blocks	-11451
▁forgot	-11452
▁parcel	-11453
▁serves	-11454
▁worthy	-11455
▁outlook	-11456
▁Gujarati	-11457
▁protocol	-11458
▁allocated	-11459
▁exchanges	-11460
▁incentives	-11461
▁invitation	-11462
▁Prohibition	-11463
has	-11464
matic	-11465
nasty	-11466
▁bride	-11467
▁easier	-11468
▁insist	-11469
▁layout	-11470
▁supers	-11471
▁Complex	-11472
▁Contempt	-11473
▁dramatic	-11474
▁receives	-11475
▁preserved	-11476
▁Srivastava	-11477
▁consortium	-11478
ney	-11479
▁je	-11480
▁Speech	-11481
▁adjour	-11482
▁united	-11483
▁unusual	-11484
▁promotions	-11485
EO	-11486
END	-11487
ocks	-11488
roid	-11489
▁Bor	-11490
▁wil	-11491
▁Near	-11492
▁epis	-11493
▁yard	-11494
▁Desai	-11495
▁Total	-11496
▁modes	-11497
▁Modern	-11498
▁approve	-11499
▁guardian	-11500
▁profound	-11501
▁Washington	-11502
▁conveyance	-11503
▁contradictory	-11504
Ins	-11505
ymph	-11506
▁Lod	-11507
▁Club	-11508
▁neut	-11509
▁Arjun	-11510
▁query	-11511
▁adduce	-11512
▁talked	-11513
▁repairs	-11514
▁database	-11515
▁premature	-11516
▁Succession	-11517
▁transmitted	-11518
▁conventional	-11519
nut	-11520
geon	-11521
omed	-11522
▁bio	-11523
▁rope	-11524
▁Click	-11525
▁Fourth	-11526
▁encouraging	-11527
HAN	-11528
AVAN	-11529
APTER	-11530
▁Privy	-11531
▁begun	-11532
▁brill	-11533
▁enshr	-11534
▁worse	-11535
respass	-11536
▁bitter	-11537
▁disall	-11538
▁confers	-11539
▁genetic	-11540
▁exempted	-11541
▁shifting	-11542
▁Negotiable	-11543
▁favourable	-11544
▁communicate	-11545
▁implications	-11546
▁publications	-11547
rous	-11548
adeep	-11549
▁Azad	-11550
▁Take	-11551
▁guntas	-11552
▁Firstly	-11553
▁Present	-11554
▁intimate	-11555
▁vexatious	-11556
▁entertaining	-11557
aras	-11558
▁switch	-11559
▁nearest	-11560
▁Academic	-11561
▁Japanese	-11562
▁Whenever	-11563
▁announce	-11564
▁initiating	-11565
▁circulation	-11566
▁formalities	-11567
▁transferring	-11568
ivals	-11569
issues	-11570
▁Maharaj	-11571
▁vitamin	-11572
▁reserves	-11573
▁Prosecution	-11574
eds	-11575
log	-11576
utors	-11577
▁Real	-11578
▁font	-11579
▁Media	-11580
▁depict	-11581
▁Russian	-11582
▁mentally	-11583
▁reversed	-11584
▁producers	-11585
▁insufficient	-11586
▁miscellaneous	-11587
TR	-11588
ighth	-11589
▁Long	-11590
▁cous	-11591
▁trek	-11592
iorari	-11593
▁Samaj	-11594
▁exempt	-11595
▁nominee	-11596
▁Northern	-11597
▁concepts	-11598
▁contacts	-11599
▁hypothes	-11600
▁Accountant	-11601
▁panchanama	-11602
▁prosecuted	-11603
isa	-11604
tha	-11605
▁Cri	-11606
tered	-11607
▁eman	-11608
▁stup	-11609
▁Appro	-11610
▁Thank	-11611
▁misbeh	-11612
▁Perform	-11613
▁opinions	-11614
▁Raghunath	-11615
▁enactments	-11616
▁introducing	-11617
si	-11618
▁bene	-11619
▁tant	-11620
▁Broad	-11621
▁labor	-11622
▁confine	-11623
▁mentions	-11624
▁locations	-11625
▁reproduce	-11626
▁Declaration	-11627
▁advancement	-11628
▁supervisory	-11629
▁disqualified	-11630
kes	-11631
araj	-11632
eper	-11633
▁Line	-11634
▁Pack	-11635
▁intu	-11636
▁Paras	-11637
▁blunt	-11638
▁fourt	-11639
▁overw	-11640
▁plane	-11641
plicate	-11642
▁exempl	-11643
▁traced	-11644
▁uncond	-11645
▁vacate	-11646
▁CHAPTER	-11647
▁cooking	-11648
▁hanging	-11649
▁balanced	-11650
▁pertains	-11651
▁requests	-11652
▁trustees	-11653
▁Regarding	-11654
▁questioning	-11655
▁increasingly	-11656
▁participants	-11657
econ	-11658
xide	-11659
▁Muz	-11660
▁Nas	-11661
aksha	-11662
iscal	-11663
point	-11664
▁Asst	-11665
▁Bhub	-11666
▁hire	-11667
▁Juris	-11668
▁defaul	-11669
▁fisher	-11670
▁powder	-11671
▁sketch	-11672
▁massive	-11673
▁Chartered	-11674
▁whereupon	-11675
zed	-11676
▁py	-11677
rage	-11678
▁exh	-11679
▁Four	-11680
▁Purn	-11681
inking	-11682
uniary	-11683
▁advise	-11684
▁unsucc	-11685
▁Freedom	-11686
▁Guidelines	-11687
▁accessible	-11688
▁thoroughly	-11689
hera	-11690
kers	-11691
▁Abs	-11692
▁Bap	-11693
▁Fif	-11694
▁adm	-11695
▁swe	-11696
▁NDPS	-11697
▁shap	-11698
▁ward	-11699
▁skull	-11700
viously	-11701
▁Nation	-11702
▁overse	-11703
▁enlight	-11704
▁presume	-11705
▁unnatural	-11706
▁relatively	-11707
eri	-11708
▁LC	-11709
▁Bye	-11710
▁DRT	-11711
▁Shak	-11712
▁tack	-11713
▁Sugar	-11714
▁Ranjan	-11715
▁tribes	-11716
ographic	-11717
▁heading	-11718
valuation	-11719
▁dissemin	-11720
missibility	-11721
▁generating	-11722
▁encroachment	-11723
▁KV	-11724
▁PL	-11725
arai	-11726
rence	-11727
▁exit	-11728
oining	-11729
▁Rupees	-11730
▁consec	-11731
▁patron	-11732
▁Hanuman	-11733
▁specimen	-11734
▁negligent	-11735
▁radiation	-11736
▁EN	-11737
▁SD	-11738
jeet	-11739
udent	-11740
▁Call	-11741
▁Miss	-11742
▁extr	-11743
▁impe	-11744
▁Mahav	-11745
▁noble	-11746
▁Coming	-11747
▁Rajeev	-11748
▁fought	-11749
▁improb	-11750
▁treaty	-11751
▁players	-11752
▁incentive	-11753
▁travelled	-11754
--	-11755
tas	-11756
▁Fa	-11757
▁GN	-11758
▁COUR	-11759
utical	-11760
▁Course	-11761
▁Reason	-11762
▁pretty	-11763
▁talent	-11764
▁Proceed	-11765
▁carriage	-11766
▁pronouncements	-11767
isers	-11768
peeth	-11769
reams	-11770
▁Fast	-11771
▁palm	-11772
▁Model	-11773
▁larva	-11774
▁Amicus	-11775
▁island	-11776
▁resemb	-11777
▁sometime	-11778
▁responded	-11779
▁dedication	-11780
▁misconceived	-11781
▁Bod	-11782
▁lord	-11783
▁Clerk	-11784
viation	-11785
▁Lahore	-11786
▁Status	-11787
▁loaded	-11788
▁Islands	-11789
▁ensured	-11790
▁surrend	-11791
▁literacy	-11792
▁willingness	-11793
abu	-11794
emia	-11795
umin	-11796
▁unh	-11797
anpur	-11798
▁Dass	-11799
▁Guard	-11800
▁Vikas	-11801
▁hered	-11802
▁honor	-11803
▁sheep	-11804
erating	-11805
▁cooper	-11806
iability	-11807
▁fashion	-11808
▁Sciences	-11809
▁bacteria	-11810
▁equation	-11811
▁mischief	-11812
▁overwhel	-11813
▁Admission	-11814
▁Chaudhary	-11815
▁Organisation	-11816
▁Commissioners	-11817
▁significantly	-11818
tr	-11819
iac	-11820
osa	-11821
arsa	-11822
onut	-11823
▁Tat	-11824
essees	-11825
▁canal	-11826
▁loved	-11827
▁skilled	-11828
▁weighed	-11829
▁Nagaland	-11830
▁crossing	-11831
▁frequent	-11832
▁patterns	-11833
▁tourists	-11834
▁cumulative	-11835
ek	-11836
▁BI	-11837
▁DG	-11838
bind	-11839
odox	-11840
ulam	-11841
▁Den	-11842
▁ITS	-11843
▁tag	-11844
▁Geet	-11845
▁ease	-11846
ridges	-11847
▁Debts	-11848
▁Laxman	-11849
▁Result	-11850
▁Topics	-11851
▁focused	-11852
▁mankind	-11853
▁tissues	-11854
▁Surendra	-11855
▁borrowed	-11856
▁operates	-11857
▁Extension	-11858
▁Himalayas	-11859
▁broadcast	-11860
▁attributable	-11861
▁constituency	-11862
▁BO	-11863
amba	-11864
ludes	-11865
▁Rajiv	-11866
▁intact	-11867
▁thrust	-11868
sections	-11869
▁dominant	-11870
▁envisages	-11871
▁litigants	-11872
▁describing	-11873
▁prosecutor	-11874
▁realization	-11875
▁GP	-11876
▁RA	-11877
ping	-11878
▁axis	-11879
▁Khand	-11880
▁tends	-11881
▁topic	-11882
▁absurd	-11883
▁define	-11884
▁bonafide	-11885
▁Meanwhile	-11886
▁jewellery	-11887
▁expressing	-11888
▁collectively	-11889
▁substitution	-11890
VC	-11891
inh	-11892
▁AL	-11893
▁BH	-11894
iated	-11895
osure	-11896
▁Soon	-11897
▁luck	-11898
▁threw	-11899
▁adults	-11900
▁condem	-11901
▁footing	-11902
aceutical	-11903
▁Mohammad	-11904
▁trespass	-11905
▁obligatory	-11906
▁perversity	-11907
▁Territories	-11908
▁aspirations	-11909
▁testimonies	-11910
▁improvements	-11911
▁VIII	-11912
▁Royal	-11913
▁inequ	-11914
▁heaven	-11915
▁invent	-11916
▁praise	-11917
▁sounds	-11918
▁invoices	-11919
▁disabilities	-11920
EX	-11921
▁Cle	-11922
▁Kas	-11923
▁unm	-11924
lance	-11925
▁calm	-11926
▁keys	-11927
▁mobil	-11928
▁texts	-11929
▁Forces	-11930
▁deaths	-11931
▁Express	-11932
▁chamber	-11933
▁pursued	-11934
▁abstract	-11935
▁cheating	-11936
▁estoppel	-11937
▁producer	-11938
▁reasoned	-11939
▁veracity	-11940
▁comprises	-11941
▁kms	-11942
▁odd	-11943
aming	-11944
enary	-11945
▁Gaur	-11946
▁Poon	-11947
▁tons	-11948
iniyam	-11949
▁Dilip	-11950
▁Vedas	-11951
▁taste	-11952
iencies	-11953
▁revival	-11954
▁attesting	-11955
▁successive	-11956
▁declarations	-11957
cha	-11958
▁FT	-11959
hesis	-11960
ulled	-11961
▁Laxmi	-11962
▁anger	-11963
▁insol	-11964
▁Naresh	-11965
▁charas	-11966
▁wounds	-11967
▁briefly	-11968
▁signing	-11969
▁measured	-11970
▁associates	-11971
▁quantities	-11972
▁unilateral	-11973
▁identifying	-11974
fl	-11975
BER	-11976
oty	-11977
wami	-11978
▁voc	-11979
andom	-11980
▁brut	-11981
▁inex	-11982
bhanga	-11983
▁Varan	-11984
▁gazet	-11985
▁Santro	-11986
▁gentle	-11987
inations	-11988
▁Jyotish	-11989
▁publicity	-11990
IGH	-11991
hoc	-11992
▁Ras	-11993
▁Pram	-11994
▁penis	-11995
▁Motion	-11996
▁buying	-11997
▁faster	-11998
▁kidney	-11999
▁stable	-12000
▁Seventh	-12001
▁Various	-12002
▁exagger	-12003
▁attested	-12004
▁manpower	-12005
▁programming	-12006
kim	-12007
▁XII	-12008
▁jur	-12009
▁rot	-12010
▁degr	-12011
▁mole	-12012
▁David	-12013
▁Value	-12014
▁liver	-12015
▁saint	-12016
▁SPEECH	-12017
▁superv	-12018
▁inherit	-12019
▁malafide	-12020
▁discontin	-12021
▁explaining	-12022
▁practitioner	-12023
iba	-12024
llah	-12025
▁Yoj	-12026
▁monu	-12027
▁pond	-12028
itudes	-12029
▁Grand	-12030
▁urgency	-12031
▁Bilaspur	-12032
▁promoter	-12033
▁Referring	-12034
▁imparting	-12035
▁equipments	-12036
▁phenomenon	-12037
▁privileges	-12038
▁psychological	-12039
ky	-12040
serv	-12041
▁jack	-12042
▁wash	-12043
▁campus	-12044
▁explos	-12045
▁wholes	-12046
▁African	-12047
▁highway	-12048
▁sincere	-12049
▁counting	-12050
▁discount	-12051
▁receiver	-12052
▁magistrate	-12053
▁ER	-12054
arus	-12055
▁tap	-12056
▁Trad	-12057
▁feas	-12058
▁inel	-12059
enable	-12060
▁shout	-12061
▁hazard	-12062
▁speeches	-12063
▁Governing	-12064
▁philosoph	-12065
▁certification	-12066
xic	-12067
▁Py	-12068
utra	-12069
vable	-12070
▁Khar	-12071
▁hunt	-12072
matter	-12073
opping	-12074
▁Maint	-12075
▁blame	-12076
▁Father	-12077
▁Within	-12078
▁daniel	-12079
▁discern	-12080
▁tainted	-12081
▁Pollution	-12082
▁afternoon	-12083
▁intimated	-12084
▁attractive	-12085
▁meaningful	-12086
▁intervening	-12087
▁Mc	-12088
tain	-12089
▁REP	-12090
▁HLEC	-12091
▁cows	-12092
▁slip	-12093
ivable	-12094
▁Param	-12095
▁artist	-12096
▁bottles	-12097
▁threats	-12098
▁Ayurveda	-12099
▁detection	-12100
▁perception	-12101
▁Chairperson	-12102
▁RC	-12103
▁puts	-12104
▁Jagat	-12105
▁intra	-12106
▁monop	-12107
▁enters	-12108
▁fright	-12109
▁occupy	-12110
▁muscles	-12111
▁reposted	-12112
▁sentencing	-12113
▁constructions	-12114
awn	-12115
hati	-12116
▁Inv	-12117
cated	-12118
▁Conv	-12119
apuram	-12120
ardens	-12121
reight	-12122
▁Pawan	-12123
▁hears	-12124
▁Lastly	-12125
▁demise	-12126
▁Edition	-12127
▁Pradhan	-12128
▁Consolid	-12129
▁Badruddin	-12130
▁partially	-12131
▁disclosing	-12132
Is	-12133
▁Fee	-12134
▁Read	-12135
▁lift	-12136
▁sper	-12137
ighter	-12138
▁tight	-12139
▁grains	-12140
▁plural	-12141
▁federal	-12142
▁nullity	-12143
▁streams	-12144
▁fraction	-12145
▁inconven	-12146
▁licences	-12147
▁overseas	-12148
▁vulnerable	-12149
▁shareholder	-12150
▁Establishment	-12151
rik	-12152
uja	-12153
rian	-12154
▁Niz	-12155
▁Arts	-12156
▁spin	-12157
▁stem	-12158
▁guess	-12159
▁kings	-12160
▁prays	-12161
▁Shimla	-12162
▁Unable	-12163
▁upload	-12164
▁crossed	-12165
▁touched	-12166
▁unequiv	-12167
▁emission	-12168
▁mistakes	-12169
▁solitary	-12170
▁eliminate	-12171
▁conciliation	-12172
adar	-12173
umps	-12174
▁Jat	-12175
▁Abdu	-12176
▁accur	-12177
astipur	-12178
▁Nagpur	-12179
▁hearts	-12180
▁Varanasi	-12181
▁artistic	-12182
▁expedient	-12183
▁recognise	-12184
▁somewhere	-12185
▁repetition	-12186
▁categorical	-12187
▁unfortunately	-12188
▁DA	-12189
ingh	-12190
▁bes	-12191
▁pin	-12192
akshi	-12193
ibhai	-12194
▁garb	-12195
▁Kabir	-12196
▁dwell	-12197
▁bought	-12198
▁raises	-12199
▁breeding	-12200
▁connections	-12201
▁unauthorised	-12202
opsy	-12203
▁Suk	-12204
▁True	-12205
▁cess	-12206
▁sine	-12207
▁Exhib	-12208
▁disin	-12209
uminous	-12210
▁Ganges	-12211
▁Mangal	-12212
▁Journal	-12213
▁consign	-12214
▁Tripathi	-12215
▁Adhiniyam	-12216
▁considerably	-12217
alp	-12218
obi	-12219
rell	-12220
▁Hus	-12221
▁XXX	-12222
▁bin	-12223
▁Auto	-12224
▁cure	-12225
thened	-12226
▁Drugs	-12227
▁Mitra	-12228
▁raped	-12229
▁equals	-12230
▁trials	-12231
▁versions	-12232
▁Choudhury	-12233
▁adjourned	-12234
▁complying	-12235
▁enshrined	-12236
▁impressed	-12237
▁Conditions	-12238
▁governmental	-12239
oys	-12240
RISH	-12241
▁RTI	-12242
oused	-12243
▁heir	-12244
▁react	-12245
▁smell	-12246
▁Madhub	-12247
▁Studies	-12248
▁matches	-12249
▁publish	-12250
▁readily	-12251
▁pursuing	-12252
▁chemicals	-12253
▁Integrated	-12254
occ	-12255
▁Say	-12256
▁cup	-12257
▁lake	-12258
iences	-12259
▁Taxes	-12260
▁accel	-12261
▁bunch	-12262
▁indef	-12263
▁nodes	-12264
▁Rather	-12265
▁divers	-12266
actorily	-12267
istrates	-12268
▁abdomen	-12269
▁recruit	-12270
▁royalty	-12271
▁trustee	-12272
▁watching	-12273
▁Choudhary	-12274
▁ancestral	-12275
▁dissolved	-12276
▁associations	-12277
▁strengthened	-12278
aki	-12279
rab	-12280
ulg	-12281
▁Kad	-12282
▁lis	-12283
ariya	-12284
▁Cutt	-12285
mother	-12286
▁anxious	-12287
▁entitle	-12288
▁prudent	-12289
▁networks	-12290
▁touching	-12291
▁precisely	-12292
▁elementary	-12293
▁Presidential	-12294
▁interrogation	-12295
IFR	-12296
avas	-12297
▁Dip	-12298
acles	-12299
inath	-12300
▁Ghaz	-12301
▁flee	-12302
icular	-12303
oultry	-12304
▁beach	-12305
▁unamb	-12306
▁bamboo	-12307
▁detenu	-12308
▁sphere	-12309
▁viable	-12310
▁nervous	-12311
▁Bhagalpur	-12312
▁implicate	-12313
▁continuity	-12314
In	-12315
KAR	-12316
amal	-12317
oose	-12318
▁Sany	-12319
▁hier	-12320
▁orth	-12321
▁Sangh	-12322
▁Zilla	-12323
▁embra	-12324
▁dreams	-12325
▁Iranian	-12326
▁dictionary	-12327
▁............	-12328
▁#	-12329
▁IX	-12330
ENCE	-12331
▁Have	-12332
▁bell	-12333
▁optim	-12334
▁corpus	-12335
▁transc	-12336
▁Benefit	-12337
▁Lakshmi	-12338
▁Madurai	-12339
▁checked	-12340
▁arbitrators	-12341
▁discrepancy	-12342
IX	-12343
▁NB	-12344
vind	-12345
▁Saw	-12346
▁Sus	-12347
▁wet	-12348
▁Insp	-12349
▁Proc	-12350
▁Veer	-12351
▁repeat	-12352
▁unanim	-12353
▁dialogue	-12354
▁narration	-12355
▁Honourable	-12356
▁biological	-12357
GR	-12358
ibh	-12359
▁Ju	-12360
omas	-12361
▁Vic	-12362
▁rup	-12363
▁Alam	-12364
▁sums	-12365
acular	-12366
▁Space	-12367
aneswar	-12368
▁deeper	-12369
▁purity	-12370
▁denomin	-12371
▁forgery	-12372
▁pretext	-12373
▁Purchase	-12374
▁withheld	-12375
▁Islamists	-12376
▁intervene	-12377
▁perfectly	-12378
▁prosecute	-12379
▁sponsored	-12380
▁consolidated	-12381
▁satisfactorily	-12382
ulu	-12383
hesh	-12384
▁Said	-12385
▁http	-12386
▁Heard	-12387
▁midst	-12388
onymous	-12389
▁camera	-12390
ographer	-12391
▁Monitor	-12392
▁apprent	-12393
▁clarify	-12394
▁funding	-12395
▁protein	-12396
▁Implement	-12397
▁Judiciary	-12398
▁accusation	-12399
▁terrorists	-12400
abs	-12401
▁ster	-12402
ulously	-12403
▁Sports	-12404
▁prints	-12405
........	-12406
▁William	-12407
▁checking	-12408
▁tolerance	-12409
▁tribunals	-12410
eda	-12411
▁Ny	-12412
▁Gad	-12413
▁Has	-12414
▁wip	-12415
odara	-12416
▁spon	-12417
▁swit	-12418
▁untr	-12419
▁Sikkim	-12420
▁pushed	-12421
▁Cuttack	-12422
▁broadly	-12423
▁browser	-12424
▁mixture	-12425
▁explains	-12426
▁isolated	-12427
▁Panchnama	-12428
▁algorithm	-12429
▁reception	-12430
▁condonation	-12431
▁constrained	-12432
▁promotional	-12433
▁OM	-12434
▁Hyd	-12435
▁asp	-12436
▁Mary	-12437
▁silk	-12438
▁Armed	-12439
▁Indus	-12440
▁Ansari	-12441
▁advent	-12442
▁genius	-12443
▁weaker	-12444
ensively	-12445
▁Details	-12446
▁clients	-12447
▁defense	-12448
▁winning	-12449
forcement	-12450
▁Obviously	-12451
▁associate	-12452
▁Complainant	-12453
▁developmental	-12454
▁IF	-12455
iven	-12456
▁Jab	-12457
▁Auro	-12458
▁wave	-12459
igible	-12460
▁smart	-12461
▁trite	-12462
▁Custom	-12463
▁Should	-12464
▁conserv	-12465
▁qualify	-12466
▁streets	-12467
▁convened	-12468
▁equipped	-12469
▁amenities	-12470
▁Provisions	-12471
▁gratification	-12472
▁modifications	-12473
ugn	-12474
cons	-12475
▁SLP	-12476
▁Tea	-12477
▁aug	-12478
▁mol	-12479
▁Scale	-12480
▁brave	-12481
▁Contin	-12482
▁notion	-12483
▁uphold	-12484
▁Acharya	-12485
▁hardware	-12486
▁superint	-12487
das	-12488
bled	-12489
eced	-12490
▁FIRs	-12491
▁Muns	-12492
▁Requ	-12493
▁Team	-12494
▁aunt	-12495
▁ware	-12496
▁movie	-12497
▁nucle	-12498
▁Safety	-12499
▁intend	-12500
▁packet	-12501
▁Windows	-12502
▁dragged	-12503
▁panchayat	-12504
▁upholding	-12505
▁Profession	-12506
▁Departmental	-12507
idas	-12508
▁Sai	-12509
▁hut	-12510
oding	-12511
▁Down	-12512
master	-12513
uously	-12514
▁Video	-12515
▁recru	-12516
▁Deepak	-12517
▁afforded	-12518
▁remitted	-12519
▁Allowance	-12520
▁accidents	-12521
▁festivals	-12522
▁surrendered	-12523
▁threatening	-12524
▁FR	-12525
▁Malk	-12526
abetes	-12527
▁minim	-12528
▁miser	-12529
▁snake	-12530
▁Mamlat	-12531
▁Rajput	-12532
▁Shakti	-12533
▁Spirit	-12534
▁Versus	-12535
▁Display	-12536
▁Reports	-12537
▁weighing	-12538
▁mediation	-12539
▁alteration	-12540
▁resolutions	-12541
opl	-12542
▁Bis	-12543
▁auto	-12544
ussion	-12545
▁mango	-12546
▁Challen	-12547
▁coconut	-12548
▁abolition	-12549
▁gathering	-12550
▁inherited	-12551
▁paramount	-12552
▁precedents	-12553
▁utilization	-12554
▁gro	-12555
▁Exts	-12556
▁TRAN	-12557
▁amaz	-12558
▁arts	-12559
ESSAGE	-12560
▁sixth	-12561
▁troops	-12562
▁decimal	-12563
▁singing	-12564
▁provider	-12565
▁concentration	-12566
ARE	-12567
ugal	-12568
▁Run	-12569
▁bug	-12570
▁fer	-12571
▁Kali	-12572
▁glory	-12573
▁authors	-12574
▁Banerjee	-12575
▁Movement	-12576
▁disbelieve	-12577
▁intentionally	-12578
allu	-12579
▁Tap	-12580
asive	-12581
▁laps	-12582
▁nurt	-12583
▁obsc	-12584
▁pump	-12585
ranted	-12586
▁shoes	-12587
anishad	-12588
▁humble	-12589
▁fitness	-12590
▁keyboard	-12591
▁adjoining	-12592
orticulture	-12593
▁Scientific	-12594
▁irreparable	-12595
AYS	-12596
oil	-12597
pes	-12598
andan	-12599
▁fond	-12600
▁Griev	-12601
▁burns	-12602
▁pharm	-12603
▁realm	-12604
▁rigid	-12605
▁vagina	-12606
▁Library	-12607
▁implicit	-12608
▁predomin	-12609
▁Americans	-12610
▁mortgaged	-12611
▁redressal	-12612
▁hypothesis	-12613
dam	-12614
rot	-12615
uka	-12616
upp	-12617
eers	-12618
▁fan	-12619
outed	-12620
▁Jews	-12621
acific	-12622
venues	-12623
▁Menon	-12624
▁Shant	-12625
▁excav	-12626
▁ports	-12627
▁vicar	-12628
▁custod	-12629
▁envelop	-12630
▁prescribing	-12631
HAL	-12632
hot	-12633
nar	-12634
itra	-12635
lesh	-12636
▁Pop	-12637
▁SER	-12638
▁Tik	-12639
▁hol	-12640
aiver	-12641
brane	-12642
▁Memo	-12643
▁pion	-12644
owners	-12645
▁harsh	-12646
▁insight	-12647
▁intends	-12648
▁rituals	-12649
▁persuaded	-12650
▁recruited	-12651
▁retention	-12652
▁compliment	-12653
▁temporarily	-12654
win	-12655
▁CB	-12656
inge	-12657
orms	-12658
othe	-12659
front	-12660
▁Iron	-12661
▁Kush	-12662
▁Rate	-12663
▁mant	-12664
▁spir	-12665
anchal	-12666
making	-12667
▁Solar	-12668
▁toward	-12669
▁Agrawal	-12670
▁MESSAGE	-12671
▁Sanjeev	-12672
▁Darbhanga	-12673
▁pecuniary	-12674
▁Constituent	-12675
▁accountability	-12676
▁reasonableness	-12677
soon	-12678
▁Ken	-12679
▁Unt	-12680
▁ton	-12681
ancer	-12682
otism	-12683
scale	-12684
▁Rana	-12685
▁Saha	-12686
▁ages	-12687
▁india	-12688
▁Muzaff	-12689
▁Serial	-12690
▁franch	-12691
▁writes	-12692
position	-12693
▁desktop	-12694
▁directs	-12695
▁somehow	-12696
▁possibilities	-12697
vara	-12698
▁Prit	-12699
▁elev	-12700
▁pink	-12701
▁flying	-12702
▁worksh	-12703
▁Default	-12704
▁bidding	-12705
▁deprive	-12706
▁printer	-12707
▁Councils	-12708
▁forehead	-12709
▁promptly	-12710
▁Mamlatdar	-12711
▁canvassed	-12712
▁inception	-12713
▁autonomous	-12714
aba	-12715
iscl	-12716
▁Word	-12717
▁grab	-12718
▁hung	-12719
▁Blood	-12720
▁Mills	-12721
▁therap	-12722
graduate	-12723
▁anteced	-12724
▁promulg	-12725
▁segment	-12726
▁Protocol	-12727
▁devotees	-12728
▁endorsed	-12729
▁diligence	-12730
▁responses	-12731
▁Electronics	-12732
▁unsuccessful	-12733
▁Bre	-12734
▁cyl	-12735
▁ske	-12736
▁Chin	-12737
▁Roll	-12738
rolled	-12739
▁Manik	-12740
▁Panel	-12741
▁Honble	-12742
▁terrib	-12743
▁Chatter	-12744
▁enlarge	-12745
Inspector	-12746
▁persuade	-12747
▁assigning	-12748
▁magnitude	-12749
▁warranted	-12750
ato	-12751
▁Ud	-12752
▁Ast	-12753
▁Squ	-12754
ullah	-12755
▁sport	-12756
▁Needless	-12757
▁pesticides	-12758
▁presenting	-12759
▁productive	-12760
▁Enforcement	-12761
▁counselling	-12762
▁disobedience	-12763
२१	-12764
nty	-12765
appu	-12766
▁Kaz	-12767
▁Pin	-12768
achar	-12769
riers	-12770
▁Link	-12771
aution	-12772
bursed	-12773
▁chick	-12774
▁Budget	-12775
▁humans	-12776
▁nephew	-12777
economic	-12778
▁corners	-12779
▁enemies	-12780
▁stamped	-12781
▁Specific	-12782
▁inspected	-12783
▁Christians	-12784
▁experiments	-12785
▁accompanying	-12786
▁admissibility	-12787
ipp	-12788
term	-12789
▁ADV	-12790
▁Best	-12791
▁earm	-12792
▁Bhutan	-12793
▁Sindhi	-12794
▁connot	-12795
chnology	-12796
▁Kannada	-12797
▁succumb	-12798
▁vesting	-12799
▁Surender	-12800
▁enlarged	-12801
▁fourteen	-12802
▁consensus	-12803
▁ascertaining	-12804
▁authorization	-12805
▁distinguishable	-12806
angle	-12807
eless	-12808
ietal	-12809
ulses	-12810
▁Duty	-12811
▁push	-12812
before	-12813
▁magic	-12814
▁mercy	-12815
▁Curiae	-12816
▁compel	-12817
▁plains	-12818
▁recruits	-12819
▁prospects	-12820
▁spreading	-12821
▁accidental	-12822
▁forthcoming	-12823
▁Applications	-12824
▁capabilities	-12825
def	-12826
▁mm	-12827
irms	-12828
▁IPv	-12829
▁Job	-12830
▁OBC	-12831
▁Put	-12832
▁RAM	-12833
▁Tib	-12834
isive	-12835
venty	-12836
ouring	-12837
wealth	-12838
▁Adalat	-12839
▁Immedi	-12840
▁affair	-12841
▁laches	-12842
▁Mohalla	-12843
▁accepts	-12844
▁drought	-12845
▁Electrical	-12846
▁capability	-12847
▁purchasers	-12848
▁retrospect	-12849
OUN	-12850
agu	-12851
veli	-12852
anker	-12853
▁Priy	-12854
▁pays	-12855
▁Phase	-12856
▁Advert	-12857
▁Bihari	-12858
▁judged	-12859
▁Emperor	-12860
▁chances	-12861
▁movable	-12862
▁NATIONAL	-12863
▁Himalayan	-12864
▁invention	-12865
▁conception	-12866
▁BS	-12867
▁sew	-12868
▁Bodh	-12869
▁Syed	-12870
▁peak	-12871
nership	-12872
▁kumari	-12873
▁planet	-12874
▁tenable	-12875
▁conceded	-12876
▁cultures	-12877
▁vertical	-12878
▁conceived	-12879
▁adequately	-12880
▁satisfying	-12881
▁Bhubaneswar	-12882
▁confessional	-12883
▁contemplates	-12884
▁Radhakrishnan	-12885
MI	-12886
asy	-12887
bat	-12888
UMAR	-12889
▁isn	-12890
andal	-12891
▁Very	-12892
▁slog	-12893
▁Brief	-12894
▁moves	-12895
▁Perman	-12896
▁assent	-12897
▁merger	-12898
▁reluct	-12899
▁sensit	-12900
▁Trading	-12901
▁evaluate	-12902
▁peripher	-12903
▁literally	-12904
▁Contractor	-12905
▁Statistical	-12906
EA	-12907
Sh	-12908
fect	-12909
▁PET	-12910
▁Anth	-12911
▁Bhim	-12912
urable	-12913
▁Mandi	-12914
▁reign	-12915
▁rhyth	-12916
▁coffee	-12917
▁couldn	-12918
▁poured	-12919
▁reaches	-12920
▁appealed	-12921
▁maturity	-12922
▁medically	-12923
▁nevertheless	-12924
nis	-12925
rus	-12926
▁DP	-12927
eded	-12928
well	-12929
▁pel	-12930
▁Brij	-12931
▁Type	-12932
▁lone	-12933
▁mart	-12934
ducted	-12935
▁encry	-12936
▁scrap	-12937
▁smoke	-12938
▁trick	-12939
▁Museum	-12940
▁encumb	-12941
▁enquire	-12942
▁expense	-12943
▁advertised	-12944
▁eyewitnesses	-12945
▁GM	-12946
▁Sid	-12947
pread	-12948
▁Fest	-12949
▁Host	-12950
▁actor	-12951
▁Transl	-12952
▁decrees	-12953
▁destiny	-12954
▁extraneous	-12955
▁invariably	-12956
▁variations	-12957
▁imperialism	-12958
▁innovations	-12959
▁deficiencies	-12960
▁administrator	-12961
▁IO	-12962
aidu	-12963
▁Vaj	-12964
▁Item	-12965
▁JUST	-12966
▁Prob	-12967
▁ears	-12968
▁fool	-12969
▁Diplom	-12970
▁cousin	-12971
ffective	-12972
▁restruct	-12973
▁Administr	-12974
▁Rehabilitation	-12975
meas	-12976
▁Gok	-12977
▁Fair	-12978
▁Tool	-12979
essors	-12980
▁Patil	-12981
▁hatred	-12982
aternity	-12983
▁signals	-12984
▁airports	-12985
▁factories	-12986
▁intensity	-12987
▁forwarding	-12988
▁publishing	-12989
▁extensively	-12990
▁Jyotishpeeth	-12991
uta	-12992
▁JN	-12993
ucid	-12994
udra	-12995
▁Jog	-12996
itime	-12997
stream	-12998
▁Chowk	-12999
▁Quran	-13000
▁Sikhs	-13001
▁tries	-13002
▁stores	-13003
▁verbal	-13004
▁Earlier	-13005
▁nominal	-13006
▁Aurobind	-13007
▁dwelling	-13008
▁exposure	-13009
▁uncertain	-13010
▁certiorari	-13011
▁committees	-13012
▁demolition	-13013
▁statistics	-13014
▁deprivation	-13015
▁justifiable	-13016
▁Rabindranath	-13017
▁economically	-13018
sex	-13019
▁Cad	-13020
▁Mak	-13021
▁nit	-13022
Judge	-13023
forma	-13024
▁Durg	-13025
▁Soni	-13026
▁Vill	-13027
▁Chann	-13028
▁Siwan	-13029
▁fides	-13030
▁maker	-13031
▁Arabia	-13032
▁curric	-13033
▁fiscal	-13034
▁habits	-13035
▁jungle	-13036
▁ration	-13037
▁vimana	-13038
▁adulter	-13039
▁untouch	-13040
▁volumes	-13041
▁Lokayukta	-13042
▁expanding	-13043
▁weightage	-13044
▁structural	-13045
Reg	-13046
ads	-13047
awa	-13048
fare	-13049
▁CRL	-13050
▁EVE	-13051
▁OFF	-13052
▁tum	-13053
aided	-13054
ettled	-13055
▁Queen	-13056
▁Rahul	-13057
▁virus	-13058
▁Jaipur	-13059
▁Period	-13060
▁ninety	-13061
stituting	-13062
▁Intellig	-13063
▁mandates	-13064
▁Governors	-13065
▁incidence	-13066
▁propriety	-13067
▁complement	-13068
▁dimensions	-13069
▁procurement	-13070
ulal	-13071
▁lots	-13072
▁Arabs	-13073
▁excuse	-13074
▁beliefs	-13075
▁edition	-13076
▁forensic	-13077
▁Malayalam	-13078
▁advantages	-13079
▁Partnership	-13080
▁grandfather	-13081
▁obstruction	-13082
ela	-13083
oni	-13084
obar	-13085
rator	-13086
▁fing	-13087
▁Dutta	-13088
▁Nayak	-13089
▁dimin	-13090
▁denies	-13091
▁detect	-13092
▁noting	-13093
▁restrain	-13094
▁enforcing	-13095
▁Ultimately	-13096
ocy	-13097
heda	-13098
tery	-13099
▁Deo	-13100
▁hem	-13101
▁sue	-13102
▁umb	-13103
▁lacks	-13104
▁Thomas	-13105
▁waiver	-13106
▁audited	-13107
▁abetment	-13108
▁controls	-13109
▁indulged	-13110
▁Processing	-13111
▁horizontal	-13112
▁undergoing	-13113
▁characterized	-13114
YA	-13115
lay	-13116
oja	-13117
▁ji	-13118
quit	-13119
▁Mic	-13120
▁sen	-13121
ignty	-13122
valid	-13123
▁Kart	-13124
▁Lower	-13125
▁Ocean	-13126
▁irrit	-13127
▁mills	-13128
▁phones	-13129
▁assumes	-13130
▁guiding	-13131
▁Exhibits	-13132
▁frequency	-13133
▁inflation	-13134
▁prosecuting	-13135
▁Nevertheless	-13136
five	-13137
▁Raw	-13138
gging	-13139
▁Qual	-13140
▁caut	-13141
▁Vicer	-13142
▁deems	-13143
▁tears	-13144
verting	-13145
▁decent	-13146
itorious	-13147
▁Tenancy	-13148
▁honoured	-13149
▁parental	-13150
▁Dwarkanath	-13151
▁overlooked	-13152
anty	-13153
▁Bac	-13154
▁Own	-13155
cetic	-13156
plate	-13157
▁Turn	-13158
▁loud	-13159
▁motu	-13160
▁immig	-13161
orrhage	-13162
▁Mechan	-13163
▁Venkat	-13164
▁founder	-13165
▁availing	-13166
▁Aurobindo	-13167
▁expensive	-13168
▁wonderful	-13169
▁Production	-13170
▁headquarters	-13171
▁legislations	-13172
▁Ara	-13173
▁SID	-13174
apsed	-13175
arman	-13176
athan	-13177
▁Left	-13178
▁Step	-13179
▁ling	-13180
▁maid	-13181
▁uter	-13182
▁wrap	-13183
▁Paris	-13184
▁Surya	-13185
▁meets	-13186
▁posed	-13187
ickshaw	-13188
▁Amount	-13189
▁Kishan	-13190
▁insult	-13191
▁Mineral	-13192
▁dynasty	-13193
▁formally	-13194
▁interact	-13195
▁Tehsildar	-13196
▁cartridges	-13197
▁tun	-13198
▁appr	-13199
opathy	-13200
▁Radha	-13201
▁foods	-13202
▁numer	-13203
esthetic	-13204
▁Cricket	-13205
▁affixed	-13206
▁ongoing	-13207
witnesses	-13208
▁Material	-13209
▁Vehicles	-13210
▁ordering	-13211
▁cultivated	-13212
▁preservation	-13213
afi	-13214
▁Maz	-13215
▁RFP	-13216
illai	-13217
▁dual	-13218
akhand	-13219
▁Saran	-13220
▁crude	-13221
▁debit	-13222
▁Charan	-13223
▁Volume	-13224
▁dinner	-13225
▁Offices	-13226
▁carrier	-13227
▁disable	-13228
▁tickets	-13229
▁realistic	-13230
▁conferring	-13231
▁professionals	-13232
▁ul	-13233
uded	-13234
▁moh	-13235
odium	-13236
▁Yash	-13237
▁rans	-13238
▁Greek	-13239
▁worst	-13240
▁execut	-13241
▁ladies	-13242
▁JUSTICE	-13243
▁Abdullah	-13244
▁certainty	-13245
▁purchases	-13246
▁businesses	-13247
▁illiterate	-13248
▁hereinbefore	-13249
▁deliberations	-13250
▁incorporation	-13251
ESI	-13252
▁gh	-13253
▁ail	-13254
▁Patt	-13255
▁Hemant	-13256
▁clouds	-13257
▁lesson	-13258
▁makers	-13259
▁rarely	-13260
▁sharma	-13261
▁superf	-13262
▁Auditor	-13263
▁crystal	-13264
▁lateral	-13265
▁disaster	-13266
▁earnings	-13267
▁deviation	-13268
▁searching	-13269
▁transfers	-13270
cho	-13271
olf	-13272
▁Kon	-13273
▁Tan	-13274
▁hrs	-13275
▁Kend	-13276
▁SHRI	-13277
apters	-13278
urring	-13279
▁Yojana	-13280
▁Singles	-13281
▁recital	-13282
▁Physical	-13283
▁charging	-13284
▁reciproc	-13285
▁confessed	-13286
osy	-13287
▁MLC	-13288
chron	-13289
osted	-13290
▁Kore	-13291
▁Waqf	-13292
▁tiny	-13293
inates	-13294
▁payee	-13295
▁resum	-13296
▁Golden	-13297
▁encash	-13298
▁explore	-13299
▁Arunachal	-13300
▁Elementary	-13301
▁fulfilment	-13302
▁reflection	-13303
▁suggesting	-13304
▁inadmissible	-13305
alu	-13306
hek	-13307
▁Bo	-13308
ikar	-13309
▁Gate	-13310
▁Parv	-13311
▁beet	-13312
▁fare	-13313
agraha	-13314
liable	-13315
▁Given	-13316
▁abate	-13317
▁Dharam	-13318
▁museum	-13319
ologists	-13320
▁Schemes	-13321
▁Irrigation	-13322
▁conditional	-13323
ANT	-13324
angi	-13325
▁BAL	-13326
▁Dab	-13327
▁ICC	-13328
▁Pul	-13329
▁sty	-13330
lings	-13331
▁Poth	-13332
▁Prav	-13333
verage	-13334
▁Audio	-13335
▁angry	-13336
▁vivid	-13337
▁gender	-13338
▁leased	-13339
▁legend	-13340
▁Pacific	-13341
▁seconds	-13342
▁swelling	-13343
▁Permanent	-13344
▁divisions	-13345
▁exchanged	-13346
▁fulfilling	-13347
▁confiscation	-13348
▁depreciation	-13349
GP	-13350
ago	-13351
▁Jose	-13352
▁Rich	-13353
▁Summ	-13354
▁daco	-13355
ralaya	-13356
company	-13357
itement	-13358
Division	-13359
▁Invalid	-13360
▁Ravindra	-13361
▁survival	-13362
▁enthusiasm	-13363
▁intelligent	-13364
ipt	-13365
ket	-13366
osph	-13367
▁Nom	-13368
mohan	-13369
▁Activ	-13370
▁Tahas	-13371
▁ambig	-13372
▁games	-13373
▁knock	-13374
▁toile	-13375
▁bounds	-13376
▁buffal	-13377
▁dictum	-13378
▁enrich	-13379
▁varies	-13380
▁Normally	-13381
▁abolished	-13382
▁secretary	-13383
▁Provincial	-13384
▁improbable	-13385
▁liberation	-13386
▁mechanisms	-13387
▁precaution	-13388
Us	-13389
ii	-13390
▁SIT	-13391
▁haw	-13392
▁Floor	-13393
▁Naval	-13394
▁rites	-13395
examine	-13396
▁induce	-13397
▁lapsed	-13398
▁oldest	-13399
▁senses	-13400
▁autopsy	-13401
▁deficit	-13402
▁Objection	-13403
▁telecommun	-13404
▁concessions	-13405
▁concurrence	-13406
▁contractors	-13407
▁specialized	-13408
▁KI	-13409
▁Gob	-13410
▁Jul	-13411
▁rab	-13412
▁Much	-13413
▁torn	-13414
ENSION	-13415
▁Draft	-13416
▁memor	-13417
▁parad	-13418
▁photoc	-13419
ideration	-13420
▁Manufact	-13421
▁petroleum	-13422
▁comparable	-13423
▁compulsion	-13424
▁sentiments	-13425
▁Ill	-13426
▁Lay	-13427
▁WOR	-13428
nings	-13429
▁Answ	-13430
▁disl	-13431
▁limbs	-13432
▁patta	-13433
▁mosque	-13434
▁videos	-13435
▁Viceroy	-13436
▁clarity	-13437
▁compare	-13438
▁handing	-13439
▁lifting	-13440
▁everyday	-13441
▁variable	-13442
▁Upanishad	-13443
▁agricultur	-13444
▁sovereignty	-13445
OME	-13446
phal	-13447
shot	-13448
wadi	-13449
▁CAV	-13450
▁dub	-13451
▁Mans	-13452
▁Mich	-13453
▁Pray	-13454
▁Samb	-13455
▁cens	-13456
itably	-13457
▁Birth	-13458
▁Units	-13459
▁admir	-13460
▁loses	-13461
▁semen	-13462
▁Benches	-13463
▁satellite	-13464
▁preferably	-13465
▁similarity	-13466
organisation	-13467
▁comparative	-13468
▁appropriately	-13469
▁SR	-13470
atri	-13471
babu	-13472
bury	-13473
face	-13474
ikip	-13475
inar	-13476
▁Hab	-13477
▁Hir	-13478
▁Suf	-13479
▁aqu	-13480
▁mac	-13481
FAESI	-13482
▁horn	-13483
▁misp	-13484
iating	-13485
▁Naidu	-13486
▁honey	-13487
▁unfit	-13488
▁zones	-13489
▁postal	-13490
▁chronic	-13491
▁varying	-13492
▁morality	-13493
▁opposing	-13494
▁packages	-13495
▁consuming	-13496
▁respected	-13497
▁ineligible	-13498
▁distinctive	-13499
▁empowerment	-13500
▁philosophical	-13501
lph	-13502
agan	-13503
▁BCC	-13504
▁Cant	-13505
▁Nizam	-13506
▁sworn	-13507
▁delays	-13508
▁random	-13509
▁regret	-13510
ructuous	-13511
▁typical	-13512
▁Medicine	-13513
▁enjoying	-13514
▁engineers	-13515
▁Fundamental	-13516
▁Commonwealth	-13517
▁connectivity	-13518
▁corporations	-13519
▁investigations	-13520
HER	-13521
IVE	-13522
deo	-13523
have	-13524
▁Kak	-13525
▁MFA	-13526
▁Sch	-13527
▁Syn	-13528
lease	-13529
▁Plot	-13530
▁Koran	-13531
▁Nanda	-13532
▁Radio	-13533
▁Suraj	-13534
▁hopes	-13535
▁Prince	-13536
▁dialog	-13537
▁Digital	-13538
▁acquies	-13539
▁passive	-13540
▁Southern	-13541
▁confused	-13542
▁instinct	-13543
▁membrane	-13544
▁rainfall	-13545
▁Securities	-13546
▁tantamount	-13547
▁relationships	-13548
vil	-13549
ATED	-13550
usha	-13551
▁cot	-13552
▁tol	-13553
field	-13554
▁Dham	-13555
▁gest	-13556
▁brick	-13557
▁ranks	-13558
▁remit	-13559
▁wives	-13560
▁Vikram	-13561
▁Yamuna	-13562
▁behest	-13563
▁landed	-13564
▁merged	-13565
▁Systems	-13566
▁neutral	-13567
▁ranging	-13568
▁subtract	-13569
▁penalties	-13570
otechnology	-13571
▁Samastipur	-13572
▁individually	-13573
▁ba	-13574
pose	-13575
stan	-13576
ucks	-13577
vial	-13578
▁Imm	-13579
▁LPG	-13580
▁Pud	-13581
▁lal	-13582
CTION	-13583
▁bars	-13584
▁soph	-13585
▁debar	-13586
▁vests	-13587
▁Ashish	-13588
▁subtle	-13589
izations	-13590
▁nursing	-13591
▁pursuit	-13592
▁socially	-13593
▁Solicitor	-13594
▁infructuous	-13595
▁Palestinians	-13596
▁disbursement	-13597
KA	-13598
OD	-13599
ede	-13600
▁SS	-13601
anki	-13602
▁len	-13603
claim	-13604
eterm	-13605
▁Camb	-13606
▁Jord	-13607
▁exon	-13608
▁Goyal	-13609
▁Island	-13610
▁indemn	-13611
▁unexpl	-13612
▁ascetic	-13613
▁vitiate	-13614
▁Vadodara	-13615
▁mandated	-13616
▁painting	-13617
▁relieved	-13618
▁romantic	-13619
▁breathing	-13620
▁supplying	-13621
▁Concession	-13622
▁Institutes	-13623
OW	-13624
ico	-13625
▁xx	-13626
adia	-13627
▁NOC	-13628
▁kin	-13629
angal	-13630
mities	-13631
▁coord	-13632
▁gradu	-13633
▁surely	-13634
ikipedia	-13635
▁Pradeep	-13636
▁Turkish	-13637
▁cluster	-13638
▁suffice	-13639
▁validly	-13640
renchment	-13641
▁lifetime	-13642
▁surgical	-13643
▁Generally	-13644
▁economies	-13645
▁employers	-13646
▁countrymen	-13647
▁anniversary	-13648
▁inaugurated	-13649
aga	-13650
ifts	-13651
last	-13652
ptic	-13653
amind	-13654
iples	-13655
▁Amin	-13656
itting	-13657
usible	-13658
▁Treas	-13659
▁indis	-13660
▁Sultan	-13661
▁petrol	-13662
▁redund	-13663
▁repugn	-13664
▁reside	-13665
▁Andaman	-13666
▁inhabit	-13667
▁monsoon	-13668
▁Graduate	-13669
▁distress	-13670
▁enacting	-13671
▁therefor	-13672
▁Democratic	-13673
▁Performance	-13674
do	-13675
▁na	-13676
urit	-13677
▁Anj	-13678
▁Lol	-13679
▁Ros	-13680
▁tin	-13681
▁Viet	-13682
▁barg	-13683
▁bere	-13684
▁escal	-13685
▁opted	-13686
▁slope	-13687
▁Commod	-13688
▁rubber	-13689
▁Manohar	-13690
▁Records	-13691
▁Palestine	-13692
▁medicinal	-13693
▁deductions	-13694
▁supramental	-13695
▁Intelligence	-13696
vy	-13697
bra	-13698
▁Ki	-13699
igate	-13700
▁lean	-13701
▁whis	-13702
▁Field	-13703
▁earthqu	-13704
▁fingers	-13705
▁provinces	-13706
▁Uttarakhand	-13707
▁HR	-13708
▁ov	-13709
▁sa	-13710
made	-13711
pati	-13712
▁Jun	-13713
▁Kitt	-13714
▁Meas	-13715
▁nice	-13716
▁Mahas	-13717
▁alike	-13718
▁Manish	-13719
▁splend	-13720
▁abusing	-13721
▁hearsay	-13722
▁loading	-13723
▁deterior	-13724
▁investor	-13725
▁orthodox	-13726
▁warrants	-13727
▁Chatterjee	-13728
▁Mantralaya	-13729
▁afterwards	-13730
▁indicative	-13731
▁judicially	-13732
▁facilitating	-13733
▁neighbouring	-13734
▁shareholding	-13735
२२	-13736
cop	-13737
bert	-13738
ivas	-13739
olen	-13740
askar	-13741
ollen	-13742
▁cane	-13743
RISHNA	-13744
▁bliss	-13745
▁cheap	-13746
▁rupee	-13747
▁Altern	-13748
▁dollar	-13749
▁throat	-13750
▁washed	-13751
▁Bhushan	-13752
▁Tourism	-13753
▁Tripura	-13754
▁cordial	-13755
▁induced	-13756
▁Accident	-13757
▁analysed	-13758
▁pressing	-13759
▁untenable	-13760
▁unreliable	-13761
▁altercation	-13762
gedy	-13763
ilee	-13764
▁Loh	-13765
▁Fate	-13766
▁NCTE	-13767
▁Goods	-13768
▁capac	-13769
▁flesh	-13770
▁Hamachi	-13771
▁firearm	-13772
▁outward	-13773
▁planted	-13774
▁Statutes	-13775
▁apposite	-13776
▁avoiding	-13777
▁inquired	-13778
▁Terrorism	-13779
▁defaulter	-13780
▁evaluated	-13781
▁constituent	-13782
LD	-13783
▁ts	-13784
adha	-13785
rium	-13786
ttes	-13787
▁ANN	-13788
▁Cop	-13789
▁Pot	-13790
▁Kund	-13791
▁cock	-13792
▁Pipes	-13793
▁intox	-13794
▁urine	-13795
imental	-13796
▁Ashram	-13797
▁lights	-13798
▁License	-13799
▁Vietnam	-13800
▁implead	-13801
▁diabetes	-13802
▁inaction	-13803
▁spending	-13804
▁stronger	-13805
▁disciples	-13806
▁forgotten	-13807
▁Litigation	-13808
▁systematic	-13809
▁Appointment	-13810
▁Recommendation	-13811
BH	-13812
rec	-13813
▁CF	-13814
fast	-13815
ihad	-13816
itha	-13817
▁ray	-13818
▁sli	-13819
adhar	-13820
▁Doct	-13821
itates	-13822
lacing	-13823
▁Areas	-13824
▁COURT	-13825
▁Saheb	-13826
▁demer	-13827
▁Accept	-13828
▁Sandeep	-13829
▁battery	-13830
▁dollars	-13831
▁unaided	-13832
▁exceeded	-13833
▁foremost	-13834
▁proposes	-13835
▁totality	-13836
▁Statutory	-13837
▁affording	-13838
▁perceived	-13839
▁delivering	-13840
▁misleading	-13841
▁consignment	-13842
NAT	-13843
▁Nok	-13844
▁SEZ	-13845
▁nic	-13846
▁pale	-13847
iscrim	-13848
▁cargo	-13849
▁trigg	-13850
▁Gandhar	-13851
▁Install	-13852
▁Manilal	-13853
▁heinous	-13854
▁autonomy	-13855
▁magnetic	-13856
▁visitors	-13857
▁appraisal	-13858
▁worldwide	-13859
▁inordinate	-13860
▁fertilizers	-13861
▁specification	-13862
AA	-13863
eek	-13864
urg	-13865
▁--	-13866
▁DC	-13867
▁Rash	-13868
oucher	-13869
▁Sadar	-13870
▁calam	-13871
▁shame	-13872
▁ships	-13873
▁tribe	-13874
▁Khasra	-13875
▁Tehsil	-13876
▁Greater	-13877
▁Inspect	-13878
▁Shastri	-13879
▁airport	-13880
▁handled	-13881
▁SARFAESI	-13882
▁stressed	-13883
▁enquiries	-13884
▁Submission	-13885
▁circulated	-13886
▁redemption	-13887
▁Immediately	-13888
▁disposition	-13889
▁nationalism	-13890
▁Communication	-13891
kay	-13892
oqu	-13893
mani	-13894
▁Panj	-13895
▁ampl	-13896
▁jute	-13897
▁nest	-13898
▁noon	-13899
▁tone	-13900
▁abide	-13901
▁storm	-13902
▁Examin	-13903
▁Jordan	-13904
warranted	-13905
▁embodied	-13906
▁vicinity	-13907
▁Evolution	-13908
▁collusion	-13909
▁condemned	-13910
▁narrative	-13911
▁attributes	-13912
▁endeavours	-13913
▁unambiguous	-13914
▁inconvenience	-13915
▁Implementation	-13916
xx	-13917
▁ip	-13918
born	-13919
ethe	-13920
▁Sao	-13921
▁bog	-13922
▁hub	-13923
arium	-13924
ulator	-13925
▁boost	-13926
▁dairy	-13927
▁colours	-13928
▁Buddhism	-13929
▁baseless	-13930
▁attribute	-13931
▁intestine	-13932
▁isolation	-13933
▁reiterate	-13934
▁Tahasildar	-13935
▁coordinate	-13936
▁Vivekananda	-13937
WA	-13938
▁Es	-13939
▁ME	-13940
AKSH	-13941
anag	-13942
mith	-13943
▁Kes	-13944
araja	-13945
owner	-13946
▁Rout	-13947
▁Send	-13948
▁unac	-13949
rishna	-13950
atience	-13951
▁TRANSP	-13952
▁hunger	-13953
▁commend	-13954
▁doubted	-13955
▁entrust	-13956
▁lacking	-13957
▁parting	-13958
▁provident	-13959
Gen	-13960
rics	-13961
▁PIN	-13962
▁VRS	-13963
anium	-13964
inees	-13965
▁Mass	-13966
▁Zila	-13967
▁erad	-13968
▁twin	-13969
▁Still	-13970
iration	-13971
▁Sudhir	-13972
▁micros	-13973
▁Advance	-13974
▁harness	-13975
▁researc	-13976
▁trivial	-13977
▁Memorial	-13978
▁ministry	-13979
▁spectrum	-13980
▁Initially	-13981
▁minorities	-13982
▁Maintenance	-13983
▁practicable	-13984
▁consolidation	-13985
AKA	-13986
thi	-13987
ahal	-13988
tier	-13989
▁API	-13990
▁Fig	-13991
▁rib	-13992
▁une	-13993
ankaj	-13994
▁chol	-13995
▁harb	-13996
▁hole	-13997
▁knee	-13998
▁lend	-13999
▁spur	-14000
▁lungs	-14001
▁Demand	-14002
▁Pramod	-14003
▁catena	-14004
▁drawer	-14005
▁virtual	-14006
▁clearing	-14007
▁emotions	-14008
▁dissatisf	-14009
▁disbelieved	-14010
▁transformed	-14011
▁expectations	-14012
▁IB	-14013
▁VS	-14014
deed	-14015
post	-14016
▁Bhu	-14017
▁Rig	-14018
heres	-14019
▁Hamas	-14020
▁Metro	-14021
▁remitt	-14022
▁Applying	-14023
▁Supervis	-14024
▁condoned	-14025
▁interval	-14026
▁numbered	-14027
▁increment	-14028
▁vegetable	-14029
▁Monitoring	-14030
▁candidature	-14031
▁unwarranted	-14032
▁upgradation	-14033
brid	-14034
etus	-14035
▁Lac	-14036
▁NRI	-14037
arted	-14038
▁MBBS	-14039
ponder	-14040
▁yards	-14041
ductive	-14042
▁Pillai	-14043
▁embarr	-14044
▁immort	-14045
▁oppose	-14046
▁pledge	-14047
▁ransom	-14048
▁conject	-14049
▁Europeans	-14050
▁nutrition	-14051
▁particles	-14052
▁prolonged	-14053
▁reopening	-14054
ITH	-14055
ATES	-14056
anqu	-14057
iler	-14058
ilst	-14059
▁Bik	-14060
▁Bhup	-14061
▁Dash	-14062
▁Maul	-14063
▁NIOS	-14064
▁agro	-14065
▁gram	-14066
▁lien	-14067
▁nurs	-14068
▁zeal	-14069
ardhan	-14070
ivance	-14071
ughter	-14072
venant	-14073
▁Coast	-14074
▁Karan	-14075
▁inacc	-14076
▁standi	-14077
▁summon	-14078
▁Courses	-14079
▁Jyotirm	-14080
▁lectures	-14081
▁stranger	-14082
▁Represent	-14083
▁Revolution	-14084
▁expiration	-14085
▁indefinite	-14086
▁reconstruction	-14087
GE	-14088
GS	-14089
pse	-14090
conn	-14091
qbal	-14092
▁DTA	-14093
▁lin	-14094
orate	-14095
▁Pond	-14096
▁Wing	-14097
▁drum	-14098
▁kids	-14099
adhyay	-14100
viable	-14101
▁Crown	-14102
▁overl	-14103
ructural	-14104
▁Asutosh	-14105
▁episode	-14106
▁upgrade	-14107
▁delegate	-14108
▁procured	-14109
▁earmarked	-14110
▁finalized	-14111
▁misplaced	-14112
▁provincial	-14113
▁Magistrates	-14114
▁Muzaffarpur	-14115
▁conflicting	-14116
▁recommending	-14117
cm	-14118
ARI	-14119
cot	-14120
imet	-14121
▁Cash	-14122
▁KIAD	-14123
▁Ankit	-14124
▁Emerg	-14125
▁Ratan	-14126
▁proxy	-14127
▁torch	-14128
General	-14129
▁losing	-14130
▁pulled	-14131
▁Brother	-14132
▁marital	-14133
▁poultry	-14134
▁intensive	-14135
▁Plaintiffs	-14136
▁connivance	-14137
▁Conciliation	-14138
▁reimbursement	-14139
▁Hum	-14140
▁Lee	-14141
▁Nit	-14142
▁SEL	-14143
▁Sex	-14144
▁aus	-14145
▁ink	-14146
▁Moti	-14147
▁Sarp	-14148
▁stro	-14149
itious	-14150
usalem	-14151
▁notew	-14152
▁Animal	-14153
▁tamper	-14154
▁coastal	-14155
▁inspite	-14156
▁Products	-14157
▁drawings	-14158
▁kilogram	-14159
▁moderate	-14160
▁salaries	-14161
▁Jerusalem	-14162
▁elephants	-14163
▁plausible	-14164
▁multiplier	-14165
▁meritorious	-14166
hee	-14167
▁ho	-14168
ette	-14169
▁Kul	-14170
▁gal	-14171
itius	-14172
▁Keep	-14173
▁Meal	-14174
▁Shat	-14175
▁cros	-14176
▁dent	-14177
▁Almast	-14178
▁Ground	-14179
▁Lolita	-14180
▁symbols	-14181
▁Festival	-14182
▁Madhubani	-14183
▁TRANSPORT	-14184
▁assistant	-14185
▁noteworthy	-14186
▁withdrawing	-14187
▁probabilities	-14188
TPA	-14189
zer	-14190
ante	-14191
olly	-14192
▁GDP	-14193
▁ISO	-14194
▁Miz	-14195
▁SIM	-14196
astra	-14197
endum	-14198
human	-14199
liers	-14200
▁Chaw	-14201
▁Chet	-14202
▁Film	-14203
▁Fold	-14204
▁Kach	-14205
▁Lala	-14206
▁Poet	-14207
▁SERV	-14208
▁stig	-14209
teenth	-14210
▁Frame	-14211
▁embry	-14212
▁incul	-14213
▁infant	-14214
▁sophist	-14215
▁confront	-14216
▁terrible	-14217
▁Exception	-14218
▁teachings	-14219
▁replacement	-14220
EB	-14221
JEE	-14222
ITED	-14223
abar	-14224
▁FTIL	-14225
▁unch	-14226
akshmi	-14227
▁Daily	-14228
olation	-14229
▁deadly	-14230
▁explan	-14231
umerable	-14232
▁artists	-14233
▁predict	-14234
unciation	-14235
▁dealings	-14236
▁linkages	-14237
▁monopoly	-14238
▁ambiguity	-14239
▁attracting	-14240
▁retrenchment	-14241
hik	-14242
▁PA	-14243
▁ld	-14244
igha	-14245
▁HON	-14246
atore	-14247
imity	-14248
oresh	-14249
▁BIFR	-14250
▁Bhoj	-14251
▁Kaush	-14252
▁gifts	-14253
▁tiger	-14254
▁typed	-14255
▁buried	-14256
▁routes	-14257
▁stolen	-14258
▁welcom	-14259
▁arrayed	-14260
▁seventh	-14261
▁PETITION	-14262
▁succeeds	-14263
▁agitation	-14264
▁selecting	-14265
▁adjournment	-14266
sey	-14267
voc	-14268
▁LL	-14269
asti	-14270
udev	-14271
▁Beh	-14272
▁Kha	-14273
▁MUK	-14274
▁imb	-14275
marks	-14276
▁Budh	-14277
▁SAYS	-14278
▁Same	-14279
▁clerk	-14280
▁digit	-14281
▁glaci	-14282
▁roles	-14283
▁waves	-14284
▁Chaluk	-14285
▁Dental	-14286
▁Summit	-14287
▁crafts	-14288
▁smoking	-14289
▁targets	-14290
▁Applicant	-14291
▁brilliant	-14292
▁estimates	-14293
▁Jyotirmath	-14294
▁concurrently	-14295
▁authoritative	-14296
▁inconsistency	-14297
Ps	-14298
INK	-14299
anny	-14300
otes	-14301
▁vel	-14302
▁NGOs	-14303
▁Subs	-14304
erving	-14305
▁Intro	-14306
▁Large	-14307
▁Puran	-14308
▁Dharma	-14309
▁cinema	-14310
▁mirror	-14311
▁uncert	-14312
▁centers	-14313
▁lasting	-14314
▁parking	-14315
▁Devendra	-14316
▁decrease	-14317
▁infected	-14318
▁prevents	-14319
▁Mauritius	-14320
▁furniture	-14321
▁specifying	-14322
▁succeeding	-14323
uis	-14324
▁Vr	-14325
anna	-14326
aryn	-14327
iraj	-14328
parte	-14329
▁NEET	-14330
called	-14331
▁camel	-14332
▁unreg	-14333
▁Mosque	-14334
▁horses	-14335
▁sevent	-14336
▁Between	-14337
▁indulge	-14338
▁vaginal	-14339
▁crystall	-14340
▁magazine	-14341
▁Affidavit	-14342
▁evidently	-14343
▁favourite	-14344
▁succumbed	-14345
▁depositing	-14346
▁hereditary	-14347
▁transplant	-14348
▁Cooperation	-14349
▁concealment	-14350
▁erroneously	-14351
OND	-14352
auc	-14353
▁Ox	-14354
iman	-14355
▁Dad	-14356
arial	-14357
▁pipe	-14358
▁guest	-14359
▁metic	-14360
irement	-14361
▁aggrav	-14362
▁counts	-14363
▁infect	-14364
imbatore	-14365
▁Workmen	-14366
▁critics	-14367
▁tractor	-14368
▁resigned	-14369
▁rotation	-14370
▁Relations	-14371
▁Wikipedia	-14372
▁hierarchy	-14373
▁scientist	-14374
▁nationalist	-14375
IAN	-14376
lad	-14377
ansi	-14378
teen	-14379
▁PAR	-14380
▁mes	-14381
eline	-14382
▁Nokia	-14383
▁grows	-14384
▁naked	-14385
▁ninet	-14386
▁rider	-14387
▁smugg	-14388
ampered	-14389
uscript	-14390
▁Garden	-14391
▁Kittur	-14392
▁Sunita	-14393
▁themes	-14394
▁Vehicle	-14395
▁renders	-14396
▁tribute	-14397
▁Sarojini	-14398
▁clothing	-14399
▁shopping	-14400
▁welcomed	-14401
▁assembled	-14402
▁providers	-14403
▁Coimbatore	-14404
▁cancelling	-14405
▁impediment	-14406
▁sanctioning	-14407
▁unjustified	-14408
▁overwhelming	-14409
cotic	-14410
least	-14411
▁Heav	-14412
▁Pant	-14413
asaheb	-14414
▁Youth	-14415
▁pests	-14416
▁Rohtas	-14417
▁ceases	-14418
▁condone	-14419
▁refunded	-14420
▁Presently	-14421
▁intending	-14422
▁depression	-14423
▁linguistic	-14424
▁scholarship	-14425
▁Professional	-14426
▁inflammation	-14427
ASS	-14428
isk	-14429
▁IM	-14430
Tube	-14431
apse	-14432
▁Gal	-14433
▁ank	-14434
▁cab	-14435
▁cel	-14436
anish	-14437
▁Mian	-14438
▁obey	-14439
▁Farid	-14440
assador	-14441
▁evolve	-14442
▁Relying	-14443
▁restaur	-14444
▁washing	-14445
▁Universal	-14446
▁paintings	-14447
▁subsistence	-14448
▁Consultation	-14449
can	-14450
ania	-14451
avur	-14452
▁HIV	-14453
▁Meer	-14454
▁Prop	-14455
▁ours	-14456
ritsar	-14457
▁Bhagav	-14458
▁Option	-14459
▁copper	-14460
▁lapses	-14461
▁roster	-14462
▁Citizens	-14463
▁aesthetic	-14464
▁companion	-14465
▁Literature	-14466
▁insecticides	-14467
▁specifications	-14468
▁superintendence	-14469
IO	-14470
.--	-14471
iro	-14472
▁AID	-14473
▁PDF	-14474
olish	-14475
▁alph	-14476
▁onto	-14477
▁trip	-14478
atible	-14479
▁boxes	-14480
▁moist	-14481
▁enjoin	-14482
piratory	-14483
▁cabinet	-14484
▁offline	-14485
▁refuses	-14486
▁Backward	-14487
▁Sarpanch	-14488
▁acquaint	-14489
▁ancillary	-14490
▁formulate	-14491
▁Assistance	-14492
▁intermediate	-14493
▁reservations	-14494
▁unconditional	-14495
Ind	-14496
appy	-14497
ball	-14498
▁Wal	-14499
▁Swed	-14500
▁brah	-14501
appeal	-14502
▁Incre	-14503
▁bonus	-14504
▁Delete	-14505
▁Sunder	-14506
▁academ	-14507
▁filter	-14508
▁heights	-14509
▁resides	-14510
▁worried	-14511
idespread	-14512
▁eighteen	-14513
▁noticing	-14514
▁prestige	-14515
▁Different	-14516
▁Emergency	-14517
▁ambulance	-14518
▁possesses	-14519
▁surprised	-14520
▁capacities	-14521
▁liquidator	-14522
TO	-14523
ULT	-14524
▁Ky	-14525
▁PB	-14526
▁Ro	-14527
▁SM	-14528
orph	-14529
oven	-14530
▁Was	-14531
▁rum	-14532
▁RERA	-14533
▁jeep	-14534
racted	-14535
▁Iqbal	-14536
▁Choose	-14537
▁minded	-14538
▁equated	-14539
▁freight	-14540
▁tragedy	-14541
▁wedding	-14542
▁cigarettes	-14543
▁terminating	-14544
▁complainants	-14545
UF	-14546
list	-14547
uate	-14548
▁Apr	-14549
▁Bay	-14550
▁Kum	-14551
ercul	-14552
isons	-14553
orily	-14554
▁Decc	-14555
▁User	-14556
▁gran	-14557
▁kick	-14558
ispens	-14559
ubilee	-14560
▁Zonal	-14561
▁hindi	-14562
▁promiss	-14563
▁relinqu	-14564
▁delicate	-14565
▁militant	-14566
▁throwing	-14567
▁Religious	-14568
▁preponder	-14569
▁rectified	-14570
▁liquidated	-14571
▁propounded	-14572
▁Proceedings	-14573
▁utilisation	-14574
OSS	-14575
VAT	-14576
las	-14577
▁BJ	-14578
▁Kr	-14579
leep	-14580
▁DEP	-14581
▁Dog	-14582
▁bif	-14583
▁Bhan	-14584
[...]
