<unk>	0
<s>	0
</s>	0
UuRrLl	0
DdAaTtEe	0
NnUuMm	0
▁t	-0
he	-1
▁a	-2
▁the	-3
in	-4
▁o	-5
re	-6
on	-7
er	-8
at	-9
en	-10
▁of	-11
▁s	-12
ed	-13
is	-14
▁,	-15
it	-16
▁c	-17
▁p	-18
▁w	-19
▁.	-20
nd	-21
▁b	-22
ion	-23
▁in	-24
or	-25
▁f	-26
ar	-27
es	-28
an	-29
al	-30
▁to	-31
as	-32
▁d	-33
ou	-34
ing	-35
ic	-36
▁and	-37
ent	-38
▁h	-39
▁m	-40
▁th	-41
▁re	-42
le	-43
ct	-44
ro	-45
▁n	-46
▁be	-47
▁is	-48
▁T	-49
▁S	-50
▁e	-51
ce	-52
▁C	-53
ot	-54
id	-55
os	-56
▁A	-57
▁that	-58
ation	-59
▁I	-60
il	-61
us	-62
ut	-63
om	-64
ve	-65
▁l	-66
▁on	-67
im	-68
et	-69
ment	-70
ad	-71
▁for	-72
ur	-73
ly	-74
▁P	-75
▁con	-76
▁as	-77
▁The	-78
am	-79
ap	-80
▁by	-81
▁pro	-82
▁or	-83
▁g	-84
▁de	-85
▁su	-86
st	-87
her	-88
▁&	-89
▁was	-90
pp	-91
▁not	-92
ll	-93
ch	-94
ri	-95
ate	-96
▁u	-97
▁wh	-98
ver	-99
our	-100
▁an	-101
se	-102
ay	-103
▁wit	-104
▁M	-105
ow	-106
ir	-107
ant	-108
▁it	-109
ain	-110
▁st	-111
ld	-112
if	-113
▁R	-114
ter	-115
▁with	-116
▁B	-117
apos	-118
ig	-119
ere	-120
▁he	-121
▁app	-122
ab	-123
ul	-124
▁H	-125
qu	-126
ect	-127
ess	-128
ers	-129
▁D	-130
▁)	-131
▁(	-132
▁has	-133
ition	-134
ol	-135
▁ex	-136
▁N	-137
res	-138
▁com	-139
ge	-140
and	-141
▁v	-142
ourt	-143
ist	-144
▁al	-145
ra	-146
ak	-147
▁are	-148
ated	-149
est	-150
ity	-151
▁-	-152
cc	-153
ore	-154
ich	-155
od	-156
ther	-157
end	-158
▁which	-159
▁at	-160
▁G	-161
ud	-162
▁ha	-163
▁le	-164
▁this	-165
art	-166
▁sh	-167
nder	-168
rom	-169
iv	-170
um	-171
▁res	-172
▁/	-173
ould	-174
ence	-175
▁Court	-176
ort	-177
nt	-178
ec	-179
▁O	-180
▁from	-181
ies	-182
▁under	-183
gh	-184
la	-185
▁E	-186
▁In	-187
etition	-188
▁have	-189
ase	-190
▁y	-191
ive	-192
ial	-193
ure	-194
ice	-195
▁L	-196
un	-197
em	-198
▁his	-199
ted	-200
▁there	-201
ard	-202
▁petition	-203
ell	-204
▁W	-205
▁been	-206
so	-207
ction	-208
pon	-209
ill	-210
all	-211
▁j	-212
pl	-213
▁acc	-214
▁cont	-215
▁any	-216
op	-217
red	-218
ust	-219
ned	-220
▁F	-221
ord	-222
▁fa	-223
▁sub	-224
▁K	-225
oc	-226
▁dis	-227
aid	-228
▁whe	-229
ear	-230
ff	-231
able	-232
▁ad	-233
ance	-234
▁also	-235
▁J	-236
▁per	-237
▁se	-238
▁case	-239
th	-240
mit	-241
ie	-242
▁ch	-243
▁ab	-244
▁can	-245
ia	-246
ame	-247
▁had	-248
ary	-249
▁It	-250
▁r	-251
▁ev	-252
▁:	-253
▁all	-254
▁no	-255
der	-256
lic	-257
fore	-258
▁ag	-259
used	-260
ag	-261
▁Ind	-262
▁part	-263
▁int	-264
sion	-265
▁im	-266
ous	-267
ac	-268
▁were	-269
▁such	-270
ision	-271
over	-272
▁other	-273
ire	-274
pt	-275
du	-276
igh	-277
▁comp	-278
▁prov	-279
▁Th	-280
ution	-281
▁St	-282
▁k	-283
▁rec	-284
per	-285
▁ar	-286
ade	-287
ue	-288
age	-289
▁No	-290
▁sp	-291
mis	-292
ount	-293
ind	-294
ound	-295
ough	-296
ide	-297
▁tr	-298
▁said	-299
pond	-300
▁ne	-301
▁cons	-302
ip	-303
▁inc	-304
▁en	-305
▁order	-306
ict	-307
▁would	-308
▁off	-309
▁Act	-310
ib	-311
▁dec	-312
ee	-313
▁V	-314
erv	-315
fter	-316
pos	-317
ome	-318
out	-319
pondent	-320
sel	-321
use	-322
▁qu	-323
▁petitioner	-324
rit	-325
ical	-326
aw	-327
▁un	-328
port	-329
▁U	-330
ime	-331
▁reg	-332
ection	-333
▁pl	-334
ass	-335
erson	-336
ied	-337
ish	-338
▁we	-339
▁who	-340
ans	-341
ub	-342
▁their	-343
▁pres	-344
▁do	-345
▁gr	-346
▁pos	-347
ations	-348
oun	-349
▁He	-350
overn	-351
ru	-352
▁person	-353
ong	-354
ced	-355
▁tak	-356
▁made	-357
▁respondent	-358
aint	-359
▁rel	-360
orm	-361
▁me	-362
▁one	-363
▁out	-364
iz	-365
▁but	-366
ree	-367
oin	-368
istr	-369
▁Ch	-370
iff	-371
▁its	-372
ments	-373
▁am	-374
ellant	-375
▁so	-376
▁Com	-377
▁De	-378
ident	-379
▁lear	-380
ered	-381
▁accused	-382
▁India	-383
▁pre	-384
ail	-385
av	-386
ult	-387
▁wor	-388
▁may	-389
▁ob	-390
▁mat	-391
ased	-392
▁fact	-393
mitted	-394
▁will	-395
▁def	-396
▁they	-397
ness	-398
▁him	-399
one	-400
ast	-401
▁man	-402
▁only	-403
overnment	-404
▁year	-405
▁appellant	-406
ok	-407
▁learned	-408
▁time	-409
pect	-410
og	-411
stit	-412
▁her	-413
▁State	-414
ific	-415
ile	-416
ces	-417
ine	-418
are	-419
▁again	-420
▁pr	-421
mission	-422
ove	-423
rib	-424
idence	-425
ry	-426
▁if	-427
▁As	-428
ings	-429
ach	-430
ious	-431
uth	-432
▁before	-433
ory	-434
ject	-435
hed	-436
▁ent	-437
▁same	-438
ght	-439
▁applic	-440
ik	-441
ise	-442
▁Sh	-443
▁Re	-444
▁ri	-445
▁ref	-446
▁;	-447
▁Ex	-448
▁sc	-449
▁ass	-450
▁iss	-451
▁ind	-452
me	-453
ual	-454
ood	-455
▁em	-456
▁after	-457
▁inv	-458
▁jud	-459
▁inf	-460
ang	-461
▁law	-462
▁consid	-463
ath	-464
ention	-465
▁you	-466
▁Government	-467
▁Su	-468
urther	-469
ty	-470
▁evidence	-471
▁where	-472
▁shall	-473
.0	-474
uthor	-475
▁ac	-476
ber	-477
▁This	-478
erm	-479
amp	-480
▁when	-481
▁dated	-482
oy	-483
not	-484
ating	-485
inal	-486
ah	-487
el	-488
iew	-489
▁against	-490
▁There	-491
▁fil	-492
▁them	-493
▁imp	-494
very	-495
vel	-496
▁being	-497
▁Con	-498
▁record	-499
▁tw	-500
ates	-501
▁should	-502
▁court	-503
▁requ	-504
ost	-505
▁writ	-506
ign	-507
ight	-508
ert	-509
▁cla	-510
aj	-511
▁work	-512
▁inter	-513
ities	-514
▁pur	-515
oint	-516
ose	-517
▁pla	-518
▁up	-519
▁right	-520
▁conc	-521
▁pol	-522
▁On	-523
▁pass	-524
ounsel	-525
▁into	-526
ank	-527
▁cannot	-528
▁act	-529
▁giv	-530
▁about	-531
ark	-532
own	-533
▁state	-534
▁bec	-535
▁further	-536
ward	-537
ex	-538
▁fir	-539
ceed	-540
ract	-541
▁cl	-542
ian	-543
irect	-544
▁disc	-545
▁provision	-546
rough	-547
▁two	-548
oll	-549
▁comm	-550
▁mak	-551
▁present	-552
▁serv	-553
▁PW	-554
ular	-555
▁over	-556
ite	-557
▁these	-558
leg	-559
nce	-560
led	-561
stitution	-562
▁0	-563
▁witness	-564
ason	-565
ause	-566
ower	-567
wn	-568
ublic	-569
ens	-570
ress	-571
old	-572
ffic	-573
▁proper	-574
▁kn	-575
pre	-576
▁set	-577
amin	-578
ative	-579
ack	-580
▁author	-581
estion	-582
ute	-583
▁att	-584
eal	-585
ond	-586
lect	-587
ained	-588
▁spec	-589
▁dece	-590
▁rem	-591
sec	-592
▁some	-593
act	-594
▁stated	-595
rial	-596
▁land	-597
ays	-598
▁rep	-599
ever	-600
dition	-601
▁char	-602
▁could	-603
▁view	-604
ved	-605
▁report	-606
▁deceased	-607
een	-608
▁matter	-609
▁bet	-610
ci	-611
▁she	-612
uring	-613
ession	-614
▁more	-615
▁counsel	-616
▁taken	-617
ational	-618
ild	-619
▁first	-620
▁held	-621
any	-622
▁our	-623
▁even	-624
▁filed	-625
▁issu	-626
▁Pro	-627
▁judg	-628
▁proceed	-629
▁trans	-630
▁reason	-631
ised	-632
lud	-633
eral	-634
ature	-635
▁An	-636
ash	-637
▁plaint	-638
ility	-639
▁op	-640
ible	-641
▁Ad	-642
▁pay	-643
▁years	-644
▁decision	-645
ving	-646
ife	-647
▁form	-648
▁compl	-649
▁prosec	-650
ike	-651
cy	-652
ited	-653
iction	-654
ided	-655
▁diff	-656
ug	-657
▁Y	-658
▁det	-659
▁regard	-660
▁Sing	-661
▁given	-662
▁Pr	-663
▁sec	-664
ired	-665
ors	-666
▁claim	-667
▁question	-668
oth	-669
▁produ	-670
▁pe	-671
ffect	-672
ploy	-673
▁ext	-674
irc	-675
▁ro	-676
▁poss	-677
▁consider	-678
▁submitted	-679
ven	-680
▁well	-681
ax	-682
▁exp	-683
endant	-684
ollow	-685
▁supp	-686
▁leg	-687
reat	-688
▁upon	-689
▁”	-690
▁respect	-691
ified	-692
▁High	-693
velop	-694
ha	-695
▁Un	-696
▁Jud	-697
▁application	-698
▁plaintiff	-699
▁te	-700
▁%	-701
▁conf	-702
ween	-703
▁appro	-704
ting	-705
▁must	-706
▁term	-707
part	-708
▁follow	-709
owever	-710
▁mem	-711
▁des	-712
▁inst	-713
▁between	-714
ook	-715
▁Mr	-716
cept	-717
ily	-718
▁found	-719
▁than	-720
ful	-721
▁just	-722
▁suit	-723
ram	-724
▁above	-725
▁us	-726
▁therefore	-727
ended	-728
erred	-729
▁“	-730
▁inform	-731
▁through	-732
ouse	-733
▁like	-734
ble	-735
▁cle	-736
ep	-737
▁bel	-738
▁Rs	-739
erc	-740
▁go	-741
▁circ	-742
▁passed	-743
▁employ	-744
▁petitioners	-745
▁examin	-746
iod	-747
▁then	-748
▁judgment	-749
▁find	-750
▁within	-751
self	-752
▁i	-753
▁public	-754
▁We	-755
▁direct	-756
▁new	-757
preme	-758
▁defendant	-759
▁ra	-760
▁amount	-761
▁Bh	-762
▁did	-763
▁count	-764
other	-765
hi	-766
li	-767
vers	-768
▁here	-769
▁period	-770
▁power	-771
▁place	-772
ody	-773
erest	-774
▁bas	-775
ale	-776
▁without	-777
▁does	-778
▁prosecution	-779
ople	-780
its	-781
ording	-782
▁par	-783
▁Supreme	-784
▁provisions	-785
ances	-786
ules	-787
▁date	-788
te	-789
rim	-790
abl	-791
▁offic	-792
▁appeal	-793
ification	-794
▁Singh	-795
ocu	-796
▁Section	-797
▁includ	-798
▁val	-799
ral	-800
cess	-801
ural	-802
▁cert	-803
▁invest	-804
▁occ	-805
ient	-806
istrict	-807
▁Ar	-808
ince	-809
esh	-810
▁inj	-811
▁interest	-812
ari	-813
rap	-814
▁own	-815
ged	-816
▁ret	-817
▁hand	-818
▁docu	-819
▁est	-820
ule	-821
ater	-822
urn	-823
ric	-824
▁Indian	-825
▁cor	-826
▁differe	-827
▁clear	-828
hen	-829
▁SC	-830
ew	-831
▁people	-832
▁what	-833
▁rece	-834
und	-835
▁see	-836
▁persons	-837
arm	-838
▁av	-839
ases	-840
▁?	-841
▁But	-842
bit	-843
ix	-844
▁Offic	-845
▁very	-846
ief	-847
▁purpos	-848
uc	-849
▁whether	-850
▁mon	-851
▁alleg	-852
▁gen	-853
▁partic	-854
▁call	-855
▁Commission	-856
▁effect	-857
▁while	-858
ft	-859
▁App	-860
▁appear	-861
▁issued	-862
▁trial	-863
▁If	-864
▁grant	-865
▁gu	-866
▁ins	-867
▁circum	-868
ital	-869
▁concer	-870
▁statement	-871
ros	-872
▁mark	-873
▁post	-874
▁name	-875
ished	-876
▁col	-877
ally	-878
▁ground	-879
▁parties	-880
▁account	-881
tern	-882
▁nec	-883
▁know	-884
ices	-885
▁read	-886
por	-887
▁used	-888
▁show	-889
uted	-890
erial	-891
app	-892
▁prin	-893
▁during	-894
▁make	-895
ior	-896
hy	-897
▁sy	-898
▁both	-899
▁circumst	-900
ctions	-901
▁property	-902
▁min	-903
ene	-904
▁develop	-905
ents	-906
ren	-907
▁En	-908
duct	-909
▁car	-910
sh	-911
▁ear	-912
▁because	-913
▁&#	-914
▁take	-915
▁facts	-916
▁disp	-917
igation	-918
▁my	-919
▁having	-920
aining	-921
▁authority	-922
▁rele	-923
▁bl	-924
ange	-925
▁need	-926
▁process	-927
▁num	-928
▁section	-929
▁good	-930
▁Or	-931
▁house	-932
▁police	-933
ob	-934
▁adv	-935
▁get	-936
erence	-937
posed	-938
form	-939
▁allow	-940
▁soc	-941
ith	-942
▁material	-943
▁comple	-944
▁let	-945
▁your	-946
▁Res	-947
▁basis	-948
▁necess	-949
con	-950
ode	-951
▁aff	-952
row	-953
miss	-954
▁dem	-955
▁stand	-956
ized	-957
▁pri	-958
▁sent	-959
▁different	-960
bers	-961
▁rev	-962
▁District	-963
ning	-964
▁offence	-965
▁obs	-966
▁opp	-967
▁way	-968
ather	-969
partment	-970
read	-971
▁three	-972
ai	-973
illa	-974
ave	-975
ner	-976
iness	-977
▁those	-978
▁hold	-979
▁life	-980
▁service	-981
man	-982
▁word	-983
uris	-984
▁proceedings	-985
▁back	-986
gan	-987
▁Ben	-988
ool	-989
▁establ	-990
▁though	-991
anc	-992
▁Ram	-993
▁came	-994
sequ	-995
▁avail	-996
▁ord	-997
ink	-998
ants	-999
▁down	-1000
min	-1001
ption	-1002
unal	-1003
▁Wh	-1004
▁Judge	-1005
ores	-1006
iet	-1007
ivil	-1008
▁notice	-1009
▁&#9	-1010
ister	-1011
ither	-1012
▁Acc	-1013
lt	-1014
▁dist	-1015
▁cases	-1016
ges	-1017
med	-1018
▁And	-1019
▁Pres	-1020
▁Officer	-1021
▁considered	-1022
ures	-1023
▁respondents	-1024
▁condition	-1025
▁stat	-1026
▁Cent	-1027
▁required	-1028
▁day	-1029
▁subject	-1030
ati	-1031
ten	-1032
▁For	-1033
crib	-1034
▁’	-1035
▁exerc	-1036
▁Pol	-1037
han	-1038
▁concerned	-1039
▁equ	-1040
ring	-1041
olog	-1042
ross	-1043
▁circumstances	-1044
mitt	-1045
▁juris	-1046
ived	-1047
uch	-1048
▁af	-1049
umar	-1050
▁company	-1051
▁witnesses	-1052
▁cap	-1053
▁Raj	-1054
ism	-1055
▁beh	-1056
ality	-1057
▁co	-1058
bitr	-1059
ees	-1060
▁bus	-1061
▁child	-1062
lection	-1063
▁agree	-1064
lement	-1065
diction	-1066
▁observ	-1067
ribunal	-1068
stem	-1069
▁contin	-1070
after	-1071
less	-1072
▁Reg	-1073
▁Therefore	-1074
▁ple	-1075
ides	-1076
chn	-1077
stru	-1078
▁support	-1079
oard	-1080
▁country	-1081
way	-1082
als	-1083
▁sit	-1084
▁li	-1085
▁appoint	-1086
▁action	-1087
▁import	-1088
ey	-1089
ency	-1090
▁issue	-1091
mittee	-1092
ending	-1093
▁ed	-1094
eg	-1095
ock	-1096
▁However	-1097
ability	-1098
▁fam	-1099
IR	-1100
riminal	-1101
▁test	-1102
▁jurisdiction	-1103
▁cent	-1104
▁death	-1105
▁Constitution	-1106
▁So	-1107
▁body	-1108
▁fl	-1109
iry	-1110
▁purpose	-1111
▁month	-1112
▁every	-1113
ically	-1114
▁Man	-1115
ivers	-1116
lus	-1117
▁non	-1118
hes	-1119
tic	-1120
eth	-1121
▁Par	-1122
ret	-1123
har	-1124
▁sim	-1125
gg	-1126
▁conduct	-1127
▁cre	-1128
▁contract	-1129
▁use	-1130
▁due	-1131
alf	-1132
up	-1133
ull	-1134
▁particular	-1135
▁med	-1136
icial	-1137
▁del	-1138
ined	-1139
uty	-1140
▁acqu	-1141
ared	-1142
▁Shri	-1143
▁exec	-1144
urre	-1145
▁now	-1146
ov	-1147
oresaid	-1148
les	-1149
▁They	-1150
enef	-1151
▁lit	-1152
vant	-1153
▁come	-1154
ages	-1155
▁aforesaid	-1156
▁since	-1157
▁point	-1158
▁Am	-1159
cil	-1160
▁Sec	-1161
▁var	-1162
air	-1163
arge	-1164
▁number	-1165
▁each	-1166
▁Min	-1167
bt	-1168
▁party	-1169
ries	-1170
ourse	-1171
▁another	-1172
▁mention	-1173
aring	-1174
▁necessary	-1175
quot	-1176
▁nature	-1177
gu	-1178
▁Kumar	-1179
ck	-1180
▁President	-1181
▁Comp	-1182
▁benef	-1183
▁long	-1184
▁appellants	-1185
▁Ass	-1186
▁abs	-1187
▁end	-1188
▁Hon	-1189
▁information	-1190
▁Sc	-1191
▁award	-1192
▁Rules	-1193
pra	-1194
▁mis	-1195
ator	-1196
pri	-1197
▁fail	-1198
▁ca	-1199
▁lim	-1200
▁prev	-1201
▁po	-1202
▁terms	-1203
allen	-1204
▁great	-1205
▁bu	-1206
▁exist	-1207
▁many	-1208
ying	-1209
▁She	-1210
▁second	-1211
ately	-1212
▁possession	-1213
▁At	-1214
na	-1215
▁mar	-1216
cip	-1217
▁available	-1218
ugned	-1219
of	-1220
▁system	-1221
▁conv	-1222
▁ve	-1223
anch	-1224
▁Ap	-1225
▁oper	-1226
▁referred	-1227
PC	-1228
▁injur	-1229
▁impugned	-1230
▁sign	-1231
gt	-1232
▁stud	-1233
▁letter	-1234
▁et	-1235
▁Tribunal	-1236
sequent	-1237
▁Mah	-1238
AR	-1239
chool	-1240
▁add	-1241
▁various	-1242
inion	-1243
▁..	-1244
▁che	-1245
▁etc	-1246
▁consideration	-1247
▁Sp	-1248
▁members	-1249
▁along	-1250
▁result	-1251
▁submit	-1252
ready	-1253
raph	-1254
ination	-1255
uk	-1256
ried	-1257
▁charge	-1258
▁business	-1259
quiry	-1260
▁already	-1261
icy	-1262
▁sche	-1263
ured	-1264
▁world	-1265
▁relevant	-1266
▁Police	-1267
ointed	-1268
▁recorded	-1269
▁All	-1270
resent	-1271
ace	-1272
ST	-1273
▁sm	-1274
▁bro	-1275
▁expl	-1276
eep	-1277
here	-1278
▁lead	-1279
▁Tr	-1280
EN	-1281
enior	-1282
ains	-1283
ya	-1284
▁itself	-1285
isl	-1286
oup	-1287
▁challen	-1288
▁opinion	-1289
illage	-1290
▁called	-1291
▁loc	-1292
▁rest	-1293
▁tax	-1294
▁most	-1295
▁Is	-1296
▁Central	-1297
▁supra	-1298
ences	-1299
▁cause	-1300
ick	-1301
▁provided	-1302
▁open	-1303
▁maint	-1304
▁certain	-1305
▁argu	-1306
▁dismiss	-1307
▁following	-1308
▁according	-1309
▁str	-1310
▁Sub	-1311
▁put	-1312
ata	-1313
▁bank	-1314
▁When	-1315
hip	-1316
▁prog	-1317
▁incident	-1318
▁...	-1319
ples	-1320
▁dra	-1321
ateg	-1322
▁fav	-1323
▁ph	-1324
▁legal	-1325
lp	-1326
▁Rule	-1327
▁complaint	-1328
▁list	-1329
▁mod	-1330
ives	-1331
▁arbitr	-1332
▁vi	-1333
unity	-1334
▁deal	-1335
▁Committee	-1336
▁including	-1337
cedure	-1338
▁sur	-1339
▁init	-1340
▁agreement	-1341
▁fore	-1342
▁prom	-1343
▁That	-1344
▁investigation	-1345
▁mind	-1346
istration	-1347
▁far	-1348
▁Thus	-1349
▁Department	-1350
ising	-1351
▁documents	-1352
▁days	-1353
au	-1354
▁Board	-1355
▁dire	-1356
▁examination	-1357
▁course	-1358
▁alleged	-1359
▁based	-1360
▁educ	-1361
lim	-1362
▁dou	-1363
▁transf	-1364
▁meet	-1365
uation	-1366
ually	-1367
tal	-1368
ron	-1369
▁ser	-1370
▁object	-1371
cribed	-1372
▁den	-1373
▁done	-1374
orpor	-1375
▁represent	-1376
ana	-1377
uman	-1378
get	-1379
af	-1380
unic	-1381
att	-1382
▁Code	-1383
▁entire	-1384
▁favour	-1385
▁give	-1386
▁ver	-1387
AT	-1388
▁ident	-1389
▁Eng	-1390
▁indust	-1391
▁family	-1392
iety	-1393
▁say	-1394
iding	-1395
▁pen	-1396
▁Cr	-1397
alth	-1398
▁entit	-1399
▁earli	-1400
ilar	-1401
pur	-1402
▁manner	-1403
▁vide	-1404
▁Gu	-1405
olution	-1406
▁admitted	-1407
IC	-1408
▁sett	-1409
▁development	-1410
▁orig	-1411
ogn	-1412
▁final	-1413
istered	-1414
▁mean	-1415
▁start	-1416
unction	-1417
ph	-1418
inary	-1419
▁conn	-1420
ivision	-1421
otion	-1422
wards	-1423
▁much	-1424
▁allowed	-1425
▁institution	-1426
ork	-1427
angu	-1428
▁cross	-1429
ulation	-1430
▁SCC	-1431
▁Bank	-1432
▁sale	-1433
▁either	-1434
▁Petition	-1435
▁constru	-1436
▁To	-1437
ially	-1438
lig	-1439
▁Adv	-1440
ines	-1441
rol	-1442
▁subst	-1443
AN	-1444
▁appointment	-1445
▁sat	-1446
▁organ	-1447
▁submission	-1448
conom	-1449
ER	-1450
▁help	-1451
imes	-1452
▁however	-1453
pted	-1454
omm	-1455
▁position	-1456
▁means	-1457
par	-1458
▁Bench	-1459
err	-1460
▁general	-1461
▁high	-1462
az	-1463
▁behalf	-1464
pe	-1465
ext	-1466
▁Ag	-1467
▁making	-1468
reed	-1469
▁fin	-1470
ird	-1471
▁determ	-1472
▁received	-1473
▁mentioned	-1474
▁Col	-1475
▁cr	-1476
▁Mar	-1477
▁respon	-1478
▁Direct	-1479
▁cop	-1480
▁vis	-1481
▁According	-1482
▁herein	-1483
▁prot	-1484
▁Mag	-1485
▁tre	-1486
▁seek	-1487
▁words	-1488
▁look	-1489
ering	-1490
▁placed	-1491
▁area	-1492
rie	-1493
ons	-1494
▁Al	-1495
▁complain	-1496
▁sum	-1497
▁took	-1498
▁exercise	-1499
▁others	-1500
ense	-1501
▁Del	-1502
▁earlier	-1503
▁After	-1504
▁income	-1505
▁mer	-1506
▁invol	-1507
by	-1508
ached	-1509
▁orders	-1510
▁assess	-1511
▁pun	-1512
▁document	-1513
isf	-1514
ditional	-1515
▁examined	-1516
▁techn	-1517
▁how	-1518
▁common	-1519
section	-1520
▁Dr	-1521
▁policy	-1522
hib	-1523
atory	-1524
▁Se	-1525
▁last	-1526
▁payment	-1527
▁entitled	-1528
▁ten	-1529
▁clause	-1530
▁left	-1531
▁criminal	-1532
▁doubt	-1533
▁contention	-1534
ple	-1535
osp	-1536
▁registered	-1537
▁depos	-1538
lusion	-1539
iversity	-1540
▁office	-1541
oney	-1542
▁below	-1543
▁Te	-1544
ology	-1545
▁exper	-1546
▁tem	-1547
▁class	-1548
agement	-1549
▁prof	-1550
▁written	-1551
▁justice	-1552
▁Gen	-1553
▁indic	-1554
stand	-1555
ars	-1556
▁father	-1557
▁committed	-1558
▁stage	-1559
ics	-1560
ivid	-1561
▁contr	-1562
ield	-1563
▁ask	-1564
ets	-1565
▁paid	-1566
▁thus	-1567
▁taking	-1568
ake	-1569
owers	-1570
onment	-1571
▁granted	-1572
▁Delhi	-1573
eed	-1574
▁continu	-1575
lected	-1576
▁perform	-1577
jection	-1578
▁water	-1579
▁demand	-1580
▁raised	-1581
▁officer	-1582
▁require	-1583
▁complainant	-1584
▁princip	-1585
▁Lear	-1586
▁important	-1587
ves	-1588
▁dep	-1589
▁Vs	-1590
osed	-1591
ruct	-1592
▁dispute	-1593
00	-1594
ience	-1595
val	-1596
▁National	-1597
ression	-1598
▁discus	-1599
▁rights	-1600
ways	-1601
itation	-1602
▁br	-1603
▁seen	-1604
▁Sri	-1605
AL	-1606
▁cand	-1607
▁langu	-1608
▁detail	-1609
▁proved	-1610
ested	-1611
▁want	-1612
ization	-1613
oh	-1614
istrate	-1615
▁satisf	-1616
▁exc	-1617
ledge	-1618
▁services	-1619
▁econom	-1620
▁viol	-1621
ger	-1622
▁lo	-1623
▁nor	-1624
wise	-1625
▁original	-1626
▁tra	-1627
arent	-1628
▁Commissioner	-1629
ES	-1630
▁mere	-1631
▁real	-1632
ony	-1633
▁candid	-1634
▁sugg	-1635
▁ir	-1636
utes	-1637
▁priv	-1638
▁contended	-1639
▁observed	-1640
▁fund	-1641
▁book	-1642
▁activ	-1643
▁Learned	-1644
rought	-1645
ocate	-1646
▁government	-1647
▁head	-1648
day	-1649
▁accept	-1650
▁duty	-1651
▁light	-1652
▁four	-1653
ibility	-1654
▁cost	-1655
rect	-1656
▁wom	-1657
▁reference	-1658
▁Civil	-1659
▁obt	-1660
▁General	-1661
▁conditions	-1662
▁known	-1663
▁reasons	-1664
lf	-1665
▁Magistrate	-1666
▁opport	-1667
ts	-1668
▁dev	-1669
▁file	-1670
fficient	-1671
see	-1672
▁hig	-1673
▁vict	-1674
jud	-1675
▁value	-1676
overed	-1677
▁Author	-1678
war	-1679
ively	-1680
▁special	-1681
su	-1682
idav	-1683
▁directed	-1684
▁accord	-1685
▁These	-1686
▁fee	-1687
ensation	-1688
ms	-1689
▁care	-1690
▁war	-1691
▁Division	-1692
▁less	-1693
ought	-1694
▁money	-1695
▁admin	-1696
▁ty	-1697
▁away	-1698
▁You	-1699
iance	-1700
▁brought	-1701
▁human	-1702
atural	-1703
ON	-1704
▁months	-1705
▁happ	-1706
agraph	-1707
▁establish	-1708
cing	-1709
▁pract	-1710
▁appropri	-1711
endent	-1712
orn	-1713
▁Corpor	-1714
▁except	-1715
▁produced	-1716
▁judicial	-1717
▁incre	-1718
▁dismissed	-1719
▁rule	-1720
▁Chand	-1721
▁going	-1722
▁som	-1723
▁decl	-1724
▁son	-1725
▁prep	-1726
▁met	-1727
▁acce	-1728
▁punish	-1729
▁age	-1730
soci	-1731
▁legisl	-1732
▁large	-1733
3;	-1734
▁&#93;	-1735
ENT	-1736
ize	-1737
uly	-1738
▁ey	-1739
▁project	-1740
▁towards	-1741
▁clearly	-1742
▁build	-1743
▁rules	-1744
▁group	-1745
▁scheme	-1746
band	-1747
1;	-1748
▁&#91;	-1749
ouncil	-1750
ancial	-1751
ists	-1752
▁pat	-1753
▁himself	-1754
▁complete	-1755
▁cred	-1756
▁main	-1757
▁Sche	-1758
▁till	-1759
▁side	-1760
▁play	-1761
▁wife	-1762
▁succ	-1763
▁Courts	-1764
▁individ	-1765
▁specific	-1766
▁possible	-1767
oss	-1768
essee	-1769
▁reported	-1770
▁il	-1771
▁Serv	-1772
▁categ	-1773
ospital	-1774
agar	-1775
▁went	-1776
▁cust	-1777
▁affidav	-1778
No	-1779
▁respons	-1780
▁apply	-1781
ani	-1782
▁sever	-1783
mb	-1784
▁knowledge	-1785
▁victim	-1786
▁small	-1787
▁established	-1788
ellate	-1789
▁become	-1790
▁University	-1791
▁fix	-1792
▁constit	-1793
▁level	-1794
▁Company	-1795
gr	-1796
▁illeg	-1797
▁run	-1798
eration	-1799
▁got	-1800
▁children	-1801
▁society	-1802
ions	-1803
▁appointed	-1804
ressed	-1805
ificate	-1806
▁Law	-1807
▁provide	-1808
▁Apex	-1809
▁never	-1810
▁purch	-1811
▁aspect	-1812
▁decided	-1813
urrence	-1814
▁appropriate	-1815
▁conclusion	-1816
▁product	-1817
▁accepted	-1818
▁Pl	-1819
▁prior	-1820
▁village	-1821
▁Not	-1822
▁thereafter	-1823
▁ann	-1824
▁individual	-1825
▁Order	-1826
▁Respondent	-1827
▁copy	-1828
adesh	-1829
▁mother	-1830
hic	-1831
amm	-1832
▁cro	-1833
▁five	-1834
▁reject	-1835
▁tend	-1836
▁short	-1837
▁eng	-1838
▁regarding	-1839
▁think	-1840
▁initi	-1841
▁delay	-1842
ify	-1843
▁FIR	-1844
▁social	-1845
▁school	-1846
usband	-1847
duced	-1848
ala	-1849
▁relating	-1850
anj	-1851
rest	-1852
▁powers	-1853
▁Cont	-1854
▁defendants	-1855
▁Mus	-1856
▁prescribed	-1857
▁keep	-1858
▁Spec	-1859
▁civil	-1860
▁pray	-1861
▁compensation	-1862
ters	-1863
▁relief	-1864
▁enc	-1865
aged	-1866
ope	-1867
▁regular	-1868
▁grow	-1869
▁instru	-1870
▁authorities	-1871
ajor	-1872
▁bre	-1873
▁employees	-1874
hing	-1875
▁Director	-1876
RB	-1877
igned	-1878
▁whole	-1879
lia	-1880
▁relig	-1881
▁force	-1882
▁education	-1883
▁Mad	-1884
▁Chief	-1885
▁adver	-1886
▁compet	-1887
error	-1888
▁gl	-1889
utory	-1890
riage	-1891
▁polit	-1892
▁submits	-1893
▁proble	-1894
▁several	-1895
▁language	-1896
▁Co	-1897
▁goods	-1898
sw	-1899
aking	-1900
umb	-1901
▁discl	-1902
▁program	-1903
▁sought	-1904
▁Ins	-1905
▁separ	-1906
▁Ab	-1907
▁appre	-1908
ging	-1909
resh	-1910
▁paragraph	-1911
▁appears	-1912
▁husband	-1913
ember	-1914
▁recomm	-1915
▁procedure	-1916
▁near	-1917
medi	-1918
▁total	-1919
asht	-1920
▁cult	-1921
▁Even	-1922
▁OF	-1923
▁Counsel	-1924
▁hearing	-1925
▁benefit	-1926
▁free	-1927
liament	-1928
▁san	-1929
action	-1930
▁Corporation	-1931
▁transfer	-1932
▁old	-1933
▁market	-1934
▁IST	-1935
▁occurrence	-1936
▁Be	-1937
▁similar	-1938
▁Q	-1939
▁interf	-1940
overy	-1941
ential	-1942
▁laid	-1943
▁nex	-1944
▁accordance	-1945
IT	-1946
▁natural	-1947
▁suff	-1948
▁qual	-1949
▁among	-1950
▁Hind	-1951
empt	-1952
ium	-1953
▁matters	-1954
▁full	-1955
▁deed	-1956
ciples	-1957
▁too	-1958
isation	-1959
▁working	-1960
alk	-1961
▁adop	-1962
▁Council	-1963
▁rate	-1964
▁direction	-1965
▁otherwise	-1966
▁aside	-1967
ricult	-1968
▁valid	-1969
▁times	-1970
▁relied	-1971
mber	-1972
ably	-1973
▁prim	-1974
▁applicant	-1975
▁Engl	-1976
▁meas	-1977
▁His	-1978
▁sing	-1979
que	-1980
ends	-1981
▁fri	-1982
▁affidavit	-1983
ling	-1984
▁Further	-1985
▁correct	-1986
▁failed	-1987
▁share	-1988
▁appearing	-1989
ours	-1990
▁defence	-1991
▁New	-1992
arily	-1993
▁artic	-1994
▁major	-1995
▁substant	-1996
▁fe	-1997
ane	-1998
▁Nos	-1999
▁Union	-2000
idd	-2001
vi	-2002
ieve	-2003
IN	-2004
urity	-2005
▁wind	-2006
▁Gr	-2007
iving	-2008
ery	-2009
▁reasonable	-2010
▁medical	-2011
▁opportunity	-2012
▁ur	-2013
ware	-2014
▁principle	-2015
earch	-2016
▁ide	-2017
▁blood	-2018
aly	-2019
▁subsequent	-2020
▁control	-2021
▁brother	-2022
▁six	-2023
▁Authority	-2024
sure	-2025
ta	-2026
▁note	-2027
OR	-2028
▁What	-2029
▁Bi	-2030
td	-2031
▁objection	-2032
▁spot	-2033
▁assessment	-2034
▁vac	-2035
▁propos	-2036
▁field	-2037
▁private	-2038
▁plead	-2039
acher	-2040
▁dead	-2041
▁charges	-2042
oid	-2043
▁return	-2044
▁decree	-2045
▁vehic	-2046
▁Public	-2047
▁Special	-2048
ris	-2049
icult	-2050
▁Comm	-2051
▁injuries	-2052
▁Aug	-2053
▁neg	-2054
abad	-2055
▁proceeding	-2056
hys	-2057
▁sk	-2058
▁x	-2059
▁answ	-2060
▁change	-2061
▁health	-2062
ething	-2063
▁true	-2064
▁move	-2065
▁super	-2066
▁later	-2067
▁still	-2068
▁recogn	-2069
▁Ann	-2070
▁next	-2071
▁principles	-2072
ern	-2073
akh	-2074
▁trad	-2075
duc	-2076
▁Pradesh	-2077
▁charact	-2078
▁success	-2079
▁function	-2080
▁sufficient	-2081
ems	-2082
▁fram	-2083
▁official	-2084
▁ful	-2085
ali	-2086
imum	-2087
▁finding	-2088
▁es	-2089
▁IPC	-2090
▁sus	-2091
gar	-2092
▁today	-2093
▁Pat	-2094
▁pref	-2095
work	-2096
vest	-2097
▁affect	-2098
▁sw	-2099
▁sal	-2100
▁ess	-2101
▁contained	-2102
▁financial	-2103
atic	-2104
lied	-2105
ipl	-2106
venue	-2107
▁plan	-2108
ship	-2109
▁mand	-2110
endment	-2111
▁higher	-2112
ension	-2113
▁sl	-2114
tle	-2115
▁States	-2116
▁intern	-2117
▁always	-2118
▁Develop	-2119
▁Prov	-2120
▁caused	-2121
▁indep	-2122
▁provides	-2123
ks	-2124
▁undert	-2125
ats	-2126
sed	-2127
▁port	-2128
▁enquiry	-2129
▁presence	-2130
▁giving	-2131
▁chang	-2132
orth	-2133
▁Muslim	-2134
▁Part	-2135
▁nothing	-2136
▁senior	-2137
▁One	-2138
▁impro	-2139
▁national	-2140
▁Z	-2141
ury	-2142
▁Cla	-2143
▁Secret	-2144
augh	-2145
▁dri	-2146
▁self	-2147
thing	-2148
▁relations	-2149
▁With	-2150
▁namely	-2151
▁meeting	-2152
▁once	-2153
१०	-2154
▁bey	-2155
▁bring	-2156
▁Advocate	-2157
arat	-2158
▁prove	-2159
▁Ltd	-2160
amination	-2161
▁beyond	-2162
une	-2163
▁injury	-2164
▁mot	-2165
▁nam	-2166
erg	-2167
▁fac	-2168
▁third	-2169
▁prepared	-2170
▁Kh	-2171
▁Med	-2172
▁sect	-2173
▁wr	-2174
▁best	-2175
▁petitions	-2176
lam	-2177
▁arrest	-2178
▁fall	-2179
▁elect	-2180
▁treat	-2181
▁meaning	-2182
▁lic	-2183
outh	-2184
uf	-2185
▁Ext	-2186
▁sust	-2187
▁asked	-2188
▁extent	-2189
▁step	-2190
▁holding	-2191
▁conducted	-2192
▁Parliament	-2193
▁ii	-2194
▁Kar	-2195
istry	-2196
▁guil	-2197
▁decisions	-2198
dule	-2199
▁denied	-2200
▁notification	-2201
▁intention	-2202
▁situation	-2203
▁loss	-2204
come	-2205
for	-2206
▁By	-2207
ercial	-2208
to	-2209
ush	-2210
aper	-2211
ote	-2212
▁tit	-2213
ann	-2214
▁kind	-2215
▁env	-2216
▁areas	-2217
▁Educ	-2218
▁PR	-2219
▁decla	-2220
▁able	-2221
▁div	-2222
▁unless	-2223
▁certificate	-2224
▁Station	-2225
▁filing	-2226
igating	-2227
ape	-2228
▁norm	-2229
ructure	-2230
▁outs	-2231
▁review	-2232
▁Just	-2233
ulated	-2234
▁Senior	-2235
▁fal	-2236
▁Pre	-2237
HE	-2238
standing	-2239
illed	-2240
▁thereof	-2241
▁liable	-2242
▁immedi	-2243
vey	-2244
▁Minister	-2245
ample	-2246
ID	-2247
▁local	-2248
▁statutory	-2249
▁heard	-2250
▁hist	-2251
ribution	-2252
▁bar	-2253
▁Development	-2254
▁carry	-2255
▁specified	-2256
hold	-2257
▁applicable	-2258
ties	-2259
urned	-2260
▁occas	-2261
anation	-2262
▁While	-2263
unt	-2264
ected	-2265
utive	-2266
ards	-2267
gether	-2268
▁together	-2269
▁Such	-2270
irm	-2271
▁absence	-2272
gth	-2273
ault	-2274
▁doct	-2275
▁Ra	-2276
ara	-2277
▁bail	-2278
▁pop	-2279
rish	-2280
ept	-2281
▁employee	-2282
acity	-2283
▁therein	-2284
ories	-2285
▁Sm	-2286
▁something	-2287
▁lab	-2288
ently	-2289
▁students	-2290
▁mo	-2291
lege	-2292
▁difficult	-2293
▁serious	-2294
▁home	-2295
▁states	-2296
ma	-2297
ened	-2298
▁courts	-2299
▁issues	-2300
▁deposed	-2301
▁started	-2302
isition	-2303
▁fair	-2304
▁lib	-2305
▁capital	-2306
urd	-2307
▁previous	-2308
▁sentence	-2309
arma	-2310
▁hard	-2311
▁belong	-2312
indu	-2313
▁Under	-2314
▁wrong	-2315
go	-2316
iary	-2317
▁Page	-2318
▁aut	-2319
▁settled	-2320
▁maintain	-2321
▁Me	-2322
▁X	-2323
▁ut	-2324
urance	-2325
▁comput	-2326
▁construction	-2327
▁assessee	-2328
▁member	-2329
acy	-2330
iting	-2331
▁phys	-2332
▁Panch	-2333
bs	-2334
▁false	-2335
▁Govern	-2336
avan	-2337
ND	-2338
▁wherein	-2339
▁conviction	-2340
▁refer	-2341
▁political	-2342
▁ill	-2343
▁Lim	-2344
▁coun	-2345
▁disch	-2346
▁daugh	-2347
alc	-2348
▁few	-2349
▁expression	-2350
▁character	-2351
ues	-2352
▁credit	-2353
plic	-2354
with	-2355
▁el	-2356
▁declar	-2357
▁economic	-2358
▁ach	-2359
▁Soc	-2360
selves	-2361
▁unt	-2362
▁event	-2363
▁around	-2364
ubl	-2365
gin	-2366
▁pending	-2367
▁communic	-2368
▁food	-2369
▁Gand	-2370
▁AIR	-2371
irt	-2372
▁Hindu	-2373
▁merely	-2374
▁May	-2375
essions	-2376
▁shown	-2377
▁recei	-2378
▁dom	-2379
▁Cre	-2380
▁statements	-2381
▁II	-2382
▁rejected	-2383
▁admission	-2384
▁arri	-2385
..	-2386
▁sanction	-2387
▁candidates	-2388
▁countries	-2389
ruit	-2390
▁purposes	-2391
fully	-2392
▁kept	-2393
▁accordingly	-2394
adi	-2395
▁foreign	-2396
amb	-2397
cious	-2398
▁leave	-2399
ancy	-2400
▁para	-2401
▁marriage	-2402
▁building	-2403
▁stren	-2404
irit	-2405
rix	-2406
▁Jan	-2407
▁aver	-2408
▁pursu	-2409
▁fut	-2410
▁Hence	-2411
▁followed	-2412
▁considering	-2413
▁Leg	-2414
▁election	-2415
▁resident	-2416
▁offences	-2417
▁Invest	-2418
▁English	-2419
▁Beng	-2420
▁eff	-2421
aving	-2422
▁Appeal	-2423
ternal	-2424
▁wee	-2425
▁defin	-2426
ulations	-2427
▁forward	-2428
▁vehicle	-2429
▁crit	-2430
ership	-2431
ufact	-2432
ironment	-2433
▁production	-2434
II	-2435
▁institutions	-2436
▁Brit	-2437
▁particip	-2438
ama	-2439
▁activities	-2440
ita	-2441
▁assist	-2442
▁department	-2443
law	-2444
▁Criminal	-2445
▁women	-2446
ires	-2447
▁Secretary	-2448
▁ded	-2449
▁why	-2450
▁Dis	-2451
▁oppos	-2452
▁publ	-2453
▁trade	-2454
▁Since	-2455
▁personal	-2456
▁vol	-2457
omes	-2458
ead	-2459
▁challenge	-2460
ught	-2461
emed	-2462
ION	-2463
▁grounds	-2464
▁promotion	-2465
ethod	-2466
eb	-2467
▁whose	-2468
▁bal	-2469
▁management	-2470
▁interpre	-2471
▁request	-2472
▁ele	-2473
▁informed	-2474
▁From	-2475
lu	-2476
▁equal	-2477
▁implement	-2478
anies	-2479
▁Assist	-2480
▁involved	-2481
▁illegal	-2482
▁Rec	-2483
▁und	-2484
stitute	-2485
tion	-2486
▁face	-2487
▁commit	-2488
erve	-2489
▁net	-2490
▁claimed	-2491
▁things	-2492
▁noted	-2493
▁School	-2494
▁follows	-2495
▁Will	-2496
▁Education	-2497
ched	-2498
▁plaintiffs	-2499
▁impos	-2500
▁contrary	-2501
▁dispos	-2502
▁mil	-2503
uses	-2504
▁Prin	-2505
rated	-2506
▁fixed	-2507
▁facil	-2508
▁receipt	-2509
▁saf	-2510
▁inn	-2511
▁commission	-2512
usal	-2513
▁God	-2514
inate	-2515
▁HC	-2516
▁connection	-2517
aff	-2518
▁restr	-2519
irst	-2520
eric	-2521
▁price	-2522
▁gave	-2523
atives	-2524
aul	-2525
▁men	-2526
▁Thereafter	-2527
▁stay	-2528
.-	-2529
▁appreci	-2530
▁Cl	-2531
ament	-2532
iss	-2533
▁road	-2534
▁THE	-2535
▁Annex	-2536
▁executed	-2537
itiz	-2538
ti	-2539
▁Islam	-2540
▁imm	-2541
▁seeking	-2542
▁design	-2543
▁might	-2544
▁turn	-2545
▁context	-2546
▁approach	-2547
ril	-2548
most	-2549
▁Additional	-2550
▁mult	-2551
▁treated	-2552
iced	-2553
▁title	-2554
▁Justice	-2555
▁manufact	-2556
aya	-2557
▁situ	-2558
▁agricult	-2559
▁spirit	-2560
▁registration	-2561
▁counter	-2562
▁mor	-2563
▁method	-2564
examination	-2565
▁owner	-2566
ource	-2567
▁recovery	-2568
▁bound	-2569
▁March	-2570
▁Service	-2571
▁occasion	-2572
uled	-2573
▁Sy	-2574
reg	-2575
urrent	-2576
ources	-2577
▁effort	-2578
▁parent	-2579
▁cur	-2580
▁associ	-2581
▁additional	-2582
▁carried	-2583
▁prob	-2584
▁specif	-2585
▁future	-2586
▁properties	-2587
▁needs	-2588
▁security	-2589
ills	-2590
▁related	-2591
▁susp	-2592
hai	-2593
arch	-2594
▁rend	-2595
arant	-2596
men	-2597
▁youn	-2598
erated	-2599
▁dam	-2600
▁Writ	-2601
▁Sar	-2602
▁expect	-2603
▁allegations	-2604
▁Now	-2605
▁lod	-2606
uary	-2607
▁ensure	-2608
rah	-2609
rop	-2610
▁declaration	-2611
▁consum	-2612
▁framed	-2613
IL	-2614
▁Sim	-2615
▁Tax	-2616
imate	-2617
ental	-2618
▁cover	-2619
▁Lal	-2620
▁penal	-2621
▁became	-2622
▁obtained	-2623
▁crime	-2624
▁revision	-2625
▁daughter	-2626
ancell	-2627
▁exam	-2628
▁plant	-2629
itive	-2630
▁allot	-2631
▁records	-2632
▁constitution	-2633
▁competent	-2634
▁permission	-2635
▁yet	-2636
mes	-2637
▁arbitration	-2638
▁Let	-2639
▁told	-2640
▁declared	-2641
▁prosecut	-2642
▁independent	-2643
▁instant	-2644
▁details	-2645
▁role	-2646
enced	-2647
▁testim	-2648
lying	-2649
ored	-2650
oad	-2651
int	-2652
▁industry	-2653
▁relation	-2654
▁First	-2655
▁address	-2656
acc	-2657
▁cast	-2658
▁continue	-2659
▁spe	-2660
▁reserv	-2661
▁Em	-2662
udd	-2663
▁outside	-2664
ety	-2665
▁furn	-2666
NIC	-2667
▁rese	-2668
ED	-2669
▁eas	-2670
▁poet	-2671
▁ce	-2672
▁acquit	-2673
itor	-2674
▁shows	-2675
▁officers	-2676
▁applied	-2677
▁little	-2678
atch	-2679
▁Where	-2680
▁particularly	-2681
▁joint	-2682
▁writing	-2683
▁Annexure	-2684
omp	-2685
▁Report	-2686
ude	-2687
▁fr	-2688
▁teacher	-2689
११	-2690
▁Muk	-2691
land	-2692
▁hospital	-2693
▁lar	-2694
ises	-2695
▁Assistant	-2696
▁room	-2697
▁arr	-2698
▁interim	-2699
▁reached	-2700
▁recommend	-2701
▁single	-2702
▁sector	-2703
istrative	-2704
▁trust	-2705
oted	-2706
▁whom	-2707
▁Indust	-2708
ares	-2709
ison	-2710
▁district	-2711
▁Cons	-2712
omb	-2713
▁heart	-2714
▁intro	-2715
▁Created	-2716
▁better	-2717
▁execution	-2718
▁minor	-2719
▁hence	-2720
▁eye	-2721
▁existing	-2722
▁findings	-2723
▁discussion	-2724
▁Fin	-2725
▁Sur	-2726
AM	-2727
▁window	-2728
▁April	-2729
▁applications	-2730
UR	-2731
▁agg	-2732
▁data	-2733
▁existence	-2734
▁Ministry	-2735
▁bo	-2736
mises	-2737
▁makes	-2738
▁Petitioner	-2739
▁mur	-2740
▁British	-2741
▁strong	-2742
▁quality	-2743
wal	-2744
missible	-2745
▁Sah	-2746
dra	-2747
▁Hindi	-2748
▁pointed	-2749
▁summ	-2750
▁Bhavan	-2751
▁Gandhi	-2752
▁Village	-2753
aries	-2754
▁capacity	-2755
▁House	-2756
▁appellate	-2757
unicip	-2758
▁Procedure	-2759
▁Panchay	-2760
pir	-2761
▁Ph	-2762
▁join	-2763
now	-2764
▁Sat	-2765
▁enact	-2766
▁treatment	-2767
▁Pal	-2768
▁Artic	-2769
▁citiz	-2770
airs	-2771
▁neither	-2772
▁Rep	-2773
▁anything	-2774
aster	-2775
▁occur	-2776
▁liter	-2777
▁entered	-2778
▁rendered	-2779
▁Clause	-2780
▁separate	-2781
▁Lab	-2782
▁fra	-2783
kar	-2784
▁employment	-2785
▁Bar	-2786
▁themselves	-2787
▁Sw	-2788
▁close	-2789
▁Trial	-2790
UD	-2791
▁thing	-2792
▁Limited	-2793
▁passing	-2794
▁coming	-2795
▁search	-2796
▁Le	-2797
▁subs	-2798
▁station	-2799
▁live	-2800
cent	-2801
rs	-2802
▁prevent	-2803
▁growth	-2804
though	-2805
jee	-2806
▁Rasht	-2807
aka	-2808
▁gone	-2809
▁type	-2810
▁sense	-2811
ously	-2812
uction	-2813
▁thought	-2814
▁Sessions	-2815
▁Single	-2816
pr	-2817
cri	-2818
▁art	-2819
cle	-2820
▁Im	-2821
asad	-2822
▁line	-2823
▁consist	-2824
AD	-2825
▁story	-2826
▁specifically	-2827
▁sol	-2828
▁mill	-2829
▁operation	-2830
▁lay	-2831
▁elig	-2832
▁materials	-2833
ertain	-2834
▁alone	-2835
▁immediately	-2836
▁created	-2837
▁posts	-2838
▁love	-2839
▁murder	-2840
▁seized	-2841
▁cut	-2842
▁amendment	-2843
enc	-2844
irl	-2845
reedom	-2846
▁approval	-2847
▁Cong	-2848
hibit	-2849
▁selection	-2850
▁Bihar	-2851
▁During	-2852
▁Dep	-2853
▁region	-2854
olute	-2855
▁died	-2856
▁Though	-2857
tt	-2858
ift	-2859
▁inquiry	-2860
▁merit	-2861
▁Do	-2862
judic	-2863
▁Guj	-2864
▁draw	-2865
▁Per	-2866
▁ter	-2867
▁industrial	-2868
▁doing	-2869
▁Americ	-2870
▁led	-2871
CT	-2872
▁Scheme	-2873
io	-2874
▁include	-2875
▁Off	-2876
▁fun	-2877
▁reply	-2878
▁benefits	-2879
▁mus	-2880
▁reve	-2881
▁access	-2882
▁directions	-2883
▁Bal	-2884
ieved	-2885
▁argued	-2886
▁liability	-2887
endra	-2888
▁IT	-2889
▁Bengal	-2890
▁published	-2891
▁Pra	-2892
adu	-2893
▁analy	-2894
ipur	-2895
oice	-2896
▁marked	-2897
▁attention	-2898
ening	-2899
▁argument	-2900
MENT	-2901
▁fresh	-2902
▁fit	-2903
istic	-2904
▁mach	-2905
rapati	-2906
▁occup	-2907
imal	-2908
▁discipl	-2909
▁har	-2910
▁dest	-2911
arth	-2912
lector	-2913
▁tried	-2914
▁Krish	-2915
▁drawn	-2916
▁status	-2917
▁friend	-2918
▁nar	-2919
▁integ	-2920
▁Dece	-2921
▁Pun	-2922
▁lat	-2923
▁don	-2924
▁testimony	-2925
▁limited	-2926
▁past	-2927
▁requirement	-2928
▁reliance	-2929
▁questions	-2930
▁performance	-2931
▁providing	-2932
ji	-2933
▁Medical	-2934
ators	-2935
▁least	-2936
▁begin	-2937
▁remed	-2938
▁z	-2939
▁mess	-2940
▁punishment	-2941
▁progress	-2942
ilities	-2943
▁physical	-2944
▁judge	-2945
▁scale	-2946
ront	-2947
oor	-2948
verse	-2949
▁firm	-2950
▁enfor	-2951
▁living	-2952
oud	-2953
▁adopted	-2954
▁bid	-2955
▁withdra	-2956
pector	-2957
vention	-2958
▁proposed	-2959
▁contem	-2960
▁night	-2961
▁key	-2962
semb	-2963
▁Rashtrapati	-2964
▁ign	-2965
▁nom	-2966
▁gre	-2967
▁plea	-2968
▁distin	-2969
ott	-2970
▁dise	-2971
▁submissions	-2972
irth	-2973
adem	-2974
formation	-2975
▁addition	-2976
▁decide	-2977
▁actually	-2978
▁Moh	-2979
▁Trans	-2980
▁challenged	-2981
▁permit	-2982
▁lower	-2983
▁presum	-2984
▁pension	-2985
▁custom	-2986
▁young	-2987
▁Some	-2988
pective	-2989
atures	-2990
▁Nar	-2991
▁continued	-2992
rant	-2993
uro	-2994
▁Exec	-2995
retion	-2996
bsite	-2997
▁accident	-2998
▁parts	-2999
▁Congress	-3000
▁Dh	-3001
▁hands	-3002
▁August	-3003
roll	-3004
▁respective	-3005
ians	-3006
change	-3007
▁Ne	-3008
▁Smt	-3009
▁adj	-3010
▁version	-3011
▁air	-3012
▁dr	-3013
▁guarant	-3014
▁Legisl	-3015
▁deemed	-3016
▁Applic	-3017
▁Engine	-3018
▁Pur	-3019
▁history	-3020
▁Pand	-3021
ada	-3022
▁judgments	-3023
▁My	-3024
put	-3025
▁Oct	-3026
opp	-3027
▁January	-3028
▁recovered	-3029
▁experience	-3030
▁resolution	-3031
▁using	-3032
elling	-3033
▁July	-3034
▁produce	-3035
▁tender	-3036
▁red	-3037
▁pert	-3038
▁problem	-3039
▁often	-3040
▁Lord	-3041
▁scope	-3042
▁saw	-3043
▁impris	-3044
eness	-3045
icted	-3046
▁Mahar	-3047
▁Feb	-3048
▁Second	-3049
▁absolute	-3050
▁statute	-3051
oot	-3052
▁Fore	-3053
▁link	-3054
▁essential	-3055
equ	-3056
▁instance	-3057
anced	-3058
▁Chh	-3059
using	-3060
▁rather	-3061
▁disposed	-3062
ier	-3063
apter	-3064
▁Chair	-3065
▁unf	-3066
▁noticed	-3067
▁emp	-3068
sequently	-3069
▁premises	-3070
▁error	-3071
▁international	-3072
ns	-3073
▁Techn	-3074
▁proof	-3075
aging	-3076
▁Sept	-3077
▁advert	-3078
▁December	-3079
▁squ	-3080
▁environment	-3081
▁Intern	-3082
▁freedom	-3083
▁shop	-3084
cell	-3085
▁signific	-3086
▁truth	-3087
▁works	-3088
▁aud	-3089
▁prosecutrix	-3090
ream	-3091
▁fine	-3092
ruitment	-3093
aps	-3094
▁adjudic	-3095
pec	-3096
ergy	-3097
▁feel	-3098
▁Arbitr	-3099
▁category	-3100
▁products	-3101
▁community	-3102
ung	-3103
▁news	-3104
BI	-3105
asing	-3106
▁conclud	-3107
▁example	-3108
▁Prasad	-3109
hra	-3110
▁govern	-3111
▁steps	-3112
▁opposite	-3113
▁attempt	-3114
aled	-3115
▁loan	-3116
▁Ev	-3117
▁Pri	-3118
▁acquired	-3119
orrow	-3120
▁Deputy	-3121
▁lands	-3122
ival	-3123
▁guilty	-3124
▁comes	-3125
▁aware	-3126
▁Judicial	-3127
▁Mem	-3128
▁injured	-3129
RI	-3130
oper	-3131
view	-3132
bed	-3133
▁becomes	-3134
▁conver	-3135
▁mort	-3136
▁perman	-3137
chan	-3138
ration	-3139
▁RRB	-3140
▁virt	-3141
▁consent	-3142
ober	-3143
▁website	-3144
ots	-3145
aching	-3146
▁laws	-3147
▁tradition	-3148
▁reading	-3149
▁protection	-3150
▁commercial	-3151
▁consequ	-3152
▁claims	-3153
▁influ	-3154
▁preferred	-3155
▁imprisonment	-3156
▁Sab	-3157
▁quant	-3158
▁basic	-3159
ili	-3160
▁host	-3161
▁covered	-3162
▁vari	-3163
▁Def	-3164
▁Accordingly	-3165
▁discretion	-3166
▁More	-3167
pite	-3168
▁September	-3169
▁sole	-3170
anda	-3171
▁setting	-3172
▁Pen	-3173
▁permitted	-3174
▁farm	-3175
iso	-3176
▁assum	-3177
▁Dist	-3178
▁soon	-3179
▁ult	-3180
▁responsible	-3181
▁administration	-3182
sing	-3183
▁deep	-3184
▁religious	-3185
▁lakh	-3186
▁Mo	-3187
▁examine	-3188
▁research	-3189
▁Ac	-3190
▁informant	-3191
▁violation	-3192
ruary	-3193
uties	-3194
▁agreed	-3195
▁satisfied	-3196
▁Int	-3197
▁sold	-3198
encies	-3199
▁conscious	-3200
tation	-3201
inated	-3202
ran	-3203
▁Princip	-3204
jab	-3205
▁create	-3206
▁deli	-3207
AS	-3208
▁identified	-3209
▁relationship	-3210
▁evident	-3211
▁Sharma	-3212
▁College	-3213
▁February	-3214
▁accounts	-3215
▁June	-3216
rd	-3217
unicipal	-3218
▁enter	-3219
▁names	-3220
▁Income	-3221
line	-3222
ourn	-3223
▁Collector	-3224
▁balance	-3225
▁whereas	-3226
▁hy	-3227
▁Ple	-3228
▁fire	-3229
▁attack	-3230
▁big	-3231
▁representation	-3232
bar	-3233
▁cell	-3234
▁US	-3235
amental	-3236
▁explanation	-3237
▁pot	-3238
▁talk	-3239
ina	-3240
▁express	-3241
▁suggestion	-3242
▁acquisition	-3243
ager	-3244
▁supported	-3245
cement	-3246
▁awarded	-3247
▁completed	-3248
uel	-3249
▁appeals	-3250
▁mut	-3251
▁rent	-3252
istrar	-3253
▁Panchayat	-3254
▁Har	-3255
▁sheet	-3256
▁half	-3257
▁paper	-3258
▁practice	-3259
ami	-3260
▁Schedule	-3261
▁custody	-3262
▁concept	-3263
▁Similar	-3264
▁computer	-3265
▁problems	-3266
▁LRB	-3267
▁almost	-3268
▁Appellant	-3269
▁page	-3270
▁Bl	-3271
▁top	-3272
▁wide	-3273
va	-3274
ender	-3275
▁born	-3276
ankar	-3277
▁extended	-3278
garh	-3279
▁penalty	-3280
uck	-3281
▁Ah	-3282
▁thereby	-3283
▁Ash	-3284
▁enj	-3285
▁quite	-3286
ograph	-3287
▁exercised	-3288
estic	-3289
▁Devi	-3290
▁const	-3291
▁di	-3292
▁nation	-3293
pecially	-3294
▁Punjab	-3295
▁List	-3296
sis	-3297
▁girl	-3298
riev	-3299
▁gra	-3300
heduled	-3301
▁Inspector	-3302
rob	-3303
▁Ma	-3304
ras	-3305
▁seiz	-3306
▁ought	-3307
▁Gujarat	-3308
ingu	-3309
▁entry	-3310
▁payable	-3311
▁movement	-3312
iture	-3313
ological	-3314
▁woman	-3315
▁remain	-3316
▁stands	-3317
▁getting	-3318
els	-3319
▁Sun	-3320
▁JUD	-3321
▁duties	-3322
▁Other	-3323
▁included	-3324
▁Admin	-3325
ET	-3326
▁situated	-3327
▁dealing	-3328
▁proviso	-3329
▁fully	-3330
▁attract	-3331
▁punishable	-3332
▁Af	-3333
▁defined	-3334
duction	-3335
▁effective	-3336
▁cogn	-3337
cription	-3338
▁October	-3339
▁developed	-3340
▁Executive	-3341
iously	-3342
▁technology	-3343
▁West	-3344
▁answer	-3345
hood	-3346
▁network	-3347
▁partn	-3348
ump	-3349
▁weap	-3350
▁simple	-3351
▁article	-3352
▁technical	-3353
▁imposed	-3354
▁....	-3355
▁Appellate	-3356
▁duly	-3357
▁liqu	-3358
▁behind	-3359
▁threat	-3360
▁parents	-3361
▁especially	-3362
▁pack	-3363
▁peace	-3364
▁returned	-3365
▁observations	-3366
▁minimum	-3367
▁Ka	-3368
body	-3369
▁check	-3370
▁portion	-3371
▁cancell	-3372
▁Information	-3373
kh	-3374
▁modern	-3375
▁requires	-3376
▁clar	-3377
▁supply	-3378
▁Chandra	-3379
▁guide	-3380
nat	-3381
▁injunction	-3382
be	-3383
▁enough	-3384
▁perusal	-3385
▁acts	-3386
▁sex	-3387
▁register	-3388
▁wa	-3389
rieved	-3390
▁approved	-3391
▁JUDG	-3392
▁ever	-3393
▁employer	-3394
▁corpor	-3395
▁pers	-3396
▁limit	-3397
▁until	-3398
imately	-3399
▁suggest	-3400
▁Principal	-3401
▁committee	-3402
▁Go	-3403
▁training	-3404
▁Brah	-3405
▁text	-3406
▁phot	-3407
▁Bomb	-3408
▁settlement	-3409
rut	-3410
▁tele	-3411
▁Hospital	-3412
▁quar	-3413
▁stip	-3414
▁books	-3415
▁birth	-3416
▁really	-3417
amil	-3418
▁early	-3419
▁profession	-3420
▁Investigating	-3421
▁pros	-3422
lusive	-3423
▁source	-3424
▁deposit	-3425
▁current	-3426
▁hon	-3427
▁altern	-3428
▁hours	-3429
CC	-3430
▁Case	-3431
▁quas	-3432
▁implic	-3433
▁option	-3434
itude	-3435
▁United	-3436
▁lease	-3437
▁Office	-3438
pta	-3439
ancies	-3440
▁install	-3441
▁typ	-3442
avi	-3443
▁JUDGMENT	-3444
▁likely	-3445
▁prejud	-3446
▁deg	-3447
▁connected	-3448
ones	-3449
▁ren	-3450
▁visit	-3451
▁marks	-3452
▁discussed	-3453
obile	-3454
▁scient	-3455
▁signed	-3456
▁companies	-3457
▁substantial	-3458
▁articles	-3459
▁protect	-3460
ground	-3461
com	-3462
rast	-3463
▁default	-3464
ifying	-3465
▁boy	-3466
rig	-3467
▁Bombay	-3468
▁Mal	-3469
endence	-3470
▁sustained	-3471
▁fundamental	-3472
▁Nagar	-3473
▁democ	-3474
▁fraud	-3475
▁facie	-3476
▁failure	-3477
apers	-3478
enance	-3479
ayan	-3480
sembly	-3481
▁recruitment	-3482
▁seven	-3483
▁Pe	-3484
assion	-3485
▁initiated	-3486
enses	-3487
▁Shiv	-3488
▁oral	-3489
▁discharge	-3490
uru	-3491
▁Work	-3492
१२	-3493
▁understand	-3494
▁villa	-3495
porary	-3496
▁Associ	-3497
▁job	-3498
▁Registrar	-3499
▁temple	-3500
▁insp	-3501
▁collect	-3502
isc	-3503
▁apart	-3504
▁enjoy	-3505
IA	-3506
▁Gov	-3507
▁ST	-3508
▁Sci	-3509
▁Nove	-3510
▁actual	-3511
dom	-3512
▁la	-3513
OU	-3514
▁Sam	-3515
▁mag	-3516
ifications	-3517
oke	-3518
wan	-3519
▁places	-3520
▁Penal	-3521
▁transaction	-3522
▁seizure	-3523
▁CR	-3524
▁Bab	-3525
▁revenue	-3526
▁definition	-3527
adav	-3528
▁wid	-3529
ference	-3530
▁Revenue	-3531
▁sound	-3532
▁determined	-3533
ins	-3534
ining	-3535
▁instead	-3536
▁functions	-3537
३०	-3538
▁November	-3539
▁shares	-3540
let	-3541
▁activity	-3542
lack	-3543
lines	-3544
▁obl	-3545
▁terror	-3546
▁strength	-3547
under	-3548
▁low	-3549
▁assets	-3550
erate	-3551
elt	-3552
▁aspects	-3553
▁instrument	-3554
▁cogniz	-3555
▁adverse	-3556
▁communication	-3557
▁permanent	-3558
▁Management	-3559
hest	-3560
▁believe	-3561
irmed	-3562
▁Application	-3563
▁says	-3564
▁Isra	-3565
eared	-3566
▁lodged	-3567
▁prayer	-3568
▁substance	-3569
▁sister	-3570
▁doctor	-3571
▁remedy	-3572
▁Super	-3573
▁Of	-3574
▁transferred	-3575
AG	-3576
ne	-3577
▁fig	-3578
▁prima	-3579
▁log	-3580
▁expressed	-3581
▁facilities	-3582
▁generally	-3583
ett	-3584
istan	-3585
iable	-3586
ales	-3587
▁served	-3588
▁improve	-3589
▁Patna	-3590
▁export	-3591
▁candidate	-3592
oj	-3593
▁sil	-3594
▁arguments	-3595
itable	-3596
▁greater	-3597
▁unit	-3598
▁fell	-3599
▁directly	-3600
▁Israel	-3601
▁Plan	-3602
▁fulf	-3603
▁Provided	-3604
▁Bhag	-3605
ulate	-3606
-0	-3607
▁achieve	-3608
▁assistance	-3609
▁bod	-3610
▁territ	-3611
▁transport	-3612
▁signature	-3613
herjee	-3614
obal	-3615
▁structure	-3616
▁extra	-3617
▁front	-3618
▁energy	-3619
krit	-3620
▁Shah	-3621
▁Stand	-3622
▁constituted	-3623
▁Rail	-3624
▁remained	-3625
utta	-3626
▁site	-3627
▁Prof	-3628
▁lost	-3629
▁Ors	-3630
▁Mand	-3631
▁Chairman	-3632
▁Karnat	-3633
▁Institute	-3634
operative	-3635
unities	-3636
duce	-3637
▁Des	-3638
▁city	-3639
▁Then	-3640
▁takes	-3641
▁Euro	-3642
▁convicted	-3643
▁religion	-3644
uting	-3645
ows	-3646
ordinate	-3647
dd	-3648
▁Dev	-3649
gment	-3650
iddle	-3651
▁Chapter	-3652
▁importance	-3653
ilt	-3654
▁administrative	-3655
▁bill	-3656
▁costs	-3657
iti	-3658
▁percent	-3659
▁aim	-3660
▁purchase	-3661
enty	-3662
EC	-3663
▁conferred	-3664
ps	-3665
▁changes	-3666
▁PRES	-3667
▁limitation	-3668
▁agricultural	-3669
▁affected	-3670
▁contribution	-3671
ousand	-3672
▁emph	-3673
▁Karnataka	-3674
▁Mukherjee	-3675
▁advance	-3676
▁normal	-3677
▁East	-3678
▁keeping	-3679
▁arrived	-3680
▁educational	-3681
iny	-3682
▁merits	-3683
▁million	-3684
▁lack	-3685
▁arrange	-3686
rid	-3687
▁Exhibit	-3688
▁len	-3689
▁includes	-3690
erty	-3691
▁efforts	-3692
▁apparent	-3693
itary	-3694
▁increase	-3695
▁population	-3696
▁Land	-3697
▁max	-3698
ga	-3699
▁intended	-3700
hem	-3701
▁faith	-3702
▁Judges	-3703
▁described	-3704
▁forms	-3705
rug	-3706
de	-3707
▁PO	-3708
▁Any	-3709
▁compliance	-3710
▁Municipal	-3711
▁stru	-3712
abh	-3713
▁Europe	-3714
▁Bang	-3715
▁leading	-3716
urer	-3717
ouses	-3718
▁study	-3719
▁goes	-3720
▁agency	-3721
OM	-3722
▁gives	-3723
aken	-3724
▁difference	-3725
▁engaged	-3726
▁interpretation	-3727
aran	-3728
▁allegation	-3729
▁Tamil	-3730
▁er	-3731
▁burd	-3732
eria	-3733
asm	-3734
▁preced	-3735
ocation	-3736
stituted	-3737
athi	-3738
▁running	-3739
essing	-3740
ables	-3741
▁forth	-3742
▁offer	-3743
▁disclos	-3744
▁harm	-3745
▁oblig	-3746
▁advertise	-3747
▁stri	-3748
▁message	-3749
▁rightly	-3750
▁Sabha	-3751
▁eligible	-3752
▁remains	-3753
▁Lok	-3754
▁Krishna	-3755
ask	-3756
▁debt	-3757
▁weeks	-3758
▁coll	-3759
▁griev	-3760
aut	-3761
▁Bill	-3762
▁ris	-3763
,00	-3764
IS	-3765
▁mental	-3766
ke	-3767
ij	-3768
▁Sa	-3769
▁arise	-3770
▁carrying	-3771
▁emer	-3772
▁resources	-3773
▁inside	-3774
rastructure	-3775
▁Qu	-3776
▁sure	-3777
▁Red	-3778
▁Account	-3779
wh	-3780
▁Similarly	-3781
▁programme	-3782
▁investment	-3783
▁Muslims	-3784
▁selected	-3785
elf	-3786
▁remo	-3787
▁Das	-3788
▁speak	-3789
▁patient	-3790
▁Kash	-3791
▁Yadav	-3792
▁Services	-3793
▁sou	-3794
▁receive	-3795
▁disease	-3796
▁disclosed	-3797
▁recording	-3798
esides	-3799
▁added	-3800
▁arising	-3801
▁Hy	-3802
apur	-3803
▁arbitrator	-3804
EL	-3805
▁Jag	-3806
enditure	-3807
▁exceed	-3808
▁Society	-3809
▁offered	-3810
▁claimant	-3811
▁memo	-3812
ishing	-3813
▁opens	-3814
▁determination	-3815
▁completion	-3816
robor	-3817
▁Our	-3818
▁earth	-3819
▁staff	-3820
▁bearing	-3821
▁distance	-3822
▁amended	-3823
▁Assam	-3824
▁bad	-3825
▁Labour	-3826
▁disputed	-3827
▁00	-3828
▁heav	-3829
▁explained	-3830
▁volunt	-3831
▁Bas	-3832
▁International	-3833
▁stating	-3834
▁mechan	-3835
ademic	-3836
▁measures	-3837
inding	-3838
▁eight	-3839
cise	-3840
▁none	-3841
▁presented	-3842
▁points	-3843
ava	-3844
▁Ms	-3845
▁standard	-3846
ading	-3847
▁else	-3848
▁extract	-3849
▁Jain	-3850
mir	-3851
▁der	-3852
▁forest	-3853
▁liberty	-3854
▁responsibility	-3855
▁retire	-3856
▁century	-3857
▁legislation	-3858
▁IN	-3859
IDENT	-3860
▁Stat	-3861
▁detention	-3862
▁Pran	-3863
▁lot	-3864
▁Son	-3865
attis	-3866
▁constitutional	-3867
ban	-3868
▁establishment	-3869
▁Right	-3870
▁South	-3871
ches	-3872
▁construct	-3873
▁contrad	-3874
uge	-3875
uls	-3876
oval	-3877
rote	-3878
ora	-3879
▁funds	-3880
rog	-3881
▁Mon	-3882
▁corrobor	-3883
rief	-3884
anskrit	-3885
▁arrested	-3886
umbai	-3887
▁requirements	-3888
icide	-3889
▁reads	-3890
▁contact	-3891
▁refers	-3892
ashtra	-3893
▁collected	-3894
anga	-3895
▁size	-3896
▁thousand	-3897
▁disciplinary	-3898
▁Gupta	-3899
▁partition	-3900
▁Health	-3901
adh	-3902
▁Nag	-3903
▁pleaded	-3904
▁citizens	-3905
▁contempl	-3906
▁Expl	-3907
▁appeared	-3908
ishes	-3909
vision	-3910
▁AP	-3911
attisgarh	-3912
▁bi	-3913
aily	-3914
▁mass	-3915
▁Governor	-3916
▁External	-3917
▁SH	-3918
▁emphas	-3919
▁breach	-3920
rate	-3921
▁comb	-3922
▁interference	-3923
lies	-3924
sect	-3925
▁burden	-3926
▁licence	-3927
▁Both	-3928
▁indicated	-3929
▁across	-3930
▁wanted	-3931
▁aggrieved	-3932
▁PRESIDENT	-3933
ricity	-3934
▁emb	-3935
ini	-3936
▁esc	-3937
▁factors	-3938
▁Add	-3939
▁Som	-3940
▁Post	-3941
▁amounts	-3942
▁How	-3943
▁imper	-3944
aded	-3945
▁unre	-3946
▁CPC	-3947
▁pan	-3948
▁Calc	-3949
▁culture	-3950
rown	-3951
▁significant	-3952
▁Utt	-3953
▁extre	-3954
utor	-3955
ional	-3956
▁pursuant	-3957
illing	-3958
▁Before	-3959
▁univers	-3960
▁soft	-3961
▁teachers	-3962
▁poor	-3963
▁labour	-3964
liminary	-3965
▁exclud	-3966
▁warrant	-3967
▁IND	-3968
▁cond	-3969
▁scrut	-3970
eet	-3971
undred	-3972
▁incorpor	-3973
ING	-3974
▁adequ	-3975
▁objections	-3976
▁meant	-3977
▁expected	-3978
▁wrote	-3979
▁Chhattisgarh	-3980
rine	-3981
AY	-3982
▁१	-3983
▁uns	-3984
▁Trust	-3985
estern	-3986
▁interfere	-3987
▁tell	-3988
▁formed	-3989
dy	-3990
▁detailed	-3991
▁maintenance	-3992
▁mal	-3993
usted	-3994
▁whol	-3995
▁subsequently	-3996
▁exchange	-3997
▁quash	-3998
ortem	-3999
▁Can	-4000
▁obligation	-4001
▁advant	-4002
▁enable	-4003
▁Andhra	-4004
▁rural	-4005
▁background	-4006
▁sell	-4007
iring	-4008
▁charged	-4009
▁Fund	-4010
▁broad	-4011
▁cash	-4012
▁contentions	-4013
sy	-4014
▁ow	-4015
▁prayed	-4016
play	-4017
▁conven	-4018
▁Article	-4019
▁oil	-4020
nces	-4021
▁respectively	-4022
▁length	-4023
tax	-4024
▁tree	-4025
,000	-4026
anger	-4027
▁transl	-4028
▁measure	-4029
▁regards	-4030
▁disputes	-4031
▁inqu	-4032
▁frame	-4033
▁officials	-4034
erala	-4035
▁completely	-4036
osh	-4037
▁Sanskrit	-4038
▁majority	-4039
▁NO	-4040
▁Every	-4041
▁Mumbai	-4042
▁excess	-4043
▁expenditure	-4044
etimes	-4045
othes	-4046
▁literature	-4047
▁Regulations	-4048
▁Kal	-4049
▁lev	-4050
▁ordinary	-4051
▁although	-4052
▁Republic	-4053
▁units	-4054
▁looking	-4055
▁extend	-4056
▁proceeded	-4057
ikh	-4058
olk	-4059
ique	-4060
▁asc	-4061
▁encour	-4062
AP	-4063
▁Evidence	-4064
▁advanced	-4065
▁servant	-4066
▁salary	-4067
▁central	-4068
▁workers	-4069
▁wall	-4070
▁Power	-4071
aves	-4072
▁dealt	-4073
▁arm	-4074
▁Whe	-4075
▁Road	-4076
bitral	-4077
▁mode	-4078
▁Kerala	-4079
▁schedule	-4080
▁initial	-4081
▁entr	-4082
▁felt	-4083
▁unable	-4084
▁properly	-4085
▁alternative	-4086
▁try	-4087
▁gold	-4088
▁domestic	-4089
▁calc	-4090
▁interests	-4091
▁Gh	-4092
▁Pranab	-4093
▁categor	-4094
▁Mark	-4095
▁path	-4096
▁repro	-4097
▁validity	-4098
▁Calcutta	-4099
wa	-4100
▁fast	-4101
▁granting	-4102
▁justified	-4103
eech	-4104
▁science	-4105
▁suc	-4106
ributed	-4107
▁Centre	-4108
▁Class	-4109
▁tot	-4110
she	-4111
nam	-4112
ivity	-4113
▁ll	-4114
▁tri	-4115
▁Maharashtra	-4116
ammu	-4117
▁reit	-4118
▁standing	-4119
▁virtue	-4120
IV	-4121
▁handed	-4122
▁maintainable	-4123
▁spread	-4124
▁Head	-4125
▁eyes	-4126
▁util	-4127
atever	-4128
▁indicate	-4129
▁sac	-4130
▁contents	-4131
▁maintained	-4132
osop	-4133
▁mom	-4134
iency	-4135
▁Jammu	-4136
▁strict	-4137
▁removal	-4138
▁instructions	-4139
▁sustain	-4140
vere	-4141
▁succeed	-4142
actions	-4143
▁tribunal	-4144
▁disposal	-4145
abor	-4146
▁hundred	-4147
▁constitute	-4148
▁Shankar	-4149
▁preliminary	-4150
atio	-4151
▁cal	-4152
▁mandatory	-4153
pper	-4154
▁motor	-4155
▁Please	-4156
▁Association	-4157
oon	-4158
▁Ent	-4159
▁quashed	-4160
▁conflic	-4161
▁legislature	-4162
▁arbitrary	-4163
▁publication	-4164
▁miscon	-4165
▁tenant	-4166
▁letters	-4167
▁advocate	-4168
▁proposal	-4169
oti	-4170
▁Cert	-4171
▁round	-4172
▁idea	-4173
wari	-4174
▁base	-4175
mortem	-4176
▁wound	-4177
▁anim	-4178
▁admit	-4179
▁dischar	-4180
▁consult	-4181
▁introduced	-4182
▁global	-4183
▁stood	-4184
▁contain	-4185
aulted	-4186
▁innov	-4187
१३	-4188
aram	-4189
▁Khan	-4190
▁demon	-4191
oms	-4192
oo	-4193
▁AG	-4194
▁AS	-4195
▁river	-4196
▁cy	-4197
▁Arab	-4198
▁applicants	-4199
▁pred	-4200
raft	-4201
▁urged	-4202
vell	-4203
ilosop	-4204
▁Having	-4205
▁degree	-4206
▁analysis	-4207
▁won	-4208
▁poll	-4209
▁Their	-4210
▁black	-4211
▁insurance	-4212
▁Pak	-4213
▁reports	-4214
▁longer	-4215
▁Scheduled	-4216
▁aid	-4217
▁err	-4218
▁vested	-4219
▁requested	-4220
hab	-4221
▁guidelines	-4222
▁king	-4223
▁week	-4224
ula	-4225
enth	-4226
▁cheque	-4227
uss	-4228
▁Elect	-4229
▁Industrial	-4230
nother	-4231
▁Prosec	-4232
▁named	-4233
ATION	-4234
▁vacancies	-4235
▁qualification	-4236
▁team	-4237
ply	-4238
▁Another	-4239
▁trib	-4240
▁avoid	-4241
▁principal	-4242
▁laun	-4243
▁despite	-4244
▁pleadings	-4245
izing	-4246
▁response	-4247
thern	-4248
usion	-4249
▁commence	-4250
▁Regulation	-4251
▁rail	-4252
PS	-4253
gers	-4254
reement	-4255
▁projects	-4256
▁released	-4257
▁viz	-4258
▁late	-4259
▁corres	-4260
▁diss	-4261
▁guilt	-4262
▁mist	-4263
▁unc	-4264
haps	-4265
▁Commercial	-4266
▁exem	-4267
▁accomp	-4268
olved	-4269
right	-4270
ley	-4271
▁camp	-4272
▁daily	-4273
▁Moreover	-4274
▁Br	-4275
▁&#1	-4276
▁increased	-4277
▁cited	-4278
ailed	-4279
▁obv	-4280
▁numbers	-4281
▁Whether	-4282
▁Priv	-4283
▁standards	-4284
orse	-4285
▁prohib	-4286
abilities	-4287
▁invok	-4288
▁mobile	-4289
▁undertaking	-4290
asth	-4291
▁fem	-4292
▁infrastructure	-4293
▁whereby	-4294
▁economy	-4295
▁reform	-4296
▁confidence	-4297
▁litigation	-4298
▁Vish	-4299
▁space	-4300
▁stamp	-4301
▁convey	-4302
▁attached	-4303
▁expert	-4304
▁purchased	-4305
▁Once	-4306
▁seems	-4307
▁belonging	-4308
▁termination	-4309
where	-4310
▁nos	-4311
rew	-4312
▁SCA	-4313
▁door	-4314
ades	-4315
▁board	-4316
▁popular	-4317
▁advertisement	-4318
▁remaining	-4319
▁Group	-4320
▁former	-4321
▁Project	-4322
▁Mu	-4323
▁larger	-4324
▁Inter	-4325
▁beginning	-4326
▁morning	-4327
▁Op	-4328
▁ali	-4329
▁academic	-4330
▁assaulted	-4331
▁refused	-4332
▁expenses	-4333
▁medic	-4334
▁contempt	-4335
▁investigating	-4336
▁autom	-4337
▁implementation	-4338
DA	-4339
▁acquittal	-4340
eel	-4341
▁rise	-4342
▁insect	-4343
▁iii	-4344
▁primary	-4345
▁contains	-4346
▁turned	-4347
▁issuance	-4348
gn	-4349
▁King	-4350
hya	-4351
▁Kam	-4352
endency	-4353
▁Explanation	-4354
▁foc	-4355
ailing	-4356
▁Ur	-4357
▁Ak	-4358
ox	-4359
▁Uttar	-4360
▁write	-4361
▁interested	-4362
▁CH	-4363
▁Form	-4364
▁vot	-4365
▁possess	-4366
▁deposited	-4367
ques	-4368
▁bodies	-4369
▁Finance	-4370
▁banks	-4371
▁journ	-4372
▁borrow	-4373
▁ratio	-4374
▁suffered	-4375
▁repe	-4376
ateral	-4377
ograp	-4378
▁Policy	-4379
▁fear	-4380
ulted	-4381
▁Char	-4382
ndra	-4383
racy	-4384
rist	-4385
nel	-4386
▁located	-4387
▁Day	-4388
▁Prog	-4389
▁sides	-4390
▁finally	-4391
▁events	-4392
▁sections	-4393
▁sun	-4394
▁plus	-4395
▁weak	-4396
▁Block	-4397
▁groups	-4398
▁pain	-4399
▁extension	-4400
▁release	-4401
▁temporary	-4402
ota	-4403
....	-4404
▁correspond	-4405
▁ready	-4406
ni	-4407
▁results	-4408
▁vital	-4409
▁determine	-4410
lal	-4411
ler	-4412
▁rout	-4413
▁Her	-4414
▁formal	-4415
▁highest	-4416
▁Tw	-4417
▁deb	-4418
▁speed	-4419
▁TO	-4420
▁prop	-4421
▁usually	-4422
NA	-4423
▁advantage	-4424
▁guarantee	-4425
▁factual	-4426
▁schools	-4427
▁delib	-4428
▁finds	-4429
▁maximum	-4430
▁weight	-4431
▁Ved	-4432
▁items	-4433
▁sle	-4434
▁dig	-4435
erted	-4436
▁hope	-4437
inating	-4438
▁prejudice	-4439
▁Net	-4440
leb	-4441
▁demonst	-4442
aksh	-4443
▁reach	-4444
▁proced	-4445
▁distingu	-4446
arya	-4447
▁presumption	-4448
▁Insurance	-4449
▁approached	-4450
▁concluded	-4451
▁dismissal	-4452
▁cognizance	-4453
▁entertain	-4454
▁potential	-4455
▁Ob	-4456
▁valu	-4457
▁removed	-4458
ze	-4459
▁Here	-4460
▁proc	-4461
▁Technology	-4462
pped	-4463
▁saying	-4464
▁Control	-4465
▁worked	-4466
▁retirement	-4467
▁Mod	-4468
cient	-4469
▁built	-4470
▁deals	-4471
▁referring	-4472
udh	-4473
▁Your	-4474
▁film	-4475
inery	-4476
chol	-4477
ighb	-4478
▁perf	-4479
▁void	-4480
▁element	-4481
▁god	-4482
owry	-4483
ites	-4484
▁tar	-4485
▁colour	-4486
▁moment	-4487
▁Resident	-4488
▁drug	-4489
▁raise	-4490
▁ordered	-4491
▁Air	-4492
▁employed	-4493
▁risk	-4494
▁objective	-4495
iment	-4496
▁send	-4497
▁user	-4498
▁Sal	-4499
▁deserv	-4500
▁extreme	-4501
▁recommendations	-4502
iece	-4503
▁AND	-4504
▁Rel	-4505
▁dying	-4506
▁influence	-4507
rel	-4508
▁compassion	-4509
orial	-4510
▁novel	-4511
rif	-4512
iciary	-4513
itness	-4514
▁crores	-4515
▁wholly	-4516
▁understanding	-4517
ume	-4518
▁ing	-4519
▁deduction	-4520
PA	-4521
▁eval	-4522
▁suggested	-4523
▁notes	-4524
▁recent	-4525
▁addressed	-4526
▁Ahmed	-4527
▁assault	-4528
ton	-4529
▁pal	-4530
▁delivery	-4531
▁showing	-4532
▁Mis	-4533
▁crore	-4534
▁pleas	-4535
ictions	-4536
▁motive	-4537
▁bear	-4538
▁phone	-4539
▁hereby	-4540
▁North	-4541
▁PM	-4542
▁neighb	-4543
▁proposition	-4544
▁Manager	-4545
▁notified	-4546
▁Up	-4547
▁imag	-4548
▁views	-4549
EAR	-4550
▁stock	-4551
▁amongst	-4552
▁item	-4553
▁render	-4554
▁seniority	-4555
▁industries	-4556
▁filled	-4557
▁partnership	-4558
dden	-4559
▁adequate	-4560
▁square	-4561
▁survey	-4562
▁philosop	-4563
▁card	-4564
uct	-4565
▁confirmed	-4566
▁recommended	-4567
▁DW	-4568
▁incur	-4569
▁engine	-4570
▁violence	-4571
oured	-4572
▁moved	-4573
▁license	-4574
▁Official	-4575
yle	-4576
▁Kashmir	-4577
▁hum	-4578
▁fight	-4579
▁assigned	-4580
▁rank	-4581
▁arises	-4582
▁legislative	-4583
▁San	-4584
▁bed	-4585
▁chem	-4586
▁papers	-4587
▁satisfaction	-4588
▁Superint	-4589
▁pron	-4590
inder	-4591
operation	-4592
▁clean	-4593
▁impact	-4594
▁changed	-4595
accused	-4596
▁affairs	-4597
▁complex	-4598
▁AT	-4599
▁cruel	-4600
▁Are	-4601
▁caste	-4602
AC	-4603
▁Vij	-4604
inent	-4605
▁Est	-4606
ja	-4607
▁elected	-4608
iy	-4609
▁identification	-4610
▁bon	-4611
▁Person	-4612
aches	-4613
issa	-4614
▁executive	-4615
gest	-4616
▁married	-4617
▁lives	-4618
▁investig	-4619
▁happened	-4620
▁Bharat	-4621
▁stop	-4622
▁undergo	-4623
▁pure	-4624
utation	-4625
▁discrim	-4626
essor	-4627
upees	-4628
appa	-4629
▁began	-4630
▁happy	-4631
▁Science	-4632
▁suspic	-4633
▁conce	-4634
▁highly	-4635
ka	-4636
una	-4637
▁burn	-4638
▁involve	-4639
orld	-4640
▁foot	-4641
vis	-4642
ourth	-4643
▁Agreement	-4644
idy	-4645
▁driver	-4646
▁indicates	-4647
head	-4648
▁reduced	-4649
▁distribution	-4650
▁binding	-4651
bhai	-4652
▁distinct	-4653
olid	-4654
▁Cor	-4655
▁permissible	-4656
▁Car	-4657
▁causing	-4658
▁circumstance	-4659
▁Sanj	-4660
orney	-4661
ensive	-4662
▁lying	-4663
▁connect	-4664
▁enh	-4665
andum	-4666
herent	-4667
▁Ant	-4668
▁issuing	-4669
▁American	-4670
▁Govt	-4671
▁break	-4672
▁programmes	-4673
▁ep	-4674
▁safe	-4675
▁amend	-4676
iya	-4677
▁brief	-4678
▁cad	-4679
aneous	-4680
orandum	-4681
cial	-4682
withstanding	-4683
▁Att	-4684
▁Supp	-4685
▁leaders	-4686
▁directing	-4687
▁Assembly	-4688
▁Orissa	-4689
▁successful	-4690
▁ble	-4691
cribe	-4692
▁flow	-4693
▁contra	-4694
▁sitting	-4695
▁totally	-4696
▁mortg	-4697
▁clothes	-4698
▁rul	-4699
▁feed	-4700
▁Afric	-4701
antly	-4702
▁cultural	-4703
▁Ali	-4704
▁Amendment	-4705
▁Prot	-4706
▁opened	-4707
▁secured	-4708
▁Circ	-4709
oned	-4710
requ	-4711
▁bur	-4712
▁Agricult	-4713
▁Engineer	-4714
▁spiritual	-4715
▁collection	-4716
alid	-4717
chand	-4718
▁twenty	-4719
▁ap	-4720
▁Nadu	-4721
▁save	-4722
▁active	-4723
▁minutes	-4724
▁Assessing	-4725
MC	-4726
▁Jh	-4727
▁sym	-4728
stood	-4729
▁newsp	-4730
▁liquid	-4731
▁sudden	-4732
▁pattern	-4733
▁thereto	-4734
ception	-4735
▁multip	-4736
▁depri	-4737
achment	-4738
▁pendency	-4739
mise	-4740
AB	-4741
kash	-4742
▁undertaken	-4743
▁Institution	-4744
▁pict	-4745
▁attend	-4746
▁whatever	-4747
▁cho	-4748
attle	-4749
▁Chen	-4750
road	-4751
▁Award	-4752
▁pronoun	-4753
▁INDIA	-4754
▁World	-4755
mi	-4756
omen	-4757
▁seed	-4758
▁scientific	-4759
▁grand	-4760
▁Employ	-4761
ousing	-4762
▁Railway	-4763
▁sample	-4764
itate	-4765
▁weapon	-4766
aji	-4767
yer	-4768
▁speech	-4769
▁huge	-4770
icated	-4771
uration	-4772
▁containing	-4773
iation	-4774
▁visited	-4775
▁Kan	-4776
▁Roy	-4777
▁Ord	-4778
▁values	-4779
▁sem	-4780
▁press	-4781
▁innoc	-4782
reen	-4783
▁lie	-4784
▁looked	-4785
▁conspir	-4786
▁increasing	-4787
▁win	-4788
▁town	-4789
▁manif	-4790
▁certainly	-4791
while	-4792
▁bond	-4793
▁genu	-4794
esting	-4795
ancing	-4796
▁promot	-4797
pto	-4798
rick	-4799
aur	-4800
▁hab	-4801
▁defect	-4802
ivered	-4803
▁device	-4804
azar	-4805
▁mount	-4806
▁display	-4807
▁furnished	-4808
ieties	-4809
▁Tal	-4810
ients	-4811
▁neglig	-4812
▁Officers	-4813
▁Bu	-4814
▁ways	-4815
▁harass	-4816
▁transactions	-4817
▁ago	-4818
▁suitable	-4819
▁depart	-4820
▁fat	-4821
▁dowry	-4822
▁wages	-4823
rep	-4824
opal	-4825
▁block	-4826
▁bit	-4827
▁hot	-4828
lex	-4829
qual	-4830
▁renew	-4831
▁fif	-4832
▁sens	-4833
▁latter	-4834
▁quoted	-4835
▁sexual	-4836
▁systems	-4837
held	-4838
▁exhib	-4839
▁soul	-4840
▁description	-4841
▁closed	-4842
▁seats	-4843
▁Accused	-4844
ellig	-4845
▁obtaining	-4846
irs	-4847
etic	-4848
▁types	-4849
▁Program	-4850
▁task	-4851
regular	-4852
▁possibility	-4853
▁milk	-4854
▁song	-4855
▁rates	-4856
▁plants	-4857
▁adjudication	-4858
▁lap	-4859
▁rap	-4860
▁departmental	-4861
azet	-4862
▁rich	-4863
▁panch	-4864
▁vs	-4865
▁Only	-4866
▁deposition	-4867
▁Legislature	-4868
urb	-4869
▁Spe	-4870
▁schol	-4871
▁criteria	-4872
▁sanctioned	-4873
atha	-4874
▁hostile	-4875
▁hereinafter	-4876
lfare	-4877
▁welfare	-4878
▁consequence	-4879
▁Met	-4880
ruption	-4881
▁college	-4882
ira	-4883
hand	-4884
▁histor	-4885
▁minister	-4886
▁exercising	-4887
AK	-4888
urs	-4889
akes	-4890
▁Respondents	-4891
▁joined	-4892
▁commencement	-4893
▁gets	-4894
▁profit	-4895
asw	-4896
▁danger	-4897
▁strengt	-4898
IM	-4899
▁secret	-4900
▁ant	-4901
▁Budd	-4902
▁allotment	-4903
▁alia	-4904
▁acquitted	-4905
▁delivered	-4906
asa	-4907
ovable	-4908
▁serve	-4909
▁identity	-4910
▁friends	-4911
▁fort	-4912
▁individuals	-4913
leges	-4914
▁obtain	-4915
▁contro	-4916
atter	-4917
oring	-4918
plied	-4919
▁Categ	-4920
PL	-4921
▁Christ	-4922
▁ens	-4923
▁jail	-4924
▁music	-4925
athe	-4926
▁wish	-4927
ication	-4928
▁operations	-4929
▁clos	-4930
▁Arbitrator	-4931
▁PS	-4932
▁piece	-4933
▁cultiv	-4934
elled	-4935
ratic	-4936
▁chief	-4937
iful	-4938
▁motion	-4939
▁Companies	-4940
▁observation	-4941
▁CO	-4942
▁comprom	-4943
▁Pakistan	-4944
▁solution	-4945
▁irregular	-4946
abled	-4947
▁Nath	-4948
▁allotted	-4949
▁absolutely	-4950
ika	-4951
▁scene	-4952
▁plot	-4953
▁uncon	-4954
portion	-4955
▁necessarily	-4956
▁paragraphs	-4957
▁associated	-4958
uous	-4959
▁compar	-4960
lear	-4961
▁annual	-4962
oly	-4963
owered	-4964
▁learning	-4965
▁negative	-4966
▁cry	-4967
▁acted	-4968
▁damages	-4969
ila	-4970
▁lad	-4971
▁confirm	-4972
▁acceptance	-4973
▁Kish	-4974
▁Many	-4975
▁white	-4976
▁limits	-4977
▁deleg	-4978
▁occurred	-4979
१४	-4980
▁video	-4981
▁reflect	-4982
▁Judgment	-4983
▁gener	-4984
▁choice	-4985
▁series	-4986
TH	-4987
▁Joint	-4988
holders	-4989
▁distinction	-4990
▁Its	-4991
▁consequent	-4992
▁Organ	-4993
▁trying	-4994
▁assign	-4995
▁select	-4996
▁recognized	-4997
▁middle	-4998
▁ideas	-4999
▁conflict	-5000
▁Rao	-5001
▁factor	-5002
▁played	-5003
▁understood	-5004
omic	-5005
icies	-5006
▁Articles	-5007
▁Research	-5008
utt	-5009
▁memory	-5010
▁convict	-5011
▁travel	-5012
▁chann	-5013
▁deciding	-5014
▁Sant	-5015
▁concern	-5016
▁recommendation	-5017
▁Prime	-5018
▁challenging	-5019
hu	-5020
▁holder	-5021
▁animals	-5022
▁reservation	-5023
ams	-5024
iling	-5025
onial	-5026
▁claiming	-5027
isite	-5028
▁Also	-5029
▁Contract	-5030
▁rape	-5031
▁worth	-5032
▁enacted	-5033
▁sometimes	-5034
▁rig	-5035
▁draft	-5036
▁creation	-5037
▁bag	-5038
▁equip	-5039
▁arbitral	-5040
▁Inf	-5041
cer	-5042
▁surf	-5043
▁upto	-5044
▁strugg	-5045
▁Cap	-5046
▁suffer	-5047
▁AD	-5048
▁repla	-5049
▁touch	-5050
▁auction	-5051
▁YEAR	-5052
▁performed	-5053
▁Yog	-5054
▁damage	-5055
▁celeb	-5056
atically	-5057
▁chemical	-5058
▁dele	-5059
▁useful	-5060
▁willing	-5061
▁Category	-5062
▁Hyder	-5063
▁villages	-5064
ifted	-5065
▁Although	-5066
raj	-5067
▁feet	-5068
▁Di	-5069
▁prison	-5070
▁remark	-5071
▁opening	-5072
▁Pan	-5073
AV	-5074
bur	-5075
▁bird	-5076
▁lines	-5077
▁inherent	-5078
▁suicide	-5079
▁ultimately	-5080
▁alt	-5081
▁receiving	-5082
▁forces	-5083
▁controll	-5084
▁warm	-5085
▁asset	-5086
▁content	-5087
▁ax	-5088
▁reserved	-5089
▁CBI	-5090
▁pertaining	-5091
▁poetry	-5092
▁answered	-5093
▁consequences	-5094
▁believed	-5095
▁killed	-5096
▁envis	-5097
▁OR	-5098
▁knew	-5099
asthan	-5100
▁floor	-5101
▁copies	-5102
▁female	-5103
▁box	-5104
▁System	-5105
▁mainly	-5106
▁Mun	-5107
asmuch	-5108
▁remove	-5109
▁opportunities	-5110
aintiff	-5111
round	-5112
▁deserves	-5113
▁Arbitration	-5114
▁functioning	-5115
▁appointments	-5116
ague	-5117
▁cul	-5118
▁sleep	-5119
▁America	-5120
▁division	-5121
▁Notification	-5122
ishra	-5123
▁Home	-5124
▁prem	-5125
▁needed	-5126
▁recover	-5127
▁manufacturing	-5128
SL	-5129
▁invited	-5130
ellect	-5131
▁Election	-5132
▁definite	-5133
▁disclosure	-5134
▁tool	-5135
ena	-5136
▁irre	-5137
▁radi	-5138
▁Chenn	-5139
▁WP	-5140
▁mix	-5141
▁Vice	-5142
▁Aj	-5143
▁Certificate	-5144
▁command	-5145
▁Non	-5146
▁Child	-5147
▁Him	-5148
▁doctrine	-5149
orthy	-5150
▁Superintendent	-5151
▁Pay	-5152
▁alter	-5153
▁citizen	-5154
▁arch	-5155
▁secure	-5156
▁reb	-5157
▁exped	-5158
▁advice	-5159
▁contend	-5160
▁construed	-5161
▁Inc	-5162
▁machinery	-5163
▁throughout	-5164
▁Thak	-5165
▁subjected	-5166
▁intim	-5167
▁Raipur	-5168
▁perhaps	-5169
▁Tur	-5170
▁absor	-5171
▁sentenced	-5172
osis	-5173
▁City	-5174
OC	-5175
▁voice	-5176
▁Excise	-5177
▁Aud	-5178
▁indeed	-5179
▁Aff	-5180
▁gun	-5181
▁Ashok	-5182
▁Out	-5183
▁falls	-5184
iles	-5185
▁coal	-5186
▁confession	-5187
▁manufacture	-5188
▁rein	-5189
▁equally	-5190
▁easy	-5191
▁average	-5192
▁ancient	-5193
kn	-5194
ken	-5195
▁ball	-5196
isted	-5197
▁drink	-5198
▁pressure	-5199
▁Hyderabad	-5200
▁stipulated	-5201
▁PC	-5202
▁classes	-5203
▁electricity	-5204
▁Consequently	-5205
hens	-5206
▁dark	-5207
▁Directors	-5208
▁democracy	-5209
▁Val	-5210
▁regulations	-5211
inet	-5212
▁herself	-5213
mbol	-5214
ATE	-5215
▁Defendant	-5216
▁Mohan	-5217
▁positive	-5218
▁sn	-5219
ertained	-5220
▁relative	-5221
ont	-5222
ror	-5223
orage	-5224
▁internal	-5225
▁policies	-5226
▁exact	-5227
▁range	-5228
ulating	-5229
▁supplied	-5230
▁contemplated	-5231
▁anti	-5232
▁neck	-5233
▁teaching	-5234
ahar	-5235
▁Tri	-5236
▁teleph	-5237
▁Members	-5238
▁admittedly	-5239
ider	-5240
▁Bai	-5241
uity	-5242
rises	-5243
▁Trib	-5244
▁disclose	-5245
athy	-5246
lord	-5247
▁YEARS	-5248
▁generation	-5249
▁dy	-5250
▁surv	-5251
lax	-5252
▁AB	-5253
▁stopp	-5254
appellant	-5255
▁quantity	-5256
▁association	-5257
irty	-5258
▁Ret	-5259
▁Dec	-5260
▁farmers	-5261
▁reiterated	-5262
umn	-5263
▁Subh	-5264
▁explain	-5265
▁shape	-5266
▁famous	-5267
▁resort	-5268
▁inspection	-5269
the	-5270
▁Swami	-5271
▁England	-5272
▁inasmuch	-5273
▁categories	-5274
cla	-5275
▁model	-5276
▁forwarded	-5277
▁suffering	-5278
▁sav	-5279
▁walk	-5280
▁Private	-5281
struction	-5282
▁Che	-5283
▁sea	-5284
alore	-5285
anes	-5286
umari	-5287
▁external	-5288
onn	-5289
OS	-5290
▁omission	-5291
▁averments	-5292
▁workman	-5293
▁languages	-5294
▁categorically	-5295
▁Member	-5296
▁achieved	-5297
▁claimants	-5298
▁documentary	-5299
▁acting	-5300
▁Sr	-5301
▁relates	-5302
▁Apart	-5303
▁Const	-5304
▁vision	-5305
▁IS	-5306
fer	-5307
know	-5308
▁hit	-5309
▁conspiracy	-5310
iver	-5311
anged	-5312
ching	-5313
▁minus	-5314
▁transp	-5315
▁photograph	-5316
vt	-5317
▁Open	-5318
▁schemes	-5319
▁instituted	-5320
ray	-5321
▁gover	-5322
▁learn	-5323
▁grat	-5324
▁III	-5325
▁pec	-5326
far	-5327
▁Dar	-5328
▁media	-5329
▁style	-5330
▁machine	-5331
▁Rajasthan	-5332
ourses	-5333
▁Assessee	-5334
▁immediate	-5335
asi	-5336
▁fold	-5337
▁impression	-5338
▁Financial	-5339
▁Na	-5340
sheet	-5341
▁causes	-5342
▁destro	-5343
cl	-5344
▁belief	-5345
▁invalid	-5346
▁depend	-5347
hru	-5348
▁simply	-5349
▁facility	-5350
▁scrutiny	-5351
▁examining	-5352
▁particulars	-5353
▁revised	-5354
▁governed	-5355
▁professional	-5356
▁Cha	-5357
▁posted	-5358
▁someone	-5359
known	-5360
▁ON	-5361
light	-5362
inarily	-5363
ests	-5364
▁pet	-5365
▁lies	-5366
▁green	-5367
▁seeks	-5368
▁rejection	-5369
ronic	-5370
ilateral	-5371
▁repeated	-5372
▁grievance	-5373
RA	-5374
era	-5375
inger	-5376
order	-5377
rency	-5378
▁promote	-5379
▁kill	-5380
▁recall	-5381
▁heavy	-5382
▁north	-5383
▁Prosecutor	-5384
ctor	-5385
▁controvers	-5386
▁War	-5387
▁stra	-5388
▁conducting	-5389
▁software	-5390
▁Aut	-5391
▁abuse	-5392
▁organisation	-5393
▁Sum	-5394
▁spite	-5395
▁suspension	-5396
▁incorporated	-5397
▁compassionate	-5398
▁Chennai	-5399
▁ben	-5400
▁files	-5401
▁impart	-5402
▁intellect	-5403
icro	-5404
▁cadre	-5405
▁certified	-5406
▁agriculture	-5407
bel	-5408
uli	-5409
aste	-5410
▁cat	-5411
▁capable	-5412
▁involving	-5413
▁eld	-5414
▁Verm	-5415
▁theory	-5416
▁strateg	-5417
atel	-5418
▁easily	-5419
▁circular	-5420
▁UN	-5421
▁soil	-5422
▁Allah	-5423
▁Forest	-5424
bal	-5425
ibly	-5426
ocates	-5427
anded	-5428
yam	-5429
▁Tah	-5430
above	-5431
▁Entry	-5432
▁quick	-5433
▁south	-5434
▁centre	-5435
▁image	-5436
▁organization	-5437
▁Party	-5438
▁expiry	-5439
IST	-5440
aph	-5441
▁Tel	-5442
▁rupees	-5443
astic	-5444
▁purchas	-5445
▁Administrative	-5446
▁ge	-5447
achal	-5448
▁dram	-5449
▁leaving	-5450
▁Ge	-5451
▁rival	-5452
▁ones	-5453
▁compos	-5454
yan	-5455
▁Madras	-5456
ettlement	-5457
amet	-5458
▁privile	-5459
tees	-5460
▁listed	-5461
▁branch	-5462
▁independence	-5463
▁defe	-5464
▁prec	-5465
▁Mishra	-5466
▁owners	-5467
ommod	-5468
aks	-5469
sych	-5470
▁Dur	-5471
enture	-5472
▁cruelty	-5473
rack	-5474
▁Besides	-5475
oub	-5476
▁surround	-5477
aviour	-5478
▁Fam	-5479
▁beat	-5480
▁viti	-5481
▁illegality	-5482
▁legit	-5483
▁arrangement	-5484
▁Nehru	-5485
▁session	-5486
reet	-5487
▁Social	-5488
▁houses	-5489
▁code	-5490
▁compr	-5491
▁Registration	-5492
ortun	-5493
▁features	-5494
dish	-5495
▁Nav	-5496
▁Madh	-5497
▁tour	-5498
▁agent	-5499
▁compon	-5500
▁fees	-5501
▁accompan	-5502
▁Vijay	-5503
opy	-5504
▁Prakash	-5505
▁surre	-5506
▁allowing	-5507
▁bringing	-5508
▁male	-5509
eshwar	-5510
▁Western	-5511
▁species	-5512
orous	-5513
▁People	-5514
TC	-5515
▁growing	-5516
pet	-5517
▁hear	-5518
▁safety	-5519
▁determining	-5520
▁Teacher	-5521
▁Bus	-5522
▁chain	-5523
▁sugar	-5524
▁raising	-5525
▁everything	-5526
▁lac	-5527
▁unn	-5528
▁Well	-5529
▁exists	-5530
▁signatures	-5531
▁Rem	-5532
▁Two	-5533
▁mid	-5534
pons	-5535
▁resulted	-5536
▁Governments	-5537
▁consciousness	-5538
▁cere	-5539
▁leaves	-5540
▁initially	-5541
▁cart	-5542
▁beaut	-5543
▁entries	-5544
▁revolution	-5545
▁Mahe	-5546
▁corporate	-5547
hana	-5548
▁Pandey	-5549
▁student	-5550
▁Fr	-5551
writ	-5552
▁Ban	-5553
▁rare	-5554
▁carefully	-5555
uff	-5556
▁Africa	-5557
▁empowered	-5558
▁recognised	-5559
▁gain	-5560
▁contractor	-5561
▁sustainable	-5562
▁frequ	-5563
▁relax	-5564
▁chance	-5565
▁refund	-5566
▁retired	-5567
▁ship	-5568
soever	-5569
▁acknow	-5570
▁announ	-5571
▁remember	-5572
▁processing	-5573
▁forum	-5574
III	-5575
▁compre	-5576
▁judges	-5577
istics	-5578
▁desire	-5579
▁elements	-5580
▁vers	-5581
▁fault	-5582
▁incons	-5583
▁exception	-5584
ole	-5585
▁Crl	-5586
▁military	-5587
rav	-5588
▁Mot	-5589
▁Port	-5590
▁pick	-5591
▁seat	-5592
arc	-5593
▁residing	-5594
▁mechanism	-5595
▁Bec	-5596
▁afford	-5597
▁symbol	-5598
▁workmen	-5599
▁normally	-5600
▁enforcement	-5601
essel	-5602
▁levels	-5603
▁assert	-5604
▁Env	-5605
▁Patel	-5606
▁mouth	-5607
▁opposed	-5608
▁appreciation	-5609
▁notices	-5610
▁Ed	-5611
ography	-5612
▁largest	-5613
LA	-5614
▁profits	-5615
aja	-5616
▁bul	-5617
▁cancellation	-5618
▁Asia	-5619
aker	-5620
▁ban	-5621
▁rain	-5622
▁wealth	-5623
prise	-5624
▁Rajesh	-5625
▁inquest	-5626
▁fide	-5627
erences	-5628
▁inflic	-5629
▁exclusive	-5630
▁elections	-5631
▁Er	-5632
anges	-5633
▁Abd	-5634
▁operate	-5635
▁personnel	-5636
▁compromise	-5637
▁Tem	-5638
▁amb	-5639
▁Guru	-5640
▁kid	-5641
uddin	-5642
▁annex	-5643
▁residence	-5644
▁contrib	-5645
▁developing	-5646
ero	-5647
▁entirely	-5648
▁Fl	-5649
olve	-5650
▁divided	-5651
aling	-5652
iform	-5653
▁represented	-5654
actory	-5655
▁afore	-5656
▁estim	-5657
▁waste	-5658
▁effic	-5659
▁landlord	-5660
▁misconduct	-5661
ervation	-5662
▁perused	-5663
▁discharged	-5664
▁Most	-5665
▁prepar	-5666
icit	-5667
▁audit	-5668
▁gross	-5669
▁ingred	-5670
▁agencies	-5671
▁Reference	-5672
▁nuc	-5673
▁lakhs	-5674
▁participation	-5675
▁representatives	-5676
awan	-5677
▁wear	-5678
▁substantive	-5679
▁representative	-5680
urt	-5681
▁Standing	-5682
sue	-5683
▁temper	-5684
▁traditional	-5685
▁fest	-5686
▁table	-5687
▁Plaintiff	-5688
▁voluntary	-5689
▁skin	-5690
▁beautiful	-5691
▁Bad	-5692
▁Family	-5693
▁consistent	-5694
▁accompanied	-5695
▁armed	-5696
▁Sections	-5697
▁Sir	-5698
▁errone	-5699
▁reliable	-5700
▁appearance	-5701
asc	-5702
▁Bah	-5703
▁cancelled	-5704
▁tort	-5705
▁enhance	-5706
▁modified	-5707
▁resulting	-5708
ducing	-5709
king	-5710
entially	-5711
▁adduced	-5712
▁actions	-5713
▁Bangalore	-5714
lined	-5715
▁storage	-5716
▁Gl	-5717
▁vend	-5718
▁spent	-5719
▁applying	-5720
▁gas	-5721
▁Para	-5722
▁plain	-5723
▁repeal	-5724
▁animal	-5725
▁struggle	-5726
▁CW	-5727
nu	-5728
sofar	-5729
▁mutual	-5730
▁Indians	-5731
▁purport	-5732
▁constructed	-5733
▁Vis	-5734
▁root	-5735
▁moral	-5736
▁calling	-5737
▁committing	-5738
▁imposs	-5739
▁accommod	-5740
▁currency	-5741
▁alongwith	-5742
igil	-5743
acharya	-5744
▁identify	-5745
▁confined	-5746
▁hereinabove	-5747
▁cells	-5748
▁famil	-5749
▁barred	-5750
▁Environment	-5751
▁Rama	-5752
oming	-5753
▁worship	-5754
ader	-5755
▁incurred	-5756
▁inconsist	-5757
struct	-5758
▁evening	-5759
▁Ay	-5760
▁knife	-5761
▁stream	-5762
▁withdraw	-5763
omy	-5764
▁Hindus	-5765
▁authorised	-5766
▁sons	-5767
▁disqual	-5768
▁unreason	-5769
rupt	-5770
▁China	-5771
▁owned	-5772
▁enactment	-5773
▁requisite	-5774
▁withdrawn	-5775
▁mistake	-5776
▁integral	-5777
▁sam	-5778
▁Selection	-5779
▁admissible	-5780
arp	-5781
▁cooperation	-5782
▁residential	-5783
▁fields	-5784
yal	-5785
▁sort	-5786
RE	-5787
▁Others	-5788
ushed	-5789
▁upheld	-5790
▁clauses	-5791
▁subjects	-5792
▁Madhya	-5793
▁Through	-5794
▁creating	-5795
▁Because	-5796
▁Islamic	-5797
ming	-5798
▁irres	-5799
▁confident	-5800
▁guard	-5801
▁manifest	-5802
▁ignored	-5803
▁surface	-5804
▁Transport	-5805
DS	-5806
▁Like	-5807
▁fourth	-5808
▁foundation	-5809
OL	-5810
erce	-5811
rose	-5812
▁sealed	-5813
▁demanded	-5814
omet	-5815
▁Again	-5816
arh	-5817
encing	-5818
▁Palest	-5819
▁applies	-5820
▁destroy	-5821
▁speaking	-5822
▁vessel	-5823
▁framing	-5824
DER	-5825
▁leader	-5826
▁families	-5827
▁pra	-5828
▁magn	-5829
ura	-5830
▁Ven	-5831
ioned	-5832
unior	-5833
gy	-5834
▁cm	-5835
▁stone	-5836
▁recognition	-5837
pping	-5838
▁hour	-5839
▁disapp	-5840
▁methods	-5841
▁supplement	-5842
▁thinking	-5843
▁allegedly	-5844
▁master	-5845
▁satisfy	-5846
▁equality	-5847
▁intellig	-5848
▁subordinate	-5849
alg	-5850
▁Crime	-5851
▁sources	-5852
EP	-5853
ript	-5854
▁season	-5855
lag	-5856
▁egg	-5857
aman	-5858
▁earn	-5859
▁objects	-5860
▁practices	-5861
▁strengthen	-5862
▁Legislative	-5863
▁eligibility	-5864
▁AC	-5865
▁retros	-5866
▁variety	-5867
▁compared	-5868
urate	-5869
▁Gram	-5870
▁sand	-5871
▁youth	-5872
▁separately	-5873
▁representing	-5874
▁Gazet	-5875
▁location	-5876
iva	-5877
rees	-5878
▁critic	-5879
▁depends	-5880
isp	-5881
▁equity	-5882
▁confer	-5883
▁obligations	-5884
▁Econom	-5885
▁payments	-5886
eav	-5887
▁figure	-5888
▁studies	-5889
▁weapons	-5890
CI	-5891
▁Imp	-5892
▁Champ	-5893
▁input	-5894
▁exemption	-5895
▁Dem	-5896
eting	-5897
▁dream	-5898
▁Sad	-5899
rical	-5900
▁Branch	-5901
▁feeling	-5902
▁appreciate	-5903
ships	-5904
▁paras	-5905
overty	-5906
▁medium	-5907
▁Prem	-5908
▁whatsoever	-5909
osen	-5910
▁AM	-5911
▁deeds	-5912
▁Narayan	-5913
dar	-5914
▁Germ	-5915
▁endeav	-5916
▁relatives	-5917
▁nut	-5918
▁capt	-5919
pected	-5920
▁fails	-5921
ola	-5922
▁Cust	-5923
laws	-5924
▁levy	-5925
१५	-5926
roc	-5927
▁km	-5928
▁superior	-5929
▁Water	-5930
▁cloth	-5931
▁unique	-5932
▁dim	-5933
▁roll	-5934
▁arose	-5935
▁cheques	-5936
UL	-5937
▁Ve	-5938
going	-5939
▁watch	-5940
▁pip	-5941
elfare	-5942
ils	-5943
▁Tag	-5944
▁focus	-5945
▁Date	-5946
▁lock	-5947
▁immovable	-5948
▁furnish	-5949
▁pursuance	-5950
▁Welfare	-5951
▁controversy	-5952
atta	-5953
▁authorized	-5954
▁Rav	-5955
▁seem	-5956
▁Human	-5957
▁relying	-5958
▁inference	-5959
▁dt	-5960
▁iv	-5961
vert	-5962
▁overall	-5963
▁Administration	-5964
doc	-5965
▁Pvt	-5966
▁interview	-5967
▁qualified	-5968
▁slow	-5969
▁wood	-5970
▁railway	-5971
▁availability	-5972
▁Suit	-5973
▁strictly	-5974
FA	-5975
▁opt	-5976
▁classification	-5977
ev	-5978
▁MS	-5979
▁stayed	-5980
▁stick	-5981
▁ends	-5982
▁thirty	-5983
▁extracted	-5984
▁operating	-5985
▁Verma	-5986
▁Gandhiji	-5987
▁terrorism	-5988
▁nearly	-5989
hon	-5990
▁Rural	-5991
▁divine	-5992
▁propri	-5993
▁partner	-5994
▁Security	-5995
▁Industries	-5996
▁bone	-5997
rench	-5998
▁paying	-5999
▁Petitioners	-6000
ails	-6001
▁litig	-6002
▁Settlement	-6003
hent	-6004
▁ownership	-6005
▁id	-6006
aped	-6007
▁Full	-6008
▁Park	-6009
▁Conference	-6010
▁antic	-6011
▁affili	-6012
▁temples	-6013
ih	-6014
▁bott	-6015
▁falsely	-6016
▁lived	-6017
▁Foreign	-6018
▁enforce	-6019
▁mortgage	-6020
▁vehicles	-6021
iate	-6022
▁complaints	-6023
▁Nor	-6024
▁iron	-6025
▁struct	-6026
▁Bel	-6027
▁Vol	-6028
ube	-6029
ocal	-6030
▁Excell	-6031
▁Univers	-6032
aband	-6033
▁agreements	-6034
▁impossible	-6035
▁grad	-6036
▁sales	-6037
▁vacant	-6038
▁organiz	-6039
▁bab	-6040
▁genuine	-6041
▁Div	-6042
▁flat	-6043
ls	-6044
▁Jam	-6045
▁Year	-6046
▁Trade	-6047
▁drive	-6048
▁excell	-6049
▁happen	-6050
▁imple	-6051
▁Allahabad	-6052
▁disability	-6053
▁calls	-6054
▁target	-6055
▁wishes	-6056
▁attracted	-6057
▁ideal	-6058
mn	-6059
amma	-6060
▁nine	-6061
▁reveals	-6062
▁Resolution	-6063
EM	-6064
▁Abdul	-6065
▁Ja	-6066
▁gar	-6067
▁prices	-6068
umer	-6069
itis	-6070
▁Claim	-6071
▁implemented	-6072
lands	-6073
▁Babu	-6074
▁reality	-6075
▁Protection	-6076
▁PD	-6077
hend	-6078
▁aged	-6079
▁honour	-6080
▁stopped	-6081
▁stories	-6082
hel	-6083
ighted	-6084
▁deliver	-6085
▁continuous	-6086
▁consumption	-6087
▁Ragh	-6088
▁shock	-6089
▁upper	-6090
▁interven	-6091
▁Sol	-6092
▁allowance	-6093
▁grave	-6094
▁enqu	-6095
▁regarded	-6096
▁philosophy	-6097
▁arre	-6098
▁holds	-6099
▁anyone	-6100
redit	-6101
▁Pension	-6102
▁anticip	-6103
▁ordinarily	-6104
▁trees	-6105
▁compuls	-6106
▁universal	-6107
▁Tod	-6108
▁Inst	-6109
▁Us	-6110
look	-6111
ibilities	-6112
▁necessity	-6113
▁Maj	-6114
▁bow	-6115
▁chosen	-6116
▁elabor	-6117
▁opined	-6118
▁acid	-6119
▁emotion	-6120
▁mandate	-6121
▁narrated	-6122
load	-6123
▁PRO	-6124
AME	-6125
▁Food	-6126
▁acceptable	-6127
habil	-6128
▁seal	-6129
▁yield	-6130
GAL	-6131
▁ang	-6132
▁Constable	-6133
▁quarrel	-6134
▁pleasure	-6135
▁considerable	-6136
▁abroad	-6137
▁compound	-6138
itect	-6139
▁Regional	-6140
oph	-6141
▁dues	-6142
aryana	-6143
orrect	-6144
▁Reddy	-6145
▁sacrif	-6146
chief	-6147
ecess	-6148
velled	-6149
▁Enter	-6150
▁indul	-6151
▁psych	-6152
▁driving	-6153
▁friendly	-6154
▁revealed	-6155
▁probably	-6156
like	-6157
nagar	-6158
ports	-6159
▁Thakur	-6160
▁advised	-6161
▁qualifications	-6162
egu	-6163
anta	-6164
▁falling	-6165
▁vast	-6166
▁legally	-6167
▁height	-6168
▁explo	-6169
sc	-6170
▁Nep	-6171
▁Pet	-6172
isting	-6173
▁planning	-6174
▁IV	-6175
oral	-6176
alli	-6177
▁brain	-6178
ishment	-6179
▁liquor	-6180
▁DR	-6181
▁park	-6182
DC	-6183
anand	-6184
▁thereon	-6185
▁Langu	-6186
▁Sunil	-6187
▁emerg	-6188
▁unity	-6189
▁brothers	-6190
▁colleges	-6191
▁dil	-6192
eries	-6193
anging	-6194
▁valuation	-6195
▁cas	-6196
▁Haryana	-6197
▁involvement	-6198
▁Exh	-6199
prene	-6200
abinet	-6201
▁SP	-6202
author	-6203
▁veget	-6204
▁Why	-6205
▁qua	-6206
▁caught	-6207
▁negoti	-6208
▁happens	-6209
ildar	-6210
▁track	-6211
▁proportion	-6212
▁postmortem	-6213
▁ORDER	-6214
▁corporation	-6215
inqu	-6216
▁Det	-6217
▁moving	-6218
▁prefer	-6219
▁Programme	-6220
▁installed	-6221
▁SE	-6222
▁Va	-6223
▁Vin	-6224
▁buy	-6225
arden	-6226
mosp	-6227
antial	-6228
hensive	-6229
▁efficient	-6230
▁equipment	-6231
▁participate	-6232
▁poems	-6233
reprene	-6234
▁courses	-6235
▁selling	-6236
ME	-6237
▁Ham	-6238
▁cum	-6239
acco	-6240
word	-6241
▁Jay	-6242
▁fill	-6243
▁latest	-6244
▁consists	-6245
▁rational	-6246
iqu	-6247
▁Art	-6248
▁crop	-6249
prises	-6250
iled	-6251
arkhand	-6252
▁Bhar	-6253
▁narrow	-6254
▁demands	-6255
▁outstanding	-6256
▁Hig	-6257
▁poverty	-6258
▁valuable	-6259
amy	-6260
charge	-6261
▁recon	-6262
IF	-6263
▁Mandal	-6264
▁cog	-6265
▁urban	-6266
▁contractual	-6267
ayana	-6268
oratory	-6269
▁tenure	-6270
▁uniform	-6271
▁script	-6272
▁clarified	-6273
▁consultation	-6274
▁Prom	-6275
▁Town	-6276
▁Recovery	-6277
▁nomination	-6278
▁Gan	-6279
▁heirs	-6280
▁prosper	-6281
▁vacancy	-6282
▁victims	-6283
otic	-6284
udget	-6285
▁Supra	-6286
▁European	-6287
▁DNA	-6288
arian	-6289
▁column	-6290
▁picture	-6291
▁entrusted	-6292
▁judgement	-6293
gery	-6294
▁Mahat	-6295
▁wants	-6296
▁consumer	-6297
▁promoted	-6298
▁Secondary	-6299
▁reproduced	-6300
▁upd	-6301
▁hardly	-6302
▁reflected	-6303
▁preparation	-6304
▁Dal	-6305
▁suits	-6306
▁equival	-6307
pal	-6308
▁partners	-6309
hara	-6310
▁Hem	-6311
▁Lax	-6312
▁Those	-6313
▁reduce	-6314
▁unknown	-6315
▁cru	-6316
▁dict	-6317
▁territory	-6318
▁amendments	-6319
etary	-6320
▁negligence	-6321
▁fert	-6322
▁invoked	-6323
▁liberal	-6324
▁launched	-6325
▁Gur	-6326
▁Lit	-6327
▁asking	-6328
▁cities	-6329
▁severe	-6330
▁Anr	-6331
▁Each	-6332
ricted	-6333
▁choose	-6334
▁online	-6335
key	-6336
▁passen	-6337
▁quashing	-6338
▁infring	-6339
▁Lib	-6340
▁continues	-6341
▁ambit	-6342
▁dates	-6343
▁origin	-6344
▁atmosp	-6345
▁finger	-6346
▁dry	-6347
▁Nand	-6348
▁cook	-6349
▁dign	-6350
▁ingredients	-6351
oom	-6352
▁wel	-6353
isher	-6354
▁suspicion	-6355
▁Tagore	-6356
▁adjust	-6357
▁ability	-6358
▁terminated	-6359
bh	-6360
▁pi	-6361
just	-6362
▁safegu	-6363
▁incorrect	-6364
ilal	-6365
▁Ter	-6366
▁commod	-6367
▁union	-6368
▁remote	-6369
OUT	-6370
▁Akbar	-6371
▁Survey	-6372
▁constitu	-6373
▁behaviour	-6374
▁villagers	-6375
ishad	-6376
▁Enquiry	-6377
▁perfect	-6378
▁democratic	-6379
UM	-6380
ulatory	-6381
▁Doctor	-6382
▁denial	-6383
▁impose	-6384
▁Ba	-6385
▁Mang	-6386
▁critical	-6387
▁deliber	-6388
▁nations	-6389
▁mah	-6390
▁rapid	-6391
▁cold	-6392
▁grass	-6393
▁Exp	-6394
▁Aust	-6395
hanced	-6396
▁divor	-6397
▁attitude	-6398
▁purchaser	-6399
auty	-6400
ricket	-6401
▁lif	-6402
▁Hari	-6403
▁bills	-6404
▁Consid	-6405
▁changing	-6406
▁powerful	-6407
▁ascertain	-6408
▁Press	-6409
▁Jharkhand	-6410
unct	-6411
aduate	-6412
▁Fri	-6413
inance	-6414
lusively	-6415
▁banking	-6416
ropri	-6417
▁Sush	-6418
▁pret	-6419
▁crops	-6420
▁complied	-6421
▁Av	-6422
▁Anand	-6423
▁execute	-6424
▁Managing	-6425
▁Mat	-6426
▁obvious	-6427
hs	-6428
my	-6429
upon	-6430
▁blow	-6431
▁showed	-6432
ented	-6433
▁estate	-6434
▁Oper	-6435
▁Kolk	-6436
▁wat	-6437
▁seeing	-6438
▁extremely	-6439
▁harassment	-6440
▁memorandum	-6441
▁corresponding	-6442
▁hor	-6443
▁panel	-6444
▁essentially	-6445
ips	-6446
▁Jy	-6447
erous	-6448
▁norms	-6449
▁multiple	-6450
▁thereunder	-6451
▁lady	-6452
▁Today	-6453
▁encro	-6454
fe	-6455
▁Rights	-6456
▁convin	-6457
▁passage	-6458
▁excluded	-6459
▁Engineering	-6460
ica	-6461
ima	-6462
▁assessed	-6463
▁emphasis	-6464
▁regional	-6465
▁bra	-6466
▁careful	-6467
mentioned	-6468
▁pil	-6469
▁missing	-6470
mark	-6471
oken	-6472
ourage	-6473
▁putting	-6474
▁difficulty	-6475
▁tonn	-6476
▁Being	-6477
▁gains	-6478
▁intent	-6479
alog	-6480
▁Din	-6481
▁bidd	-6482
▁uses	-6483
▁reliefs	-6484
▁fab	-6485
▁Ganga	-6486
▁RO	-6487
▁rect	-6488
ieving	-6489
▁verification	-6490
pat	-6491
cast	-6492
▁lapse	-6493
▁Higher	-6494
▁respond	-6495
▁notwithstanding	-6496
▁Jap	-6497
▁Russ	-6498
▁greet	-6499
▁army	-6500
▁persu	-6501
▁kil	-6502
urities	-6503
ificates	-6504
▁convers	-6505
▁formation	-6506
▁territorial	-6507
▁hom	-6508
GC	-6509
hat	-6510
▁gift	-6511
▁train	-6512
▁monthly	-6513
▁straight	-6514
da	-6515
▁graph	-6516
▁enhanced	-6517
oration	-6518
▁Notice	-6519
▁partly	-6520
▁contracts	-6521
▁percentage	-6522
SH	-6523
▁discussions	-6524
anth	-6525
ogle	-6526
▁Nan	-6527
▁eat	-6528
▁besides	-6529
▁intellectual	-6530
▁map	-6531
state	-6532
▁Legal	-6533
▁minority	-6534
eev	-6535
rat	-6536
unch	-6537
▁founded	-6538
▁Pad	-6539
▁Var	-6540
▁attrib	-6541
▁fairly	-6542
▁bare	-6543
▁experi	-6544
▁telephone	-6545
▁habit	-6546
▁comment	-6547
▁drawing	-6548
▁Exchange	-6549
▁legitimate	-6550
▁considerations	-6551
▁Master	-6552
▁erroneous	-6553
▁authent	-6554
▁accepting	-6555
▁measuring	-6556
▁adopt	-6557
ologies	-6558
icing	-6559
▁sequ	-6560
▁innocent	-6561
▁literary	-6562
▁Ty	-6563
ondon	-6564
▁journey	-6565
▁thr	-6566
▁Schools	-6567
▁Ti	-6568
▁Stud	-6569
▁cerem	-6570
rigation	-6571
▁Planning	-6572
▁recently	-6573
▁newspaper	-6574
TE	-6575
anya	-6576
▁situations	-6577
▁significance	-6578
iah	-6579
▁Iran	-6580
▁Sure	-6581
▁goal	-6582
▁buildings	-6583
▁MO	-6584
▁murd	-6585
▁indirect	-6586
wah	-6587
▁challenges	-6588
▁uncle	-6589
▁illust	-6590
▁NS	-6591
▁songs	-6592
▁channel	-6593
TA	-6594
ae	-6595
itions	-6596
essment	-6597
▁comply	-6598
▁CD	-6599
▁CON	-6600
▁moon	-6601
ancellor	-6602
▁alive	-6603
▁summons	-6604
▁neighbour	-6605
het	-6606
▁anc	-6607
essed	-6608
▁rock	-6609
▁decades	-6610
▁Admitted	-6611
▁Business	-6612
▁traffic	-6613
akar	-6614
▁urg	-6615
▁cave	-6616
▁girls	-6617
▁pleased	-6618
▁game	-6619
▁designed	-6620
▁interesting	-6621
LE	-6622
▁ran	-6623
▁Kolkata	-6624
▁sectors	-6625
▁diseases	-6626
▁perverse	-6627
▁Professor	-6628
aign	-6629
▁flu	-6630
ement	-6631
holding	-6632
▁consequential	-6633
▁Who	-6634
▁BY	-6635
▁ec	-6636
iveness	-6637
▁approx	-6638
▁dishon	-6639
AND	-6640
▁MP	-6641
▁Interest	-6642
▁commenced	-6643
ruits	-6644
▁hero	-6645
▁format	-6646
▁belongs	-6647
▁feature	-6648
▁primarily	-6649
▁governance	-6650
▁dial	-6651
ector	-6652
ester	-6653
▁diary	-6654
▁AO	-6655
itan	-6656
▁Women	-6657
▁adult	-6658
▁volume	-6659
▁enem	-6660
▁Final	-6661
▁throw	-6662
igilance	-6663
▁photographs	-6664
▁Conf	-6665
▁null	-6666
▁prime	-6667
▁figures	-6668
▁entering	-6669
▁envisaged	-6670
ifies	-6671
iplom	-6672
▁Sanjay	-6673
▁infirm	-6674
▁unreasonable	-6675
▁MD	-6676
▁Men	-6677
▁lik	-6678
itated	-6679
▁pregn	-6680
ordinary	-6681
▁Bengali	-6682
▁inserted	-6683
▁pertinent	-6684
▁raw	-6685
▁infl	-6686
▁drugs	-6687
▁consequently	-6688
▁rob	-6689
▁Indep	-6690
▁proceeds	-6691
iri	-6692
owed	-6693
▁pit	-6694
▁Raja	-6695
▁assembly	-6696
RL	-6697
anas	-6698
cher	-6699
lick	-6700
▁Fed	-6701
▁Mur	-6702
▁Brahm	-6703
▁Affairs	-6704
▁Set	-6705
algam	-6706
▁cogent	-6707
▁domain	-6708
▁automatically	-6709
▁Sen	-6710
alpur	-6711
▁culp	-6712
▁runs	-6713
▁Heard	-6714
▁factory	-6715
ARD	-6716
▁IC	-6717
▁deduct	-6718
▁XX	-6719
▁CrPC	-6720
▁Math	-6721
▁Rajya	-6722
▁endorse	-6723
▁procedural	-6724
esty	-6725
▁Show	-6726
▁Build	-6727
▁continuing	-6728
mer	-6729
▁Sin	-6730
inite	-6731
▁Acqu	-6732
▁Lect	-6733
▁kinds	-6734
▁pages	-6735
▁conform	-6736
▁knowing	-6737
▁restricted	-6738
▁supporting	-6739
▁cou	-6740
▁Unit	-6741
▁Grade	-6742
▁escape	-6743
▁insects	-6744
habilitation	-6745
▁bench	-6746
▁sight	-6747
▁adoption	-6748
▁appreciated	-6749
▁BC	-6750
▁London	-6751
▁beauty	-6752
▁inclined	-6753
▁improvement	-6754
▁circumstantial	-6755
liance	-6756
▁unfair	-6757
▁Rat	-6758
▁mission	-6759
▁eth	-6760
▁entity	-6761
hari	-6762
orts	-6763
▁Kab	-6764
▁About	-6765
▁fruit	-6766
▁quota	-6767
▁Gazette	-6768
▁expressly	-6769
▁shared	-6770
▁Mahatma	-6771
▁monitor	-6772
▁discrep	-6773
▁Admittedly	-6774
▁withdrawal	-6775
▁Authorities	-6776
▁coup	-6777
▁alien	-6778
▁Mission	-6779
▁centres	-6780
▁deten	-6781
▁Reserve	-6782
▁serving	-6783
▁customers	-6784
▁store	-6785
▁Kumari	-6786
▁fabric	-6787
▁Az	-6788
cipl	-6789
ster	-6790
▁Time	-6791
▁objectives	-6792
lar	-6793
▁pill	-6794
▁minds	-6795
▁whenever	-6796
aug	-6797
khand	-6798
anches	-6799
▁sharp	-6800
athered	-6801
▁discrimination	-6802
ghan	-6803
▁See	-6804
▁Ranj	-6805
▁ment	-6806
▁grade	-6807
anti	-6808
rity	-6809
▁Dhar	-6810
▁roof	-6811
▁offices	-6812
▁winding	-6813
▁Excellency	-6814
▁regulation	-6815
▁irrespective	-6816
IP	-6817
oe	-6818
▁loans	-6819
▁Vishnu	-6820
▁affirm	-6821
▁entertained	-6822
adur	-6823
asan	-6824
eces	-6825
bon	-6826
cribes	-6827
▁Buddh	-6828
▁processes	-6829
▁equivalent	-6830
▁exha	-6831
▁Later	-6832
mar	-6833
▁obviously	-6834
SA	-6835
▁Over	-6836
▁defic	-6837
▁Jew	-6838
▁Himal	-6839
▁chest	-6840
▁ignor	-6841
▁Tahs	-6842
▁Palestin	-6843
▁meetings	-6844
▁questioned	-6845
▁Bose	-6846
▁Mere	-6847
▁inner	-6848
▁Google	-6849
▁paramet	-6850
▁Dhan	-6851
▁Rajendra	-6852
▁parliament	-6853
▁Hist	-6854
eeping	-6855
ulates	-6856
▁facilitate	-6857
uj	-6858
▁tob	-6859
uries	-6860
▁Force	-6861
▁borne	-6862
board	-6863
▁Agra	-6864
▁ABOUT	-6865
▁Training	-6866
▁Bin	-6867
▁subsid	-6868
▁effects	-6869
▁priority	-6870
▁ourselves	-6871
▁modification	-6872
▁effected	-6873
▁starting	-6874
▁Late	-6875
▁sick	-6876
▁similarly	-6877
▁Agriculture	-6878
▁corroborated	-6879
join	-6880
▁arms	-6881
▁assail	-6882
▁stages	-6883
▁concent	-6884
▁nuclear	-6885
xy	-6886
isations	-6887
▁encl	-6888
▁prepare	-6889
▁visible	-6890
▁occupation	-6891
▁Sav	-6892
▁Error	-6893
▁color	-6894
▁institute	-6895
▁fired	-6896
▁evaluation	-6897
▁environmental	-6898
▁CS	-6899
▁web	-6900
▁atmosphere	-6901
▁hyp	-6902
▁Luck	-6903
▁distinguished	-6904
▁tal	-6905
▁grown	-6906
▁resist	-6907
▁Technical	-6908
▁consisting	-6909
▁joy	-6910
▁Proper	-6911
▁reputation	-6912
▁threatened	-6913
Ms	-6914
idal	-6915
▁hair	-6916
▁Gopal	-6917
▁Great	-6918
▁customer	-6919
▁commitment	-6920
room	-6921
▁tobacco	-6922
▁Revision	-6923
▁innovation	-6924
erk	-6925
▁Jaw	-6926
▁output	-6927
▁observe	-6928
olition	-6929
▁Review	-6930
▁Copy	-6931
▁plat	-6932
▁gathered	-6933
ops	-6934
▁kidn	-6935
▁bh	-6936
grat	-6937
mity	-6938
▁thor	-6939
▁Which	-6940
▁leads	-6941
AJ	-6942
apped	-6943
▁phase	-6944
▁medicine	-6945
udi	-6946
▁struck	-6947
▁judiciary	-6948
▁leadership	-6949
uv	-6950
▁scen	-6951
itations	-6952
▁unauthor	-6953
▁scheduled	-6954
▁Directorate	-6955
▁spl	-6956
▁arrive	-6957
▁establishing	-6958
▁Among	-6959
▁identical	-6960
▁surrender	-6961
▁justification	-6962
▁Ref	-6963
▁effectively	-6964
▁Prat	-6965
▁tank	-6966
▁elder	-6967
▁ruled	-6968
▁expos	-6969
▁amalgam	-6970
▁derived	-6971
▁becoming	-6972
▁CC	-6973
▁fatal	-6974
riginal	-6975
▁concerning	-6976
▁departments	-6977
oda	-6978
▁replied	-6979
▁universities	-6980
nan	-6981
▁SCR	-6982
▁Tir	-6983
▁alc	-6984
▁wise	-6985
▁helped	-6986
ortunately	-6987
oz	-6988
more	-6989
▁match	-6990
▁servants	-6991
▁applicability	-6992
▁comprehensive	-6993
▁Rai	-6994
hension	-6995
aneously	-6996
▁Book	-6997
▁Laws	-6998
▁Laksh	-6999
▁Distt	-7000
▁ahead	-7001
▁president	-7002
▁participated	-7003
▁FOR	-7004
clause	-7005
nsic	-7006
▁avo	-7007
▁Commit	-7008
▁converted	-7009
▁dependent	-7010
▁depending	-7011
▁Ira	-7012
▁Small	-7013
▁Himachal	-7014
▁Sl	-7015
▁Arun	-7016
▁server	-7017
▁quantum	-7018
▁brib	-7019
▁Reliance	-7020
▁doubtful	-7021
lets	-7022
▁correctness	-7023
▁steel	-7024
▁Considering	-7025
▁successfully	-7026
uit	-7027
idden	-7028
▁Last	-7029
▁Ramesh	-7030
ames	-7031
▁Meh	-7032
ammad	-7033
▁east	-7034
▁marketing	-7035
▁procedures	-7036
levant	-7037
▁breed	-7038
▁wrongly	-7039
▁Rah	-7040
▁arrears	-7041
odh	-7042
▁Lo	-7043
▁१६	-7044
iments	-7045
ictionary	-7046
▁deposits	-7047
▁entreprene	-7048
▁rice	-7049
▁acknowled	-7050
▁Test	-7051
▁accru	-7052
ua	-7053
▁suggests	-7054
▁historical	-7055
▁BAN	-7056
eding	-7057
▁Sind	-7058
▁Speaker	-7059
▁practical	-7060
▁communities	-7061
▁sq	-7062
▁dro	-7063
course	-7064
▁Count	-7065
▁rejecting	-7066
otton	-7067
▁empt	-7068
▁plays	-7069
▁playing	-7070
▁requisition	-7071
ba	-7072
▁rely	-7073
▁evalu	-7074
▁healthy	-7075
▁protected	-7076
▁Prevention	-7077
▁controlled	-7078
▁Beg	-7079
▁knows	-7080
▁acres	-7081
sp	-7082
astern	-7083
▁River	-7084
▁experts	-7085
▁covering	-7086
▁involves	-7087
▁discipline	-7088
▁Cro	-7089
▁Life	-7090
▁wild	-7091
▁double	-7092
▁exceeding	-7093
RO	-7094
▁leaf	-7095
▁Middle	-7096
▁holders	-7097
udence	-7098
▁repay	-7099
▁substituted	-7100
▁mining	-7101
▁strike	-7102
▁Network	-7103
▁attained	-7104
▁inflicted	-7105
▁convenience	-7106
▁engineering	-7107
▁Institutions	-7108
▁communicated	-7109
gen	-7110
▁Ir	-7111
▁Sard	-7112
▁career	-7113
▁operative	-7114
▁band	-7115
▁returns	-7116
▁producing	-7117
oes	-7118
odes	-7119
omin	-7120
▁bona	-7121
▁wage	-7122
▁Appeals	-7123
▁sending	-7124
▁Acquisition	-7125
▁Universities	-7126
▁Societies	-7127
▁regularly	-7128
▁initiatives	-7129
▁contradictions	-7130
▁Iraq	-7131
▁Territ	-7132
▁perpet	-7133
▁discard	-7134
▁infirmity	-7135
▁interpreted	-7136
oudh	-7137
▁Mit	-7138
▁Gang	-7139
▁pollution	-7140
ulty	-7141
▁west	-7142
▁caution	-7143
▁Christian	-7144
▁university	-7145
▁retrospective	-7146
▁Cur	-7147
▁Path	-7148
▁unlaw	-7149
▁Language	-7150
▁Tele	-7151
▁Session	-7152
▁attorney	-7153
▁districts	-7154
MA	-7155
ham	-7156
elve	-7157
▁Rak	-7158
▁Venk	-7159
hement	-7160
▁poison	-7161
▁eviction	-7162
▁intervention	-7163
▁hes	-7164
▁assumed	-7165
▁permits	-7166
ertaining	-7167
pura	-7168
vent	-7169
▁Tar	-7170
burse	-7171
▁annexed	-7172
▁campaign	-7173
▁perspective	-7174
▁Credit	-7175
▁Capital	-7176
▁forthwith	-7177
▁governing	-7178
▁maintaining	-7179
▁evid	-7180
▁poem	-7181
▁awareness	-7182
▁Use	-7183
▁lodging	-7184
▁director	-7185
▁architect	-7186
▁household	-7187
▁crow	-7188
▁tick	-7189
▁slight	-7190
▁reasoning	-7191
▁characters	-7192
▁Don	-7193
ifteen	-7194
▁roads	-7195
▁Yet	-7196
▁stret	-7197
▁Ministers	-7198
▁regularization	-7199
▁Yoga	-7200
▁earliest	-7201
▁prospect	-7202
▁vehement	-7203
▁vitiated	-7204
cum	-7205
▁Sikh	-7206
▁supposed	-7207
▁lect	-7208
▁Taluk	-7209
stitutes	-7210
▁Lucknow	-7211
▁Paragraph	-7212
▁encourage	-7213
▁compulsory	-7214
▁imposition	-7215
▁certificates	-7216
▁sad	-7217
▁tea	-7218
erior	-7219
venth	-7220
▁Deep	-7221
abling	-7222
▁promise	-7223
▁differences	-7224
ORE	-7225
set	-7226
▁declare	-7227
▁smaller	-7228
▁invoking	-7229
▁ultimate	-7230
fort	-7231
isen	-7232
unci	-7233
▁tests	-7234
▁Hot	-7235
▁cance	-7236
▁politics	-7237
▁preceding	-7238
aren	-7239
nath	-7240
▁blue	-7241
▁core	-7242
▁samples	-7243
ux	-7244
▁birds	-7245
▁estimated	-7246
▁efficiency	-7247
oli	-7248
▁rid	-7249
▁heat	-7250
▁lose	-7251
▁seriously	-7252
▁designated	-7253
izes	-7254
▁broken	-7255
▁insurer	-7256
▁Shankaracharya	-7257
▁FSL	-7258
▁Vik	-7259
za	-7260
erved	-7261
ERS	-7262
▁Back	-7263
▁club	-7264
▁star	-7265
▁desir	-7266
▁remand	-7267
▁finance	-7268
▁mineral	-7269
▁proving	-7270
▁Ahmedabad	-7271
▁die	-7272
▁incrim	-7273
▁secondary	-7274
▁attachment	-7275
cean	-7276
▁Ten	-7277
▁Swar	-7278
▁tonnes	-7279
minent	-7280
▁email	-7281
▁Original	-7282
▁attended	-7283
▁Gar	-7284
▁elim	-7285
▁shot	-7286
▁Mahab	-7287
▁sovere	-7288
▁pleading	-7289
cellaneous	-7290
rary	-7291
▁singh	-7292
▁stake	-7293
▁organized	-7294
ureau	-7295
▁averred	-7296
▁Attorney	-7297
▁suggestions	-7298
▁bye	-7299
▁fish	-7300
▁marry	-7301
▁symp	-7302
▁transform	-7303
osing	-7304
▁congrat	-7305
pass	-7306
▁Exs	-7307
▁rad	-7308
▁conversion	-7309
vity	-7310
bered	-7311
▁Vidy	-7312
idance	-7313
▁undue	-7314
▁COM	-7315
▁Sik	-7316
▁council	-7317
▁overr	-7318
▁waiting	-7319
▁ensuring	-7320
▁rigorous	-7321
▁Committees	-7322
▁organizations	-7323
▁Due	-7324
▁Self	-7325
▁users	-7326
▁extraordinary	-7327
ss	-7328
inous	-7329
▁Internet	-7330
▁contends	-7331
▁relaxation	-7332
▁aw	-7333
▁orna	-7334
▁scholar	-7335
▁greetings	-7336
▁contraband	-7337
ouble	-7338
▁apex	-7339
▁client	-7340
▁Cabinet	-7341
▁convention	-7342
▁instruction	-7343
unk	-7344
▁MC	-7345
▁dia	-7346
▁wis	-7347
chandra	-7348
▁offers	-7349
atra	-7350
▁legs	-7351
othing	-7352
▁constr	-7353
▁SRI	-7354
ether	-7355
▁Common	-7356
▁writer	-7357
▁privilege	-7358
uliar	-7359
▁Compl	-7360
atively	-7361
LI	-7362
uri	-7363
ocol	-7364
▁mov	-7365
▁bidder	-7366
▁crucial	-7367
imb	-7368
off	-7369
▁discuss	-7370
▁vehemently	-7371
Os	-7372
▁EX	-7373
▁reveal	-7374
▁consolid	-7375
▁peculiar	-7376
▁platform	-7377
▁fed	-7378
organ	-7379
ners	-7380
▁heads	-7381
▁Austral	-7382
▁branches	-7383
▁expired	-7384
▁specially	-7385
pa	-7386
▁IP	-7387
urved	-7388
▁formula	-7389
▁motorcy	-7390
▁framework	-7391
▁introduction	-7392
▁multi	-7393
▁disturb	-7394
▁managed	-7395
▁Economic	-7396
▁festival	-7397
▁organism	-7398
▁ID	-7399
▁Subsequently	-7400
▁Dw	-7401
ghal	-7402
▁Good	-7403
▁regions	-7404
▁devotion	-7405
▁performing	-7406
alle	-7407
▁evil	-7408
▁Banks	-7409
▁Pandit	-7410
▁fixing	-7411
▁occasions	-7412
▁prosperity	-7413
▁instruments	-7414
iers	-7415
▁burnt	-7416
▁couple	-7417
▁calculated	-7418
▁pull	-7419
▁Nepal	-7420
▁blind	-7421
cribing	-7422
▁trading	-7423
▁matrim	-7424
▁placing	-7425
ohol	-7426
▁aband	-7427
▁prompt	-7428
▁originally	-7429
CE	-7430
▁Mrs	-7431
▁Prim	-7432
▁dealer	-7433
▁announced	-7434
▁nominated	-7435
ampur	-7436
▁Junior	-7437
▁CP	-7438
rase	-7439
▁Nir	-7440
▁settle	-7441
▁constant	-7442
ooth	-7443
▁mortem	-7444
▁fifteen	-7445
▁undertake	-7446
▁competition	-7447
▁restrictions	-7448
▁Motor	-7449
▁western	-7450
▁Gul	-7451
▁PWs	-7452
▁pad	-7453
▁Pass	-7454
▁initiate	-7455
▁endorsement	-7456
▁belonged	-7457
▁Rad	-7458
▁arisen	-7459
▁borrower	-7460
▁Han	-7461
▁vic	-7462
▁Prabh	-7463
▁Convention	-7464
▁prevailing	-7465
ESS	-7466
▁NC	-7467
icity	-7468
resents	-7469
▁incent	-7470
▁termed	-7471
▁shifted	-7472
▁translation	-7473
▁satisfactory	-7474
▁Acts	-7475
▁shops	-7476
▁trend	-7477
▁scrutin	-7478
▁probation	-7479
▁personality	-7480
▁hoc	-7481
▁unnecess	-7482
▁appointing	-7483
▁brings	-7484
▁imposing	-7485
gue	-7486
pro	-7487
▁Neg	-7488
▁Look	-7489
▁Could	-7490
▁fifty	-7491
▁twelve	-7492
▁multipl	-7493
▁intercourse	-7494
▁wonder	-7495
▁restriction	-7496
▁Agg	-7497
▁mail	-7498
▁indig	-7499
▁greatest	-7500
▁creditors	-7501
itt	-7502
▁Amb	-7503
▁dispose	-7504
▁electronic	-7505
▁cow	-7506
▁Pers	-7507
▁pieces	-7508
iant	-7509
▁Rev	-7510
▁Nature	-7511
▁answers	-7512
▁stained	-7513
▁collabor	-7514
EE	-7515
▁Ach	-7516
▁Joh	-7517
▁Kap	-7518
▁Roh	-7519
▁didn	-7520
▁deprived	-7521
▁represents	-7522
▁AN	-7523
ropol	-7524
▁enum	-7525
holder	-7526
▁cloud	-7527
▁looks	-7528
▁accom	-7529
▁judic	-7530
▁Tiwari	-7531
▁justify	-7532
▁premium	-7533
OP	-7534
lter	-7535
onies	-7536
▁erred	-7537
▁unjust	-7538
MS	-7539
riya	-7540
▁fract	-7541
▁Record	-7542
▁street	-7543
ym	-7544
▁DIST	-7545
▁hall	-7546
▁upgr	-7547
▁doubts	-7548
ICE	-7549
issue	-7550
umber	-7551
▁brid	-7552
▁usual	-7553
▁awards	-7554
eros	-7555
▁resc	-7556
▁relev	-7557
ju	-7558
▁sake	-7559
▁plans	-7560
▁mostly	-7561
appropri	-7562
▁fulfilled	-7563
och	-7564
▁ND	-7565
▁org	-7566
▁purely	-7567
▁Prakhand	-7568
laim	-7569
▁Cal	-7570
▁outer	-7571
▁Mother	-7572
▁courage	-7573
ema	-7574
▁route	-7575
▁spect	-7576
▁exclusion	-7577
▁affidavits	-7578
FC	-7579
▁vary	-7580
▁resign	-7581
▁implicated	-7582
▁mob	-7583
▁requiring	-7584
▁chargeable	-7585
▁coin	-7586
▁felic	-7587
▁refuse	-7588
IG	-7589
yas	-7590
▁fuel	-7591
▁helps	-7592
▁apprehend	-7593
▁Examination	-7594
cular	-7595
▁Transfer	-7596
▁unlawful	-7597
▁Tra	-7598
▁Choudh	-7599
▁beings	-7600
▁purview	-7601
▁Om	-7602
▁Upon	-7603
▁exch	-7604
roller	-7605
▁Paper	-7606
▁reaching	-7607
▁illegally	-7608
▁conclusions	-7609
▁dw	-7610
▁sets	-7611
▁royal	-7612
▁sites	-7613
writing	-7614
▁orient	-7615
UB	-7616
▁Dy	-7617
oyal	-7618
▁Mohd	-7619
▁inher	-7620
▁divorce	-7621
oses	-7622
▁USA	-7623
▁solely	-7624
▁spoken	-7625
▁Advocates	-7626
gi	-7627
ansion	-7628
ounded	-7629
▁opposition	-7630
▁squared	-7631
▁exclusively	-7632
▁spons	-7633
joinder	-7634
▁Chancellor	-7635
inity	-7636
▁conclude	-7637
▁purported	-7638
▁Works	-7639
▁aggreg	-7640
▁Eastern	-7641
▁proposals	-7642
▁aforementioned	-7643
ids	-7644
rup	-7645
▁Cast	-7646
▁Zone	-7647
▁alias	-7648
▁tenancy	-7649
BC	-7650
cript	-7651
▁folk	-7652
ressive	-7653
▁Agency	-7654
▁Process	-7655
▁communal	-7656
▁inviting	-7657
▁shareholders	-7658
mad	-7659
▁Disp	-7660
vation	-7661
▁fraudul	-7662
HAR	-7663
▁faced	-7664
▁utter	-7665
▁Bureau	-7666
▁Jawahar	-7667
▁accompl	-7668
▁cutting	-7669
▁superann	-7670
▁consumers	-7671
▁parameters	-7672
▁substantially	-7673
▁Mil	-7674
▁axe	-7675
ander	-7676
▁annum	-7677
▁guidance	-7678
▁rit	-7679
anath	-7680
▁boys	-7681
▁aims	-7682
rating	-7683
ogether	-7684
▁resource	-7685
▁bilateral	-7686
▁Divisional	-7687
loc	-7688
▁MM	-7689
oubted	-7690
▁pressed	-7691
▁computing	-7692
▁reasonably	-7693
isis	-7694
▁Po	-7695
▁TV	-7696
amus	-7697
▁bot	-7698
▁Addl	-7699
▁Vaish	-7700
▁creditor	-7701
back	-7702
▁casual	-7703
▁facing	-7704
▁simult	-7705
▁History	-7706
▁investors	-7707
▁Id	-7708
▁Emp	-7709
aught	-7710
▁wisdom	-7711
▁housing	-7712
▁presumed	-7713
▁initiative	-7714
▁exceptional	-7715
ayat	-7716
▁forced	-7717
▁Letters	-7718
▁Circular	-7719
▁matrimonial	-7720
alla	-7721
▁File	-7722
▁discovery	-7723
▁incriminating	-7724
akti	-7725
▁Vir	-7726
▁desert	-7727
▁earned	-7728
▁please	-7729
▁climate	-7730
▁backward	-7731
▁Investigation	-7732
▁pm	-7733
▁Saty	-7734
▁colle	-7735
▁laying	-7736
▁precise	-7737
▁concession	-7738
▁discovered	-7739
▁transmission	-7740
ceived	-7741
chnama	-7742
▁breath	-7743
▁fellow	-7744
▁occurs	-7745
▁reduction	-7746
▁arrangements	-7747
▁accommodation	-7748
afide	-7749
▁wait	-7750
▁eleph	-7751
rations	-7752
▁exhibited	-7753
▁implication	-7754
TER	-7755
che	-7756
▁vag	-7757
alled	-7758
▁forged	-7759
ker	-7760
▁essence	-7761
▁extending	-7762
▁Electricity	-7763
shi	-7764
▁Bur	-7765
▁Jyot	-7766
▁Chrom	-7767
▁infection	-7768
AI	-7769
Rs	-7770
vast	-7771
▁000	-7772
▁Chak	-7773
▁span	-7774
piration	-7775
▁creates	-7776
▁integrity	-7777
itch	-7778
itage	-7779
▁eyew	-7780
▁empty	-7781
▁inaug	-7782
▁enabling	-7783
▁Mult	-7784
▁phen	-7785
▁injust	-7786
▁transportation	-7787
rule	-7788
etime	-7789
▁Data	-7790
▁zero	-7791
▁defend	-7792
▁precedent	-7793
▁attributed	-7794
TS	-7795
▁Urban	-7796
▁Instru	-7797
▁nearby	-7798
▁screen	-7799
▁societies	-7800
AGE	-7801
akf	-7802
urch	-7803
▁Sarasw	-7804
▁string	-7805
▁weather	-7806
mal	-7807
▁unw	-7808
▁Anil	-7809
ida	-7810
▁Suresh	-7811
▁treating	-7812
▁Independence	-7813
▁Equ	-7814
▁Rab	-7815
▁ste	-7816
rafts	-7817
▁thousands	-7818
▁inconsistent	-7819
▁Parliamentary	-7820
▁Aur	-7821
▁Body	-7822
▁Chow	-7823
▁Debt	-7824
ranath	-7825
▁Agricultural	-7826
ny	-7827
▁Nations	-7828
▁quarter	-7829
▁refusal	-7830
▁concerns	-7831
▁testator	-7832
▁motorcycle	-7833
ajan	-7834
▁Sector	-7835
▁Nothing	-7836
TI	-7837
▁NE	-7838
▁Shar	-7839
▁mala	-7840
▁budget	-7841
▁rivers	-7842
cel	-7843
gypt	-7844
amber	-7845
▁bull	-7846
cience	-7847
▁contributions	-7848
apa	-7849
leum	-7850
rection	-7851
▁battle	-7852
▁silent	-7853
▁admissions	-7854
▁Raju	-7855
▁skills	-7856
▁substitute	-7857
▁stab	-7858
▁Govind	-7859
▁Houses	-7860
▁dignity	-7861
▁witnessed	-7862
▁garden	-7863
▁succeeded	-7864
uni	-7865
ounder	-7866
▁taxes	-7867
istence	-7868
▁Subhas	-7869
▁cognizable	-7870
▁Ren	-7871
▁Sud	-7872
antic	-7873
▁fertil	-7874
▁delinqu	-7875
▁Mahto	-7876
▁Third	-7877
pled	-7878
▁oath	-7879
▁batch	-7880
▁absent	-7881
▁scholars	-7882
▁eyewitness	-7883
▁Saf	-7884
▁jointly	-7885
▁apprehension	-7886
▁cycle	-7887
▁expand	-7888
▁doctors	-7889
▁exhaust	-7890
▁........	-7891
▁improper	-7892
▁Egypt	-7893
▁Liqu	-7894
▁vote	-7895
▁Sinha	-7896
▁paint	-7897
▁Sardar	-7898
▁Children	-7899
▁alleging	-7900
▁duration	-7901
▁promoting	-7902
▁Sk	-7903
▁Urdu	-7904
hemical	-7905
▁Patent	-7906
▁exports	-7907
ropolitan	-7908
fall	-7909
▁teach	-7910
▁levied	-7911
▁relate	-7912
▁reforms	-7913
▁venture	-7914
▁personally	-7915
▁१७	-7916
inct	-7917
▁Lah	-7918
▁Yes	-7919
▁Vigilance	-7920
emark	-7921
▁injustice	-7922
▁difficulties	-7923
▁Um	-7924
▁Sidd	-7925
▁devi	-7926
▁acquire	-7927
▁cricket	-7928
▁package	-7929
▁supreme	-7930
▁Accounts	-7931
▁conversation	-7932
▁SA	-7933
▁URL	-7934
ighty	-7935
oubtedly	-7936
▁investments	-7937
▁RBI	-7938
▁tim	-7939
▁Sund	-7940
▁unex	-7941
▁zone	-7942
▁thrown	-7943
▁exactly	-7944
▁specify	-7945
▁trademark	-7946
unicipality	-7947
▁sin	-7948
rates	-7949
▁Area	-7950
▁tenants	-7951
ographical	-7952
▁Advis	-7953
▁Customs	-7954
▁markets	-7955
▁correctly	-7956
▁hat	-7957
ellow	-7958
erent	-7959
uality	-7960
▁incumb	-7961
▁imagination	-7962
CO	-7963
UT	-7964
mat	-7965
▁outcome	-7966
▁renewal	-7967
▁declined	-7968
SS	-7969
▁AY	-7970
▁hop	-7971
roleum	-7972
▁expansion	-7973
▁scientists	-7974
ogue	-7975
▁Shuk	-7976
▁drop	-7977
▁skill	-7978
▁journal	-7979
▁counsels	-7980
ganj	-7981
▁deny	-7982
▁patent	-7983
▁Statute	-7984
▁flowers	-7985
▁instances	-7986
oshi	-7987
▁Deed	-7988
▁Note	-7989
▁conj	-7990
▁empower	-7991
▁murdered	-7992
▁emergency	-7993
▁Rest	-7994
▁dimension	-7995
▁liabilities	-7996
▁installation	-7997
preci	-7998
▁recip	-7999
▁analog	-8000
ef	-8001
▁Ku	-8002
▁Sand	-8003
▁convert	-8004
▁password	-8005
▁VI	-8006
icus	-8007
empted	-8008
▁ritual	-8009
▁provisional	-8010
JC	-8011
▁Fac	-8012
▁Far	-8013
▁tur	-8014
▁blank	-8015
▁coast	-8016
isputed	-8017
▁seemed	-8018
▁routine	-8019
▁talking	-8020
▁conference	-8021
▁Ray	-8022
▁incap	-8023
▁newly	-8024
▁Divine	-8025
▁Sushil	-8026
▁resolved	-8027
▁beneficial	-8028
▁La	-8029
▁vir	-8030
▁ROAD	-8031
▁deem	-8032
▁solar	-8033
▁Pleader	-8034
▁receipts	-8035
▁supplementary	-8036
ulous	-8037
▁inev	-8038
▁Point	-8039
▁sweet	-8040
▁Bahadur	-8041
▁Primary	-8042
▁compelled	-8043
▁irregularity	-8044
▁fet	-8045
arpur	-8046
▁Jail	-8047
▁earning	-8048
▁movements	-8049
lo	-8050
indra	-8051
omach	-8052
▁tune	-8053
▁myself	-8054
▁alcohol	-8055
▁confirmation	-8056
▁SL	-8057
▁gate	-8058
akrish	-8059
▁bears	-8060
▁maintainability	-8061
vol	-8062
▁revers	-8063
▁tissue	-8064
▁Educational	-8065
▁prohibition	-8066
oning	-8067
onance	-8068
▁Whereas	-8069
▁enabled	-8070
▁organised	-8071
▁cool	-8072
▁faculty	-8073
▁lawful	-8074
▁Industry	-8075
▁assessing	-8076
▁influenced	-8077
▁anticipatory	-8078
▁sla	-8079
▁fifth	-8080
▁corruption	-8081
▁friendship	-8082
▁initiation	-8083
▁temperature	-8084
▁corroboration	-8085
ese	-8086
▁CL	-8087
▁Army	-8088
apping	-8089
▁defeat	-8090
▁confusion	-8091
▁subsection	-8092
▁investigate	-8093
▁isol	-8094
ashing	-8095
▁Estate	-8096
▁ancest	-8097
▁Provision	-8098
▁Statement	-8099
▁dangerous	-8100
amed	-8101
▁jew	-8102
▁Marriage	-8103
▁membership	-8104
pic	-8105
▁Ans	-8106
▁Kir	-8107
▁Mas	-8108
▁Exper	-8109
▁Question	-8110
▁improved	-8111
▁daughters	-8112
▁kg	-8113
icon	-8114
ithm	-8115
onal	-8116
▁Ear	-8117
▁hel	-8118
▁Despite	-8119
▁monetary	-8120
▁Employees	-8121
▁centuries	-8122
rows	-8123
▁Dam	-8124
▁hyd	-8125
▁cancel	-8126
▁affirmed	-8127
▁dedicated	-8128
▁governments	-8129
▁PDD	-8130
▁syn	-8131
▁Conc	-8132
employ	-8133
▁saved	-8134
locutory	-8135
▁travell	-8136
▁attacked	-8137
▁thorough	-8138
▁Vid	-8139
▁Bangl	-8140
▁twice	-8141
▁config	-8142
▁directory	-8143
▁Term	-8144
▁Select	-8145
▁emerged	-8146
▁restrict	-8147
▁Notwithstanding	-8148
oples	-8149
▁Gold	-8150
▁Housing	-8151
▁deliberately	-8152
▁contravention	-8153
▁organisations	-8154
DU	-8155
norm	-8156
oman	-8157
oria	-8158
▁Lic	-8159
▁Vide	-8160
amount	-8161
▁hotel	-8162
▁micro	-8163
▁speaks	-8164
▁Discipl	-8165
jan	-8166
riages	-8167
▁dance	-8168
▁sanct	-8169
▁Afghan	-8170
▁Annual	-8171
▁disbel	-8172
anka	-8173
rier	-8174
▁Inn	-8175
▁Local	-8176
▁quasi	-8177
▁Related	-8178
▁everyone	-8179
▁Something	-8180
▁projected	-8181
▁comparison	-8182
▁Constitutional	-8183
▁da	-8184
▁Without	-8185
▁killing	-8186
▁younger	-8187
▁verified	-8188
▁seeds	-8189
▁deserve	-8190
▁Memorandum	-8191
▁formulated	-8192
▁presentation	-8193
rh	-8194
▁mos	-8195
▁Main	-8196
▁manage	-8197
▁combined	-8198
▁suddenly	-8199
▁gap	-8200
▁horse	-8201
▁dispro	-8202
▁Defence	-8203
▁examples	-8204
▁irrigation	-8205
▁newspapers	-8206
▁dog	-8207
icate	-8208
▁glass	-8209
▁driven	-8210
▁Ha	-8211
▁rub	-8212
▁doesn	-8213
▁margin	-8214
▁billion	-8215
▁cattle	-8216
▁assured	-8217
▁endeavour	-8218
arwal	-8219
▁kumar	-8220
▁gather	-8221
▁prohibited	-8222
BS	-8223
rum	-8224
hemat	-8225
▁mixed	-8226
▁tested	-8227
▁Kishore	-8228
ohan	-8229
▁statutes	-8230
▁violated	-8231
▁rendering	-8232
enders	-8233
▁Israeli	-8234
▁relevance	-8235
.00	-8236
▁belie	-8237
▁tract	-8238
ainable	-8239
ressing	-8240
▁Railways	-8241
ugh	-8242
▁elic	-8243
▁Micro	-8244
▁forming	-8245
▁load	-8246
▁French	-8247
▁filling	-8248
▁mountain	-8249
▁NH	-8250
▁mir	-8251
inter	-8252
▁Issue	-8253
▁awarding	-8254
alam	-8255
▁catch	-8256
▁Secondly	-8257
▁numerous	-8258
▁distributed	-8259
▁voluntarily	-8260
iche	-8261
▁anx	-8262
▁forc	-8263
ainted	-8264
▁accorded	-8265
▁concurrent	-8266
▁reass	-8267
▁suspect	-8268
▁levelled	-8269
▁Cooperative	-8270
ensus	-8271
▁poets	-8272
▁enmity	-8273
RIC	-8274
house	-8275
▁ring	-8276
ruction	-8277
▁retained	-8278
▁delinquent	-8279
yers	-8280
▁passion	-8281
▁returning	-8282
▁guaranteed	-8283
▁underlying	-8284
▁Know	-8285
▁baby	-8286
▁poly	-8287
▁Rakesh	-8288
▁offender	-8289
▁intelligence	-8290
HI	-8291
ario	-8292
dess	-8293
orge	-8294
orter	-8295
▁abst	-8296
▁fled	-8297
umping	-8298
▁quiet	-8299
▁Tender	-8300
▁existed	-8301
▁disabled	-8302
▁residents	-8303
▁superannuation	-8304
▁beg	-8305
▁misc	-8306
arding	-8307
▁Found	-8308
▁ended	-8309
▁votes	-8310
▁covers	-8311
▁composed	-8312
▁possessed	-8313
▁sacrifice	-8314
▁structures	-8315
▁Ser	-8316
▁sky	-8317
▁Succ	-8318
▁advis	-8319
▁dynam	-8320
▁deeply	-8321
▁thinks	-8322
▁chapter	-8323
▁naturally	-8324
▁indicating	-8325
rad	-8326
▁Ang	-8327
▁Dub	-8328
▁denying	-8329
▁summary	-8330
▁welcome	-8331
▁attempted	-8332
▁executing	-8333
▁altogether	-8334
from	-8335
▁APP	-8336
▁viewed	-8337
▁trained	-8338
▁offering	-8339
▁engagement	-8340
SP	-8341
▁Sit	-8342
posit	-8343
▁clin	-8344
▁hect	-8345
ensity	-8346
▁assisted	-8347
▁component	-8348
EG	-8349
▁Ank	-8350
▁Mam	-8351
▁VII	-8352
etent	-8353
igarh	-8354
▁shift	-8355
▁fulfil	-8356
▁compens	-8357
▁insofar	-8358
▁Teachers	-8359
▁pointing	-8360
▁revisional	-8361
▁Mir	-8362
aints	-8363
vastava	-8364
▁vendor	-8365
▁reinstate	-8366
▁securities	-8367
▁approximately	-8368
▁fle	-8369
▁bonds	-8370
▁surpr	-8371
▁Awards	-8372
▁meters	-8373
prudence	-8374
▁customs	-8375
▁ignorance	-8376
▁Mor	-8377
▁Name	-8378
▁thumb	-8379
▁intest	-8380
▁writings	-8381
▁enumerated	-8382
▁demonstrate	-8383
lace	-8384
▁Leave	-8385
▁Register	-8386
▁components	-8387
▁substantiate	-8388
ped	-8389
wara	-8390
▁NIT	-8391
▁vague	-8392
▁minute	-8393
▁enterprise	-8394
kha	-8395
oure	-8396
endar	-8397
▁chair	-8398
▁flower	-8399
▁tribal	-8400
▁violative	-8401
izon	-8402
▁Oil	-8403
▁flo	-8404
▁noise	-8405
▁radio	-8406
▁starts	-8407
▁expedit	-8408
top	-8409
▁Rent	-8410
▁bids	-8411
▁Shyam	-8412
▁bribe	-8413
▁center	-8414
▁retain	-8415
▁sacred	-8416
▁digital	-8417
▁Property	-8418
▁inclusive	-8419
▁competitive	-8420
raction	-8421
▁lawyer	-8422
▁closely	-8423
▁extensive	-8424
▁du	-8425
arer	-8426
zing	-8427
▁unb	-8428
▁failing	-8429
▁assuming	-8430
▁terminal	-8431
iliar	-8432
▁print	-8433
▁thank	-8434
▁stomach	-8435
▁creative	-8436
▁technologies	-8437
Nos	-8438
scious	-8439
▁bidders	-8440
▁quickly	-8441
▁representations	-8442
son	-8443
▁Bet	-8444
▁teeth	-8445
▁Guarant	-8446
▁patients	-8447
▁preparing	-8448
▁contradict	-8449
▁UK	-8450
▁race	-8451
▁divid	-8452
▁criticism	-8453
▁cultivation	-8454
SR	-8455
lier	-8456
▁Employment	-8457
▁TR	-8458
▁Sil	-8459
▁UGC	-8460
▁Based	-8461
▁theme	-8462
▁arranged	-8463
▁manufactured	-8464
▁shr	-8465
▁Sale	-8466
worthy	-8467
▁anybody	-8468
oop	-8469
▁kh	-8470
▁MAN	-8471
▁Band	-8472
▁spoke	-8473
▁gratuity	-8474
▁distinguish	-8475
▁Arch	-8476
▁fulfill	-8477
▁warning	-8478
▁occupied	-8479
▁observing	-8480
heb	-8481
▁MA	-8482
▁CIT	-8483
▁canv	-8484
wahati	-8485
▁desired	-8486
▁implied	-8487
▁comments	-8488
▁interrog	-8489
▁punished	-8490
▁tab	-8491
▁Tribes	-8492
▁ruling	-8493
▁assumption	-8494
Ws	-8495
time	-8496
▁prose	-8497
▁sympt	-8498
▁admits	-8499
▁printed	-8500
▁apparently	-8501
▁amp	-8502
▁eggs	-8503
▁Champaran	-8504
▁affecting	-8505
emn	-8506
▁IA	-8507
▁tom	-8508
▁John	-8509
▁Mant	-8510
▁folder	-8511
▁regulate	-8512
▁attendance	-8513
ded	-8514
▁Bag	-8515
▁flood	-8516
▁incidents	-8517
▁Palestinian	-8518
▁discharging	-8519
gone	-8520
▁York	-8521
▁Market	-8522
▁diplom	-8523
▁firing	-8524
▁Guwahati	-8525
▁instruct	-8526
▁replaced	-8527
gaon	-8528
race	-8529
▁None	-8530
▁Sita	-8531
▁bath	-8532
▁Temple	-8533
▁emerging	-8534
▁imported	-8535
▁irrelevant	-8536
▁Key	-8537
▁AGED	-8538
▁Free	-8539
utable	-8540
▁solid	-8541
▁tools	-8542
▁terrorist	-8543
▁qualifying	-8544
aon	-8545
anchi	-8546
▁diet	-8547
▁Dharm	-8548
▁begins	-8549
▁Bangladesh	-8550
▁1	-8551
alal	-8552
urbed	-8553
▁cord	-8554
ocated	-8555
▁Three	-8556
▁enforced	-8557
▁integrated	-8558
▁interfered	-8559
endix	-8560
▁lays	-8561
▁sear	-8562
▁lesser	-8563
▁deleted	-8564
▁joining	-8565
▁suffers	-8566
▁submitting	-8567
ixed	-8568
▁Web	-8569
▁Hold	-8570
▁Hotel	-8571
▁chart	-8572
ignment	-8573
▁linked	-8574
▁propag	-8575
▁visual	-8576
▁illness	-8577
▁securing	-8578
▁presently	-8579
▁comprising	-8580
dev	-8581
▁Lat	-8582
▁Disc	-8583
arency	-8584
▁Chait	-8585
▁Failed	-8586
▁crisis	-8587
bursement	-8588
▁phenomen	-8589
▁reaction	-8590
▁equitable	-8591
pay	-8592
ivek	-8593
▁ast	-8594
▁Ajay	-8595
▁Design	-8596
▁entrance	-8597
▁thoughts	-8598
▁improving	-8599
atti	-8600
▁Naw	-8601
▁revol	-8602
▁Shukla	-8603
SI	-8604
▁ram	-8605
▁crim	-8606
▁ceremony	-8607
▁assignment	-8608
▁clarification	-8609
▁rehabilitation	-8610
PW	-8611
▁Sang	-8612
▁disk	-8613
▁pist	-8614
iaries	-8615
▁cryst	-8616
▁planned	-8617
▁destruction	-8618
▁Sheikh	-8619
▁remind	-8620
▁accurate	-8621
▁combination	-8622
actor	-8623
▁Chit	-8624
▁Nare	-8625
verted	-8626
▁learnt	-8627
▁pp	-8628
plies	-8629
▁contest	-8630
▁Cases	-8631
▁weigh	-8632
▁artific	-8633
▁studied	-8634
unath	-8635
itating	-8636
▁Reform	-8637
▁bottom	-8638
▁Inquiry	-8639
UK	-8640
sa	-8641
▁hill	-8642
person	-8643
▁Working	-8644
▁finality	-8645
▁southern	-8646
▁Furthermore	-8647
stitu	-8648
▁Level	-8649
▁walls	-8650
▁launch	-8651
▁distrib	-8652
▁Building	-8653
▁Speaking	-8654
▁Metropolitan	-8655
andi	-8656
atar	-8657
▁Mos	-8658
allel	-8659
▁solemn	-8660
▁Hindust	-8661
▁declaring	-8662
hin	-8663
▁religions	-8664
▁dismissing	-8665
▁Da	-8666
atab	-8667
▁Vas	-8668
lihood	-8669
▁depth	-8670
▁innocence	-8671
sell	-8672
enous	-8673
▁myst	-8674
▁Raman	-8675
▁widow	-8676
ariness	-8677
theless	-8678
▁invoke	-8679
▁widely	-8680
▁prevented	-8681
▁infringement	-8682
▁Bil	-8683
hetic	-8684
▁auton	-8685
▁definitely	-8686
ridge	-8687
▁Cell	-8688
▁Hand	-8689
▁Phys	-8690
▁shad	-8691
▁wire	-8692
▁promis	-8693
▁Brahman	-8694
▁Germany	-8695
▁delayed	-8696
▁praying	-8697
▁sequence	-8698
▁Ambed	-8699
▁Mobile	-8700
▁recourse	-8701
▁generated	-8702
▁contending	-8703
▁unnecessary	-8704
aces	-8705
▁drew	-8706
▁drama	-8707
▁Change	-8708
▁attain	-8709
▁bright	-8710
▁furnishing	-8711
active	-8712
witness	-8713
▁manager	-8714
▁propriet	-8715
▁Controller	-8716
▁completing	-8717
▁succession	-8718
▁felicitations	-8719
eree	-8720
▁amen	-8721
▁Ahmad	-8722
▁Ambedkar	-8723
▁tendered	-8724
itle	-8725
lete	-8726
▁bomb	-8727
akings	-8728
coming	-8729
▁remem	-8730
itional	-8731
▁stress	-8732
▁conscience	-8733
▁contribute	-8734
zz	-8735
▁TH	-8736
▁proud	-8737
▁debate	-8738
▁immense	-8739
▁drinking	-8740
RC	-8741
abha	-8742
▁Text	-8743
▁burning	-8744
▁Mahabhar	-8745
▁hur	-8746
▁trouble	-8747
▁bleeding	-8748
▁evidences	-8749
EF	-8750
LC	-8751
▁Nay	-8752
ician	-8753
▁Amar	-8754
▁Wind	-8755
▁protest	-8756
▁resolve	-8757
▁Constitu	-8758
▁celebrated	-8759
▁simultaneously	-8760
ECT	-8761
▁pu	-8762
▁doll	-8763
▁quot	-8764
▁Dinesh	-8765
▁matern	-8766
▁upl	-8767
▁brand	-8768
▁cotton	-8769
▁forget	-8770
▁scales	-8771
▁Standard	-8772
▁discretionary	-8773
uter	-8774
▁kit	-8775
▁layer	-8776
▁Neither	-8777
▁corrupt	-8778
▁testing	-8779
▁evolution	-8780
▁consonance	-8781
tes	-8782
▁Nig	-8783
▁Tata	-8784
▁Forum	-8785
▁Manoj	-8786
▁socio	-8787
▁evolved	-8788
▁sharing	-8789
▁surrounding	-8790
arn	-8791
aria	-8792
▁Dom	-8793
▁Had	-8794
adequ	-8795
ocket	-8796
itative	-8797
▁Depart	-8798
▁corner	-8799
▁worker	-8800
▁Subhash	-8801
▁avoided	-8802
▁heritage	-8803
▁imperial	-8804
▁peaceful	-8805
▁permitting	-8806
▁developments	-8807
▁NI	-8808
▁destroyed	-8809
▁preference	-8810
St	-8811
▁Bir	-8812
▁Buddha	-8813
▁Castes	-8814
▁Dil	-8815
▁wed	-8816
▁aimed	-8817
▁enemy	-8818
▁carbon	-8819
▁intimation	-8820
▁interlocutory	-8821
▁Adh	-8822
ariat	-8823
▁Card	-8824
orters	-8825
▁thick	-8826
aterial	-8827
▁nobody	-8828
▁Promotion	-8829
▁amounting	-8830
TP	-8831
got	-8832
ugg	-8833
▁Ji	-8834
rosy	-8835
useum	-8836
▁estopp	-8837
▁ego	-8838
▁haz	-8839
▁oppon	-8840
▁Ganesh	-8841
▁Indeed	-8842
▁allows	-8843
▁titled	-8844
▁carries	-8845
▁Likewise	-8846
▁strongly	-8847
ustainable	-8848
▁Move	-8849
▁Democ	-8850
▁insured	-8851
▁hereunder	-8852
abet	-8853
▁vul	-8854
▁adap	-8855
erosene	-8856
▁messages	-8857
▁Saraswati	-8858
▁affection	-8859
▁directors	-8860
▁Top	-8861
▁fib	-8862
▁Misc	-8863
▁Japan	-8864
▁incon	-8865
▁fruits	-8866
▁Jawaharlal	-8867
raid	-8868
▁Coal	-8869
▁assume	-8870
▁engage	-8871
▁coupled	-8872
▁exhibit	-8873
▁torture	-8874
▁Laboratory	-8875
▁links	-8876
▁manip	-8877
▁prayers	-8878
▁educated	-8879
▁somebody	-8880
hus	-8881
▁NCT	-8882
▁Tehs	-8883
▁Innov	-8884
▁Odish	-8885
▁Vivek	-8886
▁masses	-8887
▁serial	-8888
▁commerce	-8889
▁strategy	-8890
▁suspicious	-8891
,0	-8892
▁prol	-8893
▁alarm	-8894
▁Mahesh	-8895
▁abnorm	-8896
▁Consumer	-8897
▁contemporary	-8898
ortium	-8899
▁sports	-8900
▁Brahmin	-8901
▁wearing	-8902
▁humanity	-8903
▁wherever	-8904
▁accompany	-8905
▁happening	-8906
▁competence	-8907
apore	-8908
▁Ravi	-8909
▁stead	-8910
▁wider	-8911
▁Import	-8912
▁peoples	-8913
▁ru	-8914
urers	-8915
▁Bach	-8916
▁devot	-8917
▁Orders	-8918
▁outset	-8919
▁plastic	-8920
▁electric	-8921
iel	-8922
bing	-8923
cles	-8924
▁Ele	-8925
▁Kor	-8926
▁Docu	-8927
▁sleeping	-8928
▁incumbent	-8929
▁undisputed	-8930
▁phrase	-8931
▁attempts	-8932
▁classified	-8933
▁Ary	-8934
applic	-8935
▁Money	-8936
▁commonly	-8937
▁CA	-8938
ealth	-8939
▁largely	-8940
▁physically	-8941
▁previously	-8942
▁enhancement	-8943
ipher	-8944
▁Care	-8945
▁hind	-8946
▁factum	-8947
▁fixation	-8948
▁northern	-8949
▁Tue	-8950
asion	-8951
▁Audit	-8952
▁simpl	-8953
▁taught	-8954
▁enables	-8955
▁Sometimes	-8956
sha	-8957
▁ju	-8958
▁Occ	-8959
▁meantime	-8960
▁tomorrow	-8961
▁livelihood	-8962
▁passengers	-8963
▁supervision	-8964
▁continuously	-8965
▁Lad	-8966
▁Til	-8967
ingly	-8968
▁Fort	-8969
▁regime	-8970
▁inspired	-8971
▁ornaments	-8972
will	-8973
night	-8974
mental	-8975
▁vires	-8976
▁defines	-8977
▁harmony	-8978
▁convenient	-8979
▁Departments	-8980
▁Bij	-8981
▁Sign	-8982
▁edge	-8983
examin	-8984
▁credibility	-8985
▁contradiction	-8986
achi	-8987
isal	-8988
rain	-8989
▁Arj	-8990
▁abet	-8991
▁fate	-8992
▁lung	-8993
iverse	-8994
▁Odisha	-8995
▁devoid	-8996
▁Conduct	-8997
▁strange	-8998
▁prominent	-8999
▁mr	-9000
▁creat	-9001
▁literal	-9002
▁considers	-9003
UN	-9004
▁cong	-9005
▁Sales	-9006
▁......	-9007
▁onwards	-9008
▁implementing	-9009
▁Gir	-9010
▁Energy	-9011
▁fallen	-9012
▁partial	-9013
▁familiar	-9014
▁limitations	-9015
▁coc	-9016
▁vent	-9017
▁aspir	-9018
▁frust	-9019
▁Instead	-9020
▁options	-9021
▁happiness	-9022
▁appreciating	-9023
▁notifications	-9024
ius	-9025
zen	-9026
▁decline	-9027
▁Appellants	-9028
yl	-9029
aha	-9030
▁Bro	-9031
▁cam	-9032
▁onus	-9033
▁signs	-9034
▁pursue	-9035
▁unlike	-9036
▁Insofar	-9037
▁staying	-9038
▁desirable	-9039
pad	-9040
▁Pas	-9041
▁era	-9042
▁ven	-9043
arkar	-9044
kumar	-9045
▁Durga	-9046
▁cease	-9047
▁Circle	-9048
▁pistol	-9049
▁attacks	-9050
▁forests	-9051
▁Bid	-9052
▁mit	-9053
stone	-9054
earing	-9055
▁Integ	-9056
▁rough	-9057
▁inadequ	-9058
▁laboure	-9059
▁Appendix	-9060
▁commodities	-9061
▁Liquid	-9062
▁realised	-9063
▁assurance	-9064
▁recognize	-9065
mon	-9066
▁१८	-9067
cond	-9068
▁Naz	-9069
▁fron	-9070
▁incom	-9071
▁Pratap	-9072
▁border	-9073
▁Lecturer	-9074
▁Registry	-9075
▁expressions	-9076
▁probability	-9077
▁GR	-9078
▁unsu	-9079
▁Vehic	-9080
▁truly	-9081
▁Aurang	-9082
▁errors	-9083
▁writers	-9084
▁indirectly	-9085
▁entertainment	-9086
▁MR	-9087
▁mic	-9088
ginal	-9089
unication	-9090
▁discover	-9091
▁Lordships	-9092
▁absorption	-9093
aza	-9094
▁NG	-9095
ananda	-9096
▁Persian	-9097
▁affects	-9098
▁Arbitral	-9099
▁undergone	-9100
▁subsidiary	-9101
▁institutional	-9102
ys	-9103
▁Forensic	-9104
▁operational	-9105
▁jobs	-9106
▁collecting	-9107
ALL	-9108
inn	-9109
ache	-9110
care	-9111
▁quo	-9112
cation	-9113
▁insert	-9114
▁Consult	-9115
▁Natural	-9116
▁advocates	-9117
DP	-9118
SION	-9119
▁drag	-9120
▁eastern	-9121
▁municipal	-9122
URU	-9123
▁ITAT	-9124
▁Mehta	-9125
▁Mount	-9126
▁signal	-9127
▁Chaitanya	-9128
▁Ordinance	-9129
▁restraining	-9130
▁ma	-9131
▁urge	-9132
▁bridge	-9133
▁insisted	-9134
▁millions	-9135
▁convinced	-9136
▁enjoyment	-9137
▁contributed	-9138
edia	-9139
pers	-9140
compl	-9141
▁inad	-9142
▁rooms	-9143
▁bottle	-9144
▁stones	-9145
▁legality	-9146
▁managing	-9147
▁supports	-9148
▁allocation	-9149
▁encouraged	-9150
iae	-9151
▁OP	-9152
atrix	-9153
▁ultra	-9154
ifiable	-9155
▁comfort	-9156
▁conformity	-9157
▁imperative	-9158
eli	-9159
▁Si	-9160
ture	-9161
▁collective	-9162
▁excellence	-9163
▁Nil	-9164
▁Modi	-9165
▁backd	-9166
▁sixty	-9167
▁cancer	-9168
▁tempor	-9169
▁conclusive	-9170
GA	-9171
auhan	-9172
▁Chat	-9173
▁Pune	-9174
▁hurt	-9175
ronics	-9176
▁Steel	-9177
resident	-9178
▁asserted	-9179
▁allowances	-9180
aked	-9181
oked	-9182
atell	-9183
▁doub	-9184
incial	-9185
▁Russia	-9186
▁contesting	-9187
▁unconscious	-9188
▁Norm	-9189
▁Return	-9190
▁aggregate	-9191
▁elaborate	-9192
▁CWJC	-9193
▁Five	-9194
▁Arora	-9195
uncture	-9196
▁eminent	-9197
▁entities	-9198
▁foregoing	-9199
▁handwriting	-9200
PF	-9201
chen	-9202
▁Sukh	-9203
▁index	-9204
▁sword	-9205
▁Letter	-9206
▁lawyers	-9207
▁redress	-9208
▁Enterprises	-9209
wad	-9210
asty	-9211
sues	-9212
▁Plant	-9213
▁Keeping	-9214
▁Commerce	-9215
ding	-9216
▁reop	-9217
▁Bazar	-9218
▁Sever	-9219
▁Engineers	-9220
EV	-9221
▁Opp	-9222
▁cos	-9223
ensing	-9224
▁agents	-9225
▁enunci	-9226
▁conveyed	-9227
quar	-9228
▁breast	-9229
▁divide	-9230
▁kingdom	-9231
▁internet	-9232
▁Foundation	-9233
▁discrepancies	-9234
comm	-9235
▁Dra	-9236
inese	-9237
▁airc	-9238
▁erst	-9239
▁obst	-9240
▁Allow	-9241
▁Times	-9242
▁prays	-9243
▁score	-9244
ologist	-9245
▁Number	-9246
▁decade	-9247
▁scenario	-9248
▁displayed	-9249
▁television	-9250
assed	-9251
version	-9252
▁obliged	-9253
▁remedies	-9254
hew	-9255
▁apt	-9256
▁accus	-9257
▁firstly	-9258
▁reflects	-9259
▁achieving	-9260
var	-9261
▁spr	-9262
▁Turk	-9263
▁shut	-9264
adation	-9265
▁relies	-9266
▁repair	-9267
judicial	-9268
▁pronounce	-9269
▁Chandigarh	-9270
▁Kol	-9271
▁PIL	-9272
▁tor	-9273
ainty	-9274
anese	-9275
▁Mach	-9276
▁waters	-9277
▁diverse	-9278
ears	-9279
shan	-9280
▁argue	-9281
▁speedy	-9282
▁feelings	-9283
▁Australia	-9284
▁expectation	-9285
▁productivity	-9286
▁Wa	-9287
veer	-9288
▁Kav	-9289
▁Sou	-9290
▁bat	-9291
▁MSME	-9292
▁Green	-9293
▁patri	-9294
▁Export	-9295
▁metres	-9296
grim	-9297
▁tub	-9298
oices	-9299
plete	-9300
▁Bhat	-9301
▁detenue	-9302
▁nowhere	-9303
▁periods	-9304
▁anywhere	-9305
▁kerosene	-9306
▁locality	-9307
▁eventually	-9308
▁Disciplinary	-9309
▁GO	-9310
▁UT	-9311
ouch	-9312
allan	-9313
ivided	-9314
▁plots	-9315
▁organs	-9316
▁kilomet	-9317
▁logical	-9318
▁contested	-9319
▁sentences	-9320
uti	-9321
▁subt	-9322
▁Binoy	-9323
ilation	-9324
▁afraid	-9325
▁secular	-9326
▁supervis	-9327
heet	-9328
plus	-9329
rete	-9330
▁tied	-9331
▁goals	-9332
▁remun	-9333
▁muscle	-9334
▁adopting	-9335
▁inferior	-9336
▁settings	-9337
▁resignation	-9338
▁unauthorized	-9339
▁View	-9340
▁Basic	-9341
▁Hasan	-9342
▁erstwhile	-9343
▁artificial	-9344
▁exceptions	-9345
▁Organization	-9346
▁Deg	-9347
▁Und	-9348
alaya	-9349
inces	-9350
tical	-9351
▁bact	-9352
▁desc	-9353
▁grew	-9354
▁Academ	-9355
▁Bhawan	-9356
▁decreed	-9357
respondent	-9358
▁excessive	-9359
▁qualities	-9360
▁sovereign	-9361
MP	-9362
ahan	-9363
atre	-9364
▁Max	-9365
▁electoral	-9366
▁suspended	-9367
▁repeatedly	-9368
▁vit	-9369
▁audio	-9370
▁accrued	-9371
▁gradually	-9372
obe	-9373
asim	-9374
otal	-9375
quest	-9376
▁Death	-9377
▁chrom	-9378
▁League	-9379
▁possibly	-9380
▁solutions	-9381
▁arbitrariness	-9382
▁El	-9383
▁Dig	-9384
abhai	-9385
▁reserve	-9386
▁visiting	-9387
▁currently	-9388
▁subscribe	-9389
▁remarkable	-9390
▁jurisprudence	-9391
br	-9392
ensed	-9393
▁mine	-9394
▁Caste	-9395
▁Vedic	-9396
▁shoot	-9397
▁stored	-9398
▁Several	-9399
▁enclosed	-9400
▁restraint	-9401
▁testatrix	-9402
▁incidental	-9403
▁Afghanistan	-9404
gal	-9405
what	-9406
▁cav	-9407
▁Mean	-9408
ipping	-9409
▁Bhatt	-9410
▁Pursu	-9411
▁bread	-9412
▁fluid	-9413
▁devices	-9414
▁shoulder	-9415
was	-9416
▁Vers	-9417
▁flex	-9418
▁label	-9419
▁Telang	-9420
▁crimes	-9421
▁Chemical	-9422
▁prescribe	-9423
▁furtherance	-9424
ART	-9425
book	-9426
▁tong	-9427
▁.....	-9428
▁download	-9429
▁yourself	-9430
▁followers	-9431
▁misappropri	-9432
▁prospective	-9433
ompany	-9434
istries	-9435
SC	-9436
iter	-9437
▁Start	-9438
▁abdom	-9439
▁Crores	-9440
▁channels	-9441
▁Bengaluru	-9442
▁investigated	-9443
HC	-9444
▁Srin	-9445
▁shif	-9446
▁Chinese	-9447
▁Tribunals	-9448
▁rejoinder	-9449
VE	-9450
ria	-9451
atisf	-9452
▁flag	-9453
uniary	-9454
▁disag	-9455
▁overt	-9456
▁unequ	-9457
▁honest	-9458
▁Persons	-9459
▁beneficiary	-9460
ESH	-9461
udge	-9462
▁Unless	-9463
▁gained	-9464
▁Bhagwan	-9465
▁Highway	-9466
▁symptoms	-9467
▁Dictionary	-9468
▁correspondence	-9469
▁mig	-9470
atern	-9471
ulsion	-9472
▁Polit	-9473
▁abund	-9474
▁feels	-9475
▁George	-9476
▁images	-9477
▁Petitions	-9478
▁demanding	-9479
▁frequently	-9480
▁remembered	-9481
▁transparent	-9482
▁communications	-9483
aniel	-9484
▁bodily	-9485
hibition	-9486
▁mahazar	-9487
▁violent	-9488
▁SW	-9489
asks	-9490
iders	-9491
▁Rani	-9492
▁cant	-9493
▁pled	-9494
▁adding	-9495
▁intermedi	-9496
▁SI	-9497
▁Earth	-9498
istical	-9499
▁Mys	-9500
ichever	-9501
▁headed	-9502
▁specim	-9503
▁Jagdish	-9504
▁arriving	-9505
▁clearance	-9506
▁Dav	-9507
▁SEC	-9508
father	-9509
▁verse	-9510
arriage	-9511
▁varied	-9512
lessness	-9513
▁Comment	-9514
▁inclusion	-9515
▁traditions	-9516
ML	-9517
we	-9518
onic	-9519
uran	-9520
▁via	-9521
▁Province	-9522
▁emotional	-9523
▁guarantees	-9524
▁achievement	-9525
▁Construction	-9526
rin	-9527
▁Bhav	-9528
▁Siva	-9529
▁nerv	-9530
▁ocean	-9531
ableness	-9532
▁assailants	-9533
▁grievances	-9534
▁monitoring	-9535
▁Cross	-9536
▁diagn	-9537
▁Kanpur	-9538
▁resorted	-9539
andra	-9540
▁pair	-9541
▁Benef	-9542
▁pipes	-9543
▁rushed	-9544
▁Bharati	-9545
▁mandamus	-9546
▁successor	-9547
▁delegation	-9548
ashi	-9549
dict	-9550
▁Str	-9551
uster	-9552
▁Madan	-9553
▁spend	-9554
▁Condition	-9555
▁continuation	-9556
▁pronouncement	-9557
ITY	-9558
oles	-9559
▁OCC	-9560
▁gall	-9561
▁Never	-9562
▁ending	-9563
▁preval	-9564
▁yellow	-9565
iculture	-9566
▁soldiers	-9567
▁sensitive	-9568
gor	-9569
▁BEN	-9570
▁Poll	-9571
▁fighting	-9572
▁resistance	-9573
▁AGE	-9574
▁pig	-9575
▁Lakh	-9576
▁ante	-9577
▁lieu	-9578
idavit	-9579
▁nomin	-9580
▁prote	-9581
▁Taking	-9582
▁Ayurved	-9583
▁Kingdom	-9584
▁enjoyed	-9585
▁occurring	-9586
▁virtually	-9587
▁tro	-9588
▁van	-9589
▁Need	-9590
▁fasc	-9591
▁Asian	-9592
▁forty	-9593
▁Charge	-9594
▁arrival	-9595
▁repealed	-9596
▁hesitation	-9597
▁Deb	-9598
▁Nat	-9599
▁Vinod	-9600
▁array	-9601
▁ignore	-9602
▁Finally	-9603
▁emerges	-9604
▁whereof	-9605
▁hardship	-9606
▁adversely	-9607
▁whichever	-9608
▁fraudulent	-9609
▁requesting	-9610
▁constitutes	-9611
SE	-9612
▁Kun	-9613
▁row	-9614
peror	-9615
▁curt	-9616
▁accum	-9617
ailable	-9618
▁Pursuant	-9619
▁juncture	-9620
▁apprehended	-9621
eer	-9622
uated	-9623
▁Sahu	-9624
▁pool	-9625
ursing	-9626
▁rebut	-9627
▁Scient	-9628
▁Limitation	-9629
mp	-9630
cont	-9631
▁Mac	-9632
iques	-9633
oking	-9634
fulness	-9635
ulative	-9636
▁availed	-9637
▁universe	-9638
▁attending	-9639
▁administer	-9640
▁mechanical	-9641
hal	-9642
▁Vi	-9643
▁trem	-9644
▁Check	-9645
▁treas	-9646
▁voters	-9647
▁Chauhan	-9648
▁Telangana	-9649
▁deliberate	-9650
▁functional	-9651
enda	-9652
▁cards	-9653
▁motiv	-9654
atories	-9655
otiable	-9656
▁Establ	-9657
▁afresh	-9658
iliation	-9659
▁removing	-9660
▁Singapore	-9661
▁registering	-9662
co	-9663
lav	-9664
char	-9665
ulpt	-9666
▁Kaur	-9667
▁Soft	-9668
▁emerge	-9669
▁handling	-9670
▁destination	-9671
▁participating	-9672
akk	-9673
asis	-9674
want	-9675
gence	-9676
orted	-9677
▁Rath	-9678
stated	-9679
▁appended	-9680
▁backdrop	-9681
▁parallel	-9682
ordination	-9683
▁entitlement	-9684
ibi	-9685
▁Gaut	-9686
▁Shiva	-9687
▁exclude	-9688
▁marginal	-9689
▁searched	-9690
▁Presiding	-9691
▁parliamentary	-9692
jit	-9693
lat	-9694
▁MT	-9695
DUCT	-9696
▁Kot	-9697
▁Coun	-9698
▁Drug	-9699
▁deriv	-9700
▁beaten	-9701
▁reader	-9702
▁verify	-9703
▁realise	-9704
▁turning	-9705
PCL	-9706
▁Kann	-9707
▁solve	-9708
▁hidden	-9709
▁surplus	-9710
▁travelling	-9711
The	-9712
▁ww	-9713
▁Autom	-9714
▁lowest	-9715
▁verses	-9716
adra	-9717
▁Bhai	-9718
▁busy	-9719
▁meat	-9720
▁France	-9721
▁imports	-9722
▁experiment	-9723
ued	-9724
▁pa	-9725
▁Mer	-9726
▁tow	-9727
▁Prad	-9728
▁Merely	-9729
▁infinite	-9730
▁invested	-9731
▁stations	-9732
▁composition	-9733
orry	-9734
herry	-9735
▁Black	-9736
▁Guide	-9737
▁Relig	-9738
▁disposs	-9739
▁escaped	-9740
▁overlook	-9741
▁Recruitment	-9742
iam	-9743
ayuk	-9744
▁Jit	-9745
▁www	-9746
▁STATE	-9747
inatory	-9748
▁Mughal	-9749
▁assailed	-9750
▁suppressed	-9751
▁reinstatement	-9752
▁IR	-9753
▁RF	-9754
ardb	-9755
mail	-9756
onds	-9757
▁SHO	-9758
ammed	-9759
▁Desh	-9760
▁inputs	-9761
▁parade	-9762
▁Britain	-9763
▁remanded	-9764
▁automatic	-9765
▁separated	-9766
resentation	-9767
▁cod	-9768
hered	-9769
▁semi	-9770
▁logic	-9771
▁independently	-9772
▁Sem	-9773
ashed	-9774
ipped	-9775
▁Next	-9776
▁loose	-9777
▁Online	-9778
▁Product	-9779
▁Advisory	-9780
▁excluding	-9781
▁undoubtedly	-9782
▁Municipality	-9783
iat	-9784
hers	-9785
oram	-9786
▁Sha	-9787
▁ped	-9788
▁meter	-9789
▁rulers	-9790
▁utility	-9791
▁vessels	-9792
▁Maharaja	-9793
▁passport	-9794
▁indication	-9795
▁practition	-9796
▁prescription	-9797
LR	-9798
how	-9799
▁Cy	-9800
life	-9801
▁update	-9802
▁Subject	-9803
▁elsewhere	-9804
▁excellent	-9805
ERE	-9806
iries	-9807
plant	-9808
▁Gora	-9809
▁reck	-9810
▁Narain	-9811
▁handic	-9812
▁degrees	-9813
▁refusing	-9814
▁somewhat	-9815
▁acquiring	-9816
▁administr	-9817
▁disposing	-9818
NL	-9819
▁Dri	-9820
▁NAB	-9821
▁Six	-9822
avior	-9823
▁Ward	-9824
▁silver	-9825
▁technique	-9826
pus	-9827
▁FA	-9828
itud	-9829
vals	-9830
xygen	-9831
▁Farm	-9832
▁Kesh	-9833
▁closure	-9834
▁safeguard	-9835
▁therefrom	-9836
▁affiliation	-9837
▁ascertained	-9838
▁AR	-9839
ogen	-9840
edience	-9841
osition	-9842
▁losses	-9843
▁absorbed	-9844
▁concealed	-9845
▁convicting	-9846
▁amalgamation	-9847
dh	-9848
osite	-9849
▁Kail	-9850
▁redu	-9851
▁fever	-9852
▁highl	-9853
lamation	-9854
▁litigant	-9855
▁discarded	-9856
outs	-9857
▁Age	-9858
▁nin	-9859
▁touc	-9860
▁quote	-9861
▁Guarantee	-9862
▁interpret	-9863
▁adjustment	-9864
▁vegetables	-9865
▁calculation	-9866
▁Nal	-9867
▁Wed	-9868
▁enl	-9869
▁dear	-9870
▁tail	-9871
▁crowd	-9872
▁Harish	-9873
▁Vaishn	-9874
▁sculpt	-9875
▁seller	-9876
▁Colleges	-9877
kin	-9878
agger	-9879
▁miss	-9880
▁decre	-9881
▁pound	-9882
▁Ranchi	-9883
▁poetic	-9884
▁altered	-9885
▁benefic	-9886
▁conting	-9887
▁prejudicial	-9888
▁transparency	-9889
his	-9890
▁Anti	-9891
▁Mill	-9892
▁gods	-9893
rative	-9894
olished	-9895
▁Chrome	-9896
▁Follow	-9897
▁circle	-9898
▁conced	-9899
▁disreg	-9900
▁sheets	-9901
▁greatly	-9902
▁mutation	-9903
▁taxation	-9904
appellants	-9905
▁fo	-9906
lock	-9907
arita	-9908
▁dies	-9909
▁chose	-9910
▁dilig	-9911
▁genes	-9912
▁smooth	-9913
▁highlighted	-9914
▁administered	-9915
umes	-9916
▁Goa	-9917
▁Jal	-9918
urism	-9919
▁bats	-9920
▁angle	-9921
▁safely	-9922
examined	-9923
▁finished	-9924
▁reducing	-9925
▁utilized	-9926
▁impleaded	-9927
▁pregnancy	-9928
▁transferee	-9929
▁White	-9930
▁usage	-9931
▁tenders	-9932
▁Knowledge	-9933
▁complained	-9934
wani	-9935
State	-9936
▁Huss	-9937
▁myth	-9938
orship	-9939
▁Ident	-9940
▁enorm	-9941
▁inferred	-9942
▁characteristics	-9943
▁End	-9944
▁Kath	-9945
▁forfe	-9946
▁utmost	-9947
▁Address	-9948
▁designs	-9949
▁remarks	-9950
▁stretch	-9951
▁assertion	-9952
▁Secretariat	-9953
▁acknowledged	-9954
▁Table	-9955
▁Indore	-9956
▁Search	-9957
▁golden	-9958
▁saving	-9959
▁Meeting	-9960
▁survive	-9961
▁calendar	-9962
▁inevitable	-9963
▁innovative	-9964
▁computation	-9965
ERA	-9966
erer	-9967
eyan	-9968
chant	-9969
▁Dubey	-9970
▁Enable	-9971
▁prince	-9972
▁constantly	-9973
▁technological	-9974
▁raj	-9975
▁Radh	-9976
▁scre	-9977
atabase	-9978
▁rising	-9979
▁Reforms	-9980
▁beating	-9981
▁packets	-9982
▁pilgrim	-9983
VAT	-9984
agi	-9985
▁Thir	-9986
▁Saroj	-9987
▁fracture	-9988
▁correction	-9989
CH	-9990
UST	-9991
▁Wakf	-9992
▁dust	-9993
▁Joshi	-9994
▁lodge	-9995
▁adjourn	-9996
▁Corruption	-9997
▁approaching	-9998
▁interfering	-9999
▁XV	-10000
entle	-10001
▁Khat	-10002
▁NAME	-10003
▁Puri	-10004
▁stim	-10005
▁Ghosh	-10006
▁metal	-10007
▁penet	-10008
▁fairness	-10009
▁tendency	-10010
▁disturbed	-10011
alat	-10012
▁BDA	-10013
▁Amit	-10014
ineness	-10015
▁Turkey	-10016
▁shaped	-10017
▁strang	-10018
▁prevail	-10019
▁wrongful	-10020
▁pronounced	-10021
१९	-10022
▁Sudh	-10023
▁Vire	-10024
▁ties	-10025
▁trap	-10026
lessly	-10027
▁deity	-10028
▁delight	-10029
▁realized	-10030
▁weakness	-10031
▁marriages	-10032
▁adjudicated	-10033
AGAR	-10034
▁Bri	-10035
▁htt	-10036
power	-10037
▁delegated	-10038
▁unsustainable	-10039
EST	-10040
lor	-10041
▁salt	-10042
▁Sahib	-10043
▁hills	-10044
esterday	-10045
▁mandapa	-10046
▁tourist	-10047
▁references	-10048
▁regulatory	-10049
▁translated	-10050
▁eve	-10051
▁rom	-10052
▁Academy	-10053
▁procure	-10054
cane	-10055
rants	-10056
▁Mall	-10057
▁holy	-10058
icable	-10059
▁delic	-10060
▁operated	-10061
▁reporting	-10062
▁strategic	-10063
▁exploitation	-10064
▁vex	-10065
▁tube	-10066
CL	-10067
▁Taj	-10068
▁mad	-10069
▁unp	-10070
▁bind	-10071
▁tape	-10072
▁facto	-10073
▁Indira	-10074
▁posting	-10075
▁Hinduism	-10076
▁overcome	-10077
▁impartial	-10078
▁differently	-10079
▁MB	-10080
▁Pip	-10081
▁pup	-10082
acious	-10083
▁Surat	-10084
▁parte	-10085
▁NABARD	-10086
▁ceased	-10087
▁valley	-10088
▁tourism	-10089
▁contrast	-10090
▁enterprises	-10091
▁genuineness	-10092
ARY	-10093
ori	-10094
acent	-10095
▁cater	-10096
▁repos	-10097
onation	-10098
▁kitchen	-10099
▁turnover	-10100
▁diversity	-10101
▁incomplete	-10102
▁achievements	-10103
▁transformation	-10104
DR	-10105
wide	-10106
▁Ish	-10107
laced	-10108
advant	-10109
▁Bills	-10110
▁grace	-10111
▁grain	-10112
▁summar	-10113
▁silence	-10114
▁deficiency	-10115
▁institutes	-10116
Ch	-10117
HA	-10118
anim	-10119
wing	-10120
▁nav	-10121
▁preserve	-10122
uma	-10123
▁dh	-10124
itya	-10125
mans	-10126
▁Bul	-10127
▁Fil	-10128
▁hal	-10129
▁lamp	-10130
▁worn	-10131
▁wheat	-10132
▁wheel	-10133
▁Manual	-10134
▁aircraft	-10135
▁expertise	-10136
▁offending	-10137
▁testified	-10138
▁continuance	-10139
▁consistently	-10140
▁strengthening	-10141
ORT	-10142
enn	-10143
▁Paul	-10144
▁gland	-10145
▁mould	-10146
▁harmon	-10147
▁eternal	-10148
▁radical	-10149
▁dishonest	-10150
▁undivided	-10151
▁entrepreneur	-10152
▁Rup	-10153
▁flight	-10154
▁Parishad	-10155
▁studying	-10156
▁Shik	-10157
▁clim	-10158
▁Chaudh	-10159
▁passes	-10160
▁thread	-10161
▁confron	-10162
▁architecture	-10163
sman	-10164
osity	-10165
▁Trip	-10166
▁bags	-10167
▁sket	-10168
▁stuff	-10169
▁Except	-10170
▁adhere	-10171
▁atomic	-10172
▁PRODUCT	-10173
▁gravity	-10174
▁coloured	-10175
▁answering	-10176
▁childhood	-10177
▁detaining	-10178
▁possessing	-10179
▁impermissible	-10180
▁Baj	-10181
eties	-10182
omous	-10183
▁Vict	-10184
▁node	-10185
▁vice	-10186
▁sorrow	-10187
▁inspire	-10188
▁pecuniary	-10189
▁techniques	-10190
▁stipulation	-10191
▁territories	-10192
▁Muh	-10193
▁Push	-10194
▁Jagann	-10195
▁picked	-10196
▁shadow	-10197
▁urgent	-10198
▁harvest	-10199
oi	-10200
hani	-10201
▁Sep	-10202
▁vii	-10203
▁Baba	-10204
▁Flag	-10205
▁Staff	-10206
▁propose	-10207
▁prisoner	-10208
▁Marketing	-10209
▁examinations	-10210
ayas	-10211
husi	-10212
▁Liter	-10213
tension	-10214
▁BENGAL	-10215
▁German	-10216
▁Perhaps	-10217
▁omitted	-10218
▁disorder	-10219
▁Aggrieved	-10220
cers	-10221
▁KAR	-10222
▁Sak	-10223
▁nexus	-10224
▁Canada	-10225
ointment	-10226
▁vacated	-10227
▁informing	-10228
haz	-10229
mic	-10230
▁Gaj	-10231
▁Tour	-10232
▁keen	-10233
GALORE	-10234
▁width	-10235
▁guided	-10236
▁Computer	-10237
▁oriented	-10238
▁computers	-10239
▁cooperative	-10240
▁expeditiously	-10241
▁characteristic	-10242
▁irregularities	-10243
▁Cult	-10244
▁truck	-10245
▁realize	-10246
ciliation	-10247
▁Islamist	-10248
▁boundary	-10249
▁accounting	-10250
▁civilization	-10251
▁negotiations	-10252
met	-10253
orrh	-10254
oves	-10255
▁ASI	-10256
▁rear	-10257
gments	-10258
▁Mahal	-10259
▁Medic	-10260
ourable	-10261
▁ceiling	-10262
▁ignoring	-10263
▁printing	-10264
ILL	-10265
ugu	-10266
iger	-10267
▁smt	-10268
▁buff	-10269
▁roots	-10270
▁split	-10271
▁stamps	-10272
▁dropped	-10273
▁judicata	-10274
▁utilised	-10275
▁positions	-10276
▁manufacturer	-10277
▁AIC	-10278
cause	-10279
▁Gaya	-10280
▁Sach	-10281
▁disob	-10282
▁editor	-10283
▁discont	-10284
▁profile	-10285
▁Investment	-10286
▁remuneration	-10287
▁ash	-10288
▁pul	-10289
▁rat	-10290
▁rhy	-10291
▁Claims	-10292
▁compan	-10293
▁culmin	-10294
▁excise	-10295
▁counted	-10296
▁shelter	-10297
▁financing	-10298
▁geographical	-10299
▁DD	-10300
anja	-10301
▁fash	-10302
terior	-10303
▁bones	-10304
▁cable	-10305
alities	-10306
▁Bhagat	-10307
▁retail	-10308
estation	-10309
▁confisc	-10310
▁defects	-10311
▁restored	-10312
▁comprised	-10313
▁proprietor	-10314
▁controlling	-10315
ims	-10316
van	-10317
▁MW	-10318
izer	-10319
▁Conn	-10320
▁News	-10321
▁insu	-10322
▁wick	-10323
orders	-10324
▁lists	-10325
▁pride	-10326
quarters	-10327
▁enthusi	-10328
▁victory	-10329
▁disadvant	-10330
▁Lep	-10331
▁Tre	-10332
▁fly	-10333
▁tall	-10334
▁elicited	-10335
▁meanwhile	-10336
▁stakeholders	-10337
thy	-10338
apati	-10339
▁Mohammed	-10340
▁detained	-10341
▁elephant	-10342
▁forcibly	-10343
▁BANGALORE	-10344
▁enforceable	-10345
▁experienced	-10346
aspur	-10347
▁Ball	-10348
▁Phot	-10349
▁Radi	-10350
▁palace	-10351
▁recons	-10352
▁Ramayana	-10353
▁describe	-10354
▁entirety	-10355
▁mountains	-10356
ogy	-10357
▁hun	-10358
▁Global	-10359
▁Supply	-10360
▁machines	-10361
▁jurisdictional	-10362
khar	-10363
omal	-10364
archy	-10365
atable	-10366
rition	-10367
▁blows	-10368
▁homic	-10369
▁lathi	-10370
▁older	-10371
▁paddy	-10372
▁Degree	-10373
▁Mysore	-10374
▁handle	-10375
▁imagine	-10376
▁tremend	-10377
▁pictures	-10378
▁inability	-10379
▁variation	-10380
▁Panchayats	-10381
rits	-10382
adevi	-10383
amble	-10384
rance	-10385
▁Rece	-10386
▁Prior	-10387
▁homes	-10388
reshold	-10389
▁refuge	-10390
▁reward	-10391
▁Hussain	-10392
▁din	-10393
▁brown	-10394
▁buyer	-10395
▁Tahsil	-10396
▁Airport	-10397
▁taxable	-10398
▁prisoners	-10399
▁establishes	-10400
▁Compensation	-10401
▁UP	-10402
agers	-10403
▁Maur	-10404
▁Parm	-10405
▁Till	-10406
▁unus	-10407
illary	-10408
▁decor	-10409
▁locus	-10410
▁ocular	-10411
ardbeyan	-10412
▁defeated	-10413
▁Territory	-10414
▁repayment	-10415
ki	-10416
URE	-10417
onym	-10418
▁Vad	-10419
arest	-10420
iguous	-10421
▁Chart	-10422
▁clock	-10423
▁faces	-10424
▁toler	-10425
▁subsidy	-10426
▁goodwill	-10427
▁passenger	-10428
▁suspected	-10429
▁protecting	-10430
xic	-10431
asha	-10432
onda	-10433
▁Alm	-10434
▁Hal	-10435
▁resid	-10436
▁cement	-10437
▁misrep	-10438
▁tongue	-10439
▁Punjabi	-10440
▁Assessment	-10441
▁progressive	-10442
ukh	-10443
aved	-10444
iram	-10445
▁Make	-10446
orious	-10447
▁Kamal	-10448
▁towns	-10449
▁assemb	-10450
▁Support	-10451
▁Disputes	-10452
▁portions	-10453
▁surprise	-10454
ASH	-10455
sees	-10456
▁Haz	-10457
▁Kur	-10458
▁VAT	-10459
▁turns	-10460
parable	-10461
▁allied	-10462
▁lessee	-10463
▁Looking	-10464
▁reverse	-10465
▁amending	-10466
▁exhibits	-10467
▁liquidation	-10468
di	-10469
anjan	-10470
▁Gita	-10471
▁tang	-10472
▁thin	-10473
▁ample	-10474
▁shirt	-10475
▁Action	-10476
▁horizon	-10477
▁surgery	-10478
▁adjacent	-10479
▁electrical	-10480
▁surrounded	-10481
▁Miscellaneous	-10482
ktop	-10483
asted	-10484
semin	-10485
▁Gree	-10486
▁fake	-10487
▁wing	-10488
uously	-10489
OT	-10490
ayam	-10491
ford	-10492
▁Swaraj	-10493
▁proves	-10494
▁Governance	-10495
▁Liquidator	-10496
LT	-10497
eas	-10498
igare	-10499
▁wake	-10500
laimed	-10501
▁Tilak	-10502
▁firmly	-10503
▁frivol	-10504
▁listen	-10505
▁stains	-10506
▁helping	-10507
▁probate	-10508
▁consumed	-10509
▁estimate	-10510
▁homicidal	-10511
▁disproportion	-10512
eem	-10513
▁Tq	-10514
cence	-10515
ushing	-10516
▁telling	-10517
▁verdict	-10518
▁Corporate	-10519
▁experiences	-10520
▁Distribution	-10521
▁discriminatory	-10522
oma	-10523
▁SAR	-10524
▁pow	-10525
itant	-10526
▁Bagh	-10527
▁Hall	-10528
▁Begum	-10529
▁flour	-10530
▁Resources	-10531
▁Unf	-10532
▁Kant	-10533
▁trace	-10534
▁Krishn	-10535
▁grants	-10536
▁invite	-10537
▁Mahendra	-10538
▁precious	-10539
▁subjective	-10540
▁dissolution	-10541
agra	-10542
illy	-10543
▁Major	-10544
▁rests	-10545
▁operators	-10546
▁manufacturers	-10547
▁LA	-10548
RICT	-10549
▁mel	-10550
▁vig	-10551
▁films	-10552
▁pestic	-10553
▁discloses	-10554
▁charitable	-10555
qf	-10556
ECH	-10557
NAME	-10558
imla	-10559
▁Did	-10560
▁RPC	-10561
anama	-10562
▁Hard	-10563
▁Kaly	-10564
▁Santosh	-10565
▁advances	-10566
▁licensee	-10567
▁departure	-10568
▁prescribes	-10569
ATH	-10570
rao	-10571
▁Akh	-10572
▁Rub	-10573
▁Bhut	-10574
olving	-10575
iversary	-10576
▁Lokayuk	-10577
▁renewed	-10578
▁Highways	-10579
▁computed	-10580
▁detected	-10581
▁grievous	-10582
▁boundaries	-10583
▁commencing	-10584
▁regularized	-10585
side	-10586
ulla	-10587
▁Bol	-10588
astri	-10589
▁Sank	-10590
▁dress	-10591
▁adjour	-10592
▁Marathi	-10593
▁sisters	-10594
▁produces	-10595
▁Federation	-10596
▁separation	-10597
▁Subordinate	-10598
▁affirmative	-10599
▁constituting	-10600
raon	-10601
▁cin	-10602
▁cra	-10603
▁forb	-10604
▁Grant	-10605
▁delete	-10606
▁pocket	-10607
▁shrine	-10608
▁summer	-10609
▁Parties	-10610
▁squarely	-10611
stig	-10612
▁bold	-10613
▁meal	-10614
▁peas	-10615
▁veil	-10616
▁Treat	-10617
selling	-10618
▁castes	-10619
▁preclud	-10620
▁slightly	-10621
▁purchasing	-10622
▁regulating	-10623
▁chargesheet	-10624
▁realisation	-10625
bre	-10626
ishi	-10627
▁Ran	-10628
▁plug	-10629
▁Dwark	-10630
▁owing	-10631
▁vulner	-10632
preciation	-10633
▁prevalent	-10634
utch	-10635
▁Gas	-10636
▁Jha	-10637
▁nose	-10638
▁pump	-10639
▁reim	-10640
▁stre	-10641
▁Clear	-10642
▁domin	-10643
▁Against	-10644
▁walking	-10645
lementary	-10646
▁adjusted	-10647
▁constable	-10648
▁miscarriage	-10649
▁Log	-10650
▁Nam	-10651
▁Ver	-10652
▁whip	-10653
istent	-10654
▁Refer	-10655
▁click	-10656
▁inhab	-10657
itarian	-10658
▁replace	-10659
▁DISTRICT	-10660
▁deducted	-10661
▁sympathy	-10662
▁suppression	-10663
▁beneficiaries	-10664
lin	-10665
gent	-10666
utosh	-10667
▁lacs	-10668
ruddin	-10669
▁commun	-10670
▁native	-10671
▁player	-10672
▁spouse	-10673
▁heavily	-10674
▁objected	-10675
▁Tahsildar	-10676
▁admitting	-10677
▁alternate	-10678
▁labourers	-10679
▁measurement	-10680
▁Environmental	-10681
pless	-10682
▁Gwal	-10683
▁Rang	-10684
▁Gujar	-10685
▁Bhopal	-10686
▁culpable	-10687
▁Competent	-10688
▁commodity	-10689
ino	-10690
▁Ke	-10691
rich	-10692
wood	-10693
eenth	-10694
ainant	-10695
▁Years	-10696
▁Region	-10697
▁closer	-10698
▁depose	-10699
▁belated	-10700
akrishnan	-10701
▁programs	-10702
▁quarters	-10703
▁laboratory	-10704
adhy	-10705
rove	-10706
▁Kat	-10707
▁pant	-10708
icians	-10709
ortion	-10710
▁embar	-10711
▁Church	-10712
▁homicide	-10713
▁hundreds	-10714
▁describes	-10715
▁Infrastructure	-10716
iki	-10717
▁ly	-10718
down	-10719
▁Sham	-10720
▁synt	-10721
▁Journ	-10722
▁defam	-10723
▁lifted	-10724
▁dynamic	-10725
▁railways	-10726
▁ministers	-10727
▁assaulting	-10728
▁indigenous	-10729
ecessor	-10730
▁eating	-10731
▁enquired	-10732
▁expanded	-10733
▁Ori	-10734
▁irr	-10735
▁vim	-10736
▁bore	-10737
▁thro	-10738
▁Mahan	-10739
▁matrix	-10740
▁Current	-10741
ums	-10742
▁Je	-10743
isan	-10744
ohar	-10745
▁Pract	-10746
▁Arabic	-10747
▁Basava	-10748
▁ideals	-10749
▁Muhammad	-10750
▁maternal	-10751
compliance	-10752
▁hospitals	-10753
▁complicated	-10754
▁configuration	-10755
uda	-10756
▁Ce	-10757
▁Ek	-10758
uram	-10759
▁Que	-10760
▁scan	-10761
▁imped	-10762
▁Recomm	-10763
▁debtor	-10764
▁oxygen	-10765
▁savings	-10766
▁actively	-10767
▁hectares	-10768
▁thereupon	-10769
▁Ca	-10770
▁theft	-10771
▁flowing	-10772
▁rapidly	-10773
▁adjudicate	-10774
▁restrained	-10775
▁demonstrated	-10776
olu	-10777
amar	-10778
ffee	-10779
▁PMLA	-10780
▁Sult	-10781
icides	-10782
▁Price	-10783
▁algor	-10784
▁maxim	-10785
versity	-10786
▁deploy	-10787
▁incomp	-10788
▁novels	-10789
▁Software	-10790
▁fardbeyan	-10791
aco	-10792
ibai	-10793
▁Old	-10794
▁Youn	-10795
▁boat	-10796
▁butt	-10797
essful	-10798
▁Lanka	-10799
▁aided	-10800
▁genus	-10801
▁library	-10802
▁Narendra	-10803
▁dividend	-10804
DI	-10805
oa	-10806
avati	-10807
▁draf	-10808
▁Saudi	-10809
▁coerc	-10810
▁shell	-10811
▁pregnant	-10812
▁secondly	-10813
▁convincing	-10814
▁perfection	-10815
▁preventive	-10816
▁GA	-10817
ador	-10818
▁IIT	-10819
▁Jai	-10820
itors	-10821
rogen	-10822
▁Diff	-10823
▁debts	-10824
▁plate	-10825
▁Satish	-10826
▁slowly	-10827
▁Deposit	-10828
▁goddess	-10829
▁corrected	-10830
▁disregard	-10831
▁Corporations	-10832
▁CM	-10833
oster	-10834
▁Dutt	-10835
▁fals	-10836
▁gang	-10837
▁sees	-10838
▁doors	-10839
▁exceeds	-10840
▁Projects	-10841
▁credited	-10842
▁Community	-10843
▁frivolous	-10844
nic	-10845
ste	-10846
wala	-10847
▁COMM	-10848
▁idol	-10849
▁Range	-10850
▁embod	-10851
emption	-10852
▁Center	-10853
▁Indica	-10854
▁carved	-10855
▁prestig	-10856
▁Buddhist	-10857
▁obstruct	-10858
▁Hindustan	-10859
▁copyright	-10860
▁safeguards	-10861
▁practically	-10862
RS	-10863
emat	-10864
▁Thu	-10865
▁Bish	-10866
▁intr	-10867
▁shed	-10868
atious	-10869
▁risks	-10870
▁decides	-10871
▁exposed	-10872
▁inspect	-10873
▁respects	-10874
▁Mahabharata	-10875
▁generations	-10876
▁predecessor	-10877
agon	-10878
▁Purch	-10879
▁Title	-10880
▁broke	-10881
▁deter	-10882
▁Boards	-10883
▁Telugu	-10884
▁bullet	-10885
▁detrim	-10886
▁models	-10887
▁Standards	-10888
▁discussing	-10889
▁emphasized	-10890
▁exhaustive	-10891
▁Instruments	-10892
▁revolutionary	-10893
ANG	-10894
▁Naya	-10895
ammation	-10896
▁earnest	-10897
▁mathemat	-10898
▁regulated	-10899
▁compelling	-10900
▁HL	-10901
kind	-10902
▁Analy	-10903
▁Obama	-10904
▁audience	-10905
▁therewith	-10906
▁acknowledge	-10907
cut	-10908
unda	-10909
▁Van	-10910
▁Fire	-10911
▁vest	-10912
▁Short	-10913
▁Agarwal	-10914
▁Provident	-10915
▁interface	-10916
▁stability	-10917
▁tremendous	-10918
bu	-10919
olic	-10920
▁fro	-10921
▁ine	-10922
aland	-10923
▁Indra	-10924
▁postpon	-10925
IAL	-10926
▁PP	-10927
ghar	-10928
▁Gop	-10929
ubhai	-10930
▁Save	-10931
rupted	-10932
▁Malay	-10933
▁erect	-10934
▁Declar	-10935
▁abused	-10936
▁cigare	-10937
ortunate	-10938
▁Centres	-10939
▁operator	-10940
▁BENGALURU	-10941
▁interpreting	-10942
▁Ess	-10943
amine	-10944
ighed	-10945
▁bund	-10946
▁spell	-10947
▁talks	-10948
▁endors	-10949
▁Manipur	-10950
▁Principles	-10951
▁neighbours	-10952
▁confidential	-10953
▁EM	-10954
opard	-10955
▁Arms	-10956
▁NSEL	-10957
▁limb	-10958
▁menu	-10959
▁merc	-10960
plicate	-10961
▁butter	-10962
▁eleven	-10963
▁modify	-10964
▁abscond	-10965
▁coverage	-10966
▁threshold	-10967
▁advertisements	-10968
erman	-10969
▁Init	-10970
▁Mess	-10971
venile	-10972
▁Baner	-10973
▁Bhart	-10974
▁appra	-10975
▁extingu	-10976
▁fiction	-10977
▁terminate	-10978
▁trustworthy	-10979
▁congratulate	-10980
yar	-10981
eren	-10982
ping	-10983
ulum	-10984
▁Gor	-10985
▁MOU	-10986
▁vib	-10987
asters	-10988
▁tooth	-10989
▁Brahma	-10990
▁Repeal	-10991
▁jewell	-10992
▁Clauses	-10993
▁sugarcane	-10994
▁affiliated	-10995
▁enunciated	-10996
▁interaction	-10997
▁unfortunate	-10998
▁collaboration	-10999
wati	-11000
▁Sov	-11001
arked	-11002
▁bulk	-11003
▁dedu	-11004
▁tent	-11005
▁recru	-11006
▁wings	-11007
▁Expert	-11008
▁Object	-11009
▁voting	-11010
▁addresses	-11011
▁attaining	-11012
▁Srivastava	-11013
▁concluding	-11014
▁everywhere	-11015
agn	-11016
iple	-11017
eeper	-11018
▁Indo	-11019
▁Citiz	-11020
▁photo	-11021
▁teleg	-11022
▁upset	-11023
endants	-11024
▁islands	-11025
▁explicit	-11026
▁fabricated	-11027
▁conservation	-11028
US	-11029
isha	-11030
shaw	-11031
▁cha	-11032
▁Aged	-11033
▁ensh	-11034
idency	-11035
manship	-11036
▁Gautam	-11037
▁Valley	-11038
▁button	-11039
▁farming	-11040
▁mentioning	-11041
▁nep	-11042
▁Sher	-11043
▁enlar	-11044
▁firms	-11045
▁mines	-11046
Section	-11047
attered	-11048
▁worshi	-11049
▁circuit	-11050
▁breaking	-11051
▁enormous	-11052
▁prohibit	-11053
▁reviewed	-11054
▁invocation	-11055
▁adjudicating	-11056
acts	-11057
▁Ult	-11058
▁ice	-11059
arers	-11060
eship	-11061
▁holid	-11062
▁Create	-11063
▁theatre	-11064
▁concrete	-11065
▁empowers	-11066
▁summoned	-11067
▁Following	-11068
▁Regulatory	-11069
▁confirming	-11070
▁permanently	-11071
▁establishments	-11072
VC	-11073
zy	-11074
▁Mut	-11075
▁ors	-11076
▁Garg	-11077
▁crack	-11078
elihood	-11079
▁empire	-11080
▁closing	-11081
▁Petroleum	-11082
▁highlight	-11083
kal	-11084
oga	-11085
abai	-11086
yard	-11087
▁Khas	-11088
▁miles	-11089
▁worry	-11090
▁Empire	-11091
▁Mukesh	-11092
▁rescue	-11093
▁dealers	-11094
▁supplies	-11095
▁organisms	-11096
▁healthcare	-11097
abi	-11098
nes	-11099
urai	-11100
being	-11101
▁Hans	-11102
▁Stamp	-11103
▁flows	-11104
▁gramm	-11105
▁nerve	-11106
▁Access	-11107
▁ticket	-11108
▁abandoned	-11109
▁introduce	-11110
▁surprising	-11111
▁regularisation	-11112
eches	-11113
izers	-11114
ogram	-11115
▁Poly	-11116
▁prox	-11117
▁acute	-11118
▁misle	-11119
▁Command	-11120
▁Minimum	-11121
▁challan	-11122
▁feeding	-11123
▁intense	-11124
▁mailing	-11125
▁darkness	-11126
▁omissions	-11127
▁yesterday	-11128
CS	-11129
PSC	-11130
▁bias	-11131
▁snow	-11132
ponent	-11133
▁Sagar	-11134
▁Partic	-11135
▁Undert	-11136
▁processed	-11137
▁formulation	-11138
▁undertakings	-11139
▁germ	-11140
▁gunt	-11141
▁Along	-11142
▁Truth	-11143
▁tells	-11144
▁differ	-11145
▁Gwalior	-11146
▁Regular	-11147
▁damaged	-11148
▁harmful	-11149
▁averment	-11150
▁minerals	-11151
▁opponent	-11152
▁panchnama	-11153
▁Nic	-11154
ushan	-11155
▁Manj	-11156
▁rose	-11157
▁lover	-11158
▁demarc	-11159
▁visits	-11160
atellite	-11161
▁chromos	-11162
▁devoted	-11163
▁helpful	-11164
▁Political	-11165
▁arbitrarily	-11166
▁Ga	-11167
▁Oh	-11168
alia	-11169
aryn	-11170
eena	-11171
wali	-11172
▁DAY	-11173
agues	-11174
▁Nigam	-11175
▁Stock	-11176
▁parity	-11177
▁illicit	-11178
▁shortage	-11179
▁likelihood	-11180
▁Gos	-11181
▁Yus	-11182
amper	-11183
▁Bans	-11184
▁Help	-11185
▁Pharm	-11186
▁tariff	-11187
▁Certain	-11188
▁Country	-11189
▁historic	-11190
▁mutually	-11191
▁instructed	-11192
veen	-11193
▁Enc	-11194
▁Bush	-11195
▁Camp	-11196
▁agenda	-11197
▁Majesty	-11198
▁extends	-11199
▁adjourned	-11200
▁enhancing	-11201
▁hereafter	-11202
stitutional	-11203
▁prevention	-11204
▁sufficiently	-11205
▁AW	-11206
▁Nirm	-11207
▁Star	-11208
▁pest	-11209
rowser	-11210
▁Soviet	-11211
▁valued	-11212
▁versus	-11213
▁Kailash	-11214
▁vendors	-11215
▁credible	-11216
▁helpless	-11217
▁exercises	-11218
▁Succession	-11219
ulter	-11220
▁pace	-11221
▁grams	-11222
▁tasks	-11223
▁Relief	-11224
▁graduate	-11225
▁province	-11226
▁derivative	-11227
HO	-11228
२०	-11229
thal	-11230
▁Inj	-11231
▁Lak	-11232
▁Lead	-11233
▁query	-11234
▁Coming	-11235
▁cavity	-11236
▁manual	-11237
▁tension	-11238
▁abnormal	-11239
▁Innovation	-11240
▁deputation	-11241
▁entrepreneurs	-11242
▁Md	-11243
rent	-11244
▁Hit	-11245
urated	-11246
▁Nanak	-11247
▁attach	-11248
▁Regarding	-11249
▁defective	-11250
▁promotions	-11251
▁misconceived	-11252
ahi	-11253
beh	-11254
bir	-11255
▁Ut	-11256
awar	-11257
▁SPE	-11258
liness	-11259
▁Cause	-11260
▁Sucharita	-11261
▁basically	-11262
▁inadequate	-11263
▁reassessment	-11264
wat	-11265
▁suo	-11266
phone	-11267
▁NDPS	-11268
▁tact	-11269
▁implies	-11270
▁premise	-11271
▁Resource	-11272
▁probable	-11273
▁Recommend	-11274
▁Referring	-11275
▁increases	-11276
▁occupants	-11277
▁preventing	-11278
▁restoration	-11279
▁LP	-11280
etan	-11281
odal	-11282
▁Bor	-11283
▁Sea	-11284
▁gla	-11285
vency	-11286
▁hors	-11287
▁Peeth	-11288
▁Track	-11289
▁magaz	-11290
▁dispar	-11291
▁supers	-11292
▁winter	-11293
▁musical	-11294
▁striking	-11295
▁medicines	-11296
▁contradictory	-11297
inc	-11298
▁Pa	-11299
quer	-11300
▁Jer	-11301
▁LPA	-11302
▁sed	-11303
gical	-11304
iated	-11305
▁Loan	-11306
▁scrib	-11307
▁traders	-11308
▁Document	-11309
▁exempted	-11310
▁unemploy	-11311
▁Otherwise	-11312
▁inspiration	-11313
▁Unfortunately	-11314
▁Ib	-11315
▁awa	-11316
oting	-11317
▁rash	-11318
▁scar	-11319
▁enshr	-11320
▁Terror	-11321
▁adduce	-11322
▁junior	-11323
▁Federal	-11324
▁Washing	-11325
▁cleared	-11326
▁prolong	-11327
▁restore	-11328
indranath	-11329
▁Personal	-11330
▁immunity	-11331
▁Choudhury	-11332
▁irrational	-11333
▁stipulates	-11334
▁constructive	-11335
QU	-11336
acle	-11337
ITION	-11338
▁Mart	-11339
▁drain	-11340
▁Amicus	-11341
▁condol	-11342
▁windows	-11343
▁Contempt	-11344
▁multiply	-11345
▁Aurangabad	-11346
▁confronted	-11347
tar	-11348
▁HT	-11349
▁Chal	-11350
▁Love	-11351
▁Wild	-11352
▁acre	-11353
▁Desai	-11354
▁Minor	-11355
▁Vikas	-11356
▁Young	-11357
ATIONAL	-11358
▁Jewish	-11359
▁bigger	-11360
▁timely	-11361
▁Whatever	-11362
▁substances	-11363
▁testimonies	-11364
▁Tom	-11365
▁Tuls	-11366
▁epic	-11367
alment	-11368
▁AICTE	-11369
▁Yusuf	-11370
▁favor	-11371
▁lingu	-11372
▁farmer	-11373
▁sticks	-11374
▁Witness	-11375
▁lending	-11376
▁behavior	-11377
▁colonial	-11378
▁recalled	-11379
▁subscrib	-11380
▁transmit	-11381
▁incapable	-11382
▁connecting	-11383
▁neighbourhood	-11384
▁EC	-11385
ammal	-11386
▁Cannot	-11387
▁locked	-11388
▁misuse	-11389
▁worthy	-11390
▁desires	-11391
▁organic	-11392
▁generate	-11393
▁promised	-11394
▁Defendants	-11395
VER	-11396
eta	-11397
has	-11398
▁OS	-11399
ayya	-11400
▁Bra	-11401
▁Get	-11402
▁ICT	-11403
▁RES	-11404
▁keeps	-11405
▁ruler	-11406
▁parcel	-11407
▁classical	-11408
▁addressing	-11409
▁entertaining	-11410
▁Ber	-11411
▁Yam	-11412
amboo	-11413
owing	-11414
▁Mines	-11415
▁Preet	-11416
▁laugh	-11417
▁Colony	-11418
▁invari	-11419
▁layout	-11420
▁Leprosy	-11421
▁Quality	-11422
▁readers	-11423
▁believes	-11424
▁Personnel	-11425
▁varieties	-11426
▁colleagues	-11427
▁consortium	-11428
▁Prohibition	-11429
▁formalities	-11430
ea	-11431
▁mud	-11432
▁Play	-11433
▁hide	-11434
▁mood	-11435
isible	-11436
▁Arjun	-11437
▁freely	-11438
▁Banking	-11439
▁Academic	-11440
▁sessions	-11441
▁shifting	-11442
▁everybody	-11443
▁premature	-11444
▁Negotiable	-11445
▁collateral	-11446
▁integration	-11447
Ins	-11448
oul	-11449
ulus	-11450
force	-11451
▁vacc	-11452
▁Light	-11453
▁Tribe	-11454
▁repairs	-11455
fficiency	-11456
▁Accountant	-11457
▁Ministries	-11458
apat	-11459
oult	-11460
▁DRT	-11461
▁Gaur	-11462
▁Narm	-11463
▁batter	-11464
▁blocks	-11465
▁batsman	-11466
▁composite	-11467
▁invitation	-11468
isa	-11469
▁HO	-11470
▁wil	-11471
▁desp	-11472
▁jung	-11473
▁modes	-11474
▁Paswan	-11475
▁insist	-11476
▁wooden	-11477
▁neglect	-11478
▁pertains	-11479
▁allocated	-11480
▁approaches	-11481
▁conveyance	-11482
noon	-11483
oved	-11484
▁rod	-11485
matic	-11486
▁Cost	-11487
▁icon	-11488
ulance	-11489
▁maybe	-11490
▁stars	-11491
▁spring	-11492
▁pillars	-11493
▁initiating	-11494
pent	-11495
▁Bhub	-11496
▁hyper	-11497
▁Taluka	-11498
▁underw	-11499
▁biggest	-11500
▁distant	-11501
▁Gujarati	-11502
▁guardian	-11503
▁publications	-11504
ney	-11505
▁je	-11506
cope	-11507
▁gri	-11508
adeep	-11509
▁Lake	-11510
▁glad	-11511
▁ther	-11512
▁yard	-11513
▁loyal	-11514
respass	-11515
▁Fourth	-11516
▁Rajeev	-11517
▁forgot	-11518
▁guntas	-11519
▁vacate	-11520
▁Payment	-11521
▁confers	-11522
▁presents	-11523
▁receives	-11524
▁perversity	-11525
EO	-11526
UG	-11527
araj	-11528
geon	-11529
▁Street	-11530
▁serves	-11531
▁unusual	-11532
▁incentives	-11533
▁prosecuted	-11534
▁transferring	-11535
hera	-11536
▁Lod	-11537
▁epis	-11538
▁bride	-11539
▁Netaji	-11540
▁Ranjan	-11541
▁Complex	-11542
▁Maharaj	-11543
▁Present	-11544
▁approve	-11545
▁outlook	-11546
▁intimate	-11547
▁protocol	-11548
▁exchanges	-11549
▁preserved	-11550
▁unnatural	-11551
▁disqualified	-11552
▁SD	-11553
▁Cri	-11554
nasty	-11555
▁Azad	-11556
▁Club	-11557
▁Long	-11558
▁exit	-11559
▁tant	-11560
▁disall	-11561
▁easier	-11562
▁dramatic	-11563
▁mentally	-11564
▁mentions	-11565
▁reversed	-11566
▁favourable	-11567
HAN	-11568
roid	-11569
▁Asst	-11570
▁Debts	-11571
▁Total	-11572
▁Lastly	-11573
▁Modern	-11574
▁Speech	-11575
▁depict	-11576
▁talked	-11577
▁united	-11578
▁hypothes	-11579
▁transmitted	-11580
▁miscellaneous	-11581
END	-11582
ocks	-11583
▁neut	-11584
▁Media	-11585
▁Privy	-11586
▁overw	-11587
▁Firstly	-11588
▁confine	-11589
▁profound	-11590
▁Washington	-11591
▁panchanama	-11592
▁communicate	-11593
▁supervisory	-11594
▁conventional	-11595
▁pronouncements	-11596
nut	-11597
AVAN	-11598
omed	-11599
umin	-11600
ymph	-11601
▁cous	-11602
▁rope	-11603
▁brill	-11604
▁worse	-11605
▁database	-11606
▁negligent	-11607
▁Prosecution	-11608
▁implications	-11609
▁Den	-11610
▁bio	-11611
utors	-11612
▁Click	-11613
▁begun	-11614
▁improb	-11615
▁uncond	-11616
▁genetic	-11617
▁producers	-11618
missibility	-11619
▁circulation	-11620
▁encouraging	-11621
zed	-11622
aras	-11623
▁exh	-11624
APTER	-11625
▁eman	-11626
▁Broad	-11627
▁Juris	-11628
▁Paras	-11629
▁bitter	-11630
▁defaul	-11631
▁unsucc	-11632
▁Perform	-11633
▁Proceed	-11634
▁nearest	-11635
▁Northern	-11636
▁Whenever	-11637
▁trustees	-11638
▁vexatious	-11639
▁insufficient	-11640
log	-11641
rous	-11642
▁Dass	-11643
▁Near	-11644
▁Take	-11645
valuation	-11646
▁requests	-11647
▁Chaudhary	-11648
▁canvassed	-11649
▁reproduce	-11650
▁cumulative	-11651
▁enactments	-11652
▁thoroughly	-11653
▁questioning	-11654
▁encroachment	-11655
▁improvements	-11656
TR	-11657
tha	-11658
ivals	-11659
▁Pack	-11660
▁Real	-11661
▁Rupees	-11662
▁exempt	-11663
▁switch	-11664
▁Japanese	-11665
▁reserves	-11666
▁specimen	-11667
▁Raghunath	-11668
▁whereupon	-11669
▁Declaration	-11670
▁introducing	-11671
--	-11672
▁LC	-11673
▁Nas	-11674
aksha	-11675
▁Line	-11676
▁font	-11677
iorari	-11678
issues	-11679
▁Appro	-11680
▁Samaj	-11681
▁blunt	-11682
▁sketch	-11683
▁cooking	-11684
▁nominee	-11685
▁vitamin	-11686
▁Surendra	-11687
▁Chartered	-11688
▁Guidelines	-11689
ek	-11690
si	-11691
eds	-11692
kes	-11693
ighth	-11694
tered	-11695
▁bene	-11696
essees	-11697
oining	-11698
▁fourt	-11699
▁exempl	-11700
▁traced	-11701
▁Russian	-11702
▁heading	-11703
▁concepts	-11704
▁reasoned	-11705
jeet	-11706
▁Bye	-11707
▁Miss	-11708
▁trek	-11709
▁skull	-11710
▁Reason	-11711
▁misbeh	-11712
▁Nagaland	-11713
▁Tripathi	-11714
▁contacts	-11715
▁opinions	-11716
▁willingness	-11717
▁declarations	-11718
kers	-11719
▁Shak	-11720
▁hire	-11721
▁stup	-11722
▁Thank	-11723
▁labor	-11724
▁plane	-11725
▁Course	-11726
▁sometime	-11727
▁locations	-11728
▁advancement	-11729
▁substitution	-11730
▁PL	-11731
econ	-11732
wami	-11733
▁Fif	-11734
▁Muz	-11735
iscal	-11736
point	-11737
udent	-11738
iniyam	-11739
▁Naresh	-11740
▁advise	-11741
▁thrust	-11742
▁hanging	-11743
▁presume	-11744
▁carriage	-11745
▁overwhel	-11746
▁participants	-11747
eper	-11748
rage	-11749
▁Bap	-11750
▁Call	-11751
▁Four	-11752
▁extr	-11753
▁impe	-11754
▁intu	-11755
enable	-11756
▁consec	-11757
▁fisher	-11758
▁CHAPTER	-11759
▁surrend	-11760
▁balanced	-11761
▁estoppel	-11762
▁malafide	-11763
▁increasingly	-11764
▁GN	-11765
xide	-11766
▁Fast	-11767
▁Purn	-11768
▁ward	-11769
icitor	-11770
▁Rajiv	-11771
▁Sugar	-11772
▁powder	-11773
▁tribes	-11774
▁Freedom	-11775
▁Hanuman	-11776
▁massive	-11777
▁weighed	-11778
▁Sciences	-11779
▁veracity	-11780
▁travelled	-11781
▁prosecutor	-11782
hoc	-11783
▁py	-11784
▁swe	-11785
inking	-11786
▁Clerk	-11787
▁Mahav	-11788
▁enlight	-11789
▁Admission	-11790
▁accessible	-11791
▁relatively	-11792
tr	-11793
▁Fa	-11794
▁Abs	-11795
▁adm	-11796
vable	-11797
▁Poon	-11798
▁shap	-11799
▁tack	-11800
utical	-11801
▁honor	-11802
viously	-11803
▁Nation	-11804
▁loaded	-11805
▁overse	-11806
▁cheating	-11807
▁mischief	-11808
▁incentive	-11809
▁responded	-11810
▁generating	-11811
▁attributable	-11812
ulam	-11813
rence	-11814
▁Dilip	-11815
▁treaty	-11816
iability	-11817
ographic	-11818
▁dissemin	-11819
▁Choudhary	-11820
▁obligatory	-11821
▁constituency	-11822
eri	-11823
▁EN	-11824
arai	-11825
▁COUR	-11826
▁VIII	-11827
▁jump	-11828
▁hered	-11829
▁fought	-11830
▁patron	-11831
▁attesting	-11832
▁radiation	-11833
▁condonation	-11834
▁Commissioners	-11835
anpur	-11836
peeth	-11837
▁Pram	-11838
▁Guard	-11839
▁Model	-11840
▁noble	-11841
▁intact	-11842
▁pretty	-11843
▁briefly	-11844
▁players	-11845
▁Mohammad	-11846
▁envisages	-11847
▁dedication	-11848
▁expressing	-11849
abu	-11850
awn	-11851
tas	-11852
▁GM	-11853
emia	-11854
▁Bod	-11855
viation	-11856
▁talent	-11857
▁simplic	-11858
▁GP	-11859
amba	-11860
▁Ras	-11861
▁Tat	-11862
▁tag	-11863
▁unh	-11864
ulled	-11865
▁Geet	-11866
▁lord	-11867
▁medi	-11868
▁palm	-11869
ridges	-11870
▁canal	-11871
▁larva	-11872
▁Laxman	-11873
▁absurd	-11874
▁demise	-11875
▁island	-11876
▁resemb	-11877
▁Pradhan	-11878
▁fashion	-11879
▁footing	-11880
▁dominant	-11881
▁operates	-11882
▁trespass	-11883
inh	-11884
▁BH	-11885
▁BO	-11886
▁DG	-11887
▁lis	-11888
▁Lahore	-11889
▁Result	-11890
▁Status	-11891
▁cooper	-11892
▁Agrawal	-11893
▁Islands	-11894
▁ensured	-11895
▁pursued	-11896
▁revival	-11897
▁urgency	-11898
▁attested	-11899
▁bonafide	-11900
▁literacy	-11901
▁Organisation	-11902
▁significantly	-11903
cha	-11904
onut	-11905
osure	-11906
▁Khand	-11907
▁Value	-11908
▁loved	-11909
▁sheep	-11910
▁charas	-11911
▁anxious	-11912
▁focused	-11913
▁skilled	-11914
▁bacteria	-11915
▁equation	-11916
▁frequent	-11917
▁tourists	-11918
▁discontin	-11919
▁jewellery	-11920
▁unilateral	-11921
iac	-11922
iba	-11923
▁AL	-11924
▁RA	-11925
bind	-11926
ingh	-11927
thod	-11928
▁voc	-11929
hened	-11930
▁Laxmi	-11931
▁inequ	-11932
▁Forces	-11933
sections	-11934
▁Express	-11935
▁exagger	-11936
aceutical	-11937
▁borrowed	-11938
▁crossing	-11939
▁invoices	-11940
▁measured	-11941
▁patterns	-11942
▁Himalayas	-11943
▁Pollution	-11944
▁litigants	-11945
▁collectively	-11946
▁BI	-11947
arsa	-11948
▁ITS	-11949
▁XII	-11950
▁ease	-11951
▁gazet	-11952
▁Mangal	-11953
▁Topics	-11954
▁mankind	-11955
▁signing	-11956
▁tissues	-11957
▁counting	-11958
▁Extension	-11959
▁broadcast	-11960
▁Honourable	-11961
▁Territories	-11962
▁intervening	-11963
▁RC	-11964
▁odd	-11965
▁unm	-11966
▁tends	-11967
iterate	-11968
▁define	-11969
▁invent	-11970
▁chamber	-11971
▁promoter	-11972
▁solitary	-11973
▁Meanwhile	-11974
▁attractive	-11975
▁describing	-11976
▁successive	-11977
▁identifying	-11978
▁realization	-11979
rab	-11980
▁kms	-11981
▁axis	-11982
▁brut	-11983
▁luck	-11984
▁Pawan	-11985
▁Royal	-11986
▁mobil	-11987
▁threw	-11988
▁topic	-11989
iencies	-11990
ulously	-11991
▁condem	-11992
▁sounds	-11993
▁highway	-11994
▁tainted	-11995
▁equipments	-11996
EX	-11997
serv	-11998
▁Cle	-11999
enary	-12000
▁Soon	-12001
▁cure	-12002
▁Varan	-12003
▁adults	-12004
▁deaths	-12005
▁Seventh	-12006
▁Adhiniyam	-12007
▁imparting	-12008
▁quantities	-12009
▁aspirations	-12010
▁disabilities	-12011
▁Kas	-12012
lance	-12013
outed	-12014
▁tons	-12015
▁insol	-12016
▁hazard	-12017
▁heaven	-12018
▁praise	-12019
▁comprises	-12020
▁categorical	-12021
▁practitioner	-12022
▁Py	-12023
anty	-12024
▁jur	-12025
hesis	-12026
▁feas	-12027
▁inel	-12028
▁keys	-12029
▁pond	-12030
▁Vedas	-12031
▁texts	-12032
▁Various	-12033
▁nullity	-12034
▁abstract	-12035
▁producer	-12036
▁explaining	-12037
▁FT	-12038
arus	-12039
▁Khar	-12040
▁calm	-12041
▁inex	-12042
▁puts	-12043
▁Maint	-12044
▁taste	-12045
▁wounds	-12046
▁Jyotish	-12047
▁Governing	-12048
▁complying	-12049
▁publicity	-12050
fl	-12051
BER	-12052
oty	-12053
aming	-12054
▁anger	-12055
▁Santro	-12056
▁detenu	-12057
▁superv	-12058
inations	-12059
▁unequiv	-12060
▁associates	-12061
▁Establishment	-12062
ky	-12063
IGH	-12064
osa	-12065
andom	-12066
▁HLEC	-12067
bhanga	-12068
matter	-12069
opping	-12070
▁Exhib	-12071
▁liver	-12072
▁Motion	-12073
▁buying	-12074
▁explos	-12075
▁faster	-12076
▁gentle	-12077
▁kidney	-12078
▁wholes	-12079
actorily	-12080
▁discern	-12081
▁inherit	-12082
▁licences	-12083
▁manpower	-12084
▁intimated	-12085
▁privileges	-12086
▁certification	-12087
kim	-12088
hati	-12089
▁mole	-12090
▁Enfor	-12091
▁blame	-12092
▁hears	-12093
▁penis	-12094
▁campus	-12095
▁stable	-12096
▁bottles	-12097
▁sincere	-12098
▁discount	-12099
▁impressed	-12100
▁programming	-12101
▁distinguishable	-12102
llah	-12103
▁Inv	-12104
▁Yoj	-12105
▁rot	-12106
▁Trad	-12107
▁degr	-12108
▁monu	-12109
▁slip	-12110
▁sper	-12111
▁wash	-12112
▁David	-12113
▁Param	-12114
▁embra	-12115
▁saint	-12116
▁SPEECH	-12117
▁Shimla	-12118
▁Bilaspur	-12119
▁receiver	-12120
▁meaningful	-12121
▁sentencing	-12122
▁Chairperson	-12123
▁Presidential	-12124
utra	-12125
▁Fee	-12126
▁XXX	-12127
apuram	-12128
itudes	-12129
ivable	-12130
▁Grand	-12131
▁intra	-12132
▁prints	-12133
▁African	-12134
▁afternoon	-12135
▁magistrate	-12136
▁phenomenon	-12137
▁psychological	-12138
▁ER	-12139
▁REP	-12140
▁Suk	-12141
▁Cutt	-12142
▁True	-12143
▁jack	-12144
▁Mitra	-12145
▁Zilla	-12146
▁shout	-12147
▁occupy	-12148
▁inconven	-12149
▁mistakes	-12150
▁speeches	-12151
▁detection	-12152
▁expedient	-12153
▁accusation	-12154
▁disclosing	-12155
adar	-12156
vind	-12157
▁tap	-12158
▁cows	-12159
▁lift	-12160
▁untr	-12161
reight	-12162
▁Jagat	-12163
▁enters	-12164
▁raises	-12165
▁Edition	-12166
▁touching	-12167
▁philosoph	-12168
▁repetition	-12169
▁consolidated	-12170
▁constructions	-12171
ibh	-12172
▁Mc	-12173
cated	-12174
▁Arts	-12175
▁Conv	-12176
▁hunt	-12177
▁miser	-12178
▁Father	-12179
▁Within	-12180
▁daniel	-12181
▁Journal	-12182
▁threats	-12183
▁Ayurveda	-12184
▁implicate	-12185
▁partially	-12186
▁arbitrators	-12187
▁discrepancy	-12188
▁unauthorised	-12189
▁satisfactorily	-12190
uja	-12191
tain	-12192
▁Read	-12193
▁garb	-12194
▁monop	-12195
aneswar	-12196
▁Nagpur	-12197
▁artist	-12198
▁upload	-12199
▁crossed	-12200
▁touched	-12201
▁Consolid	-12202
▁Varanasi	-12203
▁fraction	-12204
▁pursuing	-12205
▁Conditions	-12206
▁perception	-12207
Is	-12208
▁DA	-12209
▁Niz	-12210
akshi	-12211
▁spin	-12212
▁guess	-12213
erating	-12214
uminous	-12215
▁fright	-12216
▁plural	-12217
▁federal	-12218
▁muscles	-12219
▁royalty	-12220
▁reposted	-12221
▁eliminate	-12222
▁enshrined	-12223
▁vulnerable	-12224
▁shareholder	-12225
▁unfortunately	-12226
In	-12227
rik	-12228
▁RTI	-12229
▁Abdu	-12230
▁heir	-12231
▁sine	-12232
ardens	-12233
▁bunch	-12234
▁tight	-12235
▁grains	-12236
▁clients	-12237
▁entitle	-12238
▁Badruddin	-12239
▁ancestral	-12240
▁prosecute	-12241
▁recognise	-12242
rian	-12243
▁Jat	-12244
▁SLP	-12245
▁bin	-12246
ibhai	-12247
▁stem	-12248
ighter	-12249
▁Drugs	-12250
▁disin	-12251
▁dwell	-12252
▁raped	-12253
istrates	-12254
▁publish	-12255
▁streams	-12256
▁overseas	-12257
▁conciliation	-12258
▁Hus	-12259
▁bes	-12260
▁pin	-12261
▁Auto	-12262
▁Taxes	-12263
▁kings	-12264
▁Deepak	-12265
▁Unable	-12266
▁consign	-12267
▁artistic	-12268
▁emission	-12269
▁somewhere	-12270
▁interrogation	-12271
IX	-12272
Sh	-12273
aki	-12274
asp	-12275
oys	-12276
opsy	-12277
ariya	-12278
inath	-12279
▁cess	-12280
▁accur	-12281
▁unamb	-12282
astipur	-12283
▁hearts	-12284
ensively	-12285
▁Cuttack	-12286
▁Lakshmi	-12287
▁Madurai	-12288
▁prudent	-12289
▁afforded	-12290
▁versions	-12291
▁NB	-12292
RISH	-12293
rell	-12294
▁Sany	-12295
▁Kabir	-12296
▁trials	-12297
▁Studies	-12298
▁abdomen	-12299
▁pretext	-12300
▁readily	-12301
▁breeding	-12302
▁dissolved	-12303
▁Complainant	-12304
▁connections	-12305
▁considerably	-12306
IFR	-12307
occ	-12308
ulg	-12309
▁IX	-12310
hesh	-12311
▁Kad	-12312
▁Say	-12313
▁Ghaz	-12314
▁indef	-12315
▁react	-12316
▁Ganges	-12317
▁Rather	-12318
▁bought	-12319
▁equals	-12320
▁viable	-12321
▁clarify	-12322
▁defense	-12323
▁forgery	-12324
▁withheld	-12325
▁Integrated	-12326
obi	-12327
▁Ju	-12328
oused	-12329
▁Said	-12330
▁Sangh	-12331
▁accel	-12332
▁broadly	-12333
▁matches	-12334
▁tenable	-12335
▁trustee	-12336
▁watching	-12337
▁chemicals	-12338
▁intervene	-12339
▁precisely	-12340
▁continuity	-12341
▁Departmental	-12342
▁associations	-12343
▁governmental	-12344
def	-12345
ugn	-12346
amal	-12347
omas	-12348
▁Saw	-12349
▁cup	-12350
▁FIRs	-12351
▁Veer	-12352
iences	-12353
mother	-12354
▁smell	-12355
▁Madhub	-12356
▁corpus	-12357
▁perfectly	-12358
▁strengthened	-12359
alp	-12360
avas	-12361
eced	-12362
▁Dip	-12363
▁flee	-12364
▁hier	-12365
▁lake	-12366
acular	-12367
▁nodes	-12368
▁divers	-12369
▁unanim	-12370
▁Purchase	-12371
▁conceded	-12372
▁elementary	-12373
▁Bis	-12374
▁Alam	-12375
▁Exts	-12376
▁Ansari	-12377
▁Curiae	-12378
▁checked	-12379
▁checking	-12380
▁networks	-12381
▁remitted	-12382
▁............	-12383
▁gratification	-12384
▁Ny	-12385
cons	-12386
acles	-12387
▁Insp	-12388
▁Mary	-12389
▁sums	-12390
oultry	-12391
▁beach	-12392
▁bamboo	-12393
▁sphere	-12394
▁Sanjeev	-12395
▁nervous	-12396
▁Bhagalpur	-12397
▁narration	-12398
▁sponsored	-12399
▁dictionary	-12400
▁#	-12401
KAR	-12402
ulu	-12403
oose	-12404
▁Sus	-12405
▁wet	-12406
▁Memo	-12407
▁Proc	-12408
▁bell	-12409
▁dreams	-12410
▁repeat	-12411
ographer	-12412
▁Benefit	-12413
▁Iranian	-12414
▁convened	-12415
▁persuaded	-12416
▁reception	-12417
▁constrained	-12418
abs	-12419
eda	-12420
rot	-12421
ENCE	-12422
▁Have	-12423
igible	-12424
▁Armed	-12425
▁optim	-12426
▁camera	-12427
▁intend	-12428
▁purity	-12429
▁transc	-12430
........	-12431
▁Acharya	-12432
▁qualify	-12433
▁Banerjee	-12434
▁amenities	-12435
▁biological	-12436
▁promotional	-12437
▁resolutions	-12438
GR	-12439
▁Has	-12440
▁Jab	-12441
▁Sai	-12442
▁Muns	-12443
▁ster	-12444
▁swit	-12445
▁Space	-12446
▁midst	-12447
▁Sports	-12448
▁pushed	-12449
▁Reports	-12450
▁apprent	-12451
▁funding	-12452
▁dialogue	-12453
▁isolated	-12454
▁weighing	-12455
▁Implement	-12456
▁Panchnama	-12457
▁surrendered	-12458
▁Gad	-12459
▁Vic	-12460
▁rup	-12461
▁laps	-12462
▁Scale	-12463
onymous	-12464
▁Versus	-12465
▁deeper	-12466
▁uphold	-12467
▁Monitor	-12468
▁denomin	-12469
▁explains	-12470
▁superint	-12471
▁Islamists	-12472
▁tribunals	-12473
▁upholding	-12474
das	-12475
▁OM	-12476
idas	-12477
▁Ken	-12478
▁mol	-12479
▁wip	-12480
odara	-12481
▁http	-12482
master	-12483
▁Indus	-12484
▁smart	-12485
▁Custom	-12486
▁weaker	-12487
▁dragged	-12488
▁protein	-12489
▁Judiciary	-12490
▁Provisions	-12491
▁terrorists	-12492
▁Hyd	-12493
▁spon	-12494
▁Dutta	-12495
▁sixth	-12496
▁trite	-12497
▁Rajput	-12498
▁Sikkim	-12499
▁Challen	-12500
▁William	-12501
▁mixture	-12502
▁persuade	-12503
▁associate	-12504
▁mediation	-12505
▁tolerance	-12506
▁precedents	-12507
▁modifications	-12508
itra	-12509
▁Tap	-12510
▁Malk	-12511
thodox	-12512
▁indiff	-12513
▁notion	-12514
▁packet	-12515
▁Details	-12516
▁browser	-12517
▁fitness	-12518
▁Obviously	-12519
▁algorithm	-12520
▁inherited	-12521
▁developmental	-12522
vir	-12523
iven	-12524
▁Tea	-12525
▁asp	-12526
asive	-12527
▁Requ	-12528
▁silk	-12529
▁Contin	-12530
▁Honble	-12531
▁Safety	-12532
▁advent	-12533
▁genius	-12534
▁conserv	-12535
▁winning	-12536
▁equipped	-12537
▁warranted	-12538
▁Profession	-12539
▁disbelieve	-12540
▁ascertaining	-12541
▁IF	-12542
▁aug	-12543
▁Auro	-12544
▁Kush	-12545
▁Team	-12546
▁wave	-12547
▁Rahul	-12548
▁burns	-12549
▁Should	-12550
▁streets	-12551
▁Allowance	-12552
▁accidents	-12553
▁disappear	-12554
▁inception	-12555
▁mortgaged	-12556
▁paramount	-12557
▁hypothesis	-12558
२१	-12559
▁hut	-12560
▁auto	-12561
▁Video	-12562
▁brave	-12563
▁envelop	-12564
▁hardware	-12565
▁adjoining	-12566
▁panchayat	-12567
▁threatening	-12568
hot	-12569
uka	-12570
▁FR	-12571
lesh	-12572
▁Kali	-12573
▁aunt	-12574
▁ware	-12575
▁Menon	-12576
▁movie	-12577
▁nucle	-12578
▁Windows	-12579
▁anteced	-12580
▁Specific	-12581
▁enlarged	-12582
▁implicit	-12583
▁festivals	-12584
▁alteration	-12585
ato	-12586
▁Bo	-12587
▁CB	-12588
ugal	-12589
oding	-12590
▁Down	-12591
▁Soni	-12592
abetes	-12593
▁Shant	-12594
▁minim	-12595
▁custod	-12596
▁bidding	-12597
▁Lokayukta	-12598
▁abolition	-12599
▁inspected	-12600
▁redressal	-12601
▁irreparable	-12602
▁utilization	-12603
▁Applications	-12604
allu	-12605
▁fer	-12606
andan	-12607
ussion	-12608
▁harsh	-12609
▁realm	-12610
▁snake	-12611
ipation	-12612
▁Adalat	-12613
▁Mamlat	-12614
▁Shakti	-12615
▁Spirit	-12616
▁Display	-12617
▁coconut	-12618
▁directs	-12619
▁intends	-12620
▁signals	-12621
▁endorsed	-12622
▁predomin	-12623
▁provider	-12624
▁assigning	-12625
▁diligence	-12626
▁gathering	-12627
▁prescribing	-12628
bat	-12629
▁TRAN	-12630
anchal	-12631
▁Griev	-12632
▁Patil	-12633
▁mango	-12634
▁rigid	-12635
▁vicar	-12636
▁laches	-12637
▁stamped	-12638
orticulture	-12639
▁Scientific	-12640
▁temporarily	-12641
▁confessional	-12642
▁eyewitnesses	-12643
▁unsuccessful	-12644
▁authorization	-12645
ARE	-12646
▁amaz	-12647
▁arts	-12648
ESSAGE	-12649
▁shoes	-12650
▁troops	-12651
▁decimal	-12652
▁singing	-12653
▁Movement	-12654
▁concentration	-12655
▁intentionally	-12656
win	-12657
iscl	-12658
▁Run	-12659
▁bug	-12660
▁gro	-12661
achar	-12662
▁Chin	-12663
▁Iron	-12664
▁Rana	-12665
▁Saha	-12666
▁Syed	-12667
▁nurt	-12668
▁excav	-12669
▁glory	-12670
▁nephew	-12671
▁authors	-12672
▁consensus	-12673
▁recruited	-12674
▁Enforcement	-12675
▁admissibility	-12676
AYS	-12677
HAL	-12678
upp	-12679
eers	-12680
othe	-12681
aiver	-12682
front	-12683
▁fond	-12684
▁obsc	-12685
owners	-12686
venues	-12687
anishad	-12688
▁compel	-12689
▁franch	-12690
▁humble	-12691
▁vagina	-12692
position	-12693
▁Chatter	-12694
▁keyboard	-12695
▁retention	-12696
▁accidental	-12697
▁retrospect	-12698
▁Bhubaneswar	-12699
▁counselling	-12700
▁disobedience	-12701
dam	-12702
nar	-12703
▁Tik	-12704
▁hol	-12705
▁Roll	-12706
▁pharm	-12707
verting	-12708
▁Serial	-12709
▁Library	-12710
▁decrees	-12711
▁deprive	-12712
▁rituals	-12713
▁Americans	-12714
▁compliment	-12715
pes	-12716
veli	-12717
▁SER	-12718
▁fan	-12719
ancer	-12720
scale	-12721
▁Brij	-12722
▁Jews	-12723
▁lump	-12724
acific	-12725
making	-12726
▁Mills	-12727
▁ports	-12728
▁Ashish	-12729
▁promptly	-12730
▁Kaz	-12731
▁sew	-12732
brane	-12733
▁Rate	-12734
▁earm	-12735
▁pion	-12736
▁spir	-12737
before	-12738
rolled	-12739
▁Manik	-12740
▁Nayak	-12741
▁Panel	-12742
▁storm	-12743
▁Muzaff	-12744
▁toward	-12745
graduate	-12746
▁desktop	-12747
▁enlarge	-12748
▁insight	-12749
▁promulg	-12750
▁somehow	-12751
▁forthcoming	-12752
▁accountability	-12753
▁reasonableness	-12754
soon	-12755
▁Squ	-12756
▁Unt	-12757
▁cyl	-12758
▁Prit	-12759
▁Prob	-12760
▁mant	-12761
bursed	-12762
▁Solar	-12763
▁MESSAGE	-12764
▁Darbhanga	-12765
▁Constituent	-12766
▁accompanying	-12767
▁possibilities	-12768
aba	-12769
eded	-12770
▁ton	-12771
otism	-12772
▁ages	-12773
▁elev	-12774
ducted	-12775
ranted	-12776
▁encry	-12777
▁india	-12778
▁troub	-12779
▁flying	-12780
▁therap	-12781
▁writes	-12782
▁Kannada	-12783
▁accepts	-12784
▁Surender	-12785
▁forehead	-12786
▁magnitude	-12787
▁presenting	-12788
▁Electronics	-12789
▁IO	-12790
irms	-12791
term	-12792
ulal	-12793
vara	-12794
▁ske	-12795
anker	-12796
▁Word	-12797
▁grab	-12798
▁pink	-12799
▁worm	-12800
aution	-12801
▁mercy	-12802
▁Manish	-12803
▁worksh	-12804
▁Default	-12805
▁printer	-12806
▁vesting	-12807
Inspector	-12808
▁Councils	-12809
▁Mamlatdar	-12810
▁autonomous	-12811
▁satisfying	-12812
▁extensively	-12813
ESI	-12814
agu	-12815
▁Ud	-12816
appu	-12817
ullah	-12818
▁hung	-12819
▁Blood	-12820
▁movable	-12821
▁segment	-12822
▁Protocol	-12823
▁devotees	-12824
▁fourteen	-12825
▁prospects	-12826
▁responses	-12827
▁Electrical	-12828
▁pesticides	-12829
▁purchasers	-12830
ipp	-12831
▁Ast	-12832
▁Bre	-12833
▁OBC	-12834
▁RAM	-12835
▁Duty	-12836
▁judged	-12837
▁terrib	-12838
▁corners	-12839
▁enemies	-12840
▁Needless	-12841
▁recruits	-12842
▁medically	-12843
▁nevertheless	-12844
nty	-12845
▁ADV	-12846
▁Mak	-12847
▁Pin	-12848
▁Pop	-12849
forma	-12850
▁Link	-12851
▁Patt	-12852
▁pays	-12853
ouring	-12854
▁chick	-12855
▁sport	-12856
▁Sindhi	-12857
▁affair	-12858
▁connot	-12859
economic	-12860
▁succumb	-12861
▁appealed	-12862
▁Christians	-12863
▁productive	-12864
▁justifiable	-12865
▁contemplates	-12866
OUN	-12867
Reg	-12868
hek	-12869
▁BS	-12870
▁Put	-12871
ietal	-12872
riers	-12873
▁Best	-12874
▁Bodh	-12875
▁Fair	-12876
▁Phase	-12877
▁Budget	-12878
▁Perman	-12879
▁humans	-12880
▁merger	-12881
▁chances	-12882
▁crystal	-12883
▁conceived	-12884
▁Contractor	-12885
▁experiments	-12886
nis	-12887
aidu	-12888
▁push	-12889
▁march	-12890
▁scrap	-12891
▁Advert	-12892
▁poured	-12893
▁ration	-12894
chnology	-12895
▁abetment	-12896
▁spreading	-12897
▁adequately	-12898
▁Job	-12899
Judge	-12900
angle	-12901
eless	-12902
ulses	-12903
venty	-12904
▁Priy	-12905
wealth	-12906
▁Mandi	-12907
▁deems	-12908
▁magic	-12909
▁Bhutan	-12910
▁Bihari	-12911
▁plains	-12912
▁Mohalla	-12913
▁opposing	-12914
▁peripher	-12915
▁invention	-12916
▁advertised	-12917
▁capability	-12918
▁demolition	-12919
▁Statistical	-12920
▁capabilities	-12921
▁mm	-12922
▁IPv	-12923
▁Sid	-12924
▁Tib	-12925
andal	-12926
isive	-12927
▁Waqf	-12928
▁slog	-12929
▁Immedi	-12930
▁encumb	-12931
▁reluct	-12932
▁drought	-12933
▁enquire	-12934
▁evaluate	-12935
▁forensic	-12936
▁exchanged	-12937
▁weightage	-12938
MI	-12939
UMAR	-12940
meas	-12941
▁Gok	-12942
aided	-12943
▁Very	-12944
▁Yash	-12945
▁Brief	-12946
▁sensit	-12947
▁Emperor	-12948
▁Trading	-12949
▁reaches	-12950
▁Exhibits	-12951
▁NATIONAL	-12952
▁dwelling	-12953
▁Administr	-12954
▁Himalayan	-12955
▁literally	-12956
▁conception	-12957
▁extraneous	-12958
▁variations	-12959
▁Rehabilitation	-12960
EA	-12961
asy	-12962
▁PET	-12963
▁pel	-12964
▁Bhim	-12965
▁Host	-12966
▁Kart	-12967
▁lone	-12968
▁peak	-12969
▁fides	-12970
▁moves	-12971
nership	-12972
▁Diplom	-12973
▁assent	-12974
▁cousin	-12975
▁kumari	-12976
▁planet	-12977
ffective	-12978
▁cultures	-12979
▁vertical	-12980
▁overlooked	-12981
▁deficiencies	-12982
▁Radhakrishnan	-12983
oja	-12984
well	-12985
▁isn	-12986
▁Item	-12987
▁coffee	-12988
▁expense	-12989
▁maturity	-12990
▁propriety	-12991
▁economically	-12992
sex	-12993
fect	-12994
▁Deo	-12995
▁Vaj	-12996
▁Anth	-12997
▁Fest	-12998
▁Type	-12999
essors	-13000
urable	-13001
▁posed	-13002
▁reign	-13003
▁rhyth	-13004
▁smoke	-13005
▁Kishan	-13006
▁Transl	-13007
▁couldn	-13008
▁affixed	-13009
▁uncertain	-13010
▁invariably	-13011
▁publishing	-13012
▁deprivation	-13013
▁administrator	-13014
rus	-13015
▁DP	-13016
▁mart	-13017
itants	-13018
▁Chowk	-13019
▁Lower	-13020
▁actor	-13021
▁trick	-13022
▁Museum	-13023
▁Venkat	-13024
▁hatred	-13025
▁verbal	-13026
aternity	-13027
▁adulter	-13028
▁indulged	-13029
▁restrain	-13030
▁forwarding	-13031
▁obstruction	-13032
▁procurement	-13033
▁prosecuting	-13034
ads	-13035
awa	-13036
quit	-13037
▁Cad	-13038
FAESI	-13039
stream	-13040
▁Queen	-13041
▁Siwan	-13042
▁destiny	-13043
▁Intellig	-13044
▁mandates	-13045
▁restruct	-13046
▁Tehsildar	-13047
▁statistics	-13048
▁imperialism	-13049
▁innovations	-13050
▁Jyotishpeeth	-13051
uta	-13052
▁JN	-13053
ucid	-13054
▁JUST	-13055
▁ears	-13056
▁fool	-13057
▁Chann	-13058
▁Sikhs	-13059
▁lacks	-13060
▁tries	-13061
▁jungle	-13062
▁nominal	-13063
witnesses	-13064
▁incidence	-13065
▁intensity	-13066
▁certiorari	-13067
▁illiterate	-13068
▁undergoing	-13069
GP	-13070
▁sue	-13071
▁Durg	-13072
▁Tool	-13073
▁maker	-13074
▁fiscal	-13075
▁stores	-13076
itorious	-13077
▁Earlier	-13078
▁Tenancy	-13079
stituting	-13080
▁Vehicles	-13081
▁airports	-13082
▁exposure	-13083
unications	-13084
▁expanding	-13085
▁factories	-13086
▁advantages	-13087
▁committees	-13088
▁grandfather	-13089
▁inadmissible	-13090
ikar	-13091
udra	-13092
▁CRL	-13093
▁Jog	-13094
▁Maz	-13095
arman	-13096
itime	-13097
▁misp	-13098
▁motu	-13099
ettled	-13100
▁Quran	-13101
▁mills	-13102
▁Hemant	-13103
▁Jaipur	-13104
▁curric	-13105
▁ninety	-13106
▁noting	-13107
▁volumes	-13108
▁Aurobind	-13109
▁Ravindra	-13110
▁availing	-13111
▁divisions	-13112
▁structural	-13113
▁Rabindranath	-13114
ela	-13115
heda	-13116
▁Raw	-13117
▁nit	-13118
▁sen	-13119
athan	-13120
pread	-13121
▁Vill	-13122
▁appr	-13123
liable	-13124
▁Arabia	-13125
▁Thomas	-13126
▁habits	-13127
▁vimana	-13128
▁Mineral	-13129
▁audited	-13130
▁ongoing	-13131
▁untouch	-13132
▁dimensions	-13133
▁horizontal	-13134
oni	-13135
fare	-13136
▁EVE	-13137
▁MLC	-13138
▁OFF	-13139
▁hem	-13140
▁tum	-13141
rator	-13142
▁Prav	-13143
▁fing	-13144
▁virus	-13145
▁Period	-13146
▁denies	-13147
▁excuse	-13148
▁waiver	-13149
▁tickets	-13150
▁Governors	-13151
▁Malayalam	-13152
▁enforcing	-13153
▁complement	-13154
▁conferring	-13155
lay	-13156
tery	-13157
▁Mic	-13158
▁lots	-13159
▁Arabs	-13160
▁Radha	-13161
▁Saran	-13162
▁dimin	-13163
▁detect	-13164
▁leased	-13165
▁beliefs	-13166
▁edition	-13167
▁recital	-13168
▁Partnership	-13169
obar	-13170
▁RFP	-13171
▁umb	-13172
▁Turn	-13173
▁caut	-13174
▁rans	-13175
ickshaw	-13176
orrhage	-13177
▁Charan	-13178
▁Volume	-13179
▁phones	-13180
▁Solicitor	-13181
▁Elementary	-13182
▁Ultimately	-13183
▁agricultur	-13184
▁hereinbefore	-13185
YA	-13186
ocy	-13187
▁DV	-13188
uded	-13189
▁Own	-13190
▁Syn	-13191
gging	-13192
ignty	-13193
illai	-13194
▁ling	-13195
▁ambig	-13196
▁Mechan	-13197
▁dictum	-13198
▁guiding	-13199
▁controls	-13200
▁formally	-13201
▁parental	-13202
▁Objection	-13203
▁frequency	-13204
▁inflation	-13205
▁Processing	-13206
▁Production	-13207
▁conditional	-13208
▁headquarters	-13209
▁legislations	-13210
▁characterized	-13211
▁deliberations	-13212
raf	-13213
▁ji	-13214
▁MFA	-13215
▁ail	-13216
apsed	-13217
valid	-13218
▁Ocean	-13219
▁abate	-13220
▁debit	-13221
▁irrit	-13222
▁payee	-13223
▁assumes	-13224
▁disable	-13225
▁expensive	-13226
▁Dwarkanath	-13227
▁cartridges	-13228
▁Nevertheless	-13229
oil	-13230
five	-13231
▁Bac	-13232
▁Qual	-13233
▁uter	-13234
akhand	-13235
▁Surya	-13236
▁Tahas	-13237
▁Vicer	-13238
▁tears	-13239
company	-13240
▁decent	-13241
▁execut	-13242
▁insult	-13243
▁Material	-13244
▁honoured	-13245
▁ordering	-13246
▁deviation	-13247
▁purchases	-13248
▁transfers	-13249
▁improbable	-13250
afi	-13251
olf	-13252
▁KI	-13253
cetic	-13254
plate	-13255
▁Step	-13256
▁loud	-13257
▁maid	-13258
▁Goyal	-13259
▁immig	-13260
▁meets	-13261
examine	-13262
▁Offices	-13263
▁founder	-13264
▁Aurobindo	-13265
▁certainty	-13266
▁wonderful	-13267
▁incorporation	-13268
ivas	-13269
▁Kon	-13270
▁SID	-13271
▁Left	-13272
▁dual	-13273
▁wrap	-13274
opathy	-13275
▁Paris	-13276
▁Amount	-13277
▁ladies	-13278
▁photoc	-13279
▁carrier	-13280
▁dynasty	-13281
ideration	-13282
▁Physical	-13283
▁earnings	-13284
▁interact	-13285
▁Submission	-13286
▁cultivated	-13287
▁preservation	-13288
cho	-13289
itates	-13290
▁Nanda	-13291
▁foods	-13292
▁encash	-13293
Division	-13294
esthetic	-13295
▁Auditor	-13296
▁Cricket	-13297
▁searching	-13298
▁untenable	-13299
▁fulfilling	-13300
▁concurrence	-13301
▁Tan	-13302
▁hrs	-13303
▁moh	-13304
isers	-13305
odium	-13306
▁Much	-13307
▁fare	-13308
apters	-13309
urring	-13310
▁crude	-13311
▁numer	-13312
▁resum	-13313
▁dinner	-13314
▁lesson	-13315
▁superf	-13316
ructuous	-13317
▁deficit	-13318
▁Abdullah	-13319
▁Permanent	-13320
▁realistic	-13321
▁suggesting	-13322
▁confiscation	-13323
▁professionals	-13324
▁gh	-13325
▁ul	-13326
angi	-13327
▁Ill	-13328
▁Jose	-13329
▁Kend	-13330
▁Kore	-13331
▁Samb	-13332
▁Greek	-13333
▁sworn	-13334
▁worst	-13335
▁Dharam	-13336
▁clouds	-13337
▁makers	-13338
▁rarely	-13339
▁JUSTICE	-13340
▁explore	-13341
▁implead	-13342
▁reciproc	-13343
▁Arunachal	-13344
▁businesses	-13345
ptic	-13346
▁SHRI	-13347
▁daco	-13348
▁Yojana	-13349
▁lapsed	-13350
▁sharma	-13351
▁lateral	-13352
▁SARFAESI	-13353
▁charging	-13354
▁disaster	-13355
▁abolished	-13356
▁compulsion	-13357
▁fulfilment	-13358
Us	-13359
▁haw	-13360
lings	-13361
osted	-13362
▁Parv	-13363
▁tiny	-13364
▁escal	-13365
▁vivid	-13366
▁Manohar	-13367
▁Schemes	-13368
▁Singles	-13369
▁relieved	-13370
▁confessed	-13371
▁Irrigation	-13372
▁reflection	-13373
▁tantamount	-13374
▁contractors	-13375
▁infructuous	-13376
ANT	-13377
osy	-13378
agan	-13379
▁sty	-13380
chron	-13381
lease	-13382
▁Gate	-13383
agraha	-13384
mities	-13385
▁Given	-13386
▁Naidu	-13387
▁Golden	-13388
▁handing	-13389
▁inordinate	-13390
▁precaution	-13391
▁depreciation	-13392
ago	-13393
alu	-13394
ede	-13395
adia	-13396
▁CAV	-13397
▁Dab	-13398
▁Hab	-13399
▁ICC	-13400
▁NOC	-13401
▁Pul	-13402
▁Poth	-13403
▁Rich	-13404
▁Summ	-13405
▁beet	-13406
▁Suraj	-13407
▁angry	-13408
▁knock	-13409
▁enrich	-13410
▁gender	-13411
▁museum	-13412
ologists	-13413
▁lifting	-13414
▁suffice	-13415
▁Medicine	-13416
▁foremost	-13417
▁Provincial	-13418
▁similarity	-13419
▁appropriately	-13420
ii	-13421
anki	-13422
osph	-13423
▁BAL	-13424
▁Jul	-13425
▁Nom	-13426
ankaj	-13427
claim	-13428
▁Plot	-13429
▁exon	-13430
verage	-13431
▁Audio	-13432
▁Draft	-13433
▁patta	-13434
▁behest	-13435
▁bounds	-13436
▁legend	-13437
▁Benches	-13438
▁Pacific	-13439
▁clarity	-13440
▁seconds	-13441
▁packages	-13442
▁swelling	-13443
▁secretary	-13444
▁ineligible	-13445
▁preferably	-13446
▁concessions	-13447
communication	-13448
२२	-13449
shot	-13450
▁Anj	-13451
▁Gob	-13452
mohan	-13453
▁Cant	-13454
▁Mans	-13455
▁disl	-13456
adhyay	-13457
ralaya	-13458
▁Activ	-13459
▁loses	-13460
itement	-13461
▁varies	-13462
▁Invalid	-13463
▁autopsy	-13464
▁validly	-13465
▁survival	-13466
▁consuming	-13467
▁enthusiasm	-13468
▁comparative	-13469
▁intelligent	-13470
▁specialized	-13471
ket	-13472
▁KV	-13473
▁Hir	-13474
askar	-13475
▁torn	-13476
iating	-13477
▁games	-13478
▁rites	-13479
▁toile	-13480
▁buffal	-13481
▁oldest	-13482
▁unexpl	-13483
▁vitiate	-13484
▁Normally	-13485
▁enjoying	-13486
▁petroleum	-13487
▁Concession	-13488
▁comparable	-13489
▁liberation	-13490
▁mechanisms	-13491
▁disbursement	-13492
deo	-13493
▁BCC	-13494
▁Lay	-13495
▁Nit	-13496
▁SIT	-13497
eterm	-13498
nings	-13499
▁Answ	-13500
▁NCTE	-13501
▁whis	-13502
usible	-13503
▁Floor	-13504
▁Naval	-13505
▁brick	-13506
▁memor	-13507
▁unfit	-13508
▁Vikram	-13509
▁merged	-13510
▁senses	-13511
▁Manufact	-13512
▁mandated	-13513
▁morality	-13514
▁sentiments	-13515
inar	-13516
olen	-13517
pati	-13518
vial	-13519
▁rab	-13520
▁Pray	-13521
▁cens	-13522
ENSION	-13523
▁Units	-13524
▁limbs	-13525
▁parad	-13526
▁vests	-13527
▁wives	-13528
▁zones	-13529
▁indemn	-13530
▁Pradeep	-13531
▁acquies	-13532
▁compare	-13533
▁Graduate	-13534
▁everyday	-13535
▁unreliable	-13536
▁sovereignty	-13537
▁corporations	-13538
▁SR	-13539
bury	-13540
wadi	-13541
▁Pud	-13542
▁WOR	-13543
▁dub	-13544
▁Doct	-13545
▁Nizam	-13546
▁mosque	-13547
▁videos	-13548
▁Bhushan	-13549
▁Viceroy	-13550
▁varying	-13551
▁variable	-13552
▁Upanishad	-13553
▁penalties	-13554
▁respected	-13555
▁shareholding	-13556
OME	-13557
face	-13558
phal	-13559
▁cot	-13560
▁Amin	-13561
▁Mich	-13562
▁lean	-13563
itably	-13564
▁Birth	-13565
▁admir	-13566
▁honey	-13567
▁semen	-13568
▁delays	-13569
▁postal	-13570
▁regret	-13571
▁termin	-13572
▁ranging	-13573
▁Southern	-13574
▁therefor	-13575
▁engineers	-13576
▁satellite	-13577
organisation	-13578
▁distinctive	-13579
▁individually	-13580
atri	-13581
babu	-13582
ikip	-13583
pose	-13584
ttes	-13585
ucks	-13586
▁Bhu	-13587
▁Kak	-13588
▁LPG	-13589
▁Sch	-13590
▁Suf	-13591
▁aqu	-13592
▁mac	-13593
adhar	-13594
▁Dash	-13595
▁gest	-13596
▁horn	-13597
▁Radio	-13598
▁abras	-13599
▁debar	-13600
▁remit	-13601
▁Commod	-13602
▁chronic	-13603
▁typical	-13604
renchment	-13605
▁Statutes	-13606
▁Securities	-13607
▁empowerment	-13608
▁Commonwealth	-13609
▁connectivity	-13610
▁philosophical	-13611
▁investigations	-13612
HER	-13613
lph	-13614
vil	-13615
▁xx	-13616
have	-13617
▁lal	-13618
▁bars	-13619
▁Yamuna	-13620
▁landed	-13621
▁random	-13622
▁Digital	-13623
▁Sandeep	-13624
▁passive	-13625
▁apposite	-13626
▁subtract	-13627
▁supplying	-13628
▁Fundamental	-13629
BH	-13630
IVE	-13631
ipt	-13632
▁ts	-13633
▁kin	-13634
▁tol	-13635
field	-13636
oucher	-13637
▁Koran	-13638
▁Treas	-13639
▁hopes	-13640
▁metic	-13641
▁Prince	-13642
▁dialog	-13643
▁redund	-13644
▁repugn	-13645
izations	-13646
▁Relying	-13647
▁Systems	-13648
▁hearsay	-13649
▁neutral	-13650
▁confused	-13651
▁instinct	-13652
▁membrane	-13653
▁rainfall	-13654
▁surgical	-13655
▁misplaced	-13656
▁Chatterjee	-13657
▁altercation	-13658
▁relationships	-13659
aga	-13660
usha	-13661
▁Imm	-13662
amind	-13663
▁Dham	-13664
▁Rout	-13665
▁Field	-13666
▁indis	-13667
▁opted	-13668
▁ranks	-13669
▁Altern	-13670
▁subtle	-13671
▁Greater	-13672
▁nursing	-13673
▁enacting	-13674
▁lifetime	-13675
▁socially	-13676
▁breathing	-13677
otechnology	-13678
▁Institutes	-13679
▁Samastipur	-13680
▁Performance	-13681
▁Intelligence	-13682
KA	-13683
OD	-13684
OW	-13685
▁SS	-13686
▁VS	-13687
▁ba	-13688
stan	-13689
urit	-13690
▁Pla	-13691
CTION	-13692
▁soph	-13693
▁Goods	-13694
▁Island	-13695
▁Khasra	-13696
▁oppose	-13697
▁petrol	-13698
▁cluster	-13699
▁planted	-13700
▁pursuit	-13701
▁unaided	-13702
▁Vadodara	-13703
▁analysed	-13704
▁exceeded	-13705
▁pressing	-13706
▁warrants	-13707
▁affording	-13708
▁evaluated	-13709
▁indicative	-13710
▁disposition	-13711
▁Palestinians	-13712
ATED	-13713
ifts	-13714
▁Jun	-13715
angal	-13716
▁Camb	-13717
▁Jord	-13718
▁gradu	-13719
▁Sudhir	-13720
▁surely	-13721
▁abusing	-13722
▁ascetic	-13723
▁conject	-13724
▁loading	-13725
▁parting	-13726
▁deterior	-13727
▁painting	-13728
▁romantic	-13729
▁stressed	-13730
▁defaulter	-13731
▁employers	-13732
▁Uttarakhand	-13733
▁consignment	-13734
do	-13735
ico	-13736
last	-13737
made	-13738
▁Ros	-13739
▁cane	-13740
itting	-13741
▁Kaush	-13742
▁coord	-13743
ikipedia	-13744
▁Records	-13745
▁Tourism	-13746
▁Turkish	-13747
▁fingers	-13748
▁firearm	-13749
▁heinous	-13750
▁lacking	-13751
warranted	-13752
▁distress	-13753
▁inaction	-13754
▁Generally	-13755
▁economies	-13756
▁Tahasildar	-13757
▁countrymen	-13758
▁anniversary	-13759
▁inaugurated	-13760
▁facilitating	-13761
rak	-13762
▁Bat	-13763
▁Loh	-13764
igate	-13765
iples	-13766
▁Kund	-13767
▁Rash	-13768
▁bere	-13769
▁demer	-13770
▁Sultan	-13771
▁reside	-13772
▁Andaman	-13773
▁Inspect	-13774
▁monsoon	-13775
▁collusion	-13776
▁Democratic	-13777
▁deductions	-13778
▁neighbouring	-13779
rec	-13780
▁HR	-13781
▁na	-13782
adha	-13783
▁Lol	-13784
▁tin	-13785
▁Chet	-13786
▁Viet	-13787
▁barg	-13788
▁Areas	-13789
▁slope	-13790
▁Pramod	-13791
▁rubber	-13792
▁throat	-13793
petition	-13794
▁Tripura	-13795
▁cordial	-13796
▁earthqu	-13797
▁Accident	-13798
▁autonomy	-13799
▁avoiding	-13800
▁investor	-13801
▁totality	-13802
▁Palestine	-13803
▁medicinal	-13804
▁Litigation	-13805
▁afterwards	-13806
▁coordinate	-13807
▁adjournment	-13808
▁supramental	-13809
kay	-13810
▁Ki	-13811
▁sa	-13812
iler	-13813
itha	-13814
▁DTA	-13815
ollen	-13816
RISHNA	-13817
▁capac	-13818
▁induced	-13819
▁vicinity	-13820
▁provinces	-13821
▁judicially	-13822
▁Appointment	-13823
▁candidature	-13824
▁constituent	-13825
▁reimbursement	-13826
NAT	-13827
bra	-13828
cop	-13829
▁ov	-13830
greg	-13831
arium	-13832
▁Fate	-13833
▁Kitt	-13834
▁MBBS	-13835
▁Meas	-13836
▁nice	-13837
ughter	-13838
▁Mahas	-13839
▁alike	-13840
▁Accept	-13841
▁Examin	-13842
▁splend	-13843
▁washed	-13844
▁License	-13845
▁inquired	-13846
▁orthodox	-13847
▁Mantralaya	-13848
▁circulated	-13849
▁systematic	-13850
WA	-13851
xx	-13852
bert	-13853
mani	-13854
rium	-13855
▁Cop	-13856
▁Pot	-13857
▁Sao	-13858
▁cock	-13859
▁noon	-13860
▁bliss	-13861
▁cheap	-13862
▁flesh	-13863
▁rupee	-13864
▁typed	-13865
▁Ashram	-13866
▁dollar	-13867
▁outward	-13868
▁baseless	-13869
▁isolation	-13870
▁perceived	-13871
▁reiterate	-13872
▁unwarranted	-13873
LD	-13874
▁CF	-13875
▁DC	-13876
ethe	-13877
gedy	-13878
ilee	-13879
▁unac	-13880
rishna	-13881
▁COURT	-13882
▁Sadar	-13883
▁abide	-13884
imental	-13885
▁Tehsil	-13886
▁Hamachi	-13887
▁inspite	-13888
▁diabetes	-13889
▁proposes	-13890
▁Statutory	-13891
▁Terrorism	-13892
▁forgotten	-13893
▁increment	-13894
▁delivering	-13895
▁misleading	-13896
▁Maintenance	-13897
▁disbelieved	-13898
▁unambiguous	-13899
▁inconvenience	-13900
▁specification	-13901
anag	-13902
deed	-13903
▁ANN	-13904
▁Kul	-13905
▁Nok	-13906
▁SEZ	-13907
▁bog	-13908
▁nic	-13909
enger	-13910
▁KIAD	-13911
▁Pipes	-13912
▁Saheb	-13913
▁urine	-13914
▁lights	-13915
▁Vietnam	-13916
▁doubted	-13917
▁handled	-13918
▁trivial	-13919
▁spending	-13920
▁stronger	-13921
▁disciples	-13922
▁enquiries	-13923
▁Recommendation	-13924
fast	-13925
ihad	-13926
▁ray	-13927
▁sli	-13928
owner	-13929
▁lend	-13930
akshmi	-13931
iscrim	-13932
ivance	-13933
▁cargo	-13934
▁trigg	-13935
▁catena	-13936
▁standi	-13937
▁summon	-13938
▁Manilal	-13939
▁Shastri	-13940
▁Workmen	-13941
▁battery	-13942
▁dollars	-13943
▁harness	-13944
▁condoned	-13945
▁numbered	-13946
▁visitors	-13947
▁appraisal	-13948
▁redemption	-13949
▁Communication	-13950
eek	-13951
▁--	-13952
▁IB	-13953
post	-13954
▁ampl	-13955
▁pale	-13956
▁ransom	-13957
▁Gandhar	-13958
▁Install	-13959
▁entrust	-13960
▁embodied	-13961
▁magnetic	-13962
▁procured	-13963
▁provident	-13964
▁reopening	-13965
▁worldwide	-13966
▁attributes	-13967
▁endeavours	-13968
▁fertilizers	-13969
▁Implementation	-13970
oqu	-13971
urg	-13972
▁ip	-13973
▁Kes	-13974
▁VRS	-13975
▁une	-13976
▁Bhup	-13977
▁Zila	-13978
▁nest	-13979
▁tone	-13980
ardhan	-13981
▁Ratan	-13982
▁calam	-13983
▁shame	-13984
▁ships	-13985
▁tribe	-13986
▁drawer	-13987
▁airport	-13988
▁Supervis	-13989
▁clearing	-13990
▁ambiguity	-13991
▁condemned	-13992
▁narrative	-13993
▁plausible	-13994
▁connivance	-13995
▁Immediately	-13996
▁Vivekananda	-13997
▁nationalism	-13998
▁consolidation	-13999
Gen	-14000
AKSH	-14001
conn	-14002
▁API	-14003
▁hub	-14004
▁Panj	-14005
▁jute	-14006
▁spur	-14007
▁Still	-14008
▁boost	-14009
▁Jordan	-14010
▁Pillai	-14011
▁stolen	-14012
▁tamper	-14013
▁Counter	-14014
▁commend	-14015
▁delegate	-14016
▁Evolution	-14017
▁earmarked	-14018
▁liquidator	-14019
▁Conciliation	-14020
AKA	-14021
▁ME	-14022
born	-14023
qbal	-14024
rics	-14025
▁Bik	-14026
▁ink	-14027
parte	-14028
▁Mass	-14029
▁Pond	-14030
▁Wing	-14031
▁grap	-14032
▁lien	-14033
▁stig	-14034
▁twin	-14035
ponder	-14036
ulator	-14037
▁Karan	-14038
▁clerk	-14039
▁dairy	-14040
▁inacc	-14041
▁unreg	-14042
▁Demand	-14043
▁TRANSP	-14044
▁remitt	-14045
▁colours	-14046
▁Applying	-14047
▁Buddhism	-14048
▁Memorial	-14049
▁attribute	-14050
▁dissatisf	-14051
▁finalized	-14052
▁intestine	-14053
▁minorities	-14054
▁Magistrates	-14055
▁unjustified	-14056
▁upgradation	-14057
▁complainants	-14058
mith	-14059
anium	-14060
araja	-14061
inees	-14062
▁Same	-14063
▁Send	-14064
▁erad	-14065
▁Ankit	-14066
▁Metro	-14067
▁overl	-14068
atience	-14069
iration	-14070
▁hunger	-14071
▁micros	-14072
▁Advance	-14073
▁Courses	-14074
▁emotions	-14075
▁Initially	-14076
▁erroneously	-14077
▁meritorious	-14078
▁practicable	-14079
▁expectations	-14080
ahal	-14081
ette	-14082
ilst	-14083
▁PIN	-14084
▁Cash	-14085
▁hole	-14086
▁knee	-14087
▁lungs	-14088
▁Brother	-14089
▁researc	-14090
▁ministry	-14091
▁spectrum	-14092
▁stranger	-14093
▁Represent	-14094
anqu	-14095
avur	-14096
tier	-14097
▁Fig	-14098
▁rib	-14099
heres	-14100
▁chol	-14101
▁harb	-14102
▁yards	-14103
▁embarr	-14104
▁marital	-14105
▁virtual	-14106
▁prolonged	-14107
▁Monitoring	-14108
▁Plaintiffs	-14109
▁multiplier	-14110
▁transformed	-14111
▁recommending	-14112
▁reconstruction	-14113
AA	-14114
cot	-14115
thi	-14116
etus	-14117
▁Lac	-14118
▁Lee	-14119
▁Rig	-14120
▁cros	-14121
▁nurs	-14122
▁Coast	-14123
▁Hamas	-14124
▁Dental	-14125
▁Jyotirm	-14126
▁Vehicle	-14127
▁arrayed	-14128
▁episode	-14129
▁drawings	-14130
▁interval	-14131
▁lectures	-14132
▁salaries	-14133
▁Exception	-14134
▁nutrition	-14135
▁particles	-14136
▁vegetable	-14137
▁indefinite	-14138
TPA	-14139
ATES	-14140
ante	-14141
brid	-14142
▁NRI	-14143
arted	-14144
atore	-14145
▁Maul	-14146
▁Meal	-14147
▁NEET	-14148
▁Sarp	-14149
▁gram	-14150
▁zeal	-14151
called	-14152
itious	-14153
▁notew	-14154
General	-14155
ductive	-14156
olation	-14157
▁immort	-14158
▁pledge	-14159
ructural	-14160
▁Europeans	-14161
▁expiration	-14162
▁Muzaffarpur	-14163
▁sanctioning	-14164
▁withdrawing	-14165
▁inconsistency	-14166
GS	-14167
cm	-14168
ITH	-14169
pse	-14170
▁Es	-14171
▁Kha	-14172
endum	-14173
orate	-14174
▁NIOS	-14175
▁RERA	-14176
▁agro	-14177
▁kids	-14178
venant	-14179
viable	-14180
▁torch	-14181
▁argues	-14182
▁counts	-14183
▁Claimant	-14184
▁Devendra	-14185
▁Revolution	-14186
▁attracting	-14187
▁noteworthy	-14188
▁conflicting	-14189
▁probabilities	-14190
GE	-14191
ARI	-14192
hee	-14193
hik	-14194
▁LL	-14195
▁ho	-14196
asti	-14197
iraj	-14198
▁Hum	-14199
▁lin	-14200
▁Budh	-14201
▁Chaw	-14202
▁Meer	-14203
▁drum	-14204
▁Crown	-14205
▁proxy	-14206
▁Mosque	-14207
▁deadly	-14208
▁explan	-14209
▁losing	-14210
▁routes	-14211
▁Asutosh	-14212
▁symbols	-14213
▁upgrade	-14214
▁Applicant	-14215
▁provincial	-14216
▁overwhelming	-14217
▁retrenchment	-14218
imet	-14219
olly	-14220
▁Sex	-14221
imity	-14222
▁BIFR	-14223
▁Kach	-14224
▁Lala	-14225
▁unch	-14226
▁Emerg	-14227
irement	-14228
▁Animal	-14229
▁lapses	-14230
▁pulled	-14231
imbatore	-14232
▁poultry	-14233
▁Festival	-14234
▁Products	-14235
▁confront	-14236
▁kilogram	-14237
▁intensive	-14238
▁depositing	-14239
▁prejudiced	-14240
▁replacement	-14241
zer	-14242
▁SEL	-14243
▁aus	-14244
human	-14245
itius	-14246
liers	-14247
▁Moti	-14248
▁Shat	-14249
▁dent	-14250
▁stro	-14251
isable	-14252
usalem	-14253
▁incul	-14254
▁Ground	-14255
▁coastal	-14256
▁indulge	-14257
▁smoking	-14258
▁moderate	-14259
▁monopoly	-14260
▁Affidavit	-14261
▁Jerusalem	-14262
▁TRANSPORT	-14263
▁elephants	-14264
▁sophistic	-14265
▁Coimbatore	-14266
▁cancelling	-14267
▁specifying	-14268
▁concurrently	-14269
JEE	-14270
lad	-14271
▁PA	-14272
otes	-14273
▁Dad	-14274
▁Miz	-14275
▁SIM	-14276
▁gal	-14277
astra	-14278
▁Keep	-14279
▁SERV	-14280
teenth	-14281
▁Frame	-14282
▁Almast	-14283
▁Lolita	-14284
▁roster	-14285
▁condone	-14286
▁renders	-14287
▁seventh	-14288
▁Madhubani	-14289
▁assistant	-14290
▁evidently	-14291
▁concealment	-14292
▁withholding	-14293
▁authoritative	-14294
EB	-14295
voc	-14296
ITED	-14297
anna	-14298
ansi	-14299
igha	-14300
▁GDP	-14301
▁ISO	-14302
least	-14303
▁FTIL	-14304
▁Film	-14305
▁Fold	-14306
▁Poet	-14307
▁embry	-14308
▁gifts	-14309
▁rider	-14310
▁buried	-14311
▁infant	-14312
▁lastly	-14313
▁uncert	-14314
umerable	-14315
▁tractor	-14316
affidavit	-14317
▁Jitendra	-14318
▁dealings	-14319
▁terrible	-14320
▁teachings	-14321
abar	-14322
ivedi	-14323
rasad	-14324
▁indu	-14325
▁Daily	-14326
▁digit	-14327
▁roles	-14328
▁smugg	-14329
▁Dharma	-14330
▁welcom	-14331
▁artists	-14332
▁parking	-14333
▁predict	-14334
unciation	-14335
▁PETITION	-14336
▁linkages	-14337
▁resigned	-14338
▁brilliant	-14339
▁selecting	-14340
▁cigarettes	-14341
▁impediment	-14342
▁succeeding	-14343
OND	-14344
▁ld	-14345
iman	-14346
udev	-14347
▁MUK	-14348
▁dtd	-14349
arial	-14350
oresh	-14351
▁Bhoj	-14352
▁Heav	-14353
▁pipe	-14354
▁tiger	-14355
▁waves	-14356
▁Arvind	-14357
▁Commun	-14358
▁Pankaj	-14359
▁aggrav	-14360
▁sevent	-14361
▁recruit	-14362
▁relinqu	-14363
▁refunded	-14364
▁shopping	-14365
▁succeeds	-14366
▁agitation	-14367
▁assembled	-14368
▁Jyotirmath	-14369
▁hereditary	-14370
▁propounded	-14371
Ps	-14372
sey	-14373
▁Vr	-14374
▁Beh	-14375
▁imb	-14376
▁mes	-14377
marks	-14378
▁SAYS	-14379
▁Subs	-14380
▁Intro	-14381
▁Large	-14382
▁Puran	-14383
▁glaci	-14384
▁naked	-14385
▁Bharti	-14386
▁Chaluk	-14387
▁Summit	-14388
▁Sunita	-14389
▁cinema	-14390
▁centers	-14391
▁targets	-14392
▁clothing	-14393
▁crystall	-14394
▁infected	-14395
▁prevents	-14396
▁rotation	-14397
▁Mauritius	-14398
▁estimates	-14399
▁furniture	-14400
▁hierarchy	-14401
▁Proceedings	-14402
▁provocation	-14403
▁unconditional	-14404
UF	-14405
EAL	-14406
INK	-14407
uis	-14408
anny	-14409
iser	-14410
▁HON	-14411
▁bif	-14412
▁vel	-14413
▁NGOs	-14414
erving	-14415
▁guest	-14416
▁mirror	-14417
▁lasting	-14418
▁vaginal	-14419
▁decrease	-14420
▁Religious	-14421
▁favourite	-14422
▁formulate	-14423
▁succumbed	-14424
▁pensionary	-14425
▁Cooperation	-14426
▁depositions	-14427
▁Ox	-14428
acie	-14429
apse	-14430
teen	-14431
eline	-14432
▁Bhan	-14433
appeal	-14434
▁Farid	-14435
▁Vinay	-14436
▁camel	-14437
▁ninet	-14438
ampered	-14439
▁ceases	-14440
▁horses	-14441
▁Between	-14442
▁Krishan	-14443
▁leveled	-14444
▁refuses	-14445
▁Backward	-14446
▁magazine	-14447
▁noticing	-14448
▁companion	-14449
▁linguistic	-14450
▁transplant	-14451
▁subsistence	-14452
▁Professional	-14453
auc	-14454
▁IM	-14455
ania	-14456
uate	-14457
▁PAR	-14458
▁tun	-14459
cotic	-14460
▁Mian	-14461
▁obey	-14462
▁Iqbal	-14463
▁Nokia	-14464
▁Youth	-14465
▁evolve	-14466
▁infect	-14467
▁critics	-14468
▁promiss	-14469
▁resides	-14470
▁restaur	-14471
▁washing	-14472
▁welcomed	-14473
▁Relations	-14474
▁Wikipedia	-14475
▁intending	-14476
▁scientist	-14477
▁nationalist	-14478
▁unexplained	-14479
▁intermediate	-14480
▁specifications	-14481
▁superintendence	-14482
IO	-14483
IAN	-14484
▁DPC	-14485
orily	-14486
▁Pant	-14487
▁grows	-14488
uscript	-14489
▁Garden	-14490
▁Kittur	-14491
▁Sunder	-14492
▁themes	-14493
▁tribute	-14494
▁Sarojini	-14495
▁Sarpanch	-14496
▁eighteen	-14497
▁Presently	-14498
▁ancillary	-14499
▁providers	-14500
▁depression	-14501
▁terminating	-14502
TO	-14503
can	-14504
iro	-14505
isk	-14506
olish	-14507
▁Cham	-14508
▁trip	-14509
asaheb	-14510
racted	-14511
▁pests	-14512
assador	-14513
▁Rohtas	-14514
▁rarest	-14515
▁cabinet	-14516
▁offline	-14517
▁Citizens	-14518
▁Universal	-14519
▁paintings	-14520
▁purportedly	-14521
▁scholarship	-14522
▁inflammation	-14523
▁insecticides	-14524
ASS	-14525
▁Ro	-14526
Tube	-14527
idhi	-14528
▁AID	-14529
▁Apr	-14530
▁Gal	-14531
▁Kum	-14532
▁ank	-14533
▁cab	-14534
▁cel	-14535
anish	-14536
aside	-14537
▁Bare	-14538
▁bonus	-14539
anjavur	-14540
▁freight	-14541
▁preponder	-14542
▁rectified	-14543
▁Literature	-14544
▁capacities	-14545
▁promissory	-14546
▁Consultation	-14547
▁substantiated	-14548
las	-14549
ball	-14550
list	-14551
oven	-14552
▁Dog	-14553
▁HIV	-14554
▁Prop	-14555
▁Quar	-14556
▁ours	-14557
ritsar	-14558
▁boxes	-14559
▁moist	-14560
▁Bhagav	-14561
▁Option	-14562
▁copper	-14563
▁disent	-14564
▁enjoin	-14565
piratory	-14566
▁brevity	-14567
▁equated	-14568
▁acquaint	-14569
▁aesthetic	-14570
▁ambulance	-14571
▁possesses	-14572
▁Assistance	-14573
▁reservations	-14574
vo	-14575
.--	-14576
Ind	-14577
▁SM	-14578
[...]
