<unk>	0
<s>	0
</s>	0
UuRrLl	0
DdAaTtEe	0
NnUuMm	0
▁the	-3.15176
▁	-3.20781
▁.	-3.3891
▁,	-3.46748
▁of	-3.48945
▁and	-3.95239
▁to	-3.9918
s	-4.02536
▁in	-4.16899
▁a	-4.31113
▁is	-4.63256
;	-4.84891
▁&	-4.89694
▁-	-4.99713
०	-5.01604
▁for	-5.03628
▁that	-5.09764
▁The	-5.12551
apos	-5.21817
▁be	-5.25902
▁or	-5.31248
ing	-5.34863
▁by	-5.41905
▁on	-5.43123
ed	-5.44027
▁)	-5.45314
▁(	-5.45699
▁as	-5.47007
▁was	-5.49909
▁with	-5.54268
▁s	-5.56814
▁are	-5.60418
▁it	-5.63061
१	-5.63083
.	-5.65453
▁not	-5.71911
▁this	-5.75199
▁which	-5.83907
▁I	-5.87507
▁from	-5.88475
▁have	-5.91019
▁has	-5.91485
▁his	-5.96289
▁an	-5.97491
▁at	-6.05421
▁:	-6.08667
d	-6.15282
▁A	-6.1646
▁he	-6.17976
▁India	-6.21777
▁you	-6.21854
२	-6.27361
ly	-6.28408
-	-6.29487
▁all	-6.34598
▁In	-6.37632
e	-6.38412
▁can	-6.44276
▁any	-6.44706
▁their	-6.45788
▁It	-6.4677
▁will	-6.47167
▁been	-6.4761
▁one	-6.48496
▁we	-6.51615
▁also	-6.54168
▁had	-6.56336
▁other	-6.572
y	-6.60806
▁/	-6.62528
▁its	-6.62565
▁were	-6.64522
▁but	-6.64908
▁”	-6.65313
er	-6.67488
▁such	-6.68493
▁under	-6.70494
▁“	-6.71615
▁He	-6.73437
▁;	-6.76614
▁who	-6.76861
▁may	-6.76994
▁they	-6.77845
▁our	-6.78506
al	-6.80198
▁time	-6.82687
▁This	-6.8603
n	-6.87125
▁there	-6.87697
a	-6.89534
३	-6.90916
▁?	-6.90967
▁so	-6.92356
▁up	-6.92496
▁out	-6.92652
▁no	-6.93815
▁more	-6.93841
▁would	-6.95804
▁them	-6.9711
▁%	-6.97223
▁people	-6.97281
▁should	-6.97408
▁only	-6.99998
▁if	-7.01055
▁about	-7.02557
▁S	-7.03618
▁into	-7.03724
▁Act	-7.06493
▁like	-7.09659
▁these	-7.0975
▁when	-7.1066
▁him	-7.11683
▁made	-7.12136
▁two	-7.12248
es	-7.12564
▁your	-7.1326
▁do	-7.1341
▁over	-7.15233
▁’	-7.15587
▁shall	-7.15694
▁some	-7.17571
▁Indian	-7.17575
▁new	-7.20107
t	-7.20448
▁than	-7.21347
▁Government	-7.24161
▁t	-7.24743
▁State	-7.25317
▁her	-7.26387
i	-7.27356
▁said	-7.28923
quot	-7.29208
▁being	-7.29789
th	-7.30513
▁But	-7.31192
▁after	-7.32186
▁life	-7.32562
▁Court	-7.32626
r	-7.32725
▁where	-7.34112
▁re	-7.34979
▁years	-7.37245
▁first	-7.37627
▁country	-7.38065
lt	-7.38279
▁through	-7.38738
▁We	-7.39082
▁very	-7.40773
▁my	-7.42656
▁what	-7.43505
▁year	-7.45032
▁work	-7.45243
▁world	-7.46144
▁President	-7.46365
▁could	-7.46661
▁must	-7.47638
४	-7.48134
▁And	-7.48173
▁well	-7.48178
▁person	-7.49447
▁case	-7.49546
m	-7.49748
▁P	-7.49866
gt	-7.50578
▁C	-7.52485
▁me	-7.5314
able	-7.53358
▁many	-7.53912
▁before	-7.54355
▁If	-7.55329
▁between	-7.55455
▁There	-7.55816
▁used	-7.56975
▁So	-7.58021
▁make	-7.59038
▁per	-7.6007
▁even	-7.62711
▁day	-7.6272
l	-7.62884
▁L	-7.63189
▁section	-7.63262
▁part	-7.63548
▁then	-7.64755
▁un	-7.65313
amp	-7.66024
▁way	-7.66061
in	-7.66855
▁same	-7.69549
st	-7.70116
▁law	-7.70716
▁They	-7.70732
▁system	-7.70896
▁right	-7.7133
▁sub	-7.71404
▁B	-7.71815
▁take	-7.72489
▁place	-7.72826
▁most	-7.72882
▁order	-7.74156
▁number	-7.74216
▁now	-7.74312
▁b	-7.75231
▁get	-7.75238
▁To	-7.76405
ic	-7.76407
ness	-7.77013
ion	-7.77156
▁because	-7.77328
▁An	-7.77804
or	-7.78842
▁use	-7.79056
▁against	-7.79239
▁during	-7.79275
▁us	-7.81058
▁long	-7.81266
▁those	-7.81315
▁development	-7.81811
▁As	-7.81842
▁power	-7.82068
▁own	-7.82348
ity	-7.82503
▁public	-7.82839
an	-7.83155
▁D	-7.84176
▁For	-7.85931
▁man	-7.86467
▁three	-7.8728
▁both	-7.87651
▁good	-7.88062
▁great	-7.88677
▁You	-7.89194
▁just	-7.89281
▁different	-7.89346
▁called	-7.89889
▁water	-7.90071
o	-7.90961
ers	-7.91025
▁need	-7.91649
▁here	-7.91823
५	-7.91859
▁see	-7.91912
▁period	-7.92302
▁set	-7.92953
▁etc	-7.93393
ation	-7.93488
▁No	-7.93491
▁did	-7.93766
▁given	-7.93993
▁go	-7.94139
h	-7.94319
▁she	-7.9442
▁National	-7.94984
▁M	-7.97155
▁‘	-7.98245
▁state	-7.98501
▁form	-7.98821
▁down	-7.98989
▁much	-7.99032
▁without	-7.99111
ar	-7.99574
▁each	-8.00125
▁means	-8.00196
▁information	-8.00282
▁important	-8.00312
▁every	-8.00384
▁know	-8.0138
▁does	-8.01464
k	-8.02865
▁come	-8.03127
▁how	-8.03991
en	-8.05213
▁present	-8.05602
▁within	-8.05903
▁body	-8.05964
▁government	-8.07127
▁process	-8.07133
us	-8.07169
ta	-8.07659
▁back	-8.09378
S	-8.09876
▁p	-8.10022
▁various	-8.10028
A	-8.10158
▁found	-8.10692
▁help	-8.10722
▁E	-8.10769
▁G	-8.11053
▁business	-8.11199
▁When	-8.11628
▁amount	-8.11858
▁m	-8.12853
▁taken	-8.13103
▁another	-8.13551
on	-8.13652
ment	-8.13681
▁am	-8.13795
▁human	-8.13821
▁name	-8.1393
▁education	-8.14135
▁R	-8.14227
c	-8.14393
▁K	-8.14613
▁!	-8.14901
▁known	-8.14967
▁income	-8.15755
▁Shri	-8.16133
▁while	-8.1622
▁court	-8.1658
na	-8.16589
▁On	-8.1675
▁last	-8.16819
▁Central	-8.17395
u	-8.17435
▁company	-8.17709
▁N	-8.18227
il	-8.18307
▁F	-8.18413
▁account	-8.18481
▁social	-8.18493
ur	-8.18855
le	-8.19003
ive	-8.19761
▁end	-8.19927
▁Commission	-8.20227
▁small	-8.20254
▁going	-8.20505
▁give	-8.20614
▁All	-8.20622
▁large	-8.20694
▁times	-8.20796
▁language	-8.20917
▁respect	-8.21059
▁cannot	-8.21496
▁i	-8.21582
▁High	-8.2211
section	-8.22951
▁Re	-8.23089
▁days	-8.23618
▁e	-8.23704
▁OF	-8.24112
▁These	-8.24118
▁high	-8.24202
▁non	-8.24334
▁want	-8.24357
man	-8.25453
▁{	-8.25934
▁view	-8.26077
▁children	-8.26107
am	-8.26206
▁}	-8.26638
▁—	-8.26925
▁service	-8.27139
▁support	-8.273
▁available	-8.2743
▁What	-8.28035
▁policy	-8.28643
▁...	-8.28673
▁T	-8.29199
▁economic	-8.29473
▁d	-8.295
▁came	-8.29601
▁become	-8.29603
b	-8.29721
as	-8.29837
re	-8.30225
▁due	-8.30564
▁countries	-8.30573
▁c	-8.30825
▁today	-8.30869
▁action	-8.31467
▁whole	-8.32043
▁including	-8.32296
▁matter	-8.32313
▁members	-8.32369
▁value	-8.3253
▁U	-8.32573
▁His	-8.32774
▁far	-8.32851
ti	-8.32906
▁say	-8.3296
▁mind	-8.33314
ri	-8.33529
▁interest	-8.3357
▁Rs	-8.33878
▁Section	-8.34076
▁too	-8.3415
▁national	-8.34278
p	-8.34282
▁political	-8.34282
▁death	-8.34421
▁At	-8.34509
ary	-8.34614
ate	-8.34813
ism	-8.35215
▁States	-8.35322
▁done	-8.35349
it	-8.35808
ra	-8.35872
▁Supreme	-8.36107
▁area	-8.36112
▁provisions	-8.36226
▁family	-8.36317
▁something	-8.36508
▁free	-8.36648
▁0	-8.36698
▁services	-8.3711
te	-8.37303
▁upon	-8.37502
▁find	-8.37543
▁co	-8.37845
▁provide	-8.37955
▁cases	-8.38201
ant	-8.38323
▁fact	-8.38446
ch	-8.38456
ma	-8.38696
▁look	-8.39036
▁society	-8.39264
▁women	-8.39373
▁V	-8.39385
▁common	-8.40256
▁think	-8.40354
▁date	-8.40426
▁land	-8.40444
x	-8.40497
६	-8.40646
▁change	-8.40792
▁based	-8.41079
id	-8.41164
▁level	-8.41276
li	-8.41396
▁certain	-8.41557
I	-8.4169
▁four	-8.41834
▁knowledge	-8.419
▁old	-8.42161
at	-8.42266
▁self	-8.42484
g	-8.42492
▁point	-8.42557
▁areas	-8.42945
▁Delhi	-8.43085
um	-8.43248
▁capital	-8.43408
▁nature	-8.43471
ya	-8.43493
▁She	-8.43721
▁British	-8.43876
▁provided	-8.44238
▁result	-8.44429
▁again	-8.44559
▁Bhavan	-8.44562
▁further	-8.44674
▁H	-8.44768
▁left	-8.44927
▁making	-8.45028
f	-8.4545
▁Singh	-8.45713
▁_	-8.45824
▁necessary	-8.46032
▁Constitution	-8.46172
▁put	-8.4626
▁That	-8.46401
▁control	-8.46418
▁few	-8.4642
▁less	-8.46424
▁words	-8.46546
▁held	-8.46581
▁away	-8.46693
▁One	-8.4679
▁question	-8.47019
▁v	-8.47042
▁subject	-8.47208
▁special	-8.47466
0	-8.48285
▁always	-8.48307
▁cent	-8.48376
ul	-8.48481
▁having	-8.48666
▁whether	-8.48926
▁still	-8.49046
▁following	-8.49083
▁full	-8.4942
▁five	-8.49476
▁best	-8.49582
▁sector	-8.50282
▁Hindi	-8.5053
▁group	-8.50558
▁application	-8.50807
▁required	-8.50982
▁foreign	-8.51049
▁child	-8.5114
▁food	-8.51668
▁growth	-8.51914
▁second	-8.52073
▁age	-8.52112
▁Committee	-8.5231
▁f	-8.52341
ia	-8.52479
▁health	-8.52834
▁God	-8.52859
▁English	-8.52868
▁little	-8.52895
ter	-8.52947
▁J	-8.5299
▁things	-8.53114
▁Rashtrapati	-8.53118
▁New	-8.53341
▁possible	-8.53343
▁among	-8.53426
▁Council	-8.53617
la	-8.53627
▁data	-8.53731
▁war	-8.53938
▁book	-8.53998
▁hand	-8.54071
▁above	-8.5432
▁love	-8.54363
▁purpose	-8.54455
▁himself	-8.54522
▁light	-8.55045
▁de	-8.55219
▁total	-8.55469
▁money	-8.55588
▁window	-8.55593
el	-8.55672
▁W	-8.55968
▁itself	-8.56048
is	-8.56096
▁After	-8.56126
ent	-8.56263
▁clause	-8.56579
to	-8.56735
▁Dr	-8.5676
less	-8.56937
▁house	-8.56969
▁off	-8.56982
▁local	-8.57139
▁De	-8.57313
▁Parliament	-8.57417
C	-8.58252
▁towards	-8.58362
▁main	-8.58497
▁position	-8.58581
▁industry	-8.58829
sh	-8.58894
▁O	-8.58903
▁several	-8.59306
▁act	-8.59552
▁&#91;	-8.60049
▁tax	-8.60098
B	-8.60297
▁home	-8.60315
▁individual	-8.60416
▁Congress	-8.60557
▁x	-8.6059
▁never	-8.60623
▁later	-8.61376
▁RRB	-8.61691
▁type	-8.61852
ish	-8.61876
▁around	-8.61879
▁Hindu	-8.62416
▁Mr	-8.62718
▁open	-8.62723
▁financial	-8.62725
▁production	-8.62747
▁list	-8.62859
▁Union	-8.62889
▁&#93;	-8.62945
▁Minister	-8.63433
▁office	-8.63443
▁course	-8.63655
▁referred	-8.63667
ry	-8.63711
RB	-8.63727
▁men	-8.64068
ies	-8.64239
▁took	-8.64388
▁already	-8.64858
▁g	-8.65045
▁therefore	-8.65054
▁either	-8.65103
▁persons	-8.6594
▁cost	-8.66008
▁rate	-8.66078
▁since	-8.6619
▁thought	-8.66362
▁market	-8.66425
▁young	-8.66518
▁head	-8.66723
ak	-8.66933
▁effect	-8.67179
ist	-8.67229
▁research	-8.67341
▁quality	-8.67352
▁term	-8.67537
▁higher	-8.67919
▁kind	-8.67921
▁general	-8.68262
▁side	-8.6845
▁however	-8.68497
▁equal	-8.68819
▁better	-8.69075
▁activities	-8.69147
▁problem	-8.69263
▁heart	-8.69288
▁file	-8.6945
▁let	-8.69585
▁property	-8.6971
ro	-8.69769
▁website	-8.6988
▁However	-8.70153
▁force	-8.70301
▁cause	-8.70482
▁international	-8.70678
▁Some	-8.70682
▁University	-8.71035
▁received	-8.71078
se	-8.71416
▁pay	-8.71505
▁seen	-8.71538
▁next	-8.71542
▁others	-8.71611
▁plant	-8.71857
▁THE	-8.71964
▁Muslim	-8.72225
▁nation	-8.72372
▁along	-8.72768
७	-8.73005
▁House	-8.73189
▁future	-8.73324
▁went	-8.73577
▁major	-8.73589
▁together	-8.7369
▁authority	-8.73805
▁reason	-8.74025
ol	-8.74312
▁role	-8.74338
▁basis	-8.74461
age	-8.74783
▁thing	-8.74857
ne	-8.74911
ge	-8.74922
▁working	-8.75015
▁got	-8.75082
est	-8.7511
▁sense	-8.75221
ni	-8.75308
▁history	-8.75348
▁institutions	-8.75383
▁computer	-8.75552
▁started	-8.75607
ir	-8.7562
▁Department	-8.75641
P	-8.75664
▁became	-8.75791
▁line	-8.75822
▁example	-8.7614
▁bring	-8.76213
▁Law	-8.76215
▁freedom	-8.76327
▁though	-8.76446
▁might	-8.76541
et	-8.76614
ling	-8.76666
▁short	-8.76672
▁play	-8.77483
00	-8.77701
ver	-8.77859
▁technology	-8.78014
▁party	-8.78057
▁With	-8.78163
▁problems	-8.78194
▁bank	-8.78265
▁related	-8.78293
▁word	-8.78326
ce	-8.78373
▁Pradesh	-8.78514
j	-8.78606
▁written	-8.7897
▁rights	-8.79052
▁particular	-8.79109
▁able	-8.7921
▁school	-8.79215
▁occasion	-8.79215
▁scheme	-8.79247
▁post	-8.79374
▁movement	-8.79433
▁often	-8.7956
pur	-8.7994
▁once	-8.80514
▁manner	-8.80671
▁don	-8.80746
▁goods	-8.81114
▁care	-8.8116
▁matters	-8.81355
▁months	-8.8149
▁field	-8.81724
▁trade	-8.81898
▁security	-8.82127
▁Chief	-8.8224
▁relating	-8.82273
▁considered	-8.82398
▁established	-8.82448
▁brought	-8.82474
▁Development	-8.82476
ous	-8.82709
lo	-8.82967
▁Bengal	-8.831
▁terms	-8.83541
▁conditions	-8.8363
▁paid	-8.84033
▁keep	-8.8423
▁true	-8.84449
▁member	-8.84467
▁General	-8.84506
▁progress	-8.8488
▁students	-8.8525
▁Bank	-8.853
▁key	-8.85455
▁credit	-8.85471
▁village	-8.85514
w	-8.85728
▁blood	-8.85799
▁air	-8.85864
▁Ministry	-8.85903
ful	-8.86018
im	-8.86232
▁report	-8.86418
▁live	-8.86528
ting	-8.86977
▁decision	-8.8701
▁needs	-8.8702
▁religious	-8.87086
▁Do	-8.87211
tic	-8.87309
▁legal	-8.8752
▁million	-8.8768
▁living	-8.87786
▁network	-8.88095
▁modern	-8.88618
▁rule	-8.88651
▁story	-8.88757
▁project	-8.88883
▁face	-8.8889
▁community	-8.8899
▁class	-8.89253
▁access	-8.89471
ad	-8.89495
▁issue	-8.89584
▁natural	-8.89771
▁Gandhi	-8.90082
▁Co	-8.9038
he	-8.90666
▁population	-8.90718
▁Now	-8.90904
▁justice	-8.90909
▁Mukherjee	-8.91042
▁return	-8.91086
▁material	-8.9111
tra	-8.91271
▁mother	-8.91277
▁complete	-8.913
▁call	-8.91438
▁concerned	-8.9154
▁energy	-8.91553
▁n	-8.91615
▁passed	-8.91798
▁specified	-8.92075
O	-8.92239
▁transfer	-8.92352
▁real	-8.92488
▁read	-8.92499
▁training	-8.92646
▁taking	-8.92881
up	-8.92918
▁condition	-8.92942
▁management	-8.93107
z	-8.93381
▁using	-8.93495
▁Justice	-8.9351
▁Sa	-8.93591
▁disease	-8.93661
▁father	-8.93772
▁address	-8.94094
▁purposes	-8.9417
▁visit	-8.94181
▁previous	-8.94334
▁Muslims	-8.94343
▁past	-8.94344
▁opens	-8.94449
▁outside	-8.94674
▁programme	-8.9468
▁show	-8.94772
▁United	-8.95145
▁religion	-8.95157
ial	-8.95256
▁early	-8.95279
hi	-8.9537
▁industrial	-8.95406
▁rules	-8.95422
ji	-8.95425
▁PRESIDENT	-8.95467
▁stage	-8.95586
▁My	-8.95763
▁External	-8.9581
sa	-8.95811
▁message	-8.95818
▁century	-8.95962
▁ground	-8.96114
ty	-8.96121
▁culture	-8.963
▁asked	-8.96494
▁carry	-8.96628
▁six	-8.96641
M	-8.96714
N	-8.96741
▁experience	-8.96775
▁greater	-8.9679
ha	-8.96811
▁yet	-8.96813
▁clear	-8.96868
▁Sabha	-8.96921
▁close	-8.96922
▁appeal	-8.97186
▁assessment	-8.97239
▁themselves	-8.97274
▁provides	-8.97276
H	-8.97305
ci	-8.9741
▁why	-8.97467
▁developed	-8.97516
▁parts	-8.97674
co	-8.97715
kar	-8.97837
▁building	-8.97855
▁include	-8.97911
▁strong	-8.98048
▁personal	-8.98065
▁Ka	-8.98256
ut	-8.98291
▁Board	-8.98324
G	-8.98388
E	-8.98555
▁pre	-8.98613
▁start	-8.9894
V	-8.99018
▁literature	-8.99224
▁allowed	-8.99254
▁science	-8.99281
▁district	-8.99452
▁really	-8.99603
ance	-8.99877
▁Even	-8.99996
ac	-9.00229
▁meet	-9.00307
D	-9.00363
▁parties	-9.00447
▁region	-9.00502
▁meeting	-9.00556
▁ensure	-9.00847
▁original	-9.01279
ated	-9.01321
▁con	-9.01447
▁ex	-9.01472
▁soon	-9.01503
▁police	-9.01945
▁evidence	-9.02026
▁states	-9.02045
▁Pranab	-9.02067
di	-9.02149
▁structure	-9.02226
▁Go	-9.02249
▁writing	-9.02279
▁direct	-9.02314
▁earlier	-9.02392
▁Courts	-9.0251
tax	-9.02582
▁gave	-9.02603
▁anything	-9.02613
▁assessee	-9.02762
▁books	-9.02872
▁Where	-9.02971
▁sent	-9.02993
▁create	-9.03109
▁dis	-9.03223
▁city	-9.0326
▁Bill	-9.03443
▁Our	-9.03502
▁spirit	-9.03576
▁capacity	-9.03591
▁half	-9.03664
▁Report	-9.03917
va	-9.0401
▁payment	-9.04017
R	-9.04088
▁actually	-9.04202
▁situation	-9.04535
▁ten	-9.04585
▁Bar	-9.04615
▁whose	-9.04764
▁powers	-9.04857
▁medical	-9.04867
▁regard	-9.04869
▁ll	-9.04885
ot	-9.049
▁study	-9.04935
▁resources	-9.05135
▁almost	-9.05179
▁Information	-9.05201
▁civil	-9.05216
▁character	-9.05239
▁ii	-9.05282
▁physical	-9.0535
men	-9.05456
▁duty	-9.05457
▁demand	-9.05498
▁function	-9.05618
▁Man	-9.05741
▁article	-9.05849
▁May	-9.05853
▁provision	-9.05855
▁Judge	-9.05882
▁How	-9.05926
▁share	-9.06029
▁loss	-9.06099
▁thus	-9.06136
▁poor	-9.06188
▁environment	-9.06473
▁private	-9.06807
▁notice	-9.06849
▁Please	-9.07106
▁single	-9.07162
▁Commissioner	-9.07176
de	-9.07269
▁decided	-9.07504
▁Al	-9.07565
▁believe	-9.07625
▁near	-9.07683
▁changes	-9.07777
▁Public	-9.07874
▁woman	-9.07877
▁hard	-9.0795
ian	-9.0814
▁letter	-9.08227
▁treatment	-9.08263
▁nothing	-9.08402
▁West	-9.08414
▁apply	-9.08539
ence	-9.08541
▁&#124;	-9.08611
be	-9.08816
▁entire	-9.08903
▁pro	-9.09015
▁Na	-9.09115
▁issued	-9.0913
▁least	-9.09134
ally	-9.09216
▁products	-9.09373
▁Republic	-9.09407
▁big	-9.09678
op	-9.09717
▁issues	-9.09788
▁price	-9.09791
▁wide	-9.09926
wa	-9.09979
▁ve	-9.10098
▁Institute	-9.1014
▁according	-9.10236
un	-9.1031
no	-9.10411
ran	-9.10456
▁difficult	-9.10473
ized	-9.10597
▁leave	-9.10598
▁efforts	-9.1077
▁consider	-9.10816
▁method	-9.11005
▁third	-9.11006
▁till	-9.11036
K	-9.11127
ised	-9.11133
▁operation	-9.11277
▁understand	-9.11306
▁continue	-9.11425
▁tree	-9.11613
ka	-9.11671
▁Whil	-9.11746
me	-9.12102
ine	-9.12143
८	-9.12216
▁created	-9.12379
▁approach	-9.12392
▁increase	-9.12436
▁top	-9.12557
▁enough	-9.12592
pi	-9.12619
▁April	-9.12682
▁rural	-9.12818
▁procedure	-9.12922
▁kept	-9.12998
▁path	-9.13034
▁especially	-9.13089
▁Let	-9.13121
▁investment	-9.13121
▁Thu	-9.13253
▁opportunity	-9.1327
vi	-9.13276
▁son	-9.13289
▁Sanskrit	-9.13316
▁Ra	-9.13603
▁Islam	-9.13623
▁wrote	-9.13726
३०	-9.1373
▁temple	-9.13847
▁told	-9.13886
▁proceedings	-9.13918
▁South	-9.13954
▁Officer	-9.14112
▁size	-9.14285
▁judicial	-9.14614
▁idea	-9.14654
▁behalf	-9.14689
▁published	-9.14794
▁run	-9.14834
▁doing	-9.14841
os	-9.14937
▁laws	-9.15082
▁ever	-9.15287
▁poet	-9.15321
▁institution	-9.1546
▁opinion	-9.15503
▁global	-9.15511
ship	-9.15537
▁specific	-9.15553
▁rest	-9.15553
ve	-9.15647
▁Su	-9.1574
har	-9.16013
▁art	-9.16112
▁effective	-9.16317
▁providing	-9.16408
▁practice	-9.16483
▁administration	-9.16502
▁simple	-9.16549
▁By	-9.1658
▁similar	-9.16691
▁jurisdiction	-9.16784
▁month	-9.16863
▁economy	-9.16878
ities	-9.17089
ted	-9.17268
▁carried	-9.1735
▁truth	-9.17398
ud	-9.17403
▁text	-9.17487
▁Article	-9.175
▁peace	-9.17583
mo	-9.17671
▁Such	-9.17683
▁current	-9.17746
con	-9.17778
▁Un	-9.17786
.0	-9.18097
▁criminal	-9.18205
▁forward	-9.1828
▁mental	-9.18374
ja	-9.18505
▁quite	-9.18513
▁generally	-9.18656
▁works	-9.18809
▁across	-9.18827
▁central	-9.18882
▁earth	-9.18998
▁relations	-9.19006
▁Ram	-9.19045
▁exchange	-9.19104
▁sea	-9.19125
▁benefit	-9.19241
▁rich	-9.19326
▁Lord	-9.19408
▁source	-9.19488
tu	-9.19539
ever	-9.19629
▁East	-9.19744
▁Your	-9.19762
▁makes	-9.19883
v	-9.19992
▁sure	-9.20091
▁prescribed	-9.20127
ts	-9.20138
▁March	-9.20202
▁night	-9.20309
go	-9.20396
▁lot	-9.20639
▁river	-9.20679
▁inter	-9.20716
▁appropriate	-9.20767
▁aim	-9.20812
▁Income	-9.20963
▁front	-9.20978
▁space	-9.21007
rs	-9.21097
▁basic	-9.21109
ization	-9.21214
▁success	-9.21223
ating	-9.21459
▁deal	-9.21504
▁feel	-9.21514
ise	-9.21586
▁relevant	-9.218
▁below	-9.21862
▁stated	-9.22039
▁write	-9.22062
lu	-9.2222
▁accept	-9.22317
▁During	-9.22348
▁International	-9.22445
▁charge	-9.22635
▁low	-9.22659
▁List	-9.22737
▁felt	-9.22817
▁car	-9.22882
▁giving	-9.22895
▁improve	-9.23119
▁importance	-9.23237
▁expression	-9.23342
▁facilities	-9.23496
F	-9.23503
▁Service	-9.23657
▁lower	-9.23695
▁plus	-9.2375
▁statement	-9.23866
▁marriage	-9.23971
▁oil	-9.24092
▁agreement	-9.24195
▁Israel	-9.24247
▁claim	-9.2441
da	-9.24488
▁forms	-9.245
▁turn	-9.24502
▁extend	-9.24532
ang	-9.24536
▁Ma	-9.24621
led	-9.24746
land	-9.24809
▁spiritual	-9.24818
▁commercial	-9.25068
▁search	-9.25172
▁trial	-9.25195
▁note	-9.25382
▁birth	-9.25475
AL	-9.25496
and	-9.25557
▁accused	-9.25573
the	-9.25718
▁plan	-9.25754
▁potential	-9.2584
▁meaning	-9.25889
tion	-9.26081
▁measures	-9.26285
▁strength	-9.2641
▁courts	-9.26481
▁US	-9.26521
▁Day	-9.26717
▁happy	-9.2677
▁wife	-9.26978
▁began	-9.27321
W	-9.27356
▁film	-9.2753
▁existing	-9.27589
▁St	-9.27746
▁develop	-9.27821
▁existence	-9.27876
ors	-9.27895
▁followed	-9.28073
▁record	-9.28106
▁responsible	-9.28183
▁author	-9.28189
ru	-9.28226
▁leaders	-9.28228
▁beginning	-9.28238
om	-9.28436
mb	-9.285
oc	-9.28536
▁usually	-9.28615
▁room	-9.28671
▁conduct	-9.2871
▁cultural	-9.28757
tro	-9.28848
▁becomes	-9.28926
min	-9.2909
▁offence	-9.29218
▁whom	-9.29264
▁hope	-9.29282
▁activity	-9.29303
ah	-9.29327
▁fire	-9.29562
▁unit	-9.29625
han	-9.2968
▁American	-9.29835
▁La	-9.29848
▁faith	-9.29867
▁until	-9.299
▁addition	-9.29922
▁move	-9.29949
▁lead	-9.29973
▁particularly	-9.30033
▁sum	-9.30054
▁wish	-9.30141
ton	-9.30164
ical	-9.30289
▁test	-9.30416
▁places	-9.3042
▁official	-9.3062
▁seek	-9.30712
▁relation	-9.30713
▁deep	-9.30717
▁behind	-9.30855
▁soul	-9.3108
▁programmes	-9.31118
▁Ba	-9.31139
▁increased	-9.31164
▁lost	-9.31312
▁try	-9.31383
Y	-9.31414
▁essential	-9.31429
▁except	-9.31518
▁hold	-9.31605
fi	-9.31619
▁popular	-9.3174
▁scale	-9.3191
▁Be	-9.32065
▁Code	-9.32125
▁Technology	-9.32163
▁groups	-9.32183
ll	-9.32196
▁final	-9.32644
▁hands	-9.32663
▁base	-9.32759
▁crore	-9.32883
▁comes	-9.32889
▁Pa	-9.32922
▁seven	-9.32966
▁Calcutta	-9.33045
▁nor	-9.33062
▁INDIA	-9.33204
▁Krishna	-9.33378
nd	-9.33416
▁rather	-9.3349
▁protection	-9.33643
▁employment	-9.3383
▁spread	-9.33904
▁allow	-9.34014
▁limited	-9.34058
▁add	-9.34146
▁circumstances	-9.34207
▁Pro	-9.34259
▁beyond	-9.3427
ium	-9.34326
▁gives	-9.34347
▁Me	-9.34434
▁Under	-9.34447
all	-9.34623
▁War	-9.34632
hu	-9.3465
ag	-9.34754
▁saw	-9.34882
out	-9.34918
▁alone	-9.3495
▁serious	-9.34985
▁Or	-9.35027
▁Pakistan	-9.35042
▁reference	-9.35077
▁continued	-9.351
▁fund	-9.35107
isation	-9.35136
▁says	-9.3518
▁reach	-9.3519
▁eyes	-9.35269
ab	-9.35275
▁born	-9.35293
▁fast	-9.35336
▁Open	-9.35361
cy	-9.35445
▁infrastructure	-9.35475
▁talk	-9.3568
▁industries	-9.35681
▁lives	-9.3571
▁built	-9.35762
▁poetry	-9.35817
▁World	-9.35852
mi	-9.35995
ba	-9.36169
▁accepted	-9.36177
▁learning	-9.36224
chi	-9.36252
▁appointed	-9.36406
▁tell	-9.36499
▁Then	-9.36516
ER	-9.36646
▁job	-9.36791
▁officer	-9.36815
▁direction	-9.36854
▁Prime	-9.3694
▁Sri	-9.36949
L	-9.3702
▁imp	-9.37046
▁setting	-9.37093
▁responsibility	-9.37228
▁round	-9.37287
▁ideas	-9.3741
▁Lok	-9.37411
ga	-9.37415
ib	-9.37523
▁projects	-9.37823
▁loan	-9.37876
▁influence	-9.37948
▁Governor	-9.3796
▁exercise	-9.38177
▁From	-9.38222
▁coming	-9.3823
▁o	-9.38287
▁check	-9.38297
▁getting	-9.38405
si	-9.38434
▁normal	-9.38453
▁proposed	-9.38671
▁immediately	-9.38767
▁hundred	-9.38807
▁assistance	-9.38862
▁contact	-9.38868
▁protect	-9.38938
ig	-9.38956
ke	-9.38979
▁values	-9.39177
▁labour	-9.3923
▁prevent	-9.39255
▁anti	-9.39263
▁produce	-9.39353
▁observed	-9.39452
▁device	-9.39465
▁Va	-9.39635
▁citizens	-9.39701
▁Schedule	-9.39741
▁object	-9.39856
▁consideration	-9.40002
▁Centre	-9.40009
▁step	-9.40115
▁Many	-9.40185
▁met	-9.40464
▁details	-9.4047
pa	-9.40544
▁banks	-9.40627
▁North	-9.40657
९	-9.40691
▁mentioned	-9.40755
▁Kashmir	-9.40812
▁wrong	-9.40888
▁bit	-9.40946
▁separate	-9.41073
ill	-9.41133
ca	-9.41201
▁Con	-9.41256
▁wanted	-9.41302
▁agricultural	-9.41472
▁status	-9.41533
▁sound	-9.41594
▁proper	-9.41614
▁ancient	-9.41678
▁America	-9.41788
▁famous	-9.41957
▁lakh	-9.41967
▁formed	-9.41979
▁includes	-9.42018
▁paper	-9.42029
▁violence	-9.421
▁judge	-9.42186
▁king	-9.4224
▁January	-9.42258
▁fine	-9.42307
▁mode	-9.42558
▁officers	-9.42561
ow	-9.42577
▁goes	-9.42719
▁functions	-9.42727
▁plants	-9.43029
ana	-9.43126
▁receive	-9.43189
▁boy	-9.43294
▁Ch	-9.433
▁speech	-9.43397
▁Bombay	-9.43418
▁prepared	-9.43445
▁page	-9.43482
em	-9.43499
▁Chairman	-9.43545
▁firm	-9.43642
T	-9.43643
▁media	-9.43712
▁Education	-9.43802
▁product	-9.43806
▁cell	-9.43815
ize	-9.43876
▁eight	-9.43876
▁takes	-9.43894
▁Ex	-9.43901
▁connection	-9.43913
gu	-9.43944
ure	-9.43993
▁expenditure	-9.44034
▁companies	-9.44096
iv	-9.44128
▁image	-9.44208
▁team	-9.44209
ee	-9.44265
▁presented	-9.44276
ct	-9.44352
▁forces	-9.44364
▁white	-9.4448
▁export	-9.44496
▁systems	-9.44507
▁Of	-9.44629
way	-9.4474
ative	-9.44832
per	-9.44844
▁workers	-9.44898
▁animals	-9.4499
▁promote	-9.45086
▁remain	-9.45235
▁minus	-9.45284
▁scientific	-9.4534
▁struggle	-9.4534
▁follow	-9.45348
▁contract	-9.45354
ph	-9.45388
▁grant	-9.45417
▁extent	-9.45474
▁included	-9.45493
▁Raj	-9.45602
▁active	-9.45769
▁longer	-9.45863
▁refers	-9.45884
▁added	-9.4605
▁mean	-9.46062
▁cut	-9.46086
▁otherwise	-9.46138
▁Rama	-9.46146
▁music	-9.46231
▁learn	-9.46274
ram	-9.46307
▁vision	-9.46309
▁award	-9.46344
▁code	-9.46417
▁video	-9.46444
▁task	-9.46496
▁attention	-9.46501
▁red	-9.46518
▁memory	-9.4654
▁build	-9.46632
▁bad	-9.4668
▁performance	-9.46863
▁user	-9.46991
▁involved	-9.47158
▁fixed	-9.47255
▁Provided	-9.47268
tan	-9.47278
▁Assembly	-9.47367
▁TO	-9.47424
▁supply	-9.47492
vo	-9.47553
▁stand	-9.47598
▁tried	-9.47652
▁answer	-9.47682
▁twenty	-9.47876
▁Mo	-9.47994
▁domestic	-9.48005
▁directly	-9.48041
▁Scheme	-9.48053
▁IT	-9.48055
▁black	-9.48069
▁produced	-9.48108
▁caused	-9.48143
▁Punjab	-9.48229
▁Chandra	-9.48277
▁ask	-9.48454
▁standard	-9.48515
ik	-9.48552
▁Plan	-9.48578
▁style	-9.48786
▁traditional	-9.48792
▁accordance	-9.48913
▁organisation	-9.49002
line	-9.49043
▁Vi	-9.4906
▁independent	-9.49103
▁Not	-9.4911
▁Well	-9.49338
▁milk	-9.49364
▁rise	-9.49366
▁ago	-9.49407
▁software	-9.4956
▁June	-9.4957
▁adopted	-9.49594
▁balance	-9.49609
▁units	-9.49615
▁road	-9.4974
▁ways	-9.498
▁technical	-9.49886
▁democracy	-9.50018
▁December	-9.50018
▁heard	-9.50084
▁fear	-9.50124
po	-9.5021
ible	-9.50274
▁south	-9.50281
▁eye	-9.50327
▁contained	-9.50348
▁friends	-9.50388
▁King	-9.5039
▁Mumbai	-9.50412
▁contribution	-9.50504
▁w	-9.50622
▁thousand	-9.50637
▁funds	-9.50682
▁copy	-9.50748
▁According	-9.50753
▁unless	-9.50865
▁II	-9.50958
▁north	-9.51118
ven	-9.51153
▁focus	-9.5137
ho	-9.51416
▁highest	-9.51462
▁documents	-9.51484
▁languages	-9.51489
▁percent	-9.51606
▁Africa	-9.51609
▁generation	-9.51654
▁range	-9.51663
▁led	-9.51691
▁husband	-9.51738
▁di	-9.51937
▁effort	-9.51988
▁stay	-9.52111
▁reached	-9.52207
▁Any	-9.52285
▁September	-9.5234
du	-9.52364
▁employees	-9.52383
▁patient	-9.5247
▁laid	-9.52497
▁Asia	-9.52571
bar	-9.52578
▁model	-9.52595
▁August	-9.52609
▁beautiful	-9.52609
▁standards	-9.52689
▁assets	-9.52985
▁Shah	-9.53046
▁Research	-9.53081
▁Bo	-9.53122
ology	-9.53289
mal	-9.53349
▁risk	-9.53508
▁Civil	-9.53556
▁October	-9.53556
▁accounts	-9.53561
▁significant	-9.53573
▁Nehru	-9.53624
▁Z	-9.53627
▁easy	-9.53692
▁examination	-9.53716
▁types	-9.53737
od	-9.53773
▁interests	-9.53791
▁Sub	-9.53819
▁clean	-9.53897
▁insurance	-9.54238
▁context	-9.54308
▁IN	-9.54333
▁friend	-9.5434
▁Tamil	-9.54447
▁creation	-9.54456
▁species	-9.54581
▁principle	-9.5475
▁event	-9.54834
▁doubt	-9.54911
mon	-9.54933
ile	-9.5502
▁likely	-9.55091
▁District	-9.55131
der	-9.5525
▁Category	-9.55339
▁middle	-9.5534
▁recent	-9.55395
▁moment	-9.55424
U	-9.55474
▁serve	-9.55491
▁People	-9.55546
ari	-9.55626
▁steps	-9.55723
▁leading	-9.55743
▁centre	-9.55829
▁majority	-9.55846
▁largest	-9.55865
▁Corporation	-9.56033
▁hours	-9.56111
▁trust	-9.56195
ring	-9.56215
▁average	-9.56243
▁fair	-9.56248
tar	-9.56319
▁Fund	-9.56337
▁Ro	-9.56382
▁Western	-9.56382
▁connected	-9.56432
▁sometimes	-9.56474
▁net	-9.56488
▁implementation	-9.56538
▁regular	-9.56545
▁opportunities	-9.56662
▁policies	-9.56662
▁Chapter	-9.56664
ach	-9.56715
▁military	-9.5672
▁limit	-9.56721
▁Other	-9.56745
▁questions	-9.56788
▁iii	-9.56859
▁placed	-9.56872
▁stop	-9.56978
▁growing	-9.56981
▁described	-9.57104
▁Ko	-9.57202
▁instead	-9.57353
▁independence	-9.57365
▁Division	-9.57436
▁attack	-9.5744
dar	-9.57582
▁sun	-9.57629
▁design	-9.57723
▁consciousness	-9.57957
▁joint	-9.57989
cu	-9.58017
▁instrument	-9.5812
▁conflict	-9.58145
ability	-9.58169
▁draw	-9.58287
▁Po	-9.58329
▁cells	-9.58395
▁reasons	-9.58595
ten	-9.58604
▁Explanation	-9.58644
▁surface	-9.58644
▁Special	-9.58646
▁deemed	-9.58654
▁July	-9.58659
▁educational	-9.58741
▁inside	-9.58819
▁resolution	-9.58859
▁China	-9.58878
▁affected	-9.58945
▁Ne	-9.58996
▁sign	-9.59008
▁understanding	-9.59194
bi	-9.59216
▁asset	-9.59232
▁request	-9.59289
▁cash	-9.59337
▁male	-9.59356
▁Tax	-9.59492
▁moral	-9.59504
▁para	-9.59557
▁animal	-9.59623
▁program	-9.59685
▁Conference	-9.59724
▁former	-9.59747
dy	-9.59822
▁Can	-9.59838
▁fully	-9.5992
▁costs	-9.59925
▁suffer	-9.60046
▁payable	-9.60069
▁registered	-9.60102
▁seems	-9.60113
▁bound	-9.60268
▁pain	-9.60327
▁Judges	-9.60437
▁regarding	-9.60474
▁leader	-9.60523
▁declared	-9.60525
▁fundamental	-9.60667
▁advice	-9.6067
▁Every	-9.6073
▁selected	-9.60765
▁perhaps	-9.60886
▁Islamic	-9.60917
▁authorities	-9.60973
▁week	-9.6099
▁document	-9.6103
▁November	-9.61032
▁length	-9.61032
▁certificate	-9.61043
▁Art	-9.61128
▁agriculture	-9.61179
ward	-9.6124
▁cooperation	-9.61257
▁Guru	-9.61259
den	-9.61281
ard	-9.61374
▁relationship	-9.61504
▁offer	-9.61525
▁farmers	-9.61531
▁stock	-9.61547
▁Gandhiji	-9.61573
▁First	-9.6162
▁associated	-9.61752
▁results	-9.6182
▁charges	-9.61871
▁ma	-9.61929
▁additional	-9.61943
▁divine	-9.61989
▁presence	-9.62063
▁delay	-9.62071
▁content	-9.62121
ki	-9.62193
▁sentence	-9.62193
▁Se	-9.62199
▁send	-9.62205
ft	-9.62238
▁Rules	-9.62257
▁won	-9.62321
▁Management	-9.6236
▁dead	-9.6241
▁useful	-9.62486
▁looking	-9.62496
son	-9.625
▁green	-9.62655
▁review	-9.62758
▁k	-9.62773
▁Here	-9.62894
▁lack	-9.62898
▁shape	-9.62903
ip	-9.62991
▁objective	-9.63026
▁warm	-9.63063
▁Therefore	-9.63179
ions	-9.63253
do	-9.63483
▁correct	-9.63493
▁fall	-9.63561
▁terrorism	-9.63562
▁travel	-9.63562
les	-9.63602
ash	-9.63626
▁difference	-9.63683
▁located	-9.63723
▁X	-9.6383
ator	-9.63901
▁extended	-9.63969
▁km	-9.64047
ide	-9.64166
▁multi	-9.64175
▁lay	-9.64216
▁Y	-9.64266
▁weight	-9.64293
IC	-9.64296
▁Hindus	-9.64381
▁larger	-9.64437
▁construction	-9.64472
▁AND	-9.64506
▁break	-9.64589
▁worship	-9.64598
▁distance	-9.64615
tri	-9.64772
▁complex	-9.64952
▁j	-9.64955
▁link	-9.65054
▁registration	-9.65067
▁youth	-9.65101
▁achieve	-9.65129
▁committed	-9.65204
▁failed	-9.65208
▁numbers	-9.65299
▁introduced	-9.65437
▁Policy	-9.65602
▁chief	-9.65679
▁shown	-9.65733
▁pass	-9.65772
▁organization	-9.65857
▁developing	-9.65911
▁external	-9.65912
▁stories	-9.66064
▁Europe	-9.66097
▁voice	-9.66141
▁else	-9.66142
▁skin	-9.66217
▁Most	-9.66234
▁secret	-9.6633
ner	-9.6634
▁expressed	-9.66341
▁ON	-9.66408
tha	-9.6644
▁needed	-9.66457
▁machine	-9.66537
▁item	-9.66548
▁mass	-9.66614
▁successful	-9.66649
nath	-9.66711
ite	-9.66817
▁sale	-9.66823
▁wealth	-9.66843
▁Di	-9.66869
▁pressure	-9.66922
▁bar	-9.67038
▁universal	-9.67069
▁storage	-9.6707
mer	-9.67091
▁benefits	-9.67178
▁principles	-9.67189
▁everything	-9.67227
▁unique	-9.67235
av	-9.67258
▁Tribunal	-9.67269
▁someone	-9.6738
▁increasing	-9.67429
▁orders	-9.67568
tor	-9.67633
▁petitioner	-9.67656
▁namely	-9.67703
▁penalty	-9.67775
itis	-9.67817
▁bill	-9.67911
▁collection	-9.67926
ie	-9.67971
▁Pre	-9.68001
▁Amendment	-9.68007
▁England	-9.68007
▁Director	-9.68019
▁square	-9.68031
▁witness	-9.68041
▁covered	-9.68047
gi	-9.68185
our	-9.68195
▁maintain	-9.68216
▁thinking	-9.68219
▁Bi	-9.684
ali	-9.68522
▁Secretary	-9.68584
act	-9.68666
▁Maharashtra	-9.68717
▁Bharat	-9.68744
▁Though	-9.68771
▁soil	-9.68785
bo	-9.68806
▁novel	-9.68881
▁tradition	-9.68921
▁fish	-9.68937
▁publication	-9.69017
▁views	-9.69055
▁played	-9.69164
sha	-9.69205
▁cover	-9.693
▁fit	-9.69316
▁establishment	-9.69316
▁minimum	-9.69431
▁obtain	-9.69557
▁department	-9.69604
▁version	-9.69647
tur	-9.69648
▁poems	-9.69681
▁schemes	-9.69688
▁contains	-9.69699
▁academic	-9.6975
ng	-9.69809
ED	-9.69817
▁Tagore	-9.6983
▁merely	-9.69873
▁morning	-9.70072
que	-9.70078
▁desire	-9.70114
og	-9.7025
▁site	-9.70276
▁mo	-9.703
▁running	-9.70321
one	-9.70433
▁session	-9.70495
▁friendly	-9.70499
▁enable	-9.70502
▁color	-9.70511
cur	-9.70528
▁processing	-9.70567
▁variety	-9.70633
▁entitled	-9.70644
▁Le	-9.70665
nu	-9.70715
▁na	-9.70716
set	-9.70759
▁join	-9.7082
▁female	-9.70988
▁impact	-9.7099
▁Khan	-9.7108
▁easily	-9.71118
▁operations	-9.71162
▁command	-9.71206
▁figure	-9.71217
▁mark	-9.7122
▁wind	-9.713
▁changed	-9.71332
▁Kerala	-9.71361
▁host	-9.71417
▁aid	-9.71445
▁press	-9.71455
ub	-9.71481
▁raised	-9.71518
▁Sir	-9.71528
ens	-9.7159
▁European	-9.71605
▁primary	-9.7169
▁Ha	-9.71814
▁flow	-9.71844
▁enjoy	-9.71946
▁Judici	-9.71989
▁parents	-9.72008
▁shows	-9.72048
▁February	-9.72094
▁convey	-9.72094
▁integral	-9.72094
▁relief	-9.72096
▁engaged	-9.72165
▁appear	-9.72288
▁Kumar	-9.72338
▁maximum	-9.72345
▁defined	-9.72351
▁wall	-9.72356
ex	-9.72367
▁villages	-9.72417
▁Who	-9.72507
ck	-9.72512
▁Authority	-9.72517
ious	-9.72661
▁investigation	-9.72669
▁Pra	-9.72969
▁expected	-9.72989
▁Part	-9.73011
▁unity	-9.73032
ber	-9.73036
▁affect	-9.73112
ING	-9.73276
▁System	-9.73402
▁Finance	-9.73412
▁temples	-9.73446
▁Mu	-9.73458
▁duties	-9.73496
▁Since	-9.73582
▁Power	-9.73663
▁lines	-9.73711
▁failure	-9.73747
▁Why	-9.73763
▁philosophy	-9.73827
▁levels	-9.73836
▁judges	-9.73906
uk	-9.73968
▁brother	-9.73987
▁communication	-9.73993
▁minister	-9.73993
▁error	-9.73994
▁transport	-9.74041
▁dance	-9.74159
▁sp	-9.74191
▁bear	-9.74212
▁ready	-9.74215
▁display	-9.7423
▁reading	-9.74237
▁filed	-9.74267
▁h	-9.74292
▁powerful	-9.74292
▁board	-9.74437
▁Qu	-9.74461
▁enter	-9.74472
pe	-9.74519
▁advance	-9.74576
▁Also	-9.74673
ler	-9.74691
▁elements	-9.74796
cal	-9.74842
▁saying	-9.74858
gra	-9.74903
▁feeling	-9.74981
▁Indians	-9.75055
wi	-9.75091
▁pleasure	-9.75253
▁remains	-9.75257
▁attempt	-9.75262
gg	-9.75323
▁positive	-9.75337
▁poverty	-9.75337
▁Their	-9.75346
▁dealing	-9.75391
▁Services	-9.75406
▁undertaking	-9.75421
▁indeed	-9.75435
▁cross	-9.75528
▁vi	-9.75549
▁whatever	-9.75694
▁pa	-9.757
ell	-9.75729
ama	-9.75735
▁en	-9.75798
▁Ar	-9.75816
▁Ja	-9.75952
▁annual	-9.75999
▁studies	-9.76015
OR	-9.7606
▁degree	-9.7614
▁favour	-9.76158
▁medium	-9.76186
AN	-9.76191
▁punishment	-9.76197
▁sections	-9.76213
▁Because	-9.76356
▁series	-9.7636
▁ideal	-9.76434
▁defence	-9.76445
▁throughout	-9.76449
▁deduction	-9.76477
▁trying	-9.76511
ists	-9.76558
▁gas	-9.76626
▁grow	-9.76631
▁feet	-9.76688
ES	-9.76695
▁ball	-9.76721
sion	-9.76763
▁hospital	-9.76778
war	-9.7695
bha	-9.77026
▁la	-9.77078
ably	-9.77192
▁promotion	-9.77258
▁super	-9.77311
▁shares	-9.77345
▁vital	-9.77447
gen	-9.7748
▁legislation	-9.77558
▁names	-9.77585
▁entry	-9.77649
▁vast	-9.77656
hy	-9.77667
▁girl	-9.77709
▁turned	-9.77775
either	-9.77791
▁Akbar	-9.77818
▁Gujarat	-9.77926
▁removal	-9.77933
▁San	-9.78153
▁granted	-9.78158
▁speed	-9.78207
▁Bengali	-9.78451
ani	-9.78462
▁feed	-9.78526
ron	-9.78618
nt	-9.78619
hal	-9.78624
▁requires	-9.78647
▁caste	-9.78748
▁distribution	-9.78871
▁agency	-9.78951
▁mainly	-9.78958
▁items	-9.79022
▁waste	-9.7904
▁daughter	-9.7904
▁gain	-9.79066
▁aspects	-9.7922
▁Air	-9.7923
▁divided	-9.79292
▁internal	-9.79337
▁intellectual	-9.79478
▁remember	-9.79484
▁Sha	-9.79491
▁server	-9.79507
▁UN	-9.79525
ick	-9.79539
▁files	-9.79556
▁suggested	-9.79624
▁sort	-9.79689
▁literary	-9.79919
▁SC	-9.79974
▁safety	-9.80018
▁ill	-9.80069
▁discussion	-9.80321
▁complaint	-9.80329
lam	-9.80363
▁agree	-9.80438
▁adequate	-9.80441
▁staff	-9.80451
▁suit	-9.80514
▁title	-9.80519
▁nations	-9.8062
▁offered	-9.80631
▁mis	-9.80705
▁hearing	-9.8071
▁fight	-9.80716
▁Official	-9.80717
▁individuals	-9.80739
▁perform	-9.80808
▁daily	-9.8081
▁phase	-9.80814
ung	-9.80829
▁late	-9.8083
▁welfare	-9.80896
▁motion	-9.80907
▁articles	-9.80949
▁leaves	-9.81044
tle	-9.81092
▁fresh	-9.81164
▁teacher	-9.81174
▁Error	-9.81344
ze	-9.81356
▁requirements	-9.81378
▁gone	-9.81378
▁root	-9.81409
▁association	-9.81479
▁election	-9.81541
▁acts	-9.81548
▁Sam	-9.81577
▁choice	-9.81613
▁reduce	-9.81673
▁opening	-9.81732
▁Mahatma	-9.81793
▁Health	-9.81797
ster	-9.81829
▁practices	-9.81829
▁phone	-9.81863
az	-9.81883
▁cities	-9.81934
▁Post	-9.8194
▁completed	-9.81957
▁confidence	-9.81975
ew	-9.82005
▁master	-9.82006
▁wishes	-9.82023
▁profit	-9.82024
▁moon	-9.82184
▁Mar	-9.82185
istic	-9.82227
▁applications	-9.82329
▁Whether	-9.82336
▁screen	-9.82368
▁methods	-9.82377
J	-9.82389
▁pattern	-9.82396
▁named	-9.82405
▁lived	-9.82475
▁Her	-9.8248
▁treated	-9.82494
▁ch	-9.82519
▁School	-9.82608
▁Nepal	-9.82614
▁branch	-9.82616
▁regional	-9.82653
▁Th	-9.82796
▁Rajya	-9.82926
end	-9.82965
▁learned	-9.83141
▁College	-9.83154
▁Palestinian	-9.83154
▁knew	-9.83154
▁forest	-9.83212
▁game	-9.83237
▁actual	-9.8344
ning	-9.8347
▁Har	-9.83483
▁pi	-9.83504
▁attitude	-9.83574
▁reform	-9.83581
▁decide	-9.83595
▁beauty	-9.83613
ny	-9.83671
▁station	-9.83677
▁factors	-9.8372
▁facts	-9.83733
ising	-9.83742
unt	-9.83796
tal	-9.83821
oo	-9.83837
▁honour	-9.83915
▁sufficient	-9.83922
▁concept	-9.83983
▁Programme	-9.84003
▁teachers	-9.84057
▁highly	-9.84072
we	-9.84094
▁Maha	-9.84217
▁Group	-9.84257
▁table	-9.84267
▁ca	-9.84275
▁points	-9.84286
esh	-9.84287
▁believed	-9.84344
▁follows	-9.84351
▁reality	-9.84358
▁machinery	-9.84371
▁avoid	-9.84399
▁abroad	-9.84442
▁Rajasthan	-9.84443
▁Ca	-9.84455
▁causes	-9.84489
▁touch	-9.84616
▁bodies	-9.84627
▁returned	-9.84709
▁fields	-9.84724
▁died	-9.84773
▁holding	-9.8479
▁probably	-9.84813
▁heavy	-9.84813
▁Water	-9.84826
tt	-9.84892
gar	-9.84894
▁dispute	-9.84926
▁Only	-9.84978
▁songs	-9.84982
▁response	-9.85015
▁concern	-9.85038
▁goal	-9.85044
▁nuclear	-9.85092
ala	-9.85143
thi	-9.85155
▁determined	-9.85166
dha	-9.85215
▁critical	-9.85272
▁families	-9.85372
▁Ganga	-9.85396
▁com	-9.85408
ging	-9.85438
AR	-9.85485
▁insects	-9.85523
▁partnership	-9.85567
▁rupees	-9.85574
▁gets	-9.85606
▁Pan	-9.85631
&	-9.8565
▁innovation	-9.8568
▁appears	-9.85691
▁events	-9.8571
▁Google	-9.85746
▁default	-9.85802
▁Excellency	-9.8584
▁Besides	-9.8584
▁express	-9.85886
ping	-9.8594
ava	-9.85957
▁Car	-9.86
▁proved	-9.86022
▁save	-9.86045
val	-9.86065
▁crop	-9.86165
▁reasonable	-9.86191
nic	-9.86206
▁measure	-9.86224
▁schools	-9.86235
▁File	-9.86244
io	-9.86286
▁Li	-9.86338
ore	-9.8635
▁clearly	-9.86388
ap	-9.86428
▁agreed	-9.86442
▁agencies	-9.86499
▁sides	-9.86608
▁Uttar	-9.86688
▁bo	-9.86735
▁require	-9.86771
king	-9.86898
▁Today	-9.87005
▁army	-9.87049
▁doctor	-9.8712
▁dated	-9.87124
qu	-9.8713
▁compensation	-9.87162
▁thereof	-9.87255
▁description	-9.87258
▁Members	-9.87261
▁mutual	-9.87263
▁happened	-9.87263
▁delivery	-9.87272
▁professional	-9.87305
▁origin	-9.87385
▁purchase	-9.87427
▁sec	-9.87604
▁eat	-9.87656
▁door	-9.87812
▁Further	-9.8783
▁Assam	-9.87832
▁Raja	-9.87835
▁Bha	-9.87838
▁explain	-9.87876
▁recommended	-9.87965
red	-9.87977
▁Lo	-9.87986
▁Legislative	-9.88022
mit	-9.88062
▁suitable	-9.8808
▁cold	-9.88087
▁survey	-9.88118
▁Account	-9.88141
▁sacrifice	-9.88182
▁historical	-9.88186
▁instance	-9.88199
▁aware	-9.88233
▁keeping	-9.88345
▁Dis	-9.88385
▁Party	-9.88476
▁worked	-9.88501
pp	-9.8851
ery	-9.88518
▁amongst	-9.88587
▁sitting	-9.88611
▁Project	-9.88682
▁leadership	-9.8871
▁Com	-9.8874
▁par	-9.88755
▁seem	-9.88758
▁passing	-9.88816
▁constituted	-9.88858
▁revolution	-9.88865
▁Andhra	-9.88918
side	-9.88972
▁Member	-9.89084
ix	-9.89122
▁Bihar	-9.89132
ned	-9.89177
▁fee	-9.89179
▁launched	-9.89223
lan	-9.89241
▁Yoga	-9.89277
▁See	-9.89327
▁poem	-9.89367
▁constitutional	-9.89398
▁Both	-9.89406
▁cl	-9.8948
▁sectors	-9.89503
▁hour	-9.89505
▁season	-9.89513
▁reduced	-9.8952
▁urban	-9.89558
▁applicable	-9.89569
▁decisions	-9.89583
ham	-9.89626
▁draft	-9.89666
▁Science	-9.89671
▁Which	-9.89764
▁identity	-9.89764
▁ordinary	-9.89764
▁diseases	-9.89855
▁chance	-9.8988
▁inner	-9.89921
▁completely	-9.8997
▁Company	-9.90057
▁latter	-9.90063
▁journey	-9.90155
▁features	-9.90286
▁portion	-9.90338
▁greeting	-9.90345
▁Commercial	-9.90351
▁Speaker	-9.90351
▁Two	-9.90364
▁remove	-9.90365
▁Use	-9.90383
▁arrest	-9.90409
▁sex	-9.9042
▁news	-9.90427
▁dry	-9.90441
▁hear	-9.9047
▁import	-9.90607
▁acid	-9.90612
▁River	-9.90652
▁planning	-9.90657
shi	-9.90714
▁Kan	-9.90718
▁stone	-9.90734
▁negative	-9.90846
▁Over	-9.9093
tation	-9.90999
AT	-9.91133
▁Si	-9.91166
▁entered	-9.91354
▁speak	-9.91388
▁wood	-9.91509
▁foundation	-9.91527
▁BC	-9.9155
ju	-9.91579
uc	-9.91621
▁Another	-9.91636
▁administrative	-9.91636
▁throw	-9.91653
iya	-9.91661
▁mouth	-9.91735
▁permanent	-9.91748
▁spent	-9.91857
ble	-9.91892
▁release	-9.91922
▁commission	-9.91935
▁brain	-9.91938
▁select	-9.91942
▁Home	-9.91954
▁officials	-9.9197
▁elected	-9.91986
ika	-9.92008
▁notification	-9.92019
▁watch	-9.92064
▁refer	-9.92154
▁yield	-9.92234
▁applied	-9.92234
▁Kar	-9.92404
ara	-9.92507
▁Mal	-9.92509
▁element	-9.92555
▁safe	-9.9258
▁damage	-9.92589
tain	-9.92614
▁remained	-9.92727
▁broad	-9.92747
▁train	-9.92784
▁improvement	-9.92789
▁crops	-9.92802
▁recommendations	-9.92814
▁Human	-9.92863
ack	-9.92877
▁approved	-9.92877
▁match	-9.92879
▁debt	-9.92916
▁senior	-9.92937
▁Procedure	-9.92937
su	-9.92964
▁democratic	-9.92976
▁picture	-9.92998
▁dark	-9.93018
▁exist	-9.93018
▁settlement	-9.93061
▁Office	-9.93129
RE	-9.93184
▁profession	-9.93259
▁town	-9.93267
▁walk	-9.93273
▁appointment	-9.93328
▁suffering	-9.93397
▁Roy	-9.9345
▁drawn	-9.93487
▁latest	-9.93497
▁released	-9.93562
▁initiatives	-9.93576
▁Ga	-9.93618
▁achieved	-9.93724
▁En	-9.93884
▁governance	-9.93897
▁dream	-9.93926
▁drive	-9.93956
▁worth	-9.93968
tes	-9.93988
▁nearly	-9.94086
▁star	-9.941
▁output	-9.94125
▁Financial	-9.94153
cus	-9.94223
▁register	-9.9423
▁Mission	-9.94273
▁deposit	-9.94279
▁principal	-9.94358
▁ho	-9.94359
▁Don	-9.94362
pt	-9.94465
▁union	-9.94479
▁judgment	-9.9455
▁prices	-9.94559
tin	-9.94573
▁block	-9.94601
▁centres	-9.94608
▁establish	-9.94662
▁moved	-9.94665
▁foot	-9.94674
▁Adv	-9.94728
▁participation	-9.94781
▁meant	-9.95142
▁campaign	-9.95179
▁facilitate	-9.95179
mm	-9.95241
▁supported	-9.95253
tre	-9.95276
▁folk	-9.95311
LE	-9.95333
▁tea	-9.95356
kh	-9.95367
▁Association	-9.95395
cha	-9.95509
▁politics	-9.95712
▁territory	-9.95799
▁Cha	-9.96048
▁weak	-9.96108
▁gold	-9.96117
▁hair	-9.96143
▁challenge	-9.96224
ug	-9.96249
▁format	-9.96275
dal	-9.96304
▁finance	-9.96419
▁conference	-9.96431
▁removed	-9.96471
▁nine	-9.96492
osis	-9.96504
▁Da	-9.96504
▁approval	-9.96527
▁Ali	-9.96542
ory	-9.96554
▁Sur	-9.96608
▁creating	-9.96636
▁committee	-9.96659
▁charged	-9.96661
stood	-9.96721
▁emphasis	-9.96736
▁recorded	-9.96863
▁extra	-9.96878
▁reports	-9.96885
▁standing	-9.96988
▁revenue	-9.97051
▁Non	-9.97082
▁adv	-9.97096
▁joy	-9.97108
▁depend	-9.97115
▁Sp	-9.97146
▁materials	-9.9717
▁factor	-9.97248
▁trouble	-9.97261
▁Islamist	-9.973
▁east	-9.97335
cr	-9.97361
▁commitment	-9.97389
row	-9.97445
▁heat	-9.97451
▁Men	-9.97455
▁married	-9.97473
▁Bose	-9.97538
▁Up	-9.97543
▁permission	-9.97586
▁shift	-9.97683
▁characters	-9.97774
▁Insurance	-9.97788
▁analysis	-9.97789
▁interesting	-9.97929
▁SCC	-9.97946
tru	-9.97999
ration	-9.98056
dra	-9.98079
▁Ho	-9.98093
▁London	-9.98106
RI	-9.9813
▁solution	-9.98155
of	-9.98165
▁Internet	-9.98215
▁prosperity	-9.98216
▁evil	-9.98227
▁trees	-9.98242
und	-9.98271
▁drama	-9.98307
mp	-9.9841
▁tonnes	-9.98426
▁happen	-9.98533
▁teaching	-9.98555
▁functioning	-9.9856
▁Show	-9.98571
▁advantage	-9.98585
▁Police	-9.98642
▁sources	-9.98673
▁volume	-9.98703
▁facility	-9.98745
▁Among	-9.98748
▁proposal	-9.98806
▁Chand	-9.98832
▁finally	-9.98893
▁Could	-9.98959
▁mention	-9.99125
q	-9.9915
▁folder	-9.99244
▁contain	-9.99284
▁classes	-9.99315
▁extension	-9.99388
▁huge	-9.99389
au	-9.99402
▁crime	-9.99468
▁promot	-9.99554
▁citizen	-9.99557
▁encourage	-9.99685
▁murder	-9.99711
▁micro	-9.99731
rat	-9.9975
lic	-9.99781
▁Foreign	-9.99818
ay	-9.9982
▁belong	-9.99832
▁constitute	-9.99843
▁rare	-9.99862
ura	-9.99883
▁Legislature	-9.99926
by	-9.9997
▁maintained	-9.99981
▁seed	-10.0001
▁Karnataka	-10.0014
▁sat	-10.0017
▁weeks	-10.0019
▁sought	-10.0019
▁ha	-10.002
▁substance	-10.0023
▁submitted	-10.0048
▁atmosphere	-10.0058
▁communities	-10.0058
▁drugs	-10.0059
▁conducted	-10.006
▁danger	-10.0061
izing	-10.0066
▁opened	-10.0066
▁apart	-10.0073
▁awareness	-10.0073
▁tend	-10.0078
▁grown	-10.0082
▁Ya	-10.0083
ign	-10.0088
▁student	-10.009
▁cave	-10.0092
▁strike	-10.0113
▁obtained	-10.0128
▁challenges	-10.0133
▁colour	-10.0139
▁Arab	-10.0141
▁mail	-10.0141
▁writer	-10.0144
▁plays	-10.0155
▁execution	-10.0158
▁Its	-10.0158
▁Right	-10.0158
▁served	-10.016
▁Gu	-10.0161
ai	-10.0161
▁west	-10.018
▁profits	-10.0182
wan	-10.0183
▁retain	-10.0196
▁Governments	-10.0201
za	-10.0201
▁consists	-10.0204
▁didn	-10.0206
▁graph	-10.0208
▁race	-10.0212
▁Language	-10.0213
▁Bal	-10.0218
▁squared	-10.0219
▁banking	-10.0221
▁universities	-10.0233
▁changing	-10.0234
▁notes	-10.0235
▁confident	-10.0243
▁Orissa	-10.0244
▁climate	-10.0244
▁prime	-10.0245
aries	-10.0246
▁web	-10.025
▁Inter	-10.0262
▁expenses	-10.0263
las	-10.0265
▁moving	-10.0266
rate	-10.0271
▁Second	-10.0275
▁subjects	-10.028
▁attend	-10.0281
▁elections	-10.0285
▁Cr	-10.0288
▁pollution	-10.0289
▁temperature	-10.0289
▁Nature	-10.0291
ko	-10.0291
ep	-10.0295
▁division	-10.0296
▁expect	-10.0299
▁column	-10.03
▁situated	-10.0301
ek	-10.0305
▁affairs	-10.0309
▁rates	-10.0309
▁mobile	-10.0311
▁Each	-10.0316
ther	-10.0318
▁transferred	-10.0318
▁card	-10.0319
▁possession	-10.0327
▁iv	-10.0329
▁constitution	-10.0332
▁discipline	-10.0332
▁Network	-10.0333
aka	-10.0335
▁helped	-10.0339
▁birds	-10.0342
▁Once	-10.0345
▁equipment	-10.0349
▁die	-10.0349
aya	-10.0351
▁attached	-10.0351
▁option	-10.0354
▁Although	-10.0356
tter	-10.0358
▁rain	-10.0376
▁maintenance	-10.0378
▁More	-10.0386
▁thirty	-10.0389
▁healthy	-10.0394
▁theory	-10.0409
▁executive	-10.0413
▁lose	-10.0414
par	-10.042
▁Press	-10.0424
▁recently	-10.0431
nce	-10.0433
▁Ni	-10.0434
▁Ki	-10.0439
▁ja	-10.0444
▁Br	-10.0446
▁background	-10.0446
▁raise	-10.0447
▁Tri	-10.0449
ient	-10.0455
▁operating	-10.0457
▁records	-10.046
var	-10.0484
▁pure	-10.0486
▁absence	-10.0491
▁Self	-10.0491
ath	-10.0492
▁decades	-10.0495
▁objectives	-10.0497
so	-10.0512
▁AIR	-10.0515
▁ka	-10.0515
▁frame	-10.0517
kin	-10.0519
▁r	-10.052
▁resource	-10.0532
▁imprisonment	-10.0537
yn	-10.0538
ris	-10.0538
▁processes	-10.054
▁online	-10.0545
dh	-10.0546
▁li	-10.0547
▁Time	-10.055
bb	-10.0552
▁engineering	-10.0557
▁cow	-10.0561
▁regions	-10.0563
▁amendment	-10.0569
▁conclusion	-10.0571
▁Middle	-10.0571
▁ourselves	-10.0572
▁Am	-10.0573
▁minor	-10.0578
▁ship	-10.058
IS	-10.0581
▁houses	-10.0582
IN	-10.0584
kha	-10.0585
▁Para	-10.0587
gan	-10.0589
che	-10.0591
▁Society	-10.0594
ement	-10.0595
▁weather	-10.0605
rn	-10.0605
▁soft	-10.0611
▁letters	-10.0612
▁translation	-10.0615
lin	-10.0619
rd	-10.0621
EC	-10.0624
▁greatest	-10.0631
▁prove	-10.0633
▁Select	-10.0634
ple	-10.0635
▁medicine	-10.0637
▁track	-10.064
ification	-10.064
▁multiple	-10.0641
com	-10.0642
▁becoming	-10.0652
lap	-10.0655
mat	-10.066
▁Before	-10.0663
▁fellow	-10.0664
▁ability	-10.0668
▁occur	-10.067
▁pending	-10.0677
fer	-10.0683
pal	-10.0692
▁Women	-10.0698
▁proceeding	-10.0704
let	-10.071
▁audit	-10.0724
▁Assess	-10.0729
RA	-10.0729
eg	-10.073
▁formation	-10.0732
▁cricket	-10.0732
▁president	-10.0733
▁Life	-10.0733
▁evening	-10.0733
▁petition	-10.0738
▁recognised	-10.0745
▁piece	-10.0746
▁bed	-10.0749
ada	-10.0752
sis	-10.0752
▁billion	-10.0754
▁sleep	-10.0755
▁Ke	-10.0764
▁Babu	-10.0771
▁reflect	-10.0772
van	-10.0774
▁false	-10.0779
▁debate	-10.0779
▁aspect	-10.0787
▁severe	-10.079
▁Independence	-10.0791
▁deliver	-10.0793
▁valid	-10.0796
▁receipt	-10.0803
▁target	-10.0805
ev	-10.0805
▁Jain	-10.0806
▁priority	-10.0806
▁Park	-10.0807
ice	-10.0812
▁behaviour	-10.0814
▁Reserve	-10.0814
▁battle	-10.0814
▁bringing	-10.0816
dhi	-10.082
▁offences	-10.0825
▁Jammu	-10.0826
▁URL	-10.0838
▁sweet	-10.0838
▁lies	-10.0839
clause	-10.0846
▁Social	-10.0849
▁zero	-10.085
▁smaller	-10.0852
▁reported	-10.0855
▁suggest	-10.0859
▁blue	-10.0861
▁capable	-10.0866
▁efficient	-10.0866
▁Limited	-10.0867
▁although	-10.0873
▁adult	-10.0875
▁Das	-10.0878
▁gains	-10.0884
hat	-10.0884
▁cast	-10.0886
ox	-10.0889
▁designed	-10.0898
▁Subhas	-10.09
▁connect	-10.0908
▁bilateral	-10.0909
▁effects	-10.0909
raj	-10.0924
▁manufacturing	-10.0932
▁channel	-10.0935
▁festival	-10.0935
▁conscious	-10.094
▁disputes	-10.0942
▁Add	-10.0943
AS	-10.0943
▁Mother	-10.0945
▁scope	-10.0953
▁layer	-10.0954
▁environmental	-10.0955
▁hot	-10.0958
arising	-10.0961
▁cr	-10.0965
▁formal	-10.0972
▁choose	-10.0975
ina	-10.0998
▁Training	-10.1002
ou	-10.101
▁Fi	-10.1018
▁prior	-10.1023
▁contempt	-10.1028
▁iron	-10.1034
▁Mon	-10.1042
▁intention	-10.1042
rum	-10.105
▁identify	-10.1052
ns	-10.1053
lum	-10.1056
▁remote	-10.1064
▁rice	-10.1065
▁tool	-10.107
▁Application	-10.1076
fo	-10.1078
▁discharge	-10.1079
▁solar	-10.1085
▁location	-10.1087
▁Great	-10.1089
▁counter	-10.1091
▁partner	-10.11
pu	-10.1109
▁users	-10.111
▁password	-10.1112
▁Madras	-10.1112
▁Divine	-10.1112
EN	-10.1121
▁signed	-10.1125
▁career	-10.1125
▁Are	-10.113
▁welcome	-10.1139
▁scientists	-10.1139
X	-10.1142
ved	-10.1148
IT	-10.1153
▁Sal	-10.1155
▁calculat	-10.1157
▁script	-10.1158
pro	-10.116
▁minutes	-10.1162
▁determine	-10.1167
fe	-10.117
▁Criminal	-10.1172
▁please	-10.1177
ped	-10.1184
▁Control	-10.1184
▁Unit	-10.1188
▁mere	-10.1188
ual	-10.1193
▁acquired	-10.1197
▁Israeli	-10.1201
▁upper	-10.1204
oid	-10.1205
ier	-10.1207
▁liquid	-10.1209
▁Sar	-10.1209
▁Change	-10.1216
▁pan	-10.1221
▁infection	-10.1221
▁email	-10.1222
▁Per	-10.1224
▁disk	-10.1225
▁identified	-10.1226
▁da	-10.1227
▁implemented	-10.1229
▁currency	-10.1233
▁friendship	-10.1235
▁adopt	-10.1247
▁ba	-10.1254
▁u	-10.1254
▁urge	-10.1258
▁initiative	-10.1267
ula	-10.1268
▁Order	-10.1272
▁fruit	-10.1272
▁lie	-10.1273
▁proof	-10.1284
▁appeared	-10.1286
▁perfect	-10.1287
ec	-10.1291
▁performed	-10.1293
▁platform	-10.1295
▁bomb	-10.1296
▁belief	-10.1304
▁vote	-10.1314
▁wise	-10.1319
▁secure	-10.132
▁shared	-10.132
▁couple	-10.1323
▁initial	-10.1326
day	-10.1331
▁Affairs	-10.1332
▁farm	-10.1349
▁pointed	-10.1349
▁Industrial	-10.135
TH	-10.1351
▁scholars	-10.1352
uff	-10.1356
▁assigned	-10.1359
▁begin	-10.1361
▁customer	-10.1363
tta	-10.137
▁000	-10.1373
▁Those	-10.1382
▁flowers	-10.1391
▁installed	-10.1391
▁desert	-10.1394
▁filled	-10.1396
▁god	-10.1398
▁announced	-10.1398
▁Rights	-10.1406
▁satisfied	-10.1406
▁contribute	-10.141
▁deals	-10.1414
▁Related	-10.1422
▁mountain	-10.1429
▁branches	-10.143
▁mission	-10.143
▁double	-10.1431
▁Nadu	-10.1433
jan	-10.1433
▁harm	-10.1434
▁strengthen	-10.1439
▁mandapa	-10.1444
▁route	-10.1444
▁proceed	-10.1446
▁jail	-10.1447
▁bone	-10.1454
▁alternative	-10.1456
▁Business	-10.1456
▁Economic	-10.1469
▁communal	-10.1469
DA	-10.1469
▁Red	-10.1478
▁Security	-10.1481
ction	-10.1481
▁tube	-10.1491
▁definition	-10.1494
▁Nations	-10.1506
▁respective	-10.1507
▁skills	-10.151
▁visited	-10.1513
fa	-10.1525
▁box	-10.1532
▁sexual	-10.1533
▁count	-10.1539
▁seemed	-10.155
▁Deputy	-10.1557
▁narrow	-10.1557
▁Something	-10.1557
▁Protection	-10.1557
▁tissue	-10.1558
▁discussed	-10.156
▁organized	-10.1562
▁western	-10.1569
▁council	-10.1582
▁civilization	-10.1585
▁Ph	-10.1586
▁immediate	-10.1589
▁centuries	-10.1607
▁collected	-10.1613
▁buy	-10.1626
▁marketing	-10.1629
▁manager	-10.1637
▁represents	-10.164
ff	-10.1645
▁arbitration	-10.1646
▁win	-10.165
imposed	-10.165
▁Marriage	-10.1658
▁marked	-10.1664
PA	-10.1665
chan	-10.1665
▁fat	-10.167
▁consumer	-10.1675
▁doesn	-10.1678
▁bus	-10.1682
▁reforms	-10.1685
▁hit	-10.1686
ger	-10.1686
▁wait	-10.1688
▁update	-10.1688
pl	-10.1689
▁rivers	-10.1695
▁eligible	-10.1697
▁simply	-10.1697
▁fuel	-10.1697
▁Data	-10.1698
▁lo	-10.1705
▁judiciary	-10.1709
▁comprehensive	-10.171
ade	-10.171
▁l	-10.1712
▁Out	-10.1716
time	-10.1716
▁Force	-10.1719
res	-10.1722
cent	-10.1725
▁constant	-10.1729
ify	-10.173
▁History	-10.1736
IL	-10.1738
▁shrine	-10.1748
ture	-10.175
▁fell	-10.1753
▁belonging	-10.1753
▁height	-10.1757
▁Fa	-10.1757
▁organizations	-10.1759
▁drug	-10.1761
▁appearance	-10.1763
▁employee	-10.1766
AM	-10.1766
ini	-10.1768
▁Jo	-10.177
▁framework	-10.1774
cer	-10.1775
▁CO	-10.1785
▁recognition	-10.1787
▁creative	-10.1787
▁girls	-10.179
▁advanced	-10.1793
▁mostly	-10.1796
tive	-10.1797
OS	-10.1799
▁transaction	-10.1806
▁mu	-10.1813
▁killed	-10.1816
▁university	-10.1826
▁Bangladesh	-10.1826
▁Joint	-10.1827
▁equally	-10.1831
tric	-10.1833
▁equality	-10.1836
▁French	-10.1839
▁substantial	-10.1846
bra	-10.1848
▁Ta	-10.1868
bal	-10.1873
▁Principal	-10.1878
▁Bu	-10.1881
▁bird	-10.1882
▁intended	-10.1882
▁proportion	-10.1883
▁Form	-10.1883
▁containing	-10.1883
▁exists	-10.1886
▁tribal	-10.1891
joined	-10.1894
▁sit	-10.1899
▁looks	-10.1899
▁sight	-10.19
▁properly	-10.1905
ments	-10.1906
▁calls	-10.1916
▁Pe	-10.192
▁chain	-10.1922
▁Vice	-10.1933
▁vehicle	-10.1938
▁fifty	-10.1943
▁initiated	-10.1944
▁Land	-10.1947
▁composed	-10.1948
▁span	-10.195
▁flower	-10.1953
▁Small	-10.1956
▁visible	-10.1957
▁kill	-10.1962
cing	-10.1964
▁none	-10.197
▁Iran	-10.1972
ker	-10.1974
▁feature	-10.1978
▁sand	-10.1979
▁agent	-10.1982
ound	-10.1982
▁horse	-10.1984
▁amended	-10.1985
▁prose	-10.199
▁Rural	-10.201
▁Ad	-10.2019
▁opposition	-10.2022
▁poets	-10.2033
cle	-10.2034
▁electricity	-10.2037
▁bright	-10.2038
▁sc	-10.204
▁skill	-10.2041
▁category	-10.2049
▁extremely	-10.205
▁entirely	-10.2052
▁Trade	-10.2053
▁discuss	-10.2054
▁thousands	-10.2056
▁undertaken	-10.2057
▁Par	-10.2059
▁supreme	-10.2062
▁attract	-10.2064
▁Year	-10.2066
qui	-10.2072
▁technologies	-10.2075
▁Failed	-10.2075
▁organised	-10.2076
ency	-10.2077
▁Hon	-10.2077
▁actions	-10.2083
ea	-10.2085
rm	-10.2085
lar	-10.2096
▁Hyderabad	-10.2102
▁competent	-10.2102
uri	-10.2102
▁Sun	-10.2104
▁seeking	-10.2104
tom	-10.2115
▁personality	-10.2116
mar	-10.2117
ition	-10.2125
xi	-10.2127
▁stands	-10.2143
▁guide	-10.215
nal	-10.2175
▁kinds	-10.2176
▁helps	-10.2178
▁limits	-10.2184
▁traffic	-10.2196
▁Houses	-10.2202
▁instruments	-10.2204
▁depends	-10.2205
ld	-10.2205
▁liability	-10.221
▁prosecution	-10.2211
mu	-10.2213
aj	-10.222
▁counsel	-10.2221
▁Food	-10.2223
▁Head	-10.2226
▁Exchange	-10.2236
▁sugar	-10.2237
▁ahead	-10.2239
▁representation	-10.2242
NA	-10.2243
use	-10.2243
▁eggs	-10.2245
▁song	-10.2252
▁starting	-10.2252
▁string	-10.2256
▁directed	-10.2258
▁regulations	-10.2263
▁conviction	-10.2267
▁spot	-10.2267
▁drink	-10.227
▁employed	-10.2272
▁fill	-10.2274
▁stream	-10.2281
▁informed	-10.2282
gal	-10.2288
▁outstanding	-10.229
▁runs	-10.2294
▁cap	-10.2295
▁felicitations	-10.2304
▁railway	-10.2306
▁wonder	-10.2309
▁figures	-10.2315
▁courage	-10.2316
▁accurate	-10.2318
CE	-10.2318
▁Urdu	-10.2318
▁victim	-10.2319
▁center	-10.2323
ose	-10.2324
▁port	-10.2329
put	-10.2333
▁rent	-10.2337
volving	-10.2337
▁absolute	-10.234
ute	-10.2345
▁offices	-10.2349
▁hardly	-10.2349
oli	-10.2362
▁coal	-10.2363
▁arms	-10.2365
▁thank	-10.2366
pat	-10.238
▁myself	-10.2386
▁chemical	-10.2389
▁mechanism	-10.2389
▁fourth	-10.24
▁flat	-10.2402
▁poetic	-10.2404
art	-10.2414
▁sold	-10.2415
▁consultation	-10.2417
IM	-10.2417
▁divide	-10.2419
▁store	-10.2424
▁pension	-10.2428
▁quickly	-10.2432
▁pen	-10.2433
▁symbol	-10.2436
▁Madhya	-10.2442
▁deeply	-10.2447
▁Enable	-10.2448
▁Vishnu	-10.2455
ants	-10.2459
▁quick	-10.2464
▁witnesses	-10.247
fl	-10.2475
▁uses	-10.2478
▁closed	-10.248
▁compar	-10.2483
bor	-10.2485
▁Yes	-10.2488
▁enabled	-10.2491
▁slow	-10.2492
▁Eastern	-10.2492
▁province	-10.2497
▁Award	-10.2498
ras	-10.2506
▁Assistant	-10.251
▁Capital	-10.251
ob	-10.2511
▁floor	-10.2512
▁panel	-10.2513
▁budget	-10.2524
▁arrangement	-10.2531
vel	-10.2534
▁Name	-10.2538
▁venture	-10.2538
▁camp	-10.2542
tr	-10.2544
▁respondent	-10.2546
▁John	-10.2552
▁sacred	-10.2552
▁interested	-10.2554
▁stamp	-10.2555
▁diet	-10.2562
▁po	-10.2563
▁Address	-10.2567
▁log	-10.2568
▁Christian	-10.2569
▁movements	-10.2581
▁proud	-10.2585
br	-10.2588
▁wild	-10.2594
▁exports	-10.2594
▁organisations	-10.2596
▁devotion	-10.2597
lat	-10.26
▁directions	-10.2604
▁Sita	-10.2607
▁burden	-10.2608
▁Sardar	-10.2609
hara	-10.261
rous	-10.2611
▁loans	-10.2611
▁socio	-10.2622
iness	-10.2624
▁pair	-10.2626
▁Siva	-10.2627
▁offers	-10.2635
▁impossible	-10.2636
light	-10.2637
▁consent	-10.2638
▁Te	-10.264
▁tender	-10.265
▁Election	-10.265
▁Ltd	-10.2651
▁Ministers	-10.2654
ita	-10.2655
pos	-10.2657
▁photo	-10.2659
▁liberal	-10.2663
▁awarded	-10.2664
▁FOR	-10.2669
▁customers	-10.267
▁Sen	-10.2676
▁Magistrate	-10.2679
▁prevail	-10.2679
▁Sc	-10.2685
wal	-10.2689
▁corporate	-10.2693
▁straight	-10.2693
▁steel	-10.2693
▁organ	-10.2693
▁Rule	-10.2698
▁selection	-10.2709
▁claims	-10.2714
▁border	-10.2717
▁garden	-10.273
▁rock	-10.273
▁sad	-10.2733
▁respond	-10.2733
▁instructions	-10.2736
▁liable	-10.2743
vis	-10.2748
ush	-10.275
▁Min	-10.275
▁permit	-10.2753
▁Tu	-10.2756
bul	-10.2756
▁happens	-10.2756
▁distinguished	-10.2756
▁ratio	-10.2757
hood	-10.2758
▁requirement	-10.2763
▁Shiva	-10.277
▁electronic	-10.2772
▁operate	-10.2773
ME	-10.2777
▁intelligence	-10.2778
▁cheque	-10.2778
▁sheet	-10.2778
▁arrived	-10.2786
▁Hence	-10.2786
▁Persian	-10.2794
▁understood	-10.2795
▁wants	-10.2796
▁enacted	-10.2804
▁cha	-10.2805
▁Buddha	-10.2807
▁bio	-10.2809
ov	-10.2809
▁playing	-10.282
▁telephone	-10.2821
▁covering	-10.2821
das	-10.2826
▁explained	-10.2828
del	-10.2833
▁Parliamentary	-10.2834
▁core	-10.2835
▁sanction	-10.2835
ong	-10.2835
▁compound	-10.2836
▁commencement	-10.2836
▁salt	-10.284
▁guarantee	-10.2843
▁examine	-10.2844
▁Export	-10.285
▁Iraq	-10.2855
▁addressed	-10.2858
over	-10.2858
▁terrorist	-10.286
▁personnel	-10.2864
▁allowance	-10.2865
oma	-10.2868
▁Just	-10.2869
af	-10.2872
SE	-10.2878
▁drop	-10.288
SS	-10.2884
ica	-10.2887
▁convert	-10.2888
▁estimated	-10.2889
▁Convention	-10.2893
jo	-10.2898
▁respectively	-10.29
▁determination	-10.2907
atic	-10.2908
▁Free	-10.2911
▁Pal	-10.2918
ue	-10.292
▁reply	-10.2922
▁inquiry	-10.2922
▁masses	-10.2923
▁sin	-10.293
▁speaking	-10.2933
▁efficiency	-10.2936
▁Col	-10.2938
▁continues	-10.294
TE	-10.2944
▁objects	-10.2945
▁Gupta	-10.2951
▁legislative	-10.2951
▁Similarly	-10.2955
▁mr	-10.2957
▁cycle	-10.2965
▁director	-10.2967
hana	-10.2968
▁dedicated	-10.2969
▁Kha	-10.297
▁Awards	-10.2976
▁submit	-10.2986
▁statutory	-10.2987
▁radio	-10.2989
▁Jan	-10.2997
adi	-10.2997
▁everyone	-10.3001
▁districts	-10.3013
▁contributions	-10.3018
▁demands	-10.3018
form	-10.3019
▁effectively	-10.3023
▁Shi	-10.3025
▁evolution	-10.3038
▁Like	-10.3044
int	-10.3047
▁availability	-10.3054
▁map	-10.3058
▁procedures	-10.3063
kan	-10.3074
CC	-10.3076
▁accident	-10.3077
▁guidelines	-10.3082
▁anyone	-10.3083
▁representative	-10.3084
▁parent	-10.3086
cept	-10.3088
▁arrested	-10.3088
▁passage	-10.3092
▁fe	-10.3093
▁Germany	-10.3094
▁band	-10.3113
▁minds	-10.3115
ves	-10.312
▁prepare	-10.312
▁hill	-10.3124
▁leaving	-10.3127
▁examples	-10.3139
▁Buddhist	-10.3141
▁Speaking	-10.3141
▁era	-10.315
ries	-10.3151
▁assist	-10.3153
▁cat	-10.3159
▁spite	-10.3159
▁Agriculture	-10.3171
▁Q	-10.3177
▁Note	-10.3179
ified	-10.3185
▁succeed	-10.3187
oon	-10.3198
▁improving	-10.3201
▁Web	-10.3202
▁scene	-10.3205
▁recognized	-10.3208
▁transactions	-10.3209
ans	-10.3218
▁humanity	-10.3221
▁detailed	-10.3224
▁showing	-10.3224
▁derived	-10.3224
▁Mughal	-10.3231
▁Jawaharlal	-10.3231
▁acting	-10.3235
▁chapter	-10.3235
phy	-10.3242
▁rapid	-10.3242
mark	-10.3246
▁raw	-10.3248
ey	-10.3254
▁talent	-10.3261
▁grass	-10.3261
▁DNA	-10.3265
▁admitted	-10.3271
▁verse	-10.3271
▁filing	-10.3277
▁differences	-10.3281
▁showed	-10.3282
▁governments	-10.3284
▁app	-10.329
▁happiness	-10.3291
▁quantity	-10.3291
▁enemy	-10.3291
▁Set	-10.3296
NAME	-10.3297
▁grounds	-10.3303
▁preparation	-10.3306
▁Medical	-10.3306
ps	-10.3308
cation	-10.3311
१०	-10.3317
▁competition	-10.3321
ATION	-10.3325
▁gift	-10.3329
▁metal	-10.333
▁practical	-10.3332
▁upto	-10.3333
ulation	-10.3335
▁applicant	-10.3336
▁sharp	-10.3337
▁finger	-10.3338
▁finding	-10.334
▁bridge	-10.3342
hor	-10.3347
▁consumption	-10.3351
▁victims	-10.3364
▁represent	-10.3365
▁disposal	-10.3366
▁fees	-10.3379
▁contemporary	-10.3381
▁markets	-10.3381
▁baby	-10.3382
▁Ju	-10.3384
▁sky	-10.3394
▁appellant	-10.3396
▁heritage	-10.3396
▁housing	-10.3396
▁difficulty	-10.3397
▁promise	-10.3405
▁cool	-10.341
dia	-10.3411
▁Child	-10.3412
▁certainly	-10.3418
▁Army	-10.342
hum	-10.3425
▁guidance	-10.3427
gh	-10.3434
▁remaining	-10.3436
▁regime	-10.3437
▁settled	-10.344
▁RE	-10.3443
▁partition	-10.3448
११	-10.3449
iz	-10.3451
▁pages	-10.3453
▁kingdom	-10.3458
▁Ti	-10.346
ole	-10.3461
▁III	-10.3464
▁ble	-10.3466
▁Credit	-10.3473
▁York	-10.3473
▁cook	-10.3474
▁Micro	-10.3483
lip	-10.3491
▁normally	-10.3491
▁Mor	-10.3494
▁strategy	-10.3503
▁About	-10.3504
▁Ab	-10.351
gam	-10.351
▁writers	-10.3511
▁inspired	-10.3515
zi	-10.3516
▁acquisition	-10.3519
▁Binoy	-10.3519
▁religions	-10.3521
▁dress	-10.3522
ID	-10.3524
▁distinction	-10.3527
▁Environment	-10.3534
▁Through	-10.3534
▁signal	-10.3543
▁enterprise	-10.3543
ography	-10.3544
▁computing	-10.3549
▁Swami	-10.355
▁flag	-10.3557
▁virtue	-10.3565
▁palace	-10.3565
▁immense	-10.3565
▁college	-10.3575
▁decade	-10.3576
▁Industry	-10.358
▁Pandit	-10.358
▁nerve	-10.3581
▁destroy	-10.3583
▁emergency	-10.3596
▁criticism	-10.3597
▁difficulties	-10.3602
▁listen	-10.3603
▁treat	-10.3605
▁bath	-10.3612
ley	-10.3615
▁successfully	-10.3618
▁install	-10.3625
▁Japan	-10.3627
▁zone	-10.3627
▁sister	-10.3632
▁regarded	-10.3632
▁sell	-10.3633
▁sustainable	-10.3641
▁Chaitanya	-10.3642
▁Afghanistan	-10.3642
▁tools	-10.3645
ular	-10.3647
nagar	-10.3661
▁unable	-10.3661
▁spoke	-10.3663
ane	-10.3664
▁thoughts	-10.367
▁Paper	-10.3673
▁combination	-10.3673
▁expansion	-10.3673
▁fault	-10.3674
▁injury	-10.3674
▁flood	-10.3674
▁pe	-10.3674
▁integrated	-10.3677
▁breath	-10.3689
▁specify	-10.3689
▁crisis	-10.3689
ral	-10.3691
pati	-10.37
dle	-10.3703
▁Executive	-10.3705
▁outer	-10.3706
▁plans	-10.3707
▁pot	-10.372
▁League	-10.372
▁occurs	-10.3723
▁su	-10.3727
▁Laws	-10.3731
body	-10.3731
▁Lal	-10.3736
ili	-10.3736
▁Sea	-10.3738
▁solve	-10.3739
▁Book	-10.3739
atory	-10.374
abad	-10.3743
▁seeds	-10.3746
▁investors	-10.375
▁repair	-10.3752
▁cloth	-10.376
▁sole	-10.3765
▁brief	-10.3765
ati	-10.3765
etic	-10.3767
▁Children	-10.3768
▁defendant	-10.3773
▁happening	-10.3775
▁armed	-10.3777
graph	-10.3778
▁owner	-10.3781
▁tomorrow	-10.3783
▁quiet	-10.3784
hir	-10.3787
▁roll	-10.3787
▁interpretation	-10.3802
▁noted	-10.3803
illa	-10.3804
▁circle	-10.3815
▁switch	-10.3815
▁comment	-10.3816
▁usual	-10.3818
ivity	-10.3818
▁Che	-10.3818
▁enhance	-10.3821
▁Gha	-10.3831
▁widely	-10.3835
▁Start	-10.3842
▁destination	-10.3847
▁violent	-10.3847
some	-10.3856
▁edge	-10.3857
▁afford	-10.3857
avi	-10.3858
▁ST	-10.3858
▁Gora	-10.3859
▁comprise	-10.3863
ight	-10.3866
▁Du	-10.3866
▁legs	-10.3867
▁leg	-10.3868
▁threat	-10.3868
▁celebrated	-10.3868
▁Regional	-10.3871
▁tribunal	-10.3879
▁Yet	-10.3882
▁dog	-10.3886
▁argument	-10.3895
▁mar	-10.3895
▁irrigation	-10.3895
▁appoint	-10.3896
▁participate	-10.3898
nam	-10.3899
▁El	-10.3904
▁subscribe	-10.3908
▁Ambedkar	-10.391
▁ocean	-10.3911
table	-10.3911
ect	-10.3911
▁remarkable	-10.3913
len	-10.3919
▁prominent	-10.3926
▁motor	-10.3928
▁papers	-10.3929
▁trained	-10.3932
▁talking	-10.3932
tent	-10.3936
ky	-10.3936
▁significance	-10.3942
▁Bench	-10.3943
▁thick	-10.3943
ire	-10.3943
▁taught	-10.3948
▁Companies	-10.3959
▁input	-10.3961
▁blow	-10.3963
▁educated	-10.3963
▁controlled	-10.3965
▁viz	-10.3968
▁cor	-10.3973
▁aforesaid	-10.3975
▁dealt	-10.3981
▁crowd	-10.3982
▁se	-10.3988
▁subsequent	-10.3988
▁twelve	-10.3991
▁bail	-10.3994
pect	-10.4006
▁valuable	-10.4007
▁voluntary	-10.4007
▁permitted	-10.4008
▁forget	-10.401
▁Ran	-10.4012
▁Committees	-10.4016
▁Vir	-10.4021
▁herself	-10.4023
▁harmony	-10.4023
▁Gra	-10.4034
▁pick	-10.4035
▁bond	-10.4039
▁universe	-10.4039
▁plaintiff	-10.4039
▁trading	-10.4039
▁transmission	-10.4039
▁Prasad	-10.404
ese	-10.404
▁implement	-10.4042
▁chosen	-10.4043
▁destruction	-10.4055
▁grew	-10.4055
▁conversion	-10.4056
her	-10.4062
▁attacks	-10.4069
▁fifteen	-10.4072
▁Russia	-10.4074
▁guilty	-10.4075
▁roads	-10.4076
aw	-10.4076
aging	-10.408
▁load	-10.4084
tel	-10.4085
▁representatives	-10.4087
RO	-10.409
car	-10.4093
pra	-10.4094
▁Mohan	-10.4096
▁delivered	-10.4099
fin	-10.41
▁yourself	-10.4104
▁domain	-10.4104
work	-10.4107
my	-10.4112
eration	-10.4116
▁spend	-10.4117
▁Registration	-10.412
▁evident	-10.412
▁roof	-10.4121
▁manage	-10.4125
ties	-10.4125
▁settings	-10.4127
▁possess	-10.4129
▁boat	-10.4134
▁Later	-10.4137
AC	-10.4137
▁digital	-10.4138
ress	-10.4143
▁forests	-10.4147
▁progressive	-10.415
▁Dh	-10.4151
▁southern	-10.4153
▁contrary	-10.4154
▁Earth	-10.4158
▁UK	-10.4162
▁arrangements	-10.4163
▁drawing	-10.4164
sar	-10.4168
▁productivity	-10.417
▁deposits	-10.4171
▁walls	-10.4176
▁exceed	-10.4176
DR	-10.4178
▁Sikh	-10.4185
▁push	-10.419
▁recovery	-10.4196
▁Prem	-10.4199
▁holds	-10.4202
worm	-10.4203
▁reaction	-10.4213
▁Hav	-10.4214
▁emotional	-10.4215
▁consisting	-10.4215
▁soldiers	-10.4218
▁equity	-10.4219
▁Road	-10.4222
▁wear	-10.4223
▁Comment	-10.423
▁Kolkata	-10.4235
▁radical	-10.4236
▁ones	-10.4236
nda	-10.4238
cious	-10.4239
▁Province	-10.4242
▁dynamic	-10.4258
▁insect	-10.4263
▁Being	-10.4264
▁operative	-10.4265
▁Apart	-10.4266
▁stages	-10.4268
▁depth	-10.4269
▁chargeable	-10.427
▁transformation	-10.4273
▁Gram	-10.4276
▁theme	-10.4279
HA	-10.428
▁litigation	-10.4285
▁mid	-10.4289
▁broken	-10.4292
▁founded	-10.4293
▁ego	-10.4294
▁Indo	-10.4294
▁offering	-10.4295
EM	-10.4302
▁wound	-10.4303
▁stick	-10.4303
▁des	-10.4304
▁leaf	-10.4316
▁possibility	-10.4318
ms	-10.4319
rit	-10.4319
▁fluid	-10.432
▁Australia	-10.4324
▁backward	-10.4325
▁Legal	-10.4326
under	-10.4335
accompanied	-10.4335
▁infinite	-10.4335
▁Annual	-10.4335
▁Chinese	-10.4335
▁trans	-10.4343
▁Will	-10.4343
▁numerous	-10.4352
▁cons	-10.4354
▁refused	-10.4361
▁ban	-10.4363
▁continuous	-10.4366
wn	-10.4367
▁br	-10.4372
▁begins	-10.4372
▁acceptance	-10.4373
▁Pat	-10.4376
▁Prof	-10.4379
rang	-10.4385
▁familiar	-10.4385
if	-10.4385
▁Fe	-10.4386
▁fruits	-10.439
fully	-10.4395
▁reader	-10.44
▁bottom	-10.4402
▁click	-10.4404
▁distinct	-10.4406
raja	-10.4407
LA	-10.4415
▁egg	-10.4417
▁Chrome	-10.4419
▁discussions	-10.4433
▁unre	-10.4435
▁thereby	-10.4435
▁temporary	-10.4436
▁sentiment	-10.4436
▁Britain	-10.4436
▁stress	-10.4443
▁guard	-10.4461
ola	-10.4467
▁satisfaction	-10.4469
anda	-10.447
▁eternal	-10.4471
▁Nagar	-10.4474
▁Final	-10.4474
▁park	-10.4476
lab	-10.4479
pri	-10.448
▁excellence	-10.4486
▁newspaper	-10.4493
▁multiply	-10.4503
gri	-10.4504
▁Hari	-10.4508
▁pound	-10.4509
ancy	-10.452
▁corporation	-10.452
▁meetings	-10.4527
▁essentially	-10.4527
▁arise	-10.4528
MS	-10.4528
▁waiting	-10.4532
▁excess	-10.4534
▁introduction	-10.4537
▁solutions	-10.4546
▁writings	-10.455
▁extreme	-10.4553
▁specially	-10.4553
▁Himachal	-10.4554
▁assembly	-10.4554
▁France	-10.4555
▁audio	-10.4555
▁download	-10.4557
pho	-10.4559
▁gradually	-10.456
bin	-10.456
AB	-10.4566
▁undertake	-10.4568
ET	-10.4568
▁faculty	-10.4571
ray	-10.4572
▁securities	-10.4572
yan	-10.4572
kal	-10.4579
zz	-10.4583
▁occupation	-10.4588
▁wholly	-10.4589
▁consist	-10.459
▁detail	-10.4592
▁authorised	-10.4592
had	-10.4592
bit	-10.4593
▁arch	-10.4594
▁Asian	-10.4595
▁fulfil	-10.4601
▁departments	-10.4603
▁qualities	-10.4606
▁breast	-10.4606
▁employer	-10.4609
▁Ru	-10.4614
▁lit	-10.462
▁conferred	-10.4623
▁suddenly	-10.4624
▁achievement	-10.4625
▁custom	-10.4635
▁prince	-10.4636
▁messages	-10.4637
▁Last	-10.4637
▁Vedic	-10.464
▁millions	-10.4643
▁street	-10.4643
▁arm	-10.4644
▁rulers	-10.4646
CA	-10.465
parliamentary	-10.4651
▁investments	-10.4652
▁linked	-10.4653
▁advised	-10.4655
▁Wa	-10.4656
▁producing	-10.4657
name	-10.4667
▁Op	-10.4667
▁sick	-10.4672
▁opposite	-10.4674
▁cotton	-10.4674
▁weapons	-10.4675
rao	-10.4684
▁Ver	-10.4684
▁Make	-10.4689
reg	-10.4691
▁protest	-10.4692
▁Class	-10.4692
▁manufacture	-10.4697
▁visual	-10.4709
▁meal	-10.4714
▁Mah	-10.4714
▁hall	-10.4716
▁button	-10.4716
▁corner	-10.4721
▁recognize	-10.4722
▁resort	-10.4726
▁accordingly	-10.473
▁largely	-10.4732
▁leads	-10.4737
▁component	-10.4742
▁categories	-10.4744
▁http	-10.4744
▁dependent	-10.4747
SP	-10.4753
▁cease	-10.4757
▁elephant	-10.4759
▁encouraged	-10.476
▁terminal	-10.4762
▁verses	-10.4763
▁forwarded	-10.4763
ef	-10.4763
AD	-10.4769
vas	-10.4772
▁legislature	-10.4778
▁goals	-10.4779
▁Labour	-10.4779
ank	-10.4782
▁ensur	-10.4795
▁bi	-10.4795
▁Universities	-10.4796
▁teeth	-10.4796
▁Turkey	-10.4796
▁Master	-10.4798
▁gods	-10.4803
▁ring	-10.4805
eb	-10.4807
▁escape	-10.481
▁du	-10.4812
▁currently	-10.4812
▁illegal	-10.4813
▁architecture	-10.4814
▁admit	-10.483
▁Certificate	-10.4831
▁northern	-10.4831
port	-10.4835
▁interaction	-10.4837
▁menu	-10.484
▁teach	-10.484
ological	-10.4847
▁Cabinet	-10.4848
▁Innovation	-10.4848
▁assess	-10.4854
▁suggestion	-10.4854
▁amendments	-10.4855
▁claimed	-10.4858
▁ran	-10.4861
▁carefully	-10.4863
▁fort	-10.4865
▁circuit	-10.4866
▁strategic	-10.4866
▁symptoms	-10.4866
▁consequences	-10.4866
▁components	-10.4868
▁German	-10.487
▁resident	-10.4871
CR	-10.4872
OP	-10.4872
▁pray	-10.4874
rap	-10.4874
▁rose	-10.4876
era	-10.4882
▁tour	-10.4883
▁abnormal	-10.4884
▁node	-10.4887
▁sudden	-10.49
▁le	-10.4901
▁monitor	-10.4907
▁drinking	-10.491
▁invited	-10.4916
▁Gita	-10.4917
NS	-10.4918
▁gross	-10.4919
▁directory	-10.492
▁technological	-10.492
▁seat	-10.4922
▁quarter	-10.4925
▁rid	-10.4929
▁launch	-10.4934
▁confined	-10.4941
▁cancer	-10.4942
▁disabled	-10.4946
▁icon	-10.4946
▁exactly	-10.495
▁Hi	-10.4953
▁declaration	-10.4954
▁Ku	-10.4958
▁eastern	-10.4964
TI	-10.4971
▁pra	-10.4979
cho	-10.4979
▁collect	-10.498
▁dangerous	-10.4984
▁dignity	-10.499
▁unknown	-10.499
▁despite	-10.4992
▁mistake	-10.4994
▁transform	-10.4996
CH	-10.4996
▁knows	-10.5
EL	-10.5004
▁Sometimes	-10.5008
▁blind	-10.5021
fr	-10.5024
cor	-10.5024
▁writ	-10.5026
▁incurred	-10.5026
▁stopped	-10.5027
ches	-10.5027
▁print	-10.5029
▁cry	-10.5031
des	-10.5032
▁ear	-10.5036
lli	-10.5038
oph	-10.5043
▁valley	-10.5043
▁font	-10.5044
▁feelings	-10.5044
The	-10.5047
▁distributed	-10.5048
comp	-10.5051
▁fever	-10.5053
▁qua	-10.5054
lay	-10.5061
▁Appellate	-10.5061
▁PRODUCT	-10.5061
▁White	-10.5061
▁subordinate	-10.5062
▁atomic	-10.5062
▁epic	-10.5062
char	-10.5066
▁grave	-10.5069
▁Sat	-10.5071
nes	-10.5072
▁ga	-10.5073
hari	-10.5075
▁Egypt	-10.5076
▁causing	-10.5079
▁genetic	-10.5086
▁proposals	-10.5087
▁City	-10.5088
anta	-10.5096
▁empire	-10.5097
▁collaboration	-10.5101
▁recommendation	-10.5105
▁Trans	-10.5106
▁Due	-10.5107
▁boys	-10.5108
▁Je	-10.5109
▁Brahma	-10.511
▁Swa	-10.5115
▁eminent	-10.5115
▁profile	-10.5115
▁dust	-10.5116
▁relative	-10.5119
ode	-10.512
▁gland	-10.5122
▁excellent	-10.5133
▁tourism	-10.5136
▁images	-10.5137
▁palm	-10.5142
▁protein	-10.5151
▁Kingdom	-10.5152
▁Brahman	-10.5153
▁indicate	-10.5154
▁concerns	-10.5167
▁represented	-10.5167
▁Support	-10.517
▁sorrow	-10.517
▁interface	-10.517
▁realise	-10.517
▁Ramayana	-10.517
▁followers	-10.5176
▁beings	-10.5178
▁starts	-10.5178
▁inserted	-10.5179
▁NAME	-10.518
▁amp	-10.518
▁privilege	-10.5188
▁Work	-10.519
ON	-10.5197
▁recommend	-10.5201
▁discover	-10.5205
▁mixed	-10.5206
▁innovative	-10.5206
▁studied	-10.5206
▁widow	-10.5206
▁occurred	-10.5207
▁links	-10.5211
▁fa	-10.5214
▁tank	-10.5216
▁Banks	-10.5225
▁prejudice	-10.5225
▁Flag	-10.5227
til	-10.5229
▁Maharaja	-10.5235
▁obvious	-10.5242
▁lady	-10.5244
▁warrant	-10.5244
▁customs	-10.5246
▁plane	-10.5258
▁trend	-10.526
▁household	-10.5261
▁Number	-10.5262
kara	-10.5262
▁lac	-10.5262
▁seats	-10.5264
▁fighting	-10.5267
▁involves	-10.5269
▁march	-10.5272
vin	-10.5273
▁minute	-10.5276
▁holy	-10.5277
▁solid	-10.5279
▁spring	-10.5281
▁prison	-10.5281
uck	-10.5282
▁experiment	-10.5289
▁pull	-10.5293
▁yellow	-10.5297
▁dam	-10.5297
▁PC	-10.5304
▁taste	-10.5304
▁Ac	-10.5305
▁remind	-10.5309
▁pride	-10.5316
▁Lanka	-10.5316
▁neck	-10.5316
▁seeing	-10.5317
▁impression	-10.5321
▁technique	-10.5324
▁illness	-10.5325
ila	-10.5328
▁Saudi	-10.5335
nia	-10.5338
▁endeavour	-10.5343
▁commonly	-10.5344
uring	-10.5345
▁devices	-10.5347
DI	-10.5349
▁shaped	-10.535
▁secondary	-10.5352
▁proviso	-10.5353
▁buildings	-10.5354
▁traditions	-10.5356
▁meat	-10.5362
▁diversity	-10.5371
▁em	-10.5373
▁Mark	-10.5377
▁Good	-10.5387
▁impart	-10.539
▁Basava	-10.5392
hr	-10.5395
AP	-10.5399
back	-10.5404
for	-10.5406
▁faced	-10.5407
▁receiving	-10.5408
▁truly	-10.5409
▁rising	-10.5413
▁kg	-10.5415
▁percentage	-10.5415
▁ni	-10.5416
OL	-10.5421
▁row	-10.5421
▁Hinduism	-10.5424
▁automatically	-10.5427
nation	-10.5432
▁hero	-10.5441
lit	-10.5442
▁Import	-10.5443
▁Administrative	-10.5445
▁victory	-10.5445
yam	-10.5446
▁rejected	-10.5446
▁Mi	-10.5446
▁loose	-10.5446
▁internet	-10.5446
▁Direct	-10.545
▁managed	-10.5451
▁grand	-10.5454
▁shop	-10.5457
▁defeat	-10.5458
▁crores	-10.5463
▁survive	-10.5464
▁facing	-10.5464
▁diverse	-10.5465
▁tourist	-10.5467
▁semi	-10.5479
▁liberty	-10.5483
▁eve	-10.5485
ave	-10.5485
▁wage	-10.5485
▁strange	-10.549
bu	-10.5491
ought	-10.5496
▁Energy	-10.5501
▁NABARD	-10.5501
nga	-10.5502
▁dividend	-10.5503
▁incident	-10.5507
▁achievements	-10.5507
▁noise	-10.5514
▁sales	-10.5519
▁Gazette	-10.552
▁audience	-10.552
▁converted	-10.5521
ND	-10.5522
▁inform	-10.5526
▁fix	-10.5528
▁rear	-10.5529
▁manifest	-10.5531
▁tri	-10.5534
mate	-10.5535
▁sports	-10.5537
▁inclusive	-10.5539
▁wisdom	-10.5539
▁Os	-10.554
▁consult	-10.5543
▁peak	-10.5545
SC	-10.5545
rr	-10.5549
▁va	-10.5552
stra	-10.5556
▁Notwithstanding	-10.5558
▁licence	-10.5558
▁hurt	-10.556
▁IPC	-10.5564
je	-10.5566
▁realised	-10.5568
▁contributed	-10.5571
▁superior	-10.5573
▁tongue	-10.5577
mir	-10.5577
▁patients	-10.5578
▁peaceful	-10.5579
▁planet	-10.5581
▁avail	-10.559
▁Industries	-10.5596
▁raising	-10.5596
▁deceased	-10.5601
▁repeal	-10.5609
▁obligation	-10.5611
lex	-10.5615
▁ruling	-10.5615
▁index	-10.5615
▁greatly	-10.5619
१२	-10.5621
▁notified	-10.5622
▁Nor	-10.5623
▁Working	-10.5626
▁killing	-10.5626
TA	-10.5629
▁derivative	-10.5633
▁Money	-10.5635
▁define	-10.5635
▁catch	-10.5636
▁flight	-10.5636
▁Table	-10.5645
well	-10.5647
▁gap	-10.5648
▁Test	-10.5649
▁cluster	-10.5652
PC	-10.5657
▁dear	-10.5659
py	-10.5664
hra	-10.5666
▁Have	-10.5668
wo	-10.567
▁vis	-10.5671
▁Knowledge	-10.5672
▁movie	-10.5672
▁scholar	-10.5677
▁consumers	-10.5686
▁database	-10.5691
▁applies	-10.5691
▁urgent	-10.5691
▁childhood	-10.5693
▁reduction	-10.5694
▁saved	-10.5696
▁pieces	-10.5701
▁Devi	-10.5703
▁strengthening	-10.5706
▁www	-10.571
nar	-10.5711
▁salary	-10.5711
▁ne	-10.5712
▁furnish	-10.5715
▁examined	-10.5719
▁impose	-10.5725
▁aircraft	-10.573
▁Card	-10.5738
▁Goa	-10.5739
▁bin	-10.574
▁desired	-10.5741
▁indigenous	-10.5748
▁carbon	-10.5749
▁maintaining	-10.5749
dhar	-10.575
▁learnt	-10.5751
ations	-10.5753
▁Ten	-10.5755
ren	-10.5759
▁rank	-10.5762
▁vegetables	-10.5763
ily	-10.5779
▁candidates	-10.5784
▁Railway	-10.5784
▁cultivation	-10.5787
▁planned	-10.5789
hak	-10.579
▁dr	-10.5791
▁hills	-10.5802
▁closely	-10.5803
▁Administration	-10.5806
▁Governance	-10.5806
pertaining	-10.5807
▁mountains	-10.581
▁surrounding	-10.581
▁experts	-10.5815
gr	-10.5819
ela	-10.5819
▁falls	-10.582
▁Organization	-10.5826
▁Sector	-10.5828
▁Bas	-10.583
▁institutional	-10.5833
▁Online	-10.5834
▁servant	-10.5844
▁influenced	-10.5844
responsibilities	-10.5845
▁ceremony	-10.5845
▁instruction	-10.5845
una	-10.5845
verse	-10.5847
▁Sad	-10.5848
▁Jam	-10.5849
▁dramatic	-10.5852
▁printed	-10.5854
▁mad	-10.5862
▁Create	-10.5864
▁primarily	-10.5864
▁Search	-10.5864
▁decree	-10.5864
bur	-10.5865
▁appeals	-10.5867
▁Look	-10.5868
▁Comp	-10.587
most	-10.5872
cap	-10.5877
▁lamp	-10.5877
lal	-10.5879
▁CA	-10.5881
▁Global	-10.5883
▁hence	-10.5885
▁ties	-10.5886
▁via	-10.5892
▁poly	-10.5892
▁signs	-10.5893
▁partners	-10.5894
▁Help	-10.5895
late	-10.5899
▁custody	-10.5903
▁cattle	-10.5904
▁owned	-10.5908
medi	-10.591
▁characteristic	-10.5916
▁therein	-10.5919
▁Port	-10.5922
▁George	-10.5922
▁naturally	-10.5926
▁stored	-10.5934
net	-10.5936
▁abuse	-10.5939
▁artificial	-10.5942
▁muscle	-10.5943
▁Pur	-10.5946
▁lu	-10.595
▁magic	-10.5951
▁opposed	-10.5951
▁older	-10.5955
▁pipes	-10.5956
▁utter	-10.5962
owing	-10.5962
▁lift	-10.5963
▁Death	-10.5965
▁Arabic	-10.5974
▁ends	-10.5978
▁Organisation	-10.5981
▁expiry	-10.5981
▁typical	-10.5981
▁extract	-10.5982
▁Loan	-10.5982
▁suggestions	-10.5983
▁asking	-10.5983
thy	-10.5989
ero	-10.5993
▁imagine	-10.5999
▁insurer	-10.6001
▁Officers	-10.6007
▁coast	-10.601
▁uniform	-10.6018
▁algorithm	-10.6021
▁Agricultural	-10.6021
▁equation	-10.6024
gy	-10.6027
▁PR	-10.603
▁accord	-10.6031
ena	-10.6036
▁intervention	-10.6041
▁entity	-10.6042
▁sharing	-10.6042
▁corruption	-10.6043
▁praise	-10.6045
▁supposed	-10.6047
▁limitation	-10.6053
▁amend	-10.6054
old	-10.6059
house	-10.6062
▁discovered	-10.6068
pha	-10.6069
rup	-10.6078
▁attended	-10.6078
▁Marathi	-10.608
▁completion	-10.608
▁virtual	-10.608
▁Nar	-10.6081
▁rational	-10.6083
▁fold	-10.6086
▁ID	-10.6092
room	-10.6096
▁bow	-10.6097
▁Mahabharata	-10.6098
▁Perhaps	-10.61
▁equivalent	-10.61
▁replied	-10.61
▁Obama	-10.61
▁resolve	-10.6102
▁burn	-10.6108
qua	-10.6111
▁Trust	-10.6116
▁listed	-10.6116
▁twice	-10.612
▁duration	-10.6121
▁caught	-10.6122
▁trace	-10.6122
place	-10.6129
▁Date	-10.6138
▁television	-10.614
▁vimana	-10.614
▁brothers	-10.6141
▁jobs	-10.6153
▁rendered	-10.6157
▁Professor	-10.616
▁societies	-10.616
▁silent	-10.616
▁stuff	-10.616
iva	-10.6162
▁revolutionary	-10.6165
▁photograph	-10.6168
▁arranged	-10.6172
▁genuine	-10.618
▁attachment	-10.6183
▁hotel	-10.6184
▁alive	-10.6186
▁totally	-10.6188
wise	-10.6196
▁differ	-10.6198
▁emerged	-10.6199
▁generate	-10.6199
▁discretion	-10.62
▁predict	-10.62
▁shock	-10.62
▁congratulate	-10.62
▁sensitive	-10.6201
▁keen	-10.6201
▁driver	-10.6202
▁Indira	-10.6203
▁player	-10.6203
▁plot	-10.6203
▁collective	-10.6205
rad	-10.6205
▁Punjabi	-10.621
▁handle	-10.6214
▁forced	-10.6214
▁Hu	-10.6218
▁Muhammad	-10.622
▁Ben	-10.6226
▁Ban	-10.6227
▁Defence	-10.6241
▁besides	-10.6242
▁forty	-10.6251
▁forth	-10.6257
▁framed	-10.6258
▁integrity	-10.626
▁Persons	-10.6261
▁Green	-10.6263
hri	-10.6265
▁spoken	-10.6267
▁Kh	-10.6272
pre	-10.6272
▁testing	-10.6277
ages	-10.6279
▁Municipal	-10.6281
▁properties	-10.6282
▁Zone	-10.6284
▁invest	-10.6293
▁TV	-10.6294
▁disc	-10.6296
▁statements	-10.63
▁imagination	-10.6301
mic	-10.6305
▁Rao	-10.6311
▁passion	-10.6312
▁aside	-10.6312
▁Save	-10.6314
▁printer	-10.632
pla	-10.632
▁Empire	-10.6321
fu	-10.6327
▁thereafter	-10.6328
▁options	-10.6335
vy	-10.6335
tas	-10.6339
▁emerging	-10.6342
▁empty	-10.6342
▁oriented	-10.6342
▁wheel	-10.6342
▁View	-10.6343
▁enforcement	-10.6344
▁realize	-10.6345
▁editor	-10.6349
IA	-10.6353
▁regularly	-10.6355
▁extensive	-10.6364
II	-10.6366
▁Ji	-10.6369
▁willing	-10.637
ata	-10.6385
▁Bharati	-10.6388
▁specifically	-10.639
▁Nath	-10.6395
▁summer	-10.6406
gin	-10.6407
not	-10.6407
ending	-10.6407
▁Dev	-10.6409
▁Mur	-10.6414
▁earned	-10.6419
▁ruled	-10.6423
▁decline	-10.6424
▁wheat	-10.6424
▁Oh	-10.6425
meter	-10.6427
▁novels	-10.6427
▁beach	-10.6428
▁rapidly	-10.6429
▁clothes	-10.6434
▁techniques	-10.6435
dom	-10.6437
▁license	-10.644
▁sequence	-10.6444
chieving	-10.6444
▁amounts	-10.6445
▁Tr	-10.6452
▁putting	-10.6457
▁Five	-10.6458
▁sha	-10.6461
▁theatre	-10.6468
▁towns	-10.6474
don	-10.6475
BI	-10.6478
▁assume	-10.6485
▁parallel	-10.6485
▁prefer	-10.6486
▁peasant	-10.6486
▁displayed	-10.6489
▁acc	-10.6496
▁Access	-10.6499
▁Fort	-10.6502
▁outcome	-10.6506
▁Love	-10.6507
▁residence	-10.6507
▁glad	-10.6508
▁pond	-10.6508
▁engine	-10.6511
▁enhanced	-10.6513
▁ended	-10.6514
▁constantly	-10.6516
▁operational	-10.6516
▁cloud	-10.6517
▁monitoring	-10.6521
mor	-10.6524
▁thin	-10.6525
▁implementing	-10.6526
▁royal	-10.6526
▁tremendous	-10.6527
▁presentation	-10.6529
▁Baba	-10.6531
agon	-10.6532
▁transportation	-10.6536
▁expert	-10.6537
nk	-10.6545
▁organism	-10.6546
▁Investment	-10.6548
▁routine	-10.6548
▁Computer	-10.6548
▁noble	-10.6548
pan	-10.6548
▁marry	-10.655
▁translated	-10.655
▁constructed	-10.6551
endra	-10.6553
▁mailing	-10.6556
▁fly	-10.6558
▁CD	-10.6564
▁inspiration	-10.6566
▁declare	-10.6567
▁structures	-10.6569
▁estate	-10.6569
▁indicated	-10.6572
▁bold	-10.6575
▁referr	-10.6579
▁ki	-10.6584
▁Gur	-10.6588
▁entrusted	-10.6589
▁suicide	-10.659
OC	-10.6593
garh	-10.6598
▁corresponding	-10.6607
▁Soviet	-10.661
▁Haryana	-10.6611
▁nest	-10.6612
▁programs	-10.6615
▁reli	-10.6616
▁defend	-10.6619
▁Mag	-10.6629
▁courses	-10.6631
▁islands	-10.6631
▁replaced	-10.6639
▁bills	-10.6639
▁sons	-10.6641
▁organisms	-10.6641
▁gui	-10.6642
▁combined	-10.6645
▁Interest	-10.6645
▁disorder	-10.6645
hin	-10.6646
▁satisfy	-10.6652
▁Dar	-10.6653
▁Fr	-10.6653
१३	-10.6657
▁perfection	-10.666
▁enterprises	-10.6661
▁depending	-10.6663
▁covers	-10.6667
dis	-10.6668
▁Rai	-10.6668
ets	-10.667
▁marks	-10.6673
▁Consumer	-10.6673
▁surrender	-10.6673
▁patent	-10.6674
▁paragraph	-10.6674
▁historic	-10.668
▁objection	-10.6682
▁Ge	-10.6682
uda	-10.6685
▁exceeding	-10.6692
▁Sucharita	-10.6694
▁Question	-10.6694
▁ministers	-10.6695
▁Review	-10.6696
▁contrast	-10.6697
▁burning	-10.6703
flow	-10.6715
▁appreciate	-10.6716
▁acquire	-10.6716
ora	-10.6729
yo	-10.673
▁grain	-10.6731
▁Kal	-10.6732
▁complaints	-10.6732
▁mine	-10.6733
▁stretch	-10.6737
▁Check	-10.6738
▁concerning	-10.6739
▁worker	-10.6741
▁slowly	-10.6744
chandra	-10.6746
cc	-10.6751
▁wing	-10.6752
TS	-10.6753
▁library	-10.6758
▁worse	-10.6758
▁resistance	-10.6759
▁Local	-10.6759
PL	-10.6763
▁experiences	-10.6765
▁Cho	-10.6766
Z	-10.677
▁organs	-10.6771
▁Current	-10.6779
▁snow	-10.678
▁Canada	-10.6781
▁ultimate	-10.6782
▁Bush	-10.6783
▁roots	-10.6786
▁Region	-10.679
▁ideals	-10.6791
bhai	-10.6793
ort	-10.6794
▁Durga	-10.6801
▁sites	-10.6805
▁inspection	-10.6805
▁delight	-10.6807
▁native	-10.6808
▁selling	-10.6824
▁elder	-10.6825
▁sixty	-10.6829
▁Forest	-10.6829
▁Engineering	-10.6843
▁everywhere	-10.6845
▁Tan	-10.6849
ENT	-10.6849
▁Gi	-10.6855
▁Key	-10.6858
▁auto	-10.6858
▁forum	-10.6858
▁stem	-10.6859
pot	-10.6862
▁calling	-10.6865
▁Jewish	-10.6865
▁beneficial	-10.6865
▁worry	-10.6865
▁....	-10.6865
rc	-10.6867
▁winter	-10.6868
▁somebody	-10.6875
▁factory	-10.6876
▁newspapers	-10.6877
teen	-10.6879
▁Inde	-10.688
▁Additional	-10.6886
▁Majesty	-10.6886
▁innocent	-10.6886
▁Three	-10.6887
ories	-10.6892
▁pest	-10.6907
▁Speech	-10.6908
▁aggregate	-10.6908
▁comments	-10.691
▁habit	-10.6915
lessness	-10.6918
▁arrive	-10.692
right	-10.6922
▁Chennai	-10.693
▁Welfare	-10.693
▁earliest	-10.693
lia	-10.693
▁Click	-10.6933
head	-10.6939
▁surround	-10.6947
▁tab	-10.6948
▁Leprosy	-10.6951
▁crucial	-10.6951
▁Em	-10.6953
mus	-10.6953
▁ob	-10.6956
▁Accounts	-10.6957
▁mix	-10.6958
eous	-10.6964
▁sustained	-10.6965
▁eating	-10.6965
Q	-10.6966
▁Hall	-10.6974
▁necessarily	-10.698
▁parliament	-10.6981
▁executed	-10.6982
last	-10.6989
FC	-10.6989
▁destroyed	-10.699
ez	-10.6991
▁batsman	-10.6995
▁silk	-10.6998
▁duly	-10.6999
ome	-10.7001
▁Agra	-10.701
▁competitive	-10.7012
▁Ash	-10.7014
▁situations	-10.7016
▁overcome	-10.7016
▁delete	-10.7017
tech	-10.7028
▁marriages	-10.7029
gro	-10.7036
▁composition	-10.7038
▁elaborate	-10.7038
▁pack	-10.7038
▁Smt	-10.7038
▁label	-10.7039
cast	-10.704
▁wages	-10.7048
▁tract	-10.705
IR	-10.7058
▁poison	-10.7059
▁consequence	-10.706
▁requested	-10.706
▁radiation	-10.7061
▁beat	-10.7063
▁graduate	-10.7064
ori	-10.7064
▁uncle	-10.7069
por	-10.7069
▁Young	-10.707
rant	-10.7075
LI	-10.708
▁terror	-10.708
▁lakhs	-10.708
▁regulation	-10.7082
▁deserve	-10.7082
▁varied	-10.7083
▁ruler	-10.7084
▁exploitation	-10.7085
▁falling	-10.7091
▁Govt	-10.7104
▁dialogue	-10.7104
▁cooperative	-10.7106
▁evolved	-10.7116
riya	-10.7116
craft	-10.7119
▁reject	-10.7122
hen	-10.7124
▁cancel	-10.7126
▁yesterday	-10.7126
▁alleged	-10.7126
▁heaven	-10.7126
▁Iranian	-10.7131
oth	-10.7132
▁Mad	-10.7142
▁prayer	-10.7142
lp	-10.7148
▁copies	-10.7148
▁chair	-10.7148
▁awards	-10.715
▁Anti	-10.715
IP	-10.7151
▁prompt	-10.7152
fall	-10.7155
ret	-10.7155
▁turning	-10.7155
▁Bills	-10.7158
▁administrator	-10.717
▁healthcare	-10.7171
▁package	-10.7173
tam	-10.7174
▁generations	-10.7176
▁incorporated	-10.7177
▁observe	-10.7178
▁violation	-10.7178
▁wings	-10.718
▁Var	-10.7181
▁arises	-10.7184
▁Software	-10.7192
▁commodities	-10.7192
▁vitamin	-10.7192
▁spell	-10.7199
▁protected	-10.7201
dan	-10.7201
▁Ms	-10.7206
▁Take	-10.7207
▁considering	-10.7208
▁serving	-10.7214
▁conservation	-10.7215
▁intense	-10.7215
▁models	-10.7216
▁RBI	-10.7219
▁Jag	-10.7224
▁MP	-10.7226
▁User	-10.7228
▁sphere	-10.7234
▁satellite	-10.7237
▁laugh	-10.7237
▁schedule	-10.7238
▁Temple	-10.7239
▁busy	-10.7239
▁wave	-10.724
▁installation	-10.7245
▁Action	-10.7245
▁comp	-10.7247
▁degrees	-10.725
▁refuse	-10.7258
▁configuration	-10.7259
▁Truth	-10.7259
▁denied	-10.7259
▁emerge	-10.726
▁exclusive	-10.7263
▁Play	-10.7266
▁Pu	-10.7268
▁weakness	-10.7268
▁ICT	-10.727
▁geographical	-10.7273
▁Get	-10.7277
dev	-10.7278
▁repeated	-10.7278
▁scheduled	-10.728
▁monthly	-10.7281
▁computers	-10.7281
▁attain	-10.7281
num	-10.7281
▁territories	-10.7282
▁decimal	-10.7282
▁Nothing	-10.7282
▁brave	-10.7283
▁generated	-10.7283
▁def	-10.7283
▁grade	-10.7292
▁recover	-10.7296
ida	-10.7297
everal	-10.7298
▁organic	-10.7298
▁farming	-10.7301
▁Washington	-10.7304
▁disaster	-10.7304
▁Bangalore	-10.7304
▁Panchayat	-10.7304
▁Foundation	-10.7305
▁submission	-10.7306
tus	-10.7308
▁taxes	-10.7308
▁shut	-10.7308
▁obligations	-10.731
cra	-10.7311
dig	-10.7313
▁Bad	-10.7313
▁Case	-10.7321
▁score	-10.7321
▁Benefit	-10.7326
▁injured	-10.7326
mun	-10.7327
▁miles	-10.7327
EA	-10.7327
▁calm	-10.7329
▁client	-10.7332
▁formulation	-10.7333
▁devoted	-10.7333
UL	-10.7333
unk	-10.7335
▁Za	-10.7336
▁USA	-10.7338
▁heads	-10.7345
▁enormous	-10.7349
▁Moreover	-10.735
▁Penal	-10.7352
gle	-10.7355
uous	-10.736
▁AT	-10.7361
▁Shar	-10.7363
▁DAY	-10.7363
▁succeeded	-10.737
▁pump	-10.7372
▁Abdul	-10.7372
utosh	-10.7372
▁Issue	-10.7372
▁Type	-10.7373
▁breach	-10.7383
stan	-10.7384
▁Give	-10.7385
▁Forum	-10.7388
▁entrepreneurs	-10.7389
▁profound	-10.7394
▁Regulation	-10.74
eri	-10.7406
▁outlook	-10.7417
▁perspective	-10.7417
▁allegation	-10.7417
▁carries	-10.7418
lf	-10.742
▁expand	-10.7421
▁furnished	-10.7423
▁IIT	-10.7425
▁Chi	-10.7425
ons	-10.7427
▁partial	-10.7427
tting	-10.7431
▁shell	-10.7432
lon	-10.7433
▁ultimately	-10.7437
▁afraid	-10.744
▁biggest	-10.744
▁discrimination	-10.744
▁Japanese	-10.744
▁pace	-10.7442
▁stars	-10.7447
▁reveal	-10.7448
▁feeding	-10.745
▁readers	-10.7451
▁travell	-10.7453
▁deduct	-10.7456
▁tail	-10.7458
▁qu	-10.746
▁financing	-10.7462
▁Allahabad	-10.7463
▁bigger	-10.7464
EX	-10.7466
▁ordered	-10.7467
▁formula	-10.7471
▁ending	-10.7471
▁flu	-10.7477
▁hidden	-10.7485
▁eleven	-10.7485
▁silence	-10.7485
▁guest	-10.7485
▁Times	-10.749
▁stations	-10.749
▁realisation	-10.7491
▁fun	-10.7492
eshwar	-10.7493
▁frequently	-10.7499
▁substituted	-10.7502
being	-10.7503
▁pig	-10.7506
▁smooth	-10.7508
▁Sheikh	-10.7508
▁stability	-10.7509
▁noticed	-10.7511
▁attracted	-10.7514
▁lying	-10.7514
udi	-10.7515
▁shot	-10.7515
▁drum	-10.7517
CT	-10.7526
▁gun	-10.7532
▁helping	-10.7532
▁Copy	-10.7533
bhu	-10.7534
▁hide	-10.7535
▁Hand	-10.7538
▁MSME	-10.7539
▁levi	-10.754
stat	-10.7543
▁Auto	-10.755
▁William	-10.7554
▁judgement	-10.756
▁maybe	-10.7569
rk	-10.7574
▁CHAPTER	-10.7577
▁calendar	-10.7577
▁inherent	-10.7577
▁retired	-10.7583
▁Kama	-10.7584
asi	-10.7585
▁assured	-10.7591
▁convention	-10.7596
EE	-10.7598
▁African	-10.7599
▁Private	-10.76
▁silver	-10.76
▁describe	-10.7601
▁Ve	-10.7601
▁Planning	-10.7602
▁belongs	-10.7607
▁Ray	-10.7609
yard	-10.7609
▁hundreds	-10.762
▁varieties	-10.7623
▁bacteria	-10.7626
▁pool	-10.7626
▁highlight	-10.7628
▁younger	-10.7633
▁ritual	-10.7633
▁classical	-10.7639
eep	-10.7641
▁Page	-10.7642
▁Text	-10.7647
▁genus	-10.7647
▁apparent	-10.7651
▁Mahal	-10.7654
PR	-10.7658
▁institute	-10.7659
▁holder	-10.766
▁Accordingly	-10.7666
▁Telugu	-10.767
▁Short	-10.767
▁governed	-10.767
▁Record	-10.7671
▁punishable	-10.7673
bil	-10.768
▁plain	-10.7683
▁exercised	-10.7685
aught	-10.7686
law	-10.7689
▁recording	-10.7693
▁revision	-10.7693
▁Topics	-10.7693
▁render	-10.7696
▁cutting	-10.7699
▁Canno	-10.7703
▁deity	-10.7708
▁Hy	-10.7709
▁bearing	-10.7713
▁pregnancy	-10.7716
▁virus	-10.7717
▁vehicles	-10.7725
▁lawyers	-10.7731
▁tape	-10.7732
▁Cell	-10.7732
▁mono	-10.7733
▁Main	-10.7734
▁relatives	-10.7734
lation	-10.7734
▁merit	-10.7736
▁musical	-10.7737
▁Indra	-10.7737
▁characteristics	-10.774
▁browser	-10.774
▁easier	-10.774
▁tribute	-10.774
▁intimate	-10.774
▁Rate	-10.7748
ench	-10.7754
rab	-10.7755
▁Saha	-10.7757
▁lease	-10.7758
own	-10.7761
▁protocol	-10.7763
▁thread	-10.7764
▁Recommendation	-10.7764
▁fail	-10.7764
▁mood	-10.7766
▁Us	-10.777
▁performing	-10.7771
▁preach	-10.7778
ifying	-10.7781
▁channels	-10.7782
▁farmer	-10.7783
▁Agreement	-10.7787
▁Sessions	-10.7787
▁Thank	-10.7788
▁pledge	-10.7788
▁Major	-10.7791
▁Ed	-10.7791
▁Light	-10.7794
▁Gir	-10.7795
▁withdrawal	-10.7797
press	-10.7799
▁gate	-10.78
▁Himalayas	-10.7802
▁tasks	-10.7802
▁fairly	-10.7803
▁sending	-10.7803
▁App	-10.7804
▁replace	-10.7806
bid	-10.7812
oy	-10.7814
CL	-10.7822
▁closer	-10.7828
▁tip	-10.783
▁extraordinary	-10.7834
▁integration	-10.7834
▁reducing	-10.7834
▁sanctioned	-10.7835
▁preferred	-10.7835
▁precious	-10.7836
▁bas	-10.7836
▁newly	-10.7839
ock	-10.7839
ks	-10.7841
ase	-10.7843
▁resist	-10.7848
gn	-10.7848
▁regards	-10.7853
▁Nav	-10.7855
▁gained	-10.7856
▁axis	-10.7862
off	-10.7865
link	-10.7874
ific	-10.7876
▁entertain	-10.7878
appa	-10.7879
▁remedy	-10.7882
▁Again	-10.7887
▁Process	-10.7891
▁saint	-10.7896
▁borrower	-10.7897
▁pillars	-10.7899
▁maha	-10.7899
shan	-10.7905
▁Pension	-10.7906
▁representing	-10.7909
▁gathered	-10.7909
▁exclud	-10.7928
ima	-10.7928
▁admission	-10.7929
▁Center	-10.7929
▁slope	-10.7931
▁preference	-10.7931
▁Gen	-10.7933
▁settle	-10.7936
▁prop	-10.7939
▁experienced	-10.7941
▁pit	-10.7947
▁strongly	-10.7948
▁mat	-10.795
▁identification	-10.7953
▁anywhere	-10.7963
▁Institutions	-10.7964
▁Ap	-10.7966
▁Lu	-10.7967
▁Nanak	-10.7967
ibility	-10.7968
▁marginal	-10.7969
▁appreciation	-10.7977
▁daniel	-10.7977
▁entrance	-10.7977
▁necessity	-10.7977
▁perception	-10.7977
▁Prevention	-10.7977
▁Display	-10.7977
▁Greek	-10.7977
▁Entry	-10.7978
operative	-10.7978
FA	-10.7995
eer	-10.7998
ua	-10.7998
cri	-10.7999
wat	-10.8
▁Bahadur	-10.8001
▁ticket	-10.8001
▁fraction	-10.8001
▁functional	-10.8003
▁acceptable	-10.8003
▁modified	-10.8004
▁excessive	-10.8005
▁seriously	-10.8008
list	-10.8011
▁metres	-10.8012
▁tooth	-10.8014
▁reward	-10.8022
fect	-10.8022
▁magazine	-10.8025
▁repost	-10.8026
▁acute	-10.8027
▁clock	-10.8028
▁Personal	-10.8029
▁adoption	-10.8034
▁oral	-10.8035
▁norms	-10.8038
▁News	-10.804
▁compassion	-10.8048
clo	-10.8048
▁Family	-10.8049
▁conversation	-10.8049
▁pretty	-10.8049
▁brown	-10.805
low	-10.8054
▁definite	-10.8055
▁united	-10.806
▁ice	-10.806
▁castes	-10.8068
▁usage	-10.8069
▁secular	-10.8072
▁climb	-10.8074
▁programming	-10.8074
▁AD	-10.8074
▁regulate	-10.8077
१४	-10.8081
▁Pr	-10.8083
ched	-10.8084
rig	-10.8086
ric	-10.8086
▁wider	-10.8086
▁affection	-10.8087
▁preserve	-10.8089
▁Netaji	-10.8098
▁mould	-10.8098
▁Command	-10.8098
▁interview	-10.8099
▁scar	-10.81
▁engagement	-10.8103
▁enjoyed	-10.8105
▁Wi	-10.811
▁Islands	-10.8112
▁VI	-10.8116
▁reserve	-10.812
▁ownership	-10.8124
▁commit	-10.8125
▁Verma	-10.8127
▁Sindhi	-10.8127
▁Char	-10.8132
▁Log	-10.8132
▁pour	-10.8135
book	-10.8137
▁impress	-10.8139
▁revealed	-10.8144
▁fifth	-10.8147
▁resembl	-10.8147
▁Bhutan	-10.8147
hur	-10.8152
▁homes	-10.8152
▁darkness	-10.8157
▁Bri	-10.8158
iti	-10.8161
▁Pune	-10.8167
▁references	-10.817
▁shelter	-10.8171
▁nationalist	-10.8172
▁convicted	-10.8174
▁conventional	-10.8176
down	-10.818
▁increasingly	-10.8181
▁establishing	-10.8187
▁contents	-10.8187
▁BY	-10.8192
bre	-10.8193
▁engage	-10.8194
ami	-10.8195
▁delegation	-10.8196
▁genius	-10.8196
▁servants	-10.8197
▁Hol	-10.8201
▁recall	-10.8201
vara	-10.8207
▁walking	-10.8213
▁attempts	-10.8214
▁returns	-10.8218
▁somewhat	-10.822
▁variable	-10.822
▁assumed	-10.8221
rin	-10.8222
▁EVE	-10.8222
▁lock	-10.8223
▁ruin	-10.8227
▁golden	-10.8228
▁sheep	-10.8232
wit	-10.8236
ira	-10.8244
▁chamber	-10.8245
▁alter	-10.8247
load	-10.8247
▁IV	-10.8251
VI	-10.8252
duct	-10.8252
▁partly	-10.8252
▁villagers	-10.8253
▁Manipur	-10.8255
▁cure	-10.8265
▁supplement	-10.8267
▁compulsory	-10.8269
▁driving	-10.8269
▁mechanical	-10.8269
▁harmful	-10.8273
▁unlike	-10.8273
▁enactment	-10.8274
▁invalid	-10.8275
▁plate	-10.8276
▁enquiry	-10.8279
▁dec	-10.828
ifi	-10.828
▁fulfill	-10.8281
pec	-10.8284
▁earn	-10.8285
lim	-10.829
▁Departments	-10.829
▁artist	-10.829
▁continuing	-10.8294
▁landlord	-10.8294
▁Third	-10.8294
▁inputs	-10.83
▁margin	-10.8303
▁Read	-10.8305
▁exp	-10.8313
▁bull	-10.8316
▁digit	-10.8317
▁enabling	-10.8319
▁encouraging	-10.8319
▁distress	-10.8319
▁Employment	-10.832
▁retirement	-10.832
▁MA	-10.8321
▁Present	-10.8321
▁faster	-10.8325
▁Media	-10.8326
▁imported	-10.8329
BA	-10.8335
ith	-10.8337
▁reflected	-10.8337
▁indicates	-10.8337
▁Badruddin	-10.8344
▁Lahore	-10.8344
▁litigant	-10.8344
▁premium	-10.8344
▁Valley	-10.8344
▁stomach	-10.8344
▁topic	-10.8345
▁bonds	-10.8345
▁Sind	-10.8345
▁Ag	-10.8345
▁Bhai	-10.8346
term	-10.8346
emia	-10.8347
▁fought	-10.8347
▁Paul	-10.8352
▁Super	-10.8353
▁restrictions	-10.8353
oa	-10.8354
vid	-10.8355
mind	-10.8356
RC	-10.8356
NT	-10.8357
▁agreements	-10.8357
bus	-10.8358
cid	-10.8359
▁exact	-10.8361
▁Bra	-10.8363
▁knowing	-10.8366
▁literacy	-10.8369
▁Instead	-10.8374
▁exception	-10.8375
▁Arm	-10.8377
▁doctors	-10.838
▁careful	-10.8386
▁Veda	-10.8387
▁pleased	-10.8389
▁reserved	-10.8391
▁remembered	-10.8392
▁Session	-10.8393
▁Line	-10.8394
▁circular	-10.8394
▁complicated	-10.8394
▁mankind	-10.8394
▁Natural	-10.8394
▁Airport	-10.8395
▁surprise	-10.8398
▁upgrade	-10.8398
▁eventually	-10.8399
TION	-10.8405
bon	-10.8406
ike	-10.8412
aimed	-10.8412
▁Ber	-10.8412
▁vs	-10.8414
▁faces	-10.8416
▁Common	-10.8421
▁Transfer	-10.8422
EP	-10.8422
▁pursue	-10.8423
DC	-10.8425
▁stayed	-10.8431
▁Edit	-10.8431
▁tells	-10.8432
MT	-10.8436
▁vary	-10.8437
▁decrease	-10.8444
▁Ganges	-10.8444
▁snake	-10.8444
▁surgery	-10.8445
▁saving	-10.8445
▁concentration	-10.8445
▁nose	-10.8448
▁advocate	-10.845
MO	-10.8456
tak	-10.8461
▁Star	-10.8462
▁gram	-10.8469
▁practitioner	-10.8469
▁Document	-10.8469
▁shadow	-10.8469
AK	-10.8469
worthy	-10.8475
▁massive	-10.8478
HI	-10.8479
has	-10.8481
▁institutes	-10.8483
▁camel	-10.8492
▁nervous	-10.8494
▁priest	-10.8495
▁Swaraj	-10.8497
▁vested	-10.8501
▁Payment	-10.8503
TER	-10.8506
▁Russian	-10.8516
▁compute	-10.8516
PS	-10.8518
rt	-10.8519
▁neighbour	-10.8519
▁allocation	-10.852
▁stones	-10.8523
▁introduce	-10.8524
ree	-10.8525
▁camera	-10.853
rai	-10.8531
TR	-10.8536
GA	-10.8536
ake	-10.8537
▁Bor	-10.8537
▁printing	-10.8538
▁aspirations	-10.8539
▁tall	-10.8541
▁Mus	-10.8541
▁Academy	-10.8545
▁lake	-10.8548
▁anger	-10.8551
ene	-10.8556
▁tourists	-10.8557
cat	-10.8557
inal	-10.8567
▁describes	-10.8567
▁recit	-10.8567
▁explanation	-10.8571
▁Branch	-10.8571
▁scholarship	-10.8572
▁logic	-10.8573
▁idol	-10.8575
▁fails	-10.8577
lock	-10.8582
CB	-10.8586
ku	-10.8586
▁produces	-10.8588
▁Print	-10.8589
ella	-10.8594
▁Bureau	-10.8596
▁comprising	-10.8596
▁Black	-10.8596
▁Han	-10.8605
rus	-10.8607
▁Sharma	-10.8611
hya	-10.8611
▁nodes	-10.8611
HO	-10.8614
▁Padma	-10.8618
yl	-10.8618
▁intellect	-10.8621
▁Bio	-10.8622
zar	-10.8622
▁Quality	-10.8622
▁disseminat	-10.8622
▁candidate	-10.8625
▁withdraw	-10.8626
▁compare	-10.8627
▁ju	-10.8632
▁Centres	-10.8634
script	-10.8634
▁warning	-10.8635
▁rat	-10.8637
app	-10.8639
▁Mir	-10.8641
▁Off	-10.8641
▁begun	-10.8647
▁merchant	-10.8647
▁refund	-10.8647
▁Kabir	-10.8649
▁nominated	-10.8653
DS	-10.8661
nan	-10.8662
▁accumulat	-10.8663
▁PRO	-10.8664
▁entering	-10.8664
bir	-10.8665
▁risks	-10.8667
▁Federal	-10.8673
▁compliment	-10.8673
▁mandatory	-10.8673
▁subsequently	-10.8677
▁ku	-10.8678
▁developments	-10.8679
▁invite	-10.868
uit	-10.868
bed	-10.8682
▁Plant	-10.8689
▁adults	-10.8695
▁firmly	-10.8699
▁Rani	-10.87
▁Promotion	-10.87
▁winning	-10.87
▁pursuit	-10.8701
▁bat	-10.8702
▁membership	-10.8707
▁repeat	-10.8707
▁loved	-10.871
▁Gujarati	-10.8718
▁Shankar	-10.872
▁Pay	-10.8721
▁instituted	-10.8722
▁treasure	-10.8725
▁stable	-10.8725
NG	-10.8729
SL	-10.8729
▁everybody	-10.873
▁pictures	-10.8734
vir	-10.8736
dir	-10.8737
▁glass	-10.8742
ender	-10.8744
▁Dha	-10.8745
▁comfort	-10.8745
lot	-10.8751
▁guess	-10.8751
▁Sahib	-10.8751
▁Video	-10.8751
▁Nation	-10.8751
▁infant	-10.8752
nna	-10.8753
▁Movement	-10.8754
▁reverse	-10.8756
▁empower	-10.8756
▁Market	-10.8761
▁increases	-10.877
dr	-10.8771
uni	-10.8775
▁filter	-10.8777
▁club	-10.8779
▁poll	-10.878
▁horn	-10.8783
matic	-10.8784
▁slightly	-10.8787
ndi	-10.8789
▁relates	-10.879
jit	-10.879
▁continent	-10.8791
▁mor	-10.8794
▁imports	-10.8795
▁Photo	-10.8795
▁embrace	-10.8803
▁fashion	-10.8803
▁stakeholders	-10.8803
▁tribes	-10.8804
rip	-10.8805
▁convinced	-10.8811
▁colleges	-10.8812
▁turns	-10.8812
can	-10.8813
rim	-10.8813
▁bowl	-10.8815
ony	-10.8817
▁observations	-10.8818
▁breed	-10.8819
▁handling	-10.8819
▁Communication	-10.8829
▁MESSAGE	-10.8829
▁Repeal	-10.8829
▁essence	-10.8829
▁desktop	-10.8829
win	-10.8829
▁driven	-10.8829
▁smoke	-10.883
▁arrival	-10.8832
▁disability	-10.8833
▁Four	-10.8834
kumar	-10.8836
▁hole	-10.8846
▁broke	-10.8848
ban	-10.8853
▁troops	-10.8855
▁elsewhere	-10.8855
▁broadcast	-10.8855
▁grace	-10.8857
key	-10.8861
▁Brahmin	-10.8864
▁Dur	-10.8866
▁Cal	-10.8876
erg	-10.8877
but	-10.8878
▁expanded	-10.8879
▁actively	-10.8881
▁Ministries	-10.8881
▁membrane	-10.8881
▁Jews	-10.8881
▁obviously	-10.8882
▁Ear	-10.8884
▁mystic	-10.8888
eh	-10.8892
CON	-10.89
▁bell	-10.8906
▁Next	-10.8907
▁Andaman	-10.8908
▁hardware	-10.8908
▁keyboard	-10.8909
▁separately	-10.891
▁tension	-10.8913
hand	-10.8915
▁speeches	-10.8917
▁Bhu	-10.8921
▁speedy	-10.8922
ipp	-10.8923
▁breeding	-10.8929
▁contacts	-10.8929
chand	-10.8932
▁oxygen	-10.8934
▁mixture	-10.8934
▁residential	-10.8936
▁coat	-10.8938
▁Cost	-10.8939
▁addresses	-10.8939
board	-10.8955
▁strain	-10.8957
▁peculiar	-10.896
▁knee	-10.8961
satisfactory	-10.8961
▁island	-10.8962
▁preceding	-10.8963
▁sustain	-10.8964
▁dreams	-10.8967
▁pursu	-10.8967
▁payments	-10.897
▁lawyer	-10.897
▁Long	-10.8973
abha	-10.8976
▁Windows	-10.8978
▁Author	-10.8982
ert	-10.8982
▁Age	-10.8984
vil	-10.8985
▁ignorance	-10.8987
▁sympathy	-10.8987
▁rehabilitation	-10.8988
▁san	-10.8988
▁adding	-10.8994
WA	-10.8994
ht	-10.8999
▁End	-10.8999
▁Contract	-10.9001
▁bug	-10.9002
▁struck	-10.9006
ope	-10.9008
pad	-10.9008
▁alcohol	-10.9013
▁supplied	-10.9013
▁employ	-10.9014
▁enrich	-10.9014
▁expertise	-10.9015
▁Point	-10.9015
▁india	-10.9015
▁governing	-10.9017
▁observation	-10.9027
▁premises	-10.9028
▁SE	-10.9038
▁cre	-10.9043
ok	-10.9043
▁Bhagat	-10.9045
unch	-10.9053
▁headed	-10.9055
▁Kala	-10.9057
▁vessels	-10.9059
▁recognise	-10.9062
▁occasions	-10.9062
▁Ocean	-10.9067
▁Queen	-10.9067
▁subtract	-10.9071
▁designated	-10.9071
AYS	-10.9076
▁mill	-10.9081
ential	-10.9084
ians	-10.9087
part	-10.9091
▁overseas	-10.9094
▁Modern	-10.9094
▁tiger	-10.9094
aga	-10.9097
▁leaflet	-10.9097
▁finished	-10.9099
▁Directorate	-10.9102
▁minority	-10.9103
stone	-10.911
▁originally	-10.9114
▁pin	-10.9115
▁Sale	-10.9117
▁Default	-10.912
▁compromise	-10.912
▁Machine	-10.9121
▁plastic	-10.9121
▁monetar	-10.9121
▁tendency	-10.9121
▁IPv	-10.9121
▁associate	-10.9127
▁harvest	-10.9127
posed	-10.9127
phal	-10.9131
SA	-10.9134
▁bears	-10.9138
▁assert	-10.9139
▁rush	-10.914
▁electric	-10.9141
▁Deposit	-10.9142
▁texts	-10.9144
lop	-10.9145
▁pioneer	-10.9147
▁relatively	-10.9148
▁answers	-10.9155
▁Solar	-10.9159
▁modification	-10.9161
▁narrat	-10.9169
▁Registrar	-10.9174
▁Technical	-10.9174
▁holiday	-10.9174
▁peoples	-10.9181
▁descend	-10.9187
▁Multi	-10.9196
▁Product	-10.9196
ST	-10.9198
▁contemplat	-10.9202
▁module	-10.9202
▁Space	-10.9202
▁jump	-10.9202
▁glory	-10.9203
▁quoted	-10.9207
▁terrorists	-10.9208
▁epi	-10.9208
▁Sec	-10.921
ain	-10.9211
▁advise	-10.9212
▁Oil	-10.9213
▁aged	-10.9216
▁Manager	-10.9221
▁Did	-10.9221
▁wonderful	-10.9221
▁mineral	-10.9221
▁Prince	-10.9226
▁subsidy	-10.9229
▁arguments	-10.9229
▁Transport	-10.9229
▁neuro	-10.9233
▁singing	-10.9233
oz	-10.9235
▁gathering	-10.9236
▁telling	-10.9237
▁Standards	-10.9237
nya	-10.9239
▁utilised	-10.9243
▁Resource	-10.9244
▁players	-10.9255
▁savings	-10.9256
▁Lucknow	-10.9256
▁pocket	-10.9256
▁tolerance	-10.9256
▁arrow	-10.9257
▁motive	-10.9257
▁mandate	-10.9262
▁attractive	-10.9262
▁propose	-10.9263
▁exhibit	-10.9267
▁Taj	-10.9268
▁involve	-10.9275
▁compliance	-10.9283
▁Citizen	-10.9283
▁imperialism	-10.9284
log	-10.9293
aksha	-10.9293
▁occupied	-10.9294
▁NI	-10.93
▁plea	-10.9305
▁Ven	-10.9308
▁enhancing	-10.9311
▁livelihood	-10.9311
▁phenomenon	-10.9311
▁dictat	-10.9312
▁determining	-10.9312
lore	-10.9313
▁Basic	-10.9314
▁assignment	-10.9316
▁adjustment	-10.9319
▁incidents	-10.9321
▁critic	-10.9329
▁succession	-10.9337
▁reputation	-10.9338
▁confer	-10.934
▁electrical	-10.9341
▁positions	-10.9343
hrew	-10.9344
▁instant	-10.9345
▁Himalayan	-10.9346
▁chest	-10.9347
▁concluded	-10.9347
rg	-10.9347
▁bag	-10.9351
▁Has	-10.9351
logy	-10.9351
▁Vedas	-10.9366
▁operator	-10.9366
▁approximately	-10.9372
▁agents	-10.9375
▁absolutely	-10.9376
▁Highway	-10.9378
▁rag	-10.938
▁productive	-10.9382
▁empowered	-10.9384
▁prevention	-10.9386
OM	-10.9391
▁legend	-10.9392
▁Revenue	-10.9393
▁immovable	-10.9393
▁Village	-10.9393
band	-10.9402
pore	-10.9404
▁Gar	-10.9411
ister	-10.9417
▁Appendix	-10.9421
▁Resolution	-10.9421
▁accommodation	-10.9422
▁binding	-10.9424
▁insight	-10.9426
▁kings	-10.9427
▁manual	-10.9431
▁feels	-10.9432
▁sets	-10.9434
▁tight	-10.9434
metric	-10.9434
▁focused	-10.9435
OI	-10.9436
ksha	-10.944
ii	-10.944
liness	-10.9441
▁Turk	-10.9448
▁intelligent	-10.9449
▁preliminar	-10.9449
▁sake	-10.9449
▁Environmental	-10.9449
wer	-10.9458
▁depict	-10.9461
▁Sil	-10.9462
▁bid	-10.9463
ously	-10.9464
RS	-10.9465
▁Standard	-10.9468
▁conceiv	-10.9471
▁conducting	-10.9476
▁Survey	-10.9477
▁commerce	-10.9477
▁doctrine	-10.9477
▁psychological	-10.9477
▁Agency	-10.9477
▁emission	-10.9478
▁distant	-10.9479
▁agenda	-10.948
▁revised	-10.9482
▁handed	-10.9483
▁breaking	-10.9484
avan	-10.9484
tale	-10.9489
rif	-10.9491
१५	-10.9495
▁ignored	-10.9497
▁Secretariat	-10.9505
▁mosque	-10.9505
hav	-10.9505
▁Term	-10.9506
▁Tal	-10.9507
▁involvement	-10.9508
lig	-10.9516
▁provider	-10.9518
▁UP	-10.952
▁Samaj	-10.9522
otic	-10.9532
vad	-10.9533
▁Minimum	-10.9533
▁mortgage	-10.9533
▁Senior	-10.9533
▁federal	-10.9533
▁dispens	-10.9533
▁quote	-10.9533
▁nearby	-10.9536
▁miss	-10.9548
▁participants	-10.9548
try	-10.9549
DO	-10.955
▁exclusively	-10.9556
▁trip	-10.9558
▁attained	-10.9559
▁Constituent	-10.9561
▁fond	-10.9561
ough	-10.9566
▁Ri	-10.9567
ux	-10.9568
▁Kali	-10.9573
▁reign	-10.9578
▁Tiru	-10.9579
▁Him	-10.9582
rom	-10.9584
▁DE	-10.9587
▁colonial	-10.9587
▁tons	-10.9588
▁Subject	-10.9589
▁IS	-10.959
rag	-10.959
▁qualified	-10.9591
▁Radio	-10.9591
▁fan	-10.9593
▁Koran	-10.9594
▁moderate	-10.9595
▁Area	-10.9604
terior	-10.9604
ksh	-10.9606
▁Kur	-10.9608
▁safeguard	-10.9611
tum	-10.9614
are	-10.9615
▁Sikkim	-10.9617
▁commodity	-10.9617
▁Dwarkanath	-10.9617
wl	-10.9618
▁estimate	-10.9618
▁Jai	-10.962
▁colleagues	-10.9622
▁professor	-10.9623
▁Patna	-10.9629
▁disappear	-10.963
▁discovery	-10.9638
▁bud	-10.9643
▁tune	-10.9644
▁Aurobindo	-10.9645
▁capabilities	-10.9645
▁Museum	-10.9645
▁Viceroy	-10.9645
▁Estate	-10.9646
▁Design	-10.9646
▁Gas	-10.9646
▁pop	-10.9647
rav	-10.9651
▁alien	-10.9654
▁Sch	-10.9655
▁goddess	-10.9666
▁lecture	-10.9669
▁missing	-10.9669
▁freely	-10.9669
▁NO	-10.9669
rust	-10.9673
▁destiny	-10.9674
▁inferior	-10.9674
▁companion	-10.9674
▁imperative	-10.9674
▁wake	-10.9677
▁reserves	-10.968
▁manifestation	-10.9686
▁angle	-10.9689
▁Status	-10.9702
▁dynasty	-10.9702
▁legitimate	-10.9702
▁wicket	-10.9702
▁Audio	-10.9703
▁drought	-10.9703
▁entries	-10.9703
▁Level	-10.9704
▁coin	-10.9704
▁inspire	-10.971
▁patterns	-10.9712
▁realized	-10.9712
▁actor	-10.9714
▁Christians	-10.9718
▁couldn	-10.972
▁Americans	-10.9722
ites	-10.9723
▁geo	-10.9731
▁conception	-10.9731
▁cult	-10.9731
▁arbitrator	-10.9731
▁Freedom	-10.9731
▁rendering	-10.9732
▁lord	-10.9732
▁exchanges	-10.9738
▁adverse	-10.9741
▁separated	-10.9746
▁Kam	-10.9748
gni	-10.9756
dem	-10.9757
▁NATIONAL	-10.976
▁enemies	-10.976
ket	-10.976
▁attraction	-10.9762
▁personally	-10.9762
MENT	-10.9763
▁attacked	-10.9763
tries	-10.9764
▁agro	-10.9767
▁hearts	-10.9773
▁Move	-10.9774
▁Total	-10.9774
apped	-10.9776
▁experiments	-10.9776
space	-10.9779
▁Ob	-10.9785
▁Chancellor	-10.9788
▁Commerce	-10.9788
▁Integrated	-10.9788
▁boost	-10.9788
mati	-10.979
singh	-10.9792
gged	-10.9794
▁elect	-10.9795
▁balanced	-10.9795
▁trick	-10.9796
▁substitute	-10.9796
▁restricted	-10.9796
▁compell	-10.9797
▁Amar	-10.9799
▁tenant	-10.9801
▁consistent	-10.9802
▁Model	-10.9807
CO	-10.9812
▁cup	-10.9813
▁separation	-10.9817
▁preparing	-10.9817
▁torture	-10.9818
▁storm	-10.9818
▁conclude	-10.9818
▁insert	-10.982
ema	-10.9821
▁blame	-10.9824
▁Roman	-10.9828
▁mining	-10.9829
▁strict	-10.9832
pala	-10.9833
▁logical	-10.9839
▁Protocol	-10.9846
▁museum	-10.9846
▁mud	-10.9847
▁Singles	-10.9848
long	-10.9848
▁bones	-10.9849
▁allied	-10.985
▁repealed	-10.9854
▁interpret	-10.9855
top	-10.9864
▁acted	-10.9864
CS	-10.9871
▁vice	-10.9871
ele	-10.9872
▁Rabindranath	-10.9875
▁communications	-10.9875
▁riot	-10.9876
▁Cap	-10.9876
▁streams	-10.9876
▁Railways	-10.9878
▁Mat	-10.9878
▁Quran	-10.9879
▁networks	-10.9883
▁keeps	-10.9883
▁Er	-10.989
far	-10.9893
▁avoided	-10.9894
▁exceeds	-10.9895
cular	-10.9902
run	-10.9902
ware	-10.9904
▁Examination	-10.9904
▁Radhakrishnan	-10.9904
▁Political	-10.9904
▁measurement	-10.9904
▁Arabs	-10.9905
▁brand	-10.9906
▁vertical	-10.9908
fulness	-10.9911
▁Pass	-10.9911
▁genes	-10.9912
▁Care	-10.9914
▁Disable	-10.992
▁MW	-10.9924
▁Soon	-10.9924
▁weapon	-10.9933
▁mirror	-10.9933
▁pupil	-10.9933
▁foster	-10.9933
▁Malayalam	-10.9933
▁Patel	-10.9944
pend	-10.9946
▁Grant	-10.9946
▁Full	-10.9948
▁Back	-10.9948
▁machines	-10.9952
▁helpful	-10.9956
▁limitations	-10.996
▁desirable	-10.9962
▁monsoon	-10.9962
▁Should	-10.9963
▁anxious	-10.9963
▁insult	-10.9963
▁Bho	-10.9963
vit	-10.9969
▁bought	-10.9969
LS	-10.997
▁AC	-10.9972
bat	-10.9973
para	-10.9978
east	-10.9981
▁dismissed	-10.9988
▁windows	-10.9989
tala	-10.9989
▁Abdullah	-10.9992
▁Spirit	-10.9992
▁abstract	-10.9992
▁Budget	-10.9992
▁romantic	-10.9992
▁Lake	-10.9992
▁signature	-10.9992
bro	-10.9993
▁liberation	-10.9996
▁nice	-11.0001
ense	-11.0006
▁distinguish	-11.0007
▁plains	-11.0008
▁bri	-11.0009
▁Sara	-11.0014
▁Gal	-11.0017
▁deleted	-11.002
▁Emperor	-11.0021
▁inevitable	-11.0021
▁Cooperative	-11.0023
▁sail	-11.0025
tem	-11.0026
▁boot	-11.0028
▁persist	-11.003
MP	-11.0035
▁Real	-11.0036
nc	-11.0039
▁innovations	-11.0042
▁viewed	-11.0044
▁Clause	-11.0051
▁Allowance	-11.0052
▁smart	-11.0052
▁dominate	-11.0052
▁Audit	-11.0053
erry	-11.0053
▁manpower	-11.0054
▁guy	-11.0054
▁imm	-11.0056
ae	-11.006
▁Call	-11.0061
hook	-11.0062
▁tiny	-11.0063
eng	-11.0066
▁sur	-11.007
ney	-11.0071
▁fed	-11.0072
▁sport	-11.0075
▁lending	-11.0079
▁AS	-11.008
▁behavior	-11.008
▁Dharma	-11.0081
▁Sankara	-11.0081
▁segment	-11.0082
▁nut	-11.0085
▁ignore	-11.0088
▁Band	-11.0091
odi	-11.0093
▁films	-11.0093
▁Tool	-11.0094
TO	-11.0097
adha	-11.0098
▁Sikhs	-11.0099
▁mount	-11.0105
▁negotiat	-11.0109
▁Ayurveda	-11.011
▁Festival	-11.011
▁Library	-11.011
▁reservation	-11.011
▁Mac	-11.0114
▁strip	-11.0114
▁skilled	-11.0118
▁tests	-11.0122
▁gene	-11.0124
▁Dal	-11.0134
▁approaches	-11.0135
▁NIT	-11.0135
▁prisoners	-11.0137
▁controversy	-11.014
▁width	-11.014
▁cadre	-11.014
▁kidney	-11.014
▁paddy	-11.014
▁Guard	-11.0142
▁habits	-11.0144
▁Moh	-11.0144
▁Old	-11.0145
▁Mas	-11.0146
▁wire	-11.0147
▁grains	-11.0148
▁Mode	-11.0153
GE	-11.0157
▁grievances	-11.0158
▁Cur	-11.0159
▁Invalid	-11.016
▁violat	-11.016
▁Program	-11.0163
miss	-11.0165
▁Palestine	-11.017
▁incomplete	-11.017
▁scenario	-11.017
▁supramental	-11.017
▁Urban	-11.017
▁philosophical	-11.017
▁flourish	-11.017
▁reiterat	-11.0171
▁Advocate	-11.0173
▁judgments	-11.0173
▁penis	-11.0175
air	-11.0175
water	-11.0183
ees	-11.0188
▁celebrate	-11.019
▁robot	-11.0194
▁rot	-11.0196
▁van	-11.0197
▁Pacific	-11.02
▁pitch	-11.0201
▁arts	-11.0202
▁Vidya	-11.0205
▁substances	-11.0205
▁gov	-11.0207
tya	-11.0208
▁frequent	-11.0211
▁detect	-11.0212
ison	-11.0213
▁humble	-11.0216
▁developmental	-11.0218
▁addressing	-11.0219
▁Narayan	-11.0222
rana	-11.0226
uv	-11.0226
▁Nicobar	-11.023
▁hatred	-11.023
▁transmitted	-11.0231
▁Indus	-11.0231
▁Turkish	-11.0232
▁Enter	-11.0236
och	-11.0237
▁deeper	-11.0239
▁exposed	-11.024
▁initially	-11.0245
SM	-11.0245
▁indirectly	-11.0247
▁magnetic	-11.0255
een	-11.0259
▁Yojana	-11.026
▁delegate	-11.026
▁indication	-11.026
▁Link	-11.0261
▁bulk	-11.0261
TP	-11.0268
▁collecting	-11.028
▁enables	-11.0283
▁Aryan	-11.0284
▁goat	-11.0285
▁tissues	-11.0286
▁borne	-11.0288
▁muscles	-11.0289
▁bamboo	-11.029
▁enthusiasm	-11.029
▁monument	-11.029
▁sounds	-11.0291
▁Win	-11.0292
▁enclos	-11.0292
▁enforce	-11.0296
▁interim	-11.0299
▁flying	-11.03
▁substantially	-11.0303
▁Ek	-11.0307
▁temper	-11.0309
▁Shan	-11.031
▁Forces	-11.0311
ook	-11.0312
▁suits	-11.0312
▁chemicals	-11.0314
▁Arabia	-11.0315
▁canal	-11.0316
print	-11.032
▁Corporate	-11.032
▁concrete	-11.032
▁neighbor	-11.032
▁specimen	-11.032
▁transparency	-11.032
▁casual	-11.032
▁anybody	-11.032
▁Kun	-11.0323
▁demonstration	-11.0325
▁Pol	-11.0325
▁guru	-11.0326
▁insist	-11.0334
▁exhibition	-11.0338
▁Articles	-11.0345
▁Ananda	-11.0347
▁losses	-11.0349
▁split	-11.035
▁possibly	-11.0351
▁summary	-11.0351
▁Federation	-11.0351
▁accru	-11.0352
fusion	-11.0353
▁posts	-11.0353
▁Royal	-11.0354
▁suggests	-11.0354
▁simultaneously	-11.0357
▁void	-11.0358
▁adjust	-11.0377
▁hydro	-11.0381
▁dedication	-11.0381
▁Northern	-11.0381
▁contest	-11.0381
▁crude	-11.0382
▁shout	-11.0382
▁Bhag	-11.0384
▁strive	-11.0385
▁linguistic	-11.0386
▁bore	-11.0392
RT	-11.0392
▁curve	-11.0392
▁edition	-11.0395
▁countrymen	-11.0396
▁cord	-11.0396
▁fulfilled	-11.0406
▁Hamachi	-11.0412
▁persuade	-11.0412
▁dev	-11.0412
▁Muk	-11.0412
hila	-11.0414
▁cooking	-11.0415
▁shareholders	-11.0419
▁Ham	-11.0422
▁mut	-11.0424
▁writes	-11.0431
take	-11.0434
▁mango	-11.0437
▁Van	-11.0442
▁Vietnam	-11.0442
▁divorce	-11.0442
▁pregnant	-11.0442
▁seizure	-11.0442
▁transparent	-11.0442
▁intensity	-11.0442
▁fibre	-11.0442
▁crystal	-11.0443
▁remark	-11.0446
▁Appeals	-11.0449
▁Menon	-11.0451
▁laying	-11.0455
▁Oc	-11.0456
▁incentives	-11.0458
▁Whatever	-11.0459
▁Connect	-11.0463
city	-11.0463
▁commenc	-11.0469
▁advances	-11.047
eli	-11.0471
▁coloured	-11.0472
▁Constitutional	-11.0473
▁transmit	-11.0473
▁appellate	-11.0473
▁assurance	-11.0473
▁brilliant	-11.0473
▁economies	-11.0473
▁thrust	-11.0473
▁interference	-11.0474
▁Collector	-11.0476
▁recruitment	-11.0476
▁gall	-11.048
▁mature	-11.0482
▁tied	-11.0484
SION	-11.0485
▁shortage	-11.0485
▁ram	-11.0492
AY	-11.0495
▁streets	-11.0498
chy	-11.0502
▁Mala	-11.0503
▁prisoner	-11.0503
▁Jordan	-11.0504
▁earthquake	-11.0504
▁powder	-11.0504
▁prevalent	-11.0504
▁honor	-11.0504
▁toward	-11.0508
▁envisaged	-11.0509
▁statute	-11.0514
▁Dutt	-11.0516
▁funding	-11.0516
▁strengthened	-11.0519
bel	-11.0523
▁treaty	-11.053
mur	-11.0531
▁Rec	-11.0531
▁Send	-11.0532
bh	-11.0533
▁cultures	-11.0534
▁anniversary	-11.0535
▁irrespective	-11.0535
▁sensation	-11.0535
▁interfere	-11.0535
▁Terrorism	-11.0536
▁Father	-11.0536
▁UT	-11.0539
▁favourite	-11.054
▁accessible	-11.0541
▁offender	-11.0542
▁outward	-11.0545
bble	-11.0547
▁assessed	-11.0549
more	-11.0553
ken	-11.0556
▁buyer	-11.0561
▁secured	-11.0561
▁waters	-11.0563
▁revolt	-11.0566
▁Mohammed	-11.0566
▁smell	-11.0566
▁......	-11.0566
elecommunication	-11.0569
▁nationalism	-11.0571
SU	-11.0571
▁ji	-11.0576
tory	-11.058
▁spreading	-11.0584
uz	-11.0586
▁socialist	-11.0587
▁shoulder	-11.0587
▁inaugurated	-11.0588
▁accounting	-11.059
▁flows	-11.0592
ogen	-11.0593
▁pet	-11.0596
▁expensive	-11.0597
▁Arunachal	-11.0597
▁inflation	-11.0597
▁Azad	-11.0597
▁alarm	-11.0597
▁Price	-11.0598
▁Territories	-11.0598
▁discount	-11.0598
economic	-11.0599
like	-11.06
▁considerably	-11.0601
▁Div	-11.0604
▁coverage	-11.0604
scope	-11.0605
loom	-11.0606
▁ports	-11.0606
rama	-11.0608
▁withdrawn	-11.061
▁ease	-11.0615
kka	-11.062
▁coll	-11.062
▁railways	-11.0625
▁nurse	-11.0627
▁Mobile	-11.0628
▁Regulator	-11.0628
HAN	-11.0629
▁eighteen	-11.0629
▁purity	-11.063
▁hunger	-11.0635
▁twin	-11.0638
▁Paris	-11.064
lice	-11.064
▁rough	-11.0642
▁subtle	-11.0645
▁absorb	-11.0648
▁shade	-11.065
▁Sufi	-11.065
desh	-11.0658
▁Animal	-11.066
▁Manilal	-11.066
▁rainfall	-11.066
▁dawn	-11.0661
▁beetle	-11.0661
anti	-11.0662
DM	-11.0663
▁Hamas	-11.0663
▁eliminate	-11.0668
▁Building	-11.0669
▁cm	-11.0669
▁Nas	-11.0672
▁Bur	-11.0672
▁slip	-11.0672
▁Island	-11.0676
lv	-11.0676
▁IP	-11.0677
▁Iraqi	-11.0679
▁Poly	-11.0681
▁participat	-11.0686
▁Cricket	-11.0691
▁Evolution	-11.0691
▁Territory	-11.0691
▁phrase	-11.0691
▁Consider	-11.0691
▁voting	-11.0692
▁honey	-11.0692
▁David	-11.0692
▁managing	-11.0699
▁creates	-11.0701
▁Had	-11.0701
▁studying	-11.0703
▁shops	-11.0703
▁dollar	-11.0705
leg	-11.071
count	-11.0712
cut	-11.0714
une	-11.0719
▁Details	-11.0723
▁parasite	-11.0723
reaching	-11.0724
▁tears	-11.0733
FI	-11.0738
▁PO	-11.0744
▁rein	-11.0748
▁seller	-11.0751
▁constituent	-11.0754
▁plantation	-11.0758
▁odd	-11.0759
▁Far	-11.076
vat	-11.0761
▁lion	-11.0761
▁smile	-11.0765
▁capture	-11.0766
▁adapt	-11.0767
▁Satya	-11.0776
▁advancement	-11.0778
▁answered	-11.0778
▁festivals	-11.0779
▁SRI	-11.0781
▁drag	-11.0784
▁SHRI	-11.0786
▁Tilak	-11.0786
▁intensive	-11.0787
▁Delete	-11.0787
▁successor	-11.079
▁basically	-11.0794
▁tap	-11.0799
▁allowing	-11.0799
▁str	-11.08
▁disposed	-11.08
▁reactor	-11.0806
UN	-11.0806
▁suspect	-11.0806
cher	-11.0807
▁affecting	-11.081
gram	-11.081
uch	-11.0811
▁particulars	-11.0811
▁bread	-11.0816
▁automatic	-11.0817
▁Buddhism	-11.0818
▁Revolution	-11.0818
▁municipal	-11.0818
▁statistics	-11.0818
▁ascertain	-11.0818
▁utility	-11.0818
▁challenged	-11.0819
▁Golden	-11.0821
oldest	-11.0824
▁Within	-11.0828
▁publications	-11.0829
▁visits	-11.0829
▁connections	-11.083
▁indirect	-11.0831
▁exceptional	-11.0833
▁formulated	-11.0834
▁artistic	-11.0836
▁cheap	-11.0837
▁१६	-11.0839
▁cri	-11.0842
▁compos	-11.0842
▁Gopal	-11.0843
▁gentle	-11.0847
▁Recovery	-11.085
▁immortal	-11.085
▁Tribes	-11.085
▁doors	-11.085
▁Fig	-11.0852
▁Gold	-11.0855
▁forming	-11.0856
▁nearest	-11.0862
devi	-11.0872
▁plead	-11.0873
▁fate	-11.0877
▁reflection	-11.0879
▁Jerusalem	-11.0882
▁Journal	-11.0882
▁liabilities	-11.0882
▁surgical	-11.0882
▁NIOS	-11.0882
▁Operation	-11.0883
▁enc	-11.0887
▁Secondary	-11.0889
▁beliefs	-11.089
him	-11.0896
▁alia	-11.0902
wad	-11.0906
▁significantly	-11.0906
▁responses	-11.0908
TC	-11.0911
▁Commonwealth	-11.0914
▁Lakshmi	-11.0914
▁condolence	-11.0914
▁maturity	-11.0914
▁Almast	-11.0914
▁retail	-11.0914
▁adventure	-11.0915
▁Charter	-11.0917
▁bride	-11.0919
▁ko	-11.0919
ital	-11.0923
oor	-11.0935
ATE	-11.0939
▁matches	-11.0941
▁PM	-11.0943
tant	-11.0945
charge	-11.0946
▁Lolita	-11.0946
▁Message	-11.0946
▁bliss	-11.0947
US	-11.0947
anga	-11.0947
▁comparison	-11.0947
▁Choose	-11.0947
▁queen	-11.0948
▁fourteen	-11.095
▁complain	-11.095
zo	-11.0951
▁Net	-11.0956
▁cater	-11.0957
rh	-11.0958
▁witnessed	-11.0963
▁lesser	-11.0965
▁penal	-11.097
charya	-11.0971
▁resid	-11.0975
iga	-11.0977
▁Ahmed	-11.0979
▁encounter	-11.0979
▁stipulat	-11.0979
▁Housing	-11.0979
▁drew	-11.098
▁connecting	-11.0981
▁painting	-11.0981
khar	-11.0986
path	-11.0989
TT	-11.099
▁Conduct	-11.099
equi	-11.099
▁chronic	-11.0994
▁Bel	-11.0995
▁exploit	-11.0997
▁sample	-11.1001
▁touched	-11.1001
lets	-11.1003
▁comply	-11.1007
pin	-11.1008
rophy	-11.1009
▁Digital	-11.1011
▁altogether	-11.1011
▁notwithstanding	-11.1011
allotted	-11.1012
▁prize	-11.1012
▁Shakti	-11.1012
▁transition	-11.1015
▁Shu	-11.102
▁rebel	-11.102
▁Best	-11.1023
▁clouds	-11.1026
▁crossing	-11.1031
▁rope	-11.104
▁diabetes	-11.1044
▁generating	-11.1044
▁magistrate	-11.1044
▁angry	-11.1044
▁Vijay	-11.1045
▁terrible	-11.1046
▁crush	-11.1047
▁deposited	-11.1051
▁Mand	-11.1053
▁demanded	-11.1053
rop	-11.1054
maker	-11.1054
vari	-11.1061
▁attach	-11.1062
pathy	-11.1065
▁NE	-11.1068
▁resign	-11.1073
▁linkages	-11.1073
▁describ	-11.1074
RY	-11.1075
▁Kittur	-11.1076
▁frequency	-11.1076
▁episode	-11.1076
▁biological	-11.1077
▁crack	-11.1078
▁gender	-11.1079
▁plugin	-11.1079
▁oath	-11.108
▁bitter	-11.1084
bol	-11.1086
▁upset	-11.1086
connect	-11.1101
hold	-11.1103
AA	-11.1108
DE	-11.1109
▁Infrastructure	-11.1109
▁Studies	-11.1109
▁Yusuf	-11.1109
▁Word	-11.1109
▁proceeds	-11.111
▁apple	-11.1111
▁pilgrimage	-11.1112
▁evaluation	-11.1112
▁civilisation	-11.1116
mination	-11.1119
lla	-11.112
gad	-11.1121
▁respondents	-11.1129
▁guided	-11.1129
itu	-11.1129
trop	-11.1132
quir	-11.1135
ature	-11.1136
point	-11.1138
▁affidavit	-11.1142
▁procedural	-11.1142
pura	-11.1143
▁Value	-11.1143
▁Normal	-11.1144
▁Korea	-11.1145
▁rail	-11.1147
▁jute	-11.1147
▁Radha	-11.115
▁crimes	-11.1152
▁Path	-11.1168
▁Bat	-11.1169
▁Sign	-11.1171
▁Imp	-11.1173
▁previously	-11.1174
▁inflammation	-11.1175
▁quantities	-11.1175
▁cavity	-11.1175
▁occupy	-11.1175
▁inclusion	-11.1175
▁explore	-11.1176
▁rival	-11.1176
▁Extension	-11.1176
▁Prize	-11.1176
▁Ref	-11.1178
▁narrative	-11.1178
▁vein	-11.1179
▁regulatory	-11.118
▁Station	-11.118
▁Oriya	-11.1181
▁restraint	-11.1185
col	-11.1186
▁Deva	-11.1187
▁Tea	-11.1188
▁invad	-11.1188
itch	-11.1192
▁watching	-11.12
▁Chhattisgarh	-11.1208
▁GDP	-11.1208
▁Hospital	-11.1208
▁Wikipedia	-11.1208
▁criteria	-11.1208
▁unusual	-11.1208
▁departure	-11.1209
▁grammar	-11.1209
▁intend	-11.121
▁remov	-11.1211
▁elephants	-11.1211
▁Hind	-11.1212
RM	-11.1213
ural	-11.1214
▁Judiciary	-11.1218
▁exemption	-11.1219
▁hub	-11.1221
tract	-11.1221
▁hyper	-11.1223
▁shoot	-11.1224
amba	-11.123
▁Ty	-11.1234
▁Leader	-11.1236
▁recovered	-11.1239
▁vaccine	-11.1241
▁fortune	-11.1242
▁sword	-11.1243
▁capability	-11.1243
▁blend	-11.1244
▁Directors	-11.1247
▁Tra	-11.1248
▁outline	-11.1249
arian	-11.1252
▁hang	-11.1257
▁ISO	-11.1261
▁videos	-11.1264
▁Color	-11.1267
▁kids	-11.1268
corn	-11.1269
▁whi	-11.1269
▁Chalukya	-11.1275
▁Register	-11.1275
▁coconut	-11.1275
▁coffee	-11.1275
▁militant	-11.1275
▁testimony	-11.1275
▁vexatious	-11.1275
▁Standing	-11.1275
▁Image	-11.1275
▁Kannada	-11.1276
▁mini	-11.1283
iff	-11.1292
▁controlling	-11.1298
▁scientist	-11.13
▁Enterprises	-11.1302
▁journal	-11.1302
▁Cat	-11.1303
▁publish	-11.1305
▁undergo	-11.1306
PO	-11.1306
▁Processing	-11.1308
▁dominant	-11.1308
▁ascetic	-11.1308
▁rescue	-11.1309
▁trait	-11.1309
▁Rajput	-11.131
▁administered	-11.1314
▁RTI	-11.1314
▁combine	-11.1321
▁dollars	-11.1328
RU	-11.1329
▁gang	-11.1341
▁Singapore	-11.1342
▁worst	-11.1342
spread	-11.1342
▁Hill	-11.1342
▁PDF	-11.1345
ayya	-11.1345
▁continuously	-11.1346
▁Egyptian	-11.1348
yu	-11.1349
▁Om	-11.1351
▁tag	-11.1353
▁validity	-11.1353
▁fallen	-11.1356
EST	-11.136
▁ap	-11.1361
pen	-11.137
▁flowing	-11.1373
▁instinct	-11.1375
▁philosopher	-11.1375
ref	-11.1376
▁confusion	-11.1377
▁Staff	-11.1377
▁Consultation	-11.1378
▁classification	-11.138
▁midst	-11.1381
▁Birth	-11.1382
▁medicines	-11.1383
▁glo	-11.1384
▁crafts	-11.1386
▁passengers	-11.1386
▁Acts	-11.1387
▁hindi	-11.1388
▁hire	-11.1388
▁opt	-11.1389
scribed	-11.1396
▁Relat	-11.1401
▁Appeal	-11.1403
▁translate	-11.1403
▁Banking	-11.1403
▁edit	-11.1404
vati	-11.1407
▁painful	-11.1408
▁Contact	-11.1409
▁Property	-11.1409
▁exposure	-11.1409
▁substantive	-11.1409
▁conceal	-11.1409
▁negotiations	-11.141
itude	-11.1412
▁lesson	-11.1413
▁Kanpur	-11.1416
gur	-11.1416
▁SA	-11.1417
ule	-11.1422
▁demon	-11.1423
▁z	-11.1425
▁equals	-11.1426
▁Shiv	-11.1427
▁ornament	-11.1434
▁Nam	-11.1436
▁journalist	-11.1438
▁ears	-11.1441
▁volunteer	-11.1443
▁carrier	-11.1443
▁disturbance	-11.1444
▁residents	-11.1449
▁games	-11.146
▁Amount	-11.146
cover	-11.1462
rie	-11.1463
ache	-11.1467
shah	-11.1468
▁Sim	-11.1468
▁rarely	-11.1468
read	-11.1471
▁rupee	-11.1472
aha	-11.1473
▁dowry	-11.1477
▁Return	-11.1477
▁agitation	-11.1477
▁aesthetic	-11.1477
▁flesh	-11.1477
▁Summit	-11.1478
▁Garden	-11.1478
▁meters	-11.1478
▁classified	-11.148
chal	-11.1482
▁limb	-11.1483
▁notion	-11.1483
▁Socialist	-11.1485
▁factories	-11.1486
▁Cri	-11.1495
▁Europeans	-11.1496
▁restrict	-11.1497
▁stake	-11.15
▁specialist	-11.1502
▁mechanisms	-11.1504
uj	-11.1504
▁Along	-11.1505
TRA	-11.1505
SD	-11.1506
▁grants	-11.1508
▁intestine	-11.1511
▁nominee	-11.1511
▁convenient	-11.1512
▁constructive	-11.1514
ude	-11.1514
▁threatened	-11.1516
▁sq	-11.1518
uli	-11.1518
▁fabric	-11.1522
▁Kat	-11.1523
how	-11.1525
▁hate	-11.1525
▁transformed	-11.1526
view	-11.1528
▁endeavours	-11.1529
In	-11.1529
▁Come	-11.1533
▁founder	-11.154
▁Based	-11.1542
▁dual	-11.1545
▁Grievance	-11.1546
▁YouTube	-11.1546
▁absent	-11.1546
▁steam	-11.1546
▁Tripura	-11.1546
▁Large	-11.1546
bai	-11.1548
▁Mount	-11.1548
▁worldwide	-11.1549
▁invested	-11.155
▁Charge	-11.155
▁Tender	-11.1551
ski	-11.1553
▁doubts	-11.1559
▁critics	-11.1559
▁seal	-11.156
▁professionals	-11.156
▁minerals	-11.1562
▁dose	-11.1569
▁Moon	-11.1571
cellular	-11.1575
▁Rep	-11.1576
▁cable	-11.1576
duction	-11.1579
▁delicate	-11.158
▁requisite	-11.158
▁disclosure	-11.158
▁periods	-11.1582
▁shore	-11.1582
▁passes	-11.1583
night	-11.1586
ordinat	-11.1592
▁credited	-11.1598
ference	-11.16
keeper	-11.1601
▁creed	-11.1602
get	-11.1603
got	-11.1606
patri	-11.1612
▁deficiency	-11.1614
▁denominator	-11.1614
▁ministry	-11.1614
▁HIV	-11.1614
▁auction	-11.1615
▁empowerment	-11.1618
▁confirmed	-11.1622
▁shame	-11.1625
akh	-11.1627
▁taxation	-11.1628
▁subjected	-11.1628
▁sect	-11.1629
▁punish	-11.163
kat	-11.1633
▁hospitals	-11.1635
puri	-11.1636
tab	-11.1636
▁buying	-11.164
▁Electronics	-11.1644
gir	-11.1645
▁Cross	-11.1649
▁concepts	-11.1649
▁insured	-11.165
▁seminar	-11.165
▁worried	-11.1655
▁authorized	-11.1656
rine	-11.1663
▁authors	-11.1667
▁Hard	-11.167
▁jointly	-11.1671
ria	-11.1674
▁Puri	-11.1675
▁migrat	-11.1675
gha	-11.1679
▁Mer	-11.1683
OUR	-11.1683
▁Community	-11.1684
▁Inspector	-11.1684
▁investigate	-11.1684
krishna	-11.1684
▁Continu	-11.1684
▁Sama	-11.1686
▁spare	-11.1687
reafter	-11.1691
▁permits	-11.1692
▁everyday	-11.1693
▁arrange	-11.1694
▁Pun	-11.1701
▁Dan	-11.1702
▁successive	-11.1703
▁devotees	-11.1706
▁talks	-11.1709
aut	-11.1711
Sarojini	-11.1719
▁Chandigarh	-11.1719
▁Vivekananda	-11.1719
▁disabilities	-11.1719
▁contend	-11.1719
▁Allow	-11.1719
▁connectivity	-11.172
▁goodwill	-11.172
▁thereto	-11.172
▁Notice	-11.1721
▁Very	-11.1722
▁paint	-11.1735
riv	-11.1736
▁moves	-11.1739
▁clauses	-11.1742
▁picked	-11.1742
▁corrupt	-11.1749
▁Person	-11.1749
▁characteriz	-11.1752
▁injustice	-11.1754
▁medicinal	-11.1754
▁Church	-11.1754
▁Preet	-11.1762
▁deny	-11.1764
▁reads	-11.1764
IST	-11.1769
mani	-11.1773
▁exit	-11.1774
▁parameters	-11.1777
▁interact	-11.1779
▁locations	-11.178
▁Keep	-11.1782
▁Develop	-11.1785
▁cruel	-11.1787
▁MUKHERJEE	-11.1789
▁physician	-11.1789
▁vulnerable	-11.1789
▁electoral	-11.1789
▁Clear	-11.1789
▁cinema	-11.1789
▁donation	-11.1789
▁mouse	-11.179
▁Mul	-11.179
▁persistent	-11.1791
▁stronger	-11.1796
▁offline	-11.1799
▁lowest	-11.18
▁prohibit	-11.1808
▁Tha	-11.181
RAM	-11.181
cial	-11.182
▁Actual	-11.1821
▁daughters	-11.1823
▁Literature	-11.1824
▁Settlement	-11.1824
▁opponent	-11.1824
hai	-11.1824
▁vagina	-11.1824
▁Find	-11.183
▁Vol	-11.1832
▁Vaishnava	-11.1835
▁cum	-11.1838
▁paintings	-11.184
▁ranking	-11.1842
▁resolved	-11.1843
tmost	-11.1844
mukh	-11.1847
▁participated	-11.1848
▁welcomed	-11.185
mad	-11.1854
wara	-11.1858
▁errors	-11.1859
▁Hanuman	-11.1859
▁impulse	-11.1859
▁Certain	-11.1859
▁Mysore	-11.1859
▁decay	-11.186
ean	-11.1861
▁Projects	-11.1864
▁Dhan	-11.1866
▁owe	-11.1872
AF	-11.1872
▁fertilizers	-11.1873
▁promised	-11.1873
khan	-11.1875
ogue	-11.1878
▁emotions	-11.1881
divided	-11.1882
▁purely	-11.1882
osa	-11.1887
▁pose	-11.1889
▁disclose	-11.1891
▁vest	-11.1893
▁surplus	-11.1895
▁survival	-11.1895
▁ceiling	-11.1895
▁argued	-11.1897
▁Place	-11.1898
▁attempted	-11.1899
▁revival	-11.19
▁chart	-11.19
tti	-11.1901
▁Fat	-11.1902
▁Resources	-11.1911
▁suck	-11.1915
▁enquir	-11.1918
kali	-11.1918
▁liver	-11.1918
▁confirm	-11.1919
▁Tak	-11.1919
▁Farm	-11.1923
▁charm	-11.1924
▁headquarters	-11.1925
▁blank	-11.1926
pher	-11.1927
▁Six	-11.1928
▁mutually	-11.1929
▁Panchayats	-11.193
▁Democratic	-11.193
▁invitation	-11.193
▁laboratory	-11.193
▁Peace	-11.1931
zy	-11.1931
▁Implementation	-11.1931
▁listening	-11.1933
▁artists	-11.1938
inous	-11.1941
▁traders	-11.1942
▁Jaya	-11.1943
▁nutrition	-11.1944
urban	-11.1945
▁honest	-11.1952
▁assign	-11.1954
▁apt	-11.1956
giri	-11.1957
▁definitely	-11.1958
ERS	-11.1961
▁receipts	-11.1965
▁cough	-11.1965
▁alphabet	-11.1966
▁glacier	-11.1966
▁emperor	-11.1966
▁Indonesia	-11.1966
▁lands	-11.1966
▁random	-11.1967
▁Abu	-11.1967
arch	-11.1969
▁expanding	-11.1969
▁Dam	-11.1974
▁indian	-11.1974
▁defeated	-11.1978
▁calculation	-11.198
▁volumes	-11.1981
▁embryo	-11.1984
▁Kir	-11.1991
▁waves	-11.1998
dur	-11.1998
▁Gl	-11.1998
▁ships	-11.2
▁assumption	-11.2002
▁Ghosh	-11.2002
▁proxy	-11.2002
▁marble	-11.2003
▁spray	-11.2003
▁Works	-11.2004
dding	-11.2004
▁realistic	-11.2007
▁Production	-11.201
aba	-11.201
▁publicity	-11.2011
▁existed	-11.2012
▁ray	-11.2012
▁Veer	-11.2013
▁inaugurate	-11.2014
▁accountability	-11.2016
▁heights	-11.2025
▁viable	-11.2027
▁lotus	-11.203
idi	-11.203
▁visitors	-11.2031
▁apex	-11.2034
▁wearing	-11.2038
▁Assistance	-11.2038
▁equipped	-11.2038
▁monkey	-11.2038
▁tired	-11.204
▁Gaza	-11.204
▁fig	-11.2041
▁frontier	-11.2041
ically	-11.2044
▁congratulated	-11.2045
gree	-11.2046
▁instances	-11.2046
▁justified	-11.2047
▁systematic	-11.2048
power	-11.2064
opa	-11.2064
ternal	-11.2066
▁recruit	-11.2071
rani	-11.2073
nfortunately	-11.2073
▁Would	-11.2074
▁dissolution	-11.2074
saheb	-11.2074
▁jihad	-11.2074
▁ranging	-11.2079
▁considers	-11.2083
▁coordinate	-11.2083
▁Pores	-11.2089
▁unfortunate	-11.2091
▁coastal	-11.2094
▁assure	-11.21
▁neglect	-11.2103
▁finish	-11.2103
undi	-11.2105
▁confront	-11.2106
▁sovereign	-11.2109
▁computation	-11.211
▁kitchen	-11.211
▁poultry	-11.211
▁tragedy	-11.211
▁requiring	-11.211
▁levy	-11.2111
▁breathing	-11.2111
▁urine	-11.2112
▁XX	-11.2112
IVE	-11.2114
▁Brahmo	-11.2115
ugh	-11.2116
▁pests	-11.2117
▁reliable	-11.2119
▁sync	-11.212
VA	-11.2128
▁Din	-11.2132
▁implications	-11.2139
▁erect	-11.214
volu	-11.214
▁liberat	-11.2142
▁Ask	-11.2146
▁Jinnah	-11.2146
▁reception	-11.2146
▁isolated	-11.2147
▁globe	-11.2148
▁boundaries	-11.2149
▁marine	-11.215
inder	-11.2152
▁practically	-11.2155
lle	-11.2157
▁misuse	-11.2158
▁argue	-11.2159
▁Does	-11.216
▁investor	-11.216
▁absorbed	-11.216
box	-11.2161
▁derive	-11.2162
berg	-11.2164
logical	-11.2165
▁enjoyment	-11.2165
therapy	-11.217
▁foods	-11.2172
▁advantages	-11.2173
▁Anand	-11.2174
▁presents	-11.2175
lick	-11.2175
veda	-11.2177
▁desires	-11.2177
▁suppress	-11.2179
wari	-11.218
hit	-11.2181
▁communist	-11.2183
▁Folder	-11.2183
▁cards	-11.2184
▁correspondence	-11.2184
▁impressive	-11.2187
esis	-11.219
▁Deep	-11.2198
▁reporting	-11.2206
▁weaken	-11.2207
aid	-11.2211
▁targets	-11.2212
▁Ul	-11.2217
▁manuscript	-11.222
▁quarrel	-11.222
▁recipient	-11.222
▁supplies	-11.222
▁imposition	-11.222
▁pleasant	-11.222
▁Deccan	-11.222
▁proposition	-11.2221
▁airports	-11.2222
▁hatch	-11.2224
▁Express	-11.2227
▁hardship	-11.2229
▁dense	-11.2231
bound	-11.2233
icide	-11.2234
▁teachings	-11.2238
▁construct	-11.2242
GC	-11.2245
▁Ur	-11.2246
flies	-11.2254
▁lover	-11.2256
▁Uttarakhand	-11.2256
▁glorious	-11.2256
▁plenty	-11.2256
▁tobacco	-11.2256
▁triumph	-11.2256
▁Castes	-11.2257
▁pilot	-11.2257
▁Various	-11.2257
▁Advisory	-11.2259
▁speaker	-11.2259
▁carved	-11.2259
kot	-11.2264
▁lapse	-11.2266
▁cement	-11.2266
bet	-11.2267
kra	-11.2271
▁directors	-11.2271
▁associations	-11.2274
NU	-11.2275
claim	-11.2275
JP	-11.2281
card	-11.2284
lac	-11.2288
▁Maximum	-11.2293
▁depreciation	-11.2293
▁denial	-11.2294
▁Ahmedabad	-11.2294
▁Leave	-11.2295
▁occurring	-11.2296
▁literally	-11.2299
▁warn	-11.23
▁lectures	-11.23
▁Dec	-11.23
lash	-11.2303
▁Surya	-11.2303
mod	-11.2306
rah	-11.2309
▁ages	-11.2316
▁privileges	-11.2317
▁luck	-11.2319
▁committees	-11.2321
▁administer	-11.2324
onic	-11.2324
▁batch	-11.2325
GP	-11.2329
▁melt	-11.233
▁legacy	-11.233
▁Guidelines	-11.233
▁jungle	-11.233
▁imposing	-11.233
▁Claim	-11.2331
▁defect	-11.2331
▁zeal	-11.2332
▁Jaipur	-11.2333
▁engineers	-11.2333
phone	-11.2335
▁somewhere	-11.2337
▁throat	-11.2339
▁boil	-11.2342
▁hut	-11.2345
▁themes	-11.2347
▁Till	-11.2361
▁rever	-11.2362
▁Mrs	-11.2364
▁Remember	-11.2367
▁debenture	-11.2367
▁supervision	-11.2367
▁battery	-11.2367
▁afternoon	-11.2367
▁Nagaland	-11.2368
▁advocates	-11.2368
▁sixteen	-11.237
▁Left	-11.2371
▁Mary	-11.2371
▁advertisement	-11.2371
gupta	-11.2372
▁Fee	-11.2375
▁tenure	-11.2375
▁pillar	-11.2382
lies	-11.2382
▁grows	-11.2384
▁diplomatic	-11.2386
▁observ	-11.2389
five	-11.239
cip	-11.2393
▁Brahmins	-11.2394
▁contracts	-11.2395
▁sponsored	-11.2395
▁deer	-11.2396
▁drain	-11.2404
▁ethical	-11.2405
EG	-11.2408
▁weigh	-11.2408
▁princes	-11.2413
cite	-11.2413
▁thereon	-11.2416
▁vessel	-11.2416
ESS	-11.2416
▁lessons	-11.2417
▁deed	-11.2419
▁rocks	-11.2421
▁meaningful	-11.2421
AND	-11.2427
▁apparently	-11.2427
▁Syria	-11.2429
▁Was	-11.243
▁char	-11.2431
▁larva	-11.2434
cli	-11.2434
lai	-11.2436
▁Put	-11.2436
▁horses	-11.2438
▁Consequent	-11.2442
▁occurrence	-11.2442
▁possibilities	-11.2442
▁spouse	-11.2442
aria	-11.2443
▁businesses	-11.2444
▁Systems	-11.2447
▁complainant	-11.2447
▁NGOs	-11.2448
▁bench	-11.2452
▁celebrations	-11.2453
▁thoroughly	-11.2454
pet	-11.2467
▁popularity	-11.247
losing	-11.2474
▁ideology	-11.248
▁Governors	-11.2481
▁supra	-11.2481
▁annum	-11.2487
ace	-11.2487
COM	-11.249
active	-11.2492
BS	-11.2492
amma	-11.2494
▁rod	-11.2494
▁Bai	-11.2498
▁threaten	-11.2498
▁rituals	-11.2502
jee	-11.2502
▁singer	-11.2503
▁condemn	-11.2512
▁timely	-11.2512
▁hopes	-11.2513
fil	-11.2515
▁nursing	-11.2518
determin	-11.252
▁Tar	-11.2521
▁passive	-11.2531
UD	-11.2532
▁devise	-11.2533
ambi	-11.2533
CU	-11.2533
▁१७	-11.2536
OD	-11.254
▁honoured	-11.2544
▁suspended	-11.2545
▁Excise	-11.2555
▁Petroleum	-11.2555
▁circulation	-11.2555
▁Street	-11.2555
▁grateful	-11.2555
▁qualify	-11.2556
▁steady	-11.2556
▁Saving	-11.2556
▁blessing	-11.2556
▁Need	-11.2556
▁Automatic	-11.2557
▁Fo	-11.2557
▁slave	-11.2559
▁colours	-11.2559
▁Himalaya	-11.2559
▁deem	-11.2563
▁assent	-11.2567
▁authentic	-11.2569
▁borders	-11.2569
titut	-11.257
▁orthodox	-11.2571
▁mala	-11.2574
▁gather	-11.258
IG	-11.2581
mail	-11.2583
▁mistakes	-11.2585
wear	-11.2588
▁disturbed	-11.2593
▁Range	-11.2593
▁Religion	-11.2593
▁Yamuna	-11.2593
▁laboratories	-11.2593
▁strategies	-11.2593
▁Nokia	-11.2593
▁Film	-11.2594
▁verification	-11.2594
▁fraud	-11.2594
▁sovereignty	-11.2595
▁Allah	-11.2595
▁debit	-11.2598
▁dimensions	-11.26
▁eco	-11.26
▁secretary	-11.2605
▁Bir	-11.2606
▁grievance	-11.2608
▁prima	-11.2609
▁Burma	-11.2609
▁lasting	-11.261
▁larvae	-11.261
▁acknowledged	-11.2611
escent	-11.2616
▁emotion	-11.2616
▁crown	-11.2625
▁maxim	-11.263
▁cabinet	-11.2632
▁unfair	-11.2632
▁accelerate	-11.2632
▁grasp	-11.2632
▁emergence	-11.2632
▁Cooperation	-11.2633
▁declined	-11.2633
▁exclude	-11.2634
▁flash	-11.2634
▁append	-11.2635
▁deepen	-11.2636
▁bush	-11.2636
▁Mangal	-11.2637
▁refugees	-11.2639
▁guardian	-11.264
▁underlying	-11.264
▁measured	-11.2641
ectomy	-11.2642
jar	-11.2649
▁merits	-11.2651
▁producer	-11.2652
met	-11.2656
▁wet	-11.2656
▁particles	-11.2657
▁Rest	-11.2657
▁abandon	-11.2665
▁electro	-11.2666
▁modest	-11.2668
espite	-11.267
▁Principles	-11.267
▁Gandharva	-11.267
▁dioxide	-11.267
▁scrutiny	-11.267
▁identical	-11.267
▁vague	-11.267
▁copper	-11.267
▁eager	-11.267
▁Arbitration	-11.267
▁sweat	-11.2671
oi	-11.2671
▁secur	-11.2674
▁bunch	-11.2676
▁purchased	-11.2679
tional	-11.268
▁helpless	-11.268
▁travelling	-11.2682
▁organiz	-11.2682
▁prospect	-11.2684
▁Jal	-11.2684
IAL	-11.2685
▁sculpture	-11.2687
▁receives	-11.2689
▁captured	-11.2696
pass	-11.2699
ich	-11.2701
▁exclusion	-11.2708
▁lymph	-11.2708
▁PART	-11.2709
▁adhere	-11.271
▁loud	-11.2712
resident	-11.2719
▁emb	-11.2719
▁startup	-11.2721
▁guaranteed	-11.2727
▁qualifications	-11.2728
gel	-11.273
▁restore	-11.2731
▁Australian	-11.2733
hearted	-11.2733
▁designs	-11.2734
assi	-11.2736
▁Never	-11.2739
▁Higher	-11.2741
eanwhile	-11.2744
▁Communist	-11.2747
▁conspiracy	-11.2747
▁abolition	-11.2747
▁Ravi	-11.2747
▁ordinarily	-11.2747
▁articulat	-11.2748
▁spin	-11.2751
▁autonomous	-11.2753
▁rating	-11.2754
uddin	-11.2757
▁initiate	-11.2761
hot	-11.277
▁fatal	-11.2771
▁Regulations	-11.2776
math	-11.2779
▁propagat	-11.2782
▁Customs	-11.2784
▁applying	-11.2785
▁Zealand	-11.2786
▁irregular	-11.2786
▁relevance	-11.2786
▁structural	-11.2786
▁territorial	-11.2786
▁babies	-11.2786
▁bottle	-11.2786
▁grief	-11.2786
▁stroke	-11.2786
▁Initial	-11.2787
▁trends	-11.2787
▁prescribe	-11.2789
▁sage	-11.2792
▁ceased	-11.2794
▁Khadi	-11.28
▁earning	-11.2801
▁concession	-11.2805
▁labourers	-11.2812
▁devotee	-11.2813
umber	-11.2814
hol	-11.2816
▁Provide	-11.2819
rity	-11.282
door	-11.2822
▁Convocation	-11.2825
▁Mauritius	-11.2825
▁Physical	-11.2825
▁surprising	-11.2825
▁Source	-11.2825
▁bodily	-11.2825
▁beloved	-11.2825
▁regret	-11.2825
▁humour	-11.2825
▁cosmic	-11.2825
▁rhythm	-11.2825
IRDA	-11.2826
ility	-11.2826
▁sap	-11.2829
▁brick	-11.283
▁ranks	-11.283
▁Nil	-11.2831
▁Deb	-11.2832
▁coins	-11.2833
▁relate	-11.2836
fold	-11.2839
hap	-11.284
▁Governorate	-11.2841
▁Monitoring	-11.2841
chrom	-11.2842
▁tackle	-11.2842
▁communicate	-11.2842
▁deliberate	-11.2845
▁Adi	-11.2847
▁deco	-11.285
▁intent	-11.2852
lain	-11.2854
▁surprised	-11.2858
▁exhaust	-11.2861
▁react	-11.2862
▁Mizoram	-11.2864
▁fiscal	-11.2864
▁Course	-11.2864
▁Draft	-11.2864
▁deciding	-11.2864
▁Task	-11.2864
▁Sports	-11.2864
▁infected	-11.2865
▁analog	-11.2865
▁rains	-11.2869
▁memo	-11.2873
▁Nanala	-11.2874
▁bowler	-11.2884
MM	-11.2884
▁humans	-11.2888
▁Reforms	-11.2888
▁Soma	-11.2892
▁Qa	-11.2899
▁complement	-11.2901
▁spending	-11.2901
▁Universal	-11.2903
▁jewellery	-11.2903
▁utilization	-11.2903
▁density	-11.2903
▁mitigat	-11.2903
▁decorated	-11.2903
▁conscience	-11.2904
▁disciplinary	-11.2905
▁assemble	-11.2905
▁pursuance	-11.2905
▁fame	-11.291
▁comfortable	-11.2911
▁seventy	-11.2912
▁earnings	-11.2925
▁convict	-11.2928
▁strictly	-11.2928
▁Bin	-11.294
▁James	-11.294
▁Jharkhand	-11.2942
▁verified	-11.2943
▁illumin	-11.2943
▁inscription	-11.2943
ota	-11.2944
▁scan	-11.2945
▁hostile	-11.2946
▁concentrate	-11.2947
▁deaths	-11.2949
▁Institution	-11.2953
▁mighty	-11.2953
▁nomination	-11.2954
▁Fair	-11.2955
hole	-11.2956
▁Tribunals	-11.2959
▁correctly	-11.2961
▁Navy	-11.2965
▁Mil	-11.2969
▁stores	-11.2971
▁relationships	-11.2972
▁magn	-11.2974
▁Maj	-11.2977
mah	-11.2977
▁enters	-11.298
▁Christ	-11.2981
▁assault	-11.2982
▁molecule	-11.2982
▁quantum	-11.2982
▁dozen	-11.2982
▁AIDS	-11.2982
▁distort	-11.2983
▁findings	-11.2983
▁deeds	-11.2984
▁Reference	-11.2985
competence	-11.2989
rut	-11.299
▁somehow	-11.2991
▁socialism	-11.2995
▁modes	-11.2996
▁Premchand	-11.2998
cl	-11.3
▁tin	-11.3002
▁valuation	-11.3005
MAN	-11.3005
▁cart	-11.3006
tia	-11.3007
▁favourable	-11.3007
▁pilgrim	-11.3019
▁Vajpayee	-11.3022
▁intuitive	-11.3022
▁Disease	-11.3022
▁Thomas	-11.3022
▁Safety	-11.3022
rish	-11.3026
▁Device	-11.3026
▁variations	-11.303
▁prohibited	-11.3031
▁Block	-11.3031
▁Statement	-11.3035
▁assistant	-11.3037
▁seized	-11.3038
ime	-11.3039
▁patch	-11.304
▁Tata	-11.3041
▁filling	-11.3042
▁Letter	-11.3042
▁Mail	-11.3042
sure	-11.3042
▁Puran	-11.3046
MC	-11.3047
▁Nir	-11.3056
▁oppress	-11.3056
▁CP	-11.3056
▁creatures	-11.3058
inus	-11.3059
▁dialog	-11.3061
▁BIHAR	-11.3061
▁Emergency	-11.3061
▁caution	-11.3061
▁inadequate	-11.3061
▁unexpected	-11.3061
▁Website	-11.3061
▁Meeting	-11.3061
▁Mis	-11.3062
▁modify	-11.3062
▁Club	-11.3062
ARY	-11.3064
▁certifi	-11.3064
▁votes	-11.3065
▁interven	-11.3067
▁FDI	-11.3067
▁evaluate	-11.3069
▁token	-11.3072
▁heap	-11.3075
▁Offices	-11.3075
ique	-11.3076
▁cub	-11.3076
▁Max	-11.308
ATAL	-11.3081
▁economically	-11.3085
pada	-11.309
▁obstruct	-11.3094
AGE	-11.3096
hia	-11.3099
▁Rev	-11.3099
▁quest	-11.3102
▁invention	-11.3104
▁repayment	-11.3107
▁deprived	-11.3109
▁safeguards	-11.311
▁attribute	-11.3112
▁ambition	-11.3113
▁cultivated	-11.3113
▁dying	-11.3114
▁symbolic	-11.3116
where	-11.3116
▁Manik	-11.3118
▁makers	-11.3118
▁irre	-11.312
▁Acharya	-11.3128
▁sam	-11.313
▁Rajendra	-11.3136
FS	-11.314
▁Remove	-11.3141
▁LINK	-11.3142
▁Microsoft	-11.3142
▁Ordinance	-11.3142
▁prestige	-11.3142
▁reproduce	-11.3142
▁historian	-11.3142
▁racial	-11.3142
iety	-11.3142
▁flame	-11.3142
clu	-11.3144
ANAB	-11.3144
▁birthday	-11.3145
▁damaged	-11.3146
▁announcement	-11.3147
▁tales	-11.3154
risen	-11.3155
▁boundary	-11.3155
▁expectations	-11.3157
▁Hal	-11.316
▁evolve	-11.3161
▁pad	-11.3163
▁pole	-11.3163
▁trap	-11.3165
▁Bond	-11.3168
▁restriction	-11.3172
▁manufacturers	-11.3174
▁demonstrated	-11.3177
▁permanently	-11.3177
▁affirm	-11.3177
▁SELECT	-11.3182
▁Culture	-11.3182
▁puppet	-11.3182
▁Remote	-11.3182
▁fetch	-11.3182
▁delighted	-11.3183
▁mask	-11.3184
▁readily	-11.3185
▁crossed	-11.3187
▁ninety	-11.3187
▁publishing	-11.3199
▁damages	-11.32
▁Forward	-11.3203
person	-11.3205
▁verbal	-11.3206
▁Try	-11.3209
▁portal	-11.3216
▁blocks	-11.3218
▁Gang	-11.3219
▁Hai	-11.322
udge	-11.3221
▁Chemical	-11.3222
▁Declaration	-11.3222
▁Primary	-11.3222
▁vibrant	-11.3222
▁striking	-11.3222
▁scriptures	-11.3222
▁trunk	-11.3222
▁dwell	-11.3222
▁Amritsar	-11.3223
▁Mountain	-11.3223
titude	-11.3223
▁throne	-11.3224
▁harness	-11.3224
▁Function	-11.3225
▁Saint	-11.3227
▁Nobel	-11.3227
▁Youth	-11.3229
▁entertainment	-11.3231
▁ranges	-11.3231
▁realization	-11.3233
▁Meher	-11.3234
ologist	-11.3234
▁Jagannatha	-11.3234
▁Highness	-11.3235
▁solved	-11.3237
▁alike	-11.3237
OT	-11.324
▁Pen	-11.3241
▁tough	-11.3243
hil	-11.3244
▁accepting	-11.3245
▁Selection	-11.3246
▁onto	-11.3247
pol	-11.3248
▁passenger	-11.325
▁refuge	-11.3255
▁respected	-11.3255
▁joining	-11.3257
▁Advocates	-11.3258
CD	-11.3262
disqualification	-11.3263
▁sanitation	-11.3263
▁Pipes	-11.3263
▁warrior	-11.3263
▁Always	-11.3263
▁sorry	-11.3263
▁Wealth	-11.3263
▁Chakra	-11.3264
▁delta	-11.3264
▁governmental	-11.3265
▁leap	-11.3265
▁prayers	-11.327
▁Gre	-11.3272
▁warming	-11.3278
iyar	-11.3281
▁Visit	-11.3283
▁Cl	-11.3285
▁weekly	-11.3285
▁Jay	-11.3288
▁accomplished	-11.329
▁exempt	-11.3292
crea	-11.3295
oda	-11.3298
▁Democracy	-11.3304
▁improper	-11.3304
▁subsidiary	-11.3304
▁collapse	-11.3304
▁Goddess	-11.3304
▁Template	-11.3304
▁intercourse	-11.3304
▁portray	-11.3305
▁worshipped	-11.3306
▁closing	-11.3307
UM	-11.3313
▁DAC	-11.3314
▁upward	-11.3317
▁holders	-11.3321
▁physically	-11.3322
▁considerations	-11.3323
▁Bay	-11.3328
action	-11.3328
▁Varma	-11.3333
loka	-11.3334
▁plum	-11.3334
▁Host	-11.3338
▁Top	-11.3344
▁Belarus	-11.3345
▁worn	-11.3345
▁Desai	-11.3345
▁await	-11.3345
▁passport	-11.3346
▁crash	-11.3347
▁tower	-11.3353
▁seventh	-11.3354
▁greatness	-11.3355
▁procession	-11.3356
▁germ	-11.3361
▁operated	-11.3365
ometer	-11.3366
▁sculptures	-11.3368
▁Subhash	-11.3377
▁Marketing	-11.3379
jay	-11.3382
▁Relations	-11.3383
▁Seven	-11.3383
▁Programmes	-11.3386
▁SIDBI	-11.3386
▁ethnic	-11.3386
▁immunity	-11.3386
▁imperfect	-11.3386
▁leather	-11.3386
▁permissible	-11.3386
▁spectrum	-11.3386
▁Presidency	-11.3386
▁utilisation	-11.3387
▁dropped	-11.3387
▁hind	-11.3393
pelled	-11.3394
▁manufactured	-11.3395
position	-11.3403
▁rely	-11.3406
▁Mc	-11.3409
▁sung	-11.3414
▁trustee	-11.3416
▁introducing	-11.3427
▁misconduct	-11.3427
▁robust	-11.3427
▁dairy	-11.3427
▁appreciated	-11.3427
▁prophet	-11.3427
▁Purusha	-11.3428
▁macro	-11.3429
ATED	-11.343
▁Tom	-11.3431
▁politicians	-11.3436
▁oneness	-11.3437
▁varies	-11.3437
▁echo	-11.3439
▁Server	-11.3444
▁bare	-11.3447
▁Generally	-11.3448
wood	-11.3451
▁preserved	-11.3452
▁sentences	-11.3456
▁essay	-11.3459
▁Sr	-11.346
sisted	-11.3462
▁coach	-11.3462
▁oblig	-11.3465
babu	-11.3466
▁plural	-11.3466
▁oceans	-11.3468
▁Consolidat	-11.3469
▁miracle	-11.3469
▁Southern	-11.3469
▁church	-11.3469
▁neighbours	-11.3469
▁frank	-11.3469
LY	-11.3469
▁afterwards	-11.3469
▁reconstruction	-11.347
▁lakes	-11.3471
▁resignation	-11.3474
IES	-11.3474
▁acres	-11.3476
▁sisters	-11.3483
natha	-11.3483
▁execute	-11.3485
▁Miss	-11.3486
▁opinions	-11.3488
▁Shr	-11.3491
eo	-11.3498
version	-11.3499
▁segments	-11.3508
▁disciples	-11.3508
▁fol	-11.3508
▁spots	-11.3509
▁Bala	-11.351
▁unconscious	-11.351
▁nematode	-11.351
▁remuneration	-11.351
▁wildlife	-11.351
▁loving	-11.351
▁spark	-11.3511
▁arbitrary	-11.3512
▁issuing	-11.3512
yog	-11.3515
▁condemned	-11.3517
▁County	-11.3517
▁tear	-11.3518
▁rubber	-11.3523
▁prosecut	-11.3529
▁shed	-11.3533
▁speaks	-11.3537
▁sentenced	-11.3537
▁tenth	-11.3539
gress	-11.3541
▁variation	-11.3544
▁chat	-11.355
plication	-11.3552
▁Study	-11.3552
▁Tourism	-11.3552
▁meditation	-11.3552
▁orientation	-11.3552
▁Close	-11.3554
▁arose	-11.3554
▁Phase	-11.3555
▁Cash	-11.3556
▁Sho	-11.3558
▁lust	-11.356
▁combat	-11.3561
rel	-11.3565
ander	-11.3565
▁occasionally	-11.3567
▁lyric	-11.3569
▁Khu	-11.3572
▁approached	-11.3577
▁govern	-11.3577
▁incidental	-11.3577
▁jaw	-11.3579
▁ATM	-11.358
mma	-11.3581
▁pesticides	-11.3588
▁accidents	-11.3591
▁constru	-11.3594
▁Dominion	-11.3594
▁carriage	-11.3594
▁conservative	-11.3594
▁grassroots	-11.3594
▁grey	-11.3594
▁basket	-11.3595
▁Partnership	-11.3595
▁giant	-11.3596
▁shortcut	-11.3596
▁Original	-11.3598
▁stir	-11.3603
▁confused	-11.3604
▁auditor	-11.3606
▁sperm	-11.3607
kri	-11.3608
▁affordable	-11.3608
▁Kul	-11.3608
▁gardens	-11.3609
▁researchers	-11.361
▁temp	-11.3612
ette	-11.3618
▁dimension	-11.3619
EF	-11.3625
▁sixth	-11.3627
▁BE	-11.3627
roll	-11.3628
▁sac	-11.3628
▁moth	-11.3633
▁Neuro	-11.3633
▁Lab	-11.3634
▁borrowing	-11.3635
▁textile	-11.3636
▁medieval	-11.3636
▁favor	-11.3637
AYEE	-11.3637
▁Stock	-11.3638
▁Body	-11.3641
▁Bh	-11.3641
ffer	-11.3646
▁edited	-11.3648
▁acre	-11.3649
▁firms	-11.3651
ullah	-11.3651
▁organis	-11.3652
▁corners	-11.3652
▁curse	-11.3654
▁SI	-11.3654
▁Say	-11.3655
field	-11.3656
▁centers	-11.3658
▁Tre	-11.3659
▁fra	-11.3661
▁Poet	-11.3664
▁producers	-11.367
▁regulated	-11.3674
▁hazard	-11.3677
▁Sultan	-11.3677
▁Jubilee	-11.3679
▁accompany	-11.3679
▁diminish	-11.3679
▁flexible	-11.3679
▁vacancies	-11.3679
▁indicating	-11.368
▁dealer	-11.368
▁indicator	-11.368
▁Af	-11.3685
▁conven	-11.3686
▁wedding	-11.3697
▁Quit	-11.3703
▁Kaur	-11.3705
ogenic	-11.3705
ghat	-11.3707
▁Kalam	-11.3712
▁demonstrate	-11.3714
▁HE	-11.3714
▁chromosomes	-11.3718
▁lots	-11.372
▁lung	-11.3721
▁Kolhatkar	-11.3721
▁Securities	-11.3721
▁Resident	-11.3721
▁Ramalinga	-11.3721
▁alliance	-11.3722
▁SPEECHES	-11.3722
▁tested	-11.3723
▁patriotism	-11.3723
▁preservation	-11.3724
▁alert	-11.3725
▁VAJ	-11.3725
kul	-11.3726
▁Schemes	-11.3732
▁appointments	-11.3736
▁faithful	-11.3737
rated	-11.3737
▁saints	-11.3738
▁titled	-11.3739
entrepreneurship	-11.3739
▁highway	-11.3739
LC	-11.3744
eptic	-11.3745
▁chose	-11.3756
▁reviewed	-11.3756
▁loyal	-11.3763
▁Prosecutor	-11.3764
▁assimilat	-11.3764
▁mathematics	-11.3764
▁psychic	-11.3764
▁unnecessary	-11.3764
▁Raghu	-11.3764
▁Double	-11.3764
▁Demand	-11.3764
▁termination	-11.3764
▁Chamber	-11.3765
▁horizontal	-11.3765
▁grid	-11.3768
▁attendance	-11.3769
▁layout	-11.3769
tine	-11.3773
▁comparatively	-11.3776
▁electronics	-11.3777
ball	-11.3782
▁hanging	-11.3783
FR	-11.3783
system	-11.379
▁Provinces	-11.3791
▁panic	-11.3794
PP	-11.3798
▁retreat	-11.3799
▁certificates	-11.3801
▁arbitra	-11.3801
▁vigorous	-11.3807
▁Brazil	-11.3807
▁Unicode	-11.3807
▁hybrid	-11.3807
▁innovators	-11.3807
▁prosperous	-11.3808
▁Sand	-11.3808
▁hungry	-11.3808
▁Ravana	-11.3809
▁Latin	-11.3811
▁Chair	-11.3812
▁Still	-11.3814
▁exceptions	-11.3814
▁Grand	-11.3816
▁essays	-11.3817
▁translations	-11.3818
mount	-11.3819
▁halt	-11.3822
▁Parsi	-11.3822
▁instrumental	-11.3824
▁checked	-11.3825
▁interpreted	-11.3829
▁vii	-11.3835
▁bind	-11.3838
▁quarters	-11.3844
▁Pain	-11.3849
▁facilitating	-11.385
▁Finland	-11.385
▁injuries	-11.385
▁uterus	-11.385
▁framing	-11.385
▁HOST	-11.385
▁airport	-11.3851
▁altitude	-11.3851
▁Crown	-11.3851
▁Harijan	-11.3851
▁predominant	-11.3851
▁Electricity	-11.3852
▁Italy	-11.3856
uru	-11.3859
▁Farid	-11.3859
▁enlightened	-11.3861
▁dist	-11.3862
▁hereby	-11.3865
▁signals	-11.3868
▁perfectly	-11.3873
▁Comments	-11.388
Tax	-11.388
▁ensured	-11.3883
▁Sciences	-11.3891
▁Portuguese	-11.3893
▁misbehaviour	-11.3893
▁threshold	-11.3893
▁transplant	-11.3893
▁smoking	-11.3893
▁Clean	-11.3894
▁generous	-11.3894
▁minorities	-11.3897
pun	-11.3899
▁Matter	-11.39
▁Profit	-11.39
▁preced	-11.3911
▁samples	-11.3912
▁concessions	-11.3916
▁Fire	-11.3917
▁Ganesh	-11.3918
yana	-11.3919
▁sessions	-11.3925
capacity	-11.3926
▁disable	-11.3927
▁classic	-11.3931
▁bend	-11.3934
▁Son	-11.3937
▁Betwee	-11.3937
▁Meghalaya	-11.3937
▁depression	-11.3937
▁ignorant	-11.3937
▁Bezbar	-11.3937
▁tragic	-11.3937
▁illusion	-11.3937
▁magnitude	-11.3937
▁swelling	-11.3937
▁clever	-11.3942
▁pea	-11.3942
▁abandoned	-11.3943
▁symbols	-11.3943
▁clay	-11.3945
▁handled	-11.3957
vya	-11.396
▁org	-11.3968
word	-11.3975
▁recess	-11.3975
▁Attorney	-11.3981
▁dialect	-11.3981
▁regulating	-11.3981
▁uplift	-11.3981
▁Different	-11.3981
▁deteriorat	-11.3982
▁jewel	-11.3982
▁hypo	-11.3984
▁uphold	-11.3987
▁minded	-11.3988
▁Motion	-11.399
▁clearance	-11.3994
▁login	-11.3996
▁disappeared	-11.4004
▁Share	-11.4009
▁Medi	-11.4009
▁dies	-11.4011
▁Mall	-11.4013
nthrop	-11.4022
▁propaganda	-11.4024
▁forgotten	-11.4024
▁equitable	-11.4024
▁cherish	-11.4025
▁patience	-11.4025
▁rigid	-11.4025
▁annex	-11.4025
▁Country	-11.4025
▁vivid	-11.4026
▁threats	-11.4026
▁vide	-11.4027
▁civilian	-11.4033
▁bay	-11.4037
privileged	-11.4039
▁Arya	-11.4041
▁hoc	-11.4044
oop	-11.4046
▁abolished	-11.4049
tz	-11.4049
▁lips	-11.4052
DB	-11.4064
▁tele	-11.4065
▁ICC	-11.4066
evertheless	-11.4067
▁magnificent	-11.4069
▁spontaneous	-11.4069
▁rabbit	-11.4069
▁cartoon	-11.4069
▁Robert	-11.4069
▁Sunday	-11.407
▁Assamese	-11.407
▁edges	-11.4071
▁renewable	-11.4071
▁allowances	-11.4077
▁organize	-11.4081
▁attainment	-11.4081
chor	-11.4082
▁Run	-11.4084
▁Arabian	-11.4089
▁Stop	-11.4092
▁breeds	-11.4097
▁Tab	-11.4098
▁Pap	-11.41
▁Mit	-11.4101
▁NC	-11.4109
▁disturb	-11.4113
▁PRESENT	-11.4113
▁Bhakti	-11.4113
▁exponent	-11.4113
examining	-11.4113
▁neighbourhood	-11.4113
▁entities	-11.4114
▁Know	-11.4114
▁gear	-11.4115
▁Joshi	-11.4115
DG	-11.4116
▁specification	-11.4116
▁Nu	-11.4118
▁interval	-11.4119
▁pale	-11.4121
▁underground	-11.4123
▁yes	-11.4127
▁quit	-11.4127
▁Pul	-11.4128
elec	-11.4136
▁females	-11.414
▁Rub	-11.4157
▁Engine	-11.4157
▁Saraswati	-11.4157
▁abundant	-11.4157
▁aggressive	-11.4157
▁Pallava	-11.4157
▁premier	-11.4157
▁certification	-11.4158
▁statue	-11.4158
▁sketch	-11.4158
▁Distribution	-11.4159
▁disciple	-11.416
▁Medium	-11.416
▁soldier	-11.4161
▁fancy	-11.4164
▁Drug	-11.4168
▁Gau	-11.4171
▁Following	-11.4175
▁detected	-11.4177
▁shoes	-11.4185
▁Provid	-11.4185
▁Den	-11.4194
esvara	-11.4194
▁repeatedly	-11.4195
▁chill	-11.4196
▁Install	-11.4198
▁Societies	-11.4202
▁knock	-11.4202
▁Condition	-11.4202
▁Sinha	-11.4202
▁Bhopal	-11.4203
▁proclaim	-11.4203
uce	-11.4204
▁terminate	-11.4204
▁shake	-11.4204
ocyte	-11.4205
▁topics	-11.4205
▁Nagpur	-11.4206
gla	-11.4207
▁Khal	-11.4208
▁lens	-11.4208
ITY	-11.4211
nanda	-11.4213
▁Lock	-11.4215
gna	-11.4215
▁१८	-11.4216
▁Town	-11.4218
▁Bana	-11.4219
▁legally	-11.4219
cade	-11.4221
▁Milk	-11.4231
▁Nana	-11.4233
▁Hindustan	-11.4241
▁collectively	-11.4244
▁consensus	-11.4247
▁measuring	-11.4247
▁serpent	-11.4247
▁synthesis	-11.4247
▁warfare	-11.4247
▁alternate	-11.4247
▁Coast	-11.4247
▁multiplication	-11.4247
▁petitions	-11.4249
▁shipping	-11.4249
▁earnest	-11.425
CCI	-11.425
▁Step	-11.4251
▁gum	-11.4254
▁Panel	-11.4256
▁Jati	-11.4261
▁burnt	-11.4263
erated	-11.4265
▁deities	-11.4266
▁prospects	-11.4273
BC	-11.4274
▁UTs	-11.4276
▁KB	-11.4277
hun	-11.4279
▁Mun	-11.4281
▁Chat	-11.4284
▁organise	-11.4286
▁Bhavabhuti	-11.4292
▁Memorial	-11.4292
▁freight	-11.4292
▁petroleum	-11.4292
▁DVD	-11.4292
▁Nizam	-11.4292
▁Telephone	-11.4292
▁vow	-11.4295
▁monk	-11.4295
bli	-11.4297
▁advent	-11.4299
▁accountant	-11.43
ado	-11.4303
uro	-11.4305
▁formally	-11.431
ARD	-11.4314
rian	-11.4315
rich	-11.4318
lusion	-11.4319
▁Dil	-11.432
phil	-11.4325
▁clients	-11.4328
omitted	-11.4329
▁divisions	-11.4333
▁Learn	-11.4335
▁Satyagraha	-11.4337
▁Unknown	-11.4337
▁amazing	-11.4337
▁Spain	-11.4338
▁mess	-11.434
▁turnover	-11.434
▁NHS	-11.4341
▁Balarama	-11.4342
▁brush	-11.4342
lak	-11.4346
▁elementary	-11.4348
duced	-11.435
▁Music	-11.4351
▁collections	-11.4351
bert	-11.4352
dul	-11.4356
▁Near	-11.436
▁peer	-11.4361
root	-11.4364
▁Languages	-11.4376
▁rub	-11.4381
▁gases	-11.4382
▁Afghan	-11.4382
▁Canadian	-11.4382
▁chicken	-11.4382
▁dictionary	-11.4382
▁numerator	-11.4382
▁supplier	-11.4382
▁Witness	-11.4382
▁dividing	-11.4382
▁twist	-11.4383
nonymity	-11.4383
▁serial	-11.4384
wore	-11.4385
▁preventing	-11.4385
▁coordination	-11.4386
▁Late	-11.4386
▁Nazi	-11.4388
▁hop	-11.439
▁Jack	-11.4395
ananda	-11.44
▁slight	-11.4405
rava	-11.4405
▁colors	-11.4412
▁lateral	-11.4417
▁patron	-11.4427
▁HTML	-11.4428
▁Practice	-11.4428
▁injunction	-11.4428
▁pendency	-11.4428
▁burst	-11.4429
note	-11.443
▁Track	-11.443
▁shoulders	-11.4432
▁Everyone	-11.4432
▁confidential	-11.4434
▁affair	-11.4435
▁Electronic	-11.4436
▁annually	-11.4437
▁URI	-11.4439
▁Epi	-11.4439
▁Jail	-11.4441
location	-11.4441
▁compact	-11.4443
▁justification	-11.4443
FF	-11.4446
▁Team	-11.4447
▁morality	-11.4454
▁MSMEs	-11.4458
HR	-11.4458
▁broadly	-11.4467
▁implie	-11.4467
IB	-11.4471
▁cache	-11.4474
▁beneficiaries	-11.4474
▁capacities	-11.4474
▁heavily	-11.4474
▁Download	-11.4474
▁betray	-11.4475
▁landscape	-11.4475
ico	-11.4476
▁onwards	-11.4479
General	-11.4485
▁chip	-11.4495
▁Mill	-11.4498
▁fruitful	-11.45
ouch	-11.4501
kam	-11.4504
▁updated	-11.4504
MD	-11.4505
▁packages	-11.4517
▁uncertain	-11.4519
▁auspicious	-11.452
▁furniture	-11.452
▁Odisha	-11.452
▁endanger	-11.452
▁solving	-11.452
▁Vidyasagar	-11.452
▁Attach	-11.452
▁Italian	-11.452
▁Anglo	-11.4522
▁Title	-11.4522
▁orange	-11.4525
▁Mahabharat	-11.4525
▁Provisions	-11.4525
▁dwelling	-11.4528
▁upgradation	-11.4529
▁bias	-11.453
▁tie	-11.4534
▁exploited	-11.4536
ographic	-11.455
▁Base	-11.455
iest	-11.4551
▁hint	-11.4555
▁Peri	-11.456
▁horizon	-11.4566
▁leprosy	-11.4566
▁unemployment	-11.4566
▁stimulate	-11.4566
▁ancestor	-11.4566
▁wool	-11.4567
▁Update	-11.4567
HAR	-11.4567
inning	-11.4568
▁citizenship	-11.4571
▁grip	-11.4573
operation	-11.4575
▁eighty	-11.4575
▁vegetable	-11.4576
▁dissolved	-11.4576
▁Christianity	-11.458
TED	-11.4581
emic	-11.4582
▁exam	-11.4583
▁nail	-11.4585
▁processor	-11.4585
▁pressed	-11.4585
▁acknowledge	-11.4588
▁gifts	-11.4588
▁deliberately	-11.4589
VC	-11.4592
AW	-11.4592
lium	-11.4597
▁Tele	-11.4597
▁Advance	-11.4597
unda	-11.4601
▁scenes	-11.4602
▁Rammoh	-11.4609
▁deploy	-11.461
▁Upanishads	-11.461
▁Ayodhya	-11.4613
▁acquiring	-11.4613
▁fracture	-11.4613
▁trigger	-11.4613
▁inflict	-11.4613
▁blessed	-11.4613
▁detention	-11.4615
▁compositions	-11.4615
▁Katha	-11.4615
istan	-11.4616
▁Gad	-11.462
practised	-11.4621
▁END	-11.4623
▁Hindustani	-11.4628
▁employers	-11.4631
rush	-11.4632
▁undis	-11.4635
▁TB	-11.4637
▁recurr	-11.4641
▁equipments	-11.4643
▁contractor	-11.4649
▁appearing	-11.465
▁concentrated	-11.4651
▁execut	-11.4659
dasa	-11.4659
▁idle	-11.4659
▁Chromium	-11.466
▁Screen	-11.466
▁provincial	-11.466
▁velocity	-11.466
▁unjust	-11.466
▁postpone	-11.466
▁behave	-11.4661
▁Qatar	-11.4661
▁Learning	-11.4662
▁sleeping	-11.4663
▁Shastri	-11.4664
▁verify	-11.4665
▁Medal	-11.4665
DL	-11.4668
▁solemn	-11.4671
vet	-11.4673
▁Assessment	-11.4673
poli	-11.4673
▁container	-11.4674
BU	-11.4678
face	-11.4679
▁Areas	-11.4681
▁Yu	-11.4682
▁dung	-11.4683
▁actors	-11.4685
▁households	-11.4687
▁Ashram	-11.4688
▁projection	-11.4688
▁remarks	-11.4694
DU	-11.4696
▁grandfather	-11.4707
▁suspension	-11.4707
▁gesture	-11.4707
▁sweep	-11.4707
▁STATE	-11.4707
▁array	-11.4707
▁excuse	-11.4707
▁clothing	-11.4708
ILL	-11.4708
▁Email	-11.471
▁punished	-11.4719
pac	-11.4729
▁modifications	-11.473
khi	-11.4732
▁stressed	-11.4734
▁Sundar	-11.4734
▁lean	-11.4738
▁kilometres	-11.4739
▁recommends	-11.4739
pod	-11.475
bhadra	-11.4753
▁clarifi	-11.4754
▁Maharshi	-11.4754
▁Scientific	-11.4754
▁curriculum	-11.4754
▁deliberations	-11.4754
▁exaggerat	-11.4754
▁excitement	-11.4754
▁exploration	-11.4754
▁reproduction	-11.4754
▁unprecedented	-11.4754
▁elevation	-11.4754
▁Field	-11.4754
▁expeditious	-11.4754
▁petty	-11.4756
▁garment	-11.4757
▁chromosome	-11.4757
▁lump	-11.476
▁stating	-11.476
GR	-11.4765
▁NRI	-11.4766
▁din	-11.4772
▁Unless	-11.4773
▁OK	-11.4774
India	-11.478
▁informal	-11.4785
▁statutes	-11.4786
hod	-11.4787
▁Sang	-11.4788
▁hunting	-11.4793
ieve	-11.4795
▁musician	-11.4801
▁exercising	-11.4801
▁innumerable	-11.4801
▁intermediate	-11.4801
▁physics	-11.4801
▁predecessor	-11.4801
▁thirst	-11.4801
▁Daniel	-11.4801
▁inhibit	-11.4801
▁Establishment	-11.4804
▁Syed	-11.4806
▁differently	-11.4808
▁toxic	-11.4811
▁estimates	-11.4811
migration	-11.4813
▁donor	-11.4814
▁cage	-11.482
VE	-11.4823
▁Goods	-11.4824
care	-11.4825
headed	-11.4827
▁roughly	-11.4829
took	-11.4837
▁Israelis	-11.4838
▁Param	-11.4844
▁Sangh	-11.4846
▁snakes	-11.4848
▁Blood	-11.4849
▁amalgamation	-11.4849
▁convenience	-11.4849
▁sophisticated	-11.4849
▁collector	-11.4849
▁True	-11.485
▁impair	-11.485
▁effected	-11.4852
▁dependence	-11.4854
▁yoga	-11.4855
▁subscriber	-11.4856
cession	-11.4858
▁clearing	-11.4861
nana	-11.4863
▁homo	-11.4864
▁Window	-11.4864
tir	-11.4864
▁Um	-11.4864
▁rays	-11.4868
▁sang	-11.4869
▁pursued	-11.4871
▁pipe	-11.4875
▁socially	-11.4876
tara	-11.4883
▁chapters	-11.4884
▁receiver	-11.4887
▁tolerate	-11.489
▁surely	-11.4891
▁specializ	-11.4896
▁primitive	-11.4897
▁climatic	-11.4897
▁intuition	-11.4897
▁Chit	-11.4897
▁slogan	-11.4897
▁polity	-11.4897
▁graphics	-11.4897
▁harassment	-11.4899
▁Index	-11.4902
▁Graph	-11.4902
▁Martin	-11.4904
▁distinctive	-11.4904
AU	-11.491
▁owners	-11.4911
rti	-11.4913
otomy	-11.4918
▁paste	-11.4919
▁anyway	-11.4922
bred	-11.4923
▁boxes	-11.4929
chari	-11.4933
making	-11.494
▁mantra	-11.494
lysis	-11.4941
▁reformer	-11.4942
▁hoped	-11.4944
▁architect	-11.4944
▁impartial	-11.4944
▁Annexure	-11.4945
▁Dictionary	-11.4945
▁Jadunath	-11.4945
▁Supply	-11.4945
▁Channel	-11.4945
▁mercy	-11.4945
▁Prakash	-11.4945
▁Kapil	-11.4945
▁detection	-11.4952
▁tenants	-11.4955
▁rejection	-11.4955
▁Kum	-11.4955
▁expense	-11.4962
map	-11.4963
▁Much	-11.4963
▁Pad	-11.4966
▁hectares	-11.4966
arna	-11.4975
▁reveals	-11.4979
▁Ghose	-11.4993
▁Michael	-11.4993
▁Provincial	-11.4993
▁Purchase	-11.4993
▁Taliban	-11.4993
▁Switch	-11.4993
▁Volume	-11.4993
▁monarch	-11.4993
▁steep	-11.4993
▁Memory	-11.4994
TY	-11.4998
▁lungs	-11.4999
▁Manu	-11.5002
▁Pakistani	-11.5006
▁packet	-11.5008
▁wipe	-11.5018
▁outlay	-11.502
▁rape	-11.5028
ION	-11.5033
▁suited	-11.5036
dor	-11.5036
unction	-11.5037
▁Disc	-11.5037
▁Ambassador	-11.5042
▁admissible	-11.5042
▁challenging	-11.5042
▁fodder	-11.5042
▁anticipatory	-11.5042
▁trekking	-11.5042
▁Richard	-11.5042
assuming	-11.5043
▁allocated	-11.5052
▁momentum	-11.5057
▁spinal	-11.5063
▁oppose	-11.5069
▁loaded	-11.5078
▁endow	-11.5087
rot	-11.5087
▁Av	-11.5088
BB	-11.5088
▁Raman	-11.5089
▁Maulana	-11.509
▁Sahitya	-11.509
▁dignitaries	-11.509
▁ingredient	-11.509
▁FROM	-11.509
▁Doctor	-11.509
▁gratitude	-11.509
▁augment	-11.509
▁Jesus	-11.5091
▁forehead	-11.5091
▁wives	-11.5091
▁invasion	-11.5091
▁bleeding	-11.5091
▁omission	-11.5091
▁SHG	-11.5091
▁congress	-11.5092
▁juice	-11.5092
▁copyright	-11.5092
oj	-11.5092
▁Turn	-11.5093
▁discard	-11.5094
fic	-11.5094
▁Farmers	-11.5096
▁pronounced	-11.5097
▁projected	-11.5097
▁prey	-11.5099
▁locally	-11.51
ulus	-11.5104
▁pulled	-11.5108
scribe	-11.5112
abh	-11.5117
▁reactions	-11.5123
▁defects	-11.5128
▁digest	-11.5133
▁Consult	-11.5135
▁Priyobro	-11.5139
▁Intelligence	-11.5139
▁Sanctuary	-11.5139
▁conducive	-11.5139
▁deficit	-11.5139
▁despair	-11.5139
▁Analysis	-11.5139
▁oneself	-11.5139
▁incidence	-11.5139
▁Password	-11.5139
▁dinner	-11.514
▁translator	-11.5147
▁archive	-11.5147
▁greed	-11.5152
▁XI	-11.5153
▁pink	-11.5153
ANCE	-11.516
▁Arun	-11.5161
▁Sant	-11.5163
▁borrow	-11.5164
tag	-11.5166
▁distribut	-11.5169
▁optional	-11.5169
RES	-11.5172
▁wrongful	-11.5175
▁interrupt	-11.5177
gor	-11.518
▁Mohammad	-11.5189
▁abdomen	-11.5189
▁excited	-11.5189
▁horticulture	-11.5189
▁nineteenth	-11.5189
▁republic	-11.5189
▁thirteen	-11.5189
▁anxiety	-11.5189
▁Skill	-11.5189
▁instalment	-11.5189
▁Answer	-11.5189
▁Games	-11.5189
▁conform	-11.5189
▁discourse	-11.5189
▁imperialist	-11.519
▁reproductive	-11.5192
▁loop	-11.5195
▁Diu	-11.5196
▁enroll	-11.5198
tyl	-11.5198
▁dismiss	-11.5202
▁Mehta	-11.5202
▁usher	-11.5205
▁attributes	-11.5205
▁precisely	-11.5207
▁dome	-11.5211
▁Narendra	-11.5211
▁furnishing	-11.5212
IGN	-11.5223
▁partially	-11.5229
▁experimental	-11.5231
kala	-11.5234
▁intervals	-11.5236
▁BEGIN	-11.5238
▁Treatment	-11.5238
▁automobile	-11.5238
▁constraint	-11.5238
▁potato	-11.5238
▁allotment	-11.5238
▁ISRO	-11.5239
▁fiction	-11.5239
▁curb	-11.524
▁Font	-11.5241
▁classroom	-11.5242
▁harsh	-11.5242
▁Creat	-11.5243
▁remainder	-11.5244
▁landmark	-11.5246
jna	-11.5248
▁prohibition	-11.5248
▁pulse	-11.5251
▁encouragement	-11.5252
▁neo	-11.5254
▁disorders	-11.5256
▁compete	-11.5258
hora	-11.5259
▁eighth	-11.5266
▁Educational	-11.5276
▁Hum	-11.5277
bak	-11.5282
roid	-11.5283
▁Eu	-11.5287
▁GNOME	-11.5288
▁admiration	-11.5288
▁conquest	-11.5288
▁creativity	-11.5288
▁arithmetic	-11.5288
▁amidst	-11.5288
▁champion	-11.5288
▁dried	-11.5288
▁Tatya	-11.5288
▁dump	-11.529
▁Masters	-11.529
chu	-11.529
▁Trial	-11.529
▁Except	-11.5291
▁Peter	-11.5296
▁utilized	-11.5301
plan	-11.5302
▁Bhatt	-11.5302
▁campus	-11.5303
LL	-11.5304
HP	-11.5305
▁bestow	-11.5308
▁Advanced	-11.5311
▁recalled	-11.5326
▁broker	-11.5331
▁Leg	-11.5335
▁similarly	-11.5336
▁mines	-11.5337
▁Fundamental	-11.5338
▁Introduction	-11.5338
▁Personnel	-11.5338
▁Saheb	-11.5338
▁fluctuat	-11.5338
▁Employees	-11.5338
▁nominal	-11.5338
▁Charles	-11.5339
▁ongoing	-11.534
text	-11.5341
▁Modi	-11.5342
▁injection	-11.5343
ayan	-11.5346
▁Senate	-11.5347
▁lovers	-11.535
sthan	-11.5358
PD	-11.5358
▁scattered	-11.5359
UND	-11.5359
▁subsection	-11.536
▁inspect	-11.5362
▁qualification	-11.5363
▁Cup	-11.5364
QU	-11.5365
▁summon	-11.5369
RR	-11.537
▁bent	-11.5374
DD	-11.5376
tance	-11.5385
tunately	-11.5387
▁Compensation	-11.5388
▁Relief	-11.5388
▁pharmaceutical	-11.5388
▁charitable	-11.5388
▁prolonged	-11.5388
▁Saddam	-11.5388
▁tropical	-11.5388
▁procurement	-11.5388
▁sniff	-11.5389
▁Client	-11.5389
▁bite	-11.5389
▁coalition	-11.5389
▁Period	-11.539
▁Kabul	-11.5393
▁chairman	-11.5393
▁Guide	-11.5393
▁checking	-11.5395
▁degrad	-11.5405
▁mills	-11.541
HT	-11.5412
▁Pho	-11.542
gaon	-11.5425
▁Low	-11.5431
▁rubb	-11.5432
▁Auditor	-11.5434
▁explicit	-11.5439
▁Ubuntu	-11.5439
▁reckon	-11.5439
▁swift	-11.5439
▁Maratha	-11.5439
▁decisive	-11.5439
▁apprehension	-11.5439
▁artisans	-11.5439
▁discern	-11.5439
१९	-11.544
▁adorn	-11.544
▁shopping	-11.544
▁loyalty	-11.544
▁fright	-11.5443
▁edible	-11.5452
▁upload	-11.5459
▁presum	-11.5463
▁greet	-11.5465
holder	-11.5467
▁restored	-11.5467
logist	-11.5467
▁Inc	-11.5468
▁precise	-11.5471
▁Chitra	-11.5472
rewith	-11.5472
▁veil	-11.5474
cum	-11.5476
▁Ghana	-11.5478
▁lend	-11.5483
▁pollutants	-11.5485
▁bags	-11.5486
▁Object	-11.5487
▁Available	-11.5489
▁boycott	-11.5489
▁renowned	-11.5489
▁Pothana	-11.5489
▁Position	-11.5489
▁guiding	-11.549
▁vocal	-11.549
▁pretend	-11.549
▁failing	-11.549
▁barriers	-11.5492
▁washing	-11.5498
PG	-11.5501
onia	-11.5509
hoot	-11.5515
▁induce	-11.5516
tage	-11.5517
▁crow	-11.5527
gradation	-11.5529
▁SW	-11.5533
▁revive	-11.5536
▁Format	-11.5537
▁Individual	-11.554
▁harmonious	-11.554
▁indispensable	-11.554
▁undoubtedly	-11.554
▁Rupee	-11.554
▁Mai	-11.5541
▁Gulf	-11.5543
▁ledger	-11.5544
▁denote	-11.5544
▁Duty	-11.5545
▁lag	-11.5546
▁Draw	-11.5547
▁conquer	-11.5548
▁Rath	-11.5549
▁obstruction	-11.555
▁trusted	-11.5551
wash	-11.5562
▁dull	-11.5562
▁cock	-11.5563
▁arouse	-11.5566
▁fixing	-11.5567
▁contra	-11.5574
▁launching	-11.5576
▁Drive	-11.5576
▁thro	-11.5577
▁Minor	-11.5583
▁borrowed	-11.5586
His	-11.5586
▁Madhu	-11.5588
▁Pollution	-11.5592
▁contributing	-11.5592
▁impetus	-11.5592
▁investigating	-11.5592
▁messenger	-11.5592
▁prestigious	-11.5592
▁widget	-11.5592
▁foregoing	-11.5592
▁reinforce	-11.5592
▁inception	-11.5592
▁telecom	-11.5592
▁Tiger	-11.5593
ahdev	-11.5595
▁mortality	-11.5595
▁flock	-11.5596
uga	-11.5598
▁rites	-11.5603
culture	-11.5604
wide	-11.561
▁Big	-11.5612
▁wine	-11.5616
amana	-11.5621
▁Holi	-11.5626
▁hunter	-11.5633
▁tier	-11.5635
▁Inflammation	-11.5643
▁bureau	-11.5643
▁expiration	-11.5643
▁impeachment	-11.5643
▁simplicity	-11.5643
▁Broad	-11.5643
▁hollow	-11.5643
▁requisition	-11.5643
▁temperament	-11.5643
▁tariff	-11.5643
▁mild	-11.5644
▁Wales	-11.5646
▁endorsement	-11.5646
▁plug	-11.5648
▁Bhi	-11.5648
ground	-11.5649
▁briefly	-11.5653
▁accus	-11.5657
▁Fourth	-11.5657
anna	-11.5657
assisted	-11.5661
▁painted	-11.5662
▁Produc	-11.5666
▁Arjuna	-11.5672
▁Fast	-11.5672
▁Ken	-11.5674
▁reside	-11.5684
▁Mani	-11.5684
▁locked	-11.5686
▁hilly	-11.5691
▁Proclamation	-11.5695
▁Wildlife	-11.5695
▁restaurant	-11.5695
▁circum	-11.5695
▁steadily	-11.5695
▁whisper	-11.5695
▁unlawful	-11.5695
▁Qaeda	-11.5695
▁tonnage	-11.5695
▁banyan	-11.5696
▁wireless	-11.5698
▁scrap	-11.57
▁touching	-11.5703
▁Load	-11.5703
▁Input	-11.5708
▁merger	-11.5709
▁beast	-11.5712
▁Beg	-11.5712
ulla	-11.5714
▁prone	-11.5714
comm	-11.5716
▁Indic	-11.5716
▁prosecutor	-11.5717
▁Internal	-11.5722
master	-11.5722
▁provisional	-11.5736
▁rooted	-11.574
▁Kavi	-11.5746
▁neutral	-11.5747
▁California	-11.5747
▁Friday	-11.5747
▁Nivedita	-11.5747
▁aggression	-11.5747
▁glimpse	-11.5747
▁Undertaking	-11.5747
▁holistic	-11.5747
▁luminous	-11.5747
▁Ahmad	-11.5747
▁foremost	-11.5747
▁Madhav	-11.5749
▁reliance	-11.575
▁fighters	-11.575
▁banana	-11.575
▁Naga	-11.5753
deva	-11.5755
▁Parent	-11.5755
▁textiles	-11.5756
▁Zionis	-11.576
▁Bagh	-11.576
▁journals	-11.5761
▁charter	-11.5765
ledge	-11.5767
▁clan	-11.5768
▁eff	-11.5771
▁regardless	-11.5771
▁renewed	-11.5772
▁linga	-11.5773
▁approve	-11.5778
▁stranger	-11.5779
▁metre	-11.5786
spite	-11.5788
mol	-11.5788
▁formulate	-11.579
▁Cave	-11.579
DF	-11.5791
▁PAN	-11.5795
▁Absolute	-11.5799
▁nucleus	-11.5799
▁sugarcane	-11.5799
▁untouchable	-11.5799
▁encompass	-11.5799
variably	-11.58
▁Ratna	-11.5802
▁Until	-11.5802
▁enact	-11.5804
▁Dalit	-11.5805
▁Zo	-11.5805
▁Balance	-11.5806
▁Mahadevi	-11.5807
▁Patent	-11.5808
▁Hills	-11.5812
▁Manag	-11.5818
▁Keeping	-11.5818
▁Arjun	-11.5823
▁sided	-11.5826
▁summons	-11.5826
▁Geo	-11.5834
▁Active	-11.5838
tified	-11.5841
▁Ball	-11.5841
▁openly	-11.5841
▁fertilizer	-11.5842
hram	-11.5846
▁extensively	-11.5848
▁unanimous	-11.5852
▁Devanagari	-11.5852
▁Guarantee	-11.5852
▁Vehicle	-11.5852
▁portrait	-11.5852
▁dancing	-11.5852
▁Increase	-11.5852
▁canvas	-11.5853
▁composite	-11.5854
▁captain	-11.5854
▁Notification	-11.5856
nama	-11.5856
▁heirs	-11.5857
▁Motor	-11.5857
▁stupid	-11.586
hini	-11.5863
▁Round	-11.5868
▁emphasized	-11.587
▁handicrafts	-11.5871
abhi	-11.5873
varying	-11.5876
▁mastery	-11.5878
JA	-11.5879
MB	-11.588
dded	-11.5882
▁Manual	-11.5886
opathy	-11.5888
verted	-11.5888
▁commenced	-11.5893
▁floating	-11.5897
LD	-11.5897
▁phenomena	-11.59
▁Tibet	-11.5901
▁Less	-11.5903
▁Performance	-11.5905
▁Twenty	-11.5905
▁ambulance	-11.5905
▁flexibility	-11.5905
▁hierarchy	-11.5905
▁responsive	-11.5905
▁chemist	-11.5905
▁anticipate	-11.5905
▁hesitate	-11.5905
▁minimiz	-11.5905
▁Half	-11.5906
▁diplomacy	-11.5906
▁dispers	-11.5906
▁counterpart	-11.5906
▁Teachers	-11.5906
▁Pancha	-11.5906
▁expedition	-11.591
▁Hydro	-11.5911
▁bark	-11.5912
▁bang	-11.5912
▁Narayana	-11.5918
▁sometime	-11.592
▁Kot	-11.592
▁Bhan	-11.592
▁Sher	-11.5922
phere	-11.5926
type	-11.5926
▁Cu	-11.5931
▁chlor	-11.5931
▁Visitor	-11.5932
▁Generat	-11.5933
▁unfortunately	-11.5933
NB	-11.5934
▁justify	-11.5935
lish	-11.5936
lingual	-11.5936
intern	-11.5943
▁ride	-11.5951
▁Success	-11.5954
bility	-11.5958
▁Treaty	-11.5958
▁fertile	-11.5958
▁sanctum	-11.5958
▁vacancy	-11.5958
▁Dutch	-11.5958
▁homage	-11.5958
▁Vikram	-11.5958
▁asleep	-11.5958
▁globally	-11.5959
▁Unlike	-11.596
▁seventeen	-11.596
▁Joze	-11.596
▁labor	-11.5962
▁elimination	-11.5962
▁adequately	-11.5964
▁peripheral	-11.5965
possessed	-11.5968
▁offset	-11.5973
▁envisages	-11.5977
RD	-11.5987
burg	-11.5987
FT	-11.5987
▁mentor	-11.5988
gul	-11.5989
▁hereafter	-11.599
▁sala	-11.599
hl	-11.5996
mulating	-11.6002
▁rib	-11.6009
▁Olympic	-11.6012
▁Sweden	-11.6012
▁ceremonial	-11.6012
▁disregard	-11.6012
▁hymn	-11.6012
▁imminent	-11.6012
▁whatsoever	-11.6012
▁Expenditure	-11.6012
▁cereal	-11.6012
▁clerk	-11.6012
▁brutal	-11.6012
▁naked	-11.6012
▁Omitt	-11.6012
▁memories	-11.6012
▁Munshi	-11.6012
▁hostility	-11.6012
▁Corp	-11.6014
▁misery	-11.6015
▁soap	-11.6017
▁Circ	-11.6017
▁ridge	-11.6017
▁dye	-11.6021
▁replacement	-11.6021
▁Vid	-11.6021
▁Factor	-11.6023
▁Abhi	-11.6026
▁educat	-11.6029
▁Mass	-11.6034
▁AI	-11.6034
▁summari	-11.6038
tically	-11.6045
▁disclos	-11.6046
class	-11.6048
▁celebration	-11.6054
▁Math	-11.6058
▁selfless	-11.6065
▁Evidence	-11.6065
▁Varanasi	-11.6065
▁diagnose	-11.6065
▁offensive	-11.6065
▁superficial	-11.6065
▁unhappy	-11.6065
▁undue	-11.6066
▁claimant	-11.6067
▁pearl	-11.6067
▁brotherhood	-11.6068
▁malaria	-11.6068
▁Englishman	-11.6068
▁Nag	-11.607
▁commentary	-11.6073
▁scarce	-11.6081
▁periodical	-11.6083
▁vain	-11.6083
rtha	-11.6084
▁Jahan	-11.6086
ection	-11.6088
ALL	-11.6088
▁VII	-11.6089
▁heroic	-11.609
gana	-11.609
▁Feed	-11.6093
▁sincere	-11.6094
▁emit	-11.6094
nie	-11.6096
▁Petitioner	-11.6099
tention	-11.6099
isc	-11.6102
▁winners	-11.6104
▁pulses	-11.6105
▁smallest	-11.6114
centric	-11.6117
▁Cultural	-11.6119
▁License	-11.6119
▁bracket	-11.6119
▁portfolio	-11.6119
▁temporarily	-11.6119
▁HPCL	-11.6119
▁census	-11.6119
▁sikhara	-11.6119
▁mystery	-11.612
▁renounc	-11.612
▁habitual	-11.6121
▁mainstream	-11.6121
▁cordial	-11.6122
wala	-11.6122
▁priorities	-11.6124
▁lawful	-11.6126
▁summit	-11.6126
oe	-11.6127
▁toilet	-11.6135
ologists	-11.6135
▁cake	-11.6136
▁eaten	-11.6138
▁Nanda	-11.614
▁educate	-11.6141
▁Bag	-11.6143
▁shower	-11.6151
lude	-11.6157
▁indulg	-11.6163
▁elderly	-11.6167
▁gran	-11.6169
muni	-11.6169
▁mortal	-11.6171
▁clinic	-11.6172
▁SPEECH	-11.6173
▁presided	-11.6173
▁Moscow	-11.6174
▁autonomy	-11.6174
▁consecutive	-11.6174
▁gravity	-11.6174
▁incorrect	-11.6174
▁tranquil	-11.6174
▁fragment	-11.6174
▁puzzle	-11.6174
▁Inquiry	-11.6174
▁spices	-11.6174
▁Chairperson	-11.6174
COUNT	-11.6174
▁Serial	-11.6174
▁psycho	-11.6174
▁Venkata	-11.6174
pons	-11.6175
PT	-11.6175
▁monopoly	-11.6179
▁addict	-11.6181
▁telegraph	-11.6181
▁blindness	-11.6187
▁Phil	-11.6195
MU	-11.6205
▁hrs	-11.6205
▁dispose	-11.6207
vation	-11.6215
▁fled	-11.6215
LR	-11.622
▁redress	-11.622
train	-11.6221
▁Cut	-11.6228
▁esteem	-11.6228
▁Method	-11.6229
▁inhabitants	-11.6229
▁Kisan	-11.6229
▁biography	-11.623
▁missile	-11.623
▁orbit	-11.6234
▁Contribution	-11.6234
▁Phone	-11.6235
gita	-11.6243
▁Marine	-11.6248
▁Rana	-11.6252
▁preventive	-11.6254
▁complexity	-11.6257
▁occupie	-11.6262
▁identifie	-11.6262
▁colon	-11.6263
writing	-11.6265
▁riding	-11.6265
▁Disputes	-11.6266
▁NOT	-11.6268
▁Train	-11.6269
▁Mid	-11.627
▁politician	-11.6273
grade	-11.6276
▁safely	-11.6276
▁illustrate	-11.628
▁capita	-11.6282
▁acquaint	-11.6282
▁arrears	-11.6283
▁ethics	-11.6283
▁obstina	-11.6283
▁regain	-11.6283
▁curious	-11.6284
▁Gautam	-11.6285
▁supervise	-11.6286
▁Measures	-11.6287
▁Bachan	-11.6287
▁Puranas	-11.629
▁RSS	-11.6295
ayana	-11.6301
▁exert	-11.6303
▁Arch	-11.6304
▁restless	-11.6304
▁realm	-11.6307
▁lifetime	-11.6312
▁counted	-11.6312
rata	-11.632
▁transcend	-11.6332
NI	-11.6335
▁Century	-11.6339
▁Hitler	-11.6339
▁NUMBER	-11.6339
▁lifestyle	-11.6339
▁IFCI	-11.6339
▁plough	-11.6339
▁boast	-11.6339
▁provok	-11.6339
▁drunk	-11.6339
▁bribery	-11.634
▁weaver	-11.6341
▁initiation	-11.6342
▁patriotic	-11.6342
▁Rajiv	-11.6346
▁Earlie	-11.6348
▁escaped	-11.6351
gun	-11.6352
▁deci	-11.6354
▁emanat	-11.6356
▁arid	-11.6359
ither	-11.6359
▁Gandhian	-11.6363
blo	-11.6368
omen	-11.637
▁enforced	-11.6378
▁restrain	-11.6379
▁pap	-11.6383
▁None	-11.6387
▁nearer	-11.639
▁Hussein	-11.6394
▁Permanent	-11.6394
▁exciting	-11.6394
▁verdict	-11.6394
▁solitary	-11.6394
▁reputed	-11.6394
▁renunciation	-11.6394
▁bonus	-11.6395
▁ambitious	-11.6395
▁activate	-11.6395
▁Settings	-11.6395
▁feedback	-11.6396
▁menace	-11.6398
▁Scale	-11.6398
receptor	-11.64
▁INDIAN	-11.6402
▁enhancement	-11.6411
iform	-11.6411
▁foe	-11.6418
▁novelist	-11.642
▁Students	-11.6424
ANT	-11.6424
GO	-11.6428
hwa	-11.6428
▁consistently	-11.643
dai	-11.6431
lmost	-11.6434
▁chin	-11.6435
▁Suri	-11.6437
▁Sum	-11.6439
▁dot	-11.6443
▁reache	-11.6445
▁Tel	-11.6445
▁Kho	-11.6446
▁authoritative	-11.645
▁jealous	-11.645
▁maritime	-11.645
▁suspicion	-11.645
▁CONDOLE	-11.645
▁inclined	-11.645
▁depart	-11.645
▁Simple	-11.6451
▁waist	-11.6451
▁Controller	-11.6453
▁expressing	-11.6454
▁fro	-11.6454
▁Bapu	-11.6454
▁Translation	-11.6458
hani	-11.6459
▁bullet	-11.6463
▁domination	-11.6464
▁rob	-11.6466
dari	-11.6468
mia	-11.6487
▁Box	-11.649
iasis	-11.6498
kand	-11.65
play	-11.6505
▁mosquito	-11.6506
▁nitrogen	-11.6506
etropolitan	-11.6506
▁absorption	-11.6506
▁infectious	-11.6506
▁Copyright	-11.6507
▁salaries	-11.6507
▁maternal	-11.6507
▁shaping	-11.6508
▁Crime	-11.6509
▁fringe	-11.6511
▁Mari	-11.6513
▁inventor	-11.6514
▁rash	-11.6517
▁Sukh	-11.6517
▁neglected	-11.6517
lok	-11.6519
▁Friends	-11.6524
▁suspected	-11.6527
▁Write	-11.6529
▁Victoria	-11.6537
▁inherited	-11.6537
▁Provision	-11.6545
urview	-11.6547
akshi	-11.6548
▁quo	-11.6556
▁flora	-11.656
▁respirator	-11.6563
▁Little	-11.6563
▁alignment	-11.6563
▁completing	-11.6563
▁diameter	-11.6563
▁forecast	-11.6563
▁Wood	-11.6563
▁Kavya	-11.6564
▁calf	-11.6565
▁cited	-11.6565
▁Series	-11.6566
▁scroll	-11.6567
▁authentication	-11.6568
▁retention	-11.657
▁refusal	-11.657
▁Congo	-11.6572
▁workshops	-11.6577
▁Syrian	-11.6583
RP	-11.6583
undor	-11.6586
ENCE	-11.6589
NF	-11.6589
▁fide	-11.659
▁announce	-11.6591
▁heating	-11.6601
▁devotional	-11.6608
▁Wall	-11.6612
▁Karna	-11.6612
▁Bachchan	-11.662
▁Character	-11.662
▁Elephant	-11.662
▁blossom	-11.662
▁explosion	-11.662
▁mathematical	-11.662
▁pepper	-11.662
▁refresh	-11.662
▁vigour	-11.662
▁simplify	-11.662
▁Vedanta	-11.662
▁Nawab	-11.662
▁Maurya	-11.662
▁mammal	-11.6621
▁Daily	-11.6621
▁gateway	-11.6621
▁Usual	-11.6622
▁commendable	-11.6623
▁swing	-11.6623
▁adjudication	-11.6624
▁vocational	-11.6624
▁restart	-11.6624
▁remedies	-11.6626
▁Tara	-11.6627
▁medal	-11.6628
▁fitting	-11.663
▁commence	-11.6636
▁kilograms	-11.6643
▁precedent	-11.6649
hm	-11.6656
▁Rain	-11.6658
▁Metro	-11.666
▁SMS	-11.6661
IE	-11.6662
▁Jha	-11.6663
▁harvesting	-11.6663
▁float	-11.6665
gat	-11.6676
▁Mexico	-11.6677
▁illiterate	-11.6677
▁remittance	-11.6677
▁feudal	-11.6677
▁ecological	-11.6677
▁Keyboard	-11.6677
▁abode	-11.6677
▁fiber	-11.6677
▁Respondent	-11.6677
▁solvent	-11.6679
▁cancelled	-11.6679
▁handloom	-11.668
▁ailment	-11.6682
▁redressal	-11.6688
▁alteration	-11.6696
▁admirer	-11.6697
▁DP	-11.6697
kari	-11.6709
consumed	-11.6709
▁thereunder	-11.6712
▁exporters	-11.6713
▁Reader	-11.672
▁finest	-11.6721
▁seated	-11.6722
▁barrier	-11.6731
▁Single	-11.6732
▁immigrant	-11.6734
▁rigorous	-11.6734
▁sulphur	-11.6734
▁umbrella	-11.6734
▁zamindar	-11.6734
▁upheld	-11.6734
▁buried	-11.6734
▁gauge	-11.6735
▁tribe	-11.6735
▁Submission	-11.6735
▁isolation	-11.6735
alumni	-11.6737
▁distribute	-11.6738
▁glow	-11.6743
dimensional	-11.6749
▁Tell	-11.6755
▁Ruler	-11.676
▁header	-11.6766
▁banker	-11.6771
▁Compar	-11.6773
▁coordinat	-11.6777
▁pupa	-11.6778
▁collaborat	-11.6779
▁capitalist	-11.6779
▁Meh	-11.6785
angi	-11.6788
riti	-11.6789
hab	-11.6792
▁Independent	-11.6792
▁Peninsula	-11.6792
▁Vigyan	-11.6792
▁aggrieved	-11.6792
▁beneficiary	-11.6792
▁diagnosis	-11.6792
▁martyr	-11.6792
▁Rahul	-11.6792
▁aquatic	-11.6792
▁Accept	-11.6793
▁fauna	-11.6793
▁cruelty	-11.6795
stream	-11.6795
▁prospective	-11.6796
▁joke	-11.6798
▁correspond	-11.6799
▁Professional	-11.6799
▁Soul	-11.6801
▁washed	-11.6803
▁rainy	-11.6804
▁sponsor	-11.6807
▁Crop	-11.6808
▁Printer	-11.681
icular	-11.6813
▁ripe	-11.6815
▁obstacles	-11.6821
▁Pari	-11.6822
▁thinker	-11.6823
▁hunt	-11.6823
▁Fu	-11.6823
▁Toward	-11.6825
▁accommodate	-11.6829
▁seasonal	-11.6834
▁dare	-11.6835
▁committ	-11.6845
▁warmth	-11.6845
▁harder	-11.6845
▁Conservation	-11.685
▁Khandekar	-11.685
▁Savarkar	-11.685
▁bargain	-11.685
▁corpus	-11.685
▁Browse	-11.6851
▁orphan	-11.6851
▁Setting	-11.6856
▁ACT	-11.6859
▁Sagar	-11.6859
▁enduring	-11.686
▁Fax	-11.686
▁duck	-11.6863
▁Nobody	-11.6863
▁converting	-11.6867
▁merged	-11.6871
▁divert	-11.6874
▁hospitality	-11.6877
rite	-11.6882
avali	-11.6882
▁perceive	-11.6887
▁fearless	-11.6889
▁thorough	-11.689
▁secretion	-11.6892
▁discharged	-11.6895
limit	-11.6902
▁Lebanon	-11.6909
▁Publish	-11.6909
▁Siyaramsharan	-11.6909
▁Valmiki	-11.6909
▁pecuniar	-11.6909
▁encoding	-11.6909
▁ideological	-11.6909
▁prejudicial	-11.6909
▁Abbas	-11.6909
▁Presid	-11.691
▁Poona	-11.691
▁Mental	-11.6913
▁journalism	-11.6913
▁Surat	-11.6913
▁endless	-11.6913
▁CPU	-11.6915
onym	-11.6915
▁Apple	-11.6916
▁Directive	-11.6917
▁contradiction	-11.6918
▁Ashoka	-11.6922
prasad	-11.6924
icus	-11.6928
▁merge	-11.6931
vant	-11.6936
▁Instrument	-11.6941
▁Portal	-11.6942
sagar	-11.6945
▁disadvantage	-11.6946
▁needle	-11.6956
rick	-11.6957
▁nutrients	-11.6958
▁Lakh	-11.6965
ORROW	-11.6967
▁Initiative	-11.6967
▁diamond	-11.6967
▁discontinu	-11.6967
▁exemplary	-11.6967
▁frivolous	-11.6967
▁glucose	-11.6967
▁rebellion	-11.6967
▁voluntarily	-11.6967
▁unlimited	-11.6967
▁beneath	-11.6967
▁Thakur	-11.6967
▁trader	-11.6968
▁Aviation	-11.6968
▁invented	-11.6968
▁Background	-11.6968
▁Mishra	-11.6969
▁Seminar	-11.6969
▁patronage	-11.697
▁stride	-11.6971
▁Cause	-11.6972
iberation	-11.6974
▁accomplishment	-11.6978
▁instruct	-11.6978
▁devil	-11.698
▁Parties	-11.6982
▁correction	-11.6986
▁Daman	-11.6988
▁adapted	-11.6989
▁Kalyan	-11.6997
▁efficiently	-11.7002
▁Pack	-11.7006
▁eliminat	-11.7007
▁manure	-11.7007
▁awakening	-11.7014
▁ascend	-11.7016
▁coincide	-11.7016
trial	-11.7016
▁pile	-11.7024
▁Contempt	-11.7027
▁Santiniketan	-11.7027
▁Suddenly	-11.7027
▁harbour	-11.7027
▁inspiring	-11.7027
▁tuberculosis	-11.7027
▁heartfelt	-11.7027
▁diagram	-11.7027
▁Bridge	-11.7027
▁Naidu	-11.7027
▁skull	-11.7027
▁lodge	-11.7027
▁Think	-11.7027
▁Celebrations	-11.7027
▁Palace	-11.7027
▁disobedience	-11.7028
▁obey	-11.7028
▁hydrogen	-11.7028
▁steal	-11.7028
▁spinning	-11.7028
▁exhaustive	-11.7031
▁schema	-11.7031
▁Shivaji	-11.7032
▁Important	-11.7034
▁kick	-11.7034
▁Eight	-11.7035
▁leak	-11.7035
▁dirty	-11.7036
▁handsome	-11.7037
▁detain	-11.7038
▁adaptation	-11.7041
▁Tam	-11.7042
▁Semi	-11.7042
CAIR	-11.7043
▁Rash	-11.7046
▁Content	-11.7053
URE	-11.7054
▁locality	-11.7059
order	-11.7059
▁CHA	-11.706
▁Meta	-11.7064
▁Custom	-11.7066
▁gradual	-11.7067
▁maid	-11.7071
▁sink	-11.7073
▁buffalo	-11.7078
plica	-11.7079
mission	-11.7082
rbakhsh	-11.7086
▁Jodhpur	-11.7086
▁Nuclear	-11.7086
▁Superintendent	-11.7086
▁alchemist	-11.7086
▁curiosity	-11.7086
▁Amitabh	-11.7086
▁trekker	-11.7086
▁Steel	-11.7086
▁bullock	-11.7087
▁polish	-11.7087
WAY	-11.7087
▁Wild	-11.7088
▁Reddy	-11.709
▁guilt	-11.7091
▁propagation	-11.7093
▁tide	-11.7093
▁Flow	-11.7094
▁vomit	-11.7097
▁blast	-11.7099
▁pity	-11.7102
▁personalities	-11.7102
▁Recently	-11.7103
▁Dun	-11.7104
guard	-11.7107
▁ample	-11.7119
evolving	-11.7119
▁Roll	-11.7123
▁Chin	-11.7128
▁consolidated	-11.7128
uria	-11.7129
▁Haj	-11.7133
swami	-11.7144
DT	-11.7145
▁swollen	-11.7146
▁compiled	-11.7146
▁Textiles	-11.7146
▁Writing	-11.7146
▁annuity	-11.7146
▁bundle	-11.7146
▁Yadav	-11.7146
▁Opposition	-11.7146
▁moisture	-11.7147
▁Complex	-11.7147
▁Gul	-11.7147
▁ultra	-11.7148
▁Thiru	-11.7148
▁chew	-11.7151
▁carpet	-11.7151
▁competitiveness	-11.7158
▁uniformity	-11.7158
▁PRI	-11.7159
▁Gate	-11.716
▁Fish	-11.7161
PATI	-11.7161
sufficient	-11.7161
ML	-11.7163
▁XII	-11.7164
▁Lac	-11.7169
▁protective	-11.7174
▁adversely	-11.7185
▁effectiveness	-11.7201
▁basin	-11.7202
fee	-11.7204
▁Subsequent	-11.7206
▁Capacity	-11.7206
▁denomination	-11.7206
▁precaution	-11.7206
▁tactics	-11.7206
▁memorable	-11.7206
▁scratch	-11.7206
▁HTTP	-11.7206
▁placing	-11.7206
▁architectural	-11.7206
▁multilateral	-11.7207
▁stiff	-11.7207
▁consultancy	-11.7207
▁Tube	-11.7207
▁Ramakrishna	-11.7208
▁trash	-11.7208
▁knot	-11.7209
▁Ground	-11.7209
▁Sudan	-11.7209
▁Front	-11.721
▁vogue	-11.721
▁creature	-11.7212
▁preserv	-11.7215
▁attaining	-11.7215
▁Madan	-11.7216
▁procur	-11.7216
kash	-11.7218
pea	-11.7219
▁Down	-11.7222
▁accession	-11.7224
▁Loss	-11.7228
▁Mitra	-11.723
logged	-11.7246
▁spine	-11.7246
▁blog	-11.7251
▁habitat	-11.7257
hom	-11.726
▁engineer	-11.7262
▁Guwahati	-11.7267
▁Harishchandra	-11.7267
▁Pondicherry	-11.7267
▁Preamble	-11.7267
▁SERVICE	-11.7267
▁fascinating	-11.7267
▁fraudulent	-11.7267
▁hygiene	-11.7267
▁indifference	-11.7267
▁memorial	-11.7267
▁ordinance	-11.7267
▁superstition	-11.7267
▁Malaysia	-11.7267
▁Material	-11.7267
▁demographic	-11.7267
▁wicked	-11.7267
▁Adalat	-11.7267
▁Vallabh	-11.7267
▁amenities	-11.7267
▁loading	-11.7267
▁constitut	-11.7268
idae	-11.7269
▁Priority	-11.727
ATA	-11.7272
▁embodied	-11.7273
▁Making	-11.7273
▁blanket	-11.7275
▁charity	-11.7275
▁clash	-11.7275
▁expired	-11.7278
cci	-11.7279
deo	-11.7279
animate	-11.728
▁indulge	-11.728
▁sickness	-11.7282
▁suspend	-11.7284
▁lobe	-11.7285
▁Purana	-11.7287
sufficiently	-11.729
▁originated	-11.7292
▁hail	-11.7296
tika	-11.7298
▁Dasa	-11.7301
related	-11.7303
▁quotation	-11.7304
PF	-11.7307
▁Similar	-11.7309
▁defi	-11.7312
▁Ashok	-11.7314
▁GRA	-11.7323
▁imprison	-11.7325
eswara	-11.7327
▁Prophet	-11.7328
▁intestate	-11.7328
▁uranium	-11.7328
▁warehouse	-11.7328
▁congratulations	-11.7328
▁COURT	-11.7328
▁Framework	-11.7328
▁dental	-11.7328
▁annoy	-11.7328
▁straw	-11.7329
▁Captain	-11.7329
▁awaken	-11.7331
UP	-11.7332
▁feast	-11.7332
▁ugly	-11.7332
▁stepp	-11.7338
▁lone	-11.734
▁lightning	-11.7342
▁provident	-11.7344
▁Editor	-11.7348
▁linkage	-11.7348
ifera	-11.7353
▁Karma	-11.7357
vam	-11.736
▁learners	-11.7366
▁infrastructur	-11.7367
▁Championships	-11.7372
▁confess	-11.7375
bhara	-11.7376
▁rightful	-11.7377
▁selfish	-11.7378
▁Soil	-11.7381
▁PW	-11.7384
▁relax	-11.7385
▁plaint	-11.7388
▁Certification	-11.7389
▁MINISTER	-11.7389
▁Medicine	-11.7389
▁Redressal	-11.7389
▁sympathetic	-11.7389
▁expedient	-11.7389
▁Blue	-11.739
▁stuck	-11.739
▁microscope	-11.739
PM	-11.7391
▁storing	-11.7391
▁consolidat	-11.7403
▁depositor	-11.7404
▁Agni	-11.7411
shankar	-11.7411
▁Weight	-11.7413
▁undergoing	-11.7416
▁Poor	-11.7416
▁Islamism	-11.7421
▁emphasize	-11.743
▁Bird	-11.7433
▁angel	-11.7433
▁tit	-11.7434
UST	-11.7436
▁Gaya	-11.7439
▁adviser	-11.7446
▁Progress	-11.7449
▁fool	-11.745
▁Infinite	-11.7451
▁divisible	-11.7451
▁grievous	-11.7451
▁humanitarian	-11.7451
▁sanctuary	-11.7451
▁domicile	-11.7451
▁eldest	-11.7451
▁Austria	-11.7451
▁revelation	-11.7451
▁screw	-11.7451
▁Scientist	-11.7451
▁carving	-11.7451
▁immigration	-11.7451
▁convergence	-11.7451
▁Risk	-11.7451
▁vacant	-11.7451
▁Diwali	-11.7451
▁inheritance	-11.7452
▁thunder	-11.7452
▁inviting	-11.7453
griva	-11.7456
▁advisory	-11.7458
▁proven	-11.7459
▁motivat	-11.7463
▁decent	-11.7465
▁Bull	-11.7468
▁flute	-11.7469
graphy	-11.7469
▁mounted	-11.7482
▁useless	-11.7483
▁dread	-11.7485
▁preside	-11.7486
▁contention	-11.7491
ford	-11.7506
▁Fall	-11.7506
▁dim	-11.7506
▁discourage	-11.7513
▁extremist	-11.7513
▁leisure	-11.7513
▁Obvious	-11.7513
▁Preferences	-11.7513
▁sediment	-11.7513
▁biotechnology	-11.7513
▁geography	-11.7513
▁devoid	-11.7514
▁Authorities	-11.7515
▁cargo	-11.7526
ttam	-11.7541
▁Tim	-11.7546
worth	-11.7546
▁Haran	-11.7549
▁Irish	-11.7559
▁Cover	-11.7563
▁adjudicat	-11.7571
▁AWARDS	-11.7576
▁WITH	-11.7576
▁conciliation	-11.7576
▁deceit	-11.7576
▁ladies	-11.7576
▁invisible	-11.7576
▁brood	-11.7576
▁fortnight	-11.7576
▁evict	-11.7577
▁disagreement	-11.7581
▁Mandi	-11.7585
▁withhold	-11.7588
▁Wait	-11.7589
CG	-11.7591
▁Gun	-11.7595
▁Narmadashank	-11.7598
organisation	-11.7605
▁Mong	-11.7609
science	-11.761
equality	-11.7613
treating	-11.7615
▁Bihari	-11.7617
▁hell	-11.7621
chang	-11.7623
▁Jog	-11.7624
▁Apply	-11.7626
▁habitation	-11.7627
▁Launch	-11.7634
▁Equal	-11.7635
▁fossil	-11.7638
▁implicit	-11.7638
▁statistical	-11.7638
rchaeological	-11.7638
▁Maintenance	-11.7638
▁Philosophy	-11.7638
▁cottage	-11.7638
▁illustrious	-11.7638
▁Growth	-11.7638
▁unwilling	-11.7638
▁romance	-11.7639
▁incapable	-11.7639
▁calcium	-11.7639
▁transcendent	-11.7641
▁Parvati	-11.7641
lang	-11.7641
▁frog	-11.7642
▁heroine	-11.7642
▁Sham	-11.7645
▁suppression	-11.7646
▁cheaper	-11.7663
▁Sap	-11.7664
▁lender	-11.7664
praised	-11.7668
▁diff	-11.7669
▁Chang	-11.7673
LAN	-11.7675
▁niche	-11.7678
▁convince	-11.768
▁TOM	-11.7687
▁Nin	-11.7688
▁illustrat	-11.7688
▁kid	-11.7698
▁Academic	-11.7702
▁Akademi	-11.7702
▁Excellence	-11.7702
▁Receipt	-11.7702
▁enzyme	-11.7702
▁substitution	-11.7702
▁vegetation	-11.7702
▁imbibe	-11.7702
▁Above	-11.7702
▁Problem	-11.7702
▁Circular	-11.7702
▁Terminal	-11.7702
opia	-11.7703
▁creator	-11.7703
▁Remov	-11.7704
▁confirmation	-11.7708
buck	-11.7709
empt	-11.7712
▁aspiration	-11.7715
▁Spec	-11.7725
▁slide	-11.7727
▁defaulter	-11.7727
▁exile	-11.773
▁Siddha	-11.7735
▁authenticate	-11.7736
▁Mono	-11.7754
▁entrepreneur	-11.7754
▁BOLD	-11.7765
▁ISBN	-11.7765
▁Regular	-11.7765
▁leopard	-11.7765
▁swallow	-11.7765
▁Quarter	-11.7765
▁ministries	-11.7765
▁facie	-11.7765
▁buffer	-11.7765
▁Guinea	-11.7765
▁hiding	-11.7766
▁nectar	-11.7766
▁concede	-11.7766
▁Travel	-11.7766
▁greenhouse	-11.7768
▁steer	-11.7769
▁batting	-11.777
EB	-11.7773
▁Seventh	-11.7776
▁SH	-11.7785
aq	-11.7789
▁BIS	-11.7792
▁periodically	-11.7794
cient	-11.7799
LT	-11.7802
▁resume	-11.7803
▁wandering	-11.7812
ttributed	-11.7814
faceted	-11.7815
▁Heart	-11.7821
▁Imperial	-11.783
▁contributor	-11.783
▁duplicate	-11.783
▁embedded	-11.783
▁fertility	-11.783
▁opposing	-11.783
▁panchayat	-11.783
▁LIFE	-11.783
▁obscure	-11.783
▁complications	-11.783
▁ozone	-11.783
▁cursor	-11.783
▁Countries	-11.783
▁Output	-11.7831
▁Ancient	-11.7834
▁deform	-11.7838
▁litter	-11.7841
▁licens	-11.7842
▁Join	-11.7845
▁motherland	-11.7847
▁Nine	-11.785
went	-11.7851
▁charming	-11.7851
natal	-11.7854
▁Charit	-11.7857
▁Hour	-11.7866
NP	-11.7867
▁manufacturer	-11.7872
▁Hor	-11.7872
▁Republican	-11.7875
▁triple	-11.7877
▁Chola	-11.7884
ONE	-11.7887
based	-11.7889
welfth	-11.7894
▁Discussion	-11.7894
▁aggravat	-11.7894
▁liquor	-11.7894
▁subscription	-11.7894
▁Reason	-11.7894
▁Pratap	-11.7894
▁telegram	-11.7894
▁thorn	-11.7895
▁launchpad	-11.7895
▁Hotel	-11.7896
▁Vyas	-11.7899
amine	-11.7899
▁inquire	-11.79
▁customary	-11.7903
▁shelf	-11.7904
▁Night	-11.7906
mitra	-11.7914
▁documentary	-11.7915
▁optical	-11.792
▁publisher	-11.792
▁comb	-11.7923
YA	-11.7927
ganj	-11.7928
rug	-11.793
▁nutritional	-11.7933
▁Bee	-11.7936
▁booklet	-11.7944
colour	-11.7948
▁Adjust	-11.7949
▁Mahendra	-11.7952
▁Diwan	-11.7953
▁anterior	-11.7953
▁repay	-11.7954
▁Alexander	-11.7959
▁caterpillar	-11.7959
▁generator	-11.7959
▁hitherto	-11.7959
▁jurisprudence	-11.7959
▁livestock	-11.7959
▁prescription	-11.7959
▁seldom	-11.7959
▁Opinion	-11.7959
▁VPN	-11.7959
▁cousin	-11.7959
▁activist	-11.7959
▁retrieve	-11.7959
▁Everything	-11.7959
▁compulsion	-11.7959
▁defense	-11.7959
▁Visva	-11.7961
▁foolish	-11.7961
▁probability	-11.7962
▁advocated	-11.7963
▁jury	-11.7964
▁conformity	-11.7964
▁voters	-11.7965
▁Rishi	-11.7966
▁BBC	-11.7966
nomic	-11.7967
▁accomplish	-11.797
undergone	-11.797
▁accusation	-11.7971
▁DIS	-11.7973
ustainable	-11.7978
▁APP	-11.7987
▁unite	-11.7991
TU	-11.7992
narayan	-11.7996
▁overwhelming	-11.7997
▁incorporate	-11.8003
▁fierce	-11.8024
▁apparatus	-11.8024
▁compilation	-11.8024
▁hereinafter	-11.8024
▁matrix	-11.8024
▁peacock	-11.8024
▁proclamation	-11.8024
▁spectacular	-11.8024
▁Request	-11.8024
▁muslim	-11.8024
▁Improv	-11.8025
▁ICAR	-11.8025
olidarity	-11.8025
▁colonies	-11.8026
▁banned	-11.8026
▁financed	-11.8027
▁Norway	-11.8027
▁slavery	-11.8027
▁Chan	-11.8028
▁console	-11.8029
▁functionaries	-11.8031
▁Often	-11.8032
▁goddesses	-11.8044
▁wander	-11.8044
▁Shak	-11.8046
▁complained	-11.8047
▁choos	-11.8051
▁concerted	-11.8051
▁colony	-11.8054
▁pleading	-11.8056
▁depicted	-11.8061
▁Wide	-11.8074
▁Granth	-11.8075
psy	-11.8079
▁ambit	-11.8084
▁disagree	-11.8084
▁encrypt	-11.8086
▁Recent	-11.8089
▁Myanmar	-11.809
▁afflict	-11.809
▁ambassador	-11.809
▁reservoir	-11.809
▁trivial	-11.809
▁milestone	-11.809
▁album	-11.809
▁refined	-11.809
▁Venture	-11.8091
▁reassessment	-11.8091
▁flour	-11.8092
▁trail	-11.8093
▁quasi	-11.8094
▁forgive	-11.8095
▁transit	-11.8095
▁imitation	-11.8097
bhava	-11.81
▁Beach	-11.8102
PU	-11.8104
▁pause	-11.8106
▁Anna	-11.811
▁contraction	-11.8111
altered	-11.8112
▁reap	-11.8113
▁Rig	-11.8115
▁comparable	-11.8116
ivism	-11.8117
▁shooting	-11.8119
▁Bhat	-11.8123
yani	-11.8124
TD	-11.8126
▁Rabi	-11.8126
▁opera	-11.813
▁flo	-11.8139
▁comparative	-11.8141
khand	-11.8143
▁Poll	-11.8145
▁conquered	-11.8146
▁visa	-11.8146
renal	-11.8153
▁Appointment	-11.8156
▁Audacity	-11.8156
▁Mahavira	-11.8156
▁Structure	-11.8156
▁abdominal	-11.8156
▁credentials	-11.8156
▁influential	-11.8156
▁promulgat	-11.8156
▁humility	-11.8156
▁salvation	-11.8156
▁pricing	-11.8156
▁Binding	-11.8157
▁feather	-11.8157
▁immune	-11.8157
▁spear	-11.8157
▁collaborative	-11.8159
▁consolidation	-11.8161
▁Supra	-11.8161
▁Cham	-11.8162
▁raid	-11.8164
▁agony	-11.8164
▁Traditional	-11.8171
▁excavation	-11.8172
ravi	-11.8173
▁lonely	-11.8177
▁Mandali	-11.818
▁Emb	-11.8187
▁presid	-11.8192
▁lane	-11.8193
▁Panch	-11.8193
▁Specific	-11.82
▁dumb	-11.8202
▁Macro	-11.8209
▁attendant	-11.8209
▁doubtful	-11.8211
▁Way	-11.8216
▁imperial	-11.8218
▁eradicat	-11.8219
bodh	-11.8222
▁Ultimate	-11.8223
▁erstwhile	-11.8223
▁grandmother	-11.8223
▁penetration	-11.8223
▁clarity	-11.8223
▁hesitation	-11.8223
▁Blair	-11.8223
▁pigeon	-11.8223
▁plung	-11.8223
▁trauma	-11.8223
▁ecosystem	-11.8223
▁Henry	-11.8223
▁Plus	-11.8224
▁reverence	-11.8225
▁Frame	-11.8225
▁clinical	-11.8225
▁adjournment	-11.8227
▁biology	-11.8227
▁circulated	-11.823
▁elevated	-11.8231
▁renewal	-11.8231
▁rotation	-11.8233
▁cheer	-11.8236
bank	-11.8244
control	-11.8245
MIN	-11.8252
▁documentation	-11.8258
▁Reform	-11.826
▁bulb	-11.8262
▁tablet	-11.8262
tana	-11.8264
▁anchor	-11.8265
▁fighter	-11.8274
pressing	-11.8278
▁equat	-11.8282
▁disappoint	-11.8283
▁Joseph	-11.829
▁Lakshmana	-11.829
▁Madurai	-11.829
▁Military	-11.829
▁Proposal	-11.829
▁declaring	-11.829
▁hormone	-11.829
▁junior	-11.829
▁pixels	-11.829
▁precision	-11.829
▁sensitivity	-11.829
implified	-11.829
▁insecticide	-11.8291
▁cosine	-11.8291
▁Tribal	-11.8292
weight	-11.8293
▁tenancy	-11.8295
▁Package	-11.8295
▁secularism	-11.8297
▁Satish	-11.8297
pdf	-11.8303
▁transferee	-11.8308
▁perceived	-11.8315
▁Mahi	-11.8318
resent	-11.8319
vani	-11.832
▁Store	-11.8321
▁neat	-11.8326
▁Rose	-11.8329
▁suppose	-11.8336
▁expose	-11.8338
▁mega	-11.834
four	-11.8343
▁Disk	-11.8345
▁Overse	-11.8345
▁desperate	-11.8358
▁Atlantic	-11.8358
▁Desktop	-11.8358
▁Dravidian	-11.8358
▁Empowerment	-11.8358
▁Facility	-11.8358
▁adjoining	-11.8358
▁appraisal	-11.8358
▁condoled	-11.8358
▁continuation	-11.8358
▁discharging	-11.8358
▁epidemic	-11.8358
▁inevitably	-11.8358
▁shrink	-11.8358
▁splendour	-11.8358
▁treasury	-11.8358
▁Spanish	-11.8358
▁Storage	-11.8358
▁Gobind	-11.8358
▁Okay	-11.8358
▁funeral	-11.8358
▁medication	-11.8358
▁erosion	-11.8358
▁insulin	-11.8358
▁Nigeria	-11.8358
▁cheek	-11.8358
▁Trading	-11.8358
▁typing	-11.8358
▁yarn	-11.8358
▁descendants	-11.8359
▁query	-11.836
▁workforce	-11.8362
▁Uncle	-11.8363
▁interactive	-11.8365
easing	-11.8365
▁Agro	-11.8368
▁Met	-11.8372
▁debtor	-11.8372
▁Size	-11.8373
▁Sach	-11.8375
▁Sharia	-11.8376
▁illustration	-11.8377
ulated	-11.8382
▁heroes	-11.8389
▁implied	-11.8389
▁Release	-11.839
▁inspector	-11.8391
▁Extra	-11.8394
▁hip	-11.8402
▁analyse	-11.8404
▁Khar	-11.8406
▁coupled	-11.8407
▁Sound	-11.8411
▁Kenya	-11.8413
▁Govern	-11.8417
▁celebrat	-11.842
aceae	-11.8424
▁Currency	-11.8426
▁Gokhale	-11.8426
▁Puducherry	-11.8426
▁cultivator	-11.8426
▁energies	-11.8426
▁knife	-11.8426
▁mysterious	-11.8426
▁premature	-11.8426
▁mythology	-11.8426
▁Options	-11.8426
▁chariot	-11.8426
▁Atomic	-11.8426
▁truck	-11.8426
▁wilful	-11.8426
▁Shipping	-11.8426
▁Assemblies	-11.8426
▁firing	-11.8426
▁Mathura	-11.8426
probable	-11.8427
▁creep	-11.8429
▁inhabit	-11.8429
▁laughter	-11.8432
▁Nandi	-11.8433
max	-11.8434
▁Agri	-11.8434
▁Job	-11.8438
▁Holy	-11.8439
▁idealism	-11.8445
▁Rome	-11.8453
▁lime	-11.8455
▁Mata	-11.8456
wept	-11.8462
▁Tree	-11.8464
LP	-11.8465
▁Lala	-11.8472
avana	-11.8477
▁Kush	-11.8485
▁Antarctic	-11.8494
▁Chicago	-11.8494
▁Thackeray	-11.8494
▁UNESCO	-11.8494
▁constituency	-11.8494
▁inconsistent	-11.8494
▁kilometers	-11.8494
▁perpetual	-11.8494
▁reconcil	-11.8494
▁MCX	-11.8494
▁Nalanda	-11.8494
▁curtain	-11.8494
▁mobilis	-11.8494
▁shining	-11.8495
OCCA	-11.8496
▁Perfecti	-11.8497
▁nursery	-11.8498
while	-11.8502
▁Sync	-11.8502
▁Flu	-11.8503
▁dock	-11.8508
▁cooperate	-11.8511
piece	-11.8512
udder	-11.8516
▁Petition	-11.8521
ratified	-11.8522
nathan	-11.8529
vada	-11.853
CAC	-11.853
▁Simon	-11.854
▁TM	-11.8545
▁optic	-11.8551
▁patriot	-11.8557
▁Rasa	-11.8563
PUBLIC	-11.8563
▁Chatterjee	-11.8563
▁RASHTRA	-11.8563
▁Tehran	-11.8563
▁convincing	-11.8563
▁equilibrium	-11.8563
▁Lecture	-11.8563
▁Oriental	-11.8563
▁navigation	-11.8563
▁Census	-11.8563
▁incarnation	-11.8563
▁Valid	-11.8563
▁Circuit	-11.8563
▁retard	-11.8563
▁concurrent	-11.8564
▁Mirza	-11.8564
▁Erdo	-11.8565
▁inhuman	-11.8565
▁Nirmal	-11.8565
▁tumor	-11.8565
▁favorite	-11.8565
▁Honour	-11.8566
▁Ishwar	-11.8568
▁intercept	-11.8568
▁meantime	-11.8568
▁attest	-11.8571
▁avoidance	-11.8572
▁Around	-11.8588
▁accumulation	-11.859
▁assertion	-11.859
▁Prakriti	-11.8592
▁Tap	-11.8601
kut	-11.8603
round	-11.8613
▁Naval	-11.863
▁Effect	-11.863
▁extinguish	-11.8633
▁Literacy	-11.8633
▁Mecca	-11.8633
▁Vigilance	-11.8633
▁biomass	-11.8633
▁cigarette	-11.8633
▁leverage	-11.8633
▁memorandum	-11.8633
▁privacy	-11.8633
▁refrain	-11.8633
▁speculation	-11.8633
▁untouchability	-11.8633
▁replies	-11.8633
▁stabiliz	-11.8633
▁perpetrat	-11.8633
▁spoil	-11.8633
▁purification	-11.8633
▁cancellation	-11.8633
▁lunar	-11.8634
▁Construction	-11.8634
▁aviation	-11.8634
▁nevertheless	-11.8635
▁Backup	-11.8636
▁viewpoint	-11.8638
▁penance	-11.8639
▁maize	-11.8641
▁courageous	-11.8642
akha	-11.8643
▁Taxes	-11.8644
▁viii	-11.8646
▁globalization	-11.8648
endranath	-11.8661
▁deter	-11.8668
wani	-11.8671
▁Monte	-11.8676
▁lyrical	-11.8677
▁Dada	-11.8681
bearer	-11.8685
▁seize	-11.8691
▁promptly	-11.8692
▁disburs	-11.8702
▁Database	-11.8703
▁Diploma	-11.8703
▁Facilitat	-11.8703
▁Ombudsman	-11.8703
▁Shakespeare	-11.8703
▁Statistics	-11.8703
▁atmospheric	-11.8703
▁eligibility	-11.8703
▁fascism	-11.8703
▁maternity	-11.8703
▁vegetarian	-11.8703
▁timber	-11.8703
▁embark	-11.8703
▁excise	-11.8703
▁Bhagavath	-11.8703
▁numeric	-11.8703
▁Bhagwati	-11.8703
▁Script	-11.8703
▁coarse	-11.8703
▁superstructure	-11.8703
▁robber	-11.8703
▁Observ	-11.8704
▁faint	-11.8704
▁grind	-11.8705
bag	-11.8706
▁Shyam	-11.8706
▁agitate	-11.8708
▁meanwhile	-11.8709
▁Border	-11.871
▁pollen	-11.8714
▁beaten	-11.8716
izo	-11.8718
smith	-11.8722
▁Govind	-11.8723
▁dosha	-11.873
▁asthma	-11.8734
▁governor	-11.8734
▁downward	-11.8735
iq	-11.8736
▁incentive	-11.8738
ffe	-11.8743
FL	-11.8744
▁consequent	-11.8753
palli	-11.8754
proving	-11.8756
▁Memorandum	-11.8773
▁Thailand	-11.8773
▁advertising	-11.8773
▁electorate	-11.8773
▁Activities	-11.8773
▁Karachi	-11.8773
▁Eleven	-11.8773
▁banknotes	-11.8773
▁muscular	-11.8773
▁Premises	-11.8773
▁Ireland	-11.8773
▁Agencies	-11.8773
▁mobiliz	-11.8773
▁storeyed	-11.8773
EMBER	-11.8773
▁enrolment	-11.8774
CF	-11.8775
▁marvel	-11.8775
▁vector	-11.8775
▁NEW	-11.8775
▁Malabar	-11.8775
▁hazardous	-11.8777
▁indent	-11.8777
▁poisonous	-11.8778
graduate	-11.8779
▁imagined	-11.8779
▁Agent	-11.8781
▁Reality	-11.8783
▁MMP	-11.8784
▁Yea	-11.879
▁airline	-11.879
▁graphical	-11.8791
▁Lower	-11.8794
▁abduct	-11.8804
vu	-11.8804
▁Rent	-11.8813
▁Lee	-11.882
▁CPC	-11.8821
▁Reduc	-11.8826
▁graduat	-11.8826
▁backup	-11.8832
▁Iswar	-11.8836
▁optimis	-11.8839
▁Maru	-11.884
▁MOU	-11.8842
▁indefinite	-11.8844
▁Anandamoy	-11.8844
▁applaud	-11.8844
▁disqualified	-11.8844
▁flavour	-11.8844
▁irrelevant	-11.8844
▁thrill	-11.8844
▁civic	-11.8844
▁thigh	-11.8844
▁malign	-11.8844
▁disguise	-11.8844
▁depos	-11.8845
gnosis	-11.8846
UE	-11.8849
▁Tibetan	-11.8851
▁appeas	-11.8855
▁Defens	-11.8858
▁Asiatic	-11.8859
▁Java	-11.8861
▁Jung	-11.8865
▁Asaf	-11.8867
▁Connection	-11.8868
spoken	-11.8869
▁cheat	-11.8875
▁gut	-11.8877
▁communicated	-11.8883
izer	-11.8883
▁proportional	-11.8887
▁reminder	-11.8889
▁Mini	-11.8889
▁manipulat	-11.8907
haw	-11.891
▁Domestic	-11.8915
▁Fellow	-11.8915
▁Summary	-11.8915
▁algebra	-11.8915
▁calamity	-11.8915
▁eclipse	-11.8915
▁explosive	-11.8915
▁fascist	-11.8915
▁hypothesis	-11.8915
▁proprietor	-11.8915
▁Investor	-11.8915
▁depressed	-11.8915
▁turtle	-11.8916
▁Devendranath	-11.8916
▁Motilal	-11.8916
▁garland	-11.8916
▁Smart	-11.8916
▁benchmark	-11.8916
CIL	-11.8918
▁grandson	-11.8918
▁disparit	-11.8919
▁policyholder	-11.8919
▁NH	-11.8919
▁norm	-11.892
▁Insect	-11.8921
▁Upper	-11.8921
▁barred	-11.8921
▁Ladie	-11.8921
lev	-11.8922
▁Map	-11.8924
▁cream	-11.8925
▁tailor	-11.8934
▁Salt	-11.8941
▁endure	-11.8941
▁abide	-11.8942
▁visitor	-11.8953
▁practise	-11.8959
▁Eye	-11.8964
▁imitat	-11.8983
▁Narmada	-11.8986
▁dire	-11.8986
▁Chatrik	-11.8987
▁Climate	-11.8987
▁invoked	-11.8987
▁slaughter	-11.8987
▁syndrome	-11.8987
▁Counsel	-11.8987
▁plague	-11.8987
▁Alliance	-11.8987
▁Fixed	-11.8987
▁blade	-11.8987
▁forfeit	-11.8987
▁stool	-11.8987
▁fanatic	-11.8988
iferous	-11.8988
▁renovat	-11.8989
▁Edward	-11.8989
▁Margin	-11.8989
▁observance	-11.899
▁CALLS	-11.899
▁Yogi	-11.899
▁editorial	-11.8992
▁barbar	-11.8995
▁enumerated	-11.8995
ICK	-11.8998
enalties	-11.9006
▁Counter	-11.9011
encies	-11.9014
sheet	-11.902
indra	-11.9032
▁comic	-11.9032
odor	-11.9037
▁motivated	-11.9038
▁pine	-11.9043
▁Bhima	-11.9048
rule	-11.9051
wada	-11.9055
▁Catholic	-11.906
▁Disabilities	-11.906
▁Gentlemen	-11.906
▁Traffic	-11.906
▁Udaipur	-11.906
▁indifferent	-11.906
▁redemption	-11.906
▁redundant	-11.906
Residence	-11.906
▁disillusion	-11.906
▁revenge	-11.906
▁grandeur	-11.906
▁genital	-11.906
▁contravention	-11.906
▁drift	-11.906
▁purport	-11.906
▁dissent	-11.906
▁pseudo	-11.906
▁mobility	-11.9061
▁Speed	-11.9061
▁noteworthy	-11.9063
▁snap	-11.9064
▁pious	-11.9064
▁vanish	-11.9065
▁degradation	-11.9068
▁Laden	-11.9069
▁Stone	-11.907
▁Banga	-11.9075
▁Kashi	-11.9078
▁barely	-11.9093
process	-11.9093
amous	-11.9096
made	-11.9101
▁Tip	-11.9109
▁cultivate	-11.9111
▁instructed	-11.9113
▁Appar	-11.9119
▁commander	-11.9126
▁Employ	-11.913
▁Wage	-11.913
▁originate	-11.913
▁harass	-11.913
▁Terror	-11.913
▁Effort	-11.9133
▁Saturday	-11.9133
▁optimum	-11.9133
▁purchasing	-11.9133
▁voyage	-11.9133
▁RFP	-11.9133
▁advisable	-11.9133
▁Cotton	-11.9133
▁increment	-11.9133
▁Watch	-11.9133
▁stanza	-11.9133
swamy	-11.9133
AST	-11.9134
▁Cancel	-11.9134
▁entrepreneurial	-11.9134
▁Kamba	-11.9135
▁elite	-11.9136
▁coerc	-11.9138
▁Vision	-11.914
▁courtyard	-11.9142
▁confrontation	-11.9142
▁Radi	-11.9142
▁Room	-11.9143
▁differentiate	-11.9143
▁SUB	-11.9145
▁admired	-11.9147
▁Bulh	-11.9147
▁Pop	-11.9152
▁vermi	-11.9152
▁Steve	-11.9154
▁Plate	-11.9155
ptera	-11.9161
wadi	-11.9174
▁Prati	-11.9179
free	-11.9183
▁Kanna	-11.9191
▁Amba	-11.9196
▁Associat	-11.9203
▁Francis	-11.9206
▁Hussain	-11.9206
▁allegiance	-11.9206
▁deprivation	-11.9206
▁diabetic	-11.9206
▁imbalance	-11.9206
▁intimation	-11.9206
▁mumbai	-11.9206
▁necessitat	-11.9206
▁obsolete	-11.9206
▁unveil	-11.9206
▁Kuwait	-11.9206
▁Virtual	-11.9206
▁Dairy	-11.9206
▁glance	-11.9206
▁Average	-11.9206
▁flew	-11.9206
▁backbone	-11.9206
▁disbursement	-11.9207
▁Complete	-11.9207
▁Multiple	-11.9208
▁predator	-11.9209
▁Surdas	-11.9209
▁Kalidas	-11.921
▁Moti	-11.921
▁Srinagar	-11.921
▁hopefully	-11.921
▁Profile	-11.921
▁Teja	-11.9212
OVER	-11.9215
darshan	-11.9217
aceous	-11.9218
▁mediation	-11.9218
PORT	-11.9218
▁mock	-11.9222
wali	-11.9223
▁Debt	-11.9229
▁unified	-11.923
▁DIT	-11.9231
cquitted	-11.9232
▁petal	-11.9242
▁offend	-11.9247
▁quota	-11.9256
▁attache	-11.9258
▁Govinda	-11.9259
officio	-11.9276
sociat	-11.9277
▁dilemma	-11.928
▁fraternit	-11.928
▁innocence	-11.928
▁offspring	-11.928
▁martial	-11.928
▁restoration	-11.928
▁durable	-11.9281
▁antenna	-11.9281
▁Banaras	-11.9281
▁shirt	-11.9281
▁Libya	-11.9282
▁observer	-11.9283
▁drill	-11.9283
▁diesel	-11.9284
▁prick	-11.9285
▁presidential	-11.9289
GB	-11.9289
▁sensory	-11.9289
▁Sunni	-11.929
▁oppression	-11.929
▁Swar	-11.9291
▁Automat	-11.9295
▁superiority	-11.9296
▁lining	-11.9298
▁devote	-11.9309
▁EU	-11.9311
pex	-11.9316
fire	-11.9318
▁Song	-11.9318
biotic	-11.933
trap	-11.934
▁Prec	-11.9346
▁expectation	-11.9352
mite	-11.9353
▁Complaint	-11.9355
▁VISIT	-11.9355
▁contagious	-11.9355
▁crocodile	-11.9355
▁grasshopper	-11.9355
▁credibility	-11.9355
▁ghost	-11.9355
▁Domain	-11.9355
▁dentist	-11.9355
▁Swadeshi	-11.9355
▁vendor	-11.9355
algia	-11.9356
▁inauguration	-11.9356
▁swim	-11.9356
▁polio	-11.9356
▁trump	-11.9357
▁passionate	-11.9357
▁Location	-11.9358
▁Harsha	-11.9361
▁Creator	-11.9362
▁Vrindavana	-11.9362
▁supplementary	-11.9362
▁Guest	-11.9366
▁Tech	-11.9366
▁NPS	-11.9367
▁oversee	-11.9367
▁breadth	-11.9371
▁endorsed	-11.9375
▁inculcate	-11.9376
▁payee	-11.9383
▁Didi	-11.9394
▁ankle	-11.9397
▁smiled	-11.9405
▁Friend	-11.9407
AE	-11.941
▁Mandal	-11.9416
▁Religious	-11.943
▁calamities	-11.943
▁cholesterol	-11.943
▁envelope	-11.943
▁imaginary	-11.943
▁impediment	-11.943
▁libraries	-11.943
▁rhetoric	-11.943
▁steadfast	-11.943
▁enmity	-11.943
▁Bodies	-11.943
▁Width	-11.943
▁slender	-11.943
▁ninth	-11.943
▁Jyoti	-11.943
▁Attend	-11.943
▁Subhashbabu	-11.943
▁alleviat	-11.943
▁indigo	-11.9431
▁demise	-11.9431
▁packaging	-11.9431
▁NeGP	-11.9432
▁corps	-11.9432
▁Belove	-11.9432
▁preview	-11.9433
▁Penalty	-11.9434
▁veena	-11.9435
▁bravery	-11.9436
HS	-11.9442
FE	-11.9442
▁awake	-11.9443
▁enlarged	-11.9447
▁dismissal	-11.9447
▁Dipu	-11.9448
▁Ranga	-11.9449
▁Luc	-11.9453
▁Vaish	-11.9454
▁lucky	-11.9458
metry	-11.9466
proba	-11.947
▁Mega	-11.9471
screen	-11.9479
▁proto	-11.9481
▁garb	-11.9481
▁profess	-11.9481
▁SME	-11.9482
President	-11.9485
▁Seva	-11.9485
▁colourful	-11.9486
▁Chamba	-11.949
vention	-11.9495
▁Karan	-11.9502
▁fake	-11.9502
▁cautious	-11.9506
▁Inspection	-11.9506
▁Welcome	-11.9506
▁adjacent	-11.9506
▁avenues	-11.9506
▁enshrined	-11.9506
▁inappropriate	-11.9506
▁unsuccessful	-11.9506
▁detriment	-11.9506
▁Mahasabha	-11.9506
▁massacre	-11.9506
▁psychology	-11.9506
xistence	-11.9507
▁instill	-11.9507
▁Alternative	-11.9507
▁minimal	-11.9508
▁proactive	-11.9508
▁lav	-11.9509
▁theoretical	-11.9509
▁extinction	-11.951
▁conclud	-11.9512
▁entitlement	-11.9512
▁flaw	-11.9513
▁affiliated	-11.9515
▁Hope	-11.9516
▁ballot	-11.9516
mohan	-11.9518
bury	-11.9528
endu	-11.9537
▁diploma	-11.9544
▁shortest	-11.9545
▁fence	-11.9547
▁Mines	-11.9552
▁retire	-11.9558
▁Idea	-11.9563
▁PMO	-11.9564
▁arriv	-11.9565
▁Stage	-11.9566
IDE	-11.9568
SF	-11.9573
▁culminat	-11.9578
▁Darjeeling	-11.9582
▁Haplogroup	-11.9582
▁apprehend	-11.9582
▁attorney	-11.9582
▁autobiography	-11.9582
▁destructive	-11.9582
▁embracing	-11.9582
▁fountain	-11.9582
▁nowadays	-11.9582
▁deception	-11.9582
▁Heritage	-11.9582
▁forbidden	-11.9582
WORK	-11.9582
▁Nyaya	-11.9582
▁myriad	-11.9582
▁finite	-11.9582
▁Restrict	-11.9582
uitably	-11.9583
▁clarification	-11.9583
▁Psycho	-11.9583
▁stature	-11.9583
▁salute	-11.9583
▁singular	-11.9583
▁wax	-11.9584
▁valve	-11.9585
▁missionaries	-11.9585
▁armour	-11.9585
▁conceptual	-11.9586
▁roar	-11.9586
AKP	-11.9588
▁LPG	-11.959
▁Natal	-11.9592
▁PPP	-11.9593
▁castor	-11.961
▁honesty	-11.9611
▁BIT	-11.9615
EBI	-11.9616
▁Tai	-11.9619
▁Maharaj	-11.962
▁consultant	-11.962
▁Nair	-11.9623
▁Kind	-11.9625
▁Promote	-11.963
▁causa	-11.9631
cant	-11.9634
▁poise	-11.9635
▁nurture	-11.9638
people	-11.9641
much	-11.9654
logic	-11.9658
▁Failure	-11.9659
▁Prohibition	-11.9659
▁Rashtriya	-11.9659
▁amalgamated	-11.9659
▁luxury	-11.9659
▁mercury	-11.9659
▁mischief	-11.9659
▁negligence	-11.9659
▁skeleton	-11.9659
▁rhyme	-11.9659
▁swimming	-11.9659
▁anguish	-11.9659
▁infirm	-11.9659
▁animation	-11.966
▁ashamed	-11.9661
▁verb	-11.9661
▁chant	-11.9662
▁Effective	-11.9662
▁recourse	-11.9663
▁aspire	-11.9664
▁flee	-11.9665
valence	-11.9669
▁missionary	-11.9674
▁shine	-11.9676
▁relieved	-11.968
▁magnet	-11.9682
▁glasses	-11.9684
▁likewise	-11.9691
▁kilo	-11.9694
▁fairness	-11.9706
▁whip	-11.9717
▁Surendra	-11.9721
folk	-11.9731
assembl	-11.9733
▁Prior	-11.9733
▁segregat	-11.9737
malgamating	-11.9737
▁Irrigation	-11.9737
▁Oxford	-11.9737
▁Pandavas	-11.9737
▁Fifth	-11.9737
▁stolen	-11.9737
▁hurry	-11.9737
▁excel	-11.9737
▁christ	-11.9737
▁stalk	-11.9737
▁quart	-11.9738
▁acquaintance	-11.9738
▁preferably	-11.9739
eterrence	-11.9739
▁Silver	-11.9741
▁utterance	-11.9742
▁dharma	-11.9742
▁JSA	-11.9744
▁Banerjee	-11.9745
▁artery	-11.9746
▁descent	-11.9746
▁millet	-11.9751
▁plight	-11.9754
▁nurtured	-11.9758
sisting	-11.9759
▁Lead	-11.9763
▁consume	-11.9764
▁hetero	-11.9764
ocular	-11.9765
▁abolish	-11.9771
▁lame	-11.9771
▁Biru	-11.9779
▁characteris	-11.9784
▁utilize	-11.9794
▁workshop	-11.9795
▁lament	-11.9802
group	-11.9808
▁irrigat	-11.981
ogram	-11.9813
▁Must	-11.9814
▁Advaita	-11.9815
▁Identity	-11.9815
▁Netherlands	-11.9815
▁abundance	-11.9815
▁impugned	-11.9815
▁incumbent	-11.9815
▁luggage	-11.9815
▁Kyrgyz	-11.9815
▁paradigm	-11.9815
▁Scott	-11.9815
▁frightened	-11.9815
▁tunnel	-11.9815
▁veteran	-11.9815
▁Andrew	-11.9815
▁ventilat	-11.9815
▁heartening	-11.9815
▁deplet	-11.9817
▁abiding	-11.9817
▁royalty	-11.982
▁eradication	-11.982
▁Rudra	-11.9823
▁woke	-11.9823
▁motivation	-11.9824
▁fitted	-11.9825
▁gaze	-11.9831
▁lesion	-11.9832
▁modernisation	-11.9834
▁zoo	-11.9834
▁consequently	-11.9836
▁shareholder	-11.9877
▁fertiliz	-11.9877
lateral	-11.988
▁disrupt	-11.9881
▁Administrator	-11.9894
▁BHAVAN	-11.9894
▁Detailed	-11.9894
▁HIGH	-11.9894
▁Wimbledon	-11.9894
▁practicable	-11.9894
▁sanskrit	-11.9894
▁intrinsic	-11.9894
▁promising	-11.9894
▁unemployed	-11.9894
▁analyst	-11.9894
▁entail	-11.9894
▁polluted	-11.9894
▁surroga	-11.9894
▁Understand	-11.9894
sanitary	-11.9894
▁consuming	-11.9894
▁miserable	-11.9894
▁Vishwa	-11.9894
▁PASS	-11.9894
▁facade	-11.9894
▁Future	-11.9894
▁spindle	-11.9894
▁Bhim	-11.9896
▁Element	-11.9896
▁dilut	-11.9896
▁famine	-11.9896
▁shaft	-11.9896
▁existent	-11.9897
▁Crore	-11.9898
▁Basu	-11.9899
▁Depend	-11.9899
▁Swamiji	-11.99
▁wholesale	-11.99
▁bowel	-11.9901
▁hindu	-11.9903
REN	-11.9909
▁configured	-11.9911
[...]
