<unk>	0
<s>	0
</s>	0
UuRrLl	0
DdAaTtEe	0
NnUuMm	0
▁t	-0
he	-1
▁a	-2
▁the	-3
in	-4
▁o	-5
re	-6
on	-7
er	-8
at	-9
en	-10
▁s	-11
▁of	-12
is	-13
ed	-14
▁c	-15
it	-16
▁,	-17
▁p	-18
▁w	-19
▁.	-20
nd	-21
▁b	-22
ion	-23
▁in	-24
or	-25
▁f	-26
es	-27
an	-28
ar	-29
al	-30
▁to	-31
as	-32
▁d	-33
ou	-34
ing	-35
ic	-36
▁and	-37
ent	-38
▁h	-39
▁m	-40
▁th	-41
▁re	-42
le	-43
ro	-44
ct	-45
▁n	-46
▁be	-47
▁is	-48
▁T	-49
▁e	-50
▁S	-51
ot	-52
ce	-53
id	-54
os	-55
ation	-56
▁that	-57
▁C	-58
il	-59
▁A	-60
▁I	-61
us	-62
om	-63
ut	-64
ve	-65
▁l	-66
im	-67
▁on	-68
et	-69
ment	-70
▁for	-71
ad	-72
ur	-73
ly	-74
▁The	-75
▁con	-76
▁as	-77
ap	-78
am	-79
▁g	-80
▁by	-81
▁pro	-82
▁or	-83
▁P	-84
▁de	-85
▁su	-86
st	-87
her	-88
▁&	-89
▁was	-90
ll	-91
▁not	-92
ch	-93
ri	-94
pp	-95
ver	-96
▁an	-97
ate	-98
▁wh	-99
▁u	-100
our	-101
ay	-102
se	-103
ow	-104
ir	-105
▁wit	-106
▁it	-107
ant	-108
▁M	-109
▁st	-110
ld	-111
ain	-112
if	-113
ter	-114
▁with	-115
ig	-116
apos	-117
▁B	-118
▁R	-119
ul	-120
▁he	-121
ere	-122
ab	-123
qu	-124
ess	-125
▁H	-126
ect	-127
▁app	-128
ers	-129
ol	-130
▁has	-131
▁ex	-132
res	-133
ition	-134
▁com	-135
▁D	-136
ge	-137
and	-138
▁v	-139
ra	-140
▁al	-141
ist	-142
▁(	-143
▁)	-144
▁N	-145
ourt	-146
▁-	-147
▁are	-148
ak	-149
ity	-150
est	-151
od	-152
cc	-153
ore	-154
ich	-155
ther	-156
end	-157
▁ha	-158
▁at	-159
▁which	-160
▁this	-161
ated	-162
▁sh	-163
art	-164
▁G	-165
▁le	-166
ud	-167
rom	-168
iv	-169
um	-170
ould	-171
nder	-172
ence	-173
nt	-174
ies	-175
▁res	-176
▁from	-177
▁se	-178
gh	-179
ort	-180
▁y	-181
ill	-182
▁have	-183
▁In	-184
▁Court	-185
ive	-186
ial	-187
ure	-188
▁under	-189
ase	-190
▁his	-191
em	-192
etition	-193
▁O	-194
un	-195
▁E	-196
ice	-197
ac	-198
ard	-199
▁L	-200
▁there	-201
op	-202
all	-203
ted	-204
ction	-205
▁been	-206
so	-207
▁W	-208
pl	-209
ell	-210
ust	-211
▁j	-212
▁petition	-213
▁any	-214
▁cont	-215
pon	-216
▁acc	-217
red	-218
ec	-219
▁F	-220
ord	-221
oc	-222
▁dis	-223
ned	-224
▁sub	-225
able	-226
▁whe	-227
ff	-228
▁can	-229
▁pl	-230
▁ad	-231
aid	-232
▁/	-233
▁also	-234
ear	-235
▁K	-236
th	-237
▁ch	-238
ance	-239
ia	-240
ie	-241
▁It	-242
▁per	-243
▁ab	-244
▁r	-245
▁fa	-246
ary	-247
▁had	-248
ag	-249
mit	-250
▁case	-251
ame	-252
▁all	-253
▁Ind	-254
▁no	-255
▁J	-256
▁int	-257
▁part	-258
▁ev	-259
▁ag	-260
lic	-261
ous	-262
fore	-263
▁im	-264
used	-265
sion	-266
ind	-267
▁k	-268
age	-269
▁such	-270
▁were	-271
▁Th	-272
over	-273
igh	-274
pt	-275
▁other	-276
▁comp	-277
der	-278
ire	-279
▁ar	-280
per	-281
ution	-282
▁:	-283
ision	-284
el	-285
▁prov	-286
▁rec	-287
▁St	-288
▁sp	-289
ount	-290
▁ne	-291
ade	-292
du	-293
▁tr	-294
ough	-295
ound	-296
▁cl	-297
ue	-298
▁en	-299
ome	-300
cl	-301
mis	-302
ip	-303
▁cons	-304
ib	-305
aw	-306
▁we	-307
▁would	-308
out	-309
ide	-310
▁said	-311
▁off	-312
▁un	-313
erv	-314
use	-315
fter	-316
ical	-317
▁respon	-318
sel	-319
▁qu	-320
pos	-321
ime	-322
rit	-323
▁U	-324
▁order	-325
ict	-326
ans	-327
▁do	-328
▁Act	-329
ru	-330
▁pers	-331
ish	-332
▁their	-333
▁V	-334
dent	-335
▁reg	-336
▁who	-337
ong	-338
▁He	-339
ub	-340
▁petitioner	-341
ied	-342
ection	-343
ations	-344
ass	-345
▁pres	-346
ep	-347
▁gr	-348
overn	-349
▁person	-350
▁pos	-351
▁tak	-352
▁No	-353
▁one	-354
▁me	-355
▁rel	-356
oun	-357
orm	-358
▁but	-359
▁out	-360
▁made	-361
▁its	-362
▁so	-363
iz	-364
ree	-365
▁wor	-366
port	-367
ry	-368
ult	-369
▁India	-370
▁am	-371
av	-372
iff	-373
ments	-374
aint	-375
oin	-376
▁may	-377
▁will	-378
▁respondent	-379
ail	-380
▁pre	-381
▁Com	-382
▁man	-383
ident	-384
▁Ch	-385
ast	-386
▁mat	-387
▁they	-388
ered	-389
one	-390
ellant	-391
▁dec	-392
▁ob	-393
og	-394
▁him	-395
ok	-396
▁fact	-397
▁lear	-398
▁accused	-399
▁time	-400
▁year	-401
ness	-402
▁only	-403
are	-404
ine	-405
overnment	-406
▁her	-407
ased	-408
▁def	-409
stit	-410
mitted	-411
anc	-412
▁pr	-413
▁if	-414
ove	-415
ious	-416
pect	-417
ile	-418
ings	-419
ach	-420
ific	-421
rib	-422
▁appellant	-423
▁State	-424
▁again	-425
ory	-426
▁As	-427
▁learned	-428
ik	-429
ause	-430
mission	-431
uth	-432
▁you	-433
idence	-434
hed	-435
ght	-436
ject	-437
istr	-438
▁ent	-439
ual	-440
▁inc	-441
ise	-442
▁go	-443
▁ri	-444
▁ind	-445
form	-446
▁before	-447
▁ass	-448
▁same	-449
▁Sh	-450
▁sc	-451
ang	-452
▁em	-453
▁This	-454
▁applic	-455
▁law	-456
▁after	-457
ee	-458
ath	-459
▁inv	-460
▁them	-461
▁;	-462
ber	-463
very	-464
▁There	-465
ced	-466
ty	-467
vel	-468
▁consid	-469
▁shall	-470
▁when	-471
oy	-472
▁ref	-473
▁iss	-474
▁ac	-475
▁Government	-476
uthor	-477
ention	-478
erm	-479
not	-480
▁jud	-481
me	-482
ost	-483
▁should	-484
urther	-485
ating	-486
ight	-487
▁tw	-488
ah	-489
▁where	-490
iew	-491
▁imp	-492
▁evidence	-493
inal	-494
▁work	-495
▁being	-496
ign	-497
▁against	-498
▁Su	-499
ates	-500
▁court	-501
ities	-502
▁up	-503
▁record	-504
▁Con	-505
ose	-506
▁writ	-507
▁requ	-508
ert	-509
ace	-510
aj	-511
▁inter	-512
▁pol	-513
▁act	-514
▁right	-515
▁into	-516
oint	-517
▁bec	-518
ank	-519
▁pur	-520
▁cannot	-521
▁about	-522
amp	-523
▁fil	-524
ack	-525
ian	-526
▁giv	-527
own	-528
▁fo	-529
ward	-530
▁fir	-531
▁mak	-532
▁comm	-533
ounsel	-534
nce	-535
▁two	-536
ark	-537
▁Ex	-538
rough	-539
ract	-540
▁these	-541
▁pass	-542
▁state	-543
ci	-544
ite	-545
▁over	-546
▁further	-547
ular	-548
▁kn	-549
.0	-550
▁present	-551
ress	-552
ceed	-553
▁serv	-554
led	-555
ens	-556
con	-557
▁dated	-558
wn	-559
irect	-560
ower	-561
enc	-562
▁some	-563
ublic	-564
ason	-565
stitution	-566
ative	-567
leg	-568
▁provision	-569
act	-570
▁att	-571
▁set	-572
ays	-573
ute	-574
lect	-575
▁our	-576
ex	-577
▁rem	-578
▁author	-579
▁witness	-580
▁spec	-581
estion	-582
▁proper	-583
eal	-584
▁more	-585
ational	-586
▁could	-587
ffic	-588
ever	-589
een	-590
▁bet	-591
▁char	-592
▁On	-593
ild	-594
ained	-595
ved	-596
eg	-597
rial	-598
▁she	-599
sec	-600
dition	-601
▁view	-602
▁first	-603
▁land	-604
▁pe	-605
▁matter	-606
▁even	-607
▁trans	-608
uring	-609
▁dece	-610
pre	-611
ike	-612
any	-613
amin	-614
ature	-615
aim	-616
ession	-617
eral	-618
▁taken	-619
ible	-620
ash	-621
▁Pro	-622
▁op	-623
▁reason	-624
ility	-625
▁rep	-626
ife	-627
ised	-628
▁form	-629
▁De	-630
▁stated	-631
▁diff	-632
clud	-633
▁deceased	-634
▁counsel	-635
▁years	-636
old	-637
▁proceed	-638
▁An	-639
▁ro	-640
ving	-641
ax	-642
ors	-643
reat	-644
▁”	-645
▁Y	-646
ided	-647
oth	-648
ued	-649
▁det	-650
▁pay	-651
▁produ	-652
ired	-653
ited	-654
▁prosec	-655
▁plaint	-656
▁held	-657
iction	-658
▁judg	-659
▁given	-660
▁poss	-661
▁Ad	-662
ffect	-663
▁question	-664
velop	-665
▁well	-666
▁ext	-667
▁compl	-668
ploy	-669
▁Pr	-670
▁te	-671
▁exp	-672
ook	-673
▁%	-674
▁regard	-675
▁must	-676
▁claim	-677
▁decision	-678
▁us	-679
llow	-680
irc	-681
▁des	-682
▁leg	-683
ful	-684
▁“	-685
ven	-686
▁like	-687
▁Un	-688
▁supp	-689
ween	-690
▁consider	-691
▁report	-692
▁than	-693
▁Sing	-694
▁filed	-695
▁just	-696
ting	-697
▁between	-698
ily	-699
ha	-700
owever	-701
ram	-702
cept	-703
▁inst	-704
▁submitted	-705
▁mem	-706
ug	-707
▁upon	-708
ants	-709
▁term	-710
▁count	-711
▁new	-712
▁appro	-713
▁0	-714
ople	-715
ified	-716
▁We	-717
▁through	-718
▁follow	-719
▁found	-720
▁conc	-721
▁Mr	-722
▁respect	-723
▁conf	-724
▁bel	-725
ouse	-726
▁then	-727
▁High	-728
▁application	-729
erc	-730
its	-731
▁inform	-732
▁plaintiff	-733
self	-734
▁above	-735
▁ra	-736
vers	-737
▁therefore	-738
iod	-739
▁find	-740
ended	-741
▁public	-742
▁cle	-743
▁circ	-744
▁employ	-745
ody	-746
▁did	-747
▁place	-748
erest	-749
▁power	-750
ble	-751
▁PW	-752
▁does	-753
other	-754
▁within	-755
hi	-756
▁period	-757
ances	-758
▁people	-759
te	-760
erred	-761
ural	-762
▁amount	-763
ient	-764
▁disc	-765
▁without	-766
▁direct	-767
▁?	-768
▁Bh	-769
cess	-770
▁Jud	-771
▁suit	-772
▁defend	-773
▁bas	-774
abl	-775
▁fe	-776
▁here	-777
ater	-778
▁But	-779
▁val	-780
▁petitioners	-781
▁Indian	-782
ral	-783
▁offic	-784
ording	-785
▁occ	-786
▁what	-787
▁prosecution	-788
ric	-789
▁own	-790
ef	-791
▁interest	-792
▁date	-793
▁includ	-794
uc	-795
▁differe	-796
ale	-797
hen	-798
rim	-799
ood	-800
▁est	-801
▁examin	-802
urn	-803
ince	-804
▁cert	-805
▁very	-806
li	-807
▁judgment	-808
arm	-809
▁hand	-810
▁Ar	-811
▁appeal	-812
▁bl	-813
und	-814
▁ret	-815
▁passed	-816
▁gen	-817
▁If	-818
ari	-819
▁invest	-820
ification	-821
rap	-822
▁cor	-823
▁provisions	-824
▁see	-825
ocu	-826
ged	-827
▁av	-828
▁call	-829
▁mon	-830
ules	-831
esh	-832
preme	-833
ix	-834
▁Singh	-835
▁sy	-836
▁persons	-837
▁know	-838
ases	-839
▁inj	-840
▁par	-841
tern	-842
▁Rs	-843
▁rece	-844
▁clear	-845
▁inf	-846
bit	-847
▁partic	-848
▁purpos	-849
▁whether	-850
ally	-851
▁docu	-852
▁develop	-853
▁co	-854
▁ins	-855
hy	-856
ished	-857
ft	-858
▁used	-859
▁col	-860
▁my	-861
▁circum	-862
ief	-863
▁make	-864
▁Supreme	-865
▁gu	-866
▁alleg	-867
ital	-868
ices	-869
▁effect	-870
ren	-871
▁parties	-872
▁Section	-873
ecess	-874
▁account	-875
▁your	-876
▁trial	-877
app	-878
▁Commission	-879
ros	-880
▁Offic	-881
▁while	-882
▁min	-883
▁during	-884
▁ground	-885
▁dep	-886
▁both	-887
▁appear	-888
erial	-889
▁prin	-890
▁concer	-891
▁need	-892
▁take	-893
▁because	-894
ange	-895
ctions	-896
▁car	-897
▁circumst	-898
hip	-899
▁show	-900
▁name	-901
▁soc	-902
row	-903
▁get	-904
ents	-905
ared	-906
▁good	-907
▁En	-908
ule	-909
uted	-910
▁read	-911
por	-912
▁statement	-913
▁num	-914
▁App	-915
▁mark	-916
▁process	-917
▁ear	-918
▁facts	-919
ob	-920
▁grant	-921
▁property	-922
▁adv	-923
▁i	-924
ith	-925
aining	-926
▁life	-927
▁post	-928
ond	-929
ior	-930
▁authority	-931
▁po	-932
ning	-933
duct	-934
▁rele	-935
ism	-936
▁section	-937
▁issued	-938
▁dem	-939
▁disp	-940
▁comple	-941
▁ke	-942
▁way	-943
ink	-944
ave	-945
▁having	-946
▁different	-947
▁necess	-948
iness	-949
▁material	-950
gan	-951
▁fl	-952
istrict	-953
ather	-954
bers	-955
▁house	-956
▁allow	-957
erence	-958
▁pri	-959
▁stand	-960
igation	-961
▁those	-962
ner	-963
▁opp	-964
▁back	-965
▁three	-966
▁Wh	-967
read	-968
▁And	-969
▁Pres	-970
olog	-971
lt	-972
▁let	-973
▁police	-974
▁aff	-975
▁rev	-976
min	-977
▁basis	-978
▁word	-979
ized	-980
▁though	-981
iet	-982
▁establ	-983
ages	-984
▁day	-985
▁sent	-986
man	-987
▁down	-988
ister	-989
▁dist	-990
▁For	-991
ption	-992
▁hold	-993
▁avail	-994
ode	-995
miss	-996
ai	-997
posed	-998
stem	-999
artment	-1000
▁country	-1001
▁service	-1002
ures	-1003
▁cap	-1004
ati	-1005
als	-1006
uch	-1007
▁equ	-1008
▁child	-1009
▁cent	-1010
ten	-1011
▁br	-1012
hes	-1013
ither	-1014
▁Res	-1015
▁came	-1016
▁Ben	-1017
isd	-1018
▁ed	-1019
ality	-1020
▁obs	-1021
▁import	-1022
▁Ram	-1023
▁So	-1024
▁ord	-1025
▁jur	-1026
▁stat	-1027
▁cases	-1028
▁bus	-1029
▁proceedings	-1030
▁offence	-1031
▁Cent	-1032
sequ	-1033
▁Acc	-1034
med	-1035
▁condition	-1036
▁every	-1037
▁circumstances	-1038
eth	-1039
▁fam	-1040
▁’	-1041
crib	-1042
▁required	-1043
ores	-1044
▁company	-1045
ency	-1046
chn	-1047
▁ben	-1048
▁notice	-1049
▁considered	-1050
▁contin	-1051
way	-1052
ived	-1053
ew	-1054
▁exerc	-1055
▁They	-1056
▁Dep	-1057
▁cre	-1058
▁subject	-1059
▁beh	-1060
ross	-1061
▁Or	-1062
less	-1063
mitt	-1064
pe	-1065
ks	-1066
▁ple	-1067
▁Therefore	-1068
ivers	-1069
▁af	-1070
lement	-1071
▁respondents	-1072
lection	-1073
ides	-1074
bitr	-1075
▁action	-1076
▁sit	-1077
▁lit	-1078
▁witnesses	-1079
ivil	-1080
▁agree	-1081
quot	-1082
arch	-1083
▁death	-1084
stru	-1085
▁use	-1086
▁However	-1087
▁now	-1088
▁concerned	-1089
ability	-1090
▁body	-1091
▁Raj	-1092
▁bu	-1093
▁support	-1094
▁Officer	-1095
air	-1096
oard	-1097
han	-1098
▁end	-1099
▁li	-1100
▁month	-1101
isdiction	-1102
gg	-1103
arge	-1104
▁great	-1105
mittee	-1106
▁President	-1107
ov	-1108
▁appoint	-1109
ically	-1110
▁non	-1111
▁long	-1112
▁Am	-1113
▁defendant	-1114
▁med	-1115
▁del	-1116
▁purpose	-1117
▁many	-1118
▁due	-1119
tic	-1120
▁come	-1121
▁jurisdiction	-1122
ret	-1123
ool	-1124
ries	-1125
▁test	-1126
err	-1127
▁sec	-1128
▁particular	-1129
▁sim	-1130
▁number	-1131
▁Judge	-1132
▁issue	-1133
unal	-1134
alf	-1135
gt	-1136
▁&#	-1137
▁Par	-1138
uty	-1139
▁Reg	-1140
les	-1141
▁point	-1142
ined	-1143
▁Min	-1144
urre	-1145
▁observ	-1146
▁contract	-1147
▁var	-1148
riminal	-1149
iry	-1150
▁Shri	-1151
▁Constitution	-1152
▁Man	-1153
▁each	-1154
▁acqu	-1155
after	-1156
▁Pol	-1157
▁system	-1158
ges	-1159
▁conduct	-1160
▁nature	-1161
ull	-1162
▁necessary	-1163
cond	-1164
icial	-1165
clus	-1166
vant	-1167
au	-1168
ues	-1169
▁fac	-1170
oresaid	-1171
▁loc	-1172
bt	-1173
ourse	-1174
▁She	-1175
▁world	-1176
▁exec	-1177
▁prev	-1178
ending	-1179
▁since	-1180
▁aforesaid	-1181
▁information	-1182
▁decl	-1183
ator	-1184
▁party	-1185
▁benef	-1186
▁Is	-1187
▁abs	-1188
▁lim	-1189
▁Trib	-1190
▁exist	-1191
▁plac	-1192
▁another	-1193
▁Hind	-1194
▁str	-1195
▁stud	-1196
▁fail	-1197
ying	-1198
ces	-1199
ately	-1200
▁sm	-1201
▁award	-1202
▁At	-1203
▁et	-1204
▁second	-1205
▁oper	-1206
umar	-1207
▁Ap	-1208
▁add	-1209
▁available	-1210
aring	-1211
▁mis	-1212
▁ve	-1213
▁mention	-1214
▁appellants	-1215
har	-1216
▁mar	-1217
▁Re	-1218
▁etc	-1219
▁most	-1220
▁Comp	-1221
▁lead	-1222
▁possession	-1223
of	-1224
▁terms	-1225
▁sign	-1226
▁business	-1227
▁various	-1228
cip	-1229
ried	-1230
▁prog	-1231
▁Sec	-1232
icy	-1233
▁che	-1234
▁District	-1235
▁Ass	-1236
▁members	-1237
▁result	-1238
here	-1239
up	-1240
▁called	-1241
ury	-1242
ination	-1243
pra	-1244
ains	-1245
▁conv	-1246
▁Sc	-1247
ugned	-1248
cipl	-1249
inion	-1250
▁Mah	-1251
allen	-1252
▁impugned	-1253
chool	-1254
▁&#9	-1255
▁expl	-1256
▁arg	-1257
▁bro	-1258
ently	-1259
▁When	-1260
▁ca	-1261
oup	-1262
quiry	-1263
ready	-1264
▁open	-1265
▁..	-1266
▁itself	-1267
ives	-1268
▁mind	-1269
▁Tr	-1270
▁already	-1271
ured	-1272
▁sche	-1273
▁repres	-1274
▁mod	-1275
▁educ	-1276
na	-1277
▁referred	-1278
▁charge	-1279
▁hel	-1280
ata	-1281
▁All	-1282
▁consideration	-1283
uk	-1284
ars	-1285
isl	-1286
ock	-1287
▁letter	-1288
unity	-1289
▁fore	-1290
▁certain	-1291
▁That	-1292
▁bank	-1293
▁relevant	-1294
▁put	-1295
▁rest	-1296
lim	-1297
ually	-1298
anch	-1299
▁sur	-1300
▁cause	-1301
▁tax	-1302
▁submit	-1303
▁opinion	-1304
▁ph	-1305
ointed	-1306
▁along	-1307
▁days	-1308
get	-1309
▁Thus	-1310
▁Rules	-1311
▁maint	-1312
uman	-1313
▁ser	-1314
▁provided	-1315
▁Central	-1316
▁dra	-1317
▁legal	-1318
ron	-1319
▁indust	-1320
▁done	-1321
ences	-1322
▁meet	-1323
▁dou	-1324
▁arbitr	-1325
▁object	-1326
▁following	-1327
▁recorded	-1328
▁development	-1329
▁say	-1330
▁list	-1331
▁according	-1332
ya	-1333
angu	-1334
▁start	-1335
▁...	-1336
ateg	-1337
▁init	-1338
ising	-1339
alth	-1340
raph	-1341
▁prom	-1342
ph	-1343
▁deal	-1344
af	-1345
uation	-1346
iety	-1347
▁course	-1348
istration	-1349
▁based	-1350
conom	-1351
ees	-1352
▁Kumar	-1353
▁much	-1354
king	-1355
▁Committee	-1356
▁Sub	-1357
▁incident	-1358
▁organ	-1359
▁family	-1360
▁agreement	-1361
ana	-1362
▁Tribunal	-1363
▁To	-1364
imes	-1365
tal	-1366
▁including	-1367
enior	-1368
▁far	-1369
▁give	-1370
▁supra	-1371
pri	-1372
▁fav	-1373
▁transf	-1374
▁challen	-1375
▁help	-1376
▁vi	-1377
▁den	-1378
▁Hon	-1379
▁dismiss	-1380
▁Al	-1381
▁fun	-1382
▁entire	-1383
▁institution	-1384
▁represent	-1385
ey	-1386
cribed	-1387
olution	-1388
▁Eng	-1389
▁alleged	-1390
▁ver	-1391
▁sett	-1392
iding	-1393
▁means	-1394
▁Board	-1395
ons	-1396
▁manner	-1397
ick	-1398
▁dire	-1399
wards	-1400
▁high	-1401
pec	-1402
unic	-1403
▁complaint	-1404
ially	-1405
otion	-1406
▁mean	-1407
▁fin	-1408
ogn	-1409
inary	-1410
▁documents	-1411
▁Department	-1412
▁vill	-1413
▁general	-1414
▁pen	-1415
cedure	-1416
rol	-1417
▁sat	-1418
▁look	-1419
ulation	-1420
▁investigation	-1421
▁ident	-1422
▁position	-1423
ines	-1424
▁either	-1425
▁orig	-1426
▁Police	-1427
ext	-1428
reed	-1429
▁constru	-1430
orpor	-1431
IR	-1432
▁entit	-1433
▁favour	-1434
▁examination	-1435
▁how	-1436
▁conn	-1437
▁however	-1438
▁subst	-1439
▁vis	-1440
▁earli	-1441
az	-1442
par	-1443
▁Adv	-1444
ilar	-1445
ense	-1446
▁prot	-1447
▁Gu	-1448
▁final	-1449
▁allowed	-1450
▁making	-1451
▁techn	-1452
ology	-1453
▁income	-1454
ird	-1455
▁tre	-1456
▁Cl	-1457
▁appointment	-1458
pted	-1459
▁last	-1460
ics	-1461
ering	-1462
▁words	-1463
▁Bank	-1464
▁determ	-1465
▁cross	-1466
att	-1467
▁tem	-1468
▁policy	-1469
▁admitted	-1470
▁area	-1471
▁Ag	-1472
▁After	-1473
▁common	-1474
▁water	-1475
PC	-1476
▁exper	-1477
▁prof	-1478
omm	-1479
▁invol	-1480
▁behalf	-1481
▁ten	-1482
▁According	-1483
▁el	-1484
▁submission	-1485
▁important	-1486
oney	-1487
ivision	-1488
▁sale	-1489
▁received	-1490
▁econom	-1491
▁took	-1492
section	-1493
▁Del	-1494
ple	-1495
ield	-1496
ivid	-1497
▁assess	-1498
ake	-1499
iversity	-1500
▁doubt	-1501
▁want	-1502
istered	-1503
isf	-1504
▁langu	-1505
stand	-1506
▁SC	-1507
▁Se	-1508
ways	-1509
ience	-1510
▁exercise	-1511
ached	-1512
▁Col	-1513
▁Code	-1514
▁class	-1515
ets	-1516
agement	-1517
▁Petition	-1518
▁mentioned	-1519
ruct	-1520
▁sum	-1521
ves	-1522
day	-1523
▁criminal	-1524
▁National	-1525
▁Te	-1526
▁left	-1527
ledge	-1528
atory	-1529
▁Direct	-1530
▁cop	-1531
▁government	-1532
ions	-1533
▁wom	-1534
▁justice	-1535
▁mer	-1536
▁real	-1537
▁earlier	-1538
▁book	-1539
▁complain	-1540
ization	-1541
▁office	-1542
▁payment	-1543
▁perform	-1544
▁others	-1545
▁father	-1546
▁below	-1547
▁stage	-1548
▁Gen	-1549
▁demand	-1550
▁vide	-1551
lected	-1552
▁document	-1553
osp	-1554
▁tra	-1555
▁entitled	-1556
▁activ	-1557
▁Mag	-1558
▁written	-1559
▁You	-1560
itation	-1561
▁clause	-1562
▁pun	-1563
▁orders	-1564
▁lo	-1565
ger	-1566
osed	-1567
▁contention	-1568
▁dev	-1569
▁services	-1570
▁committed	-1571
▁paid	-1572
▁taking	-1573
▁known	-1574
▁rights	-1575
▁contr	-1576
▁seen	-1577
▁raised	-1578
▁fund	-1579
▁head	-1580
▁princip	-1581
▁require	-1582
▁thus	-1583
▁officer	-1584
▁discus	-1585
▁placed	-1586
▁indic	-1587
▁Bench	-1588
▁Dr	-1589
owers	-1590
▁depos	-1591
ditional	-1592
▁nor	-1593
arent	-1594
jection	-1595
▁priv	-1596
by	-1597
onment	-1598
▁four	-1599
▁satisf	-1600
ck	-1601
▁These	-1602
▁ir	-1603
▁happ	-1604
val	-1605
▁dispute	-1606
▁mere	-1607
▁Delhi	-1608
ression	-1609
▁ty	-1610
▁som	-1611
▁herein	-1612
wise	-1613
▁cost	-1614
▁light	-1615
▁human	-1616
▁viol	-1617
ibility	-1618
▁care	-1619
ested	-1620
▁accept	-1621
▁Rule	-1622
▁opport	-1623
▁hig	-1624
▁Lear	-1625
▁detail	-1626
rought	-1627
ms	-1628
▁duty	-1629
utes	-1630
▁war	-1631
▁granted	-1632
▁large	-1633
pur	-1634
▁sugg	-1635
ts	-1636
▁special	-1637
hib	-1638
▁Rep	-1639
▁away	-1640
cil	-1641
▁incre	-1642
▁complainant	-1643
▁going	-1644
▁less	-1645
▁cand	-1646
atural	-1647
ony	-1648
ential	-1649
▁value	-1650
▁proved	-1651
▁Cr	-1652
ists	-1653
▁registered	-1654
fficient	-1655
▁admin	-1656
ends	-1657
rect	-1658
ES	-1659
▁money	-1660
▁play	-1661
oh	-1662
▁pract	-1663
▁original	-1664
▁Commissioner	-1665
orn	-1666
▁reasons	-1667
iance	-1668
▁conditions	-1669
▁gl	-1670
ocate	-1671
▁Vs	-1672
▁candid	-1673
▁examined	-1674
▁small	-1675
see	-1676
▁Sri	-1677
▁conclus	-1678
▁group	-1679
▁Learned	-1680
▁General	-1681
ork	-1682
▁pat	-1683
▁main	-1684
▁succ	-1685
istrate	-1686
▁met	-1687
▁vict	-1688
▁obt	-1689
▁Pl	-1690
▁age	-1691
▁rule	-1692
ize	-1693
▁brought	-1694
jud	-1695
mb	-1696
▁months	-1697
▁build	-1698
▁individ	-1699
▁reference	-1700
ensation	-1701
▁contended	-1702
▁establish	-1703
▁complete	-1704
▁possible	-1705
▁knowledge	-1706
▁ask	-1707
ancial	-1708
▁ey	-1709
▁Author	-1710
▁think	-1711
eration	-1712
▁himself	-1713
ought	-1714
▁grow	-1715
▁become	-1716
oss	-1717
▁respons	-1718
▁accord	-1719
soci	-1720
▁except	-1721
overed	-1722
RB	-1723
▁Mus	-1724
▁level	-1725
▁towards	-1726
▁appropri	-1727
▁social	-1728
▁project	-1729
EN	-1730
▁observed	-1731
▁acce	-1732
ively	-1733
▁judicial	-1734
▁children	-1735
▁society	-1736
▁sever	-1737
▁cred	-1738
00	-1739
▁relig	-1740
▁cust	-1741
▁legisl	-1742
▁scheme	-1743
▁never	-1744
▁run	-1745
▁rules	-1746
▁directed	-1747
band	-1748
▁cr	-1749
▁file	-1750
▁proble	-1751
▁Chand	-1752
▁Magistrate	-1753
▁individual	-1754
▁went	-1755
▁polit	-1756
▁program	-1757
AR	-1758
uly	-1759
war	-1760
▁established	-1761
ouncil	-1762
▁cult	-1763
idav	-1764
▁education	-1765
▁provide	-1766
▁product	-1767
▁till	-1768
▁Courts	-1769
▁sl	-1770
▁University	-1771
▁specific	-1772
epend	-1773
▁whole	-1774
▁language	-1775
duc	-1776
▁eng	-1777
AT	-1778
essee	-1779
▁wife	-1780
▁keep	-1781
ajor	-1782
▁side	-1783
▁Corpor	-1784
ium	-1785
error	-1786
▁constit	-1787
ressed	-1788
▁dismissed	-1789
▁five	-1790
▁mother	-1791
▁old	-1792
▁school	-1793
▁il	-1794
▁Serv	-1795
▁prep	-1796
amm	-1797
▁clearly	-1798
▁got	-1799
ters	-1800
hing	-1801
▁cro	-1802
ope	-1803
▁ens	-1804
gr	-1805
▁Not	-1806
▁aspect	-1807
▁times	-1808
▁civil	-1809
asht	-1810
▁apply	-1811
▁ann	-1812
▁fix	-1813
▁produced	-1814
▁instru	-1815
▁punish	-1816
▁Division	-1817
▁free	-1818
▁victim	-1819
adesh	-1820
lia	-1821
aged	-1822
▁several	-1823
▁bre	-1824
ellate	-1825
ify	-1826
▁too	-1827
pondent	-1828
aking	-1829
ala	-1830
uries	-1831
▁fri	-1832
▁His	-1833
▁illeg	-1834
▁force	-1835
ER	-1836
▁initi	-1837
▁appropriate	-1838
▁accepted	-1839
▁Civil	-1840
▁decided	-1841
duced	-1842
▁natural	-1843
▁ide	-1844
eed	-1845
▁among	-1846
▁market	-1847
▁short	-1848
usband	-1849
▁categ	-1850
▁full	-1851
▁delay	-1852
isation	-1853
▁Even	-1854
liament	-1855
ospital	-1856
▁appointed	-1857
erg	-1858
▁regular	-1859
▁Ab	-1860
▁Engl	-1861
▁prior	-1862
▁goods	-1863
▁near	-1864
igned	-1865
action	-1866
▁appre	-1867
▁wind	-1868
rest	-1869
▁argu	-1870
ciples	-1871
▁purch	-1872
riage	-1873
lf	-1874
▁nex	-1875
▁What	-1876
▁authorities	-1877
urrence	-1878
sw	-1879
▁separ	-1880
▁compet	-1881
▁affidav	-1882
▁son	-1883
▁powers	-1884
verse	-1885
▁compensation	-1886
ilities	-1887
medi	-1888
▁relief	-1889
umb	-1890
▁reject	-1891
▁village	-1892
ani	-1893
ething	-1894
ember	-1895
▁relating	-1896
▁total	-1897
▁suff	-1898
▁major	-1899
ably	-1900
agraph	-1901
▁sing	-1902
ricult	-1903
▁san	-1904
▁regarding	-1905
▁prescribed	-1906
ieve	-1907
▁Cont	-1908
hic	-1909
▁Co	-1910
ificate	-1911
▁interf	-1912
▁Company	-1913
▁move	-1914
▁husband	-1915
utory	-1916
cell	-1917
▁benefit	-1918
ware	-1919
▁thereafter	-1920
▁Be	-1921
urity	-1922
▁prim	-1923
ane	-1924
▁health	-1925
ery	-1926
▁submits	-1927
▁pray	-1928
que	-1929
▁Law	-1930
▁Sche	-1931
▁working	-1932
icult	-1933
ender	-1934
▁hearing	-1935
ern	-1936
▁Q	-1937
▁ur	-1938
den	-1939
iving	-1940
▁rate	-1941
resh	-1942
▁discl	-1943
▁today	-1944
▁copy	-1945
ON	-1946
▁charact	-1947
▁employees	-1948
empt	-1949
▁sk	-1950
▁adop	-1951
▁appears	-1952
▁otherwise	-1953
▁FIR	-1954
▁field	-1955
arily	-1956
▁procedure	-1957
mber	-1958
▁control	-1959
▁change	-1960
ours	-1961
▁success	-1962
▁artic	-1963
▁sought	-1964
hys	-1965
▁Muslim	-1966
rie	-1967
▁matters	-1968
▁still	-1969
atic	-1970
▁defendants	-1971
▁opportunity	-1972
▁defence	-1973
▁Spec	-1974
▁six	-1975
tle	-1976
▁trad	-1977
▁Chief	-1978
▁accordance	-1979
▁failed	-1980
▁always	-1981
cy	-1982
ta	-1983
▁Council	-1984
agar	-1985
ems	-1986
▁national	-1987
▁sw	-1988
▁Respondent	-1989
▁recomm	-1990
▁qual	-1991
sh	-1992
▁occurrence	-1993
▁Director	-1994
▁function	-1995
▁New	-1996
aly	-1997
▁similar	-1998
▁intern	-1999
▁true	-2000
▁correct	-2001
▁next	-2002
▁substant	-2003
▁Mad	-2004
▁later	-2005
▁meas	-2006
▁laid	-2007
▁Ins	-2008
acher	-2009
▁return	-2010
▁reasonable	-2011
▁self	-2012
▁Corporation	-2013
▁private	-2014
ards	-2015
▁super	-2016
▁ess	-2017
▁transfer	-2018
▁recogn	-2019
▁applicant	-2020
▁es	-2021
▁OF	-2022
▁Counsel	-2023
▁sect	-2024
oid	-2025
▁valid	-2026
AN	-2027
▁deed	-2028
vi	-2029
▁neg	-2030
overy	-2031
▁chang	-2032
▁direction	-2033
▁assessment	-2034
▁principle	-2035
▁States	-2036
▁share	-2037
▁affect	-2038
▁relations	-2039
▁plead	-2040
▁Further	-2041
▁brother	-2042
▁One	-2043
▁Union	-2044
▁charges	-2045
thing	-2046
▁plan	-2047
▁best	-2048
▁ful	-2049
▁answ	-2050
▁financial	-2051
▁impro	-2052
▁conclusion	-2053
▁higher	-2054
▁blood	-2055
▁enc	-2056
anj	-2057
▁Prov	-2058
augh	-2059
▁objection	-2060
▁Comm	-2061
ats	-2062
▁propos	-2063
▁note	-2064
orth	-2065
▁‘	-2066
▁sufficient	-2067
imum	-2068
▁principles	-2069
▁sal	-2070
▁Public	-2071
▁With	-2072
su	-2073
▁medical	-2074
▁official	-2075
ises	-2076
▁bring	-2077
▁vac	-2078
ali	-2079
▁Pradesh	-2080
outh	-2081
▁nothing	-2082
▁Authority	-2083
▁aside	-2084
akh	-2085
▁independ	-2086
▁hist	-2087
▁sus	-2088
▁affidavit	-2089
▁dead	-2090
▁spot	-2091
▁proceeding	-2092
▁undert	-2093
▁!	-2094
▁kind	-2095
▁caused	-2096
▁once	-2097
▁finding	-2098
▁subsequ	-2099
ension	-2100
pr	-2101
▁pop	-2102
▁consequ	-2103
ote	-2104
▁bey	-2105
▁injuries	-2106
▁vehic	-2107
▁Isl	-2108
▁elect	-2109
▁div	-2110
▁Apex	-2111
▁beyond	-2112
▁areas	-2113
▁able	-2114
ructure	-2115
▁appearing	-2116
▁port	-2117
▁something	-2118
▁Develop	-2119
▁fram	-2120
lied	-2121
▁relied	-2122
▁mot	-2123
sed	-2124
▁paragraph	-2125
▁meeting	-2126
▁asked	-2127
▁step	-2128
▁enquiry	-2129
▁treat	-2130
▁mand	-2131
▁giving	-2132
▁Such	-2133
▁nam	-2134
▁wr	-2135
▁Minister	-2136
1;	-2137
▁&#91;	-2138
▁Parliament	-2139
▁occas	-2140
▁situation	-2141
▁prove	-2142
▁env	-2143
▁fall	-2144
ging	-2145
▁provides	-2146
▁decree	-2147
une	-2148
come	-2149
istry	-2150
ann	-2151
▁loss	-2152
ape	-2153
▁norm	-2154
AL	-2155
▁mo	-2156
▁third	-2157
▁dri	-2158
ma	-2159
▁local	-2160
bs	-2161
endment	-2162
▁difficult	-2163
▁Z	-2164
plic	-2165
▁sust	-2166
gether	-2167
▁together	-2168
▁meaning	-2169
▁outs	-2170
▁capital	-2171
avan	-2172
▁Special	-2173
▁started	-2174
▁unless	-2175
▁economic	-2176
uf	-2177
▁Gr	-2178
▁Advocate	-2179
work	-2180
▁political	-2181
ample	-2182
standing	-2183
gth	-2184
ribution	-2185
▁comput	-2186
▁pref	-2187
ush	-2188
▁lic	-2189
▁guil	-2190
ories	-2191
▁few	-2192
▁presence	-2193
arat	-2194
for	-2195
vert	-2196
▁intention	-2197
▁lab	-2198
▁immedi	-2199
▁Pre	-2200
venue	-2201
illed	-2202
abad	-2203
▁home	-2204
▁bar	-2205
▁carry	-2206
▁PR	-2207
▁lib	-2208
▁Kh	-2209
▁arrest	-2210
▁heard	-2211
vest	-2212
urned	-2213
▁contained	-2214
▁tit	-2215
▁denied	-2216
▁senior	-2217
aper	-2218
▁food	-2219
▁Govern	-2220
▁character	-2221
▁obl	-2222
▁Gand	-2223
hold	-2224
▁countries	-2225
▁petitions	-2226
unt	-2227
▁ut	-2228
anation	-2229
▁By	-2230
selves	-2231
gin	-2232
▁di	-2233
▁injury	-2234
▁Med	-2235
▁ach	-2236
▁serious	-2237
ulated	-2238
acy	-2239
▁SCC	-2240
acity	-2241
▁Secret	-2242
▁specified	-2243
▁decisions	-2244
▁While	-2245
▁phys	-2246
ercial	-2247
▁fair	-2248
▁courts	-2249
▁Brit	-2250
▁doct	-2251
▁review	-2252
irit	-2253
▁students	-2254
▁extent	-2255
▁issues	-2256
ternal	-2257
▁ill	-2258
idd	-2259
▁Development	-2260
▁aut	-2261
▁holding	-2262
IT	-2263
▁statutory	-2264
▁Hindu	-2265
iss	-2266
rish	-2267
▁previous	-2268
▁settled	-2269
▁employee	-2270
▁around	-2271
▁Kar	-2272
▁absence	-2273
▁Sm	-2274
amination	-2275
▁unt	-2276
ened	-2277
▁wrong	-2278
▁states	-2279
▁Educ	-2280
▁fal	-2281
▁liable	-2282
▁eff	-2283
▁member	-2284
▁women	-2285
▁assessee	-2286
vey	-2287
▁bail	-2288
iting	-2289
▁namely	-2290
alc	-2291
▁event	-2292
▁conducted	-2293
▁Lt	-2294
irm	-2295
▁foreign	-2296
▁thereof	-2297
▁English	-2298
ault	-2299
gar	-2300
▁stren	-2301
▁fut	-2302
▁Under	-2303
utive	-2304
itor	-2305
▁feel	-2306
▁dom	-2307
ected	-2308
fully	-2309
ara	-2310
cious	-2311
▁prepared	-2312
urance	-2313
lege	-2314
▁belong	-2315
▁false	-2316
ubl	-2317
▁mur	-2318
IC	-2319
▁mil	-2320
▁wee	-2321
▁certificate	-2322
▁Order	-2323
ID	-2324
▁Me	-2325
▁notification	-2326
▁Just	-2327
▁things	-2328
io	-2329
omes	-2330
▁net	-2331
ties	-2332
▁maintain	-2333
go	-2334
▁construction	-2335
▁ele	-2336
ership	-2337
▁merely	-2338
▁institutions	-2339
▁purposes	-2340
▁Hence	-2341
ita	-2342
▁filing	-2343
ancy	-2344
▁arri	-2345
▁production	-2346
▁kept	-2347
▁activities	-2348
igating	-2349
arma	-2350
▁Beng	-2351
eric	-2352
▁expression	-2353
▁disch	-2354
amb	-2355
▁Islam	-2356
▁God	-2357
▁Soc	-2358
▁men	-2359
▁Pat	-2360
▁applicable	-2361
▁leave	-2362
aving	-2363
▁sentence	-2364
▁daugh	-2365
▁inn	-2366
ironment	-2367
isition	-2368
▁why	-2369
▁assist	-2370
▁building	-2371
lu	-2372
▁crit	-2373
▁communic	-2374
IN	-2375
▁Ltd	-2376
▁coun	-2377
ethod	-2378
▁Senior	-2379
▁personal	-2380
▁x	-2381
▁equal	-2382
▁marriage	-2383
with	-2384
to	-2385
irt	-2386
▁vol	-2387
▁particip	-2388
emed	-2389
▁spirit	-2390
▁ded	-2391
▁face	-2392
erve	-2393
▁conviction	-2394
itiz	-2395
▁ap	-2396
▁Leg	-2397
▁hard	-2398
ires	-2399
▁mult	-2400
▁management	-2401
ead	-2402
▁forward	-2403
▁tal	-2404
▁publ	-2405
▁rejected	-2406
▁Ann	-2407
▁effort	-2408
▁shown	-2409
▁department	-2410
▁bal	-2411
▁trade	-2412
ruit	-2413
rated	-2414
▁therein	-2415
stitute	-2416
most	-2417
ENT	-2418
▁election	-2419
▁declar	-2420
▁youn	-2421
ource	-2422
▁might	-2423
▁Part	-2424
▁followed	-2425
▁aver	-2426
ling	-2427
ipt	-2428
▁sanction	-2429
▁Dis	-2430
▁Jan	-2431
HE	-2432
▁mor	-2433
mes	-2434
ources	-2435
▁Bi	-2436
atives	-2437
▁imm	-2438
▁occasion	-2439
ills	-2440
▁saf	-2441
▁defin	-2442
ufact	-2443
▁implement	-2444
▁Since	-2445
▁cur	-2446
▁und	-2447
▁poet	-2448
ched	-2449
▁whose	-2450
rix	-2451
▁accordingly	-2452
▁From	-2453
▁statements	-2454
▁May	-2455
▁future	-2456
▁agricult	-2457
anced	-2458
ti	-2459
▁method	-2460
urrent	-2461
▁commit	-2462
▁involved	-2463
▁turn	-2464
▁needs	-2465
▁candidates	-2466
▁IPC	-2467
▁appreci	-2468
▁associ	-2469
int	-2470
ament	-2471
▁design	-2472
▁rese	-2473
▁grounds	-2474
▁gave	-2475
▁security	-2476
ental	-2477
▁impos	-2478
▁approach	-2479
ND	-2480
▁pending	-2481
▁expect	-2482
▁interpre	-2483
eb	-2484
▁Lim	-2485
▁little	-2486
ude	-2487
▁Now	-2488
anies	-2489
▁plant	-2490
▁vehicle	-2491
▁prob	-2492
▁heart	-2493
▁eas	-2494
imate	-2495
ama	-2496
▁became	-2497
▁price	-2498
uses	-2499
▁Panch	-2500
▁bur	-2501
▁bound	-2502
▁fr	-2503
▁window	-2504
essions	-2505
▁related	-2506
ulations	-2507
▁oppos	-2508
▁fixed	-2509
rah	-2510
ison	-2511
▁reported	-2512
men	-2513
itive	-2514
..	-2515
▁deposed	-2516
▁Will	-2517
▁admission	-2518
▁industry	-2519
▁sector	-2520
▁British	-2521
▁claimed	-2522
▁challenge	-2523
▁promotion	-2524
rop	-2525
▁trib	-2526
▁title	-2527
▁parent	-2528
▁Bhavan	-2529
▁illegal	-2530
▁request	-2531
▁role	-2532
▁consum	-2533
▁lar	-2534
▁road	-2535
▁ensure	-2536
▁considering	-2537
▁contrary	-2538
▁informed	-2539
reg	-2540
▁connection	-2541
inate	-2542
▁stay	-2543
▁told	-2544
ril	-2545
▁better	-2546
▁carried	-2547
▁data	-2548
▁Ra	-2549
▁Hindi	-2550
▁dam	-2551
▁ce	-2552
▁Education	-2553
dule	-2554
tion	-2555
▁yet	-2556
uled	-2557
▁commission	-2558
▁offences	-2559
▁cast	-2560
▁liter	-2561
▁Let	-2562
▁Rec	-2563
▁Gandhi	-2564
▁context	-2565
irst	-2566
▁address	-2567
▁quality	-2568
ety	-2569
▁Muk	-2570
▁manufact	-2571
▁March	-2572
▁bo	-2573
▁Rasht	-2574
▁cover	-2575
▁allegations	-2576
▁noted	-2577
OR	-2578
▁district	-2579
▁Sy	-2580
iced	-2581
▁strong	-2582
usal	-2583
ored	-2584
▁growth	-2585
▁Station	-2586
▁restr	-2587
elf	-2588
▁treated	-2589
uary	-2590
▁continue	-2591
▁exam	-2592
aul	-2593
▁susp	-2594
▁Service	-2595
▁owner	-2596
▁receipt	-2597
▁Secretary	-2598
ici	-2599
▁Where	-2600
▁outside	-2601
▁Em	-2602
aff	-2603
▁writing	-2604
▁Thereafter	-2605
▁dispos	-2606
▁counter	-2607
▁spe	-2608
▁registration	-2609
▁art	-2610
▁plaintiffs	-2611
▁arr	-2612
▁type	-2613
irl	-2614
▁credit	-2615
▁situ	-2616
▁citiz	-2617
▁mill	-2618
▁Invest	-2619
aries	-2620
▁thing	-2621
▁constitution	-2622
▁thought	-2623
▁live	-2624
▁Appeal	-2625
▁teacher	-2626
▁Mar	-2627
atch	-2628
ares	-2629
udd	-2630
aster	-2631
▁instant	-2632
▁love	-2633
▁Cong	-2634
pir	-2635
▁reached	-2636
▁sense	-2637
▁trust	-2638
▁crime	-2639
▁Sar	-2640
▁joint	-2641
▁follows	-2642
▁sol	-2643
▁Sim	-2644
▁penal	-2645
arant	-2646
▁room	-2647
▁close	-2648
▁existence	-2649
▁para	-2650
▁story	-2651
acc	-2652
▁furn	-2653
▁details	-2654
omb	-2655
▁daughter	-2656
▁themselves	-2657
now	-2658
▁Americ	-2659
▁School	-2660
▁additional	-2661
▁Assist	-2662
▁makes	-2663
▁reserv	-2664
▁single	-2665
rapati	-2666
▁House	-2667
▁records	-2668
▁intro	-2669
▁whom	-2670
▁competent	-2671
▁relation	-2672
▁recovery	-2673
▁Criminal	-2674
▁discussion	-2675
▁framed	-2676
▁arbitration	-2677
reedom	-2678
enced	-2679
▁declared	-2680
▁executed	-2681
▁specif	-2682
▁anything	-2683
▁officers	-2684
▁declaration	-2685
▁Ministry	-2686
jee	-2687
omp	-2688
▁revision	-2689
airs	-2690
▁Fin	-2691
examination	-2692
▁Sw	-2693
▁applied	-2694
▁prosecut	-2695
▁Cons	-2696
▁capacity	-2697
▁line	-2698
law	-2699
oted	-2700
abha	-2701
▁mus	-2702
▁Prin	-2703
▁employment	-2704
▁acquit	-2705
▁Justice	-2706
oad	-2707
▁fra	-2708
▁Rashtrapati	-2709
▁properties	-2710
▁obtained	-2711
▁occur	-2712
▁THE	-2713
▁treatment	-2714
▁Ne	-2715
▁First	-2716
▁region	-2717
kar	-2718
▁April	-2719
▁Indust	-2720
▁findings	-2721
▁join	-2722
▁lod	-2723
▁minor	-2724
▁particularly	-2725
▁rend	-2726
erated	-2727
▁mess	-2728
▁prevent	-2729
cent	-2730
uous	-2731
▁hospital	-2732
▁eye	-2733
istrative	-2734
▁industrial	-2735
▁Do	-2736
▁pursu	-2737
▁permission	-2738
▁Writ	-2739
▁dest	-2740
▁subs	-2741
▁doing	-2742
istic	-2743
▁don	-2744
mises	-2745
cri	-2746
▁dise	-2747
▁gone	-2748
▁gre	-2749
▁progress	-2750
ier	-2751
▁mach	-2752
▁existing	-2753
▁shows	-2754
▁summ	-2755
▁execution	-2756
▁begin	-2757
arth	-2758
▁access	-2759
▁Tax	-2760
lying	-2761
▁young	-2762
▁Im	-2763
▁neither	-2764
ift	-2765
▁alone	-2766
▁agg	-2767
▁operation	-2768
▁draw	-2769
though	-2770
▁integ	-2771
▁Lal	-2772
▁appellate	-2773
▁created	-2774
▁Ph	-2775
imal	-2776
▁seeking	-2777
▁past	-2778
▁Some	-2779
la	-2780
▁search	-2781
cle	-2782
▁lay	-2783
▁Congress	-2784
▁key	-2785
▁separate	-2786
▁wherein	-2787
▁testim	-2788
▁Le	-2789
▁died	-2790
▁coming	-2791
missible	-2792
dra	-2793
▁led	-2794
▁materials	-2795
▁cut	-2796
▁recommend	-2797
▁consist	-2798
▁living	-2799
▁passing	-2800
▁Pal	-2801
oice	-2802
▁ter	-2803
▁applications	-2804
ening	-2805
olute	-2806
ertain	-2807
tt	-2808
▁air	-2809
ieved	-2810
uction	-2811
ION	-2812
ott	-2813
▁include	-2814
▁immediately	-2815
uro	-2816
▁hence	-2817
formation	-2818
irth	-2819
▁z	-2820
aka	-2821
▁history	-2822
▁Additional	-2823
▁During	-2824
aya	-2825
▁Aug	-2826
▁lat	-2827
▁resident	-2828
bsite	-2829
▁pointed	-2830
▁problem	-2831
▁Bengal	-2832
ji	-2833
▁often	-2834
▁press	-2835
▁physical	-2836
▁parts	-2837
▁least	-2838
ring	-2839
▁Per	-2840
▁custom	-2841
▁enact	-2842
▁Petitioner	-2843
▁occup	-2844
▁My	-2845
unicip	-2846
▁entered	-2847
semb	-2848
▁firm	-2849
▁actually	-2850
change	-2851
▁published	-2852
▁Bar	-2853
rs	-2854
▁Trial	-2855
▁Lab	-2856
put	-2857
▁night	-2858
▁inquiry	-2859
▁discipl	-2860
ront	-2861
▁station	-2862
▁nar	-2863
▁murder	-2864
▁tried	-2865
▁benefits	-2866
▁merit	-2867
▁status	-2868
ands	-2869
ream	-2870
ators	-2871
▁questions	-2872
▁limited	-2873
▁Though	-2874
▁interim	-2875
▁analy	-2876
▁Sah	-2877
▁link	-2878
adi	-2879
▁dr	-2880
▁RRB	-2881
▁fit	-2882
▁Report	-2883
▁Artic	-2884
eness	-2885
▁argument	-2886
▁freedom	-2887
▁providing	-2888
▁argued	-2889
▁selection	-2890
▁liability	-2891
ergy	-2892
▁international	-2893
▁ign	-2894
▁independent	-2895
▁allot	-2896
ris	-2897
wal	-2898
oud	-2899
judic	-2900
▁hands	-2901
▁example	-2902
▁experience	-2903
▁Assistant	-2904
▁continued	-2905
▁Scheme	-2906
▁Sur	-2907
▁Bal	-2908
▁tradition	-2909
▁using	-2910
▁performance	-2911
rant	-2912
▁distin	-2913
▁truth	-2914
ung	-2915
▁Krish	-2916
▁issu	-2917
▁lower	-2918
▁elig	-2919
▁reve	-2920
▁environment	-2921
aps	-2922
retion	-2923
▁Dece	-2924
▁punishment	-2925
▁presum	-2926
ration	-2927
▁amendment	-2928
▁addition	-2929
roll	-2930
▁remed	-2931
▁Wor	-2932
▁adopted	-2933
▁contem	-2934
▁essential	-2935
▁attention	-2936
ots	-2937
▁Off	-2938
▁drawn	-2939
▁fresh	-2940
▁reply	-2941
▁decide	-2942
▁subsequent	-2943
▁red	-2944
▁specifically	-2945
▁squ	-2946
▁Pun	-2947
▁enfor	-2948
▁rendered	-2949
▁research	-2950
▁nom	-2951
▁farm	-2952
▁signific	-2953
▁saw	-2954
▁community	-2955
▁Trans	-2956
pped	-2957
ili	-2958
▁deemed	-2959
adem	-2960
equ	-2961
▁news	-2962
els	-2963
▁adj	-2964
▁Single	-2965
▁rather	-2966
▁plea	-2967
▁directions	-2968
▁unf	-2969
▁website	-2970
▁approval	-2971
unction	-2972
▁Legisl	-2973
▁religious	-2974
asing	-2975
adu	-2976
▁Rel	-2977
atures	-2978
▁produce	-2979
ada	-2980
▁govern	-2981
▁vari	-2982
▁Guj	-2983
▁posts	-2984
▁becomes	-2985
anda	-2986
▁Panchay	-2987
▁judge	-2988
▁big	-2989
▁works	-2990
▁influ	-2991
▁requirement	-2992
▁LRB	-2993
▁Pur	-2994
IS	-2995
▁January	-2996
▁Limited	-2997
▁absolute	-2998
▁cell	-2999
▁accident	-3000
▁proposed	-3001
▁soon	-3002
oor	-3003
▁aud	-3004
ship	-3005
▁Techn	-3006
orrow	-3007
▁withdra	-3008
pective	-3009
▁Intern	-3010
▁Lord	-3011
▁error	-3012
▁August	-3013
ourn	-3014
▁Bl	-3015
bed	-3016
▁statute	-3017
▁comes	-3018
▁submissions	-3019
▁hy	-3020
▁ii	-3021
▁har	-3022
▁products	-3023
lector	-3024
chan	-3025
▁Smt	-3026
ival	-3027
▁emp	-3028
▁conscious	-3029
▁version	-3030
ran	-3031
▁pot	-3032
▁aware	-3033
▁computer	-3034
▁nation	-3035
▁respective	-3036
▁proof	-3037
▁create	-3038
▁permit	-3039
▁basic	-3040
▁problems	-3041
hai	-3042
▁July	-3043
vention	-3044
endra	-3045
▁guarant	-3046
aging	-3047
▁Moh	-3048
▁enter	-3049
ina	-3050
▁Sessions	-3051
▁pension	-3052
▁testimony	-3053
▁premises	-3054
▁attempt	-3055
aching	-3056
▁scale	-3057
▁Sept	-3058
▁top	-3059
encies	-3060
▁laws	-3061
▁judgments	-3062
▁December	-3063
▁Procedure	-3064
▁movement	-3065
▁Ple	-3066
using	-3067
▁sell	-3068
▁steps	-3069
▁Mahar	-3070
▁scope	-3071
▁Chair	-3072
▁responsible	-3073
▁loan	-3074
▁half	-3075
▁administration	-3076
erring	-3077
bar	-3078
▁quant	-3079
ples	-3080
▁adjudic	-3081
▁relationship	-3082
ober	-3083
oper	-3084
▁commercial	-3085
ns	-3086
▁protection	-3087
▁More	-3088
▁Ext	-3089
▁Ev	-3090
ological	-3091
▁born	-3092
▁technology	-3093
▁assum	-3094
▁wide	-3095
▁almost	-3096
▁Int	-3097
▁attack	-3098
▁deep	-3099
▁conclud	-3100
▁discretion	-3101
▁instance	-3102
▁resolution	-3103
▁Dh	-3104
▁perman	-3105
▁consent	-3106
▁deli	-3107
▁Second	-3108
ught	-3109
▁tender	-3110
▁Mem	-3111
▁advert	-3112
▁Medical	-3113
▁shop	-3114
▁modern	-3115
▁Af	-3116
▁noticed	-3117
▁Fore	-3118
▁Nar	-3119
CT	-3120
▁bid	-3121
inated	-3122
▁fire	-3123
▁recovered	-3124
▁Def	-3125
▁Exec	-3126
▁quite	-3127
▁reading	-3128
▁host	-3129
▁guilty	-3130
▁woman	-3131
▁Feb	-3132
▁acquired	-3133
▁Clause	-3134
▁practice	-3135
ami	-3136
▁concept	-3137
icted	-3138
pecially	-3139
▁setting	-3140
hibit	-3141
▁pert	-3142
▁prosecutrix	-3143
uties	-3144
hra	-3145
▁Pand	-3146
▁enj	-3147
▁category	-3148
pite	-3149
▁girl	-3150
▁gra	-3151
▁Applic	-3152
▁virt	-3153
▁Mal	-3154
▁developed	-3155
▁mut	-3156
▁sole	-3157
ME	-3158
▁September	-3159
▁peace	-3160
▁remain	-3161
▁lakh	-3162
▁Income	-3163
amental	-3164
▁ult	-3165
ingu	-3166
▁text	-3167
▁Arbitr	-3168
▁examine	-3169
▁accounts	-3170
iture	-3171
▁claims	-3172
▁Pri	-3173
▁really	-3174
▁challenged	-3175
▁Mo	-3176
▁Accordingly	-3177
▁ever	-3178
▁seized	-3179
▁sold	-3180
▁explanation	-3181
body	-3182
▁express	-3183
▁mort	-3184
tation	-3185
▁satisfied	-3186
▁US	-3187
▁Annex	-3188
▁enough	-3189
▁depend	-3190
hood	-3191
estic	-3192
▁Oct	-3193
uck	-3194
aled	-3195
ps	-3196
IL	-3197
ians	-3198
view	-3199
▁permitted	-3200
ruary	-3201
▁balance	-3202
▁especially	-3203
▁June	-3204
▁books	-3205
▁const	-3206
▁injured	-3207
▁seek	-3208
jab	-3209
ager	-3210
▁article	-3211
▁effective	-3212
ruitment	-3213
asad	-3214
▁names	-3215
▁birth	-3216
▁February	-3217
va	-3218
ene	-3219
▁Go	-3220
▁partn	-3221
▁behind	-3222
▁rent	-3223
▁friend	-3224
▁getting	-3225
▁scient	-3226
▁Engine	-3227
▁extended	-3228
itude	-3229
▁early	-3230
▁lands	-3231
▁agreed	-3232
▁current	-3233
▁fully	-3234
▁Deputy	-3235
▁democ	-3236
▁visit	-3237
▁completed	-3238
▁wa	-3239
be	-3240
▁College	-3241
▁reliance	-3242
iously	-3243
duction	-3244
▁profession	-3245
▁disposed	-3246
▁hon	-3247
▁sex	-3248
▁custody	-3249
▁Brah	-3250
pector	-3251
▁answer	-3252
▁covered	-3253
▁threat	-3254
▁training	-3255
▁boy	-3256
▁source	-3257
▁paper	-3258
▁evident	-3259
▁Information	-3260
▁attract	-3261
▁acquisition	-3262
sis	-3263
elt	-3264
▁duties	-3265
cription	-3266
▁awarded	-3267
▁representation	-3268
▁suggestion	-3269
▁opposite	-3270
ones	-3271
▁Pen	-3272
ograph	-3273
▁until	-3274
▁typ	-3275
▁violation	-3276
▁job	-3277
▁tell	-3278
▁simple	-3279
▁understand	-3280
▁Isra	-3281
▁United	-3282
▁terror	-3283
▁install	-3284
▁supported	-3285
▁pros	-3286
▁informant	-3287
▁exercised	-3288
▁ought	-3289
▁penalty	-3290
unicipal	-3291
▁fine	-3292
ins	-3293
rast	-3294
▁acts	-3295
▁parents	-3296
▁mag	-3297
heduled	-3298
▁cru	-3299
▁la	-3300
ankar	-3301
eep	-3302
iso	-3303
line	-3304
▁October	-3305
cing	-3306
▁Punjab	-3307
▁Vill	-3308
assion	-3309
▁technical	-3310
▁Pe	-3311
▁Ash	-3312
▁Gur	-3313
▁repl	-3314
▁exclus	-3315
▁Ah	-3316
▁Israel	-3317
istan	-3318
▁limit	-3319
▁identified	-3320
▁stands	-3321
▁deg	-3322
▁tele	-3323
▁Har	-3324
▁payable	-3325
▁Devi	-3326
▁temple	-3327
▁Similar	-3328
▁guid	-3329
▁included	-3330
riev	-3331
▁protect	-3332
▁suggest	-3333
▁Other	-3334
▁Ma	-3335
▁Sharma	-3336
▁returned	-3337
▁pack	-3338
▁sound	-3339
istrar	-3340
▁implic	-3341
▁weap	-3342
▁Princip	-3343
▁sheet	-3344
▁Mukher	-3345
▁likely	-3346
▁places	-3347
▁greater	-3348
rig	-3349
▁tend	-3350
▁Ac	-3351
▁appeals	-3352
rut	-3353
sing	-3354
▁West	-3355
▁enjoy	-3356
▁energy	-3357
▁quar	-3358
▁hours	-3359
▁corpor	-3360
krit	-3361
sembly	-3362
IA	-3363
▁requires	-3364
▁Collector	-3365
imately	-3366
▁supply	-3367
▁ren	-3368
obal	-3369
▁liqu	-3370
let	-3371
ilt	-3372
▁low	-3373
▁option	-3374
▁Annexure	-3375
▁Chandra	-3376
▁employer	-3377
elfare	-3378
▁Sat	-3379
ground	-3380
▁activity	-3381
hest	-3382
▁Pra	-3383
▁PRES	-3384
erate	-3385
▁impris	-3386
▁committee	-3387
ras	-3388
▁Bomb	-3389
▁imprisonment	-3390
▁seven	-3391
▁enh	-3392
▁Euro	-3393
avi	-3394
▁log	-3395
▁generally	-3396
▁minimum	-3397
▁believe	-3398
ne	-3399
▁fig	-3400
▁collect	-3401
▁defined	-3402
▁register	-3403
▁wid	-3404
▁religion	-3405
▁fee	-3406
▁imposed	-3407
▁cogn	-3408
▁Mukherjee	-3409
▁fundamental	-3410
unities	-3411
▁instrument	-3412
▁entry	-3413
▁Appellant	-3414
▁refer	-3415
▁Judicial	-3416
▁altern	-3417
▁thereby	-3418
▁prejud	-3419
▁city	-3420
▁achieve	-3421
▁fell	-3422
▁companies	-3423
▁preferred	-3424
porary	-3425
▁structure	-3426
▁substantial	-3427
▁Appellate	-3428
▁improve	-3429
▁strength	-3430
duce	-3431
▁dealing	-3432
▁million	-3433
▁settlement	-3434
▁whereas	-3435
▁aim	-3436
ining	-3437
ipur	-3438
▁sil	-3439
▁page	-3440
▁fraud	-3441
▁Then	-3442
▁approved	-3443
▁lost	-3444
ously	-3445
▁says	-3446
enance	-3447
▁cancell	-3448
▁duly	-3449
▁situated	-3450
nat	-3451
▁proviso	-3452
▁functions	-3453
apers	-3454
.-	-3455
▁portion	-3456
▁population	-3457
rob	-3458
▁Provided	-3459
▁Europe	-3460
▁Bab	-3461
▁lease	-3462
ED	-3463
▁facie	-3464
itary	-3465
▁Nove	-3466
▁insp	-3467
oke	-3468
▁Bombay	-3469
▁deposit	-3470
BI	-3471
▁export	-3472
enses	-3473
▁Admin	-3474
▁changes	-3475
▁efforts	-3476
▁IT	-3477
▁aspects	-3478
enty	-3479
ulate	-3480
▁observations	-3481
▁mob	-3482
▁Pers	-3483
▁November	-3484
▁importance	-3485
▁failure	-3486
▁Gujarat	-3487
▁message	-3488
▁discussed	-3489
▁faith	-3490
▁discharge	-3491
pta	-3492
▁actual	-3493
▁assistance	-3494
▁adverse	-3495
▁Sabha	-3496
▁Executive	-3497
ancies	-3498
▁phot	-3499
▁takes	-3500
ifying	-3501
▁articles	-3502
▁facilities	-3503
▁Office	-3504
▁percent	-3505
▁transaction	-3506
itable	-3507
▁Muslims	-3508
▁Gov	-3509
rug	-3510
▁bri	-3511
▁network	-3512
iddle	-3513
▁normal	-3514
rd	-3515
utta	-3516
▁Management	-3517
▁sustained	-3518
▁clar	-3519
▁front	-3520
▁bill	-3521
▁opens	-3522
▁study	-3523
▁Des	-3524
▁Prasad	-3525
amil	-3526
▁perusal	-3527
▁Sci	-3528
▁signed	-3529
▁determined	-3530
▁Institute	-3531
▁Of	-3532
▁increase	-3533
▁sure	-3534
▁apart	-3535
cise	-3536
▁doctor	-3537
▁Village	-3538
com	-3539
▁....	-3540
▁expressed	-3541
▁sou	-3542
eared	-3543
▁stru	-3544
▁extra	-3545
▁forms	-3546
▁disease	-3547
▁Any	-3548
▁assets	-3549
ows	-3550
▁Shiv	-3551
▁substance	-3552
▁directly	-3553
▁educational	-3554
ava	-3555
▁marks	-3556
▁instead	-3557
▁Plan	-3558
▁programme	-3559
▁transport	-3560
▁served	-3561
▁resources	-3562
▁contribution	-3563
aut	-3564
▁Panchayat	-3565
▁harm	-3566
land	-3567
▁lack	-3568
▁mal	-3569
▁Sp	-3570
▁Principal	-3571
▁permanent	-3572
▁initiated	-3573
ouses	-3574
▁oral	-3575
▁arrange	-3576
▁prima	-3577
▁remained	-3578
▁Bihar	-3579
▁default	-3580
▁territ	-3581
ump	-3582
▁fulf	-3583
▁stri	-3584
▁gives	-3585
▁agricultural	-3586
▁administrative	-3587
iny	-3588
▁Shah	-3589
▁injunction	-3590
ett	-3591
rieved	-3592
▁unit	-3593
▁affected	-3594
▁Our	-3595
▁marked	-3596
hem	-3597
IDENT	-3598
▁remedy	-3599
▁advance	-3600
▁revenue	-3601
▁quas	-3602
▁goes	-3603
▁century	-3604
▁sister	-3605
rid	-3606
ayan	-3607
▁len	-3608
▁friends	-3609
▁communication	-3610
▁Registrar	-3611
iti	-3612
▁mental	-3613
ask	-3614
▁coll	-3615
▁emph	-3616
▁difference	-3617
ifications	-3618
▁bod	-3619
ables	-3620
▁Pran	-3621
▁stip	-3622
▁Hospital	-3623
rastructure	-3624
१०	-3625
oti	-3626
oting	-3627
▁candidate	-3628
▁List	-3629
▁costs	-3630
▁connected	-3631
abh	-3632
▁arguments	-3633
▁earth	-3634
aken	-3635
▁offer	-3636
▁definition	-3637
▁constituted	-3638
▁weeks	-3639
▁shares	-3640
▁recruitment	-3641
▁lot	-3642
▁max	-3643
▁External	-3644
▁includes	-3645
▁investment	-3646
▁ris	-3647
▁apparent	-3648
▁arrived	-3649
▁PRESIDENT	-3650
anskrit	-3651
▁mass	-3652
▁Inspector	-3653
uting	-3654
▁Prof	-3655
ocation	-3656
▁leading	-3657
igence	-3658
▁keeping	-3659
▁remains	-3660
▁transferred	-3661
▁Sam	-3662
▁Dev	-3663
operative	-3664
essing	-3665
▁Ref	-3666
▁conver	-3667
▁Associ	-3668
▁running	-3669
erty	-3670
▁cogniz	-3671
▁inside	-3672
▁Investigating	-3673
▁patient	-3674
▁How	-3675
▁eight	-3676
aves	-3677
▁responsibility	-3678
▁described	-3679
▁culture	-3680
▁prayer	-3681
▁debt	-3682
▁engaged	-3683
OU	-3684
▁Stand	-3685
▁heav	-3686
▁Rail	-3687
▁Chairman	-3688
▁intended	-3689
▁Penal	-3690
enditure	-3691
rote	-3692
▁bi	-3693
▁contact	-3694
▁bad	-3695
▁Lok	-3696
▁else	-3697
▁Chh	-3698
▁site	-3699
▁Kash	-3700
▁merits	-3701
▁arbitrator	-3702
▁limitation	-3703
▁er	-3704
▁Sal	-3705
▁forth	-3706
▁citizens	-3707
▁soft	-3708
▁check	-3709
▁receive	-3710
▁forest	-3711
▁mechan	-3712
ishing	-3713
ke	-3714
▁preced	-3715
▁der	-3716
▁Super	-3717
▁Bill	-3718
▁allegation	-3719
inder	-3720
esides	-3721
▁thous	-3722
mir	-3723
▁agency	-3724
▁East	-3725
▁purchase	-3726
athi	-3727
ishes	-3728
under	-3729
oj	-3730
▁selected	-3731
▁burden	-3732
▁presented	-3733
▁Qu	-3734
▁carrying	-3735
▁added	-3736
▁univers	-3737
▁across	-3738
▁remo	-3739
▁enforce	-3740
asm	-3741
▁punishable	-3742
aks	-3743
▁Karnat	-3744
▁standard	-3745
ST	-3746
▁comb	-3747
▁arise	-3748
▁wanted	-3749
estern	-3750
uge	-3751
▁Sa	-3752
rate	-3753
▁literature	-3754
wh	-3755
▁poor	-3756
▁Krishna	-3757
▁South	-3758
▁interpretation	-3759
ban	-3760
▁Revenue	-3761
▁Governor	-3762
▁Som	-3763
ordinate	-3764
▁seiz	-3765
undred	-3766
▁offered	-3767
▁Account	-3768
▁tree	-3769
▁extre	-3770
▁exceed	-3771
▁Application	-3772
eria	-3773
▁oblig	-3774
▁rural	-3775
▁points	-3776
▁Sanskrit	-3777
▁wrote	-3778
▁emb	-3779
uls	-3780
▁compliance	-3781
tax	-3782
▁distance	-3783
▁Karnataka	-3784
sect	-3785
▁Bang	-3786
etimes	-3787
rown	-3788
▁Pranab	-3789
urer	-3790
irmed	-3791
▁oil	-3792
isc	-3793
▁imper	-3794
▁transl	-3795
▁measures	-3796
▁conferred	-3797
▁lodged	-3798
▁funds	-3799
▁encour	-3800
▁Republic	-3801
▁Gang	-3802
▁rightly	-3803
▁exchange	-3804
elines	-3805
▁significant	-3806
rog	-3807
play	-3808
▁detention	-3809
▁ll	-3810
▁Both	-3811
nces	-3812
aily	-3813
▁none	-3814
ora	-3815
▁Calc	-3816
▁Municipal	-3817
▁Tamil	-3818
▁advertise	-3819
▁suc	-3820
▁Every	-3821
▁eligible	-3822
▁Bhag	-3823
ique	-3824
wan	-3825
inding	-3826
▁griev	-3827
▁construct	-3828
▁convicted	-3829
▁Case	-3830
▁Can	-3831
▁volunt	-3832
▁science	-3833
▁emphas	-3834
▁International	-3835
▁factors	-3836
umbai	-3837
▁Society	-3838
▁esc	-3839
▁uns	-3840
▁try	-3841
▁path	-3842
osop	-3843
▁liberty	-3844
▁expected	-3845
▁refers	-3846
▁central	-3847
▁determination	-3848
▁establishment	-3849
stituted	-3850
▁Red	-3851
▁sac	-3852
▁Mand	-3853
ga	-3854
oration	-3855
lies	-3856
▁Bas	-3857
▁cond	-3858
▁Right	-3859
▁disputed	-3860
▁disclosed	-3861
▁staff	-3862
▁Similarly	-3863
▁fast	-3864
▁interference	-3865
▁requirements	-3866
▁constitutional	-3867
▁formed	-3868
▁Ak	-3869
▁Ka	-3870
▁recording	-3871
▁Sun	-3872
▁Das	-3873
▁Utt	-3874
▁Assam	-3875
▁Nagar	-3876
▁Please	-3877
▁labour	-3878
▁felt	-3879
▁Services	-3880
ivity	-3881
eech	-3882
▁adequ	-3883
▁broad	-3884
ading	-3885
▁Expl	-3886
▁eyes	-3887
▁Before	-3888
olk	-3889
pper	-3890
▁pleaded	-3891
▁legislation	-3892
▁disclos	-3893
▁signature	-3894
▁Conf	-3895
▁disciplinary	-3896
▁wall	-3897
▁Stat	-3898
▁Po	-3899
▁contrad	-3900
▁advant	-3901
▁meant	-3902
▁global	-3903
▁Arab	-3904
▁spread	-3905
anger	-3906
▁teachers	-3907
adav	-3908
▁innov	-3909
▁explained	-3910
▁Jain	-3911
▁Schedule	-3912
▁mom	-3913
▁idea	-3914
eet	-3915
▁arm	-3916
▁IND	-3917
illing	-3918
▁enable	-3919
▁arising	-3920
▁Nos	-3921
▁measure	-3922
▁appeared	-3923
NA	-3924
▁II	-3925
▁workers	-3926
▁expenditure	-3927
▁Jag	-3928
▁won	-3929
▁king	-3930
icide	-3931
dy	-3932
▁scrut	-3933
ij	-3934
▁hundred	-3935
ilosop	-3936
▁river	-3937
oval	-3938
▁partition	-3939
▁Char	-3940
rine	-3941
▁arrested	-3942
sy	-3943
aded	-3944
▁frame	-3945
ricity	-3946
▁Land	-3947
▁length	-3948
▁size	-3949
▁majority	-3950
ademic	-3951
▁Labour	-3952
▁interests	-3953
oms	-3954
▁conven	-3955
▁unre	-3956
▁completely	-3957
▁Whe	-3958
▁looking	-3959
adh	-3960
▁ordinary	-3961
▁Kal	-3962
usted	-3963
▁units	-3964
▁Judges	-3965
sequently	-3966
▁anim	-3967
▁Ms	-3968
▁Fund	-3969
▁background	-3970
▁Hy	-3971
mi	-3972
▁poll	-3973
atever	-3974
olly	-3975
▁collected	-3976
▁cal	-3977
▁Ors	-3978
garh	-3979
ional	-3980
▁Calcutta	-3981
▁charged	-3982
AS	-3983
ini	-3984
▁ow	-3985
omen	-3986
▁breach	-3987
▁retire	-3988
apter	-3989
▁Dist	-3990
▁completion	-3991
▁pan	-3992
ashtra	-3993
▁obligation	-3994
▁mode	-3995
▁interfere	-3996
▁maintenance	-3997
vere	-3998
▁licence	-3999
ikh	-4000
▁domestic	-4001
▁Nag	-4002
▁cash	-4003
earch	-4004
osh	-4005
▁amounts	-4006
iring	-4007
▁excess	-4008
▁base	-4009
nam	-4010
▁tri	-4011
▁round	-4012
▁exc	-4013
▁Mumbai	-4014
ox	-4015
▁contempl	-4016
▁amended	-4017
vision	-4018
ributed	-4019
▁succeed	-4020
▁Gupta	-4021
▁properly	-4022
▁claimant	-4023
ilit	-4024
respon	-4025
▁asc	-4026
▁Trust	-4027
▁economy	-4028
▁indicated	-4029
▁unable	-4030
▁warrant	-4031
▁week	-4032
▁objections	-4033
oo	-4034
gment	-4035
▁camp	-4036
▁laun	-4037
▁advanced	-4038
▁exclud	-4039
haps	-4040
▁Centre	-4041
▁Pak	-4042
▁Health	-4043
▁cy	-4044
▁sustain	-4045
utor	-4046
▁pred	-4047
▁extract	-4048
CC	-4049
▁calc	-4050
▁initial	-4051
▁popular	-4052
uss	-4053
▁black	-4054
▁although	-4055
▁tour	-4056
bitral	-4057
▁Gh	-4058
▁gold	-4059
▁extend	-4060
thern	-4061
▁rail	-4062
▁officials	-4063
▁disputes	-4064
▁servant	-4065
▁entr	-4066
▁seizure	-4067
▁longer	-4068
▁detailed	-4069
▁conflic	-4070
usion	-4071
▁repro	-4072
actions	-4073
vell	-4074
DA	-4075
ley	-4076
▁util	-4077
▁team	-4078
aught	-4079
▁Andhra	-4080
▁Di	-4081
▁Their	-4082
▁journ	-4083
▁Power	-4084
▁contentions	-4085
▁alternative	-4086
EC	-4087
▁sun	-4088
▁tot	-4089
▁infrastructure	-4090
▁Op	-4091
ches	-4092
▁Mon	-4093
racy	-4094
▁prayed	-4095
▁named	-4096
▁reads	-4097
▁demon	-4098
liminary	-4099
where	-4100
▁regards	-4101
▁increased	-4102
▁foc	-4103
▁beginning	-4104
▁justified	-4105
rist	-4106
▁space	-4107
▁aggrieved	-4108
▁strict	-4109
▁Post	-4110
▁publication	-4111
▁ru	-4112
▁incorpor	-4113
RI	-4114
▁write	-4115
▁standing	-4116
othes	-4117
▁maintained	-4118
raft	-4119
▁King	-4120
▁medic	-4121
▁consult	-4122
ply	-4123
ades	-4124
▁Exhibit	-4125
▁aid	-4126
izing	-4127
▁Once	-4128
▁constitute	-4129
▁stating	-4130
gn	-4131
▁legislature	-4132
▁projects	-4133
▁lev	-4134
▁groups	-4135
▁usually	-4136
▁corrob	-4137
▁degree	-4138
▁tenant	-4139
▁Evidence	-4140
▁diss	-4141
hab	-4142
ailed	-4143
▁Mark	-4144
▁contain	-4145
▁Khan	-4146
▁hope	-4147
▁dealt	-4148
▁Having	-4149
▁fem	-4150
ammu	-4151
atio	-4152
aulted	-4153
▁released	-4154
▁proceeded	-4155
▁insurance	-4156
▁talk	-4157
▁introduced	-4158
▁subsequently	-4159
▁fear	-4160
▁avoid	-4161
▁banks	-4162
▁mist	-4163
cient	-4164
▁rise	-4165
▁daily	-4166
▁instructions	-4167
ev	-4168
apur	-4169
▁Day	-4170
▁seems	-4171
▁Whether	-4172
leb	-4173
▁pain	-4174
▁weak	-4175
▁ST	-4176
▁Jammu	-4177
▁Your	-4178
▁plus	-4179
▁obv	-4180
olved	-4181
▁film	-4182
chol	-4183
▁larger	-4184
▁salary	-4185
▁god	-4186
nother	-4187
▁attend	-4188
▁morning	-4189
▁reform	-4190
▁arbitrary	-4191
ula	-4192
▁dischar	-4193
enth	-4194
ateral	-4195
▁indicate	-4196
▁highest	-4197
▁removal	-4198
▁insect	-4199
▁Prog	-4200
erala	-4201
▁motor	-4202
▁Article	-4203
▁Another	-4204
▁err	-4205
▁novel	-4206
▁miscon	-4207
▁Shankar	-4208
▁numbers	-4209
▁response	-4210
▁potential	-4211
▁Ved	-4212
▁dig	-4213
▁stood	-4214
▁reports	-4215
▁principal	-4216
▁primary	-4217
▁built	-4218
▁confidence	-4219
▁Maharashtra	-4220
▁urged	-4221
abilities	-4222
▁standards	-4223
▁Her	-4224
▁autom	-4225
▁Elect	-4226
▁board	-4227
▁late	-4228
▁Scheduled	-4229
▁perf	-4230
iment	-4231
▁vested	-4232
rif	-4233
▁deb	-4234
▁Technology	-4235
▁guilt	-4236
▁door	-4237
▁analysis	-4238
▁proposal	-4239
▁former	-4240
▁ready	-4241
▁granting	-4242
▁sides	-4243
▁letters	-4244
▁Head	-4245
▁convey	-4246
▁events	-4247
▁Net	-4248
▁virtue	-4249
▁prop	-4250
▁Kerala	-4251
▁Yadav	-4252
▁reach	-4253
▁uncon	-4254
▁philosop	-4255
▁mandatory	-4256
▁undertaking	-4257
▁Tw	-4258
▁moment	-4259
▁repe	-4260
▁maintainable	-4261
▁accomp	-4262
▁rout	-4263
▁pleadings	-4264
rew	-4265
asth	-4266
▁pal	-4267
iable	-4268
▁expert	-4269
▁results	-4270
▁Uttar	-4271
▁turned	-4272
▁Moreover	-4273
wa	-4274
▁Inter	-4275
▁user	-4276
▁Vish	-4277
▁drug	-4278
▁Son	-4279
ding	-4280
▁pleas	-4281
ograp	-4282
▁speed	-4283
▁possess	-4284
ET	-4285
inery	-4286
▁implementation	-4287
aram	-4288
▁interested	-4289
▁preliminary	-4290
▁sle	-4291
▁admit	-4292
▁advocate	-4293
▁commence	-4294
▁imag	-4295
gest	-4296
▁hum	-4297
arya	-4298
▁assaulted	-4299
▁influence	-4300
▁objective	-4301
▁element	-4302
▁happy	-4303
▁Industrial	-4304
▁Here	-4305
▁cheque	-4306
orse	-4307
▁crore	-4308
▁began	-4309
▁weight	-4310
▁Project	-4311
iver	-4312
▁inqu	-4313
▁disposal	-4314
▁extension	-4315
operation	-4316
EL	-4317
ites	-4318
▁cho	-4319
ailing	-4320
▁vital	-4321
▁despite	-4322
▁tar	-4323
▁Cert	-4324
▁Spe	-4325
▁violence	-4326
▁fight	-4327
▁lives	-4328
▁extreme	-4329
▁refused	-4330
▁distingu	-4331
▁validity	-4332
▁industries	-4333
▁Ur	-4334
▁quash	-4335
▁handed	-4336
▁Association	-4337
▁advantage	-4338
▁Regulations	-4339
▁Ob	-4340
▁requested	-4341
ni	-4342
ortem	-4343
▁applicants	-4344
▁bodies	-4345
▁compassion	-4346
ques	-4347
▁engine	-4348
▁categor	-4349
▁litigation	-4350
▁understanding	-4351
▁Policy	-4352
▁finally	-4353
▁contains	-4354
▁saying	-4355
▁Explanation	-4356
▁reit	-4357
▁located	-4358
▁contents	-4359
▁maximum	-4360
ulted	-4361
▁remaining	-4362
▁Mu	-4363
dden	-4364
▁suffered	-4365
▁memo	-4366
▁leaders	-4367
▁acquittal	-4368
hya	-4369
yle	-4370
▁bear	-4371
▁delib	-4372
▁schools	-4373
▁ep	-4374
▁clean	-4375
▁expenses	-4376
hand	-4377
▁Add	-4378
▁contempt	-4379
ton	-4380
▁demonst	-4381
rel	-4382
▁Finance	-4383
▁Road	-4384
▁spiritual	-4385
ighb	-4386
▁American	-4387
११	-4388
▁vacancies	-4389
▁exem	-4390
▁ali	-4391
▁send	-4392
▁temporary	-4393
ler	-4394
▁borrow	-4395
▁attached	-4396
▁termination	-4397
she	-4398
▁cultural	-4399
▁Air	-4400
wari	-4401
▁release	-4402
▁removed	-4403
▁stamp	-4404
▁Prosec	-4405
▁formal	-4406
▁programmes	-4407
▁partnership	-4408
RA	-4409
iece	-4410
inating	-4411
▁presumption	-4412
▁items	-4413
▁ratio	-4414
▁Afric	-4415
▁sections	-4416
▁guidelines	-4417
▁risk	-4418
▁feed	-4419
▁proced	-4420
▁quashed	-4421
▁correspon	-4422
▁Patna	-4423
▁complex	-4424
▁pursuant	-4425
▁schedule	-4426
▁Br	-4427
▁finds	-4428
nel	-4429
▁viz	-4430
▁views	-4431
▁prohib	-4432
▁belonging	-4433
▁TO	-4434
▁Mod	-4435
▁North	-4436
▁worked	-4437
▁Kashmir	-4438
▁IN	-4439
▁connect	-4440
▁raise	-4441
▁impact	-4442
▁sym	-4443
▁continu	-4444
ota	-4445
aches	-4446
▁mobile	-4447
▁recent	-4448
▁Fl	-4449
▁flow	-4450
▁happened	-4451
▁neighb	-4452
▁stop	-4453
▁pure	-4454
▁factual	-4455
▁qualification	-4456
▁Up	-4457
▁entertain	-4458
▁bed	-4459
▁married	-4460
▁delivery	-4461
▁seed	-4462
▁cited	-4463
▁determine	-4464
ume	-4465
reement	-4466
▁bearing	-4467
▁adequate	-4468
▁academic	-4469
oured	-4470
▁motive	-4471
pping	-4472
▁prejudice	-4473
ze	-4474
▁pend	-4475
▁changed	-4476
▁win	-4477
ensive	-4478
▁elected	-4479
▁investigating	-4480
▁emer	-4481
▁amongst	-4482
▁deserv	-4483
attle	-4484
▁mount	-4485
▁active	-4486
▁advertisement	-4487
▁bit	-4488
▁rul	-4489
▁square	-4490
▁pict	-4491
▁values	-4492
▁satisfaction	-4493
▁soul	-4494
▁highly	-4495
▁ing	-4496
▁affairs	-4497
▁card	-4498
▁employed	-4499
▁deduction	-4500
▁guarantee	-4501
eel	-4502
requ	-4503
uct	-4504
▁caste	-4505
lal	-4506
road	-4507
▁Are	-4508
▁twenty	-4509
▁Assembly	-4510
▁successful	-4511
owry	-4512
▁chem	-4513
▁song	-4514
▁increasing	-4515
▁World	-4516
▁involve	-4517
▁deposited	-4518
una	-4519
olid	-4520
cribe	-4521
▁device	-4522
▁multip	-4523
▁eval	-4524
▁AIR	-4525
icated	-4526
▁invok	-4527
▁speech	-4528
▁conce	-4529
▁pattern	-4530
▁rich	-4531
▁colour	-4532
▁cruel	-4533
▁sudden	-4534
▁San	-4535
uration	-4536
▁systems	-4537
▁scientific	-4538
head	-4539
orial	-4540
erted	-4541
▁ways	-4542
ictions	-4543
idy	-4544
▁Insurance	-4545
▁executive	-4546
▁Commercial	-4547
▁schol	-4548
▁histor	-4549
▁item	-4550
mortem	-4551
▁polic	-4552
AY	-4553
udh	-4554
etic	-4555
iciary	-4556
▁filled	-4557
३०	-4558
▁issuance	-4559
ka	-4560
▁Mis	-4561
▁Priv	-4562
▁brief	-4563
▁display	-4564
,00	-4565
▁burn	-4566
▁concluded	-4567
ourth	-4568
▁sens	-4569
▁purchased	-4570
auses	-4571
▁Control	-4572
▁ago	-4573
▁bond	-4574
▁rank	-4575
intend	-4576
▁plants	-4577
▁wholly	-4578
▁safe	-4579
▁moved	-4580
▁suggested	-4581
utation	-4582
▁looked	-4583
▁Official	-4584
▁town	-4585
▁emerg	-4586
▁whatever	-4587
▁Kam	-4588
▁Bharat	-4589
▁render	-4590
▁save	-4591
▁Group	-4592
▁arises	-4593
▁Ali	-4594
inent	-4595
▁Budd	-4596
▁dismissal	-4597
▁Form	-4598
▁minister	-4599
▁Tal	-4600
▁Est	-4601
▁hab	-4602
▁assault	-4603
reen	-4604
▁Car	-4605
▁INDIA	-4606
▁reduced	-4607
ATION	-4608
▁newsp	-4609
iful	-4610
ndra	-4611
▁sitting	-4612
▁collection	-4613
▁incur	-4614
▁phone	-4615
▁opened	-4616
▁strengt	-4617
▁assigned	-4618
▁Roy	-4619
▁Regulation	-4620
▁suspic	-4621
▁distribution	-4622
rick	-4623
oon	-4624
stood	-4625
▁task	-4626
elling	-4627
▁Ant	-4628
mise	-4629
▁innoc	-4630
▁proposition	-4631
▁respectively	-4632
ancing	-4633
▁manif	-4634
▁discrim	-4635
▁learning	-4636
▁Assessing	-4637
▁milk	-4638
▁Pakistan	-4639
▁speak	-4640
pees	-4641
▁secret	-4642
ING	-4643
▁Many	-4644
▁papers	-4645
▁addressed	-4646
▁lying	-4647
▁types	-4648
▁retirement	-4649
▁recommendations	-4650
antly	-4651
▁cognizance	-4652
yer	-4653
▁ideas	-4654
▁continuous	-4655
aji	-4656
▁bon	-4657
▁wish	-4658
▁showing	-4659
akes	-4660
▁rap	-4661
▁distinct	-4662
▁survey	-4663
▁fat	-4664
alid	-4665
▁Only	-4666
▁Christ	-4667
UR	-4668
▁ant	-4669
▁wal	-4670
ousing	-4671
▁Program	-4672
▁Science	-4673
▁hot	-4674
▁Prot	-4675
ception	-4676
▁depart	-4677
▁ordered	-4678
▁identification	-4679
▁multi	-4680
lex	-4681
▁Att	-4682
▁license	-4683
▁legislative	-4684
cial	-4685
▁fif	-4686
eck	-4687
lder	-4688
▁huge	-4689
herent	-4690
▁notes	-4691
▁undertaken	-4692
ja	-4693
▁&#1	-4694
abled	-4695
▁gets	-4696
ratic	-4697
▁depri	-4698
▁serve	-4699
▁void	-4700
▁strugg	-4701
ague	-4702
▁latter	-4703
....	-4704
▁Ahmed	-4705
▁welfare	-4706
▁notified	-4707
lear	-4708
▁memory	-4709
▁facilit	-4710
▁totally	-4711
▁solution	-4712
▁Agricult	-4713
▁approached	-4714
▁fort	-4715
asa	-4716
aneous	-4717
▁Prime	-4718
▁dying	-4719
▁cultiv	-4720
▁minutes	-4721
withstanding	-4722
▁certainly	-4723
▁Govt	-4724
▁tribunal	-4725
▁pron	-4726
ients	-4727
accused	-4728
▁individuals	-4729
▁circumstance	-4730
▁suitable	-4731
▁Its	-4732
▁binding	-4733
▁00	-4734
▁animals	-4735
▁sometimes	-4736
▁permissible	-4737
▁associated	-4738
▁recommended	-4739
▁jail	-4740
▁warm	-4741
▁video	-4742
▁poetry	-4743
▁causing	-4744
atter	-4745
▁celeb	-4746
ounce	-4747
▁gener	-4748
▁white	-4749
▁danger	-4750
orney	-4751
▁forces	-4752
aksh	-4753
▁profit	-4754
iation	-4755
▁Award	-4756
▁defect	-4757
▁factor	-4758
▁wages	-4759
▁investig	-4760
▁played	-4761
▁conspir	-4762
▁operations	-4763
▁Amendment	-4764
atha	-4765
▁lie	-4766
▁bird	-4767
▁surf	-4768
▁amend	-4769
▁deals	-4770
▁sexual	-4771
athe	-4772
▁cry	-4773
▁genu	-4774
▁music	-4775
▁Tur	-4776
▁trying	-4777
▁lad	-4778
itness	-4779
▁Class	-4780
▁stor	-4781
▁seniority	-4782
▁description	-4783
omic	-4784
▁possibility	-4785
▁hereby	-4786
▁travel	-4787
vis	-4788
▁wound	-4789
▁referring	-4790
▁choice	-4791
▁creation	-4792
▁compr	-4793
issa	-4794
▁liquid	-4795
▁transactions	-4796
ellect	-4797
▁annual	-4798
▁rad	-4799
▁mortg	-4800
ika	-4801
▁asset	-4802
▁break	-4803
▁opportunities	-4804
▁touch	-4805
▁Institution	-4806
PS	-4807
rep	-4808
▁Supp	-4809
▁useful	-4810
▁rates	-4811
achment	-4812
cer	-4813
aran	-4814
▁America	-4815
▁Also	-4816
▁tool	-4817
▁piece	-4818
▁villages	-4819
agers	-4820
▁negative	-4821
▁harass	-4822
ror	-4823
▁arch	-4824
▁Categ	-4825
▁driver	-4826
▁Research	-4827
▁contra	-4828
▁closed	-4829
▁concern	-4830
▁ancient	-4831
osis	-4832
▁dowry	-4833
▁Inf	-4834
▁lap	-4835
ieties	-4836
,000	-4837
▁Organ	-4838
regular	-4839
▁motion	-4840
▁content	-4841
▁cad	-4842
portion	-4843
while	-4844
▁AT	-4845
▁chann	-4846
▁middle	-4847
▁prison	-4848
▁clos	-4849
▁mix	-4850
▁obtain	-4851
▁departmental	-4852
bur	-4853
▁indicates	-4854
▁weapon	-4855
▁renew	-4856
▁needed	-4857
▁clothes	-4858
▁democracy	-4859
▁furnished	-4860
▁understood	-4861
irs	-4862
▁joined	-4863
iy	-4864
▁necessarily	-4865
▁Jh	-4866
▁Cor	-4867
▁Orissa	-4868
▁thousand	-4869
▁comprom	-4870
qual	-4871
▁adjudication	-4872
iling	-4873
▁easy	-4874
▁negl	-4875
esting	-4876
▁contro	-4877
▁Railway	-4878
▁Ord	-4879
▁remark	-4880
ira	-4881
▁visited	-4882
ruption	-4883
▁dy	-4884
▁Yog	-4885
▁famous	-4886
▁sto	-4887
▁stock	-4888
▁damage	-4889
▁Vij	-4890
chand	-4891
ivered	-4892
▁deleg	-4893
pto	-4894
▁Arbitrator	-4895
ounced	-4896
▁Employ	-4897
▁undergo	-4898
ams	-4899
▁System	-4900
▁compar	-4901
▁college	-4902
ovable	-4903
round	-4904
▁identity	-4905
▁farmers	-4906
▁absolutely	-4907
abor	-4908
▁confirmed	-4909
▁sn	-4910
▁Legislature	-4911
▁distinction	-4912
▁range	-4913
▁consequence	-4914
▁Kan	-4915
elled	-4916
▁perhaps	-4917
▁Although	-4918
attis	-4919
▁dark	-4920
holders	-4921
▁conflict	-4922
▁irregular	-4923
▁Cap	-4924
atically	-4925
▁willing	-4926
onial	-4927
▁equip	-4928
▁suffer	-4929
▁thereto	-4930
▁languages	-4931
▁ball	-4932
▁knew	-4933
▁Manager	-4934
▁whereby	-4935
▁Agreement	-4936
▁learn	-4937
▁citizen	-4938
▁containing	-4939
▁sea	-4940
▁series	-4941
▁mainly	-4942
▁assign	-4943
▁machinery	-4944
▁commencement	-4945
-0	-4946
andum	-4947
▁opening	-4948
▁performed	-4949
▁feet	-4950
▁minus	-4951
▁indeed	-4952
▁generation	-4953
azet	-4954
opal	-4955
▁lines	-4956
▁female	-4957
mbol	-4958
▁vision	-4959
▁average	-4960
▁pendency	-4961
▁Sanj	-4962
▁believed	-4963
▁sanctioned	-4964
▁secured	-4965
▁Category	-4966
▁throughout	-4967
▁worth	-4968
▁advice	-4969
▁obtaining	-4970
cel	-4971
▁Circ	-4972
orandum	-4973
▁policies	-4974
▁recognized	-4975
▁seats	-4976
▁reflect	-4977
▁Officers	-4978
▁occurred	-4979
II	-4980
asw	-4981
iary	-4982
▁select	-4983
▁issuing	-4984
▁division	-4985
▁sleep	-4986
▁limits	-4987
AG	-4988
▁acceptance	-4989
▁reb	-4990
▁chief	-4991
iles	-4992
▁Open	-4993
▁acquitted	-4994
ken	-4995
▁grand	-4996
▁killed	-4997
urs	-4998
▁bag	-4999
kash	-5000
▁acted	-5001
▁exercising	-5002
bhai	-5003
▁delivered	-5004
owered	-5005
attisgarh	-5006
▁pressure	-5007
▁chemical	-5008
▁Child	-5009
▁arbitral	-5010
▁definite	-5011
▁Subh	-5012
▁sav	-5013
▁prem	-5014
▁remove	-5015
AC	-5016
▁ton	-5017
▁AP	-5018
▁Nadu	-5019
▁alt	-5020
▁rape	-5021
▁machine	-5022
▁suicide	-5023
▁anti	-5024
▁north	-5025
▁consequences	-5026
hru	-5027
▁Non	-5028
sible	-5029
▁positive	-5030
appa	-5031
▁Out	-5032
▁box	-5033
▁voice	-5034
▁quoted	-5035
iency	-5036
▁controll	-5037
▁software	-5038
▁intellect	-5039
▁reservation	-5040
▁external	-5041
▁ax	-5042
▁internal	-5043
▁lif	-5044
▁exact	-5045
▁Accused	-5046
ila	-5047
▁damages	-5048
▁unc	-5049
▁vot	-5050
▁equally	-5051
▁Bu	-5052
irty	-5053
▁drink	-5054
▁association	-5055
▁media	-5056
▁model	-5057
▁strateg	-5058
inet	-5059
▁shape	-5060
▁someone	-5061
▁holder	-5062
oned	-5063
▁dram	-5064
▁plot	-5065
▁style	-5066
▁functioning	-5067
gor	-5068
icro	-5069
asthan	-5070
▁Joint	-5071
▁absor	-5072
▁Companies	-5073
isite	-5074
▁Aud	-5075
▁green	-5076
▁deciding	-5077
▁exhib	-5078
▁Met	-5079
leges	-5080
▁surv	-5081
▁sample	-5082
▁Sant	-5083
▁dele	-5084
▁irre	-5085
▁image	-5086
aph	-5087
▁Him	-5088
▁England	-5089
▁schemes	-5090
▁allotment	-5091
▁belief	-5092
▁PM	-5093
▁south	-5094
▁criteria	-5095
▁agriculture	-5096
▁ho	-5097
▁draft	-5098
▁Val	-5099
order	-5100
ication	-5101
▁crores	-5102
▁hostile	-5103
▁inherent	-5104
OM	-5105
held	-5106
▁classes	-5107
▁secure	-5108
ese	-5109
▁teaching	-5110
athy	-5111
orthy	-5112
▁relative	-5113
ronic	-5114
▁confirm	-5115
▁manufacturing	-5116
lord	-5117
▁destro	-5118
▁deserves	-5119
▁organisation	-5120
▁AS	-5121
▁Chhattisgarh	-5122
hu	-5123
ahar	-5124
▁AND	-5125
▁gun	-5126
ilateral	-5127
aur	-5128
utt	-5129
▁ultimately	-5130
▁Swami	-5131
▁SH	-5132
ests	-5133
isted	-5134
▁ones	-5135
▁cat	-5136
▁auction	-5137
▁stra	-5138
▁Nath	-5139
▁exped	-5140
▁easily	-5141
▁electricity	-5142
kn	-5143
ider	-5144
▁upto	-5145
▁alter	-5146
▁recover	-5147
▁directing	-5148
▁Well	-5149
▁species	-5150
▁achieved	-5151
▁Respondents	-5152
▁Home	-5153
iya	-5154
aced	-5155
anged	-5156
ulating	-5157
▁ge	-5158
▁reserved	-5159
▁quick	-5160
▁promote	-5161
▁beaut	-5162
▁explain	-5163
▁War	-5164
▁Members	-5165
▁enacted	-5166
▁observation	-5167
▁resort	-5168
▁growing	-5169
▁Articles	-5170
▁revolution	-5171
▁ble	-5172
▁Nehru	-5173
▁suffering	-5174
▁manufacture	-5175
▁Aut	-5176
▁causes	-5177
▁everything	-5178
▁heavy	-5179
▁centre	-5180
▁professional	-5181
▁Election	-5182
▁subjected	-5183
▁consciousness	-5184
▁lies	-5185
▁envis	-5186
the	-5187
▁soil	-5188
▁simply	-5189
ertained	-5190
▁Western	-5191
IV	-5192
▁valu	-5193
▁receiving	-5194
▁herself	-5195
▁files	-5196
▁floor	-5197
▁Besides	-5198
▁Engineer	-5199
fort	-5200
▁independence	-5201
▁Aff	-5202
anded	-5203
▁construed	-5204
▁teleph	-5205
▁quantity	-5206
▁Africa	-5207
▁privile	-5208
▁doctrine	-5209
▁UN	-5210
▁allotted	-5211
▁Superintend	-5212
▁CPC	-5213
bal	-5214
▁Vice	-5215
▁People	-5216
▁transp	-5217
era	-5218
▁cul	-5219
ibly	-5220
uity	-5221
▁Tri	-5222
▁ignor	-5223
▁military	-5224
▁Che	-5225
▁hit	-5226
▁Rao	-5227
▁Consequently	-5228
umn	-5229
▁Gl	-5230
▁Ret	-5231
▁Aj	-5232
▁coal	-5233
ray	-5234
▁compassionate	-5235
▁recommendation	-5236
nes	-5237
▁immediate	-5238
▁code	-5239
inarily	-5240
▁desire	-5241
▁appointments	-5242
▁Asia	-5243
▁Apart	-5244
▁organization	-5245
▁Ent	-5246
▁theory	-5247
▁Rem	-5248
▁defe	-5249
▁acting	-5250
▁largest	-5251
light	-5252
▁Chen	-5253
▁cere	-5254
▁rain	-5255
▁capable	-5256
▁claiming	-5257
▁Ge	-5258
know	-5259
▁convict	-5260
appellant	-5261
▁pertaining	-5262
▁Pay	-5263
▁rare	-5264
▁PO	-5265
▁Party	-5266
▁leaves	-5267
▁regulations	-5268
sych	-5269
▁repeated	-5270
▁neck	-5271
▁compos	-5272
▁invalid	-5273
▁kill	-5274
▁ship	-5275
▁compon	-5276
▁features	-5277
aste	-5278
▁impart	-5279
▁answered	-5280
▁elements	-5281
AB	-5282
dom	-5283
▁rein	-5284
▁conspiracy	-5285
right	-5286
ography	-5287
▁Contract	-5288
▁surround	-5289
astic	-5290
▁deposition	-5291
ching	-5292
▁Rajasthan	-5293
hana	-5294
▁Pan	-5295
▁frequ	-5296
▁processing	-5297
oub	-5298
▁symbol	-5299
▁Chapter	-5300
▁houses	-5301
▁wealth	-5302
▁beautiful	-5303
▁remember	-5304
▁session	-5305
▁hur	-5306
▁temper	-5307
▁scrutiny	-5308
achal	-5309
known	-5310
▁spite	-5311
struction	-5312
urb	-5313
ena	-5314
AD	-5315
▁nuc	-5316
▁supplied	-5317
▁hear	-5318
▁Financial	-5319
▁falls	-5320
▁paragraphs	-5321
▁Certificate	-5322
raj	-5323
▁Fr	-5324
▁foot	-5325
▁Bec	-5326
▁branch	-5327
▁levels	-5328
entially	-5329
▁leaving	-5330
▁developing	-5331
▁Er	-5332
hens	-5333
▁invited	-5334
tees	-5335
▁traditional	-5336
asc	-5337
asi	-5338
▁scene	-5339
▁recall	-5340
bel	-5341
▁Most	-5342
▁alia	-5343
▁struggle	-5344
▁ON	-5345
▁Bai	-5346
enture	-5347
oll	-5348
rency	-5349
istics	-5350
▁Indians	-5351
▁intim	-5352
▁sugar	-5353
▁rival	-5354
▁copies	-5355
▁sho	-5356
▁Governments	-5357
▁Notification	-5358
▁fest	-5359
▁grat	-5360
▁cells	-5361
▁controvers	-5362
▁pet	-5363
▁Guru	-5364
▁male	-5365
asmuch	-5366
▁seeks	-5367
erences	-5368
▁normally	-5369
▁carefully	-5370
▁disclosure	-5371
▁contrib	-5372
▁legit	-5373
▁bringing	-5374
▁kid	-5375
▁exists	-5376
uff	-5377
aker	-5378
▁safety	-5379
AM	-5380
▁gain	-5381
aintiff	-5382
▁chance	-5383
▁Directors	-5384
▁documentary	-5385
▁IS	-5386
▁Social	-5387
▁afford	-5388
▁rupees	-5389
▁arrangement	-5390
▁Two	-5391
▁ban	-5392
ommod	-5393
▁abuse	-5394
uli	-5395
▁Mun	-5396
▁beat	-5397
▁inspection	-5398
▁mid	-5399
▁divided	-5400
▁Bus	-5401
▁corrobor	-5402
rav	-5403
▁Ashok	-5404
▁agent	-5405
reet	-5406
▁Sir	-5407
▁worship	-5408
▁Verm	-5409
▁compre	-5410
▁categories	-5411
yan	-5412
▁cooperation	-5413
▁mouth	-5414
▁disclose	-5415
▁skin	-5416
▁Sum	-5417
▁Hindus	-5418
▁facility	-5419
▁particulars	-5420
aja	-5421
▁fault	-5422
▁estim	-5423
▁Palest	-5424
▁student	-5425
▁averments	-5426
kh	-5427
▁Allah	-5428
▁expiry	-5429
▁cruelty	-5430
▁agencies	-5431
▁recognised	-5432
▁Port	-5433
aviour	-5434
▁storage	-5435
▁omission	-5436
de	-5437
▁Nav	-5438
▁surre	-5439
▁mutual	-5440
▁sustainable	-5441
▁Hyder	-5442
▁Islamic	-5443
▁mechanism	-5444
amet	-5445
▁pec	-5446
ctor	-5447
▁Cha	-5448
▁workman	-5449
▁appreciation	-5450
▁contemplated	-5451
▁famil	-5452
ervation	-5453
▁Defend	-5454
▁Because	-5455
▁confession	-5456
▁ang	-5457
▁Mohan	-5458
▁profits	-5459
▁illegality	-5460
▁impression	-5461
olve	-5462
▁Thak	-5463
▁China	-5464
▁chain	-5465
▁moral	-5466
▁elections	-5467
▁forwarded	-5468
▁Superintendent	-5469
prise	-5470
▁Member	-5471
▁stream	-5472
▁Tel	-5473
oming	-5474
▁effic	-5475
▁involving	-5476
▁stipulated	-5477
gy	-5478
▁gover	-5479
sheet	-5480
▁viti	-5481
ourses	-5482
▁leader	-5483
▁claimants	-5484
pet	-5485
▁Dur	-5486
▁animal	-5487
▁integral	-5488
▁root	-5489
▁spent	-5490
▁accompan	-5491
▁bul	-5492
▁sort	-5493
▁opposed	-5494
opy	-5495
▁youth	-5496
▁listed	-5497
▁purchas	-5498
omy	-5499
▁unn	-5500
▁wear	-5501
▁entirely	-5502
▁inasmuch	-5503
▁admittedly	-5504
▁egg	-5505
▁table	-5506
▁sentenced	-5507
▁Arbitration	-5508
▁PC	-5509
▁determining	-5510
▁grievance	-5511
▁Rama	-5512
▁fields	-5513
▁Kish	-5514
actory	-5515
▁thinking	-5516
▁suspension	-5517
ming	-5518
▁bra	-5519
▁exception	-5520
▁surface	-5521
arc	-5522
▁Excise	-5523
▁governed	-5524
▁resulted	-5525
ript	-5526
▁Tem	-5527
▁pra	-5528
▁armed	-5529
▁variety	-5530
ales	-5531
▁dream	-5532
▁Bad	-5533
▁amb	-5534
inger	-5535
▁City	-5536
▁season	-5537
▁rejection	-5538
▁vers	-5539
amation	-5540
▁examining	-5541
ishra	-5542
uddin	-5543
▁landlord	-5544
▁Ed	-5545
▁confident	-5546
OC	-5547
▁shif	-5548
▁families	-5549
▁instituted	-5550
▁evening	-5551
▁strengthen	-5552
▁participation	-5553
omet	-5554
soever	-5555
▁acknow	-5556
▁relates	-5557
iform	-5558
▁forum	-5559
▁raising	-5560
▁Block	-5561
ocates	-5562
▁master	-5563
▁Ban	-5564
▁proc	-5565
▁vs	-5566
▁owners	-5567
vt	-5568
acharya	-5569
▁waste	-5570
ettlement	-5571
▁corporate	-5572
▁conducting	-5573
▁Tag	-5574
▁methods	-5575
▁panch	-5576
▁assert	-5577
pers	-5578
▁critic	-5579
▁judges	-5580
▁actions	-5581
▁Sr	-5582
▁gross	-5583
▁intell	-5584
▁circular	-5585
▁Vis	-5586
▁Private	-5587
▁contend	-5588
▁Resident	-5589
▁hereinafter	-5590
▁Abd	-5591
above	-5592
arp	-5593
▁feeling	-5594
▁creating	-5595
▁contractor	-5596
▁representative	-5597
▁hour	-5598
overty	-5599
▁unique	-5600
▁depends	-5601
▁compromise	-5602
icit	-5603
▁destroy	-5604
uru	-5605
▁subjects	-5606
nu	-5607
ero	-5608
▁appearance	-5609
▁representatives	-5610
urate	-5611
▁refund	-5612
▁manifest	-5613
▁Hyderabad	-5614
▁foundation	-5615
▁gas	-5616
▁magn	-5617
▁Gandhiji	-5618
▁Prosecutor	-5619
▁seat	-5620
▁disapp	-5621
▁Fam	-5622
▁divine	-5623
▁terrorism	-5624
ils	-5625
▁CH	-5626
▁Teacher	-5627
▁challenging	-5628
▁Ay	-5629
onal	-5630
▁block	-5631
▁guard	-5632
▁figure	-5633
▁practices	-5634
▁photograph	-5635
▁reiterated	-5636
▁revised	-5637
▁Registration	-5638
▁incorporated	-5639
▁stone	-5640
▁enhance	-5641
▁Cre	-5642
▁sources	-5643
▁allowing	-5644
▁Germ	-5645
▁studies	-5646
▁Dem	-5647
▁Gan	-5648
ducing	-5649
▁Forest	-5650
iva	-5651
▁fees	-5652
▁impl	-5653
▁nut	-5654
▁focus	-5655
▁workmen	-5656
▁inclus	-5657
▁medium	-5658
▁perused	-5659
▁accommod	-5660
▁substantive	-5661
▁Bel	-5662
essel	-5663
▁posted	-5664
▁empowered	-5665
sue	-5666
▁cadre	-5667
atel	-5668
essor	-5669
▁Excell	-5670
▁equality	-5671
▁inflic	-5672
SL	-5673
▁audit	-5674
▁incons	-5675
▁personnel	-5676
ocks	-5677
▁dim	-5678
▁temples	-5679
▁residing	-5680
▁discharged	-5681
▁Like	-5682
▁capt	-5683
▁consistent	-5684
apan	-5685
▁seem	-5686
▁prepar	-5687
▁cart	-5688
▁slow	-5689
▁residence	-5690
▁Bah	-5691
alore	-5692
▁fourth	-5693
▁accompanied	-5694
rupt	-5695
▁Env	-5696
▁repeal	-5697
▁entries	-5698
▁exclusive	-5699
▁voluntary	-5700
▁Legislative	-5701
▁constructed	-5702
▁confined	-5703
umari	-5704
ube	-5705
eav	-5706
▁earn	-5707
▁Judgment	-5708
far	-5709
▁km	-5710
struct	-5711
▁lived	-5712
▁Madras	-5713
▁ingred	-5714
▁resulting	-5715
▁tort	-5716
▁operate	-5717
▁relax	-5718
▁retired	-5719
▁stories	-5720
▁ideal	-5721
hel	-5722
▁Econom	-5723
▁mistake	-5724
▁id	-5725
▁excell	-5726
▁command	-5727
▁categorically	-5728
oph	-5729
yal	-5730
writ	-5731
▁reliable	-5732
▁certified	-5733
▁plain	-5734
▁adduced	-5735
▁misconduct	-5736
▁enforcement	-5737
▁represented	-5738
▁endeav	-5739
itis	-5740
▁sons	-5741
▁happen	-5742
१२	-5743
▁input	-5744
▁currency	-5745
▁watch	-5746
▁identify	-5747
▁Chenn	-5748
▁Standing	-5749
▁initially	-5750
▁speaking	-5751
▁philosophy	-5752
▁bab	-5753
▁nearly	-5754
▁opt	-5755
▁target	-5756
▁wishes	-5757
▁Conference	-5758
rees	-5759
▁Selection	-5760
dish	-5761
rical	-5762
▁bow	-5763
▁notices	-5764
▁location	-5765
▁cancellation	-5766
▁Const	-5767
ushed	-5768
▁errone	-5769
▁railway	-5770
▁Assessee	-5771
osen	-5772
▁Tod	-5773
yam	-5774
▁universal	-5775
erce	-5776
▁equity	-5777
▁organiz	-5778
▁unreason	-5779
▁Na	-5780
▁sacrif	-5781
aped	-5782
▁Ham	-5783
▁reality	-5784
▁cancelled	-5785
▁emotion	-5786
▁friendly	-5787
▁Nor	-5788
igil	-5789
▁gar	-5790
▁wood	-5791
▁vend	-5792
▁pleasure	-5793
▁thirty	-5794
▁ignored	-5795
▁Mot	-5796
▁scholars	-5797
azar	-5798
hent	-5799
▁Water	-5800
▁afore	-5801
▁calling	-5802
▁negoti	-5803
▁Prakash	-5804
▁disqual	-5805
▁objects	-5806
▁authorised	-5807
▁appreciate	-5808
▁recognition	-5809
ented	-5810
▁prices	-5811
▁impossible	-5812
▁nos	-5813
▁Mishra	-5814
▁incurred	-5815
▁honour	-5816
alg	-5817
▁Nep	-5818
▁Madh	-5819
▁cloth	-5820
▁trees	-5821
▁unity	-5822
▁overall	-5823
ames	-5824
▁Patel	-5825
▁poems	-5826
▁Family	-5827
▁roll	-5828
▁drive	-5829
▁fails	-5830
▁Ven	-5831
▁Why	-5832
▁vast	-5833
▁Rajesh	-5834
▁Div	-5835
itect	-5836
▁ends	-5837
▁grad	-5838
▁CBI	-5839
▁struct	-5840
▁applies	-5841
▁withdraw	-5842
▁pip	-5843
▁Page	-5844
▁weapons	-5845
▁compared	-5846
▁alongwith	-5847
roc	-5848
rench	-5849
▁owned	-5850
▁abroad	-5851
▁inconsist	-5852
ura	-5853
▁yield	-5854
▁probably	-5855
▁Environment	-5856
▁Madhya	-5857
▁vessel	-5858
eting	-5859
▁partner	-5860
word	-5861
▁lac	-5862
▁sam	-5863
▁barred	-5864
▁availability	-5865
▁Administrative	-5866
▁Pandey	-5867
prene	-5868
▁veget	-5869
▁requisite	-5870
rose	-5871
▁Vijay	-5872
▁relatives	-5873
isp	-5874
▁nine	-5875
ader	-5876
ports	-5877
▁prosper	-5878
▁operating	-5879
▁admissible	-5880
mosp	-5881
▁iii	-5882
▁Inst	-5883
▁framing	-5884
OS	-5885
▁Us	-5886
ails	-5887
▁Prem	-5888
▁bott	-5889
▁satisfy	-5890
▁applying	-5891
▁modified	-5892
▁supplement	-5893
▁residential	-5894
▁hereinabove	-5895
ocal	-5896
reprene	-5897
▁tiss	-5898
▁Human	-5899
▁enactment	-5900
aman	-5901
▁Gazet	-5902
▁demanded	-5903
▁withdrawn	-5904
▁inference	-5905
▁subordinate	-5906
▁signatures	-5907
▁representing	-5908
load	-5909
▁explo	-5910
▁script	-5911
▁falsely	-5912
▁separately	-5913
like	-5914
▁height	-5915
▁committing	-5916
▁poverty	-5917
ibilities	-5918
▁anyone	-5919
▁whatsoever	-5920
▁considerable	-5921
▁fide	-5922
encing	-5923
▁Plaintiff	-5924
MC	-5925
ioned	-5926
ilitation	-5927
gu	-5928
look	-5929
pected	-5930
▁Security	-5931
▁Langu	-5932
▁brain	-5933
▁superior	-5934
▁sand	-5935
▁Again	-5936
▁Mahat	-5937
▁Tagore	-5938
▁calls	-5939
going	-5940
▁lakhs	-5941
▁psych	-5942
▁controversy	-5943
arh	-5944
umer	-5945
▁Dec	-5946
▁spon	-5947
▁Univers	-5948
▁Park	-5949
ighted	-5950
▁allowance	-5951
▁payments	-5952
▁efficient	-5953
▁interview	-5954
uel	-5955
▁wel	-5956
aling	-5957
▁Babu	-5958
▁Work	-5959
▁urban	-5960
▁crop	-5961
▁grave	-5962
▁regarded	-5963
udget	-5964
▁ownership	-5965
▁upd	-5966
▁pick	-5967
▁moving	-5968
▁planning	-5969
hend	-5970
▁paying	-5971
▁deliver	-5972
▁Sad	-5973
▁Sol	-5974
▁Year	-5975
▁deeds	-5976
▁recon	-5977
▁cities	-5978
mn	-5979
▁Foreign	-5980
▁immovable	-5981
▁rapid	-5982
▁atmosp	-5983
▁stopped	-5984
▁clauses	-5985
auty	-5986
▁European	-5987
▁obligations	-5988
▁Inc	-5989
▁picture	-5990
key	-5991
▁Cust	-5992
▁Enter	-5993
▁nations	-5994
▁chosen	-5995
▁buy	-5996
▁Each	-5997
▁installed	-5998
OL	-5999
▁fert	-6000
▁latest	-6001
▁happens	-6002
dar	-6003
▁Akbar	-6004
▁Those	-6005
▁strictly	-6006
▁Who	-6007
arden	-6008
▁flat	-6009
▁holds	-6010
oral	-6011
▁wat	-6012
▁ordinarily	-6013
PL	-6014
anging	-6015
▁genuine	-6016
▁powerful	-6017
arian	-6018
▁arose	-6019
▁furnish	-6020
▁launched	-6021
▁Reference	-6022
▁Full	-6023
▁dign	-6024
▁exemption	-6025
iled	-6026
▁cold	-6027
prises	-6028
▁demands	-6029
▁Programme	-6030
EM	-6031
pro	-6032
abinet	-6033
▁sales	-6034
▁liberal	-6035
▁dry	-6036
velled	-6037
▁advised	-6038
eshwar	-6039
▁narrow	-6040
▁Transport	-6041
▁hom	-6042
▁aged	-6043
▁cook	-6044
▁iron	-6045
▁wants	-6046
▁affili	-6047
▁consumption	-6048
▁grass	-6049
▁reduce	-6050
▁retros	-6051
▁consists	-6052
▁acceptable	-6053
▁Maj	-6054
▁Rad	-6055
▁jun	-6056
▁ability	-6057
▁critical	-6058
▁Para	-6059
▁hardly	-6060
▁authorized	-6061
ih	-6062
egu	-6063
het	-6064
▁Bhar	-6065
▁paras	-6066
▁Chennai	-6067
▁brothers	-6068
▁incl	-6069
▁Trade	-6070
otic	-6071
ayana	-6072
▁stayed	-6073
▁perfect	-6074
▁agreements	-6075
▁proportion	-6076
▁Verma	-6077
hers	-6078
▁Det	-6079
▁Today	-6080
▁Rav	-6081
▁origin	-6082
▁greet	-6083
▁choose	-6084
▁implemented	-6085
▁upper	-6086
▁crops	-6087
▁upheld	-6088
▁territory	-6089
▁democratic	-6090
▁Ja	-6091
▁Gram	-6092
▁indul	-6093
hensive	-6094
▁consumer	-6095
▁Tah	-6096
▁Tra	-6097
▁litig	-6098
▁mortgage	-6099
▁severe	-6100
▁involvement	-6101
ricket	-6102
▁cheques	-6103
▁attitude	-6104
▁Industries	-6105
ARD	-6106
▁Lib	-6107
▁complaints	-6108
▁Administration	-6109
▁classification	-6110
▁attracted	-6111
▁disability	-6112
▁Prom	-6113
ancell	-6114
▁necessity	-6115
▁CR	-6116
gery	-6117
ourage	-6118
▁Claim	-6119
sofar	-6120
▁Abdul	-6121
▁remote	-6122
▁equipment	-6123
▁qualified	-6124
ded	-6125
▁Lit	-6126
▁graph	-6127
▁dish	-6128
▁park	-6129
▁propri	-6130
iate	-6131
▁changing	-6132
▁quarrel	-6133
▁participate	-6134
▁pi	-6135
▁eat	-6136
▁hor	-6137
▁pil	-6138
▁army	-6139
▁Dal	-6140
ishment	-6141
▁literary	-6142
▁intellectual	-6143
ae	-6144
▁dil	-6145
isting	-6146
▁sealed	-6147
▁continues	-6148
▁Settlement	-6149
▁valuable	-6150
▁regional	-6151
▁eligibility	-6152
▁Iran	-6153
▁infl	-6154
▁vacant	-6155
▁Food	-6156
orrect	-6157
▁interven	-6158
▁allegedly	-6159
▁banking	-6160
▁Protection	-6161
my	-6162
▁SP	-6163
▁levy	-6164
AP	-6165
▁Russ	-6166
▁antic	-6167
▁songs	-6168
▁caught	-6169
▁Allahabad	-6170
▁Bangalore	-6171
▁enqu	-6172
▁fill	-6173
▁goal	-6174
▁pret	-6175
ola	-6176
▁commod	-6177
▁extremely	-6178
▁pursuance	-6179
redit	-6180
▁vehicles	-6181
▁MS	-6182
mark	-6183
▁Through	-6184
ogle	-6185
▁Rural	-6186
▁union	-6187
▁outstanding	-6188
iers	-6189
▁compound	-6190
▁behaviour	-6191
cast	-6192
▁Dar	-6193
ishad	-6194
▁experi	-6195
▁uniform	-6196
▁villagers	-6197
▁PRO	-6198
▁Press	-6199
ologies	-6200
▁compuls	-6201
anta	-6202
eries	-6203
▁partners	-6204
oom	-6205
▁irres	-6206
▁knife	-6207
▁Va	-6208
▁Ganga	-6209
▁online	-6210
▁sectors	-6211
▁Ter	-6212
▁annex	-6213
▁rational	-6214
▁corporation	-6215
icks	-6216
inqu	-6217
▁cas	-6218
▁acid	-6219
antial	-6220
etary	-6221
▁game	-6222
▁legally	-6223
▁straight	-6224
▁pill	-6225
▁train	-6226
▁Pet	-6227
▁gains	-6228
▁mandate	-6229
oles	-6230
erous	-6231
▁lady	-6232
▁dial	-6233
▁showed	-6234
▁journey	-6235
▁obvious	-6236
▁difficulty	-6237
▁adjust	-6238
aign	-6239
▁essentially	-6240
▁hero	-6241
author	-6242
▁entrusted	-6243
▁cog	-6244
▁bone	-6245
▁diseases	-6246
▁AD	-6247
just	-6248
▁Branch	-6249
▁constitu	-6250
▁narrated	-6251
▁Pvt	-6252
▁Welfare	-6253
▁Sections	-6254
▁multiple	-6255
▁Suit	-6256
▁dict	-6257
itations	-6258
▁kil	-6259
▁enem	-6260
▁interesting	-6261
▁Exp	-6262
▁Japan	-6263
ica	-6264
▁flu	-6265
▁safegu	-6266
▁Bengali	-6267
▁victims	-6268
anya	-6269
▁uses	-6270
▁cerem	-6271
▁passen	-6272
▁extracted	-6273
▁formation	-6274
▁unknown	-6275
▁vacancy	-6276
▁consultation	-6277
amma	-6278
▁liquor	-6279
▁inquest	-6280
▁Nan	-6281
▁girls	-6282
urities	-6283
▁Others	-6284
▁beauty	-6285
▁column	-6286
▁comment	-6287
▁decades	-6288
▁thr	-6289
▁adult	-6290
▁anticip	-6291
▁asking	-6292
▁negligence	-6293
▁१	-6294
lick	-6295
chief	-6296
▁dues	-6297
charge	-6298
▁founded	-6299
▁purport	-6300
▁BC	-6301
▁Men	-6302
▁cave	-6303
▁deliber	-6304
▁arre	-6305
▁prime	-6306
ulatory	-6307
hat	-6308
▁color	-6309
▁governance	-6310
unch	-6311
▁Aust	-6312
▁blow	-6313
▁insects	-6314
▁lock	-6315
▁reveals	-6316
▁Regional	-6317
▁revealed	-6318
▁Ve	-6319
▁heirs	-6320
▁persu	-6321
▁Thakur	-6322
▁seeing	-6323
▁Mahatma	-6324
▁challenges	-6325
▁Ragh	-6326
▁imple	-6327
▁nomination	-6328
▁convin	-6329
atta	-6330
inite	-6331
▁fruit	-6332
▁Pension	-6333
▁designed	-6334
▁judgement	-6335
ilal	-6336
aband	-6337
iveness	-6338
▁suspicion	-6339
▁Excellency	-6340
sc	-6341
ricted	-6342
▁Being	-6343
▁Rajya	-6344
ieving	-6345
▁authent	-6346
▁putting	-6347
anga	-6348
▁mission	-6349
▁Independ	-6350
▁innocent	-6351
ondon	-6352
▁pregn	-6353
▁tenure	-6354
▁valuation	-6355
▁drugs	-6356
▁denial	-6357
▁colleges	-6358
EP	-6359
▁Jy	-6360
▁Palestin	-6361
aug	-6362
▁Mat	-6363
▁Vin	-6364
▁qua	-6365
▁rob	-6366
▁dates	-6367
▁falling	-6368
▁discussions	-6369
▁Art	-6370
▁Sen	-6371
▁cum	-6372
▁Himal	-6373
▁bills	-6374
▁infring	-6375
▁Exchange	-6376
▁qualifications	-6377
ont	-6378
▁emphasis	-6379
▁reflected	-6380
▁Ty	-6381
▁Jay	-6382
▁runs	-6383
arkhand	-6384
▁fairly	-6385
▁Enquiry	-6386
▁channel	-6387
▁incorrect	-6388
▁elabor	-6389
▁AM	-6390
▁driving	-6391
▁thereon	-6392
▁Business	-6393
▁assessed	-6394
pal	-6395
▁shock	-6396
▁significance	-6397
iqu	-6398
hara	-6399
▁Kolk	-6400
▁careful	-6401
▁contractual	-6402
▁preparation	-6403
▁ec	-6404
▁gift	-6405
▁suits	-6406
rigation	-6407
▁recently	-6408
▁legitimate	-6409
▁moon	-6410
▁volume	-6411
▁Narayan	-6412
▁PS	-6413
esty	-6414
anges	-6415
▁Error	-6416
▁alive	-6417
▁centres	-6418
▁nuclear	-6419
▁eth	-6420
▁convers	-6421
▁amendments	-6422
▁Women	-6423
▁Mission	-6424
▁telephone	-6425
▁situations	-6426
unately	-6427
mer	-6428
cont	-6429
▁urg	-6430
▁estate	-6431
▁joy	-6432
▁Show	-6433
▁kinds	-6434
▁feature	-6435
▁passage	-6436
inance	-6437
▁Buddh	-6438
▁courses	-6439
▁harassment	-6440
▁pit	-6441
▁Hari	-6442
▁rect	-6443
▁Hist	-6444
▁opined	-6445
▁purchaser	-6446
▁innovation	-6447
▁Mang	-6448
▁inner	-6449
▁attrib	-6450
▁ascertain	-6451
amy	-6452
▁Master	-6453
▁newspaper	-6454
▁terminated	-6455
ima	-6456
rat	-6457
▁Vol	-6458
▁ingredients	-6459
▁Av	-6460
▁Over	-6461
anches	-6462
▁shared	-6463
▁drawing	-6464
▁Resolution	-6465
▁Petitioners	-6466
▁fab	-6467
▁minds	-6468
▁escape	-6469
board	-6470
▁Oper	-6471
▁ourselves	-6472
▁parliament	-6473
acco	-6474
▁DNA	-6475
▁Which	-6476
▁percentage	-6477
▁rid	-6478
▁Google	-6479
▁figures	-6480
▁relying	-6481
▁objectives	-6482
grat	-6483
▁Anand	-6484
▁sight	-6485
oratory	-6486
▁format	-6487
▁impose	-6488
▁concent	-6489
▁monthly	-6490
▁Jew	-6491
ruits	-6492
▁sequ	-6493
▁divor	-6494
▁Bose	-6495
▁Set	-6496
▁lapse	-6497
▁store	-6498
▁London	-6499
▁selling	-6500
igent	-6501
▁atmosphere	-6502
CI	-6503
anas	-6504
ghan	-6505
▁raw	-6506
▁About	-6507
▁leadership	-6508
▁throw	-6509
▁invoked	-6510
▁reproduced	-6511
▁considerations	-6512
awan	-6513
▁seal	-6514
▁panel	-6515
▁neighbour	-6516
xy	-6517
▁coup	-6518
▁Crime	-6519
▁bh	-6520
▁adopt	-6521
▁sport	-6522
▁Pad	-6523
▁murd	-6524
aduate	-6525
▁corresponding	-6526
ips	-6527
▁processes	-6528
opp	-6529
▁web	-6530
▁Date	-6531
▁bare	-6532
▁ambit	-6533
▁grown	-6534
▁effects	-6535
▁equival	-6536
plom	-6537
▁anc	-6538
▁output	-6539
▁offices	-6540
▁Var	-6541
▁Supra	-6542
▁AG	-6543
cture	-6544
itions	-6545
ster	-6546
▁Hem	-6547
▁Sunil	-6548
mar	-6549
▁Ira	-6550
▁illust	-6551
▁indirect	-6552
▁Jharkhand	-6553
▁primarily	-6554
▁pronounce	-6555
▁ran	-6556
▁missing	-6557
itual	-6558
aryana	-6559
▁encro	-6560
▁commitment	-6561
▁improvement	-6562
oken	-6563
rity	-6564
▁lik	-6565
▁Consid	-6566
▁Vishnu	-6567
▁monitor	-6568
▁minority	-6569
owed	-6570
▁execute	-6571
▁enhanced	-6572
▁priority	-6573
▁customers	-6574
TH	-6575
▁uncle	-6576
▁Doctor	-6577
▁infirm	-6578
▁perverse	-6579
▁CD	-6580
alog	-6581
▁intent	-6582
▁president	-6583
anand	-6584
ropri	-6585
▁resist	-6586
▁server	-6587
▁contracts	-6588
ops	-6589
▁approx	-6590
▁traffic	-6591
isations	-6592
ordinary	-6593
▁becoming	-6594
▁promoted	-6595
▁buildings	-6596
udi	-6597
▁ment	-6598
▁breed	-6599
▁Kolkata	-6600
▁factory	-6601
▁medicine	-6602
bon	-6603
▁arms	-6604
essed	-6605
▁Time	-6606
▁loans	-6607
▁clarified	-6608
▁norms	-6609
▁Reserve	-6610
▁belongs	-6611
▁Ba	-6612
alli	-6613
▁Sind	-6614
▁hair	-6615
▁phase	-6616
▁Rights	-6617
▁helped	-6618
▁Training	-6619
ector	-6620
▁Haryana	-6621
▁historical	-6622
▁Affairs	-6623
▁Nand	-6624
▁customer	-6625
▁excluded	-6626
▁Math	-6627
▁plat	-6628
▁plays	-6629
athered	-6630
da	-6631
ement	-6632
▁Nepal	-6633
▁unfair	-6634
▁visible	-6635
▁automatically	-6636
upon	-6637
▁enl	-6638
▁whenever	-6639
▁SE	-6640
eces	-6641
iments	-6642
▁Among	-6643
▁entreprene	-6644
▁procedural	-6645
▁appreciated	-6646
▁distinguished	-6647
▁Admitted	-6648
▁meetings	-6649
▁Bin	-6650
▁tim	-6651
▁east	-6652
▁Great	-6653
▁leads	-6654
▁Interest	-6655
ildar	-6656
▁Reddy	-6657
▁finger	-6658
▁partly	-6659
icing	-6660
▁scen	-6661
▁Final	-6662
▁Planning	-6663
▁assembly	-6664
▁notwithstanding	-6665
▁Jaw	-6666
▁Iraq	-6667
▁River	-6668
▁universities	-6669
▁spl	-6670
▁Raja	-6671
▁leaf	-6672
▁Force	-6673
▁besides	-6674
▁healthy	-6675
▁inclined	-6676
pat	-6677
▁knowing	-6678
mentioned	-6679
▁Defendant	-6680
▁accepting	-6681
▁facilitate	-6682
▁wild	-6683
▁erroneous	-6684
▁Mur	-6685
odes	-6686
▁Lax	-6687
▁poem	-6688
▁initiatives	-6689
▁kidn	-6690
▁Later	-6691
▁match	-6692
▁entering	-6693
anth	-6694
▁sharp	-6695
▁continuing	-6696
RL	-6697
▁wise	-6698
▁Sud	-6699
▁entity	-6700
▁territorial	-6701
▁pages	-6702
▁cogent	-6703
▁characters	-6704
▁Stud	-6705
state	-6706
▁Notice	-6707
▁quashing	-6708
habilitation	-6709
room	-6710
essment	-6711
▁communities	-6712
cles	-6713
▁roof	-6714
ificates	-6715
▁engineering	-6716
▁Fed	-6717
apped	-6718
▁Mere	-6719
▁thor	-6720
▁serving	-6721
▁starting	-6722
▁pollution	-6723
▁alien	-6724
▁circumstantial	-6725
▁Yoga	-6726
▁Commit	-6727
ifies	-6728
▁playing	-6729
▁campaign	-6730
▁complied	-6731
▁marketing	-6732
▁west	-6733
▁borne	-6734
▁proceeds	-6735
▁obviously	-6736
▁effectively	-6737
▁Gazette	-6738
▁architect	-6739
▁supporting	-6740
PA	-6741
▁sick	-6742
▁Brahm	-6743
▁ahead	-6744
▁career	-6745
▁reliefs	-6746
▁Az	-6747
▁stages	-6748
▁reputation	-6749
▁departments	-6750
▁Cur	-6751
▁derived	-6752
▁verification	-6753
hs	-6754
▁Small	-6755
▁successfully	-6756
१३	-6757
▁Sl	-6758
▁gathered	-6759
▁politics	-6760
▁occupation	-6761
nagar	-6762
▁fabric	-6763
▁environmental	-6764
▁expos	-6765
▁adoption	-6766
▁Engineering	-6767
▁unreasonable	-6768
cean	-6769
idal	-6770
▁Speaker	-6771
laws	-6772
▁sad	-6773
ammad	-6774
▁discrimination	-6775
▁AC	-6776
▁dishon	-6777
▁awareness	-6778
▁Admittedly	-6779
▁restricted	-6780
▁Sure	-6781
▁Legal	-6782
▁knows	-6783
amed	-6784
▁avo	-6785
▁encourage	-6786
▁CON	-6787
▁Kab	-6788
▁tank	-6789
▁singh	-6790
▁university	-6791
▁Luck	-6792
▁congrat	-6793
▁commenced	-6794
▁depending	-6795
akar	-6796
▁Use	-6797
▁cra	-6798
▁crow	-6799
▁tonnes	-6800
▁Professor	-6801
fer	-6802
▁exha	-6803
▁rice	-6804
▁Middle	-6805
▁domain	-6806
▁Schools	-6807
▁Christian	-6808
▁entertained	-6809
nan	-6810
▁Sikh	-6811
▁prepare	-6812
▁Agriculture	-6813
▁comprehensive	-6814
▁cou	-6815
▁Last	-6816
astern	-6817
▁double	-6818
▁dependent	-6819
▁surrender	-6820
gen	-6821
arsh	-6822
▁Din	-6823
▁Hig	-6824
▁ruled	-6825
▁smaller	-6826
▁Language	-6827
▁envisaged	-6828
▁threatened	-6829
adur	-6830
▁Sush	-6831
▁heat	-6832
▁arrive	-6833
▁discrep	-6834
▁Secondary	-6835
▁greetings	-6836
▁fish	-6837
▁conform	-6838
▁Constable	-6839
▁memorandum	-6840
▁Sav	-6841
▁encl	-6842
▁die	-6843
▁involves	-6844
▁districts	-6845
▁institute	-6846
▁consequential	-6847
elve	-6848
▁deduct	-6849
▁summons	-6850
▁deposits	-6851
▁practical	-6852
IF	-6853
lets	-6854
▁Sard	-6855
▁slight	-6856
▁thereunder	-6857
▁Authorities	-6858
▁irrespective	-6859
anti	-6860
▁hyp	-6861
▁Managing	-6862
▁differences	-6863
▁Ti	-6864
ulty	-6865
cribes	-6866
▁Mandal	-6867
▁postmortem	-6868
▁DW	-6869
otton	-6870
▁walk	-6871
▁Count	-6872
igilance	-6873
▁birds	-6874
uit	-6875
wah	-6876
▁aw	-6877
oring	-6878
▁Book	-6879
uv	-6880
itan	-6881
rary	-6882
▁Bur	-6883
▁fatal	-6884
▁steel	-6885
▁observe	-6886
▁expressly	-6887
▁symp	-6888
▁assail	-6889
▁finance	-6890
▁replied	-6891
▁household	-6892
▁transform	-6893
▁Ir	-6894
▁Jun	-6895
▁star	-6896
▁writer	-6897
▁director	-6898
▁organism	-6899
▁See	-6900
▁Agra	-6901
hension	-6902
▁mah	-6903
▁empt	-6904
▁Ministers	-6905
UL	-6906
more	-6907
erior	-6908
▁Copy	-6909
▁Life	-6910
▁Town	-6911
▁deten	-6912
▁fired	-6913
▁Proper	-6914
▁quantum	-6915
▁organized	-6916
▁producing	-6917
▁prosperity	-6918
▁null	-6919
▁Build	-6920
ictionary	-6921
▁pertinent	-6922
▁mov	-6923
▁quota	-6924
▁Himachal	-6925
▁Recovery	-6926
▁withdrawal	-6927
▁bidd	-6928
▁poison	-6929
ux	-6930
▁alc	-6931
▁hes	-6932
▁Mahab	-6933
▁strike	-6934
▁evaluation	-6935
ouble	-6936
▁Self	-6937
▁Raipur	-6938
▁devotion	-6939
▁supposed	-6940
▁discipline	-6941
▁efficiency	-6942
▁justification	-6943
▁comply	-6944
▁servants	-6945
IM	-6946
set	-6947
▁Sin	-6948
▁dro	-6949
▁tea	-6950
▁lose	-6951
▁Heard	-6952
ancellor	-6953
aneously	-6954
▁Internet	-6955
▁map	-6956
ifteen	-6957
ole	-6958
▁Unit	-6959
▁elder	-6960
gi	-6961
▁culp	-6962
stitutes	-6963
▁regions	-6964
▁Back	-6965
▁elim	-6966
olition	-6967
▁unauthor	-6968
holding	-6969
▁Territ	-6970
▁affirm	-6971
▁subsid	-6972
▁paramet	-6973
▁covering	-6974
▁regularly	-6975
▁consisting	-6976
▁regulation	-6977
▁council	-6978
▁pleased	-6979
▁establishing	-6980
fe	-6981
itra	-6982
▁blue	-6983
▁operative	-6984
ocol	-6985
▁core	-6986
ulates	-6987
▁Could	-6988
▁users	-6989
▁suggests	-6990
▁judiciary	-6991
bh	-6992
ghal	-6993
▁rigor	-6994
▁perpet	-6995
▁inserted	-6996
inous	-6997
▁Dhar	-6998
▁wage	-6999
course	-7000
▁amalg	-7001
▁Rat	-7002
▁diary	-7003
▁evalu	-7004
▁struck	-7005
▁wonder	-7006
▁experts	-7007
▁promise	-7008
▁scheduled	-7009
▁organizations	-7010
eev	-7011
gers	-7012
vent	-7013
▁Don	-7014
levant	-7015
▁doubtful	-7016
▁modification	-7017
TER	-7018
ners	-7019
udence	-7020
▁offers	-7021
▁infirmity	-7022
▁procedures	-7023
oz	-7024
▁stret	-7025
▁estimated	-7026
▁Universities	-7027
emb	-7028
▁evil	-7029
▁legs	-7030
▁chest	-7031
▁marry	-7032
▁Capital	-7033
▁caution	-7034
▁festival	-7035
▁ultimate	-7036
▁Due	-7037
▁Yet	-7038
▁constant	-7039
▁converted	-7040
▁Committees	-7041
▁convention	-7042
▁broken	-7043
▁winding	-7044
▁branches	-7045
asan	-7046
izes	-7047
▁Arun	-7048
▁didn	-7049
▁radi	-7050
▁roads	-7051
▁greatest	-7052
▁protected	-7053
aren	-7054
▁fed	-7055
▁Nature	-7056
▁returns	-7057
▁personality	-7058
▁announced	-7059
▁concerning	-7060
▁AB	-7061
mity	-7062
▁email	-7063
▁confer	-7064
▁sovere	-7065
▁acknowled	-7066
▁Lo	-7067
▁western	-7068
▁attained	-7069
▁platform	-7070
▁privilege	-7071
▁Laws	-7072
▁mining	-7073
▁assumed	-7074
▁mineral	-7075
▁Acqu	-7076
▁Lect	-7077
▁sending	-7078
▁questioned	-7079
▁Shankaracharya	-7080
▁ID	-7081
▁nur	-7082
othing	-7083
▁accru	-7084
▁looks	-7085
▁endorse	-7086
▁effected	-7087
odh	-7088
▁desir	-7089
▁Sanjay	-7090
▁convenience	-7091
▁translation	-7092
TE	-7093
▁Good	-7094
▁Tele	-7095
minent	-7096
▁pull	-7097
ciation	-7098
▁Survey	-7099
▁controlled	-7100
▁perspective	-7101
▁participated	-7102
oli	-7103
▁cow	-7104
▁mail	-7105
▁waiting	-7106
jo	-7107
illa	-7108
▁felic	-7109
▁discard	-7110
▁ensuring	-7111
▁similarly	-7112
▁blind	-7113
▁helps	-7114
▁prefer	-7115
▁instruments	-7116
iah	-7117
oot	-7118
unals	-7119
clause	-7120
▁dia	-7121
▁equivalent	-7122
▁maintaining	-7123
▁tob	-7124
▁Gopal	-7125
▁cloud	-7126
▁courage	-7127
▁Meh	-7128
▁Rai	-7129
erved	-7130
osing	-7131
▁Dhan	-7132
▁Mother	-7133
▁prospect	-7134
▁contradictions	-7135
itt	-7136
isdom	-7137
▁tick	-7138
▁Directorate	-7139
erk	-7140
omin	-7141
▁bench	-7142
▁Lucknow	-7143
▁squared	-7144
▁secondary	-7145
ym	-7146
▁IP	-7147
▁trend	-7148
▁intervention	-7149
▁forthwith	-7150
uliar	-7151
▁folk	-7152
▁shot	-7153
▁Laksh	-7154
▁mostly	-7155
▁promot	-7156
▁seriously	-7157
▁represents	-7158
▁competition	-7159
RE	-7160
arn	-7161
ker	-7162
▁Amb	-7163
▁discuss	-7164
▁managed	-7165
▁attended	-7166
▁client	-7167
▁orient	-7168
▁peculiar	-7169
alle	-7170
▁Ranj	-7171
▁heads	-7172
▁Higher	-7173
▁couple	-7174
▁disturb	-7175
▁Rah	-7176
▁stake	-7177
▁occasions	-7178
▁extraordinary	-7179
TC	-7180
▁pad	-7181
organ	-7182
▁Keep	-7183
▁Prat	-7184
▁earliest	-7185
▁regularization	-7186
▁PD	-7187
▁org	-7188
eding	-7189
▁coin	-7190
▁exceeding	-7191
wor	-7192
▁wrongly	-7193
▁inflicted	-7194
▁reasoning	-7195
▁specially	-7196
▁prec	-7197
▁fifty	-7198
▁Pandit	-7199
▁beings	-7200
▁Cabinet	-7201
▁tobacco	-7202
▁opposition	-7203
▁twelve	-7204
▁governing	-7205
▁accom	-7206
▁repay	-7207
▁usual	-7208
▁attorney	-7209
ether	-7210
▁Works	-7211
▁Economic	-7212
▁resource	-7213
▁conversion	-7214
▁fifteen	-7215
oe	-7216
▁spect	-7217
urved	-7218
▁Swar	-7219
▁Test	-7220
▁Considering	-7221
▁vitiated	-7222
▁bilateral	-7223
▁correspond	-7224
▁El	-7225
iant	-7226
▁photographs	-7227
▁Institutions	-7228
▁consequently	-7229
▁hall	-7230
▁rely	-7231
▁trading	-7232
▁Technical	-7233
▁attachment	-7234
GC	-7235
pass	-7236
▁band	-7237
▁tur	-7238
▁climate	-7239
▁Joh	-7240
▁aims	-7241
abling	-7242
▁arrears	-7243
▁probation	-7244
icious	-7245
▁plans	-7246
▁tests	-7247
▁History	-7248
▁consolid	-7249
▁framework	-7250
▁preceding	-7251
▁electronic	-7252
ls	-7253
▁Pass	-7254
▁club	-7255
▁aband	-7256
▁track	-7257
▁Credit	-7258
▁Rajendra	-7259
▁compulsory	-7260
▁Ach	-7261
▁Chrom	-7262
▁eleph	-7263
▁prompt	-7264
isen	-7265
▁Yes	-7266
▁brib	-7267
▁lodging	-7268
ertaining	-7269
▁communal	-7270
▁pleading	-7271
▁identical	-7272
ander	-7273
isher	-7274
▁Vidy	-7275
▁Network	-7276
▁holders	-7277
▁Emp	-7278
▁vary	-7279
▁doubts	-7280
▁crucial	-7281
▁dw	-7282
▁unlaw	-7283
ressive	-7284
▁satisfactory	-7285
isis	-7286
▁bona	-7287
▁weather	-7288
▁instruction	-7289
▁Hot	-7290
▁Deep	-7291
▁File	-7292
▁brings	-7293
▁fellow	-7294
▁guidance	-7295
▁interpreted	-7296
▁Tir	-7297
▁inaug	-7298
▁proving	-7299
▁Common	-7300
▁eviction	-7301
▁correctness	-7302
riya	-7303
▁Look	-7304
▁brid	-7305
▁please	-7306
▁infection	-7307
▁imposition	-7308
off	-7309
yas	-7310
atively	-7311
▁Appeals	-7312
▁formula	-7313
itage	-7314
▁zero	-7315
ju	-7316
▁orna	-7317
▁upgr	-7318
ansion	-7319
▁constr	-7320
▁desert	-7321
▁Ten	-7322
▁Vik	-7323
▁street	-7324
piration	-7325
ids	-7326
hari	-7327
▁Austral	-7328
▁accompl	-7329
▁expired	-7330
▁initiative	-7331
SS	-7332
▁Banks	-7333
▁Jawahar	-7334
▁substituted	-7335
▁suggestions	-7336
▁communicated	-7337
▁iv	-7338
▁ste	-7339
▁exch	-7340
▁settle	-7341
ss	-7342
burse	-7343
inity	-7344
▁evid	-7345
▁rivers	-7346
▁insurer	-7347
▁chargeable	-7348
▁span	-7349
▁performing	-7350
▁Person	-7351
▁incent	-7352
▁unnecess	-7353
▁Societies	-7354
▁Dw	-7355
gypt	-7356
rations	-7357
▁Subhas	-7358
▁housing	-7359
▁introduction	-7360
▁applicability	-7361
cks	-7362
back	-7363
cript	-7364
cular	-7365
resent	-7366
▁undue	-7367
cribing	-7368
part	-7369
riginal	-7370
▁Eastern	-7371
▁declare	-7372
▁nominated	-7373
▁NO	-7374
eless	-7375
▁Review	-7376
▁battle	-7377
▁thousands	-7378
umber	-7379
▁royal	-7380
▁Acts	-7381
▁boys	-7382
▁skills	-7383
▁undertake	-7384
▁corroborated	-7385
igarh	-7386
▁CrPC	-7387
▁Process	-7388
▁scrutin	-7389
▁friendship	-7390
▁Independence	-7391
▁retrospective	-7392
EAR	-7393
▁Han	-7394
rating	-7395
▁inher	-7396
▁motorcy	-7397
▁intercourse	-7398
▁requisition	-7399
ESS	-7400
▁Compl	-7401
oses	-7402
▁Tar	-7403
▁Venk	-7404
▁wait	-7405
▁breath	-7406
▁prevailing	-7407
LA	-7408
▁Rak	-7409
▁Egypt	-7410
▁defici	-7411
▁unfort	-7412
▁deprived	-7413
▁designated	-7414
▁implicated	-7415
▁arrangements	-7416
RO	-7417
ranath	-7418
▁burnt	-7419
▁route	-7420
▁permits	-7421
▁certificates	-7422
DC	-7423
▁URL	-7424
antic	-7425
▁habit	-7426
▁paint	-7427
▁Session	-7428
▁calculated	-7429
apa	-7430
shi	-7431
vation	-7432
▁grade	-7433
▁utter	-7434
▁refuse	-7435
▁string	-7436
▁wisdom	-7437
▁averred	-7438
rase	-7439
▁pieces	-7440
▁awards	-7441
▁incrim	-7442
▁answers	-7443
▁backward	-7444
▁phen	-7445
▁premium	-7446
IP	-7447
ohol	-7448
▁Gar	-7449
▁rock	-7450
▁sets	-7451
verted	-7452
▁purely	-7453
▁consumers	-7454
ema	-7455
▁Path	-7456
▁resc	-7457
▁teach	-7458
▁forced	-7459
▁occurs	-7460
▁rejecting	-7461
akti	-7462
▁Beg	-7463
▁FOR	-7464
▁Sik	-7465
▁Entry	-7466
▁outer	-7467
▁budget	-7468
▁remand	-7469
▁Data	-7470
▁relev	-7471
▁reveal	-7472
▁Attorney	-7473
lter	-7474
▁Rev	-7475
▁Vir	-7476
▁colle	-7477
▁faced	-7478
▁earned	-7479
▁matrim	-7480
▁unjust	-7481
▁discovered	-7482
eros	-7483
lands	-7484
▁resign	-7485
▁reaching	-7486
uj	-7487
▁sq	-7488
▁Revision	-7489
▁proposals	-7490
▁scientists	-7491
▁conclusions	-7492
aces	-7493
▁fold	-7494
hement	-7495
▁termed	-7496
▁flowers	-7497
▁supreme	-7498
▁password	-7499
▁sin	-7500
▁Fort	-7501
▁merc	-7502
holder	-7503
▁facing	-7504
▁cricket	-7505
▁Acquisition	-7506
▁Urdu	-7507
▁bull	-7508
▁devi	-7509
▁screen	-7510
▁journal	-7511
▁computing	-7512
ellow	-7513
▁Champ	-7514
▁Divine	-7515
▁cutting	-7516
MENT	-7517
▁solar	-7518
▁arisen	-7519
▁restrictions	-7520
fall	-7521
▁Neg	-7522
▁Cast	-7523
▁fertil	-7524
▁seemed	-7525
iri	-7526
▁USA	-7527
idden	-7528
onies	-7529
▁coast	-7530
ogether	-7531
▁dignity	-7532
▁markets	-7533
▁vehement	-7534
▁creditors	-7535
▁reduction	-7536
ny	-7537
▁hop	-7538
▁essence	-7539
ba	-7540
atra	-7541
hesh	-7542
▁spons	-7543
▁garden	-7544
▁samples	-7545
▁integrity	-7546
che	-7547
▁AO	-7548
nsic	-7549
▁Anr	-7550
oubted	-7551
▁aggreg	-7552
▁exports	-7553
itch	-7554
▁Crl	-7555
▁sake	-7556
▁vote	-7557
▁sweet	-7558
▁Agency	-7559
▁Houses	-7560
▁myself	-7561
▁Nations	-7562
▁justify	-7563
▁HC	-7564
▁Jos	-7565
▁Mrs	-7566
▁skill	-7567
▁Record	-7568
▁ritual	-7569
▁Nothing	-7570
▁concerns	-7571
▁tom	-7572
▁Jam	-7573
▁Rab	-7574
▁Sardar	-7575
▁dealer	-7576
▁injust	-7577
▁originally	-7578
▁Saty	-7579
▁apex	-7580
▁Transfer	-7581
ATE	-7582
top	-7583
etime	-7584
▁contends	-7585
▁investors	-7586
▁movements	-7587
▁exceptional	-7588
▁tenancy	-7589
▁conclude	-7590
▁tissue	-7591
▁contraband	-7592
uri	-7593
anath	-7594
venth	-7595
roller	-7596
▁conference	-7597
▁restriction	-7598
▁temperature	-7599
oyal	-7600
▁000	-7601
▁vag	-7602
ounded	-7603
▁reforms	-7604
▁shifted	-7605
▁promoting	-7606
▁relaxation	-7607
ithm	-7608
▁belonged	-7609
▁discovery	-7610
▁contributions	-7611
rows	-7612
ighty	-7613
▁organised	-7614
▁Prevention	-7615
ua	-7616
urch	-7617
▁Jyot	-7618
cellaneous	-7619
▁centuries	-7620
▁shareholders	-7621
cience	-7622
▁Afghan	-7623
▁config	-7624
▁fixing	-7625
▁presumed	-7626
icon	-7627
uality	-7628
▁dance	-7629
▁shops	-7630
▁fulfilled	-7631
▁Parliamentary	-7632
alam	-7633
▁unw	-7634
▁vir	-7635
ureau	-7636
▁imposing	-7637
▁requiring	-7638
▁difficulties	-7639
rup	-7640
▁overr	-7641
▁initiate	-7642
▁Something	-7643
mal	-7644
alled	-7645
▁Late	-7646
▁hind	-7647
▁Bangl	-7648
▁empty	-7649
▁enabled	-7650
▁simult	-7651
▁appointing	-7652
▁imagination	-7653
mad	-7654
▁Ramesh	-7655
▁Related	-7656
▁Original	-7657
▁dimension	-7658
▁societies	-7659
▁succeeded	-7660
▁Gul	-7661
▁Kap	-7662
chandra	-7663
▁precise	-7664
▁talking	-7665
▁Dy	-7666
▁syn	-7667
▁drop	-7668
▁borrower	-7669
och	-7670
▁Nir	-7671
▁hyd	-7672
rates	-7673
▁Prabh	-7674
▁Select	-7675
▁dedicated	-7676
▁expansion	-7677
ogue	-7678
oples	-7679
▁doesn	-7680
▁micro	-7681
▁NS	-7682
▁acres	-7683
▁accommodation	-7684
▁Equ	-7685
▁clim	-7686
itated	-7687
▁kumar	-7688
▁Israeli	-7689
▁Children	-7690
▁apprehend	-7691
▁governments	-7692
▁Subsequently	-7693
istence	-7694
▁silent	-7695
▁billion	-7696
▁exactly	-7697
▁bot	-7698
ounder	-7699
▁Sector	-7700
▁duration	-7701
▁everyone	-7702
▁substitute	-7703
cum	-7704
oudh	-7705
▁fet	-7706
▁Mult	-7707
▁Upon	-7708
▁Vaish	-7709
▁quarter	-7710
▁routine	-7711
▁Ahmedabad	-7712
leum	-7713
▁convert	-7714
▁divorce	-7715
▁unlawful	-7716
▁injustice	-7717
▁concession	-7718
▁reasonably	-7719
claim	-7720
▁Shar	-7721
▁delinqu	-7722
▁Convention	-7723
ulous	-7724
▁nearby	-7725
appropri	-7726
▁creates	-7727
▁improved	-7728
▁mountain	-7729
ographical	-7730
▁vehemently	-7731
▁implication	-7732
▁hat	-7733
▁horse	-7734
▁recip	-7735
▁examples	-7736
▁affidavits	-7737
▁transportation	-7738
erent	-7739
▁Army	-7740
▁Prim	-7741
▁unex	-7742
▁poets	-7743
▁fraudul	-7744
▁invoking	-7745
▁Paragraph	-7746
▁exclusively	-7747
ashing	-7748
▁exclusion	-7749
▁precedent	-7750
▁Lah	-7751
▁mir	-7752
▁Body	-7753
▁Mohd	-7754
▁Taluk	-7755
▁casual	-7756
▁expand	-7757
▁substantially	-7758
▁IC	-7759
norm	-7760
▁Mil	-7761
ceived	-7762
▁venture	-7763
jun	-7764
▁cycle	-7765
▁defeat	-7766
▁testator	-7767
▁beneficial	-7768
▁TV	-7769
▁French	-7770
▁faculty	-7771
▁replace	-7772
oda	-7773
orter	-7774
▁mala	-7775
▁seeds	-7776
▁superann	-7777
▁directory	-7778
▁illegally	-7779
▁installation	-7780
dess	-7781
omach	-7782
▁erred	-7783
▁fract	-7784
ela	-7785
rum	-7786
▁dog	-7787
▁isol	-7788
oubtedly	-7789
▁acquire	-7790
▁placing	-7791
ture	-7792
amber	-7793
▁saved	-7794
▁sacrifice	-7795
▁organisations	-7796
▁dynam	-7797
za	-7798
१४	-7799
▁inev	-7800
▁empower	-7801
▁pressed	-7802
▁welcome	-7803
▁parameters	-7804
▁investments	-7805
▁matrimonial	-7806
▁transmission	-7807
EE	-7808
MS	-7809
Ms	-7810
▁Inn	-7811
▁cool	-7812
▁inviting	-7813
▁rigorous	-7814
▁Micro	-7815
▁taxes	-7816
▁thrown	-7817
▁Industry	-7818
ooth	-7819
▁Bri	-7820
▁zone	-7821
▁sanct	-7822
▁La	-7823
inct	-7824
▁Imp	-7825
afide	-7826
▁sites	-7827
▁suddenly	-7828
DU	-7829
▁rub	-7830
▁blank	-7831
▁mixed	-7832
▁Sarasw	-7833
▁deeply	-7834
▁emerged	-7835
▁specify	-7836
▁influenced	-7837
▁NA	-7838
▁Zone	-7839
▁Kumari	-7840
▁Tiwari	-7841
▁gather	-7842
▁composed	-7843
▁Om	-7844
▁solely	-7845
▁Reliance	-7846
▁personally	-7847
vity	-7848
▁Cro	-7849
roleum	-7850
▁interl	-7851
▁dispose	-7852
▁dangerous	-7853
▁corruption	-7854
rier	-7855
▁yes	-7856
▁oath	-7857
▁enabling	-7858
▁Chancellor	-7859
▁motorcycle	-7860
▁Agricultural	-7861
▁apprehension	-7862
▁intelligence	-7863
▁sky	-7864
▁Gold	-7865
▁absent	-7866
▁forged	-7867
▁jointly	-7868
▁passion	-7869
▁anx	-7870
▁baby	-7871
▁thank	-7872
▁refusal	-7873
Os	-7874
hemat	-7875
rafts	-7876
▁Third	-7877
▁flower	-7878
▁sacred	-7879
▁Far	-7880
hemical	-7881
▁creditor	-7882
▁Advocates	-7883
▁Know	-7884
apping	-7885
▁conversation	-7886
▁aforementioned	-7887
▁gate	-7888
▁treating	-7889
▁irrigation	-7890
ispr	-7891
▁Ren	-7892
▁beg	-7893
▁Rest	-7894
▁guide	-7895
▁quiet	-7896
▁spoken	-7897
▁Despite	-7898
▁creative	-7899
▁instances	-7900
▁naturally	-7901
▁kg	-7902
▁twice	-7903
▁cattle	-7904
▁laying	-7905
▁quickly	-7906
▁Cal	-7907
▁indig	-7908
▁stick	-7909
ressing	-7910
▁Accounts	-7911
▁endorsement	-7912
▁incriminating	-7913
isory	-7914
▁Annual	-7915
▁cancel	-7916
▁doctors	-7917
▁technologies	-7918
CE	-7919
▁CS	-7920
oning	-7921
ensity	-7922
▁glass	-7923
▁newly	-7924
▁levied	-7925
▁manage	-7926
▁travell	-7927
rh	-7928
bing	-7929
▁Jail	-7930
▁confusion	-7931
TI	-7932
sp	-7933
▁patent	-7934
▁Defence	-7935
oly	-7936
oman	-7937
▁hoc	-7938
house	-7939
indra	-7940
employ	-7941
▁radio	-7942
▁tenants	-7943
▁correctly	-7944
▁newspapers	-7945
▁tribal	-7946
▁exhaust	-7947
▁inconsistent	-7948
anka	-7949
▁prose	-7950
ruction	-7951
▁folder	-7952
▁mortem	-7953
▁thorough	-7954
▁extending	-7955
obile	-7956
▁Sund	-7957
▁tract	-7958
▁witnessed	-7959
▁Palestinian	-7960
▁distributed	-7961
▁irregularity	-7962
ajan	-7963
▁axe	-7964
ropol	-7965
▁deny	-7966
akrish	-7967
▁Instru	-7968
icus	-7969
iliar	-7970
▁race	-7971
▁outcome	-7972
▁attributed	-7973
TA	-7974
▁Ha	-7975
ayat	-7976
force	-7977
▁eggs	-7978
▁Urban	-7979
writing	-7980
▁gap	-7981
▁Chak	-7982
▁bonds	-7983
▁fifth	-7984
▁theme	-7985
▁revers	-7986
▁customs	-7987
▁killing	-7988
▁trained	-7989
hr	-7990
ensus	-7991
▁alias	-7992
▁votes	-7993
▁Without	-7994
▁disabled	-7995
▁murdered	-7996
▁Notwithstanding	-7997
▁CP	-7998
▁Sk	-7999
atar	-8000
▁Note	-8001
▁abst	-8002
▁diet	-8003
▁annexed	-8004
▁improper	-8005
▁daughters	-8006
▁Divisional	-8007
ida	-8008
▁Saf	-8009
▁mos	-8010
▁Area	-8011
▁Tahs	-8012
▁Term	-8013
▁poly	-8014
joinder	-8015
▁structures	-8016
cher	-8017
aints	-8018
▁noise	-8019
▁Failed	-8020
▁Letters	-8021
▁package	-8022
▁purview	-8023
▁Examination	-8024
LE	-8025
▁Kir	-8026
▁bye	-8027
▁enum	-8028
▁Point	-8029
▁annum	-8030
rection	-8031
▁combined	-8032
▁Electricity	-8033
▁confirmation	-8034
▁vic	-8035
▁fuel	-8036
▁sympt	-8037
▁bidder	-8038
▁assured	-8039
▁earning	-8040
▁monetary	-8041
▁compelled	-8042
▁securities	-8043
raction	-8044
▁Awards	-8045
▁center	-8046
▁MP	-8047
▁Name	-8048
▁ancest	-8049
▁younger	-8050
▁Lordship	-8051
▁Ans	-8052
ampur	-8053
▁Paper	-8054
▁numerous	-8055
▁presentation	-8056
aza	-8057
▁flag	-8058
▁load	-8059
▁Local	-8060
▁lawful	-8061
▁starts	-8062
▁deserve	-8063
▁Circular	-8064
▁criticism	-8065
▁endeavour	-8066
▁components	-8067
akf	-8068
▁Ku	-8069
▁amp	-8070
icate	-8071
▁fled	-8072
▁flood	-8073
▁resolved	-8074
▁thoughts	-8075
▁writings	-8076
▁component	-8077
▁Web	-8078
▁tools	-8079
▁minute	-8080
▁propag	-8081
▁Bahadur	-8082
pa	-8083
▁ast	-8084
▁ram	-8085
alpur	-8086
▁fulfil	-8087
▁relate	-8088
▁cognizable	-8089
▁liabilities	-8090
DS	-8091
▁DR	-8092
▁hotel	-8093
▁declined	-8094
▁deliberately	-8095
ham	-8096
▁Fac	-8097
▁Vid	-8098
▁fle	-8099
▁jew	-8100
▁Motor	-8101
▁teeth	-8102
▁attain	-8103
▁cultivation	-8104
unk	-8105
▁Mas	-8106
▁deem	-8107
▁disk	-8108
▁belie	-8109
▁chair	-8110
▁attacked	-8111
▁phenomen	-8112
▁measuring	-8113
▁terrorist	-8114
▁Ser	-8115
cking	-8116
posit	-8117
▁Estate	-8118
▁assessing	-8119
▁membership	-8120
▁Agg	-8121
▁Ang	-8122
▁incap	-8123
▁closely	-8124
▁offering	-8125
▁Bangladesh	-8126
▁delinquent	-8127
▁competitive	-8128
▁ring	-8129
▁Allow	-8130
▁covers	-8131
▁incumb	-8132
▁tested	-8133
▁compens	-8134
▁improving	-8135
▁purported	-8136
▁maintainability	-8137
HA	-8138
scious	-8139
▁catch	-8140
▁surpr	-8141
▁Bureau	-8142
▁crisis	-8143
▁enterprise	-8144
TS	-8145
▁Key	-8146
amount	-8147
▁ended	-8148
▁solid	-8149
▁ignorance	-8150
▁pm	-8151
▁eyew	-8152
▁Found	-8153
▁reaction	-8154
orge	-8155
empted	-8156
riages	-8157
▁emergency	-8158
▁relevance	-8159
▁religions	-8160
ERS	-8161
isputed	-8162
▁Govind	-8163
▁begins	-8164
▁diplom	-8165
▁Speaking	-8166
▁arranged	-8167
▁felicitations	-8168
▁Um	-8169
▁Ray	-8170
▁Sidd	-8171
▁Sita	-8172
▁myst	-8173
ardship	-8174
▁alcohol	-8175
▁stomach	-8176
ped	-8177
atab	-8178
pled	-8179
▁Disp	-8180
▁hill	-8181
▁drama	-8182
▁Choudh	-8183
▁chapter	-8184
▁desired	-8185
▁forming	-8186
▁terminal	-8187
alla	-8188
vast	-8189
▁Exper	-8190
▁bright	-8191
▁stab	-8192
▁divid	-8193
▁proud	-8194
▁shift	-8195
▁Junior	-8196
▁Provision	-8197
lo	-8198
▁gri	-8199
▁Anil	-8200
▁dispro	-8201
▁formulated	-8202
zz	-8203
▁du	-8204
arer	-8205
ohan	-8206
▁forc	-8207
▁reass	-8208
itnesses	-8209
▁comfort	-8210
▁Mahabhar	-8211
▁verified	-8212
▁integrated	-8213
endar	-8214
enous	-8215
▁cord	-8216
▁possessed	-8217
hus	-8218
▁Liqu	-8219
▁Vide	-8220
▁visual	-8221
▁accurate	-8222
▁receipts	-8223
▁inclusive	-8224
▁initiation	-8225
▁Cooperative	-8226
jan	-8227
▁YEAR	-8228
▁misc	-8229
▁walls	-8230
▁southern	-8231
▁Bet	-8232
hetic	-8233
▁Chow	-8234
▁bath	-8235
▁linked	-8236
▁thinks	-8237
▁Railways	-8238
▁counsels	-8239
▁levelled	-8240
▁altogether	-8241
▁John	-8242
▁Vigilance	-8243
ario	-8244
lete	-8245
▁vague	-8246
▁widely	-8247
▁Question	-8248
iche	-8249
oure	-8250
▁None	-8251
arding	-8252
▁margin	-8253
▁retain	-8254
▁illness	-8255
▁prohibition	-8256
inter	-8257
▁Free	-8258
▁Shuk	-8259
▁doll	-8260
▁Buddha	-8261
▁Patent	-8262
▁remind	-8263
▁Customs	-8264
▁anybody	-8265
▁ceremony	-8266
▁imperial	-8267
▁offender	-8268
▁evolution	-8269
▁engagement	-8270
abet	-8271
▁FSL	-8272
▁Hel	-8273
allel	-8274
▁Deed	-8275
▁hect	-8276
▁spoke	-8277
▁Brahman	-8278
▁Housing	-8279
▁immense	-8280
▁Secondly	-8281
▁lawyer	-8282
▁Discipl	-8283
▁extensive	-8284
▁incidents	-8285
▁rendering	-8286
▁combination	-8287
▁destruction	-8288
race	-8289
▁clin	-8290
active	-8291
icians	-8292
ificial	-8293
▁launch	-8294
▁Germany	-8295
▁renewal	-8296
▁patients	-8297
unicipality	-8298
▁concurrent	-8299
▁distinguish	-8300
emn	-8301
▁trouble	-8302
ds	-8303
nath	-8304
oria	-8305
▁Dam	-8306
▁Ambed	-8307
▁........	-8308
▁hardship	-8309
▁corroboration	-8310
▁Lat	-8311
▁Sil	-8312
▁flo	-8313
▁quasi	-8314
▁disbel	-8315
▁comments	-8316
▁heritage	-8317
▁retained	-8318
▁Mir	-8319
▁Wind	-8320
▁Three	-8321
▁intest	-8322
▁planned	-8323
▁Ambedkar	-8324
isprudence	-8325
▁projected	-8326
useum	-8327
▁enemy	-8328
▁bottom	-8329
▁emerging	-8330
▁restrict	-8331
▁residents	-8332
▁revisional	-8333
rule	-8334
yers	-8335
▁unb	-8336
itate	-8337
urbed	-8338
▁Move	-8339
▁promis	-8340
tes	-8341
pura	-8342
▁Mos	-8343
▁vit	-8344
▁Sinha	-8345
▁bears	-8346
▁enmity	-8347
▁assisted	-8348
UD	-8349
▁fib	-8350
▁bomb	-8351
▁stress	-8352
artments	-8353
▁Working	-8354
▁suspect	-8355
▁exhibited	-8356
▁Mor	-8357
▁ego	-8358
▁driven	-8359
▁fruits	-8360
▁Brahmin	-8361
▁printed	-8362
▁violated	-8363
▁comparison	-8364
▁supplementary	-8365
▁Lic	-8366
▁tab	-8367
▁revol	-8368
▁socio	-8369
▁Suresh	-8370
▁debate	-8371
▁peoples	-8372
▁pu	-8373
▁Arch	-8374
▁Sand	-8375
▁adap	-8376
lihood	-8377
▁depth	-8378
▁learnt	-8379
▁educated	-8380
▁messages	-8381
▁replaced	-8382
▁returning	-8383
▁Educational	-8384
▁Constitutional	-8385
▁forget	-8386
▁existed	-8387
▁Employment	-8388
▁celebrated	-8389
▁contribute	-8390
dev	-8391
got	-8392
▁shad	-8393
▁cryst	-8394
▁Change	-8395
▁Tribes	-8396
▁masses	-8397
▁stained	-8398
▁Marriage	-8399
▁contemporary	-8400
▁strategy	-8401
▁Disc	-8402
rition	-8403
▁layer	-8404
▁manager	-8405
▁affection	-8406
▁analog	-8407
▁studied	-8408
▁Teachers	-8409
▁executing	-8410
▁prohibited	-8411
izon	-8412
▁Top	-8413
▁Phys	-8414
▁prol	-8415
▁Statute	-8416
▁expedit	-8417
▁humanity	-8418
▁occupied	-8419
▁tomorrow	-8420
▁attempted	-8421
▁Jawaharlal	-8422
iel	-8423
▁canv	-8424
onance	-8425
▁suffers	-8426
▁demonstrate	-8427
▁approximately	-8428
uter	-8429
▁Text	-8430
itanya	-8431
ocated	-8432
▁Innov	-8433
▁cotton	-8434
▁meters	-8435
▁viewed	-8436
▁filling	-8437
▁investigate	-8438
BC	-8439
▁resolve	-8440
▁drinking	-8441
▁imported	-8442
▁Sometimes	-8443
▁apparently	-8444
ICE	-8445
▁mr	-8446
▁Raju	-8447
iverse	-8448
▁links	-8449
▁ruling	-8450
▁sharing	-8451
▁affecting	-8452
▁definitely	-8453
▁underlying	-8454
time	-8455
▁tune	-8456
ainted	-8457
▁Democ	-8458
▁Issue	-8459
▁stead	-8460
▁innocence	-8461
▁assumption	-8462
raid	-8463
igible	-8464
▁thick	-8465
▁allows	-8466
plication	-8467
etent	-8468
▁Succ	-8469
▁creat	-8470
▁burning	-8471
▁failing	-8472
▁largely	-8473
▁Property	-8474
▁voluntarily	-8475
cend	-8476
theless	-8477
▁taught	-8478
▁preparing	-8479
▁Investigation	-8480
wara	-8481
▁Dom	-8482
▁vul	-8483
ananda	-8484
▁aimed	-8485
▁abnorm	-8486
▁digital	-8487
▁warning	-8488
▁inspired	-8489
▁happiness	-8490
alal	-8491
▁Ear	-8492
arency	-8493
▁print	-8494
▁Indeed	-8495
▁firing	-8496
▁lesser	-8497
▁Neither	-8498
▁superannuation	-8499
UM	-8500
mp	-8501
▁NIT	-8502
ignment	-8503
▁Temple	-8504
▁corner	-8505
▁solemn	-8506
▁avoided	-8507
ropolitan	-8508
IG	-8509
▁ND	-8510
acious	-8511
▁happening	-8512
▁Rent	-8513
▁crim	-8514
▁denying	-8515
▁Statement	-8516
▁irrelevant	-8517
FC	-8518
IST	-8519
kha	-8520
eree	-8521
lier	-8522
▁wed	-8523
icity	-8524
utable	-8525
▁speaks	-8526
▁Pleader	-8527
▁Primary	-8528
▁harmony	-8529
▁implied	-8530
pay	-8531
▁evolved	-8532
▁writers	-8533
▁awarding	-8534
▁pointing	-8535
▁admissions	-8536
▁provisional	-8537
▁era	-8538
actor	-8539
▁simpl	-8540
▁Rakesh	-8541
▁sports	-8542
▁Persian	-8543
▁enforced	-8544
▁prevented	-8545
▁guaranteed	-8546
heb	-8547
▁Dub	-8548
▁Had	-8549
▁Real	-8550
▁elic	-8551
▁developments	-8552
▁contravention	-8553
mat	-8554
▁kh	-8555
stitu	-8556
coming	-8557
▁batch	-8558
▁somebody	-8559
▁unnecessary	-8560
yl	-8561
▁Ank	-8562
▁Oil	-8563
▁haz	-8564
ocutory	-8565
▁summary	-8566
▁statutes	-8567
▁representations	-8568
▁UK	-8569
ealth	-8570
▁edge	-8571
worthy	-8572
▁carries	-8573
ivek	-8574
▁Import	-8575
▁engage	-8576
▁contradict	-8577
▁BY	-8578
▁Ary	-8579
umping	-8580
▁assume	-8581
▁nobody	-8582
▁worker	-8583
▁Whereas	-8584
▁joining	-8585
▁familiar	-8586
▁sequence	-8587
▁conscience	-8588
amus	-8589
ariat	-8590
▁Main	-8591
▁chart	-8592
▁Tender	-8593
▁Hindust	-8594
▁forests	-8595
▁protest	-8596
▁alleging	-8597
▁assuming	-8598
▁entrance	-8599
▁northern	-8600
▁destroyed	-8601
▁indicating	-8602
SA	-8603
achi	-8604
adequ	-8605
night	-8606
uster	-8607
▁Ele	-8608
orters	-8609
▁Based	-8610
▁Mount	-8611
▁affirmed	-8612
▁punished	-8613
aus	-8614
▁ash	-8615
▁wire	-8616
▁fulfill	-8617
▁generated	-8618
▁reinstate	-8619
▁attendance	-8620
▁discharging	-8621
▁Forum	-8622
▁auton	-8623
▁discover	-8624
▁millions	-8625
▁Mam	-8626
▁Sit	-8627
▁coc	-8628
▁Cell	-8629
▁Integ	-8630
▁border	-8631
▁testing	-8632
▁commonly	-8633
▁succession	-8634
ridge	-8635
▁tear	-8636
▁widow	-8637
▁Sushil	-8638
▁Constitu	-8639
▁presently	-8640
▁assignment	-8641
▁rehabilitation	-8642
OP	-8643
ius	-8644
▁Aur	-8645
▁upl	-8646
▁York	-8647
enders	-8648
▁truly	-8649
▁carbon	-8650
▁contest	-8651
▁peaceful	-8652
▁MSME	-8653
▁Sheikh	-8654
▁recourse	-8655
▁livelihood	-8656
▁substantiate	-8657
from	-8658
▁Design	-8659
▁instruct	-8660
▁equitable	-8661
▁Memorandum	-8662
▁encouraged	-8663
▁III	-8664
ician	-8665
▁jobs	-8666
ainable	-8667
▁regulate	-8668
▁Chaitanya	-8669
▁prominent	-8670
obe	-8671
wahati	-8672
▁Money	-8673
▁violative	-8674
▁Furthermore	-8675
▁Subhash	-8676
▁delayed	-8677
▁surrounding	-8678
inn	-8679
ixed	-8680
▁lays	-8681
▁rememb	-8682
▁vendor	-8683
▁decline	-8684
▁strange	-8685
▁furnishing	-8686
andi	-8687
asty	-8688
▁Hotel	-8689
▁signs	-8690
▁Register	-8691
▁strongly	-8692
▁infringement	-8693
aon	-8694
asion	-8695
▁devot	-8696
▁realised	-8697
▁alarm	-8698
ariness	-8699
▁eastern	-8700
▁excellence	-8701
▁anticipatory	-8702
▁discretionary	-8703
ugg	-8704
sell	-8705
▁Lad	-8706
inese	-8707
▁cong	-8708
akings	-8709
▁distrib	-8710
▁Guwahati	-8711
edia	-8712
▁ven	-8713
▁Mahe	-8714
▁admits	-8715
▁options	-8716
▁interrog	-8717
VE	-8718
itle	-8719
▁cos	-8720
andra	-8721
▁Russia	-8722
▁cancer	-8723
▁Saraswati	-8724
AND	-8725
▁Vas	-8726
▁mic	-8727
atell	-8728
▁Sang	-8729
▁amen	-8730
▁lung	-8731
▁pist	-8732
▁vent	-8733
▁incon	-8734
▁unlike	-8735
▁convenient	-8736
▁Leave	-8737
▁manip	-8738
▁Castes	-8739
▁matern	-8740
▁Promotion	-8741
▁interfered	-8742
gone	-8743
will	-8744
arkar	-8745
ingly	-8746
▁Sale	-8747
mental	-8748
ronics	-8749
▁Binoy	-8750
▁patri	-8751
▁wider	-8752
▁attacks	-8753
▁corrupt	-8754
▁MM	-8755
ache	-8756
▁Bach	-8757
▁divide	-8758
▁Consumer	-8759
▁settings	-8760
▁wherever	-8761
▁collective	-8762
▁subt	-8763
▁aspir	-8764
▁literal	-8765
▁attempts	-8766
▁contributed	-8767
▁manufactured	-8768
▁productivity	-8769
▁simultaneously	-8770
ys	-8771
grim	-8772
▁bat	-8773
stone	-8774
▁Card	-8775
▁Ahmad	-8776
▁weigh	-8777
▁Inquiry	-8778
▁Instead	-8779
▁secular	-8780
▁Controller	-8781
▁Departments	-8782
AK	-8783
AGE	-8784
▁MC	-8785
▁spr	-8786
▁Dharm	-8787
▁securing	-8788
▁Employees	-8789
▁assurance	-8790
▁ju	-8791
care	-8792
vastava	-8793
▁decade	-8794
▁deleted	-8795
▁implementing	-8796
▁RBI	-8797
▁insured	-8798
▁accorded	-8799
▁Nig	-8800
▁Sab	-8801
ginal	-8802
▁Level	-8803
▁YEARS	-8804
▁bribe	-8805
▁comprising	-8806
mon	-8807
aked	-8808
▁bact	-8809
▁grew	-8810
▁Durga	-8811
▁cease	-8812
▁gratuity	-8813
▁desirable	-8814
▁Afghanistan	-8815
▁limitations	-8816
hew	-8817
aterial	-8818
▁devoid	-8819
▁electric	-8820
▁recognize	-8821
▁remarkable	-8822
▁suspicious	-8823
▁Norm	-8824
▁chrom	-8825
▁diverse	-8826
▁feelings	-8827
▁qualities	-8828
▁institutional	-8829
isal	-8830
▁mit	-8831
▁tub	-8832
arwal	-8833
▁fate	-8834
▁sear	-8835
▁eminent	-8836
▁inadequ	-8837
bursement	-8838
▁gradually	-8839
pad	-8840
rain	-8841
▁Sever	-8842
▁Vivek	-8843
▁thumb	-8844
▁waters	-8845
▁yourself	-8846
▁commodities	-8847
DP	-8848
emark	-8849
▁Sign	-8850
▁Vedic	-8851
▁breast	-8852
▁laboure	-8853
▁directors	-8854
▁qualifying	-8855
▁fron	-8856
▁League	-8857
▁errors	-8858
▁regime	-8859
oked	-8860
▁Nare	-8861
▁Market	-8862
▁pursue	-8863
▁partial	-8864
▁internet	-8865
respondent	-8866
▁operational	-8867
▁urge	-8868
▁goals	-8869
itative	-8870
▁prayers	-8871
▁displayed	-8872
oop	-8873
anes	-8874
▁Occ	-8875
aniel	-8876
▁Ajay	-8877
▁Start	-8878
▁torture	-8879
▁completing	-8880
▁passengers	-8881
▁preference	-8882
inces	-8883
▁tong	-8884
▁incom	-8885
▁afraid	-8886
▁Chinese	-8887
▁affects	-8888
▁unconscious	-8889
▁continuously	-8890
CO	-8891
▁Kor	-8892
▁UGC	-8893
▁shr	-8894
ipher	-8895
▁Turk	-8896
▁sixty	-8897
ologist	-8898
▁signal	-8899
▁solutions	-8900
▁trademark	-8901
▁allocation	-8902
BS	-8903
atre	-8904
▁cam	-8905
▁bids	-8906
▁Reform	-8907
▁Hold	-8908
▁drag	-8909
▁convinced	-8910
▁entertainment	-8911
SI	-8912
▁APP	-8913
anchi	-8914
sions	-8915
▁drew	-8916
▁shut	-8917
▁Raman	-8918
▁stones	-8919
▁commerce	-8920
ouch	-8921
▁Five	-8922
▁conj	-8923
▁audio	-8924
▁Energy	-8925
▁organs	-8926
▁Building	-8927
▁evidences	-8928
rosy	-8929
▁Hand	-8930
▁airc	-8931
erosene	-8932
▁bridge	-8933
▁images	-8934
▁observing	-8935
zen	-8936
▁Max	-8937
▁ocean	-8938
▁Export	-8939
▁enables	-8940
▁subscribe	-8941
▁artificial	-8942
▁flex	-8943
chnama	-8944
▁Guarant	-8945
▁Natural	-8946
▁devices	-8947
▁violent	-8948
▁achieving	-8949
▁incumbent	-8950
▁physically	-8951
▁submitting	-8952
▁od	-8953
▁Kann	-8954
▁fluid	-8955
▁Shukla	-8956
▁bidders	-8957
▁logical	-8958
▁finality	-8959
▁accompany	-8960
▁tor	-8961
▁pock	-8962
▁Audit	-8963
▁outset	-8964
▁Kishore	-8965
▁plastic	-8966
▁symptoms	-8967
▁followers	-8968
▁predecess	-8969
▁previously	-8970
▁supervision	-8971
▁Bro	-8972
▁Dil	-8973
▁nerv	-8974
▁sword	-8975
▁anywhere	-8976
▁supports	-8977
EG	-8978
asks	-8979
tical	-8980
▁View	-8981
▁verse	-8982
▁Registry	-8983
▁traditions	-8984
▁tro	-8985
▁frust	-8986
▁rough	-8987
▁fallen	-8988
▁repair	-8989
▁Several	-8990
▁wearing	-8991
▁Likewise	-8992
▁propriet	-8993
▁currently	-8994
▁Naz	-8995
▁kit	-8996
▁Docu	-8997
▁phrase	-8998
▁considers	-8999
▁excessive	-9000
oul	-9001
▁mig	-9002
▁fasc	-9003
▁index	-9004
▁spend	-9005
▁Comment	-9006
▁insofar	-9007
unication	-9008
▁inferior	-9009
▁soldiers	-9010
▁aggregate	-9011
▁CL	-9012
apore	-9013
▁bread	-9014
▁stored	-9015
▁kilomet	-9016
▁download	-9017
▁insisted	-9018
▁scenario	-9019
▁achievement	-9020
▁obst	-9021
incial	-9022
▁Earth	-9023
▁sleeping	-9024
▁tendered	-9025
▁declaring	-9026
▁enumerated	-9027
▁remembered	-9028
▁Wa	-9029
▁gall	-9030
aughter	-9031
▁Province	-9032
▁fighting	-9033
▁universe	-9034
▁undisputed	-9035
ulpt	-9036
▁yellow	-9037
▁managing	-9038
▁possibly	-9039
▁collecting	-9040
quar	-9041
uran	-9042
▁pig	-9043
unath	-9044
▁Siva	-9045
▁prote	-9046
istries	-9047
▁gained	-9048
▁absorption	-9049
▁imperative	-9050
▁expressions	-9051
▁row	-9052
▁Care	-9053
▁Chat	-9054
▁doub	-9055
▁Green	-9056
▁Shyam	-9057
▁Orders	-9058
▁Bharati	-9059
▁expectation	-9060
sha	-9061
▁Kav	-9062
▁oppon	-9063
ustainable	-9064
▁subsection	-9065
rete	-9066
what	-9067
▁Debt	-9068
▁Asian	-9069
▁rooms	-9070
▁invoke	-9071
▁emotional	-9072
▁conclusive	-9073
▁probability	-9074
▁Dig	-9075
▁tied	-9076
▁accum	-9077
▁Number	-9078
▁bleeding	-9079
▁Foundation	-9080
▁contradiction	-9081
▁Chau	-9082
▁feels	-9083
▁agents	-9084
▁staying	-9085
▁frequently	-9086
St	-9087
▁Opp	-9088
▁redress	-9089
▁elaborate	-9090
▁indirectly	-9091
▁Enterprises	-9092
▁CC	-9093
▁Kol	-9094
▁Pune	-9095
▁treas	-9096
▁verses	-9097
▁visiting	-9098
otal	-9099
zing	-9100
▁COM	-9101
▁Dra	-9102
assed	-9103
unate	-9104
▁Times	-9105
▁George	-9106
▁infinite	-9107
▁meantime	-9108
iques	-9109
▁Never	-9110
▁Polit	-9111
▁Shiva	-9112
▁motiv	-9113
▁appreciating	-9114
▁Roh	-9115
▁abet	-9116
cation	-9117
▁forty	-9118
▁reader	-9119
iculture	-9120
▁periods	-9121
▁reserve	-9122
▁eventually	-9123
▁destination	-9124
ainty	-9125
▁pair	-9126
▁unsu	-9127
▁......	-9128
▁Academ	-9129
▁Mughal	-9130
▁Keeping	-9131
▁resistance	-9132
▁television	-9133
▁AY	-9134
▁NC	-9135
▁Deg	-9136
▁apt	-9137
▁hurt	-9138
▁onus	-9139
▁trem	-9140
▁deriv	-9141
resident	-9142
▁Britain	-9143
▁interlocutory	-9144
▁UT	-9145
▁Mean	-9146
▁solve	-9147
▁Ganesh	-9148
▁varied	-9149
▁Arbitral	-9150
▁sensitive	-9151
▁allowances	-9152
eli	-9153
▁Gir	-9154
▁Band	-9155
▁judic	-9156
▁Unless	-9157
▁lawyers	-9158
▁Appellants	-9159
iae	-9160
▁NI	-9161
▁Str	-9162
▁prays	-9163
adation	-9164
▁rulers	-9165
▁onwards	-9166
▁electoral	-9167
▁enhancement	-9168
▁diagn	-9169
▁disag	-9170
▁realise	-9171
▁sovereign	-9172
▁experiment	-9173
▁monitoring	-9174
▁credibility	-9175
hin	-9176
iam	-9177
uni	-9178
var	-9179
asis	-9180
arita	-9181
▁Mach	-9182
▁meat	-9183
▁Autom	-9184
▁pipes	-9185
▁update	-9186
▁obliged	-9187
aboration	-9188
▁competence	-9189
▁repeatedly	-9190
▁Organization	-9191
comm	-9192
▁via	-9193
ensed	-9194
peror	-9195
▁Misc	-9196
▁Tata	-9197
▁Benef	-9198
▁label	-9199
▁surpl	-9200
▁Commerce	-9201
▁jurisprudence	-9202
▁Gora	-9203
ipping	-9204
▁Basic	-9205
▁Distt	-9206
▁argue	-9207
▁remun	-9208
▁scales	-9209
▁ornaments	-9210
▁transparent	-9211
▁rig	-9212
ifiable	-9213
▁metres	-9214
▁pistol	-9215
▁excellent	-9216
▁intimation	-9217
▁parliamentary	-9218
▁Und	-9219
▁Soft	-9220
▁pled	-9221
▁sculpt	-9222
▁coupled	-9223
▁Standard	-9224
▁permitting	-9225
▁clarification	-9226
UT	-9227
mic	-9228
▁cav	-9229
plete	-9230
▁abund	-9231
▁fever	-9232
▁poetic	-9233
▁speedy	-9234
▁fixation	-9235
▁advocates	-9236
▁Disciplinary	-9237
Rs	-9238
▁van	-9239
▁gods	-9240
▁tempor	-9241
▁enjoyment	-9242
▁hereunder	-9243
▁restraint	-9244
▁sentences	-9245
▁consonance	-9246
▁resignation	-9247
▁Ji	-9248
ogen	-9249
atern	-9250
▁backd	-9251
▁Chrome	-9252
▁enjoyed	-9253
▁parallel	-9254
▁delegation	-9255
▁exceptions	-9256
RS	-9257
we	-9258
▁CIT	-9259
▁Nay	-9260
▁mel	-9261
▁bats	-9262
▁busy	-9263
father	-9264
▁pound	-9265
▁bottle	-9266
▁factum	-9267
▁nomine	-9268
▁Maharaja	-9269
▁grievances	-9270
▁Conc	-9271
▁score	-9272
fulness	-9273
▁France	-9274
▁ending	-9275
▁insert	-9276
▁remedies	-9277
▁vegetables	-9278
▁discrepancies	-9279
ki	-9280
▁Death	-9281
▁Mahto	-9282
▁preval	-9283
▁supervis	-9284
▁classified	-9285
No	-9286
uti	-9287
vol	-9288
quest	-9289
▁myth	-9290
▁Bhatt	-9291
▁headed	-9292
▁Consult	-9293
▁reflects	-9294
▁stations	-9295
▁contested	-9296
▁municipal	-9297
▁communications	-9298
how	-9299
▁Bhav	-9300
▁Ravi	-9301
ivided	-9302
▁Odish	-9303
ilation	-9304
▁Vaishn	-9305
▁handic	-9306
lessness	-9307
▁greatly	-9308
▁asserted	-9309
▁Australia	-9310
▁suspended	-9311
▁technique	-9312
▁SA	-9313
DUCT	-9314
book	-9315
▁Bag	-9316
oices	-9317
▁pool	-9318
earing	-9319
▁Enable	-9320
▁degrees	-9321
▁channels	-9322
▁locality	-9323
itud	-9324
▁NAB	-9325
▁coord	-9326
▁Finally	-9327
works	-9328
▁Cases	-9329
▁Sales	-9330
▁crimes	-9331
▁honest	-9332
▁nowhere	-9333
▁kerosene	-9334
oes	-9335
▁Modi	-9336
ensing	-9337
examin	-9338
▁Return	-9339
▁adding	-9340
▁prince	-9341
▁administr	-9342
▁mechanical	-9343
oram	-9344
▁Tehs	-9345
▁reop	-9346
▁tail	-9347
▁Manoj	-9348
atabase	-9349
▁Ayurved	-9350
▁Fo	-9351
▁Ru	-9352
▁Deb	-9353
uated	-9354
▁Amar	-9355
▁NAME	-9356
▁Next	-9357
▁Mehta	-9358
▁logic	-9359
ableness	-9360
▁pilgrim	-9361
▁turning	-9362
▁marginal	-9363
▁dismissing	-9364
▁arbitrariness	-9365
rad	-9366
enda	-9367
▁raj	-9368
▁stim	-9369
▁Dinesh	-9370
▁Kanpur	-9371
▁hidden	-9372
▁foregoing	-9373
▁intermedi	-9374
▁undergone	-9375
▁subsidiary	-9376
१५	-9377
▁cod	-9378
entle	-9379
▁Farm	-9380
▁touc	-9381
▁Pratap	-9382
▁emerge	-9383
▁defines	-9384
▁Metropolitan	-9385
▁Nat	-9386
atrix	-9387
xygen	-9388
▁Plant	-9389
▁depre	-9390
▁Turkey	-9391
▁Support	-9392
▁delight	-9393
▁mandapa	-9394
▁functional	-9395
▁correspondence	-9396
▁Dav	-9397
▁rom	-9398
atisf	-9399
▁Need	-9400
▁dust	-9401
▁Chandigarh	-9402
▁assailants	-9403
▁beneficiary	-9404
umes	-9405
▁Bij	-9406
▁gif	-9407
▁Coal	-9408
▁curt	-9409
▁hills	-9410
arriage	-9411
▁Kingdom	-9412
▁accrued	-9413
▁resorted	-9414
▁conformity	-9415
▁composition	-9416
▁notifications	-9417
Ch	-9418
eas	-9419
▁Rani	-9420
terday	-9421
▁accus	-9422
ichever	-9423
▁shoulder	-9424
▁Knowledge	-9425
▁eve	-9426
▁mad	-9427
▁ties	-9428
iguous	-9429
▁overt	-9430
▁shaped	-9431
▁conveyed	-9432
ECT	-9433
▁Naw	-9434
acent	-9435
oking	-9436
▁beaten	-9437
▁serial	-9438
▁Persons	-9439
▁Lecturer	-9440
▁Laboratory	-9441
▁hesitation	-9442
hal	-9443
ahan	-9444
ashi	-9445
▁nin	-9446
gence	-9447
ipped	-9448
▁holy	-9449
▁Mobile	-9450
▁Odisha	-9451
▁ignore	-9452
▁rising	-9453
▁tourism	-9454
▁somewhat	-9455
▁pregnancy	-9456
▁contesting	-9457
ANG	-9458
▁salt	-9459
rative	-9460
▁loose	-9461
atories	-9462
inations	-9463
▁adopting	-9464
udge	-9465
▁mine	-9466
▁enorm	-9467
▁valley	-9468
▁arrival	-9469
▁Hinduism	-9470
▁elsewhere	-9471
▁Dictionary	-9472
▁deliberate	-9473
▁unauthorized	-9474
▁technological	-9475
eer	-9476
▁semi	-9477
▁tube	-9478
▁adversely	-9479
▁strategic	-9480
ML	-9481
aved	-9482
judicial	-9483
▁eternal	-9484
▁finished	-9485
▁diversity	-9486
▁constantly	-9487
▁pup	-9488
▁Black	-9489
▁circle	-9490
▁tourist	-9491
▁prescribe	-9492
▁innovative	-9493
▁transformation	-9494
▁htt	-9495
▁quo	-9496
chant	-9497
▁miss	-9498
▁White	-9499
▁deity	-9500
▁detenue	-9501
▁handling	-9502
▁administer	-9503
▁achievements	-9504
▁NG	-9505
onic	-9506
veer	-9507
allan	-9508
▁Desh	-9509
▁dear	-9510
▁Relig	-9511
▁genes	-9512
▁repos	-9513
▁Search	-9514
▁atomic	-9515
▁smooth	-9516
▁Chemical	-9517
ims	-9518
iter	-9519
life	-9520
▁ped	-9521
ammed	-9522
iders	-9523
▁inad	-9524
▁node	-9525
▁Liquid	-9526
▁utmost	-9527
▁Address	-9528
▁utility	-9529
▁whichever	-9530
▁architecture	-9531
vals	-9532
edience	-9533
osition	-9534
▁muscle	-9535
▁separated	-9536
▁incidental	-9537
▁CA	-9538
husi	-9539
orous	-9540
▁Caste	-9541
▁unequ	-9542
▁flight	-9543
▁sorrow	-9544
▁surplus	-9545
▁vessels	-9546
▁guarantees	-9547
OUT	-9548
ibi	-9549
▁IV	-9550
▁Goa	-9551
avior	-9552
▁pond	-9553
▁delic	-9554
▁NABARD	-9555
▁PRODUCT	-9556
▁designs	-9557
▁interpret	-9558
▁enterprises	-9559
▁characteristics	-9560
was	-9561
▁Fil	-9562
▁enun	-9563
ulative	-9564
▁golden	-9565
▁tendency	-9566
▁attending	-9567
urd	-9568
▁Sem	-9569
orious	-9570
ortium	-9571
▁Arora	-9572
▁grace	-9573
▁penet	-9574
▁stuff	-9575
ailable	-9576
▁saving	-9577
▁firstly	-9578
▁radical	-9579
▁undoubtedly	-9580
iser	-9581
▁IST	-9582
▁hal	-9583
▁lamp	-9584
▁Islamist	-9585
▁Tribunals	-9586
▁amounting	-9587
▁constitutes	-9588
ALL	-9589
ayas	-9590
▁Age	-9591
compl	-9592
hered	-9593
▁Mall	-9594
▁decre	-9595
▁emerges	-9596
▁arriving	-9597
▁weakness	-9598
▁travelling	-9599
▁Cy	-9600
▁Taj	-9601
▁nav	-9602
▁Flag	-9603
▁metal	-9604
▁ultra	-9605
▁Taking	-9606
▁Perhaps	-9607
▁oriented	-9608
▁automatic	-9609
▁demanding	-9610
▁references	-9611
▁civilization	-9612
▁entrepreneur	-9613
▁Til	-9614
▁cant	-9615
▁grain	-9616
▁mould	-9617
▁wheat	-9618
▁Establ	-9619
▁escaped	-9620
▁silence	-9621
▁removing	-9622
▁Ordinance	-9623
▁successor	-9624
▁virtually	-9625
▁strengthening	-9626
The	-9627
▁Nil	-9628
▁Radh	-9629
▁Sukh	-9630
uniary	-9631
▁inputs	-9632
▁fraudulent	-9633
▁exploitation	-9634
▁characteristic	-9635
▁smt	-9636
agger	-9637
▁Sury	-9638
▁angle	-9639
▁silver	-9640
▁Conduct	-9641
▁Highway	-9642
▁contrast	-9643
▁invested	-9644
▁translated	-9645
▁Muh	-9646
▁tow	-9647
eties	-9648
▁plots	-9649
▁Subject	-9650
▁victory	-9651
▁Advisory	-9652
dh	-9653
HAR	-9654
ria	-9655
▁Six	-9656
▁abd	-9657
kumar	-9658
▁German	-9659
▁Insofar	-9660
▁enthusi	-9661
▁repealed	-9662
▁expertise	-9663
▁safeguard	-9664
▁testatrix	-9665
▁inevitable	-9666
gal	-9667
orry	-9668
▁SRI	-9669
▁rhy	-9670
▁Conn	-9671
▁keen	-9672
lessly	-9673
ompany	-9674
▁Bills	-9675
▁Liter	-9676
▁roots	-9677
▁Mahesh	-9678
▁thread	-9679
▁verify	-9680
▁disturbed	-9681
▁indication	-9682
▁Secretariat	-9683
▁transparency	-9684
fl	-9685
▁dh	-9686
place	-9687
▁Cult	-9688
▁losses	-9689
▁harvest	-9690
▁kingdom	-9691
▁aircraft	-9692
▁overcome	-9693
▁reducing	-9694
▁mountains	-9695
▁techniques	-9696
enn	-9697
char	-9698
heet	-9699
▁swe	-9700
▁lect	-9701
orders	-9702
▁pride	-9703
istical	-9704
▁Online	-9705
▁disreg	-9706
▁palace	-9707
▁realize	-9708
▁Ramayana	-9709
▁Engineers	-9710
▁consequent	-9711
▁contending	-9712
▁transferee	-9713
▁apprehended	-9714
▁ascertained	-9715
▁prejudicial	-9716
▁PWs	-9717
▁erst	-9718
▁redu	-9719
▁towns	-9720
▁vires	-9721
▁seller	-9722
▁computers	-9723
▁furtherance	-9724
▁administered	-9725
chen	-9726
osity	-9727
ounter	-9728
▁quote	-9729
▁rebut	-9730
▁usage	-9731
▁editor	-9732
▁specim	-9733
▁conting	-9734
▁exhibit	-9735
▁imports	-9736
▁elephant	-9737
▁entities	-9738
▁overlook	-9739
resentation	-9740
kin	-9741
iger	-9742
▁hun	-9743
▁Poll	-9744
▁Hasan	-9745
▁exclude	-9746
▁calendar	-9747
▁inclusion	-9748
imb	-9749
wide	-9750
▁unp	-9751
▁bind	-9752
version	-9753
iliation	-9754
▁scholar	-9755
▁independently	-9756
▁participating	-9757
ORE	-9758
▁Alm	-9759
▁Bhai	-9760
▁buff	-9761
▁Merely	-9762
▁rushed	-9763
▁disorder	-9764
itya	-9765
power	-9766
rants	-9767
▁Cross	-9768
▁Ghosh	-9769
▁Charge	-9770
▁Letter	-9771
▁voters	-9772
▁decreed	-9773
▁imagine	-9774
▁realized	-9775
▁Singapore	-9776
▁childhood	-9777
US	-9778
usp	-9779
adra	-9780
▁Bid	-9781
▁reck	-9782
▁wick	-9783
advant	-9784
icable	-9785
orship	-9786
inatory	-9787
▁Circle	-9788
▁absorbed	-9789
▁Bul	-9790
herry	-9791
▁decor	-9792
▁homes	-9793
▁Harish	-9794
▁parade	-9795
▁juncture	-9796
▁pictures	-9797
▁adjustment	-9798
▁handwriting	-9799
co	-9800
pus	-9801
outs	-9802
▁Adh	-9803
▁refuge	-9804
▁backdrop	-9805
▁misappropri	-9806
ugu	-9807
▁CO	-9808
erer	-9809
▁pul	-9810
▁Make	-9811
▁ante	-9812
▁fash	-9813
▁older	-9814
▁toler	-9815
▁stretch	-9816
▁Computer	-9817
▁Lordships	-9818
▁concealed	-9819
▁prospective	-9820
his	-9821
lar	-9822
ktop	-9823
▁Mys	-9824
▁Kath	-9825
▁dies	-9826
▁Punjabi	-9827
▁passport	-9828
▁occurring	-9829
▁positions	-9830
▁rejoinder	-9831
▁investigated	-9832
wad	-9833
▁fly	-9834
▁Gita	-9835
▁Mant	-9836
▁Table	-9837
▁cater	-9838
▁Indira	-9839
▁Scient	-9840
▁Product	-9841
▁legality	-9842
▁discarded	-9843
▁erstwhile	-9844
jit	-9845
acing	-9846
▁Chit	-9847
▁Gree	-9848
▁Sahib	-9849
▁harmon	-9850
▁safely	-9851
▁beating	-9852
▁disposs	-9853
▁searched	-9854
▁acquiring	-9855
▁impartial	-9856
▁Drug	-9857
▁cards	-9858
▁faces	-9859
▁Follow	-9860
▁Telang	-9861
hibition	-9862
▁describe	-9863
▁preserve	-9864
▁Presiding	-9865
▁Governance	-9866
▁institutes	-9867
ardb	-9868
▁Hal	-9869
▁Kun	-9870
ashed	-9871
▁thin	-9872
▁chose	-9873
▁flour	-9874
▁bodily	-9875
▁urgent	-9876
▁tremend	-9877
▁prisoner	-9878
▁differently	-9879
▁amalgamation	-9880
met	-9881
▁listen	-9882
▁taxation	-9883
▁experiences	-9884
iat	-9885
▁ma	-9886
endix	-9887
▁Vehic	-9888
▁conced	-9889
▁passes	-9890
▁shadow	-9891
▁printing	-9892
▁complained	-9893
NAME	-9894
▁Did	-9895
archy	-9896
▁tape	-9897
▁milit	-9898
▁Condition	-9899
▁regulatory	-9900
▁approaching	-9901
AJ	-9902
▁Mac	-9903
▁array	-9904
▁Academy	-9905
▁adjourn	-9906
▁remarks	-9907
▁enclosed	-9908
▁progressive	-9909
▁continuation	-9910
EF	-9911
atti	-9912
cers	-9913
gaon	-9914
mans	-9915
arest	-9916
▁lieu	-9917
▁Joshi	-9918
▁wheel	-9919
olished	-9920
▁Global	-9921
▁compan	-9922
▁helping	-9923
▁fertiliz	-9924
▁affiliation	-9925
br	-9926
ART	-9927
▁wing	-9928
▁Saroj	-9929
▁meter	-9930
▁shrine	-9931
iversary	-9932
▁reporting	-9933
▁experienced	-9934
▁Construction	-9935
auc	-9936
asim	-9937
eena	-9938
illy	-9939
want	-9940
▁Tour	-9941
onation	-9942
▁Chauhan	-9943
▁pronounced	-9944
▁entitlement	-9945
▁registering	-9946
▁geographical	-9947
aria	-9948
iries	-9949
▁Gaut	-9950
stated	-9951
▁afresh	-9952
▁relies	-9953
▁horizon	-9954
▁praying	-9955
▁survive	-9956
▁precious	-9957
▁marriages	-9958
▁incomplete	-9959
▁acknowledged	-9960
rin	-9961
▁Vi	-9962
▁vim	-9963
omous	-9964
semin	-9965
▁Baba	-9966
▁Prad	-9967
▁turns	-9968
ineness	-9969
▁handle	-9970
▁lowest	-9971
▁Marathi	-9972
▁gravity	-9973
▁subsidy	-9974
▁Forensic	-9975
▁accounting	-9976
▁deficiency	-9977
kal	-9978
onym	-9979
▁Dri	-9980
▁eld	-9981
abhai	-9982
▁News	-9983
▁vice	-9984
▁films	-9985
▁Jagann	-9986
appellants	-9987
▁Petitions	-9988
▁disadvant	-9989
▁financing	-9990
▁reinstatement	-9991
▁ine	-9992
orted	-9993
▁Till	-9994
▁bold	-9995
▁peas	-9996
▁plug	-9997
▁scre	-9998
▁commun	-9999
▁strang	-10000
▁profile	-10001
▁surgery	-10002
▁Parishad	-10003
▁studying	-10004
▁utilized	-10005
▁prisoners	-10006
agi	-10007
das	-10008
wani	-10009
▁Paul	-10010
▁Amrit	-10011
▁Pursu	-10012
▁picked	-10013
▁suppressed	-10014
▁prescription	-10015
HER	-10016
stig	-10017
wing	-10018
adevi	-10019
▁Kesh	-10020
▁Mahal	-10021
▁Vinod	-10022
parable	-10023
▁Narain	-10024
▁guided	-10025
▁shelter	-10026
▁machines	-10027
▁Kaur	-10028
▁fairness	-10029
▁litigant	-10030
▁utilised	-10031
▁Puri	-10032
▁Srin	-10033
▁rear	-10034
▁stre	-10035
▁bones	-10036
▁highl	-10037
▁boundary	-10038
▁refusing	-10039
asted	-10040
▁summer	-10041
▁inspire	-10042
▁coloured	-10043
▁cooperative	-10044
▁genuineness	-10045
orrh	-10046
▁vig	-10047
▁player	-10048
▁Marketing	-10049
▁ministers	-10050
▁practition	-10051
▁adjudicated	-10052
▁Mill	-10053
gments	-10054
▁Limitation	-10055
▁territories	-10056
di	-10057
▁SL	-10058
▁ly	-10059
▁Vers	-10060
▁synt	-10061
▁tall	-10062
ushing	-10063
▁forfe	-10064
▁Basava	-10065
▁assemb	-10066
▁ceased	-10067
▁titled	-10068
quarters	-10069
▁dynamic	-10070
▁procure	-10071
▁sympathy	-10072
▁excluding	-10073
▁surrounded	-10074
van	-10075
oves	-10076
▁Hall	-10077
▁unus	-10078
illary	-10079
▁Ident	-10080
▁split	-10081
▁Arabic	-10082
▁Swaraj	-10083
▁reward	-10084
estation	-10085
▁counted	-10086
▁hundreds	-10087
▁turnover	-10088
▁assertion	-10089
▁undivided	-10090
▁highlighted	-10091
▁restraining	-10092
▁consistently	-10093
lock	-10094
▁Anti	-10095
▁wake	-10096
▁lodge	-10097
▁width	-10098
▁novels	-10099
▁Mohammed	-10100
▁assailed	-10101
▁defeated	-10102
▁continuance	-10103
lor	-10104
▁OR	-10105
▁ww	-10106
▁End	-10107
▁Bhut	-10108
▁Phot	-10109
▁algor	-10110
▁paddy	-10111
▁castes	-10112
▁eating	-10113
▁firmly	-10114
▁retail	-10115
▁tongue	-10116
▁Jagdish	-10117
▁propose	-10118
▁rapidly	-10119
▁configuration	-10120
son	-10121
ums	-10122
▁AN	-10123
▁NH	-10124
eyan	-10125
idavit	-10126
ruddin	-10127
▁adhere	-10128
▁ideals	-10129
▁calculation	-10130
▁stakeholders	-10131
bre	-10132
anim	-10133
cane	-10134
alaya	-10135
cence	-10136
pless	-10137
▁Vict	-10138
▁meal	-10139
▁parcel	-10140
iciaries	-10141
▁dropped	-10142
▁goddess	-10143
▁programs	-10144
▁indigenous	-10145
▁negotiations	-10146
utch	-10147
▁Jal	-10148
▁cin	-10149
▁www	-10150
rance	-10151
▁Youn	-10152
▁click	-10153
▁Aurang	-10154
▁availed	-10155
▁discont	-10156
▁library	-10157
▁telling	-10158
▁remanded	-10159
▁slightly	-10160
▁Telangana	-10161
▁perfection	-10162
oma	-10163
▁cm	-10164
dict	-10165
▁Mit	-10166
▁Pas	-10167
▁outl	-10168
▁Saudi	-10169
▁native	-10170
▁goodwill	-10171
▁protecting	-10172
.00	-10173
wood	-10174
▁din	-10175
▁buyer	-10176
▁grants	-10177
▁prevail	-10178
▁inferred	-10179
▁operated	-10180
▁correction	-10181
▁computation	-10182
rogen	-10183
▁Lakh	-10184
▁Dubey	-10185
▁Lanka	-10186
reshold	-10187
▁closer	-10188
▁vulner	-10189
▁tenders	-10190
▁whereof	-10191
▁Muhammad	-10192
▁forcibly	-10193
▁clearance	-10194
▁delegated	-10195
ECH	-10196
agra	-10197
airy	-10198
▁Bir	-10199
utosh	-10200
▁Sudh	-10201
▁Major	-10202
▁Steel	-10203
ammation	-10204
▁produces	-10205
▁Mahabharata	-10206
asha	-10207
▁inhab	-10208
▁delete	-10209
▁closure	-10210
▁railways	-10211
▁remuneration	-10212
eem	-10213
ori	-10214
▁tang	-10215
▁clock	-10216
▁Action	-10217
ointment	-10218
▁ceiling	-10219
▁defects	-10220
▁walking	-10221
▁mandamus	-10222
▁expeditiously	-10223
▁revolutionary	-10224
haz	-10225
kind	-10226
rich	-10227
▁Huss	-10228
▁bags	-10229
▁Obama	-10230
▁summar	-10231
▁Meeting	-10232
▁prestig	-10233
▁abnormal	-10234
▁advances	-10235
▁therefrom	-10236
▁electrical	-10237
▁interfering	-10238
▁realisation	-10239
ste	-10240
omal	-10241
▁Rub	-10242
▁rat	-10243
▁ABOUT	-10244
▁dress	-10245
▁shell	-10246
▁altered	-10247
▁audience	-10248
▁interface	-10249
▁Jur	-10250
▁boat	-10251
▁brown	-10252
▁Bhagat	-10253
▁cement	-10254
▁culmin	-10255
ifferent	-10256
▁Current	-10257
▁detaining	-10258
▁complicated	-10259
ford	-10260
eenth	-10261
▁Amit	-10262
▁Sach	-10263
▁menu	-10264
▁sees	-10265
▁trap	-10266
atable	-10267
▁Medic	-10268
▁slowly	-10269
▁Buddhist	-10270
▁Pursuant	-10271
▁actively	-10272
▁computed	-10273
▁estimate	-10274
▁expanded	-10275
▁departure	-10276
▁separation	-10277
▁controlling	-10278
▁generations	-10279
ukh	-10280
side	-10281
▁Log	-10282
▁Nal	-10283
▁Dwark	-10284
▁Indore	-10285
▁models	-10286
▁sheets	-10287
▁Reforms	-10288
▁Recruitment	-10289
▁congratulate	-10290
haw	-10291
▁idol	-10292
▁domin	-10293
▁Except	-10294
▁oxygen	-10295
▁posting	-10296
▁surprise	-10297
UB	-10298
down	-10299
▁Thir	-10300
▁Check	-10301
▁Madan	-10302
▁broke	-10303
▁rests	-10304
▁wrongful	-10305
▁enforceable	-10306
▁manufacturers	-10307
alat	-10308
▁Nam	-10309
arati	-10310
▁Kail	-10311
▁Sank	-10312
isable	-10313
▁misrep	-10314
▁Airport	-10315
▁Software	-10316
▁dishonest	-10317
oa	-10318
▁Sha	-10319
▁vib	-10320
amble	-10321
itors	-10322
▁Rath	-10323
▁Vire	-10324
istent	-10325
terior	-10326
▁Canada	-10327
▁invite	-10328
▁pregnant	-10329
▁Territory	-10330
▁describes	-10331
▁charitable	-10332
▁requesting	-10333
▁Bil	-10334
▁pow	-10335
cause	-10336
▁Sahu	-10337
▁Malay	-10338
▁owing	-10339
▁islands	-10340
▁reverse	-10341
▁mathemat	-10342
▁mutation	-10343
▁commodity	-10344
▁offending	-10345
▁everywhere	-10346
▁possessing	-10347
qf	-10348
yar	-10349
▁Ish	-10350
State	-10351
▁Save	-10352
▁blows	-10353
▁doors	-10354
▁Create	-10355
▁ocular	-10356
▁Colleges	-10357
▁consumed	-10358
▁detained	-10359
▁prevalent	-10360
▁variation	-10361
▁impermissible	-10362
UN	-10363
uma	-10364
▁Haz	-10365
▁Mer	-10366
▁Que	-10367
▁Sov	-10368
idency	-10369
▁Prior	-10370
▁worshi	-10371
▁Bhagwan	-10372
▁flowing	-10373
▁vacated	-10374
▁Guarantee	-10375
▁dissolution	-10376
oi	-10377
lat	-10378
▁NE	-10379
olic	-10380
▁Trip	-10381
▁wings	-10382
verting	-10383
▁Ranchi	-10384
▁Telugu	-10385
▁empire	-10386
examined	-10387
▁savings	-10388
▁boundaries	-10389
▁tremendous	-10390
▁Municipality	-10391
▁da	-10392
agon	-10393
ayuk	-10394
▁Tre	-10395
▁Ball	-10396
▁Khat	-10397
▁worn	-10398
▁brand	-10399
▁genus	-10400
▁Brahma	-10401
▁Empire	-10402
▁confron	-10403
ciliation	-10404
▁labourers	-10405
▁organisms	-10406
▁pecuniary	-10407
▁collaboration	-10408
zy	-10409
ino	-10410
sar	-10411
isan	-10412
khar	-10413
olving	-10414
▁Grade	-10415
▁nerve	-10416
▁tooth	-10417
▁worry	-10418
▁confisc	-10419
▁exposed	-10420
▁mailing	-10421
▁interaction	-10422
▁examinations	-10423
TP	-10424
▁Kot	-10425
▁Rece	-10426
asters	-10427
▁lathi	-10428
▁deploy	-10429
▁lessee	-10430
▁respond	-10431
▁yesterday	-10432
▁beneficiaries	-10433
SP	-10434
▁Rup	-10435
▁gang	-10436
▁snow	-10437
▁miles	-10438
▁Chaudh	-10439
▁dividend	-10440
▁respects	-10441
▁passenger	-10442
▁Investment	-10443
▁commencing	-10444
aha	-10445
lin	-10446
xic	-10447
▁MO	-10448
▁Gaj	-10449
▁forb	-10450
▁intr	-10451
▁Short	-10452
▁spell	-10453
▁truck	-10454
▁Claims	-10455
▁ignoring	-10456
▁answering	-10457
▁subjective	-10458
▁irregularities	-10459
ador	-10460
ffee	-10461
sman	-10462
▁ice	-10463
osite	-10464
▁Bagh	-10465
▁Mess	-10466
▁rose	-10467
▁thro	-10468
placed	-10469
▁ample	-10470
▁homic	-10471
▁lists	-10472
▁locus	-10473
▁lover	-10474
▁Krishn	-10475
▁Manipur	-10476
▁farming	-10477
▁intense	-10478
▁entirety	-10479
▁quarters	-10480
▁stability	-10481
▁Federation	-10482
▁conservation	-10483
emat	-10484
▁nexus	-10485
▁feeding	-10486
▁unsustainable	-10487
asp	-10488
▁FD	-10489
▁IIT	-10490
▁gro	-10491
eches	-10492
ulsion	-10493
▁Grant	-10494
▁indef	-10495
▁tells	-10496
▁chromos	-10497
▁devoted	-10498
▁appended	-10499
▁inability	-10500
▁repayment	-10501
iki	-10502
olu	-10503
▁AR	-10504
▁RO	-10505
▁insu	-10506
▁nose	-10507
rowser	-10508
▁risks	-10509
akrishnan	-10510
▁portions	-10511
▁measurement	-10512
▁Pip	-10513
astri	-10514
being	-10515
▁Bush	-10516
▁Mysore	-10517
▁button	-10518
▁matrix	-10519
▁sisters	-10520
▁theatre	-10521
▁historic	-10522
▁healthcare	-10523
▁Distribution	-10524
▁disproportion	-10525
cut	-10526
apati	-10527
▁Truth	-10528
▁imped	-10529
▁Centres	-10530
▁Deposit	-10531
▁darkness	-10532
▁Resources	-10533
▁copyright	-10534
aco	-10535
gent	-10536
iram	-10537
sees	-10538
▁Wakf	-10539
ciated	-10540
▁adjour	-10541
▁enormous	-10542
▁impleaded	-10543
▁meanwhile	-10544
▁Innovation	-10545
▁demonstrated	-10546
▁discriminatory	-10547
▁Oh	-10548
aryn	-10549
▁quot	-10550
▁Looking	-10551
▁Sucharita	-10552
▁preventive	-10553
▁miscarriage	-10554
emia	-10555
▁Indo	-10556
▁veil	-10557
rupted	-10558
▁Staff	-10559
▁Years	-10560
▁embar	-10561
▁flows	-10562
▁Soviet	-10563
▁kitchen	-10564
▁packets	-10565
▁renewed	-10566
▁licensee	-10567
▁Panchayats	-10568
▁Hard	-10569
▁Push	-10570
▁bore	-10571
▁fake	-10572
▁disob	-10573
attered	-10574
▁eleven	-10575
ardbeyan	-10576
▁obstruct	-10577
▁addresses	-10578
▁instrumental	-10579
▁Nic	-10580
urated	-10581
▁embod	-10582
▁gramm	-10583
▁trace	-10584
▁Manual	-10585
▁frivol	-10586
▁exceeds	-10587
▁breaking	-10588
▁Ce	-10589
▁SI	-10590
▁Ori	-10591
▁tam	-10592
▁Clear	-10593
itarian	-10594
▁Negoti	-10595
▁winter	-10596
atellite	-10597
▁Created	-10598
▁Majesty	-10599
▁musical	-10600
▁disposing	-10601
▁homicidal	-10602
▁derivative	-10603
▁practically	-10604
▁entrepreneurs	-10605
eren	-10606
▁BDA	-10607
▁Sak	-10608
▁Journ	-10609
▁holid	-10610
▁upset	-10611
▁Church	-10612
▁Valley	-10613
▁fracture	-10614
▁IR	-10615
eline	-10616
rolog	-10617
▁desp	-10618
▁pace	-10619
▁Treat	-10620
versity	-10621
▁condol	-10622
▁pestic	-10623
▁Appendix	-10624
▁Community	-10625
▁establishes	-10626
▁unfortunate	-10627
LC	-10628
▁OP	-10629
▁Gas	-10630
oster	-10631
▁tasks	-10632
▁Center	-10633
▁recons	-10634
▁harmful	-10635
▁helpful	-10636
▁disregard	-10637
▁hospitals	-10638
▁proprietor	-10639
UK	-10640
abi	-10641
oga	-10642
▁Sea	-10643
▁vex	-10644
ogram	-10645
opard	-10646
▁epic	-10647
▁pest	-10648
person	-10649
▁Young	-10650
▁Degree	-10651
▁bigger	-10652
▁detected	-10653
▁helpless	-10654
▁restored	-10655
▁Corruption	-10656
▁laboratory	-10657
mail	-10658
▁Init	-10659
alysis	-10660
▁Surat	-10661
▁acute	-10662
▁plate	-10663
▁ruler	-10664
▁Jewish	-10665
▁Supply	-10666
▁incomp	-10667
▁proves	-10668
▁Washing	-10669
▁maternal	-10670
▁multiply	-10671
▁inspiration	-10672
▁Ke	-10673
acts	-10674
▁Gop	-10675
▁Mut	-10676
igare	-10677
▁Sult	-10678
▁Nanak	-10679
▁debts	-10680
emption	-10681
▁Cannot	-10682
▁differ	-10683
▁farmer	-10684
▁voting	-10685
▁Hussain	-10686
▁testified	-10687
PCL	-10688
▁Ek	-10689
etan	-10690
▁Bra	-10691
▁DAY	-10692
▁NCT	-10693
▁irr	-10694
▁sed	-10695
▁purs	-10696
▁erect	-10697
▁facto	-10698
selling	-10699
▁Access	-10700
▁spouse	-10701
▁fiction	-10702
▁organic	-10703
▁probate	-10704
▁windows	-10705
▁adjacent	-10706
ulum	-10707
▁SPE	-10708
▁Yus	-10709
▁Love	-10710
▁butter	-10711
▁circuit	-10712
▁decides	-10713
▁readers	-10714
▁province	-10715
fortunately	-10716
▁jurisdictional	-10717
MP	-10718
▁Get	-10719
▁Fire	-10720
▁Lead	-10721
▁Pract	-10722
▁enlar	-10723
▁talks	-10724
▁Region	-10725
▁batsman	-10726
▁omitted	-10727
▁taxable	-10728
indranath	-10729
▁unemploy	-10730
▁Standards	-10731
▁suspected	-10732
▁emphasized	-10733
▁stipulation	-10734
▁pronouncement	-10735
adhy	-10736
▁ICT	-10737
▁Jer	-10738
▁Lep	-10739
agues	-10740
avati	-10741
▁germ	-10742
oining	-10743
▁Begum	-10744
▁lingu	-10745
▁stars	-10746
▁teleg	-10747
▁agenda	-10748
▁allied	-10749
▁carved	-10750
▁belated	-10751
clamation	-10752
▁colonial	-10753
▁increases	-10754
▁formulation	-10755
▁constituting	-10756
agn	-10757
ulus	-10758
▁Baj	-10759
▁icon	-10760
▁tact	-10761
▁vacc	-10762
isible	-10763
▁Certain	-10764
▁hectares	-10765
▁regulating	-10766
▁Compensation	-10767
▁scan	-10768
▁Chart	-10769
▁Citiz	-10770
▁magaz	-10771
▁resid	-10772
▁Terror	-10773
▁biggest	-10774
▁heavily	-10775
▁amending	-10776
▁attaining	-10777
▁prevention	-10778
▁DA	-10779
ulla	-10780
▁Kat	-10781
ighed	-10782
▁bulk	-10783
▁glad	-10784
ortion	-10785
▁Price	-10786
▁maybe	-10787
manship	-10788
▁Indica	-10789
▁Whatever	-10790
▁credited	-10791
▁varieties	-10792
▁convincing	-10793
▁acknowledge	-10794
▁suppression	-10795
▁manufacturer	-10796
▁Infrastructure	-10797
▁advertisements	-10798
bu	-10799
▁Si	-10800
acle	-10801
▁keeps	-10802
▁theft	-10803
▁debtor	-10804
▁jewell	-10805
▁Minimum	-10806
▁extends	-10807
▁Corporate	-10808
▁enhancing	-10809
▁introduce	-10810
▁Assessment	-10811
▁Unfortunately	-10812
thy	-10813
▁DV	-10814
▁Rang	-10815
▁bund	-10816
▁appra	-10817
▁coerc	-10818
▁Partic	-10819
▁pillars	-10820
▁medicines	-10821
▁threshold	-10822
cope	-10823
▁fro	-10824
nasty	-10825
▁visits	-10826
▁concrete	-10827
▁mutually	-10828
▁Political	-10829
▁everybody	-10830
▁nutrition	-10831
▁permanently	-10832
▁regularized	-10833
rao	-10834
▁१६	-10835
▁Jit	-10836
▁Ult	-10837
▁Kant	-10838
▁Play	-10839
▁Shik	-10840
▁.....	-10841
▁Purch	-10842
▁Title	-10843
▁crowd	-10844
▁preclud	-10845
▁Competent	-10846
▁exercises	-10847
▁operators	-10848
▁compelling	-10849
NIC	-10850
OUR	-10851
▁TH	-10852
conn	-10853
pent	-10854
▁Yam	-10855
▁Help	-10856
▁limb	-10857
▁scar	-10858
▁march	-10859
tension	-10860
▁Repeal	-10861
▁bullet	-10862
▁lifted	-10863
▁earnest	-10864
▁Mahendra	-10865
▁deducted	-10866
▁objected	-10867
▁classical	-10868
▁highlight	-10869
ek	-10870
ganj	-10871
amboo	-10872
▁Chal	-10873
▁hide	-10874
▁vest	-10875
▁Light	-10876
▁Range	-10877
▁Yusuf	-10878
▁loyal	-10879
▁photo	-10880
ourable	-10881
▁Recomm	-10882
▁spring	-10883
▁prolong	-10884
▁traders	-10885
▁basically	-10886
▁informing	-10887
▁integration	-10888
avas	-10889
iple	-10890
odal	-10891
ymph	-10892
owing	-10893
▁Narm	-10894
▁mood	-10895
▁shed	-10896
▁Click	-10897
▁Indra	-10898
▁hyper	-10899
▁modify	-10900
▁pocket	-10901
▁united	-10902
▁lending	-10903
▁outlook	-10904
▁dramatic	-10905
▁profound	-10906
▁promised	-10907
▁protocol	-10908
▁neighbours	-10909
▁safeguards	-10910
▁Gos	-10911
gical	-10912
▁Poly	-10913
▁Ward	-10914
▁Baner	-10915
▁brill	-10916
▁Netaji	-10917
▁easier	-10918
▁worthy	-10919
▁Resource	-10920
▁comprised	-10921
▁connecting	-10922
EV	-10923
oved	-10924
▁Dutt	-10925
▁Guid	-10926
▁batter	-10927
▁coverage	-10928
▁database	-10929
▁supplies	-10930
▁Washington	-10931
▁adjudicate	-10932
▁Hit	-10933
eeper	-10934
▁prox	-10935
▁deter	-10936
▁Boards	-10937
▁abused	-10938
▁believes	-10939
▁enquired	-10940
▁alternate	-10941
▁fardbeyan	-10942
▁regulated	-10943
NL	-10944
anja	-10945
ishi	-10946
onda	-10947
▁Mart	-10948
▁Take	-10949
▁tent	-10950
▁Object	-10951
▁bitter	-10952
▁forgot	-10953
▁freely	-10954
▁vitamin	-10955
▁elicited	-10956
▁abandoned	-10957
▁disappear	-10958
▁concluding	-10959
▁purchasing	-10960
▁predecessor	-10961
▁confidential	-10962
▁Environmental	-10963
▁Bhat	-10964
▁epis	-10965
▁hors	-10966
▁cable	-10967
▁worse	-10968
▁serves	-10969
▁ticket	-10970
▁distant	-10971
▁adjusted	-10972
▁explicit	-10973
▁generate	-10974
▁minerals	-10975
▁approaches	-10976
▁convicting	-10977
▁inadequate	-10978
oult	-10979
rent	-10980
▁Fri	-10981
aland	-10982
plant	-10983
▁reim	-10984
▁sket	-10985
▁trek	-10986
essful	-10987
▁aided	-10988
▁favor	-10989
▁stains	-10990
▁Quality	-10991
▁closing	-10992
▁desires	-10993
▁extingu	-10994
▁genetic	-10995
▁Gujarati	-10996
▁Narendra	-10997
▁Otherwise	-10998
▁Petroleum	-10999
▁frivolous	-11000
▁assaulting	-11001
▁surprising	-11002
▁encouraging	-11003
▁conventional	-11004
roid	-11005
▁Ess	-11006
▁cha	-11007
amine	-11008
▁Gwal	-11009
▁butt	-11010
▁stup	-11011
▁multipl	-11012
▁Disputes	-11013
▁Japanese	-11014
▁behavior	-11015
▁presents	-11016
▁exchanges	-11017
▁Preet	-11018
▁drain	-11019
ATIONAL	-11020
▁Bhopal	-11021
▁excise	-11022
▁implies	-11023
▁Hindustan	-11024
▁HT	-11025
hani	-11026
rous	-11027
yard	-11028
erman	-11029
ivals	-11030
▁intu	-11031
▁pant	-11032
▁Peeth	-11033
▁plane	-11034
▁detrim	-11035
▁rescue	-11036
▁postpon	-11037
▁Projects	-11038
▁Ministries	-11039
ibai	-11040
quer	-11041
tery	-11042
▁draf	-11043
▁ther	-11044
▁maxim	-11045
▁invari	-11046
▁secondly	-11047
▁processed	-11048
▁addressing	-11049
▁colleagues	-11050
▁exhaustive	-11051
PF	-11052
▁CW	-11053
▁nep	-11054
▁Cost	-11055
▁Parm	-11056
▁bias	-11057
▁begun	-11058
▁dispar	-11059
▁Personal	-11060
▁contacts	-11061
nut	-11062
▁Tq	-11063
▁Tom	-11064
▁Sher	-11065
▁dedu	-11066
▁neut	-11067
▁Thank	-11068
▁Speech	-11069
▁talked	-11070
▁collabor	-11071
▁neighbourhood	-11072
▁MT	-11073
imla	-11074
thal	-11075
▁Ber	-11076
▁Loan	-11077
▁stamps	-11078
▁recalled	-11079
eds	-11080
▁adm	-11081
▁mud	-11082
ighth	-11083
▁Sham	-11084
▁jung	-11085
▁shap	-11086
▁Stock	-11087
▁estopp	-11088
▁Country	-11089
▁damaged	-11090
▁enlight	-11091
▁announce	-11092
▁graduate	-11093
▁radiation	-11094
tar	-11095
▁Sou	-11096
olish	-11097
phone	-11098
venile	-11099
▁Samaj	-11100
▁Crores	-11101
▁timely	-11102
▁massive	-11103
▁nearest	-11104
▁verdict	-11105
▁Liquidator	-11106
▁preventing	-11107
▁arbitrarily	-11108
HI	-11109
wat	-11110
▁Da	-11111
▁ASI	-11112
▁Van	-11113
urers	-11114
▁Camp	-11115
▁Kaly	-11116
▁overw	-11117
▁Modern	-11118
▁attach	-11119
▁cigare	-11120
▁fought	-11121
▁manual	-11122
▁wooden	-11123
ographic	-11124
▁Parties	-11125
▁inspect	-11126
▁Highways	-11127
▁Following	-11128
▁trustworthy	-11129
▁constructive	-11130
▁increasingly	-11131
▁HO	-11132
▁Enc	-11133
▁Jai	-11134
arers	-11135
▁Addl	-11136
▁Tuls	-11137
▁Wild	-11138
▁font	-11139
▁bride	-11140
▁larva	-11141
▁noble	-11142
▁Relief	-11143
▁tribes	-11144
▁immunity	-11145
▁shortage	-11146
▁adjourned	-11147
▁admitting	-11148
▁discussing	-11149
▁affirmative	-11150
akk	-11151
▁FA	-11152
noon	-11153
▁awa	-11154
aming	-11155
▁rope	-11156
▁Media	-11157
▁recru	-11158
▁judicata	-11159
▁producers	-11160
▁implications	-11161
▁Ver	-11162
arked	-11163
matic	-11164
umped	-11165
▁modes	-11166
▁island	-11167
▁Regular	-11168
fficiency	-11169
▁concepts	-11170
▁incentives	-11171
▁MW	-11172
▁PP	-11173
▁py	-11174
eper	-11175
▁Abs	-11176
▁Undert	-11177
▁cavity	-11178
▁patron	-11179
▁talent	-11180
▁abscond	-11181
▁credible	-11182
▁equation	-11183
▁squarely	-11184
▁Himalayas	-11185
▁corrected	-11186
▁sugarcane	-11187
▁affiliated	-11188
▁chargesheet	-11189
▁publications	-11190
ITY	-11191
▁AIC	-11192
▁Broad	-11193
▁fourt	-11194
▁parte	-11195
▁Topics	-11196
▁pretty	-11197
▁Banking	-11198
▁neglect	-11199
▁receives	-11200
▁reviewed	-11201
▁sessions	-11202
▁summoned	-11203
compliance	-11204
▁incapable	-11205
▁sufficiently	-11206
▁undertakings	-11207
▁MB	-11208
ayam	-11209
odox	-11210
umin	-11211
▁Long	-11212
alment	-11213
inking	-11214
▁labor	-11215
▁overse	-11216
▁Payment	-11217
▁averment	-11218
▁bacteria	-11219
▁intimate	-11220
▁therewith	-11221
▁invocation	-11222
▁prescribes	-11223
DR	-11224
▁UP	-11225
wala	-11226
▁axis	-11227
ainant	-11228
▁firms	-11229
▁Nation	-11230
▁mankind	-11231
▁balanced	-11232
▁guardian	-11233
▁discloses	-11234
▁Regulatory	-11235
▁dedication	-11236
▁relatively	-11237
▁restrained	-11238
▁substances	-11239
▁Instruments	-11240
▁participants	-11241
III	-11242
ugh	-11243
ayya	-11244
▁PIL	-11245
rence	-11246
▁Star	-11247
▁sheep	-11248
▁locked	-11249
▁Islands	-11250
▁Lokayuk	-11251
▁Russian	-11252
▁probable	-11253
▁striking	-11254
▁tourists	-11255
▁transmit	-11256
▁favourable	-11257
▁thoroughly	-11258
MA	-11259
kes	-11260
nic	-11261
▁wil	-11262
point	-11263
▁Azad	-11264
▁tack	-11265
▁Total	-11266
▁grams	-11267
▁loved	-11268
▁praise	-11269
▁cooking	-11270
▁unusual	-11271
▁hypothes	-11272
▁preserved	-11273
▁collateral	-11274
▁liquidation	-11275
isha	-11276
▁Wal	-11277
tered	-11278
▁luck	-11279
▁enshr	-11280
▁Declar	-11281
▁Satish	-11282
▁heaven	-11283
▁dissemin	-11284
▁overwhel	-11285
▁terminate	-11286
▁aspirations	-11287
▁interpreting	-11288
ato	-11289
awn	-11290
▁pa	-11291
uram	-11292
▁Vad	-11293
▁misle	-11294
▁adults	-11295
▁thrust	-11296
▁illicit	-11297
▁Srivastava	-11298
▁generating	-11299
aksha	-11300
▁Call	-11301
▁Lake	-11302
▁resemb	-11303
▁skilled	-11304
▁Whenever	-11305
▁literacy	-11306
▁patterns	-11307
▁occupants	-11308
▁transmitted	-11309
▁adjudicating	-11310
sa	-11311
uda	-11312
econ	-11313
omed	-11314
eship	-11315
▁Four	-11316
▁Desai	-11317
▁depose	-11318
▁misuse	-11319
▁players	-11320
▁scholarship	-11321
▁Pack	-11322
▁calm	-11323
▁Along	-11324
▁Tilak	-11325
▁taste	-11326
▁Lahore	-11327
▁consec	-11328
▁faster	-11329
▁vendors	-11330
▁Corporations	-11331
▁reassessment	-11332
abai	-11333
aras	-11334
bind	-11335
hened	-11336
▁yard	-11337
ponent	-11338
▁Kamal	-11339
▁Nigam	-11340
▁Vedas	-11341
▁SPEECH	-11342
▁endors	-11343
▁fisher	-11344
▁gentle	-11345
▁insist	-11346
▁sounds	-11347
▁tissues	-11348
▁irrational	-11349
▁perversity	-11350
▁circulation	-11351
▁programming	-11352
▁DD	-11353
▁GO	-11354
▁Ib	-11355
▁MA	-11356
▁TR	-11357
unda	-11358
ushan	-11359
urious	-11360
▁Appro	-11361
▁texts	-11362
plicity	-11363
▁Status	-11364
▁daniel	-11365
▁depict	-11366
▁parity	-11367
▁valued	-11368
▁fashion	-11369
▁premise	-11370
▁advancement	-11371
▁communicate	-11372
▁MOU	-11373
▁unh	-11374
hesis	-11375
iated	-11376
iscal	-11377
▁Soon	-11378
▁mole	-11379
▁anger	-11380
Section	-11381
▁anxious	-11382
▁Northern	-11383
▁premature	-11384
▁travelled	-11385
▁invitation	-11386
▁contradictory	-11387
▁regularisation	-11388
,0	-11389
eta	-11390
▁Ud	-11391
▁Ut	-11392
llah	-11393
wati	-11394
▁Bap	-11395
▁lord	-11396
▁inequ	-11397
▁topic	-11398
▁repairs	-11399
▁operator	-11400
▁reserves	-11401
▁Aggrieved	-11402
▁Regarding	-11403
▁defective	-11404
▁omissions	-11405
▁Old	-11406
▁suo	-11407
▁palm	-11408
▁whip	-11409
▁saint	-11410
▁defaul	-11411
▁empowers	-11412
▁frequent	-11413
▁Provident	-11414
▁attractive	-11415
ghar	-11416
▁Ran	-11417
▁voc	-11418
udent	-11419
▁lacs	-11420
▁Arjun	-11421
▁penis	-11422
▁tends	-11423
▁artist	-11424
▁kidney	-11425
▁Santosh	-11426
▁challan	-11427
▁focused	-11428
▁Recommend	-11429
▁locations	-11430
▁philosoph	-11431
▁Miscellaneous	-11432
HC	-11433
▁Maur	-11434
▁spin	-11435
▁liver	-11436
elihood	-11437
▁demise	-11438
▁confine	-11439
▁restore	-11440
▁Document	-11441
▁reposted	-11442
▁fabricated	-11443
▁formalities	-11444
osa	-11445
emen	-11446
jeet	-11447
ohar	-11448
onut	-11449
appre	-11450
▁hunt	-11451
▁Cause	-11452
▁honor	-11453
viously	-11454
▁cooper	-11455
▁exempl	-11456
▁Gwalior	-11457
▁opponent	-11458
▁sometime	-11459
▁broadcast	-11460
▁significantly	-11461
oty	-11462
▁je	-11463
arsa	-11464
kers	-11465
▁Bor	-11466
▁Nas	-11467
▁Hans	-11468
▁tons	-11469
itudes	-11470
▁advise	-11471
▁condem	-11472
▁improb	-11473
▁loaded	-11474
▁Against	-11475
▁speeches	-11476
▁Badruddin	-11477
▁Principles	-11478
▁deputation	-11479
▁Organisation	-11480
▁misconceived	-11481
ney	-11482
▁Ga	-11483
▁Yoj	-11484
andom	-11485
▁fals	-11486
▁kings	-11487
▁Amicus	-11488
▁Unable	-11489
▁blocks	-11490
▁exhibits	-11491
▁grievous	-11492
▁homicide	-11493
▁reproduce	-11494
▁thereupon	-11495
▁whereupon	-11496
▁instructed	-11497
▁phenomenon	-11498
▁entertaining	-11499
ande	-11500
▁bin	-11501
▁tag	-11502
▁brut	-11503
▁Stamp	-11504
respass	-11505
▁Expert	-11506
▁hearts	-11507
▁switch	-11508
▁Freedom	-11509
▁amalgam	-11510
▁mentally	-11511
▁prohibit	-11512
▁reversed	-11513
abu	-11514
▁pp	-11515
rian	-11516
▁exh	-11517
▁cure	-11518
▁tant	-11519
▁stable	-11520
▁traced	-11521
▁Present	-11522
▁reasoned	-11523
EST	-11524
▁Akh	-11525
▁ske	-11526
▁unm	-11527
▁Abdu	-11528
▁Arms	-11529
▁Bans	-11530
▁Line	-11531
▁Nirm	-11532
▁silk	-11533
▁mines	-11534
▁threw	-11535
▁Bhutan	-11536
▁layout	-11537
▁briefly	-11538
▁ensured	-11539
▁hanging	-11540
▁abstract	-11541
▁culpable	-11542
▁dominant	-11543
▁opinions	-11544
▁Bengaluru	-11545
▁impressed	-11546
▁accessible	-11547
▁conveyance	-11548
▁enunciated	-11549
▁restoration	-11550
▁establishments	-11551
▁pronouncements	-11552
▁bio	-11553
▁Miss	-11554
▁jack	-11555
▁monu	-11556
enable	-11557
▁guess	-11558
▁Ganges	-11559
▁Gautam	-11560
▁plural	-11561
▁streams	-11562
▁emission	-11563
▁shifting	-11564
▁composite	-11565
▁likelihood	-11566
▁Territories	-11567
VER	-11568
▁Cle	-11569
▁extr	-11570
▁stem	-11571
▁gland	-11572
plicate	-11573
▁Forces	-11574
▁adduce	-11575
▁grains	-11576
▁African	-11577
▁promotions	-11578
▁supervisory	-11579
CH	-11580
wali	-11581
wami	-11582
▁Lod	-11583
▁rot	-11584
▁Garg	-11585
▁cows	-11586
▁keys	-11587
▁Sagar	-11588
▁Vikas	-11589
▁nodes	-11590
▁Fourth	-11591
▁deaths	-11592
▁weighed	-11593
▁crossing	-11594
▁allocated	-11595
▁willingness	-11596
SC	-11597
kim	-11598
▁VAT	-11599
▁Bish	-11600
iences	-11601
▁hered	-11602
▁tight	-11603
▁Lastly	-11604
▁Result	-11605
iability	-11606
▁exagger	-11607
▁pursued	-11608
▁touched	-11609
▁breeding	-11610
▁carriage	-11611
▁mischief	-11612
▁canvassed	-11613
▁miscellaneous	-11614
▁Fa	-11615
onds	-11616
ardens	-11617
▁Rajiv	-11618
▁blunt	-11619
▁Father	-11620
▁Street	-11621
▁underw	-11622
▁Federal	-11623
▁Firstly	-11624
▁Hanuman	-11625
▁urgency	-11626
▁fraction	-11627
▁overseas	-11628
▁producer	-11629
▁responded	-11630
▁describing	-11631
▁successive	-11632
▁introducing	-11633
END	-11634
▁Bol	-11635
▁Den	-11636
▁Gor	-11637
peeth	-11638
▁Aged	-11639
▁lake	-11640
▁beach	-11641
▁canal	-11642
▁mobil	-11643
uminous	-11644
▁define	-11645
▁dreams	-11646
▁enters	-11647
▁fright	-11648
▁Iranian	-11649
▁presume	-11650
▁Subordinate	-11651
awar	-11652
▁bes	-11653
utors	-11654
▁ease	-11655
▁eman	-11656
▁inex	-11657
▁orth	-11658
atious	-11659
ighter	-11660
ivable	-11661
▁Param	-11662
▁Royal	-11663
▁accel	-11664
▁blame	-11665
▁shirt	-11666
▁demarc	-11667
▁divers	-11668
▁nervous	-11669
▁Defendants	-11670
▁meaningful	-11671
▁privileges	-11672
▁quantities	-11673
▁improvements	-11674
ona	-11675
rage	-11676
▁pin	-11677
▁hazard	-11678
▁treaty	-11679
▁Various	-11680
▁measured	-11681
▁Meanwhile	-11682
▁recognise	-11683
oose	-11684
▁lis	-11685
ubhai	-11686
▁degr	-11687
▁puts	-11688
arshan	-11689
▁Kabir	-11690
▁dwell	-11691
▁monop	-11692
▁Reason	-11693
▁explos	-11694
▁powder	-11695
▁vacate	-11696
▁cleared	-11697
▁revival	-11698
▁discount	-11699
▁mistakes	-11700
▁networks	-11701
▁subscrib	-11702
▁Islamists	-11703
▁jewellery	-11704
▁Succession	-11705
▁enactments	-11706
▁perception	-11707
▁substitution	-11708
▁psychological	-11709
▁RPC	-11710
anjan	-11711
▁Have	-11712
▁Minor	-11713
▁react	-11714
▁tariff	-11715
▁Agarwal	-11716
▁Command	-11717
▁dealers	-11718
▁Mohammad	-11719
▁estoppel	-11720
▁afternoon	-11721
▁somewhere	-11722
▁confronted	-11723
▁connections	-11724
arti	-11725
▁Fif	-11726
▁Inj	-11727
enary	-11728
▁Khas	-11729
enches	-11730
ulously	-11731
▁Sultan	-11732
▁junior	-11733
▁Academic	-11734
▁Ayurveda	-11735
▁artistic	-11736
▁chemicals	-11737
▁hereafter	-11738
▁publicity	-11739
▁initiating	-11740
▁mentioning	-11741
▁fre	-11742
oused	-11743
▁garb	-11744
▁Mahav	-11745
▁Sugar	-11746
▁bought	-11747
▁approve	-11748
▁browser	-11749
▁culprit	-11750
▁dialogue	-11751
▁trustees	-11752
▁algorithm	-11753
▁unnatural	-11754
▁cumulative	-11755
▁constituency	-11756
▁Commissioners	-11757
opl	-11758
▁kms	-11759
icides	-11760
utical	-11761
▁Pharm	-11762
▁optim	-11763
▁Respon	-11764
▁equals	-11765
▁Proceed	-11766
▁inherit	-11767
▁muscles	-11768
▁pursuing	-11769
▁Personnel	-11770
▁Tahsildar	-11771
▁vulnerable	-11772
▁strengthened	-11773
ARY	-11774
eri	-11775
rot	-11776
▁cup	-11777
acles	-11778
▁Auro	-11779
▁NDPS	-11780
▁cous	-11781
icitor	-11782
iterate	-11783
▁Within	-11784
▁buying	-11785
▁occupy	-11786
▁purity	-11787
▁mahazar	-11788
▁cheating	-11789
▁mentions	-11790
▁tolerance	-11791
▁Integrated	-11792
log	-11793
arus	-11794
utra	-11795
▁tap	-11796
osure	-11797
outed	-11798
▁Club	-11799
▁Dass	-11800
▁Pref	-11801
▁sper	-11802
▁query	-11803
viation	-11804
▁Coming	-11805
▁absurd	-11806
▁campus	-11807
▁crossed	-11808
▁prosecutor	-11809
▁considerably	-11810
isa	-11811
icer	-11812
umps	-11813
lance	-11814
▁Conv	-11815
▁Geet	-11816
▁Read	-11817
▁hire	-11818
▁rash	-11819
▁ster	-11820
▁wave	-11821
acular	-11822
▁brave	-11823
▁movie	-11824
▁supers	-11825
sections	-11826
▁confers	-11827
▁nominee	-11828
▁protein	-11829
▁hardware	-11830
▁manpower	-11831
PG	-11832
IAL	-11833
obi	-11834
tha	-11835
▁Je	-11836
ptic	-11837
▁exit	-11838
▁bamboo	-11839
▁genius	-11840
▁lecture	-11841
▁mixture	-11842
▁sincere	-11843
lementary	-11844
▁Nagaland	-11845
▁bonafide	-11846
▁watching	-11847
▁Choudhury	-11848
▁Negotiable	-11849
▁biological	-11850
▁terrorists	-11851
asy	-11852
▁Py	-11853
amba	-11854
ammal	-11855
▁Down	-11856
▁True	-11857
▁http	-11858
liness	-11859
▁Indus	-11860
▁embra	-11861
▁Rather	-11862
▁deeper	-11863
▁invent	-11864
▁Jyotish	-11865
▁federal	-11866
▁trespass	-11867
stitutional	-11868
▁wet	-11869
▁feas	-11870
▁sine	-11871
▁Guard	-11872
▁Mitra	-11873
▁miser	-11874
▁snake	-11875
▁Windows	-11876
▁streets	-11877
▁surrend	-11878
▁threats	-11879
▁winning	-11880
▁requests	-11881
▁comprises	-11882
▁constable	-11883
▁eyewitness	-11884
▁prosecuted	-11885
▁realization	-11886
▁disabilities	-11887
▁governmental	-11888
▁insufficient	-11889
UST	-11890
eda	-11891
▁Pa	-11892
isers	-11893
ESSAGE	-11894
stream	-11895
▁David	-11896
▁Contin	-11897
▁Santro	-11898
▁troops	-11899
▁Perform	-11900
▁denomin	-11901
aceutical	-11902
▁counting	-11903
▁receiver	-11904
▁discontin	-11905
▁expressing	-11906
▁attributable	-11907
bir	-11908
rik	-11909
▁dt	-11910
geon	-11911
▁adh	-11912
▁Pill	-11913
▁amaz	-11914
▁arts	-11915
▁hier	-11916
abetes	-11917
▁accur	-11918
▁bunch	-11919
▁shout	-11920
▁smell	-11921
▁Clauses	-11922
▁Display	-11923
▁Consolid	-11924
▁touching	-11925
▁reception	-11926
▁identifying	-11927
▁disqualified	-11928
▁constructions	-11929
▁Bod	-11930
▁Ken	-11931
▁bug	-11932
▁Anth	-11933
▁acre	-11934
▁slip	-11935
▁ward	-11936
essees	-11937
oultry	-11938
▁Space	-11939
▁Varan	-11940
▁glory	-11941
▁intact	-11942
▁sphere	-11943
▁Complex	-11944
▁Sciences	-11945
▁Referring	-11946
▁eliminate	-11947
▁festivals	-11948
▁incentive	-11949
▁dictionary	-11950
▁equipments	-11951
▁Prosecution	-11952
▁encroachment	-11953
alk	-11954
inc	-11955
occ	-11956
▁JUD	-11957
▁lift	-11958
aution	-11959
▁Benefit	-11960
▁signing	-11961
▁Tripathi	-11962
▁keyboard	-11963
▁Americans	-11964
missibility	-11965
▁obligatory	-11966
▁unfortunately	-11967
GP	-11968
▁SCR	-11969
adeep	-11970
▁wash	-11971
▁Sangh	-11972
anishad	-11973
▁advent	-11974
▁exempt	-11975
▁repeat	-11976
▁Acharya	-11977
▁checked	-11978
▁footing	-11979
▁solitary	-11980
▁dissolved	-11981
▁testimonies	-11982
▁concentration	-11983
▁developmental	-11984
pes	-11985
veen	-11986
▁Hus	-11987
▁aug	-11988
▁Jews	-11989
▁fond	-11990
uously	-11991
▁Maint	-11992
▁Menon	-11993
▁consp	-11994
▁superv	-11995
▁decimal	-11996
▁prudent	-11997
▁Movement	-11998
▁borrowed	-11999
▁explains	-12000
▁operates	-12001
▁Governing	-12002
▁Declaration	-12003
aws	-12004
oys	-12005
▁KV	-12006
applic	-12007
▁Paras	-12008
▁mango	-12009
ipation	-12010
onymous	-12011
▁Nagpur	-12012
▁charas	-12013
▁Express	-12014
▁Kailash	-12015
▁MESSAGE	-12016
▁Pradhan	-12017
▁clients	-12018
▁desktop	-12019
▁insight	-12020
▁isolated	-12021
▁arbitrators	-12022
▁collectively	-12023
▁distinguishable	-12024
▁RTI	-12025
▁SHO	-12026
▁mant	-12027
▁sums	-12028
▁Video	-12029
▁storm	-12030
▁unsucc	-12031
▁Leprosy	-12032
▁William	-12033
▁chamber	-12034
▁Implement	-12035
▁Guidelines	-12036
AYS	-12037
aki	-12038
has	-12039
zed	-12040
▁AW	-12041
rell	-12042
soon	-12043
▁rup	-12044
▁pion	-12045
▁spir	-12046
acific	-12047
▁Grand	-12048
▁Sikkim	-12049
▁viable	-12050
▁discern	-12051
▁readily	-12052
▁inconven	-12053
▁Allowance	-12054
▁attesting	-12055
▁sponsored	-12056
▁unilateral	-12057
▁questioning	-12058
BER	-12059
▁Jat	-12060
▁Suk	-12061
cated	-12062
riers	-12063
▁Gaur	-12064
▁worm	-12065
▁Solar	-12066
▁Rupees	-12067
▁Monitor	-12068
▁matches	-12069
▁nullity	-12070
▁singing	-12071
▁detection	-12072
▁imparting	-12073
▁precisely	-12074
▁compliment	-12075
▁unauthorised	-12076
SR	-12077
▁AL	-12078
▁fan	-12079
oding	-12080
ulled	-12081
▁ages	-12082
▁Mangal	-12083
▁Rajput	-12084
▁humble	-12085
▁toward	-12086
▁Default	-12087
▁Details	-12088
▁conserv	-12089
▁veracity	-12090
▁versions	-12091
▁Chartered	-12092
▁gathering	-12093
▁explaining	-12094
▁१७	-12095
▁Lak	-12096
▁Tea	-12097
oxide	-12098
rible	-12099
▁Sany	-12100
▁Trad	-12101
▁Dilip	-12102
▁Model	-12103
▁minim	-12104
▁Motion	-12105
▁Mukesh	-12106
▁writes	-12107
ensively	-12108
▁defense	-12109
▁funding	-12110
▁invoices	-12111
▁envisages	-12112
▁magistrate	-12113
▁associations	-12114
vara	-12115
inath	-12116
▁Arts	-12117
▁adul	-12118
▁heir	-12119
▁hung	-12120
▁obsc	-12121
mother	-12122
▁Tribe	-12123
▁Value	-12124
▁nucle	-12125
▁troub	-12126
▁Shakti	-12127
▁Taluka	-12128
▁malafide	-12129
▁litigants	-12130
▁confirming	-12131
▁PL	-12132
apat	-12133
▁Ras	-12134
otism	-12135
▁india	-12136
▁disall	-12137
▁notion	-12138
▁raises	-12139
▁trials	-12140
▁printer	-12141
▁Varanasi	-12142
▁afforded	-12143
▁equipped	-12144
▁Accountant	-12145
▁Presidential	-12146
CL	-12147
beh	-12148
eers	-12149
▁Niz	-12150
vable	-12151
▁untr	-12152
▁plains	-12153
▁therap	-12154
▁vagina	-12155
▁enemies	-12156
▁publish	-12157
▁rituals	-12158
▁somehow	-12159
▁Chaudhary	-12160
▁implicate	-12161
abs	-12162
▁SD	-12163
▁IPv	-12164
▁wip	-12165
▁impe	-12166
▁recl	-12167
▁ware	-12168
▁magic	-12169
▁Course	-12170
▁humans	-12171
▁enlarge	-12172
▁tenable	-12173
▁Obviously	-12174
▁elementary	-12175
▁productive	-12176
▁experiments	-12177
▁possibilities	-12178
rus	-12179
▁mol	-12180
igate	-12181
▁shoes	-12182
▁Bhawan	-12183
▁Budget	-12184
▁Custom	-12185
▁Sindhi	-12186
▁Spirit	-12187
▁flying	-12188
▁sticks	-12189
▁wounds	-12190
▁authors	-12191
▁coconut	-12192
▁persuade	-12193
orticulture	-12194
▁intervening	-12195
▁irreparable	-12196
▁transferring	-12197
iven	-12198
▁Kur	-12199
▁PDD	-12200
▁Tib	-12201
▁fer	-12202
ulses	-12203
vency	-12204
▁Armed	-12205
▁camera	-12206
▁kumari	-12207
▁planet	-12208
▁Library	-12209
▁Maharaj	-12210
valuation	-12211
▁exempted	-12212
▁Himalayan	-12213
▁negligent	-12214
▁Constituent	-12215
▁Establishment	-12216
▁Unt	-12217
akshi	-12218
matter	-12219
▁ports	-12220
▁trite	-12221
▁Naresh	-12222
▁weaker	-12223
▁wholes	-12224
▁Journal	-12225
▁abdomen	-12226
▁bottles	-12227
▁cultures	-12228
▁perfectly	-12229
▁stipulates	-12230
▁Prohibition	-12231
amal	-12232
▁Has	-12233
▁Tat	-12234
▁hut	-12235
▁isn	-12236
angle	-12237
asive	-12238
▁Word	-12239
▁flee	-12240
▁harsh	-12241
▁rhyth	-12242
▁corpus	-12243
▁Kannada	-12244
▁drought	-12245
▁entitle	-12246
▁convened	-12247
▁enlarged	-12248
▁expedient	-12249
▁associates	-12250
▁hypothesis	-12251
▁repetition	-12252
ago	-12253
hot	-12254
▁Inv	-12255
▁asp	-12256
▁Auto	-12257
▁Requ	-12258
▁mercy	-12259
▁pharm	-12260
▁skull	-12261
▁sweep	-12262
▁couldn	-12263
▁intend	-12264
▁trustee	-12265
▁Raghunath	-12266
▁persuaded	-12267
ahi	-12268
ENCE	-12269
serv	-12270
▁Best	-12271
▁Insp	-12272
▁Link	-12273
▁sixth	-12274
▁uphold	-12275
actorily	-12276
▁amenities	-12277
▁enshrined	-12278
▁inherited	-12279
▁conception	-12280
▁continuity	-12281
▁imperialism	-12282
▁innovations	-12283
▁certification	-12284
eps	-12285
▁BO	-12286
▁RF	-12287
omas	-12288
▁Job	-12289
▁Run	-12290
brane	-12291
idity	-12292
▁Fest	-12293
▁Pram	-12294
▁Laxmi	-12295
chnology	-12296
▁Lakshmi	-12297
▁destiny	-12298
▁segment	-12299
▁Needless	-12300
▁pertains	-12301
▁inception	-12302
▁partially	-12303
▁#	-12304
iba	-12305
nty	-12306
▁Ju	-12307
hera	-12308
term	-12309
▁cess	-12310
▁peak	-12311
▁swit	-12312
▁Bazar	-12313
▁Mahan	-12314
▁corners	-12315
▁attested	-12316
▁fourteen	-12317
▁maturity	-12318
▁intervene	-12319
▁magnitude	-12320
▁spreading	-12321
▁Christians	-12322
▁shareholder	-12323
dam	-12324
ugal	-12325
▁tum	-12326
ancer	-12327
▁grab	-12328
▁push	-12329
▁crack	-12330
▁gazet	-12331
▁reign	-12332
▁Transl	-12333
▁detenu	-12334
▁upload	-12335
▁Aurobind	-12336
▁predomin	-12337
▁specimen	-12338
▁capabilities	-12339
NO	-12340
UG	-12341
ads	-12342
def	-12343
uja	-12344
win	-12345
▁BS	-12346
araj	-12347
ping	-12348
▁Mary	-12349
▁Rate	-12350
▁Tool	-12351
▁mart	-12352
▁vimana	-12353
istrates	-12354
▁Chatter	-12355
▁dragged	-12356
▁heading	-12357
▁Admission	-12358
▁intensity	-12359
▁Electronics	-12360
ky	-12361
oil	-12362
urai	-12363
▁EVE	-12364
▁Jha	-12365
▁Kas	-12366
▁Put	-12367
▁Iron	-12368
▁Very	-12369
▁laps	-12370
iorari	-12371
▁Griev	-12372
▁Museum	-12373
▁laches	-12374
▁forgery	-12375
▁Banerjee	-12376
▁Surendra	-12377
▁Malayalam	-12378
▁accidents	-12379
▁prospects	-12380
▁capability	-12381
▁threatening	-12382
▁consolidated	-12383
▁Radhakrishnan	-12384
▁satisfactorily	-12385
EO	-12386
▁ER	-12387
cons	-12388
inge	-12389
isive	-12390
▁bell	-12391
making	-12392
▁Arabs	-12393
▁Quran	-12394
▁Zilla	-12395
▁actor	-12396
▁insol	-12397
▁realm	-12398
▁habits	-12399
economic	-12400
▁royalty	-12401
▁tainted	-12402
ambiguous	-12403
▁Purchase	-12404
▁conceded	-12405
▁conceived	-12406
▁paramount	-12407
▁Conditions	-12408
Is	-12409
agu	-12410
fare	-12411
othe	-12412
▁Dip	-12413
▁pink	-12414
venues	-12415
▁Blood	-12416
▁excav	-12417
▁hears	-12418
▁moves	-12419
▁Arabia	-12420
▁sensit	-12421
▁unequiv	-12422
▁checking	-12423
▁devotees	-12424
▁licences	-12425
▁adjoining	-12426
▁associate	-12427
▁consortium	-12428
▁disobedience	-12429
aze	-12430
▁Bhub	-12431
▁Prob	-12432
▁Dutta	-12433
▁smart	-12434
▁pushed	-12435
▁accepts	-12436
▁broadly	-12437
▁consign	-12438
▁untouch	-12439
▁modifications	-12440
ocy	-12441
ulg	-12442
eced	-12443
tain	-12444
▁Kad	-12445
▁Pop	-12446
▁SEC	-12447
▁Vaj	-12448
▁elev	-12449
▁pump	-12450
ulance	-12451
wealth	-12452
▁AICTE	-12453
▁irrit	-12454
▁midst	-12455
▁Ranjan	-12456
▁clarify	-12457
▁NATIONAL	-12458
▁Protocol	-12459
▁Pollution	-12460
▁consensus	-12461
▁tribunals	-12462
▁Dwarkanath	-12463
▁accidental	-12464
▁alteration	-12465
▁discrepancy	-12466
▁Rabindranath	-12467
▁administrator	-12468
bat	-12469
vir	-12470
▁LA	-12471
▁Nur	-12472
venty	-12473
▁NSEL	-12474
▁Syed	-12475
▁aunt	-12476
▁ears	-12477
rolled	-12478
▁Mines	-12479
▁intra	-12480
▁tries	-12481
▁Rajeev	-12482
▁Should	-12483
▁pretext	-12484
▁Specific	-12485
▁implicit	-12486
▁literally	-12487
▁unambiguous	-12488
▁accountability	-12489
▁IF	-12490
▁Ghaz	-12491
▁Saha	-12492
▁slog	-12493
▁Ocean	-12494
▁Vicer	-12495
▁coffee	-12496
▁custod	-12497
▁reluct	-12498
▁worksh	-12499
▁succumb	-12500
▁Aurobindo	-12501
▁expanding	-12502
▁factories	-12503
▁vexatious	-12504
▁wonderful	-12505
▁disclosing	-12506
▁categorical	-12507
▁promotional	-12508
▁resolutions	-12509
▁economically	-12510
cus	-12511
eph	-12512
idas	-12513
plate	-12514
▁Near	-12515
▁Veer	-12516
▁Pawan	-12517
▁Sikhs	-12518
▁Laxman	-12519
▁beliefs	-12520
▁dynasty	-12521
bra	-12522
cha	-12523
▁EM	-12524
khand	-12525
▁ling	-12526
▁Drugs	-12527
erating	-12528
▁Safety	-12529
▁unanim	-12530
▁Studies	-12531
▁crystal	-12532
▁volumes	-12533
unications	-12534
▁narration	-12535
▁Complainant	-12536
▁declarations	-12537
ibh	-12538
ipp	-12539
▁Kaz	-12540
▁sew	-12541
cetic	-12542
pread	-12543
▁Kali	-12544
▁glac	-12545
urable	-12546
▁foods	-12547
▁vicar	-12548
▁judged	-12549
aternity	-12550
▁highway	-12551
▁diligence	-12552
▁prosecute	-12553
▁redressal	-12554
▁accusation	-12555
▁utilization	-12556
▁conciliation	-12557
▁characterized	-12558
ulu	-12559
▁VI	-12560
raon	-12561
▁Bre	-12562
▁Squ	-12563
▁cyl	-12564
▁nit	-12565
▁inel	-12566
▁maid	-12567
▁uter	-12568
▁Shant	-12569
▁scrib	-12570
▁Curiae	-12571
esthetic	-12572
▁intends	-12573
▁appealed	-12574
▁provider	-12575
▁Governors	-12576
▁mediation	-12577
▁warranted	-12578
▁variations	-12579
▁temporarily	-12580
▁interrogation	-12581
nis	-12582
uta	-12583
▁Mc	-12584
▁Hyd	-12585
▁Jab	-12586
▁Mic	-12587
▁FIRs	-12588
▁Queen	-12589
▁tears	-12590
▁Shimla	-12591
▁sharma	-12592
▁Abdullah	-12593
▁vertical	-12594
▁ancestral	-12595
▁autonomous	-12596
▁presenting	-12597
▁surrendered	-12598
▁Say	-12599
▁pel	-12600
valid	-12601
▁Deal	-12602
▁lots	-12603
▁stro	-12604
owners	-12605
▁Greek	-12606
▁dimin	-12607
▁smoke	-12608
▁hatred	-12609
▁ninety	-12610
▁Singles	-12611
▁reaches	-12612
▁Contempt	-12613
▁dwelling	-12614
▁exposure	-12615
▁complying	-12616
▁responses	-12617
▁complement	-12618
▁horizontal	-12619
ORT	-12620
inh	-12621
▁gh	-12622
▁ji	-12623
▁moh	-12624
▁Type	-12625
agraha	-12626
▁immig	-12627
▁numer	-12628
▁disbur	-12629
▁Emperor	-12630
▁abolition	-12631
▁frequency	-12632
▁uncertain	-12633
▁practitioner	-12634
▁reasonableness	-12635
osy	-12636
▁MD	-12637
rator	-12638
▁Gaya	-12639
▁beet	-12640
▁caut	-12641
▁medi	-12642
master	-12643
▁crude	-12644
anchise	-12645
▁Ansari	-12646
▁academ	-12647
▁clouds	-12648
▁detect	-12649
▁insult	-12650
▁museum	-12651
▁verbal	-12652
▁stamped	-12653
▁panchnama	-12654
▁invariably	-12655
▁counselling	-12656
▁Mak	-12657
▁hol	-12658
andal	-12659
chron	-12660
ignty	-12661
ullah	-12662
▁tiny	-12663
ouring	-12664
▁Manik	-12665
▁raped	-12666
▁decent	-12667
▁legend	-12668
▁misbeh	-12669
▁versus	-12670
ffective	-12671
▁deprive	-12672
▁descend	-12673
▁founder	-12674
▁Councils	-12675
▁evaluate	-12676
▁promptly	-12677
▁withheld	-12678
▁inflation	-12679
▁extensively	-12680
▁nevertheless	-12681
In	-12682
tr	-12683
anty	-12684
▁Fair	-12685
▁virus	-12686
▁merger	-12687
▁stores	-12688
position	-12689
▁anteced	-12690
▁chances	-12691
▁controls	-12692
▁disaster	-12693
▁weighing	-12694
▁incidence	-12695
▁adequately	-12696
▁enthusiasm	-12697
▁ascertaining	-12698
aba	-12699
▁EC	-12700
uded	-12701
▁Prit	-12702
▁Team	-12703
▁auto	-12704
▁loud	-12705
▁Audio	-12706
▁Privy	-12707
▁maker	-12708
▁curric	-12709
▁lesson	-12710
▁rarely	-12711
▁exchanged	-12712
▁advantages	-12713
▁liberation	-12714
▁statistics	-12715
▁forthcoming	-12716
▁headquarters	-12717
raf	-12718
▁BI	-12719
obar	-12720
▁Gad	-12721
▁sul	-12722
▁Said	-12723
▁Waqf	-12724
▁worst	-12725
▁Yojana	-12726
ologists	-12727
▁Pacific	-12728
▁directs	-12729
▁expense	-12730
▁formally	-12731
▁Processing	-12732
▁condonation	-12733
▁obstruction	-12734
▁professionals	-12735
ugn	-12736
▁MR	-12737
udra	-12738
ulam	-12739
front	-12740
▁CHAP	-12741
▁meets	-12742
▁mills	-12743
nership	-12744
▁expensive	-12745
▁demolition	-12746
▁preservation	-12747
oni	-12748
▁rab	-12749
aiver	-12750
▁digit	-12751
▁parad	-12752
▁scrap	-12753
▁Amount	-12754
▁affair	-12755
▁assent	-12756
▁jungle	-12757
▁makers	-12758
▁Agrawal	-12759
▁guiding	-12760
▁honoured	-12761
▁peripher	-12762
▁promoter	-12763
▁Arunachal	-12764
▁upholding	-12765
▁precedents	-12766
▁undergoing	-12767
▁............	-12768
--	-12769
ket	-12770
phal	-12771
▁aqu	-12772
▁sem	-12773
apsed	-12774
lings	-12775
▁Duty	-12776
▁Priy	-12777
▁angry	-12778
▁encry	-12779
▁connot	-12780
▁fiscal	-12781
▁nephew	-12782
▁packet	-12783
▁Viceroy	-12784
▁apprent	-12785
▁qualify	-12786
▁interact	-12787
▁Upanishad	-12788
▁invention	-12789
▁Provisions	-12790
▁committees	-12791
▁dimensions	-12792
▁superintend	-12793
▁Nevertheless	-12794
▁ul	-12795
ikip	-12796
▁Sai	-12797
▁COMM	-12798
▁Cham	-12799
▁posed	-12800
▁Period	-12801
▁edition	-12802
▁envelop	-12803
▁explore	-12804
▁fitness	-12805
▁seconds	-12806
▁airports	-12807
▁assigning	-12808
▁publishing	-12809
▁grandfather	-12810
▁Jyotishpeeth	-12811
▁EN	-12812
well	-12813
itime	-12814
▁Alam	-12815
▁Kore	-12816
▁whis	-12817
▁games	-12818
▁memor	-12819
▁Offices	-12820
▁panchayat	-12821
▁Production	-12822
▁Submission	-12823
▁structural	-12824
▁Departmental	-12825
▁Rehabilitation	-12826
afi	-12827
rab	-12828
five	-12829
ikar	-12830
osph	-12831
▁Saw	-12832
▁Suf	-12833
▁hem	-12834
achar	-12835
▁Jagat	-12836
▁compel	-12837
▁oldest	-12838
▁superf	-12839
▁CHAPTER	-12840
▁Invalid	-12841
▁assumes	-12842
▁signals	-12843
▁subtract	-12844
▁survival	-12845
▁Extension	-12846
▁intimated	-12847
▁retention	-12848
▁cultivated	-12849
▁extraneous	-12850
▁sentiments	-12851
▁procurement	-12852
▁gratification	-12853
▁philosophical	-12854
Cs	-12855
eded	-12856
▁Bac	-12857
▁Host	-12858
▁Rich	-12859
▁Yash	-12860
▁horn	-12861
akhand	-12862
ranted	-12863
▁Koran	-12864
▁honey	-12865
▁Deepak	-12866
▁Golden	-12867
▁dialog	-12868
▁carrier	-12869
▁tickets	-12870
▁Normally	-12871
▁Judiciary	-12872
▁recruited	-12873
▁secretary	-12874
▁businesses	-12875
▁disbelieve	-12876
▁constrained	-12877
▁Gok	-12878
▁Fast	-12879
▁Roll	-12880
▁Emerg	-12881
▁Lower	-12882
▁Rahul	-12883
▁admir	-12884
▁lacks	-12885
▁Perman	-12886
▁buffal	-12887
▁excuse	-12888
▁phones	-12889
▁videos	-12890
▁earnings	-12891
▁everyday	-12892
▁rainfall	-12893
▁satellite	-12894
▁fulfilment	-12895
▁illiterate	-12896
▁satisfying	-12897
▁intelligent	-12898
▁Palestinians	-12899
eft	-12900
oja	-12901
lesh	-12902
vind	-12903
▁lal	-12904
▁Much	-12905
apuram	-12906
before	-12907
inates	-12908
▁Panel	-12909
▁Surya	-12910
▁Taxes	-12911
▁Manish	-12912
▁Sports	-12913
▁encumb	-12914
▁subtle	-12915
▁chronic	-12916
▁promulg	-12917
▁typical	-12918
▁romantic	-12919
Ins	-12920
hek	-12921
iac	-12922
▁RA	-12923
ingh	-12924
▁ail	-12925
▁mac	-12926
▁vii	-12927
arman	-12928
▁Memo	-12929
▁Pall	-12930
▁Rana	-12931
▁chap	-12932
▁disl	-12933
▁fing	-12934
▁hopes	-12935
▁gender	-12936
▁varies	-12937
ikipedia	-12938
▁Turkish	-12939
▁instinct	-12940
▁variable	-12941
▁countrymen	-12942
▁mechanisms	-12943
▁reflection	-12944
▁deprivation	-12945
▁unsuccessful	-12946
HT	-12947
uka	-12948
▁CM	-12949
▁HL	-12950
▁Ki	-12951
▁OS	-12952
stan	-12953
▁sen	-12954
ibhai	-12955
▁wrap	-12956
▁Paris	-12957
▁Radha	-12958
▁burns	-12959
▁Jaipur	-12960
▁Serial	-12961
▁enrich	-12962
▁ladies	-12963
▁mosque	-12964
▁poured	-12965
▁cluster	-12966
▁movable	-12967
▁abetment	-12968
▁opposing	-12969
▁economies	-12970
▁Partnership	-12971
▁anniversary	-12972
▁accompanying	-12973
RIC	-12974
SION	-12975
fect	-12976
▁Bye	-12977
▁Kon	-12978
aspur	-12979
▁Jord	-12980
▁Shak	-12981
▁Turn	-12982
▁brick	-12983
▁deems	-12984
▁Tahsil	-12985
▁Thomas	-12986
▁regret	-12987
graduate	-12988
ophistic	-12989
▁Andaman	-12990
▁ascetic	-12991
▁enquire	-12992
▁membrane	-12993
▁parental	-12994
▁Administr	-12995
▁Palestine	-12996
▁Honourable	-12997
▁Profession	-12998
▁empowerment	-12999
▁inaugurated	-13000
▁justifiable	-13001
▁supramental	-13002
▁deficiencies	-13003
upp	-13004
▁Tan	-13005
▁tin	-13006
▁tol	-13007
▁umb	-13008
▁Asst	-13009
▁Soni	-13010
▁Viet	-13011
ettled	-13012
▁fides	-13013
▁slope	-13014
▁Prince	-13015
▁Yamuna	-13016
▁senses	-13017
▁sketch	-13018
▁Schemes	-13019
▁deficit	-13020
▁monsoon	-13021
▁Physical	-13022
▁packages	-13023
▁painting	-13024
▁respected	-13025
▁sovereignty	-13026
▁Applications	-13027
▁admissibility	-13028
▁deliberations	-13029
babu	-13030
▁JUDG	-13031
▁Kitt	-13032
▁Mich	-13033
▁earm	-13034
▁Chann	-13035
▁limbs	-13036
▁splend	-13037
▁Cricket	-13038
▁Sanjeev	-13039
▁ranging	-13040
▁remitted	-13041
▁realistic	-13042
▁overlooked	-13043
▁prescribing	-13044
▁depreciation	-13045
▁eyewitnesses	-13046
▁legislations	-13047
▁relationships	-13048
EA	-13049
▁Bis	-13050
▁Maz	-13051
▁Pul	-13052
odium	-13053
▁gest	-13054
essors	-13055
▁Radio	-13056
itement	-13057
▁random	-13058
▁earthqu	-13059
▁nominal	-13060
▁passive	-13061
▁enjoying	-13062
▁orthodox	-13063
▁reciproc	-13064
▁Choudhary	-13065
▁Generally	-13066
▁divisions	-13067
otechnology	-13068
nar	-13069
aidu	-13070
alia	-13071
vati	-13072
vial	-13073
▁Lol	-13074
▁Left	-13075
▁nice	-13076
▁Clerk	-13077
▁knock	-13078
▁rites	-13079
▁dollar	-13080
▁Hamachi	-13081
▁Trading	-13082
▁enforcing	-13083
▁provinces	-13084
▁advertised	-13085
▁pesticides	-13086
NU	-13087
aga	-13088
cho	-13089
▁haw	-13090
▁Chin	-13091
▁DIST	-13092
opathy	-13093
▁bliss	-13094
▁Intell	-13095
izations	-13096
▁Digital	-13097
▁ongoing	-13098
▁confused	-13099
▁propriety	-13100
▁Ultimately	-13101
ico	-13102
▁Ste	-13103
▁kin	-13104
▁sue	-13105
▁dual	-13106
pering	-13107
verage	-13108
▁Given	-13109
▁Mandi	-13110
▁Nanda	-13111
▁Shank	-13112
▁loses	-13113
▁urine	-13114
imental	-13115
orrhage	-13116
▁cousin	-13117
▁Earlier	-13118
▁Vietnam	-13119
▁pursuit	-13120
▁socially	-13121
▁medically	-13122
▁comparable	-13123
▁improbable	-13124
▁purchasers	-13125
▁concessions	-13126
ilee	-13127
osted	-13128
▁Answ	-13129
▁agro	-13130
▁daco	-13131
iniyam	-13132
▁Activ	-13133
▁abate	-13134
▁resum	-13135
▁vivid	-13136
▁Ashish	-13137
▁Immedi	-13138
▁Island	-13139
▁Surender	-13140
▁foremost	-13141
▁searching	-13142
▁Scientific	-13143
▁retrospect	-13144
▁specialized	-13145
▁connectivity	-13146
▁FT	-13147
▁na	-13148
anag	-13149
iscl	-13150
▁Raw	-13151
▁hub	-13152
amind	-13153
field	-13154
forma	-13155
▁lean	-13156
▁Scale	-13157
▁alike	-13158
▁gradu	-13159
ausible	-13160
▁Adalat	-13161
▁Kishan	-13162
▁indemn	-13163
itorious	-13164
▁neutral	-13165
▁outward	-13166
▁varying	-13167
▁diabetes	-13168
▁forehead	-13169
▁indulged	-13170
▁proclaim	-13171
▁afterwards	-13172
▁Commonwealth	-13173
▁facilitating	-13174
ENG	-13175
kay	-13176
vil	-13177
▁mm	-13178
▁ov	-13179
ihad	-13180
▁Imm	-13181
aided	-13182
▁Manj	-13183
▁rans	-13184
▁cheap	-13185
▁ranks	-13186
▁wives	-13187
▁Install	-13188
▁Reports	-13189
▁decrees	-13190
▁morality	-13191
▁visitors	-13192
▁Terrorism	-13193
▁breathing	-13194
▁inspected	-13195
▁Electrical	-13196
▁precaution	-13197
▁nationalism	-13198
▁neighbouring	-13199
gedy	-13200
▁Kum	-13201
▁Nok	-13202
▁ray	-13203
▁appr	-13204
▁jute	-13205
anchal	-13206
▁ambig	-13207
▁flesh	-13208
▁shame	-13209
▁Advert	-13210
▁Paswan	-13211
▁mirror	-13212
▁ration	-13213
▁Manilal	-13214
▁distress	-13215
▁magnetic	-13216
▁stronger	-13217
▁surgical	-13218
▁Evolution	-13219
▁engineers	-13220
▁transfers	-13221
▁fulfilling	-13222
▁transition	-13223
olf	-13224
▁dub	-13225
▁Gate	-13226
▁bere	-13227
▁nest	-13228
urring	-13229
▁toile	-13230
▁Jordan	-13231
▁Mamlat	-13232
▁denies	-13233
▁surely	-13234
▁harness	-13235
▁inhabit	-13236
▁Buddhism	-13237
▁deterior	-13238
▁distinctive	-13239
▁prosecuting	-13240
▁contemplates	-13241
adar	-13242
ania	-13243
hati	-13244
rium	-13245
▁Jog	-13246
▁Nom	-13247
▁Syn	-13248
khana	-13249
▁SHRI	-13250
▁tone	-13251
itting	-13252
▁Impro	-13253
▁boost	-13254
▁Colony	-13255
▁Vikram	-13256
▁leased	-13257
▁dollars	-13258
▁nursing	-13259
▁researc	-13260
▁tension	-13261
▁endorsed	-13262
▁disciples	-13263
▁employers	-13264
▁medicinal	-13265
▁mortgaged	-13266
▁narrative	-13267
▁untenable	-13268
▁worldwide	-13269
▁Institutes	-13270
▁conferring	-13271
▁confessional	-13272
▁intentionally	-13273
▁SW	-13274
juna	-13275
▁hrs	-13276
anama	-13277
itably	-13278
ridges	-13279
▁Patil	-13280
atience	-13281
▁hunger	-13282
▁Tripura	-13283
▁disable	-13284
▁vesting	-13285
forcement	-13286
▁emotions	-13287
▁certainty	-13288
▁forgotten	-13289
▁petroleum	-13290
▁Chatterjee	-13291
▁endeavours	-13292
oqu	-13293
▁Bo	-13294
fast	-13295
have	-13296
urna	-13297
mohan	-13298
▁Hamas	-13299
▁debit	-13300
▁demer	-13301
▁metic	-13302
▁ships	-13303
▁waiver	-13304
▁bidding	-13305
▁colours	-13306
▁Medicine	-13307
▁spending	-13308
▁telecomm	-13309
▁Lokayukta	-13310
▁abolished	-13311
▁defaulter	-13312
▁sentencing	-13313
▁GR	-13314
allu	-13315
irms	-13316
▁Fig	-13317
▁Tik	-13318
▁capac	-13319
▁laugh	-13320
▁Diplom	-13321
▁immort	-13322
▁washed	-13323
▁acquies	-13324
▁lacking	-13325
ditionally	-13326
▁particles	-13327
▁Uttarakhand	-13328
▁comparative	-13329
▁AA	-13330
bert	-13331
uing	-13332
▁Ast	-13333
▁Cop	-13334
arpur	-13335
▁motu	-13336
▁torn	-13337
▁Goods	-13338
▁rupee	-13339
▁lights	-13340
▁Systems	-13341
▁battery	-13342
▁clarity	-13343
▁mandates	-13344
▁ministry	-13345
▁spectrum	-13346
▁suggesting	-13347
▁fertilizers	-13348
alp	-13349
etus	-13350
heda	-13351
rics	-13352
shot	-13353
▁Cad	-13354
ariya	-13355
athan	-13356
lease	-13357
▁Bodh	-13358
▁Meas	-13359
▁barg	-13360
▁erad	-13361
▁kids	-13362
▁nurs	-13363
mities	-13364
▁Birth	-13365
▁Brief	-13366
▁Ashram	-13367
▁Asutosh	-13368
▁Europeans	-13369
▁Solicitor	-13370
▁consuming	-13371
▁indicative	-13372
▁minorities	-13373
▁hereinbefore	-13374
▁appropriately	-13375
▁authorization	-13376
tier	-13377
usha	-13378
▁Maul	-13379
▁payee	-13380
▁zones	-13381
▁bounds	-13382
▁delays	-13383
▁dinner	-13384
▁unexpl	-13385
▁commend	-13386
▁cordial	-13387
▁lifetime	-13388
▁Permanent	-13389
▁Democratic	-13390
▁Irrigation	-13391
▁Provincial	-13392
▁Revolution	-13393
▁certiorari	-13394
▁systematic	-13395
organisation	-13396
alu	-13397
▁NB	-13398
born	-13399
arted	-13400
▁Khar	-13401
▁NIOS	-13402
▁cane	-13403
usalem	-13404
▁Draft	-13405
itating	-13406
▁Commod	-13407
▁execut	-13408
▁throat	-13409
▁Edition	-13410
▁stressed	-13411
▁Jerusalem	-13412
▁elephants	-13413
▁Chairperson	-13414
ea	-13415
▁ba	-13416
angi	-13417
▁SID	-13418
araja	-13419
eterm	-13420
▁Cutt	-13421
▁drum	-13422
▁Still	-13423
▁overl	-13424
ickshaw	-13425
▁Almast	-13426
▁Lolita	-13427
▁encash	-13428
▁induce	-13429
▁lapsed	-13430
▁rubber	-13431
........	-13432
▁compare	-13433
▁handled	-13434
▁trivial	-13435
▁Ravindra	-13436
▁pressing	-13437
ordination	-13438
▁Adhiniyam	-13439
▁Mamlatdar	-13440
▁deviation	-13441
▁Securities	-13442
▁Vivekananda	-13443
▁transformed	-13444
▁expectations	-13445
kan	-13446
▁FR	-13447
ATES	-13448
imet	-13449
made	-13450
scale	-13451
▁Doct	-13452
▁Fold	-13453
▁cock	-13454
▁harb	-13455
▁pale	-13456
ulator	-13457
▁proxy	-13458
ductive	-13459
examine	-13460
iration	-13461
▁oppose	-13462
▁pledge	-13463
▁prints	-13464
▁unreli	-13465
▁heinous	-13466
▁lifting	-13467
▁virtual	-13468
▁vitiate	-13469
▁Festival	-13470
▁recruits	-13471
▁terrible	-13472
▁condemned	-13473
▁intestine	-13474
▁isolation	-13475
▁agricultur	-13476
▁similarity	-13477
HO	-13478
opsy	-13479
▁GDP	-13480
▁sty	-13481
▁dock	-13482
▁zeal	-13483
iating	-13484
▁Exhib	-13485
▁lungs	-13486
▁Mechan	-13487
▁induced	-13488
▁planted	-13489
stituting	-13490
▁Southern	-13491
▁forensic	-13492
▁interval	-13493
▁investor	-13494
▁plausible	-13495
▁inordinate	-13496
▁concurrence	-13497
▁incorporation	-13498
anqu	-13499
atri	-13500
last	-13501
andan	-13502
▁Prav	-13503
▁exon	-13504
▁unac	-13505
adhyay	-13506
▁Areas	-13507
▁Naidu	-13508
▁calam	-13509
▁waves	-13510
▁Auditor	-13511
▁Tourism	-13512
▁artists	-13513
▁episode	-13514
▁suffice	-13515
▁upgrade	-13516
▁Material	-13517
▁linkages	-13518
▁restruct	-13519
▁brilliant	-13520
▁teachings	-13521
▁vegetable	-13522
▁preferably	-13523
▁investigations	-13524
▁Md	-13525
agan	-13526
oler	-13527
▁ISO	-13528
▁vel	-13529
arium	-13530
▁Camb	-13531
▁Cant	-13532
▁Film	-13533
▁Panj	-13534
▁SAYS	-13535
ardhan	-13536
▁Field	-13537
▁Nizam	-13538
company	-13539
▁Commun	-13540
▁lectures	-13541
▁warrants	-13542
▁Champaran	-13543
▁Implementation	-13544
aunt	-13545
▁une	-13546
▁Patt	-13547
▁Poet	-13548
▁hole	-13549
▁Naval	-13550
▁semen	-13551
aneswar	-13552
▁Accept	-13553
▁coastal	-13554
unciation	-13555
▁moderate	-13556
▁Tehsildar	-13557
▁attribute	-13558
▁prolonged	-13559
▁sophistic	-13560
▁weightage	-13561
▁expiration	-13562
▁constituent	-13563
▁Communication	-13564
▁GA	-13565
otes	-13566
▁Bat	-13567
▁Hum	-13568
▁Sid	-13569
heres	-13570
▁Bhim	-13571
▁Kend	-13572
▁grap	-13573
ducted	-13574
▁gifts	-13575
▁tiger	-13576
▁crafts	-13577
▁infant	-13578
▁reside	-13579
▁welcom	-13580
▁fingers	-13581
▁predict	-13582
▁validly	-13583
▁appraisal	-13584
▁intensive	-13585
▁tantamount	-13586
▁consolidation	-13587
▁DG	-13588
anny	-13589
▁Amin	-13590
▁Qual	-13591
▁camel	-13592
▁Summit	-13593
▁dictum	-13594
▁horses	-13595
▁micros	-13596
ructural	-13597
▁affixed	-13598
ideration	-13599
▁Objection	-13600
▁Wikipedia	-13601
▁favourite	-13602
▁nationalist	-13603
▁confiscation	-13604
▁Recommendation	-13605
▁reconstruction	-13606
JEE	-13607
onia	-13608
▁Gob	-13609
▁RES	-13610
▁imb	-13611
▁sli	-13612
eeling	-13613
▁Pipes	-13614
▁Altern	-13615
▁Chaluk	-13616
▁Kittur	-13617
▁Venkat	-13618
▁embarr	-13619
▁noting	-13620
▁sevent	-13621
▁themes	-13622
▁Cuttack	-13623
▁airport	-13624
▁critics	-13625
▁lasting	-13626
▁parting	-13627
▁poultry	-13628
▁availing	-13629
▁charging	-13630
▁stranger	-13631
▁purchases	-13632
▁adjournment	-13633
▁disbursement	-13634
▁inadmissible	-13635
▁individually	-13636
cop	-13637
olen	-13638
ucid	-13639
▁OBC	-13640
▁Pot	-13641
▁Rash	-13642
▁Samb	-13643
▁gram	-13644
▁escal	-13645
▁grows	-13646
▁rigid	-13647
olation	-13648
uscript	-13649
▁losing	-13650
▁tribute	-13651
▁swelling	-13652
▁provident	-13653
▁attributes	-13654
▁Enforcement	-13655
▁corporations	-13656
▁inflammation	-13657
Us	-13658
sex	-13659
adha	-13660
appu	-13661
brid	-13662
ethe	-13663
iors	-13664
enger	-13665
gging	-13666
marks	-13667
▁sworn	-13668
▁Bihari	-13669
▁buried	-13670
▁postal	-13671
▁Gandhar	-13672
▁Witness	-13673
▁audited	-13674
▁centers	-13675
▁kilogram	-13676
▁totality	-13677
▁perceived	-13678
▁delivering	-13679
isk	-13680
▁Vr	-13681
Tube	-13682
▁rib	-13683
▁lend	-13684
▁pays	-13685
▁cargo	-13686
▁indis	-13687
▁tribe	-13688
▁trigg	-13689
umerable	-13690
▁Mineral	-13691
▁offline	-13692
▁symbols	-13693
witnesses	-13694
▁Manufact	-13695
▁exceeded	-13696
▁ordering	-13697
▁relieved	-13698
▁furniture	-13699
▁paintings	-13700
▁scientist	-13701
▁indefinite	-13702
▁unreliable	-13703
▁Statistical	-13704
ito	-13705
thi	-13706
▁DP	-13707
adia	-13708
pose	-13709
▁Deo	-13710
▁Miz	-13711
▁SEL	-13712
▁nic	-13713
▁Swed	-13714
▁lien	-13715
▁spur	-13716
teenth	-13717
▁Crown	-13718
▁Large	-13719
▁semin	-13720
▁Dharma	-13721
▁Honble	-13722
▁infect	-13723
▁merged	-13724
▁targets	-13725
▁worried	-13726
▁JUDGMENT	-13727
▁avoiding	-13728
▁confront	-13729
▁inquired	-13730
▁vicinity	-13731
▁welcomed	-13732
▁aesthetic	-13733
▁agitation	-13734
▁increment	-13735
▁Literature	-13736
▁Monitoring	-13737
▁deductions	-13738
▁Bhubaneswar	-13739
▁conditional	-13740
rec	-13741
ATED	-13742
anic	-13743
orts	-13744
post	-13745
▁Ill	-13746
▁Sch	-13747
▁tun	-13748
askar	-13749
odara	-13750
▁Cash	-13751
▁Muns	-13752
▁ampl	-13753
▁brah	-13754
▁twin	-13755
rishna	-13756
▁dairy	-13757
▁ninet	-13758
▁trick	-13759
assador	-13760
▁Charan	-13761
▁Sudhir	-13762
▁License	-13763
▁Pradeep	-13764
▁Records	-13765
warranted	-13766
▁embodied	-13767
▁inaction	-13768
▁estimates	-13769
▁Contractor	-13770
▁Appointment	-13771
OUN	-13772
▁Ro	-13773
itic	-13774
oven	-13775
▁HIV	-13776
▁cel	-13777
Judge	-13778
▁Pant	-13779
▁fare	-13780
▁Karan	-13781
▁Mills	-13782
▁guest	-13783
▁incul	-13784
▁pests	-13785
▁Choose	-13786
▁Delete	-13787
ographer	-13788
▁Benches	-13789
▁Tenancy	-13790
▁Memorial	-13791
▁Sarojini	-13792
▁Statutes	-13793
▁magazine	-13794
▁linguistic	-13795
▁provincial	-13796
▁transplant	-13797
▁Maintenance	-13798
▁altercation	-13799
▁disposition	-13800
▁Intelligence	-13801
HAN	-13802
ulf	-13803
ette	-13804
greg	-13805
iler	-13806
teen	-13807
▁Dog	-13808
▁Sep	-13809
▁gal	-13810
▁lin	-13811
ercul	-13812
nings	-13813
▁Kush	-13814
▁Mass	-13815
▁Send	-13816
▁Subs	-13817
▁bars	-13818
▁dent	-13819
▁lone	-13820
▁trip	-13821
asaheb	-13822
▁Incre	-13823
▁Nayak	-13824
▁Tahas	-13825
▁hindi	-13826
▁moist	-13827
▁naked	-13828
▁Bhagav	-13829
▁Hemant	-13830
▁filter	-13831
▁photoc	-13832
▁pulled	-13833
▁heights	-13834
▁clearing	-13835
▁monopoly	-13836
▁Cooperation	-13837
▁consignment	-13838
▁upgradation	-13839
▁overwhelming	-13840
▁inconvenience	-13841
do	-13842
▁ox	-13843
orph	-13844
wadi	-13845
▁Hab	-13846
▁Hir	-13847
human	-13848
▁Mans	-13849
▁stig	-13850
▁inacc	-13851
▁Mosque	-13852
▁tragedy	-13853
▁autonomy	-13854
▁mandated	-13855
▁prestige	-13856
▁restrain	-13857
▁Relations	-13858
▁assistant	-13859
▁evaluated	-13860
▁Ep	-13861
apse	-13862
izer	-13863
▁LIN	-13864
▁Own	-13865
▁Tam	-13866
▁pic	-13867
▁Poth	-13868
▁cens	-13869
▁ours	-13870
▁unch	-13871
erving	-13872
▁Track	-13873
▁debar	-13874
▁unfit	-13875
▁redund	-13876
▁remitt	-13877
▁summon	-13878
▁Jyotirm	-13879
▁Manohar	-13880
▁leaflet	-13881
▁seventh	-13882
idespread	-13883
▁analysed	-13884
▁baseless	-13885
▁militant	-13886
▁Statutory	-13887
▁listening	-13888
▁Aurangabad	-13889
▁judicially	-13890
▁redemption	-13891
OT	-13892
▁RC	-13893
anki	-13894
ucks	-13895
unct	-13896
▁Anj	-13897
▁Gal	-13898
▁Loh	-13899
▁Ros	-13900
▁ham	-13901
▁ink	-13902
▁odd	-13903
▁sar	-13904
arial	-13905
▁Brij	-13906
▁Kart	-13907
▁ausp	-13908
▁onto	-13909
ubilee	-13910
▁Coast	-13911
▁Nokia	-13912
▁abide	-13913
▁roles	-13914
▁arithm	-13915
▁cinema	-13916
▁copper	-13917
▁landed	-13918
▁Challen	-13919
▁Madurai	-13920
▁cabinet	-13921
▁smoking	-13922
▁dealings	-13923
▁infected	-13924
▁therefor	-13925
▁assembled	-13926
▁Assistance	-13927
▁unexpected	-13928
▁unwarranted	-13929
ede	-13930
pse	-13931
▁Ky	-13932
ball	-13933
eath	-13934
veli	-13935
▁Dad	-13936
▁Kak	-13937
▁PDF	-13938
▁cir	-13939
itius	-13940
owner	-13941
▁Heav	-13942
▁User	-13943
▁Frame	-13944
▁Units	-13945
▁vests	-13946
▁evolve	-13947
▁Advance	-13948
▁Bhushan	-13949
▁recital	-13950
▁confessed	-13951
▁misplaced	-13952
▁reiterate	-13953
▁supplying	-13954
Ps	-13955
▁MUK	-13956
▁Pin	-13957
CTION	-13958
anish	-13959
ankaj	-13960
usive	-13961
▁Decc	-13962
▁alph	-13963
▁misd	-13964
itious	-13965
▁Goyal	-13966
▁Oriya	-13967
▁grate	-13968
▁rains	-13969
▁spont	-13970
▁tired	-13971
ionship	-13972
▁Dharam	-13973
▁behest	-13974
▁marine	-13975
▁minded	-13976
▁Counter	-13977
▁borders	-13978
▁capture	-13979
▁indulge	-13980
▁unaided	-13981
▁wedding	-13982
▁Amritsar	-13983
▁Different	-13984
▁Initially	-13985
▁ambiguity	-13986
▁hierarchy	-13987
▁surprised	-13988
▁conflicting	-13989
▁probabilities	-13990
FA	-13991
hee	-13992
zer	-13993
▁--	-13994
appy	-13995
mith	-13996
▁LPG	-13997
▁Pud	-13998
ITION	-13999
▁Dash	-14000
▁Farid	-14001
▁embry	-14002
▁spots	-14003
sequent	-14004
▁deadly	-14005
▁drawer	-14006
▁legacy	-14007
piratory	-14008
▁Maximum	-14009
▁YouTube	-14010
▁lateral	-14011
▁seventy	-14012
▁Brahmins	-14013
▁disappro	-14014
▁celebrate	-14015
▁circulated	-14016
IAN	-14017
URE	-14018
ksh	-14019
sey	-14020
uis	-14021
▁Ox	-14022
qbal	-14023
▁Wel	-14024
aware	-14025
▁Lala	-14026
ponder	-14027
▁Would	-14028
▁champ	-14029
▁clerk	-14030
▁nutri	-14031
▁opted	-14032
▁astron	-14033
▁ceases	-14034
▁strive	-14035
▁uncert	-14036
▁abusing	-14037
▁implead	-14038
▁inspite	-14039
▁loading	-14040
▁delicate	-14041
▁proposes	-14042
▁attracting	-14043
▁depression	-14044
iph	-14045
urg	-14046
ilst	-14047
▁Exh	-14048
▁Fate	-14049
▁Meer	-14050
▁pipe	-14051
ispens	-14052
▁Debts	-14053
▁Kalyan	-14054
▁plenty	-14055
▁ransom	-14056
▁routes	-14057
▁Nicobar	-14058
▁firearm	-14059
▁washing	-14060
▁captured	-14061
▁clothing	-14062
▁magnific	-14063
▁salaries	-14064
▁sciences	-14065
▁succeeds	-14066
▁Mauritius	-14067
▁collusion	-14068
▁capacities	-14069
▁ineligible	-14070
▁popularity	-14071
▁disbelieved	-14072
▁accomplished	-14073
leep	-14074
uate	-14075
ulal	-14076
▁cot	-14077
adhar	-14078
astra	-14079
▁Does	-14080
▁Peace	-14081
▁Suraj	-14082
▁standi	-14083
▁walked	-14084
▁wished	-14085
Division	-14086
▁Greater	-14087
▁freight	-14088
▁handing	-14089
▁creatures	-14090
▁indispens	-14091
▁succumbed	-14092
▁widespread	-14093
▁Performance	-14094
▁practicable	-14095
▁replacement	-14096
▁Es	-14097
▁Os	-14098
pati	-14099
▁Bhu	-14100
▁Dab	-14101
▁Hom	-14102
▁NOC	-14103
▁Nit	-14104
liers	-14105
orate	-14106
▁Item	-14107
▁Rout	-14108
▁Zila	-14109
HERJEE	-14110
▁Kaush	-14111
▁chick	-14112
▁remit	-14113
▁torch	-14114
ructuous	-14115
▁Indones	-14116
▁painful	-14117
▁decrease	-14118
▁procured	-14119
▁rotation	-14120
▁MUKHERJEE	-14121
▁affording	-14122
▁Concession	-14123
▁Jyotirmath	-14124
▁impediment	-14125
▁multiplier	-14126
▁scriptures	-14127
▁Fundamental	-14128
▁manifestation	-14129
EB	-14130
Gen	-14131
mani	-14132
▁Was	-14133
imity	-14134
oresh	-14135
▁Chaw	-14136
▁Durg	-14137
▁Kund	-14138
atible	-14139
iscrim	-14140
▁Roman	-14141
▁STATE	-14142
▁decay	-14143
▁rocks	-14144
▁yards	-14145
▁Option	-14146
▁grammar	-14147
▁disciple	-14148
▁coordinate	-14149
▁forwarding	-14150
▁pilgrimage	-14151
▁comfortable	-14152
▁laboratories	-14153
▁reproduction	-14154
▁Jo	-14155
▁Sao	-14156
▁NGOs	-14157
▁gran	-14158
▁gunt	-14159
▁pari	-14160
▁shoot	-14161
▁token	-14162
▁undes	-14163
▁ranges	-14164
▁Between	-14165
▁Shastri	-14166
▁doubted	-14167
▁ethical	-14168
▁renders	-14169
▁delegate	-14170
▁eighteen	-14171
▁ignorant	-14172
▁Provinces	-14173
▁shoulders	-14174
▁Litigation	-14175
▁liquidator	-14176
▁contractors	-14177
▁meritorious	-14178
Es	-14179
▁१८	-14180
▁Kes	-14181
▁Tap	-14182
▁Edit	-14183
▁Wing	-14184
▁hygi	-14185
▁Chowk	-14186
▁Daily	-14187
▁Kalam	-14188
▁Treas	-14189
▁illum	-14190
▁liked	-14191
▁notew	-14192
▁Garden	-14193
▁catena	-14194
▁explan	-14195
▁repugn	-14196
▁stolen	-14197
▁females	-14198
▁prevents	-14199
▁franchise	-14200
▁candidature	-14201
▁infructuous	-14202
▁utilisation	-14203
CS	-14204
VAN	-14205
▁Fi	-14206
abar	-14207
mind	-14208
▁cab	-14209
chers	-14210
▁Chet	-14211
▁Pray	-14212
▁desc	-14213
▁disin	-14214
▁unpre	-14215
ighters	-14216
▁lapses	-14217
▁Brother	-14218
▁holiday	-14219
▁crystall	-14220
▁ancillary	-14221
▁contempor	-14222
▁dissatisf	-14223
▁enquiries	-14224
▁possesses	-14225
▁noteworthy	-14226
▁celebrations	-14227
▁authoritative	-14228
Reg	-14229
gic	-14230
uria	-14231
▁Pond	-14232
▁adds	-14233
▁quad	-14234
ducive	-14235
▁Intro	-14236
▁Youth	-14237
▁argues	-14238
▁clever	-14239
▁mature	-14240
▁refrain	-14241
▁annually	-14242
▁Copyright	-14243
▁manuscript	-14244
▁prejudiced	-14245
▁Immediately	-14246
▁concealment	-14247
▁disappeared	-14248
▁provocation	-14249
▁specification	-14250
ttes	-14251
▁AID	-14252
innah	-14253
▁Infl	-14254
ishers	-14255
▁Gandh	-14256
▁Ratan	-14257
▁quest	-14258
General	-14259
▁Munshi	-14260
▁bushes	-14261
▁monkey	-14262
▁hearsay	-14263
▁Claimant	-14264
▁meanings	-14265
▁resigned	-14266
▁misleading	-14267
▁specifying	-14268
▁congratulated	-14269
oric	-14270
▁Fat	-14271
ceans	-14272
▁Same	-14273
▁anth	-14274
asagar	-14275
ivance	-14276
▁Ankit	-14277
▁alert	-14278
▁bonus	-14279
▁frank	-14280
▁overs	-14281
▁Deccan	-14282
▁Versus	-14283
▁rarest	-14284
▁trader	-14285
▁percept	-14286
▁tractor	-14287
▁Backward	-14288
▁Vehicles	-14289
▁conducive	-14290
▁Tahasildar	-14291
▁succeeding	-14292
▁politicians	-14293
IFR	-14294
iga	-14295
voc	-14296
▁GM	-14297
itha	-14298
roph	-14299
▁muc	-14300
▁nas	-14301
isans	-14302
called	-14303
olence	-14304
racted	-14305
▁Tulsi	-14306
▁boxes	-14307
▁globe	-14308
▁mouse	-14309
▁sorry	-14310
▁veter	-14311
▁Ananda	-14312
▁foster	-14313
petition	-14314
▁Goddess	-14315
▁Inspect	-14316
▁enacting	-14317
▁refunded	-14318
▁consisted	-14319
▁evidently	-14320
▁reopening	-14321
▁connivance	-14322
si	-14323
▁BJ	-14324
iest	-14325
okes	-14326
▁Sex	-14327
▁mes	-14328
ifier	-14329
olent	-14330
▁Bhup	-14331
▁Kach	-14332
▁PMLA	-14333
▁Prop	-14334
▁Sarp	-14335
▁lust	-14336
▁pupp	-14337
angers	-14338
▁James	-14339
▁coins	-14340
▁dread	-14341
▁smugg	-14342
▁Examin	-14343
▁Poresh	-14344
▁roster	-14345
▁trends	-14346
▁anxiety	-14347
▁Graduate	-14348
▁ideology	-14349
▁shopping	-14350
▁Automatic	-14351
▁neglected	-14352
▁selecting	-14353
▁hereditary	-14354
▁persistent	-14355
▁uniformity	-14356
▁accumulated	-14357
▁intermediate	-14358
lad	-14359
▁Ho	-14360
arai	-14361
▁Kul	-14362
▁Upd	-14363
▁rum	-14364
▁vou	-14365
least	-14366
▁diag	-14367
▁lips	-14368
▁adapt	-14369
▁unreg	-14370
irement	-14371
witness	-14372
▁Ground	-14373
▁counts	-14374
▁Sandeep	-14375
▁compete	-14376
▁lessons	-14377
▁drawings	-14378
▁flexible	-14379
▁Applicant	-14380
▁Universal	-14381
▁deception	-14382
▁procession	-14383
▁unexplained	-14384
▁unjustified	-14385
Ind	-14386
zil	-14387
ansi	-14388
emic	-14389
iraj	-14390
list	-14391
pring	-14392
▁Moon	-14393
▁amid	-14394
defend	-14395
▁Prize	-14396
▁Saheb	-14397
limited	-14398
▁Jinnah	-14399
▁Medium	-14400
▁Pramod	-14401
▁openly	-14402
▁Seventh	-14403
▁resides	-14404
▁Citizens	-14405
▁Telephone	-14406
▁earmarked	-14407
▁inaugurate	-14408
▁sanitation	-14409
▁Magistrates	-14410
▁erroneously	-14411
▁inscription	-14412
▁superintendence	-14413
ca	-14414
DER	-14415
URU	-14416
awa	-14417
cot	-14418
ahal	-14419
iban	-14420
inth	-14421
wife	-14422
▁Bay	-14423
▁Jes	-14424
▁WOR	-14425
▁bog	-14426
▁tie	-14427
arama	-14428
rious	-14429
▁Quar	-14430
▁cars	-14431
▁cher	-14432
▁deer	-14433
▁noon	-14434
▁eager	-14435
▁grief	-14436
▁derive	-14437
▁enjoys	-14438
▁lastly	-14439
▁warned	-14440
▁acquaint	-14441
▁fruitful	-14442
▁Emergency	-14443
▁attendant	-14444
▁emergence	-14445
▁penalties	-14446
▁preponder	-14447
▁Presidency	-14448
▁concurrently	-14449
▁occasionally	-14450
▁comparatively	-14451
ses	-14452
▁IA	-14453
enic	-14454
▁SIM	-14455
▁Wed	-14456
▁aer	-14457
haran	-14458
payee	-14459
▁Hill	-14460
▁Iqbal	-14461
ropical	-14462
▁enjoin	-14463
▁Connect	-14464
▁Machine	-14465
▁restaur	-14466
endranath	-14467
▁Supervis	-14468
▁Panchnama	-14469
▁exploited	-14470
▁formulate	-14471
▁exhibition	-14472
IVE	-14473
▁Ny	-14474
face	-14475
fold	-14476
udal	-14477
▁Beh	-14478
▁Rul	-14479
▁mini	-14480
▁unav	-14481
▁Funds	-14482
▁cough	-14483
▁dense	-14484
▁edges	-14485
▁vigil	-14486
▁aggrav	-14487
▁skelet	-14488
▁weekly	-14489
renchment	-14490
▁throwing	-14491
▁practised	-14492
▁pensionary	-14493
▁sanctioning	-14494
ILL	-14495
apt	-14496
fly	-14497
bury	-14498
▁Lay	-14499
▁ank	-14500
▁ups	-14501
▁Veda	-14502
▁awak	-14503
▁Meher	-14504
▁Place	-14505
▁Print	-14506
▁Animal	-14507
▁Demand	-14508
▁mighty	-14509
▁steady	-14510
▁Courses	-14511
▁devotee	-14512
▁infrast	-14513
▁leveled	-14514
▁refuses	-14515
erculosis	-14516
▁Applying	-14517
▁condoned	-14518
▁determin	-14519
▁realities	-14520
▁denominator	-14521
.--	-14522
lers	-14523
▁thy	-14524
▁Bhan	-14525
venant	-14526
▁Ganes	-14527
▁agony	-14528
▁haven	-14529
▁secre	-14530
▁encomp	-14531
▁density	-14532
▁marital	-14533
▁textile	-14534
▁sentiment	-14535
▁panchanama	-14536
▁strategies	-14537
▁Conciliation	-14538
box	-14539
acie	-14540
mbud	-14541
▁Ask	-14542
▁DAC	-14543
▁Tim	-14544
▁ric	-14545
▁Mian	-14546
▁swim	-14547
▁imply	-14548
▁tenth	-14549
[...]
