<unk>	0
<s>	0
</s>	0
UuRrLl	0
DdAaTtEe	0
NnUuMm	0
▁t	-0
he	-1
▁a	-2
in	-3
▁o	-4
▁the	-5
re	-6
on	-7
▁s	-8
er	-9
at	-10
en	-11
▁.	-12
is	-13
▁of	-14
▁,	-15
nd	-16
▁w	-17
▁c	-18
it	-19
▁p	-20
es	-21
▁b	-22
al	-23
ed	-24
an	-25
or	-26
▁in	-27
▁f	-28
ar	-29
ion	-30
ou	-31
ing	-32
▁m	-33
▁to	-34
▁and	-35
ic	-36
▁d	-37
as	-38
▁h	-39
ent	-40
le	-41
ro	-42
▁th	-43
ct	-44
▁T	-45
▁I	-46
▁re	-47
▁n	-48
▁e	-49
os	-50
om	-51
▁be	-52
▁l	-53
il	-54
▁S	-55
ve	-56
▁A	-57
▁is	-58
ation	-59
us	-60
ut	-61
ot	-62
▁g	-63
ap	-64
ce	-65
im	-66
id	-67
▁C	-68
ur	-69
▁&	-70
ly	-71
▁for	-72
ad	-73
am	-74
▁The	-75
et	-76
▁on	-77
▁P	-78
ver	-79
▁-	-80
ol	-81
ch	-82
ay	-83
ment	-84
▁or	-85
ig	-86
st	-87
ow	-88
▁that	-89
ir	-90
▁M	-91
▁as	-92
▁pro	-93
el	-94
ul	-95
▁wh	-96
▁con	-97
▁B	-98
▁an	-99
apos	-100
▁st	-101
her	-102
▁it	-103
ith	-104
▁u	-105
ter	-106
ri	-107
ab	-108
▁al	-109
ate	-110
ect	-111
▁y	-112
ess	-113
ra	-114
▁de	-115
▁H	-116
▁with	-117
if	-118
▁su	-119
ge	-120
▁R	-121
▁by	-122
▁he	-123
res	-124
▁)	-125
▁(	-126
ers	-127
ist	-128
▁was	-129
od	-130
▁are	-131
▁D	-132
our	-133
qu	-134
ld	-135
▁com	-136
ity	-137
ak	-138
▁not	-139
▁v	-140
op	-141
▁ex	-142
▁G	-143
and	-144
em	-145
ill	-146
ere	-147
nt	-148
▁N	-149
iv	-150
ain	-151
est	-152
se	-153
ci	-154
um	-155
▁sh	-156
ant	-157
▁at	-158
▁r	-159
ive	-160
▁W	-161
▁this	-162
ort	-163
ave	-164
▁Ind	-165
ich	-166
art	-167
pp	-168
rom	-169
▁E	-170
ia	-171
ht	-172
ies	-173
ore	-174
ure	-175
▁which	-176
end	-177
▁L	-178
ac	-179
▁se	-180
▁from	-181
ud	-182
un	-183
all	-184
▁has	-185
▁have	-186
▁O	-187
th	-188
ust	-189
▁F	-190
▁ne	-191
ould	-192
▁In	-193
▁his	-194
▁k	-195
▁le	-196
ous	-197
▁ch	-198
ther	-199
ard	-200
▁:	-201
▁you	-202
ions	-203
▁we	-204
▁sp	-205
▁wor	-206
ind	-207
ag	-208
cc	-209
▁K	-210
▁all	-211
ome	-212
age	-213
▁int	-214
ated	-215
ight	-216
▁im	-217
ry	-218
▁India	-219
pt	-220
ance	-221
red	-222
ount	-223
▁comp	-224
▁so	-225
able	-226
▁pl	-227
▁j	-228
ice	-229
ans	-230
▁ad	-231
▁can	-232
ff	-233
▁J	-234
▁us	-235
ary	-236
rou	-237
nder	-238
ence	-239
▁ab	-240
so	-241
▁go	-242
ical	-243
▁U	-244
hi	-245
▁any	-246
av	-247
ong	-248
ear	-249
▁en	-250
▁app	-251
ast	-252
▁whe	-253
oc	-254
ult	-255
▁Th	-256
▁res	-257
▁cont	-258
▁dis	-259
ep	-260
ru	-261
og	-262
▁me	-263
▁un	-264
▁per	-265
▁other	-266
▁It	-267
pl	-268
▁under	-269
ell	-270
ction	-271
per	-272
ide	-273
▁its	-274
ial	-275
▁their	-276
▁will	-277
▁man	-278
ish	-279
▁been	-280
▁inc	-281
ost	-282
out	-283
▁one	-284
ame	-285
▁part	-286
du	-287
gh	-288
ations	-289
▁St	-290
vel	-291
▁;	-292
▁ag	-293
ub	-294
ok	-295
ie	-296
▁also	-297
ine	-298
ik	-299
▁tr	-300
iz	-301
ib	-302
▁had	-303
▁do	-304
ime	-305
orm	-306
▁there	-307
ang	-308
vern	-309
act	-310
▁V	-311
▁who	-312
ase	-313
ress	-314
ection	-315
▁imp	-316
▁up	-317
rit	-318
▁cl	-319
▁ar	-320
▁out	-321
▁but	-322
very	-323
▁/	-324
lic	-325
ian	-326
are	-327
ual	-328
▁were	-329
ire	-330
▁”	-331
ition	-332
ose	-333
cial	-334
ail	-335
▁He	-336
ach	-337
▁such	-338
one	-339
▁ind	-340
▁am	-341
▁pe	-342
▁sub	-343
▁prov	-344
ade	-345
▁“	-346
▁year	-347
ake	-348
ass	-349
ue	-350
▁they	-351
ourt	-352
▁acc	-353
▁comm	-354
erv	-355
aw	-356
▁Ch	-357
▁our	-358
ber	-359
▁may	-360
▁rel	-361
ign	-362
ord	-363
▁them	-364
ater	-365
aus	-366
ace	-367
ree	-368
ec	-369
vernment	-370
▁Go	-371
ident	-372
ory	-373
ational	-374
ens	-375
▁off	-376
▁Com	-377
ious	-378
ution	-379
▁no	-380
▁qu	-381
now	-382
stit	-383
▁time	-384
erson	-385
▁This	-386
▁pre	-387
ric	-388
ings	-389
▁cons	-390
iss	-391
ities	-392
▁ev	-393
form	-394
▁work	-395
ces	-396
▁him	-397
tern	-398
ike	-399
aid	-400
ee	-401
ople	-402
▁?	-403
ah	-404
▁tw	-405
▁te	-406
reat	-407
ack	-408
ove	-409
▁po	-410
▁more	-411
hed	-412
▁bec	-413
▁should	-414
rib	-415
▁person	-416
▁would	-417
itt	-418
▁rec	-419
▁Y	-420
▁count	-421
▁reg	-422
▁%	-423
▁em	-424
▁As	-425
aj	-426
ays	-427
fter	-428
▁people	-429
low	-430
▁only	-431
ject	-432
ip	-433
ath	-434
int	-435
▁act	-436
ild	-437
ause	-438
▁Act	-439
▁if	-440
velop	-441
▁pol	-442
▁ass	-443
▁some	-444
pe	-445
▁about	-446
▁know	-447
▁like	-448
▁into	-449
ments	-450
ite	-451
ound	-452
oy	-453
▁exp	-454
▁new	-455
elf	-456
ook	-457
ied	-458
ates	-459
fere	-460
▁over	-461
ile	-462
cess	-463
▁sc	-464
lect	-465
ond	-466
ank	-467
row	-468
ise	-469
amp	-470
▁Sh	-471
▁form	-472
▁these	-473
▁your	-474
ark	-475
fore	-476
ife	-477
▁pr	-478
▁when	-479
ced	-480
gr	-481
▁Comm	-482
vers	-483
▁made	-484
▁two	-485
▁dec	-486
ert	-487
ific	-488
▁sy	-489
me	-490
▁Con	-491
ng	-492
▁Pro	-493
▁’	-494
▁pres	-495
▁shall	-496
▁Court	-497
ll	-498
▁her	-499
igh	-500
▁Government	-501
▁ob	-502
▁fe	-503
▁ro	-504
ood	-505
▁Indian	-506
ative	-507
old	-508
▁fir	-509
▁ac	-510
ally	-511
▁resp	-512
erm	-513
ism	-514
ublic	-515
▁than	-516
▁att	-517
▁rep	-518
ating	-519
ness	-520
ward	-521
▁develop	-522
▁bet	-523
▁trans	-524
▁ent	-525
▁Un	-526
rough	-527
ors	-528
uc	-529
▁State	-530
▁rem	-531
▁dif	-532
ful	-533
▁my	-534
▁being	-535
▁inv	-536
een	-537
ular	-538
▁said	-539
cy	-540
ener	-541
▁An	-542
▁through	-543
ission	-544
quot	-545
ower	-546
▁after	-547
uring	-548
ered	-549
▁But	-550
▁We	-551
▁eff	-552
led	-553
▁des	-554
▁cent	-555
gan	-556
▁produ	-557
▁co	-558
▁where	-559
▁life	-560
wn	-561
ha	-562
▁pos	-563
▁sec	-564
▁And	-565
▁So	-566
▁country	-567
ning	-568
uth	-569
▁years	-570
stem	-571
ty	-572
ax	-573
olog	-574
hy	-575
▁Pres	-576
li	-577
▁again	-578
▁Pr	-579
ons	-580
lud	-581
ible	-582
als	-583
▁first	-584
ink	-585
▁serv	-586
▁col	-587
ility	-588
ne	-589
ature	-590
ural	-591
ents	-592
▁ord	-593
▁Bh	-594
und	-595
ved	-596
ract	-597
▁right	-598
cept	-599
▁very	-600
te	-601
ob	-602
▁law	-603
ange	-604
ft	-605
▁There	-606
▁set	-607
arm	-608
▁what	-609
▁ins	-610
fer	-611
oth	-612
▁Ex	-613
▁De	-614
▁world	-615
▁could	-616
up	-617
ati	-618
its	-619
lt	-620
▁need	-621
▁President	-622
ict	-623
▁get	-624
▁call	-625
ision	-626
▁well	-627
▁op	-628
▁must	-629
rap	-630
▁dist	-631
▁bl	-632
▁pur	-633
ght	-634
▁mem	-635
▁ed	-636
other	-637
any	-638
▁num	-639
con	-640
ided	-641
hen	-642
▁add	-643
▁Re	-644
ited	-645
▁bas	-646
▁giv	-647
▁system	-648
▁ra	-649
▁case	-650
▁just	-651
▁Ar	-652
urn	-653
gt	-654
air	-655
pos	-656
▁good	-657
aking	-658
▁spe	-659
ween	-660
▁Is	-661
▁ext	-662
les	-663
hip	-664
▁many	-665
▁mat	-666
ble	-667
▁before	-668
▁includ	-669
▁even	-670
ices	-671
▁requ	-672
▁cap	-673
▁between	-674
▁If	-675
▁char	-676
eth	-677
▁then	-678
▁writ	-679
iew	-680
▁fol	-681
ised	-682
▁used	-683
ily	-684
▁import	-685
stitut	-686
pport	-687
uch	-688
ures	-689
irect	-690
inal	-691
▁Hind	-692
ters	-693
own	-694
ral	-695
ough	-696
chn	-697
▁ke	-698
▁tra	-699
▁min	-700
▁differe	-701
ren	-702
▁see	-703
▁make	-704
▁how	-705
ix	-706
round	-707
▁def	-708
▁public	-709
▁child	-710
▁own	-711
▁every	-712
▁var	-713
stitution	-714
▁section	-715
▁Am	-716
ital	-717
▁long	-718
formation	-719
▁val	-720
▁day	-721
▁inst	-722
ages	-723
▁mon	-724
▁most	-725
▁&#	-726
ries	-727
▁br	-728
ody	-729
ef	-730
▁inf	-731
▁use	-732
oun	-733
app	-734
▁end	-735
▁mod	-736
ov	-737
▁way	-738
▁lar	-739
▁sm	-740
iness	-741
uthor	-742
▁she	-743
▁gener	-744
▁They	-745
▁follow	-746
hes	-747
▁i	-748
▁great	-749
▁state	-750
▁same	-751
ple	-752
▁gr	-753
ouse	-754
▁adv	-755
ern	-756
▁equ	-757
ished	-758
xt	-759
▁power	-760
▁Min	-761
ivers	-762
▁car	-763
▁now	-764
▁For	-765
aint	-766
ety	-767
▁inter	-768
ash	-769
gal	-770
imes	-771
ruct	-772
▁conc	-773
ever	-774
▁hel	-775
▁process	-776
▁organ	-777
▁bu	-778
gram	-779
ven	-780
conom	-781
ick	-782
ament	-783
arli	-784
▁take	-785
▁disc	-786
▁place	-787
▁order	-788
erest	-789
▁pass	-790
ality	-791
lim	-792
▁number	-793
▁Cent	-794
arch	-795
▁fact	-796
▁You	-797
▁because	-798
▁hum	-799
▁av	-800
tic	-801
alth	-802
gg	-803
iod	-804
bers	-805
angu	-806
▁present	-807
▁partic	-808
icial	-809
▁indust	-810
▁Wh	-811
▁against	-812
▁during	-813
▁stud	-814
▁fl	-815
▁Ne	-816
▁development	-817
▁det	-818
▁dem	-819
▁help	-820
ana	-821
ention	-822
▁fam	-823
▁educ	-824
istr	-825
▁dep	-826
▁consid	-827
▁those	-828
ired	-829
▁back	-830
▁On	-831
▁did	-832
▁lead	-833
▁ret	-834
▁Ad	-835
ined	-836
▁hand	-837
ars	-838
ork	-839
rop	-840
ified	-841
▁here	-842
ock	-843
▁different	-844
▁interest	-845
▁period	-846
▁med	-847
ck	-848
▁account	-849
ives	-850
ics	-851
▁occ	-852
▁court	-853
get	-854
▁econom	-855
ared	-856
min	-857
ants	-858
▁est	-859
ata	-860
ases	-861
ds	-862
▁sur	-863
ology	-864
▁tak	-865
man	-866
▁grow	-867
▁jud	-868
▁conf	-869
lish	-870
▁bus	-871
ting	-872
ists	-873
▁found	-874
ron	-875
▁Commission	-876
ted	-877
▁three	-878
ner	-879
▁iss	-880
▁fore	-881
▁Al	-882
▁To	-883
way	-884
▁term	-885
tc	-886
▁called	-887
ained	-888
▁both	-889
▁effect	-890
▁does	-891
▁down	-892
ten	-893
▁author	-894
▁pay	-895
ale	-896
ges	-897
ides	-898
ather	-899
read	-900
▁mark	-901
ually	-902
ency	-903
▁fin	-904
ph	-905
ploy	-906
▁water	-907
▁&#9	-908
▁cert	-909
▁bel	-910
▁cor	-911
▁comple	-912
roup	-913
ues	-914
ull	-915
au	-916
▁cre	-917
▁respect	-918
oint	-919
▁etc	-920
RB	-921
▁government	-922
▁start	-923
▁rece	-924
▁given	-925
arn	-926
▁techn	-927
▁Mus	-928
riv	-929
ES	-930
▁National	-931
▁commun	-932
ister	-933
▁gu	-934
▁contin	-935
▁langu	-936
▁loc	-937
ination	-938
▁high	-939
▁name	-940
ros	-941
nce	-942
▁ph	-943
▁str	-944
▁poss	-945
▁Mah	-946
▁aff	-947
▁wom	-948
less	-949
▁view	-950
▁direct	-951
ince	-952
▁spec	-953
▁applic	-954
▁cond	-955
▁‘	-956
▁oper	-957
▁want	-958
▁much	-959
icy	-960
▁without	-961
ute	-962
not	-963
▁ref	-964
▁sect	-965
reme	-966
blem	-967
▁means	-968
ceed	-969
▁each	-970
▁important	-971
▁del	-972
ici	-973
day	-974
▁program	-975
▁gl	-976
▁information	-977
▁look	-978
▁let	-979
▁prev	-980
▁read	-981
▁fac	-982
iel	-983
▁human	-984
ool	-985
isions	-986
▁small	-987
▁sim	-988
▁book	-989
ines	-990
▁som	-991
here	-992
▁amount	-993
orts	-994
▁problem	-995
erg	-996
▁gre	-997
ya	-998
ari	-999
uk	-1000
▁within	-1001
▁ty	-1002
▁body	-1003
▁social	-1004
lement	-1005
▁sign	-1006
esh	-1007
▁All	-1008
▁No	-1009
rict	-1010
pr	-1011
▁Le	-1012
▁avail	-1013
▁fun	-1014
ai	-1015
▁business	-1016
▁come	-1017
ived	-1018
▁mar	-1019
▁stand	-1020
▁prof	-1021
▁ser	-1022
▁polit	-1023
▁..	-1024
▁proper	-1025
▁cult	-1026
aving	-1027
▁incre	-1028
▁stre	-1029
▁Rep	-1030
ets	-1031
▁Eng	-1032
iter	-1033
▁tem	-1034
▁invest	-1035
▁point	-1036
▁ide	-1037
▁relig	-1038
crib	-1039
ized	-1040
▁various	-1041
por	-1042
▁vis	-1043
ected	-1044
ror	-1045
ivid	-1046
▁bank	-1047
▁play	-1048
▁happ	-1049
▁At	-1050
▁che	-1051
af	-1052
self	-1053
▁fil	-1054
▁exper	-1055
han	-1056
lam	-1057
▁cle	-1058
▁0	-1059
ains	-1060
▁large	-1061
▁last	-1062
arly	-1063
EN	-1064
wards	-1065
▁cr	-1066
▁High	-1067
▁say	-1068
▁sch	-1069
reed	-1070
▁think	-1071
ought	-1072
▁taken	-1073
med	-1074
▁Muslim	-1075
▁support	-1076
rol	-1077
ram	-1078
▁employ	-1079
ining	-1080
▁another	-1081
▁group	-1082
▁quest	-1083
▁soci	-1084
▁times	-1085
ession	-1086
▁...	-1087
▁dev	-1088
▁assess	-1089
▁education	-1090
▁cur	-1091
asht	-1092
ret	-1093
ways	-1094
▁known	-1095
▁!	-1096
ended	-1097
az	-1098
ason	-1099
ense	-1100
▁When	-1101
▁real	-1102
▁Ben	-1103
▁Ass	-1104
▁mind	-1105
▁while	-1106
▁Te	-1107
ulation	-1108
▁land	-1109
ternal	-1110
ically	-1111
▁lo	-1112
▁open	-1113
har	-1114
▁activ	-1115
▁How	-1116
ried	-1117
▁Raj	-1118
▁result	-1119
▁level	-1120
▁company	-1121
stand	-1122
itions	-1123
ances	-1124
ferred	-1125
▁income	-1126
rial	-1127
▁Man	-1128
▁ve	-1129
olution	-1130
arliament	-1131
▁estab	-1132
▁Central	-1133
ize	-1134
▁appro	-1135
▁prom	-1136
work	-1137
▁find	-1138
▁Jud	-1139
▁prot	-1140
▁month	-1141
▁Shri	-1142
▁move	-1143
ves	-1144
▁going	-1145
irc	-1146
▁national	-1147
▁Sc	-1148
ething	-1149
eration	-1150
uss	-1151
▁days	-1152
▁allow	-1153
▁rev	-1154
riend	-1155
▁Off	-1156
ization	-1157
▁beh	-1158
▁elect	-1159
ased	-1160
▁cannot	-1161
▁wind	-1162
▁ter	-1163
ged	-1164
▁OF	-1165
ption	-1166
▁necess	-1167
▁language	-1168
port	-1169
ER	-1170
ledge	-1171
urther	-1172
▁non	-1173
ium	-1174
ternational	-1175
▁These	-1176
▁pop	-1177
ering	-1178
▁members	-1179
land	-1180
▁subject	-1181
▁health	-1182
ccess	-1183
▁give	-1184
▁ben	-1185
▁Ram	-1186
lished	-1187
▁meet	-1188
▁special	-1189
par	-1190
ording	-1191
▁Dep	-1192
▁less	-1193
▁old	-1194
▁lim	-1195
cil	-1196
atic	-1197
▁Se	-1198
▁rest	-1199
▁sci	-1200
▁leg	-1201
omm	-1202
▁show	-1203
ately	-1204
ential	-1205
▁{	-1206
▁policy	-1207
ued	-1208
▁particular	-1209
▁Sing	-1210
▁children	-1211
ability	-1212
▁pract	-1213
ON	-1214
ug	-1215
▁}	-1216
▁bro	-1217
▁Or	-1218
▁div	-1219
▁four	-1220
▁—	-1221
ivil	-1222
bs	-1223
▁class	-1224
▁exist	-1225
▁available	-1226
onment	-1227
ising	-1228
▁What	-1229
▁certain	-1230
ins	-1231
isation	-1232
ither	-1233
alf	-1234
▁Q	-1235
ajor	-1236
▁sk	-1237
▁main	-1238
▁Res	-1239
section	-1240
▁death	-1241
pect	-1242
ote	-1243
ts	-1244
▁Brit	-1245
▁common	-1246
▁came	-1247
▁hist	-1248
ks	-1249
ference	-1250
▁States	-1251
▁among	-1252
▁friend	-1253
ury	-1254
▁countries	-1255
▁today	-1256
▁regard	-1257
▁accept	-1258
avan	-1259
▁cost	-1260
▁sit	-1261
ode	-1262
▁service	-1263
▁sent	-1264
▁PR	-1265
▁become	-1266
▁Sup	-1267
▁hig	-1268
inci	-1269
ittee	-1270
put	-1271
▁fund	-1272
▁head	-1273
▁Rs	-1274
ator	-1275
▁Tr	-1276
TI	-1277
▁dra	-1278
ross	-1279
▁too	-1280
oney	-1281
▁including	-1282
▁conn	-1283
ification	-1284
oss	-1285
▁product	-1286
▁Del	-1287
ividual	-1288
▁action	-1289
▁comput	-1290
▁free	-1291
att	-1292
ery	-1293
ran	-1294
▁sche	-1295
▁war	-1296
▁whole	-1297
▁His	-1298
▁due	-1299
▁cases	-1300
itted	-1301
oard	-1302
▁par	-1303
isl	-1304
▁matter	-1305
ND	-1306
ateg	-1307
ructure	-1308
iversity	-1309
▁self	-1310
duct	-1311
▁put	-1312
outh	-1313
▁project	-1314
▁services	-1315
▁done	-1316
ministr	-1317
▁provisions	-1318
▁list	-1319
ouncil	-1320
▁tre	-1321
▁object	-1322
na	-1323
▁She	-1324
▁met	-1325
ware	-1326
▁Supreme	-1327
▁family	-1328
▁area	-1329
▁care	-1330
▁rul	-1331
▁Gand	-1332
▁something	-1333
▁economic	-1334
▁trad	-1335
▁individual	-1336
cing	-1337
▁upon	-1338
▁major	-1339
ala	-1340
▁tax	-1341
uty	-1342
▁charact	-1343
▁respons	-1344
AR	-1345
ently	-1346
▁build	-1347
▁Islam	-1348
▁political	-1349
▁chang	-1350
▁vill	-1351
▁belie	-1352
▁sw	-1353
cl	-1354
ancial	-1355
otion	-1356
▁Parliament	-1357
▁society	-1358
▁tot	-1359
▁poet	-1360
▁second	-1361
▁far	-1362
idence	-1363
ield	-1364
▁women	-1365
▁Constitution	-1366
aim	-1367
▁net	-1368
gress	-1369
▁liter	-1370
▁success	-1371
▁Sec	-1372
▁value	-1373
▁Section	-1374
▁areas	-1375
▁provide	-1376
▁based	-1377
artment	-1378
ule	-1379
▁New	-1380
▁institut	-1381
▁express	-1382
▁ask	-1383
irit	-1384
▁const	-1385
▁capital	-1386
▁knowledge	-1387
▁plan	-1388
vir	-1389
ling	-1390
agement	-1391
▁food	-1392
▁men	-1393
▁supp	-1394
▁house	-1395
▁vi	-1396
▁repres	-1397
alk	-1398
pose	-1399
▁expl	-1400
▁rele	-1401
▁Delhi	-1402
eric	-1403
ending	-1404
sel	-1405
▁keep	-1406
ID	-1407
▁Pl	-1408
▁Gu	-1409
ticle	-1410
▁best	-1411
orth	-1412
ilities	-1413
▁nature	-1414
▁God	-1415
▁provided	-1416
▁circ	-1417
osed	-1418
ify	-1419
▁further	-1420
soci	-1421
cies	-1422
▁change	-1423
▁eng	-1424
▁left	-1425
▁making	-1426
▁concern	-1427
ilit	-1428
ples	-1429
▁Bhavan	-1430
▁words	-1431
ma	-1432
urity	-1433
ys	-1434
▁_	-1435
▁init	-1436
▁British	-1437
ems	-1438
lection	-1439
▁App	-1440
▁necessary	-1441
eal	-1442
icult	-1443
▁Ag	-1444
▁benef	-1445
▁away	-1446
▁few	-1447
▁Singh	-1448
▁held	-1449
ricult	-1450
▁control	-1451
ourse	-1452
aining	-1453
▁That	-1454
chie	-1455
icer	-1456
ogn	-1457
iqu	-1458
▁Rasht	-1459
▁reason	-1460
▁One	-1461
▁date	-1462
▁window	-1463
▁Gandhi	-1464
ittle	-1465
▁market	-1466
▁run	-1467
hys	-1468
▁always	-1469
▁English	-1470
▁orig	-1471
▁kind	-1472
▁hold	-1473
▁having	-1474
▁heart	-1475
▁question	-1476
▁mill	-1477
▁whether	-1478
▁following	-1479
▁still	-1480
ences	-1481
epend	-1482
▁sol	-1483
▁five	-1484
iding	-1485
▁thought	-1486
iver	-1487
▁mus	-1488
▁full	-1489
▁el	-1490
▁proceed	-1491
▁school	-1492
▁spirit	-1493
▁x	-1494
▁feel	-1495
ope	-1496
▁Bengal	-1497
vironment	-1498
▁age	-1499
▁mater	-1500
▁required	-1501
▁Hindi	-1502
▁foreign	-1503
rapati	-1504
ior	-1505
ories	-1506
▁Hindu	-1507
adesh	-1508
▁things	-1509
▁growth	-1510
▁Reg	-1511
▁young	-1512
▁address	-1513
▁sl	-1514
mes	-1515
▁sector	-1516
▁En	-1517
idd	-1518
▁light	-1519
▁application	-1520
▁deal	-1521
ger	-1522
thing	-1523
▁Rashtrapati	-1524
▁impro	-1525
▁little	-1526
emb	-1527
▁possible	-1528
▁mean	-1529
▁money	-1530
▁Cong	-1531
▁Council	-1532
▁Committee	-1533
ured	-1534
ards	-1535
▁data	-1536
▁above	-1537
iction	-1538
▁himself	-1539
▁Acc	-1540
▁ann	-1541
iving	-1542
▁return	-1543
ats	-1544
▁bir	-1545
rent	-1546
▁perform	-1547
▁sever	-1548
▁meas	-1549
▁total	-1550
▁Mr	-1551
▁later	-1552
ience	-1553
▁achie	-1554
▁Law	-1555
▁suff	-1556
▁sat	-1557
▁obs	-1558
▁beg	-1559
▁itself	-1560
▁After	-1561
▁contrib	-1562
▁purpose	-1563
ara	-1564
▁Americ	-1565
ENT	-1566
▁never	-1567
raph	-1568
orn	-1569
▁report	-1570
cribed	-1571
▁situ	-1572
▁Bank	-1573
▁Sub	-1574
▁exam	-1575
▁diff	-1576
▁art	-1577
▁clause	-1578
ication	-1579
▁eas	-1580
▁function	-1581
ember	-1582
▁others	-1583
ises	-1584
▁towards	-1585
ours	-1586
come	-1587
io	-1588
pportun	-1589
▁industry	-1590
▁love	-1591
▁plac	-1592
AL	-1593
cious	-1594
▁ii	-1595
▁Prov	-1596
▁gra	-1597
ources	-1598
▁short	-1599
▁record	-1600
1;	-1601
▁&#91;	-1602
▁local	-1603
▁position	-1604
▁Ab	-1605
▁several	-1606
egr	-1607
▁ple	-1608
ibility	-1609
▁mult	-1610
▁persons	-1611
▁rese	-1612
▁Congress	-1613
pecial	-1614
HE	-1615
▁relations	-1616
sh	-1617
▁princi	-1618
▁turn	-1619
bit	-1620
used	-1621
▁dise	-1622
▁propos	-1623
asion	-1624
▁opportun	-1625
▁Be	-1626
▁since	-1627
akes	-1628
▁Pre	-1629
ively	-1630
▁material	-1631
▁tru	-1632
▁character	-1633
▁civil	-1634
▁RRB	-1635
▁sing	-1636
▁stat	-1637
▁around	-1638
▁ri	-1639
uro	-1640
▁cred	-1641
▁represent	-1642
▁six	-1643
▁ident	-1644
ready	-1645
▁es	-1646
▁financial	-1647
▁air	-1648
3;	-1649
▁&#93;	-1650
▁er	-1651
▁understand	-1652
▁thir	-1653
istry	-1654
ocu	-1655
▁mess	-1656
▁post	-1657
▁priv	-1658
▁maint	-1659
▁complete	-1660
▁referred	-1661
▁either	-1662
▁Pol	-1663
▁ir	-1664
▁took	-1665
▁production	-1666
▁administr	-1667
ees	-1668
▁hard	-1669
▁Union	-1670
▁appoint	-1671
▁streng	-1672
▁don	-1673
akh	-1674
▁already	-1675
ample	-1676
▁difficult	-1677
ably	-1678
▁decl	-1679
▁therefore	-1680
▁invol	-1681
▁region	-1682
▁office	-1683
▁Minister	-1684
▁course	-1685
reedom	-1686
ethod	-1687
▁type	-1688
▁treat	-1689
imal	-1690
▁plant	-1691
▁nat	-1692
▁progress	-1693
▁fail	-1694
selves	-1695
▁pat	-1696
▁ens	-1697
of	-1698
AN	-1699
ggest	-1700
lu	-1701
▁Me	-1702
▁dom	-1703
osp	-1704
▁LRB	-1705
▁home	-1706
▁fa	-1707
ann	-1708
▁quality	-1709
▁With	-1710
erc	-1711
ustom	-1712
ource	-1713
▁rate	-1714
▁higher	-1715
▁able	-1716
▁enc	-1717
alc	-1718
igation	-1719
▁sum	-1720
rought	-1721
der	-1722
aring	-1723
ony	-1724
▁fut	-1725
▁however	-1726
umb	-1727
▁inn	-1728
▁recogn	-1729
▁claim	-1730
▁ut	-1731
bsite	-1732
▁might	-1733
▁Gener	-1734
▁flow	-1735
▁phys	-1736
▁activities	-1737
▁better	-1738
els	-1739
▁bring	-1740
itional	-1741
▁ey	-1742
▁along	-1743
oura	-1744
▁ground	-1745
▁lab	-1746
▁property	-1747
▁caus	-1748
▁pet	-1749
oh	-1750
▁Z	-1751
▁suggest	-1752
▁However	-1753
arat	-1754
▁Dr	-1755
▁recomm	-1756
▁Just	-1757
IN	-1758
▁agree	-1759
▁demand	-1760
▁international	-1761
▁ur	-1762
▁received	-1763
▁side	-1764
▁University	-1765
most	-1766
▁method	-1767
arth	-1768
▁seen	-1769
▁equal	-1770
▁Em	-1771
▁bo	-1772
arent	-1773
▁next	-1774
▁force	-1775
▁Sp	-1776
▁research	-1777
empt	-1778
▁abs	-1779
rodu	-1780
urs	-1781
▁pen	-1782
▁general	-1783
ta	-1784
jee	-1785
hing	-1786
amb	-1787
▁ess	-1788
▁cause	-1789
▁Some	-1790
▁conv	-1791
imum	-1792
▁went	-1793
abha	-1794
▁Develop	-1795
▁occasion	-1796
▁nation	-1797
▁Chi	-1798
▁THE	-1799
atory	-1800
▁appear	-1801
gether	-1802
▁together	-1803
▁authority	-1804
▁strong	-1805
▁discuss	-1806
itiz	-1807
▁mor	-1808
ita	-1809
▁rights	-1810
rah	-1811
▁got	-1812
▁Serv	-1813
▁institutions	-1814
▁redu	-1815
▁access	-1816
▁ill	-1817
▁basis	-1818
ude	-1819
udd	-1820
acity	-1821
▁aut	-1822
▁House	-1823
ration	-1824
ving	-1825
▁Part	-1826
▁file	-1827
▁cell	-1828
▁started	-1829
▁history	-1830
▁district	-1831
▁test	-1832
▁ver	-1833
itation	-1834
▁future	-1835
▁became	-1836
▁proced	-1837
▁website	-1838
ke	-1839
▁implement	-1840
▁freedom	-1841
▁problems	-1842
▁thing	-1843
▁associ	-1844
▁big	-1845
▁docu	-1846
▁though	-1847
▁network	-1848
ension	-1849
▁ten	-1850
▁goods	-1851
▁deep	-1852
▁working	-1853
ened	-1854
▁ele	-1855
inary	-1856
omes	-1857
▁computer	-1858
▁Department	-1859
ruction	-1860
▁conduct	-1861
▁ce	-1862
istan	-1863
▁party	-1864
▁mo	-1865
▁Muk	-1866
▁example	-1867
▁technology	-1868
ills	-1869
▁bre	-1870
▁super	-1871
▁related	-1872
ier	-1873
▁Sy	-1874
▁initi	-1875
stitute	-1876
cent	-1877
▁matters	-1878
▁dest	-1879
OR	-1880
▁Pradesh	-1881
▁environment	-1882
▁often	-1883
▁written	-1884
medi	-1885
▁viol	-1886
▁step	-1887
▁Sw	-1888
aster	-1889
ached	-1890
▁determ	-1891
▁agricult	-1892
side	-1893
aper	-1894
▁sal	-1895
▁word	-1896
▁unt	-1897
istic	-1898
▁live	-1899
ME	-1900
▁gen	-1901
uf	-1902
ians	-1903
▁key	-1904
▁once	-1905
▁z	-1906
▁modern	-1907
▁months	-1908
▁di	-1909
▁Mad	-1910
▁entire	-1911
▁Fin	-1912
itor	-1913
itive	-1914
▁farm	-1915
rael	-1916
mitted	-1917
▁scheme	-1918
▁movement	-1919
anch	-1920
▁sym	-1921
ched	-1922
une	-1923
riage	-1924
▁crit	-1925
▁role	-1926
▁try	-1927
▁terms	-1928
ront	-1929
▁Dis	-1930
▁pub	-1931
▁design	-1932
aries	-1933
▁integr	-1934
▁security	-1935
▁conditions	-1936
▁considered	-1937
acy	-1938
▁Israel	-1939
▁relating	-1940
▁established	-1941
▁Chief	-1942
▁brought	-1943
▁Af	-1944
▁Im	-1945
▁pot	-1946
▁needs	-1947
▁independ	-1948
▁pow	-1949
ercial	-1950
mber	-1951
▁mis	-1952
ji	-1953
aged	-1954
▁Col	-1955
lected	-1956
▁field	-1957
ental	-1958
▁imm	-1959
aps	-1960
▁II	-1961
▁previous	-1962
▁observ	-1963
▁Development	-1964
▁leaders	-1965
▁energ	-1966
▁separ	-1967
▁deb	-1968
▁opp	-1969
▁fel	-1970
▁paid	-1971
amm	-1972
ina	-1973
▁top	-1974
rish	-1975
hile	-1976
▁students	-1977
ring	-1978
▁vol	-1979
▁detail	-1980
▁manner	-1981
▁link	-1982
pur	-1983
▁norm	-1984
▁My	-1985
▁text	-1986
▁General	-1987
▁earli	-1988
rast	-1989
▁Cont	-1990
▁Chand	-1991
▁close	-1992
▁line	-1993
▁Govern	-1994
▁cro	-1995
▁mother	-1996
▁blood	-1997
sequ	-1998
▁Ministry	-1999
▁lib	-2000
▁Euro	-2001
▁PRES	-2002
▁true	-2003
▁creat	-2004
▁member	-2005
allen	-2006
▁sense	-2007
▁visit	-2008
ane	-2009
erve	-2010
AT	-2011
ev	-2012
▁saf	-2013
▁past	-2014
▁acqu	-2015
isd	-2016
▁religious	-2017
urance	-2018
▁official	-2019
▁require	-2020
▁press	-2021
▁according	-2022
atives	-2023
hold	-2024
▁Comp	-2025
oid	-2026
▁terror	-2027
▁sett	-2028
▁legal	-2029
ms	-2030
▁living	-2031
IC	-2032
▁citiz	-2033
▁ded	-2034
▁share	-2035
▁Europe	-2036
ait	-2037
▁story	-2038
▁dou	-2039
▁ful	-2040
▁decision	-2041
▁glob	-2042
iminal	-2043
▁village	-2044
▁subst	-2045
▁community	-2046
cell	-2047
▁custom	-2048
▁face	-2049
poses	-2050
unt	-2051
▁million	-2052
ief	-2053
ison	-2054
00	-2055
▁Now	-2056
▁mach	-2057
▁consider	-2058
atch	-2059
▁except	-2060
▁natural	-2061
▁Mukher	-2062
ape	-2063
ends	-2064
▁assist	-2065
▁industrial	-2066
▁rule	-2067
ott	-2068
▁adop	-2069
▁learn	-2070
▁vari	-2071
▁Not	-2072
▁Sche	-2073
omb	-2074
ali	-2075
▁particip	-2076
▁undert	-2077
action	-2078
▁parts	-2079
▁squ	-2080
ological	-2081
▁concerned	-2082
▁Mukherjee	-2083
▁personal	-2084
cri	-2085
ung	-2086
▁cop	-2087
▁trade	-2088
▁energy	-2089
▁passed	-2090
▁justice	-2091
▁purposes	-2092
▁exec	-2093
▁scient	-2094
▁opens	-2095
▁using	-2096
change	-2097
▁grant	-2098
▁specified	-2099
acher	-2100
▁Muslims	-2101
ches	-2102
▁study	-2103
▁compet	-2104
ama	-2105
vi	-2106
▁Su	-2107
▁training	-2108
gu	-2109
sw	-2110
▁taking	-2111
▁Co	-2112
imate	-2113
▁loss	-2114
ler	-2115
▁Courts	-2116
▁issue	-2117
▁democ	-2118
itness	-2119
▁Ph	-2120
▁rules	-2121
▁current	-2122
▁management	-2123
▁begin	-2124
IDENT	-2125
▁provides	-2126
▁Mar	-2127
▁Par	-2128
▁father	-2129
usion	-2130
ek	-2131
▁bea	-2132
ames	-2133
▁forward	-2134
krit	-2135
▁United	-2136
▁fr	-2137
vant	-2138
▁early	-2139
▁legisl	-2140
ti	-2141
▁peace	-2142
ship	-2143
illed	-2144
mission	-2145
▁institution	-2146
▁*	-2147
ening	-2148
▁near	-2149
airs	-2150
▁transfer	-2151
ani	-2152
▁Cor	-2153
▁PRESIDENT	-2154
▁Cl	-2155
ners	-2156
▁Direct	-2157
▁sou	-2158
▁century	-2159
▁asked	-2160
▁External	-2161
▁pri	-2162
ots	-2163
▁greater	-2164
▁carry	-2165
irl	-2166
▁mag	-2167
▁yet	-2168
go	-2169
ient	-2170
▁religion	-2171
▁population	-2172
▁developed	-2173
uted	-2174
▁states	-2175
▁Div	-2176
▁credit	-2177
▁themselves	-2178
▁bra	-2179
▁Pran	-2180
line	-2181
asing	-2182
isf	-2183
▁compl	-2184
▁neg	-2185
▁why	-2186
▁Such	-2187
▁message	-2188
▁disease	-2189
ead	-2190
▁apply	-2191
▁Kh	-2192
▁influ	-2193
▁trib	-2194
▁condition	-2195
▁Board	-2196
▁Do	-2197
▁establish	-2198
▁cast	-2199
▁port	-2200
▁Justice	-2201
TION	-2202
tt	-2203
▁outside	-2204
▁experience	-2205
▁clear	-2206
ropri	-2207
▁Sabha	-2208
▁appeal	-2209
▁allowed	-2210
▁powers	-2211
vey	-2212
rest	-2213
▁Ple	-2214
▁building	-2215
▁charge	-2216
aun	-2217
▁really	-2218
val	-2219
▁introdu	-2220
ilt	-2221
ival	-2222
▁provision	-2223
▁red	-2224
▁assessment	-2225
▁consum	-2226
▁include	-2227
▁hy	-2228
▁pun	-2229
▁tell	-2230
▁jur	-2231
▁parties	-2232
▁culture	-2233
ask	-2234
mit	-2235
▁mass	-2236
▁immedi	-2237
▁soon	-2238
▁Techn	-2239
fully	-2240
▁literature	-2241
▁books	-2242
aya	-2243
▁programme	-2244
▁US	-2245
emed	-2246
inion	-2247
▁meeting	-2248
▁stage	-2249
▁Pranab	-2250
▁ll	-2251
ilar	-2252
ored	-2253
ects	-2254
▁arr	-2255
▁SC	-2256
▁earlier	-2257
▁mention	-2258
ilk	-2259
over	-2260
▁anything	-2261
▁city	-2262
▁gave	-2263
▁Republic	-2264
▁original	-2265
▁Where	-2266
▁Pun	-2267
▁lay	-2268
avour	-2269
▁capacity	-2270
va	-2271
ush	-2272
orrow	-2273
▁exc	-2274
▁prep	-2275
▁aim	-2276
adi	-2277
ulated	-2278
▁essential	-2279
▁writing	-2280
cient	-2281
▁half	-2282
▁Public	-2283
▁instru	-2284
▁structure	-2285
▁boy	-2286
▁low	-2287
▁Rec	-2288
▁signific	-2289
▁actually	-2290
▁Int	-2291
ixed	-2292
▁Let	-2293
▁changes	-2294
eral	-2295
itable	-2296
icient	-2297
▁exerc	-2298
▁whose	-2299
▁resources	-2300
▁assessee	-2301
▁Can	-2302
IS	-2303
▁wide	-2304
▁challen	-2305
iddle	-2306
ousand	-2307
▁Our	-2308
lo	-2309
▁almost	-2310
▁aud	-2311
▁create	-2312
▁fall	-2313
▁bal	-2314
eed	-2315
▁attack	-2316
▁Information	-2317
bar	-2318
▁duty	-2319
ift	-2320
▁payment	-2321
▁physical	-2322
▁soft	-2323
eness	-2324
chan	-2325
▁lat	-2326
▁Jan	-2327
IA	-2328
ctions	-2329
▁medical	-2330
▁thus	-2331
ada	-2332
▁works	-2333
▁situation	-2334
jab	-2335
▁Bill	-2336
▁talk	-2337
▁lear	-2338
IT	-2339
be	-2340
▁eight	-2341
▁achieve	-2342
enty	-2343
▁typ	-2344
▁Please	-2345
▁bar	-2346
anskrit	-2347
▁evidence	-2348
▁news	-2349
▁decided	-2350
▁Rel	-2351
▁issues	-2352
▁police	-2353
३०	-2354
▁article	-2355
▁Brah	-2356
▁Arab	-2357
▁laws	-2358
▁woman	-2359
pecially	-2360
▁products	-2361
▁tele	-2362
▁Judge	-2363
▁enter	-2364
▁West	-2365
▁king	-2366
▁satisf	-2367
▁nothing	-2368
12	-2369
4;	-2370
124;	-2371
▁&#124;	-2372
▁witness	-2373
ares	-2374
▁X	-2375
▁Adv	-2376
▁single	-2377
men	-2378
abad	-2379
▁issued	-2380
itude	-2381
▁least	-2382
▁Leg	-2383
▁transl	-2384
▁lot	-2385
oice	-2386
▁global	-2387
▁ensure	-2388
ones	-2389
▁innov	-2390
ams	-2391
▁Even	-2392
▁efforts	-2393
▁dr	-2394
▁IND	-2395
▁vers	-2396
▁May	-2397
tax	-2398
▁award	-2399
wise	-2400
▁san	-2401
▁son	-2402
rote	-2403
estern	-2404
▁earth	-2405
▁indic	-2406
▁thousand	-2407
▁Pal	-2408
▁Apr	-2409
anies	-2410
▁private	-2411
▁science	-2412
▁cover	-2413
aff	-2414
oot	-2415
▁treatment	-2416
br	-2417
osop	-2418
▁pati	-2419
ufact	-2420
▁prim	-2421
▁letter	-2422
▁conscious	-2423
ew	-2424
▁jo	-2425
▁fig	-2426
▁answ	-2427
let	-2428
▁sure	-2429
▁till	-2430
▁specific	-2431
undred	-2432
▁wr	-2433
▁job	-2434
▁ever	-2435
▁subs	-2436
▁makes	-2437
▁profession	-2438
anda	-2439
▁improve	-2440
▁created	-2441
icers	-2442
augh	-2443
▁While	-2444
adem	-2445
overed	-2446
▁enough	-2447
▁April	-2448
▁Report	-2449
▁rural	-2450
▁operation	-2451
▁inj	-2452
ategory	-2453
▁approach	-2454
▁kept	-2455
eng	-2456
▁especially	-2457
▁obt	-2458
▁told	-2459
▁teacher	-2460
▁proceedings	-2461
▁opportunity	-2462
▁Sanskrit	-2463
nam	-2464
▁Cons	-2465
▁univers	-2466
ators	-2467
▁continue	-2468
▁birth	-2469
uary	-2470
▁wrote	-2471
▁tree	-2472
▁leave	-2473
▁front	-2474
▁hon	-2475
▁repl	-2476
▁serious	-2477
ique	-2478
▁doing	-2479
ilosop	-2480
ging	-2481
EC	-2482
▁Trib	-2483
embly	-2484
▁increase	-2485
▁judicial	-2486
▁govern	-2487
▁Pe	-2488
▁behalf	-2489
▁procedure	-2490
▁investment	-2491
▁Bar	-2492
▁published	-2493
▁insp	-2494
for	-2495
▁Op	-2496
itting	-2497
bed	-2498
▁Ins	-2499
▁depos	-2500
▁circum	-2501
ires	-2502
estic	-2503
▁notice	-2504
▁Commissioner	-2505
▁temple	-2506
▁South	-2507
rect	-2508
▁sac	-2509
▁check	-2510
▁price	-2511
▁Officer	-2512
▁doub	-2513
▁road	-2514
agar	-2515
▁path	-2516
▁bur	-2517
hood	-2518
▁meaning	-2519
pre	-2520
▁jurisd	-2521
▁By	-2522
ourage	-2523
▁hundred	-2524
mir	-2525
▁belong	-2526
▁Mahar	-2527
▁providing	-2528
ores	-2529
▁effective	-2530
aves	-2531
▁Med	-2532
▁night	-2533
▁appropri	-2534
▁spread	-2535
▁Bi	-2536
▁Legisl	-2537
▁economy	-2538
▁similar	-2539
▁pros	-2540
▁petition	-2541
roll	-2542
▁vict	-2543
▁contract	-2544
▁den	-2545
▁third	-2546
▁poor	-2547
▁Mal	-2548
face	-2549
▁opinion	-2550
apter	-2551
▁carried	-2552
.0	-2553
inate	-2554
▁truth	-2555
▁Dist	-2556
eech	-2557
▁Gur	-2558
▁seek	-2559
▁stru	-2560
▁Thus	-2561
▁lakh	-2562
▁Pak	-2563
▁tour	-2564
my	-2565
▁vide	-2566
▁faith	-2567
▁stop	-2568
▁popular	-2569
den	-2570
▁forms	-2571
▁administration	-2572
eb	-2573
▁generally	-2574
▁Under	-2575
▁quite	-2576
▁harm	-2577
▁contact	-2578
▁across	-2579
iture	-2580
play	-2581
▁distrib	-2582
▁mere	-2583
rist	-2584
▁Article	-2585
▁Lord	-2586
▁manufact	-2587
encies	-2588
▁idea	-2589
▁sens	-2590
▁collect	-2591
▁anal	-2592
IR	-2593
▁List	-2594
sec	-2595
▁coop	-2596
▁bill	-2597
▁prescribed	-2598
ying	-2599
▁ris	-2600
rastructure	-2601
▁Punjab	-2602
utions	-2603
▁March	-2604
ili	-2605
duc	-2606
▁hands	-2607
▁accord	-2608
▁East	-2609
▁percent	-2610
▁reform	-2611
cle	-2612
gest	-2613
▁Income	-2614
uck	-2615
▁stated	-2616
▁travel	-2617
ump	-2618
ules	-2619
▁vir	-2620
▁courts	-2621
▁source	-2622
▁Chair	-2623
▁below	-2624
endment	-2625
joy	-2626
▁relevant	-2627
▁Institute	-2628
▁size	-2629
ban	-2630
▁Per	-2631
ivity	-2632
▁draw	-2633
▁During	-2634
▁Your	-2635
▁places	-2636
▁cut	-2637
▁International	-2638
rug	-2639
▁basic	-2640
▁practice	-2641
▁log	-2642
etimes	-2643
▁central	-2644
▁Add	-2645
▁cal	-2646
▁Indust	-2647
▁felt	-2648
▁river	-2649
▁giving	-2650
▁aspect	-2651
▁importance	-2652
▁jurisdiction	-2653
ED	-2654
▁emerg	-2655
▁sound	-2656
▁crop	-2657
▁jour	-2658
▁dri	-2659
▁facilities	-2660
racy	-2661
▁girl	-2662
▁parent	-2663
▁foc	-2664
▁King	-2665
aka	-2666
hib	-2667
hest	-2668
▁comb	-2669
AS	-2670
▁plus	-2671
▁write	-2672
ights	-2673
▁Sur	-2674
▁god	-2675
uly	-2676
▁IN	-2677
ulate	-2678
▁Pakistan	-2679
▁becomes	-2680
ex	-2681
▁reach	-2682
arily	-2683
▁Spe	-2684
band	-2685
by	-2686
pal	-2687
▁aware	-2688
earch	-2689
ouses	-2690
▁event	-2691
▁commercial	-2692
▁li	-2693
▁firm	-2694
▁Trans	-2695
▁coun	-2696
osition	-2697
▁measures	-2698
▁note	-2699
▁accused	-2700
▁statement	-2701
▁laun	-2702
▁Governor	-2703
▁marriage	-2704
▁philosop	-2705
▁According	-2706
▁recommend	-2707
▁potential	-2708
dom	-2709
▁fast	-2710
istration	-2711
▁agreement	-2712
▁mer	-2713
▁Service	-2714
▁criminal	-2715
▁Afric	-2716
avi	-2717
▁repe	-2718
▁bi	-2719
▁oil	-2720
▁strength	-2721
▁dam	-2722
ender	-2723
iry	-2724
raft	-2725
▁Calc	-2726
▁happy	-2727
▁circumst	-2728
utta	-2729
▁comes	-2730
▁citizens	-2731
gar	-2732
▁wife	-2733
▁regular	-2734
adu	-2735
aker	-2736
▁Pur	-2737
ously	-2738
▁began	-2739
▁novel	-2740
▁Krish	-2741
▁spiritual	-2742
leg	-2743
▁existing	-2744
ava	-2745
▁Qu	-2746
▁enjoy	-2747
gy	-2748
▁hope	-2749
▁followed	-2750
▁stri	-2751
▁prevent	-2752
ume	-2753
▁constitution	-2754
ned	-2755
haps	-2756
▁Day	-2757
▁install	-2758
▁exchange	-2759
▁room	-2760
▁judge	-2761
▁benefit	-2762
▁Then	-2763
▁pers	-2764
▁–	-2765
▁sun	-2766
▁disp	-2767
▁groups	-2768
▁usually	-2769
▁Mem	-2770
▁camp	-2771
▁whom	-2772
▁programmes	-2773
ney	-2774
omp	-2775
ables	-2776
▁brother	-2777
yond	-2778
part	-2779
▁gives	-2780
▁bound	-2781
▁punish	-2782
▁simple	-2783
▁anim	-2784
▁activity	-2785
amental	-2786
ancy	-2787
▁lower	-2788
▁wrong	-2789
▁believe	-2790
▁responsible	-2791
▁prior	-2792
▁und	-2793
▁wid	-2794
▁trust	-2795
▁mot	-2796
▁mov	-2797
▁Educ	-2798
▁milit	-2799
▁space	-2800
▁attempt	-2801
▁particularly	-2802
▁bit	-2803
▁existence	-2804
standing	-2805
iles	-2806
▁until	-2807
▁emp	-2808
▁film	-2809
ras	-2810
▁NA	-2811
▁Sm	-2812
▁appropriate	-2813
▁Som	-2814
▁concept	-2815
▁says	-2816
char	-2817
▁Net	-2818
▁dire	-2819
▁Secret	-2820
▁Tra	-2821
nces	-2822
ox	-2823
▁behind	-2824
▁deg	-2825
▁increased	-2826
▁offence	-2827
equ	-2828
▁Sa	-2829
▁unit	-2830
ingu	-2831
▁heav	-2832
▁lost	-2833
▁Wor	-2834
▁doct	-2835
▁request	-2836
ificate	-2837
▁American	-2838
▁sex	-2839
▁fair	-2840
▁Every	-2841
▁prop	-2842
unal	-2843
istered	-2844
▁cultural	-2845
▁diss	-2846
▁soul	-2847
utes	-2848
▁mand	-2849
▁mom	-2850
▁mount	-2851
▁conver	-2852
kar	-2853
▁rich	-2854
▁Technology	-2855
alty	-2856
body	-2857
▁beginning	-2858
▁appl	-2859
enth	-2860
▁song	-2861
▁consist	-2862
▁qual	-2863
▁poll	-2864
gn	-2865
▁Ma	-2866
amed	-2867
▁nor	-2868
▁wall	-2869
▁lives	-2870
poration	-2871
▁Har	-2872
rif	-2873
▁led	-2874
▁ep	-2875
▁der	-2876
▁forest	-2877
▁Calcutta	-2878
▁mut	-2879
▁stay	-2880
hem	-2881
▁INDIA	-2882
▁final	-2883
▁rather	-2884
▁search	-2885
new	-2886
ont	-2887
war	-2888
▁occur	-2889
▁limited	-2890
uls	-2891
▁Plan	-2892
isters	-2893
▁Mu	-2894
ault	-2895
▁addition	-2896
▁win	-2897
▁eyes	-2898
▁relation	-2899
▁circumstances	-2900
▁host	-2901
▁values	-2902
▁beyond	-2903
▁significant	-2904
▁TO	-2905
▁schol	-2906
▁protection	-2907
▁Lok	-2908
▁takes	-2909
▁crore	-2910
▁histor	-2911
▁saw	-2912
sy	-2913
▁Sar	-2914
▁Code	-2915
▁continued	-2916
▁feed	-2917
use	-2918
▁projects	-2919
▁systems	-2920
▁ideas	-2921
▁alone	-2922
▁Bal	-2923
▁adj	-2924
▁warm	-2925
▁employment	-2926
▁born	-2927
▁Ak	-2928
etic	-2929
▁built	-2930
▁remain	-2931
▁accepted	-2932
▁industries	-2933
AY	-2934
iff	-2935
▁poetry	-2936
▁World	-2937
▁expression	-2938
though	-2939
▁learning	-2940
▁appointed	-2941
▁unf	-2942
▁limit	-2943
atures	-2944
▁Budd	-2945
anation	-2946
▁seven	-2947
RI	-2948
ober	-2949
ishes	-2950
ades	-2951
▁infrastructure	-2952
rick	-2953
▁Author	-2954
▁continu	-2955
▁protect	-2956
▁Pat	-2957
enditure	-2958
▁responsibility	-2959
ris	-2960
reg	-2961
▁dig	-2962
▁Gang	-2963
▁Prime	-2964
oon	-2965
▁banks	-2966
▁emb	-2967
ouch	-2968
▁respond	-2969
▁round	-2970
▁trial	-2971
ze	-2972
▁prob	-2973
ograph	-2974
iful	-2975
▁reference	-2976
ruit	-2977
▁Any	-2978
▁Christ	-2979
▁strugg	-2980
ami	-2981
lege	-2982
▁Kash	-2983
▁arbit	-2984
▁From	-2985
▁coming	-2986
▁getting	-2987
rim	-2988
▁seed	-2989
▁cross	-2990
▁officer	-2991
▁IT	-2992
elling	-2993
▁mental	-2994
▁ways	-2995
▁direction	-2996
▁proposed	-2997
▁immediately	-2998
▁setting	-2999
▁assistance	-3000
▁$	-3001
▁Sat	-3002
asons	-3003
▁Bl	-3004
ene	-3005
abor	-3006
rary	-3007
▁sust	-3008
▁joint	-3009
▁arrest	-3010
▁dre	-3011
▁har	-3012
▁Bomb	-3013
verage	-3014
▁includes	-3015
▁observed	-3016
▁Tam	-3017
▁appre	-3018
utive	-3019
▁plants	-3020
vest	-3021
▁normal	-3022
▁nar	-3023
▁loan	-3024
▁increasing	-3025
ulations	-3026
▁details	-3027
▁music	-3028
▁wanted	-3029
anced	-3030
▁Many	-3031
▁Prof	-3032
▁Des	-3033
▁broad	-3034
▁formed	-3035
yle	-3036
▁functions	-3037
abh	-3038
▁mechan	-3039
▁else	-3040
▁teach	-3041
NA	-3042
miss	-3043
▁mentioned	-3044
▁cy	-3045
omen	-3046
▁drug	-3047
▁officers	-3048
▁pal	-3049
▁territ	-3050
▁forces	-3051
▁Kashmir	-3052
vention	-3053
com	-3054
ucle	-3055
▁Ved	-3056
▁hosp	-3057
▁safe	-3058
rs	-3059
▁Expl	-3060
▁device	-3061
▁Guj	-3062
▁Program	-3063
▁produce	-3064
ellow	-3065
usp	-3066
oted	-3067
▁dedu	-3068
▁status	-3069
ley	-3070
bol	-3071
▁lit	-3072
▁engine	-3073
▁consideration	-3074
▁Centre	-3075
▁opt	-3076
▁ste	-3077
ading	-3078
umbai	-3079
rant	-3080
▁purs	-3081
▁perf	-3082
▁attract	-3083
▁agricultural	-3084
▁violence	-3085
▁strengt	-3086
▁transport	-3087
▁January	-3088
▁secret	-3089
oke	-3090
▁goes	-3091
▁document	-3092
▁instrument	-3093
▁ru	-3094
uman	-3095
▁cele	-3096
▁presented	-3097
gment	-3098
▁ancient	-3099
▁sil	-3100
▁disci	-3101
▁fire	-3102
▁scale	-3103
▁famous	-3104
▁Fund	-3105
▁connect	-3106
where	-3107
▁prepared	-3108
▁Bombay	-3109
ellect	-3110
▁speech	-3111
▁America	-3112
▁animals	-3113
▁Sept	-3114
▁fem	-3115
▁copy	-3116
▁paper	-3117
▁Sim	-3118
▁Education	-3119
ograp	-3120
▁workers	-3121
know	-3122
▁companies	-3123
iva	-3124
▁North	-3125
▁sn	-3126
▁relationship	-3127
osis	-3128
ales	-3129
▁arch	-3130
▁medic	-3131
▁refers	-3132
oor	-3133
▁Aug	-3134
▁hus	-3135
▁fight	-3136
cer	-3137
▁included	-3138
▁max	-3139
▁languages	-3140
▁minus	-3141
▁receive	-3142
▁complaint	-3143
▁fear	-3144
▁longer	-3145
hic	-3146
anger	-3147
▁added	-3148
▁partners	-3149
▁Of	-3150
▁Bab	-3151
▁depend	-3152
▁active	-3153
▁connection	-3154
▁्	-3155
inated	-3156
ikh	-3157
ini	-3158
▁rad	-3159
▁week	-3160
reen	-3161
icro	-3162
elfare	-3163
▁polic	-3164
▁extent	-3165
ey	-3166
▁otherwise	-3167
▁correct	-3168
▁favour	-3169
▁wish	-3170
▁imag	-3171
▁page	-3172
icit	-3173
▁ign	-3174
inite	-3175
▁imper	-3176
▁memory	-3177
asa	-3178
▁obl	-3179
▁review	-3180
hru	-3181
▁af	-3182
▁Oct	-3183
PC	-3184
ton	-3185
▁user	-3186
▁attention	-3187
attle	-3188
▁Fore	-3189
▁accounts	-3190
▁fixed	-3191
▁involved	-3192
▁Provided	-3193
▁Cr	-3194
▁base	-3195
▁coll	-3196
▁pain	-3197
▁moment	-3198
▁arrange	-3199
esides	-3200
▁break	-3201
▁Assembly	-3202
UR	-3203
AC	-3204
▁tried	-3205
▁units	-3206
▁supply	-3207
hra	-3208
▁Tur	-3209
enced	-3210
▁sold	-3211
▁Bang	-3212
▁tool	-3213
▁caused	-3214
▁sea	-3215
▁directly	-3216
ensive	-3217
head	-3218
▁twenty	-3219
▁produced	-3220
▁dram	-3221
uge	-3222
ratic	-3223
▁black	-3224
▁consult	-3225
▁interests	-3226
▁task	-3227
▁Work	-3228
road	-3229
▁display	-3230
▁beaut	-3231
nal	-3232
▁Tw	-3233
▁expenditure	-3234
la	-3235
▁separate	-3236
cember	-3237
▁funds	-3238
▁friends	-3239
aughter	-3240
stituted	-3241
▁ago	-3242
asure	-3243
▁pict	-3244
▁accordance	-3245
IL	-3246
▁Tax	-3247
▁bad	-3248
▁stra	-3249
▁hor	-3250
▁Open	-3251
▁types	-3252
ites	-3253
▁Sri	-3254
▁scientific	-3255
▁labour	-3256
▁Chairman	-3257
▁adopted	-3258
ext	-3259
▁Sch	-3260
▁UN	-3261
▁June	-3262
▁speed	-3263
▁Hy	-3264
ticles	-3265
▁heard	-3266
▁Scheme	-3267
▁inform	-3268
▁documents	-3269
▁appe	-3270
▁milk	-3271
▁December	-3272
▁democracy	-3273
▁doubt	-3274
▁contained	-3275
itled	-3276
▁occup	-3277
▁standard	-3278
▁vision	-3279
▁domestic	-3280
hens	-3281
▁Utt	-3282
▁intellect	-3283
▁Tamil	-3284
▁video	-3285
▁white	-3286
▁unless	-3287
gen	-3288
▁Well	-3289
▁strateg	-3290
▁tar	-3291
▁standards	-3292
ids	-3293
atever	-3294
▁Mumbai	-3295
▁Account	-3296
vere	-3297
▁Shah	-3298
▁pred	-3299
▁exercise	-3300
oting	-3301
▁assets	-3302
▁Ac	-3303
▁Whe	-3304
▁remov	-3305
▁highest	-3306
▁employees	-3307
iny	-3308
▁reached	-3309
▁questions	-3310
to	-3311
▁Er	-3312
▁Africa	-3313
▁husband	-3314
▁software	-3315
▁clean	-3316
▁ant	-3317
abled	-3318
▁Fir	-3319
▁complex	-3320
▁revolution	-3321
▁ge	-3322
▁pie	-3323
▁contribution	-3324
▁fre	-3325
▁September	-3326
▁ton	-3327
▁Kal	-3328
▁laid	-3329
que	-3330
▁north	-3331
▁Mon	-3332
add	-3333
▁town	-3334
ternet	-3335
▁August	-3336
▁advance	-3337
osing	-3338
▁tur	-3339
▁image	-3340
▁likely	-3341
▁multip	-3342
▁summ	-3343
▁print	-3344
▁stor	-3345
▁Krishna	-3346
▁Asia	-3347
▁substant	-3348
oly	-3349
▁Director	-3350
▁System	-3351
▁offer	-3352
▁October	-3353
▁beautiful	-3354
▁Sam	-3355
▁Civil	-3356
▁steps	-3357
▁easy	-3358
▁effort	-3359
▁Nehru	-3360
▁pack	-3361
phas	-3362
verse	-3363
▁influence	-3364
▁dy	-3365
▁numbers	-3366
▁generation	-3367
▁context	-3368
▁distin	-3369
ellig	-3370
▁purch	-3371
▁Indians	-3372
▁performance	-3373
▁insurance	-3374
▁reasons	-3375
▁species	-3376
ength	-3377
▁pattern	-3378
CT	-3379
ager	-3380
▁hours	-3381
▁assign	-3382
▁Air	-3383
▁furn	-3384
▁quick	-3385
▁leading	-3386
▁District	-3387
▁Char	-3388
▁export	-3389
▁technical	-3390
▁Its	-3391
▁fold	-3392
▁risk	-3393
has	-3394
▁Category	-3395
▁bod	-3396
▁Research	-3397
izing	-3398
▁weak	-3399
▁costs	-3400
▁placed	-3401
▁recent	-3402
cription	-3403
▁swe	-3404
▁Bas	-3405
▁south	-3406
▁largest	-3407
umar	-3408
▁middle	-3409
▁majority	-3410
uration	-3411
oll	-3412
ora	-3413
▁organisation	-3414
▁orders	-3415
▁connected	-3416
oved	-3417
▁celebr	-3418
▁sometimes	-3419
▁results	-3420
▁minor	-3421
▁Palest	-3422
▁Western	-3423
▁cells	-3424
▁military	-3425
▁exceed	-3426
▁growing	-3427
▁policies	-3428
▁opportunities	-3429
▁Other	-3430
▁Ker	-3431
▁frame	-3432
▁util	-3433
ressed	-3434
▁described	-3435
▁range	-3436
▁Judges	-3437
onst	-3438
▁tradition	-3439
ground	-3440
▁answer	-3441
▁struggle	-3442
▁instead	-3443
▁unc	-3444
iment	-3445
▁implementation	-3446
▁Mag	-3447
▁independence	-3448
▁charges	-3449
▁academ	-3450
▁threat	-3451
▁educational	-3452
▁mob	-3453
▁tri	-3454
▁Dev	-3455
▁fully	-3456
rid	-3457
▁consciousness	-3458
▁rail	-3459
▁Elect	-3460
▁conflic	-3461
▁consequ	-3462
▁Red	-3463
▁mail	-3464
▁patient	-3465
olute	-3466
▁model	-3467
▁affected	-3468
▁dark	-3469
▁mode	-3470
ashtra	-3471
▁balance	-3472
▁July	-3473
▁deemed	-3474
▁former	-3475
▁seems	-3476
▁temper	-3477
▁focus	-3478
▁Person	-3479
▁Gh	-3480
▁egg	-3481
▁green	-3482
▁victim	-3483
▁nucle	-3484
▁Hindus	-3485
▁Val	-3486
▁pan	-3487
▁Explanation	-3488
atha	-3489
ailed	-3490
▁ones	-3491
▁principle	-3492
OS	-3493
▁Are	-3494
▁fort	-3495
▁quant	-3496
ipt	-3497
aught	-3498
▁origin	-3499
▁media	-3500
▁measure	-3501
▁regarding	-3502
▁Prot	-3503
▁fine	-3504
ateral	-3505
▁registered	-3506
pped	-3507
ysis	-3508
▁understanding	-3509
pond	-3510
ional	-3511
▁China	-3512
▁vac	-3513
▁Nove	-3514
▁team	-3515
uff	-3516
▁gri	-3517
▁inside	-3518
▁Up	-3519
cience	-3520
▁average	-3521
▁payable	-3522
▁independent	-3523
▁Chapter	-3524
▁declared	-3525
▁selected	-3526
▁hab	-3527
▁People	-3528
▁Special	-3529
▁looking	-3530
asc	-3531
ole	-3532
▁asset	-3533
▁command	-3534
umn	-3535
rown	-3536
▁refer	-3537
ensation	-3538
▁gold	-3539
▁facilit	-3540
raw	-3541
resh	-3542
▁perhaps	-3543
ression	-3544
▁farmers	-3545
▁authorities	-3546
▁Tag	-3547
▁extra	-3548
▁November	-3549
ields	-3550
▁guid	-3551
▁Islamic	-3552
ishn	-3553
▁cooperation	-3554
▁traditional	-3555
asth	-3556
▁animal	-3557
▁agriculture	-3558
▁Ob	-3559
▁Rules	-3560
▁Def	-3561
quiry	-3562
▁content	-3563
▁stock	-3564
▁iii	-3565
porary	-3566
▁First	-3567
▁Uttar	-3568
▁Gandhiji	-3569
▁associated	-3570
▁nom	-3571
iet	-3572
▁War	-3573
▁views	-3574
inery	-3575
▁leader	-3576
EL	-3577
▁ON	-3578
▁earn	-3579
▁rap	-3580
▁sections	-3581
▁Here	-3582
iciency	-3583
leep	-3584
▁dead	-3585
▁adequ	-3586
▁emphas	-3587
▁Management	-3588
▁presence	-3589
with	-3590
▁advice	-3591
oga	-3592
▁lack	-3593
▁multi	-3594
▁useful	-3595
▁certificate	-3596
arma	-3597
overy	-3598
▁Pand	-3599
▁youth	-3600
RA	-3601
▁More	-3602
▁Therefore	-3603
▁uns	-3604
view	-3605
▁reve	-3606
▁length	-3607
▁creation	-3608
▁extended	-3609
▁prem	-3610
ography	-3611
oms	-3612
ayan	-3613
▁eye	-3614
itle	-3615
▁style	-3616
▁terrorism	-3617
▁AND	-3618
order	-3619
▁advant	-3620
▁located	-3621
▁speak	-3622
pir	-3623
idy	-3624
▁San	-3625
▁autom	-3626
▁needed	-3627
ipur	-3628
▁larger	-3629
▁sentence	-3630
▁additional	-3631
▁fra	-3632
▁divine	-3633
irm	-3634
▁Inf	-3635
uties	-3636
▁rout	-3637
▁benefits	-3638
▁Division	-3639
aily	-3640
▁Roy	-3641
illing	-3642
ocation	-3643
▁centre	-3644
▁hospital	-3645
▁fulf	-3646
aded	-3647
▁failed	-3648
▁symbol	-3649
▁Ter	-3650
▁committed	-3651
▁Feb	-3652
▁extreme	-3653
▁developing	-3654
▁hot	-3655
▁principles	-3656
▁won	-3657
▁introduced	-3658
▁Ur	-3659
▁schemes	-3660
▁difference	-3661
ula	-3662
▁shown	-3663
▁Policy	-3664
▁Corporation	-3665
▁drink	-3666
▁perman	-3667
▁Project	-3668
hat	-3669
uled	-3670
▁calc	-3671
dule	-3672
▁Aut	-3673
▁ball	-3674
▁IS	-3675
arant	-3676
▁expressed	-3677
▁Most	-3678
▁fest	-3679
▁stories	-3680
▁registration	-3681
▁Ge	-3682
enior	-3683
▁Rem	-3684
▁Excell	-3685
▁enact	-3686
▁Chandra	-3687
nes	-3688
▁chem	-3689
▁promote	-3690
▁Child	-3691
ps	-3692
oo	-3693
▁Bhag	-3694
▁announ	-3695
▁namely	-3696
▁wealth	-3697
▁objective	-3698
▁successful	-3699
we	-3700
▁Cap	-3701
▁Conference	-3702
icate	-3703
▁Organ	-3704
▁thinking	-3705
▁Set	-3706
▁everything	-3707
▁cash	-3708
▁someone	-3709
oured	-3710
▁levels	-3711
apers	-3712
▁rise	-3713
icated	-3714
ervation	-3715
▁covered	-3716
itis	-3717
▁extend	-3718
ga	-3719
▁pric	-3720
▁penalty	-3721
▁fif	-3722
▁item	-3723
▁chann	-3724
▁examination	-3725
▁mal	-3726
ially	-3727
vious	-3728
iciary	-3729
▁danger	-3730
▁England	-3731
▁operations	-3732
▁Germ	-3733
▁played	-3734
▁appreci	-3735
ops	-3736
▁processing	-3737
pper	-3738
▁names	-3739
▁poems	-3740
▁shows	-3741
▁villages	-3742
▁Secretary	-3743
▁contains	-3744
▁commit	-3745
light	-3746
▁soil	-3747
▁graph	-3748
ows	-3749
▁Dh	-3750
▁virt	-3751
uation	-3752
▁Maharashtra	-3753
ague	-3754
tion	-3755
▁CO	-3756
▁wel	-3757
ifying	-3758
▁Tribunal	-3759
▁construction	-3760
▁lines	-3761
▁Mo	-3762
▁ideal	-3763
▁Us	-3764
usive	-3765
▁Iran	-3766
▁minimum	-3767
▁AT	-3768
▁phot	-3769
▁Bec	-3770
▁sale	-3771
▁machine	-3772
▁storage	-3773
▁resident	-3774
▁collection	-3775
force	-3776
▁merely	-3777
ube	-3778
ahar	-3779
adh	-3780
▁Nar	-3781
aches	-3782
▁Mod	-3783
▁tal	-3784
venue	-3785
▁walk	-3786
▁friendly	-3787
▁judges	-3788
▁temples	-3789
▁constant	-3790
▁running	-3791
▁changed	-3792
▁publication	-3793
▁skin	-3794
▁variety	-3795
▁entitled	-3796
HA	-3797
dden	-3798
itch	-3799
▁bed	-3800
ruary	-3801
▁weight	-3802
▁lic	-3803
▁grand	-3804
cribe	-3805
▁surface	-3806
aji	-3807
ript	-3808
▁pray	-3809
▁unique	-3810
▁dispos	-3811
▁easily	-3812
▁parents	-3813
ronic	-3814
aging	-3815
▁ship	-3816
▁files	-3817
▁vital	-3818
▁contem	-3819
▁raised	-3820
▁department	-3821
omic	-3822
▁remark	-3823
▁worship	-3824
▁cat	-3825
eties	-3826
▁code	-3827
▁impact	-3828
▁prosper	-3829
rated	-3830
▁primary	-3831
▁site	-3832
▁Di	-3833
word	-3834
ertain	-3835
▁external	-3836
▁Ah	-3837
▁morning	-3838
lands	-3839
▁cand	-3840
iverse	-3841
▁block	-3842
unic	-3843
enses	-3844
▁Kerala	-3845
▁desire	-3846
▁relief	-3847
▁engaged	-3848
▁February	-3849
olid	-3850
▁bow	-3851
▁Inter	-3852
▁chief	-3853
▁Tagore	-3854
▁square	-3855
▁gets	-3856
▁defined	-3857
▁session	-3858
ero	-3859
▁maximum	-3860
ighb	-3861
▁unity	-3862
▁Services	-3863
▁Authority	-3864
▁Judicial	-3865
▁expected	-3866
▁Fl	-3867
▁female	-3868
▁looked	-3869
rows	-3870
▁remains	-3871
▁resolution	-3872
omy	-3873
▁vehic	-3874
▁Second	-3875
▁scholars	-3876
▁board	-3877
▁greet	-3878
▁withd	-3879
CC	-3880
abilities	-3881
▁Nep	-3882
▁European	-3883
hab	-3884
aled	-3885
pees	-3886
▁critic	-3887
▁duties	-3888
▁wait	-3889
▁filed	-3890
▁element	-3891
▁elements	-3892
▁Why	-3893
▁equip	-3894
aken	-3895
▁Inst	-3896
▁Since	-3897
▁Their	-3898
▁shares	-3899
▁philosophy	-3900
ilateral	-3901
▁Finance	-3902
▁Agricult	-3903
▁excell	-3904
▁slow	-3905
▁ready	-3906
▁fundamental	-3907
▁cere	-3908
▁neighb	-3909
▁Also	-3910
▁convey	-3911
prene	-3912
▁organization	-3913
▁Sir	-3914
▁sup	-3915
▁enable	-3916
verty	-3917
inet	-3918
▁cho	-3919
▁individuals	-3920
iting	-3921
▁rain	-3922
▁Administr	-3923
▁valid	-3924
▁Though	-3925
▁poverty	-3926
▁indeed	-3927
▁nations	-3928
onse	-3929
reprene	-3930
▁whatever	-3931
rav	-3932
▁cou	-3933
▁card	-3934
enance	-3935
sych	-3936
▁Mark	-3937
▁acts	-3938
▁trying	-3939
▁communication	-3940
apan	-3941
uries	-3942
▁magn	-3943
▁error	-3944
▁prosec	-3945
▁feeling	-3946
▁studies	-3947
▁applications	-3948
▁ast	-3949
▁moral	-3950
heduled	-3951
▁expect	-3952
▁saying	-3953
▁annual	-3954
▁medium	-3955
▁enterpr	-3956
▁discipl	-3957
▁flu	-3958
▁pure	-3959
▁series	-3960
▁Because	-3961
▁throughout	-3962
▁facts	-3963
hya	-3964
ilies	-3965
▁send	-3966
▁reading	-3967
▁feet	-3968
▁minister	-3969
▁cultiv	-3970
BI	-3971
II	-3972
▁00	-3973
▁susp	-3974
▁excl	-3975
aja	-3976
▁ult	-3977
▁Soci	-3978
▁items	-3979
▁affect	-3980
▁turned	-3981
▁requires	-3982
▁sacrif	-3983
▁Gujarat	-3984
▁articles	-3985
▁integral	-3986
▁Panch	-3987
▁frequ	-3988
▁points	-3989
oti	-3990
▁Lim	-3991
▁leaves	-3992
▁granted	-3993
▁Governments	-3994
ivery	-3995
▁entry	-3996
erative	-3997
▁Princi	-3998
omet	-3999
▁delay	-4000
aksh	-4001
atma	-4002
uit	-4003
ests	-4004
▁rapid	-4005
▁degree	-4006
▁prison	-4007
▁Members	-4008
▁aspects	-4009
१०	-4010
▁compon	-4011
▁Amendment	-4012
ja	-4013
▁ST	-4014
aviour	-4015
▁divided	-4016
▁removal	-4017
▁Karn	-4018
▁dischar	-4019
osh	-4020
▁Ant	-4021
▁sem	-4022
▁suc	-4023
▁mainly	-4024
oud	-4025
istics	-4026
▁sudden	-4027
ferences	-4028
eless	-4029
▁pressure	-4030
▁practices	-4031
▁touch	-4032
▁Social	-4033
▁methods	-4034
fort	-4035
ogle	-4036
▁Tod	-4037
▁suit	-4038
▁agency	-4039
▁powerful	-4040
▁Art	-4041
▁causes	-4042
▁incident	-4043
▁Ann	-4044
▁suggested	-4045
▁mur	-4046
oming	-4047
ped	-4048
▁quar	-4049
essing	-4050
▁incl	-4051
ricket	-4052
aug	-4053
▁receipt	-4054
▁Dem	-4055
▁impl	-4056
▁defence	-4057
lex	-4058
▁Aud	-4059
▁Langu	-4060
▁literary	-4061
rate	-4062
lying	-4063
▁fert	-4064
▁foot	-4065
▁fields	-4066
▁safety	-4067
▁vast	-4068
▁offered	-4069
▁Pan	-4070
▁Guru	-4071
▁Rama	-4072
▁bear	-4073
rance	-4074
▁target	-4075
▁requirements	-4076
▁rare	-4077
▁tend	-4078
▁nut	-4079
cript	-4080
▁anti	-4081
▁staff	-4082
▁electric	-4083
▁tiss	-4084
▁belief	-4085
▁adequate	-4086
▁intellig	-4087
ousing	-4088
▁shape	-4089
▁Official	-4090
▁confident	-4091
▁daily	-4092
▁daughter	-4093
▁sav	-4094
▁meant	-4095
▁contain	-4096
▁welfare	-4097
▁distribution	-4098
▁PRO	-4099
▁fee	-4100
▁Bharat	-4101
EE	-4102
ING	-4103
▁upd	-4104
▁universal	-4105
▁Her	-4106
▁wond	-4107
▁distance	-4108
▁gone	-4109
▁named	-4110
▁schools	-4111
▁succeed	-4112
▁km	-4113
▁sides	-4114
▁promotion	-4115
ishing	-4116
▁completed	-4117
▁Stand	-4118
oph	-4119
▁convers	-4120
enture	-4121
▁Ed	-4122
▁Vis	-4123
▁Aust	-4124
▁male	-4125
▁Associ	-4126
▁Health	-4127
▁follows	-4128
▁lived	-4129
▁cities	-4130
▁wishes	-4131
anas	-4132
asthan	-4133
iring	-4134
▁Akbar	-4135
▁destro	-4136
artments	-4137
▁discussion	-4138
vis	-4139
▁Out	-4140
nel	-4141
▁trou	-4142
actions	-4143
▁factors	-4144
▁treated	-4145
▁teachers	-4146
▁construct	-4147
▁petitioner	-4148
▁Whether	-4149
▁confidence	-4150
▁eat	-4151
imately	-4152
chand	-4153
▁expand	-4154
▁learned	-4155
una	-4156
▁School	-4157
olved	-4158
porate	-4159
▁sectors	-4160
aign	-4161
mosp	-4162
▁bab	-4163
▁election	-4164
▁caste	-4165
▁Car	-4166
▁regional	-4167
▁pra	-4168
▁rock	-4169
ils	-4170
▁knew	-4171
▁highly	-4172
▁Palestin	-4173
athy	-4174
▁events	-4175
▁association	-4176
▁establishment	-4177
▁argu	-4178
▁Ro	-4179
atter	-4180
▁Bengali	-4181
▁root	-4182
▁fresh	-4183
▁altern	-4184
▁esc	-4185
respond	-4186
▁actual	-4187
▁beauty	-4188
▁returned	-4189
▁master	-4190
▁worked	-4191
▁appears	-4192
▁maintain	-4193
▁positive	-4194
▁serve	-4195
▁remember	-4196
▁Kumar	-4197
▁figure	-4198
▁volunt	-4199
▁Mahatma	-4200
▁believed	-4201
▁Sal	-4202
▁Only	-4203
▁died	-4204
▁script	-4205
▁encoura	-4206
▁Kol	-4207
▁songs	-4208
▁avoid	-4209
izations	-4210
▁intellectual	-4211
▁gas	-4212
▁mid	-4213
urate	-4214
▁Himal	-4215
▁Japan	-4216
▁veget	-4217
▁reality	-4218
▁pleasure	-4219
cher	-4220
▁capt	-4221
▁Group	-4222
▁academic	-4223
▁machinery	-4224
▁strengthen	-4225
▁door	-4226
▁abroad	-4227
▁option	-4228
▁absolute	-4229
▁insects	-4230
▁cru	-4231
▁Khan	-4232
▁bodies	-4233
▁Error	-4234
▁color	-4235
▁version	-4236
▁probably	-4237
▁decisions	-4238
ken	-4239
▁Inc	-4240
▁internal	-4241
▁bond	-4242
▁station	-4243
▁determined	-4244
▁prec	-4245
▁rupees	-4246
▁punishment	-4247
▁heavy	-4248
▁nuclear	-4249
▁sleep	-4250
▁opening	-4251
▁diseases	-4252
the	-4253
▁pil	-4254
▁branch	-4255
▁families	-4256
▁bri	-4257
▁Russ	-4258
▁partnership	-4259
▁failure	-4260
▁dial	-4261
ception	-4262
ties	-4263
▁proved	-4264
▁Besides	-4265
▁Excellency	-4266
set	-4267
umer	-4268
▁newsp	-4269
▁atmosp	-4270
▁clearly	-4271
▁Post	-4272
▁Google	-4273
ARD	-4274
▁dim	-4275
▁arri	-4276
▁dated	-4277
▁carrying	-4278
ae	-4279
yan	-4280
▁Nav	-4281
▁joy	-4282
▁agreed	-4283
udget	-4284
▁rank	-4285
▁default	-4286
▁investigation	-4287
ming	-4288
urt	-4289
cast	-4290
▁agencies	-4291
▁id	-4292
▁buy	-4293
vert	-4294
ifest	-4295
▁keeping	-4296
▁Programme	-4297
▁borrow	-4298
▁response	-4299
▁table	-4300
▁hearing	-4301
▁happened	-4302
isc	-4303
▁army	-4304
▁goal	-4305
▁late	-4306
OL	-4307
isms	-4308
▁Bel	-4309
▁voice	-4310
▁Today	-4311
▁prepar	-4312
▁thereof	-4313
▁delivery	-4314
iling	-4315
ologies	-4316
▁experi	-4317
▁mutual	-4318
▁innovation	-4319
▁aw	-4320
▁conflict	-4321
▁sufficient	-4322
▁cold	-4323
▁estim	-4324
▁controll	-4325
▁recommended	-4326
▁Ham	-4327
putes	-4328
▁Assist	-4329
▁Further	-4330
rupt	-4331
▁Form	-4332
▁Buddh	-4333
▁attend	-4334
▁distingu	-4335
cip	-4336
▁enem	-4337
▁Assam	-4338
▁season	-4339
▁Legislative	-4340
▁compensation	-4341
▁Moh	-4342
▁dealing	-4343
ira	-4344
iance	-4345
stitu	-4346
▁passing	-4347
▁deduction	-4348
ray	-4349
▁Power	-4350
▁grass	-4351
▁candid	-4352
▁BC	-4353
▁Sah	-4354
erted	-4355
▁amongst	-4356
▁accident	-4357
▁Ira	-4358
▁hero	-4359
▁Party	-4360
▁input	-4361
▁profit	-4362
▁reasonable	-4363
IV	-4364
eria	-4365
▁Rajya	-4366
▁constituted	-4367
▁Bihar	-4368
▁select	-4369
▁suitable	-4370
▁leadership	-4371
rust	-4372
▁Pet	-4373
▁officials	-4374
▁Independ	-4375
arian	-4376
▁Proced	-4377
▁features	-4378
▁launched	-4379
▁Rajasthan	-4380
AG	-4381
▁urban	-4382
▁doctor	-4383
▁happen	-4384
▁Men	-4385
▁reduced	-4386
▁chemical	-4387
▁colour	-4388
▁advantage	-4389
elines	-4390
▁completely	-4391
▁College	-4392
▁applicable	-4393
▁Ra	-4394
▁Kar	-4395
rehens	-4396
▁miss	-4397
▁draft	-4398
▁identity	-4399
▁ordinary	-4400
ura	-4401
▁fal	-4402
ataka	-4403
▁adult	-4404
▁instance	-4405
▁encourage	-4406
▁shr	-4407
inter	-4408
▁wild	-4409
▁Company	-4410
▁correspond	-4411
▁compr	-4412
▁latter	-4413
DA	-4414
▁dry	-4415
▁instruct	-4416
eks	-4417
▁Cur	-4418
itect	-4419
▁Commercial	-4420
asm	-4421
aul	-4422
▁Two	-4423
▁moon	-4424
▁seem	-4425
vision	-4426
▁Andhra	-4427
▁wood	-4428
▁Which	-4429
▁appell	-4430
▁prices	-4431
▁planning	-4432
▁Who	-4433
achal	-4434
rench	-4435
▁parliament	-4436
ply	-4437
▁box	-4438
▁Iraq	-4439
▁entered	-4440
vent	-4441
▁Both	-4442
▁crops	-4443
▁mist	-4444
▁poem	-4445
▁Pen	-4446
▁subsequ	-4447
ads	-4448
TER	-4449
▁Him	-4450
▁hour	-4451
▁Science	-4452
▁MS	-4453
▁Water	-4454
▁guarant	-4455
▁stone	-4456
▁Another	-4457
▁administrative	-4458
het	-4459
▁Aff	-4460
▁desp	-4461
▁concl	-4462
▁reserv	-4463
▁reports	-4464
▁spent	-4465
▁excess	-4466
▁server	-4467
▁elected	-4468
▁Environment	-4469
▁recommendations	-4470
▁Att	-4471
▁fit	-4472
▁tom	-4473
pective	-4474
▁critical	-4475
▁permanent	-4476
▁liqu	-4477
▁counter	-4478
▁remained	-4479
▁Ay	-4480
▁assum	-4481
▁paint	-4482
▁initiatives	-4483
▁applied	-4484
▁centres	-4485
iers	-4486
▁materials	-4487
▁sand	-4488
▁motion	-4489
ika	-4490
ancing	-4491
▁negative	-4492
▁supported	-4493
▁mouth	-4494
grat	-4495
▁Lib	-4496
atically	-4497
▁president	-4498
EM	-4499
▁notes	-4500
▁watch	-4501
▁holding	-4502
▁approved	-4503
▁reject	-4504
▁inner	-4505
▁psych	-4506
bal	-4507
ius	-4508
▁Prem	-4509
▁Port	-4510
▁breed	-4511
▁drawn	-4512
▁incor	-4513
▁released	-4514
▁agg	-4515
▁honour	-4516
▁latest	-4517
▁achieved	-4518
▁characters	-4519
mark	-4520
▁fat	-4521
▁Speaker	-4522
▁aid	-4523
▁nearly	-4524
▁sustain	-4525
oj	-4526
▁governance	-4527
▁professional	-4528
jud	-4529
▁Yoga	-4530
▁output	-4531
▁pip	-4532
anges	-4533
▁cook	-4534
ittees	-4535
▁explo	-4536
▁Financial	-4537
after	-4538
▁moved	-4539
▁trees	-4540
▁surround	-4541
▁fruit	-4542
odes	-4543
▁ang	-4544
▁web	-4545
▁ende	-4546
▁damage	-4547
▁sanction	-4548
ented	-4549
▁congrat	-4550
▁Bus	-4551
rency	-4552
▁greetings	-4553
▁Will	-4554
▁leaf	-4555
▁title	-4556
isations	-4557
▁sources	-4558
▁subjects	-4559
uel	-4560
▁Non	-4561
▁privile	-4562
aks	-4563
▁surv	-4564
▁Office	-4565
▁appointment	-4566
▁participation	-4567
RO	-4568
lete	-4569
▁campaign	-4570
▁entreprene	-4571
ondon	-4572
isition	-4573
▁mission	-4574
▁numer	-4575
ym	-4576
▁sort	-4577
▁interesting	-4578
cean	-4579
igible	-4580
▁plays	-4581
▁perfect	-4582
▁politics	-4583
▁undertaking	-4584
board	-4585
▁fram	-4586
▁Human	-4587
▁worth	-4588
key	-4589
udi	-4590
▁ec	-4591
▁territory	-4592
▁iv	-4593
▁hear	-4594
▁sell	-4595
▁recorded	-4596
▁historical	-4597
era	-4598
pping	-4599
▁advoc	-4600
▁removed	-4601
▁Econom	-4602
▁charged	-4603
▁legislation	-4604
lal	-4605
▁Jew	-4606
▁rates	-4607
▁judgment	-4608
▁save	-4609
▁game	-4610
▁exact	-4611
▁concent	-4612
▁picture	-4613
▁creating	-4614
▁standing	-4615
rel	-4616
▁remove	-4617
ulating	-4618
▁Don	-4619
▁Applic	-4620
▁democratic	-4621
▁gard	-4622
▁Rail	-4623
ka	-4624
arati	-4625
▁married	-4626
▁commission	-4627
anya	-4628
ayana	-4629
▁join	-4630
▁SCC	-4631
▁weeks	-4632
▁analysis	-4633
▁Insurance	-4634
ese	-4635
▁Over	-4636
▁Pri	-4637
ATION	-4638
▁London	-4639
▁deposit	-4640
▁eth	-4641
▁Hist	-4642
▁Sikh	-4643
▁Internet	-4644
▁Procedure	-4645
▁prosperity	-4646
▁Est	-4647
▁Lab	-4648
▁houses	-4649
▁gain	-4650
▁tonnes	-4651
▁destroy	-4652
▁committee	-4653
▁functioning	-4654
▁finally	-4655
▁proport	-4656
▁Gl	-4657
iced	-4658
anged	-4659
phone	-4660
thern	-4661
▁dece	-4662
▁shap	-4663
▁senior	-4664
▁Among	-4665
▁facility	-4666
▁Abd	-4667
▁east	-4668
▁Ash	-4669
▁Use	-4670
▁Could	-4671
▁choice	-4672
▁opened	-4673
▁Ret	-4674
▁Bose	-4675
▁obst	-4676
▁false	-4677
▁classes	-4678
▁amb	-4679
▁lad	-4680
▁Sind	-4681
▁match	-4682
▁Bad	-4683
▁Tem	-4684
▁sole	-4685
▁Network	-4686
▁maintained	-4687
▁theory	-4688
▁neither	-4689
▁challenges	-4690
▁Pers	-4691
▁Member	-4692
▁obvious	-4693
pta	-4694
rence	-4695
▁River	-4696
▁drugs	-4697
▁profits	-4698
▁Schedule	-4699
▁conducted	-4700
▁huge	-4701
▁Foreign	-4702
▁dispute	-4703
▁challenge	-4704
ankar	-4705
iveness	-4706
▁sought	-4707
▁solution	-4708
ider	-4709
▁Police	-4710
▁teaching	-4711
▁Nag	-4712
▁debt	-4713
▁dream	-4714
▁ability	-4715
▁weap	-4716
▁journey	-4717
▁constitutional	-4718
hern	-4719
utory	-4720
▁noted	-4721
▁CON	-4722
▁factor	-4723
▁helped	-4724
▁Mission	-4725
▁demonst	-4726
▁Karnataka	-4727
▁submitted	-4728
▁reb	-4729
▁stood	-4730
▁banking	-4731
▁sitting	-4732
▁proposal	-4733
▁communities	-4734
oe	-4735
११	-4736
otic	-4737
▁Home	-4738
▁grad	-4739
▁grown	-4740
▁obtained	-4741
▁Christian	-4742
▁awareness	-4743
▁ban	-4744
astic	-4745
▁regions	-4746
▁elections	-4747
▁transform	-4748
mon	-4749
issa	-4750
▁records	-4751
▁consists	-4752
▁mort	-4753
▁Nepal	-4754
▁breat	-4755
▁defend	-4756
▁relative	-4757
aling	-4758
▁Ganga	-4759
jection	-4760
▁outl	-4761
▁surpr	-4762
▁served	-4763
▁volume	-4764
▁atmosphere	-4765
▁manufacture	-4766
RL	-4767
▁Exp	-4768
▁crime	-4769
▁accomp	-4770
▁citizen	-4771
▁release	-4772
ET	-4773
▁Ser	-4774
erate	-4775
▁didn	-4776
▁waste	-4777
▁west	-4778
▁formal	-4779
▁letters	-4780
▁Che	-4781
▁bott	-4782
essions	-4783
orial	-4784
rical	-4785
icious	-4786
ester	-4787
▁squared	-4788
▁reduce	-4789
▁substance	-4790
iform	-4791
▁birds	-4792
▁effects	-4793
▁pick	-4794
▁comment	-4795
▁reflect	-4796
▁enhan	-4797
▁changing	-4798
▁expenses	-4799
▁objectives	-4800
▁universities	-4801
ghal	-4802
pret	-4803
▁wat	-4804
▁plat	-4805
aur	-4806
▁Lo	-4807
▁Show	-4808
▁folk	-4809
▁amend	-4810
▁moving	-4811
▁affairs	-4812
athe	-4813
▁Nature	-4814
rew	-4815
iments	-4816
▁writer	-4817
▁situated	-4818
olve	-4819
▁Each	-4820
ilarly	-4821
▁transferred	-4822
▁dign	-4823
▁ment	-4824
▁suffering	-4825
olly	-4826
▁Once	-4827
▁pill	-4828
▁Right	-4829
▁healthy	-4830
▁approval	-4831
▁attached	-4832
ni	-4833
▁Jain	-4834
orthern	-4835
ordinate	-4836
▁Gov	-4837
▁column	-4838
▁Austral	-4839
▁attitude	-4840
aman	-4841
▁decades	-4842
▁Although	-4843
▁register	-4844
▁IP	-4845
▁maintenance	-4846
roc	-4847
▁Va	-4848
▁thirty	-4849
▁Language	-4850
▁student	-4851
▁devotion	-4852
▁recently	-4853
▁pollution	-4854
▁cry	-4855
▁bran	-4856
▁fish	-4857
▁sugar	-4858
▁mobile	-4859
▁division	-4860
like	-4861
ocol	-4862
essor	-4863
▁offences	-4864
▁description	-4865
ghan	-4866
▁operating	-4867
▁background	-4868
▁Chrom	-4869
▁brain	-4870
▁online	-4871
▁Association	-4872
▁Pra	-4873
▁hair	-4874
▁yield	-4875
▁climate	-4876
ird	-4877
rad	-4878
▁Self	-4879
▁phase	-4880
▁processes	-4881
▁notification	-4882
lies	-4883
▁AIR	-4884
▁decide	-4885
▁collabor	-4886
▁restrict	-4887
▁architect	-4888
▁Orissa	-4889
▁irr	-4890
▁colle	-4891
▁equipment	-4892
▁ble	-4893
ested	-4894
▁lies	-4895
▁Press	-4896
▁eleph	-4897
gypt	-4898
▁cam	-4899
▁gar	-4900
▁nine	-4901
▁defin	-4902
▁impris	-4903
▁courage	-4904
▁principal	-4905
▁engineering	-4906
▁uses	-4907
▁Invest	-4908
▁absence	-4909
▁ourselves	-4910
ogue	-4911
▁Jaw	-4912
▁spl	-4913
anging	-4914
▁Middle	-4915
▁imprisonment	-4916
DU	-4917
ij	-4918
▁die	-4919
▁prime	-4920
▁resist	-4921
▁Society	-4922
aly	-4923
▁subt	-4924
▁joined	-4925
hus	-4926
▁apart	-4927
▁greatest	-4928
▁settlement	-4929
imb	-4930
▁coal	-4931
▁compar	-4932
▁track	-4933
▁bringing	-4934
ammu	-4935
holders	-4936
▁gains	-4937
▁habit	-4938
▁Before	-4939
▁fellow	-4940
▁kn	-4941
▁Das	-4942
▁marg	-4943
▁emotion	-4944
▁pending	-4945
▁arm	-4946
aced	-4947
▁See	-4948
isher	-4949
▁survey	-4950
US	-4951
▁users	-4952
ibilities	-4953
▁reported	-4954
ails	-4955
▁Women	-4956
urities	-4957
▁disputes	-4958
uous	-4959
▁star	-4960
▁inaug	-4961
▁recognised	-4962
▁Park	-4963
▁acid	-4964
ifications	-4965
▁amendment	-4966
nov	-4967
▁Ali	-4968
▁Nan	-4969
osure	-4970
▁Mahab	-4971
▁weather	-4972
▁comprehens	-4973
AM	-4974
hu	-4975
▁becoming	-4976
▁execution	-4977
▁phone	-4978
xy	-4979
aste	-4980
▁Ext	-4981
▁Egypt	-4982
achment	-4983
▁smaller	-4984
▁resource	-4985
▁Independence	-4986
▁store	-4987
▁priority	-4988
▁Nat	-4989
▁designed	-4990
▁medicine	-4991
▁URL	-4992
▁rob	-4993
▁Jammu	-4994
▁helps	-4995
▁proceeding	-4996
▁translation	-4997
inent	-4998
▁impart	-4999
oral	-5000
▁Vir	-5001
▁Limited	-5002
▁eld	-5003
▁expert	-5004
▁monitor	-5005
iled	-5006
▁although	-5007
▁efficient	-5008
▁Ent	-5009
▁Sect	-5010
▁looks	-5011
▁conclud	-5012
▁evening	-5013
▁purchase	-5014
apt	-5015
▁Ev	-5016
▁piece	-5017
▁Subhas	-5018
▁Sun	-5019
▁fed	-5020
▁union	-5021
rog	-5022
▁scope	-5023
▁Commun	-5024
▁afford	-5025
▁commitment	-5026
▁manufacturing	-5027
▁Lt	-5028
▁SP	-5029
apur	-5030
▁Mother	-5031
▁behaviour	-5032
withstanding	-5033
▁simpl	-5034
▁mix	-5035
▁deals	-5036
▁actions	-5037
▁Gaz	-5038
iant	-5039
▁heat	-5040
▁capable	-5041
ruption	-5042
▁bul	-5043
▁crow	-5044
iation	-5045
▁wonder	-5046
▁Univers	-5047
▁arising	-5048
▁contempt	-5049
▁Life	-5050
ips	-5051
aram	-5052
▁spot	-5053
▁signed	-5054
▁possession	-5055
▁Training	-5056
icted	-5057
▁Stud	-5058
▁rice	-5059
▁format	-5060
▁scientists	-5061
▁radi	-5062
astern	-5063
▁launch	-5064
hance	-5065
known	-5066
▁brief	-5067
▁pointed	-5068
▁festival	-5069
▁password	-5070
▁ap	-5071
rees	-5072
▁Mand	-5073
▁solar	-5074
▁Divine	-5075
▁rivers	-5076
▁finance	-5077
▁revenue	-5078
▁bilateral	-5079
ESS	-5080
▁drive	-5081
▁Bin	-5082
aut	-5083
omin	-5084
▁Bah	-5085
▁alt	-5086
▁kil	-5087
▁micro	-5088
▁Ty	-5089
▁Emp	-5090
abinet	-5091
▁Madras	-5092
▁minutes	-5093
▁acquired	-5094
hel	-5095
▁defe	-5096
▁felicit	-5097
▁portion	-5098
▁implemented	-5099
▁Cop	-5100
▁Rights	-5101
▁Ke	-5102
▁flowers	-5103
▁Criminal	-5104
▁appeared	-5105
▁Industrial	-5106
▁identified	-5107
ping	-5108
▁Rad	-5109
istrate	-5110
▁currency	-5111
▁interpret	-5112
▁performed	-5113
▁friendship	-5114
▁SH	-5115
▁....	-5116
▁cricket	-5117
▁manifest	-5118
CE	-5119
▁shared	-5120
▁File	-5121
▁myst	-5122
▁withdraw	-5123
▁executive	-5124
▁proof	-5125
▁channel	-5126
▁Assessing	-5127
▁Sum	-5128
▁Hyder	-5129
▁commod	-5130
▁platform	-5131
▁calls	-5132
▁straight	-5133
▁zero	-5134
▁commence	-5135
unicip	-5136
aration	-5137
▁chance	-5138
▁Affairs	-5139
ranath	-5140
▁skills	-5141
▁initial	-5142
▁assigned	-5143
anj	-5144
hai	-5145
▁filled	-5146
▁installed	-5147
bon	-5148
▁mandap	-5149
▁visited	-5150
inces	-5151
▁Like	-5152
▁Those	-5153
▁Afghan	-5154
▁enforce	-5155
▁location	-5156
acc	-5157
▁lawy	-5158
▁forth	-5159
▁trend	-5160
▁announced	-5161
▁dance	-5162
▁kinds	-5163
▁oblig	-5164
▁Related	-5165
▁distinct	-5166
▁satisfied	-5167
▁१	-5168
inding	-5169
▁severe	-5170
▁Israeli	-5171
▁Nations	-5172
▁branches	-5173
amin	-5174
▁Nadu	-5175
▁Prom	-5176
▁aims	-5177
▁marketing	-5178
▁000	-5179
redit	-5180
▁stream	-5181
▁reforms	-5182
▁initiative	-5183
hara	-5184
▁Houses	-5185
▁struct	-5186
▁delight	-5187
▁Business	-5188
▁temperature	-5189
amet	-5190
▁Time	-5191
▁please	-5192
▁organizations	-5193
ithm	-5194
roud	-5195
▁Jag	-5196
under	-5197
▁Reserve	-5198
▁Security	-5199
▁discl	-5200
▁seemed	-5201
▁formation	-5202
▁represents	-5203
▁Stat	-5204
▁categ	-5205
▁partner	-5206
▁organized	-5207
▁respective	-5208
▁amp	-5209
▁colon	-5210
▁beings	-5211
▁offices	-5212
▁discussed	-5213
▁environmental	-5214
▁secure	-5215
▁billion	-5216
▁extension	-5217
rat	-5218
esty	-5219
▁evil	-5220
▁email	-5221
▁girls	-5222
▁poets	-5223
▁wants	-5224
▁Deputy	-5225
▁Something	-5226
▁AS	-5227
▁upper	-5228
▁Control	-5229
▁western	-5230
▁cloth	-5231
▁indig	-5232
▁battle	-5233
▁mostly	-5234
▁communal	-5235
▁collected	-5236
▁Protection	-5237
▁AD	-5238
ille	-5239
▁hop	-5240
asant	-5241
▁band	-5242
▁pert	-5243
▁disapp	-5244
▁marked	-5245
ulty	-5246
▁Hon	-5247
▁mir	-5248
▁none	-5249
▁customer	-5250
▁centuries	-5251
▁Fed	-5252
▁Cert	-5253
riving	-5254
▁Bangl	-5255
▁immediate	-5256
itage	-5257
▁narrow	-5258
▁possess	-5259
AB	-5260
osite	-5261
▁wise	-5262
▁distur	-5263
▁plaint	-5264
▁Kab	-5265
▁Babu	-5266
▁pregn	-5267
ensions	-5268
▁exists	-5269
▁preced	-5270
▁rid	-5271
right	-5272
▁absor	-5273
▁doesn	-5274
▁compared	-5275
atio	-5276
▁imposed	-5277
AD	-5278
che	-5279
ila	-5280
▁dia	-5281
▁coast	-5282
▁fertil	-5283
▁simply	-5284
▁eligible	-5285
mar	-5286
▁ax	-5287
▁Sard	-5288
▁conce	-5289
▁judiciary	-5290
ette	-5291
▁liquid	-5292
▁deliver	-5293
▁mountain	-5294
▁thousands	-5295
ohn	-5296
stood	-5297
▁History	-5298
▁equality	-5299
▁improvement	-5300
▁tissue	-5301
▁equally	-5302
▁Ministers	-5303
▁governments	-5304
▁ear	-5305
▁remote	-5306
▁advanced	-5307
elled	-5308
▁killed	-5309
▁framework	-5310
ossible	-5311
▁stands	-5312
▁foundation	-5313
▁Av	-5314
▁runs	-5315
▁cance	-5316
▁prejud	-5317
▁council	-5318
▁sight	-5319
▁Select	-5320
▁discharge	-5321
▁Met	-5322
▁Joint	-5323
ployment	-5324
▁containing	-5325
▁university	-5326
iy	-5327
oes	-5328
▁bone	-5329
iration	-5330
▁French	-5331
▁Exec	-5332
▁blue	-5333
▁limits	-5334
▁movements	-5335
antic	-5336
▁train	-5337
▁consumer	-5338
▁intended	-5339
▁properly	-5340
▁substantial	-5341
minent	-5342
▁deleg	-5343
▁instruments	-5344
▁Pay	-5345
oring	-5346
▁sexual	-5347
▁Jawahar	-5348
▁welcome	-5349
▁Det	-5350
▁Brahm	-5351
▁delib	-5352
▁permission	-5353
▁recognition	-5354
▁considerable	-5355
▁height	-5356
▁cow	-5357
▁Land	-5358
▁composed	-5359
▁initiated	-5360
▁Dec	-5361
▁Tel	-5362
▁hyd	-5363
▁fifty	-5364
▁orient	-5365
utt	-5366
▁brid	-5367
▁Small	-5368
▁griev	-5369
▁amended	-5370
▁employee	-5371
room	-5372
▁journal	-5373
▁Palestinian	-5374
alg	-5375
▁Ang	-5376
▁Data	-5377
▁divid	-5378
▁adjust	-5379
▁attrib	-5380
▁folder	-5381
▁screen	-5382
▁depends	-5383
▁visible	-5384
▁transaction	-5385
wan	-5386
oses	-5387
ansion	-5388
▁entirely	-5389
back	-5390
▁phen	-5391
▁organised	-5392
▁conference	-5393
shi	-5394
▁Hel	-5395
▁org	-5396
oples	-5397
▁symp	-5398
▁Rural	-5399
▁figures	-5400
▁seeking	-5401
aud	-5402
dess	-5403
▁vit	-5404
▁enhance	-5405
▁extremely	-5406
▁electricity	-5407
ffic	-5408
▁Vice	-5409
▁bird	-5410
▁Micro	-5411
▁minds	-5412
▁category	-5413
▁Principal	-5414
▁undertaken	-5415
oken	-5416
▁Year	-5417
▁guard	-5418
▁supreme	-5419
▁household	-5420
pto	-5421
▁Failed	-5422
▁overall	-5423
▁technologies	-5424
▁Know	-5425
inating	-5426
▁starting	-5427
hent	-5428
▁eggs	-5429
▁sick	-5430
▁career	-5431
▁personality	-5432
pro	-5433
▁dog	-5434
▁vehicle	-5435
▁directed	-5436
gent	-5437
unction	-5438
▁Good	-5439
ulatory	-5440
▁agent	-5441
▁ahead	-5442
▁prose	-5443
▁thank	-5444
▁feature	-5445
▁regulations	-5446
▁Dur	-5447
inger	-5448
clause	-5449
▁opposition	-5450
ih	-5451
▁lie	-5452
▁raise	-5453
▁config	-5454
▁directions	-5455
▁Sol	-5456
▁cave	-5457
▁fell	-5458
▁iron	-5459
▁loans	-5460
▁insect	-5461
▁creative	-5462
▁multiple	-5463
▁Bur	-5464
▁exports	-5465
▁liability	-5466
mer	-5467
icon	-5468
▁Back	-5469
▁Food	-5470
▁arms	-5471
▁cott	-5472
▁audit	-5473
▁competent	-5474
▁organisations	-5475
ocal	-5476
otes	-5477
▁claims	-5478
▁dynam	-5479
▁employed	-5480
▁informed	-5481
▁Hyderabad	-5482
▁Lal	-5483
▁pursu	-5484
▁interested	-5485
UL	-5486
mn	-5487
▁offers	-5488
arp	-5489
erce	-5490
▁Count	-5491
▁incur	-5492
▁hardly	-5493
akti	-5494
▁sacrifice	-5495
▁Bangladesh	-5496
▁Kan	-5497
ingly	-5498
▁Urdu	-5499
ux	-5500
ien	-5501
plom	-5502
sc	-5503
aces	-5504
▁closed	-5505
▁outstanding	-5506
▁felicitations	-5507
VE	-5508
▁Maj	-5509
idden	-5510
▁Enter	-5511
▁fourth	-5512
▁examples	-5513
ammad	-5514
▁Force	-5515
▁Vishn	-5516
▁sweet	-5517
▁choose	-5518
▁couple	-5519
▁Panchay	-5520
alle	-5521
▁Book	-5522
▁myself	-5523
▁continues	-5524
▁customers	-5525
▁districts	-5526
▁hind	-5527
▁blind	-5528
▁deeply	-5529
LE	-5530
▁negoti	-5531
▁quickly	-5532
▁Scheduled	-5533
▁comprehensive	-5534
▁fix	-5535
▁rent	-5536
▁demands	-5537
▁investig	-5538
▁Var	-5539
▁mel	-5540
▁sin	-5541
▁unw	-5542
▁shop	-5543
▁roll	-5544
▁enabled	-5545
▁witnesses	-5546
eum	-5547
▁rit	-5548
▁tea	-5549
▁remed	-5550
▁Eastern	-5551
▁proportion	-5552
alam	-5553
▁obtain	-5554
▁markets	-5555
▁railway	-5556
oration	-5557
ications	-5558
▁Mahabhar	-5559
hand	-5560
▁Tri	-5561
▁Pass	-5562
▁radio	-5563
▁Process	-5564
▁procedures	-5565
▁Swami	-5566
▁budget	-5567
▁happens	-5568
▁objects	-5569
anta	-5570
atab	-5571
uable	-5572
▁surg	-5573
ourses	-5574
▁Trade	-5575
▁imperial	-5576
▁Legislature	-5577
▁disk	-5578
▁Hence	-5579
▁sacred	-5580
▁arbitration	-5581
mb	-5582
othes	-5583
▁John	-5584
▁prove	-5585
▁awarded	-5586
▁counsel	-5587
▁involve	-5588
▁mechanism	-5589
asi	-5590
arya	-5591
▁kill	-5592
▁proud	-5593
▁stamp	-5594
▁bright	-5595
▁conven	-5596
▁liberal	-5597
▁alternative	-5598
▁Yes	-5599
urally	-5600
▁drama	-5601
▁belonging	-5602
PS	-5603
▁race	-5604
▁upgr	-5605
▁theme	-5606
▁discrim	-5607
▁instructions	-5608
izes	-5609
▁Sen	-5610
organ	-5611
▁Fort	-5612
▁slight	-5613
▁transp	-5614
▁Capital	-5615
▁playing	-5616
tes	-5617
▁Award	-5618
▁Address	-5619
▁contributions	-5620
▁Bir	-5621
▁Ltd	-5622
▁alle	-5623
▁grounds	-5624
▁FOR	-5625
agh	-5626
▁Gan	-5627
▁Chait	-5628
▁skill	-5629
▁prosecution	-5630
▁Mat	-5631
umber	-5632
▁addressed	-5633
▁Ban	-5634
▁arrangement	-5635
▁labor	-5636
▁describ	-5637
▁respondent	-5638
uli	-5639
▁liable	-5640
▁distinguished	-5641
going	-5642
▁thoughts	-5643
▁impossible	-5644
king	-5645
▁pret	-5646
▁span	-5647
gments	-5648
▁arrived	-5649
▁explained	-5650
▁Cre	-5651
▁understood	-5652
eds	-5653
▁jail	-5654
▁Allah	-5655
▁Awards	-5656
▁enacted	-5657
▁Application	-5658
fall	-5659
▁Move	-5660
▁aspir	-5661
▁apparent	-5662
▁appearance	-5663
▁exped	-5664
▁horse	-5665
▁toler	-5666
▁Assistant	-5667
▁Parliamentary	-5668
▁Az	-5669
ruits	-5670
▁religions	-5671
▁commencement	-5672
rosy	-5673
▁promoting	-5674
osen	-5675
▁speaking	-5676
de	-5677
▁Tele	-5678
encing	-5679
▁admitted	-5680
▁estimated	-5681
▁personnel	-5682
▁respectively	-5683
▁Laws	-5684
▁Economic	-5685
▁facilitate	-5686
EP	-5687
ica	-5688
▁masses	-5689
▁compound	-5690
▁intention	-5691
▁core	-5692
▁inquiry	-5693
▁Rule	-5694
▁Committees	-5695
▁efficiency	-5696
▁differences	-5697
▁requirement	-5698
asw	-5699
oles	-5700
▁lev	-5701
▁cris	-5702
▁definite	-5703
▁Similarly	-5704
▁conclusion	-5705
nan	-5706
cend	-5707
▁spect	-5708
▁dedicated	-5709
▁effectively	-5710
▁legislative	-5711
agers	-5712
riages	-5713
▁acting	-5714
▁ritual	-5715
▁Exchange	-5716
▁statutory	-5717
▁constitute	-5718
abet	-5719
▁peoples	-5720
▁sympt	-5721
▁everyone	-5722
▁intelligence	-5723
▁transactions	-5724
rut	-5725
umin	-5726
▁desert	-5727
▁arrested	-5728
kata	-5729
▁pages	-5730
▁steel	-5731
▁Engine	-5732
▁acknow	-5733
▁showing	-5734
▁allowance	-5735
opal	-5736
anath	-5737
anish	-5738
▁doll	-5739
▁Great	-5740
▁spite	-5741
▁availability	-5742
▁determination	-5743
TH	-5744
ION	-5745
▁para	-5746
▁anyone	-5747
▁exclud	-5748
▁libert	-5749
▁covering	-5750
OU	-5751
hal	-5752
asad	-5753
▁pul	-5754
▁elim	-5755
▁renew	-5756
▁Pandit	-5757
▁Germany	-5758
▁guidelines	-5759
▁entrepreneurs	-5760
▁Po	-5761
▁fees	-5762
▁Sardar	-5763
▁suffer	-5764
▁vig	-5765
▁knows	-5766
▁propag	-5767
▁showed	-5768
▁Institut	-5769
ota	-5770
▁Priv	-5771
▁definition	-5772
▁mr	-5773
▁Rab	-5774
▁Web	-5775
▁Speaking	-5776
▁evolution	-5777
elve	-5778
while	-5779
▁Wind	-5780
ensity	-5781
▁Territ	-5782
OC	-5783
▁rend	-5784
▁Order	-5785
▁Persian	-5786
▁uniform	-5787
▁victims	-5788
operative	-5789
▁emphasis	-5790
▁improved	-5791
▁recognized	-5792
▁Agriculture	-5793
top	-5794
▁lif	-5795
iliar	-5796
▁diet	-5797
▁plans	-5798
unately	-5799
▁consent	-5800
▁finding	-5801
▁detailed	-5802
▁humanity	-5803
▁repeated	-5804
▁terrorist	-5805
▁tim	-5806
▁render	-5807
▁leaving	-5808
▁improving	-5809
ader	-5810
▁Saty	-5811
▁Change	-5812
▁derived	-5813
▁phenomen	-5814
▁Top	-5815
ashing	-5816
▁raw	-5817
endra	-5818
▁Innov	-5819
▁Madhya	-5820
▁selection	-5821
▁Jawaharlal	-5822
norm	-5823
▁DNA	-5824
▁Conf	-5825
▁Laksh	-5826
▁motor	-5827
▁writers	-5828
▁eval	-5829
▁sequ	-5830
▁Vishnu	-5831
▁dismiss	-5832
▁representative	-5833
१२	-5834
▁enemy	-5835
ciation	-5836
▁quantity	-5837
▁certainly	-5838
▁happiness	-5839
▁convention	-5840
enous	-5841
▁upto	-5842
▁floor	-5843
raction	-5844
▁corporate	-5845
▁infection	-5846
▁Dal	-5847
▁Chen	-5848
▁Medical	-5849
▁remaining	-5850
▁fib	-5851
▁practical	-5852
▁difficulty	-5853
eer	-5854
▁NI	-5855
▁admin	-5856
▁Buddha	-5857
▁murder	-5858
hibition	-5859
▁consumption	-5860
▁thor	-5861
▁contemporary	-5862
ooth	-5863
▁tools	-5864
▁lect	-5865
▁lose	-5866
▁chapter	-5867
yal	-5868
▁rub	-5869
rafts	-5870
▁Army	-5871
▁double	-5872
▁string	-5873
▁housing	-5874
▁settled	-5875
▁guidance	-5876
uddin	-5877
▁baby	-5878
▁normally	-5879
cont	-5880
iary	-5881
▁drop	-5882
assion	-5883
▁kingdom	-5884
▁heritage	-5885
▁Convention	-5886
MS	-5887
▁York	-5888
estion	-5889
▁center	-5890
▁papers	-5891
▁accompan	-5892
▁regarded	-5893
owed	-5894
▁lik	-5895
▁MSME	-5896
▁seeds	-5897
▁occurs	-5898
▁hill	-5899
▁About	-5900
▁Comput	-5901
▁inspired	-5902
▁strategy	-5903
house	-5904
ailing	-5905
▁Binoy	-5906
▁consultation	-5907
PA	-5908
▁sky	-5909
▁saint	-5910
▁solid	-5911
▁illust	-5912
▁stages	-5913
▁Brahmin	-5914
▁Through	-5915
▁pension	-5916
ny	-5917
▁bh	-5918
▁Cal	-5919
▁flag	-5920
▁ratio	-5921
▁complic	-5922
▁computing	-5923
▁bag	-5924
ifies	-5925
▁Mult	-5926
▁Gupta	-5927
▁Mount	-5928
▁Common	-5929
▁disposal	-5930
unk	-5931
▁Bu	-5932
inct	-5933
▁cust	-5934
▁Democ	-5935
▁reply	-5936
▁unable	-5937
▁Industry	-5938
▁telephone	-5939
▁successfully	-5940
▁ego	-5941
▁vess	-5942
unicipal	-5943
▁emergency	-5944
riya	-5945
▁hom	-5946
▁sad	-5947
ander	-5948
▁cool	-5949
ivered	-5950
▁difficulties	-5951
ilty	-5952
▁syn	-5953
▁remind	-5954
▁immense	-5955
▁indirect	-5956
▁sustainable	-5957
▁settings	-5958
▁Afghanistan	-5959
▁Bra	-5960
icide	-5961
▁filing	-5962
▁superior	-5963
pet	-5964
▁flood	-5965
▁stead	-5966
▁injury	-5967
▁attacks	-5968
▁investors	-5969
▁integrated	-5970
▁Ref	-5971
venth	-5972
▁legs	-5973
icians	-5974
▁holds	-5975
▁crisis	-5976
▁Marriage	-5977
▁Chaitanya	-5978
▁AP	-5979
orous	-5980
▁du	-5981
▁era	-5982
▁enterprise	-5983
▁bact	-5984
▁flat	-5985
▁armed	-5986
▁strike	-5987
▁expansion	-5988
oned	-5989
orge	-5990
aniel	-5991
asters	-5992
▁college	-5993
asty	-5994
load	-5995
▁III	-5996
▁fill	-5997
mation	-5998
▁chrom	-5999
▁outer	-6000
▁garden	-6001
▁widely	-6002
▁Children	-6003
ERS	-6004
arh	-6005
▁pu	-6006
onym	-6007
▁layer	-6008
▁owners	-6009
▁traffic	-6010
▁tomorrow	-6011
▁involving	-6012
▁electronic	-6013
MP	-6014
grim	-6015
▁owner	-6016
▁manager	-6017
▁talking	-6018
▁accurate	-6019
▁meetings	-6020
inity	-6021
▁Start	-6022
▁compuls	-6023
▁millions	-6024
▁mos	-6025
▁finds	-6026
▁quiet	-6027
▁usual	-6028
▁walls	-6029
▁forests	-6030
▁writings	-6031
RE	-6032
ommod	-6033
▁sister	-6034
▁celebrated	-6035
▁contribute	-6036
▁ID	-6037
mony	-6038
▁Name	-6039
bedkar	-6040
▁accom	-6041
▁founded	-6042
▁trained	-6043
▁Regional	-6044
iger	-6045
▁Yet	-6046
▁cart	-6047
▁Allow	-6048
▁trouble	-6049
▁messages	-6050
▁Gold	-6051
▁Turk	-6052
▁fuel	-6053
▁scen	-6054
aneous	-6055
▁League	-6056
▁deposits	-6057
▁educated	-6058
▁determine	-6059
▁representatives	-6060
xic	-6061
aren	-6062
isted	-6063
retion	-6064
▁alleg	-6065
oresaid	-6066
▁brings	-6067
▁Ambedkar	-6068
▁remarkable	-6069
▁adm	-6070
▁roads	-6071
▁director	-6072
▁thick	-6073
▁taught	-6074
inese	-6075
▁blow	-6076
active	-6077
▁dealt	-6078
▁border	-6079
▁debate	-6080
▁Companies	-6081
▁controlled	-6082
▁arrangements	-6083
▁cos	-6084
▁viz	-6085
▁patri	-6086
▁forget	-6087
▁aforesaid	-6088
ulpt	-6089
inance	-6090
▁Appell	-6091
▁discipline	-6092
▁IC	-6093
qual	-6094
▁Nor	-6095
hetic	-6096
▁neck	-6097
▁guide	-6098
▁tribal	-6099
▁twelve	-6100
▁Executive	-6101
▁permitted	-6102
▁voluntary	-6103
▁subsequent	-6104
▁investments	-6105
oman	-6106
▁harmony	-6107
▁herself	-6108
▁acquisition	-6109
rum	-6110
ananda	-6111
▁chosen	-6112
▁trading	-6113
▁delivered	-6114
▁plaintiff	-6115
▁Sud	-6116
▁grew	-6117
▁Trust	-6118
▁gather	-6119
▁Tir	-6120
▁lock	-6121
▁guilty	-6122
▁argument	-6123
▁irrigation	-6124
▁abol	-6125
▁chain	-6126
▁Russia	-6127
▁soldiers	-6128
▁destruction	-6129
AGE	-6130
▁PC	-6131
uran	-6132
▁Free	-6133
▁bail	-6134
▁clar	-6135
▁hall	-6136
▁yourself	-6137
▁neighbour	-6138
▁discussions	-6139
▁cra	-6140
lation	-6141
▁ignor	-6142
▁scene	-6143
▁divide	-6144
▁evident	-6145
▁Sk	-6146
oser	-6147
▁ocean	-6148
▁begins	-6149
▁Registration	-6150
▁significance	-6151
▁UK	-6152
▁Vidy	-6153
▁fruits	-6154
▁contrary	-6155
▁Being	-6156
▁consisting	-6157
▁productivity	-6158
gor	-6159
nergy	-6160
agraph	-6161
▁leads	-6162
▁recovery	-6163
▁southern	-6164
▁universe	-6165
asks	-6166
ibly	-6167
lick	-6168
▁recall	-6169
inations	-6170
▁partition	-6171
▁Gr	-6172
▁ends	-6173
▁gradu	-6174
▁Academ	-6175
▁Credit	-6176
▁equity	-6177
▁resulting	-6178
▁conviction	-6179
▁Ja	-6180
uity	-6181
▁chair	-6182
▁socio	-6183
▁departments	-6184
▁Rev	-6185
▁nerv	-6186
▁Earth	-6187
▁envis	-6188
▁burden	-6189
▁safegu	-6190
▁Kolkata	-6191
▁chargeable	-6192
▁competition	-6193
odh	-6194
▁Ka	-6195
▁depth	-6196
▁paras	-6197
▁accompl	-6198
▁solutions	-6199
▁Import	-6200
▁broken	-6201
▁identify	-6202
▁Apart	-6203
▁stick	-6204
▁verse	-6205
▁wound	-6206
usal	-6207
▁Vol	-6208
▁bomb	-6209
▁innoc	-6210
▁possibility	-6211
zy	-6212
ugg	-6213
raint	-6214
▁Mughal	-6215
▁sculpt	-6216
▁Chinese	-6217
▁convert	-6218
▁refused	-6219
ician	-6220
▁empt	-6221
▁Banks	-6222
ifically	-6223
▁numerous	-6224
▁Text	-6225
▁Annual	-6226
▁approx	-6227
▁authent	-6228
▁valuable	-6229
▁Australia	-6230
▁kid	-6231
▁fasc	-6232
▁Advoc	-6233
▁spoke	-6234
▁reaction	-6235
▁continuous	-6236
▁transmission	-6237
yas	-6238
hips	-6239
allel	-6240
▁roof	-6241
▁click	-6242
▁stake	-6243
▁starts	-6244
▁Comment	-6245
ographical	-6246
▁acceptance	-6247
etary	-6248
▁park	-6249
▁thereby	-6250
▁Province	-6251
▁specially	-6252
care	-6253
▁hit	-6254
uting	-6255
▁temporary	-6256
▁Raja	-6257
▁fift	-6258
▁goals	-6259
▁prompt	-6260
▁rulers	-6261
▁Britain	-6262
▁Magistrate	-6263
ena	-6264
enn	-6265
▁poetic	-6266
▁criticism	-6267
▁essentially	-6268
TS	-6269
garh	-6270
isdom	-6271
▁Legal	-6272
▁sanct	-6273
▁aggreg	-6274
▁stress	-6275
▁amounts	-6276
▁constitu	-6277
van	-6278
▁El	-6279
▁Pad	-6280
▁pig	-6281
uality	-6282
▁Later	-6283
▁Chrome	-6284
▁bottom	-6285
▁diplom	-6286
wa	-6287
anka	-6288
atics	-6289
rival	-6290
▁Writ	-6291
▁waiting	-6292
▁fav	-6293
▁bats	-6294
▁pound	-6295
▁linked	-6296
▁largely	-6297
▁assembly	-6298
▁buildings	-6299
▁gradually	-6300
ema	-6301
osit	-6302
▁exch	-6303
▁gods	-6304
▁prote	-6305
▁verses	-6306
▁explain	-6307
▁faculty	-6308
▁weapons	-6309
▁familiar	-6310
▁excellence	-6311
▁securities	-6312
och	-6313
▁coc	-6314
▁News	-6315
▁Prasad	-6316
▁wholly	-6317
▁accommod	-6318
▁amendments	-6319
▁authorised	-6320
▁Kir	-6321
▁boys	-6322
herent	-6323
utation	-6324
▁Enable	-6325
▁breast	-6326
▁flower	-6327
▁suddenly	-6328
▁forwarded	-6329
▁qualities	-6330
son	-6331
▁arg	-6332
▁Acts	-6333
▁Last	-6334
▁poly	-6335
▁Himachal	-6336
▁conferred	-6337
▁satisfaction	-6338
rie	-6339
▁Gra	-6340
▁Gram	-6341
▁forg	-6342
▁succ	-6343
▁images	-6344
▁strict	-6345
▁advised	-6346
inn	-6347
▁Jo	-6348
urse	-6349
▁vary	-6350
▁Vedic	-6351
▁comfort	-6352
▁infinite	-6353
▁producing	-6354
▁accordingly	-6355
▁Bet	-6356
▁France	-6357
▁feelings	-6358
▁accompanied	-6359
▁participate	-6360
▁proc	-6361
▁vote	-6362
▁Class	-6363
▁attain	-6364
▁replace	-6365
▁components	-6366
▁CS	-6367
▁Sita	-6368
ronics	-6369
▁claimed	-6370
ola	-6371
▁htt	-6372
▁NAME	-6373
▁edge	-6374
▁Ahmed	-6375
▁prepare	-6376
▁suffered	-6377
▁newspaper	-6378
▁encouraged	-6379
▁consequences	-6380
▁introduction	-6381
▁representation	-6382
ima	-6383
iso	-6384
▁Key	-6385
ullah	-6386
▁Asian	-6387
▁seeing	-6388
▁mandapa	-6389
▁currently	-6390
▁categories	-6391
IF	-6392
well	-6393
▁Ary	-6394
▁permit	-6395
wal	-6396
▁Fam	-6397
arita	-6398
▁tong	-6399
▁update	-6400
▁violent	-6401
▁employer	-6402
▁audio	-6403
▁links	-6404
▁decade	-6405
▁proposals	-6406
▁achievement	-6407
▁Universities	-6408
CI	-6409
amy	-6410
▁Lah	-6411
eries	-6412
iques	-6413
▁Head	-6414
▁devices	-6415
▁willing	-6416
▁incorpor	-6417
iti	-6418
▁hat	-6419
▁Gora	-6420
▁nurs	-6421
▁deriv	-6422
▁street	-6423
▁waters	-6424
▁concerns	-6425
▁symptoms	-6426
▁Paper	-6427
atabase	-6428
▁digital	-6429
▁drinking	-6430
▁northern	-6431
▁carefully	-6432
NG	-6433
▁Ms	-6434
▁deter	-6435
▁react	-6436
▁abnorm	-6437
▁reader	-6438
▁Cabinet	-6439
▁examine	-6440
▁parliamentary	-6441
achi	-6442
ream	-6443
orthy	-6444
peror	-6445
▁crores	-6446
▁ensuring	-6447
uses	-6448
▁Cle	-6449
▁hur	-6450
▁rom	-6451
▁tab	-6452
▁prince	-6453
▁invited	-6454
▁directory	-6455
▁litigation	-6456
ords	-6457
▁anx	-6458
▁tro	-6459
▁tub	-6460
icket	-6461
▁Disc	-6462
akrish	-6463
▁gross	-6464
▁panel	-6465
▁solve	-6466
▁Turkey	-6467
▁eastern	-6468
▁component	-6469
atre	-6470
▁myth	-6471
▁Export	-6472
▁exactly	-6473
▁confined	-6474
▁disabled	-6475
araj	-6476
▁Muh	-6477
urved	-6478
▁adopt	-6479
▁poison	-6480
▁traditions	-6481
ayas	-6482
lets	-6483
wing	-6484
▁alc	-6485
▁thr	-6486
▁unb	-6487
▁Rest	-6488
▁Unit	-6489
▁Autom	-6490
▁PRODU	-6491
▁Master	-6492
ears	-6493
ushed	-6494
▁node	-6495
▁cycle	-6496
▁throw	-6497
▁Integr	-6498
▁dignity	-6499
▁secular	-6500
▁unknown	-6501
edia	-6502
▁Kam	-6503
▁pec	-6504
uster	-6505
▁City	-6506
▁Super	-6507
▁Market	-6508
▁despite	-6509
▁opposite	-6510
▁Sometimes	-6511
▁conversion	-6512
ensus	-6513
▁gall	-6514
▁Labour	-6515
▁appeals	-6516
▁stopped	-6517
▁incurred	-6518
▁prominent	-6519
▁suggestion	-6520
▁distributed	-6521
mi	-6522
cles	-6523
rier	-6524
▁Sik	-6525
▁shel	-6526
zz	-6527
▁NAB	-6528
actory	-6529
▁customs	-6530
▁elephant	-6531
▁Appellate	-6532
bind	-6533
rator	-6534
▁Glob	-6535
▁seats	-6536
▁Having	-6537
▁causing	-6538
▁pilgrim	-6539
EG	-6540
OM	-6541
▁sales	-6542
▁atomic	-6543
▁empower	-6544
▁Islamist	-6545
▁patients	-6546
▁distinction	-6547
ilal	-6548
▁Far	-6549
▁gland	-6550
▁intest	-6551
▁represented	-6552
▁hence	-6553
▁tender	-6554
▁tourism	-6555
▁followers	-6556
atar	-6557
▁Sav	-6558
alore	-6559
entle	-6560
▁trem	-6561
▁allot	-6562
▁teeth	-6563
irement	-6564
▁nutrit	-6565
▁Kingdom	-6566
▁inserted	-6567
▁involves	-6568
▁architecture	-6569
aph	-6570
▁CD	-6571
▁Copy	-6572
rovers	-6573
▁advis	-6574
▁conqu	-6575
▁mixed	-6576
▁spend	-6577
▁sorrow	-6578
▁combination	-6579
uru	-6580
▁UT	-6581
▁Lep	-6582
auses	-6583
▁Road	-6584
▁abst	-6585
habilit	-6586
▁allows	-6587
▁corner	-6588
▁eternal	-6589
▁commonly	-6590
▁hun	-6591
▁tank	-6592
▁advert	-6593
▁PRODUCT	-6594
▁studied	-6595
▁excellent	-6596
१३	-6597
▁Flag	-6598
▁salt	-6599
▁occurred	-6600
▁applicant	-6601
oli	-6602
bing	-6603
writ	-6604
▁holy	-6605
▁lady	-6606
▁arise	-6607
▁owned	-6608
▁Custom	-6609
▁Bharati	-6610
▁Support	-6611
▁fighting	-6612
▁wa	-6613
rain	-6614
▁Eff	-6615
▁Shiv	-6616
▁resign	-6617
▁quarter	-6618
ker	-6619
▁Id	-6620
▁ca	-6621
▁Due	-6622
▁mig	-6623
▁Soft	-6624
▁Mohan	-6625
▁brows	-6626
▁fever	-6627
▁Officers	-6628
▁recommendation	-6629
itud	-6630
▁hyp	-6631
iously	-6632
▁faced	-6633
▁shaped	-6634
▁yellow	-6635
▁innovative	-6636
mic	-6637
▁ties	-6638
▁escape	-6639
▁fifteen	-6640
▁illness	-6641
▁passion	-6642
▁radical	-6643
▁achievements	-6644
ded	-6645
algam	-6646
icity	-6647
▁hills	-6648
▁sheet	-6649
istries	-6650
▁secondary	-6651
▁experiment	-6652
ls	-6653
▁CHA	-6654
▁dust	-6655
▁Shiva	-6656
▁equival	-6657
▁greatly	-6658
▁indicate	-6659
▁emotional	-6660
▁Dw	-6661
▁Jay	-6662
▁pup	-6663
ients	-6664
▁falls	-6665
▁entrust	-6666
▁appellant	-6667
▁diversity	-6668
mp	-6669
▁bat	-6670
apped	-6671
▁grat	-6672
hening	-6673
▁courses	-6674
▁Ramayana	-6675
▁strategic	-6676
▁interpretation	-6677
▁transformation	-6678
▁kg	-6679
nity	-6680
▁IPC	-6681
▁truly	-6682
▁cotton	-6683
▁pieces	-6684
▁sovere	-6685
▁harvest	-6686
mentation	-6687
▁Hinduism	-6688
▁rejected	-6689
▁receiving	-6690
orter	-6691
▁Found	-6692
▁signs	-6693
▁sports	-6694
▁managed	-6695
▁consumers	-6696
▁civilization	-6697
▁automatically	-6698
his	-6699
ache	-6700
oram	-6701
▁White	-6702
▁victory	-6703
▁internet	-6704
▁mountains	-6705
▁Administrative	-6706
..	-6707
DP	-6708
yl	-6709
husi	-6710
▁Alm	-6711
▁ren	-6712
▁Liter	-6713
▁Nagar	-6714
▁accum	-6715
▁convin	-6716
▁facing	-6717
▁converted	-6718
OP	-6719
eff	-6720
▁ly	-6721
ture	-6722
▁seat	-6723
▁wear	-6724
▁aimed	-6725
▁rising	-6726
▁liberty	-6727
▁eve	-6728
▁Make	-6729
▁airc	-6730
▁Energy	-6731
▁NABARD	-6732
▁cancer	-6733
▁signal	-6734
▁Election	-6735
▁technique	-6736
▁compassion	-6737
▁technological	-6738
▁Jh	-6739
anga	-6740
ktop	-6741
▁cas	-6742
▁Term	-6743
▁bath	-6744
▁stim	-6745
▁Vaishn	-6746
▁palace	-6747
oom	-6748
▁Mir	-6749
▁Ord	-6750
▁dro	-6751
▁resort	-6752
▁wisdom	-6753
▁realised	-6754
▁dependent	-6755
▁contributed	-6756
▁sam	-6757
▁isol	-6758
▁manage	-6759
▁Interest	-6760
▁deceased	-6761
▁Notwithstanding	-6762
▁meat	-6763
chandra	-6764
esterday	-6765
▁Working	-6766
▁notified	-6767
ranch	-6768
▁decre	-6769
ificial	-6770
▁diverse	-6771
▁backward	-6772
▁subscribe	-6773
▁Industries	-6774
▁developments	-6775
NAME	-6776
endar	-6777
▁Bench	-6778
▁antic	-6779
▁index	-6780
missible	-6781
▁raising	-6782
▁dangerous	-6783
▁statements	-6784
▁Dom	-6785
▁Money	-6786
▁maintaining	-6787
▁strengthening	-6788
ums	-6789
▁CH	-6790
leum	-6791
▁Equ	-6792
amber	-6793
▁Gree	-6794
▁Oper	-6795
▁Siva	-6796
▁tort	-6797
▁pride	-6798
▁saved	-6799
▁enthusi	-6800
▁experts	-6801
▁Maharaja	-6802
▁candidates	-6803
▁ww	-6804
▁ring	-6805
▁Knowledge	-6806
IG	-6807
▁Sr	-6808
▁ran	-6809
▁tube	-6810
▁insure	-6811
▁minute	-6812
▁submit	-6813
▁applies	-6814
▁desired	-6815
▁examined	-6816
▁affection	-6817
▁childhood	-6818
▁vegetables	-6819
▁Max	-6820
▁www	-6821
arathi	-6822
▁utter	-6823
▁salary	-6824
▁closely	-6825
▁multipl	-6826
▁proviso	-6827
▁structures	-6828
hibit	-6829
▁sons	-6830
▁rough	-6831
▁domain	-6832
▁learnt	-6833
▁brothers	-6834
yr	-6835
▁asking	-6836
▁cheque	-6837
▁tourist	-6838
▁guarantee	-6839
▁privilege	-6840
▁declaration	-6841
AP	-6842
▁bull	-6843
orders	-6844
▁therein	-6845
▁venture	-6846
▁influenced	-6847
ria	-6848
antly	-6849
▁oral	-6850
erning	-6851
▁inval	-6852
▁visual	-6853
▁planned	-6854
▁strange	-6855
▁obligation	-6856
▁suggestions	-6857
utor	-6858
▁rig	-6859
▁vul	-6860
▁jobs	-6861
▁listed	-6862
▁printed	-6863
▁Governance	-6864
▁cultivation	-6865
▁Mor	-6866
▁Taj	-6867
▁Verm	-6868
▁Number	-6869
▁Online	-6870
▁shrine	-6871
▁eminent	-6872
▁naturally	-6873
▁od	-6874
▁Tal	-6875
▁avo	-6876
ports	-6877
▁fault	-6878
▁fluid	-6879
▁glass	-6880
▁older	-6881
▁adverse	-6882
▁ceremony	-6883
▁experiences	-6884
ding	-6885
rane	-6886
umes	-6887
▁Dar	-6888
▁Did	-6889
▁Have	-6890
▁Look	-6891
othing	-6892
▁embra	-6893
▁elabor	-6894
▁passage	-6895
▁operative	-6896
▁primarily	-6897
▁institutional	-6898
▁CP	-6899
ogen	-6900
▁beat	-6901
▁inev	-6902
▁pipes	-6903
oked	-6904
▁Shi	-6905
erved	-6906
▁forty	-6907
▁route	-6908
▁German	-6909
▁stored	-6910
▁custody	-6911
▁preparation	-6912
▁Lad	-6913
▁rhy	-6914
celer	-6915
▁aside	-6916
▁amalgam	-6917
▁controvers	-6918
nai	-6919
iable	-6920
ollow	-6921
▁tail	-6922
▁seeks	-6923
▁carbon	-6924
▁opposed	-6925
▁reduction	-6926
iri	-6927
jan	-6928
▁asc	-6929
▁nav	-6930
essed	-6931
itals	-6932
▁clim	-6933
uction	-6934
▁Death	-6935
iversary	-6936
▁Railway	-6937
▁drawing	-6938
▁pertaining	-6939
pad	-6940
pat	-6941
▁Note	-6942
▁Sant	-6943
duction	-6944
▁expiry	-6945
▁novels	-6946
▁overse	-6947
▁Gazette	-6948
rm	-6949
▁genu	-6950
▁unre	-6951
▁algor	-6952
▁operate	-6953
▁whereas	-6954
▁attended	-6955
▁Iss	-6956
▁via	-6957
▁vim	-6958
▁ended	-6959
▁bridge	-6960
▁cattle	-6961
▁options	-6962
▁servant	-6963
▁resulted	-6964
▁discovered	-6965
▁instruction	-6966
▁subordinate	-6967
EF	-6968
UM	-6969
arsh	-6970
▁Lat	-6971
▁mic	-6972
plete	-6973
▁Four	-6974
▁noise	-6975
▁recip	-6976
▁Arabic	-6977
▁condem	-6978
▁entity	-6979
▁fulfil	-6980
▁realise	-6981
▁sharing	-6982
▁totally	-6983
▁supposed	-6984
▁happening	-6985
▁Agricultural	-6986
ught	-6987
▁Gita	-6988
▁burn	-6989
▁forced	-6990
▁regime	-6991
▁goddess	-6992
▁percentage	-6993
osc	-6994
▁Fr	-6995
▁analy	-6996
▁diagn	-6997
▁persu	-6998
▁Basava	-6999
▁rational	-7000
▁ministers	-7001
▁thereafter	-7002
▁flex	-7003
▁marks	-7004
▁surre	-7005
▁incent	-7006
▁Marathi	-7007
▁Perhaps	-7008
▁replied	-7009
▁specify	-7010
▁testing	-7011
▁computers	-7012
▁corruption	-7013
▁progressive	-7014
▁vent	-7015
roleum	-7016
▁towns	-7017
▁caught	-7018
▁refuge	-7019
▁programs	-7020
▁rendered	-7021
za	-7022
aria	-7023
itra	-7024
▁mad	-7025
▁pull	-7026
▁twice	-7027
▁spoken	-7028
▁Consult	-7029
▁completion	-7030
▁situations	-7031
mits	-7032
▁irre	-7033
▁shif	-7034
▁Anand	-7035
▁Obama	-7036
▁Table	-7037
▁stuff	-7038
iculture	-7039
▁Persons	-7040
▁arranged	-7041
▁societies	-7042
▁revolutionary	-7043
ATE	-7044
▁ing	-7045
▁Cult	-7046
▁Hari	-7047
▁load	-7048
▁pron	-7049
▁rect	-7050
▁muscle	-7051
▁emerged	-7052
▁Buddhist	-7053
▁pictures	-7054
▁Mahabharata	-7055
nex	-7056
hend	-7057
▁keen	-7058
▁bills	-7059
▁sharp	-7060
▁shock	-7061
▁Search	-7062
▁covers	-7063
▁editor	-7064
DI	-7065
da	-7066
▁Conn	-7067
ferent	-7068
▁coord	-7069
▁dress	-7070
▁framed	-7071
▁limitation	-7072
▁destination	-7073
uv	-7074
bles	-7075
▁Chh	-7076
▁Fil	-7077
▁gift	-7078
▁lamp	-7079
▁decor	-7080
▁neare	-7081
aneously	-7082
▁besides	-7083
▁prospect	-7084
▁techniques	-7085
▁Aj	-7086
▁Test	-7087
▁Bills	-7088
▁ruling	-7089
▁Defence	-7090
▁Muhammad	-7091
▁integrity	-7092
▁discretion	-7093
ML	-7094
HER	-7095
▁TV	-7096
tical	-7097
▁Supp	-7098
▁prol	-7099
▁Again	-7100
ilation	-7101
▁reprodu	-7102
lammation	-7103
▁properties	-7104
ulf	-7105
raid	-7106
▁Mur	-7107
itors	-7108
▁menu	-7109
▁scar	-7110
▁ruled	-7111
▁sites	-7112
▁mathem	-7113
▁player	-7114
▁anticip	-7115
▁publish	-7116
▁marriages	-7117
▁regularly	-7118
▁impression	-7119
▁Administration	-7120
asy	-7121
agon	-7122
▁Ren	-7123
abling	-7124
▁Lanka	-7125
▁aband	-7126
▁elder	-7127
▁heads	-7128
▁complaints	-7129
▁congratulate	-7130
ECH	-7131
irs	-7132
▁jew	-7133
▁View	-7134
▁emerging	-7135
▁oriented	-7136
▁enforcement	-7137
inc	-7138
▁NO	-7139
arge	-7140
▁Mac	-7141
▁Farm	-7142
▁synt	-7143
asions	-7144
▁George	-7145
▁television	-7146
▁Certificate	-7147
ulous	-7148
▁sets	-7149
aryana	-7150
▁metal	-7151
▁earned	-7152
▁ideals	-7153
▁switch	-7154
▁virtue	-7155
▁displayed	-7156
▁extensive	-7157
▁specifically	-7158
heb	-7159
rian	-7160
▁Rao	-7161
▁sus	-7162
▁Sund	-7163
▁ille	-7164
aching	-7165
▁alive	-7166
▁Create	-7167
▁concess	-7168
▁rapidly	-7169
▁Fac	-7170
▁enl	-7171
▁Circ	-7172
▁buff	-7173
▁gate	-7174
▁Never	-7175
▁revol	-7176
▁clothes	-7177
▁illegal	-7178
▁enterprises	-7179
▁operational	-7180
lin	-7181
olic	-7182
▁fly	-7183
▁Arch	-7184
▁Five	-7185
▁Punjabi	-7186
▁putting	-7187
urg	-7188
▁Br	-7189
atri	-7190
▁Vij	-7191
eenth	-7192
▁encl	-7193
▁immun	-7194
▁lakhs	-7195
ishment	-7196
reement	-7197
▁mailing	-7198
▁organisms	-7199
▁monitoring	-7200
▁implementing	-7201
illa	-7202
▁tou	-7203
▁Nath	-7204
▁roots	-7205
▁imagine	-7206
▁islands	-7207
▁enhanced	-7208
▁interface	-7209
▁collective	-7210
▁constantly	-7211
rd	-7212
exp	-7213
life	-7214
▁Sett	-7215
▁pond	-7216
endous	-7217
▁empow	-7218
▁empire	-7219
▁organs	-7220
▁sensitive	-7221
▁calculated	-7222
SS	-7223
ster	-7224
▁anc	-7225
▁Kann	-7226
▁Global	-7227
▁indigenous	-7228
▁translated	-7229
▁constructed	-7230
▁imagination	-7231
aci	-7232
▁flour	-7233
▁marry	-7234
▁awards	-7235
▁depart	-7236
▁consolid	-7237
▁discover	-7238
▁indicated	-7239
▁Sou	-7240
rogen	-7241
▁bold	-7242
▁Green	-7243
▁Empire	-7244
▁deliber	-7245
▁warrant	-7246
▁Accounts	-7247
▁duration	-7248
▁depending	-7249
▁endeavour	-7250
wide	-7251
▁Dig	-7252
enger	-7253
▁Benef	-7254
▁wheat	-7255
▁entrusted	-7256
obile	-7257
▁Sovi	-7258
▁exem	-7259
istent	-7260
▁Haryana	-7261
▁offering	-7262
▁replaced	-7263
▁generations	-7264
▁transportation	-7265
ste	-7266
isite	-7267
▁Bhut	-7268
▁worker	-7269
▁ordered	-7270
▁combined	-7271
▁concerning	-7272
▁characteristic	-7273
ham	-7274
▁Deb	-7275
chant	-7276
▁Keep	-7277
orious	-7278
▁models	-7279
▁chromos	-7280
▁reaching	-7281
▁newspapers	-7282
▁vs	-7283
adur	-7284
▁fet	-7285
▁irres	-7286
▁Sector	-7287
▁dynamic	-7288
▁comments	-7289
habilitation	-7290
▁Goa	-7291
▁fab	-7292
▁Phys	-7293
▁pair	-7294
▁thin	-7295
▁Polit	-7296
▁Saudi	-7297
▁catch	-7298
▁cloud	-7299
▁desir	-7300
▁homes	-7301
▁royal	-7302
▁Recomm	-7303
▁Review	-7304
▁contrast	-7305
▁whenever	-7306
▁Sucharita	-7307
▁achieving	-7308
▁paragraph	-7309
▁perfection	-7310
urch	-7311
▁Saf	-7312
▁Devi	-7313
issions	-7314
▁repeal	-7315
▁slowly	-7316
▁fertiliz	-7317
▁organism	-7318
▁Professor	-7319
▁supplement	-7320
comm	-7321
▁Sem	-7322
▁unn	-7323
▁Date	-7324
▁Check	-7325
▁empty	-7326
▁litig	-7327
▁divers	-7328
▁ending	-7329
▁parallel	-7330
▁undertake	-7331
aem	-7332
iche	-7333
lied	-7334
ching	-7335
▁Proper	-7336
▁prefer	-7337
▁settle	-7338
▁burning	-7339
▁library	-7340
▁readers	-7341
▁selling	-7342
▁Innovation	-7343
▁ash	-7344
power	-7345
▁snow	-7346
▁wing	-7347
▁Canada	-7348
▁Current	-7349
▁promise	-7350
ugu	-7351
▁Amb	-7352
itative	-7353
▁paying	-7354
▁degrees	-7355
operation	-7356
▁inclusive	-7357
▁resistance	-7358
Os	-7359
dy	-7360
▁elev	-7361
▁sixty	-7362
▁endeav	-7363
kind	-7364
▁Nob	-7365
▁Tar	-7366
▁bon	-7367
▁inher	-7368
▁wages	-7369
▁eating	-7370
▁handic	-7371
▁listen	-7372
▁unfort	-7373
▁factory	-7374
▁ultimate	-7375
▁everywhere	-7376
▁Engineering	-7377
lig	-7378
▁rot	-7379
▁Bush	-7380
▁nerve	-7381
▁worry	-7382
▁Forest	-7383
▁Jewish	-7384
▁killing	-7385
▁routine	-7386
▁somebody	-7387
▁beneficial	-7388
UN	-7389
orne	-7390
otal	-7391
▁upl	-7392
▁rose	-7393
▁Three	-7394
▁Cannot	-7395
▁Majesty	-7396
▁calling	-7397
▁defendant	-7398
The	-7399
iam	-7400
isp	-7401
addy	-7402
haust	-7403
▁helping	-7404
▁regards	-7405
ECT	-7406
▁IR	-7407
▁Oh	-7408
▁map	-7409
▁zone	-7410
▁Penal	-7411
▁enorm	-7412
▁Chennai	-7413
▁Welfare	-7414
▁impress	-7415
▁earliest	-7416
▁extraord	-7417
▁historic	-7418
▁destroyed	-7419
▁requested	-7420
▁sustained	-7421
▁necessarily	-7422
▁pit	-7423
▁arises	-7424
▁condol	-7425
▁aggress	-7426
▁crucial	-7427
▁falling	-7428
▁executed	-7429
▁hundreds	-7430
▁collaboration	-7431
JP	-7432
▁MP	-7433
▁Mot	-7434
▁vib	-7435
▁duly	-7436
ective	-7437
▁Leprosy	-7438
▁considering	-7439
stig	-7440
▁Son	-7441
▁Malay	-7442
▁auton	-7443
▁Access	-7444
▁Terror	-7445
▁Washing	-7446
▁batsman	-7447
▁resolve	-7448
▁turning	-7449
▁colonial	-7450
▁Departments	-7451
just	-7452
oking	-7453
▁cord	-7454
▁memor	-7455
▁suicide	-7456
▁corresponding	-7457
irt	-7458
▁Smt	-7459
▁epic	-7460
▁icon	-7461
▁plug	-7462
urated	-7463
▁wings	-7464
▁audience	-7465
▁protected	-7466
▁equivalent	-7467
ino	-7468
▁Get	-7469
▁Kap	-7470
ether	-7471
▁Bach	-7472
▁shad	-7473
▁Young	-7474
▁stars	-7475
▁recruit	-7476
▁aircraft	-7477
▁stations	-7478
aven	-7479
uing	-7480
▁Kor	-7481
▁Love	-7482
▁Stre	-7483
▁cruel	-7484
▁tract	-7485
athered	-7486
▁subsid	-7487
▁varied	-7488
▁decline	-7489
▁entertain	-7490
▁competitive	-7491
▁inspiration	-7492
alal	-7493
▁Rah	-7494
▁Card	-7495
▁Sever	-7496
▁grace	-7497
▁evolved	-7498
▁prejudice	-7499
▁obligations	-7500
१४	-7501
bre	-7502
▁NG	-7503
▁SE	-7504
orse	-7505
▁Mang	-7506
▁Soviet	-7507
▁defeat	-7508
▁tongue	-7509
▁Brahman	-7510
▁alleged	-7511
▁genuine	-7512
▁returns	-7513
▁tribunal	-7514
▁interaction	-7515
ulus	-7516
▁Mun	-7517
▁Nic	-7518
▁Sil	-7519
▁Mach	-7520
TIONAL	-7521
▁horiz	-7522
▁copies	-7523
▁circuit	-7524
▁realize	-7525
IP	-7526
▁Ve	-7527
aked	-7528
▁Kav	-7529
unals	-7530
▁Badr	-7531
▁healthcare	-7532
▁exploitation	-7533
▁incorporated	-7534
rete	-7535
▁SPE	-7536
▁Hand	-7537
▁Times	-7538
▁newly	-7539
▁tasks	-7540
adation	-7541
▁monthly	-7542
▁peaceful	-7543
▁terminal	-7544
▁commodities	-7545
▁Ach	-7546
▁DAY	-7547
▁RBI	-7548
▁Sign	-7549
▁scre	-7550
▁Click	-7551
▁farming	-7552
▁yesterday	-7553
▁derivative	-7554
HAR	-7555
agra	-7556
▁ICT	-7557
▁mah	-7558
▁hurt	-7559
▁taxes	-7560
▁satell	-7561
▁belongs	-7562
▁Software	-7563
▁complain	-7564
▁multiply	-7565
▁consequence	-7566
▁haz	-7567
▁hes	-7568
▁Perm	-7569
▁Save	-7570
▁busy	-7571
orters	-7572
▁Treat	-7573
▁Truth	-7574
▁bread	-7575
▁faces	-7576
▁grain	-7577
▁denied	-7578
▁finger	-7579
▁rememb	-7580
▁mistake	-7581
▁weakness	-7582
▁generated	-7583
▁residence	-7584
▁scheduled	-7585
▁regulation	-7586
rem	-7587
▁Cy	-7588
enda	-7589
urit	-7590
▁Log	-7591
▁wage	-7592
▁Local	-7593
▁shift	-7594
▁Nothing	-7595
▁composition	-7596
▁territories	-7597
▁conservation	-7598
ato	-7599
▁ju	-7600
▁Que	-7601
ureau	-7602
▁Lear	-7603
▁boat	-7604
▁blank	-7605
▁ruler	-7606
▁prayer	-7607
▁kilomet	-7608
▁succeeded	-7609
▁Washington	-7610
▁artificial	-7611
▁supporting	-7612
▁ice	-7613
▁pled	-7614
▁alter	-7615
▁legit	-7616
▁miles	-7617
▁devoted	-7618
▁injured	-7619
▁Bangalore	-7620
▁recognize	-7621
ymph	-7622
osted	-7623
▁dele	-7624
▁trek	-7625
▁tooth	-7626
▁simult	-7627
▁Several	-7628
▁prestig	-7629
▁serving	-7630
▁Moreover	-7631
akar	-7632
ashi	-7633
hash	-7634
▁USA	-7635
nasty	-7636
▁Govt	-7637
▁pump	-7638
▁silk	-7639
▁urge	-7640
▁intim	-7641
▁lying	-7642
▁furnished	-7643
▁presentation	-7644
ald	-7645
PTER	-7646
utosh	-7647
▁pest	-7648
▁Mahal	-7649
▁spons	-7650
▁button	-7651
▁feeding	-7652
▁noticed	-7653
▁PM	-7654
▁aer	-7655
▁shell	-7656
▁summer	-7657
ographic	-7658
▁carries	-7659
▁intense	-7660
▁outlook	-7661
▁partial	-7662
▁overcome	-7663
▁vehicles	-7664
▁obtaining	-7665
▁Investment	-7666
▁tremendous	-7667
▁ultimately	-7668
▁Bro	-7669
▁IIT	-7670
ections	-7671
▁afraid	-7672
▁biggest	-7673
▁Japanese	-7674
▁channels	-7675
▁attracted	-7676
rh	-7677
riev	-7678
time	-7679
▁dil	-7680
▁Play	-7681
▁brill	-7682
▁bigger	-7683
▁deduct	-7684
▁winter	-7685
amination	-7686
▁Recommend	-7687
▁financing	-7688
▁references	-7689
fe	-7690
unch	-7691
▁Hall	-7692
▁glad	-7693
▁memb	-7694
▁stom	-7695
hibited	-7696
▁hidden	-7697
▁Hindust	-7698
▁Constitu	-7699
▁database	-7700
▁disorder	-7701
▁thorough	-7702
▁referring	-7703
▁frequently	-7704
▁substituted	-7705
oding	-7706
▁charm	-7707
▁maybe	-7708
▁client	-7709
indranath	-7710
▁innocent	-7711
▁relatives	-7712
▁stability	-7713
▁Foundation	-7714
▁configuration	-7715
ST	-7716
what	-7717
▁lung	-7718
▁younger	-7719
▁Allahabad	-7720
▁agreements	-7721
▁Od	-7722
rous	-7723
▁Rav	-7724
▁dow	-7725
eches	-7726
▁dict	-7727
▁intu	-7728
▁wave	-7729
hemical	-7730
▁Sheikh	-7731
▁Ayurved	-7732
▁theatre	-7733
▁characteristics	-7734
▁CA	-7735
▁Ir	-7736
pent	-7737
oster	-7738
▁Arun	-7739
▁merg	-7740
▁castes	-7741
▁CHAPTER	-7742
▁assured	-7743
▁lawyers	-7744
▁retired	-7745
▁dramatic	-7746
▁inherent	-7747
▁Regulation	-7748
etan	-7749
▁sed	-7750
▁Luck	-7751
▁larva	-7752
▁holder	-7753
▁organic	-7754
▁sending	-7755
ictionary	-7756
▁Planning	-7757
▁exception	-7758
▁exercised	-7759
▁attachment	-7760
▁Accordingly	-7761
▁Ste	-7762
▁Str	-7763
▁loy	-7764
ecess	-7765
▁stup	-7766
▁vacc	-7767
▁Sessions	-7768
▁contents	-7769
▁aggregate	-7770
▁varieties	-7771
how	-7772
acle	-7773
asis	-7774
▁pool	-7775
▁governed	-7776
▁performing	-7777
▁legislature	-7778
auc	-7779
▁IV	-7780
▁Nir	-7781
▁hal	-7782
▁deity	-7783
▁penal	-7784
▁Speech	-7785
▁worshi	-7786
▁classical	-7787
▁exclusive	-7788
▁positions	-7789
▁punishable	-7790
gin	-7791
▁AM	-7792
quar	-7793
rine	-7794
utch	-7795
▁err	-7796
irmed	-7797
▁genus	-7798
▁tells	-7799
▁Topics	-7800
▁Himalayas	-7801
▁discrimination	-7802
▁dh	-7803
▁Sea	-7804
etime	-7805
▁Cell	-7806
▁fraud	-7807
▁motiv	-7808
▁Telugu	-7809
▁circle	-7810
▁Consumer	-7811
▁attempts	-7812
▁profound	-7813
▁constitut	-7814
▁occasions	-7815
▁pregnancy	-7816
▁radiation	-7817
▁cum	-7818
▁gun	-7819
▁Mess	-7820
▁auth	-7821
liance	-7822
ricted	-7823
entions	-7824
fulness	-7825
rations	-7826
▁easier	-7827
▁fairly	-7828
▁gained	-7829
▁Computer	-7830
IM	-7831
ogy	-7832
▁Tour	-7833
▁mood	-7834
▁loose	-7835
▁delete	-7836
▁thread	-7837
▁protocol	-7838
▁sanctioned	-7839
ns	-7840
met	-7841
oult	-7842
▁Bul	-7843
▁fle	-7844
rates	-7845
incial	-7846
▁Forum	-7847
▁Thank	-7848
atories	-7849
▁closer	-7850
▁exhaust	-7851
▁pillars	-7852
▁profile	-7853
▁describe	-7854
oma	-7855
being	-7856
ictions	-7857
▁partly	-7858
▁Collect	-7859
▁disqual	-7860
▁genetic	-7861
▁musical	-7862
▁abnormal	-7863
▁bacteria	-7864
▁increases	-7865
▁experienced	-7866
ukh	-7867
itya	-7868
▁Ele	-7869
erals	-7870
▁Indo	-7871
lessness	-7872
▁extract	-7873
▁precious	-7874
▁reducing	-7875
▁sequence	-7876
▁strongly	-7877
▁preferred	-7878
▁representing	-7879
▁extraordinary	-7880
ss	-7881
ida	-7882
ador	-7883
cers	-7884
wood	-7885
▁flo	-7886
▁row	-7887
ariat	-7888
▁united	-7889
▁Private	-7890
▁recover	-7891
▁produces	-7892
▁Institutions	-7893
ios	-7894
ipped	-7895
▁Norm	-7896
▁Path	-7897
▁axis	-7898
▁landl	-7899
▁gathered	-7900
▁institute	-7901
uma	-7902
avas	-7903
akers	-7904
ovable	-7905
▁Arbit	-7906
▁Centres	-7907
▁furnish	-7908
▁pronoun	-7909
▁payments	-7910
CO	-7911
dev	-7912
off	-7913
xide	-7914
▁Help	-7915
▁Short	-7916
▁recon	-7917
▁Action	-7918
▁SPEECH	-7919
▁farmer	-7920
▁metres	-7921
▁spring	-7922
▁cutting	-7923
▁doctors	-7924
▁seriously	-7925
▁integration	-7926
coming	-7927
▁Abdul	-7928
▁Major	-7929
▁incap	-7930
▁turns	-7931
itioner	-7932
▁praise	-7933
▁anywhere	-7934
jun	-7935
▁Sl	-7936
▁Vide	-7937
▁emer	-7938
▁Dwark	-7939
▁Entry	-7940
▁Nanak	-7941
▁chest	-7942
▁lands	-7943
▁magaz	-7944
▁norms	-7945
itarian	-7946
▁Indira	-7947
▁daniel	-7948
▁Islands	-7949
▁enjoyed	-7950
▁scholar	-7951
▁servants	-7952
▁necessity	-7953
▁Prevention	-7954
▁acceptable	-7955
▁identification	-7956
iya	-7957
pex	-7958
odox	-7959
▁Ven	-7960
▁Indeed	-7961
▁comprom	-7962
▁periods	-7963
▁modified	-7964
▁recording	-7965
▁realisation	-7966
BC	-7967
CH	-7968
▁Na	-7969
▁oxy	-7970
▁intr	-7971
▁clock	-7972
▁fails	-7973
▁plane	-7974
▁risks	-7975
▁bearing	-7976
anth	-7977
▁cad	-7978
lessly	-7979
▁bonds	-7980
▁cater	-7981
▁grave	-7982
▁lingu	-7983
▁Family	-7984
▁inputs	-7985
▁pretty	-7986
liminary	-7987
▁Ap	-7988
inth	-7989
▁gap	-7990
▁unl	-7991
itate	-7992
▁Cast	-7993
▁pace	-7994
isible	-7995
▁Advis	-7996
▁inhab	-7997
▁wider	-7998
▁engage	-7999
▁stones	-8000
▁adoption	-8001
▁reposted	-8002
▁exceeding	-8003
▁programming	-8004
▁establishing	-8005
▁Light	-8006
▁mould	-8007
▁flight	-8008
▁walking	-8009
criptions	-8010
▁revealed	-8011
▁acknowled	-8012
▁indicates	-8013
▁interview	-8014
▁appreciation	-8015
atra	-8016
▁Wik	-8017
igarh	-8018
▁font	-8019
▁forum	-8020
▁Netaji	-8021
▁wherein	-8022
▁increasingly	-8023
zen	-8024
gage	-8025
▁Jos	-8026
rative	-8027
▁fifth	-8028
▁Bahadur	-8029
▁darkness	-8030
▁convicted	-8031
▁BY	-8032
▁Pune	-8033
▁remedy	-8034
lamation	-8035
▁acceler	-8036
▁windows	-8037
▁contacts	-8038
ua	-8039
▁Six	-8040
▁vag	-8041
acing	-8042
▁Take	-8043
▁texts	-8044
▁genius	-8045
▁urgent	-8046
▁assumed	-8047
▁ownership	-8048
▁spr	-8049
endix	-8050
▁mine	-8051
ancell	-8052
ilding	-8053
▁incom	-8054
▁march	-8055
▁sheep	-8056
▁uncle	-8057
▁golden	-8058
▁imported	-8059
▁somewhat	-8060
▁corporation	-8061
bra	-8062
uts	-8063
▁Gen	-8064
▁cav	-8065
ogram	-8066
engers	-8067
missions	-8068
▁Manipur	-8069
▁Municipal	-8070
▁reflected	-8071
▁villagers	-8072
▁restrictions	-8073
▁Dav	-8074
▁Han	-8075
eding	-8076
▁plot	-8077
▁scrut	-8078
▁faster	-8079
▁stayed	-8080
▁driving	-8081
▁enlight	-8082
▁enquiry	-8083
▁compulsory	-8084
▁remembered	-8085
DF	-8086
▁AN	-8087
down	-8088
herry	-8089
▁meal	-8090
▁Third	-8091
▁kings	-8092
atively	-8093
▁Unable	-8094
▁devote	-8095
▁fabric	-8096
▁impose	-8097
▁silent	-8098
▁Enterpr	-8099
▁harmful	-8100
▁invalid	-8101
▁silence	-8102
▁equation	-8103
▁continuing	-8104
▁institutes	-8105
using	-8106
▁calm	-8107
▁Bhutan	-8108
▁adults	-8109
▁perpet	-8110
▁silver	-8111
▁package	-8112
▁reserve	-8113
▁enabling	-8114
▁tourists	-8115
▁wherever	-8116
▁Employment	-8117
▁appreciate	-8118
▁encouraging	-8119
▁HT	-8120
▁cul	-8121
▁Zone	-8122
▁luck	-8123
alysis	-8124
▁lease	-8125
▁nodes	-8126
▁Lahore	-8127
▁Temple	-8128
▁fought	-8129
▁hearts	-8130
▁preval	-8131
▁smooth	-8132
▁imports	-8133
▁pleased	-8134
▁premium	-8135
uti	-8136
aved	-8137
wara	-8138
iders	-8139
ipher	-8140
▁alien	-8141
▁infer	-8142
▁wheel	-8143
usively	-8144
ribution	-8145
▁Instead	-8146
▁stomach	-8147
▁literacy	-8148
▁reserved	-8149
▁Badruddin	-8150
▁describes	-8151
nic	-8152
▁SS	-8153
plate	-8154
lihood	-8155
▁brown	-8156
▁repay	-8157
ogether	-8158
▁gentle	-8159
▁talent	-8160
▁careful	-8161
▁mankind	-8162
▁circular	-8163
▁province	-8164
▁eventually	-8165
▁complicated	-8166
opl	-8167
▁fo	-8168
▁Ray	-8169
archy	-8170
▁Narm	-8171
▁Ganges	-8172
▁artist	-8173
▁African	-8174
▁precise	-8175
▁retirement	-8176
▁Chal	-8177
▁Docu	-8178
▁mole	-8179
arency	-8180
▁posts	-8181
▁Brahma	-8182
▁headed	-8183
▁valley	-8184
▁Without	-8185
▁answers	-8186
▁surgery	-8187
▁Islamists	-8188
▁conventional	-8189
TP	-8190
oa	-8191
oty	-8192
unate	-8193
▁http	-8194
▁indu	-8195
▁Relig	-8196
▁acute	-8197
▁alloc	-8198
▁plain	-8199
▁vested	-8200
▁disturb	-8201
▁formula	-8202
▁aspirations	-8203
▁geographical	-8204
▁NS	-8205
omous	-8206
▁spin	-8207
▁wire	-8208
▁feels	-8209
▁keeps	-8210
▁loved	-8211
▁merit	-8212
▁handle	-8213
▁heaven	-8214
▁repair	-8215
▁unlike	-8216
▁printing	-8217
CP	-8218
orce	-8219
ouds	-8220
hical	-8221
inder	-8222
▁dreams	-8223
▁colleges	-8224
▁entering	-8225
▁inspection	-8226
je	-8227
lor	-8228
angle	-8229
avior	-8230
▁Vill	-8231
idency	-8232
▁worse	-8233
▁Swaraj	-8234
▁Academy	-8235
▁browser	-8236
▁enormous	-8237
▁algorithm	-8238
kh	-8239
AND	-8240
▁Paul	-8241
▁idol	-8242
▁bears	-8243
▁bride	-8244
▁Session	-8245
▁interpre	-8246
▁networks	-8247
▁visiting	-8248
gi	-8249
ario	-8250
▁Ans	-8251
urning	-8252
▁Black	-8253
▁Valley	-8254
▁dissem	-8255
▁intermedi	-8256
▁comprising	-8257
ALL	-8258
▁Ce	-8259
▁EX	-8260
▁Dam	-8261
aming	-8262
▁Agra	-8263
▁Mart	-8264
▁dear	-8265
apping	-8266
▁Print	-8267
▁beach	-8268
▁begun	-8269
▁taste	-8270
▁batter	-8271
▁breath	-8272
▁firmly	-8273
▁saving	-8274
iciently	-8275
▁Quality	-8276
akrishnan	-8277
▁Champ	-8278
▁ought	-8279
▁Reform	-8280
▁island	-8281
▁refund	-8282
▁licence	-8283
▁advocate	-8284
▁calendar	-8285
▁nominated	-8286
▁observations	-8287
▁subsequently	-8288
alli	-8289
apse	-8290
mans	-8291
▁adding	-8292
▁native	-8293
▁complim	-8294
▁relates	-8295
▁mandatory	-8296
ubs	-8297
▁PAR	-8298
▁bin	-8299
▁unp	-8300
▁Phot	-8301
▁brave	-8302
▁revision	-8303
▁instituted	-8304
UB	-8305
UD	-8306
END	-8307
▁End	-8308
▁Exc	-8309
▁mil	-8310
chers	-8311
ESSAGE	-8312
person	-8313
▁retain	-8314
▁thinks	-8315
ifferent	-8316
▁Federal	-8317
▁paramet	-8318
▁everybody	-8319
▁Organization	-8320
ela	-8321
▁tor	-8322
▁lake	-8323
▁tall	-8324
ashion	-8325
▁hotel	-8326
▁snake	-8327
▁resear	-8328
▁tribes	-8329
▁Display	-8330
▁exchanges	-8331
▁installation	-8332
१५	-8333
▁Aur	-8334
▁fan	-8335
▁fou	-8336
▁gif	-8337
▁wed	-8338
ivals	-8339
▁Auro	-8340
▁bare	-8341
itudes	-8342
rating	-8343
▁adjud	-8344
▁penet	-8345
▁Sharma	-8346
▁slightly	-8347
▁Promotion	-8348
▁admission	-8349
▁membership	-8350
▁La	-8351
aras	-8352
ffee	-8353
illy	-8354
ulum	-8355
▁Madh	-8356
▁Sank	-8357
▁Vive	-8358
▁horn	-8359
▁semi	-8360
▁depre	-8361
▁driven	-8362
▁nervous	-8363
▁actively	-8364
▁handling	-8365
▁presents	-8366
▁candidate	-8367
▁convinced	-8368
▁stakeholders	-8369
▁NH	-8370
▁dies	-8371
▁hide	-8372
▁orth	-8373
▁rein	-8374
▁resc	-8375
▁tack	-8376
▁thro	-8377
father	-8378
ulates	-8379
▁Iranian	-8380
▁massive	-8381
▁Transfer	-8382
▁expanded	-8383
▁Americans	-8384
▁disability	-8385
▁separately	-8386
iac	-8387
▁Cost	-8388
▁Requ	-8389
▁hunt	-8390
▁troops	-8391
▁download	-8392
▁elsewhere	-8393
▁obviously	-8394
pay	-8395
▁Has	-8396
▁Jews	-8397
▁Radh	-8398
▁amaz	-8399
▁tons	-8400
▁admit	-8401
istence	-8402
▁Nation	-8403
▁speedy	-8404
▁MESSAGE	-8405
▁Windows	-8406
▁breeding	-8407
▁speeches	-8408
▁addresses	-8409
▁Ministries	-8410
▁terrorists	-8411
▁py	-8412
book	-8413
▁Jam	-8414
cular	-8415
▁Next	-8416
▁Kabir	-8417
▁broke	-8418
▁Repeal	-8419
▁Scient	-8420
▁essence	-8421
▁keyboard	-8422
▁marginal	-8423
▁surprise	-8424
▁la	-8425
isal	-8426
roid	-8427
▁stem	-8428
▁abuse	-8429
▁crowd	-8430
▁butter	-8431
▁peculi	-8432
▁struck	-8433
▁desktop	-8434
▁vessels	-8435
▁hardware	-8436
▁arguments	-8437
▁residential	-8438
UG	-8439
▁cin	-8440
hesis	-8441
▁Down	-8442
▁aged	-8443
▁alcoh	-8444
▁driver	-8445
▁oxygen	-8446
▁preceding	-8447
▁violation	-8448
AYS	-8449
rich	-8450
▁Til	-8451
itary	-8452
▁Hard	-8453
▁cogn	-8454
▁logic	-8455
▁Product	-8456
▁Subhash	-8457
▁confirm	-8458
▁players	-8459
▁dialogue	-8460
▁premises	-8461
▁sympathy	-8462
▁excessive	-8463
▁governing	-8464
▁ignorance	-8465
▁originally	-8466
▁rehabilitation	-8467
bh	-8468
ocks	-8469
rase	-8470
agues	-8471
ridge	-8472
▁Band	-8473
istrar	-8474
▁india	-8475
▁noble	-8476
▁plate	-8477
▁agents	-8478
▁handed	-8479
resident	-8480
▁Gujarati	-8481
▁supplied	-8482
▁withdrawal	-8483
oz	-8484
itan	-8485
▁Spec	-8486
▁Vict	-8487
▁nose	-8488
▁vulner	-8489
▁acquire	-8490
▁expertise	-8491
awn	-8492
will	-8493
▁mit	-8494
ammed	-8495
idity	-8496
▁Long	-8497
▁movie	-8498
▁Partic	-8499
▁assert	-8500
▁knowing	-8501
▁savings	-8502
▁finished	-8503
▁Standards	-8504
▁incidents	-8505
▁Additional	-8506
▁designated	-8507
asp	-8508
rue	-8509
place	-8510
▁pock	-8511
ighter	-8512
inking	-8513
pector	-8514
essment	-8515
theless	-8516
▁Bureau	-8517
▁Modern	-8518
▁decimal	-8519
sequently	-8520
▁generate	-8521
▁minority	-8522
▁overseas	-8523
▁occupation	-8524
▁formulation	-8525
BER	-8526
aar	-8527
agn	-8528
kal	-8529
▁CL	-8530
▁IPv	-8531
▁Kitt	-8532
▁arts	-8533
iceroy	-8534
▁adapt	-8535
▁films	-8536
▁optim	-8537
▁topic	-8538
ignment	-8539
▁quoted	-8540
▁Movement	-8541
▁tendency	-8542
▁relatively	-8543
▁AW	-8544
▁Cho	-8545
stone	-8546
▁pion	-8547
▁shoot	-8548
▁breach	-8549
quarters	-8550
▁Deposit	-8551
▁telling	-8552
▁broadcast	-8553
▁Institution	-8554
Cs	-8555
▁Ny	-8556
lers	-8557
pura	-8558
▁lov	-8559
acific	-8560
▁Grand	-8561
▁Sahib	-8562
▁Solar	-8563
▁Vedas	-8564
▁evalu	-8565
▁holid	-8566
▁Default	-8567
▁patterns	-8568
kim	-8569
oda	-8570
otism	-8571
▁Page	-8572
▁Shar	-8573
▁jump	-8574
▁Durga	-8575
▁glory	-8576
▁tests	-8577
▁ancest	-8578
▁lawyer	-8579
▁pursue	-8580
▁singing	-8581
▁cultures	-8582
▁monetary	-8583
anim	-8584
vara	-8585
▁Yoj	-8586
▁bio	-8587
antra	-8588
▁Azad	-8589
▁inqu	-8590
▁Amrit	-8591
▁gramm	-8592
▁protein	-8593
▁subsidy	-8594
▁utilised	-8595
▁conducting	-8596
▁particulars	-8597
airy	-8598
anes	-8599
▁Sad	-8600
aimed	-8601
amboo	-8602
▁Main	-8603
▁shut	-8604
▁warn	-8605
abetes	-8606
▁Vivek	-8607
▁plains	-8608
▁Lucknow	-8609
▁affects	-8610
▁focused	-8611
▁protest	-8612
▁winning	-8613
▁engagement	-8614
ford	-8615
▁Bhav	-8616
▁Jour	-8617
▁Citiz	-8618
▁domin	-8619
▁planet	-8620
▁Articles	-8621
▁occupied	-8622
▁peculiar	-8623
▁schedule	-8624
▁Transport	-8625
▁communications	-8626
pes	-8627
▁NE	-8628
attis	-8629
▁Vish	-8630
▁palm	-8631
▁fract	-8632
▁rhyth	-8633
▁stable	-8634
▁breaking	-8635
▁machines	-8636
▁enhancing	-8637
▁tolerance	-8638
▁livelihood	-8639
▁determining	-8640
DR	-8641
▁Tib	-8642
▁gov	-8643
▁Thir	-8644
▁usage	-8645
attered	-8646
▁Region	-8647
▁concluded	-8648
▁empowered	-8649
▁absolutely	-8650
▁phenomenon	-8651
▁observation	-8652
▁Organisation	-8653
▁modification	-8654
▁isn	-8655
▁vii	-8656
▁Mean	-8657
▁shot	-8658
asures	-8659
olving	-8660
▁abdom	-8661
▁harmon	-8662
▁vimana	-8663
▁mineral	-8664
▁Himalayan	-8665
▁Christians	-8666
▁compliance	-8667
▁prevention	-8668
▁approximately	-8669
orry	-8670
▁bug	-8671
▁Imple	-8672
▁acted	-8673
▁anger	-8674
▁assemb	-8675
▁couldn	-8676
▁margin	-8677
▁viewed	-8678
▁writes	-8679
▁authors	-8680
▁insurer	-8681
▁mixture	-8682
▁preserve	-8683
log	-8684
▁EVE	-8685
▁rat	-8686
rible	-8687
▁Desp	-8688
▁Wild	-8689
▁arrive	-8690
▁freely	-8691
▁levied	-8692
▁cancell	-8693
▁denomin	-8694
▁printer	-8695
▁Appendix	-8696
▁Resource	-8697
▁announce	-8698
▁objection	-8699
▁delegation	-8700
pa	-8701
ett	-8702
adra	-8703
ahan	-8704
alaya	-8705
▁clin	-8706
▁sake	-8707
itated	-8708
ortion	-8709
▁Arabs	-8710
▁Const	-8711
▁Media	-8712
▁bones	-8713
ologist	-8714
▁Jagann	-8715
▁sounds	-8716
▁visits	-8717
▁William	-8718
▁fashion	-8719
▁immovable	-8720
▁cooperative	-8721
EV	-8722
eals	-8723
▁voc	-8724
▁Loan	-8725
▁Nand	-8726
▁supr	-8727
▁cease	-8728
▁genes	-8729
▁Agency	-8730
▁Narayan	-8731
▁creates	-8732
▁ignored	-8733
▁revised	-8734
▁Contract	-8735
▁commerce	-8736
▁reserves	-8737
▁succession	-8738
teen	-8739
upee	-8740
▁nod	-8741
▁rab	-8742
adequ	-8743
▁Type	-8744
▁stip	-8745
▁unem	-8746
▁Space	-8747
▁Bhagat	-8748
▁Finally	-8749
▁outcome	-8750
▁streams	-8751
▁attained	-8752
▁experiments	-8753
▁innovations	-8754
▁involvement	-8755
▁participants	-8756
▁Environmental	-8757
uri	-8758
▁SA	-8759
oure	-8760
▁Sin	-8761
acles	-8762
arkar	-8763
▁ages	-8764
▁Raman	-8765
▁perce	-8766
▁compan	-8767
▁humans	-8768
▁nearby	-8769
▁nobody	-8770
▁Minimum	-8771
▁exclusively	-8772
▁preliminary	-8773
▁lac	-8774
onent	-8775
▁Care	-8776
▁sees	-8777
oultry	-8778
ounded	-8779
ushing	-8780
▁reign	-8781
▁Senior	-8782
▁believes	-8783
▁dimension	-8784
▁colleagues	-8785
▁imperialism	-8786
nut	-8787
▁Vin	-8788
▁fond	-8789
ancies	-8790
otions	-8791
▁abund	-8792
▁equals	-8793
▁exceeds	-8794
▁federal	-8795
▁Aurobind	-8796
▁attacked	-8797
▁Technical	-8798
▁qualified	-8799
▁personally	-8800
▁Yam	-8801
▁Bhai	-8802
▁nest	-8803
▁Samaj	-8804
▁chart	-8805
▁hyper	-8806
▁binding	-8807
▁clauses	-8808
▁missing	-8809
▁Railways	-8810
▁commodity	-8811
▁discovery	-8812
▁Dwarkanath	-8813
▁surrounded	-8814
ocy	-8815
▁CR	-8816
▁ma	-8817
ndra	-8818
▁unh	-8819
▁chap	-8820
▁Pract	-8821
▁Design	-8822
▁Museum	-8823
▁agenda	-8824
▁Pension	-8825
▁Revenue	-8826
▁Viceroy	-8827
▁distant	-8828
▁enables	-8829
▁Standard	-8830
▁separated	-8831
▁surrender	-8832
▁electrical	-8833
▁capabilities	-8834
▁ha	-8835
ENCE	-8836
aunt	-8837
▁tum	-8838
▁van	-8839
▁void	-8840
terior	-8841
▁magic	-8842
▁pestic	-8843
▁reward	-8844
▁Shankar	-8845
▁destiny	-8846
▁realized	-8847
▁judgments	-8848
▁allocation	-8849
▁accommodation	-8850
UK	-8851
mo	-8852
▁IF	-8853
▁ul	-8854
emat	-8855
rawn	-8856
▁Jer	-8857
▁Rat	-8858
plant	-8859
ulses	-8860
▁Fest	-8861
▁dish	-8862
▁hung	-8863
▁outs	-8864
urrent	-8865
▁Level	-8866
▁Patna	-8867
▁repro	-8868
▁Sindhi	-8869
▁Status	-8870
▁serves	-8871
▁Subject	-8872
▁conform	-8873
▁drought	-8874
▁dynasty	-8875
▁entries	-8876
▁balanced	-8877
▁dividend	-8878
▁limitations	-8879
▁perspective	-8880
chen	-8881
soon	-8882
▁Hus	-8883
▁Opt	-8884
▁Vid	-8885
▁kit	-8886
▁vex	-8887
▁suits	-8888
▁Maurit	-8889
▁Freedom	-8890
▁observe	-8891
▁submission	-8892
▁substances	-8893
uni	-8894
▁ho	-8895
atta	-8896
▁Area	-8897
▁Call	-8898
▁Conv	-8899
▁Ocean	-8900
▁indul	-8901
▁reass	-8902
▁Sikkim	-8903
▁Singles	-8904
▁avoided	-8905
▁enemies	-8906
▁NATIONAL	-8907
▁inferior	-8908
▁retained	-8909
▁wonderful	-8910
▁productive	-8911
▁restricted	-8912
▁Directorate	-8913
▁intervention	-8914
▁concentration	-8915
IST	-8916
acco	-8917
rosc	-8918
▁ped	-8919
orney	-8920
▁Sikhs	-8921
▁spell	-8922
▁trick	-8923
▁thrown	-8924
▁declare	-8925
▁vitamin	-8926
▁Chancell	-8927
▁Commerce	-8928
▁repealed	-8929
▁safeguard	-8930
▁Integrated	-8931
▁accounting	-8932
eers	-8933
▁gro	-8934
andra	-8935
ulent	-8936
agraha	-8937
atious	-8938
▁Grant	-8939
▁Video	-8940
▁storm	-8941
▁mining	-8942
▁estimate	-8943
▁Aurobindo	-8944
▁preparing	-8945
▁consistent	-8946
▁reputation	-8947
OV	-8948
▁Soon	-8949
▁mart	-8950
akings	-8951
▁actor	-8952
inarily	-8953
▁allied	-8954
▁estate	-8955
▁forgot	-8956
▁harass	-8957
▁insert	-8958
▁museum	-8959
▁forming	-8960
▁advances	-8961
▁extending	-8962
▁addressing	-8963
co	-8964
ju	-8965
▁Dy	-8966
▁Ek	-8967
▁Ber	-8968
aland	-8969
▁widow	-8970
▁license	-8971
▁tissues	-8972
▁Question	-8973
▁attractive	-8974
▁separation	-8975
▁Constituent	-8976
▁AR	-8977
▁MW	-8978
fare	-8979
▁Job	-8980
▁Oil	-8981
▁Tom	-8982
▁din	-8983
imony	-8984
night	-8985
▁Rece	-8986
▁Greek	-8987
▁Quran	-8988
▁brand	-8989
ailable	-8990
▁Forces	-8991
▁decree	-8992
▁grains	-8993
▁habits	-8994
▁untouch	-8995
▁Protocol	-8996
▁suggests	-8997
▁photograph	-8998
▁Radhakrishnan	-8999
AK	-9000
PL	-9001
ipp	-9002
osa	-9003
▁peak	-9004
▁spir	-9005
▁flows	-9006
▁plural	-9007
▁Russian	-9008
▁entrance	-9009
▁Malayalam	-9010
▁cup	-9011
apore	-9012
▁hect	-9013
▁Gopal	-9014
▁therm	-9015
▁tight	-9016
▁Should	-9017
▁bought	-9018
▁insult	-9019
▁tenant	-9020
▁toward	-9021
onscious	-9022
▁chemicals	-9023
▁dismissed	-9024
▁prisoners	-9025
▁connections	-9026
▁Rabindranath	-9027
▁BI	-9028
conn	-9029
icing	-9030
▁Prat	-9031
▁beet	-9032
wealth	-9033
▁favor	-9034
▁Budget	-9035
▁deleted	-9036
▁Abdullah	-9037
▁Agreement	-9038
▁desirable	-9039
▁#	-9040
onic	-9041
▁Vig	-9042
▁nurt	-9043
inions	-9044
stream	-9045
▁chick	-9046
▁immig	-9047
▁assume	-9048
▁muscles	-9049
▁satisfy	-9050
▁skilled	-9051
attisgarh	-9052
▁judgement	-9053
▁grievances	-9054
▁inevitable	-9055
▁liberation	-9056
▁developmental	-9057
▁Vik	-9058
valid	-9059
▁degr	-9060
▁tact	-9061
▁tiny	-9062
onomic	-9063
ressal	-9064
▁advent	-9065
▁manpower	-9066
▁surrounding	-9067
▁ov	-9068
tery	-9069
▁Enc	-9070
▁tap	-9071
▁Tool	-9072
icable	-9073
▁helpl	-9074
ichever	-9075
▁miscon	-9076
▁therap	-9077
▁contrad	-9078
▁approaches	-9079
tain	-9080
▁Hem	-9081
ipping	-9082
▁foods	-9083
▁Employ	-9084
▁deaths	-9085
▁weapon	-9086
▁Airport	-9087
▁Library	-9088
▁fraction	-9089
▁functional	-9090
hta	-9091
▁Old	-9092
▁bes	-9093
▁Star	-9094
▁Sult	-9095
▁paddy	-9096
▁width	-9097
▁resemb	-9098
▁arrival	-9099
▁rendering	-9100
▁controversy	-9101
▁publications	-9102
obar	-9103
ques	-9104
▁Dou	-9105
▁tow	-9106
chron	-9107
rives	-9108
▁Prop	-9109
usions	-9110
▁sport	-9111
▁Center	-9112
▁Spirit	-9113
▁deeper	-9114
▁legend	-9115
▁reiter	-9116
ificates	-9117
▁streets	-9118
▁Ayurveda	-9119
▁disaster	-9120
▁Palestinians	-9121
▁Lic	-9122
araja	-9123
▁Rate	-9124
▁hors	-9125
▁monu	-9126
▁Indra	-9127
▁Koran	-9128
▁borne	-9129
▁ports	-9130
▁extends	-9131
▁lending	-9132
▁initially	-9133
▁collecting	-9134
▁psychological	-9135
SA	-9136
kes	-9137
var	-9138
▁Os	-9139
ourn	-9140
▁Mrs	-9141
▁Prim	-9142
▁seiz	-9143
▁Audio	-9144
▁doors	-9145
▁reads	-9146
▁......	-9147
▁flying	-9148
▁hatred	-9149
▁Install	-9150
▁Pacific	-9151
▁Turkish	-9152
▁exposed	-9153
▁Electric	-9154
▁railways	-9155
▁highlight	-9156
▁indirectly	-9157
▁transmitted	-9158
UT	-9159
▁AC	-9160
athi	-9161
bery	-9162
emen	-9163
idav	-9164
▁Haz	-9165
▁Chak	-9166
▁tape	-9167
liness	-9168
▁bench	-9169
acharya	-9170
▁Survey	-9171
▁patron	-9172
▁Invalid	-9173
▁Monitor	-9174
▁inadequ	-9175
▁segment	-9176
▁romantic	-9177
▁substantially	-9178
das	-9179
▁eg	-9180
pons	-9181
▁sul	-9182
point	-9183
▁Mill	-9184
▁Viet	-9185
▁Ashok	-9186
▁Total	-9187
▁penis	-9188
▁laying	-9189
▁losses	-9190
▁Appeals	-9191
▁anybody	-9192
▁funding	-9193
▁helpful	-9194
▁interim	-9195
▁laboure	-9196
▁belonged	-9197
▁supports	-9198
▁Registrar	-9199
orticulture	-9200
▁supramental	-9201
▁philosophical	-9202
jo	-9203
cut	-9204
▁VI	-9205
▁mac	-9206
oused	-9207
▁Jord	-9208
▁bulk	-9209
▁Estab	-9210
▁Indus	-9211
▁Arabia	-9212
▁specim	-9213
▁cooking	-9214
▁festivals	-9215
▁responses	-9216
▁spreading	-9217
▁whichever	-9218
▁transparency	-9219
gra	-9220
mat	-9221
hari	-9222
▁Mer	-9223
astri	-9224
▁Bhar	-9225
▁Sang	-9226
▁ster	-9227
▁Patel	-9228
▁Urban	-9229
▁ambit	-9230
▁dialog	-9231
esthetic	-9232
▁summary	-9233
▁Advocate	-9234
▁coloured	-9235
▁possibly	-9236
▁studying	-9237
▁Palestine	-9238
▁fulfilled	-9239
▁countrymen	-9240
▁enthusiasm	-9241
▁shareholders	-9242
▁simultaneously	-9243
▁Suf	-9244
orate	-9245
▁Fire	-9246
angers	-9247
▁Creat	-9248
▁shout	-9249
▁oldest	-9250
▁videos	-9251
▁Despite	-9252
▁logical	-9253
▁plastic	-9254
▁warning	-9255
▁Directors	-9256
▁incentives	-9257
▁mechanical	-9258
opp	-9259
hana	-9260
▁orn	-9261
▁Orig	-9262
▁Rani	-9263
ipedia	-9264
▁depri	-9265
▁shops	-9266
▁eleven	-9267
chnology	-9268
▁Hamachi	-9269
▁Upanish	-9270
▁shoulder	-9271
▁Political	-9272
▁dedication	-9273
▁prevailing	-9274
▁explanation	-9275
▁strengthened	-9276
ITY	-9277
▁PS	-9278
▁Hig	-9279
▁Gard	-9280
▁Guid	-9281
▁tied	-9282
▁unus	-9283
▁Menon	-9284
▁cryst	-9285
▁Prosec	-9286
▁fright	-9287
▁beliefs	-9288
▁Whatever	-9289
▁pregnant	-9290
▁intensity	-9291
▁transparent	-9292
▁aqu	-9293
▁stro	-9294
charge	-9295
▁irrit	-9296
▁photo	-9297
▁slope	-9298
▁tends	-9299
manship	-9300
▁Contin	-9301
▁humble	-9302
▁shadow	-9303
▁splend	-9304
▁termin	-9305
▁thrust	-9306
▁Emperor	-9307
▁earthqu	-9308
▁secured	-9309
▁assessed	-9310
▁appellate	-9311
▁brilliant	-9312
▁economies	-9313
▁protecting	-9314
▁Constitutional	-9315
▁Abs	-9316
ashed	-9317
iscal	-9318
earing	-9319
▁Ident	-9320
▁virus	-9321
▁Jordan	-9322
▁differ	-9323
▁treaty	-9324
ologists	-9325
▁Andaman	-9326
▁Manager	-9327
▁reconst	-9328
▁Northern	-9329
▁allowing	-9330
▁regulate	-9331
▁envisaged	-9332
ago	-9333
▁Ha	-9334
▁ji	-9335
▁Case	-9336
▁Point	-9337
▁disag	-9338
▁mango	-9339
mitting	-9340
▁Father	-9341
▁Yojana	-9342
▁utmost	-9343
▁conspir	-9344
▁Panchayat	-9345
▁Terrorism	-9346
▁prevalent	-9347
▁accessible	-9348
▁anniversary	-9349
▁irrespective	-9350
▁Hit	-9351
▁Nam	-9352
cence	-9353
▁Kath	-9354
▁Poly	-9355
▁Sidd	-9356
▁uter	-9357
enders	-9358
isting	-9359
▁camera	-9360
▁Mohammed	-9361
▁answered	-9362
▁concrete	-9363
▁orthodox	-9364
▁inaugurated	-9365
elt	-9366
mad	-9367
isha	-9368
phal	-9369
▁Ken	-9370
▁apt	-9371
▁raj	-9372
▁tag	-9373
amese	-9374
aunch	-9375
▁Link	-9376
acular	-9377
▁alarm	-9378
▁tears	-9379
▁anonym	-9380
▁crimes	-9381
▁grants	-9382
▁ceremon	-9383
▁introduce	-9384
▁provinces	-9385
▁withdrawn	-9386
▁incomplete	-9387
▁Territories	-9388
▁allegations	-9389
▁considerably	-9390
▁Vaj	-9391
▁epis	-9392
▁ling	-9393
▁mamm	-9394
▁Plant	-9395
viation	-9396
▁purity	-9397
▁coverage	-9398
▁expensive	-9399
▁inflation	-9400
ihad	-9401
look	-9402
▁lob	-9403
nagar	-9404
▁Pack	-9405
▁disb	-9406
ickets	-9407
▁moves	-9408
▁prisoner	-9409
▁proceeds	-9410
▁rainfall	-9411
▁affecting	-9412
▁gathering	-9413
▁proceeded	-9414
▁satellite	-9415
▁Secretariat	-9416
▁recruitment	-9417
▁interference	-9418
azi	-9419
▁NIT	-9420
▁Ten	-9421
▁cha	-9422
erving	-9423
holder	-9424
▁admir	-9425
▁honey	-9426
▁talks	-9427
▁Mobile	-9428
▁voting	-9429
▁Manilal	-9430
▁shelter	-9431
▁statute	-9432
▁computed	-9433
▁managing	-9434
▁Evolution	-9435
▁Territory	-9436
▁commencing	-9437
vas	-9438
isan	-9439
▁Gre	-9440
▁Ris	-9441
onged	-9442
▁chol	-9443
▁germ	-9444
▁Hamas	-9445
▁doubts	-9446
▁explos	-9447
▁extrem	-9448
▁reveal	-9449
▁Benefit	-9450
▁Details	-9451
▁lecture	-9452
▁demanded	-9453
▁respondents	-9454
occ	-9455
MENT	-9456
keep	-9457
▁vot	-9458
rants	-9459
▁fool	-9460
▁crude	-9461
▁clouds	-9462
▁fisher	-9463
▁tempor	-9464
▁alcohol	-9465
▁magnetic	-9466
unications	-9467
▁considers	-9468
▁challenged	-9469
▁nationalism	-9470
▁Ib	-9471
iety	-9472
oven	-9473
rued	-9474
stan	-9475
utra	-9476
▁une	-9477
▁Camp	-9478
▁Lake	-9479
▁Proc	-9480
▁neut	-9481
▁Basic	-9482
▁Royal	-9483
▁remun	-9484
▁Within	-9485
▁lesser	-9486
▁discount	-9487
▁disposed	-9488
▁Europeans	-9489
▁basically	-9490
▁witnessed	-9491
iki	-9492
iot	-9493
▁१६	-9494
▁Run	-9495
▁aug	-9496
eling	-9497
▁nice	-9498
ounter	-9499
roller	-9500
▁Queen	-9501
▁games	-9502
edience	-9503
▁Golden	-9504
▁exempt	-9505
▁Natural	-9506
▁utility	-9507
▁Buddhism	-9508
▁formulated	-9509
▁statistics	-9510
▁significantly	-9511
▁Recommendation	-9512
beh	-9513
TING	-9514
▁Bri	-9515
▁Fig	-9516
▁Lol	-9517
▁Pip	-9518
▁Rai	-9519
▁vel	-9520
▁obsc	-9521
▁fourt	-9522
▁Island	-9523
▁Tribes	-9524
▁immort	-9525
▁Asutosh	-9526
▁nearest	-9527
▁suspect	-9528
▁touched	-9529
porations	-9530
▁Recovery	-9531
▁contempl	-9532
▁connecting	-9533
HT	-9534
ca	-9535
▁kh	-9536
rypt	-9537
▁Kore	-9538
▁NIOS	-9539
▁SHRI	-9540
usalem	-9541
▁Appro	-9542
▁Emerg	-9543
▁parad	-9544
▁smart	-9545
▁bamboo	-9546
▁dollar	-9547
▁Cricket	-9548
▁behavior	-9549
▁Jerusalem	-9550
▁Secondary	-9551
▁elephants	-9552
▁medicines	-9553
▁liabilities	-9554
sar	-9555
uta	-9556
cetic	-9557
▁Hosp	-9558
▁lord	-9559
▁Tilak	-9560
▁cheap	-9561
▁unexp	-9562
▁Almast	-9563
▁Friend	-9564
▁hunger	-9565
▁matches	-9566
▁monsoon	-9567
▁survive	-9568
▁acquaint	-9569
▁maturity	-9570
▁membrane	-9571
▁automatic	-9572
▁deposited	-9573
▁Revolution	-9574
▁Commonwealth	-9575
▁administrator	-9576
cel	-9577
erk	-9578
appa	-9579
▁Fre	-9580
▁Yus	-9581
▁Best	-9582
▁gest	-9583
urable	-9584
▁Broad	-9585
▁Works	-9586
▁bliss	-9587
▁laugh	-9588
▁pharm	-9589
▁Follow	-9590
▁Mahade	-9591
▁decent	-9592
▁emerge	-9593
▁Banking	-9594
▁seconds	-9595
▁hospitals	-9596
▁recognise	-9597
▁conversation	-9598
▁professionals	-9599
CA	-9600
▁VII	-9601
utors	-9602
▁Fold	-9603
▁bell	-9604
▁drew	-9605
▁wake	-9606
resent	-9607
▁David	-9608
icating	-9609
▁Lolita	-9610
▁solemn	-9611
▁Housing	-9612
▁cluster	-9613
▁sincere	-9614
▁linkages	-9615
▁elaborate	-9616
▁Bo	-9617
wari	-9618
▁Pall	-9619
▁agro	-9620
▁rear	-9621
▁guess	-9622
▁Prince	-9623
▁consec	-9624
aughters	-9625
▁Village	-9626
▁concepts	-9627
▁subjected	-9628
▁altogether	-9629
▁previously	-9630
▁notwithstanding	-9631
osy	-9632
▁PO	-9633
aran	-9634
ilee	-9635
onds	-9636
▁SRI	-9637
▁Meet	-9638
▁SAYS	-9639
▁angry	-9640
▁mature	-9641
▁refuse	-9642
▁Conduct	-9643
▁allotted	-9644
▁diabetes	-9645
▁helpless	-9646
▁watching	-9647
▁Ru	-9648
aped	-9649
▁cod	-9650
▁Line	-9651
▁Poet	-9652
▁oath	-9653
▁Khand	-9654
▁crack	-9655
▁enfor	-9656
▁cancel	-9657
▁guided	-9658
▁patent	-9659
▁timely	-9660
▁typical	-9661
▁frequency	-9662
▁Regulatory	-9663
▁generating	-9664
▁legitimate	-9665
▁mechanisms	-9666
icts	-9667
▁COM	-9668
▁Tat	-9669
▁Full	-9670
▁lays	-9671
advant	-9672
▁Yusuf	-9673
▁embod	-9674
▁minim	-9675
▁relie	-9676
imental	-9677
▁attach	-9678
▁presum	-9679
▁worksh	-9680
iliation	-9681
▁Digital	-9682
▁Studies	-9683
▁Personal	-9684
▁crossing	-9685
▁painting	-9686
▁residents	-9687
eps	-9688
iat	-9689
▁PL	-9690
▁da	-9691
arer	-9692
riers	-9693
▁jute	-9694
▁camel	-9695
itement	-9696
▁errors	-9697
▁Teacher	-9698
▁affidav	-9699
▁dollars	-9700
▁daughters	-9701
▁imperative	-9702
▁nationalist	-9703
kash	-9704
roph	-9705
term	-9706
▁hol	-9707
▁wet	-9708
▁ears	-9709
▁fate	-9710
▁kids	-9711
▁Exper	-9712
▁boost	-9713
▁cavity	-9714
▁Sections	-9715
▁credited	-9716
▁frequent	-9717
▁Corporate	-9718
▁recovered	-9719
▁restraint	-9720
▁quantities	-9721
▁regulatory	-9722
▁Infrastructure	-9723
ba	-9724
abu	-9725
obi	-9726
olk	-9727
▁GDP	-9728
▁Mall	-9729
▁Audit	-9730
▁cocon	-9731
▁lists	-9732
▁Chaluk	-9733
▁Kittur	-9734
▁Judiciary	-9735
▁conception	-9736
▁endeavours	-9737
bi	-9738
▁Read	-9739
▁pend	-9740
atical	-9741
▁upset	-9742
▁casual	-9743
▁themes	-9744
▁flowing	-9745
▁Projects	-9746
▁criteria	-9747
▁terrible	-9748
▁favourite	-9749
▁Processing	-9750
▁capability	-9751
▁passengers	-9752
▁procedural	-9753
▁substitute	-9754
▁Enterprises	-9755
JEE	-9756
▁GN	-9757
▁ven	-9758
venty	-9759
▁shed	-9760
▁surve	-9761
▁curric	-9762
▁permits	-9763
▁Standing	-9764
▁Wikipedia	-9765
▁inclusion	-9766
▁locations	-9767
▁testimony	-9768
▁controlling	-9769
▁administered	-9770
▁characterized	-9771
▁Ho	-9772
Tube	-9773
abil	-9774
udra	-9775
▁Gar	-9776
▁RTI	-9777
▁forb	-9778
▁grade	-9779
▁tiger	-9780
▁Estate	-9781
▁Shakti	-9782
▁advise	-9783
▁inspire	-9784
▁outward	-9785
▁tribute	-9786
unciation	-9787
▁subtract	-9788
▁treasure	-9789
▁Governors	-9790
▁assignment	-9791
▁complement	-9792
▁continuously	-9793
ATES	-9794
zing	-9795
▁PDF	-9796
illary	-9797
▁hopes	-9798
▁midst	-9799
▁worst	-9800
▁Choose	-9801
▁Period	-9802
▁coffee	-9803
▁fallen	-9804
▁traged	-9805
▁Command	-9806
▁critics	-9807
▁undergo	-9808
▁minerals	-9809
▁validity	-9810
▁variable	-9811
▁Singapore	-9812
▁TH	-9813
anic	-9814
▁ISO	-9815
▁lod	-9816
▁sar	-9817
oresh	-9818
▁Rich	-9819
▁Birth	-9820
▁Griev	-9821
▁Model	-9822
▁Staff	-9823
▁Branch	-9824
▁compos	-9825
▁crafts	-9826
▁instinct	-9827
▁mortgage	-9828
▁scenario	-9829
▁Arunachal	-9830
▁vexatious	-9831
▁describing	-9832
▁philosopher	-9833
▁inflammation	-9834
▁Ba	-9835
▁Bre	-9836
ontal	-9837
▁Real	-9838
▁alph	-9839
▁diver	-9840
▁label	-9841
▁split	-9842
▁uncon	-9843
▁bitter	-9844
▁rarely	-9845
olutions	-9846
▁Contact	-9847
▁anxious	-9848
▁chamber	-9849
▁chronic	-9850
▁desires	-9851
▁volumes	-9852
▁Festival	-9853
▁Property	-9854
▁respects	-9855
▁contracts	-9856
▁instances	-9857
▁evaluation	-9858
▁Chhattisgarh	-9859
▁negotiations	-9860
idal	-9861
▁Hyd	-9862
▁ray	-9863
▁Decl	-9864
▁Based	-9865
▁Frame	-9866
▁Issue	-9867
▁Radio	-9868
▁Saroj	-9869
▁hindi	-9870
uminous	-9871
▁Amount	-9872
▁Bhagav	-9873
▁Delete	-9874
▁Kanpur	-9875
▁invite	-9876
▁meters	-9877
▁receipts	-9878
▁Allowance	-9879
otechnology	-9880
▁transformed	-9881
eda	-9882
oys	-9883
rot	-9884
gence	-9885
▁fles	-9886
▁Along	-9887
▁dowry	-9888
▁ships	-9889
rection	-9890
▁gender	-9891
▁upgrade	-9892
▁explains	-9893
▁invested	-9894
▁disadvant	-9895
▁factories	-9896
▁scientist	-9897
▁classified	-9898
▁threatened	-9899
▁satisfactory	-9900
IAN	-9901
awan	-9902
▁LIN	-9903
▁drum	-9904
▁Mater	-9905
▁Paris	-9906
ciences	-9907
▁buying	-9908
▁nomine	-9909
▁descend	-9910
▁artistic	-9911
▁uncertain	-9912
▁Electronics	-9913
▁Ku	-9914
othe	-9915
pled	-9916
▁Poll	-9917
▁merc	-9918
uscript	-9919
version	-9920
▁Clause	-9921
▁lesson	-9922
▁passes	-9923
▁Kannada	-9924
▁heights	-9925
▁leaflet	-9926
▁Building	-9927
▁devotees	-9928
▁predomin	-9929
▁worldwide	-9930
uds	-9931
usha	-9932
▁SEL	-9933
▁SID	-9934
eline	-9935
ringe	-9936
▁Swed	-9937
▁glaci	-9938
▁moist	-9939
▁Appeal	-9940
▁mirror	-9941
▁sample	-9942
▁welcom	-9943
economic	-9944
▁ascetic	-9945
▁conserv	-9946
▁jointly	-9947
▁thereto	-9948
▁taxation	-9949
▁confirmed	-9950
▁enactment	-9951
▁nutrition	-9952
▁advantages	-9953
▁biological	-9954
▁associations	-9955
MA	-9956
oub	-9957
anti	-9958
inar	-9959
▁HIV	-9960
▁soph	-9961
▁Activ	-9962
▁Prabh	-9963
▁cards	-9964
▁tries	-9965
ductive	-9966
▁interc	-9967
▁jewell	-9968
▁propri	-9969
▁abstract	-9970
▁controls	-9971
▁interact	-9972
▁ministry	-9973
▁moderate	-9974
▁unnecess	-9975
▁advertise	-9976
▁confusion	-9977
▁deficiency	-9978
▁empowerment	-9979
▁entrepreneur	-9980
BS	-9981
gon	-9982
ims	-9983
ajan	-9984
ella	-9985
gged	-9986
mind	-9987
▁Gas	-9988
▁Hum	-9989
▁Mys	-9990
▁Pop	-9991
ubilee	-9992
▁Prior	-9993
▁grows	-9994
▁mobil	-9995
▁rupee	-9996
urement	-9997
▁Object	-9998
▁misbeh	-9999
▁picked	-10000
▁Nicobar	-10001
▁YouTube	-10002
▁corrupt	-10003
▁insured	-10004
▁worried	-10005
▁receives	-10006
▁paintings	-10007
▁teachings	-10008
▁authorized	-10009
▁compromise	-10010
▁Examination	-10011
IAL	-10012
kin	-10013
▁sq	-10014
more	-10015
nath	-10016
▁MUK	-10017
▁Very	-10018
▁cure	-10019
▁maid	-10020
▁Cross	-10021
▁Front	-10022
▁ineff	-10023
▁ignore	-10024
▁retail	-10025
▁Systems	-10026
▁artists	-10027
▁targets	-10028
▁everyday	-10029
▁intimate	-10030
▁stronger	-10031
▁Community	-10032
▁Provision	-10033
▁Resources	-10034
▁Panchayats	-10035
▁perception	-10036
eta	-10037
▁vo	-10038
asts	-10039
imet	-10040
▁Miz	-10041
▁Sha	-10042
▁ram	-10043
ercul	-10044
opard	-10045
▁erad	-10046
▁overw	-10047
▁Rajput	-10048
▁Sultan	-10049
▁Payment	-10050
▁lasting	-10051
▁torture	-10052
▁emotions	-10053
▁exposure	-10054
▁goodwill	-10055
▁promoted	-10056
▁apprehens	-10057
▁attempted	-10058
▁directors	-10059
▁Chandigarh	-10060
▁committees	-10061
▁comparison	-10062
▁parameters	-10063
▁sentiments	-10064
▁Consultation	-10065
▁connectivity	-10066
▁disabilities	-10067
OST	-10068
hik	-10069
▁dw	-10070
fect	-10071
vals	-10072
▁Mas	-10073
pread	-10074
▁Pars	-10075
▁ease	-10076
▁keys	-10077
▁push	-10078
▁rand	-10079
▁Incre	-10080
▁Oriya	-10081
▁waves	-10082
▁buffal	-10083
▁injust	-10084
▁comprises	-10085
▁departure	-10086
▁intensive	-10087
▁reporting	-10088
▁fertilizers	-10089
▁substantive	-10090
▁participated	-10091
▁tun	-10092
andum	-10093
vance	-10094
▁Auto	-10095
▁Desh	-10096
▁jack	-10097
HERJEE	-10098
arkhand	-10099
▁absent	-10100
▁confer	-10101
▁define	-10102
▁lowest	-10103
▁talked	-10104
▁offline	-10105
▁virtual	-10106
▁doctrine	-10107
▁magnific	-10108
▁resolved	-10109
▁surgical	-10110
▁welcomed	-10111
▁MUKHERJEE	-10112
▁vulnerable	-10113
▁intelligent	-10114
nty	-10115
iyar	-10116
▁Bod	-10117
▁Kur	-10118
▁cel	-10119
▁dir	-10120
▁fro	-10121
unath	-10122
▁Cond	-10123
▁Sure	-10124
▁ausp	-10125
▁brah	-10126
▁enqu	-10127
▁suck	-10128
▁trig	-10129
▁calam	-10130
▁embry	-10131
▁pests	-10132
regular	-10133
▁purely	-10134
▁designs	-10135
▁traders	-10136
▁promised	-10137
▁impartial	-10138
▁listening	-10139
▁returning	-10140
▁Literature	-10141
abs	-10142
aga	-10143
▁nit	-10144
▁Edit	-10145
▁Sach	-10146
akhand	-10147
▁digit	-10148
▁dimin	-10149
▁grate	-10150
▁relax	-10151
▁Mysore	-10152
▁argued	-10153
▁detect	-10154
▁Certain	-10155
▁existed	-10156
▁mutually	-10157
▁preference	-10158
ky	-10159
ANG	-10160
▁RA	-10161
▁Ori	-10162
▁Unt	-10163
▁jun	-10164
agari	-10165
▁Camb	-10166
▁smoke	-10167
▁surpl	-10168
▁astron	-10169
▁filter	-10170
▁borrower	-10171
▁defeated	-10172
▁excluded	-10173
▁electoral	-10174
▁expanding	-10175
▁publicity	-10176
▁headquarters	-10177
agu	-10178
ifer	-10179
onia	-10180
▁eman	-10181
ioxide	-10182
▁Peace	-10183
istical	-10184
▁Tripura	-10185
▁revival	-10186
▁wearing	-10187
▁Councils	-10188
▁lectures	-10189
▁survival	-10190
▁visitors	-10191
▁aesthetic	-10192
▁medicinal	-10193
▁definitely	-10194
▁laboratory	-10195
▁Implementation	-10196
arus	-10197
innah	-10198
▁Dhan	-10199
▁apex	-10200
utical	-10201
▁Preet	-10202
▁hards	-10203
▁owing	-10204
▁honest	-10205
▁random	-10206
▁Gandhar	-10207
▁Indones	-10208
▁Journal	-10209
▁capture	-10210
▁colours	-10211
▁Sarojini	-10212
▁dominant	-10213
▁Democratic	-10214
▁privileges	-10215
▁Cooperative	-10216
▁classification	-10217
vy	-10218
ICE	-10219
win	-10220
▁Ut	-10221
▁cm	-10222
itic	-10223
omas	-10224
▁Nok	-10225
▁Sit	-10226
▁mud	-10227
▁ske	-10228
icked	-10229
ignty	-10230
▁batt	-10231
▁deed	-10232
▁jung	-10233
▁tone	-10234
▁dwell	-10235
▁liver	-10236
▁mouse	-10237
▁Summit	-10238
▁viable	-10239
▁discont	-10240
▁landlord	-10241
▁Collector	-10242
▁breathing	-10243
▁interfere	-10244
▁narrative	-10245
▁Vivekananda	-10246
▁congratulated	-10247
▁accountability	-10248
ki	-10249
rus	-10250
apati	-10251
ceans	-10252
orted	-10253
▁Bagh	-10254
▁Film	-10255
▁impe	-10256
▁rocks	-10257
▁tired	-10258
reshold	-10259
▁Govind	-10260
▁illiter	-10261
▁shifted	-10262
▁absorbed	-10263
▁equipped	-10264
▁opinions	-10265
▁justified	-10266
fortunately	-10267
▁Assistance	-10268
▁Federation	-10269
TE	-10270
▁Fa	-10271
▁Had	-10272
▁tob	-10273
marks	-10274
▁Does	-10275
▁Math	-10276
▁Would	-10277
▁nutri	-10278
▁quote	-10279
▁Poresh	-10280
▁coastal	-10281
▁explore	-10282
▁ranging	-10283
▁airports	-10284
▁overwhel	-10285
▁celebrate	-10286
▁implications	-10287
▁relationships	-10288
do	-10289
▁XX	-10290
etus	-10291
iest	-10292
oria	-10293
vati	-10294
▁Maul	-10295
▁User	-10296
▁coin	-10297
intend	-10298
rained	-10299
▁modes	-10300
▁proxy	-10301
▁urine	-10302
▁incons	-10303
▁sphere	-10304
▁wooden	-10305
▁borders	-10306
▁poultry	-10307
▁pursuit	-10308
▁tragedy	-10309
▁Tribunals	-10310
▁advocates	-10311
▁requiring	-10312
▁sovereign	-10313
▁Settlement	-10314
▁pilgrimage	-10315
▁dissolution	-10316
▁practically	-10317
eem	-10318
uct	-10319
brid	-10320
ECTED	-10321
oning	-10322
▁Decc	-10323
▁Mary	-10324
▁Mich	-10325
▁Medic	-10326
▁decay	-10327
▁Jinnah	-10328
▁manual	-10329
▁subtle	-10330
▁instant	-10331
▁neglect	-10332
▁Brahmins	-10333
▁isolated	-10334
▁reliable	-10335
▁arbitrator	-10336
▁boundaries	-10337
▁exceptional	-10338
hin	-10339
▁Py	-10340
rose	-10341
▁Wel	-10342
TIONS	-10343
▁anth	-10344
▁vice	-10345
vation	-10346
assador	-10347
▁contra	-10348
▁enters	-10349
▁endorse	-10350
▁thereon	-10351
▁sciences	-10352
▁inaugurate	-10353
▁scholarship	-10354
▁unfortunate	-10355
▁considerations	-10356
ARY	-10357
▁gn	-10358
fast	-10359
rium	-10360
▁Imm	-10361
▁Upd	-10362
roots	-10363
water	-10364
▁Puri	-10365
ulator	-10366
▁Prize	-10367
▁Verma	-10368
▁Castes	-10369
▁ranges	-10370
▁inspect	-10371
▁lessons	-10372
▁rituals	-10373
aceutical	-10374
▁graduate	-10375
▁mistakes	-10376
▁pleasant	-10377
▁supplies	-10378
▁Inspector	-10379
▁engineers	-10380
▁Production	-10381
▁manuscript	-10382
▁constructive	-10383
▁Unfortunately	-10384
olf	-10385
rup	-10386
▁mm	-10387
iven	-10388
alled	-10389
▁Baba	-10390
▁Init	-10391
▁cant	-10392
▁peas	-10393
▁quad	-10394
▁Armed	-10395
▁Guard	-10396
▁Impro	-10397
▁urged	-10398
holding	-10399
ropical	-10400
▁carved	-10401
▁plenty	-10402
▁painful	-10403
▁Advisory	-10404
▁Establish	-10405
▁impressed	-10406
▁reception	-10407
▁businesses	-10408
▁compliment	-10409
▁imposition	-10410
▁correspondence	-10411
Is	-10412
OME	-10413
fly	-10414
kha	-10415
rass	-10416
rics	-10417
▁nin	-10418
▁Moon	-10419
▁Priy	-10420
▁lots	-10421
ivided	-10422
▁Ghosh	-10423
▁artic	-10424
▁affirm	-10425
▁cement	-10426
▁denial	-10427
▁Maximum	-10428
▁Various	-10429
▁edition	-10430
▁magazine	-10431
▁Ahmedabad	-10432
▁literally	-10433
▁occurring	-10434
▁systematic	-10435
▁Uttarakhand	-10436
EA	-10437
▁Vr	-10438
▁Occ	-10439
anand	-10440
arted	-10441
▁zeal	-10442
arshan	-10443
▁Stock	-10444
▁globe	-10445
▁lover	-10446
▁rains	-10447
▁aftern	-10448
▁legacy	-10449
▁marine	-10450
▁insight	-10451
▁imposing	-10452
▁investor	-10453
▁respected	-10454
▁somewhere	-10455
▁Guidelines	-10456
▁celebrations	-10457
▁depreciation	-10458
udh	-10459
zil	-10460
▁DV	-10461
▁Mc	-10462
▁OR	-10463
▁Ask	-10464
▁Gop	-10465
anned	-10466
isans	-10467
▁Left	-10468
▁NGOs	-10469
▁Sand	-10470
▁ware	-10471
▁Roman	-10472
▁merits	-10473
▁Connect	-10474
▁battery	-10475
▁grammar	-10476
▁Nagaland	-10477
▁applying	-10478
▁honoured	-10479
▁injustice	-10480
▁sponsored	-10481
▁apparently	-10482
▁acknowledge	-10483
▁denominator	-10484
▁supervision	-10485
▁participating	-10486
GP	-10487
▁AL	-10488
juna	-10489
orph	-10490
▁Mic	-10491
▁Send	-10492
▁pupp	-10493
leness	-10494
▁accur	-10495
▁dates	-10496
▁smell	-10497
▁Church	-10498
▁Jaipur	-10499
▁senses	-10500
▁Offices	-10501
▁Relations	-10502
▁presently	-10503
▁prevented	-10504
RU	-10505
cho	-10506
uan	-10507
▁Dhar	-10508
▁murd	-10509
▁uphe	-10510
venues	-10511
▁Claim	-10512
▁annum	-10513
▁cough	-10514
▁Aurang	-10515
▁kidney	-10516
▁signature	-10517
▁Thereafter	-10518
▁dimensions	-10519
▁popularity	-10520
▁thoroughly	-10521
▁advancement	-10522
▁possibilities	-10523
iban	-10524
▁AID	-10525
▁Deep	-10526
▁grav	-10527
▁puts	-10528
▁canal	-10529
▁haven	-10530
▁ninet	-10531
▁ranks	-10532
▁Higher	-10533
▁pollut	-10534
▁stores	-10535
▁transf	-10536
▁trends	-10537
▁Nanalal	-10538
▁commend	-10539
▁tobacco	-10540
▁glorious	-10541
▁ideology	-10542
▁obstruct	-10543
▁Resolution	-10544
▁Regulations	-10545
PCL	-10546
kay	-10547
▁CC	-10548
▁१७	-10549
pass	-10550
▁Cro	-10551
▁Neg	-10552
▁gaz	-10553
acter	-10554
▁bask	-10555
▁bore	-10556
▁deer	-10557
teenth	-10558
▁champ	-10559
▁firms	-10560
▁votes	-10561
ursement	-10562
▁damages	-10563
▁nursing	-10564
idespread	-10565
▁Partners	-10566
▁findings	-10567
▁continent	-10568
▁sentences	-10569
▁suspended	-10570
▁reservation	-10571
DM	-10572
IME	-10573
▁Je	-10574
ATED	-10575
aryn	-10576
▁Sab	-10577
▁Vas	-10578
owing	-10579
ployed	-10580
utable	-10581
▁Eight	-10582
▁sperm	-10583
▁blocks	-10584
▁horses	-10585
▁lights	-10586
▁sensit	-10587
▁worthy	-10588
▁Hanuman	-10589
▁Remember	-10590
▁measured	-10591
▁Petroleum	-10592
▁Socialist	-10593
▁disturbed	-10594
▁requisite	-10595
▁gh	-10596
▁Pul	-10597
▁hub	-10598
▁ric	-10599
▁umb	-10600
ieval	-10601
▁Mong	-10602
▁hier	-10603
▁reck	-10604
ealand	-10605
▁Image	-10606
▁Nokia	-10607
▁coins	-10608
▁monop	-10609
▁Deccan	-10610
▁Narmad	-10611
▁larvae	-10612
▁Vietnam	-10613
▁coconut	-10614
▁ethical	-10615
▁declined	-10616
▁militant	-10617
▁vertical	-10618
▁Automatic	-10619
▁afternoon	-10620
▁particles	-10621
▁purchased	-10622
▁realistic	-10623
▁secretary	-10624
▁Principles	-10625
▁strategies	-10626
▁travelling	-10627
organisation	-10628
▁sovereignty	-10629
▁acknowledged	-10630
▁laboratories	-10631
▁qualifications	-10632
URE	-10633
otee	-10634
▁Age	-10635
▁Tre	-10636
tered	-10637
▁PRAN	-10638
▁Till	-10639
▁amid	-10640
▁gang	-10641
▁onto	-10642
▁unsu	-10643
▁Bhatt	-10644
▁honor	-10645
▁lotus	-10646
▁stret	-10647
▁unfair	-10648
▁vessel	-10649
▁walked	-10650
▁contest	-10651
erculosis	-10652
▁Progress	-10653
▁refugees	-10654
▁removing	-10655
▁telecomm	-10656
▁emergence	-10657
▁Programmes	-10658
▁underlying	-10659
▁Cooperation	-10660
TA	-10661
▁Ran	-10662
olent	-10663
▁Mant	-10664
▁Rang	-10665
▁rope	-10666
▁wars	-10667
ensing	-10668
▁Mahav	-10669
▁eager	-10670
▁embar	-10671
▁pledge	-10672
▁steady	-10673
▁strive	-10674
▁Customs	-10675
▁Schemes	-10676
▁captured	-10677
▁distress	-10678
▁scrutiny	-10679
▁guaranteed	-10680
▁circulation	-10681
haz	-10682
▁Fe	-10683
▁Gal	-10684
alian	-10685
igned	-10686
▁lion	-10687
onents	-10688
▁Compl	-10689
▁liked	-10690
▁dioxide	-10691
▁reaches	-10692
▁startup	-10693
endranath	-10694
▁travelled	-10695
▁reflection	-10696
HI	-10697
ito	-10698
itz	-10699
osph	-10700
▁fer	-10701
lings	-10702
itious	-10703
▁Syria	-10704
▁cadre	-10705
▁ceased	-10706
▁comply	-10707
▁repeat	-10708
▁rightly	-10709
▁Himalaya	-10710
▁earnings	-10711
▁shortage	-10712
▁abolition	-10713
▁conspiracy	-10714
▁ordinarily	-10715
▁verification	-10716
ori	-10717
anqu	-10718
five	-10719
▁lep	-10720
▁nic	-10721
amble	-10722
▁Dutt	-10723
▁Unic	-10724
▁gran	-10725
▁tang	-10726
▁wasn	-10727
ilance	-10728
▁Vijay	-10729
▁deeds	-10730
▁grief	-10731
▁lymph	-10732
▁queen	-10733
▁trium	-10734
▁babies	-10735
▁indian	-10736
▁infant	-10737
▁mighty	-10738
umerable	-10739
▁Reforms	-10740
▁kitchen	-10741
▁reverse	-10742
▁shrines	-10743
▁producer	-10744
▁enjoyment	-10745
▁grievance	-10746
▁irregular	-10747
▁labourers	-10748
▁relevance	-10749
▁linguistic	-10750
▁widespread	-10751
bo	-10752
▁DR	-10753
▁OS	-10754
▁UP	-10755
▁VA	-10756
babu	-10757
soft	-10758
▁Bez	-10759
▁Ver	-10760
▁ups	-10761
pring	-10762
▁Come	-10763
▁Pant	-10764
▁butt	-10765
▁dread	-10766
▁bodily	-10767
▁cosmic	-10768
▁regret	-10769
▁speaks	-10770
▁beloved	-10771
▁accorded	-10772
▁delicate	-10773
▁Mauritius	-10774
▁surprised	-10775
▁Monitoring	-10776
▁impressive	-10777
▁surprising	-10778
▁certificates	-10779
ii	-10780
▁NC	-10781
ball	-10782
oler	-10783
▁Tea	-10784
avati	-10785
payee	-10786
▁Sudd	-10787
▁Large	-10788
▁angle	-10789
ipation	-10790
▁Sports	-10791
▁tenure	-10792
▁Mizoram	-10793
▁compens	-10794
▁founder	-10795
▁sisters	-10796
▁superst	-10797
▁conclude	-10798
▁deciding	-10799
▁infected	-10800
▁kilogram	-10801
▁spending	-10802
▁accepting	-10803
▁correctly	-10804
▁Australian	-10805
▁diplomatic	-10806
▁disappoint	-10807
▁fulfilment	-10808
▁safeguards	-10809
▁variations	-10810
▁Arbitration	-10811
LA	-10812
▁BO	-10813
▁pa	-10814
▁Ast	-10815
▁CALL	-10816
▁Veda	-10817
▁Early	-10818
▁drain	-10819
▁meets	-10820
▁spont	-10821
▁copper	-10822
▁fiscal	-10823
appropri	-10824
▁density	-10825
▁earning	-10826
▁oneness	-10827
▁seventy	-10828
▁surplus	-10829
▁strictly	-10830
▁Meanwhile	-10831
▁decorated	-10832
▁disappear	-10833
▁jewellery	-10834
▁pursuance	-10835
▁attraction	-10836
▁territorial	-10837
▁utilization	-10838
▁disciplinary	-10839
aki	-10840
okes	-10841
▁imb	-10842
▁pix	-10843
▁sty	-10844
▁IRDA	-10845
▁awak	-10846
▁guest	-10847
▁veter	-10848
▁Excise	-10849
▁Sarasw	-10850
▁Street	-10851
▁Yamuna	-10852
▁infect	-10853
▁powder	-10854
▁divorce	-10855
▁prayers	-10856
▁reflects	-10857
▁verified	-10858
▁creatures	-10859
▁socialism	-10860
▁comfortable	-10861
andi	-10862
appy	-10863
flow	-10864
iate	-10865
▁Hot	-10866
▁Put	-10867
▁AIDS	-10868
▁Dise	-10869
▁swim	-10870
▁James	-10871
▁Manik	-10872
▁molec	-10873
▁spots	-10874
▁sulph	-10875
▁ticket	-10876
▁cabinet	-10877
▁crossed	-10878
▁devotee	-10879
▁holders	-10880
▁hostile	-10881
▁passive	-10882
▁quantum	-10883
▁somehow	-10884
▁peripher	-10885
▁Jharkhand	-10886
▁valuation	-10887
▁adjustment	-10888
▁favourable	-10889
▁prohibited	-10890
▁Convocation	-10891
▁governmental	-10892
WA	-10893
▁q	-10894
hew	-10895
rix	-10896
▁PP	-10897
appe	-10898
greg	-10899
▁muc	-10900
▁Gaza	-10901
erated	-10902
▁Youth	-10903
▁smile	-10904
▁Brahmo	-10905
▁Safety	-10906
▁Thomas	-10907
▁mosque	-10908
▁oceans	-10909
▁relate	-10910
▁seized	-10911
▁Perform	-10912
▁filling	-10913
▁joining	-10914
▁Vajpayee	-10915
▁sessions	-10916
▁Advocates	-10917
▁Extension	-10918
▁sentiment	-10919
▁transition	-10920
▁appointments	-10921
gic	-10922
kara	-10923
▁Kat	-10924
▁Mis	-10925
▁Pow	-10926
▁Squ	-10927
▁ard	-10928
▁pin	-10929
inath	-10930
▁Navy	-10931
▁lone	-10932
▁prin	-10933
eshwar	-10934
▁BIHAR	-10935
▁alike	-10936
▁incomp	-10937
▁makers	-10938
▁centers	-10939
▁damaged	-10940
▁inhabit	-10941
▁unusual	-10942
▁warming	-10943
▁insisted	-10944
▁interven	-10945
▁Emergency	-10946
▁socialist	-10947
▁autonomous	-10948
▁unexpected	-10949
▁economically	-10950
▁expectations	-10951
▁manufacturers	-10952
anz	-10953
mas	-10954
rious	-10955
▁alia	-10956
▁gene	-10957
▁Value	-10958
▁dying	-10959
▁excav	-10960
▁invent	-10961
▁minded	-10962
▁Sankara	-10963
▁gardens	-10964
▁deprived	-10965
▁fourteen	-10966
▁Premchand	-10967
▁accidents	-10968
▁agitation	-10969
▁delighted	-10970
▁identical	-10971
▁cultivated	-10972
▁meaningful	-10973
▁permanently	-10974
untu	-10975
▁Mut	-10976
▁Try	-10977
▁hem	-10978
inous	-10979
ropol	-10980
▁LINK	-10981
▁Miss	-10982
▁amen	-10983
▁cock	-10984
▁Color	-10985
▁lakes	-10986
▁tales	-10987
▁Config	-10988
▁Notice	-10989
▁analys	-10990
▁defect	-10991
▁racial	-10992
▁Message	-10993
▁auction	-10994
▁restore	-10995
▁Highness	-10996
▁Sciences	-10997
▁boundary	-10998
▁prestige	-10999
▁Microsoft	-11000
▁professor	-11001
▁conscience	-11002
▁physically	-11003
▁publishing	-11004
▁structural	-11005
▁demonstrated	-11006
agg	-11007
▁MC	-11008
▁FDI	-11009
indra	-11010
▁Subs	-11011
▁bits	-11012
arding	-11013
▁Ahmad	-11014
▁foster	-11015
▁marble	-11016
▁ninety	-11017
▁solved	-11018
▁weekly	-11019
ographer	-11020
▁Zealand	-11021
▁peasant	-11022
▁readily	-11023
▁confront	-11024
▁founding	-11025
▁disciples	-11026
▁approached	-11027
▁influences	-11028
▁invitation	-11029
▁neighbours	-11030
▁sculptures	-11031
▁translations	-11032
opy	-11033
ctor	-11034
ifier	-11035
▁crim	-11036
▁impr	-11037
▁sung	-11038
▁Maybe	-11039
▁Meher	-11040
▁Nobel	-11041
▁dense	-11042
▁nemat	-11043
▁shame	-11044
▁PRANAB	-11045
▁Remote	-11046
▁Lakshmi	-11047
▁Present	-11048
▁Primary	-11049
▁Station	-11050
▁ceiling	-11051
▁females	-11052
▁harness	-11053
▁vibrant	-11054
▁securing	-11055
▁Champions	-11056
▁Generally	-11057
▁Universal	-11058
▁greatness	-11059
▁Institutes	-11060
▁scriptures	-11061
▁realization	-11062
GR	-11063
TR	-11064
pus	-11065
▁Ep	-11066
idas	-11067
▁jaw	-11068
isive	-11069
▁cher	-11070
▁coat	-11071
▁desc	-11072
ishers	-11073
▁Chann	-11074
▁Pipes	-11075
▁capac	-11076
▁manip	-11077
▁score	-11078
▁sorry	-11079
▁verte	-11080
▁warri	-11081
▁Always	-11082
▁Ananda	-11083
▁Wealth	-11084
▁revolt	-11085
▁Amritsar	-11086
▁Chemical	-11087
▁segments	-11088
▁disclosed	-11089
▁processed	-11090
▁sanitation	-11091
▁electronics	-11092
▁accomplished	-11093
ORE	-11094
▁il	-11095
▁DAC	-11096
adian	-11097
ersed	-11098
never	-11099
ocity	-11100
▁fame	-11101
▁harb	-11102
▁hate	-11103
▁wand	-11104
▁acres	-11105
▁admire	-11106
▁exempl	-11107
▁humour	-11108
▁seller	-11109
▁weaker	-11110
▁Forward	-11111
▁Goddess	-11112
▁corners	-11113
▁fulfill	-11114
▁seventh	-11115
▁tension	-11116
▁immortal	-11117
▁improper	-11118
▁operated	-11119
▁Democracy	-11120
▁Marketing	-11121
▁exclusion	-11122
▁subsidiary	-11123
▁worshipped	-11124
▁politicians	-11125
▁practitioner	-11126
▁manifestation	-11127
Ind	-11128
raf	-11129
yam	-11130
▁Bij	-11131
▁Den	-11132
▁Dra	-11133
▁Hol	-11134
▁Kaz	-11135
▁Naw	-11136
▁Sym	-11137
▁Hill	-11138
▁hole	-11139
▁worn	-11140
▁Leban	-11141
▁resid	-11142
▁spray	-11143
▁unpre	-11144
▁colors	-11145
▁revers	-11146
▁throat	-11147
▁unanim	-11148
▁closing	-11149
▁staying	-11150
▁Gandharva	-11151
▁Provinces	-11152
▁assurance	-11153
▁transcend	-11154
▁intercourse	-11155
▁restriction	-11156
▁manufactured	-11157
▁neighbouring	-11158
bat	-11159
cket	-11160
stru	-11161
▁Bay	-11162
▁Jad	-11163
▁Mos	-11164
aders	-11165
arshi	-11166
▁curs	-11167
▁quot	-11168
▁tune	-11169
mother	-11170
olence	-11171
oubted	-11172
▁Annex	-11173
▁SIDBI	-11174
▁Saint	-11175
▁erect	-11176
▁overr	-11177
▁procl	-11178
▁Folder	-11179
▁Krishn	-11180
▁Portug	-11181
▁tested	-11182
▁throne	-11183
appeared	-11184
▁assault	-11185
▁dropped	-11186
▁leather	-11187
▁signals	-11188
▁symbols	-11189
▁triumph	-11190
▁Whenever	-11191
▁immunity	-11192
▁spectrum	-11193
▁Vaishnava	-11194
▁intestine	-11195
▁preserved	-11196
▁sentenced	-11197
▁Presidency	-11198
▁earthquake	-11199
▁appreciated	-11200
▁collections	-11201
▁permissible	-11202
uis	-11203
aine	-11204
yard	-11205
▁Teh	-11206
▁lin	-11207
arama	-11208
erves	-11209
uated	-11210
▁Host	-11211
▁Mexic	-11212
▁cable	-11213
iliated	-11214
▁Remove	-11215
▁invari	-11216
▁mystic	-11217
▁robust	-11218
▁sevent	-11219
▁varies	-11220
▁wicket	-11221
▁Belarus	-11222
ciliation	-11223
▁Comments	-11224
▁Hospital	-11225
▁SELECTED	-11226
▁quarters	-11227
▁passenger	-11228
▁possessed	-11229
▁misconduct	-11230
▁complainant	-11231
▁introducing	-11232
▁utilisation	-11233
bled	-11234
▁Nas	-11235
▁Syn	-11236
▁Was	-11237
▁gram	-11238
▁trip	-11239
alinga	-11240
▁assim	-11241
▁frank	-11242
▁hydro	-11243
▁jihad	-11244
▁overt	-11245
▁steam	-11246
▁tenth	-11247
▁intens	-11248
▁saints	-11249
▁Culture	-11250
▁emperor	-11251
▁Consolid	-11252
▁Portugues	-11253
▁condemned	-11254
▁producers	-11255
▁afterwards	-11256
▁disclosure	-11257
▁specialized	-11258
di	-11259
ayya	-11260
emia	-11261
eros	-11262
idth	-11263
▁Cam	-11264
▁Rub	-11265
▁Tim	-11266
field	-11267
scape	-11268
state	-11269
▁spark	-11270
lements	-11271
▁County	-11272
▁cinema	-11273
▁hazard	-11274
▁Machine	-11275
▁checked	-11276
▁issuing	-11277
▁predict	-11278
▁quarrel	-11279
eneration	-11280
▁assisted	-11281
▁decrease	-11282
▁reviewed	-11283
▁wildlife	-11284
▁adventure	-11285
▁arbitrary	-11286
▁municipal	-11287
▁undivided	-11288
▁exceptions	-11289
▁pesticides	-11290
▁Declaration	-11291
▁constitutes	-11292
▁expressions	-11293
▁unconscious	-11294
eph	-11295
oea	-11296
▁ow	-11297
▁pp	-11298
cive	-11299
nage	-11300
graph	-11301
itime	-11302
ounce	-11303
▁epid	-11304
asagar	-11305
hatkar	-11306
▁Varma	-11307
▁flesh	-11308
▁inequ	-11309
▁panch	-11310
▁poore	-11311
▁sixth	-11312
▁motive	-11313
▁rubber	-11314
▁Tourism	-11315
▁ensured	-11316
▁threats	-11317
izational	-11318
▁Jagannatha	-11319
▁allowances	-11320
▁chromosomes	-11321
▁measurement	-11322
▁researchers	-11323
▁occasionally	-11324
▁reconstruction	-11325
OD	-11326
aha	-11327
zone	-11328
▁Bag	-11329
▁WOR	-11330
▁nas	-11331
acious	-11332
asaheb	-11333
▁blame	-11334
▁edges	-11335
▁renow	-11336
▁vague	-11337
ghalaya	-11338
▁edited	-11339
▁rhythm	-11340
▁Introdu	-11341
▁defines	-11342
▁mandate	-11343
▁microsc	-11344
▁Southern	-11345
▁confused	-11346
▁Selection	-11347
▁petitions	-11348
▁affordable	-11349
▁grassroots	-11350
▁proposition	-11351
sp	-11352
▁Jat	-11353
▁que	-11354
itles	-11355
▁Body	-11356
▁Srin	-11357
▁bind	-11358
▁guru	-11359
▁pear	-11360
▁tent	-11361
▁arose	-11362
▁batch	-11363
▁essay	-11364
▁dispar	-11365
▁essays	-11366
▁titled	-11367
▁caution	-11368
▁vaccine	-11369
▁alphabet	-11370
▁birthday	-11371
▁medieval	-11372
▁embarrass	-11373
▁regulated	-11374
▁remuneration	-11375
hyd	-11376
AYEE	-11377
ctic	-11378
▁Yog	-11379
▁inh	-11380
▁unm	-11381
aning	-11382
astra	-11383
atisf	-11384
▁ATAL	-11385
▁moth	-11386
▁pref	-11387
▁Vrind	-11388
▁illum	-11389
▁priest	-11390
▁trials	-11391
▁Jubilee	-11392
▁samples	-11393
▁Egyptian	-11394
▁flexible	-11395
▁peasants	-11396
▁Languages	-11397
▁accompany	-11398
▁divisions	-11399
▁vacancies	-11400
▁inadequate	-11401
▁indicating	-11402
▁Consequently	-11403
okh	-11404
sis	-11405
ulc	-11406
▁Ki	-11407
adhy	-11408
plex	-11409
rage	-11410
▁Jes	-11411
▁Sak	-11412
enary	-11413
▁Anti	-11414
▁VAJP	-11415
▁levy	-11416
ersion	-11417
▁Draft	-11418
▁Kalam	-11419
▁aston	-11420
▁displ	-11421
▁Resident	-11422
▁SPEECHES	-11423
▁Template	-11424
▁VAJPAYEE	-11425
▁conveyed	-11426
▁Kolhatkar	-11427
▁Securities	-11428
▁patriotism	-11429
▁PRODUCTNAME	-11430
▁accumulated	-11431
▁concessions	-11432
▁preservation	-11433
ael	-11434
▁DP	-11435
▁EC	-11436
▁Qa	-11437
▁je	-11438
buntu	-11439
opter	-11440
▁Amit	-11441
▁COMM	-11442
▁exit	-11443
▁lift	-11444
▁tens	-11445
abhuti	-11446
rieved	-11447
▁Price	-11448
▁disob	-11449
▁rises	-11450
▁rival	-11451
idation	-11452
▁Demand	-11453
▁layout	-11454
▁notion	-11455
▁strain	-11456
▁suppli	-11457
▁verbal	-11458
iciaries	-11459
isticated	-11460
▁Rajendra	-11461
▁variation	-11462
▁Governorate	-11463
▁interpreted	-11464
▁mathematics	-11465
▁resignation	-11466
▁unnecessary	-11467
▁comparatively	-11468
atal	-11469
last	-11470
▁tip	-11471
▁acre	-11472
▁loud	-11473
▁arrow	-11474
▁bless	-11475
▁chose	-11476
emption	-11477
▁Brazil	-11478
▁Ganesh	-11479
▁breeds	-11480
▁hungry	-11481
▁skelet	-11482
▁worlds	-11483
▁Purusha	-11484
▁Respond	-11485
▁Website	-11486
▁textile	-11487
▁Philosop	-11488
▁associate	-11489
▁exemption	-11490
▁perfectly	-11491
▁indication	-11492
▁innovators	-11493
▁prosperous	-11494
eor	-11495
▁Ud	-11496
▁WH	-11497
amma	-11498
arna	-11499
▁ICC	-11500
▁Lin	-11501
▁Opp	-11502
▁rum	-11503
arded	-11504
▁Need	-11505
▁Saha	-11506
▁adap	-11507
▁Given	-11508
▁Italy	-11509
▁nodal	-11510
▁hereby	-11511
▁uterus	-11512
▁valued	-11513
▁Finland	-11514
▁framing	-11515
▁holiday	-11516
▁inherit	-11517
▁injuries	-11518
▁shoulders	-11519
▁attendance	-11520
▁Electricity	-11521
▁enlightened	-11522
▁termination	-11523
▁facilitating	-11524
▁na	-11525
cane	-11526
iser	-11527
loom	-11528
nals	-11529
rait	-11530
worm	-11531
▁Gir	-11532
▁Pap	-11533
▁urg	-11534
heres	-11535
▁Conc	-11536
▁Final	-11537
▁Funds	-11538
▁Leave	-11539
▁Still	-11540
▁Study	-11541
▁dairy	-11542
▁postp	-11543
▁Ravana	-11544
▁topics	-11545
▁vagina	-11546
▁handled	-11547
▁smoking	-11548
▁abandoned	-11549
▁eliminate	-11550
▁mentality	-11551
▁threshold	-11552
▁meditation	-11553
▁minorities	-11554
▁orientation	-11555
▁misbehaviour	-11556
xx	-11557
ias	-11558
arse	-11559
lymp	-11560
mail	-11561
▁Bol	-11562
▁Niz	-11563
▁sap	-11564
acent	-11565
▁Gate	-11566
▁Sadd	-11567
▁boot	-11568
▁Crown	-11569
▁Desai	-11570
▁Ganes	-11571
▁Purch	-11572
▁creed	-11573
▁delta	-11574
▁Bezbar	-11575
▁Return	-11576
▁module	-11577
iability	-11578
ithmetic	-11579
oubtedly	-11580
▁seizure	-11581
▁Meghalaya	-11582
▁Statement	-11583
▁repayment	-11584
▁Portuguese	-11585
▁administer	-11586
▁convenient	-11587
▁equipments	-11588
▁disappeared	-11589
▁identifying	-11590
▁civilisation	-11591
ASS	-11592
▁Pu	-11593
ENTS	-11594
amba	-11595
▁Kum	-11596
▁REC	-11597
▁Suk	-11598
▁thy	-11599
▁Ragh	-11600
▁cows	-11601
▁fare	-11602
soever	-11603
urious	-11604
▁Farid	-11605
▁Iraqi	-11606
▁Maint	-11607
▁Olymp	-11608
▁supra	-11609
▁teams	-11610
▁tempt	-11611
itaries	-11612
▁BIHARI	-11613
▁digest	-11614
▁intent	-11615
▁losing	-11616
▁Between	-11617
▁Prakrit	-11618
▁clients	-11619
▁hanging	-11620
▁legally	-11621
▁deterior	-11622
▁grateful	-11623
▁Different	-11624
▁conflicts	-11625
▁practised	-11626
▁regulating	-11627
▁communicate	-11628
raj	-11629
adas	-11630
rell	-11631
▁ATM	-11632
▁Nal	-11633
▁UTs	-11634
▁bom	-11635
▁Nare	-11636
▁feas	-11637
▁grey	-11638
▁nour	-11639
▁stir	-11640
▁Bhagw	-11641
▁Latin	-11642
▁Surya	-11643
▁annex	-11644
▁males	-11645
▁prize	-11646
▁vivid	-11647
▁Compet	-11648
▁assent	-11649
▁culmin	-11650
▁superf	-11651
▁Country	-11652
▁airport	-11653
▁Religion	-11654
▁ignorant	-11655
▁patience	-11656
▁abolished	-11657
▁equitable	-11658
▁forgotten	-11659
▁occurrence	-11660
▁preventing	-11661
▁propaganda	-11662
▁Communication	-11663
ROM	-11664
aver	-11665
cium	-11666
itta	-11667
izer	-11668
seud	-11669
udal	-11670
urna	-11671
▁Cli	-11672
▁eco	-11673
▁wip	-11674
▁cycl	-11675
▁dawn	-11676
▁ours	-11677
▁sums	-11678
▁Burma	-11679
▁Rober	-11680
▁fatal	-11681
▁gifts	-11682
▁scenes	-11683
▁wished	-11684
▁Acharya	-11685
▁delayed	-11686
▁percept	-11687
▁Assamese	-11688
▁striking	-11689
▁treating	-11690
▁Ramalinga	-11691
▁prospects	-11692
▁Nevertheless	-11693
olu	-11694
iler	-11695
▁Dog	-11696
▁Hom	-11697
▁Pot	-11698
▁Van	-11699
▁bid	-11700
▁gal	-11701
asury	-11702
haran	-11703
iries	-11704
▁Alex	-11705
▁scan	-11706
▁seas	-11707
rolled	-11708
udence	-11709
▁MSMEs	-11710
▁bunch	-11711
▁overs	-11712
▁rooms	-11713
▁Launch	-11714
▁Propos	-11715
▁assure	-11716
▁superv	-11717
▁Strateg	-11718
▁varying	-11719
▁Intellig	-11720
▁detected	-11721
▁eighteen	-11722
▁entities	-11723
▁Indonesia	-11724
▁intuitive	-11725
▁exhibition	-11726
▁successive	-11727
▁distinguish	-11728
▁underground	-11729
▁neighbourhood	-11730
GC	-11731
ORT	-11732
▁ms	-11733
▁Rul	-11734
odhya	-11735
odium	-11736
rolog	-11737
▁Milk	-11738
▁mini	-11739
▁sket	-11740
▁slog	-11741
opathy	-11742
ulance	-11743
▁Naval	-11744
▁fancy	-11745
▁shoes	-11746
ighters	-11747
▁Medium	-11748
▁pocket	-11749
ertained	-11750
▁Israelis	-11751
▁Vaishnav	-11752
▁effected	-11753
▁granting	-11754
▁litigant	-11755
▁packages	-11756
▁theories	-11757
▁affidavit	-11758
▁certified	-11759
▁employers	-11760
▁repeatedly	-11761
▁differently	-11762
▁Distribution	-11763
▁entertainment	-11764
▁१८	-11765
asha	-11766
ayat	-11767
wali	-11768
▁Abu	-11769
▁Ish	-11770
▁kne	-11771
rophy	-11772
▁Cash	-11773
▁Insp	-11774
▁Town	-11775
▁Word	-11776
▁clay	-11777
▁club	-11778
▁lips	-11779
▁pour	-11780
▁wash	-11781
rupted	-11782
▁Block	-11783
▁revel	-11784
parable	-11785
▁Nagpur	-11786
▁Attorney	-11787
▁Bezbaroa	-11788
▁develops	-11789
▁formally	-11790
▁Following	-11791
▁Societies	-11792
▁magnitude	-11793
▁collectively	-11794
AA	-11795
Us	-11796
gl	-11797
thi	-11798
asim	-11799
born	-11800
▁Dip	-11801
▁Hen	-11802
▁INS	-11803
▁Jur	-11804
▁Ors	-11805
▁Ult	-11806
ensed	-11807
▁Drug	-11808
▁Find	-11809
▁Fran	-11810
▁Mail	-11811
▁bund	-11812
▁dupl	-11813
▁webs	-11814
itably	-11815
▁Phase	-11816
▁alert	-11817
▁burnt	-11818
▁climb	-11819
ructural	-11820
▁Arabian	-11821
▁deities	-11822
▁earnest	-11823
▁warfare	-11824
▁Citizens	-11825
▁shipping	-11826
▁consensus	-11827
▁measuring	-11828
▁households	-11829
▁compositions	-11830
FS	-11831
Tax	-11832
abi	-11833
bert	-11834
▁DVD	-11835
▁Fif	-11836
▁Nig	-11837
odder	-11838
▁Gurb	-11839
▁Kaur	-11840
▁Prob	-11841
iketan	-11842
ivable	-11843
usters	-11844
▁pilot	-11845
▁roles	-11846
▁Memorial	-11847
▁interval	-11848
▁merchant	-11849
▁swelling	-11850
▁Hindustan	-11851
▁petroleum	-11852
▁renewable	-11853
▁Bhavabhuti	-11854
▁magistrate	-11855
▁persistent	-11856
yot	-11857
abar	-11858
quet	-11859
▁BJP	-11860
▁Ell	-11861
▁Sex	-11862
▁Sug	-11863
▁mol	-11864
▁ved	-11865
stein	-11866
▁Ball	-11867
▁adds	-11868
▁foss	-11869
▁Files	-11870
▁Spain	-11871
▁gases	-11872
▁tyran	-11873
▁tragic	-11874
▁Unknown	-11875
▁pressed	-11876
▁annually	-11877
▁chapters	-11878
▁initiate	-11879
▁reciproc	-11880
▁elementary	-11881
▁recommends	-11882
▁multiplication	-11883
igm	-11884
oric	-11885
▁Dri	-11886
▁Moz	-11887
▁NHS	-11888
▁kap	-11889
itter	-11890
rowth	-11891
▁HOST	-11892
▁Jack	-11893
▁Magn	-11894
▁Marx	-11895
▁Mass	-11896
▁conj	-11897
▁dism	-11898
▁fing	-11899
▁plea	-11900
▁Areas	-11901
▁Coast	-11902
▁Goods	-11903
▁Joshi	-11904
bration	-11905
olation	-11906
▁Harish	-11907
▁actors	-11908
▁evolve	-11909
▁spouse	-11910
▁Witness	-11911
▁broadly	-11912
▁lateral	-11913
▁watched	-11914
unication	-11915
▁Balarama	-11916
▁dividing	-11917
▁socially	-11918
▁turnover	-11919
▁Meherally	-11920
▁appearing	-11921
▁Profession	-11922
▁Provisions	-11923
▁dictionary	-11924
▁transplant	-11925
▁coordination	-11926
▁certification	-11927
▁MM	-11928
▁Ta	-11929
ayam	-11930
ials	-11931
▁HTML	-11932
▁offs	-11933
▁Padma	-11934
▁Range	-11935
▁Track	-11936
▁burst	-11937
▁trace	-11938
▁Bhopal	-11939
▁Record	-11940
▁instal	-11941
▁fortune	-11942
▁implies	-11943
▁omitted	-11944
▁remarks	-11945
▁updated	-11946
ifference	-11947
▁Everyone	-11948
▁clearing	-11949
▁morality	-11950
▁pendency	-11951
▁symbolic	-11952
▁compelled	-11953
▁successor	-11954
▁translate	-11955
▁Chancellor	-11956
▁Satyagraha	-11957
▁magnificent	-11958
▁modifications	-11959
rak	-11960
rep	-11961
was	-11962
▁KB	-11963
▁Om	-11964
cott	-11965
emic	-11966
lock	-11967
rome	-11968
▁Gos	-11969
▁URI	-11970
▁asp	-11971
amind	-11972
▁Stop	-11973
▁belt	-11974
rators	-11975
▁Sangh	-11976
▁antib	-11977
▁condu	-11978
▁frust	-11979
▁loyal	-11980
▁recur	-11981
▁eighty	-11982
cedented	-11983
▁accepts	-11984
▁categor	-11985
▁heavily	-11986
▁onwards	-11987
▁propose	-11988
▁sleeping	-11989
▁Telephone	-11990
▁economics	-11991
▁exploited	-11992
▁virtually	-11993
▁capacities	-11994
▁improvements	-11995
▁beneficiaries	-11996
Es	-11997
dar	-11998
tar	-11999
▁EN	-12000
▁Lay	-12001
▁Say	-12002
▁sel	-12003
▁tam	-12004
▁Poon	-12005
▁Trad	-12006
▁cens	-12007
▁dual	-12008
▁Khadi	-12009
▁cheer	-12010
ilitary	-12011
naments	-12012
▁enrich	-12013
▁snakes	-12014
▁deserve	-12015
▁solving	-12016
ertaining	-12017
▁disciple	-12018
▁operator	-12019
▁statutes	-12020
▁estimates	-12021
▁projected	-12022
▁Upanishads	-12023
▁Vidyasagar	-12024
▁auspicious	-12025
▁deliberate	-12026
▁presenting	-12027
▁upgradation	-12028
KS	-12029
nis	-12030
▁Uz	-12031
aser	-12032
name	-12033
▁Inv	-12034
▁Nil	-12035
▁SEC	-12036
▁bee	-12037
▁sik	-12038
anyan	-12039
flies	-12040
▁Arth	-12041
▁Lock	-12042
▁Sanct	-12043
▁threw	-12044
▁tough	-12045
▁Tender	-12046
▁rating	-12047
▁rescue	-12048
▁stabil	-12049
▁Disable	-12050
▁leprosy	-12051
▁conceived	-12052
▁construed	-12053
▁dissolved	-12054
▁depression	-12055
▁Christianity	-12056
▁deliberately	-12057
▁undertakings	-12058
▁unemployment	-12059
▁demonstration	-12060
rao	-12061
cipl	-12062
neum	-12063
▁END	-12064
▁Pub	-12065
▁wal	-12066
▁Poth	-12067
▁cars	-12068
▁rays	-12069
▁turb	-12070
eneral	-12071
▁Panel	-12072
▁login	-12073
▁sword	-12074
▁inflic	-12075
▁blessed	-12076
▁reveals	-12077
▁wedding	-12078
▁Learning	-12079
▁Physical	-12080
▁stressed	-12081
▁acquiring	-12082
▁furniture	-12083
▁reactions	-12084
▁sensation	-12085
▁citizenship	-12086
▁concentrated	-12087
ede	-12088
▁TB	-12089
▁oh	-12090
▁Bac	-12091
▁FIR	-12092
▁COND	-12093
▁adul	-12094
▁surf	-12095
verted	-12096
▁craft	-12097
▁debts	-12098
▁maxim	-12099
▁Ashram	-12100
▁Sudden	-12101
▁binary	-12102
▁unjust	-12103
▁Charter	-12104
▁compact	-12105
▁tenants	-12106
itiveness	-12107
▁Actually	-12108
▁Chromium	-12109
▁punished	-12110
▁velocity	-12111
▁responded	-12112
▁sculpture	-12113
▁Hindustani	-12114
▁condolences	-12115
ahu	-12116
apu	-12117
law	-12118
▁Si	-12119
erer	-12120
esis	-12121
ptic	-12122
▁Tun	-12123
▁oct	-12124
aksha	-12125
▁Rele	-12126
▁disl	-12127
ogenic	-12128
rition	-12129
ureauc	-12130
▁hoped	-12131
▁knock	-12132
▁Bhakti	-12133
▁modest	-12134
▁surely	-12135
▁tackle	-12136
ventions	-12137
▁carrier	-12138
▁forever	-12139
▁numerator	-12140
▁kilometres	-12141
▁provincial	-12142
▁grandfather	-12143
▁confidential	-12144
In	-12145
hot	-12146
▁OK	-12147
ania	-12148
lude	-12149
orrh	-12150
outs	-12151
▁IIS	-12152
▁Low	-12153
▁NRI	-12154
▁Und	-12155
▁ail	-12156
▁ham	-12157
▁tie	-12158
▁Fact	-12159
▁Kirg	-12160
▁garb	-12161
▁glim	-12162
▁hire	-12163
▁publ	-12164
▁wool	-12165
rishna	-12166
▁Email	-12167
▁Plate	-12168
▁petty	-12169
▁pitch	-12170
▁Undert	-12171
▁Unless	-12172
▁hunting	-12173
▁locally	-12174
▁pursued	-12175
▁stating	-12176
▁vegetable	-12177
▁deliberations	-12178
▁unprecedented	-12179
box	-12180
eur	-12181
▁GR	-12182
▁SW	-12183
berg	-12184
ints	-12185
umps	-12186
▁kms	-12187
apsed	-12188
▁Kesh	-12189
▁deny	-12190
▁pale	-12191
▁Devan	-12192
▁lungs	-12193
▁shade	-12194
casting	-12195
▁Animal	-12196
▁Panjab	-12197
▁Server	-12198
▁occupy	-12199
▁phones	-12200
▁suited	-12201
▁thirst	-12202
▁Masters	-12203
▁physics	-12204
▁portray	-12205
▁roughly	-12206
▁clothing	-12207
▁requests	-12208
▁detention	-12209
▁curriculum	-12210
▁exercising	-12211
▁sacrifices	-12212
▁Partnership	-12213
▁innumerable	-12214
▁justification	-12215
ye	-12216
OLD	-12217
urb	-12218
urd	-12219
▁RF	-12220
▁XV	-12221
▁NUM	-12222
▁sle	-12223
erged	-12224
▁Cele	-12225
▁NITs	-12226
▁True	-12227
▁mant	-12228
estone	-12229
▁Blood	-12230
▁token	-12231
▁Daniel	-12232
▁stretc	-12233
▁wouldn	-12234
▁Ayodhya	-12235
▁Italian	-12236
▁Unicode	-12237
▁conting	-12238
▁premier	-12239
▁Maharshi	-12240
▁adopting	-12241
▁Represent	-12242
▁Saraswati	-12243
▁disorders	-12244
▁Assessment	-12245
▁specialist	-12246
▁suspension	-12247
▁sophisticated	-12248
▁Ga	-12249
▁Pa	-12250
adha	-12251
eath	-12252
opes	-12253
uits	-12254
▁Wal	-12255
agger	-12256
onial	-12257
▁Amar	-12258
▁Zion	-12259
▁lust	-12260
▁verd	-12261
orship	-12262
▁Baner	-12263
▁Index	-12264
▁Param	-12265
▁boxes	-12266
▁toxic	-12267
▁Altern	-12268
▁Odisha	-12269
▁anyway	-12270
▁commem	-12271
▁polity	-12272
▁defects	-12273
▁embrace	-12274
▁hectares	-12275
▁illusion	-12276
▁offender	-12277
▁assistant	-12278
▁dominated	-12279
▁Electronic	-12280
▁Entreprene	-12281
▁Scientific	-12282
awa	-12283
bhai	-12284
▁MIN	-12285
▁Much	-12286
▁Sher	-12287
▁Vall	-12288
▁fled	-12289
▁buyer	-12290
▁mercy	-12291
▁robot	-12292
General	-12293
▁loaded	-12294
▁marvel	-12295
▁theore	-12296
▁dangers	-12297
▁freight	-12298
▁Canadian	-12299
▁examining	-12300
▁Dictionary	-12301
▁assumption	-12302
▁chromosome	-12303
▁Legislatures	-12304
BA	-12305
OUR	-12306
ROW	-12307
hor	-12308
▁Atl	-12309
▁INA	-12310
▁Nay	-12311
▁SER	-12312
ivest	-12313
▁Mode	-12314
▁Step	-12315
▁wrap	-12316
ometer	-12317
ompass	-12318
▁Ghose	-12319
▁steep	-12320
▁sweep	-12321
▁Memory	-12322
▁Supply	-12323
▁ingred	-12324
▁posted	-12325
▁pulled	-12326
▁Prakash	-12327
▁Taliban	-12328
▁disable	-12329
▁nominee	-12330
▁Dominion	-12331
▁graphics	-12332
▁provider	-12333
▁Communist	-12334
▁detection	-12335
▁exercises	-12336
▁physician	-12337
▁Provincial	-12338
▁attributes	-12339
▁harassment	-12340
▁procession	-12341
▁computation	-12342
EST	-12343
yar	-12344
▁PE	-12345
▁fu	-12346
adav	-12347
fold	-12348
▁Hal	-12349
▁dan	-12350
▁odd	-12351
riday	-12352
▁Syed	-12353
▁hook	-12354
▁tion	-12355
▁vest	-12356
ispens	-12357
▁Anglo	-12358
▁mines	-12359
▁loving	-12360
▁rebell	-12361
▁amazing	-12362
▁credits	-12363
▁Jadunath	-12364
▁carriage	-12365
▁checking	-12366
▁momentum	-12367
▁trekking	-12368
▁allocated	-12369
▁anonymity	-12370
▁intervals	-12371
▁rejection	-12372
▁admissible	-12373
▁excitement	-12374
▁challenging	-12375
▁Consolidated	-12376
▁amalgamation	-12377
▁anticipatory	-12378
DS	-12379
wah	-12380
▁ES	-12381
▁MT	-12382
▁ug	-12383
bral	-12384
isen	-12385
ohun	-12386
ulin	-12387
▁BEG	-12388
▁SHG	-12389
comes	-12390
ostic	-12391
▁Jail	-12392
▁corn	-12393
▁pink	-12394
insula	-12395
▁Clean	-12396
▁Jesus	-12397
▁Korea	-12398
▁dozen	-12399
▁fibre	-12400
▁meter	-12401
▁mills	-12402
▁wives	-12403
entures	-12404
▁Device	-12405
▁Mechan	-12406
▁Prepar	-12407
▁downlo	-12408
▁lovers	-12409
▁metall	-12410
▁spinal	-12411
ivestock	-12412
▁Farmers	-12413
intendent	-12414
▁bleeding	-12415
▁climatic	-12416
▁congress	-12417
▁forehead	-12418
obiography	-12419
▁indispens	-12420
▁dependence	-12421
▁pronounced	-12422
▁Educational	-12423
▁constituent	-12424
▁dignitaries	-12425
▁reproduction	-12426
१९	-12427
ulu	-12428
▁AB	-12429
▁GT	-12430
SION	-12431
roto	-12432
▁gau	-12433
▁lun	-12434
idian	-12435
▁arre	-12436
▁dung	-12437
▁shar	-12438
▁trap	-12439
headed	-12440
▁Dharm	-12441
▁Labor	-12442
▁Place	-12443
▁greed	-12444
▁Priyob	-12445
▁Sunday	-12446
▁bacter	-12447
▁basket	-12448
▁extens	-12449
▁storey	-12450
itioners	-12451
▁Highway	-12452
▁Maulana	-12453
▁Shastri	-12454
▁oneself	-12455
▁updates	-12456
▁Analysis	-12457
▁Password	-12458
▁Register	-12459
▁Reference	-12460
▁Sanctuary	-12461
▁attending	-12462
▁attribute	-12463
▁similarly	-12464
▁competence	-12465
▁concentrate	-12466
▁Commissioners	-12467
agus	-12468
▁Beh	-12469
▁gui	-12470
▁yes	-12471
named	-12472
uance	-12473
▁Answ	-12474
▁Thak	-12475
▁Venk	-12476
▁bags	-12477
▁epit	-12478
▁hang	-12479
▁puzz	-12480
icking	-12481
▁Title	-12482
▁Window	-12483
▁enumer	-12484
▁inters	-12485
▁Michael	-12486
▁anxiety	-12487
▁excited	-12488
▁expense	-12489
▁Mohammad	-12490
▁pursuing	-12491
▁republic	-12492
▁conducive	-12493
▁gratitude	-12494
▁partially	-12495
▁precisely	-12496
▁typically	-12497
▁nineteenth	-12498
▁nomination	-12499
▁horticulture	-12500
isa	-12501
etal	-12502
icus	-12503
itha	-12504
▁Ill	-12505
▁Sep	-12506
acker	-12507
iforn	-12508
▁FROM	-12509
▁ISRO	-12510
▁brut	-12511
▁tale	-12512
raries	-12513
uniary	-12514
▁BEGIN	-12515
▁Games	-12516
▁pairs	-12517
▁shore	-12518
athetic	-12519
▁Boards	-12520
▁diamet	-12521
▁eighth	-12522
▁endors	-12523
▁thanks	-12524
▁ensures	-12525
▁execute	-12526
▁intoler	-12527
▁mischie	-12528
▁trusted	-12529
igibility	-12530
▁recalled	-12531
▁constraint	-12532
▁conferences	-12533
▁encouragement	-12534
IO	-12535
sen	-12536
▁BS	-12537
▁Kas	-12538
▁Pud	-12539
atile	-12540
gging	-12541
hered	-12542
osity	-12543
▁Kish	-12544
▁bent	-12545
▁tomb	-12546
inates	-12547
▁GNOME	-12548
▁dried	-12549
▁fluct	-12550
▁fores	-12551
▁indef	-12552
ascular	-12553
▁Almost	-12554
▁amidst	-12555
▁neglig	-12556
▁Respons	-12557
▁decides	-12558
▁reduces	-12559
▁soldier	-12560
▁Advanced	-12561
▁fruitful	-12562
▁lighting	-12563
▁utilized	-12564
▁admiration	-12565
▁creativity	-12566
CL	-12567
▁MA	-12568
eous	-12569
▁Diu	-12570
▁Naz	-12571
▁Pil	-12572
▁Rom	-12573
▁lux	-12574
▁sen	-12575
arsha	-12576
ritis	-12577
▁Drav	-12578
▁Ramm	-12579
▁Saheb	-12580
▁stagn	-12581
fection	-12582
▁Transl	-12583
▁cooked	-12584
▁ethnic	-12585
▁intern	-12586
istrates	-12587
▁Meeting	-12588
▁abdomen	-12589
▁ongoing	-12590
▁barriers	-12591
▁websites	-12592
▁Employees	-12593
▁Personnel	-12594
▁scattered	-12595
▁plantation	-12596
▁convenience	-12597
pha	-12598
▁Vi	-12599
▁sa	-12600
miki	-12601
▁Cup	-12602
amond	-12603
arity	-12604
▁Task	-12605
▁echo	-12606
▁ferv	-12607
▁prey	-12608
▁wore	-12609
aduate	-12610
atible	-12611
▁Tatya	-12612
▁ridic	-12613
▁Others	-12614
▁Relief	-12615
▁Saddam	-12616
▁Senate	-12617
▁modify	-12618
▁phrase	-12619
▁pushed	-12620
▁solely	-12621
▁Aurangz	-12622
▁Neither	-12623
▁moments	-12624
▁restaur	-12625
▁chairman	-12626
▁portions	-12627
▁tropical	-12628
▁Ordinance	-12629
▁allotment	-12630
▁primitive	-12631
▁prolonged	-12632
▁remainder	-12633
▁charitable	-12634
▁Intelligence	-12635
▁reproductive	-12636
uj	-12637
cie	-12638
iph	-12639
oir	-12640
org	-12641
ARDS	-12642
achh	-12643
▁Big	-12644
▁Tab	-12645
giene	-12646
igate	-12647
ittal	-12648
notes	-12649
ulars	-12650
▁Kalp	-12651
▁Pond	-12652
▁Team	-12653
▁dose	-12654
▁grid	-12655
▁uplo	-12656
▁DATED	-12657
▁Graph	-12658
▁appra	-12659
▁disin	-12660
▁sided	-12661
quisite	-12662
ulative	-12663
▁Dharma	-12664
▁Ubuntu	-12665
▁fixing	-12666
▁loyalty	-12667
▁artisans	-12668
▁emission	-12669
▁prevents	-12670
▁restored	-12671
▁shopping	-12672
▁attitudes	-12673
▁launching	-12674
▁Priyobroto	-12675
▁pollutants	-12676
▁Compensation	-12677
▁Introduction	-12678
▁pharmaceutical	-12679
eg	-12680
ERN	-12681
jay	-12682
inea	-12683
mand	-12684
▁Ras	-12685
▁Veer	-12686
▁ensh	-12687
▁yoga	-12688
bedded	-12689
▁Nizam	-12690
▁floods	-12691
▁openly	-12692
▁rooted	-12693
▁Guarant	-12694
▁bureauc	-12695
▁chances	-12696
▁guiding	-12697
▁reactor	-12698
▁stretch	-12699
▁Annexure	-12700
▁Rammohun	-12701
▁journals	-12702
▁prohibit	-12703
▁publicly	-12704
▁renowned	-12705
▁transmit	-12706
▁Available	-12707
▁Treatment	-12708
▁excluding	-12709
▁instrumental	-12710
▁legislations	-12711
oi	-12712
rob	-12713
uda	-12714
▁IM	-12715
gone	-12716
ulla	-12717
▁Beg	-12718
▁Kon	-12719
▁Mel	-12720
▁Sac	-12721
▁lip	-12722
oping	-12723
▁Duty	-12724
▁Gulf	-12725
▁Iron	-12726
▁auto	-12727
▁slip	-12728
▁twin	-12729
▁Hills	-12730
▁Nived	-12731
▁Tibet	-12732
▁array	-12733
▁codes	-12734
▁delays	-12735
▁finish	-12736
▁Pothana	-12737
▁despair	-12738
▁washing	-12739
▁borrowed	-12740
▁explicit	-12741
▁textiles	-12742
▁touching	-12743
cellaneous	-12744
▁searching	-12745
▁undoubtedly	-12746
▁examinations	-12747
▁indispensable	-12748
▁qualification	-12749
arb	-12750
eek	-12751
iah	-12752
len	-12753
keys	-12754
▁Din	-12755
▁Tub	-12756
anasi	-12757
anium	-12758
▁Fair	-12759
▁Near	-12760
▁PART	-12761
▁dent	-12762
aments	-12763
▁crown	-12764
▁trunk	-12765
▁Volume	-12766
▁dishon	-12767
▁locked	-12768
▁wastes	-12769
▁widget	-12770
iniketan	-12771
▁briefly	-12772
▁fingers	-12773
▁impetus	-12774
▁painted	-12775
▁abundant	-12776
▁cellular	-12777
▁fighters	-12778
▁receiver	-12779
▁Pollution	-12780
▁foregoing	-12781
▁inception	-12782
▁mortality	-12783
▁prestigious	-12784
▁announcement	-12785
▁contributing	-12786
▁experimental	-12787
▁sufficiently	-12788
▁investigating	-12789
yn	-12790
oqu	-12791
eter	-12792
▁Gul	-12793
▁Loc	-12794
▁kin	-12795
akhsh	-12796
cture	-12797
emble	-12798
▁Tata	-12799
▁chat	-12800
▁mild	-12801
▁rely	-12802
▁Input	-12803
▁Quest	-12804
▁Wales	-12805
▁cache	-12806
▁camps	-12807
▁hilly	-12808
▁pulse	-12809
▁rites	-12810
▁unlaw	-12811
angular	-12812
▁Fourth	-12813
▁Sahdev	-12814
▁fodder	-12815
▁hollow	-12816
▁tariff	-12817
▁fiction	-12818
▁retreat	-12819
▁summons	-12820
▁telecom	-12821
▁Californ	-12822
▁Original	-12823
▁deducted	-12824
▁expiration	-12825
▁simplicity	-12826
▁Inflammation	-12827
PR	-12828
hau	-12829
▁Ji	-12830
▁Ye	-12831
irth	-12832
oded	-12833
mohan	-12834
▁Fert	-12835
▁bron	-12836
▁Multi	-12837
▁Qaeda	-12838
▁flame	-12839
▁physi	-12840
▁scrap	-12841
▁weigh	-12842
▁Pratap	-12843
▁affair	-12844
▁banyan	-12845
▁edible	-12846
▁inject	-12847
▁plugin	-12848
▁pupils	-12849
ashankar	-12850
▁Charles	-12851
▁convict	-12852
▁episode	-12853
▁notable	-12854
▁notices	-12855
▁tonnage	-12856
▁worldly	-12857
▁Secondly	-12858
▁Wildlife	-12859
▁steadily	-12860
▁wireless	-12861
▁coalition	-12862
▁incidence	-12863
▁organizing	-12864
▁exploration	-12865
▁investigate	-12866
▁GS	-12867
orus	-12868
▁Tow	-12869
▁pap	-12870
adeva	-12871
arter	-12872
isers	-12873
▁Crit	-12874
▁Hold	-12875
▁bark	-12876
▁sine	-12877
▁Arjun	-12878
▁coinc	-12879
▁metab	-12880
arriage	-12881
▁Arjuna	-12882
▁Recogn	-12883
▁enjoys	-12884
▁trains	-12885
▁Auditor	-12886
▁Keeping	-12887
▁mothers	-12888
▁nominal	-12889
▁renewed	-12890
▁spirits	-12891
▁Nivedita	-12892
▁foremost	-12893
▁globally	-12894
▁operates	-12895
▁pressing	-12896
▁reliance	-12897
▁fundament	-12898
▁synthesis	-12899
▁Individual	-12900
▁horizontal	-12901
▁regardless	-12902
▁reiterated	-12903
▁requisition	-12904
CS	-12905
gm	-12906
ILL	-12907
can	-12908
▁PW	-12909
urop	-12910
▁Ign	-12911
▁vic	-12912
adays	-12913
inars	-12914
rivol	-12915
▁Kali	-12916
▁heap	-12917
▁mast	-12918
▁unst	-12919
iosity	-12920
▁Until	-12921
▁Vehic	-12922
▁paste	-12923
limited	-12924
▁Active	-12925
▁bowler	-12926
▁inward	-12927
▁tables	-12928
▁Express	-12929
▁mastery	-12930
▁thermal	-12931
▁Absolute	-12932
▁clusters	-12933
▁clearance	-12934
▁commenced	-12935
▁encompass	-12936
▁attributed	-12937
▁determines	-12938
▁subsection	-12939
▁extensively	-12940
▁foundations	-12941
▁handicrafts	-12942
▁impeachment	-12943
mah	-12944
▁Il	-12945
▁KV	-12946
aret	-12947
▁cab	-12948
▁dub	-12949
▁rib	-12950
anted	-12951
avari	-12952
▁Marg	-12953
▁quit	-12954
making	-12955
▁Kabul	-12956
▁adorn	-12957
▁heirs	-12958
▁vocal	-12959
ressive	-12960
▁Robert	-12961
▁betray	-12962
▁frivol	-12963
▁inculc	-12964
▁traced	-12965
▁warned	-12966
▁cleared	-12967
▁dancing	-12968
▁infrast	-12969
▁serpent	-12970
▁commands	-12971
▁floating	-12972
▁shortcut	-12973
▁sugarcane	-12974
▁Devanagari	-12975
▁adequately	-12976
▁emphasized	-12977
▁furnishing	-12978
▁procurement	-12979
ART	-12980
akk	-12981
cca	-12982
▁Tu	-12983
sein	-12984
▁Jun	-12985
▁ber	-12986
▁dos	-12987
▁Feed	-12988
▁Give	-12989
▁Khal	-12990
▁anat	-12991
▁mask	-12992
atural	-12993
odhpur	-12994
ometry	-12995
▁Parent	-12996
▁Taking	-12997
▁Twenty	-12998
▁hybrid	-12999
▁incarn	-13000
▁jungle	-13001
▁serial	-13002
▁Reports	-13003
▁enlarge	-13004
▁sixteen	-13005
▁evaluate	-13006
▁diplomacy	-13007
▁distances	-13008
▁envisages	-13009
▁hierarchy	-13010
▁attainment	-13011
▁incidental	-13012
▁counterpart	-13013
▁flexibility	-13014
▁Proclamation	-13015
▁unfortunately	-13016
eli	-13017
erb	-13018
awar	-13019
bone	-13020
rama	-13021
rons	-13022
▁Dak	-13023
▁lag	-13024
arynx	-13025
▁Draw	-13026
▁diar	-13027
▁tear	-13028
adeshi	-13029
▁Dutch	-13030
▁Round	-13031
▁Sinha	-13032
▁Units	-13033
▁enlar	-13034
▁metre	-13035
▁swift	-13036
▁Treaty	-13037
▁Unlike	-13038
▁asleep	-13039
▁clever	-13040
▁layers	-13041
▁postal	-13042
▁pulses	-13043
▁Success	-13044
▁circles	-13045
▁deficit	-13046
▁fertile	-13047
▁vacancy	-13048
▁Teachers	-13049
▁holistic	-13050
▁meanings	-13051
▁hereafter	-13052
▁phenomena	-13053
▁delivering	-13054
▁elimination	-13055
ibh	-13056
sha	-13057
zes	-13058
▁VP	-13059
ekar	-13060
ispr	-13061
khar	-13062
▁PAN	-13063
▁guy	-13064
IVERS	-13065
arman	-13066
puted	-13067
ucose	-13068
▁Half	-13069
▁Joze	-13070
▁Less	-13071
▁Ravi	-13072
▁hymn	-13073
atable	-13074
▁Initi	-13075
▁chlor	-13076
▁curve	-13077
▁incon	-13078
▁loses	-13079
▁naked	-13080
▁prone	-13081
▁sniff	-13082
▁tanks	-13083
▁Sweden	-13084
▁cataly	-13085
▁desper	-13086
▁dinner	-13087
▁disreg	-13088
▁homage	-13089
▁misery	-13090
▁Chamber	-13091
▁nucleus	-13092
▁ranking	-13093
▁repairs	-13094
▁winners	-13095
▁Mahadevi	-13096
▁memories	-13097
▁optional	-13098
▁alternate	-13099
▁hostility	-13100
▁processor	-13101
▁California	-13102
▁Englishman	-13103
▁accountant	-13104
▁whatsoever	-13105
▁distinctive	-13106
▁traditionally	-13107
ko	-13108
arc	-13109
jit	-13110
▁Fi	-13111
kers	-13112
leys	-13113
▁Abb	-13114
▁cyl	-13115
heast	-13116
range	-13117
write	-13118
▁Gaut	-13119
▁Mosc	-13120
▁asks	-13121
▁synd	-13122
▁vain	-13123
rified	-13124
uclear	-13125
▁Music	-13126
▁Siyar	-13127
▁rigid	-13128
ishness	-13129
▁depict	-13130
▁wholes	-13131
▁Sahitya	-13132
▁adjourn	-13133
▁combine	-13134
▁neutral	-13135
▁speaker	-13136
▁strikes	-13137
▁strings	-13138
▁unhappy	-13139
▁Document	-13140
▁Narendra	-13141
▁Position	-13142
▁Students	-13143
▁Varanasi	-13144
▁smallest	-13145
▁sometime	-13146
▁versions	-13147
▁Pakistani	-13148
▁landscape	-13149
▁commentary	-13150
▁fertilizer	-13151
▁periodical	-13152
▁brotherhood	-13153
▁politically	-13154
▁superficial	-13155
▁intermediate	-13156
▁dissemination	-13157
GA	-13158
His	-13159
ITH	-13160
MOR	-13161
ona	-13162
ril	-13163
rub	-13164
▁ic	-13165
▁ud	-13166
iner	-13167
▁Fat	-13168
▁Kad	-13169
andal	-13170
arium	-13171
otomy	-13172
▁HPCL	-13173
▁Tuls	-13174
▁ecst	-13175
▁syll	-13176
▁Aryan	-13177
▁Medal	-13178
▁eaten	-13179
▁portf	-13180
▁toile	-13181
▁undue	-13182
hearted	-13183
▁Motion	-13184
▁Source	-13185
▁riding	-13186
▁tranqu	-13187
itations	-13188
▁Omitted	-13189
▁Puranas	-13190
▁condemn	-13191
▁counted	-13192
▁elderly	-13193
▁mystery	-13194
▁luminous	-13195
▁presided	-13196
▁proteins	-13197
▁reminded	-13198
▁accomplish	-13199
▁invariably	-13200
▁priorities	-13201
▁stipulated	-13202
▁Fundamental	-13203
▁calculation	-13204
▁conclusions	-13205
▁endorsement	-13206
▁prohibition	-13207
▁temporarily	-13208
▁Establishment	-13209
hee	-13210
nia	-13211
oil	-13212
▁HE	-13213
▁SM	-13214
▁ts	-13215
oper	-13216
text	-13217
▁hrs	-13218
▁sli	-13219
akshi	-13220
avana	-13221
heric	-13222
inals	-13223
▁COUR	-13224
▁dull	-13225
▁dump	-13226
ulture	-13227
▁Using	-13228
▁harsh	-13229
ittance	-13230
onymous	-13231
ructive	-13232
viously	-13233
▁Leader	-13234
▁Moscow	-13235
▁Perman	-13236
▁census	-13237
▁ledger	-13238
▁safely	-13239
▁spices	-13240
▁Inquiry	-13241
▁gravity	-13242
▁hearted	-13243
▁heating	-13244
▁sanctum	-13245
▁Disputes	-13246
▁autonomy	-13247
▁dwelling	-13248
▁hypothes	-13249
▁monopoly	-13250
▁blindness	-13251
▁incorrect	-13252
▁expressing	-13253
▁Chairperson	-13254
▁Expenditure	-13255
▁approaching	-13256
apat	-13257
rats	-13258
▁APP	-13259
▁Siv	-13260
eland	-13261
imals	-13262
otype	-13263
▁Arts	-13264
▁Chat	-13265
▁None	-13266
▁bere	-13267
arlier	-13268
izable	-13269
▁Imper	-13270
▁ingen	-13271
▁races	-13272
▁Celebr	-13273
▁Method	-13274
▁Munshi	-13275
▁Serial	-13276
▁absorb	-13277
▁guests	-13278
▁nearer	-13279
▁phosph	-13280
▁photos	-13281
▁routes	-13282
▁scarce	-13283
▁Chatter	-13284
▁therapy	-13285
▁Settings	-13286
▁imminent	-13287
▁biography	-13288
▁dividends	-13289
▁complexity	-13290
▁preventive	-13291
▁celebration	-13292
▁permissions	-13293
▁resolutions	-13294
bl	-13295
TIT	-13296
kan	-13297
olio	-13298
thal	-13299
unes	-13300
▁Dil	-13301
▁RES	-13302
▁RSS	-13303
▁UNC	-13304
lines	-13305
iances	-13306
▁grasp	-13307
▁overl	-13308
ainable	-13309
▁INDIAN	-13310
▁Instru	-13311
▁congen	-13312
▁ethics	-13313
▁frames	-13314
▁lovely	-13315
▁outlay	-13316
▁stocks	-13317
▁arrears	-13318
▁compare	-13319
▁escaped	-13320
▁whereby	-13321
▁Cultural	-13322
▁Measures	-13323
▁arbitral	-13324
▁generous	-13325
▁performs	-13326
▁intuition	-13327
▁offensive	-13328
▁Performance	-13329
▁inhabitants	-13330
▁corporations	-13331
BN	-13332
EB	-13333
sm	-13334
upa	-13335
omed	-13336
▁Bor	-13337
▁Ess	-13338
▁REL	-13339
berry	-13340
▁Fast	-13341
▁IFCI	-13342
▁IITs	-13343
▁Java	-13344
▁Para	-13345
chants	-13346
iliary	-13347
▁Close	-13348
▁Rajiv	-13349
▁incub	-13350
▁singh	-13351
▁unint	-13352
issance	-13353
▁Switch	-13354
▁Vikram	-13355
▁lifest	-13356
▁misuse	-13357
▁respir	-13358
▁Advance	-13359
▁Century	-13360
▁bribery	-13361
▁columns	-13362
▁purview	-13363
▁enforced	-13364
▁invention	-13365
▁patriotic	-13366
▁incapacity	-13367
▁mainstream	-13368
▁surroundings	-13369
ui	-13370
esc	-13371
had	-13372
pse	-13373
she	-13374
▁LA	-13375
▁ba	-13376
rack	-13377
ISTER	-13378
olith	-13379
▁Naid	-13380
▁Patt	-13381
▁blog	-13382
▁sage	-13383
▁worm	-13384
apuram	-13385
eering	-13386
ilated	-13387
▁Ghana	-13388
▁argue	-13389
▁domic	-13390
▁souls	-13391
▁winds	-13392
ryption	-13393
▁Bachan	-13394
▁CONDOL	-13395
▁Hitler	-13396
▁NUMBER	-13397
▁combat	-13398
▁insuff	-13399
▁suspic	-13400
sections	-13401
▁Discuss	-13402
▁Friends	-13403
▁educate	-13404
▁reputed	-13405
▁Evidence	-13406
▁Internal	-13407
▁Manufact	-13408
▁altitude	-13409
▁exciting	-13410
▁feedback	-13411
▁monument	-13412
▁solitary	-13413
▁obstruction	-13414
▁consistently	-13415
▁renunciation	-13416
Bs	-13417
DC	-13418
zed	-13419
▁AK	-13420
▁BE	-13421
▁IB	-13422
▁Vy	-13423
▁et	-13424
neys	-13425
ulse	-13426
▁Box	-13427
▁Mum	-13428
feree	-13429
iated	-13430
▁drag	-13431
▁fora	-13432
▁jeal	-13433
▁Minor	-13434
▁giant	-13435
▁https	-13436
▁imbib	-13437
▁inert	-13438
▁paths	-13439
▁worms	-13440
▁zones	-13441
▁Assemb	-13442
▁breaks	-13443
▁dances	-13444
▁monkey	-13445
▁singer	-13446
▁Earlier	-13447
▁surveys	-13448
▁appealed	-13449
▁inclined	-13450
▁maritime	-13451
▁persuade	-13452
isprudence	-13453
▁neglected	-13454
▁reasoning	-13455
▁selecting	-13456
▁suspected	-13457
▁workshops	-13458
▁Ambassador	-13459
▁aggression	-13460
▁companions	-13461
▁domination	-13462
▁initiation	-13463
▁organising	-13464
▁politician	-13465
▁replacement	-13466
▁authoritative	-13467
२०	-13468
afi	-13469
agi	-13470
oni	-13471
▁FA	-13472
▁OP	-13473
link	-13474
onda	-13475
opic	-13476
▁Gib	-13477
▁Mid	-13478
▁Rob	-13479
▁vap	-13480
ollen	-13481
rosis	-13482
▁Coun	-13483
▁Kama	-13484
▁arom	-13485
▁inex	-13486
▁sadh	-13487
▁Radha	-13488
▁Visit	-13489
▁mosqu	-13490
atching	-13491
igating	-13492
rolment	-13493
▁menace	-13494
▁zamind	-13495
▁confine	-13496
itionally	-13497
ropolitan	-13498
▁nitrogen	-13499
▁salaries	-13500
▁troubles	-13501
▁comprised	-13502
▁inherited	-13503
▁injection	-13504
▁aggressive	-13505
map	-13506
iece	-13507
onal	-13508
▁exh	-13509
▁sew	-13510
uture	-13511
▁Base	-13512
▁Hans	-13513
▁Samb	-13514
▁Sush	-13515
▁Wood	-13516
▁calf	-13517
▁phil	-13518
ennium	-13519
▁Eleph	-13520
▁cited	-13521
▁rests	-13522
▁surge	-13523
▁terra	-13524
undoram	-13525
▁Except	-13526
▁Little	-13527
▁Series	-13528
▁campus	-13529
▁frater	-13530
▁seated	-13531
▁shaping	-13532
▁consumed	-13533
▁maternal	-13534
▁ambitious	-13535
▁composite	-13536
▁consisted	-13537
▁imparting	-13538
▁kilograms	-13539
▁litigants	-13540
▁retention	-13541
▁Controller	-13542
▁absorption	-13543
▁completing	-13544
▁devotional	-13545
▁infectious	-13546
▁petitioners	-13547
▁provisional	-13548
▁conservative	-13549
bly	-13550
ogh	-13551
▁DD	-13552
▁Hi	-13553
list	-13554
▁Bio	-13555
▁SMS	-13556
▁hut	-13557
ilipp	-13558
omass	-13559
venge	-13560
▁Chap	-13561
▁Chit	-13562
▁Mish	-13563
▁Pray	-13564
▁nons	-13565
▁orph	-13566
▁wine	-13567
icular	-13568
rology	-13569
▁Daily	-13570
▁bloss	-13571
▁Martin	-13572
▁orange	-13573
▁verify	-13574
▁vigour	-13575
▁Brother	-13576
▁Schools	-13577
▁pleaded	-13578
▁Gandhian	-13579
▁claiming	-13580
▁informal	-13581
▁lifetime	-13582
▁remedies	-13583
ologically	-13584
▁Anundoram	-13585
▁Elections	-13586
▁authentic	-13587
▁harvesting	-13588
▁objections	-13589
▁suggesting	-13590
▁vocational	-13591
▁commendable	-13592
▁conventions	-13593
▁authentication	-13594
isht	-13595
oons	-13596
urai	-13597
▁Mes	-13598
aryng	-13599
chest	-13600
rally	-13601
▁Cant	-13602
▁cerv	-13603
master	-13604
▁Congo	-13605
▁Mehta	-13606
▁Schol	-13607
▁brick	-13608
▁macro	-13609
▁secre	-13610
writing	-13611
▁Mexico	-13612
▁feudal	-13613
▁finest	-13614
▁harder	-13615
▁incred	-13616
▁recess	-13617
▁cordial	-13618
▁folders	-13619
▁gaining	-13620
hibitions	-13621
▁Bachchan	-13622
▁Keyboard	-13623
▁borrowing	-13624
▁cancelled	-13625
▁copyright	-13626
▁exporters	-13627
▁inability	-13628
▁redressal	-13629
▁specimens	-13630
▁concession	-13631
▁converting	-13632
▁thereunder	-13633
PG	-13634
nn	-13635
cot	-13636
hma	-13637
▁QU	-13638
felt	-13639
▁Cut	-13640
▁idi	-13641
▁pel	-13642
adium	-13643
▁glow	-13644
▁pipe	-13645
▁tast	-13646
▁Write	-13647
▁param	-13648
▁rainy	-13649
▁buried	-13650
▁upheld	-13651
amsharan	-13652
▁Usually	-13653
▁dispose	-13654
▁endowed	-13655
▁heading	-13656
▁refusal	-13657
▁screens	-13658
▁sikhara	-13659
▁spheres	-13660
▁umbrell	-13661
▁winding	-13662
▁passport	-13663
▁encounter	-13664
▁imperfect	-13665
▁isolation	-13666
▁obstacles	-13667
▁tribunals	-13668
▁guarantees	-13669
▁injunction	-13670
▁adjudication	-13671
uz	-13672
iga	-13673
obe	-13674
▁Aw	-13675
▁Es	-13676
arts	-13677
▁alb	-13678
▁dys	-13679
▁gon	-13680
gebra	-13681
▁Late	-13682
▁Ranj	-13683
▁barg	-13684
▁croc	-13685
▁knee	-13686
hemist	-13687
▁Field	-13688
▁flora	-13689
▁imped	-13690
▁yours	-13691
▁Accept	-13692
▁Friday	-13693
▁Vigyan	-13694
▁heroic	-13695
▁portal	-13696
▁warmth	-13697
▁washed	-13698
estation	-13699
▁cruelty	-13700
▁exhibit	-13701
▁fathers	-13702
▁sulphur	-13703
▁cleaning	-13704
▁Otherwise	-13705
▁aggrieved	-13706
▁companion	-13707
▁diagnosis	-13708
▁Mahabharat	-13709
▁coordinate	-13710
▁discharged	-13711
▁discussing	-13712
▁reasonably	-13713
▁beneficiary	-13714
▁disciplines	-13715
tr	-13716
aba	-13717
bek	-13718
ilib	-13719
onts	-13720
▁Fax	-13721
▁Imp	-13722
▁Mak	-13723
▁VIS	-13724
▁XII	-13725
▁tin	-13726
arked	-13727
mbuds	-13728
▁Font	-13729
▁Gall	-13730
▁SERV	-13731
▁Sale	-13732
▁Virt	-13733
▁arid	-13734
▁buck	-13735
▁Clear	-13736
▁Renew	-13737
▁debit	-13738
▁panic	-13739
icherry	-13740
▁Multip	-13741
▁Nobody	-13742
▁corpus	-13743
▁merged	-13744
▁pillar	-13745
▁repudi	-13746
▁stroke	-13747
▁uplift	-13748
position	-13749
▁Hussein	-13750
▁envelop	-13751
▁Savarkar	-13752
▁disappro	-13753
▁enduring	-13754
▁synchron	-13755
▁Khandekar	-13756
▁nutrients	-13757
▁translator	-13758
▁contributes	-13759
▁hospitality	-13760
▁Conservation	-13761
uga	-13762
ipse	-13763
▁laz	-13764
front	-13765
rooms	-13766
▁Adal	-13767
▁Anth	-13768
▁Clim	-13769
▁Kail	-13770
▁Mahm	-13771
▁Pesh	-13772
▁Turn	-13773
▁lump	-13774
▁pity	-13775
ectomy	-13776
▁Kisan	-13777
▁Motor	-13778
▁dilig	-13779
▁heter	-13780
▁tribe	-13781
▁archae	-13782
▁capita	-13783
▁intric	-13784
▁nerves	-13785
▁promin	-13786
▁termed	-13787
▁Harijan	-13788
▁Lebanon	-13789
▁adapted	-13790
▁barrier	-13791
▁enclosed	-13792
▁planting	-13793
▁Questions	-13794
▁formulate	-13795
▁journalism	-13796
▁volunteers	-13797
▁efficiently	-13798
▁prejudicial	-13799
▁Siyaramsharan	-13800
ARC	-13801
VAN	-13802
ksh	-13803
▁DEV	-13804
▁lap	-13805
▁vom	-13806
erver	-13807
▁Bapu	-13808
▁Kart	-13809
▁Rain	-13810
▁Soul	-13811
▁cess	-13812
▁idle	-13813
▁leap	-13814
▁pand	-13815
▁prox	-13816
arians	-13817
formed	-13818
wahati	-13819
▁arter	-13820
▁meals	-13821
▁reimb	-13822
entials	-13823
▁Client	-13824
▁Consid	-13825
▁Manual	-13826
▁Single	-13827
▁accred	-13828
▁church	-13829
▁Pallava	-13830
▁Parties	-13831
▁beneath	-13832
▁glucose	-13833
▁planted	-13834
▁princes	-13835
▁Aviation	-13836
▁Normally	-13837
▁guardian	-13838
▁invented	-13839
▁locality	-13840
▁promises	-13841
▁remarked	-13842
▁shifting	-13843
▁Guarantee	-13844
▁awakening	-13845
▁clarified	-13846
▁discontin	-13847
▁exemplary	-13848
▁maintains	-13849
▁probation	-13850
▁realities	-13851
▁unlimited	-13852
▁Submission	-13853
▁defendants	-13854
▁harmonious	-13855
▁peripheral	-13856
▁Independent	-13857
▁imperialist	-13858
▁voluntarily	-13859
dh	-13860
TIVE	-13861
akas	-13862
aque	-13863
wala	-13864
▁Flo	-13865
▁Mil	-13866
▁wil	-13867
arial	-13868
▁Psych	-13869
▁dirty	-13870
▁fears	-13871
▁maker	-13872
▁miser	-13873
▁waist	-13874
station	-13875
▁Malays	-13876
▁backed	-13877
▁conced	-13878
▁stupid	-13879
▁trader	-13880
▁Appoint	-13881
▁Setting	-13882
▁diagram	-13883
▁prevail	-13884
▁profess	-13885
▁useless	-13886
icultural	-13887
▁Contempt	-13888
▁Suddenly	-13889
▁alliance	-13890
▁spinning	-13891
▁survived	-13892
▁frivolous	-13893
▁heartfelt	-13894
▁inspiring	-13895
▁patronage	-13896
▁Background	-13897
▁privileged	-13898
▁Celebrations	-13899
▁Santiniketan	-13900
▁disobedience	-13901
▁tuberculosis	-13902
ois	-13903
▁Ox	-13904
▁PH	-13905
ften	-13906
lace	-13907
ophy	-13908
oter	-13909
▁cig	-13910
▁cub	-13911
▁hoc	-13912
▁por	-13913
acock	-13914
anchi	-13915
feren	-13916
hisht	-13917
isure	-13918
▁Cere	-13919
▁Flow	-13920
▁Vari	-13921
▁clos	-13922
▁duct	-13923
▁Memor	-13924
▁Reddy	-13925
▁Seven	-13926
▁Surat	-13927
▁feeds	-13928
▁manif	-13929
itating	-13930
ocratic	-13931
▁arisen	-13932
▁assass	-13933
▁lawful	-13934
ilibrium	-13935
▁Empower	-13936
▁Jodhpur	-13937
▁Nuclear	-13938
▁Valmiki	-13939
▁Vedanta	-13940
▁loading	-13941
▁Purchase	-13942
▁Recently	-13943
▁assuming	-13944
▁faithful	-13945
▁residing	-13946
▁supervis	-13947
▁Currently	-13948
▁Operation	-13949
▁attaining	-13950
▁curiosity	-13951
▁merchants	-13952
▁observing	-13953
▁ornaments	-13954
▁pecuniary	-13955
▁propagation	-13956
▁consolidated	-13957
▁personalities	-13958
IB	-13959
HAN	-13960
chi	-13961
fig	-13962
psy	-13963
▁Du	-13964
▁Sn	-13965
ASHT	-13966
UGUR	-13967
agan	-13968
ivic	-13969
ogas	-13970
seek	-13971
umni	-13972
▁Kes	-13973
▁ecl	-13974
▁mes	-13975
▁pad	-13976
eller	-13977
ierce	-13978
otive	-13979
▁Abhi	-13980
▁Nana	-13981
▁SCHE	-13982
▁adjo	-13983
▁bidd	-13984
▁bowl	-13985
▁grap	-13986
▁medi	-13987
▁soap	-13988
▁sync	-13989
▁ward	-13990
▁yard	-13991
atient	-13992
hibits	-13993
▁Daman	-13994
▁Event	-13995
▁Naidu	-13996
▁Scale	-13997
▁Tiger	-13998
▁accus	-13999
▁flash	-14000
▁guilt	-14001
▁knees	-14002
▁sorts	-14003
▁Format	-14004
▁Garden	-14005
▁relied	-14006
▁reluct	-14007
▁scroll	-14008
▁sheets	-14009
▁Complex	-14010
▁INAUGUR	-14011
▁annuity	-14012
▁gradual	-14013
▁praised	-14014
▁swollen	-14015
connected	-14016
▁Textiles	-14017
▁compiled	-14018
▁converts	-14019
▁evolving	-14020
▁moisture	-14021
▁seasonal	-14022
▁Gurbakhsh	-14023
▁adversely	-14024
▁alignment	-14025
▁uniformity	-14026
▁effectiveness	-14027
▁competitiveness	-14028
po	-14029
ASA	-14030
fty	-14031
sts	-14032
▁Vs	-14033
oves	-14034
pora	-14035
riva	-14036
▁Alt	-14037
▁Kak	-14038
▁REP	-14039
▁ink	-14040
orage	-14041
rowse	-14042
▁Ghaz	-14043
▁Loss	-14044
▁Pill	-14045
▁fart	-14046
▁horm	-14047
▁knot	-14048
▁vein	-14049
▁Mahas	-14050
▁Paras	-14051
▁Sudan	-14052
▁curse	-14053
▁demon	-14054
▁epile	-14055
▁preca	-14056
itherto	-14057
▁Bankim	-14058
▁Ground	-14059
▁derive	-14060
▁recept	-14061
▁Channel	-14062
▁buffalo	-14063
▁jealous	-14064
▁placing	-14065
▁suffers	-14066
▁tactics	-14067
▁verdict	-14068
▁Capacity	-14069
▁avoiding	-14070
▁handsome	-14071
▁hydrogen	-14072
▁misunder	-14073
▁ventures	-14074
▁Permanent	-14075
▁expressly	-14076
▁memorable	-14077
▁providers	-14078
▁consecutive	-14079
▁consultancy	-14080
▁populations	-14081
▁descriptions	-14082
df	-14083
sa	-14084
EAS	-14085
alp	-14086
ths	-14087
▁HR	-14088
▁OI	-14089
akha	-14090
icle	-14091
opia	-14092
west	-14093
▁Ded	-14094
▁Lax	-14095
▁sha	-14096
ushan	-14097
▁Cath	-14098
▁Club	-14099
▁Stan	-14100
▁Vert	-14101
▁goat	-14102
▁misc	-14103
▁sear	-14104
▁unav	-14105
igated	-14106
▁ample	-14107
▁enshr	-14108
▁riots	-14109
▁sweat	-14110
▁vogue	-14111
ittings	-14112
osystem	-14113
▁Making	-14114
▁Marine	-14115
▁Update	-14116
▁merger	-14117
▁wicked	-14118
igration	-14119
▁Provide	-14120
▁Shivaji	-14121
▁charity	-14122
▁confron	-14123
▁expired	-14124
▁exploit	-14125
▁hygiene	-14126
▁sympath	-14127
iciencies	-14128
▁Preamble	-14129
▁Priority	-14130
▁comprise	-14131
▁embodied	-14132
▁imprison	-14133
▁memorial	-14134
▁passages	-14135
▁sickness	-14136
▁Bharatiya	-14137
▁amenities	-14138
▁communist	-14139
▁parasites	-14140
▁prescribe	-14141
▁undertook	-14142
▁originated	-14143
▁Pondicherry	-14144
▁enhancement	-14145
▁facilitates	-14146
▁fascinating	-14147
▁respiratory	-14148
▁spontaneous	-14149
▁indifference	-14150
▁Harishchandra	-14151
▁Superintendent	-14152
oval	-14153
▁ACT	-14154
▁Lie	-14155
▁Mul	-14156
▁baz	-14157
▁vow	-14158
pling	-14159
▁Scot	-14160
▁eros	-14161
▁inch	-14162
▁ugly	-14163
▁unin	-14164
▁Antar	-14165
▁Sales	-14166
▁Steel	-14167
▁Years	-14168
▁arrog	-14169
▁catal	-14170
▁goats	-14171
▁straw	-14172
ineries	-14173
▁Portal	-14174
▁boards	-14175
▁devast	-14176
▁excuse	-14177
▁precip	-14178
▁Similar	-14179
▁uranium	-14180
isational	-14181
▁Guwahati	-14182
▁glaciers	-14183
▁learners	-14184
▁Framework	-14185
▁ambulance	-14186
▁provident	-14187
▁transfers	-14188
▁protective	-14189
▁undergoing	-14190
▁demonstrate	-14191
▁Championships	-14192
▁Entrepreneurs	-14193
▁establishments	-14194
▁congratulations	-14195
LIC	-14196
lav	-14197
ikan	-14198
▁Obs	-14199
▁ank	-14200
▁bye	-14201
▁gop	-14202
▁ore	-14203
break	-14204
ectar	-14205
gupta	-14206
hthal	-14207
▁vern	-14208
friend	-14209
iaison	-14210
icides	-14211
▁Rahul	-14212
▁acids	-14213
▁bonus	-14214
▁limbs	-14215
▁peaks	-14216
▁stiff	-14217
▁stuck	-14218
clusion	-14219
▁defaul	-14220
▁dental	-14221
▁hosted	-14222
▁shapes	-14223
▁Philipp	-14224
▁blocked	-14225
▁choices	-14226
▁mounted	-14227
▁storing	-14228
▁tickets	-14229
▁Islamism	-14230
▁MINISTER	-14231
▁creature	-14232
▁organise	-14233
▁Important	-14234
▁Redressal	-14235
▁ascertain	-14236
▁Opposition	-14237
▁photographs	-14238
▁multilateral	-14239
▁infrastructural	-14240
BB	-14241
LD	-14242
LS	-14243
OT	-14244
OW	-14245
bu	-14246
▁CF	-14247
▁ER	-14248
▁Ec	-14249
▁SU	-14250
adhi	-14251
ansi	-14252
dish	-14253
gaon	-14254
pher	-14255
vard	-14256
▁Haj	-14257
▁Hey	-14258
▁luc	-14259
▁shy	-14260
alpur	-14261
itrus	-14262
▁Fate	-14263
▁Sust	-14264
▁budd	-14265
▁fant	-14266
ASHTRA	-14267
▁Notes	-14268
▁Photo	-14269
▁annoy	-14270
▁eloqu	-14271
▁fauna	-14272
▁screw	-14273
▁wells	-14274
▁Lakshm	-14275
▁Palace	-14276
▁Result	-14277
▁eldest	-14278
▁embryo	-14279
▁herein	-14280
▁ration	-14281
akrishna	-14282
ollywood	-14283
▁License	-14284
▁Savings	-14285
▁classic	-14286
▁fishing	-14287
▁masters	-14288
▁redress	-14289
▁CONDOLES	-14290
▁advisory	-14291
▁decisive	-14292
▁deserves	-14293
▁interior	-14294
▁invasion	-14295
▁inviting	-14296
▁prescrib	-14297
▁unlawful	-14298
▁wrongful	-14299
▁divisible	-14300
▁sanctuary	-14301
▁arithmetic	-14302
▁illiterate	-14303
▁formulating	-14304
▁immigration	-14305
▁inheritance	-14306
GE	-14307
IFE	-14308
afe	-14309
bow	-14310
chy	-14311
elo	-14312
nar	-14313
ogg	-14314
rab	-14315
wat	-14316
aval	-14317
▁Bat	-14318
▁Jog	-14319
▁Own	-14320
▁Rot	-14321
▁fur	-14322
▁Face	-14323
▁Mars	-14324
▁Srik	-14325
▁Tend	-14326
▁aver	-14327
▁dogs	-14328
▁memo	-14329
▁rape	-14330
▁rash	-14331
▁Irish	-14332
▁accru	-14333
▁cargo	-14334
▁clubs	-14335
▁spare	-14336
▁trash	-14337
▁Diwali	-14338
▁Fertil	-14339
▁devoid	-14340
▁inflam	-14341
▁vacant	-14342
mbudsman	-14343
▁anthrop	-14344
▁failing	-14345
▁linkage	-14346
▁valleys	-14347
inguished	-14348
▁Function	-14349
▁Infinite	-14350
▁conquest	-14351
▁consulted	-14352
▁creditors	-14353
▁emissions	-14354
▁geography	-14355
▁screening	-14356
unicipality	-14357
▁Authorities	-14358
▁Preferences	-14359
▁temperament	-14360
▁humanitarian	-14361
▁mathematical	-14362
▁partnerships	-14363
▁biotechnology	-14364
axy	-14365
hir	-14366
aned	-14367
pill	-14368
umed	-14369
want	-14370
▁Tob	-14371
▁mul	-14372
ilant	-14373
inton	-14374
ledon	-14375
▁Chow	-14376
▁Crop	-14377
▁Mald	-14378
▁Qual	-14379
▁WITH	-14380
aswami	-14381
mented	-14382
solete	-14383
▁Haran	-14384
▁Kapil	-14385
▁needy	-14386
▁thumb	-14387
▁AWARDS	-14388
▁elders	-14389
▁glands	-14390
▁phases	-14391
▁redund	-14392
▁aquatic	-14393
▁beetles	-14394
▁persist	-14395
▁priests	-14396
▁connects	-14397
▁diameter	-14398
▁incompet	-14399
▁pilgrims	-14400
▁prompted	-14401
▁seminars	-14402
▁Directive	-14403
▁ancestors	-14404
▁contempor	-14405
▁delegates	-14406
▁donations	-14407
▁intestate	-14408
▁Narmadashankar	-14409
ea	-14410
ulg	-14411
▁GP	-14412
▁ft	-14413
amal	-14414
cile	-14415
core	-14416
igue	-14417
omal	-14418
tage	-14419
▁Lot	-14420
▁kar	-14421
▁Anal	-14422
▁Coll	-14423
▁lens	-14424
alling	-14425
criber	-14426
▁Poona	-14427
▁enric	-14428
▁lapse	-14429
▁nurse	-14430
▁posed	-14431
▁sized	-14432
▁Growth	-14433
▁Mathem	-14434
▁analog	-14435
▁beetle	-14436
▁ladies	-14437
▁Anandam	-14438
▁abandon	-14439
▁calcium	-14440
▁cheaper	-14441
▁justify	-14442
▁miracle	-14443
▁quietly	-14444
▁virtues	-14445
▁Highways	-14446
▁frontier	-14447
▁implicit	-14448
▁landmark	-14449
▁Presiding	-14450
▁alchemist	-14451
▁decentral	-14452
▁fortnight	-14453
▁incapable	-14454
▁lightning	-14455
▁unwilling	-14456
▁Petitioner	-14457
▁Philosophy	-14458
▁ceremonial	-14459
▁explaining	-14460
▁officially	-14461
▁prospective	-14462
▁conciliation	-14463
▁Certification	-14464
ado	-14465
upt	-14466
▁NR	-14467
▁mu	-14468
arti	-14469
▁Gor	-14470
▁Sib	-14471
izers	-14472
▁anch	-14473
▁bite	-14474
▁sang	-14475
▁seal	-14476
▁sway	-14477
▁triv	-14478
MORROW	-14479
apurna	-14480
omical	-14481
▁Above	-14482
▁Nawab	-14483
▁Qatar	-14484
▁kumar	-14485
▁linga	-14486
▁skull	-14487
olition	-14488
related	-14489
▁Akadem	-14490
▁Argent	-14491
▁Ashoka	-14492
▁Simple	-14493
▁costly	-14494
▁funded	-14495
▁oppose	-14496
▁spaces	-14497
▁Amitabh	-14498
▁Parvati	-14499
▁Problem	-14500
▁Receipt	-14501
▁devised	-14502
▁discern	-14503
▁prophet	-14504
▁Likewise	-14505
▁TOMORROW	-14506
▁encoding	-14507
▁nematode	-14508
▁notation	-14509
▁Buddhists	-14510
▁Obviously	-14511
▁graduates	-14512
▁pronounce	-14513
▁ecological	-14514
▁responsive	-14515
▁succeeding	-14516
▁Maintenance	-14517
▁illustrious	-14518
▁suppression	-14519
▁Presidential	-14520
▁confirmation	-14521
▁representations	-14522
ATH	-14523
▁Ol	-14524
▁BIS	-14525
aemia	-14526
meric	-14527
▁BOLD	-14528
▁ISBN	-14529
▁Kamb	-14530
▁Megh	-14531
▁cosm	-14532
▁enzy	-14533
▁erst	-14534
▁frog	-14535
▁sadd	-14536
▁abode	-14537
▁anten	-14538
▁swall	-14539
▁toHis	-14540
▁undes	-14541
▁Biruni	-14542
▁Mahend	-14543
▁Mongol	-14544
▁Purana	-14545
▁Travel	-14546
▁banana	-14547
▁hiding	-14548
▁landed	-14549
▁outset	-14550
▁underw	-14551
▁Seventh	-14552
▁Towards	-14553
▁altered	-14554
▁batting	-14555
▁breasts	-14556
▁seasons	-14557
▁wounded	-14558
▁rightful	-14559
▁Character	-14560
▁elevation	-14561
▁Excellence	-14562
▁attracting	-14563
▁implements	-14564
▁ministries	-14565
▁commissioned	-14566
▁periodically	-14567
▁advertisement	-14568
▁interventions	-14569
mal	-14570
alas	-14571
from	-14572
rise	-14573
▁BHA	-14574
▁OFF	-14575
▁Uda	-14576
▁Vit	-14577
achar	-14578
anmar	-14579
▁Kala	-14580
▁Kant	-14581
▁Tell	-14582
▁Yash	-14583
▁ampl	-14584
▁hell	-14585
▁torn	-14586
acking	-14587
aratus	-14588
itched	-14589
▁ozone	-14590
▁twent	-14591
▁Output	-14592
▁Syrian	-14593
▁contag	-14594
▁metals	-14595
▁rushed	-14596
▁Captain	-14597
▁Printer	-14598
▁Prophet	-14599
▁beating	-14600
▁horizon	-14601
▁leisure	-14602
▁shorter	-14603
▁Imperial	-14604
▁accuracy	-14605
▁embedded	-14606
▁enjoying	-14607
▁hardship	-14608
▁opposing	-14609
▁unreason	-14610
▁Countries	-14611
▁fertility	-14612
▁motherland	-14613
▁questioned	-14614
▁disturbances	-14615
▁architectural	-14616
▁complications	-14617
▁independently	-14618
▁revolutionaries	-14619
Ms	-14620
ho	-14621
olt	-14622
▁ox	-14623
▁uk	-14624
thon	-14625
▁GOV	-14626
▁Kun	-14627
▁Ral	-14628
▁bub	-14629
▁esp	-14630
ashes	-14631
atrik	-14632
elfth	-14633
ogene	-14634
▁LIFE	-14635
▁Rand	-14636
▁Shak	-14637
▁Wait	-14638
▁cous	-14639
▁orch	-14640
▁pant	-14641
ignant	-14642
▁Madan	-14643
▁Peter	-14644
▁Yadav	-14645
▁plead	-14646
▁shelf	-14647
▁thorn	-14648
▁aggrav	-14649
▁deceit	-14650
▁puppet	-14651
▁Akademi	-14652
▁Regular	-14653
▁impulse	-14654
▁obliged	-14655
▁anterior	-14656
▁convince	-14657
▁financed	-14658
▁mandapas	-14659
▁narrated	-14660
▁occupies	-14661
▁pursuant	-14662
▁specimen	-14663
▁telegram	-14664
▁Copyright	-14665
▁advocated	-14666
▁caterpill	-14667
▁customary	-14668
▁expedient	-14669
▁invisible	-14670
▁launchpad	-14671
▁Anniversary	-14672
[...]
