<unk>	0
<s>	0
</s>	0
UuRrLl	0
DdAaTtEe	0
NnUuMm	0
▁t	-0
he	-1
▁a	-2
▁the	-3
in	-4
▁o	-5
re	-6
on	-7
at	-8
er	-9
en	-10
ed	-11
▁of	-12
▁s	-13
is	-14
▁,	-15
it	-16
▁w	-17
▁c	-18
▁p	-19
▁.	-20
nd	-21
▁b	-22
ion	-23
▁in	-24
▁f	-25
or	-26
ar	-27
an	-28
es	-29
as	-30
al	-31
▁to	-32
▁d	-33
ing	-34
ou	-35
ic	-36
▁and	-37
▁h	-38
ent	-39
▁th	-40
▁m	-41
▁re	-42
le	-43
▁n	-44
ro	-45
ct	-46
▁be	-47
▁is	-48
▁T	-49
▁S	-50
os	-51
▁e	-52
ot	-53
ce	-54
id	-55
▁that	-56
▁C	-57
▁A	-58
il	-59
us	-60
ut	-61
ation	-62
▁I	-63
om	-64
▁l	-65
ve	-66
▁on	-67
im	-68
ad	-69
et	-70
ly	-71
am	-72
ur	-73
ap	-74
▁con	-75
ment	-76
▁The	-77
▁as	-78
▁for	-79
▁by	-80
▁P	-81
▁was	-82
▁de	-83
▁g	-84
▁&	-85
▁pro	-86
▁not	-87
▁or	-88
her	-89
▁su	-90
st	-91
pp	-92
▁wh	-93
ll	-94
▁u	-95
ate	-96
our	-97
ri	-98
ch	-99
ver	-100
▁an	-101
▁wit	-102
ant	-103
ow	-104
▁it	-105
ay	-106
ir	-107
ain	-108
▁st	-109
▁M	-110
ld	-111
apos	-112
if	-113
se	-114
ter	-115
▁R	-116
▁with	-117
▁he	-118
ere	-119
▁B	-120
▁app	-121
▁H	-122
ig	-123
ul	-124
ition	-125
ab	-126
qu	-127
ess	-128
▁has	-129
▁D	-130
ers	-131
▁ex	-132
ect	-133
ol	-134
▁N	-135
and	-136
▁com	-137
ag	-138
▁al	-139
ourt	-140
res	-141
▁v	-142
ra	-143
ist	-144
ated	-145
ak	-146
cc	-147
▁(	-148
ich	-149
▁)	-150
ore	-151
est	-152
▁are	-153
ther	-154
▁-	-155
▁which	-156
od	-157
▁at	-158
ity	-159
▁ha	-160
end	-161
▁this	-162
rom	-163
art	-164
nder	-165
▁G	-166
ud	-167
ence	-168
ould	-169
▁/	-170
▁Court	-171
um	-172
▁sh	-173
▁res	-174
ted	-175
iv	-176
▁se	-177
▁from	-178
etition	-179
▁le	-180
▁under	-181
gh	-182
▁his	-183
ase	-184
▁In	-185
▁have	-186
▁O	-187
ill	-188
un	-189
▁there	-190
ice	-191
▁petition	-192
▁E	-193
ci	-194
red	-195
▁y	-196
▁been	-197
ive	-198
so	-199
nt	-200
pon	-201
▁W	-202
la	-203
ell	-204
▁acc	-205
em	-206
ard	-207
▁L	-208
ies	-209
ort	-210
▁j	-211
pl	-212
▁fa	-213
ord	-214
▁K	-215
aid	-216
▁cont	-217
ction	-218
▁whe	-219
▁dis	-220
ure	-221
all	-222
▁had	-223
▁can	-224
▁any	-225
ge	-226
▁also	-227
ust	-228
▁case	-229
ame	-230
▁F	-231
▁ad	-232
ff	-233
▁ab	-234
able	-235
▁sub	-236
op	-237
▁ev	-238
used	-239
▁It	-240
▁no	-241
▁ch	-242
fore	-243
▁J	-244
der	-245
mit	-246
▁per	-247
▁ne	-248
ie	-249
ary	-250
▁were	-251
▁ag	-252
▁r	-253
ance	-254
th	-255
▁all	-256
ned	-257
▁do	-258
▁int	-259
▁part	-260
lic	-261
ac	-262
▁:	-263
age	-264
▁Th	-265
▁k	-266
ire	-267
sion	-268
▁im	-269
ision	-270
▁No	-271
ous	-272
pt	-273
ear	-274
▁other	-275
igh	-276
▁rec	-277
ind	-278
per	-279
▁such	-280
pe	-281
▁ar	-282
ial	-283
▁comp	-284
ound	-285
ue	-286
ade	-287
ution	-288
▁said	-289
pond	-290
over	-291
▁prov	-292
▁order	-293
ough	-294
▁would	-295
ict	-296
ide	-297
▁St	-298
fter	-299
▁dec	-300
▁so	-301
▁cons	-302
out	-303
pondent	-304
mis	-305
du	-306
rit	-307
▁off	-308
▁V	-309
▁qu	-310
▁petitioner	-311
ib	-312
▁we	-313
ia	-314
▁tr	-315
▁pl	-316
erv	-317
pos	-318
▁un	-319
use	-320
▁pos	-321
ome	-322
ass	-323
▁who	-324
▁Ind	-325
ime	-326
ount	-327
▁He	-328
▁reg	-329
ied	-330
ical	-331
ish	-332
▁en	-333
▁pres	-334
▁gr	-335
▁respondent	-336
aw	-337
aint	-338
▁tak	-339
▁pers	-340
▁accused	-341
▁Act	-342
▁but	-343
▁their	-344
▁inc	-345
ong	-346
iff	-347
el	-348
▁made	-349
▁one	-350
▁out	-351
oc	-352
ree	-353
ced	-354
▁rep	-355
▁U	-356
oin	-357
ru	-358
ans	-359
▁person	-360
ub	-361
ellant	-362
ered	-363
▁him	-364
▁fact	-365
▁they	-366
▁me	-367
▁ob	-368
▁her	-369
istr	-370
▁its	-371
ep	-372
▁def	-373
ased	-374
hi	-375
▁mat	-376
ness	-377
▁rel	-378
one	-379
ail	-380
▁pre	-381
ection	-382
▁Ch	-383
▁only	-384
▁wor	-385
ations	-386
mitted	-387
idence	-388
orm	-389
ok	-390
overn	-391
iz	-392
▁appellant	-393
av	-394
▁again	-395
ments	-396
▁am	-397
ove	-398
▁time	-399
pect	-400
▁pr	-401
▁imp	-402
▁man	-403
▁may	-404
ine	-405
▁if	-406
ast	-407
▁same	-408
ult	-409
ific	-410
ces	-411
▁will	-412
▁before	-413
▁you	-414
ings	-415
uth	-416
▁As	-417
ident	-418
▁Com	-419
ght	-420
▁ent	-421
hed	-422
overnment	-423
▁ri	-424
og	-425
ory	-426
sel	-427
ach	-428
are	-429
ise	-430
▁dated	-431
ally	-432
▁year	-433
▁evidence	-434
▁applic	-435
▁iss	-436
rib	-437
.0	-438
▁after	-439
▁State	-440
ec	-441
▁consid	-442
not	-443
▁go	-444
▁when	-445
ik	-446
▁There	-447
mission	-448
▁fil	-449
urther	-450
ject	-451
stit	-452
ile	-453
ry	-454
▁against	-455
▁them	-456
▁ref	-457
▁jud	-458
▁inv	-459
▁This	-460
▁Ex	-461
ah	-462
ention	-463
▁where	-464
▁em	-465
ang	-466
uthor	-467
▁writ	-468
ert	-469
▁inf	-470
▁record	-471
iew	-472
▁Su	-473
erm	-474
▁law	-475
oy	-476
te	-477
▁ac	-478
ath	-479
▁Sh	-480
▁cannot	-481
▁ind	-482
▁tw	-483
very	-484
▁being	-485
▁court	-486
ight	-487
cess	-488
amp	-489
ating	-490
▁On	-491
▁pass	-492
▁PW	-493
▁pla	-494
▁ass	-495
me	-496
oint	-497
▁Government	-498
▁about	-499
▁work	-500
▁spe	-501
ious	-502
ber	-503
▁right	-504
▁sc	-505
▁lear	-506
aj	-507
▁requ	-508
▁cla	-509
ty	-510
own	-511
▁giv	-512
ose	-513
▁into	-514
inal	-515
▁state	-516
▁should	-517
▁inter	-518
▁India	-519
▁bec	-520
▁further	-521
cted	-522
ost	-523
▁pur	-524
▁pol	-525
▁conc	-526
▁up	-527
ates	-528
nce	-529
ip	-530
ign	-531
▁witness	-532
leg	-533
▁dire	-534
▁dece	-535
▁Con	-536
irst	-537
▁present	-538
ceed	-539
▁cl	-540
▁two	-541
ark	-542
amin	-543
▁learned	-544
ause	-545
cial	-546
▁fo	-547
ason	-548
▁deceased	-549
▁act	-550
led	-551
▁sp	-552
ular	-553
▁stated	-554
▁0	-555
sec	-556
ank	-557
▁some	-558
▁kn	-559
▁she	-560
▁proper	-561
▁these	-562
ward	-563
ack	-564
wn	-565
▁land	-566
▁over	-567
estion	-568
▁could	-569
▁mak	-570
▁shall	-571
ond	-572
▁author	-573
ained	-574
▁;	-575
▁filed	-576
ower	-577
▁set	-578
▁provision	-579
ever	-580
▁held	-581
▁plaint	-582
ute	-583
rough	-584
▁att	-585
▁even	-586
▁serv	-587
ite	-588
▁comm	-589
ities	-590
▁view	-591
rial	-592
ract	-593
▁taken	-594
eal	-595
▁rem	-596
▁char	-597
oun	-598
▁disc	-599
ual	-600
ved	-601
▁reason	-602
ffic	-603
▁prosec	-604
dition	-605
▁matter	-606
vel	-607
▁Re	-608
▁first	-609
▁proceed	-610
ays	-611
pre	-612
▁issu	-613
ian	-614
▁judg	-615
ress	-616
ature	-617
▁bet	-618
▁Sing	-619
▁more	-620
▁compl	-621
▁claim	-622
▁decision	-623
ative	-624
ised	-625
endant	-626
▁question	-627
any	-628
▁An	-629
▁given	-630
▁poss	-631
we	-632
ession	-633
stitution	-634
ug	-635
iction	-636
uring	-637
ife	-638
▁pay	-639
act	-640
ublic	-641
irc	-642
▁regard	-643
▁plaintiff	-644
▁diff	-645
old	-646
▁De	-647
ens	-648
ible	-649
▁Ad	-650
▁Y	-651
▁det	-652
ike	-653
▁consider	-654
ving	-655
▁op	-656
ild	-657
ired	-658
ven	-659
ited	-660
ha	-661
▁found	-662
ex	-663
li	-664
▁trans	-665
▁form	-666
oth	-667
ility	-668
▁suit	-669
ting	-670
▁years	-671
▁exp	-672
owever	-673
▁ro	-674
▁therefore	-675
▁upon	-676
▁%	-677
llow	-678
▁sec	-679
ploy	-680
▁application	-681
▁submitted	-682
▁inst	-683
▁did	-684
▁above	-685
▁examin	-686
▁leg	-687
ided	-688
ffect	-689
▁term	-690
ble	-691
▁defendant	-692
▁des	-693
ook	-694
▁then	-695
▁ext	-696
▁conf	-697
▁cle	-698
▁circ	-699
▁just	-700
self	-701
ily	-702
ween	-703
lud	-704
ouse	-705
▁find	-706
▁judgment	-707
▁passed	-708
cy	-709
▁between	-710
▁supp	-711
ors	-712
▁well	-713
▁appro	-714
cept	-715
▁bel	-716
▁prosecution	-717
ater	-718
other	-719
▁here	-720
▁us	-721
▁follow	-722
▁must	-723
▁petitioners	-724
ified	-725
▁High	-726
▁mem	-727
▁produ	-728
ful	-729
ody	-730
▁Mr	-731
▁Rs	-732
▁pe	-733
ale	-734
▁place	-735
▁respect	-736
▁does	-737
▁Singh	-738
▁like	-739
▁than	-740
▁without	-741
ording	-742
▁Pr	-743
▁inform	-744
▁report	-745
▁inj	-746
ener	-747
▁par	-748
▁Jud	-749
▁power	-750
har	-751
▁employ	-752
ended	-753
cu	-754
▁within	-755
▁bas	-756
▁Pro	-757
istrict	-758
▁our	-759
ash	-760
▁ra	-761
▁fe	-762
ances	-763
erred	-764
▁appeal	-765
▁But	-766
iod	-767
ules	-768
▁We	-769
▁what	-770
▁date	-771
ification	-772
ince	-773
ram	-774
▁clear	-775
▁Un	-776
ule	-777
preme	-778
▁period	-779
▁”	-780
▁own	-781
▁alleg	-782
▁amount	-783
▁docu	-784
estig	-785
▁te	-786
▁hand	-787
erest	-788
rim	-789
▁cert	-790
▁“	-791
ax	-792
▁So	-793
▁offic	-794
▁through	-795
▁very	-796
reat	-797
▁SC	-798
▁cor	-799
lect	-800
▁see	-801
▁Supreme	-802
▁statement	-803
▁differe	-804
ged	-805
▁circum	-806
▁ret	-807
▁occ	-808
▁whether	-809
ood	-810
▁trial	-811
bit	-812
▁post	-813
▁persons	-814
▁public	-815
▁issued	-816
▁read	-817
ents	-818
abl	-819
▁val	-820
ck	-821
▁If	-822
ational	-823
▁interest	-824
▁while	-825
▁?	-826
hen	-827
esh	-828
▁show	-829
urn	-830
▁provisions	-831
▁call	-832
ari	-833
▁circumst	-834
▁grant	-835
ix	-836
▁ground	-837
its	-838
▁est	-839
inci	-840
▁name	-841
vers	-842
ft	-843
▁rece	-844
▁facts	-845
▁Section	-846
▁used	-847
ple	-848
▁know	-849
ng	-850
por	-851
▁mon	-852
▁because	-853
ior	-854
erial	-855
▁house	-856
▁col	-857
▁Ar	-858
▁ear	-859
▁new	-860
▁police	-861
▁App	-862
▁gu	-863
ief	-864
ople	-865
ros	-866
▁i	-867
▁bl	-868
▁Offic	-869
▁spec	-870
▁concer	-871
▁property	-872
app	-873
▁av	-874
▁let	-875
hy	-876
▁mark	-877
▁get	-878
▁effect	-879
ee	-880
▁District	-881
▁partic	-882
miss	-883
▁having	-884
ric	-885
ases	-886
uted	-887
▁car	-888
ished	-889
▁came	-890
▁purpos	-891
▁disp	-892
▁parties	-893
▁min	-894
▁take	-895
bitr	-896
und	-897
erc	-898
▁authority	-899
▁dep	-900
▁both	-901
▁make	-902
▁Ram	-903
▁ins	-904
ai	-905
▁aff	-906
▁obs	-907
▁comple	-908
▁appear	-909
▁during	-910
ather	-911
lt	-912
velop	-913
▁material	-914
ene	-915
▁basis	-916
ave	-917
▁people	-918
posed	-919
▁my	-920
▁back	-921
▁rele	-922
▁includ	-923
▁offence	-924
▁account	-925
▁Or	-926
▁ke	-927
read	-928
▁sent	-929
▁though	-930
lection	-931
ode	-932
rap	-933
han	-934
ital	-935
▁allow	-936
▁hold	-937
sequ	-938
erence	-939
▁way	-940
▁down	-941
▁num	-942
▁action	-943
▁po	-944
▁different	-945
▁three	-946
▁Ben	-947
▁necess	-948
ural	-949
▁And	-950
▁rev	-951
▁process	-952
▁stand	-953
ores	-954
man	-955
▁proceedings	-956
▁co	-957
▁word	-958
hat	-959
▁ord	-960
▁those	-961
▁investig	-962
▁good	-963
▁notice	-964
▁witnesses	-965
hip	-966
ith	-967
▁circumstances	-968
▁af	-969
umar	-970
after	-971
▁Therefore	-972
▁count	-973
▁Indian	-974
▁service	-975
ten	-976
ner	-977
▁considered	-978
▁exerc	-979
isd	-980
▁dem	-981
artment	-982
med	-983
ized	-984
ither	-985
▁sy	-986
▁pri	-987
unal	-988
▁jur	-989
ption	-990
urre	-991
▁princi	-992
aining	-993
uch	-994
ange	-995
▁Acc	-996
▁stat	-997
ob	-998
▁observ	-999
▁Officer	-1000
vant	-1001
ants	-1002
▁respondents	-1003
▁life	-1004
▁Judge	-1005
▁Res	-1006
ink	-1007
ning	-1008
▁Pol	-1009
▁concerned	-1010
▁condition	-1011
▁dist	-1012
▁opp	-1013
▁agree	-1014
▁test	-1015
▁your	-1016
ross	-1017
ices	-1018
▁establ	-1019
▁ple	-1020
▁fl	-1021
▁sit	-1022
way	-1023
tern	-1024
▁issue	-1025
ral	-1026
ivil	-1027
▁required	-1028
▁need	-1029
▁Raj	-1030
bers	-1031
▁li	-1032
▁coun	-1033
▁appoint	-1034
▁body	-1035
▁However	-1036
less	-1037
ring	-1038
stru	-1039
eth	-1040
ribunal	-1041
ism	-1042
▁subject	-1043
ived	-1044
isdiction	-1045
IR	-1046
oresaid	-1047
ool	-1048
▁Commission	-1049
▁Dep	-1050
▁avail	-1051
▁contract	-1052
hes	-1053
▁aforesaid	-1054
ically	-1055
▁equ	-1056
▁jurisdiction	-1057
ull	-1058
min	-1059
crib	-1060
ared	-1061
ock	-1062
iry	-1063
eneral	-1064
ient	-1065
▁condu	-1066
▁sim	-1067
row	-1068
▁&#	-1069
▁acqu	-1070
▁come	-1071
▁point	-1072
tle	-1073
▁fam	-1074
anch	-1075
▁day	-1076
▁direct	-1077
▁Kumar	-1078
▁now	-1079
mitte	-1080
▁She	-1081
▁possession	-1082
▁They	-1083
▁mention	-1084
▁month	-1085
▁due	-1086
▁child	-1087
▁cases	-1088
▁purpose	-1089
arm	-1090
form	-1091
▁exec	-1092
reated	-1093
ending	-1094
ister	-1095
riminal	-1096
bt	-1097
▁del	-1098
▁beh	-1099
ret	-1100
les	-1101
▁abs	-1102
▁contin	-1103
con	-1104
▁non	-1105
▁another	-1106
als	-1107
▁since	-1108
lus	-1109
▁lit	-1110
orted	-1111
▁party	-1112
▁injur	-1113
▁death	-1114
pra	-1115
▁particular	-1116
oard	-1117
au	-1118
ages	-1119
▁Hon	-1120
uty	-1121
ew	-1122
▁For	-1123
▁opin	-1124
▁every	-1125
ourse	-1126
gan	-1127
▁Bh	-1128
▁letter	-1129
▁nature	-1130
▁Rules	-1131
▁fail	-1132
ctions	-1133
ying	-1134
▁Reg	-1135
▁Man	-1136
▁&#9	-1137
ugned	-1138
aring	-1139
ality	-1140
▁arbitr	-1141
mittee	-1142
iness	-1143
▁second	-1144
▁company	-1145
▁impugned	-1146
ability	-1147
▁terms	-1148
ides	-1149
▁Constitution	-1150
ator	-1151
gg	-1152
▁use	-1153
sequent	-1154
▁Am	-1155
▁recorded	-1156
▁each	-1157
ures	-1158
▁long	-1159
▁Police	-1160
allen	-1161
ately	-1162
▁adv	-1163
gu	-1164
▁appellants	-1165
▁..	-1166
▁At	-1167
alf	-1168
▁necessary	-1169
▁number	-1170
arge	-1171
ready	-1172
▁bus	-1173
ety	-1174
▁Is	-1175
▁many	-1176
▁cap	-1177
▁mis	-1178
PC	-1179
▁already	-1180
▁lim	-1181
▁along	-1182
▁Par	-1183
▁Tribunal	-1184
▁che	-1185
▁Ass	-1186
▁develop	-1187
illage	-1188
▁bene	-1189
ried	-1190
▁dismiss	-1191
▁sign	-1192
chool	-1193
▁award	-1194
quiry	-1195
▁conv	-1196
▁incident	-1197
▁That	-1198
raph	-1199
▁end	-1200
▁Sec	-1201
▁exist	-1202
na	-1203
ency	-1204
of	-1205
▁itself	-1206
▁supra	-1207
▁consideration	-1208
icial	-1209
uc	-1210
▁expl	-1211
ined	-1212
▁med	-1213
gt	-1214
▁opinion	-1215
▁When	-1216
▁bro	-1217
▁ca	-1218
▁fav	-1219
resent	-1220
▁ve	-1221
▁charge	-1222
▁Mah	-1223
ST	-1224
▁put	-1225
▁benef	-1226
ctor	-1227
▁bu	-1228
arch	-1229
▁Rule	-1230
▁...	-1231
▁alleged	-1232
tic	-1233
▁Thus	-1234
ointed	-1235
ges	-1236
lig	-1237
enior	-1238
▁Comp	-1239
▁result	-1240
▁examination	-1241
ured	-1242
▁investigation	-1243
ati	-1244
air	-1245
ick	-1246
▁sm	-1247
▁den	-1248
up	-1249
ya	-1250
▁rest	-1251
▁according	-1252
▁available	-1253
▁import	-1254
▁cause	-1255
ination	-1256
▁cent	-1257
▁agreement	-1258
▁mind	-1259
▁relevant	-1260
▁called	-1261
▁challen	-1262
▁open	-1263
stem	-1264
▁ed	-1265
▁say	-1266
▁mar	-1267
▁complaint	-1268
▁vide	-1269
▁admitted	-1270
▁information	-1271
lim	-1272
▁Sub	-1273
▁list	-1274
▁dou	-1275
▁oper	-1276
▁favour	-1277
ala	-1278
▁var	-1279
▁done	-1280
▁sur	-1281
▁course	-1282
▁Sc	-1283
val	-1284
▁submit	-1285
▁Cr	-1286
▁Petition	-1287
▁ph	-1288
▁certain	-1289
▁ver	-1290
▁cross	-1291
▁documents	-1292
ars	-1293
▁add	-1294
ples	-1295
AR	-1296
▁entire	-1297
pur	-1298
▁most	-1299
▁All	-1300
uation	-1301
ivers	-1302
here	-1303
▁Hind	-1304
▁legal	-1305
▁stud	-1306
▁earli	-1307
▁deal	-1308
▁members	-1309
▁maint	-1310
ually	-1311
▁Cent	-1312
ana	-1313
▁entit	-1314
▁days	-1315
▁Coun	-1316
ees	-1317
olog	-1318
▁vi	-1319
ains	-1320
▁far	-1321
▁lead	-1322
▁sale	-1323
▁give	-1324
ences	-1325
ilar	-1326
▁ser	-1327
▁appointment	-1328
▁loc	-1329
ey	-1330
▁Bench	-1331
▁referred	-1332
▁much	-1333
▁start	-1334
pri	-1335
▁mean	-1336
ata	-1337
▁Code	-1338
▁orig	-1339
▁str	-1340
▁Eng	-1341
▁family	-1342
▁herein	-1343
lp	-1344
ons	-1345
▁however	-1346
▁Mag	-1347
▁took	-1348
▁meet	-1349
ateg	-1350
▁prev	-1351
ren	-1352
▁SCC	-1353
ries	-1354
inary	-1355
istered	-1356
▁constru	-1357
▁country	-1358
▁sche	-1359
▁provided	-1360
▁ident	-1361
▁mentioned	-1362
cedure	-1363
▁dra	-1364
▁represent	-1365
eg	-1366
pted	-1367
▁sat	-1368
▁object	-1369
▁Col	-1370
▁position	-1371
▁complain	-1372
ension	-1373
▁examined	-1374
▁left	-1375
oup	-1376
▁allowed	-1377
err	-1378
▁system	-1379
▁According	-1380
ising	-1381
▁based	-1382
ached	-1383
imes	-1384
▁Board	-1385
▁Department	-1386
unic	-1387
▁various	-1388
▁following	-1389
▁fin	-1390
▁manner	-1391
▁argu	-1392
▁et	-1393
orpor	-1394
▁mod	-1395
az	-1396
▁look	-1397
▁conn	-1398
▁world	-1399
▁After	-1400
irm	-1401
ks	-1402
isl	-1403
▁either	-1404
▁tax	-1405
cribed	-1406
▁Tr	-1407
ace	-1408
▁bank	-1409
▁earlier	-1410
by	-1411
king	-1412
ivision	-1413
▁cr	-1414
▁init	-1415
tal	-1416
▁father	-1417
▁exercise	-1418
▁document	-1419
▁how	-1420
▁subst	-1421
▁etc	-1422
▁others	-1423
par	-1424
ron	-1425
ament	-1426
get	-1427
▁Committee	-1428
ions	-1429
unity	-1430
ird	-1431
▁support	-1432
▁cop	-1433
▁doubt	-1434
▁mer	-1435
▁entitled	-1436
▁prom	-1437
▁Vs	-1438
unction	-1439
hib	-1440
▁tem	-1441
cil	-1442
▁written	-1443
uk	-1444
▁transf	-1445
port	-1446
▁contro	-1447
▁placed	-1448
icy	-1449
▁Gu	-1450
▁complainant	-1451
▁orders	-1452
▁Adv	-1453
▁contr	-1454
ogn	-1455
ves	-1456
olution	-1457
▁hum	-1458
ense	-1459
isf	-1460
osp	-1461
iding	-1462
▁determ	-1463
reed	-1464
▁want	-1465
jection	-1466
▁seen	-1467
▁registered	-1468
▁business	-1469
▁proved	-1470
▁Al	-1471
ditional	-1472
▁fore	-1473
▁To	-1474
istration	-1475
wards	-1476
af	-1477
▁words	-1478
▁thus	-1479
ines	-1480
▁great	-1481
istrate	-1482
IC	-1483
▁received	-1484
▁cand	-1485
▁help	-1486
rie	-1487
▁dispute	-1488
▁granted	-1489
▁nor	-1490
▁Dire	-1491
▁indic	-1492
angu	-1493
▁committed	-1494
▁officer	-1495
▁stage	-1496
▁depos	-1497
▁common	-1498
▁raised	-1499
▁sum	-1500
▁making	-1501
osed	-1502
oney	-1503
▁payment	-1504
ested	-1505
▁mere	-1506
▁including	-1507
▁area	-1508
▁candid	-1509
▁taking	-1510
▁class	-1511
▁last	-1512
▁below	-1513
ulation	-1514
▁ten	-1515
ph	-1516
▁means	-1517
▁pun	-1518
▁demand	-1519
ering	-1520
▁invol	-1521
ocate	-1522
ression	-1523
ext	-1524
▁observed	-1525
▁Se	-1526
▁Magistrate	-1527
▁Dr	-1528
oh	-1529
▁criminal	-1530
▁contention	-1531
▁section	-1532
pex	-1533
lected	-1534
iance	-1535
▁conclus	-1536
▁directed	-1537
00	-1538
▁prot	-1539
▁viol	-1540
▁vis	-1541
▁light	-1542
▁son	-1543
▁discus	-1544
arent	-1545
▁satisf	-1546
▁dismissed	-1547
otion	-1548
avit	-1549
▁exc	-1550
▁reasons	-1551
▁going	-1552
▁som	-1553
▁file	-1554
ciety	-1555
atory	-1556
▁dev	-1557
▁Ag	-1558
▁detail	-1559
pr	-1560
▁four	-1561
▁behalf	-1562
▁real	-1563
chn	-1564
▁br	-1565
▁lo	-1566
war	-1567
▁Del	-1568
▁war	-1569
owers	-1570
▁office	-1571
▁away	-1572
▁perform	-1573
rought	-1574
▁head	-1575
AN	-1576
wise	-1577
▁paid	-1578
▁high	-1579
▁ir	-1580
▁final	-1581
▁respon	-1582
▁went	-1583
agraph	-1584
▁continu	-1585
▁Civil	-1586
▁cre	-1587
ake	-1588
overed	-1589
ought	-1590
▁duty	-1591
▁submission	-1592
▁exper	-1593
▁known	-1594
▁reference	-1595
▁You	-1596
▁wife	-1597
ives	-1598
ony	-1599
▁Min	-1600
▁Sri	-1601
▁Bank	-1602
▁accept	-1603
▁himself	-1604
▁obt	-1605
No	-1606
▁justice	-1607
▁produced	-1608
▁langu	-1609
cing	-1610
▁ask	-1611
▁ey	-1612
AT	-1613
▁Central	-1614
▁contended	-1615
▁vict	-1616
▁got	-1617
▁clearly	-1618
▁money	-1619
▁rights	-1620
▁side	-1621
▁decl	-1622
▁brought	-1623
su	-1624
ta	-1625
band	-1626
ways	-1627
▁organ	-1628
ets	-1629
ield	-1630
orn	-1631
ensation	-1632
▁complete	-1633
jud	-1634
▁book	-1635
▁il	-1636
▁Chand	-1637
▁Shri	-1638
itation	-1639
▁ty	-1640
rect	-1641
▁reported	-1642
▁prep	-1643
▁met	-1644
ison	-1645
▁require	-1646
lement	-1647
agar	-1648
▁rule	-1649
▁till	-1650
▁affid	-1651
ani	-1652
ibility	-1653
urrence	-1654
▁Spe	-1655
ics	-1656
endent	-1657
▁government	-1658
RB	-1659
▁illeg	-1660
ts	-1661
▁sugg	-1662
▁acce	-1663
▁thereafter	-1664
stand	-1665
▁Apex	-1666
fficient	-1667
▁prog	-1668
▁original	-1669
▁conditions	-1670
▁never	-1671
▁educ	-1672
▁water	-1673
iversity	-1674
▁Mus	-1675
EN	-1676
▁run	-1677
lf	-1678
▁FIR	-1679
▁IST	-1680
ledge	-1681
ayed	-1682
▁Delhi	-1683
▁Author	-1684
▁counsel	-1685
▁months	-1686
▁instru	-1687
▁policy	-1688
▁mother	-1689
▁Division	-1690
▁priv	-1691
▁tra	-1692
cies	-1693
▁Company	-1694
▁defendants	-1695
▁categ	-1696
▁except	-1697
ger	-1698
▁tend	-1699
▁village	-1700
▁Commissioner	-1701
▁conduct	-1702
▁Respondent	-1703
ivid	-1704
▁reject	-1705
▁happ	-1706
▁hus	-1707
▁assess	-1708
omm	-1709
▁purch	-1710
▁think	-1711
▁fix	-1712
▁decided	-1713
▁group	-1714
▁less	-1715
▁appropri	-1716
ospital	-1717
▁accord	-1718
▁accepted	-1719
▁establish	-1720
anj	-1721
alth	-1722
▁possible	-1723
ively	-1724
▁occurrence	-1725
▁victim	-1726
hile	-1727
uly	-1728
▁Even	-1729
▁wom	-1730
▁specific	-1731
▁adver	-1732
hing	-1733
▁Order	-1734
▁Corpor	-1735
▁indust	-1736
amm	-1737
ellate	-1738
▁short	-1739
▁age	-1740
▁husband	-1741
▁These	-1742
▁paragraph	-1743
▁appointed	-1744
▁main	-1745
▁appears	-1746
▁special	-1747
▁punish	-1748
ER	-1749
ov	-1750
▁deed	-1751
utes	-1752
▁aspect	-1753
▁towards	-1754
▁activ	-1755
ificate	-1756
▁important	-1757
▁regarding	-1758
▁relief	-1759
▁school	-1760
▁rules	-1761
▁sought	-1762
▁authorities	-1763
▁aside	-1764
▁value	-1765
sw	-1766
▁large	-1767
▁care	-1768
▁copy	-1769
▁legisl	-1770
▁Te	-1771
▁small	-1772
▁General	-1773
ms	-1774
error	-1775
hic	-1776
▁pat	-1777
▁compensation	-1778
AL	-1779
▁bre	-1780
▁discl	-1781
ize	-1782
utory	-1783
rest	-1784
▁near	-1785
ization	-1786
▁judicial	-1787
▁regular	-1788
▁cust	-1789
▁admin	-1790
▁prof	-1791
▁too	-1792
resh	-1793
vi	-1794
▁prior	-1795
▁human	-1796
▁dead	-1797
▁affidavit	-1798
▁Nos	-1799
▁failed	-1800
▁relig	-1801
▁spot	-1802
▁keep	-1803
aged	-1804
▁separ	-1805
▁Be	-1806
xt	-1807
▁nat	-1808
ething	-1809
▁interf	-1810
▁old	-1811
▁institution	-1812
▁whole	-1813
▁injuries	-1814
▁later	-1815
▁brother	-1816
▁become	-1817
ential	-1818
ressed	-1819
▁employees	-1820
ists	-1821
idd	-1822
▁fund	-1823
▁five	-1824
▁direction	-1825
▁Not	-1826
overy	-1827
▁valid	-1828
▁qual	-1829
▁Pat	-1830
▁hig	-1831
▁suff	-1832
▁Mad	-1833
▁sever	-1834
▁appropriate	-1835
▁conclusion	-1836
▁similar	-1837
▁sett	-1838
▁appre	-1839
▁knowledge	-1840
▁powers	-1841
ope	-1842
ging	-1843
agement	-1844
▁established	-1845
▁blood	-1846
mb	-1847
▁decree	-1848
▁laid	-1849
▁constit	-1850
ify	-1851
▁language	-1852
umb	-1853
conom	-1854
▁cred	-1855
▁Ab	-1856
▁hearing	-1857
oss	-1858
▁defence	-1859
▁general	-1860
sh	-1861
▁plead	-1862
ably	-1863
▁times	-1864
ane	-1865
soci	-1866
▁objection	-1867
▁sing	-1868
duced	-1869
▁pract	-1870
▁scheme	-1871
▁opport	-1872
▁His	-1873
▁cost	-1874
▁build	-1875
▁full	-1876
▁children	-1877
▁Further	-1878
▁principle	-1879
▁Pl	-1880
▁true	-1881
▁Director	-1882
▁services	-1883
arily	-1884
▁x	-1885
▁polit	-1886
ork	-1887
▁delay	-1888
▁Corporation	-1889
enal	-1890
▁subsequent	-1891
▁goods	-1892
▁Muslim	-1893
▁answ	-1894
▁san	-1895
medi	-1896
ters	-1897
▁stru	-1898
▁neg	-1899
▁gener	-1900
ends	-1901
▁proble	-1902
▁finding	-1903
▁vac	-1904
action	-1905
ali	-1906
▁election	-1907
1;	-1908
td	-1909
▁&#91;	-1910
▁clause	-1911
▁di	-1912
▁University	-1913
▁individ	-1914
▁Engl	-1915
▁prim	-1916
igned	-1917
▁free	-1918
▁enc	-1919
see	-1920
augh	-1921
▁otherwise	-1922
▁enquiry	-1923
▁compet	-1924
▁still	-1925
▁reasonable	-1926
▁sl	-1927
▁charact	-1928
▁working	-1929
▁Ins	-1930
▁apply	-1931
▁Aug	-1932
nex	-1933
▁caused	-1934
▁benefit	-1935
▁submits	-1936
▁principles	-1937
ems	-1938
▁note	-1939
▁correct	-1940
▁several	-1941
▁sufficient	-1942
▁pref	-1943
▁force	-1944
▁IPC	-1945
pal	-1946
▁super	-1947
▁Cont	-1948
▁wr	-1949
amination	-1950
abad	-1951
▁development	-1952
▁presence	-1953
▁asked	-1954
▁respons	-1955
▁sus	-1956
▁Ext	-1957
▁vehic	-1958
▁succ	-1959
▁denied	-1960
oid	-1961
▁injury	-1962
▁procedure	-1963
▁Station	-1964
▁applicant	-1965
iving	-1966
▁Co	-1967
▁prove	-1968
▁incre	-1969
▁nothing	-1970
que	-1971
▁nam	-1972
▁proceeding	-1973
▁What	-1974
▁accordance	-1975
▁social	-1976
▁fram	-1977
▁Advocate	-1978
gr	-1979
▁adop	-1980
ience	-1981
▁individual	-1982
▁substant	-1983
▁next	-1984
▁move	-1985
▁petitions	-1986
▁mand	-1987
▁charges	-1988
lam	-1989
empt	-1990
aly	-1991
▁prescribed	-1992
gar	-1993
▁Serv	-1994
▁Authority	-1995
venue	-1996
▁Cla	-1997
▁Bi	-1998
▁intention	-1999
▁civil	-2000
▁prepared	-2001
▁deposed	-2002
acher	-2003
hys	-2004
day	-2005
lied	-2006
riage	-2007
sed	-2008
▁Sche	-2009
▁six	-2010
▁mo	-2011
▁rate	-2012
▁stre	-2013
▁relied	-2014
▁something	-2015
▁ide	-2016
cious	-2017
▁Q	-2018
▁One	-2019
▁eng	-2020
▁techn	-2021
▁bey	-2022
▁propos	-2023
▁guil	-2024
▁holding	-2025
▁sal	-2026
▁Special	-2027
▁Gr	-2028
▁giving	-2029
▁ess	-2030
▁Ltd	-2031
urned	-2032
▁control	-2033
▁mot	-2034
▁conducted	-2035
▁beyond	-2036
ember	-2037
▁always	-2038
▁official	-2039
▁Page	-2040
▁Courts	-2041
▁meeting	-2042
mber	-2043
▁situation	-2044
ium	-2045
▁matters	-2046
ours	-2047
▁change	-2048
int	-2049
▁senior	-2050
▁tit	-2051
▁Panch	-2052
ault	-2053
ara	-2054
▁es	-2055
▁project	-2056
▁relating	-2057
▁share	-2058
▁return	-2059
▁among	-2060
▁play	-2061
▁ful	-2062
▁third	-2063
▁society	-2064
▁self	-2065
essee	-2066
▁initi	-2067
▁once	-2068
ti	-2069
▁arrest	-2070
thing	-2071
▁div	-2072
▁By	-2073
ape	-2074
▁natural	-2075
rop	-2076
ology	-2077
▁settled	-2078
▁transfer	-2079
▁fal	-2080
ties	-2081
▁extent	-2082
▁econom	-2083
▁fall	-2084
▁private	-2085
▁opportunity	-2086
ann	-2087
icult	-2088
▁dri	-2089
plic	-2090
▁income	-2091
▁kind	-2092
▁market	-2093
ajor	-2094
१०	-2095
▁sk	-2096
▁lic	-2097
▁artic	-2098
ma	-2099
cation	-2100
▁statutory	-2101
▁notification	-2102
▁absence	-2103
▁daugh	-2104
▁meaning	-2105
▁meas	-2106
▁home	-2107
ush	-2108
▁plan	-2109
▁certificate	-2110
▁field	-2111
ancial	-2112
ats	-2113
lege	-2114
ieve	-2115
▁port	-2116
▁therein	-2117
to	-2118
▁Senior	-2119
▁Z	-2120
outh	-2121
▁cult	-2122
▁affect	-2123
aking	-2124
▁filing	-2125
orth	-2126
▁fri	-2127
urd	-2128
▁bar	-2129
▁Prad	-2130
ened	-2131
▁indep	-2132
▁Such	-2133
▁namely	-2134
illed	-2135
▁liable	-2136
▁decla	-2137
▁started	-2138
▁belong	-2139
ern	-2140
▁employee	-2141
ware	-2142
rix	-2143
▁pap	-2144
ury	-2145
cture	-2146
▁ur	-2147
▁chang	-2148
▁contained	-2149
▁Pres	-2150
▁Kar	-2151
▁wherein	-2152
..	-2153
▁norm	-2154
part	-2155
ample	-2156
▁decisions	-2157
▁Chief	-2158
▁wrong	-2159
▁gl	-2160
▁able	-2161
▁trad	-2162
▁medical	-2163
rish	-2164
▁bail	-2165
▁declar	-2166
▁admission	-2167
▁Secret	-2168
▁false	-2169
▁review	-2170
▁New	-2171
▁step	-2172
▁shown	-2173
▁el	-2174
▁total	-2175
▁candidates	-2176
▁statements	-2177
▁arri	-2178
▁bring	-2179
ery	-2180
▁difficult	-2181
ama	-2182
▁unless	-2183
▁carry	-2184
▁Counsel	-2185
▁merely	-2186
▁rejected	-2187
dule	-2188
gether	-2189
▁together	-2190
▁En	-2191
▁hard	-2192
▁construction	-2193
isation	-2194
▁kept	-2195
▁product	-2196
▁character	-2197
▁immedi	-2198
go	-2199
▁Med	-2200
ected	-2201
▁While	-2202
▁Inv	-2203
▁considering	-2204
une	-2205
▁serious	-2206
▁why	-2207
utive	-2208
▁major	-2209
▁level	-2210
▁function	-2211
▁recogn	-2212
▁maintain	-2213
▁HC	-2214
▁ill	-2215
▁lib	-2216
▁With	-2217
▁disch	-2218
isition	-2219
▁Thereafter	-2220
atic	-2221
▁conviction	-2222
law	-2223
▁Hence	-2224
amb	-2225
▁fair	-2226
▁Brit	-2227
▁might	-2228
▁thereof	-2229
▁Me	-2230
▁leave	-2231
for	-2232
▁applicable	-2233
▁lab	-2234
▁Rep	-2235
ruit	-2236
cell	-2237
▁accordingly	-2238
▁sust	-2239
▁amend	-2240
sure	-2241
.-	-2242
▁Islam	-2243
▁illegal	-2244
▁event	-2245
▁expression	-2246
▁Kh	-2247
akh	-2248
▁plaintiffs	-2249
▁aut	-2250
imum	-2251
▁unt	-2252
uf	-2253
selves	-2254
adi	-2255
▁Will	-2256
▁few	-2257
ubl	-2258
▁provide	-2259
▁treat	-2260
▁Public	-2261
▁phys	-2262
▁sanction	-2263
▁Lim	-2264
▁outs	-2265
▁aver	-2266
ises	-2267
▁Pre	-2268
▁Session	-2269
▁feel	-2270
examination	-2271
▁things	-2272
IN	-2273
▁gre	-2274
▁Since	-2275
▁informed	-2276
▁recomm	-2277
▁vehicle	-2278
alk	-2279
hai	-2280
urity	-2281
▁gave	-2282
▁interpre	-2283
▁Edu	-2284
▁claimed	-2285
▁hist	-2286
▁followed	-2287
▁provides	-2288
▁oblig	-2289
alc	-2290
section	-2291
iting	-2292
▁X	-2293
▁department	-2294
▁AIR	-2295
▁states	-2296
▁local	-2297
▁pending	-2298
irit	-2299
▁elect	-2300
▁para	-2301
vey	-2302
▁Pradesh	-2303
istant	-2304
▁challenge	-2305
OR	-2306
▁noted	-2307
▁higher	-2308
▁Part	-2309
▁Hindu	-2310
▁contrary	-2311
▁recei	-2312
▁Appeal	-2313
irt	-2314
▁Sar	-2315
▁Union	-2316
▁executed	-2317
▁oppos	-2318
▁success	-2319
▁sentence	-2320
gin	-2321
▁communic	-2322
▁title	-2323
ently	-2324
▁Now	-2325
▁defin	-2326
iced	-2327
unt	-2328
▁lod	-2329
rah	-2330
▁From	-2331
▁God	-2332
▁Annex	-2333
▁properties	-2334
▁May	-2335
▁pursu	-2336
ulated	-2337
ancy	-2338
▁political	-2339
aving	-2340
▁resident	-2341
▁around	-2342
ita	-2343
▁Sm	-2344
fully	-2345
lu	-2346
iss	-2347
▁poet	-2348
aul	-2349
▁Writ	-2350
▁refer	-2351
▁grounds	-2352
▁loss	-2353
NIC	-2354
▁publ	-2355
▁face	-2356
▁wee	-2357
▁equal	-2358
▁English	-2359
▁daughter	-2360
▁undert	-2361
▁comput	-2362
▁Criminal	-2363
▁owner	-2364
IT	-2365
acy	-2366
▁School	-2367
▁Created	-2368
▁crit	-2369
▁National	-2370
▁request	-2371
▁told	-2372
ling	-2373
▁commission	-2374
ories	-2375
▁recovery	-2376
ENT	-2377
▁Additional	-2378
▁allegations	-2379
▁seeking	-2380
▁fixed	-2381
arma	-2382
▁offences	-2383
▁ann	-2384
with	-2385
▁liter	-2386
▁assessment	-2387
▁prob	-2388
▁marriage	-2389
eb	-2390
▁instant	-2391
▁Lal	-2392
▁pray	-2393
▁relations	-2394
▁best	-2395
omes	-2396
▁vol	-2397
ental	-2398
▁men	-2399
eric	-2400
▁susp	-2401
ricult	-2402
▁prosecut	-2403
▁Under	-2404
▁counter	-2405
▁und	-2406
▁declaration	-2407
▁restr	-2408
tion	-2409
▁little	-2410
▁connection	-2411
▁program	-2412
▁heard	-2413
▁national	-2414
▁treated	-2415
▁Secretary	-2416
cient	-2417
▁follows	-2418
II	-2419
▁ut	-2420
▁involved	-2421
▁courts	-2422
▁price	-2423
▁understand	-2424
▁pop	-2425
▁tre	-2426
▁Cl	-2427
men	-2428
▁Law	-2429
▁Jan	-2430
ead	-2431
▁Sat	-2432
▁became	-2433
▁bal	-2434
▁whose	-2435
▁bound	-2436
▁mil	-2437
anation	-2438
▁testim	-2439
▁Council	-2440
▁Beng	-2441
▁reached	-2442
▁turn	-2443
cipl	-2444
ON	-2445
▁obtained	-2446
▁situ	-2447
▁specif	-2448
▁parent	-2449
▁permission	-2450
ched	-2451
▁framed	-2452
acity	-2453
▁allot	-2454
ues	-2455
hold	-2456
▁financial	-2457
▁gen	-2458
▁mor	-2459
▁Village	-2460
▁education	-2461
▁sw	-2462
▁essential	-2463
▁member	-2464
▁rend	-2465
▁Comm	-2466
liament	-2467
▁Assistant	-2468
▁yet	-2469
▁Petitioner	-2470
▁spirit	-2471
▁receipt	-2472
▁acquit	-2473
▁interim	-2474
▁Gand	-2475
▁Sim	-2476
▁personal	-2477
▁impos	-2478
▁dispos	-2479
▁credit	-2480
▁Let	-2481
ires	-2482
▁room	-2483
udd	-2484
▁appreci	-2485
▁Annexure	-2486
▁grow	-2487
omb	-2488
▁revision	-2489
▁forward	-2490
ulations	-2491
▁issues	-2492
▁exam	-2493
▁cast	-2494
most	-2495
inate	-2496
enced	-2497
▁crime	-2498
atch	-2499
cially	-2500
▁Investig	-2501
▁shows	-2502
▁dr	-2503
▁Sah	-2504
aff	-2505
▁dam	-2506
▁merit	-2507
▁impro	-2508
▁eye	-2509
lying	-2510
▁hence	-2511
▁context	-2512
hibit	-2513
▁seized	-2514
arant	-2515
▁British	-2516
▁story	-2517
ayat	-2518
▁mur	-2519
tlement	-2520
▁Bihar	-2521
▁dom	-2522
▁First	-2523
▁neither	-2524
▁Ra	-2525
work	-2526
▁findings	-2527
▁competent	-2528
cience	-2529
▁premis	-2530
▁declared	-2531
▁reserv	-2532
▁existence	-2533
▁writing	-2534
▁thing	-2535
▁carried	-2536
▁independent	-2537
▁station	-2538
▁Sur	-2539
▁applied	-2540
▁Single	-2541
▁building	-2542
oad	-2543
▁Trial	-2544
▁died	-2545
ote	-2546
cle	-2547
oted	-2548
▁students	-2549
▁additional	-2550
▁remo	-2551
kar	-2552
▁road	-2553
▁arbitration	-2554
aya	-2555
▁type	-2556
▁food	-2557
▁thought	-2558
▁selection	-2559
uled	-2560
acc	-2561
reg	-2562
▁expect	-2563
▁appellate	-2564
uses	-2565
ored	-2566
ethod	-2567
missible	-2568
▁Clause	-2569
▁Sessions	-2570
▁fr	-2571
UD	-2572
ards	-2573
▁love	-2574
asad	-2575
▁entered	-2576
▁records	-2577
▁commit	-2578
umption	-2579
▁eas	-2580
▁bo	-2581
▁intern	-2582
▁posts	-2583
▁Education	-2584
ufact	-2585
imate	-2586
▁single	-2587
wal	-2588
though	-2589
▁extra	-2590
▁fut	-2591
▁gone	-2592
▁details	-2593
▁Americ	-2594
▁search	-2595
▁Arbitr	-2596
▁marked	-2597
eed	-2598
▁sense	-2599
▁design	-2600
arat	-2601
▁summ	-2602
▁approach	-2603
▁coming	-2604
▁whom	-2605
▁alone	-2606
▁specifically	-2607
▁tried	-2608
▁night	-2609
▁arr	-2610
▁reply	-2611
▁young	-2612
▁join	-2613
▁murder	-2614
pector	-2615
▁joint	-2616
▁rendered	-2617
▁imm	-2618
erve	-2619
▁Bal	-2620
olute	-2621
▁constitution	-2622
rated	-2623
▁States	-2624
ude	-2625
cri	-2626
▁cut	-2627
▁mus	-2628
IL	-2629
▁bid	-2630
▁makes	-2631
▁separate	-2632
▁themselves	-2633
▁lat	-2634
unicip	-2635
▁trade	-2636
११	-2637
▁curre	-2638
▁minor	-2639
▁promotion	-2640
▁sour	-2641
▁wind	-2642
▁agg	-2643
ertain	-2644
▁doing	-2645
▁execution	-2646
▁nar	-2647
▁health	-2648
ercial	-2649
ship	-2650
▁specified	-2651
▁March	-2652
▁line	-2653
▁Lab	-2654
▁method	-2655
▁Prov	-2656
▁today	-2657
▁net	-2658
▁Cong	-2659
▁pointed	-2660
▁discussion	-2661
▁Le	-2662
▁teacher	-2663
AM	-2664
▁President	-2665
▁Dis	-2666
aster	-2667
▁env	-2668
judic	-2669
▁occur	-2670
▁testimony	-2671
iter	-2672
▁appearing	-2673
▁particularly	-2674
MENT	-2675
▁applications	-2676
▁Lear	-2677
aled	-2678
pir	-2679
▁cro	-2680
rak	-2681
▁saw	-2682
▁hospital	-2683
▁Though	-2684
▁passing	-2685
uary	-2686
▁plea	-2687
omp	-2688
▁manufact	-2689
oor	-2690
▁officers	-2691
▁Develop	-2692
▁Limited	-2693
▁Pal	-2694
▁challenged	-2695
▁outside	-2696
▁version	-2697
▁ign	-2698
▁Sy	-2699
irl	-2700
▁draw	-2701
▁occup	-2702
endra	-2703
▁directions	-2704
▁registration	-2705
▁recovered	-2706
rob	-2707
▁heart	-2708
▁actually	-2709
dra	-2710
opp	-2711
▁data	-2712
▁prosecutrix	-2713
▁don	-2714
▁saf	-2715
▁Rec	-2716
▁decide	-2717
itive	-2718
▁Krish	-2719
emed	-2720
▁II	-2721
▁lay	-2722
▁mult	-2723
▁During	-2724
▁published	-2725
lector	-2726
▁capital	-2727
▁noticed	-2728
▁fresh	-2729
▁tender	-2730
ED	-2731
ung	-2732
come	-2733
▁Just	-2734
ront	-2735
iously	-2736
▁drawn	-2737
▁cover	-2738
▁reve	-2739
▁areas	-2740
▁ach	-2741
▁squ	-2742
▁activities	-2743
▁live	-2744
▁liability	-2745
▁led	-2746
erg	-2747
▁approval	-2748
istrative	-2749
▁women	-2750
ribution	-2751
AD	-2752
arth	-2753
aka	-2754
▁anything	-2755
▁Nar	-2756
▁z	-2757
▁continue	-2758
oice	-2759
ares	-2760
▁contem	-2761
▁created	-2762
▁Medical	-2763
ously	-2764
▁error	-2765
▁truth	-2766
▁Moh	-2767
▁Procedure	-2768
▁materials	-2769
▁analy	-2770
▁plant	-2771
▁inquiry	-2772
ership	-2773
▁Do	-2774
▁associ	-2775
▁remed	-2776
▁operation	-2777
▁statute	-2778
▁immediately	-2779
▁Pand	-2780
▁Congress	-2781
▁eff	-2782
▁particip	-2783
▁RRB	-2784
▁elig	-2785
▁initial	-2786
▁related	-2787
retion	-2788
▁district	-2789
▁future	-2790
▁hands	-2791
▁Service	-2792
▁permit	-2793
ipur	-2794
sequently	-2795
▁advert	-2796
rs	-2797
▁disposed	-2798
▁amendment	-2799
oper	-2800
▁fra	-2801
▁Guj	-2802
▁Learned	-2803
▁fit	-2804
▁distin	-2805
▁pension	-2806
istry	-2807
▁shop	-2808
▁premises	-2809
▁lower	-2810
▁absolute	-2811
ills	-2812
▁LRB	-2813
ught	-2814
▁Tax	-2815
▁lar	-2816
▁prevent	-2817
▁better	-2818
anies	-2819
▁relation	-2820
▁consist	-2821
▁limited	-2822
oud	-2823
▁reading	-2824
▁sol	-2825
ieved	-2826
▁Bar	-2827
stitute	-2828
▁living	-2829
▁Exec	-2830
▁management	-2831
now	-2832
▁production	-2833
▁instance	-2834
ening	-2835
▁requirement	-2836
ada	-2837
▁trust	-2838
▁questions	-2839
▁Prasad	-2840
▁status	-2841
▁intro	-2842
▁informant	-2843
ortem	-2844
▁Pur	-2845
asion	-2846
▁works	-2847
▁foreign	-2848
▁unf	-2849
▁Apr	-2850
▁scale	-2851
▁art	-2852
▁accident	-2853
land	-2854
▁discipl	-2855
istic	-2856
▁strong	-2857
▁rather	-2858
▁physical	-2859
▁Ev	-2860
▁firm	-2861
▁Engine	-2862
rant	-2863
ran	-2864
▁furn	-2865
▁pert	-2866
▁Development	-2867
ili	-2868
icted	-2869
▁lands	-2870
▁adjudic	-2871
▁sell	-2872
▁close	-2873
orts	-2874
aps	-2875
ruitment	-2876
▁preferred	-2877
▁guarant	-2878
▁least	-2879
▁Gandhi	-2880
▁Lord	-2881
▁news	-2882
ott	-2883
▁injured	-2884
▁ce	-2885
▁past	-2886
▁enfor	-2887
▁explanation	-2888
▁needs	-2889
▁parts	-2890
▁Smt	-2891
▁comes	-2892
▁adj	-2893
▁treatment	-2894
▁subs	-2895
▁security	-2896
using	-2897
urance	-2898
▁dest	-2899
pective	-2900
▁economic	-2901
▁withdra	-2902
ji	-2903
ager	-2904
▁category	-2905
▁Parliament	-2906
bar	-2907
▁conscious	-2908
▁proof	-2909
▁often	-2910
cie	-2911
▁Off	-2912
UR	-2913
▁problem	-2914
▁ult	-2915
▁substantial	-2916
▁Accordingly	-2917
▁fire	-2918
▁existing	-2919
▁Wh	-2920
▁guilty	-2921
▁continued	-2922
▁Sw	-2923
imal	-2924
▁Some	-2925
bed	-2926
▁acquired	-2927
▁scope	-2928
▁benefits	-2929
eng	-2930
▁Mar	-2931
verse	-2932
▁opposite	-2933
▁Inspector	-2934
▁consequ	-2935
▁Collector	-2936
HE	-2937
put	-2938
▁host	-2939
▁names	-2940
▁Ne	-2941
▁Ph	-2942
▁claims	-2943
▁whereas	-2944
▁argument	-2945
semb	-2946
▁impr	-2947
▁performance	-2948
quot	-2949
▁Dece	-2950
▁begin	-2951
▁adopted	-2952
▁reliance	-2953
▁JUD	-2954
luded	-2955
▁representation	-2956
eness	-2957
airs	-2958
▁Leg	-2959
▁employment	-2960
cent	-2961
▁discretion	-2962
unj	-2963
▁key	-2964
▁violation	-2965
▁Second	-2966
▁JUDG	-2967
▁sheet	-2968
▁stay	-2969
▁August	-2970
▁Em	-2971
atures	-2972
▁Devi	-2973
▁becomes	-2974
▁Minister	-2975
▁Panchayat	-2976
▁penal	-2977
▁examine	-2978
▁College	-2979
▁red	-2980
▁fine	-2981
▁capacity	-2982
▁Dist	-2983
▁virt	-2984
▁quite	-2985
▁agricult	-2986
▁attempt	-2987
▁Rel	-2988
▁Bengal	-2989
▁Per	-2990
▁air	-2991
▁purposes	-2992
ankar	-2993
▁page	-2994
▁attention	-2995
nat	-2996
ns	-2997
▁Mo	-2998
▁ded	-2999
▁cell	-3000
▁weap	-3001
rd	-3002
pite	-3003
▁argued	-3004
▁ensure	-3005
▁evident	-3006
ians	-3007
▁Feb	-3008
▁JUDGMENT	-3009
▁nom	-3010
▁Appellant	-3011
▁seiz	-3012
body	-3013
▁role	-3014
▁Brah	-3015
▁mach	-3016
reedom	-3017
▁soon	-3018
▁address	-3019
▁ter	-3020
atives	-3021
tt	-3022
tation	-3023
▁July	-3024
▁permitted	-3025
▁experience	-3026
▁resolution	-3027
▁imprison	-3028
▁ele	-3029
▁Applic	-3030
ier	-3031
uro	-3032
▁using	-3033
▁agreed	-3034
irth	-3035
onment	-3036
▁history	-3037
▁More	-3038
▁Oct	-3039
adu	-3040
▁Bl	-3041
sing	-3042
▁Sun	-3043
▁identified	-3044
▁Where	-3045
▁Sharma	-3046
▁sold	-3047
▁big	-3048
uck	-3049
▁consent	-3050
▁really	-3051
▁paper	-3052
▁religious	-3053
ots	-3054
▁Ka	-3055
ume	-3056
▁Def	-3057
▁perman	-3058
▁sole	-3059
▁born	-3060
▁exercised	-3061
anda	-3062
▁Princi	-3063
▁getting	-3064
▁punishment	-3065
▁influ	-3066
▁April	-3067
▁Investigating	-3068
▁half	-3069
▁Deputy	-3070
va	-3071
▁assessee	-3072
▁January	-3073
▁injunction	-3074
▁Im	-3075
rieved	-3076
▁judgments	-3077
▁assist	-3078
▁produce	-3079
garh	-3080
▁returned	-3081
▁quant	-3082
aries	-3083
▁example	-3084
▁custom	-3085
▁Similar	-3086
▁express	-3087
▁cogn	-3088
rav	-3089
▁countries	-3090
ami	-3091
istrar	-3092
unicipal	-3093
▁ought	-3094
▁thereby	-3095
▁har	-3096
▁stands	-3097
▁steps	-3098
▁Hospital	-3099
▁Ash	-3100
amental	-3101
▁situated	-3102
▁liqu	-3103
▁satisfied	-3104
▁behind	-3105
▁Fin	-3106
▁boy	-3107
▁almost	-3108
▁attack	-3109
ches	-3110
▁Pri	-3111
▁Ah	-3112
▁recommend	-3113
▁custody	-3114
▁portion	-3115
aging	-3116
hatt	-3117
▁woman	-3118
▁cancell	-3119
▁covered	-3120
▁Shiv	-3121
▁Indust	-3122
iso	-3123
▁Cons	-3124
view	-3125
▁Sept	-3126
▁wa	-3127
▁observations	-3128
▁completed	-3129
▁emp	-3130
▁judge	-3131
▁quas	-3132
▁imprisonment	-3133
▁girl	-3134
▁....	-3135
▁answer	-3136
aching	-3137
▁balance	-3138
ators	-3139
inated	-3140
▁computer	-3141
▁loan	-3142
▁respective	-3143
▁dise	-3144
▁implement	-3145
▁Har	-3146
▁acquisition	-3147
cription	-3148
▁addition	-3149
▁entry	-3150
▁tell	-3151
▁stip	-3152
▁supported	-3153
▁enough	-3154
▁My	-3155
uction	-3156
rut	-3157
▁const	-3158
▁streng	-3159
▁previous	-3160
itor	-3161
▁parents	-3162
▁Nagar	-3163
▁December	-3164
▁aud	-3165
▁mill	-3166
ruary	-3167
▁Case	-3168
▁seek	-3169
▁appeals	-3170
▁Executive	-3171
▁marks	-3172
ES	-3173
▁Trans	-3174
▁temple	-3175
▁facie	-3176
▁simple	-3177
▁awarded	-3178
▁February	-3179
▁punishable	-3180
▁aware	-3181
▁lodged	-3182
▁Ma	-3183
▁sex	-3184
▁hy	-3185
▁Mahar	-3186
imately	-3187
▁seizure	-3188
▁phot	-3189
▁quar	-3190
▁threat	-3191
▁suggestion	-3192
itiz	-3193
▁rent	-3194
hra	-3195
▁Wor	-3196
▁movement	-3197
rol	-3198
▁integ	-3199
adav	-3200
▁pack	-3201
▁Govern	-3202
▁lease	-3203
pta	-3204
▁exclus	-3205
▁Bab	-3206
▁enj	-3207
▁mess	-3208
▁fraud	-3209
▁implic	-3210
▁House	-3211
ump	-3212
ration	-3213
▁September	-3214
▁default	-3215
▁check	-3216
▁clar	-3217
▁duly	-3218
▁committee	-3219
▁concept	-3220
wan	-3221
ironment	-3222
▁recruitment	-3223
▁Ple	-3224
▁freedom	-3225
uru	-3226
ground	-3227
▁signature	-3228
▁CR	-3229
ows	-3230
▁Patna	-3231
▁basic	-3232
▁register	-3233
▁hours	-3234
▁imposed	-3235
ancies	-3236
▁Exhibit	-3237
▁ever	-3238
▁employer	-3239
oke	-3240
orrow	-3241
▁Bomb	-3242
▁relationship	-3243
-0	-3244
▁says	-3245
ams	-3246
irmed	-3247
sis	-3248
▁institutions	-3249
▁Then	-3250
ival	-3251
▁remain	-3252
▁discussed	-3253
▁practice	-3254
▁cogniz	-3255
▁fully	-3256
▁dealing	-3257
▁Hindi	-3258
▁sister	-3259
obile	-3260
▁Ac	-3261
▁prima	-3262
equ	-3263
uel	-3264
▁responsible	-3265
ayan	-3266
▁submissions	-3267
lack	-3268
▁fun	-3269
▁until	-3270
▁sustained	-3271
CT	-3272
▁acts	-3273
▁conver	-3274
▁Chandra	-3275
uties	-3276
▁Isra	-3277
▁Other	-3278
▁litig	-3279
▁Gujarat	-3280
▁proviso	-3281
ina	-3282
assion	-3283
porary	-3284
▁region	-3285
asing	-3286
hu	-3287
▁Fore	-3288
▁settlement	-3289
▁Bhag	-3290
▁prayer	-3291
ender	-3292
▁facil	-3293
▁vari	-3294
▁apart	-3295
ograph	-3296
▁Revenue	-3297
▁Scheme	-3298
▁Justice	-3299
▁Punj	-3300
hand	-3301
▁June	-3302
▁adverse	-3303
dd	-3304
▁cur	-3305
▁deep	-3306
BI	-3307
▁vill	-3308
▁candidate	-3309
▁ren	-3310
▁fell	-3311
▁Super	-3312
▁front	-3313
▁Bombay	-3314
▁instead	-3315
▁accounts	-3316
▁remained	-3317
▁Israel	-3318
▁text	-3319
iring	-3320
▁articles	-3321
▁Registrar	-3322
▁sound	-3323
▁log	-3324
▁doctor	-3325
▁industrial	-3326
▁pie	-3327
ourn	-3328
▁proposed	-3329
▁setting	-3330
iary	-3331
▁ii	-3332
▁Go	-3333
▁IT	-3334
▁top	-3335
▁install	-3336
under	-3337
▁arrived	-3338
itude	-3339
let	-3340
▁Punjab	-3341
▁remedy	-3342
line	-3343
▁oral	-3344
▁early	-3345
els	-3346
oti	-3347
▁Muslims	-3348
▁community	-3349
▁suggest	-3350
▁Mand	-3351
heduled	-3352
▁repe	-3353
▁seven	-3354
▁substance	-3355
▁connected	-3356
▁Shah	-3357
▁signed	-3358
▁inn	-3359
▁create	-3360
lled	-3361
ilities	-3362
ift	-3363
anced	-3364
▁revenue	-3365
ober	-3366
▁Appellate	-3367
▁fundamental	-3368
▁birth	-3369
▁option	-3370
▁administration	-3371
▁limit	-3372
▁duties	-3373
▁Ors	-3374
▁discharge	-3375
▁tradition	-3376
ins	-3377
▁believe	-3378
▁altern	-3379
▁Sam	-3380
▁problems	-3381
▁mag	-3382
ones	-3383
▁failure	-3384
▁signific	-3385
▁advertise	-3386
▁initiated	-3387
,00	-3388
▁List	-3389
▁invest	-3390
▁supply	-3391
▁defined	-3392
▁inside	-3393
chan	-3394
▁link	-3395
robor	-3396
▁Gov	-3397
▁Dev	-3398
▁instrument	-3399
▁wid	-3400
▁citiz	-3401
eration	-3402
▁goes	-3403
iddle	-3404
▁source	-3405
hood	-3406
▁allegation	-3407
▁October	-3408
▁deposit	-3409
ras	-3410
pecially	-3411
▁include	-3412
▁apparent	-3413
▁access	-3414
▁memo	-3415
▁Schedule	-3416
▁Bhar	-3417
enance	-3418
▁places	-3419
▁definition	-3420
▁likely	-3421
▁protection	-3422
▁Prak	-3423
ales	-3424
▁merits	-3425
▁wide	-3426
▁deg	-3427
▁appe	-3428
▁Principal	-3429
nam	-3430
▁actual	-3431
▁fig	-3432
▁sil	-3433
▁enjoy	-3434
▁approved	-3435
▁tele	-3436
▁Son	-3437
▁Yadav	-3438
▁Office	-3439
▁Krishna	-3440
▁running	-3441
ke	-3442
▁included	-3443
▁Jag	-3444
utta	-3445
▁Das	-3446
ION	-3447
de	-3448
com	-3449
▁requires	-3450
▁Of	-3451
▁books	-3452
▁transaction	-3453
▁deemed	-3454
ifications	-3455
duct	-3456
▁Vi	-3457
▁terror	-3458
▁corrobor	-3459
ET	-3460
▁generally	-3461
▁interpretation	-3462
amil	-3463
▁Penal	-3464
▁prejud	-3465
▁industry	-3466
ansk	-3467
▁job	-3468
▁PO	-3469
▁minimum	-3470
▁normal	-3471
▁permanent	-3472
change	-3473
ifying	-3474
rote	-3475
▁Bas	-3476
१२	-3477
▁mut	-3478
▁occasion	-3479
▁extended	-3480
▁West	-3481
▁Artic	-3482
▁convicted	-3483
▁especially	-3484
▁Intern	-3485
▁religion	-3486
▁burd	-3487
▁Af	-3488
▁enter	-3489
▁sou	-3490
▁Judicial	-3491
▁Euro	-3492
▁lost	-3493
▁safe	-3494
ga	-3495
▁guide	-3496
▁disputed	-3497
▁difference	-3498
iny	-3499
▁Dh	-3500
adem	-3501
▁bad	-3502
itary	-3503
▁Sa	-3504
anskrit	-3505
▁explained	-3506
▁bearing	-3507
oj	-3508
▁grie	-3509
▁activity	-3510
▁intended	-3511
▁wanted	-3512
▁described	-3513
istan	-3514
▁pleaded	-3515
▁communication	-3516
umer	-3517
▁forth	-3518
▁speak	-3519
▁possess	-3520
▁determined	-3521
enses	-3522
▁takes	-3523
▁rightly	-3524
▁keeping	-3525
▁providing	-3526
▁stating	-3527
▁disclosed	-3528
▁recording	-3529
RI	-3530
▁city	-3531
▁served	-3532
anga	-3533
▁Europe	-3534
▁libert	-3535
ava	-3536
▁else	-3537
▁doct	-3538
▁current	-3539
▁claimant	-3540
▁distance	-3541
▁Application	-3542
asm	-3543
rid	-3544
▁faith	-3545
OU	-3546
▁East	-3547
ological	-3548
▁Municipal	-3549
▁developed	-3550
▁Mal	-3551
▁wrote	-3552
▁Pe	-3553
▁Ref	-3554
standing	-3555
▁earth	-3556
▁mental	-3557
▁none	-3558
▁partition	-3559
avi	-3560
▁mort	-3561
▁typ	-3562
▁structure	-3563
▁compliance	-3564
iti	-3565
tra	-3566
▁low	-3567
▁Associ	-3568
apur	-3569
ector	-3570
▁aspects	-3571
▁disclos	-3572
sy	-3573
▁Mem	-3574
ini	-3575
▁debt	-3576
▁purchase	-3577
▁appeared	-3578
rig	-3579
▁Som	-3580
▁Admin	-3581
▁contrad	-3582
▁arise	-3583
▁arbitrator	-3584
▁lot	-3585
▁limitation	-3586
eria	-3587
umed	-3588
▁site	-3589
aut	-3590
elt	-3591
▁deli	-3592
▁aggrieved	-3593
▁fee	-3594
▁collect	-3595
aran	-3596
▁Similarly	-3597
ora	-3598
othes	-3599
▁fulf	-3600
▁quash	-3601
ining	-3602
▁selected	-3603
ilt	-3604
icide	-3605
▁quality	-3606
hest	-3607
▁peace	-3608
▁commercial	-3609
duce	-3610
▁offered	-3611
▁insp	-3612
rine	-3613
▁tree	-3614
▁completion	-3615
AS	-3616
▁conferred	-3617
be	-3618
▁arrested	-3619
hem	-3620
▁Nove	-3621
▁preced	-3622
itable	-3623
▁lack	-3624
▁progress	-3625
▁esc	-3626
▁hon	-3627
▁detention	-3628
▁expressed	-3629
▁ll	-3630
▁transferred	-3631
isgarh	-3632
▁bod	-3633
▁contempl	-3634
▁corpor	-3635
duction	-3636
sect	-3637
▁modern	-3638
▁reads	-3639
▁administrative	-3640
,000	-3641
▁Gupta	-3642
apter	-3643
▁Sanskrit	-3644
▁November	-3645
▁technical	-3646
▁offer	-3647
▁shares	-3648
▁bill	-3649
▁unre	-3650
▁US	-3651
▁breach	-3652
▁lakh	-3653
▁Chhatt	-3654
ordinate	-3655
▁Legisl	-3656
inding	-3657
▁sure	-3658
encies	-3659
▁enforce	-3660
bs	-3661
▁burden	-3662
▁Ak	-3663
▁remains	-3664
cise	-3665
▁weeks	-3666
▁pursuant	-3667
▁objections	-3668
▁er	-3669
▁heav	-3670
▁United	-3671
▁protect	-3672
eral	-3673
▁carrying	-3674
▁indicated	-3675
▁THE	-3676
▁retire	-3677
mi	-3678
uge	-3679
▁directly	-3680
jay	-3681
▁arm	-3682
▁wall	-3683
rug	-3684
▁gra	-3685
mortem	-3686
▁interfere	-3687
▁govern	-3688
▁arrange	-3689
▁disciplinary	-3690
▁Chhattisgarh	-3691
▁Labour	-3692
▁interference	-3693
▁uns	-3694
▁liberty	-3695
▁completely	-3696
▁licence	-3697
▁Both	-3698
▁stri	-3699
▁Karnat	-3700
▁determination	-3701
▁prayed	-3702
▁products	-3703
▁unit	-3704
▁background	-3705
▁Society	-3706
aded	-3707
▁laws	-3708
▁Evidence	-3709
uting	-3710
▁ST	-3711
▁CPC	-3712
▁points	-3713
▁meant	-3714
▁panch	-3715
▁scrut	-3716
▁subsequently	-3717
▁handed	-3718
▁inqu	-3719
rog	-3720
aulted	-3721
▁emb	-3722
▁Land	-3723
▁forms	-3724
▁Des	-3725
▁proceeded	-3726
enty	-3727
▁Before	-3728
▁although	-3729
estern	-3730
▁study	-3731
▁categor	-3732
▁century	-3733
▁Rail	-3734
oo	-3735
▁prin	-3736
▁changes	-3737
▁quashed	-3738
aken	-3739
▁refers	-3740
▁size	-3741
etimes	-3742
▁imper	-3743
AG	-3744
▁Karnataka	-3745
▁schedule	-3746
▁collected	-3747
aily	-3748
gment	-3749
▁justified	-3750
isc	-3751
▁kill	-3752
iture	-3753
▁gives	-3754
▁wound	-3755
▁tenant	-3756
▁affected	-3757
▁constituted	-3758
▁fif	-3759
▁tot	-3760
▁looking	-3761
▁Shankar	-3762
▁strength	-3763
▁leading	-3764
▁try	-3765
▁asc	-3766
▁penalty	-3767
att	-3768
▁repro	-3769
ask	-3770
▁griev	-3771
▁Assam	-3772
lling	-3773
▁Calc	-3774
▁00	-3775
▁Chair	-3776
▁eight	-3777
▁obligation	-3778
▁literature	-3779
▁Tamil	-3780
io	-3781
liminary	-3782
▁regards	-3783
▁Kal	-3784
▁amounts	-3785
ading	-3786
▁receive	-3787
lines	-3788
▁added	-3789
▁maintainable	-3790
▁Stat	-3791
▁eyes	-3792
▁ordinary	-3793
▁gold	-3794
ousand	-3795
▁admit	-3796
▁engaged	-3797
▁properly	-3798
▁staff	-3799
▁Can	-3800
▁warrant	-3801
▁SCA	-3802
▁Regulations	-3803
utor	-3804
▁detailed	-3805
she	-3806
▁servant	-3807
▁eligible	-3808
▁granting	-3809
▁AP	-3810
▁Nag	-3811
▁Set	-3812
sembly	-3813
▁contents	-3814
▁article	-3815
▁OF	-3816
▁harm	-3817
▁validity	-3818
▁arbitrary	-3819
▁payable	-3820
▁letters	-3821
▁strict	-3822
▁Po	-3823
vision	-3824
▁conven	-3825
aun	-3826
ler	-3827
▁king	-3828
▁Report	-3829
▁felt	-3830
▁How	-3831
▁Sab	-3832
ength	-3833
▁network	-3834
usion	-3835
ables	-3836
▁extre	-3837
▁AG	-3838
▁advance	-3839
▁salary	-3840
▁mass	-3841
estic	-3842
▁effective	-3843
▁constitutional	-3844
▁assaulted	-3845
▁qualification	-3846
▁black	-3847
ND	-3848
pper	-3849
wari	-3850
▁named	-3851
ena	-3852
CC	-3853
usted	-3854
wa	-3855
▁guilt	-3856
▁friends	-3857
▁Class	-3858
▁indicate	-3859
▁unable	-3860
▁Ministry	-3861
▁disease	-3862
▁river	-3863
▁friend	-3864
ingu	-3865
▁partn	-3866
▁greater	-3867
▁Pak	-3868
▁pot	-3869
ishing	-3870
▁formed	-3871
▁scient	-3872
ox	-3873
usal	-3874
▁advocate	-3875
elf	-3876
olly	-3877
▁Road	-3878
osh	-3879
▁Hy	-3880
atever	-3881
rown	-3882
▁Any	-3883
▁Ker	-3884
▁round	-3885
▁measure	-3886
▁stood	-3887
▁environment	-3888
▁Red	-3889
▁presented	-3890
rate	-3891
▁der	-3892
anger	-3893
▁Jain	-3894
▁entr	-3895
▁percent	-3896
mes	-3897
▁companies	-3898
aves	-3899
▁Khan	-3900
▁Calcutta	-3901
▁arguments	-3902
▁dischar	-3903
haps	-3904
▁Whe	-3905
▁suc	-3906
▁advertisement	-3907
▁Arab	-3908
▁invok	-3909
▁forest	-3910
▁factors	-3911
▁importance	-3912
▁standard	-3913
▁motor	-3914
angal	-3915
▁Post	-3916
▁max	-3917
▁talk	-3918
▁tri	-3919
▁Their	-3920
▁agency	-3921
▁NO	-3922
▁expected	-3923
▁legislature	-3924
▁labour	-3925
▁turned	-3926
urer	-3927
▁obv	-3928
▁virtue	-3929
▁Moreover	-3930
▁requested	-3931
▁mist	-3932
▁seems	-3933
▁sac	-3934
▁path	-3935
▁Add	-3936
esides	-3937
▁Stand	-3938
▁err	-3939
▁excess	-3940
operative	-3941
▁Prof	-3942
▁won	-3943
ocation	-3944
▁standing	-3945
▁write	-3946
uls	-3947
▁reiter	-3948
▁morning	-3949
▁whereby	-3950
ply	-3951
▁Mon	-3952
umbai	-3953
▁emer	-3954
▁succeed	-3955
▁ali	-3956
ricity	-3957
▁purchased	-3958
▁lev	-3959
▁plus	-3960
▁idea	-3961
▁preliminary	-3962
▁termination	-3963
▁Dhar	-3964
▁Block	-3965
▁insect	-3966
▁comb	-3967
▁respectively	-3968
▁door	-3969
▁cheque	-3970
eep	-3971
▁refused	-3972
▁democ	-3973
ikh	-3974
▁investigating	-3975
▁exception	-3976
ula	-3977
ailed	-3978
▁conflic	-3979
▁Pers	-3980
▁vested	-3981
▁dealt	-3982
▁enact	-3983
rew	-3984
▁Trust	-3985
▁pleadings	-3986
nother	-3987
▁miscon	-3988
▁sle	-3989
dy	-3990
▁mom	-3991
▁mode	-3992
endence	-3993
▁arising	-3994
▁vacancies	-3995
▁instructions	-3996
▁length	-3997
▁Once	-3998
....	-3999
▁hous	-4000
ID	-4001
▁Qu	-4002
▁Another	-4003
atio	-4004
▁assets	-4005
▁unc	-4006
▁energ	-4007
▁Direct	-4008
osop	-4009
▁Vish	-4010
▁incorpor	-4011
▁alternative	-4012
▁nos	-4013
▁functions	-4014
▁Kam	-4015
aught	-4016
iable	-4017
▁amended	-4018
▁mobile	-4019
▁majority	-4020
▁approached	-4021
▁pros	-4022
▁transl	-4023
▁despite	-4024
▁numbers	-4025
▁acquittal	-4026
▁mandatory	-4027
ota	-4028
ternal	-4029
stituted	-4030
undred	-4031
orse	-4032
▁saying	-4033
▁officials	-4034
where	-4035
▁maintenance	-4036
abh	-4037
▁god	-4038
▁longer	-4039
▁applicants	-4040
▁legislation	-4041
▁South	-4042
▁issuance	-4043
▁temporary	-4044
▁establishment	-4045
▁territ	-4046
▁transport	-4047
▁fast	-4048
▁increase	-4049
▁presumption	-4050
▁late	-4051
nces	-4052
▁Plan	-4053
adh	-4054
▁CO	-4055
▁assault	-4056
▁contentions	-4057
▁analysis	-4058
▁cat	-4059
▁Head	-4060
rief	-4061
▁anim	-4062
▁factual	-4063
▁novel	-4064
▁workers	-4065
▁Whether	-4066
▁tal	-4067
▁calc	-4068
reement	-4069
▁Sp	-4070
▁DW	-4071
thern	-4072
▁soft	-4073
PA	-4074
▁week	-4075
▁cognizance	-4076
▁growth	-4077
▁teachers	-4078
▁pred	-4079
aram	-4080
▁phone	-4081
▁constitute	-4082
appa	-4083
mir	-4084
ulate	-4085
▁Resident	-4086
arya	-4087
▁Ved	-4088
▁fem	-4089
ilosop	-4090
▁maintained	-4091
lies	-4092
▁dismissal	-4093
EL	-4094
▁perf	-4095
▁visit	-4096
▁colour	-4097
▁deposited	-4098
▁suffered	-4099
▁thousand	-4100
EC	-4101
phas	-4102
▁fear	-4103
ka	-4104
▁rese	-4105
pap	-4106
▁Here	-4107
▁accomp	-4108
▁advant	-4109
▁charged	-4110
dden	-4111
▁imag	-4112
▁daily	-4113
▁educational	-4114
▁cy	-4115
antly	-4116
▁origin	-4117
▁resour	-4118
hab	-4119
▁responsibility	-4120
▁belonging	-4121
▁motive	-4122
▁happened	-4123
▁proposal	-4124
▁remaining	-4125
▁attached	-4126
EAR	-4127
▁ordered	-4128
▁base	-4129
cer	-4130
▁finds	-4131
▁dying	-4132
▁contain	-4133
▁larger	-4134
▁agricultural	-4135
▁Andhra	-4136
olk	-4137
vere	-4138
▁Power	-4139
▁seniority	-4140
▁square	-4141
▁Mumbai	-4142
▁poor	-4143
▁entertain	-4144
▁interested	-4145
▁diss	-4146
ailing	-4147
▁costs	-4148
▁contact	-4149
▁confirmed	-4150
bhai	-4151
▁Account	-4152
▁Mu	-4153
▁coll	-4154
▁film	-4155
▁corres	-4156
▁pen	-4157
▁clothes	-4158
▁lying	-4159
ograp	-4160
▁finally	-4161
ne	-4162
▁element	-4163
▁ratio	-4164
pat	-4165
▁principal	-4166
ech	-4167
▁cal	-4168
▁item	-4169
▁Prosec	-4170
▁events	-4171
agh	-4172
raj	-4173
▁sty	-4174
vention	-4175
▁Health	-4176
▁viz	-4177
oting	-4178
▁Having	-4179
▁guarantee	-4180
▁bat	-4181
▁circumstance	-4182
३०	-4183
▁avoid	-4184
▁degree	-4185
▁ready	-4186
▁Superint	-4187
▁concluded	-4188
▁Regulation	-4189
▁proposition	-4190
ley	-4191
ndra	-4192
▁user	-4193
▁hundred	-4194
▁SH	-4195
▁suspic	-4196
▁stamp	-4197
endency	-4198
▁Manager	-4199
▁ris	-4200
▁Her	-4201
▁pure	-4202
▁publication	-4203
▁volunt	-4204
▁contains	-4205
ton	-4206
▁demon	-4207
▁released	-4208
vement	-4209
rist	-4210
▁pain	-4211
▁directing	-4212
▁tribunal	-4213
▁Kash	-4214
▁bi	-4215
▁rise	-4216
▁response	-4217
▁popular	-4218
▁release	-4219
▁bit	-4220
▁Please	-4221
▁१	-4222
▁Scheduled	-4223
१३	-4224
olved	-4225
ulted	-4226
▁sudden	-4227
▁confirm	-4228
▁deserv	-4229
▁Utt	-4230
▁spread	-4231
▁ow	-4232
▁bur	-4233
▁void	-4234
▁showing	-4235
plied	-4236
▁Engineer	-4237
▁disposal	-4238
ammu	-4239
actions	-4240
▁profession	-4241
ributed	-4242
▁Techn	-4243
▁began	-4244
▁enable	-4245
▁energy	-4246
iy	-4247
accused	-4248
▁moved	-4249
▁confidence	-4250
right	-4251
▁send	-4252
▁American	-4253
▁requirements	-4254
pped	-4255
uman	-4256
▁broad	-4257
▁Priv	-4258
▁emphas	-4259
urb	-4260
▁PR	-4261
▁cond	-4262
▁mechan	-4263
▁Jammu	-4264
▁fight	-4265
▁hereby	-4266
▁Gh	-4267
▁married	-4268
▁filled	-4269
rel	-4270
▁extension	-4271
▁Lok	-4272
▁AS	-4273
▁worked	-4274
▁usually	-4275
ja	-4276
▁aid	-4277
▁stop	-4278
▁funds	-4279
▁Ms	-4280
▁prop	-4281
▁pron	-4282
▁cash	-4283
▁Every	-4284
▁weight	-4285
▁song	-4286
▁space	-4287
▁population	-4288
▁rout	-4289
ashtra	-4290
▁raise	-4291
▁Services	-4292
azar	-4293
▁urged	-4294
▁million	-4295
▁Association	-4296
▁exem	-4297
▁ru	-4298
iber	-4299
▁Char	-4300
▁mortg	-4301
▁prohib	-4302
▁weak	-4303
▁Ahmed	-4304
formation	-4305
▁ep	-4306
▁retirement	-4307
oms	-4308
▁totally	-4309
lal	-4310
▁Ali	-4311
▁camp	-4312
▁crores	-4313
▁Accused	-4314
▁conspir	-4315
▁culture	-4316
itness	-4317
▁compassion	-4318
▁correspond	-4319
▁bed	-4320
▁burn	-4321
▁notes	-4322
▁looked	-4323
▁undergo	-4324
▁cited	-4325
▁weapon	-4326
▁Management	-4327
▁assistance	-4328
▁binding	-4329
essor	-4330
▁influence	-4331
▁Ob	-4332
▁disputes	-4333
▁international	-4334
▁determine	-4335
▁Ur	-4336
▁cruel	-4337
▁rail	-4338
▁achieve	-4339
▁issuing	-4340
▁ing	-4341
▁reports	-4342
▁conce	-4343
uss	-4344
▁Muk	-4345
▁driver	-4346
ni	-4347
▁bon	-4348
▁Di	-4349
atha	-4350
▁sides	-4351
udh	-4352
▁device	-4353
▁Int	-4354
▁Cert	-4355
▁caste	-4356
▁Up	-4357
▁Br	-4358
▁sample	-4359
▁science	-4360
▁changed	-4361
▁license	-4362
▁identification	-4363
ques	-4364
▁secured	-4365
▁hostile	-4366
▁minister	-4367
▁spiritual	-4368
asth	-4369
oured	-4370
▁moment	-4371
▁permissible	-4372
▁pan	-4373
ademic	-4374
▁oil	-4375
▁autom	-4376
▁schools	-4377
▁removed	-4378
▁includes	-4379
iya	-4380
issa	-4381
▁causing	-4382
▁message	-4383
PS	-4384
▁Mark	-4385
▁bear	-4386
▁items	-4387
ighb	-4388
owry	-4389
▁pict	-4390
▁Kerala	-4391
▁cou	-4392
▁formal	-4393
esting	-4394
asa	-4395
▁innoc	-4396
▁facilities	-4397
enth	-4398
▁break	-4399
▁deposition	-4400
stood	-4401
inder	-4402
▁Income	-4403
▁soul	-4404
▁papers	-4405
▁extreme	-4406
▁distinct	-4407
while	-4408
aneous	-4409
▁litigation	-4410
vis	-4411
▁render	-4412
▁introduced	-4413
▁Inter	-4414
alid	-4415
▁Tal	-4416
▁groups	-4417
▁eval	-4418
▁frame	-4419
MC	-4420
▁save	-4421
▁indicates	-4422
▁collection	-4423
▁survey	-4424
▁expenses	-4425
▁certainly	-4426
ique	-4427
utation	-4428
▁dig	-4429
▁expert	-4430
▁central	-4431
enditure	-4432
▁affairs	-4433
▁displ	-4434
▁interests	-4435
▁medic	-4436
▁arises	-4437
▁employed	-4438
DA	-4439
▁Ent	-4440
▁built	-4441
▁guidelines	-4442
▁Fl	-4443
cribe	-4444
▁grand	-4445
hya	-4446
▁adequ	-4447
regular	-4448
▁neighb	-4449
▁Orissa	-4450
▁satisfaction	-4451
▁borrow	-4452
▁scene	-4453
ictions	-4454
▁closed	-4455
▁harass	-4456
▁prejudice	-4457
cel	-4458
eties	-4459
▁vital	-4460
inating	-4461
iency	-4462
▁piece	-4463
▁lap	-4464
lder	-4465
▁Kan	-4466
▁Sanj	-4467
▁board	-4468
▁beginning	-4469
▁journ	-4470
orand	-4471
▁philosop	-4472
▁cad	-4473
▁Industrial	-4474
▁Agreement	-4475
▁description	-4476
rep	-4477
▁lac	-4478
▁former	-4479
▁latter	-4480
▁YEAR	-4481
▁jail	-4482
▁exchange	-4483
rif	-4484
▁rul	-4485
acted	-4486
▁minutes	-4487
▁results	-4488
▁Tw	-4489
elling	-4490
orandum	-4491
▁Chairman	-4492
▁bodies	-4493
▁newspap	-4494
▁fac	-4495
▁Only	-4496
▁liquid	-4497
▁departmental	-4498
ague	-4499
herent	-4500
▁poetry	-4501
▁memory	-4502
▁advantage	-4503
▁containing	-4504
▁lad	-4505
ounce	-4506
▁quoted	-4507
▁wholly	-4508
▁poll	-4509
▁opened	-4510
▁team	-4511
▁neglig	-4512
▁ax	-4513
▁primary	-4514
chand	-4515
▁genu	-4516
▁sun	-4517
▁Kish	-4518
▁drug	-4519
▁acted	-4520
▁joined	-4521
ades	-4522
▁aim	-4523
NA	-4524
ncy	-4525
▁irregular	-4526
▁reach	-4527
▁exceed	-4528
▁Sal	-4529
▁pattern	-4530
etic	-4531
▁Group	-4532
▁advanced	-4533
▁negative	-4534
▁college	-4535
utt	-4536
▁Car	-4537
▁sexual	-4538
aur	-4539
oon	-4540
▁Roy	-4541
▁defect	-4542
▁trying	-4543
▁whatever	-4544
▁Nath	-4545
▁trib	-4546
eel	-4547
▁demonst	-4548
▁visited	-4549
▁plot	-4550
▁valu	-4551
orney	-4552
▁consequence	-4553
▁possibility	-4554
▁acquitted	-4555
▁discrim	-4556
▁Ant	-4557
▁sitting	-4558
▁Ge	-4559
▁cry	-4560
▁paragraphs	-4561
▁hereinafter	-4562
▁observation	-4563
▁exercising	-4564
uous	-4565
▁pendency	-4566
▁Respondents	-4567
▁brief	-4568
▁Institute	-4569
asw	-4570
▁knew	-4571
▁gun	-4572
▁legislative	-4573
▁fill	-4574
▁claiming	-4575
▁referring	-4576
▁absolutely	-4577
▁Net	-4578
▁chem	-4579
▁manif	-4580
▁allotment	-4581
head	-4582
held	-4583
▁farm	-4584
▁adjudication	-4585
▁multip	-4586
▁Chapter	-4587
▁ago	-4588
▁distingu	-4589
▁fat	-4590
ellig	-4591
▁violence	-4592
▁confession	-4593
ken	-4594
▁depri	-4595
requ	-4596
▁YEARS	-4597
ourth	-4598
▁gets	-4599
▁complex	-4600
▁PM	-4601
ites	-4602
▁promis	-4603
▁sym	-4604
LA	-4605
▁necessarily	-4606
▁thereto	-4607
▁criteria	-4608
▁Arbitrator	-4609
▁units	-4610
gor	-4611
irs	-4612
ishes	-4613
▁answered	-4614
erted	-4615
aksh	-4616
▁Sant	-4617
▁flow	-4618
▁sleep	-4619
▁Pakistan	-4620
▁Op	-4621
▁sector	-4622
▁occurred	-4623
▁mal	-4624
▁commence	-4625
▁addressed	-4626
▁Jh	-4627
▁cho	-4628
▁alia	-4629
▁highly	-4630
▁Control	-4631
▁highest	-4632
▁comprom	-4633
▁nation	-4634
▁King	-4635
▁domestic	-4636
▁Maharashtra	-4637
▁white	-4638
▁killed	-4639
▁Right	-4640
ze	-4641
una	-4642
▁lie	-4643
▁seats	-4644
lude	-4645
▁swe	-4646
▁press	-4647
oned	-4648
▁Governor	-4649
▁expenditure	-4650
▁Circ	-4651
▁hope	-4652
▁uncon	-4653
▁understood	-4654
▁Met	-4655
iment	-4656
▁rape	-4657
▁deciding	-4658
▁training	-4659
▁card	-4660
▁huge	-4661
▁San	-4662
▁views	-4663
elled	-4664
▁consequent	-4665
▁minus	-4666
ror	-4667
▁Elect	-4668
aintiff	-4669
inent	-4670
▁elected	-4671
▁ultimately	-4672
▁Bai	-4673
▁feet	-4674
▁auction	-4675
▁Defendant	-4676
▁reservation	-4677
aji	-4678
▁deals	-4679
▁Raipur	-4680
▁neck	-4681
▁music	-4682
▁understanding	-4683
yer	-4684
▁exhib	-4685
▁command	-4686
reen	-4687
▁compar	-4688
▁Govt	-4689
▁wages	-4690
▁dowry	-4691
▁located	-4692
▁doctrine	-4693
▁efforts	-4694
▁fort	-4695
ception	-4696
▁factor	-4697
racted	-4698
▁deb	-4699
▁tar	-4700
▁middle	-4701
▁secret	-4702
▁executive	-4703
▁sometimes	-4704
agers	-4705
▁challenging	-4706
▁allotted	-4707
▁Att	-4708
▁Are	-4709
▁chief	-4710
▁util	-4711
ifted	-4712
▁suffer	-4713
opal	-4714
SL	-4715
▁Assessee	-4716
▁Notification	-4717
▁hab	-4718
▁video	-4719
▁herself	-4720
▁performed	-4721
▁town	-4722
▁AB	-4723
▁bag	-4724
▁surf	-4725
▁floor	-4726
▁contempt	-4727
▁notified	-4728
▁willing	-4729
▁ways	-4730
▁Mun	-4731
▁sanctioned	-4732
▁WP	-4733
lord	-4734
▁session	-4735
▁PS	-4736
▁CBI	-4737
leges	-4738
izing	-4739
▁damages	-4740
PL	-4741
▁Railway	-4742
▁deliber	-4743
dom	-4744
▁Const	-4745
▁America	-4746
▁acceptance	-4747
▁Thak	-4748
▁Chen	-4749
▁arbitral	-4750
▁Superintendent	-4751
state	-4752
umari	-4753
▁OR	-4754
▁dark	-4755
▁conflict	-4756
▁speed	-4757
▁series	-4758
▁Although	-4759
▁definite	-4760
has	-4761
▁across	-4762
▁Tur	-4763
▁hit	-4764
▁touch	-4765
kn	-4766
orial	-4767
▁Judgment	-4768
▁univers	-4769
ainable	-4770
umn	-4771
▁sentenced	-4772
iful	-4773
▁Form	-4774
▁alter	-4775
▁danger	-4776
raft	-4777
ivered	-4778
▁research	-4779
▁deserves	-4780
▁distinction	-4781
▁Bharat	-4782
aped	-4783
opped	-4784
▁removal	-4785
▁categorically	-4786
▁ball	-4787
▁perhaps	-4788
▁obtaining	-4789
isted	-4790
▁reserved	-4791
▁cul	-4792
▁Budd	-4793
▁Ord	-4794
AK	-4795
▁stock	-4796
▁sens	-4797
▁Cor	-4798
▁Assess	-4799
ertained	-4800
▁conspiracy	-4801
uration	-4802
▁block	-4803
▁attend	-4804
ING	-4805
▁exact	-4806
▁International	-4807
▁Yog	-4808
▁alt	-4809
rick	-4810
achment	-4811
▁sn	-4812
▁resources	-4813
ban	-4814
hered	-4815
▁Consequently	-4816
▁Christ	-4817
▁convict	-4818
▁explain	-4819
▁style	-4820
▁Mod	-4821
▁consult	-4822
appellant	-4823
ila	-4824
lear	-4825
▁recover	-4826
akes	-4827
▁absor	-4828
▁consequences	-4829
▁contemplated	-4830
▁Tah	-4831
▁hot	-4832
sible	-4833
asmuch	-4834
▁mount	-4835
▁Bu	-4836
▁voice	-4837
▁Judges	-4838
▁twenty	-4839
▁admittedly	-4840
▁impression	-4841
▁ignor	-4842
▁assigned	-4843
yal	-4844
▁incur	-4845
▁hom	-4846
▁Uttar	-4847
ira	-4848
▁clos	-4849
▁Ashok	-4850
vt	-4851
▁clean	-4852
▁stipulated	-4853
▁maximum	-4854
▁someone	-4855
▁believed	-4856
lax	-4857
round	-4858
▁radi	-4859
▁Mohan	-4860
▁appointments	-4861
ishra	-4862
orthy	-4863
sheet	-4864
▁choice	-4865
▁holder	-4866
aph	-4867
▁Our	-4868
▁played	-4869
▁box	-4870
▁worth	-4871
▁transactions	-4872
IS	-4873
▁rank	-4874
▁averments	-4875
▁beat	-4876
▁impact	-4877
▁posted	-4878
▁reb	-4879
▁Conf	-4880
▁North	-4881
▁suicide	-4882
▁delivered	-4883
▁forwarded	-4884
cl	-4885
the	-4886
▁Articles	-4887
ika	-4888
▁dram	-4889
▁task	-4890
▁intim	-4891
▁patient	-4892
▁female	-4893
ients	-4894
chol	-4895
▁select	-4896
▁inherent	-4897
▁anti	-4898
icated	-4899
▁invalid	-4900
▁purchas	-4901
gy	-4902
uli	-4903
▁shape	-4904
iver	-4905
▁Many	-4906
▁workman	-4907
abor	-4908
▁effort	-4909
▁attract	-4910
▁omission	-4911
known	-4912
▁connect	-4913
▁bond	-4914
▁files	-4915
▁remark	-4916
▁teleph	-4917
▁documentary	-4918
isite	-4919
▁Kashmir	-4920
▁suggested	-4921
kh	-4922
lace	-4923
▁ble	-4924
▁City	-4925
▁Nadu	-4926
▁bird	-4927
▁subjected	-4928
▁leaders	-4929
IV	-4930
nel	-4931
▁Rao	-4932
▁milk	-4933
▁prison	-4934
▁active	-4935
▁Madh	-4936
▁examining	-4937
aks	-4938
▁feed	-4939
portion	-4940
▁construed	-4941
▁pleas	-4942
▁furnished	-4943
ream	-4944
ont	-4945
▁Well	-4946
▁spite	-4947
▁extend	-4948
▁animals	-4949
▁disclose	-4950
▁measures	-4951
yam	-4952
teen	-4953
MA	-4954
▁remand	-4955
above	-4956
▁coal	-4957
▁stra	-4958
▁receiving	-4959
▁vot	-4960
▁reduced	-4961
▁compassionate	-4962
▁rejection	-4963
far	-4964
▁Sabha	-4965
▁speech	-4966
▁strugg	-4967
▁lines	-4968
▁disclosure	-4969
▁copies	-4970
▁photograph	-4971
olid	-4972
▁irre	-4973
▁destro	-4974
▁reform	-4975
▁inasmuch	-4976
anged	-4977
▁claimants	-4978
▁signatures	-4979
▁controvers	-4980
▁undertaking	-4981
eshwar	-4982
▁England	-4983
▁Science	-4984
anes	-4985
▁machine	-4986
▁disb	-4987
▁viti	-4988
▁Categ	-4989
▁damage	-4990
▁profit	-4991
▁opening	-4992
atel	-4993
▁dele	-4994
▁pertaining	-4995
▁distribution	-4996
▁reiterated	-4997
▁undertaken	-4998
▁classes	-4999
▁division	-5000
▁everything	-5001
▁simply	-5002
▁citizens	-5003
▁risk	-5004
▁contractor	-5005
▁supplied	-5006
▁leaving	-5007
▁contend	-5008
▁south	-5009
▁inquest	-5010
▁Contract	-5011
▁repeated	-5012
osis	-5013
▁theory	-5014
▁equally	-5015
▁Arbitration	-5016
▁renew	-5017
▁Excise	-5018
▁convey	-5019
▁Officers	-5020
▁Bec	-5021
▁increased	-5022
▁recent	-5023
▁encour	-5024
▁academic	-5025
▁Air	-5026
inger	-5027
▁Er	-5028
▁Allah	-5029
nu	-5030
▁rein	-5031
▁useful	-5032
racy	-5033
▁Swami	-5034
▁famous	-5035
▁limits	-5036
▁obtain	-5037
▁remove	-5038
▁scrutiny	-5039
mbol	-5040
▁foot	-5041
owered	-5042
▁depart	-5043
▁chemical	-5044
ider	-5045
▁image	-5046
▁Afric	-5047
▁delivery	-5048
▁quantity	-5049
▁suspension	-5050
▁falls	-5051
▁north	-5052
▁Award	-5053
abilities	-5054
▁contribution	-5055
▁cart	-5056
▁defe	-5057
▁Pandey	-5058
atically	-5059
qual	-5060
▁Hyder	-5061
▁owners	-5062
▁cruelty	-5063
▁Information	-5064
aja	-5065
aste	-5066
▁mix	-5067
inarily	-5068
oub	-5069
▁sea	-5070
▁consciousness	-5071
▁Supp	-5072
uddin	-5073
▁lives	-5074
unities	-5075
१४	-5076
▁easy	-5077
ura	-5078
▁chann	-5079
AV	-5080
▁Nand	-5081
▁forces	-5082
ero	-5083
▁vs	-5084
▁depend	-5085
▁landlord	-5086
▁suitable	-5087
▁Sad	-5088
▁Vijay	-5089
era	-5090
▁Its	-5091
▁surv	-5092
▁surre	-5093
pto	-5094
▁Vid	-5095
▁win	-5096
▁fault	-5097
▁advice	-5098
onial	-5099
ounced	-5100
asi	-5101
▁Cha	-5102
▁vers	-5103
ensive	-5104
▁Category	-5105
▁ho	-5106
▁pick	-5107
▁Apart	-5108
▁Fund	-5109
▁World	-5110
▁Election	-5111
▁Plaintiff	-5112
▁Sr	-5113
▁male	-5114
ruption	-5115
▁histor	-5116
inet	-5117
▁Rajesh	-5118
▁assert	-5119
▁needed	-5120
writ	-5121
▁Provided	-5122
▁illegality	-5123
abled	-5124
▁travel	-5125
▁Verm	-5126
▁Prakash	-5127
▁workmen	-5128
▁assign	-5129
het	-5130
hana	-5131
▁pressure	-5132
▁chance	-5133
▁secure	-5134
▁pal	-5135
ortun	-5136
▁successful	-5137
▁revised	-5138
▁code	-5139
▁relative	-5140
▁surround	-5141
▁relax	-5142
▁circular	-5143
acharya	-5144
▁plants	-5145
ovable	-5146
▁cadre	-5147
▁cultiv	-5148
▁identity	-5149
▁belief	-5150
▁mala	-5151
▁Patel	-5152
▁Mishra	-5153
TC	-5154
sych	-5155
▁objective	-5156
iation	-5157
▁mouth	-5158
▁residing	-5159
▁suffering	-5160
▁Crl	-5161
astic	-5162
▁content	-5163
ching	-5164
▁Western	-5165
▁compromise	-5166
▁Also	-5167
▁types	-5168
▁reflect	-5169
▁grievance	-5170
▁significant	-5171
▁Na	-5172
athy	-5173
▁banks	-5174
cieties	-5175
▁mainly	-5176
▁recognized	-5177
▁amongst	-5178
▁entirely	-5179
▁Mot	-5180
▁Chenn	-5181
▁discharged	-5182
▁abuse	-5183
▁Private	-5184
▁capable	-5185
▁knife	-5186
▁Directors	-5187
▁legit	-5188
▁Centre	-5189
▁Certificate	-5190
▁CH	-5191
▁gover	-5192
▁entries	-5193
▁Him	-5194
▁schol	-5195
▁acting	-5196
▁Bad	-5197
▁plain	-5198
▁notices	-5199
▁Rama	-5200
▁rates	-5201
▁worship	-5202
▁adequate	-5203
▁programme	-5204
▁RO	-5205
ushed	-5206
▁fide	-5207
▁sons	-5208
▁recall	-5209
▁technology	-5210
azet	-5211
▁Your	-5212
▁lies	-5213
▁military	-5214
▁afore	-5215
▁easily	-5216
▁motion	-5217
▁proced	-5218
▁cancelled	-5219
▁certified	-5220
uff	-5221
▁kid	-5222
▁Because	-5223
▁hereinabove	-5224
ellect	-5225
▁deleg	-5226
▁associated	-5227
▁recommendation	-5228
▁laun	-5229
soever	-5230
▁serve	-5231
▁Prosecutor	-5232
know	-5233
▁relates	-5234
▁inspection	-5235
▁alongwith	-5236
▁pet	-5237
▁concern	-5238
▁ant	-5239
▁wear	-5240
ahar	-5241
opy	-5242
▁Out	-5243
▁draft	-5244
▁governed	-5245
bal	-5246
▁arch	-5247
iling	-5248
▁grat	-5249
▁heavy	-5250
▁manifest	-5251
▁Hyderabad	-5252
▁mid	-5253
▁crop	-5254
▁Hindus	-5255
▁internal	-5256
▁immediate	-5257
▁adduced	-5258
ribe	-5259
▁demanded	-5260
▁stor	-5261
▁engine	-5262
▁ones	-5263
▁inflic	-5264
▁invited	-5265
▁chain	-5266
▁throughout	-5267
▁sav	-5268
▁prec	-5269
▁calling	-5270
▁Pay	-5271
▁CW	-5272
▁vend	-5273
▁drink	-5274
▁sealed	-5275
▁allowing	-5276
▁cancellation	-5277
een	-5278
▁conducting	-5279
▁Legislature	-5280
order	-5281
▁houses	-5282
▁incons	-5283
▁ingred	-5284
arp	-5285
▁Abd	-5286
▁Tel	-5287
▁armed	-5288
▁compr	-5289
struction	-5290
▁initially	-5291
IM	-5292
▁Ban	-5293
ratic	-5294
asthan	-5295
▁quick	-5296
▁Islamic	-5297
▁teaching	-5298
▁electricity	-5299
▁normally	-5300
▁committing	-5301
▁Aut	-5302
DER	-5303
▁Party	-5304
▁seal	-5305
▁upto	-5306
▁frequ	-5307
▁promot	-5308
▁War	-5309
▁Champ	-5310
▁errone	-5311
▁Reference	-5312
▁investment	-5313
amet	-5314
essel	-5315
uming	-5316
rose	-5317
III	-5318
▁compos	-5319
▁weapons	-5320
▁standards	-5321
earch	-5322
▁Others	-5323
▁seat	-5324
jee	-5325
▁leaves	-5326
▁unreason	-5327
▁rival	-5328
sofar	-5329
▁positive	-5330
▁operations	-5331
▁exped	-5332
▁desire	-5333
iva	-5334
▁ben	-5335
▁Like	-5336
▁villages	-5337
▁intellect	-5338
▁recommended	-5339
▁tour	-5340
▁recommendations	-5341
obal	-5342
▁Dur	-5343
▁hear	-5344
▁Teacher	-5345
▁accompan	-5346
▁Commercial	-5347
▁divine	-5348
▁evening	-5349
▁revolution	-5350
▁ancient	-5351
▁divided	-5352
▁remember	-5353
▁mistake	-5354
▁elements	-5355
▁thir	-5356
▁determining	-5357
pet	-5358
▁allegedly	-5359
▁cm	-5360
itate	-5361
▁barred	-5362
▁indeed	-5363
▁sections	-5364
oll	-5365
▁dt	-5366
▁categories	-5367
▁Tem	-5368
ming	-5369
▁Para	-5370
awan	-5371
ivity	-5372
▁Employ	-5373
▁master	-5374
▁Dec	-5375
▁retros	-5376
leb	-5377
▁Aud	-5378
▁skin	-5379
ography	-5380
▁feeling	-5381
▁represented	-5382
▁Tri	-5383
▁instituted	-5384
▁AD	-5385
▁annex	-5386
▁ignored	-5387
▁retired	-5388
▁industries	-5389
▁Ed	-5390
dish	-5391
▁Pvt	-5392
▁reliable	-5393
doc	-5394
▁pec	-5395
▁Crime	-5396
unior	-5397
actory	-5398
▁Selection	-5399
TH	-5400
ommod	-5401
▁applying	-5402
▁Institution	-5403
▁table	-5404
▁residence	-5405
▁consistent	-5406
▁judic	-5407
ATE	-5408
avan	-5409
▁stick	-5410
▁window	-5411
▁Two	-5412
▁Bill	-5413
▁cells	-5414
▁ideas	-5415
▁surface	-5416
▁Inf	-5417
▁dy	-5418
icit	-5419
▁Guru	-5420
▁resulted	-5421
▁nuc	-5422
▁root	-5423
▁average	-5424
▁manufacture	-5425
▁Ve	-5426
▁symbol	-5427
▁raising	-5428
rast	-5429
inery	-5430
▁prem	-5431
▁envis	-5432
▁incorporated	-5433
▁deeds	-5434
rack	-5435
▁beaut	-5436
▁modified	-5437
▁individuals	-5438
dar	-5439
▁id	-5440
▁bul	-5441
angalore	-5442
▁rich	-5443
omy	-5444
▁Suit	-5445
▁branch	-5446
▁inference	-5447
IST	-5448
▁destroy	-5449
▁exclusive	-5450
laws	-5451
▁Dar	-5452
▁multi	-5453
▁sugar	-5454
▁inconsist	-5455
isp	-5456
▁ban	-5457
▁lock	-5458
▁arose	-5459
▁Prem	-5460
▁spent	-5461
▁Forest	-5462
▁species	-5463
▁eligibility	-5464
▁Home	-5465
▁bone	-5466
▁surpr	-5467
hend	-5468
▁Open	-5469
▁Again	-5470
▁agent	-5471
▁rural	-5472
▁enl	-5473
▁causes	-5474
▁commencement	-5475
▁satisfy	-5476
▁intellig	-5477
▁scientific	-5478
uity	-5479
▁Rem	-5480
▁stone	-5481
▁appearance	-5482
▁appreciation	-5483
rupt	-5484
▁cloth	-5485
▁student	-5486
CO	-5487
set	-5488
▁flat	-5489
▁seed	-5490
▁sharehold	-5491
▁particulars	-5492
▁Chennai	-5493
▁arrangement	-5494
▁Val	-5495
ript	-5496
▁Project	-5497
▁upheld	-5498
▁confined	-5499
▁Constable	-5500
asc	-5501
▁critic	-5502
▁exists	-5503
▁Petitioners	-5504
imb	-5505
▁stayed	-5506
▁enacted	-5507
▁admissible	-5508
▁constructed	-5509
ader	-5510
▁sam	-5511
▁seem	-5512
▁tool	-5513
▁Rajasthan	-5514
▁extracted	-5515
AME	-5516
ils	-5517
pro	-5518
▁Exh	-5519
▁misconduct	-5520
▁fest	-5521
▁Fam	-5522
▁Ret	-5523
lined	-5524
▁Gang	-5525
ported	-5526
▁stopped	-5527
▁Companies	-5528
▁Entry	-5529
▁equip	-5530
▁figure	-5531
▁increasing	-5532
ev	-5533
amma	-5534
▁empowered	-5535
▁Non	-5536
▁classification	-5537
▁vessel	-5538
▁narrated	-5539
hon	-5540
aband	-5541
ioned	-5542
▁watch	-5543
▁operate	-5544
▁creation	-5545
▁achieved	-5546
▁controversy	-5547
▁sand	-5548
▁paras	-5549
▁acknow	-5550
▁cheques	-5551
▁speaking	-5552
▁guard	-5553
ola	-5554
▁Babu	-5555
▁Narayan	-5556
▁AT	-5557
▁Mis	-5558
▁interview	-5559
▁bow	-5560
▁poems	-5561
▁listed	-5562
▁separately	-5563
▁accompanied	-5564
▁lakhs	-5565
▁annual	-5566
onal	-5567
pected	-5568
▁lived	-5569
▁Republic	-5570
withstanding	-5571
ube	-5572
uct	-5573
omet	-5574
▁ends	-5575
▁postmortem	-5576
ests	-5577
ps	-5578
yan	-5579
▁cultural	-5580
▁impossible	-5581
▁negoti	-5582
▁opposed	-5583
▁beautiful	-5584
▁partnership	-5585
▁insurance	-5586
hel	-5587
▁range	-5588
▁liquor	-5589
▁requisite	-5590
▁Rav	-5591
▁hur	-5592
▁green	-5593
▁quarrel	-5594
▁withdrawn	-5595
pees	-5596
▁fourth	-5597
lfare	-5598
▁welfare	-5599
▁whatsoever	-5600
▁substantive	-5601
▁representative	-5602
▁rare	-5603
▁ORDER	-5604
▁Madras	-5605
▁Insurance	-5606
▁stories	-5607
▁ge	-5608
chief	-5609
▁upper	-5610
▁Finance	-5611
▁Joint	-5612
▁extract	-5613
▁strictly	-5614
▁Bah	-5615
▁shock	-5616
ulating	-5617
▁mortgage	-5618
▁Most	-5619
▁dues	-5620
▁temples	-5621
▁irres	-5622
▁objects	-5623
▁caught	-5624
▁integral	-5625
ildar	-5626
▁Assembly	-5627
rastru	-5628
▁features	-5629
▁representatives	-5630
▁Sir	-5631
▁vacant	-5632
▁implementation	-5633
ips	-5634
▁amb	-5635
endment	-5636
▁refund	-5637
▁carefully	-5638
▁egg	-5639
▁languages	-5640
▁qua	-5641
hent	-5642
▁Thakur	-5643
cher	-5644
▁framing	-5645
▁thinking	-5646
▁enforcement	-5647
aches	-5648
▁Bangalore	-5649
▁involving	-5650
GAL	-5651
▁waste	-5652
▁probably	-5653
▁enqu	-5654
▁falsely	-5655
▁PC	-5656
▁Nav	-5657
▁prepar	-5658
atter	-5659
▁indul	-5660
▁interven	-5661
▁actions	-5662
▁ang	-5663
▁capt	-5664
ourses	-5665
▁affili	-5666
inqu	-5667
rical	-5668
▁rain	-5669
▁slow	-5670
urrent	-5671
▁Through	-5672
▁solution	-5673
iet	-5674
▁Palest	-5675
▁relying	-5676
▁attracted	-5677
hik	-5678
gest	-5679
▁Sunil	-5680
vert	-5681
▁opined	-5682
▁values	-5683
FA	-5684
▁Verma	-5685
▁happen	-5686
▁Mandal	-5687
▁Policy	-5688
▁currency	-5689
▁Full	-5690
▁cere	-5691
▁levy	-5692
▁wish	-5693
▁accommod	-5694
▁withdraw	-5695
▁Ven	-5696
SS	-5697
▁Lax	-5698
▁happens	-5699
▁wood	-5700
▁propri	-5701
▁functioning	-5702
ilal	-5703
▁Inc	-5704
▁residential	-5705
velled	-5706
▁struggle	-5707
▁gross	-5708
▁leader	-5709
OUT	-5710
▁gar	-5711
▁voluntary	-5712
ray	-5713
▁Family	-5714
▁export	-5715
▁Sections	-5716
▁elections	-5717
▁Why	-5718
rench	-5719
▁enactment	-5720
▁relatives	-5721
▁IN	-5722
hara	-5723
▁Gan	-5724
▁regulations	-5725
▁Abdul	-5726
▁moral	-5727
▁anyone	-5728
▁III	-5729
▁aged	-5730
▁Allahabad	-5731
▁hour	-5732
word	-5733
antial	-5734
▁economy	-5735
▁magn	-5736
▁superior	-5737
▁qualified	-5738
igil	-5739
▁bringing	-5740
▁citizen	-5741
▁genuine	-5742
▁external	-5743
▁software	-5744
▁confer	-5745
▁subjects	-5746
roll	-5747
▁column	-5748
osen	-5749
▁location	-5750
▁Transport	-5751
▁Prot	-5752
ocates	-5753
▁celeb	-5754
▁Branch	-5755
▁temper	-5756
look	-5757
ocal	-5758
▁imple	-5759
▁quashing	-5760
▁exemption	-5761
anta	-5762
▁cog	-5763
▁earn	-5764
▁nine	-5765
▁happy	-5766
▁incor	-5767
▁expiry	-5768
▁revealed	-5769
▁Jam	-5770
▁Akbar	-5771
oming	-5772
▁iron	-5773
▁suspicion	-5774
▁centre	-5775
▁mah	-5776
▁manufacturing	-5777
▁Administrative	-5778
iles	-5779
pers	-5780
▁ran	-5781
▁picture	-5782
▁bott	-5783
▁identify	-5784
iate	-5785
ication	-5786
▁paying	-5787
▁brothers	-5788
like	-5789
▁Vice	-5790
▁Div	-5791
▁mic	-5792
author	-5793
▁transp	-5794
▁privile	-5795
▁MA	-5796
▁blow	-5797
▁forum	-5798
mark	-5799
▁Germ	-5800
▁Social	-5801
▁contractual	-5802
▁Ay	-5803
aling	-5804
ional	-5805
▁payments	-5806
ishad	-5807
▁Hem	-5808
apped	-5809
lementary	-5810
▁necessity	-5811
▁appreciate	-5812
▁brain	-5813
▁seeks	-5814
▁pursuance	-5815
▁terminated	-5816
itis	-5817
▁ens	-5818
▁Assessing	-5819
▁Hari	-5820
▁dict	-5821
oph	-5822
▁lady	-5823
▁hardly	-5824
▁impart	-5825
▁Va	-5826
▁Expl	-5827
▁invoked	-5828
▁fle	-5829
nagar	-5830
▁Work	-5831
▁encro	-5832
▁potential	-5833
▁pronounce	-5834
▁resulting	-5835
RA	-5836
iled	-5837
▁Besides	-5838
▁unknown	-5839
▁purchaser	-5840
road	-5841
▁trees	-5842
▁authorized	-5843
sc	-5844
ogle	-5845
▁bab	-5846
iform	-5847
▁proc	-5848
▁psych	-5849
▁infring	-5850
▁judgement	-5851
▁Pan	-5852
▁animal	-5853
▁villagers	-5854
nama	-5855
▁Ham	-5856
appro	-5857
ayana	-5858
▁compon	-5859
▁depends	-5860
▁reproduced	-5861
▁script	-5862
▁legally	-5863
omen	-5864
▁drive	-5865
▁seeing	-5866
▁Enquiry	-5867
laim	-5868
▁grave	-5869
▁ordinarily	-5870
nes	-5871
alli	-5872
▁gain	-5873
▁railway	-5874
▁fails	-5875
▁negligence	-5876
hs	-5877
▁AM	-5878
▁Cap	-5879
▁Inst	-5880
▁Town	-5881
▁Standing	-5882
▁ownership	-5883
▁Vol	-5884
▁AND	-5885
▁arre	-5886
▁tort	-5887
▁clauses	-5888
▁Din	-5889
▁projects	-5890
▁improve	-5891
▁asking	-5892
▁Jy	-5893
▁owned	-5894
▁songs	-5895
▁elabor	-5896
▁equality	-5897
▁reliefs	-5898
upon	-5899
▁Those	-5900
▁graph	-5901
▁ideal	-5902
olve	-5903
▁Turk	-5904
isting	-5905
▁cas	-5906
▁webs	-5907
▁compared	-5908
▁missing	-5909
▁incorrect	-5910
▁qualifications	-5911
mosp	-5912
▁reality	-5913
▁selling	-5914
oot	-5915
oken	-5916
▁Dal	-5917
▁Jay	-5918
▁showed	-5919
▁army	-5920
▁wants	-5921
▁Claim	-5922
▁Doctor	-5923
▁moving	-5924
▁subsid	-5925
ih	-5926
▁Gl	-5927
▁audit	-5928
▁mandate	-5929
▁perfect	-5930
▁reveals	-5931
▁ingredients	-5932
SH	-5933
▁model	-5934
▁Africa	-5935
▁finger	-5936
▁nearly	-5937
▁foundation	-5938
gery	-5939
▁sequ	-5940
▁corre	-5941
▁uncle	-5942
istics	-5943
▁sacrif	-5944
▁display	-5945
▁execute	-5946
▁deduction	-5947
▁AC	-5948
ecess	-5949
▁Admitted	-5950
ster	-5951
▁Anr	-5952
▁obvious	-5953
▁Being	-5954
▁afford	-5955
▁regarded	-5956
▁clarified	-5957
▁Port	-5958
▁dim	-5959
▁Show	-5960
▁recognised	-5961
▁organization	-5962
arh	-5963
▁sales	-5964
▁convers	-5965
▁storage	-5966
▁bidd	-5967
▁measuring	-5968
▁acceptable	-5969
▁organisation	-5970
▁chosen	-5971
▁nomination	-5972
iqu	-5973
▁Fri	-5974
▁passage	-5975
▁essentially	-5976
▁AO	-5977
▁grad	-5978
▁denial	-5979
▁narrow	-5980
▁attitude	-5981
▁ascertain	-5982
▁reflected	-5983
▁terrorism	-5984
fe	-5985
▁Tag	-5986
CL	-5987
▁Vin	-5988
▁media	-5989
ae	-5990
▁philosophy	-5991
▁Child	-5992
▁atmosp	-5993
▁literary	-5994
▁Settlement	-5995
▁unity	-5996
▁prefer	-5997
▁straight	-5998
▁obligations	-5999
▁murd	-6000
▁lapse	-6001
▁Ja	-6002
ears	-6003
▁Nat	-6004
ducing	-6005
▁cave	-6006
▁union	-6007
ima	-6008
rastructure	-6009
▁harassment	-6010
acco	-6011
▁buy	-6012
anand	-6013
oratory	-6014
▁People	-6015
▁memorandum	-6016
RL	-6017
▁hero	-6018
▁Supra	-6019
▁advised	-6020
▁subordinate	-6021
▁Indians	-6022
▁involvement	-6023
iah	-6024
ricted	-6025
anya	-6026
▁calls	-6027
▁systems	-6028
▁vacancy	-6029
▁ABOUT	-6030
▁disqual	-6031
▁PD	-6032
athi	-6033
▁Nor	-6034
▁tenure	-6035
▁Managing	-6036
▁machinery	-6037
▁map	-6038
▁Sure	-6039
▁crore	-6040
▁Survey	-6041
▁assail	-6042
▁choose	-6043
just	-6044
▁eat	-6045
ricket	-6046
▁Anand	-6047
▁Vishnu	-6048
▁convin	-6049
▁intent	-6050
▁Amendment	-6051
▁DR	-6052
omin	-6053
▁Bel	-6054
hance	-6055
▁season	-6056
▁Tahs	-6057
▁Error	-6058
▁heirs	-6059
▁applies	-6060
▁demands	-6061
▁colleges	-6062
▁consequential	-6063
▁MD	-6064
aviour	-6065
▁Resolution	-6066
▁Nan	-6067
▁rect	-6068
▁color	-6069
▁adjust	-6070
▁Admittedly	-6071
hru	-6072
▁hor	-6073
▁facility	-6074
▁Us	-6075
▁iii	-6076
ondon	-6077
ronic	-6078
▁pill	-6079
▁dates	-6080
mentioned	-6081
▁vehicles	-6082
▁vent	-6083
abinet	-6084
▁Sush	-6085
▁democracy	-6086
rees	-6087
▁dil	-6088
laced	-6089
▁game	-6090
▁enem	-6091
▁moon	-6092
▁Google	-6093
▁height	-6094
▁vision	-6095
▁perverse	-6096
otic	-6097
▁kil	-6098
▁Raja	-6099
▁park	-6100
▁powerful	-6101
▁Kab	-6102
▁PRO	-6103
mn	-6104
▁Ti	-6105
aman	-6106
▁valuation	-6107
▁Reddy	-6108
▁continuous	-6109
urs	-6110
▁gas	-6111
▁cogent	-6112
▁corporate	-6113
▁generation	-6114
gn	-6115
▁spon	-6116
▁Consid	-6117
▁dishon	-6118
▁putting	-6119
▁disability	-6120
▁rigor	-6121
▁authorised	-6122
urate	-6123
▁deten	-6124
▁Fr	-6125
▁falling	-6126
▁newspaper	-6127
▁estate	-6128
etary	-6129
▁Math	-6130
▁Ganga	-6131
▁quota	-6132
▁Kumari	-6133
▁corroborated	-6134
▁circumstantial	-6135
▁fees	-6136
▁sort	-6137
▁Later	-6138
▁fired	-6139
▁struct	-6140
▁complied	-6141
▁alive	-6142
▁learn	-6143
▁considerable	-6144
▁CD	-6145
alpur	-6146
▁Brahm	-6147
▁escape	-6148
▁accepting	-6149
▁complaints	-6150
inite	-6151
▁Asia	-6152
▁null	-6153
▁agreements	-6154
rat	-6155
yas	-6156
▁anc	-6157
▁diary	-6158
▁track	-6159
▁promoted	-6160
▁consequently	-6161
१५	-6162
▁upd	-6163
▁erroneous	-6164
sue	-6165
alog	-6166
▁gift	-6167
▁Grade	-6168
▁independence	-6169
▁belongs	-6170
▁installed	-6171
▁interesting	-6172
▁Mere	-6173
itch	-6174
▁Iran	-6175
▁estim	-6176
▁persu	-6177
▁Professor	-6178
load	-6179
pping	-6180
▁ambit	-6181
▁insects	-6182
▁corporation	-6183
▁unreasonable	-6184
▁Agricult	-6185
▁Official	-6186
▁pertinent	-6187
▁Mat	-6188
▁Bengali	-6189
▁professional	-6190
▁Bin	-6191
achal	-6192
▁culp	-6193
▁difficulty	-6194
▁Gur	-6195
▁Date	-6196
▁minority	-6197
▁association	-6198
erences	-6199
▁universal	-6200
▁Hig	-6201
▁Hous	-6202
▁authent	-6203
ica	-6204
▁partly	-6205
▁photographs	-6206
da	-6207
▁telephone	-6208
▁cum	-6209
▁rock	-6210
▁alien	-6211
▁incurred	-6212
▁Schools	-6213
▁immovable	-6214
▁Distt	-6215
▁throw	-6216
▁Madhya	-6217
▁Master	-6218
▁Gram	-6219
▁runs	-6220
▁holds	-6221
▁London	-6222
▁entrusted	-6223
▁antic	-6224
UM	-6225
▁rap	-6226
▁ton	-6227
▁soil	-6228
▁drawing	-6229
▁equival	-6230
going	-6231
charge	-6232
▁prime	-6233
▁replied	-6234
▁sources	-6235
▁Gandhiji	-6236
▁Secondary	-6237
asan	-6238
▁construct	-6239
▁automatically	-6240
▁remote	-6241
▁thereon	-6242
▁multiple	-6243
▁infirm	-6244
▁unfair	-6245
▁knowing	-6246
▁legitimate	-6247
oda	-6248
llor	-6249
▁Cust	-6250
▁gard	-6251
▁bills	-6252
▁traditional	-6253
IA	-6254
board	-6255
▁European	-6256
▁obviously	-6257
▁operating	-6258
akar	-6259
▁Sol	-6260
▁wat	-6261
▁Lect	-6262
▁fairly	-6263
▁methods	-6264
▁lik	-6265
▁thirty	-6266
▁recognition	-6267
▁Che	-6268
▁Ranj	-6269
▁hair	-6270
▁global	-6271
▁founded	-6272
▁president	-6273
▁entertained	-6274
▁Press	-6275
▁explo	-6276
▁affirm	-6277
▁severe	-6278
▁Palestin	-6279
ham	-6280
▁MO	-6281
▁foc	-6282
▁cold	-6283
▁input	-6284
arkhand	-6285
▁questioned	-6286
xy	-6287
▁Nehru	-6288
▁pages	-6289
▁thereunder	-6290
▁considerations	-6291
mer	-6292
idal	-6293
▁Jew	-6294
▁sharp	-6295
▁consumption	-6296
▁lif	-6297
▁chest	-6298
arian	-6299
elfare	-6300
▁recon	-6301
▁driving	-6302
▁personnel	-6303
▁server	-6304
▁pleased	-6305
▁Rat	-6306
ement	-6307
▁fields	-6308
▁Article	-6309
▁Welfare	-6310
▁discrep	-6311
AP	-6312
▁arms	-6313
▁inner	-6314
▁sight	-6315
▁Sanjay	-6316
▁factory	-6317
▁verification	-6318
udi	-6319
▁attrib	-6320
▁Pension	-6321
hesh	-6322
▁Sin	-6323
▁fab	-6324
eting	-6325
▁compuls	-6326
▁excluded	-6327
eev	-6328
▁TO	-6329
ially	-6330
▁endorse	-6331
▁summons	-6332
▁SCR	-6333
▁Sum	-6334
▁Bose	-6335
▁poem	-6336
athered	-6337
▁latest	-6338
▁allowance	-6339
▁store	-6340
▁commenced	-6341
anti	-6342
▁arrive	-6343
▁Sind	-6344
▁anticip	-6345
▁observe	-6346
▁preparation	-6347
▁significance	-6348
oom	-6349
▁Rai	-6350
▁Which	-6351
▁famil	-6352
▁Revision	-6353
auty	-6354
itual	-6355
▁identical	-6356
▁Registration	-6357
▁entering	-6358
▁roof	-6359
ordinary	-6360
itan	-6361
▁inclined	-6362
▁proportion	-6363
▁effic	-6364
▁comment	-6365
▁innocent	-6366
join	-6367
▁Organ	-6368
▁concess	-6369
▁studies	-6370
▁winding	-6371
GC	-6372
TA	-6373
▁territorial	-6374
▁Administration	-6375
za	-6376
essed	-6377
▁restricted	-6378
▁empt	-6379
urally	-6380
▁furnish	-6381
▁compound	-6382
bh	-6383
anas	-6384
▁Bus	-6385
▁compre	-6386
▁growing	-6387
ICT	-6388
▁suits	-6389
lands	-6390
▁match	-6391
▁valuable	-6392
▁occupation	-6393
▁threatened	-6394
agn	-6395
▁Aff	-6396
▁Mur	-6397
▁CrPC	-6398
▁extremely	-6399
▁Shankaracharya	-6400
nsic	-6401
▁fatal	-6402
▁Notice	-6403
▁Day	-6404
▁Men	-6405
▁Higher	-6406
▁Reliance	-6407
wah	-6408
▁Who	-6409
ureau	-6410
▁China	-6411
▁assembly	-6412
▁similarly	-6413
▁surrender	-6414
ibly	-6415
▁Rad	-6416
▁doubtful	-6417
▁divor	-6418
▁kinds	-6419
amy	-6420
▁Dhan	-6421
▁Jharkhand	-6422
▁unauthor	-6423
▁expressly	-6424
▁grade	-6425
ictionary	-6426
▁regularization	-6427
▁ap	-6428
▁dro	-6429
▁struck	-6430
▁gathered	-6431
course	-6432
▁medium	-6433
▁besides	-6434
▁discard	-6435
▁Recovery	-6436
▁formation	-6437
more	-6438
hens	-6439
▁tob	-6440
idden	-6441
ortunately	-6442
▁contracts	-6443
oral	-6444
itect	-6445
▁exha	-6446
▁Tagore	-6447
▁whenever	-6448
▁impose	-6449
CI	-6450
▁Ira	-6451
icies	-6452
▁families	-6453
▁corresponding	-6454
▁kidn	-6455
▁uses	-6456
▁illust	-6457
▁averred	-6458
▁creating	-6459
▁effected	-6460
▁eviction	-6461
▁email	-6462
▁volume	-6463
▁constitu	-6464
alg	-6465
hash	-6466
▁dry	-6467
▁acid	-6468
▁poison	-6469
▁careful	-6470
▁variety	-6471
ibilities	-6472
▁BC	-6473
▁cru	-6474
ancing	-6475
▁visible	-6476
aker	-6477
▁unn	-6478
ighted	-6479
▁knows	-6480
▁cooper	-6481
▁monthly	-6482
▁proceeds	-6483
▁Gopal	-6484
▁Financial	-6485
ls	-6486
oli	-6487
urse	-6488
▁FSL	-6489
▁shot	-6490
▁panel	-6491
▁ability	-6492
▁respond	-6493
▁tobacco	-6494
▁Authorities	-6495
▁flu	-6496
▁Iraq	-6497
▁crow	-6498
▁atmosphere	-6499
▁applicability	-6500
▁Om	-6501
▁Beg	-6502
ifies	-6503
▁elder	-6504
▁concent	-6505
▁characters	-6506
▁Considering	-6507
adur	-6508
erce	-6509
▁Each	-6510
▁cook	-6511
▁vast	-6512
▁learning	-6513
▁buildings	-6514
▁neighbour	-6515
cum	-6516
▁Sl	-6517
▁website	-6518
ports	-6519
▁incrim	-6520
▁invoking	-6521
▁supposed	-6522
▁appreciated	-6523
▁participate	-6524
▁retrospective	-6525
▁comply	-6526
▁IV	-6527
▁Rak	-6528
quisition	-6529
▁Agra	-6530
▁Prat	-6531
levant	-6532
▁Cro	-6533
▁Exs	-6534
▁Park	-6535
▁encl	-6536
aduate	-6537
ificates	-6538
▁behaviour	-6539
▁inflicted	-6540
▁pil	-6541
▁Ramesh	-6542
▁percentage	-6543
▁modification	-6544
hari	-6545
▁Pad	-6546
▁hyp	-6547
▁borne	-6548
▁conform	-6549
▁vitiated	-6550
uj	-6551
eet	-6552
▁Late	-6553
▁channel	-6554
▁Industries	-6555
unk	-6556
▁Az	-6557
▁hes	-6558
▁Prog	-6559
▁numer	-6560
▁Middle	-6561
▁band	-6562
▁rejecting	-6563
▁thor	-6564
cribes	-6565
▁prices	-6566
▁perused	-6567
icing	-6568
▁Hist	-6569
▁Sard	-6570
▁adult	-6571
▁situations	-6572
▁courses	-6573
▁wrongly	-6574
▁leaf	-6575
itions	-6576
▁uniform	-6577
▁equipment	-6578
▁forthwith	-6579
▁bidder	-6580
▁reputation	-6581
▁Var	-6582
ammad	-6583
▁Could	-6584
ishment	-6585
▁Paragraph	-6586
▁correctness	-6587
▁BAN	-6588
▁Trib	-6589
aryana	-6590
▁assessed	-6591
▁justification	-6592
▁rid	-6593
▁evid	-6594
hension	-6595
▁format	-6596
anth	-6597
illa	-6598
▁rob	-6599
irect	-6600
SA	-6601
oe	-6602
pass	-6603
▁norms	-6604
isher	-6605
▁dial	-6606
▁Gazet	-6607
IF	-6608
▁rad	-6609
▁ruled	-6610
▁reasoning	-6611
▁intellectual	-6612
▁Ty	-6613
▁Nep	-6614
▁Test	-6615
▁River	-6616
▁output	-6617
▁slight	-6618
▁motorcy	-6619
▁fabric	-6620
▁Prakhand	-6621
▁organism	-6622
▁sustainable	-6623
ipes	-6624
▁Jap	-6625
▁legs	-6626
itated	-6627
▁approx	-6628
▁continuing	-6629
▁PWs	-6630
▁Tir	-6631
▁bona	-6632
ulates	-6633
▁burnt	-6634
▁Member	-6635
▁System	-6636
▁partner	-6637
▁pleading	-6638
unci	-6639
erk	-6640
iri	-6641
esty	-6642
anging	-6643
▁Taluk	-6644
▁target	-6645
▁stained	-6646
ORE	-6647
▁Luck	-6648
▁girls	-6649
▁couple	-6650
▁equity	-6651
▁wealth	-6652
▁policies	-6653
▁Pet	-6654
▁opt	-6655
▁walk	-6656
▁Haryana	-6657
▁sending	-6658
ertaining	-6659
▁adoption	-6660
▁notwithstanding	-6661
▁Oper	-6662
▁domain	-6663
▁partners	-6664
▁infirmity	-6665
▁XX	-6666
▁unb	-6667
▁About	-6668
▁strike	-6669
▁didn	-6670
▁playing	-6671
▁contraband	-6672
▁Dem	-6673
▁benefic	-6674
▁proving	-6675
▁changing	-6676
▁joy	-6677
▁enhan	-6678
▁beauty	-6679
▁lodging	-6680
oz	-6681
▁Mit	-6682
▁Rajendra	-6683
▁convenience	-6684
▁interpreted	-6685
▁km	-6686
▁blue	-6687
▁rupees	-6688
▁communicated	-6689
omic	-6690
▁Time	-6691
▁safety	-6692
▁agriculture	-6693
▁mortem	-6694
▁squared	-6695
▁attorney	-6696
▁consists	-6697
▁starting	-6698
▁contradictions	-6699
odes	-6700
▁Copy	-6701
▁Path	-6702
▁star	-6703
▁warm	-6704
▁feature	-6705
▁alc	-6706
▁avo	-6707
habil	-6708
luding	-6709
▁spl	-6710
▁pull	-6711
▁discussions	-6712
encing	-6713
▁nuclear	-6714
▁waiting	-6715
ba	-6716
▁Av	-6717
▁Gar	-6718
▁Tod	-6719
uliar	-6720
▁defic	-6721
▁writer	-6722
▁relaxation	-6723
my	-6724
bon	-6725
▁DIST	-6726
▁peculiar	-6727
▁continues	-6728
▁Maj	-6729
▁adopt	-6730
▁stream	-6731
▁smaller	-6732
▁attained	-6733
asions	-6734
▁singh	-6735
▁paramet	-6736
▁belonged	-6737
▁discrimination	-6738
▁MP	-6739
▁serving	-6740
▁Lordship	-6741
room	-6742
▁irrespective	-6743
▁SE	-6744
erior	-6745
▁Deep	-6746
▁Venk	-6747
▁Mahab	-6748
▁yield	-6749
▁assumed	-6750
ounted	-6751
▁primarily	-6752
▁bh	-6753
▁infl	-6754
▁belie	-6755
▁west	-6756
▁broken	-6757
igilance	-6758
▁equivalent	-6759
ole	-6760
ouble	-6761
▁east	-6762
▁bench	-6763
▁Aj	-6764
▁Dw	-6765
▁ID	-6766
lick	-6767
▁Han	-6768
▁axe	-6769
ampur	-6770
▁Ragh	-6771
▁ante	-6772
▁Himal	-6773
▁experi	-6774
▁ultimate	-6775
▁converted	-6776
isen	-6777
nath	-6778
ented	-6779
▁resist	-6780
aneously	-6781
▁scholars	-6782
▁withdrawal	-6783
▁Engineering	-6784
▁differences	-6785
▁Hot	-6786
▁Jyot	-6787
ATION	-6788
▁lose	-6789
▁rely	-6790
▁ship	-6791
▁cerem	-6792
▁stret	-6793
▁earliest	-6794
▁nut	-6795
▁thr	-6796
▁fract	-6797
▁rigorous	-6798
▁evaluation	-6799
▁aband	-6800
▁evalu	-6801
▁dealer	-6802
▁supporting	-6803
ss	-6804
▁Lib	-6805
▁cloud	-6806
▁overr	-6807
▁drugs	-6808
AY	-6809
▁double	-6810
▁deliver	-6811
▁Rah	-6812
▁honour	-6813
▁Subsequently	-6814
udence	-6815
▁Works	-6816
udget	-6817
▁mechanism	-6818
▁Det	-6819
eding	-6820
▁Buddh	-6821
nan	-6822
uri	-6823
eries	-6824
▁alias	-6825
▁marry	-6826
oes	-6827
▁acres	-6828
▁tests	-6829
oles	-6830
▁Swar	-6831
▁emotion	-6832
▁figures	-6833
▁journey	-6834
▁Back	-6835
▁Look	-6836
▁Enter	-6837
▁leads	-6838
▁phase	-6839
oration	-6840
▁cities	-6841
▁arrears	-6842
▁caution	-6843
▁Planning	-6844
▁Ahmedabad	-6845
▁envisaged	-6846
ails	-6847
oudh	-6848
ether	-6849
▁parliament	-6850
ua	-6851
▁Ir	-6852
inous	-6853
▁Chrom	-6854
▁unlaw	-6855
▁formula	-6856
itt	-6857
mar	-6858
ashi	-6859
▁fruit	-6860
▁enhance	-6861
▁participated	-6862
RE	-6863
oma	-6864
riginal	-6865
▁fixing	-6866
▁perpet	-6867
▁servants	-6868
amus	-6869
unch	-6870
▁Agg	-6871
▁heat	-6872
▁plays	-6873
▁medicine	-6874
AND	-6875
off	-6876
▁Est	-6877
▁wage	-6878
▁pieces	-6879
▁IS	-6880
umes	-6881
▁raw	-6882
▁Prime	-6883
▁emerg	-6884
▁contra	-6885
▁intercourse	-6886
▁participation	-6887
▁Nir	-6888
light	-6889
redit	-6890
▁ment	-6891
▁expos	-6892
▁quantum	-6893
▁acknowled	-6894
che	-6895
▁Sen	-6896
▁die	-6897
▁destru	-6898
▁safegu	-6899
▁fulfill	-6900
▁requisition	-6901
uries	-6902
▁sake	-6903
▁expired	-6904
▁ourselves	-6905
▁developing	-6906
▁procedural	-6907
rase	-6908
inter	-6909
▁Junior	-6910
▁settle	-6911
▁annexed	-6912
▁promise	-6913
▁devotion	-6914
▁Acquisition	-6915
ames	-6916
▁cow	-6917
▁Sikh	-6918
▁folk	-6919
▁utter	-6920
▁permits	-6921
▁Research	-6922
▁dependent	-6923
▁vic	-6924
▁veget	-6925
▁overall	-6926
OL	-6927
▁Vis	-6928
▁usual	-6929
▁Christian	-6930
▁sq	-6931
▁Meh	-6932
hetic	-6933
▁declare	-6934
▁recently	-6935
▁incriminating	-6936
Ms	-6937
▁pra	-6938
▁Book	-6939
▁Laksh	-6940
▁Vaish	-6941
▁prepare	-6942
▁planning	-6943
▁illegally	-6944
▁Tar	-6945
anath	-6946
▁termed	-6947
▁tenancy	-6948
▁effects	-6949
▁samples	-6950
elve	-6951
vent	-6952
▁DNA	-6953
▁bomb	-6954
▁Econom	-6955
▁bot	-6956
erved	-6957
▁Build	-6958
ervation	-6959
▁creditor	-6960
▁Explanation	-6961
▁outstanding	-6962
osing	-6963
▁outer	-6964
▁Sarasw	-6965
▁purely	-6966
▁Lucknow	-6967
▁consumer	-6968
▁sick	-6969
▁eleph	-6970
▁availability	-6971
▁extraordinary	-6972
▁bye	-6973
▁evil	-6974
▁grass	-6975
▁spoken	-6976
▁urg	-6977
▁boys	-6978
▁scrutin	-6979
▁practical	-6980
SE	-6981
▁tank	-6982
▁perusal	-6983
▁shifted	-6984
▁web	-6985
▁stages	-6986
▁street	-6987
▁wonder	-6988
▁motorcycle	-6989
rup	-6990
▁Motor	-6991
▁train	-6992
atively	-6993
▁apprehend	-6994
▁appointing	-6995
emb	-6996
gen	-6997
lter	-6998
▁Yoga	-6999
▁eyew	-7000
▁Mahat	-7001
▁Mahto	-7002
▁reduce	-7003
▁western	-7004
cellaneous	-7005
▁Divisional	-7006
alla	-7007
▁Yet	-7008
▁bra	-7009
▁council	-7010
ym	-7011
▁empty	-7012
▁democratic	-7013
ateral	-7014
▁Subhas	-7015
▁arisen	-7016
▁commod	-7017
▁victims	-7018
▁purported	-7019
▁specially	-7020
▁controlled	-7021
▁infrastructure	-7022
▁pm	-7023
▁URL	-7024
avits	-7025
▁unjust	-7026
cular	-7027
▁Tiwari	-7028
▁endorsement	-7029
▁certificates	-7030
▁Mohd	-7031
iments	-7032
▁Nature	-7033
alle	-7034
arsh	-7035
▁institute	-7036
▁implication	-7037
▁SP	-7038
▁demol	-7039
▁undue	-7040
▁fraudul	-7041
▁Mother	-7042
▁customer	-7043
▁seriously	-7044
▁aforementioned	-7045
shi	-7046
owed	-7047
▁club	-7048
▁prompt	-7049
fort	-7050
▁Neg	-7051
▁online	-7052
▁Security	-7053
▁politics	-7054
▁occasions	-7055
▁originally	-7056
apa	-7057
▁Dy	-7058
▁devi	-7059
▁drag	-7060
ounded	-7061
▁matrim	-7062
▁mutual	-7063
▁rational	-7064
▁repay	-7065
cribing	-7066
▁refuse	-7067
▁testator	-7068
▁creditors	-7069
LE	-7070
▁Exp	-7071
▁Roh	-7072
alled	-7073
▁steel	-7074
▁judges	-7075
▁agencies	-7076
▁instruction	-7077
▁SHO	-7078
chandra	-7079
▁delinqu	-7080
▁constant	-7081
mad	-7082
▁Aur	-7083
▁Divine	-7084
▁helped	-7085
▁disturb	-7086
▁justify	-7087
▁presumed	-7088
▁regularly	-7089
▁prevailing	-7090
▁perspective	-7091
▁Mic	-7092
▁Prim	-7093
▁ROAD	-7094
▁reveal	-7095
▁exhibited	-7096
▁mostly	-7097
▁resort	-7098
▁Letters	-7099
▁initiate	-7100
▁eyewitness	-7101
▁conclusions	-7102
▁hoc	-7103
▁meetings	-7104
LI	-7105
ny	-7106
▁Self	-7107
worthy	-7108
▁festival	-7109
▁attachment	-7110
oyal	-7111
ruits	-7112
oubted	-7113
overty	-7114
▁becoming	-7115
▁critical	-7116
▁admissions	-7117
ghan	-7118
▁Russ	-7119
joinder	-7120
cean	-7121
harm	-7122
▁PDD	-7123
antic	-7124
ourage	-7125
writing	-7126
▁levels	-7127
▁seemed	-7128
▁holders	-7129
▁managed	-7130
▁protected	-7131
▁Kap	-7132
▁Today	-7133
▁Govind	-7134
▁Proper	-7135
▁unique	-7136
▁director	-7137
▁secondary	-7138
▁discovered	-7139
PW	-7140
▁Trade	-7141
▁looks	-7142
▁Members	-7143
▁alleging	-7144
ops	-7145
▁zero	-7146
▁expand	-7147
cast	-7148
issue	-7149
▁roll	-7150
▁dream	-7151
▁heads	-7152
▁personality	-7153
rule	-7154
onies	-7155
▁answers	-7156
▁historical	-7157
▁processing	-7158
▁conversation	-7159
och	-7160
▁entity	-7161
▁liberal	-7162
▁attributed	-7163
▁Due	-7164
cript	-7165
▁youth	-7166
▁desert	-7167
▁enumer	-7168
▁nearby	-7169
▁designed	-7170
▁emphasis	-7171
ocol	-7172
resents	-7173
▁placing	-7174
▁murdered	-7175
▁opposition	-7176
▁Gul	-7177
▁Shar	-7178
▁Suresh	-7179
▁communal	-7180
aign	-7181
▁Khat	-7182
▁aw	-7183
▁vag	-7184
ogether	-7185
▁talking	-7186
▁tenants	-7187
▁depending	-7188
mity	-7189
▁Don	-7190
▁constr	-7191
▁indirect	-7192
inance	-7193
▁accru	-7194
▁blind	-7195
▁forced	-7196
▁exactly	-7197
▁pressed	-7198
▁returns	-7199
▁Something	-7200
▁affidavits	-7201
▁corroboration	-7202
appropri	-7203
▁Ten	-7204
▁string	-7205
▁precise	-7206
▁Societies	-7207
▁precedent	-7208
▁scheduled	-7209
▁represents	-7210
lets	-7211
omach	-7212
▁Food	-7213
▁password	-7214
▁discovery	-7215
pled	-7216
▁fold	-7217
▁Original	-7218
▁dw	-7219
▁config	-7220
▁silent	-7221
▁establishing	-7222
▁satisfactory	-7223
ithm	-7224
ropol	-7225
▁rice	-7226
▁thrown	-7227
▁superann	-7228
▁unnecess	-7229
cip	-7230
▁Vir	-7231
inity	-7232
▁Aust	-7233
▁Saty	-7234
▁restriction	-7235
▁TV	-7236
▁tick	-7237
▁client	-7238
▁forged	-7239
▁sovere	-7240
▁profits	-7241
▁Upon	-7242
▁rapid	-7243
▁mining	-7244
▁ritual	-7245
▁erred	-7246
▁dispose	-7247
▁exclusion	-7248
▁Investigation	-7249
akti	-7250
▁sad	-7251
▁wel	-7252
▁Chow	-7253
▁hall	-7254
▁birds	-7255
isputed	-7256
▁brings	-7257
▁myself	-7258
▁discipline	-7259
▁implicated	-7260
ju	-7261
ajan	-7262
emark	-7263
otton	-7264
▁ancest	-7265
▁battle	-7266
fer	-7267
▁ND	-7268
eros	-7269
▁tea	-7270
▁Last	-7271
▁Urdu	-7272
▁Water	-7273
▁traffic	-7274
▁........	-7275
▁unlawful	-7276
▁imagination	-7277
▁implemented	-7278
▁ende	-7279
▁shops	-7280
▁cancel	-7281
▁disbel	-7282
▁deprived	-7283
SP	-7284
loc	-7285
▁Um	-7286
ohol	-7287
pura	-7288
▁Cur	-7289
▁apex	-7290
▁goal	-7291
▁wait	-7292
▁absent	-7293
▁beings	-7294
▁injust	-7295
▁cognizable	-7296
SR	-7297
akf	-7298
jun	-7299
ganj	-7300
▁&#1	-7301
struct	-7302
▁ahead	-7303
▁discuss	-7304
▁probation	-7305
▁trademark	-7306
▁consisting	-7307
▁consultation	-7308
▁representing	-7309
▁career	-7310
▁twelve	-7311
▁refusal	-7312
▁attacked	-7313
▁AY	-7314
▁Jaw	-7315
▁Joh	-7316
▁sweet	-7317
will	-7318
▁contrib	-7319
▁reasonably	-7320
etime	-7321
▁Kolk	-7322
▁desir	-7323
▁Chance	-7324
▁strateg	-7325
▁Regional	-7326
▁Raju	-7327
▁span	-7328
▁Cabinet	-7329
▁Statute	-7330
ker	-7331
▁Choudh	-7332
▁History	-7333
pa	-7334
▁Vik	-7335
▁Attorney	-7336
▁Kir	-7337
▁defend	-7338
▁screen	-7339
▁solely	-7340
▁cricket	-7341
▁poverty	-7342
▁prospect	-7343
▁suddenly	-7344
DS	-7345
gypt	-7346
oses	-7347
▁hun	-7348
▁Keep	-7349
▁bull	-7350
▁Among	-7351
▁greatest	-7352
mat	-7353
▁Anil	-7354
▁correctly	-7355
▁governing	-7356
▁successfully	-7357
ida	-7358
▁BY	-7359
▁pi	-7360
▁Chak	-7361
▁Jail	-7362
▁blank	-7363
EP	-7364
▁Bur	-7365
▁wal	-7366
isdom	-7367
▁grown	-7368
oubtedly	-7369
▁borrower	-7370
▁compelled	-7371
▁Patent	-7372
▁Sardar	-7373
▁essence	-7374
▁producing	-7375
▁regulation	-7376
▁Deed	-7377
▁mail	-7378
▁resign	-7379
rigation	-7380
▁involves	-7381
▁treating	-7382
HAR	-7383
bly	-7384
▁Lah	-7385
▁poets	-7386
▁largest	-7387
▁pleasure	-7388
▁fulfilled	-7389
▁deny	-7390
▁customers	-7391
ux	-7392
▁du	-7393
isis	-7394
rows	-7395
▁Addl	-7396
▁Pandit	-7397
▁covering	-7398
▁suggests	-7399
▁programmes	-7400
▁matrimonial	-7401
IP	-7402
rh	-7403
▁Pap	-7404
▁dedu	-7405
▁Egypt	-7406
▁deliberately	-7407
.00	-7408
▁Mrs	-7409
▁sin	-7410
▁Debt	-7411
▁Sand	-7412
▁hind	-7413
▁Sinha	-7414
▁endeav	-7415
▁mission	-7416
▁imposition	-7417
▁irregularity	-7418
DC	-7419
▁१६	-7420
▁royal	-7421
▁Technical	-7422
izes	-7423
▁Ray	-7424
▁Yes	-7425
▁concerning	-7426
▁inconsistent	-7427
JC	-7428
▁ring	-7429
▁Compl	-7430
▁users	-7431
▁Interest	-7432
▁succeeded	-7433
▁SA	-7434
vast	-7435
▁inher	-7436
▁Record	-7437
▁defeat	-7438
▁daughters	-7439
▁injustice	-7440
▁pollution	-7441
▁performing	-7442
iers	-7443
▁Liqu	-7444
habilitation	-7445
▁confirmation	-7446
▁Sund	-7447
▁unex	-7448
▁directory	-7449
inct	-7450
▁pit	-7451
▁Shuk	-7452
othing	-7453
▁analog	-7454
▁promin	-7455
▁Kishore	-7456
▁reaching	-7457
▁household	-7458
▁tim	-7459
ander	-7460
▁pret	-7461
ceived	-7462
erated	-7463
▁Chancellor	-7464
▁Mam	-7465
▁Sud	-7466
▁fet	-7467
▁Unit	-7468
▁bare	-7469
▁pregn	-7470
▁disapp	-7471
▁Israeli	-7472
▁cutting	-7473
▁org	-7474
▁sla	-7475
▁habit	-7476
▁inviting	-7477
▁preceding	-7478
▁instruments	-7479
▁restrictions	-7480
▁hel	-7481
▁phen	-7482
▁horse	-7483
istence	-7484
▁affirmed	-7485
▁delinquent	-7486
iant	-7487
icus	-7488
▁sites	-7489
mittees	-7490
ulous	-7491
▁inclus	-7492
▁enhanced	-7493
▁Ku	-7494
atra	-7495
dess	-7496
▁batch	-7497
▁attended	-7498
▁diseases	-7499
▁levelled	-7500
OC	-7501
uit	-7502
▁architect	-7503
▁amendments	-7504
▁apprehension	-7505
▁inev	-7506
ressive	-7507
▁folder	-7508
▁supreme	-7509
▁thousands	-7510
▁Directorate	-7511
tes	-7512
▁Ach	-7513
▁sky	-7514
▁AGED	-7515
▁Bhat	-7516
ounder	-7517
▁route	-7518
▁schemes	-7519
▁imposing	-7520
▁designated	-7521
urch	-7522
▁See	-7523
▁doesn	-7524
▁contends	-7525
▁declined	-7526
▁pointing	-7527
top	-7528
▁EX	-7529
▁Jos	-7530
▁eth	-7531
venth	-7532
▁coin	-7533
▁prose	-7534
▁spect	-7535
▁Sushil	-7536
▁please	-7537
▁tissue	-7538
▁purview	-7539
▁assessing	-7540
oring	-7541
▁Life	-7542
▁Sidd	-7543
▁wild	-7544
▁Whereas	-7545
▁jun	-7546
▁catch	-7547
▁trave	-7548
▁Failed	-7549
▁Instru	-7550
▁derived	-7551
ropolitan	-7552
▁conclude	-7553
▁improper	-7554
▁Champaran	-7555
PF	-7556
▁Far	-7557
ashing	-7558
▁occurs	-7559
▁translation	-7560
indra	-7561
▁sets	-7562
▁forci	-7563
▁Review	-7564
▁acquire	-7565
DU	-7566
▁pad	-7567
arpur	-7568
ainted	-7569
▁accom	-7570
▁exhaust	-7571
▁substitute	-7572
▁maintainability	-7573
oria	-7574
▁fled	-7575
icidal	-7576
▁saved	-7577
▁reinstate	-7578
AJ	-7579
▁thumb	-7580
▁initiation	-7581
eta	-7582
riya	-7583
apping	-7584
▁stomach	-7585
▁confusion	-7586
▁compulsory	-7587
▁distinguished	-7588
▁opportunities	-7589
▁pati	-7590
vation	-7591
▁casual	-7592
▁package	-7593
▁Technology	-7594
▁Ank	-7595
▁quiet	-7596
▁Rakesh	-7597
▁simult	-7598
▁killing	-7599
▁campaign	-7600
▁Arun	-7601
▁bran	-7602
▁stab	-7603
▁dance	-7604
▁decades	-7605
▁Examination	-7606
rary	-7607
▁elim	-7608
▁mos	-7609
▁cycle	-7610
▁enmity	-7611
▁inserted	-7612
got	-7613
kha	-7614
▁Cast	-7615
▁dign	-7616
▁fifth	-7617
▁speaks	-7618
▁Kolkata	-7619
▁promote	-7620
▁resolved	-7621
▁possessed	-7622
▁tune	-7623
▁banking	-7624
▁Himachal	-7625
▁parameters	-7626
▁introduction	-7627
uv	-7628
jan	-7629
▁Env	-7630
▁dog	-7631
▁Sita	-7632
▁laying	-7633
▁routine	-7634
▁Internet	-7635
▁comparison	-7636
BC	-7637
norm	-7638
▁mob	-7639
▁elic	-7640
▁Circular	-7641
▁Use	-7642
▁admits	-7643
▁movements	-7644
Rs	-7645
ids	-7646
▁hat	-7647
▁tab	-7648
▁Tele	-7649
▁noise	-7650
▁margin	-7651
▁anybody	-7652
▁creates	-7653
▁naturally	-7654
▁investigate	-7655
▁Rural	-7656
▁minds	-7657
▁Electricity	-7658
▁exceptional	-7659
▁Dam	-7660
ingly	-7661
▁scen	-7662
▁garden	-7663
▁renewal	-7664
▁territory	-7665
oop	-7666
rity	-7667
onance	-7668
▁breed	-7669
▁facing	-7670
▁denying	-7671
▁Ann	-7672
erent	-7673
▁Nare	-7674
▁consum	-7675
▁violated	-7676
▁writings	-7677
▁instances	-7678
amed	-7679
empted	-7680
▁incumb	-7681
▁vendor	-7682
▁Univers	-7683
▁ignorance	-7684
▁revisional	-7685
back	-7686
▁disk	-7687
ranath	-7688
▁Shyam	-7689
▁Select	-7690
▁dispro	-7691
▁syn	-7692
▁pist	-7693
▁vary	-7694
▁revers	-7695
▁Primary	-7696
▁returning	-7697
ME	-7698
Ws	-7699
ema	-7700
▁IP	-7701
▁Naw	-7702
hemat	-7703
▁Program	-7704
▁influenced	-7705
▁personally	-7706
Nos	-7707
▁ju	-7708
▁oath	-7709
▁wisdom	-7710
▁existed	-7711
▁farmers	-7712
▁prohibition	-7713
▁mir	-7714
▁ste	-7715
oning	-7716
▁privilege	-7717
hensive	-7718
locutory	-7719
▁Brahman	-7720
▁bidders	-7721
▁warning	-7722
▁contradict	-7723
▁supplementary	-7724
▁Count	-7725
▁earned	-7726
▁accompl	-7727
▁divorce	-7728
▁dangerous	-7729
unicipality	-7730
▁altogether	-7731
▁apparently	-7732
▁exclusively	-7733
▁1	-7734
mal	-7735
▁Dub	-7736
▁ram	-7737
▁bids	-7738
▁requiring	-7739
▁intelligence	-7740
▁SL	-7741
oman	-7742
▁Bag	-7743
▁Mas	-7744
amount	-7745
▁firing	-7746
▁Secondly	-7747
▁composed	-7748
▁maintaining	-7749
▁Cal	-7750
arwal	-7751
▁Main	-7752
▁relev	-7753
▁teach	-7754
▁Bahadur	-7755
▁Discipl	-7756
▁experts	-7757
▁projected	-7758
▁Mir	-7759
▁sect	-7760
▁mixed	-7761
▁fifteen	-7762
oly	-7763
▁Chh	-7764
▁Bang	-7765
▁backward	-7766
▁witnessed	-7767
▁difficulties	-7768
▁CC	-7769
▁Shi	-7770
▁Body	-7771
▁fert	-7772
▁organiz	-7773
▁replace	-7774
▁provisional	-7775
izon	-7776
▁anx	-7777
▁crucial	-7778
▁conversion	-7779
▁Environment	-7780
arn	-7781
umber	-7782
▁drama	-7783
▁Mahatma	-7784
▁passion	-7785
▁arranged	-7786
alal	-7787
rating	-7788
▁annum	-7789
▁paint	-7790
▁forming	-7791
▁outcome	-7792
icon	-7793
amber	-7794
▁Over	-7795
▁drop	-7796
▁faced	-7797
▁glass	-7798
▁Person	-7799
▁breath	-7800
▁earning	-7801
▁everyone	-7802
ispr	-7803
andra	-7804
▁sear	-7805
▁trend	-7806
▁minute	-7807
▁insofar	-7808
▁younger	-7809
▁None	-7810
▁load	-7811
▁vague	-7812
amation	-7813
▁finality	-7814
▁mountain	-7815
▁reaction	-7816
▁interfered	-7817
AI	-7818
zz	-7819
▁gate	-7820
▁isol	-7821
▁loans	-7822
▁roads	-7823
▁urban	-7824
▁failing	-7825
▁CIT	-7826
▁Educ	-7827
▁Leave	-7828
piration	-7829
▁interrog	-7830
ef	-7831
ugh	-7832
▁Bil	-7833
▁Vide	-7834
▁Chait	-7835
▁quasi	-7836
▁lawful	-7837
▁doctors	-7838
▁entrance	-7839
▁nominated	-7840
▁Rev	-7841
▁tested	-7842
▁Foreign	-7843
▁thorough	-7844
▁IC	-7845
▁Sit	-7846
▁flo	-7847
▁Pleader	-7848
▁deserve	-7849
▁Human	-7850
▁bribe	-7851
iveness	-7852
▁relate	-7853
▁rivers	-7854
▁operative	-7855
▁installation	-7856
AB	-7857
andi	-7858
▁ego	-7859
▁Force	-7860
▁Third	-7861
▁executing	-7862
▁accommodation	-7863
dev	-7864
ellow	-7865
▁cool	-7866
▁Point	-7867
▁truck	-7868
▁departments	-7869
▁intervention	-7870
unath	-7871
urved	-7872
▁Appeals	-7873
▁Brahmin	-7874
▁journal	-7875
▁Mahabhar	-7876
▁assuming	-7877
▁districts	-7878
▁Mor	-7879
▁fed	-7880
▁Good	-7881
▁Pass	-7882
▁teeth	-7883
▁sequence	-7884
▁announced	-7885
▁competition	-7886
▁transmission	-7887
abha	-7888
arer	-7889
wara	-7890
▁Ang	-7891
▁vir	-7892
▁spons	-7893
▁meters	-7894
▁alcohol	-7895
race	-7896
▁Kot	-7897
▁abst	-7898
▁Bureau	-7899
▁flowers	-7900
urbed	-7901
▁deem	-7902
scious	-7903
▁healthy	-7904
roc	-7905
ooth	-7906
▁implied	-7907
▁superannuation	-7908
odh	-7909
▁wise	-7910
▁premium	-7911
▁deposits	-7912
▁Vigilance	-7913
▁voluntarily	-7914
▁zone	-7915
idance	-7916
▁twice	-7917
▁French	-7918
▁Related	-7919
▁trading	-7920
▁imperial	-7921
▁Saraswati	-7922
lo	-7923
son	-7924
plete	-7925
▁brid	-7926
▁Allow	-7927
▁Women	-7928
▁votes	-7929
▁Agency	-7930
▁shared	-7931
▁extending	-7932
▁violative	-7933
heb	-7934
▁Sik	-7935
iliar	-7936
ulatory	-7937
▁center	-7938
▁protest	-7939
▁suggestions	-7940
oure	-7941
▁Mahe	-7942
▁Hotel	-7943
▁combined	-7944
▁criticism	-7945
▁improvement	-7946
▁pu	-7947
▁Pas	-7948
▁hop	-7949
▁ended	-7950
▁oppon	-7951
employ	-7952
▁kumar	-7953
▁spoke	-7954
▁occupied	-7955
▁attempted	-7956
▁effectively	-7957
▁substantiate	-7958
▁Had	-7959
orter	-7960
▁fulfil	-7961
▁infringement	-7962
▁Ji	-7963
ohan	-7964
▁ast	-7965
igation	-7966
▁representations	-7967
ese	-7968
▁rub	-7969
▁focus	-7970
▁trouble	-7971
▁innocence	-7972
▁Ter	-7973
▁Stud	-7974
▁sacred	-7975
▁praying	-7976
▁newspapers	-7977
▁Furthermore	-7978
MS	-7979
achi	-7980
alace	-7981
anchi	-7982
▁Chem	-7983
▁wire	-7984
astern	-7985
▁enemy	-7986
▁Dinesh	-7987
▁invoke	-7988
UL	-7989
arc	-7990
▁crowd	-7991
▁tract	-7992
▁Without	-7993
▁examples	-7994
▁definitely	-7995
▁Ha	-7996
from	-7997
▁poly	-7998
▁newly	-7999
▁radio	-8000
▁abroad	-8001
▁Nothing	-8002
▁regions	-8003
▁hardship	-8004
▁evidences	-8005
▁Palestinian	-8006
wor	-8007
▁Rab	-8008
▁SRI	-8009
▁university	-8010
iel	-8011
gaon	-8012
▁wed	-8013
▁Amar	-8014
▁vote	-8015
▁Advocates	-8016
▁observing	-8017
▁irrelevant	-8018
aon	-8019
▁Mil	-8020
▁Vas	-8021
umping	-8022
▁brand	-8023
▁cryst	-8024
vastava	-8025
▁Despite	-8026
▁accurate	-8027
▁restrict	-8028
▁somebody	-8029
▁Tue	-8030
▁bath	-8031
verted	-8032
▁Great	-8033
ignment	-8034
witness	-8035
▁joining	-8036
▁weather	-8037
▁disabled	-8038
▁sacrifice	-8039
▁completing	-8040
▁Kor	-8041
endar	-8042
roller	-8043
▁nobody	-8044
▁quickly	-8045
▁monetary	-8046
▁sleeping	-8047
▁dismissing	-8048
pel	-8049
▁cattle	-8050
▁flower	-8051
▁Neither	-8052
▁indicating	-8053
▁ec	-8054
▁tur	-8055
▁Chit	-8056
▁Prom	-8057
▁eggs	-8058
orious	-8059
▁Shukla	-8060
▁consolid	-8061
▁calculated	-8062
▁concurrent	-8063
▁substantially	-8064
cond	-8065
▁Ser	-8066
▁scales	-8067
▁jointly	-8068
ravention	-8069
▁priority	-8070
▁arrangements	-8071
▁doubts	-8072
▁strange	-8073
▁practices	-8074
▁Educational	-8075
,0	-8076
pire	-8077
▁revol	-8078
naments	-8079
▁temperature	-8080
▁Exper	-8081
▁duration	-8082
▁incidents	-8083
▁discretionary	-8084
hin	-8085
hus	-8086
▁Fed	-8087
▁beg	-8088
▁Area	-8089
▁Geor	-8090
▁uphold	-8091
▁wearing	-8092
▁undertake	-8093
▁underlying	-8094
▁Til	-8095
rates	-8096
abling	-8097
▁Raman	-8098
▁Sheikh	-8099
▁learnt	-8100
▁branches	-8101
▁offender	-8102
▁leadership	-8103
pad	-8104
ners	-8105
▁Kat	-8106
allel	-8107
enger	-8108
▁Legal	-8109
▁plans	-8110
ariness	-8111
▁organised	-8112
▁Rent	-8113
▁Sang	-8114
▁Ahmad	-8115
▁fifty	-8116
▁walls	-8117
▁pistol	-8118
▁courage	-8119
▁bleeding	-8120
▁enforced	-8121
aha	-8122
hew	-8123
raid	-8124
▁shad	-8125
engers	-8126
▁Indeed	-8127
▁Network	-8128
▁Lecturer	-8129
▁Metropolitan	-8130
▁contravention	-8131
▁doll	-8132
▁Ganesh	-8133
▁contest	-8134
▁exhibit	-8135
▁meantime	-8136
▁infection	-8137
▁processes	-8138
▁Legislative	-8139
▁Lordships	-8140
pay	-8141
▁Amb	-8142
▁Mult	-8143
▁excell	-8144
▁levied	-8145
▁nations	-8146
▁ornaments	-8147
pic	-8148
ugg	-8149
▁MAN	-8150
▁Tata	-8151
▁fate	-8152
▁lesser	-8153
▁tonnes	-8154
▁tendered	-8155
▁declaring	-8156
▁clin	-8157
▁filling	-8158
▁quarter	-8159
▁receipts	-8160
▁centuries	-8161
▁Protection	-8162
▁contending	-8163
▁undisputed	-8164
▁Ary	-8165
icity	-8166
▁Rest	-8167
▁Wind	-8168
▁cord	-8169
▁devot	-8170
▁widow	-8171
▁burning	-8172
▁compens	-8173
▁sustain	-8174
▁recourse	-8175
▁efficient	-8176
▁Memorandum	-8177
▁Prevention	-8178
▁assumption	-8179
▁UN	-8180
▁budget	-8181
▁Panchay	-8182
▁rendering	-8183
▁manufactured	-8184
itle	-8185
want	-8186
▁Tehs	-8187
▁Nepal	-8188
▁Register	-8189
▁distinguish	-8190
▁clarification	-8191
▁Si	-8192
atrix	-8193
▁ruling	-8194
▁serial	-8195
▁suffers	-8196
▁attendance	-8197
▁Governments	-8198
▁MM	-8199
aria	-8200
▁Misc	-8201
▁incon	-8202
▁Circle	-8203
▁starts	-8204
▁summary	-8205
▁Exchange	-8206
▁Likewise	-8207
isprudence	-8208
▁destroyed	-8209
▁prohibited	-8210
gone	-8211
tery	-8212
▁Equ	-8213
▁USA	-8214
▁shift	-8215
then	-8216
ridge	-8217
▁abet	-8218
▁pock	-8219
▁repos	-8220
▁assured	-8221
▁printed	-8222
▁gratuity	-8223
▁southern	-8224
▁terminal	-8225
▁demonstrate	-8226
▁Mos	-8227
▁manip	-8228
▁fellow	-8229
▁phrase	-8230
▁Naz	-8231
▁Bazar	-8232
▁bears	-8233
▁bottle	-8234
▁exceeding	-8235
▁Key	-8236
▁Tra	-8237
▁canv	-8238
▁misc	-8239
enable	-8240
▁indig	-8241
▁sword	-8242
▁vires	-8243
▁estimated	-8244
▁Dil	-8245
▁Note	-8246
▁Binoy	-8247
▁print	-8248
▁Subhash	-8249
▁hereunder	-8250
▁enumerated	-8251
▁shareholders	-8252
▁UGC	-8253
▁jew	-8254
examin	-8255
▁hotel	-8256
▁overt	-8257
▁destruction	-8258
▁surrounding	-8259
zing	-8260
▁Web	-8261
▁fish	-8262
▁sanct	-8263
▁preparing	-8264
▁consonance	-8265
▁suspicious	-8266
URU	-8267
lier	-8268
▁Gir	-8269
akrish	-8270
▁Manoj	-8271
▁thick	-8272
▁Chaitanya	-8273
▁Sometimes	-8274
▁happening	-8275
▁Bid	-8276
▁Lat	-8277
▁Top	-8278
iverse	-8279
▁chair	-8280
▁weigh	-8281
▁driven	-8282
▁Gazette	-8283
▁corrupt	-8284
▁discharging	-8285
MP	-8286
sman	-8287
▁Nay	-8288
▁layer	-8289
▁artific	-8290
▁Statement	-8291
▁permitting	-8292
ixed	-8293
▁Sale	-8294
▁symp	-8295
▁crisis	-8296
▁parcel	-8297
▁presentation	-8298
rum	-8299
▁NE	-8300
▁pp	-8301
▁Doc	-8302
actor	-8303
▁ITAT	-8304
▁......	-8305
▁guidance	-8306
▁Cre	-8307
▁Mant	-8308
▁grav	-8309
▁factum	-8310
▁Hindust	-8311
▁Jawahar	-8312
▁awarding	-8313
▁comments	-8314
LC	-8315
▁NH	-8316
▁Bir	-8317
etent	-8318
theless	-8319
▁Aurang	-8320
▁bottom	-8321
▁Housing	-8322
▁Persian	-8323
▁Forensic	-8324
▁propriet	-8325
▁prevented	-8326
▁Laboratory	-8327
▁liabilities	-8328
aza	-8329
appe	-8330
▁kit	-8331
▁Ajay	-8332
▁baby	-8333
▁cong	-8334
▁qualifying	-8335
▁restraining	-8336
▁Da	-8337
plies	-8338
▁Chat	-8339
▁asset	-8340
▁abnorm	-8341
▁fallen	-8342
▁amounting	-8343
▁convention	-8344
▁guaranteed	-8345
▁probability	-8346
▁contradiction	-8347
TP	-8348
▁subsection	-8349
▁interlocutory	-8350
▁Lo	-8351
▁CWJC	-8352
▁Hold	-8353
▁conj	-8354
▁customs	-8355
▁affection	-8356
wad	-8357
veer	-8358
▁incap	-8359
▁devoid	-8360
▁amalg	-8361
▁taxes	-8362
▁finance	-8363
▁insisted	-8364
▁punished	-8365
SI	-8366
uti	-8367
▁AN	-8368
cles	-8369
long	-8370
ture	-8371
▁crops	-8372
▁suspect	-8373
plication	-8374
▁settings	-8375
▁Conference	-8376
oul	-8377
▁John	-8378
▁myst	-8379
▁Mahesh	-8380
▁forget	-8381
▁gather	-8382
▁thinks	-8383
▁avoided	-8384
▁enterpr	-8385
▁studied	-8386
▁verified	-8387
▁Appellants	-8388
▁structures	-8389
zen	-8390
▁१७	-8391
bing	-8392
▁APP	-8393
▁cos	-8394
▁Zone	-8395
▁frust	-8396
▁Temple	-8397
▁assume	-8398
▁Customs	-8399
▁housing	-8400
▁transportation	-8401
▁NS	-8402
▁quo	-8403
▁Coal	-8404
▁Name	-8405
▁solid	-8406
▁worker	-8407
▁Teachers	-8408
▁fixation	-8409
▁northern	-8410
▁offering	-8411
eli	-8412
tar	-8413
▁Chau	-8414
▁lung	-8415
▁onus	-8416
▁Three	-8417
▁lawyer	-8418
▁notifications	-8419
aces	-8420
▁cav	-8421
▁dipl	-8422
▁drew	-8423
▁Arbitral	-8424
▁Institutions	-8425
▁TR	-8426
▁rough	-8427
▁accompany	-8428
▁testatrix	-8429
ache	-8430
▁gap	-8431
▁core	-8432
▁race	-8433
▁shut	-8434
ensity	-8435
▁Durga	-8436
▁chart	-8437
▁emerged	-8438
▁residents	-8439
var	-8440
▁Bij	-8441
▁Hasan	-8442
▁Buddha	-8443
▁signal	-8444
▁convert	-8445
▁messages	-8446
▁lays	-8447
▁Indep	-8448
▁coast	-8449
▁Mobile	-8450
▁manage	-8451
▁confident	-8452
▁conscience	-8453
▁submitting	-8454
▁appreciating	-8455
ek	-8456
aked	-8457
oked	-8458
▁Spec	-8459
▁Arora	-8460
▁chapter	-8461
▁detenue	-8462
▁enjoyment	-8463
▁intimation	-8464
▁communities	-8465
▁da	-8466
▁iv	-8467
▁000	-8468
▁Saf	-8469
▁fuel	-8470
▁Insofar	-8471
▁manager	-8472
▁Transfer	-8473
▁legality	-8474
▁terrorist	-8475
ICE	-8476
ogen	-8477
▁spr	-8478
tered	-8479
▁verse	-8480
▁Eastern	-8481
▁coupled	-8482
▁obliged	-8483
▁prayers	-8484
▁restraint	-8485
▁absorption	-8486
▁electronic	-8487
▁dan	-8488
▁League	-8489
▁patent	-8490
▁tempor	-8491
▁offices	-8492
▁handwriting	-8493
▁Kol	-8494
oices	-8495
▁Guwah	-8496
▁keros	-8497
▁monitor	-8498
▁launched	-8499
▁Vers	-8500
▁plat	-8501
▁familiar	-8502
▁conference	-8503
▁unnecessary	-8504
AC	-8505
▁News	-8506
▁Ambed	-8507
▁advis	-8508
▁Common	-8509
▁visual	-8510
▁Guwahati	-8511
▁contested	-8512
▁approximately	-8513
RO	-8514
▁Ba	-8515
abet	-8516
uran	-8517
▁AGE	-8518
▁obst	-8519
▁rushed	-8520
▁retained	-8521
▁dimension	-8522
▁substituted	-8523
▁entertainment	-8524
▁Nig	-8525
▁Urban	-8526
ologist	-8527
▁desired	-8528
▁mahazar	-8529
▁Ambedkar	-8530
▁affecting	-8531
▁preference	-8532
ius	-8533
ris	-8534
▁Arch	-8535
▁helps	-8536
▁afraid	-8537
▁integrity	-8538
▁unconscious	-8539
ML	-8540
heet	-8541
▁Occ	-8542
▁PIL	-8543
▁Siva	-8544
▁ultra	-8545
▁Pratap	-8546
▁retain	-8547
▁Instead	-8548
▁decreed	-8549
▁staying	-8550
▁realised	-8551
▁governments	-8552
anka	-8553
▁NCT	-8554
▁reop	-8555
utable	-8556
▁logical	-8557
▁planned	-8558
inn	-8559
what	-8560
anges	-8561
inces	-8562
▁organis	-8563
ographical	-8564
▁Employees	-8565
chen	-8566
▁Lic	-8567
compl	-8568
rance	-8569
▁inad	-8570
▁score	-8571
▁errors	-8572
▁Jagdish	-8573
rad	-8574
icate	-8575
▁carbon	-8576
▁unlike	-8577
▁formulated	-8578
▁expectation	-8579
▁VII	-8580
▁stones	-8581
▁assailants	-8582
edia	-8583
▁tied	-8584
▁incom	-8585
ableness	-8586
stone	-8587
▁Disp	-8588
▁disci	-8589
▁imported	-8590
▁Thir	-8591
▁saint	-8592
▁theme	-8593
▁taught	-8594
▁laboure	-8595
▁reduction	-8596
▁credibility	-8597
UB	-8598
▁dress	-8599
▁label	-8600
▁viewed	-8601
▁regional	-8602
▁Ministers	-8603
▁evolution	-8604
▁relevance	-8605
▁furtherance	-8606
▁MR	-8607
▁abol	-8608
▁tong	-8609
▁Local	-8610
▁Rights	-8611
▁insurer	-8612
▁inferior	-8613
▁concession	-8614
▁simultaneously	-8615
kumar	-8616
▁Orders	-8617
▁attain	-8618
▁asserted	-8619
ys	-8620
▁Deg	-8621
▁Phys	-8622
father	-8623
ortium	-8624
▁abdom	-8625
▁propag	-8626
▁electric	-8627
▁mandamus	-8628
▁securing	-8629
▁followers	-8630
iae	-8631
▁pair	-8632
▁unsu	-8633
▁plots	-8634
▁delayed	-8635
▁plastic	-8636
▁efficiency	-8637
▁Liquid	-8638
▁metres	-8639
▁Guarant	-8640
▁onwards	-8641
▁conclusive	-8642
emn	-8643
hal	-8644
▁Sk	-8645
rier	-8646
▁Mount	-8647
▁rooms	-8648
raction	-8649
▁verses	-8650
▁feelings	-8651
▁transform	-8652
▁Gora	-8653
▁Cases	-8654
▁beaten	-8655
▁begins	-8656
▁offers	-8657
▁specim	-8658
▁Austral	-8659
▁dignity	-8660
▁writers	-8661
▁physically	-8662
arkar	-8663
▁Mang	-8664
▁expan	-8665
▁reass	-8666
fulness	-8667
▁corner	-8668
▁expedit	-8669
▁accorded	-8670
▁commonly	-8671
▁investigated	-8672
EG	-8673
fall	-8674
▁tor	-8675
▁Business	-8676
▁Bengaluru	-8677
▁convinced	-8678
▁membership	-8679
vol	-8680
▁la	-8681
SION	-8682
▁Ear	-8683
earing	-8684
▁kerosene	-8685
▁incumbent	-8686
sp	-8687
arita	-8688
▁Kann	-8689
▁masses	-8690
▁violent	-8691
▁possibly	-8692
▁proposals	-8693
▁religions	-8694
▁anticipatory	-8695
HI	-8696
UT	-8697
▁Und	-8698
▁Bhai	-8699
▁Sukh	-8700
▁backd	-8701
▁Comment	-8702
▁distrib	-8703
▁numerous	-8704
▁comprehensive	-8705
▁Data	-8706
▁desc	-8707
▁depth	-8708
judicial	-8709
▁eastern	-8710
▁illness	-8711
▁Bro	-8712
atisf	-8713
▁enunci	-8714
▁searched	-8715
▁societies	-8716
▁subscribe	-8717
▁CA	-8718
udge	-8719
▁Mean	-8720
▁Sign	-8721
▁divide	-8722
▁assurance	-8723
▁Dictionary	-8724
▁corruption	-8725
▁Wa	-8726
▁Band	-8727
▁Rani	-8728
▁Credit	-8729
▁emerges	-8730
▁kilomet	-8731
▁demanding	-8732
▁Disciplinary	-8733
lat	-8734
▁SI	-8735
HC	-8736
ouch	-8737
▁yes	-8738
night	-8739
organ	-8740
▁bats	-8741
▁edge	-8742
▁nerv	-8743
▁malaf	-8744
▁Chrome	-8745
▁muscle	-8746
▁deleted	-8747
xus	-8748
▁rig	-8749
▁hill	-8750
▁matern	-8751
▁undergone	-8752
▁arbitrariness	-8753
▁SAR	-8754
▁unequ	-8755
▁educated	-8756
▁statutes	-8757
▁thoughts	-8758
▁component	-8759
▁facilitate	-8760
▁limitations	-8761
▁discrepancies	-8762
▁GR	-8763
enders	-8764
▁domin	-8765
Os	-8766
▁Id	-8767
ogue	-8768
▁cam	-8769
ician	-8770
▁Ravi	-8771
▁erst	-8772
▁hect	-8773
▁mine	-8774
ompany	-8775
▁Letter	-8776
▁Tribes	-8777
▁Germany	-8778
▁eventually	-8779
▁hesitation	-8780
▁environmental	-8781
preci	-8782
▁poetic	-8783
▁enabled	-8784
▁discover	-8785
atre	-8786
onic	-8787
▁chrom	-8788
ifiable	-8789
▁Afghan	-8790
▁Merely	-8791
▁bright	-8792
▁orient	-8793
▁regime	-8794
▁Children	-8795
▁locality	-8796
▁convenient	-8797
key	-8798
obe	-8799
orry	-8800
▁busy	-8801
▁intest	-8802
lessness	-8803
▁enabling	-8804
▁apprehended	-8805
▁shr	-8806
ashed	-8807
▁Sahu	-8808
▁Highway	-8809
▁involve	-8810
▁shoulder	-8811
▁unauthorized	-8812
▁IA	-8813
▁Art	-8814
ccess	-8815
▁alarm	-8816
▁Castes	-8817
▁reader	-8818
▁Province	-8819
▁Petitions	-8820
▁suspended	-8821
▁pronouncement	-8822
▁tro	-8823
assed	-8824
▁crim	-8825
▁Pursu	-8826
▁accus	-8827
▁wishes	-8828
▁distributed	-8829
▁expressions	-8830
▁afresh	-8831
▁Bhagwan	-8832
▁replaced	-8833
▁universe	-8834
▁prominent	-8835
▁conformity	-8836
agi	-8837
▁Ren	-8838
▁flag	-8839
▁grew	-8840
▁resc	-8841
▁pipes	-8842
▁pound	-8843
▁reinstatement	-8844
ahan	-8845
▁covers	-8846
▁incent	-8847
▁remind	-8848
▁Britain	-8849
▁mandapa	-8850
▁nowhere	-8851
▁competence	-8852
ruct	-8853
▁Dav	-8854
▁Bhav	-8855
▁File	-8856
▁disag	-8857
▁closely	-8858
▁disposs	-8859
▁lecture	-8860
lex	-8861
stated	-8862
▁Madan	-8863
▁images	-8864
▁firstly	-8865
▁partial	-8866
▁anywhere	-8867
▁Engineers	-8868
▁erstwhile	-8869
▁municipal	-8870
▁celebrated	-8871
▁combination	-8872
▁CL	-8873
▁VI	-8874
▁upl	-8875
▁Shiva	-8876
▁relies	-8877
▁tribal	-8878
▁supervis	-8879
▁equitable	-8880
▁Bet	-8881
erate	-8882
house	-8883
▁View	-8884
idavit	-8885
▁Crores	-8886
▁stress	-8887
▁Present	-8888
▁beating	-8889
▁Maharaja	-8890
▁infinite	-8891
▁somewhat	-8892
▁repeatedly	-8893
▁cooperation	-8894
GA	-8895
co	-8896
▁York	-8897
▁attempts	-8898
▁classified	-8899
▁fraudulent	-8900
ding	-8901
▁van	-8902
ieving	-8903
incial	-8904
▁Caste	-8905
▁flood	-8906
▁sympt	-8907
▁hidden	-8908
St	-8909
ria	-8910
reet	-8911
ument	-8912
arding	-8913
▁Based	-8914
▁Tender	-8915
▁carries	-8916
▁Pursuant	-8917
▁arriving	-8918
▁concerns	-8919
▁elaborate	-8920
gue	-8921
▁NAME	-8922
▁Vedic	-8923
▁bonds	-8924
▁Enable	-8925
▁Constitutional	-8926
play	-8927
plex	-8928
▁mov	-8929
▁rom	-8930
▁fard	-8931
▁loose	-8932
▁honest	-8933
▁ration	-8934
▁accrued	-8935
▁qualities	-8936
▁affiliation	-8937
br	-8938
AGAR	-8939
▁Wed	-8940
▁curt	-8941
▁deity	-8942
▁organs	-8943
▁decline	-8944
▁fighting	-8945
▁awareness	-8946
▁discarded	-8947
raf	-8948
urg	-8949
asty	-8950
▁Ward	-8951
hement	-8952
▁allows	-8953
▁cotton	-8954
▁ignore	-8955
▁Controller	-8956
alam	-8957
▁mel	-8958
▁PRODU	-8959
▁audio	-8960
▁signs	-8961
▁Inquiry	-8962
▁Property	-8963
▁inferred	-8964
▁remanded	-8965
▁vehement	-8966
▁continuously	-8967
uni	-8968
ghal	-8969
▁haz	-8970
anese	-8971
▁Gaut	-8972
uality	-8973
▁patri	-8974
▁Registry	-8975
▁peaceful	-8976
▁suppressed	-8977
▁misappropri	-8978
▁upgr	-8979
▁Sales	-8980
▁Vaishn	-8981
▁rememb	-8982
▁ensuring	-8983
▁rejoinder	-8984
▁previously	-8985
dict	-8986
▁vit	-8987
adequ	-8988
▁gods	-8989
▁node	-8990
▁.....	-8991
▁meter	-8992
▁mutation	-8993
respondent	-8994
▁enhancement	-8995
bey	-8996
lav	-8997
▁Nil	-8998
ipher	-8999
▁Move	-9000
▁Small	-9001
▁logic	-9002
▁Unless	-9003
▁defines	-9004
▁fracture	-9005
▁presently	-9006
▁continuation	-9007
lad	-9008
arsa	-9009
▁BEN	-9010
▁hyd	-9011
▁mad	-9012
▁George	-9013
▁Market	-9014
▁adding	-9015
examined	-9016
▁packets	-9017
▁enclosed	-9018
▁artificial	-9019
▁convicting	-9020
eree	-9021
abhai	-9022
ainty	-9023
▁eigh	-9024
▁Saroj	-9025
itative	-9026
▁awards	-9027
▁yellow	-9028
▁specify	-9029
▁expansion	-9030
▁collecting	-9031
▁passengers	-9032
ECT	-9033
raw	-9034
▁Adh	-9035
▁apt	-9036
▁prince	-9037
▁escaped	-9038
▁ascertained	-9039
akk	-9040
asim	-9041
sues	-9042
orous	-9043
quest	-9044
▁Bach	-9045
erring	-9046
opping	-9047
▁Issue	-9048
▁ocean	-9049
▁insert	-9050
▁Islamist	-9051
▁overlook	-9052
▁consumers	-9053
▁impleaded	-9054
▁assignment	-9055
▁entitlement	-9056
was	-9057
isal	-9058
▁shif	-9059
▁circle	-9060
▁PRODUCT	-9061
▁largely	-9062
▁resolve	-9063
▁absorbed	-9064
▁correspondence	-9065
VAT	-9066
▁Bhawan	-9067
▁Estate	-9068
▁juncture	-9069
▁endeavour	-9070
▁sovereign	-9071
agon	-9072
ulpt	-9073
igarh	-9074
▁bread	-9075
▁debate	-9076
▁parade	-9077
▁safely	-9078
▁supports	-9079
▁excessive	-9080
▁testified	-9081
ibi	-9082
▁OP	-9083
▁Sha	-9084
ammed	-9085
vable	-9086
▁Army	-9087
▁deeply	-9088
▁verify	-9089
▁altered	-9090
▁arrival	-9091
▁venture	-9092
▁ceremony	-9093
▁strongly	-9094
▁displayed	-9095
▁resistance	-9096
▁supervision	-9097
▁undoubtedly	-9098
▁contemporary	-9099
mon	-9100
▁RT	-9101
agger	-9102
osite	-9103
uated	-9104
▁hurt	-9105
▁worn	-9106
omatic	-9107
▁Vinod	-9108
▁index	-9109
▁border	-9110
▁remedies	-9111
ustainable	-9112
▁assertion	-9113
▁independently	-9114
NL	-9115
▁Mys	-9116
▁tail	-9117
▁Earth	-9118
onation	-9119
▁repair	-9120
▁components	-9121
jit	-9122
▁myth	-9123
▁lodge	-9124
▁rebut	-9125
▁Narain	-9126
▁breast	-9127
▁affects	-9128
▁resorted	-9129
▁sentences	-9130
▁requesting	-9131
▁resignation	-9132
▁ma	-9133
erer	-9134
▁smt	-9135
▁Desh	-9136
▁Vire	-9137
▁bact	-9138
▁cant	-9139
▁Harish	-9140
▁voters	-9141
▁assailed	-9142
▁parallel	-9143
ERA	-9144
▁Next	-9145
▁fasc	-9146
ulsion	-9147
▁Mehta	-9148
▁spend	-9149
urities	-9150
▁seller	-9151
▁visiting	-9152
▁concealed	-9153
▁complained	-9154
▁contesting	-9155
▁subsidiary	-9156
CR	-9157
yl	-9158
▁Fort	-9159
▁Free	-9160
▁Puri	-9161
▁wick	-9162
GALORE	-9163
▁Telang	-9164
▁strang	-9165
▁widely	-9166
▁Finally	-9167
▁options	-9168
▁whereof	-9169
▁creative	-9170
▁platform	-9171
how	-9172
beyan	-9173
peror	-9174
▁exch	-9175
▁Relig	-9176
▁deriv	-9177
edience	-9178
▁cancer	-9179
▁turning	-9180
▁Accounts	-9181
▁El	-9182
▁BDA	-9183
▁Advis	-9184
▁feels	-9185
▁gland	-9186
▁seeds	-9187
▁Tahsil	-9188
▁Taking	-9189
▁titled	-9190
▁inadequ	-9191
▁Economic	-9192
▁Aggrieved	-9193
FC	-9194
ivek	-9195
▁Jit	-9196
▁Disc	-9197
▁Kaur	-9198
▁Lakh	-9199
▁Mall	-9200
▁Modi	-9201
▁lowest	-9202
▁realise	-9203
▁tenders	-9204
▁wherever	-9205
▁extensive	-9206
▁inevitable	-9207
▁scientists	-9208
▁engineering	-9209
ario	-9210
xygen	-9211
▁lieu	-9212
▁fluid	-9213
▁wider	-9214
▁atomic	-9215
▁mechanical	-9216
atta	-9217
▁sket	-9218
▁genes	-9219
▁Ranchi	-9220
▁stored	-9221
▁climate	-9222
▁comfort	-9223
▁devices	-9224
▁silence	-9225
▁coloured	-9226
▁yourself	-9227
▁dedicated	-9228
▁desirable	-9229
▁gradually	-9230
▁furnishing	-9231
char	-9232
rete	-9233
▁Gaj	-9234
▁pup	-9235
▁update	-9236
▁appended	-9237
▁emotional	-9238
▁interpret	-9239
▁meanwhile	-9240
▁virtually	-9241
▁frequently	-9242
▁Mac	-9243
▁cod	-9244
▁pig	-9245
▁Rath	-9246
▁solve	-9247
▁stuff	-9248
▁outset	-9249
▁Constit	-9250
▁backdrop	-9251
▁finished	-9252
▁BANGALORE	-9253
▁successor	-9254
▁technique	-9255
▁adjustment	-9256
▁Cooperative	-9257
▁Oil	-9258
allan	-9259
force	-9260
▁gall	-9261
▁Langu	-9262
▁dynam	-9263
ulative	-9264
▁bodily	-9265
▁picked	-9266
▁sculpt	-9267
▁delight	-9268
▁emergency	-9269
kin	-9270
▁fron	-9271
▁chose	-9272
▁rulers	-9273
▁Working	-9274
▁drinking	-9275
▁managing	-9276
▁patients	-9277
▁detaining	-9278
▁encourage	-9279
▁generated	-9280
▁Committees	-9281
▁vehemently	-9282
▁Agriculture	-9283
▁calculation	-9284
cause	-9285
coming	-9286
▁compan	-9287
▁solemn	-9288
appellants	-9289
grim	-9290
plus	-9291
▁auton	-9292
▁cease	-9293
▁Kanpur	-9294
▁disreg	-9295
▁Perhaps	-9296
▁jurisprudence	-9297
EE	-9298
▁Tq	-9299
▁era	-9300
inese	-9301
▁Baba	-9302
▁Cell	-9303
▁Kail	-9304
▁Dubey	-9305
▁Times	-9306
▁evolved	-9307
▁disturbed	-9308
▁prescription	-9309
▁Gold	-9310
▁Norm	-9311
terior	-9312
▁colle	-9313
▁facto	-9314
▁lathi	-9315
▁toler	-9316
▁Colleges	-9317
▁interfering	-9318
ori	-9319
orrh	-9320
wani	-9321
▁Push	-9322
▁adap	-9323
▁rear	-9324
▁tape	-9325
aterial	-9326
▁Capital	-9327
▁Keeping	-9328
▁elephant	-9329
▁Condition	-9330
▁dishonest	-9331
▁exceptions	-9332
▁Sil	-9333
ensed	-9334
▁Huss	-9335
arathi	-9336
▁angle	-9337
▁Process	-9338
▁enjoyed	-9339
▁Standard	-9340
▁ignoring	-9341
▁adversely	-9342
▁informing	-9343
▁separated	-9344
▁succession	-9345
▁adjudicated	-9346
▁characteristic	-9347
▁nin	-9348
adevi	-9349
▁Srin	-9350
▁Wakf	-9351
▁dust	-9352
▁Japan	-9353
▁White	-9354
▁sorrow	-9355
▁exclude	-9356
▁secular	-9357
▁survive	-9358
▁Constitu	-9359
▁judicata	-9360
▁removing	-9361
NAME	-9362
book	-9363
▁hal	-9364
▁tub	-9365
▁ven	-9366
acent	-9367
▁Sudh	-9368
orters	-9369
▁Prabh	-9370
▁remit	-9371
inatory	-9372
ineness	-9373
▁centres	-9374
▁commitment	-9375
ayuk	-9376
▁raj	-9377
▁soci	-9378
▁tube	-9379
▁Level	-9380
▁Surat	-9381
▁aggreg	-9382
▁stretch	-9383
▁millions	-9384
▁beneficial	-9385
▁doub	-9386
▁forfe	-9387
▁shirt	-9388
▁Indore	-9389
▁bridge	-9390
▁Chauhan	-9391
▁eternal	-9392
▁vacated	-9393
▁Parishad	-9394
▁adopting	-9395
▁regulate	-9396
▁travelling	-9397
▁unsustainable	-9398
▁miss	-9399
▁forty	-9400
▁closure	-9401
represent	-9402
▁elicited	-9403
▁experiment	-9404
▁irrigation	-9405
▁communications	-9406
WP	-9407
▁Jal	-9408
▁Lit	-9409
apati	-9410
▁Term	-9411
▁simpl	-9412
▁stead	-9413
itional	-9414
natural	-9415
▁marketing	-9416
▁Construction	-9417
ded	-9418
RICT	-9419
mail	-9420
time	-9421
▁Bri	-9422
▁Ish	-9423
▁tow	-9424
▁Jagann	-9425
▁stamps	-9426
▁posting	-9427
▁radical	-9428
▁commerce	-9429
▁possessing	-9430
▁approaching	-9431
uma	-9432
▁GO	-9433
ktop	-9434
aspur	-9435
▁urge	-9436
▁grace	-9437
▁Speaker	-9438
▁pronounced	-9439
▁vim	-9440
tical	-9441
▁Gaya	-9442
▁Real	-9443
▁delic	-9444
version	-9445
▁forcibly	-9446
▁Telangana	-9447
▁genuineness	-9448
▁stipulation	-9449
mic	-9450
lete	-9451
▁rhy	-9452
anama	-9453
▁treas	-9454
▁deliberate	-9455
▁remembered	-9456
▁irregularities	-9457
gi	-9458
▁coc	-9459
▁holy	-9460
▁gained	-9461
▁golden	-9462
▁remarks	-9463
▁realized	-9464
cers	-9465
itant	-9466
ananda	-9467
ocated	-9468
▁Steel	-9469
▁Tilak	-9470
▁advent	-9471
▁refuge	-9472
▁silver	-9473
▁improved	-9474
▁correction	-9475
▁guarantees	-9476
▁Universities	-9477
▁organizations	-9478
▁ASI	-9479
▁Deb	-9480
▁commun	-9481
▁editor	-9482
▁imagine	-9483
▁DISTRICT	-9484
▁surprise	-9485
▁Presiding	-9486
▁elsewhere	-9487
▁television	-9488
▁Municipality	-9489
▁KAR	-9490
▁vul	-9491
▁bind	-9492
▁Cross	-9493
▁creat	-9494
▁penet	-9495
rations	-9496
▁Ramayana	-9497
▁passport	-9498
▁attending	-9499
his	-9500
ums	-9501
▁SEC	-9502
▁Never	-9503
▁bones	-9504
▁cards	-9505
istical	-9506
▁BENGAL	-9507
▁Bhagat	-9508
▁shrine	-9509
▁dropped	-9510
▁entities	-9511
▁answering	-9512
▁homicidal	-9513
▁indication	-9514
▁TH	-9515
cont	-9516
lock	-9517
▁Did	-9518
apore	-9519
avior	-9520
▁Ghosh	-9521
▁Sever	-9522
▁blows	-9523
▁cable	-9524
▁metal	-9525
▁nexus	-9526
▁sheets	-9527
▁refusing	-9528
▁disposing	-9529
ims	-9530
raon	-9531
▁Sak	-9532
▁Flag	-9533
▁Sahib	-9534
▁parte	-9535
▁prospective	-9536
rin	-9537
asks	-9538
hani	-9539
▁Gita	-9540
▁fash	-9541
ensing	-9542
▁Start	-9543
▁Vehic	-9544
▁Territ	-9545
▁conveyed	-9546
▁clearance	-9547
▁cultivation	-9548
▁Hand	-9549
▁micro	-9550
▁Chinese	-9551
▁digital	-9552
▁enables	-9553
▁inspired	-9554
▁Limitation	-9555
▁allowances	-9556
▁constitutes	-9557
▁impermissible	-9558
haz	-9559
▁RBI	-9560
▁Sach	-9561
▁Resour	-9562
▁conced	-9563
▁engage	-9564
▁palace	-9565
▁thread	-9566
▁counted	-9567
▁Building	-9568
▁download	-9569
▁delegated	-9570
▁prescribe	-9571
▁Hus	-9572
▁din	-9573
▁jobs	-9574
▁Bhatt	-9575
▁Democ	-9576
▁Basava	-9577
▁stains	-9578
▁kitchen	-9579
▁telling	-9580
▁welcome	-9581
▁assaulting	-9582
▁registering	-9583
▁row	-9584
▁touc	-9585
▁unus	-9586
▁veil	-9587
iguous	-9588
▁Check	-9589
▁Railways	-9590
▁occurring	-9591
▁Vad	-9592
▁via	-9593
▁Vivek	-9594
▁turns	-9595
▁Return	-9596
▁Looking	-9597
▁describe	-9598
▁entirety	-9599
▁remarkable	-9600
ORT	-9601
pus	-9602
iram	-9603
▁eld	-9604
▁mould	-9605
▁prote	-9606
▁width	-9607
▁tongue	-9608
▁attacks	-9609
▁availed	-9610
▁procedures	-9611
▁regularized	-9612
▁MB	-9613
▁Drug	-9614
orship	-9615
▁novels	-9616
▁reserve	-9617
▁calendar	-9618
▁exhibits	-9619
▁reflects	-9620
▁organized	-9621
▁therefrom	-9622
▁incidental	-9623
▁characteristics	-9624
anja	-9625
▁Baj	-9626
▁peas	-9627
▁Dwark	-9628
▁brown	-9629
▁fever	-9630
▁Except	-9631
▁Defence	-9632
The	-9633
agu	-9634
asp	-9635
onda	-9636
▁Muh	-9637
▁fly	-9638
▁unp	-9639
▁plug	-9640
▁scre	-9641
rative	-9642
▁Black	-9643
▁genus	-9644
▁stake	-9645
arriage	-9646
▁Turkey	-9647
▁ocular	-9648
▁shadow	-9649
ursement	-9650
▁surplus	-9651
▁Recruitment	-9652
quar	-9653
▁Kant	-9654
▁subt	-9655
ruddin	-9656
▁algor	-9657
▁locus	-9658
▁Chemical	-9659
▁boundary	-9660
▁Tahsildar	-9661
▁developments	-9662
▁RPC	-9663
▁ash	-9664
rants	-9665
▁pant	-9666
▁restored	-9667
▁considers	-9668
▁foregoing	-9669
▁mountains	-9670
▁beneficiary	-9671
OT	-9672
asted	-9673
osity	-9674
▁Rash	-9675
iaries	-9676
▁links	-9677
▁trace	-9678
▁Indica	-9679
▁agents	-9680
▁linked	-9681
▁shaped	-9682
▁offending	-9683
▁incomplete	-9684
▁VAT	-9685
▁Sank	-9686
▁fake	-9687
▁disorder	-9688
chant	-9689
▁trap	-9690
▁whip	-9691
▁Begum	-9692
▁Kamal	-9693
▁skill	-9694
▁truly	-9695
▁Several	-9696
▁conting	-9697
▁adjacent	-9698
▁portions	-9699
▁Ordinance	-9700
▁configuration	-9701
iat	-9702
▁ly	-9703
▁१८	-9704
ibai	-9705
▁Hal	-9706
▁Opp	-9707
▁Anti	-9708
▁reck	-9709
▁clock	-9710
▁reforms	-9711
▁Mohammed	-9712
▁constable	-9713
▁chargesheet	-9714
▁establishes	-9715
cut	-9716
▁Ek	-9717
outs	-9718
▁Ans	-9719
▁ped	-9720
ensus	-9721
pless	-9722
▁ministers	-9723
oi	-9724
leum	-9725
▁Age	-9726
▁Savit	-9727
▁sixty	-9728
▁passes	-9729
▁saving	-9730
▁Punjabi	-9731
▁prevail	-9732
▁contrast	-9733
▁SD	-9734
atab	-9735
itud	-9736
▁Taj	-9737
▁fan	-9738
▁ine	-9739
oking	-9740
▁thin	-9741
ursing	-9742
ircraft	-9743
▁Arabic	-9744
▁Charge	-9745
▁goddess	-9746
▁trained	-9747
▁tendency	-9748
▁BENGALURU	-9749
▁subjective	-9750
▁surrounded	-9751
▁misrepresent	-9752
BS	-9753
▁Naya	-9754
▁lamp	-9755
▁semi	-9756
▁kingdom	-9757
▁periods	-9758
▁perfection	-9759
▁proprietor	-9760
qf	-9761
xic	-9762
agra	-9763
rain	-9764
▁Lad	-9765
▁Audit	-9766
▁summar	-9767
▁walking	-9768
▁fairness	-9769
▁studying	-9770
▁comprising	-9771
▁liquidation	-9772
▁organisations	-9773
eem	-9774
▁MT	-9775
▁Jha	-9776
▁buff	-9777
▁pest	-9778
▁solar	-9779
▁lessee	-9780
▁Hussain	-9781
▁belated	-9782
▁soldiers	-9783
▁electoral	-9784
▁sensitive	-9785
▁Agricultural	-9786
dh	-9787
▁idol	-9788
▁tall	-9789
▁Plant	-9790
▁hills	-9791
▁Degree	-9792
▁German	-9793
▁preval	-9794
ographer	-9795
▁utility	-9796
▁continuance	-9797
iam	-9798
rits	-9799
▁Akh	-9800
▁Sep	-9801
▁Paper	-9802
▁Chaudh	-9803
▁pursue	-9804
▁probate	-9805
▁enquired	-9806
EF	-9807
ij	-9808
▁Conn	-9809
▁launch	-9810
iliation	-9811
▁vessels	-9812
▁Hinduism	-9813
▁computing	-9814
▁variation	-9815
▁translated	-9816
ESH	-9817
▁Ran	-9818
▁Gwal	-9819
▁gains	-9820
▁Krishn	-9821
▁debtor	-9822
▁pocket	-9823
▁torture	-9824
▁automatic	-9825
▁Liquidator	-9826
▁consistently	-9827
▁negotiations	-9828
uter	-9829
▁End	-9830
▁Aged	-9831
▁dear	-9832
uments	-9833
ailable	-9834
▁Brahma	-9835
▁discloses	-9836
▁intermedi	-9837
van	-9838
itya	-9839
▁Thu	-9840
disha	-9841
▁Text	-9842
▁boat	-9843
▁nose	-9844
▁Green	-9845
▁Polit	-9846
▁native	-9847
estation	-9848
▁victory	-9849
▁Question	-9850
fl	-9851
▁pul	-9852
▁insu	-9853
▁salt	-9854
▁Change	-9855
▁lifted	-9856
▁worshi	-9857
▁shelter	-9858
▁detained	-9859
▁detected	-9860
▁squarely	-9861
igare	-9862
▁Gree	-9863
▁PMLA	-9864
▁diagn	-9865
ilation	-9866
▁decade	-9867
▁humanity	-9868
▁NSEL	-9869
▁dilig	-9870
▁flight	-9871
▁confron	-9872
▁sympathy	-9873
▁restrained	-9874
▁differently	-9875
▁Fo	-9876
ulty	-9877
▁Haz	-9878
▁Mer	-9879
▁tam	-9880
▁Till	-9881
▁diet	-9882
▁pilgrim	-9883
▁defeated	-9884
▁weakness	-9885
▁directors	-9886
▁suspected	-9887
▁imperative	-9888
▁Mahabharata	-9889
▁realisation	-9890
ATH	-9891
ino	-9892
▁HL	-9893
side	-9894
▁Amit	-9895
▁Mach	-9896
▁bold	-9897
▁embar	-9898
▁recons	-9899
ammation	-9900
▁Marathi	-9901
▁horizon	-9902
▁testing	-9903
▁advocates	-9904
▁inability	-9905
▁panchnama	-9906
▁prisoners	-9907
▁allocation	-9908
▁measurement	-9909
▁trustworthy	-9910
▁rehabilitation	-9911
ki	-9912
▁Oh	-9913
ford	-9914
unda	-9915
▁Dan	-9916
▁OCC	-9917
erals	-9918
ubhai	-9919
▁forb	-9920
▁gang	-9921
▁Gener	-9922
▁broke	-9923
▁Odisha	-9924
▁operated	-9925
▁fardbeyan	-9926
▁recognize	-9927
▁affirmative	-9928
▁composition	-9929
OS	-9930
thy	-9931
▁Ru	-9932
text	-9933
▁irr	-9934
avati	-9935
▁Sham	-9936
▁Obama	-9937
▁upset	-9938
ologies	-9939
▁listen	-9940
▁objected	-9941
▁Cy	-9942
▁Need	-9943
▁fals	-9944
▁Import	-9945
▁Swaraj	-9946
▁excise	-9947
▁printing	-9948
▁engagement	-9949
aco	-9950
▁Je	-9951
▁Unf	-9952
cence	-9953
ainant	-9954
roleum	-9955
▁waters	-9956
▁judiciary	-9957
▁acknowledged	-9958
▁Kun	-9959
▁Max	-9960
▁Nal	-9961
▁ice	-9962
▁mig	-9963
atable	-9964
lessly	-9965
▁bonaf	-9966
▁Number	-9967
▁ceased	-9968
▁Enterpr	-9969
▁abscond	-9970
▁verdict	-9971
▁channels	-9972
▁culpable	-9973
▁deficiency	-9974
▁commodities	-9975
▁disproportion	-9976
iki	-9977
avar	-9978
▁Yus	-9979
iries	-9980
▁Dutt	-9981
▁Kath	-9982
▁wing	-9983
▁Clear	-9984
▁Mahal	-9985
▁Mahan	-9986
▁decre	-9987
▁bullet	-9988
▁culmin	-9989
▁Sucharita	-9990
CE	-9991
lor	-9992
met	-9993
uram	-9994
utch	-9995
▁Gop	-9996
▁wake	-9997
▁Basic	-9998
▁Gujar	-9999
▁decor	-10000
▁Negoti	-10001
▁surgery	-10002
▁assisted	-10003
▁slightly	-10004
compliance	-10005
EV	-10006
zy	-10007
asy	-10008
fit	-10009
comm	-10010
iders	-10011
▁gent	-10012
akings	-10013
▁Micro	-10014
▁player	-10015
▁smooth	-10016
▁admitting	-10017
▁Gor	-10018
▁tom	-10019
▁pool	-10020
osition	-10021
▁designs	-10022
▁consumed	-10023
▁homicide	-10024
▁pictures	-10025
▁Jawaharlal	-10026
RS	-10027
oa	-10028
ERE	-10029
▁CS	-10030
▁Dri	-10031
▁Bagh	-10032
▁Chart	-10033
▁abund	-10034
▁disob	-10035
▁wheel	-10036
▁emerge	-10037
▁gravity	-10038
▁mailing	-10039
▁Provision	-10040
▁indirectly	-10041
di	-10042
uda	-10043
▁CP	-10044
alat	-10045
esse	-10046
▁Joshi	-10047
▁doors	-10048
▁Bharati	-10049
▁flowing	-10050
▁sharing	-10051
▁Mahendra	-10052
▁manufacturer	-10053
▁jurisdictional	-10054
EM	-10055
ishi	-10056
▁Five	-10057
▁Rang	-10058
▁Range	-10059
▁highl	-10060
▁usage	-10061
itating	-10062
▁Airport	-10063
▁fiction	-10064
▁constantly	-10065
▁convincing	-10066
▁friendship	-10067
▁regularisation	-10068
IG	-10069
ogy	-10070
▁Ke	-10071
▁OS	-10072
abai	-10073
ulla	-10074
▁Know	-10075
▁Search	-10076
▁abused	-10077
▁cavity	-10078
▁insist	-10079
▁proves	-10080
▁invested	-10081
▁licensee	-10082
▁opponent	-10083
▁Competent	-10084
▁Corruption	-10085
▁IO	-10086
▁Ori	-10087
atell	-10088
▁Mill	-10089
▁Years	-10090
▁propose	-10091
▁reverse	-10092
▁disregard	-10093
▁competitive	-10094
▁interpreting	-10095
▁Gos	-10096
▁fib	-10097
▁mit	-10098
▁Kaly	-10099
active	-10100
icable	-10101
illary	-10102
▁Sector	-10103
▁castes	-10104
▁oxygen	-10105
▁hundreds	-10106
▁mathemat	-10107
▁impartial	-10108
▁operators	-10109
▁functional	-10110
omal	-10111
anjan	-10112
archy	-10113
▁Khas	-10114
▁Prior	-10115
▁Cannot	-10116
▁Mysore	-10117
▁matrix	-10118
▁describes	-10119
▁confirming	-10120
bre	-10121
tees	-10122
▁Ball	-10123
▁thro	-10124
▁vice	-10125
ushing	-10126
Section	-10127
▁Design	-10128
▁harmon	-10129
▁defects	-10130
▁occupants	-10131
▁invocation	-10132
▁highlighted	-10133
▁Independence	-10134
LR	-10135
rab	-10136
cane	-10137
▁nep	-10138
uster	-10139
▁menu	-10140
▁Liter	-10141
▁split	-10142
▁tells	-10143
▁tools	-10144
▁Mughal	-10145
▁Satish	-10146
▁estopp	-10147
▁degrees	-10148
▁quarters	-10149
▁acquiring	-10150
▁administer	-10151
vir	-10152
▁Ap	-10153
▁CM	-10154
emat	-10155
▁Fil	-10156
▁Hit	-10157
ighed	-10158
▁bags	-10159
▁meat	-10160
▁Yusuf	-10161
▁worry	-10162
▁butter	-10163
▁summer	-10164
▁Affairs	-10165
▁batsman	-10166
▁Muhammad	-10167
▁internet	-10168
▁corrected	-10169
▁everywhere	-10170
▁discriminatory	-10171
isha	-10172
wala	-10173
▁Ver	-10174
amine	-10175
untas	-10176
▁Arms	-10177
▁Bush	-10178
▁Prab	-10179
▁butt	-10180
ourable	-10181
▁eating	-10182
▁slowly	-10183
▁Meeting	-10184
▁abnormal	-10185
▁departure	-10186
▁surprising	-10187
▁expeditiously	-10188
▁Jai	-10189
▁Paul	-10190
▁stim	-10191
▁Peeth	-10192
▁Preet	-10193
▁teleg	-10194
▁adhere	-10195
▁delete	-10196
▁depose	-10197
▁invite	-10198
▁childhood	-10199
▁strengthen	-10200
ukh	-10201
▁HT	-10202
ariat	-10203
pathi	-10204
▁theft	-10205
▁greatly	-10206
▁complicated	-10207
rao	-10208
▁Rub	-10209
▁gro	-10210
atern	-10211
▁Garg	-10212
▁tang	-10213
icides	-10214
▁crack	-10215
▁Mukesh	-10216
▁valley	-10217
▁varied	-10218
▁symptoms	-10219
▁terminate	-10220
▁objectives	-10221
▁Ga	-10222
ayya	-10223
▁Lak	-10224
▁Radi	-10225
▁limb	-10226
rowser	-10227
rupted	-10228
▁grain	-10229
▁Colony	-10230
▁fertil	-10231
▁handle	-10232
▁sticks	-10233
▁Reserve	-10234
▁helpless	-10235
▁maternal	-10236
▁labourers	-10237
▁safeguard	-10238
▁GA	-10239
▁Md	-10240
hiya	-10241
▁Care	-10242
▁Phot	-10243
▁Scient	-10244
▁organisms	-10245
▁adjudicate	-10246
▁separation	-10247
imla	-10248
▁Ult	-10249
icians	-10250
isible	-10251
laimed	-10252
▁nerve	-10253
▁Lokayuk	-10254
▁insured	-10255
▁markets	-10256
▁averment	-10257
▁multiply	-10258
▁computers	-10259
▁derivative	-10260
▁DD	-10261
▁Van	-10262
▁pow	-10263
▁dies	-10264
▁pipe	-10265
▁tent	-10266
▁headed	-10267
▁Santosh	-10268
▁summoned	-10269
▁collective	-10270
▁purchasing	-10271
▁revolutionary	-10272
aved	-10273
husi	-10274
wood	-10275
▁Bul	-10276
▁rat	-10277
State	-10278
▁pled	-10279
lihood	-10280
▁STATE	-10281
▁ample	-10282
▁gramm	-10283
essment	-10284
▁cigare	-10285
▁Gwalior	-10286
▁Nations	-10287
▁scholar	-10288
▁secondly	-10289
▁Defendants	-10290
▁enforceable	-10291
▁LPA	-10292
▁Bish	-10293
▁demis	-10294
▁homes	-10295
▁roots	-10296
reshold	-10297
▁machines	-10298
▁discussing	-10299
khar	-10300
▁scan	-10301
▁imports	-10302
▁theatre	-10303
▁darkness	-10304
CH	-10305
yar	-10306
▁Pen	-10307
▁Bans	-10308
▁Save	-10309
▁miles	-10310
▁talks	-10311
▁Claims	-10312
▁versus	-10313
▁exports	-10314
▁forests	-10315
▁profile	-10316
▁utilized	-10317
▁excluding	-10318
▁thereupon	-10319
▁Convention	-10320
▁Srivastava	-10321
ohar	-10322
▁Log	-10323
ammal	-10324
▁Kesh	-10325
▁quot	-10326
▁Found	-10327
▁argue	-10328
▁rests	-10329
▁spell	-10330
versity	-10331
▁assemb	-10332
▁guntas	-10333
▁Agarwal	-10334
▁audience	-10335
▁estimate	-10336
▁operator	-10337
▁abandoned	-10338
▁adjudicating	-10339
▁examinations	-10340
Ins	-10341
▁FA	-10342
adra	-10343
anim	-10344
▁Bene	-10345
▁merc	-10346
ortion	-10347
▁Manual	-10348
▁billion	-10349
▁mentioning	-10350
▁parliamentary	-10351
▁Sovi	-10352
▁Truth	-10353
▁proud	-10354
ressing	-10355
▁Paswan	-10356
stitutes	-10357
▁harmony	-10358
▁windows	-10359
▁livelihood	-10360
▁practically	-10361
peeth	-10362
▁bund	-10363
▁eman	-10364
▁buyer	-10365
▁debts	-10366
ointment	-10367
▁enthusi	-10368
▁illicit	-10369
▁adjusted	-10370
▁province	-10371
▁scenario	-10372
▁framework	-10373
atar	-10374
ayas	-10375
geon	-10376
oved	-10377
▁Rag	-10378
▁clim	-10379
▁hide	-10380
▁Paras	-10381
▁faces	-10382
▁junior	-10383
▁earnest	-10384
▁taxation	-10385
▁Aurangabad	-10386
▁instructed	-10387
▁panchanama	-10388
▁Subordinate	-10389
▁Miscellaneous	-10390
yers	-10391
▁Hans	-10392
venile	-10393
▁Baner	-10394
▁Dharm	-10395
▁Title	-10396
▁maybe	-10397
▁resid	-10398
▁France	-10399
▁Gautam	-10400
▁rising	-10401
▁Against	-10402
▁Clauses	-10403
▁prohibit	-10404
▁deputation	-10405
▁Afghanistan	-10406
▁advertisements	-10407
hati	-10408
rite	-10409
▁Nas	-10410
useum	-10411
▁Vict	-10412
▁Banks	-10413
▁plate	-10414
ciences	-10415
▁talked	-10416
▁prosper	-10417
▁happiness	-10418
▁transferee	-10419
▁controlling	-10420
CS	-10421
NO	-10422
ugu	-10423
▁pump	-10424
▁Saudi	-10425
▁grams	-10426
▁guess	-10427
▁laugh	-10428
▁older	-10429
▁thank	-10430
respass	-10431
▁differ	-10432
▁eleven	-10433
▁Whatever	-10434
▁everybody	-10435
▁encouraged	-10436
▁traditions	-10437
▁experienced	-10438
▁RF	-10439
▁gri	-10440
ogram	-10441
works	-10442
▁Acts	-10443
attered	-10444
▁button	-10445
▁locked	-10446
▁Command	-10447
▁musical	-10448
▁electrical	-10449
▁irrational	-10450
▁arbitrarily	-10451
ea	-10452
▁MS	-10453
apat	-10454
urai	-10455
wali	-10456
▁Kav	-10457
▁Narm	-10458
▁meal	-10459
▁synt	-10460
iorari	-10461
▁Guarantee	-10462
▁Chandigarh	-10463
▁stipulates	-10464
▁contradictory	-10465
ulus	-10466
▁Chal	-10467
▁Love	-10468
▁Poly	-10469
▁photo	-10470
▁modify	-10471
▁discont	-10472
▁Singapore	-10473
▁enunciated	-10474
▁computation	-10475
rik	-10476
tas	-10477
wat	-10478
▁fro	-10479
amble	-10480
▁Play	-10481
▁epic	-10482
arency	-10483
▁aided	-10484
▁films	-10485
▁inhab	-10486
▁carved	-10487
▁fruits	-10488
▁sisters	-10489
▁aircraft	-10490
▁Raghunath	-10491
▁omissions	-10492
TS	-10493
oga	-10494
▁Ess	-10495
▁Rup	-10496
ipped	-10497
▁Year	-10498
▁Rajya	-10499
▁Reform	-10500
▁adduce	-10501
▁chromos	-10502
▁heavily	-10503
▁helping	-10504
▁hypothes	-10505
▁prisoner	-10506
▁promised	-10507
▁permanently	-10508
▁Manj	-10509
▁Radh	-10510
▁ward	-10511
▁lover	-10512
▁quote	-10513
▁Jewish	-10514
▁guided	-10515
▁sketch	-10516
hibition	-10517
▁incapable	-10518
▁whereupon	-10519
▁Instruments	-10520
▁entertaining	-10521
zed	-10522
▁Inj	-10523
▁Six	-10524
▁Tot	-10525
▁Tre	-10526
▁Nirm	-10527
▁lacs	-10528
▁tact	-10529
▁favor	-10530
▁Otherwise	-10531
UK	-10532
▁Au	-10533
▁IND	-10534
▁Laws	-10535
▁shed	-10536
▁Grant	-10537
▁embod	-10538
▁premise	-10539
▁Language	-10540
▁explicit	-10541
▁probable	-10542
▁affiliated	-10543
▁fabricated	-10544
▁prescribes	-10545
UN	-10546
bir	-10547
▁pa	-10548
▁FOR	-10549
▁Jer	-10550
rogen	-10551
▁Youn	-10552
▁Appro	-10553
▁Indra	-10554
▁Money	-10555
▁enorm	-10556
▁shell	-10557
▁skull	-10558
▁endors	-10559
▁reward	-10560
▁sports	-10561
▁defective	-10562
bu	-10563
eri	-10564
ghar	-10565
iche	-10566
▁COM	-10567
▁DRT	-10568
▁AICT	-10569
▁Mess	-10570
▁bore	-10571
▁rope	-10572
▁sees	-10573
▁Sagar	-10574
▁Samaj	-10575
ecessor	-10576
holders	-10577
▁adjour	-10578
▁forgot	-10579
▁Washing	-10580
▁ceiling	-10581
▁intense	-10582
▁credible	-10583
▁Employment	-10584
▁compelling	-10585
▁transparent	-10586
abi	-10587
tha	-10588
arti	-10589
yard	-10590
▁gla	-10591
▁epis	-10592
▁flex	-10593
▁divid	-10594
▁lists	-10595
▁owing	-10596
▁Street	-10597
▁taxable	-10598
▁instrumental	-10599
▁Unfortunately	-10600
ste	-10601
asis	-10602
pent	-10603
rosc	-10604
veen	-10605
▁Hard	-10606
▁NDPS	-10607
▁Vill	-10608
▁hors	-10609
▁snow	-10610
▁trek	-10611
▁AICTE	-10612
▁Expert	-10613
▁vendors	-10614
▁breaking	-10615
▁promotions	-10616
▁CE	-10617
hera	-10618
vals	-10619
▁bias	-10620
▁intu	-10621
▁Nanak	-10622
▁click	-10623
▁loyal	-10624
▁bitter	-10625
▁detrim	-10626
▁empire	-10627
ifferent	-10628
ortunate	-10629
▁approve	-10630
▁damaged	-10631
▁decides	-10632
▁boundaries	-10633
▁challenges	-10634
▁exhaustive	-10635
▁prejudicial	-10636
▁architecture	-10637
OP	-10638
▁ors	-10639
▁sed	-10640
anpur	-10641
▁font	-10642
▁jung	-10643
▁Final	-10644
▁Nigam	-10645
selling	-10646
▁Amicus	-10647
▁crimes	-10648
▁improb	-10649
ccessful	-10650
ilateral	-10651
▁Mission	-10652
▁inspect	-10653
▁dramatic	-10654
▁handling	-10655
▁wrongful	-10656
▁Hindustan	-10657
▁suppression	-10658
▁Bod	-10659
▁rod	-10660
▁Sult	-10661
▁keen	-10662
▁Taluka	-10663
▁vacate	-10664
▁currently	-10665
onym	-10666
▁Alm	-10667
▁ere	-10668
▁sup	-10669
▁cous	-10670
▁mood	-10671
▁Forum	-10672
▁wings	-10673
▁Follow	-10674
▁nomine	-10675
▁adjourn	-10676
▁cleared	-10677
▁unusual	-10678
▁amending	-10679
▁grievous	-10680
▁administr	-10681
▁unfortunate	-10682
▁constituting	-10683
acle	-10684
alia	-10685
▁query	-10686
▁Center	-10687
▁Soviet	-10688
▁spring	-10689
▁underw	-10690
▁tension	-10691
▁trustees	-10692
▁testimonies	-10693
abu	-10694
▁Pa	-10695
▁je	-10696
arai	-10697
illy	-10698
▁NIT	-10699
adeep	-10700
▁Pill	-10701
▁prox	-10702
ponent	-10703
▁parity	-10704
▁pretty	-10705
▁wooden	-10706
▁Kailash	-10707
▁dealers	-10708
▁striking	-10709
▁investors	-10710
▁prevalent	-10711
▁reproduce	-10712
▁Accountant	-10713
▁misconceived	-10714
▁participating	-10715
eper	-10716
quer	-10717
▁germ	-10718
▁lord	-10719
ivided	-10720
▁Tribe	-10721
▁misle	-10722
atabase	-10723
▁Coming	-10724
▁exposed	-10725
▁helpful	-10726
▁preserve	-10727
▁transmit	-10728
lar	-10729
enda	-10730
▁Vij	-10731
▁Card	-10732
▁Init	-10733
▁icon	-10734
▁Arjun	-10735
▁Thank	-10736
▁Santro	-10737
▁Topics	-10738
▁absurd	-10739
▁charas	-10740
inations	-10741
▁illiter	-10742
▁produces	-10743
▁specimen	-10744
▁laboratory	-10745
unte	-10746
▁Jur	-10747
agues	-10748
aming	-10749
lause	-10750
▁Dass	-10751
▁tant	-10752
▁yard	-10753
iniyam	-10754
elihood	-10755
▁Mangal	-10756
▁emerging	-10757
▁mischief	-10758
▁conveyance	-10759
▁predecessor	-10760
awar	-10761
▁desp	-10762
▁Church	-10763
▁Russia	-10764
▁losses	-10765
▁winter	-10766
▁Hanuman	-10767
▁Jyotish	-10768
▁devoted	-10769
▁equation	-10770
▁estoppel	-10771
▁friendly	-10772
▁precious	-10773
▁comprised	-10774
▁perversity	-10775
▁sufficiently	-10776
▁AR	-10777
▁Gre	-10778
▁Kes	-10779
▁mud	-10780
▁Fire	-10781
▁imped	-10782
▁plane	-10783
▁tooth	-10784
▁Ranjan	-10785
▁bigger	-10786
▁library	-10787
▁Gujarati	-10788
▁trespass	-10789
▁Programme	-10790
▁positions	-10791
▁Washington	-10792
▁confronted	-10793
▁amalgamation	-10794
▁encroachment	-10795
hoc	-10796
sha	-10797
oples	-10798
▁Debts	-10799
▁towns	-10800
▁Maharaj	-10801
▁Training	-10802
bel	-10803
▁La	-10804
▁Kur	-10805
▁Purn	-10806
▁rose	-10807
▁Clerk	-10808
▁enlar	-10809
▁flour	-10810
▁Laxman	-10811
▁Rajeev	-10812
▁Firstly	-10813
▁postpon	-10814
▁redress	-10815
▁cheating	-10816
▁invoices	-10817
ordination	-10818
▁attesting	-10819
▁miscarriage	-10820
▁exploitation	-10821
gal	-10822
▁FT	-10823
▁XV	-10824
aras	-10825
▁Rob	-10826
▁unm	-10827
▁Tuls	-10828
▁axis	-10829
▁intr	-10830
▁threw	-10831
▁daniel	-10832
quarters	-10833
▁renewed	-10834
inh	-10835
▁HLEC	-10836
▁remun	-10837
▁ruler	-10838
▁utmost	-10839
▁closing	-10840
▁malafide	-10841
▁sometime	-10842
▁veracity	-10843
▁withhold	-10844
▁likelihood	-10845
▁questioning	-10846
▁administered	-10847
▁Enc	-10848
endix	-10849
issues	-10850
▁Along	-10851
▁acute	-10852
▁stars	-10853
unication	-10854
▁pertains	-10855
▁reposted	-10856
▁tomorrow	-10857
ILL	-10858
ayam	-10859
itage	-10860
▁Near	-10861
▁Pune	-10862
▁cheap	-10863
▁hyper	-10864
itarian	-10865
▁Empire	-10866
▁uncond	-10867
▁Ayurved	-10868
▁bonafide	-10869
▁goodwill	-10870
▁Provident	-10871
▁kg	-10872
▁Bap	-10873
tingu	-10874
▁Dilip	-10875
▁Laxmi	-10876
▁bride	-10877
▁hered	-10878
▁maxim	-10879
▁shout	-10880
endants	-10881
parable	-10882
▁resource	-10883
▁Badruddin	-10884
▁Negotiable	-10885
▁UK	-10886
iger	-10887
jeet	-10888
▁Str	-10889
▁Pram	-10890
▁Sher	-10891
▁blunt	-10892
▁holid	-10893
▁Unable	-10894
▁firmly	-10895
▁Regular	-10896
▁presume	-10897
▁readers	-10898
▁mentions	-10899
MI	-10900
१९	-10901
adhy	-10902
noon	-10903
rous	-10904
▁extr	-10905
bhanga	-10906
▁stations	-10907
▁Chaudhary	-10908
▁Compensation	-10909
▁Kas	-10910
▁jump	-10911
▁weighed	-10912
▁reporting	-10913
sa	-10914
omed	-10915
▁Rece	-10916
▁Khand	-10917
astipur	-10918
▁protocol	-10919
▁alternate	-10920
▁basically	-10921
▁consortium	-10922
▁prosecuted	-10923
▁contributed	-10924
▁constructions	-10925
▁GP	-10926
acts	-10927
well	-10928
▁Soon	-10929
▁rash	-10930
▁Pharm	-10931
▁accum	-10932
▁anger	-10933
▁prays	-10934
▁loaded	-10935
▁challan	-10936
▁conceal	-10937
▁behavior	-10938
▁attaining	-10939
▁inclusion	-10940
▁threshold	-10941
odox	-10942
opsy	-10943
▁ske	-10944
point	-10945
▁Four	-10946
▁neut	-10947
▁redu	-10948
▁Draft	-10949
▁cater	-10950
plicate	-10951
▁disall	-10952
▁ending	-10953
▁resemb	-10954
▁extingu	-10955
▁restore	-10956
fa	-10957
wami	-10958
▁Fac	-10959
▁Ras	-10960
▁Suk	-10961
▁Tat	-10962
▁vig	-10963
ademy	-10964
ulled	-10965
▁Asst	-10966
▁frag	-10967
▁trem	-10968
▁Cause	-10969
▁Jagat	-10970
▁penis	-10971
▁worse	-10972
▁Lahore	-10973
▁invari	-10974
▁tainted	-10975
▁supplies	-10976
▁Adhiniyam	-10977
▁repayment	-10978
▁unnatural	-10979
▁integrated	-10980
▁intervening	-10981
▁Organization	-10982
isa	-10983
mans	-10984
olic	-10985
▁adm	-10986
▁Poon	-10987
▁Succ	-10988
▁canal	-10989
▁loved	-10990
▁fright	-10991
▁sounds	-10992
▁eminent	-10993
▁harmful	-10994
▁restoration	-10995
▁Yam	-10996
opard	-10997
viously	-10998
▁Naresh	-10999
▁Parties	-11000
▁confers	-11001
▁distant	-11002
▁empower	-11003
▁fashion	-11004
▁strategy	-11005
▁Meanwhile	-11006
▁sugarcane	-11007
▁declarations	-11008
▁Abs	-11009
▁Fif	-11010
▁Muz	-11011
▁nav	-11012
arers	-11013
▁Track	-11014
▁aspir	-11015
▁gazet	-11016
▁keeps	-11017
▁larva	-11018
▁taste	-11019
akrishnan	-11020
▁Surendra	-11021
▁concrete	-11022
▁crossing	-11023
▁colleagues	-11024
▁expressing	-11025
▁miscellaneous	-11026
ney	-11027
rian	-11028
ulam	-11029
▁cin	-11030
▁tag	-11031
ushan	-11032
▁keys	-11033
▁medi	-11034
▁vest	-11035
▁Create	-11036
▁Madhub	-11037
▁heaven	-11038
▁Address	-11039
▁outlook	-11040
▁overcome	-11041
▁Tribunals	-11042
▁supplement	-11043
▁categorical	-11044
▁programming	-11045
ingh	-11046
▁Bor	-11047
outed	-11048
▁detenu	-11049
▁switch	-11050
▁tariff	-11051
▁traced	-11052
▁tissues	-11053
▁Bilaspur	-11054
▁somewhere	-11055
missibility	-11056
▁Federation	-11057
▁describing	-11058
▁grievances	-11059
▁preventive	-11060
shaw	-11061
andom	-11062
arest	-11063
lance	-11064
phone	-11065
▁inel	-11066
asters	-11067
▁Medic	-11068
▁Param	-11069
▁hears	-11070
▁equals	-11071
▁procure	-11072
▁Buddhist	-11073
▁reversed	-11074
▁turnover	-11075
▁Islamists	-11076
▁associates	-11077
▁invitation	-11078
▁Parliamentary	-11079
PSC	-11080
cha	-11081
amba	-11082
eeper	-11083
utosh	-11084
vency	-11085
▁Inte	-11086
applic	-11087
oining	-11088
terday	-11089
▁Asian	-11090
▁raped	-11091
▁Lastly	-11092
▁realize	-11093
▁recalled	-11094
osa	-11095
▁CB	-11096
▁Ib	-11097
ibhai	-11098
matic	-11099
▁Gaur	-11100
▁Miss	-11101
▁jack	-11102
▁overw	-11103
▁deduct	-11104
▁wounds	-11105
▁desires	-11106
▁islands	-11107
▁exempted	-11108
▁Choudhary	-11109
▁ancestral	-11110
▁premature	-11111
▁connecting	-11112
▁disclosing	-11113
▁insufficient	-11114
▁Cri	-11115
▁exh	-11116
▁Soft	-11117
▁marg	-11118
ridges	-11119
▁nodes	-11120
▁intact	-11121
▁praise	-11122
▁shifting	-11123
▁Panchnama	-11124
▁algorithm	-11125
▁copyright	-11126
▁initiating	-11127
▁constructive	-11128
ERS	-11129
▁cha	-11130
▁lis	-11131
▁Cutt	-11132
▁Lake	-11133
▁aims	-11134
▁slip	-11135
▁honor	-11136
▁supers	-11137
▁worthy	-11138
▁surrend	-11139
▁hem	-11140
tings	-11141
▁ensh	-11142
▁Price	-11143
▁blame	-11144
▁sheep	-11145
▁dispar	-11146
▁implies	-11147
▁purport	-11148
▁Whenever	-11149
▁intimate	-11150
▁implicate	-11151
▁negligent	-11152
▁preserved	-11153
▁concluding	-11154
▁cumulative	-11155
▁formalities	-11156
ky	-11157
avas	-11158
▁awa	-11159
▁suo	-11160
gence	-11161
udent	-11162
▁flee	-11163
▁scar	-11164
▁Young	-11165
▁mines	-11166
▁Telugu	-11167
▁footing	-11168
▁nullity	-11169
▁repairs	-11170
▁unequiv	-11171
▁Assessment	-11172
▁explaining	-11173
▁Corporations	-11174
▁unauthorised	-11175
inu	-11176
▁NC	-11177
▁Mut	-11178
▁Que	-11179
▁obl	-11180
▁pond	-11181
advant	-11182
▁Heard	-11183
▁begun	-11184
▁drain	-11185
▁exagger	-11186
▁simplic	-11187
▁mentally	-11188
▁railways	-11189
▁reasoned	-11190
▁Bhagalpur	-11191
▁willingness	-11192
▁Fa	-11193
kind	-11194
▁Ber	-11195
▁Den	-11196
▁Desai	-11197
▁Houses	-11198
▁rescue	-11199
▁promoter	-11200
▁neighbours	-11201
▁Prosecution	-11202
▁supervisory	-11203
▁demonstrated	-11204
cus	-11205
eer	-11206
obi	-11207
▁Jat	-11208
erman	-11209
▁Kabir	-11210
▁Vedas	-11211
▁kings	-11212
▁unamb	-11213
▁wheat	-11214
▁Valley	-11215
▁Edition	-11216
▁muscles	-11217
▁pillars	-11218
▁counting	-11219
▁Chartered	-11220
▁Referring	-11221
▁narration	-11222
RISH	-11223
▁Tom	-11224
▁unh	-11225
▁orth	-11226
▁Mamlat	-11227
▁Versus	-11228
▁freely	-11229
▁packet	-11230
lamation	-11231
▁Iranian	-11232
▁Narendra	-11233
▁empowers	-11234
▁travelled	-11235
oty	-11236
▁Kad	-11237
▁pin	-11238
eches	-11239
▁Exts	-11240
▁FIRs	-11241
▁Hall	-11242
▁Said	-11243
▁calm	-11244
▁sine	-11245
acious	-11246
mother	-11247
▁magaz	-11248
▁tasks	-11249
▁incomp	-11250
▁pushed	-11251
▁Cuttack	-11252
▁abdomen	-11253
▁neglect	-11254
▁advances	-11255
▁overwhel	-11256
▁adjourned	-11257
▁acknowledge	-11258
▁experiences	-11259
▁............	-11260
▁neighbourhood	-11261
▁MC	-11262
wati	-11263
▁Gad	-11264
▁Imp	-11265
chers	-11266
▁bunch	-11267
▁reimb	-11268
▁trite	-11269
emption	-11270
▁Bhopal	-11271
▁cement	-11272
▁depict	-11273
▁prints	-11274
ciliation	-11275
▁Advisory	-11276
▁intimated	-11277
▁Panchayats	-11278
▁charitable	-11279
▁enterprise	-11280
▁Complainant	-11281
▁discrepancy	-11282
▁pronouncements	-11283
▁unconstitution	-11284
vind	-11285
▁odd	-11286
plant	-11287
▁Alam	-11288
▁stup	-11289
holder	-11290
▁brill	-11291
▁attach	-11292
▁bottles	-11293
▁decimal	-11294
▁dragged	-11295
▁lawyers	-11296
▁prolong	-11297
▁dominant	-11298
▁exercises	-11299
▁disbelieve	-11300
▁manufacturers	-11301
ulu	-11302
▁Py	-11303
kers	-11304
▁une	-11305
▁Malk	-11306
▁Malay	-11307
▁Table	-11308
▁ticket	-11309
▁matches	-11310
▁Mohammad	-11311
▁guardian	-11312
▁respects	-11313
▁interrogation	-11314
UST	-11315
▁DV	-11316
allu	-11317
ffee	-11318
▁garb	-11319
▁untr	-11320
essees	-11321
▁appra	-11322
▁march	-11323
▁Reason	-11324
▁anxious	-11325
▁forgery	-11326
▁immense	-11327
▁Tripathi	-11328
▁shortage	-11329
▁watching	-11330
▁dissolution	-11331
▁geographical	-11332
lin	-11333
▁Sea	-11334
▁Sou	-11335
urers	-11336
▁Bhan	-11337
▁cows	-11338
▁exit	-11339
idency	-11340
▁Grand	-11341
▁pride	-11342
▁gentle	-11343
▁Natural	-11344
▁discern	-11345
▁disadvant	-11346
▁repetition	-11347
--	-11348
▁ITS	-11349
▁Lod	-11350
▁Ener	-11351
▁Muns	-11352
icitor	-11353
▁Exhib	-11354
▁paddy	-11355
ulously	-11356
▁litigant	-11357
▁Regarding	-11358
▁therewith	-11359
▁kh	-11360
▁Pun	-11361
▁Sem	-11362
▁XXX	-11363
inath	-11364
▁luck	-11365
▁palm	-11366
▁Stamp	-11367
▁motiv	-11368
▁Rather	-11369
▁Terror	-11370
▁skills	-11371
........	-11372
▁solitary	-11373
▁achievement	-11374
▁universities	-11375
tr	-11376
eda	-11377
ibh	-11378
ped	-11379
▁GD	-11380
etan	-11381
▁Bat	-11382
▁Dip	-11383
▁Get	-11384
▁sew	-11385
▁Camp	-11386
▁Mart	-11387
▁Privy	-11388
▁aimed	-11389
appreci	-11390
▁bought	-11391
▁closer	-11392
▁island	-11393
▁layout	-11394
▁Certain	-11395
▁defense	-11396
▁pretext	-11397
▁transferring	-11398
HA	-11399
ITY	-11400
dam	-11401
nic	-11402
▁Tik	-11403
cated	-11404
▁Memo	-11405
▁Poll	-11406
▁lift	-11407
uously	-11408
▁David	-11409
▁Sugar	-11410
▁innov	-11411
▁snake	-11412
▁handic	-11413
▁browser	-11414
▁consign	-11415
▁nervous	-11416
▁traders	-11417
▁urgency	-11418
▁Choudhury	-11419
▁Mamlatdar	-11420
▁responded	-11421
▁hypothesis	-11422
▁condonation	-11423
ocks	-11424
▁harv	-11425
▁enshr	-11426
▁flows	-11427
▁vicar	-11428
▁Supply	-11429
Inspector	-11430
▁Highways	-11431
▁impressed	-11432
▁passenger	-11433
▁perfectly	-11434
▁delegation	-11435
▁dictionary	-11436
tee	-11437
▁BI	-11438
▁py	-11439
▁Niz	-11440
▁Prin	-11441
▁heir	-11442
▁wash	-11443
matter	-11444
▁miser	-11445
▁raises	-11446
▁upload	-11447
▁hectares	-11448
▁mistakes	-11449
▁composite	-11450
AGE	-11451
aki	-11452
log	-11453
nar	-11454
▁ON	-11455
down	-11456
llah	-11457
aders	-11458
herjee	-11459
igible	-11460
▁Light	-11461
▁Sangh	-11462
▁insol	-11463
▁movie	-11464
▁smell	-11465
▁Ganges	-11466
▁united	-11467
▁Commerce	-11468
▁Disputes	-11469
▁inconven	-11470
▁classical	-11471
das	-11472
▁RA	-11473
aksha	-11474
omous	-11475
▁True	-11476
▁grab	-11477
▁easier	-11478
▁powder	-11479
▁desktop	-11480
▁signing	-11481
▁abstract	-11482
▁attested	-11483
▁opinions	-11484
▁requests	-11485
▁Americans	-11486
▁addresses	-11487
▁afternoon	-11488
▁canvassed	-11489
▁medicines	-11490
▁mortgaged	-11491
▁precisely	-11492
▁pregnancy	-11493
▁regulated	-11494
▁thoroughly	-11495
▁circulation	-11496
▁implications	-11497
▁unfortunately	-11498
occ	-11499
▁UP	-11500
stig	-11501
▁bug	-11502
▁Azad	-11503
▁Bhub	-11504
▁Take	-11505
▁Mitra	-11506
▁Zilla	-11507
▁tight	-11508
▁Lakshmi	-11509
▁omitted	-11510
▁Japanese	-11511
▁unemploy	-11512
HO	-11513
rich	-11514
▁bes	-11515
gical	-11516
▁Pref	-11517
▁Sany	-11518
owners	-11519
cession	-11520
uminous	-11521
actorily	-11522
▁Default	-11523
▁biggest	-11524
▁securities	-11525
▁destination	-11526
▁DA	-11527
thal	-11528
▁Dig	-11529
eless	-11530
▁Indo	-11531
master	-11532
▁Manik	-11533
▁Pawan	-11534
▁Serial	-11535
▁Sindhi	-11536
▁valued	-11537
▁succumb	-11538
▁pregnant	-11539
▁Australia	-11540
▁intervene	-11541
▁promoting	-11542
▁Enterprises	-11543
▁gratification	-11544
▁Sai	-11545
▁hut	-11546
andan	-11547
eping	-11548
▁inex	-11549
▁tends	-11550
▁Establ	-11551
▁kidney	-11552
▁writes	-11553
▁Mohalla	-11554
▁confine	-11555
▁disappear	-11556
▁constrained	-11557
▁contributions	-11558
aug	-11559
indo	-11560
lesh	-11561
quit	-11562
utra	-11563
▁Old	-11564
▁Veer	-11565
istent	-11566
orders	-11567
▁dwell	-11568
anishad	-11569
tension	-11570
▁Curiae	-11571
▁repeat	-11572
▁Darbhanga	-11573
▁radiation	-11574
▁inadequate	-11575
▁reasonableness	-11576
awn	-11577
oose	-11578
▁BAL	-11579
odara	-11580
▁brut	-11581
▁lake	-11582
▁swit	-11583
▁wave	-11584
▁Menon	-11585
▁Access	-11586
▁kumari	-11587
▁nephew	-11588
▁Surender	-11589
▁forehead	-11590
▁remitted	-11591
▁Political	-11592
▁incentive	-11593
▁interface	-11594
▁preventing	-11595
▁purchasers	-11596
▁LA	-11597
wide	-11598
herry	-11599
▁Saha	-11600
▁puts	-11601
olving	-11602
▁buying	-11603
▁laches	-11604
▁crossed	-11605
▁inspire	-11606
▁increases	-11607
▁progressive	-11608
▁civilization	-11609
amal	-11610
amar	-11611
▁Bye	-11612
▁seg	-11613
brane	-11614
iated	-11615
▁Ghaz	-11616
▁Deepak	-11617
▁intend	-11618
▁retail	-11619
▁Windows	-11620
▁prudent	-11621
fficiency	-11622
▁Northern	-11623
▁versions	-11624
▁excellent	-11625
▁continuity	-11626
▁eyewitnesses	-11627
▁satisfactorily	-11628
KAR	-11629
uja	-11630
▁SLP	-11631
▁Sav	-11632
hesis	-11633
ivals	-11634
▁laps	-11635
▁Major	-11636
▁Shant	-11637
▁Shast	-11638
▁nucle	-11639
▁texts	-11640
▁Netaji	-11641
▁blocks	-11642
▁frivol	-11643
▁inherit	-11644
▁printer	-11645
▁bacteria	-11646
▁withheld	-11647
▁Allowance	-11648
▁Promotion	-11649
▁favourable	-11650
▁obligatory	-11651
▁quantities	-11652
▁confidential	-11653
▁constituency	-11654
▁cup	-11655
▁Varan	-11656
▁indef	-11657
▁Boards	-11658
▁Shimla	-11659
▁couldn	-11660
▁urgent	-11661
▁Display	-11662
▁Madurai	-11663
▁denomin	-11664
▁checking	-11665
▁enormous	-11666
▁frequent	-11667
▁isolated	-11668
▁measured	-11669
▁reducing	-11670
▁Obviously	-11671
▁complying	-11672
▁references	-11673
▁communicate	-11674
▁Jyotishpeeth	-11675
▁#	-11676
ART	-11677
▁dh	-11678
izer	-11679
▁Bis	-11680
▁Jews	-11681
▁Shak	-11682
▁mole	-11683
▁ther	-11684
▁midst	-11685
▁circuit	-11686
▁somehow	-11687
▁keyboard	-11688
▁phenomen	-11689
▁receives	-11690
▁persuaded	-11691
▁prosecute	-11692
▁remuneration	-11693
icer	-11694
ptic	-11695
▁Fast	-11696
▁leve	-11697
▁Mahav	-11698
▁recru	-11699
▁shoes	-11700
▁Muzaff	-11701
▁Rajput	-11702
▁grants	-11703
▁highway	-11704
▁streets	-11705
▁devotees	-11706
▁presents	-11707
▁sessions	-11708
▁superint	-11709
▁retrospect	-11710
▁surrendered	-11711
▁threatening	-11712
URE	-11713
ugn	-11714
▁OM	-11715
gent	-11716
oram	-11717
roid	-11718
iques	-11719
▁Kali	-11720
before	-11721
▁artist	-11722
▁feeding	-11723
▁rapidly	-11724
▁rituals	-11725
▁Banerjee	-11726
▁profound	-11727
▁receiver	-11728
▁philosoph	-11729
IX	-11730
ANG	-11731
awa	-11732
ludes	-11733
▁Death	-11734
▁Minor	-11735
▁Staff	-11736
▁fourt	-11737
▁terrib	-11738
▁troops	-11739
▁vimana	-11740
▁envelop	-11741
▁singing	-11742
▁graduate	-11743
▁reviewed	-11744
▁Foundation	-11745
▁accusation	-11746
▁distinguishable	-11747
iyar	-11748
vara	-11749
▁IPv	-11750
▁Run	-11751
anker	-11752
nasty	-11753
▁Ident	-11754
▁excav	-11755
▁magic	-11756
▁affair	-11757
▁ideals	-11758
▁clarify	-11759
▁deprive	-11760
▁certiorari	-11761
▁protecting	-11762
▁imperialism	-11763
▁confessional	-11764
def	-11765
emia	-11766
riti	-11767
tled	-11768
▁Help	-11769
▁spin	-11770
▁trick	-11771
▁execut	-11772
ramental	-11773
▁checked	-11774
▁hanging	-11775
▁medically	-11776
▁Contractor	-11777
▁perception	-11778
▁cooperative	-11779
▁Ju	-11780
ulal	-11781
▁CRL	-11782
▁Jab	-11783
▁rot	-11784
angle	-11785
ariya	-11786
ullah	-11787
▁Priy	-11788
▁Rana	-11789
▁pink	-11790
▁sper	-11791
called	-11792
▁Quran	-11793
anchise	-11794
▁manual	-11795
▁tenable	-11796
▁recruits	-11797
▁Himalayas	-11798
▁warranted	-11799
▁generations	-11800
▁beneficiaries	-11801
▁concentration	-11802
NU	-11803
PCL	-11804
▁FD	-11805
▁NI	-11806
apes	-11807
idas	-11808
aided	-11809
ursed	-11810
▁Abdu	-11811
▁Brij	-11812
▁Kush	-11813
▁ease	-11814
apuram	-11815
▁Siwan	-11816
▁storm	-11817
▁Honble	-11818
▁Agrawal	-11819
▁Kingdom	-11820
▁Document	-11821
▁Exhibits	-11822
▁borrowed	-11823
▁Admission	-11824
▁Distribution	-11825
▁Pra	-11826
▁isn	-11827
▁Soni	-11828
▁encry	-11829
▁monop	-11830
▁troub	-11831
▁Object	-11832
▁conserv	-11833
▁prestig	-11834
▁Computer	-11835
▁achieving	-11836
▁inspected	-11837
▁Dwarkanath	-11838
▁terrorists	-11839
▁transmitted	-11840
▁substitution	-11841
▁establishments	-11842
bra	-11843
osc	-11844
rage	-11845
akshi	-11846
▁Kart	-11847
▁ears	-11848
▁Journ	-11849
▁actor	-11850
▁Action	-11851
▁Fourth	-11852
▁adults	-11853
▁cousin	-11854
▁Country	-11855
▁chamber	-11856
▁genetic	-11857
▁afforded	-11858
▁Following	-11859
▁Knowledge	-11860
▁partially	-11861
▁undivided	-11862
▁Secretariat	-11863
▁investments	-11864
▁operational	-11865
▁temporarily	-11866
▁improvements	-11867
onn	-11868
▁na	-11869
enous	-11870
▁Parm	-11871
▁amaz	-11872
▁bell	-11873
ducted	-11874
▁Mills	-11875
▁fides	-11876
▁Spirit	-11877
▁Academy	-11878
▁Reforms	-11879
▁Varanasi	-11880
▁psychological	-11881
IFR	-11882
▁Mc	-11883
▁Bol	-11884
▁Nam	-11885
oxide	-11886
person	-11887
▁purity	-11888
▁speedy	-11889
▁bidding	-11890
▁massive	-11891
▁recruit	-11892
▁vesting	-11893
▁indulged	-11894
▁persuade	-11895
▁adjoining	-11896
▁advertised	-11897
▁demolition	-11898
▁Ca	-11899
▁LP	-11900
▁Jog	-11901
▁MOU	-11902
▁tum	-11903
aiver	-11904
▁draf	-11905
tering	-11906
▁Arabs	-11907
▁craft	-11908
▁Export	-11909
▁connot	-11910
indranath	-11911
▁Appendix	-11912
▁Needless	-11913
▁believes	-11914
▁Tehsildar	-11915
▁introduce	-11916
▁panchayat	-11917
▁approaches	-11918
▁successive	-11919
Reg	-11920
anc	-11921
oja	-11922
▁NG	-11923
UMAR	-11924
heda	-11925
meas	-11926
serv	-11927
▁mol	-11928
valid	-11929
▁Raghu	-11930
▁faculty	-11931
▁heading	-11932
▁convened	-11933
▁patterns	-11934
▁touching	-11935
▁associate	-11936
▁alteration	-11937
▁collateral	-11938
▁phenomenon	-11939
▁disobedience	-11940
▁authorization	-11941
▁intentionally	-11942
isan	-11943
▁sho	-11944
achar	-11945
▁Pack	-11946
▁hung	-11947
▁loud	-11948
▁Aurob	-11949
▁Chowk	-11950
▁Drugs	-11951
▁Guide	-11952
▁intra	-11953
▁briefly	-11954
▁programs	-11955
▁Represent	-11956
▁commodity	-11957
▁increment	-11958
▁cartridges	-11959
▁regulating	-11960
▁grandfather	-11961
SC	-11962
hot	-11963
▁HO	-11964
▁Ud	-11965
umin	-11966
ymph	-11967
▁pel	-11968
acles	-11969
▁Waqf	-11970
▁fing	-11971
orrhage	-11972
▁fought	-11973
▁verbal	-11974
▁apprent	-11975
▁enemies	-11976
▁touched	-11977
▁Lokayukta	-11978
▁enactments	-11979
▁extraneous	-11980
▁magistrate	-11981
cket	-11982
fare	-11983
▁RAM	-11984
▁Tap	-11985
▁Have	-11986
▁Item	-11987
▁TRAN	-11988
▁bamb	-11989
▁Mines	-11990
atories	-11991
▁appoin	-11992
▁tribes	-11993
witnesses	-11994
▁deducted	-11995
▁predomin	-11996
▁hereafter	-11997
▁inclusive	-11998
▁Honourable	-11999
▁Prohibition	-12000
▁inspiration	-12001
ARY	-12002
aba	-12003
nis	-12004
anty	-12005
appu	-12006
▁wet	-12007
Judge	-12008
▁bulk	-12009
▁Dutta	-12010
▁Vikas	-12011
▁liver	-12012
▁maker	-12013
▁Hemant	-12014
▁misuse	-12015
▁occupy	-12016
▁Proceed	-12017
▁fitness	-12018
▁explains	-12019
▁restrain	-12020
▁recruited	-12021
▁contemplates	-12022
▁admissibility	-12023
HAN	-12024
upp	-12025
ITION	-12026
oding	-12027
▁Surya	-12028
▁mango	-12029
▁topic	-12030
▁clouds	-12031
▁denies	-12032
▁superv	-12033
▁toward	-12034
▁vagina	-12035
▁Complex	-12036
▁dynamic	-12037
▁enlight	-12038
valuation	-12039
▁speeches	-12040
▁Succession	-12041
▁precedents	-12042
QU	-12043
ugal	-12044
▁Sid	-12045
▁Khar	-12046
▁hire	-12047
▁mant	-12048
▁rigid	-12049
▁planet	-12050
▁transc	-12051
Division	-12052
▁volunte	-12053
▁carriage	-12054
▁promptly	-12055
▁assigning	-12056
▁Ultimately	-12057
▁accidental	-12058
▁accounting	-12059
▁considerably	-12060
ksh	-12061
sex	-12062
uka	-12063
▁AL	-12064
▁MLC	-12065
▁wil	-12066
repre	-12067
▁pour	-12068
▁slog	-12069
▁Tahas	-12070
▁inequ	-12071
▁modes	-12072
▁tears	-12073
▁tries	-12074
aneswar	-12075
▁enters	-12076
▁poured	-12077
▁voting	-12078
▁Sanjeev	-12079
▁autopsy	-12080
▁Academic	-12081
▁artistic	-12082
▁prosecutor	-12083
▁regulatory	-12084
▁arbitrators	-12085
▁forthcoming	-12086
uta	-12087
▁PP	-12088
eded	-12089
▁Sus	-12090
cetic	-12091
▁cure	-12092
alysis	-12093
endous	-12094
▁Saran	-12095
▁Bihari	-12096
▁explos	-12097
▁genius	-12098
▁Invalid	-12099
▁recital	-12100
▁actively	-12101
▁conception	-12102
▁Departmental	-12103
▁transformation	-12104
ocy	-12105
▁Gen	-12106
▁Has	-12107
▁Arts	-12108
▁Long	-12109
▁fool	-12110
inking	-12111
▁Purch	-12112
▁Radha	-12113
▁angry	-12114
▁patta	-12115
▁Canada	-12116
▁Indira	-12117
▁Kishan	-12118
▁deploy	-12119
▁wholes	-12120
▁pursued	-12121
▁conceded	-12122
▁fraction	-12123
▁weighing	-12124
▁Community	-12125
▁connections	-12126
▁ascertaining	-12127
ESI	-12128
bat	-12129
ipp	-12130
usha	-12131
▁Deo	-12132
▁Syed	-12133
▁maid	-12134
▁rhyth	-12135
▁Shakti	-12136
▁compel	-12137
▁jungle	-12138
▁waiver	-12139
▁Challen	-12140
▁enlarged	-12141
▁immunity	-12142
▁recognise	-12143
▁weightage	-12144
▁substances	-12145
▁hereinbefore	-12146
▁unsuccessful	-12147
ads	-12148
aga	-12149
tain	-12150
eenth	-12151
forma	-12152
scale	-12153
anchal	-12154
▁embra	-12155
manship	-12156
▁demise	-12157
▁notion	-12158
▁Singles	-12159
▁corners	-12160
▁crystal	-12161
▁enquire	-12162
▁elementary	-12163
▁improbable	-12164
▁safeguards	-12165
alp	-12166
agan	-12167
▁ADV	-12168
▁CAV	-12169
▁Pot	-12170
▁haw	-12171
ctive	-12172
itudes	-12173
ralaya	-12174
▁Relief	-12175
▁advise	-12176
▁encumb	-12177
▁humans	-12178
▁humble	-12179
▁Russian	-12180
▁affixed	-12181
▁mankind	-12182
▁heritage	-12183
▁Aurobindo	-12184
▁processed	-12185
▁upholding	-12186
▁overlooked	-12187
▁reflection	-12188
▁relatively	-12189
▁disqualified	-12190
▁implementing	-12191
EX	-12192
aidu	-12193
angi	-12194
babu	-12195
▁Mak	-12196
▁OBC	-12197
▁Saw	-12198
▁Wik	-12199
itors	-12200
▁Auto	-12201
▁Bhim	-12202
▁Parv	-12203
▁appr	-12204
▁ster	-12205
arshan	-12206
ighter	-12207
▁Rahul	-12208
▁Stock	-12209
▁harsh	-12210
▁lacks	-12211
▁moves	-12212
▁realm	-12213
company	-12214
reprene	-12215
▁Immedi	-12216
▁dinner	-12217
▁reluct	-12218
▁superf	-12219
artments	-12220
iscation	-12221
▁Pradhan	-12222
▁qualify	-12223
▁threats	-12224
▁Personal	-12225
▁database	-12226
▁endorsed	-12227
▁forensic	-12228
▁oriented	-12229
▁Governing	-12230
▁Marketing	-12231
▁frivolous	-12232
IAD	-12233
othe	-12234
plate	-12235
▁Line	-12236
▁spir	-12237
▁Nayak	-12238
ichever	-12239
iencies	-12240
istrates	-12241
▁readily	-12242
▁utilised	-12243
▁frequency	-12244
▁literally	-12245
▁whichever	-12246
shot	-12247
ulum	-12248
▁Ast	-12249
▁Dab	-12250
▁Ros	-12251
▁VIII	-12252
▁stem	-12253
▁Annual	-12254
▁allied	-12255
▁excuse	-12256
▁patron	-12257
▁spouse	-12258
▁Conduct	-12259
▁diverse	-12260
▁enlarge	-12261
▁magnitude	-12262
▁emphasized	-12263
▁vegetables	-12264
▁reassessment	-12265
kal	-12266
rus	-12267
▁GM	-12268
▁Dom	-12269
▁Hir	-12270
▁MFA	-12271
▁numb	-12272
▁Indus	-12273
▁Koran	-12274
▁Lower	-12275
▁Value	-12276
▁immig	-12277
▁knock	-12278
▁lingu	-12279
▁encash	-12280
▁Chatter	-12281
▁Express	-12282
▁lending	-12283
▁mixture	-12284
▁peoples	-12285
▁players	-12286
▁eliminate	-12287
▁paramount	-12288
▁propriety	-12289
▁Samastipur	-12290
▁undertakings	-12291
RC	-12292
▁Gok	-12293
▁Maz	-12294
▁Vaj	-12295
▁Left	-12296
▁fond	-12297
▁obsc	-12298
ENSION	-12299
▁judged	-12300
▁videos	-12301
▁vulner	-12302
▁Subject	-12303
▁implicit	-12304
▁licences	-12305
▁ordering	-12306
▁Resources	-12307
▁enshrined	-12308
▁techniques	-12309
▁accompanying	-12310
ela	-12311
lla	-12312
▁Ut	-12313
▁ji	-12314
claim	-12315
▁Plot	-12316
▁cess	-12317
acular	-12318
pering	-12319
▁bless	-12320
▁behest	-12321
▁jewell	-12322
atellite	-12323
▁anteced	-12324
▁signals	-12325
▁Ravindra	-12326
▁marginal	-12327
▁Conditions	-12328
▁resolutions	-12329
afi	-12330
win	-12331
▁ul	-12332
adar	-12333
▁cot	-12334
▁moh	-12335
▁adul	-12336
▁caut	-12337
ranted	-12338
ickshaw	-12339
▁bounds	-12340
▁unreli	-12341
▁romantic	-12342
▁inherited	-12343
▁horizontal	-12344
▁Statistical	-12345
▁supramental	-12346
▁Bac	-12347
▁Nom	-12348
▁amen	-12349
▁Lanka	-12350
▁disin	-12351
▁sport	-12352
▁exempt	-12353
▁inputs	-12354
▁plains	-12355
▁Kannada	-12356
▁carrier	-12357
▁seconds	-12358
▁operates	-12359
▁peripher	-12360
▁aggregate	-12361
▁Palestinians	-12362
२०	-12363
▁RC	-12364
omas	-12365
rent	-12366
▁Lol	-12367
FAESI	-12368
osure	-12369
▁Very	-12370
▁Yash	-12371
▁hier	-12372
ipedia	-12373
▁dialog	-12374
▁senses	-12375
▁Upanishad	-12376
▁biological	-12377
▁introducing	-12378
▁prescribing	-12379
▁transparency	-12380
In	-12381
▁Bo	-12382
▁SO	-12383
rator	-12384
▁Amin	-12385
▁Anth	-12386
▁Ghat	-12387
▁Kitt	-12388
▁misp	-12389
▁push	-12390
▁Ansari	-12391
▁Bhavan	-12392
▁dictum	-12393
▁royalty	-12394
▁trustee	-12395
▁Consumer	-12396
▁membrane	-12397
▁detection	-12398
▁attributable	-12399
▁confiscation	-12400
▁inadmissible	-12401
oni	-12402
vity	-12403
▁jet	-12404
▁Star	-12405
▁horn	-12406
▁tons	-12407
▁whis	-12408
essors	-12409
teenth	-12410
uniary	-12411
▁sixth	-12412
examine	-12413
▁Father	-12414
▁Hamachi	-12415
▁Product	-12416
▁publish	-12417
▁tourist	-12418
▁untouch	-12419
mentation	-12420
▁announce	-12421
▁concepts	-12422
▁confessed	-12423
▁purchases	-12424
▁agricultur	-12425
eren	-12426
▁daco	-12427
▁Result	-12428
▁consec	-12429
▁hazard	-12430
▁noting	-12431
▁Seventh	-12432
▁compare	-12433
▁lifting	-12434
▁untenable	-12435
▁initiative	-12436
▁satisfying	-12437
▁altercation	-12438
▁justifiable	-12439
cive	-12440
▁Anj	-12441
▁CON	-12442
▁Nic	-12443
▁lal	-12444
▁rans	-12445
itants	-12446
usible	-12447
▁Scale	-12448
▁burns	-12449
▁mills	-12450
▁rites	-12451
▁Course	-12452
▁Dharam	-12453
▁flying	-12454
▁ascetic	-12455
▁handing	-12456
▁implead	-12457
▁Industry	-12458
▁dwelling	-12459
▁opposing	-12460
▁Mantralaya	-12461
▁privileges	-12462
▁obstruction	-12463
BER	-12464
▁ER	-12465
pati	-12466
▁htt	-12467
otism	-12468
▁Deal	-12469
RISHNA	-12470
▁Media	-12471
▁irrit	-12472
▁Modern	-12473
▁invent	-12474
▁ladies	-12475
▁leased	-12476
▁Turkish	-12477
▁hearsay	-12478
▁streams	-12479
▁validly	-12480
▁vitiate	-12481
▁expanded	-12482
▁orthodox	-12483
▁disciples	-12484
▁hospitals	-12485
▁illiterate	-12486
▁experiments	-12487
▁realization	-12488
▁territories	-12489
deo	-12490
▁PE	-12491
ihad	-12492
▁Jul	-12493
▁Nok	-12494
owing	-12495
▁Pray	-12496
▁Goyal	-12497
▁Greek	-12498
▁Mahas	-12499
▁Mandi	-12500
▁Vicer	-12501
▁Ashish	-12502
▁Declar	-12503
▁Invest	-12504
▁Rupees	-12505
▁Within	-12506
▁corpus	-12507
▁Manilal	-12508
▁Support	-12509
▁firearm	-12510
▁abetment	-12511
▁provider	-12512
▁festivals	-12513
▁ineligible	-12514
▁invariably	-12515
▁prosecuting	-12516
VC	-12517
hek	-12518
itra	-12519
▁RES	-12520
▁beet	-12521
▁Nanda	-12522
▁noble	-12523
▁Charan	-12524
▁bamboo	-12525
▁camera	-12526
▁deeper	-12527
▁detect	-12528
▁fingers	-12529
▁volumes	-12530
▁appealed	-12531
▁obstruct	-12532
▁swelling	-12533
▁Mukherjee	-12534
▁Presidential	-12535
▁nevertheless	-12536
▁IX	-12537
▁API	-12538
▁Gas	-12539
amind	-12540
▁NCTE	-12541
▁disl	-12542
▁bliss	-12543
▁smoke	-12544
▁phones	-12545
▁acquies	-12546
▁directs	-12547
▁parental	-12548
▁dissolved	-12549
▁uncertain	-12550
▁unreliable	-12551
xx	-12552
ARE	-12553
▁DAV	-12554
▁Syn	-12555
SPORT	-12556
asive	-12557
▁Dham	-12558
▁exon	-12559
▁pace	-12560
otions	-12561
▁india	-12562
▁slope	-12563
▁custod	-12564
▁random	-12565
▁sharma	-12566
▁subtle	-12567
▁Gandhar	-12568
▁nearest	-12569
▁unaided	-12570
▁enjoying	-12571
▁instinct	-12572
▁deviation	-12573
▁Tahasildar	-12574
▁chargeable	-12575
▁similarity	-12576
▁shareholder	-12577
ARD	-12578
kes	-12579
araj	-12580
▁dub	-12581
chron	-12582
▁Gard	-12583
▁nice	-12584
▁tack	-12585
iating	-12586
▁Blood	-12587
▁Click	-12588
▁limbs	-12589
▁Manish	-12590
▁habits	-12591
▁Acharya	-12592
▁Current	-12593
▁Emperor	-12594
▁Pradeep	-12595
▁Tenancy	-12596
▁abusing	-12597
▁bloodst	-12598
▁entitle	-12599
▁reaches	-12600
▁Specific	-12601
▁vertical	-12602
▁afterwards	-12603
▁Nevertheless	-12604
▁Notwithstanding	-12605
▁UT	-12606
ivas	-12607
ksha	-12608
ucid	-12609
▁Gob	-12610
▁Unt	-12611
▁Call	-12612
▁Word	-12613
▁aunt	-12614
▁lots	-12615
ivable	-12616
▁accur	-12617
▁recip	-12618
▁Khasra	-12619
▁condem	-12620
▁define	-12621
▁inaction	-12622
▁relieved	-12623
▁TRANSPORT	-12624
▁affording	-12625
▁Elementary	-12626
▁Principles	-12627
▁governmental	-12628
hor	-12629
iac	-12630
kay	-12631
ller	-12632
▁SIT	-12633
owner	-12634
▁Dipl	-12635
▁Durg	-12636
▁lect	-12637
▁ling	-12638
▁pays	-12639
▁torn	-12640
▁mosque	-12641
ensively	-12642
▁outward	-12643
▁vitamin	-12644
▁coverage	-12645
▁subscrib	-12646
▁Objection	-12647
▁collusion	-12648
▁liberation	-12649
▁disbelieved	-12650
▁institutional	-12651
US	-12652
inc	-12653
ket	-12654
anki	-12655
▁Bud	-12656
▁Ele	-12657
▁Ken	-12658
▁sue	-12659
apsed	-12660
▁cock	-12661
▁Brief	-12662
▁Hamas	-12663
▁Rajiv	-12664
▁brave	-12665
▁brick	-12666
▁campus	-12667
▁catena	-12668
▁hearts	-12669
▁landed	-12670
ructuous	-12671
▁Viceroy	-12672
▁chances	-12673
▁dividend	-12674
▁evaluate	-12675
▁minerals	-12676
▁highlight	-12677
▁intensity	-12678
▁searching	-12679
▁tantamount	-12680
▁Bhubaneswar	-12681
▁BG	-12682
ahal	-12683
cons	-12684
▁Kak	-12685
▁Sao	-12686
▁Say	-12687
▁ail	-12688
andal	-12689
▁peak	-12690
▁stro	-12691
▁Pipes	-12692
▁Pract	-12693
▁Suraj	-12694
▁dimin	-12695
▁escal	-12696
adation	-12697
▁insult	-12698
▁regret	-12699
position	-12700
▁Jyotirm	-12701
▁William	-12702
▁apposite	-12703
▁yesterday	-12704
▁variations	-12705
ede	-12706
mani	-12707
enary	-12708
▁Iron	-12709
icular	-12710
▁Sadar	-12711
▁debit	-12712
▁lapsed	-12713
▁lesson	-12714
▁SARFAESI	-12715
▁baseless	-12716
▁Exception	-12717
▁allocated	-12718
▁monitoring	-12719
▁Applications	-12720
▁collectively	-12721
yn	-12722
ago	-12723
olf	-12724
▁Ro	-12725
bury	-12726
▁Tib	-12727
▁orn	-12728
▁Fate	-12729
▁KIAD	-12730
▁Mans	-12731
▁inch	-12732
abetes	-12733
aution	-12734
mities	-12735
▁Video	-12736
▁procu	-12737
▁Pramod	-12738
▁Sandeep	-12739
▁revival	-12740
▁suffice	-12741
▁confused	-12742
▁inquired	-12743
▁reception	-12744
▁fulfilment	-12745
▁infructuous	-12746
▁Ki	-12747
▁LC	-12748
wing	-12749
▁Bhu	-12750
▁Make	-12751
agraha	-12752
▁Nizam	-12753
▁Sikhs	-12754
▁Pillai	-12755
▁Region	-12756
▁deaths	-12757
▁savings	-12758
YA	-12759
eas	-12760
pee	-12761
fect	-12762
▁Put	-12763
▁sli	-12764
erous	-12765
reams	-12766
▁Qual	-12767
▁Naidu	-12768
▁flesh	-12769
▁shame	-12770
▁wives	-12771
▁Advert	-12772
▁Almast	-12773
▁Lolita	-12774
▁repugn	-12775
▁serves	-12776
▁sphere	-12777
iability	-12778
▁earmark	-12779
▁Supervis	-12780
▁exchanged	-12781
▁reopening	-12782
▁Electrical	-12783
▁attractive	-12784
▁governance	-12785
▁ip	-12786
uded	-12787
▁PET	-12788
▁len	-12789
ealth	-12790
▁MBBS	-12791
▁Ankit	-12792
▁Paris	-12793
▁sworn	-12794
▁vivid	-12795
▁petrol	-12796
▁extends	-12797
▁lateral	-12798
▁parting	-12799
ideration	-12800
▁conceived	-12801
▁diligence	-12802
▁unambiguous	-12803
hips	-12804
qbal	-12805
▁DTA	-12806
odium	-12807
▁FTIL	-12808
▁Turn	-12809
▁cros	-12810
▁hole	-12811
▁tiny	-12812
▁Audio	-12813
▁Energy	-12814
▁rarely	-12815
▁cooking	-12816
▁Software	-12817
▁hardware	-12818
▁mandates	-12819
▁attribute	-12820
▁deficiencies	-12821
▁incorporation	-12822
mp	-12823
abs	-12824
hee	-12825
ulg	-12826
▁xx	-12827
▁Cant	-12828
▁auto	-12829
▁noon	-12830
▁ambig	-12831
▁indis	-12832
▁semen	-12833
▁photoc	-12834
▁episode	-12835
▁expense	-12836
▁organic	-12837
▁Abdullah	-12838
▁Vadodara	-12839
▁Complaint	-12840
▁Solicitor	-12841
▁Immediately	-12842
▁PA	-12843
iety	-12844
iscl	-12845
last	-12846
wadi	-12847
▁Pul	-12848
▁sem	-12849
araja	-12850
panch	-12851
power	-12852
▁Club	-12853
▁Samb	-12854
▁Volume	-12855
▁stable	-12856
▁throat	-12857
▁unexpl	-12858
▁arrayed	-12859
▁conject	-12860
▁doubted	-12861
renchment	-12862
▁colonial	-12863
▁totality	-12864
▁Europeans	-12865
▁Evolution	-12866
▁forgotten	-12867
▁Jyotirmath	-12868
rot	-12869
yap	-12870
icha	-12871
▁Fig	-12872
▁nit	-12873
▁ray	-12874
▁Fold	-12875
▁Kund	-12876
▁Prit	-12877
▁Zila	-12878
▁barg	-12879
▁faster	-12880
▁fisher	-12881
▁African	-12882
▁intends	-12883
▁fourteen	-12884
▁Madhubani	-12885
▁tremendous	-12886
▁contractors	-12887
▁possibilities	-12888
NAT	-12889
ikar	-12890
ttes	-12891
▁Hab	-12892
▁NOC	-12893
▁PIN	-12894
▁Raw	-12895
▁tin	-12896
▁Much	-12897
▁NEET	-12898
▁acre	-12899
▁lien	-12900
ulance	-12901
▁Sudhir	-12902
▁surely	-12903
▁Asutosh	-12904
▁Minimum	-12905
▁assumes	-12906
▁pursuing	-12907
▁certainty	-12908
▁plausible	-12909
▁provinces	-12910
▁succumbed	-12911
▁counselling	-12912
▁intelligent	-12913
▁consolidated	-12914
KA	-12915
▁Ko	-12916
▁gh	-12917
adia	-12918
endu	-12919
olen	-12920
rium	-12921
udra	-12922
▁SIM	-12923
▁bog	-12924
▁cra	-12925
▁Bhup	-12926
▁Type	-12927
▁bars	-12928
▁dual	-12929
▁tone	-12930
▁Chhat	-12931
▁mobil	-12932
▁reign	-12933
▁induce	-12934
▁disable	-12935
▁literal	-12936
▁Statutes	-12937
▁emission	-12938
▁subtract	-12939
▁misplaced	-12940
▁producers	-12941
▁Plaintiffs	-12942
▁Kaz	-12943
▁Bhoj	-12944
▁Prob	-12945
▁Patil	-12946
▁Puran	-12947
▁Saheb	-12948
▁Total	-12949
▁Yamuna	-12950
▁drawer	-12951
▁Brother	-12952
▁beliefs	-12953
▁Applying	-12954
▁controls	-12955
▁stranger	-12956
▁advancement	-12957
▁conditional	-12958
▁EM	-12959
▁MW	-12960
▁Job	-12961
▁Rig	-12962
▁VRS	-12963
▁ink	-12964
▁unw	-12965
iscal	-12966
▁Bhad	-12967
▁Kach	-12968
▁Nokia	-12969
▁Ratan	-12970
▁Short	-12971
▁loses	-12972
▁worst	-12973
▁yards	-12974
▁Kittur	-12975
▁Nagpur	-12976
▁agenda	-12977
▁Earlier	-12978
▁protein	-12979
▁painting	-12980
▁secretary	-12981
▁Concession	-12982
▁compulsion	-12983
▁forwarding	-12984
▁indigenous	-12985
▁suggesting	-12986
▁Radhakrishnan	-12987
▁ld	-12988
▁Jun	-12989
▁sen	-12990
▁feas	-12991
▁pale	-12992
urring	-12993
▁debar	-12994
▁mitig	-12995
▁Adalat	-12996
▁dollar	-12997
▁pulled	-12998
▁loading	-12999
▁Physical	-13000
▁condoned	-13001
▁magnetic	-13002
▁numbered	-13003
▁intestine	-13004
▁publicity	-13005
▁Christians	-13006
eph	-13007
aryn	-13008
ping	-13009
vial	-13010
▁Sch	-13011
▁Suf	-13012
haran	-13013
ouses	-13014
ivance	-13015
ronics	-13016
onymous	-13017
▁Rohtas	-13018
▁models	-13019
▁ninety	-13020
▁unanim	-13021
reatment	-13022
▁inspite	-13023
▁dissatisf	-13024
▁comparable	-13025
▁presenting	-13026
▁Muzaffarpur	-13027
▁consignment	-13028
▁disposition	-13029
rec	-13030
vil	-13031
eter	-13032
have	-13033
▁Kon	-13034
▁Pop	-13035
ankaj	-13036
isive	-13037
▁aest	-13038
▁ages	-13039
▁knee	-13040
▁mart	-13041
rishna	-13042
▁overl	-13043
▁proxy	-13044
▁authors	-13045
▁microsc	-13046
▁Territory	-13047
▁Wikipedia	-13048
▁judicially	-13049
Tube	-13050
iors	-13051
▁Pin	-13052
▁Pos	-13053
parte	-13054
▁Lala	-13055
▁fare	-13056
▁kids	-13057
▁reci	-13058
clause	-13059
▁Delete	-13060
▁Venkat	-13061
▁deadly	-13062
▁reside	-13063
appeared	-13064
▁Inspect	-13065
▁Relying	-13066
▁Contempt	-13067
▁evidently	-13068
▁connivance	-13069
▁provincial	-13070
▁promotional	-13071
▁philosophical	-13072
edi	-13073
pse	-13074
▁ww	-13075
iraj	-13076
soon	-13077
▁Kha	-13078
▁Kul	-13079
▁cyl	-13080
▁umb	-13081
▁Maur	-13082
▁RERA	-13083
▁brah	-13084
▁motu	-13085
akshmi	-13086
▁Chann	-13087
▁smart	-13088
▁Custom	-13089
▁embarr	-13090
▁accepts	-13091
▁dollars	-13092
▁offline	-13093
▁Devendra	-13094
▁contacts	-13095
▁emotions	-13096
▁precaution	-13097
▁sentencing	-13098
▁conciliation	-13099
AKSH	-13100
ethe	-13101
▁Cop	-13102
▁kms	-13103
▁tap	-13104
▁Chaw	-13105
▁Down	-13106
▁lump	-13107
▁camel	-13108
▁finan	-13109
▁Arabia	-13110
▁defaul	-13111
▁standi	-13112
▁edition	-13113
▁induced	-13114
forcement	-13115
▁charging	-13116
▁terrible	-13117
▁variable	-13118
▁narrative	-13119
▁erroneously	-13120
AKA	-13121
▁PL	-13122
ante	-13123
asti	-13124
ifts	-13125
veli	-13126
▁SEL	-13127
▁cel	-13128
▁fer	-13129
adhar	-13130
▁Doct	-13131
▁Mian	-13132
▁spur	-13133
▁tribe	-13134
▁typed	-13135
▁Tehsil	-13136
▁coffee	-13137
▁visits	-13138
unciation	-13139
▁Sarpanch	-13140
▁surgical	-13141
▁Personnel	-13142
▁agitation	-13143
▁evaluated	-13144
▁distinctive	-13145
ato	-13146
igha	-13147
ilst	-13148
▁fur	-13149
arted	-13150
eterm	-13151
▁COMM	-13152
▁cane	-13153
▁lone	-13154
▁vacc	-13155
▁glaci	-13156
▁opted	-13157
▁roster	-13158
graduate	-13159
▁Manohar	-13160
▁sincere	-13161
▁availing	-13162
▁militant	-13163
▁franchise	-13164
▁locations	-13165
▁Departments	-13166
▁characterized	-13167
oys	-13168
▁BO	-13169
mith	-13170
▁gal	-13171
▁www	-13172
▁Mary	-13173
▁Panj	-13174
▁misd	-13175
▁Naval	-13176
▁goals	-13177
▁hindi	-13178
▁unfit	-13179
▁Sunita	-13180
▁Witness	-13181
▁nominal	-13182
▁sectors	-13183
▁typical	-13184
▁Normally	-13185
▁kilogram	-13186
▁mutually	-13187
▁networks	-13188
▁warrants	-13189
▁assistant	-13190
▁broadcast	-13191
▁elephants	-13192
▁favourite	-13193
▁supplying	-13194
▁wonderful	-13195
▁hereditary	-13196
cm	-13197
▁SR	-13198
▁VS	-13199
anna	-13200
onut	-13201
▁LIN	-13202
▁Wal	-13203
▁fre	-13204
▁lin	-13205
▁Moti	-13206
ardhan	-13207
liness	-13208
▁Iqbal	-13209
▁firms	-13210
▁virus	-13211
▁Mosque	-13212
▁buffal	-13213
▁ransom	-13214
▁repeal	-13215
resident	-13216
▁indulge	-13217
▁neutral	-13218
▁virtual	-13219
▁exceeded	-13220
▁vicinity	-13221
▁imparting	-13222
▁entreprene	-13223
▁irreparable	-13224
▁increasingly	-13225
▁inconvenience	-13226
BH	-13227
si	-13228
.--	-13229
anny	-13230
▁Bik	-13231
▁Goa	-13232
▁Chet	-13233
▁Tour	-13234
▁uter	-13235
ponder	-13236
▁Still	-13237
▁coerc	-13238
▁glory	-13239
▁socio	-13240
▁washed	-13241
▁Freedom	-13242
▁condone	-13243
▁critics	-13244
▁worried	-13245
▁balanced	-13246
▁historic	-13247
▁inflation	-13248
▁Chatterjee	-13249
▁cultivated	-13250
▁extensively	-13251
▁EC	-13252
anag	-13253
rics	-13254
▁Lac	-13255
askar	-13256
endum	-13257
usalem	-13258
▁Royal	-13259
▁naked	-13260
▁buried	-13261
▁merger	-13262
▁stolen	-13263
▁Cricket	-13264
▁entrust	-13265
▁insight	-13266
▁leaflet	-13267
▁marital	-13268
▁everyday	-13269
▁Jerusalem	-13270
▁expedient	-13271
▁companions	-13272
▁contribute	-13273
▁concurrence	-13274
▁probabilities	-13275
DR	-13276
ASH	-13277
▁Es	-13278
▁SS	-13279
list	-13280
pons	-13281
▁Nit	-13282
▁Was	-13283
▁Send	-13284
▁ampl	-13285
▁lean	-13286
iscrim	-13287
▁stores	-13288
▁traged	-13289
itations	-13290
▁Bhushan	-13291
▁YouTube	-13292
▁movable	-13293
▁Brahmins	-13294
▁spending	-13295
Divisional	-13296
▁Pollution	-13297
▁pecuniary	-13298
▁liquidated	-13299
▁identifying	-13300
do	-13301
cot	-13302
lph	-13303
▁sa	-13304
▁XII	-13305
▁sar	-13306
agram	-13307
▁unac	-13308
appeal	-13309
enture	-13310
▁Chint	-13311
▁abate	-13312
▁scrap	-13313
▁thigh	-13314
▁vests	-13315
▁exempl	-13316
▁treaty	-13317
▁Benefit	-13318
▁mineral	-13319
affidavit	-13320
▁Intellig	-13321
▁generate	-13322
▁noticing	-13323
▁succeeds	-13324
▁expertise	-13325
▁depositing	-13326
▁pensionary	-13327
▁publishing	-13328
▁terminating	-13329
▁headquarters	-13330
▁Rehabilitation	-13331
ico	-13332
▁mm	-13333
iser	-13334
juna	-13335
▁Lee	-13336
▁Loh	-13337
▁Nab	-13338
▁vou	-13339
oresh	-13340
rence	-13341
venty	-13342
▁jeep	-13343
▁embry	-13344
▁Global	-13345
▁explan	-13346
▁immort	-13347
▁trials	-13348
petition	-13349
▁lacking	-13350
▁promulg	-13351
▁vaginal	-13352
stituting	-13353
▁Sarojini	-13354
▁consuming	-13355
▁enforcing	-13356
▁inordinate	-13357
▁comparative	-13358
▁shareholding	-13359
HAL	-13360
las	-13361
▁BJ	-13362
▁Os	-13363
▁Beh	-13364
▁Gol	-13365
▁bin	-13366
▁dir	-13367
▁dtd	-13368
▁kin	-13369
▁Rich	-13370
▁Srik	-13371
▁lungs	-13372
▁Prince	-13373
▁assent	-13374
▁hatred	-13375
▁lapses	-13376
▁merged	-13377
▁oppose	-13378
▁presum	-13379
▁summon	-13380
▁Journal	-13381
▁Perform	-13382
▁crossex	-13383
▁founder	-13384
▁trivial	-13385
warranted	-13386
▁disappro	-13387
▁drawings	-13388
▁embodied	-13389
▁moderate	-13390
▁procured	-13391
▁Malayalam	-13392
▁amenities	-13393
▁contempor	-13394
▁improving	-13395
▁surprised	-13396
▁enthusiasm	-13397
▁nationalism	-13398
▁concurrently	-13399
▁inconsistency	-13400
enn	-13401
ATED	-13402
▁Own	-13403
▁ank	-13404
cotic	-13405
▁Shat	-13406
▁turb	-13407
ipping	-13408
▁alike	-13409
▁risks	-13410
▁smugg	-13411
▁Dharma	-13412
▁Undert	-13413
▁disent	-13414
▁symbols	-13415
▁reserves	-13416
▁Lecturers	-13417
▁sponsored	-13418
▁depositions	-13419
▁unexplained	-13420
▁unconditional	-13421
▁Kr	-13422
▁NB	-13423
avur	-13424
itic	-13425
orph	-13426
▁mes	-13427
▁Budh	-13428
▁Meal	-13429
▁Rout	-13430
▁Vidy	-13431
▁gest	-13432
rolled	-13433
▁Floor	-13434
▁Queen	-13435
▁chick	-13436
▁clerk	-13437
▁leveled	-13438
▁relinqu	-13439
▁wedding	-13440
▁Vehicles	-13441
▁crystall	-13442
▁disciple	-13443
▁indefinite	-13444
▁nationalist	-13445
ansi	-13446
▁TAL	-13447
arium	-13448
rasad	-13449
▁Prav	-13450
▁Sudd	-13451
▁Tool	-13452
▁drum	-13453
▁sums	-13454
▁unch	-13455
ladesh	-13456
▁Broad	-13457
▁metic	-13458
▁urine	-13459
▁Bhagav	-13460
▁legend	-13461
▁mirror	-13462
▁cabinet	-13463
▁ensured	-13464
▁incised	-13465
▁Claimant	-13466
▁Graduate	-13467
▁Protocol	-13468
▁enacting	-13469
▁resigned	-13470
▁Affidavit	-13471
▁divisions	-13472
▁enquiries	-13473
▁adequately	-13474
▁Enforcement	-13475
▁unwarranted	-13476
▁achievements	-13477
▁associations	-13478
▁insecticides	-13479
▁retrenchment	-13480
▁Kum	-13481
▁vii	-13482
athan	-13483
▁glad	-13484
▁nest	-13485
▁soph	-13486
alinga	-13487
▁deter	-13488
▁posed	-13489
▁reven	-13490
▁tired	-13491
▁Chaluk	-13492
▁bushes	-13493
▁clever	-13494
▁packages	-13495
▁spreading	-13496
▁misleading	-13497
▁inflammation	-13498
▁Establishment	-13499
▁Jo	-13500
▁DPC	-13501
▁bif	-13502
▁Conc	-13503
▁Poet	-13504
▁chap	-13505
itious	-13506
▁Karan	-13507
▁abide	-13508
▁rider	-13509
▁torch	-13510
▁Accept	-13511
▁Commun	-13512
▁dreams	-13513
▁excite	-13514
▁consensus	-13515
▁lacerated	-13516
▁particles	-13517
▁cancelling	-13518
▁conflicting	-13519
▁purportedly	-13520
Sh	-13521
zer	-13522
amond	-13523
field	-13524
▁Cult	-13525
▁lend	-13526
▁Depos	-13527
▁Metro	-13528
▁verte	-13529
▁Amount	-13530
▁counts	-13531
▁walked	-13532
▁Khatoon	-13533
▁Workmen	-13534
▁brevity	-13535
▁parking	-13536
Registrar	-13537
measuring	-13538
▁pressing	-13539
▁repealed	-13540
▁rotation	-13541
▁propounded	-13542
▁Declaration	-13543
▁unjustified	-13544
▁overwhelming	-13545
▁specification	-13546
born	-13547
ette	-13548
▁cab	-13549
ivedi	-13550
plier	-13551
▁Kand	-13552
▁Meer	-13553
▁Suman	-13554
▁gifts	-13555
▁memor	-13556
▁ulter	-13557
imental	-13558
▁Gloria	-13559
▁arithm	-13560
▁losing	-13561
▁trader	-13562
▁federal	-13563
▁ignorant	-13564
▁shouting	-13565
▁ambiguity	-13566
▁deception	-13567
▁attributes	-13568
▁meaningful	-13569
▁structural	-13570
▁disappeared	-13571
▁reservations	-13572
nut	-13573
pes	-13574
arao	-13575
stan	-13576
aside	-13577
riers	-13578
▁arts	-13579
▁quad	-13580
▁warn	-13581
itably	-13582
riages	-13583
▁games	-13584
▁meets	-13585
▁destiny	-13586
▁equated	-13587
▁heinous	-13588
▁mutated	-13589
▁seventh	-13590
▁Gazetted	-13591
▁Mahanadi	-13592
▁Purchase	-13593
▁Sciences	-13594
▁ulterior	-13595
▁chemicals	-13596
▁envisages	-13597
▁financing	-13598
▁Scientific	-13599
▁candidature	-13600
▁provocation	-13601
▁Commissioners	-13602
ANT	-13603
sey	-13604
thi	-13605
▁Ox	-13606
▁voc	-13607
▁alph	-13608
▁raid	-13609
▁Would	-13610
▁honey	-13611
ampered	-13612
▁Gorakh	-13613
▁Poresh	-13614
▁phenom	-13615
▁photos	-13616
▁weaker	-13617
arcation	-13618
▁Payment	-13619
▁deficit	-13620
▁avoiding	-13621
▁delegate	-13622
▁distress	-13623
▁jewellery	-13624
▁litigants	-13625
▁professor	-13626
▁retention	-13627
▁shoulders	-13628
▁equipments	-13629
▁impediment	-13630
▁practition	-13631
▁conventional	-13632
ref	-13633
yed	-13634
▁EN	-13635
▁Ld	-13636
ITED	-13637
life	-13638
okar	-13639
▁Fat	-13640
front	-13641
▁cens	-13642
▁Field	-13643
▁deems	-13644
▁seals	-13645
▁Ashram	-13646
▁Choose	-13647
▁Mahade	-13648
▁Nanded	-13649
▁bureau	-13650
▁hostel	-13651
▁quarre	-13652
▁skelet	-13653
▁airports	-13654
▁deterior	-13655
▁lifetime	-13656
▁ministry	-13657
▁Religious	-13658
▁finalized	-13659
▁stability	-13660
▁tribunals	-13661
▁cigarettes	-13662
▁conferring	-13663
▁permissions	-13664
▁investigations	-13665
UDA	-13666
▁DO	-13667
abar	-13668
▁REP	-13669
▁omn	-13670
▁Same	-13671
▁Team	-13672
▁kick	-13673
▁pupp	-13674
cepted	-13675
lacing	-13676
▁Taxes	-13677
▁Treas	-13678
▁minded	-13679
▁Mathura	-13680
▁Trading	-13681
▁clarity	-13682
▁tractor	-13683
▁Medicine	-13684
▁Generally	-13685
▁Initially	-13686
▁attendant	-13687
▁diversity	-13688
▁depression	-13689
▁materially	-13690
▁reproduction	-13691
adas	-13692
ador	-13693
appy	-13694
iman	-13695
otes	-13696
▁Cad	-13697
▁Hum	-13698
▁jaw	-13699
imity	-13700
▁BIFR	-13701
▁Chap	-13702
▁manus	-13703
▁spont	-13704
▁Arvind	-13705
▁therap	-13706
▁warned	-13707
▁coconut	-13708
▁faulted	-13709
esticides	-13710
▁Deceased	-13711
▁collabor	-13712
▁delicate	-13713
▁monopoly	-13714
▁producer	-13715
▁therefor	-13716
▁mediation	-13717
▁preponder	-13718
▁alienation	-13719
▁preferably	-13720
▁unexpected	-13721
▁Constituent	-13722
▁concealment	-13723
▁Intelligence	-13724
▁complainants	-13725
▁substantiated	-13726
▁superintendence	-13727
voc	-13728
▁ox	-13729
aben	-13730
conn	-13731
iler	-13732
uria	-13733
▁Gal	-13734
▁Ste	-13735
aping	-13736
▁diver	-13737
▁liked	-13738
▁mouse	-13739
▁toile	-13740
▁KARNAT	-13741
▁Status	-13742
▁horses	-13743
▁splend	-13744
▁broadly	-13745
▁promiss	-13746
▁Jitendra	-13747
▁analysed	-13748
▁credited	-13749
▁earnings	-13750
▁interval	-13751
▁Bangladesh	-13752
▁deprivation	-13753
▁subsistence	-13754
Ed	-13755
PP	-13756
mia	-13757
▁COT	-13758
▁SPE	-13759
▁bis	-13760
anium	-13761
innah	-13762
▁Kumb	-13763
▁suck	-13764
▁Phase	-13765
▁sorry	-13766
▁tiger	-13767
▁token	-13768
▁unreg	-13769
▁waves	-13770
settled	-13771
▁Should	-13772
▁Vikram	-13773
▁embark	-13774
▁openly	-13775
▁sevent	-13776
▁colours	-13777
▁dynasty	-13778
▁Consolid	-13779
▁mandated	-13780
▁resisted	-13781
▁shopping	-13782
▁Administr	-13783
▁listening	-13784
▁perceived	-13785
▁realistic	-13786
▁indicative	-13787
▁undergoing	-13788
▁appropriately	-13789
ca	-13790
oqu	-13791
▁ov	-13792
▁ts	-13793
agic	-13794
anqu	-13795
▁Bre	-13796
aware	-13797
▁Sury	-13798
▁elev	-13799
▁lust	-13800
▁Guard	-13801
▁Panel	-13802
▁shoot	-13803
▁Dental	-13804
▁Reader	-13805
▁crying	-13806
▁enjoin	-13807
▁canteen	-13808
▁captive	-13809
▁Actually	-13810
▁PETITION	-13811
▁formally	-13812
▁Premchand	-13813
▁Alt	-13814
▁lig	-13815
arama	-13816
arshi	-13817
▁Anup	-13818
▁Roll	-13819
▁SAIL	-13820
▁trip	-13821
▁Lalit	-13822
▁Print	-13823
▁edges	-13824
anjavur	-13825
olation	-13826
▁monkey	-13827
▁beneath	-13828
▁subsidy	-13829
▁breeding	-13830
▁counsels	-13831
▁diabetes	-13832
▁magazine	-13833
▁prestige	-13834
▁KARNATAKA	-13835
▁assembled	-13836
▁consisted	-13837
▁coordinate	-13838
▁liquidator	-13839
▁prejudiced	-13840
▁promissory	-13841
▁illustration	-13842
▁individually	-13843
can	-13844
▁BS	-13845
▁ME	-13846
fast	-13847
pose	-13848
▁Alb	-13849
erers	-13850
▁bald	-13851
▁pole	-13852
▁Thomas	-13853
▁termin	-13854
▁varies	-13855
ffective	-13856
▁Islands	-13857
▁chronic	-13858
▁circums	-13859
▁deposing	-13860
▁accidents	-13861
▁kidnapped	-13862
▁multiplier	-13863
२१	-13864
iban	-13865
▁tun	-13866
pread	-13867
USTICE	-13868
▁Meher	-13869
▁bifur	-13870
▁Ananda	-13871
▁Purnea	-13872
▁Sunder	-13873
▁eldest	-13874
▁Sankara	-13875
▁Various	-13876
▁devotee	-13877
▁glaring	-13878
▁guiding	-13879
▁tickets	-13880
▁Accident	-13881
▁acquaint	-13882
▁gathering	-13883
▁rectified	-13884
▁warranting	-13885
▁inscription	-13886
▁conclusively	-13887
▁neighbouring	-13888
▁HU	-13889
▁gn	-13890
▁pg	-13891
hyam	-13892
▁Dad	-13893
▁Lay	-13894
▁Moon	-13895
▁degr	-13896
opathy	-13897
▁Munda	-13898
▁Oriya	-13899
▁Vinay	-13900
▁dread	-13901
▁guest	-13902
▁react	-13903
▁Examin	-13904
▁Jinnah	-13905
▁lastly	-13906
▁Backward	-13907
▁Himalaya	-13908
▁coercion	-13909
▁Literature	-13910
▁Litigation	-13911
▁demarcation	-13912
▁manipulation	-13913
▁retrospectively	-13914
ipe	-13915
ulf	-13916
▁Aw	-13917
ekar	-13918
oves	-13919
▁Gog	-13920
mises	-13921
▁gram	-13922
▁lips	-13923
▁conco	-13924
▁grasp	-13925
▁infir	-13926
istries	-13927
payment	-13928
▁hunger	-13929
▁talent	-13930
aterally	-13931
▁Nanalal	-13932
▁clients	-13933
▁nominee	-13934
▁segment	-13935
▁throwing	-13936
▁truthful	-13937
▁denominator	-13938
Ch	-13939
box	-13940
▁DG	-13941
aval	-13942
ignt	-13943
post	-13944
▁rum	-13945
▁vex	-13946
akant	-13947
▁Cost	-13948
▁Patt	-13949
▁Sour	-13950
▁Veda	-13951
▁akin	-13952
▁Bills	-13953
▁Dayal	-13954
▁Domin	-13955
▁Farid	-13956
▁Radio	-13957
▁Vihar	-13958
▁zones	-13959
▁Lakhan	-13960
▁Ranjit	-13961
▁dumping	-13962
▁stamped	-13963
▁Ayurveda	-13964
▁discount	-13965
▁patently	-13966
▁breathing	-13967
▁expensive	-13968
▁factories	-13969
▁intending	-13970
▁isolation	-13971
▁reiterate	-13972
▁respected	-13973
▁redemption	-13974
▁sanctioning	-13975
phy	-13976
ball	-13977
ukar	-13978
▁Bez	-13979
aland	-13980
atore	-13981
isers	-13982
lease	-13983
▁Camb	-13984
▁Edit	-13985
▁bang	-13986
▁zeal	-13987
anjali	-13988
▁COTPA	-13989
▁ganja	-13990
▁Pankaj	-13991
▁decrees	-13992
▁smoking	-13993
▁varying	-13994
▁captured	-13995
▁cultures	-13996
▁Applicant	-13997
▁Operators	-13998
▁prevention	-13999
▁procession	-14000
▁infirmities	-14001
phal	-14002
roph	-14003
udal	-14004
wife	-14005
▁Bob	-14006
▁Nov	-14007
▁Sas	-14008
▁kan	-14009
▁vel	-14010
ignty	-14011
▁Gurb	-14012
▁Read	-14013
▁bits	-14014
▁Goods	-14015
▁Space	-14016
▁coven	-14017
▁ninet	-14018
▁Motion	-14019
▁Perman	-14020
▁astron	-14021
▁timely	-14022
▁Greater	-14023
▁tragedy	-14024
▁washing	-14025
endranath	-14026
▁bailable	-14027
▁clothing	-14028
▁lectures	-14029
▁morality	-14030
▁Extension	-14031
▁scientist	-14032
▁Provincial	-14033
▁fulfilling	-14034
▁reinstated	-14035
▁scrutinized	-14036
TER	-14037
WAR	-14038
afe	-14039
▁Vr	-14040
▁kap	-14041
▁Dash	-14042
IMITED	-14043
urable	-14044
▁Sultan	-14045
▁viable	-14046
▁Dwivedi	-14047
▁grammar	-14048
▁refrain	-14049
▁Relevant	-14050
▁apprised	-14051
▁prevents	-14052
▁Petroleum	-14053
▁neglected	-14054
▁excellence	-14055
▁propounder	-14056
▁scriptures	-14057
▁statistics	-14058
▁vulnerable	-14059
▁administrator	-14060
▁authoritative	-14061
▁certification	-14062
▁preponderance	-14063
uis	-14064
▁Uj	-14065
puri	-14066
oused	-14067
▁Kalp	-14068
▁Karm	-14069
▁dent	-14070
asaheb	-14071
ritsar	-14072
▁Pappu	-14073
▁Saddam	-14074
▁encoun	-14075
▁insign	-14076
▁ledger	-14077
▁thrust	-14078
imbatore	-14079
▁Southern	-14080
▁autonomy	-14081
▁tourists	-14082
▁Thanjavur	-14083
▁prolonged	-14084
▁sophistic	-14085
▁addressing	-14086
WA	-14087
bi	-14088
ASA	-14089
cho	-14090
idar	-14091
ipal	-14092
leep	-14093
▁Dog	-14094
▁JNU	-14095
▁Mul	-14096
illing	-14097
▁Diary	-14098
▁Image	-14099
▁Umesh	-14100
▁digit	-14101
▁mercy	-14102
▁minim	-14103
▁notew	-14104
▁Narmad	-14105
▁routes	-14106
▁slaugh	-14107
▁Goddess	-14108
▁JUSTICE	-14109
▁anxiety	-14110
▁Statutory	-14111
▁Terrorism	-14112
▁brilliant	-14113
▁creatures	-14114
▁earmarked	-14115
▁transfers	-14116
▁Coimbatore	-14117
▁complicity	-14118
▁dedication	-14119
▁Magistrates	-14120
▁fraudulently	-14121
▁intermediate	-14122
▁occasionally	-14123
wp	-14124
fly	-14125
iro	-14126
SRTC	-14127
inam	-14128
iven	-14129
mind	-14130
▁SWP	-14131
▁muc	-14132
▁Answ	-14133
▁Jams	-14134
▁unav	-14135
alling	-14136
jibhai	-14137
▁Daily	-14138
▁Ocean	-14139
▁Siddh	-14140
▁rocks	-14141
▁spots	-14142
inative	-14143
▁lights	-14144
▁postal	-14145
piratory	-14146
umerable	-14147
▁adhered	-14148
▁juvenile	-14149
▁comprises	-14150
▁readiness	-14151
▁socialist	-14152
▁generating	-14153
▁indulgence	-14154
▁noteworthy	-14155
▁sentiments	-14156
▁significantly	-14157
yr	-14158
▁Ce	-14159
▁Qa	-14160
▁ka	-14161
proc	-14162
▁vib	-14163
forth	-14164
▁POST	-14165
▁Seth	-14166
▁ensu	-14167
▁stig	-14168
▁twin	-14169
▁wasn	-14170
▁arrow	-14171
▁illum	-14172
▁Bharti	-14173
▁farmer	-14174
ashankar	-14175
▁resides	-14176
▁prosperity	-14177
▁replacement	-14178
▁authenticity	-14179
apse	-14180
ifier	-14181
▁Come	-14182
▁Megh	-14183
▁Rand	-14184
▁foul	-14185
▁gran	-14186
▁imply	-14187
▁releg	-14188
▁Brahmo	-14189
▁cordial	-14190
▁jeopard	-14191
▁planted	-14192
▁Amritsar	-14193
▁prospects	-14194
▁socialism	-14195
▁varieties	-14196
▁popularity	-14197
▁complaining	-14198
▁contemplate	-14199
▁elaborately	-14200
▁withdrawing	-14201
▁comparatively	-14202
aiya	-14203
grat	-14204
lers	-14205
▁MCI	-14206
▁ham	-14207
idhar	-14208
orily	-14209
▁Ajit	-14210
▁Judic	-14211
▁array	-14212
▁grows	-14213
▁unint	-14214
▁Mandir	-14215
▁lacuna	-14216
ographic	-14217
▁Krishan	-14218
▁anterior	-14219
▁symbolic	-14220
▁Returning	-14221
▁courtyard	-14222
▁practised	-14223
▁proximity	-14224
▁Ordinarily	-14225
▁modifications	-14226
▁Ta	-14227
▁Ill	-14228
▁Kus	-14229
▁RSA	-14230
▁Sex	-14231
▁COUR	-14232
▁Fair	-14233
▁Insp	-14234
▁boot	-14235
▁dump	-14236
▁harb	-14237
▁wand	-14238
AKSHMI	-14239
▁Crown	-14240
▁Fateh	-14241
▁TALUK	-14242
▁Varma	-14243
▁admir	-14244
▁inaug	-14245
▁Island	-14246
▁cosmic	-14247
▁hiding	-14248
▁humour	-14249
▁packed	-14250
▁uncert	-14251
▁analogy	-14252
▁sparing	-14253
▁stabbed	-14254
▁Buddhism	-14255
▁Marriage	-14256
▁inadvert	-14257
▁Champions	-14258
▁invention	-14259
▁testament	-14260
▁attempting	-14261
▁concessions	-14262
▁constituent	-14263
▁relationships	-14264
moh	-14265
▁LL	-14266
▁BJP	-14267
▁Lin	-14268
▁Dioc	-14269
▁bent	-14270
▁cars	-14271
▁vain	-14272
angers	-14273
aurant	-14274
▁Roman	-14275
▁frank	-14276
▁haven	-14277
▁hopes	-14278
▁scuff	-14279
▁undes	-14280
▁Munshi	-14281
▁argues	-14282
▁church	-14283
▁instig	-14284
▁kindly	-14285
▁Interim	-14286
▁predict	-14287
▁decrease	-14288
▁refugees	-14289
▁aesthetic	-14290
▁occupancy	-14291
▁manuscript	-14292
▁adjournment	-14293
▁admeasuring	-14294
▁Rabindranath	-14295
▁disbursement	-14296
oba	-14297
HARI	-14298
asha	-14299
uate	-14300
urit	-14301
▁Ruk	-14302
▁bol	-14303
▁Cher	-14304
▁Draw	-14305
▁Poth	-14306
▁User	-14307
▁flaw	-14308
▁obey	-14309
▁Maint	-14310
▁boxes	-14311
▁optim	-14312
▁Jaipur	-14313
▁arrear	-14314
▁coroll	-14315
▁License	-14316
▁battery	-14317
▁renders	-14318
▁startup	-14319
▁confront	-14320
▁depicted	-14321
▁exposure	-14322
▁inception	-14323
▁possesses	-14324
▁sentiment	-14325
▁summoning	-14326
▁Irrigation	-14327
▁circulated	-14328
oil	-14329
tax	-14330
ulp	-14331
idhi	-14332
▁Squ	-14333
▁pix	-14334
apara	-14335
payee	-14336
▁Must	-14337
▁Pant	-14338
▁Poss	-14339
▁SECR	-14340
▁Slum	-14341
▁haem	-14342
▁lion	-14343
▁ware	-14344
adhyay	-14345
▁Autom	-14346
▁Tulsi	-14347
▁eager	-14348
▁fancy	-14349
▁whims	-14350
ductive	-14351
▁Kanhai	-14352
▁colony	-14353
▁derive	-14354
▁indian	-14355
▁pillow	-14356
▁whilst	-14357
▁capture	-14358
▁equipped	-14359
▁foremost	-14360
▁maturity	-14361
▁tenderer	-14362
▁autonomous	-14363
▁evaluating	-14364
▁revocation	-14365
▁Fundamental	-14366
▁grandmother	-14367
▁Environmental	-14368
ANA	-14369
adha	-14370
made	-14371
oric	-14372
▁Mud	-14373
▁nas	-14374
adium	-14375
least	-14376
▁Decc	-14377
▁LINK	-14378
▁Marg	-14379
▁Wild	-14380
▁curs	-14381
▁grey	-14382
▁khat	-14383
abouts	-14384
▁Maybe	-14385
▁Ishwar	-14386
▁Nirmal	-14387
▁embell	-14388
▁Goswami	-14389
▁deities	-14390
▁dioxide	-14391
▁monsoon	-14392
▁Venkates	-14393
▁misunder	-14394
▁shortcut	-14395
▁unaccept	-14396
▁vacation	-14397
▁appraisal	-14398
▁incidence	-14399
▁insisting	-14400
▁solutions	-14401
▁integration	-14402
▁politicians	-14403
▁transported	-14404
vo	-14405
esc	-14406
bank	-14407
tier	-14408
▁Adi	-14409
▁Gun	-14410
▁Leb	-14411
▁Sap	-14412
▁Vrs	-14413
ECTED	-14414
lique	-14415
▁MTNL	-14416
▁Summ	-14417
▁awak	-14418
rition	-14419
▁Ghazi	-14420
▁adhoc	-14421
▁burst	-14422
▁Nobody	-14423
▁copper	-14424
▁pollut	-14425
▁strain	-14426
▁acceler	-14427
▁females	-14428
▁Nagendra	-14429
▁ideology	-14430
▁preceded	-14431
▁proforma	-14432
▁Inspectors	-14433
▁absconding	-14434
▁touchstone	-14435
▁worshipped	-14436
▁measurements	-14437
UE	-14438
OND	-14439
untu	-14440
▁Dum	-14441
▁RFA	-14442
▁Upd	-14443
haram	-14444
▁Sast	-14445
▁idle	-14446
▁silk	-14447
▁woke	-14448
rasion	-14449
▁aston	-14450
▁cargo	-14451
▁champ	-14452
▁lotus	-14453
▁perce	-14454
▁secre	-14455
rolling	-14456
▁Chawla	-14457
▁Girish	-14458
▁Savita	-14459
▁prerog	-14460
▁Jamshed	-14461
▁Records	-14462
▁amounted	-14463
▁hierarchy	-14464
▁insertion	-14465
▁inheritance	-14466
▁superficial	-14467
mt	-14468
VER	-14469
fold	-14470
oven	-14471
rang	-14472
▁Best	-14473
▁Maul	-14474
▁Side	-14475
▁cann	-14476
▁unim	-14477
▁usur	-14478
▁wakf	-14479
atible	-14480
rances	-14481
▁Color	-14482
▁Ganes	-14483
▁annoy	-14484
▁memos	-14485
▁Option	-14486
▁Period	-14487
▁extrem	-14488
▁grains	-14489
▁seated	-14490
▁compete	-14491
ifference	-14492
▁Material	-14493
▁dealings	-14494
▁passages	-14495
▁refunded	-14496
▁Essential	-14497
▁Jagannatha	-14498
▁defamation	-14499
▁intervened	-14500
▁practicable	-14501
▁sovereignty	-14502
As	-14503
iben	-14504
▁Bra	-14505
▁tip	-14506
aceut	-14507
aunch	-14508
▁Duty	-14509
▁Host	-14510
▁pand	-14511
making	-14512
▁cries	-14513
▁petty	-14514
▁sheer	-14515
▁waist	-14516
▁mature	-14517
▁solved	-14518
▁prompted	-14519
▁restruct	-14520
▁Himalayan	-14521
▁indulging	-14522
▁minorities	-14523
▁Appointment	-14524
kan	-14525
▁ba	-14526
inth	-14527
oler	-14528
onia	-14529
umns	-14530
▁DEP	-14531
▁Uma	-14532
anyan	-14533
isons	-14534
mohan	-14535
uling	-14536
▁Cham	-14537
▁anth	-14538
▁Tikla	-14539
▁agony	-14540
▁evict	-14541
▁roles	-14542
married	-14543
▁Config	-14544
▁banker	-14545
▁bundle	-14546
▁fiscal	-14547
▁beloved	-14548
▁floated	-14549
▁painful	-14550
▁revoked	-14551
▁dividing	-14552
▁extracts	-14553
▁likewise	-14554
▁survival	-14555
▁ancestors	-14556
▁occupying	-14557
▁satellite	-14558
▁dimensions	-14559
▁institutes	-14560
LT	-14561
▁IB	-14562
▁tu	-14563
ANTH	-14564
okes	-14565
▁CRA	-14566
▁mac	-14567
viable	-14568
▁labor	-14569
▁queen	-14570
▁stren	-14571
▁sweep	-14572
▁Yogesh	-14573
▁capric	-14574
▁sensit	-14575
▁Thirdly	-14576
▁fateful	-14577
▁holiday	-14578
▁passive	-14579
▁shrines	-14580
▁Jabalpur	-14581
▁amenable	-14582
▁Corporate	-14583
▁capability	-14584
▁converting	-14585
▁consciously	-14586
▁accomplished	-14587
▁manifestation	-14588
▁Infrastructure	-14589
▁specifications	-14590
bas	-14591
eds	-14592
▁--	-14593
▁HD	-14594
▁Rom	-14595
agiri	-14596
▁Find	-14597
▁Gond	-14598
▁Uday	-14599
▁tear	-14600
▁DATED	-14601
▁James	-14602
▁Psych	-14603
▁overs	-14604
▁Prison	-14605
▁decent	-14606
▁mystic	-14607
▁wicket	-14608
▁Between	-14609
▁Mathemat	-14610
▁Movement	-14611
▁sanctity	-14612
▁accessible	-14613
[...]
