<unk>	0
<s>	0
</s>	0
UuRrLl	0
DdAaTtEe	0
NnUuMm	0
▁t	-0
he	-1
▁a	-2
in	-3
▁o	-4
▁the	-5
re	-6
on	-7
▁s	-8
er	-9
at	-10
en	-11
▁.	-12
is	-13
▁of	-14
nd	-15
▁,	-16
▁c	-17
▁w	-18
it	-19
▁p	-20
es	-21
al	-22
▁b	-23
ed	-24
an	-25
or	-26
▁in	-27
▁f	-28
ar	-29
ion	-30
ou	-31
ing	-32
▁m	-33
▁to	-34
▁and	-35
ic	-36
▁d	-37
as	-38
▁h	-39
ent	-40
le	-41
ro	-42
▁th	-43
ct	-44
▁T	-45
▁I	-46
▁re	-47
▁n	-48
▁e	-49
▁S	-50
os	-51
om	-52
il	-53
▁be	-54
▁l	-55
▁A	-56
ve	-57
▁is	-58
ation	-59
us	-60
ut	-61
ot	-62
ap	-63
▁g	-64
▁C	-65
ce	-66
im	-67
id	-68
ur	-69
▁&	-70
am	-71
ad	-72
▁for	-73
ly	-74
▁The	-75
▁P	-76
et	-77
▁on	-78
▁-	-79
ver	-80
ol	-81
ch	-82
ay	-83
ment	-84
▁M	-85
ri	-86
st	-87
ow	-88
ir	-89
▁that	-90
▁or	-91
▁B	-92
▁as	-93
▁pro	-94
el	-95
ul	-96
▁wh	-97
▁con	-98
▁an	-99
apos	-100
▁st	-101
her	-102
ig	-103
▁it	-104
ith	-105
▁u	-106
ra	-107
ter	-108
ate	-109
▁R	-110
▁al	-111
▁H	-112
ect	-113
ab	-114
▁y	-115
ess	-116
▁de	-117
if	-118
▁with	-119
ge	-120
▁su	-121
▁by	-122
▁D	-123
▁he	-124
res	-125
▁(	-126
▁)	-127
ist	-128
ers	-129
od	-130
▁was	-131
our	-132
▁are	-133
qu	-134
ld	-135
ak	-136
▁G	-137
ity	-138
▁com	-139
▁v	-140
op	-141
▁not	-142
and	-143
▁ex	-144
▁N	-145
em	-146
ill	-147
ere	-148
iv	-149
nt	-150
ain	-151
um	-152
est	-153
ci	-154
▁sh	-155
se	-156
ant	-157
▁W	-158
ive	-159
▁at	-160
▁Ind	-161
th	-162
▁this	-163
ave	-164
pp	-165
ich	-166
▁E	-167
rom	-168
ia	-169
▁L	-170
art	-171
ore	-172
ure	-173
ies	-174
ort	-175
ht	-176
end	-177
▁which	-178
ac	-179
ud	-180
un	-181
▁se	-182
▁O	-183
▁from	-184
all	-185
▁F	-186
ust	-187
▁has	-188
▁have	-189
▁ne	-190
▁In	-191
▁k	-192
ould	-193
▁r	-194
▁his	-195
▁le	-196
ous	-197
▁ch	-198
ther	-199
▁K	-200
ard	-201
▁:	-202
ions	-203
▁you	-204
ag	-205
▁wor	-206
ind	-207
▁we	-208
▁sp	-209
cc	-210
age	-211
▁all	-212
ome	-213
▁int	-214
ated	-215
ry	-216
▁India	-217
▁im	-218
pt	-219
▁J	-220
ance	-221
ice	-222
red	-223
ount	-224
▁comp	-225
▁so	-226
▁j	-227
▁pl	-228
ans	-229
ff	-230
able	-231
▁ad	-232
▁can	-233
ary	-234
▁U	-235
hi	-236
▁us	-237
av	-238
rou	-239
nder	-240
ence	-241
▁ab	-242
over	-243
ical	-244
so	-245
▁any	-246
ong	-247
ear	-248
oc	-249
ast	-250
▁en	-251
ep	-252
▁app	-253
▁Th	-254
ult	-255
▁whe	-256
▁res	-257
og	-258
ru	-259
▁cont	-260
▁dis	-261
▁me	-262
▁un	-263
ish	-264
▁per	-265
▁other	-266
pl	-267
ell	-268
▁It	-269
▁under	-270
per	-271
ction	-272
ide	-273
ial	-274
▁its	-275
▁V	-276
▁their	-277
▁will	-278
▁man	-279
▁St	-280
▁been	-281
▁inc	-282
ost	-283
out	-284
du	-285
▁one	-286
gh	-287
ame	-288
▁part	-289
vel	-290
ations	-291
ub	-292
ik	-293
ok	-294
▁;	-295
▁ag	-296
ine	-297
ie	-298
▁also	-299
ang	-300
ib	-301
iz	-302
▁had	-303
▁tr	-304
▁/	-305
ime	-306
▁do	-307
orm	-308
overn	-309
▁there	-310
act	-311
ase	-312
rit	-313
ress	-314
ection	-315
▁who	-316
lic	-317
▁imp	-318
▁up	-319
▁ar	-320
▁out	-321
ood	-322
▁but	-323
▁cl	-324
are	-325
ian	-326
ire	-327
ition	-328
ual	-329
▁were	-330
ight	-331
▁”	-332
cial	-333
▁Ch	-334
ail	-335
ach	-336
▁He	-337
ose	-338
ourt	-339
very	-340
ght	-341
▁such	-342
one	-343
▁am	-344
▁ind	-345
▁pe	-346
▁sub	-347
ade	-348
aw	-349
▁prov	-350
ass	-351
erv	-352
▁“	-353
▁year	-354
ue	-355
ake	-356
▁they	-357
▁acc	-358
▁comm	-359
▁Com	-360
▁our	-361
ber	-362
▁may	-363
ord	-364
ec	-365
ident	-366
▁rel	-367
overnment	-368
ign	-369
aus	-370
ater	-371
▁them	-372
ree	-373
ace	-374
ational	-375
ory	-376
ens	-377
▁off	-378
ric	-379
ah	-380
ution	-381
▁no	-382
ious	-383
stit	-384
▁qu	-385
now	-386
▁time	-387
erson	-388
iss	-389
▁pre	-390
▁This	-391
ings	-392
ee	-393
▁cons	-394
ities	-395
form	-396
▁ev	-397
ces	-398
▁work	-399
aj	-400
▁him	-401
tern	-402
aid	-403
ike	-404
ople	-405
▁?	-406
▁tw	-407
▁te	-408
ath	-409
ack	-410
ove	-411
▁Y	-412
itt	-413
hed	-414
rib	-415
▁more	-416
▁As	-417
▁bec	-418
▁should	-419
▁Sh	-420
▁person	-421
reat	-422
▁would	-423
▁rec	-424
ip	-425
▁reg	-426
▁count	-427
▁%	-428
amp	-429
▁em	-430
ays	-431
int	-432
fter	-433
▁po	-434
▁people	-435
low	-436
▁Act	-437
▁only	-438
velop	-439
ild	-440
ject	-441
▁act	-442
ause	-443
▁if	-444
pe	-445
▁pol	-446
ank	-447
▁ass	-448
▁some	-449
oy	-450
▁about	-451
▁know	-452
ments	-453
ite	-454
▁like	-455
▁into	-456
ound	-457
ond	-458
▁exp	-459
elf	-460
ook	-461
ates	-462
▁new	-463
lect	-464
▁Comm	-465
▁over	-466
ied	-467
ile	-468
fere	-469
cess	-470
▁sc	-471
▁Court	-472
row	-473
ise	-474
ark	-475
▁form	-476
▁these	-477
▁ri	-478
▁your	-479
▁pr	-480
fore	-481
▁Con	-482
ife	-483
▁when	-484
ced	-485
ram	-486
igh	-487
▁Pro	-488
▁made	-489
me	-490
ert	-491
▁two	-492
ific	-493
ng	-494
▁dec	-495
▁go	-496
▁sy	-497
▁Government	-498
vers	-499
ll	-500
▁’	-501
▁shall	-502
▁pres	-503
▁her	-504
ative	-505
▁ro	-506
▁Indian	-507
▁ob	-508
▁fe	-509
old	-510
▁State	-511
▁fir	-512
ublic	-513
erm	-514
▁Un	-515
▁ac	-516
ally	-517
▁resp	-518
ism	-519
▁than	-520
ating	-521
ness	-522
▁att	-523
▁rep	-524
ward	-525
ors	-526
▁develop	-527
▁bet	-528
▁trans	-529
▁ent	-530
rough	-531
uc	-532
▁An	-533
▁rem	-534
▁dif	-535
ha	-536
ful	-537
ission	-538
eg	-539
▁my	-540
ener	-541
▁being	-542
ular	-543
cy	-544
een	-545
▁inv	-546
▁said	-547
ov	-548
ower	-549
▁through	-550
▁Pr	-551
quot	-552
▁after	-553
uring	-554
ered	-555
▁But	-556
▁We	-557
uth	-558
▁eff	-559
led	-560
▁des	-561
gan	-562
▁Bh	-563
▁And	-564
▁cent	-565
▁produ	-566
▁where	-567
ax	-568
▁life	-569
ning	-570
arm	-571
▁pos	-572
wn	-573
▁sec	-574
ty	-575
stem	-576
li	-577
▁country	-578
▁years	-579
olog	-580
als	-581
ob	-582
▁Pres	-583
▁De	-584
ons	-585
ink	-586
▁again	-587
lud	-588
ible	-589
▁first	-590
▁So	-591
▁serv	-592
und	-593
▁col	-594
▁Ex	-595
ility	-596
ural	-597
hy	-598
der	-599
ature	-600
ents	-601
▁On	-602
ract	-603
te	-604
▁right	-605
cept	-606
ange	-607
ati	-608
up	-609
▁very	-610
ft	-611
▁law	-612
▁There	-613
▁set	-614
▁what	-615
▁ra	-616
▁ins	-617
fer	-618
oth	-619
▁world	-620
▁could	-621
ral	-622
rap	-623
its	-624
ision	-625
lt	-626
any	-627
ict	-628
▁need	-629
▁President	-630
ited	-631
ble	-632
hen	-633
▁get	-634
▁call	-635
▁well	-636
▁op	-637
▁must	-638
▁dist	-639
▁pur	-640
▁bl	-641
other	-642
ren	-643
con	-644
▁mem	-645
▁ed	-646
▁num	-647
ided	-648
air	-649
▁add	-650
▁bas	-651
urn	-652
▁giv	-653
▁system	-654
▁case	-655
▁just	-656
gt	-657
les	-658
ari	-659
pos	-660
aking	-661
▁good	-662
▁Is	-663
▁spe	-664
ices	-665
ween	-666
hip	-667
▁ext	-668
▁many	-669
▁mat	-670
eth	-671
▁before	-672
▁includ	-673
▁even	-674
▁requ	-675
irect	-676
▁cap	-677
▁between	-678
▁If	-679
▁then	-680
stitut	-681
iew	-682
inal	-683
▁writ	-684
ised	-685
▁fol	-686
ily	-687
▁used	-688
▁char	-689
▁prog	-690
▁import	-691
ures	-692
▁Hind	-693
uch	-694
pport	-695
ters	-696
chn	-697
own	-698
ef	-699
ries	-700
▁ear	-701
ough	-702
▁co	-703
▁Am	-704
▁ke	-705
▁min	-706
▁tra	-707
ital	-708
▁differe	-709
oun	-710
▁see	-711
stitution	-712
ix	-713
▁make	-714
▁how	-715
▁child	-716
▁sm	-717
round	-718
▁def	-719
▁public	-720
▁every	-721
▁section	-722
formation	-723
▁own	-724
▁mon	-725
▁long	-726
ages	-727
▁day	-728
▁val	-729
uthor	-730
▁inst	-731
ash	-732
▁most	-733
app	-734
▁&#	-735
ody	-736
ved	-737
▁inf	-738
▁use	-739
▁end	-740
▁mod	-741
hes	-742
▁way	-743
iness	-744
▁lar	-745
▁she	-746
ivers	-747
▁Min	-748
▁gener	-749
▁They	-750
▁i	-751
ever	-752
▁follow	-753
ple	-754
▁great	-755
▁same	-756
▁state	-757
ouse	-758
ern	-759
▁For	-760
ety	-761
▁adv	-762
▁equ	-763
aint	-764
xt	-765
ished	-766
▁power	-767
▁car	-768
▁Ar	-769
▁now	-770
ew	-771
ruct	-772
▁inter	-773
imes	-774
ven	-775
▁conc	-776
▁Cent	-777
▁hel	-778
ana	-779
▁process	-780
conom	-781
▁organ	-782
▁bu	-783
▁Ad	-784
▁br	-785
▁take	-786
▁disc	-787
istr	-788
ality	-789
ks	-790
▁place	-791
erest	-792
▁order	-793
gg	-794
▁pass	-795
lim	-796
alth	-797
arch	-798
▁number	-799
▁fact	-800
icial	-801
▁You	-802
eng	-803
▁because	-804
▁av	-805
▁hum	-806
tic	-807
iod	-808
bers	-809
ament	-810
angu	-811
▁partic	-812
▁present	-813
▁Wh	-814
▁indust	-815
▁against	-816
▁during	-817
▁fl	-818
▁stud	-819
▁development	-820
ention	-821
▁det	-822
▁dem	-823
▁help	-824
▁fam	-825
▁educ	-826
▁dep	-827
▁gr	-828
▁consid	-829
▁those	-830
▁Par	-831
ired	-832
▁back	-833
▁lead	-834
▁did	-835
rop	-836
▁ret	-837
man	-838
ined	-839
▁Commission	-840
▁leg	-841
▁hand	-842
ified	-843
ata	-844
min	-845
▁here	-846
esh	-847
ics	-848
▁different	-849
▁interest	-850
▁period	-851
▁med	-852
▁account	-853
ives	-854
ants	-855
▁occ	-856
▁court	-857
ology	-858
▁sur	-859
▁econom	-860
ared	-861
ases	-862
▁est	-863
ds	-864
lish	-865
▁tak	-866
▁grow	-867
▁jud	-868
▁Al	-869
▁conf	-870
ron	-871
▁bus	-872
ars	-873
ting	-874
get	-875
ists	-876
▁found	-877
ted	-878
ner	-879
▁three	-880
ick	-881
▁iss	-882
▁loc	-883
▁fore	-884
way	-885
▁To	-886
▁No	-887
▁term	-888
tc	-889
ale	-890
ph	-891
au	-892
▁called	-893
ained	-894
ploy	-895
▁author	-896
ency	-897
▁both	-898
▁Mah	-899
▁effect	-900
▁does	-901
ten	-902
▁pay	-903
▁down	-904
ather	-905
▁mark	-906
read	-907
ually	-908
▁fin	-909
ides	-910
roup	-911
ull	-912
▁National	-913
ingh	-914
▁water	-915
oint	-916
ya	-917
▁&#9	-918
▁cor	-919
▁cert	-920
▁bel	-921
▁comple	-922
ues	-923
▁cre	-924
ai	-925
▁respect	-926
▁gu	-927
▁Mus	-928
▁etc	-929
RB	-930
▁government	-931
▁rece	-932
▁start	-933
▁given	-934
▁techn	-935
ister	-936
ES	-937
ork	-938
rict	-939
ination	-940
▁commun	-941
han	-942
ck	-943
▁var	-944
▁contin	-945
▁langu	-946
riv	-947
▁high	-948
ool	-949
▁ph	-950
nce	-951
▁name	-952
ros	-953
▁poss	-954
reme	-955
▁aff	-956
▁str	-957
▁wom	-958
less	-959
ince	-960
▁direct	-961
▁view	-962
▁spec	-963
▁applic	-964
▁cond	-965
▁‘	-966
▁oper	-967
uk	-968
ute	-969
icy	-970
▁want	-971
▁much	-972
ock	-973
▁without	-974
not	-975
▁ref	-976
▁sect	-977
blem	-978
ceed	-979
▁means	-980
▁each	-981
ici	-982
day	-983
▁important	-984
▁del	-985
▁program	-986
▁gl	-987
▁information	-988
▁look	-989
▁let	-990
▁Re	-991
erg	-992
▁prev	-993
har	-994
▁read	-995
iel	-996
▁fac	-997
isions	-998
▁human	-999
▁Ram	-1000
por	-1001
▁sim	-1002
▁small	-1003
▁High	-1004
▁book	-1005
▁som	-1006
orts	-1007
ines	-1008
here	-1009
▁amount	-1010
▁All	-1011
▁dev	-1012
▁problem	-1013
▁Raj	-1014
▁gre	-1015
lement	-1016
▁Shri	-1017
▁ty	-1018
▁within	-1019
ges	-1020
▁body	-1021
▁social	-1022
▁sign	-1023
▁Eng	-1024
▁Rep	-1025
▁avail	-1026
ived	-1027
gin	-1028
▁fun	-1029
▁mar	-1030
▁business	-1031
▁come	-1032
▁stand	-1033
▁prof	-1034
▁ser	-1035
▁polit	-1036
▁0	-1037
▁..	-1038
▁proper	-1039
aving	-1040
▁cult	-1041
ets	-1042
▁incre	-1043
▁stre	-1044
ized	-1045
iter	-1046
af	-1047
▁tem	-1048
crib	-1049
az	-1050
▁invest	-1051
▁point	-1052
▁ide	-1053
▁relig	-1054
▁Man	-1055
▁various	-1056
▁At	-1057
▁Te	-1058
▁vis	-1059
ected	-1060
ror	-1061
ivid	-1062
▁bank	-1063
med	-1064
lam	-1065
▁play	-1066
▁happ	-1067
▁che	-1068
pr	-1069
▁Off	-1070
▁fil	-1071
arn	-1072
rol	-1073
self	-1074
▁exper	-1075
▁When	-1076
EN	-1077
ains	-1078
▁cle	-1079
▁large	-1080
▁last	-1081
▁Singh	-1082
wards	-1083
▁Dep	-1084
▁say	-1085
▁sch	-1086
▁par	-1087
reed	-1088
▁Ass	-1089
▁think	-1090
ought	-1091
▁taken	-1092
asht	-1093
▁Muslim	-1094
▁another	-1095
ession	-1096
ining	-1097
▁support	-1098
▁employ	-1099
▁Jud	-1100
ret	-1101
▁Res	-1102
▁group	-1103
▁soci	-1104
▁quest	-1105
▁times	-1106
▁...	-1107
▁assess	-1108
▁cr	-1109
ways	-1110
▁Central	-1111
▁cur	-1112
▁education	-1113
▁known	-1114
ended	-1115
▁!	-1116
ulation	-1117
▁Sc	-1118
ason	-1119
ense	-1120
rial	-1121
▁real	-1122
▁mind	-1123
▁while	-1124
ternal	-1125
▁land	-1126
ically	-1127
▁open	-1128
▁activ	-1129
▁How	-1130
ried	-1131
ey	-1132
itions	-1133
▁result	-1134
▁company	-1135
ances	-1136
▁level	-1137
stand	-1138
ferred	-1139
▁ve	-1140
▁income	-1141
olution	-1142
liament	-1143
▁estab	-1144
uss	-1145
irc	-1146
▁appro	-1147
ize	-1148
▁prom	-1149
bs	-1150
▁find	-1151
eration	-1152
▁prot	-1153
▁month	-1154
ization	-1155
ves	-1156
▁move	-1157
▁going	-1158
▁national	-1159
ething	-1160
▁days	-1161
▁allow	-1162
▁rev	-1163
▁Or	-1164
riend	-1165
ivil	-1166
▁beh	-1167
▁elect	-1168
ased	-1169
cil	-1170
▁cannot	-1171
port	-1172
▁wind	-1173
▁ter	-1174
▁OF	-1175
ittee	-1176
ption	-1177
ER	-1178
▁necess	-1179
att	-1180
▁language	-1181
ternational	-1182
ledge	-1183
ering	-1184
▁non	-1185
urther	-1186
ium	-1187
land	-1188
na	-1189
▁These	-1190
▁pop	-1191
▁members	-1192
▁subject	-1193
ccess	-1194
▁health	-1195
▁give	-1196
par	-1197
oard	-1198
lished	-1199
▁meet	-1200
▁special	-1201
ording	-1202
▁less	-1203
▁old	-1204
▁lim	-1205
omm	-1206
atic	-1207
ON	-1208
▁rest	-1209
▁sci	-1210
ential	-1211
▁show	-1212
ately	-1213
▁{	-1214
▁children	-1215
▁policy	-1216
ued	-1217
▁particular	-1218
▁ben	-1219
ability	-1220
pect	-1221
▁pract	-1222
▁div	-1223
▁Se	-1224
ug	-1225
▁}	-1226
▁four	-1227
onment	-1228
▁bro	-1229
artment	-1230
▁Q	-1231
▁—	-1232
▁exist	-1233
▁class	-1234
▁available	-1235
▁Sup	-1236
ran	-1237
isation	-1238
▁What	-1239
▁certain	-1240
ising	-1241
ither	-1242
alf	-1243
▁Tr	-1244
inci	-1245
▁Mr	-1246
ged	-1247
ajor	-1248
▁main	-1249
▁sk	-1250
section	-1251
work	-1252
iversity	-1253
ote	-1254
ury	-1255
▁death	-1256
▁ori	-1257
▁Brit	-1258
▁Rs	-1259
avan	-1260
ference	-1261
▁came	-1262
▁States	-1263
▁common	-1264
▁hist	-1265
ala	-1266
ts	-1267
ator	-1268
▁among	-1269
▁friend	-1270
▁sit	-1271
▁Del	-1272
▁countries	-1273
▁today	-1274
▁regard	-1275
TI	-1276
put	-1277
▁accept	-1278
ode	-1279
▁cost	-1280
▁PR	-1281
▁service	-1282
▁sent	-1283
▁become	-1284
ross	-1285
▁hig	-1286
ouncil	-1287
▁fund	-1288
ification	-1289
▁head	-1290
▁dra	-1291
ules	-1292
ministr	-1293
▁too	-1294
oney	-1295
▁conn	-1296
▁including	-1297
oss	-1298
ery	-1299
▁product	-1300
▁lo	-1301
isl	-1302
▁Supreme	-1303
ividual	-1304
▁action	-1305
▁She	-1306
▁comput	-1307
▁free	-1308
▁sche	-1309
▁war	-1310
▁His	-1311
▁whole	-1312
▁App	-1313
ND	-1314
itted	-1315
▁due	-1316
▁cases	-1317
▁Sec	-1318
outh	-1319
ructure	-1320
duct	-1321
ateg	-1322
▁matter	-1323
▁self	-1324
▁put	-1325
▁project	-1326
▁services	-1327
▁done	-1328
▁Gu	-1329
▁provisions	-1330
▁Gand	-1331
▁list	-1332
▁tre	-1333
▁met	-1334
▁object	-1335
ware	-1336
AR	-1337
▁area	-1338
▁family	-1339
▁care	-1340
▁Ag	-1341
▁something	-1342
▁economic	-1343
▁trad	-1344
cing	-1345
▁individual	-1346
orn	-1347
uty	-1348
▁upon	-1349
▁major	-1350
▁tax	-1351
▁sw	-1352
ancial	-1353
▁vill	-1354
▁Islam	-1355
▁charact	-1356
▁respons	-1357
ently	-1358
ma	-1359
▁build	-1360
▁political	-1361
▁Constitution	-1362
otion	-1363
▁chang	-1364
aim	-1365
▁belie	-1366
cl	-1367
sel	-1368
▁Parliament	-1369
▁far	-1370
▁Pl	-1371
▁New	-1372
▁society	-1373
idence	-1374
agement	-1375
▁tot	-1376
▁second	-1377
▁poet	-1378
soci	-1379
▁women	-1380
▁Section	-1381
▁net	-1382
▁liter	-1383
▁success	-1384
ule	-1385
vir	-1386
eal	-1387
▁value	-1388
ield	-1389
▁areas	-1390
▁provide	-1391
▁based	-1392
▁institut	-1393
▁express	-1394
irit	-1395
▁ask	-1396
▁Reg	-1397
▁Delhi	-1398
▁vi	-1399
alk	-1400
▁const	-1401
▁capital	-1402
▁knowledge	-1403
▁plan	-1404
ling	-1405
ali	-1406
▁men	-1407
▁food	-1408
▁house	-1409
▁supp	-1410
▁repres	-1411
ending	-1412
pose	-1413
adesh	-1414
▁God	-1415
▁Committee	-1416
ID	-1417
eric	-1418
▁expl	-1419
▁rele	-1420
▁keep	-1421
lection	-1422
ticle	-1423
▁best	-1424
ilities	-1425
icer	-1426
▁nature	-1427
▁provided	-1428
▁circ	-1429
cies	-1430
osed	-1431
ify	-1432
ilit	-1433
urity	-1434
ricult	-1435
▁further	-1436
▁Bhavan	-1437
▁eng	-1438
▁change	-1439
ples	-1440
▁left	-1441
▁making	-1442
▁concern	-1443
iqu	-1444
▁words	-1445
▁British	-1446
▁_	-1447
▁init	-1448
icult	-1449
ems	-1450
▁necessary	-1451
ourse	-1452
▁benef	-1453
▁away	-1454
▁few	-1455
ogn	-1456
aining	-1457
▁That	-1458
▁held	-1459
▁control	-1460
chie	-1461
▁Gandhi	-1462
▁Dr	-1463
▁Rasht	-1464
▁Pol	-1465
▁One	-1466
▁reason	-1467
▁date	-1468
▁window	-1469
ittle	-1470
hys	-1471
▁market	-1472
▁English	-1473
▁run	-1474
▁always	-1475
▁hold	-1476
▁kind	-1477
ences	-1478
▁Bank	-1479
▁ann	-1480
▁having	-1481
▁mill	-1482
▁question	-1483
▁whether	-1484
ins	-1485
raph	-1486
▁following	-1487
▁mus	-1488
▁still	-1489
▁En	-1490
epend	-1491
▁heart	-1492
▁Council	-1493
iver	-1494
▁sol	-1495
iding	-1496
▁five	-1497
vironment	-1498
▁thought	-1499
▁school	-1500
▁el	-1501
▁full	-1502
▁proceed	-1503
▁Beng	-1504
▁spirit	-1505
▁x	-1506
▁age	-1507
▁feel	-1508
ope	-1509
▁Sub	-1510
ior	-1511
▁mater	-1512
▁Hindi	-1513
▁Hindu	-1514
▁required	-1515
idd	-1516
rapati	-1517
▁foreign	-1518
ories	-1519
▁Acc	-1520
emb	-1521
▁things	-1522
▁growth	-1523
mes	-1524
▁Law	-1525
▁sl	-1526
▁young	-1527
▁address	-1528
▁sector	-1529
▁application	-1530
oura	-1531
▁deal	-1532
thing	-1533
▁light	-1534
oh	-1535
ara	-1536
iction	-1537
▁Rashtrapati	-1538
▁impro	-1539
▁little	-1540
▁Cong	-1541
▁possible	-1542
▁mean	-1543
▁money	-1544
▁sat	-1545
ards	-1546
ured	-1547
▁data	-1548
▁above	-1549
ats	-1550
▁himself	-1551
▁Ab	-1552
▁bir	-1553
iving	-1554
▁return	-1555
rent	-1556
▁perform	-1557
▁sever	-1558
▁meas	-1559
▁later	-1560
▁total	-1561
ience	-1562
▁achie	-1563
ees	-1564
▁suff	-1565
▁gra	-1566
▁obs	-1567
▁itself	-1568
▁After	-1569
▁contrib	-1570
▁Americ	-1571
pecial	-1572
ENT	-1573
▁purpose	-1574
ises	-1575
uation	-1576
cribed	-1577
▁never	-1578
▁report	-1579
ication	-1580
▁art	-1581
ember	-1582
▁others	-1583
▁exam	-1584
▁clause	-1585
▁diff	-1586
▁eas	-1587
AL	-1588
▁Prov	-1589
▁function	-1590
sh	-1591
bit	-1592
▁Pre	-1593
▁clear	-1594
ration	-1595
ys	-1596
come	-1597
ours	-1598
▁towards	-1599
io	-1600
▁bre	-1601
▁Department	-1602
pportun	-1603
▁industry	-1604
ources	-1605
▁Serv	-1606
▁love	-1607
orth	-1608
▁plac	-1609
cious	-1610
▁ii	-1611
istry	-1612
1;	-1613
▁&#91;	-1614
▁short	-1615
▁record	-1616
ibility	-1617
▁Union	-1618
▁local	-1619
▁position	-1620
▁ord	-1621
▁Congress	-1622
used	-1623
▁several	-1624
▁mult	-1625
▁ple	-1626
HE	-1627
▁persons	-1628
akh	-1629
▁rese	-1630
▁relations	-1631
▁princi	-1632
▁turn	-1633
▁dise	-1634
▁propos	-1635
asion	-1636
▁opportun	-1637
▁since	-1638
akes	-1639
ively	-1640
▁civil	-1641
▁material	-1642
▁tru	-1643
▁character	-1644
uro	-1645
▁RRB	-1646
osp	-1647
▁stat	-1648
pur	-1649
redit	-1650
▁around	-1651
▁represent	-1652
▁es	-1653
ready	-1654
▁six	-1655
▁ident	-1656
▁Ne	-1657
▁financial	-1658
▁near	-1659
▁air	-1660
▁Develop	-1661
3;	-1662
▁&#93;	-1663
▁University	-1664
▁understand	-1665
▁er	-1666
ocu	-1667
▁thir	-1668
▁mess	-1669
▁priv	-1670
▁post	-1671
ann	-1672
▁maint	-1673
▁referred	-1674
▁complete	-1675
▁ir	-1676
▁hard	-1677
▁either	-1678
▁took	-1679
▁administr	-1680
ita	-1681
▁production	-1682
AN	-1683
▁Gener	-1684
▁appoint	-1685
etition	-1686
ony	-1687
▁Z	-1688
▁streng	-1689
▁don	-1690
lu	-1691
▁already	-1692
▁Minister	-1693
imal	-1694
▁office	-1695
ample	-1696
▁difficult	-1697
itional	-1698
▁decl	-1699
▁therefore	-1700
▁invol	-1701
▁region	-1702
reedom	-1703
▁course	-1704
ethod	-1705
▁Le	-1706
▁nat	-1707
▁pat	-1708
▁type	-1709
▁treat	-1710
ustom	-1711
▁plant	-1712
▁progress	-1713
of	-1714
anch	-1715
▁fail	-1716
selves	-1717
▁ens	-1718
ggest	-1719
umb	-1720
▁sing	-1721
arat	-1722
▁fa	-1723
▁sum	-1724
▁dom	-1725
▁Col	-1726
ource	-1727
alc	-1728
ta	-1729
▁LRB	-1730
▁home	-1731
erc	-1732
▁quality	-1733
▁With	-1734
▁Em	-1735
▁Pradesh	-1736
ably	-1737
▁higher	-1738
▁rate	-1739
▁enc	-1740
▁able	-1741
rought	-1742
▁fut	-1743
▁Just	-1744
els	-1745
▁inn	-1746
▁however	-1747
▁recogn	-1748
▁ver	-1749
▁ur	-1750
▁Me	-1751
▁claim	-1752
▁ut	-1753
bsite	-1754
▁Chand	-1755
amb	-1756
jee	-1757
▁along	-1758
▁might	-1759
rah	-1760
▁flow	-1761
▁phys	-1762
▁activities	-1763
▁ey	-1764
▁better	-1765
▁bring	-1766
▁ground	-1767
▁lab	-1768
rim	-1769
▁property	-1770
▁caus	-1771
IN	-1772
▁suggest	-1773
▁However	-1774
▁recomm	-1775
ger	-1776
udd	-1777
ental	-1778
▁agree	-1779
▁demand	-1780
▁international	-1781
empt	-1782
ilar	-1783
▁received	-1784
most	-1785
▁side	-1786
▁Su	-1787
▁method	-1788
arent	-1789
▁seen	-1790
▁equal	-1791
▁bo	-1792
urs	-1793
▁next	-1794
▁Sp	-1795
▁force	-1796
▁research	-1797
▁Comp	-1798
▁abs	-1799
ani	-1800
▁Chi	-1801
atory	-1802
rodu	-1803
▁general	-1804
▁Sw	-1805
▁pen	-1806
rish	-1807
▁Mad	-1808
▁cause	-1809
▁ess	-1810
▁begin	-1811
▁Development	-1812
▁Some	-1813
ude	-1814
▁authority	-1815
imum	-1816
▁conv	-1817
▁Be	-1818
▁went	-1819
▁THE	-1820
▁occasion	-1821
▁nation	-1822
abha	-1823
gether	-1824
▁appear	-1825
▁together	-1826
itiz	-1827
▁House	-1828
▁strong	-1829
▁Part	-1830
▁discuss	-1831
▁rights	-1832
▁mor	-1833
▁got	-1834
▁institutions	-1835
▁deep	-1836
▁redu	-1837
▁basis	-1838
▁access	-1839
ills	-1840
umar	-1841
acity	-1842
▁Muk	-1843
▁aut	-1844
▁file	-1845
ving	-1846
▁cell	-1847
▁started	-1848
▁history	-1849
▁district	-1850
aring	-1851
▁test	-1852
ension	-1853
stitute	-1854
▁future	-1855
▁became	-1856
ened	-1857
ruction	-1858
▁proced	-1859
▁website	-1860
▁Fin	-1861
▁Sy	-1862
inary	-1863
▁associ	-1864
▁implement	-1865
ti	-1866
▁freedom	-1867
▁problems	-1868
▁ill	-1869
omes	-1870
▁thing	-1871
▁big	-1872
▁docu	-1873
▁though	-1874
▁ten	-1875
▁goods	-1876
▁working	-1877
▁ele	-1878
▁party	-1879
▁computer	-1880
OR	-1881
▁conduct	-1882
▁ce	-1883
▁example	-1884
▁technology	-1885
ji	-1886
▁super	-1887
▁related	-1888
aster	-1889
aper	-1890
ginal	-1891
medi	-1892
cent	-1893
▁Cor	-1894
▁initi	-1895
▁matters	-1896
▁integ	-1897
▁Cont	-1898
▁dest	-1899
▁environment	-1900
▁often	-1901
▁written	-1902
▁viol	-1903
▁step	-1904
ached	-1905
▁z	-1906
▁determ	-1907
▁Dis	-1908
itation	-1909
side	-1910
▁agricult	-1911
istic	-1912
▁General	-1913
ME	-1914
▁word	-1915
▁unt	-1916
▁live	-1917
▁di	-1918
▁gen	-1919
▁key	-1920
▁once	-1921
une	-1922
▁months	-1923
▁Im	-1924
▁modern	-1925
ercial	-1926
itive	-1927
▁entire	-1928
▁farm	-1929
ians	-1930
ina	-1931
mitted	-1932
▁Bengal	-1933
rael	-1934
▁Board	-1935
▁Leg	-1936
▁scheme	-1937
▁movement	-1938
ched	-1939
riage	-1940
▁sym	-1941
ush	-1942
aries	-1943
▁Dist	-1944
▁crit	-1945
▁role	-1946
▁Chief	-1947
▁try	-1948
▁terms	-1949
▁sal	-1950
rab	-1951
▁visit	-1952
▁design	-1953
▁pub	-1954
acy	-1955
▁security	-1956
▁conditions	-1957
▁considered	-1958
▁Ministry	-1959
▁Af	-1960
▁Israel	-1961
▁relating	-1962
▁established	-1963
▁brought	-1964
▁pot	-1965
▁independ	-1966
▁mis	-1967
▁needs	-1968
▁pow	-1969
mber	-1970
▁II	-1971
aged	-1972
lected	-1973
▁Co	-1974
▁imm	-1975
aps	-1976
urance	-1977
▁previous	-1978
ring	-1979
▁observ	-1980
▁leaders	-1981
▁opp	-1982
▁energ	-1983
▁separ	-1984
▁deb	-1985
ev	-1986
▁fel	-1987
▁top	-1988
▁paid	-1989
hile	-1990
▁students	-1991
ourn	-1992
rast	-1993
AT	-1994
▁vol	-1995
▁field	-1996
▁detail	-1997
▁manner	-1998
▁link	-1999
istan	-2000
▁Direct	-2001
▁norm	-2002
▁My	-2003
▁text	-2004
▁earli	-2005
▁Govern	-2006
▁Courts	-2007
oon	-2008
ane	-2009
▁close	-2010
erve	-2011
▁cro	-2012
▁line	-2013
▁mother	-2014
leg	-2015
▁blood	-2016
sequ	-2017
▁lib	-2018
▁Sche	-2019
▁Euro	-2020
isd	-2021
▁PRES	-2022
▁true	-2023
ung	-2024
▁creat	-2025
▁member	-2026
▁saf	-2027
▁sense	-2028
rated	-2029
fact	-2030
IC	-2031
▁past	-2032
▁acqu	-2033
▁Cl	-2034
▁religious	-2035
▁Kh	-2036
▁official	-2037
ms	-2038
▁require	-2039
unt	-2040
hold	-2041
omb	-2042
▁mov	-2043
▁press	-2044
oid	-2045
atives	-2046
▁according	-2047
▁terror	-2048
ait	-2049
▁sett	-2050
obal	-2051
▁living	-2052
▁village	-2053
ama	-2054
▁citiz	-2055
▁ded	-2056
▁share	-2057
ier	-2058
▁Ph	-2059
▁Europe	-2060
▁ful	-2061
▁dou	-2062
cell	-2063
ison	-2064
▁story	-2065
▁decision	-2066
00	-2067
▁Not	-2068
itor	-2069
▁subst	-2070
ott	-2071
▁community	-2072
▁Div	-2073
ief	-2074
▁custom	-2075
▁face	-2076
atch	-2077
poses	-2078
▁million	-2079
▁Now	-2080
acher	-2081
▁legal	-2082
▁Mukher	-2083
▁mach	-2084
▁consider	-2085
▁except	-2086
▁network	-2087
▁natural	-2088
val	-2089
▁learn	-2090
igation	-2091
▁assist	-2092
ends	-2093
▁Mar	-2094
▁industrial	-2095
▁rule	-2096
▁adop	-2097
ological	-2098
▁vari	-2099
ek	-2100
▁cover	-2101
aya	-2102
gr	-2103
change	-2104
▁particip	-2105
ape	-2106
▁undert	-2107
▁Mukherjee	-2108
action	-2109
▁parts	-2110
▁concerned	-2111
▁squ	-2112
cri	-2113
▁personal	-2114
▁justice	-2115
▁cop	-2116
▁trade	-2117
▁energy	-2118
▁passed	-2119
▁purposes	-2120
▁exec	-2121
ches	-2122
▁scient	-2123
agar	-2124
▁grant	-2125
▁opens	-2126
▁using	-2127
▁specified	-2128
sw	-2129
tt	-2130
▁Muslims	-2131
▁study	-2132
▁training	-2133
imate	-2134
▁taking	-2135
▁loss	-2136
itness	-2137
▁United	-2138
▁credit	-2139
▁management	-2140
amm	-2141
krit	-2142
▁issue	-2143
▁fall	-2144
▁democ	-2145
▁rules	-2146
▁current	-2147
▁pri	-2148
IDENT	-2149
▁father	-2150
▁provides	-2151
hing	-2152
usion	-2153
ames	-2154
airs	-2155
▁bea	-2156
mission	-2157
ship	-2158
▁forward	-2159
vant	-2160
▁Public	-2161
ening	-2162
▁legisl	-2163
▁institution	-2164
▁early	-2165
▁peace	-2166
ners	-2167
illed	-2168
ler	-2169
▁*	-2170
▁transfer	-2171
irl	-2172
▁PRESIDENT	-2173
ront	-2174
▁Justice	-2175
ots	-2176
▁sou	-2177
▁Go	-2178
▁century	-2179
▁External	-2180
▁asked	-2181
▁Techn	-2182
▁greater	-2183
▁neg	-2184
adi	-2185
▁carry	-2186
▁mag	-2187
▁yet	-2188
ead	-2189
▁Adv	-2190
▁religion	-2191
▁Pran	-2192
▁population	-2193
▁developed	-2194
▁bra	-2195
uted	-2196
▁states	-2197
▁themselves	-2198
line	-2199
▁Such	-2200
▁compl	-2201
▁why	-2202
▁message	-2203
▁disease	-2204
▁Sabha	-2205
aun	-2206
TION	-2207
▁apply	-2208
vey	-2209
▁influ	-2210
▁trib	-2211
▁condition	-2212
▁cast	-2213
▁establish	-2214
▁Ple	-2215
▁port	-2216
▁Do	-2217
ropri	-2218
▁outside	-2219
▁experience	-2220
abad	-2221
▁appeal	-2222
rest	-2223
▁allowed	-2224
▁powers	-2225
▁building	-2226
▁charge	-2227
ask	-2228
ilt	-2229
ival	-2230
▁really	-2231
▁red	-2232
▁introdu	-2233
▁provision	-2234
▁pun	-2235
▁son	-2236
▁assessment	-2237
▁jur	-2238
▁consum	-2239
▁include	-2240
▁SC	-2241
vi	-2242
▁hy	-2243
▁Pun	-2244
ex	-2245
mit	-2246
▁Rec	-2247
▁tell	-2248
▁parties	-2249
▁culture	-2250
▁mass	-2251
▁immedi	-2252
asing	-2253
▁Trib	-2254
▁chall	-2255
▁soon	-2256
ada	-2257
▁US	-2258
emed	-2259
fully	-2260
▁literature	-2261
ilk	-2262
▁books	-2263
▁programme	-2264
inion	-2265
▁Int	-2266
▁meeting	-2267
▁remov	-2268
▁Pranab	-2269
▁stage	-2270
▁Jan	-2271
▁Sri	-2272
▁ll	-2273
ored	-2274
ects	-2275
▁arr	-2276
▁earlier	-2277
▁mention	-2278
▁anything	-2279
▁city	-2280
go	-2281
▁gave	-2282
▁Republic	-2283
▁Pal	-2284
▁original	-2285
▁Where	-2286
▁bal	-2287
▁lay	-2288
orrow	-2289
▁capacity	-2290
eral	-2291
▁Let	-2292
▁Ins	-2293
▁Information	-2294
cient	-2295
▁Brah	-2296
▁exc	-2297
▁prep	-2298
ulated	-2299
▁aim	-2300
IS	-2301
▁writing	-2302
▁essential	-2303
▁half	-2304
iddle	-2305
▁instru	-2306
▁structure	-2307
eed	-2308
▁low	-2309
▁boy	-2310
bar	-2311
▁Med	-2312
▁Can	-2313
itable	-2314
▁signific	-2315
▁actually	-2316
ixed	-2317
lo	-2318
jab	-2319
▁changes	-2320
icient	-2321
chan	-2322
▁whose	-2323
▁exerc	-2324
▁assessee	-2325
▁resources	-2326
▁wide	-2327
▁Our	-2328
ousand	-2329
IA	-2330
▁aud	-2331
▁almost	-2332
IT	-2333
ift	-2334
▁create	-2335
va	-2336
▁attack	-2337
▁duty	-2338
anskrit	-2339
▁physical	-2340
▁Judge	-2341
▁payment	-2342
▁lat	-2343
▁soft	-2344
ned	-2345
eness	-2346
war	-2347
▁Bill	-2348
▁medical	-2349
▁Rel	-2350
▁thus	-2351
ares	-2352
▁Bi	-2353
▁works	-2354
▁situation	-2355
▁talk	-2356
ctions	-2357
▁san	-2358
▁lear	-2359
▁bar	-2360
▁achieve	-2361
enty	-2362
▁West	-2363
icers	-2364
▁typ	-2365
▁Please	-2366
▁evidence	-2367
▁news	-2368
▁Report	-2369
▁decided	-2370
anda	-2371
oot	-2372
▁issues	-2373
▁police	-2374
▁similar	-2375
३०	-2376
▁Bar	-2377
anies	-2378
▁article	-2379
▁X	-2380
▁laws	-2381
aff	-2382
▁woman	-2383
pecially	-2384
▁products	-2385
duc	-2386
men	-2387
▁enter	-2388
▁satis	-2389
▁king	-2390
▁May	-2391
▁nothing	-2392
▁witness	-2393
12	-2394
4;	-2395
124;	-2396
▁&#124;	-2397
▁Cons	-2398
▁single	-2399
▁issued	-2400
▁fr	-2401
itude	-2402
oice	-2403
.0	-2404
▁least	-2405
▁IND	-2406
▁Mahar	-2407
▁transl	-2408
ones	-2409
▁lot	-2410
▁global	-2411
▁ensure	-2412
▁vers	-2413
▁earth	-2414
▁Even	-2415
▁innov	-2416
▁Wor	-2417
estern	-2418
▁efforts	-2419
tax	-2420
▁award	-2421
wise	-2422
ufact	-2423
gar	-2424
▁Officer	-2425
rote	-2426
▁dr	-2427
▁sure	-2428
▁indic	-2429
▁thousand	-2430
▁Apr	-2431
▁private	-2432
▁science	-2433
augh	-2434
osop	-2435
let	-2436
▁treatment	-2437
▁pati	-2438
▁prim	-2439
▁letter	-2440
▁conscious	-2441
▁jo	-2442
▁fig	-2443
▁answ	-2444
▁till	-2445
▁Corpor	-2446
be	-2447
▁Indust	-2448
▁specific	-2449
undred	-2450
▁Sanskrit	-2451
▁job	-2452
▁Service	-2453
adem	-2454
nam	-2455
▁ever	-2456
▁subs	-2457
▁makes	-2458
▁profession	-2459
▁Commissioner	-2460
embly	-2461
▁improve	-2462
pal	-2463
ators	-2464
▁created	-2465
ategory	-2466
▁While	-2467
▁wr	-2468
▁Mal	-2469
overed	-2470
▁enough	-2471
▁April	-2472
▁Gur	-2473
▁inj	-2474
▁operation	-2475
▁rural	-2476
▁Legisl	-2477
▁approach	-2478
▁Pe	-2479
▁kept	-2480
▁especially	-2481
ique	-2482
▁teacher	-2483
▁obt	-2484
▁told	-2485
▁proceedings	-2486
▁District	-2487
▁opportunity	-2488
▁birth	-2489
▁univers	-2490
▁continue	-2491
▁kn	-2492
uary	-2493
EC	-2494
ilosop	-2495
▁Kumar	-2496
▁wrote	-2497
▁tree	-2498
▁leave	-2499
▁hon	-2500
for	-2501
▁repl	-2502
▁serious	-2503
ams	-2504
▁crim	-2505
▁doing	-2506
bed	-2507
▁judicial	-2508
▁increase	-2509
▁South	-2510
▁govern	-2511
▁fav	-2512
▁behalf	-2513
▁procedure	-2514
▁investment	-2515
ores	-2516
▁published	-2517
▁insp	-2518
itting	-2519
▁Krish	-2520
estic	-2521
▁Add	-2522
▁depos	-2523
▁circum	-2524
▁notice	-2525
▁By	-2526
ires	-2527
▁path	-2528
▁temple	-2529
rect	-2530
▁sac	-2531
▁Lord	-2532
▁road	-2533
▁price	-2534
▁jurisd	-2535
▁petition	-2536
▁doub	-2537
▁bur	-2538
▁eight	-2539
roll	-2540
eb	-2541
▁meaning	-2542
ourage	-2543
▁hundred	-2544
▁belong	-2545
▁providing	-2546
▁effective	-2547
aves	-2548
▁Educ	-2549
hood	-2550
▁Pak	-2551
▁Author	-2552
▁night	-2553
▁appropri	-2554
▁spread	-2555
▁economy	-2556
▁lakh	-2557
▁poor	-2558
▁pros	-2559
▁vict	-2560
▁third	-2561
IR	-2562
▁den	-2563
▁contract	-2564
apter	-2565
▁Under	-2566
face	-2567
▁opinion	-2568
ili	-2569
▁carried	-2570
▁truth	-2571
▁compet	-2572
eech	-2573
▁Institute	-2574
my	-2575
▁Thus	-2576
▁seek	-2577
▁stru	-2578
▁vide	-2579
inate	-2580
gu	-2581
den	-2582
▁faith	-2583
▁Punjab	-2584
▁stop	-2585
▁born	-2586
▁popular	-2587
▁administration	-2588
ban	-2589
▁emerg	-2590
▁forms	-2591
sec	-2592
▁generally	-2593
encies	-2594
rist	-2595
▁Sur	-2596
▁harm	-2597
▁quite	-2598
iture	-2599
▁across	-2600
▁contact	-2601
▁Article	-2602
play	-2603
▁East	-2604
▁distrib	-2605
rastructure	-2606
uck	-2607
▁mere	-2608
▁Pat	-2609
▁manufact	-2610
▁List	-2611
▁idea	-2612
▁sens	-2613
▁Chair	-2614
▁Op	-2615
unal	-2616
▁anal	-2617
▁bill	-2618
▁collect	-2619
▁rul	-2620
▁International	-2621
▁coop	-2622
▁ris	-2623
▁prescribed	-2624
ender	-2625
utions	-2626
▁Income	-2627
▁March	-2628
aka	-2629
ava	-2630
▁Bl	-2631
▁Per	-2632
▁hands	-2633
▁accord	-2634
cle	-2635
▁Trans	-2636
▁percent	-2637
avi	-2638
mir	-2639
ump	-2640
▁reform	-2641
▁Ma	-2642
gest	-2643
▁stated	-2644
▁travel	-2645
joy	-2646
▁courts	-2647
▁source	-2648
endment	-2649
hib	-2650
rug	-2651
▁below	-2652
▁relevant	-2653
▁vir	-2654
ED	-2655
▁size	-2656
kar	-2657
ivity	-2658
la	-2659
▁Sar	-2660
▁During	-2661
▁Sm	-2662
▁draw	-2663
leb	-2664
lege	-2665
▁Your	-2666
▁places	-2667
▁cut	-2668
etimes	-2669
▁Bal	-2670
▁basic	-2671
▁practice	-2672
▁log	-2673
▁check	-2674
▁central	-2675
▁jurisdiction	-2676
arma	-2677
▁cal	-2678
earch	-2679
▁King	-2680
▁felt	-2681
▁tour	-2682
▁river	-2683
▁giving	-2684
▁Pur	-2685
AS	-2686
▁aspect	-2687
▁importance	-2688
ke	-2689
by	-2690
▁sound	-2691
▁dri	-2692
▁IN	-2693
▁crop	-2694
racy	-2695
▁girl	-2696
▁sun	-2697
▁facilities	-2698
▁parent	-2699
istration	-2700
gram	-2701
hest	-2702
▁foc	-2703
▁god	-2704
▁comb	-2705
band	-2706
▁journ	-2707
uly	-2708
▁plus	-2709
▁write	-2710
ulate	-2711
ying	-2712
right	-2713
▁Spe	-2714
▁tele	-2715
▁becomes	-2716
▁reach	-2717
utta	-2718
arily	-2719
iry	-2720
ouses	-2721
▁aware	-2722
ras	-2723
▁Arab	-2724
▁Sa	-2725
▁li	-2726
raft	-2727
▁event	-2728
▁commercial	-2729
▁bi	-2730
▁firm	-2731
▁coun	-2732
osition	-2733
▁measures	-2734
▁Day	-2735
▁note	-2736
▁accused	-2737
▁Calc	-2738
▁statement	-2739
▁laun	-2740
▁Governor	-2741
omp	-2742
▁According	-2743
ging	-2744
▁marriage	-2745
▁philosop	-2746
▁recommend	-2747
▁Qu	-2748
dom	-2749
▁potential	-2750
▁Afric	-2751
▁Mem	-2752
▁fast	-2753
▁criminal	-2754
▁agreement	-2755
▁dam	-2756
aker	-2757
▁Har	-2758
▁repe	-2759
▁oil	-2760
▁Ben	-2761
▁strength	-2762
▁Tra	-2763
▁happy	-2764
▁wife	-2765
▁satisf	-2766
▁circumst	-2767
▁comes	-2768
ificate	-2769
▁citizens	-2770
ously	-2771
▁regular	-2772
▁began	-2773
▁novel	-2774
▁spiritual	-2775
▁existing	-2776
adu	-2777
▁front	-2778
▁enjoy	-2779
rif	-2780
ume	-2781
▁hope	-2782
▁followed	-2783
▁Secret	-2784
ables	-2785
▁prevent	-2786
ami	-2787
▁Som	-2788
▁judge	-2789
▁Sch	-2790
hem	-2791
▁constitution	-2792
haps	-2793
▁exchange	-2794
gy	-2795
▁install	-2796
char	-2797
ights	-2798
▁room	-2799
▁Then	-2800
▁pers	-2801
▁–	-2802
▁benefit	-2803
▁Plan	-2804
▁camp	-2805
▁disp	-2806
▁groups	-2807
▁usually	-2808
▁mer	-2809
▁whom	-2810
▁brother	-2811
▁programmes	-2812
ancy	-2813
▁mot	-2814
part	-2815
▁Sat	-2816
▁mand	-2817
▁gives	-2818
▁bound	-2819
iles	-2820
▁punish	-2821
▁simple	-2822
▁anim	-2823
▁lower	-2824
▁trust	-2825
▁activity	-2826
▁NA	-2827
▁und	-2828
▁wrong	-2829
▁believe	-2830
▁responsible	-2831
▁wid	-2832
▁prior	-2833
▁Net	-2834
▁bit	-2835
▁milit	-2836
▁space	-2837
▁particularly	-2838
▁attempt	-2839
▁Technology	-2840
standing	-2841
▁existence	-2842
▁emp	-2843
▁until	-2844
▁film	-2845
▁appropriate	-2846
uls	-2847
▁concept	-2848
▁says	-2849
ox	-2850
equ	-2851
nces	-2852
▁Ak	-2853
▁deg	-2854
▁dire	-2855
▁offence	-2856
▁behind	-2857
▁increased	-2858
istered	-2859
▁unit	-2860
ingu	-2861
▁American	-2862
▁heav	-2863
▁lost	-2864
enth	-2865
▁doct	-2866
▁Every	-2867
▁mom	-2868
▁request	-2869
utes	-2870
▁sex	-2871
▁prop	-2872
▁Gang	-2873
▁rich	-2874
▁cultural	-2875
▁diss	-2876
▁soul	-2877
▁conver	-2878
▁Lok	-2879
▁mount	-2880
iet	-2881
▁Education	-2882
▁Calcutta	-2883
alty	-2884
▁song	-2885
body	-2886
▁beginning	-2887
▁stri	-2888
▁fair	-2889
▁consist	-2890
ole	-2891
amed	-2892
▁qual	-2893
▁poll	-2894
▁nor	-2895
▁wall	-2896
▁lives	-2897
▁INDIA	-2898
isters	-2899
ont	-2900
▁mut	-2901
▁forest	-2902
▁led	-2903
▁ep	-2904
▁der	-2905
▁bey	-2906
▁stay	-2907
▁final	-2908
▁search	-2909
reg	-2910
▁Mu	-2911
▁Civil	-2912
▁rather	-2913
▁Code	-2914
rid	-2915
sy	-2916
▁occur	-2917
▁limited	-2918
▁saw	-2919
▁Bomb	-2920
▁eyes	-2921
ault	-2922
▁win	-2923
utive	-2924
▁Pakistan	-2925
▁addition	-2926
▁relation	-2927
▁circumstances	-2928
▁TO	-2929
▁host	-2930
▁values	-2931
▁beyond	-2932
▁significant	-2933
▁schol	-2934
▁protection	-2935
▁crore	-2936
▁takes	-2937
▁histor	-2938
vest	-2939
▁continued	-2940
use	-2941
▁feed	-2942
▁projects	-2943
AY	-2944
▁World	-2945
▁systems	-2946
▁alone	-2947
▁ideas	-2948
hra	-2949
▁adj	-2950
▁pal	-2951
▁warm	-2952
▁employment	-2953
RI	-2954
▁Budd	-2955
▁industries	-2956
▁built	-2957
▁remain	-2958
▁accepted	-2959
iff	-2960
▁poetry	-2961
ospital	-2962
▁har	-2963
ris	-2964
ishes	-2965
ruit	-2966
though	-2967
▁appointed	-2968
▁expression	-2969
▁Bab	-2970
ober	-2971
ulations	-2972
▁learning	-2973
rick	-2974
▁unf	-2975
▁limit	-2976
anation	-2977
▁nar	-2978
atures	-2979
▁seven	-2980
ades	-2981
etic	-2982
uman	-2983
▁Kash	-2984
▁origin	-2985
▁infrastructure	-2986
▁respond	-2987
▁Prof	-2988
▁protect	-2989
▁dig	-2990
▁cross	-2991
enditure	-2992
▁responsibility	-2993
oor	-2994
abor	-2995
▁Prime	-2996
▁Christ	-2997
gn	-2998
▁banks	-2999
▁Tam	-3000
▁emb	-3001
ouch	-3002
▁trial	-3003
ograph	-3004
▁round	-3005
iful	-3006
▁prob	-3007
▁reference	-3008
▁IT	-3009
▁Des	-3010
elling	-3011
▁Any	-3012
▁From	-3013
▁arbit	-3014
▁strugg	-3015
▁Ved	-3016
▁Fore	-3017
▁Bombay	-3018
▁coming	-3019
▁Guj	-3020
▁getting	-3021
▁seed	-3022
▁mental	-3023
asons	-3024
▁officer	-3025
▁Director	-3026
omen	-3027
▁ways	-3028
▁direction	-3029
▁proposed	-3030
▁tri	-3031
vention	-3032
▁immediately	-3033
▁setting	-3034
▁$	-3035
▁assistance	-3036
rary	-3037
rs	-3038
ze	-3039
▁joint	-3040
▁sust	-3041
▁arrest	-3042
▁dre	-3043
▁includes	-3044
▁observed	-3045
▁sup	-3046
▁appre	-3047
▁plants	-3048
umbai	-3049
▁Centre	-3050
▁normal	-3051
NA	-3052
anced	-3053
▁loan	-3054
▁increasing	-3055
▁details	-3056
ini	-3057
▁Of	-3058
▁Fund	-3059
▁music	-3060
▁wanted	-3061
▁Many	-3062
elfare	-3063
▁broad	-3064
▁formed	-3065
▁Corporation	-3066
miss	-3067
▁functions	-3068
rant	-3069
▁mechan	-3070
▁Program	-3071
com	-3072
yle	-3073
▁appl	-3074
▁else	-3075
▁teach	-3076
▁Utt	-3077
▁mentioned	-3078
▁Expl	-3079
▁drug	-3080
▁cy	-3081
▁officers	-3082
▁territ	-3083
▁forces	-3084
ading	-3085
▁ru	-3086
ucle	-3087
▁aver	-3088
▁sn	-3089
▁Sim	-3090
usp	-3091
▁device	-3092
ikh	-3093
ellow	-3094
▁produce	-3095
▁status	-3096
ales	-3097
▁dedu	-3098
▁्	-3099
bol	-3100
▁Krishna	-3101
ley	-3102
▁lit	-3103
▁engine	-3104
▁consideration	-3105
▁opt	-3106
▁ste	-3107
iva	-3108
gment	-3109
▁purs	-3110
▁perf	-3111
▁attract	-3112
▁agricultural	-3113
hat	-3114
▁violence	-3115
▁Tax	-3116
▁strengt	-3117
▁transport	-3118
oke	-3119
▁January	-3120
ene	-3121
▁secret	-3122
▁document	-3123
▁sil	-3124
▁goes	-3125
ient	-3126
▁Pand	-3127
▁instrument	-3128
▁celeb	-3129
▁presented	-3130
▁ancient	-3131
asa	-3132
▁disci	-3133
▁fire	-3134
oted	-3135
▁North	-3136
▁scale	-3137
▁famous	-3138
▁Mag	-3139
▁America	-3140
▁connect	-3141
where	-3142
ellect	-3143
▁prepared	-3144
▁rad	-3145
▁speech	-3146
ograp	-3147
▁Sept	-3148
▁animals	-3149
raw	-3150
▁arch	-3151
hru	-3152
know	-3153
▁fem	-3154
▁copy	-3155
▁paper	-3156
▁hus	-3157
▁workers	-3158
reen	-3159
▁companies	-3160
▁Assembly	-3161
anj	-3162
▁relationship	-3163
osis	-3164
▁Rules	-3165
▁medic	-3166
▁Scheme	-3167
cer	-3168
▁Aug	-3169
▁refers	-3170
▁Kal	-3171
▁fight	-3172
ression	-3173
▁Fir	-3174
▁Lim	-3175
PC	-3176
anger	-3177
▁Shah	-3178
▁included	-3179
▁max	-3180
▁complaint	-3181
▁languages	-3182
▁minus	-3183
▁receive	-3184
rate	-3185
▁Red	-3186
▁fear	-3187
▁longer	-3188
▁af	-3189
▁added	-3190
▁partners	-3191
▁Hy	-3192
▁Bang	-3193
▁depend	-3194
icro	-3195
▁Sam	-3196
▁active	-3197
UR	-3198
▁continu	-3199
▁connection	-3200
▁Nar	-3201
▁week	-3202
▁polic	-3203
aughter	-3204
▁extent	-3205
▁otherwise	-3206
AC	-3207
▁correct	-3208
ton	-3209
icit	-3210
ayan	-3211
▁page	-3212
▁wish	-3213
▁Ac	-3214
▁imag	-3215
▁Bas	-3216
▁ign	-3217
inite	-3218
▁imper	-3219
▁memory	-3220
▁Oct	-3221
▁review	-3222
▁Kashmir	-3223
▁obl	-3224
hic	-3225
ented	-3226
IL	-3227
▁Tur	-3228
▁Chandra	-3229
▁user	-3230
▁attention	-3231
▁Account	-3232
▁accounts	-3233
▁fixed	-3234
▁Provided	-3235
▁involved	-3236
▁pain	-3237
▁coll	-3238
▁moment	-3239
road	-3240
▁base	-3241
esides	-3242
▁arrange	-3243
▁break	-3244
rep	-3245
▁tried	-3246
▁units	-3247
▁supply	-3248
enced	-3249
▁sold	-3250
▁tool	-3251
▁caused	-3252
head	-3253
▁sea	-3254
attle	-3255
ensive	-3256
▁directly	-3257
uge	-3258
▁dram	-3259
▁twenty	-3260
▁produced	-3261
ratic	-3262
has	-3263
ipur	-3264
▁black	-3265
▁consult	-3266
▁interests	-3267
▁task	-3268
▁bad	-3269
ticles	-3270
▁Tw	-3271
▁display	-3272
▁beaut	-3273
▁Mumbai	-3274
cember	-3275
▁Elect	-3276
stituted	-3277
▁expenditure	-3278
▁separate	-3279
▁Open	-3280
▁funds	-3281
▁Panch	-3282
▁friends	-3283
▁Chairman	-3284
ites	-3285
asure	-3286
▁ago	-3287
▁hor	-3288
▁pict	-3289
▁accordance	-3290
ext	-3291
▁types	-3292
▁labour	-3293
▁scientific	-3294
▁Authority	-3295
▁UN	-3296
▁tar	-3297
▁adopted	-3298
▁Char	-3299
▁Tamil	-3300
pond	-3301
▁June	-3302
add	-3303
▁milk	-3304
▁heard	-3305
▁speed	-3306
▁Police	-3307
▁inform	-3308
▁December	-3309
▁Division	-3310
▁documents	-3311
ora	-3312
▁appe	-3313
▁Special	-3314
▁democracy	-3315
▁doubt	-3316
▁contained	-3317
amental	-3318
que	-3319
itled	-3320
▁occup	-3321
▁Dev	-3322
▁standard	-3323
oly	-3324
▁vision	-3325
iny	-3326
hens	-3327
▁domestic	-3328
▁white	-3329
▁Judges	-3330
▁Well	-3331
▁intellect	-3332
▁video	-3333
▁unless	-3334
▁strateg	-3335
▁standards	-3336
▁Mon	-3337
▁Air	-3338
atever	-3339
▁Vs	-3340
▁ge	-3341
ashtra	-3342
▁pred	-3343
▁situ	-3344
▁exercise	-3345
vere	-3346
oting	-3347
▁Uttar	-3348
▁System	-3349
▁assets	-3350
▁highest	-3351
▁ren	-3352
▁employees	-3353
▁Er	-3354
▁Africa	-3355
▁husband	-3356
▁reached	-3357
▁questions	-3358
▁Other	-3359
▁software	-3360
▁ant	-3361
▁clean	-3362
abled	-3363
▁complex	-3364
▁revolution	-3365
▁ton	-3366
▁September	-3367
▁contribution	-3368
▁fre	-3369
▁pie	-3370
to	-3371
▁laid	-3372
▁stor	-3373
▁north	-3374
▁Tribunal	-3375
▁August	-3376
▁Research	-3377
osing	-3378
▁town	-3379
ternet	-3380
▁Nehru	-3381
▁advance	-3382
▁tur	-3383
▁summ	-3384
▁image	-3385
▁likely	-3386
▁print	-3387
▁Asia	-3388
▁substant	-3389
▁Up	-3390
ellig	-3391
▁offer	-3392
▁October	-3393
▁Dh	-3394
▁beautiful	-3395
▁steps	-3396
▁easy	-3397
▁effort	-3398
▁pack	-3399
▁challeng	-3400
▁Management	-3401
phas	-3402
▁Ker	-3403
▁influence	-3404
CT	-3405
▁dy	-3406
ager	-3407
▁numbers	-3408
▁Ann	-3409
▁generation	-3410
oll	-3411
▁context	-3412
▁School	-3413
▁distin	-3414
▁First	-3415
▁purch	-3416
▁Indians	-3417
▁insurance	-3418
▁performance	-3419
▁multip	-3420
ids	-3421
▁reasons	-3422
▁species	-3423
▁Ra	-3424
unic	-3425
ength	-3426
▁pattern	-3427
▁Its	-3428
▁agg	-3429
▁Prot	-3430
▁hours	-3431
▁assign	-3432
▁Category	-3433
▁Sah	-3434
▁technical	-3435
cience	-3436
▁leading	-3437
▁furn	-3438
▁bod	-3439
▁export	-3440
▁fold	-3441
▁risk	-3442
▁swe	-3443
▁Person	-3444
▁weak	-3445
▁costs	-3446
▁placed	-3447
▁recent	-3448
cription	-3449
▁Western	-3450
▁south	-3451
izing	-3452
▁largest	-3453
▁middle	-3454
▁majority	-3455
▁Mo	-3456
ressed	-3457
uration	-3458
atha	-3459
ishn	-3460
▁Are	-3461
▁Services	-3462
▁organisation	-3463
▁unc	-3464
▁minor	-3465
▁orders	-3466
▁connected	-3467
adh	-3468
▁sometimes	-3469
▁results	-3470
▁Palest	-3471
▁cells	-3472
▁military	-3473
▁Bhag	-3474
▁exceed	-3475
▁growing	-3476
▁policies	-3477
▁opportunities	-3478
resh	-3479
▁Gh	-3480
▁frame	-3481
▁util	-3482
inated	-3483
▁range	-3484
▁described	-3485
▁tradition	-3486
ground	-3487
▁answer	-3488
▁struggle	-3489
asth	-3490
▁Val	-3491
▁instead	-3492
▁implementation	-3493
▁charges	-3494
▁independence	-3495
▁mob	-3496
onst	-3497
▁Def	-3498
▁academ	-3499
▁threat	-3500
▁educational	-3501
▁fully	-3502
▁quick	-3503
ional	-3504
gen	-3505
▁rail	-3506
▁consciousness	-3507
▁conflic	-3508
olute	-3509
▁mail	-3510
▁consequ	-3511
ipt	-3512
rig	-3513
▁patient	-3514
▁model	-3515
▁affected	-3516
irm	-3517
▁dark	-3518
▁mode	-3519
▁balance	-3520
OS	-3521
idy	-3522
▁July	-3523
▁deemed	-3524
▁former	-3525
▁Ah	-3526
▁Ob	-3527
▁seems	-3528
▁Hindus	-3529
▁temper	-3530
uled	-3531
▁focus	-3532
▁egg	-3533
quiry	-3534
▁green	-3535
▁victim	-3536
▁Explanation	-3537
oo	-3538
ailed	-3539
▁nucle	-3540
▁Project	-3541
▁ones	-3542
▁principle	-3543
aught	-3544
▁quant	-3545
ysis	-3546
▁fort	-3547
▁Company	-3548
▁media	-3549
EL	-3550
umn	-3551
ateral	-3552
rown	-3553
▁Roy	-3554
▁fine	-3555
▁measure	-3556
▁regarding	-3557
▁registered	-3558
▁Ur	-3559
iment	-3560
ensation	-3561
pped	-3562
▁understanding	-3563
▁War	-3564
▁vac	-3565
▁Nove	-3566
▁stra	-3567
▁China	-3568
▁Chapter	-3569
uff	-3570
▁team	-3571
▁gri	-3572
▁People	-3573
▁inside	-3574
▁average	-3575
▁payable	-3576
▁hab	-3577
▁gold	-3578
▁corpor	-3579
▁independent	-3580
▁declared	-3581
▁selected	-3582
▁looking	-3583
asc	-3584
ields	-3585
▁asset	-3586
▁command	-3587
▁refer	-3588
▁Islamic	-3589
▁facilit	-3590
ja	-3591
▁Tag	-3592
▁pan	-3593
▁perhaps	-3594
▁farmers	-3595
▁November	-3596
▁authorities	-3597
RA	-3598
▁prem	-3599
▁extra	-3600
with	-3601
▁Judicial	-3602
view	-3603
verse	-3604
▁guid	-3605
porary	-3606
▁animal	-3607
▁cooperation	-3608
▁traditional	-3609
overy	-3610
▁Maharashtra	-3611
▁agriculture	-3612
▁Lt	-3613
▁Child	-3614
▁iii	-3615
enior	-3616
ula	-3617
▁Gandhiji	-3618
▁associated	-3619
▁Inf	-3620
inery	-3621
dule	-3622
▁nom	-3623
oga	-3624
▁views	-3625
▁ON	-3626
leep	-3627
▁Second	-3628
▁leader	-3629
venue	-3630
▁rap	-3631
▁Here	-3632
iciency	-3633
▁sections	-3634
▁dead	-3635
▁Ge	-3636
▁Ter	-3637
▁adequ	-3638
▁emphas	-3639
▁presence	-3640
▁certificate	-3641
▁More	-3642
▁multi	-3643
▁advice	-3644
▁lack	-3645
▁useful	-3646
▁youth	-3647
▁Administr	-3648
oms	-3649
▁Therefore	-3650
▁uns	-3651
order	-3652
▁Soci	-3653
aily	-3654
▁reve	-3655
ography	-3656
▁Policy	-3657
▁length	-3658
▁creation	-3659
▁extended	-3660
itle	-3661
▁AND	-3662
▁style	-3663
▁terrorism	-3664
▁Set	-3665
▁advant	-3666
▁Associ	-3667
▁located	-3668
▁speak	-3669
pir	-3670
asad	-3671
▁Cap	-3672
▁eye	-3673
▁autom	-3674
▁needed	-3675
uties	-3676
▁Organ	-3677
osh	-3678
▁mal	-3679
arant	-3680
▁rout	-3681
▁larger	-3682
▁sentence	-3683
▁additional	-3684
▁fra	-3685
▁divine	-3686
▁Aut	-3687
▁Mod	-3688
ocation	-3689
illing	-3690
▁benefits	-3691
▁hospital	-3692
▁centre	-3693
▁fulf	-3694
▁College	-3695
▁Inter	-3696
▁Feb	-3697
▁Rem	-3698
▁symbol	-3699
▁failed	-3700
▁Di	-3701
▁committed	-3702
aded	-3703
▁extreme	-3704
▁developing	-3705
▁Moh	-3706
▁hot	-3707
▁Princi	-3708
▁principles	-3709
ga	-3710
▁won	-3711
▁introduced	-3712
aji	-3713
▁schemes	-3714
▁shown	-3715
▁difference	-3716
▁IS	-3717
▁ball	-3718
▁drink	-3719
▁perman	-3720
ervation	-3721
▁calc	-3722
overty	-3723
pta	-3724
▁expressed	-3725
nes	-3726
▁Most	-3727
▁fest	-3728
▁stories	-3729
▁registration	-3730
▁content	-3731
▁Excell	-3732
ps	-3733
▁enact	-3734
▁Ro	-3735
▁Pra	-3736
▁chem	-3737
▁promote	-3738
▁namely	-3739
▁Conference	-3740
erative	-3741
▁announ	-3742
▁wealth	-3743
▁objective	-3744
▁successful	-3745
icate	-3746
▁interp	-3747
▁thinking	-3748
iciary	-3749
▁CO	-3750
apers	-3751
eties	-3752
▁everything	-3753
▁Agricult	-3754
▁cash	-3755
aur	-3756
ops	-3757
aging	-3758
oured	-3759
▁levels	-3760
▁England	-3761
▁someone	-3762
HA	-3763
itis	-3764
▁rise	-3765
▁chann	-3766
pper	-3767
▁covered	-3768
▁Us	-3769
▁extend	-3770
▁Fl	-3771
▁fif	-3772
▁item	-3773
▁pric	-3774
▁penalty	-3775
▁Secretary	-3776
▁examination	-3777
tion	-3778
▁pet	-3779
ially	-3780
vious	-3781
▁danger	-3782
▁Finance	-3783
▁operations	-3784
▁Germ	-3785
▁favour	-3786
▁played	-3787
▁appreci	-3788
▁processing	-3789
▁names	-3790
▁poems	-3791
▁shows	-3792
▁villages	-3793
force	-3794
heduled	-3795
▁contains	-3796
hab	-3797
icated	-3798
▁Limited	-3799
▁commit	-3800
oti	-3801
▁soil	-3802
▁graph	-3803
ows	-3804
ague	-3805
▁virt	-3806
ube	-3807
▁Whe	-3808
oud	-3809
▁wel	-3810
ifying	-3811
▁construction	-3812
hya	-3813
▁AT	-3814
▁Iran	-3815
▁lines	-3816
▁tal	-3817
▁sale	-3818
▁ideal	-3819
usive	-3820
▁phot	-3821
▁minimum	-3822
▁resident	-3823
▁Bec	-3824
▁machine	-3825
▁storage	-3826
▁collection	-3827
▁Mark	-3828
▁Kerala	-3829
▁merely	-3830
▁department	-3831
rene	-3832
▁sud	-3833
aches	-3834
▁Health	-3835
ahar	-3836
aksh	-3837
▁walk	-3838
▁friendly	-3839
olid	-3840
▁San	-3841
▁lic	-3842
▁constant	-3843
▁Post	-3844
▁judges	-3845
▁running	-3846
▁temples	-3847
▁bed	-3848
itch	-3849
ruary	-3850
▁changed	-3851
▁publication	-3852
▁skin	-3853
▁variety	-3854
▁entitled	-3855
▁weight	-3856
ript	-3857
CC	-3858
cribe	-3859
▁grand	-3860
abh	-3861
▁pray	-3862
▁surface	-3863
ronic	-3864
▁worth	-3865
▁dispos	-3866
▁easily	-3867
▁unique	-3868
omic	-3869
▁ship	-3870
▁parents	-3871
ero	-3872
▁sav	-3873
▁vital	-3874
▁contem	-3875
▁raised	-3876
▁files	-3877
▁remark	-3878
▁worship	-3879
▁cat	-3880
▁Inst	-3881
▁Ltd	-3882
▁impact	-3883
▁prosper	-3884
▁code	-3885
▁primary	-3886
lands	-3887
▁site	-3888
ertain	-3889
▁Andhra	-3890
▁external	-3891
ighb	-3892
enses	-3893
▁morning	-3894
▁February	-3895
word	-3896
▁cand	-3897
iverse	-3898
▁Tagore	-3899
▁desire	-3900
▁engaged	-3901
▁relief	-3902
▁bow	-3903
▁Work	-3904
▁chief	-3905
▁square	-3906
light	-3907
▁gets	-3908
▁defined	-3909
▁session	-3910
▁maximum	-3911
▁board	-3912
▁unity	-3913
lick	-3914
▁expected	-3915
▁female	-3916
▁looked	-3917
omy	-3918
rows	-3919
▁Nep	-3920
▁bab	-3921
▁remains	-3922
abilities	-3923
▁resolution	-3924
▁vehic	-3925
▁withd	-3926
▁European	-3927
▁scholars	-3928
▁greet	-3929
▁Sir	-3930
ankar	-3931
yan	-3932
pees	-3933
▁Turk	-3934
▁Their	-3935
▁critic	-3936
▁duties	-3937
we	-3938
aled	-3939
▁pra	-3940
▁Khan	-3941
▁filed	-3942
▁wait	-3943
▁equip	-3944
▁element	-3945
▁elements	-3946
▁Why	-3947
▁Since	-3948
▁Stand	-3949
▁Gujarat	-3950
BI	-3951
aken	-3952
inet	-3953
▁Karn	-3954
▁shares	-3955
▁Office	-3956
ilateral	-3957
▁philosophy	-3958
▁Bharat	-3959
▁Social	-3960
▁ST	-3961
▁km	-3962
▁excell	-3963
sych	-3964
chand	-3965
▁slow	-3966
▁ready	-3967
apan	-3968
▁fundamental	-3969
▁cere	-3970
▁neighb	-3971
▁Also	-3972
▁convey	-3973
▁organization	-3974
▁Prasad	-3975
▁enable	-3976
II	-3977
aja	-3978
▁cho	-3979
▁Ant	-3980
enance	-3981
▁individuals	-3982
▁rain	-3983
▁valid	-3984
▁suc	-3985
reprene	-3986
▁Though	-3987
▁poverty	-3988
ousing	-3989
▁indeed	-3990
istics	-3991
▁nations	-3992
onse	-3993
uries	-3994
▁Rama	-3995
▁integral	-3996
▁whatever	-3997
▁cou	-3998
iting	-3999
▁card	-4000
▁acts	-4001
▁prosec	-4002
▁trying	-4003
▁communication	-4004
▁Vill	-4005
▁magn	-4006
▁ast	-4007
▁error	-4008
▁stock	-4009
▁Guru	-4010
▁moral	-4011
▁feeling	-4012
▁studies	-4013
▁applications	-4014
▁Group	-4015
▁expect	-4016
▁saying	-4017
▁annual	-4018
▁medium	-4019
▁discipl	-4020
▁enterpr	-4021
▁flu	-4022
▁pure	-4023
▁facts	-4024
▁series	-4025
▁Because	-4026
▁throughout	-4027
atma	-4028
▁Aud	-4029
ilies	-4030
▁send	-4031
▁reading	-4032
▁minister	-4033
▁00	-4034
▁feet	-4035
una	-4036
▁cultiv	-4037
▁Governments	-4038
▁susp	-4039
▁excl	-4040
▁requires	-4041
▁ult	-4042
ivery	-4043
▁items	-4044
▁affect	-4045
▁turned	-4046
▁sacrif	-4047
▁articles	-4048
▁frequ	-4049
▁points	-4050
uit	-4051
▁Kar	-4052
▁Bihar	-4053
▁leaves	-4054
▁Members	-4055
▁granted	-4056
ika	-4057
omet	-4058
▁entry	-4059
▁Amendment	-4060
▁delay	-4061
ests	-4062
▁degree	-4063
▁rapid	-4064
▁prison	-4065
▁aspects	-4066
१०	-4067
ira	-4068
▁sem	-4069
▁compon	-4070
▁Ed	-4071
▁mur	-4072
ferences	-4073
▁removal	-4074
▁Official	-4075
aviour	-4076
▁divided	-4077
eless	-4078
▁dischar	-4079
▁Sal	-4080
▁mainly	-4081
▁daughter	-4082
▁sudden	-4083
▁pressure	-4084
▁practices	-4085
oj	-4086
aug	-4087
fort	-4088
▁Art	-4089
▁touch	-4090
▁Vis	-4091
essing	-4092
▁Power	-4093
hu	-4094
▁Dem	-4095
▁Tod	-4096
rance	-4097
ricket	-4098
▁agency	-4099
▁methods	-4100
ne	-4101
ogle	-4102
▁suit	-4103
▁powerful	-4104
asthan	-4105
▁receipt	-4106
▁causes	-4107
▁incident	-4108
▁suggested	-4109
ped	-4110
anas	-4111
oming	-4112
▁quar	-4113
lex	-4114
▁incl	-4115
▁Langu	-4116
oph	-4117
vis	-4118
lying	-4119
▁impl	-4120
▁defence	-4121
ING	-4122
▁vast	-4123
▁fields	-4124
▁safety	-4125
▁literary	-4126
▁fert	-4127
▁foot	-4128
▁offered	-4129
▁nut	-4130
▁bear	-4131
▁target	-4132
▁requirements	-4133
nel	-4134
apur	-4135
▁Ash	-4136
cript	-4137
▁rare	-4138
▁tend	-4139
▁electric	-4140
▁anti	-4141
▁staff	-4142
▁tiss	-4143
▁belief	-4144
▁petitioner	-4145
▁bri	-4146
▁welfare	-4147
▁adequate	-4148
▁intellig	-4149
▁shape	-4150
▁confident	-4151
▁Her	-4152
▁PRO	-4153
▁daily	-4154
EE	-4155
▁meant	-4156
artments	-4157
▁contain	-4158
▁distribution	-4159
▁fee	-4160
▁upd	-4161
▁universal	-4162
▁wond	-4163
enture	-4164
▁succeed	-4165
▁distance	-4166
▁Aust	-4167
▁gone	-4168
▁named	-4169
▁schools	-4170
ishing	-4171
▁Akbar	-4172
▁promotion	-4173
mar	-4174
▁Out	-4175
▁sides	-4176
▁completed	-4177
▁Ear	-4178
▁Car	-4179
iring	-4180
▁Assist	-4181
▁convers	-4182
▁male	-4183
▁learned	-4184
▁cities	-4185
▁follows	-4186
▁Nav	-4187
▁lived	-4188
▁wishes	-4189
aul	-4190
ils	-4191
▁Kol	-4192
atter	-4193
▁destro	-4194
▁teachers	-4195
▁discussion	-4196
umer	-4197
endra	-4198
▁argu	-4199
▁trou	-4200
▁factors	-4201
▁treated	-4202
▁construct	-4203
▁confidence	-4204
▁association	-4205
athy	-4206
▁Whether	-4207
▁eat	-4208
imately	-4209
▁caste	-4210
▁expand	-4211
aign	-4212
olved	-4213
▁sectors	-4214
mosp	-4215
▁election	-4216
respond	-4217
▁regional	-4218
▁Lal	-4219
▁Pan	-4220
▁knew	-4221
▁highly	-4222
▁Palestin	-4223
actions	-4224
▁beauty	-4225
▁events	-4226
▁Bengali	-4227
▁establishment	-4228
▁master	-4229
▁Commercial	-4230
▁Legislative	-4231
▁root	-4232
▁fresh	-4233
▁altern	-4234
▁Mahatma	-4235
▁Bel	-4236
▁esc	-4237
▁actual	-4238
▁maintain	-4239
▁returned	-4240
vision	-4241
▁worked	-4242
▁appears	-4243
▁positive	-4244
▁serve	-4245
▁songs	-4246
▁volunt	-4247
▁remember	-4248
▁figure	-4249
▁script	-4250
▁believed	-4251
ni	-4252
▁Only	-4253
▁died	-4254
▁Japan	-4255
▁encoura	-4256
isc	-4257
▁mid	-4258
izations	-4259
▁Inc	-4260
▁avoid	-4261
▁intellectual	-4262
lal	-4263
▁gas	-4264
urate	-4265
▁veget	-4266
▁reality	-4267
▁pleasure	-4268
▁capt	-4269
▁option	-4270
▁absolute	-4271
▁academic	-4272
▁machinery	-4273
▁strengthen	-4274
▁door	-4275
▁Himal	-4276
▁abroad	-4277
▁cru	-4278
▁Party	-4279
▁insects	-4280
▁bodies	-4281
▁Science	-4282
ray	-4283
▁Error	-4284
▁internal	-4285
▁color	-4286
▁version	-4287
▁probably	-4288
▁Russ	-4289
▁decisions	-4290
▁bond	-4291
▁station	-4292
▁determined	-4293
ARD	-4294
ken	-4295
ties	-4296
iling	-4297
stitu	-4298
▁prec	-4299
▁heavy	-4300
▁rupees	-4301
▁punishment	-4302
▁joy	-4303
▁Mand	-4304
▁nuclear	-4305
▁sleep	-4306
▁Programme	-4307
cast	-4308
▁opening	-4309
▁diseases	-4310
urt	-4311
▁branch	-4312
▁families	-4313
▁dim	-4314
rehens	-4315
▁partnership	-4316
rav	-4317
ception	-4318
▁failure	-4319
▁Das	-4320
▁dial	-4321
▁miss	-4322
▁Besides	-4323
▁dated	-4324
▁proved	-4325
▁Excellency	-4326
▁newsp	-4327
▁atmosp	-4328
▁clearly	-4329
ming	-4330
▁arri	-4331
▁rank	-4332
▁Google	-4333
▁Panchay	-4334
▁carrying	-4335
▁Association	-4336
set	-4337
▁agreed	-4338
DA	-4339
OL	-4340
udget	-4341
▁Form	-4342
▁Village	-4343
▁default	-4344
▁Rajasthan	-4345
▁investigation	-4346
▁Aff	-4347
ologies	-4348
ae	-4349
▁id	-4350
▁Ham	-4351
▁late	-4352
▁agencies	-4353
▁buy	-4354
▁seem	-4355
▁Applic	-4356
▁aw	-4357
ifest	-4358
▁keeping	-4359
▁Ay	-4360
enge	-4361
▁pil	-4362
iance	-4363
▁safe	-4364
▁borrow	-4365
▁hearing	-4366
▁response	-4367
▁table	-4368
▁happened	-4369
▁army	-4370
▁goal	-4371
▁Assam	-4372
isms	-4373
putes	-4374
▁voice	-4375
▁Proced	-4376
▁thereof	-4377
IV	-4378
het	-4379
▁Today	-4380
▁Water	-4381
▁prepar	-4382
▁delivery	-4383
▁Nag	-4384
▁Buddh	-4385
rupt	-4386
ataka	-4387
▁mutual	-4388
▁innovation	-4389
▁Environment	-4390
aks	-4391
wan	-4392
▁experi	-4393
▁Further	-4394
▁conflict	-4395
▁sufficient	-4396
▁Him	-4397
▁sand	-4398
▁Rajya	-4399
▁controll	-4400
rust	-4401
▁cold	-4402
▁estim	-4403
▁recommended	-4404
udi	-4405
▁BC	-4406
▁attend	-4407
▁distingu	-4408
cip	-4409
cher	-4410
▁enem	-4411
▁season	-4412
▁compensation	-4413
eria	-4414
▁dealing	-4415
▁grass	-4416
▁passing	-4417
▁Financial	-4418
▁deduction	-4419
ka	-4420
▁Men	-4421
elines	-4422
▁candid	-4423
achal	-4424
erted	-4425
▁Prem	-4426
▁moon	-4427
▁profit	-4428
▁amongst	-4429
▁Independ	-4430
▁accident	-4431
era	-4432
▁Ira	-4433
▁hero	-4434
▁input	-4435
riminal	-4436
▁Insurance	-4437
▁reasonable	-4438
▁constituted	-4439
the	-4440
AG	-4441
▁Est	-4442
▁Another	-4443
▁suitable	-4444
▁leadership	-4445
▁select	-4446
▁officials	-4447
▁Cur	-4448
▁Ev	-4449
vert	-4450
▁Abd	-4451
▁launched	-4452
▁features	-4453
▁urban	-4454
▁doctor	-4455
▁happen	-4456
▁reduced	-4457
▁chemical	-4458
▁advantage	-4459
▁Rail	-4460
▁completely	-4461
arian	-4462
▁applicable	-4463
▁shr	-4464
▁draft	-4465
▁colour	-4466
▁identity	-4467
▁instance	-4468
▁ordinary	-4469
ads	-4470
▁fal	-4471
▁MS	-4472
▁adult	-4473
▁encourage	-4474
inter	-4475
▁wild	-4476
▁correspond	-4477
eks	-4478
aram	-4479
▁compr	-4480
essions	-4481
▁latter	-4482
▁journey	-4483
▁instruct	-4484
▁dry	-4485
itect	-4486
▁Econom	-4487
asm	-4488
▁wood	-4489
▁appell	-4490
▁Two	-4491
rench	-4492
▁Which	-4493
▁Pen	-4494
▁Who	-4495
▁prices	-4496
▁planning	-4497
ittees	-4498
▁parliament	-4499
TER	-4500
ply	-4501
▁Both	-4502
▁Iraq	-4503
▁entered	-4504
▁box	-4505
▁mist	-4506
▁crops	-4507
isition	-4508
▁poem	-4509
unicip	-4510
▁subsequ	-4511
▁Human	-4512
▁Lab	-4513
▁Jain	-4514
▁Sing	-4515
▁hour	-4516
▁administrative	-4517
▁Att	-4518
ayana	-4519
▁guarant	-4520
▁Bus	-4521
▁Lib	-4522
▁tom	-4523
▁stone	-4524
▁reserv	-4525
▁desp	-4526
▁concl	-4527
pective	-4528
▁reports	-4529
▁spent	-4530
▁excess	-4531
▁server	-4532
▁elected	-4533
▁recommendations	-4534
EM	-4535
▁fit	-4536
▁critical	-4537
▁permanent	-4538
ocate	-4539
▁liqu	-4540
ancing	-4541
▁counter	-4542
▁remained	-4543
bal	-4544
▁assum	-4545
▁paint	-4546
▁initiatives	-4547
▁Port	-4548
▁applied	-4549
▁centres	-4550
▁materials	-4551
▁motion	-4552
▁negative	-4553
▁supported	-4554
▁Non	-4555
▁fat	-4556
▁mouth	-4557
▁Gov	-4558
atically	-4559
grat	-4560
▁ban	-4561
▁notes	-4562
▁psych	-4563
▁holding	-4564
▁approved	-4565
▁president	-4566
▁watch	-4567
▁reject	-4568
▁Criminal	-4569
after	-4570
▁inner	-4571
▁Will	-4572
▁Hon	-4573
▁Society	-4574
ij	-4575
rad	-4576
▁breed	-4577
▁drawn	-4578
▁incor	-4579
▁released	-4580
▁characters	-4581
mark	-4582
▁latest	-4583
▁achieved	-4584
▁Speaker	-4585
▁aid	-4586
▁nearly	-4587
▁sustain	-4588
anges	-4589
▁governance	-4590
▁professional	-4591
iti	-4592
jud	-4593
uel	-4594
▁Yoga	-4595
ila	-4596
▁Bad	-4597
▁output	-4598
▁pip	-4599
▁cook	-4600
▁explo	-4601
▁Schedule	-4602
ondon	-4603
▁moved	-4604
▁trees	-4605
istrate	-4606
▁surround	-4607
RO	-4608
▁hear	-4609
▁fruit	-4610
odes	-4611
▁web	-4612
▁Home	-4613
anya	-4614
rency	-4615
▁ende	-4616
▁damage	-4617
▁sanction	-4618
▁congrat	-4619
▁ang	-4620
▁leaf	-4621
isations	-4622
▁greetings	-4623
▁sources	-4624
▁subjects	-4625
▁appointment	-4626
▁privile	-4627
▁surv	-4628
▁title	-4629
▁participation	-4630
lete	-4631
▁campaign	-4632
▁entreprene	-4633
▁mission	-4634
▁numer	-4635
cean	-4636
board	-4637
▁sort	-4638
▁interesting	-4639
▁plays	-4640
▁perfect	-4641
▁politics	-4642
▁undertaking	-4643
▁cred	-4644
▁fram	-4645
hai	-4646
▁ec	-4647
▁Jew	-4648
▁SCC	-4649
pping	-4650
▁judgment	-4651
▁territory	-4652
▁iv	-4653
▁Jag	-4654
▁Ret	-4655
▁sell	-4656
▁recorded	-4657
▁historical	-4658
▁removed	-4659
▁commission	-4660
▁Gl	-4661
▁charged	-4662
▁Procedure	-4663
▁legislation	-4664
ym	-4665
▁Don	-4666
▁block	-4667
▁rates	-4668
▁Over	-4669
▁save	-4670
▁singh	-4671
▁standing	-4672
▁committee	-4673
rel	-4674
▁Pri	-4675
▁game	-4676
▁exact	-4677
▁concent	-4678
▁picture	-4679
▁creating	-4680
▁Ganga	-4681
▁Invest	-4682
▁remove	-4683
ulating	-4684
phone	-4685
▁gard	-4686
▁democratic	-4687
▁Che	-4688
ATION	-4689
arati	-4690
ordinate	-4691
igible	-4692
▁Sind	-4693
▁London	-4694
issa	-4695
▁Foreign	-4696
▁married	-4697
▁Hist	-4698
▁Member	-4699
▁endeav	-4700
ird	-4701
▁Bose	-4702
▁join	-4703
▁Karnataka	-4704
▁Industrial	-4705
utory	-4706
▁weeks	-4707
▁analysis	-4708
▁Ser	-4709
▁Tem	-4710
▁Ali	-4711
▁Ori	-4712
thern	-4713
▁Sikh	-4714
hern	-4715
▁Exp	-4716
▁eth	-4717
▁deposit	-4718
▁Internet	-4719
▁prosperity	-4720
▁houses	-4721
ese	-4722
▁dece	-4723
▁gain	-4724
▁tonnes	-4725
▁destroy	-4726
▁functioning	-4727
iced	-4728
rical	-4729
▁finally	-4730
▁proport	-4731
▁amb	-4732
▁lad	-4733
anged	-4734
▁shap	-4735
▁senior	-4736
▁Among	-4737
▁facility	-4738
▁east	-4739
▁Use	-4740
orial	-4741
▁Could	-4742
▁choice	-4743
▁opened	-4744
▁obst	-4745
▁false	-4746
▁classes	-4747
rence	-4748
▁Pers	-4749
▁River	-4750
▁match	-4751
otic	-4752
▁sole	-4753
▁Lo	-4754
▁bh	-4755
▁Sun	-4756
▁grad	-4757
▁neither	-4758
▁maintained	-4759
▁theory	-4760
▁challenges	-4761
▁Mission	-4762
▁obvious	-4763
▁drugs	-4764
▁profits	-4765
▁conducted	-4766
▁huge	-4767
▁dispute	-4768
▁Christian	-4769
▁challenge	-4770
ider	-4771
iveness	-4772
▁sought	-4773
▁solution	-4774
▁teaching	-4775
aly	-4776
▁CON	-4777
astic	-4778
▁debt	-4779
▁weap	-4780
▁dream	-4781
▁ability	-4782
jection	-4783
▁constitutional	-4784
ET	-4785
mon	-4786
▁reb	-4787
▁noted	-4788
▁submitted	-4789
aling	-4790
▁helped	-4791
pat	-4792
▁Nepal	-4793
▁stood	-4794
▁banking	-4795
▁demonst	-4796
▁sitting	-4797
▁proposal	-4798
▁communities	-4799
११	-4800
ester	-4801
▁grown	-4802
▁obtained	-4803
▁awareness	-4804
ura	-4805
▁regions	-4806
▁consists	-4807
▁elections	-4808
▁transform	-4809
▁mort	-4810
▁defend	-4811
▁records	-4812
▁relative	-4813
oe	-4814
▁Va	-4815
▁outl	-4816
▁crime	-4817
▁surpr	-4818
▁accomp	-4819
▁served	-4820
▁volume	-4821
▁citizen	-4822
▁atmosphere	-4823
▁manufacture	-4824
RL	-4825
▁factor	-4826
▁release	-4827
▁didn	-4828
▁waste	-4829
rew	-4830
▁gar	-4831
▁west	-4832
▁letters	-4833
▁Bah	-4834
erate	-4835
▁bott	-4836
▁formal	-4837
icious	-4838
▁Ext	-4839
essor	-4840
▁Right	-4841
▁Orissa	-4842
▁squared	-4843
▁substance	-4844
mi	-4845
▁Press	-4846
▁reduce	-4847
▁Jaw	-4848
▁birds	-4849
▁effects	-4850
▁Show	-4851
▁comment	-4852
▁reflect	-4853
rog	-4854
ghal	-4855
iform	-4856
▁enhan	-4857
▁changing	-4858
▁expenses	-4859
▁objectives	-4860
▁universities	-4861
lies	-4862
▁affairs	-4863
olly	-4864
▁folk	-4865
▁plat	-4866
▁amend	-4867
▁moving	-4868
roc	-4869
aste	-4870
orthern	-4871
▁Middle	-4872
▁Nature	-4873
aut	-4874
ghan	-4875
iments	-4876
▁writer	-4877
▁situated	-4878
▁transferred	-4879
ocks	-4880
olve	-4881
▁Each	-4882
▁Once	-4883
▁ment	-4884
▁suffering	-4885
▁dign	-4886
▁pill	-4887
▁Nagar	-4888
▁Austral	-4889
aman	-4890
▁Stat	-4891
▁Women	-4892
▁Medical	-4893
▁healthy	-4894
▁approval	-4895
▁attached	-4896
▁IP	-4897
▁column	-4898
▁Language	-4899
▁Principal	-4900
▁attitude	-4901
▁register	-4902
▁AIR	-4903
▁decades	-4904
▁Although	-4905
▁thirty	-4906
▁maintenance	-4907
▁sugar	-4908
▁student	-4909
▁mobile	-4910
▁devotion	-4911
▁recently	-4912
▁pollution	-4913
garh	-4914
▁Ent	-4915
▁cry	-4916
▁wat	-4917
▁bran	-4918
▁fish	-4919
▁division	-4920
like	-4921
ocol	-4922
▁honour	-4923
▁offences	-4924
▁Self	-4925
▁description	-4926
▁Chrom	-4927
▁brain	-4928
▁operating	-4929
▁background	-4930
hus	-4931
▁online	-4932
▁Control	-4933
▁Commun	-4934
▁climate	-4935
▁notification	-4936
▁Park	-4937
▁Sect	-4938
▁phase	-4939
▁yield	-4940
▁processes	-4941
▁Exec	-4942
▁decide	-4943
▁collabor	-4944
▁restrict	-4945
▁architect	-4946
US	-4947
▁Cert	-4948
▁hair	-4949
▁Mahab	-4950
▁equipment	-4951
imb	-4952
▁Nat	-4953
ested	-4954
▁colle	-4955
▁lies	-4956
▁eleph	-4957
iers	-4958
▁nine	-4959
▁defin	-4960
▁impris	-4961
▁courage	-4962
▁principal	-4963
▁engineering	-4964
▁Rad	-4965
▁uses	-4966
ammu	-4967
oved	-4968
▁cam	-4969
▁Gupta	-4970
▁Network	-4971
▁absence	-4972
▁ourselves	-4973
ena	-4974
ogue	-4975
▁spl	-4976
anging	-4977
▁resist	-4978
▁imprisonment	-4979
▁die	-4980
▁prime	-4981
AM	-4982
DU	-4983
▁subt	-4984
▁joined	-4985
▁apart	-4986
holders	-4987
▁greatest	-4988
▁settlement	-4989
▁Gaz	-4990
▁coal	-4991
urities	-4992
▁compar	-4993
▁bringing	-4994
▁Hyder	-4995
rations	-4996
▁ble	-4997
▁gains	-4998
▁habit	-4999
▁Before	-5000
▁fellow	-5001
▁Training	-5002
gypt	-5003
▁emotion	-5004
▁pending	-5005
▁SP	-5006
osure	-5007
aced	-5008
ails	-5009
oral	-5010
▁See	-5011
▁arm	-5012
▁inaug	-5013
▁survey	-5014
ifications	-5015
▁Bin	-5016
▁Tri	-5017
▁users	-5018
ibilities	-5019
▁reported	-5020
hand	-5021
hara	-5022
▁disputes	-5023
uous	-5024
▁Nan	-5025
▁star	-5026
▁recognised	-5027
▁acid	-5028
achment	-5029
▁amendment	-5030
▁Land	-5031
▁Jammu	-5032
▁weather	-5033
▁comprehens	-5034
▁pick	-5035
▁becoming	-5036
▁execution	-5037
xy	-5038
▁Vir	-5039
▁phone	-5040
▁Independence	-5041
▁Egypt	-5042
▁Univers	-5043
▁resource	-5044
▁Protection	-5045
▁Babu	-5046
▁store	-5047
▁Similar	-5048
▁smaller	-5049
▁priority	-5050
hel	-5051
▁rob	-5052
▁designed	-5053
▁medicine	-5054
apt	-5055
▁URL	-5056
inent	-5057
▁helps	-5058
▁proceeding	-5059
▁translation	-5060
ruption	-5061
▁impart	-5062
▁eld	-5063
▁Stud	-5064
▁Life	-5065
▁Subhas	-5066
▁expert	-5067
▁monitor	-5068
▁although	-5069
iled	-5070
▁looks	-5071
▁efficient	-5072
cks	-5073
▁Ty	-5074
▁union	-5075
▁Mother	-5076
▁conclud	-5077
▁evening	-5078
▁purchase	-5079
▁fed	-5080
▁earn	-5081
▁piece	-5082
iy	-5083
▁Writ	-5084
astern	-5085
▁Madras	-5086
▁Sum	-5087
▁scope	-5088
▁Employ	-5089
▁afford	-5090
▁commitment	-5091
▁manufacturing	-5092
rat	-5093
utt	-5094
▁Rights	-5095
▁behaviour	-5096
withstanding	-5097
vent	-5098
▁bul	-5099
▁mix	-5100
▁Prom	-5101
▁deals	-5102
▁simpl	-5103
agh	-5104
▁Engine	-5105
▁actions	-5106
CE	-5107
ips	-5108
iant	-5109
▁heat	-5110
▁capable	-5111
▁Security	-5112
▁Kan	-5113
▁crow	-5114
▁Affairs	-5115
▁wonder	-5116
unicipal	-5117
▁arising	-5118
▁contempt	-5119
▁Met	-5120
abinet	-5121
▁possession	-5122
▁Tel	-5123
▁spot	-5124
▁signed	-5125
icted	-5126
known	-5127
▁Av	-5128
▁Emp	-5129
▁rice	-5130
▁Joint	-5131
▁format	-5132
▁scientists	-5133
▁radi	-5134
▁Swami	-5135
▁Divine	-5136
▁launch	-5137
▁Reserve	-5138
▁SH	-5139
▁Cop	-5140
hance	-5141
▁brief	-5142
▁pointed	-5143
▁revenue	-5144
▁festival	-5145
rees	-5146
▁solar	-5147
▁rivers	-5148
▁finance	-5149
▁password	-5150
▁bilateral	-5151
ESS	-5152
▁alt	-5153
hetic	-5154
▁Order	-5155
▁drive	-5156
amin	-5157
omin	-5158
▁Rural	-5159
ping	-5160
▁micro	-5161
adav	-5162
▁minutes	-5163
▁acquired	-5164
▁Assessing	-5165
▁kil	-5166
▁File	-5167
▁defe	-5168
▁felicit	-5169
▁portion	-5170
▁Scheduled	-5171
▁implemented	-5172
inces	-5173
▁rock	-5174
▁Business	-5175
gor	-5176
▁flowers	-5177
▁appeared	-5178
▁identified	-5179
▁....	-5180
▁currency	-5181
▁interpret	-5182
▁performed	-5183
▁friendship	-5184
under	-5185
▁Nadu	-5186
ranath	-5187
▁cricket	-5188
▁manifest	-5189
▁withdraw	-5190
arya	-5191
▁Pet	-5192
iation	-5193
▁shared	-5194
che	-5195
▁Fed	-5196
▁Kab	-5197
▁myst	-5198
▁proof	-5199
▁channel	-5200
▁executive	-5201
osite	-5202
aration	-5203
▁commod	-5204
▁Nations	-5205
▁straight	-5206
▁calls	-5207
▁platform	-5208
▁zero	-5209
ancell	-5210
▁commence	-5211
acc	-5212
▁Priv	-5213
▁skills	-5214
▁initial	-5215
▁assigned	-5216
bon	-5217
▁Chh	-5218
asant	-5219
▁filled	-5220
▁installed	-5221
▁Dur	-5222
▁Those	-5223
▁mandap	-5224
▁visited	-5225
▁lawy	-5226
▁Afghan	-5227
▁enforce	-5228
▁location	-5229
ohn	-5230
▁Like	-5231
inding	-5232
▁Small	-5233
▁forth	-5234
▁kinds	-5235
▁trend	-5236
▁Houses	-5237
▁announced	-5238
▁dance	-5239
▁oblig	-5240
▁Related	-5241
operative	-5242
▁distinct	-5243
▁satisfied	-5244
▁१	-5245
eep	-5246
amet	-5247
ette	-5248
▁Time	-5249
▁severe	-5250
▁Israeli	-5251
▁branches	-5252
▁AS	-5253
opal	-5254
▁aims	-5255
▁marketing	-5256
roud	-5257
▁000	-5258
▁reforms	-5259
▁ap	-5260
▁stream	-5261
▁struct	-5262
▁delight	-5263
▁initiative	-5264
▁respective	-5265
▁temperature	-5266
▁Sard	-5267
▁organizations	-5268
ithm	-5269
▁Pay	-5270
▁please	-5271
▁AD	-5272
ammad	-5273
▁discl	-5274
▁Deputy	-5275
▁seemed	-5276
▁formation	-5277
▁represents	-5278
esty	-5279
ulty	-5280
▁categ	-5281
▁colon	-5282
▁partner	-5283
▁organized	-5284
▁amp	-5285
▁Food	-5286
▁beings	-5287
▁offices	-5288
▁discussed	-5289
▁environmental	-5290
AD	-5291
▁secure	-5292
▁billion	-5293
▁extension	-5294
AB	-5295
▁evil	-5296
▁email	-5297
▁girls	-5298
▁poets	-5299
▁wants	-5300
▁band	-5301
▁upper	-5302
▁plaint	-5303
▁western	-5304
▁Hyderabad	-5305
▁Something	-5306
riving	-5307
▁mostly	-5308
▁Jawahar	-5309
asi	-5310
▁mir	-5311
▁cloth	-5312
▁indig	-5313
▁kumar	-5314
▁battle	-5315
▁communal	-5316
▁Ministers	-5317
▁collected	-5318
atio	-5319
▁Mat	-5320
▁hop	-5321
▁pert	-5322
▁Bangl	-5323
▁disapp	-5324
▁marked	-5325
▁none	-5326
▁customer	-5327
▁centuries	-5328
▁ax	-5329
itage	-5330
ensions	-5331
▁immediate	-5332
▁distur	-5333
▁narrow	-5334
▁possess	-5335
ih	-5336
▁rid	-5337
▁wise	-5338
▁Brahm	-5339
▁pregn	-5340
▁exists	-5341
▁preced	-5342
▁Cr	-5343
▁Det	-5344
▁absor	-5345
▁doesn	-5346
▁History	-5347
▁compared	-5348
rigation	-5349
▁imposed	-5350
▁Application	-5351
▁dia	-5352
▁coast	-5353
▁fertil	-5354
▁simply	-5355
▁eligible	-5356
udh	-5357
▁conce	-5358
▁Select	-5359
▁judiciary	-5360
▁liquid	-5361
▁council	-5362
▁deliver	-5363
▁mountain	-5364
▁thousands	-5365
asw	-5366
▁Ang	-5367
stood	-5368
▁equality	-5369
▁improvement	-5370
▁Dec	-5371
▁tissue	-5372
▁equally	-5373
▁governments	-5374
▁remote	-5375
▁advanced	-5376
elled	-5377
▁killed	-5378
▁Data	-5379
▁bone	-5380
▁Enter	-5381
ossible	-5382
▁stands	-5383
▁foundation	-5384
▁Gan	-5385
▁Sol	-5386
▁runs	-5387
▁chance	-5388
antic	-5389
▁Vishn	-5390
▁sight	-5391
▁French	-5392
▁prejud	-5393
▁discharge	-5394
▁university	-5395
ulatory	-5396
▁containing	-5397
oes	-5398
anta	-5399
iration	-5400
▁blue	-5401
▁gram	-5402
▁limits	-5403
▁movements	-5404
minent	-5405
▁train	-5406
▁consumer	-5407
▁intended	-5408
▁properly	-5409
▁deleg	-5410
▁instruments	-5411
▁substantial	-5412
uli	-5413
▁cow	-5414
oring	-5415
▁Back	-5416
▁Appell	-5417
▁sexual	-5418
▁welcome	-5419
▁Hel	-5420
▁Maj	-5421
▁Var	-5422
▁delib	-5423
▁permission	-5424
▁recognition	-5425
▁considerable	-5426
▁height	-5427
ocal	-5428
▁Resident	-5429
▁composed	-5430
▁initiated	-5431
mer	-5432
▁hyd	-5433
oples	-5434
▁fifty	-5435
▁employee	-5436
inger	-5437
▁Know	-5438
▁brid	-5439
▁Force	-5440
▁Micro	-5441
▁griev	-5442
▁amended	-5443
▁incorpor	-5444
alg	-5445
room	-5446
▁Palestinian	-5447
oses	-5448
▁Ban	-5449
ansion	-5450
▁divid	-5451
▁adjust	-5452
▁attrib	-5453
▁folder	-5454
▁screen	-5455
▁depends	-5456
▁visible	-5457
▁transaction	-5458
wal	-5459
▁Vice	-5460
▁supreme	-5461
▁category	-5462
▁entirely	-5463
dess	-5464
ffic	-5465
▁phen	-5466
▁organised	-5467
▁conference	-5468
▁Inn	-5469
▁Good	-5470
▁Allah	-5471
▁figures	-5472
▁seeking	-5473
▁electricity	-5474
plom	-5475
▁Book	-5476
▁enhance	-5477
▁extremely	-5478
erce	-5479
oken	-5480
▁Year	-5481
▁bird	-5482
▁minds	-5483
▁journal	-5484
▁Magistrate	-5485
▁undertaken	-5486
arp	-5487
pto	-5488
▁Bur	-5489
▁guard	-5490
unction	-5491
▁household	-5492
▁unp	-5493
▁Failed	-5494
▁overall	-5495
▁Assistant	-5496
▁technologies	-5497
back	-5498
hent	-5499
▁starting	-5500
akti	-5501
▁dog	-5502
▁eggs	-5503
▁sick	-5504
▁career	-5505
▁personality	-5506
gent	-5507
▁vehicle	-5508
▁directed	-5509
▁competent	-5510
▁org	-5511
▁Count	-5512
▁framework	-5513
clause	-5514
▁Trade	-5515
▁Legislature	-5516
mn	-5517
▁rit	-5518
uddin	-5519
▁agent	-5520
▁ahead	-5521
▁prose	-5522
▁thank	-5523
▁feature	-5524
▁regulations	-5525
UL	-5526
icon	-5527
otes	-5528
▁opposition	-5529
▁lie	-5530
▁Trust	-5531
▁raise	-5532
▁config	-5533
▁directions	-5534
ux	-5535
alam	-5536
▁cave	-5537
▁fell	-5538
▁iron	-5539
▁loans	-5540
inating	-5541
▁insect	-5542
▁creative	-5543
▁multiple	-5544
▁John	-5545
▁audit	-5546
▁exports	-5547
▁liability	-5548
▁arms	-5549
▁cott	-5550
▁organisations	-5551
▁Pass	-5552
▁claims	-5553
ingly	-5554
▁Shiv	-5555
▁dynam	-5556
▁employed	-5557
▁informed	-5558
▁pursu	-5559
ressive	-5560
▁interested	-5561
▁Urdu	-5562
▁offers	-5563
▁Eastern	-5564
▁il	-5565
▁incur	-5566
▁hardly	-5567
▁Bangladesh	-5568
LE	-5569
ourses	-5570
▁Capital	-5571
▁sacrifice	-5572
sc	-5573
alle	-5574
hered	-5575
▁Bench	-5576
▁Process	-5577
VE	-5578
aces	-5579
oration	-5580
▁closed	-5581
▁fourth	-5582
▁outstanding	-5583
▁felicitations	-5584
▁sin	-5585
idden	-5586
▁sweet	-5587
▁track	-5588
▁Institut	-5589
▁examples	-5590
eum	-5591
▁Az	-5592
▁choose	-5593
▁couple	-5594
shi	-5595
▁myself	-5596
▁continues	-5597
▁customers	-5598
▁districts	-5599
▁hind	-5600
▁shop	-5601
▁blind	-5602
▁deeply	-5603
▁negoti	-5604
▁Economic	-5605
▁comprehensive	-5606
ien	-5607
kata	-5608
▁fix	-5609
organ	-5610
▁rent	-5611
▁demands	-5612
▁quickly	-5613
▁investig	-5614
PS	-5615
wa	-5616
ota	-5617
▁mel	-5618
▁Agriculture	-5619
▁Bir	-5620
▁roll	-5621
▁enabled	-5622
▁Mahabhar	-5623
▁witnesses	-5624
▁Committees	-5625
▁tea	-5626
▁remed	-5627
▁railway	-5628
▁proportion	-5629
▁obtain	-5630
▁markets	-5631
mb	-5632
▁devi	-5633
▁Hence	-5634
ications	-5635
▁radio	-5636
▁Pandit	-5637
▁procedures	-5638
▁surg	-5639
▁Award	-5640
▁budget	-5641
▁happens	-5642
▁objects	-5643
de	-5644
rut	-5645
▁Rao	-5646
uable	-5647
▁disk	-5648
▁Super	-5649
▁imperial	-5650
▁Yes	-5651
▁raw	-5652
▁kill	-5653
▁Chait	-5654
▁prove	-5655
▁sacred	-5656
▁respondent	-5657
▁arbitration	-5658
nan	-5659
othes	-5660
▁Laws	-5661
▁awarded	-5662
▁counsel	-5663
▁involve	-5664
▁Exchange	-5665
▁mechanism	-5666
▁Fort	-5667
▁proud	-5668
▁stamp	-5669
▁bright	-5670
▁conven	-5671
▁liberal	-5672
▁alternative	-5673
atab	-5674
urally	-5675
▁drama	-5676
▁Address	-5677
▁belonging	-5678
▁instructions	-5679
izes	-5680
▁race	-5681
▁upgr	-5682
▁Madhya	-5683
▁discrim	-5684
fall	-5685
king	-5686
▁theme	-5687
▁slight	-5688
▁playing	-5689
▁Executive	-5690
tes	-5691
▁FOR	-5692
▁transp	-5693
▁contributions	-5694
▁Bu	-5695
▁para	-5696
▁grounds	-5697
▁prosecution	-5698
umber	-5699
▁Laksh	-5700
▁skill	-5701
▁Parliamentary	-5702
gments	-5703
▁addressed	-5704
▁arrangement	-5705
▁Ka	-5706
▁labor	-5707
▁Territ	-5708
▁describ	-5709
▁Kam	-5710
▁pret	-5711
▁liable	-5712
▁distinguished	-5713
eds	-5714
anath	-5715
going	-5716
▁thoughts	-5717
▁impossible	-5718
ica	-5719
▁span	-5720
▁arrived	-5721
▁explained	-5722
ndra	-5723
▁Cre	-5724
▁Move	-5725
▁understood	-5726
▁Rule	-5727
▁jail	-5728
▁Awards	-5729
▁enacted	-5730
▁apparent	-5731
anish	-5732
▁Saty	-5733
▁aspir	-5734
▁Vishnu	-5735
▁appearance	-5736
PA	-5737
ader	-5738
ruits	-5739
▁exped	-5740
▁horse	-5741
▁toler	-5742
eer	-5743
rosy	-5744
agers	-5745
▁Road	-5746
▁religions	-5747
▁commencement	-5748
▁Ja	-5749
▁mr	-5750
▁promoting	-5751
osen	-5752
ander	-5753
encing	-5754
▁admitted	-5755
▁speaking	-5756
▁respectively	-5757
▁Dal	-5758
▁estimated	-5759
▁personnel	-5760
umin	-5761
▁Sen	-5762
▁Tele	-5763
▁intention	-5764
▁facilitate	-5765
▁masses	-5766
▁compound	-5767
oles	-5768
▁core	-5769
▁Sardar	-5770
▁inquiry	-5771
riages	-5772
▁Similarly	-5773
▁efficiency	-5774
▁differences	-5775
▁requirement	-5776
ION	-5777
cend	-5778
▁Rab	-5779
▁lev	-5780
▁Chen	-5781
▁cris	-5782
▁definite	-5783
▁statutory	-5784
▁conclusion	-5785
ola	-5786
▁Po	-5787
▁rub	-5788
▁vit	-5789
▁spect	-5790
▁dedicated	-5791
▁effectively	-5792
▁legislative	-5793
uru	-5794
▁acting	-5795
▁ritual	-5796
▁constitute	-5797
ius	-5798
▁peoples	-5799
TH	-5800
abet	-5801
iliar	-5802
▁sympt	-5803
▁everyone	-5804
▁Companies	-5805
▁intelligence	-5806
▁transactions	-5807
OC	-5808
OU	-5809
▁Great	-5810
▁steel	-5811
▁acknow	-5812
▁desert	-5813
▁arrested	-5814
▁alle	-5815
▁pages	-5816
▁showing	-5817
▁allowance	-5818
▁Web	-5819
▁pul	-5820
▁doll	-5821
▁spite	-5822
▁availability	-5823
▁determination	-5824
▁anyone	-5825
▁exclud	-5826
▁libert	-5827
▁covering	-5828
uni	-5829
▁elim	-5830
▁renew	-5831
▁Germany	-5832
▁guidelines	-5833
▁entrepreneurs	-5834
▁ram	-5835
▁vig	-5836
▁Conf	-5837
▁fees	-5838
▁suffer	-5839
inder	-5840
▁knows	-5841
▁propag	-5842
▁showed	-5843
dy	-5844
▁Speaking	-5845
▁definition	-5846
elve	-5847
▁Wind	-5848
ensity	-5849
▁evolution	-5850
▁Jawaharlal	-5851
while	-5852
▁Change	-5853
▁murder	-5854
▁recognized	-5855
▁rend	-5856
▁render	-5857
▁Persian	-5858
▁finding	-5859
▁uniform	-5860
▁victims	-5861
▁emphasis	-5862
▁improved	-5863
▁diet	-5864
▁plans	-5865
unately	-5866
▁consent	-5867
▁detailed	-5868
▁humanity	-5869
▁repeated	-5870
▁terrorist	-5871
▁lif	-5872
▁tim	-5873
▁leaving	-5874
▁improving	-5875
▁selection	-5876
MS	-5877
▁Top	-5878
▁Mult	-5879
ashing	-5880
▁derived	-5881
▁Regional	-5882
▁phenomen	-5883
▁baby	-5884
▁Innov	-5885
▁breath	-5886
ny	-5887
top	-5888
▁Ms	-5889
▁DNA	-5890
▁motor	-5891
▁integr	-5892
norm	-5893
▁eval	-5894
▁sequ	-5895
hibition	-5896
▁dismiss	-5897
▁writers	-5898
▁representative	-5899
ciation	-5900
raction	-5901
EP	-5902
१२	-5903
▁Vol	-5904
▁enemy	-5905
▁floor	-5906
▁Comput	-5907
▁Officers	-5908
▁quantity	-5909
▁certainly	-5910
▁corporate	-5911
▁happiness	-5912
▁convention	-5913
▁upto	-5914
▁Credit	-5915
▁Industry	-5916
▁infection	-5917
estion	-5918
▁Buddha	-5919
▁NI	-5920
▁fib	-5921
enous	-5922
▁Mohan	-5923
▁Common	-5924
▁remaining	-5925
odh	-5926
▁AP	-5927
▁Bra	-5928
rafts	-5929
▁practical	-5930
▁difficulty	-5931
arh	-5932
ooth	-5933
▁unw	-5934
▁Army	-5935
▁admin	-5936
▁consumption	-5937
unk	-5938
▁Vidy	-5939
▁thor	-5940
▁Brahmin	-5941
▁contemporary	-5942
▁sad	-5943
isher	-5944
▁tools	-5945
▁double	-5946
rum	-5947
▁bag	-5948
▁lect	-5949
▁lose	-5950
▁chapter	-5951
▁Convention	-5952
▁Registration	-5953
▁pu	-5954
▁drop	-5955
▁string	-5956
▁housing	-5957
▁settled	-5958
▁Children	-5959
▁guidance	-5960
▁Through	-5961
▁normally	-5962
cont	-5963
▁Gold	-5964
assion	-5965
▁Sharma	-5966
▁kingdom	-5967
▁Petition	-5968
▁heritage	-5969
▁cra	-5970
▁alleg	-5971
▁papers	-5972
▁accompan	-5973
▁regarded	-5974
owed	-5975
▁Ref	-5976
▁lik	-5977
▁syn	-5978
▁MSME	-5979
▁seeds	-5980
▁center	-5981
▁occurs	-5982
ima	-5983
yal	-5984
▁Cal	-5985
▁hill	-5986
ailing	-5987
▁About	-5988
▁inspired	-5989
▁strategy	-5990
▁Binoy	-5991
▁consultation	-5992
▁sky	-5993
▁flag	-5994
▁saint	-5995
▁solid	-5996
▁illust	-5997
▁stages	-5998
▁pension	-5999
▁hom	-6000
▁Democ	-6001
▁ratio	-6002
▁complic	-6003
▁computing	-6004
MP	-6005
ifies	-6006
▁Legal	-6007
▁Mount	-6008
▁disposal	-6009
▁Gr	-6010
inct	-6011
▁Key	-6012
▁cust	-6013
▁reply	-6014
▁unable	-6015
▁telephone	-6016
▁successfully	-6017
pet	-6018
▁cool	-6019
▁vess	-6020
bedkar	-6021
▁Chaitanya	-6022
▁emergency	-6023
▁ego	-6024
icide	-6025
venth	-6026
ivered	-6027
▁difficulties	-6028
egu	-6029
▁ID	-6030
ilty	-6031
icians	-6032
▁injury	-6033
▁immense	-6034
▁Marriage	-6035
▁indirect	-6036
▁sustainable	-6037
▁III	-6038
asters	-6039
▁filing	-6040
▁Ambedkar	-6041
▁settings	-6042
▁superior	-6043
agraph	-6044
▁Appellate	-6045
▁Tir	-6046
▁legs	-6047
▁Ahmed	-6048
▁flood	-6049
▁attacks	-6050
▁investors	-6051
▁integrated	-6052
▁du	-6053
▁Raja	-6054
▁holds	-6055
▁stead	-6056
▁crisis	-6057
▁college	-6058
aren	-6059
aniel	-6060
aneous	-6061
asty	-6062
▁era	-6063
▁enterprise	-6064
idn	-6065
▁Nath	-6066
▁bact	-6067
▁flat	-6068
▁armed	-6069
▁garden	-6070
▁expansion	-6071
ERS	-6072
oned	-6073
▁Equ	-6074
▁mos	-6075
▁strike	-6076
▁Afghanistan	-6077
load	-6078
▁fill	-6079
mation	-6080
▁outer	-6081
▁widely	-6082
RE	-6083
oman	-6084
onym	-6085
ommod	-6086
inance	-6087
▁chrom	-6088
▁layer	-6089
▁owner	-6090
▁owners	-6091
▁traffic	-6092
▁tomorrow	-6093
▁involving	-6094
▁electronic	-6095
▁raj	-6096
umari	-6097
▁Gram	-6098
▁manager	-6099
▁talking	-6100
▁accurate	-6101
▁meetings	-6102
▁Panchayat	-6103
▁IC	-6104
anka	-6105
▁Start	-6106
▁sister	-6107
▁compuls	-6108
▁millions	-6109
mony	-6110
▁Head	-6111
▁Name	-6112
▁Allow	-6113
▁finds	-6114
▁quiet	-6115
▁usual	-6116
▁walls	-6117
oresaid	-6118
▁forests	-6119
▁writings	-6120
▁Class	-6121
▁founded	-6122
▁celebrated	-6123
▁contribute	-6124
rem	-6125
▁Verm	-6126
▁cart	-6127
▁accom	-6128
▁trained	-6129
van	-6130
▁Yet	-6131
▁park	-6132
▁League	-6133
▁trouble	-6134
▁messages	-6135
xic	-6136
grim	-6137
▁Nor	-6138
house	-6139
▁Geor	-6140
▁fuel	-6141
▁scen	-6142
▁Academ	-6143
▁deposits	-6144
▁educated	-6145
▁determine	-6146
▁representatives	-6147
yas	-6148
▁PO	-6149
uran	-6150
isted	-6151
retion	-6152
▁brings	-6153
▁aforesaid	-6154
▁Industries	-6155
▁remarkable	-6156
▁roads	-6157
▁director	-6158
▁plaintiff	-6159
▁Fam	-6160
▁adm	-6161
▁viz	-6162
inese	-6163
▁blow	-6164
▁dealt	-6165
▁border	-6166
▁debate	-6167
▁taught	-6168
▁controlled	-6169
▁arrangements	-6170
ema	-6171
▁cos	-6172
active	-6173
▁patri	-6174
▁forget	-6175
▁PC	-6176
ulpt	-6177
inity	-6178
▁Devi	-6179
▁discipline	-6180
▁Sk	-6181
nergy	-6182
▁guide	-6183
▁illeg	-6184
▁thick	-6185
▁tribal	-6186
▁twelve	-6187
▁permitted	-6188
▁voluntary	-6189
▁subsequent	-6190
▁investments	-6191
▁City	-6192
▁Unit	-6193
▁harmony	-6194
▁herself	-6195
▁trading	-6196
▁acquisition	-6197
ilal	-6198
▁Rev	-6199
urved	-6200
ananda	-6201
▁chosen	-6202
▁delivered	-6203
arsh	-6204
▁Free	-6205
▁grew	-6206
▁chain	-6207
iri	-6208
▁Banks	-6209
▁gather	-6210
▁guilty	-6211
▁argument	-6212
▁irrigation	-6213
▁abol	-6214
▁hall	-6215
▁Russia	-6216
▁soldiers	-6217
▁neighbour	-6218
▁destruction	-6219
ugg	-6220
▁UK	-6221
▁bat	-6222
▁bail	-6223
▁clar	-6224
lation	-6225
▁yourself	-6226
▁discussions	-6227
AGE	-6228
oser	-6229
▁Jay	-6230
▁ignor	-6231
▁scene	-6232
▁divide	-6233
▁evident	-6234
▁Jh	-6235
▁Pad	-6236
▁ocean	-6237
▁begins	-6238
▁fruits	-6239
▁significance	-6240
▁Being	-6241
▁paras	-6242
▁contrary	-6243
▁Dw	-6244
▁Text	-6245
▁recovery	-6246
▁consisting	-6247
▁productivity	-6248
▁Son	-6249
▁York	-6250
▁leads	-6251
▁Labour	-6252
▁southern	-6253
▁universe	-6254
▁El	-6255
asks	-6256
ibly	-6257
▁recall	-6258
▁partition	-6259
lets	-6260
uity	-6261
▁ends	-6262
▁equity	-6263
inations	-6264
▁Kolkata	-6265
▁resulting	-6266
▁conviction	-6267
inn	-6268
▁Paper	-6269
▁chair	-6270
▁envis	-6271
▁socio	-6272
▁departments	-6273
och	-6274
attis	-6275
▁nerv	-6276
▁burden	-6277
▁safegu	-6278
▁chargeable	-6279
▁competition	-6280
oli	-6281
▁Earth	-6282
▁depth	-6283
▁Annual	-6284
▁Custom	-6285
▁Import	-6286
▁accompl	-6287
▁solutions	-6288
zz	-6289
amy	-6290
osit	-6291
▁Apart	-6292
▁broken	-6293
▁identify	-6294
usal	-6295
uality	-6296
▁verse	-6297
▁wound	-6298
eting	-6299
ician	-6300
uting	-6301
▁bomb	-6302
▁innoc	-6303
▁Mughal	-6304
▁convert	-6305
▁possibility	-6306
TS	-6307
▁hit	-6308
raint	-6309
ranch	-6310
akrish	-6311
▁sculpt	-6312
▁Chinese	-6313
▁refused	-6314
wari	-6315
atics	-6316
▁News	-6317
▁empt	-6318
ifically	-6319
▁numerous	-6320
▁Australia	-6321
▁Integ	-6322
▁approx	-6323
▁authent	-6324
▁Himachal	-6325
▁valuable	-6326
enn	-6327
atri	-6328
care	-6329
▁fasc	-6330
▁spoke	-6331
▁Comment	-6332
▁familiar	-6333
▁reaction	-6334
▁continuous	-6335
▁transmission	-6336
araj	-6337
hips	-6338
▁Ary	-6339
allel	-6340
ullah	-6341
▁stake	-6342
▁starts	-6343
ographical	-6344
▁acceptance	-6345
▁Gra	-6346
▁Ors	-6347
etary	-6348
▁roof	-6349
▁thereby	-6350
▁Province	-6351
▁specially	-6352
▁Administrative	-6353
▁Hari	-6354
▁temporary	-6355
anga	-6356
▁Bet	-6357
▁Sita	-6358
▁fift	-6359
▁goals	-6360
▁prompt	-6361
▁rulers	-6362
▁Britain	-6363
ashi	-6364
▁Far	-6365
isdom	-6366
▁poetic	-6367
▁criticism	-6368
▁essentially	-6369
ker	-6370
pro	-6371
▁unb	-6372
eries	-6373
▁sanct	-6374
▁aggreg	-6375
▁stress	-6376
▁amounts	-6377
▁constitu	-6378
son	-6379
achi	-6380
▁Ara	-6381
▁Vij	-6382
▁pig	-6383
▁Acts	-6384
ronics	-6385
▁Municipal	-6386
▁Universities	-6387
idi	-6388
▁neck	-6389
▁Later	-6390
▁Chrome	-6391
▁bottom	-6392
▁diplom	-6393
▁assembly	-6394
▁CS	-6395
▁waiting	-6396
▁Jo	-6397
▁beg	-6398
▁bats	-6399
▁pound	-6400
▁linked	-6401
▁Station	-6402
▁largely	-6403
▁buildings	-6404
▁gradually	-6405
▁excellence	-6406
adur	-6407
hibit	-6408
▁exch	-6409
▁gods	-6410
▁verses	-6411
▁explain	-6412
▁faculty	-6413
▁weapons	-6414
▁authorised	-6415
▁securities	-6416
obe	-6417
rin	-6418
▁coc	-6419
▁prote	-6420
▁wholly	-6421
▁accommod	-6422
▁amendments	-6423
CI	-6424
rie	-6425
wor	-6426
▁Ord	-6427
arita	-6428
▁boys	-6429
herent	-6430
▁Vedic	-6431
utation	-6432
▁Enable	-6433
▁breast	-6434
▁flower	-6435
▁suddenly	-6436
▁forwarded	-6437
▁qualities	-6438
▁Aj	-6439
▁Last	-6440
▁poly	-6441
▁Yadav	-6442
▁conferred	-6443
▁satisfaction	-6444
▁Administration	-6445
key	-6446
▁forg	-6447
▁succ	-6448
▁images	-6449
▁strict	-6450
▁advised	-6451
urse	-6452
▁Cle	-6453
▁Kir	-6454
▁vary	-6455
▁Cabinet	-6456
▁comfort	-6457
▁infinite	-6458
▁producing	-6459
▁accordingly	-6460
auses	-6461
▁France	-6462
▁feelings	-6463
▁accompanied	-6464
▁participate	-6465
iso	-6466
▁proc	-6467
▁vote	-6468
▁Asian	-6469
▁attain	-6470
▁replace	-6471
▁components	-6472
IF	-6473
▁Sik	-6474
▁Gora	-6475
▁click	-6476
▁Master	-6477
▁claimed	-6478
ords	-6479
▁htt	-6480
▁NAME	-6481
▁edge	-6482
▁prepare	-6483
▁suffered	-6484
▁newspaper	-6485
▁encouraged	-6486
▁consequences	-6487
▁introduction	-6488
▁representation	-6489
▁seeing	-6490
▁mandapa	-6491
▁currently	-6492
▁categories	-6493
▁ca	-6494
▁Oper	-6495
▁permit	-6496
▁prince	-6497
▁employer	-6498
ream	-6499
▁hat	-6500
▁Sant	-6501
▁tong	-6502
▁update	-6503
▁violent	-6504
attisgarh	-6505
▁Certificate	-6506
rator	-6507
▁Rest	-6508
▁audio	-6509
▁links	-6510
▁Turkey	-6511
▁decade	-6512
▁proposals	-6513
▁achievement	-6514
zy	-6515
▁Muh	-6516
iques	-6517
peror	-6518
▁Disc	-6519
▁nurs	-6520
▁advoc	-6521
▁devices	-6522
▁digital	-6523
▁willing	-6524
▁mo	-6525
well	-6526
▁Sav	-6527
▁rom	-6528
▁tab	-6529
▁deriv	-6530
chandra	-6531
▁street	-6532
▁waters	-6533
▁concerns	-6534
▁symptoms	-6535
NG	-6536
iger	-6537
▁Dar	-6538
▁Lah	-6539
▁Tal	-6540
▁arg	-6541
atabase	-6542
▁drinking	-6543
▁northern	-6544
▁carefully	-6545
ria	-6546
atre	-6547
▁Shi	-6548
▁deter	-6549
▁react	-6550
habilit	-6551
▁Export	-6552
▁abnorm	-6553
▁reader	-6554
▁examine	-6555
▁parliamentary	-6556
▁hur	-6557
▁crores	-6558
▁ensuring	-6559
uses	-6560
▁Mur	-6561
▁tub	-6562
▁Found	-6563
▁eastern	-6564
▁invited	-6565
▁directory	-6566
▁litigation	-6567
rier	-6568
▁anx	-6569
▁tro	-6570
▁Autom	-6571
▁gross	-6572
▁panel	-6573
▁solve	-6574
▁unknown	-6575
▁Election	-6576
▁component	-6577
▁CD	-6578
▁myth	-6579
▁exactly	-6580
▁confined	-6581
▁disabled	-6582
edia	-6583
ensus	-6584
▁adopt	-6585
irement	-6586
▁poison	-6587
▁Railway	-6588
▁opposite	-6589
▁traditions	-6590
pad	-6591
▁ow	-6592
▁alc	-6593
▁thr	-6594
▁PRODU	-6595
▁Sometimes	-6596
ears	-6597
▁NAB	-6598
ushed	-6599
uster	-6600
▁node	-6601
▁cycle	-6602
▁throw	-6603
▁dignity	-6604
▁secular	-6605
jan	-6606
akar	-6607
▁pec	-6608
▁shel	-6609
▁despite	-6610
▁stopped	-6611
▁conversion	-6612
▁sam	-6613
▁gall	-6614
▁appeals	-6615
▁incurred	-6616
▁prominent	-6617
▁suggestion	-6618
▁distributed	-6619
OM	-6620
▁Id	-6621
cles	-6622
alore	-6623
▁customs	-6624
icks	-6625
urer	-6626
▁Mir	-6627
▁Having	-6628
▁elephant	-6629
EG	-6630
leum	-6631
rating	-6632
▁seats	-6633
▁causing	-6634
▁pilgrim	-6635
entle	-6636
▁sales	-6637
▁atomic	-6638
▁intest	-6639
▁Welfare	-6640
▁empower	-6641
▁Islamist	-6642
▁patients	-6643
▁distinction	-6644
▁UT	-6645
▁allot	-6646
▁gland	-6647
▁represented	-6648
▁Copy	-6649
▁hence	-6650
▁sorrow	-6651
▁tender	-6652
▁Kingdom	-6653
▁tourism	-6654
▁followers	-6655
▁wa	-6656
▁trem	-6657
▁gradu	-6658
▁teeth	-6659
▁nutrit	-6660
▁inserted	-6661
▁involves	-6662
kh	-6663
▁Eff	-6664
▁Term	-6665
rovers	-6666
▁Anand	-6667
▁advis	-6668
▁conqu	-6669
▁mixed	-6670
▁spend	-6671
▁Interest	-6672
▁combination	-6673
▁architecture	-6674
▁Lep	-6675
▁Supp	-6676
▁abst	-6677
▁symp	-6678
▁tank	-6679
▁allows	-6680
▁corner	-6681
▁Bharati	-6682
▁eternal	-6683
▁commonly	-6684
▁CHA	-6685
▁Smt	-6686
▁Circ	-6687
▁Flag	-6688
▁Soft	-6689
▁Shiva	-6690
▁advert	-6691
▁PRODUCT	-6692
▁studied	-6693
▁excellent	-6694
१३	-6695
bing	-6696
▁IPC	-6697
▁holy	-6698
▁salt	-6699
mentation	-6700
▁occurred	-6701
▁applicant	-6702
oom	-6703
▁mig	-6704
▁smt	-6705
▁lady	-6706
▁arise	-6707
▁owned	-6708
istries	-6709
▁resign	-6710
▁Shankar	-6711
▁Support	-6712
▁fighting	-6713
atar	-6714
▁yellow	-6715
▁quarter	-6716
ache	-6717
▁Due	-6718
apped	-6719
rates	-6720
▁Const	-6721
▁brows	-6722
▁fever	-6723
▁Working	-6724
▁recommendation	-6725
da	-6726
yl	-6727
itud	-6728
utor	-6729
▁hyp	-6730
algam	-6731
▁Siva	-6732
▁faced	-6733
▁Energy	-6734
▁shaped	-6735
▁passion	-6736
▁innovative	-6737
ded	-6738
rain	-6739
amber	-6740
▁ties	-6741
iously	-6742
▁White	-6743
▁escape	-6744
▁fifteen	-6745
▁illness	-6746
▁radical	-6747
▁achievements	-6748
iya	-6749
icity	-6750
▁hills	-6751
▁Private	-6752
▁passeng	-6753
▁secondary	-6754
nity	-6755
oram	-6756
▁dust	-6757
▁sheet	-6758
▁greatly	-6759
▁Sessions	-6760
▁indicate	-6761
▁appellant	-6762
▁emotional	-6763
DP	-6764
mic	-6765
ayas	-6766
writ	-6767
▁hun	-6768
▁pup	-6769
▁Block	-6770
▁Liter	-6771
▁falls	-6772
▁entrust	-6773
▁equival	-6774
▁Ramayana	-6775
▁diversity	-6776
▁CH	-6777
▁Lat	-6778
▁Mot	-6779
ients	-6780
▁grat	-6781
hening	-6782
▁courses	-6783
▁harvest	-6784
▁Hinduism	-6785
▁strategic	-6786
▁interpretation	-6787
▁transformation	-6788
ls	-6789
mp	-6790
za	-6791
▁kg	-6792
▁ran	-6793
orter	-6794
▁truly	-6795
▁Forest	-6796
▁cotton	-6797
▁pieces	-6798
▁sovere	-6799
▁rejected	-6800
▁receiving	-6801
eff	-6802
itra	-6803
▁signs	-6804
▁NABARD	-6805
▁sports	-6806
▁managed	-6807
▁consumers	-6808
▁Agricultural	-6809
▁civilization	-6810
▁automatically	-6811
▁dh	-6812
husi	-6813
▁Dom	-6814
▁Shar	-6815
▁Vaishn	-6816
▁victory	-6817
▁internet	-6818
▁mountains	-6819
..	-6820
▁Alm	-6821
endar	-6822
icket	-6823
▁accum	-6824
▁convin	-6825
▁facing	-6826
▁discover	-6827
▁converted	-6828
▁ly	-6829
ture	-6830
▁Coun	-6831
▁Test	-6832
▁seat	-6833
▁wear	-6834
▁aimed	-6835
▁rising	-6836
▁liberty	-6837
▁Mor	-6838
▁eve	-6839
▁Make	-6840
▁airc	-6841
▁Money	-6842
▁cancer	-6843
▁signal	-6844
▁Knowledge	-6845
▁technique	-6846
▁compassion	-6847
▁technological	-6848
▁la	-6849
▁Ven	-6850
▁ash	-6851
▁bath	-6852
▁stim	-6853
roleum	-6854
▁palace	-6855
▁wisdom	-6856
▁deceased	-6857
ums	-6858
kash	-6859
ktop	-6860
▁Max	-6861
▁Sud	-6862
▁dro	-6863
works	-6864
▁resort	-6865
▁realised	-6866
▁dependent	-6867
▁contributed	-6868
▁isol	-6869
▁manage	-6870
▁notified	-6871
▁Notwithstanding	-6872
▁meat	-6873
arathi	-6874
esterday	-6875
▁Engineering	-6876
ificial	-6877
▁diverse	-6878
▁Maharaja	-6879
▁backward	-6880
▁subscribe	-6881
▁developments	-6882
AP	-6883
IG	-6884
NAME	-6885
▁nav	-6886
▁antic	-6887
▁index	-6888
missible	-6889
▁raising	-6890
▁dangerous	-6891
▁statements	-6892
▁CP	-6893
▁Gree	-6894
▁remind	-6895
▁Gazette	-6896
▁maintaining	-6897
▁Chhattisgarh	-6898
▁strengthening	-6899
heb	-6900
qual	-6901
▁tort	-6902
▁pride	-6903
▁saved	-6904
▁enthusi	-6905
▁experts	-6906
▁candidates	-6907
▁ww	-6908
▁ring	-6909
▁Defence	-6910
▁therein	-6911
▁Iss	-6912
▁Lad	-6913
▁Taj	-6914
▁sons	-6915
▁tube	-6916
aryana	-6917
▁minute	-6918
▁submit	-6919
▁applies	-6920
▁desired	-6921
▁examined	-6922
▁affection	-6923
▁childhood	-6924
▁vegetables	-6925
▁mad	-6926
▁www	-6927
▁utter	-6928
▁salary	-6929
▁closely	-6930
▁multipl	-6931
▁proviso	-6932
▁brothers	-6933
▁structures	-6934
nai	-6935
▁vim	-6936
▁bull	-6937
▁rough	-6938
▁domain	-6939
▁learnt	-6940
UM	-6941
▁asking	-6942
▁cheque	-6943
▁tourist	-6944
▁guarantee	-6945
▁privilege	-6946
▁declaration	-6947
rane	-6948
ports	-6949
orders	-6950
▁venture	-6951
▁influenced	-6952
rm	-6953
antly	-6954
▁Note	-6955
▁oral	-6956
erning	-6957
▁inval	-6958
▁Online	-6959
▁visual	-6960
entation	-6961
▁planned	-6962
▁strange	-6963
▁Governance	-6964
▁obligation	-6965
▁suggestions	-6966
uv	-6967
illa	-6968
▁Amb	-6969
▁vul	-6970
▁jobs	-6971
▁Number	-6972
▁listed	-6973
▁Consult	-6974
▁printed	-6975
▁cultivation	-6976
alal	-6977
ogen	-6978
othing	-6979
ourable	-6980
▁shrine	-6981
▁eminent	-6982
▁naturally	-6983
▁od	-6984
ding	-6985
▁avo	-6986
▁Four	-6987
▁Have	-6988
▁fault	-6989
▁fluid	-6990
▁glass	-6991
▁older	-6992
duction	-6993
▁adverse	-6994
▁Planning	-6995
▁ceremony	-6996
▁Additional	-6997
▁experiences	-6998
ATE	-6999
umes	-7000
erved	-7001
itals	-7002
▁Look	-7003
▁embra	-7004
▁elabor	-7005
▁passage	-7006
▁operative	-7007
▁primarily	-7008
▁institutional	-7009
▁Tar	-7010
▁beat	-7011
▁inev	-7012
▁pipes	-7013
▁experiment	-7014
oked	-7015
ollow	-7016
▁forty	-7017
▁marks	-7018
▁route	-7019
▁German	-7020
▁stored	-7021
▁Haryana	-7022
▁custody	-7023
▁preparation	-7024
▁Mun	-7025
▁rhy	-7026
celer	-7027
iable	-7028
▁aside	-7029
reement	-7030
▁amalgam	-7031
▁scholar	-7032
▁controvers	-7033
essed	-7034
▁Conn	-7035
▁genu	-7036
▁tail	-7037
uction	-7038
▁seeks	-7039
▁carbon	-7040
▁opposed	-7041
▁reduction	-7042
▁Fac	-7043
▁asc	-7044
▁Sett	-7045
▁clim	-7046
▁Death	-7047
iversary	-7048
▁drawing	-7049
▁pertaining	-7050
▁Deb	-7051
▁Rah	-7052
▁via	-7053
▁Sund	-7054
▁expiry	-7055
▁novels	-7056
▁overse	-7057
▁whereas	-7058
urg	-7059
▁vs	-7060
▁Arch	-7061
▁algor	-7062
▁operate	-7063
▁attended	-7064
▁subordinate	-7065
rd	-7066
plete	-7067
▁Gita	-7068
▁Abdul	-7069
▁ended	-7070
▁bridge	-7071
▁cattle	-7072
▁options	-7073
▁servant	-7074
▁resulted	-7075
▁discovered	-7076
▁instruction	-7077
▁NO	-7078
▁TV	-7079
▁mic	-7080
obile	-7081
▁Cult	-7082
▁noise	-7083
▁recip	-7084
▁Arabic	-7085
▁condem	-7086
▁entity	-7087
▁fulfil	-7088
▁Narayan	-7089
▁realise	-7090
▁sharing	-7091
▁totally	-7092
▁supposed	-7093
▁happening	-7094
ught	-7095
▁ing	-7096
▁burn	-7097
▁George	-7098
▁forced	-7099
▁regime	-7100
▁Persons	-7101
▁goddess	-7102
▁percentage	-7103
osc	-7104
▁Fr	-7105
▁Dig	-7106
▁Kap	-7107
▁Sin	-7108
▁mah	-7109
▁analy	-7110
▁diagn	-7111
▁persu	-7112
▁Basava	-7113
iculture	-7114
▁Marathi	-7115
▁rational	-7116
▁ministers	-7117
▁thereafter	-7118
EF	-7119
▁Rav	-7120
▁flex	-7121
▁surre	-7122
▁Sector	-7123
▁incent	-7124
▁Perhaps	-7125
▁replied	-7126
▁specify	-7127
▁testing	-7128
▁computers	-7129
▁corruption	-7130
▁progressive	-7131
▁vent	-7132
▁decor	-7133
▁towns	-7134
▁Review	-7135
▁caught	-7136
▁refuge	-7137
▁spoken	-7138
▁programs	-7139
▁rendered	-7140
rian	-7141
▁Fil	-7142
▁pull	-7143
▁shif	-7144
▁Table	-7145
▁twice	-7146
▁societies	-7147
▁completion	-7148
▁situations	-7149
DI	-7150
▁Cy	-7151
mits	-7152
▁Farm	-7153
pector	-7154
▁Bills	-7155
▁Obama	-7156
▁stuff	-7157
▁Muhammad	-7158
▁arranged	-7159
▁revolutionary	-7160
irs	-7161
ulf	-7162
bles	-7163
▁Mac	-7164
▁Saf	-7165
▁load	-7166
▁pron	-7167
▁rect	-7168
▁sharp	-7169
▁Search	-7170
▁muscle	-7171
▁emerged	-7172
▁Buddhist	-7173
▁pictures	-7174
▁Mahabharata	-7175
ML	-7176
ukh	-7177
▁sus	-7178
ferent	-7179
▁bills	-7180
▁covers	-7181
▁editor	-7182
▁Phys	-7183
▁Again	-7184
▁coord	-7185
▁dress	-7186
▁framed	-7187
▁limitation	-7188
▁destination	-7189
asy	-7190
▁gift	-7191
▁lamp	-7192
▁neare	-7193
aneously	-7194
▁besides	-7195
▁Accounts	-7196
▁prospect	-7197
▁Regulation	-7198
▁techniques	-7199
agon	-7200
▁cas	-7201
itors	-7202
▁ruling	-7203
▁integrity	-7204
▁discretion	-7205
▁properties	-7206
HER	-7207
tical	-7208
▁menu	-7209
▁prol	-7210
▁Lanka	-7211
▁lakhs	-7212
ilation	-7213
▁Appeal	-7214
▁reprodu	-7215
lammation	-7216
▁Professor	-7217
arge	-7218
hash	-7219
raid	-7220
▁Sov	-7221
▁scar	-7222
▁elder	-7223
▁ruled	-7224
▁sites	-7225
▁mathem	-7226
▁player	-7227
▁Collect	-7228
▁anticip	-7229
▁publish	-7230
▁marriages	-7231
▁regularly	-7232
▁impression	-7233
habilitation	-7234
ECH	-7235
abling	-7236
▁Benef	-7237
▁aband	-7238
▁heads	-7239
▁Punjabi	-7240
▁complaints	-7241
▁congratulate	-7242
▁Ren	-7243
▁jew	-7244
▁Kann	-7245
▁View	-7246
▁lock	-7247
aching	-7248
▁emerging	-7249
▁oriented	-7250
▁enforcement	-7251
ster	-7252
▁keen	-7253
▁synt	-7254
asions	-7255
▁Green	-7256
▁arriv	-7257
▁Allahabad	-7258
▁television	-7259
olic	-7260
urch	-7261
▁Sou	-7262
eenth	-7263
ulous	-7264
▁Five	-7265
▁Mang	-7266
▁sets	-7267
▁metal	-7268
▁Global	-7269
▁earned	-7270
▁ideals	-7271
▁switch	-7272
▁virtue	-7273
▁displayed	-7274
▁extensive	-7275
▁specifically	-7276
SS	-7277
lin	-7278
▁Nand	-7279
▁merg	-7280
▁alive	-7281
hemical	-7282
ishment	-7283
▁Create	-7284
▁Proper	-7285
▁Hindust	-7286
▁concess	-7287
▁rapidly	-7288
▁enl	-7289
▁Path	-7290
▁buff	-7291
▁gate	-7292
▁Never	-7293
▁revol	-7294
▁clothes	-7295
▁enterprises	-7296
▁operational	-7297
▁fly	-7298
▁unn	-7299
▁Lear	-7300
▁putting	-7301
▁paragraph	-7302
ald	-7303
inc	-7304
▁Date	-7305
▁encl	-7306
issions	-7307
▁mailing	-7308
▁organisms	-7309
▁monitoring	-7310
▁implementing	-7311
ida	-7312
▁Ir	-7313
comm	-7314
▁tou	-7315
orous	-7316
▁immun	-7317
▁roots	-7318
▁organs	-7319
▁imagine	-7320
▁islands	-7321
▁enhanced	-7322
▁interface	-7323
▁constantly	-7324
je	-7325
uf	-7326
exp	-7327
life	-7328
▁Sem	-7329
ureau	-7330
▁dear	-7331
▁pond	-7332
endous	-7333
▁empow	-7334
▁empire	-7335
▁sensitive	-7336
▁calculated	-7337
▁collective	-7338
aci	-7339
▁Nir	-7340
▁anc	-7341
▁Bach	-7342
▁flour	-7343
▁indigenous	-7344
▁translated	-7345
▁constructed	-7346
▁imagination	-7347
▁Bhut	-7348
▁marry	-7349
▁awards	-7350
▁depart	-7351
▁consolid	-7352
▁indicated	-7353
wide	-7354
▁Goa	-7355
rogen	-7356
▁bold	-7357
▁Empire	-7358
▁deliber	-7359
▁warrant	-7360
▁duration	-7361
▁depending	-7362
▁endeavour	-7363
ugu	-7364
▁Polit	-7365
▁wheat	-7366
▁entrusted	-7367
ste	-7368
isite	-7369
▁exem	-7370
istent	-7371
▁stick	-7372
▁combined	-7373
▁offering	-7374
▁replaced	-7375
▁generations	-7376
▁transportation	-7377
ua	-7378
▁Kor	-7379
▁Keep	-7380
▁worker	-7381
▁ordered	-7382
▁concerning	-7383
▁characteristic	-7384
chant	-7385
orious	-7386
▁models	-7387
▁chromos	-7388
▁reaching	-7389
▁newspapers	-7390
ns	-7391
▁Ray	-7392
▁Saudi	-7393
▁irres	-7394
▁lover	-7395
▁Recomm	-7396
▁dynamic	-7397
operation	-7398
▁comments	-7399
▁Ach	-7400
▁fab	-7401
▁fet	-7402
power	-7403
▁Arun	-7404
▁Govt	-7405
▁kidn	-7406
▁pair	-7407
▁thin	-7408
▁Patna	-7409
▁catch	-7410
▁cloud	-7411
▁desir	-7412
▁homes	-7413
▁royal	-7414
▁Chennai	-7415
amination	-7416
▁contrast	-7417
▁whenever	-7418
▁Sucharita	-7419
▁achieving	-7420
▁perfection	-7421
iam	-7422
unals	-7423
▁Hand	-7424
▁repeal	-7425
▁slowly	-7426
▁Current	-7427
▁fertiliz	-7428
▁organism	-7429
▁supplement	-7430
▁Departments	-7431
UN	-7432
▁MP	-7433
▁Arbit	-7434
▁Times	-7435
▁decre	-7436
▁empty	-7437
▁litig	-7438
▁Canada	-7439
▁divers	-7440
▁ending	-7441
▁Bahadur	-7442
▁selling	-7443
▁parallel	-7444
▁undertake	-7445
lied	-7446
▁Nob	-7447
ching	-7448
▁Check	-7449
▁prefer	-7450
▁settle	-7451
▁burning	-7452
▁library	-7453
▁readers	-7454
▁Constitu	-7455
▁Innovation	-7456
▁Luck	-7457
▁snow	-7458
▁wing	-7459
▁Penal	-7460
▁promise	-7461
▁resistance	-7462
lig	-7463
▁Mach	-7464
▁Local	-7465
itative	-7466
▁paying	-7467
▁Brahman	-7468
▁degrees	-7469
▁inclusive	-7470
▁Institutions	-7471
rh	-7472
dev	-7473
pex	-7474
▁Ste	-7475
▁bon	-7476
▁elev	-7477
▁Three	-7478
▁sixty	-7479
Os	-7480
iche	-7481
itan	-7482
kind	-7483
▁Bush	-7484
▁Card	-7485
▁irre	-7486
▁wages	-7487
▁eating	-7488
▁handic	-7489
▁listen	-7490
▁unfort	-7491
▁Majesty	-7492
▁factory	-7493
▁ultimate	-7494
▁everywhere	-7495
The	-7496
aem	-7497
addy	-7498
otal	-7499
▁rot	-7500
ective	-7501
▁inher	-7502
▁nerve	-7503
▁worry	-7504
▁Jewish	-7505
▁killing	-7506
▁routine	-7507
▁somebody	-7508
▁beneficial	-7509
▁IR	-7510
▁upl	-7511
▁vib	-7512
▁rose	-7513
▁Cannot	-7514
▁calling	-7515
▁defendant	-7516
ECT	-7517
▁Oh	-7518
▁pit	-7519
haust	-7520
▁unre	-7521
▁Access	-7522
▁helping	-7523
▁regards	-7524
JP	-7525
ela	-7526
isp	-7527
▁Na	-7528
stig	-7529
▁Stre	-7530
▁duly	-7531
▁zone	-7532
▁enorm	-7533
factory	-7534
▁Family	-7535
ruitment	-7536
▁earliest	-7537
▁extraord	-7538
▁historic	-7539
▁destroyed	-7540
▁requested	-7541
▁sustained	-7542
▁Foundation	-7543
▁necessarily	-7544
mad	-7545
▁map	-7546
▁Malay	-7547
▁wings	-7548
▁arises	-7549
▁condol	-7550
▁Leprosy	-7551
▁crucial	-7552
▁falling	-7553
▁executed	-7554
▁hundreds	-7555
▁collaboration	-7556
▁NG	-7557
anand	-7558
▁Terror	-7559
▁Washing	-7560
▁considering	-7561
▁shad	-7562
▁Click	-7563
▁auton	-7564
▁batsman	-7565
▁resolve	-7566
▁turning	-7567
▁colonial	-7568
ato	-7569
anth	-7570
just	-7571
oking	-7572
▁cord	-7573
eshwar	-7574
▁Sever	-7575
▁memor	-7576
▁suicide	-7577
▁corresponding	-7578
IP	-7579
OP	-7580
▁epic	-7581
TIONAL	-7582
urated	-7583
▁Young	-7584
▁grace	-7585
ictionary	-7586
▁audience	-7587
▁protected	-7588
HAR	-7589
irt	-7590
▁SE	-7591
wara	-7592
▁Get	-7593
▁Kav	-7594
▁icon	-7595
▁cruel	-7596
▁stars	-7597
▁tract	-7598
▁aircraft	-7599
▁stations	-7600
▁equivalent	-7601
orse	-7602
▁haz	-7603
ether	-7604
▁Cell	-7605
▁Love	-7606
istrar	-7607
athered	-7608
▁varied	-7609
▁decline	-7610
▁Consumer	-7611
▁entertain	-7612
▁competitive	-7613
▁inspiration	-7614
agra	-7615
▁Jos	-7616
▁Log	-7617
▁SPE	-7618
▁dow	-7619
▁Ayurved	-7620
▁alleged	-7621
▁evolved	-7622
▁prejudice	-7623
▁Investment	-7624
▁obligations	-7625
१४	-7626
bre	-7627
▁PS	-7628
aran	-7629
rete	-7630
▁Exc	-7631
▁Sil	-7632
utosh	-7633
▁Madh	-7634
▁Sign	-7635
▁Vish	-7636
▁scre	-7637
▁horiz	-7638
▁Soviet	-7639
▁defeat	-7640
▁tongue	-7641
▁genuine	-7642
▁returns	-7643
▁tribunal	-7644
▁interaction	-7645
enda	-7646
itya	-7647
ulus	-7648
▁Nic	-7649
▁Perm	-7650
ruddin	-7651
▁copies	-7652
▁Revenue	-7653
▁circuit	-7654
▁realize	-7655
▁Software	-7656
▁Prevention	-7657
aked	-7658
▁Bro	-7659
▁ICT	-7660
▁Que	-7661
▁RBI	-7662
▁Mahal	-7663
▁Treat	-7664
▁newly	-7665
▁illegal	-7666
▁healthcare	-7667
▁Directorate	-7668
▁exploitation	-7669
▁incorporated	-7670
hari	-7671
ariat	-7672
▁Maur	-7673
▁Forum	-7674
▁tasks	-7675
▁monthly	-7676
▁peaceful	-7677
▁terminal	-7678
▁commodities	-7679
▁DAY	-7680
▁dil	-7681
adation	-7682
▁farming	-7683
▁yesterday	-7684
▁derivative	-7685
▁ju	-7686
▁Save	-7687
▁hurt	-7688
orters	-7689
▁Truth	-7690
▁shock	-7691
▁taxes	-7692
▁satell	-7693
▁belongs	-7694
▁mistake	-7695
▁complain	-7696
▁multiply	-7697
▁regulation	-7698
▁consequence	-7699
▁hes	-7700
▁busy	-7701
▁wage	-7702
▁bread	-7703
▁faces	-7704
▁grain	-7705
▁denied	-7706
▁rememb	-7707
▁Nothing	-7708
▁weakness	-7709
▁Bangalore	-7710
▁generated	-7711
▁residence	-7712
▁scheduled	-7713
jun	-7714
atra	-7715
eches	-7716
▁blank	-7717
▁ruler	-7718
▁shift	-7719
▁finger	-7720
▁succeeded	-7721
▁composition	-7722
▁territories	-7723
▁conservation	-7724
▁Han	-7725
▁Has	-7726
nasty	-7727
▁boat	-7728
▁Ashok	-7729
▁alter	-7730
▁prayer	-7731
▁kilomet	-7732
▁Washington	-7733
▁artificial	-7734
▁supporting	-7735
▁PM	-7736
riev	-7737
▁USA	-7738
▁ice	-7739
▁Cast	-7740
▁Hall	-7741
▁Prab	-7742
▁pled	-7743
▁legit	-7744
▁Sheikh	-7745
▁Enterpr	-7746
▁devoted	-7747
▁injured	-7748
▁recognize	-7749
ymph	-7750
osted	-7751
▁dele	-7752
▁trek	-7753
▁tooth	-7754
▁button	-7755
▁simult	-7756
▁Several	-7757
▁prestig	-7758
▁serving	-7759
▁Moreover	-7760
aven	-7761
▁Sad	-7762
▁memb	-7763
▁pump	-7764
▁silk	-7765
▁urge	-7766
▁intim	-7767
▁lying	-7768
▁miles	-7769
▁spons	-7770
▁noticed	-7771
▁furnished	-7772
▁presentation	-7773
PTER	-7774
▁Bul	-7775
▁Rai	-7776
▁pest	-7777
▁Entry	-7778
ographic	-7779
▁feeding	-7780
▁intense	-7781
▁outlook	-7782
▁obtaining	-7783
ju	-7784
▁IV	-7785
▁IIT	-7786
▁aer	-7787
incial	-7788
▁shell	-7789
ections	-7790
▁summer	-7791
▁carries	-7792
▁partial	-7793
▁overcome	-7794
▁vehicles	-7795
▁tremendous	-7796
▁ultimately	-7797
hal	-7798
uma	-7799
▁Od	-7800
▁Sl	-7801
quar	-7802
igarh	-7803
▁Play	-7804
▁afraid	-7805
▁biggest	-7806
▁recover	-7807
▁Japanese	-7808
▁channels	-7809
▁Recommend	-7810
▁attracted	-7811
oma	-7812
etan	-7813
time	-7814
▁glad	-7815
▁brill	-7816
▁bigger	-7817
▁deduct	-7818
▁margin	-7819
▁winter	-7820
▁financing	-7821
▁references	-7822
▁CA	-7823
unch	-7824
oding	-7825
hibited	-7826
▁hidden	-7827
indranath	-7828
▁database	-7829
▁disorder	-7830
▁thorough	-7831
▁referring	-7832
▁Employment	-7833
▁frequently	-7834
▁substituted	-7835
CO	-7836
oda	-7837
▁lung	-7838
▁charm	-7839
▁maybe	-7840
▁client	-7841
▁innocent	-7842
▁relatives	-7843
▁stability	-7844
▁configuration	-7845
IM	-7846
ogy	-7847
rine	-7848
rous	-7849
what	-7850
oster	-7851
▁younger	-7852
▁Computer	-7853
▁agreements	-7854
ss	-7855
uri	-7856
▁gun	-7857
night	-7858
▁dict	-7859
▁intu	-7860
▁wave	-7861
▁Telugu	-7862
▁lawyers	-7863
▁theatre	-7864
▁Advocate	-7865
▁dramatic	-7866
▁characteristics	-7867
▁PD	-7868
▁Mess	-7869
atories	-7870
▁castes	-7871
▁holder	-7872
ribution	-7873
▁CHAPTER	-7874
▁assured	-7875
▁retired	-7876
▁inherent	-7877
▁Accordingly	-7878
▁AM	-7879
▁cum	-7880
▁sed	-7881
▁larva	-7882
▁Indira	-7883
▁organic	-7884
▁sending	-7885
▁exception	-7886
▁exercised	-7887
▁attachment	-7888
BC	-7889
asis	-7890
▁Vin	-7891
▁hal	-7892
▁loy	-7893
ecess	-7894
▁pool	-7895
▁vacc	-7896
▁Advis	-7897
▁contents	-7898
▁aggregate	-7899
▁varieties	-7900
▁legislature	-7901
▁ma	-7902
acle	-7903
awan	-7904
▁stup	-7905
▁Dwark	-7906
▁Action	-7907
▁governed	-7908
▁performing	-7909
ham	-7910
▁Ap	-7911
utch	-7912
▁Dam	-7913
▁Works	-7914
▁deity	-7915
▁penal	-7916
▁Speech	-7917
▁worshi	-7918
▁Centres	-7919
▁classical	-7920
▁exclusive	-7921
▁positions	-7922
▁punishable	-7923
ST	-7924
off	-7925
▁Ele	-7926
▁Hig	-7927
▁err	-7928
erals	-7929
irmed	-7930
▁Vide	-7931
▁genus	-7932
▁motiv	-7933
▁tells	-7934
▁Topics	-7935
▁Himalayas	-7936
▁discrimination	-7937
auc	-7938
▁La	-7939
▁Ans	-7940
▁Sea	-7941
etime	-7942
▁stom	-7943
▁fraud	-7944
entions	-7945
▁circle	-7946
▁attempts	-7947
▁profound	-7948
▁constitut	-7949
▁occasions	-7950
▁pregnancy	-7951
▁radiation	-7952
met	-7953
alli	-7954
uing	-7955
▁auth	-7956
liance	-7957
ricted	-7958
fulness	-7959
▁easier	-7960
▁fairly	-7961
▁gained	-7962
isha	-7963
▁Case	-7964
▁Indo	-7965
▁Pune	-7966
▁mood	-7967
▁loose	-7968
▁delete	-7969
▁thread	-7970
▁protocol	-7971
▁sanctioned	-7972
oult	-7973
▁fle	-7974
andra	-7975
being	-7976
▁Norm	-7977
ilding	-7978
▁Thank	-7979
▁closer	-7980
▁exhaust	-7981
▁pillars	-7982
▁profile	-7983
▁wherein	-7984
▁describe	-7985
cers	-7986
pent	-7987
wood	-7988
▁mil	-7989
ictions	-7990
▁partly	-7991
▁disqual	-7992
▁genetic	-7993
▁musical	-7994
▁abnormal	-7995
▁bacteria	-7996
▁Transport	-7997
▁increases	-7998
ador	-7999
▁Rat	-8000
▁Champ	-8001
lessness	-8002
▁extract	-8003
▁Hospital	-8004
▁precious	-8005
▁reducing	-8006
▁sequence	-8007
▁strongly	-8008
▁preferred	-8009
▁experienced	-8010
▁representing	-8011
▁extraordinary	-8012
▁Str	-8013
▁flo	-8014
▁row	-8015
akers	-8016
▁united	-8017
▁produces	-8018
▁institute	-8019
ios	-8020
▁Aur	-8021
ipped	-8022
ridge	-8023
▁Help	-8024
▁axis	-8025
ovable	-8026
▁Major	-8027
▁Nanak	-8028
▁Short	-8029
▁landl	-8030
▁gathered	-8031
▁payments	-8032
▁Ce	-8033
atis	-8034
ivek	-8035
▁Jam	-8036
▁recon	-8037
▁furnish	-8038
▁pronoun	-8039
▁Secondary	-8040
pa	-8041
law	-8042
xide	-8043
▁Vik	-8044
▁Patel	-8045
▁chest	-8046
▁SPEECH	-8047
▁farmer	-8048
▁metres	-8049
▁spring	-8050
▁cutting	-8051
▁doctors	-8052
▁seriously	-8053
▁integration	-8054
CH	-8055
tha	-8056
aved	-8057
down	-8058
coming	-8059
▁incap	-8060
▁turns	-8061
▁daniel	-8062
▁praise	-8063
▁anywhere	-8064
▁necessity	-8065
▁Gen	-8066
▁Agra	-8067
▁lands	-8068
▁magaz	-8069
▁norms	-8070
itarian	-8071
▁Senior	-8072
▁Islands	-8073
▁enjoyed	-8074
▁Electric	-8075
▁servants	-8076
▁acceptable	-8077
▁identification	-8078
odox	-8079
pura	-8080
▁fron	-8081
▁Gopal	-8082
▁Indeed	-8083
▁comprom	-8084
▁periods	-8085
▁modified	-8086
▁recording	-8087
▁realisation	-8088
uti	-8089
avas	-8090
gage	-8091
▁oxy	-8092
▁fails	-8093
▁plane	-8094
▁risks	-8095
▁Brahma	-8096
▁Session	-8097
▁bearing	-8098
olec	-8099
▁Dav	-8100
▁cad	-8101
lessly	-8102
▁bonds	-8103
▁cater	-8104
▁grave	-8105
▁lingu	-8106
▁inputs	-8107
▁pretty	-8108
liminary	-8109
▁Institution	-8110
▁establishing	-8111
bh	-8112
▁gap	-8113
itate	-8114
▁Prat	-8115
▁pace	-8116
isible	-8117
rative	-8118
▁inhab	-8119
▁wider	-8120
▁Netaji	-8121
▁engage	-8122
▁stones	-8123
▁adoption	-8124
▁reposted	-8125
▁acknowled	-8126
▁exceeding	-8127
▁programming	-8128
▁Vid	-8129
▁cance	-8130
▁mould	-8131
▁flight	-8132
lamation	-8133
▁walking	-8134
criptions	-8135
▁revealed	-8136
▁Promotion	-8137
▁indicates	-8138
▁interview	-8139
▁appreciation	-8140
yam	-8141
▁Wik	-8142
▁font	-8143
alysis	-8144
▁Print	-8145
▁fifth	-8146
▁forum	-8147
▁convicted	-8148
▁increasingly	-8149
▁Til	-8150
iders	-8151
▁Bureau	-8152
missions	-8153
▁darkness	-8154
▁BY	-8155
▁NS	-8156
▁SS	-8157
▁Six	-8158
▁vag	-8159
endix	-8160
▁Zone	-8161
▁plot	-8162
▁Relig	-8163
▁Third	-8164
▁Reform	-8165
▁Temple	-8166
▁remedy	-8167
▁acceler	-8168
▁windows	-8169
▁contacts	-8170
mat	-8171
▁eg	-8172
acing	-8173
▁Chal	-8174
▁Take	-8175
▁texts	-8176
▁uncle	-8177
▁genius	-8178
▁urgent	-8179
▁Manipur	-8180
▁assumed	-8181
▁Technical	-8182
▁ownership	-8183
▁Organization	-8184
uts	-8185
▁AN	-8186
aria	-8187
▁nin	-8188
ogram	-8189
▁Docu	-8190
▁mine	-8191
▁march	-8192
▁sheep	-8193
▁golden	-8194
▁imported	-8195
▁somewhat	-8196
▁Registrar	-8197
▁corporation	-8198
lor	-8199
bind	-8200
mans	-8201
eding	-8202
▁scrut	-8203
▁Academy	-8204
▁enquiry	-8205
▁reflected	-8206
▁villagers	-8207
▁restrictions	-8208
AND	-8209
atta	-8210
▁cul	-8211
alaya	-8212
herry	-8213
▁Narm	-8214
▁luck	-8215
▁kings	-8216
▁faster	-8217
▁stayed	-8218
▁driving	-8219
▁enlight	-8220
▁reserve	-8221
▁silence	-8222
▁compulsory	-8223
▁institutes	-8224
▁remembered	-8225
ino	-8226
oty	-8227
▁HT	-8228
▁Tour	-8229
▁calm	-8230
▁meal	-8231
atively	-8232
▁Lahore	-8233
▁Unable	-8234
▁devote	-8235
▁fabric	-8236
▁impose	-8237
▁silent	-8238
▁harmful	-8239
▁invalid	-8240
▁Contract	-8241
▁equation	-8242
▁continuing	-8243
UD	-8244
yr	-8245
zen	-8246
anti	-8247
▁cav	-8248
▁Paul	-8249
arency	-8250
▁clock	-8251
▁infer	-8252
▁lease	-8253
▁Bhutan	-8254
▁Swaraj	-8255
▁adults	-8256
▁perpet	-8257
▁silver	-8258
▁Lucknow	-8259
▁Quality	-8260
▁package	-8261
▁enabling	-8262
▁tourists	-8263
▁wherever	-8264
▁appreciate	-8265
▁encouraging	-8266
CP	-8267
erk	-8268
eta	-8269
using	-8270
▁spin	-8271
▁nodes	-8272
▁fought	-8273
▁hearts	-8274
▁preval	-8275
▁smooth	-8276
▁African	-8277
▁imports	-8278
▁pleased	-8279
▁premium	-8280
▁reserved	-8281
▁Badruddin	-8282
how	-8283
ahan	-8284
▁indu	-8285
▁Black	-8286
▁alien	-8287
▁brown	-8288
▁wheel	-8289
usively	-8290
▁Instead	-8291
▁stomach	-8292
akrishnan	-8293
▁literacy	-8294
▁describes	-8295
gi	-8296
oa	-8297
nic	-8298
opl	-8299
eals	-8300
▁Mrs	-8301
plate	-8302
▁Phot	-8303
▁push	-8304
lihood	-8305
▁Light	-8306
▁repay	-8307
ogether	-8308
▁Ganges	-8309
▁gentle	-8310
▁talent	-8311
▁careful	-8312
▁mankind	-8313
▁circular	-8314
▁province	-8315
▁eventually	-8316
▁complicated	-8317
▁fo	-8318
orce	-8319
archy	-8320
▁Sank	-8321
▁artist	-8322
▁precise	-8323
▁retirement	-8324
TP	-8325
ALL	-8326
hta	-8327
▁spr	-8328
▁Durga	-8329
▁posts	-8330
acharya	-8331
▁Valley	-8332
▁headed	-8333
▁valley	-8334
▁Without	-8335
▁answers	-8336
▁disturb	-8337
▁surgery	-8338
▁Islamists	-8339
▁practition	-8340
▁conventional	-8341
aras	-8342
unate	-8343
▁http	-8344
idency	-8345
▁acute	-8346
▁plain	-8347
▁vested	-8348
▁formula	-8349
▁aspirations	-8350
▁geographical	-8351
▁End	-8352
hical	-8353
omous	-8354
▁Radh	-8355
▁wire	-8356
▁feels	-8357
▁keeps	-8358
▁loved	-8359
▁merit	-8360
▁heaven	-8361
▁repair	-8362
▁unlike	-8363
▁Subhash	-8364
▁printing	-8365
ario	-8366
ouds	-8367
▁Chak	-8368
▁Hard	-8369
▁club	-8370
▁Agency	-8371
▁dreams	-8372
▁colleges	-8373
▁entering	-8374
▁inspection	-8375
▁bin	-8376
angle	-8377
avior	-8378
ipher	-8379
apping	-8380
employ	-8381
▁worse	-8382
▁browser	-8383
▁enormous	-8384
▁networks	-8385
▁algorithm	-8386
UB	-8387
arkar	-8388
stone	-8389
▁Care	-8390
▁idol	-8391
▁bears	-8392
▁bride	-8393
▁Federal	-8394
▁Product	-8395
▁Transfer	-8396
▁visiting	-8397
END	-8398
▁EX	-8399
isal	-8400
▁Mart	-8401
urning	-8402
essment	-8403
▁dissem	-8404
▁interpre	-8405
▁Inspector	-8406
▁intermedi	-8407
▁comprising	-8408
nagar	-8409
▁beach	-8410
▁begun	-8411
▁taste	-8412
▁batter	-8413
▁firmly	-8414
▁saving	-8415
iciently	-8416
▁advocate	-8417
▁CR	-8418
ulum	-8419
▁PAR	-8420
aming	-8421
ammed	-8422
ounder	-8423
▁Sahib	-8424
▁ought	-8425
▁handle	-8426
▁island	-8427
▁refund	-8428
▁licence	-8429
▁calendar	-8430
▁revision	-8431
▁nominated	-8432
▁observations	-8433
▁subsequently	-8434
apse	-8435
illy	-8436
ishra	-8437
▁Requ	-8438
▁Vict	-8439
ashion	-8440
▁Urban	-8441
▁Vivek	-8442
▁Bhagat	-8443
▁adding	-8444
▁native	-8445
▁complim	-8446
▁relates	-8447
▁Articles	-8448
▁mandatory	-8449
▁instituted	-8450
ffee	-8451
chers	-8452
person	-8453
▁brave	-8454
▁admission	-8455
pay	-8456
ESSAGE	-8457
▁retain	-8458
▁thinks	-8459
ifferent	-8460
▁Deposit	-8461
▁paramet	-8462
▁everybody	-8463
nal	-8464
▁NH	-8465
▁py	-8466
▁tor	-8467
▁Auro	-8468
▁Main	-8469
▁lake	-8470
▁tall	-8471
father	-8472
▁adjud	-8473
▁hotel	-8474
▁snake	-8475
▁resear	-8476
▁tribes	-8477
▁Display	-8478
▁exchanges	-8479
▁installation	-8480
१५	-8481
iac	-8482
wali	-8483
▁fan	-8484
▁gif	-8485
▁wed	-8486
itary	-8487
ivals	-8488
▁Area	-8489
▁Prim	-8490
▁bare	-8491
▁semi	-8492
itudes	-8493
▁Kabir	-8494
▁penet	-8495
▁Scient	-8496
▁Iranian	-8497
▁slightly	-8498
▁Ministries	-8499
▁membership	-8500
mo	-8501
rase	-8502
▁Hus	-8503
▁Oil	-8504
▁rat	-8505
▁Cost	-8506
▁cong	-8507
▁horn	-8508
ulates	-8509
▁depre	-8510
▁driven	-8511
▁nervous	-8512
▁actively	-8513
▁handling	-8514
▁presents	-8515
▁candidate	-8516
▁convinced	-8517
▁disability	-8518
▁stakeholders	-8519
ford	-8520
▁dies	-8521
▁hide	-8522
▁orth	-8523
▁rein	-8524
▁resc	-8525
▁tack	-8526
▁thro	-8527
▁Nation	-8528
▁massive	-8529
▁expanded	-8530
▁Americans	-8531
▁separately	-8532
▁gov	-8533
▁Next	-8534
▁hunt	-8535
▁Amrit	-8536
▁Verma	-8537
istence	-8538
▁Jagann	-8539
▁troops	-8540
▁download	-8541
▁elsewhere	-8542
▁obviously	-8543
▁residential	-8544
book	-8545
▁Vig	-8546
uliar	-8547
▁Down	-8548
▁Jews	-8549
▁amaz	-8550
▁tons	-8551
▁admit	-8552
▁speedy	-8553
▁MESSAGE	-8554
▁Windows	-8555
▁breeding	-8556
▁speeches	-8557
▁addresses	-8558
▁terrorists	-8559
UG	-8560
ba	-8561
rich	-8562
roid	-8563
▁aged	-8564
▁broke	-8565
▁Repeal	-8566
quarters	-8567
▁essence	-8568
▁keyboard	-8569
▁marginal	-8570
▁surprise	-8571
kal	-8572
▁Ba	-8573
▁cin	-8574
▁stem	-8575
▁Journ	-8576
▁abuse	-8577
▁crowd	-8578
▁butter	-8579
▁driver	-8580
▁struck	-8581
▁vessels	-8582
▁hardware	-8583
▁arguments	-8584
oz	-8585
AYS	-8586
asp	-8587
▁CL	-8588
antra	-8589
hesis	-8590
▁Band	-8591
▁Sidd	-8592
▁alcoh	-8593
▁Modern	-8594
▁oxygen	-8595
▁desktop	-8596
▁Resource	-8597
▁peculiar	-8598
▁Directors	-8599
▁Standards	-8600
▁preceding	-8601
▁violation	-8602
agn	-8603
adra	-8604
▁Azad	-8605
▁Math	-8606
▁Page	-8607
▁cogn	-8608
▁logic	-8609
▁Partic	-8610
▁confirm	-8611
▁players	-8612
▁dialogue	-8613
▁premises	-8614
▁sympathy	-8615
▁excessive	-8616
▁governing	-8617
▁ignorance	-8618
▁originally	-8619
▁rehabilitation	-8620
his	-8621
agues	-8622
▁Bhav	-8623
▁Spec	-8624
inking	-8625
▁india	-8626
▁noble	-8627
▁plate	-8628
▁agents	-8629
▁handed	-8630
resident	-8631
▁Gujarati	-8632
▁supplied	-8633
▁withdrawal	-8634
▁mit	-8635
▁Bhai	-8636
▁nose	-8637
ignment	-8638
▁Region	-8639
▁vulner	-8640
ospitals	-8641
▁acquire	-8642
▁Movement	-8643
▁minority	-8644
▁expertise	-8645
▁designated	-8646
▁Organisation	-8647
▁Environmental	-8648
airy	-8649
vara	-8650
will	-8651
▁Yoj	-8652
▁din	-8653
idity	-8654
▁Kish	-8655
▁Long	-8656
▁Grand	-8657
▁movie	-8658
▁assert	-8659
▁Pension	-8660
▁Respond	-8661
▁knowing	-8662
▁savings	-8663
sequently	-8664
▁finished	-8665
▁incidents	-8666
awn	-8667
▁AW	-8668
▁NE	-8669
hend	-8670
place	-8671
▁pock	-8672
theless	-8673
▁decimal	-8674
▁generate	-8675
▁overseas	-8676
▁occupation	-8677
▁formulation	-8678
BER	-8679
▁Ny	-8680
▁IPv	-8681
▁Kitt	-8682
▁Thir	-8683
▁arts	-8684
▁pion	-8685
acific	-8686
iceroy	-8687
roduct	-8688
▁adapt	-8689
▁films	-8690
▁optim	-8691
▁topic	-8692
▁quoted	-8693
▁Appeals	-8694
▁Teacher	-8695
▁tendency	-8696
▁relatively	-8697
lers	-8698
oven	-8699
▁Bri	-8700
▁lov	-8701
▁Citiz	-8702
▁Vedas	-8703
▁incom	-8704
▁shoot	-8705
▁breach	-8706
▁telling	-8707
▁broadcast	-8708
Cs	-8709
rue	-8710
▁Cho	-8711
▁bio	-8712
▁Imple	-8713
▁Level	-8714
▁Solar	-8715
▁evalu	-8716
▁holid	-8717
▁Design	-8718
▁Default	-8719
▁patterns	-8720
▁Cooperative	-8721
kim	-8722
anes	-8723
ighth	-8724
otism	-8725
▁jump	-8726
▁monu	-8727
▁glory	-8728
▁tests	-8729
▁ancest	-8730
▁kumari	-8731
▁lawyer	-8732
▁pursue	-8733
▁William	-8734
▁singing	-8735
▁Standard	-8736
▁cultures	-8737
▁monetary	-8738
orney	-8739
▁inqu	-8740
intend	-8741
▁domin	-8742
▁Center	-8743
▁protein	-8744
▁subsidy	-8745
▁utilised	-8746
▁Agreement	-8747
▁conducting	-8748
▁particulars	-8749
anim	-8750
aimed	-8751
amboo	-8752
▁Loan	-8753
▁shut	-8754
▁warn	-8755
abetes	-8756
▁Media	-8757
▁Branch	-8758
▁plains	-8759
▁affects	-8760
▁focused	-8761
▁protest	-8762
▁winning	-8763
▁engagement	-8764
ett	-8765
▁kh	-8766
▁Tib	-8767
▁Higher	-8768
▁planet	-8769
▁Commerce	-8770
▁occupied	-8771
▁schedule	-8772
▁communications	-8773
orry	-8774
▁sar	-8775
▁Sang	-8776
▁fract	-8777
▁rhyth	-8778
ologist	-8779
▁stable	-8780
▁breaking	-8781
▁machines	-8782
▁enhancing	-8783
▁tolerance	-8784
▁livelihood	-8785
▁determining	-8786
asures	-8787
▁Pract	-8788
▁usage	-8789
attered	-8790
▁Collector	-8791
▁concluded	-8792
▁empowered	-8793
▁absolutely	-8794
▁phenomenon	-8795
▁observation	-8796
▁modification	-8797
pes	-8798
▁Yam	-8799
▁isn	-8800
▁vii	-8801
▁Desp	-8802
▁Mean	-8803
▁shot	-8804
olving	-8805
▁Samaj	-8806
▁abdom	-8807
▁harmon	-8808
▁mineral	-8809
▁Appendix	-8810
▁Himalayan	-8811
▁Christians	-8812
▁compliance	-8813
▁prevention	-8814
▁approximately	-8815
EV	-8816
fe	-8817
▁Ek	-8818
nath	-8819
▁bug	-8820
▁lac	-8821
▁Mill	-8822
▁hung	-8823
▁acted	-8824
▁anger	-8825
▁assemb	-8826
▁couldn	-8827
▁viewed	-8828
▁vimana	-8829
▁writes	-8830
▁authors	-8831
▁cancell	-8832
▁insurer	-8833
▁mixture	-8834
▁Railways	-8835
▁Standing	-8836
▁preserve	-8837
log	-8838
▁SA	-8839
oure	-8840
▁EVE	-8841
rible	-8842
▁Bhar	-8843
▁Wild	-8844
▁clin	-8845
▁sake	-8846
▁arrive	-8847
▁freely	-8848
▁levied	-8849
▁Housing	-8850
▁Minimum	-8851
▁denomin	-8852
▁printer	-8853
▁announce	-8854
▁objection	-8855
▁delegation	-8856
raj	-8857
ugin	-8858
▁Hem	-8859
▁rab	-8860
▁Rece	-8861
akings	-8862
itated	-8863
ortion	-8864
▁Arabs	-8865
▁bones	-8866
▁sounds	-8867
▁visits	-8868
▁fashion	-8869
▁immovable	-8870
▁cooperative	-8871
thal	-8872
upee	-8873
▁voc	-8874
▁stip	-8875
ancies	-8876
▁Grant	-8877
▁Space	-8878
▁cease	-8879
▁genes	-8880
ramental	-8881
▁creates	-8882
▁ignored	-8883
▁revised	-8884
▁commerce	-8885
▁reserves	-8886
▁succession	-8887
.-	-8888
teen	-8889
▁nod	-8890
adequ	-8891
▁Type	-8892
▁Raman	-8893
▁Finally	-8894
▁Freedom	-8895
▁outcome	-8896
▁streams	-8897
▁attained	-8898
▁experiments	-8899
▁innovations	-8900
▁involvement	-8901
▁participants	-8902
aar	-8903
▁Dy	-8904
akur	-8905
acles	-8906
astri	-8907
onent	-8908
▁ages	-8909
▁Basic	-8910
▁perce	-8911
▁Status	-8912
▁Survey	-8913
▁humans	-8914
▁nearby	-8915
▁nobody	-8916
▁clauses	-8917
▁exclusively	-8918
▁preliminary	-8919
nut	-8920
▁Br	-8921
▁ha	-8922
▁sees	-8923
otions	-8924
oultry	-8925
ounded	-8926
▁reign	-8927
▁Forces	-8928
▁Museum	-8929
▁compan	-8930
▁Aurobind	-8931
▁believes	-8932
▁dimension	-8933
▁colleagues	-8934
▁imperialism	-8935
▁Constitutional	-8936
▁IF	-8937
▁Beg	-8938
▁Sult	-8939
▁chap	-8940
▁fond	-8941
▁palm	-8942
▁Video	-8943
▁abund	-8944
▁Prosec	-8945
▁equals	-8946
▁exceeds	-8947
▁federal	-8948
▁Question	-8949
▁attacked	-8950
▁judgments	-8951
▁qualified	-8952
▁personally	-8953
erge	-8954
lier	-8955
▁Lic	-8956
▁nest	-8957
▁void	-8958
▁chart	-8959
▁hyper	-8960
▁Sindhi	-8961
▁binding	-8962
▁missing	-8963
▁commodity	-8964
▁discovery	-8965
▁Dwarkanath	-8966
▁surrounded	-8967
ocy	-8968
apore	-8969
indra	-8970
▁Call	-8971
▁dish	-8972
▁molec	-8973
▁agenda	-8974
▁Subject	-8975
▁Viceroy	-8976
▁distant	-8977
▁enables	-8978
▁Chancell	-8979
▁separated	-8980
▁surrender	-8981
▁Integrated	-8982
▁electrical	-8983
▁capabilities	-8984
AK	-8985
UK	-8986
ENCE	-8987
aunt	-8988
vals	-8989
▁tum	-8990
▁unh	-8991
▁van	-8992
▁Conv	-8993
terior	-8994
urrent	-8995
▁Estab	-8996
▁magic	-8997
▁pestic	-8998
▁reward	-8999
▁destiny	-9000
▁realized	-9001
▁allocation	-9002
▁accommodation	-9003
DR	-9004
IST	-9005
osa	-9006
▁ul	-9007
emat	-9008
rawn	-9009
plant	-9010
ulses	-9011
▁Fest	-9012
▁Rani	-9013
▁outs	-9014
▁serves	-9015
▁conform	-9016
▁drought	-9017
▁dynasty	-9018
▁entries	-9019
▁NATIONAL	-9020
▁balanced	-9021
▁dividend	-9022
▁inferior	-9023
▁unemploy	-9024
▁limitations	-9025
▁perspective	-9026
var	-9027
chen	-9028
soon	-9029
▁Gar	-9030
▁Opt	-9031
▁kit	-9032
▁vex	-9033
▁suits	-9034
▁observe	-9035
▁submission	-9036
▁substances	-9037
▁Constituent	-9038
▁AR	-9039
acco	-9040
appa	-9041
eers	-9042
rosc	-9043
▁cha	-9044
▁Ocean	-9045
▁Plant	-9046
▁indul	-9047
▁reass	-9048
▁Sikkim	-9049
▁sharma	-9050
▁Singles	-9051
▁avoided	-9052
▁enemies	-9053
▁retained	-9054
▁wonderful	-9055
▁productive	-9056
▁restricted	-9057
▁intervention	-9058
▁Radhakrishnan	-9059
▁concentration	-9060
oub	-9061
▁Haz	-9062
▁Sab	-9063
▁Tom	-9064
▁gro	-9065
▁ped	-9066
aland	-9067
ulent	-9068
▁Sure	-9069
atious	-9070
▁Quran	-9071
▁Sikhs	-9072
▁spell	-9073
▁thrown	-9074
▁declare	-9075
▁vitamin	-9076
▁repealed	-9077
▁Aurobindo	-9078
▁safeguard	-9079
▁accounting	-9080
▁Secretariat	-9081
ki	-9082
das	-9083
▁AC	-9084
▁tap	-9085
agraha	-9086
charge	-9087
▁Reddy	-9088
▁storm	-9089
▁mining	-9090
▁estimate	-9091
▁preparing	-9092
▁consistent	-9093
▁reputation	-9094
PL	-9095
iah	-9096
▁BI	-9097
▁Os	-9098
lesh	-9099
▁Job	-9100
▁Pip	-9101
▁Soon	-9102
▁Star	-9103
▁actor	-9104
inarily	-9105
▁allied	-9106
▁estate	-9107
▁forgot	-9108
▁harass	-9109
▁insert	-9110
▁museum	-9111
▁forming	-9112
▁advances	-9113
▁extending	-9114
▁addressing	-9115
co	-9116
hor	-9117
ipp	-9118
▁MW	-9119
fare	-9120
idav	-9121
▁Gre	-9122
▁Jer	-9123
▁Greek	-9124
▁widow	-9125
ailable	-9126
▁Mobile	-9127
▁Airport	-9128
▁Russian	-9129
▁license	-9130
▁tissues	-9131
▁Mohammed	-9132
▁attractive	-9133
▁separation	-9134
▁Enc	-9135
▁Nam	-9136
▁Old	-9137
imony	-9138
▁Prop	-9139
ressal	-9140
▁brand	-9141
▁decree	-9142
▁grains	-9143
▁habits	-9144
▁Prakash	-9145
▁untouch	-9146
▁Protocol	-9147
▁suggests	-9148
▁photograph	-9149
OV	-9150
▁Ha	-9151
conn	-9152
tain	-9153
▁Guid	-9154
▁figh	-9155
▁peak	-9156
▁spir	-9157
wealth	-9158
▁Ahmad	-9159
▁flows	-9160
▁plural	-9161
▁entrance	-9162
▁Malayalam	-9163
▁cup	-9164
icing	-9165
▁Tool	-9166
▁hect	-9167
▁teleg	-9168
▁therm	-9169
▁tight	-9170
▁Should	-9171
▁bought	-9172
▁insult	-9173
▁tenant	-9174
▁toward	-9175
onscious	-9176
▁Abdullah	-9177
▁Ayurveda	-9178
▁chemicals	-9179
▁dismissed	-9180
▁prisoners	-9181
▁connections	-9182
▁Rabindranath	-9183
SA	-9184
bra	-9185
athi	-9186
valid	-9187
▁Fire	-9188
▁Full	-9189
▁beet	-9190
▁Vijay	-9191
▁favor	-9192
manship	-9193
▁Budget	-9194
▁Estate	-9195
▁deleted	-9196
▁desirable	-9197
▁Enterprises	-9198
▁#	-9199
rot	-9200
lock	-9201
onic	-9202
▁nurt	-9203
inions	-9204
stream	-9205
▁immig	-9206
▁assume	-9207
▁muscles	-9208
▁satisfy	-9209
▁skilled	-9210
▁judgement	-9211
▁grievances	-9212
▁inevitable	-9213
▁liberation	-9214
▁developmental	-9215
▁Sha	-9216
▁tow	-9217
▁tact	-9218
▁tiny	-9219
onomic	-9220
▁advent	-9221
▁therap	-9222
▁Library	-9223
▁manpower	-9224
▁surrounding	-9225
thi	-9226
tery	-9227
▁Dhan	-9228
▁Poly	-9229
▁degr	-9230
icable	-9231
▁helpl	-9232
ichever	-9233
▁Tribes	-9234
▁miscon	-9235
▁weapon	-9236
▁contrad	-9237
▁approaches	-9238
▁ho	-9239
ajan	-9240
obar	-9241
ques	-9242
▁bes	-9243
▁Camp	-9244
▁Gard	-9245
▁mart	-9246
ipping	-9247
▁foods	-9248
▁paddy	-9249
▁deaths	-9250
▁fraction	-9251
▁Territory	-9252
▁functional	-9253
TE	-9254
emen	-9255
▁Rate	-9256
enders	-9257
usions	-9258
▁width	-9259
▁Spirit	-9260
▁kidney	-9261
▁resemb	-9262
ificates	-9263
▁Install	-9264
▁Monitor	-9265
▁arrival	-9266
▁rendering	-9267
▁controversy	-9268
▁publications	-9269
▁Ib	-9270
▁Hit	-9271
▁Ris	-9272
araja	-9273
chron	-9274
▁Audio	-9275
▁Indus	-9276
▁Point	-9277
▁sport	-9278
▁deeper	-9279
▁legend	-9280
▁reiter	-9281
▁Pacific	-9282
▁streets	-9283
▁disaster	-9284
orticulture	-9285
▁Palestinians	-9286
jo	-9287
▁ji	-9288
▁Naz	-9289
▁hors	-9290
▁seiz	-9291
▁Koran	-9292
▁Menon	-9293
▁borne	-9294
▁ports	-9295
▁flying	-9296
▁Invalid	-9297
▁extends	-9298
▁lending	-9299
▁initially	-9300
▁collecting	-9301
▁psychological	-9302
eri	-9303
kha	-9304
sar	-9305
▁ov	-9306
▁Total	-9307
▁bench	-9308
▁doors	-9309
▁reads	-9310
▁......	-9311
▁Mahade	-9312
▁hatred	-9313
▁Turkish	-9314
▁exposed	-9315
▁Recovery	-9316
▁railways	-9317
▁highlight	-9318
▁indirectly	-9319
▁transmitted	-9320
ITY	-9321
▁VI	-9322
bery	-9323
isan	-9324
▁sul	-9325
liness	-9326
▁Audit	-9327
▁penis	-9328
▁Contin	-9329
▁deploy	-9330
▁patron	-9331
▁inadequ	-9332
▁interim	-9333
▁segment	-9334
▁romantic	-9335
▁Political	-9336
▁substantially	-9337
hik	-9338
opp	-9339
pons	-9340
▁Suf	-9341
point	-9342
▁Viet	-9343
▁Exper	-9344
▁Ident	-9345
▁Indra	-9346
▁Kanpur	-9347
▁laying	-9348
▁losses	-9349
▁anybody	-9350
▁funding	-9351
▁helpful	-9352
▁laboure	-9353
▁belonged	-9354
▁supports	-9355
▁responses	-9356
▁supramental	-9357
▁philosophical	-9358
cut	-9359
elt	-9360
kes	-9361
▁Ve	-9362
▁mac	-9363
oused	-9364
▁Jord	-9365
▁Mall	-9366
▁bulk	-9367
▁Arabia	-9368
▁specim	-9369
▁Manager	-9370
▁Upanish	-9371
▁cooking	-9372
▁festivals	-9373
▁spreading	-9374
▁whichever	-9375
▁Regulatory	-9376
▁Territories	-9377
▁shareholders	-9378
▁transparency	-9379
▁Did	-9380
▁Kath	-9381
▁ster	-9382
angers	-9383
▁Creat	-9384
▁ambit	-9385
▁Market	-9386
▁dialog	-9387
esthetic	-9388
▁Emperor	-9389
▁plastic	-9390
▁summary	-9391
▁Northern	-9392
▁coloured	-9393
▁possibly	-9394
▁studying	-9395
▁Palestine	-9396
▁fulfilled	-9397
▁countrymen	-9398
▁enthusiasm	-9399
▁simultaneously	-9400
ago	-9401
gra	-9402
▁Ten	-9403
roller	-9404
▁shout	-9405
viation	-9406
▁Father	-9407
▁oldest	-9408
▁videos	-9409
▁Despite	-9410
▁logical	-9411
▁warning	-9412
▁shoulder	-9413
▁incentives	-9414
▁mechanical	-9415
▁Infrastructure	-9416
sis	-9417
▁Ken	-9418
▁orn	-9419
ipedia	-9420
▁depri	-9421
▁shops	-9422
▁Yojana	-9423
▁eleven	-9424
chnology	-9425
▁Hamachi	-9426
▁Natural	-9427
▁appellate	-9428
▁dedication	-9429
▁prevailing	-9430
▁Regulations	-9431
▁explanation	-9432
▁strengthened	-9433
utra	-9434
▁Abs	-9435
▁tape	-9436
▁tied	-9437
▁unus	-9438
▁cryst	-9439
▁fright	-9440
▁Benefit	-9441
▁beliefs	-9442
▁Rajendra	-9443
▁Whatever	-9444
▁pregnant	-9445
▁intensity	-9446
▁transparent	-9447
MENT	-9448
▁aqu	-9449
iscal	-9450
▁stro	-9451
earing	-9452
▁irrit	-9453
▁photo	-9454
▁slope	-9455
▁tends	-9456
▁humble	-9457
▁shadow	-9458
▁splend	-9459
▁termin	-9460
▁thrust	-9461
▁Andaman	-9462
▁earthqu	-9463
▁reconst	-9464
▁secured	-9465
▁assessed	-9466
unications	-9467
▁brilliant	-9468
▁economies	-9469
▁protecting	-9470
vas	-9471
▁Vaj	-9472
ashed	-9473
▁Proc	-9474
▁Broad	-9475
▁virus	-9476
▁differ	-9477
▁treaty	-9478
ologists	-9479
▁allowing	-9480
▁regulate	-9481
▁Terrorism	-9482
▁envisaged	-9483
▁Examination	-9484
phal	-9485
▁Sit	-9486
cence	-9487
▁Link	-9488
isting	-9489
▁disag	-9490
▁mango	-9491
▁utmost	-9492
▁conspir	-9493
▁Community	-9494
▁Resources	-9495
▁prevalent	-9496
▁accessible	-9497
▁anniversary	-9498
▁irrespective	-9499
obi	-9500
▁moh	-9501
acular	-9502
▁Royal	-9503
▁Portug	-9504
▁camera	-9505
▁answered	-9506
▁concrete	-9507
▁orthodox	-9508
▁inaugurated	-9509
iki	-9510
▁Yus	-9511
▁apt	-9512
▁nit	-9513
▁tag	-9514
amese	-9515
aunch	-9516
▁Fact	-9517
▁Pack	-9518
▁Model	-9519
▁alarm	-9520
▁tears	-9521
▁anonym	-9522
▁crimes	-9523
▁grants	-9524
▁ceremon	-9525
▁introduce	-9526
▁provinces	-9527
▁withdrawn	-9528
▁incomplete	-9529
▁allegations	-9530
▁considerably	-9531
CA	-9532
▁NIT	-9533
▁Line	-9534
▁disb	-9535
▁epis	-9536
▁ling	-9537
▁mamm	-9538
ickets	-9539
▁Emerg	-9540
▁Clause	-9541
▁purity	-9542
▁Cricket	-9543
▁Manilal	-9544
▁coverage	-9545
▁expensive	-9546
▁inflation	-9547
cel	-9548
uta	-9549
ihad	-9550
look	-9551
riya	-9552
stan	-9553
▁Fre	-9554
holder	-9555
▁Khand	-9556
▁Queen	-9557
▁Tilak	-9558
▁moves	-9559
▁Banking	-9560
▁Details	-9561
▁prisoner	-9562
▁proceeds	-9563
▁rainfall	-9564
▁Evolution	-9565
▁affecting	-9566
▁gathering	-9567
▁proceeded	-9568
▁satellite	-9569
▁recruitment	-9570
▁respondents	-9571
▁interference	-9572
▁Run	-9573
▁fool	-9574
erving	-9575
▁Appro	-9576
▁admir	-9577
▁honey	-9578
▁talks	-9579
▁Jordan	-9580
▁voting	-9581
▁Conduct	-9582
▁Counsel	-9583
▁shelter	-9584
▁statute	-9585
▁computed	-9586
▁managing	-9587
▁Corporate	-9588
▁commencing	-9589
gon	-9590
occ	-9591
▁Bo	-9592
▁Lol	-9593
onged	-9594
rants	-9595
▁Real	-9596
▁chol	-9597
▁germ	-9598
▁Hamas	-9599
▁Staff	-9600
▁Excise	-9601
▁doubts	-9602
▁explos	-9603
▁extrem	-9604
▁reveal	-9605
▁Personal	-9606
▁demanded	-9607
▁Mas	-9608
▁vot	-9609
▁Yusuf	-9610
▁crude	-9611
▁Golden	-9612
▁clouds	-9613
▁tempor	-9614
▁alcohol	-9615
▁magnetic	-9616
▁considers	-9617
▁challenged	-9618
▁nationalism	-9619
iety	-9620
rued	-9621
▁lal	-9622
▁Best	-9623
▁Lake	-9624
▁neut	-9625
▁Saroj	-9626
▁remun	-9627
▁Within	-9628
▁lesser	-9629
▁Buddhism	-9630
▁Projects	-9631
▁discount	-9632
▁disposed	-9633
▁Europeans	-9634
▁basically	-9635
▁witnessed	-9636
▁Recommendation	-9637
yot	-9638
▁१६	-9639
▁VII	-9640
▁aug	-9641
utors	-9642
▁nice	-9643
▁games	-9644
edience	-9645
▁exempt	-9646
▁Digital	-9647
▁utility	-9648
▁formulated	-9649
▁statistics	-9650
▁significantly	-9651
ca	-9652
beh	-9653
TING	-9654
rypt	-9655
▁Bre	-9656
▁Fig	-9657
▁vel	-9658
▁Dhar	-9659
▁Kore	-9660
▁obsc	-9661
▁fourt	-9662
▁smart	-9663
ciences	-9664
▁Friend	-9665
▁Island	-9666
▁immort	-9667
▁Asutosh	-9668
▁nearest	-9669
▁suspect	-9670
▁touched	-9671
▁contempl	-9672
▁connecting	-9673
▁liabilities	-9674
▁Commonwealth	-9675
HT	-9676
▁Ku	-9677
▁Ru	-9678
▁NIOS	-9679
▁SHRI	-9680
▁uter	-9681
usalem	-9682
▁David	-9683
▁parad	-9684
icating	-9685
▁bamboo	-9686
▁dollar	-9687
▁Studies	-9688
▁behavior	-9689
▁membrane	-9690
▁Jerusalem	-9691
▁Judiciary	-9692
▁elephants	-9693
▁medicines	-9694
eda	-9695
rao	-9696
onds	-9697
▁Dou	-9698
▁ali	-9699
cetic	-9700
orthy	-9701
unath	-9702
▁lord	-9703
▁cheap	-9704
▁unexp	-9705
▁Almast	-9706
▁Follow	-9707
iliation	-9708
▁matches	-9709
▁monsoon	-9710
▁survive	-9711
▁acquaint	-9712
▁maturity	-9713
▁Selection	-9714
▁automatic	-9715
▁deposited	-9716
▁Revolution	-9717
▁administrator	-9718
▁Ber	-9719
▁Pall	-9720
▁Ragh	-9721
▁gest	-9722
urable	-9723
▁Mater	-9724
▁bliss	-9725
▁laugh	-9726
▁pharm	-9727
▁decent	-9728
▁emerge	-9729
▁hunger	-9730
▁seconds	-9731
▁Building	-9732
▁hospitals	-9733
▁recognise	-9734
▁conversation	-9735
▁professionals	-9736
MM	-9737
abu	-9738
osy	-9739
iyar	-9740
udra	-9741
▁SRI	-9742
▁Tat	-9743
▁rig	-9744
▁Fold	-9745
▁bell	-9746
▁drew	-9747
▁wake	-9748
▁Lolita	-9749
▁Prince	-9750
▁solemn	-9751
▁cluster	-9752
▁sincere	-9753
▁subsidi	-9754
▁linkages	-9755
▁elaborate	-9756
▁da	-9757
▁cod	-9758
▁Poll	-9759
▁Read	-9760
▁Sanj	-9761
▁agro	-9762
▁rear	-9763
▁guess	-9764
▁Govind	-9765
▁Shakti	-9766
▁consec	-9767
aughters	-9768
▁Sections	-9769
▁concepts	-9770
▁subjected	-9771
▁altogether	-9772
▁previously	-9773
▁notwithstanding	-9774
▁PW	-9775
ilee	-9776
▁Cond	-9777
▁Deep	-9778
▁SAYS	-9779
▁angry	-9780
▁mature	-9781
▁refuse	-9782
▁allotted	-9783
▁diabetes	-9784
▁helpless	-9785
MA	-9786
aga	-9787
aha	-9788
rus	-9789
aped	-9790
riers	-9791
▁lays	-9792
▁oath	-9793
▁Claim	-9794
▁enfor	-9795
▁cancel	-9796
▁guided	-9797
▁patent	-9798
▁plugin	-9799
▁presum	-9800
▁timely	-9801
▁typical	-9802
▁Property	-9803
▁watching	-9804
▁frequency	-9805
▁generating	-9806
▁legitimate	-9807
▁mechanisms	-9808
▁PL	-9809
arer	-9810
icts	-9811
▁Mis	-9812
apati	-9813
orate	-9814
▁Desh	-9815
▁Poet	-9816
▁fate	-9817
advant	-9818
▁Issue	-9819
▁embod	-9820
▁minim	-9821
▁relie	-9822
imental	-9823
▁Sultan	-9824
▁attach	-9825
▁worksh	-9826
▁Command	-9827
▁crossing	-9828
▁painting	-9829
▁residents	-9830
▁Electronics	-9831
uds	-9832
▁Gas	-9833
▁Vas	-9834
▁wet	-9835
▁Mant	-9836
▁jute	-9837
▁Griev	-9838
▁alloc	-9839
▁camel	-9840
itement	-9841
mitting	-9842
▁errors	-9843
▁affidav	-9844
▁dollars	-9845
▁daughters	-9846
▁imperative	-9847
▁nationalist	-9848
term	-9849
▁Sug	-9850
▁hol	-9851
▁hub	-9852
▁Sach	-9853
▁Sand	-9854
▁ears	-9855
▁kids	-9856
▁Medic	-9857
▁Radio	-9858
▁boost	-9859
▁Mishra	-9860
▁Object	-9861
▁cavity	-9862
▁credited	-9863
▁frequent	-9864
▁Governors	-9865
▁Singapore	-9866
▁recovered	-9867
▁restraint	-9868
▁Processing	-9869
▁quantities	-9870
▁regulatory	-9871
zing	-9872
▁Din	-9873
▁GDP	-9874
eling	-9875
▁Decl	-9876
▁cocon	-9877
▁lists	-9878
▁Chaluk	-9879
▁Kittur	-9880
▁Customs	-9881
▁conception	-9882
▁endeavours	-9883
bi	-9884
▁Ho	-9885
abil	-9886
▁Hyd	-9887
▁ray	-9888
ontal	-9889
▁Rich	-9890
▁pend	-9891
▁shed	-9892
▁Sinha	-9893
▁grade	-9894
▁upset	-9895
▁Sarasw	-9896
▁casual	-9897
▁themes	-9898
▁flowing	-9899
▁criteria	-9900
▁terrible	-9901
▁favourite	-9902
▁inclusion	-9903
▁capability	-9904
▁passengers	-9905
▁procedural	-9906
▁substitute	-9907
sa	-9908
JEE	-9909
olk	-9910
▁GN	-9911
inee	-9912
keep	-9913
▁RTI	-9914
venty	-9915
▁Frame	-9916
▁surve	-9917
▁tiger	-9918
▁Castes	-9919
▁curric	-9920
▁permits	-9921
▁Wikipedia	-9922
▁locations	-9923
▁testimony	-9924
▁Settlement	-9925
▁controlling	-9926
▁administered	-9927
▁characterized	-9928
oys	-9929
ATES	-9930
Tube	-9931
▁Pop	-9932
▁forb	-9933
illary	-9934
▁Activ	-9935
▁Paris	-9936
arkhand	-9937
▁advise	-9938
▁Primary	-9939
▁inspire	-9940
▁outward	-9941
▁tribute	-9942
unciation	-9943
▁subtract	-9944
▁treasure	-9945
▁Federation	-9946
▁assignment	-9947
▁complement	-9948
▁continuously	-9949
▁TH	-9950
omas	-9951
▁ISO	-9952
▁PDF	-9953
oresh	-9954
▁trop	-9955
▁hopes	-9956
▁midst	-9957
▁worst	-9958
▁Bhagav	-9959
▁Period	-9960
▁coffee	-9961
▁fallen	-9962
▁traged	-9963
olutions	-9964
▁critics	-9965
▁undergo	-9966
▁Chemical	-9967
▁minerals	-9968
▁validity	-9969
▁variable	-9970
▁Allowance	-9971
▁Arunachal	-9972
▁Panchayats	-9973
▁Electricity	-9974
anic	-9975
gged	-9976
▁Mys	-9977
▁Yog	-9978
▁lod	-9979
▁Based	-9980
▁Birth	-9981
▁Choose	-9982
▁Rajput	-9983
▁compos	-9984
▁crafts	-9985
▁Contact	-9986
▁instinct	-9987
▁mortgage	-9988
▁scenario	-9989
▁Provision	-9990
▁Tribunals	-9991
▁vexatious	-9992
▁describing	-9993
▁evaluation	-9994
▁philosopher	-9995
▁inflammation	-9996
IAN	-9997
ori	-9998
tier	-9999
unior	-10000
▁alph	-10001
akhand	-10002
▁Cross	-10003
▁diver	-10004
▁label	-10005
▁split	-10006
▁uncon	-10007
▁Amount	-10008
▁bitter	-10009
▁rarely	-10010
▁anxious	-10011
▁chamber	-10012
▁chronic	-10013
▁desires	-10014
▁volumes	-10015
▁Festival	-10016
▁respects	-10017
▁contracts	-10018
▁instances	-10019
▁negotiations	-10020
BS	-10021
uj	-10022
▁Ga	-10023
▁Ji	-10024
▁gh	-10025
idal	-10026
▁Bod	-10027
▁Gop	-10028
andum	-10029
icked	-10030
▁Bagh	-10031
▁Along	-10032
▁hindi	-10033
rection	-10034
uminous	-10035
▁Delete	-10036
▁invite	-10037
▁meters	-10038
▁Systems	-10039
▁receipts	-10040
▁Petroleum	-10041
otechnology	-10042
▁transformed	-10043
ky	-10044
ella	-10045
gence	-10046
▁dowry	-10047
▁ships	-10048
version	-10049
▁gender	-10050
▁Journal	-10051
▁upgrade	-10052
▁explains	-10053
▁invested	-10054
▁Establish	-10055
▁disadvant	-10056
▁factories	-10057
▁scientist	-10058
▁classified	-10059
▁threatened	-10060
▁satisfactory	-10061
hew	-10062
kin	-10063
▁Cha	-10064
▁LIN	-10065
▁Dutt	-10066
▁drum	-10067
arshan	-10068
▁Preet	-10069
urement	-10070
uscript	-10071
▁buying	-10072
▁descend	-10073
▁artistic	-10074
▁ministry	-10075
▁uncertain	-10076
▁Chandigarh	-10077
eps	-10078
▁Ut	-10079
pled	-10080
usha	-10081
▁SEL	-10082
▁SID	-10083
eline	-10084
▁Auto	-10085
▁Baba	-10086
▁Puri	-10087
▁Swed	-10088
▁merc	-10089
▁rand	-10090
ilance	-10091
▁lesson	-10092
▁passes	-10093
▁Kannada	-10094
▁Payment	-10095
▁heights	-10096
▁jointly	-10097
▁leaflet	-10098
▁thereto	-10099
▁Councils	-10100
▁devotees	-10101
▁predomin	-10102
▁worldwide	-10103
▁Arbitration	-10104
▁RA	-10105
andi	-10106
itic	-10107
ringe	-10108
rained	-10109
▁Prior	-10110
▁glaci	-10111
▁moist	-10112
▁Mysore	-10113
▁mirror	-10114
▁sample	-10115
▁welcom	-10116
economic	-10117
▁ascetic	-10118
▁conserv	-10119
▁taxation	-10120
▁confirmed	-10121
▁enactment	-10122
▁nutrition	-10123
▁advantages	-10124
▁biological	-10125
▁associations	-10126
▁Fa	-10127
▁HIV	-10128
▁Hum	-10129
▁Occ	-10130
▁brah	-10131
▁maid	-10132
▁soph	-10133
utical	-10134
▁Armed	-10135
▁Ghosh	-10136
▁cards	-10137
▁tries	-10138
▁interc	-10139
▁jewell	-10140
▁propri	-10141
▁abstract	-10142
▁controls	-10143
▁moderate	-10144
▁unnecess	-10145
▁advertise	-10146
▁confusion	-10147
▁deficiency	-10148
▁empowerment	-10149
▁entrepreneur	-10150
IAL	-10151
▁dir	-10152
ubilee	-10153
▁Compl	-10154
▁grows	-10155
▁mobil	-10156
▁rupee	-10157
▁misbeh	-10158
▁picked	-10159
▁Hanuman	-10160
▁Nicobar	-10161
▁YouTube	-10162
▁corrupt	-10163
▁insured	-10164
▁worried	-10165
▁Advisory	-10166
▁interact	-10167
▁receives	-10168
▁directors	-10169
▁paintings	-10170
▁teachings	-10171
▁authorized	-10172
▁compromise	-10173
agu	-10174
nty	-10175
▁Ke	-10176
▁dw	-10177
▁sq	-10178
▁vo	-10179
inar	-10180
mind	-10181
more	-10182
▁MUK	-10183
▁Miz	-10184
▁Very	-10185
▁Stock	-10186
▁ineff	-10187
istical	-10188
▁ignore	-10189
▁retail	-10190
▁artists	-10191
▁targets	-10192
▁everyday	-10193
▁intimate	-10194
▁stronger	-10195
▁perception	-10196
asts	-10197
imet	-10198
▁Hot	-10199
ercul	-10200
opard	-10201
▁Camb	-10202
▁cure	-10203
▁erad	-10204
▁Advoc	-10205
▁overw	-10206
▁confer	-10207
▁incomp	-10208
▁lasting	-10209
▁emotions	-10210
▁exposure	-10211
▁goodwill	-10212
▁promoted	-10213
▁apprehens	-10214
▁attempted	-10215
▁reporting	-10216
▁Literature	-10217
▁committees	-10218
▁comparison	-10219
▁parameters	-10220
▁sentiments	-10221
▁Consultation	-10222
▁connectivity	-10223
▁disabilities	-10224
▁Implementation	-10225
UT	-10226
OST	-10227
eem	-10228
▁Py	-10229
adhy	-10230
arus	-10231
fect	-10232
▁Cro	-10233
▁tun	-10234
pread	-10235
ropol	-10236
▁ease	-10237
▁intr	-10238
▁jack	-10239
▁keys	-10240
▁Guard	-10241
▁Incre	-10242
▁Oriya	-10243
▁waves	-10244
▁Aurang	-10245
▁buffal	-10246
▁injust	-10247
▁lowest	-10248
▁Tripura	-10249
▁torture	-10250
▁comprises	-10251
▁departure	-10252
▁intensive	-10253
▁fertilizers	-10254
▁substantive	-10255
▁participated	-10256
ANG	-10257
iat	-10258
▁Naw	-10259
vance	-10260
HERJEE	-10261
regular	-10262
▁absent	-10263
▁define	-10264
▁talked	-10265
▁offline	-10266
▁virtual	-10267
▁doctrine	-10268
▁magnific	-10269
▁resolved	-10270
▁surgical	-10271
▁welcomed	-10272
▁MUKHERJEE	-10273
▁vulnerable	-10274
▁intelligent	-10275
win	-10276
▁Ki	-10277
juna	-10278
vati	-10279
▁Nok	-10280
▁Teh	-10281
▁cel	-10282
▁Miss	-10283
▁Town	-10284
▁apex	-10285
▁ausp	-10286
▁enqu	-10287
▁Bhatt	-10288
▁calam	-10289
▁embry	-10290
▁pests	-10291
▁Church	-10292
▁purely	-10293
▁designs	-10294
▁traders	-10295
▁promised	-10296
▁impartial	-10297
▁listening	-10298
▁returning	-10299
▁fro	-10300
▁Edit	-10301
▁Srin	-10302
▁digit	-10303
▁dimin	-10304
▁grate	-10305
▁relax	-10306
▁argued	-10307
▁detect	-10308
▁Certain	-10309
▁existed	-10310
aceutical	-10311
▁mutually	-10312
▁preference	-10313
▁Uttarakhand	-10314
dar	-10315
▁Om	-10316
ifer	-10317
oria	-10318
▁Kaz	-10319
▁Ran	-10320
▁Unt	-10321
agari	-10322
▁Mich	-10323
▁Impro	-10324
▁smoke	-10325
▁surpl	-10326
▁astron	-10327
▁filter	-10328
intendent	-10329
▁borrower	-10330
▁defeated	-10331
▁dominant	-10332
▁excluded	-10333
▁electoral	-10334
▁expanding	-10335
▁publicity	-10336
▁Democratic	-10337
▁Guidelines	-10338
▁headquarters	-10339
ICE	-10340
born	-10341
onia	-10342
▁Had	-10343
▁eman	-10344
ioxide	-10345
▁Peace	-10346
▁liver	-10347
▁Thakur	-10348
▁grammar	-10349
▁revival	-10350
▁wearing	-10351
▁Sarojini	-10352
▁lectures	-10353
▁survival	-10354
▁visitors	-10355
▁aesthetic	-10356
▁medicinal	-10357
▁definitely	-10358
▁laboratory	-10359
vy	-10360
▁cm	-10361
amma	-10362
▁mud	-10363
▁ske	-10364
▁tob	-10365
innah	-10366
▁Film	-10367
▁Rang	-10368
▁batt	-10369
▁jung	-10370
▁hards	-10371
▁owing	-10372
▁honest	-10373
▁random	-10374
▁Gandhar	-10375
▁Indones	-10376
▁capture	-10377
▁colours	-10378
▁Production	-10379
▁privileges	-10380
▁Vivekananda	-10381
▁classification	-10382
▁CC	-10383
▁Imm	-10384
▁Wel	-10385
ignty	-10386
▁Mary	-10387
▁deed	-10388
▁tone	-10389
▁Mahav	-10390
▁dwell	-10391
▁mouse	-10392
▁Jaipur	-10393
▁Summit	-10394
▁viable	-10395
▁Offices	-10396
▁discont	-10397
▁Brahmins	-10398
▁landlord	-10399
▁Ahmedabad	-10400
▁breathing	-10401
▁interfere	-10402
▁narrative	-10403
▁Assistance	-10404
▁congratulated	-10405
▁accountability	-10406
alla	-10407
▁Bag	-10408
ceans	-10409
orted	-10410
▁Maul	-10411
▁impe	-10412
▁rocks	-10413
▁tired	-10414
reshold	-10415
▁Mandal	-10416
▁monkey	-10417
▁wooden	-10418
▁illiter	-10419
▁shifted	-10420
▁absorbed	-10421
▁equipped	-10422
▁opinions	-10423
▁justified	-10424
fortunately	-10425
▁Thereafter	-10426
▁Kas	-10427
marks	-10428
▁Decc	-10429
▁Does	-10430
▁User	-10431
verage	-10432
▁Would	-10433
▁nutri	-10434
▁quote	-10435
▁Poresh	-10436
▁coastal	-10437
▁explore	-10438
▁ranging	-10439
▁airports	-10440
▁overwhel	-10441
▁Societies	-10442
▁celebrate	-10443
▁Resolution	-10444
▁implications	-10445
▁relationships	-10446
GP	-10447
haz	-10448
▁Vr	-10449
▁XX	-10450
etus	-10451
rics	-10452
rose	-10453
▁Age	-10454
▁Mer	-10455
▁Mut	-10456
▁Pul	-10457
▁Sak	-10458
▁Upd	-10459
▁coin	-10460
▁modes	-10461
▁proxy	-10462
▁urine	-10463
▁Notice	-10464
▁contra	-10465
▁incons	-10466
▁sphere	-10467
▁borders	-10468
▁lecture	-10469
▁poultry	-10470
▁pursuit	-10471
▁tragedy	-10472
▁advocates	-10473
▁requiring	-10474
▁sovereign	-10475
▁pilgrimage	-10476
▁dissolution	-10477
▁practically	-10478
uct	-10479
▁OR	-10480
iest	-10481
▁Neg	-10482
ECTED	-10483
oning	-10484
water	-10485
▁Annex	-10486
▁decay	-10487
▁Jinnah	-10488
▁manual	-10489
▁subtle	-10490
▁instant	-10491
▁neglect	-10492
▁isolated	-10493
▁reliable	-10494
▁arbitrator	-10495
▁boundaries	-10496
▁exceptional	-10497
ARY	-10498
fly	-10499
rup	-10500
▁DV	-10501
▁UP	-10502
rass	-10503
rium	-10504
▁hem	-10505
TIONS	-10506
▁anth	-10507
▁vice	-10508
ulator	-10509
vation	-10510
assador	-10511
▁enters	-10512
▁endorse	-10513
▁thereon	-10514
▁sciences	-10515
▁inaugurate	-10516
▁scholarship	-10517
▁unfortunate	-10518
▁considerations	-10519
hin	-10520
olf	-10521
▁gn	-10522
fast	-10523
iven	-10524
roots	-10525
▁Prog	-10526
▁Prize	-10527
▁Ganesh	-10528
▁Krishn	-10529
▁ranges	-10530
▁inspect	-10531
▁lessons	-10532
▁rituals	-10533
▁graduate	-10534
▁mistakes	-10535
▁pleasant	-10536
▁supplies	-10537
▁engineers	-10538
▁manuscript	-10539
▁constructive	-10540
▁Unfortunately	-10541
EA	-10542
Is	-10543
OME	-10544
aki	-10545
▁Je	-10546
▁Mc	-10547
▁mm	-10548
alled	-10549
▁Moon	-10550
▁peas	-10551
▁quad	-10552
▁champ	-10553
▁trick	-10554
▁urged	-10555
holding	-10556
▁carved	-10557
▁plenty	-10558
▁Maximum	-10559
▁Reforms	-10560
▁painful	-10561
▁impressed	-10562
▁reception	-10563
▁businesses	-10564
▁compliment	-10565
▁imposition	-10566
▁correspondence	-10567
do	-10568
▁AL	-10569
▁Mic	-10570
▁Nig	-10571
anned	-10572
▁NGOs	-10573
▁cant	-10574
▁lots	-10575
ivided	-10576
▁Roman	-10577
▁artic	-10578
▁Thomas	-10579
▁affirm	-10580
▁cement	-10581
▁denial	-10582
▁Various	-10583
▁edition	-10584
▁magazine	-10585
▁Hindustan	-10586
▁Relations	-10587
▁literally	-10588
▁occurring	-10589
▁systematic	-10590
RU	-10591
TA	-10592
zil	-10593
▁Ast	-10594
▁Kat	-10595
arted	-10596
▁Nare	-10597
▁Send	-10598
▁Vers	-10599
▁zeal	-10600
▁globe	-10601
▁rains	-10602
▁aftern	-10603
▁legacy	-10604
▁marine	-10605
▁insight	-10606
▁Partners	-10607
▁imposing	-10608
▁investor	-10609
▁Advocates	-10610
▁respected	-10611
▁somewhere	-10612
▁apparently	-10613
▁celebrations	-10614
▁depreciation	-10615
isans	-10616
▁Left	-10617
▁Venk	-10618
▁pupp	-10619
▁ware	-10620
teenth	-10621
▁Manik	-10622
▁merits	-10623
▁senses	-10624
▁Connect	-10625
▁battery	-10626
▁Nagaland	-10627
▁Sciences	-10628
▁applying	-10629
▁honoured	-10630
▁Marketing	-10631
▁injustice	-10632
▁sponsored	-10633
▁Principles	-10634
▁acknowledge	-10635
▁denominator	-10636
▁supervision	-10637
▁participating	-10638
bo	-10639
uan	-10640
idas	-10641
orph	-10642
wing	-10643
▁Ask	-10644
▁gang	-10645
leness	-10646
venues	-10647
▁accur	-10648
▁dates	-10649
▁smell	-10650
▁presently	-10651
▁prevented	-10652
organisation	-10653
HI	-10654
PCL	-10655
cho	-10656
ito	-10657
iban	-10658
▁Tea	-10659
▁uphe	-10660
▁annum	-10661
▁cough	-10662
▁Pandey	-10663
▁Jharkhand	-10664
▁signature	-10665
▁dimensions	-10666
▁popularity	-10667
▁thoroughly	-10668
▁Cooperation	-10669
▁advancement	-10670
▁possibilities	-10671
DM	-10672
▁DR	-10673
pass	-10674
▁AID	-10675
▁Tre	-10676
▁gaz	-10677
▁grav	-10678
▁puts	-10679
▁canal	-10680
▁haven	-10681
▁ninet	-10682
▁ranks	-10683
▁pollut	-10684
▁stores	-10685
▁transf	-10686
▁trends	-10687
▁Nanalal	-10688
▁commend	-10689
▁tobacco	-10690
▁glorious	-10691
▁ideology	-10692
▁obstruct	-10693
▁sentences	-10694
▁१७	-10695
aryn	-10696
ayya	-10697
owing	-10698
▁Mong	-10699
▁bask	-10700
▁bore	-10701
▁deer	-10702
▁firms	-10703
▁sperm	-10704
▁votes	-10705
▁Deccan	-10706
ursement	-10707
▁damages	-10708
▁nursing	-10709
idespread	-10710
▁findings	-10711
▁Employees	-10712
▁continent	-10713
▁requisite	-10714
▁suspended	-10715
▁reservation	-10716
IME	-10717
hot	-10718
ATED	-10719
osph	-10720
otee	-10721
plex	-10722
▁Bij	-10723
▁swim	-10724
ealand	-10725
ushing	-10726
▁Nokia	-10727
▁Narmad	-10728
▁blocks	-10729
▁horses	-10730
▁lights	-10731
▁sensit	-10732
▁worthy	-10733
▁Consolid	-10734
▁Remember	-10735
▁measured	-10736
▁Automatic	-10737
▁Socialist	-10738
▁disturbed	-10739
was	-10740
▁Fe	-10741
▁NC	-10742
babu	-10743
▁ric	-10744
▁umb	-10745
avati	-10746
ieval	-10747
▁Init	-10748
▁hier	-10749
▁reck	-10750
▁Image	-10751
▁coins	-10752
▁monop	-10753
▁Street	-10754
▁Yamuna	-10755
▁larvae	-10756
▁Schemes	-10757
▁Vietnam	-10758
▁coconut	-10759
▁ethical	-10760
endranath	-10761
▁declined	-10762
▁militant	-10763
▁telecomm	-10764
▁vertical	-10765
▁afternoon	-10766
▁particles	-10767
▁purchased	-10768
▁realistic	-10769
▁secretary	-10770
▁Programmes	-10771
▁strategies	-10772
▁travelling	-10773
▁sovereignty	-10774
▁acknowledged	-10775
▁laboratories	-10776
▁qualifications	-10777
LA	-10778
URE	-10779
▁Ud	-10780
hesh	-10781
unct	-10782
▁Gal	-10783
▁Opp	-10784
▁une	-10785
tered	-10786
▁Kesh	-10787
▁PRAN	-10788
▁Till	-10789
▁Veda	-10790
▁amid	-10791
▁onto	-10792
▁unsu	-10793
▁honor	-10794
▁lotus	-10795
▁stret	-10796
▁Others	-10797
▁Safety	-10798
▁unfair	-10799
▁vessel	-10800
▁walked	-10801
▁contest	-10802
erculosis	-10803
▁Himalaya	-10804
▁refugees	-10805
▁removing	-10806
▁scrutiny	-10807
▁Extension	-10808
▁emergence	-10809
▁underlying	-10810
aph	-10811
kay	-10812
urd	-10813
▁PP	-10814
bhai	-10815
▁Pas	-10816
itius	-10817
olent	-10818
▁pand	-10819
▁rope	-10820
▁wars	-10821
▁eager	-10822
▁embar	-10823
▁Sports	-10824
▁pledge	-10825
▁strive	-10826
▁Perform	-10827
▁captured	-10828
▁distress	-10829
▁Monitoring	-10830
▁guaranteed	-10831
▁circulation	-10832
▁BO	-10833
brid	-10834
ille	-10835
▁Squ	-10836
alian	-10837
amble	-10838
igned	-10839
▁Club	-10840
▁Pant	-10841
▁lion	-10842
onents	-10843
utable	-10844
▁chick	-10845
▁liked	-10846
▁steady	-10847
▁dioxide	-10848
▁reaches	-10849
▁startup	-10850
▁travelled	-10851
▁reflection	-10852
▁Educational	-10853
eph	-10854
itz	-10855
▁Pow	-10856
▁fer	-10857
lings	-10858
itious	-10859
▁Syria	-10860
▁cadre	-10861
▁panch	-10862
▁ceased	-10863
▁comply	-10864
▁repeat	-10865
▁Lakshmi	-10866
▁rightly	-10867
▁earnings	-10868
▁shortage	-10869
▁abolition	-10870
▁irregular	-10871
▁conspiracy	-10872
▁ordinarily	-10873
▁verification	-10874
bat	-10875
▁OS	-10876
five	-10877
▁Bez	-10878
▁Put	-10879
▁Ver	-10880
▁lep	-10881
▁nic	-10882
payee	-10883
▁Amit	-10884
▁Come	-10885
▁Priy	-10886
▁gran	-10887
▁tang	-10888
▁wasn	-10889
▁Large	-10890
▁deeds	-10891
▁grief	-10892
▁lymph	-10893
▁queen	-10894
▁trium	-10895
ipation	-10896
▁babies	-10897
▁bodily	-10898
▁indian	-10899
▁infant	-10900
▁mighty	-10901
▁powder	-10902
umerable	-10903
▁kitchen	-10904
▁reverse	-10905
▁shrines	-10906
▁Register	-10907
▁producer	-10908
▁Provinces	-10909
▁enjoyment	-10910
▁grievance	-10911
▁labourers	-10912
▁relevance	-10913
▁Australian	-10914
▁linguistic	-10915
▁widespread	-10916
uda	-10917
▁VA	-10918
▁pa	-10919
ball	-10920
soft	-10921
▁ups	-10922
pring	-10923
▁Kaur	-10924
▁Unic	-10925
▁butt	-10926
ensing	-10927
▁dread	-10928
▁Pratap	-10929
▁cosmic	-10930
▁regret	-10931
▁speaks	-10932
▁Mizoram	-10933
▁beloved	-10934
▁sisters	-10935
▁accorded	-10936
▁delicate	-10937
▁Emergency	-10938
▁Mauritius	-10939
▁surprised	-10940
▁impressive	-10941
▁surprising	-10942
▁certificates	-10943
appy	-10944
oler	-10945
▁Mos	-10946
▁jaw	-10947
▁kap	-10948
▁nas	-10949
▁ven	-10950
▁Sudd	-10951
▁James	-10952
▁Youth	-10953
▁angle	-10954
▁tenure	-10955
▁compens	-10956
▁founder	-10957
▁superst	-10958
▁conclude	-10959
▁deciding	-10960
▁infected	-10961
▁kilogram	-10962
▁spending	-10963
▁accepting	-10964
▁correctly	-10965
▁diplomatic	-10966
▁disappoint	-10967
▁fulfilment	-10968
▁safeguards	-10969
▁variations	-10970
▁disciplinary	-10971
TR	-10972
di	-10973
▁q	-10974
rix	-10975
▁MC	-10976
okes	-10977
▁Jur	-10978
▁CALL	-10979
erated	-10980
▁Early	-10981
▁drain	-10982
▁meets	-10983
▁spont	-10984
▁copper	-10985
▁fiscal	-10986
appropri	-10987
ographer	-10988
▁density	-10989
▁earning	-10990
▁oneness	-10991
▁seventy	-10992
▁surplus	-10993
▁strictly	-10994
▁Meanwhile	-10995
▁decorated	-10996
▁disappear	-10997
▁jewellery	-10998
▁pursuance	-10999
▁valuation	-11000
▁attraction	-11001
▁territorial	-11002
▁utilization	-11003
agg	-11004
▁Si	-11005
kara	-11006
▁Nay	-11007
▁imb	-11008
▁pix	-11009
enger	-11010
▁IRDA	-11011
▁awak	-11012
▁Value	-11013
▁guest	-11014
▁veter	-11015
▁infect	-11016
▁divorce	-11017
▁prayers	-11018
▁quantum	-11019
▁reflects	-11020
▁verified	-11021
▁creatures	-11022
▁socialism	-11023
▁comfortable	-11024
▁Distribution	-11025
WA	-11026
gic	-11027
appe	-11028
flow	-11029
udal	-11030
▁sty	-11031
aders	-11032
▁AIDS	-11033
▁Dise	-11034
▁Jail	-11035
▁Navy	-11036
▁murd	-11037
▁spots	-11038
▁sulph	-11039
▁Brahmo	-11040
▁Sankara	-11041
▁cabinet	-11042
▁crossed	-11043
▁devotee	-11044
▁holders	-11045
▁hostile	-11046
▁passive	-11047
▁somehow	-11048
▁sessions	-11049
▁Premchand	-11050
▁Saraswati	-11051
▁Institutes	-11052
▁adjustment	-11053
▁favourable	-11054
▁prohibited	-11055
▁Convocation	-11056
▁governmental	-11057
bly	-11058
ishe	-11059
▁FIR	-11060
▁Nas	-11061
▁muc	-11062
cular	-11063
iwari	-11064
▁Gaza	-11065
▁suck	-11066
▁Bhagw	-11067
▁smile	-11068
▁mosque	-11069
▁oceans	-11070
▁relate	-11071
▁seized	-11072
▁filling	-11073
▁joining	-11074
▁Vajpayee	-11075
▁sentiment	-11076
▁transition	-11077
▁appointments	-11078
mas	-11079
olu	-11080
▁Suk	-11081
▁ard	-11082
▁bid	-11083
astra	-11084
▁Subs	-11085
▁lone	-11086
▁prin	-11087
▁BIHAR	-11088
▁alike	-11089
▁Ananda	-11090
▁makers	-11091
▁centers	-11092
▁damaged	-11093
▁inhabit	-11094
▁unusual	-11095
▁warming	-11096
▁insisted	-11097
▁interven	-11098
▁socialist	-11099
▁autonomous	-11100
▁unexpected	-11101
▁economically	-11102
▁expectations	-11103
▁manufacturers	-11104
anz	-11105
pus	-11106
▁Ep	-11107
▁Hol	-11108
▁Rub	-11109
▁Sym	-11110
adian	-11111
arshi	-11112
rious	-11113
▁gene	-11114
▁glob	-11115
▁harb	-11116
▁pink	-11117
asaheb	-11118
▁Chann	-11119
▁Color	-11120
▁Draft	-11121
▁Joshi	-11122
▁dying	-11123
▁excav	-11124
▁Harish	-11125
▁invent	-11126
▁minded	-11127
▁Forward	-11128
▁gardens	-11129
▁boundary	-11130
▁deprived	-11131
▁fourteen	-11132
▁Universal	-11133
▁accidents	-11134
▁agitation	-11135
▁delighted	-11136
▁identical	-11137
▁cultivated	-11138
▁meaningful	-11139
▁permanently	-11140
ii	-11141
untu	-11142
▁Gok	-11143
▁Try	-11144
▁Was	-11145
haran	-11146
▁LINK	-11147
▁alia	-11148
▁amen	-11149
▁cock	-11150
arding	-11151
ishers	-11152
▁Leave	-11153
▁Meher	-11154
▁Pipes	-11155
▁lakes	-11156
▁tales	-11157
▁Config	-11158
▁analys	-11159
▁defect	-11160
▁racial	-11161
▁Message	-11162
▁Zealand	-11163
▁auction	-11164
▁peasant	-11165
▁restore	-11166
▁Highness	-11167
▁prestige	-11168
▁Microsoft	-11169
▁professor	-11170
▁conscience	-11171
▁physically	-11172
▁publishing	-11173
▁structural	-11174
si	-11175
ORE	-11176
anqu	-11177
azar	-11178
ctor	-11179
emia	-11180
▁FDI	-11181
▁Ish	-11182
▁Nal	-11183
acter	-11184
▁Body	-11185
▁bits	-11186
▁Nobel	-11187
▁crack	-11188
▁nemat	-11189
▁Wealth	-11190
▁foster	-11191
▁marble	-11192
▁ninety	-11193
▁solved	-11194
▁weekly	-11195
▁readily	-11196
▁Amritsar	-11197
▁confront	-11198
▁founding	-11199
▁disciples	-11200
▁approached	-11201
▁influences	-11202
▁invitation	-11203
▁sculptures	-11204
▁demonstrated	-11205
▁translations	-11206
opy	-11207
▁Gir	-11208
▁Pot	-11209
▁pin	-11210
▁sap	-11211
arama	-11212
ifier	-11213
▁Anti	-11214
▁hole	-11215
▁impr	-11216
▁sung	-11217
▁Maybe	-11218
▁dense	-11219
▁shame	-11220
▁PRANAB	-11221
▁Remote	-11222
▁Goddess	-11223
▁ceiling	-11224
▁females	-11225
▁harness	-11226
▁vibrant	-11227
roductive	-11228
▁securing	-11229
▁Champions	-11230
▁Generally	-11231
▁greatness	-11232
▁neighbours	-11233
▁scriptures	-11234
▁realization	-11235
GR	-11236
Ind	-11237
ayat	-11238
▁Den	-11239
inous	-11240
isive	-11241
▁Hill	-11242
▁bind	-11243
▁cher	-11244
▁coat	-11245
▁desc	-11246
alinga	-11247
atical	-11248
olence	-11249
▁Prabh	-11250
▁breat	-11251
▁capac	-11252
▁manip	-11253
▁score	-11254
▁sorry	-11255
▁verte	-11256
▁warri	-11257
▁Always	-11258
▁revolt	-11259
ciliation	-11260
▁peripher	-11261
▁segments	-11262
▁disclosed	-11263
▁processed	-11264
▁sanitation	-11265
▁electronics	-11266
▁accomplished	-11267
yard	-11268
▁Bay	-11269
▁DAC	-11270
ersed	-11271
ishad	-11272
ocity	-11273
▁Drug	-11274
▁Host	-11275
▁fame	-11276
▁hate	-11277
▁wand	-11278
▁Dharm	-11279
▁acres	-11280
▁resid	-11281
iliated	-11282
▁admire	-11283
▁exempl	-11284
▁humour	-11285
▁seller	-11286
▁weaker	-11287
▁corners	-11288
▁fulfill	-11289
▁seventh	-11290
▁tension	-11291
▁immortal	-11292
▁improper	-11293
▁operated	-11294
▁Democracy	-11295
▁exclusion	-11296
▁Presidency	-11297
▁subsidiary	-11298
▁worshipped	-11299
▁politicians	-11300
▁practitioner	-11301
▁manifestation	-11302
sp	-11303
uis	-11304
aine	-11305
▁Syn	-11306
itime	-11307
▁Ranj	-11308
▁quot	-11309
▁worn	-11310
asagar	-11311
udence	-11312
▁Leban	-11313
▁SIDBI	-11314
▁Saint	-11315
▁spray	-11316
▁colors	-11317
▁revers	-11318
▁throat	-11319
▁unanim	-11320
▁closing	-11321
▁staying	-11322
▁Southern	-11323
▁Gandharva	-11324
▁assurance	-11325
▁municipal	-11326
▁transcend	-11327
▁Declaration	-11328
▁intercourse	-11329
▁restriction	-11330
▁manufactured	-11331
▁neighbouring	-11332
stru	-11333
▁Dra	-11334
▁Niz	-11335
erves	-11336
field	-11337
uated	-11338
▁curs	-11339
▁tune	-11340
mother	-11341
oubted	-11342
▁Price	-11343
▁Varma	-11344
▁Vrind	-11345
▁erect	-11346
▁overr	-11347
▁procl	-11348
▁Folder	-11349
▁tested	-11350
▁throne	-11351
appeared	-11352
▁Machine	-11353
▁assault	-11354
▁dropped	-11355
▁leather	-11356
▁signals	-11357
▁triumph	-11358
▁Whenever	-11359
▁immunity	-11360
▁quarters	-11361
▁spectrum	-11362
▁Vaishnava	-11363
▁intestine	-11364
▁preserved	-11365
▁sentenced	-11366
▁Securities	-11367
▁earthquake	-11368
▁appreciated	-11369
▁collections	-11370
▁permissible	-11371
gal	-11372
cket	-11373
rage	-11374
▁Cam	-11375
▁Lax	-11376
▁lin	-11377
▁Amar	-11378
▁Mexic	-11379
▁cable	-11380
lements	-11381
▁County	-11382
▁Remove	-11383
▁invari	-11384
▁mystic	-11385
▁robust	-11386
▁sevent	-11387
▁varies	-11388
▁wicket	-11389
▁Belarus	-11390
▁Culture	-11391
▁Tourism	-11392
▁Comments	-11393
▁Mohammad	-11394
▁Philosop	-11395
▁SELECTED	-11396
▁passenger	-11397
▁possessed	-11398
▁misconduct	-11399
▁complainant	-11400
▁introducing	-11401
▁utilisation	-11402
▁Superintendent	-11403
ahu	-11404
▁Qa	-11405
▁Tim	-11406
▁tit	-11407
▁Insp	-11408
▁conj	-11409
▁trip	-11410
▁assim	-11411
▁frank	-11412
▁jihad	-11413
▁overt	-11414
▁steam	-11415
▁tenth	-11416
▁cinema	-11417
▁intens	-11418
▁saints	-11419
▁emperor	-11420
▁symbols	-11421
▁Teachers	-11422
▁Portugues	-11423
▁condemned	-11424
▁producers	-11425
▁Jagannatha	-11426
▁afterwards	-11427
▁disclosure	-11428
▁specialized	-11429
bir	-11430
▁pp	-11431
eros	-11432
▁Pap	-11433
ampur	-11434
scape	-11435
state	-11436
▁Ball	-11437
▁guru	-11438
rishna	-11439
▁Kalam	-11440
▁Purch	-11441
▁flesh	-11442
▁spark	-11443
▁Nagpur	-11444
▁hazard	-11445
▁Acharya	-11446
▁checked	-11447
▁issuing	-11448
▁predict	-11449
▁quarrel	-11450
eneration	-11451
▁Intellig	-11452
▁assisted	-11453
▁reviewed	-11454
▁wildlife	-11455
▁adventure	-11456
▁arbitrary	-11457
▁undivided	-11458
▁exceptions	-11459
▁pesticides	-11460
▁constitutes	-11461
▁expressions	-11462
▁unconscious	-11463
▁reconstruction	-11464
OD	-11465
oea	-11466
cipl	-11467
cive	-11468
idth	-11469
nage	-11470
amind	-11471
ounce	-11472
▁Conc	-11473
▁Saha	-11474
▁epid	-11475
hatkar	-11476
▁Desai	-11477
▁Labor	-11478
▁inequ	-11479
▁poore	-11480
▁sixth	-11481
▁motive	-11482
▁rubber	-11483
▁ensured	-11484
▁threats	-11485
izational	-11486
▁decrease	-11487
▁Statement	-11488
▁petitions	-11489
▁allowances	-11490
▁chromosomes	-11491
▁measurement	-11492
▁researchers	-11493
▁occasionally	-11494
oul	-11495
▁EC	-11496
▁na	-11497
amba	-11498
iser	-11499
zone	-11500
▁Say	-11501
▁WOR	-11502
▁pear	-11503
acious	-11504
▁blame	-11505
▁edges	-11506
▁hydro	-11507
▁renow	-11508
▁vague	-11509
ghalaya	-11510
▁edited	-11511
▁rhythm	-11512
▁Introdu	-11513
▁defines	-11514
▁mandate	-11515
▁microsc	-11516
▁birthday	-11517
▁confused	-11518
▁affordable	-11519
▁grassroots	-11520
▁proposition	-11521
▁DP	-11522
adas	-11523
awar	-11524
bled	-11525
khar	-11526
urna	-11527
▁Gos	-11528
▁que	-11529
enary	-11530
▁COMM	-11531
▁Need	-11532
▁tent	-11533
▁Maint	-11534
▁Naras	-11535
▁Sangh	-11536
▁arose	-11537
▁batch	-11538
▁essay	-11539
▁rival	-11540
▁Demand	-11541
▁dispar	-11542
▁essays	-11543
▁titled	-11544
▁Website	-11545
▁caution	-11546
▁vaccine	-11547
▁Memorial	-11548
▁alphabet	-11549
▁medieval	-11550
▁accompany	-11551
▁embarrass	-11552
▁regulated	-11553
▁vacancies	-11554
▁Consequently	-11555
▁remuneration	-11556
▁Communication	-11557
abi	-11558
apu	-11559
hyd	-11560
▁sa	-11561
AYEE	-11562
ctic	-11563
▁Kot	-11564
▁inh	-11565
▁unm	-11566
aning	-11567
▁ATAL	-11568
▁moth	-11569
▁pref	-11570
▁Study	-11571
▁illum	-11572
▁priest	-11573
▁trials	-11574
▁Country	-11575
▁Jubilee	-11576
▁samples	-11577
▁Egyptian	-11578
▁flexible	-11579
▁peasants	-11580
▁Languages	-11581
▁divisions	-11582
▁Profession	-11583
▁inadequate	-11584
▁indicating	-11585
ulc	-11586
cane	-11587
mail	-11588
▁Jes	-11589
opter	-11590
▁Hold	-11591
▁VAJP	-11592
▁levy	-11593
aduate	-11594
aments	-11595
▁Final	-11596
▁Surya	-11597
▁aston	-11598
▁displ	-11599
▁rises	-11600
▁strain	-11601
▁SPEECHES	-11602
▁Template	-11603
▁VAJPAYEE	-11604
▁conveyed	-11605
▁Kolhatkar	-11606
▁patriotism	-11607
▁PRODUCTNAME	-11608
▁accumulated	-11609
▁concessions	-11610
▁resignation	-11611
▁preservation	-11612
amar	-11613
loom	-11614
rama	-11615
▁Bol	-11616
▁Van	-11617
asury	-11618
buntu	-11619
▁Sadd	-11620
▁exit	-11621
▁lift	-11622
▁tens	-11623
rieved	-11624
▁Ganes	-11625
▁disob	-11626
▁supra	-11627
idation	-11628
▁Return	-11629
▁Supply	-11630
▁layout	-11631
▁notion	-11632
▁skelet	-11633
▁ticket	-11634
▁verbal	-11635
iability	-11636
iciaries	-11637
isticated	-11638
▁Telephone	-11639
▁variation	-11640
▁Governorate	-11641
▁interpreted	-11642
▁mathematics	-11643
▁unnecessary	-11644
▁comparatively	-11645
ael	-11646
awa	-11647
eor	-11648
▁WH	-11649
▁ms	-11650
itta	-11651
last	-11652
▁ICC	-11653
▁Lin	-11654
▁rum	-11655
▁tip	-11656
▁Gate	-11657
▁acre	-11658
▁loud	-11659
▁Crime	-11660
▁Range	-11661
▁arrow	-11662
▁bless	-11663
▁chose	-11664
emption	-11665
▁Brazil	-11666
▁Raipur	-11667
▁breeds	-11668
▁hungry	-11669
▁hybrid	-11670
▁worlds	-11671
▁Purusha	-11672
▁textile	-11673
▁Original	-11674
▁Religion	-11675
▁associate	-11676
▁exemption	-11677
▁perfectly	-11678
▁Dictionary	-11679
▁indication	-11680
▁innovators	-11681
▁prosperous	-11682
▁termination	-11683
jit	-11684
tar	-11685
ayam	-11686
▁Cli	-11687
▁Dip	-11688
▁Fif	-11689
arded	-11690
rives	-11691
▁Milk	-11692
▁adap	-11693
abhuti	-11694
▁Crown	-11695
▁Farid	-11696
▁Funds	-11697
▁Given	-11698
▁Italy	-11699
▁nodal	-11700
▁Medium	-11701
▁Ravana	-11702
▁Tender	-11703
▁Undert	-11704
▁hereby	-11705
▁uterus	-11706
▁valued	-11707
▁Finland	-11708
▁framing	-11709
▁holiday	-11710
▁inherit	-11711
▁injuries	-11712
▁shoulders	-11713
▁attendance	-11714
▁enlightened	-11715
▁facilitating	-11716
adha	-11717
arna	-11718
arti	-11719
rait	-11720
▁Ras	-11721
▁urg	-11722
▁ved	-11723
heres	-11724
▁Near	-11725
▁Rober	-11726
▁Still	-11727
▁dairy	-11728
▁postp	-11729
▁unpre	-11730
▁topics	-11731
▁vagina	-11732
▁handled	-11733
▁seizure	-11734
▁smoking	-11735
▁abandoned	-11736
▁eliminate	-11737
▁mentality	-11738
▁threshold	-11739
▁meditation	-11740
▁minorities	-11741
▁orientation	-11742
▁misbehaviour	-11743
FS	-11744
agi	-11745
ulu	-11746
ENTS	-11747
arse	-11748
izer	-11749
lymp	-11750
roph	-11751
▁Chat	-11752
▁Ravi	-11753
▁boot	-11754
▁fare	-11755
opathy	-11756
▁annex	-11757
▁creed	-11758
▁delta	-11759
▁Bezbar	-11760
▁module	-11761
ithmetic	-11762
oubtedly	-11763
▁Attorney	-11764
▁Meghalaya	-11765
▁Personnel	-11766
▁repayment	-11767
▁Portuguese	-11768
▁administer	-11769
▁convenient	-11770
▁equipments	-11771
▁disappeared	-11772
▁identifying	-11773
▁civilisation	-11774
GC	-11775
Us	-11776
ASS	-11777
▁Dog	-11778
▁INS	-11779
▁Nil	-11780
▁REC	-11781
▁Tab	-11782
▁thy	-11783
acent	-11784
odhya	-11785
▁Prob	-11786
▁cows	-11787
▁grey	-11788
soever	-11789
▁Iraqi	-11790
▁Latin	-11791
▁Olymp	-11792
▁teams	-11793
▁tempt	-11794
itaries	-11795
▁BIHARI	-11796
▁digest	-11797
▁intent	-11798
▁losing	-11799
▁Between	-11800
▁Highway	-11801
▁Prakrit	-11802
▁clients	-11803
▁hanging	-11804
▁legally	-11805
▁deterior	-11806
▁grateful	-11807
▁Different	-11808
▁conflicts	-11809
▁practised	-11810
▁Assessment	-11811
▁occurrence	-11812
▁regulating	-11813
▁communicate	-11814
uja	-11815
atal	-11816
bert	-11817
rell	-11818
▁ATM	-11819
▁Hen	-11820
▁UTs	-11821
▁bom	-11822
▁fur	-11823
inees	-11824
▁Alex	-11825
▁Gaut	-11826
▁corn	-11827
▁feas	-11828
▁nour	-11829
▁Phase	-11830
▁males	-11831
▁prize	-11832
▁vivid	-11833
▁assent	-11834
▁culmin	-11835
▁superf	-11836
▁airport	-11837
unication	-11838
▁ignorant	-11839
▁patience	-11840
▁abolished	-11841
▁equitable	-11842
▁forgotten	-11843
▁preventing	-11844
▁propaganda	-11845
ROM	-11846
yar	-11847
cium	-11848
iler	-11849
seud	-11850
▁Dri	-11851
▁Gul	-11852
▁Hom	-11853
▁Jad	-11854
▁Rul	-11855
▁Ult	-11856
▁eco	-11857
▁gal	-11858
▁wip	-11859
iries	-11860
ittal	-11861
▁Fran	-11862
▁cycl	-11863
▁dawn	-11864
▁mini	-11865
▁ours	-11866
▁stir	-11867
▁sums	-11868
▁Burma	-11869
▁fatal	-11870
▁gifts	-11871
▁Propos	-11872
▁scenes	-11873
▁wished	-11874
▁Schools	-11875
▁Strateg	-11876
▁delayed	-11877
▁percept	-11878
▁Assamese	-11879
▁Citizens	-11880
▁Vaishnav	-11881
▁striking	-11882
▁treating	-11883
▁Ramalinga	-11884
▁prospects	-11885
▁Nevertheless	-11886
▁Inv	-11887
odder	-11888
▁Mail	-11889
▁Poon	-11890
▁scan	-11891
▁seas	-11892
eneral	-11893
iketan	-11894
rolled	-11895
ulance	-11896
▁Areas	-11897
▁MSMEs	-11898
▁Naval	-11899
▁Padma	-11900
▁bunch	-11901
▁overs	-11902
▁rooms	-11903
▁Launch	-11904
▁Record	-11905
▁assure	-11906
▁superv	-11907
ructural	-11908
▁varying	-11909
▁detected	-11910
▁eighteen	-11911
▁entities	-11912
▁Indonesia	-11913
▁intuitive	-11914
▁Provisions	-11915
▁exhibition	-11916
▁successive	-11917
▁Authorities	-11918
▁distinguish	-11919
▁underground	-11920
▁neighbourhood	-11921
ORT	-11922
▁MM	-11923
▁SEC	-11924
akshi	-11925
odium	-11926
rolog	-11927
▁Cash	-11928
▁Find	-11929
▁Word	-11930
▁bund	-11931
▁sket	-11932
▁slog	-11933
▁fancy	-11934
▁shoes	-11935
▁clever	-11936
▁pocket	-11937
ertained	-11938
▁Shastri	-11939
▁Witness	-11940
▁Israelis	-11941
▁effected	-11942
▁granting	-11943
▁litigant	-11944
▁packages	-11945
▁theories	-11946
▁affidavit	-11947
▁certified	-11948
▁employers	-11949
▁repeatedly	-11950
▁differently	-11951
▁entertainment	-11952
▁१८	-11953
abar	-11954
worm	-11955
▁Sex	-11956
aksha	-11957
▁Gurb	-11958
▁clay	-11959
▁flav	-11960
▁lips	-11961
▁pour	-11962
▁wash	-11963
rupted	-11964
usters	-11965
▁revel	-11966
parable	-11967
▁Bhopal	-11968
▁adjourn	-11969
▁Bezbaroa	-11970
▁Narendra	-11971
▁develops	-11972
▁formally	-11973
▁Following	-11974
▁magnitude	-11975
▁Chancellor	-11976
▁collectively	-11977
AA	-11978
nis	-11979
▁Pa	-11980
▁Ta	-11981
▁Anr	-11982
▁BJP	-11983
▁Bac	-11984
▁Beh	-11985
▁Dil	-11986
▁idi	-11987
ensed	-11988
flies	-11989
▁Kant	-11990
▁Shuk	-11991
▁dupl	-11992
▁webs	-11993
itably	-11994
▁Clear	-11995
▁alert	-11996
▁burnt	-11997
▁climb	-11998
▁Repres	-11999
▁Arabian	-12000
▁deities	-12001
▁earnest	-12002
▁warfare	-12003
▁shipping	-12004
▁consensus	-12005
▁measuring	-12006
▁Provincial	-12007
▁households	-12008
▁compositions	-12009
▁Commissioners	-12010
Tax	-12011
kan	-12012
▁Sr	-12013
itha	-12014
▁Abu	-12015
▁DVD	-12016
▁Ell	-12017
▁muk	-12018
▁sik	-12019
stein	-12020
▁Mass	-12021
ivable	-12022
▁Goods	-12023
▁maxim	-12024
▁pilot	-12025
▁roles	-12026
ilitary	-12027
istrates	-12028
▁interval	-12029
▁merchant	-12030
▁swelling	-12031
▁petroleum	-12032
▁renewable	-12033
▁Bhavabhuti	-12034
▁magistrate	-12035
▁persistent	-12036
ibi	-12037
igm	-12038
▁Lay	-12039
▁Moz	-12040
▁Wal	-12041
▁asp	-12042
▁ham	-12043
▁mol	-12044
rowth	-12045
▁Jack	-12046
▁Magn	-12047
▁Poth	-12048
▁adds	-12049
▁fing	-12050
▁foss	-12051
▁Coast	-12052
▁Files	-12053
▁Panel	-12054
▁Spain	-12055
▁gases	-12056
▁tyran	-12057
olation	-12058
▁tragic	-12059
▁Guarant	-12060
▁Unknown	-12061
▁lateral	-12062
▁pressed	-12063
▁Annexure	-12064
▁Physical	-12065
▁annually	-12066
▁chapters	-12067
▁initiate	-12068
▁reciproc	-12069
▁turnover	-12070
▁elementary	-12071
▁recommends	-12072
▁multiplication	-12073
ials	-12074
ulla	-12075
▁NHS	-12076
▁sen	-12077
arsha	-12078
▁HOST	-12079
▁Late	-12080
▁Marx	-12081
▁Stop	-12082
▁dism	-12083
▁plea	-12084
rators	-12085
casting	-12086
▁actors	-12087
▁evolve	-12088
▁spouse	-12089
▁broadly	-12090
▁watched	-12091
▁Balarama	-12092
▁dividing	-12093
▁socially	-12094
▁symbolic	-12095
▁Meherally	-12096
▁Reference	-12097
▁appearing	-12098
▁successor	-12099
▁Respondent	-12100
▁dictionary	-12101
▁transplant	-12102
▁coordination	-12103
▁certification	-12104
sen	-12105
aser	-12106
emic	-12107
▁Hal	-12108
inath	-12109
ushan	-12110
▁Chow	-12111
▁HTML	-12112
▁Syed	-12113
▁offs	-12114
▁Saheb	-12115
▁burst	-12116
▁trace	-12117
General	-12118
▁instal	-12119
▁fortune	-12120
▁implies	-12121
▁omitted	-12122
▁remarks	-12123
▁updated	-12124
ifference	-12125
▁Everyone	-12126
▁clearing	-12127
▁morality	-12128
▁pendency	-12129
▁compelled	-12130
▁translate	-12131
▁Satyagraha	-12132
▁magnificent	-12133
▁modifications	-12134
Es	-12135
xx	-12136
▁EN	-12137
▁KB	-12138
asha	-12139
cott	-12140
▁Tah	-12141
▁URI	-12142
▁sel	-12143
anyan	-12144
▁Trad	-12145
▁belt	-12146
▁condu	-12147
▁frust	-12148
▁loyal	-12149
▁recur	-12150
▁eighty	-12151
cedented	-12152
▁accepts	-12153
▁categor	-12154
▁heavily	-12155
▁onwards	-12156
▁propose	-12157
▁sleeping	-12158
▁economics	-12159
▁exploited	-12160
▁virtually	-12161
▁Vidyasagar	-12162
▁capacities	-12163
▁improvements	-12164
▁beneficiaries	-12165
sil	-12166
▁Uz	-12167
▁Vi	-12168
ekar	-12169
esis	-12170
quet	-12171
▁NRI	-12172
▁Pub	-12173
▁Tun	-12174
itter	-12175
▁Lock	-12176
▁Rele	-12177
▁Tata	-12178
▁cens	-12179
▁dual	-12180
▁Baner	-12181
▁Khadi	-12182
▁cheer	-12183
▁Animal	-12184
▁Mechan	-12185
▁enrich	-12186
▁snakes	-12187
▁Charter	-12188
▁deserve	-12189
▁solving	-12190
ertaining	-12191
▁Learning	-12192
▁disciple	-12193
▁operator	-12194
▁statutes	-12195
▁estimates	-12196
▁projected	-12197
▁Upanishads	-12198
▁auspicious	-12199
▁deliberate	-12200
▁presenting	-12201
▁upgradation	-12202
KS	-12203
inth	-12204
name	-12205
othe	-12206
▁wal	-12207
mohan	-12208
▁Team	-12209
▁Sanct	-12210
▁sword	-12211
▁threw	-12212
▁tough	-12213
▁Dharma	-12214
▁rating	-12215
▁rescue	-12216
▁stabil	-12217
▁Disable	-12218
▁leprosy	-12219
▁Maharshi	-12220
▁conceived	-12221
▁construed	-12222
▁dissolved	-12223
▁depression	-12224
▁Christianity	-12225
▁deliberately	-12226
▁undertakings	-12227
▁unemployment	-12228
▁demonstration	-12229
▁GR	-12230
▁TB	-12231
▁END	-12232
▁Kur	-12233
▁cars	-12234
▁mant	-12235
▁rays	-12236
▁turb	-12237
▁Multi	-12238
▁chand	-12239
▁login	-12240
▁Server	-12241
▁inflic	-12242
▁blessed	-12243
▁reveals	-12244
▁wedding	-12245
▁stressed	-12246
▁Pollution	-12247
▁acquiring	-12248
▁furniture	-12249
▁reactions	-12250
▁sensation	-12251
▁Hindustani	-12252
▁Partnership	-12253
▁citizenship	-12254
▁concentrated	-12255
In	-12256
ney	-12257
▁AB	-12258
▁oh	-12259
ints	-12260
▁Low	-12261
▁COND	-12262
▁adul	-12263
istani	-12264
rition	-12265
▁Arjun	-12266
▁Param	-12267
▁Plate	-12268
▁craft	-12269
▁debts	-12270
▁imped	-12271
▁Ashram	-12272
▁Sudden	-12273
▁binary	-12274
▁unjust	-12275
ventions	-12276
▁Masters	-12277
▁compact	-12278
▁tenants	-12279
itiveness	-12280
ropolitan	-12281
▁Actually	-12282
▁Chromium	-12283
▁punished	-12284
▁velocity	-12285
▁responded	-12286
▁condolences	-12287
isa	-12288
erer	-12289
gaon	-12290
icus	-12291
orrh	-12292
▁Und	-12293
▁oct	-12294
▁disl	-12295
ogenic	-12296
ureauc	-12297
▁Email	-12298
▁Motor	-12299
▁hoped	-12300
▁knock	-12301
▁Bhakti	-12302
▁modest	-12303
▁surely	-12304
▁tackle	-12305
▁Ayodhya	-12306
▁Express	-12307
▁Meeting	-12308
▁carrier	-12309
▁forever	-12310
▁numerator	-12311
▁kilometres	-12312
▁provincial	-12313
▁grandfather	-12314
▁confidential	-12315
OLD	-12316
eur	-12317
▁OK	-12318
▁SW	-12319
lude	-12320
outs	-12321
▁IIS	-12322
▁ail	-12323
▁tie	-12324
▁Answ	-12325
▁Kirg	-12326
▁Para	-12327
▁Tuls	-12328
▁Vall	-12329
▁Veer	-12330
▁garb	-12331
▁glim	-12332
▁hire	-12333
▁medi	-12334
▁publ	-12335
▁wool	-12336
▁Rajiv	-12337
▁lungs	-12338
▁petty	-12339
▁pitch	-12340
▁Panjab	-12341
▁Unless	-12342
▁encoun	-12343
isheries	-12344
▁hunting	-12345
▁locally	-12346
▁pursued	-12347
▁stating	-12348
▁Analysis	-12349
▁Ordinance	-12350
▁vegetable	-12351
▁Consolidated	-12352
▁Intelligence	-12353
▁deliberations	-12354
▁unprecedented	-12355
oop	-12356
wah	-12357
▁MA	-12358
▁RF	-12359
berg	-12360
umps	-12361
▁ank	-12362
▁kms	-12363
apsed	-12364
▁Patt	-12365
▁deny	-12366
▁pale	-12367
▁Devan	-12368
▁Ghose	-12369
▁shade	-12370
entures	-12371
▁Altern	-12372
▁Odisha	-12373
▁occupy	-12374
▁phones	-12375
▁suited	-12376
▁thirst	-12377
▁physics	-12378
▁portray	-12379
▁roughly	-12380
▁Canadian	-12381
▁clothing	-12382
▁requests	-12383
▁detention	-12384
▁sculpture	-12385
▁Electronic	-12386
▁Entreprene	-12387
▁Scientific	-12388
▁curriculum	-12389
▁exercising	-12390
▁sacrifices	-12391
▁innumerable	-12392
▁justification	-12393
ibh	-12394
▁BS	-12395
▁XV	-12396
oric	-12397
▁NUM	-12398
▁dan	-12399
▁sle	-12400
agger	-12401
anasi	-12402
erged	-12403
▁Kail	-12404
▁Kali	-12405
▁NITs	-12406
▁Sush	-12407
▁True	-12408
▁lust	-12409
▁shar	-12410
estone	-12411
orship	-12412
▁Blood	-12413
▁Celeb	-12414
▁Mehta	-12415
▁token	-12416
▁Boards	-12417
▁Daniel	-12418
▁stretc	-12419
▁wouldn	-12420
▁Italian	-12421
▁conting	-12422
▁premier	-12423
igibility	-12424
▁adopting	-12425
▁disorders	-12426
▁specialist	-12427
▁suspension	-12428
▁Compensation	-12429
▁sophisticated	-12430
BA	-12431
box	-12432
▁ES	-12433
▁PE	-12434
▁je	-12435
eath	-12436
etal	-12437
hana	-12438
neum	-12439
uits	-12440
▁Atl	-12441
onial	-12442
▁Arts	-12443
▁Iron	-12444
▁Zion	-12445
▁verd	-12446
▁Clean	-12447
▁Index	-12448
▁Minor	-12449
▁toxic	-12450
▁anyway	-12451
▁commem	-12452
▁polity	-12453
▁Unicode	-12454
▁defects	-12455
▁embrace	-12456
▁hectares	-12457
▁illusion	-12458
▁offender	-12459
▁assistant	-12460
▁dominated	-12461
▁examining	-12462
OUR	-12463
oni	-12464
opes	-12465
ptic	-12466
rome	-12467
▁Bai	-12468
▁MIN	-12469
▁SER	-12470
▁cub	-12471
▁dub	-12472
▁lob	-12473
▁Fair	-12474
▁Much	-12475
▁fled	-12476
▁Anglo	-12477
▁boxes	-12478
▁buyer	-12479
▁mercy	-12480
▁robot	-12481
▁loaded	-12482
▁marvel	-12483
▁theore	-12484
▁Michael	-12485
▁dangers	-12486
▁freight	-12487
▁Dominion	-12488
cellaneous	-12489
▁assumption	-12490
▁chromosome	-12491
▁Legislatures	-12492
EST	-12493
ROW	-12494
azi	-12495
urb	-12496
▁ug	-12497
SION	-12498
▁INA	-12499
▁bee	-12500
ivest	-12501
riday	-12502
▁Kalp	-12503
▁Mode	-12504
▁Naid	-12505
▁Step	-12506
▁vest	-12507
▁wrap	-12508
ometer	-12509
ompass	-12510
▁Title	-12511
▁Vehic	-12512
▁steep	-12513
▁sweep	-12514
▁Memory	-12515
▁ingred	-12516
▁posted	-12517
▁pulled	-12518
▁spinal	-12519
▁Taliban	-12520
▁disable	-12521
▁nominee	-12522
▁graphics	-12523
▁provider	-12524
▁Communist	-12525
▁detection	-12526
▁exercises	-12527
▁physician	-12528
▁attributes	-12529
▁harassment	-12530
▁procession	-12531
▁computation	-12532
ye	-12533
yn	-12534
cie	-12535
eli	-12536
thy	-12537
achh	-12538
fold	-12539
miki	-12540
▁Abb	-12541
▁Dub	-12542
▁Kon	-12543
▁Sep	-12544
▁odd	-12545
▁hook	-12546
▁khan	-12547
▁tion	-12548
ispens	-12549
▁Jesus	-12550
▁Nizam	-12551
▁Steel	-12552
▁meter	-12553
▁mills	-12554
▁mines	-12555
▁Vikram	-12556
▁loving	-12557
▁rebell	-12558
▁Farmers	-12559
▁amazing	-12560
▁credits	-12561
▁impress	-12562
▁Jadunath	-12563
▁carriage	-12564
▁checking	-12565
▁momentum	-12566
▁trekking	-12567
▁allocated	-12568
▁anonymity	-12569
▁intervals	-12570
▁rejection	-12571
▁admissible	-12572
▁excitement	-12573
▁challenging	-12574
▁amalgamation	-12575
▁anticipatory	-12576
▁MT	-12577
bral	-12578
isen	-12579
ulin	-12580
▁BEG	-12581
▁SHG	-12582
comes	-12583
ostic	-12584
▁arre	-12585
▁dung	-12586
▁trap	-12587
insula	-12588
▁Korea	-12589
▁Place	-12590
▁dozen	-12591
▁fibre	-12592
▁wives	-12593
▁Device	-12594
▁Prepar	-12595
▁Relief	-12596
▁downlo	-12597
▁lovers	-12598
▁metall	-12599
▁sympat	-12600
ivestock	-12601
▁Maulana	-12602
▁Advanced	-12603
▁bleeding	-12604
▁climatic	-12605
▁forehead	-12606
obiography	-12607
▁copyright	-12608
▁indispens	-12609
▁dependence	-12610
▁pronounced	-12611
▁constituent	-12612
▁dignitaries	-12613
▁reproduction	-12614
१९	-12615
eek	-12616
len	-12617
moh	-12618
▁Aw	-12619
▁GT	-12620
▁fu	-12621
apat	-12622
roto	-12623
unar	-12624
▁Gor	-12625
▁Pil	-12626
▁Pud	-12627
▁Tub	-12628
▁gau	-12629
▁yes	-12630
acker	-12631
gging	-12632
idian	-12633
▁surf	-12634
headed	-12635
▁Games	-12636
▁greed	-12637
▁Priyob	-12638
▁Sunday	-12639
▁basket	-12640
▁extens	-12641
▁storey	-12642
▁oneself	-12643
▁updates	-12644
▁Password	-12645
▁Sanctuary	-12646
▁attending	-12647
▁attribute	-12648
▁similarly	-12649
▁competence	-12650
▁concentrate	-12651
oir	-12652
▁Um	-12653
agus	-12654
kers	-12655
onda	-12656
▁Ill	-12657
▁Kad	-12658
▁gui	-12659
isers	-12660
named	-12661
uance	-12662
▁Arth	-12663
▁Chap	-12664
▁Fert	-12665
▁bags	-12666
▁epit	-12667
▁hang	-12668
▁puzz	-12669
icking	-12670
▁Saddam	-12671
▁Window	-12672
▁enumer	-12673
▁fisher	-12674
▁inters	-12675
ashankar	-12676
▁anxiety	-12677
▁excited	-12678
▁expense	-12679
▁pursuing	-12680
▁republic	-12681
▁conducive	-12682
▁gratitude	-12683
▁partially	-12684
▁precisely	-12685
▁typically	-12686
▁nineteenth	-12687
▁nomination	-12688
▁horticulture	-12689
CL	-12690
IO	-12691
amal	-12692
ispr	-12693
▁Big	-12694
▁Rak	-12695
▁Rom	-12696
▁lux	-12697
amond	-12698
iforn	-12699
osity	-12700
ulars	-12701
urers	-12702
▁Duty	-12703
▁FROM	-12704
▁ISRO	-12705
▁anat	-12706
▁brut	-12707
▁tale	-12708
raries	-12709
uniary	-12710
▁BEGIN	-12711
▁pairs	-12712
▁shore	-12713
▁Senate	-12714
▁Transl	-12715
▁diamet	-12716
▁eighth	-12717
▁endors	-12718
▁thanks	-12719
▁Inquiry	-12720
▁ensures	-12721
▁execute	-12722
▁intoler	-12723
▁mischie	-12724
▁trusted	-12725
▁recalled	-12726
▁constraint	-12727
▁Chairperson	-12728
▁conferences	-12729
▁encouragement	-12730
eous	-12731
▁Cup	-12732
▁Tow	-12733
▁kal	-12734
atile	-12735
▁Khal	-12736
▁Ward	-12737
▁bent	-12738
▁tomb	-12739
raisal	-12740
▁GNOME	-12741
▁dried	-12742
▁fluct	-12743
▁fores	-12744
▁harsh	-12745
▁indef	-12746
▁Almost	-12747
▁amidst	-12748
▁neglig	-12749
▁Reports	-12750
▁Respons	-12751
▁decides	-12752
▁reduces	-12753
▁soldier	-12754
▁Manufact	-12755
▁Varanasi	-12756
▁fruitful	-12757
▁lighting	-12758
▁utilized	-12759
▁admiration	-12760
▁creativity	-12761
pha	-12762
rob	-12763
▁GS	-12764
▁Diu	-12765
ritis	-12766
▁Drav	-12767
▁Task	-12768
▁chat	-12769
▁prey	-12770
inates	-12771
▁stagn	-12772
fection	-12773
▁Manual	-12774
▁Serial	-12775
▁cooked	-12776
▁ethnic	-12777
▁intern	-12778
▁Charles	-12779
▁abdomen	-12780
▁ongoing	-12781
▁barriers	-12782
▁websites	-12783
▁Treatment	-12784
▁scattered	-12785
▁plantation	-12786
▁convenience	-12787
▁Establishment	-12788
ERN	-12789
abs	-12790
hau	-12791
iph	-12792
rod	-12793
sha	-12794
▁ah	-12795
▁ba	-12796
gone	-12797
onal	-12798
▁Nos	-12799
arity	-12800
mohun	-12801
otomy	-12802
▁Gulf	-12803
▁echo	-12804
▁ferv	-12805
▁wore	-12806
atible	-12807
▁Tatya	-12808
▁Wales	-12809
▁ridic	-12810
ascular	-12811
▁Fourth	-12812
▁modify	-12813
▁phrase	-12814
▁pushed	-12815
▁solely	-12816
▁Aurangz	-12817
▁Neither	-12818
▁moments	-12819
▁restaur	-12820
▁chairman	-12821
▁portions	-12822
▁tropical	-12823
▁allotment	-12824
▁primitive	-12825
▁prolonged	-12826
▁remainder	-12827
▁charitable	-12828
▁reproductive	-12829
akk	-12830
▁Fi	-12831
▁KV	-12832
ARDS	-12833
ania	-12834
▁Bor	-12835
▁Sac	-12836
avari	-12837
giene	-12838
notes	-12839
▁bark	-12840
▁dose	-12841
▁grid	-12842
▁uplo	-12843
▁DATED	-12844
▁Graph	-12845
▁Nived	-12846
▁Sales	-12847
▁Units	-12848
▁disin	-12849
▁sided	-12850
quisite	-12851
ulative	-12852
▁Ubuntu	-12853
▁fixing	-12854
▁loyalty	-12855
▁artisans	-12856
▁emission	-12857
▁prevents	-12858
▁restored	-12859
▁shopping	-12860
▁attitudes	-12861
▁launching	-12862
▁Priyobroto	-12863
▁pollutants	-12864
▁Introduction	-12865
▁pharmaceutical	-12866
ansi	-12867
eter	-12868
inea	-12869
mand	-12870
▁Mahe	-12871
▁auto	-12872
▁ensh	-12873
▁yoga	-12874
bedded	-12875
▁Hills	-12876
▁Recogn	-12877
▁Sahdev	-12878
▁floods	-12879
▁openly	-12880
▁rooted	-12881
▁bureauc	-12882
▁guiding	-12883
▁reactor	-12884
▁stretch	-12885
▁Contempt	-12886
▁Rammohun	-12887
▁journals	-12888
▁prohibit	-12889
▁publicly	-12890
▁renowned	-12891
▁transmit	-12892
▁Available	-12893
▁excluding	-12894
▁instrumental	-12895
▁legislations	-12896
upa	-12897
▁Il	-12898
ahal	-12899
▁Ign	-12900
▁Mel	-12901
▁lip	-12902
alpur	-12903
anium	-12904
arman	-12905
▁Pond	-12906
▁slip	-12907
▁twin	-12908
▁Initi	-12909
▁Input	-12910
▁Radha	-12911
▁Tibet	-12912
▁array	-12913
▁codes	-12914
▁crown	-12915
▁delays	-12916
▁finish	-12917
▁Pothana	-12918
▁chances	-12919
▁despair	-12920
▁washing	-12921
▁borrowed	-12922
▁explicit	-12923
▁textiles	-12924
▁touching	-12925
▁searching	-12926
▁undoubtedly	-12927
▁examinations	-12928
▁indispensable	-12929
▁qualification	-12930
PR	-12931
aba	-12932
arb	-12933
oqu	-12934
rak	-12935
hani	-12936
▁Dak	-12937
▁Fat	-12938
▁kin	-12939
▁pap	-12940
rophy	-12941
▁PART	-12942
▁dent	-12943
▁Madan	-12944
▁Track	-12945
▁trunk	-12946
▁unlaw	-12947
▁Bihari	-12948
▁Volume	-12949
▁dishon	-12950
▁locked	-12951
▁wastes	-12952
▁widget	-12953
iniketan	-12954
▁Auditor	-12955
▁Maharaj	-12956
▁briefly	-12957
▁fingers	-12958
▁impetus	-12959
▁painted	-12960
▁abundant	-12961
▁cellular	-12962
▁fighters	-12963
▁receiver	-12964
▁foregoing	-12965
▁inception	-12966
▁mortality	-12967
▁prestigious	-12968
▁announcement	-12969
▁contributing	-12970
▁experimental	-12971
▁sufficiently	-12972
▁investigating	-12973
CS	-12974
ksh	-12975
ril	-12976
▁Da	-12977
▁Vy	-12978
akhsh	-12979
emble	-12980
▁Acqu	-12981
▁mild	-12982
▁rely	-12983
ussain	-12984
▁Quest	-12985
▁cache	-12986
▁camps	-12987
▁hilly	-12988
▁pulse	-12989
▁rites	-12990
angular	-12991
▁Robert	-12992
▁banyan	-12993
▁fodder	-12994
▁hollow	-12995
▁tariff	-12996
▁Chamber	-12997
▁Chatter	-12998
▁Complex	-12999
▁fiction	-13000
▁retreat	-13001
▁summons	-13002
▁telecom	-13003
▁Californ	-13004
▁Nivedita	-13005
▁deducted	-13006
isprudence	-13007
▁expiration	-13008
▁simplicity	-13009
▁Corporations	-13010
▁Inflammation	-13011
gm	-13012
ILL	-13013
can	-13014
▁Ye	-13015
▁ud	-13016
dish	-13017
ilas	-13018
oded	-13019
want	-13020
▁Ess	-13021
adeva	-13022
arter	-13023
▁Crit	-13024
▁Fast	-13025
▁bron	-13026
▁mast	-13027
▁Naidu	-13028
▁Qaeda	-13029
▁flame	-13030
▁physi	-13031
▁scrap	-13032
▁Motion	-13033
▁Munshi	-13034
▁affair	-13035
▁edible	-13036
▁inject	-13037
▁pupils	-13038
▁convict	-13039
▁episode	-13040
▁notable	-13041
▁notices	-13042
▁tonnage	-13043
▁worldly	-13044
▁Secondly	-13045
▁Wildlife	-13046
▁reliance	-13047
▁steadily	-13048
▁wireless	-13049
▁coalition	-13050
▁incidence	-13051
▁horizontal	-13052
▁organizing	-13053
▁exploration	-13054
▁investigate	-13055
atin	-13056
▁vic	-13057
▁sine	-13058
▁Kabul	-13059
▁coinc	-13060
▁metab	-13061
arriage	-13062
▁Arjuna	-13063
▁Parent	-13064
▁enjoys	-13065
▁trains	-13066
▁Keeping	-13067
▁mothers	-13068
▁nominal	-13069
▁renewed	-13070
▁spirits	-13071
▁Absolute	-13072
▁Disputes	-13073
▁Document	-13074
▁foremost	-13075
▁globally	-13076
▁operates	-13077
▁pressing	-13078
▁fundament	-13079
▁synthesis	-13080
▁Individual	-13081
▁regardless	-13082
▁reiterated	-13083
▁requisition	-13084
▁Proclamation	-13085
ART	-13086
she	-13087
agan	-13088
aret	-13089
sein	-13090
urop	-13091
▁Siv	-13092
adays	-13093
inars	-13094
rivol	-13095
▁Adal	-13096
▁heap	-13097
▁unst	-13098
making	-13099
▁Daily	-13100
▁Until	-13101
▁adorn	-13102
▁paste	-13103
limited	-13104
▁Active	-13105
▁bowler	-13106
▁inward	-13107
▁tables	-13108
▁Success	-13109
▁mastery	-13110
▁thermal	-13111
▁Students	-13112
▁clusters	-13113
▁congress	-13114
▁clearance	-13115
▁commenced	-13116
▁encompass	-13117
▁attributed	-13118
▁determines	-13119
▁subsection	-13120
▁Fundamental	-13121
▁extensively	-13122
▁foundations	-13123
▁handicrafts	-13124
▁impeachment	-13125
DS	-13126
GA	-13127
oi	-13128
cca	-13129
erb	-13130
nar	-13131
ona	-13132
wat	-13133
▁Tu	-13134
omal	-13135
▁Imp	-13136
▁Kun	-13137
▁Mil	-13138
▁cab	-13139
▁rib	-13140
▁Draw	-13141
▁Lect	-13142
▁Samb	-13143
▁quit	-13144
adeshi	-13145
adhyay	-13146
apuram	-13147
iosity	-13148
odhpur	-13149
▁heirs	-13150
▁vocal	-13151
▁Single	-13152
▁betray	-13153
▁frivol	-13154
▁inculc	-13155
▁jungle	-13156
▁traced	-13157
▁warned	-13158
▁cleared	-13159
▁dancing	-13160
▁infrast	-13161
▁serpent	-13162
▁commands	-13163
▁floating	-13164
▁shortcut	-13165
▁sugarcane	-13166
▁Devanagari	-13167
▁adequately	-13168
▁emphasized	-13169
▁furnishing	-13170
▁procurement	-13171
bu	-13172
omed	-13173
▁Bio	-13174
▁PAN	-13175
▁Uzb	-13176
▁dos	-13177
arium	-13178
arynx	-13179
avana	-13180
ishth	-13181
▁Feed	-13182
▁Give	-13183
▁mask	-13184
atural	-13185
ometry	-13186
igating	-13187
▁Taking	-13188
▁Tiwari	-13189
▁Twenty	-13190
▁incarn	-13191
▁serial	-13192
▁enlarge	-13193
▁sixteen	-13194
▁evaluate	-13195
▁Guarantee	-13196
▁diplomacy	-13197
▁distances	-13198
▁envisages	-13199
▁hierarchy	-13200
▁Controller	-13201
▁attainment	-13202
▁incidental	-13203
▁counterpart	-13204
▁flexibility	-13205
▁unfortunately	-13206
DC	-13207
▁VP	-13208
arth	-13209
rons	-13210
inals	-13211
range	-13212
▁Chit	-13213
▁Half	-13214
▁Less	-13215
▁Pray	-13216
▁Sale	-13217
▁diar	-13218
▁hymn	-13219
▁tear	-13220
atable	-13221
▁Aryan	-13222
▁Dutch	-13223
▁Round	-13224
▁enlar	-13225
▁metre	-13226
▁swift	-13227
▁tanks	-13228
▁Treaty	-13229
▁Unlike	-13230
▁asleep	-13231
▁layers	-13232
▁postal	-13233
▁pulses	-13234
▁circles	-13235
▁deficit	-13236
▁fertile	-13237
▁vacancy	-13238
▁Cultural	-13239
▁holistic	-13240
▁meanings	-13241
▁hereafter	-13242
▁phenomena	-13243
▁delivering	-13244
▁Performance	-13245
▁elimination	-13246
MOR	-13247
afi	-13248
hee	-13249
zes	-13250
▁HE	-13251
▁LA	-13252
▁guy	-13253
▁lag	-13254
IVERS	-13255
obind	-13256
puted	-13257
ucose	-13258
▁Joze	-13259
▁Music	-13260
▁chlor	-13261
▁curve	-13262
▁incon	-13263
▁loses	-13264
▁naked	-13265
▁prone	-13266
▁sniff	-13267
▁weigh	-13268
▁Instru	-13269
▁Leader	-13270
▁Method	-13271
▁Sweden	-13272
▁cataly	-13273
▁desper	-13274
▁dinner	-13275
▁disreg	-13276
▁homage	-13277
▁misery	-13278
▁Advance	-13279
▁Sahitya	-13280
▁nucleus	-13281
▁ranking	-13282
▁repairs	-13283
▁winners	-13284
▁Internal	-13285
▁Mahadevi	-13286
▁memories	-13287
▁optional	-13288
▁alternate	-13289
▁hostility	-13290
▁processor	-13291
▁California	-13292
▁Englishman	-13293
▁Petitioner	-13294
▁accountant	-13295
▁whatsoever	-13296
▁distinctive	-13297
▁traditionally	-13298
ITH	-13299
arc	-13300
chi	-13301
leys	-13302
▁APP	-13303
▁Meg	-13304
▁cyl	-13305
anted	-13306
heast	-13307
olith	-13308
otype	-13309
▁HPCL	-13310
▁Mosc	-13311
▁asks	-13312
▁sadh	-13313
▁synd	-13314
▁vain	-13315
rified	-13316
uclear	-13317
▁Paras	-13318
▁Siyar	-13319
▁rigid	-13320
▁undue	-13321
ishness	-13322
▁Assemb	-13323
▁Perman	-13324
▁Source	-13325
▁depict	-13326
▁wholes	-13327
▁Century	-13328
▁combine	-13329
▁neutral	-13330
▁speaker	-13331
▁strings	-13332
▁unhappy	-13333
▁Position	-13334
▁smallest	-13335
▁sometime	-13336
▁versions	-13337
▁Pakistani	-13338
▁landscape	-13339
▁commentary	-13340
▁fertilizer	-13341
▁periodical	-13342
▁brotherhood	-13343
▁politically	-13344
▁superficial	-13345
▁intermediate	-13346
▁dissemination	-13347
His	-13348
nia	-13349
rub	-13350
▁IM	-13351
▁SM	-13352
▁ic	-13353
iner	-13354
link	-13355
▁Kes	-13356
▁Mak	-13357
▁Anth	-13358
▁COUR	-13359
▁ecst	-13360
▁syll	-13361
eering	-13362
ighter	-13363
ulture	-13364
▁Imper	-13365
▁Medal	-13366
▁eaten	-13367
▁portf	-13368
▁toile	-13369
hearted	-13370
ructive	-13371
▁Sanjay	-13372
▁riding	-13373
▁tranqu	-13374
itations	-13375
▁Omitted	-13376
▁Puranas	-13377
▁condemn	-13378
▁counted	-13379
▁elderly	-13380
▁mystery	-13381
▁strikes	-13382
▁luminous	-13383
▁presided	-13384
▁proteins	-13385
▁reminded	-13386
▁accomplish	-13387
▁invariably	-13388
▁priorities	-13389
▁stipulated	-13390
▁Expenditure	-13391
▁calculation	-13392
▁conclusions	-13393
▁endorsement	-13394
▁prohibition	-13395
▁temporarily	-13396
▁IB	-13397
▁ts	-13398
text	-13399
▁Mum	-13400
▁REL	-13401
▁SMS	-13402
▁gur	-13403
▁hrs	-13404
▁sli	-13405
andal	-13406
eland	-13407
heric	-13408
imals	-13409
▁Coal	-13410
▁Gaur	-13411
▁Mahm	-13412
▁dull	-13413
▁dump	-13414
chants	-13415
iances	-13416
▁Mahas	-13417
▁Memor	-13418
▁Using	-13419
▁rigor	-13420
ittance	-13421
onymous	-13422
viously	-13423
▁Moscow	-13424
▁census	-13425
▁ledger	-13426
▁safely	-13427
▁spices	-13428
akrishna	-13429
▁Appoint	-13430
▁Shivaji	-13431
▁gravity	-13432
▁hearted	-13433
▁heating	-13434
▁sanctum	-13435
▁therapy	-13436
▁autonomy	-13437
▁dwelling	-13438
▁hypothes	-13439
▁monopoly	-13440
▁blindness	-13441
▁incorrect	-13442
▁expressing	-13443
▁approaching	-13444
sm	-13445
ui	-13446
TIT	-13447
iga	-13448
▁AK	-13449
iram	-13450
rats	-13451
▁RSS	-13452
▁Rob	-13453
▁Hans	-13454
▁None	-13455
▁bere	-13456
▁rash	-13457
izable	-13458
rology	-13459
▁Psych	-13460
▁ingen	-13461
▁param	-13462
▁races	-13463
▁Bachan	-13464
▁INDIAN	-13465
▁absorb	-13466
▁guests	-13467
▁nearer	-13468
▁phosph	-13469
▁photos	-13470
▁routes	-13471
▁scarce	-13472
▁Brother	-13473
▁arrears	-13474
▁whereby	-13475
▁Measures	-13476
▁Settings	-13477
▁imminent	-13478
▁biography	-13479
▁dividends	-13480
▁complexity	-13481
▁preventive	-13482
▁celebration	-13483
▁permissions	-13484
▁resolutions	-13485
EB	-13486
bl	-13487
jay	-13488
oil	-13489
ths	-13490
▁Ox	-13491
unes	-13492
wala	-13493
▁Jai	-13494
▁RES	-13495
▁UNC	-13496
▁tin	-13497
lines	-13498
write	-13499
▁Fate	-13500
▁IFCI	-13501
▁Wood	-13502
master	-13503
▁Kisan	-13504
▁Schol	-13505
▁Trial	-13506
▁grasp	-13507
▁overl	-13508
ainable	-13509
▁Switch	-13510
▁congen	-13511
▁ethics	-13512
▁frames	-13513
▁lovely	-13514
▁misuse	-13515
▁outlay	-13516
▁stocks	-13517
▁Present	-13518
▁compare	-13519
▁escaped	-13520
▁Evidence	-13521
▁arbitral	-13522
▁generous	-13523
▁performs	-13524
▁intuition	-13525
▁offensive	-13526
▁inhabitants	-13527
▁corporations	-13528
IB	-13529
had	-13530
hma	-13531
▁FA	-13532
▁OP	-13533
▁PH	-13534
iary	-13535
olio	-13536
▁Box	-13537
▁Jal	-13538
▁ber	-13539
▁wea	-13540
berry	-13541
khand	-13542
▁Apex	-13543
▁Bhat	-13544
▁Cant	-13545
▁Ghaz	-13546
▁IITs	-13547
▁Java	-13548
▁Jyot	-13549
▁Shak	-13550
iliary	-13551
▁Close	-13552
▁Ghana	-13553
▁incub	-13554
▁unint	-13555
issance	-13556
▁Bhawan	-13557
▁Martin	-13558
▁lifest	-13559
▁respir	-13560
▁Friends	-13561
▁bribery	-13562
▁columns	-13563
▁purview	-13564
▁enforced	-13565
▁invention	-13566
▁patriotic	-13567
▁incapacity	-13568
▁mainstream	-13569
▁petitioners	-13570
▁Conservation	-13571
▁surroundings	-13572
esc	-13573
ogg	-13574
ogh	-13575
pse	-13576
zed	-13577
▁BE	-13578
▁et	-13579
atti	-13580
oudh	-13581
▁Jog	-13582
ISTER	-13583
feree	-13584
ighty	-13585
ollen	-13586
▁Bapu	-13587
▁drag	-13588
▁fora	-13589
▁sage	-13590
▁worm	-13591
ilated	-13592
▁argue	-13593
▁domic	-13594
▁mosqu	-13595
▁souls	-13596
▁winds	-13597
ryption	-13598
▁CONDOL	-13599
▁Hitler	-13600
▁NUMBER	-13601
▁Satish	-13602
▁bacter	-13603
▁combat	-13604
▁insuff	-13605
▁suspic	-13606
sections	-13607
▁Discuss	-13608
▁educate	-13609
▁reputed	-13610
▁altitude	-13611
▁exciting	-13612
▁feedback	-13613
▁monument	-13614
▁solitary	-13615
▁obstruction	-13616
▁Construction	-13617
▁consistently	-13618
▁renunciation	-13619
ea	-13620
▁Hi	-13621
imha	-13622
oper	-13623
opic	-13624
ulse	-13625
▁Flo	-13626
▁kar	-13627
▁Kama	-13628
▁Pill	-13629
▁jeal	-13630
▁giant	-13631
▁https	-13632
▁imbib	-13633
▁inert	-13634
▁paths	-13635
▁worms	-13636
▁zones	-13637
▁breaks	-13638
▁dances	-13639
▁singer	-13640
▁Earlier	-13641
▁surveys	-13642
▁appealed	-13643
▁inclined	-13644
▁maritime	-13645
▁persuade	-13646
▁neglected	-13647
▁reasoning	-13648
▁selecting	-13649
▁suspected	-13650
▁workshops	-13651
▁Ambassador	-13652
▁aggression	-13653
▁companions	-13654
▁domination	-13655
▁initiation	-13656
▁organising	-13657
▁politician	-13658
▁provisional	-13659
▁replacement	-13660
▁authoritative	-13661
PG	-13662
ko	-13663
२०	-13664
▁Gib	-13665
▁sew	-13666
▁vap	-13667
ilipp	-13668
rally	-13669
rosis	-13670
▁arom	-13671
▁barg	-13672
▁calf	-13673
▁inex	-13674
▁phil	-13675
▁Field	-13676
▁Visit	-13677
atching	-13678
rolment	-13679
▁Except	-13680
▁Series	-13681
▁menace	-13682
▁zamind	-13683
▁confine	-13684
itionally	-13685
▁nitrogen	-13686
▁salaries	-13687
▁troubles	-13688
▁Copyright	-13689
▁Elections	-13690
▁comprised	-13691
▁inherited	-13692
▁injection	-13693
▁aggressive	-13694
hera	-13695
iece	-13696
urai	-13697
uram	-13698
▁Fax	-13699
▁Mul	-13700
▁exh	-13701
venge	-13702
▁Base	-13703
▁Srik	-13704
ennium	-13705
▁Eleph	-13706
▁cited	-13707
▁rests	-13708
▁surge	-13709
▁terra	-13710
naments	-13711
undoram	-13712
▁Accept	-13713
▁Little	-13714
▁Narain	-13715
▁campus	-13716
▁frater	-13717
▁recess	-13718
▁seated	-13719
▁Harijan	-13720
▁shaping	-13721
▁Aviation	-13722
▁Purchase	-13723
▁consumed	-13724
▁maternal	-13725
▁Vigilance	-13726
▁ambitious	-13727
▁composite	-13728
▁consisted	-13729
▁imparting	-13730
▁kilograms	-13731
▁litigants	-13732
▁retention	-13733
▁absorption	-13734
▁completing	-13735
▁devotional	-13736
▁infectious	-13737
▁conservative	-13738
▁DD	-13739
▁Es	-13740
▁Ju	-13741
list	-13742
▁XII	-13743
▁hut	-13744
etent	-13745
omass	-13746
uture	-13747
▁knee	-13748
▁nons	-13749
▁orph	-13750
▁wine	-13751
icular	-13752
▁bloss	-13753
▁Chaudh	-13754
▁Ground	-13755
▁Vigyan	-13756
▁orange	-13757
▁verify	-13758
▁vigour	-13759
position	-13760
▁pleaded	-13761
▁Bachchan	-13762
▁Gandhian	-13763
▁claiming	-13764
▁informal	-13765
▁lifetime	-13766
▁remedies	-13767
ologically	-13768
▁Anundoram	-13769
▁authentic	-13770
▁harvesting	-13771
▁objections	-13772
▁suggesting	-13773
▁vocational	-13774
▁commendable	-13775
▁conventions	-13776
▁authentication	-13777
BN	-13778
nn	-13779
cot	-13780
oons	-13781
umni	-13782
▁Loc	-13783
▁Mes	-13784
▁alb	-13785
aryng	-13786
chest	-13787
▁Khar	-13788
▁Nirm	-13789
▁Yash	-13790
▁cerv	-13791
verted	-13792
▁Congo	-13793
▁Pharm	-13794
▁Sugar	-13795
▁brick	-13796
▁secre	-13797
▁Lakshm	-13798
▁Mexico	-13799
▁feudal	-13800
▁finest	-13801
▁harder	-13802
▁incred	-13803
▁Greater	-13804
▁Usually	-13805
▁cordial	-13806
▁folders	-13807
▁gaining	-13808
hibitions	-13809
▁Keyboard	-13810
▁Operation	-13811
▁borrowing	-13812
▁cancelled	-13813
▁exporters	-13814
▁inability	-13815
▁redressal	-13816
▁specimens	-13817
▁concession	-13818
▁converting	-13819
▁thereunder	-13820
▁adjudication	-13821
gl	-13822
uz	-13823
cha	-13824
▁QU	-13825
felt	-13826
oval	-13827
▁Alt	-13828
▁Cut	-13829
▁Kak	-13830
▁VIS	-13831
▁pel	-13832
▁sha	-13833
adium	-13834
mbuds	-13835
▁Clim	-13836
▁Gall	-13837
▁Rain	-13838
▁glow	-13839
▁tast	-13840
hemist	-13841
▁Hasan	-13842
▁Kapil	-13843
▁Rahul	-13844
▁Write	-13845
▁rainy	-13846
▁yadav	-13847
▁buried	-13848
▁herein	-13849
▁upheld	-13850
amsharan	-13851
estation	-13852
▁Hussein	-13853
▁cruelty	-13854
▁dispose	-13855
▁endowed	-13856
▁heading	-13857
▁refusal	-13858
▁screens	-13859
▁sikhara	-13860
▁spheres	-13861
▁umbrell	-13862
▁winding	-13863
▁passport	-13864
▁encounter	-13865
▁imperfect	-13866
▁isolation	-13867
▁obstacles	-13868
▁tribunals	-13869
unicipality	-13870
▁Statistics	-13871
▁guarantees	-13872
▁injunction	-13873
▁Independent	-13874
▁Presidential	-13875
HAN	-13876
VAN	-13877
arts	-13878
bone	-13879
▁Raw	-13880
▁dys	-13881
▁gop	-13882
▁pad	-13883
anchi	-13884
gebra	-13885
oping	-13886
▁Abhi	-13887
▁Mans	-13888
▁Modi	-13889
▁Pesh	-13890
▁Turn	-13891
▁blog	-13892
▁croc	-13893
▁pipe	-13894
hibits	-13895
▁Scale	-13896
▁flora	-13897
▁macro	-13898
▁yours	-13899
icherry	-13900
writing	-13901
▁Friday	-13902
▁Multip	-13903
▁heroic	-13904
▁portal	-13905
▁warmth	-13906
▁washed	-13907
▁Parties	-13908
▁Regular	-13909
▁exhibit	-13910
▁fathers	-13911
▁sulphur	-13912
▁cleaning	-13913
▁Otherwise	-13914
▁aggrieved	-13915
▁companion	-13916
▁diagnosis	-13917
▁Mahabharat	-13918
▁coordinate	-13919
▁discharged	-13920
▁discussing	-13921
▁reasonably	-13922
▁beneficiary	-13923
▁disciplines	-13924
Bs	-13925
hiz	-13926
uga	-13927
adhi	-13928
onts	-13929
▁DEV	-13930
▁Deg	-13931
▁Mam	-13932
▁gon	-13933
arked	-13934
arwal	-13935
eller	-13936
front	-13937
▁Font	-13938
▁Qual	-13939
▁SERV	-13940
▁Virt	-13941
▁arid	-13942
▁buck	-13943
wahati	-13944
▁Renew	-13945
▁debit	-13946
▁panic	-13947
▁tribe	-13948
▁Client	-13949
▁Nobody	-13950
▁corpus	-13951
▁merged	-13952
▁pillar	-13953
▁repudi	-13954
▁stroke	-13955
▁uplift	-13956
▁Valmiki	-13957
▁Vedanta	-13958
▁envelop	-13959
▁Savarkar	-13960
▁disappro	-13961
▁enduring	-13962
▁synchron	-13963
▁Khandekar	-13964
▁nutrients	-13965
▁translator	-13966
▁contributes	-13967
▁hospitality	-13968
ARC	-13969
upp	-13970
ilib	-13971
ipse	-13972
▁Kul	-13973
▁bot	-13974
auhan	-13975
erver	-13976
rooms	-13977
▁Prad	-13978
▁Vari	-13979
▁lump	-13980
▁pity	-13981
▁sang	-13982
ectomy	-13983
▁dilig	-13984
▁heter	-13985
▁metap	-13986
▁Claims	-13987
▁archae	-13988
▁capita	-13989
▁intric	-13990
▁nerves	-13991
▁promin	-13992
▁termed	-13993
▁Lebanon	-13994
▁adapted	-13995
▁barrier	-13996
▁Managing	-13997
▁Narayana	-13998
▁Textiles	-13999
▁enclosed	-14000
▁planting	-14001
▁Questions	-14002
▁formulate	-14003
▁Submission	-14004
▁defendants	-14005
▁journalism	-14006
▁volunteers	-14007
▁Subordinate	-14008
▁efficiently	-14009
▁prejudicial	-14010
▁Siyaramsharan	-14011
uka	-14012
▁Du	-14013
▁Sn	-14014
▁ja	-14015
aque	-14016
oter	-14017
▁Lod	-14018
▁Obs	-14019
▁lap	-14020
▁por	-14021
▁vom	-14022
igate	-14023
otive	-14024
▁Cere	-14025
▁Nana	-14026
▁Soul	-14027
▁cess	-14028
▁idle	-14029
▁leap	-14030
▁prox	-14031
▁spur	-14032
arians	-14033
formed	-14034
▁Daman	-14035
▁Surat	-14036
▁arter	-14037
▁meals	-14038
▁reimb	-14039
▁waist	-14040
entials	-14041
olition	-14042
▁Consid	-14043
▁Fertil	-14044
▁Mathem	-14045
▁church	-14046
▁Kishore	-14047
▁Pallava	-14048
▁beneath	-14049
▁glucose	-14050
▁planted	-14051
▁princes	-14052
▁Normally	-14053
▁guardian	-14054
▁invented	-14055
▁locality	-14056
▁promises	-14057
▁remarked	-14058
▁shifting	-14059
▁awakening	-14060
▁clarified	-14061
▁discontin	-14062
▁exemplary	-14063
▁maintains	-14064
▁probation	-14065
▁realities	-14066
▁unlimited	-14067
▁harmonious	-14068
▁peripheral	-14069
▁imperialist	-14070
▁voluntarily	-14071
aza	-14072
map	-14073
ois	-14074
TIVE	-14075
arta	-14076
aval	-14077
▁lax	-14078
▁wil	-14079
arial	-14080
▁Anil	-14081
▁Kala	-14082
▁Scot	-14083
▁obey	-14084
aswami	-14085
▁dirty	-14086
▁fears	-14087
▁guilt	-14088
▁maker	-14089
▁miser	-14090
station	-14091
▁Malays	-14092
▁Shukla	-14093
▁backed	-14094
▁conced	-14095
▁stupid	-14096
▁trader	-14097
▁Channel	-14098
▁Empower	-14099
▁Jodhpur	-14100
▁License	-14101
▁Setting	-14102
▁diagram	-14103
▁prevail	-14104
▁profess	-14105
▁useless	-14106
icultural	-14107
▁Capacity	-14108
▁Highways	-14109
▁Suddenly	-14110
▁alliance	-14111
▁spinning	-14112
▁survived	-14113
▁frivolous	-14114
▁heartfelt	-14115
▁inspiring	-14116
▁patronage	-14117
▁Background	-14118
▁privileged	-14119
▁Celebrations	-14120
▁Santiniketan	-14121
▁disobedience	-14122
▁tuberculosis	-14123
▁Harishchandra	-14124
psy	-14125
rik	-14126
sts	-14127
wad	-14128
arao	-14129
ften	-14130
ivic	-14131
lace	-14132
ophy	-14133
orus	-14134
wani	-14135
▁Meh	-14136
▁cig	-14137
▁hoc	-14138
acock	-14139
athan	-14140
feren	-14141
isure	-14142
orage	-14143
▁Flow	-14144
▁Vert	-14145
▁clos	-14146
▁duct	-14147
atient	-14148
▁Nawab	-14149
▁Seven	-14150
▁feeds	-14151
▁manif	-14152
itating	-14153
ocratic	-14154
▁Garden	-14155
▁Marine	-14156
▁arisen	-14157
▁assass	-14158
▁lawful	-14159
▁scroll	-14160
ilibrium	-14161
▁Nuclear	-14162
▁loading	-14163
▁swollen	-14164
▁Parishad	-14165
▁Recently	-14166
▁assuming	-14167
▁faithful	-14168
▁residing	-14169
▁supervis	-14170
▁Currently	-14171
▁Framework	-14172
▁Permanent	-14173
▁Redressal	-14174
▁attaining	-14175
▁curiosity	-14176
▁merchants	-14177
▁observing	-14178
▁ornaments	-14179
▁pecuniary	-14180
▁propagation	-14181
▁Notification	-14182
▁consolidated	-14183
▁personalities	-14184
OT	-14185
tr	-14186
fig	-14187
▁HR	-14188
ASHT	-14189
UGUR	-14190
akha	-14191
amas	-14192
ganj	-14193
ogas	-14194
oves	-14195
seek	-14196
▁Dad	-14197
▁Vit	-14198
▁ecl	-14199
▁mes	-14200
ierce	-14201
▁Cath	-14202
▁Loss	-14203
▁SCHE	-14204
▁Stan	-14205
▁adjo	-14206
▁bowl	-14207
▁grap	-14208
▁soap	-14209
▁sync	-14210
▁ward	-14211
▁Event	-14212
▁Sudan	-14213
▁Tiger	-14214
▁accus	-14215
▁flash	-14216
▁gupta	-14217
▁knees	-14218
▁sorts	-14219
▁Ashoka	-14220
▁Format	-14221
▁relied	-14222
▁reluct	-14223
▁sheets	-14224
▁INAUGUR	-14225
▁Trading	-14226
▁annuity	-14227
▁gradual	-14228
▁praised	-14229
connected	-14230
▁compiled	-14231
▁converts	-14232
▁evolving	-14233
▁moisture	-14234
▁seasonal	-14235
▁Bharatiya	-14236
▁Gurbakhsh	-14237
▁adversely	-14238
▁alignment	-14239
▁uniformity	-14240
▁effectiveness	-14241
▁competitiveness	-14242
OW	-14243
po	-14244
ASA	-14245
fty	-14246
▁DG	-14247
riva	-14248
vard	-14249
west	-14250
▁Ded	-14251
▁Haj	-14252
▁ink	-14253
▁rav	-14254
▁shy	-14255
askar	-14256
rowse	-14257
▁Sher	-14258
▁Sukh	-14259
▁fart	-14260
▁horm	-14261
▁knot	-14262
▁unav	-14263
▁vein	-14264
▁yard	-14265
icides	-14266
▁Front	-14267
▁Photo	-14268
▁curse	-14269
▁demon	-14270
▁epile	-14271
▁preca	-14272
itherto	-14273
▁Bankim	-14274
▁Making	-14275
▁derive	-14276
▁recept	-14277
igration	-14278
▁buffalo	-14279
▁charity	-14280
▁jealous	-14281
▁placing	-14282
▁suffers	-14283
▁tactics	-14284
▁verdict	-14285
▁Guwahati	-14286
▁Preamble	-14287
▁avoiding	-14288
▁handsome	-14289
▁hydrogen	-14290
▁misunder	-14291
▁ventures	-14292
▁expressly	-14293
▁memorable	-14294
▁providers	-14295
▁Commissions	-14296
▁Pondicherry	-14297
▁consecutive	-14298
▁consultancy	-14299
▁populations	-14300
▁descriptions	-14301
▁Entrepreneurs	-14302
LS	-14303
df	-14304
EAS	-14305
mal	-14306
▁GP	-14307
▁OI	-14308
asar	-14309
hair	-14310
icle	-14311
opia	-14312
pher	-14313
▁ACT	-14314
▁Lie	-14315
achar	-14316
agiri	-14317
▁Coll	-14318
▁Cott	-14319
▁Megh	-14320
▁Tend	-14321
▁goat	-14322
▁misc	-14323
▁sear	-14324
▁Haran	-14325
▁ample	-14326
▁enshr	-14327
▁riots	-14328
▁sweat	-14329
▁vogue	-14330
ineries	-14331
ittings	-14332
osystem	-14333
▁Diplom	-14334
▁Orders	-14335
▁Portal	-14336
▁Update	-14337
▁merger	-14338
▁wicked	-14339
▁Philipp	-14340
▁Provide	-14341
▁confron	-14342
▁expired	-14343
▁exploit	-14344
▁hygiene	-14345
▁sympath	-14346
iciencies	-14347
▁Priority	-14348
▁comprise	-14349
▁embodied	-14350
▁imprison	-14351
▁memorial	-14352
▁passages	-14353
▁sickness	-14354
▁Presiding	-14355
▁amenities	-14356
▁communist	-14357
▁parasites	-14358
▁prescribe	-14359
▁undertook	-14360
▁Irrigation	-14361
▁Opposition	-14362
▁Philosophy	-14363
▁differenti	-14364
▁originated	-14365
▁Maintenance	-14366
▁enhancement	-14367
▁facilitates	-14368
▁fascinating	-14369
▁respiratory	-14370
▁spontaneous	-14371
▁indifference	-14372
▁Certification	-14373
LD	-14374
avy	-14375
lav	-14376
▁CF	-14377
▁SU	-14378
▁Bik	-14379
▁bye	-14380
▁laz	-14381
▁vow	-14382
pling	-14383
▁Sudh	-14384
▁anch	-14385
▁budd	-14386
▁eros	-14387
▁inch	-14388
▁ugly	-14389
▁unin	-14390
▁Antar	-14391
▁Irish	-14392
▁Sagar	-14393
▁Years	-14394
▁arrog	-14395
▁catal	-14396
▁goats	-14397
▁straw	-14398
clusion	-14399
▁Kumari	-14400
▁Travel	-14401
▁boards	-14402
▁devast	-14403
▁excuse	-14404
▁precip	-14405
▁Improve	-14406
▁Receipt	-14407
▁Savings	-14408
▁uranium	-14409
▁glaciers	-14410
▁learners	-14411
ordination	-14412
▁Directive	-14413
▁ambulance	-14414
▁provident	-14415
▁transfers	-14416
▁Conditions	-14417
▁protective	-14418
▁undergoing	-14419
▁demonstrate	-14420
▁Championships	-14421
▁establishments	-14422
▁congratulations	-14423
BB	-14424
IFE	-14425
LIC	-14426
▁ER	-14427
core	-14428
▁Bak	-14429
▁Bat	-14430
▁Hey	-14431
▁Lot	-14432
▁MAN	-14433
▁Sap	-14434
▁Saw	-14435
▁adh	-14436
▁ore	-14437
andan	-14438
break	-14439
ectar	-14440
itrus	-14441
▁Nurs	-14442
▁Rand	-14443
apurna	-14444
friend	-14445
iaison	-14446
▁acids	-14447
▁bonus	-14448
▁eloqu	-14449
▁limbs	-14450
▁peaks	-14451
▁stiff	-14452
▁stuck	-14453
▁wells	-14454
▁Joseph	-14455
▁Palace	-14456
▁defaul	-14457
▁dental	-14458
▁hosted	-14459
▁shapes	-14460
mbudsman	-14461
▁blocked	-14462
▁choices	-14463
▁mounted	-14464
▁storing	-14465
▁tickets	-14466
▁Islamism	-14467
▁MINISTER	-14468
▁Mahendra	-14469
▁creature	-14470
▁organise	-14471
▁unlawful	-14472
▁Important	-14473
▁ascertain	-14474
▁photographs	-14475
▁multilateral	-14476
▁infrastructural	-14477
gia	-14478
▁Ec	-14479
▁Baj	-14480
▁luc	-14481
izers	-14482
▁Gaya	-14483
▁Summ	-14484
▁Sust	-14485
▁fant	-14486
▁rape	-14487
ASHTRA	-14488
ambers	-14489
mented	-14490
▁Notes	-14491
▁Shyam	-14492
▁annoy	-14493
▁fauna	-14494
▁screw	-14495
▁Diwali	-14496
▁Ramesh	-14497
▁Result	-14498
▁eldest	-14499
▁embryo	-14500
▁ration	-14501
ollywood	-14502
▁classic	-14503
▁fishing	-14504
▁masters	-14505
▁redress	-14506
▁CONDOLES	-14507
▁Function	-14508
▁Progress	-14509
▁advisory	-14510
▁decisive	-14511
▁deserves	-14512
▁interior	-14513
▁invasion	-14514
▁inviting	-14515
▁prescrib	-14516
▁wrongful	-14517
▁divisible	-14518
▁sanctuary	-14519
▁arithmetic	-14520
▁illiterate	-14521
▁formulating	-14522
▁immigration	-14523
▁inheritance	-14524
▁Professional	-14525
dh	-14526
ado	-14527
axy	-14528
bow	-14529
chy	-14530
elo	-14531
▁NR	-14532
umed	-14533
▁Gaj	-14534
▁Ral	-14535
▁Rig	-14536
▁Rot	-14537
▁Tob	-14538
▁mul	-14539
inton	-14540
▁Crop	-14541
▁Face	-14542
▁dogs	-14543
▁memo	-14544
▁sadd	-14545
rivast	-14546
▁Peter	-14547
▁Poona	-14548
▁accru	-14549
▁cargo	-14550
▁clubs	-14551
▁punct	-14552
▁spare	-14553
▁trash	-14554
▁Answer	-14555
▁analog	-14556
▁devoid	-14557
▁inflam	-14558
▁vacant	-14559
▁anthrop	-14560
▁failing	-14561
▁linkage	-14562
▁valleys	-14563
inguished	-14564
isational	-14565
▁Infinite	-14566
▁conquest	-14567
▁consulted	-14568
▁creditors	-14569
▁emissions	-14570
▁geography	-14571
▁screening	-14572
▁Preferences	-14573
▁temperament	-14574
▁humanitarian	-14575
▁mathematical	-14576
▁partnerships	-14577
▁biotechnology	-14578
ATH	-14579
afe	-14580
alp	-14581
ede	-14582
aned	-14583
hale	-14584
pill	-14585
▁BIS	-14586
▁Cad	-14587
▁Hor	-14588
▁mun	-14589
ilant	-14590
ledon	-14591
▁Anal	-14592
▁Chan	-14593
▁Girl	-14594
▁Mald	-14595
▁WITH	-14596
▁pars	-14597
▁triv	-14598
criber	-14599
solete	-14600
▁needy	-14601
▁thumb	-14602
▁AWARDS	-14603
▁Growth	-14604
▁Junior	-14605
▁elders	-14606
▁glands	-14607
▁phases	-14608
▁redund	-14609
▁Hussain	-14610
▁Parvati	-14611
▁aquatic	-14612
▁beetles	-14613
▁persist	-14614
▁priests	-14615
▁connects	-14616
▁diameter	-14617
▁pilgrims	-14618
▁prompted	-14619
▁seminars	-14620
▁Character	-14621
▁ancestors	-14622
▁contempor	-14623
▁delegates	-14624
▁donations	-14625
▁intestate	-14626
▁Communications	-14627
▁Narmadashankar	-14628
ulg	-14629
▁Mi	-14630
▁Ol	-14631
▁ft	-14632
cile	-14633
tage	-14634
▁BHA	-14635
▁Lit	-14636
▁Own	-14637
▁wre	-14638
anker	-14639
▁Liqu	-14640
▁lens	-14641
alling	-14642
▁Books	-14643
▁enric	-14644
▁facie	-14645
▁lapse	-14646
▁nurse	-14647
▁posed	-14648
▁sized	-14649
▁beetle	-14650
▁ladies	-14651
▁Anandam	-14652
▁Captain	-14653
▁Seventh	-14654
▁abandon	-14655
▁calcium	-14656
▁cheaper	-14657
▁justify	-14658
▁miracle	-14659
▁quietly	-14660
▁virtues	-14661
▁frontier	-14662
▁implicit	-14663
▁landmark	-14664
▁alchemist	-14665
▁decentral	-14666
▁fortnight	-14667
▁incapable	-14668
▁lightning	-14669
▁unwilling	-14670
▁Grievances	-14671
▁ceremonial	-14672
▁explaining	-14673
▁officially	-14674
▁prospective	-14675
▁conciliation	-14676
ESH	-14677
upt	-14678
alas	-14679
angi	-14680
▁GOV	-14681
▁Veg	-14682
▁bac	-14683
▁bai	-14684
▁Khil	-14685
▁bite	-14686
▁saty	-14687
▁seal	-14688
▁sway	-14689
MORROW	-14690
omical	-14691
▁Above	-14692
▁Bazar	-14693
▁Qatar	-14694
▁STATE	-14695
▁linga	-14696
[...]
