<unk>	0
<s>	0
</s>	0
UuRrLl	0
DdAaTtEe	0
NnUuMm	0
▁the	-2.80596
▁	-2.95573
▁of	-3.3377
▁,	-3.40384
▁.	-3.53485
▁to	-3.91433
▁and	-3.9916
▁in	-4.13616
.	-4.35241
▁is	-4.52686
▁a	-4.55052
▁that	-4.61316
०	-4.66543
s	-4.68444
▁by	-4.96054
▁for	-4.99928
▁be	-5.05632
;	-5.08283
▁was	-5.09884
१	-5.10478
▁&	-5.14084
▁on	-5.15666
▁The	-5.16272
▁as	-5.20447
▁not	-5.30162
apos	-5.37667
-	-5.38025
▁or	-5.43491
▁)	-5.45368
▁(	-5.45458
▁has	-5.46727
ed	-5.53317
▁with	-5.57446
▁it	-5.58174
२	-5.60055
ing	-5.66003
▁which	-5.74103
▁-	-5.75569
▁are	-5.7709
▁this	-5.77232
▁/	-5.83757
▁from	-5.87525
▁Court	-5.88994
▁have	-5.9208
▁his	-5.98685
▁at	-5.99978
▁an	-6.0132
▁under	-6.02042
▁been	-6.02439
▁he	-6.11248
▁any	-6.15066
३	-6.16188
▁also	-6.17487
▁case	-6.20455
▁In	-6.22554
▁had	-6.24195
▁It	-6.27098
▁:	-6.27891
▁no	-6.31065
▁were	-6.35722
▁such	-6.36107
▁A	-6.51022
▁I	-6.51721
▁said	-6.5245
▁No	-6.52531
▁s	-6.52696
▁order	-6.5329
▁would	-6.54986
▁Act	-6.56025
▁all	-6.59153
▁petitioner	-6.59657
▁there	-6.59756
▁other	-6.59931
४	-6.60577
▁their	-6.6668
▁made	-6.70001
▁one	-6.72846
▁can	-6.75272
▁but	-6.76054
▁who	-6.77044
▁its	-6.77502
▁India	-6.77994
▁accused	-6.78237
▁He	-6.8051
▁may	-6.80592
▁P	-6.81068
d	-6.85438
▁time	-6.85626
▁only	-6.85766
▁learned	-6.85991
e	-6.8617
▁will	-6.86554
ly	-6.87441
▁they	-6.88296
▁State	-6.88319
▁if	-6.90922
▁her	-6.92536
▁before	-6.94498
▁same	-6.95673
▁out	-6.96298
५	-6.97629
▁respondent	-7.00413
▁we	-7.00485
▁him	-7.00857
▁after	-7.03598
▁Government	-7.04002
▁evidence	-7.04398
▁shall	-7.06201
▁This	-7.06871
▁when	-7.07218
▁dated	-7.07352
▁you	-7.07859
.0	-7.08255
▁against	-7.08526
▁so	-7.08854
▁being	-7.12949
▁should	-7.14614
▁appellant	-7.15408
▁law	-7.17663
▁cannot	-7.19086
▁into	-7.19734
▁about	-7.20953
y	-7.21948
▁them	-7.24747
▁further	-7.24794
▁two	-7.2569
P	-7.27285
▁court	-7.28556
▁these	-7.29166
▁PW	-7.30451
▁person	-7.32883
▁up	-7.3379
▁stated	-7.36309
▁where	-7.37495
▁present	-7.38238
▁could	-7.38497
▁deceased	-7.38555
▁counsel	-7.39297
▁0	-7.39324
▁taken	-7.39579
th	-7.39854
▁S	-7.39972
▁more	-7.40057
▁held	-7.40309
▁filed	-7.41036
▁;	-7.41227
▁first	-7.42392
६	-7.43119
a	-7.44273
▁over	-7.44285
▁our	-7.44352
▁per	-7.45619
▁even	-7.4569
▁view	-7.46467
▁years	-7.46524
▁some	-7.47283
▁given	-7.48608
S	-7.49659
amp	-7.51509
▁submitted	-7.52076
▁On	-7.5253
▁well	-7.53026
▁do	-7.53829
▁”	-7.54635
▁upon	-7.54727
▁application	-7.55153
▁fact	-7.55468
▁right	-7.55618
▁land	-7.55637
▁%	-7.56254
▁must	-7.56579
▁between	-7.57853
▁than	-7.58635
▁above	-7.59597
▁therefore	-7.60208
▁“	-7.60614
▁High	-7.60885
▁Mr	-7.61075
▁she	-7.62052
▁judgment	-7.631
▁Rs	-7.63117
▁C	-7.63276
▁passed	-7.63602
▁year	-7.63815
al	-7.64109
▁matter	-7.6439
▁petition	-7.64592
▁within	-7.64946
▁petitioners	-7.66321
▁As	-7.66517
▁place	-7.67155
er	-7.67519
▁part	-7.67585
A	-7.67963
▁without	-7.68054
▁through	-7.6846
▁prosecution	-7.68566
▁decision	-7.68628
▁date	-7.68629
▁then	-7.68834
▁Supreme	-7.69109
▁We	-7.69569
▁provisions	-7.69637
▁did	-7.70374
▁found	-7.70486
▁question	-7.70647
▁power	-7.70766
▁suit	-7.716
▁Singh	-7.71603
▁period	-7.71628
▁does	-7.71733
▁M	-7.73787
▁Indian	-7.74747
▁like	-7.75519
▁people	-7.75713
▁There	-7.7638
▁amount	-7.76577
▁plaintiff	-7.77171
▁Section	-7.77237
▁But	-7.77901
▁?	-7.78105
▁persons	-7.78769
▁very	-7.79103
▁whether	-7.79266
▁report	-7.79443
▁record	-7.79449
▁writ	-7.79618
▁public	-7.8011
▁while	-7.81346
▁issued	-7.81754
▁If	-7.81905
७	-7.81924
▁statement	-7.81937
▁trial	-7.8211
C	-7.82167
▁what	-7.83558
W	-7.83803
▁parties	-7.84096
▁make	-7.84853
▁used	-7.8518
n	-7.85461
▁during	-7.85515
▁both	-7.85914
▁new	-7.86395
▁work	-7.8686
▁property	-7.87141
▁R	-7.87571
▁take	-7.88126
▁appeal	-7.88322
▁because	-7.88924
▁respect	-7.89219
▁having	-7.89938
▁authority	-7.9027
▁facts	-7.90637
▁B	-7.92029
▁police	-7.92633
▁basis	-7.94459
▁offence	-7.95697
▁set	-7.96255
▁way	-7.9629
▁District	-7.96355
i	-7.96521
▁witness	-7.96688
▁life	-7.96716
▁i	-7.96797
▁three	-7.96972
▁house	-7.9704
t	-7.97213
m	-7.97343
▁service	-7.97578
▁those	-7.97771
▁D	-7.97777
▁your	-7.98102
▁proceedings	-7.98849
▁Judge	-8.00254
▁notice	-8.01207
▁regard	-8.01389
▁re	-8.01748
es	-8.01943
▁came	-8.01992
▁Officer	-8.02269
▁my	-8.02516
▁defendant	-8.03
▁considered	-8.03405
▁interest	-8.03544
▁different	-8.03637
▁day	-8.03669
▁required	-8.03813
▁’	-8.04451
▁concerned	-8.04861
▁circumstances	-8.05237
▁company	-8.05724
▁down	-8.05877
▁witnesses	-8.05999
▁respondents	-8.06021
▁sub	-8.07426
▁section	-8.07535
▁issue	-8.08039
ble	-8.08058
▁cases	-8.08422
▁Therefore	-8.08522
▁action	-8.08534
▁However	-8.09605
▁body	-8.10732
▁purpose	-8.10855
▁country	-8.11229
st	-8.11448
▁process	-8.11857
▁So	-8.11881
▁due	-8.12147
▁death	-8.12566
▁account	-8.1268
▁come	-8.13535
▁Shri	-8.13627
▁jurisdiction	-8.13912
▁non	-8.14592
▁t	-8.14935
▁ground	-8.14948
▁Ex	-8.15511
▁aforesaid	-8.15745
८	-8.15999
▁number	-8.16034
▁Constitution	-8.16172
▁They	-8.16434
quot	-8.16573
▁each	-8.17427
▁since	-8.17574
▁party	-8.17764
▁For	-8.18097
▁another	-8.18105
▁pay	-8.18116
▁nature	-8.18458
▁necessary	-8.18588
▁Kumar	-8.18909
▁own	-8.19278
r	-8.19361
▁President	-8.19366
▁information	-8.19692
▁name	-8.20442
▁post	-8.20461
▁now	-8.20494
in	-8.20535
▁Rules	-8.21265
▁terms	-8.21596
▁many	-8.21659
▁L	-8.21803
▁material	-8.22278
▁effect	-8.22416
▁appellants	-8.2247
▁possession	-8.22601
O	-8.22655
▁available	-8.2322
▁referred	-8.2412
▁impugned	-8.24161
▁claim	-8.25478
▁And	-8.26038
▁find	-8.26272
▁consideration	-8.26337
▁various	-8.26534
▁Hon	-8.26827
▁etc	-8.2696
▁get	-8.27197
▁subject	-8.28427
▁use	-8.28582
▁already	-8.28833
▁reason	-8.28838
▁relevant	-8.29049
▁Police	-8.29122
▁me	-8.29323
▁Tribunal	-8.29329
lt	-8.29496
▁K	-8.29596
▁contend	-8.29636
▁recorded	-8.29976
▁itself	-8.31117
▁To	-8.31125
▁second	-8.31858
▁clear	-8.31994
▁called	-8.32113
▁cause	-8.32252
▁us	-8.32289
▁Central	-8.32704
▁back	-8.32894
able	-8.33038
▁provided	-8.3313
▁world	-8.33477
▁following	-8.3356
▁business	-8.3374
▁Rule	-8.34131
▁opinion	-8.34381
▁When	-8.34473
▁Committee	-8.34565
▁members	-8.3484
▁agreement	-8.34914
▁result	-8.34951
I	-8.34951
▁legal	-8.34955
▁charge	-8.35201
▁investigation	-8.35218
▁G	-8.3524
▁supra	-8.35475
▁including	-8.35535
▁though	-8.35661
▁That	-8.35746
▁O	-8.35866
▁She	-8.35895
▁provision	-8.35995
▁form	-8.3623
▁far	-8.36259
▁show	-8.36286
▁Thus	-8.36341
▁course	-8.36375
▁hand	-8.36835
▁documents	-8.37165
▁based	-8.37517
▁days	-8.3792
▁done	-8.38658
▁examination	-8.38723
▁Department	-8.38937
▁give	-8.39063
gt	-8.39507
▁Code	-8.39623
▁every	-8.39649
▁b	-8.39843
▁most	-8.40536
▁long	-8.40581
▁act	-8.40792
▁manner	-8.40801
▁Board	-8.40861
▁un	-8.40912
▁along	-8.41228
▁family	-8.41358
▁state	-8.41619
▁system	-8.42377
▁point	-8.42829
▁need	-8.42868
▁sale	-8.43561
▁At	-8.4365
▁letter	-8.43664
▁allowed	-8.44153
▁Commission	-8.44352
▁SCC	-8.44481
▁go	-8.44494
▁appointment	-8.44919
▁much	-8.44925
▁either	-8.44971
R	-8.45524
▁development	-8.45734
▁submission	-8.46479
▁complaint	-8.46502
▁Ram	-8.46644
▁N	-8.46815
▁however	-8.46905
▁An	-8.46992
▁Bench	-8.47154
▁mind	-8.47197
▁contract	-8.47254
▁means	-8.47437
▁Dr	-8.47532
▁favour	-8.47742
▁behalf	-8.47993
▁put	-8.48024
▁incident	-8.4821
▁making	-8.48477
▁received	-8.485
▁mentioned	-8.48842
▁good	-8.49131
▁just	-8.49496
▁income	-8.49883
▁grant	-8.49996
▁exercise	-8.50331
▁alleged	-8.50473
▁support	-8.50544
▁area	-8.50659
▁placed	-8.50907
▁certain	-8.51043
▁words	-8.51059
▁see	-8.51093
▁cross	-8.51127
▁took	-8.51509
▁earlier	-8.51613
▁After	-8.51754
▁position	-8.51771
ness	-8.52271
▁payment	-8.52841
▁examined	-8.53335
▁clause	-8.53487
▁office	-8.53583
▁entitled	-8.5366
▁criminal	-8.53815
▁contention	-8.53881
▁p	-8.53958
an	-8.54113
M	-8.54306
▁registered	-8.54372
▁know	-8.54423
▁how	-8.54558
▁stage	-8.54614
▁policy	-8.5468
▁T	-8.5472
▁left	-8.54909
▁below	-8.55019
▁entire	-8.55107
▁tax	-8.55342
▁J	-8.55504
D	-8.55695
▁justice	-8.55785
▁written	-8.55845
▁All	-8.55976
▁W	-8.5603
▁father	-8.56711
▁committed	-8.56877
▁read	-8.5689
▁officer	-8.56947
▁complainant	-8.57087
▁paid	-8.57145
▁thus	-8.57222
▁here	-8.57284
▁taking	-8.57295
▁Delhi	-8.57398
▁last	-8.57697
▁others	-8.5778
▁dispute	-8.57819
▁granted	-8.57836
▁raised	-8.57854
▁water	-8.57981
९	-8.58073
section	-8.58568
B	-8.58593
▁award	-8.58923
▁orders	-8.59056
▁National	-8.59106
▁man	-8.59172
▁admitted	-8.59326
▁Vs	-8.59419
▁seen	-8.59684
▁Bank	-8.59841
0	-8.5994
▁proved	-8.60176
▁common	-8.60625
▁Commissioner	-8.6086
l	-8.60913
▁direct	-8.60919
▁important	-8.6151
▁rights	-8.61901
▁services	-8.62383
▁observed	-8.62466
▁Learned	-8.62678
▁reference	-8.6274
▁say	-8.62753
▁duty	-8.63053
▁F	-8.6317
▁four	-8.63187
▁value	-8.63411
▁Civil	-8.64003
▁Magistrate	-8.6437
▁again	-8.64405
▁file	-8.64451
▁U	-8.64847
▁Sri	-8.64848
▁known	-8.65042
▁great	-8.65142
o	-8.65493
▁conditions	-8.65549
▁vide	-8.65936
▁reasons	-8.6632
▁government	-8.66548
▁E	-8.66699
▁These	-8.67146
▁directed	-8.67258
No	-8.67537
▁list	-8.67734
▁away	-8.6819
▁brought	-8.68309
▁particular	-8.68466
▁General	-8.68565
▁money	-8.68642
▁months	-8.69275
▁rule	-8.69528
▁...	-8.697
▁nor	-8.69754
▁produced	-8.69804
▁dismissed	-8.69957
▁going	-8.70378
▁sent	-8.70592
▁am	-8.7079
▁light	-8.7084
▁scheme	-8.7101
▁&#93;	-8.71038
▁towards	-8.71411
▁clearly	-8.71643
▁age	-8.71778
▁son	-8.71805
▁co	-8.71805
▁side	-8.71907
▁&#91;	-8.72092
▁himself	-8.72377
▁till	-8.72383
▁original	-8.72562
▁rules	-8.72604
▁herein	-8.72747
▁document	-8.72966
▁wife	-8.73086
▁possible	-8.73881
▁open	-8.73895
▁You	-8.74001
▁judicial	-8.74105
▁end	-8.74305
▁final	-8.74306
▁doubt	-8.74353
▁went	-8.74751
▁become	-8.74959
▁reported	-8.7513
▁knowledge	-8.75207
▁H	-8.75488
▁appropriate	-8.75604
▁established	-8.75787
▁provide	-8.75845
▁University	-8.76013
ity	-8.763
▁Company	-8.76355
▁bank	-8.76649
▁special	-8.76679
▁children	-8.7668
▁society	-8.76765
▁village	-8.76873
▁appointed	-8.7711
▁help	-8.77141
▁Order	-8.77152
▁Apex	-8.77183
K	-8.77298
▁decided	-8.77465
▁specific	-8.77703
▁allegation	-8.77742
▁got	-8.77752
▁delay	-8.78041
▁thereafter	-8.7811
▁accepted	-8.78132
▁large	-8.7851
▁consider	-8.7856
▁Division	-8.78756
▁five	-8.78801
or	-8.79042
▁relating	-8.79279
T	-8.79421
▁regarding	-8.79638
▁compensation	-8.79943
▁prescribed	-8.79967
▁benefit	-8.80009
▁several	-8.8004
▁whole	-8.80427
▁authorities	-8.8067
▁mother	-8.80817
▁decree	-8.80859
▁human	-8.8095
▁language	-8.81021
▁Even	-8.81196
▁Chief	-8.81465
▁v	-8.81481
ion	-8.81522
pur	-8.8156
▁employees	-8.81597
▁hearing	-8.81628
▁defendants	-8.81813
▁reli	-8.81917
▁general	-8.82131
▁never	-8.82264
▁procedure	-8.82285
▁education	-8.82336
▁powers	-8.82443
▁submits	-8.82491
▁sought	-8.82497
▁Corporation	-8.83115
▁occurrence	-8.83248
on	-8.83297
▁Counsel	-8.83324
▁goods	-8.83381
▁appears	-8.83489
▁Cr	-8.83543
▁copy	-8.83755
▁child	-8.83756
▁total	-8.84073
▁reasonable	-8.84258
▁IST	-8.84289
▁laid	-8.84538
▁husband	-8.84554
▁accordance	-8.84677
▁working	-8.84766
▁direction	-8.8519
▁full	-8.85278
▁rate	-8.85307
▁V	-8.85433
▁word	-8.85518
▁defence	-8.85649
▁FIR	-8.85838
▁otherwise	-8.86096
▁force	-8.86122
▁applicant	-8.8618
▁condition	-8.8621
▁His	-8.86452
▁aside	-8.86708
▁affidavit	-8.86709
▁Union	-8.86793
ation	-8.87113
▁social	-8.87384
▁Further	-8.87654
▁too	-8.87696
▁failed	-8.87832
▁OF	-8.87903
▁appearing	-8.88196
▁assessment	-8.88284
▁matters	-8.88386
▁principle	-8.8854
ar	-8.88713
▁private	-8.89572
▁conclusion	-8.89712
▁opportunity	-8.89836
▁medical	-8.89903
▁Courts	-8.90021
▁change	-8.90109
▁conduct	-8.90118
▁Authority	-8.90397
▁demand	-8.90518
▁Council	-8.9055
▁What	-8.90749
00	-8.90898
ers	-8.91297
▁proceeding	-8.91324
▁free	-8.91589
▁Public	-8.91632
▁high	-8.91683
▁true	-8.91726
▁victim	-8.91748
▁injuries	-8.91752
▁hold	-8.92119
▁later	-8.92412
▁proper	-8.9253
▁still	-8.92625
▁Special	-8.92632
▁next	-8.92777
▁small	-8.92812
x	-8.93065
▁Pradesh	-8.93293
▁want	-8.93317
▁note	-8.93381
▁times	-8.93546
▁Director	-8.93582
▁principles	-8.9379
▁less	-8.93794
▁According	-8.9388
▁finding	-8.94044
▁according	-8.9409
▁IPC	-8.94306
▁c	-8.94404
▁control	-8.94709
▁today	-8.94809
▁transfer	-8.95093
▁financial	-8.95111
▁term	-8.95295
▁contained	-8.95368
▁blood	-8.9543
ment	-8.95469
▁apply	-8.95514
▁Law	-8.95538
▁higher	-8.95823
u	-8.95969
▁always	-8.96103
▁dead	-8.96208
▁caused	-8.96413
▁natural	-8.96455
▁object	-8.96638
▁Sub	-8.96646
▁relief	-8.96679
▁spot	-8.96712
▁presence	-8.96889
▁enquiry	-8.96962
▁giving	-8.97043
▁old	-8.97281
▁meeting	-8.9729
▁prove	-8.97314
▁nothing	-8.97432
▁provides	-8.97459
▁m	-8.97501
▁SC	-8.97501
▁Advocate	-8.97541
▁prior	-8.97581
▁One	-8.9768
▁holding	-8.97812
▁namely	-8.98193
G	-8.98249
▁once	-8.98381
▁market	-8.9846
▁beyond	-8.98657
▁Ltd	-8.98668
▁Nos	-8.98827
▁injury	-8.989
▁sufficient	-8.99446
▁New	-8.99495
▁prepared	-8.995
▁stand	-8.99565
▁third	-8.99588
▁extent	-8.99838
nd	-9.00287
▁asked	-9.00557
▁Station	-9.00597
▁situation	-9.00692
▁level	-9.00798
▁main	-9.0084
▁notification	-9.0093
▁para	-9.00933
▁conducted	-9.00946
▁denied	-9.01499
▁charges	-9.01569
man	-9.01691
▁local	-9.01788
▁certificate	-9.01932
V	-9.0203
▁head	-9.02057
na	-9.0211
▁filing	-9.02407
▁think	-9.02412
▁unless	-9.02822
▁group	-9.02896
ic	-9.03214
▁petitions	-9.03266
▁States	-9.03435
▁Senior	-9.03445
▁Development	-9.0358
▁short	-9.03599
▁liable	-9.03665
▁thereof	-9.03678
k	-9.03929
N	-9.03987
▁statutory	-9.0408
▁heard	-9.04134
▁self	-9.04157
▁specified	-9.04313
▁areas	-9.04444
▁applicable	-9.04461
▁While	-9.04598
▁decisions	-9.04767
▁together	-9.04768
▁absence	-9.04785
▁employee	-9.05074
▁assessee	-9.05317
▁home	-9.05331
▁off	-9.05382
▁depos	-9.05384
c	-9.05397
▁civil	-9.05458
▁With	-9.05552
▁x	-9.0557
▁Respondent	-9.05876
▁complete	-9.05969
▁something	-9.06231
▁therein	-9.06362
▁similar	-9.06476
▁economic	-9.06539
▁Page	-9.06668
▁students	-9.06878
▁sentence	-9.06933
▁return	-9.06937
am	-9.07281
▁best	-9.07416
▁deed	-9.07448
▁started	-9.07453
▁individual	-9.07585
▁construction	-9.08
▁cost	-9.08077
▁member	-9.08115
▁states	-9.08349
▁bring	-9.08513
▁settled	-9.08869
▁conviction	-9.09475
▁wherein	-9.09642
▁issues	-9.09644
▁Ext	-9.09649
▁political	-9.09746
▁By	-9.099
▁bail	-9.09954
▁meaning	-9.10562
▁around	-9.10898
▁pending	-9.11007
▁paragraph	-9.11426
▁AIR	-9.11481
▁leave	-9.11485
▁trade	-9.11504
▁merely	-9.11562
ri	-9.11588
▁shown	-9.11725
▁rejected	-9.12111
▁intention	-9.12145
▁loss	-9.12289
▁marriage	-9.12361
▁countries	-9.12451
▁school	-9.12555
ra	-9.12562
▁courts	-9.12567
▁building	-9.12588
▁kept	-9.12636
▁few	-9.12794
▁month	-9.1283
▁candidates	-9.12908
▁accordingly	-9.12963
▁Such	-9.1312
▁capital	-9.13198
▁call	-9.13372
▁election	-9.13584
▁false	-9.13599
▁test	-9.13834
▁vehicle	-9.14119
▁except	-9.14183
▁Hence	-9.14194
▁brother	-9.1425
▁followed	-9.14443
▁able	-9.14597
▁production	-9.14601
▁considering	-9.14735
▁proceed	-9.14948
▁purposes	-9.1501
▁national	-9.15091
▁field	-9.15128
▁share	-9.15146
▁six	-9.15276
▁statements	-9.153
▁challenge	-9.15481
▁women	-9.15484
▁activities	-9.15636
▁review	-9.15675
us	-9.15711
▁Criminal	-9.15712
▁e	-9.15738
la	-9.1589
le	-9.15964
▁foreign	-9.15985
▁Secretary	-9.16063
examination	-9.16093
▁institutions	-9.16247
to	-9.16266
▁why	-9.16364
▁equal	-9.16399
▁management	-9.16556
▁Since	-9.16573
▁book	-9.16871
▁whose	-9.17405
▁offences	-9.17517
▁Additional	-9.17611
▁Parliament	-9.17685
ies	-9.17746
▁informed	-9.17762
▁From	-9.17774
▁illegal	-9.17984
▁involved	-9.18158
▁English	-9.18228
▁price	-9.18312
▁health	-9.18324
▁project	-9.18391
▁Education	-9.18766
▁Justice	-9.18769
▁title	-9.18857
f	-9.18969
▁ensure	-9.19077
▁contrary	-9.19085
▁follows	-9.19246
▁things	-9.19358
▁THE	-9.19427
▁fixed	-9.19556
▁grounds	-9.19565
▁claimed	-9.19603
▁sum	-9.19873
▁among	-9.19886
▁near	-9.19976
▁Hindu	-9.20124
b	-9.20142
▁gave	-9.20314
▁personal	-9.20325
h	-9.20484
▁Under	-9.20674
▁Thereafter	-9.20814
▁additional	-9.20848
▁May	-9.20954
▁previous	-9.21011
▁food	-9.21076
▁HC	-9.21117
▁executed	-9.21169
▁registration	-9.21316
▁might	-9.21507
▁Minister	-9.21644
▁seeking	-9.2165
▁Service	-9.21807
▁future	-9.21983
▁treated	-9.22087
▁owner	-9.22143
▁inter	-9.22189
▁Co	-9.22332
▁expression	-9.22411
▁March	-9.226
g	-9.22635
▁recovery	-9.22694
▁plaintiffs	-9.22736
▁carried	-9.23516
▁eye	-9.23589
▁properties	-9.23704
▁cent	-9.23723
▁context	-9.23727
▁security	-9.23807
▁arbitration	-9.23812
▁institution	-9.23963
▁declaration	-9.24064
▁related	-9.24243
ya	-9.24381
▁d	-9.2492
▁framed	-9.25045
▁crime	-9.25091
▁request	-9.2518
▁commission	-9.25201
▁daughter	-9.2528
▁Assistant	-9.25366
▁serious	-9.25515
▁suffer	-9.2567
▁search	-9.25692
▁needs	-9.25778
▁relation	-9.25794
▁look	-9.25824
▁promotion	-9.2584
▁became	-9.25871
▁competent	-9.26082
▁role	-9.26116
▁obtained	-9.26332
▁pre	-9.26527
▁yet	-9.26614
▁continue	-9.26623
▁face	-9.26697
▁declared	-9.2679
▁told	-9.27058
▁industry	-9.2723
▁details	-9.27281
▁First	-9.27337
NIC	-9.27338
▁outside	-9.2745
▁aspect	-9.27497
▁connection	-9.27685
ta	-9.27712
ary	-9.27742
ur	-9.27873
▁Now	-9.27898
▁Annexure	-9.28056
▁little	-9.2837
▁single	-9.28394
▁submit	-9.28454
▁applied	-9.28673
▁admission	-9.28679
▁Will	-9.28829
▁sector	-9.28833
▁particularly	-9.28992
▁instant	-9.29196
▁counter	-9.2951
▁British	-9.29522
▁interim	-9.29576
▁reached	-9.2965
▁writing	-9.29848
um	-9.29867
as	-9.29915
▁Raj	-9.29932
▁Village	-9.29983
▁Re	-9.30157
▁data	-9.30186
it	-9.3022
▁whom	-9.30227
▁Created	-9.30294
▁kind	-9.30316
▁execution	-9.30412
▁officers	-9.30428
▁records	-9.30481
▁existence	-9.30539
▁Petitioner	-9.30554
▁tender	-9.30563
▁accept	-9.30689
▁existing	-9.30824
▁separate	-9.30834
▁shows	-9.30848
re	-9.30852
▁April	-9.30866
▁class	-9.30873
▁Bhavan	-9.30896
▁occasion	-9.30972
▁Procedure	-9.30976
▁event	-9.30979
▁decide	-9.31028
▁Ministry	-9.31243
at	-9.31366
▁correct	-9.31392
▁House	-9.31453
L	-9.31492
▁Hindi	-9.31557
▁quality	-9.31622
▁treatment	-9.31648
ive	-9.31712
▁murder	-9.31809
▁sense	-9.3201
▁findings	-9.32016
▁Writ	-9.3202
▁permission	-9.32164
▁line	-9.32185
▁care	-9.32297
▁Lal	-9.32352
▁appellate	-9.32497
▁capacity	-9.32547
en	-9.32707
▁approval	-9.32723
▁Clause	-9.32861
▁pointed	-9.33018
▁employment	-9.33149
▁hence	-9.3329
▁type	-9.33307
▁approach	-9.33444
▁neither	-9.33472
▁anything	-9.3357
▁thing	-9.33577
▁better	-9.3385
▁rendered	-9.33891
▁entered	-9.33946
ia	-9.34
▁themselves	-9.34066
▁major	-9.34095
▁selection	-9.34105
▁coming	-9.34206
▁Trial	-9.34235
ant	-9.34243
▁Single	-9.34312
ni	-9.34361
▁Limited	-9.34376
▁appear	-9.34525
▁passing	-9.347
▁growth	-9.34893
▁gone	-9.34957
▁merit	-9.35214
▁let	-9.35233
▁makes	-9.35257
▁Appeal	-9.35363
▁Sessions	-9.35409
▁Report	-9.35476
▁operation	-9.35511
▁reply	-9.35716
▁senior	-9.35734
▁amendment	-9.35755
▁God	-9.35811
▁story	-9.35832
ism	-9.35932
▁real	-9.35969
▁specifically	-9.35992
▁Though	-9.36172
less	-9.36208
▁station	-9.3622
▁alone	-9.36311
▁applications	-9.3632
▁receipt	-9.3646
▁immediately	-9.36537
▁seized	-9.36624
▁created	-9.36636
rd	-9.36729
▁Petition	-9.36757
▁punishment	-9.36781
▁valid	-9.37096
▁include	-9.37276
▁Scheme	-9.37412
▁During	-9.37416
▁Ka	-9.37446
▁Bihar	-9.37513
▁love	-9.37555
▁died	-9.37636
▁inquiry	-9.37653
▁performance	-9.37802
▁pass	-9.3789
▁Bar	-9.38055
▁subsequent	-9.38073
▁doing	-9.38519
▁argument	-9.38683
▁establish	-9.38788
▁liability	-9.38919
▁thought	-9.38958
▁fresh	-9.38967
▁argued	-9.38969
▁lower	-9.39049
▁published	-9.39157
▁materials	-9.39185
p	-9.39472
▁attention	-9.39536
▁fine	-9.39602
▁posts	-9.3989
▁scale	-9.39899
▁marked	-9.39908
▁requirement	-9.40104
▁noted	-9.40113
▁keep	-9.40133
▁independent	-9.4017
▁benefits	-9.4025
▁directions	-9.40367
▁tried	-9.40376
▁drawn	-9.40392
▁Tax	-9.40444
▁status	-9.40517
▁testimony	-9.40738
li	-9.40813
▁fair	-9.40838
▁plea	-9.40861
▁window	-9.40914
▁de	-9.40949
▁limited	-9.41134
▁reliance	-9.41135
▁providing	-9.41253
▁least	-9.41401
▁Medical	-9.41402
▁physical	-9.41692
▁road	-9.41718
▁living	-9.42043
▁Some	-9.42128
▁proposed	-9.42258
▁adopted	-9.42297
▁official	-9.42366
▁Rashtrapati	-9.4244
▁ex	-9.42735
▁play	-9.42772
▁o	-9.4293
▁mark	-9.42934
▁Smt	-9.42994
▁obtain	-9.4307
▁actually	-9.43123
▁challenged	-9.43203
▁industrial	-9.43223
▁objection	-9.43343
▁School	-9.4377
▁night	-9.43794
▁continued	-9.43904
▁deal	-9.44014
▁mean	-9.44112
▁Congress	-9.4414
▁respective	-9.44213
▁men	-9.44221
▁August	-9.44249
H	-9.44355
▁experience	-9.44613
▁room	-9.44691
J	-9.44703
▁hospital	-9.44858
▁deemed	-9.44982
▁history	-9.45029
▁produce	-9.45069
▁problem	-9.45386
▁extend	-9.45436
▁January	-9.45524
▁lead	-9.45703
▁statute	-9.45725
▁recovered	-9.45733
ma	-9.45921
▁instance	-9.45933
▁regular	-9.46067
▁portion	-9.46079
ha	-9.46084
▁July	-9.46087
kar	-9.46095
▁questions	-9.46335
▁scope	-9.46402
▁past	-9.4653
▁saw	-9.46622
▁essential	-9.46635
▁often	-9.46694
▁war	-9.46753
▁close	-9.46762
▁error	-9.46796
▁using	-9.46927
▁character	-9.46968
▁rather	-9.47129
▁disposed	-9.4726
▁violation	-9.4745
▁premises	-9.47822
▁plant	-9.47854
▁live	-9.47898
▁December	-9.47993
▁proof	-9.48023
▁noticed	-9.48061
▁ii	-9.4811
▁freedom	-9.48126
▁function	-9.48259
▁led	-9.48302
▁address	-9.48325
▁example	-9.48423
▁prosecutrix	-9.48441
ul	-9.48477
▁Where	-9.48698
▁loan	-9.48731
▁research	-9.48825
▁community	-9.48945
▁meet	-9.48966
▁category	-9.48986
▁car	-9.48991
▁opposite	-9.4908
▁balance	-9.49105
RB	-9.49161
▁stay	-9.49188
▁joint	-9.49199
▁revision	-9.49222
▁explanation	-9.49239
▁Prasad	-9.49426
▁consent	-9.49451
▁parts	-9.49551
▁products	-9.49586
▁credit	-9.49668
▁sanction	-9.49832
il	-9.49886
▁examine	-9.49895
▁acquired	-9.49935
▁Deputy	-9.49963
▁guilty	-9.50005
▁website	-9.50137
▁steps	-9.50155
▁run	-9.50168
▁Judicial	-9.50201
▁injured	-9.50321
ram	-9.50417
▁young	-9.50418
▁difficult	-9.50522
▁practice	-9.50726
▁basic	-9.50739
▁judgments	-9.50827
ate	-9.50873
ji	-9.50895
▁Chandra	-9.50991
▁RRB	-9.50997
▁reading	-9.51009
▁prevent	-9.51292
▁commercial	-9.51343
▁protection	-9.51351
▁imprisonment	-9.51392
▁setting	-9.51484
▁wrong	-9.51515
▁administration	-9.51637
▁preferred	-9.5164
▁plan	-9.5177
▁discretion	-9.51772
▁Collector	-9.52008
▁covered	-9.5201
▁responsible	-9.52047
▁September	-9.52075
▁Accordingly	-9.52095
▁mention	-9.52126
▁believe	-9.52164
▁addition	-9.52337
▁hands	-9.5239
▁permitted	-9.5243
▁international	-9.52466
▁informant	-9.5249
▁becomes	-9.52502
▁heart	-9.52525
▁visit	-9.52569
▁simple	-9.52597
te	-9.52661
▁soon	-9.52884
▁create	-9.52889
▁religious	-9.52987
▁Income	-9.53011
▁College	-9.53085
▁Schedule	-9.53183
▁satisfied	-9.53374
▁agreed	-9.53441
▁comes	-9.53495
▁representation	-9.53554
▁allow	-9.53671
▁Sharma	-9.53809
▁identified	-9.53934
▁February	-9.54012
▁June	-9.54019
▁firm	-9.54027
▁Devi	-9.54045
▁progress	-9.54283
▁f	-9.54387
F	-9.54441
▁district	-9.54565
▁claims	-9.54813
▁Muslim	-9.54848
▁page	-9.54945
▁plaint	-9.54977
▁version	-9.54996
▁paper	-9.55017
▁Panchayat	-9.5512
▁acquisition	-9.55306
▁works	-9.55423
▁computer	-9.55543
▁resolution	-9.55681
▁completed	-9.55821
▁mere	-9.55977
▁half	-9.56082
▁custody	-9.5613
▁proviso	-9.56473
▁access	-9.56544
ter	-9.56567
▁arrest	-9.56572
▁supported	-9.5664
▁awarded	-9.56664
▁almost	-9.56689
is	-9.56767
▁strong	-9.56927
▁penalty	-9.56963
▁settlement	-9.57052
▁deposit	-9.57063
E	-9.57102
▁thereby	-9.57205
▁quite	-9.57288
▁Bengal	-9.57306
▁extended	-9.57377
▁fit	-9.57425
▁problems	-9.57492
▁nation	-9.57495
▁movement	-9.57544
▁Executive	-9.57655
▁w	-9.57683
▁Inspector	-9.57855
▁accounts	-9.57861
▁sheet	-9.57899
▁exercised	-9.57904
▁names	-9.58018
▁wide	-9.58129
▁Gujarat	-9.58158
▁answer	-9.58162
▁payable	-9.58333
▁woman	-9.58375
▁ought	-9.58476
▁injunction	-9.58499
▁List	-9.58534
▁entry	-9.5857
▁dealing	-9.58729
▁duties	-9.5885
▁getting	-9.58985
▁situated	-9.59094
▁article	-9.59177
▁included	-9.59186
▁Principal	-9.59261
▁g	-9.59317
▁punishable	-9.59324
१०	-9.59344
▁effective	-9.59409
▁bound	-9.59537
▁defined	-9.59678
▁October	-9.59793
ty	-9.59941
▁discussion	-9.5999
▁technology	-9.60038
▁fully	-9.60142
▁developed	-9.60149
▁technical	-9.60231
▁refer	-9.60257
▁imposed	-9.60394
▁stands	-9.60501
▁Appellate	-9.60536
▁duly	-9.60608
▁behind	-9.60625
▁especially	-9.60685
▁appeals	-9.60709
▁Information	-9.60804
▁pension	-9.60818
▁employer	-9.60838
ne	-9.60874
▁minimum	-9.60924
▁parents	-9.60989
▁supply	-9.61217
▁register	-9.61249
▁West	-9.61278
▁failure	-9.61285
▁committee	-9.61318
▁observations	-9.61379
▁default	-9.6146
▁interfere	-9.61527
▁department	-9.61539
▁returned	-9.61545
▁enough	-9.61586
▁perusal	-9.6164
▁source	-9.61742
▁truth	-9.61762
▁until	-9.6183
▁forward	-9.61864
▁approved	-9.61873
▁training	-9.61931
▁requires	-9.61975
bhai	-9.6199
▁Krishna	-9.62169
w	-9.6222
▁discharge	-9.62359
▁revenue	-9.62402
▁books	-9.62409
up	-9.62452
▁fire	-9.6261
▁fundamental	-9.62634
▁Hospital	-9.6267
▁Case	-9.62726
▁prima	-9.62731
▁seek	-9.62754
▁II	-9.62829
est	-9.62832
▁relationship	-9.6288
▁evident	-9.62939
▁laws	-9.62954
▁Office	-9.62973
▁really	-9.62987
▁seizure	-9.63036
▁early	-9.6307
▁method	-9.63082
▁Investigating	-9.63134
▁turn	-9.63176
▁lease	-9.63368
▁rent	-9.63688
▁recruitment	-9.63723
▁wherea	-9.63741
▁United	-9.63881
▁air	-9.63923
▁hours	-9.63967
▁JUDGMENT	-9.64119
ever	-9.64207
▁connected	-9.64414
▁Registrar	-9.64441
▁fall	-9.64667
▁discussed	-9.64703
▁acts	-9.64714
▁likely	-9.64802
▁companies	-9.64832
▁plead	-9.64834
▁urge	-9.64882
▁substantial	-9.6489
▁fee	-9.64898
▁lands	-9.64919
▁signed	-9.64999
▁remain	-9.6518
ry	-9.65315
▁Let	-9.65334
se	-9.65457
lal	-9.65495
▁Bombay	-9.65551
ous	-9.65695
▁arbitrator	-9.65804
▁articles	-9.65829
▁Gandhi	-9.65831
▁sustained	-9.65836
▁seven	-9.65937
▁temple	-9.6603
▁facie	-9.66262
▁front	-9.66276
▁marks	-9.6636
▁initiated	-9.66401
▁minor	-9.66414
▁key	-9.66458
▁Chairman	-9.66559
▁trust	-9.66624
▁transaction	-9.66732
▁spirit	-9.67114
ka	-9.67133
▁actual	-9.67257
▁Do	-9.67337
▁Revenue	-9.67451
ish	-9.6748
▁determined	-9.68081
ling	-9.68125
▁November	-9.68157
▁instead	-9.68195
▁communication	-9.68269
▁met	-9.68405
▁activity	-9.68542
▁Management	-9.68544
id	-9.68585
▁Application	-9.6861
▁strength	-9.68649
▁doctor	-9.68709
▁Man	-9.68762
▁prayer	-9.68844
▁unit	-9.68882
▁accident	-9.68917
▁substance	-9.68969
▁resident	-9.68987
▁cut	-9.68991
da	-9.69106
▁carry	-9.69144
▁population	-9.69193
▁functions	-9.69238
▁permanent	-9.69259
▁remedy	-9.6929
ti	-9.69376
▁assets	-9.69464
▁legislation	-9.69486
▁mental	-9.6953
▁oral	-9.6962
▁modern	-9.69641
▁lodged	-9.69709
▁start	-9.69719
▁shares	-9.69775
▁candidate	-9.69788
ak	-9.6983
▁Of	-9.69844
▁ever	-9.69899
▁Chapter	-9.70009
▁region	-9.70014
▁transferred	-9.70071
▁My	-9.70116
▁constitute	-9.70184
▁facilities	-9.70337
▁apart	-9.70399
▁aspects	-9.70415
▁ten	-9.70456
▁interpretation	-9.70607
▁signature	-9.70684
▁generally	-9.70686
▁rest	-9.70719
▁expressed	-9.70726
▁structure	-9.70873
▁served	-9.71025
▁site	-9.711
▁greater	-9.7113
-0	-9.71229
▁understand	-9.71308
▁Provided	-9.71324
▁don	-9.71385
▁assistance	-9.71397
▁birth	-9.71461
▁directly	-9.71541
▁Institute	-9.71605
age	-9.71684
▁energy	-9.71829
▁network	-9.72033
▁constituted	-9.72109
ver	-9.72206
▁says	-9.72224
▁arguments	-9.72226
▁religion	-9.72229
▁lost	-9.7227
▁express	-9.72311
▁remained	-9.72588
▁distance	-9.72667
▁purchase	-9.72673
▁Ors	-9.72787
▁constitutional	-9.72877
▁programme	-9.72928
▁limitation	-9.7299
▁Exhibit	-9.73001
▁Nagar	-9.73137
▁convicted	-9.73202
▁normal	-9.73324
▁city	-9.73374
▁million	-9.73509
▁administrative	-9.73546
▁importance	-9.73568
▁Sabha	-9.73598
▁East	-9.73652
▁hard	-9.73711
▁Mukherjee	-9.7375
ro	-9.73772
▁conferred	-9.73838
▁increase	-9.73865
▁Karnataka	-9.73955
▁agricultural	-9.74021
▁Patna	-9.74027
co	-9.74053
▁Penal	-9.74269
▁arrived	-9.74461
▁Bill	-9.7448
▁places	-9.74481
▁affected	-9.74565
▁breach	-9.74586
har	-9.74749
▁educational	-9.74808
▁design	-9.74837
▁definition	-9.74875
▁keeping	-9.7496
▁difference	-9.74973
▁Land	-9.75018
▁intended	-9.75282
▁described	-9.75306
▁efforts	-9.75327
▁compliance	-9.75335
▁costs	-9.75343
▁Punjab	-9.75345
▁study	-9.75398
▁merits	-9.75717
▁agency	-9.75807
▁goes	-9.75886
▁message	-9.75917
▁includes	-9.7597
▁changes	-9.7597
▁engaged	-9.75979
wa	-9.76063
ir	-9.76111
▁disease	-9.76127
▁leading	-9.76146
▁product	-9.76282
▁burden	-9.76302
▁size	-9.76322
▁running	-9.76444
▁poor	-9.7654
▁protect	-9.76621
ist	-9.76807
▁arise	-9.76902
▁Part	-9.76925
▁eligible	-9.76968
▁inside	-9.77071
hi	-9.77185
▁memo	-9.77279
▁Then	-9.77408
▁disclose	-9.7773
▁Appellant	-9.77759
iya	-9.77825
▁rightly	-9.77845
▁investment	-9.77904
▁weeks	-9.7793
el	-9.77964
▁remains	-9.78065
▁resources	-9.78182
tax	-9.7824
▁carrying	-9.78267
▁limit	-9.7828
▁receive	-9.78329
▁Similarly	-9.78409
▁shop	-9.78692
▁attempt	-9.78847
▁recording	-9.78858
arising	-9.78901
▁takes	-9.7894
▁determination	-9.79034
▁claimant	-9.79058
▁affect	-9.79124
▁Shah	-9.79127
▁forms	-9.79151
▁selected	-9.79236
▁Yadav	-9.79345
▁follow	-9.79369
▁Labour	-9.7943
▁gives	-9.79468
▁bearing	-9.79697
▁completion	-9.80001
▁Society	-9.80041
▁Muslims	-9.80045
▁added	-9.80073
▁Be	-9.80079
▁Our	-9.80083
law	-9.80103
▁environment	-9.80166
▁De	-9.80282
▁offered	-9.80327
▁staff	-9.80328
११	-9.80446
▁amended	-9.80492
▁Tamil	-9.80548
▁Judges	-9.80556
▁International	-9.80729
▁Power	-9.80766
▁stating	-9.80766
▁sold	-9.80867
▁disputed	-9.80896
▁explained	-9.80911
▁bar	-9.80928
▁South	-9.80948
▁Services	-9.81015
sh	-9.81249
▁Lord	-9.81294
▁Go	-9.81334
▁Gupta	-9.81359
▁offer	-9.81394
▁establishment	-9.81422
▁measures	-9.81428
▁Aug	-9.81474
▁labour	-9.81512
▁sound	-9.81719
▁liberty	-9.81867
▁responsibility	-9.81867
▁century	-9.81904
▁detention	-9.81978
▁aware	-9.82035
▁licence	-9.82037
▁culture	-9.82124
ce	-9.82273
▁opens	-9.82735
all	-9.83427
▁collected	-9.8343
vi	-9.83446
ent	-9.83541
▁interference	-9.83543
▁disciplinary	-9.83549
▁arrested	-9.83573
▁Jain	-9.83592
▁none	-9.83601
▁External	-9.8362
▁funds	-9.83635
▁Das	-9.8385
▁relations	-9.84087
▁Both	-9.84119
▁appeared	-9.84303
ad	-9.84333
▁refers	-9.84354
▁indicated	-9.84508
▁requirements	-9.84537
▁across	-9.84563
▁PRESIDENT	-9.84599
▁expenditure	-9.84599
▁maintain	-9.84628
▁require	-9.8475
▁aggrieved	-9.84789
▁points	-9.8485
▁virtue	-9.84903
▁schedule	-9.84921
▁enable	-9.85007
ting	-9.85458
▁current	-9.8546
▁disclos	-9.85471
▁CPC	-9.85477
▁factors	-9.85489
▁exchange	-9.85489
▁wanted	-9.85514
ial	-9.85571
▁standard	-9.85626
▁legislature	-9.85629
▁presented	-9.8572
▁Municipal	-9.85723
▁Before	-9.85821
j	-9.86007
lu	-9.86103
▁Chhattisgarh	-9.86128
rs	-9.86219
▁obligation	-9.86228
▁judge	-9.86273
▁Andhra	-9.8629
▁reads	-9.86427
▁wrote	-9.86437
sa	-9.86472
▁expected	-9.86563
▁teachers	-9.86604
▁top	-9.86607
▁literature	-9.86669
▁big	-9.86691
▁maintenance	-9.86786
▁Article	-9.86848
▁Health	-9.86863
▁suggestion	-9.86939
▁tree	-9.86976
▁subsequently	-9.87031
▁detailed	-9.87079
▁faith	-9.87123
▁Association	-9.87135
▁raise	-9.87146
▁lack	-9.87208
▁background	-9.87254
▁rural	-9.87292
▁Chand	-9.87556
▁bad	-9.8761
ja	-9.87695
▁objections	-9.87742
▁mode	-9.87762
▁prayed	-9.878
▁sister	-9.87914
▁charged	-9.88051
et	-9.88087
▁principal	-9.88113
▁respectively	-9.88194
▁Mumbai	-9.8831
▁Any	-9.88413
▁Sanskrit	-9.88507
▁majority	-9.88533
▁formed	-9.88568
▁completely	-9.88703
▁servant	-9.88786
▁deep	-9.88873
▁domestic	-9.88902
▁Al	-9.88946
▁although	-9.89021
▁explain	-9.89062
▁ordinary	-9.89181
▁Evidence	-9.89259
▁Assam	-9.89306
▁Kerala	-9.89499
▁feel	-9.89505
▁space	-9.89512
▁oil	-9.89645
▁litigation	-9.8966
di	-9.89703
▁salary	-9.89739
▁advanced	-9.89761
▁Regulations	-9.89792
▁officials	-9.89838
▁dealt	-9.89908
▁initial	-9.89994
▁felt	-9.90018
▁Ms	-9.90052
▁Road	-9.90077
▁idea	-9.90077
▁workers	-9.90145
he	-9.90152
▁looking	-9.90172
▁cash	-9.90184
▁How	-9.9027
▁Centre	-9.90277
▁determine	-9.90277
▁units	-9.9034
▁unable	-9.90366
▁properly	-9.90492
▁science	-9.90515
▁Pranab	-9.90581
▁job	-9.90686
▁Calcutta	-9.90741
▁validity	-9.90808
▁alternative	-9.9084
1	-9.90879
▁try	-9.91011
▁justified	-9.91033
▁indicate	-9.91145
stood	-9.9127
▁pursuan	-9.91391
▁Maharashtra	-9.9147
▁adverse	-9.91489
ably	-9.91533
▁partition	-9.91653
▁disputes	-9.91668
▁advance	-9.91737
▁earth	-9.91771
▁maintainable	-9.91821
▁concept	-9.91905
▁disposal	-9.92122
▁removal	-9.92136
▁peace	-9.92173
ch	-9.92224
▁standing	-9.92307
▁Jammu	-9.92327
▁cheque	-9.92338
ities	-9.9237
▁preliminar	-9.92409
▁amounts	-9.9263
▁maintained	-9.92632
▁advocate	-9.92633
▁Islam	-9.92757
▁publication	-9.9277
▁proposal	-9.92778
▁contents	-9.92831
▁cover	-9.92875
▁instructions	-9.929
▁Post	-9.92991
▁tenant	-9.93034
▁reach	-9.93059
▁Please	-9.93129
▁Governor	-9.93151
▁mandatory	-9.93196
▁sure	-9.93231
▁perform	-9.93411
▁river	-9.93413
▁ll	-9.93459
▁central	-9.93483
▁arbitrary	-9.93572
▁quashed	-9.93579
▁round	-9.93599
▁eyes	-9.93609
▁step	-9.93631
▁handed	-9.93679
▁lot	-9.93986
▁aid	-9.94151
▁degree	-9.94202
v	-9.94237
▁regards	-9.94302
▁introduced	-9.94383
▁belonging	-9.94503
▁improve	-9.9451
▁agree	-9.94631
▁add	-9.94633
▁born	-9.94656
▁Sat	-9.95035
▁insurance	-9.95088
▁Having	-9.95112
▁analysis	-9.95155
▁rely	-9.9521
▁qualification	-9.95236
▁citizens	-9.95278
▁length	-9.95377
tic	-9.95426
▁longer	-9.95456
▁Scheduled	-9.95526
▁vested	-9.95557
▁late	-9.95582
▁guidelines	-9.95597
▁send	-9.95718
▁Republic	-9.95801
▁response	-9.95818
▁Their	-9.95857
▁move	-9.95906
▁Regulation	-9.95943
▁check	-9.9599
▁vacancies	-9.96001
▁requested	-9.96209
▁Another	-9.96214
▁eight	-9.96391
▁Industrial	-9.96402
▁named	-9.96491
▁despite	-9.96519
▁interests	-9.96582
▁serve	-9.96598
▁mobile	-9.96598
▁beginning	-9.96599
▁low	-9.96735
ian	-9.96741
▁ratio	-9.96854
out	-9.9689
▁pleadings	-9.96945
▁viz	-9.97037
▁guilt	-9.97088
▁infrastructure	-9.97113
▁released	-9.97137
▁Commercial	-9.97199
▁iii	-9.97212
▁prejudice	-9.97243
▁bid	-9.97386
▁Sh	-9.97531
▁applicants	-9.9759
▁instrument	-9.97646
▁release	-9.97657
▁girl	-9.97675
▁daily	-9.97718
▁Moreover	-9.97718
▁undertaking	-9.97734
▁letters	-9.97745
▁cited	-9.9781
▁increased	-9.97894
▁option	-9.97924
▁permit	-9.97939
▁Whether	-9.97977
▁acquittal	-9.98202
Y	-9.98226
▁academic	-9.98311
▁Bharat	-9.98498
▁rise	-9.9856
▁wish	-9.98562
▁advertisement	-9.98641
si	-9.98752
▁morning	-9.98848
▁whereby	-9.98877
▁economy	-9.98892
va	-9.98923
▁termination	-9.98981
▁confidence	-9.98982
▁projects	-9.99
▁US	-9.99138
▁attached	-9.99218
▁SCA	-9.99236
▁fraud	-9.99242
ized	-9.99261
▁standards	-9.99273
▁Once	-9.99311
▁objective	-9.99327
▁purchased	-9.99336
▁implementation	-9.99468
▁Explanation	-9.9955
▁Group	-9.9955
▁seems	-9.99715
▁phone	-9.99728
▁X	-9.9978
▁Lok	-9.99882
▁larger	-9.99909
▁contempt	-10.0004
▁investigating	-10.0004
▁remaining	-10.0004
▁path	-10.0007
▁Manager	-10.0008
▁expenses	-10.001
▁refused	-10.0014
▁referr	-10.0017
▁issuance	-10.003
▁assaulted	-10.0032
▁Khan	-10.0034
▁fund	-10.0039
▁primary	-10.0049
▁Finance	-10.0052
ally	-10.0053
▁Control	-10.0053
▁write	-10.0084
▁turned	-10.0106
▁bodies	-10.0106
▁Agreement	-10.011
▁talk	-10.012
▁Ali	-10.0121
▁contains	-10.0121
▁lay	-10.0126
▁Policy	-10.0137
▁Para	-10.015
▁plus	-10.0155
▁Your	-10.0158
▁deposited	-10.0163
▁enter	-10.0164
▁located	-10.0165
▁Block	-10.0192
im	-10.0193
ED	-10.0196
▁extension	-10.02
▁guarantee	-10.0208
▁temporary	-10.0209
▁finally	-10.021
▁ready	-10.0227
▁art	-10.0256
▁text	-10.0263
,000	-10.0267
▁highest	-10.027
▁usually	-10.03
▁film	-10.0301
▁factual	-10.031
accused	-10.0325
▁maximum	-10.0332
▁reports	-10.0336
ship	-10.0342
▁significant	-10.0349
▁success	-10.0353
▁conflict	-10.0361
▁bill	-10.0361
▁dismissal	-10.0363
▁numbers	-10.0367
▁executive	-10.0367
▁events	-10.0368
▁interested	-10.0377
▁presumption	-10.0392
▁potential	-10.0395
▁saying	-10.0401
▁cognizance	-10.0401
▁North	-10.0403
▁Insurance	-10.0413
▁concluded	-10.0415
▁sitting	-10.042
▁groups	-10.042
▁ve	-10.0421
▁Here	-10.0422
▁Technology	-10.0424
▁retirement	-10.0424
▁items	-10.043
▁banks	-10.0435
▁removed	-10.0436
▁Amendment	-10.0461
▁risk	-10.0464
▁averment	-10.0466
▁belong	-10.0467
▁reject	-10.0475
▁approached	-10.0477
ization	-10.0478
▁global	-10.0478
▁influence	-10.0483
▁Not	-10.0496
▁built	-10.0498
▁apparent	-10.0502
▁sides	-10.0505
▁user	-10.0506
▁promote	-10.0507
raj	-10.0515
▁lakh	-10.0524
op	-10.0536
▁assault	-10.0543
▁deduction	-10.0544
▁schools	-10.0546
▁fell	-10.0555
▁employed	-10.0556
▁door	-10.0559
▁understanding	-10.0561
ised	-10.0567
▁Trust	-10.0573
▁caste	-10.0574
▁motive	-10.0581
▁save	-10.0583
▁TO	-10.0586
▁crore	-10.059
▁Class	-10.0602
▁tell	-10.0605
▁dying	-10.0607
▁else	-10.0615
▁deals	-10.0619
▁wholly	-10.0627
U	-10.0632
▁recent	-10.0639
▁poet	-10.0654
▁recommendations	-10.0661
३०	-10.0664
men	-10.0674
▁item	-10.0678
▁bear	-10.0679
▁suggested	-10.0682
▁team	-10.0683
▁delivery	-10.0683
▁hereby	-10.0687
▁AND	-10.0696
▁proposition	-10.0705
▁addressed	-10.0715
▁crores	-10.0717
war	-10.0725
▁results	-10.0726
▁notified	-10.0726
ari	-10.0737
▁amongst	-10.0741
▁adequate	-10.0742
▁industries	-10.0743
▁week	-10.0745
▁partnership	-10.0748
▁seniority	-10.0751
▁circumstance	-10.0753
▁Bai	-10.0759
▁u	-10.0769
▁filled	-10.0774
▁warrant	-10.0778
▁Pal	-10.0783
▁violence	-10.0784
▁satisfaction	-10.0786
▁recommended	-10.079
▁confirmed	-10.0795
▁worked	-10.0798
▁moved	-10.0798
▁legislative	-10.081
▁impact	-10.0811
▁DW	-10.0813
esh	-10.0814
▁assigned	-10.0816
▁former	-10.0818
▁Kashmir	-10.0821
▁contribution	-10.0835
▁identification	-10.0858
▁attack	-10.0864
▁showing	-10.087
▁vital	-10.0872
▁Science	-10.0879
▁affairs	-10.0881
▁draw	-10.0885
▁changed	-10.0888
▁spread	-10.0899
▁fear	-10.0901
▁boy	-10.0901
▁scientific	-10.0911
▁sections	-10.0925
▁sole	-10.0926
▁married	-10.0926
▁elected	-10.0933
▁stop	-10.0933
▁driver	-10.0935
▁arises	-10.094
AL	-10.0943
▁commit	-10.0946
▁avail	-10.0948
▁happened	-10.0964
▁happy	-10.097
▁anti	-10.0973
▁rich	-10.0975
▁papers	-10.0986
▁tribunal	-10.0987
▁began	-10.0999
▁binding	-10.1009
▁American	-10.101
▁spiritual	-10.1021
▁Orissa	-10.1024
▁highly	-10.1033
▁distribution	-10.1033
१२	-10.1036
▁reduced	-10.1041
▁Govt	-10.1043
▁hope	-10.1046
▁permissible	-10.1048
▁causing	-10.1053
▁Every	-10.1053
▁colour	-10.1062
▁suggest	-10.1072
▁draft	-10.1077
lo	-10.1083
▁avoid	-10.1091
▁issuing	-10.1098
▁lives	-10.11
▁ask	-10.11
▁Shiv	-10.1101
▁patient	-10.1113
▁successful	-10.1114
▁Engineer	-10.1118
the	-10.1119
om	-10.1129
▁indicates	-10.1134
▁Assembly	-10.1137
pa	-10.1147
▁contain	-10.1147
▁collection	-10.1162
▁absolute	-10.1167
▁board	-10.1168
z	-10.1171
▁mandate	-10.118
▁clothes	-10.1184
ee	-10.1188
ge	-10.119
▁minutes	-10.1196
▁leaders	-10.12
▁lying	-10.12
▁arbitr	-10.1201
▁teacher	-10.1207
▁voice	-10.1207
▁base	-10.1208
▁totally	-10.1209
▁Un	-10.1209
▁Resident	-10.1211
▁black	-10.1216
▁Head	-10.1224
▁advantage	-10.1236
▁programmes	-10.1236
▁cultural	-10.1241
▁sample	-10.1246
▁secured	-10.1257
▁twenty	-10.1257
▁sea	-10.1262
▁Nadu	-10.1262
▁Assessing	-10.1267
▁contact	-10.1267
▁Award	-10.128
▁void	-10.1303
▁Railway	-10.1307
▁Arbitrator	-10.1307
▁active	-10.1311
▁pendency	-10.1312
▁weapon	-10.1317
▁Israel	-10.132
▁thereto	-10.1333
▁Plan	-10.1334
▁effort	-10.1343
▁undertaken	-10.1345
un	-10.1351
▁INDIA	-10.1356
▁whatever	-10.1359
▁World	-10.1368
no	-10.1385
▁opened	-10.1391
▁notes	-10.1393
de	-10.1401
▁huge	-10.1404
▁distinction	-10.1406
ba	-10.1408
▁speech	-10.1415
▁allotment	-10.1419
▁departmental	-10.1433
▁device	-10.1435
▁positive	-10.1454
▁friend	-10.1455
▁convey	-10.1461
▁useful	-10.1468
▁containing	-10.147
▁white	-10.1501
dar	-10.151
▁creation	-10.1516
much	-10.1517
▁visited	-10.1518
▁IT	-10.1521
▁export	-10.153
▁style	-10.1537
pi	-10.1547
▁certainly	-10.1549
▁Per	-10.1549
▁ad	-10.155
▁sexual	-10.1553
▁weight	-10.1556
▁exist	-10.1556
▁pro	-10.1558
▁suitable	-10.1559
▁ago	-10.1564
▁soul	-10.1571
▁furnished	-10.1571
▁Fund	-10.1572
▁looked	-10.1577
sheet	-10.1586
▁Y	-10.1587
▁dowry	-10.1594
▁latter	-10.1594
▁hundred	-10.1596
▁Certificate	-10.1599
▁dis	-10.161
▁negative	-10.1614
▁scene	-10.1623
▁forest	-10.1627
▁retain	-10.1631
▁factor	-10.1632
▁Legislature	-10.1633
nath	-10.1634
▁Son	-10.1642
▁task	-10.1644
▁milk	-10.1646
▁quoted	-10.1649
▁adjudication	-10.1653
▁consequence	-10.1659
▁shift	-10.1663
▁Accused	-10.1667
▁Her	-10.1667
▁detail	-10.1667
▁jail	-10.1672
▁Guru	-10.1674
▁college	-10.1686
▁possibility	-10.1693
▁author	-10.1705
▁wages	-10.1707
▁PO	-10.1713
▁constru	-10.1714
▁transactions	-10.1717
▁criteria	-10.1719
▁gold	-10.1724
ac	-10.1728
▁stipulat	-10.1733
▁deposition	-10.1735
▁hostile	-10.1735
▁seats	-10.1738
▁admit	-10.1739
▁hereinafter	-10.174
▁welfare	-10.1745
be	-10.1753
▁identify	-10.1756
▁closed	-10.1758
▁fide	-10.1759
me	-10.1762
▁achieve	-10.1765
ine	-10.1766
▁video	-10.1771
▁exercising	-10.1772
▁Official	-10.1776
▁Notification	-10.1788
▁commencement	-10.1793
▁meant	-10.1795
▁observation	-10.1803
▁sanctioned	-10.1813
▁fast	-10.1814
▁floor	-10.1814
▁Rao	-10.1819
▁disclosure	-10.1823
▁Open	-10.1828
▁auction	-10.183
▁attend	-10.1837
▁Uttar	-10.1841
▁identity	-10.1846
▁pressure	-10.1857
▁delivered	-10.186
▁plot	-10.1863
▁Only	-10.1871
▁plants	-10.1876
▁ill	-10.188
▁values	-10.1883
▁rape	-10.1896
▁join	-10.1905
▁choice	-10.1908
▁alia	-10.1915
▁Companies	-10.1921
▁motion	-10.1921
▁Research	-10.1926
▁develop	-10.1929
▁concern	-10.1944
allotted	-10.1945
▁types	-10.1946
▁friends	-10.1946
▁Day	-10.1954
▁doctrine	-10.1958
pal	-10.1961
II	-10.1969
▁absolutely	-10.1969
▁ordered	-10.1971
▁remove	-10.1979
ana	-10.1991
▁annual	-10.1991
▁associated	-10.1993
▁transport	-10.1998
ut	-10.1999
▁learning	-10.2
▁acceptance	-10.2002
▁Mar	-10.2004
▁Judgment	-10.2004
▁Superintendent	-10.2007
▁sell	-10.2019
▁views	-10.2023
▁Pakistan	-10.2028
▁necessarily	-10.2038
▁promot	-10.2041
▁rates	-10.2044
▁media	-10.2048
▁occurred	-10.2056
▁Many	-10.2059
ton	-10.2062
▁recommendation	-10.2064
▁Prime	-10.2067
▁middle	-10.2067
▁series	-10.2067
▁Respondents	-10.2069
▁Joint	-10.2072
▁reservation	-10.208
▁sign	-10.2084
▁vs	-10.2091
▁stock	-10.2096
▁cell	-10.21
tion	-10.2101
▁moment	-10.2106
▁operations	-10.2111
▁adopt	-10.2112
▁damages	-10.2113
▁recognized	-10.2123
▁memory	-10.2128
▁individuals	-10.213
▁piece	-10.213
▁trying	-10.2131
▁understood	-10.2143
▁wound	-10.2145
▁survey	-10.2146
▁deciding	-10.2149
▁damage	-10.2152
▁abuse	-10.2155
land	-10.2159
▁systems	-10.2159
▁challenging	-10.216
▁opening	-10.2164
▁j	-10.2164
▁Also	-10.2182
▁limits	-10.2185
▁excess	-10.2192
▁audit	-10.2193
▁played	-10.2197
▁Mohan	-10.2199
▁suffering	-10.2201
▁enacted	-10.2202
▁suicide	-10.2204
▁Form	-10.2204
▁confession	-10.2209
▁upto	-10.2211
▁wall	-10.2214
▁sometimes	-10.2215
line	-10.2218
▁Raja	-10.2219
tra	-10.2223
▁Mo	-10.2227
▁ideas	-10.2229
▁holder	-10.223
▁animals	-10.2234
▁thousand	-10.2235
▁red	-10.2248
▁Articles	-10.225
▁paragraphs	-10.2257
▁Home	-10.2257
▁Second	-10.2259
▁acted	-10.226
▁feet	-10.2269
▁r	-10.2273
▁bus	-10.2274
▁Category	-10.2276
ise	-10.2276
▁n	-10.2281
ful	-10.2286
av	-10.2289
▁Project	-10.2291
ru	-10.2295
▁Although	-10.2298
▁performed	-10.2306
▁range	-10.2309
joined	-10.231
ani	-10.2342
▁asset	-10.2348
▁Officers	-10.235
▁America	-10.2361
▁average	-10.2365
▁resid	-10.2367
▁receiving	-10.2376
▁ultimately	-10.2376
▁extra	-10.2381
▁female	-10.2381
tu	-10.2382
▁internal	-10.2383
ran	-10.2387
▁reserved	-10.2411
▁CR	-10.2422
▁CBI	-10.2422
▁gets	-10.2427
▁claiming	-10.2427
▁poetry	-10.2427
▁Sec	-10.243
▁measure	-10.2431
ability	-10.2438
▁conscious	-10.2443
▁advice	-10.2444
▁Prosecutor	-10.2449
▁net	-10.2466
▁Arbitration	-10.2466
▁Election	-10.2467
▁believed	-10.2471
▁knew	-10.2472
▁copies	-10.2472
▁opportunities	-10.2478
▁shape	-10.2485
▁element	-10.2488
▁killed	-10.249
▁model	-10.2495
▁moral	-10.2499
▁external	-10.25
▁ways	-10.2506
ag	-10.2511
▁mainly	-10.2513
▁answered	-10.2515
volving	-10.2517
▁functioning	-10.2519
▁secure	-10.2521
▁reflect	-10.2523
▁manufacturing	-10.2523
▁Vice	-10.2525
▁citizen	-10.2529
▁WP	-10.2531
▁consequences	-10.2531
▁Excise	-10.2534
ING	-10.2537
▁deserves	-10.2537
▁invited	-10.2545
▁NO	-10.2552
go	-10.2559
▁lines	-10.2574
mal	-10.2583
१३	-10.2584
cquitted	-10.2587
▁worth	-10.2589
▁Rama	-10.2604
▁chain	-10.2604
▁ancient	-10.2612
per	-10.2614
and	-10.2638
▁machinery	-10.2638
▁perhaps	-10.2643
▁throughout	-10.2644
▁Raipur	-10.2651
▁workman	-10.2657
▁centre	-10.2665
▁description	-10.2669
ve	-10.2677
▁organisation	-10.2686
appa	-10.2687
▁villages	-10.269
▁generation	-10.2692
▁City	-10.2695
▁expert	-10.2696
tar	-10.2706
examining	-10.2707
▁sentenced	-10.2708
▁reproduce	-10.2713
▁easy	-10.2724
▁percent	-10.2737
▁professional	-10.2742
▁electricity	-10.2743
operative	-10.2745
▁Hyderabad	-10.2748
▁equally	-10.275
▁Adv	-10.2753
pertaining	-10.2755
▁forces	-10.2758
▁Consequently	-10.276
▁classes	-10.2762
▁democracy	-10.2765
▁profit	-10.2769
▁needed	-10.2771
▁indeed	-10.2783
▁Assessee	-10.2783
▁famous	-10.2783
os	-10.2783
▁herself	-10.2784
▁association	-10.2792
▁code	-10.2798
▁traditional	-10.28
▁formal	-10.2802
ho	-10.2804
MA	-10.281
▁surface	-10.2812
▁Rajasthan	-10.2812
▁policies	-10.2818
▁teaching	-10.2819
▁supplied	-10.2824
▁contemplated	-10.283
▁regulations	-10.2836
▁aim	-10.2842
bai	-10.2843
em	-10.2855
▁YEARS	-10.2859
▁qua	-10.286
ab	-10.2862
above	-10.2864
▁falls	-10.2867
▁undergo	-10.2876
▁Private	-10.2877
▁quantity	-10.2877
▁chief	-10.2886
▁speak	-10.2907
▁reiterated	-10.2909
▁king	-10.2909
▁resort	-10.2912
▁rival	-10.2918
▁inspection	-10.2919
▁Member	-10.2922
▁England	-10.2924
▁farmers	-10.2927
▁perus	-10.2927
▁subjected	-10.2934
▁categories	-10.2936
▁Up	-10.294
ory	-10.2945
▁People	-10.2948
▁content	-10.295
▁travel	-10.2952
ah	-10.2953
▁debt	-10.2957
▁admittedly	-10.2962
ki	-10.2965
▁complex	-10.2968
ik	-10.2983
▁select	-10.2989
▁Har	-10.3002
▁machine	-10.3006
▁categorically	-10.301
▁popular	-10.3013
▁documentary	-10.3018
▁certifi	-10.302
▁achieved	-10.3025
▁prevail	-10.3028
▁minus	-10.3032
▁forwarded	-10.3032
▁conspiracy	-10.3043
▁link	-10.3051
▁Financial	-10.3061
▁struggle	-10.3061
▁appointments	-10.3064
▁focus	-10.3064
▁relates	-10.3073
▁learn	-10.3079
▁III	-10.3079
▁exclud	-10.3082
▁clean	-10.3082
▁instituted	-10.3085
▁King	-10.3085
▁software	-10.3086
▁con	-10.309
▁IN	-10.3096
▁immediate	-10.3099
isation	-10.3115
▁compassionate	-10.3122
ol	-10.3131
▁grievance	-10.314
▁Nath	-10.3144
▁neck	-10.3158
set	-10.3159
con	-10.316
▁facility	-10.3164
▁simply	-10.3164
▁claimants	-10.3167
▁press	-10.3168
▁scrutiny	-10.317
▁Madras	-10.317
▁constitution	-10.3172
▁depend	-10.3177
▁Apart	-10.3187
▁music	-10.3192
▁someone	-10.3193
▁governed	-10.3197
▁Sun	-10.3207
▁revised	-10.3211
▁Dist	-10.3223
▁Directors	-10.3227
▁rejection	-10.3227
▁acting	-10.323
ph	-10.3231
▁hit	-10.3235
▁south	-10.3244
▁cadre	-10.3248
▁image	-10.325
▁capable	-10.3251
▁heavy	-10.3256
▁Swami	-10.3261
▁import	-10.3265
▁Sir	-10.3266
▁branch	-10.3271
das	-10.3276
▁square	-10.3278
ju	-10.3284
ts	-10.3297
▁suspension	-10.3299
▁Chennai	-10.3299
▁soil	-10.3299
▁incorporated	-10.3301
▁agriculture	-10.3305
shi	-10.3341
▁render	-10.3342
▁easily	-10.3348
▁spite	-10.3355
▁attract	-10.3358
▁organization	-10.336
▁news	-10.3366
way	-10.3368
ors	-10.3374
ated	-10.338
▁seat	-10.3383
ang	-10.3387
▁lies	-10.3387
▁inas	-10.3391
▁Non	-10.3393
▁Entry	-10.3398
▁leaving	-10.3404
▁Mishra	-10.3405
▁north	-10.3409
▁seeks	-10.341
▁expiry	-10.341
▁languages	-10.3419
▁male	-10.3422
▁Party	-10.3424
▁conducting	-10.3426
▁Administrative	-10.3429
▁appoint	-10.3431
▁rupees	-10.3441
▁remember	-10.3446
▁corporate	-10.3449
▁arrangement	-10.3457
▁remand	-10.346
▁session	-10.3463
mo	-10.3472
▁coal	-10.3491
▁independence	-10.3496
ie	-10.3507
▁purchaser	-10.3515
▁cruelty	-10.3517
▁frame	-10.3517
▁posted	-10.3521
▁Besides	-10.3523
▁Nehru	-10.3523
▁brief	-10.3525
▁agent	-10.3526
▁schemes	-10.3531
▁Members	-10.3537
▁Other	-10.3541
▁pattern	-10.3546
▁illegality	-10.3547
▁Well	-10.3548
▁Registration	-10.3548
▁chance	-10.3552
▁residence	-10.3555
ci	-10.3572
▁inherent	-10.3582
▁student	-10.3591
▁comply	-10.3593
▁cm	-10.3606
▁War	-10.361
▁Prakash	-10.3618
▁Reference	-10.3624
▁species	-10.363
▁vision	-10.3632
▁personnel	-10.3637
▁appearance	-10.3641
▁adduc	-10.3642
▁substantive	-10.3644
▁La	-10.3644
▁particulars	-10.365
▁compromise	-10.3652
▁waste	-10.3653
▁levy	-10.3656
▁determining	-10.3656
▁safety	-10.3656
▁flow	-10.3658
▁features	-10.3659
doc	-10.3661
ud	-10.367
▁St	-10.3674
▁growing	-10.3675
▁gas	-10.3676
▁pain	-10.3678
▁raising	-10.3688
▁listed	-10.3692
▁everything	-10.3694
▁res	-10.3698
▁kill	-10.3704
▁Two	-10.3707
▁allowing	-10.371
▁contractor	-10.371
▁skin	-10.3714
▁Kar	-10.3719
▁desire	-10.3728
▁consciousness	-10.3729
▁requisite	-10.3734
min	-10.3736
▁entries	-10.3746
▁Suit	-10.3751
▁Pandey	-10.3759
▁initially	-10.3769
▁bringing	-10.377
▁inference	-10.3778
▁Patel	-10.3781
▁Africa	-10.3783
▁carefully	-10.3786
▁foundation	-10.3791
▁fees	-10.3793
▁Bal	-10.3795
▁build	-10.3796
▁green	-10.3797
▁refund	-10.3797
▁retired	-10.38
▁recognised	-10.3801
▁empowered	-10.381
of	-10.3821
▁exists	-10.3822
▁causes	-10.383
▁emphasis	-10.3833
▁exclusive	-10.3835
sofar	-10.3838
▁Ar	-10.3846
▁mouth	-10.3846
ca	-10.3848
▁sun	-10.3855
▁Crl	-10.3858
▁hear	-10.3861
▁workmen	-10.3861
▁Babu	-10.3862
▁universal	-10.3875
▁enforcement	-10.3876
▁military	-10.388
▁owners	-10.3883
▁signatures	-10.3885
▁Rai	-10.3886
▁Asia	-10.3887
ical	-10.3892
bar	-10.3893
▁normally	-10.3902
▁opposed	-10.3904
ib	-10.3907
▁elements	-10.3908
▁inquest	-10.3908
▁operate	-10.3908
▁cancellation	-10.3908
▁appreciation	-10.3917
▁Na	-10.3934
accompanied	-10.3938
▁Madhya	-10.3941
▁largest	-10.3943
▁h	-10.3945
▁wealth	-10.3947
▁subordinate	-10.3948
▁card	-10.395
▁theory	-10.3966
▁bit	-10.397
▁inflict	-10.3971
▁judges	-10.3977
▁representative	-10.3988
▁Roy	-10.3991
▁drive	-10.3993
▁Ashok	-10.3993
▁sustainable	-10.4
▁Rajesh	-10.4001
▁forum	-10.4015
▁entertain	-10.4016
▁Air	-10.4017
▁grave	-10.4018
▁storage	-10.402
▁Crime	-10.4026
▁Right	-10.403
▁profits	-10.403
▁misconduct	-10.4039
▁participation	-10.404
▁increasing	-10.4042
▁developing	-10.4049
▁Verma	-10.405
▁represented	-10.4052
▁files	-10.4056
▁Most	-10.4057
▁leaves	-10.4057
▁Su	-10.4062
nagar	-10.4063
▁surrender	-10.4066
▁agencies	-10.4066
▁San	-10.4069
▁discharged	-10.4069
▁Pre	-10.4076
▁entirely	-10.4079
gu	-10.4083
▁rare	-10.4086
▁exception	-10.4092
▁Ganga	-10.4093
ted	-10.4094
▁Standing	-10.4099
▁Par	-10.411
ex	-10.4112
▁voluntary	-10.4113
SE	-10.4119
▁consistent	-10.4123
▁Family	-10.4126
▁gain	-10.4128
ize	-10.4129
tha	-10.4136
ance	-10.414
▁safe	-10.4142
sha	-10.4146
▁processing	-10.415
▁impose	-10.4158
ot	-10.4158
iv	-10.4163
▁representatives	-10.4165
▁enjoy	-10.4171
▁armed	-10.4175
▁animal	-10.4176
▁reliable	-10.4178
▁cancelled	-10.4187
▁appreciate	-10.4192
▁00	-10.4193
▁lakhs	-10.4203
▁modified	-10.4207
▁Bangalore	-10.422
▁license	-10.422
▁knife	-10.4227
▁root	-10.4228
▁Maha	-10.4229
▁mortgage	-10.4232
▁discuss	-10.424
▁spent	-10.4247
▁China	-10.4248
▁levels	-10.4255
led	-10.4257
▁mutual	-10.4264
▁divided	-10.4265
▁se	-10.4266
▁calling	-10.4272
▁opin	-10.4272
▁elections	-10.4286
▁Western	-10.4286
▁quarrel	-10.4288
▁constructed	-10.4293
▁judgement	-10.4293
▁nos	-10.4296
ga	-10.43
▁currency	-10.4301
▁dismiss	-10.4302
▁alongwith	-10.4302
▁worship	-10.4307
▁enactment	-10.4314
▁Sam	-10.4315
▁mistake	-10.4316
▁confined	-10.4326
▁barred	-10.4336
▁Ma	-10.4338
▁passage	-10.4342
▁fight	-10.4343
▁novel	-10.4347
▁Selection	-10.4351
oo	-10.4353
▁distinct	-10.4356
▁facilitate	-10.4363
▁incurred	-10.4363
▁Transport	-10.437
▁Sa	-10.4371
▁authorised	-10.4389
▁applying	-10.44
▁Constable	-10.4404
▁break	-10.4405
▁withdrawn	-10.4407
▁multi	-10.441
▁integral	-10.4411
▁Conference	-10.4418
▁cooperation	-10.4425
▁residential	-10.4426
▁committ	-10.4435
▁cells	-10.4436
▁Islamic	-10.4444
ium	-10.4451
▁upheld	-10.4459
▁parent	-10.4459
▁Through	-10.4466
▁creating	-10.4466
▁box	-10.4469
▁Ch	-10.4472
▁Because	-10.4473
▁won	-10.4484
▁unique	-10.4494
▁location	-10.4496
▁ignored	-10.4499
aj	-10.4501
▁Shankar	-10.4503
▁leader	-10.4505
▁chemical	-10.4505
▁System	-10.4507
▁motor	-10.4508
▁speed	-10.4514
▁hour	-10.4515
▁contest	-10.4542
chi	-10.4551
▁Others	-10.4553
▁applies	-10.4556
▁admissible	-10.4558
▁sealed	-10.4565
▁stone	-10.4569
▁framing	-10.457
▁families	-10.4577
१४	-10.4581
▁impression	-10.4586
▁houses	-10.4592
▁fourth	-10.4592
▁Car	-10.461
▁recognition	-10.4612
▁deliver	-10.4615
▁evening	-10.4618
▁satisfy	-10.462
▁speaking	-10.463
▁program	-10.4637
▁display	-10.465
▁Hindus	-10.4652
▁Water	-10.4655
▁Z	-10.4665
▁Mu	-10.4667
▁figure	-10.4673
ating	-10.4688
▁furnish	-10.4696
▁Legislative	-10.4697
▁eligibility	-10.4697
ash	-10.47
▁Administration	-10.4704
▁variety	-10.4704
▁demanded	-10.4709
ap	-10.4709
▁allegedly	-10.4726
▁Settlement	-10.4732
▁equity	-10.4732
▁pleasure	-10.4733
▁representing	-10.4736
▁thinking	-10.4739
▁separately	-10.4744
▁equality	-10.4747
▁assert	-10.4754
▁severe	-10.4764
▁fields	-10.4768
▁Or	-10.4777
▁accord	-10.4783
▁division	-10.4783
▁owned	-10.4786
▁Sar	-10.4792
▁studies	-10.4797
▁classification	-10.4797
▁feeling	-10.4805
▁exemption	-10.4814
▁km	-10.482
▁Branch	-10.4829
▁Date	-10.4832
ure	-10.4832
▁depends	-10.4839
▁Full	-10.4841
▁methods	-10.4844
▁medium	-10.4847
▁whatsoever	-10.4854
▁Human	-10.4855
▁beautiful	-10.4858
▁nomination	-10.4864
▁partner	-10.4875
▁arose	-10.4876
▁grade	-10.4878
▁Abdul	-10.4883
▁divine	-10.4883
▁sources	-10.4883
&	-10.4898
ali	-10.4902
▁inform	-10.4904
du	-10.491
hal	-10.4912
▁consultation	-10.4913
▁gun	-10.4917
▁immovable	-10.4919
▁Trade	-10.4926
▁notices	-10.4929
▁sons	-10.493
▁obligations	-10.493
▁weapons	-10.4933
vis	-10.4935
▁practices	-10.4937
▁railway	-10.4944
▁fill	-10.4948
▁bone	-10.495
▁rank	-10.4955
▁relatives	-10.496
▁brain	-10.497
▁narrat	-10.497
▁dt	-10.4976
▁pursuance	-10.4985
▁plain	-10.499
▁Welfare	-10.4992
▁controversy	-10.4992
ara	-10.5003
▁authorized	-10.5005
▁Pvt	-10.5028
▁Narayan	-10.5033
▁qualified	-10.5036
▁Vi	-10.504
▁strictly	-10.5051
wal	-10.5056
▁fails	-10.5065
▁circular	-10.507
▁thirty	-10.5072
▁More	-10.5074
son	-10.5075
▁Thakur	-10.5079
▁operating	-10.508
▁Gandhiji	-10.5081
▁terrorism	-10.5087
▁nine	-10.5088
▁cheques	-10.5092
▁clauses	-10.5094
han	-10.5098
▁Industries	-10.5102
▁Security	-10.5102
▁Rural	-10.5103
▁extracted	-10.5103
▁objects	-10.5105
▁upper	-10.511
▁availability	-10.5114
az	-10.5115
▁patent	-10.5125
▁nearly	-10.5132
▁tradition	-10.5138
▁ownership	-10.514
▁stamp	-10.5145
▁quash	-10.5154
▁sit	-10.5155
▁stayed	-10.5167
▁Foreign	-10.5168
▁impossible	-10.5168
▁genuine	-10.5181
▁warm	-10.5186
▁liquor	-10.519
▁Gram	-10.5198
▁actions	-10.5209
sar	-10.5209
▁hair	-10.5214
AN	-10.5222
▁vacant	-10.5228
▁k	-10.5237
▁lived	-10.5237
▁Out	-10.5238
▁PC	-10.5248
▁Can	-10.5251
▁deeds	-10.5252
▁Mon	-10.5257
▁compar	-10.5264
▁secret	-10.5264
▁Unit	-10.5265
▁Allahabad	-10.5265
▁disability	-10.5266
▁Hari	-10.5267
▁wishes	-10.5278
▁multiple	-10.528
▁ON	-10.5287
▁allowance	-10.5295
▁iron	-10.53
▁participate	-10.5306
▁fault	-10.5308
pe	-10.5308
▁valuable	-10.531
▁subjects	-10.5312
▁profession	-10.5313
▁suspicion	-10.5318
▁attracted	-10.5321
▁Dev	-10.5326
IT	-10.5335
▁reality	-10.5346
▁Protection	-10.5348
▁implemented	-10.5351
ub	-10.5353
▁continuous	-10.5353
▁Account	-10.5355
▁reveals	-10.5355
▁stories	-10.5355
▁stopped	-10.5356
▁consumption	-10.5363
▁watch	-10.5366
▁temples	-10.5369
▁seal	-10.5383
▁philosophy	-10.5386
▁flat	-10.5386
▁vast	-10.5389
▁par	-10.5391
one	-10.5391
ence	-10.5395
▁telephone	-10.5401
▁lie	-10.5412
▁Europe	-10.5414
dy	-10.5417
eshwar	-10.5422
▁payments	-10.5425
▁aged	-10.5426
▁Petitioners	-10.5428
▁anyone	-10.543
gar	-10.5433
▁Pension	-10.5439
▁ordinarily	-10.5439
▁PM	-10.5443
▁Social	-10.5454
ng	-10.5458
▁necessity	-10.5462
▁Ne	-10.5462
▁retrospective	-10.547
▁manufacture	-10.5471
▁Lo	-10.5475
▁chosen	-10.5479
gi	-10.5484
▁youth	-10.5486
▁Sections	-10.5495
▁acid	-10.5503
▁origin	-10.5506
▁superior	-10.5506
▁Food	-10.5508
▁acceptable	-10.5516
▁Ni	-10.5524
▁belief	-10.5525
▁recover	-10.5527
▁AT	-10.5532
▁Regional	-10.5533
▁abroad	-10.5539
▁vehicles	-10.5541
▁valuation	-10.5542
▁Programme	-10.5549
▁Reddy	-10.5562
▁driving	-10.5569
▁Notice	-10.5578
OR	-10.5579
▁table	-10.5581
▁probably	-10.5585
▁unreasonable	-10.5586
▁crop	-10.5587
▁Vijay	-10.5593
▁defend	-10.5595
▁advised	-10.5597
▁mass	-10.5604
▁revealed	-10.5607
▁sharp	-10.5609
▁choose	-10.5611
▁democratic	-10.5612
▁friendly	-10.5616
▁ends	-10.5618
▁trees	-10.5619
▁promise	-10.5621
▁Mandal	-10.5626
▁gross	-10.5629
ig	-10.563
▁planning	-10.5632
▁vis	-10.5633
▁calls	-10.5644
ner	-10.5645
▁prices	-10.5649
▁honour	-10.5652
▁picture	-10.5658
laws	-10.5659
▁Sunil	-10.5664
▁involvement	-10.5668
▁equipment	-10.5673
▁corporation	-10.5675
▁sort	-10.5677
▁relative	-10.5679
▁Indians	-10.5685
▁outstanding	-10.5686
▁Haryana	-10.5686
▁tenure	-10.5687
ative	-10.5687
▁falling	-10.5688
▁game	-10.5692
▁contractual	-10.5696
▁caught	-10.5702
▁Exh	-10.5703
▁legally	-10.5703
▁postmortem	-10.5704
▁Why	-10.5711
▁weak	-10.5712
▁Consider	-10.5714
▁landlord	-10.5715
hu	-10.573
▁Supra	-10.5733
▁execute	-10.5739
▁ORDER	-10.5741
▁powerful	-10.5744
▁ma	-10.5745
▁moving	-10.5749
▁thereon	-10.5751
▁column	-10.5761
▁unity	-10.5763
▁finger	-10.5769
▁qualifications	-10.5769
▁installed	-10.5769
▁declare	-10.5769
▁broad	-10.5772
▁cast	-10.5774
ile	-10.5783
▁urban	-10.5788
▁latest	-10.5794
▁Who	-10.5794
▁European	-10.5802
▁happens	-10.5804
▁colleges	-10.5807
▁consumer	-10.5809
▁narrow	-10.5812
▁Akbar	-10.5813
▁invalid	-10.5814
▁threat	-10.5816
▁collect	-10.5817
▁block	-10.5817
▁poverty	-10.582
▁intent	-10.5822
▁selling	-10.5823
▁preparation	-10.5824
▁Tagore	-10.5828
▁poems	-10.583
▁reduce	-10.5836
▁consists	-10.5852
clause	-10.586
▁clarified	-10.5868
▁Recovery	-10.5876
▁Town	-10.5876
▁holds	-10.5877
▁Forest	-10.5879
▁vacancy	-10.5883
▁Defendant	-10.5888
▁comprise	-10.5899
▁DNA	-10.5901
▁formation	-10.5906
▁regarded	-10.5907
▁Secondary	-10.5909
▁format	-10.5909
▁entrusted	-10.5909
▁complaints	-10.5912
▁heirs	-10.5914
▁Anr	-10.5921
▁shot	-10.5932
▁hardly	-10.5939
▁ideal	-10.5944
▁observe	-10.5945
▁Exchange	-10.5947
▁Those	-10.5947
▁unknown	-10.5948
▁Ko	-10.5951
▁territory	-10.5955
▁commitment	-10.596
cum	-10.5967
▁reflected	-10.5971
▁negligence	-10.5971
▁behaviour	-10.5987
▁cities	-10.599
▁Me	-10.5993
▁sales	-10.5995
▁Reserve	-10.5996
▁Each	-10.5997
▁launched	-10.6001
▁invoked	-10.6018
▁l	-10.603
▁bed	-10.6038
▁partners	-10.6041
▁quashing	-10.6042
▁union	-10.6048
▁Doctor	-10.6051
▁Ra	-10.6053
▁agreements	-10.6054
▁brothers	-10.6054
▁blow	-10.6055
▁ka	-10.6062
▁ingredients	-10.6064
▁IV	-10.6073
mi	-10.6074
▁asking	-10.6075
▁online	-10.6079
▁town	-10.608
▁incorrect	-10.6085
▁intellectual	-10.6086
▁terminated	-10.6091
▁dark	-10.6093
▁Kan	-10.6094
▁ascertain	-10.61
▁ST	-10.6101
▁ran	-10.6104
▁attitude	-10.6104
▁solution	-10.6108
▁sex	-10.611
▁season	-10.6113
▁domain	-10.6118
▁villagers	-10.6121
mer	-10.6122
▁Enquiry	-10.6133
ita	-10.614
▁percentage	-10.6143
▁denial	-10.615
var	-10.6165
der	-10.6166
▁panel	-10.6166
▁master	-10.617
▁critical	-10.6171
▁estate	-10.6191
▁sight	-10.6201
▁deem	-10.6202
▁iv	-10.6207
▁Jharkhand	-10.6207
▁changing	-10.6208
▁command	-10.6208
▁Bo	-10.6212
▁cold	-10.6214
▁arrive	-10.6217
▁cloth	-10.6219
▁affirm	-10.6229
time	-10.6235
▁happen	-10.624
▁confirm	-10.6241
▁innocent	-10.6249
▁complied	-10.6249
▁gift	-10.6251
▁obvious	-10.6255
▁afford	-10.6256
▁Managing	-10.6257
▁harassment	-10.6257
▁vi	-10.6262
▁Sy	-10.6268
ology	-10.6269
▁amendments	-10.6273
endra	-10.6288
thi	-10.6289
▁verification	-10.629
tri	-10.63
▁memorandum	-10.6307
▁demands	-10.6307
fi	-10.6313
▁corresponding	-10.6315
▁extremely	-10.6315
▁mechanism	-10.6316
▁regional	-10.6316
▁Today	-10.6317
▁color	-10.6322
▁prepare	-10.6329
▁thereunder	-10.6332
▁lady	-10.6333
▁omission	-10.6333
▁Legal	-10.6334
▁lapse	-10.6339
▁undertake	-10.6341
▁norms	-10.6344
▁crops	-10.6346
▁annex	-10.6348
▁essentially	-10.6348
▁justify	-10.635
▁occupation	-10.6358
▁bills	-10.6364
▁careful	-10.6366
▁tea	-10.6368
▁continues	-10.6371
▁victims	-10.6376
▁map	-10.6377
ay	-10.6378
tro	-10.6386
▁withdrawal	-10.6386
▁assessed	-10.6387
▁missing	-10.6392
▁putting	-10.6395
▁wants	-10.6395
▁assist	-10.6398
▁territorial	-10.6399
▁Engineering	-10.6399
▁server	-10.6402
▁PS	-10.6402
ward	-10.6406
▁Plaintiff	-10.6409
▁Rajya	-10.6412
▁difficulty	-10.6413
▁Bengali	-10.6416
▁quota	-10.6426
▁interview	-10.6426
▁nations	-10.643
▁phase	-10.6432
▁notwithstanding	-10.6442
▁Am	-10.6446
▁tend	-10.6453
▁Being	-10.6454
▁Rights	-10.6455
▁Vishnu	-10.6458
▁banking	-10.6458
▁army	-10.6464
▁cogent	-10.6475
▁channel	-10.6483
▁volume	-10.6487
ll	-10.6493
▁Bi	-10.6505
kh	-10.6506
▁Master	-10.6513
▁enhanced	-10.6516
▁Park	-10.6524
▁consequential	-10.6525
▁Inter	-10.6528
▁legitimate	-10.6532
▁sudden	-10.6532
▁newspaper	-10.6535
▁Higher	-10.6537
our	-10.6538
▁goal	-10.654
appellant	-10.6541
▁monthly	-10.6547
▁besides	-10.6549
▁drawing	-10.6555
▁fish	-10.6558
▁Art	-10.6559
▁significance	-10.6559
tan	-10.6559
▁minority	-10.6571
▁Governments	-10.6574
▁Pay	-10.6574
▁seeing	-10.6575
▁recall	-10.6579
▁cr	-10.6581
od	-10.6582
▁erroneous	-10.6592
▁forth	-10.6594
ach	-10.6596
EN	-10.6597
▁fairly	-10.6604
▁Professor	-10.6606
cha	-10.6608
▁Show	-10.661
▁seem	-10.661
▁measuring	-10.6611
▁prime	-10.6611
nu	-10.6615
bi	-10.662
ung	-10.6622
▁gains	-10.6627
▁prescribe	-10.6627
▁specify	-10.6628
▁literary	-10.6628
▁Q	-10.6628
▁Contract	-10.6633
▁courses	-10.6633
▁journey	-10.6636
▁Rajendra	-10.6637
▁alive	-10.6637
▁escape	-10.6643
▁walk	-10.6645
▁dues	-10.6646
▁Mal	-10.6649
▁possess	-10.6654
▁Planning	-10.6654
▁minister	-10.6657
▁showed	-10.6661
▁insurer	-10.6662
▁Women	-10.6663
cu	-10.667
▁recently	-10.6672
▁Late	-10.6675
▁Sah	-10.6679
ai	-10.6685
▁qualify	-10.6697
▁Is	-10.6707
IN	-10.6713
▁BC	-10.672
▁partly	-10.6721
ions	-10.6722
uri	-10.6725
▁perverse	-10.6733
▁Sanjay	-10.6736
▁songs	-10.6738
▁Business	-10.674
▁feature	-10.6745
▁mo	-10.6745
▁accepting	-10.6746
▁Subsequent	-10.6749
▁pertinent	-10.6757
▁levi	-10.6759
io	-10.6763
▁Kolkata	-10.6766
more	-10.6771
mat	-10.6771
uk	-10.6775
▁MD	-10.6779
▁discussions	-10.678
▁pleased	-10.6783
ft	-10.6789
rat	-10.6792
▁Time	-10.6793
mortem	-10.6793
par	-10.6794
▁decades	-10.6798
▁equivalent	-10.6801
▁comprehensive	-10.6801
wan	-10.6803
bo	-10.6805
wi	-10.6809
▁Resolution	-10.6815
▁super	-10.6818
▁summons	-10.6819
▁sec	-10.6821
do	-10.6825
▁BY	-10.6826
▁touch	-10.6828
ke	-10.683
▁encourage	-10.6833
▁pure	-10.6834
▁amend	-10.6835
▁primarily	-10.6836
chand	-10.6837
▁Force	-10.6841
▁Grade	-10.6845
ring	-10.6847
▁commenced	-10.6852
▁governance	-10.6854
ula	-10.6857
▁environmental	-10.6858
▁ability	-10.6866
▁designed	-10.6867
▁Mahatma	-10.6871
▁couple	-10.6878
▁perspective	-10.688
▁foot	-10.688
kha	-10.688
▁grow	-10.6885
▁raw	-10.6886
▁envisaged	-10.689
▁Over	-10.6893
▁yield	-10.6898
▁evil	-10.6898
▁photographs	-10.6899
▁connect	-10.6901
▁reliefs	-10.6901
▁implead	-10.6906
▁inserted	-10.6914
▁Final	-10.6914
▁diary	-10.6917
▁consequently	-10.6921
▁Gazette	-10.6931
▁historical	-10.6933
▁girls	-10.6933
▁assembly	-10.6935
▁Later	-10.6936
▁Press	-10.694
▁River	-10.6942
▁discrimination	-10.6942
▁improvement	-10.6942
▁define	-10.695
▁drugs	-10.6951
▁Affairs	-10.6951
▁Error	-10.6951
LA	-10.6954
▁inner	-10.6954
▁occur	-10.6955
▁entering	-10.6957
▁Schools	-10.6959
▁automatically	-10.696
▁uncle	-10.6968
▁Heard	-10.6978
dmittedly	-10.6978
▁lose	-10.6978
▁procedural	-10.6986
▁CrPC	-10.6987
▁factory	-10.6989
▁roof	-10.6995
▁port	-10.6997
▁adoption	-10.6998
▁continuing	-10.6998
▁figures	-10.7004
▁diseases	-10.7004
▁belongs	-10.7009
▁CW	-10.701
▁circumstantial	-10.7013
▁AO	-10.7015
▁restricted	-10.7026
▁reform	-10.7028
▁London	-10.7031
▁beauty	-10.7031
▁inclined	-10.7031
▁presum	-10.7034
▁appreciated	-10.7036
▁bag	-10.7039
▁unfair	-10.704
▁strict	-10.7048
▁Ha	-10.7052
▁serving	-10.7053
▁identical	-10.7058
▁entity	-10.7058
▁sleep	-10.7059
▁career	-10.7061
▁Kumari	-10.7064
▁Authorities	-10.7067
▁About	-10.7067
▁insects	-10.7068
▁wood	-10.7078
den	-10.7083
▁fail	-10.7092
▁Mission	-10.7095
▁sugar	-10.7103
▁buildings	-10.7104
▁prohibit	-10.7105
▁Se	-10.7108
▁challenges	-10.7108
▁bond	-10.7111
▁regulation	-10.7115
▁assail	-10.7119
▁summon	-10.712
que	-10.7121
RE	-10.7125
▁shared	-10.7126
▁Survey	-10.7133
▁Bose	-10.7133
▁mis	-10.7136
▁fatal	-10.7136
▁Technical	-10.7139
▁manifest	-10.7141
▁director	-10.7144
▁sectors	-10.7145
▁situations	-10.7149
▁eat	-10.7161
▁Excellency	-10.7166
▁irrespective	-10.7166
▁Ba	-10.718
▁route	-10.7186
▁Prem	-10.7193
▁track	-10.7194
▁winding	-10.7198
tal	-10.72
१५	-10.72
▁UN	-10.72
▁recruit	-10.721
▁modification	-10.7211
▁customers	-10.7212
▁centres	-10.7218
▁reputation	-10.722
▁obviously	-10.7232
▁entertained	-10.7238
▁Google	-10.7239
▁processes	-10.7239
▁Mere	-10.7239
▁chest	-10.724
▁wise	-10.7242
▁Training	-10.7245
▁Palestinian	-10.7248
▁protest	-10.7248
▁customer	-10.7252
▁institute	-10.7258
▁wage	-10.726
▁Directorate	-10.7261
BOUT	-10.7263
garh	-10.7265
▁runs	-10.7265
▁remote	-10.7283
▁sand	-10.7283
SS	-10.7287
▁pages	-10.7288
▁email	-10.7294
▁Gu	-10.7295
▁borne	-10.7298
▁evaluation	-10.7302
▁ourselves	-10.7303
ler	-10.7305
▁VI	-10.7307
▁objectives	-10.7309
▁priority	-10.7312
▁supporting	-10.7312
▁Ji	-10.7318
▁Agriculture	-10.7321
▁atmosphere	-10.7321
▁nuclear	-10.7321
▁conclude	-10.7323
▁visible	-10.733
▁MO	-10.7331
▁innovation	-10.7332
▁corroborated	-10.7337
▁violat	-10.7338
rao	-10.7345
▁....	-10.7346
▁contracts	-10.7347
▁justification	-10.735
▁proceeds	-10.7357
ala	-10.7358
▁SCR	-10.736
▁screen	-10.7361
▁tobacco	-10.7367
▁kinds	-10.7368
ER	-10.7373
▁Yoga	-10.7374
▁Which	-10.7376
▁founded	-10.7377
▁MP	-10.738
au	-10.7384
▁similarly	-10.7385
pat	-10.7387
▁medicine	-10.7388
▁fired	-10.7395
▁grown	-10.7399
▁extract	-10.7404
▁ch	-10.7406
▁starting	-10.7411
▁threatened	-10.7412
▁Great	-10.7414
▁pronouncement	-10.7415
▁distinguished	-10.7416
ists	-10.7417
▁arms	-10.7421
▁consisting	-10.7424
▁expect	-10.7424
▁Shankaracharya	-10.7432
▁uses	-10.7433
▁attachment	-10.7443
▁Ro	-10.7444
▁output	-10.7445
▁dry	-10.7448
▁Bha	-10.7451
▁Review	-10.7451
▁Speaker	-10.7451
▁finance	-10.7452
ham	-10.7454
▁becoming	-10.746
oc	-10.7465
▁gathered	-10.7474
▁match	-10.7476
▁assume	-10.7487
▁loans	-10.749
▁covering	-10.7493
▁judiciary	-10.7497
▁leadership	-10.7498
▁Zone	-10.7498
▁mala	-10.75
▁withdraw	-10.7501
▁restrain	-10.7507
▁leg	-10.7512
▁Among	-10.7526
by	-10.753
▁struck	-10.7531
▁scheduled	-10.7533
unt	-10.7539
▁acquire	-10.7543
▁heat	-10.7547
▁dependent	-10.7549
▁arm	-10.7558
▁derived	-10.7558
▁demonstrate	-10.7559
▁effectively	-10.7568
▁east	-10.7572
▁replied	-10.7573
▁steel	-10.7573
▁Examination	-10.7573
▁See	-10.7574
▁universities	-10.7582
fer	-10.7584
▁Pro	-10.7589
com	-10.7596
▁ambit	-10.76
▁applicability	-10.7607
▁Himachal	-10.761
itis	-10.7614
▁treat	-10.7615
▁concerning	-10.7624
▁considerations	-10.7626
▁Distt	-10.7626
▁ruled	-10.7628
▁double	-10.7628
▁Life	-10.7639
▁Don	-10.7642
▁Reliance	-10.7648
▁Small	-10.7648
▁suits	-10.7649
▁establishing	-10.7654
▁Jai	-10.7654
▁revolution	-10.7657
▁quantum	-10.7658
deed	-10.7659
▁participated	-10.7659
ite	-10.7665
▁ahead	-10.7669
▁sq	-10.7672
▁converted	-10.7674
▁Last	-10.7676
▁efficient	-10.7676
▁willing	-10.7678
▁operative	-10.7688
▁doubtful	-10.7692
▁confer	-10.7692
▁depending	-10.7693
▁successfully	-10.7707
▁ball	-10.7711
▁dance	-10.7715
▁bona	-10.772
charge	-10.7723
▁Ahmed	-10.7724
▁discipline	-10.7729
▁FOR	-10.7731
▁defeat	-10.7733
▁traffic	-10.7734
▁rice	-10.7737
▁strike	-10.7738
hy	-10.7742
▁arrears	-10.7748
▁wrongly	-10.7752
▁convenience	-10.7754
▁practical	-10.7763
▁blue	-10.7763
CL	-10.7768
▁interesting	-10.777
▁communities	-10.7773
Z	-10.7775
▁Chancellor	-10.7778
▁Middle	-10.7783
iness	-10.7787
▁meetings	-10.779
▁requisition	-10.7792
▁reasoning	-10.7797
▁Prevention	-10.7802
▁controlled	-10.7804
▁Sr	-10.7808
▁effected	-10.7809
▁servants	-10.7811
▁fifteen	-10.7811
▁leads	-10.7814
stained	-10.7817
mb	-10.7818
▁deduct	-10.7818
▁harm	-10.782
▁१६	-10.7824
▁Paper	-10.7826
hat	-10.7827
▁host	-10.7831
▁drug	-10.7831
▁dates	-10.7832
▁Con	-10.7832
ow	-10.7833
▁healthy	-10.7838
▁campaign	-10.784
▁suppress	-10.7849
▁Due	-10.785
▁departments	-10.7851
▁danger	-10.7853
rule	-10.786
▁exceeding	-10.7861
▁acres	-10.7863
▁Language	-10.7866
▁wind	-10.7867
▁Sha	-10.7867
ika	-10.7868
▁mining	-10.7872
▁helped	-10.7874
▁communicated	-10.7875
▁substituted	-10.7876
▁Session	-10.7876
▁engineering	-10.788
▁En	-10.7882
▁involves	-10.7889
▁producing	-10.7889
▁lodging	-10.7891
▁attained	-10.7897
▁definite	-10.7898
▁burn	-10.7901
▁marketing	-10.7906
▁Le	-10.7907
▁Acquisition	-10.7909
▁Universities	-10.7909
▁Its	-10.7909
▁protected	-10.7911
▁playing	-10.7918
▁Societies	-10.7918
▁Patent	-10.7919
vo	-10.7922
og	-10.7927
▁infirmity	-10.793
▁greeting	-10.7932
▁suggests	-10.7934
▁pollution	-10.7938
▁eviction	-10.7939
▁Institutions	-10.7942
▁poem	-10.7945
▁caution	-10.7948
▁university	-10.7948
▁relaxation	-10.7948
▁regularly	-10.7958
▁core	-10.7959
▁Credit	-10.7961
▁Nar	-10.7963
▁interpreted	-10.7966
▁attorney	-10.7967
▁conversation	-10.7967
▁unlawful	-10.7967
▁rigorous	-10.7968
▁Ramesh	-10.7969
▁west	-10.7973
TH	-10.7976
cy	-10.798
▁contradictions	-10.7981
▁experts	-10.7984
RA	-10.7984
▁ship	-10.7992
▁moon	-10.7992
▁offices	-10.7998
▁sending	-10.7998
▁assumed	-10.7998
▁initiatives	-10.7999
▁regularization	-10.7999
▁averr	-10.8004
▁forthwith	-10.8007
ster	-10.8007
▁Capital	-10.8007
▁respond	-10.8011
▁die	-10.8016
▁awareness	-10.8022
IL	-10.8023
▁widow	-10.8026
▁invok	-10.8027
▁governing	-10.8028
proving	-10.8032
▁deposits	-10.8041
▁imposition	-10.8046
▁pen	-10.8053
SA	-10.8055
▁perfect	-10.8057
▁Yet	-10.8058
ini	-10.806
▁cancel	-10.8065
ten	-10.8065
▁ultimate	-10.8066
▁earliest	-10.8066
▁debate	-10.8066
▁sat	-10.8069
▁formula	-10.8072
▁vitiated	-10.8075
ct	-10.8075
istic	-10.8078
▁supposed	-10.8078
▁Lucknow	-10.8086
▁compulsory	-10.8086
▁questioned	-10.809
▁Use	-10.8091
▁web	-10.8096
▁maintaining	-10.8098
▁SRI	-10.8101
▁Economic	-10.8105
▁Fri	-10.811
▁star	-10.8114
▁dream	-10.8115
▁smaller	-10.8118
van	-10.8123
AT	-10.8124
▁preceding	-10.8125
▁endorsement	-10.8126
▁initiate	-10.8129
▁politics	-10.8132
▁seed	-10.8133
▁Gopal	-10.8135
▁buy	-10.8135
▁holders	-10.8147
▁plays	-10.815
val	-10.8151
▁empower	-10.8155
▁efficiency	-10.8156
▁Pandit	-10.8156
▁estimated	-10.8161
▁stages	-10.8167
hari	-10.8173
▁survive	-10.8176
▁broken	-10.8178
ben	-10.8185
▁Transfer	-10.8186
▁FSL	-10.8187
▁Laws	-10.8192
we	-10.8193
▁permits	-10.8194
▁bare	-10.8196
oli	-10.8196
▁cycle	-10.8204
▁designated	-10.8205
ard	-10.8206
▁Ahmedabad	-10.8206
▁axe	-10.8207
▁birds	-10.821
dal	-10.8214
▁seriously	-10.8215
▁count	-10.8225
▁Network	-10.8226
▁secondary	-10.8227
▁mail	-10.8228
ning	-10.8231
▁tonnes	-10.8239
kumar	-10.8243
▁crucial	-10.8246
▁represent	-10.8262
▁pleading	-10.8268
▁districts	-10.8269
▁impart	-10.8276
▁Attorney	-10.8276
▁Original	-10.8278
tor	-10.8283
▁repeated	-10.829
▁trace	-10.8295
▁Appeals	-10.8297
▁ensur	-10.8304
▁reveal	-10.8304
▁client	-10.8308
▁instruction	-10.8308
▁attended	-10.8311
ell	-10.8313
▁Ja	-10.8314
ganj	-10.8315
▁Marriage	-10.8317
▁conversion	-10.8317
▁privilege	-10.8317
▁organized	-10.8319
▁undue	-10.8319
▁samples	-10.8328
▁fix	-10.8336
▁council	-10.8337
▁outcome	-10.8337
▁waiting	-10.834
▁farm	-10.8356
▁dispose	-10.8357
▁bidder	-10.8359
▁procedures	-10.836
▁differences	-10.8361
▁characters	-10.8365
▁extraordinary	-10.8368
▁Self	-10.8368
▁Po	-10.8372
▁Cabinet	-10.8378
▁Internet	-10.8378
bra	-10.8381
TA	-10.8381
▁tool	-10.8386
▁introduction	-10.8388
▁contraband	-10.8388
▁returns	-10.8397
bal	-10.8398
▁rain	-10.8401
▁score	-10.8401
▁feed	-10.8405
▁apex	-10.8409
▁argue	-10.8415
▁begin	-10.842
over	-10.8422
▁train	-10.8427
▁festival	-10.8431
▁interpret	-10.8434
▁writer	-10.8441
tur	-10.8449
▁constant	-10.845
ura	-10.8451
▁vehemently	-10.846
za	-10.8463
▁Ph	-10.8465
▁bomb	-10.8465
▁effects	-10.847
▁extreme	-10.8471
▁peculiar	-10.8471
▁platform	-10.8471
▁Statement	-10.8472
▁soft	-10.8481
▁convict	-10.849
▁Da	-10.8493
▁branches	-10.8497
dev	-10.8499
▁Ministers	-10.8499
▁cutting	-10.8503
▁Ya	-10.8508
▁organizations	-10.851
▁implicat	-10.851
▁Junior	-10.8512
▁framework	-10.8512
▁suggestions	-10.8516
▁legs	-10.852
▁expired	-10.8526
▁File	-10.853
▁Kha	-10.8531
▁managed	-10.8532
▁dealer	-10.8533
ender	-10.8534
▁hot	-10.8538
ET	-10.855
▁prosperity	-10.8554
▁succeed	-10.8555
▁Motor	-10.8555
ina	-10.8563
▁trading	-10.8564
▁translation	-10.8567
▁burnt	-10.8568
▁Port	-10.8572
▁Bas	-10.8576
▁calculated	-10.8578
▁Nepal	-10.858
▁Tender	-10.8587
▁borrower	-10.8589
▁fixing	-10.859
▁placing	-10.8595
▁fuel	-10.8595
▁divorce	-10.8596
▁singh	-10.86
▁announced	-10.8608
▁tests	-10.8609
AD	-10.8611
▁nominated	-10.8612
erred	-10.8612
▁users	-10.8615
▁Select	-10.862
▁Ravi	-10.8624
▁performing	-10.8634
▁tune	-10.8636
▁competition	-10.8637
ade	-10.8638
les	-10.8639
▁drama	-10.8639
▁specially	-10.864
lin	-10.8641
▁certificates	-10.8642
▁Sita	-10.8644
▁shock	-10.8647
▁Dis	-10.8651
▁correctnes	-10.8653
▁Islamist	-10.8654
▁minds	-10.8654
▁restriction	-10.8663
▁Pra	-10.8665
ray	-10.8668
▁western	-10.8672
▁electronic	-10.8673
hara	-10.8677
▁offers	-10.8679
▁originally	-10.8684
▁Convention	-10.869
▁knows	-10.8693
▁exceptional	-10.8693
▁Environment	-10.8693
▁satisfactory	-10.87
▁arisen	-10.8705
▁defect	-10.8707
ck	-10.8712
era	-10.8712
▁personality	-10.8722
▁restrictions	-10.8728
asi	-10.8729
▁straight	-10.8732
▁twelve	-10.8732
▁intercourse	-10.8732
▁push	-10.8735
▁recommend	-10.8738
dhar	-10.8738
▁imposing	-10.8739
▁street	-10.874
▁rational	-10.8742
▁fifty	-10.8743
▁Could	-10.8743
▁Look	-10.8744
▁Cha	-10.8748
▁Test	-10.8752
▁Jan	-10.8758
end	-10.876
▁convert	-10.8764
▁virtual	-10.8765
▁greatest	-10.877
po	-10.8772
▁instruments	-10.8774
▁battle	-10.8775
▁fulfill	-10.8779
gan	-10.8779
▁hoc	-10.8779
▁appointing	-10.8781
▁Nature	-10.8797
▁batch	-10.8805
▁please	-10.8805
▁alleg	-10.8806
▁motorcycle	-10.8807
▁outer	-10.8815
▁deprived	-10.8821
▁exclude	-10.8824
▁confident	-10.8828
▁premium	-10.8828
▁Tiwari	-10.8828
▁clarification	-10.8829
▁heads	-10.8833
▁regions	-10.8835
▁Shyam	-10.8839
▁substitute	-10.8845
▁wait	-10.885
▁rush	-10.8854
▁en	-10.8855
▁sake	-10.8857
▁Interest	-10.8857
▁precedent	-10.8859
▁manager	-10.886
▁refuse	-10.8862
▁usual	-10.8862
▁Data	-10.8865
▁creditors	-10.8875
▁provisional	-10.8876
▁didn	-10.8878
▁venture	-10.888
▁span	-10.8881
▁temperature	-10.8882
▁Bureau	-10.8892
bha	-10.8897
▁represents	-10.8903
▁Prakhand	-10.8903
▁roads	-10.8908
▁slow	-10.8909
▁CD	-10.8909
▁Ke	-10.8914
▁Mother	-10.8914
▁purely	-10.8916
act	-10.8925
▁stream	-10.8925
▁exclusion	-10.8925
▁folk	-10.893
▁compound	-10.8931
▁fulfilled	-10.8933
▁torture	-10.8936
▁Mor	-10.8937
▁intend	-10.8937
▁installation	-10.8938
▁desert	-10.8945
▁bench	-10.8945
▁requiring	-10.8946
▁Anand	-10.8956
▁guide	-10.8958
▁Saha	-10.896
▁opposition	-10.896
▁Sur	-10.8967
▁pieces	-10.8967
▁apprehend	-10.8968
▁zero	-10.8968
jan	-10.897
▁Shiva	-10.8971
let	-10.8972
ID	-10.8973
▁chargeable	-10.8977
▁strengthen	-10.8977
▁Sen	-10.898
▁accommodation	-10.898
▁Sector	-10.898
▁shops	-10.8983
▁occasions	-10.8988
▁package	-10.8997
▁resource	-10.8997
▁exempt	-10.9008
urview	-10.9011
▁Are	-10.9012
▁mostly	-10.9017
▁USA	-10.9017
abad	-10.9028
▁Mohd	-10.9029
ping	-10.9031
▁mid	-10.9036
AR	-10.9037
▁Arab	-10.9037
▁climate	-10.9044
▁cricket	-10.9044
▁AM	-10.9045
▁president	-10.9056
▁illegally	-10.9059
▁Again	-10.9064
▁Sal	-10.9067
▁exclusively	-10.9073
▁height	-10.9074
▁squared	-10.9074
▁aforementioned	-10.9088
ori	-10.9091
▁Siva	-10.9092
criminating	-10.9093
adi	-10.9094
ger	-10.9094
▁Investigation	-10.9099
▁tenancy	-10.91
▁creditor	-10.9103
▁inviting	-10.911
▁Agency	-10.9112
▁Works	-10.9115
▁Om	-10.9116
▁Eastern	-10.9118
▁spoken	-10.9121
▁guidance	-10.9121
▁sweet	-10.9132
▁reduction	-10.9133
▁garden	-10.9141
▁parameters	-10.915
▁knowing	-10.9151
▁shareholders	-10.9152
▁initiative	-10.9152
▁empty	-10.9154
▁answers	-10.9155
▁enclos	-10.9157
ek	-10.9158
▁annum	-10.9158
▁substantially	-10.9169
▁cave	-10.9169
ped	-10.9172
▁bilateral	-10.9177
▁exceed	-10.9178
UR	-10.9184
▁fulfil	-10.9185
▁peaceful	-10.9185
▁Raju	-10.9186
▁faced	-10.9187
▁computing	-10.9188
ven	-10.9189
▁alias	-10.9191
▁Addl	-10.9191
▁Va	-10.9197
▁absent	-10.9199
▁Sardar	-10.9202
▁housing	-10.921
▁Sinha	-10.9213
▁Tri	-10.922
▁facing	-10.9221
▁History	-10.9221
▁000	-10.9224
▁implication	-10.9232
▁wisdom	-10.9232
▁stick	-10.9235
▁assess	-10.9237
▁Revision	-10.9238
ties	-10.9241
▁endeavour	-10.9242
▁sacrifice	-10.9252
ns	-10.9252
▁paras	-10.9253
▁Circular	-10.9254
▁matrimonial	-10.9254
▁investors	-10.9255
▁Ad	-10.9257
▁plans	-10.9257
▁consumers	-10.926
▁pressed	-10.9261
▁Note	-10.9264
fe	-10.927
▁discovery	-10.927
▁mortem	-10.9271
JC	-10.9277
▁weather	-10.9281
ore	-10.9287
▁looks	-10.9288
▁Point	-10.9292
▁Leave	-10.9297
▁transmission	-10.9299
▁earned	-10.9308
▁essence	-10.931
▁fruit	-10.9318
DA	-10.9319
▁cl	-10.9321
▁Letters	-10.9323
▁discovered	-10.9325
▁sites	-10.9326
▁inconsistent	-10.9333
▁proposals	-10.9333
▁forged	-10.9334
▁transportation	-10.9336
▁skill	-10.9337
▁forced	-10.934
▁Name	-10.9341
▁Urban	-10.9344
▁Electricity	-10.9344
▁testator	-10.9345
▁center	-10.9346
▁subsection	-10.9362
▁joy	-10.9363
▁boys	-10.9364
mar	-10.9364
where	-10.9365
▁laying	-10.9365
▁integrity	-10.9367
▁exhibited	-10.9374
LE	-10.9376
▁enabling	-10.9378
▁duration	-10.9378
▁pm	-10.9379
▁edge	-10.9381
▁vest	-10.9385
▁injustice	-10.9389
kan	-10.9395
▁stretch	-10.9397
▁Divisional	-10.94
▁Mah	-10.9401
▁consist	-10.9401
off	-10.9402
aka	-10.9402
▁Anil	-10.9406
▁Pa	-10.9409
▁societies	-10.9412
▁nearby	-10.9413
▁Child	-10.9414
▁refusal	-10.9415
IC	-10.9424
ery	-10.9433
▁insist	-10.9436
▁occurs	-10.9438
▁Change	-10.9441
▁bio	-10.9442
dha	-10.9445
▁Independence	-10.9446
▁Kal	-10.945
▁killing	-10.9451
▁beat	-10.9452
gaon	-10.9457
▁Parliamentary	-10.9463
lam	-10.9465
▁Banks	-10.9467
▁Agricultural	-10.9469
▁Body	-10.9469
▁Issue	-10.9472
use	-10.9474
▁arrangements	-10.9475
▁exact	-10.9476
▁com	-10.9476
▁billion	-10.9477
▁Suresh	-10.9478
solely	-10.9479
▁Nothing	-10.9493
▁Hotel	-10.9503
▁budget	-10.9504
▁Committees	-10.9506
ada	-10.9514
▁silent	-10.9516
▁vote	-10.9525
red	-10.9527
▁renewal	-10.9528
▁Nations	-10.9528
▁pertain	-10.9529
▁Mahto	-10.9533
ose	-10.9546
▁dignity	-10.9549
▁prohibition	-10.9552
gra	-10.956
ries	-10.956
aw	-10.9562
▁Subhas	-10.9563
ze	-10.9576
▁relate	-10.9576
ew	-10.9581
▁Durga	-10.9589
lan	-10.9595
▁assailant	-10.9598
▁dangerous	-10.9599
ec	-10.96
▁succeeded	-10.9604
▁presentation	-10.9606
▁oath	-10.9608
▁engagement	-10.9609
▁taxes	-10.961
▁Yes	-10.9612
▁apprehension	-10.9618
▁friendship	-10.9619
▁Cooperative	-10.962
▁imagination	-10.963
▁skills	-10.9631
ens	-10.9633
▁thousands	-10.9634
▁affidavits	-10.9635
▁zone	-10.9644
ama	-10.9648
▁scholars	-10.9651
▁vague	-10.9653
▁grand	-10.9653
▁Children	-10.9653
▁cognizable	-10.9655
▁Nag	-10.9659
▁regime	-10.966
▁doubts	-10.966
▁concerns	-10.9663
▁jointly	-10.9663
▁Baba	-10.9664
▁Urdu	-10.9665
▁Tak	-10.9669
▁repeal	-10.9672
▁implement	-10.9673
▁Advocates	-10.9675
▁Area	-10.9679
gg	-10.9684
▁Vigilance	-10.9688
▁Market	-10.969
▁observ	-10.9691
▁difficulties	-10.9692
▁conclusions	-10.9693
▁casual	-10.9699
anda	-10.9701
▁Jail	-10.9711
▁settle	-10.9714
▁intervention	-10.9715
▁routine	-10.9723
▁supreme	-10.9723
▁enquir	-10.9726
▁contributions	-10.9733
▁organ	-10.9733
▁Pleader	-10.9735
▁URL	-10.9735
▁Statute	-10.9738
▁creates	-10.9738
▁elder	-10.9739
▁disk	-10.9743
▁execut	-10.9744
▁trademark	-10.9747
dh	-10.9747
▁RBI	-10.9749
▁thrown	-10.975
▁helps	-10.9753
▁personally	-10.9754
▁Exs	-10.9757
▁exactly	-10.9757
tes	-10.9757
▁contra	-10.976
▁१७	-10.9762
vas	-10.9764
▁socio	-10.9778
ny	-10.9787
▁welcome	-10.9792
▁fellow	-10.9794
▁investigate	-10.9795
▁deny	-10.9795
▁reforms	-10.9796
▁Customs	-10.9797
▁radio	-10.9803
▁declined	-10.9803
▁load	-10.9805
▁expansion	-10.9805
▁conference	-10.9809
▁awards	-10.9811
mon	-10.9812
▁Export	-10.9819
▁correctly	-10.9825
▁combination	-10.9829
▁Bahadur	-10.9829
▁Local	-10.9829
▁Copy	-10.9829
MC	-10.9833
osis	-10.9837
▁scientists	-10.9838
▁Dhan	-10.984
▁emergency	-10.9841
▁liabilities	-10.9853
▁grass	-10.9853
ator	-10.9857
pon	-10.9864
▁marry	-10.9865
▁exports	-10.9871
▁Accounts	-10.9876
▁comparison	-10.9876
▁password	-10.9877
▁Ban	-10.9877
▁prompt	-10.9878
▁confirmation	-10.9878
ible	-10.9879
▁Just	-10.9879
▁tissue	-10.9881
▁solar	-10.9884
▁earning	-10.9886
day	-10.9886
▁inclusive	-10.9888
▁assignment	-10.989
▁rivers	-10.9896
▁throw	-10.9897
▁monetar	-10.99
▁Divine	-10.99
▁flowers	-10.9901
▁Building	-10.9906
▁Sushil	-10.9908
▁compell	-10.9908
▁beneficial	-10.9912
cur	-10.9912
▁vessel	-10.9917
q	-10.9918
▁confusion	-10.9924
hri	-10.9925
▁supplementary	-10.9928
▁manage	-10.9931
▁resolved	-10.9932
▁Primary	-10.9936
▁irregularity	-10.9937
ko	-10.9937
▁enforce	-10.9946
work	-10.9949
treating	-10.9955
▁seemed	-10.9956
▁mission	-10.9959
▁doctors	-10.996
▁entrance	-10.996
▁myself	-10.996
▁target	-10.9961
▁Estate	-10.9965
▁Deed	-10.9967
gam	-10.997
▁maintainability	-10.9973
uni	-10.9973
▁talking	-10.9981
▁store	-10.9984
disqualification	-10.9984
▁ROAD	-10.9991
▁levell	-10.9999
▁Whereas	-11
ps	-11.0002
responsibilities	-11.0008
▁faculty	-11.0008
▁initiation	-11.0009
EE	-11.0014
▁admissions	-11.0016
▁anticipatory	-11.002
▁Industry	-11.002
▁corroboration	-11.0021
▁tenants	-11.0021
X	-11.0021
▁adult	-11.0026
▁Houses	-11.0027
▁enabled	-11.0029
▁enhance	-11.0032
▁corruption	-11.0033
▁ear	-11.0034
▁Men	-11.0039
▁investments	-11.0039
▁incumbent	-11.0044
▁Army	-11.0044
jo	-11.0048
▁murdered	-11.0052
▁influenced	-11.0053
oid	-11.0056
▁brand	-11.0056
▁Educational	-11.0057
▁assessing	-11.0058
▁membership	-11.0059
▁organised	-11.0064
▁spoke	-11.0064
ug	-11.0071
▁fifth	-11.0071
▁cow	-11.0072
▁Year	-11.0075
▁hotel	-11.0076
▁liberal	-11.0084
▁Li	-11.0084
▁sp	-11.0086
▁assurance	-11.0093
▁centuries	-11.0093
▁kg	-11.0095
dic	-11.0095
▁gap	-11.0098
▁substantiate	-11.0101
▁Rent	-11.0104
▁verify	-11.0105
▁irrigation	-11.0105
▁dedicated	-11.0106
▁Main	-11.011
▁Employees	-11.0112
▁horse	-11.0112
▁deserve	-11.0113
▁twice	-11.0117
▁cattle	-11.0117
▁lawful	-11.0117
PDD	-11.0125
▁bribe	-11.0129
espite	-11.0129
af	-11.0129
▁quasi	-11.013
▁delinquent	-11.0131
▁Free	-11.0131
▁margin	-11.0135
▁Notwithstanding	-11.0141
▁directory	-11.0143
▁saved	-11.0144
▁Tata	-11.0146
▁exhibit	-11.0149
▁rendering	-11.0149
▁emerged	-11.0149
▁Pan	-11.0149
reaching	-11.015
▁newly	-11.015
▁communal	-11.0153
▁Housing	-11.0153
▁contravention	-11.0154
▁Annual	-11.0154
▁win	-11.0154
aries	-11.0159
▁Dar	-11.016
▁deliberately	-11.0162
gen	-11.0164
▁Constitutional	-11.0165
▁signal	-11.017
▁Temple	-11.0178
▁everyone	-11.0182
▁Anti	-11.0186
chief	-11.0188
▁Israeli	-11.0189
▁Something	-11.019
▁Institution	-11.0192
▁Th	-11.0194
▁Related	-11.0201
▁verified	-11.0202
tre	-11.0209
▁bears	-11.0212
▁Memorandum	-11.0215
▁Defence	-11.0215
▁attacked	-11.0217
▁Jha	-11.0218
▁formulated	-11.0219
▁Red	-11.0221
▁CO	-11.0223
▁younger	-11.0224
▁divide	-11.0228
▁minute	-11.0228
▁combined	-11.0231
▁suddenly	-11.0242
▁Oil	-11.0243
ES	-11.0245
▁instances	-11.0253
▁Add	-11.0255
▁tank	-11.0255
▁eyewitness	-11.0255
▁driven	-11.0259
▁failing	-11.0262
▁intelligence	-11.0264
▁weigh	-11.0264
▁noise	-11.0265
▁Mark	-11.0275
▁Kishore	-11.0278
jit	-11.028
▁assured	-11.0281
▁sequence	-11.0289
▁log	-11.0292
▁civilization	-11.0292
▁province	-11.0301
▁Organization	-11.0302
▁god	-11.0303
Ms	-11.0306
ement	-11.0312
tive	-11.0313
▁custom	-11.0315
▁mixed	-11.0319
▁Te	-11.0325
▁uphold	-11.0326
▁mandapa	-11.0326
▁relevance	-11.0326
▁creative	-11.0326
▁seeds	-11.0329
▁Arun	-11.0334
▁doesn	-11.0334
cus	-11.0337
▁movements	-11.034
▁prohibited	-11.0343
ban	-11.0343
▁organisations	-11.0347
▁Card	-11.0348
▁elicit	-11.0351
▁quick	-11.0353
▁speaks	-11.0355
▁Amar	-11.0358
▁French	-11.0363
▁pick	-11.0367
▁witnessed	-11.0367
▁wrongful	-11.0372
▁newspapers	-11.0374
▁violated	-11.0374
▁distinguish	-11.0375
▁offender	-11.0378
las	-11.0381
▁filling	-11.0386
ip	-11.0388
▁Ordinance	-11.0388
▁prominent	-11.0388
▁voluntarily	-11.0388
▁numerous	-11.0388
AS	-11.0389
▁distributed	-11.0392
▁graph	-11.0395
▁receipts	-11.0396
▁chapter	-11.041
▁Secondly	-11.0412
mp	-11.0412
▁teeth	-11.0413
▁symbol	-11.0419
cho	-11.042
so	-11.0421
▁Christian	-11.0422
eg	-11.0423
▁Du	-11.0424
▁enmity	-11.0426
light	-11.043
▁Paragraph	-11.0436
avi	-11.0436
▁markets	-11.0437
▁assertion	-11.044
▁projected	-11.0441
▁Bangladesh	-11.0451
▁baby	-11.0451
sis	-11.046
▁component	-11.0461
▁quiet	-11.0464
▁Rakesh	-11.0464
▁underlying	-11.0466
cer	-11.047
▁stipulation	-11.0472
▁superannuation	-11.0476
dent	-11.0478
▁guaranteed	-11.048
worthy	-11.0482
▁disabled	-11.0482
▁bird	-11.0485
▁vendor	-11.0487
▁Saraswati	-11.0489
▁wonder	-11.0497
▁composed	-11.0499
▁indicating	-11.0502
▁backward	-11.0503
▁summary	-11.0514
▁secur	-11.0526
▁altogether	-11.053
ila	-11.0531
▁input	-11.0533
▁deeply	-11.0535
▁gate	-11.0535
▁Had	-11.0536
▁race	-11.0538
qui	-11.0545
aya	-11.0545
▁enterprise	-11.055
▁corrupt	-11.0551
▁denying	-11.0552
▁Ab	-11.056
▁append	-11.056
▁tribal	-11.0563
▁Railways	-11.0565
▁tested	-11.0567
▁drink	-11.0567
▁offering	-11.0571
▁devotion	-11.0573
▁existed	-11.0573
▁VII	-11.0574
ttributed	-11.0574
▁lawyer	-11.0576
▁John	-11.0577
▁securities	-11.0578
ren	-11.058
▁approximately	-11.0584
▁naturally	-11.0585
▁revisional	-11.0588
▁Teacher	-11.0589
▁Register	-11.0589
▁trained	-11.0589
▁votes	-11.0589
▁lock	-11.059
▁phrase	-11.059
▁ha	-11.06
▁competitive	-11.0601
▁ignorance	-11.0603
ising	-11.0615
▁ID	-11.0616
▁Consumer	-11.0616
▁Teachers	-11.0618
▁daughters	-11.0618
▁enumerated	-11.062
HO	-11.062
▁Di	-11.0628
ill	-11.0633
▁sky	-11.0633
▁Si	-11.0639
▁resolve	-11.064
pura	-11.0641
▁wild	-11.0642
▁courage	-11.0644
AM	-11.0644
▁ban	-11.065
▁attempted	-11.0655
amma	-11.0658
sion	-11.0659
▁Brahma	-11.066
▁NIT	-11.0663
if	-11.0667
▁Property	-11.0667
▁prefer	-11.0668
▁uniform	-11.0669
▁meters	-11.0669
▁invoke	-11.067
▁poets	-11.067
▁examples	-11.0676
▁sacred	-11.068
▁digital	-11.0681
▁mountain	-11.0682
▁extensive	-11.0683
▁customs	-11.0684
▁stomach	-11.0693
▁Sale	-11.0693
row	-11.0696
ou	-11.0705
▁stress	-11.0705
▁assuming	-11.0706
ey	-11.0706
▁hurt	-11.0707
▁Controller	-11.0707
▁terminal	-11.0707
ava	-11.071
▁terrorist	-11.0711
▁ante	-11.0711
ob	-11.0717
▁technologies	-11.0719
side	-11.0719
▁components	-11.0722
▁prosecut	-11.0729
▁bonds	-11.0733
▁penal	-11.0737
▁quickly	-11.0743
▁Iran	-11.0744
▁closely	-11.0744
▁cultivation	-11.0745
▁preparing	-11.0745
▁comment	-11.0745
ata	-11.0745
▁prospective	-11.0745
▁border	-11.0745
▁hardship	-11.0746
▁warning	-11.0751
▁Ta	-11.0752
▁criticism	-11.0758
▁statutes	-11.076
▁covers	-11.0764
▁SI	-11.0765
▁Employment	-11.0771
▁ruling	-11.0772
▁imp	-11.0783
▁UGC	-11.0784
▁sustain	-11.0785
andi	-11.0785
▁involve	-11.0785
▁Nand	-11.0785
▁regulate	-11.0787
▁folder	-11.0788
,0	-11.0795
▁print	-11.0796
▁manufactured	-11.0802
▁Like	-11.0803
qu	-11.0803
▁anybody	-11.0804
▁gratuity	-11.081
▁household	-11.0813
nic	-11.0814
▁Awards	-11.0824
▁resist	-11.0834
izing	-11.0835
▁arranged	-11.0835
▁layer	-11.0837
▁residents	-11.0838
▁Ac	-11.0839
lar	-11.0842
▁structures	-11.0842
▁firing	-11.0842
▁implied	-11.0843
▁Indra	-11.0843
▁bidders	-11.0848
▁assumption	-11.0849
▁attendance	-11.085
▁desired	-11.0857
ora	-11.086
▁punished	-11.086
▁sets	-11.0861
▁SA	-11.0862
▁Based	-11.0865
▁Ajay	-11.087
▁Champaran	-11.0875
▁repair	-11.0876
ification	-11.0877
▁destroy	-11.088
▁UK	-11.088
▁occupied	-11.0884
ide	-11.0884
▁kumar	-11.0888
▁blind	-11.09
▁Guwahati	-11.0902
▁discharging	-11.0902
▁printed	-11.0904
▁Tribes	-11.0905
pati	-11.0909
▁prison	-11.0909
▁York	-11.0915
▁destination	-11.0915
▁loose	-11.0915
ned	-11.0915
▁ones	-11.0916
▁reaction	-11.0918
▁trouble	-11.0918
▁apparently	-11.0922
▁diet	-11.0927
▁emerging	-11.0928
▁irrelevant	-11.0928
▁comments	-11.0928
▁prose	-11.0929
▁Buddha	-11.093
ush	-11.093
▁decline	-11.0931
▁replaced	-11.0931
▁detain	-11.0933
▁eggs	-11.0937
PL	-11.0938
▁AGED	-11.0943
either	-11.0944
▁micro	-11.0948
▁guard	-11.095
pu	-11.0951
nt	-11.0957
▁bids	-11.0961
tt	-11.0962
▁Three	-11.0968
▁integrated	-11.0969
▁Shukla	-11.0974
▁offend	-11.0977
▁enforced	-11.0979
▁infringement	-11.0981
▁patients	-11.0986
▁deleted	-11.0988
▁None	-11.099
▁comprising	-11.0994
▁illness	-11.0999
▁band	-11.1002
▁affecting	-11.1003
ST	-11.1007
▁equitable	-11.1007
▁Failed	-11.1007
▁crisis	-11.1008
nam	-11.1008
▁imported	-11.1013
▁song	-11.1015
▁bottom	-11.1021
▁destruction	-11.1021
▁imperative	-11.1021
▁improving	-11.1021
▁angle	-11.1023
▁lesser	-11.1023
ify	-11.1027
▁hill	-11.103
▁starts	-11.103
▁furnishing	-11.1033
▁plastic	-11.1034
▁Gora	-11.1039
ley	-11.1039
kal	-11.1041
▁depose	-11.1045
▁pointing	-11.1045
▁ceremony	-11.1047
▁rehabilitation	-11.1048
▁Book	-11.1049
▁hall	-11.105
▁inspire	-11.105
▁accurate	-11.1064
▁ended	-11.1067
▁joining	-11.1067
▁tools	-11.107
▁ca	-11.1075
▁begins	-11.1076
▁Record	-11.1078
▁linked	-11.1083
▁Level	-11.1088
▁governments	-11.1092
▁AY	-11.1094
▁alter	-11.1095
▁learnt	-11.1095
▁Bhu	-11.1099
CE	-11.1104
▁Bad	-11.1104
▁fluid	-11.1115
▁planned	-11.112
▁studied	-11.1128
▁Inquiry	-11.1129
▁Ru	-11.1131
▁ring	-11.1136
▁southern	-11.1141
uddin	-11.1146
▁proportion	-11.1153
▁Metropolitan	-11.1155
▁allocation	-11.1155
▁Speaking	-11.1157
zi	-11.116
▁representations	-11.1163
▁declaring	-11.1168
▁writings	-11.1172
▁crowd	-11.1172
▁succession	-11.1174
▁Working	-11.1174
▁forming	-11.1181
▁Ray	-11.1182
▁utter	-11.1183
▁roll	-11.1186
Nos	-11.1188
▁Mobile	-11.1196
▁innocence	-11.1196
▁conscience	-11.1196
ela	-11.1201
▁contribute	-11.1203
CO	-11.1204
▁beating	-11.1207
▁rock	-11.1208
▁recourse	-11.121
▁Mrs	-11.1212
▁clearance	-11.1214
▁eminent	-11.1223
▁interlocutor	-11.1223
▁handwriting	-11.1223
under	-11.1225
▁mine	-11.1227
ati	-11.1236
▁unnecessary	-11.1236
▁intimation	-11.1236
▁felicitations	-11.1236
▁definitely	-11.1237
▁Germany	-11.1242
▁depth	-11.1244
▁praying	-11.1247
▁Micro	-11.125
▁generated	-11.1257
▁widely	-11.1258
RO	-11.1259
▁CIT	-11.1261
ron	-11.1262
▁indication	-11.1264
▁improper	-11.1267
▁infection	-11.1268
▁completing	-11.1277
▁decade	-11.1284
▁salt	-11.1284
▁correction	-11.1291
▁Ambedkar	-11.1291
▁Standard	-11.1296
▁safeguard	-11.1296
hor	-11.13
▁devi	-11.1303
▁era	-11.1304
▁artificial	-11.1305
▁proud	-11.1306
▁burning	-11.1313
▁CA	-11.1314
▁thumb	-11.1318
▁cotton	-11.1319
▁Dinesh	-11.1328
▁Set	-11.1334
▁bottle	-11.1337
tle	-11.134
atory	-11.1341
▁bleeding	-11.1346
▁surrounding	-11.1355
▁Kam	-11.1356
▁drinking	-11.1356
▁simultaneously	-11.1362
▁neighbour	-11.1365
▁preference	-11.1366
▁restraint	-11.1367
▁heritage	-11.1373
▁celebrated	-11.1373
▁drop	-11.1373
yn	-11.1379
▁walls	-11.1379
▁consonance	-11.1387
▁correspondence	-11.1387
dis	-11.139
▁Modi	-11.139
rang	-11.139
▁wear	-11.1395
RI	-11.1403
▁Manoj	-11.1415
▁sharing	-11.1415
▁seller	-11.1417
▁evolved	-11.142
▁Ganesh	-11.1423
▁pursue	-11.1424
▁Mehta	-11.1425
▁drew	-11.1431
▁Bhagwan	-11.1431
▁Forum	-11.1432
bir	-11.1436
▁mr	-11.1442
▁passport	-11.1443
▁enhancement	-11.1444
▁worker	-11.1445
gal	-11.145
▁tube	-11.145
▁Misc	-11.1453
▁remind	-11.1454
▁suspicious	-11.1457
Q	-11.1457
ff	-11.1463
▁Qu	-11.1468
▁enemy	-11.147
▁destroyed	-11.1485
▁Promotion	-11.1485
▁Number	-11.1485
▁Vol	-11.1485
▁Japan	-11.1485
▁invite	-11.1489
▁nobody	-11.1491
▁Basic	-11.1492
The	-11.1494
mor	-11.1498
▁Circle	-11.1498
▁opponent	-11.1498
▁Enable	-11.1512
tru	-11.1512
▁Construction	-11.1513
air	-11.1513
▁carries	-11.1513
▁Tue	-11.1514
▁excessive	-11.1515
ld	-11.1518
▁Ki	-11.1526
▁Castes	-11.1527
▁insured	-11.1527
▁hereunder	-11.1528
▁ignore	-11.153
▁Cases	-11.153
possessed	-11.1534
▁semi	-11.1538
▁scenario	-11.154
▁Jawaharlal	-11.1541
▁thoughts	-11.1541
▁avoided	-11.1541
▁Ku	-11.1544
hra	-11.1551
▁Sheikh	-11.1553
▁religions	-11.1555
▁strongly	-11.1563
▁sad	-11.1565
sen	-11.1565
▁Laboratory	-11.1568
▁fat	-11.1572
▁Sea	-11.1577
▁engage	-11.1584
▁coupled	-11.1585
▁somebody	-11.1586
▁entertainment	-11.1586
▁titled	-11.1588
▁strange	-11.1588
bu	-11.1589
deo	-11.159
▁happening	-11.1593
▁pair	-11.1593
▁commerce	-11.1597
▁strategy	-11.1597
▁serial	-11.1597
▁rapid	-11.1601
▁tape	-11.1601
▁Coal	-11.1602
▁masses	-11.1603
▁Arbitra	-11.161
▁contemporary	-11.1611
▁alarm	-11.1611
chandra	-11.1614
ick	-11.1615
▁Rani	-11.1617
▁emotional	-11.1618
▁......	-11.1621
▁Persian	-11.1626
▁aggregate	-11.163
ix	-11.1632
▁electric	-11.1633
▁Pratap	-11.1639
▁humanity	-11.1641
▁El	-11.1648
▁catch	-11.1654
▁sick	-11.1655
ier	-11.1655
▁testing	-11.1662
▁wearing	-11.1662
▁wider	-11.1662
▁educated	-11.1663
▁Prof	-11.1667
▁AC	-11.1667
▁undisputed	-11.1667
▁fruits	-11.1669
▁competence	-11.167
▁Iraq	-11.1671
▁Odisha	-11.1682
▁Nor	-11.1682
▁classified	-11.1682
▁quo	-11.1692
▁cancer	-11.1695
▁Money	-11.1696
▁Common	-11.1697
▁entitlement	-11.1698
▁fixation	-11.1698
▁bridge	-11.1698
▁contradiction	-11.1706
ction	-11.1707
▁sleeping	-11.1723
▁Ho	-11.1723
▁northern	-11.1725
▁taught	-11.1725
▁construct	-11.1727
cal	-11.173
▁Sometimes	-11.1739
▁alcohol	-11.1741
▁Ga	-11.1749
▁deliberate	-11.175
▁panch	-11.1752
▁livelihood	-11.1753
▁supervision	-11.1753
▁tomorrow	-11.1753
▁violent	-11.1753
▁earn	-11.1753
▁meantime	-11.1755
▁Mag	-11.1755
▁enact	-11.1756
▁vires	-11.1756
tter	-11.1758
▁factum	-11.1758
▁elaborate	-11.1762
▁Return	-11.1768
▁attain	-11.177
▁physically	-11.177
▁continuously	-11.1773
▁Plant	-11.1775
mit	-11.1781
.00	-11.1781
▁profile	-11.1782
▁harmony	-11.1782
▁previously	-11.1784
▁Similar	-11.1786
▁ornaments	-11.1789
▁Vir	-11.179
int	-11.1793
▁cease	-11.1796
▁Guarantee	-11.1796
▁credibility	-11.1796
▁links	-11.18
▁inspired	-11.1803
▁Agra	-11.1807
mu	-11.1809
judicial	-11.181
▁Bhawan	-11.181
▁devoid	-11.1811
▁enjoyment	-11.1814
▁RE	-11.1815
ras	-11.1818
ole	-11.1818
▁largely	-11.1823
▁passengers	-11.1824
▁commonly	-11.1831
▁recognize	-11.1839
▁quote	-11.184
▁onwards	-11.184
▁conclusive	-11.1844
▁Audit	-11.185
▁familiar	-11.1854
▁Ahmad	-11.1854
▁Energy	-11.1855
▁fallen	-11.1858
▁partial	-11.1862
▁Work	-11.1864
▁Lecturer	-11.1865
▁calendar	-11.1869
▁happiness	-11.1869
pet	-11.1874
▁Instead	-11.1874
▁collective	-11.1874
▁Panch	-11.1881
▁implementing	-11.1883
▁desirable	-11.1883
divided	-11.1887
▁directors	-11.1888
▁switch	-11.1892
▁bright	-11.1897
▁Forensic	-11.1898
rous	-11.1901
▁pistol	-11.1912
▁messages	-11.1913
▁Green	-11.1913
▁participat	-11.1915
ath	-11.192
▁scales	-11.1922
chan	-11.1922
bb	-11.1923
▁appreciating	-11.1923
ua	-11.1926
▁Appendix	-11.1927
▁commodities	-11.1927
▁spouse	-11.1927
▁quarter	-11.1929
▁Sales	-11.1947
ack	-11.1949
▁Registry	-11.1956
▁probability	-11.1956
vel	-11.1962
▁realised	-11.1964
LR	-11.1965
▁TV	-11.1967
▁differ	-11.1968
▁oblig	-11.197
▁truly	-11.1971
▁photograph	-11.1975
▁indirectly	-11.1978
▁institutional	-11.1978
▁absorption	-11.1985
▁prayers	-11.1985
▁subsidiary	-11.2
▁Kala	-11.2006
▁tour	-11.2007
▁insect	-11.2013
▁mahazar	-11.2015
undergone	-11.2017
▁fracture	-11.2019
▁Lordships	-11.2019
▁१८	-11.2022
▁Charge	-11.2025
▁launch	-11.2029
▁Chaitanya	-11.2029
hood	-11.2033
ikewise	-11.2039
▁Natural	-11.2044
▁sentiment	-11.2044
▁attempts	-11.2048
udi	-11.2055
▁excellence	-11.2059
und	-11.2059
▁Indira	-11.2059
▁remov	-11.2062
tric	-11.2065
che	-11.2067
▁Web	-11.2072
▁ITAT	-11.2075
▁viewed	-11.2079
▁spend	-11.2081
▁di	-11.2081
▁label	-11.2082
ev	-11.2082
▁operational	-11.2084
▁enables	-11.2085
singh	-11.2088
▁Mughal	-11.2088
▁ultra	-11.2089
▁convinced	-11.2093
nar	-11.2094
▁collecting	-11.2094
ech	-11.2099
▁contributed	-11.21
rai	-11.2101
▁Steel	-11.2103
▁affiliation	-11.2104
▁Bazar	-11.2104
▁managing	-11.2105
▁submitt	-11.2108
▁eastern	-11.2113
▁corner	-11.2117
▁delegation	-11.2118
▁Foundation	-11.2119
▁conformity	-11.2119
▁encouraged	-11.2121
uc	-11.213
▁legality	-11.2131
je	-11.2131
ena	-11.2134
▁Letter	-11.2135
▁auto	-11.2143
▁writers	-11.2145
▁signs	-11.2146
chieving	-11.2148
▁sixty	-11.2153
▁jobs	-11.2155
▁Airport	-11.2163
EL	-11.2169
▁Russia	-11.2172
▁attacks	-11.2173
▁forests	-11.2174
▁adv	-11.2175
▁options	-11.2177
▁unconscious	-11.2178
▁subscribe	-11.2179
▁cool	-11.2184
assisted	-11.219
▁detenue	-11.219
▁Meeting	-11.2193
▁Arora	-11.2193
▁Pune	-11.2195
▁arrival	-11.2197
▁incidents	-11.2201
▁trend	-11.2203
III	-11.2204
▁AP	-11.2205
▁Five	-11.2205
▁entities	-11.2208
▁palace	-11.2208
ris	-11.2209
▁Basava	-11.222
ual	-11.2221
▁index	-11.2223
lat	-11.2224
▁pa	-11.2226
▁sword	-11.2231
▁Commerce	-11.2238
▁George	-11.2238
▁resignation	-11.2238
▁parade	-11.2239
▁Enterprises	-11.2246
▁limitations	-11.2251
▁contesting	-11.2253
▁diverse	-11.2253
▁usage	-11.2254
▁expectation	-11.2255
▁Keeping	-11.2257
▁Bhai	-11.226
SC	-11.2261
▁Appellants	-11.2261
▁foregoing	-11.2263
▁enunciat	-11.2268
▁parallel	-11.2268
▁permitt	-11.2268
▁audio	-11.2269
▁Caste	-11.2272
gri	-11.2272
CC	-11.2273
▁discrepanc	-11.2276
▁shoulder	-11.2282
▁flag	-11.2282
▁kingdom	-11.2283
▁internet	-11.2284
▁wire	-11.2285
▁solve	-11.2288
▁contemplate	-11.2289
▁Char	-11.2289
TE	-11.2296
HE	-11.2297
▁realise	-11.2298
▁television	-11.2298
▁lathi	-11.2299
▁install	-11.23
▁stones	-11.2301
▁progressive	-11.2303
▁cap	-11.2305
▁Naya	-11.2306
▁muscle	-11.2314
▁remedies	-11.2314
signing	-11.2314
▁lieu	-11.2316
▁consequent	-11.2318
▁sin	-11.2322
▁computation	-11.2329
▁constable	-11.2329
▁lawyers	-11.2331
▁breath	-11.2331
▁probation	-11.2334
▁Australia	-11.234
ocular	-11.2341
▁onus	-11.2343
▁Investment	-11.2344
▁Chandigarh	-11.2344
▁handle	-11.2344
▁rescue	-11.2344
▁allowances	-11.2345
▁Wa	-11.2348
ker	-11.2355
▁increment	-11.2359
▁League	-11.2359
▁shelter	-11.2359
▁cooperative	-11.2364
▁na	-11.2371
▁PWs	-11.2372
▁productivity	-11.2375
▁advocates	-11.2375
▁Times	-11.2379
▁su	-11.238
▁Che	-11.2383
▁relies	-11.2383
▁displayed	-11.2384
▁poison	-11.2385
pan	-11.2387
▁impress	-11.2388
cle	-11.2389
▁speedy	-11.239
khan	-11.2392
▁Kali	-11.2392
▁interven	-11.2394
▁Dec	-11.2398
▁Math	-11.24
▁PIL	-11.2401
▁Tr	-11.2401
▁dynamic	-11.2404
▁Disciplinary	-11.2405
▁inferior	-11.2405
▁kerosene	-11.2405
▁cry	-11.2407
▁eventually	-11.2409
trial	-11.241
▁solid	-11.2411
▁cable	-11.2419
▁locality	-11.2419
▁metres	-11.2422
▁functional	-11.2427
▁script	-11.2431
fl	-11.2431
▁anywhere	-11.2434
▁Binoy	-11.2435
▁reserve	-11.2444
ferred	-11.2446
▁electoral	-11.2451
▁unauthorized	-11.2451
▁Afghanistan	-11.2451
▁click	-11.2452
▁.....	-11.2452
▁palm	-11.2454
▁Pursu	-11.2463
▁commence	-11.2464
▁leaf	-11.2465
▁tied	-11.2465
▁erstwhile	-11.2466
▁View	-11.2467
▁rejoinder	-11.2468
▁afraid	-11.2468
▁mutation	-11.2469
▁vice	-11.2475
her	-11.248
▁sovereign	-11.2481
▁qualities	-11.2482
▁grew	-11.2482
estatrix	-11.2482
▁Direct	-11.2486
▁agents	-11.2488
claim	-11.2489
▁via	-11.2493
▁errors	-11.2494
cent	-11.2495
▁fled	-11.2497
▁consult	-11.2501
sisted	-11.2505
▁forget	-11.2505
▁surround	-11.2509
anna	-11.2512
▁surplus	-11.2512
▁repeatedly	-11.2513
king	-11.2514
▁millions	-11.2515
▁gradually	-11.2516
everal	-11.2519
mani	-11.252
ight	-11.2521
▁suspended	-11.2524
aid	-11.2527
▁arbitrariness	-11.2528
▁possibly	-11.2528
▁Death	-11.2529
▁accrued	-11.2529
▁Shi	-11.2536
▁sh	-11.2536
IR	-11.254
▁Engineers	-11.2543
▁jurisprudence	-11.2543
▁aircraft	-11.2544
well	-11.2544
▁Vedic	-11.2545
▁organs	-11.2545
▁remarkable	-11.2545
▁pot	-11.2546
▁sports	-11.2546
ations	-11.2549
▁Pat	-11.2559
▁STATE	-11.256
ov	-11.2569
▁feelings	-11.2571
▁stored	-11.2573
▁flower	-11.2576
EM	-11.2579
▁currently	-11.2586
▁compute	-11.2587
▁Age	-11.2589
▁liquid	-11.2589
ili	-11.2589
▁photo	-11.2596
ants	-11.2598
▁arriv	-11.2601
▁Highway	-11.2602
een	-11.2603
▁Ward	-11.2603
▁yourself	-11.2606
▁furtherance	-11.2607
▁AS	-11.2607
▁download	-11.2608
▁Earth	-11.261
▁goals	-11.2617
▁shadow	-11.2621
▁Bengaluru	-11.2622
▁Vinod	-11.2622
▁Goa	-11.2624
▁incidental	-11.2626
▁expressions	-11.2628
▁followers	-11.2628
ious	-11.2631
wise	-11.2631
ku	-11.2633
▁evolution	-11.2636
▁radical	-11.2637
examined	-11.2641
▁contrast	-11.2641
▁Start	-11.2645
▁rooms	-11.2645
yan	-11.2651
▁investigated	-11.2651
▁sensitive	-11.2653
▁Chinese	-11.2653
▁array	-11.2653
▁ocean	-11.2656
▁poetic	-11.2657
▁logical	-11.2657
car	-11.2658
CA	-11.2663
▁Computer	-11.2668
▁beneficiary	-11.2668
pp	-11.2669
▁Crores	-11.2672
TI	-11.2674
▁exceptions	-11.268
owing	-11.2684
▁Dictionary	-11.2684
▁plots	-11.2684
▁transformation	-11.2686
▁veil	-11.2687
▁Indica	-11.2687
▁Unless	-11.2687
▁Comment	-11.2689
▁Line	-11.2693
sur	-11.2694
▁preserve	-11.2698
▁notifications	-11.2699
▁transparent	-11.27
▁Limitation	-11.27
▁solutions	-11.2702
▁symptoms	-11.2702
▁Province	-11.2704
▁IA	-11.2706
▁frequently	-11.2707
▁achievement	-11.2707
parliamentary	-11.2712
▁Mad	-11.2714
▁proprietor	-11.2715
juncture	-11.2716
▁bodily	-11.2716
▁Satya	-11.2716
eth	-11.2717
▁Persons	-11.2723
para	-11.2724
book	-11.2726
▁theme	-11.2727
▁transferee	-11.2729
▁Secretariat	-11.2731
▁infinite	-11.2731
▁lodge	-11.2734
▁Auto	-11.2738
▁reader	-11.2741
▁Good	-11.2742
▁Thu	-11.2743
▁Dy	-11.2747
riya	-11.275
▁verse	-11.2751
my	-11.2752
▁Orders	-11.2755
▁chart	-11.2756
▁successor	-11.2757
▁Jagdish	-11.2763
▁restrict	-11.2768
ans	-11.277
▁Hasan	-11.2772
▁gained	-11.2778
ok	-11.2778
▁inclusion	-11.2779
▁Cross	-11.2779
▁varied	-11.278
▁Ti	-11.278
aims	-11.2783
▁Asian	-11.2787
posed	-11.279
aimed	-11.2791
andamus	-11.2792
▁hesitation	-11.2795
▁continuation	-11.2795
▁channels	-11.2795
▁trap	-11.2796
▁remembered	-11.28
▁Madan	-11.2802
▁firstly	-11.2804
▁Presid	-11.2806
▁silver	-11.2811
▁Kanpur	-11.2814
ess	-11.2815
mma	-11.2816
kin	-11.2822
▁universe	-11.2827
▁concession	-11.2827
ple	-11.2833
▁habit	-11.2834
▁1	-11.2836
▁developments	-11.284
▁visual	-11.2842
▁monitoring	-11.2845
▁German	-11.2851
▁devices	-11.2855
▁Region	-11.2856
▁Gur	-11.2857
▁Chauhan	-11.2859
▁resistance	-11.2859
▁reside	-11.286
▁AGE	-11.2866
▁considers	-11.2867
tin	-11.287
▁po	-11.2871
▁junior	-11.2875
tam	-11.2876
▁rope	-11.2878
▁vary	-11.2879
▁interaction	-11.2879
▁reward	-11.2881
bil	-11.2882
logist	-11.2883
▁Sahu	-11.2886
gh	-11.2889
▁meat	-11.289
▁Var	-11.2891
▁pipes	-11.2894
▁Maharaja	-11.2896
▁NI	-11.2897
res	-11.29
dhi	-11.29
▁Kingdom	-11.2907
▁occurring	-11.2907
▁fighting	-11.2908
mark	-11.2909
▁soldiers	-11.2909
▁monitor	-11.2913
▁Gar	-11.2915
▁govern	-11.2917
ef	-11.2918
▁emerge	-11.2918
▁UP	-11.292
AC	-11.2926
▁adding	-11.2927
▁fraudulent	-11.2929
MP	-11.2934
▁cat	-11.2934
▁propose	-11.2935
▁glass	-11.2936
State	-11.2936
▁images	-11.2936
NG	-11.2947
▁administer	-11.2948
▁passion	-11.295
▁technological	-11.2956
▁pool	-11.2958
▁Table	-11.2961
▁France	-11.2972
versity	-11.2972
wala	-11.2974
▁settings	-11.2976
▁traditions	-11.2977
▁repealed	-11.2978
▁mechanical	-11.2979
▁adversely	-11.298
▁Telangana	-11.2988
PW	-11.299
▁adduce	-11.2999
nut	-11.3002
▁enjoyed	-11.3002
HA	-11.3002
▁Check	-11.3004
▁im	-11.301
▁licensee	-11.301
ther	-11.301
▁composition	-11.3011
▁string	-11.3012
▁logic	-11.3017
▁abnormal	-11.3019
▁Singapore	-11.302
▁afresh	-11.302
▁emerges	-11.3031
▁Kur	-11.3031
raja	-11.3034
▁null	-11.3034
▁voters	-11.3042
▁fold	-11.3042
▁shrine	-11.3043
▁circle	-11.3043
▁handling	-11.3048
▁Gas	-11.3051
▁grievances	-11.3052
▁backdrop	-11.3053
▁native	-11.3054
▁meter	-11.3057
appellants	-11.3058
▁geographical	-11.3059
▁Media	-11.3064
▁feels	-11.3065
▁silence	-11.3069
ep	-11.3076
▁park	-11.3084
▁thick	-11.3084
asa	-11.3085
▁White	-11.3085
▁eternal	-11.3086
▁beaten	-11.3087
▁ram	-11.3088
lic	-11.3101
▁hidden	-11.3102
▁Recruitment	-11.3102
disposing	-11.3104
▁Puri	-11.3108
sustainable	-11.3111
port	-11.3116
▁guarantees	-11.3119
▁lowest	-11.3121
▁busy	-11.3124
ese	-11.3125
▁purported	-11.3128
▁travelling	-11.3129
tain	-11.3129
▁update	-11.3132
▁circuit	-11.3135
▁SHO	-11.3135
▁vacat	-11.3141
▁Center	-11.3143
▁Sikh	-11.3146
EC	-11.3151
▁chair	-11.3151
▁automatic	-11.3151
▁closure	-11.3151
▁metal	-11.3152
▁communications	-11.3153
mati	-11.3155
altered	-11.3158
IV	-11.3163
▁invested	-11.3168
▁Black	-11.3168
▁amalgamation	-11.3168
ea	-11.3178
lay	-11.3179
▁Jam	-11.3181
▁excellent	-11.3184
▁www	-11.3184
▁Britain	-11.3184
▁Search	-11.3184
▁Subject	-11.3184
▁march	-11.3186
▁escaped	-11.3188
▁carbon	-11.3188
▁dust	-11.3193
▁cor	-11.3194
▁transform	-11.3196
▁introduce	-11.3199
hen	-11.32
▁verses	-11.32
▁strategic	-11.3201
rin	-11.3208
▁technique	-11.3209
▁premise	-11.321
▁affix	-11.3217
▁Ghosh	-11.3217
▁Price	-11.3218
▁indulg	-11.3218
▁refus	-11.3226
net	-11.323
cause	-11.3232
▁Govind	-11.3233
▁Next	-11.3234
▁undoubtedly	-11.3235
▁Advisory	-11.3235
▁mu	-11.324
▁Municipality	-11.3241
▁turning	-11.3241
SI	-11.3241
▁sentences	-11.3248
▁Online	-11.325
▁prescription	-11.3251
▁utility	-11.3251
upon	-11.3251
▁cards	-11.3251
tr	-11.3254
▁Brahman	-11.3256
char	-11.3258
▁litigant	-11.326
▁elsewhere	-11.3268
▁Make	-11.3268
▁Narain	-11.3271
gon	-11.3272
RC	-11.3274
mm	-11.3275
▁realize	-11.3276
▁egg	-11.3276
▁calculation	-11.3277
▁adjustment	-11.3277
▁separated	-11.328
▁acquiring	-11.3284
▁innovative	-11.3284
▁somewhat	-11.3284
▁Expert	-11.3284
▁Support	-11.3284
▁Gautam	-11.3284
some	-11.3287
▁APP	-11.3288
▁independently	-11.3288
comp	-11.3295
▁Indo	-11.3296
▁forty	-11.3303
▁crimes	-11.3303
NA	-11.3304
▁inputs	-11.3306
NAME	-11.3309
▁repeat	-11.3311
▁rulers	-11.3313
▁Chrome	-11.3317
▁tongue	-11.3317
▁locus	-11.3318
pro	-11.3319
house	-11.3321
▁headed	-11.3321
▁therefrom	-11.3322
▁Petitions	-11.3325
▁Gita	-11.3325
▁ba	-11.3327
▁disorder	-11.3327
ola	-11.3333
▁fever	-11.3338
▁MR	-11.334
▁Third	-11.3341
▁Gaya	-11.3342
▁DR	-11.3343
▁bore	-11.3345
▁concealed	-11.3345
▁chose	-11.3347
▁Organisation	-11.3352
▁Departments	-11.3356
▁Kat	-11.3358
▁intimate	-11.3359
▁prince	-11.336
▁losses	-11.3365
ect	-11.3371
▁vessels	-11.3378
▁discarded	-11.338
▁imports	-11.3381
ane	-11.3383
rani	-11.3384
▁Address	-11.3384
▁kitchen	-11.3385
ular	-11.3387
▁discover	-11.3388
▁shirt	-11.3391
▁convicting	-11.3391
▁testifi	-11.3394
anta	-11.3399
▁ascertained	-11.3399
▁municipal	-11.34
▁absorbed	-11.34
▁transparency	-11.3402
▁Ranchi	-11.3402
▁prejudicial	-11.3403
▁collaboration	-11.3403
ice	-11.3405
▁characteristic	-11.341
▁listen	-11.341
▁vegetables	-11.3417
illa	-11.3417
▁ceiling	-11.3418
▁overcome	-11.3419
▁misuse	-11.3419
▁canvass	-11.3428
▁cloud	-11.3429
▁saving	-11.343
▁Innovation	-11.3435
▁Joshi	-11.3436
▁taxation	-11.3441
▁Help	-11.3444
▁terror	-11.3445
▁highlighted	-11.3451
mail	-11.3452
▁pregnancy	-11.3452
▁reducing	-11.3453
▁ending	-11.3459
▁genetic	-11.3459
aut	-11.346
bul	-11.3466
▁Kaur	-11.3467
prays	-11.3469
▁Knowledge	-11.3469
▁Hall	-11.3473
▁posting	-11.3473
dan	-11.3473
▁finished	-11.3477
▁administered	-11.3477
▁safely	-11.3479
▁Subhash	-11.3484
▁ego	-11.3484
dhan	-11.3485
▁incomplete	-11.3486
▁Santosh	-11.3487
▁rising	-11.3489
▁tourist	-11.3491
▁Manual	-11.3493
▁Personal	-11.3497
▁complained	-11.3497
▁Ben	-11.3498
alia	-11.3498
▁acknowledged	-11.3509
ong	-11.351
▁Conduct	-11.3515
▁Ve	-11.3516
▁utilized	-11.3517
▁inevitable	-11.3521
▁Indore	-11.3522
scale	-11.3523
▁Jo	-11.3523
▁golden	-11.3523
▁gods	-11.3528
▁Payment	-11.3529
▁rose	-11.3531
▁grain	-11.3533
▁Dubey	-11.3538
▁constantly	-11.3538
▁architecture	-11.3538
▁summer	-11.354
▁repayment	-11.3541
▁supports	-11.3543
tel	-11.3543
▁elephant	-11.355
▁Van	-11.3551
▁taste	-11.3552
▁greatly	-11.3555
▁Sad	-11.3555
▁Hanuman	-11.3555
▁employ	-11.3555
▁affirmative	-11.3555
ue	-11.3557
▁characteristics	-11.3561
▁Chi	-11.3562
▁rear	-11.357
amba	-11.3571
▁pursu	-11.3573
▁BDA	-11.3578
▁remarks	-11.3579
▁vacate	-11.358
oor	-11.3581
▁Reforms	-11.3583
▁app	-11.3586
▁bind	-11.3587
▁blank	-11.3587
▁Wakf	-11.3589
▁audience	-11.3589
▁interfering	-11.3589
▁wake	-11.3594
▁Federation	-11.3607
▁Hussain	-11.3607
▁tendency	-11.3607
▁packets	-11.3617
ified	-11.3618
▁Sahib	-11.362
▁fairness	-11.3621
▁Turkey	-11.3624
▁Global	-11.3626
▁Surat	-11.3628
tmost	-11.3628
▁pronounced	-11.3633
▁bi	-11.3635
IS	-11.3635
▁Key	-11.3637
CH	-11.3641
▁exploitation	-11.3642
kara	-11.3642
▁adjudicated	-11.3651
▁affection	-11.3651
▁deity	-11.3652
▁degrees	-11.3653
hrew	-11.3655
▁realized	-11.3655
▁shaped	-11.3656
▁ASI	-11.3659
▁Dharma	-11.366
▁Saudi	-11.3661
▁Bid	-11.3661
▁immense	-11.3665
▁cum	-11.3671
ees	-11.3672
▁delegated	-11.3672
▁http	-11.3676
▁Vidya	-11.3677
▁regulatory	-11.3678
▁formulation	-11.3678
▁facto	-11.368
▁menu	-11.3682
▁teach	-11.3688
▁Corruption	-11.3688
▁translated	-11.369
▁maxim	-11.3692
▁Academy	-11.3693
▁wheat	-11.3693
Ws	-11.3696
▁fa	-11.37
▁disturbed	-11.3703
▁Question	-11.3707
▁holy	-11.3712
ound	-11.3715
▁Range	-11.3716
▁presume	-11.3716
▁Dal	-11.3719
ily	-11.3722
fin	-11.3723
fa	-11.3723
▁Mahendra	-11.3728
▁tourism	-11.3729
▁whip	-11.3732
back	-11.3735
▁operated	-11.3739
▁eve	-11.3746
▁flight	-11.3747
▁Hinduism	-11.3753
▁NABARD	-11.3763
wad	-11.3766
▁genuineness	-11.3768
▁imagine	-11.377
▁ceased	-11.3776
▁challan	-11.3781
▁diversity	-11.3781
uff	-11.3781
▁turnover	-11.3782
ign	-11.3784
oma	-11.3793
▁deficiency	-11.3798
▁Church	-11.3798
▁interface	-11.3799
▁Bhagat	-11.38
▁expertise	-11.3801
▁attach	-11.3805
pic	-11.3807
▁stations	-11.3811
▁worn	-11.3816
ME	-11.382
▁epic	-11.382
▁impermissi	-11.3823
▁Parishad	-11.3833
▁continuance	-11.3834
▁pride	-11.3834
list	-11.3841
omitted	-11.3844
▁Action	-11.3845
mus	-11.3849
▁BE	-11.3849
▁mould	-11.3851
ggrieved	-11.3851
hil	-11.3855
▁approaching	-11.3856
are	-11.3857
▁Jal	-11.3857
▁surprise	-11.3858
▁consistently	-11.3861
not	-11.3864
▁Shar	-11.3865
▁grievous	-11.3869
▁atomic	-11.3869
▁beings	-11.387
▁guardian	-11.3871
▁Flag	-11.3872
▁prisoner	-11.3873
rate	-11.3873
▁elect	-11.3875
▁purport	-11.3882
▁achievements	-11.3883
▁reverse	-11.3888
▁enterprises	-11.3889
▁strengthening	-11.3891
hum	-11.3891
▁pour	-11.3892
▁Cell	-11.39
▁icon	-11.3901
▁Egypt	-11.3902
▁PRODUCT	-11.3904
▁empire	-11.3904
▁remuneration	-11.3904
▁gravity	-11.3904
▁sketch	-11.3904
▁stuff	-11.3904
▁childhood	-11.3906
cious	-11.3908
▁passes	-11.3912
▁Dh	-11.3916
▁pra	-11.3918
▁derivative	-11.3922
▁territories	-11.3922
▁sorrow	-11.3922
▁Process	-11.3928
▁urgent	-11.3931
▁node	-11.3931
▁Gra	-11.3932
▁lo	-11.3934
▁truck	-11.3938
▁negligent	-11.394
▁excise	-11.394
▁Lanka	-11.394
▁perception	-11.3942
ons	-11.3947
▁detaining	-11.3951
▁Colleges	-11.3952
UN	-11.3956
▁Corporate	-11.3958
ress	-11.3958
▁Staff	-11.3958
▁shortage	-11.396
▁NA	-11.3961
▁designs	-11.3962
▁fake	-11.3962
▁dam	-11.3969
▁Paul	-11.3969
▁talent	-11.3972
▁institutes	-11.3975
▁Perhaps	-11.3976
▁possessing	-11.3976
▁terminate	-11.3976
▁keen	-11.3977
▁sheets	-11.398
▁Tara	-11.3981
▁manufacturer	-11.3981
▁alternate	-11.3981
▁Ramayana	-11.3983
▁lac	-11.3983
bid	-11.3987
▁Marketing	-11.3993
▁nexus	-11.3994
▁Canada	-11.3994
▁picked	-11.3997
▁hills	-11.4003
form	-11.4004
▁Tahsil	-11.4011
▁Pur	-11.4011
▁width	-11.4012
▁Degree	-11.4012
▁irregularities	-11.4012
▁typical	-11.4015
▁expeditiously	-11.4016
▁techniques	-11.402
▁recognise	-11.4021
▁dear	-11.4021
vir	-11.4022
su	-11.4025
▁flood	-11.4029
▁guided	-11.4029
▁boundary	-11.4035
▁differently	-11.404
ture	-11.4042
▁parte	-11.4044
▁bas	-11.4045
ave	-11.4047
▁ignoring	-11.4048
▁indigenous	-11.4048
▁jump	-11.4048
▁studying	-11.4049
▁coloured	-11.4049
▁editor	-11.405
▁thank	-11.4052
▁Min	-11.4053
▁electrical	-11.4054
ump	-11.4056
▁Bag	-11.406
ments	-11.4065
▁dropped	-11.4066
▁scholar	-11.4069
▁negotiations	-11.4074
▁smt	-11.4075
▁utilised	-11.4075
▁Till	-11.4078
▁supplement	-11.4078
can	-11.4079
▁printing	-11.408
▁bags	-11.4081
▁MW	-11.4083
▁oriented	-11.4087
▁bo	-11.4099
▁describe	-11.4099
cro	-11.4101
▁thin	-11.4101
▁financing	-11.4102
▁probate	-11.4102
▁panchayat	-11.4102
LT	-11.4105
▁brown	-11.4106
▁Punjabi	-11.4111
▁stake	-11.4112
▁answering	-11.4119
▁variation	-11.412
▁NAME	-11.412
ami	-11.4123
▁Ju	-11.4123
▁bath	-11.4124
▁controlling	-11.4127
▁restored	-11.4129
▁Far	-11.4137
▁implicate	-11.4138
▁fashion	-11.4138
▁Liquidator	-11.4138
▁victory	-11.4139
eri	-11.4142
▁Nana	-11.4144
▁Agarwal	-11.4146
▁judicata	-11.4148
▁stakeholders	-11.4156
▁Surendra	-11.4157
▁meanwhile	-11.4158
▁theatre	-11.4158
▁subjective	-11.4159
▁boat	-11.416
▁Narendra	-11.416
▁Claims	-11.4165
termed	-11.4169
▁Give	-11.4171
▁BANGALORE	-11.4175
▁counted	-11.4175
▁enormous	-11.4175
▁forcibly	-11.4175
▁Lakshmi	-11.4177
▁constitut	-11.4178
▁enforceable	-11.4178
▁buyer	-11.4183
▁Supply	-11.4184
fact	-11.4184
▁Star	-11.4189
▁departure	-11.4193
▁tenders	-11.4194
▁demise	-11.4198
AA	-11.4205
ves	-11.421
▁Laxmi	-11.421
▁realisation	-11.4214
▁assign	-11.4215
▁camp	-11.4223
HC	-11.4228
▁Assessment	-11.423
▁Mysore	-11.423
▁tremendous	-11.423
▁paddy	-11.423
▁passenger	-11.423
▁roots	-11.4234
TT	-11.424
uda	-11.4243
▁mud	-11.4245
▁Compensation	-11.4248
▁Short	-11.4248
▁replace	-11.4249
aha	-11.4254
compliance	-11.4263
▁dispens	-11.4264
▁Mahal	-11.4265
▁cement	-11.4269
▁experienced	-11.4269
▁Sham	-11.427
▁towns	-11.427
tat	-11.4271
▁lessee	-11.4273
▁Bills	-11.4274
▁defects	-11.4278
gy	-11.4282
▁older	-11.4284
▁Territory	-11.4285
▁ample	-11.4285
▁GR	-11.4288
▁stamps	-11.429
eer	-11.4291
▁establishes	-11.4292
▁slip	-11.4296
hand	-11.43
IF	-11.43
▁Begum	-11.4304
▁goodwill	-11.4304
▁subsidy	-11.4305
▁pull	-11.4308
▁taxable	-11.4309
din	-11.431
▁jurisdictional	-11.4314
▁Access	-11.4316
nes	-11.432
▁pocket	-11.4324
▁Rupee	-11.4327
▁nose	-11.4328
RT	-11.4334
▁Garg	-11.4337
▁meal	-11.4338
▁Ten	-11.4341
▁Tilak	-11.4341
oon	-11.4341
▁suspected	-11.4343
▁suspect	-11.435
▁bones	-11.4351
phy	-11.4356
▁adjacent	-11.4359
▁database	-11.4359
▁DA	-11.4359
▁Surya	-11.436
dia	-11.436
▁pace	-11.4361
▁defeated	-11.4361
▁liquidation	-11.4362
▁allied	-11.4362
▁prisoners	-11.4363
▁Major	-11.4364
ks	-11.4369
▁Bio	-11.4371
▁Real	-11.4375
ghat	-11.4376
▁Miscellaneous	-11.4378
▁Swaraj	-11.4378
▁Deposit	-11.4378
▁surgery	-11.4378
▁Maj	-11.4378
▁Tahsildar	-11.4378
▁Disputes	-11.4383
▁club	-11.4384
▁delete	-11.4386
hani	-11.4389
▁mountains	-11.4394
▁yellow	-11.4396
▁Subordinate	-11.4397
▁estimate	-11.4398
▁pecuniar	-11.44
▁commenc	-11.4401
ool	-11.4402
▁la	-11.441
▁Governance	-11.4415
▁homicid	-11.4417
▁Mani	-11.4419
▁equation	-11.442
▁planet	-11.4422
▁smooth	-11.4423
OL	-11.4426
▁Vikas	-11.443
▁unjust	-11.4434
aging	-11.4435
▁pump	-11.4435
▁blows	-11.4437
rad	-11.4438
cher	-11.4439
consumed	-11.4445
▁Sp	-11.4445
▁ab	-11.4446
▁verdict	-11.4452
▁discriminatory	-11.4453
▁Distribution	-11.4453
▁Tq	-11.4455
▁exit	-11.4459
▁chargesheet	-11.4461
▁stains	-11.4465
▁Bir	-11.4466
▁Has	-11.447
▁clock	-11.4473
far	-11.4475
cin	-11.4475
▁Oct	-11.4476
▁Jag	-11.4478
▁VAT	-11.4487
▁dissolution	-11.449
▁miscarriage	-11.449
▁precious	-11.4491
▁dog	-11.4492
▁machines	-11.4493
▁Save	-11.4494
▁Fa	-11.4497
PSC	-11.4497
▁exhibits	-11.4498
has	-11.4499
▁Sc	-11.45
aiah	-11.4501
nal	-11.4501
▁firmly	-11.4503
▁ties	-11.4508
▁trans	-11.4509
▁Mahesh	-11.4511
▁Deb	-11.4511
▁Tal	-11.4519
ological	-11.4525
▁Import	-11.4527
▁marriages	-11.4527
▁bow	-11.4528
▁charitable	-11.4528
▁wing	-11.4528
▁dress	-11.4531
▁Buddhist	-11.4532
▁DD	-11.4532
▁adjudicate	-11.4536
bur	-11.4546
▁separation	-11.4547
▁Bhopal	-11.4548
▁RPC	-11.4551
▁Resources	-11.4553
▁prosecutor	-11.4556
ppa	-11.4556
▁homicide	-11.4565
▁Marathi	-11.4566
▁boundaries	-11.4567
▁Tribunals	-11.4569
▁canal	-11.4572
▁telling	-11.4573
▁operators	-11.4576
scribed	-11.4581
rot	-11.4582
▁shut	-11.4585
▁renewed	-11.4586
▁spell	-11.4588
VI	-11.4589
ammal	-11.4591
uck	-11.4591
▁withhold	-11.4596
▁detected	-11.4596
▁marginal	-11.4597
▁Mi	-11.4598
▁computers	-11.4601
▁cart	-11.4601
▁stem	-11.4604
▁configuration	-11.4604
▁fly	-11.4606
▁manufacturers	-11.4606
▁compare	-11.4607
▁Parties	-11.461
▁advise	-11.4611
▁measurement	-11.4613
ric	-11.4613
▁prevalent	-11.4623
▁regulating	-11.4623
▁purchasing	-11.4623
▁experiment	-11.4623
▁bold	-11.4627
▁slightly	-11.4629
app	-11.4634
▁squarely	-11.4636
ivity	-11.4637
▁Bala	-11.4641
▁DISTRICT	-11.4642
▁constructive	-11.4643
▁player	-11.4644
▁ticket	-11.4647
ret	-11.4649
load	-11.4653
▁pant	-11.4654
▁Environmental	-11.4655
oy	-11.4656
▁Infrastructure	-11.4661
▁Title	-11.4661
sia	-11.4662
▁Oh	-11.4664
▁Against	-11.4666
▁Ranjan	-11.4667
१९	-11.4677
▁violate	-11.468
▁br	-11.468
▁beneficiaries	-11.468
▁sympathy	-11.468
▁Highways	-11.4681
▁suppression	-11.4684
▁mad	-11.4684
▁pray	-11.4685
▁persuade	-11.4688
pt	-11.4691
▁Kamal	-11.4692
▁Com	-11.4692
OT	-11.4695
PO	-11.4696
▁heavily	-11.47
▁culpable	-11.47
▁admitting	-11.4702
dra	-11.4706
▁DE	-11.4708
▁printer	-11.471
▁Competent	-11.4719
▁commodity	-11.4719
▁copyright	-11.472
▁expand	-11.4721
num	-11.4727
▁hide	-11.4732
▁Fort	-11.4733
▁labourers	-11.4736
▁Sukh	-11.4736
▁peoples	-11.4738
mis	-11.4738
▁laboratory	-11.4738
▁walking	-11.4739
▁Radha	-11.4744
Section	-11.4744
▁Sl	-11.4745
▁da	-11.4745
ber	-11.4747
▁Col	-11.4752
▁closer	-11.4759
▁inability	-11.476
▁pit	-11.476
▁Arabic	-11.4762
ening	-11.4772
▁Value	-11.4777
▁Sagar	-11.478
▁preventive	-11.4783
▁Tan	-11.4784
▁Sak	-11.4792
pad	-11.4793
▁Mat	-11.4794
PC	-11.4794
▁rod	-11.4796
▁Muhammad	-11.4796
▁panchnama	-11.4796
▁Sai	-11.4797
▁lacs	-11.4799
ography	-11.4805
tation	-11.4813
▁lifted	-11.4815
▁Current	-11.4816
▁matrix	-11.4816
▁maternal	-11.4816
▁fraction	-11.4816
fully	-11.4818
▁mineral	-11.482
▁dividend	-11.4824
ema	-11.4824
board	-11.4824
being	-11.4827
lock	-11.4827
vesting	-11.4828
▁wheel	-11.4828
graph	-11.483
▁Hu	-11.4831
▁Panchayats	-11.4834
▁royal	-11.4835
▁complicated	-11.4835
▁oxygen	-11.4835
▁unusual	-11.4835
▁expanded	-11.4836
pra	-11.4838
▁Lab	-11.4841
▁Regulator	-11.4842
IA	-11.4843
NT	-11.485
▁graduate	-11.485
vin	-11.4851
▁powder	-11.4855
▁Software	-11.4855
▁describes	-11.4858
▁quarters	-11.4859
pect	-11.4864
ayya	-11.4872
▁genus	-11.4874
▁eating	-11.4876
▁Years	-11.4884
▁Lu	-11.4884
MS	-11.4887
▁rapidly	-11.4889
▁hectares	-11.4891
▁Memo	-11.4891
▁attest	-11.4892
▁tamper	-11.4894
▁fardbeyan	-11.4894
▁PMLA	-11.4894
disproportionate	-11.4895
▁actively	-11.4895
▁delegate	-11.4905
▁Dutt	-11.4905
anga	-11.4908
▁demonstrated	-11.4908
rum	-11.4912
bin	-11.4912
▁OS	-11.4913
▁crystal	-11.4913
▁algorithm	-11.4914
▁library	-11.4914
▁magistrate	-11.4914
win	-11.4914
▁van	-11.4919
▁predecessor	-11.4921
▁News	-11.4921
▁Bharati	-11.4923
wat	-11.4925
▁approve	-11.4925
▁Mahabharata	-11.4926
▁turns	-11.4927
▁helping	-11.4929
▁shell	-11.4931
▁convincing	-11.4933
▁frivolous	-11.4933
▁pregnant	-11.4933
▁Arms	-11.4934
▁perfection	-11.4937
▁noble	-11.4937
ition	-11.4939
▁flowing	-11.4943
jar	-11.4946
eh	-11.4953
▁Satish	-11.4956
▁raid	-11.4956
▁restrained	-11.4957
▁savings	-11.496
▁pound	-11.4961
shad	-11.4965
rup	-11.4965
▁Hindustan	-11.4965
room	-11.4966
▁films	-11.497
▁slowly	-11.4972
▁Community	-11.4973
▁guess	-11.4973
▁successive	-11.4977
▁advances	-11.4977
▁ministers	-11.4983
▁pest	-11.4986
aji	-11.4986
▁Mas	-11.4988
▁App	-11.4989
▁programs	-11.499
▁broke	-11.4992
▁reporting	-11.4992
▁accounting	-11.4992
▁clarify	-11.4993
▁Telugu	-11.4993
▁fiction	-11.4993
lays	-11.4994
▁bias	-11.4994
uli	-11.4994
▁carved	-11.4996
elecommunication	-11.5002
▁Hal	-11.5002
▁exhaustive	-11.5002
▁limb	-11.5003
til	-11.5006
▁castes	-11.5008
▁Mangal	-11.501
▁Obama	-11.5012
▁practically	-11.5014
apur	-11.5015
▁debtor	-11.5019
ahi	-11.5019
▁Referr	-11.5019
▁Jaya	-11.502
▁Old	-11.5022
▁Grant	-11.5022
▁railways	-11.5022
▁IIT	-11.5028
▁Except	-11.503
iz	-11.503
▁exposed	-11.5031
▁decrease	-11.5032
▁acute	-11.5033
resident	-11.5034
▁revolutionary	-11.5034
▁emphasized	-11.5038
▁advert	-11.5038
▁sisters	-11.5039
▁ideals	-11.5039
▁rests	-11.5041
▁Taluka	-11.5044
GI	-11.5046
▁earnest	-11.5053
▁Instruments	-11.5054
itu	-11.5055
▁Take	-11.5057
GA	-11.5059
▁operator	-11.5061
▁heading	-11.5073
ATION	-11.5078
▁therewith	-11.5079
▁Ver	-11.5079
most	-11.508
▁nerve	-11.5081
▁congratulate	-11.5083
▁Manipur	-11.5084
▁eleven	-11.5086
▁vimana	-11.5092
▁decimal	-11.5092
▁Provident	-11.5092
▁stability	-11.5093
ved	-11.5095
ral	-11.5098
▁hundreds	-11.5101
RS	-11.5102
▁thereupon	-11.5103
▁safeguards	-11.5105
▁aided	-11.5108
▁compelling	-11.5111
▁Empire	-11.5112
▁bonafide	-11.5112
▁carriage	-11.5112
▁embrace	-11.5112
▁Political	-11.5112
▁Normal	-11.5113
▁harmful	-11.5113
▁winter	-11.5114
▁pan	-11.5116
▁praise	-11.5116
lid	-11.5117
▁regulated	-11.5117
▁PA	-11.5117
▁mill	-11.5118
▁Russian	-11.512
▁Create	-11.512
▁faces	-11.5123
▁advancement	-11.5125
oph	-11.5128
▁BENGALURU	-11.5132
▁invocation	-11.5132
▁invitation	-11.5132
▁helpful	-11.5134
▁fetch	-11.5135
▁exceeds	-11.5136
▁modify	-11.5138
▁Bur	-11.514
▁experiences	-11.5142
▁conclud	-11.515
▁references	-11.5151
▁concrete	-11.5152
▁Supp	-11.5155
▁coverage	-11.5155
▁novels	-11.5158
▁regulariz	-11.5158
▁unfortunate	-11.5162
▁disbelieve	-11.5163
atta	-11.5163
▁Standards	-11.5165
▁abused	-11.5171
shan	-11.5171
▁NSEL	-11.5173
▁threshold	-11.5173
▁bulk	-11.5173
▁IS	-11.5176
▁Contractor	-11.5176
lit	-11.5179
▁Rate	-11.5183
▁Principles	-11.5184
▁cruel	-11.5192
▁behavior	-11.5193
▁sugarcane	-11.5193
▁conservation	-11.5193
annot	-11.5198
ency	-11.52
▁communicate	-11.5202
▁pp	-11.5204
▁button	-11.5204
ima	-11.5208
ox	-11.5209
▁Cal	-11.521
▁invest	-11.521
▁Repeal	-11.5213
▁inadequate	-11.5213
▁intense	-11.5213
ulation	-11.5215
yo	-11.5216
▁arrange	-11.5221
table	-11.5222
▁affiliated	-11.5222
ched	-11.5229
UL	-11.523
▁voting	-11.5233
▁thread	-11.5233
▁historic	-11.5234
▁layout	-11.5235
▁Love	-11.5236
▁everywhere	-11.5237
▁harvest	-11.5239
▁trustworth	-11.5241
▁stranger	-11.5246
him	-11.5252
▁MOU	-11.5252
▁reopen	-11.5256
head	-11.5257
▁Srivastava	-11.5258
▁debts	-11.5259
▁addresses	-11.5259
▁grace	-11.526
▁produces	-11.5261
▁fabricated	-11.5262
▁neighbours	-11.5266
▁homes	-11.5269
▁credited	-11.527
▁Govern	-11.527
▁Pass	-11.5272
▁Declaration	-11.5274
▁anxious	-11.5274
▁Valley	-11.5274
djudicating	-11.5279
▁lift	-11.5281
▁rash	-11.5281
▁attaining	-11.5283
▁wings	-11.5293
▁deputation	-11.5296
▁Nigam	-11.5296
▁glad	-11.5296
▁Projects	-11.53
▁Following	-11.5302
▁prosecute	-11.5307
▁corrected	-11.531
dem	-11.5313
▁Aged	-11.5314
▁yesterday	-11.5315
▁closing	-11.5316
▁regularisation	-11.5318
cis	-11.5321
▁inspiration	-11.5322
▁Nil	-11.5323
▁tri	-11.5325
▁Lake	-11.5327
▁generations	-11.5328
bor	-11.5329
▁models	-11.5335
LI	-11.5335
▁Petroleum	-11.5335
▁agenda	-11.5335
▁Mukesh	-11.5336
▁islands	-11.5336
▁taint	-11.534
▁camera	-11.5344
▁precise	-11.5345
▁concurrent	-11.5346
▁farming	-11.5347
▁Sim	-11.5348
▁Care	-11.5352
qua	-11.5355
▁Speech	-11.5356
▁William	-11.5356
▁worry	-11.5356
▁supplies	-11.5356
▁healthcare	-11.5356
▁defective	-11.5358
▁Paras	-11.537
▁Raman	-11.5376
▁surprising	-11.5376
▁conveyance	-11.5378
etic	-11.5378
▁reassessment	-11.5378
▁mines	-11.5379
▁permanently	-11.538
▁miles	-11.5384
ock	-11.5385
▁doors	-11.5386
▁Net	-11.5388
for	-11.5389
▁Stamp	-11.5394
▁Certain	-11.5397
▁Minimum	-11.5397
▁dialogue	-11.5397
▁Cause	-11.5401
▁darkness	-11.5402
▁abandoned	-11.5403
▁feeding	-11.5405
▁risks	-11.5407
▁vitiate	-11.5409
▁initiat	-11.5411
ira	-11.5413
▁illicit	-11.5418
▁climb	-11.5418
▁Ed	-11.5418
▁retire	-11.542
▁snow	-11.5423
▁remark	-11.5423
▁Bis	-11.5429
▁unlike	-11.543
hir	-11.5431
ute	-11.5432
▁fort	-11.5435
▁Gwalior	-11.5438
vil	-11.5439
▁Truth	-11.544
ire	-11.5443
▁organisms	-11.5446
▁Along	-11.545
▁Bush	-11.545
ulate	-11.5451
HI	-11.5458
▁secular	-11.5459
▁arbitrarily	-11.5459
▁Academic	-11.5459
▁Desai	-11.546
▁devoted	-11.5463
▁suo	-11.5463
▁Total	-11.5465
SHA	-11.5466
▁breaking	-11.5468
▁mailing	-11.5471
▁Ham	-11.5471
▁parcel	-11.5472
try	-11.5472
▁BO	-11.5474
▁organism	-11.5477
ica	-11.5477
▁damaged	-11.5478
▁likelihood	-11.548
▁Type	-11.548
▁brick	-11.5481
▁honest	-11.5483
▁Have	-11.5485
▁parity	-11.5485
▁nest	-11.5488
▁poly	-11.5491
▁restore	-11.5492
▁conven	-11.5498
▁sphere	-11.5498
▁Rath	-11.5501
▁tariff	-11.5501
▁Country	-11.5501
▁adjournment	-11.5503
▁Fe	-11.5504
▁Young	-11.5505
▁Specific	-11.5508
▁instructed	-11.551
ank	-11.5511
▁organic	-11.5517
▁spare	-11.5519
▁Majesty	-11.5522
▁enhancing	-11.5522
▁OCC	-11.5522
▁Succession	-11.5522
▁hereafter	-11.5522
▁Establishment	-11.5522
▁truthful	-11.5525
▁Light	-11.5525
zz	-11.5526
▁publish	-11.5528
ella	-11.5529
ML	-11.5532
▁indirect	-11.5532
▁mutually	-11.5533
▁prevention	-11.5533
ain	-11.5535
▁minerals	-11.5536
▁proves	-11.5538
▁credible	-11.5543
▁panchanama	-11.5543
▁Soviet	-11.5543
▁versus	-11.5543
▁Kailash	-11.5543
▁query	-11.5543
▁Him	-11.5545
hav	-11.5547
▁talks	-11.5547
▁dealers	-11.5549
▁hospitals	-11.5551
▁Item	-11.5553
▁Je	-11.5555
▁delight	-11.5556
▁Resource	-11.5557
▁Kas	-11.5557
▁Relief	-11.5564
▁restoration	-11.5564
▁misconceive	-11.5564
▁Deep	-11.5566
▁Multi	-11.5567
▁Arjun	-11.5568
▁arch	-11.5576
▁manual	-11.5577
▁musical	-11.5579
▁intervene	-11.558
wati	-11.5582
▁Adalat	-11.5583
▁cavity	-11.5585
▁Purchase	-11.5585
▁silk	-11.5586
▁Nanak	-11.5589
nia	-11.5594
nga	-11.5595
▁Centres	-11.5596
▁smoke	-11.5597
▁advertisements	-11.56
tem	-11.5603
▁Loan	-11.5604
▁rub	-11.5607
▁Regarding	-11.5611
cr	-11.5615
▁entrepreneurs	-11.562
▁Coming	-11.5624
▁omissions	-11.5624
pore	-11.5626
▁compassion	-11.5626
▁probable	-11.5627
▁Sucharita	-11.5627
▁composite	-11.5627
KA	-11.563
▁basically	-11.563
▁Near	-11.5632
▁grams	-11.5634
▁lists	-11.5638
▁ritual	-11.5642
▁implie	-11.5647
▁lis	-11.5647
▁NDPS	-11.5648
aga	-11.5653
TER	-11.566
▁LPA	-11.5662
▁acre	-11.5665
ON	-11.5668
unconstitutional	-11.5668
▁Unfortunate	-11.5669
▁striking	-11.5669
▁Track	-11.567
▁Iranian	-11.5671
▁lending	-11.5672
▁flows	-11.5675
▁compel	-11.5678
▁occupants	-11.5684
▁Model	-11.5691
▁Chit	-11.5693
▁Raghunath	-11.5694
▁vendors	-11.5694
▁generate	-11.5695
▁multiply	-11.5698
▁farmer	-11.57
▁ruler	-11.57
▁upset	-11.5703
AK	-11.5706
▁Tribe	-11.5707
▁Res	-11.5707
▁Federal	-11.5711
▁immunity	-11.5711
▁satellite	-11.5711
▁Yusuf	-11.5712
▁excuse	-11.5712
▁distant	-11.5712
▁calm	-11.5714
▁Gold	-11.5718
▁punish	-11.5718
▁contradictory	-11.572
was	-11.5721
tus	-11.5723
▁stipulates	-11.5725
▁classical	-11.5725
▁DAY	-11.5726
▁reviewed	-11.5728
▁Four	-11.5732
▁Aurangabad	-11.5733
▁Contempt	-11.5733
▁radiation	-11.5733
iva	-11.5735
▁Choudhury	-11.5737
▁wave	-11.5737
▁Amicus	-11.5738
▁oppose	-11.5744
ND	-11.5745
▁Gujarati	-11.5747
▁testimoni	-11.5749
instatement	-11.575
▁traders	-11.5753
▁confronted	-11.5754
▁tab	-11.5754
▁Jewish	-11.5754
▁bigger	-11.5756
cor	-11.5756
▁tasks	-11.5762
▁Whatever	-11.5764
▁ice	-11.5764
▁convenient	-11.5765
yam	-11.5766
▁rough	-11.5767
▁conventional	-11.5767
kam	-11.577
pho	-11.5773
▁irregular	-11.5774
▁AICTE	-11.5776
▁Street	-11.5776
▁dispatch	-11.5776
▁incapable	-11.5776
▁Prohibition	-11.5776
▁integration	-11.5776
▁neighbourhood	-11.5776
▁Dhar	-11.5776
holder	-11.5777
▁rid	-11.5779
rit	-11.5781
ome	-11.5789
▁Accountant	-11.5794
▁profound	-11.5797
▁Cri	-11.5804
▁Gir	-11.5806
▁frequent	-11.5808
▁disc	-11.5809
ration	-11.5814
CB	-11.5818
▁variable	-11.5819
▁disaster	-11.5819
EA	-11.582
▁positions	-11.5821
▁promised	-11.5826
▁establishments	-11.5833
▁ICT	-11.5835
▁Trans	-11.5836
▁split	-11.584
LD	-11.584
▁Leprosy	-11.584
▁varieties	-11.584
▁Personnel	-11.584
▁consortium	-11.584
▁Quality	-11.584
▁estoppel	-11.584
▁Mines	-11.5841
▁Colony	-11.5842
▁formalities	-11.5842
bhu	-11.5843
bri	-11.5845
▁tells	-11.5846
hot	-11.585
▁DRT	-11.5852
▁spring	-11.5858
▁undertakings	-11.586
▁connecting	-11.5861
▁Negotiable	-11.5862
▁collateral	-11.5862
▁premature	-11.5862
▁everybody	-11.5863
▁mood	-11.5863
▁neglect	-11.5865
▁Click	-11.5865
▁locked	-11.5867
▁Long	-11.5867
rea	-11.5868
▁colleagues	-11.587
▁Jagat	-11.5872
▁recalled	-11.5878
▁medicines	-11.5879
MAN	-11.5879
▁Ministries	-11.5883
▁dramatic	-11.5884
▁harass	-11.5886
mic	-11.5888
▁Dan	-11.5892
tta	-11.5896
▁Call	-11.5904
▁Journal	-11.5905
▁batsman	-11.5905
▁receiver	-11.591
▁pi	-11.5911
▁Rana	-11.5914
matter	-11.5916
iah	-11.5918
▁preventing	-11.5922
▁OP	-11.5923
▁Paswan	-11.5927
▁Rajeev	-11.5927
▁Recommendation	-11.5927
DC	-11.5928
don	-11.5931
▁Sw	-11.5931
wani	-11.5932
▁entertaining	-11.5933
▁allocated	-11.5935
▁derive	-11.5938
▁Mitra	-11.5941
wari	-11.5942
▁periods	-11.5947
▁vexatious	-11.5949
▁sticks	-11.5952
RERA	-11.5953
CR	-11.5957
▁Madhu	-11.5959
▁approaches	-11.5959
▁cure	-11.5961
▁Chh	-11.5969
▁biggest	-11.597
▁maybe	-11.5973
puri	-11.5973
▁CH	-11.5974
kari	-11.5976
▁firms	-11.5982
cap	-11.5987
ros	-11.5989
▁MSME	-11.5989
▁evict	-11.5991
▁Mohammad	-11.5992
▁thrust	-11.5992
▁guntas	-11.5993
▁readers	-11.5993
dur	-11.5996
nan	-11.5998
ail	-11.6001
▁examinations	-11.6004
▁shifting	-11.6007
▁Cost	-11.6008
▁pillars	-11.601
▁freely	-11.6012
▁dominant	-11.6014
▁protocol	-11.6014
▁Netaji	-11.6014
▁pursuit	-11.6015
ending	-11.6018
▁anger	-11.6021
▁alien	-11.603
pr	-11.6031
▁repairs	-11.6034
▁reckon	-11.6036
▁Complex	-11.6036
▁disqualified	-11.6036
▁unnatural	-11.6036
▁outlook	-11.6039
▁Bh	-11.6041
▁Defendants	-11.6045
▁Adi	-11.6049
▁Clauses	-11.6056
▁Put	-11.6058
▁circulation	-11.6058
▁easier	-11.6058
▁miscellaneous	-11.6058
▁Club	-11.6058
▁vitamin	-11.6059
▁bunch	-11.606
▁massive	-11.6061
▁hire	-11.6063
▁conform	-11.607
▁preserved	-11.6072
eng	-11.6072
▁Tar	-11.6075
▁Sep	-11.6077
▁Uma	-11.6078
▁Graduate	-11.608
▁psychological	-11.608
▁Modern	-11.608
▁transmitted	-11.6081
▁attractive	-11.6084
▁reversed	-11.6089
▁African	-11.609
▁worse	-11.6092
▁Md	-11.6093
▁breast	-11.61
▁encroachment	-11.6101
▁Privy	-11.6102
▁Washington	-11.6102
▁carrier	-11.6102
▁incentives	-11.6103
▁brave	-11.6104
▁desires	-11.6105
▁addressing	-11.6106
▁Fast	-11.611
▁deviation	-11.6111
▁favourable	-11.6113
SL	-11.6117
▁specimen	-11.6122
▁repay	-11.6123
▁jungle	-11.6125
▁Prosecution	-11.6125
▁Path	-11.6125
▁eliminate	-11.6127
▁Debts	-11.6128
▁fun	-11.6128
▁mentally	-11.6129
ces	-11.6135
▁Tea	-11.6136
▁waters	-11.6137
ARA	-11.6137
▁Pr	-11.6138
ero	-11.6144
term	-11.6144
tech	-11.6144
▁Gen	-11.6144
▁nominee	-11.6145
▁Course	-11.6145
▁font	-11.6145
▁encouraging	-11.6147
▁unsuccessful	-11.6147
▁apt	-11.6147
▁weakness	-11.6149
▁stars	-11.615
▁twin	-11.615
aran	-11.6155
▁blocks	-11.6157
ms	-11.616
rn	-11.6161
tas	-11.6164
▁visits	-11.6164
▁hanging	-11.6165
▁comfort	-11.6167
▁Northern	-11.6169
▁mosque	-11.6169
▁campus	-11.6171
▁Samaj	-11.6175
▁nearest	-11.6177
▁smell	-11.6177
▁thoroughly	-11.6178
▁fate	-11.618
▁sessions	-11.618
▁cumulative	-11.6181
▁meaningful	-11.6184
▁begun	-11.6189
▁coast	-11.6191
▁Chaudhary	-11.6191
▁Bye	-11.6192
▁adjust	-11.6196
run	-11.6198
▁Video	-11.6201
▁confers	-11.6203
oti	-11.6205
▁insult	-11.6208
▁blunt	-11.6214
▁introducing	-11.6214
▁cousin	-11.6214
▁Japanese	-11.6214
nama	-11.6215
fect	-11.6216
▁parliament	-11.6219
ert	-11.6221
▁Acharya	-11.6221
▁increases	-11.6226
▁sometime	-11.6228
ode	-11.6229
oda	-11.6229
but	-11.623
▁malafide	-11.6235
▁tail	-11.6236
▁Guidelines	-11.6236
▁Allowance	-11.6236
▁producers	-11.6238
▁Radio	-11.6238
▁topic	-11.6253
▁trustees	-11.6253
▁theft	-11.6256
▁Clerk	-11.6258
ht	-11.6259
▁dishonour	-11.6259
▁culprit	-11.6259
anti	-11.6259
▁cooking	-11.626
puram	-11.6263
▁stable	-11.6263
▁Chartered	-11.6264
rk	-11.6264
▁plane	-11.6265
ARD	-11.6266
witnesses	-11.6268
▁Din	-11.6269
▁Ek	-11.6271
▁corroborate	-11.6272
▁Pin	-11.6275
▁Bhatt	-11.6277
▁Asst	-11.6278
▁skull	-11.6281
▁Tripathi	-11.6281
▁Nagaland	-11.6281
▁Garden	-11.6282
pha	-11.6283
▁willingness	-11.6287
▁gathering	-11.6288
▁Super	-11.6292
ancy	-11.6304
▁substitution	-11.6304
▁GA	-11.6306
▁Thank	-11.6307
▁detenu	-11.6307
▁implications	-11.6308
▁Br	-11.6309
lia	-11.632
VA	-11.632
▁incentive	-11.6326
▁CHAPTER	-11.6326
▁horizontal	-11.6327
▁Naresh	-11.6327
▁patta	-11.633
ich	-11.6333
uj	-11.6334
▁Corporations	-11.6335
ear	-11.6335
lum	-11.6342
▁deprive	-11.6346
ient	-11.6346
▁reserves	-11.6348
▁fourteen	-11.6349
▁participants	-11.6354
akh	-11.6355
▁Nation	-11.6356
▁united	-11.6358
▁grants	-11.6359
▁bat	-11.636
▁AD	-11.6363
▁substances	-11.6369
▁Sindhi	-11.6369
RD	-11.637
▁episode	-11.6372
▁veracity	-11.6372
▁Freedom	-11.6372
▁Dilip	-11.6372
▁Laxman	-11.6372
▁Scale	-11.6372
▁adher	-11.6373
▁Rajiv	-11.6375
▁Sab	-11.6384
▁increasingly	-11.6384
kala	-11.639
▁generating	-11.6395
▁Admission	-11.6395
▁Pradhan	-11.6395
▁consignment	-11.6395
▁concentration	-11.6395
▁accessible	-11.6396
▁charter	-11.6396
▁brush	-11.6396
▁transferr	-11.6397
economic	-11.6399
▁lamp	-11.6399
▁discard	-11.6401
▁Budh	-11.6402
BA	-11.6403
iti	-11.6406
▁dishonest	-11.6407
▁san	-11.6408
▁equat	-11.6411
worm	-11.6413
▁tribes	-11.6416
▁footing	-11.6417
▁entail	-11.6418
▁mischief	-11.6418
inder	-11.6421
▁improvements	-11.6424
▁Bus	-11.6424
▁IP	-11.6425
▁relatively	-11.6425
forming	-11.6429
▁dec	-11.6429
rana	-11.643
▁CS	-11.6431
▁Royal	-11.6434
▁modes	-11.6439
▁balanced	-11.6439
ttributable	-11.6439
▁Choudhary	-11.644
▁constituency	-11.644
▁refrain	-11.644
▁obligatory	-11.6441
▁cheating	-11.6443
▁Fair	-11.6445
undi	-11.6447
▁VIII	-11.6449
▁disregard	-11.6449
dam	-11.6457
▁treaty	-11.6458
▁dedication	-11.6463
▁fought	-11.6464
▁chamber	-11.6464
▁enquire	-11.6466
▁defaulter	-11.6467
▁publications	-11.647
▁bacteria	-11.6476
▁pictures	-11.6478
▁Tu	-11.6482
▁pretty	-11.6486
▁intact	-11.6486
▁tract	-11.6486
▁Stock	-11.6487
hin	-11.6491
▁coin	-11.6492
▁suspend	-11.6493
▁enactments	-11.6494
bit	-11.6496
▁loaded	-11.6497
▁blame	-11.6499
▁Maharaj	-11.6504
▁IO	-11.6507
▁unconditional	-11.6509
▁travell	-11.6512
eli	-11.6515
▁retail	-11.6517
▁describ	-11.6519
nce	-11.6522
▁envisages	-11.6523
▁briefly	-11.6524
▁gui	-11.6524
haw	-11.6528
▁PRO	-11.6529
▁reiterate	-11.6529
old	-11.6531
▁pleas	-11.6532
▁prudent	-11.6532
▁predict	-11.6533
▁Agrawal	-11.6534
▁revival	-11.6535
▁Gha	-11.6538
ls	-11.6541
print	-11.6542
▁bull	-11.6545
▁artistic	-11.6548
▁promotions	-11.6551
▁windows	-11.6551
▁realm	-11.6553
▁urgency	-11.6556
▁literacy	-11.6556
▁Lahore	-11.6556
▁Status	-11.6556
▁row	-11.6557
lop	-11.6562
▁receives	-11.6564
▁exchanges	-11.6571
▁inspect	-11.6571
▁plate	-11.6575
anj	-11.6575
tum	-11.6576
▁Banking	-11.6576
▁impartial	-11.6578
▁Pawan	-11.6579
▁jewellery	-11.6579
▁unilateral	-11.6579
▁Animal	-11.6579
▁humble	-11.6579
▁discount	-11.6579
▁charas	-11.658
▁pal	-11.658
▁fare	-11.6585
▁highway	-11.6586
▁sheep	-11.6586
▁entitle	-11.6586
▁bin	-11.6587
SR	-11.659
▁promoter	-11.6591
▁assent	-11.6592
eb	-11.6593
eanwhile	-11.6597
▁Bu	-11.6602
▁Pollution	-11.6602
▁curtail	-11.6602
▁David	-11.6602
hon	-11.6602
▁certification	-11.6602
▁attested	-11.6602
▁scholarship	-11.6603
▁locations	-11.6606
lur	-11.6607
▁significantly	-11.6608
▁players	-11.6609
▁shout	-11.6615
▁collectively	-11.6619
▁tooth	-11.6621
▁Territories	-11.6625
▁mankind	-11.6625
▁Topics	-11.6625
▁borrowed	-11.6625
▁Honourable	-11.6626
▁pursued	-11.6626
▁Extension	-11.6626
cons	-11.6626
▁Islands	-11.6627
▁odd	-11.6627
▁ITS	-11.6628
▁practitioner	-11.6628
▁Fi	-11.6629
odi	-11.6635
▁flee	-11.6638
▁Photo	-11.6641
▁Padma	-11.6642
cip	-11.6642
logy	-11.6643
vol	-11.6644
▁bread	-11.6644
▁measured	-11.6645
una	-11.6648
▁solitary	-11.6649
▁browser	-11.665
▁axis	-11.6651
▁infant	-11.6651
▁keeps	-11.6651
cast	-11.6651
▁realization	-11.6653
pl	-11.6654
▁Saran	-11.6654
▁invoices	-11.6655
metric	-11.6658
▁Himalayas	-11.666
▁skilled	-11.6661
▁engine	-11.6669
ages	-11.667
▁saint	-11.6675
▁producer	-11.6677
math	-11.6677
▁Us	-11.6678
▁loved	-11.6683
dip	-11.6683
pol	-11.6691
mber	-11.6691
▁shed	-11.6693
▁Mang	-11.6694
▁Adhiniyam	-11.6696
▁disabilities	-11.6696
▁quantities	-11.6696
▁filter	-11.6696
▁contradict	-11.6696
▁Greek	-11.6696
▁contacts	-11.6696
▁Seventh	-11.6699
▁harsh	-11.67
▁tourists	-11.6704
hold	-11.6706
▁AB	-11.6707
▁counting	-11.6708
▁processed	-11.6709
▁categorical	-11.6709
▁Mohammed	-11.6713
Inspector	-11.6717
▁bamboo	-11.6719
▁expedient	-11.6719
▁intelligent	-11.6719
▁afternoon	-11.6719
▁defense	-11.6719
▁Various	-11.6719
▁slope	-11.672
cc	-11.6721
▁Kama	-11.6722
▁Alam	-11.6723
HR	-11.6724
iary	-11.6726
▁expressing	-11.6728
▁SO	-11.6729
▁litigants	-11.673
ific	-11.673
hun	-11.6731
▁aspirations	-11.6731
▁focused	-11.6733
▁abstract	-11.6736
down	-11.6742
▁Soon	-11.6742
▁Bhutan	-11.6743
▁penis	-11.6745
uz	-11.6745
▁conception	-11.6746
jee	-11.6746
▁edition	-11.6747
▁obstruction	-11.6747
▁smart	-11.6747
atic	-11.6749
how	-11.6752
mitted	-11.6753
▁RA	-11.6754
▁coat	-11.6756
pathy	-11.6766
▁concepts	-11.677
▁ensured	-11.6772
▁Moh	-11.6773
▁narration	-11.6775
ough	-11.6778
▁cleared	-11.6787
UD	-11.6788
▁DO	-11.6788
▁uncertain	-11.6789
▁Draft	-11.679
satisfactorily	-11.679
▁Display	-11.679
▁Panchnama	-11.679
▁Sugar	-11.6791
▁Sanjeev	-11.6791
▁Santro	-11.6791
Judge	-11.6792
▁heir	-11.6794
▁Motion	-11.6794
▁HLE	-11.6794
oi	-11.6794
▁Vedas	-11.6803
▁conceiv	-11.6804
▁tissues	-11.6805
▁ki	-11.6806
▁tall	-11.6806
▁Sciences	-11.6808
▁hut	-11.6809
▁kidney	-11.6814
ye	-11.6815
▁manpower	-11.6815
▁accusation	-11.6818
art	-11.6824
▁faster	-11.6835
▁membrane	-11.6838
▁movable	-11.6838
▁unequivocal	-11.6838
▁programming	-11.6838
▁gang	-11.6839
▁Kabir	-11.6839
▁publicity	-11.6841
▁SP	-11.6842
▁Brahmin	-11.6844
▁Cho	-11.6847
▁Taj	-11.6847
▁Forces	-11.6849
▁Soma	-11.6856
bari	-11.6858
▁operates	-11.6859
oa	-11.686
ksha	-11.686
▁drain	-11.6861
itude	-11.6861
▁Bilaspur	-11.6861
▁Shimla	-11.6861
▁phenomenon	-11.6861
▁Chairperson	-11.6861
▁biological	-11.6862
cular	-11.6871
▁adults	-11.6873
▁occupy	-11.6874
por	-11.6877
▁solemn	-11.6879
▁Gr	-11.6881
▁Bagh	-11.6884
▁Physical	-11.6885
▁compliment	-11.6885
▁daniel	-11.6885
▁Ravindra	-11.6885
▁Hi	-11.6885
▁interrogation	-11.6886
▁island	-11.6887
▁bullet	-11.6888
▁mini	-11.6892
▁buying	-11.6897
del	-11.6903
▁tower	-11.6903
▁magic	-11.6906
▁Ayurveda	-11.6909
▁Zilla	-11.691
▁detection	-11.6911
▁True	-11.6913
▁Ri	-11.6915
▁shareholder	-11.6916
▁Team	-11.6916
▁speeches	-11.6925
fee	-11.6926
VE	-11.6928
HAN	-11.6928
▁MS	-11.6931
▁Complaint	-11.6933
▁repetition	-11.6933
▁genius	-11.6933
▁Mir	-11.6933
▁Edition	-11.6935
▁sentenc	-11.6938
LL	-11.6942
▁patterns	-11.6942
▁consolidated	-11.6945
making	-11.6946
ope	-11.6946
▁Azad	-11.6948
▁equipments	-11.6948
▁repost	-11.695
▁sees	-11.6955
▁unauthorised	-11.6957
▁mixture	-11.6958
▁winning	-11.6958
▁Father	-11.6959
▁Lokayukta	-11.696
▁Present	-11.6962
▁Bel	-11.6962
wara	-11.6966
▁CON	-11.6966
▁Taluk	-11.6967
▁discrepancy	-11.6969
▁associates	-11.6974
▁timely	-11.6974
▁kms	-11.6974
▁partially	-11.6975
▁artist	-11.6975
▁touching	-11.6982
▁Complainant	-11.6982
▁Varanasi	-11.6982
▁nervous	-11.6982
deep	-11.6983
▁NH	-11.6988
▁Nagpur	-11.699
called	-11.699
aria	-11.699
▁liver	-11.6992
OI	-11.6992
▁Within	-11.6996
▁bottles	-11.6996
▁indulge	-11.7005
▁Kishan	-11.7006
▁conciliation	-11.7006
▁enshrined	-11.7006
▁federal	-11.7006
▁gratification	-11.7006
▁vulnerable	-11.7006
▁Badruddin	-11.7006
▁Space	-11.7006
▁royalty	-11.7007
▁valley	-11.7012
▁RTI	-11.7012
▁unfortunately	-11.7018
tala	-11.702
timated	-11.7022
▁donation	-11.7023
▁notify	-11.7024
djourned	-11.7024
ifi	-11.7028
▁privileges	-11.7028
▁ancestral	-11.703
▁SLP	-11.7031
▁Conditions	-11.7032
▁distinctive	-11.7033
▁trip	-11.7036
▁Venkata	-11.7036
fo	-11.7039
▁Manish	-11.7042
▁Hard	-11.7043
▁cup	-11.7044
mohan	-11.7054
▁peasant	-11.7054
▁Mak	-11.7054
▁abdomen	-11.7054
▁overseas	-11.7054
▁illustration	-11.7055
parte	-11.7057
tia	-11.7059
▁prints	-11.706
mir	-11.7062
EST	-11.7063
iga	-11.7065
▁Nanda	-11.7066
aq	-11.7068
▁Kalyan	-11.7068
▁complain	-11.7072
lessness	-11.7074
▁Jul	-11.7077
sign	-11.7078
▁dwelling	-11.7078
▁Madurai	-11.7079
▁Deepak	-11.708
▁Bho	-11.708
▁lake	-11.7082
In	-11.7086
▁Nayak	-11.7087
kash	-11.7088
▁trustee	-11.7088
awa	-11.7088
▁mono	-11.7089
▁somewhere	-11.7091
▁touched	-11.7092
▁insufficient	-11.7093
rc	-11.7093
▁merger	-11.7093
▁Drugs	-11.71
▁reflection	-11.7101
▁Mala	-11.7101
▁Cuttack	-11.7103
▁analyze	-11.7103
▁Indus	-11.7104
▁Hand	-11.7112
▁Deo	-11.7113
▁Taxes	-11.7113
▁gland	-11.7114
▁reinstate	-11.7116
▁container	-11.7119
▁verbal	-11.712
sufficiently	-11.7124
BI	-11.7124
▁Cons	-11.7126
▁Soni	-11.7127
▁Studies	-11.7128
▁unambiguous	-11.7128
▁pretext	-11.7128
▁bought	-11.7129
▁Rajput	-11.7129
▁authorization	-11.713
▁readily	-11.7131
▁pond	-11.7131
cation	-11.7136
▁nationalist	-11.7137
▁considerably	-11.7137
djusted	-11.7141
rom	-11.7145
dri	-11.7149
▁muscles	-11.7152
▁Integrated	-11.7152
▁withheld	-11.7152
▁Default	-11.7152
▁forgery	-11.7152
▁Puran	-11.7155
▁dissolved	-11.7156
gram	-11.7157
▁professor	-11.7158
▁grains	-11.716
▁scar	-11.7162
nis	-11.7162
tis	-11.7164
▁cha	-11.7165
▁wounds	-11.7165
▁viable	-11.7165
▁condon	-11.7174
▁culminat	-11.7175
▁treasure	-11.7177
▁cord	-11.7177
▁continuity	-11.7177
▁Shakti	-11.7177
▁Ganges	-11.7179
acy	-11.718
▁Jay	-11.7181
AB	-11.7183
ez	-11.7184
aram	-11.7185
▁detect	-11.7185
▁matches	-11.7186
▁Mand	-11.7188
▁precisely	-11.7189
▁tenable	-11.7195
▁afforded	-11.7196
▁intellect	-11.7198
▁warn	-11.72
▁cri	-11.72
before	-11.7202
▁Curiae	-11.7202
▁corpus	-11.7202
▁encounter	-11.7202
saheb	-11.7202
▁requests	-11.7202
▁reception	-11.7203
▁Fire	-11.7206
▁broadly	-11.7209
▁Benefit	-11.721
▁opt	-11.7214
▁keys	-11.7214
▁Dass	-11.7216
▁Kun	-11.7216
▁manifestation	-11.7217
door	-11.722
▁Arts	-11.722
▁crossing	-11.7221
▁breeding	-11.7222
▁Boards	-11.7224
▁associate	-11.7224
▁texts	-11.7227
▁perfectly	-11.7227
▁Ratna	-11.7229
▁conceded	-11.723
▁elementary	-11.7232
▁mistakes	-11.7234
▁threats	-11.7238
▁streams	-11.7239
▁rider	-11.7243
▁coordinate	-11.7244
▁Ear	-11.7245
▁clients	-11.725
MENT	-11.7251
▁Rahul	-11.7251
▁Ansari	-11.7252
▁UT	-11.7252
▁Appointment	-11.7252
upervisory	-11.7259
▁float	-11.7259
ENT	-11.7259
▁remitt	-11.726
ase	-11.7262
▁sounds	-11.7265
▁tenderer	-11.7274
▁tons	-11.7276
▁Banerjee	-11.7276
▁Bhagalpur	-11.7276
▁dictionary	-11.7276
▁Sports	-11.7276
▁hardware	-11.7277
▁Departmental	-11.7278
▁intra	-11.7282
▁des	-11.7282
▁protein	-11.7285
▁Kant	-11.7285
▁affair	-11.7285
▁Said	-11.729
▁watching	-11.7291
▁strengthened	-11.7292
▁Ratan	-11.7296
ESI	-11.7298
▁Sikkim	-11.7301
▁Ultimate	-11.7301
▁amenities	-11.7301
▁Movement	-11.7303
▁plantation	-11.7307
▁constrained	-11.7308
▁sponsored	-11.7309
▁ME	-11.731
▁wash	-11.7312
▁Metro	-11.7317
▁Mill	-11.7318
▁Deva	-11.7322
▁Kh	-11.7323
TION	-11.7326
▁Obvious	-11.7326
▁Armed	-11.7326
▁purity	-11.7328
▁beach	-11.7332
▁Rat	-11.7333
hana	-11.7335
▁peak	-11.7337
▁declarations	-11.7338
▁Dutta	-11.7338
gro	-11.7339
▁sine	-11.734
▁lit	-11.734
right	-11.7341
ky	-11.7343
▁em	-11.7343
inal	-11.7347
▁intestine	-11.7351
▁mediation	-11.7353
▁isolated	-11.7353
▁packet	-11.7361
▁XII	-11.7362
▁Kot	-11.7364
dr	-11.7364
▁nodes	-11.7369
▁Prince	-11.7375
▁clerk	-11.7376
▁Versus	-11.7376
▁tolerance	-11.7376
▁rail	-11.738
▁oust	-11.7383
▁snake	-11.7386
▁licences	-11.7386
▁Dam	-11.739
oot	-11.7392
ets	-11.7392
▁Nav	-11.7394
▁weighing	-11.7397
▁Constituent	-11.7401
▁Judiciary	-11.7401
▁dragged	-11.7401
▁Nizam	-11.7401
osh	-11.7402
UP	-11.7402
▁Ved	-11.7402
▁disbursement	-11.7402
uring	-11.7403
▁deeper	-11.7406
auli	-11.7406
▁EVE	-11.7407
▁distress	-11.7412
▁Amit	-11.7413
▁IX	-11.7414
▁flu	-11.7415
cut	-11.7418
pada	-11.7421
tent	-11.7424
▁governmental	-11.7424
▁whisper	-11.7427
▁ward	-11.7427
▁disposition	-11.7427
▁trite	-11.7429
▁checking	-11.7432
▁enters	-11.7432
▁LA	-11.7432
avan	-11.7432
▁devise	-11.7434
▁reasoned	-11.7436
▁movie	-11.7437
▁fed	-11.7439
▁Auditor	-11.7446
kat	-11.7451
▁nice	-11.7451
▁Applicant	-11.7452
▁Details	-11.7452
▁hypothesis	-11.7452
▁acquitt	-11.7456
▁Provisions	-11.7459
LC	-11.7461
DE	-11.7464
▁alteration	-11.7465
▁Andaman	-11.7467
▁Chak	-11.7468
▁fitness	-11.747
▁Mandi	-11.7473
▁inherited	-11.7475
babu	-11.7475
▁equipped	-11.7477
▁Medicine	-11.7477
▁Safety	-11.7478
sinh	-11.7479
▁hero	-11.748
▁chemicals	-11.7481
▁Claimant	-11.7481
▁Paris	-11.7481
▁Em	-11.7486
▁prescrib	-11.7491
▁Patil	-11.7495
▁encroach	-11.7498
▁sue	-11.7499
unda	-11.75
bank	-11.7501
▁Should	-11.7503
▁adjoining	-11.7503
▁paramount	-11.7504
▁Shashi	-11.7504
▁Tha	-11.7509
▁sixth	-11.7509
▁developmental	-11.7511
▁checked	-11.7511
▁Express	-11.7511
had	-11.7513
hit	-11.7514
JA	-11.7518
▁exhibition	-11.7521
▁threatening	-11.7522
▁funding	-11.7524
▁mango	-11.7526
▁Syed	-11.7526
tries	-11.7528
▁bidding	-11.7529
▁moderate	-11.7529
▁Panel	-11.753
▁Phase	-11.7531
▁dreams	-11.7531
▁camel	-11.7532
▁bundle	-11.7534
ude	-11.7535
examine	-11.7536
nish	-11.7539
▁Sant	-11.7544
fr	-11.7551
▁Guard	-11.7552
mind	-11.7553
▁Scientific	-11.7554
▁implicit	-11.7554
▁Kannada	-11.7554
rian	-11.7556
▁Menon	-11.7557
▁Mis	-11.7559
▁CC	-11.7561
ural	-11.7564
▁Mac	-11.7565
▁associations	-11.7566
▁inception	-11.7567
▁enlarged	-11.7568
sara	-11.7568
▁provider	-11.757
aba	-11.7573
admissible	-11.7573
▁Honble	-11.7579
▁Clear	-11.7579
angi	-11.7579
▁abolition	-11.758
▁irreparable	-11.758
▁militant	-11.758
▁utilization	-11.758
▁terrorists	-11.7581
vat	-11.7582
▁redressal	-11.7584
▁obstruct	-11.7586
▁ascertaining	-11.7587
▁pitch	-11.7587
DL	-11.7589
NAGAR	-11.759
▁debit	-11.7592
▁cows	-11.7598
ANA	-11.7599
▁assembl	-11.76
HU	-11.7601
▁poll	-11.7602
hr	-11.7604
▁Bihari	-11.7605
▁antecedent	-11.7605
▁coconut	-11.7605
▁diligence	-11.7605
▁mirror	-11.7605
dding	-11.7606
▁Windows	-11.7607
veer	-11.7607
▁reign	-11.761
▁endorsed	-11.7611
▁Kir	-11.7611
jeet	-11.7614
▁Hemant	-11.7619
▁inspected	-11.7623
witness	-11.7624
▁lache	-11.7624
▁Peeth	-11.7624
urg	-11.7626
▁exercises	-11.7631
▁Emperor	-11.7631
▁Mamlatdar	-11.7631
▁temporarily	-11.7631
▁Enforcement	-11.7631
▁rigid	-11.7631
▁Queen	-11.7631
▁Kr	-11.7631
▁productive	-11.7633
cept	-11.7634
abh	-11.7644
gr	-11.7648
therwise	-11.7653
▁Gang	-11.7654
▁Charan	-11.7654
▁counselling	-11.7654
▁troops	-11.7657
▁deprivation	-11.7658
▁Tiru	-11.7658
▁singing	-11.7662
▁shoes	-11.7662
▁autonomous	-11.7665
▁Link	-11.7666
▁stamped	-11.7666
▁precedents	-11.7669
▁intentionally	-11.7669
▁Brij	-11.7672
▁manipulat	-11.7678
krishna	-11.7679
▁Za	-11.7679
▁vagina	-11.768
▁continent	-11.7681
▁CRL	-11.7681
▁modifications	-11.7682
company	-11.7682
▁Bhubaneswar	-11.7683
▁consensus	-11.7683
▁magnitude	-11.7683
▁nephew	-11.7683
▁desktop	-11.7683
▁admissibility	-11.7683
▁forensic	-11.7683
▁foster	-11.7683
▁glory	-11.7683
▁fond	-11.7684
▁warranted	-11.7689
▁Roll	-11.7692
▁Gh	-11.7692
▁evaluate	-11.7696
▁Vide	-11.7701
▁DG	-11.7705
▁vicarious	-11.7709
▁disobedience	-11.7709
▁keyboard	-11.771
▁retention	-11.7711
▁accidental	-11.7711
▁Claim	-11.7718
LJ	-11.7721
igh	-11.7723
▁Ge	-11.7727
▁Band	-11.7727
▁burns	-11.7731
▁Library	-11.7735
▁Jews	-11.7735
▁Volume	-11.7735
▁tiger	-11.7735
variably	-11.7735
▁Serial	-11.7735
▁Did	-11.774
▁Reader	-11.7741
▁streets	-11.7742
▁LC	-11.7743
▁AR	-11.7743
▁Document	-11.7747
▁Vill	-11.775
REV	-11.7755
▁MESSAGE	-11.7761
▁authoritative	-11.7761
▁strenuous	-11.7761
▁Ashish	-11.7761
▁strain	-11.7762
▁hearts	-11.7765
▁Solar	-11.7767
▁founder	-11.7768
valued	-11.7768
▁stabb	-11.7771
lip	-11.7777
▁festivals	-11.7783
▁ranking	-11.7783
▁promptly	-11.7784
▁adhere	-11.7786
▁forthcoming	-11.7787
▁Ocean	-11.7787
▁Lala	-11.7789
▁insight	-11.779
▁somehow	-11.7794
prasad	-11.7795
yl	-11.7796
▁signals	-11.7798
ware	-11.7799
▁Kon	-11.7801
▁accountability	-11.7801
agi	-11.7801
▁segment	-11.7801
▁tribunals	-11.7801
▁Pun	-11.7806
▁conferr	-11.7806
▁Text	-11.7813
▁promulgat	-11.7813
▁COURT	-11.7813
▁Protocol	-11.7813
▁incidence	-11.7813
▁pioneer	-11.7813
▁possibilities	-11.7813
▁kings	-11.7814
▁DIST	-11.7814
▁leaflet	-11.7816
dle	-11.7816
▁Electrical	-11.7818
lation	-11.7828
▁fo	-11.7829
misappropriation	-11.7834
WA	-11.7838
▁aunt	-11.7839
▁Panda	-11.784
▁illiterate	-11.784
▁forehead	-11.784
▁Surender	-11.784
than	-11.7842
▁tin	-11.7842
losing	-11.7843
▁accompanying	-11.7843
▁Veda	-11.7843
▁Jyoti	-11.7844
▁Exception	-11.7847
▁rituals	-11.7847
▁tractor	-11.7849
▁RC	-11.785
▁Mills	-11.7857
pend	-11.7858
▁Darbhanga	-11.7862
▁forfeit	-11.7866
▁Solicitor	-11.7866
▁mercy	-11.7866
▁Chamber	-11.7866
▁Person	-11.7866
duct	-11.7869
▁storm	-11.787
▁linguistic	-11.7871
bon	-11.7871
▁gather	-11.7872
bh	-11.7873
▁WA	-11.7876
▁Fr	-11.7877
AYS	-11.7877
▁Nir	-11.7881
▁payee	-11.7882
pla	-11.7886
▁strip	-11.7886
▁extensively	-11.7887
▁Sundar	-11.7889
▁flying	-11.7889
▁Blood	-11.7892
▁boost	-11.7893
▁procurement	-11.7894
▁india	-11.7894
▁Ap	-11.7895
▁OBC	-11.7895
▁Poly	-11.7896
iyar	-11.7902
hya	-11.7903
▁Electronics	-11.7903
▁abscond	-11.7906
▁Gun	-11.7907
▁conditional	-11.7907
▁expense	-11.7908
shankar	-11.7909
▁Ser	-11.791
▁networks	-11.7917
▁Prior	-11.7918
▁SARFA	-11.7919
▁enemies	-11.7919
▁suffice	-11.7919
▁nurse	-11.7919
▁nevertheless	-11.792
▁unfit	-11.792
▁Duty	-11.792
▁sail	-11.7922
▁versions	-11.7922
rr	-11.7924
▁Tel	-11.7925
▁CM	-11.7925
▁Needles	-11.7926
▁pesticides	-11.7927
▁heaven	-11.7935
▁mar	-11.7942
▁succumb	-11.7946
▁abetment	-11.7946
▁Arunachal	-11.7946
▁exposure	-11.7946
five	-11.7946
▁justifiable	-11.7948
▁Ranga	-11.7952
▁Gul	-11.7952
▁Basu	-11.7953
ache	-11.7954
▁exploit	-11.7954
▁pink	-11.7955
▁wonderful	-11.7957
made	-11.7958
▁devotees	-11.796
▁realistic	-11.7969
fall	-11.7969
put	-11.7972
▁Jyotishpeeth	-11.7972
▁Statistical	-11.7972
▁certiorari	-11.7972
▁impediment	-11.7972
▁Budget	-11.7972
▁weightage	-11.7976
▁Print	-11.7976
▁prospects	-11.7977
EG	-11.7978
▁Roman	-11.798
▁Send	-11.7983
▁Sher	-11.7983
▁Chha	-11.7987
och	-11.7987
▁crossed	-11.7988
▁thorough	-11.7989
▁judged	-11.7992
▁satisfying	-11.7998
▁Mur	-11.7999
ather	-11.8
eswar	-11.8001
▁dominate	-11.8002
▁z	-11.8003
▁CE	-11.8004
▁Dharam	-11.8004
hiya	-11.8004
eration	-11.801
▁ga	-11.8013
chari	-11.8015
rah	-11.8016
settled	-11.8016
sala	-11.8017
▁Advance	-11.8017
lp	-11.8018
▁sham	-11.8019
raped	-11.8019
▁overt	-11.8022
▁capabilities	-11.8026
▁demolition	-11.8026
▁extraneous	-11.8026
▁opposing	-11.8026
▁pupil	-11.8026
▁Tehsildar	-11.8026
▁capability	-11.8026
▁Get	-11.8029
▁Naval	-11.8029
▁advertised	-11.803
▁adequately	-11.803
▁Best	-11.8031
▁Mohalla	-11.8032
pin	-11.8033
▁questioning	-11.8035
▁interact	-11.8038
▁Move	-11.8039
▁ports	-11.8039
lly	-11.8041
▁apple	-11.8047
▁characteriz	-11.8048
▁redress	-11.8048
▁Sang	-11.8049
water	-11.805
▁ration	-11.8052
▁Regular	-11.8052
KAR	-11.8052
▁Waqf	-11.8053
▁denomination	-11.8053
▁drought	-11.8053
▁IPv	-11.8053
▁explore	-11.8054
▁Khar	-11.8056
▁Himalayan	-11.8056
▁scrutiniz	-11.8057
cm	-11.8059
▁assistant	-11.8063
▁Karan	-11.8065
atha	-11.8066
duced	-11.8068
▁administrator	-11.807
ida	-11.807
▁Rehabilitation	-11.808
▁coffee	-11.808
▁deficit	-11.808
▁Trading	-11.808
▁NATIONAL	-11.808
▁corners	-11.8083
▁Bhim	-11.8084
▁Ishwar	-11.8085
▁literally	-11.8089
▁Plot	-11.8092
▁Harish	-11.8094
▁Very	-11.8094
▁vertical	-11.8096
▁experiments	-11.81
▁lean	-11.81
▁pale	-11.8101
▁Ananda	-11.8102
▁deficiencies	-11.8107
▁Diploma	-11.8107
▁Radhakrishnan	-11.8107
lak	-11.8107
▁medically	-11.8107
▁invention	-11.811
▁Lower	-11.811
bro	-11.8113
▁kumari	-11.8115
ually	-11.8115
own	-11.8118
deva	-11.8121
ux	-11.8122
▁disadvantage	-11.8123
▁Brahm	-11.8124
▁Er	-11.8124
▁scrap	-11.8125
▁overlooked	-11.813
▁propriety	-11.8134
▁dinner	-11.8134
▁maturity	-11.8134
▁exchanged	-11.8136
▁Kul	-11.8136
ality	-11.8136
▁waiver	-11.8136
▁demonstration	-11.8138
▁Mun	-11.8138
▁authors	-11.8139
▁Christians	-11.814
▁Farm	-11.8141
▁shade	-11.8145
▁appointee	-11.8145
lot	-11.8145
▁economically	-11.8146
▁vii	-11.8147
▁Khu	-11.8147
ota	-11.8149
▁resolutions	-11.8154
▁BA	-11.8155
ogen	-11.8156
▁predominant	-11.8161
▁surgical	-11.8161
▁Audio	-11.8161
▁RFP	-11.8161
▁Siwan	-11.8161
▁strive	-11.8162
pass	-11.8171
▁persuad	-11.8178
▁Raghu	-11.8184
▁GO	-11.8184
TO	-11.8185
▁Museum	-11.8188
▁hatred	-11.8188
AND	-11.8189
fulness	-11.8189
▁Tulsi	-11.819
▁Production	-11.819
▁VS	-11.8192
▁trick	-11.8192
▁arts	-11.8194
▁spreading	-11.8195
▁subtle	-11.8195
ique	-11.8199
▁actor	-11.8201
▁End	-11.8201
▁Turn	-11.8206
▁publishing	-11.8207
▁favor	-11.8211
▁connections	-11.8214
▁License	-11.8216
▁Permanent	-11.8216
▁destiny	-11.8216
▁statistics	-11.8216
▁dictum	-11.8216
▁variations	-11.8216
▁Rabindranath	-11.8216
▁imperialism	-11.8216
▁NCT	-11.822
▁midst	-11.8221
▁EX	-11.8224
rt	-11.8227
▁Americans	-11.823
▁helpless	-11.8231
▁cluster	-11.8234
▁accidents	-11.8239
▁constructions	-11.8242
▁fiscal	-11.8243
▁intensity	-11.8243
▁monsoon	-11.8243
▁discredit	-11.8243
▁nominal	-11.8243
▁inordinate	-11.8243
▁Manik	-11.8246
nat	-11.8247
ink	-11.8247
▁Back	-11.825
▁EC	-11.8253
▁Bhan	-11.8253
▁ko	-11.8255
vati	-11.8256
▁shareholding	-11.827
▁grandfather	-11.827
▁Tenancy	-11.8271
▁crude	-11.8271
▁Quran	-11.8271
▁OM	-11.8272
▁agro	-11.8274
▁KPC	-11.8276
▁factories	-11.8276
▁ku	-11.8277
hai	-11.8279
▁Play	-11.8282
yu	-11.8284
SION	-11.8285
gad	-11.8285
lli	-11.8288
▁notion	-11.829
▁liquidat	-11.8291
▁Ber	-11.8293
unch	-11.8297
▁structural	-11.8298
US	-11.8299
▁lord	-11.8299
▁motu	-11.8299
fu	-11.8299
▁attribute	-11.8299
BU	-11.83
nation	-11.83
▁ninety	-11.83
▁Earlie	-11.8301
▁Jaipur	-11.8304
▁attraction	-11.8306
adha	-11.8307
▁denie	-11.8307
▁allege	-11.8311
DR	-11.8316
▁toward	-11.8319
▁expanding	-11.832
▁Arabia	-11.8324
▁Applications	-11.8324
▁colonial	-11.8325
▁Cricket	-11.8326
▁Thomas	-11.8326
▁slaughter	-11.8326
▁throat	-11.8326
▁ongoing	-11.8326
wood	-11.8328
anand	-11.8331
yal	-11.8334
▁Vas	-11.8337
▁fan	-11.834
osa	-11.8341
▁enroll	-11.8342
▁NE	-11.8342
▁pledge	-11.8345
▁Witness	-11.835
▁Vehicles	-11.8351
▁irrational	-11.8352
▁idol	-11.8352
▁airports	-11.8352
mate	-11.8352
▁Aurobindo	-11.8353
▁wilful	-11.8353
▁Malayalam	-11.8353
▁enforcing	-11.8353
▁agitation	-11.8354
▁hydro	-11.8355
vara	-11.8356
comm	-11.8358
▁MLC	-11.8358
▁ease	-11.8362
▁Val	-11.8363
▁chances	-11.8363
lap	-11.8364
▁ears	-11.8364
▁RO	-11.8366
▁finish	-11.8369
bed	-11.8369
▁tort	-11.8372
ghar	-11.8373
▁shoot	-11.8374
rab	-11.8375
▁Reports	-11.8376
▁equals	-11.8377
▁Sikhs	-11.8378
▁AN	-11.838
▁expensive	-11.8381
▁Partnership	-11.8381
▁appris	-11.8381
▁Nam	-11.8382
▁gender	-11.8383
Os	-11.8384
▁tribute	-11.8384
▁raj	-11.8392
▁Cas	-11.8393
press	-11.8394
box	-11.8395
MB	-11.8401
▁undergoing	-11.8407
▁Fundamental	-11.8409
▁Yojana	-11.8409
▁inflation	-11.8409
▁Koran	-11.841
▁recital	-11.8411
▁weaken	-11.8411
▁dimensions	-11.8412
▁evidences	-11.8417
▁Place	-11.8418
▁mills	-11.8423
▁attendant	-11.8426
ches	-11.8431
▁agriculturist	-11.8437
▁frequency	-11.8437
▁guiding	-11.8437
log	-11.8437
▁Objection	-11.844
▁Ans	-11.8444
▁undis	-11.8447
verse	-11.8449
▁headquarters	-11.8454
pit	-11.8459
▁Keep	-11.846
▁Mall	-11.8461
ean	-11.8461
▁Kum	-11.8462
evertheless	-11.8464
▁improbable	-11.8465
▁SHRI	-11.8465
▁Dwarkanath	-11.8465
▁Shiksha	-11.8465
▁Tripura	-11.8465
▁marking	-11.8466
▁misplac	-11.8466
▁bride	-11.8467
▁MFA	-11.8469
long	-11.8473
▁responses	-11.8474
▁passive	-11.8476
▁sums	-11.8476
FA	-11.8477
path	-11.8478
▁Div	-11.8478
▁forwarding	-11.848
▁stores	-11.8481
▁habits	-11.8484
▁abide	-11.8485
▁tickets	-11.8486
leased	-11.8487
▁innovations	-11.8489
▁couldn	-11.8491
▁Processing	-11.8492
▁virus	-11.8492
▁Material	-11.8493
▁Manohar	-11.8493
▁pig	-11.8494
▁deliberations	-11.85
▁formally	-11.8502
▁afore	-11.8508
IM	-11.851
▁belated	-11.8511
▁Hira	-11.8514
▁slogan	-11.8521
▁swelling	-11.8521
▁altercation	-11.8521
▁ladies	-11.8522
▁Goyal	-11.8522
▁Yamuna	-11.8522
▁cartridges	-11.8523
ipp	-11.8524
took	-11.8524
▁adapt	-11.8533
tified	-11.8535
▁bestow	-11.8536
lla	-11.854
▁certainty	-11.854
▁Bara	-11.8542
▁lesson	-11.8544
gha	-11.8545
▁chronic	-11.8545
pala	-11.8545
▁tight	-11.8548
▁Festival	-11.8549
▁Viceroy	-11.8549
▁dynasty	-11.8549
▁sixteen	-11.8549
▁concurrence	-11.8549
▁incorporation	-11.8549
▁Left	-11.855
▁preservation	-11.855
▁Submission	-11.855
FI	-11.8552
▁dual	-11.8556
▁cultivated	-11.8556
▁Amount	-11.856
une	-11.856
▁Commissioners	-11.8561
LS	-11.8563
▁knee	-11.8572
like	-11.8572
▁untenable	-11.8578
▁wicket	-11.8578
▁philosophical	-11.8578
▁Mono	-11.8579
ADA	-11.858
▁Ash	-11.858
bound	-11.858
▁writes	-11.8581
▁blend	-11.8581
script	-11.8582
▁Design	-11.8582
▁tears	-11.8583
▁hostel	-11.8588
▁Av	-11.8593
gged	-11.8593
▁Exts	-11.8594
emia	-11.8594
nk	-11.8596
▁torch	-11.8596
▁volumes	-11.8598
ulu	-11.8603
▁goddess	-11.8603
rata	-11.8604
▁Abdullah	-11.8606
▁confiscation	-11.8606
▁Say	-11.8608
▁outward	-11.8609
▁imply	-11.8609
▁Sus	-11.8611
▁Much	-11.8613
▁pipe	-11.8614
▁hrs	-11.8615
▁Arabs	-11.8615
▁Sind	-11.862
kali	-11.8623
SU	-11.8623
mod	-11.8625
▁assure	-11.8627
▁prospect	-11.8627
▁dies	-11.8631
▁divisions	-11.8632
▁Ud	-11.8634
▁Floor	-11.8635
▁Irrigation	-11.8635
▁JUSTICE	-11.8635
▁sworn	-11.8635
▁worst	-11.8635
▁honoured	-11.8637
nand	-11.864
▁Edit	-11.8641
▁infer	-11.8651
▁celebrate	-11.8656
lon	-11.8659
▁transmit	-11.8663
▁charging	-11.8663
▁inconvenience	-11.8663
▁sharma	-11.8663
▁compulsion	-11.8663
▁dacoit	-11.8663
▁Naidu	-11.8663
▁cordial	-11.8664
................	-11.8664
FF	-11.8666
▁Bhat	-11.8667
▁Munda	-11.8676
▁Abu	-11.8678
▁Del	-11.8678
▁rarely	-11.8679
▁mix	-11.8683
▁abolished	-11.8684
▁Machine	-11.8691
▁infructuous	-11.8692
▁tantamount	-11.8692
▁depreciation	-11.8692
▁rotation	-11.8692
BC	-11.8693
▁torn	-11.8694
gla	-11.8697
▁Sadar	-11.8697
hila	-11.8699
▁lapsed	-11.87
▁tiny	-11.8701
▁moves	-11.8701
▁confessed	-11.8707
cence	-11.8712
▁relieved	-11.8713
▁gram	-11.8715
▁beliefs	-11.8715
▁Chemical	-11.8716
▁compete	-11.872
▁Golden	-11.8722
▁transition	-11.8723
▁narrative	-11.8724
karan	-11.8726
palli	-11.8727
uja	-11.8728
link	-11.873
▁Sao	-11.8736
▁Inc	-11.8739
▁propound	-11.874
▁gall	-11.874
▁maker	-11.8741
▁cultures	-11.8743
▁sal	-11.8744
▁specialist	-11.8745
vad	-11.8748
▁Provincial	-11.8749
▁enthusiasm	-11.8749
▁museum	-11.8749
▁Pacific	-11.8749
▁foremost	-11.8749
▁angry	-11.875
▁Munshi	-11.875
▁businesses	-11.875
▁Suraj	-11.8753
▁Hind	-11.8755
▁comparable	-11.8759
▁makers	-11.8761
▁neuro	-11.8761
▁finaliz	-11.8766
▁rites	-11.8766
▁incorporate	-11.8767
▁earnings	-11.8768
▁similarity	-11.8775
etween	-11.8776
▁Litigation	-11.8778
▁clarity	-11.8778
▁consuming	-11.8778
▁ineligible	-11.8778
▁survival	-11.8778
▁behest	-11.8778
▁preferably	-11.8779
▁dawn	-11.8779
▁drawer	-11.878
▁secretary	-11.8782
tch	-11.8782
▁NOC	-11.8785
▁maha	-11.8785
▁licens	-11.8786
pos	-11.8789
▁clouds	-11.8789
▁advantages	-11.879
▁infring	-11.8793
sam	-11.8797
UM	-11.8798
▁comparative	-11.8798
nna	-11.8799
▁lifting	-11.8799
eem	-11.8801
uch	-11.8803
▁autopsy	-11.8807
▁Invalid	-11.8807
▁exonerat	-11.8807
▁semen	-11.8808
▁Shastri	-11.8808
▁liberation	-11.8808
▁Miss	-11.881
▁Debt	-11.8811
▁varies	-11.8811
▁FA	-11.8811
pul	-11.8823
ALL	-11.8825
▁spur	-11.8826
▁Exhibits	-11.8828
met	-11.8829
stone	-11.8829
▁Ann	-11.883
▁Equal	-11.8835
▁embark	-11.8836
▁petroleum	-11.8836
▁revolt	-11.8836
▁Ankit	-11.8837
yog	-11.884
▁instrumental	-11.8841
▁Bor	-11.8841
▁emanat	-11.8842
▁toilet	-11.8842
▁Param	-11.8854
▁kha	-11.8858
▁socialist	-11.8862
▁Hill	-11.8863
RU	-11.8864
▁romantic	-11.8865
▁candidature	-11.8865
▁Answer	-11.8866
▁Performance	-11.8866
▁unreliabl	-11.8866
▁NCTE	-11.8866
payment	-11.8867
▁morality	-11.8873
▁Wing	-11.8879
▁Benches	-11.8881
FS	-11.8882
IST	-11.8895
▁Bhag	-11.8895
▁Southern	-11.8895
▁Khasra	-11.8895
▁ascetic	-11.8895
▁wives	-11.8895
▁Pradeep	-11.8895
▁Bhushan	-11.8895
▁respects	-11.8895
▁Workmen	-11.8896
▁Sho	-11.8896
▁sovereignty	-11.8896
ugh	-11.8899
▁everyday	-11.89
▁merged	-11.8901
rus	-11.8904
▁Kho	-11.8905
▁FIRs	-11.8905
▁tear	-11.8906
▁lifetime	-11.8907
▁searching	-11.891
▁Ak	-11.8916
▁evolve	-11.8917
▁upgrade	-11.8917
▁magnetic	-11.8919
▁Suman	-11.892
vy	-11.8922
▁encumbrance	-11.8924
▁Intelligence	-11.8924
▁Nat	-11.8925
khar	-11.8931
operation	-11.8932
▁plains	-11.8937
py	-11.8938
▁Veer	-11.8938
▁disappear	-11.8943
▁concessions	-11.8944
veda	-11.8948
▁fibre	-11.8953
▁cult	-11.8954
▁caveat	-11.8954
▁proclaim	-11.8954
▁ballot	-11.8954
▁ranging	-11.8957
catena	-11.8958
gna	-11.8958
▁therefor	-11.8959
oldest	-11.8961
▁Amin	-11.8962
uous	-11.8962
ously	-11.8963
LY	-11.8964
▁Birth	-11.8964
▁guru	-11.8964
defendant	-11.8964
▁Des	-11.8971
▁intensive	-11.8971
▁inaction	-11.8973
ulla	-11.8975
▁Mer	-11.8976
▁Log	-11.8978
▁Governors	-11.898
▁opinions	-11.8983
▁Chatterjee	-11.8983
▁Commonwealth	-11.8983
▁LPG	-11.8983
▁canteen	-11.8983
▁Securities	-11.8983
▁connectivity	-11.8983
gupta	-11.8983
▁appropriately	-11.8985
▁empowerment	-11.8987
▁enjoying	-11.8988
iff	-11.8992
▁kidnapp	-11.8993
▁flaw	-11.8995
affidavit	-11.8996
respondent	-11.8999
▁phones	-11.9
corn	-11.9
▁CAV	-11.9007
aksha	-11.9009
▁lots	-11.9011
▁subtract	-11.9012
dom	-11.9012
▁Island	-11.9012
▁Nicobar	-11.9013
▁Vivek	-11.9013
▁apposite	-11.9013
▁hearsay	-11.9013
▁Digital	-11.9013
▁random	-11.9013
▁Sandeep	-11.9013
▁Professional	-11.9014
▁capture	-11.9016
YA	-11.9019
firm	-11.9021
▁Lakh	-11.9022
▁packages	-11.9023
spread	-11.9025
▁limbs	-11.903
mun	-11.9032
▁engineers	-11.9037
▁borrowing	-11.9039
▁tap	-11.9042
▁Palestine	-11.9042
▁brilliant	-11.9042
▁neutral	-11.9042
▁appraisal	-11.9042
▁Chowk	-11.9042
▁rainfall	-11.9042
stan	-11.9043
ney	-11.9044
▁dimension	-11.9046
facie	-11.9046
▁confused	-11.9046
EF	-11.9056
▁react	-11.9056
▁User	-11.9058
▁professionals	-11.9059
▁Hy	-11.9063
rim	-11.9063
▁deput	-11.9064
▁robot	-11.9065
▁painting	-11.9066
gin	-11.9068
▁Sarma	-11.9068
▁Spirit	-11.907
▁Affidavit	-11.9072
▁Field	-11.9072
▁ambulance	-11.9072
▁Mosque	-11.9072
▁nursing	-11.9072
▁systematic	-11.9074
▁boil	-11.9075
ARI	-11.9083
▁pin	-11.9083
▁Pu	-11.9086
▁noon	-11.9086
▁Bana	-11.9087
▁persist	-11.9089
Registrar	-11.909
▁overrul	-11.909
▁revert	-11.9091
▁Gad	-11.9093
while	-11.9094
cl	-11.9099
▁disagree	-11.91
▁Fourth	-11.91
gni	-11.9101
▁Uttarakhand	-11.9102
▁Vadodara	-11.9102
▁unaided	-11.9102
▁supramental	-11.9102
▁indicative	-11.9102
▁Sudhir	-11.9102
▁Pillai	-11.9103
▁Counter	-11.9105
digest	-11.9108
▁loses	-11.9109
lea	-11.911
▁contractors	-11.9116
endu	-11.9116
▁Cash	-11.9119
▁opted	-11.912
▁combine	-11.9121
▁petrol	-11.9123
▁zones	-11.9126
uru	-11.9128
▁individually	-11.9128
▁Tehsil	-11.9131
▁Tahasildar	-11.9132
▁delicate	-11.9132
▁analysed	-11.9132
▁flesh	-11.9132
▁Concession	-11.9132
▁Pramod	-11.9132
▁reimbursement	-11.9132
utosh	-11.9132
▁investor	-11.9133
▁committees	-11.9133
abusing	-11.9139
▁breathing	-11.914
▁heinous	-11.9144
part	-11.9149
▁evaluated	-11.915
▁relax	-11.915
General	-11.9153
▁mechanisms	-11.9159
▁Command	-11.916
▁mm	-11.916
▁constituent	-11.9161
▁Democratic	-11.9162
▁Tourism	-11.9162
▁anniversary	-11.9162
▁decisive	-11.9162
▁economies	-11.9162
▁facilitating	-11.9162
▁Turkish	-11.9162
▁firearm	-11.9162
▁Mary	-11.9164
▁token	-11.9166
▁Sankara	-11.9167
pun	-11.9169
▁Iron	-11.9173
▁inaugurated	-11.9173
▁specializ	-11.9177
case	-11.9181
▁countrymen	-11.9181
▁Jas	-11.9184
bus	-11.9184
▁Vivekananda	-11.9186
▁games	-11.9187
▁Samastipur	-11.9191
▁collusion	-11.9192
▁cinema	-11.9192
▁rubber	-11.9192
GE	-11.9193
▁incur	-11.92
▁AG	-11.9201
ith	-11.9204
▁surely	-11.9207
▁Km	-11.9207
▁exceeded	-11.9209
ria	-11.921
▁acknowledge	-11.921
▁Comp	-11.9211
▁sponsor	-11.9212
▁Statutes	-11.9214
tern	-11.9216
ullah	-11.9217
▁cheap	-11.9218
▁dollar	-11.9222
▁rupee	-11.9222
▁autonomy	-11.9222
▁medicinal	-11.9222
▁afterwards	-11.9222
▁stressed	-11.9224
▁loading	-11.9224
▁boot	-11.9224
jay	-11.9225
▁Units	-11.9225
▁Katha	-11.9229
▁Accident	-11.9234
▁developer	-11.9236
▁Term	-11.9236
▁crack	-11.9238
▁corporations	-11.9242
▁Puja	-11.9244
▁translate	-11.9248
▁crush	-11.9249
lick	-11.925
▁tag	-11.925
▁earthquake	-11.9252
▁vicinity	-11.9252
▁lien	-11.9253
▁lump	-11.9254
ept	-11.9254
▁bitter	-11.9254
▁Mai	-11.9255
▁hunger	-11.9256
▁totality	-11.9256
▁puts	-11.926
hur	-11.9264
rav	-11.9274
▁favourite	-11.9274
▁Goods	-11.9275
▁Karna	-11.9277
▁purchases	-11.9278
gm	-11.928
▁tension	-11.9281
▁du	-11.9283
▁Prabhu	-11.9283
▁confidential	-11.9283
▁MBBS	-11.9283
▁Mantralaya	-11.9283
▁intermediate	-11.9283
▁trivial	-11.9283
▁unanimous	-11.9283
▁pilot	-11.9283
▁digit	-11.9284
▁specification	-11.9284
▁Apr	-11.9285
▁circulated	-11.9285
▁baseless	-11.9288
▁socially	-11.9289
▁str	-11.9289
▁inquired	-11.9292
▁Ashram	-11.9293
onic	-11.9294
card	-11.9295
ANT	-11.9295
plo	-11.9296
▁painful	-11.93
▁Ran	-11.9302
▁miss	-11.9305
▁lend	-11.9307
rh	-11.9311
▁procession	-11.9312
▁Jordan	-11.9313
▁Maintenance	-11.9313
▁unwarranted	-11.9313
▁isolation	-11.9313
▁Saheb	-11.9314
▁Communication	-11.9314
▁fabric	-11.9314
▁liquidator	-11.9316
▁replacement	-11.9316
▁cargo	-11.9317
▁clothing	-11.932
▁Room	-11.932
▁perceived	-11.9321
eo	-11.9321
▁pet	-11.9324
▁cot	-11.9326
▁PE	-11.9326
erry	-11.9328
NO	-11.9328
▁lateral	-11.933
oz	-11.9331
▁FC	-11.9337
▁accompany	-11.934
▁broadcast	-11.934
ett	-11.934
fic	-11.934
▁formulate	-11.9343
▁diabetes	-11.9344
▁Statutory	-11.9344
▁Hamachi	-11.9344
▁Terrorism	-11.9344
▁prize	-11.9347
▁ruin	-11.9347
rib	-11.935
chin	-11.9354
▁analogous	-11.9357
dul	-11.9358
▁misleading	-11.9361
▁supplying	-11.9363
▁Sufi	-11.9364
rie	-11.9365
▁Records	-11.9367
▁washed	-11.9368
▁forgotten	-11.9371
▁SEZ	-11.9375
xxx	-11.9375
▁urine	-11.9375
▁Kush	-11.9375
▁ob	-11.9376
▁Manilal	-11.9376
▁Pipes	-11.9376
▁tribe	-11.9376
arch	-11.9377
▁announcement	-11.9377
▁airport	-11.9377
▁spending	-11.9386
Ka	-11.9389
▁Offices	-11.9391
▁absorb	-11.9392
▁Leader	-11.9394
▁entrust	-11.9397
▁alike	-11.9398
bat	-11.94
▁lacking	-11.9404
▁reconsider	-11.9405
▁acquaint	-11.9405
▁gentle	-11.9405
▁battery	-11.9405
▁trigger	-11.9405
▁redemption	-11.9405
▁Rishi	-11.9406
▁harness	-11.9406
▁handled	-11.9407
▁ransom	-11.9407
▁supervise	-11.9407
ui	-11.9416
post	-11.9417
▁Sch	-11.9419
▁Pen	-11.9419
▁accommodate	-11.9421
▁LO	-11.9421
▁idle	-11.9422
AY	-11.9424
▁stronger	-11.9424
▁Generally	-11.9427
▁inspite	-11.943
▁SIT	-11.9432
mag	-11.9432
▁Conciliation	-11.9436
▁multiplier	-11.9436
▁Implementation	-11.9437
▁flash	-11.9437
▁Still	-11.9437
▁reconstruction	-11.9438
▁Systems	-11.9438
▁worldwide	-11.9438
▁avoiding	-11.9438
▁embodied	-11.9439
rity	-11.9439
▁provident	-11.9442
▁Bri	-11.9447
▁standi	-11.9448
▁videos	-11.945
kant	-11.9452
▁ranks	-11.9452
▁pop	-11.9453
▁Tam	-11.9453
▁Moti	-11.9457
▁abandon	-11.9457
▁disciples	-11.9458
dated	-11.9458
▁wedding	-11.9458
▁condoned	-11.9459
hoo	-11.9459
▁visitors	-11.9461
cia	-11.9461
▁Areas	-11.9464
▁procured	-11.9466
▁typed	-11.9467
▁cheat	-11.9467
▁ambiguity	-11.9467
▁plausible	-11.9467
▁abrasion	-11.9467
▁connivance	-11.9467
▁consolidation	-11.9468
▁Devendra	-11.9468
alam	-11.9468
▁Zila	-11.9469
▁Immediately	-11.9469
▁VRS	-11.947
▁upgradation	-11.947
▁Shanti	-11.9473
oh	-11.9477
▁temper	-11.948
▁nationalism	-11.9482
▁Bra	-11.9482
rig	-11.949
▁literal	-11.949
▁dose	-11.9491
▁Bak	-11.9493
▁hyper	-11.9497
▁fertilizers	-11.9498
▁Evolution	-11.9498
▁earmarked	-11.9498
▁practicable	-11.9498
▁stolen	-11.9498
▁vaccine	-11.9498
▁Film	-11.9498
▁dollars	-11.9498
▁condemned	-11.9498
▁meritorious	-11.9498
▁grammar	-11.9498
▁jute	-11.9499
ibility	-11.9503
▁journal	-11.9503
▁Read	-11.9506
▁judicially	-11.9506
▁solemniz	-11.9506
appeal	-11.9508
▁flame	-11.9508
▁gene	-11.9512
▁fingers	-11.9513
▁proposes	-11.9518
▁Rep	-11.952
▁Large	-11.9527
▁Memorial	-11.9529
▁Buddhism	-11.9529
▁Demand	-11.9529
▁dairy	-11.9529
▁unjustified	-11.953
▁meets	-11.953
▁minorities	-11.9534
▁manipulation	-11.9535
▁GP	-11.9541
▁Applying	-11.9543
avar	-11.9544
▁attributes	-11.9546
▁Fig	-11.955
rama	-11.9554
▁Connect	-11.9555
▁tip	-11.9557
▁Administrator	-11.9561
▁TRANSPORT	-11.9561
▁Message	-11.9561
▁adventure	-11.9561
PER	-11.9563
▁Vehicle	-11.9564
▁vegetable	-11.9564
▁Mount	-11.9564
▁lion	-11.9565
▁planted	-11.9565
▁Arvind	-11.9566
▁interval	-11.9567
ksh	-11.9576
key	-11.9579
▁ships	-11.958
ken	-11.958
ATE	-11.9582
▁symbolic	-11.9583
▁Iraqi	-11.9584
▁laugh	-11.9585
MO	-11.9585
▁Af	-11.9588
▁Una	-11.9589
▁ministry	-11.9592
▁spectrum	-11.9592
▁Krishan	-11.9592
ake	-11.9593
▁Hamas	-11.9593
owner	-11.9594
▁Bharti	-11.9594
▁designation	-11.9595
▁erroneously	-11.9598
▁cull	-11.9599
▁drum	-11.96
tun	-11.96
▁Coast	-11.96
hak	-11.9601
shah	-11.9602
udra	-11.9604
▁Councils	-11.9606
▁hopes	-11.9608
▁Bab	-11.9608
▁portal	-11.9609
▁Initial	-11.961
▁smile	-11.9613
▁Gate	-11.9618
▁Author	-11.962
UDA	-11.9621
▁accelerate	-11.9623
▁compilation	-11.9623
▁marital	-11.9623
▁bonus	-11.9623
▁Delete	-11.9624
▁retrenchment	-11.9624
▁annexure	-11.9624
▁PIN	-11.9632
▁Monitoring	-11.9633
ele	-11.9637
▁decrees	-11.9638
gli	-11.9641
▁emotions	-11.9641
▁prolonged	-11.9642
▁corroborat	-11.9643
bet	-11.9648
iba	-11.9649
▁genes	-11.9652
▁proxy	-11.9655
▁Rohtas	-11.9655
▁Dental	-11.9655
▁salaries	-11.9655
▁pilgrimage	-11.9656
ATH	-11.9661
▁civilisation	-11.9661
sisting	-11.9662
▁Mathura	-11.9665
nch	-11.967
▁mediator	-11.9676
▁lungs	-11.9677
▁lane	-11.9679
uf	-11.9679
▁warrants	-11.9682
▁creed	-11.9682
▁hole	-11.9682
▁particles	-11.9684
▁BG	-11.9684
ordination	-11.9685
▁chat	-11.9686
▁Jitendra	-11.9687
▁condolence	-11.9687
▁immortal	-11.9687
▁Double	-11.9687
▁roster	-11.9687
▁Muzaffarpur	-11.9687
▁expiration	-11.9687
▁remittance	-11.9687
▁zeal	-11.9687
▁concealment	-11.9687
▁Same	-11.9688
▁NEET	-11.9688
▁Vyas	-11.9688
▁Crown	-11.9688
▁terrible	-11.9689
▁Enter	-11.9689
MM	-11.9689
▁Courses	-11.9689
▁endeavours	-11.9691
▁NRI	-11.9691
▁Op	-11.9692
▁inconsistency	-11.9692
▁accrue	-11.9693
▁vacation	-11.9694
▁condone	-11.9694
▁Kashi	-11.9697
▁transformed	-11.9699
▁mutat	-11.9699
▁Ajit	-11.97
aci	-11.9704
▁Preet	-11.9704
▁Meal	-11.9705
gul	-11.9706
▁bounds	-11.9707
▁yards	-11.9709
▁lust	-11.971
ius	-11.9712
▁Practice	-11.9718
▁Revolution	-11.9718
▁furniture	-11.9718
▁probabilities	-11.9718
▁telephonic	-11.9718
▁unexplain	-11.9718
▁aesthetic	-11.9718
▁NIOS	-11.9719
▁portray	-11.9719
▁alert	-11.9719
▁noteworthy	-11.9722
mates	-11.9732
▁reactor	-11.9734
Divisional	-11.9742
hab	-11.9746
pre	-11.9747
▁horses	-11.9747
▁imminent	-11.975
▁copper	-11.975
▁Consultation	-11.9751
▁expectations	-11.9752
ordinate	-11.9753
▁terminat	-11.9754
▁ISO	-11.9755
▁slight	-11.9757
▁kids	-11.9759
▁char	-11.9764
▁Allow	-11.9764
▁overwhelming	-11.9764
▁bars	-11.9766
▁convention	-11.9768
ref	-11.977
▁sam	-11.9772
▁Ag	-11.9773
service	-11.9774
▁enjoin	-11.9777
▁BIFR	-11.9782
▁poultry	-11.9782
▁Pankaj	-11.9782
kri	-11.9783
▁fortune	-11.9783
▁preach	-11.9786
cra	-11.9787
▁Top	-11.9787
len	-11.9788
▁cater	-11.9791
TD	-11.9791
▁deductions	-11.9794
▁Chau	-11.9796
▁withdrawing	-11.9805
uv	-11.9811
person	-11.9812
▁disseminat	-11.9814
▁Coimbatore	-11.9814
▁Jerusalem	-11.9814
▁Lolita	-11.9814
▁freight	-11.9814
▁monopoly	-11.9814
▁smoking	-11.9814
▁statue	-11.9814
▁queen	-11.9815
▁Sunday	-11.9815
▁Ground	-11.9815
▁cancelling	-11.9816
▁resultant	-11.9817
zy	-11.9819
▁alienation	-11.9821
▁coastal	-11.9821
mending	-11.9821
▁juvenile	-11.9825
▁Dil	-11.9828
▁Manu	-11.9828
▁concurrently	-11.983
wer	-11.9832
tors	-11.9834
▁TR	-11.9835
▁rea	-11.9836
▁sur	-11.9837
petitioner	-11.9842
▁denote	-11.9842
▁Almast	-11.9846
▁Backward	-11.9847
▁cabinet	-11.9847
▁pulled	-11.9851
hap	-11.9853
▁analyse	-11.9854
▁Oriya	-11.9854
▁bowl	-11.9856
rv	-11.9857
hwa	-11.9861
▁eco	-11.9862
ere	-11.9863
▁mature	-11.9864
▁allot	-11.9866
▁Products	-11.9867
IB	-11.9869
dir	-11.9869
▁mon	-11.9869
athi	-11.9876
▁foods	-11.9876
▁FTIL	-11.9879
▁Universal	-11.9879
▁provocation	-11.9879
▁buried	-11.9879
▁Ranjit	-11.9879
▁rectifi	-11.988
▁Sunita	-11.988
shu	-11.9882
▁abett	-11.9883
▁GDP	-11.9884
▁Schemes	-11.9884
▁guest	-11.9885
▁Operation	-11.9885
▁Singles	-11.9885
▁pillar	-11.9886
aside	-11.9891
▁epi	-11.9899
cot	-11.99
IND	-11.9901
▁mut	-11.9905
▁broker	-11.9906
▁seventh	-11.9909
eous	-11.991
ree	-11.991
ii	-11.9911
▁Hans	-11.9911
▁Jyotirmath	-11.9911
▁steam	-11.9911
▁Venture	-11.9911
▁Choose	-11.9911
▁Prize	-11.9911
▁Sultan	-11.9912
▁Institutes	-11.9914
▁Daily	-11.9915
▁companion	-11.9918
▁CRA	-11.9919
▁humans	-11.9924
▁Hai	-11.9926
▁rag	-11.9927
▁Lakhan	-11.9927
varying	-11.9928
tim	-11.9929
▁symbols	-11.993
▁SIM	-11.993
▁Madhubani	-11.9932
▁exam	-11.9933
ians	-11.9937
IES	-11.994
mala	-11.9941
berg	-11.9943
▁Milk	-11.9943
▁aggravat	-11.9943
▁Vikram	-11.9943
▁guarantor	-11.9943
▁hereditary	-11.9943
▁inflammation	-11.9943
▁dissent	-11.9944
▁resigned	-11.9944
▁magazine	-11.9944
hol	-11.9945
▁shopping	-11.9945
▁intercept	-11.9946
▁handing	-11.9946
▁Bhi	-11.9951
alli	-11.9952
vit	-11.9952
enalties	-11.9953
▁Color	-11.9954
▁evidently	-11.9956
▁Nu	-11.9958
▁RI	-11.9958
▁relationships	-11.9961
▁deadly	-11.9962
▁lectures	-11.9966
▁cigarettes	-11.9967
▁Plaintiffs	-11.9969
ential	-11.997
▁Charter	-11.997
▁Khe	-11.9973
▁linkages	-11.9974
▁Mauritius	-11.9976
▁Religious	-11.9976
▁deceive	-11.9976
▁hierarchy	-11.9976
▁naked	-11.9976
▁Kittur	-11.9976
▁Summit	-11.9976
▁behave	-11.9976
▁infected	-11.9977
▁reproduction	-11.9977
▁parking	-11.9981
▁scientist	-11.9983
▁Sama	-11.9983
liness	-11.9983
▁elephants	-11.9986
▁reminder	-11.9986
▁Brahmo	-11.9986
▁Narayana	-11.9987
turn	-11.9988
▁dtd	-11.9991
▁shore	-11.9991
▁drawings	-11.9999
▁Kalam	-12
▁halt	-12.0001
▁nutrition	-12.0004
▁Basant	-12.0005
▁Proceedings	-12.0007
▁Wikipedia	-12.0009
▁philosopher	-12.0009
▁Cooperation	-12.001
▁plugin	-12.001
▁duplicate	-12.0011
▁classic	-12.0012
crib	-12.0012
▁vaginal	-12.0013
▁counts	-12.0014
▁heap	-12.0014
▁CP	-12.0015
▁fruitful	-12.0016
ahar	-12.0017
▁pensionary	-12.0019
▁succeeding	-12.002
▁wet	-12.0021
Phil	-12.0024
▁Rev	-12.0034
▁artists	-12.0035
▁Occ	-12.0036
lying	-12.0041
▁Chalukya	-12.0041
▁subsistence	-12.0042
▁ethical	-12.0042
▁woke	-12.0042
rel	-12.0044
▁Gam	-12.0049
▁waves	-12.005
▁Karma	-12.0052
rag	-12.0053
▁engineer	-12.0054
dai	-12.0055
▁Europeans	-12.0057
▁NGOs	-12.0059
▁hate	-12.0067
fusion	-12.0067
▁Program	-12.0069
phe	-12.0072
▁Lalit	-12.0072
▁routes	-12.0072
lite	-12.0072
RAM	-12.0073
▁Nan	-12.0073
▁Iqbal	-12.0074
▁Sarpanch	-12.0074
▁ancillary	-12.0074
▁Nokia	-12.0074
▁Sarojini	-12.0075
▁superintendence	-12.0075
▁Tribal	-12.0076
▁marine	-12.0076
▁obey	-12.0077
▁senses	-12.0078
▁cook	-12.0078
▁nullit	-12.0079
fold	-12.008
▁Mian	-12.0081
▁employers	-12.0082
▁photos	-12.0087
▁Sunder	-12.0091
▁Naga	-12.0093
▁SBI	-12.0099
▁eighteen	-12.0102
▁Sangh	-12.0105
▁bell	-12.0106
▁pari	-12.0106
▁depression	-12.0107
▁promissor	-12.0107
▁bh	-12.0109
▁Pul	-12.011
▁welcomed	-12.0112
▁Dayal	-12.0114
▁washing	-12.0114
ene	-12.0115
▁Samiti	-12.0117
▁Som	-12.0121
▁Presently	-12.0122
▁drag	-12.0124
▁colours	-12.0124
▁Tool	-12.0125
▁DPC	-12.0126
▁HP	-12.0127
BB	-12.0131
▁disturb	-12.0132
▁Kapil	-12.0132
▁examiner	-12.0134
▁Moon	-12.0135
▁lapses	-12.0136
▁estimates	-12.0137
meter	-12.0139
▁Contact	-12.0141
▁Image	-12.0141
▁captive	-12.0141
▁Mit	-12.0141
▁dense	-12.0144
▁Come	-12.0144
▁critics	-12.0146
▁offline	-12.0148
▁Cu	-12.0149
HS	-12.0152
▁panic	-12.016
oni	-12.0161
▁purportedly	-12.0161
late	-12.0164
▁override	-12.0167
pressing	-12.0168
eeta	-12.0169
▁discern	-12.0174
▁Literature	-12.0174
▁capacities	-12.0174
▁evaluat	-12.0174
▁insertion	-12.0175
▁specifications	-12.0177
cial	-12.0177
KE	-12.0178
hearted	-12.018
▁intending	-12.0181
▁Bodh	-12.0181
▁Driver	-12.0182
FC	-12.0183
logical	-12.0188
▁insecticides	-12.0188
mentioned	-12.0188
▁accountant	-12.0189
oj	-12.0189
▁Bay	-12.019
▁lastly	-12.0196
▁Mandir	-12.0202
▁CT	-12.0204
thu	-12.0206
▁controls	-12.0207
▁Assistance	-12.0207
▁SERVICE	-12.0207
▁brevity	-12.0207
▁redundant	-12.0207
▁honey	-12.0207
▁trauma	-12.0207
▁lacuna	-12.0207
▁kick	-12.0208
▁misrepresent	-12.0208
▁HIV	-12.021
zh	-12.0216
▁rating	-12.0217
bel	-12.0223
▁boxes	-12.0224
ITY	-12.0225
▁targets	-12.0226
hna	-12.0227
▁situate	-12.023
▁succeeds	-12.0231
▁bald	-12.0232
▁mob	-12.0233
▁Jog	-12.0233
▁screening	-12.0234
▁Youth	-12.0237
▁gifts	-12.0239
▁providers	-12.0239
▁Lac	-12.024
▁ignorant	-12.024
▁prestige	-12.024
▁quest	-12.024
▁sweat	-12.0241
▁paintings	-12.0243
▁worried	-12.0244
▁Egyptian	-12.0244
GL	-12.0245
▁Thiru	-12.0246
▁Patta	-12.0248
▁concentrate	-12.0248
▁PDF	-12.025
▁ceases	-12.025
▁transpire	-12.0252
▁transfers	-12.026
gur	-12.0261
closed	-12.0262
sti	-12.0265
▁centers	-12.0265
▁cooperate	-12.0267
▁confine	-12.0267
ARY	-12.0268
PD	-12.027
col	-12.0273
▁Different	-12.0274
▁alphabet	-12.0274
▁physician	-12.0274
▁COTP	-12.0274
▁Emergency	-12.0274
▁jeep	-12.0274
▁coercion	-12.0275
▁dump	-12.0276
▁mouse	-12.0276
▁bushes	-12.0276
▁Socialist	-12.0276
lied	-12.0277
▁hindi	-12.0279
▁lung	-12.0281
▁Giri	-12.0283
▁holiday	-12.0284
▁habitual	-12.0287
wadi	-12.0291
dars	-12.0291
apped	-12.0293
▁surprised	-12.0294
▁pests	-12.0294
▁refuses	-12.0296
▁Kiran	-12.0303
▁sap	-12.0304
swamy	-12.0307
▁Function	-12.0308
▁tragedy	-12.0308
▁Telephone	-12.0308
▁Zonal	-12.0308
▁thigh	-12.0308
▁utilisation	-12.0308
▁marble	-12.0312
▁lecture	-12.0315
▁Mass	-12.0315
▁envelope	-12.0318
▁disciple	-12.0318
sections	-12.032
▁deaths	-12.0322
▁ji	-12.0324
ents	-12.0327
▁pad	-12.0339
▁throwing	-12.0339
▁absurd	-12.034
▁Operators	-12.034
▁restaurant	-12.0341
▁Amritsar	-12.0342
▁decay	-12.0342
▁melt	-12.0348
▁MT	-12.0351
▁Bhar	-12.0354
▁rap	-12.0354
point	-12.036
▁speaker	-12.0362
▁Chan	-12.0362
▁bud	-12.0364
▁garb	-12.0365
▁elaborately	-12.0366
ison	-12.0369
▁supervisor	-12.0371
▁transferor	-12.0372
▁annually	-12.0372
▁Religion	-12.0375
▁Presidency	-12.0376
▁Deccan	-12.0376
▁Close	-12.0376
▁dispense	-12.0377
▁Chemicals	-12.0381
▁seventy	-12.0383
▁XI	-12.0383
rophy	-12.0386
▁Daman	-12.0387
▁doubted	-12.0387
tage	-12.0389
prop	-12.0389
lementary	-12.039
▁teachings	-12.0394
his	-12.0395
▁Fee	-12.0397
nya	-12.0399
gun	-12.04
▁curb	-12.0402
▁accomplished	-12.0403
▁Arya	-12.0406
▁yes	-12.0408
▁sweep	-12.0409
▁Essential	-12.0409
▁YouTube	-12.0409
▁laboratories	-12.0409
▁unexpected	-12.0409
Oraon	-12.041
▁Maximum	-12.041
▁Bapu	-12.041
▁indicator	-12.0411
▁comfortable	-12.0413
▁tie	-12.0415
▁Was	-12.0419
ij	-12.0428
▁pack	-12.0429
maker	-12.043
graduate	-12.0432
▁IC	-12.0433
▁captured	-12.0433
▁persistent	-12.0434
bhi	-12.0436
field	-12.0436
capacity	-12.0437
▁Bin	-12.0439
▁Wed	-12.044
▁diploma	-12.0442
▁denominator	-12.0444
▁proximity	-12.0444
▁legacy	-12.0444
▁Pathak	-12.0445
▁uniformity	-12.0448
▁listening	-12.0449
▁Gazetted	-12.045
▁bother	-12.0452
▁grows	-12.0454
DO	-12.0458
▁voucher	-12.046
▁rightful	-12.046
▁Han	-12.0464
version	-12.0468
▁Nov	-12.047
▁trader	-12.0473
▁Pad	-12.0474
▁Identification	-12.0478
▁conducive	-12.0478
▁sim	-12.0478
▁petty	-12.0479
▁restructuring	-12.0479
▁Vaishnava	-12.0479
bas	-12.048
▁ledger	-12.048
▁tired	-12.0483
▁Mil	-12.0488
lash	-12.0491
▁Mud	-12.0496
▁lab	-12.05
Ed	-12.05
▁clinic	-12.0504
▁seize	-12.0506
NC	-12.0507
▁CG	-12.0507
▁honor	-12.0511
▁Umesh	-12.0512
▁Abolition	-12.0512
▁diminish	-12.0512
▁ulterior	-12.0512
▁Peace	-12.0512
▁grasp	-12.0512
▁Rubber	-12.0512
▁Copyright	-12.0512
▁deception	-12.0513
▁clever	-12.0514
ites	-12.0516
▁ACT	-12.0518
▁cough	-12.0519
UG	-12.052
▁Gaj	-12.052
tak	-12.0524
▁sync	-12.0528
ayat	-12.0531
flies	-12.0534
▁akin	-12.0538
vid	-12.0542
▁Mata	-12.0544
▁yard	-12.0544
eet	-12.0545
▁Would	-12.0547
▁certify	-12.0547
▁revocation	-12.0547
▁Indonesia	-12.0547
▁Website	-12.0547
▁glaring	-12.0547
▁Khatoon	-12.0547
▁Bidder	-12.0547
▁JNU	-12.0548
▁Does	-12.0549
▁authorisation	-12.055
▁courtyard	-12.0551
ges	-12.0551
▁charm	-12.0552
▁ITR	-12.0552
▁packed	-12.0553
ESH	-12.0555
▁popularity	-12.0556
▁Sand	-12.0556
▁converting	-12.0556
▁heights	-12.0557
▁regardless	-12.056
▁breed	-12.0566
▁Shop	-12.0566
gn	-12.0567
▁lap	-12.0574
▁scrutinize	-12.0576
pot	-12.0578
DB	-12.0578
.--	-12.0579
▁Mahanadi	-12.0581
▁Thanjavur	-12.0581
▁plenty	-12.0581
▁refute	-12.0581
▁globe	-12.0582
▁signatory	-12.0582
▁incised	-12.0582
▁foul	-12.0583
▁Directive	-12.0583
▁James	-12.0589
▁Product	-12.0589
narayan	-12.0591
phal	-12.0591
believing	-12.0593
ptic	-12.0594
▁riot	-12.0595
▁compensate	-12.0597
▁disbursed	-12.0598
▁Chu	-12.06
roid	-12.0602
▁ages	-12.0604
▁notional	-12.0604
▁attempting	-12.0606
▁Provinces	-12.0608
ERS	-12.0609
▁neglected	-12.061
▁consecutive	-12.0616
▁gesture	-12.0616
▁Source	-12.0616
▁Medium	-12.0616
▁Clean	-12.0616
▁Interim	-12.0618
des	-12.0621
▁Shan	-12.0621
ace	-12.0621
▁spray	-12.0623
▁Cl	-12.0628
wp	-12.0631
sai	-12.0634
▁NC	-12.0635
▁collector	-12.0638
▁Chakra	-12.0638
▁probationer	-12.0639
▁scriptures	-12.064
▁KB	-12.0642
▁Cap	-12.0643
active	-12.0644
▁Brahmins	-12.0644
▁echo	-12.0649
assi	-12.0649
▁KARNATAKA	-12.0651
▁Legislation	-12.0651
▁preponderance	-12.0651
▁twist	-12.0651
▁mask	-12.0651
▁clearing	-12.0652
▁Evaluation	-12.0652
▁Secretaries	-12.0652
▁induce	-12.0653
▁creatures	-12.0653
▁deferred	-12.0653
ection	-12.0654
Company	-12.0655
voidable	-12.0657
▁jaw	-12.0657
▁Wi	-12.0663
▁Pol	-12.0667
▁AGA	-12.0671
▁Nair	-12.0675
▁demolish	-12.0681
word	-12.0681
chu	-12.0681
▁correspond	-12.0683
FL	-12.0684
▁banker	-12.0685
▁MUKHERJEE	-12.0686
▁Nalanda	-12.0686
▁anxiety	-12.0686
▁sanitation	-12.0686
▁agony	-12.0687
▁stall	-12.0688
▁hub	-12.0688
▁impressive	-12.0688
▁disagreement	-12.0688
▁combat	-12.069
Tax	-12.0692
khi	-12.0694
▁Gaza	-12.0695
▁infirmit	-12.0696
▁Seed	-12.0698
▁disappeared	-12.0698
▁tone	-12.0698
▁comparatively	-12.0698
▁accumulat	-12.0702
plan	-12.0703
▁cons	-12.0707
▁mechanically	-12.0708
▁intake	-12.0709
▁emphasize	-12.071
▁civilian	-12.0713
▁nav	-12.0714
▁responsive	-12.072
prejudiced	-12.0721
▁engaging	-12.0721
▁Pappu	-12.0721
▁borders	-12.0721
▁inheritance	-12.0721
▁pleasant	-12.0722
▁recount	-12.0724
▁Hat	-12.0724
▁calculat	-12.0724
▁disbeliev	-12.0725
▁dumping	-12.0727
rip	-12.0727
▁executor	-12.0728
isa	-12.0728
▁Lecturers	-12.073
▁rains	-12.0731
name	-12.0734
▁Mode	-12.0735
▁DAC	-12.074
bble	-12.0742
aki	-12.0743
▁proportionate	-12.0745
▁conclusively	-12.0746
▁materially	-12.0747
▁Ref	-12.0748
▁extracts	-12.0748
▁luck	-12.0749
▁celebrations	-12.075
▁ATM	-12.0751
▁Vai	-12.0753
▁Study	-12.0756
▁covenant	-12.0756
▁emperor	-12.0756
▁flexible	-12.0756
▁lacerated	-12.0756
▁sorry	-12.0756
▁missile	-12.0756
▁triable	-12.0761
▁DC	-12.0764
▁waived	-12.0765
itation	-12.0765
▁shooting	-12.0765
▁Vihar	-12.0767
▁ganja	-12.0767
▁propounder	-12.0768
▁suck	-12.0769
▁shoulders	-12.077
ule	-12.0771
▁Navy	-12.0775
▁Sara	-12.0776
▁reservations	-12.0778
▁kindly	-12.078
▁Suk	-12.0784
▁indian	-12.0788
ench	-12.0788
▁deer	-12.0789
WP	-12.079
▁ray	-12.0791
▁Dwivedi	-12.0791
▁Gloria	-12.0791
▁Relevant	-12.0791
▁Wildlife	-12.0791
▁Senate	-12.0794
▁Diary	-12.08
▁Mut	-12.0803
▁occasionally	-12.0804
▁Ker	-12.0805
▁SWP	-12.0805
▁textile	-12.0809
▁reache	-12.0809
DU	-12.0811
▁Run	-12.0812
rop	-12.0822
▁stroke	-12.0825
▁Quit	-12.0825
▁Conservation	-12.0827
▁triumph	-12.0827
▁ideology	-12.0827
▁repell	-12.0827
▁advertising	-12.0827
▁dwell	-12.083
▁Bail	-12.0831
▁Mohanty	-12.0831
▁Municipalities	-12.0831
▁Australian	-12.0837
▁SW	-12.0837
rish	-12.0837
eshwari	-12.0839
▁supplier	-12.0843
▁shouting	-12.0844
▁Noida	-12.0847
ananda	-12.0847
matic	-12.0847
mad	-12.0849
▁Sum	-12.0849
▁Nirmal	-12.085
▁bailable	-12.085
▁rolls	-12.0856
▁emotion	-12.086
▁Jabalpur	-12.0862
▁misconception	-12.0862
▁Goddess	-12.0862
▁HIGH	-12.0862
▁monkey	-12.0863
▁Nursing	-12.0863
▁consistency	-12.0863
▁Automatic	-12.0863
hta	-12.0863
▁demarcation	-12.0864
▁proven	-12.0865
inda	-12.0865
▁leveled	-12.0865
giri	-12.087
▁Grand	-12.0872
▁complexity	-12.0872
▁faulted	-12.0872
▁lips	-12.0872
▁mitigat	-12.0874
city	-12.0875
▁crown	-12.0877
▁Khadi	-12.0878
▁inaugurate	-12.0885
▁fraudulently	-12.0885
▁Visit	-12.0886
▁congratulated	-12.0887
MU	-12.0887
apa	-12.0888
lice	-12.0888
power	-12.0888
▁rocks	-12.0889
IG	-12.0893
▁Fifth	-12.0898
▁Joseph	-12.0898
▁Pondicherry	-12.0898
▁Statistics	-12.0898
▁atleast	-12.0898
▁Above	-12.0898
▁Shree	-12.0899
▁grey	-12.0899
▁pole	-12.0899
▁SAIL	-12.0903
▁weekly	-12.0904
▁analogy	-12.0904
▁rat	-12.0906
substantiated	-12.0907
▁lotus	-12.091
riti	-12.0911
▁Forests	-12.0912
▁mens	-12.0913
▁Usha	-12.0914
▁dire	-12.0917
▁resume	-12.0924
▁dealings	-12.093
▁Deceased	-12.0934
▁indispensable	-12.0934
▁sanctity	-12.0934
▁trunk	-12.0934
▁Unlike	-12.0935
▁Inspection	-12.0935
▁indulgence	-12.0935
lata	-12.0935
▁Latin	-12.0935
▁dozen	-12.0938
▁transit	-12.094
ogus	-12.0941
▁colony	-12.0943
▁crying	-12.0944
▁Students	-12.0945
▁Vo	-12.0945
▁trends	-12.0947
▁exploited	-12.0951
sagar	-12.0955
▁Trustees	-12.0957
ically	-12.096
▁politicians	-12.0961
aker	-12.0963
ccus	-12.0965
▁inquire	-12.0965
▁needless	-12.0968
▁tangible	-12.097
▁Saroj	-12.097
▁Kapoor	-12.097
▁defamation	-12.0971
▁authenticity	-12.0971
▁Ask	-12.0972
gir	-12.0972
▁pea	-12.0974
▁ER	-12.0977
▁Produc	-12.098
▁bearers	-12.0985
rust	-12.0989
Act	-12.1
▁updated	-12.1001
asu	-12.1002
▁revive	-12.1006
▁Mizoram	-12.1006
▁density	-12.1006
▁wakf	-12.1006
▁vigilance	-12.1006
▁pillow	-12.1006
▁tentative	-12.1006
▁steady	-12.1006
▁crash	-12.1007
▁citizenship	-12.1009
▁PB	-12.1012
core	-12.1012
▁Harijan	-12.1013
▁Side	-12.1013
▁openly	-12.1015
▁whil	-12.1016
train	-12.1017
▁transported	-12.1018
▁Owner	-12.1023
▁jihad	-12.1024
▁lasting	-12.1026
▁Gau	-12.1028
place	-12.1028
fil	-12.1028
▁harmonious	-12.1032
▁lover	-12.1033
oil	-12.1033
▁Supervisor	-12.1036
▁church	-12.1039
▁demon	-12.1042
▁strategies	-12.1042
▁unacceptable	-12.1042
▁Skill	-12.1042
▁eager	-12.1042
▁Sharad	-12.1042
▁Goswami	-12.1043
▁Burma	-12.1043
▁Nagendra	-12.1043
▁Nanded	-12.1043
▁birthday	-12.1044
▁timing	-12.1044
▁spin	-12.1048
▁Reg	-12.1051
▁Forward	-12.1054
▁princes	-12.106
▁Mc	-12.106
oresh	-12.1062
▁Grants	-12.1063
ball	-12.1068
quiries	-12.1068
▁distribute	-12.107
▁Bali	-12.107
▁Premchand	-12.107
space	-12.1076
▁scan	-12.1077
rdinarily	-12.1078
▁seals	-12.1078
▁bigha	-12.1078
▁Jinnah	-12.1079
▁emergence	-12.1079
▁diplomatic	-12.108
▁Stone	-12.108
▁slave	-12.108
▁Talwar	-12.108
▁coins	-12.1081
▁cream	-12.1082
hram	-12.1084
▁detrimental	-12.1085
rant	-12.1087
▁sheer	-12.1087
▁Kendra	-12.109
▁Bil	-12.1091
▁cane	-12.1091
▁SU	-12.1092
bhadra	-12.1095
atti	-12.1097
▁suppliers	-12.1099
itra	-12.1099
▁presid	-12.1102
▁devotee	-12.1104
▁notic	-12.1106
▁gifted	-12.1107
▁extinguished	-12.1111
▁valuer	-12.1111
▁hue	-12.1115
▁conspicuous	-12.1115
▁eldest	-12.1115
▁grief	-12.1115
▁Folder	-12.1115
▁humour	-12.1115
▁perpetual	-12.1115
▁glorious	-12.1115
▁conservative	-12.1115
▁Telecom	-12.1115
▁caption	-12.1116
▁herewith	-12.1117
▁injection	-12.1117
▁functionaries	-12.1117
ectomy	-12.1118
yana	-12.1122
▁Chhat	-12.1123
equi	-12.1123
▁MCI	-12.1124
▁presenting	-12.1126
▁lessons	-12.1126
▁Varma	-12.1128
▁Sign	-12.1131
▁rental	-12.1136
▁Chander	-12.1136
▁projection	-12.1136
▁communist	-12.1137
Ch	-12.114
▁abundant	-12.1141
application	-12.1146
▁Allah	-12.1147
▁POST	-12.1149
▁Jurisdiction	-12.1152
▁proforma	-12.1152
▁quit	-12.1152
▁MTNL	-12.1152
awn	-12.1152
▁menace	-12.1153
▁Uday	-12.1155
uma	-12.1157
gent	-12.1158
▁exporters	-12.1159
▁Feb	-12.1161
▁deter	-12.1164
ano	-12.1165
ipur	-12.1165
mari	-12.1166
▁ld	-12.117
▁Neuro	-12.117
▁Reasons	-12.1172
escent	-12.1173
devi	-12.1175
kk	-12.1177
▁onto	-12.1178
▁eighty	-12.1178
▁convince	-12.1178
▁apartment	-12.1178
▁Mukh	-12.118
▁tenth	-12.1186
ambi	-12.1186
▁Zealand	-12.1189
▁complicity	-12.1189
▁dividing	-12.1189
▁beneath	-12.1189
▁grateful	-12.1189
▁Wealth	-12.1189
▁Remember	-12.1189
dies	-12.1189
▁Mental	-12.119
▁coordination	-12.1191
▁Shivaji	-12.1192
▁fro	-12.1192
▁females	-12.1193
▁delays	-12.1196
▁cooked	-12.1196
▁Meher	-12.1196
▁Chin	-12.1196
▁IRDA	-12.1196
▁Girish	-12.12
▁optional	-12.1202
▁Himalaya	-12.1204
lies	-12.1205
▁Tab	-12.1206
▁recipient	-12.1208
▁arrear	-12.1208
▁visa	-12.1209
▁negotiation	-12.1209
▁sustaining	-12.1214
ote	-12.1216
gress	-12.1219
▁lakes	-12.1223
plaintiff	-12.1223
▁rectify	-12.1225
▁relegat	-12.1226
itha	-12.1226
▁Firm	-12.1226
▁edges	-12.1227
▁Bat	-12.1233
▁ranges	-12.1235
GB	-12.1236
▁likewise	-12.1237
▁authorize	-12.1237
▁Designat	-12.1239
▁complaining	-12.1241
▁ingredient	-12.1246
safe	-12.1248
▁Thirdly	-12.1248
▁rebutt	-12.125
arpur	-12.1251
▁drivers	-12.1251
pens	-12.1252
▁renew	-12.1253
▁Syria	-12.1257
▁Champa	-12.1258
vari	-12.1259
▁Aggarwal	-12.1262
▁Purnea	-12.1262
▁Trivedi	-12.1262
▁aggressive	-12.1262
▁babies	-12.1262
▁declining	-12.1262
▁deletion	-12.1262
▁misbehaviour	-12.1262
▁thirteen	-12.1262
▁spelt	-12.1263
▁Savita	-12.1263
▁exposition	-12.1263
RY	-12.1263
▁genesis	-12.1264
▁Shak	-12.1264
▁stringent	-12.1264
mission	-12.1268
guard	-12.1273
▁chip	-12.1273
yak	-12.1277
▁revoked	-12.1281
▁placement	-12.1284
▁mighty	-12.1285
rich	-12.129
▁hop	-12.1292
▁consciously	-12.1293
▁singer	-12.1294
▁Christ	-12.1297
▁compulsorily	-12.13
▁malicious	-12.13
▁queries	-12.13
▁dioxide	-12.13
▁telecom	-12.13
▁pg	-12.13
▁depicted	-12.1302
ahan	-12.1303
NE	-12.1304
▁def	-12.131
▁clay	-12.1311
▁importantly	-12.1311
arm	-12.1312
jure	-12.1314
loom	-12.1314
▁adherence	-12.1316
▁DI	-12.1319
▁merchant	-12.1321
▁arrow	-12.1321
AU	-12.1325
▁emb	-12.1327
▁casts	-12.1328
▁regularis	-12.1329
▁Ara	-12.1332
tory	-12.1334
▁norm	-12.1336
patti	-12.1336
▁Seth	-12.1337
▁curriculum	-12.1337
▁approving	-12.1337
▁Task	-12.1337
▁Licence	-12.1337
▁redeem	-12.1338
▁Step	-12.1338
▁themes	-12.134
▁narrate	-12.134
▁remainder	-12.134
▁buyers	-12.1341
wore	-12.1343
yat	-12.1345
▁Bij	-12.1345
▁respected	-12.1345
▁attainment	-12.1346
bli	-12.1347
▁amenabl	-12.1348
band	-12.1349
▁RSA	-12.1352
▁fur	-12.1353
▁Funds	-12.1355
▁stocks	-12.1359
▁solved	-12.1363
iyan	-12.1363
▁explicit	-12.1364
▁convicts	-12.1367
▁Yogesh	-12.1367
▁sensation	-12.137
▁Mari	-12.1373
tatutorily	-12.1374
▁Meerut	-12.1374
▁Perusal	-12.1374
▁mathematical	-12.1374
▁occupancy	-12.1374
▁terrace	-12.1374
▁snatch	-12.1375
▁refugees	-12.1375
▁waist	-12.1375
▁hazardous	-12.1375
▁Until	-12.1375
▁sperm	-12.1375
▁Sachin	-12.1376
▁Know	-12.1377
▁acknowledgement	-12.1377
hole	-12.1377
aja	-12.138
▁JV	-12.1381
▁cock	-12.1383
▁larva	-12.1384
▁Associate	-12.1386
vet	-12.1386
▁Pushpa	-12.1386
▁argu	-12.1388
chha	-12.139
▁depict	-12.139
▁Making	-12.1391
▁roles	-12.1391
▁butter	-12.1393
▁Cont	-12.1393
▁fame	-12.1398
▁Never	-12.1404
achi	-12.1406
practised	-12.1408
▁pilgrim	-12.1411
lakshmi	-12.1412
▁Preamble	-12.1412
▁Shrivastava	-12.1412
▁uterus	-12.1412
▁Nawab	-12.1412
agan	-12.1413
▁tactics	-12.1414
system	-12.1414
▁numbered	-12.1417
▁orthodox	-12.1425
▁Ld	-12.1426
dih	-12.1427
▁motivated	-12.1427
▁occupying	-12.1429
▁segments	-12.143
▁Stand	-12.143
chor	-12.1431
▁Assets	-12.1432
ook	-12.1434
gre	-12.1434
▁sincere	-12.1448
▁invad	-12.1448
▁Advertisement	-12.145
▁Method	-12.145
▁prerogative	-12.145
▁privacy	-12.145
▁touchstone	-12.145
▁Execution	-12.1451
▁observance	-12.1451
▁sciences	-12.1451
▁tackle	-12.1451
kur	-12.1454
LF	-12.1458
limit	-12.1463
▁SMS	-12.1463
▁underground	-12.1465
▁Vishal	-12.1466
ternal	-12.1467
ids	-12.1468
medical	-12.147
▁LATE	-12.1472
▁socialism	-12.1473
▁Electronic	-12.1473
▁edited	-12.1474
▁regain	-12.1479
eek	-12.148
aud	-12.1482
NB	-12.1483
oe	-12.1487
▁possesse	-12.1487
▁BIHAR	-12.1488
▁constituencies	-12.1488
▁extremist	-12.1488
▁robust	-12.1488
▁orientation	-12.1488
▁Kisan	-12.1488
▁pipeline	-12.1488
▁Slum	-12.1491
▁County	-12.1491
▁manifestly	-12.1493
khu	-12.1498
▁Sheet	-12.1499
▁Turk	-12.15
▁launching	-12.1502
▁rebut	-12.1503
▁draws	-12.1503
ike	-12.1504
APPA	-12.1509
▁organise	-12.1511
▁alienat	-12.1512
terestingly	-12.1515
▁overrid	-12.1516
bearer	-12.152
▁Gan	-12.1523
RES	-12.1525
▁Vietnam	-12.1526
▁Culture	-12.1526
▁Ghaziabad	-12.1526
▁Oxford	-12.1526
▁incorporating	-12.1526
▁BJP	-12.1526
▁alliance	-12.1526
▁packaging	-12.1526
▁grandmother	-12.1526
▁Saddam	-12.1526
▁Treatment	-12.1526
▁alignment	-12.1526
▁Server	-12.1527
▁summarized	-12.1528
▁betray	-12.1528
note	-12.153
▁RFA	-12.1533
▁gardens	-12.1534
▁larvae	-12.1536
▁Mail	-12.1537
▁consultant	-12.1538
▁liked	-12.1541
▁Sud	-12.1542
▁Pai	-12.1545
▁tough	-12.1548
▁Holding	-12.1549
▁riding	-12.155
▁cured	-12.1551
count	-12.1551
dol	-12.1552
abhi	-12.1553
▁Programmes	-12.1555
▁measurements	-12.1556
▁whi	-12.1556
ei	-12.1556
▁innumerable	-12.1556
▁endow	-12.1557
▁differential	-12.1559
▁Communist	-12.1564
▁Vajpayee	-12.1564
▁admeasuring	-12.1564
▁anterior	-12.1564
▁hybrid	-12.1564
▁BCCI	-12.1564
▁illusion	-12.1564
▁FDI	-12.1564
▁Robert	-12.1564
▁blessed	-12.1564
▁Gandharva	-12.1564
got	-12.1565
▁Ramachandra	-12.1565
▁Saint	-12.1565
▁classroom	-12.1566
ature	-12.1566
▁Shekhar	-12.1567
▁sac	-12.1568
▁PAN	-12.1569
▁Panchayati	-12.1574
nandan	-12.1575
▁offenders	-12.1578
▁glo	-12.158
▁Vrs	-12.1586
▁sculpture	-12.1588
IVE	-12.159
▁harassed	-12.1596
▁Ul	-12.1601
▁Chawla	-12.1602
▁Disease	-12.1602
▁Surgeon	-12.1602
▁intestate	-12.1602
▁unlimited	-12.1602
▁holistic	-12.1602
▁beloved	-12.1602
▁generous	-12.1602
▁Quarter	-12.1603
▁packing	-12.1604
▁Chair	-12.1604
joinder	-12.1605
tant	-12.1607
lk	-12.1608
▁Workers	-12.1609
▁shame	-12.161
▁misappropriat	-12.161
▁ambition	-12.161
▁slum	-12.1615
ubhai	-12.1618
▁Poor	-12.1622
BHA	-12.1626
▁quotation	-12.1626
▁Pancha	-12.1626
GF	-12.1627
▁peril	-12.163
▁vibrant	-12.1641
▁Mirza	-12.1641
▁compact	-12.1641
▁authentication	-12.1642
▁decorated	-12.1643
▁Recently	-12.1647
▁startup	-12.1648
▁fasten	-12.1649
▁scattered	-12.1656
asur	-12.1658
▁geo	-12.1658
▁rhythm	-12.1662
JI	-12.1663
▁eventualit	-12.1664
▁SEC	-12.1667
cil	-12.1668
body	-12.1669
▁gum	-12.1672
jam	-12.1673
▁inch	-12.1674
▁Sarkar	-12.1679
▁capricious	-12.1679
▁immaterial	-12.1679
▁releasing	-12.1679
▁superficial	-12.1679
▁warehouse	-12.1679
▁AIDS	-12.1679
▁HUF	-12.1679
▁surmise	-12.1679
▁cherish	-12.1679
▁leather	-12.1679
▁rectification	-12.1679
▁malice	-12.168
▁burst	-12.168
▁abatement	-12.168
idge	-12.1681
▁Geeta	-12.1682
▁blanket	-12.1683
▁Manju	-12.1684
▁authenticated	-12.1684
▁cars	-12.1684
▁Kach	-12.1685
▁dung	-12.1687
▁hiding	-12.1695
▁Az	-12.1699
wide	-12.1702
▁Peter	-12.1703
▁Jagannatha	-12.1714
mukh	-12.1715
suit	-12.1715
▁vain	-12.1718
▁Democracy	-12.1718
▁incompetent	-12.1718
▁mathematics	-12.1718
▁punitive	-12.1718
▁relatable	-12.1718
▁throne	-12.1718
▁Aviation	-12.1718
▁Meghalaya	-12.1718
▁basket	-12.1718
▁unregistered	-12.1718
▁loving	-12.1719
▁Music	-12.1721
▁Bhagwati	-12.1722
▁rationale	-12.1722
▁wp	-12.1725
▁bowler	-12.1731
▁Legislatures	-12.1732
▁Lt	-12.1735
▁Wage	-12.1737
▁Pet	-12.1737
rug	-12.1742
▁TRAI	-12.1745
▁contacted	-12.1752
▁commissioner	-12.1753
▁authentic	-12.1753
ANCE	-12.1755
mil	-12.1757
▁Convocation	-12.1757
▁LINK	-12.1757
▁Redressal	-12.1757
▁Thousand	-12.1757
▁unaware	-12.1757
▁cosmic	-12.1757
▁historian	-12.1757
▁Channel	-12.1757
▁wildlife	-12.1757
▁Ramalinga	-12.1757
▁encashment	-12.1758
▁vogue	-12.1758
▁fancy	-12.1759
▁fateful	-12.1759
▁Vish	-12.1759
▁stab	-12.176
▁leap	-12.1761
▁Jagannath	-12.1761
▁Governorate	-12.1764
▁suggestive	-12.1764
▁Try	-12.1765
▁presided	-12.1769
▁Jun	-12.1771
▁Custom	-12.1771
ended	-12.1773
▁Less	-12.1774
trans	-12.1777
▁preced	-12.1777
chal	-12.1778
▁Ball	-12.1782
▁Masters	-12.1784
▁Lordship	-12.1788
▁authorise	-12.1789
rak	-12.1791
▁Comm	-12.1791
▁voter	-12.1793
▁permissions	-12.1795
▁Diwan	-12.1795
▁Cotton	-12.1796
▁Ombudsman	-12.1796
▁proclamation	-12.1796
▁puppet	-12.1796
▁respirator	-12.1796
▁credence	-12.1796
▁inhabitants	-12.1796
▁steal	-12.1796
▁Kamlesh	-12.1796
▁adhoc	-12.1796
▁blacklist	-12.1797
gopal	-12.1798
▁PART	-12.1798
▁ancestors	-12.1798
▁Tap	-12.1799
▁orally	-12.18
bag	-12.1801
gai	-12.1802
existent	-12.1802
▁deities	-12.1804
mulating	-12.1804
▁bent	-12.1804
▁affordable	-12.1807
▁circulars	-12.1809
roll	-12.181
▁Nobody	-12.181
▁nominate	-12.1812
east	-12.1813
▁Khata	-12.1821
▁module	-12.1823
▁priest	-12.1823
▁minded	-12.1827
▁resembl	-12.1832
hus	-12.1832
▁ke	-12.1833
▁borrow	-12.1833
▁Reservation	-12.1835
▁TALUK	-12.1835
▁satisfies	-12.1835
▁Vijaya	-12.1836
▁Balance	-12.1837
▁falsehood	-12.1838
▁recoveries	-12.1841
yani	-12.1843
aman	-12.1843
▁precluded	-12.1846
▁periodically	-12.1851
▁Tom	-12.1851
lab	-12.1852
▁Gond	-12.1853
▁Gre	-12.1854
▁parting	-12.1855
▁resign	-12.1856
▁Gyan	-12.1858
OUR	-12.1859
▁recommends	-12.186
▁borrowers	-12.1863
▁preferr	-12.1866
▁condemn	-12.1872
▁flats	-12.1872
▁impair	-12.1873
ette	-12.1874
▁loyal	-12.1874
▁Vidyalaya	-12.1875
▁seventeen	-12.1875
▁Analysis	-12.1875
▁Index	-12.1875
▁circumspection	-12.1875
▁shipping	-12.1875
▁choos	-12.1876
▁wholesale	-12.1876
▁enlarge	-12.1877
▁renewable	-12.1877
▁Sudha	-12.1877
▁Oriental	-12.188
lets	-12.188
▁edible	-12.1881
oca	-12.1881
▁topics	-12.1882
▁ESI	-12.1882
ato	-12.1883
▁tent	-12.1884
▁reliability	-12.1885
▁Pir	-12.1885
▁remit	-12.1888
▁floating	-12.1891
▁scribe	-12.1894
▁seated	-12.1894
▁periodical	-12.1894
▁bliss	-12.1896
iri	-12.1898
EB	-12.1899
▁disturbance	-12.1903
▁preclude	-12.1904
▁inconsistenc	-12.1907
drew	-12.1908
▁Device	-12.1909
▁intervals	-12.191
▁TM	-12.1911
▁Disable	-12.1912
▁meals	-12.1912
▁Microsoft	-12.1914
▁Remote	-12.1914
▁adjudicator	-12.1914
▁escalation	-12.1914
▁flexibility	-12.1914
▁intuitive	-12.1914
▁skeleton	-12.1914
fledged	-12.1914
▁worshipped	-12.1915
▁advent	-12.1915
▁bits	-12.1915
▁fringe	-12.1916
rut	-12.1918
India	-12.1919
▁Pot	-12.192
▁Jat	-12.1921
went	-12.1924
asha	-12.1925
▁tanks	-12.1927
DF	-12.1929
▁seeker	-12.193
▁SHOP	-12.1931
itch	-12.1931
▁strikes	-12.1932
▁Provision	-12.1935
▁quantifi	-12.1937
▁licenses	-12.1938
▁Dispute	-12.1942
▁vivid	-12.1944
▁cleaning	-12.1945
▁Sharan	-12.1952
▁estopp	-12.1953
▁Canadian	-12.1954
▁SIDBI	-12.1954
▁Twenty	-12.1954
▁Undoubted	-12.1954
▁Period	-12.1954
▁unwilling	-12.1954
▁ethnic	-12.1954
▁tragic	-12.1954
▁replies	-12.1954
▁Ghose	-12.1954
▁invasion	-12.1954
▁Hun	-12.1955
▁gear	-12.1956
▁chairman	-12.1956
▁fishing	-12.1958
swami	-12.1959
▁surety	-12.196
▁hail	-12.1962
▁locally	-12.1963
▁Charges	-12.1964
▁installments	-12.1964
▁Rup	-12.1965
▁Anant	-12.1966
▁mount	-12.1966
▁Stage	-12.1969
▁toll	-12.1971
▁agitated	-12.1973
▁Internal	-12.1975
▁Printer	-12.1976
▁PG	-12.1978
Cr	-12.198
▁warming	-12.1981
▁waited	-12.1981
▁MLA	-12.1982
▁expose	-12.1983
▁revise	-12.1983
mur	-12.1985
▁Jati	-12.1986
writing	-12.1986
NI	-12.1987
▁conductor	-12.1989
lysis	-12.1989
▁Highness	-12.1991
RF	-12.1991
ither	-12.1992
▁Domestic	-12.1994
▁Sanctuary	-12.1994
▁precision	-12.1994
▁reluctant	-12.1994
▁Rout	-12.1994
▁dialog	-12.1994
▁racial	-12.1994
oba	-12.1994
ket	-12.1994
▁STATION	-12.1994
▁erect	-12.1994
▁delineat	-12.1995
▁giant	-12.1995
▁shortcut	-12.1995
aughter	-12.1996
▁Anglo	-12.1996
▁tread	-12.1996
▁Hum	-12.1997
▁hatch	-12.1999
▁Munna	-12.2001
dge	-12.2004
▁formality	-12.2008
rect	-12.2009
▁Nobel	-12.2011
▁Flat	-12.2012
▁organis	-12.2012
▁Haz	-12.2013
▁bay	-12.2017
▁wine	-12.2018
▁Remove	-12.203
▁Receipt	-12.2034
▁sophisticated	-12.2034
▁uncertainty	-12.2035
▁confinement	-12.2035
▁Lease	-12.2035
▁Mahi	-12.2035
▁wireless	-12.2036
▁Charas	-12.2037
▁scripts	-12.2039
nit	-12.2041
▁collections	-12.2042
▁Virendra	-12.2046
▁Ramakrishna	-12.2046
crossexamination	-12.2046
▁organize	-12.2049
yar	-12.2049
ayam	-12.2049
▁profitable	-12.205
position	-12.2051
▁emphasise	-12.2051
play	-12.2051
▁Agent	-12.2053
▁Gi	-12.2057
▁sung	-12.2059
▁specifie	-12.2063
▁bite	-12.2072
▁horn	-12.2073
▁Constituency	-12.2074
▁Gobind	-12.2074
▁meditation	-12.2074
▁fortnight	-12.2074
▁usurp	-12.2074
▁Bibi	-12.2075
▁Lawyer	-12.2075
▁oppression	-12.2075
▁informal	-12.2076
▁Mes	-12.2076
▁Tikl	-12.2077
▁ROM	-12.2078
▁kidnapping	-12.2081
▁LIC	-12.2084
▁cries	-12.2089
media	-12.2089
class	-12.2093
▁peer	-12.2094
▁influences	-12.2094
▁germ	-12.2094
shak	-12.2094
rol	-12.2097
▁Sap	-12.2097
▁chill	-12.2097
DVAT	-12.2098
IMS	-12.2098
▁anchor	-12.2099
▁exported	-12.21
chh	-12.2101
▁Beg	-12.2104
▁Parent	-12.2104
▁invoice	-12.2104
▁clubs	-12.2109
▁Hydro	-12.2109
▁delighted	-12.211
title	-12.2112
▁confront	-12.2113
▁exhaust	-12.2114
▁criterion	-12.2114
▁fluctuat	-12.2114
▁Always	-12.2114
▁warrior	-12.2114
RANAB	-12.2114
▁polity	-12.2114
▁toxic	-12.2115
▁macro	-12.2115
▁Malkhana	-12.2116
▁telegraph	-12.2117
▁theories	-12.2117
ukh	-12.2118
▁Email	-12.2118
▁coach	-12.2119
▁tales	-12.2119
▁prone	-12.2119
▁Guide	-12.2121
nder	-12.2122
itt	-12.2123
Bank	-12.2123
▁Stop	-12.2123
▁Mahajan	-12.2124
▁Tola	-12.2124
▁Qa	-12.2127
▁Languages	-12.2128
▁curse	-12.2128
▁sculptures	-12.2129
tention	-12.213
▁perpetrator	-12.2133
▁merg	-12.2134
istan	-12.2134
▁dispossessed	-12.214
mt	-12.2145
▁deliberation	-12.2145
▁oceans	-12.2146
▁SELECT	-12.215
ado	-12.215
▁Crore	-12.215
GP	-12.2151
▁lights	-12.2153
lore	-12.2154
▁relieve	-12.2154
▁erected	-12.2154
▁tranquil	-12.2155
▁conjoint	-12.2155
▁efficacious	-12.2155
▁pharmaceutical	-12.2155
▁scream	-12.2155
▁balancing	-12.2155
▁bicycle	-12.2155
▁prophet	-12.2155
▁temporal	-12.2155
▁Mountain	-12.2155
▁proposing	-12.2155
▁Commodities	-12.2155
▁MANU	-12.2155
▁spontaneous	-12.2158
▁reputed	-12.2159
▁Develop	-12.2159
mount	-12.2162
▁spinal	-12.2163
▁letting	-12.2164
▁Suri	-12.2172
gas	-12.2179
▁tier	-12.218
▁translations	-12.2183
▁bug	-12.2183
eel	-12.2184
▁essay	-12.2186
▁Abhi	-12.2186
▁Asha	-12.2189
▁saints	-12.219
▁Sonu	-12.2191
HM	-12.2195
▁Dominion	-12.2195
▁Michael	-12.2195
▁acknowledgment	-12.2195
▁deceptive	-12.2195
▁funeral	-12.2195
▁DVD	-12.2195
▁Travel	-12.2195
▁hesitate	-12.2195
▁delta	-12.2195
▁Sanction	-12.2196
▁republic	-12.2196
▁disturbing	-12.2197
▁attestation	-12.2198
▁carpet	-12.2198
▁Eight	-12.2199
▁Games	-12.2201
▁grid	-12.2202
▁organiz	-12.2206
debtor	-12.2206
▁frustrated	-12.2211
▁Ganja	-12.2215
▁researchers	-12.2216
▁Base	-12.2217
▁meanings	-12.2217
guru	-12.2219
▁descend	-12.2219
▁greatness	-12.2225
▁cadres	-12.2229
▁Varun	-12.223
▁Abhishek	-12.2236
▁Gorakhpur	-12.2236
▁Independent	-12.2236
▁Template	-12.2236
▁cultivating	-12.2236
▁deponent	-12.2236
▁scuffle	-12.2236
▁adverted	-12.2236
▁forcible	-12.2236
▁Relations	-12.2236
▁Baroda	-12.2238
enu	-12.2239
▁advisory	-12.2239
▁Purusha	-12.224
ducted	-12.224
▁Italy	-12.224
entrepreneurship	-12.2242
▁protective	-12.2247
arna	-12.2248
▁PPP	-12.225
▁Advanced	-12.2252
▁Kavi	-12.2252
▁kin	-12.2252
▁retreat	-12.2254
llo	-12.2256
▁Minor	-12.2256
▁Taxation	-12.2259
▁Ut	-12.2265
anu	-12.2267
▁pretend	-12.227
▁Amb	-12.2271
▁Seva	-12.2273
officio	-12.2274
▁oneness	-12.2274
akka	-12.2274
▁trespass	-12.2276
▁analyzing	-12.2277
▁insolvency	-12.2277
▁immune	-12.2277
▁dialect	-12.2277
▁Belarus	-12.2277
▁DTAA	-12.2277
▁Resultant	-12.2278
▁dental	-12.2278
bad	-12.2279
▁orange	-12.2279
curring	-12.228
unk	-12.228
▁methodology	-12.228
▁Bhadra	-12.2281
▁ft	-12.2282
▁encouragement	-12.2283
▁Ghat	-12.2284
▁Nas	-12.2287
ility	-12.2288
▁Tur	-12.229
▁slide	-12.229
top	-12.2291
otic	-12.2299
▁PCR	-12.2303
pec	-12.2306
▁Magistrates	-12.2308
▁forever	-12.2309
pod	-12.2312
hod	-12.2317
▁subscriber	-12.2317
tab	-12.2318
▁horizon	-12.2318
▁Alternative	-12.2318
▁Jubilee	-12.2318
▁contributing	-12.2318
▁corollary	-12.2318
▁emoluments	-12.2318
▁miracle	-12.2318
▁miserably	-12.2318
▁rickshaw	-12.2318
▁KUMAR	-12.2318
▁discernible	-12.2318
▁cheek	-12.2318
▁TDS	-12.2319
▁acquaintance	-12.2319
ilal	-12.2319
▁knock	-12.232
▁Fax	-12.2321
▁teams	-12.2322
inus	-12.2322
▁stigma	-12.2323
▁Amba	-12.2328
▁enlightened	-12.2331
▁landmark	-12.2331
▁Dur	-12.2332
▁amply	-12.2337
▁Via	-12.2338
▁gases	-12.234
▁electronics	-12.2343
▁TIP	-12.2345
[...]
