<unk>	0
<s>	0
</s>	0
UuRrLl	0
DdAaTtEe	0
NnUuMm	0
▁t	-0
▁a	-1
he	-2
in	-3
▁the	-4
▁o	-5
▁s	-6
re	-7
on	-8
er	-9
▁c	-10
at	-11
en	-12
is	-13
▁p	-14
▁w	-15
▁of	-16
▁.	-17
▁b	-18
it	-19
▁,	-20
▁in	-21
an	-22
▁f	-23
▁an	-24
es	-25
▁m	-26
al	-27
ed	-28
or	-29
ar	-30
ion	-31
▁d	-32
▁to	-33
ing	-34
ou	-35
▁and	-36
▁h	-37
ic	-38
as	-39
▁l	-40
ent	-41
▁n	-42
ro	-43
▁th	-44
▁re	-45
▁e	-46
ct	-47
le	-48
▁g	-49
▁be	-50
os	-51
om	-52
il	-53
▁is	-54
ve	-55
ation	-56
us	-57
ut	-58
ra	-59
ot	-60
id	-61
im	-62
ce	-63
▁for	-64
ur	-65
un	-66
ap	-67
▁&	-68
ly	-69
▁on	-70
et	-71
▁as	-72
▁it	-73
ver	-74
▁st	-75
ment	-76
▁-	-77
▁pro	-78
▁con	-79
ad	-80
ol	-81
▁he	-82
▁or	-83
ch	-84
ay	-85
▁wh	-86
▁that	-87
ig	-88
▁de	-89
ow	-90
st	-91
ir	-92
am	-93
ul	-94
▁y	-95
▁al	-96
apos	-97
▁su	-98
if	-99
ith	-100
▁v	-101
▁com	-102
ter	-103
el	-104
ri	-105
▁with	-106
ate	-107
ect	-108
ess	-109
ab	-110
▁k	-111
ge	-112
her	-113
▁by	-114
▁ind	-115
▁r	-116
▁un	-117
res	-118
▁ex	-119
▁)	-120
▁(	-121
ers	-122
▁this	-123
▁are	-124
qu	-125
▁was	-126
ist	-127
▁sh	-128
▁we	-129
od	-130
oun	-131
▁not	-132
ld	-133
our	-134
ity	-135
ak	-136
and	-137
▁ch	-138
op	-139
▁j	-140
ill	-141
▁at	-142
se	-143
iv	-144
▁se	-145
ain	-146
est	-147
ia	-148
ci	-149
um	-150
ant	-151
em	-152
▁i	-153
▁ha	-154
ive	-155
th	-156
pp	-157
▁ne	-158
ich	-159
rom	-160
red	-161
art	-162
▁go	-163
▁which	-164
ies	-165
end	-166
ht	-167
ort	-168
▁from	-169
ac	-170
ore	-171
▁his	-172
ud	-173
der	-174
▁has	-175
all	-176
ure	-177
▁have	-178
ust	-179
▁so	-180
ould	-181
▁sp	-182
▁le	-183
▁all	-184
▁you	-185
ous	-186
▁wor	-187
ther	-188
ard	-189
▁ad	-190
▁en	-191
ions	-192
▁ac	-193
▁:	-194
▁whe	-195
▁comp	-196
ren	-197
▁im	-198
▁pl	-199
▁int	-200
ind	-201
up	-202
ag	-203
▁us	-204
▁india	-205
age	-206
▁act	-207
ome	-208
▁can	-209
▁ab	-210
ated	-211
▁comm	-212
▁ar	-213
▁but	-214
▁there	-215
ight	-216
ry	-217
ount	-218
▁me	-219
▁man	-220
▁app	-221
ice	-222
ance	-223
ans	-224
▁any	-225
▁dis	-226
able	-227
ary	-228
▁res	-229
▁cont	-230
so	-231
ical	-232
ence	-233
pt	-234
▁per	-235
▁do	-236
ide	-237
▁am	-238
ult	-239
▁ra	-240
▁pres	-241
ast	-242
▁under	-243
▁one	-244
▁other	-245
▁inc	-246
▁ag	-247
oug	-248
▁part	-249
▁its	-250
▁they	-251
▁their	-252
▁will	-253
per	-254
ear	-255
og	-256
ff	-257
ie	-258
ell	-259
pl	-260
ong	-261
ial	-262
ish	-263
ru	-264
oc	-265
▁cl	-266
ib	-267
▁been	-268
ost	-269
out	-270
act	-271
▁up	-272
du	-273
▁no	-274
▁also	-275
vel	-276
av	-277
ations	-278
▁;	-279
ik	-280
ame	-281
▁tim	-282
ip	-283
▁imp	-284
▁if	-285
ine	-286
▁who	-287
▁had	-288
iz	-289
▁sub	-290
ok	-291
▁acc	-292
▁prov	-293
rit	-294
vern	-295
ang	-296
▁out	-297
▁off	-298
▁cour	-299
ase	-300
ection	-301
▁such	-302
▁govern	-303
ound	-304
▁pe	-305
lic	-306
orm	-307
very	-308
ian	-309
▁pr	-310
▁/	-311
ee	-312
▁were	-313
ire	-314
▁our	-315
ally	-316
▁”	-317
▁te	-318
▁may	-319
ub	-320
▁tr	-321
ition	-322
ose	-323
sion	-324
▁rel	-325
ident	-326
▁sa	-327
▁year	-328
one	-329
▁sc	-330
▁pre	-331
▁qu	-332
ach	-333
ough	-334
▁“	-335
ake	-336
▁ev	-337
ction	-338
ail	-339
erv	-340
ber	-341
ign	-342
ue	-343
▁court	-344
cess	-345
▁state	-346
▁pers	-347
ree	-348
▁them	-349
ass	-350
▁cons	-351
▁reg	-352
▁la	-353
ater	-354
aus	-355
▁rep	-356
ace	-357
ory	-358
ational	-359
▁government	-360
▁when	-361
▁em	-362
▁him	-363
cial	-364
▁time	-365
▁inf	-366
▁these	-367
▁work	-368
▁af	-369
▁new	-370
▁po	-371
ution	-372
ious	-373
▁pol	-374
▁cent	-375
▁tw	-376
▁tra	-377
now	-378
stit	-379
ord	-380
▁some	-381
▁rec	-382
▁spe	-383
▁ass	-384
ings	-385
▁mar	-386
▁more	-387
ress	-388
are	-389
ities	-390
fe	-391
▁peop	-392
▁bec	-393
ces	-394
▁person	-395
ile	-396
▁ro	-397
tern	-398
ath	-399
ike	-400
▁?	-401
▁people	-402
ade	-403
▁count	-404
▁should	-405
ack	-406
▁only	-407
▁lo	-408
hed	-409
ric	-410
▁would	-411
▁min	-412
rib	-413
ens	-414
▁exp	-415
▁gr	-416
reat	-417
▁sy	-418
itt	-419
▁%	-420
▁your	-421
▁co	-422
▁know	-423
▁ma	-424
▁like	-425
▁about	-426
ays	-427
ram	-428
▁over	-429
ject	-430
int	-431
▁hig	-432
ild	-433
ause	-434
ments	-435
con	-436
velop	-437
ual	-438
low	-439
▁form	-440
▁into	-441
▁develop	-442
▁bo	-443
ite	-444
ates	-445
▁fe	-446
lect	-447
elf	-448
▁after	-449
ied	-450
▁two	-451
▁what	-452
ank	-453
uc	-454
▁my	-455
▁dec	-456
▁ob	-457
ife	-458
ise	-459
▁fir	-460
feren	-461
ific	-462
row	-463
▁col	-464
me	-465
fore	-466
▁trans	-467
amp	-468
ced	-469
▁mo	-470
▁made	-471
▁gen	-472
▁law	-473
▁ent	-474
ert	-475
▁her	-476
▁serv	-477
▁att	-478
▁shall	-479
▁dep	-480
▁’	-481
▁how	-482
▁indian	-483
▁rem	-484
▁where	-485
▁resp	-486
▁pub	-487
▁par	-488
▁thr	-489
▁inv	-490
ha	-491
ative	-492
▁des	-493
te	-494
▁bet	-495
ward	-496
▁than	-497
▁president	-498
▁ref	-499
▁ter	-500
ism	-501
ating	-502
ood	-503
vers	-504
▁br	-505
led	-506
▁being	-507
▁dif	-508
ph	-509
▁produ	-510
▁ed	-511
ors	-512
▁section	-513
har	-514
▁just	-515
▁ins	-516
cy	-517
▁through	-518
▁mem	-519
▁aut	-520
ful	-521
▁she	-522
▁first	-523
▁life	-524
▁right	-525
we	-526
hi	-527
wn	-528
▁eff	-529
▁said	-530
ular	-531
▁world	-532
ness	-533
ission	-534
ep	-535
ower	-536
uring	-537
▁set	-538
quot	-539
▁pos	-540
ug	-541
ty	-542
▁op	-543
▁ph	-544
▁jud	-545
▁dist	-546
▁pur	-547
▁fun	-548
min	-549
oy	-550
gan	-551
▁again	-552
▁bl	-553
▁add	-554
▁country	-555
▁years	-556
▁high	-557
▁pra	-558
▁even	-559
▁national	-560
▁bas	-561
▁well	-562
stem	-563
ning	-564
ds	-565
ink	-566
▁could	-567
olog	-568
als	-569
gt	-570
▁gener	-571
lud	-572
▁fol	-573
ible	-574
▁char	-575
▁fin	-576
▁very	-577
ility	-578
▁system	-579
▁then	-580
▁many	-581
▁prog	-582
ural	-583
pe	-584
▁public	-585
ved	-586
cept	-587
ble	-588
▁mat	-589
ange	-590
▁inte	-591
its	-592
▁cap	-593
▁num	-594
ents	-595
▁day	-596
ict	-597
▁call	-598
ons	-599
▁need	-600
▁get	-601
ature	-602
▁mu	-603
ft	-604
ati	-605
▁ext	-606
▁now	-607
▁sec	-608
▁art	-609
▁good	-610
▁every	-611
▁sm	-612
lt	-613
ices	-614
▁before	-615
▁must	-616
oth	-617
▁ear	-618
▁mon	-619
▁dire	-620
ral	-621
ision	-622
▁supp	-623
▁provid	-624
▁mus	-625
▁giv	-626
▁case	-627
urn	-628
▁development	-629
▁val	-630
▁child	-631
rest	-632
▁writ	-633
▁var	-634
▁ben	-635
other	-636
▁import	-637
ited	-638
▁requ	-639
▁leg	-640
▁most	-641
▁adv	-642
▁hind	-643
▁inst	-644
les	-645
aking	-646
▁del	-647
▁mod	-648
ween	-649
▁see	-650
▁gu	-651
▁includ	-652
▁between	-653
▁bh	-654
▁inform	-655
▁def	-656
eth	-657
old	-658
hip	-659
▁eng	-660
man	-661
▁used	-662
iew	-663
▁make	-664
ised	-665
▁use	-666
stitut	-667
ily	-668
ax	-669
ms	-670
▁inter	-671
▁during	-672
▁car	-673
▁indust	-674
ures	-675
▁differen	-676
▁offic	-677
ving	-678
chn	-679
▁long	-680
▁organ	-681
▁educ	-682
▁power	-683
▁med	-684
own	-685
ters	-686
air	-687
▁end	-688
▁fl	-689
▁cor	-690
▁own	-691
ix	-692
hor	-693
▁hel	-694
▁lar	-695
▁bank	-696
▁great	-697
ries	-698
stitution	-699
ital	-700
▁av	-701
▁hum	-702
ages	-703
▁sur	-704
ks	-705
▁conf	-706
▁equ	-707
▁techn	-708
▁because	-709
▁&#	-710
ody	-711
▁process	-712
▁direct	-713
▁way	-714
▁follow	-715
ket	-716
cc	-717
▁conc	-718
arm	-719
▁here	-720
▁account	-721
▁dem	-722
ys	-723
hes	-724
ought	-725
▁disc	-726
iness	-727
▁bu	-728
app	-729
▁same	-730
▁compan	-731
▁order	-732
▁uni	-733
▁main	-734
ouse	-735
▁number	-736
▁stud	-737
▁bus	-738
▁fore	-739
ob	-740
▁author	-741
ality	-742
ern	-743
▁take	-744
▁let	-745
conom	-746
▁ret	-747
▁det	-748
xt	-749
ya	-750
▁information	-751
ished	-752
▁those	-753
ety	-754
ruct	-755
▁fact	-756
▁back	-757
▁present	-758
▁sing	-759
▁place	-760
▁pass	-761
▁fam	-762
▁econom	-763
ten	-764
▁est	-765
▁help	-766
▁partic	-767
ered	-768
▁bel	-769
▁commission	-770
▁loc	-771
ond	-772
ted	-773
▁did	-774
▁div	-775
▁lead	-776
pos	-777
▁hand	-778
han	-779
▁against	-780
ting	-781
lim	-782
alth	-783
ash	-784
▁both	-785
▁interest	-786
angu	-787
▁cert	-788
▁program	-789
iod	-790
bers	-791
▁som	-792
▁intern	-793
ts	-794
▁water	-795
▁trad	-796
ple	-797
ention	-798
ration	-799
▁found	-800
ics	-801
▁occ	-802
▁langu	-803
▁sim	-804
▁polic	-805
▁period	-806
ified	-807
▁iss	-808
▁pay	-809
▁commun	-810
▁different	-811
▁name	-812
▁che	-813
ired	-814
▁rev	-815
▁three	-816
▁appro	-817
day	-818
▁prof	-819
ever	-820
rol	-821
arch	-822
▁grow	-823
▁tak	-824
▁aff	-825
ives	-826
▁while	-827
▁dev	-828
▁down	-829
ata	-830
▁wom	-831
get	-832
ick	-833
▁gl	-834
▁start	-835
▁applic	-836
ants	-837
ases	-838
ared	-839
ology	-840
▁pri	-841
way	-842
ah	-843
▁cre	-844
lish	-845
▁cr	-846
▁effect	-847
▁sche	-848
gg	-849
▁does	-850
ists	-851
tc	-852
▁income	-853
▁sect	-854
▁comple	-855
▁each	-856
▁house	-857
▁str	-858
pre	-859
▁central	-860
▁rece	-861
▁states	-862
▁human	-863
ale	-864
ey	-865
▁sch	-866
▁education	-867
▁called	-868
oup	-869
ency	-870
inal	-871
ained	-872
▁view	-873
ull	-874
▁gre	-875
ploy	-876
▁stand	-877
▁vis	-878
▁given	-879
▁oper	-880
▁prev	-881
▁contin	-882
ather	-883
ges	-884
▁cond	-885
▁committ	-886
▁open	-887
▁ser	-888
▁cro	-889
▁social	-890
▁small	-891
▁&#9	-892
▁spec	-893
▁soci	-894
ues	-895
ron	-896
▁respect	-897
▁ty	-898
▁book	-899
▁gra	-900
▁etc	-901
▁without	-902
▁report	-903
ister	-904
▁institut	-905
▁look	-906
▁read	-907
▁univers	-908
ner	-909
▁tem	-910
na	-911
ck	-912
rb	-913
read	-914
▁fac	-915
▁poss	-916
▁business	-917
iss	-918
ana	-919
ief	-920
▁invest	-921
▁much	-922
▁war	-923
erg	-924
ma	-925
▁prot	-926
▁service	-927
▁group	-928
oint	-929
ince	-930
▁coun	-931
▁cur	-932
▁important	-933
▁assess	-934
form	-935
▁opp	-936
▁sci	-937
▁another	-938
▁want	-939
less	-940
▁elect	-941
not	-942
▁‘	-943
▁lit	-944
ave	-945
ined	-946
▁sign	-947
▁fil	-948
ute	-949
▁means	-950
▁accord	-951
▁list	-952
▁amount	-953
ceed	-954
▁however	-955
▁cult	-956
▁proper	-957
lement	-958
▁polit	-959
ually	-960
▁within	-961
▁pa	-962
▁company	-963
ef	-964
ici	-965
iel	-966
▁employ	-967
▁proble	-968
▁body	-969
▁avail	-970
▁di	-971
▁air	-972
▁lim	-973
▁last	-974
ves	-975
▁cle	-976
▁relig	-977
▁sou	-978
isions	-979
▁come	-980
▁net	-981
▁sw	-982
▁policy	-983
▁play	-984
▁ve	-985
▁dr	-986
ove	-987
▁quest	-988
▁incre	-989
▁land	-990
▁point	-991
▁members	-992
▁support	-993
ool	-994
▁constitution	-995
▁health	-996
▁suc	-997
▁various	-998
▁ide	-999
▁z	-1000
▁prom	-1001
▁non	-1002
▁times	-1003
ov	-1004
▁exper	-1005
ider	-1006
▁god	-1007
▁language	-1008
wards	-1009
ived	-1010
▁isl	-1011
ines	-1012
▁rul	-1013
ars	-1014
rent	-1015
▁control	-1016
ract	-1017
▁plan	-1018
▁x	-1019
▁large	-1020
▁move	-1021
▁ple	-1022
▁vi	-1023
▁general	-1024
▁happ	-1025
wor	-1026
▁say	-1027
▁tax	-1028
ized	-1029
▁artic	-1030
med	-1031
crib	-1032
▁..	-1033
ror	-1034
▁ir	-1035
▁show	-1036
▁allow	-1037
▁raj	-1038
▁think	-1039
▁wind	-1040
ier	-1041
pr	-1042
▁special	-1043
ected	-1044
▁real	-1045
▁activ	-1046
▁muslim	-1047
▁four	-1048
▁project	-1049
▁cal	-1050
▁expl	-1051
por	-1052
▁today	-1053
▁level	-1054
ll	-1055
self	-1056
esh	-1057
▁services	-1058
ains	-1059
▁hist	-1060
▁taken	-1061
▁bro	-1062
reed	-1063
▁prin	-1064
ime	-1065
▁shri	-1066
▁maj	-1067
▁dra	-1068
▁estab	-1069
▁among	-1070
▁0	-1071
▁cannot	-1072
▁provided	-1073
▁sol	-1074
▁depart	-1075
▁meet	-1076
▁mind	-1077
▁children	-1078
▁ut	-1079
ways	-1080
hen	-1081
▁sit	-1082
▁known	-1083
▁ur	-1084
▁reas	-1085
▁result	-1086
ended	-1087
▁!	-1088
asht	-1089
▁find	-1090
ense	-1091
▁rest	-1092
▁product	-1093
▁pop	-1094
▁secon	-1095
▁fur	-1096
ss	-1097
▁tri	-1098
▁...	-1099
ination	-1100
▁parl	-1101
arn	-1102
ulation	-1103
ically	-1104
erred	-1105
▁poet	-1106
und	-1107
▁class	-1108
▁sat	-1109
▁fri	-1110
▁ii	-1111
▁cong	-1112
▁month	-1113
▁common	-1114
▁ann	-1115
▁head	-1116
▁subject	-1117
eep	-1118
ances	-1119
itions	-1120
ium	-1121
stand	-1122
▁parlia	-1123
▁self	-1124
▁supre	-1125
ize	-1126
▁old	-1127
▁rese	-1128
▁parliament	-1129
▁going	-1130
mb	-1131
ked	-1132
▁days	-1133
▁death	-1134
aj	-1135
ining	-1136
▁beh	-1137
gal	-1138
▁pract	-1139
rap	-1140
ivid	-1141
▁market	-1142
ething	-1143
▁nor	-1144
▁comput	-1145
▁free	-1146
▁men	-1147
▁give	-1148
ization	-1149
▁met	-1150
▁sk	-1151
▁supreme	-1152
▁something	-1153
▁pat	-1154
ged	-1155
▁admin	-1156
▁second	-1157
rict	-1158
▁society	-1159
▁less	-1160
▁bra	-1161
▁necess	-1162
bs	-1163
cut	-1164
▁pun	-1165
▁women	-1166
▁certain	-1167
▁bill	-1168
▁er	-1169
▁conn	-1170
▁due	-1171
▁economic	-1172
ends	-1173
▁further	-1174
par	-1175
▁cost	-1176
▁pen	-1177
ledge	-1178
▁particular	-1179
▁ver	-1180
▁available	-1181
▁civ	-1182
▁finan	-1183
ession	-1184
ger	-1185
lished	-1186
▁far	-1187
▁action	-1188
▁ri	-1189
▁exist	-1190
▁justice	-1191
cil	-1192
tal	-1193
ential	-1194
orts	-1195
omm	-1196
ari	-1197
atic	-1198
▁whether	-1199
▁nature	-1200
▁school	-1201
▁success	-1202
ued	-1203
▁env	-1204
ately	-1205
▁ele	-1206
▁international	-1207
▁ce	-1208
▁u	-1209
▁{	-1210
ased	-1211
▁}	-1212
▁—	-1213
cl	-1214
▁capital	-1215
▁accept	-1216
ven	-1217
ability	-1218
▁consider	-1219
ins	-1220
▁countries	-1221
▁food	-1222
section	-1223
ark	-1224
▁regard	-1225
onment	-1226
ai	-1227
▁civil	-1228
▁family	-1229
isation	-1230
ising	-1231
▁brit	-1232
ither	-1233
eal	-1234
▁administ	-1235
▁care	-1236
▁rs	-1237
▁sent	-1238
▁liter	-1239
▁major	-1240
▁put	-1241
▁area	-1242
ees	-1243
work	-1244
ock	-1245
▁came	-1246
▁object	-1247
▁individ	-1248
▁vill	-1249
▁provisions	-1250
ification	-1251
▁change	-1252
▁foreign	-1253
ided	-1254
▁too	-1255
▁knowledge	-1256
▁build	-1257
▁become	-1258
ret	-1259
▁cases	-1260
ference	-1261
▁including	-1262
▁chang	-1263
▁cir	-1264
▁political	-1265
▁technology	-1266
▁mil	-1267
ator	-1268
alf	-1269
▁whole	-1270
pect	-1271
▁gand	-1272
▁sl	-1273
▁committee	-1274
▁bi	-1275
ode	-1276
▁matter	-1277
cu	-1278
▁el	-1279
▁bir	-1280
▁individual	-1281
▁since	-1282
avan	-1283
▁therefore	-1284
oss	-1285
▁princi	-1286
▁respons	-1287
▁address	-1288
ury	-1289
▁const	-1290
▁charact	-1291
isl	-1292
▁spir	-1293
▁fund	-1294
▁minister	-1295
▁based	-1296
▁upon	-1297
▁done	-1298
▁window	-1299
ling	-1300
▁value	-1301
oney	-1302
▁research	-1303
▁according	-1304
▁repres	-1305
▁init	-1306
▁benef	-1307
ateg	-1308
▁trib	-1309
▁legisl	-1310
▁courts	-1311
▁areas	-1312
▁council	-1313
▁keep	-1314
▁having	-1315
ala	-1316
ides	-1317
▁best	-1318
▁application	-1319
cing	-1320
▁date	-1321
▁islam	-1322
▁data	-1323
▁secur	-1324
▁rele	-1325
▁provide	-1326
uty	-1327
olution	-1328
▁bar	-1329
▁post	-1330
▁manage	-1331
▁eas	-1332
ortun	-1333
▁five	-1334
ering	-1335
ructure	-1336
ta	-1337
otion	-1338
▁left	-1339
▁mah	-1340
gr	-1341
▁question	-1342
▁ach	-1343
▁scheme	-1344
ield	-1345
▁mill	-1346
▁lab	-1347
ption	-1348
orn	-1349
idence	-1350
▁run	-1351
▁region	-1352
▁sector	-1353
▁office	-1354
ently	-1355
▁orig	-1356
▁youn	-1357
▁tal	-1358
▁don	-1359
▁later	-1360
▁delhi	-1361
▁financial	-1362
ternal	-1363
▁nat	-1364
▁stat	-1365
aim	-1366
▁making	-1367
▁record	-1368
▁spirit	-1369
▁authority	-1370
ieve	-1371
sel	-1372
▁thus	-1373
osed	-1374
▁full	-1375
▁words	-1376
▁always	-1377
ify	-1378
▁union	-1379
▁fail	-1380
ending	-1381
icial	-1382
pose	-1383
▁industry	-1384
▁singh	-1385
▁light	-1386
▁thir	-1387
▁ren	-1388
▁home	-1389
▁away	-1390
ilities	-1391
▁concern	-1392
▁still	-1393
▁pet	-1394
▁mess	-1395
▁mater	-1396
▁article	-1397
▁following	-1398
▁beg	-1399
▁money	-1400
▁department	-1401
▁bal	-1402
▁few	-1403
cies	-1404
▁mult	-1405
▁sever	-1406
▁age	-1407
ples	-1408
▁conv	-1409
mes	-1410
▁hindi	-1411
soci	-1412
duct	-1413
▁reason	-1414
▁though	-1415
▁british	-1416
▁cred	-1417
eric	-1418
▁mean	-1419
▁necessary	-1420
▁never	-1421
az	-1422
▁sal	-1423
icult	-1424
▁exam	-1425
▁heart	-1426
ule	-1427
▁held	-1428
▁english	-1429
port	-1430
▁impro	-1431
▁bhavan	-1432
ems	-1433
▁agric	-1434
▁kind	-1435
▁dom	-1436
▁king	-1437
▁_	-1438
put	-1439
▁agricult	-1440
aining	-1441
▁priv	-1442
▁associ	-1443
▁total	-1444
▁proceed	-1445
epend	-1446
ogn	-1447
▁ord	-1448
▁pan	-1449
ote	-1450
▁envir	-1451
▁proced	-1452
▁litt	-1453
▁rasht	-1454
▁persons	-1455
▁tre	-1456
▁diff	-1457
▁thought	-1458
▁love	-1459
ured	-1460
▁bengal	-1461
▁growth	-1462
ards	-1463
▁chief	-1464
uss	-1465
▁short	-1466
▁meas	-1467
▁inn	-1468
▁gandhi	-1469
▁transf	-1470
▁things	-1471
ences	-1472
▁judge	-1473
▁university	-1474
▁marri	-1475
▁local	-1476
▁deal	-1477
▁feel	-1478
▁perform	-1479
▁return	-1480
▁several	-1481
▁little	-1482
▁required	-1483
▁hindu	-1484
▁party	-1485
eration	-1486
aug	-1487
raph	-1488
▁bre	-1489
▁ram	-1490
▁circ	-1491
▁es	-1492
▁independ	-1493
▁mr	-1494
▁clause	-1495
▁contrib	-1496
▁above	-1497
▁environment	-1498
hing	-1499
▁sum	-1500
▁rights	-1501
▁clear	-1502
ories	-1503
▁force	-1504
▁young	-1505
ior	-1506
▁six	-1507
▁possible	-1508
ps	-1509
rapati	-1510
▁colle	-1511
▁rules	-1512
▁obs	-1513
▁fa	-1514
▁tru	-1515
▁file	-1516
ands	-1517
▁himself	-1518
▁hy	-1519
▁cust	-1520
ope	-1521
▁pal	-1522
idd	-1523
▁management	-1524
▁others	-1525
thing	-1526
▁function	-1527
▁mag	-1528
oura	-1529
uro	-1530
▁relations	-1531
▁suff	-1532
▁treat	-1533
▁dise	-1534
▁rashtrapati	-1535
▁official	-1536
▁history	-1537
▁towards	-1538
▁ident	-1539
▁regist	-1540
▁situ	-1541
▁once	-1542
▁americ	-1543
▁propos	-1544
▁purpose	-1545
ti	-1546
iction	-1547
▁related	-1548
ience	-1549
▁occas	-1550
▁position	-1551
▁resour	-1552
▁congress	-1553
▁recomm	-1554
▁type	-1555
sh	-1556
▁itself	-1557
▁red	-1558
▁phys	-1559
▁lib	-1560
▁turn	-1561
▁decl	-1562
iving	-1563
▁quality	-1564
▁plac	-1565
▁production	-1566
▁officer	-1567
▁material	-1568
▁represent	-1569
▁plant	-1570
cribed	-1571
ats	-1572
ware	-1573
▁near	-1574
▁character	-1575
▁ten	-1576
▁mor	-1577
▁har	-1578
ew	-1579
ises	-1580
▁around	-1581
itation	-1582
▁external	-1583
▁security	-1584
▁enc	-1585
▁member	-1586
▁stren	-1587
▁assist	-1588
▁agree	-1589
▁opportun	-1590
▁hard	-1591
rial	-1592
▁rate	-1593
▁district	-1594
▁appoint	-1595
▁infl	-1596
▁why	-1597
cious	-1598
▁deter	-1599
▁higher	-1600
▁understand	-1601
▁rad	-1602
▁minist	-1603
umb	-1604
ibility	-1605
▁progress	-1606
1;	-1607
▁&#91;	-1608
▁test	-1609
▁mother	-1610
▁nation	-1611
▁press	-1612
ery	-1613
▁next	-1614
▁complete	-1615
▁jo	-1616
▁claim	-1617
▁property	-1618
▁along	-1619
▁access	-1620
used	-1621
que	-1622
▁either	-1623
akes	-1624
▁commer	-1625
ication	-1626
▁course	-1627
▁working	-1628
ively	-1629
▁li	-1630
▁institutions	-1631
▁key	-1632
▁super	-1633
▁meth	-1634
▁rrb	-1635
▁san	-1636
▁deb	-1637
▁freed	-1638
aw	-1639
▁webs	-1640
▁mal	-1641
▁abs	-1642
▁mad	-1643
ready	-1644
▁cell	-1645
▁already	-1646
▁ens	-1647
▁network	-1648
3;	-1649
▁&#93;	-1650
▁recogn	-1651
▁anim	-1652
▁difficult	-1653
▁ke	-1654
▁addition	-1655
▁invol	-1656
▁cop	-1657
▁referred	-1658
king	-1659
▁fut	-1660
▁took	-1661
akh	-1662
▁flow	-1663
▁cit	-1664
▁south	-1665
af	-1666
▁docu	-1667
jee	-1668
of	-1669
ann	-1670
▁computer	-1671
▁industrial	-1672
▁ground	-1673
mitt	-1674
▁ey	-1675
▁activities	-1676
▁programme	-1677
▁muk	-1678
▁caus	-1679
▁training	-1680
ample	-1681
▁freedom	-1682
aint	-1683
▁port	-1684
here	-1685
▁vol	-1686
▁top	-1687
▁method	-1688
fact	-1689
att	-1690
▁bring	-1691
▁text	-1692
▁implement	-1693
▁visit	-1694
▁exe	-1695
▁sugg	-1696
▁better	-1697
selves	-1698
▁aud	-1699
▁ess	-1700
▁suggest	-1701
▁select	-1702
osp	-1703
ony	-1704
▁energ	-1705
▁occasion	-1706
▁learn	-1707
▁able	-1708
most	-1709
▁lrb	-1710
▁link	-1711
igation	-1712
hy	-1713
▁trade	-1714
▁side	-1715
▁ill	-1716
▁rule	-1717
▁might	-1718
▁conduct	-1719
▁judicial	-1720
ji	-1721
▁prad	-1722
▁equal	-1723
▁website	-1724
▁modern	-1725
ara	-1726
gth	-1727
▁problem	-1728
ably	-1729
▁big	-1730
▁movement	-1731
▁received	-1732
▁legal	-1733
▁board	-1734
▁cause	-1735
▁detail	-1736
ets	-1737
▁crim	-1738
▁sour	-1739
▁farm	-1740
▁goods	-1741
▁step	-1742
▁glob	-1743
▁seen	-1744
▁pap	-1745
▁design	-1746
erc	-1747
▁strong	-1748
▁secret	-1749
▁term	-1750
▁sun	-1751
▁norm	-1752
▁initi	-1753
gether	-1754
▁together	-1755
rodu	-1756
▁custom	-1757
ilar	-1758
▁democ	-1759
▁got	-1760
empt	-1761
▁sett	-1762
▁terror	-1763
▁future	-1764
▁hold	-1765
els	-1766
▁bud	-1767
ression	-1768
▁credit	-1769
▁appear	-1770
▁mis	-1771
▁collect	-1772
▁went	-1773
atory	-1774
lo	-1775
amb	-1776
▁redu	-1777
imum	-1778
▁pot	-1779
▁problems	-1780
▁energy	-1781
▁science	-1782
▁try	-1783
▁basis	-1784
ches	-1785
▁dest	-1786
▁often	-1787
▁word	-1788
▁mach	-1789
▁police	-1790
▁pradesh	-1791
land	-1792
▁imm	-1793
▁pow	-1794
▁west	-1795
▁started	-1796
▁line	-1797
abha	-1798
▁matters	-1799
aring	-1800
▁exch	-1801
▁live	-1802
ude	-1803
▁unt	-1804
acity	-1805
▁crit	-1806
▁yet	-1807
▁creat	-1808
▁citiz	-1809
▁compl	-1810
▁became	-1811
▁viol	-1812
▁instru	-1813
▁thing	-1814
amm	-1815
▁ministry	-1816
ream	-1817
▁message	-1818
▁example	-1819
urs	-1820
▁similar	-1821
▁relating	-1822
▁written	-1823
▁true	-1824
▁role	-1825
▁students	-1826
▁corpor	-1827
▁outs	-1828
ened	-1829
istan	-1830
▁conditions	-1831
omes	-1832
▁earl	-1833
▁procedure	-1834
▁terms	-1835
▁please	-1836
cially	-1837
ient	-1838
pri	-1839
▁village	-1840
cent	-1841
pal	-1842
ried	-1843
▁code	-1844
▁field	-1845
medi	-1846
▁scient	-1847
▁north	-1848
ane	-1849
inary	-1850
▁community	-1851
▁blood	-1852
ached	-1853
▁natural	-1854
▁previous	-1855
▁deep	-1856
▁months	-1857
▁dou	-1858
▁chand	-1859
▁close	-1860
▁leaders	-1861
▁nam	-1862
istic	-1863
idered	-1864
aster	-1865
▁separ	-1866
io	-1867
▁cast	-1868
ians	-1869
▁grant	-1870
▁entire	-1871
▁united	-1872
itive	-1873
▁amend	-1874
▁mukher	-1875
ograph	-1876
mitted	-1877
ler	-1878
▁established	-1879
ira	-1880
rael	-1881
▁medical	-1882
▁past	-1883
▁tur	-1884
▁personal	-1885
▁current	-1886
▁needs	-1887
▁consum	-1888
▁observ	-1889
▁mukherjee	-1890
▁laws	-1891
▁express	-1892
▁considered	-1893
▁award	-1894
▁acqu	-1895
mber	-1896
▁chap	-1897
▁paid	-1898
▁city	-1899
▁tele	-1900
▁enter	-1901
▁israel	-1902
▁innov	-1903
▁ded	-1904
▁categ	-1905
▁hon	-1906
▁transfer	-1907
▁institution	-1908
cell	-1909
▁particip	-1910
▁centre	-1911
▁fel	-1912
▁brought	-1913
aries	-1914
▁religious	-1915
br	-1916
▁east	-1917
▁father	-1918
▁neg	-1919
▁squ	-1920
▁tradition	-1921
bit	-1922
ton	-1923
▁nar	-1924
▁euro	-1925
▁except	-1926
uth	-1927
aged	-1928
▁issue	-1929
▁share	-1930
▁ap	-1931
▁rural	-1932
ross	-1933
ours	-1934
▁face	-1935
▁begin	-1936
▁study	-1937
▁subst	-1938
▁undert	-1939
▁manner	-1940
▁peace	-1941
▁living	-1942
▁require	-1943
▁compet	-1944
▁fig	-1945
oid	-1946
▁news	-1947
▁sense	-1948
rish	-1949
ember	-1950
▁loss	-1951
▁vari	-1952
▁soft	-1953
▁pran	-1954
ait	-1955
▁river	-1956
▁story	-1957
go	-1958
▁early	-1959
▁using	-1960
▁ge	-1961
sequ	-1962
▁commercial	-1963
▁forward	-1964
aps	-1965
▁ans	-1966
▁spee	-1967
▁earth	-1968
allen	-1969
▁taking	-1970
isd	-1971
▁ful	-1972
▁decision	-1973
ring	-1974
▁ment	-1975
▁adop	-1976
▁create	-1977
val	-1978
urance	-1979
▁kh	-1980
be	-1981
atives	-1982
▁million	-1983
▁lat	-1984
▁bea	-1985
▁building	-1986
▁europe	-1987
▁opens	-1988
▁demand	-1989
▁soon	-1990
semb	-1991
▁establish	-1992
erve	-1993
▁vir	-1994
▁appeal	-1995
▁religion	-1996
▁exc	-1997
▁purpos	-1998
ina	-1999
▁provision	-2000
▁hous	-2001
ourn	-2002
▁ara	-2003
▁century	-2004
imate	-2005
rast	-2006
▁parts	-2007
00	-2008
▁maint	-2009
▁introdu	-2010
ison	-2011
▁muslims	-2012
▁global	-2013
▁wit	-2014
▁friend	-2015
▁purposes	-2016
ront	-2017
uk	-2018
▁literature	-2019
▁lot	-2020
▁concerned	-2021
▁fram	-2022
▁wee	-2023
▁greater	-2024
acher	-2025
▁culture	-2026
▁nothing	-2027
▁road	-2028
ological	-2029
rad	-2030
cri	-2031
▁specified	-2032
▁jun	-2033
▁arm	-2034
▁note	-2035
ublic	-2036
▁passed	-2037
▁condition	-2038
▁disease	-2039
ched	-2040
▁criminal	-2041
▁bab	-2042
▁assessment	-2043
▁chair	-2044
▁jur	-2045
▁apply	-2046
▁coop	-2047
mission	-2048
▁ste	-2049
▁works	-2050
▁mass	-2051
▁republic	-2052
▁son	-2053
atch	-2054
▁prime	-2055
▁pranab	-2056
▁provides	-2057
mit	-2058
▁assemb	-2059
▁dri	-2060
▁phil	-2061
▁resources	-2062
▁charge	-2063
▁tell	-2064
▁powers	-2065
▁meeting	-2066
▁sil	-2067
usion	-2068
itor	-2069
▁emp	-2070
▁private	-2071
gu	-2072
▁fr	-2073
▁judges	-2074
▁asked	-2075
▁population	-2076
ani	-2077
▁carry	-2078
▁parties	-2079
to	-2080
ners	-2081
▁regul	-2082
▁payment	-2083
▁lay	-2084
▁conver	-2085
▁sabha	-2086
▁hol	-2087
▁bur	-2088
▁limited	-2089
▁mand	-2090
krit	-2091
▁transl	-2092
▁earlier	-2093
▁*	-2094
▁prim	-2095
▁developed	-2096
▁influ	-2097
ev	-2098
▁books	-2099
▁immedi	-2100
illed	-2101
▁really	-2102
▁actually	-2103
ura	-2104
▁low	-2105
▁investment	-2106
tax	-2107
▁experience	-2108
▁half	-2109
▁outside	-2110
pur	-2111
▁bom	-2112
▁dam	-2113
▁brah	-2114
▁cho	-2115
▁capacity	-2116
▁physical	-2117
ama	-2118
▁exchange	-2119
▁speak	-2120
▁administration	-2121
▁mot	-2122
▁job	-2123
▁almost	-2124
▁friends	-2125
▁protection	-2126
▁path	-2127
▁themselves	-2128
▁include	-2129
▁marriage	-2130
asing	-2131
▁stage	-2132
vey	-2133
eral	-2134
line	-2135
orrow	-2136
▁duty	-2137
▁original	-2138
vant	-2139
▁writing	-2140
▁prep	-2141
▁ll	-2142
▁determin	-2143
ruction	-2144
▁allowed	-2145
▁truth	-2146
▁depos	-2147
▁temple	-2148
▁bad	-2149
▁opin	-2150
▁anything	-2151
ival	-2152
▁fix	-2153
▁teacher	-2154
▁fall	-2155
▁typ	-2156
▁birth	-2157
▁inde	-2158
▁witness	-2159
▁third	-2160
▁gir	-2161
▁changes	-2162
▁wide	-2163
▁dece	-2164
▁vide	-2165
▁essential	-2166
▁anal	-2167
▁evidence	-2168
▁mahar	-2169
▁till	-2170
▁attack	-2171
▁aim	-2172
▁vict	-2173
▁challen	-2174
▁subs	-2175
▁trust	-2176
▁jan	-2177
▁reform	-2178
▁mention	-2179
bar	-2180
▁contract	-2181
verse	-2182
airs	-2183
▁gur	-2184
▁signific	-2185
fully	-2186
▁joint	-2187
▁march	-2188
▁mount	-2189
ening	-2190
▁single	-2191
ape	-2192
▁check	-2193
▁exerc	-2194
ita	-2195
▁excell	-2196
▁institute	-2197
▁treatment	-2198
▁chapter	-2199
acy	-2200
▁whose	-2201
▁products	-2202
▁profession	-2203
vi	-2204
▁den	-2205
▁log	-2206
▁gave	-2207
▁sans	-2208
va	-2209
▁insp	-2210
▁achieve	-2211
▁recommend	-2212
▁indic	-2213
▁structure	-2214
▁distrib	-2215
▁lord	-2216
▁issues	-2217
itable	-2218
▁efforts	-2219
hib	-2220
▁mic	-2221
tic	-2222
▁unit	-2223
▁leave	-2224
▁assessee	-2225
▁pati	-2226
ilt	-2227
ned	-2228
▁insurance	-2229
▁woman	-2230
▁letter	-2231
iddle	-2232
▁cover	-2233
▁sac	-2234
emed	-2235
▁sav	-2236
icient	-2237
▁notice	-2238
ects	-2239
▁arr	-2240
▁operation	-2241
▁wr	-2242
▁thous	-2243
▁situation	-2244
chan	-2245
▁manu	-2246
▁ensure	-2247
▁improve	-2248
▁price	-2249
ots	-2250
ctions	-2251
▁contact	-2252
▁aw	-2253
eness	-2254
ament	-2255
▁independence	-2256
▁copy	-2257
▁rail	-2258
▁laun	-2259
▁tour	-2260
▁engine	-2261
▁specific	-2262
▁sure	-2263
▁mer	-2264
▁bran	-2265
men	-2266
jab	-2267
enty	-2268
ging	-2269
▁issued	-2270
▁territ	-2271
▁ever	-2272
▁basic	-2273
sy	-2274
▁journ	-2275
igh	-2276
▁execut	-2277
▁satis	-2278
▁petition	-2279
▁penal	-2280
▁decided	-2281
▁displ	-2282
▁generally	-2283
▁repl	-2284
▁tas	-2285
▁banks	-2286
▁search	-2287
▁prem	-2288
▁stop	-2289
kar	-2290
३०	-2291
ada	-2292
▁deg	-2293
wise	-2294
abad	-2295
▁middle	-2296
▁inj	-2297
▁sanskrit	-2298
▁conscious	-2299
▁eight	-2300
▁emerg	-2301
▁continue	-2302
itude	-2303
▁pain	-2304
▁oil	-2305
12	-2306
4;	-2307
124;	-2308
▁&#124;	-2309
▁increase	-2310
▁kn	-2311
▁least	-2312
▁apr	-2313
over	-2314
rop	-2315
▁cut	-2316
▁bomb	-2317
▁tree	-2318
pecially	-2319
den	-2320
▁proceedings	-2321
▁fo	-2322
▁prose	-2323
▁won	-2324
▁doub	-2325
▁industries	-2326
tion	-2327
▁night	-2328
▁agreement	-2329
▁error	-2330
▁ris	-2331
for	-2332
▁wes	-2333
▁forest	-2334
▁sen	-2335
tar	-2336
▁obt	-2337
rote	-2338
▁especially	-2339
osop	-2340
▁approach	-2341
anda	-2342
▁hund	-2343
▁poor	-2344
▁providing	-2345
ones	-2346
ls	-2347
▁created	-2348
▁front	-2349
▁host	-2350
cle	-2351
ares	-2352
▁enough	-2353
▁jurisd	-2354
▁doing	-2355
▁says	-2356
▁infrast	-2357
▁manufact	-2358
aya	-2359
▁cy	-2360
▁companies	-2361
▁commissioner	-2362
▁sar	-2363
▁effective	-2364
▁economy	-2365
▁encoura	-2366
rat	-2367
▁april	-2368
▁makes	-2369
▁hundred	-2370
rup	-2371
▁speech	-2372
▁tribun	-2373
▁belong	-2374
▁pros	-2375
▁sens	-2376
▁discuss	-2377
adem	-2378
▁lakh	-2379
▁officers	-2380
ieved	-2381
▁install	-2382
▁opportunity	-2383
▁dele	-2384
▁space	-2385
▁dig	-2386
▁fav	-2387
▁source	-2388
▁division	-2389
▁western	-2390
imes	-2391
▁serious	-2392
▁camp	-2393
▁appropri	-2394
▁constitut	-2395
ali	-2396
▁somet	-2397
▁q	-2398
▁benefit	-2399
gar	-2400
▁published	-2401
uary	-2402
▁pak	-2403
▁kept	-2404
▁meaning	-2405
▁circum	-2406
▁born	-2407
▁told	-2408
▁opinion	-2409
bed	-2410
▁certific	-2411
▁draw	-2412
▁ep	-2413
▁paper	-2414
▁statement	-2415
▁wrote	-2416
▁forms	-2417
▁popular	-2418
▁philosop	-2419
hold	-2420
▁travel	-2421
▁spread	-2422
▁write	-2423
ulated	-2424
▁arbit	-2425
▁mere	-2426
itary	-2427
▁size	-2428
▁bhar	-2429
▁behalf	-2430
▁employment	-2431
▁quite	-2432
▁assembly	-2433
rect	-2434
▁faith	-2435
▁prior	-2436
▁agricultural	-2437
bo	-2438
▁sam	-2439
▁mut	-2440
▁fif	-2441
ires	-2442
estic	-2443
▁citizens	-2444
▁programmes	-2445
▁category	-2446
▁ak	-2447
▁stru	-2448
▁harm	-2449
▁practice	-2450
▁divine	-2451
▁film	-2452
▁sound	-2453
▁measures	-2454
▁across	-2455
▁plus	-2456
▁krish	-2457
▁fast	-2458
▁gang	-2459
▁tend	-2460
agar	-2461
▁event	-2462
hood	-2463
▁answ	-2464
▁max	-2465
▁rich	-2466
▁below	-2467
▁foc	-2468
▁carried	-2469
face	-2470
▁idea	-2471
▁labour	-2472
▁jurisdiction	-2473
▁arch	-2474
▁conference	-2475
▁percent	-2476
▁director	-2477
▁sud	-2478
co	-2479
ung	-2480
▁comb	-2481
▁heav	-2482
ying	-2483
▁stri	-2484
aff	-2485
▁governor	-2486
iture	-2487
▁lear	-2488
▁doct	-2489
▁ho	-2490
▁hands	-2491
▁facilities	-2492
▁punjab	-2493
▁projects	-2494
▁prescribed	-2495
▁regular	-2496
▁unf	-2497
encies	-2498
▁consult	-2499
▁adj	-2500
▁bit	-2501
action	-2502
▁accounts	-2503
▁deli	-2504
▁poll	-2505
▁importance	-2506
▁win	-2507
▁failed	-2508
▁giving	-2509
▁usually	-2510
▁brother	-2511
▁systems	-2512
mir	-2513
▁sus	-2514
▁fair	-2515
▁until	-2516
▁sea	-2517
▁enj	-2518
▁sex	-2519
▁review	-2520
▁loan	-2521
▁relevant	-2522
▁ju	-2523
▁simple	-2524
know	-2525
▁white	-2526
ills	-2527
▁infrastructure	-2528
cient	-2529
▁places	-2530
▁groups	-2531
▁agriculture	-2532
▁disp	-2533
▁aspect	-2534
▁academ	-2535
ban	-2536
▁finance	-2537
rug	-2538
▁stated	-2539
▁appl	-2540
▁hope	-2541
▁pakistan	-2542
▁room	-2543
▁reach	-2544
▁amendment	-2545
▁arab	-2546
▁lower	-2547
▁status	-2548
▁nations	-2549
▁cultural	-2550
▁forces	-2551
▁administr	-2552
ili	-2553
ored	-2554
racy	-2555
uted	-2556
▁details	-2557
▁bes	-2558
▁opt	-2559
aves	-2560
▁export	-2561
by	-2562
▁transport	-2563
▁wal	-2564
oud	-2565
▁novel	-2566
rist	-2567
▁potential	-2568
yal	-2569
▁felt	-2570
▁punish	-2571
▁prevent	-2572
▁cross	-2573
ift	-2574
▁der	-2575
body	-2576
▁firm	-2577
▁fort	-2578
▁sometimes	-2579
iry	-2580
▁prob	-2581
▁broad	-2582
▁hosp	-2583
▁final	-2584
▁request	-2585
▁association	-2586
aka	-2587
▁happy	-2588
▁accused	-2589
▁tar	-2590
▁micro	-2591
▁assistance	-2592
▁qual	-2593
▁spiritual	-2594
▁tam	-2595
▁existing	-2596
yn	-2597
▁strength	-2598
▁becomes	-2599
▁learning	-2600
▁hus	-2601
▁sri	-2602
▁schol	-2603
▁fire	-2604
▁afric	-2605
com	-2606
.0	-2607
▁wall	-2608
▁histor	-2609
▁bound	-2610
ke	-2611
▁gold	-2612
▁feed	-2613
▁aug	-2614
▁song	-2615
▁circumst	-2616
▁enjoy	-2617
gest	-2618
▁rather	-2619
iding	-2620
▁activity	-2621
dom	-2622
▁black	-2623
▁wife	-2624
utions	-2625
▁software	-2626
▁attempt	-2627
▁display	-2628
let	-2629
rate	-2630
▁page	-2631
▁ved	-2632
ivity	-2633
▁print	-2634
▁document	-2635
▁saw	-2636
char	-2637
▁governments	-2638
▁existence	-2639
ension	-2640
▁comes	-2641
war	-2642
▁iii	-2643
▁connect	-2644
▁reference	-2645
hest	-2646
▁round	-2647
ze	-2648
aren	-2649
▁cele	-2650
▁mom	-2651
▁began	-2652
▁seven	-2653
▁wrong	-2654
▁concept	-2655
uous	-2656
ead	-2657
▁id	-2658
▁green	-2659
▁followed	-2660
▁budd	-2661
▁ban	-2662
▁bey	-2663
▁led	-2664
▁whom	-2665
▁registration	-2666
ava	-2667
▁boy	-2668
▁rup	-2669
iment	-2670
▁behind	-2671
▁gives	-2672
dra	-2673
▁dut	-2674
▁responsible	-2675
▁sn	-2676
▁appropriate	-2677
▁drug	-2678
▁tool	-2679
▁medic	-2680
▁device	-2681
▁increased	-2682
▁standards	-2683
▁particularly	-2684
haps	-2685
▁mission	-2686
uch	-2687
▁–	-2688
▁lives	-2689
▁user	-2690
▁autom	-2691
▁poetry	-2692
▁seed	-2693
▁mechan	-2694
ancy	-2695
▁lost	-2696
▁believe	-2697
▁standard	-2698
band	-2699
▁beyond	-2700
inate	-2701
▁music	-2702
▁american	-2703
▁setting	-2704
▁partners	-2705
▁stay	-2706
▁trial	-2707
ume	-2708
▁beginning	-2709
▁gri	-2710
▁lok	-2711
▁perhaps	-2712
▁appe	-2713
▁sust	-2714
▁offence	-2715
▁video	-2716
▁consist	-2717
▁tit	-2718
▁und	-2719
▁mental	-2720
▁ign	-2721
ables	-2722
equ	-2723
ids	-2724
▁crore	-2725
osition	-2726
▁christ	-2727
▁significant	-2728
▁team	-2729
▁limit	-2730
▁explan	-2731
▁scale	-2732
▁values	-2733
ingu	-2734
▁bod	-2735
▁sym	-2736
the	-2737
▁languages	-2738
reg	-2739
▁perf	-2740
▁occur	-2741
cutta	-2742
▁respond	-2743
ump	-2744
▁certificate	-2745
▁expend	-2746
▁calcutta	-2747
ship	-2748
▁hor	-2749
▁kash	-2750
▁built	-2751
▁oct	-2752
▁soul	-2753
▁integr	-2754
▁normal	-2755
▁protect	-2756
▁coll	-2757
▁instead	-2758
▁warm	-2759
▁relation	-2760
enth	-2761
▁ideas	-2762
▁eyes	-2763
▁aver	-2764
▁getting	-2765
▁annual	-2766
▁circumstances	-2767
▁responsibility	-2768
isters	-2769
▁organisation	-2770
▁teach	-2771
▁immediately	-2772
utes	-2773
▁revolution	-2774
▁summ	-2775
▁technical	-2776
use	-2777
▁fell	-2778
▁ancient	-2779
ators	-2780
▁expression	-2781
▁fre	-2782
▁sad	-2783
▁sty	-2784
oting	-2785
▁continued	-2786
▁alone	-2787
ault	-2788
▁emb	-2789
▁coming	-2790
ott	-2791
▁pack	-2792
▁active	-2793
▁remain	-2794
▁funds	-2795
come	-2796
▁bang	-2797
▁sept	-2798
▁safe	-2799
cution	-2800
▁takes	-2801
standing	-2802
▁fem	-2803
▁plants	-2804
resh	-2805
▁democracy	-2806
▁tag	-2807
▁integ	-2808
▁functions	-2809
ras	-2810
arily	-2811
▁memory	-2812
▁accepted	-2813
▁proposed	-2814
ex	-2815
ush	-2816
▁acts	-2817
▁supply	-2818
▁increasing	-2819
▁prop	-2820
▁strugg	-2821
▁obl	-2822
▁appointed	-2823
▁imper	-2824
▁extre	-2825
▁otherwise	-2826
▁strengt	-2827
▁kal	-2828
▁syn	-2829
▁media	-2830
▁enable	-2831
▁mob	-2832
▁dedu	-2833
▁origin	-2834
▁twenty	-2835
iff	-2836
rs	-2837
▁units	-2838
atures	-2839
▁scientific	-2840
▁base	-2841
though	-2842
▁chairman	-2843
▁legislative	-2844
miss	-2845
▁disci	-2846
▁houses	-2847
etic	-2848
▁strateg	-2849
▁week	-2850
ipp	-2851
▁fru	-2852
▁image	-2853
▁arrest	-2854
▁although	-2855
▁frame	-2856
▁workers	-2857
ishes	-2858
▁purs	-2859
▁direction	-2860
▁hen	-2861
▁sik	-2862
▁animals	-2863
▁regional	-2864
▁instrument	-2865
▁expenditure	-2866
jar	-2867
▁task	-2868
▁weak	-2869
▁appre	-2870
▁unless	-2871
▁ways	-2872
▁clean	-2873
▁ger	-2874
uge	-2875
iful	-2876
unt	-2877
▁tribunal	-2878
▁explanation	-2879
asa	-2880
▁army	-2881
▁selected	-2882
▁goes	-2883
▁model	-2884
▁affairs	-2885
▁corporation	-2886
▁break	-2887
▁violence	-2888
▁ic	-2889
hter	-2890
▁arri	-2891
▁town	-2892
▁kashmir	-2893
▁additional	-2894
▁mumb	-2895
▁fixed	-2896
▁milk	-2897
▁else	-2898
▁includes	-2899
▁connection	-2900
▁stra	-2901
▁employees	-2902
▁lic	-2903
▁$	-2904
▁fight	-2905
▁implementation	-2906
rary	-2907
▁produce	-2908
▁guid	-2909
▁observed	-2910
▁consideration	-2911
oted	-2912
▁wanted	-2913
▁famous	-2914
▁purch	-2915
▁intel	-2916
ene	-2917
▁imag	-2918
▁consequ	-2919
▁january	-2920
▁formed	-2921
▁arrange	-2922
▁college	-2923
▁mentioned	-2924
▁questions	-2925
omp	-2926
▁speed	-2927
▁attract	-2928
▁wid	-2929
▁multip	-2930
▁celebr	-2931
ami	-2932
▁complex	-2933
▁defin	-2934
ucle	-2935
▁advance	-2936
▁presented	-2937
ley	-2938
▁america	-2939
avi	-2940
hra	-2941
▁fest	-2942
▁ang	-2943
▁len	-2944
▁vision	-2945
▁stor	-2946
anath	-2947
▁dram	-2948
▁domestic	-2949
▁ker	-2950
▁mail	-2951
▁pict	-2952
▁sections	-2953
oke	-2954
▁saf	-2955
▁minus	-2956
▁election	-2957
▁terrorism	-2958
▁mumbai	-2959
▁relationship	-2960
▁fear	-2961
▁documents	-2962
▁master	-2963
iva	-2964
elling	-2965
▁prepared	-2966
▁receive	-2967
▁depend	-2968
▁range	-2969
▁cooperation	-2970
▁performance	-2971
▁fed	-2972
▁bombay	-2973
▁web	-2974
▁added	-2975
gment	-2976
ilit	-2977
ulate	-2978
▁defence	-2979
where	-2980
▁phot	-2981
ris	-2982
▁principal	-2983
▁card	-2984
cer	-2985
▁attention	-2986
▁refers	-2987
▁appell	-2988
▁intellect	-2989
hru	-2990
▁session	-2991
▁types	-2992
▁correct	-2993
▁extent	-2994
▁mur	-2995
▁youth	-2996
▁assets	-2997
attle	-2998
▁chem	-2999
ores	-3000
▁minor	-3001
▁mode	-3002
▁minimum	-3003
osis	-3004
▁occup	-3005
▁included	-3006
▁separate	-3007
raft	-3008
▁ms	-3009
▁nav	-3010
elfare	-3011
▁indeed	-3012
▁longer	-3013
▁ask	-3014
▁beaut	-3015
la	-3016
▁sold	-3017
▁manag	-3018
▁welfare	-3019
▁fundament	-3020
head	-3021
ini	-3022
itting	-3023
▁recent	-3024
▁gradu	-3025
bi	-3026
▁wish	-3027
▁august	-3028
rim	-3029
▁organization	-3030
▁hot	-3031
▁schemes	-3032
▁pred	-3033
▁ton	-3034
anger	-3035
▁command	-3036
▁principles	-3037
▁contribution	-3038
▁enterpr	-3039
▁military	-3040
▁educational	-3041
▁्	-3042
▁entry	-3043
▁table	-3044
▁moment	-3045
▁produced	-3046
ext	-3047
▁nucle	-3048
▁farmers	-3049
▁december	-3050
▁involved	-3051
▁answer	-3052
enced	-3053
▁caused	-3054
icit	-3055
▁directly	-3056
▁hospital	-3057
▁gujar	-3058
▁animal	-3059
has	-3060
▁risk	-3061
▁tried	-3062
▁nom	-3063
▁june	-3064
iation	-3065
▁examination	-3066
hal	-3067
▁processing	-3068
▁ago	-3069
hat	-3070
▁besides	-3071
▁interests	-3072
ensive	-3073
▁orders	-3074
▁emph	-3075
▁krishna	-3076
▁exercise	-3077
mar	-3078
▁yes	-3079
▁nehru	-3080
▁highest	-3081
▁vo	-3082
▁steps	-3083
gn	-3084
ratic	-3085
▁charges	-3086
▁administrative	-3087
▁innovation	-3088
▁mark	-3089
ober	-3090
▁wel	-3091
▁scre	-3092
▁recei	-3093
anced	-3094
▁pleas	-3095
▁pie	-3096
▁adopted	-3097
▁balance	-3098
▁independent	-3099
▁leader	-3100
▁agg	-3101
▁anti	-3102
▁generation	-3103
▁stre	-3104
▁transform	-3105
▁accordance	-3106
▁eye	-3107
▁shah	-3108
▁former	-3109
▁wealth	-3110
▁quant	-3111
▁tamil	-3112
▁cat	-3113
uls	-3114
▁advoc	-3115
▁articles	-3116
▁pand	-3117
▁secretary	-3118
rents	-3119
▁authorities	-3120
▁multi	-3121
▁yog	-3122
▁policies	-3123
rep	-3124
▁doubt	-3125
▁apart	-3126
▁heard	-3127
▁assign	-3128
▁october	-3129
▁september	-3130
▁results	-3131
▁majority	-3132
▁ball	-3133
yan	-3134
▁electron	-3135
▁contained	-3136
▁talk	-3137
▁species	-3138
▁easy	-3139
▁send	-3140
▁deemed	-3141
▁substant	-3142
vere	-3143
▁lad	-3144
▁rain	-3145
▁chann	-3146
▁chrom	-3147
▁beautiful	-3148
▁costs	-3149
▁offer	-3150
▁thousand	-3151
▁africa	-3152
▁pattern	-3153
sc	-3154
▁compens	-3155
▁vac	-3156
▁extra	-3157
▁regarding	-3158
▁governance	-3159
▁quick	-3160
▁average	-3161
▁reasons	-3162
▁seas	-3163
atever	-3164
▁conflic	-3165
iance	-3166
ously	-3167
▁cash	-3168
▁whatever	-3169
▁victim	-3170
▁dark	-3171
▁asia	-3172
▁laid	-3173
▁looking	-3174
▁reached	-3175
▁universities	-3176
▁principle	-3177
▁promotion	-3178
▁focus	-3179
▁agency	-3180
▁resident	-3181
▁mix	-3182
▁furn	-3183
ne	-3184
▁comment	-3185
▁context	-3186
▁machine	-3187
▁hab	-3188
▁weight	-3189
osing	-3190
abor	-3191
abled	-3192
▁temper	-3193
▁likely	-3194
▁perman	-3195
▁maximum	-3196
▁numbers	-3197
oor	-3198
rog	-3199
▁termin	-3200
▁leading	-3201
▁influence	-3202
▁opportunities	-3203
▁cells	-3204
▁symb	-3205
▁util	-3206
▁indians	-3207
ga	-3208
▁internet	-3209
▁resolution	-3210
▁studies	-3211
▁effort	-3212
▁iv	-3213
▁hours	-3214
li	-3215
ades	-3216
izing	-3217
▁grand	-3218
ham	-3219
▁entit	-3220
uration	-3221
▁egg	-3222
▁china	-3223
▁inside	-3224
▁graph	-3225
hic	-3226
ites	-3227
▁connected	-3228
▁distin	-3229
▁traditional	-3230
▁kum	-3231
▁reven	-3232
▁primary	-3233
▁understanding	-3234
ox	-3235
▁patient	-3236
▁struggle	-3237
▁refer	-3238
▁registered	-3239
▁diss	-3240
ground	-3241
▁lack	-3242
▁daug	-3243
ellig	-3244
▁content	-3245
▁threat	-3246
▁consciousness	-3247
▁files	-3248
▁rout	-3249
▁bihar	-3250
▁growing	-3251
▁electric	-3252
▁alle	-3253
▁largest	-3254
▁placed	-3255
▁benefits	-3256
▁jew	-3257
▁fully	-3258
vered	-3259
▁magn	-3260
▁husband	-3261
▁planning	-3262
▁fra	-3263
cription	-3264
yer	-3265
▁executive	-3266
▁affected	-3267
▁presence	-3268
▁asset	-3269
▁analys	-3270
▁fine	-3271
▁measure	-3272
order	-3273
▁dream	-3274
▁amb	-3275
▁palest	-3276
▁everything	-3277
▁july	-3278
▁nove	-3279
▁virt	-3280
▁penalty	-3281
▁sale	-3282
▁creation	-3283
▁uttar	-3284
▁described	-3285
cul	-3286
▁dead	-3287
▁exceed	-3288
▁soil	-3289
▁advice	-3290
▁reserv	-3291
▁associated	-3292
▁staff	-3293
▁default	-3294
▁stories	-3295
▁style	-3296
pro	-3297
▁emphas	-3298
onst	-3299
▁relief	-3300
▁adequ	-3301
▁centres	-3302
▁dyn	-3303
▁bri	-3304
▁hindus	-3305
▁mun	-3306
▁useful	-3307
▁medium	-3308
▁ant	-3309
▁stock	-3310
▁chandra	-3311
▁communication	-3312
▁views	-3313
oved	-3314
▁ali	-3315
▁desp	-3316
▁vehic	-3317
▁november	-3318
▁promote	-3319
▁construction	-3320
olute	-3321
▁symbol	-3322
▁someone	-3323
▁save	-3324
▁drink	-3325
▁bat	-3326
▁seems	-3327
▁seek	-3328
ashtra	-3329
▁developing	-3330
▁initial	-3331
▁cere	-3332
▁ones	-3333
▁storage	-3334
▁brow	-3335
ressed	-3336
▁length	-3337
▁tub	-3338
▁fundamental	-3339
uck	-3340
▁payable	-3341
asth	-3342
▁online	-3343
▁gandhiji	-3344
▁gas	-3345
▁ult	-3346
▁panch	-3347
▁islamic	-3348
▁ip	-3349
▁upd	-3350
▁safety	-3351
▁facilit	-3352
▁declared	-3353
▁guru	-3354
au	-3355
ese	-3356
▁quar	-3357
▁extended	-3358
▁bed	-3359
▁feb	-3360
▁gram	-3361
▁located	-3362
pid	-3363
dule	-3364
▁advant	-3365
▁uns	-3366
hedul	-3367
▁wait	-3368
▁schedul	-3369
▁speaking	-3370
▁philosophy	-3371
▁successful	-3372
▁kar	-3373
▁pad	-3374
uation	-3375
▁scholars	-3376
▁bow	-3377
▁universal	-3378
hol	-3379
▁item	-3380
aid	-3381
hem	-3382
quiry	-3383
▁cand	-3384
▁avoid	-3385
▁operations	-3386
▁distribution	-3387
ja	-3388
with	-3389
▁schedule	-3390
gy	-3391
iting	-3392
porary	-3393
▁branch	-3394
umn	-3395
▁sle	-3396
ields	-3397
ateral	-3398
▁bhag	-3399
▁reflect	-3400
▁difference	-3401
▁pil	-3402
▁sudden	-3403
▁crow	-3404
▁urban	-3405
▁sentence	-3406
ora	-3407
▁remember	-3408
inery	-3409
▁extreme	-3410
▁collection	-3411
oll	-3412
▁series	-3413
▁engineering	-3414
ishn	-3415
▁ship	-3416
▁names	-3417
▁dispos	-3418
▁satisf	-3419
▁intellig	-3420
erate	-3421
▁larger	-3422
light	-3423
iciency	-3424
ayan	-3425
▁needed	-3426
▁objective	-3427
▁ah	-3428
▁site	-3429
ography	-3430
▁expressed	-3431
▁greet	-3432
rene	-3433
▁unity	-3434
▁running	-3435
overy	-3436
▁valid	-3437
▁miss	-3438
oval	-3439
▁parents	-3440
een	-3441
▁awards	-3442
▁temples	-3443
aily	-3444
▁capt	-3445
▁committed	-3446
▁convention	-3447
▁enact	-3448
▁gh	-3449
lection	-3450
iny	-3451
rant	-3452
▁equip	-3453
▁thinking	-3454
▁poems	-3455
▁station	-3456
▁fert	-3457
▁fulf	-3458
▁rise	-3459
▁atm	-3460
▁skin	-3461
ifying	-3462
▁square	-3463
▁teachers	-3464
ming	-3465
▁mid	-3466
▁color	-3467
▁impact	-3468
▁partnership	-3469
▁swe	-3470
itment	-3471
▁deposit	-3472
▁lines	-3473
▁shown	-3474
▁announ	-3475
▁tagore	-3476
▁introduced	-3477
▁danger	-3478
▁wild	-3479
▁duties	-3480
oms	-3481
▁pip	-3482
▁constant	-3483
verty	-3484
▁applications	-3485
hu	-3486
ula	-3487
▁publication	-3488
▁levels	-3489
hab	-3490
▁mas	-3491
aught	-3492
▁vers	-3493
▁altern	-3494
▁poverty	-3495
▁mou	-3496
▁female	-3497
▁villages	-3498
▁reve	-3499
▁extend	-3500
▁covered	-3501
▁schools	-3502
▁ministers	-3503
▁shows	-3504
▁incl	-3505
▁daily	-3506
ken	-3507
▁namely	-3508
▁finally	-3509
▁receipt	-3510
▁flu	-3511
▁senior	-3512
▁appreci	-3513
▁eastern	-3514
▁england	-3515
▁reading	-3516
▁maharashtra	-3517
▁ham	-3518
▁gard	-3519
▁unique	-3520
▁assam	-3521
▁ideal	-3522
▁element	-3523
▁contem	-3524
▁interpre	-3525
iciary	-3526
adi	-3527
atha	-3528
itis	-3529
▁gar	-3530
illing	-3531
▁frequ	-3532
▁scri	-3533
▁contains	-3534
▁shar	-3535
▁favour	-3536
▁shares	-3537
▁territory	-3538
▁throughout	-3539
de	-3540
▁merely	-3541
▁moon	-3542
▁draft	-3543
▁slow	-3544
▁surface	-3545
hens	-3546
asc	-3547
▁dan	-3548
▁dated	-3549
▁nut	-3550
▁establishment	-3551
▁parliamentary	-3552
ops	-3553
▁ash	-3554
inated	-3555
▁played	-3556
▁chemical	-3557
▁susp	-3558
▁discipl	-3559
▁absolute	-3560
load	-3561
pper	-3562
▁hence	-3563
▁expected	-3564
ruary	-3565
▁integral	-3566
ussion	-3567
▁vital	-3568
usive	-3569
▁friendly	-3570
▁individuals	-3571
▁da	-3572
▁gov	-3573
ocation	-3574
▁worship	-3575
▁morning	-3576
▁bul	-3577
resp	-3578
▁rom	-3579
force	-3580
▁february	-3581
▁stream	-3582
▁prosper	-3583
▁internal	-3584
▁critic	-3585
▁repeal	-3586
▁changed	-3587
▁male	-3588
▁delay	-3589
▁sir	-3590
eties	-3591
▁girl	-3592
▁worth	-3593
▁sacr	-3594
▁prepar	-3595
▁standing	-3596
pap	-3597
▁oce	-3598
▁removal	-3599
▁variety	-3600
▁items	-3601
▁elements	-3602
▁constitutional	-3603
▁kerala	-3604
road	-3605
▁fit	-3606
word	-3607
▁excl	-3608
▁german	-3609
▁raised	-3610
aches	-3611
▁turk	-3612
▁ready	-3613
▁keeping	-3614
▁pref	-3615
▁easily	-3616
▁nuclear	-3617
▁railway	-3618
▁entitled	-3619
▁ka	-3620
▁bin	-3621
▁tom	-3622
▁desire	-3623
nes	-3624
▁gets	-3625
▁convey	-3626
▁foundation	-3627
▁compensation	-3628
▁psy	-3629
▁democratic	-3630
▁fee	-3631
▁compon	-3632
▁prison	-3633
▁title	-3634
▁script	-3635
▁banking	-3636
▁pure	-3637
cribe	-3638
rated	-3639
▁late	-3640
▁defined	-3641
▁engaged	-3642
▁cultiv	-3643
▁vent	-3644
▁academic	-3645
▁practices	-3646
uff	-3647
▁input	-3648
▁reality	-3649
▁remains	-3650
arant	-3651
▁european	-3652
▁star	-3653
▁looked	-3654
abilities	-3655
▁neigh	-3656
oured	-3657
▁degree	-3658
ont	-3659
oo	-3660
▁moral	-3661
▁literary	-3662
▁petitioner	-3663
enses	-3664
erative	-3665
▁disput	-3666
▁target	-3667
▁incident	-3668
▁km	-3669
ague	-3670
▁shr	-3671
▁cru	-3672
▁facts	-3673
▁resol	-3674
▁bodies	-3675
▁neighb	-3676
▁survey	-3677
teen	-3678
▁rapid	-3679
▁expect	-3680
iring	-3681
▁feeling	-3682
▁dischar	-3683
▁points	-3684
▁server	-3685
▁resource	-3686
▁discussion	-3687
▁causes	-3688
▁kingdom	-3689
▁distance	-3690
▁bag	-3691
▁esc	-3692
▁touch	-3693
mo	-3694
▁cric	-3695
▁iran	-3696
assion	-3697
▁trying	-3698
▁version	-3699
▁caste	-3700
▁rupees	-3701
▁guarant	-3702
▁pressure	-3703
▁mobile	-3704
▁respon	-3705
ilateral	-3706
▁entrep	-3707
▁saying	-3708
▁reserve	-3709
▁agencies	-3710
omy	-3711
▁flag	-3712
▁impl	-3713
▁reports	-3714
▁filed	-3715
▁option	-3716
▁consumer	-3717
▁remove	-3718
▁dial	-3719
▁veget	-3720
▁attend	-3721
▁interv	-3722
▁failure	-3723
▁leaves	-3724
▁wood	-3725
▁solar	-3726
▁methods	-3727
▁load	-3728
▁box	-3729
▁doctor	-3730
▁heavy	-3731
▁suggested	-3732
▁intellectual	-3733
▁withdra	-3734
inet	-3735
▁rare	-3736
▁opening	-3737
▁probably	-3738
▁bharat	-3739
▁aspects	-3740
▁revenue	-3741
▁madh	-3742
▁affect	-3743
▁motion	-3744
▁adequate	-3745
ipur	-3746
▁tiss	-3747
▁yoga	-3748
▁beauty	-3749
▁gujarat	-3750
▁passing	-3751
▁speaker	-3752
▁entreprene	-3753
▁cities	-3754
▁bear	-3755
▁unc	-3756
▁scheduled	-3757
▁chance	-3758
▁mainly	-3759
▁cricket	-3760
▁monitor	-3761
▁organiz	-3762
▁feet	-3763
▁suit	-3764
▁learned	-3765
▁diseases	-3766
▁eat	-3767
▁famil	-3768
atma	-3769
▁fish	-3770
▁khan	-3771
▁ca	-3772
▁aust	-3773
▁subsequ	-3774
▁machinery	-3775
apan	-3776
▁jaw	-3777
▁vast	-3778
▁requires	-3779
ero	-3780
▁newspap	-3781
▁permanent	-3782
▁punishment	-3783
▁turned	-3784
▁karn	-3785
▁thank	-3786
▁complaint	-3787
▁investigation	-3788
▁cou	-3789
uries	-3790
▁fields	-3791
▁contain	-3792
▁dw	-3793
▁eth	-3794
▁sand	-3795
▁granted	-3796
▁analysis	-3797
▁00	-3798
▁rama	-3799
▁ay	-3800
▁akbar	-3801
▁divided	-3802
omet	-3803
▁actual	-3804
▁requirements	-3805
▁fal	-3806
▁rank	-3807
aken	-3808
▁stone	-3809
▁belief	-3810
icated	-3811
▁nepal	-3812
▁events	-3813
▁mutual	-3814
▁notes	-3815
▁psych	-3816
▁environmental	-3817
wal	-3818
▁fresh	-3819
▁confident	-3820
idge	-3821
▁cam	-3822
▁repe	-3823
▁identity	-3824
▁powerful	-3825
oph	-3826
▁joy	-3827
after	-3828
▁voice	-3829
▁factors	-3830
▁bc	-3831
▁kumar	-3832
▁delivery	-3833
▁construct	-3834
१०	-3835
itch	-3836
▁legislature	-3837
iously	-3838
▁estim	-3839
▁recommendations	-3840
▁door	-3841
istics	-3842
▁dim	-3843
eless	-3844
▁insects	-3845
▁settlement	-3846
▁root	-3847
▁plat	-3848
▁expand	-3849
▁daughter	-3850
▁hour	-3851
▁click	-3852
▁distingu	-3853
▁families	-3854
▁argu	-3855
▁songs	-3856
▁fat	-3857
▁marg	-3858
▁accident	-3859
ests	-3860
▁foot	-3861
▁concl	-3862
▁profit	-3863
▁completed	-3864
osh	-3865
▁gone	-3866
▁named	-3867
▁shape	-3868
▁height	-3869
▁rajasth	-3870
▁sustain	-3871
ae	-3872
iles	-3873
▁hur	-3874
▁cold	-3875
▁prec	-3876
▁output	-3877
▁counter	-3878
▁offered	-3879
▁extension	-3880
▁officials	-3881
▁professional	-3882
▁response	-3883
ties	-3884
▁mos	-3885
▁festival	-3886
oming	-3887
▁mahatma	-3888
ogle	-3889
▁watch	-3890
▁destro	-3891
▁deduction	-3892
▁confidence	-3893
lex	-3894
▁positive	-3895
▁neither	-3896
▁meant	-3897
▁phase	-3898
▁highly	-3899
▁liqu	-3900
▁sectors	-3901
mi	-3902
▁kol	-3903
cript	-3904
ecture	-3905
▁sin	-3906
arent	-3907
▁himal	-3908
▁borrow	-3909
▁substantial	-3910
▁hero	-3911
▁excess	-3912
chand	-3913
▁encourage	-3914
▁park	-3915
▁wishes	-3916
▁succeed	-3917
una	-3918
▁lived	-3919
pped	-3920
▁japan	-3921
▁sides	-3922
▁figure	-3923
▁maintain	-3924
aviour	-3925
▁abroad	-3926
▁follows	-3927
urate	-3928
▁archit	-3929
▁volume	-3930
▁dry	-3931
tt	-3932
udd	-3933
▁aid	-3934
▁google	-3935
▁decisions	-3936
nel	-3937
oon	-3938
▁clearly	-3939
▁treated	-3940
▁strengthen	-3941
round	-3942
▁pollution	-3943
▁adult	-3944
▁congrat	-3945
▁hearing	-3946
▁profess	-3947
▁cook	-3948
▁gaz	-3949
▁mist	-3950
▁compre	-3951
▁bengali	-3952
▁bon	-3953
▁serve	-3954
imately	-3955
aign	-3956
▁season	-3957
▁launch	-3958
ius	-3959
▁mechanism	-3960
da	-3961
▁prices	-3962
▁conflict	-3963
▁grass	-3964
▁register	-3965
▁elections	-3966
▁greetings	-3967
hn	-3968
▁atmosp	-3969
▁palestin	-3970
▁judiciary	-3971
cher	-3972
ils	-3973
athy	-3974
iling	-3975
▁died	-3976
▁knew	-3977
▁nort	-3978
▁returned	-3979
actions	-3980
▁pleasure	-3981
▁crop	-3982
ferences	-3983
▁obv	-3984
▁amongst	-3985
lying	-3986
▁inaug	-3987
▁worked	-3988
▁release	-3989
▁cow	-3990
▁sev	-3991
▁goal	-3992
▁sleep	-3993
▁appears	-3994
▁corresp	-3995
▁band	-3996
▁russ	-3997
▁carrying	-3998
▁facility	-3999
▁kan	-4000
▁candid	-4001
▁believed	-4002
▁pursu	-4003
irm	-4004
▁creating	-4005
▁rajasthan	-4006
▁unl	-4007
▁techni	-4008
▁leadership	-4009
aja	-4010
▁appointment	-4011
▁audit	-4012
▁inner	-4013
▁orient	-4014
▁features	-4015
▁participation	-4016
▁determined	-4017
▁enem	-4018
▁email	-4019
▁critical	-4020
▁sort	-4021
▁ordinary	-4022
▁curren	-4023
▁ran	-4024
▁nearly	-4025
▁dealing	-4026
▁legislation	-4027
▁recommended	-4028
▁rajya	-4029
▁campaign	-4030
▁instruct	-4031
▁breed	-4032
▁politics	-4033
▁excellency	-4034
▁agreed	-4035
▁experi	-4036
▁materials	-4037
▁initiatives	-4038
▁seem	-4039
▁ira	-4040
▁trou	-4041
▁applied	-4042
▁departments	-4043
▁vid	-4044
▁join	-4045
▁proved	-4046
▁reforms	-4047
ested	-4048
▁privile	-4049
▁cab	-4050
▁holding	-4051
▁griev	-4052
▁sufficient	-4053
abh	-4054
▁eleph	-4055
▁offices	-4056
▁suitable	-4057
▁applicable	-4058
▁incor	-4059
cast	-4060
▁pill	-4061
▁crops	-4062
phone	-4063
▁drugs	-4064
▁background	-4065
▁budget	-4066
▁historical	-4067
▁buddh	-4068
shi	-4069
▁hall	-4070
▁citizen	-4071
▁organis	-4072
▁reduced	-4073
▁negative	-4074
het	-4075
▁andhra	-4076
▁mainten	-4077
▁happened	-4078
▁recently	-4079
rench	-4080
▁crime	-4081
▁rates	-4082
▁entr	-4083
▁aware	-4084
eria	-4085
areness	-4086
ika	-4087
▁profits	-4088
kh	-4089
ologies	-4090
▁thereof	-4091
ception	-4092
▁unable	-4093
▁sources	-4094
▁supported	-4095
▁maintenance	-4096
▁debt	-4097
▁reasonable	-4098
▁constituted	-4099
▁il	-4100
▁coal	-4101
bind	-4102
▁vice	-4103
▁assum	-4104
▁marketing	-4105
▁nag	-4106
▁disputes	-4107
▁numer	-4108
▁reject	-4109
▁launched	-4110
stitu	-4111
▁leaf	-4112
▁throw	-4113
erted	-4114
▁game	-4115
iration	-4116
▁awareness	-4117
ray	-4118
aving	-4119
ender	-4120
▁guard	-4121
▁colour	-4122
▁journal	-4123
▁advantage	-4124
▁interesting	-4125
▁undertaking	-4126
▁elig	-4127
▁records	-4128
▁sanction	-4129
▁ec	-4130
▁roy	-4131
▁mouth	-4132
▁surround	-4133
ahar	-4134
▁folk	-4135
▁complain	-4136
▁completely	-4137
▁notification	-4138
▁memor	-4139
▁happen	-4140
▁judgment	-4141
▁hun	-4142
▁compr	-4143
▁ganga	-4144
▁teaching	-4145
elines	-4146
▁sho	-4147
▁mort	-4148
▁manif	-4149
▁constitu	-4150
aram	-4151
▁rob	-4152
▁choose	-4153
▁latest	-4154
▁instance	-4155
▁password	-4156
▁poem	-4157
▁latter	-4158
aksh	-4159
ourage	-4160
▁dispute	-4161
▁proposal	-4162
▁magist	-4163
▁elected	-4164
▁regions	-4165
rence	-4166
▁priority	-4167
▁jail	-4168
▁damage	-4169
▁picture	-4170
adu	-4171
▁das	-4172
▁vig	-4173
▁wat	-4174
▁iraq	-4175
▁fruit	-4176
▁eve	-4177
pective	-4178
▁theory	-4179
▁climate	-4180
▁purchase	-4181
▁regulations	-4182
▁remote	-4183
▁entered	-4184
▁correspond	-4185
lal	-4186
▁trees	-4187
▁du	-4188
▁letters	-4189
yas	-4190
▁sell	-4191
▁fellow	-4192
▁struct	-4193
ka	-4194
▁obst	-4195
▁false	-4196
▁divers	-4197
ply	-4198
▁abd	-4199
▁match	-4200
▁approved	-4201
esty	-4202
cks	-4203
ames	-4204
▁accordingly	-4205
astic	-4206
▁concent	-4207
rew	-4208
▁od	-4209
▁spent	-4210
▁contempt	-4211
ataka	-4212
▁characters	-4213
▁coast	-4214
▁radio	-4215
▁format	-4216
▁conserv	-4217
▁users	-4218
▁pension	-4219
▁organism	-4220
▁hyd	-4221
▁rang	-4222
▁perfect	-4223
▁va	-4224
iled	-4225
▁remained	-4226
▁block	-4227
▁explo	-4228
▁moved	-4229
▁approval	-4230
▁released	-4231
▁translation	-4232
vert	-4233
▁subjects	-4234
asm	-4235
▁bills	-4236
▁drawn	-4237
▁cra	-4238
▁config	-4239
▁thirty	-4240
ped	-4241
arian	-4242
▁ende	-4243
▁surv	-4244
▁achieved	-4245
▁cerem	-4246
▁journey	-4247
▁province	-4248
▁honour	-4249
▁classes	-4250
▁evolution	-4251
▁waste	-4252
▁relative	-4253
ym	-4254
▁hear	-4255
▁phone	-4256
▁folder	-4257
▁provin	-4258
▁possess	-4259
▁integrated	-4260
icket	-4261
▁sugar	-4262
▁center	-4263
▁communic	-4264
gen	-4265
▁fu	-4266
▁exact	-4267
▁medicine	-4268
nam	-4269
▁advanced	-4270
▁tea	-4271
achal	-4272
ertain	-4273
▁choice	-4274
▁changing	-4275
▁solution	-4276
▁committees	-4277
▁electricity	-4278
▁spl	-4279
▁bott	-4280
▁channel	-4281
hel	-4282
▁nine	-4283
▁plays	-4284
▁expenses	-4285
▁arbitration	-4286
▁compar	-4287
odes	-4288
▁mel	-4289
▁bose	-4290
▁weap	-4291
▁allowance	-4292
▁shap	-4293
▁moving	-4294
▁sind	-4295
bal	-4296
▁satisfact	-4297
▁description	-4298
▁jag	-4299
tered	-4300
▁column	-4301
▁removed	-4302
iet	-4303
▁nan	-4304
tation	-4305
▁corporate	-4306
isition	-4307
▁demonst	-4308
▁sitting	-4309
▁student	-4310
grad	-4311
▁asp	-4312
▁irr	-4313
▁none	-4314
▁birds	-4315
▁ability	-4316
▁charged	-4317
▁equipment	-4318
▁challenges	-4319
▁offences	-4320
▁challenge	-4321
▁gain	-4322
▁calls	-4323
▁attach	-4324
▁currency	-4325
▁lond	-4326
▁didn	-4327
▁factor	-4328
▁married	-4329
▁recorded	-4330
▁enhan	-4331
▁housing	-4332
▁manufacture	-4333
athi	-4334
▁advis	-4335
▁surpr	-4336
▁proport	-4337
▁cry	-4338
▁hom	-4339
▁ocean	-4340
▁reduce	-4341
▁situated	-4342
▁objectives	-4343
▁defend	-4344
▁effects	-4345
▁manufacturing	-4346
▁sup	-4347
▁london	-4348
▁reb	-4349
▁prosperity	-4350
▁functioning	-4351
▁empire	-4352
▁subsid	-4353
▁continuous	-4354
cel	-4355
▁mac	-4356
▁endeav	-4357
▁formal	-4358
▁writer	-4359
▁weather	-4360
oj	-4361
▁sard	-4362
▁sole	-4363
▁subt	-4364
hs	-4365
▁ja	-4366
anas	-4367
▁upper	-4368
▁restrict	-4369
▁acid	-4370
▁huge	-4371
▁guidelines	-4372
▁manager	-4373
▁commod	-4374
▁tonnes	-4375
▁operating	-4376
▁die	-4377
▁pul	-4378
ayana	-4379
▁weeks	-4380
jud	-4381
▁rice	-4382
▁scientists	-4383
▁forum	-4384
▁consultation	-4385
▁scc	-4386
▁christian	-4387
isc	-4388
▁blue	-4389
hern	-4390
ifice	-4391
▁opened	-4392
▁karnataka	-4393
▁fourth	-4394
▁communities	-4395
▁dog	-4396
▁fertil	-4397
▁devotion	-4398
▁conducted	-4399
▁lt	-4400
thern	-4401
▁drive	-4402
atically	-4403
▁ble	-4404
▁iron	-4405
▁enforce	-4406
▁accomp	-4407
▁healthy	-4408
era	-4409
iya	-4410
▁na	-4411
▁dign	-4412
▁maintained	-4413
▁pick	-4414
▁brain	-4415
▁store	-4416
▁location	-4417
▁substance	-4418
▁dh	-4419
ordinate	-4420
ios	-4421
anya	-4422
iant	-4423
▁wonder	-4424
▁expert	-4425
▁accompan	-4426
▁collabor	-4427
▁nic	-4428
▁atmosphere	-4429
issa	-4430
board	-4431
ishing	-4432
▁corrup	-4433
▁sought	-4434
▁recovery	-4435
▁helped	-4436
▁attached	-4437
▁hill	-4438
▁jain	-4439
▁grown	-4440
▁noted	-4441
iveness	-4442
▁submitted	-4443
oti	-4444
yers	-4445
▁ast	-4446
▁infin	-4447
▁royal	-4448
▁execution	-4449
▁ox	-4450
otic	-4451
▁colon	-4452
▁stood	-4453
▁track	-4454
▁resist	-4455
▁consists	-4456
▁framework	-4457
ented	-4458
utory	-4459
▁brief	-4460
▁scope	-4461
▁battle	-4462
▁obtained	-4463
ankar	-4464
iform	-4465
overed	-4466
▁rivers	-4467
११	-4468
set	-4469
▁pert	-4470
▁habit	-4471
▁hair	-4472
▁dhar	-4473
▁mahab	-4474
▁opposition	-4475
▁hit	-4476
▁vit	-4477
▁served	-4478
lad	-4479
▁spot	-4480
▁assessing	-4481
ques	-4482
▁tel	-4483
▁armed	-4484
▁kil	-4485
▁labor	-4486
▁simpl	-4487
▁austral	-4488
▁initiative	-4489
▁lie	-4490
▁mir	-4491
upta	-4492
rical	-4493
▁yield	-4494
▁absence	-4495
▁pending	-4496
▁squared	-4497
▁bringing	-4498
▁suffering	-4499
▁mug	-4500
wan	-4501
▁adjust	-4502
▁courage	-4503
▁mountain	-4504
▁islands	-4505
▁personnel	-4506
▁organizations	-4507
▁evol	-4508
▁impris	-4509
▁welcome	-4510
▁emergency	-4511
▁processes	-4512
▁poly	-4513
▁destroy	-4514
▁assistant	-4515
une	-4516
▁pu	-4517
▁everyone	-4518
▁bilateral	-4519
osure	-4520
▁audio	-4521
▁param	-4522
▁imprisonment	-4523
▁rub	-4524
▁indig	-4525
▁attitude	-4526
hai	-4527
ips	-4528
▁selection	-4529
▁transferred	-4530
▁dia	-4531
▁heat	-4532
▁uses	-4533
▁branches	-4534
▁dat	-4535
▁orissa	-4536
▁prohib	-4537
▁screen	-4538
▁panchay	-4539
hana	-4540
▁tren	-4541
iments	-4542
▁loans	-4543
▁efficient	-4544
jection	-4545
▁decades	-4546
▁northern	-4547
▁ven	-4548
▁regulation	-4549
▁jamm	-4550
▁lies	-4551
▁discl	-4552
▁decide	-4553
▁appeals	-4554
▁comprehens	-4555
ocol	-4556
▁similarly	-4557
vision	-4558
▁afg	-4559
▁zero	-4560
dy	-4561
▁earn	-4562
▁deputy	-4563
▁actions	-4564
▁despite	-4565
▁evening	-4566
▁starting	-4567
iers	-4568
▁dance	-4569
▁proof	-4570
▁claims	-4571
▁eld	-4572
▁jammu	-4573
▁appellate	-4574
▁traff	-4575
▁ji	-4576
▁defe	-4577
▁ax	-4578
▁lif	-4579
▁girls	-4580
▁deleg	-4581
▁emotion	-4582
▁greatest	-4583
▁platform	-4584
hara	-4585
▁inquiry	-4586
▁intelligence	-4587
▁gains	-4588
▁afford	-4589
gypt	-4590
▁joined	-4591
▁prince	-4592
▁shared	-4593
▁ourselves	-4594
▁ga	-4595
▁digital	-4596
imb	-4597
▁piece	-4598
▁equality	-4599
▁recommendation	-4600
▁dynam	-4601
▁partner	-4602
▁calc	-4603
wh	-4604
▁smaller	-4605
▁imperial	-4606
▁behaviour	-4607
▁url	-4608
▁span	-4609
▁impart	-4610
▁unknow	-4611
▁becoming	-4612
lies	-4613
▁thousands	-4614
▁babu	-4615
▁sick	-4616
wa	-4617
▁myst	-4618
▁paral	-4619
holders	-4620
▁customer	-4621
▁instruments	-4622
▁egypt	-4623
▁recognised	-4624
▁flowers	-4625
iced	-4626
▁train	-4627
▁conclud	-4628
▁multiple	-4629
▁reported	-4630
▁commitment	-4631
▁organisations	-4632
▁atom	-4633
▁cave	-4634
▁designed	-4635
▁proceeding	-4636
▁capable	-4637
▁zone	-4638
▁domin	-4639
ibilities	-4640
▁telephone	-4641
▁friendship	-4642
ogue	-4643
▁tomorrow	-4644
▁uk	-4645
▁looks	-4646
▁severe	-4647
▁bird	-4648
▁motor	-4649
anged	-4650
▁para	-4651
▁liquid	-4652
▁delight	-4653
▁subhas	-4654
▁minutes	-4655
▁formation	-4656
▁kab	-4657
▁helps	-4658
▁pregn	-4659
▁signed	-4660
▁permission	-4661
▁improvement	-4662
▁renew	-4663
▁remark	-4664
▁sexual	-4665
▁whol	-4666
▁agent	-4667
▁bench	-4668
▁stamp	-4669
▁inval	-4670
▁madras	-4671
▁reveal	-4672
▁temperature	-4673
ding	-4674
▁bah	-4675
▁vehicle	-4676
▁southern	-4677
▁liability	-4678
▁technologies	-4679
▁hop	-4680
jan	-4681
▁skill	-4682
▁steel	-4683
▁commence	-4684
▁secondary	-4685
▁entrepreneurs	-4686
ricts	-4687
▁oblig	-4688
aji	-4689
▁skills	-4690
ifications	-4691
▁electronic	-4692
▁possession	-4693
▁substitut	-4694
▁installed	-4695
▁lal	-4696
▁garden	-4697
▁alternative	-4698
uing	-4699
▁deals	-4700
▁afghan	-4701
withstanding	-4702
▁fifty	-4703
▁secure	-4704
▁arising	-4705
▁equally	-4706
▁consol	-4707
udi	-4708
▁poets	-4709
▁declar	-4710
▁jawahar	-4711
▁recognition	-4712
▁notwithstanding	-4713
▁investig	-4714
inent	-4715
▁straight	-4716
ocks	-4717
▁sight	-4718
▁mostly	-4719
▁plaint	-4720
▁eligible	-4721
▁exports	-4722
▁communal	-4723
▁settings	-4724
▁evil	-4725
▁proportion	-4726
ded	-4727
ses	-4728
icted	-4729
▁ignor	-4730
derabad	-4731
▁implemented	-4732
▁tissue	-4733
▁pointed	-4734
▁portion	-4735
icip	-4736
▁cot	-4737
▁exhib	-4738
▁upgrad	-4739
▁acquired	-4740
▁normally	-4741
▁securities	-4742
▁comprehensive	-4743
▁blind	-4744
▁mandap	-4745
▁parent	-4746
▁felicit	-4747
▁compared	-4748
▁cris	-4749
▁dur	-4750
▁street	-4751
▁assigned	-4752
▁identified	-4753
▁transaction	-4754
▁bone	-4755
▁cabinet	-4756
▁visited	-4757
rees	-4758
▁gan	-4759
▁marked	-4760
▁nadu	-4761
▁narrow	-4762
▁customs	-4763
▁performed	-4764
▁pras	-4765
▁collected	-4766
▁insect	-4767
▁sardar	-4768
▁discharge	-4769
rel	-4770
▁appeared	-4771
▁centuries	-4772
▁immediate	-4773
▁aims	-4774
▁wise	-4775
▁transp	-4776
▁deliver	-4777
▁personality	-4778
mic	-4779
▁burn	-4780
▁organized	-4781
▁outstanding	-4782
osite	-4783
▁forth	-4784
▁rit	-4785
hance	-4786
▁disapp	-4787
▁kinds	-4788
▁enhance	-4789
▁saty	-4790
▁absor	-4791
▁horse	-4792
▁uncon	-4793
▁distur	-4794
▁engage	-4795
▁filled	-4796
▁overall	-4797
▁magistrate	-4798
oral	-4799
▁distinct	-4800
tes	-4801
▁billion	-4802
▁preced	-4803
▁library	-4804
▁examples	-4805
▁contributions	-4806
▁sanct	-4807
▁sports	-4808
▁municip	-4809
ranath	-4810
▁districts	-4811
▁directions	-4812
bon	-4813
▁gop	-4814
▁bond	-4815
▁disk	-4816
▁cloth	-4817
▁satisfied	-4818
▁fees	-4819
▁shop	-4820
▁imposs	-4821
▁limits	-4822
▁israeli	-4823
▁announced	-4824
ros	-4825
▁herit	-4826
▁career	-4827
▁counsel	-4828
▁download	-4829
▁border	-4830
▁represents	-4831
ni	-4832
▁plans	-4833
▁simply	-4834
▁az	-4835
▁rock	-4836
▁wants	-4837
▁employee	-4838
imal	-4839
▁000	-4840
▁१	-4841
▁desert	-4842
▁detailed	-4843
▁introduction	-4844
gh	-4845
ulty	-4846
▁arms	-4847
▁attrib	-4848
▁french	-4849
▁incorpor	-4850
▁experiment	-4851
gent	-4852
▁core	-4853
▁beings	-4854
▁respective	-4855
▁fib	-4856
▁seemed	-4857
▁visible	-4858
▁discussed	-4859
▁bind	-4860
▁dipl	-4861
▁doesn	-4862
▁eval	-4863
▁rati	-4864
▁remed	-4865
▁sacrifice	-4866
▁containing	-4867
▁prejud	-4868
▁tourism	-4869
athe	-4870
▁tab	-4871
▁....	-4872
▁conce	-4873
ca	-4874
right	-4875
ensions	-4876
▁valley	-4877
▁windows	-4878
▁heritage	-4879
ran	-4880
▁distinguished	-4881
▁race	-4882
▁exists	-4883
▁prevention	-4884
cip	-4885
▁enterprises	-4886
▁paras	-4887
▁markets	-4888
▁statutory	-4889
hus	-4890
▁killed	-4891
▁respondent	-4892
ork	-4893
▁tro	-4894
▁theme	-4895
▁creative	-4896
▁bright	-4897
▁imposed	-4898
▁movements	-4899
irect	-4900
▁cham	-4901
ila	-4902
▁runs	-4903
▁figures	-4904
▁properly	-4905
▁considerable	-4906
▁eggs	-4907
mn	-4908
▁dal	-4909
▁panel	-4910
▁sympt	-4911
▁conven	-4912
▁double	-4913
▁stands	-4914
▁competent	-4915
▁prosecution	-4916
iest	-4917
stood	-4918
▁amended	-4919
▁seeking	-4920
▁procedures	-4921
▁nab	-4922
aging	-4923
ladesh	-4924
minent	-4925
▁liberal	-4926
▁unknown	-4927
▁protocol	-4928
aced	-4929
▁sweet	-4930
▁libert	-4931
▁sustainable	-4932
▁mak	-4933
▁kill	-4934
▁objects	-4935
▁buy	-4936
▁muse	-4937
▁shel	-4938
▁delib	-4939
▁ordin	-4940
▁spect	-4941
▁discrim	-4942
▁hardly	-4943
▁organised	-4944
▁kir	-4945
▁tender	-4946
▁composed	-4947
▁extremely	-4948
ker	-4949
rav	-4950
▁org	-4951
▁raw	-4952
▁minds	-4953
▁raise	-4954
▁tribal	-4955
▁intended	-4956
▁customers	-4957
▁thereafter	-4958
▁territories	-4959
▁promoting	-4960
ena	-4961
▁ud	-4962
fort	-4963
▁symp	-4964
look	-4965
▁chat	-4966
untary	-4967
▁initiated	-4968
ping	-4969
▁drama	-4970
▁trading	-4971
▁alt	-4972
▁godd	-4973
▁demands	-4974
▁enabled	-4975
▁computing	-4976
elled	-4977
▁sang	-4978
▁conclusion	-4979
ux	-4980
back	-4981
antic	-4982
▁closed	-4983
▁apparent	-4984
▁adap	-4985
▁diet	-4986
▁pipes	-4987
▁palestinian	-4988
▁haz	-4989
▁sky	-4990
▁john	-4991
▁ahead	-4992
▁depends	-4993
▁forests	-4994
▁availability	-4995
▁declaration	-4996
▁hal	-4997
▁brahmin	-4998
▁directed	-4999
oe	-5000
▁employed	-5001
▁entirely	-5002
▁mahabhar	-5003
▁hyderabad	-5004
▁bangladesh	-5005
▁terrorist	-5006
▁obtain	-5007
▁peoples	-5008
▁interested	-5009
▁undertaken	-5010
▁pret	-5011
▁anyone	-5012
sa	-5013
dered	-5014
▁witnesses	-5015
▁amp	-5016
▁domain	-5017
▁offers	-5018
▁excellence	-5019
▁instructions	-5020
room	-5021
▁phen	-5022
▁guide	-5023
▁recru	-5024
▁swami	-5025
▁sacred	-5026
▁suddenly	-5027
▁coc	-5028
▁doll	-5029
▁index	-5030
▁traffic	-5031
▁informed	-5032
ithm	-5033
under	-5034
▁cart	-5035
▁roll	-5036
clause	-5037
▁tools	-5038
▁goddess	-5039
▁efficiency	-5040
▁arrangement	-5041
▁elim	-5042
▁urdu	-5043
▁treas	-5044
▁playing	-5045
▁acknow	-5046
▁acting	-5047
▁federal	-5048
▁involve	-5049
▁compound	-5050
erated	-5051
▁proud	-5052
▁admitted	-5053
▁exception	-5054
▁definition	-5055
▁htt	-5056
▁kap	-5057
▁floor	-5058
▁currently	-5059
▁irrigation	-5060
▁cos	-5061
▁lev	-5062
▁rid	-5063
▁thor	-5064
▁vishn	-5065
▁leaving	-5066
▁facilitate	-5067
akti	-5068
name	-5069
▁baby	-5070
▁flat	-5071
icious	-5072
▁golden	-5073
▁update	-5074
▁disposal	-5075
▁infinite	-5076
▁partition	-5077
▁monitoring	-5078
▁transactions	-5079
pa	-5080
otes	-5081
▁quickly	-5082
▁manifest	-5083
▁enterprise	-5084
mine	-5085
▁deeply	-5086
▁empower	-5087
▁impossible	-5088
▁hills	-5089
▁expans	-5090
▁unfortun	-5091
▁acquisition	-5092
▁invalid	-5093
anta	-5094
▁gods	-5095
ette	-5096
inger	-5097
▁gall	-5098
▁gate	-5099
▁describ	-5100
▁partial	-5101
▁jawaharlal	-5102
▁nurs	-5103
▁emphasis	-5104
ii	-5105
▁ltd	-5106
▁rat	-5107
▁patri	-5108
▁toler	-5109
▁authen	-5110
▁diplom	-5111
▁thoughts	-5112
▁felicitations	-5113
▁representative	-5114
▁myself	-5115
▁continues	-5116
▁requirement	-5117
nan	-5118
▁couple	-5119
▁religions	-5120
▁appearance	-5121
mer	-5122
hamm	-5123
▁chen	-5124
▁belonging	-5125
▁tot	-5126
▁exped	-5127
▁pages	-5128
▁render	-5129
▁strategy	-5130
uity	-5131
idden	-5132
▁cool	-5133
▁finding	-5134
▁uniform	-5135
▁commencement	-5136
▁allah	-5137
▁awarded	-5138
▁writers	-5139
▁quantity	-5140
▁reply	-5141
▁papers	-5142
▁slight	-5143
▁improving	-5144
ivers	-5145
▁mart	-5146
▁upto	-5147
▁professor	-5148
alg	-5149
top	-5150
▁chait	-5151
essions	-5152
▁happiness	-5153
▁societies	-5154
oses	-5155
▁outer	-5156
▁prove	-5157
▁seeds	-5158
▁negoti	-5159
▁happens	-5160
▁delete	-5161
▁inspired	-5162
▁fuel	-5163
hammad	-5164
oration	-5165
▁prevail	-5166
▁consolid	-5167
▁certainly	-5168
going	-5169
▁grounds	-5170
▁victims	-5171
▁bact	-5172
▁differences	-5173
ole	-5174
▁dar	-5175
▁sales	-5176
▁amendments	-5177
uable	-5178
usted	-5179
▁harv	-5180
▁ratio	-5181
▁feature	-5182
▁comments	-5183
▁wa	-5184
▁adm	-5185
▁mov	-5186
▁circu	-5187
▁sister	-5188
▁whenever	-5189
umin	-5190
▁flood	-5191
amin	-5192
othes	-5193
▁scen	-5194
mental	-5195
omin	-5196
▁laug	-5197
urally	-5198
▁cotton	-5199
▁propag	-5200
▁reader	-5201
▁addressed	-5202
▁estimated	-5203
asw	-5204
▁oh	-5205
▁sequ	-5206
▁commerce	-5207
▁deposits	-5208
arya	-5209
▁lik	-5210
▁roads	-5211
▁germany	-5212
▁directory	-5213
mp	-5214
▁improved	-5215
▁infection	-5216
▁practical	-5217
▁preserv	-5218
▁dedicated	-5219
▁exclud	-5220
▁league	-5221
▁museum	-5222
▁determination	-5223
▁showing	-5224
▁guidance	-5225
zy	-5226
▁abol	-5227
▁elev	-5228
▁castes	-5229
▁contemporary	-5230
▁investors	-5231
aly	-5232
wing	-5233
gments	-5234
▁lepro	-5235
amation	-5236
▁crisis	-5237
▁liable	-5238
aling	-5239
▁solid	-5240
▁atomic	-5241
▁island	-5242
▁explained	-5243
▁intention	-5244
▁understood	-5245
▁pandit	-5246
▁arrived	-5247
▁repeated	-5248
cs	-5249
xic	-5250
encing	-5251
▁supra	-5252
▁murder	-5253
▁ritual	-5254
▁enacted	-5255
▁respectively	-5256
oken	-5257
▁mit	-5258
▁incur	-5259
▁tribes	-5260
▁vs	-5261
▁advocate	-5262
▁humanity	-5263
fall	-5264
▁holy	-5265
▁masses	-5266
▁covering	-5267
▁lake	-5268
▁laksh	-5269
bb	-5270
▁kid	-5271
▁mant	-5272
▁consent	-5273
▁remaining	-5274
▁enemy	-5275
▁palace	-5276
▁constitute	-5277
▁consumption	-5278
▁bail	-5279
▁effectively	-5280
▁breath	-5281
had	-5282
▁cas	-5283
▁fill	-5284
▁seeing	-5285
▁string	-5286
▁arrested	-5287
▁definite	-5288
▁voluntary	-5289
arma	-5290
organ	-5291
▁leprosy	-5292
▁guarantee	-5293
▁py	-5294
kata	-5295
craft	-5296
▁owner	-5297
▁inspect	-5298
▁messages	-5299
cend	-5300
▁dismiss	-5301
▁expansion	-5302
aces	-5303
while	-5304
▁filing	-5305
▁illust	-5306
▁specif	-5307
icide	-5308
▁suffer	-5309
▁persian	-5310
▁meetings	-5311
▁railways	-5312
▁competition	-5313
▁superior	-5314
abet	-5315
▁voc	-5316
▁madhya	-5317
▁eternal	-5318
▁indirect	-5319
▁sessions	-5320
gor	-5321
ture	-5322
▁ego	-5323
▁row	-5324
▁empt	-5325
▁maybe	-5326
▁criticism	-5327
▁spite	-5328
▁phenom	-5329
ica	-5330
▁knows	-5331
aneous	-5332
▁buddha	-5333
▁millions	-5334
▁pig	-5335
▁derived	-5336
▁quarter	-5337
▁universe	-5338
▁recognized	-5339
▁showed	-5340
▁difficulty	-5341
▁dro	-5342
▁mig	-5343
▁twel	-5344
▁vess	-5345
▁ambed	-5346
▁transmission	-5347
▁bure	-5348
▁fasc	-5349
▁layer	-5350
▁rulers	-5351
▁rig	-5352
▁tort	-5353
▁vishnu	-5354
▁representatives	-5355
▁era	-5356
▁forget	-5357
▁twelve	-5358
▁viz	-5359
▁innoc	-5360
▁willing	-5361
▁ambedkar	-5362
ensity	-5363
rition	-5364
▁equity	-5365
hak	-5366
▁salt	-5367
▁arrangements	-5368
▁rent	-5369
▁owners	-5370
iary	-5371
norm	-5372
▁switch	-5373
▁complic	-5374
▁whereas	-5375
▁plaintiff	-5376
isher	-5377
▁raja	-5378
▁faculty	-5379
▁discipline	-5380
▁discussions	-5381
pers	-5382
iliar	-5383
uddin	-5384
▁gross	-5385
▁links	-5386
▁breast	-5387
osen	-5388
▁dna	-5389
endra	-5390
▁datab	-5391
▁estate	-5392
▁difficulties	-5393
▁tig	-5394
▁gupta	-5395
▁approx	-5396
▁subordinate	-5397
▁productivity	-5398
१२	-5399
enous	-5400
▁stages	-5401
▁gradually	-5402
▁strategic	-5403
▁successfully	-5404
▁os	-5405
ieving	-5406
▁conversion	-5407
▁vii	-5408
▁lose	-5409
▁chain	-5410
▁prote	-5411
▁institutes	-5412
▁writings	-5413
▁investments	-5414
tery	-5415
▁ille	-5416
▁stead	-5417
▁theat	-5418
▁prasad	-5419
▁strike	-5420
▁topics	-5421
▁replace	-5422
▁settled	-5423
izes	-5424
mark	-5425
owed	-5426
▁tir	-5427
▁goals	-5428
▁attacks	-5429
▁evident	-5430
che	-5431
▁cha	-5432
▁convert	-5433
▁options	-5434
▁mountains	-5435
▁afghanistan	-5436
cles	-5437
▁quiet	-5438
▁prompt	-5439
▁scr	-5440
▁champ	-5441
▁overse	-5442
▁washing	-5443
▁litigation	-5444
gery	-5445
▁myth	-5446
▁broken	-5447
▁cancer	-5448
▁debate	-5449
▁mughal	-5450
▁occurs	-5451
▁courses	-5452
▁talking	-5453
▁dil	-5454
▁react	-5455
▁radical	-5456
▁disabled	-5457
▁regarded	-5458
▁temporary	-5459
gi	-5460
▁ray	-5461
▁injury	-5462
inations	-5463
▁jay	-5464
▁lady	-5465
ciation	-5466
▁van	-5467
house	-5468
▁bottom	-5469
▁harmony	-5470
▁venture	-5471
▁cp	-5472
uran	-5473
▁trip	-5474
icians	-5475
▁binoy	-5476
▁mathem	-5477
▁immense	-5478
▁trained	-5479
▁elephant	-5480
▁numerous	-5481
▁hat	-5482
▁plug	-5483
▁brows	-5484
▁trouble	-5485
▁speeches	-5486
▁subsequent	-5487
▁architecture	-5488
▁nerv	-5489
▁editor	-5490
▁educated	-5491
▁municipal	-5492
iy	-5493
onym	-5494
▁abnorm	-5495
▁divide	-5496
▁recall	-5497
pet	-5498
▁bold	-5499
▁condol	-5500
▁involving	-5501
▁solutions	-5502
▁acceptance	-5503
▁club	-5504
▁gent	-5505
▁guil	-5506
ificial	-5507
▁representation	-5508
oned	-5509
▁desk	-5510
▁legs	-5511
▁fruits	-5512
▁chaitanya	-5513
ivered	-5514
▁holds	-5515
▁waiting	-5516
▁geograph	-5517
▁cooperative	-5518
▁kam	-5519
▁devi	-5520
▁yell	-5521
▁accom	-5522
▁widely	-5523
▁symptoms	-5524
▁authorised	-5525
▁soldiers	-5526
rie	-5527
▁blow	-5528
ressive	-5529
▁aggreg	-5530
▁waters	-5531
▁contribute	-5532
asi	-5533
ola	-5534
ota	-5535
asty	-5536
uman	-5537
orous	-5538
▁edge	-5539
▁tail	-5540
▁verses	-5541
▁identify	-5542
▁prosecut	-5543
inct	-5544
▁founded	-5545
▁contrary	-5546
▁controlled	-5547
▁institutional	-5548
▁alm	-5549
▁clar	-5550
▁vedic	-5551
▁accurate	-5552
▁determine	-5553
▁marriages	-5554
aks	-5555
▁geor	-5556
▁depth	-5557
▁walls	-5558
▁permitted	-5559
▁destruction	-5560
▁fever	-5561
▁advert	-5562
▁gather	-5563
eds	-5564
▁finds	-5565
▁linked	-5566
ads	-5567
▁tube	-5568
▁usual	-5569
raction	-5570
▁safegu	-5571
aman	-5572
ommod	-5573
▁envis	-5574
▁bridge	-5575
▁kolkata	-5576
▁neighbour	-5577
▁celebrated	-5578
▁sr	-5579
grim	-5580
▁bull	-5581
entions	-5582
▁corruption	-5583
▁luc	-5584
▁petro	-5585
▁daniel	-5586
▁newspaper	-5587
▁ba	-5588
▁boys	-5589
▁grew	-5590
▁forty	-5591
▁parag	-5592
▁argument	-5593
▁remarkable	-5594
▁distributed	-5595
▁tong	-5596
▁advent	-5597
▁brings	-5598
▁accommod	-5599
▁consisting	-5600
isted	-5601
▁scene	-5602
▁allows	-5603
▁herself	-5604
▁testing	-5605
▁proposals	-5606
▁automatically	-5607
ube	-5608
van	-5609
▁taught	-5610
▁visual	-5611
▁pilgrim	-5612
▁prepare	-5613
oser	-5614
▁sah	-5615
rates	-5616
▁socio	-5617
▁verse	-5618
▁afores	-5619
▁chrome	-5620
aded	-5621
inese	-5622
retion	-5623
▁dealt	-5624
▁emper	-5625
▁wound	-5626
▁russia	-5627
▁aforesaid	-5628
▁delivered	-5629
▁ib	-5630
▁map	-5631
hening	-5632
▁cycle	-5633
▁flower	-5634
▁weapons	-5635
▁drinking	-5636
▁categories	-5637
▁abst	-5638
▁crores	-5639
▁ceremony	-5640
▁buildings	-5641
▁components	-5642
▁preparation	-5643
▁civilization	-5644
▁vote	-5645
▁alleg	-5646
▁begins	-5647
▁burden	-5648
▁explain	-5649
▁specially	-5650
▁conservation	-5651
ulpt	-5652
▁vib	-5653
▁technological	-5654
▁sculpt	-5655
▁stress	-5656
▁yourself	-5657
▁directors	-5658
di	-5659
▁pound	-5660
▁chosen	-5661
▁significance	-5662
▁stake	-5663
▁thick	-5664
▁devices	-5665
▁york	-5666
▁plate	-5667
▁guilty	-5668
▁images	-5669
▁permit	-5670
▁strict	-5671
▁resulting	-5672
▁possibility	-5673
▁gn	-5674
tering	-5675
▁inflamm	-5676
▁familiar	-5677
▁patients	-5678
▁conviction	-5679
▁essentially	-5680
▁poison	-5681
▁reaction	-5682
▁enforcement	-5683
pay	-5684
▁wing	-5685
▁carbon	-5686
▁signal	-5687
▁compuls	-5688
ilitation	-5689
▁perfection	-5690
▁roof	-5691
▁leads	-5692
▁saint	-5693
▁thereby	-5694
▁unw	-5695
▁bath	-5696
▁client	-5697
▁secular	-5698
▁australia	-5699
▁chargeable	-5700
▁achievement	-5701
lets	-5702
▁turkey	-5703
▁accompl	-5704
▁chinese	-5705
▁strengthening	-5706
ikh	-5707
care	-5708
▁bats	-5709
▁regulatory	-5710
ibly	-5711
▁cad	-5712
▁chur	-5713
▁clus	-5714
▁ends	-5715
▁backward	-5716
▁salary	-5717
▁neck	-5718
▁falls	-5719
▁mixed	-5720
▁listen	-5721
▁starts	-5722
▁yellow	-5723
▁refused	-5724
garh	-5725
▁tank	-5726
▁intest	-5727
▁paralle	-5728
▁component	-5729
▁oral	-5730
▁asian	-5731
▁ensuring	-5732
rd	-5733
usal	-5734
▁coord	-5735
▁naturally	-5736
▁bush	-5737
▁cloud	-5738
▁poetic	-5739
▁amounts	-5740
▁himachal	-5741
▁valuable	-5742
▁innovative	-5743
▁progressive	-5744
oring	-5745
raint	-5746
▁spoke	-5747
▁france	-5748
amy	-5749
▁nin	-5750
▁walk	-5751
▁deriv	-5752
▁revol	-5753
vereign	-5754
▁employer	-5755
▁producing	-5756
▁encouraged	-5757
emb	-5758
alam	-5759
▁passen	-5760
▁retire	-5761
▁pertaining	-5762
▁participate	-5763
▁je	-5764
▁buff	-5765
erable	-5766
▁append	-5767
▁wholly	-5768
▁comfort	-5769
▁fertiliz	-5770
▁sovereign	-5771
ourse	-5772
▁sikh	-5773
active	-5774
▁noise	-5775
▁attain	-5776
▁britain	-5777
▁accompanied	-5778
iam	-5779
▁swar	-5780
▁ahmed	-5781
▁sheet	-5782
▁taxes	-5783
zz	-5784
eter	-5785
etary	-5786
▁shad	-5787
▁sita	-5788
▁rect	-5789
▁bless	-5790
▁marks	-5791
▁decade	-5792
▁limitation	-5793
kan	-5794
och	-5795
anka	-5796
▁wisd	-5797
▁victory	-5798
▁consequences	-5799
▁kg	-5800
gage	-5801
▁allot	-5802
▁heads	-5803
▁procl	-5804
▁concerns	-5805
▁conferred	-5806
▁diversity	-5807
▁prominent	-5808
▁qualities	-5809
cont	-5810
▁ring	-5811
▁cheque	-5812
▁remind	-5813
▁largely	-5814
▁tourist	-5815
▁arg	-5816
▁rhy	-5817
▁drop	-5818
▁drawing	-5819
▁vary	-5820
▁divid	-5821
▁forwarded	-5822
onal	-5823
▁adopt	-5824
▁exactly	-5825
▁violent	-5826
▁excellent	-5827
▁instruction	-5828
got	-5829
atics	-5830
▁grat	-5831
lig	-5832
cket	-5833
ician	-5834
ullah	-5835
▁teeth	-5836
▁wisdom	-5837
▁causing	-5838
▁terminal	-5839
▁satisfaction	-5840
odh	-5841
aste	-5842
▁vic	-5843
▁nagar	-5844
▁resign	-5845
▁unlike	-5846
▁liberty	-5847
▁consumers	-5848
apur	-5849
▁hyp	-5850
▁meat	-5851
▁node	-5852
▁immun	-5853
▁advised	-5854
▁claimed	-5855
▁feelings	-5856
▁artificial	-5857
▁nur	-5858
▁carefully	-5859
▁properties	-5860
▁examine	-5861
▁sul	-5862
tical	-5863
▁analy	-5864
▁flight	-5865
▁submit	-5866
▁printed	-5867
▁interface	-5868
▁traditions	-5869
▁dear	-5870
▁corner	-5871
▁diction	-5872
▁publish	-5873
▁interpretation	-5874
iso	-5875
▁meg	-5876
▁tear	-5877
▁seats	-5878
▁signs	-5879
▁cancel	-5880
▁specify	-5881
▁suffered	-5882
▁applicant	-5883
▁cup	-5884
▁pit	-5885
▁carri	-5886
▁queen	-5887
▁mandapa	-5888
▁raising	-5889
lu	-5890
▁dust	-5891
▁accum	-5892
▁escape	-5893
▁brahman	-5894
ml	-5895
mal	-5896
▁anx	-5897
utation	-5898
▁satell	-5899
▁appellant	-5900
▁automatic	-5901
▁television	-5902
ients	-5903
▁scar	-5904
▁shiv	-5905
▁algor	-5906
▁convers	-5907
▁considering	-5908
ught	-5909
▁incent	-5910
ulations	-5911
▁dignity	-5912
inn	-5913
icks	-5914
orter	-5915
▁sorrow	-5916
▁invited	-5917
▁suggestion	-5918
rum	-5919
▁cd	-5920
▁gora	-5921
▁icon	-5922
▁prol	-5923
▁route	-5924
▁maharaja	-5925
▁ly	-5926
uses	-5927
inder	-5928
▁conqu	-5929
▁solve	-5930
ulating	-5931
▁cattle	-5932
▁experts	-5933
▁stopped	-5934
▁opposite	-5935
▁childhood	-5936
▁combination	-5937
▁older	-5938
▁gazette	-5939
▁commonly	-5940
▁achievements	-5941
ilal	-5942
▁taj	-5943
▁edit	-5944
▁owned	-5945
▁shaped	-5946
▁airport	-5947
▁strange	-5948
▁transformation	-5949
▁rose	-5950
▁rough	-5951
▁emperor	-5952
▁database	-5953
▁saved	-5954
▁truly	-5955
▁handic	-5956
▁circular	-5957
▁confined	-5958
▁developments	-5959
urved	-5960
▁font	-5961
▁menu	-5962
▁trem	-5963
▁calend	-5964
▁rising	-5965
▁sharing	-5966
▁aircraft	-5967
▁provinces	-5968
▁reduction	-5969
▁suggestions	-5970
oked	-5971
▁pac	-5972
▁glass	-5973
▁shiva	-5974
▁player	-5975
▁followers	-5976
▁compassion	-5977
▁complaints	-5978
▁aer	-5979
▁dynamic	-5980
▁factory	-5981
▁fifteen	-5982
▁illness	-5983
▁fighting	-5984
ima	-5985
▁ber	-5986
▁sor	-5987
▁vaj	-5988
ushed	-5989
▁isol	-5990
▁jobs	-5991
▁faced	-5992
▁receiving	-5993
▁maintaining	-5994
ensus	-5995
▁phar	-5996
▁arise	-5997
▁diagn	-5998
▁incurred	-5999
▁paragraph	-6000
gers	-6001
▁sha	-6002
rafts	-6003
▁inserted	-6004
▁candidates	-6005
▁vegetables	-6006
▁cultivation	-6007
▁pc	-6008
▁hem	-6009
▁rav	-6010
▁mohan	-6011
▁multipl	-6012
▁passion	-6013
▁distinction	-6014
jay	-6015
▁ww	-6016
▁tor	-6017
iable	-6018
rator	-6019
▁seat	-6020
▁stim	-6021
▁parallel	-6022
▁vul	-6023
▁arts	-6024
▁auton	-6025
▁circuit	-6026
▁ultimately	-6027
▁tun	-6028
▁devot	-6029
▁spend	-6030
▁insure	-6031
▁islamist	-6032
▁ramayana	-6033
▁computers	-6034
▁percentage	-6035
▁statements	-6036
can	-6037
ows	-6038
▁ok	-6039
▁semin	-6040
▁depending	-6041
▁represented	-6042
▁pup	-6043
▁lamp	-6044
▁wear	-6045
▁uncle	-6046
▁duration	-6047
leum	-6048
▁din	-6049
▁cord	-6050
▁rehab	-6051
▁gentle	-6052
iversary	-6053
▁bharati	-6054
▁imagine	-6055
▁involves	-6056
▁rejected	-6057
▁emotional	-6058
edia	-6059
▁asc	-6060
▁flex	-6061
▁occurred	-6062
pat	-6063
▁minute	-6064
▁nabard	-6065
▁greatly	-6066
▁technique	-6067
za	-6068
▁vim	-6069
▁chal	-6070
▁peas	-6071
▁contro	-6072
▁concess	-6073
▁equival	-6074
▁managed	-6075
▁obvious	-6076
▁studied	-6077
▁brothers	-6078
▁subscribe	-6079
▁constituent	-6080
▁gul	-6081
▁ing	-6082
▁prox	-6083
▁ties	-6084
▁fluid	-6085
▁facing	-6086
▁hinduism	-6087
▁literacy	-6088
▁supplement	-6089
१३	-6090
writ	-6091
ander	-6092
anges	-6093
▁inev	-6094
▁wheat	-6095
▁resort	-6096
▁theatre	-6097
▁bun	-6098
eries	-6099
▁gift	-6100
▁games	-6101
▁grace	-6102
▁convin	-6103
▁pieces	-6104
▁proviso	-6105
oom	-6106
ria	-6107
▁tv	-6108
ales	-6109
itud	-6110
ogen	-6111
▁fab	-6112
▁govt	-6113
▁sons	-6114
▁empty	-6115
▁fifth	-6116
▁gun	-6117
▁beat	-6118
▁horiz	-6119
▁summer	-6120
▁yester	-6121
missible	-6122
▁indicate	-6123
▁dangerous	-6124
▁ul	-6125
arita	-6126
ipping	-6127
▁pride	-6128
▁condem	-6129
▁eminent	-6130
▁obligation	-6131
▁forced	-6132
▁vaishn	-6133
▁rational	-6134
ingly	-6135
▁sant	-6136
▁aimed	-6137
▁pictures	-6138
▁privilege	-6139
▁newspapers	-6140
▁electronics	-6141
▁revolutionary	-6142
mat	-6143
▁disqu	-6144
▁novels	-6145
▁notified	-6146
▁dependent	-6147
▁ministries	-6148
▁presentation	-6149
▁via	-6150
▁gree	-6151
▁antic	-6152
▁ruler	-6153
▁passage	-6154
▁emerging	-6155
▁converted	-6156
▁obviously	-6157
▁snow	-6158
▁stick	-6159
bh	-6160
▁sixty	-6161
▁enthus	-6162
▁monthly	-6163
▁savings	-6164
▁integrity	-6165
iar	-6166
achi	-6167
works	-6168
▁http	-6169
▁pray	-6170
▁ther	-6171
▁scholar	-6172
df	-6173
uv	-6174
▁chh	-6175
▁zeal	-6176
▁muscle	-6177
▁simult	-6178
▁contributed	-6179
yl	-6180
▁mm	-6181
oram	-6182
▁trend	-6183
▁refuge	-6184
▁diverse	-6185
▁profile	-6186
▁returns	-6187
▁prospect	-6188
▁realised	-6189
▁somebody	-6190
▁yesterday	-6191
mans	-6192
▁nath	-6193
herent	-6194
▁fault	-6195
▁asking	-6196
▁custody	-6197
▁deceased	-6198
▁keyboard	-6199
▁structures	-6200
▁operational	-6201
rid	-6202
▁fet	-6203
▁www	-6204
▁clim	-6205
▁fold	-6206
▁amalg	-6207
▁vehicles	-6208
▁destination	-6209
ba	-6210
ayas	-6211
▁pron	-6212
▁beach	-6213
chandra	-6214
▁calcul	-6215
iculture	-6216
▁putting	-6217
▁extensive	-6218
heb	-6219
▁bol	-6220
▁hari	-6221
▁pull	-6222
erning	-6223
▁closely	-6224
▁enthusi	-6225
▁broadcast	-6226
▁primarily	-6227
▁influenced	-6228
▁ru	-6229
▁sites	-6230
▁silver	-6231
▁therein	-6232
▁inclusive	-6233
▁specifically	-6234
▁gd	-6235
▁nir	-6236
▁decre	-6237
▁indira	-6238
▁listed	-6239
▁nobody	-6240
▁spring	-6241
▁applies	-6242
▁planned	-6243
▁payments	-6244
▁advocates	-6245
▁affection	-6246
▁techniques	-6247
▁transportation	-6248
nd	-6249
mits	-6250
ooth	-6251
▁genu	-6252
▁arabic	-6253
▁elabor	-6254
▁adverse	-6255
▁financing	-6256
▁operative	-6257
▁controvers	-6258
▁implementing	-6259
▁anc	-6260
▁fly	-6261
▁ended	-6262
▁learnt	-6263
▁sciences	-6264
ache	-6265
▁bhut	-6266
▁siva	-6267
▁wage	-6268
▁sharp	-6269
▁wages	-6270
▁shrine	-6271
▁desired	-6272
▁indigenous	-6273
▁experiences	-6274
agra	-6275
hters	-6276
▁exem	-6277
▁cruel	-6278
▁metal	-6279
▁stored	-6280
▁disturb	-6281
▁examined	-6282
▁hundreds	-6283
▁subsequently	-6284
▁hi	-6285
orial	-6286
▁gita	-6287
▁stup	-6288
▁nutrition	-6289
▁socialist	-6290
..	-6291
▁hang	-6292
▁redress	-6293
▁combined	-6294
▁programs	-6295
▁collective	-6296
cers	-6297
ieves	-6298
▁shif	-6299
▁consp	-6300
▁depri	-6301
▁towns	-6302
▁desktop	-6303
▁warrant	-6304
▁enhanced	-6305
▁anniversary	-6306
▁communications	-6307
jun	-6308
▁unre	-6309
▁bonds	-6310
▁kings	-6311
inating	-6312
▁button	-6313
▁extract	-6314
▁agreements	-6315
▁lin	-6316
▁smt	-6317
▁embra	-6318
▁entity	-6319
▁expiry	-6320
▁slowly	-6321
▁servant	-6322
▁oriented	-6323
▁premises	-6324
▁completion	-6325
▁translated	-6326
sl	-6327
▁jam	-6328
▁acce	-6329
▁aside	-6330
▁aspir	-6331
▁nerve	-6332
▁shift	-6333
▁suppl	-6334
▁calling	-6335
▁marathi	-6336
▁operate	-6337
▁overseas	-6338
his	-6339
hips	-6340
rain	-6341
▁encl	-6342
▁lakhs	-6343
rar	-6344
ste	-6345
umes	-6346
▁enl	-6347
ipped	-6348
▁keen	-6349
orders	-6350
▁empow	-6351
▁utter	-6352
▁basava	-6353
▁spoken	-6354
▁package	-6355
▁totally	-6356
▁attended	-6357
▁inspection	-6358
▁dress	-6359
▁lingu	-6360
▁virtue	-6361
▁winter	-6362
▁submission	-6363
▁fle	-6364
▁aband	-6365
▁prize	-6366
▁remar	-6367
▁printer	-6368
▁stations	-6369
▁happening	-6370
▁commodities	-6371
nai	-6372
▁err	-6373
▁gal	-6374
▁pest	-6375
▁sets	-6376
▁decor	-6377
▁hotel	-6378
▁seeks	-6379
▁twice	-6380
▁caught	-6381
▁treaty	-6382
▁anticip	-6383
▁farming	-6384
enn	-6385
▁eating	-6386
▁regime	-6387
▁reprodu	-6388
▁organisms	-6389
▁discovered	-6390
▁rao	-6391
▁sed	-6392
urity	-6393
▁agra	-6394
▁epic	-6395
▁homes	-6396
▁persu	-6397
▁george	-6398
▁harvest	-6399
▁opposed	-6400
▁selling	-6401
▁contents	-6402
▁discretion	-6403
▁configuration	-6404
▁ice	-6405
▁nit	-6406
▁spr	-6407
▁wire	-6408
▁neare	-6409
▁ruling	-6410
▁acceler	-6411
▁burning	-6412
▁identification	-6413
time	-6414
itals	-6415
▁couldn	-6416
▁fulfil	-6417
ouch	-6418
▁flo	-6419
▁unb	-6420
▁shut	-6421
▁lanka	-6422
▁raman	-6423
ourable	-6424
▁license	-6425
▁realise	-6426
▁sensitive	-6427
▁gla	-6428
▁elder	-6429
▁tasks	-6430
▁supposed	-6431
▁household	-6432
cure	-6433
▁cin	-6434
▁coin	-6435
▁stuff	-6436
▁wings	-6437
▁paying	-6438
▁lawyers	-6439
▁mailing	-6440
▁arranged	-6441
▁resulted	-6442
▁healthcare	-6443
▁situations	-6444
▁copies	-6445
▁worker	-6446
▁majesty	-6447
▁referring	-6448
▁impression	-6449
comm	-6450
▁lah	-6451
▁orth	-6452
▁trek	-6453
▁mahabharata	-6454
ugu	-6455
▁jack	-6456
▁delic	-6457
▁obama	-6458
▁persist	-6459
▁replied	-6460
▁buddhist	-6461
▁discover	-6462
▁sap	-6463
▁pled	-6464
▁organic	-6465
▁suicide	-6466
▁contrast	-6467
▁muhammad	-6468
▁rendered	-6469
▁addressing	-6470
▁kav	-6471
antly	-6472
▁catch	-6473
▁surren	-6474
▁ultimate	-6475
ema	-6476
ager	-6477
inity	-6478
ocked	-6479
▁anand	-6480
▁mahal	-6481
▁posts	-6482
▁framed	-6483
▁ideals	-6484
▁models	-6485
▁clothes	-6486
▁emerged	-6487
▁readers	-6488
▁offering	-6489
▁composition	-6490
▁lac	-6491
icate	-6492
▁hydro	-6493
▁defendant	-6494
▁residence	-6495
▁resistance	-6496
▁pp	-6497
ifies	-6498
▁boat	-6499
▁roots	-6500
▁covers	-6501
▁competitive	-6502
pad	-6503
iders	-6504
▁annex	-6505
▁tract	-6506
▁finger	-6507
▁calendar	-6508
▁printing	-6509
▁grievances	-6510
▁au	-6511
aneously	-6512
▁reaching	-6513
▁entertain	-6514
▁regularly	-6515
arh	-6516
▁blank	-6517
▁smart	-6518
▁binding	-6519
▁punjabi	-6520
▁routine	-6521
▁compulsory	-6522
▁imagination	-6523
▁installation	-6524
irs	-6525
▁amaz	-6526
▁hary	-6527
▁indo	-6528
▁vacc	-6529
irable	-6530
▁ruled	-6531
▁stars	-6532
▁volun	-6533
▁wherever	-6534
▁attachment	-6535
lord	-6536
nity	-6537
▁sovi	-6538
▁chron	-6539
▁magaz	-6540
▁recon	-6541
▁organs	-6542
▁turning	-6543
▁presents	-6544
▁classical	-6545
▁celebrations	-6546
raid	-6547
▁nas	-6548
▁pair	-6549
▁alive	-6550
▁bangal	-6551
▁saving	-6552
▁everywhere	-6553
▁constructed	-6554
▁congratulate	-6555
wide	-6556
payee	-6557
▁outl	-6558
▁earned	-6559
▁feeding	-6560
▁sending	-6561
▁phenomen	-6562
▁eventually	-6563
▁paint	-6564
▁rapidly	-6565
▁extraord	-6566
▁displayed	-6567
▁recording	-6568
▁inflammation	-6569
chant	-6570
▁hide	-6571
▁flour	-6572
▁litig	-6573
▁chromos	-6574
▁killing	-6575
▁concerning	-6576
life	-6577
▁vas	-6578
agers	-6579
▁intu	-6580
▁thin	-6581
▁prayer	-6582
▁helping	-6583
▁outlook	-6584
▁vajpayee	-6585
▁achieving	-6586
▁petroleum	-6587
▁constantly	-6588
▁generations	-6589
▁integration	-6590
▁characteristic	-6591
uri	-6592
▁goa	-6593
icing	-6594
orters	-6595
oes	-6596
▁aur	-6597
abling	-6598
▁inher	-6599
▁haryana	-6600
▁colonial	-6601
▁references	-6602
▁obligations	-6603
▁aj	-6604
semin	-6605
endous	-6606
▁marry	-6607
▁chamber	-6608
▁abnormal	-6609
ney	-6610
kind	-6611
▁kor	-6612
ental	-6613
▁ending	-6614
▁heaven	-6615
▁assured	-6616
▁endeavour	-6617
▁calculated	-6618
▁retirement	-6619
▁discrimination	-6620
exp	-6621
▁lap	-6622
ading	-6623
auses	-6624
▁merg	-6625
▁deity	-6626
▁illegal	-6627
▁promise	-6628
▁historic	-6629
▁frequently	-6630
▁cum	-6631
▁wed	-6632
itted	-6633
▁stom	-6634
▁photo	-6635
▁repay	-6636
▁artist	-6637
▁canada	-6638
▁repair	-6639
▁ordered	-6640
▁indicated	-6641
▁succession	-6642
▁collaboration	-6643
pping	-6644
▁irre	-6645
▁cheap	-6646
▁hidden	-6647
▁settle	-6648
▁channels	-6649
▁governing	-6650
▁undertake	-6651
▁interaction	-6652
▁bio	-6653
▁vel	-6654
▁diam	-6655
▁pool	-6656
▁sank	-6657
▁chest	-6658
▁intim	-6659
▁enquiry	-6660
▁audience	-6661
▁replaced	-6662
alal	-6663
▁bach	-6664
▁saudi	-6665
▁summary	-6666
▁entrusted	-6667
▁supporting	-6668
▁tap	-6669
▁wik	-6670
▁ticket	-6671
▁busy	-6672
▁everybody	-6673
▁requested	-6674
rh	-6675
uf	-6676
▁ny	-6677
orious	-6678
▁grain	-6679
▁circle	-6680
▁ayurved	-6681
▁innovations	-6682
ida	-6683
▁ipc	-6684
▁vag	-6685
▁glad	-6686
▁bread	-6687
▁brown	-6688
▁degrees	-6689
▁admission	-6690
▁protected	-6691
quar	-6692
▁nod	-6693
isite	-6694
▁bare	-6695
▁silk	-6696
▁moreover	-6697
▁geographical	-6698
▁rehabilitation	-6699
bra	-6700
atar	-6701
what	-6702
sement	-6703
▁shell	-6704
▁inaugur	-6705
▁highlight	-6706
▁oxy	-6707
▁kann	-6708
▁rein	-6709
▁align	-6710
▁cater	-6711
▁membr	-6712
▁milit	-6713
▁worry	-6714
▁browser	-6715
▁doctors	-6716
vis	-6717
▁ape	-6718
▁duly	-6719
▁newly	-6720
▁pregnancy	-6721
▁prejudice	-6722
▁sucharita	-6723
▁sustained	-6724
▁corresponding	-6725
book	-6726
▁hes	-6727
▁ped	-6728
oking	-6729
▁auth	-6730
▁prest	-6731
itative	-6732
▁beneficial	-6733
▁membership	-6734
thy	-6735
unk	-6736
power	-6737
▁lung	-6738
▁tooth	-6739
▁farmer	-6740
▁chennai	-6741
▁falling	-6742
▁resolve	-6743
▁cav	-6744
▁pin	-6745
▁genus	-6746
▁parad	-6747
▁grants	-6748
▁batsman	-6749
▁decline	-6750
▁imports	-6751
▁regards	-6752
▁contacts	-6753
▁derivative	-6754
▁inspiration	-6755
▁rot	-6756
apped	-6757
▁auto	-6758
▁axis	-6759
▁chart	-6760
▁enorm	-6761
▁malay	-6762
▁infect	-6763
▁driving	-6764
▁reducing	-6765
▁destroyed	-6766
▁electrical	-6767
iday	-6768
▁anth	-6769
▁sheep	-6770
ilation	-6771
▁jewish	-6772
▁peaceful	-6773
▁varieties	-6774
▁residential	-6775
▁nob	-6776
▁drum	-6777
▁hurt	-6778
▁incap	-6779
▁lying	-6780
▁tiger	-6781
ications	-6782
▁recover	-6783
▁attempts	-6784
▁earliest	-6785
▁modified	-6786
▁obtaining	-6787
▁stability	-6788
▁dir	-6789
▁lease	-6790
▁norms	-6791
▁pharm	-6792
▁width	-6793
▁soviet	-6794
▁tongue	-6795
▁genuine	-6796
▁necessarily	-6797
▁rbi	-6798
▁arun	-6799
▁plain	-6800
▁native	-6801
▁kilomet	-6802
▁colleges	-6803
▁executed	-6804
▁ignorance	-6805
▁exploitation	-6806
▁fate	-6807
▁arises	-6808
▁defeat	-6809
▁alleged	-6810
▁networks	-6811
▁weakness	-6812
▁equivalent	-6813
▁unfortunately	-6814
▁dac	-6815
▁dav	-6816
rogen	-6817
▁miles	-6818
▁cutting	-6819
▁genetic	-6820
▁exclusive	-6821
▁incorporated	-6822
▁hort	-6823
▁maur	-6824
▁hyper	-6825
athered	-6826
▁neglect	-6827
▁premium	-6828
▁serving	-6829
▁radiation	-6830
▁tribunals	-6831
▁statistics	-6832
▁programming	-6833
illa	-6834
ching	-6835
▁pond	-6836
▁spin	-6837
▁varied	-6838
▁disqual	-6839
▁evolved	-6840
▁licence	-6841
▁bangalore	-6842
bre	-6843
rupt	-6844
▁mira	-6845
▁thread	-6846
▁retired	-6847
▁intermedi	-6848
▁ict	-6849
▁clock	-6850
▁faces	-6851
▁insert	-6852
▁intense	-6853
▁realize	-6854
▁dramatic	-6855
▁collector	-6856
▁recognize	-6857
▁disability	-6858
▁ug	-6859
ster	-6860
▁til	-6861
▁luck	-6862
▁adoption	-6863
▁hardware	-6864
▁monetary	-6865
▁multiply	-6866
▁allahabad	-6867
▁continuing	-6868
▁motiv	-6869
▁denied	-6870
▁interim	-6871
▁revision	-6872
▁accounting	-6873
▁performing	-6874
olic	-6875
▁lod	-6876
▁wheel	-6877
▁warning	-6878
▁innocent	-6879
▁generated	-6880
१४	-6881
etan	-6882
▁rand	-6883
▁crucial	-6884
▁mistake	-6885
▁initially	-6886
lin	-6887
urg	-6888
uti	-6889
adur	-6890
atri	-6891
rete	-6892
▁han	-6893
eding	-6894
▁brill	-6895
▁larva	-6896
▁legit	-6897
▁afraid	-6898
▁deliber	-6899
▁hindust	-6900
▁silence	-6901
▁liberation	-6902
▁washington	-6903
▁characteristics	-6904
oz	-6905
aked	-6906
▁badr	-6907
▁prefer	-6908
▁academy	-6909
▁belongs	-6910
▁enables	-6911
▁lecture	-6912
▁aggregate	-6913
eff	-6914
mon	-6915
nic	-6916
▁jer	-6917
▁emer	-6918
▁ling	-6919
▁manual	-6920
▁thorough	-6921
ports	-6922
▁cant	-6923
▁consequence	-6924
▁extraordinary	-6925
ec	-6926
uram	-6927
utosh	-6928
▁dict	-6929
▁msme	-6930
▁pant	-6931
▁musical	-6932
▁prestig	-6933
▁subsidy	-6934
▁overcome	-6935
enda	-6936
▁mud	-6937
▁deduct	-6938
▁margin	-6939
▁dynasty	-6940
▁injured	-6941
▁younger	-6942
▁enabling	-6943
▁empowerment	-6944
yr	-6945
dev	-6946
▁mole	-6947
rations	-6948
▁succeeded	-6949
▁alco	-6950
▁fraud	-6951
▁vedas	-6952
▁adding	-6953
▁devoted	-6954
▁disorder	-6955
▁attracted	-6956
▁authentic	-6957
▁preferred	-6958
▁restrictions	-6959
▁gap	-6960
oding	-6961
▁agro	-6962
▁lock	-6963
▁touc	-6964
▁urge	-6965
▁gland	-6966
▁tells	-6967
▁bigger	-6968
▁bureau	-6969
▁inherent	-6970
▁managing	-6971
▁relatives	-6972
▁tremendous	-6973
▁ek	-6974
ymph	-6975
▁palm	-6976
▁semi	-6977
▁adjud	-6978
▁holder	-6979
▁biggest	-6980
▁bacteria	-6981
▁imported	-6982
▁furnished	-6983
gra	-6984
osted	-6985
▁loyal	-6986
▁sheikh	-6987
▁carries	-6988
▁noticed	-6989
▁william	-6990
▁servants	-6991
avas	-6992
▁apt	-6993
▁indu	-6994
▁loose	-6995
▁moham	-6996
▁summit	-6997
▁restric	-6998
▁japanese	-6999
▁sanctioned	-7000
das	-7001
amed	-7002
▁usa	-7003
▁fran	-7004
▁vitamin	-7005
▁precious	-7006
▁tourists	-7007
▁exchanges	-7008
▁positions	-7009
je	-7010
▁dv	-7011
aryn	-7012
▁dies	-7013
▁meal	-7014
▁closer	-7015
▁revised	-7016
▁sequence	-7017
▁excessive	-7018
▁himalayas	-7019
▁satellite	-7020
▁convocation	-7021
▁tob	-7022
▁subh	-7023
▁nanak	-7024
▁church	-7025
▁commit	-7026
▁chemicals	-7027
▁ownership	-7028
▁comparative	-7029
▁recruitment	-7030
▁substituted	-7031
▁depre	-7032
▁risks	-7033
▁partly	-7034
▁answers	-7035
▁walking	-7036
▁acknowled	-7037
off	-7038
eters	-7039
▁pace	-7040
▁abdul	-7041
▁incom	-7042
▁pronoun	-7043
▁appendix	-7044
▁breeding	-7045
▁describe	-7046
▁handling	-7047
▁strongly	-7048
▁wildlife	-7049
▁practition	-7050
▁establishing	-7051
ador	-7052
▁exha	-7053
▁intr	-7054
▁divor	-7055
▁plane	-7056
▁scrut	-7057
▁praise	-7058
▁rabind	-7059
▁alcohol	-7060
▁pillars	-7061
▁advisory	-7062
▁increases	-7063
▁interview	-7064
▁disabilities	-7065
▁representing	-7066
si	-7067
▁dup	-7068
▁gif	-7069
▁easier	-7070
▁marine	-7071
▁surgery	-7072
▁profound	-7073
▁publications	-7074
▁jub	-7075
▁pall	-7076
▁plot	-7077
▁butter	-7078
▁fairly	-7079
▁prelim	-7080
▁refund	-7081
▁remedy	-7082
▁worshi	-7083
missions	-7084
▁darkness	-7085
▁dissemin	-7086
▁governed	-7087
▁exercised	-7088
▁philosoph	-7089
rous	-7090
▁yam	-7091
▁clin	-7092
▁acute	-7093
▁fabric	-7094
▁bearing	-7095
▁comprom	-7096
▁realisation	-7097
▁gro	-7098
▁vot	-7099
▁telugu	-7100
▁satyagra	-7101
▁compliance	-7102
▁delegation	-7103
▁punishable	-7104
irmed	-7105
▁snake	-7106
▁verma	-7107
▁inputs	-7108
▁talent	-7109
▁bahadur	-7110
▁periods	-7111
▁visiting	-7112
▁particulars	-7113
udh	-7114
▁bug	-7115
▁horn	-7116
▁hung	-7117
▁inqu	-7118
▁adults	-7119
▁stones	-7120
▁anywhere	-7121
▁convicted	-7122
▁occasions	-7123
▁villagers	-7124
▁preliminary	-7125
▁mc	-7126
▁kit	-7127
being	-7128
onial	-7129
isible	-7130
▁crown	-7131
▁turns	-7132
▁worse	-7133
ictions	-7134
▁mineral	-7135
▁contracts	-7136
▁acceptable	-7137
▁experienced	-7138
iri	-7139
anes	-7140
▁sab	-7141
▁alter	-7142
▁immig	-7143
fulness	-7144
▁gained	-7145
▁enlight	-7146
how	-7147
pent	-7148
erals	-7149
▁vish	-7150
atories	-7151
▁dreams	-7152
▁handle	-7153
▁gathered	-7154
▁increasingly	-7155
son	-7156
▁tum	-7157
ariat	-7158
▁coff	-7159
▁mine	-7160
▁mood	-7161
coming	-7162
▁alloc	-7163
▁grave	-7164
▁netaji	-7165
▁pretty	-7166
▁allocation	-7167
wood	-7168
▁jung	-7169
▁orna	-7170
▁dwark	-7171
▁noble	-7172
▁driver	-7173
▁perpet	-7174
▁appreciation	-7175
▁pou	-7176
▁silent	-7177
▁manipur	-7178
▁minority	-7179
▁necessity	-7180
▁conventional	-7181
itya	-7182
▁moh	-7183
ovable	-7184
▁mould	-7185
▁usage	-7186
▁disable	-7187
▁funding	-7188
▁furnish	-7189
▁produces	-7190
▁reserved	-7191
▁indicates	-7192
▁originally	-7193
ny	-7194
asy	-7195
oly	-7196
bert	-7197
▁cul	-7198
▁isn	-7199
ulous	-7200
▁cogn	-7201
▁logic	-7202
▁brahma	-7203
▁resear	-7204
▁smooth	-7205
▁stomach	-7206
▁marginal	-7207
▁designated	-7208
▁encouraging	-7209
atis	-7210
ione	-7211
rine	-7212
▁bha	-7213
▁rhyth	-7214
▁texts	-7215
▁allied	-7216
▁pleased	-7217
▁dialogue	-7218
▁commodity	-7219
▁seriously	-7220
▁withdrawal	-7221
do	-7222
▁ta	-7223
▁sahib	-7224
▁festiv	-7225
▁metres	-7226
iliation	-7227
▁horizon	-7228
▁precise	-7229
▁addresses	-7230
▁provincial	-7231
gram	-7232
▁fan	-7233
cular	-7234
▁bamb	-7235
▁abuse	-7236
▁inhab	-7237
▁faster	-7238
▁genius	-7239
▁urgent	-7240
▁careful	-7241
▁knowing	-7242
▁mankind	-7243
▁massive	-7244
down	-7245
odox	-7246
▁sid	-7247
▁apex	-7248
▁pune	-7249
▁tall	-7250
▁wider	-7251
embered	-7252
itarian	-7253
▁deaths	-7254
lessness	-7255
▁enjoyed	-7256
▁somewhat	-7257
▁panchayat	-7258
▁preparing	-7259
▁ni	-7260
oles	-7261
▁tow	-7262
▁alien	-7263
▁grade	-7264
▁kabir	-7265
▁movie	-7266
▁bhutan	-7267
▁diabet	-7268
▁formula	-7269
▁subhash	-7270
▁wherein	-7271
▁shot	-7272
lessly	-7273
▁behav	-7274
▁agenda	-7275
▁anonym	-7276
▁harmful	-7277
▁protest	-7278
▁headquar	-7279
▁landlord	-7280
▁algorithm	-7281
igarh	-7282
itate	-7283
▁nose	-7284
rative	-7285
vation	-7286
▁agents	-7287
▁planet	-7288
▁swaraj	-7289
▁nervous	-7290
▁entering	-7291
▁revealed	-7292
▁dad	-7293
▁vin	-7294
▁ages	-7295
▁math	-7296
▁enrol	-7297
▁irres	-7298
▁merit	-7299
▁preval	-7300
▁reposted	-7301
▁dictionary	-7302
oa	-7303
ules	-7304
▁calm	-7305
▁kitt	-7306
▁optim	-7307
criptions	-7308
▁equation	-7309
▁formulation	-7310
rators	-7311
▁arrow	-7312
▁brave	-7313
▁nodes	-7314
▁oxygen	-7315
▁assumed	-7316
▁councils	-7317
▁generate	-7318
▁exceeding	-7319
ua	-7320
map	-7321
▁kur	-7322
▁tat	-7323
▁aids	-7324
▁vigil	-7325
▁ganges	-7326
▁african	-7327
▁missing	-7328
▁seventh	-7329
▁virtual	-7330
▁disaster	-7331
▁reflected	-7332
▁remembered	-7333
othe	-7334
▁mamm	-7335
▁hearts	-7336
▁confirm	-7337
▁magnetic	-7338
▁mandatory	-7339
met	-7340
ona	-7341
rer	-7342
uma	-7343
▁fash	-7344
mitting	-7345
▁patent	-7346
▁describes	-7347
▁appreciate	-7348
ky	-7349
zen	-7350
▁bid	-7351
▁poc	-7352
herry	-7353
▁stem	-7354
▁impose	-7355
▁stayed	-7356
kha	-7357
atra	-7358
rian	-7359
ogram	-7360
▁bride	-7361
▁films	-7362
▁players	-7363
▁simultaneously	-7364
vas	-7365
part	-7366
▁idol	-7367
▁lion	-7368
▁quran	-7369
▁lahore	-7370
▁serial	-7371
▁narayan	-7372
▁protein	-7373
▁discovery	-7374
▁evaluation	-7375
▁photograph	-7376
▁terrorists	-7377
▁participants	-7378
▁approximately	-7379
ino	-7380
▁gt	-7381
▁ups	-7382
rolog	-7383
▁wave	-7384
▁bears	-7385
▁fails	-7386
▁breach	-7387
▁speedy	-7388
▁omitted	-7389
▁memorial	-7390
▁nig	-7391
▁tib	-7392
plate	-7393
▁narm	-7394
▁headed	-7395
▁liveli	-7396
▁vested	-7397
▁machines	-7398
▁judgments	-7399
▁complicated	-7400
▁perspective	-7401
ela	-7402
hari	-7403
roph	-7404
▁gam	-7405
▁guess	-7406
▁fought	-7407
▁plains	-7408
▁acquire	-7409
▁badruddin	-7410
▁imperialism	-7411
ns	-7412
inter	-7413
uting	-7414
▁vive	-7415
▁enlar	-7416
▁label	-7417
▁loved	-7418
usively	-7419
▁pestic	-7420
ployment	-7421
▁clauses	-7422
▁livelihood	-7423
▁personally	-7424
▁rah	-7425
▁fract	-7426
rishnan	-7427
▁surprise	-7428
▁aspirations	-7429
iter	-7430
▁mall	-7431
▁topic	-7432
▁driven	-7433
▁firmly	-7434
▁sharma	-7435
▁elsewhere	-7436
▁empowered	-7437
▁grievance	-7438
▁nominated	-7439
▁transparen	-7440
▁stakeholders	-7441
ouds	-7442
▁bis	-7443
▁unp	-7444
archy	-7445
using	-7446
▁paul	-7447
▁tons	-7448
▁abdom	-7449
▁penet	-7450
▁taste	-7451
▁assert	-7452
▁enormous	-7453
▁islamists	-7454
▁meanwhile	-7455
▁tolerance	-7456
▁merc	-7457
▁nand	-7458
▁feels	-7459
▁fortun	-7460
▁entries	-7461
▁essence	-7462
▁expanded	-7463
▁comprising	-7464
pc	-7465
adh	-7466
oma	-7467
ipher	-7468
omous	-7469
▁thro	-7470
▁keeps	-7471
▁decimal	-7472
▁vessels	-7473
▁chancell	-7474
▁observations	-7475
sis	-7476
▁aus	-7477
eenth	-7478
▁pump	-7479
issions	-7480
▁flying	-7481
▁mining	-7482
▁retail	-7483
▁retain	-7484
operative	-7485
▁dividend	-7486
▁transparency	-7487
emia	-7488
▁excise	-7489
▁thinks	-7490
▁arguments	-7491
▁instituted	-7492
▁dow	-7493
▁aged	-7494
▁tack	-7495
idency	-7496
urable	-7497
▁durga	-7498
▁infer	-7499
▁relates	-7500
▁winning	-7501
▁finished	-7502
▁candidate	-7503
▁mechanical	-7504
▁auro	-7505
commun	-7506
▁barri	-7507
▁begun	-7508
▁lands	-7509
▁ought	-7510
▁suits	-7511
▁complim	-7512
▁presently	-7513
▁conducting	-7514
▁substances	-7515
tha	-7516
itan	-7517
▁bay	-7518
▁tan	-7519
▁bhav	-7520
▁nest	-7521
▁magic	-7522
iciently	-7523
▁violation	-7524
▁accommodation	-7525
▁administrator	-7526
lor	-7527
asis	-7528
lers	-7529
▁ster	-7530
▁tests	-7531
ishment	-7532
▁reserves	-7533
▁slightly	-7534
▁experiments	-7535
▁cs	-7536
chers	-7537
icity	-7538
▁bhai	-7539
ounder	-7540
▁evalu	-7541
▁drought	-7542
▁engagement	-7543
agon	-7544
▁admit	-7545
▁tenant	-7546
▁troops	-7547
▁beloved	-7548
▁actively	-7549
▁entrance	-7550
▁enhancing	-7551
▁laboratory	-7552
oda	-7553
▁hub	-7554
▁lun	-7555
▁que	-7556
▁dair	-7557
▁peak	-7558
▁sadd	-7559
▁sidd	-7560
ulates	-7561
▁lotus	-7562
▁concur	-7563
▁destiny	-7564
▁singing	-7565
▁torture	-7566
▁sympathy	-7567
▁copyright	-7568
▁inclusion	-7569
▁qualified	-7570
▁separately	-7571
rers	-7572
itudes	-7573
stream	-7574
▁glory	-7575
▁worksh	-7576
▁untouch	-7577
▁breaking	-7578
▁americans	-7579
▁preceding	-7580
▁relatively	-7581
iti	-7582
nut	-7583
▁ki	-7584
orted	-7585
plete	-7586
▁resc	-7587
▁unic	-7588
rating	-7589
▁pione	-7590
▁vulner	-7591
▁convinced	-7592
▁expertise	-7593
▁incidents	-7594
▁occupation	-7595
१५	-7596
ams	-7597
kal	-7598
wara	-7599
▁jews	-7600
▁monu	-7601
▁defect	-7602
▁harmon	-7603
▁lawyer	-7604
▁iranian	-7605
▁advances	-7606
▁patterns	-7607
gs	-7608
▁ol	-7609
▁yoj	-7610
▁jute	-7611
▁unem	-7612
father	-7613
▁indra	-7614
▁quoted	-7615
resident	-7616
▁balanced	-7617
▁electoral	-7618
▁involvement	-7619
ario	-7620
emat	-7621
will	-7622
▁vex	-7623
culiar	-7624
▁broke	-7625
▁authors	-7626
▁fashion	-7627
▁occupied	-7628
▁sacrific	-7629
▁observation	-7630
▁modification	-7631
isp	-7632
▁sq	-7633
▁aqu	-7634
ether	-7635
▁sult	-7636
▁crowd	-7637
▁bihari	-7638
▁coffee	-7639
▁pocket	-7640
▁orthodox	-7641
▁peculiar	-7642
▁supplied	-7643
▁taxation	-7644
▁absolutely	-7645
oh	-7646
kim	-7647
chen	-7648
iche	-7649
▁azad	-7650
▁amrit	-7651
▁anger	-7652
▁glaci	-7653
▁helpl	-7654
▁honey	-7655
▁gardens	-7656
▁discount	-7657
▁gujarati	-7658
▁tendency	-7659
chi	-7660
opl	-7661
▁ns	-7662
thes	-7663
▁beet	-7664
▁chak	-7665
▁lect	-7666
▁ware	-7667
▁sounds	-7668
▁struck	-7669
▁outcome	-7670
▁reconst	-7671
▁telling	-7672
▁announce	-7673
▁himalayan	-7674
▁determining	-7675
▁certification	-7676
▁cm	-7677
illy	-7678
▁sain	-7679
▁spell	-7680
▁handed	-7681
▁nearby	-7682
▁pursue	-7683
▁viewed	-7684
▁preserve	-7685
▁surrender	-7686
rich	-7687
▁push	-7688
▁genes	-7689
▁poult	-7690
▁ancest	-7691
▁repealed	-7692
▁objection	-7693
▁associations	-7694
▁rej	-7695
agues	-7696
▁surg	-7697
cience	-7698
▁brand	-7699
▁monso	-7700
▁mouse	-7701
▁vicer	-7702
▁extrem	-7703
▁insist	-7704
▁legend	-7705
▁writes	-7706
▁insurer	-7707
▁lending	-7708
▁governors	-7709
▁responses	-7710
▁federation	-7711
▁functional	-7712
▁intervention	-7713
▁ng	-7714
rase	-7715
▁bac	-7716
▁cel	-7717
▁ipv	-7718
▁spon	-7719
▁upan	-7720
▁bones	-7721
▁cards	-7722
▁focused	-7723
▁lucknow	-7724
▁shankar	-7725
▁communist	-7726
▁engineers	-7727
▁festivals	-7728
▁immovable	-7729
▁valuation	-7730
ulum	-7731
▁fer	-7732
▁unh	-7733
▁jump	-7734
▁void	-7735
▁actor	-7736
▁patriot	-7737
▁plastic	-7738
▁cultures	-7739
▁neverthe	-7740
▁consolidated	-7741
▁developmental	-7742
key	-7743
view	-7744
▁sixth	-7745
▁attorn	-7746
▁humans	-7747
▁jagann	-7748
▁visits	-7749
▁masters	-7750
▁manpower	-7751
▁incentives	-7752
▁separation	-7753
vara	-7754
▁foods	-7755
▁honor	-7756
▁ports	-7757
▁repro	-7758
▁explos	-7759
▁plural	-7760
▁stable	-7761
▁mixture	-7762
▁viceroy	-7763
▁connecting	-7764
▁phenomenon	-7765
sha	-7766
▁pm	-7767
ighth	-7768
▁remo	-7769
▁guest	-7770
▁shops	-7771
unction	-7772
▁digest	-7773
▁chronic	-7774
▁observe	-7775
▁estimate	-7776
▁receipts	-7777
▁shipping	-7778
▁hospitals	-7779
▁restricted	-7780
▁nevertheless	-7781
anth	-7782
▁suf	-7783
stone	-7784
▁crude	-7785
▁frank	-7786
▁storm	-7787
▁ambass	-7788
▁productive	-7789
▁dee	-7790
▁fron	-7791
▁hars	-7792
▁neut	-7793
▁gopal	-7794
▁paddy	-7795
▁propri	-7796
▁affects	-7797
▁utilised	-7798
▁architect	-7799
▁registrar	-7800
▁surrounded	-7801
sar	-7802
▁tomb	-7803
▁detect	-7804
▁reward	-7805
▁vimana	-7806
▁creates	-7807
▁inflation	-7808
▁ras	-7809
▁dawn	-7810
▁stip	-7811
holder	-7812
▁encry	-7813
▁bhagat	-7814
▁wicket	-7815
▁ignored	-7816
▁restore	-7817
▁christians	-7818
car	-7819
▁dip	-7820
▁yout	-7821
terior	-7822
▁cease	-7823
▁bamboo	-7824
▁boards	-7825
▁dissol	-7826
▁freely	-7827
▁radhak	-7828
▁conform	-7829
▁coverage	-7830
▁diabetes	-7831
▁basically	-7832
▁sanctuary	-7833
▁connections	-7834
▁limitations	-7835
▁cc	-7836
▁ub	-7837
aras	-7838
ique	-7839
▁ken	-7840
▁acted	-7841
▁arabs	-7842
▁lists	-7843
▁lymph	-7844
▁reign	-7845
▁concluded	-7846
▁dimension	-7847
▁rendering	-7848
▁safeguard	-7849
▁si	-7850
▁inade	-7851
▁recur	-7852
▁arrive	-7853
▁harass	-7854
▁terrib	-7855
▁anybody	-7856
▁denomin	-7857
▁insight	-7858
▁retained	-7859
▁consistent	-7860
▁consequently	-7861
agn	-7862
anim	-7863
ford	-7864
▁disb	-7865
▁trig	-7866
apping	-7867
▁abund	-7868
▁remun	-7869
▁unexp	-7870
▁widow	-7871
achment	-7872
▁degrad	-7873
▁singles	-7874
▁statute	-7875
▁extending	-7876
▁prisoners	-7877
▁secretariat	-7878
▁concentration	-7879
urning	-7880
▁cryst	-7881
▁patna	-7882
▁eleven	-7883
▁levied	-7884
▁segment	-7885
▁streams	-7886
▁inferior	-7887
▁textiles	-7888
▁judgement	-7889
▁headquarters	-7890
angle	-7891
oxide	-7892
▁prak	-7893
▁quit	-7894
▁sake	-7895
▁seiz	-7896
▁ashok	-7897
▁borne	-7898
▁favor	-7899
▁samaj	-7900
▁troub	-7901
ologist	-7902
▁clouds	-7903
▁deleted	-7904
▁skilled	-7905
▁romantic	-7906
▁biological	-7907
▁capabilities	-7908
▁philosophical	-7909
log	-7910
anga	-7911
▁gol	-7912
▁fond	-7913
itated	-7914
teenth	-7915
▁bliss	-7916
▁forming	-7917
▁inadequ	-7918
▁logical	-7919
▁offline	-7920
▁elephants	-7921
▁arbitrator	-7922
▁directorate	-7923
▁exclusively	-7924
▁nationalism	-7925
fol	-7926
▁xx	-7927
hetic	-7928
▁quad	-7929
▁sees	-7930
wealth	-7931
▁tight	-7932
▁camera	-7933
▁sample	-7934
▁cooking	-7935
▁declare	-7936
▁youtube	-7937
▁attained	-7938
▁aurobind	-7939
▁frequency	-7940
▁colleagues	-7941
▁collecting	-7942
▁telecommun	-7943
▁atal	-7944
▁pear	-7945
▁stal	-7946
▁mango	-7947
▁perce	-7948
▁crimes	-7949
▁deserv	-7950
▁equals	-7951
▁sikkim	-7952
▁toward	-7953
▁videos	-7954
▁utility	-7955
▁believes	-7956
▁inspector	-7957
▁separated	-7958
apore	-7959
wered	-7960
ushing	-7961
utical	-7962
▁patel	-7963
▁shast	-7964
▁surve	-7965
▁virus	-7966
▁forgot	-7967
▁grains	-7968
▁wonderful	-7969
bted	-7970
▁wet	-7971
attis	-7972
▁cure	-7973
ancies	-7974
▁dialog	-7975
▁random	-7976
▁thrust	-7977
▁exceeds	-7978
▁attacked	-7979
▁behavior	-7980
▁supramental	-7981
▁commonwealth	-7982
eed	-7983
isal	-7984
▁ell	-7985
▁lan	-7986
▁uter	-7987
▁biote	-7988
▁sport	-7989
▁shadow	-7990
▁sindhi	-7991
▁weapon	-7992
▁distant	-7993
▁muscles	-7994
▁poultry	-7995
▁attractive	-7996
▁dwarkanath	-7997
aria	-7998
▁prat	-7999
▁tact	-8000
▁insult	-8001
▁presum	-8002
▁resemb	-8003
▁ayurveda	-8004
▁realized	-8005
▁surrounding	-8006
ulses	-8007
▁kath	-8008
otions	-8009
▁labou	-8010
▁penis	-8011
▁rupee	-8012
▁sikhs	-8013
▁serves	-8014
▁disappear	-8015
▁reservation	-8016
▁avo	-8017
▁kut	-8018
point	-8019
▁harb	-8020
▁rani	-8021
▁stro	-8022
▁indul	-8023
▁dollar	-8024
▁arrival	-8025
▁dollars	-8026
▁russian	-8027
▁tissues	-8028
▁pregnant	-8029
▁rainfall	-8030
▁factories	-8031
▁reputation	-8032
▁fertilizers	-8033
▁respondents	-8034
▁legislatures	-8035
ki	-8036
usions	-8037
▁dowry	-8038
▁embar	-8039
▁manus	-8040
▁tobac	-8041
▁laying	-8042
▁losses	-8043
▁voting	-8044
▁designs	-8045
▁earthqu	-8046
▁enemies	-8047
▁instant	-8048
▁possibly	-8049
▁aurobindo	-8050
oty	-8051
rah	-8052
▁ye	-8053
iracy	-8054
khand	-8055
▁greek	-8056
▁neuro	-8057
▁decree	-8058
▁infant	-8059
▁thrown	-8060
▁avoided	-8061
▁coastal	-8062
▁pacific	-8063
▁fraction	-8064
▁rabindranath	-8065
▁mes	-8066
▁vik	-8067
▁epis	-8068
▁hect	-8069
▁camel	-8070
▁koran	-8071
▁miscon	-8072
▁divorce	-8073
▁grammar	-8074
▁withdraw	-8075
▁returning	-8076
ocy	-8077
ugh	-8078
fare	-8079
rapy	-8080
acing	-8081
atious	-8082
▁flows	-8083
▁lesser	-8084
▁specim	-8085
▁presidency	-8086
▁nationalist	-8087
pes	-8088
aran	-8089
aved	-8090
onds	-8091
▁mines	-8092
▁investor	-8093
▁generating	-8094
▁inevitable	-8095
▁psychological	-8096
iac	-8097
aland	-8098
▁bric	-8099
▁tape	-8100
▁doors	-8101
▁assume	-8102
▁habits	-8103
▁tempor	-8104
▁streets	-8105
▁variable	-8106
▁visitors	-8107
▁incomplete	-8108
osa	-8109
▁ov	-8110
bery	-8111
▁pel	-8112
▁bulk	-8113
▁dual	-8114
▁oath	-8115
▁sach	-8116
▁tiny	-8117
▁viet	-8118
▁abstract	-8119
▁attorney	-8120
▁minerals	-8121
▁shoulder	-8122
▁vertical	-8123
▁malayalam	-8124
▁publicity	-8125
▁reporting	-8126
▁controversy	-8127
▁certificates	-8128
▁shareholders	-8129
▁radhakrishnan	-8130
▁pdf	-8131
imony	-8132
▁fool	-8133
▁gest	-8134
▁grav	-8135
▁keys	-8136
▁indus	-8137
▁irrit	-8138
▁tears	-8139
▁bought	-8140
▁layout	-8141
▁mahade	-8142
▁patron	-8143
▁contrad	-8144
▁monsoon	-8145
▁permits	-8146
▁prophet	-8147
▁tobacco	-8148
▁abdullah	-8149
▁suggests	-8150
▁dismissed	-8151
▁spreading	-8152
nal	-8153
idal	-8154
arkar	-8155
ounded	-8156
▁sorry	-8157
▁split	-8158
▁wikip	-8159
▁interc	-8160
▁tuberc	-8161
▁extends	-8162
▁graduate	-8163
▁desirable	-8164
▁economies	-8165
▁medicines	-8166
▁panchayats	-8167
▁privileges	-8168
▁transparent	-8169
▁irrespective	-8170
▁dub	-8171
▁ric	-8172
▁forb	-8173
▁reci	-8174
▁dairy	-8175
▁khand	-8176
▁buffal	-8177
▁hatred	-8178
▁mortgage	-8179
▁proceeds	-8180
▁abolition	-8181
▁approaches	-8182
onic	-8183
▁maha	-8184
▁minim	-8185
▁nicob	-8186
▁proxy	-8187
▁hunger	-8188
▁timely	-8189
▁upanish	-8190
▁allowing	-8191
▁scientist	-8192
▁procedural	-8193
▁liabilities	-8194
▁transmitted	-8195
fs	-8196
▁#	-8197
ilee	-8198
▁canal	-8199
▁reass	-8200
▁arabia	-8201
▁mirror	-8202
▁satisfy	-8203
▁secured	-8204
▁vietnam	-8205
▁vivekan	-8206
▁airports	-8207
▁concrete	-8208
▁magazine	-8209
▁opinions	-8210
▁intensity	-8211
▁dedication	-8212
▁protecting	-8213
rak	-8214
▁wil	-8215
chron	-8216
▁sund	-8217
akings	-8218
▁accru	-8219
▁digit	-8220
▁tenth	-8221
▁binary	-8222
▁errors	-8223
▁portal	-8224
▁upgrade	-8225
▁criteria	-8226
▁membrane	-8227
▁surgical	-8228
iot	-8229
▁alph	-8230
▁unus	-8231
▁naren	-8232
▁shout	-8233
ichever	-8234
▁deeper	-8235
▁shakti	-8236
▁matches	-8237
▁nursing	-8238
▁painting	-8239
▁whichever	-8240
▁significantly	-8241
▁substantially	-8242
▁mrs	-8243
▁sut	-8244
▁jord	-8245
▁nice	-8246
▁scat	-8247
▁cocon	-8248
▁reads	-8249
▁gender	-8250
▁portug	-8251
▁helpful	-8252
▁maturity	-8253
▁studying	-8254
▁restraint	-8255
▁autonomous	-8256
▁indirectly	-8257
▁prevailing	-8258
▁interference	-8259
▁accountability	-8260
hta	-8261
▁ts	-8262
opal	-8263
aimed	-8264
▁disag	-8265
▁oldest	-8266
▁yojana	-8267
▁mohammed	-8268
▁supports	-8269
▁advertise	-8270
▁brilliant	-8271
▁divisions	-8272
▁redressal	-8273
▁signature	-8274
▁undertakings	-8275
▁classification	-8276
kes	-8277
▁aest	-8278
▁wake	-8279
acharya	-8280
▁decent	-8281
▁purity	-8282
▁auditor	-8283
▁coconut	-8284
▁exposed	-8285
attisgarh	-8286
▁regulate	-8287
▁preference	-8288
▁palestinians	-8289
▁professionals	-8290
roll	-8291
▁nil	-8292
▁dish	-8293
▁pend	-8294
liness	-8295
scious	-8296
▁moves	-8297
▁andaman	-8298
▁beliefs	-8299
▁turkish	-8300
▁coloured	-8301
▁entrepreneur	-8302
ek	-8303
▁om	-8304
▁mul	-8305
sored	-8306
▁arth	-8307
▁tied	-8308
▁menon	-8309
▁astron	-8310
▁ignore	-8311
▁explore	-8312
▁enthusiasm	-8313
▁previously	-8314
▁philosopher	-8315
aled	-8316
▁affid	-8317
▁ambit	-8318
▁owing	-8319
▁splend	-8320
▁moderate	-8321
▁prisoner	-8322
▁intensive	-8323
▁medicinal	-8324
▁palestine	-8325
▁accessible	-8326
ulent	-8327
▁soph	-8328
▁batch	-8329
▁liver	-8330
▁fright	-8331
▁utmost	-8332
▁affidav	-8333
▁highway	-8334
▁belonged	-8335
▁frequent	-8336
▁countrymen	-8337
isha	-8338
lands	-8339
▁khadi	-8340
▁slope	-8341
▁talks	-8342
▁jordan	-8343
▁centers	-8344
▁allegations	-8345
▁inaugurated	-8346
▁horticulture	-8347
▁laboratories	-8348
raj	-8349
▁ku	-8350
▁ard	-8351
▁bron	-8352
▁roman	-8353
▁cement	-8354
▁govind	-8355
▁herein	-8356
▁hamachi	-8357
▁answered	-8358
▁fulfilled	-8359
▁gathering	-8360
▁vexatious	-8361
▁fro	-8362
▁mol	-8363
▁sel	-8364
▁chit	-8365
▁hors	-8366
▁kids	-8367
manship	-8368
▁census	-8369
▁mosque	-8370
▁thanks	-8371
▁manilal	-8372
▁typical	-8373
▁exposure	-8374
▁scenario	-8375
▁introduce	-8376
▁prevalent	-8377
▁producers	-8378
▁residents	-8379
▁apparently	-8380
▁satyagraha	-8381
▁proclamation	-8382
▁mt	-8383
▁deed	-8384
▁fisc	-8385
▁sper	-8386
▁naval	-8387
▁nodal	-8388
▁secre	-8389
▁humble	-8390
chnology	-8391
▁edition	-8392
▁insured	-8393
▁assessed	-8394
▁assignment	-8395
▁transition	-8396
▁mathematics	-8397
▁strengthened	-8398
mad	-8399
▁iso	-8400
▁naz	-8401
▁rai	-8402
plant	-8403
▁diver	-8404
▁shock	-8405
▁tends	-8406
edience	-8407
▁curric	-8408
▁exempt	-8409
▁filter	-8410
▁jewell	-8411
ologists	-8412
▁asutosh	-8413
▁shelter	-8414
▁crossing	-8415
▁worldwide	-8416
▁challenged	-8417
▁deficiency	-8418
ago	-8419
asp	-8420
asion	-8421
ogether	-8422
▁......	-8423
▁anyway	-8424
▁guided	-8425
▁procure	-8426
▁affecting	-8427
▁envisaged	-8428
▁scholarship	-8429
my	-8430
oot	-8431
▁vr	-8432
alli	-8433
chem	-8434
phal	-8435
▁lip	-8436
▁rum	-8437
idity	-8438
▁rear	-8439
▁cadre	-8440
▁refin	-8441
▁casual	-8442
▁doubts	-8443
▁inspire	-8444
▁interfe	-8445
▁buddhism	-8446
▁treasure	-8447
▁expensive	-8448
▁reception	-8449
▁advantages	-8450
▁dy	-8451
▁um	-8452
cence	-8453
onent	-8454
▁navy	-8455
▁conse	-8456
▁fiscal	-8457
▁nearest	-8458
▁arunachal	-8459
▁wikipedia	-8460
▁comparison	-8461
▁ht	-8462
▁mp	-8463
umps	-8464
▁umb	-8465
▁drew	-8466
▁stab	-8467
▁cavity	-8468
▁immort	-8469
▁stores	-8470
▁artists	-8471
▁cluster	-8472
▁jubilee	-8473
▁sincere	-8474
▁receives	-8475
▁supplies	-8476
▁ordinance	-8477
▁altogether	-8478
▁considerably	-8479
▁dhan	-8480
▁tilak	-8481
▁debent	-8482
▁rarely	-8483
▁recess	-8484
▁themes	-8485
▁critics	-8486
▁watching	-8487
▁considers	-8488
▁withdrawn	-8489
▁describing	-8490
mas	-8491
▁shy	-8492
▁una	-8493
aming	-8494
nagar	-8495
▁tang	-8496
acular	-8497
▁crafts	-8498
▁peripher	-8499
▁impartial	-8500
▁kore	-8501
▁relax	-8502
▁computed	-8503
▁concepts	-8504
▁contempl	-8505
▁proceeded	-8506
▁commencing	-8507
▁imperative	-8508
▁passengers	-8509
▁connectivity	-8510
uance	-8511
▁lays	-8512
▁hamas	-8513
▁buying	-8514
▁compos	-8515
▁controlling	-8516
▁conversation	-8517
onged	-8518
ulter	-8519
▁drag	-8520
▁mong	-8521
▁enfor	-8522
▁sword	-8523
▁portra	-8524
▁postal	-8525
▁traged	-8526
▁amalgam	-8527
▁outward	-8528
▁demanded	-8529
▁subtract	-8530
▁elaborate	-8531
▁sponsored	-8532
▁prohibition	-8533
fa	-8534
▁fi	-8535
▁lol	-8536
▁muc	-8537
▁alarm	-8538
▁medal	-8539
▁touched	-8540
▁linkages	-8541
▁capability	-8542
▁mw	-8543
emen	-8544
iety	-8545
isan	-8546
▁bak	-8547
▁rab	-8548
▁erad	-8549
▁nios	-8550
▁stan	-8551
▁david	-8552
▁analog	-8553
▁heights	-8554
▁physics	-8555
▁seconds	-8556
▁suspect	-8557
▁lectures	-8558
▁europeans	-8559
▁instances	-8560
▁paintings	-8561
▁sentiment	-8562
▁witnessed	-8563
▁authorized	-8564
▁formulated	-8565
po	-8566
anti	-8567
▁wars	-8568
▁recip	-8569
▁bhagav	-8570
▁volunte	-8571
▁aviation	-8572
▁socialism	-8573
▁exhibition	-8574
▁structural	-8575
▁१६	-8576
▁hut	-8577
▁pix	-8578
▁yus	-8579
▁deer	-8580
▁admir	-8581
▁angry	-8582
▁indif	-8583
▁resid	-8584
▁ships	-8585
▁worst	-8586
▁advise	-8587
▁emerge	-8588
▁disposed	-8589
▁dissolution	-8590
▁corporations	-8591
sor	-8592
▁gi	-8593
▁bap	-8594
eeper	-8595
▁bagh	-8596
usalem	-8597
▁moist	-8598
▁chaluk	-8599
▁confer	-8600
▁invite	-8601
▁refuse	-8602
▁captain	-8603
▁survive	-8604
▁brahmins	-8605
▁jerusalem	-8606
▁singapore	-8607
▁mechanisms	-8608
▁substitute	-8609
▁administered	-8610
▁une	-8611
agger	-8612
▁asce	-8613
▁camb	-8614
▁ineff	-8615
▁almast	-8616
▁bhakti	-8617
▁solemn	-8618
▁sultan	-8619
▁ceiling	-8620
▁exhaust	-8621
▁doctrine	-8622
▁deposited	-8623
▁recognise	-8624
▁rh	-8625
mind	-8626
oster	-8627
▁impe	-8628
▁ward	-8629
▁boost	-8630
▁jihad	-8631
▁pledge	-8632
▁rajput	-8633
▁textile	-8634
▁controls	-8635
▁helpless	-8636
▁locations	-8637
▁negotiations	-8638
arc	-8639
appa	-8640
ball	-8641
▁cub	-8642
icked	-8643
▁cher	-8644
▁gran	-8645
▁reit	-8646
▁unne	-8647
▁veda	-8648
▁calam	-8649
▁embod	-8650
▁ashram	-8651
▁lolita	-8652
▁passive	-8653
▁allotted	-8654
▁removing	-8655
▁secondly	-8656
▁template	-8657
▁subjected	-8658
▁conception	-8659
▁disclosure	-8660
▁legitimate	-8661
▁intelligent	-8662
beh	-8663
onia	-8664
wari	-8665
▁kaz	-8666
lines	-8667
▁ease	-8668
rishna	-8669
▁login	-8670
▁mobil	-8671
▁warri	-8672
▁yusuf	-8673
▁duplic	-8674
▁photos	-8675
▁pollut	-8676
▁volumes	-8677
▁validity	-8678
▁uncertain	-8679
▁complement	-8680
▁publishing	-8681
▁sanitation	-8682
dar	-8683
elt	-8684
jit	-8685
▁mys	-8686
night	-8687
▁ears	-8688
▁eman	-8689
▁disad	-8690
▁escap	-8691
▁paris	-8692
▁bitter	-8693
▁repeat	-8694
▁colours	-8695
▁flowing	-8696
▁applying	-8697
▁daughters	-8698
▁recovered	-8699
▁inaugurate	-8700
▁parameters	-8701
▁acknowledge	-8702
▁supervision	-8703
▁disciplinary	-8704
emor	-8705
▁lots	-8706
▁maul	-8707
▁shed	-8708
▁macro	-8709
▁define	-8710
▁maurit	-8711
▁nomine	-8712
▁trends	-8713
▁weekly	-8714
▁quantum	-8715
▁startup	-8716
▁synthes	-8717
▁tribute	-8718
▁interact	-8719
▁terrible	-8720
▁assurance	-8721
▁afterwards	-8722
▁endeavours	-8723
▁ordinarily	-8724
▁depreciation	-8725
▁governmental	-8726
bly	-8727
icts	-8728
▁gdp	-8729
▁por	-8730
▁rti	-8731
▁thy	-8732
▁flash	-8733
lements	-8734
▁sensit	-8735
▁reorgan	-8736
▁reverse	-8737
▁credited	-8738
▁accepting	-8739
▁disadvant	-8740
▁listening	-8741
▁conspiracy	-8742
▁transformed	-8743
▁chhattisgarh	-8744
term	-8745
▁ank	-8746
▁cod	-8747
mohan	-8748
▁gulf	-8749
▁scan	-8750
▁chick	-8751
▁pilot	-8752
▁upset	-8753
itement	-8754
▁fallen	-8755
▁kittur	-8756
▁instinct	-8757
▁champions	-8758
▁economics	-8759
▁presiding	-8760
▁testimony	-8761
▁adjustment	-8762
▁classified	-8763
▁compromise	-8764
▁diplomatic	-8765
▁quantities	-8766
▁continuously	-8767
▁characterized	-8768
rus	-8769
▁hp	-8770
▁miz	-8771
haran	-8772
▁fles	-8773
▁radi	-8774
▁trop	-8775
angers	-8776
▁hopes	-8777
▁midst	-8778
▁monop	-8779
▁tries	-8780
▁eighth	-8781
▁everyday	-8782
▁goodwill	-8783
▁favourite	-8784
▁pilgrimage	-8785
▁substantive	-8786
conn	-8787
▁ske	-8788
▁cler	-8789
▁enqu	-8790
▁swed	-8791
▁endor	-8792
▁lover	-8793
▁surpl	-8794
▁dharma	-8795
▁kidney	-8796
▁lesson	-8797
▁meters	-8798
▁wooden	-8799
▁charter	-8800
▁alliance	-8801
▁artistic	-8802
▁predomin	-8803
▁unexpected	-8804
sp	-8805
▁rud	-8806
▁mast	-8807
▁mini	-8808
▁adapt	-8809
▁embry	-8810
▁firms	-8811
▁nutri	-8812
▁ranges	-8813
▁retrie	-8814
▁seventy	-8815
▁correspondence	-8816
col	-8817
uli	-8818
▁kin	-8819
▁sak	-8820
▁amid	-8821
▁globe	-8822
▁thres	-8823
▁incons	-8824
▁trials	-8825
▁expanding	-8826
▁perception	-8827
▁threatened	-8828
▁conferences	-8829
cute	-8830
sole	-8831
ashed	-8832
▁bits	-8833
▁corp	-8834
▁rash	-8835
▁saroj	-8836
▁veter	-8837
conomic	-8838
▁denial	-8839
▁passes	-8840
▁battery	-8841
▁telecom	-8842
▁undergo	-8843
▁emotions	-8844
▁respects	-8845
▁confirmed	-8846
▁enactment	-8847
▁presidential	-8848
▁satisfactory	-8849
obi	-8850
▁tone	-8851
▁coins	-8852
▁waves	-8853
▁kanpur	-8854
▁ladies	-8855
ographic	-8856
▁desires	-8857
▁leaflet	-8858
▁targets	-8859
unciation	-8860
▁explains	-8861
▁practically	-8862
aph	-8863
just	-8864
▁ech	-8865
▁lag	-8866
andum	-8867
▁boot	-8868
▁jhar	-8869
▁saha	-8870
▁pests	-8871
▁smoke	-8872
▁anxious	-8873
▁capture	-8874
▁kannada	-8875
▁nicobar	-8876
▁revival	-8877
▁boundary	-8878
▁attempted	-8879
▁renewable	-8880
▁repayment	-8881
▁chandigarh	-8882
▁preferences	-8883
▁verification	-8884
more	-8885
▁tip	-8886
▁hate	-8887
▁cough	-8888
▁purus	-8889
▁compact	-8890
▁devotees	-8891
▁invested	-8892
▁transcend	-8893
▁attendance	-8894
▁appointments	-8895
win	-8896
zing	-8897
▁kat	-8898
araja	-8899
gence	-8900
▁pupp	-8901
▁tant	-8902
rection	-8903
uminous	-8904
▁legacy	-8905
▁revolt	-8906
▁auction	-8907
▁descend	-8908
▁traders	-8909
▁tragedy	-8910
▁departure	-8911
▁grandfather	-8912
uni	-8913
▁baz	-8914
vance	-8915
▁verte	-8916
▁absent	-8917
▁copper	-8918
▁hazard	-8919
▁honest	-8920
▁horses	-8921
▁gandhar	-8922
▁indones	-8923
▁pursuit	-8924
▁unnecess	-8925
▁concession	-8926
▁imposition	-8927
▁brotherhood	-8928
▁constructive	-8929
▁participating	-8930
ato	-8931
bab	-8932
arer	-8933
arus	-8934
like	-8935
▁dimin	-8936
▁disob	-8937
▁grows	-8938
▁county	-8939
▁mysore	-8940
▁prakrit	-8941
▁obstruct	-8942
▁promoted	-8943
▁survival	-8944
▁confusion	-8945
▁requiring	-8946
▁teachings	-8947
▁territorial	-8948
osc	-8949
stan	-8950
▁bee	-8951
▁gor	-8952
ringe	-8953
▁desh	-8954
▁hier	-8955
▁hygi	-8956
akhand	-8957
▁angle	-8958
▁nemat	-8959
▁blocks	-8960
▁cinema	-8961
▁misbeh	-8962
▁worried	-8963
▁manuscript	-8964
▁reconstruction	-8965
due	-8966
bing	-8967
vati	-8968
▁lux	-8969
eline	-8970
▁bund	-8971
▁grid	-8972
worthy	-8973
▁ninet	-8974
▁rubber	-8975
▁welcom	-8976
▁founder	-8977
▁jointly	-8978
▁thereto	-8979
▁producer	-8980
▁reliable	-8981
▁reliance	-8982
▁resolved	-8983
▁launchpad	-8984
▁physically	-8985
▁vulnerable	-8986
▁provisional	-8987
well	-8988
▁hiv	-8989
state	-8990
▁cycl	-8991
▁delt	-8992
▁samb	-8993
▁dwell	-8994
▁tales	-8995
▁tired	-8996
▁urine	-8997
▁lowest	-8998
▁picked	-8999
▁tariff	-9000
▁hanuman	-9001
▁borrower	-9002
▁founding	-9003
▁injuries	-9004
▁somewhere	-9005
▁memorandum	-9006
▁advancement	-9007
nath	-9008
▁exit	-9009
▁maid	-9010
▁grate	-9011
▁haven	-9012
▁neglig	-9013
▁lasting	-9014
▁lessons	-9015
▁magnific	-9016
▁mistakes	-9017
▁stronger	-9018
▁narrative	-9019
▁boundaries	-9020
▁sentiments	-9021
▁occasionally	-9022
ashi	-9023
▁quot	-9024
▁hards	-9025
▁modes	-9026
▁paste	-9027
▁preet	-9028
▁babies	-9029
▁injust	-9030
▁jaipur	-9031
▁discont	-9032
▁tripura	-9033
▁birthday	-9034
▁intimate	-9035
▁likewise	-9036
▁mutually	-9037
▁promised	-9038
▁comprises	-9039
▁jewellery	-9040
▁provident	-9041
▁citizenship	-9042
▁exceptional	-9043
eg	-9044
fast	-9045
ropri	-9046
▁swim	-9047
▁manip	-9048
▁oriya	-9049
▁rains	-9050
▁plenty	-9051
▁purely	-9052
▁sphere	-9053
▁authent	-9054
▁dominant	-9055
▁breathing	-9056
▁continent	-9057
▁occurring	-9058
▁participated	-9059
oning	-9060
opard	-9061
▁ausp	-9062
▁reck	-9063
▁swit	-9064
▁overw	-9065
▁quote	-9066
▁sulph	-9067
▁colors	-9068
▁wearing	-9069
▁absorbed	-9070
▁businesses	-9071
▁strategies	-9072
▁travelling	-9073
▁utilization	-9074
▁implications	-9075
iki	-9076
pread	-9077
▁mary	-9078
▁mich	-9079
▁talked	-9080
▁painful	-9081
▁passport	-9082
▁welcomed	-9083
▁sentences	-9084
▁orientation	-9085
▁vivekananda	-9086
▁considerations	-9087
ukh	-9088
andra	-9089
unath	-9090
▁baba	-9091
▁puri	-9092
aching	-9093
▁dates	-9094
▁decay	-9095
regular	-9096
▁backup	-9097
▁dispens	-9098
▁ethical	-9099
▁excluded	-9100
▁surprising	-9101
▁circulation	-9102
oli	-9103
omed	-9104
▁jinn	-9105
▁priy	-9106
▁reset	-9107
▁rocks	-9108
▁argued	-9109
▁aurang	-9110
▁electr	-9111
▁saints	-9112
▁borders	-9113
▁existed	-9114
▁defeated	-9115
▁equipped	-9116
▁isolated	-9117
▁militant	-9118
▁literally	-9119
▁allowances	-9120
▁definitely	-9121
▁systematic	-9122
▁uttarakhand	-9123
▁qualifications	-9124
eem	-9125
born	-9126
rium	-9127
▁alb	-9128
▁nok	-9129
ograp	-9130
rants	-9131
▁bore	-9132
▁grad	-9133
▁grey	-9134
▁ambul	-9135
▁drain	-9136
▁mahav	-9137
▁stret	-9138
ductive	-9139
istical	-9140
▁cosmic	-9141
▁smoking	-9142
▁overwhel	-9143
▁sarojini	-9144
▁suspended	-9145
▁linguistic	-9146
▁kb	-9147
▁lone	-9148
icable	-9149
▁jinnah	-9150
▁oceans	-9151
▁rating	-9152
▁conting	-9153
▁joining	-9154
▁somehow	-9155
▁visitor	-9156
▁warming	-9157
▁frontier	-9158
▁nagaland	-9159
▁scrutiny	-9160
▁irregular	-9161
▁petitions	-9162
▁ambassador	-9163
▁restriction	-9164
▁congratulated	-9165
eta	-9166
vii	-9167
▁jh	-9168
asts	-9169
pled	-9170
▁jos	-9171
▁lax	-9172
▁uts	-9173
▁xii	-9174
asaheb	-9175
▁cable	-9176
▁smile	-9177
▁defense	-9178
▁nanalal	-9179
▁premier	-9180
▁ranging	-9181
▁apprehen	-9182
▁earnings	-9183
▁glorious	-9184
▁merchant	-9185
▁superint	-9186
▁tubercul	-9187
▁justified	-9188
▁dimensions	-9189
▁sovereignty	-9190
▁coordination	-9191
▁translations	-9192
▁kun	-9193
charge	-9194
ortion	-9195
▁mangal	-9196
▁plugin	-9197
▁viable	-9198
▁kitchen	-9199
▁leather	-9200
▁microsc	-9201
▁sisters	-9202
▁clearing	-9203
▁competit	-9204
▁celebrate	-9205
▁impressed	-9206
▁passenger	-9207
▁controller	-9208
▁relationships	-9209
▁dun	-9210
graph	-9211
▁braz	-9212
▁cock	-9213
▁synd	-9214
▁appar	-9215
▁steam	-9216
▁trick	-9217
▁module	-9218
▁shifted	-9219
▁pharmace	-9220
▁ahmedabad	-9221
▁resolutions	-9222
▁remuneration	-9223
bc	-9224
rose	-9225
▁curt	-9226
▁rope	-9227
▁wash	-9228
▁aftern	-9229
▁poresh	-9230
▁sarasw	-9231
▁vessel	-9232
▁closing	-9233
▁spending	-9234
▁exemption	-9235
▁processed	-9236
▁respected	-9237
▁authentication	-9238
hous	-9239
roots	-9240
water	-9241
▁begg	-9242
▁corn	-9243
▁gene	-9244
▁impr	-9245
▁thom	-9246
▁wool	-9247
ancing	-9248
rained	-9249
▁kalam	-9250
▁meets	-9251
▁shore	-9252
▁votes	-9253
▁carved	-9254
▁lights	-9255
▁penins	-9256
▁racial	-9257
▁subtle	-9258
▁freight	-9259
▁unicode	-9260
▁findings	-9261
▁refugees	-9262
▁swelling	-9263
▁relevance	-9264
▁requisite	-9265
▁disappoint	-9266
▁superintend	-9267
oys	-9268
var	-9269
ulus	-9270
▁nal	-9271
holds	-9272
▁awak	-9273
▁gamb	-9274
inking	-9275
▁annum	-9276
holding	-9277
▁enters	-9278
▁invent	-9279
▁notion	-9280
▁surely	-9281
▁tenure	-9282
▁damages	-9283
▁filling	-9284
▁rituals	-9285
▁surplus	-9286
▁chapters	-9287
▁decrease	-9288
▁ideology	-9289
▁accidents	-9290
▁disturbed	-9291
nis	-9292
uta	-9293
etus	-9294
ifer	-9295
▁dos	-9296
▁fis	-9297
▁gad	-9298
agari	-9299
▁adhe	-9300
▁wasn	-9301
▁ranks	-9302
▁token	-9303
▁zones	-9304
▁arithm	-9305
▁larvae	-9306
▁powder	-9307
▁oneness	-9308
▁thereon	-9309
▁measured	-9310
▁wireless	-9311
▁adventure	-9312
▁estimates	-9313
▁compliment	-9314
▁subsidiary	-9315
▁vocational	-9316
▁unfortunate	-9317
fly	-9318
haz	-9319
icy	-9320
ella	-9321
▁dak	-9322
▁eco	-9323
▁wip	-9324
apati	-9325
▁butt	-9326
▁smell	-9327
▁urged	-9328
▁wides	-9329
▁essays	-9330
▁incomp	-9331
▁senses	-9332
▁prayers	-9333
▁graphics	-9334
▁honoured	-9335
▁imposing	-9336
▁pesticides	-9337
▁popularity	-9338
▁conciliation	-9339
▁preservation	-9340
riya	-9341
alled	-9342
isans	-9343
illary	-9344
▁delta	-9345
▁gandh	-9346
▁ninth	-9347
▁merits	-9348
▁sevent	-9349
▁unfair	-9350
▁yamuna	-9351
▁commend	-9352
▁thermal	-9353
▁checking	-9354
▁distress	-9355
▁shortcut	-9356
▁intercourse	-9357
▁manufacturers	-9358
▁possibilities	-9359
vol	-9360
rass	-9361
▁ital	-9362
▁lakes	-9363
▁differ	-9364
▁contest	-9365
▁density	-9366
▁shortage	-9367
▁injustice	-9368
▁premchand	-9369
▁probation	-9370
▁minorities	-9371
▁reflection	-9372
▁pharmaceutical	-9373
ird	-9374
irt	-9375
marks	-9376
▁foss	-9377
▁ngos	-9378
ivided	-9379
▁crack	-9380
▁deeds	-9381
▁maxim	-9382
▁overr	-9383
▁steady	-9384
▁dioxide	-9385
▁earning	-9386
▁afternoon	-9387
▁emergence	-9388
▁exclusion	-9389
▁threshold	-9390
▁underlying	-9391
▁denominator	-9392
uj	-9393
▁ow	-9394
iban	-9395
▁brid	-9396
▁uphe	-9397
▁trium	-9398
▁broadly	-9399
▁associate	-9400
▁prevented	-9401
▁guaranteed	-9402
▁thoroughly	-9403
hr	-9404
▁amen	-9405
▁dutt	-9406
▁pale	-9407
▁puts	-9408
▁shat	-9409
eshwar	-9410
▁spots	-9411
▁ananda	-9412
▁archae	-9413
▁speaks	-9414
▁strive	-9415
▁disagree	-9416
▁particles	-9417
▁purchased	-9418
▁biotechnology	-9419
cal	-9420
side	-9421
arshan	-9422
ployed	-9423
▁grief	-9424
▁medie	-9425
▁nokia	-9426
▁score	-9427
▁affirm	-9428
▁deccan	-9429
▁humour	-9430
▁narmad	-9431
▁ninety	-9432
▁inherit	-9433
▁captured	-9434
▁deciding	-9435
▁declined	-9436
▁fourteen	-9437
▁himalaya	-9438
▁improper	-9439
▁provider	-9440
▁employers	-9441
▁invitation	-9442
▁safeguards	-9443
▁acknowledged	-9444
▁tb	-9445
babu	-9446
juna	-9447
oman	-9448
orph	-9449
▁ana	-9450
▁unm	-9451
arted	-9452
▁desc	-9453
▁cache	-9454
▁mills	-9455
▁seller	-9456
▁mizoram	-9457
▁rightly	-9458
▁cellular	-9459
▁highways	-9460
▁labourers	-9461
▁attraction	-9462
▁elementary	-9463
▁scriptures	-9464
▁variations	-9465
▁widespread	-9466
aud	-9467
▁ps	-9468
▁bij	-9469
▁lam	-9470
▁suk	-9471
▁onto	-9472
anging	-9473
▁eager	-9474
▁ghosh	-9475
▁manik	-9476
▁vijay	-9477
▁worthy	-9478
ursement	-9479
▁shrines	-9480
▁strictly	-9481
▁realistic	-9482
▁prohibited	-9483
▁resignation	-9484
gm	-9485
sen	-9486
yar	-9487
▁१७	-9488
anny	-9489
soft	-9490
▁bez	-9491
▁gum	-9492
▁iit	-9493
▁suck	-9494
▁gnome	-9495
▁nobel	-9496
▁spont	-9497
▁accred	-9498
▁basket	-9499
▁walked	-9500
▁vaccine	-9501
▁infected	-9502
▁enjoyment	-9503
▁interpret	-9504
▁mauritius	-9505
▁permanently	-9506
quet	-9507
sect	-9508
▁viii	-9509
leness	-9510
▁innum	-9511
▁autobi	-9512
▁bodily	-9513
▁marble	-9514
▁mighty	-9515
▁robust	-9516
▁adjourn	-9517
▁peasant	-9518
▁medieval	-9519
▁operator	-9520
▁favourable	-9521
aur	-9522
▁pod	-9523
anium	-9524
istry	-9525
▁alert	-9526
▁comply	-9527
▁obstac	-9528
▁priest	-9529
▁revers	-9530
▁holders	-9531
▁holiday	-9532
▁superst	-9533
endranath	-9534
▁quarters	-9535
▁earthquake	-9536
▁termination	-9537
▁entertainment	-9538
aki	-9539
gic	-9540
nat	-9541
okes	-9542
osph	-9543
roid	-9544
▁adh	-9545
▁naw	-9546
▁tie	-9547
eling	-9548
▁feas	-9549
▁ours	-9550
▁sung	-9551
ananda	-9552
▁coron	-9553
▁dread	-9554
▁liked	-9555
▁syria	-9556
▁throne	-9557
▁civiliz	-9558
▁reaches	-9559
▁delicate	-9560
▁flexible	-9561
▁floating	-9562
▁delighted	-9563
▁jharkhand	-9564
▁introducing	-9565
▁economically	-9566
rao	-9567
▁bor	-9568
▁ors	-9569
▁sow	-9570
▁tran	-9571
ulsion	-9572
▁essay	-9573
▁damaged	-9574
▁identical	-9575
▁microsoft	-9576
▁surprised	-9577
▁travelled	-9578
▁australian	-9579
▁fulfilment	-9580
▁horizontal	-9581
▁prosecutor	-9582
▁researchers	-9583
▁upgradation	-9584
rot	-9585
▁kms	-9586
lings	-9587
▁solv	-9588
▁tent	-9589
halaya	-9590
itious	-9591
▁antar	-9592
▁apple	-9593
▁assim	-9594
▁excav	-9595
▁james	-9596
▁ceased	-9597
▁clients	-9598
▁creator	-9599
▁envelop	-9600
▁staying	-9601
▁zealand	-9602
▁kilogram	-9603
▁salaries	-9604
▁depression	-9605
▁comfortable	-9606
▁measurement	-9607
▁permissible	-9608
▁expectations	-9609
py	-9610
five	-9611
hand	-9612
ysis	-9613
▁html	-9614
▁appra	-9615
▁shame	-9616
▁varma	-9617
▁brazil	-9618
▁makers	-9619
▁bribery	-9620
▁females	-9621
▁sankara	-9622
▁tension	-9623
▁deprived	-9624
▁dominion	-9625
▁highness	-9626
▁pleasant	-9627
▁securing	-9628
▁certified	-9629
▁conflicts	-9630
▁decorated	-9631
▁vigilance	-9632
▁conscience	-9633
▁impressive	-9634
▁innovators	-9635
▁procurement	-9636
▁tuberculosis	-9637
auc	-9638
cot	-9639
rix	-9640
uan	-9641
▁jad	-9642
▁upl	-9643
▁vij	-9644
▁cows	-9645
▁fame	-9646
▁hole	-9647
▁publ	-9648
▁wand	-9649
▁capac	-9650
▁mystic	-9651
▁caution	-9652
▁crossed	-9653
▁devotee	-9654
▁harness	-9655
▁accorded	-9656
▁interven	-9657
▁verified	-9658
▁correctly	-9659
▁realization	-9660
▁utilisation	-9661
cp	-9662
upp	-9663
fect	-9664
mail	-9665
anned	-9666
▁amit	-9667
▁clay	-9668
▁ahmad	-9669
▁clubs	-9670
▁meher	-9671
▁pulse	-9672
▁rooms	-9673
▁issuing	-9674
▁conclude	-9675
▁immunity	-9676
▁reflects	-9677
▁striking	-9678
▁symbolic	-9679
▁agitation	-9680
▁creatures	-9681
▁equitable	-9682
▁gandharva	-9683
▁variation	-9684
▁assemblies	-9685
▁concessions	-9686
▁facilitating	-9687
▁practitioner	-9688
hew	-9689
thi	-9690
stru	-9691
ystem	-9692
▁turb	-9693
alinga	-9694
▁breat	-9695
▁dense	-9696
▁pitch	-9697
▁intens	-9698
appropri	-9699
▁hostile	-9700
▁inhabit	-9701
▁symbols	-9702
▁unusual	-9703
▁packages	-9704
▁reviewed	-9705
▁spectrum	-9706
▁pursuance	-9707
▁identifying	-9708
▁politicians	-9709
▁specialized	-9710
enary	-9711
india	-9712
place	-9713
▁bell	-9714
▁enum	-9715
▁irda	-9716
ferent	-9717
▁dying	-9718
▁hered	-9719
▁padma	-9720
▁puran	-9721
▁unhapp	-9722
▁belarus	-9723
▁hanging	-9724
▁predict	-9725
▁recipro	-9726
▁alphabet	-9727
▁synchron	-9728
▁meaningful	-9729
▁patriotism	-9730
▁demonstrated	-9731
gin	-9732
idas	-9733
rics	-9734
▁bye	-9735
▁diw	-9736
inath	-9737
▁coat	-9738
atical	-9739
▁alike	-9740
▁aston	-9741
▁teams	-9742
▁brahmo	-9743
▁edited	-9744
▁rhythm	-9745
▁seized	-9746
▁triumph	-9747
▁intestine	-9748
▁vacancies	-9749
▁collections	-9750
▁vy	-9751
flow	-9752
ifier	-9753
ridge	-9754
▁anat	-9755
▁gaza	-9756
▁sket	-9757
enders	-9758
▁antib	-9759
▁bhatt	-9760
▁inequ	-9761
▁intra	-9762
▁mexic	-9763
▁invari	-9764
▁krishn	-9765
▁relate	-9766
▁thomas	-9767
▁vibrant	-9768
▁confront	-9769
▁greatness	-9770
▁grassroots	-9771
▁misconduct	-9772
▁persistent	-9773
ito	-9774
atus	-9775
▁guy	-9776
▁imb	-9777
▁kad	-9778
▁alia	-9779
▁hybr	-9780
▁levy	-9781
▁lift	-9782
▁moth	-9783
asters	-9784
▁angel	-9785
▁array	-9786
▁ethnic	-9787
▁weaker	-9788
▁framing	-9789
▁mandate	-9790
▁readily	-9791
▁samples	-9792
▁assisted	-9793
▁insisted	-9794
▁prestige	-9795
▁disciples	-9796
▁cultivated	-9797
▁equipments	-9798
▁exceptions	-9799
▁complainant	-9800
▁civilisation	-9801
▁examinations	-9802
appe	-9803
emic	-9804
▁ail	-9805
▁ary	-9806
rious	-9807
▁fare	-9808
▁nick	-9809
ishers	-9810
▁acres	-9811
▁fibre	-9812
▁shoot	-9813
▁unpre	-9814
▁minded	-9815
▁superf	-9816
▁throat	-9817
▁unanim	-9818
▁lakshmi	-9819
▁threats	-9820
▁tropical	-9821
▁undivided	-9822
▁inadequate	-9823
▁meditation	-9824
▁sculptures	-9825
▁manifestation	-9826
opy	-9827
uru	-9828
oria	-9829
untu	-9830
▁gib	-9831
▁hey	-9832
▁jes	-9833
▁zam	-9834
avati	-9835
ropol	-9836
▁condu	-9837
▁renow	-9838
▁toxic	-9839
▁mature	-9840
economic	-9841
▁remarks	-9842
▁operated	-9843
▁statutes	-9844
▁affidavit	-9845
▁directive	-9846
▁approached	-9847
▁chancellor	-9848
▁charitable	-9849
▁neighbours	-9850
▁successive	-9851
▁transplant	-9852
▁proposition	-9853
▁confidential	-9854
cus	-9855
▁qa	-9856
akar	-9857
ders	-9858
▁hap	-9859
▁ish	-9860
cated	-9861
scape	-9862
▁acre	-9863
▁tune	-9864
▁erect	-9865
▁marit	-9866
▁exempl	-9867
▁solved	-9868
▁upload	-9869
▁verbal	-9870
ographer	-9871
▁assault	-9872
▁defines	-9873
▁amritsar	-9874
▁peasants	-9875
▁rajendra	-9876
▁segments	-9877
▁influences	-9878
▁preventive	-9879
▁unconscious	-9880
cr	-9881
xx	-9882
tle	-9883
itic	-9884
isive	-9885
oused	-9886
▁adds	-9887
▁aven	-9888
▁blog	-9889
▁okay	-9890
▁sage	-9891
▁sast	-9892
▁flesh	-9893
▁robot	-9894
▁vrind	-9895
▁admire	-9896
▁ascetic	-9897
▁augment	-9898
▁checked	-9899
▁delayed	-9900
▁signals	-9901
▁immortal	-9902
▁disclosed	-9903
▁preserved	-9904
▁affordable	-9905
▁accumulated	-9906
▁expressions	-9907
▁accomplished	-9908
ille	-9909
udal	-9910
▁nay	-9911
▁sag	-9912
erson	-9913
▁chol	-9914
▁prab	-9915
▁worn	-9916
mother	-9917
▁fatal	-9918
▁incub	-9919
▁hungry	-9920
▁tested	-9921
▁corners	-9922
▁fortune	-9923
▁fulfill	-9924
▁condemned	-9925
▁	-9926
e	-9927
t	-9928
a	-9929
i	-9930
o	-9931
n	-9932
s	-9933
r	-9934
h	-9935
l	-9936
d	-9937
c	-9938
u	-9939
m	-9940
p	-9941
f	-9942
g	-9943
y	-9944
b	-9945
w	-9946
v	-9947
.	-9948
,	-9949
k	-9950
;	-9951
-	-9952
&	-9953
x	-9954
j	-9955
०	-9956
q	-9957
)	-9958
(	-9959
१	-9960
z	-9961
:	-9962
२	-9963
/	-9964
”	-9965
“	-9966
३	-9967
?	-9968
0	-9969
%	-9970
’	-9971
४	-9972
#	-9973
५	-9974
9	-9975
‘	-9976
1	-9977
!	-9978
{	-9979
}	-9980
—	-9981
६	-9982
_	-9983
3	-9984
७	-9985
*	-9986
८	-9987
2	-9988
4	-9989
–	-9990
९	-9991
$	-9992
्	-9993
