<unk>	0
<s>	0
</s>	0
UuRrLl	0
DdAaTtEe	0
NnUuMm	0
▁t	-0
he	-1
▁a	-2
▁the	-3
in	-4
▁o	-5
re	-6
on	-7
er	-8
at	-9
en	-10
▁of	-11
▁s	-12
is	-13
▁,	-14
ed	-15
▁c	-16
it	-17
▁w	-18
nd	-19
▁.	-20
▁p	-21
▁b	-22
ion	-23
▁in	-24
al	-25
or	-26
es	-27
▁f	-28
an	-29
ar	-30
▁to	-31
ou	-32
ing	-33
▁d	-34
as	-35
ic	-36
▁and	-37
ent	-38
▁m	-39
▁th	-40
▁h	-41
ct	-42
▁re	-43
le	-44
ro	-45
▁be	-46
▁n	-47
▁T	-48
▁e	-49
▁C	-50
▁is	-51
st	-52
▁S	-53
▁A	-54
ation	-55
ce	-56
▁I	-57
om	-58
ot	-59
id	-60
ll	-61
ut	-62
ve	-63
▁l	-64
▁that	-65
ment	-66
ly	-67
se	-68
▁for	-69
im	-70
▁on	-71
ad	-72
▁con	-73
▁u	-74
▁or	-75
▁as	-76
ur	-77
▁The	-78
▁by	-79
▁g	-80
▁pro	-81
▁de	-82
ig	-83
▁su	-84
pp	-85
▁P	-86
os	-87
▁&	-88
il	-89
▁an	-90
am	-91
▁)	-92
▁wh	-93
our	-94
ch	-95
ver	-96
▁(	-97
ate	-98
et	-99
ay	-100
her	-101
▁was	-102
ow	-103
▁not	-104
▁it	-105
ith	-106
ir	-107
ter	-108
ld	-109
▁M	-110
ap	-111
if	-112
ant	-113
▁with	-114
ri	-115
▁st	-116
ect	-117
▁R	-118
ab	-119
▁app	-120
ain	-121
ul	-122
▁B	-123
▁H	-124
ere	-125
qu	-126
▁ex	-127
ers	-128
ess	-129
res	-130
ol	-131
ourt	-132
▁he	-133
▁v	-134
us	-135
▁com	-136
ge	-137
▁D	-138
ra	-139
ity	-140
ud	-141
ich	-142
▁-	-143
▁N	-144
▁are	-145
and	-146
ist	-147
▁which	-148
ak	-149
igh	-150
od	-151
▁this	-152
▁has	-153
est	-154
▁G	-155
▁sh	-156
nder	-157
ther	-158
▁Court	-159
apos	-160
iv	-161
▁ha	-162
▁al	-163
ore	-164
▁r	-165
▁at	-166
▁le	-167
ci	-168
nt	-169
end	-170
rom	-171
art	-172
ated	-173
ould	-174
▁under	-175
ive	-176
ions	-177
um	-178
cc	-179
▁y	-180
em	-181
▁from	-182
ort	-183
ure	-184
ies	-185
ell	-186
all	-187
▁In	-188
ill	-189
▁W	-190
▁have	-191
▁se	-192
▁res	-193
ust	-194
▁j	-195
▁L	-196
ence	-197
un	-198
▁E	-199
▁any	-200
▁O	-201
op	-202
ice	-203
ard	-204
ac	-205
ase	-206
ia	-207
red	-208
▁cont	-209
▁:	-210
▁F	-211
ition	-212
▁J	-213
▁comp	-214
able	-215
ance	-216
▁whe	-217
▁been	-218
▁sub	-219
▁there	-220
▁Ind	-221
▁dis	-222
▁ne	-223
th	-224
so	-225
ted	-226
▁his	-227
ie	-228
▁ad	-229
ction	-230
▁int	-231
▁ch	-232
ff	-233
ord	-234
▁per	-235
▁im	-236
ary	-237
▁/	-238
▁all	-239
over	-240
▁&#	-241
ous	-242
▁prov	-243
ight	-244
lic	-245
▁St	-246
▁ab	-247
▁can	-248
ag	-249
pon	-250
aid	-251
▁acc	-252
▁It	-253
▁ag	-254
▁other	-255
la	-256
act	-257
pt	-258
▁such	-259
gh	-260
ution	-261
ear	-262
▁part	-263
▁K	-264
ame	-265
pe	-266
▁had	-267
▁also	-268
ned	-269
age	-270
el	-271
▁Act	-272
▁ar	-273
▁so	-274
ial	-275
ind	-276
ire	-277
per	-278
▁case	-279
▁tr	-280
sion	-281
▁we	-282
▁en	-283
fore	-284
▁do	-285
stit	-286
▁Th	-287
▁were	-288
pl	-289
ount	-290
▁k	-291
mit	-292
▁cons	-293
mis	-294
▁inc	-295
erv	-296
▁U	-297
ome	-298
▁ord	-299
ade	-300
▁imp	-301
ue	-302
▁no	-303
overn	-304
aw	-305
▁dec	-306
▁ev	-307
ough	-308
▁un	-309
ans	-310
ib	-311
du	-312
ations	-313
▁rec	-314
▁would	-315
ical	-316
ide	-317
▁off	-318
erson	-319
▁who	-320
ru	-321
▁India	-322
▁“	-323
ellant	-324
▁may	-325
ound	-326
ub	-327
sed	-328
▁qu	-329
▁person	-330
▁pl	-331
ree	-332
▁its	-333
▁me	-334
▁Con	-335
ry	-336
ime	-337
▁am	-338
▁rel	-339
ep	-340
▁their	-341
▁out	-342
▁appellant	-343
ail	-344
overnment	-345
▁State	-346
hi	-347
ied	-348
out	-349
orm	-350
fter	-351
▁;	-352
av	-353
ish	-354
ict	-355
ult	-356
▁one	-357
▁reg	-358
ost	-359
▁Com	-360
▁&#9	-361
ject	-362
rit	-363
▁High	-364
▁ob	-365
▁order	-366
oc	-367
▁tak	-368
ong	-369
▁man	-370
▁will	-371
iz	-372
ose	-373
▁gr	-374
▁wor	-375
▁made	-376
▁pre	-377
▁V	-378
ision	-379
▁Ch	-380
ine	-381
og	-382
▁but	-383
use	-384
ast	-385
▁jud	-386
▁shall	-387
pect	-388
▁’	-389
sel	-390
ove	-391
ual	-392
oin	-393
▁said	-394
▁pres	-395
cial	-396
▁mat	-397
▁ind	-398
▁you	-399
▁ref	-400
ory	-401
ments	-402
▁year	-403
ific	-404
ces	-405
▁pr	-406
▁only	-407
rib	-408
ection	-409
one	-410
▁respon	-411
▁law	-412
stitution	-413
▁No	-414
ident	-415
ood	-416
ok	-417
ered	-418
▁if	-419
ced	-420
▁Government	-421
are	-422
ach	-423
tain	-424
ings	-425
ber	-426
cess	-427
ise	-428
▁right	-429
▁time	-430
dent	-431
▁they	-432
used	-433
ious	-434
▁fact	-435
▁ac	-436
iff	-437
▁spe	-438
oll	-439
ik	-440
▁ent	-441
ates	-442
oun	-443
▁em	-444
vel	-445
▁rep	-446
▁This	-447
▁As	-448
te	-449
▁He	-450
▁again	-451
iew	-452
hed	-453
▁before	-454
uth	-455
▁him	-456
very	-457
ty	-458
▁tw	-459
▁inter	-460
mission	-461
ang	-462
ec	-463
▁should	-464
form	-465
▁where	-466
ile	-467
▁act	-468
▁inv	-469
inal	-470
ities	-471
▁pur	-472
▁them	-473
ating	-474
▁consid	-475
etition	-476
eal	-477
ign	-478
ract	-479
▁comm	-480
▁conc	-481
ass	-482
▁exp	-483
▁iss	-484
▁into	-485
▁same	-486
▁court	-487
▁after	-488
▁up	-489
▁being	-490
▁ass	-491
ens	-492
▁mak	-493
istr	-494
irect	-495
oy	-496
▁respondent	-497
▁our	-498
ative	-499
ian	-500
▁when	-501
▁sc	-502
▁def	-503
▁requ	-504
▁pos	-505
mitted	-506
ower	-507
ublic	-508
▁work	-509
uthor	-510
pos	-511
own	-512
▁bec	-513
eral	-514
▁Sh	-515
ational	-516
▁two	-517
ath	-518
▁judg	-519
▁cla	-520
isions	-521
lud	-522
ward	-523
ollow	-524
12	-525
4;	-526
124;	-527
▁&#124;	-528
eg	-529
▁dated	-530
▁lear	-531
▁cl	-532
▁against	-533
▁applic	-534
ention	-535
lect	-536
▁ter	-537
ip	-538
ack	-539
▁follow	-540
▁serv	-541
ness	-542
▁leg	-543
aj	-544
▁fil	-545
me	-546
ased	-547
▁these	-548
▁her	-549
old	-550
▁over	-551
▁..	-552
▁pol	-553
rough	-554
con	-555
▁giv	-556
oint	-557
ason	-558
ature	-559
▁trans	-560
.0	-561
not	-562
ah	-563
▁accused	-564
▁We	-565
ild	-566
wn	-567
▁bet	-568
amp	-569
min	-570
▁view	-571
▁Pro	-572
ax	-573
ular	-574
irst	-575
▁eff	-576
▁...	-577
ank	-578
nce	-579
▁more	-580
▁some	-581
▁matter	-582
▁There	-583
ved	-584
ays	-585
▁set	-586
ite	-587
▁held	-588
ceed	-589
▁SC	-590
▁form	-591
▁rem	-592
▁petition	-593
led	-594
een	-595
ute	-596
▁sp	-597
▁diff	-598
urther	-599
ided	-600
ility	-601
▁about	-602
▁learned	-603
ike	-604
cy	-605
▁Un	-606
ors	-607
idence	-608
▁could	-609
ife	-610
▁pe	-611
▁i	-612
▁te	-613
▁op	-614
▁us	-615
▁Constitution	-616
▁must	-617
ause	-618
▁kn	-619
▁char	-620
ark	-621
ible	-622
▁years	-623
▁ext	-624
ress	-625
▁pay	-626
erred	-627
▁land	-628
▁Jud	-629
▁On	-630
▁Ex	-631
3;	-632
▁&#93;	-633
reat	-634
▁appeal	-635
▁quest	-636
1;	-637
▁&#91;	-638
cept	-639
▁disc	-640
▁Su	-641
velop	-642
▁%	-643
▁att	-644
▁cannot	-645
▁direct	-646
ised	-647
▁author	-648
▁reason	-649
▁state	-650
▁”	-651
ever	-652
▁writ	-653
ral	-654
▁conf	-655
▁judgment	-656
▁than	-657
aint	-658
▁proper	-659
▁?	-660
▁provisions	-661
ef	-662
ween	-663
▁public	-664
uring	-665
ified	-666
▁power	-667
▁first	-668
▁record	-669
arl	-670
▁includ	-671
▁between	-672
▁even	-673
▁coun	-674
▁present	-675
▁ro	-676
rial	-677
▁well	-678
▁like	-679
▁appro	-680
ited	-681
▁count	-682
erest	-683
▁respect	-684
▁fe	-685
ms	-686
ired	-687
ged	-688
ving	-689
▁An	-690
ash	-691
▁consider	-692
▁just	-693
any	-694
ily	-695
ople	-696
oth	-697
▁proceed	-698
ven	-699
▁taken	-700
▁Y	-701
its	-702
rim	-703
▁supp	-704
▁val	-705
und	-706
ram	-707
ook	-708
ases	-709
▁‘	-710
▁interest	-711
iction	-712
▁further	-713
▁new	-714
iod	-715
ting	-716
ha	-717
▁above	-718
▁des	-719
icial	-720
ull	-721
▁given	-722
▁within	-723
▁issu	-724
▁mem	-725
▁Ar	-726
▁through	-727
▁Ben	-728
▁regard	-729
▁evidence	-730
▁question	-731
▁cle	-732
▁filed	-733
▁period	-734
▁Pr	-735
ices	-736
ession	-737
pre	-738
vers	-739
ater	-740
▁inst	-741
▁poss	-742
▁upon	-743
▁people	-744
▁min	-745
▁go	-746
▁differe	-747
ug	-748
▁effect	-749
▁add	-750
duct	-751
ploy	-752
ended	-753
isl	-754
▁good	-755
▁De	-756
▁amount	-757
uc	-758
▁gen	-759
ric	-760
▁whether	-761
▁bas	-762
▁here	-763
ally	-764
ng	-765
▁PW	-766
▁Sing	-767
▁what	-768
▁read	-769
▁then	-770
▁SCC	-771
ale	-772
▁App	-773
rap	-774
▁counsel	-775
▁Ad	-776
ification	-777
▁does	-778
▁sy	-779
▁aff	-780
irc	-781
▁Indian	-782
owever	-783
▁Rs	-784
▁decision	-785
▁cer	-786
▁develop	-787
▁0	-788
ief	-789
▁life	-790
ple	-791
▁spec	-792
▁cor	-793
▁own	-794
▁make	-795
ix	-796
abl	-797
▁prin	-798
ule	-799
lace	-800
▁inform	-801
bit	-802
▁ra	-803
self	-804
ances	-805
▁need	-806
▁par	-807
tern	-808
▁bel	-809
▁mon	-810
▁Whe	-811
▁partic	-812
ules	-813
▁concer	-814
air	-815
▁pri	-816
▁col	-817
assed	-818
▁clear	-819
▁Cent	-820
▁est	-821
▁ins	-822
ural	-823
▁found	-824
▁therefore	-825
▁claim	-826
▁var	-827
▁Commission	-828
▁necess	-829
▁without	-830
▁Mr	-831
ning	-832
▁she	-833
▁application	-834
hy	-835
other	-836
ior	-837
ents	-838
▁find	-839
hip	-840
▁obs	-841
▁very	-842
ful	-843
▁If	-844
ges	-845
▁Bh	-846
ained	-847
▁Section	-848
▁employ	-849
▁num	-850
▁sent	-851
▁did	-852
als	-853
ee	-854
▁hand	-855
▁while	-856
ody	-857
▁cond	-858
▁passed	-859
ished	-860
▁see	-861
▁circ	-862
▁compl	-863
▁av	-864
▁Min	-865
▁take	-866
▁So	-867
▁used	-868
▁bl	-869
▁adv	-870
▁place	-871
▁car	-872
sec	-873
▁accord	-874
▁But	-875
▁persons	-876
itions	-877
row	-878
erence	-879
▁invest	-880
ange	-881
▁call	-882
▁cases	-883
▁report	-884
ined	-885
▁those	-886
ety	-887
▁down	-888
▁process	-889
ace	-890
ouse	-891
ner	-892
▁your	-893
▁Pres	-894
▁gu	-895
▁different	-896
pose	-897
ati	-898
▁date	-899
ft	-900
xt	-901
▁submitted	-902
▁import	-903
▁rele	-904
▁grant	-905
▁inf	-906
▁ret	-907
mitte	-908
▁word	-909
▁three	-910
▁subject	-911
▁my	-912
erc	-913
▁equ	-914
ures	-915
ink	-916
▁exam	-917
por	-918
ffic	-919
▁stat	-920
▁allow	-921
bers	-922
ince	-923
stem	-924
▁rece	-925
arm	-926
olog	-927
▁both	-928
▁name	-929
ism	-930
ave	-931
ond	-932
ruct	-933
gan	-934
ister	-935
▁beh	-936
▁co	-937
▁because	-938
lt	-939
▁princi	-940
▁observ	-941
▁country	-942
▁know	-943
ob	-944
ants	-945
▁occ	-946
▁Singh	-947
ality	-948
▁dist	-949
les	-950
▁dem	-951
▁suit	-952
▁dep	-953
▁Am	-954
▁And	-955
▁account	-956
urn	-957
ew	-958
ages	-959
▁get	-960
▁cent	-961
med	-962
▁ke	-963
▁tax	-964
uted	-965
tic	-966
▁way	-967
▁cap	-968
che	-969
ode	-970
▁ed	-971
▁following	-972
▁stand	-973
▁during	-974
▁For	-975
▁Or	-976
ination	-977
ital	-978
▁property	-979
▁purpose	-980
▁object	-981
iness	-982
▁comple	-983
▁hold	-984
▁ben	-985
▁President	-986
▁referred	-987
mittee	-988
igation	-989
▁Bench	-990
▁section	-991
▁use	-992
▁every	-993
man	-994
lus	-995
alf	-996
▁child	-997
ivil	-998
▁sec	-999
ts	-1000
ides	-1001
▁parties	-1002
▁exerc	-1003
▁fl	-1004
▁Central	-1005
▁agree	-1006
▁main	-1007
▁rev	-1008
▁Judge	-1009
▁bu	-1010
▁ground	-1011
riminal	-1012
▁stated	-1013
▁del	-1014
▁cre	-1015
itness	-1016
ability	-1017
crib	-1018
▁acqu	-1019
ier	-1020
▁though	-1021
▁oper	-1022
▁legisl	-1023
bitr	-1024
▁sen	-1025
ring	-1026
▁prosec	-1027
▁offence	-1028
read	-1029
ores	-1030
▁service	-1031
▁produ	-1032
▁Res	-1033
xad	-1034
▁post	-1035
▁basis	-1036
miss	-1037
ency	-1038
ble	-1039
▁day	-1040
chn	-1041
ither	-1042
▁number	-1043
▁necessary	-1044
ribun	-1045
▁back	-1046
▁system	-1047
eth	-1048
esh	-1049
uch	-1050
▁having	-1051
▁lit	-1052
▁jur	-1053
▁concerned	-1054
ks	-1055
▁appellants	-1056
▁establ	-1057
arge	-1058
▁circum	-1059
isd	-1060
▁sit	-1061
▁Re	-1062
erial	-1063
less	-1064
▁let	-1065
▁contin	-1066
▁Reg	-1067
ption	-1068
▁lim	-1069
▁af	-1070
▁med	-1071
▁avail	-1072
▁authority	-1073
▁end	-1074
▁information	-1075
▁required	-1076
ten	-1077
sequ	-1078
▁appear	-1079
▁issue	-1080
▁great	-1081
▁each	-1082
▁deal	-1083
▁proceedings	-1084
▁po	-1085
▁trial	-1086
han	-1087
▁particular	-1088
▁disp	-1089
▁vi	-1090
ren	-1091
quot	-1092
ized	-1093
▁bus	-1094
arch	-1095
▁mark	-1096
▁rest	-1097
▁prev	-1098
▁deter	-1099
▁issued	-1100
▁non	-1101
▁various	-1102
▁circumst	-1103
▁provision	-1104
ivers	-1105
▁long	-1106
▁exist	-1107
▁death	-1108
ries	-1109
▁facts	-1110
▁certain	-1111
▁const	-1112
vant	-1113
uty	-1114
▁witness	-1115
▁now	-1116
ived	-1117
▁benef	-1118
▁many	-1119
▁contract	-1120
▁month	-1121
▁sim	-1122
port	-1123
lement	-1124
▁Del	-1125
ros	-1126
▁sur	-1127
ph	-1128
ribunal	-1129
ret	-1130
▁Is	-1131
▁They	-1132
▁considered	-1133
▁nature	-1134
oard	-1135
▁Acc	-1136
▁et	-1137
ivid	-1138
▁show	-1139
▁material	-1140
▁award	-1141
ient	-1142
▁offic	-1143
oresaid	-1144
▁Committee	-1145
▁including	-1146
▁prot	-1147
ov	-1148
ences	-1149
▁aforesaid	-1150
▁world	-1151
▁provided	-1152
▁li	-1153
▁terms	-1154
▁jurisd	-1155
▁fam	-1156
lection	-1157
▁etc	-1158
▁conv	-1159
ata	-1160
ives	-1161
icy	-1162
▁sup	-1163
onment	-1164
▁All	-1165
▁action	-1166
▁Hind	-1167
uman	-1168
leg	-1169
▁appoint	-1170
ne	-1171
ourse	-1172
gg	-1173
▁exec	-1174
▁loc	-1175
▁prog	-1176
▁most	-1177
▁lead	-1178
ending	-1179
arlia	-1180
▁jurisdiction	-1181
reed	-1182
▁fore	-1183
ically	-1184
▁Shri	-1185
▁another	-1186
▁det	-1187
der	-1188
ather	-1189
▁rights	-1190
arliament	-1191
▁due	-1192
▁clause	-1193
▁At	-1194
▁company	-1195
▁Delhi	-1196
▁plac	-1197
▁support	-1198
▁fun	-1199
..	-1200
cond	-1201
▁educ	-1202
ai	-1203
section	-1204
▁came	-1205
▁result	-1206
▁sche	-1207
▁priv	-1208
▁mod	-1209
▁pass	-1210
ising	-1211
▁mar	-1212
▁notice	-1213
▁consideration	-1214
ately	-1215
ulation	-1216
cu	-1217
▁Sec	-1218
ointed	-1219
▁stud	-1220
oup	-1221
▁opp	-1222
▁development	-1223
PC	-1224
ator	-1225
▁supra	-1226
▁contro	-1227
▁opin	-1228
▁commun	-1229
▁means	-1230
▁sm	-1231
raph	-1232
way	-1233
▁members	-1234
▁circumstances	-1235
▁relevant	-1236
ogn	-1237
▁Dep	-1238
pri	-1239
ciety	-1240
ars	-1241
▁However	-1242
ari	-1243
▁transf	-1244
▁Al	-1245
▁arbitr	-1246
▁dece	-1247
of	-1248
▁indust	-1249
omm	-1250
▁To	-1251
▁abs	-1252
ually	-1253
osed	-1254
▁str	-1255
ared	-1256
▁behalf	-1257
▁Tr	-1258
▁docu	-1259
▁prof	-1260
conom	-1261
▁body	-1262
aring	-1263
▁come	-1264
▁fund	-1265
▁mean	-1266
▁conduct	-1267
ana	-1268
ines	-1269
get	-1270
▁Wh	-1271
pr	-1272
gu	-1273
allen	-1274
ried	-1275
▁general	-1276
ying	-1277
▁Raj	-1278
af	-1279
▁petitioner	-1280
▁business	-1281
▁opinion	-1282
▁Coun	-1283
gt	-1284
▁statement	-1285
▁legal	-1286
tal	-1287
▁available	-1288
istrict	-1289
▁fin	-1290
▁mention	-1291
▁called	-1292
▁ve	-1293
▁individ	-1294
angu	-1295
aining	-1296
▁deceased	-1297
▁special	-1298
▁agreement	-1299
▁since	-1300
▁Man	-1301
ateg	-1302
▁organ	-1303
ron	-1304
▁prosecution	-1305
▁point	-1306
▁ser	-1307
cedure	-1308
▁pract	-1309
IR	-1310
▁Just	-1311
▁expres	-1312
▁second	-1313
▁goods	-1314
▁manner	-1315
▁government	-1316
▁Mah	-1317
▁Tribunal	-1318
▁words	-1319
lim	-1320
ential	-1321
▁inj	-1322
▁Comp	-1323
▁area	-1324
har	-1325
▁situ	-1326
ck	-1327
▁Parliament	-1328
after	-1329
ured	-1330
▁days	-1331
▁ca	-1332
bt	-1333
▁hel	-1334
▁test	-1335
ains	-1336
▁Rules	-1337
▁individual	-1338
▁high	-1339
▁open	-1340
preme	-1341
ugh	-1342
▁Ram	-1343
▁che	-1344
▁Union	-1345
▁bro	-1346
▁fail	-1347
▁fac	-1348
▁prom	-1349
up	-1350
imes	-1351
ready	-1352
▁mind	-1353
▁wom	-1354
acy	-1355
▁Eng	-1356
owers	-1357
▁water	-1358
▁dra	-1359
▁already	-1360
▁expl	-1361
▁Spe	-1362
alth	-1363
▁pen	-1364
stand	-1365
▁repres	-1366
▁Se	-1367
atory	-1368
ently	-1369
▁ple	-1370
▁ten	-1371
ples	-1372
▁full	-1373
▁class	-1374
▁sign	-1375
▁National	-1376
▁income	-1377
▁ph	-1378
▁based	-1379
▁meet	-1380
▁itself	-1381
▁When	-1382
▁ii	-1383
▁exc	-1384
▁earl	-1385
artment	-1386
par	-1387
▁thus	-1388
▁Chief	-1389
ministr	-1390
cribed	-1391
▁challen	-1392
uk	-1393
cil	-1394
▁constitution	-1395
▁give	-1396
mb	-1397
▁econom	-1398
▁techn	-1399
▁ident	-1400
▁important	-1401
itional	-1402
▁propos	-1403
▁far	-1404
▁police	-1405
▁bank	-1406
ool	-1407
▁according	-1408
▁mis	-1409
▁viol	-1410
▁invol	-1411
▁done	-1412
▁pun	-1413
▁exper	-1414
▁tre	-1415
▁elect	-1416
▁making	-1417
na	-1418
ick	-1419
▁Gen	-1420
hes	-1421
▁States	-1422
▁say	-1423
olution	-1424
▁exercise	-1425
▁Sub	-1426
▁either	-1427
▁position	-1428
iding	-1429
▁Rep	-1430
▁relig	-1431
ology	-1432
▁house	-1433
▁policy	-1434
▁party	-1435
▁help	-1436
▁services	-1437
▁letter	-1438
▁observed	-1439
▁much	-1440
utions	-1441
avour	-1442
▁Board	-1443
ock	-1444
▁human	-1445
ons	-1446
ering	-1447
▁Supreme	-1448
▁determin	-1449
ees	-1450
▁Rule	-1451
▁activ	-1452
tained	-1453
▁entit	-1454
▁allowed	-1455
oney	-1456
▁Justice	-1457
▁That	-1458
aintiff	-1459
ics	-1460
▁value	-1461
ror	-1462
▁Pol	-1463
▁argu	-1464
wards	-1465
▁charge	-1466
▁respondents	-1467
▁common	-1468
▁along	-1469
▁sale	-1470
▁criminal	-1471
▁put	-1472
▁senior	-1473
ran	-1474
▁course	-1475
▁subst	-1476
▁start	-1477
▁langu	-1478
▁Code	-1479
▁depos	-1480
▁sat	-1481
▁payment	-1482
▁final	-1483
▁Offic	-1484
▁paid	-1485
ilar	-1486
▁tem	-1487
ork	-1488
▁social	-1489
▁orig	-1490
▁require	-1491
▁earlier	-1492
ves	-1493
ury	-1494
▁sum	-1495
▁reference	-1496
pted	-1497
▁how	-1498
▁conditions	-1499
▁cost	-1500
▁el	-1501
▁Ag	-1502
▁conn	-1503
ancial	-1504
ES	-1505
▁Not	-1506
▁represent	-1507
▁herein	-1508
▁Sche	-1509
▁cause	-1510
▁Gu	-1511
▁build	-1512
▁—	-1513
▁duty	-1514
orpor	-1515
oss	-1516
AR	-1517
ists	-1518
▁less	-1519
▁judicial	-1520
▁compens	-1521
▁real	-1522
ected	-1523
▁appropri	-1524
▁init	-1525
▁er	-1526
cies	-1527
▁sect	-1528
ield	-1529
utes	-1530
▁These	-1531
ake	-1532
▁Div	-1533
az	-1534
▁ens	-1535
itation	-1536
ird	-1537
▁Te	-1538
▁look	-1539
▁promot	-1540
isf	-1541
▁large	-1542
▁perform	-1543
lusion	-1544
▁continu	-1545
▁society	-1546
ways	-1547
iance	-1548
▁dou	-1549
▁however	-1550
▁After	-1551
▁General	-1552
▁possession	-1553
ugned	-1554
▁incre	-1555
endment	-1556
ruction	-1557
▁entire	-1558
▁project	-1559
ross	-1560
▁accept	-1561
▁rule	-1562
▁apply	-1563
▁tra	-1564
▁–	-1565
day	-1566
urre	-1567
00	-1568
▁assess	-1569
▁recorded	-1570
ici	-1571
iry	-1572
ively	-1573
▁instit	-1574
ortun	-1575
▁constit	-1576
▁cro	-1577
▁provide	-1578
▁Minister	-1579
▁vis	-1580
▁justice	-1581
▁mer	-1582
▁Bank	-1583
▁last	-1584
cing	-1585
tle	-1586
▁impugned	-1587
▁group	-1588
ya	-1589
▁sentence	-1590
▁recomm	-1591
▁Ass	-1592
▁want	-1593
▁matters	-1594
▁family	-1595
▁Law	-1596
▁entitled	-1597
see	-1598
ER	-1599
▁hig	-1600
ris	-1601
ested	-1602
soci	-1603
▁ver	-1604
▁list	-1605
▁book	-1606
▁punish	-1607
▁except	-1608
eration	-1609
▁You	-1610
▁mentioned	-1611
▁indic	-1612
▁powers	-1613
AT	-1614
epend	-1615
▁head	-1616
▁Council	-1617
ibility	-1618
▁polit	-1619
▁think	-1620
▁scheme	-1621
▁free	-1622
chool	-1623
▁plaintiff	-1624
▁appropriate	-1625
▁New	-1626
▁Therefore	-1627
▁cred	-1628
▁defend	-1629
▁appointment	-1630
▁known	-1631
▁ir	-1632
▁OF	-1633
▁discus	-1634
▁become	-1635
wise	-1636
▁force	-1637
▁orders	-1638
ON	-1639
▁som	-1640
▁took	-1641
ger	-1642
ajor	-1643
▁satisf	-1644
▁level	-1645
▁Part	-1646
▁favour	-1647
▁education	-1648
rect	-1649
ization	-1650
▁money	-1651
adesh	-1652
▁care	-1653
▁Courts	-1654
▁Civil	-1655
▁lo	-1656
▁complaint	-1657
agraph	-1658
val	-1659
▁She	-1660
▁cust	-1661
▁dev	-1662
irm	-1663
▁respons	-1664
▁age	-1665
▁laid	-1666
▁placed	-1667
oh	-1668
iversity	-1669
▁taking	-1670
▁investigation	-1671
▁principle	-1672
ium	-1673
▁Mus	-1674
▁stre	-1675
▁received	-1676
▁Leg	-1677
▁relating	-1678
ledge	-1679
▁granted	-1680
▁short	-1681
▁detail	-1682
ert	-1683
rought	-1684
ends	-1685
▁small	-1686
▁ty	-1687
▁compensation	-1688
▁vide	-1689
▁office	-1690
▁sever	-1691
▁months	-1692
▁contained	-1693
▁Officer	-1694
▁proble	-1695
▁reasons	-1696
▁possible	-1697
▁x	-1698
▁Dr	-1699
▁play	-1700
▁left	-1701
ording	-1702
▁asse	-1703
▁grow	-1704
▁Thus	-1705
hile	-1706
▁rules	-1707
▁language	-1708
inary	-1709
jud	-1710
agement	-1711
▁provides	-1712
▁program	-1713
▁light	-1714
ize	-1715
▁control	-1716
▁mere	-1717
▁follows	-1718
by	-1719
aking	-1720
▁succ	-1721
ilities	-1722
▁committed	-1723
▁complete	-1724
▁others	-1725
▁stage	-1726
▁market	-1727
EN	-1728
▁II	-1729
rodu	-1730
arn	-1731
▁four	-1732
ember	-1733
▁happ	-1734
▁Col	-1735
▁officer	-1736
ta	-1737
▁original	-1738
▁major	-1739
mber	-1740
▁children	-1741
mental	-1742
king	-1743
▁rate	-1744
▁transfer	-1745
▁whole	-1746
asht	-1747
utory	-1748
▁cand	-1749
▁among	-1750
▁Direct	-1751
isation	-1752
▁met	-1753
▁fa	-1754
hib	-1755
▁recogn	-1756
RB	-1757
land	-1758
▁interpre	-1759
ards	-1760
▁demand	-1761
ify	-1762
▁According	-1763
▁Mag	-1764
▁financial	-1765
▁decl	-1766
▁war	-1767
▁acce	-1768
▁Prov	-1769
▁appeals	-1770
▁div	-1771
▁compet	-1772
▁keep	-1773
▁specified	-1774
AN	-1775
▁valid	-1776
▁five	-1777
▁courts	-1778
▁constitutional	-1779
ructure	-1780
arent	-1781
▁Division	-1782
▁ess	-1783
▁meas	-1784
▁ide	-1785
▁Serv	-1786
▁What	-1787
▁ur	-1788
▁separ	-1789
▁Pl	-1790
ached	-1791
▁civil	-1792
▁candid	-1793
▁going	-1794
su	-1795
▁cult	-1796
▁several	-1797
▁Author	-1798
▁Q	-1799
ara	-1800
▁term	-1801
▁total	-1802
pondent	-1803
gr	-1804
ope	-1805
omb	-1806
▁plan	-1807
ched	-1808
▁env	-1809
igned	-1810
▁brought	-1811
ories	-1812
▁towards	-1813
ication	-1814
▁administr	-1815
▁nor	-1816
urity	-1817
ably	-1818
▁Pradesh	-1819
▁times	-1820
▁decided	-1821
rie	-1822
ought	-1823
▁establish	-1824
here	-1825
ys	-1826
▁Cr	-1827
▁adop	-1828
▁purpos	-1829
ma	-1830
empt	-1831
itor	-1832
osp	-1833
atic	-1834
▁eng	-1835
app	-1836
overed	-1837
istered	-1838
▁run	-1839
▁charact	-1840
essee	-1841
lam	-1842
▁national	-1843
uf	-1844
▁vill	-1845
▁function	-1846
▁Govern	-1847
hen	-1848
▁bre	-1849
▁categ	-1850
▁Mad	-1851
▁intern	-1852
▁sett	-1853
hold	-1854
▁procedure	-1855
▁Be	-1856
▁Cont	-1857
ext	-1858
AL	-1859
▁move	-1860
uly	-1861
▁experi	-1862
▁health	-1863
▁den	-1864
▁contr	-1865
▁aspect	-1866
▁note	-1867
▁benefit	-1868
sw	-1869
▁six	-1870
taining	-1871
icult	-1872
▁fix	-1873
missed	-1874
▁alle	-1875
aged	-1876
▁sugg	-1877
▁away	-1878
▁prescribed	-1879
lf	-1880
▁Department	-1881
▁enc	-1882
▁independ	-1883
▁purposes	-1884
▁cert	-1885
▁enact	-1886
rest	-1887
▁suff	-1888
▁established	-1889
▁dismissed	-1890
▁medical	-1891
▁Appeal	-1892
▁Petition	-1893
action	-1894
▁opportun	-1895
standing	-1896
▁Muslim	-1897
▁specific	-1898
▁old	-1899
▁accepted	-1900
ala	-1901
▁meaning	-1902
▁reject	-1903
erg	-1904
quiry	-1905
▁private	-1906
ises	-1907
▁artic	-1908
▁witnesses	-1909
▁mot	-1910
reedom	-1911
▁knowledge	-1912
▁product	-1913
▁expression	-1914
akh	-1915
▁too	-1916
riage	-1917
▁treat	-1918
▁appointed	-1919
▁areas	-1920
▁himself	-1921
▁correct	-1922
arily	-1923
▁san	-1924
▁change	-1925
work	-1926
istrate	-1927
▁Ab	-1928
▁Adv	-1929
▁gl	-1930
atural	-1931
ulations	-1932
▁sal	-1933
▁decisions	-1934
▁directed	-1935
▁accordance	-1936
▁ann	-1937
▁namely	-1938
umar	-1939
▁Legisl	-1940
▁paragraph	-1941
▁raised	-1942
imum	-1943
ters	-1944
▁fall	-1945
▁lib	-1946
▁IPC	-1947
ething	-1948
▁enter	-1949
▁prior	-1950
medi	-1951
que	-1952
ulated	-1953
ironment	-1954
ali	-1955
▁Co	-1956
▁otherwise	-1957
▁dispute	-1958
thing	-1959
hys	-1960
▁aside	-1961
▁written	-1962
▁pref	-1963
istry	-1964
▁doubt	-1965
▁purch	-1966
▁women	-1967
ware	-1968
▁situation	-1969
lied	-1970
▁District	-1971
▁submission	-1972
emed	-1973
missions	-1974
▁Respondent	-1975
▁cr	-1976
▁sk	-1977
▁hist	-1978
▁sl	-1979
▁trad	-1980
▁mand	-1981
▁undert	-1982
ellate	-1983
▁political	-1984
▁economic	-1985
▁clearly	-1986
umb	-1987
▁Lt	-1988
oid	-1989
ieve	-1990
lish	-1991
▁today	-1992
▁One	-1993
ID	-1994
▁conclusion	-1995
▁His	-1996
▁wind	-1997
▁relations	-1998
▁chang	-1999
▁alleged	-2000
▁norm	-2001
▁similar	-2002
▁best	-2003
▁fri	-2004
ery	-2005
▁self	-2006
▁field	-2007
▁obl	-2008
ems	-2009
▁aut	-2010
▁file	-2011
sp	-2012
utive	-2013
▁ask	-2014
▁still	-2015
▁consequ	-2016
ony	-2017
iving	-2018
for	-2019
uses	-2020
anies	-2021
▁notification	-2022
▁kind	-2023
▁statutory	-2024
cient	-2025
▁success	-2026
▁En	-2027
▁es	-2028
▁always	-2029
▁extent	-2030
isition	-2031
▁answ	-2032
▁ach	-2033
ern	-2034
▁later	-2035
▁Public	-2036
▁context	-2037
▁local	-2038
▁below	-2039
▁never	-2040
ctions	-2041
▁seen	-2042
▁vict	-2043
▁Magistrate	-2044
▁neg	-2045
ufact	-2046
▁freedom	-2047
▁condition	-2048
▁initi	-2049
▁higher	-2050
▁school	-2051
▁sing	-2052
▁Corpor	-2053
▁member	-2054
lected	-2055
▁super	-2056
▁pop	-2057
▁Special	-2058
▁Police	-2059
orts	-2060
▁data	-2061
▁cop	-2062
▁dispos	-2063
itiz	-2064
hing	-2065
▁Artic	-2066
▁personal	-2067
▁prim	-2068
▁thereof	-2069
▁IN	-2070
▁refer	-2071
▁Pre	-2072
▁pat	-2073
hic	-2074
▁br	-2075
ats	-2076
orth	-2077
▁dire	-2078
▁issues	-2079
▁University	-2080
▁Commissioner	-2081
pir	-2082
▁till	-2083
▁Chand	-2084
▁noted	-2085
▁character	-2086
▁Comm	-2087
ues	-2088
▁substant	-2089
▁difficult	-2090
▁principles	-2091
▁registered	-2092
▁restr	-2093
avan	-2094
▁documents	-2095
▁incident	-2096
▁ri	-2097
▁decla	-2098
▁Ltd	-2099
▁institutions	-2100
▁sought	-2101
▁share	-2102
▁offences	-2103
dule	-2104
IT	-2105
▁redu	-2106
come	-2107
IC	-2108
▁step	-2109
▁trade	-2110
▁went	-2111
▁impro	-2112
alc	-2113
verse	-2114
▁Authority	-2115
▁reasonable	-2116
ours	-2117
▁carry	-2118
▁capital	-2119
▁saf	-2120
▁doct	-2121
▁charges	-2122
▁working	-2123
▁interf	-2124
▁leave	-2125
▁foreign	-2126
▁di	-2127
BI	-2128
▁countries	-2129
▁implement	-2130
▁review	-2131
▁bring	-2132
amental	-2133
▁ensure	-2134
▁direction	-2135
outh	-2136
▁Par	-2137
▁comput	-2138
▁assessee	-2139
▁impris	-2140
▁sw	-2141
▁Gr	-2142
▁With	-2143
ricult	-2144
▁few	-2145
▁appre	-2146
▁manufact	-2147
idd	-2148
▁employees	-2149
▁essential	-2150
▁occas	-2151
une	-2152
▁Add	-2153
▁lic	-2154
▁loss	-2155
▁price	-2156
▁Governor	-2157
▁Me	-2158
▁defin	-2159
▁While	-2160
▁event	-2161
acity	-2162
▁authorities	-2163
▁Le	-2164
▁Kumar	-2165
▁Further	-2166
▁Such	-2167
▁arbitration	-2168
▁building	-2169
▁da	-2170
▁unless	-2171
▁commer	-2172
▁Judges	-2173
▁Brit	-2174
▁something	-2175
▁PR	-2176
▁Develop	-2177
ificate	-2178
▁true	-2179
....	-2180
urrent	-2181
▁Cla	-2182
eed	-2183
▁fram	-2184
go	-2185
with	-2186
▁net	-2187
▁prep	-2188
arat	-2189
▁fut	-2190
IN	-2191
▁express	-2192
spect	-2193
cious	-2194
uled	-2195
▁X	-2196
▁Order	-2197
▁men	-2198
▁unt	-2199
ging	-2200
▁regarding	-2201
unt	-2202
▁giving	-2203
▁dom	-2204
▁mo	-2205
fficient	-2206
▁imprisonment	-2207
▁qual	-2208
▁assessment	-2209
mbly	-2210
▁bor	-2211
▁next	-2212
▁recommend	-2213
▁petitioners	-2214
▁examination	-2215
▁institution	-2216
▁House	-2217
▁near	-2218
▁document	-2219
▁bar	-2220
▁ear	-2221
▁activities	-2222
▁official	-2223
▁poet	-2224
▁By	-2225
▁defendant	-2226
▁Company	-2227
gether	-2228
▁together	-2229
▁citiz	-2230
▁Hindu	-2231
▁decree	-2232
▁once	-2233
▁holding	-2234
▁phys	-2235
▁food	-2236
selves	-2237
▁applicable	-2238
▁natural	-2239
▁ut	-2240
ilit	-2241
vi	-2242
band	-2243
ethod	-2244
▁father	-2245
▁Jan	-2246
▁spir	-2247
▁subsequ	-2248
▁side	-2249
▁mor	-2250
▁hearing	-2251
omes	-2252
▁dri	-2253
ternal	-2254
▁victim	-2255
lu	-2256
mes	-2257
▁Dis	-2258
urance	-2259
▁appearing	-2260
▁Criminal	-2261
adi	-2262
ional	-2263
▁ill	-2264
▁relation	-2265
▁serious	-2266
overy	-2267
side	-2268
▁Gand	-2269
ources	-2270
eric	-2271
▁previous	-2272
bs	-2273
▁construction	-2274
▁ey	-2275
▁English	-2276
▁ded	-2277
▁immedi	-2278
▁got	-2279
erve	-2280
part	-2281
▁equal	-2282
▁ce	-2283
gin	-2284
▁role	-2285
▁belong	-2286
ully	-2287
▁Off	-2288
▁reserv	-2289
▁Ministry	-2290
▁security	-2291
ught	-2292
▁port	-2293
▁Corporation	-2294
▁associ	-2295
▁bal	-2296
▁lab	-2297
▁delay	-2298
▁mult	-2299
aries	-2300
▁examined	-2301
▁amendment	-2302
▁Even	-2303
▁lar	-2304
▁include	-2305
▁Bomb	-2306
▁regular	-2307
▁Report	-2308
▁feel	-2309
▁vehic	-2310
▁contended	-2311
aving	-2312
pur	-2313
▁laws	-2314
▁Under	-2315
▁Em	-2316
▁relief	-2317
▁fundamental	-2318
▁nam	-2319
ling	-2320
▁cur	-2321
▁needs	-2322
sh	-2323
▁Secret	-2324
▁method	-2325
HE	-2326
tation	-2327
imate	-2328
illed	-2329
▁pet	-2330
▁Beng	-2331
▁fair	-2332
▁lease	-2333
▁imm	-2334
▁Bill	-2335
apter	-2336
▁might	-2337
▁AIR	-2338
yond	-2339
▁contrib	-2340
▁nothing	-2341
▁able	-2342
ION	-2343
▁home	-2344
▁gra	-2345
▁vol	-2346
▁particip	-2347
▁wr	-2348
▁future	-2349
▁production	-2350
uary	-2351
▁arrest	-2352
▁involved	-2353
▁plant	-2354
▁around	-2355
▁things	-2356
▁followed	-2357
▁Bombay	-2358
ainant	-2359
▁sol	-2360
▁discl	-2361
▁relied	-2362
▁Where	-2363
gress	-2364
▁Apr	-2365
▁Lear	-2366
▁pointed	-2367
itive	-2368
▁related	-2369
vey	-2370
ani	-2371
▁third	-2372
ires	-2373
▁spirit	-2374
▁Mem	-2375
ex	-2376
▁Nos	-2377
▁anal	-2378
▁Islam	-2379
tt	-2380
most	-2381
▁consum	-2382
▁proved	-2383
▁beyond	-2384
▁integ	-2385
▁crit	-2386
▁states	-2387
▁Med	-2388
▁April	-2389
▁March	-2390
▁pray	-2391
ault	-2392
ample	-2393
▁List	-2394
acher	-2395
▁whose	-2396
▁meeting	-2397
▁penal	-2398
▁face	-2399
▁submit	-2400
▁pub	-2401
ann	-2402
rish	-2403
▁May	-2404
▁Tax	-2405
▁assist	-2406
▁introdu	-2407
abad	-2408
▁wife	-2409
pal	-2410
▁dam	-2411
ENT	-2412
▁opportunity	-2413
usband	-2414
OR	-2415
anch	-2416
▁Development	-2417
atives	-2418
▁heard	-2419
ource	-2420
▁streng	-2421
iced	-2422
▁disch	-2423
elf	-2424
▁return	-2425
▁practice	-2426
▁God	-2427
▁sector	-2428
▁approach	-2429
▁sufficient	-2430
ership	-2431
ender	-2432
iting	-2433
▁basic	-2434
▁nan	-2435
rop	-2436
▁makes	-2437
▁officers	-2438
ension	-2439
ancy	-2440
phas	-2441
▁British	-2442
aper	-2443
▁und	-2444
▁conviction	-2445
▁sense	-2446
▁rese	-2447
▁liable	-2448
▁protection	-2449
ape	-2450
▁operation	-2451
▁environment	-2452
▁deemed	-2453
ti	-2454
▁legislation	-2455
▁young	-2456
ened	-2457
resh	-2458
▁Gandhi	-2459
▁#	-2460
▁cast	-2461
▁marriage	-2462
▁il	-2463
enced	-2464
fully	-2465
--	-2466
▁mill	-2467
▁produced	-2468
aka	-2469
cer	-2470
▁Pun	-2471
anation	-2472
cience	-2473
▁finding	-2474
istration	-2475
▁existing	-2476
▁Im	-2477
▁concept	-2478
▁inn	-2479
▁sex	-2480
▁directions	-2481
▁religious	-2482
▁merely	-2483
▁carried	-2484
▁little	-2485
▁para	-2486
▁industry	-2487
▁fr	-2488
iss	-2489
▁contem	-2490
omp	-2491
erated	-2492
ude	-2493
▁outside	-2494
▁Bhavan	-2495
▁tit	-2496
▁treated	-2497
▁industrial	-2498
abha	-2499
▁custom	-2500
II	-2501
▁students	-2502
▁bur	-2503
▁Learned	-2504
▁absence	-2505
aration	-2506
CT	-2507
irt	-2508
▁credit	-2509
▁expect	-2510
amb	-2511
▁mother	-2512
▁cover	-2513
▁Director	-2514
▁yet	-2515
▁air	-2516
▁heart	-2517
▁anything	-2518
▁continue	-2519
▁occasion	-2520
▁signific	-2521
adu	-2522
▁hard	-2523
▁subs	-2524
▁complainant	-2525
▁forward	-2526
▁alleg	-2527
▁village	-2528
▁Fin	-2529
▁therein	-2530
▁access	-2531
idav	-2532
▁art	-2533
▁district	-2534
ored	-2535
ison	-2536
▁Muk	-2537
▁treatment	-2538
▁illeg	-2539
▁limited	-2540
▁growth	-2541
▁eas	-2542
▁kept	-2543
▁Asse	-2544
▁agg	-2545
▁cho	-2546
▁management	-2547
▁Americ	-2548
▁quality	-2549
lege	-2550
▁asked	-2551
▁pursu	-2552
ote	-2553
cent	-2554
▁liter	-2555
▁wherein	-2556
▁wrong	-2557
ane	-2558
१०	-2559
▁husband	-2560
▁pending	-2561
▁suggest	-2562
venue	-2563
▁sanction	-2564
▁thought	-2565
▁international	-2566
iso	-2567
▁address	-2568
eb	-2569
▁fine	-2570
ators	-2571
▁became	-2572
▁live	-2573
▁payable	-2574
▁lay	-2575
▁vac	-2576
▁whom	-2577
▁community	-2578
airs	-2579
▁experience	-2580
osition	-2581
jab	-2582
▁distin	-2583
▁intention	-2584
▁started	-2585
▁crime	-2586
formation	-2587
▁Rec	-2588
▁judgments	-2589
▁existence	-2590
essions	-2591
▁Scheme	-2592
uction	-2593
▁caused	-2594
ilt	-2595
▁arr	-2596
▁arri	-2597
ares	-2598
▁window	-2599
equ	-2600
▁better	-2601
▁strong	-2602
▁challenge	-2603
▁capacity	-2604
▁Cl	-2605
▁Writ	-2606
uro	-2607
dra	-2608
▁turn	-2609
▁bound	-2610
▁tal	-2611
reg	-2612
▁writing	-2613
▁Cons	-2614
atch	-2615
essional	-2616
▁why	-2617
DA	-2618
▁declared	-2619
ospital	-2620
to	-2621
▁repe	-2622
▁fixed	-2623
▁failed	-2624
den	-2625
▁ment	-2626
rated	-2627
▁dest	-2628
▁commit	-2629
ead	-2630
▁THE	-2631
lying	-2632
▁FIR	-2633
▁lakh	-2634
▁son	-2635
▁Schedule	-2636
aster	-2637
▁Service	-2638
▁deed	-2639
▁filing	-2640
▁bail	-2641
▁admitted	-2642
▁thereafter	-2643
▁blood	-2644
missible	-2645
▁providing	-2646
▁questions	-2647
▁acquisition	-2648
▁single	-2649
▁religion	-2650
uries	-2651
▁certificate	-2652
▁affidav	-2653
▁consist	-2654
▁prevent	-2655
▁contention	-2656
▁Bi	-2657
vert	-2658
cri	-2659
vention	-2660
jee	-2661
urned	-2662
▁Rasht	-2663
▁summ	-2664
inate	-2665
arant	-2666
▁sust	-2667
encies	-2668
mises	-2669
▁First	-2670
ense	-2671
▁Lord	-2672
▁Hindi	-2673
▁democ	-2674
▁enfor	-2675
ressed	-2676
▁expressed	-2677
▁proviso	-2678
▁Indust	-2679
▁thing	-2680
▁progress	-2681
▁proceeding	-2682
▁occur	-2683
▁line	-2684
▁rend	-2685
▁conducted	-2686
ras	-2687
▁dise	-2688
▁Per	-2689
▁least	-2690
▁appreci	-2691
▁interpretation	-2692
▁mess	-2693
reen	-2694
▁lat	-2695
war	-2696
▁companies	-2697
▁January	-2698
▁type	-2699
agar	-2700
▁proposed	-2701
▁themselves	-2702
▁competent	-2703
imal	-2704
▁wee	-2705
▁Chair	-2706
▁legislative	-2707
ipt	-2708
▁Intern	-2709
▁Aug	-2710
▁statute	-2711
▁functions	-2712
▁gave	-2713
▁election	-2714
▁addition	-2715
▁Some	-2716
▁appears	-2717
ties	-2718
▁Chapter	-2719
ney	-2720
▁created	-2721
amm	-2722
▁dealing	-2723
▁brother	-2724
▁applied	-2725
▁example	-2726
▁Mar	-2727
▁Sen	-2728
istic	-2729
▁begin	-2730
▁owner	-2731
▁structure	-2732
rapati	-2733
▁adopted	-2734
▁separate	-2735
▁Lim	-2736
▁copy	-2737
▁maintain	-2738
▁mus	-2739
▁trust	-2740
▁noticed	-2741
▁z	-2742
riv	-2743
▁Secretary	-2744
aff	-2745
▁love	-2746
▁stay	-2747
men	-2748
▁problem	-2749
▁bo	-2750
▁protect	-2751
▁allot	-2752
▁Punjab	-2753
anced	-2754
▁close	-2755
▁pati	-2756
now	-2757
▁Appellant	-2758
▁agricult	-2759
cation	-2760
▁Dece	-2761
▁history	-2762
CI	-2763
ke	-2764
▁emp	-2765
▁Sy	-2766
luded	-2767
▁often	-2768
▁details	-2769
▁iii	-2770
▁August	-2771
▁request	-2772
ches	-2773
▁punishment	-2774
retion	-2775
ocate	-2776
▁Rashtrapati	-2777
els	-2778
▁Mahar	-2779
▁furn	-2780
▁works	-2781
iciary	-2782
▁publ	-2783
▁additional	-2784
▁Procedure	-2785
lled	-2786
▁mach	-2787
▁commission	-2788
aded	-2789
▁Pat	-2790
▁Bengal	-2791
▁Congress	-2792
▁commercial	-2793
arth	-2794
ration	-2795
▁parts	-2796
▁contrary	-2797
▁awarded	-2798
ita	-2799
ological	-2800
ruit	-2801
▁framed	-2802
▁training	-2803
▁Bar	-2804
▁withdra	-2805
▁living	-2806
▁particularly	-2807
udd	-2808
adem	-2809
▁submissions	-2810
▁deb	-2811
ets	-2812
rah	-2813
▁legislature	-2814
▁Whether	-2815
▁minor	-2816
▁US	-2817
▁status	-2818
▁Kh	-2819
olute	-2820
▁December	-2821
▁Sim	-2822
▁don	-2823
put	-2824
▁past	-2825
▁emphas	-2826
▁accordingly	-2827
▁Ter	-2828
change	-2829
▁Ne	-2830
▁link	-2831
▁Sept	-2832
tion	-2833
३०	-2834
ously	-2835
▁declaration	-2836
▁doing	-2837
▁United	-2838
▁acquit	-2839
▁cross	-2840
▁candidates	-2841
▁la	-2842
▁Since	-2843
▁Assembly	-2844
▁affect	-2845
ots	-2846
▁administration	-2847
▁bi	-2848
▁Instit	-2849
▁Rel	-2850
▁benefits	-2851
aps	-2852
▁rejected	-2853
iture	-2854
▁physical	-2855
▁red	-2856
▁Trans	-2857
▁woman	-2858
▁reads	-2859
▁alone	-2860
pped	-2861
▁instru	-2862
ji	-2863
▁becomes	-2864
▁terror	-2865
▁road	-2866
ST	-2867
▁nation	-2868
int	-2869
▁influ	-2870
ps	-2871
kar	-2872
▁Provided	-2873
▁occup	-2874
▁Go	-2875
▁Now	-2876
ieved	-2877
▁ele	-2878
▁told	-2879
▁judge	-2880
▁grounds	-2881
▁prepared	-2882
▁specif	-2883
ama	-2884
irl	-2885
▁Clause	-2886
vent	-2887
▁connection	-2888
▁imposed	-2889
rol	-2890
ival	-2891
▁unf	-2892
▁actually	-2893
bsite	-2894
ship	-2895
▁setting	-2896
▁Let	-2897
▁design	-2898
▁vehicle	-2899
▁observations	-2900
icted	-2901
atures	-2902
▁September	-2903
under	-2904
▁covered	-2905
ills	-2906
▁consult	-2907
▁approval	-2908
▁Ph	-2909
▁rendered	-2910
▁acquired	-2911
ober	-2912
irth	-2913
▁Right	-2914
acc	-2915
▁receipt	-2916
▁distrib	-2917
racted	-2918
chan	-2919
▁defined	-2920
▁effective	-2921
▁emb	-2922
▁pot	-2923
▁corpor	-2924
▁rent	-2925
▁considering	-2926
▁mining	-2927
▁settled	-2928
▁resolution	-2929
▁ult	-2930
▁independent	-2931
▁published	-2932
▁subsequent	-2933
▁wide	-2934
LP	-2935
▁acts	-2936
▁enj	-2937
▁employee	-2938
▁collect	-2939
▁relationship	-2940
▁prohib	-2941
▁dr	-2942
▁defence	-2943
▁Do	-2944
▁performance	-2945
▁using	-2946
▁problems	-2947
vest	-2948
▁Karn	-2949
▁content	-2950
▁Sur	-2951
▁research	-2952
▁RRB	-2953
▁joint	-2954
IA	-2955
▁technology	-2956
IL	-2957
▁Int	-2958
▁discretion	-2959
▁Second	-2960
▁From	-2961
▁vari	-2962
rieved	-2963
▁requirement	-2964
▁registration	-2965
▁permit	-2966
oot	-2967
▁nom	-2968
▁text	-2969
▁execution	-2970
▁preferred	-2971
▁substantial	-2972
▁debt	-2973
▁determined	-2974
▁Moh	-2975
▁arising	-2976
erty	-2977
▁teacher	-2978
rs	-2979
▁mur	-2980
▁July	-2981
▁parent	-2982
▁executive	-2983
▁draw	-2984
law	-2985
amil	-2986
▁liability	-2987
▁Single	-2988
▁premises	-2989
though	-2990
▁create	-2991
▁immediately	-2992
▁Information	-2993
▁absolute	-2994
▁category	-2995
▁argued	-2996
▁decide	-2997
▁Def	-2998
▁Ent	-2999
▁consent	-3000
▁affidavit	-3001
▁satisfied	-3002
▁govern	-3003
▁cell	-3004
▁guid	-3005
▁title	-3006
▁includes	-3007
ataka	-3008
▁steps	-3009
▁presence	-3010
▁petitions	-3011
ulf	-3012
▁shown	-3013
▁attempt	-3014
ulate	-3015
▁article	-3016
▁supply	-3017
▁Judicial	-3018
▁Hon	-3019
▁included	-3020
▁guarant	-3021
▁adjud	-3022
▁scope	-3023
▁employment	-3024
▁assum	-3025
▁broad	-3026
eness	-3027
▁press	-3028
au	-3029
▁key	-3030
rant	-3031
▁Edu	-3032
cially	-3033
▁obtained	-3034
▁ren	-3035
▁neither	-3036
▁activity	-3037
▁led	-3038
▁penalty	-3039
▁Nove	-3040
cipl	-3041
▁Mo	-3042
▁Oct	-3043
▁attack	-3044
▁website	-3045
▁hands	-3046
▁really	-3047
▁Income	-3048
asing	-3049
▁applications	-3050
be	-3051
▁investig	-3052
▁importance	-3053
▁limit	-3054
▁virt	-3055
ME	-3056
▁modern	-3057
istan	-3058
▁seeking	-3059
▁permission	-3060
▁Sm	-3061
▁measures	-3062
▁movement	-3063
ingu	-3064
▁dead	-3065
▁hy	-3066
▁fra	-3067
▁error	-3068
▁default	-3069
att	-3070
▁Trial	-3071
▁squ	-3072
ront	-3073
ush	-3074
▁LRB	-3075
ading	-3076
▁citizens	-3077
११	-3078
ins	-3079
uties	-3080
▁During	-3081
▁directly	-3082
▁big	-3083
▁remain	-3084
▁June	-3085
▁recovery	-3086
▁remed	-3087
▁reliance	-3088
ians	-3089
▁Conf	-3090
view	-3091
▁argument	-3092
▁Karnataka	-3093
▁lev	-3094
▁assets	-3095
▁resident	-3096
▁story	-3097
▁fit	-3098
▁November	-3099
▁mag	-3100
▁computer	-3101
▁reading	-3102
▁soon	-3103
pecially	-3104
▁entered	-3105
▁definition	-3106
▁Feb	-3107
▁elig	-3108
▁dealt	-3109
ina	-3110
line	-3111
▁territ	-3112
ott	-3113
ung	-3114
▁depend	-3115
itude	-3116
▁quant	-3117
▁discussion	-3118
▁Mukher	-3119
▁nar	-3120
▁deli	-3121
abor	-3122
▁cogn	-3123
elfare	-3124
▁comes	-3125
▁developed	-3126
▁punishable	-3127
▁aud	-3128
pective	-3129
aya	-3130
▁Expl	-3131
▁drawn	-3132
eng	-3133
▁Pur	-3134
▁October	-3135
elt	-3136
▁temple	-3137
▁SLP	-3138
▁determination	-3139
▁Can	-3140
▁balance	-3141
▁increase	-3142
▁Additional	-3143
▁energ	-3144
▁continued	-3145
▁join	-3146
▁entry	-3147
rug	-3148
▁answer	-3149
▁termin	-3150
▁instance	-3151
▁majority	-3152
▁aver	-3153
▁liberty	-3154
oper	-3155
▁deep	-3156
bed	-3157
▁Des	-3158
▁instant	-3159
▁current	-3160
ifications	-3161
elling	-3162
▁agreed	-3163
▁Sabha	-3164
cle	-3165
▁Prin	-3166
ruary	-3167
▁until	-3168
▁concern	-3169
aled	-3170
▁adj	-3171
▁attention	-3172
arma	-3173
▁Guj	-3174
▁tar	-3175
▁pension	-3176
▁especially	-3177
▁room	-3178
▁enjoy	-3179
▁harm	-3180
▁conscious	-3181
▁deg	-3182
▁Sessions	-3183
lication	-3184
▁February	-3185
▁Sw	-3186
▁quite	-3187
▁pers	-3188
ech	-3189
▁ought	-3190
▁West	-3191
▁My	-3192
uation	-3193
▁fully	-3194
▁claimed	-3195
▁sold	-3196
cell	-3197
▁scient	-3198
anj	-3199
▁coming	-3200
▁Pal	-3201
▁Mukherjee	-3202
▁Techn	-3203
▁Appellate	-3204
▁mort	-3205
ili	-3206
▁minimum	-3207
▁aware	-3208
▁early	-3209
▁resources	-3210
iously	-3211
▁Tamil	-3212
▁amended	-3213
▁Amendment	-3214
▁Lok	-3215
aging	-3216
▁Ac	-3217
▁wid	-3218
unic	-3219
▁Ref	-3220
▁Af	-3221
▁Krish	-3222
▁permitted	-3223
▁almost	-3224
▁Euro	-3225
▁Keral	-3226
▁achieve	-3227
▁reve	-3228
▁duties	-3229
ift	-3230
wal	-3231
▁materials	-3232
▁page	-3233
▁transport	-3234
▁promotion	-3235
▁responsible	-3236
▁Limited	-3237
▁posts	-3238
▁top	-3239
▁understand	-3240
▁greater	-3241
▁requires	-3242
▁Kerala	-3243
▁enough	-3244
lusive	-3245
▁technical	-3246
rast	-3247
▁places	-3248
▁illegal	-3249
▁firm	-3250
▁prove	-3251
▁perman	-3252
▁network	-3253
▁generally	-3254
▁peace	-3255
▁faith	-3256
▁aim	-3257
ening	-3258
elines	-3259
▁friend	-3260
▁inquiry	-3261
▁farm	-3262
▁stru	-3263
gar	-3264
▁interests	-3265
▁Any	-3266
ousand	-3267
▁conferred	-3268
▁Articles	-3269
▁constituted	-3270
▁seven	-3271
▁executed	-3272
▁takes	-3273
▁specifically	-3274
▁cut	-3275
▁aspects	-3276
▁conspir	-3277
▁accident	-3278
▁injuries	-3279
▁facilities	-3280
▁Mal	-3281
▁Fore	-3282
▁Europe	-3283
▁half	-3284
▁study	-3285
▁Sc	-3286
osing	-3287
aker	-3288
▁stip	-3289
▁intended	-3290
▁percent	-3291
▁deals	-3292
▁Nar	-3293
▁ign	-3294
▁shares	-3295
▁tele	-3296
▁added	-3297
▁selection	-3298
▁tried	-3299
aching	-3300
▁lower	-3301
▁fire	-3302
▁energy	-3303
▁source	-3304
▁Legislature	-3305
rine	-3306
▁urged	-3307
▁daugh	-3308
enses	-3309
ada	-3310
▁hon	-3311
▁factors	-3312
obal	-3313
▁girl	-3314
▁exceed	-3315
mine	-3316
▁findings	-3317
▁fal	-3318
▁injury	-3319
▁informed	-3320
ifying	-3321
▁Regulations	-3322
oor	-3323
anda	-3324
▁Gur	-3325
hra	-3326
aur	-3327
▁Assist	-3328
▁significant	-3329
▁exercised	-3330
itable	-3331
▁fig	-3332
▁truth	-3333
upe	-3334
▁search	-3335
▁population	-3336
omet	-3337
▁sole	-3338
▁reached	-3339
▁International	-3340
rael	-3341
▁fresh	-3342
▁Bal	-3343
▁difference	-3344
cement	-3345
estic	-3346
▁thereby	-3347
▁cogniz	-3348
EL	-3349
▁statements	-3350
▁mut	-3351
uting	-3352
▁Though	-3353
▁changes	-3354
▁examine	-3355
▁challenged	-3356
ones	-3357
▁Administr	-3358
▁max	-3359
erate	-3360
▁contempl	-3361
▁applicant	-3362
usal	-3363
▁stri	-3364
▁forms	-3365
▁Education	-3366
RI	-3367
▁rather	-3368
▁Utt	-3369
▁prob	-3370
▁der	-3371
▁likely	-3372
▁oblig	-3373
▁Arbitr	-3374
adha	-3375
▁night	-3376
▁Israel	-3377
▁million	-3378
▁records	-3379
▁conver	-3380
▁discrim	-3381
▁behind	-3382
▁adequ	-3383
▁fulf	-3384
▁message	-3385
▁Regulation	-3386
▁Hence	-3387
ograph	-3388
▁appellate	-3389
▁Our	-3390
▁improve	-3391
▁hence	-3392
▁Fund	-3393
▁eight	-3394
▁manufacture	-3395
▁low	-3396
▁false	-3397
▁custody	-3398
▁books	-3399
▁birth	-3400
hood	-3401
▁Associ	-3402
▁clar	-3403
com	-3404
▁Sal	-3405
onst	-3406
▁products	-3407
hest	-3408
ricity	-3409
▁validity	-3410
let	-3411
ask	-3412
uck	-3413
enditure	-3414
▁tenant	-3415
using	-3416
▁convicted	-3417
▁Muslims	-3418
the	-3419
ining	-3420
▁apart	-3421
▁candidate	-3422
▁unit	-3423
irmed	-3424
▁extended	-3425
▁signed	-3426
▁hereinafter	-3427
▁susp	-3428
ashtra	-3429
▁gives	-3430
ocation	-3431
▁violation	-3432
my	-3433
ams	-3434
▁responsibility	-3435
▁passing	-3436
▁typ	-3437
▁shows	-3438
▁disease	-3439
▁approved	-3440
▁investment	-3441
▁judiciary	-3442
imately	-3443
▁discharge	-3444
ictions	-3445
▁funds	-3446
▁limitation	-3447
▁ever	-3448
▁costs	-3449
AC	-3450
▁har	-3451
▁seek	-3452
ouses	-3453
▁job	-3454
ene	-3455
▁Engine	-3456
▁thousand	-3457
asth	-3458
lies	-3459
▁region	-3460
▁commence	-3461
▁visit	-3462
▁Senior	-3463
▁Chairman	-3464
▁Wor	-3465
▁arrange	-3466
▁properties	-3467
▁offer	-3468
▁dismiss	-3469
▁Lal	-3470
▁affected	-3471
▁transaction	-3472
▁extend	-3473
▁city	-3474
▁transferred	-3475
▁conflic	-3476
▁IT	-3477
▁larger	-3478
utta	-3479
pite	-3480
▁log	-3481
ilty	-3482
▁sil	-3483
▁department	-3484
ED	-3485
ysis	-3486
▁boy	-3487
ban	-3488
▁initial	-3489
▁install	-3490
▁scale	-3491
▁More	-3492
eep	-3493
▁lands	-3494
▁PRES	-3495
▁Similar	-3496
▁deposit	-3497
▁requirements	-3498
▁AN	-3499
▁merit	-3500
▁standard	-3501
withstanding	-3502
▁efforts	-3503
▁mental	-3504
▁assistance	-3505
▁dign	-3506
▁Other	-3507
▁wa	-3508
▁bod	-3509
▁Sar	-3510
ables	-3511
osure	-3512
▁connected	-3513
▁loan	-3514
▁imper	-3515
▁Plan	-3516
▁felt	-3517
▁Medical	-3518
▁failure	-3519
urrence	-3520
ique	-3521
racy	-3522
▁simple	-3523
AS	-3524
ades	-3525
▁fif	-3526
▁counter	-3527
▁Ins	-3528
▁guilty	-3529
▁normal	-3530
oad	-3531
undred	-3532
▁educational	-3533
iring	-3534
▁judges	-3535
▁Ah	-3536
▁check	-3537
▁programme	-3538
oud	-3539
oval	-3540
ression	-3541
▁ris	-3542
▁gone	-3543
▁purchase	-3544
▁Elect	-3545
▁Article	-3546
▁Calc	-3547
▁rightly	-3548
▁standards	-3549
va	-3550
▁fee	-3551
▁forest	-3552
▁cru	-3553
▁century	-3554
enty	-3555
▁strength	-3556
oms	-3557
▁academ	-3558
enance	-3559
ground	-3560
▁vested	-3561
riev	-3562
▁plea	-3563
▁actual	-3564
▁Pe	-3565
▁discipl	-3566
▁views	-3567
▁Sat	-3568
ET	-3569
▁presum	-3570
▁prejud	-3571
▁revision	-3572
avi	-3573
▁Sched	-3574
▁disposed	-3575
rastructure	-3576
▁advance	-3577
▁accounts	-3578
▁Maharashtra	-3579
▁arise	-3580
▁determine	-3581
▁keeping	-3582
▁mechan	-3583
▁mil	-3584
▁Institute	-3585
▁disputes	-3586
▁instead	-3587
▁respective	-3588
▁Har	-3589
▁Ple	-3590
▁exem	-3591
▁preced	-3592
▁mass	-3593
▁univers	-3594
▁flow	-3595
▁South	-3596
▁Group	-3597
▁extre	-3598
▁quot	-3599
▁reform	-3600
▁claims	-3601
▁Panch	-3602
erted	-3603
▁names	-3604
▁threat	-3605
▁opens	-3606
▁charged	-3607
▁Thereafter	-3608
li	-3609
▁produce	-3610
krit	-3611
iddle	-3612
▁lost	-3613
▁Qu	-3614
▁patient	-3615
▁volunt	-3616
▁Gujarat	-3617
▁Pak	-3618
▁hospital	-3619
▁bea	-3620
▁getting	-3621
▁enacted	-3622
ulted	-3623
▁recommendations	-3624
▁frame	-3625
▁interim	-3626
nces	-3627
▁Invest	-3628
▁lack	-3629
▁sound	-3630
uss	-3631
▁coll	-3632
RA	-3633
▁undertak	-3634
▁receive	-3635
▁workers	-3636
▁expenditure	-3637
▁Princi	-3638
▁completed	-3639
▁sou	-3640
unicip	-3641
▁Every	-3642
▁murder	-3643
▁Dh	-3644
▁Land	-3645
rid	-3646
▁privacy	-3647
ump	-3648
▁crores	-3649
▁sexual	-3650
▁leading	-3651
uls	-3652
oke	-3653
rix	-3654
▁introduced	-3655
mir	-3656
igence	-3657
rote	-3658
▁Calcutta	-3659
▁sure	-3660
IDENT	-3661
ishes	-3662
▁ble	-3663
▁substance	-3664
▁culture	-3665
▁Explanation	-3666
▁soft	-3667
▁projects	-3668
▁host	-3669
▁poor	-3670
umbai	-3671
▁central	-3672
▁portion	-3673
▁Services	-3674
▁carrying	-3675
▁ow	-3676
▁Prof	-3677
▁External	-3678
▁articles	-3679
body	-3680
▁Scheduled	-3681
▁oil	-3682
▁Uttar	-3683
▁identity	-3684
▁comb	-3685
▁construct	-3686
▁IND	-3687
porary	-3688
▁Pran	-3689
pping	-3690
▁calc	-3691
▁drug	-3692
cription	-3693
▁Republic	-3694
iny	-3695
▁constitute	-3696
▁reported	-3697
▁bill	-3698
▁across	-3699
▁Priv	-3700
▁Agree	-3701
▁implementation	-3702
▁How	-3703
IS	-3704
▁instruct	-3705
▁labour	-3706
rate	-3707
▁eye	-3708
▁Entry	-3709
▁permanent	-3710
▁lot	-3711
cla	-3712
▁PRESIDENT	-3713
icated	-3714
▁earth	-3715
▁meant	-3716
▁Att	-3717
io	-3718
▁diss	-3719
▁Having	-3720
▁literature	-3721
ordinate	-3722
osop	-3723
ivity	-3724
▁hundred	-3725
▁Society	-3726
▁aid	-3727
▁proof	-3728
operative	-3729
▁encour	-3730
▁advanced	-3731
inding	-3732
▁wrote	-3733
▁removal	-3734
▁potential	-3735
▁friends	-3736
asthan	-3737
rued	-3738
▁idea	-3739
▁banks	-3740
▁impact	-3741
▁former	-3742
▁agency	-3743
▁admission	-3744
sy	-3745
▁....	-3746
▁believe	-3747
asm	-3748
▁try	-3749
▁conspiracy	-3750
vere	-3751
▁amend	-3752
tax	-3753
▁remo	-3754
▁Ra	-3755
rut	-3756
▁Collect	-3757
▁enable	-3758
▁heav	-3759
▁front	-3760
▁poll	-3761
▁merits	-3762
▁Bl	-3763
upees	-3764
▁says	-3765
▁cance	-3766
actions	-3767
rown	-3768
▁altern	-3769
▁establishment	-3770
▁incorpor	-3771
▁presented	-3772
▁formed	-3773
IV	-3774
▁units	-3775
▁described	-3776
ikh	-3777
▁CO	-3778
▁liqu	-3779
ranch	-3780
▁committee	-3781
▁Bihar	-3782
▁III	-3783
▁justified	-3784
ilosop	-3785
▁Vs	-3786
ratic	-3787
▁Brah	-3788
▁extra	-3789
play	-3790
▁Exec	-3791
▁Assistant	-3792
▁tend	-3793
▁rural	-3794
▁advant	-3795
estern	-3796
▁alia	-3797
▁guidelines	-3798
▁sac	-3799
▁util	-3800
▁transl	-3801
alid	-3802
▁contact	-3803
gn	-3804
bar	-3805
▁Sah	-3806
▁river	-3807
▁Mumbai	-3808
hab	-3809
▁stands	-3810
utor	-3811
rief	-3812
........	-3813
▁Ev	-3814
▁individuals	-3815
▁saw	-3816
▁Deputy	-3817
▁administrative	-3818
aves	-3819
▁Shah	-3820
▁apparent	-3821
▁multip	-3822
▁measure	-3823
▁science	-3824
rew	-3825
▁advice	-3826
▁compliance	-3827
▁excess	-3828
▁remains	-3829
bor	-3830
eared	-3831
▁Sect	-3832
▁daughter	-3833
▁else	-3834
UR	-3835
▁refers	-3836
pper	-3837
illing	-3838
▁identified	-3839
urs	-3840
abilities	-3841
▁commencement	-3842
▁partn	-3843
▁fell	-3844
▁size	-3845
▁Rajasthan	-3846
haps	-3847
▁crore	-3848
aintenance	-3849
▁aggrieved	-3850
▁ll	-3851
▁pred	-3852
▁communication	-3853
▁Pranab	-3854
anger	-3855
▁died	-3856
▁engaged	-3857
earch	-3858
▁prec	-3859
▁Nadu	-3860
esides	-3861
▁Centre	-3862
▁speech	-3863
▁sections	-3864
▁independence	-3865
▁increased	-3866
obile	-3867
ox	-3868
far	-3869
▁Red	-3870
▁Air	-3871
▁Legislative	-3872
▁Sri	-3873
▁groups	-3874
▁Ob	-3875
▁economy	-3876
▁exchange	-3877
▁obligation	-3878
▁stood	-3879
▁academic	-3880
▁NO	-3881
▁buy	-3882
▁Before	-3883
▁violence	-3884
▁SE	-3885
▁values	-3886
omen	-3887
▁global	-3888
▁obv	-3889
lling	-3890
▁Pen	-3891
▁paper	-3892
ava	-3893
adhaar	-3894
▁option	-3895
▁enquiry	-3896
rist	-3897
▁trib	-3898
▁inspect	-3899
pta	-3900
ancies	-3901
▁Trust	-3902
anskrit	-3903
▁whereas	-3904
▁Please	-3905
▁eligible	-3906
▁Aadhaar	-3907
▁pain	-3908
▁CBI	-3909
▁reit	-3910
hya	-3911
▁Then	-3912
▁sell	-3913
▁sens	-3914
▁adverse	-3915
▁expected	-3916
▁Supp	-3917
▁adequate	-3918
▁discussed	-3919
nam	-3920
▁King	-3921
▁path	-3922
aryana	-3923
▁weap	-3924
atever	-3925
▁Madras	-3926
nex	-3927
▁allegations	-3928
cl	-3929
▁longer	-3930
▁Arab	-3931
ager	-3932
▁pack	-3933
▁revenue	-3934
▁returned	-3935
▁Ver	-3936
▁Ma	-3937
▁innov	-3938
१२	-3939
olved	-3940
inated	-3941
▁Governments	-3942
rog	-3943
▁Tw	-3944
▁arises	-3945
inder	-3946
▁objective	-3947
▁spread	-3948
▁Haryana	-3949
▁Counsel	-3950
▁agricultural	-3951
ula	-3952
▁dignity	-3953
▁tell	-3954
▁hours	-3955
vision	-3956
portion	-3957
▁strict	-3958
abh	-3959
▁insurance	-3960
izing	-3961
▁contains	-3962
▁foc	-3963
▁East	-3964
mical	-3965
▁arbitrator	-3966
▁cognizance	-3967
▁iv	-3968
▁supported	-3969
▁space	-3970
▁fraud	-3971
ruitment	-3972
▁Sam	-3973
▁fast	-3974
▁extreme	-3975
▁welfare	-3976
▁Ed	-3977
▁Mon	-3978
set	-3979
▁Form	-3980
osite	-3981
sofar	-3982
▁renew	-3983
▁Agreement	-3984
uge	-3985
▁regulations	-3986
▁emerg	-3987
▁served	-3988
▁Chandra	-3989
aks	-3990
PA	-3991
iti	-3992
▁ST	-3993
▁soci	-3994
▁retire	-3995
▁site	-3996
▁vot	-3997
▁indicated	-3998
▁cash	-3999
▁analysis	-4000
ourn	-4001
▁reports	-4002
▁Bang	-4003
▁discuss	-4004
▁Pakistan	-4005
▁instrument	-4006
ailed	-4007
▁Account	-4008
▁permissible	-4009
▁anim	-4010
▁belonging	-4011
▁Similarly	-4012
▁duly	-4013
▁domestic	-4014
▁king	-4015
respon	-4016
lly	-4017
▁mode	-4018
▁version	-4019
▁situated	-4020
▁completely	-4021
raft	-4022
▁Pra	-4023
▁station	-4024
▁Advocate	-4025
ev	-4026
▁coal	-4027
▁Territ	-4028
unicipal	-4029
▁bearing	-4030
▁wanted	-4031
ience	-4032
▁cal	-4033
▁objection	-4034
▁Kal	-4035
▁rise	-4036
apers	-4037
eties	-4038
▁suggested	-4039
▁highest	-4040
▁licence	-4041
▁tree	-4042
▁amounts	-4043
ength	-4044
▁somet	-4045
ipur	-4046
otion	-4047
▁remedy	-4048
ini	-4049
bitral	-4050
▁degree	-4051
▁results	-4052
▁programmes	-4053
▁goes	-4054
▁round	-4055
▁consultation	-4056
▁Ord	-4057
▁griev	-4058
▁College	-4059
▁ordinary	-4060
▁respectively	-4061
▁explained	-4062
▁pie	-4063
▁lives	-4064
▁popular	-4065
▁fem	-4066
▁Association	-4067
▁bad	-4068
▁base	-4069
▁Sanskrit	-4070
▁recovered	-4071
▁recommended	-4072
▁breach	-4073
▁democracy	-4074
▁points	-4075
▁infrastructure	-4076
▁parents	-4077
▁doctrine	-4078
▁collected	-4079
stood	-4080
▁advert	-4081
▁selected	-4082
▁tribunal	-4083
▁Che	-4084
▁proced	-4085
▁contain	-4086
▁beginning	-4087
▁concluded	-4088
▁Bab	-4089
▁mom	-4090
olic	-4091
▁Power	-4092
unction	-4093
▁undertaking	-4094
▁milit	-4095
▁Lab	-4096
inery	-4097
ey	-4098
▁virtue	-4099
ART	-4100
▁operations	-4101
▁Prot	-4102
▁initiated	-4103
oti	-4104
▁cat	-4105
▁Collector	-4106
▁Ms	-4107
▁Policy	-4108
▁hor	-4109
▁camp	-4110
▁seems	-4111
▁arrived	-4112
▁fear	-4113
▁phot	-4114
▁Ak	-4115
▁film	-4116
▁substit	-4117
▁Khan	-4118
▁Andhra	-4119
▁occurrence	-4120
▁Kash	-4121
▁denied	-4122
▁weight	-4123
▁American	-4124
▁Dev	-4125
▁Op	-4126
▁Ors	-4127
▁avoid	-4128
▁philosop	-4129
▁plus	-4130
▁professional	-4131
NA	-4132
▁Of	-4133
▁Cap	-4134
▁Accordingly	-4135
ami	-4136
eria	-4137
▁wall	-4138
▁primary	-4139
▁usually	-4140
▁distingu	-4141
▁Inter	-4142
▁caste	-4143
▁influence	-4144
olk	-4145
▁uncon	-4146
▁servant	-4147
▁register	-4148
▁representation	-4149
▁maximum	-4150
,00	-4151
▁running	-4152
▁laun	-4153
▁safety	-4154
▁pan	-4155
▁Gang	-4156
▁motor	-4157
▁Assess	-4158
▁proposal	-4159
▁understanding	-4160
▁Hy	-4161
▁twenty	-4162
▁remained	-4163
▁Both	-4164
▁histor	-4165
ailing	-4166
▁borrow	-4167
▁mal	-4168
licit	-4169
gest	-4170
▁maintenance	-4171
orney	-4172
▁conflict	-4173
gy	-4174
ley	-4175
▁rates	-4176
▁export	-4177
ception	-4178
▁Net	-4179
▁recent	-4180
▁corporate	-4181
▁enactment	-4182
▁maintained	-4183
▁warrant	-4184
▁principal	-4185
▁err	-4186
▁forth	-4187
▁settlement	-4188
rust	-4189
▁viz	-4190
▁events	-4191
▁possess	-4192
ayan	-4193
sect	-4194
inent	-4195
▁active	-4196
▁industries	-4197
istrar	-4198
▁bodies	-4199
▁finally	-4200
▁black	-4201
▁manif	-4202
▁reach	-4203
▁reprodu	-4204
▁privile	-4205
▁expenses	-4206
eel	-4207
▁length	-4208
etic	-4209
▁disposal	-4210
▁god	-4211
▁opt	-4212
▁marks	-4213
▁mortg	-4214
▁offered	-4215
▁amongst	-4216
▁born	-4217
rd	-4218
▁AP	-4219
▁connect	-4220
▁distinction	-4221
▁reduced	-4222
ishing	-4223
▁evident	-4224
qual	-4225
▁Krishna	-4226
leb	-4227
ler	-4228
▁released	-4229
▁Sp	-4230
▁cy	-4231
▁facilit	-4232
▁mineral	-4233
respond	-4234
▁wholly	-4235
where	-4236
▁built	-4237
▁shop	-4238
ousing	-4239
▁named	-4240
chol	-4241
▁week	-4242
▁litigation	-4243
▁void	-4244
▁Ministers	-4245
▁publication	-4246
ensive	-4247
omy	-4248
▁detailed	-4249
lear	-4250
▁bat	-4251
▁element	-4252
▁deduction	-4253
▁Di	-4254
----	-4255
▁१	-4256
nother	-4257
▁employer	-4258
ATION	-4259
rav	-4260
▁choice	-4261
▁Members	-4262
▁Industrial	-4263
▁understood	-4264
ply	-4265
▁Official	-4266
▁Another	-4267
▁tour	-4268
▁background	-4269
▁bid	-4270
▁college	-4271
▁distribution	-4272
▁Home	-4273
▁prison	-4274
▁affairs	-4275
▁teachers	-4276
▁annual	-4277
▁interference	-4278
▁mandatory	-4279
thern	-4280
▁incur	-4281
▁speed	-4282
▁elected	-4283
EC	-4284
▁Case	-4285
▁distinct	-4286
▁Person	-4287
▁Finance	-4288
▁profession	-4289
▁Management	-4290
▁suc	-4291
▁Prime	-4292
▁systems	-4293
▁bit	-4294
▁School	-4295
▁TA	-4296
▁Gupta	-4297
▁gener	-4298
▁Executive	-4299
▁render	-4300
▁task	-4301
oice	-4302
▁stor	-4303
▁Mis	-4304
amination	-4305
▁prop	-4306
▁Bas	-4307
▁write	-4308
▁rout	-4309
▁Ash	-4310
▁Rail	-4311
▁prosecut	-4312
▁advantage	-4313
▁prospect	-4314
▁recording	-4315
lude	-4316
▁Bhag	-4317
▁rank	-4318
▁eyes	-4319
▁appeared	-4320
▁pertaining	-4321
▁complex	-4322
▁demonst	-4323
▁submits	-4324
atio	-4325
▁staff	-4326
▁Rights	-4327
▁supplied	-4328
▁perf	-4329
▁Kashmir	-4330
gram	-4331
rick	-4332
▁medic	-4333
▁Panchay	-4334
▁arguments	-4335
▁quar	-4336
▁engine	-4337
ume	-4338
▁rig	-4339
▁correspond	-4340
ograp	-4341
▁defendants	-4342
▁Day	-4343
▁cheque	-4344
olid	-4345
▁arrested	-4346
▁confidence	-4347
▁controvers	-4348
▁unre	-4349
▁equality	-4350
▁suitable	-4351
▁gold	-4352
▁risk	-4353
▁numbers	-4354
▁testim	-4355
▁Technology	-4356
▁indicate	-4357
▁response	-4358
▁INDIA	-4359
▁draft	-4360
▁attrib	-4361
▁employed	-4362
▁detention	-4363
▁Your	-4364
▁repl	-4365
▁attract	-4366
nel	-4367
lord	-4368
▁stating	-4369
▁North	-4370
▁deposed	-4371
road	-4372
▁although	-4373
▁practices	-4374
▁TO	-4375
▁Pand	-4376
oured	-4377
▁Inst	-4378
▁delivery	-4379
▁BC	-4380
▁pron	-4381
▁Afric	-4382
▁began	-4383
▁leaders	-4384
▁obtain	-4385
▁regul	-4386
uct	-4387
opal	-4388
▁factual	-4389
gment	-4390
▁hum	-4391
▁prayer	-4392
▁involve	-4393
▁release	-4394
▁spiritual	-4395
▁pal	-4396
▁profit	-4397
▁cad	-4398
▁hot	-4399
▁hope	-4400
▁succeed	-4401
▁cultural	-4402
ns	-4403
▁burden	-4404
▁England	-4405
▁Super	-4406
▁Sharma	-4407
ows	-4408
hens	-4409
usion	-4410
▁convey	-4411
▁inside	-4412
▁notified	-4413
▁collection	-4414
▁UN	-4415
ateral	-4416
▁Prosec	-4417
▁removed	-4418
▁radi	-4419
▁Christ	-4420
▁transactions	-4421
ING	-4422
▁dig	-4423
▁ways	-4424
▁proceeded	-4425
▁forces	-4426
▁esc	-4427
▁moved	-4428
▁Speaker	-4429
hat	-4430
▁necessarily	-4431
accused	-4432
▁consequence	-4433
▁letters	-4434
▁Vi	-4435
▁quas	-4436
▁officials	-4437
requ	-4438
▁param	-4439
operation	-4440
▁doctor	-4441
hent	-4442
▁increasing	-4443
iva	-4444
▁happy	-4445
▁autom	-4446
▁Stand	-4447
▁serve	-4448
iciency	-4449
cribe	-4450
▁novel	-4451
▁latter	-4452
▁moment	-4453
▁scrut	-4454
▁uns	-4455
▁polic	-4456
▁reply	-4457
▁PART	-4458
▁feed	-4459
inance	-4460
▁contra	-4461
▁spot	-4462
▁lod	-4463
▁wages	-4464
▁Up	-4465
▁device	-4466
▁card	-4467
▁invalid	-4468
▁acquittal	-4469
▁AND	-4470
▁wish	-4471
ites	-4472
HA	-4473
▁scientific	-4474
add	-4475
▁World	-4476
▁creation	-4477
▁gover	-4478
▁clauses	-4479
▁bear	-4480
▁Categ	-4481
▁needed	-4482
▁contribution	-4483
▁reservation	-4484
▁xad	-4485
▁Member	-4486
▁whatever	-4487
▁Mod	-4488
▁asset	-4489
aram	-4490
▁fight	-4491
▁pleas	-4492
▁citizen	-4493
ols	-4494
▁Registrar	-4495
▁recommendation	-4496
▁ep	-4497
▁Insurance	-4498
▁seniority	-4499
▁pronoun	-4500
▁referring	-4501
▁contemplated	-4502
▁Commer	-4503
▁distance	-4504
▁expert	-4505
ora	-4506
hance	-4507
▁regards	-4508
▁governed	-4509
▁compon	-4510
▁binding	-4511
rupt	-4512
abled	-4513
▁daily	-4514
▁minister	-4515
▁Companies	-4516
▁determining	-4517
cie	-4518
▁Project	-4519
▁extension	-4520
▁sun	-4521
▁interfere	-4522
▁completion	-4523
▁pure	-4524
▁Accused	-4525
▁instructions	-4526
▁rul	-4527
▁ideas	-4528
iling	-4529
▁recruitment	-4530
▁animals	-4531
▁contempt	-4532
CO	-4533
,000	-4534
udge	-4535
▁Revenue	-4536
▁win	-4537
▁emphasis	-4538
▁lakhs	-4539
▁extracted	-4540
▁Fl	-4541
▁undergo	-4542
▁Will	-4543
▁types	-4544
▁changed	-4545
▁remaining	-4546
▁secured	-4547
▁explanation	-4548
▁Jag	-4549
▁construed	-4550
▁prosecutrix	-4551
hai	-4552
▁AS	-4553
▁Once	-4554
▁danger	-4555
▁associated	-4556
▁chann	-4557
▁accomp	-4558
▁useful	-4559
held	-4560
▁sheet	-4561
mat	-4562
▁sym	-4563
▁plants	-4564
iver	-4565
▁Office	-4566
▁schemes	-4567
▁imag	-4568
▁despite	-4569
ourth	-4570
PS	-4571
aches	-4572
▁user	-4573
▁rich	-4574
▁ship	-4575
▁soul	-4576
anas	-4577
▁board	-4578
▁depart	-4579
▁prejudice	-4580
▁team	-4581
▁weeks	-4582
▁bra	-4583
▁categories	-4584
▁generation	-4585
▁cou	-4586
▁Are	-4587
▁effort	-4588
▁factor	-4589
▁suffer	-4590
▁Many	-4591
▁Penal	-4592
▁talk	-4593
▁schol	-4594
▁Aut	-4595
▁opined	-4596
▁functioning	-4597
▁mount	-4598
omic	-4599
▁town	-4600
▁sustain	-4601
▁unable	-4602
▁arch	-4603
▁assigned	-4604
oses	-4605
▁plot	-4606
▁Category	-4607
▁attached	-4608
iger	-4609
▁tot	-4610
▁Station	-4611
▁sometimes	-4612
▁Ved	-4613
▁Mark	-4614
▁levy	-4615
antly	-4616
▁clean	-4617
▁damage	-4618
osh	-4619
▁pend	-4620
▁effic	-4621
▁rupees	-4622
▁square	-4623
▁Control	-4624
▁ratio	-4625
▁dischar	-4626
ze	-4627
▁Ext	-4628
▁alternative	-4629
▁machinery	-4630
▁exped	-4631
▁items	-4632
▁limits	-4633
▁learning	-4634
▁confession	-4635
▁indeed	-4636
▁landlord	-4637
▁undertaken	-4638
oo	-4639
▁reserved	-4640
▁achieved	-4641
▁belief	-4642
▁Ge	-4643
▁Sa	-4644
▁attend	-4645
ka	-4646
▁See	-4647
adh	-4648
ream	-4649
▁salary	-4650
▁valu	-4651
▁gets	-4652
▁sentenced	-4653
ellect	-4654
▁sty	-4655
▁session	-4656
▁exemption	-4657
▁compre	-4658
state	-4659
▁ancient	-4660
yan	-4661
azet	-4662
▁Post	-4663
▁anti	-4664
▁successful	-4665
▁deposited	-4666
▁interested	-4667
eter	-4668
▁command	-4669
asa	-4670
▁Char	-4671
urities	-4672
▁System	-4673
▁song	-4674
▁media	-4675
▁Their	-4676
aph	-4677
holders	-4678
▁rail	-4679
▁ready	-4680
▁features	-4681
ronic	-4682
▁pict	-4683
▁envis	-4684
▁worked	-4685
▁Here	-4686
uration	-4687
▁perhaps	-4688
▁lie	-4689
▁display	-4690
▁association	-4691
iqu	-4692
▁strugg	-4693
▁addressed	-4694
▁granting	-4695
▁suffered	-4696
▁Health	-4697
▁acceptance	-4698
▁Notification	-4699
▁manifest	-4700
▁married	-4701
▁electricity	-4702
▁Stat	-4703
▁brief	-4704
ioned	-4705
▁none	-4706
▁worship	-4707
▁delib	-4708
irty	-4709
▁foot	-4710
cast	-4711
sych	-4712
▁Program	-4713
▁Application	-4714
▁emer	-4715
owered	-4716
▁colle	-4717
▁Cast	-4718
▁America	-4719
▁located	-4720
▁mix	-4721
▁surf	-4722
▁Child	-4723
▁insect	-4724
▁retirement	-4725
ton	-4726
▁Bu	-4727
▁alt	-4728
▁Budd	-4729
▁profits	-4730
oly	-4731
▁Cert	-4732
▁recognised	-4733
▁average	-4734
▁testimony	-4735
▁ordered	-4736
ga	-4737
ja	-4738
▁Roy	-4739
▁ali	-4740
▁Assam	-4741
▁classes	-4742
▁equally	-4743
▁Research	-4744
१३	-4745
▁tri	-4746
achal	-4747
▁stop	-4748
EM	-4749
▁plaintiffs	-4750
▁People	-4751
pto	-4752
▁hab	-4753
▁rare	-4754
▁seed	-4755
assion	-4756
▁Ant	-4757
▁arbitrary	-4758
ovable	-4759
▁controversy	-4760
▁pattern	-4761
▁sustained	-4762
▁video	-4763
▁consequences	-4764
▁Cust	-4765
▁obtaining	-4766
▁celeb	-4767
▁touch	-4768
▁Financial	-4769
▁suffering	-4770
▁item	-4771
CC	-4772
▁Nag	-4773
▁Pras	-4774
▁looking	-4775
▁milk	-4776
▁ago	-4777
ederal	-4778
▁facie	-4779
igating	-4780
orous	-4781
athe	-4782
▁San	-4783
▁satisfaction	-4784
yal	-4785
iles	-4786
sequently	-4787
▁integral	-4788
▁actions	-4789
▁surv	-4790
▁remark	-4791
▁promote	-4792
▁fort	-4793
▁sales	-4794
iation	-4795
▁looked	-4796
▁auction	-4797
ashing	-4798
▁Gh	-4799
▁Set	-4800
▁storage	-4801
▁policies	-4802
▁Ur	-4803
reet	-4804
elled	-4805
▁select	-4806
▁code	-4807
utation	-4808
▁conven	-4809
▁territory	-4810
inet	-4811
▁Also	-4812
▁warm	-4813
▁levels	-4814
icro	-4815
▁Ali	-4816
iable	-4817
oub	-4818
light	-4819
▁female	-4820
▁Inspect	-4821
▁notes	-4822
isc	-4823
▁Class	-4824
▁causes	-4825
▁proportion	-4826
▁bag	-4827
▁seized	-4828
head	-4829
▁containing	-4830
oon	-4831
▁alter	-4832
▁poetry	-4833
▁Env	-4834
▁safe	-4835
enture	-4836
mise	-4837
▁sea	-4838
uous	-4839
ivered	-4840
▁formal	-4841
▁Inf	-4842
ider	-4843
osis	-4844
Judge	-4845
▁Labour	-4846
▁throughout	-4847
▁Aud	-4848
▁ton	-4849
▁plead	-4850
▁refund	-4851
▁Her	-4852
▁send	-4853
▁vital	-4854
▁certainly	-4855
▁saying	-4856
▁ing	-4857
ruption	-4858
while	-4859
▁Aust	-4860
▁Aff	-4861
ounded	-4862
▁vision	-4863
▁Val	-4864
▁negl	-4865
▁corro	-4866
▁tur	-4867
▁music	-4868
▁properly	-4869
ague	-4870
▁agent	-4871
▁compr	-4872
▁recover	-4873
icate	-4874
herent	-4875
▁break	-4876
▁acting	-4877
▁thereto	-4878
▁Tur	-4879
▁range	-4880
▁destro	-4881
▁holder	-4882
▁standing	-4883
AY	-4884
▁opportunities	-4885
▁Organ	-4886
▁memory	-4887
▁middle	-4888
apur	-4889
rance	-4890
▁Contract	-4891
▁vacancies	-4892
wan	-4893
▁travel	-4894
ervation	-4895
▁white	-4896
▁ascer	-4897
▁schools	-4898
▁legit	-4899
▁adjust	-4900
▁Arbitration	-4901
ishn	-4902
▁Principal	-4903
▁mist	-4904
▁subsid	-4905
▁proposition	-4906
▁worth	-4907
▁expiry	-4908
▁easy	-4909
▁recognized	-4910
▁authent	-4911
▁rap	-4912
▁model	-4913
iary	-4914
▁filled	-4915
oned	-4916
▁Its	-4917
▁stock	-4918
▁delivered	-4919
▁Cor	-4920
▁Sir	-4921
▁newsp	-4922
▁positive	-4923
▁discrimination	-4924
▁intellect	-4925
▁negative	-4926
enth	-4927
▁raise	-4928
▁Madhya	-4929
▁injured	-4930
PE	-4931
mittees	-4932
▁disqual	-4933
▁secret	-4934
▁operate	-4935
▁famous	-4936
▁weak	-4937
▁nuc	-4938
▁Human	-4939
▁perusal	-4940
▁sister	-4941
▁moral	-4942
▁software	-4943
kh	-4944
pro	-4945
iful	-4946
▁organisation	-4947
▁animal	-4948
▁speaking	-4949
egu	-4950
▁sn	-4951
▁save	-4952
▁innoc	-4953
▁Hindus	-4954
▁turned	-4955
▁CA	-4956
▁impart	-4957
▁pursuant	-4958
▁performed	-4959
▁Joint	-4960
▁conce	-4961
▁arms	-4962
▁upto	-4963
▁Environment	-4964
▁Jain	-4965
▁agencies	-4966
▁lines	-4967
dom	-4968
order	-4969
▁bird	-4970
ighted	-4971
▁played	-4972
▁deciding	-4973
▁oral	-4974
▁recognition	-4975
▁Gov	-4976
▁restrictions	-4977
▁sem	-4978
▁paragraphs	-4979
encing	-4980
▁equip	-4981
▁desire	-4982
▁elabor	-4983
▁irr	-4984
▁dele	-4985
aul	-4986
▁minus	-4987
▁compar	-4988
▁marked	-4989
▁military	-4990
PL	-4991
▁fold	-4992
▁block	-4993
▁strateg	-4994
▁victims	-4995
ancing	-4996
▁subsequently	-4997
▁ON	-4998
▁objections	-4999
▁allotment	-5000
▁democratic	-5001
▁vers	-5002
▁upheld	-5003
▁bed	-5004
chand	-5005
▁late	-5006
▁bond	-5007
▁Attorney	-5008
▁possibility	-5009
▁immediate	-5010
▁wal	-5011
▁ban	-5012
▁Date	-5013
▁applies	-5014
▁species	-5015
▁processing	-5016
▁substantive	-5017
ourses	-5018
▁remove	-5019
aji	-5020
▁capable	-5021
▁morning	-5022
ole	-5023
▁Two	-5024
▁colour	-5025
▁grand	-5026
▁green	-5027
▁temporary	-5028
▁sides	-5029
▁disability	-5030
▁termination	-5031
aved	-5032
▁voluntary	-5033
ales	-5034
▁ge	-5035
▁xx	-5036
aced	-5037
uven	-5038
▁intent	-5039
▁objects	-5040
▁disclosed	-5041
▁exception	-5042
akes	-5043
atha	-5044
▁Exc	-5045
esting	-5046
▁Allah	-5047
▁dy	-5048
▁prem	-5049
▁convict	-5050
heet	-5051
istics	-5052
▁corrobor	-5053
erences	-5054
▁target	-5055
▁enforcement	-5056
ilateral	-5057
▁causing	-5058
▁Open	-5059
▁ones	-5060
wa	-5061
aviour	-5062
▁Award	-5063
▁Officers	-5064
▁Reference	-5065
▁protected	-5066
▁Work	-5067
▁learn	-5068
▁secure	-5069
▁CPC	-5070
▁representatives	-5071
▁symb	-5072
▁prima	-5073
▁mainly	-5074
▁disapp	-5075
▁enterpr	-5076
▁Municipal	-5077
▁Him	-5078
▁image	-5079
dden	-5080
▁Only	-5081
▁commerce	-5082
▁languages	-5083
▁TADA	-5084
hru	-5085
know	-5086
▁obst	-5087
ests	-5088
▁critic	-5089
▁impose	-5090
▁tender	-5091
▁mobile	-5092
▁regarded	-5093
▁relative	-5094
umn	-5095
una	-5096
▁SCR	-5097
▁cultiv	-5098
▁liquid	-5099
▁safegu	-5100
▁reflect	-5101
▁expressly	-5102
▁Road	-5103
▁Ret	-5104
▁Head	-5105
▁male	-5106
▁incons	-5107
▁growing	-5108
▁hear	-5109
▁huge	-5110
▁series	-5111
icide	-5112
▁bon	-5113
▁invok	-5114
▁sitting	-5115
▁pec	-5116
clause	-5117
▁relates	-5118
▁ende	-5119
▁neigh	-5120
▁elements	-5121
▁eval	-5122
▁rain	-5123
▁reiterated	-5124
▁trying	-5125
aksh	-5126
▁root	-5127
▁whereby	-5128
▁Evidence	-5129
▁identification	-5130
▁conclus	-5131
▁multi	-5132
▁tradition	-5133
▁happened	-5134
▁falls	-5135
▁reb	-5136
endra	-5137
▁quick	-5138
▁ball	-5139
▁dram	-5140
cript	-5141
▁Nagar	-5142
▁Western	-5143
▁theory	-5144
▁Employ	-5145
▁highly	-5146
▁organization	-5147
▁stra	-5148
istent	-5149
atically	-5150
▁confident	-5151
▁analy	-5152
▁distur	-5153
▁enhan	-5154
▁appointments	-5155
teen	-5156
▁cadre	-5157
▁Hospital	-5158
▁villages	-5159
▁regulation	-5160
▁impl	-5161
ography	-5162
▁Africa	-5163
issa	-5164
▁cry	-5165
▁simply	-5166
▁taxes	-5167
▁Agricult	-5168
▁assembly	-5169
▁Met	-5170
▁Non	-5171
asmuch	-5172
▁announ	-5173
▁amendments	-5174
onial	-5175
III	-5176
▁Das	-5177
▁NA	-5178
owry	-5179
▁Tem	-5180
▁Ahmed	-5181
▁survey	-5182
▁obligations	-5183
sue	-5184
▁Bus	-5185
▁Inc	-5186
azette	-5187
▁north	-5188
▁Pan	-5189
ients	-5190
isite	-5191
▁dark	-5192
▁adult	-5193
▁drink	-5194
▁Trib	-5195
▁situations	-5196
irs	-5197
▁pros	-5198
▁mortgage	-5199
▁stipulated	-5200
▁retros	-5201
▁lies	-5202
▁Nehru	-5203
▁disputed	-5204
▁confirmed	-5205
▁Protection	-5206
▁investigating	-5207
oj	-5208
▁Pet	-5209
▁Annex	-5210
orial	-5211
▁beaut	-5212
▁Bharat	-5213
vis	-5214
▁Moreover	-5215
▁IS	-5216
▁fields	-5217
▁description	-5218
iform	-5219
▁environmental	-5220
▁internal	-5221
▁revolution	-5222
rees	-5223
mentioned	-5224
rel	-5225
▁Sun	-5226
ching	-5227
▁earn	-5228
▁methods	-5229
▁Ay	-5230
olve	-5231
▁sle	-5232
▁norms	-5233
omin	-5234
▁leaves	-5235
▁representative	-5236
▁iron	-5237
▁involving	-5238
▁governance	-5239
MC	-5240
▁creating	-5241
▁furnished	-5242
▁Er	-5243
▁bul	-5244
▁Mand	-5245
▁frequ	-5246
▁external	-5247
▁entertain	-5248
▁indicates	-5249
inarily	-5250
▁confirm	-5251
▁largest	-5252
▁Kar	-5253
▁traditional	-5254
▁Univers	-5255
▁gas	-5256
▁participation	-5257
iy	-5258
▁Nav	-5259
▁Out	-5260
lands	-5261
▁Well	-5262
▁prices	-5263
▁entirely	-5264
has	-5265
ken	-5266
▁centre	-5267
▁opening	-5268
▁someone	-5269
▁Ger	-5270
▁schedule	-5271
▁chemical	-5272
▁adjudication	-5273
umer	-5274
▁mutual	-5275
▁temper	-5276
▁Us	-5277
▁exact	-5278
▁Devi	-5279
▁gain	-5280
▁requested	-5281
▁disclosure	-5282
▁inspection	-5283
▁guard	-5284
▁defect	-5285
aser	-5286
▁easily	-5287
▁partnership	-5288
▁psych	-5289
amy	-5290
▁studies	-5291
▁Som	-5292
▁contrad	-5293
▁refused	-5294
oming	-5295
▁defe	-5296
▁knew	-5297
▁exists	-5298
▁struct	-5299
▁Besides	-5300
de	-5301
▁Dem	-5302
▁organis	-5303
▁absolutely	-5304
▁classification	-5305
▁War	-5306
lo	-5307
▁willing	-5308
▁resulted	-5309
▁developing	-5310
▁consciousness	-5311
▁Rao	-5312
course	-5313
ira	-5314
▁Page	-5315
nes	-5316
uent	-5317
ocks	-5318
iment	-5319
▁Prasad	-5320
▁purchased	-5321
othes	-5322
▁Orissa	-5323
▁struggle	-5324
▁cas	-5325
▁Asia	-5326
▁inherent	-5327
▁Cha	-5328
▁gross	-5329
.-	-5330
overty	-5331
ibilities	-5332
▁heavy	-5333
▁acknow	-5334
▁variety	-5335
▁appreciate	-5336
▁Reason	-5337
▁assign	-5338
▁Although	-5339
▁chief	-5340
▁motion	-5341
▁pressure	-5342
▁00	-5343
▁door	-5344
▁farmers	-5345
▁subjects	-5346
ils	-5347
▁European	-5348
▁admit	-5349
essel	-5350
▁Most	-5351
▁sudden	-5352
rency	-5353
▁Water	-5354
▁dying	-5355
▁Indians	-5356
▁agriculture	-5357
▁intell	-5358
ming	-5359
▁Vice	-5360
▁south	-5361
▁figure	-5362
orn	-5363
▁Pay	-5364
▁news	-5365
▁amb	-5366
▁depri	-5367
▁Bec	-5368
▁lawy	-5369
▁fat	-5370
ankar	-5371
▁Social	-5372
▁unique	-5373
▁Dec	-5374
▁Rem	-5375
▁input	-5376
▁AC	-5377
▁Ja	-5378
▁arbitral	-5379
▁creditor	-5380
▁incurred	-5381
▁explo	-5382
▁divided	-5383
▁seem	-5384
▁resort	-5385
▁directing	-5386
▁dismissal	-5387
▁errone	-5388
▁necessity	-5389
▁miscon	-5390
▁confined	-5391
▁challenging	-5392
▁handed	-5393
▁occurred	-5394
▁cells	-5395
▁damages	-5396
achment	-5397
▁PC	-5398
▁afford	-5399
▁sources	-5400
▁Constitutional	-5401
▁expand	-5402
▁machine	-5403
▁answered	-5404
▁irre	-5405
▁style	-5406
▁transp	-5407
▁wealth	-5408
▁rational	-5409
ricket	-5410
▁Circ	-5411
liminary	-5412
▁elections	-5413
urer	-5414
▁totally	-5415
▁thirty	-5416
▁enhance	-5417
▁everything	-5418
▁acquitted	-5419
▁subordinate	-5420
▁equity	-5421
▁cooperation	-5422
bur	-5423
▁fees	-5424
▁speak	-5425
▁operating	-5426
▁parliament	-5427
▁surface	-5428
venth	-5429
▁authorised	-5430
▁ultimately	-5431
▁feet	-5432
▁AT	-5433
▁estim	-5434
▁issuing	-5435
▁resulting	-5436
▁cruel	-5437
▁leader	-5438
▁passage	-5439
▁inserted	-5440
▁agreements	-5441
▁arrangement	-5442
▁dim	-5443
▁Vol	-5444
▁deleg	-5445
▁debtor	-5446
▁hur	-5447
going	-5448
▁files	-5449
▁Axad	-5450
▁afore	-5451
▁NE	-5452
▁showing	-5453
▁incorporated	-5454
▁opened	-5455
▁Islamic	-5456
▁facility	-5457
ese	-5458
▁IV	-5459
▁Vis	-5460
▁driver	-5461
▁disciplinary	-5462
▁China	-5463
asw	-5464
▁tariff	-5465
▁entrust	-5466
▁bringing	-5467
▁terrorism	-5468
▁Ann	-5469
▁focus	-5470
orrow	-5471
▁honour	-5472
▁Port	-5473
▁believed	-5474
▁inasmuch	-5475
▁Conference	-5476
▁presumption	-5477
▁significance	-5478
athy	-5479
rench	-5480
▁famil	-5481
▁surre	-5482
▁founded	-5483
▁exercising	-5484
▁forum	-5485
▁cere	-5486
▁gains	-5487
anged	-5488
inating	-5489
▁imposs	-5490
rity	-5491
▁absor	-5492
▁falling	-5493
▁definite	-5494
phone	-5495
▁genu	-5496
▁Election	-5497
▁pendency	-5498
▁box	-5499
▁ability	-5500
▁foundation	-5501
▁destroy	-5502
▁restriction	-5503
▁unity	-5504
▁withdraw	-5505
SA	-5506
▁proc	-5507
▁thinking	-5508
▁Abd	-5509
▁guarantee	-5510
▁exhib	-5511
▁ownership	-5512
bal	-5513
udh	-5514
▁devot	-5515
▁owned	-5516
▁affirm	-5517
▁notwithstanding	-5518
aja	-5519
▁surr	-5520
kn	-5521
lined	-5522
▁Petitioner	-5523
१४	-5524
oral	-5525
▁Defend	-5526
▁categor	-5527
▁Sections	-5528
▁contentions	-5529
▁intercourse	-5530
▁Notwithstanding	-5531
era	-5532
▁mid	-5533
andum	-5534
▁seat	-5535
▁Private	-5536
▁PS	-5537
inger	-5538
▁voice	-5539
▁lap	-5540
▁abuse	-5541
▁table	-5542
▁Mu	-5543
▁nut	-5544
▁Austral	-5545
▁planning	-5546
atur	-5547
rose	-5548
▁Pri	-5549
ails	-5550
ports	-5551
▁observation	-5552
▁nine	-5553
▁Palest	-5554
▁scri	-5555
ournal	-5556
▁Party	-5557
▁Tiger	-5558
orandum	-5559
▁spent	-5560
▁owners	-5561
▁recall	-5562
▁consumer	-5563
▁Panchayat	-5564
▁egg	-5565
▁Bhar	-5566
▁quantity	-5567
▁pursuance	-5568
asc	-5569
eet	-5570
▁houses	-5571
▁joined	-5572
▁temples	-5573
▁allowing	-5574
▁circular	-5575
▁phone	-5576
▁empowered	-5577
ster	-5578
▁plain	-5579
▁monitor	-5580
▁reality	-5581
▁imported	-5582
nan	-5583
▁ant	-5584
hensive	-5585
▁superior	-5586
▁Assessing	-5587
▁exclusive	-5588
▁PRO	-5589
▁youth	-5590
▁families	-5591
▁normally	-5592
roll	-5593
▁bomb	-5594
▁fest	-5595
ids	-5596
utt	-5597
▁won	-5598
▁rein	-5599
▁admin	-5600
▁seats	-5601
▁Smt	-5602
▁claimant	-5603
▁Commercial	-5604
▁overall	-5605
▁excluded	-5606
▁repeated	-5607
▁teaching	-5608
▁overr	-5609
▁flat	-5610
▁soil	-5611
▁Mohan	-5612
▁acted	-5613
▁narrow	-5614
▁mandate	-5615
▁workmen	-5616
UL	-5617
▁doub	-5618
▁confer	-5619
▁piece	-5620
▁particulars	-5621
ube	-5622
▁indirect	-5623
▁seeks	-5624
▁conclusions	-5625
▁manufacturing	-5626
▁Apart	-5627
▁vessel	-5628
▁residence	-5629
▁lif	-5630
▁ambit	-5631
▁philosophy	-5632
urate	-5633
▁Because	-5634
▁enforce	-5635
▁allegation	-5636
▁Tag	-5637
▁Gazette	-5638
ocates	-5639
▁quashed	-5640
hu	-5641
uity	-5642
▁Para	-5643
verted	-5644
▁acres	-5645
▁neighb	-5646
▁injunction	-5647
▁Yog	-5648
▁urban	-5649
▁medium	-5650
▁implemented	-5651
uel	-5652
lex	-5653
hend	-5654
▁ideal	-5655
▁approached	-5656
▁Ven	-5657
▁guaranteed	-5658
DR	-5659
▁partition	-5660
uli	-5661
▁wishes	-5662
▁entity	-5663
ental	-5664
▁Parliamentary	-5665
▁Vid	-5666
▁reduce	-5667
▁Army	-5668
ishment	-5669
▁CON	-5670
▁comprom	-5671
hand	-5672
eters	-5673
▁skin	-5674
▁paras	-5675
▁suits	-5676
right	-5677
▁Annexure	-5678
▁beautiful	-5679
HI	-5680
▁mechanism	-5681
ray	-5682
▁arose	-5683
▁papers	-5684
▁poverty	-5685
▁allotted	-5686
oph	-5687
▁preliminary	-5688
▁Car	-5689
MS	-5690
ondon	-5691
▁Nor	-5692
▁remember	-5693
aling	-5694
▁season	-5695
▁weapons	-5696
▁residential	-5697
itis	-5698
udget	-5699
▁miss	-5700
▁Hyder	-5701
▁interpreted	-5702
arian	-5703
▁rape	-5704
▁feeling	-5705
▁vehicles	-5706
▁personnel	-5707
▁drugs	-5708
▁Forest	-5709
▁issuance	-5710
▁attracted	-5711
ni	-5712
ero	-5713
▁pil	-5714
▁banking	-5715
▁applying	-5716
▁comment	-5717
▁Gandhiji	-5718
orthy	-5719
▁divine	-5720
▁courses	-5721
▁suicide	-5722
ady	-5723
pet	-5724
▁CrPC	-5725
▁calls	-5726
ilitation	-5727
▁advocate	-5728
▁division	-5729
▁efficient	-5730
like	-5731
▁Agg	-5732
▁magn	-5733
▁uses	-5734
▁branch	-5735
izations	-5736
▁universal	-5737
ika	-5738
▁fault	-5739
▁deserv	-5740
▁modified	-5741
▁Paragraph	-5742
▁seiz	-5743
ribunals	-5744
▁insofar	-5745
▁estate	-5746
▁Art	-5747
itect	-5748
▁Prosecutor	-5749
▁consistent	-5750
redit	-5751
ae	-5752
▁Each	-5753
▁Like	-5754
intend	-5755
▁finds	-5756
▁nuclear	-5757
▁thereon	-5758
astic	-5759
▁master	-5760
▁Inspector	-5761
▁Dig	-5762
▁scrutiny	-5763
▁pra	-5764
▁dowry	-5765
▁guilt	-5766
▁Constit	-5767
▁cited	-5768
▁Excell	-5769
▁Sign	-5770
▁spite	-5771
▁closed	-5772
▁continues	-5773
ARD	-5774
▁prepar	-5775
▁MS	-5776
▁vast	-5777
▁nearly	-5778
▁Appeals	-5779
▁London	-5780
owed	-5781
abinet	-5782
▁quoted	-5783
▁SEBI	-5784
▁feature	-5785
▁id	-5786
apan	-5787
▁crop	-5788
▁hereby	-5789
▁pleaded	-5790
▁buildings	-5791
▁Rajya	-5792
▁pleasure	-5793
soever	-5794
PT	-5795
▁Allahabad	-5796
▁yield	-5797
▁Affairs	-5798
▁equival	-5799
▁retired	-5800
▁contents	-5801
▁liberal	-5802
RE	-5803
ricted	-5804
▁creditors	-5805
▁extremely	-5806
▁fails	-5807
▁PO	-5808
isted	-5809
▁friendly	-5810
▁considerable	-5811
▁commod	-5812
▁Reserve	-5813
▁struck	-5814
alore	-5815
uddin	-5816
▁plaint	-5817
▁deliver	-5818
look	-5819
known	-5820
-0	-5821
arc	-5822
esty	-5823
▁eth	-5824
▁prayed	-5825
▁currency	-5826
tery	-5827
▁Directors	-5828
▁stories	-5829
erous	-5830
▁Being	-5831
▁receiving	-5832
CL	-5833
▁cart	-5834
▁sacr	-5835
▁grave	-5836
ommod	-5837
RO	-5838
▁Dist	-5839
▁goal	-5840
▁Foreign	-5841
▁intim	-5842
▁happen	-5843
▁Certificate	-5844
▁excell	-5845
▁renewal	-5846
▁uniform	-5847
▁consists	-5848
▁cul	-5849
▁Shiv	-5850
▁Leave	-5851
▁watch	-5852
▁factory	-5853
▁historical	-5854
▁sanctioned	-5855
▁armed	-5856
▁entries	-5857
▁allowance	-5858
▁Kam	-5859
▁core	-5860
▁jail	-5861
▁Ham	-5862
▁waste	-5863
dy	-5864
arh	-5865
▁visited	-5866
▁endeavour	-5867
▁Industries	-5868
earing	-5869
▁Mahat	-5870
▁thereunder	-5871
alg	-5872
▁Why	-5873
▁xxx	-5874
▁concent	-5875
▁regional	-5876
▁scholars	-5877
▁contracts	-5878
▁impossible	-5879
ammu	-5880
▁lived	-5881
▁explos	-5882
▁minutes	-5883
prene	-5884
icating	-5885
▁floor	-5886
▁compound	-5887
▁strictly	-5888
▁Park	-5889
▁Bad	-5890
▁abroad	-5891
▁depends	-5892
▁hit	-5893
▁shape	-5894
▁Excise	-5895
▁Who	-5896
▁Guru	-5897
▁Review	-5898
▁operational	-5899
▁Iran	-5900
▁Small	-5901
▁adopt	-5902
▁irres	-5903
▁ruled	-5904
▁subjected	-5905
▁insp	-5906
ciation	-5907
▁objectives	-5908
reprene	-5909
▁valuable	-5910
▁Science	-5911
▁Ka	-5912
▁killed	-5913
IF	-5914
▁unlaw	-5915
▁leaving	-5916
▁Hyderabad	-5917
▁examining	-5918
otic	-5919
▁Jay	-5920
▁Jammu	-5921
▁claiming	-5922
▁framework	-5923
hana	-5924
▁instituted	-5925
▁Lib	-5926
ulating	-5927
▁meetings	-5928
▁concess	-5929
▁pollution	-5930
▁stone	-5931
▁illust	-5932
word	-5933
▁Tod	-5934
▁capt	-5935
ila	-5936
▁veget	-5937
▁Independ	-5938
▁behaviour	-5939
▁ordinarily	-5940
ibly	-5941
▁poems	-5942
▁chance	-5943
GC	-5944
vt	-5945
▁Business	-5946
▁withdrawal	-5947
▁choose	-5948
▁immovable	-5949
▁Kan	-5950
▁sto	-5951
▁Full	-5952
▁sand	-5953
▁negoti	-5954
▁compared	-5955
▁critical	-5956
▁location	-5957
▁powerful	-5958
▁wat	-5959
▁ec	-5960
▁rapid	-5961
▁partly	-5962
▁essentially	-5963
▁km	-5964
etary	-5965
ulates	-5966
▁Again	-5967
▁distinguished	-5968
ker	-5969
uff	-5970
▁prosper	-5971
▁terrorist	-5972
▁intellectual	-5973
mosp	-5974
anging	-5975
▁Const	-5976
▁Econom	-5977
▁nations	-5978
▁perfect	-5979
ocal	-5980
▁Abdul	-5981
▁anyone	-5982
▁opposed	-5983
bel	-5984
▁Acqu	-5985
▁conducting	-5986
▁effectively	-5987
anied	-5988
▁Build	-5989
▁revised	-5990
TE	-5991
▁upd	-5992
▁correctness	-5993
▁Gl	-5994
aman	-5995
▁implic	-5996
▁Territory	-5997
above	-5998
▁grat	-5999
▁forwarded	-6000
unct	-6001
▁acquire	-6002
oles	-6003
▁pregn	-6004
▁carefully	-6005
▁integrity	-6006
▁reasoning	-6007
well	-6008
▁Nep	-6009
▁DNA	-6010
▁Exp	-6011
▁City	-6012
▁doctors	-6013
mer	-6014
▁audit	-6015
▁Convention	-6016
▁Prom	-6017
ames	-6018
▁sleep	-6019
▁Fam	-6020
▁ends	-6021
▁holds	-6022
▁accommod	-6023
▁hereinabove	-6024
▁Jh	-6025
▁pages	-6026
▁satisfy	-6027
luding	-6028
oration	-6029
▁decades	-6030
▁represented	-6031
▁SH	-6032
▁vs	-6033
▁Tra	-6034
▁cities	-6035
▁transform	-6036
▁Sum	-6037
▁mouth	-6038
oring	-6039
othing	-6040
▁Great	-6041
▁centres	-6042
▁securities	-6043
osen	-6044
▁wood	-6045
▁orient	-6046
▁obvious	-6047
▁complaints	-6048
mi	-6049
aneous	-6050
▁auton	-6051
▁sched	-6052
▁Tagore	-6053
▁rigorous	-6054
▁withdrawn	-6055
▁consumption	-6056
▁hour	-6057
▁effects	-6058
▁designed	-6059
▁Dal	-6060
▁compuls	-6061
▁primarily	-6062
▁processes	-6063
▁percentage	-6064
▁IC	-6065
▁Var	-6066
▁vote	-6067
▁wound	-6068
▁payments	-6069
▁origin	-6070
▁partial	-6071
▁ultimate	-6072
▁Administrative	-6073
mar	-6074
▁atmosp	-6075
▁patent	-6076
charge	-6077
▁Exchange	-6078
▁equipment	-6079
▁constructed	-6080
▁wel	-6081
▁inqu	-6082
▁Exhib	-6083
▁kinds	-6084
▁litig	-6085
▁ap	-6086
▁Rama	-6087
▁lodged	-6088
▁affirmed	-6089
▁criteria	-6090
▁exclusion	-6091
▁Mot	-6092
▁unreason	-6093
▁advertise	-6094
▁requisite	-6095
essor	-6096
▁furnish	-6097
▁slow	-6098
rical	-6099
▁Year	-6100
▁picture	-6101
▁grievance	-6102
▁height	-6103
aren	-6104
▁Third	-6105
▁invited	-6106
▁entrusted	-6107
▁maintainable	-6108
▁fert	-6109
▁purport	-6110
▁multiple	-6111
▁Chen	-6112
ieving	-6113
▁Press	-6114
▁explain	-6115
▁Far	-6116
▁crops	-6117
▁levied	-6118
▁concerning	-6119
▁interesting	-6120
▁ast	-6121
▁colleges	-6122
▁identify	-6123
▁Consequently	-6124
▁considerations	-6125
▁shared	-6126
▁priority	-6127
▁separately	-6128
▁Prem	-6129
▁accompanied	-6130
hel	-6131
▁Goa	-6132
▁royal	-6133
▁omission	-6134
▁Ib	-6135
▁hardly	-6136
▁probably	-6137
mark	-6138
▁dil	-6139
▁cold	-6140
▁trees	-6141
▁listed	-6142
▁changing	-6143
▁Proper	-6144
▁obviously	-6145
▁ang	-6146
▁Design	-6147
▁raising	-6148
▁controlled	-6149
▁Enter	-6150
ourage	-6151
▁demands	-6152
stitutional	-6153
▁challenges	-6154
het	-6155
▁kill	-6156
▁upper	-6157
▁legally	-6158
udi	-6159
▁Maj	-6160
▁pick	-6161
▁moving	-6162
▁solution	-6163
▁difficulty	-6164
AM	-6165
icing	-6166
▁Those	-6167
▁Women	-6168
▁Interest	-6169
▁availability	-6170
jay	-6171
▁Tri	-6172
▁sectors	-6173
▁student	-6174
▁rect	-6175
▁chain	-6176
▁appearance	-6177
▁Over	-6178
▁spect	-6179
uvenile	-6180
▁harass	-6181
▁Programme	-6182
▁exceeding	-6183
▁graph	-6184
▁remand	-6185
▁consisting	-6186
ogle	-6187
▁park	-6188
aduate	-6189
▁severe	-6190
▁trave	-6191
ologies	-6192
regular	-6193
▁Mahatma	-6194
examination	-6195
▁imposition	-6196
just	-6197
ertion	-6198
▁unlawful	-6199
▁legitimate	-6200
RL	-6201
▁allocation	-6202
▁comprehensive	-6203
mn	-6204
ament	-6205
▁involvement	-6206
▁bow	-6207
iveness	-6208
▁Customs	-6209
▁drive	-6210
▁deduct	-6211
▁seizure	-6212
▁appreciation	-6213
▁Bel	-6214
▁Acts	-6215
▁driving	-6216
rep	-6217
inations	-6218
▁ensuring	-6219
▁parameters	-6220
▁corresponding	-6221
▁transportation	-6222
▁attitude	-6223
▁literary	-6224
▁violative	-6225
▁eld	-6226
lax	-6227
iest	-6228
▁Note	-6229
▁fourth	-6230
▁launched	-6231
▁gun	-6232
▁endor	-6233
▁sovere	-6234
▁Capital	-6235
▁Japan	-6236
▁Judgment	-6237
▁envisaged	-6238
▁Lit	-6239
▁Today	-6240
▁privilege	-6241
▁conversion	-6242
▁substituted	-6243
▁greet	-6244
▁opposite	-6245
izes	-6246
llor	-6247
▁declare	-6248
▁consumers	-6249
▁sort	-6250
▁Langu	-6251
▁plans	-6252
▁stamp	-6253
▁universities	-6254
▁fide	-6255
▁subxad	-6256
▁partner	-6257
No	-6258
St	-6259
▁sq	-6260
▁die	-6261
▁scene	-6262
▁diseases	-6263
▁Trade	-6264
▁concurrent	-6265
▁whatsoever	-6266
aly	-6267
▁antic	-6268
▁lying	-6269
▁Ordinance	-6270
▁equivalent	-6271
estion	-6272
▁indu	-6273
▁dance	-6274
▁divid	-6275
▁prefer	-6276
organ	-6277
▁barred	-6278
▁remote	-6279
aign	-6280
▁Stud	-6281
▁Family	-6282
cip	-6283
▁supplement	-6284
▁enum	-6285
▁bench	-6286
▁chosen	-6287
▁electronic	-6288
▁Railway	-6289
uit	-6290
▁dry	-6291
▁eat	-6292
▁dial	-6293
▁game	-6294
fer	-6295
▁Est	-6296
sheet	-6297
▁script	-6298
▁screen	-6299
▁procedures	-6300
▁manufactured	-6301
hers	-6302
rows	-6303
▁Men	-6304
▁bab	-6305
▁Memon	-6306
hr	-6307
agers	-6308
▁ingred	-6309
▁Security	-6310
▁qualification	-6311
haust	-6312
▁prohibition	-6313
▁offices	-6314
▁Universities	-6315
▁divor	-6316
▁Laws	-6317
▁wond	-6318
▁eviction	-6319
▁facilitate	-6320
▁reproduced	-6321
aug	-6322
▁continuous	-6323
ont	-6324
▁recently	-6325
▁Acquisition	-6326
fe	-6327
▁latest	-6328
▁irregular	-6329
▁ourselves	-6330
▁acceptable	-6331
ugg	-6332
isting	-6333
▁Houses	-6334
ruits	-6335
▁jour	-6336
▁Final	-6337
▁genuine	-6338
▁Akbar	-6339
▁restricted	-6340
opy	-6341
▁becoming	-6342
▁confessional	-6343
▁train	-6344
▁interven	-6345
▁Good	-6346
arden	-6347
▁Pension	-6348
▁involves	-6349
▁army	-6350
▁advised	-6351
▁restrict	-6352
▁lac	-6353
▁Joh	-6354
▁sugar	-6355
▁paying	-6356
▁volume	-6357
▁Force	-6358
▁fruit	-6359
▁comply	-6360
▁stages	-6361
▁outstanding	-6362
itan	-6363
▁Bengali	-6364
▁Committees	-6365
otton	-6366
ropri	-6367
▁Data	-6368
▁occupation	-6369
▁XX	-6370
▁Deb	-6371
▁surpr	-6372
▁pleadings	-6373
▁leads	-6374
▁conform	-6375
▁evening	-6376
▁calculated	-6377
▁communities	-6378
cks	-6379
iled	-6380
▁Life	-6381
▁enem	-6382
▁beauty	-6383
▁awareness	-6384
▁commitment	-6385
▁anticip	-6386
▁improvement	-6387
▁desir	-6388
▁arm	-6389
anges	-6390
icious	-6391
▁Commun	-6392
▁prohibited	-6393
▁sustainable	-6394
▁retrospective	-6395
kash	-6396
▁rehab	-6397
▁respond	-6398
▁Christian	-6399
१५	-6400
cont	-6401
▁scen	-6402
UM	-6403
▁Ve	-6404
▁inner	-6405
▁motive	-6406
▁architect	-6407
ops	-6408
▁rob	-6409
▁acid	-6410
▁brain	-6411
▁domain	-6412
▁figures	-6413
▁alongwith	-6414
▁Food	-6415
holding	-6416
▁derived	-6417
▁dues	-6418
EP	-6419
▁emergency	-6420
agh	-6421
▁starting	-6422
▁initially	-6423
▁mit	-6424
ayana	-6425
tains	-6426
igent	-6427
▁shif	-6428
▁persu	-6429
▁rival	-6430
▁Transport	-6431
▁Electricity	-6432
AD	-6433
sement	-6434
▁Among	-6435
▁alien	-6436
▁fifty	-6437
▁concerns	-6438
▁leadership	-6439
UN	-6440
ls	-6441
▁nos	-6442
▁qualified	-6443
grat	-6444
itual	-6445
▁Legal	-6446
▁Google	-6447
▁strike	-6448
▁negligence	-6449
▁circumstance	-6450
▁cm	-6451
▁irrespective	-6452
ERS	-6453
itch	-6454
▁approx	-6455
▁defines	-6456
▁Excellency	-6457
▁plat	-6458
arsh	-6459
▁songs	-6460
▁statutes	-6461
rum	-6462
▁Master	-6463
▁engineering	-6464
UT	-6465
▁Equ	-6466
ented	-6467
▁grad	-6468
▁wild	-6469
ensions	-6470
▁housing	-6471
▁collective	-6472
▁procedural	-6473
OL	-6474
▁gar	-6475
ranches	-6476
▁healthy	-6477
iet	-6478
▁qua	-6479
board	-6480
▁runs	-6481
▁Buddh	-6482
▁grass	-6483
gent	-6484
▁bone	-6485
▁Bangalore	-6486
ogue	-6487
▁Ban	-6488
▁gift	-6489
person	-6490
▁customs	-6491
▁politics	-6492
ifice	-6493
▁channel	-6494
▁erroneous	-6495
▁formation	-6496
pex	-6497
▁union	-6498
▁exhaust	-6499
▁Reliance	-6500
▁backward	-6501
▁medicine	-6502
igil	-6503
▁Saty	-6504
▁governing	-6505
▁operative	-6506
lets	-6507
▁Himal	-6508
▁servants	-6509
▁Tar	-6510
▁Himachal	-6511
oubted	-6512
▁stayed	-6513
▁unfair	-6514
▁Time	-6515
cribes	-6516
▁format	-6517
▁Palestin	-6518
▁household	-6519
▁discharged	-6520
▁Hist	-6521
▁abol	-6522
▁exclus	-6523
▁participate	-6524
▁Unit	-6525
▁elim	-6526
abling	-6527
▁qualifications	-6528
▁Tel	-6529
▁customers	-6530
▁Russ	-6531
▁formula	-6532
▁verification	-6533
▁organized	-6534
▁innovation	-6535
▁Pvt	-6536
▁store	-6537
▁enhanced	-6538
▁minerals	-6539
pat	-6540
▁hero	-6541
▁tort	-6542
astern	-6543
▁assessed	-6544
▁university	-6545
▁purchaser	-6546
SS	-6547
▁monthly	-6548
▁installed	-6549
▁competence	-6550
▁efficiency	-6551
writ	-6552
▁Use	-6553
▁raw	-6554
▁loans	-6555
▁herself	-6556
▁insects	-6557
▁Nath	-6558
▁Vill	-6559
▁Error	-6560
▁Common	-6561
▁Respondents	-6562
▁Arbitrator	-6563
ima	-6564
inite	-6565
▁addu	-6566
▁cook	-6567
▁Gan	-6568
▁Mit	-6569
▁Sikh	-6570
▁hereunder	-6571
unior	-6572
▁admissible	-6573
ometric	-6574
▁atmosphere	-6575
▁PM	-6576
▁Sol	-6577
▁joy	-6578
▁sam	-6579
▁revealed	-6580
▁MCI	-6581
▁justification	-6582
gery	-6583
▁sequ	-6584
rations	-6585
▁showed	-6586
▁compromise	-6587
ema	-6588
ura	-6589
▁hom	-6590
▁sons	-6591
▁extract	-6592
▁entreprene	-6593
alli	-6594
iers	-6595
▁Statement	-6596
▁maintaining	-6597
CE	-6598
▁web	-6599
▁Sant	-6600
▁strengthe	-6601
▁Ganga	-6602
▁color	-6603
▁Engineer	-6604
▁instruments	-6605
ss	-6606
mon	-6607
▁Meh	-6608
▁Back	-6609
▁Bose	-6610
▁framing	-6611
▁Training	-6612
uti	-6613
ifies	-6614
▁Castes	-6615
▁trading	-6616
▁traffic	-6617
▁ax	-6618
▁Bah	-6619
algam	-6620
▁dealer	-6621
▁encourage	-6622
ny	-6623
ena	-6624
▁vii	-6625
▁repeal	-6626
▁Roh	-6627
▁emot	-6628
▁aggreg	-6629
▁disclose	-6630
▁Ty	-6631
▁Rent	-6632
▁continuing	-6633
▁differences	-6634
garh	-6635
irms	-6636
▁poem	-6637
▁smaller	-6638
▁contractor	-6639
bing	-6640
▁hop	-6641
▁railway	-6642
▁sick	-6643
▁Solic	-6644
▁clothes	-6645
▁ignored	-6646
▁clarified	-6647
▁photograph	-6648
▁AM	-6649
odes	-6650
▁sanct	-6651
▁districts	-6652
▁kil	-6653
▁erred	-6654
▁girls	-6655
▁suggestion	-6656
ips	-6657
umber	-6658
▁output	-6659
▁Nations	-6660
▁crucial	-6661
▁Regional	-6662
▁Va	-6663
▁Money	-6664
▁wants	-6665
▁facult	-6666
▁customer	-6667
RT	-6668
▁pill	-6669
wor	-6670
aped	-6671
▁Ira	-6672
▁Oper	-6673
▁plays	-6674
▁accepting	-6675
▁indul	-6676
▁copies	-6677
▁server	-6678
intendent	-6679
▁president	-6680
▁experts	-6681
▁beneficial	-6682
mal	-6683
nai	-6684
▁flu	-6685
▁unne	-6686
▁grown	-6687
▁prime	-6688
▁weapon	-6689
▁regulate	-6690
▁Prevention	-6691
LE	-6692
▁Which	-6693
▁relax	-6694
▁complied	-6695
▁initiatives	-6696
▁suggestions	-6697
lick	-6698
▁bott	-6699
▁finger	-6700
wari	-6701
▁stream	-6702
▁computing	-6703
inct	-6704
▁spl	-6705
▁imposing	-6706
ushed	-6707
▁pert	-6708
oken	-6709
▁PWxad	-6710
oubtedly	-6711
▁innocent	-6712
▁quashing	-6713
BC	-6714
▁tool	-6715
udence	-6716
▁arrangements	-6717
uality	-6718
▁borne	-6719
▁commenced	-6720
▁practical	-6721
▁AD	-6722
▁spon	-6723
▁Survey	-6724
▁Engineering	-6725
▁Vide	-6726
▁Patna	-6727
▁annum	-6728
actory	-6729
▁Av	-6730
▁vary	-6731
▁Welfare	-6732
▁straight	-6733
▁committing	-6734
▁Babu	-6735
▁neck	-6736
▁minds	-6737
atively	-6738
aneously	-6739
ims	-6740
elve	-6741
▁dish	-6742
▁license	-6743
▁Aggrieved	-6744
▁identical	-6745
▁substantially	-6746
▁Object	-6747
▁mission	-6748
▁Don	-6749
▁Select	-6750
▁deposits	-6751
▁unnecess	-6752
▁Solicitor	-6753
▁Try	-6754
▁acknowled	-6755
▁limitations	-6756
ayuk	-6757
▁dia	-6758
▁unc	-6759
▁phase	-6760
▁trend	-6761
▁attained	-6762
▁depending	-6763
▁fill	-6764
▁race	-6765
▁Ashok	-6766
▁Cabinet	-6767
▁contend	-6768
▁Defendant	-6769
▁RBI	-6770
▁moon	-6771
▁panch	-6772
▁Jew	-6773
idden	-6774
▁journey	-6775
▁newspaper	-6776
▁organizations	-6777
▁wise	-6778
▁taxation	-6779
▁Resolution	-6780
sc	-6781
hara	-6782
State	-6783
▁Manager	-6784
▁scheduled	-6785
▁competition	-6786
▁personality	-6787
................	-6788
key	-6789
▁leaf	-6790
▁relying	-6791
▁Plaintiff	-6792
▁Administration	-6793
▁lik	-6794
▁rice	-6795
▁River	-6796
▁breed	-6797
ounding	-6798
▁debate	-6799
isdom	-6800
▁route	-6801
▁represents	-6802
▁VI	-6803
anya	-6804
vency	-6805
mination	-6806
▁finance	-6807
▁Vin	-6808
ortunately	-6809
▁converted	-6810
▁sentences	-6811
▁introduction	-6812
adav	-6813
▁mov	-6814
▁steel	-6815
▁helped	-6816
▁quantum	-6817
▁Recovery	-6818
▁component	-6819
▁blue	-6820
▁perpet	-6821
ammad	-6822
▁campaign	-6823
▁Selection	-6824
▁preparation	-6825
▁Iraq	-6826
▁calling	-6827
▁asserted	-6828
▁inconsistent	-6829
▁crim	-6830
▁constr	-6831
▁beings	-6832
▁cruelty	-6833
▁modification	-6834
▁borrower	-6835
GE	-6836
idge	-6837
▁Deed	-6838
▁online	-6839
▁cricket	-6840
▁correctly	-6841
cean	-6842
rase	-6843
▁Sin	-6844
▁Son	-6845
▁hyp	-6846
▁hair	-6847
▁Anand	-6848
TA	-6849
rule	-6850
itals	-6851
▁Pers	-6852
▁Moham	-6853
▁regions	-6854
▁relatives	-6855
▁authorized	-6856
▁convention	-6857
emb	-6858
ida	-6859
jit	-6860
▁Crl	-6861
▁Mun	-6862
▁specify	-6863
▁characters	-6864
▁eventually	-6865
▁Constituent	-6866
▁avo	-6867
▁Show	-6868
▁vend	-6869
▁recon	-6870
▁patients	-6871
▁irrigation	-6872
hik	-6873
fall	-6874
▁dict	-6875
▁essence	-6876
eting	-6877
▁deem	-6878
▁match	-6879
▁Independence	-6880
aran	-6881
▁precise	-6882
▁resource	-6883
▁Appellants	-6884
▁El	-6885
▁tests	-6886
▁Credit	-6887
▁La	-6888
ilal	-6889
▁Jaw	-6890
▁Internet	-6891
▁perspective	-6892
▁sets	-6893
▁Mahab	-6894
▁ID	-6895
room	-6896
▁cum	-6897
▁Suit	-6898
akrish	-6899
▁column	-6900
▁tonnes	-6901
▁Mission	-6902
▁Insofar	-6903
▁requiring	-6904
isp	-6905
▁dream	-6906
▁whenever	-6907
▁Mat	-6908
▁rad	-6909
▁telephone	-6910
▁Registration	-6911
▁alive	-6912
▁expan	-6913
▁Subject	-6914
▁inclined	-6915
▁signature	-6916
▁questioned	-6917
▁kid	-6918
▁hill	-6919
▁branches	-6920
▁reduction	-6921
▁Sr	-6922
isen	-6923
▁heads	-6924
▁repealed	-6925
▁Superintendent	-6926
alle	-6927
▁Emp	-6928
▁Banks	-6929
▁Tribes	-6930
▁thor	-6931
▁Ambed	-6932
▁amalgam	-6933
▁communal	-6934
▁surrender	-6935
▁unreasonable	-6936
▁Sard	-6937
▁holders	-6938
▁arre	-6939
▁interview	-6940
oe	-6941
▁CR	-6942
olvency	-6943
▁Network	-6944
▁constant	-6945
▁stake	-6946
▁empower	-6947
▁Ambedkar	-6948
▁corporation	-6949
▁deliber	-6950
▁brings	-6951
▁resign	-6952
anc	-6953
▁Yet	-6954
▁complic	-6955
▁platform	-6956
plom	-6957
▁Dur	-6958
▁Sind	-6959
▁Yoga	-6960
▁couple	-6961
oes	-6962
erved	-6963
iant	-6964
▁tim	-6965
▁faced	-6966
llation	-6967
▁Nature	-6968
▁propri	-6969
HAN	-6970
▁Rest	-6971
▁enumerated	-6972
▁transmission	-6973
▁Keep	-6974
▁Count	-6975
▁fifteen	-6976
▁entering	-6977
▁parliamentary	-6978
US	-6979
▁fuel	-6980
▁Laksh	-6981
▁tenure	-6982
Os	-6983
arp	-6984
▁NG	-6985
aces	-6986
▁ste	-6987
holder	-6988
▁affili	-6989
▁collabor	-6990
▁proceeds	-6991
▁eligibility	-6992
▁evil	-6993
cribing	-6994
▁happens	-6995
▁roads	-6996
▁congrat	-6997
▁specially	-6998
▁difficulties	-6999
rat	-7000
ispr	-7001
igarh	-7002
▁east	-7003
urning	-7004
▁Chennai	-7005
▁morality	-7006
▁dependent	-7007
▁authentication	-7008
▁inflic	-7009
▁Prakash	-7010
EF	-7011
xy	-7012
fort	-7013
▁Hot	-7014
▁Govt	-7015
▁careful	-7016
▁designated	-7017
▁Investigating	-7018
ictionary	-7019
▁estimated	-7020
▁greetings	-7021
▁seriously	-7022
▁participated	-7023
dish	-7024
works	-7025
▁throw	-7026
▁societies	-7027
▁misconduct	-7028
▁dates	-7029
▁resist	-7030
▁Session	-7031
▁suspect	-7032
▁hes	-7033
▁invoked	-7034
▁originally	-7035
▁Territories	-7036
anta	-7037
rary	-7038
inous	-7039
▁Arun	-7040
▁Gopal	-7041
▁denial	-7042
▁Exhibit	-7043
▁consequential	-7044
▁Pass	-7045
▁Tele	-7046
minent	-7047
▁accom	-7048
▁imple	-7049
▁star	-7050
▁incor	-7051
▁symbol	-7052
▁strengt	-7053
▁enabling	-7054
▁underlying	-7055
▁Dw	-7056
▁Na	-7057
▁slight	-7058
LA	-7059
▁org	-7060
▁John	-7061
▁Self	-7062
▁aims	-7063
piration	-7064
▁occasions	-7065
▁prosperity	-7066
▁aforementioned	-7067
▁blind	-7068
▁writer	-7069
▁observe	-7070
▁applicability	-7071
▁load	-7072
▁lose	-7073
▁viti	-7074
▁sight	-7075
▁street	-7076
▁supposed	-7077
▁Anr	-7078
▁Bin	-7079
▁Sector	-7080
▁Disp	-7081
▁users	-7082
▁drawing	-7083
▁discipline	-7084
▁intr	-7085
▁lays	-7086
▁advis	-7087
▁minority	-7088
▁exclusively	-7089
▁cra	-7090
etent	-7091
▁laying	-7092
▁occurs	-7093
▁wisdom	-7094
▁Teacher	-7095
▁federal	-7096
▁greatest	-7097
▁reflected	-7098
gen	-7099
iche	-7100
▁null	-7101
ayment	-7102
▁micro	-7103
▁rever	-7104
▁twelve	-7105
▁enterprise	-7106
▁representing	-7107
arya	-7108
▁Tal	-7109
▁hyd	-7110
▁syn	-7111
ificial	-7112
▁offers	-7113
▁eminent	-7114
▁inference	-7115
▁undertake	-7116
▁Cal	-7117
itally	-7118
▁reforms	-7119
▁Transfer	-7120
▁corruption	-7121
ners	-7122
▁heat	-7123
▁inev	-7124
▁west	-7125
▁Could	-7126
▁rivers	-7127
▁discussions	-7128
▁enl	-7129
itors	-7130
▁promise	-7131
adequ	-7132
▁convin	-7133
▁mistake	-7134
▁panel	-7135
▁career	-7136
▁double	-7137
▁deposition	-7138
▁translation	-7139
▁Compl	-7140
▁Nan	-7141
▁excise	-7142
▁fulfilled	-7143
iri	-7144
▁Lo	-7145
▁UT	-7146
▁phen	-7147
▁compassion	-7148
▁AA	-7149
issue	-7150
lighted	-7151
▁arisen	-7152
▁fairly	-7153
hus	-7154
unch	-7155
▁walk	-7156
▁investors	-7157
▁components	-7158
bon	-7159
▁track	-7160
▁escape	-7161
▁serving	-7162
da	-7163
▁fab	-7164
▁coin	-7165
▁didn	-7166
▁heirs	-7167
▁prepare	-7168
▁prevailing	-7169
BS	-7170
▁Det	-7171
▁Nepal	-7172
▁accompl	-7173
free	-7174
ipes	-7175
▁Ten	-7176
▁Three	-7177
inatory	-7178
▁Defence	-7179
▁brothers	-7180
▁chargeable	-7181
▁comprising	-7182
▁looks	-7183
▁assumed	-7184
▁automatically	-7185
▁announced	-7186
▁marketing	-7187
▁departments	-7188
oom	-7189
▁tea	-7190
levant	-7191
▁Found	-7192
▁besides	-7193
▁director	-7194
▁contravention	-7195
yas	-7196
orter	-7197
▁aged	-7198
▁pic	-7199
▁visible	-7200
▁covering	-7201
▁Rural	-7202
▁budget	-7203
▁courage	-7204
▁putting	-7205
▁proposals	-7206
▁separation	-7207
opp	-7208
rain	-7209
▁Mur	-7210
IM	-7211
▁helps	-7212
▁Temple	-7213
▁rejection	-7214
▁harassment	-7215
▁highlighted	-7216
▁Saf	-7217
author	-7218
▁corrupt	-7219
▁journal	-7220
▁clearance	-7221
▁nominated	-7222
▁MO	-7223
▁aw	-7224
▁Sud	-7225
▁crow	-7226
▁memo	-7227
▁birds	-7228
▁guidance	-7229
▁partners	-7230
ATE	-7231
▁Language	-7232
UD	-7233
▁Book	-7234
▁ahead	-7235
▁arrive	-7236
ordinary	-7237
▁convers	-7238
▁justify	-7239
ghan	-7240
amber	-7241
▁Eastern	-7242
▁successfully	-7243
mun	-7244
▁dro	-7245
▁Economic	-7246
▁CC	-7247
▁empt	-7248
▁licen	-7249
▁awarding	-7250
▁governments	-7251
uru	-7252
▁undue	-7253
▁Village	-7254
▁preceding	-7255
bhai	-7256
▁divorce	-7257
▁regulatory	-7258
▁Az	-7259
▁asking	-7260
▁playing	-7261
▁offender	-7262
gi	-7263
▁NCT	-7264
▁Kolk	-7265
▁deeds	-7266
▁radio	-7267
▁Mother	-7268
▁climate	-7269
▁simult	-7270
▁tenancy	-7271
▁documentary	-7272
▁Gram	-7273
▁weather	-7274
▁expansion	-7275
▁fish	-7276
▁Based	-7277
▁stopped	-7278
▁Mas	-7279
▁conclude	-7280
▁establishing	-7281
▁Later	-7282
▁Others	-7283
▁insurer	-7284
appellant	-7285
▁attended	-7286
MP	-7287
▁Ser	-7288
ealth	-7289
▁mail	-7290
ocated	-7291
▁paint	-7292
ux	-7293
ipe	-7294
▁squared	-7295
▁IP	-7296
▁Kish	-7297
▁folk	-7298
▁mostly	-7299
▁Process	-7300
ola	-7301
▁Cur	-7302
▁FOR	-7303
itage	-7304
▁band	-7305
▁relate	-7306
▁rock	-7307
▁notices	-7308
sees	-7309
▁Middle	-7310
▁organised	-7311
▁nomination	-7312
▁institutional	-7313
▁fulfil	-7314
▁inadequ	-7315
▁declined	-7316
erent	-7317
▁cris	-7318
▁skill	-7319
▁belongs	-7320
▁wait	-7321
▁festival	-7322
▁bilateral	-7323
▁promoting	-7324
▁Cre	-7325
▁casual	-7326
▁tenants	-7327
▁arrears	-7328
▁incorrect	-7329
▁opposition	-7330
▁faculty	-7331
▁saved	-7332
▁awards	-7333
▁pertinent	-7334
▁compulsory	-7335
yl	-7336
▁UK	-7337
▁tick	-7338
▁Last	-7339
▁symp	-7340
▁knowing	-7341
▁applicants	-7342
icus	-7343
▁Chrom	-7344
▁Follow	-7345
▁enqu	-7346
▁chapter	-7347
▁illness	-7348
active	-7349
raction	-7350
▁Academ	-7351
▁Australia	-7352
off	-7353
atab	-7354
ether	-7355
▁Sund	-7356
▁enabled	-7357
▁suspension	-7358
▁temperature	-7359
ouble	-7360
▁bona	-7361
▁Vishn	-7362
▁Chance	-7363
--------	-7364
▁Yadav	-7365
amin	-7366
▁bills	-7367
▁coast	-7368
▁dynam	-7369
▁examples	-7370
▁promoted	-7371
▁inclusive	-7372
OS	-7373
▁supreme	-7374
▁Planning	-7375
SI	-7376
▁cease	-7377
▁client	-7378
▁permits	-7379
▁selling	-7380
▁wherever	-7381
▁thousands	-7382
▁imperative	-7383
▁mos	-7384
▁Conc	-7385
▁drop	-7386
▁please	-7387
▁unknown	-7388
▁Dub	-7389
uliar	-7390
▁adoption	-7391
▁attempts	-7392
▁ingredients	-7393
▁French	-7394
▁Vik	-7395
ortem	-7396
▁Kaur	-7397
▁oath	-7398
riages	-7399
▁vires	-7400
▁impression	-7401
▁destruction	-7402
▁labor	-7403
▁implied	-7404
▁deprived	-7405
▁structures	-7406
▁supporting	-7407
ques	-7408
ander	-7409
▁Sanj	-7410
▁eleph	-7411
▁fellow	-7412
▁peculiar	-7413
▁movements	-7414
▁advertisement	-7415
▁Sik	-7416
▁shock	-7417
▁reaching	-7418
more	-7419
ureau	-7420
SL	-7421
▁१६	-7422
gone	-7423
▁Yes	-7424
employ	-7425
▁Indeed	-7426
▁membership	-7427
▁cancellation	-7428
▁ly	-7429
▁Bur	-7430
▁Notice	-7431
aturally	-7432
▁initiative	-7433
▁incent	-7434
▁propag	-7435
▁desired	-7436
▁producing	-7437
back	-7438
▁Ans	-7439
antic	-7440
▁obsc	-7441
▁wage	-7442
▁skills	-7443
▁performing	-7444
▁conj	-7445
enders	-7446
▁Verma	-7447
▁cloud	-7448
▁regime	-7449
▁scientists	-7450
leum	-7451
▁Kolkata	-7452
▁centuries	-7453
▁strengthen	-7454
roller	-7455
▁secular	-7456
▁reasonably	-7457
xic	-7458
▁RI	-7459
▁Kab	-7460
▁Disc	-7461
▁zero	-7462
▁Property	-7463
▁liabilities	-7464
▁rehabilitation	-7465
MA	-7466
gypt	-7467
osit	-7468
inity	-7469
▁thinks	-7470
▁usual	-7471
▁formulated	-7472
za	-7473
vity	-7474
▁Kap	-7475
▁File	-7476
▁hind	-7477
▁intervention	-7478
ocol	-7479
▁URL	-7480
▁batch	-7481
▁guide	-7482
▁insured	-7483
▁safeguard	-7484
▁composition	-7485
akf	-7486
yam	-7487
nergy	-7488
▁Mohd	-7489
▁email	-7490
▁sharing	-7491
ithm	-7492
▁premium	-7493
igible	-7494
▁inaug	-7495
▁council	-7496
▁enables	-7497
▁ascertain	-7498
▁territories	-7499
atar	-7500
athered	-7501
▁creates	-7502
icks	-7503
▁Due	-7504
▁Democ	-7505
▁tract	-7506
▁Consid	-7507
▁earned	-7508
▁fabric	-7509
▁myself	-7510
▁precedent	-7511
ropol	-7512
▁Reform	-7513
▁manage	-7514
▁string	-7515
▁History	-7516
▁hostile	-7517
▁placing	-7518
▁evalu	-7519
▁crimes	-7520
▁Egypt	-7521
▁earliest	-7522
▁everyone	-7523
▁similarly	-7524
rane	-7525
▁Branch	-7526
▁Nothing	-7527
▁encl	-7528
▁depre	-7529
▁sacred	-7530
HER	-7531
▁abst	-7532
▁socio	-7533
▁Chh	-7534
▁tank	-7535
▁knows	-7536
▁deserves	-7537
▁duration	-7538
▁foregoing	-7539
▁Autom	-7540
▁dishon	-7541
▁forced	-7542
▁unnecessary	-7543
ica	-7544
▁relev	-7545
▁Subhas	-7546
▁evolved	-7547
▁western	-7548
▁reliable	-7549
▁judic	-7550
▁felicit	-7551
▁neighbour	-7552
cend	-7553
▁sin	-7554
▁pull	-7555
▁span	-7556
▁habit	-7557
▁broken	-7558
▁reveals	-7559
▁effected	-7560
isprudence	-7561
itt	-7562
akar	-7563
▁Sha	-7564
house	-7565
▁BCCI	-7566
▁Sale	-7567
▁prol	-7568
▁Reddy	-7569
ificates	-7570
▁Foundation	-7571
ih	-7572
oning	-7573
▁Soci	-7574
▁solar	-7575
▁password	-7576
och	-7577
▁ta	-7578
resent	-7579
▁battle	-7580
norm	-7581
▁cave	-7582
▁fertil	-7583
▁seeing	-7584
▁tissue	-7585
▁wonder	-7586
▁trained	-7587
▁numerous	-7588
▁biometric	-7589
van	-7590
▁SA	-7591
▁Issue	-7592
▁allows	-7593
▁fixing	-7594
▁consolid	-7595
ooth	-7596
▁forfe	-7597
▁violated	-7598
▁organisations	-7599
erior	-7600
▁bull	-7601
▁aband	-7602
▁blast	-7603
▁settle	-7604
▁sensitive	-7605
▁seemed	-7606
▁EC	-7607
▁Professor	-7608
▁contributions	-7609
▁Sab	-7610
roleum	-7611
▁marry	-7612
▁cotton	-7613
▁exports	-7614
RC	-7615
▁Germ	-7616
▁Divine	-7617
▁dispose	-7618
▁demanded	-7619
▁unauthor	-7620
▁broadcast	-7621
▁conference	-7622
ader	-7623
grim	-7624
ician	-7625
▁Crime	-7626
▁Jawah	-7627
▁Annual	-7628
▁flowers	-7629
▁monitoring	-7630
▁consequently	-7631
amma	-7632
▁cycle	-7633
▁Children	-7634
▁Marriage	-7635
▁Standing	-7636
▁treating	-7637
▁secondary	-7638
▁Prat	-7639
▁hall	-7640
▁upgr	-7641
▁Awards	-7642
▁Bharati	-7643
▁billion	-7644
▁existed	-7645
▁workman	-7646
▁entities	-7647
▁DEL	-7648
▁dog	-7649
▁vul	-7650
▁Path	-7651
▁waters	-7652
mentation	-7653
▁Secondly	-7654
▁criticism	-7655
EE	-7656
raj	-7657
ario	-7658
antial	-7659
mortem	-7660
▁immun	-7661
▁incap	-7662
▁facing	-7663
▁assault	-7664
▁convert	-7665
▁appointing	-7666
▁friendship	-7667
xx	-7668
ayukta	-7669
▁Forum	-7670
ogether	-7671
▁linked	-7672
▁liquor	-7673
rates	-7674
▁Allow	-7675
▁Exper	-7676
ulatory	-7677
▁poison	-7678
▁replace	-7679
▁terminal	-7680
▁dismissing	-7681
OC	-7682
▁York	-7683
▁Federal	-7684
▁waiting	-7685
▁Designated	-7686
awan	-7687
▁UGC	-7688
▁hosp	-7689
▁jointly	-7690
▁Something	-7691
▁integrated	-7692
▁isol	-7693
▁recons	-7694
ensation	-7695
▁caution	-7696
▁literal	-7697
▁influenced	-7698
tes	-7699
essed	-7700
▁zone	-7701
iginal	-7702
ranath	-7703
▁indig	-7704
▁ultra	-7705
▁composed	-7706
▁CP	-7707
aste	-7708
▁mob	-7709
aints	-7710
essees	-7711
▁markets	-7712
▁phenomen	-7713
In	-7714
▁returns	-7715
▁equitable	-7716
time	-7717
amble	-7718
enable	-7719
▁Bangl	-7720
▁chart	-7721
▁stret	-7722
▁ritual	-7723
▁immense	-7724
▁communic	-7725
▁residents	-7726
▁Rev	-7727
▁fet	-7728
▁deeply	-7729
▁installation	-7730
▁Mult	-7731
▁roll	-7732
ompany	-7733
▁mandap	-7734
▁Related	-7735
▁summary	-7736
akti	-7737
▁Six	-7738
▁missing	-7739
ouch	-7740
ariat	-7741
▁solely	-7742
shi	-7743
▁NC	-7744
▁Arch	-7745
▁Test	-7746
▁Railways	-7747
rosy	-7748
▁Vir	-7749
▁Housing	-7750
▁infring	-7751
▁channels	-7752
▁unw	-7753
▁wider	-7754
▁certified	-7755
▁Chandigarh	-7756
▁expressions	-7757
DU	-7758
ensus	-7759
▁beat	-7760
▁tools	-7761
▁rejecting	-7762
▁rendering	-7763
▁indirectly	-7764
▁competitive	-7765
▁distributed	-7766
▁contemporary	-7767
▁extraordinary	-7768
mo	-7769
▁Inn	-7770
▁Pad	-7771
▁Rat	-7772
▁cow	-7773
enous	-7774
▁twice	-7775
▁Vishnu	-7776
▁stress	-7777
▁developments	-7778
▁purview	-7779
▁notifications	-7780
mp	-7781
▁Micro	-7782
hension	-7783
wara	-7784
▁ignor	-7785
▁breath	-7786
▁vacancy	-7787
▁technologies	-7788
load	-7789
upon	-7790
ellow	-7791
▁club	-7792
rating	-7793
▁retain	-7794
▁Exh	-7795
itated	-7796
▁outcome	-7797
▁excessive	-7798
▁000	-7799
▁anx	-7800
oples	-7801
▁aimed	-7802
▁comments	-7803
▁Chairperson	-7804
▁interpreting	-7805
.00	-7806
rand	-7807
▁NEW	-7808
ement	-7809
ffect	-7810
▁ante	-7811
ensity	-7812
▁Afghan	-7813
▁begins	-7814
▁Seventh	-7815
▁landing	-7816
▁affecting	-7817
▁allegedly	-7818
▁MP	-7819
▁VII	-7820
isher	-7821
▁perce	-7822
▁killing	-7823
iciencies	-7824
▁informant	-7825
▁artificial	-7826
ota	-7827
▁Luck	-7828
▁gathered	-7829
▁retained	-7830
▁incidental	-7831
▁Dhar	-7832
▁Gold	-7833
▁lady	-7834
uments	-7835
utable	-7836
▁voting	-7837
▁autonomy	-7838
▁MC	-7839
▁adap	-7840
▁Mohammed	-7841
▁evolution	-7842
▁undergone	-7843
▁Agriculture	-7844
▁intelligence	-7845
edd	-7846
▁Sett	-7847
▁doesn	-7848
▁Israeli	-7849
▁relevance	-7850
anth	-7851
▁attain	-7852
▁Through	-7853
▁forests	-7854
▁shareholders	-7855
The	-7856
ture	-7857
▁annex	-7858
▁widely	-7859
▁venture	-7860
▁Following	-7861
unk	-7862
▁CS	-7863
▁vir	-7864
▁vit	-7865
▁cerem	-7866
▁interpret	-7867
▁presentation	-7868
▁inher	-7869
▁unjust	-7870
▁Arbitral	-7871
▁creative	-7872
▁aggregate	-7873
▁dedicated	-7874
▁Sk	-7875
atin	-7876
ndra	-7877
▁Name	-7878
arency	-7879
▁defeat	-7880
▁observing	-7881
▁exceptional	-7882
▁investments	-7883
▁hat	-7884
arlal	-7885
▁Raja	-7886
▁teach	-7887
ichever	-7888
▁Provin	-7889
▁vacant	-7890
▁Managing	-7891
▁directory	-7892
▁discovered	-7893
▁NI	-7894
▁Ident	-7895
▁gather	-7896
▁assured	-7897
▁quarter	-7898
▁disabled	-7899
▁valuation	-7900
▁admittedly	-7901
▁GO	-7902
inqu	-7903
▁Kir	-7904
ysore	-7905
▁legs	-7906
▁Swami	-7907
▁covers	-7908
▁lesser	-7909
▁punished	-7910
▁achieving	-7911
rad	-7912
onym	-7913
alled	-7914
▁institute	-7915
▁sacrifice	-7916
top	-7917
ulent	-7918
▁outer	-7919
▁Bureau	-7920
▁harmony	-7921
▁regularly	-7922
▁preference	-7923
▁Advis	-7924
▁hotel	-7925
▁layer	-7926
▁purely	-7927
▁managed	-7928
▁thoughts	-7929
▁Digitally	-7930
▁generated	-7931
▁privileges	-7932
▁Enterpr	-7933
▁implication	-7934
▁rid	-7935
ginal	-7936
▁Bach	-7937
▁Works	-7938
▁horse	-7939
▁religions	-7940
▁substitute	-7941
asi	-7942
▁possibly	-7943
▁Institutions	-7944
roc	-7945
▁Dar	-7946
▁Sav	-7947
▁van	-7948
▁clim	-7949
▁blank	-7950
▁Sardar	-7951
▁quickly	-7952
▁poets	-7953
▁exclude	-7954
▁viewed	-7955
▁Kingdom	-7956
ederation	-7957
▁departmental	-7958
▁revol	-7959
▁sixty	-7960
▁exactly	-7961
▁pit	-7962
▁About	-7963
▁imped	-7964
▁Authorities	-7965
▁exploitation	-7966
oli	-7967
▁Da	-7968
▁Lie	-7969
DS	-7970
iah	-7971
▁mir	-7972
ushan	-7973
▁Hari	-7974
▁canv	-7975
▁exch	-7976
▁Paper	-7977
▁thank	-7978
▁Emphas	-7979
▁MA	-7980
herry	-7981
▁burn	-7982
▁flood	-7983
▁sweet	-7984
▁mountain	-7985
▁appreciated	-7986
▁Shi	-7987
▁bare	-7988
▁whichever	-7989
▁accommodation	-7990
▁Hig	-7991
alaya	-7992
▁roof	-7993
icians	-7994
▁lawyers	-7995
▁welcome	-7996
▁resolved	-7997
▁improving	-7998
▁qualifying	-7999
▁entertained	-8000
otal	-8001
▁Pune	-8002
▁firms	-8003
▁theme	-8004
▁pieces	-8005
▁protest	-8006
▁Consumer	-8007
▁improved	-8008
▁constitutes	-8009
amed	-8010
▁IST	-8011
▁Fort	-8012
▁mine	-8013
▁pret	-8014
ananda	-8015
▁domin	-8016
arkhand	-8017
▁Number	-8018
▁accurate	-8019
▁cancelled	-8020
▁succession	-8021
▁implementing	-8022
hash	-8023
▁Clauses	-8024
▁emerged	-8025
coh	-8026
▁Megh	-8027
ciences	-8028
▁expedit	-8029
ropolitan	-8030
▁Verified	-8031
▁constitu	-8032
▁Engineers	-8033
▁Tribunals	-8034
rier	-8035
▁buyer	-8036
▁walls	-8037
▁caught	-8038
▁planned	-8039
ba	-8040
▁Ha	-8041
emn	-8042
▁unp	-8043
▁injust	-8044
▁Lah	-8045
▁Energy	-8046
▁harmon	-8047
▁refuse	-8048
▁dangerous	-8049
▁conscience	-8050
▁spoken	-8051
▁Bangladesh	-8052
rafts	-8053
▁Copy	-8054
▁cool	-8055
▁handling	-8056
▁replaced	-8057
▁Address	-8058
▁Industry	-8059
▁Signature	-8060
onance	-8061
▁lawful	-8062
▁preval	-8063
▁answers	-8064
▁disturb	-8065
▁terminated	-8066
stone	-8067
▁Cond	-8068
▁belonged	-8069
▁devotion	-8070
▁inclusion	-8071
ears	-8072
orge	-8073
▁solid	-8074
▁config	-8075
▁Germany	-8076
akrishnan	-8077
▁enforced	-8078
▁presently	-8079
amus	-8080
▁yes	-8081
▁eggs	-8082
▁Mysore	-8083
▁Despite	-8084
▁turnover	-8085
▁--	-8086
▁kg	-8087
▁pu	-8088
dess	-8089
chief	-8090
▁Sinha	-8091
▁forming	-8092
▁directors	-8093
▁discriminatory	-8094
uran	-8095
hetic	-8096
▁newly	-8097
▁resolve	-8098
ordination	-8099
▁contribute	-8100
▁deficiencies	-8101
dar	-8102
atel	-8103
▁Rai	-8104
plete	-8105
▁Know	-8106
▁empty	-8107
▁exempt	-8108
▁Persons	-8109
▁arranged	-8110
▁humanity	-8111
▁Rav	-8112
▁amp	-8113
▁bags	-8114
▁flag	-8115
▁lapse	-8116
▁quota	-8117
▁treas	-8118
▁remind	-8119
▁devices	-8120
▁pilgrim	-8121
EG	-8122
ds	-8123
iam	-8124
anath	-8125
▁Vish	-8126
▁spoke	-8127
icature	-8128
▁perused	-8129
▁Technical	-8130
zing	-8131
▁assume	-8132
▁concur	-8133
▁phrase	-8134
▁closely	-8135
▁Revision	-8136
▁communicated	-8137
▁manufacturer	-8138
iman	-8139
▁sad	-8140
▁folder	-8141
▁Without	-8142
▁territorial	-8143
iate	-8144
what	-8145
certain	-8146
▁violent	-8147
▁benefici	-8148
▁desirable	-8149
allel	-8150
▁adul	-8151
▁lect	-8152
▁monetary	-8153
▁Palestinian	-8154
urch	-8155
▁Somet	-8156
▁depth	-8157
▁mixed	-8158
▁simpl	-8159
▁Consult	-8160
▁filling	-8161
▁adverted	-8162
▁improper	-8163
▁intermedi	-8164
▁combination	-8165
▁PWs	-8166
▁patri	-8167
▁sympt	-8168
▁flower	-8169
▁promis	-8170
▁Narayan	-8171
▁execute	-8172
▁Speaking	-8173
▁restored	-8174
▁elaborate	-8175
▁Rab	-8176
▁Sand	-8177
▁Urdu	-8178
▁mercy	-8179
▁unlike	-8180
▁recourse	-8181
▁practition	-8182
▁OR	-8183
▁Mrs	-8184
▁reveal	-8185
igilance	-8186
▁adduced	-8187
▁safeguards	-8188
▁Ir	-8189
plus	-8190
▁AIC	-8191
▁infl	-8192
▁stored	-8193
uten	-8194
▁prose	-8195
▁Failed	-8196
▁Pandit	-8197
▁buyers	-8198
▁posted	-8199
▁largely	-8200
ius	-8201
▁smugg	-8202
▁forget	-8203
▁intest	-8204
▁leases	-8205
▁speedy	-8206
▁naturally	-8207
▁characteristics	-8208
pled	-8209
iques	-8210
▁chair	-8211
▁cryst	-8212
▁extensive	-8213
▁television	-8214
▁instruction	-8215
▁Agricultural	-8216
▁aspir	-8217
▁Agency	-8218
▁starts	-8219
▁reducing	-8220
ographical	-8221
▁personally	-8222
▁Bro	-8223
▁cog	-8224
▁outset	-8225
▁manager	-8226
▁offering	-8227
▁CL	-8228
▁coc	-8229
▁rub	-8230
▁Move	-8231
▁Text	-8232
▁erst	-8233
▁plots	-8234
▁uncle	-8235
▁Change	-8236
▁bright	-8237
▁replied	-8238
▁deficiency	-8239
▁evaluation	-8240
▁Mang	-8241
▁sake	-8242
▁Sales	-8243
▁pronounced	-8244
▁Venk	-8245
▁chest	-8246
▁degrees	-8247
▁undoubtedly	-8248
▁tom	-8249
▁Free	-8250
▁blow	-8251
▁discard	-8252
▁periods	-8253
▁Province	-8254
▁Jharkhand	-8255
▁discovery	-8256
▁injustice	-8257
▁occurring	-8258
▁attacks	-8259
▁profile	-8260
▁jurisprudence	-8261
licate	-8262
▁Vijay	-8263
▁prompt	-8264
▁reliefs	-8265
▁extending	-8266
▁regulated	-8267
rill	-8268
▁reserve	-8269
IDA	-8270
atre	-8271
▁Bet	-8272
▁mig	-8273
▁tab	-8274
▁vest	-8275
▁goals	-8276
istence	-8277
▁doubts	-8278
▁Emphasis	-8279
▁erstwhile	-8280
▁happiness	-8281
▁prospective	-8282
▁approximately	-8283
▁Web	-8284
▁diagn	-8285
▁embra	-8286
▁worker	-8287
▁beg	-8288
▁Five	-8289
▁boys	-8290
▁disk	-8291
▁Import	-8292
▁altered	-8293
▁summons	-8294
▁Mahabhar	-8295
▁Ahm	-8296
▁Dam	-8297
▁sav	-8298
▁border	-8299
▁Memorandum	-8300
icon	-8301
▁Sad	-8302
▁Dubai	-8303
▁allowances	-8304
▁Ga	-8305
▁cin	-8306
▁Local	-8307
▁elder	-8308
▁crisis	-8309
▁Societies	-8310
▁instances	-8311
imed	-8312
▁drama	-8313
theless	-8314
▁silent	-8315
▁publish	-8316
▁ven	-8317
▁culp	-8318
▁Jaipur	-8319
▁sending	-8320
▁empowers	-8321
▁residing	-8322
▁celebrated	-8323
ads	-8324
▁CD	-8325
▁Jam	-8326
▁index	-8327
▁agents	-8328
▁Circular	-8329
▁NS	-8330
▁Hand	-8331
rolment	-8332
▁felicitations	-8333
▁doll	-8334
▁DELHI	-8335
▁cultivation	-8336
VE	-8337
▁ND	-8338
care	-8339
▁era	-8340
▁lock	-8341
▁Chait	-8342
▁Urban	-8343
▁usage	-8344
uncture	-8345
▁abnorm	-8346
▁carries	-8347
▁attacked	-8348
▁commonly	-8349
▁heritage	-8350
▁uncertain	-8351
▁confirmation	-8352
▁simultaneously	-8353
obe	-8354
▁ran	-8355
ulous	-8356
▁quiet	-8357
▁tribal	-8358
▁talking	-8359
▁considers	-8360
oda	-8361
from	-8362
▁Din	-8363
useum	-8364
lihood	-8365
▁enemy	-8366
▁driven	-8367
▁masses	-8368
▁emerging	-8369
▁strongly	-8370
▁impartial	-8371
▁poly	-8372
▁teeth	-8373
chandra	-8374
▁Canada	-8375
artments	-8376
▁Brahmin	-8377
▁prevail	-8378
▁advocates	-8379
▁highlight	-8380
▁gap	-8381
▁ammun	-8382
▁Comment	-8383
▁incidents	-8384
cher	-8385
oyal	-8386
▁Thak	-8387
▁print	-8388
▁proud	-8389
itative	-8390
▁headed	-8391
▁Lucknow	-8392
▁testing	-8393
▁strategy	-8394
TI	-8395
iel	-8396
▁encro	-8397
▁pursue	-8398
▁realised	-8399
▁indicating	-8400
▁categorically	-8401
▁Oil	-8402
▁lessee	-8403
▁wrongly	-8404
▁imperial	-8405
▁peoples	-8406
▁marginal	-8407
▁somewhat	-8408
▁writings	-8409
▁classified	-8410
▁regulating	-8411
laws	-8412
▁lawyer	-8413
▁options	-8414
cles	-8415
▁fib	-8416
▁center	-8417
▁diplom	-8418
▁garden	-8419
▁emotional	-8420
▁Judicature	-8421
▁Rah	-8422
▁Death	-8423
▁silver	-8424
▁Persian	-8425
▁avoided	-8426
▁accorded	-8427
▁drinking	-8428
▁affidavits	-8429
▁circumstantial	-8430
▁BS	-8431
MENT	-8432
▁Max	-8433
endar	-8434
iverse	-8435
▁Innov	-8436
utenant	-8437
▁provin	-8438
▁visual	-8439
▁winding	-8440
▁Building	-8441
▁millions	-8442
▁Ach	-8443
empted	-8444
▁gender	-8445
▁assumption	-8446
osm	-8447
▁summar	-8448
▁Mineral	-8449
▁enjoyed	-8450
▁combined	-8451
▁contributed	-8452
abet	-8453
mation	-8454
▁cloth	-8455
atabase	-8456
▁suspic	-8457
asion	-8458
▁Real	-8459
anasia	-8460
▁Higher	-8461
▁varied	-8462
▁measuring	-8463
▁१७	-8464
alam	-8465
comm	-8466
▁embod	-8467
▁sites	-8468
▁widow	-8469
▁Junior	-8470
▁surplus	-8471
uthanasia	-8472
▁messages	-8473
▁altogether	-8474
▁Considering	-8475
lter	-8476
rapali	-8477
▁Patel	-8478
▁attachment	-8479
▁creat	-8480
▁grade	-8481
▁engage	-8482
▁Working	-8483
▁juvenile	-8484
uniary	-8485
▁seeds	-8486
▁launch	-8487
▁imagination	-8488
arr	-8489
ford	-8490
oser	-8491
▁NIT	-8492
▁USA	-8493
▁forty	-8494
▁shops	-8495
▁pleased	-8496
▁assessing	-8497
▁contractual	-8498
▁investigate	-8499
▁certificates	-8500
enger	-8501
▁inputs	-8502
▁Amrapali	-8503
▁excellence	-8504
▁Mor	-8505
▁sla	-8506
▁decade	-8507
▁Keeping	-8508
▁preserve	-8509
▁currently	-8510
▁Ca	-8511
▁Doct	-8512
▁Prim	-8513
▁abet	-8514
ardship	-8515
▁substances	-8516
dev	-8517
▁bh	-8518
iliar	-8519
ifiable	-8520
▁studied	-8521
inth	-8522
▁Tir	-8523
▁baby	-8524
▁Motor	-8525
▁links	-8526
▁scenario	-8527
▁Sl	-8528
▁brib	-8529
▁murd	-8530
▁Mines	-8531
▁ruling	-8532
▁obliged	-8533
▁writers	-8534
▁succeeded	-8535
▁Jawaharlal	-8536
▁Mach	-8537
▁orna	-8538
rative	-8539
▁finality	-8540
▁infection	-8541
▁solutions	-8542
anti	-8543
▁Guid	-8544
▁ring	-8545
▁utter	-8546
▁affects	-8547
▁digital	-8548
▁diverse	-8549
▁feelings	-8550
▁peaceful	-8551
IST	-8552
cum	-8553
jan	-8554
▁Hel	-8555
▁Lic	-8556
▁ego	-8557
▁Wind	-8558
▁elev	-8559
▁Bills	-8560
▁Binoy	-8561
▁sharp	-8562
▁shift	-8563
▁Question	-8564
▁inspired	-8565
got	-8566
▁MW	-8567
arer	-8568
ronics	-8569
ographic	-8570
▁Finally	-8571
▁fiction	-8572
Cs	-8573
xus	-8574
▁Jal	-8575
▁clin	-8576
▁gate	-8577
▁accum	-8578
▁fatal	-8579
rimonial	-8580
▁Bhushan	-8581
▁printed	-8582
ipped	-8583
▁losses	-8584
▁organs	-8585
▁declaring	-8586
erk	-8587
▁Mir	-8588
▁unex	-8589
▁alcoh	-8590
▁contrast	-8591
▁superann	-8592
▁attempted	-8593
ridge	-8594
▁Ibid	-8595
▁belie	-8596
▁catch	-8597
ribution	-8598
▁protecting	-8599
▁sentencing	-8600
▁flo	-8601
▁Applic	-8602
▁fruits	-8603
▁trouble	-8604
▁licensee	-8605
▁Sometimes	-8606
▁recognize	-8607
▁map	-8608
▁ended	-8609
▁Ramesh	-8610
▁educated	-8611
▁affection	-8612
▁compelled	-8613
▁attributed	-8614
▁Ranj	-8615
▁earning	-8616
,0	-8617
▁vent	-8618
ressal	-8619
▁overt	-8620
▁thorough	-8621
▁newspapers	-8622
▁airc	-8623
▁deriv	-8624
▁fract	-8625
▁suddenly	-8626
▁Investment	-8627
▁memorandum	-8628
▁corroborated	-8629
▁SU	-8630
▁Ori	-8631
▁stead	-8632
appropri	-8633
▁judicata	-8634
▁securing	-8635
▁beneficiaries	-8636
▁DW	-8637
▁pp	-8638
compl	-8639
night	-8640
iments	-8641
▁blocks	-8642
▁titled	-8643
▁comfort	-8644
▁contest	-8645
▁refusal	-8646
▁municipal	-8647
▁Regulatory	-8648
▁resignation	-8649
▁unb	-8650
atisf	-8651
eries	-8652
▁rememb	-8653
▁taught	-8654
▁royalty	-8655
▁hardship	-8656
▁juncture	-8657
▁consonance	-8658
▁transformation	-8659
▁acre	-8660
▁rough	-8661
▁initiate	-8662
▁sequence	-8663
▁Chancellor	-8664
▁Lieutenant	-8665
uter	-8666
▁apt	-8667
▁haz	-8668
▁vag	-8669
▁flex	-8670
▁Buddha	-8671
lamation	-8672
▁Conduct	-8673
▁reaction	-8674
▁gradually	-8675
▁livelihood	-8676
HAR	-8677
aza	-8678
▁Mugh	-8679
▁Treat	-8680
▁thick	-8681
▁bottom	-8682
▁tomorrow	-8683
▁Teh	-8684
▁Care	-8685
▁handic	-8686
▁Lordship	-8687
▁Maharaja	-8688
▁internet	-8689
▁admissions	-8690
athi	-8691
oman	-8692
▁Amb	-8693
▁Top	-8694
aband	-8695
endix	-8696
▁Turk	-8697
▁react	-8698
▁Estate	-8699
▁guided	-8700
▁Principles	-8701
isms	-8702
▁Sup	-8703
atell	-8704
▁Export	-8705
▁minute	-8706
▁familiar	-8707
▁concession	-8708
▁enhancement	-8709
anka	-8710
mail	-8711
▁Fac	-8712
▁debts	-8713
▁absent	-8714
▁Instead	-8715
▁destroyed	-8716
▁acknowledged	-8717
NL	-8718
zz	-8719
▁hurt	-8720
▁audio	-8721
▁divide	-8722
▁nomine	-8723
▁allotte	-8724
▁expired	-8725
▁commodity	-8726
raid	-8727
▁jew	-8728
ingly	-8729
▁Town	-8730
▁Upon	-8731
▁thrown	-8732
AB	-8733
▁nurs	-8734
▁Black	-8735
▁Integ	-8736
▁Sever	-8737
▁dwell	-8738
▁qualities	-8739
heb	-8740
iat	-8741
anga	-8742
▁apparently	-8743
▁Po	-8744
▁mr	-8745
▁enun	-8746
orters	-8747
▁Mount	-8748
▁incon	-8749
▁decline	-8750
▁Competent	-8751
▁pregnancy	-8752
▁permitting	-8753
▁MM	-8754
ajan	-8755
iency	-8756
▁Area	-8757
▁MSME	-8758
▁encouraged	-8759
▁supervision	-8760
▁surrounding	-8761
▁cam	-8762
▁realise	-8763
▁reversed	-8764
▁differently	-8765
▁transparency	-8766
▁Investigation	-8767
▁SP	-8768
▁Card	-8769
▁chrom	-8770
▁magaz	-8771
ailable	-8772
▁burning	-8773
▁TV	-8774
▁fo	-8775
▁cess	-8776
engers	-8777
▁AICTE	-8778
▁pressed	-8779
▁Cooperative	-8780
▁confidential	-8781
▁CJ	-8782
aria	-8783
anish	-8784
▁Cell	-8785
▁Swar	-8786
▁Mehta	-8787
▁Raman	-8788
▁retail	-8789
▁Accounts	-8790
▁forthwith	-8791
▁exceptions	-8792
▁Enterprises	-8793
▁Metropolitan	-8794
DI	-8795
▁sky	-8796
iders	-8797
▁Poll	-8798
▁Spec	-8799
▁Shiva	-8800
▁tested	-8801
▁fulfill	-8802
▁occupied	-8803
▁communications	-8804
addy	-8805
aken	-8806
▁via	-8807
▁passion	-8808
▁assuming	-8809
▁conformity	-8810
▁remarkable	-8811
atri	-8812
▁fav	-8813
▁bact	-8814
▁truly	-8815
▁ceased	-8816
▁discover	-8817
▁Assessment	-8818
▁demonstrate	-8819
uri	-8820
indra	-8821
▁logical	-8822
▁routine	-8823
▁prisoner	-8824
▁Secondary	-8825
▁transfere	-8826
▁enactments	-8827
ument	-8828
▁quash	-8829
▁resol	-8830
▁vulner	-8831
▁Original	-8832
▁southern	-8833
▁prevention	-8834
▁administered	-8835
▁DG	-8836
eenth	-8837
peror	-8838
▁images	-8839
▁computed	-8840
▁contesting	-8841
▁irrelevant	-8842
▁techniques	-8843
▁Polit	-8844
emption	-8845
istries	-8846
▁France	-8847
▁Reforms	-8848
▁Shankar	-8849
▁settings	-8850
▁depreciation	-8851
MM	-8852
book	-8853
aniel	-8854
▁pist	-8855
▁Hotel	-8856
▁Rupees	-8857
▁ending	-8858
▁NJ	-8859
tical	-8860
▁adding	-8861
▁speaks	-8862
▁scrutin	-8863
▁taxable	-8864
▁discount	-8865
▁claimants	-8866
asty	-8867
▁Ren	-8868
▁SPE	-8869
▁remit	-8870
duction	-8871
▁tendency	-8872
▁Ahmedabad	-8873
TS	-8874
cill	-8875
▁fired	-8876
▁aggrav	-8877
▁deleted	-8878
▁references	-8879
ords	-8880
wali	-8881
▁Mer	-8882
▁Agra	-8883
▁Apex	-8884
ortion	-8885
▁Green	-8886
▁Administrator	-8887
DP	-8888
ukh	-8889
vals	-8890
▁Muh	-8891
▁Forces	-8892
▁failing	-8893
▁samples	-8894
▁suspicion	-8895
ued	-8896
▁Br	-8897
mans	-8898
chant	-8899
isgarh	-8900
▁noise	-8901
▁League	-8902
▁administer	-8903
▁Look	-8904
▁signs	-8905
▁conting	-8906
▁legality	-8907
▁disabilities	-8908
odh	-8909
son	-8910
▁Fr	-8911
▁MB	-8912
asks	-8913
▁Major	-8914
▁Several	-8915
▁impress	-8916
oz	-8917
▁drew	-8918
▁Britain	-8919
▁inferior	-8920
▁Advocates	-8921
▁voluntarily	-8922
▁Kas	-8923
▁nerv	-8924
regard	-8925
▁glass	-8926
▁prote	-8927
▁Petitions	-8928
▁Phys	-8929
▁hect	-8930
rection	-8931
▁Sanjay	-8932
▁corner	-8933
▁discrep	-8934
▁Employees	-8935
▁productivity	-8936
lal	-8937
ussain	-8938
sections	-8939
▁Chaitanya	-8940
▁excluding	-8941
▁prominent	-8942
▁computation	-8943
▁discharging	-8944
ulpt	-8945
▁salt	-8946
▁Taking	-8947
▁learnt	-8948
▁solemn	-8949
▁comparison	-8950
achi	-8951
xual	-8952
▁tub	-8953
rition	-8954
▁incom	-8955
▁signal	-8956
▁happening	-8957
dh	-8958
lav	-8959
lor	-8960
▁Nir	-8961
inese	-8962
▁Radh	-8963
▁grew	-8964
▁Support	-8965
▁cognizable	-8966
▁distinguish	-8967
CA	-8968
▁Str	-8969
ariness	-8970
▁dispro	-8971
▁shifted	-8972
▁marriages	-8973
▁subscribe	-8974
▁Afghanistan	-8975
▁architecture	-8976
AND	-8977
ulg	-8978
igious	-8979
owners	-8980
▁Privy	-8981
▁disag	-8982
▁cement	-8983
▁extends	-8984
▁inevitable	-8985
inn	-8986
▁Ary	-8987
▁Bir	-8988
▁CIV	-8989
▁Han	-8990
▁Neg	-8991
▁spr	-8992
rants	-8993
▁Dhan	-8994
▁Start	-8995
▁Vedic	-8996
▁enorm	-8997
▁declar	-8998
▁sample	-8999
▁provisional	-9000
▁Que	-9001
▁row	-9002
▁dedu	-9003
▁subt	-9004
▁unsu	-9005
▁Russia	-9006
▁Controller	-9007
▁shot	-9008
▁tail	-9009
▁bridge	-9010
▁cutting	-9011
▁tourism	-9012
statement	-9013
▁diversity	-9014
▁enjoyment	-9015
▁remembered	-9016
▁Id	-9017
anim	-9018
cest	-9019
itud	-9020
▁Decl	-9021
coming	-9022
▁rulers	-9023
▁sevent	-9024
▁delayed	-9025
▁universe	-9026
▁prescribe	-9027
▁convenience	-9028
▁Madh	-9029
▁Table	-9030
▁Establ	-9031
▁Inquiry	-9032
▁remedies	-9033
▁sovereign	-9034
▁traditions	-9035
▁Examination	-9036
ICE	-9037
▁Earth	-9038
▁Global	-9039
▁possessed	-9040
▁adjustment	-9041
▁ine	-9042
▁ore	-9043
▁Band	-9044
▁Norm	-9045
▁ocean	-9046
resident	-9047
▁Departments	-9048
pura	-9049
▁Dra	-9050
▁Sil	-9051
▁pig	-9052
▁pled	-9053
▁rely	-9054
▁presumed	-9055
▁daughters	-9056
▁prisoners	-9057
▁frequently	-9058
eas	-9059
enn	-9060
▁od	-9061
quar	-9062
▁Anil	-9063
▁spend	-9064
Gen	-9065
ITION	-9066
▁margin	-9067
▁coloured	-9068
▁stations	-9069
respondent	-9070
▁mitigating	-9071
▁commodities	-9072
▁technological	-9073
gor	-9074
▁NH	-9075
▁bath	-9076
▁CIVIL	-9077
▁manip	-9078
adation	-9079
▁meters	-9080
▁heading	-9081
▁yourself	-9082
▁reputation	-9083
▁enterprises	-9084
▁Sure	-9085
▁dies	-9086
▁trem	-9087
▁Never	-9088
▁Letter	-9089
▁followers	-9090
▁cooperative	-9091
▁Confessional	-9092
ek	-9093
▁tro	-9094
▁Sita	-9095
▁Search	-9096
▁eastern	-9097
▁parallel	-9098
▁symptoms	-9099
▁purported	-9100
▁generating	-9101
▁compensatory	-9102
co	-9103
ij	-9104
oked	-9105
▁Doc	-9106
▁Mere	-9107
▁deny	-9108
▁Purch	-9109
▁vague	-9110
▁Likewise	-9111
▁elsewhere	-9112
▁convenient	-9113
▁achievement	-9114
▁strengthening	-9115
▁Cer	-9116
▁tune	-9117
▁spons	-9118
▁Hindust	-9119
▁Hinduism	-9120
▁adopting	-9121
▁averments	-9122
IG	-9123
▁Cro	-9124
▁edge	-9125
▁gained	-9126
▁amending	-9127
▁dividend	-9128
▁threatened	-9129
▁matrimonial	-9130
life	-9131
uster	-9132
▁myst	-9133
▁mines	-9134
▁prede	-9135
▁Maruti	-9136
▁breast	-9137
▁grants	-9138
▁prevented	-9139
▁constituting	-9140
how	-9141
apore	-9142
apped	-9143
atern	-9144
omination	-9145
▁respects	-9146
▁prevalent	-9147
▁engagement	-9148
ante	-9149
General	-9150
▁ancest	-9151
▁fly	-9152
▁nur	-9153
urved	-9154
ilation	-9155
▁repair	-9156
▁sculpt	-9157
▁cheques	-9158
▁convinced	-9159
▁relaxation	-9160
▁Rad	-9161
▁mah	-9162
▁View	-9163
ensing	-9164
umping	-9165
▁Prabh	-9166
▁bonds	-9167
▁votes	-9168
▁cattle	-9169
▁define	-9170
▁errors	-9171
▁Chinese	-9172
▁soldiers	-9173
▁assurance	-9174
▁interfered	-9175
iya	-9176
DUCT	-9177
dict	-9178
▁Fif	-9179
▁sew	-9180
▁backd	-9181
▁nexus	-9182
▁adults	-9183
▁saving	-9184
ogy	-9185
▁NJAC	-9186
isable	-9187
▁bears	-9188
itarian	-9189
▁cogent	-9190
uv	-9191
▁XIII	-9192
▁Model	-9193
▁drought	-9194
▁fighting	-9195
▁assignment	-9196
▁progressive	-9197
atal	-9198
▁resc	-9199
▁motiv	-9200
▁formulation	-9201
▁establishments	-9202
▁Opp	-9203
▁upl	-9204
▁urge	-9205
arshan	-9206
rolled	-9207
▁Steel	-9208
▁deten	-9209
▁unequ	-9210
▁Amount	-9211
▁assent	-9212
▁castes	-9213
▁flight	-9214
▁infinite	-9215
oul	-9216
▁Cy	-9217
lete	-9218
▁dear	-9219
▁holy	-9220
▁Paras	-9221
▁Pract	-9222
▁disse	-9223
▁Fourth	-9224
▁Indira	-9225
▁afraid	-9226
▁termed	-9227
▁Manipur	-9228
▁multipl	-9229
▁assailed	-9230
▁expertise	-9231
▁constantly	-9232
▁grievances	-9233
▁revisional	-9234
▁stipulates	-9235
▁requisition	-9236
ruing	-9237
▁Chow	-9238
▁Nand	-9239
▁wear	-9240
▁Asian	-9241
▁quote	-9242
ignment	-9243
▁Online	-9244
attisgarh	-9245
▁insolvency	-9246
▁Vas	-9247
itate	-9248
▁lake	-9249
▁poetic	-9250
▁narrated	-9251
▁northern	-9252
▁enrolment	-9253
▁technique	-9254
alal	-9255
▁cav	-9256
▁logic	-9257
▁solve	-9258
version	-9259
▁metres	-9260
▁vitiated	-9261
▁pecuniary	-9262
▁previously	-9263
▁EX	-9264
enda	-9265
▁fasc	-9266
▁mala	-9267
▁abund	-9268
▁stones	-9269
▁ceiling	-9270
▁younger	-9271
▁Disputes	-9272
▁explicit	-9273
onstruction	-9274
▁functional	-9275
▁illegality	-9276
ML	-9277
adur	-9278
oram	-9279
▁mel	-9280
tered	-9281
▁Fact	-9282
ulative	-9283
▁kilomet	-9284
▁disorder	-9285
TH	-9286
EST	-9287
▁IR	-9288
rete	-9289
▁Ele	-9290
▁Mac	-9291
▁gods	-9292
▁emerge	-9293
▁strange	-9294
▁ceremony	-9295
▁displayed	-9296
▁anticipatory	-9297
▁superannuation	-9298
▁ash	-9299
eding	-9300
▁dust	-9301
▁jobs	-9302
▁Nagpur	-9303
▁confers	-9304
▁executing	-9305
▁furnishing	-9306
▁ru	-9307
oure	-9308
▁Mut	-9309
▁Und	-9310
▁Save	-9311
▁gall	-9312
▁Mahal	-9313
▁verse	-9314
▁Patent	-9315
▁consec	-9316
▁Appendix	-9317
▁invested	-9318
▁invoking	-9319
▁suggests	-9320
▁pronounce	-9321
rup	-9322
▁forb	-9323
ustain	-9324
▁crowd	-9325
▁overlook	-9326
▁adversely	-9327
▁euthanasia	-9328
▁inadequate	-9329
▁dissolution	-9330
▁Mart	-9331
▁eman	-9332
▁Ahmad	-9333
▁incumb	-9334
▁radical	-9335
▁fairness	-9336
▁positions	-9337
▁remission	-9338
▁Environmental	-9339
▁decre	-9340
▁maxim	-9341
▁update	-9342
▁Teachers	-9343
▁emphasized	-9344
▁Directorate	-9345
ECT	-9346
▁Fil	-9347
▁Hal	-9348
▁Rak	-9349
▁nav	-9350
▁Need	-9351
▁homes	-9352
▁reader	-9353
▁verses	-9354
▁fixation	-9355
▁hospitals	-9356
kin	-9357
▁diet	-9358
orders	-9359
▁Plant	-9360
▁prince	-9361
▁undertakings	-9362
onal	-9363
▁Beg	-9364
▁hoc	-9365
▁hrs	-9366
▁Repe	-9367
▁greatly	-9368
▁managing	-9369
▁allocated	-9370
pus	-9371
▁Key	-9372
▁Mil	-9373
▁rat	-9374
▁myth	-9375
▁tube	-9376
▁remun	-9377
▁German	-9378
▁Mughal	-9379
▁Lokayukta	-9380
▁DC	-9381
▁Um	-9382
isal	-9383
cular	-9384
▁bidd	-9385
▁tong	-9386
isible	-9387
▁brand	-9388
▁infirm	-9389
▁nobody	-9390
▁utilised	-9391
▁reproduce	-9392
▁Employment	-9393
▁transparent	-9394
▁stakeholders	-9395
▁AW	-9396
▁BO	-9397
ogen	-9398
▁surve	-9399
▁muscle	-9400
▁conclusive	-9401
EB	-9402
▁EN	-9403
nect	-9404
▁mould	-9405
▁nearby	-9406
▁scales	-9407
▁omitted	-9408
yot	-9409
sues	-9410
wala	-9411
▁Lep	-9412
acing	-9413
▁Deep	-9414
▁Sush	-9415
aterial	-9416
▁rising	-9417
▁Perhaps	-9418
▁concepts	-9419
ugn	-9420
▁vic	-9421
▁White	-9422
▁atomic	-9423
▁opinions	-9424
▁stability	-9425
▁transferee	-9426
▁satisfactory	-9427
IP	-9428
▁quo	-9429
▁pipes	-9430
atories	-9431
▁Chrome	-9432
▁George	-9433
▁prayers	-9434
▁consequent	-9435
bir	-9436
▁Taj	-9437
ccess	-9438
enary	-9439
▁Benef	-9440
▁Caste	-9441
▁stick	-9442
iculture	-9443
▁Certain	-9444
▁contends	-9445
▁strategic	-9446
▁virtually	-9447
▁CW	-9448
▁Main	-9449
▁Point	-9450
▁fifth	-9451
▁horiz	-9452
▁survive	-9453
▁Petitioners	-9454
gue	-9455
iscal	-9456
▁witnessed	-9457
▁Settlement	-9458
umes	-9459
archy	-9460
▁Hard	-9461
▁lists	-9462
▁cancel	-9463
▁carbon	-9464
▁Command	-9465
▁suffers	-9466
eren	-9467
rent	-9468
▁bats	-9469
▁preparing	-9470
▁keen	-9471
atable	-9472
entions	-9473
▁yellow	-9474
▁Natural	-9475
▁guardian	-9476
we	-9477
aked	-9478
etal	-9479
▁Ang	-9480
▁Mish	-9481
▁NAME	-9482
▁Sidd	-9483
▁dress	-9484
▁enshr	-9485
▁departure	-9486
▁disqualified	-9487
ache	-9488
ayas	-9489
omous	-9490
power	-9491
▁Radi	-9492
▁Take	-9493
▁vehe	-9494
▁Enable	-9495
▁desert	-9496
▁accrued	-9497
▁anywhere	-9498
▁restraint	-9499
▁Subsequently	-9500
iae	-9501
itary	-9502
▁bind	-9503
▁shut	-9504
▁metal	-9505
▁sports	-9506
▁receipts	-9507
▁repeatedly	-9508
▁Hem	-9509
▁eve	-9510
▁vex	-9511
being	-9512
▁Farm	-9513
▁Flag	-9514
▁fever	-9515
▁quasi	-9516
▁cancer	-9517
▁discont	-9518
▁backdrop	-9519
▁Judiciary	-9520
▁disregard	-9521
▁excellent	-9522
▁Dictionary	-9523
▁initiation	-9524
BER	-9525
▁rom	-9526
▁Vehic	-9527
▁mandapa	-9528
▁suspended	-9529
▁villagers	-9530
▁subsidiary	-9531
▁NAB	-9532
▁shr	-9533
▁Bhat	-9534
▁reck	-9535
▁ties	-9536
▁Thakur	-9537
▁restore	-9538
▁hesitation	-9539
▁generations	-9540
▁Jur	-9541
arita	-9542
entle	-9543
▁Gora	-9544
▁Requ	-9545
▁pipe	-9546
erring	-9547
▁frust	-9548
▁freely	-9549
▁somebody	-9550
▁innovative	-9551
nty	-9552
▁Ro	-9553
▁Tour	-9554
aulted	-9555
ciated	-9556
▁hills	-9557
reshold	-9558
▁bodily	-9559
▁ignore	-9560
▁shaped	-9561
criptions	-9562
▁Register	-9563
▁ministers	-9564
▁collecting	-9565
▁discretionary	-9566
▁Kum	-9567
▁mathe	-9568
▁toler	-9569
▁praying	-9570
▁database	-9571
▁Meghalaya	-9572
▁delegation	-9573
▁resistance	-9574
▁Declaration	-9575
▁ped	-9576
▁Soft	-9577
advant	-9578
▁palace	-9579
▁Airport	-9580
▁anybody	-9581
▁dynamic	-9582
ustainable	-9583
▁indication	-9584
▁translated	-9585
▁Commissioners	-9586
oves	-9587
▁Ber	-9588
▁Cult	-9589
▁ambig	-9590
▁Action	-9591
▁utility	-9592
▁tribunals	-9593
▁experiences	-9594
▁apprehension	-9595
▁characteristic	-9596
eer	-9597
loc	-9598
▁htt	-9599
arathi	-9600
▁wheat	-9601
▁expectation	-9602
▁orientation	-9603
▁conservation	-9604
▁entrepreneur	-9605
▁supplementary	-9606
ESS	-9607
▁CHA	-9608
hered	-9609
▁pond	-9610
▁deity	-9611
▁supers	-9612
bh	-9613
▁AF	-9614
ayat	-9615
▁Naz	-9616
▁Liqu	-9617
▁buff	-9618
▁exceeds	-9619
▁inflicted	-9620
▁compelling	-9621
▁IA	-9622
atter	-9623
ignty	-9624
▁Turkey	-9625
▁eternal	-9626
▁imports	-9627
▁reconsid	-9628
▁committees	-9629
▁definitely	-9630
vol	-9631
▁touc	-9632
▁gravity	-9633
▁package	-9634
▁quarrel	-9635
▁perverse	-9636
▁Promotion	-9637
▁predecess	-9638
▁absorption	-9639
▁Aj	-9640
wide	-9641
▁tow	-9642
▁advise	-9643
▁matrix	-9644
itnesses	-9645
▁delight	-9646
▁pa	-9647
▁Scale	-9648
▁Sheikh	-9649
▁turning	-9650
▁Fundamental	-9651
illa	-9652
▁Armed	-9653
▁Level	-9654
▁fluid	-9655
▁prolong	-9656
▁therewith	-9657
▁subxadsection	-9658
lin	-9659
▁Cri	-9660
▁Lax	-9661
orted	-9662
▁misc	-9663
▁older	-9664
▁score	-9665
▁deaths	-9666
▁Subhash	-9667
▁intimate	-9668
▁commencing	-9669
▁signatures	-9670
▁achievements	-9671
HO	-9672
▁Nig	-9673
▁Siva	-9674
▁Vict	-9675
▁fate	-9676
asters	-9677
▁Terror	-9678
▁assert	-9679
▁Reasons	-9680
▁remarks	-9681
▁acquiring	-9682
▁realisation	-9683
▁impermissible	-9684
▁Ce	-9685
nsic	-9686
▁fle	-9687
rence	-9688
▁stim	-9689
▁Total	-9690
edience	-9691
▁urgent	-9692
▁Majesty	-9693
▁paramount	-9694
▁destination	-9695
▁legislations	-9696
ppa	-9697
husi	-9698
▁Gul	-9699
▁Cost	-9700
▁Shar	-9701
▁conqu	-9702
▁Vaishn	-9703
▁thread	-9704
ableness	-9705
▁laboure	-9706
▁Muhammad	-9707
▁supports	-9708
▁Knowledge	-9709
▁childhood	-9710
▁disadvant	-9711
▁charitable	-9712
zen	-9713
▁Did	-9714
▁seg	-9715
asted	-9716
eless	-9717
▁shad	-9718
terday	-9719
▁Appoint	-9720
▁deserve	-9721
▁earnest	-9722
▁realize	-9723
▁aircraft	-9724
▁Guidelines	-9725
▁perception	-9726
▁civilization	-9727
▁Radhakrishnan	-9728
bat	-9729
acious	-9730
▁owing	-9731
▁Neither	-9732
▁visiting	-9733
LR	-9734
▁ww	-9735
▁Unf	-9736
▁pound	-9737
▁sealed	-9738
▁confron	-9739
▁theatre	-9740
▁indigenous	-9741
▁deliberately	-9742
▁End	-9743
father	-9744
▁feels	-9745
▁sphere	-9746
hibition	-9747
▁advances	-9748
▁mandamus	-9749
▁verified	-9750
▁illegally	-9751
log	-9752
osc	-9753
iyar	-9754
▁Ray	-9755
▁www	-9756
▁lieu	-9757
▁node	-9758
▁Supra	-9759
▁decor	-9760
natural	-9761
▁sorrow	-9762
▁Resident	-9763
▁striking	-9764
▁financing	-9765
▁Securities	-9766
▁correspondence	-9767
▁cord	-9768
▁meat	-9769
▁treaty	-9770
▁silence	-9771
▁assertion	-9772
▁separated	-9773
CS	-9774
TC	-9775
usp	-9776
▁RD	-9777
▁NABARD	-9778
▁ideals	-9779
▁Current	-9780
▁PRODUCT	-9781
▁actively	-9782
▁expanded	-9783
▁licences	-9784
▁assessees	-9785
uj	-9786
▁pup	-9787
▁semi	-9788
▁pride	-9789
▁Valley	-9790
▁tempor	-9791
▁alcohol	-9792
▁describe	-9793
▁litigant	-9794
▁therefrom	-9795
▁fraudulent	-9796
▁vegetables	-9797
▁hun	-9798
▁Stock	-9799
▁films	-9800
▁towns	-9801
Company	-9802
▁enthusi	-9803
▁scholar	-9804
▁tourist	-9805
▁Chemical	-9806
▁arriving	-9807
▁electoral	-9808
▁repayment	-9809
▁independently	-9810
pa	-9811
ham	-9812
▁१८	-9813
icit	-9814
thal	-9815
▁gif	-9816
gence	-9817
▁Gree	-9818
▁Kann	-9819
▁lamp	-9820
▁vice	-9821
▁bread	-9822
▁shrine	-9823
▁variation	-9824
ym	-9825
▁ER	-9826
▁TRA	-9827
▁flour	-9828
▁width	-9829
▁surgery	-9830
▁Commerce	-9831
▁Islamist	-9832
UG	-9833
▁ICC	-9834
ounder	-9835
▁Chaudh	-9836
▁Recomm	-9837
▁Letters	-9838
▁proving	-9839
▁subsidy	-9840
▁entrance	-9841
▁confusion	-9842
▁Secretariat	-9843
▁Construction	-9844
▁continuously	-9845
cers	-9846
eros	-9847
▁Had	-9848
▁Sea	-9849
▁bye	-9850
▁swe	-9851
arest	-9852
iries	-9853
▁Drug	-9854
▁wing	-9855
scious	-9856
▁Grade	-9857
▁genus	-9858
▁Manual	-9859
▁utmost	-9860
▁victory	-9861
▁meantime	-9862
▁upholding	-9863
VC	-9864
▁GN	-9865
eches	-9866
▁degr	-9867
▁Liter	-9868
▁Mishra	-9869
▁assail	-9870
▁passes	-9871
lessness	-9872
▁beliefs	-9873
▁composite	-9874
▁accounting	-9875
▁Furthermore	-9876
▁furtherance	-9877
▁LA	-9878
▁Staff	-9879
▁facto	-9880
▁smooth	-9881
▁promulg	-9882
▁staying	-9883
▁tremend	-9884
▁assisted	-9885
▁amounting	-9886
▁endorsement	-9887
▁DE	-9888
▁assemb	-9889
▁worshi	-9890
ortunate	-9891
▁disappro	-9892
▁introduce	-9893
▁credibility	-9894
▁interaction	-9895
tak	-9896
▁RA	-9897
icable	-9898
▁resid	-9899
▁Partic	-9900
▁editor	-9901
▁notion	-9902
▁coupled	-9903
▁shelter	-9904
▁resorted	-9905
▁Vigilance	-9906
▁mountains	-9907
▁Limitation	-9908
▁enforceable	-9909
▁denomination	-9910
▁Nic	-9911
▁wire	-9912
▁fourt	-9913
▁Admitted	-9914
▁abnormal	-9915
▁calendar	-9916
▁electric	-9917
▁prohibit	-9918
▁accompany	-9919
▁computers	-9920
▁inconsist	-9921
▁Governance	-9922
▁passengers	-9923
▁conversation	-9924
econ	-9925
utors	-9926
▁Pursu	-9927
▁Consolid	-9928
▁controlling	-9929
▁unfortunate	-9930
▁arbitrariness	-9931
▁modifications	-9932
▁BY	-9933
▁Ke	-9934
izers	-9935
▁pool	-9936
▁brows	-9937
▁hidden	-9938
▁Bahadur	-9939
▁returning	-9940
avid	-9941
▁Hold	-9942
▁Mill	-9943
▁bulk	-9944
▁butt	-9945
▁knife	-9946
▁loose	-9947
arriage	-9948
▁Boards	-9949
▁fallen	-9950
▁innocence	-9951
▁Chhattisgarh	-9952
▁consistently	-9953
appa	-9954
▁Haz	-9955
oking	-9956
omach	-9957
▁Make	-9958
▁refuge	-9959
▁circuit	-9960
▁motorcy	-9961
▁torture	-9962
mist	-9963
ulla	-9964
ulsion	-9965
▁Indra	-9966
▁cards	-9967
▁chose	-9968
▁roots	-9969
▁unanim	-9970
quarters	-9971
▁Product	-9972
▁elephant	-9973
▁pictures	-9974
▁tendered	-9975
▁sovereignty	-9976
edia	-9977
want	-9978
▁vib	-9979
eshwar	-9980
▁cater	-9981
▁Basava	-9982
▁eating	-9983
▁models	-9984
▁imagine	-9985
▁judgement	-9986
▁experiment	-9987
gal	-9988
▁ma	-9989
▁Aur	-9990
▁Claim	-9991
ologist	-9992
▁kingdom	-9993
▁Ramayana	-9994
▁apprehend	-9995
▁deliberate	-9996
▁inspiration	-9997
▁Ba	-9998
▁IO	-9999
▁dw	-10000
▁Mean	-10001
▁Pack	-10002
▁draf	-10003
▁pock	-10004
ipping	-10005
stated	-10006
utical	-10007
▁inequ	-10008
▁Orders	-10009
▁deploy	-10010
▁dominant	-10011
▁oriented	-10012
▁programs	-10013
▁ascertained	-10014
▁Ku	-10015
atra	-10016
▁thr	-10017
▁wick	-10018
▁Malay	-10019
▁incomp	-10020
▁Nariman	-10021
▁overcome	-10022
▁pregnant	-10023
▁vehement	-10024
▁Van	-10025
▁Coal	-10026
▁Mess	-10027
▁Rani	-10028
▁Ghosh	-10029
▁grain	-10030
▁Bhagat	-10031
▁Harish	-10032
▁deducted	-10033
▁secondly	-10034
▁Arunachal	-10035
▁Admittedly	-10036
▁contending	-10037
▁exhaustive	-10038
down	-10039
oshi	-10040
ainted	-10041
▁risks	-10042
▁patron	-10043
▁onwards	-10044
▁ignorance	-10045
▁manufacturers	-10046
ria	-10047
▁lad	-10048
▁Math	-10049
ughter	-10050
▁weigh	-10051
▁propose	-10052
▁spectrum	-10053
▁investigations	-10054
pad	-10055
▁dh	-10056
ixed	-10057
▁Has	-10058
avior	-10059
gical	-10060
lessly	-10061
fulness	-10062
▁cinema	-10063
▁Marathi	-10064
▁removing	-10065
▁boundaries	-10066
ktop	-10067
▁Alm	-10068
inety	-10069
▁flows	-10070
▁inhab	-10071
▁modify	-10072
▁helping	-10073
▁violate	-10074
▁operates	-10075
▁comprised	-10076
TP	-10077
▁Bul	-10078
▁rhy	-10079
▁split	-10080
▁disbur	-10081
▁Payment	-10082
▁harmful	-10083
▁expedient	-10084
▁threshold	-10085
▁affirmative	-10086
▁governmental	-10087
eem	-10088
rich	-10089
▁sed	-10090
▁Jail	-10091
▁faces	-10092
▁penet	-10093
▁truck	-10094
▁invite	-10095
▁Buddhist	-10096
gaon	-10097
▁Kav	-10098
inter	-10099
nagar	-10100
▁lung	-10101
▁Prior	-10102
▁Times	-10103
▁skilled	-10104
▁untouch	-10105
▁Advisory	-10106
▁enormous	-10107
▁emphasised	-10108
▁clarification	-10109
▁disproportion	-10110
▁SI	-10111
odal	-10112
▁Sit	-10113
▁synt	-10114
▁unus	-10115
orious	-10116
▁algor	-10117
▁Region	-10118
▁primacy	-10119
▁defeated	-10120
▁incomplete	-10121
▁physically	-10122
▁photographs	-10123
▁Legislatures	-10124
idal	-10125
abhai	-10126
uated	-10127
▁Bhut	-10128
▁neut	-10129
▁estimate	-10130
▁increases	-10131
▁reporting	-10132
onut	-10133
pass	-10134
▁Gas	-10135
▁pul	-10136
orily	-10137
▁Sank	-10138
▁leve	-10139
▁Short	-10140
▁conced	-10141
itionally	-10142
▁Preamble	-10143
▁finished	-10144
▁slightly	-10145
▁completing	-10146
▁derivative	-10147
▁implications	-10148
NAME	-10149
▁mad	-10150
▁rej	-10151
chnama	-10152
stream	-10153
▁reven	-10154
▁listen	-10155
▁repugn	-10156
▁explosives	-10157
▁jurisdictional	-10158
▁Paul	-10159
▁uphold	-10160
▁Freedom	-10161
▁annexed	-10162
▁rapidly	-10163
▁conveyed	-10164
▁disturbed	-10165
ste	-10166
▁Imp	-10167
opard	-10168
wealth	-10169
▁rarest	-10170
▁Monitor	-10171
▁integration	-10172
▁revolutionary	-10173
▁RO	-10174
▁Saudi	-10175
▁availed	-10176
▁desires	-10177
OP	-10178
▁Anal	-10179
▁boat	-10180
▁peas	-10181
▁grace	-10182
▁paddy	-10183
▁Tariff	-10184
▁honest	-10185
▁Centres	-10186
▁ensured	-10187
cellaneous	-10188
▁answering	-10189
ipp	-10190
▁Dip	-10191
▁cosm	-10192
▁ruler	-10193
▁stuff	-10194
▁tooth	-10195
▁Unless	-10196
▁trials	-10197
▁Objects	-10198
▁enacting	-10199
▁mathemat	-10200
▁experienced	-10201
will	-10202
▁curt	-10203
▁Labor	-10204
iversary	-10205
▁confine	-10206
▁Pursuant	-10207
▁generate	-10208
▁hundreds	-10209
▁Organization	-10210
kind	-10211
▁bars	-10212
▁Citiz	-10213
▁prest	-10214
▁Punjabi	-10215
▁extingu	-10216
▁radiation	-10217
▁contraband	-10218
umin	-10219
▁Sem	-10220
▁vig	-10221
▁Proc	-10222
▁bold	-10223
▁stab	-10224
▁thin	-10225
▁wheel	-10226
▁Allowance	-10227
▁enshrined	-10228
▁prescribes	-10229
▁Saw	-10230
▁Fire	-10231
▁feas	-10232
urement	-10233
▁Arabic	-10234
▁player	-10235
locutory	-10236
▁Guarant	-10237
▁colonial	-10238
▁realized	-10239
▁utilized	-10240
▁questioning	-10241
bre	-10242
iter	-10243
▁Rece	-10244
▁worse	-10245
▁Shaikh	-10246
▁afresh	-10247
▁implies	-10248
▁balanced	-10249
▁coverage	-10250
▁exempted	-10251
compliance	-10252
▁accountability	-10253
wood	-10254
▁Ult	-10255
▁Diff	-10256
▁Mall	-10257
▁plug	-10258
▁demol	-10259
▁Expert	-10260
▁Safety	-10261
▁golden	-10262
▁exercises	-10263
▁interface	-10264
▁Deposition	-10265
▁conventional	-10266
END	-10267
ITY	-10268
cel	-10269
itya	-10270
pless	-10271
▁pair	-10272
▁genes	-10273
▁revers	-10274
▁serial	-10275
▁produces	-10276
▁complicated	-10277
▁introducing	-10278
ARY	-10279
akk	-10280
ruddin	-10281
▁Access	-10282
▁audience	-10283
▁organism	-10284
▁reserves	-10285
▁automatic	-10286
▁preventing	-10287
▁travelling	-10288
oty	-10289
ahan	-10290
apati	-10291
verting	-10292
▁firmly	-10293
▁delinqu	-10294
▁islands	-10295
▁verdict	-10296
▁province	-10297
▁aspirations	-10298
▁hal	-10299
▁posed	-10300
▁turns	-10301
▁genetic	-10302
▁intense	-10303
▁organic	-10304
▁obstruct	-10305
▁operated	-10306
▁precious	-10307
▁associations	-10308
var	-10309
▁Basic	-10310
▁Lanka	-10311
▁alias	-10312
▁novels	-10313
▁Ayurved	-10314
▁Various	-10315
▁anteced	-10316
▁biological	-10317
▁electrical	-10318
▁meaningful	-10319
ucid	-10320
▁Yus	-10321
▁Gita	-10322
▁alleging	-10323
▁weakness	-10324
▁Recommend	-10325
▁pronouncement	-10326
▁FO	-10327
rous	-10328
▁Guard	-10329
▁misuse	-10330
▁summer	-10331
▁goddess	-10332
yer	-10333
▁Next	-10334
▁delete	-10335
▁invoke	-10336
▁Corporate	-10337
▁collaboration	-10338
▁Ap	-10339
oung	-10340
▁Gar	-10341
▁Lake	-10342
▁gang	-10343
▁tala	-10344
akhand	-10345
▁Noida	-10346
▁acute	-10347
▁Market	-10348
▁serves	-10349
▁credited	-10350
▁Federation	-10351
▁requesting	-10352
▁geographical	-10353
▁proportionality	-10354
DC	-10355
iram	-10356
ludes	-10357
▁Suresh	-10358
▁reverse	-10359
▁attorney	-10360
▁basically	-10361
▁tremendous	-10362
▁vulnerable	-10363
zy	-10364
rises	-10365
▁busy	-10366
▁cant	-10367
▁Appro	-10368
▁Instru	-10369
▁devoted	-10370
▁plastic	-10371
▁Standard	-10372
▁apposite	-10373
▁locations	-10374
▁guarantees	-10375
▁Infrastructure	-10376
afi	-10377
utch	-10378
rogen	-10379
▁Star	-10380
▁diam	-10381
▁slum	-10382
▁Yusuf	-10383
▁angle	-10384
▁wings	-10385
▁worry	-10386
▁Reports	-10387
▁library	-10388
▁enhancing	-10389
resentation	-10390
▁attendance	-10391
▁Mahabharata	-10392
▁entitlement	-10393
▁representations	-10394
▁impe	-10395
▁clock	-10396
▁holid	-10397
▁closer	-10398
▁matern	-10399
▁Against	-10400
▁nominee	-10401
▁expeditiously	-10402
Ms	-10403
asp	-10404
▁vim	-10405
owing	-10406
▁circle	-10407
▁mortem	-10408
▁native	-10409
▁tribes	-10410
▁Washing	-10411
▁decides	-10412
▁mandates	-10413
▁terrorists	-10414
▁participating	-10415
oi	-10416
hesh	-10417
▁DDA	-10418
▁Four	-10419
▁burnt	-10420
▁adhere	-10421
▁inflam	-10422
▁slowly	-10423
▁specim	-10424
▁stomach	-10425
▁alteration	-10426
▁healthcare	-10427
▁suppression	-10428
oma	-10429
▁IX	-10430
oding	-10431
▁News	-10432
▁inad	-10433
ivided	-10434
▁intra	-10435
▁Modern	-10436
▁Academy	-10437
▁Quality	-10438
▁doubtful	-10439
▁entirety	-10440
▁historic	-10441
▁describes	-10442
▁mechanical	-10443
▁perfection	-10444
▁restoration	-10445
▁remuneration	-10446
aki	-10447
▁Kol	-10448
▁tor	-10449
▁Indo	-10450
▁menu	-10451
▁prox	-10452
atious	-10453
▁Obama	-10454
▁Scient	-10455
▁purity	-10456
▁decreed	-10457
▁projected	-10458
▁successor	-10459
onic	-10460
rian	-10461
▁Ess	-10462
▁taxing	-10463
▁cleared	-10464
▁provider	-10465
▁negotiations	-10466
▁OS	-10467
izer	-10468
▁PET	-10469
force	-10470
▁Empire	-10471
economic	-10472
▁feeding	-10473
▁flowing	-10474
▁Computer	-10475
▁reviewed	-10476
▁comprises	-10477
▁Panchayats	-10478
nic	-10479
rage	-10480
▁AOR	-10481
oting	-10482
▁Wakf	-10483
▁nose	-10484
▁Broad	-10485
▁fiscal	-10486
▁chromos	-10487
▁players	-10488
rey	-10489
eded	-10490
ighth	-10491
▁rose	-10492
▁Domin	-10493
▁march	-10494
atellite	-10495
▁Discipl	-10496
▁falsely	-10497
▁Australian	-10498
▁calculation	-10499
ECH	-10500
▁HO	-10501
onies	-10502
▁MBBS	-10503
▁gramm	-10504
▁Rakesh	-10505
▁harvest	-10506
▁savings	-10507
▁pointing	-10508
▁addresses	-10509
▁conception	-10510
▁entrepreneurs	-10511
▁ft	-10512
▁na	-10513
omas	-10514
▁Kor	-10515
▁mic	-10516
▁pow	-10517
▁Tuls	-10518
▁insu	-10519
making	-10520
▁modes	-10521
▁tasks	-10522
▁handle	-10523
▁Islands	-10524
▁Leprosy	-10525
▁disagree	-10526
▁Uttarakhand	-10527
FA	-10528
PP	-10529
hal	-10530
ugu	-10531
ayed	-10532
oppel	-10533
▁brut	-10534
ivable	-10535
▁Amrit	-10536
▁carved	-10537
▁compan	-10538
▁wrongful	-10539
▁incumbent	-10540
▁congratulate	-10541
▁continuation	-10542
ino	-10543
hips	-10544
▁desp	-10545
▁hire	-10546
▁Shyam	-10547
▁broadly	-10548
▁organisms	-10549
▁everywhere	-10550
▁Commonwealth	-10551
ua	-10552
▁HT	-10553
ador	-10554
riers	-10555
▁Adjud	-10556
▁pharm	-10557
viously	-10558
▁vessels	-10559
▁networks	-10560
▁presents	-10561
▁Singapore	-10562
kes	-10563
▁Amar	-10564
▁COUR	-10565
angers	-10566
▁brown	-10567
▁indef	-10568
▁lover	-10569
▁plate	-10570
▁plural	-10571
▁Compensation	-10572
agues	-10573
▁Phot	-10574
▁Medic	-10575
▁recip	-10576
▁Create	-10577
▁inject	-10578
▁merger	-10579
▁Greater	-10580
▁streams	-10581
▁immunity	-10582
▁profound	-10583
▁speeches	-10584
▁supplies	-10585
▁Washington	-10586
▁encouraging	-10587
UST	-10588
urd	-10589
was	-10590
▁Log	-10591
▁Ravi	-10592
▁fash	-10593
▁passive	-10594
▁portions	-10595
▁sympathy	-10596
▁recognise	-10597
▁relatively	-10598
▁stipulation	-10599
▁practitioner	-10600
▁Unfortunately	-10601
▁corroboration	-10602
itime	-10603
lines	-10604
matter	-10605
▁Royal	-10606
▁maybe	-10607
▁overw	-10608
▁allied	-10609
▁differ	-10610
▁empire	-10611
▁parity	-10612
▁reward	-10613
▁spouse	-10614
▁worthy	-10615
▁firstly	-10616
▁mailing	-10617
▁machines	-10618
▁multiply	-10619
▁Love	-10620
▁Vive	-10621
▁Sahib	-10622
▁Young	-10623
ATIONAL	-10624
▁Brahman	-10625
▁denomin	-10626
▁premise	-10627
▁infirmity	-10628
▁prospects	-10629
▁Organisation	-10630
FC	-10631
▁Arj	-10632
▁Bhai	-10633
▁bones	-10634
▁Banking	-10635
▁entitle	-10636
▁readers	-10637
▁continuance	-10638
▁reinstatement	-10639
ulus	-10640
▁Sang	-10641
▁inex	-10642
▁alarm	-10643
▁bride	-10644
▁facet	-10645
▁sport	-10646
manship	-10647
▁grains	-10648
iability	-10649
▁Whereas	-10650
▁addressing	-10651
▁acknowledge	-10652
▁1	-10653
▁Nas	-10654
arkar	-10655
urers	-10656
▁Clear	-10657
▁Sunil	-10658
▁click	-10659
▁disci	-10660
▁seller	-10661
▁visits	-10662
▁defects	-10663
▁Juvenile	-10664
▁irregularity	-10665
acco	-10666
▁PAN	-10667
▁Hall	-10668
▁Wild	-10669
▁seal	-10670
ridges	-10671
▁lowest	-10672
▁sheets	-10673
▁Edition	-10674
▁believes	-10675
▁printing	-10676
▁Political	-10677
▁Standards	-10678
▁participants	-10679
tar	-10680
▁AG	-10681
anes	-10682
▁Quran	-10683
▁nerve	-10684
▁analysed	-10685
▁rainfall	-10686
▁surcharge	-10687
▁incentives	-10688
▁communicate	-10689
▁Mc	-10690
acle	-10691
hari	-10692
▁Jer	-10693
▁Old	-10694
chron	-10695
▁Body	-10696
▁Sovi	-10697
▁keeps	-10698
▁lingu	-10699
▁spell	-10700
▁tongue	-10701
▁reflects	-10702
▁constituent	-10703
▁prejudicial	-10704
lock	-10705
▁ACT	-10706
idency	-10707
▁Rajesh	-10708
▁bigger	-10709
▁depict	-10710
▁mosque	-10711
▁classical	-10712
▁Innovation	-10713
▁enunciated	-10714
▁adjudicating	-10715
▁contradictions	-10716
eli	-10717
▁Jo	-10718
IDAI	-10719
prin	-10720
▁ger	-10721
▁Play	-10722
▁vacc	-10723
▁Bhagw	-10724
▁Check	-10725
▁secre	-10726
▁clarify	-10727
▁unemploy	-10728
▁vehemently	-10729
▁psychological	-10730
inc	-10731
▁Dy	-10732
emat	-10733
sett	-10734
▁cha	-10735
▁snow	-10736
▁Champ	-10737
▁Mills	-10738
▁accus	-10739
▁condem	-10740
judicial	-10741
▁inviting	-10742
▁overwhel	-10743
▁dimension	-10744
HR	-10745
uni	-10746
yar	-10747
iven	-10748
▁Get	-10749
▁IIT	-10750
▁ice	-10751
▁urg	-10752
▁Light	-10753
▁rests	-10754
writing	-10755
▁timely	-10756
▁versus	-10757
▁adjourn	-10758
▁pertains	-10759
▁yesterday	-10760
▁interfering	-10761
▁realization	-10762
▁constructive	-10763
▁CG	-10764
▁DO	-10765
PEAL	-10766
PTER	-10767
orry	-10768
plex	-10769
urya	-10770
▁PPA	-10771
▁adm	-10772
▁suo	-10773
▁Amit	-10774
▁shed	-10775
▁tack	-10776
▁Grant	-10777
▁Price	-10778
▁accur	-10779
▁loyal	-10780
▁upset	-10781
▁Speech	-10782
▁arrival	-10783
▁chamber	-10784
▁Personal	-10785
▁mutually	-10786
▁Sucharita	-10787
▁medicines	-10788
▁varieties	-10789
▁Ministries	-10790
▁Institution	-10791
kha	-10792
▁je	-10793
point	-10794
▁Bush	-10795
▁pace	-10796
▁scan	-10797
▁UIDAI	-10798
▁Jagann	-10799
▁Jewish	-10800
▁Nation	-10801
▁heavily	-10802
▁Referring	-10803
▁phenomenon	-10804
▁arbitrators	-10805
pes	-10806
adra	-10807
itra	-10808
▁Bra	-10809
▁easier	-10810
▁thrust	-10811
▁Contempt	-10812
▁Software	-10813
▁consumed	-10814
▁canvassed	-10815
▁contradict	-10816
▁motorcycle	-10817
pay	-10818
avas	-10819
cive	-10820
itle	-10821
pent	-10822
▁Yam	-10823
▁gla	-10824
▁rif	-10825
▁trig	-10826
▁Audit	-10827
▁teleg	-10828
▁spring	-10829
▁violates	-10830
▁publicity	-10831
▁RE	-10832
ipher	-10833
▁Educ	-10834
▁puts	-10835
▁Dwark	-10836
▁pillars	-10837
▁helpless	-10838
▁levelled	-10839
▁Oh	-10840
▁Help	-10841
▁bias	-10842
▁adjusted	-10843
▁assaulted	-10844
▁demonstrated	-10845
▁significantly	-10846
Rs	-10847
his	-10848
athan	-10849
▁Gaur	-10850
▁ther	-10851
▁tied	-10852
▁stars	-10853
▁musical	-10854
▁walking	-10855
▁charging	-10856
▁mandated	-10857
▁promised	-10858
▁preserved	-10859
▁magistrate	-10860
▁increasingly	-10861
▁AK	-10862
▁vo	-10863
▁Lad	-10864
osity	-10865
▁Maur	-10866
▁sear	-10867
▁Vivek	-10868
▁brill	-10869
▁Cannot	-10870
▁Journal	-10871
▁whereof	-10872
▁Japanese	-10873
▁Rajendra	-10874
▁hectares	-10875
▁contemplates	-10876
cut	-10877
hew	-10878
iac	-10879
etan	-10880
ulum	-10881
▁ages	-10882
▁ster	-10883
▁thro	-10884
▁doors	-10885
▁drain	-10886
▁instal	-10887
▁manual	-10888
▁Cricket	-10889
▁exposed	-10890
▁farming	-10891
▁relationships	-10892
kim	-10893
osa	-10894
▁CE	-10895
▁ICT	-10896
▁Block	-10897
▁accel	-10898
▁......	-10899
▁outlook	-10900
▁partially	-10901
▁Commissions	-10902
▁Establishment	-10903
eper	-10904
▁tam	-10905
imbur	-10906
▁agenda	-10907
graduate	-10908
▁joining	-10909
▁complained	-10910
▁institutes	-10911
▁Bai	-10912
▁Bhav	-10913
▁drum	-10914
▁Madan	-10915
▁shell	-10916
▁tells	-10917
▁button	-10918
▁condol	-10919
▁eleven	-10920
▁incrim	-10921
▁winter	-10922
▁Primary	-10923
▁briefly	-10924
▁segment	-10925
▁freedoms	-10926
▁surprise	-10927
▁Directive	-10928
▁associate	-10929
▁colleagues	-10930
▁intimation	-10931
▁amalgamation	-10932
▁sufficiently	-10933
agn	-10934
upee	-10935
▁bore	-10936
▁Nanak	-10937
ffective	-10938
istrates	-10939
▁Minimum	-10940
▁Proceed	-10941
▁batsman	-10942
▁biggest	-10943
▁horizon	-10944
▁fourteen	-10945
▁factories	-10946
▁submitting	-10947
▁reconsideration	-10948
▁FA	-10949
▁Abs	-10950
ighed	-10951
▁epic	-10952
▁fost	-10953
▁Truth	-10954
▁miles	-10955
▁sweep	-10956
▁APPEAL	-10957
▁damaged	-10958
▁telling	-10959
ciliation	-10960
▁Resource	-10961
▁darkness	-10962
▁attractive	-10963
▁ITR	-10964
xygen	-10965
isputed	-10966
▁Deemed	-10967
▁bought	-10968
▁massive	-10969
▁mischief	-10970
▁promoter	-10971
▁Obviously	-10972
▁discontin	-10973
▁travelled	-10974
▁advancement	-10975
URE	-10976
▁DV	-10977
▁kh	-10978
olly	-10979
▁fed	-10980
▁gest	-10981
▁glad	-10982
▁icon	-10983
▁jeep	-10984
placed	-10985
▁Mahade	-10986
▁farmer	-10987
▁abolition	-10988
▁permanently	-10989
agon	-10990
itial	-10991
osted	-10992
utosh	-10993
erving	-10994
▁Firstly	-10995
▁closure	-10996
▁PETITION	-10997
▁concrete	-10998
▁expressing	-10999
▁concurrence	-11000
▁legislatures	-11001
▁CH	-11002
ogram	-11003
▁trek	-11004
▁Satish	-11005
▁superv	-11006
▁dropped	-11007
▁inspire	-11008
▁insisted	-11009
▁Pollution	-11010
▁approaches	-11011
▁attributable	-11012
▁Til	-11013
reams	-11014
▁Item	-11015
▁Sukh	-11016
ellery	-11017
▁reass	-11018
▁shoot	-11019
▁Liquid	-11020
▁infect	-11021
▁distress	-11022
▁Provisions	-11023
fl	-11024
rh	-11025
▁Pud	-11026
andra	-11027
nasty	-11028
▁Nare	-11029
▁palm	-11030
▁scar	-11031
rossed	-11032
▁noble	-11033
▁Soviet	-11034
▁shadow	-11035
▁CHAPTER	-11036
▁renewed	-11037
▁breaking	-11038
▁enclosed	-11039
▁examinations	-11040
agra	-11041
▁Mant	-11042
▁Media	-11043
▁Thank	-11044
▁begun	-11045
▁trace	-11046
▁Govind	-11047
▁Relief	-11048
▁Screen	-11049
▁bitter	-11050
▁lending	-11051
▁refusing	-11052
▁offending	-11053
▁deductions	-11054
▁PL	-11055
haran	-11056
▁Sult	-11057
▁Tata	-11058
▁memb	-11059
▁tall	-11060
▁erect	-11061
▁texts	-11062
▁Supply	-11063
▁overse	-11064
▁Benches	-11065
▁counted	-11066
▁nearest	-11067
▁envisages	-11068
▁preservation	-11069
UK	-11070
VER	-11071
▁Ox	-11072
aras	-11073
matic	-11074
▁Link	-11075
▁meal	-11076
▁mood	-11077
licity	-11078
▁Draft	-11079
▁flats	-11080
▁Lahore	-11081
▁Regard	-11082
▁Within	-11083
▁forgot	-11084
▁united	-11085
▁remanded	-11086
▁shoulder	-11087
▁accidents	-11088
▁exchanges	-11089
▁processed	-11090
▁administrator	-11091
▁wil	-11092
▁Abdu	-11093
▁Ragh	-11094
▁drag	-11095
ponent	-11096
▁Queen	-11097
▁Respon	-11098
▁Thomas	-11099
▁encoun	-11100
▁studying	-11101
▁retrospect	-11102
met	-11103
▁py	-11104
isan	-11105
▁Call	-11106
▁Soon	-11107
▁fron	-11108
▁pest	-11109
itudes	-11110
▁minim	-11111
▁plane	-11112
tension	-11113
▁Initial	-11114
▁mankind	-11115
▁literacy	-11116
▁subscrib	-11117
▁everybody	-11118
▁inability	-11119
▁philosoph	-11120
▁precisely	-11121
kal	-11122
▁PD	-11123
atta	-11124
kers	-11125
oult	-11126
▁DAY	-11127
▁Miss	-11128
▁sums	-11129
▁Click	-11130
▁Odish	-11131
▁pistol	-11132
▁talent	-11133
▁vendor	-11134
▁absorbed	-11135
▁appended	-11136
▁equation	-11137
▁Resources	-11138
▁multiplier	-11139
▁successive	-11140
▁substitution	-11141
▁Nam	-11142
▁Camp	-11143
▁Narm	-11144
▁Term	-11145
aceutical	-11146
▁dramatic	-11147
▁sessions	-11148
▁demanding	-11149
▁retention	-11150
▁vexatious	-11151
▁concluding	-11152
▁Prohibition	-11153
▁Consolidated	-11154
▁configuration	-11155
▁abd	-11156
▁Azad	-11157
▁rash	-11158
▁Track	-11159
▁canal	-11160
▁attach	-11161
▁intend	-11162
▁invari	-11163
▁therap	-11164
▁emerges	-11165
▁hereafter	-11166
▁prosecuted	-11167
▁Presidential	-11168
▁investigated	-11169
emen	-11170
gedy	-11171
odox	-11172
▁Cau	-11173
▁Poly	-11174
▁Rate	-11175
▁intu	-11176
▁disob	-11177
▁Status	-11178
▁Telugu	-11179
▁frivol	-11180
▁footing	-11181
▁contacts	-11182
▁Badruddin	-11183
▁Monitoring	-11184
five	-11185
soon	-11186
▁Unt	-11187
▁WIT	-11188
▁Fast	-11189
▁Thir	-11190
▁merc	-11191
▁yard	-11192
▁decis	-11193
▁repro	-11194
▁topic	-11195
▁picked	-11196
▁enrolled	-11197
▁mentions	-11198
▁delinquent	-11199
▁favourable	-11200
▁landowners	-11201
▁xi	-11202
▁APP	-11203
▁gro	-11204
▁Arms	-11205
renades	-11206
▁receives	-11207
▁chemicals	-11208
▁contested	-11209
▁ornaments	-11210
▁functionaries	-11211
▁Chak	-11212
▁hunt	-11213
▁Father	-11214
▁Sikkim	-11215
▁equals	-11216
▁identifying	-11217
▁probability	-11218
▁Om	-11219
acent	-11220
▁Crown	-11221
▁Abdull	-11222
▁Bachan	-11223
▁corpus	-11224
▁Deposit	-11225
▁Perform	-11226
▁focused	-11227
indranath	-11228
▁respected	-11229
▁Provincial	-11230
▁discussing	-11231
CH	-11232
oa	-11233
das	-11234
▁PE	-11235
▁pm	-11236
wing	-11237
▁Cle	-11238
▁kit	-11239
▁shap	-11240
▁Video	-11241
▁Odisha	-11242
fficiency	-11243
▁Registry	-11244
▁abstract	-11245
▁sacrific	-11246
▁Conditions	-11247
▁conditional	-11248
▁practically	-11249
▁transmitted	-11250
▁pronouncements	-11251
andi	-11252
▁Raju	-11253
▁amen	-11254
▁Coming	-11255
▁disaster	-11256
▁ordinance	-11257
▁restraining	-11258
▁utilization	-11259
▁strengthened	-11260
▁maintainability	-11261
▁Gop	-11262
▁Kur	-11263
▁hide	-11264
▁lacs	-11265
eeling	-11266
▁Imple	-11267
▁Express	-11268
▁distant	-11269
▁enlight	-11270
▁bacteria	-11271
▁behavior	-11272
▁attending	-11273
▁adequately	-11274
▁Subordinate	-11275
▁Distribution	-11276
asis	-11277
▁fake	-11278
ortium	-11279
▁Desai	-11280
▁Lease	-11281
▁Should	-11282
▁unusual	-11283
▁windows	-11284
▁estoppel	-11285
▁fraction	-11286
▁grievous	-11287
▁Statutory	-11288
▁negligent	-11289
▁statistics	-11290
serv	-11291
▁voc	-11292
▁evid	-11293
▁Emerg	-11294
▁Bhutan	-11295
▁makers	-11296
▁wholes	-11297
▁Cauvery	-11298
▁coconut	-11299
▁download	-11300
▁foremost	-11301
▁Personnel	-11302
▁premature	-11303
▁reiterate	-11304
▁establishes	-11305
▁IF	-11306
▁Ny	-11307
▁lis	-11308
cated	-11309
▁tact	-11310
▁tons	-11311
▁Brahm	-11312
▁Event	-11313
▁Vedas	-11314
▁label	-11315
▁artist	-11316
rivation	-11317
▁perfectly	-11318
▁thereupon	-11319
▁preventive	-11320
yr	-11321
▁Je	-11322
▁UP	-11323
erer	-11324
▁Bri	-11325
heres	-11326
▁anom	-11327
▁Cause	-11328
▁broke	-11329
▁Mittal	-11330
▁valley	-11331
▁unconscious	-11332
▁unauthorized	-11333
▁compassionate	-11334
nut	-11335
ENCE	-11336
itha	-11337
outs	-11338
oved	-11339
▁Gaj	-11340
▁awa	-11341
▁fre	-11342
▁Kesh	-11343
▁tang	-11344
▁Impro	-11345
▁Param	-11346
▁diary	-11347
▁hyper	-11348
attered	-11349
iliation	-11350
▁Default	-11351
▁Whatever	-11352
▁embodied	-11353
▁interrog	-11354
▁directive	-11355
▁deputation	-11356
PF	-11357
ffee	-11358
lier	-11359
▁kin	-11360
arged	-11361
asers	-11362
▁Chal	-11363
▁Dutt	-11364
pected	-11365
ushing	-11366
▁forci	-11367
▁forged	-11368
▁discern	-11369
▁Guarantee	-11370
▁Marketing	-11371
▁surrounded	-11372
▁facilitating	-11373
▁prescription	-11374
▁discrepancies	-11375
▁CM	-11376
hesis	-11377
▁hier	-11378
▁mole	-11379
▁Solar	-11380
▁dimin	-11381
▁larva	-11382
▁Budget	-11383
▁sensit	-11384
ensively	-11385
▁neglect	-11386
▁Sciences	-11387
▁chargesheet	-11388
▁liquidation	-11389
▁considerably	-11390
VI	-11391
▁Srin	-11392
▁Till	-11393
▁axis	-11394
▁argue	-11395
▁kidna	-11396
▁realm	-11397
▁deeper	-11398
▁encumb	-11399
▁faster	-11400
▁authors	-11401
▁adultery	-11402
▁transmit	-11403
▁Himalayas	-11404
▁Petroleum	-11405
▁labourers	-11406
▁Democratic	-11407
haz	-11408
ilst	-11409
roid	-11410
▁Dri	-11411
▁Tre	-11412
CTION	-11413
▁mart	-11414
▁ware	-11415
ptions	-11416
iration	-11417
▁Church	-11418
▁divers	-11419
▁fought	-11420
▁invent	-11421
▁African	-11422
▁anxious	-11423
▁denying	-11424
▁reservo	-11425
▁stretch	-11426
▁implicit	-11427
▁authentic	-11428
▁passenger	-11429
▁transfers	-11430
▁explaining	-11431
ande	-11432
▁Hill	-11433
▁Rang	-11434
▁Tehs	-11435
▁outs	-11436
▁Farid	-11437
▁Topics	-11438
▁bullet	-11439
▁praise	-11440
▁stable	-11441
▁sincere	-11442
▁warning	-11443
▁dialogue	-11444
▁graduate	-11445
▁eliminate	-11446
▁impressed	-11447
▁accessible	-11448
▁miscarriage	-11449
▁programming	-11450
awn	-11451
▁ju	-11452
airy	-11453
iety	-11454
lesh	-11455
umps	-11456
▁Bat	-11457
▁MLA	-11458
▁NGT	-11459
▁dup	-11460
▁calm	-11461
▁beach	-11462
▁detri	-11463
▁Details	-11464
▁William	-11465
▁insertion	-11466
▁collectively	-11467
ksh	-11468
▁WP	-11469
ambig	-11470
▁Loan	-11471
▁hors	-11472
▁ling	-11473
▁Grand	-11474
▁Repeal	-11475
▁gentle	-11476
▁weaker	-11477
▁wooden	-11478
▁varying	-11479
▁vesting	-11480
▁Northern	-11481
▁responses	-11482
▁redemption	-11483
organisation	-11484
▁Os	-11485
▁Ut	-11486
umped	-11487
▁gran	-11488
▁Space	-11489
▁Relying	-11490
▁imposes	-11491
▁copyright	-11492
▁dissolved	-11493
▁tolerance	-11494
▁weightage	-11495
▁attributes	-11496
▁concentration	-11497
----------------	-11498
abs	-11499
araj	-11500
exam	-11501
term	-11502
accept	-11503
ighter	-11504
▁sheep	-11505
▁Street	-11506
▁occupy	-11507
▁pretty	-11508
▁clients	-11509
▁carriage	-11510
▁devotees	-11511
▁tourists	-11512
▁fulfilment	-11513
▁developmental	-11514
▁interlocutory	-11515
hot	-11516
bind	-11517
asive	-11518
astri	-11519
▁simp	-11520
inking	-11521
worthy	-11522
▁gradu	-11523
▁Bhopal	-11524
▁Ganesh	-11525
▁Mobile	-11526
▁Swaraj	-11527
▁enters	-11528
▁Present	-11529
▁approve	-11530
▁Interpre	-11531
▁locality	-11532
▁discarded	-11533
▁frivolous	-11534
▁prohibits	-11535
▁instrumental	-11536
ibi	-11537
▁Bag	-11538
▁Vic	-11539
▁Have	-11540
onation	-11541
▁Netaji	-11542
▁loaded	-11543
▁Hearing	-11544
▁salaries	-11545
▁perceived	-11546
▁conveyance	-11547
▁obligatory	-11548
rao	-11549
▁Occ	-11550
▁bot	-11551
▁din	-11552
▁wet	-11553
▁Team	-11554
▁Type	-11555
▁boxes	-11556
▁excav	-11557
▁detect	-11558
▁efficacy	-11559
▁measured	-11560
▁abandoned	-11561
nath	-11562
ivals	-11563
▁Long	-11564
▁ours	-11565
issues	-11566
▁Given	-11567
▁movie	-11568
▁connot	-11569
▁ninety	-11570
▁predomin	-11571
▁Community	-11572
▁penalties	-11573
▁unnatural	-11574
▁forfeiture	-11575
▁Educational	-11576
▁professionals	-11577
eds	-11578
▁aug	-11579
▁exit	-11580
▁orth	-11581
▁tends	-11582
cession	-11583
▁Sports	-11584
▁Volume	-11585
▁factum	-11586
▁winning	-11587
▁recalled	-11588
▁sanctity	-11589
▁Provision	-11590
▁ammunition	-11591
▁beneficiary	-11592
SC	-11593
ALL	-11594
sar	-11595
▁HIV	-11596
▁Ill	-11597
▁Kes	-11598
▁sho	-11599
▁Auro	-11600
▁VIII	-11601
▁Kishan	-11602
▁hazard	-11603
▁patterns	-11604
▁connecting	-11605
▁transferring	-11606
▁unsustainable	-11607
२०	-11608
chen	-11609
▁Kat	-11610
▁None	-11611
▁cure	-11612
▁rope	-11613
Chance	-11614
▁Durga	-11615
▁Value	-11616
▁SPEECH	-11617
▁advent	-11618
▁devoid	-11619
▁raises	-11620
▁Meeting	-11621
▁traders	-11622
▁incapable	-11623
hem	-11624
emia	-11625
▁Kad	-11626
▁XII	-11627
water	-11628
iscrim	-11629
itably	-11630
▁Joshi	-11631
▁hearts	-11632
▁leased	-11633
▁streets	-11634
▁complain	-11635
▁overseas	-11636
▁undivided	-11637
▁Adjudicating	-11638
ky	-11639
bab	-11640
▁AR	-11641
khar	-11642
▁Kun	-11643
▁Kalp	-11644
▁Goods	-11645
▁Vikas	-11646
▁daniel	-11647
▁verify	-11648
▁descend	-11649
▁reimbur	-11650
▁deterior	-11651
▁elaborately	-11652
bu	-11653
iki	-11654
race	-11655
arati	-11656
▁Conv	-11657
▁Sach	-11658
▁Step	-11659
▁luck	-11660
aswamy	-11661
erting	-11662
▁loved	-11663
▁ceases	-11664
▁unambig	-11665
▁appealed	-11666
▁Presiding	-11667
▁overruled	-11668
▁terminate	-11669
▁minorities	-11670
▁circulation	-11671
ca	-11672
opl	-11673
▁Ste	-11674
▁Wal	-11675
ashed	-11676
oused	-11677
▁stem	-11678
urated	-11679
▁Charge	-11680
▁postpon	-11681
▁protein	-11682
▁explains	-11683
▁railways	-11684
▁prescribing	-11685
▁appreciating	-11686
bl	-11687
▁NT	-11688
▁Late	-11689
▁font	-11690
▁viii	-11691
▁disin	-11692
▁saint	-11693
▁Brahma	-11694
▁island	-11695
▁nervous	-11696
▁neutral	-11697
▁restaur	-11698
▁boundary	-11699
▁detained	-11700
▁frequent	-11701
▁reposted	-11702
▁Corruption	-11703
▁expiration	-11704
▁systematic	-11705
▁deprivation	-11706
raf	-11707
▁DR	-11708
▁Den	-11709
▁Ris	-11710
▁Sou	-11711
alpur	-11712
▁Does	-11713
▁lift	-11714
manent	-11715
▁appra	-11716
▁rigid	-11717
▁Motion	-11718
▁camera	-11719
▁nonxad	-11720
▁switch	-11721
▁Parties	-11722
▁funding	-11723
▁wearing	-11724
▁Whenever	-11725
▁supervis	-11726
▁magnitude	-11727
▁advantages	-11728
▁Was	-11729
▁Pref	-11730
▁apex	-11731
▁keys	-11732
▁sket	-11733
▁aided	-11734
▁Kanpur	-11735
▁Mohmed	-11736
▁sounds	-11737
▁Andaman	-11738
▁Movement	-11739
▁hypothes	-11740
▁trustees	-11741
unications	-11742
▁reflection	-11743
▁Electronics	-11744
beh	-11745
ulam	-11746
▁Ken	-11747
▁kings	-11748
▁facets	-11749
▁Projects	-11750
▁squarely	-11751
▁jewellery	-11752
▁Integrated	-11753
▁declarations	-11754
▁contradiction	-11755
▁Ran	-11756
▁Duty	-11757
▁tant	-11758
▁meter	-11759
▁numer	-11760
acharya	-11761
▁Period	-11762
▁defaul	-11763
▁heaven	-11764
aternity	-11765
▁Emperor	-11766
▁sometime	-11767
▁summoned	-11768
▁conceived	-11769
MIN	-11770
usse	-11771
▁basin	-11772
▁optim	-11773
▁Doctor	-11774
▁attaining	-11775
▁precedents	-11776
▁measurement	-11777
▁unauthorised	-11778
▁JJ	-11779
omed	-11780
wife	-11781
edded	-11782
ooter	-11783
▁Kail	-11784
▁reci	-11785
▁sine	-11786
▁spin	-11787
oining	-11788
▁Cases	-11789
▁Lords	-11790
▁insight	-11791
▁surrend	-11792
▁Mohammad	-11793
▁quarters	-11794
▁Christians	-11795
▁connections	-11796
osy	-11797
mity	-11798
obar	-11799
▁bug	-11800
aming	-11801
arman	-11802
▁debar	-11803
▁guess	-11804
▁recru	-11805
▁troub	-11806
Inspect	-11807
▁Unable	-11808
▁ensures	-11809
▁mixture	-11810
▁readily	-11811
▁equipped	-11812
▁manpower	-11813
▁socially	-11814
▁developer	-11815
▁rationale	-11816
▁structural	-11817
arked	-11818
cence	-11819
▁Vers	-11820
▁nodes	-11821
▁Custom	-11822
▁Ganges	-11823
▁Krishn	-11824
▁accepts	-11825
▁airport	-11826
▁inherit	-11827
▁lodging	-11828
▁Justices	-11829
▁employers	-11830
▁quantities	-11831
▁corporations	-11832
mia	-11833
▁pin	-11834
▁tag	-11835
appre	-11836
ullah	-11837
▁pursued	-11838
▁legislate	-11839
▁HS	-11840
othe	-11841
▁bin	-11842
acles	-11843
field	-11844
▁Deal	-11845
▁Iron	-11846
▁TRAI	-11847
▁stup	-11848
▁Chart	-11849
▁Study	-11850
▁Aurang	-11851
▁firing	-11852
▁oxygen	-11853
▁carrier	-11854
▁muscles	-11855
▁threats	-11856
▁pleading	-11857
▁surgical	-11858
▁impleaded	-11859
▁regardless	-11860
▁predecessor	-11861
▁sul	-11862
▁arts	-11863
rupted	-11864
▁mobil	-11865
▁tight	-11866
▁viable	-11867
▁pursuit	-11868
▁hardware	-11869
▁disposing	-11870
▁gathering	-11871
▁prosecute	-11872
▁summoning	-11873
EA	-11874
Is	-11875
she	-11876
mind	-11877
▁Gal	-11878
▁Sak	-11879
▁hol	-11880
kumar	-11881
acific	-11882
liness	-11883
▁Fifth	-11884
▁alike	-11885
parable	-11886
▁Subram	-11887
undering	-11888
▁singing	-11889
▁tissues	-11890
▁touched	-11891
▁stressed	-11892
▁algorithm	-11893
▁attribute	-11894
▁describing	-11895
▁MT	-11896
cons	-11897
below	-11898
▁Desh	-11899
▁bids	-11900
▁bund	-11901
▁Griev	-11902
▁Samaj	-11903
▁talks	-11904
▁dreams	-11905
▁repeat	-11906
▁safely	-11907
▁Forests	-11908
▁expense	-11909
▁heinous	-11910
▁transit	-11911
▁Recruitment	-11912
▁adjudicated	-11913
RU	-11914
▁TH	-11915
▁ba	-11916
UMAR	-11917
▁Anti	-11918
▁Down	-11919
▁epis	-11920
▁onus	-11921
▁Kabir	-11922
▁glory	-11923
▁ports	-11924
▁taste	-11925
▁hatred	-11926
▁layout	-11927
▁powder	-11928
▁abscond	-11929
▁decimal	-11930
▁qualify	-11931
▁ranging	-11932
▁revival	-11933
▁breeding	-11934
▁protects	-11935
▁pursuing	-11936
▁recruits	-11937
▁Defendants	-11938
bi	-11939
▁AB	-11940
▁RTI	-11941
▁anger	-11942
▁derog	-11943
▁rooms	-11944
▁weighed	-11945
▁murdered	-11946
▁Hindustan	-11947
▁imparting	-11948
▁petroleum	-11949
▁Concurrent	-11950
▁autonomous	-11951
▁productive	-11952
▁erroneously	-11953
▁Disciplinary	-11954
▁concurrently	-11955
ede	-11956
ige	-11957
uma	-11958
ugopal	-11959
▁Rajiv	-11960
▁blame	-11961
▁favor	-11962
▁gland	-11963
erating	-11964
▁tragedy	-11965
▁Islamists	-11966
▁unilateral	-11967
▁approaching	-11968
▁registering	-11969
▁AL	-11970
▁Fa	-11971
▁Mes	-11972
▁http	-11973
▁Activ	-11974
▁Menon	-11975
▁consp	-11976
▁monop	-11977
▁bidder	-11978
▁buying	-11979
▁dispar	-11980
▁genius	-11981
▁proves	-11982
▁matches	-11983
▁Councils	-11984
▁cultures	-11985
do	-11986
sa	-11987
occ	-11988
ALCO	-11989
▁Bre	-11990
▁Naw	-11991
▁tap	-11992
ivedi	-11993
ulled	-11994
▁fled	-11995
▁wake	-11996
▁Nigam	-11997
▁brave	-11998
▁escal	-11999
▁theft	-12000
▁cooper	-12001
▁chances	-12002
▁monsoon	-12003
▁maturity	-12004
▁Americans	-12005
▁Governors	-12006
▁dimensions	-12007
▁mechanisms	-12008
eers	-12009
oded	-12010
▁Rub	-12011
▁Rul	-12012
angle	-12013
▁Rich	-12014
▁Spir	-12015
apters	-12016
▁KUMAR	-12017
▁condu	-12018
onymous	-12019
▁encomp	-12020
▁humans	-12021
▁Studies	-12022
▁browser	-12023
▁choices	-12024
▁tickets	-12025
▁practise	-12026
▁shortage	-12027
▁adjudicate	-12028
▁overriding	-12029
▁extensively	-12030
rosc	-12031
eeper	-12032
▁Wing	-12033
mother	-12034
ucherry	-12035
▁Mechan	-12036
▁valued	-12037
▁writes	-12038
▁Tripura	-12039
▁Gujarati	-12040
▁earnings	-12041
▁requests	-12042
▁abolished	-12043
▁litigants	-12044
▁antecedents	-12045
▁demographic	-12046
▁suitability	-12047
MT	-12048
tr	-12049
oga	-12050
ESSA	-12051
▁Cad	-12052
▁Say	-12053
▁tum	-12054
plant	-12055
▁ease	-12056
viable	-12057
▁Units	-12058
▁photo	-12059
▁deline	-12060
▁parade	-12061
▁commend	-12062
▁operator	-12063
▁explosion	-12064
TER	-12065
▁Bid	-12066
amboo	-12067
rible	-12068
▁Mano	-12069
▁peak	-12070
▁sees	-12071
▁wave	-12072
▁xxxx	-12073
nected	-12074
oultry	-12075
▁homic	-12076
▁india	-12077
▁Altern	-12078
▁Except	-12079
▁helpful	-12080
▁detected	-12081
▁isolated	-12082
▁touching	-12083
▁balancing	-12084
▁invention	-12085
▁variations	-12086
▁publications	-12087
DER	-12088
oys	-12089
▁IB	-12090
▁du	-12091
ostic	-12092
▁Very	-12093
urious	-12094
▁Display	-12095
▁ethical	-12096
▁goodwill	-12097
▁mistakes	-12098
▁Meanwhile	-12099
▁dishonest	-12100
▁hereinbelow	-12101
AJ	-12102
▁DA	-12103
▁asp	-12104
▁pion	-12105
ESSAGE	-12106
orship	-12107
▁actor	-12108
▁Sultan	-12109
▁Country	-12110
▁Enquiry	-12111
▁profess	-12112
▁targets	-12113
▁Internal	-12114
▁controls	-12115
▁Universal	-12116
▁Puducherry	-12117
▁implicated	-12118
▁infringement	-12119
▁rot	-12120
▁amaz	-12121
▁tape	-12122
▁Sixth	-12123
▁Subst	-12124
▁ignoring	-12125
▁disappear	-12126
▁conflicting	-12127
▁substantiate	-12128
▁incriminating	-12129
eda	-12130
oya	-12131
▁Bye	-12132
▁Enc	-12133
▁Kot	-12134
▁Yoj	-12135
▁fro	-12136
igate	-12137
ardens	-12138
▁Bhatt	-12139
▁exempl	-12140
▁fisher	-12141
▁fright	-12142
▁troops	-12143
▁Statute	-12144
▁debates	-12145
▁dissent	-12146
▁ambiguity	-12147
▁concessions	-12148
▁appropriately	-12149
PG	-12150
▁Bod	-12151
akshi	-12152
pread	-12153
▁Club	-12154
▁Saroj	-12155
▁harsh	-12156
▁parte	-12157
▁snake	-12158
illance	-12159
▁Oxford	-12160
▁resemb	-12161
▁traced	-12162
position	-12163
▁Iranian	-12164
▁contemn	-12165
▁sisters	-12166
▁crossing	-12167
▁experiments	-12168
▁capabilities	-12169
▁improvements	-12170
▁proportionate	-12171
asy	-12172
▁Fri	-12173
▁Sib	-12174
▁Trav	-12175
▁cable	-12176
▁decent	-12177
▁habits	-12178
▁indiff	-12179
▁packing	-12180
unication	-12181
▁producer	-12182
HT	-12183
mic	-12184
▁TN	-12185
olen	-12186
▁NCL	-12187
oxide	-12188
▁Answ	-12189
▁Record	-12190
▁Dwivedi	-12191
▁inferred	-12192
▁noticing	-12193
▁variable	-12194
▁providers	-12195
▁cumulative	-12196
▁thoroughly	-12197
oted	-12198
▁Cho	-12199
▁Vij	-12200
▁Jews	-12201
▁silk	-12202
abetes	-12203
▁honor	-12204
▁meets	-12205
▁vests	-12206
▁Result	-12207
▁insist	-12208
▁rarely	-12209
igration	-12210
iscation	-12211
▁MESSAGE	-12212
▁cooking	-12213
▁disable	-12214
▁edition	-12215
▁inconven	-12216
▁amenities	-12217
▁spreading	-12218
▁confirming	-12219
▁dictionary	-12220
▁laboratory	-12221
▁neighbours	-12222
▁consolidated	-12223
vil	-12224
▁PP	-12225
▁CRI	-12226
▁Tib	-12227
ancore	-12228
▁talaq	-12229
▁Intell	-12230
▁Narain	-12231
▁Advance	-12232
▁Windows	-12233
▁Dominion	-12234
▁endorsed	-12235
▁enforcing	-12236
AYS	-12237
uate	-12238
▁bes	-12239
▁storm	-12240
cillary	-12241
▁Claims	-12242
▁cavity	-12243
ologists	-12244
▁closing	-12245
▁Abdullah	-12246
▁interact	-12247
▁alternate	-12248
▁relatable	-12249
▁compliment	-12250
▁comprehend	-12251
iscl	-12252
▁Haj	-12253
outed	-12254
▁fond	-12255
▁worm	-12256
ductive	-12257
▁counts	-12258
▁judged	-12259
ceptible	-12260
▁Auditor	-12261
▁Lakshmi	-12262
▁adjudic	-12263
▁desktop	-12264
▁trustee	-12265
▁allottee	-12266
▁evaluate	-12267
▁keyboard	-12268
▁protocol	-12269
▁inflation	-12270
▁persuaded	-12271
▁Travancore	-12272
▁purchasers	-12273
▁conventions	-12274
Us	-12275
ilee	-12276
▁Dom	-12277
▁aqu	-12278
▁pla	-12279
▁WITH	-12280
▁auto	-12281
▁bell	-12282
▁moves	-12283
▁Center	-12284
▁summon	-12285
▁worksh	-12286
▁intensity	-12287
▁exhibition	-12288
▁confessions	-12289
ago	-12290
auc	-12291
wah	-12292
azar	-12293
▁LIF	-12294
▁Nal	-12295
▁counse	-12296
▁intrins	-12297
▁remitted	-12298
▁Venugopal	-12299
▁suspected	-12300
▁untenable	-12301
▁construing	-12302
▁undisputed	-12303
▁entertaining	-12304
olf	-12305
adun	-12306
bury	-12307
nage	-12308
▁Bij	-12309
▁Edn	-12310
arwal	-12311
▁fool	-12312
▁Brief	-12313
▁Drugs	-12314
▁parad	-12315
▁Vikram	-12316
▁insult	-12317
▁Aurobind	-12318
▁responded	-12319
▁insufficient	-12320
▁possibilities	-12321
TO	-12322
ori	-12323
▁ho	-12324
▁Ast	-12325
▁Pot	-12326
▁mant	-12327
▁Ranjit	-12328
▁Transl	-12329
▁misbeh	-12330
▁Charges	-12331
▁Library	-12332
▁destiny	-12333
▁Himalayan	-12334
▁consulted	-12335
▁meanwhile	-12336
▁nutrition	-12337
▁provinces	-12338
WA	-12339
oqu	-12340
ppy	-12341
▁Lakh	-12342
▁trap	-12343
▁hydro	-12344
▁smoke	-12345
▁Arabia	-12346
▁couldn	-12347
▁plains	-12348
▁Russian	-12349
▁printer	-12350
▁exhibited	-12351
▁literally	-12352
noon	-12353
▁Cant	-12354
▁Kore	-12355
▁Meas	-12356
rances	-12357
▁Along	-12358
▁coord	-12359
▁crude	-12360
▁rupee	-12361
▁ships	-12362
erential	-12363
▁movable	-12364
orporation	-12365
▁corrected	-12366
unicipality	-12367
▁prosecutor	-12368
▁innovations	-12369
▁confiscation	-12370
▁economically	-12371
GR	-12372
▁Tah	-12373
▁hung	-12374
▁tent	-12375
▁Prince	-12376
▁absurd	-12377
▁Chamber	-12378
▁consensus	-12379
▁fundament	-12380
▁Insolvency	-12381
▁capability	-12382
▁philosophical	-12383
vara	-12384
▁Suf	-12385
▁Tea	-12386
ulses	-12387
▁twin	-12388
▁penis	-12389
viation	-12390
▁averred	-12391
▁clearing	-12392
▁gratuity	-12393
▁investor	-12394
▁propriet	-12395
▁admitting	-12396
▁Laboratory	-12397
▁IPv	-12398
▁bio	-12399
▁tob	-12400
▁Fest	-12401
▁Lect	-12402
▁flav	-12403
awalli	-12404
▁Minor	-12405
▁enemies	-12406
roduction	-12407
▁Chaudhary	-12408
▁delegated	-12409
▁Identification	-12410
▁reasonableness	-12411
IO	-12412
BLE	-12413
uds	-12414
▁cup	-12415
ildar	-12416
▁Cross	-12417
▁Sushil	-12418
▁analog	-12419
▁enmity	-12420
▁planet	-12421
▁rituals	-12422
▁Appropri	-12423
▁declares	-12424
▁expanding	-12425
▁complement	-12426
bra	-12427
cho	-12428
▁Pa	-12429
▁Dil	-12430
▁Put	-12431
▁fan	-12432
human	-12433
▁Navy	-12434
▁ampl	-12435
▁COURT	-12436
▁Preet	-12437
▁Radio	-12438
▁misle	-12439
▁rhyth	-12440
▁Schemes	-12441
▁hanging	-12442
▁artistic	-12443
▁Aurobindo	-12444
▁expensive	-12445
▁shareholder	-12446
▁Additionally	-12447
▁Nevertheless	-12448
▁Daw	-12449
▁rab	-12450
adian	-12451
llors	-12452
▁Pall	-12453
▁uter	-12454
▁Ocean	-12455
▁bombs	-12456
▁efflu	-12457
▁rebut	-12458
▁undes	-12459
▁fashion	-12460
eta	-12461
ATES	-12462
phal	-12463
iated	-12464
▁Bagh	-12465
▁Pant	-12466
▁Pars	-12467
▁Vidy	-12468
▁magic	-12469
▁stolen	-12470
▁Hussain	-12471
▁inception	-12472
▁warranted	-12473
▁characterized	-12474
ptic	-12475
▁isn	-12476
▁Dharm	-12477
▁James	-12478
▁bribe	-12479
▁Museum	-12480
▁pestic	-12481
▁toward	-12482
▁voters	-12483
▁inquest	-12484
▁obscene	-12485
▁reaches	-12486
▁Needless	-12487
▁passport	-12488
▁unsuccess	-12489
▁associates	-12490
▁cartridges	-12491
▁conferring	-12492
▁impediment	-12493
▁sentiments	-12494
▁Secretaries	-12495
▁reconstruction	-12496
▁regularization	-12497
▁Ek	-12498
▁Deg	-12499
▁Gir	-12500
▁Hit	-12501
▁Pop	-12502
▁Jose	-12503
▁Khar	-12504
▁heir	-12505
ruptcy	-12506
ilitary	-12507
itement	-12508
▁Portug	-12509
▁butter	-12510
▁enjoin	-12511
▁Singhvi	-12512
▁formally	-12513
▁painting	-12514
▁Emergency	-12515
▁Provident	-12516
▁mentioning	-12517
▁subjective	-12518
▁prospecting	-12519
eroy	-12520
▁kms	-12521
▁pump	-12522
vation	-12523
▁David	-12524
▁behest	-12525
▁junior	-12526
▁Jagdish	-12527
▁NATIONAL	-12528
▁encompass	-12529
▁festivals	-12530
▁postulates	-12531
▁empowerment	-12532
▁incorporation	-12533
▁Eth	-12534
▁Jee	-12535
▁Lod	-12536
▁Line	-12537
▁jack	-12538
▁Greek	-12539
▁Manik	-12540
▁Misra	-12541
▁oppon	-12542
▁thumb	-12543
▁worst	-12544
▁culmin	-12545
▁pocket	-12546
atisfied	-12547
▁Pacific	-12548
▁dynasty	-12549
▁emotion	-12550
▁invoice	-12551
▁Protocol	-12552
▁conceded	-12553
▁exposure	-12554
▁survival	-12555
▁telecomm	-12556
▁unaccept	-12557
▁Prosecution	-12558
fold	-12559
▁Job	-12560
▁erad	-12561
▁limb	-12562
▁rear	-12563
▁wakf	-12564
terior	-12565
▁boost	-12566
▁memor	-12567
▁reign	-12568
erosene	-12569
▁flying	-12570
▁procla	-12571
▁vimana	-12572
▁prolonged	-12573
missibility	-12574
orticulture	-12575
▁promotions	-12576
▁unfortunately	-12577
ki	-12578
▁Ti	-12579
▁Ish	-12580
▁COMM	-12581
▁Mary	-12582
legium	-12583
▁Indus	-12584
▁bless	-12585
alities	-12586
uminous	-12587
▁Dinesh	-12588
▁Pratap	-12589
▁earthqu	-12590
▁meanings	-12591
▁condemned	-12592
▁propriety	-12593
▁affiliated	-12594
▁nevertheless	-12595
RS	-12596
fare	-12597
text	-12598
▁EVE	-12599
▁JUD	-12600
▁hut	-12601
▁cars	-12602
acular	-12603
ispens	-12604
olving	-12605
▁Baner	-12606
▁menace	-12607
▁aggress	-12608
▁elector	-12609
▁intends	-12610
▁satellite	-12611
▁invariably	-12612
ocy	-12613
▁gh	-12614
▁mm	-12615
▁Bor	-12616
▁Tom	-12617
plate	-12618
▁Kath	-12619
▁stro	-12620
▁Arabs	-12621
▁Paris	-12622
▁disbel	-12623
▁humble	-12624
▁museum	-12625
▁crystal	-12626
▁loading	-12627
▁persuade	-12628
▁physician	-12629
▁businesses	-12630
▁undergoing	-12631
ahar	-12632
▁DRT	-12633
verage	-12634
▁Sikhs	-12635
▁Surat	-12636
▁Amicus	-12637
▁curric	-12638
▁disall	-12639
▁reasoned	-12640
▁Provinces	-12641
▁contempor	-12642
▁inconsistency	-12643
ato	-12644
zer	-12645
etus	-12646
meas	-12647
urai	-12648
▁Run	-12649
valid	-12650
▁Mich	-12651
▁inel	-12652
▁Sindhi	-12653
▁noting	-12654
▁Regular	-12655
▁Schools	-12656
▁seconds	-12657
▁Backward	-12658
▁magazine	-12659
▁maritime	-12660
▁passages	-12661
▁resigned	-12662
▁redressal	-12663
bly	-12664
ucks	-12665
▁PIL	-12666
▁ram	-12667
araja	-12668
arers	-12669
▁Rash	-12670
▁Anwar	-12671
▁Charl	-12672
▁Front	-12673
▁ample	-12674
▁ticket	-12675
▁Nicobar	-12676
▁Systems	-12677
▁inhabit	-12678
▁tobacco	-12679
▁delicate	-12680
▁Malayalam	-12681
▁concealed	-12682
▁overlooked	-12683
▁Magistrates	-12684
▁surrendered	-12685
agi	-12686
▁CF	-12687
▁nu	-12688
urit	-12689
▁CJI	-12690
▁lep	-12691
▁umb	-12692
rahim	-12693
▁Ball	-12694
▁barg	-12695
igated	-12696
▁Areas	-12697
▁Notes	-12698
▁Salve	-12699
▁crack	-12700
▁deems	-12701
▁demer	-12702
▁mango	-12703
▁threw	-12704
▁Chowdh	-12705
▁Tourism	-12706
▁decrees	-12707
▁guiding	-12708
▁ongoing	-12709
▁tractor	-12710
▁afforded	-12711
▁indispens	-12712
▁informing	-12713
▁offenders	-12714
▁Plaintiffs	-12715
▁imperialism	-12716
▁entertainment	-12717
vo	-12718
▁Jat	-12719
andan	-12720
otism	-12721
▁emph	-12722
▁Heard	-12723
▁Leader	-12724
▁Shakti	-12725
▁Telang	-12726
▁checked	-12727
▁nursing	-12728
▁Otherwise	-12729
▁Terrorism	-12730
▁formulate	-12731
▁Dwarkanath	-12732
▁liberation	-12733
▁violations	-12734
▁resolutions	-12735
▁EIA	-12736
▁Auto	-12737
▁Sudh	-12738
▁lien	-12739
▁Surya	-12740
▁Golden	-12741
▁delays	-12742
▁enjoys	-12743
▁Charter	-12744
▁clarity	-12745
▁refrain	-12746
forcement	-12747
▁watching	-12748
▁encounter	-12749
▁frequency	-12750
▁operators	-12751
२१	-12752
cane	-12753
▁Nay	-12754
▁Nil	-12755
▁mac	-12756
apsed	-12757
▁Pond	-12758
▁ears	-12759
uously	-12760
▁resum	-12761
elihood	-12762
▁pledge	-12763
▁Brother	-12764
▁battery	-12765
▁incentive	-12766
▁realistic	-12767
▁correction	-12768
▁contractors	-12769
▁expectations	-12770
alk	-12771
iph	-12772
zed	-12773
▁Wa	-12774
emor	-12775
uded	-12776
▁Chit	-12777
▁Meen	-12778
▁tiny	-12779
urable	-12780
▁Mathe	-12781
▁slope	-12782
▁Demand	-12783
▁custod	-12784
▁lapsed	-12785
▁legend	-12786
▁videos	-12787
esthetic	-12788
▁Chander	-12789
▁crossed	-12790
▁outward	-12791
▁Ayurveda	-12792
▁dedication	-12793
▁repetition	-12794
▁obstruction	-12795
▁disobedience	-12796
SP	-12797
apt	-12798
▁Niz	-12799
▁motu	-12800
agraha	-12801
erties	-12802
oinder	-12803
▁sword	-12804
▁Causes	-12805
▁trades	-12806
▁Benefit	-12807
▁chronic	-12808
▁credible	-12809
▁dwelling	-12810
▁shifting	-12811
▁wonderful	-12812
▁intervening	-12813
LC	-12814
yard	-12815
▁Akh	-12816
▁Ras	-12817
▁Puri	-12818
▁jute	-12819
▁reop	-12820
▁tran	-12821
▁skull	-12822
▁Sarasw	-12823
▁enrich	-12824
▁rushed	-12825
▁volumes	-12826
▁mentally	-12827
▁Extension	-12828
▁reception	-12829
▁convicting	-12830
▁exposition	-12831
▁invitation	-12832
▁Intelligence	-12833
rot	-12834
uta	-12835
hani	-12836
quet	-12837
umen	-12838
▁MUK	-12839
▁ail	-12840
▁ske	-12841
atible	-12842
▁Birth	-12843
settled	-12844
▁Contin	-12845
▁Singles	-12846
▁Viceroy	-12847
▁assumes	-12848
▁vitamin	-12849
▁certainty	-12850
▁likelihood	-12851
▁pilgrimage	-12852
▁specifying	-12853
▁citizenship	-12854
▁ul	-12855
lers	-12856
▁Nok	-12857
etime	-12858
▁payee	-12859
▁Serial	-12860
▁abused	-12861
▁merged	-12862
estation	-12863
▁corners	-12864
▁signals	-12865
▁barriers	-12866
▁everyday	-12867
▁retrench	-12868
▁worldwide	-12869
▁delivering	-12870
▁endeavours	-12871
▁enthusiasm	-12872
▁commutation	-12873
▁intelligent	-12874
▁Consultation	-12875
▁q	-12876
▁DD	-12877
ayam	-12878
fect	-12879
oresh	-12880
▁cler	-12881
▁prud	-12882
▁irrit	-12883
▁roles	-12884
▁Citizens	-12885
▁borrowed	-12886
▁eighteen	-12887
▁therefor	-12888
▁aggravating	-12889
▁deliberations	-12890
vy	-12891
▁ji	-12892
▁Tat	-12893
▁tun	-12894
▁Film	-12895
▁True	-12896
▁loud	-12897
▁Vinod	-12898
▁admir	-12899
▁cheap	-12900
▁repay	-12901
▁surely	-12902
▁Classes	-12903
▁Trading	-12904
▁disposs	-12905
▁Premises	-12906
▁bleeding	-12907
▁maternal	-12908
▁incidence	-12909
▁provident	-12910
▁equipments	-12911
▁publishing	-12912
▁comparative	-12913
▁individually	-12914
urg	-12915
▁DPC	-12916
▁raj	-12917
eller	-12918
▁soph	-12919
prints	-12920
▁smart	-12921
inction	-12922
plaintiff	-12923
▁romantic	-12924
▁utilisation	-12925
▁Rabindranath	-12926
▁intermediate	-12927
▁certification	-12928
BA	-12929
PSC	-12930
▁PA	-12931
▁Age	-12932
▁Dad	-12933
▁RES	-12934
aland	-12935
▁Cath	-12936
▁lord	-12937
arious	-12938
untary	-12939
▁Colle	-12940
▁Vinay	-12941
▁guest	-12942
▁preca	-12943
▁sixth	-12944
▁Island	-12945
▁Mahend	-12946
▁Mining	-12947
▁Invalid	-12948
▁seventy	-12949
▁singular	-12950
▁supplier	-12951
▁vertical	-12952
▁presiding	-12953
▁instructed	-12954
▁purchasing	-12955
▁surprising	-12956
▁overwhelming	-12957
nis	-12958
uda	-12959
alia	-12960
hati	-12961
oler	-12962
▁Pul	-12963
▁Prob	-12964
▁Audio	-12965
▁maker	-12966
▁Crores	-12967
▁broker	-12968
▁subtle	-12969
▁Challen	-12970
▁Krishan	-12971
▁bidding	-12972
▁conserv	-12973
▁founding	-12974
▁Permanent	-12975
▁isolation	-12976
▁afterwards	-12977
▁hypothesis	-12978
▁Complainant	-12979
▁recoverable	-12980
ANT	-12981
lay	-12982
idas	-12983
▁Ear	-12984
▁mud	-12985
aided	-12986
posed	-12987
▁Best	-12988
▁Plot	-12989
▁beet	-12990
▁Koran	-12991
▁hopes	-12992
▁infant	-12993
▁Ibrahim	-12994
▁framers	-12995
▁typical	-12996
▁availing	-12997
▁visitors	-12998
▁calculating	-12999
▁prohibiting	-13000
▁unacceptable	-13001
▁Implementation	-13002
Ind	-13003
gic	-13004
▁KV	-13005
ATED	-13006
abar	-13007
ping	-13008
▁perv	-13009
▁Phase	-13010
▁foods	-13011
▁tribe	-13012
▁Wealth	-13013
▁drawer	-13014
▁enlarge	-13015
▁fracture	-13016
▁probable	-13017
▁Relations	-13018
▁afternoon	-13019
▁accidental	-13020
▁manifestly	-13021
▁Performance	-13022
▁jurisdictions	-13023
▁retrospectively	-13024
WC	-13025
▁Bo	-13026
▁LG	-13027
cket	-13028
▁Kant	-13029
apuram	-13030
▁Sangh	-13031
▁shoes	-13032
▁copper	-13033
▁oldest	-13034
▁triable	-13035
▁abetment	-13036
▁deferred	-13037
▁narration	-13038
▁Liquidator	-13039
▁preferably	-13040
etermination	-13041
▁apprehended	-13042
▁willingness	-13043
▁headquarters	-13044
▁Recommendation	-13045
NG	-13046
obi	-13047
vir	-13048
▁Ud	-13049
▁Wik	-13050
teenth	-13051
▁honey	-13052
istical	-13053
▁Merely	-13054
▁Yojana	-13055
▁lesson	-13056
▁lights	-13057
▁dollars	-13058
▁predict	-13059
▁recipro	-13060
▁tension	-13061
▁adjacent	-13062
▁exceeded	-13063
▁instinct	-13064
▁moderate	-13065
▁ancillary	-13066
▁promotees	-13067
▁elementary	-13068
▁harmonious	-13069
▁coordination	-13070
▁propositions	-13071
rue	-13072
▁PU	-13073
▁AID	-13074
▁tol	-13075
afide	-13076
▁Brij	-13077
▁adapt	-13078
inances	-13079
▁coffee	-13080
▁dental	-13081
▁Privacy	-13082
▁designs	-13083
▁Purchase	-13084
▁linkages	-13085
▁prevents	-13086
▁throwing	-13087
▁affirming	-13088
▁provincial	-13089
ona	-13090
win	-13091
adas	-13092
ayya	-13093
▁FDI	-13094
▁Sch	-13095
▁Prop	-13096
▁Taxes	-13097
▁nucle	-13098
raneous	-13099
▁hunger	-13100
▁talked	-13101
▁whilst	-13102
ventions	-13103
▁Install	-13104
▁Manilal	-13105
▁Turkish	-13106
▁planted	-13107
▁decisive	-13108
▁Production	-13109
▁countrymen	-13110
yed	-13111
▁Jog	-13112
▁Nab	-13113
isons	-13114
▁Baba	-13115
▁Gaut	-13116
▁Suff	-13117
▁exag	-13118
▁Tilak	-13119
▁burst	-13120
▁games	-13121
etermin	-13122
▁blasts	-13123
▁explore	-13124
▁scooter	-13125
▁telecom	-13126
▁Vehicles	-13127
▁Telangana	-13128
▁narrative	-13129
▁producers	-13130
▁somewhere	-13131
▁transformed	-13132
▁unambiguous	-13133
▁surveillance	-13134
▁manifestation	-13135
▁Miz	-13136
lease	-13137
▁Jord	-13138
▁garb	-13139
▁rand	-13140
▁worn	-13141
before	-13142
▁steam	-13143
▁teams	-13144
▁tears	-13145
nership	-13146
ressive	-13147
▁homose	-13148
▁varies	-13149
▁Connect	-13150
▁deprive	-13151
▁orthodox	-13152
▁stronger	-13153
▁Generally	-13154
▁intensive	-13155
▁panchnama	-13156
▁satisfying	-13157
▁anniversary	-13158
▁consecutive	-13159
▁specialized	-13160
▁Palestinians	-13161
▁regularisation	-13162
KS	-13163
ding	-13164
onds	-13165
rium	-13166
udra	-13167
aders	-13168
▁Summ	-13169
▁Viet	-13170
▁dent	-13171
venant	-13172
▁capac	-13173
▁shame	-13174
itating	-13175
▁Ismail	-13176
▁dialog	-13177
chnology	-13178
▁Canadian	-13179
▁sleeping	-13180
▁Constable	-13181
▁diligence	-13182
▁formalities	-13183
osph	-13184
▁Kaz	-13185
▁LIC	-13186
aksha	-13187
allan	-13188
posal	-13189
▁Debt	-13190
▁mamm	-13191
▁Lalit	-13192
▁Nokia	-13193
▁midst	-13194
▁Garden	-13195
▁Negoti	-13196
▁Rajput	-13197
▁Rather	-13198
▁immort	-13199
▁polity	-13200
▁splend	-13201
radition	-13202
▁Digital	-13203
▁Manohar	-13204
▁coastal	-13205
▁proport	-13206
▁unequiv	-13207
▁Capacity	-13208
▁amounted	-13209
▁magnetic	-13210
▁secretary	-13211
▁sponsored	-13212
▁extraneous	-13213
▁forwarding	-13214
hin	-13215
▁Vr	-13216
▁ASG	-13217
imity	-13218
▁Sher	-13219
▁disg	-13220
▁nice	-13221
ealand	-13222
ranted	-13223
▁Incre	-13224
▁Index	-13225
▁ranks	-13226
▁Recogn	-13227
▁bamboo	-13228
▁losing	-13229
▁verbal	-13230
▁posting	-13231
▁Colleges	-13232
▁captured	-13233
▁leviable	-13234
▁licenses	-13235
▁surround	-13236
▁Regarding	-13237
▁economies	-13238
▁subsidies	-13239
▁irrational	-13240
awar	-13241
ksha	-13242
▁REC	-13243
▁Vaj	-13244
▁Shak	-13245
▁Wage	-13246
▁idol	-13247
▁virus	-13248
▁cadres	-13249
▁Acharya	-13250
▁lateral	-13251
▁Applying	-13252
▁kerosene	-13253
▁mediation	-13254
▁Processing	-13255
▁supramental	-13256
▁temporarily	-13257
▁indispensable	-13258
ped	-13259
arti	-13260
▁Hyd	-13261
▁Nat	-13262
▁SRI	-13263
▁XXX	-13264
-----	-13265
▁Camb	-13266
▁Prad	-13267
▁Veer	-13268
▁disl	-13269
▁hole	-13270
▁lust	-13271
▁sulph	-13272
▁Entries	-13273
▁capture	-13274
▁renders	-13275
▁Manufact	-13276
▁presenting	-13277
▁punishments	-13278
gl	-13279
JEE	-13280
erts	-13281
oria	-13282
xxxx	-13283
▁Sep	-13284
▁nep	-13285
▁nit	-13286
ipedia	-13287
▁locus	-13288
▁Parish	-13289
▁roster	-13290
▁senses	-13291
▁Thirdly	-13292
▁Vietnam	-13293
▁Whoever	-13294
▁centers	-13295
▁somehow	-13296
▁virtual	-13297
▁Particip	-13298
▁shipping	-13299
▁Palestine	-13300
▁adjoining	-13301
▁conducive	-13302
▁Assistance	-13303
▁initiating	-13304
▁misappropri	-13305
▁procurement	-13306
IVE	-13307
▁Subs	-13308
▁synd	-13309
▁overs	-13310
▁tries	-13311
▁Course	-13312
▁Upanish	-13313
▁conceal	-13314
▁airports	-13315
▁Presidency	-13316
▁Fair	-13317
▁push	-13318
▁Still	-13319
issance	-13320
▁lifted	-13321
▁random	-13322
▁Hamachi	-13323
▁validly	-13324
▁vendors	-13325
▁Narendra	-13326
▁checking	-13327
▁competing	-13328
▁engineers	-13329
▁forgotten	-13330
▁continuity	-13331
▁suppressed	-13332
▁promotional	-13333
▁accomplished	-13334
▁ascertaining	-13335
▁connectivity	-13336
PCL	-13337
aga	-13338
▁OP	-13339
▁RF	-13340
▁CCI	-13341
▁Fig	-13342
▁Sus	-13343
▁agro	-13344
▁.....	-13345
▁moist	-13346
▁ninet	-13347
▁smell	-13348
casting	-13349
▁Ground	-13350
▁buffal	-13351
▁compel	-13352
▁coparc	-13353
▁induced	-13354
idespread	-13355
▁defining	-13356
▁Evolution	-13357
▁complying	-13358
▁Revolution	-13359
▁affiliation	-13360
▁Professional	-13361
asim	-13362
utra	-13363
▁Jai	-13364
▁Own	-13365
▁TMC	-13366
arted	-13367
▁Yash	-13368
▁laps	-13369
▁Would	-13370
▁bliss	-13371
▁checks	-13372
▁clouds	-13373
▁compos	-13374
▁rescue	-13375
▁peripher	-13376
▁searched	-13377
▁terrible	-13378
▁medicinal	-13379
▁persistent	-13380
▁propounded	-13381
▁suggesting	-13382
▁Partnership	-13383
▁Proceedings	-13384
▁inaugurated	-13385
▁laboratories	-13386
▁recommending	-13387
▁XV	-13388
bour	-13389
▁Sel	-13390
▁Earl	-13391
▁Uday	-13392
▁temp	-13393
▁Restr	-13394
▁angry	-13395
entures	-13396
renched	-13397
▁dollar	-13398
▁evolve	-13399
▁stores	-13400
▁Maximum	-13401
▁builder	-13402
▁situate	-13403
▁Buddhism	-13404
▁Lordships	-13405
▁remainder	-13406
▁concentrate	-13407
JP	-13408
adhy	-13409
asse	-13410
▁ASI	-13411
auhan	-13412
cotic	-13413
▁nest	-13414
ATIONS	-13415
▁agony	-13416
assador	-13417
▁Kumari	-13418
▁Treaty	-13419
▁trends	-13420
▁decrease	-13421
▁smuggled	-13422
▁Redressal	-13423
▁defective	-13424
▁Opposition	-13425
▁fulfilling	-13426
▁incorporate	-13427
BL	-13428
▁BI	-13429
abai	-13430
fast	-13431
prem	-13432
ensed	-13433
▁SHRI	-13434
▁calam	-13435
▁unwar	-13436
ivision	-13437
▁strive	-13438
▁artists	-13439
▁diabetes	-13440
▁grenades	-13441
▁ministry	-13442
▁override	-13443
▁breathing	-13444
▁brilliant	-13445
▁hierarchy	-13446
▁probation	-13447
▁definitions	-13448
▁constituency	-13449
PR	-13450
▁Py	-13451
born	-13452
ihad	-13453
▁Kul	-13454
▁RDX	-13455
▁cel	-13456
▁Kitt	-13457
▁pard	-13458
▁vivid	-13459
irement	-13460
▁Explos	-13461
▁Jordan	-13462
▁eighty	-13463
▁doubted	-13464
▁researc	-13465
▁signing	-13466
▁Bhagwati	-13467
▁Brahmins	-13468
▁emotions	-13469
▁conflicts	-13470
▁determines	-13471
▁influences	-13472
▁linguistic	-13473
AA	-13474
bo	-13475
orph	-13476
▁GDP	-13477
▁AIDS	-13478
▁Giri	-13479
▁MoEF	-13480
▁NGOs	-13481
▁swit	-13482
▁gifts	-13483
▁laugh	-13484
▁reluct	-13485
▁Highway	-13486
▁commits	-13487
▁females	-13488
▁intimid	-13489
▁crystall	-13490
▁Chowdhury	-13491
▁ancestral	-13492
▁attendant	-13493
▁broadcasting	-13494
▁encroachment	-13495
▁neighbouring	-13496
rip	-13497
▁SO	-13498
▁XI	-13499
stan	-13500
▁ISO	-13501
▁vel	-13502
ambers	-13503
▁Chann	-13504
▁Patil	-13505
▁Pharm	-13506
▁Sanct	-13507
▁marine	-13508
▁relies	-13509
▁wished	-13510
▁Hanuman	-13511
▁dealers	-13512
▁handled	-13513
▁contraven	-13514
▁detection	-13515
▁succeeding	-13516
▁widespread	-13517
▁nationalism	-13518
uja	-13519
amba	-13520
stru	-13521
▁Pub	-13522
▁Upd	-13523
cetic	-13524
▁Funds	-13525
▁Mahesh	-13526
▁Tender	-13527
▁wilful	-13528
▁belated	-13529
▁nominal	-13530
▁adverting	-13531
▁discloses	-13532
▁Legislation	-13533
▁unwarranted	-13534
ju	-13535
nar	-13536
aidu	-13537
face	-13538
▁mes	-13539
▁thir	-13540
itious	-13541
itting	-13542
▁Hamas	-13543
▁waves	-13544
Section	-13545
▁Summit	-13546
▁superf	-13547
▁vagina	-13548
▁jeopard	-13549
▁Festival	-13550
▁omissions	-13551
▁selecting	-13552
▁judicially	-13553
▁materially	-13554
▁constrained	-13555
▁reservations	-13556
iar	-13557
ania	-13558
wani	-13559
▁fid	-13560
▁ray	-13561
▁lots	-13562
ducted	-13563
▁STATE	-13564
▁illum	-13565
▁liver	-13566
▁Venkat	-13567
▁Complex	-13568
▁Venture	-13569
▁colours	-13570
▁directs	-13571
▁symbols	-13572
▁Forensic	-13573
▁Southern	-13574
▁membrane	-13575
▁Europeans	-13576
▁criminals	-13577
▁supplying	-13578
▁possessing	-13579
▁uniformity	-13580
▁distinctive	-13581
▁replacement	-13582
▁comparatively	-13583
PW	-13584
bas	-13585
ente	-13586
geon	-13587
iler	-13588
▁fer	-13589
▁hub	-13590
UTION	-13591
▁Dave	-13592
▁Hans	-13593
▁cher	-13594
▁hygi	-13595
tering	-13596
ulance	-13597
usalem	-13598
▁abide	-13599
▁debit	-13600
▁Diwali	-13601
▁Kannada	-13602
▁Jerusalem	-13603
▁scientist	-13604
▁convincing	-13605
otes	-13606
▁Jes	-13607
▁Lol	-13608
▁Fold	-13609
▁NIOS	-13610
▁Frame	-13611
▁urine	-13612
▁unpaid	-13613
▁welcom	-13614
ructural	-13615
▁kitchen	-13616
▁painful	-13617
▁urgency	-13618
▁Minerals	-13619
▁honoured	-13620
▁customary	-13621
▁realities	-13622
▁comparable	-13623
▁recognizes	-13624
▁Appropriate	-13625
▁contemplate	-13626
▁hereinbefore	-13627
aha	-13628
▁DAC	-13629
▁FSL	-13630
▁Irr	-13631
askar	-13632
ropic	-13633
▁Same	-13634
▁akin	-13635
▁Hills	-13636
▁hasten	-13637
▁regret	-13638
▁robust	-13639
▁Asutosh	-13640
▁Indones	-13641
▁abdomen	-13642
▁founder	-13643
▁specimen	-13644
▁elephants	-13645
▁Divisional	-13646
▁confronted	-13647
▁underground	-13648
▁retrenchment	-13649
FS	-13650
२२	-13651
aco	-13652
rus	-13653
Tube	-13654
vati	-13655
▁Bay	-13656
▁Mud	-13657
▁Obs	-13658
ampur	-13659
andal	-13660
mohan	-13661
▁emol	-13662
▁jung	-13663
applic	-13664
ardhan	-13665
▁tiger	-13666
▁detenu	-13667
▁Captain	-13668
▁Offices	-13669
▁leaflet	-13670
▁leprosy	-13671
▁seventh	-13672
▁unaided	-13673
▁invasion	-13674
▁Appointment	-13675
zil	-13676
SION	-13677
apat	-13678
▁exh	-13679
eline	-13680
liers	-13681
▁Priy	-13682
▁maid	-13683
▁Shekh	-13684
▁grows	-13685
▁Almast	-13686
▁Mental	-13687
▁Kailash	-13688
▁freight	-13689
▁lasting	-13690
▁Sarojini	-13691
▁solitary	-13692
▁totality	-13693
▁Democracy	-13694
▁Ultimately	-13695
▁inappropri	-13696
▁Instruments	-13697
▁accumulated	-13698
▁commissioned	-13699
▁specifications	-13700
je	-13701
char	-13702
▁BJP	-13703
▁dub	-13704
▁nic	-13705
▁camel	-13706
▁trick	-13707
▁amicus	-13708
▁mirror	-13709
▁phones	-13710
▁pushed	-13711
▁themes	-13712
umerable	-13713
▁marital	-13714
▁subsection	-13715
▁Applications	-13716
▁illustration	-13717
▁gratification	-13718
ESH	-13719
▁wo	-13720
ENTS	-13721
usha	-13722
▁Squ	-13723
▁Poet	-13724
▁lump	-13725
cepted	-13726
lining	-13727
▁Coast	-13728
▁Nizam	-13729
▁bunch	-13730
▁coerc	-13731
▁semin	-13732
iterate	-13733
▁Lolita	-13734
▁Twenty	-13735
▁crafts	-13736
▁criter	-13737
▁Kalpana	-13738
▁adhered	-13739
▁cabinet	-13740
▁suspend	-13741
▁confused	-13742
▁societal	-13743
▁magazines	-13744
▁scholarship	-13745
▁accompanying	-13746
▁Interpretation	-13747
ERA	-13748
ORE	-13749
sen	-13750
usa	-13751
comp	-13752
rues	-13753
▁Jab	-13754
▁SEL	-13755
▁mol	-13756
▁oct	-13757
ercul	-13758
itius	-13759
▁ausp	-13760
teries	-13761
▁Relig	-13762
▁Roman	-13763
▁camps	-13764
▁conve	-13765
▁loses	-13766
▁query	-13767
▁Ramach	-13768
▁adjour	-13769
▁beating	-13770
▁critics	-13771
▁upgrade	-13772
▁enlarged	-13773
▁lifetime	-13774
▁spending	-13775
▁suitably	-13776
▁welcomed	-13777
▁Returning	-13778
▁emergence	-13779
▁collateral	-13780
▁coordinate	-13781
▁promulgated	-13782
▁announcement	-13783
▁Miscellaneous	-13784
▁intentionally	-13785
IDC	-13786
tas	-13787
uci	-13788
agan	-13789
▁gam	-13790
▁sus	-13791
▁Ghaz	-13792
▁SAYS	-13793
seless	-13794
taking	-13795
▁lacks	-13796
▁riots	-13797
▁embarr	-13798
▁kidney	-13799
▁racial	-13800
▁uncond	-13801
▁borders	-13802
▁escaped	-13803
▁holiday	-13804
▁notions	-13805
▁prudent	-13806
▁lectures	-13807
▁subtract	-13808
▁consisted	-13809
▁favourite	-13810
▁fireworks	-13811
▁teachings	-13812
▁Enforcement	-13813
▁irregularities	-13814
agu	-13815
hor	-13816
anic	-13817
illy	-13818
ller	-13819
▁Fee	-13820
▁cab	-13821
▁MLAs	-13822
▁kids	-13823
ureauc	-13824
▁Ananda	-13825
▁endeav	-13826
▁legacy	-13827
▁Improve	-13828
▁consign	-13829
▁strikes	-13830
▁Academic	-13831
▁flexible	-13832
▁paintings	-13833
▁concurring	-13834
▁summarized	-13835
▁fertilizers	-13836
▁nationalist	-13837
NO	-13838
EMA	-13839
▁Hum	-13840
▁une	-13841
▁Decc	-13842
▁Host	-13843
▁Loya	-13844
▁Rober	-13845
▁Wales	-13846
▁grate	-13847
▁poore	-13848
▁rains	-13849
▁vigil	-13850
▁Kapoor	-13851
▁banned	-13852
▁ranges	-13853
▁Chauhan	-13854
▁Madurai	-13855
▁legitim	-13856
▁locally	-13857
▁worried	-13858
▁synchron	-13859
▁testator	-13860
▁cultivated	-13861
▁ammunitions	-13862
▁permissions	-13863
▁inflammation	-13864
▁Vy	-13865
riya	-13866
▁Abu	-13867
▁MAN	-13868
▁OBC	-13869
usive	-13870
▁Fran	-13871
▁dual	-13872
▁lend	-13873
▁Large	-13874
▁amply	-13875
▁proxy	-13876
limited	-13877
▁Ansari	-13878
▁derive	-13879
▁weekly	-13880
▁anxiety	-13881
▁tribute	-13882
▁inherited	-13883
▁sugarcane	-13884
▁practicable	-13885
▁supervisory	-13886
di	-13887
iga	-13888
▁ov	-13889
▁Gos	-13890
▁Lef	-13891
▁REL	-13892
▁sic	-13893
▁sue	-13894
owner	-13895
▁Shuk	-13896
▁Pipes	-13897
▁Title	-13898
▁knock	-13899
estions	-13900
▁Jurisd	-13901
▁Pandey	-13902
▁Return	-13903
▁charity	-13904
▁heights	-13905
▁superst	-13906
▁tenders	-13907
▁dwellers	-13908
▁criterion	-13909
▁recommends	-13910
▁condonation	-13911
▁consciously	-13912
▁Communication	-13913
▁neighbourhood	-13914
▁pharmaceutical	-13915
▁untouchability	-13916
ho	-13917
kara	-13918
▁CID	-13919
▁SID	-13920
▁cod	-13921
▁esp	-13922
▁Swed	-13923
▁Syed	-13924
▁lean	-13925
▁ward	-13926
ishers	-13927
▁globe	-13928
▁indis	-13929
▁rites	-13930
olation	-13931
▁Chaluk	-13932
▁Kittur	-13933
▁Contact	-13934
▁YouTube	-13935
▁Taxation	-13936
▁sciences	-13937
▁symbolic	-13938
▁Wikipedia	-13939
▁Concession	-13940
▁capacities	-13941
▁depression	-13942
▁justifiable	-13943
EAS	-13944
▁Si	-13945
reens	-13946
▁Dear	-13947
▁Saha	-13948
▁User	-13949
▁earm	-13950
▁fora	-13951
▁pale	-13952
inates	-13953
▁Peace	-13954
▁Share	-13955
sequent	-13956
uscript	-13957
▁Bhagav	-13958
▁Mizoram	-13959
▁Witness	-13960
▁accuracy	-13961
▁interval	-13962
▁Complaint	-13963
▁aesthetic	-13964
▁recruited	-13965
▁screening	-13966
▁alienation	-13967
▁transition	-13968
▁SD	-13969
▁Gob	-13970
▁Hor	-13971
▁rod	-13972
uling	-13973
▁Sten	-13974
▁zeal	-13975
rishna	-13976
▁indemn	-13977
▁Between	-13978
▁fitness	-13979
▁harness	-13980
▁offline	-13981
valuation	-13982
▁Nagaland	-13983
▁enjoying	-13984
▁Mauritius	-13985
▁Screening	-13986
▁recipient	-13987
▁converting	-13988
▁periodical	-13989
▁touchstone	-13990
▁advertisements	-13991
▁KB	-13992
▁Cop	-13993
▁Mak	-13994
▁Vad	-13995
based	-13996
lings	-13997
marks	-13998
▁alph	-13999
▁hate	-14000
▁onto	-14001
▁Eight	-14002
▁Field	-14003
▁Naval	-14004
▁Produ	-14005
▁lakes	-14006
▁Spirit	-14007
▁misrep	-14008
▁sketch	-14009
▁teleph	-14010
▁equated	-14011
▁spheres	-14012
▁tonnage	-14013
unciation	-14014
▁Normally	-14015
▁warrants	-14016
▁agitation	-14017
▁surprised	-14018
otechnology	-14019
▁strategies	-14020
▁Undoubtedly	-14021
▁politicians	-14022
fa	-14023
pel	-14024
▁CB	-14025
anag	-14026
neys	-14027
okes	-14028
▁PDF	-14029
▁Rup	-14030
▁UTs	-14031
place	-14032
▁Abol	-14033
▁Cash	-14034
amount	-14035
▁Place	-14036
▁encry	-14037
▁spont	-14038
▁unpre	-14039
ineness	-14040
▁Assets	-14041
▁Choose	-14042
▁Delete	-14043
▁strang	-14044
▁suprem	-14045
▁Santosh	-14046
▁ascetic	-14047
▁grammar	-14048
▁segments	-14049
▁Chartered	-14050
▁allottees	-14051
▁exploited	-14052
▁intestine	-14053
▁satisfact	-14054
lla	-14055
anki	-14056
ethe	-14057
ifur	-14058
▁NRI	-14059
▁REP	-14060
▁cub	-14061
▁eco	-14062
▁ost	-14063
rator	-14064
▁Bull	-14065
▁Left	-14066
▁Qual	-14067
▁rans	-14068
▁trip	-14069
olence	-14070
▁Debts	-14071
▁Mukul	-14072
▁hindi	-14073
▁rocks	-14074
▁scrap	-14075
▁wives	-14076
ulously	-14077
▁Baroda	-14078
▁Dalmia	-14079
▁intake	-14080
▁proven	-14081
▁apportion	-14082
▁celebrate	-14083
▁offensive	-14084
onda	-14085
udal	-14086
▁Hom	-14087
▁Tan	-14088
▁pel	-14089
▁tone	-14090
▁diver	-14091
▁sewer	-14092
loading	-14093
▁impair	-14094
▁Equally	-14095
▁captive	-14096
▁poultry	-14097
▁redress	-14098
▁Analysis	-14099
▁Specific	-14100
▁receiver	-14101
▁Champions	-14102
▁repugnant	-14103
Corporation	-14104
▁attempting	-14105
▁disturbance	-14106
aryn	-14107
▁Gad	-14108
▁NPA	-14109
▁Uda	-14110
▁gal	-14111
aiver	-14112
tings	-14113
▁Sriv	-14114
▁cens	-14115
ubilee	-14116
▁Blood	-14117
▁Oriya	-14118
▁Saheb	-14119
▁abrog	-14120
▁chick	-14121
▁County	-14122
▁Yamuna	-14123
▁nowhere	-14124
witnesses	-14125
▁Amritsar	-14126
▁annually	-14127
▁forcibly	-14128
▁ideology	-14129
▁proposes	-14130
▁practised	-14131
▁accountable	-14132
▁forthcoming	-14133
▁satisfactorily	-14134
▁confidentiality	-14135
PCB	-14136
cap	-14137
▁Hab	-14138
▁LIN	-14139
▁Kart	-14140
▁adds	-14141
▁caut	-14142
▁pays	-14143
▁veil	-14144
▁Ganes	-14145
▁Javed	-14146
▁Naidu	-14147
▁affair	-14148
▁Individ	-14149
▁suffice	-14150
▁advisory	-14151
▁creatures	-14152
▁particles	-14153
▁sentiment	-14154
▁Submission	-14155
▁disclosing	-14156
▁restrained	-14157
▁Vivekananda	-14158
▁occasionally	-14159
▁inappropriate	-14160
isa	-14161
ked	-14162
apse	-14163
have	-14164
▁Mos	-14165
▁Ajit	-14166
▁Meer	-14167
▁NDPS	-14168
▁unha	-14169
astava	-14170
aswami	-14171
▁Deccan	-14172
▁hotels	-14173
▁theore	-14174
▁enquire	-14175
▁divisions	-14176
▁prosecuting	-14177
GA	-14178
haw	-14179
wad	-14180
▁HR	-14181
▁RP	-14182
▁ix	-14183
▁ox	-14184
emic	-14185
anasi	-14186
inath	-14187
▁Bhan	-14188
▁Much	-14189
▁pour	-14190
▁Youth	-14191
▁nutri	-14192
icherry	-14193
ructive	-14194
▁Dharam	-14195
▁assure	-14196
▁landed	-14197
▁redund	-14198
▁vacate	-14199
▁implead	-14200
▁presume	-14201
▁repairs	-14202
▁magnific	-14203
▁Premchand	-14204
▁Literature	-14205
▁accusation	-14206
▁attracting	-14207
▁unsuccessful	-14208
▁dissemination	-14209
ALE	-14210
IAL	-14211
alat	-14212
brid	-14213
▁Pap	-14214
▁ber	-14215
▁cyl	-14216
▁imb	-14217
▁Gian	-14218
▁brah	-14219
▁slip	-14220
utants	-14221
▁Tenth	-14222
▁embry	-14223
▁heter	-14224
▁liked	-14225
▁mouse	-14226
▁solic	-14227
▁tired	-14228
rolling	-14229
▁astron	-14230
▁locked	-14231
▁avoiding	-14232
▁kilogram	-14233
Chancellor	-14234
▁intrinsic	-14235
▁listening	-14236
▁panchayat	-14237
▁violating	-14238
▁Programmes	-14239
▁compulsion	-14240
▁designation	-14241
▁reproduction	-14242
▁authoritative	-14243
ulc	-14244
asts	-14245
onia	-14246
▁Shr	-14247
▁NDMC	-14248
▁exig	-14249
payment	-14250
▁Dawood	-14251
▁Guards	-14252
itorious	-14253
▁compact	-14254
▁Philosop	-14255
▁mortgaged	-14256
▁Litigation	-14257
▁unexpected	-14258
▁comfortable	-14259
▁genuineness	-14260
▁Jurisdiction	-14261
ket	-14262
▁Ho	-14263
chud	-14264
▁Mic	-14265
▁bol	-14266
▁Maul	-14267
▁anth	-14268
iorari	-14269
outing	-14270
▁Divan	-14271
▁Years	-14272
▁clust	-14273
▁inacc	-14274
▁inhib	-14275
▁yards	-14276
▁Joseph	-14277
▁lessor	-14278
▁dancing	-14279
▁Catholic	-14280
▁depicted	-14281
▁refunded	-14282
aeological	-14283
▁declining	-14284
▁searching	-14285
▁protective	-14286
ICA	-14287
alp	-14288
cha	-14289
asha	-14290
itic	-14291
▁Tim	-14292
▁lux	-14293
▁maj	-14294
MINAL	-14295
worth	-14296
▁bere	-14297
▁brid	-14298
▁flaw	-14299
▁Cadre	-14300
▁cough	-14301
▁dread	-14302
▁verte	-14303
▁dictum	-14304
▁topics	-14305
▁treasury	-14306
▁Abolition	-14307
▁defaulter	-14308
▁estimates	-14309
▁intervene	-14310
▁possesses	-14311
▁elaborated	-14312
▁tantamount	-14313
▁uncertainty	-14314
▁demonstration	-14315
alu	-14316
mph	-14317
uka	-14318
urna	-14319
▁Raw	-14320
▁Nirm	-14321
▁desc	-14322
▁fals	-14323
▁lone	-14324
▁unin	-14325
......	-14326
▁Above	-14327
▁Forty	-14328
▁Psych	-14329
▁Salim	-14330
▁cargo	-14331
▁coins	-14332
▁glaci	-14333
▁voter	-14334
▁zones	-14335
▁edible	-14336
▁strain	-14337
erencing	-14338
▁bullets	-14339
▁Medicine	-14340
▁Shekhadi	-14341
▁anterior	-14342
▁clothing	-14343
▁merchant	-14344
▁republic	-14345
▁emphasise	-14346
▁intervals	-14347
▁proximity	-14348
▁suppliers	-14349
▁emoluments	-14350
▁households	-14351
▁ineligible	-14352
▁rectification	-14353
IAN	-14354
RIS	-14355
sis	-14356
▁DL	-14357
▁IM	-14358
uing	-14359
▁CEC	-14360
▁Gok	-14361
▁Lin	-14362
▁tie	-14363
idity	-14364
▁Crit	-14365
▁Exam	-14366
▁yarn	-14367
▁Pratima	-14368
▁CRIMINAL	-14369
▁militant	-14370
▁explicitly	-14371
▁sanitation	-14372
▁grandfather	-14373
▁extinguished	-14374
▁distinguishable	-14375
def	-14376
rig	-14377
tha	-14378
▁Ep	-14379
▁SAR	-14380
▁ham	-14381
▁SING	-14382
▁aven	-14383
▁curb	-14384
HERJEE	-14385
edding	-14386
pering	-14387
▁Ghose	-14388
▁pests	-14389
▁Ashram	-14390
▁Samiti	-14391
▁fortun	-14392
▁lessons	-14393
▁parting	-14394
▁vibrant	-14395
erculosis	-14396
isticated	-14397
▁prompted	-14398
▁MUKHERJEE	-14399
▁deterrent	-14400
▁suspicious	-14401
▁Pondicherry	-14402
apu	-14403
jar	-14404
▁Fi	-14405
▁Gow	-14406
▁Wel	-14407
▁Jack	-14408
▁Sham	-14409
▁fing	-14410
▁sper	-14411
odhpur	-14412
▁Dipak	-14413
▁Latin	-14414
▁Mahav	-14415
utorily	-14416
▁wounds	-14417
▁Tenancy	-14418
▁analyse	-14419
▁dangers	-14420
▁parking	-14421
▁textile	-14422
▁monopoly	-14423
▁monument	-14424
▁Commander	-14425
▁adjourned	-14426
▁Irrigation	-14427
▁categorical	-14428
▁constructions	-14429
BT	-14430
ELL	-14431
IES	-14432
imals	-14433
print	-14434
▁Edit	-14435
▁MMDR	-14436
▁Rana	-14437
ceived	-14438
ussion	-14439
▁Kapil	-14440
▁Range	-14441
▁assim	-14442
▁Grants	-14443
▁analys	-14444
▁elucid	-14445
▁pulled	-14446
▁Gandhar	-14447
▁bureauc	-14448
▁forever	-14449
▁indulge	-14450
▁updated	-14451
▁Products	-14452
▁comprise	-14453
▁deletion	-14454
▁glorious	-14455
▁imminent	-14456
▁pressing	-14457
▁shopping	-14458
▁popularity	-14459
▁counselling	-14460
▁denominator	-14461
▁disappeared	-14462
▁inconvenience	-14463
ois	-14464
upp	-14465
ball	-14466
▁SAT	-14467
ceans	-14468
ifier	-14469
isans	-14470
olent	-14471
▁Moon	-14472
▁Pram	-14473
▁Send	-14474
▁unav	-14475
▁unqu	-14476
rivial	-14477
▁Color	-14478
▁Rohat	-14479
nection	-14480
▁Powers	-14481
▁marble	-14482
▁mature	-14483
▁poured	-14484
itations	-14485
▁Earlier	-14486
▁Masters	-14487
▁defense	-14488
▁drafted	-14489
▁dividing	-14490
▁forehead	-14491
▁treasure	-14492
▁adventure	-14493
▁appraisal	-14494
▁mortgagee	-14495
▁reservoir	-14496
▁sanctions	-14497
▁smuggling	-14498
▁Contractor	-14499
▁flexibility	-14500
▁Corporations	-14501
२३	-14502
▁LO	-14503
▁dt	-14504
leep	-14505
xade	-14506
▁Muz	-14507
▁SER	-14508
▁lin	-14509
▁ric	-14510
amind	-14511
ieval	-14512
scale	-14513
▁quad	-14514
rapped	-14515
uclear	-14516
▁Prize	-14517
▁decay	-14518
▁opted	-14519
▁tenth	-14520
▁actors	-14521
▁anomal	-14522
▁revive	-14523
▁walked	-14524
rocities	-14525
▁Forward	-14526
▁succumb	-14527
▁Progress	-14528
▁balances	-14529
[...]
