<unk>	0
<s>	0
</s>	0
UuRrLl	0
DdAaTtEe	0
NnUuMm	0
▁t	-0
he	-1
▁a	-2
▁the	-3
in	-4
▁o	-5
re	-6
on	-7
er	-8
at	-9
en	-10
▁of	-11
▁s	-12
is	-13
ed	-14
▁,	-15
it	-16
▁c	-17
▁p	-18
▁w	-19
▁.	-20
nd	-21
▁b	-22
ion	-23
▁in	-24
or	-25
es	-26
▁f	-27
an	-28
al	-29
ar	-30
▁to	-31
as	-32
▁d	-33
ing	-34
ou	-35
ic	-36
▁and	-37
ent	-38
▁h	-39
▁m	-40
▁th	-41
▁re	-42
le	-43
ct	-44
ro	-45
▁n	-46
▁be	-47
▁is	-48
▁T	-49
▁S	-50
▁e	-51
ce	-52
ot	-53
▁C	-54
os	-55
id	-56
▁A	-57
ation	-58
▁I	-59
▁that	-60
il	-61
us	-62
om	-63
ut	-64
ve	-65
▁l	-66
▁on	-67
im	-68
ment	-69
et	-70
ad	-71
ur	-72
ly	-73
▁for	-74
▁P	-75
▁con	-76
▁The	-77
▁as	-78
am	-79
ap	-80
▁by	-81
▁or	-82
▁pro	-83
▁g	-84
▁de	-85
st	-86
▁su	-87
▁&	-88
her	-89
▁was	-90
▁not	-91
ch	-92
ll	-93
ri	-94
pp	-95
ate	-96
▁u	-97
▁wh	-98
ver	-99
▁an	-100
our	-101
ay	-102
▁wit	-103
▁M	-104
ow	-105
ir	-106
▁it	-107
ant	-108
ain	-109
▁st	-110
ld	-111
if	-112
se	-113
▁R	-114
ter	-115
▁with	-116
▁B	-117
apos	-118
ig	-119
ere	-120
▁he	-121
ul	-122
ab	-123
▁H	-124
qu	-125
ect	-126
ess	-127
▁D	-128
▁app	-129
ers	-130
▁)	-131
▁(	-132
ol	-133
▁has	-134
▁ex	-135
res	-136
▁N	-137
ge	-138
ition	-139
▁com	-140
and	-141
▁v	-142
ist	-143
▁al	-144
ra	-145
ourt	-146
▁-	-147
ak	-148
▁are	-149
est	-150
ated	-151
ity	-152
cc	-153
od	-154
ich	-155
ore	-156
ther	-157
end	-158
▁G	-159
▁which	-160
▁at	-161
ud	-162
▁sh	-163
▁ha	-164
▁this	-165
art	-166
rom	-167
nder	-168
iv	-169
um	-170
ould	-171
▁/	-172
ence	-173
▁res	-174
nt	-175
▁Court	-176
ort	-177
ec	-178
▁from	-179
▁O	-180
▁under	-181
ies	-182
▁E	-183
gh	-184
▁le	-185
la	-186
▁In	-187
▁have	-188
▁y	-189
ive	-190
ure	-191
ial	-192
ase	-193
ice	-194
em	-195
un	-196
▁his	-197
etition	-198
▁L	-199
▁W	-200
▁there	-201
ard	-202
▁been	-203
ction	-204
ted	-205
so	-206
ill	-207
all	-208
op	-209
ell	-210
▁j	-211
pl	-212
▁acc	-213
▁any	-214
ust	-215
red	-216
▁petition	-217
▁F	-218
▁cont	-219
pon	-220
▁fa	-221
▁K	-222
oc	-223
ord	-224
▁dis	-225
▁whe	-226
aid	-227
ff	-228
▁se	-229
able	-230
▁ad	-231
ance	-232
▁also	-233
▁sub	-234
▁J	-235
th	-236
▁ch	-237
ie	-238
ia	-239
▁ab	-240
▁can	-241
▁per	-242
▁case	-243
ame	-244
▁It	-245
▁had	-246
ary	-247
▁r	-248
▁:	-249
ear	-250
mit	-251
▁all	-252
ag	-253
▁Ind	-254
▁ag	-255
▁ev	-256
lic	-257
fore	-258
der	-259
▁no	-260
used	-261
▁int	-262
▁part	-263
▁im	-264
sion	-265
ous	-266
ac	-267
▁were	-268
▁such	-269
ned	-270
over	-271
▁other	-272
ision	-273
ire	-274
pt	-275
igh	-276
du	-277
▁Th	-278
▁k	-279
▁comp	-280
▁prov	-281
ution	-282
▁St	-283
per	-284
▁rec	-285
rou	-286
age	-287
ue	-288
ade	-289
▁sp	-290
ount	-291
▁No	-292
ind	-293
ide	-294
▁ne	-295
mis	-296
ip	-297
▁tr	-298
▁ar	-299
▁said	-300
▁inc	-301
▁en	-302
▁cons	-303
ib	-304
ict	-305
▁off	-306
ee	-307
erv	-308
ome	-309
▁V	-310
▁Act	-311
▁would	-312
▁order	-313
fter	-314
▁dec	-315
out	-316
pos	-317
ght	-318
use	-319
▁qu	-320
pond	-321
ical	-322
▁un	-323
▁U	-324
aw	-325
port	-326
rit	-327
ime	-328
ection	-329
▁reg	-330
▁pl	-331
erson	-332
▁we	-333
ish	-334
ass	-335
▁who	-336
ans	-337
ub	-338
pondent	-339
ied	-340
▁their	-341
▁do	-342
▁pres	-343
ations	-344
▁pos	-345
▁He	-346
ru	-347
▁person	-348
ong	-349
overn	-350
▁petitioner	-351
▁tak	-352
ced	-353
orm	-354
▁me	-355
▁made	-356
▁one	-357
iz	-358
aint	-359
▁but	-360
▁out	-361
▁its	-362
ree	-363
▁Ch	-364
istr	-365
iff	-366
▁rel	-367
oin	-368
▁am	-369
▁so	-370
▁De	-371
▁India	-372
▁Com	-373
ident	-374
ments	-375
ult	-376
▁pre	-377
▁wor	-378
▁respondent	-379
▁may	-380
ail	-381
ered	-382
av	-383
▁accused	-384
▁ob	-385
▁mat	-386
▁will	-387
ased	-388
▁him	-389
▁they	-390
ast	-391
▁man	-392
▁fact	-393
one	-394
▁def	-395
ness	-396
▁year	-397
og	-398
ok	-399
overnment	-400
▁only	-401
stit	-402
▁time	-403
▁her	-404
ellant	-405
pect	-406
ces	-407
ific	-408
ine	-409
ile	-410
▁State	-411
ry	-412
ove	-413
rib	-414
are	-415
mitted	-416
▁again	-417
▁if	-418
▁As	-419
ings	-420
ach	-421
idence	-422
▁pr	-423
▁you	-424
ious	-425
uth	-426
ory	-427
hed	-428
mission	-429
ject	-430
▁ent	-431
▁before	-432
ik	-433
▁same	-434
▁appellant	-435
ise	-436
▁Re	-437
▁;	-438
form	-439
▁ri	-440
▁Ex	-441
▁sc	-442
▁ind	-443
ual	-444
ood	-445
▁applic	-446
▁ass	-447
me	-448
▁iss	-449
▁em	-450
ang	-451
ound	-452
▁after	-453
▁inv	-454
▁Sh	-455
sel	-456
▁law	-457
ath	-458
▁ref	-459
▁shall	-460
▁Government	-461
▁This	-462
ty	-463
▁jud	-464
▁consid	-465
ber	-466
▁Su	-467
▁where	-468
amp	-469
erm	-470
uthor	-471
▁when	-472
el	-473
▁ac	-474
▁There	-475
.0	-476
ah	-477
oy	-478
ating	-479
▁evidence	-480
urther	-481
inal	-482
▁dated	-483
▁them	-484
not	-485
vel	-486
ention	-487
iew	-488
▁against	-489
very	-490
▁fil	-491
▁Con	-492
▁being	-493
▁tw	-494
▁imp	-495
▁should	-496
ates	-497
ost	-498
ign	-499
▁requ	-500
ight	-501
▁court	-502
▁work	-503
aj	-504
ert	-505
▁cla	-506
▁writ	-507
ities	-508
▁inter	-509
▁record	-510
ose	-511
▁up	-512
▁pur	-513
▁pol	-514
▁right	-515
nce	-516
oint	-517
▁into	-518
▁conc	-519
ank	-520
▁pla	-521
▁act	-522
▁about	-523
▁cannot	-524
▁pass	-525
▁giv	-526
ark	-527
own	-528
▁bec	-529
ward	-530
ian	-531
▁state	-532
▁cl	-533
ract	-534
▁lear	-535
▁fir	-536
ex	-537
ceed	-538
irect	-539
▁disc	-540
▁On	-541
▁comm	-542
▁two	-543
▁mak	-544
oll	-545
▁further	-546
▁gr	-547
▁provision	-548
▁serv	-549
▁over	-550
ular	-551
▁present	-552
▁PW	-553
▁these	-554
ite	-555
stitution	-556
led	-557
▁0	-558
ower	-559
ause	-560
leg	-561
ublic	-562
▁kn	-563
▁witness	-564
ason	-565
ens	-566
ress	-567
wn	-568
old	-569
ack	-570
ative	-571
ffic	-572
▁set	-573
lect	-574
ute	-575
▁proper	-576
amin	-577
estion	-578
ond	-579
pre	-580
▁author	-581
▁att	-582
act	-583
▁rem	-584
eal	-585
▁some	-586
ained	-587
▁spec	-588
▁dece	-589
ays	-590
▁stated	-591
▁land	-592
ever	-593
ved	-594
▁char	-595
▁learned	-596
sec	-597
▁could	-598
dition	-599
rial	-600
▁rep	-601
ational	-602
een	-603
▁more	-604
▁she	-605
▁bet	-606
▁view	-607
ci	-608
ild	-609
▁our	-610
uring	-611
ession	-612
▁deceased	-613
▁report	-614
▁held	-615
oun	-616
▁matter	-617
▁Pro	-618
round	-619
any	-620
▁taken	-621
▁trans	-622
▁first	-623
▁even	-624
▁issu	-625
eral	-626
lud	-627
ature	-628
▁proceed	-629
ash	-630
▁filed	-631
▁An	-632
▁reason	-633
▁op	-634
ility	-635
ible	-636
ised	-637
ife	-638
▁pay	-639
▁form	-640
▁years	-641
▁plaint	-642
▁Ad	-643
ike	-644
cy	-645
▁judg	-646
▁Y	-647
ving	-648
▁diff	-649
ided	-650
▁pe	-651
ors	-652
▁compl	-653
▁Pr	-654
▁det	-655
▁sec	-656
ited	-657
iction	-658
ired	-659
▁decision	-660
▁given	-661
▁prosec	-662
▁Sing	-663
ffect	-664
▁produ	-665
▁ro	-666
▁question	-667
▁claim	-668
oth	-669
▁ext	-670
ploy	-671
▁regard	-672
ug	-673
▁poss	-674
irc	-675
ax	-676
▁exp	-677
ven	-678
▁”	-679
reat	-680
▁leg	-681
▁consider	-682
ollow	-683
▁well	-684
velop	-685
ha	-686
▁te	-687
rough	-688
▁%	-689
▁Un	-690
▁must	-691
ified	-692
endant	-693
▁High	-694
▁appro	-695
ween	-696
ting	-697
▁respect	-698
▁term	-699
▁supp	-700
part	-701
ough	-702
▁mem	-703
▁des	-704
ook	-705
owever	-706
▁Jud	-707
▁follow	-708
▁application	-709
▁than	-710
▁between	-711
▁found	-712
ily	-713
▁inst	-714
▁plaintiff	-715
cept	-716
▁“	-717
▁just	-718
ram	-719
▁us	-720
▁upon	-721
ful	-722
▁like	-723
▁conf	-724
▁suit	-725
ouse	-726
▁inform	-727
▁above	-728
ep	-729
▁through	-730
▁Rs	-731
erred	-732
▁therefore	-733
erc	-734
▁go	-735
ble	-736
▁then	-737
iod	-738
▁bel	-739
▁employ	-740
▁new	-741
▁cle	-742
▁public	-743
▁circ	-744
▁count	-745
self	-746
▁examin	-747
▁within	-748
▁i	-749
ended	-750
▁Bh	-751
▁direct	-752
▁amount	-753
▁did	-754
hi	-755
other	-756
li	-757
▁submitted	-758
▁We	-759
▁power	-760
vers	-761
ody	-762
▁period	-763
▁here	-764
▁place	-765
erest	-766
ople	-767
▁find	-768
▁passed	-769
preme	-770
▁ra	-771
▁Mr	-772
ale	-773
▁defendant	-774
▁bas	-775
▁without	-776
its	-777
▁does	-778
te	-779
▁judgment	-780
ances	-781
ules	-782
▁par	-783
rim	-784
▁date	-785
ording	-786
abl	-787
▁offic	-788
ral	-789
cess	-790
▁includ	-791
▁provisions	-792
ural	-793
▁Supreme	-794
▁val	-795
ification	-796
▁invest	-797
ng	-798
▁prosecution	-799
▁Singh	-800
▁Section	-801
▁cert	-802
istrict	-803
▁occ	-804
ient	-805
▁appeal	-806
ocu	-807
▁interest	-808
ater	-809
ari	-810
esh	-811
▁inj	-812
▁Ar	-813
rap	-814
▁own	-815
▁petitioners	-816
ince	-817
▁ret	-818
▁Indian	-819
urn	-820
ric	-821
▁est	-822
▁people	-823
▁differe	-824
ew	-825
▁cor	-826
ule	-827
▁what	-828
hen	-829
und	-830
ged	-831
▁?	-832
▁rece	-833
▁hand	-834
▁But	-835
▁docu	-836
▁see	-837
▁persons	-838
▁SC	-839
arm	-840
uc	-841
ases	-842
▁clear	-843
ix	-844
▁av	-845
▁mon	-846
▁very	-847
▁purpos	-848
▁gen	-849
▁whether	-850
ief	-851
▁Offic	-852
bit	-853
▁call	-854
▁If	-855
▁partic	-856
ft	-857
▁effect	-858
▁Commission	-859
ital	-860
▁gu	-861
▁ins	-862
▁alleg	-863
▁mark	-864
▁issued	-865
▁col	-866
▁App	-867
ished	-868
▁while	-869
▁know	-870
▁name	-871
tern	-872
ros	-873
ally	-874
▁inf	-875
▁post	-876
ices	-877
▁nec	-878
▁used	-879
▁grant	-880
▁circum	-881
▁concer	-882
▁account	-883
▁trial	-884
▁statement	-885
▁sy	-886
▁read	-887
app	-888
hy	-889
▁make	-890
por	-891
▁prin	-892
uted	-893
▁develop	-894
▁during	-895
▁ground	-896
ctions	-897
▁min	-898
▁show	-899
ents	-900
ene	-901
▁property	-902
▁car	-903
erial	-904
▁both	-905
▁circumst	-906
ior	-907
sh	-908
duct	-909
▁ear	-910
▁take	-911
▁&#	-912
▁because	-913
▁my	-914
▁bl	-915
igation	-916
aining	-917
ange	-918
▁disp	-919
▁need	-920
▁num	-921
▁section	-922
▁good	-923
▁rele	-924
▁process	-925
ob	-926
▁facts	-927
▁authority	-928
▁get	-929
▁soc	-930
▁house	-931
▁having	-932
▁your	-933
▁police	-934
ner	-935
posed	-936
ith	-937
▁comple	-938
row	-939
▁allow	-940
con	-941
▁let	-942
▁Or	-943
erence	-944
▁parties	-945
▁necess	-946
ode	-947
▁adv	-948
▁dem	-949
▁stand	-950
ized	-951
bers	-952
ning	-953
▁basis	-954
▁different	-955
▁pri	-956
▁District	-957
▁aff	-958
▁Res	-959
▁way	-960
▁sent	-961
miss	-962
▁obs	-963
▁life	-964
illa	-965
ather	-966
iness	-967
▁three	-968
▁material	-969
▁rev	-970
gan	-971
▁word	-972
ave	-973
▁those	-974
ai	-975
read	-976
partment	-977
man	-978
▁offence	-979
▁back	-980
▁hold	-981
▁service	-982
ool	-983
ink	-984
▁came	-985
uris	-986
anc	-987
▁appear	-988
▁Ram	-989
▁proceedings	-990
▁establ	-991
▁Ben	-992
min	-993
▁opp	-994
▁Wh	-995
▁down	-996
ption	-997
sequ	-998
lt	-999
iet	-1000
▁And	-1001
▁ord	-1002
ister	-1003
▁avail	-1004
▁Pres	-1005
ants	-1006
ivil	-1007
▁dist	-1008
▁&#9	-1009
ures	-1010
als	-1011
med	-1012
▁’	-1013
▁Judge	-1014
ges	-1015
▁For	-1016
▁day	-1017
▁Cent	-1018
ither	-1019
urre	-1020
▁Acc	-1021
▁cases	-1022
olog	-1023
ati	-1024
▁stat	-1025
▁notice	-1026
▁condition	-1027
▁Officer	-1028
▁equ	-1029
▁subject	-1030
ten	-1031
crib	-1032
ores	-1033
▁Pol	-1034
▁required	-1035
ism	-1036
▁cap	-1037
▁exerc	-1038
mitt	-1039
ived	-1040
han	-1041
▁br	-1042
ross	-1043
uch	-1044
▁bus	-1045
▁child	-1046
▁company	-1047
▁co	-1048
ality	-1049
stem	-1050
▁juris	-1051
▁circumstances	-1052
▁Raj	-1053
ees	-1054
▁concerned	-1055
▁considered	-1056
lement	-1057
▁country	-1058
less	-1059
lection	-1060
▁contin	-1061
▁observ	-1062
umar	-1063
chn	-1064
▁import	-1065
after	-1066
bitr	-1067
▁ed	-1068
ock	-1069
▁af	-1070
way	-1071
eg	-1072
▁agree	-1073
▁witnesses	-1074
▁sit	-1075
diction	-1076
les	-1077
stru	-1078
▁Therefore	-1079
▁cent	-1080
ency	-1081
▁Reg	-1082
ides	-1083
ey	-1084
▁action	-1085
▁However	-1086
▁fam	-1087
▁fl	-1088
oard	-1089
ribun	-1090
mittee	-1091
▁So	-1092
▁li	-1093
▁body	-1094
▁beh	-1095
ending	-1096
▁every	-1097
ability	-1098
▁appoint	-1099
▁ple	-1100
▁Constitution	-1101
riminal	-1102
▁death	-1103
▁test	-1104
▁month	-1105
▁issue	-1106
eth	-1107
▁purpose	-1108
hes	-1109
▁jurisdiction	-1110
ivers	-1111
IR	-1112
▁Par	-1113
▁use	-1114
▁cre	-1115
tic	-1116
ically	-1117
iry	-1118
arch	-1119
ret	-1120
lus	-1121
▁Man	-1122
har	-1123
up	-1124
▁sim	-1125
▁non	-1126
ull	-1127
▁contract	-1128
▁They	-1129
▁conduct	-1130
▁med	-1131
icial	-1132
▁lit	-1133
▁due	-1134
▁particular	-1135
ared	-1136
gg	-1137
uty	-1138
ov	-1139
ined	-1140
▁support	-1141
▁respondents	-1142
▁now	-1143
ages	-1144
▁Am	-1145
▁del	-1146
enef	-1147
▁exec	-1148
▁acqu	-1149
▁come	-1150
cil	-1151
err	-1152
vant	-1153
▁number	-1154
arge	-1155
ries	-1156
air	-1157
▁Sec	-1158
▁Min	-1159
▁each	-1160
▁coun	-1161
quot	-1162
▁var	-1163
ribunal	-1164
alf	-1165
▁President	-1166
ck	-1167
oresaid	-1168
▁another	-1169
▁point	-1170
▁necessary	-1171
▁long	-1172
▁since	-1173
▁nature	-1174
▁aforesaid	-1175
▁mention	-1176
bt	-1177
ourse	-1178
▁end	-1179
▁po	-1180
▁party	-1181
▁information	-1182
▁great	-1183
▁Ass	-1184
▁benef	-1185
▁Sc	-1186
▁many	-1187
▁prev	-1188
▁bu	-1189
▁She	-1190
▁ca	-1191
▁Comp	-1192
pri	-1193
aring	-1194
▁Kumar	-1195
▁exist	-1196
▁abs	-1197
▁lim	-1198
▁mis	-1199
ator	-1200
ought	-1201
▁terms	-1202
▁system	-1203
▁Rules	-1204
▁award	-1205
ately	-1206
ying	-1207
▁fail	-1208
allen	-1209
na	-1210
▁At	-1211
pra	-1212
▁second	-1213
cip	-1214
▁oper	-1215
anch	-1216
▁possession	-1217
▁stud	-1218
of	-1219
▁sign	-1220
▁et	-1221
▁Hon	-1222
▁injur	-1223
AR	-1224
▁Mah	-1225
▁available	-1226
▁letter	-1227
sequent	-1228
PC	-1229
▁mar	-1230
▁Ap	-1231
chool	-1232
▁Coun	-1233
▁add	-1234
▁..	-1235
▁conv	-1236
▁str	-1237
▁etc	-1238
▁che	-1239
▁various	-1240
▁ve	-1241
▁result	-1242
▁referred	-1243
inion	-1244
▁members	-1245
▁world	-1246
▁Sp	-1247
▁business	-1248
ination	-1249
ried	-1250
icy	-1251
▁All	-1252
uk	-1253
ace	-1254
▁along	-1255
▁sche	-1256
▁sm	-1257
▁Police	-1258
ready	-1259
ured	-1260
▁Shri	-1261
ST	-1262
EN	-1263
raph	-1264
▁lead	-1265
▁charge	-1266
▁bro	-1267
here	-1268
▁already	-1269
ains	-1270
▁relevant	-1271
isl	-1272
▁consideration	-1273
quiry	-1274
▁expl	-1275
eep	-1276
illage	-1277
▁Tr	-1278
ugned	-1279
ya	-1280
▁Is	-1281
▁recorded	-1282
▁called	-1283
▁most	-1284
▁loc	-1285
▁tax	-1286
▁impugned	-1287
▁itself	-1288
▁rest	-1289
ick	-1290
▁opinion	-1291
ointed	-1292
▁Central	-1293
▁open	-1294
▁Tribunal	-1295
▁provided	-1296
▁challen	-1297
ata	-1298
▁prog	-1299
ences	-1300
▁cause	-1301
▁certain	-1302
▁When	-1303
resent	-1304
▁Sub	-1305
▁...	-1306
▁ph	-1307
lp	-1308
▁mod	-1309
hip	-1310
▁bank	-1311
ives	-1312
▁appellants	-1313
▁commun	-1314
▁That	-1315
ateg	-1316
▁put	-1317
▁sur	-1318
▁fore	-1319
▁maint	-1320
ren	-1321
▁dismiss	-1322
▁incident	-1323
▁legal	-1324
▁following	-1325
enior	-1326
▁Committee	-1327
▁supra	-1328
▁vi	-1329
▁including	-1330
▁according	-1331
▁deal	-1332
▁list	-1333
▁mind	-1334
▁Thus	-1335
▁fav	-1336
▁dra	-1337
cedure	-1338
istration	-1339
▁prom	-1340
au	-1341
▁educ	-1342
ising	-1343
▁days	-1344
▁init	-1345
▁arbitr	-1346
▁investigation	-1347
▁Department	-1348
▁agreement	-1349
▁complaint	-1350
lim	-1351
gu	-1352
▁dire	-1353
ually	-1354
▁meet	-1355
▁far	-1356
▁Rule	-1357
▁examination	-1358
▁transf	-1359
▁Board	-1360
uation	-1361
▁though	-1362
att	-1363
▁object	-1364
▁based	-1365
uman	-1366
▁done	-1367
▁ser	-1368
▁den	-1369
▁course	-1370
cribed	-1371
gt	-1372
ron	-1373
get	-1374
ana	-1375
▁dou	-1376
af	-1377
▁indust	-1378
▁documents	-1379
tal	-1380
▁Eng	-1381
▁alleged	-1382
AT	-1383
▁give	-1384
▁say	-1385
orpor	-1386
alth	-1387
iety	-1388
▁ident	-1389
roup	-1390
▁family	-1391
▁ver	-1392
▁Code	-1393
pur	-1394
iding	-1395
▁development	-1396
▁pen	-1397
olution	-1398
ples	-1399
IC	-1400
▁start	-1401
▁favour	-1402
ilar	-1403
▁earli	-1404
▁manner	-1405
▁entire	-1406
▁vide	-1407
▁Gu	-1408
▁mean	-1409
angu	-1410
unction	-1411
ogn	-1412
▁sett	-1413
ork	-1414
▁entit	-1415
ple	-1416
wards	-1417
ph	-1418
istered	-1419
▁institution	-1420
otion	-1421
▁much	-1422
▁represent	-1423
▁Cr	-1424
ulation	-1425
▁orig	-1426
▁final	-1427
▁To	-1428
▁admitted	-1429
AN	-1430
▁conn	-1431
▁organ	-1432
inary	-1433
▁allowed	-1434
rol	-1435
ines	-1436
▁constru	-1437
▁submit	-1438
ivision	-1439
ially	-1440
conom	-1441
▁Bank	-1442
lig	-1443
imes	-1444
▁either	-1445
▁sale	-1446
ER	-1447
▁cross	-1448
▁means	-1449
▁help	-1450
▁sat	-1451
▁Petition	-1452
ortun	-1453
▁SCC	-1454
par	-1455
omm	-1456
pe	-1457
▁general	-1458
▁Adv	-1459
▁position	-1460
▁high	-1461
az	-1462
▁appointment	-1463
▁however	-1464
▁fin	-1465
ext	-1466
▁subst	-1467
reed	-1468
▁Col	-1469
▁making	-1470
▁received	-1471
▁determ	-1472
▁vis	-1473
ird	-1474
▁Ag	-1475
▁cr	-1476
▁respon	-1477
▁Direct	-1478
▁prot	-1479
▁words	-1480
pted	-1481
▁Bench	-1482
▁mentioned	-1483
▁tre	-1484
▁look	-1485
▁area	-1486
▁Al	-1487
ons	-1488
ering	-1489
▁took	-1490
ense	-1491
▁Mag	-1492
▁income	-1493
▁sum	-1494
rie	-1495
▁According	-1496
▁Del	-1497
▁others	-1498
▁cop	-1499
ached	-1500
▁After	-1501
▁techn	-1502
▁herein	-1503
▁how	-1504
▁exercise	-1505
▁assess	-1506
section	-1507
▁earlier	-1508
by	-1509
▁common	-1510
▁invol	-1511
▁policy	-1512
▁Se	-1513
isf	-1514
▁left	-1515
▁last	-1516
▁seek	-1517
▁pun	-1518
hib	-1519
osp	-1520
ology	-1521
▁clause	-1522
▁Dr	-1523
▁document	-1524
▁payment	-1525
▁ten	-1526
▁mer	-1527
oney	-1528
atory	-1529
▁orders	-1530
▁exper	-1531
ication	-1532
▁office	-1533
▁criminal	-1534
▁behalf	-1535
▁tem	-1536
▁Te	-1537
▁class	-1538
▁registered	-1539
ars	-1540
▁prof	-1541
▁complain	-1542
▁examined	-1543
iversity	-1544
lusion	-1545
▁argu	-1546
▁entitled	-1547
▁depos	-1548
agement	-1549
ics	-1550
ditional	-1551
ivid	-1552
stand	-1553
ield	-1554
▁justice	-1555
▁doubt	-1556
eed	-1557
onment	-1558
▁water	-1559
▁ask	-1560
ets	-1561
▁written	-1562
▁father	-1563
ake	-1564
▁perform	-1565
▁Delhi	-1566
▁important	-1567
owers	-1568
▁paid	-1569
▁Gen	-1570
▁continu	-1571
lected	-1572
ves	-1573
ruct	-1574
▁dep	-1575
▁officer	-1576
▁thus	-1577
ience	-1578
▁demand	-1579
▁National	-1580
▁require	-1581
▁princip	-1582
▁placed	-1583
▁stage	-1584
▁taking	-1585
ression	-1586
ways	-1587
AL	-1588
▁committed	-1589
00	-1590
▁langu	-1591
▁rights	-1592
▁want	-1593
▁discus	-1594
▁seen	-1595
▁econom	-1596
ization	-1597
▁below	-1598
ledge	-1599
▁granted	-1600
itation	-1601
▁services	-1602
▁exc	-1603
▁contr	-1604
▁dispute	-1605
jection	-1606
▁cand	-1607
▁detail	-1608
osed	-1609
▁lo	-1610
ES	-1611
ested	-1612
▁tra	-1613
▁real	-1614
▁satisf	-1615
istrate	-1616
wise	-1617
val	-1618
▁activ	-1619
▁Vs	-1620
▁complainant	-1621
▁fund	-1622
▁proved	-1623
oh	-1624
▁viol	-1625
▁book	-1626
▁government	-1627
▁ir	-1628
▁observed	-1629
▁head	-1630
utes	-1631
arent	-1632
▁nor	-1633
▁mere	-1634
day	-1635
▁wom	-1636
ony	-1637
▁cost	-1638
▁priv	-1639
▁Commissioner	-1640
▁duty	-1641
▁candid	-1642
▁original	-1643
ibility	-1644
▁four	-1645
rought	-1646
▁light	-1647
▁known	-1648
lf	-1649
▁raised	-1650
▁dev	-1651
▁Civil	-1652
▁sugg	-1653
▁reference	-1654
▁indic	-1655
▁obt	-1656
▁conditions	-1657
ocate	-1658
▁hig	-1659
rect	-1660
▁These	-1661
▁accept	-1662
▁value	-1663
▁reasons	-1664
▁General	-1665
ms	-1666
▁special	-1667
▁opportun	-1668
▁Magistrate	-1669
▁fee	-1670
see	-1671
fficient	-1672
ively	-1673
▁You	-1674
▁ty	-1675
▁war	-1676
su	-1677
▁human	-1678
▁less	-1679
▁vict	-1680
overed	-1681
▁admin	-1682
▁money	-1683
ON	-1684
▁away	-1685
war	-1686
▁accord	-1687
▁happ	-1688
jud	-1689
▁Author	-1690
▁pract	-1691
atural	-1692
▁directed	-1693
ensation	-1694
▁months	-1695
▁incre	-1696
▁som	-1697
▁file	-1698
▁Division	-1699
▁brought	-1700
orn	-1701
▁rule	-1702
▁except	-1703
▁establish	-1704
▁son	-1705
▁judicial	-1706
▁appropri	-1707
cing	-1708
▁large	-1709
▁met	-1710
ENT	-1711
ize	-1712
endent	-1713
▁prep	-1714
▁going	-1715
▁legisl	-1716
ger	-1717
soci	-1718
▁group	-1719
▁care	-1720
idav	-1721
▁contention	-1722
▁Chand	-1723
ists	-1724
▁age	-1725
▁decl	-1726
▁dismissed	-1727
▁build	-1728
▁project	-1729
▁Corpor	-1730
▁towards	-1731
agraph	-1732
3;	-1733
▁&#93;	-1734
▁pat	-1735
▁rules	-1736
ancial	-1737
▁play	-1738
▁scheme	-1739
▁punish	-1740
▁himself	-1741
▁cred	-1742
uly	-1743
1;	-1744
▁&#91;	-1745
▁complete	-1746
▁submission	-1747
▁succ	-1748
▁individ	-1749
▁Sri	-1750
band	-1751
▁produced	-1752
▁Sche	-1753
▁acce	-1754
▁till	-1755
▁main	-1756
▁ey	-1757
▁wife	-1758
▁side	-1759
▁possible	-1760
▁went	-1761
oss	-1762
▁stre	-1763
▁small	-1764
▁Serv	-1765
mb	-1766
essee	-1767
ospital	-1768
agar	-1769
▁respons	-1770
▁cust	-1771
ts	-1772
▁Courts	-1773
▁knowledge	-1774
▁categ	-1775
▁level	-1776
▁clearly	-1777
▁become	-1778
ani	-1779
▁sever	-1780
▁apply	-1781
▁specific	-1782
▁established	-1783
▁society	-1784
eration	-1785
ions	-1786
▁constit	-1787
▁children	-1788
▁run	-1789
▁victim	-1790
▁got	-1791
▁provide	-1792
▁University	-1793
▁product	-1794
▁fix	-1795
▁individual	-1796
▁Pl	-1797
▁Law	-1798
▁never	-1799
▁contended	-1800
▁counsel	-1801
▁village	-1802
▁il	-1803
No	-1804
▁cro	-1805
▁think	-1806
iance	-1807
▁social	-1808
ressed	-1809
▁purch	-1810
▁reported	-1811
▁Not	-1812
▁appointed	-1813
adesh	-1814
ificate	-1815
▁ann	-1816
amm	-1817
▁appropriate	-1818
▁decided	-1819
▁five	-1820
▁eng	-1821
▁Mus	-1822
▁mother	-1823
▁thereafter	-1824
▁aspect	-1825
▁affidav	-1826
▁prior	-1827
▁school	-1828
▁short	-1829
ellate	-1830
▁grow	-1831
▁conclusion	-1832
ala	-1833
▁Company	-1834
rest	-1835
▁initi	-1836
▁tend	-1837
ify	-1838
RB	-1839
▁civil	-1840
▁relating	-1841
ters	-1842
▁relig	-1843
▁illeg	-1844
urrence	-1845
▁powers	-1846
hic	-1847
▁enc	-1848
▁gl	-1849
▁keep	-1850
usband	-1851
▁education	-1852
lia	-1853
ajor	-1854
duced	-1855
aged	-1856
▁proble	-1857
ope	-1858
▁polit	-1859
▁prescribed	-1860
▁Cont	-1861
▁bre	-1862
▁whole	-1863
▁accepted	-1864
▁program	-1865
▁language	-1866
▁Director	-1867
▁regarding	-1868
▁reject	-1869
igned	-1870
▁Spec	-1871
▁Chief	-1872
▁delay	-1873
▁copy	-1874
hing	-1875
▁regular	-1876
▁Mad	-1877
anj	-1878
▁Apex	-1879
▁employees	-1880
▁FIR	-1881
▁instru	-1882
▁goods	-1883
riage	-1884
▁relief	-1885
umb	-1886
aking	-1887
▁compensation	-1888
▁Co	-1889
▁cult	-1890
▁separ	-1891
error	-1892
▁authorities	-1893
asht	-1894
ember	-1895
▁compet	-1896
▁Order	-1897
▁OF	-1898
▁near	-1899
▁several	-1900
sw	-1901
▁Ab	-1902
utory	-1903
▁adver	-1904
▁total	-1905
liament	-1906
▁free	-1907
▁Even	-1908
▁recomm	-1909
▁old	-1910
medi	-1911
▁market	-1912
▁Q	-1913
▁discl	-1914
▁force	-1915
IT	-1916
ential	-1917
resh	-1918
▁procedure	-1919
▁IST	-1920
▁defendants	-1921
ging	-1922
▁Hind	-1923
action	-1924
▁husband	-1925
▁Respondent	-1926
▁Ins	-1927
▁among	-1928
ium	-1929
isation	-1930
▁benefit	-1931
alk	-1932
▁natural	-1933
▁full	-1934
▁too	-1935
▁pray	-1936
▁matters	-1937
▁san	-1938
▁times	-1939
▁Be	-1940
▁sought	-1941
▁similar	-1942
▁accordance	-1943
▁appears	-1944
empt	-1945
▁working	-1946
overy	-1947
▁qual	-1948
▁paragraph	-1949
▁His	-1950
▁Engl	-1951
▁Council	-1952
▁appre	-1953
▁rate	-1954
▁Corporation	-1955
▁fri	-1956
▁nex	-1957
ricult	-1958
▁suff	-1959
ciples	-1960
mber	-1961
▁otherwise	-1962
▁laid	-1963
ably	-1964
▁meas	-1965
▁direction	-1966
ling	-1967
▁sing	-1968
▁adop	-1969
▁occurrence	-1970
▁interf	-1971
que	-1972
▁New	-1973
ours	-1974
▁prim	-1975
▁En	-1976
▁fe	-1977
▁share	-1978
▁deed	-1979
arily	-1980
▁major	-1981
▁artic	-1982
IN	-1983
ieve	-1984
▁valid	-1985
ane	-1986
▁wind	-1987
idd	-1988
▁aside	-1989
urity	-1990
▁ide	-1991
▁Further	-1992
iving	-1993
ware	-1994
▁Union	-1995
ery	-1996
▁blood	-1997
ends	-1998
vi	-1999
▁hearing	-2000
▁What	-2001
▁control	-2002
▁defence	-2003
OR	-2004
sure	-2005
▁correct	-2006
aly	-2007
▁principle	-2008
▁brother	-2009
▁Bi	-2010
▁field	-2011
▁six	-2012
▁medical	-2013
▁opportunity	-2014
ris	-2015
▁transfer	-2016
▁sk	-2017
icult	-2018
ething	-2019
td	-2020
▁substant	-2021
▁assessment	-2022
▁dead	-2023
▁note	-2024
▁x	-2025
▁spot	-2026
▁move	-2027
▁failed	-2028
▁return	-2029
▁affidavit	-2030
▁reasonable	-2031
▁health	-2032
▁change	-2033
▁subsequent	-2034
oid	-2035
hys	-2036
abad	-2037
▁Comm	-2038
acher	-2039
▁recogn	-2040
▁Aug	-2041
▁neg	-2042
ern	-2043
ta	-2044
▁later	-2045
▁propos	-2046
▁charact	-2047
▁trad	-2048
▁Authority	-2049
▁super	-2050
▁true	-2051
▁vac	-2052
▁private	-2053
▁still	-2054
▁injuries	-2055
▁answ	-2056
akh	-2057
▁success	-2058
▁function	-2059
ems	-2060
▁Nos	-2061
▁Special	-2062
▁Public	-2063
▁vehic	-2064
▁Pradesh	-2065
▁decree	-2066
imum	-2067
work	-2068
▁proceeding	-2069
▁charges	-2070
▁principles	-2071
ali	-2072
duc	-2073
▁sw	-2074
gar	-2075
▁es	-2076
atic	-2077
▁objection	-2078
▁next	-2079
▁official	-2080
▁today	-2081
▁ur	-2082
▁sufficient	-2083
tle	-2084
ship	-2085
▁sal	-2086
▁sl	-2087
▁affect	-2088
▁Ann	-2089
▁ess	-2090
▁States	-2091
▁sus	-2092
▁ful	-2093
▁financial	-2094
▁intern	-2095
▁Prov	-2096
▁plead	-2097
▁plan	-2098
▁pref	-2099
▁always	-2100
▁higher	-2101
vest	-2102
▁fram	-2103
▁Pat	-2104
▁Muslim	-2105
▁provides	-2106
ats	-2107
▁Develop	-2108
ension	-2109
ipl	-2110
▁IPC	-2111
▁chang	-2112
▁One	-2113
▁national	-2114
▁finding	-2115
▁applicant	-2116
lied	-2117
▁mand	-2118
▁indep	-2119
▁self	-2120
orth	-2121
▁caused	-2122
▁contained	-2123
▁port	-2124
▁undert	-2125
endment	-2126
▁Part	-2127
▁giving	-2128
thing	-2129
▁relations	-2130
▁impro	-2131
venue	-2132
▁Z	-2133
augh	-2134
ury	-2135
▁presence	-2136
ks	-2137
▁Secret	-2138
sed	-2139
▁sect	-2140
▁bring	-2141
▁nothing	-2142
▁meeting	-2143
▁Ltd	-2144
arat	-2145
lam	-2146
▁With	-2147
▁dri	-2148
▁best	-2149
▁nam	-2150
▁treat	-2151
outh	-2152
▁namely	-2153
▁Cla	-2154
▁once	-2155
▁mot	-2156
▁elect	-2157
▁Kh	-2158
▁prepared	-2159
▁enquiry	-2160
१०	-2161
▁arrest	-2162
▁Med	-2163
▁Parliament	-2164
uf	-2165
▁injury	-2166
▁fac	-2167
▁meaning	-2168
▁asked	-2169
▁third	-2170
amination	-2171
▁bey	-2172
▁wr	-2173
▁step	-2174
▁fall	-2175
▁ii	-2176
▁extent	-2177
▁beyond	-2178
istry	-2179
ote	-2180
▁senior	-2181
▁lic	-2182
▁PR	-2183
▁Kar	-2184
▁areas	-2185
▁By	-2186
come	-2187
▁conducted	-2188
▁denied	-2189
▁situation	-2190
vir	-2191
▁holding	-2192
for	-2193
▁prove	-2194
ann	-2195
▁kind	-2196
▁Ext	-2197
dule	-2198
▁guil	-2199
▁loss	-2200
ructure	-2201
▁div	-2202
aper	-2203
HE	-2204
▁Advocate	-2205
ercial	-2206
▁submits	-2207
▁intention	-2208
▁Just	-2209
ape	-2210
▁norm	-2211
▁sust	-2212
une	-2213
▁unless	-2214
▁Station	-2215
▁decla	-2216
ush	-2217
▁Pre	-2218
▁Minister	-2219
standing	-2220
illed	-2221
▁hist	-2222
ample	-2223
vey	-2224
▁specified	-2225
ID	-2226
▁Educ	-2227
ribution	-2228
to	-2229
▁immedi	-2230
▁outs	-2231
▁petitions	-2232
▁local	-2233
▁tit	-2234
▁notification	-2235
▁Such	-2236
ulated	-2237
ards	-2238
▁pop	-2239
ara	-2240
igating	-2241
▁carry	-2242
▁Development	-2243
▁certificate	-2244
▁able	-2245
hold	-2246
▁review	-2247
gether	-2248
▁together	-2249
asion	-2250
▁thereof	-2251
unt	-2252
ma	-2253
utive	-2254
ected	-2255
▁statutory	-2256
ault	-2257
anation	-2258
urned	-2259
▁filing	-2260
▁something	-2261
▁While	-2262
ories	-2263
ept	-2264
▁fal	-2265
ties	-2266
▁doct	-2267
▁lab	-2268
▁bar	-2269
▁difficult	-2270
▁mo	-2271
▁liable	-2272
ently	-2273
acity	-2274
▁Ra	-2275
▁home	-2276
▁started	-2277
ened	-2278
▁students	-2279
go	-2280
rish	-2281
▁capital	-2282
▁deposed	-2283
lege	-2284
▁relied	-2285
▁hard	-2286
▁employee	-2287
irm	-2288
indu	-2289
▁courts	-2290
▁absence	-2291
▁Sm	-2292
▁states	-2293
▁Under	-2294
▁therein	-2295
▁previous	-2296
▁decisions	-2297
urd	-2298
▁lib	-2299
▁applicable	-2300
▁comput	-2301
▁issues	-2302
bs	-2303
▁aut	-2304
▁serious	-2305
▁belong	-2306
avan	-2307
ND	-2308
▁Govern	-2309
▁political	-2310
isition	-2311
acy	-2312
▁bail	-2313
▁member	-2314
▁ut	-2315
▁phys	-2316
▁economic	-2317
▁fair	-2318
iary	-2319
▁character	-2320
▁few	-2321
▁credit	-2322
▁X	-2323
▁Page	-2324
▁ach	-2325
▁Panch	-2326
▁assessee	-2327
▁wrong	-2328
▁settled	-2329
▁Senior	-2330
▁construction	-2331
▁ill	-2332
▁Gand	-2333
gin	-2334
▁Me	-2335
▁food	-2336
▁expression	-2337
alc	-2338
▁daugh	-2339
selves	-2340
▁around	-2341
ruit	-2342
▁el	-2343
▁Soc	-2344
ubl	-2345
with	-2346
▁unt	-2347
▁Lim	-2348
▁disch	-2349
▁Hindu	-2350
▁sentence	-2351
▁event	-2352
▁May	-2353
▁dom	-2354
▁countries	-2355
urance	-2356
..	-2357
erg	-2358
▁false	-2359
ues	-2360
▁II	-2361
▁purposes	-2362
arma	-2363
▁foreign	-2364
▁recei	-2365
essions	-2366
▁declar	-2367
▁merely	-2368
▁pending	-2369
▁maintain	-2370
▁Cre	-2371
adi	-2372
▁shown	-2373
amb	-2374
▁kept	-2375
cious	-2376
irit	-2377
irt	-2378
▁arri	-2379
iting	-2380
▁leave	-2381
▁building	-2382
▁AIR	-2383
▁candidates	-2384
▁marriage	-2385
▁wherein	-2386
▁Jan	-2387
ancy	-2388
▁Beng	-2389
▁English	-2390
▁Leg	-2391
▁fut	-2392
ternal	-2393
▁Brit	-2394
▁eff	-2395
▁resident	-2396
▁conviction	-2397
▁admission	-2398
vironment	-2399
▁women	-2400
▁rejected	-2401
▁production	-2402
▁sanction	-2403
ufact	-2404
▁crit	-2405
▁followed	-2406
▁activities	-2407
▁accordingly	-2408
ership	-2409
▁statements	-2410
▁institutions	-2411
▁Hence	-2412
▁para	-2413
ama	-2414
rix	-2415
▁pursu	-2416
▁election	-2417
▁forward	-2418
▁particip	-2419
ita	-2420
▁aver	-2421
▁ded	-2422
▁why	-2423
▁Invest	-2424
▁defin	-2425
ulations	-2426
ION	-2427
▁trade	-2428
▁Mun	-2429
▁publ	-2430
ethod	-2431
fully	-2432
▁Dis	-2433
▁Mar	-2434
omes	-2435
▁vol	-2436
▁offences	-2437
▁Secretary	-2438
▁Since	-2439
▁personal	-2440
II	-2441
law	-2442
▁Appeal	-2443
ead	-2444
▁ele	-2445
▁Criminal	-2446
ires	-2447
▁considering	-2448
eb	-2449
▁management	-2450
▁equal	-2451
▁vehicle	-2452
lu	-2453
▁net	-2454
emed	-2455
▁bal	-2456
▁whose	-2457
▁Counsel	-2458
▁implement	-2459
▁things	-2460
▁wee	-2461
anies	-2462
stitute	-2463
▁informed	-2464
▁department	-2465
▁mil	-2466
▁Rec	-2467
▁face	-2468
▁interpre	-2469
erve	-2470
▁promotion	-2471
▁und	-2472
ched	-2473
▁commit	-2474
▁follows	-2475
▁thought	-2476
tion	-2477
▁facil	-2478
rated	-2479
▁challenge	-2480
▁impos	-2481
eric	-2482
▁request	-2483
uses	-2484
▁School	-2485
▁God	-2486
ught	-2487
▁saf	-2488
▁noted	-2489
▁men	-2490
▁Assist	-2491
▁inn	-2492
▁Prin	-2493
▁gave	-2494
▁involved	-2495
▁Education	-2496
▁assist	-2497
▁Thereafter	-2498
▁claimed	-2499
▁THE	-2500
aving	-2501
atives	-2502
▁receipt	-2503
aff	-2504
▁Islam	-2505
itiz	-2506
▁price	-2507
▁restr	-2508
▁dispos	-2509
ills	-2510
▁might	-2511
iss	-2512
▁fixed	-2513
inate	-2514
▁imm	-2515
▁Cl	-2516
▁road	-2517
ament	-2518
▁streng	-2519
▁mult	-2520
▁commission	-2521
aul	-2522
ti	-2523
▁illegal	-2524
▁turn	-2525
irst	-2526
▁stay	-2527
▁design	-2528
▁HC	-2529
▁spirit	-2530
▁Justice	-2531
▁method	-2532
ource	-2533
▁mor	-2534
ril	-2535
.-	-2536
▁approach	-2537
▁connection	-2538
▁manufact	-2539
aya	-2540
▁grounds	-2541
▁agricult	-2542
ources	-2543
▁context	-2544
▁associ	-2545
▁plaintiffs	-2546
most	-2547
▁From	-2548
▁executed	-2549
▁contrary	-2550
▁effort	-2551
urrent	-2552
▁situ	-2553
▁March	-2554
▁occasion	-2555
▁treated	-2556
▁Sy	-2557
iced	-2558
rant	-2559
▁future	-2560
▁parent	-2561
▁Service	-2562
uled	-2563
▁needs	-2564
▁security	-2565
▁bound	-2566
hai	-2567
▁title	-2568
icated	-2569
▁registration	-2570
▁prob	-2571
▁related	-2572
▁seeking	-2573
▁young	-2574
reg	-2575
▁carried	-2576
▁heard	-2577
▁oppos	-2578
▁expect	-2579
▁Will	-2580
▁dam	-2581
rah	-2582
▁ensure	-2583
▁consum	-2584
▁owner	-2585
▁Annex	-2586
uary	-2587
▁recovery	-2588
men	-2589
rop	-2590
▁fr	-2591
▁Sar	-2592
▁Now	-2593
arant	-2594
imate	-2595
examination	-2596
▁became	-2597
▁additional	-2598
▁Sim	-2599
▁susp	-2600
ental	-2601
▁appreci	-2602
▁properties	-2603
▁cover	-2604
▁plant	-2605
IL	-2606
mes	-2607
itive	-2608
▁Tax	-2609
▁told	-2610
▁specif	-2611
erated	-2612
▁counter	-2613
▁constitution	-2614
▁lod	-2615
▁daughter	-2616
▁industry	-2617
▁Additional	-2618
▁penal	-2619
oad	-2620
▁Let	-2621
▁role	-2622
icip	-2623
▁Lal	-2624
▁crime	-2625
▁declaration	-2626
▁allegations	-2627
▁obtained	-2628
▁relation	-2629
▁Writ	-2630
▁poet	-2631
▁yet	-2632
▁declared	-2633
▁rese	-2634
ety	-2635
▁exam	-2636
enced	-2637
▁details	-2638
▁framed	-2639
udd	-2640
▁eas	-2641
int	-2642
ored	-2643
▁continue	-2644
▁cast	-2645
▁address	-2646
▁outside	-2647
▁spe	-2648
ED	-2649
▁little	-2650
▁ce	-2651
▁allot	-2652
▁arbitration	-2653
▁independent	-2654
▁Em	-2655
ancell	-2656
▁prosecut	-2657
atch	-2658
land	-2659
▁Where	-2660
ude	-2661
▁competent	-2662
itor	-2663
▁First	-2664
▁lar	-2665
▁permission	-2666
▁sector	-2667
▁officers	-2668
▁writing	-2669
▁reserv	-2670
▁Report	-2671
▁heart	-2672
▁furn	-2673
NIC	-2674
▁Muk	-2675
▁joint	-2676
▁rend	-2677
▁impl	-2678
ises	-2679
▁room	-2680
▁reached	-2681
▁hospital	-2682
omp	-2683
▁arr	-2684
▁better	-2685
▁applied	-2686
▁window	-2687
▁whom	-2688
ison	-2689
▁teacher	-2690
UR	-2691
▁intro	-2692
▁recommend	-2693
▁district	-2694
AM	-2695
ares	-2696
▁single	-2697
▁Indust	-2698
▁data	-2699
istrative	-2700
▁trust	-2701
omb	-2702
▁British	-2703
▁testim	-2704
pr	-2705
▁agg	-2706
▁instant	-2707
▁Fin	-2708
▁revision	-2709
▁bo	-2710
lying	-2711
११	-2712
acc	-2713
▁existing	-2714
▁quality	-2715
oted	-2716
▁Sur	-2717
▁discussion	-2718
▁particularly	-2719
▁Bhavan	-2720
▁Cons	-2721
▁Ministry	-2722
▁April	-2723
▁Hindi	-2724
▁Gandhi	-2725
▁Assistant	-2726
▁Created	-2727
▁Village	-2728
▁interim	-2729
▁existence	-2730
▁minor	-2731
▁House	-2732
▁execution	-2733
▁acquit	-2734
aries	-2735
▁strong	-2736
▁makes	-2737
▁shows	-2738
▁Petitioner	-2739
▁records	-2740
▁capacity	-2741
▁liter	-2742
▁Annexure	-2743
▁citiz	-2744
▁treatment	-2745
▁applications	-2746
pir	-2747
▁join	-2748
▁Sah	-2749
▁Ph	-2750
aster	-2751
▁enact	-2752
now	-2753
airs	-2754
▁mur	-2755
mises	-2756
▁summ	-2757
▁Rep	-2758
▁Panchay	-2759
▁anything	-2760
▁thing	-2761
missible	-2762
▁Artic	-2763
▁eye	-2764
▁growth	-2765
▁Sat	-2766
▁Rasht	-2767
dra	-2768
▁Procedure	-2769
▁themselves	-2770
▁Pal	-2771
cent	-2772
▁Le	-2773
▁separate	-2774
▁Sw	-2775
▁type	-2776
▁sense	-2777
▁live	-2778
▁close	-2779
UD	-2780
▁art	-2781
▁employment	-2782
▁search	-2783
▁subs	-2784
▁prevent	-2785
▁hence	-2786
▁fra	-2787
jee	-2788
▁entered	-2789
wal	-2790
cle	-2791
▁station	-2792
cri	-2793
▁Im	-2794
▁coming	-2795
▁mill	-2796
▁Lab	-2797
▁Bar	-2798
rs	-2799
▁sol	-2800
▁Limited	-2801
AD	-2802
▁line	-2803
uction	-2804
aka	-2805
▁love	-2806
▁neither	-2807
▁consist	-2808
▁Cong	-2809
reedom	-2810
▁Clause	-2811
though	-2812
kar	-2813
▁occur	-2814
▁operation	-2815
▁Sessions	-2816
▁lay	-2817
▁story	-2818
ring	-2819
▁appellate	-2820
▁region	-2821
▁findings	-2822
irl	-2823
▁passing	-2824
▁mus	-2825
enc	-2826
▁immediately	-2827
▁created	-2828
▁cut	-2829
▁elig	-2830
▁Americ	-2831
▁alone	-2832
▁Bihar	-2833
▁industrial	-2834
asad	-2835
tt	-2836
▁seized	-2837
ertain	-2838
▁ter	-2839
▁During	-2840
hibit	-2841
▁doing	-2842
▁approval	-2843
ift	-2844
▁posts	-2845
▁access	-2846
▁include	-2847
▁fun	-2848
io	-2849
▁died	-2850
▁Guj	-2851
▁Do	-2852
ipur	-2853
▁Bengal	-2854
▁murder	-2855
CT	-2856
▁selection	-2857
▁specifically	-2858
rapati	-2859
▁draw	-2860
▁Dep	-2861
▁Single	-2862
▁published	-2863
▁Off	-2864
▁IT	-2865
ening	-2866
▁amendment	-2867
olute	-2868
imal	-2869
▁inquiry	-2870
▁Bal	-2871
▁pointed	-2872
gr	-2873
▁Scheme	-2874
MENT	-2875
oice	-2876
ieved	-2877
▁mach	-2878
▁Trial	-2879
▁rendered	-2880
▁directions	-2881
▁friend	-2882
▁dest	-2883
ously	-2884
▁marked	-2885
▁benefits	-2886
▁integ	-2887
▁occup	-2888
▁don	-2889
▁led	-2890
▁analy	-2891
arth	-2892
▁Pun	-2893
▁liability	-2894
adu	-2895
▁lat	-2896
formation	-2897
▁har	-2898
▁past	-2899
▁mess	-2900
▁Pra	-2901
▁begin	-2902
▁Though	-2903
▁Dece	-2904
▁nar	-2905
▁gone	-2906
▁fresh	-2907
▁providing	-2908
▁z	-2909
lector	-2910
ji	-2911
▁progress	-2912
▁limited	-2913
▁tried	-2914
▁Rashtrapati	-2915
▁status	-2916
▁performance	-2917
ront	-2918
ilities	-2919
▁living	-2920
▁gre	-2921
▁key	-2922
▁Krish	-2923
▁merit	-2924
endra	-2925
▁physical	-2926
▁fit	-2927
ators	-2928
▁dise	-2929
▁least	-2930
▁discipl	-2931
▁firm	-2932
oor	-2933
semb	-2934
▁Medical	-2935
▁scale	-2936
irth	-2937
▁night	-2938
▁enfor	-2939
▁Lear	-2940
▁judge	-2941
vention	-2942
▁Some	-2943
▁materials	-2944
▁requirement	-2945
ott	-2946
▁nom	-2947
▁reply	-2948
▁custom	-2949
▁questions	-2950
adem	-2951
▁ign	-2952
bsite	-2953
verse	-2954
▁distin	-2955
▁Congress	-2956
▁addition	-2957
▁proposed	-2958
▁actually	-2959
pector	-2960
ians	-2961
▁bid	-2962
▁remed	-2963
uro	-2964
▁contem	-2965
▁air	-2966
▁parts	-2967
▁testimony	-2968
▁decide	-2969
atures	-2970
change	-2971
▁dr	-2972
▁continued	-2973
▁presum	-2974
retion	-2975
▁adopted	-2976
▁adjud	-2977
▁My	-2978
▁punishment	-2979
▁Ne	-2980
▁drawn	-2981
roll	-2982
▁permit	-2983
▁withdra	-2984
▁pension	-2985
▁Legisl	-2986
▁August	-2987
▁Exec	-2988
▁history	-2989
▁Trans	-2990
ada	-2991
▁Nar	-2992
▁Dh	-2993
▁reve	-2994
put	-2995
▁Pur	-2996
▁hands	-2997
▁experience	-2998
pective	-2999
▁Oct	-3000
▁often	-3001
▁problem	-3002
▁using	-3003
▁lower	-3004
▁guarant	-3005
▁version	-3006
▁January	-3007
▁saw	-3008
elling	-3009
▁deemed	-3010
eng	-3011
▁Lord	-3012
▁challenged	-3013
opp	-3014
▁red	-3015
▁Engine	-3016
▁link	-3017
▁Moh	-3018
▁impris	-3019
▁plea	-3020
▁appearing	-3021
▁Mahar	-3022
oot	-3023
▁accident	-3024
▁Pand	-3025
▁Smt	-3026
eness	-3027
erring	-3028
▁international	-3029
▁Applic	-3030
▁resolution	-3031
▁essential	-3032
ier	-3033
▁adj	-3034
▁recovered	-3035
apter	-3036
▁Feb	-3037
▁statute	-3038
▁freedom	-3039
▁Fore	-3040
▁Chh	-3041
▁Intern	-3042
▁Second	-3043
▁Techn	-3044
equ	-3045
▁pert	-3046
▁July	-3047
▁unf	-3048
▁produce	-3049
▁environment	-3050
istic	-3051
▁Chair	-3052
▁signific	-3053
aging	-3054
▁emp	-3055
▁Sept	-3056
▁instance	-3057
▁works	-3058
cell	-3059
▁feel	-3060
aps	-3061
▁aud	-3062
▁squ	-3063
▁truth	-3064
▁tender	-3065
▁fine	-3066
sequently	-3067
▁community	-3068
▁December	-3069
ns	-3070
▁scope	-3071
▁example	-3072
▁Per	-3073
▁absolute	-3074
using	-3075
▁products	-3076
▁noticed	-3077
asing	-3078
▁news	-3079
icted	-3080
▁rather	-3081
ung	-3082
▁proof	-3083
vis	-3084
pec	-3085
▁disposed	-3086
▁shop	-3087
▁advert	-3088
▁premises	-3089
RI	-3090
▁govern	-3091
ival	-3092
▁category	-3093
orrow	-3094
ruitment	-3095
▁RRB	-3096
hra	-3097
▁Pri	-3098
▁aware	-3099
ration	-3100
▁prosecutrix	-3101
▁website	-3102
▁Ev	-3103
▁comes	-3104
▁tradition	-3105
▁conver	-3106
bed	-3107
▁steps	-3108
▁attempt	-3109
▁loan	-3110
▁error	-3111
▁becomes	-3112
▁Judicial	-3113
aled	-3114
▁Prasad	-3115
ots	-3116
luded	-3117
ober	-3118
▁Mem	-3119
oper	-3120
▁protection	-3121
chan	-3122
▁influ	-3123
▁laws	-3124
▁lands	-3125
ran	-3126
▁guilty	-3127
BI	-3128
▁Sab	-3129
▁vari	-3130
aching	-3131
▁acquired	-3132
ili	-3133
▁attention	-3134
▁Def	-3135
▁basic	-3136
▁Accordingly	-3137
▁perman	-3138
▁imprisonment	-3139
▁mort	-3140
▁commercial	-3141
view	-3142
▁consequ	-3143
▁farm	-3144
▁Deputy	-3145
▁claims	-3146
▁injured	-3147
▁reading	-3148
▁More	-3149
▁deep	-3150
▁September	-3151
▁research	-3152
▁Dist	-3153
▁religious	-3154
▁host	-3155
▁discretion	-3156
anda	-3157
▁administration	-3158
▁virt	-3159
▁lakh	-3160
▁preferred	-3161
▁Arbitr	-3162
▁soon	-3163
▁assum	-3164
▁quant	-3165
▁responsible	-3166
▁ult	-3167
▁Learned	-3168
sing	-3169
▁setting	-3170
▁Int	-3171
pite	-3172
encies	-3173
▁sold	-3174
▁conscious	-3175
▁create	-3176
▁covered	-3177
ruary	-3178
uties	-3179
▁Mo	-3180
▁deli	-3181
▁cell	-3182
▁identified	-3183
jab	-3184
▁big	-3185
▁respective	-3186
line	-3187
▁sole	-3188
▁enter	-3189
AS	-3190
▁pot	-3191
bar	-3192
iso	-3193
▁hy	-3194
▁talk	-3195
▁Pen	-3196
inated	-3197
▁permitted	-3198
▁Ac	-3199
▁relationship	-3200
▁College	-3201
▁February	-3202
▁June	-3203
▁attack	-3204
ourn	-3205
▁Income	-3206
▁US	-3207
amental	-3208
▁accounts	-3209
▁fire	-3210
▁satisfied	-3211
▁examine	-3212
▁Princip	-3213
tation	-3214
ina	-3215
▁names	-3216
▁balance	-3217
▁consent	-3218
▁Collector	-3219
▁express	-3220
▁agreed	-3221
▁LRB	-3222
▁problems	-3223
▁violation	-3224
▁suggestion	-3225
▁half	-3226
icipal	-3227
▁concept	-3228
▁computer	-3229
▁practice	-3230
▁mut	-3231
ps	-3232
ager	-3233
▁wide	-3234
▁Bl	-3235
▁representation	-3236
uel	-3237
va	-3238
ami	-3239
▁almost	-3240
▁born	-3241
rd	-3242
▁explanation	-3243
▁Panchayat	-3244
▁nation	-3245
▁Gr	-3246
▁acquisition	-3247
▁Similar	-3248
▁Schedule	-3249
garh	-3250
▁paper	-3251
▁informant	-3252
▁Har	-3253
▁rent	-3254
▁enj	-3255
▁completed	-3256
uck	-3257
▁di	-3258
▁whereas	-3259
▁judgments	-3260
ender	-3261
▁List	-3262
▁quite	-3263
▁custody	-3264
▁page	-3265
▁Ple	-3266
▁const	-3267
▁movement	-3268
▁awarded	-3269
istrar	-3270
ological	-3271
ograph	-3272
▁sheet	-3273
▁girl	-3274
ankar	-3275
▁Punjab	-3276
▁penalty	-3277
▁woman	-3278
▁remain	-3279
▁argument	-3280
▁extended	-3281
iture	-3282
▁Af	-3283
▁Ah	-3284
pecially	-3285
▁Devi	-3286
els	-3287
heduled	-3288
ET	-3289
sis	-3290
▁top	-3291
▁entry	-3292
▁Gujarat	-3293
▁opposite	-3294
▁payable	-3295
riev	-3296
▁JUD	-3297
▁exercised	-3298
▁gra	-3299
▁technology	-3300
▁Ma	-3301
▁stands	-3302
▁getting	-3303
▁network	-3304
▁developed	-3305
▁appeals	-3306
▁thereby	-3307
▁effective	-3308
rob	-3309
estic	-3310
▁duties	-3311
▁Sharma	-3312
▁included	-3313
▁seiz	-3314
▁Other	-3315
▁West	-3316
duction	-3317
▁Inspector	-3318
▁defined	-3319
▁Ash	-3320
cription	-3321
▁article	-3322
▁Admin	-3323
▁Sun	-3324
ingu	-3325
▁....	-3326
▁reliance	-3327
hood	-3328
▁October	-3329
▁dealing	-3330
▁partn	-3331
▁threat	-3332
▁peace	-3333
▁refer	-3334
▁modern	-3335
iously	-3336
▁behind	-3337
▁evident	-3338
▁situated	-3339
anced	-3340
▁attract	-3341
▁Executive	-3342
▁simple	-3343
▁Information	-3344
body	-3345
▁check	-3346
▁proviso	-3347
▁pack	-3348
▁answer	-3349
▁minimum	-3350
▁technical	-3351
▁punishable	-3352
▁enough	-3353
be	-3354
▁parents	-3355
▁weap	-3356
▁Ka	-3357
▁fully	-3358
kh	-3359
▁sex	-3360
▁especially	-3361
▁training	-3362
▁argued	-3363
▁supported	-3364
▁text	-3365
▁Brah	-3366
▁liqu	-3367
▁imposed	-3368
▁acts	-3369
▁returned	-3370
▁until	-3371
▁supply	-3372
▁Go	-3373
▁JUDG	-3374
▁tele	-3375
rieved	-3376
▁cogn	-3377
▁ever	-3378
▁books	-3379
▁early	-3380
▁birth	-3381
▁portion	-3382
▁limit	-3383
imately	-3384
▁corpor	-3385
▁really	-3386
▁ought	-3387
▁clar	-3388
▁observations	-3389
▁guide	-3390
▁current	-3391
▁cur	-3392
▁source	-3393
▁approved	-3394
▁profession	-3395
▁Chandra	-3396
nat	-3397
▁wa	-3398
▁Appellant	-3399
▁register	-3400
▁requires	-3401
▁Hospital	-3402
▁employer	-3403
▁Bomb	-3404
▁United	-3405
▁injunction	-3406
▁phot	-3407
▁hon	-3408
itude	-3409
▁pros	-3410
▁duly	-3411
▁Principal	-3412
▁hours	-3413
▁cancell	-3414
▁settlement	-3415
▁scient	-3416
▁quar	-3417
▁energ	-3418
▁committee	-3419
▁visit	-3420
amil	-3421
lusive	-3422
▁Appellate	-3423
CC	-3424
ones	-3425
▁install	-3426
rut	-3427
▁deg	-3428
▁typ	-3429
▁pers	-3430
▁option	-3431
▁JUDGMENT	-3432
▁likely	-3433
▁companies	-3434
▁stip	-3435
▁Office	-3436
obile	-3437
avi	-3438
▁boy	-3439
rast	-3440
▁deposit	-3441
▁ren	-3442
▁Case	-3443
▁democ	-3444
▁protect	-3445
endence	-3446
▁default	-3447
▁Investigating	-3448
▁connected	-3449
rig	-3450
▁marks	-3451
▁Pe	-3452
▁signed	-3453
▁discussed	-3454
▁quas	-3455
▁fundamental	-3456
sembly	-3457
▁Mal	-3458
▁prejud	-3459
▁Bombay	-3460
com	-3461
ifying	-3462
uru	-3463
▁understand	-3464
▁lease	-3465
ras	-3466
ground	-3467
▁job	-3468
▁temple	-3469
dom	-3470
▁Nagar	-3471
▁articles	-3472
▁seven	-3473
▁la	-3474
▁mag	-3475
▁villa	-3476
enses	-3477
IA	-3478
▁altern	-3479
▁failure	-3480
ayan	-3481
pta	-3482
▁enjoy	-3483
▁collect	-3484
enance	-3485
▁discharge	-3486
porary	-3487
ancies	-3488
OU	-3489
▁Work	-3490
oke	-3491
▁Nove	-3492
apers	-3493
▁insp	-3494
▁fraud	-3495
▁Sam	-3496
▁sound	-3497
▁recruitment	-3498
ins	-3499
▁Shiv	-3500
▁Sci	-3501
▁ST	-3502
▁Gov	-3503
▁Associ	-3504
▁substantial	-3505
lack	-3506
▁functions	-3507
▁wid	-3508
▁activity	-3509
isc	-3510
▁terror	-3511
assion	-3512
▁facie	-3513
ining	-3514
▁initiated	-3515
▁November	-3516
wan	-3517
▁CR	-3518
▁actual	-3519
▁low	-3520
ference	-3521
▁places	-3522
▁determined	-3523
▁Bab	-3524
▁obl	-3525
▁apart	-3526
३०	-3527
▁shares	-3528
duce	-3529
▁Isra	-3530
ifications	-3531
elt	-3532
▁Registrar	-3533
▁sustained	-3534
१२	-3535
▁transaction	-3536
▁seizure	-3537
▁instead	-3538
let	-3539
hest	-3540
▁believe	-3541
erate	-3542
▁strength	-3543
▁Of	-3544
▁says	-3545
▁instrument	-3546
AG	-3547
▁assets	-3548
▁definition	-3549
under	-3550
istan	-3551
▁Penal	-3552
lines	-3553
▁log	-3554
▁fig	-3555
▁generally	-3556
▁facilities	-3557
▁suggest	-3558
ne	-3559
▁export	-3560
▁revenue	-3561
▁sister	-3562
▁aspects	-3563
▁greater	-3564
adav	-3565
▁Israel	-3566
▁sil	-3567
▁Provided	-3568
▁permanent	-3569
▁Revenue	-3570
▁Management	-3571
▁communication	-3572
irmed	-3573
ales	-3574
▁adverse	-3575
ett	-3576
obal	-3577
▁achieve	-3578
▁fell	-3579
▁expressed	-3580
ams	-3581
▁improve	-3582
▁energy	-3583
▁Plan	-3584
▁unit	-3585
▁bod	-3586
▁oral	-3587
herjee	-3588
krit	-3589
▁doctor	-3590
▁Super	-3591
▁structure	-3592
▁front	-3593
ulate	-3594
▁lodged	-3595
▁transferred	-3596
▁Application	-3597
▁Bhag	-3598
itable	-3599
▁directly	-3600
▁territ	-3601
oud	-3602
▁fulf	-3603
▁candidate	-3604
oti	-3605
eared	-3606
▁Prof	-3607
▁Institute	-3608
▁Patna	-3609
▁Euro	-3610
▁city	-3611
▁cogniz	-3612
▁transport	-3613
-0	-3614
▁religion	-3615
oj	-3616
▁constituted	-3617
▁extra	-3618
▁Then	-3619
▁remedy	-3620
▁prima	-3621
▁served	-3622
▁remained	-3623
ows	-3624
iddle	-3625
▁lost	-3626
▁Chairman	-3627
▁aim	-3628
▁importance	-3629
▁PRES	-3630
▁Shah	-3631
▁changes	-3632
▁signature	-3633
▁assistance	-3634
enty	-3635
ilt	-3636
▁Des	-3637
▁site	-3638
▁bill	-3639
ump	-3640
▁takes	-3641
▁Mand	-3642
▁costs	-3643
▁percent	-3644
▁Chapter	-3645
▁million	-3646
▁Mukherjee	-3647
utta	-3648
▁East	-3649
ousand	-3650
▁contribution	-3651
▁Rail	-3652
operative	-3653
▁Ors	-3654
dd	-3655
EC	-3656
▁substance	-3657
▁submissions	-3658
▁Karnat	-3659
▁administrative	-3660
▁Dev	-3661
▁agricultural	-3662
rid	-3663
▁increase	-3664
▁normal	-3665
▁population	-3666
▁affected	-3667
▁faith	-3668
▁efforts	-3669
▁Any	-3670
▁educational	-3671
▁Europe	-3672
▁purchase	-3673
iny	-3674
iti	-3675
▁max	-3676
rug	-3677
▁includes	-3678
▁arrange	-3679
▁PO	-3680
▁forms	-3681
ordinate	-3682
▁study	-3683
▁stru	-3684
▁advance	-3685
▁conferred	-3686
itary	-3687
▁Judges	-3688
OM	-3689
ouses	-3690
▁intended	-3691
▁gives	-3692
▁Bang	-3693
▁Exhibit	-3694
▁lack	-3695
▁Karnataka	-3696
▁keeping	-3697
▁described	-3698
hem	-3699
uting	-3700
▁arrived	-3701
▁leading	-3702
▁sou	-3703
▁message	-3704
▁agency	-3705
▁Stand	-3706
▁convicted	-3707
▁harm	-3708
aran	-3709
aken	-3710
▁Sabha	-3711
ables	-3712
▁enforce	-3713
erty	-3714
▁difference	-3715
▁prayer	-3716
ask	-3717
▁limitation	-3718
▁stri	-3719
eria	-3720
▁Land	-3721
▁offer	-3722
▁running	-3723
▁burd	-3724
▁goes	-3725
▁preced	-3726
▁Bill	-3727
▁Tamil	-3728
essing	-3729
abh	-3730
IS	-3731
ocation	-3732
▁resources	-3733
ga	-3734
▁engaged	-3735
▁oblig	-3736
de	-3737
aut	-3738
▁coll	-3739
▁remains	-3740
▁eligible	-3741
▁Municipal	-3742
▁ris	-3743
▁sure	-3744
rastructure	-3745
stituted	-3746
▁Qu	-3747
▁emph	-3748
urer	-3749
▁programme	-3750
▁interpretation	-3751
▁mental	-3752
ke	-3753
▁debt	-3754
wh	-3755
▁Muslims	-3756
▁inside	-3757
▁investment	-3758
▁carrying	-3759
athi	-3760
▁apparent	-3761
▁advertise	-3762
▁Lok	-3763
▁Krishna	-3764
▁merits	-3765
▁griev	-3766
▁compliance	-3767
▁forth	-3768
▁disease	-3769
▁disclos	-3770
,00	-3771
elf	-3772
▁emer	-3773
▁opens	-3774
▁patient	-3775
gment	-3776
▁selected	-3777
▁Account	-3778
▁Similarly	-3779
▁remo	-3780
▁Sa	-3781
▁Our	-3782
▁earth	-3783
▁speak	-3784
ij	-3785
▁Kash	-3786
▁added	-3787
▁Bas	-3788
apur	-3789
enditure	-3790
▁receive	-3791
esides	-3792
▁offered	-3793
▁Services	-3794
EL	-3795
▁Hy	-3796
▁International	-3797
▁Jag	-3798
▁exceed	-3799
▁arise	-3800
▁disclosed	-3801
▁er	-3802
▁distance	-3803
▁00	-3804
ishing	-3805
▁allegation	-3806
▁completion	-3807
▁Society	-3808
▁staff	-3809
▁arising	-3810
▁measures	-3811
▁Assam	-3812
▁eight	-3813
▁century	-3814
▁volunt	-3815
IDENT	-3816
▁arbitrator	-3817
▁IN	-3818
▁bad	-3819
vision	-3820
▁mechan	-3821
▁standard	-3822
▁Pran	-3823
▁else	-3824
ademic	-3825
▁der	-3826
▁presented	-3827
mir	-3828
▁forest	-3829
▁lot	-3830
robor	-3831
▁recording	-3832
cise	-3833
ading	-3834
▁South	-3835
▁determination	-3836
▁responsibility	-3837
▁explained	-3838
▁Red	-3839
▁Yadav	-3840
▁bearing	-3841
asm	-3842
inding	-3843
▁legislation	-3844
ban	-3845
rote	-3846
attis	-3847
ches	-3848
▁Stat	-3849
▁Das	-3850
▁constitutional	-3851
anskrit	-3852
▁Labour	-3853
▁contact	-3854
▁heav	-3855
▁weeks	-3856
rog	-3857
▁Right	-3858
umbai	-3859
▁size	-3860
▁establishment	-3861
▁memo	-3862
▁amended	-3863
▁construct	-3864
oval	-3865
▁Mon	-3866
▁funds	-3867
icate	-3868
▁thousand	-3869
uge	-3870
▁mass	-3871
▁Expl	-3872
ashtra	-3873
▁External	-3874
▁citizens	-3875
anga	-3876
▁Son	-3877
▁bi	-3878
uls	-3879
▁stating	-3880
▁arrested	-3881
sect	-3882
▁comb	-3883
▁SH	-3884
▁extract	-3885
▁Governor	-3886
▁PRESIDENT	-3887
▁retire	-3888
▁liberty	-3889
▁requirements	-3890
attisgarh	-3891
ora	-3892
▁Health	-3893
aily	-3894
nces	-3895
ishes	-3896
adh	-3897
lies	-3898
▁across	-3899
icide	-3900
▁reads	-3901
▁refers	-3902
▁How	-3903
▁wanted	-3904
▁emb	-3905
▁Som	-3906
▁none	-3907
▁corrobor	-3908
ava	-3909
▁Both	-3910
▁culture	-3911
▁disputed	-3912
▁Post	-3913
▁collected	-3914
▁factors	-3915
▁claimant	-3916
▁rightly	-3917
▁significant	-3918
▁soft	-3919
▁univers	-3920
▁burden	-3921
▁Nag	-3922
rief	-3923
▁aggrieved	-3924
rown	-3925
▁esc	-3926
ini	-3927
▁extre	-3928
▁IND	-3929
▁partition	-3930
▁Jain	-3931
▁breach	-3932
▁imper	-3933
▁wrote	-3934
▁indicated	-3935
undred	-3936
AY	-3937
▁poor	-3938
▁contempl	-3939
▁Calc	-3940
rate	-3941
▁labour	-3942
ING	-3943
▁Utt	-3944
ricity	-3945
estern	-3946
▁pan	-3947
▁pleaded	-3948
▁tell	-3949
illing	-3950
▁amounts	-3951
▁AP	-3952
▁Can	-3953
▁points	-3954
▁expected	-3955
▁Chhattisgarh	-3956
▁appeared	-3957
▁exchange	-3958
▁rural	-3959
▁licence	-3960
▁disciplinary	-3961
ional	-3962
aded	-3963
eet	-3964
▁formed	-3965
▁detention	-3966
▁Gupta	-3967
▁meant	-3968
rine	-3969
▁Add	-3970
sy	-3971
▁Trust	-3972
▁adequ	-3973
▁emphas	-3974
▁obligation	-3975
play	-3976
ength	-3977
▁incorpor	-3978
▁teachers	-3979
▁oil	-3980
▁tree	-3981
▁Article	-3982
usted	-3983
▁advant	-3984
▁unre	-3985
▁Fund	-3986
▁transl	-3987
▁broad	-3988
▁contrad	-3989
▁maintenance	-3990
tax	-3991
▁cond	-3992
▁Every	-3993
▁mal	-3994
ortem	-3995
▁Sanskrit	-3996
anger	-3997
▁cash	-3998
▁enable	-3999
▁pursuant	-4000
▁literature	-4001
▁ow	-4002
etimes	-4003
▁Andhra	-4004
▁scrut	-4005
▁warrant	-4006
▁sell	-4007
▁charged	-4008
▁Mumbai	-4009
▁detailed	-4010
▁Republic	-4011
▁measure	-4012
▁uns	-4013
othes	-4014
▁conven	-4015
▁interfere	-4016
▁frame	-4017
▁expenditure	-4018
▁inqu	-4019
▁whol	-4020
▁disputes	-4021
▁respectively	-4022
olk	-4023
▁units	-4024
▁majority	-4025
▁encour	-4026
▁subsequently	-4027
ique	-4028
▁quash	-4029
liminary	-4030
▁background	-4031
▁NO	-4032
▁officials	-4033
▁lev	-4034
erala	-4035
▁extend	-4036
▁central	-4037
▁arm	-4038
▁Before	-4039
▁completely	-4040
▁wall	-4041
▁workers	-4042
,000	-4043
▁Whe	-4044
iring	-4045
▁Pranab	-4046
▁excess	-4047
▁ordinary	-4048
▁felt	-4049
▁objections	-4050
osh	-4051
▁interference	-4052
▁१	-4053
▁Road	-4054
▁Kal	-4055
aves	-4056
AP	-4057
▁gold	-4058
ikh	-4059
eech	-4060
▁try	-4061
▁interests	-4062
▁Power	-4063
▁science	-4064
▁mode	-4065
▁path	-4066
utor	-4067
▁ll	-4068
▁entr	-4069
▁servant	-4070
▁although	-4071
dy	-4072
▁fast	-4073
▁Evidence	-4074
▁Kerala	-4075
ivity	-4076
▁proceeded	-4077
▁CPC	-4078
▁asc	-4079
▁suc	-4080
▁Centre	-4081
▁calc	-4082
▁spread	-4083
▁Regulations	-4084
▁salary	-4085
▁Calcutta	-4086
▁Gh	-4087
osop	-4088
nam	-4089
▁sac	-4090
bitral	-4091
IV	-4092
▁tri	-4093
▁Mark	-4094
▁looking	-4095
▁Maharashtra	-4096
▁initial	-4097
▁schedule	-4098
wa	-4099
▁repro	-4100
▁mom	-4101
atever	-4102
▁regards	-4103
vere	-4104
▁dealt	-4105
ributed	-4106
▁util	-4107
▁Class	-4108
▁hundred	-4109
ammu	-4110
▁Please	-4111
▁removal	-4112
iency	-4113
▁cal	-4114
earch	-4115
▁succeed	-4116
▁Head	-4117
▁domestic	-4118
▁properly	-4119
pper	-4120
▁categor	-4121
▁length	-4122
▁Jammu	-4123
actions	-4124
▁conflic	-4125
▁tot	-4126
▁idea	-4127
▁standing	-4128
▁maintained	-4129
▁validity	-4130
oon	-4131
▁Ent	-4132
▁global	-4133
▁handed	-4134
▁granting	-4135
ncy	-4136
▁legislature	-4137
▁anim	-4138
▁Shankar	-4139
▁base	-4140
▁round	-4141
▁wound	-4142
▁advocate	-4143
she	-4144
▁strict	-4145
▁constitute	-4146
▁publication	-4147
▁motor	-4148
▁innov	-4149
▁Arab	-4150
▁eyes	-4151
▁river	-4152
oms	-4153
ilosop	-4154
▁virtue	-4155
▁justified	-4156
▁alternative	-4157
abor	-4158
▁proposal	-4159
raft	-4160
▁Pak	-4161
▁stood	-4162
▁introduced	-4163
▁cy	-4164
▁won	-4165
▁consult	-4166
▁Their	-4167
▁king	-4168
▁unable	-4169
▁disposal	-4170
▁admit	-4171
▁prayed	-4172
mortem	-4173
▁Association	-4174
▁Ms	-4175
▁pred	-4176
▁black	-4177
▁contain	-4178
▁poll	-4179
ATION	-4180
▁Cert	-4181
▁degree	-4182
▁longer	-4183
▁tenant	-4184
enth	-4185
▁AS	-4186
▁letters	-4187
uss	-4188
▁indicate	-4189
oo	-4190
aram	-4191
atio	-4192
▁contents	-4193
ula	-4194
iable	-4195
▁reit	-4196
▁trib	-4197
▁preliminary	-4198
▁analysis	-4199
▁sustain	-4200
▁laun	-4201
▁quashed	-4202
▁instructions	-4203
▁named	-4204
▁AG	-4205
vell	-4206
aulted	-4207
▁Elect	-4208
▁dischar	-4209
▁reports	-4210
▁Scheduled	-4211
▁aid	-4212
▁arbitrary	-4213
hab	-4214
thern	-4215
▁vested	-4216
▁mandatory	-4217
haps	-4218
▁miscon	-4219
▁week	-4220
▁avoid	-4221
▁projects	-4222
▁Industrial	-4223
ley	-4224
▁Khan	-4225
▁diss	-4226
▁&#1	-4227
ply	-4228
▁camp	-4229
usion	-4230
▁insurance	-4231
▁increased	-4232
▁guidelines	-4233
izing	-4234
▁cheque	-4235
१३	-4236
▁unc	-4237
nother	-4238
▁commence	-4239
▁rail	-4240
olved	-4241
▁Whether	-4242
▁principal	-4243
▁corres	-4244
▁standards	-4245
right	-4246
▁requested	-4247
usal	-4248
▁accomp	-4249
▁Another	-4250
▁obv	-4251
▁daily	-4252
▁numbers	-4253
▁Br	-4254
▁economy	-4255
▁vacancies	-4256
▁Regulation	-4257
▁released	-4258
▁maintainable	-4259
▁infrastructure	-4260
▁Moreover	-4261
▁fem	-4262
▁space	-4263
reement	-4264
▁late	-4265
abilities	-4266
▁demon	-4267
wari	-4268
▁Once	-4269
▁viz	-4270
▁exem	-4271
▁despite	-4272
▁popular	-4273
▁qualification	-4274
▁mobile	-4275
▁response	-4276
▁Priv	-4277
▁seems	-4278
▁confidence	-4279
▁mist	-4280
▁guilt	-4281
ades	-4282
where	-4283
▁Mu	-4284
▁Group	-4285
▁Op	-4286
ailed	-4287
▁former	-4288
▁err	-4289
▁beginning	-4290
orse	-4291
▁arguments	-4292
asth	-4293
▁convey	-4294
▁prohib	-4295
▁door	-4296
▁Commercial	-4297
PS	-4298
▁King	-4299
▁insect	-4300
▁Project	-4301
▁attached	-4302
▁morning	-4303
gn	-4304
▁larger	-4305
▁litigation	-4306
▁Vish	-4307
▁academic	-4308
▁undertaking	-4309
▁stamp	-4310
▁implementation	-4311
▁write	-4312
▁expert	-4313
▁foc	-4314
▁belonging	-4315
▁SCA	-4316
▁refused	-4317
▁remaining	-4318
▁Explanation	-4319
▁journ	-4320
▁rise	-4321
▁CH	-4322
▁autom	-4323
▁board	-4324
▁primary	-4325
ox	-4326
▁bodies	-4327
eel	-4328
▁invok	-4329
hya	-4330
▁contempt	-4331
▁expenses	-4332
racy	-4333
▁banks	-4334
▁ali	-4335
▁fear	-4336
ograp	-4337
▁Prosec	-4338
rist	-4339
▁termination	-4340
▁investigating	-4341
▁Ur	-4342
▁Prog	-4343
▁Uttar	-4344
▁Ak	-4345
▁iii	-4346
▁plus	-4347
ateral	-4348
▁groups	-4349
▁whereby	-4350
▁purchased	-4351
▁Day	-4352
▁Policy	-4353
▁contains	-4354
▁Finance	-4355
▁vot	-4356
▁cou	-4357
▁turned	-4358
▁located	-4359
DA	-4360
nel	-4361
▁assaulted	-4362
ler	-4363
▁Char	-4364
▁pain	-4365
▁advertisement	-4366
▁repe	-4367
▁Block	-4368
▁Inter	-4369
▁borrow	-4370
▁results	-4371
▁weak	-4372
▁reform	-4373
....	-4374
▁sections	-4375
▁Form	-4376
ques	-4377
▁Tw	-4378
▁highest	-4379
▁usually	-4380
rew	-4381
▁TO	-4382
▁deb	-4383
▁speed	-4384
▁possess	-4385
ulted	-4386
▁Her	-4387
▁events	-4388
endency	-4389
▁hope	-4390
▁vital	-4391
ota	-4392
▁correspond	-4393
NA	-4394
▁Kam	-4395
▁dig	-4396
leb	-4397
▁deposited	-4398
ni	-4399
▁determine	-4400
▁Net	-4401
▁release	-4402
▁sle	-4403
▁rout	-4404
ailing	-4405
▁extension	-4406
▁prop	-4407
▁temporary	-4408
▁potential	-4409
▁reach	-4410
▁maximum	-4411
▁formal	-4412
▁advantage	-4413
▁Technology	-4414
▁Here	-4415
▁suffered	-4416
▁Ved	-4417
▁interested	-4418
ze	-4419
▁pleadings	-4420
▁items	-4421
▁schools	-4422
ndra	-4423
cient	-4424
▁Your	-4425
▁ready	-4426
chol	-4427
pped	-4428
▁issuance	-4429
▁acquittal	-4430
▁weight	-4431
▁guarantee	-4432
▁film	-4433
lal	-4434
▁ratio	-4435
▁built	-4436
▁god	-4437
inating	-4438
▁element	-4439
arya	-4440
▁delib	-4441
▁removed	-4442
ighb	-4443
▁finally	-4444
▁applicants	-4445
▁tar	-4446
▁Resident	-4447
erted	-4448
▁saying	-4449
▁drug	-4450
inery	-4451
▁perf	-4452
▁proc	-4453
▁colour	-4454
▁proced	-4455
▁Ob	-4456
▁valu	-4457
▁worked	-4458
aksh	-4459
▁moment	-4460
▁approached	-4461
▁Air	-4462
iment	-4463
▁presumption	-4464
▁deals	-4465
▁novel	-4466
▁objective	-4467
▁send	-4468
▁user	-4469
ites	-4470
▁Mod	-4471
rif	-4472
▁nos	-4473
▁Sal	-4474
▁extreme	-4475
▁AND	-4476
iciary	-4477
▁Control	-4478
▁entertain	-4479
▁risk	-4480
▁concluded	-4481
▁influence	-4482
ton	-4483
▁void	-4484
▁understanding	-4485
iece	-4486
▁Rel	-4487
▁crores	-4488
the	-4489
ume	-4490
▁pal	-4491
▁crore	-4492
▁finds	-4493
▁recommendations	-4494
gy	-4495
▁pleas	-4496
▁recent	-4497
▁prejudice	-4498
▁retirement	-4499
udh	-4500
▁bear	-4501
▁deduction	-4502
▁industries	-4503
EAR	-4504
▁medic	-4505
▁phone	-4506
▁distingu	-4507
▁neighb	-4508
▁philosop	-4509
AC	-4510
▁hereby	-4511
▁employed	-4512
▁North	-4513
▁delivery	-4514
▁imag	-4515
orial	-4516
▁raise	-4517
▁notes	-4518
▁stock	-4519
rel	-4520
▁item	-4521
▁views	-4522
▁engine	-4523
▁violence	-4524
▁factual	-4525
▁cognizance	-4526
▁hum	-4527
▁fight	-4528
▁PM	-4529
▁survey	-4530
▁ordered	-4531
▁team	-4532
▁eval	-4533
▁assault	-4534
uct	-4535
yle	-4536
owry	-4537
▁suggested	-4538
gest	-4539
▁partnership	-4540
▁legislative	-4541
▁filled	-4542
▁amongst	-4543
▁recommended	-4544
oured	-4545
▁demonst	-4546
dden	-4547
▁Having	-4548
▁Mis	-4549
▁card	-4550
▁Kashmir	-4551
▁moved	-4552
operation	-4553
▁complex	-4554
▁contentions	-4555
▁Up	-4556
▁chem	-4557
▁render	-4558
▁Manager	-4559
▁dismissal	-4560
▁incur	-4561
▁notified	-4562
▁Are	-4563
▁AT	-4564
▁Ahmed	-4565
▁lives	-4566
▁adequate	-4567
▁square	-4568
▁affairs	-4569
▁showing	-4570
▁bed	-4571
▁changed	-4572
▁wholly	-4573
▁rank	-4574
▁Person	-4575
▁impact	-4576
▁caste	-4577
icit	-4578
▁clean	-4579
▁happy	-4580
itness	-4581
▁began	-4582
▁confirmed	-4583
▁ing	-4584
▁Insurance	-4585
inent	-4586
▁arises	-4587
▁addressed	-4588
▁elected	-4589
▁urged	-4590
▁motive	-4591
orld	-4592
▁San	-4593
aches	-4594
▁married	-4595
▁undergo	-4596
▁assigned	-4597
▁dying	-4598
PA	-4599
▁Est	-4600
▁stop	-4601
▁executive	-4602
▁satisfaction	-4603
inder	-4604
▁license	-4605
▁compassion	-4606
▁DW	-4607
upees	-4608
▁pure	-4609
utation	-4610
▁Official	-4611
▁happened	-4612
essor	-4613
▁investig	-4614
ja	-4615
issa	-4616
▁distribution	-4617
▁identification	-4618
iy	-4619
head	-4620
▁Science	-4621
▁American	-4622
▁Superint	-4623
idy	-4624
▁bon	-4625
▁foot	-4626
bhai	-4627
▁Car	-4628
▁seniority	-4629
▁programmes	-4630
▁ep	-4631
▁Bharat	-4632
▁leaders	-4633
▁burn	-4634
▁cruel	-4635
ensive	-4636
▁proposition	-4637
▁sides	-4638
▁papers	-4639
▁lying	-4640
▁break	-4641
▁distinct	-4642
cial	-4643
▁deserv	-4644
▁reduced	-4645
▁Cor	-4646
▁pron	-4647
▁discrim	-4648
olid	-4649
▁Vij	-4650
ictions	-4651
▁Assembly	-4652
ourth	-4653
▁conce	-4654
appa	-4655
▁flow	-4656
▁Afric	-4657
▁cultural	-4658
▁successful	-4659
▁Ant	-4660
▁advanced	-4661
▁feed	-4662
▁clothes	-4663
▁Prot	-4664
▁involve	-4665
▁referring	-4666
withstanding	-4667
herent	-4668
▁Agreement	-4669
▁enh	-4670
▁safe	-4671
▁spiritual	-4672
ka	-4673
cribe	-4674
▁sitting	-4675
▁permissible	-4676
▁Govt	-4677
▁causing	-4678
una	-4679
▁twenty	-4680
▁binding	-4681
▁connect	-4682
▁highly	-4683
▁sym	-4684
requ	-4685
▁Supp	-4686
▁active	-4687
▁collection	-4688
▁bur	-4689
▁amend	-4690
▁opened	-4691
▁Orissa	-4692
▁tribunal	-4693
aneous	-4694
▁pattern	-4695
▁Att	-4696
▁multip	-4697
▁suspic	-4698
▁Amendment	-4699
▁driver	-4700
▁issuing	-4701
▁ble	-4702
attle	-4703
▁directing	-4704
▁circumstance	-4705
▁Agricult	-4706
AB	-4707
▁Ali	-4708
▁INDIA	-4709
▁World	-4710
omen	-4711
oned	-4712
▁seed	-4713
▁Assessing	-4714
alid	-4715
▁mortg	-4716
▁scientific	-4717
▁rul	-4718
ounce	-4719
▁pict	-4720
▁newsp	-4721
aji	-4722
road	-4723
▁sun	-4724
stood	-4725
▁speech	-4726
andum	-4727
▁Circ	-4728
▁save	-4729
orney	-4730
▁cho	-4731
▁sudden	-4732
▁whatever	-4733
antly	-4734
▁grand	-4735
▁cad	-4736
achment	-4737
uration	-4738
▁attend	-4739
orandum	-4740
▁values	-4741
mi	-4742
▁ap	-4743
itate	-4744
ception	-4745
▁totally	-4746
▁depri	-4747
▁thereto	-4748
▁undertaken	-4749
▁win	-4750
▁sem	-4751
▁increasing	-4752
▁brief	-4753
▁town	-4754
▁liquid	-4755
▁visited	-4756
▁secured	-4757
ousing	-4758
▁Nadu	-4759
▁minutes	-4760
▁device	-4761
▁Engineer	-4762
mise	-4763
▁mount	-4764
yer	-4765
▁Award	-4766
▁Institution	-4767
reen	-4768
rick	-4769
▁bond	-4770
▁ways	-4771
while	-4772
iation	-4773
▁display	-4774
▁containing	-4775
ancing	-4776
▁Jh	-4777
▁looked	-4778
▁press	-4779
▁bit	-4780
▁hab	-4781
▁huge	-4782
▁pendency	-4783
▁Bu	-4784
▁ago	-4785
▁Kan	-4786
▁cited	-4787
MC	-4788
▁sample	-4789
▁systems	-4790
▁Railway	-4791
iya	-4792
▁lie	-4793
▁soul	-4794
▁Ord	-4795
▁sens	-4796
lex	-4797
pto	-4798
▁depart	-4799
lude	-4800
▁Roy	-4801
kash	-4802
▁Sanj	-4803
▁block	-4804
▁innoc	-4805
▁latter	-4806
▁promot	-4807
▁weapon	-4808
▁hot	-4809
▁suitable	-4810
▁song	-4811
▁plants	-4812
▁Officers	-4813
etic	-4814
▁Program	-4815
▁certainly	-4816
▁task	-4817
▁fif	-4818
▁rich	-4819
▁manif	-4820
▁transactions	-4821
▁conspir	-4822
azar	-4823
▁schol	-4824
ellig	-4825
▁Only	-4826
▁types	-4827
▁Spe	-4828
▁rap	-4829
accused	-4830
urs	-4831
▁description	-4832
▁Employ	-4833
▁harass	-4834
chand	-4835
▁closed	-4836
▁sexual	-4837
▁milk	-4838
▁indicates	-4839
▁fat	-4840
▁histor	-4841
▁Tal	-4842
ieties	-4843
▁rates	-4844
▁wages	-4845
atha	-4846
lfare	-4847
▁welfare	-4848
asa	-4849
▁seats	-4850
▁Chen	-4851
AK	-4852
▁genu	-4853
▁Legislature	-4854
urb	-4855
▁Accused	-4856
▁exhib	-4857
qual	-4858
▁Budd	-4859
▁neglig	-4860
▁minister	-4861
ira	-4862
▁panch	-4863
▁renew	-4864
▁secret	-4865
▁furnished	-4866
▁friends	-4867
▁danger	-4868
opal	-4869
▁gets	-4870
ruption	-4871
irs	-4872
azet	-4873
▁profit	-4874
▁individuals	-4875
▁possibility	-4876
▁ens	-4877
▁Met	-4878
▁music	-4879
▁consequence	-4880
▁Christ	-4881
▁joined	-4882
▁obtaining	-4883
ratic	-4884
ivered	-4885
IM	-4886
▁wish	-4887
iful	-4888
▁criteria	-4889
▁lap	-4890
▁defect	-4891
▁quoted	-4892
ients	-4893
▁fort	-4894
▁Pakistan	-4895
akes	-4896
held	-4897
▁ant	-4898
▁serve	-4899
▁identity	-4900
▁operations	-4901
atter	-4902
▁solution	-4903
▁Categ	-4904
▁dowry	-4905
▁sanctioned	-4906
▁commencement	-4907
PL	-4908
esting	-4909
▁hereinafter	-4910
ovable	-4911
▁vs	-4912
abled	-4913
▁CO	-4914
▁cultiv	-4915
▁motion	-4916
▁associated	-4917
athe	-4918
▁PS	-4919
▁piece	-4920
▁factor	-4921
▁college	-4922
asw	-4923
regular	-4924
▁hostile	-4925
▁learning	-4926
lear	-4927
▁alia	-4928
▁adjudication	-4929
▁chief	-4930
oly	-4931
leges	-4932
▁negative	-4933
▁Many	-4934
▁obtain	-4935
▁clos	-4936
▁exercising	-4937
elled	-4938
▁jail	-4939
▁necessarily	-4940
▁Its	-4941
▁scene	-4942
▁white	-4943
▁video	-4944
▁annual	-4945
▁gener	-4946
▁allotment	-4947
▁ideas	-4948
ream	-4949
anded	-4950
▁compar	-4951
▁lad	-4952
portion	-4953
▁uncon	-4954
▁deposition	-4955
▁limits	-4956
▁memory	-4957
ika	-4958
ila	-4959
rep	-4960
▁middle	-4961
icies	-4962
▁series	-4963
▁trying	-4964
▁Prime	-4965
holders	-4966
▁choice	-4967
▁Organ	-4968
▁damages	-4969
▁Companies	-4970
TH	-4971
▁Nath	-4972
▁chann	-4973
▁conflict	-4974
▁deleg	-4975
▁animals	-4976
uous	-4977
▁Research	-4978
▁recognized	-4979
▁observation	-4980
owered	-4981
▁played	-4982
▁sometimes	-4983
▁Joint	-4984
▁contro	-4985
▁plot	-4986
▁delivered	-4987
omic	-4988
▁cry	-4989
▁acted	-4990
oring	-4991
▁strugg	-4992
▁select	-4993
lace	-4994
▁surf	-4995
▁assign	-4996
▁understood	-4997
▁YEAR	-4998
▁concern	-4999
▁acquitted	-5000
▁distinction	-5001
▁travel	-5002
▁confirm	-5003
▁allotted	-5004
▁creation	-5005
▁Inf	-5006
iling	-5007
▁Cap	-5008
▁celeb	-5009
▁enacted	-5010
▁equip	-5011
▁worth	-5012
▁irregular	-5013
▁departmental	-5014
cer	-5015
onial	-5016
utt	-5017
▁comprom	-5018
gor	-5019
▁AD	-5020
aur	-5021
▁reflect	-5022
▁occurred	-5023
▁performed	-5024
then	-5025
▁Sant	-5026
▁damage	-5027
▁bag	-5028
▁draft	-5029
▁acceptance	-5030
▁Kish	-5031
▁useful	-5032
▁villages	-5033
▁consequent	-5034
▁Yog	-5035
▁bird	-5036
▁Category	-5037
▁upto	-5038
▁recommendation	-5039
▁chemical	-5040
▁Also	-5041
▁touch	-5042
▁forces	-5043
▁warm	-5044
▁arbitral	-5045
▁feet	-5046
▁prison	-5047
isite	-5048
▁dele	-5049
▁Contract	-5050
▁absolutely	-5051
१४	-5052
▁claiming	-5053
AV	-5054
▁poetry	-5055
▁remark	-5056
▁holder	-5057
▁Articles	-5058
▁asset	-5059
hu	-5060
▁suffer	-5061
▁content	-5062
▁opening	-5063
▁ax	-5064
▁reservation	-5065
ifted	-5066
▁rape	-5067
▁lines	-5068
▁auction	-5069
▁controll	-5070
▁deciding	-5071
▁Arbitrator	-5072
▁Hyder	-5073
▁Although	-5074
ications	-5075
▁Di	-5076
▁alt	-5077
▁System	-5078
▁killed	-5079
▁receiving	-5080
▁paragraphs	-5081
▁Pan	-5082
▁contra	-5083
atically	-5084
▁willing	-5085
▁knew	-5086
▁female	-5087
▁inherent	-5088
▁America	-5089
ellect	-5090
▁ultimately	-5091
▁Respondents	-5092
▁consequences	-5093
▁sleep	-5094
▁opportunities	-5095
▁challenging	-5096
bur	-5097
▁tool	-5098
▁floor	-5099
▁convict	-5100
raj	-5101
▁OR	-5102
▁needed	-5103
▁box	-5104
▁radi	-5105
▁suicide	-5106
asthan	-5107
ounced	-5108
ague	-5109
▁Home	-5110
▁answered	-5111
▁functioning	-5112
▁manufacturing	-5113
▁mix	-5114
▁pertaining	-5115
▁arch	-5116
▁believed	-5117
▁Child	-5118
▁envis	-5119
▁reserved	-5120
▁Tur	-5121
▁Raipur	-5122
▁citizen	-5123
▁remove	-5124
▁definite	-5125
osis	-5126
▁irre	-5127
▁recover	-5128
▁Inc	-5129
▁Vice	-5130
▁prem	-5131
▁perhaps	-5132
▁throughout	-5133
▁Rao	-5134
iles	-5135
▁Out	-5136
▁division	-5137
▁advice	-5138
▁machinery	-5139
▁Non	-5140
▁ancient	-5141
▁Aud	-5142
▁Pay	-5143
▁appointments	-5144
▁cul	-5145
▁easy	-5146
▁exped	-5147
▁indeed	-5148
▁average	-5149
▁alter	-5150
SL	-5151
▁repl	-5152
▁secure	-5153
▁doctrine	-5154
▁drink	-5155
▁democracy	-5156
▁Chenn	-5157
▁intim	-5158
▁gun	-5159
ken	-5160
▁Aff	-5161
▁dark	-5162
▁Notification	-5163
▁ball	-5164
▁sentenced	-5165
▁voice	-5166
ror	-5167
▁City	-5168
▁absor	-5169
▁classes	-5170
▁Election	-5171
▁pressure	-5172
▁Certificate	-5173
▁coal	-5174
▁mainly	-5175
▁manufacture	-5176
ena	-5177
▁Him	-5178
orage	-5179
aintiff	-5180
▁equally	-5181
▁construed	-5182
▁range	-5183
▁positive	-5184
hand	-5185
▁Excise	-5186
▁policies	-5187
▁YEARS	-5188
▁disclosure	-5189
bel	-5190
▁dy	-5191
▁copies	-5192
▁Consequently	-5193
kn	-5194
▁PC	-5195
orthy	-5196
mbol	-5197
▁anti	-5198
▁Superintendent	-5199
ahar	-5200
inet	-5201
▁Val	-5202
▁rein	-5203
▁Members	-5204
▁neck	-5205
▁relative	-5206
ATE	-5207
▁Che	-5208
▁Defendant	-5209
▁generation	-5210
ulating	-5211
▁teleph	-5212
ont	-5213
▁famous	-5214
▁subjected	-5215
▁AB	-5216
rises	-5217
▁Directors	-5218
▁association	-5219
irty	-5220
▁England	-5221
▁teaching	-5222
▁Hyderabad	-5223
▁electricity	-5224
OC	-5225
▁farmers	-5226
▁Arbitration	-5227
▁regulations	-5228
isted	-5229
▁exact	-5230
▁shape	-5231
▁internal	-5232
▁sea	-5233
▁walk	-5234
▁model	-5235
ider	-5236
▁Ashok	-5237
▁herself	-5238
▁stopp	-5239
▁Subh	-5240
▁surv	-5241
onn	-5242
▁CBI	-5243
▁Swami	-5244
▁languages	-5245
▁confession	-5246
uity	-5247
▁Dec	-5248
athy	-5249
▁Ret	-5250
umn	-5251
▁categories	-5252
▁Bai	-5253
sible	-5254
ertained	-5255
▁IS	-5256
alore	-5257
OS	-5258
▁WP	-5259
▁sav	-5260
▁minus	-5261
▁stipulated	-5262
iver	-5263
▁falls	-5264
▁Judgment	-5265
▁external	-5266
anes	-5267
▁Const	-5268
▁learn	-5269
▁Member	-5270
▁Open	-5271
▁Mohan	-5272
▁vision	-5273
▁achieved	-5274
▁schemes	-5275
▁sn	-5276
cla	-5277
▁acting	-5278
struction	-5279
▁resort	-5280
umari	-5281
▁media	-5282
▁explain	-5283
▁style	-5284
▁forwarded	-5285
lord	-5286
▁Thak	-5287
▁quantity	-5288
▁machine	-5289
▁inspection	-5290
lax	-5291
▁belief	-5292
▁hit	-5293
▁Apart	-5294
▁Private	-5295
hru	-5296
know	-5297
▁deserves	-5298
▁suffering	-5299
vt	-5300
▁fold	-5301
▁III	-5302
▁supplied	-5303
cl	-5304
ourses	-5305
▁omission	-5306
▁contemplated	-5307
▁causes	-5308
▁ON	-5309
anged	-5310
▁destro	-5311
▁Dar	-5312
▁Rajasthan	-5313
▁immediate	-5314
▁grat	-5315
▁gover	-5316
▁green	-5317
▁depend	-5318
▁someone	-5319
▁Financial	-5320
▁Assessee	-5321
▁facility	-5322
ronic	-5323
▁north	-5324
▁professional	-5325
▁Aj	-5326
▁disclose	-5327
▁impression	-5328
asi	-5329
▁pec	-5330
order	-5331
▁transp	-5332
▁promote	-5333
▁photograph	-5334
ray	-5335
ests	-5336
▁War	-5337
▁pet	-5338
asmuch	-5339
▁software	-5340
▁conspiracy	-5341
▁instituted	-5342
ishra	-5343
▁simply	-5344
ilateral	-5345
▁invalid	-5346
▁intellect	-5347
inarily	-5348
▁command	-5349
▁Tri	-5350
▁organisation	-5351
era	-5352
▁Aut	-5353
light	-5354
urrency	-5355
▁revised	-5356
▁strateg	-5357
known	-5358
▁governed	-5359
▁Trib	-5360
▁agriculture	-5361
▁stra	-5362
▁relates	-5363
▁UN	-5364
icro	-5365
▁Cha	-5366
▁cat	-5367
▁kill	-5368
▁lies	-5369
▁categorically	-5370
RA	-5371
▁soil	-5372
▁reiterated	-5373
▁eld	-5374
▁scrutiny	-5375
▁particulars	-5376
▁quick	-5377
▁easily	-5378
▁repeated	-5379
▁south	-5380
▁capable	-5381
▁files	-5382
▁image	-5383
▁centre	-5384
▁posted	-5385
▁workman	-5386
IST	-5387
aph	-5388
▁dram	-5389
bal	-5390
inger	-5391
▁recall	-5392
▁grievance	-5393
▁impart	-5394
▁Na	-5395
▁ge	-5396
aste	-5397
▁Sum	-5398
▁abuse	-5399
▁organization	-5400
▁theory	-5401
▁Sr	-5402
▁ones	-5403
▁heavy	-5404
ibly	-5405
▁Party	-5406
▁rupees	-5407
▁compos	-5408
▁admittedly	-5409
uli	-5410
astic	-5411
▁suspension	-5412
tees	-5413
ocates	-5414
▁leaving	-5415
▁incorporated	-5416
▁independence	-5417
▁Allah	-5418
▁Chennai	-5419
▁privile	-5420
▁Entry	-5421
▁Forest	-5422
sych	-5423
▁branch	-5424
▁documentary	-5425
enture	-5426
▁spite	-5427
▁examining	-5428
achal	-5429
▁Tah	-5430
▁Nehru	-5431
▁involving	-5432
▁conducting	-5433
sheet	-5434
▁Ge	-5435
aviour	-5436
▁Social	-5437
▁purchas	-5438
▁beat	-5439
▁Besides	-5440
▁controvers	-5441
ctor	-5442
▁defe	-5443
▁expiry	-5444
▁Administrative	-5445
aks	-5446
amet	-5447
▁tour	-5448
ettlement	-5449
atel	-5450
▁Dur	-5451
▁houses	-5452
▁session	-5453
▁species	-5454
▁circular	-5455
▁rejection	-5456
▁Tel	-5457
▁compr	-5458
▁prec	-5459
▁Western	-5460
▁growing	-5461
appellant	-5462
▁averments	-5463
yan	-5464
rack	-5465
▁People	-5466
yam	-5467
ching	-5468
▁legit	-5469
▁features	-5470
▁code	-5471
▁surround	-5472
▁reb	-5473
▁male	-5474
▁compon	-5475
▁Registration	-5476
▁Nav	-5477
▁Madras	-5478
▁cadre	-5479
ommod	-5480
▁Well	-5481
▁safety	-5482
▁accompan	-5483
▁bringing	-5484
▁consciousness	-5485
▁Bus	-5486
▁fees	-5487
▁beaut	-5488
▁everything	-5489
eshwar	-5490
▁certified	-5491
▁revolution	-5492
▁Rem	-5493
▁Two	-5494
▁sugar	-5495
▁Governments	-5496
▁cere	-5497
▁agent	-5498
▁hear	-5499
▁arrangement	-5500
▁Madh	-5501
▁cart	-5502
▁Africa	-5503
opy	-5504
pet	-5505
▁inasmuch	-5506
▁determining	-5507
far	-5508
▁claimants	-5509
▁recognised	-5510
▁Fr	-5511
▁ship	-5512
▁mid	-5513
▁surre	-5514
▁exists	-5515
▁remember	-5516
▁listed	-5517
▁chain	-5518
▁elements	-5519
▁processing	-5520
▁frequ	-5521
dish	-5522
hana	-5523
▁judges	-5524
▁gain	-5525
istics	-5526
▁desire	-5527
▁Teacher	-5528
▁cruelty	-5529
▁military	-5530
▁Bec	-5531
▁rare	-5532
▁corporate	-5533
uff	-5534
▁leaves	-5535
▁student	-5536
▁Sir	-5537
▁compre	-5538
▁Port	-5539
▁Fam	-5540
▁levels	-5541
▁owners	-5542
▁raising	-5543
▁compassionate	-5544
▁lac	-5545
▁Ban	-5546
above	-5547
▁Verm	-5548
▁mouth	-5549
▁resulted	-5550
▁mechanism	-5551
▁largest	-5552
▁Ed	-5553
▁pick	-5554
▁Vijay	-5555
▁symbol	-5556
▁invited	-5557
▁contractor	-5558
▁Asia	-5559
ography	-5560
ole	-5561
▁acknow	-5562
▁retired	-5563
▁unn	-5564
▁forum	-5565
▁profits	-5566
▁exception	-5567
▁signatures	-5568
▁Ref	-5569
▁ban	-5570
▁vers	-5571
▁refund	-5572
▁wealth	-5573
arc	-5574
rav	-5575
▁rain	-5576
▁entries	-5577
▁normally	-5578
lag	-5579
anges	-5580
essel	-5581
▁Prakash	-5582
aker	-5583
▁enforcement	-5584
prise	-5585
aja	-5586
▁seat	-5587
▁Er	-5588
▁viti	-5589
▁empowered	-5590
▁developing	-5591
▁afford	-5592
TC	-5593
▁Fl	-5594
erences	-5595
▁Tem	-5596
▁chance	-5597
hens	-5598
▁Guru	-5599
▁nuc	-5600
▁residing	-5601
LA	-5602
olve	-5603
writ	-5604
▁Most	-5605
▁contend	-5606
▁contrib	-5607
▁waste	-5608
▁Mot	-5609
soever	-5610
▁estim	-5611
▁divided	-5612
▁allowing	-5613
III	-5614
▁bul	-5615
▁fault	-5616
ervation	-5617
▁personnel	-5618
▁Prosecutor	-5619
▁traditional	-5620
▁Mahe	-5621
▁temper	-5622
▁agencies	-5623
▁initially	-5624
▁amb	-5625
▁relax	-5626
▁inquest	-5627
▁beautiful	-5628
▁elections	-5629
▁kid	-5630
▁exclusive	-5631
▁Abd	-5632
▁participation	-5633
aling	-5634
▁skin	-5635
▁assert	-5636
▁entirely	-5637
▁representatives	-5638
▁table	-5639
▁Bad	-5640
▁fest	-5641
▁incons	-5642
▁representative	-5643
▁ben	-5644
uddin	-5645
▁Patel	-5646
▁prepar	-5647
urt	-5648
▁operate	-5649
▁residence	-5650
iform	-5651
▁audit	-5652
▁Pandey	-5653
▁notices	-5654
asc	-5655
sue	-5656
awan	-5657
▁workmen	-5658
▁Plaintiff	-5659
gers	-5660
▁fide	-5661
actory	-5662
▁lakhs	-5663
▁armed	-5664
▁effic	-5665
▁inflic	-5666
▁misconduct	-5667
▁accompanied	-5668
▁storage	-5669
▁Gl	-5670
▁gas	-5671
▁struggle	-5672
▁animal	-5673
▁voluntary	-5674
▁Indians	-5675
▁Bah	-5676
▁actions	-5677
▁resulting	-5678
king	-5679
▁landlord	-5680
▁sustainable	-5681
entially	-5682
▁consistent	-5683
▁moral	-5684
▁compromise	-5685
▁strengthen	-5686
▁Bangalore	-5687
▁discharged	-5688
▁cells	-5689
▁Rajesh	-5690
▁gross	-5691
▁spent	-5692
▁Mishra	-5693
▁Vis	-5694
nu	-5695
▁mutual	-5696
▁Reference	-5697
▁root	-5698
▁tort	-5699
▁currency	-5700
ducing	-5701
▁plain	-5702
▁substantive	-5703
oming	-5704
▁repeal	-5705
▁worship	-5706
▁cancelled	-5707
▁China	-5708
▁constructed	-5709
▁evening	-5710
acharya	-5711
▁Hindus	-5712
▁enhance	-5713
▁illegality	-5714
▁Environment	-5715
▁cancellation	-5716
▁Para	-5717
▁integral	-5718
omy	-5719
▁Rama	-5720
▁Sections	-5721
▁modified	-5722
▁famil	-5723
▁ingred	-5724
▁calling	-5725
▁cooperation	-5726
▁represented	-5727
▁Ay	-5728
▁Because	-5729
▁appearance	-5730
struct	-5731
▁Through	-5732
▁reliable	-5733
▁fields	-5734
▁Islamic	-5735
▁surface	-5736
▁appreciation	-5737
RE	-5738
▁annex	-5739
▁accommod	-5740
▁Family	-5741
▁purport	-5742
▁incurred	-5743
▁sons	-5744
▁confident	-5745
▁authorised	-5746
▁wear	-5747
▁afore	-5748
▁identify	-5749
arp	-5750
rupt	-5751
▁Like	-5752
▁confined	-5753
OL	-5754
▁seeks	-5755
▁subjects	-5756
▁alongwith	-5757
▁sort	-5758
▁applying	-5759
erce	-5760
igil	-5761
▁sam	-5762
▁committing	-5763
▁Palest	-5764
omet	-5765
▁Crl	-5766
ushed	-5767
▁guard	-5768
▁enactment	-5769
▁vend	-5770
▁owned	-5771
ming	-5772
▁Again	-5773
▁Madhya	-5774
▁leader	-5775
▁irres	-5776
▁creating	-5777
arh	-5778
▁magn	-5779
DS	-5780
▁cm	-5781
encing	-5782
▁disapp	-5783
▁clauses	-5784
▁disqual	-5785
▁stone	-5786
▁vessel	-5787
▁destroy	-5788
▁thinking	-5789
▁withdrawn	-5790
DER	-5791
▁knife	-5792
▁applies	-5793
▁Selection	-5794
▁requisite	-5795
▁foundation	-5796
▁pra	-5797
▁CW	-5798
▁methods	-5799
yal	-5800
▁hour	-5801
rose	-5802
▁egg	-5803
▁Commun	-5804
▁intellig	-5805
▁speaking	-5806
▁unreason	-5807
▁inconsist	-5808
ura	-5809
pping	-5810
▁master	-5811
▁equality	-5812
▁families	-5813
▁residential	-5814
▁fourth	-5815
▁variety	-5816
▁demanded	-5817
▁recognition	-5818
▁youth	-5819
▁hereinabove	-5820
EP	-5821
ript	-5822
▁sources	-5823
▁admissible	-5824
▁Others	-5825
▁practices	-5826
alg	-5827
ero	-5828
▁sand	-5829
▁manifest	-5830
▁season	-5831
▁sealed	-5832
▁negoti	-5833
▁Legislative	-5834
▁critic	-5835
▁ignored	-5836
▁mistake	-5837
▁barred	-5838
urate	-5839
▁objects	-5840
▁upheld	-5841
▁depends	-5842
aman	-5843
▁subordinate	-5844
▁satisfy	-5845
▁compared	-5846
▁earn	-5847
▁Crime	-5848
▁studies	-5849
▁Imp	-5850
iva	-5851
▁Champ	-5852
▁figure	-5853
overty	-5854
▁Econom	-5855
▁withdraw	-5856
▁obligations	-5857
▁Dem	-5858
▁feeling	-5859
unior	-5860
▁Gazet	-5861
▁equity	-5862
▁errone	-5863
▁separately	-5864
▁medium	-5865
sofar	-5866
▁input	-5867
lined	-5868
rical	-5869
▁Gram	-5870
▁framing	-5871
▁location	-5872
▁payments	-5873
ships	-5874
▁Sad	-5875
▁nut	-5876
▁capt	-5877
▁weapons	-5878
▁eligibility	-5879
ola	-5880
rees	-5881
▁Germ	-5882
▁km	-5883
▁unique	-5884
▁adduced	-5885
▁AC	-5886
osen	-5887
isp	-5888
▁dim	-5889
▁Prem	-5890
▁fails	-5891
▁Water	-5892
▁exemption	-5893
eav	-5894
▁Tag	-5895
▁cloth	-5896
UL	-5897
pons	-5898
ioned	-5899
▁AM	-5900
▁Branch	-5901
▁Transport	-5902
▁pip	-5903
▁watch	-5904
ils	-5905
roc	-5906
▁focus	-5907
▁retros	-5908
▁Cust	-5909
CI	-5910
▁paras	-5911
▁superior	-5912
pected	-5913
▁levy	-5914
▁lock	-5915
▁rival	-5916
ev	-5917
▁roll	-5918
▁seem	-5919
▁Standing	-5920
▁slow	-5921
▁Human	-5922
▁iv	-5923
▁endeav	-5924
▁supplement	-5925
eting	-5926
▁wood	-5927
▁Gandhiji	-5928
▁terrorism	-5929
▁opt	-5930
elfare	-5931
▁arose	-5932
▁Narayan	-5933
atta	-5934
▁divine	-5935
▁overall	-5936
▁relatives	-5937
▁Pvt	-5938
going	-5939
▁Date	-5940
▁stick	-5941
▁immovable	-5942
▁thirty	-5943
▁Welfare	-5944
▁interview	-5945
▁Ven	-5946
▁bone	-5947
▁deeds	-5948
▁pursuance	-5949
▁Conference	-5950
laws	-5951
rench	-5952
▁temples	-5953
▁id	-5954
vert	-5955
▁nearly	-5956
▁partner	-5957
▁whatsoever	-5958
▁operating	-5959
▁Administration	-5960
▁classification	-5961
▁MS	-5962
▁Rural	-5963
▁litig	-5964
▁furnish	-5965
▁railway	-5966
▁allegedly	-5967
aped	-5968
▁Park	-5969
▁ends	-5970
▁lived	-5971
▁Ve	-5972
ails	-5973
▁Security	-5974
▁Bel	-5975
▁struct	-5976
▁Industries	-5977
▁dt	-5978
▁Excell	-5979
▁cheques	-5980
▁carefully	-5981
dar	-5982
▁bott	-5983
▁qualified	-5984
▁iron	-5985
▁Foreign	-5986
▁Settlement	-5987
▁authorized	-5988
▁Nor	-5989
▁bab	-5990
hent	-5991
▁stayed	-5992
▁organiz	-5993
▁availability	-5994
hon	-5995
▁Div	-5996
▁grad	-5997
▁excell	-5998
▁propri	-5999
▁happen	-6000
ls	-6001
ube	-6002
▁paying	-6003
▁ideal	-6004
१५	-6005
▁sales	-6006
▁Year	-6007
▁affili	-6008
▁wishes	-6009
ih	-6010
ames	-6011
itis	-6012
▁calls	-6013
▁Rav	-6014
▁Vol	-6015
▁prices	-6016
lands	-6017
▁Suit	-6018
▁target	-6019
▁strictly	-6020
▁inference	-6021
▁impossible	-6022
EM	-6023
ocal	-6024
▁Trade	-6025
▁reality	-6026
▁complaints	-6027
▁controversy	-6028
▁flat	-6029
▁opposed	-6030
▁stories	-6031
▁vehicles	-6032
▁PD	-6033
▁nine	-6034
▁Univers	-6035
▁Ja	-6036
icating	-6037
▁extracted	-6038
▁ownership	-6039
mn	-6040
▁philosophy	-6041
▁honour	-6042
▁gar	-6043
▁consumption	-6044
umer	-6045
▁deliver	-6046
▁agreements	-6047
▁mortgage	-6048
▁regarded	-6049
▁vacant	-6050
▁genuine	-6051
▁Protection	-6052
▁Inst	-6053
▁shock	-6054
▁upper	-6055
▁stopped	-6056
ader	-6057
▁Abdul	-6058
▁universal	-6059
hend	-6060
▁drive	-6061
▁implemented	-6062
amma	-6063
▁Allahabad	-6064
FA	-6065
▁bow	-6066
▁appreciate	-6067
doc	-6068
▁trees	-6069
▁continuous	-6070
▁PRO	-6071
▁Full	-6072
▁antic	-6073
▁Resolution	-6074
AME	-6075
▁aged	-6076
▁Ragh	-6077
▁anyone	-6078
▁emotion	-6079
▁holds	-6080
▁allowance	-6081
laced	-6082
▁attracted	-6083
▁Us	-6084
▁Petitioners	-6085
▁acid	-6086
▁enqu	-6087
▁yield	-6088
ibilities	-6089
GAL	-6090
redit	-6091
▁abroad	-6092
▁ordinarily	-6093
hel	-6094
load	-6095
▁pleasure	-6096
▁chosen	-6097
▁sacrif	-6098
▁friendly	-6099
ica	-6100
itect	-6101
oph	-6102
▁psych	-6103
▁Constable	-6104
look	-6105
▁ang	-6106
▁Food	-6107
▁probably	-6108
▁disability	-6109
▁necessity	-6110
▁Sol	-6111
▁Tod	-6112
ighted	-6113
▁Claim	-6114
▁Maj	-6115
▁Babu	-6116
▁height	-6117
▁explo	-6118
▁Nep	-6119
▁vast	-6120
alli	-6121
like	-6122
▁Enter	-6123
▁planning	-6124
egu	-6125
ports	-6126
▁opined	-6127
▁compound	-6128
▁compuls	-6129
▁mandate	-6130
▁unity	-6131
▁brain	-6132
▁Pension	-6133
▁Regional	-6134
aryana	-6135
▁veget	-6136
▁Pet	-6137
▁Why	-6138
aband	-6139
prene	-6140
▁arre	-6141
▁park	-6142
▁Langu	-6143
▁advised	-6144
▁falling	-6145
oral	-6146
▁emerg	-6147
anging	-6148
sc	-6149
anand	-6150
ecess	-6151
habil	-6152
▁grave	-6153
▁narrated	-6154
▁imple	-6155
▁dues	-6156
▁track	-6157
▁Exh	-6158
▁Programme	-6159
▁SP	-6160
mosp	-6161
▁Verma	-6162
▁poems	-6163
▁considerable	-6164
word	-6165
nagar	-6166
reprene	-6167
▁elabor	-6168
▁revealed	-6169
▁efficient	-6170
▁equipment	-6171
eries	-6172
▁anticip	-6173
▁IV	-6174
arden	-6175
▁caught	-6176
▁consists	-6177
▁qualifications	-6178
iled	-6179
▁Art	-6180
abinet	-6181
▁ORDER	-6182
▁indul	-6183
▁moving	-6184
▁proportion	-6185
▁happens	-6186
▁colleges	-6187
hensive	-6188
ishment	-6189
▁Haryana	-6190
▁poverty	-6191
▁quarrel	-6192
▁interven	-6193
▁installed	-6194
ME	-6195
▁SE	-6196
▁buy	-6197
velled	-6198
▁selling	-6199
▁dil	-6200
▁crop	-6201
isting	-6202
orrect	-6203
▁latest	-6204
▁courses	-6205
▁brothers	-6206
▁rational	-6207
iate	-6208
▁urban	-6209
▁postmortem	-6210
IF	-6211
▁thereon	-6212
▁Ham	-6213
chief	-6214
▁seal	-6215
▁liquor	-6216
▁prosper	-6217
▁participate	-6218
▁cas	-6219
prises	-6220
▁European	-6221
▁Va	-6222
anta	-6223
▁pi	-6224
▁script	-6225
▁demands	-6226
▁upd	-6227
▁Bhar	-6228
▁legally	-6229
udget	-6230
▁narrow	-6231
acco	-6232
▁Hig	-6233
▁Mahat	-6234
▁corporation	-6235
▁involvement	-6236
▁DR	-6237
▁outstanding	-6238
▁fill	-6239
▁victims	-6240
▁Those	-6241
▁picture	-6242
arian	-6243
▁hardly	-6244
▁falsely	-6245
▁valuable	-6246
▁territory	-6247
▁DNA	-6248
▁Det	-6249
▁Sunil	-6250
▁driving	-6251
▁equival	-6252
▁relying	-6253
▁consumer	-6254
▁consultation	-6255
▁recon	-6256
▁cities	-6257
▁Secondary	-6258
▁Jay	-6259
▁qua	-6260
▁Each	-6261
▁Town	-6262
▁Thakur	-6263
▁Prom	-6264
▁fert	-6265
▁partners	-6266
▁entrusted	-6267
▁Gan	-6268
charge	-6269
▁launched	-6270
▁clarified	-6271
key	-6272
inqu	-6273
author	-6274
gery	-6275
▁severe	-6276
ildar	-6277
▁reduce	-6278
▁pronounce	-6279
▁preparation	-6280
▁uniform	-6281
▁nomination	-6282
bh	-6283
▁Lax	-6284
▁cum	-6285
▁atmosp	-6286
▁column	-6287
hara	-6288
otic	-6289
▁Lib	-6290
▁Lit	-6291
▁liberal	-6292
▁wel	-6293
▁suits	-6294
oratory	-6295
▁Tagore	-6296
▁valuation	-6297
▁cru	-6298
ayana	-6299
▁origin	-6300
▁infring	-6301
▁Mandal	-6302
▁tenure	-6303
etary	-6304
ricted	-6305
▁choose	-6306
▁continues	-6307
amy	-6308
▁dry	-6309
▁dign	-6310
▁wants	-6311
▁online	-6312
OUT	-6313
oom	-6314
isher	-6315
▁Akbar	-6316
▁heirs	-6317
▁ability	-6318
▁unknown	-6319
▁cook	-6320
▁Gur	-6321
▁amendments	-6322
▁democratic	-6323
▁Dal	-6324
▁remote	-6325
▁safegu	-6326
▁reflected	-6327
▁Ter	-6328
▁adjust	-6329
▁nations	-6330
▁Recovery	-6331
▁rapid	-6332
▁union	-6333
▁commod	-6334
▁promoted	-6335
▁behaviour	-6336
▁grass	-6337
▁asking	-6338
▁judgement	-6339
UM	-6340
▁Aust	-6341
▁perfect	-6342
▁vacancy	-6343
▁critical	-6344
▁dict	-6345
antial	-6346
auty	-6347
ricket	-6348
ulatory	-6349
▁reproduced	-6350
bted	-6351
ilal	-6352
▁cold	-6353
arkhand	-6354
▁powerful	-6355
pal	-6356
▁constitu	-6357
▁contractual	-6358
DC	-6359
▁Vin	-6360
▁cog	-6361
▁negligence	-6362
▁Anr	-6363
▁Survey	-6364
▁Nand	-6365
▁acceptable	-6366
▁attitude	-6367
▁crops	-6368
▁banking	-6369
▁invoked	-6370
▁changing	-6371
▁impose	-6372
▁suspicion	-6373
▁villagers	-6374
▁lif	-6375
ishad	-6376
▁Press	-6377
my	-6378
▁wat	-6379
▁ambit	-6380
▁finger	-6381
▁showed	-6382
▁Exp	-6383
ented	-6384
▁obvious	-6385
▁quashing	-6386
▁Hem	-6387
▁mah	-6388
▁dates	-6389
▁denial	-6390
▁deliber	-6391
▁terminated	-6392
just	-6393
▁Fri	-6394
▁Kolk	-6395
▁pret	-6396
▁purchaser	-6397
inance	-6398
lusively	-6399
▁seeing	-6400
▁hor	-6401
▁Hari	-6402
▁Supra	-6403
▁multiple	-6404
▁regional	-6405
▁corresponding	-6406
▁Ba	-6407
▁bra	-6408
aduate	-6409
▁Rights	-6410
ips	-6411
upon	-6412
erous	-6413
▁tonn	-6414
ourage	-6415
▁bills	-6416
▁incorrect	-6417
▁essentially	-6418
▁Mat	-6419
▁Being	-6420
▁estate	-6421
▁extremely	-6422
mark	-6423
hs	-6424
▁pil	-6425
ropri	-6426
▁Sush	-6427
▁lady	-6428
▁uses	-6429
▁blow	-6430
▁gains	-6431
▁Engineering	-6432
▁Russ	-6433
▁greet	-6434
▁Managing	-6435
▁Jap	-6436
▁RO	-6437
▁Oper	-6438
hanced	-6439
▁norms	-6440
▁difficulty	-6441
fe	-6442
▁encro	-6443
▁passage	-6444
▁ascertain	-6445
ima	-6446
cast	-6447
oken	-6448
luding	-6449
▁Mang	-6450
▁Today	-6451
▁divor	-6452
▁ingredients	-6453
▁Ganga	-6454
▁Reddy	-6455
iqu	-6456
▁army	-6457
▁train	-6458
▁rect	-6459
▁graph	-6460
▁intent	-6461
▁Jy	-6462
▁trou	-6463
▁Enquiry	-6464
ogle	-6465
▁eat	-6466
urities	-6467
▁excluded	-6468
▁formation	-6469
▁harassment	-6470
▁intellectual	-6471
unct	-6472
▁kil	-6473
▁respond	-6474
▁Higher	-6475
▁execute	-6476
▁thereunder	-6477
pat	-6478
▁Doctor	-6479
▁partly	-6480
▁assessed	-6481
▁hom	-6482
icing	-6483
▁verification	-6484
ieving	-6485
▁panel	-6486
▁straight	-6487
▁experi	-6488
▁monthly	-6489
▁missing	-6490
▁telephone	-6491
▁notwithstanding	-6492
SH	-6493
oration	-6494
ologies	-6495
▁memorandum	-6496
▁Din	-6497
▁comment	-6498
▁journey	-6499
▁putting	-6500
▁literary	-6501
icity	-6502
▁Jharkhand	-6503
da	-6504
hat	-6505
rat	-6506
▁bidd	-6507
▁founded	-6508
▁contracts	-6509
▁discussions	-6510
▁Av	-6511
▁attrib	-6512
▁percentage	-6513
▁Iran	-6514
▁goal	-6515
▁Anand	-6516
▁habit	-6517
unch	-6518
▁Nan	-6519
▁Legal	-6520
▁adopt	-6521
▁cerem	-6522
▁convin	-6523
▁Ty	-6524
▁map	-6525
ondon	-6526
▁considerations	-6527
anya	-6528
rigation	-6529
▁convers	-6530
▁songs	-6531
▁Master	-6532
ificates	-6533
▁territorial	-6534
▁Pad	-6535
▁fab	-6536
▁Stud	-6537
state	-6538
▁recently	-6539
▁challenges	-6540
▁Conf	-6541
▁lapse	-6542
▁besides	-6543
▁Exchange	-6544
▁legitimate	-6545
▁significance	-6546
ae	-6547
▁CON	-6548
▁moon	-6549
▁Planning	-6550
▁rock	-6551
▁uncle	-6552
▁illust	-6553
▁measuring	-6554
▁situations	-6555
GC	-6556
▁reveals	-6557
▁complied	-6558
alog	-6559
▁Var	-6560
▁sequ	-6561
▁authent	-6562
▁channel	-6563
▁designed	-6564
▁newspaper	-6565
itions	-6566
▁rigor	-6567
▁Notice	-6568
▁reliefs	-6569
▁sectors	-6570
▁Business	-6571
▁gift	-6572
▁indirect	-6573
▁minority	-6574
LE	-6575
▁MO	-6576
aign	-6577
▁decades	-6578
mentioned	-6579
▁Admitted	-6580
▁enhanced	-6581
▁Who	-6582
▁flu	-6583
▁neighbour	-6584
TE	-6585
▁game	-6586
▁girls	-6587
▁ec	-6588
▁Consid	-6589
▁traffic	-6590
▁diseases	-6591
▁buildings	-6592
▁interesting	-6593
▁ran	-6594
▁Kolkata	-6595
▁BY	-6596
ement	-6597
essed	-6598
▁emphasis	-6599
▁governance	-6600
▁alive	-6601
▁fruit	-6602
▁Professor	-6603
iah	-6604
▁CD	-6605
▁dial	-6606
▁murd	-6607
▁format	-6608
▁Schools	-6609
▁drawing	-6610
▁pleased	-6611
AND	-6612
het	-6613
▁hero	-6614
▁persu	-6615
iveness	-6616
SS	-6617
▁adult	-6618
▁volume	-6619
▁feature	-6620
▁anc	-6621
▁thr	-6622
ruits	-6623
▁Women	-6624
▁enem	-6625
essment	-6626
▁accepting	-6627
▁Bengali	-6628
▁urg	-6629
▁Sure	-6630
▁innocent	-6631
wah	-6632
ector	-6633
▁drugs	-6634
▁Indep	-6635
▁prime	-6636
▁approx	-6637
▁infl	-6638
▁pregn	-6639
anas	-6640
lick	-6641
▁raw	-6642
ester	-6643
iplom	-6644
▁figures	-6645
▁Interest	-6646
RL	-6647
▁rob	-6648
▁comply	-6649
▁summons	-6650
▁throw	-6651
eev	-6652
▁domain	-6653
itch	-6654
ifies	-6655
▁Rajya	-6656
▁simpl	-6657
▁dishon	-6658
▁Final	-6659
▁belongs	-6660
ARD	-6661
▁Fed	-6662
▁primarily	-6663
inite	-6664
▁insects	-6665
▁IC	-6666
▁lik	-6667
▁consequential	-6668
▁AO	-6669
▁BC	-6670
▁Men	-6671
algam	-6672
itated	-6673
▁beauty	-6674
▁Affairs	-6675
▁proceeds	-6676
mer	-6677
owed	-6678
▁Raja	-6679
▁cave	-6680
▁Brahm	-6681
▁kinds	-6682
esty	-6683
▁deduct	-6684
ordinary	-6685
▁mission	-6686
itan	-6687
▁Unit	-6688
▁escape	-6689
▁assembly	-6690
▁inserted	-6691
▁envisaged	-6692
▁eth	-6693
▁Build	-6694
▁London	-6695
ancellor	-6696
▁Mahatma	-6697
iri	-6698
▁null	-6699
▁About	-6700
▁pertinent	-6701
▁Show	-6702
▁factory	-6703
▁Kab	-6704
alpur	-6705
▁runs	-6706
▁centres	-6707
▁commenced	-6708
▁restricted	-6709
TA	-6710
▁shared	-6711
▁entering	-6712
orts	-6713
holding	-6714
▁Mission	-6715
▁Set	-6716
▁CrPC	-6717
▁monitor	-6718
▁Admittedly	-6719
▁objectives	-6720
akar	-6721
▁See	-6722
▁sight	-6723
▁procedural	-6724
aug	-6725
ghan	-6726
khand	-6727
▁Reserve	-6728
▁expressly	-6729
▁improvement	-6730
▁automatically	-6731
anches	-6732
▁continuing	-6733
▁knowing	-6734
hari	-6735
▁Time	-6736
▁pages	-6737
igilance	-6738
▁Excellency	-6739
oe	-6740
▁Mur	-6741
▁Lect	-6742
▁pill	-6743
▁entity	-6744
▁conform	-6745
▁Az	-6746
▁bench	-6747
▁photographs	-6748
▁unreasonable	-6749
IP	-6750
▁minds	-6751
▁Gazette	-6752
▁offices	-6753
cher	-6754
▁Math	-6755
▁Buddh	-6756
▁store	-6757
▁Vishnu	-6758
▁adoption	-6759
▁customers	-6760
rity	-6761
▁culp	-6762
▁unfair	-6763
▁processes	-6764
habilitation	-6765
▁Rat	-6766
▁mun	-6767
▁ment	-6768
▁Grade	-6769
▁Later	-6770
▁quota	-6771
▁consequently	-6772
mar	-6773
eces	-6774
▁Jew	-6775
▁Himal	-6776
▁loans	-6777
▁sharp	-6778
athered	-6779
▁Palestin	-6780
▁MP	-6781
▁Over	-6782
▁inner	-6783
▁Google	-6784
▁equivalent	-6785
bon	-6786
liance	-6787
▁ignor	-6788
uries	-6789
lar	-6790
▁XX	-6791
▁Sen	-6792
▁Hist	-6793
▁ABOUT	-6794
▁fairly	-6795
▁serving	-6796
▁Authorities	-6797
▁irrespective	-6798
anti	-6799
▁alien	-6800
▁parliament	-6801
▁Ti	-6802
ster	-6803
▁Bose	-6804
▁roof	-6805
▁defic	-6806
▁affirm	-6807
▁whenever	-6808
▁regulation	-6809
▁discrimination	-6810
▁Mere	-6811
▁exha	-6812
▁priority	-6813
▁Kumari	-6814
▁effects	-6815
▁nuclear	-6816
isations	-6817
▁concent	-6818
▁obviously	-6819
▁endorse	-6820
▁meetings	-6821
▁Sin	-6822
board	-6823
▁Error	-6824
▁chest	-6825
▁color	-6826
▁perverse	-6827
fer	-6828
▁Training	-6829
▁erroneous	-6830
▁facilitate	-6831
▁withdrawal	-6832
xy	-6833
▁Force	-6834
▁cogent	-6835
▁subsid	-6836
▁modification	-6837
▁MD	-6838
▁Tahs	-6839
▁sick	-6840
ulates	-6841
▁Bin	-6842
▁web	-6843
▁Dhar	-6844
▁arms	-6845
cribes	-6846
▁grade	-6847
▁grown	-6848
▁atmosphere	-6849
▁joy	-6850
eeping	-6851
▁starting	-6852
▁Agriculture	-6853
cipl	-6854
▁borne	-6855
▁hair	-6856
▁fabric	-6857
▁visible	-6858
▁resist	-6859
▁innovation	-6860
▁tal	-6861
▁tob	-6862
▁Acqu	-6863
▁fired	-6864
▁stages	-6865
▁winding	-6866
▁customer	-6867
▁threatened	-6868
room	-6869
▁Late	-6870
▁commitment	-6871
adur	-6872
▁diary	-6873
▁output	-6874
▁occupation	-6875
▁Dhan	-6876
▁paramet	-6877
▁ourselves	-6878
▁environmental	-6879
asan	-6880
▁Jaw	-6881
▁reputation	-6882
▁spl	-6883
▁plat	-6884
▁Which	-6885
AJ	-6886
ops	-6887
grat	-6888
▁phase	-6889
▁judiciary	-6890
▁leadership	-6891
▁entertained	-6892
▁bh	-6893
▁Sav	-6894
▁circumstantial	-6895
▁Among	-6896
▁prepare	-6897
▁consisting	-6898
▁hyp	-6899
▁Ranj	-6900
▁Technical	-6901
▁distinguished	-6902
▁Great	-6903
▁Sanjay	-6904
▁appreciated	-6905
udi	-6906
▁deten	-6907
apped	-6908
▁Proper	-6909
▁infirm	-6910
▁observe	-6911
▁medicine	-6912
▁questioned	-6913
▁gathered	-6914
▁corroborated	-6915
uj	-6916
▁tobacco	-6917
▁becoming	-6918
▁institute	-6919
▁evaluation	-6920
▁leads	-6921
olition	-6922
▁helped	-6923
▁effected	-6924
▁alc	-6925
▁universities	-6926
▁NS	-6927
▁wise	-6928
▁Rajendra	-6929
▁effectively	-6930
idal	-6931
▁thor	-6932
▁elder	-6933
▁struck	-6934
▁president	-6935
▁scheduled	-6936
▁supporting	-6937
erk	-6938
▁Copy	-6939
▁Distt	-6940
▁assail	-6941
▁amalgam	-6942
▁derived	-6943
ortunately	-6944
▁Directorate	-6945
▁kidn	-6946
▁tank	-6947
▁Ira	-6948
▁Book	-6949
▁Gopal	-6950
▁Commit	-6951
▁arrive	-6952
▁concerning	-6953
▁departments	-6954
▁establishing	-6955
▁FOR	-6956
▁match	-6957
▁replied	-6958
▁comprehensive	-6959
oda	-6960
▁Luck	-6961
▁scen	-6962
▁server	-6963
itations	-6964
more	-6965
▁SCR	-6966
▁expos	-6967
▁depending	-6968
▁identical	-6969
▁surrender	-6970
oz	-6971
▁ahead	-6972
▁avo	-6973
▁east	-6974
▁breed	-6975
▁ruled	-6976
▁converted	-6977
Ms	-6978
idden	-6979
▁encl	-6980
clause	-6981
▁stream	-6982
aneously	-6983
▁similarly	-6984
▁steel	-6985
iments	-6986
▁entreprene	-6987
▁servants	-6988
▁historical	-6989
▁Laws	-6990
riginal	-6991
▁Speaker	-6992
▁unauthor	-6993
▁dependent	-6994
▁marketing	-6995
uit	-6996
▁Tir	-6997
ictionary	-6998
▁Revision	-6999
▁Lo	-7000
▁Sl	-7001
levant	-7002
▁communities	-7003
▁CC	-7004
▁BAN	-7005
ammad	-7006
▁Sind	-7007
▁Laksh	-7008
▁Small	-7009
▁Review	-7010
▁Himachal	-7011
ham	-7012
otton	-7013
▁rice	-7014
▁plays	-7015
▁couple	-7016
▁knows	-7017
▁Agra	-7018
eding	-7019
▁empt	-7020
▁wild	-7021
▁Count	-7022
▁River	-7023
ribunals	-7024
▁healthy	-7025
▁practical	-7026
▁justification	-7027
nan	-7028
mity	-7029
▁deposits	-7030
▁dro	-7031
▁leaf	-7032
hension	-7033
▁discrep	-7034
▁playing	-7035
ba	-7036
▁Rai	-7037
▁Network	-7038
▁procedures	-7039
▁participated	-7040
▁sq	-7041
▁Arun	-7042
▁careful	-7043
▁protected	-7044
▁engineering	-7045
asions	-7046
astern	-7047
▁fatal	-7048
▁Middle	-7049
▁involves	-7050
RO	-7051
▁band	-7052
▁inclined	-7053
▁controlled	-7054
▁successfully	-7055
▁Life	-7056
▁experts	-7057
odes	-7058
▁Prat	-7059
▁Reliance	-7060
▁acknowled	-7061
▁initiatives	-7062
ua	-7063
odh	-7064
▁Iraq	-7065
▁double	-7066
▁covering	-7067
▁discipline	-7068
oes	-7069
▁Ir	-7070
nsic	-7071
▁acres	-7072
▁repay	-7073
▁quantum	-7074
▁Beg	-7075
▁Sard	-7076
▁west	-7077
course	-7078
▁strike	-7079
▁university	-7080
▁career	-7081
▁Christian	-7082
▁Prevention	-7083
gen	-7084
omin	-7085
▁Jam	-7086
▁Territ	-7087
▁confer	-7088
▁exceeding	-7089
▁operative	-7090
▁Language	-7091
▁evalu	-7092
▁requisition	-7093
▁Test	-7094
▁brib	-7095
▁mining	-7096
▁campaign	-7097
▁Tele	-7098
▁poem	-7099
udence	-7100
▁arrears	-7101
MA	-7102
▁wage	-7103
▁Use	-7104
▁architect	-7105
▁pollution	-7106
▁characters	-7107
ulty	-7108
▁poison	-7109
▁household	-7110
elve	-7111
▁Don	-7112
▁Capital	-7113
▁returns	-7114
▁Yoga	-7115
▁accru	-7116
▁perpet	-7117
▁attained	-7118
▁awareness	-7119
▁intervention	-7120
▁applicability	-7121
pura	-7122
vent	-7123
▁crow	-7124
▁Credit	-7125
▁caution	-7126
▁Considering	-7127
▁convenience	-7128
▁Ministers	-7129
▁Sikh	-7130
▁slight	-7131
▁Last	-7132
▁Appeals	-7133
▁districts	-7134
▁regularly	-7135
▁Institutions	-7136
join	-7137
ifteen	-7138
▁smaller	-7139
▁encourage	-7140
▁forthwith	-7141
▁substituted	-7142
▁Universities	-7143
▁१६	-7144
▁Cro	-7145
▁Rah	-7146
▁roads	-7147
▁assumed	-7148
ORE	-7149
▁tea	-7150
▁blue	-7151
stitutes	-7152
▁holders	-7153
▁doubtful	-7154
▁differences	-7155
▁maintaining	-7156
▁permits	-7157
▁politics	-7158
▁ultimate	-7159
▁communicated	-7160
▁Tar	-7161
▁sad	-7162
▁Gang	-7163
▁hes	-7164
erior	-7165
▁heat	-7166
▁birds	-7167
▁Ramesh	-7168
▁Session	-7169
▁director	-7170
▁earliest	-7171
▁unlaw	-7172
▁supposed	-7173
oli	-7174
▁lect	-7175
▁lose	-7176
▁promise	-7177
▁eviction	-7178
set	-7179
▁CS	-7180
▁rid	-7181
venth	-7182
▁stret	-7183
▁prefer	-7184
▁sending	-7185
▁inflicted	-7186
▁preceding	-7187
▁interpreted	-7188
izes	-7189
▁tick	-7190
▁tests	-7191
▁Societies	-7192
▁efficiency	-7193
lets	-7194
▁Mit	-7195
▁Yet	-7196
▁producing	-7197
▁correctness	-7198
ux	-7199
cean	-7200
▁bona	-7201
abling	-7202
▁dream	-7203
▁tonnes	-7204
▁discard	-7205
▁prospect	-7206
▁estimated	-7207
▁core	-7208
▁broken	-7209
▁finance	-7210
▁retrospective	-7211
▁die	-7212
▁star	-7213
▁Hot	-7214
▁Back	-7215
▁email	-7216
▁singh	-7217
▁sovere	-7218
▁mineral	-7219
▁organized	-7220
▁certificates	-7221
▁reasoning	-7222
▁imposition	-7223
anth	-7224
▁Shankaracharya	-7225
ERS	-7226
cum	-7227
rary	-7228
▁Rak	-7229
burse	-7230
erved	-7231
▁Venk	-7232
▁elim	-7233
▁Mahab	-7234
isen	-7235
▁fish	-7236
▁cance	-7237
▁congrat	-7238
▁declare	-7239
▁rejecting	-7240
▁compulsory	-7241
nath	-7242
▁rad	-7243
▁shot	-7244
▁samples	-7245
▁Paragraph	-7246
unci	-7247
▁Swar	-7248
minent	-7249
▁stake	-7250
▁Ahmedabad	-7251
▁governing	-7252
▁symp	-7253
idance	-7254
▁desir	-7255
▁secondary	-7256
▁transform	-7257
▁club	-7258
▁wrongly	-7259
▁conversion	-7260
▁marry	-7261
ertaining	-7262
▁ensuring	-7263
▁Committees	-7264
▁Path	-7265
▁Acquisition	-7266
▁Self	-7267
▁users	-7268
▁Internet	-7269
za	-7270
▁averred	-7271
▁scholar	-7272
▁greetings	-7273
▁attachment	-7274
▁organizations	-7275
▁aw	-7276
▁Lucknow	-7277
▁COM	-7278
▁Sik	-7279
ureau	-7280
▁Vidy	-7281
▁Taluk	-7282
▁convention	-7283
bered	-7284
▁waiting	-7285
▁attorney	-7286
▁invoking	-7287
▁designated	-7288
▁regularization	-7289
▁Due	-7290
▁dia	-7291
othing	-7292
▁attended	-7293
▁suggestions	-7294
pass	-7295
▁SRI	-7296
▁wis	-7297
▁offers	-7298
▁writer	-7299
▁rigorous	-7300
▁perspective	-7301
ocol	-7302
▁council	-7303
osing	-7304
▁Compl	-7305
▁Original	-7306
▁mov	-7307
▁Deep	-7308
▁orna	-7309
▁rely	-7310
unk	-7311
▁legs	-7312
▁lodging	-7313
▁representing	-7314
uri	-7315
▁Gar	-7316
▁Austral	-7317
▁evid	-7318
▁overr	-7319
▁Common	-7320
▁perused	-7321
▁platform	-7322
ss	-7323
▁privilege	-7324
▁extraordinary	-7325
ners	-7326
▁fed	-7327
▁incrim	-7328
▁Cabinet	-7329
▁branches	-7330
▁organism	-7331
▁framework	-7332
▁FSL	-7333
▁crucial	-7334
▁formula	-7335
▁EX	-7336
ghal	-7337
▁bye	-7338
inous	-7339
▁multi	-7340
▁remand	-7341
▁regions	-7342
▁devotion	-7343
▁IP	-7344
▁Meh	-7345
▁evil	-7346
▁proving	-7347
▁prosperity	-7348
▁ID	-7349
atively	-7350
▁constr	-7351
cellaneous	-7352
LI	-7353
organ	-7354
▁undue	-7355
▁Pandit	-7356
▁Attorney	-7357
▁festival	-7358
iers	-7359
▁pull	-7360
▁Nepal	-7361
▁annexed	-7362
▁vitiated	-7363
▁Subsequently	-7364
imb	-7365
vity	-7366
▁managed	-7367
Os	-7368
▁trading	-7369
▁instruments	-7370
ohol	-7371
▁pleading	-7372
▁announced	-7373
▁specially	-7374
alle	-7375
ether	-7376
▁Economic	-7377
uv	-7378
▁Ten	-7379
▁Good	-7380
▁blind	-7381
▁infirmity	-7382
▁competition	-7383
▁introduction	-7384
pa	-7385
cribing	-7386
itt	-7387
off	-7388
▁performing	-7389
uliar	-7390
▁prompt	-7391
CE	-7392
ooth	-7393
▁Exs	-7394
▁burnt	-7395
▁CP	-7396
▁Vik	-7397
▁pad	-7398
urved	-7399
▁bidder	-7400
▁fixing	-7401
▁insurer	-7402
▁western	-7403
▁constant	-7404
▁occasions	-7405
▁Convention	-7406
▁Banks	-7407
▁disturb	-7408
▁motorcy	-7409
▁peculiar	-7410
ESS	-7411
▁MC	-7412
▁apex	-7413
▁aband	-7414
▁fifteen	-7415
▁consolid	-7416
▁relaxation	-7417
▁personality	-7418
▁heads	-7419
▁discuss	-7420
▁Nir	-7421
▁calculated	-7422
▁Dw	-7423
▁trend	-7424
resents	-7425
▁dealer	-7426
▁incent	-7427
▁seriously	-7428
▁translation	-7429
▁Pass	-7430
▁Prim	-7431
▁Could	-7432
▁matrim	-7433
▁fifty	-7434
▁wonder	-7435
▁greatest	-7436
▁undertake	-7437
▁settle	-7438
▁nominated	-7439
▁restrictions	-7440
▁Pers	-7441
▁Rad	-7442
▁mail	-7443
▁Nature	-7444
▁collabor	-7445
▁cow	-7446
▁Acts	-7447
▁didn	-7448
▁indig	-7449
▁multipl	-7450
▁belonged	-7451
▁vic	-7452
▁brings	-7453
▁twelve	-7454
▁electronic	-7455
pro	-7456
▁accom	-7457
▁cloud	-7458
▁looks	-7459
▁represents	-7460
▁instruction	-7461
EE	-7462
iant	-7463
▁Han	-7464
▁pieces	-7465
▁expired	-7466
▁originally	-7467
SA	-7468
▁DIST	-7469
▁shifted	-7470
▁contradictions	-7471
▁AN	-7472
▁NC	-7473
rase	-7474
ampur	-7475
▁street	-7476
▁stained	-7477
▁initiate	-7478
▁prevailing	-7479
ICE	-7480
atra	-7481
▁Joh	-7482
▁Rev	-7483
▁arisen	-7484
▁Gul	-7485
issue	-7486
▁mortem	-7487
holder	-7488
▁Prakhand	-7489
▁imposing	-7490
▁probation	-7491
▁Ach	-7492
▁Amb	-7493
▁PWs	-7494
▁Look	-7495
▁brid	-7496
▁upgr	-7497
▁Prabh	-7498
▁Mother	-7499
▁courage	-7500
▁intercourse	-7501
▁Agg	-7502
▁org	-7503
▁hall	-7504
icable	-7505
▁Motor	-7506
▁mostly	-7507
OP	-7508
lter	-7509
riya	-7510
▁Cal	-7511
umber	-7512
▁plans	-7513
▁Junior	-7514
▁Record	-7515
▁unnecess	-7516
▁hoc	-7517
laim	-7518
roud	-7519
▁felic	-7520
▁spect	-7521
▁restriction	-7522
eros	-7523
▁helps	-7524
och	-7525
oudh	-7526
▁vary	-7527
▁borrower	-7528
▁satisfactory	-7529
IG	-7530
▁coin	-7531
▁Works	-7532
▁usual	-7533
ym	-7534
▁mob	-7535
▁fuel	-7536
▁beings	-7537
▁dispose	-7538
▁contraband	-7539
▁fract	-7540
▁outer	-7541
▁client	-7542
▁orient	-7543
▁chargeable	-7544
ropol	-7545
▁refuse	-7546
▁answers	-7547
▁premium	-7548
ju	-7549
▁creditors	-7550
▁fulfilled	-7551
▁appointing	-7552
ema	-7553
▁Neg	-7554
▁shops	-7555
▁termed	-7556
▁squared	-7557
ansion	-7558
▁purely	-7559
▁requiring	-7560
▁deprived	-7561
▁endorsement	-7562
UB	-7563
▁Om	-7564
▁resc	-7565
▁scrutin	-7566
▁exclusion	-7567
▁route	-7568
fort	-7569
▁Kap	-7570
▁folk	-7571
▁royal	-7572
▁Process	-7573
▁apprehend	-7574
▁Roh	-7575
▁Tra	-7576
▁enum	-7577
appropri	-7578
▁proposals	-7579
ressive	-7580
▁aggreg	-7581
▁resign	-7582
▁dw	-7583
▁sake	-7584
▁inher	-7585
▁spoken	-7586
▁accompl	-7587
▁reaching	-7588
▁Advocates	-7589
▁consumers	-7590
▁Examination	-7591
MS	-7592
▁Mrs	-7593
cript	-7594
▁Zone	-7595
▁Eastern	-7596
▁communal	-7597
▁opposition	-7598
▁exclusively	-7599
▁Dy	-7600
▁Paper	-7601
▁judic	-7602
▁Jawahar	-7603
▁guidance	-7604
oses	-7605
▁rit	-7606
inity	-7607
vation	-7608
▁sites	-7609
ids	-7610
ander	-7611
▁aims	-7612
▁unjust	-7613
▁resource	-7614
FC	-7615
HAR	-7616
▁sets	-7617
▁relev	-7618
▁axe	-7619
▁Cast	-7620
▁boys	-7621
▁unlawful	-7622
BC	-7623
isis	-7624
▁bilateral	-7625
▁reasonably	-7626
▁shareholders	-7627
back	-7628
ounded	-7629
▁Vaish	-7630
▁spons	-7631
▁awards	-7632
▁History	-7633
▁Emp	-7634
▁USA	-7635
▁faced	-7636
▁cutting	-7637
▁bot	-7638
▁computing	-7639
▁Mil	-7640
anath	-7641
aught	-7642
▁Mohd	-7643
▁Bureau	-7644
▁wisdom	-7645
rup	-7646
cular	-7647
oubted	-7648
rating	-7649
▁initiative	-7650
akti	-7651
oyal	-7652
▁exch	-7653
▁alias	-7654
writing	-7655
▁climate	-7656
▁fraudul	-7657
▁housing	-7658
▁purview	-7659
amus	-7660
onies	-7661
▁File	-7662
roller	-7663
▁colle	-7664
▁investors	-7665
gi	-7666
▁TV	-7667
▁fellow	-7668
▁forced	-7669
▁please	-7670
mad	-7671
rafts	-7672
▁eleph	-7673
▁utter	-7674
▁Transfer	-7675
▁conclude	-7676
TER	-7677
chandra	-7678
▁reveal	-7679
▁divorce	-7680
▁discovery	-7681
▁exceptional	-7682
▁arrangements	-7683
▁Vir	-7684
▁Disp	-7685
▁breath	-7686
▁occurs	-7687
▁justify	-7688
▁backward	-7689
▁parameters	-7690
▁conclusions	-7691
▁Chrom	-7692
▁Agency	-7693
▁simult	-7694
▁infection	-7695
▁purported	-7696
che	-7697
ker	-7698
▁Id	-7699
▁000	-7700
chnama	-7701
▁facing	-7702
▁laying	-7703
▁ND	-7704
ayat	-7705
▁annum	-7706
▁inaug	-7707
piration	-7708
ny	-7709
itage	-7710
ogether	-7711
rations	-7712
▁discovered	-7713
▁phen	-7714
▁tenancy	-7715
▁substantially	-7716
AI	-7717
▁MM	-7718
▁Bur	-7719
▁Data	-7720
▁span	-7721
▁desert	-7722
▁earned	-7723
▁precise	-7724
▁creditor	-7725
▁presumed	-7726
▁superann	-7727
▁reduction	-7728
▁wait	-7729
▁empty	-7730
▁casual	-7731
▁placing	-7732
▁weather	-7733
AGE	-7734
▁pm	-7735
▁vag	-7736
▁Jyot	-7737
▁Saty	-7738
▁zero	-7739
▁illegally	-7740
▁integrity	-7741
▁matrimonial	-7742
shi	-7743
▁Divisional	-7744
▁Independence	-7745
urch	-7746
▁unw	-7747
▁Mult	-7748
▁solely	-7749
▁Chancellor	-7750
▁Equ	-7751
ranath	-7752
▁screen	-7753
▁Parliamentary	-7754
rule	-7755
▁string	-7756
▁Nations	-7757
mal	-7758
▁ste	-7759
alled	-7760
▁Sarasw	-7761
▁injust	-7762
▁rivers	-7763
▁Letters	-7764
▁Nothing	-7765
▁enabling	-7766
▁thousands	-7767
▁affidavits	-7768
TS	-7769
▁concerns	-7770
▁exhibited	-7771
▁transmission	-7772
▁Investigation	-7773
gypt	-7774
▁Aur	-7775
▁battle	-7776
▁Circular	-7777
▁accommodation	-7778
▁Rab	-7779
▁Urban	-7780
▁Sector	-7781
▁nearby	-7782
▁essence	-7783
apa	-7784
etime	-7785
▁bull	-7786
cience	-7787
▁skills	-7788
▁contributions	-7789
▁incriminating	-7790
▁Houses	-7791
▁budget	-7792
▁creates	-7793
▁implication	-7794
▁transportation	-7795
▁Po	-7796
alla	-7797
▁defend	-7798
▁concession	-7799
▁aforementioned	-7800
▁Subhas	-7801
▁extending	-7802
amber	-7803
▁fertil	-7804
▁societies	-7805
▁Electricity	-7806
▁Shar	-7807
▁Tiwari	-7808
▁garden	-7809
▁scholars	-7810
leum	-7811
▁Body	-7812
TI	-7813
loc	-7814
afide	-7815
▁precedent	-7816
cel	-7817
▁NE	-7818
▁taxes	-7819
▁dignity	-7820
▁Agricultural	-7821
▁Egypt	-7822
▁silent	-7823
▁succeeded	-7824
▁paint	-7825
▁quarter	-7826
▁motorcycle	-7827
▁substitute	-7828
▁Chow	-7829
▁stab	-7830
▁cycle	-7831
rection	-7832
▁exports	-7833
▁........	-7834
▁promoting	-7835
▁oath	-7836
▁Third	-7837
istence	-7838
▁Instru	-7839
▁expand	-7840
▁refusal	-7841
▁inviting	-7842
▁witnessed	-7843
▁Saf	-7844
▁Chak	-7845
▁mala	-7846
▁teach	-7847
▁treating	-7848
ida	-7849
▁Sk	-7850
inct	-7851
▁Urdu	-7852
▁forged	-7853
▁reforms	-7854
▁venture	-7855
▁Children	-7856
▁duration	-7857
▁devi	-7858
▁vote	-7859
ounder	-7860
▁Sardar	-7861
▁perusal	-7862
▁inconsistent	-7863
fall	-7864
▁URL	-7865
▁Upon	-7866
▁Govind	-7867
▁doubts	-7868
▁cricket	-7869
▁Lah	-7870
▁exhaust	-7871
▁investments	-7872
▁Ren	-7873
▁Yes	-7874
enger	-7875
▁admissions	-7876
▁difficulties	-7877
Rs	-7878
yas	-7879
▁absent	-7880
▁levied	-7881
▁hop	-7882
ellow	-7883
hemical	-7884
▁Suresh	-7885
▁package	-7886
▁supreme	-7887
▁attributed	-7888
ajan	-7889
force	-7890
▁Nare	-7891
▁improper	-7892
▁sin	-7893
▁eyew	-7894
▁Mahto	-7895
▁markets	-7896
▁scientists	-7897
top	-7898
emark	-7899
erent	-7900
uality	-7901
▁acquire	-7902
▁expansion	-7903
▁injustice	-7904
▁pit	-7905
ighty	-7906
▁drop	-7907
▁batch	-7908
oubtedly	-7909
▁delinqu	-7910
▁doctors	-7911
▁exactly	-7912
▁journal	-7913
UT	-7914
▁RBI	-7915
ceived	-7916
▁Patent	-7917
▁flowers	-7918
▁specify	-7919
▁Debt	-7920
▁skill	-7921
▁testator	-7922
ographical	-7923
▁personally	-7924
▁hat	-7925
▁Customs	-7926
▁trademark	-7927
mat	-7928
▁AY	-7929
▁Rest	-7930
▁zone	-7931
▁thrown	-7932
▁empower	-7933
▁password	-7934
▁dimension	-7935
▁emergency	-7936
ef	-7937
akf	-7938
ganj	-7939
ogue	-7940
▁Area	-7941
ropolitan	-7942
uni	-7943
roleum	-7944
▁coast	-7945
▁recip	-7946
▁imagination	-7947
pled	-7948
▁Sund	-7949
▁Divine	-7950
▁relate	-7951
▁ritual	-7952
▁seemed	-7953
▁jointly	-7954
▁pressed	-7955
▁alleging	-7956
▁conference	-7957
▁solar	-7958
▁talking	-7959
▁instances	-7960
▁SA	-7961
▁vir	-7962
▁cognizable	-7963
▁apprehension	-7964
▁ROAD	-7965
▁inev	-7966
▁sweet	-7967
▁liabilities	-7968
isory	-7969
▁Addl	-7970
▁suggests	-7971
▁movements	-7972
▁tim	-7973
▁Note	-7974
▁declined	-7975
CO	-7976
▁Um	-7977
omach	-7978
▁unex	-7979
joinder	-7980
▁myself	-7981
▁tissue	-7982
▁alcohol	-7983
▁outcome	-7984
▁routine	-7985
arpur	-7986
▁Anil	-7987
▁conj	-7988
▁replace	-7989
▁Far	-7990
▁Sud	-7991
▁fet	-7992
▁blank	-7993
▁enabled	-7994
▁conversation	-7995
▁cool	-7996
▁convert	-7997
▁Accounts	-7998
▁organised	-7999
▁deny	-8000
▁incap	-8001
▁Statute	-8002
▁tenants	-8003
▁Vigilance	-8004
▁correctly	-8005
▁friendship	-8006
▁temperature	-8007
▁Ray	-8008
▁Raju	-8009
▁Bahadur	-8010
▁murdered	-8011
▁eyewitness	-8012
▁Fac	-8013
▁resolved	-8014
▁compelled	-8015
▁installation	-8016
lo	-8017
▁Ku	-8018
▁La	-8019
▁Sand	-8020
▁Point	-8021
▁bears	-8022
▁Industry	-8023
ulous	-8024
▁receipts	-8025
▁influenced	-8026
icon	-8027
▁gate	-8028
▁Sinha	-8029
icipality	-8030
▁Provision	-8031
▁centuries	-8032
▁beneficial	-8033
rows	-8034
▁Ear	-8035
▁Army	-8036
▁Jail	-8037
▁Sidd	-8038
▁newly	-8039
▁Choudh	-8040
▁Primary	-8041
▁Marriage	-8042
▁governments	-8043
vol	-8044
▁VI	-8045
amed	-8046
ithm	-8047
onal	-8048
▁PDD	-8049
▁hel	-8050
▁hyd	-8051
ashing	-8052
▁Sushil	-8053
▁incumb	-8054
▁patent	-8055
▁faculty	-8056
▁renewal	-8057
▁dedicated	-8058
▁Bangl	-8059
▁config	-8060
▁Question	-8061
▁corruption	-8062
▁implicated	-8063
▁kg	-8064
▁१७	-8065
rates	-8066
▁Exper	-8067
▁Select	-8068
antic	-8069
▁Gold	-8070
▁erred	-8071
▁organisations	-8072
▁Notwithstanding	-8073
▁tune	-8074
▁Despite	-8075
▁improved	-8076
▁subsection	-8077
DU	-8078
▁sla	-8079
oples	-8080
▁bare	-8081
▁dance	-8082
▁Afghan	-8083
▁defeat	-8084
▁dangerous	-8085
▁Dam	-8086
▁isol	-8087
riages	-8088
▁lawful	-8089
▁Something	-8090
▁confusion	-8091
▁da	-8092
▁Deed	-8093
▁fifth	-8094
▁ancest	-8095
▁prohibition	-8096
sp	-8097
ese	-8098
norm	-8099
oman	-8100
▁Ans	-8101
▁Inn	-8102
▁jew	-8103
preci	-8104
▁Liqu	-8105
▁Vide	-8106
engers	-8107
▁micro	-8108
▁revers	-8109
▁Related	-8110
▁everyone	-8111
▁daughters	-8112
▁membership	-8113
▁Educational	-8114
▁corroboration	-8115
▁CL	-8116
indra	-8117
▁Term	-8118
empted	-8119
isputed	-8120
▁Estate	-8121
▁provisional	-8122
▁confirmation	-8123
oria	-8124
▁horse	-8125
▁seeds	-8126
▁manage	-8127
▁directory	-8128
▁Lic	-8129
▁dog	-8130
▁sanct	-8131
anka	-8132
▁Cur	-8133
▁rub	-8134
▁tur	-8135
akrish	-8136
employ	-8137
▁twice	-8138
▁Annual	-8139
▁billion	-8140
▁emerged	-8141
▁attacked	-8142
▁examples	-8143
▁monetary	-8144
▁suddenly	-8145
▁investigate	-8146
JC	-8147
rh	-8148
▁SL	-8149
rier	-8150
▁syn	-8151
▁Conc	-8152
▁deem	-8153
▁doesn	-8154
▁cattle	-8155
▁younger	-8156
▁Statement	-8157
▁irrigation	-8158
▁kumar	-8159
▁Defence	-8160
▁Without	-8161
▁travell	-8162
▁combined	-8163
▁Shuk	-8164
apping	-8165
▁glass	-8166
▁saved	-8167
▁cancel	-8168
▁margin	-8169
▁restrict	-8170
▁thorough	-8171
▁Vid	-8172
▁hotel	-8173
▁earning	-8174
▁assessing	-8175
▁deliberately	-8176
▁irregularity	-8177
▁presentation	-8178
▁Kir	-8179
▁mos	-8180
▁gather	-8181
▁Israeli	-8182
▁killing	-8183
▁affirmed	-8184
▁initiation	-8185
rum	-8186
▁Ha	-8187
▁Main	-8188
▁Local	-8189
oning	-8190
▁assured	-8191
▁Constitutional	-8192
jan	-8193
hemat	-8194
▁mixed	-8195
▁analog	-8196
▁newspapers	-8197
▁mir	-8198
onance	-8199
▁quasi	-8200
▁French	-8201
▁speaks	-8202
▁mountain	-8203
▁formulated	-8204
▁load	-8205
amount	-8206
▁comparison	-8207
▁Micro	-8208
▁gap	-8209
▁disbel	-8210
▁tested	-8211
▁Housing	-8212
▁Issue	-8213
▁catch	-8214
▁poets	-8215
ressing	-8216
▁Whereas	-8217
▁rendering	-8218
iche	-8219
icus	-8220
▁ring	-8221
▁tract	-8222
▁prohibited	-8223
RIC	-8224
▁driven	-8225
▁suspect	-8226
▁verified	-8227
ruction	-8228
▁passion	-8229
▁numerous	-8230
▁statutes	-8231
▁intelligence	-8232
pic	-8233
dess	-8234
▁Mas	-8235
house	-8236
▁Know	-8237
▁contravention	-8238
yers	-8239
▁abst	-8240
▁baby	-8241
▁poly	-8242
▁composed	-8243
▁endeavour	-8244
▁sacrifice	-8245
▁distributed	-8246
.00	-8247
alam	-8248
ohan	-8249
▁dynam	-8250
▁deeply	-8251
▁chapter	-8252
BS	-8253
vast	-8254
▁beg	-8255
▁sky	-8256
▁reass	-8257
▁welcome	-8258
▁structures	-8259
▁anticipatory	-8260
HI	-8261
orter	-8262
▁fled	-8263
▁dispro	-8264
▁Discipl	-8265
▁forming	-8266
▁offender	-8267
▁voluntarily	-8268
ugh	-8269
▁NH	-8270
▁Ser	-8271
▁belie	-8272
▁covers	-8273
▁trained	-8274
▁disabled	-8275
▁retained	-8276
▁violated	-8277
▁supplementary	-8278
▁existed	-8279
▁naturally	-8280
▁underlying	-8281
posit	-8282
▁quiet	-8283
▁filling	-8284
ainted	-8285
ensity	-8286
▁thinks	-8287
▁returning	-8288
EG	-8289
ensus	-8290
▁elic	-8291
enders	-8292
locutory	-8293
▁customs	-8294
▁Secondly	-8295
▁Memorandum	-8296
rad	-8297
▁Mir	-8298
▁fle	-8299
aints	-8300
▁Name	-8301
▁fulfil	-8302
▁Ang	-8303
▁Found	-8304
▁Awards	-8305
▁Kishore	-8306
▁relevance	-8307
▁Mor	-8308
▁Sit	-8309
igarh	-8310
▁misc	-8311
▁ended	-8312
▁offering	-8313
▁ignorance	-8314
SP	-8315
▁Mam	-8316
▁votes	-8317
▁viewed	-8318
▁writings	-8319
▁guaranteed	-8320
▁securities	-8321
▁compens	-8322
▁component	-8323
▁enterprise	-8324
ped	-8325
from	-8326
umping	-8327
▁bonds	-8328
▁shift	-8329
▁intest	-8330
▁sacred	-8331
▁deserve	-8332
▁summary	-8333
▁Teachers	-8334
▁residents	-8335
▁components	-8336
▁forc	-8337
▁radio	-8338
▁flower	-8339
▁tribal	-8340
▁Railways	-8341
▁chair	-8342
▁noise	-8343
▁surpr	-8344
▁starts	-8345
▁digital	-8346
▁awarding	-8347
▁Employees	-8348
▁delinquent	-8349
ario	-8350
▁thank	-8351
raction	-8352
▁creative	-8353
▁projected	-8354
▁indicating	-8355
▁technologies	-8356
▁approximately	-8357
izon	-8358
▁Ank	-8359
▁center	-8360
▁meters	-8361
▁quickly	-8362
▁contends	-8363
▁engagement	-8364
▁superannuation	-8365
race	-8366
endar	-8367
iliar	-8368
inter	-8369
▁stomach	-8370
arer	-8371
oure	-8372
wara	-8373
▁Bet	-8374
▁hect	-8375
▁accorded	-8376
▁terminal	-8377
▁unb	-8378
▁race	-8379
▁retain	-8380
prudence	-8381
▁Register	-8382
▁attempted	-8383
▁criticism	-8384
▁altogether	-8385
▁Cooperative	-8386
▁print	-8387
▁expedit	-8388
▁arranged	-8389
▁levelled	-8390
▁pointing	-8391
▁extensive	-8392
▁inclusive	-8393
▁reinstate	-8394
▁competitive	-8395
oshi	-8396
▁anx	-8397
▁theme	-8398
▁closely	-8399
▁du	-8400
▁Sil	-8401
▁VII	-8402
▁clin	-8403
▁divid	-8404
kha	-8405
son	-8406
▁TR	-8407
zing	-8408
scious	-8409
▁Leave	-8410
▁spoke	-8411
▁teeth	-8412
▁thumb	-8413
▁Rakesh	-8414
▁lawyer	-8415
▁executing	-8416
▁possessed	-8417
▁UK	-8418
▁flo	-8419
▁preparing	-8420
▁cultivation	-8421
heb	-8422
▁denying	-8423
lier	-8424
▁sympt	-8425
▁maintainability	-8426
▁amp	-8427
▁Succ	-8428
▁eggs	-8429
▁vague	-8430
ainable	-8431
▁Tender	-8432
▁patients	-8433
▁Champaran	-8434
▁NIT	-8435
▁bids	-8436
▁prose	-8437
▁folder	-8438
▁minute	-8439
▁manufactured	-8440
▁Oil	-8441
▁tom	-8442
▁Shyam	-8443
▁warning	-8444
▁Property	-8445
▁Palestinian	-8446
▁representations	-8447
▁tab	-8448
arwal	-8449
▁York	-8450
▁failing	-8451
▁occupied	-8452
▁concurrent	-8453
▁kh	-8454
arding	-8455
▁diplom	-8456
▁enmity	-8457
▁anybody	-8458
▁desired	-8459
▁printed	-8460
etent	-8461
▁AGED	-8462
▁Arch	-8463
▁John	-8464
▁solid	-8465
▁tools	-8466
▁Tribes	-8467
▁affecting	-8468
▁incidents	-8469
▁Employment	-8470
▁APP	-8471
▁Band	-8472
▁Mant	-8473
▁bath	-8474
▁flood	-8475
▁Bangladesh	-8476
▁enumerated	-8477
time	-8478
▁Sita	-8479
▁diet	-8480
▁bidders	-8481
▁punished	-8482
▁observing	-8483
ded	-8484
alal	-8485
▁Dub	-8486
▁Key	-8487
▁Free	-8488
▁Guarant	-8489
▁replaced	-8490
▁integrated	-8491
SR	-8492
oop	-8493
▁CIT	-8494
▁MAN	-8495
▁Temple	-8496
▁admits	-8497
▁begins	-8498
▁propag	-8499
▁insofar	-8500
▁imported	-8501
▁interrog	-8502
▁assumption	-8503
▁Web	-8504
▁None	-8505
▁cord	-8506
▁Three	-8507
▁Failed	-8508
▁vendor	-8509
▁gratuity	-8510
▁phenomen	-8511
▁reaction	-8512
▁fulfill	-8513
▁implied	-8514
▁assuming	-8515
▁improving	-8516
▁revisional	-8517
▁Disc	-8518
▁Based	-8519
▁crisis	-8520
▁linked	-8521
▁comments	-8522
▁regulate	-8523
▁thoughts	-8524
▁irrelevant	-8525
emn	-8526
gaon	-8527
▁ram	-8528
▁Geor	-8529
▁Sale	-8530
▁Chait	-8531
▁apparently	-8532
▁comprising	-8533
▁Lat	-8534
▁disk	-8535
ocated	-8536
wahati	-8537
worthy	-8538
▁Market	-8539
▁visual	-8540
▁entrance	-8541
▁attendance	-8542
nergy	-8543
▁Rent	-8544
▁firing	-8545
▁ceremony	-8546
▁enforced	-8547
gue	-8548
▁Naw	-8549
urbed	-8550
▁flag	-8551
▁planned	-8552
▁emerging	-8553
▁terrorist	-8554
▁destruction	-8555
pay	-8556
▁lays	-8557
▁accurate	-8558
▁violative	-8559
▁MA	-8560
▁learnt	-8561
▁remind	-8562
▁contradict	-8563
▁combination	-8564
endix	-8565
arency	-8566
▁bribe	-8567
▁artific	-8568
▁deleted	-8569
▁securing	-8570
▁1	-8571
aon	-8572
▁UGC	-8573
person	-8574
ignment	-8575
▁Working	-8576
▁Guwahati	-8577
▁assignment	-8578
SI	-8579
UK	-8580
▁southern	-8581
dev	-8582
▁crim	-8583
▁hill	-8584
utable	-8585
▁Hotel	-8586
▁bottom	-8587
▁qualifying	-8588
anchi	-8589
▁pist	-8590
▁revol	-8591
▁illness	-8592
▁Speaking	-8593
▁religions	-8594
atab	-8595
▁ast	-8596
▁Sang	-8597
iaries	-8598
▁Design	-8599
▁ruling	-8600
▁presently	-8601
▁launch	-8602
▁lesser	-8603
atti	-8604
▁Bag	-8605
enous	-8606
▁Hand	-8607
▁myst	-8608
▁chart	-8609
itating	-8610
▁Sheikh	-8611
▁widely	-8612
▁equitable	-8613
ixed	-8614
stitu	-8615
▁Hold	-8616
▁depth	-8617
▁walls	-8618
▁instruct	-8619
▁discharging	-8620
▁Bil	-8621
actor	-8622
unath	-8623
▁Germany	-8624
▁Hindust	-8625
▁joining	-8626
▁studied	-8627
▁Building	-8628
atar	-8629
allel	-8630
hetic	-8631
▁wire	-8632
▁Ambed	-8633
▁Level	-8634
▁drama	-8635
▁Change	-8636
▁promis	-8637
▁Brahman	-8638
▁distrib	-8639
▁Furthermore	-8640
▁Da	-8641
▁bright	-8642
▁solemn	-8643
▁prevented	-8644
▁felicitations	-8645
aces	-8646
▁innocence	-8647
▁infringement	-8648
▁rehabilitation	-8649
PW	-8650
Ws	-8651
Nos	-8652
ridge	-8653
▁Raman	-8654
▁attain	-8655
▁Ambedkar	-8656
▁definitely	-8657
lete	-8658
▁Cell	-8659
▁Phys	-8660
active	-8661
▁auton	-8662
▁remem	-8663
▁generated	-8664
▁Vas	-8665
▁bomb	-8666
▁proud	-8667
▁weigh	-8668
theless	-8669
▁Reform	-8670
▁debate	-8671
▁Inquiry	-8672
▁contest	-8673
▁manager	-8674
▁Mahabhar	-8675
zz	-8676
▁TH	-8677
▁Mos	-8678
▁Text	-8679
▁immun	-8680
▁Mobile	-8681
bursement	-8682
▁finality	-8683
▁conscience	-8684
▁contribute	-8685
andi	-8686
verted	-8687
▁Dharm	-8688
▁praying	-8689
ECT	-8690
gone	-8691
▁doll	-8692
lihood	-8693
▁widow	-8694
▁drinking	-8695
▁celebrated	-8696
▁demonstrate	-8697
hin	-8698
abha	-8699
appl	-8700
sell	-8701
▁Wind	-8702
▁sear	-8703
▁cotton	-8704
▁burning	-8705
▁trouble	-8706
▁interfered	-8707
▁Metropolitan	-8708
▁invoke	-8709
▁immense	-8710
▁bleeding	-8711
▁completing	-8712
▁pu	-8713
ician	-8714
▁shad	-8715
akings	-8716
ariness	-8717
itional	-8718
▁forget	-8719
▁evolved	-8720
▁resolve	-8721
▁evolution	-8722
sa	-8723
tes	-8724
▁hur	-8725
▁cryst	-8726
▁layer	-8727
▁suffers	-8728
▁imperial	-8729
▁sequence	-8730
▁declaring	-8731
▁unnecessary	-8732
arn	-8733
itle	-8734
▁amen	-8735
coming	-8736
▁socio	-8737
▁matern	-8738
▁worker	-8739
▁Neither	-8740
▁protest	-8741
▁Constitu	-8742
▁clarification	-8743
EF	-8744
RC	-8745
uter	-8746
▁upl	-8747
▁Buddha	-8748
▁sharing	-8749
▁Standard	-8750
▁heritage	-8751
▁peaceful	-8752
▁succession	-8753
▁pp	-8754
▁enemy	-8755
▁Depart	-8756
▁corner	-8757
▁testing	-8758
▁recourse	-8759
eree	-8760
▁avoided	-8761
▁propriet	-8762
▁furnishing	-8763
▁Had	-8764
useum	-8765
▁Ahmad	-8766
▁aimed	-8767
▁brand	-8768
rosy	-8769
▁Dom	-8770
adequ	-8771
▁quot	-8772
▁thick	-8773
▁simultaneously	-8774
▁kit	-8775
▁Tata	-8776
▁allows	-8777
▁stress	-8778
▁NI	-8779
▁wed	-8780
ocket	-8781
▁Card	-8782
▁Move	-8783
▁Democ	-8784
itative	-8785
▁distinguish	-8786
abet	-8787
▁Bir	-8788
▁Top	-8789
▁ego	-8790
▁Chit	-8791
orters	-8792
▁Japan	-8793
▁Saraswati	-8794
▁destroyed	-8795
▁developments	-8796
aria	-8797
▁vul	-8798
ariat	-8799
▁adap	-8800
▁Indeed	-8801
▁carbon	-8802
▁Likewise	-8803
▁surrounding	-8804
▁substantiate	-8805
▁fib	-8806
▁Amar	-8807
▁Forum	-8808
▁Shukla	-8809
▁assume	-8810
▁fruits	-8811
▁scales	-8812
▁corrupt	-8813
▁educated	-8814
▁messages	-8815
▁tendered	-8816
▁Jawaharlal	-8817
▁intimation	-8818
TP	-8819
▁IA	-8820
▁Innov	-8821
▁Castes	-8822
▁Pleader	-8823
▁strategy	-8824
▁affection	-8825
aterial	-8826
▁masses	-8827
▁delayed	-8828
▁commerce	-8829
▁preference	-8830
▁discretionary	-8831
ugg	-8832
▁nobody	-8833
▁Brahmin	-8834
▁Subhash	-8835
▁carries	-8836
▁humanity	-8837
▁contemporary	-8838
hus	-8839
▁links	-8840
▁oppon	-8841
▁stead	-8842
▁peoples	-8843
▁happening	-8844
▁Controller	-8845
LC	-8846
▁prol	-8847
▁devot	-8848
erosene	-8849
▁Ganesh	-8850
▁Import	-8851
▁engage	-8852
iel	-8853
▁Dinesh	-8854
▁abnorm	-8855
▁wearing	-8856
▁somebody	-8857
▁Promotion	-8858
cles	-8859
▁Kor	-8860
▁Coal	-8861
▁wherever	-8862
▁amounting	-8863
▁permitting	-8864
got	-8865
▁Nig	-8866
▁haz	-8867
apore	-8868
▁incon	-8869
▁sports	-8870
▁plastic	-8871
▁Ji	-8872
▁ru	-8873
bing	-8874
▁alarm	-8875
▁commonly	-8876
▁electric	-8877
▁dismissing	-8878
▁Ele	-8879
▁Bach	-8880
▁exhibit	-8881
▁largely	-8882
▁Consumer	-8883
▁Ary	-8884
▁Dil	-8885
ealth	-8886
▁Docu	-8887
witness	-8888
▁Sometimes	-8889
,0	-8890
raid	-8891
▁hind	-8892
▁taught	-8893
▁competence	-8894
ipher	-8895
ortium	-8896
▁Cases	-8897
▁wider	-8898
▁regime	-8899
▁serial	-8900
▁coupled	-8901
▁inspired	-8902
▁sleeping	-8903
▁tomorrow	-8904
▁Til	-8905
urers	-8906
mental	-8907
▁accompany	-8908
▁directors	-8909
▁previously	-8910
▁Adh	-8911
▁Nay	-8912
▁Occ	-8913
▁harmony	-8914
▁classified	-8915
sha	-8916
ingly	-8917
iverse	-8918
▁Audit	-8919
▁Money	-8920
▁manip	-8921
▁consonance	-8922
▁interlocutory	-8923
▁mr	-8924
ivek	-8925
will	-8926
▁Sign	-8927
▁Tehs	-8928
▁edge	-8929
▁attempts	-8930
▁northern	-8931
▁Laboratory	-8932
▁Departments	-8933
▁supervision	-8934
▁Lad	-8935
▁lung	-8936
▁estopp	-8937
▁torture	-8938
▁hereunder	-8939
▁CA	-8940
▁enables	-8941
▁evidences	-8942
yl	-8943
achi	-8944
rain	-8945
▁cong	-8946
▁creat	-8947
vastava	-8948
▁......	-8949
▁phrase	-8950
▁Instead	-8951
▁happiness	-8952
▁prominent	-8953
▁implementing	-8954
UN	-8955
▁coc	-8956
night	-8957
▁literal	-8958
▁familiar	-8959
▁ornaments	-8960
ius	-8961
▁ju	-8962
isal	-8963
▁Bij	-8964
▁decline	-8965
▁limitations	-8966
▁NCT	-8967
▁signs	-8968
▁attacks	-8969
▁forests	-8970
▁insured	-8971
▁options	-8972
▁strange	-8973
▁meantime	-8974
▁aspir	-8975
▁defines	-8976
▁convenient	-8977
▁passengers	-8978
zen	-8979
▁rough	-8980
▁Conduct	-8981
▁considers	-8982
▁livelihood	-8983
aha	-8984
pad	-8985
▁era	-8986
▁vent	-8987
▁Orders	-8988
▁border	-8989
▁onwards	-8990
▁realised	-8991
▁recognize	-8992
▁credibility	-8993
mon	-8994
▁cam	-8995
▁Integ	-8996
▁Sales	-8997
▁vires	-8998
▁laboure	-8999
▁partial	-9000
▁prayers	-9001
▁writers	-9002
▁physically	-9003
▁Arj	-9004
▁Ajay	-9005
▁Ravi	-9006
▁canv	-9007
▁continuously	-9008
▁Tue	-9009
▁mic	-9010
▁Durga	-9011
▁Odish	-9012
▁cease	-9013
▁truly	-9014
▁unlike	-9015
▁Persian	-9016
▁discover	-9017
▁Bro	-9018
▁Naz	-9019
▁fate	-9020
▁fron	-9021
▁inadequ	-9022
▁incumbent	-9023
▁commodities	-9024
▁MR	-9025
▁Pas	-9026
ginal	-9027
▁tear	-9028
▁incom	-9029
▁fallen	-9030
ustainable	-9031
▁enhancement	-9032
▁entertainment	-9033
▁NG	-9034
▁Gir	-9035
▁ven	-9036
stone	-9037
▁Aurang	-9038
▁pistol	-9039
▁Consult	-9040
care	-9041
▁Bid	-9042
andra	-9043
▁devoid	-9044
▁pursue	-9045
▁titled	-9046
▁affects	-9047
▁eastern	-9048
▁staying	-9049
▁Appendix	-9050
▁undisputed	-9051
▁probability	-9052
▁institutional	-9053
▁mit	-9054
▁Mount	-9055
▁fixation	-9056
▁strongly	-9057
▁desirable	-9058
▁subsidiary	-9059
ys	-9060
URU	-9061
▁abet	-9062
▁jobs	-9063
▁onus	-9064
▁frust	-9065
▁Circle	-9066
▁assurance	-9067
▁indirectly	-9068
▁expressions	-9069
DP	-9070
ache	-9071
ananda	-9072
▁Manoj	-9073
▁Natural	-9074
▁millions	-9075
▁Chaitanya	-9076
▁Lordships	-9077
▁submitting	-9078
ALL	-9079
▁GR	-9080
▁ma	-9081
SION	-9082
▁errors	-9083
▁comfort	-9084
▁contending	-9085
▁operational	-9086
aza	-9087
▁Misc	-9088
▁excellence	-9089
edia	-9090
▁Sou	-9091
▁unsu	-9092
▁bottle	-9093
▁bridge	-9094
▁signal	-9095
▁encouraged	-9096
▁contributed	-9097
inn	-9098
▁managing	-9099
▁enjoyment	-9100
▁collecting	-9101
▁collective	-9102
cond	-9103
ture	-9104
atell	-9105
▁drag	-9106
▁Russia	-9107
▁allocation	-9108
GA	-9109
ronics	-9110
▁stones	-9111
▁Lecturer	-9112
▁imperative	-9113
▁Si	-9114
kumar	-9115
▁Norm	-9116
incial	-9117
▁insert	-9118
▁Five	-9119
▁drew	-9120
▁sixty	-9121
▁Odisha	-9122
resident	-9123
▁entities	-9124
▁aggregate	-9125
▁absorption	-9126
asty	-9127
▁hurt	-9128
examin	-9129
▁Energy	-9130
▁Mahesh	-9131
▁eminent	-9132
▁advocates	-9133
▁municipal	-9134
▁suspicious	-9135
▁OP	-9136
oked	-9137
sues	-9138
▁Pune	-9139
▁Stre	-9140
▁Bazar	-9141
▁rooms	-9142
▁cancer	-9143
▁conformity	-9144
ding	-9145
▁cos	-9146
▁quo	-9147
▁index	-9148
▁lawyers	-9149
▁Ordinance	-9150
▁restraining	-9151
▁notifications	-9152
aked	-9153
atrix	-9154
▁Sever	-9155
▁Steel	-9156
▁divide	-9157
▁kingdom	-9158
▁unconscious	-9159
EV	-9160
inese	-9161
▁ITAT	-9162
▁Allow	-9163
▁sword	-9164
▁Pratap	-9165
▁decade	-9166
▁tempor	-9167
▁redress	-9168
▁Forensic	-9169
▁Times	-9170
▁ultra	-9171
▁breast	-9172
▁factum	-9173
▁Commerce	-9174
▁internet	-9175
▁contradiction	-9176
▁airc	-9177
▁Plant	-9178
▁insisted	-9179
▁television	-9180
comm	-9181
▁Sukh	-9182
▁Turk	-9183
▁obst	-9184
cation	-9185
▁Vehic	-9186
ifiable	-9187
▁Arbitral	-9188
▁foregoing	-9189
eli	-9190
anese	-9191
ologist	-9192
▁Number	-9193
▁waters	-9194
▁achieving	-9195
▁१८	-9196
pers	-9197
▁Return	-9198
▁agents	-9199
▁Australia	-9200
▁displayed	-9201
▁conclusive	-9202
▁Enterprises	-9203
▁productivity	-9204
wad	-9205
chen	-9206
quar	-9207
▁feelings	-9208
▁convinced	-9209
▁Foundation	-9210
▁Kol	-9211
▁Mach	-9212
▁shut	-9213
▁patri	-9214
▁Export	-9215
▁speedy	-9216
▁diverse	-9217
▁remedies	-9218
▁allowances	-9219
grim	-9220
▁tor	-9221
▁tub	-9222
▁asserted	-9223
▁Chandigarh	-9224
▁GO	-9225
compl	-9226
▁Care	-9227
▁MSME	-9228
▁Binoy	-9229
▁Grant	-9230
adation	-9231
▁Letter	-9232
▁organs	-9233
▁repair	-9234
▁Keeping	-9235
▁kilomet	-9236
▁handwriting	-9237
ainty	-9238
▁erst	-9239
▁Vivek	-9240
▁goals	-9241
▁muscle	-9242
▁obliged	-9243
▁periods	-9244
▁settings	-9245
▁UT	-9246
▁Dra	-9247
▁apt	-9248
▁Fort	-9249
▁urge	-9250
▁secular	-9251
▁conveyed	-9252
▁eventually	-9253
oices	-9254
plete	-9255
▁bact	-9256
▁desc	-9257
▁grew	-9258
▁subt	-9259
▁tied	-9260
ensing	-9261
▁inferior	-9262
▁legality	-9263
▁qualities	-9264
▁artificial	-9265
▁exceptions	-9266
hew	-9267
uti	-9268
tical	-9269
▁Chat	-9270
▁Green	-9271
▁logical	-9272
▁anywhere	-9273
▁sovereign	-9274
▁undergone	-9275
▁Nil	-9276
▁Opp	-9277
▁Und	-9278
▁shr	-9279
▁vit	-9280
inces	-9281
ivided	-9282
▁Bhawan	-9283
▁kerosene	-9284
▁elaborate	-9285
▁gradually	-9286
var	-9287
quest	-9288
▁chrom	-9289
▁remun	-9290
▁Academ	-9291
▁metres	-9292
▁Engineers	-9293
▁solutions	-9294
▁expectation	-9295
obe	-9296
atre	-9297
veer	-9298
▁Max	-9299
▁PIL	-9300
▁inad	-9301
▁League	-9302
judicial	-9303
▁remarkable	-9304
MP	-9305
br	-9306
otal	-9307
ouch	-9308
▁Basic	-9309
▁Vedic	-9310
▁backd	-9311
▁supports	-9312
▁currently	-9313
▁excessive	-9314
▁Afghanistan	-9315
alaya	-9316
▁Modi	-9317
▁View	-9318
▁audio	-9319
version	-9320
▁devices	-9321
▁locality	-9322
▁possibly	-9323
▁scenario	-9324
▁contested	-9325
rete	-9326
shan	-9327
what	-9328
abhai	-9329
▁Mean	-9330
▁reop	-9331
▁Death	-9332
▁score	-9333
uncture	-9334
▁enunci	-9335
▁stored	-9336
▁Several	-9337
▁Appellants	-9338
ahan	-9339
▁cav	-9340
▁rig	-9341
▁fluid	-9342
▁yourself	-9343
▁electoral	-9344
▁followers	-9345
▁subscribe	-9346
▁Organization	-9347
▁appreciating	-9348
ART	-9349
arkar	-9350
▁mine	-9351
▁tong	-9352
istries	-9353
▁outset	-9354
▁reserve	-9355
▁Registry	-9356
▁channels	-9357
▁download	-9358
▁visiting	-9359
▁erstwhile	-9360
▁restraint	-9361
▁sentences	-9362
▁flex	-9363
▁Start	-9364
ilation	-9365
▁Liquid	-9366
▁afraid	-9367
▁adopting	-9368
▁supervis	-9369
▁suspended	-9370
▁Kun	-9371
▁CWJC	-9372
▁Hasan	-9373
▁accus	-9374
▁bread	-9375
▁shoot	-9376
▁Chinese	-9377
▁incidental	-9378
ESH	-9379
ipping	-9380
▁surpl	-9381
▁Persons	-9382
VE	-9383
heet	-9384
▁Kav	-9385
▁.....	-9386
▁Arora	-9387
▁Unless	-9388
▁shoulder	-9389
▁symptoms	-9390
▁resignation	-9391
bey	-9392
ria	-9393
book	-9394
▁Dig	-9395
auhan	-9396
▁abdom	-9397
▁plots	-9398
▁Deg	-9399
▁mig	-9400
aniel	-9401
atisf	-9402
▁Pursu	-9403
▁violent	-9404
▁reflects	-9405
▁Tribunals	-9406
▁remembered	-9407
▁jurisprudence	-9408
asks	-9409
▁Vers	-9410
▁pled	-9411
▁Polit	-9412
▁crimes	-9413
▁Insofar	-9414
▁Bengaluru	-9415
▁testatrix	-9416
▁frequently	-9417
▁repeatedly	-9418
atern	-9419
iders	-9420
▁scre	-9421
▁Earth	-9422
▁gained	-9423
▁images	-9424
▁Chemical	-9425
▁Dictionary	-9426
▁furtherance	-9427
iae	-9428
▁decre	-9429
▁label	-9430
▁decreed	-9431
▁investigated	-9432
▁arbitrariness	-9433
St	-9434
▁cant	-9435
▁verse	-9436
▁bodily	-9437
▁Comment	-9438
▁prescribe	-9439
▁unauthorized	-9440
▁Wa	-9441
▁Mys	-9442
ensed	-9443
▁feels	-9444
▁honest	-9445
▁varied	-9446
▁Province	-9447
▁traditions	-9448
ML	-9449
was	-9450
uran	-9451
▁via	-9452
▁nerv	-9453
▁ocean	-9454
ichever	-9455
▁adding	-9456
lessness	-9457
▁achievement	-9458
▁Disciplinary	-9459
▁communications	-9460
▁El	-9461
uniary	-9462
istical	-9463
▁demanding	-9464
▁emotional	-9465
PF	-9466
SC	-9467
mp	-9468
we	-9469
▁Bhav	-9470
▁Rani	-9471
▁pair	-9472
▁diagn	-9473
▁disag	-9474
▁pipes	-9475
▁headed	-9476
▁Bharati	-9477
▁intermedi	-9478
▁prospective	-9479
ulsion	-9480
▁Caste	-9481
▁detenue	-9482
▁transparent	-9483
asim	-9484
▁Dav	-9485
▁OCC	-9486
▁shif	-9487
▁Never	-9488
▁overt	-9489
▁spend	-9490
▁yellow	-9491
ableness	-9492
▁Bhagwan	-9493
▁soldiers	-9494
▁monitoring	-9495
ITY	-9496
oles	-9497
uster	-9498
▁Benef	-9499
▁unequ	-9500
▁fighting	-9501
▁delegation	-9502
▁misappropri	-9503
▁AGE	-9504
▁BEN	-9505
▁pig	-9506
▁gall	-9507
▁prote	-9508
▁Kingdom	-9509
▁beneficiary	-9510
▁SI	-9511
onic	-9512
▁tro	-9513
▁Bhat	-9514
father	-9515
arriage	-9516
▁accrued	-9517
▁sensitive	-9518
HC	-9519
allan	-9520
iques	-9521
▁fasc	-9522
▁Asian	-9523
▁Cross	-9524
▁forty	-9525
▁Kanpur	-9526
▁specim	-9527
▁Highway	-9528
▁Jagdish	-9529
▁inclusion	-9530
▁resistance	-9531
▁Construction	-9532
peror	-9533
▁Need	-9534
▁Siva	-9535
earing	-9536
▁accum	-9537
▁rushed	-9538
iculture	-9539
▁mandamus	-9540
▁grievances	-9541
ashi	-9542
▁nomin	-9543
▁Crores	-9544
▁George	-9545
▁ending	-9546
hibition	-9547
▁Ayurved	-9548
▁enjoyed	-9549
udge	-9550
▁Mac	-9551
▁row	-9552
▁van	-9553
▁pool	-9554
▁Madan	-9555
▁preval	-9556
▁mahazar	-9557
▁universe	-9558
▁successor	-9559
▁whichever	-9560
▁Nat	-9561
▁arrival	-9562
▁trem	-9563
ursing	-9564
▁motiv	-9565
▁treas	-9566
▁Telang	-9567
▁ignore	-9568
▁Condition	-9569
▁correspondence	-9570
dict	-9571
▁curt	-9572
▁Scient	-9573
▁arriving	-9574
▁assailants	-9575
lav	-9576
ulpt	-9577
ailable	-9578
▁fraudulent	-9579
▁constitutes	-9580
▁Soft	-9581
▁Mehta	-9582
▁Shiva	-9583
fulness	-9584
iliation	-9585
▁enclosed	-9586
▁handling	-9587
▁clearance	-9588
▁functional	-9589
eer	-9590
rin	-9591
DUCT	-9592
char	-9593
▁deriv	-9594
atories	-9595
▁Finally	-9596
▁realise	-9597
▁hardship	-9598
▁resorted	-9599
▁Singapore	-9600
▁administer	-9601
▁apprehended	-9602
▁parliamentary	-9603
▁Check	-9604
▁solve	-9605
▁Taking	-9606
▁hidden	-9607
▁Pursuant	-9608
▁attending	-9609
PCL	-9610
▁SW	-9611
▁ww	-9612
asis	-9613
enda	-9614
orted	-9615
▁beaten	-9616
▁verses	-9617
▁turning	-9618
▁marginal	-9619
▁removing	-9620
▁adversely	-9621
▁requesting	-9622
▁Kaur	-9623
▁Lakh	-9624
▁Poll	-9625
▁Autom	-9626
▁abund	-9627
▁France	-9628
▁occurring	-9629
▁guarantees	-9630
SE	-9631
▁MT	-9632
▁busy	-9633
▁Charge	-9634
▁reader	-9635
▁infinite	-9636
▁repealed	-9637
▁contesting	-9638
▁experiment	-9639
▁composition	-9640
▁destination	-9641
▁continuation	-9642
The	-9643
ibi	-9644
lat	-9645
▁Vi	-9646
▁SEC	-9647
▁voters	-9648
▁emerges	-9649
▁firstly	-9650
▁assisted	-9651
▁parallel	-9652
ordination	-9653
▁Petitions	-9654
▁virtually	-9655
▁participating	-9656
▁Deb	-9657
▁www	-9658
uated	-9659
▁lieu	-9660
▁Bhatt	-9661
▁Black	-9662
▁cards	-9663
▁Merely	-9664
▁Mughal	-9665
co	-9666
hal	-9667
▁Kot	-9668
oking	-9669
▁Britain	-9670
▁imports	-9671
▁hesitation	-9672
▁mechanical	-9673
▁pa	-9674
hers	-9675
onds	-9676
▁Bhai	-9677
▁Establ	-9678
▁lowest	-9679
▁exclude	-9680
▁invested	-9681
ued	-9682
want	-9683
▁Sem	-9684
▁Kann	-9685
▁searched	-9686
▁Presiding	-9687
▁separated	-9688
▁deliberate	-9689
akk	-9690
ipped	-9691
▁Drug	-9692
▁semi	-9693
▁Guide	-9694
▁array	-9695
▁rulers	-9696
▁stations	-9697
iam	-9698
cont	-9699
oram	-9700
orry	-9701
▁Mer	-9702
▁ped	-9703
▁logic	-9704
▁loose	-9705
▁update	-9706
▁Product	-9707
▁escaped	-9708
▁surplus	-9709
▁Limitation	-9710
ERE	-9711
life	-9712
gence	-9713
▁Gora	-9714
▁meat	-9715
stated	-9716
▁degrees	-9717
▁utility	-9718
how	-9719
adra	-9720
▁Six	-9721
ammed	-9722
ompany	-9723
ulative	-9724
▁Online	-9725
▁inputs	-9726
▁relies	-9727
▁silver	-9728
▁Subject	-9729
▁Maharaja	-9730
▁somewhat	-9731
▁excellent	-9732
▁technique	-9733
▁pronouncement	-9734
itud	-9735
▁SHO	-9736
ashed	-9737
avior	-9738
▁Farm	-9739
▁afresh	-9740
▁handic	-9741
▁administr	-9742
▁automatic	-9743
▁discrepancies	-9744
▁Cy	-9745
▁IR	-9746
ogen	-9747
▁Relig	-9748
▁Vinod	-9749
▁emerge	-9750
▁verify	-9751
▁vessels	-9752
▁travelling	-9753
▁entitlement	-9754
▁NAB	-9755
hered	-9756
▁availed	-9757
▁juncture	-9758
▁practition	-9759
▁Recruitment	-9760
▁undoubtedly	-9761
jit	-9762
▁cod	-9763
▁tow	-9764
herry	-9765
xygen	-9766
▁fever	-9767
▁elsewhere	-9768
▁vegetables	-9769
▁registering	-9770
▁RF	-9771
idavit	-9772
▁losses	-9773
▁appended	-9774
▁independently	-9775
iat	-9776
▁Age	-9777
▁tail	-9778
▁pound	-9779
▁parade	-9780
▁poetic	-9781
▁sculpt	-9782
lamation	-9783
▁excluding	-9784
▁safeguard	-9785
▁indication	-9786
▁reinstatement	-9787
NL	-9788
assed	-9789
iries	-9790
▁Desh	-9791
▁Srin	-9792
▁dear	-9793
▁gods	-9794
▁reck	-9795
▁STATE	-9796
osition	-9797
▁Chrome	-9798
▁Vaishn	-9799
▁greatly	-9800
▁litigant	-9801
▁transparency	-9802
mail	-9803
▁Gaut	-9804
▁Kesh	-9805
▁redu	-9806
▁meter	-9807
▁disposs	-9808
▁overlook	-9809
▁ascertained	-9810
▁amalgamation	-9811
▁AR	-9812
lock	-9813
vals	-9814
▁nin	-9815
arita	-9816
orous	-9817
urism	-9818
▁bats	-9819
▁miss	-9820
rative	-9821
▁crowd	-9822
▁circle	-9823
▁altered	-9824
▁Advisory	-9825
▁taxation	-9826
▁Telangana	-9827
▁therefrom	-9828
umes	-9829
▁Nal	-9830
▁Mill	-9831
▁Sahu	-9832
▁Ward	-9833
▁dies	-9834
▁touc	-9835
▁White	-9836
▁backdrop	-9837
▁passport	-9838
▁interpret	-9839
▁pregnancy	-9840
▁adjustment	-9841
pus	-9842
▁FA	-9843
▁Goa	-9844
▁Sha	-9845
▁myth	-9846
▁usage	-9847
edience	-9848
▁seller	-9849
▁Knowledge	-9850
▁administered	-9851
▁prescription	-9852
▁enl	-9853
inatory	-9854
▁Follow	-9855
▁smooth	-9856
▁Address	-9857
▁nowhere	-9858
▁absorbed	-9859
▁finished	-9860
▁remanded	-9861
resentation	-9862
▁characteristics	-9863
▁Wed	-9864
▁ante	-9865
▁Table	-9866
▁quote	-9867
▁disreg	-9868
▁golden	-9869
▁Str	-9870
▁enorm	-9871
▁Enable	-9872
▁prince	-9873
▁inevitable	-9874
▁fo	-9875
▁chose	-9876
atabase	-9877
▁rising	-9878
▁conting	-9879
▁constantly	-9880
▁suppressed	-9881
▁technological	-9882
▁raj	-9883
agger	-9884
▁Prad	-9885
hement	-9886
▁angle	-9887
▁Search	-9888
▁benefic	-9889
▁pilgrim	-9890
▁affiliation	-9891
▁calculation	-9892
▁prejudicial	-9893
CH	-9894
kin	-9895
▁dust	-9896
▁Narain	-9897
▁Chauhan	-9898
▁closure	-9899
▁designs	-9900
▁utilized	-9901
▁Secretariat	-9902
UST	-9903
entle	-9904
▁Anti	-9905
▁NAME	-9906
▁Next	-9907
▁stim	-9908
orship	-9909
▁Saroj	-9910
▁saving	-9911
▁beating	-9912
▁reducing	-9913
▁Guarantee	-9914
▁transferee	-9915
dh	-9916
▁Jal	-9917
chant	-9918
▁Kail	-9919
▁Radh	-9920
▁genes	-9921
▁penet	-9922
olished	-9923
▁Turkey	-9924
▁shaped	-9925
▁calendar	-9926
▁Dri	-9927
▁End	-9928
▁metal	-9929
▁Ranchi	-9930
▁safely	-9931
▁delight	-9932
▁survive	-9933
▁Colleges	-9934
▁inferred	-9935
▁marriages	-9936
▁innovative	-9937
▁Jit	-9938
▁htt	-9939
osite	-9940
▁ties	-9941
lessly	-9942
▁Ident	-9943
▁forfe	-9944
▁refusing	-9945
▁tendency	-9946
▁discarded	-9947
▁Municipality	-9948
AGAR	-9949
power	-9950
▁hills	-9951
▁mandapa	-9952
▁tourist	-9953
▁mutation	-9954
▁realized	-9955
▁acknowledged	-9956
EST	-9957
erer	-9958
outs	-9959
▁bat	-9960
▁rom	-9961
▁salt	-9962
▁deity	-9963
▁Harish	-9964
▁stretch	-9965
▁tenders	-9966
▁vehement	-9967
▁concealed	-9968
▁complained	-9969
▁eve	-9970
▁holy	-9971
▁dilig	-9972
▁sheets	-9973
▁remarks	-9974
▁assertion	-9975
▁strategic	-9976
▁Huss	-9977
▁Puri	-9978
▁delic	-9979
▁lodge	-9980
▁Indore	-9981
▁weakness	-9982
▁disposing	-9983
▁references	-9984
▁regulatory	-9985
▁exploitation	-9986
LR	-9987
lor	-9988
wani	-9989
▁mad	-9990
▁Kath	-9991
▁strang	-9992
▁Academy	-9993
▁Meeting	-9994
▁whereof	-9995
▁wrongful	-9996
▁correction	-9997
▁translated	-9998
▁Taj	-9999
▁pup	-10000
▁tourism	-10001
▁Hinduism	-10002
▁disturbed	-10003
▁Corruption	-10004
▁unp	-10005
▁vex	-10006
▁Thir	-10007
▁Sahib	-10008
▁Indira	-10009
▁valley	-10010
▁Reforms	-10011
▁operated	-10012
▁reporting	-10013
▁computation	-10014
▁achievements	-10015
▁transformation	-10016
ayuk	-10017
wide	-10018
▁grain	-10019
▁repos	-10020
▁fracture	-10021
respondent	-10022
▁acquiring	-10023
▁diversity	-10024
▁approaching	-10025
▁enterprises	-10026
ARY	-10027
▁DV	-10028
▁dh	-10029
cane	-10030
▁Pip	-10031
▁nav	-10032
rants	-10033
▁Khat	-10034
▁bind	-10035
▁tube	-10036
▁Bills	-10037
▁NABARD	-10038
esterday	-10039
▁silence	-10040
▁rejoinder	-10041
ATH	-10042
agi	-10043
▁Fil	-10044
▁Mall	-10045
▁Surat	-10046
▁cater	-10047
▁rebut	-10048
examined	-10049
▁packets	-10050
▁prevail	-10051
▁fairness	-10052
▁preserve	-10053
▁deficiency	-10054
▁strengthening	-10055
uma	-10056
▁fard	-10057
▁lamp	-10058
▁trap	-10059
▁wheat	-10060
▁eternal	-10061
▁radical	-10062
▁delegated	-10063
▁impartial	-10064
▁institutes	-10065
▁differently	-10066
ORT	-10067
enn	-10068
▁Bul	-10069
▁hal	-10070
▁tape	-10071
▁gland	-10072
▁flight	-10073
▁procure	-10074
▁aircraft	-10075
▁contrast	-10076
▁overcome	-10077
▁expertise	-10078
▁incomplete	-10079
DR	-10080
wing	-10081
▁clim	-10082
advant	-10083
▁Ghosh	-10084
▁highl	-10085
▁mould	-10086
▁wheel	-10087
▁architecture	-10088
▁entrepreneur	-10089
anim	-10090
mans	-10091
▁worn	-10092
▁harmon	-10093
▁PRODUCT	-10094
▁childhood	-10095
▁convicting	-10096
▁consistently	-10097
CL	-10098
▁XV	-10099
▁Rath	-10100
▁Vire	-10101
▁node	-10102
▁grace	-10103
▁stuff	-10104
▁atomic	-10105
▁passes	-10106
▁impleaded	-10107
▁techniques	-10108
ERA	-10109
▁Bri	-10110
omous	-10111
▁Vict	-10112
▁sorrow	-10113
▁thread	-10114
▁harvest	-10115
▁kitchen	-10116
▁undivided	-10117
▁pronounced	-10118
▁territories	-10119
his	-10120
▁Ish	-10121
▁Muh	-10122
eties	-10123
▁Baba	-10124
▁Flag	-10125
▁Shik	-10126
▁Except	-10127
▁coloured	-10128
husi	-10129
▁vii	-10130
▁Jagann	-10131
▁ceased	-10132
▁Perhaps	-10133
▁highlighted	-10134
ayas	-10135
▁BENGAL	-10136
▁Canada	-10137
▁urgent	-10138
▁posting	-10139
▁assailed	-10140
▁Aggrieved	-10141
▁testified	-10142
ASH	-10143
mic	-10144
acent	-10145
osity	-10146
▁Paul	-10147
▁keen	-10148
▁sket	-10149
tension	-10150
▁disorder	-10151
▁oriented	-10152
▁interfering	-10153
▁characteristic	-10154
itya	-10155
sman	-10156
▁Sudh	-10157
▁Liter	-10158
▁parte	-10159
▁picked	-10160
▁confron	-10161
▁Islamist	-10162
▁turnover	-10163
▁computers	-10164
▁dishonest	-10165
▁adjudicated	-10166
▁Sep	-10167
▁Hard	-10168
▁vice	-10169
▁facto	-10170
▁adhere	-10171
▁summar	-10172
▁inspire	-10173
▁prisoner	-10174
▁studying	-10175
▁civilization	-10176
१९	-10177
iger	-10178
▁Rup	-10179
▁smt	-10180
▁buff	-10181
▁rear	-10182
GALORE	-10183
▁Mahal	-10184
▁roots	-10185
ointment	-10186
met	-10187
▁MB	-10188
cers	-10189
▁Cult	-10190
▁Gaya	-10191
▁bags	-10192
▁German	-10193
▁Computer	-10194
▁positions	-10195
▁accounting	-10196
▁cooperative	-10197
ori	-10198
ugu	-10199
alat	-10200
orrh	-10201
▁ash	-10202
▁rat	-10203
▁Staff	-10204
▁editor	-10205
▁profile	-10206
▁printing	-10207
▁pecuniary	-10208
▁negotiations	-10209
▁Sak	-10210
▁rhy	-10211
▁Tour	-10212
commun	-10213
terior	-10214
▁Dubey	-10215
▁Bhagat	-10216
▁stamps	-10217
▁omitted	-10218
▁financing	-10219
▁continuance	-10220
haz	-10221
▁pul	-10222
▁News	-10223
▁wick	-10224
acious	-10225
▁pride	-10226
▁conced	-10227
▁adjourn	-10228
▁enthusi	-10229
▁propose	-10230
▁realize	-10231
▁victory	-10232
▁Investment	-10233
▁Gaj	-10234
▁Lep	-10235
▁fash	-10236
orders	-10237
▁split	-10238
▁retail	-10239
▁ceiling	-10240
▁dropped	-10241
▁gravity	-10242
▁Parishad	-10243
▁utilised	-10244
▁examinations	-10245
▁geographical	-10246
▁expeditiously	-10247
izer	-10248
▁fly	-10249
▁Conn	-10250
▁truck	-10251
▁shadow	-10252
▁elephant	-10253
▁possessing	-10254
▁manufacturer	-10255
▁remuneration	-10256
▁stakeholders	-10257
▁Wakf	-10258
▁lists	-10259
▁nexus	-10260
ineness	-10261
▁compan	-10262
▁guided	-10263
▁palace	-10264
▁shelter	-10265
▁Ramayana	-10266
▁informing	-10267
▁mountains	-10268
hani	-10269
▁hun	-10270
aspur	-10271
▁width	-10272
alities	-10273
▁Global	-10274
▁excise	-10275
▁describe	-10276
▁BANGALORE	-10277
▁answering	-10278
▁experienced	-10279
▁ASI	-10280
▁KAR	-10281
▁spr	-10282
▁bones	-10283
▁imagine	-10284
ciliation	-10285
▁boundary	-10286
▁pictures	-10287
▁restored	-10288
▁disadvant	-10289
▁controlling	-10290
▁stipulation	-10291
oves	-10292
▁Tre	-10293
beyan	-10294
▁Radi	-10295
▁tall	-10296
▁homes	-10297
▁older	-10298
▁Chaudh	-10299
▁Mysore	-10300
quarters	-10301
▁tremend	-10302
▁vacated	-10303
▁comprised	-10304
▁meanwhile	-10305
▁vehemently	-10306
iser	-10307
▁BDA	-10308
▁din	-10309
▁insu	-10310
rition	-10311
▁brown	-10312
▁disob	-10313
▁paddy	-10314
▁Tahsil	-10315
▁refuge	-10316
▁confisc	-10317
▁Mohammed	-10318
▁machines	-10319
archy	-10320
▁Till	-10321
▁decor	-10322
▁handle	-10323
▁utmost	-10324
ILL	-10325
URE	-10326
▁MW	-10327
▁AIC	-10328
▁Rece	-10329
▁Medic	-10330
▁toler	-10331
▁Airport	-10332
▁counted	-10333
▁Territory	-10334
▁Panchayats	-10335
▁unsustainable	-10336
onym	-10337
▁Phot	-10338
▁unus	-10339
▁faces	-10340
▁reward	-10341
▁discont	-10342
▁defeated	-10343
▁proprietor	-10344
▁genuineness	-10345
rits	-10346
adevi	-10347
arest	-10348
▁Make	-10349
▁Maur	-10350
▁Push	-10351
orious	-10352
▁Prior	-10353
▁cable	-10354
▁clock	-10355
▁resid	-10356
▁towns	-10357
▁culmin	-10358
▁tongue	-10359
estation	-10360
▁Punjabi	-10361
▁goodwill	-10362
▁ignoring	-10363
▁progressive	-10364
▁Alm	-10365
amble	-10366
▁Sach	-10367
illary	-10368
▁turns	-10369
▁Claims	-10370
▁Marketing	-10371
▁detaining	-10372
▁inability	-10373
▁prisoners	-10374
▁impermissible	-10375
ogy	-10376
van	-10377
▁Hal	-10378
▁Vad	-10379
cause	-10380
▁Ball	-10381
▁Gita	-10382
▁thin	-10383
▁lathi	-10384
reshold	-10385
▁Supply	-10386
▁variation	-10387
ims	-10388
ukh	-10389
▁UP	-10390
▁Haz	-10391
▁seg	-10392
semin	-10393
▁Gree	-10394
▁cement	-10395
▁surprise	-10396
appellants	-10397
▁repayment	-10398
▁suspected	-10399
▁Assessment	-10400
Ch	-10401
oi	-10402
omal	-10403
▁Baj	-10404
▁Kur	-10405
rance	-10406
▁wing	-10407
▁Chart	-10408
▁blows	-10409
▁listen	-10410
▁detained	-10411
▁Governance	-10412
▁electrical	-10413
▁protecting	-10414
ki	-10415
▁DD	-10416
ford	-10417
ktop	-10418
agers	-10419
isable	-10420
▁shirt	-10421
parable	-10422
▁Negoti	-10423
▁subsidy	-10424
▁forcibly	-10425
▁irregularities	-10426
OT	-10427
▁Tq	-10428
aved	-10429
apati	-10430
▁tang	-10431
atable	-10432
▁Tilak	-10433
▁Action	-10434
▁assemb	-10435
▁stains	-10436
▁Support	-10437
▁helping	-10438
▁horizon	-10439
▁pow	-10440
asted	-10441
▁Hall	-10442
laimed	-10443
▁buyer	-10444
▁flour	-10445
▁taxable	-10446
▁judicata	-10447
▁experiences	-10448
▁Compensation	-10449
eem	-10450
oma	-10451
iguous	-10452
▁Manual	-10453
▁allied	-10454
▁recons	-10455
▁surgery	-10456
▁telling	-10457
▁elicited	-10458
▁estimate	-10459
▁Resources	-10460
agra	-10461
anja	-10462
▁Bagh	-10463
ushing	-10464
▁milit	-10465
▁Degree	-10466
▁Swaraj	-10467
▁firmly	-10468
▁Hussain	-10469
▁jurisdictional	-10470
di	-10471
RICT	-10472
▁Unf	-10473
▁mel	-10474
onation	-10475
▁reverse	-10476
▁consumed	-10477
▁Corporate	-10478
ECH	-10479
NAME	-10480
bles	-10481
▁Did	-10482
cence	-10483
▁grants	-10484
▁amending	-10485
▁precious	-10486
▁enforceable	-10487
▁VAT	-10488
▁Bhut	-10489
▁Kant	-10490
▁fake	-10491
▁films	-10492
▁homic	-10493
iversary	-10494
▁advances	-10495
▁dissolution	-10496
▁liquidation	-10497
illy	-10498
▁Parm	-10499
▁wake	-10500
▁Major	-10501
▁dress	-10502
▁invite	-10503
▁pestic	-10504
▁portions	-10505
▁departure	-10506
▁surrounded	-10507
iram	-10508
▁trace	-10509
ourable	-10510
▁frivol	-10511
▁shrine	-10512
▁produces	-10513
▁charitable	-10514
▁establishes	-10515
eas	-10516
asha	-10517
▁cra	-10518
▁peas	-10519
▁Marathi	-10520
▁Parties	-10521
▁adjacent	-10522
▁detected	-10523
▁entirety	-10524
▁licensee	-10525
▁commencing	-10526
▁realisation	-10527
bre	-10528
lin	-10529
ayam	-10530
onda	-10531
sees	-10532
side	-10533
stig	-10534
▁cin	-10535
▁vim	-10536
astri	-10537
▁bold	-10538
▁plug	-10539
▁lessee	-10540
▁summer	-10541
▁Disputes	-10542
▁computed	-10543
▁exhibits	-10544
▁separation	-10545
▁Subordinate	-10546
▁manufacturers	-10547
utch	-10548
▁Treat	-10549
▁misrep	-10550
▁Looking	-10551
▁verdict	-10552
▁Mahendra	-10553
▁slightly	-10554
▁passenger	-10555
▁Bol	-10556
▁Log	-10557
▁Ver	-10558
igare	-10559
▁Sank	-10560
▁nose	-10561
▁Begum	-10562
▁Dwark	-10563
▁Kamal	-10564
▁click	-10565
▁locus	-10566
▁castes	-10567
▁pocket	-10568
▁vulner	-10569
▁walking	-10570
▁DISTRICT	-10571
▁offending	-10572
▁Federation	-10573
▁LA	-10574
▁vig	-10575
▁forb	-10576
▁meal	-10577
olving	-10578
itarian	-10579
▁player	-10580
▁defects	-10581
▁regulating	-10582
anama	-10583
pless	-10584
▁Amit	-10585
▁Clear	-10586
▁owing	-10587
▁Krishn	-10588
▁spouse	-10589
▁sisters	-10590
▁subjective	-10591
▁constituting	-10592
rao	-10593
eenth	-10594
▁Gwal	-10595
▁Kaly	-10596
▁delete	-10597
▁Against	-10598
▁programs	-10599
▁sympathy	-10600
▁operators	-10601
▁purchasing	-10602
▁affirmative	-10603
▁Distribution	-10604
ino	-10605
raon	-10606
rove	-10607
▁Rang	-10608
icians	-10609
▁Years	-10610
▁inhab	-10611
▁closer	-10612
▁renewed	-10613
▁adjusted	-10614
▁labourers	-10615
▁disproportion	-10616
iki	-10617
khar	-10618
wood	-10619
inant	-10620
▁Trip	-10621
▁synt	-10622
▁rests	-10623
▁native	-10624
▁dynamic	-10625
▁deducted	-10626
▁quarters	-10627
▁commodity	-10628
▁homicidal	-10629
▁ministers	-10630
▁prevalent	-10631
▁Environmental	-10632
▁discriminatory	-10633
▁Ke	-10634
▁ly	-10635
down	-10636
rich	-10637
▁Ran	-10638
anjan	-10639
ruddin	-10640
▁Gujar	-10641
▁eating	-10642
▁ocular	-10643
▁constable	-10644
▁describes	-10645
▁indigenous	-10646
thy	-10647
▁CM	-10648
▁Gas	-10649
▁Nam	-10650
▁pant	-10651
istent	-10652
▁Church	-10653
▁Region	-10654
▁proves	-10655
▁expanded	-10656
▁hundreds	-10657
▁chargesheet	-10658
▁Miscellaneous	-10659
gal	-10660
▁Arabic	-10661
▁ideals	-10662
▁Current	-10663
▁miscarriage	-10664
▁configuration	-10665
▁Infrastructure	-10666
LT	-10667
▁Je	-10668
ulla	-10669
utosh	-10670
▁Joshi	-10671
selling	-10672
▁Basava	-10673
▁Recomm	-10674
▁Muhammad	-10675
▁boundaries	-10676
▁measurement	-10677
▁beneficiaries	-10678
ums	-10679
gent	-10680
ortion	-10681
▁probate	-10682
▁rapidly	-10683
preciation	-10684
▁assaulting	-10685
▁Rub	-10686
▁bore	-10687
▁veil	-10688
▁Pract	-10689
▁algor	-10690
▁embar	-10691
▁maxim	-10692
▁novels	-10693
▁Highways	-10694
▁grievous	-10695
uda	-10696
▁Ce	-10697
amar	-10698
ffee	-10699
imla	-10700
isan	-10701
▁Jha	-10702
▁irr	-10703
▁Youn	-10704
▁boat	-10705
▁Lanka	-10706
▁Mahan	-10707
▁Bhopal	-10708
▁oxygen	-10709
▁library	-10710
▁savings	-10711
▁maternal	-10712
▁laboratory	-10713
▁prescribes	-10714
DI	-10715
▁Ori	-10716
▁Sult	-10717
▁thro	-10718
icides	-10719
▁Journ	-10720
▁Saudi	-10721
▁shell	-10722
▁Santosh	-10723
▁Software	-10724
▁actively	-10725
▁regularized	-10726
▁Ek	-10727
▁Que	-10728
rogen	-10729
▁genus	-10730
ifferent	-10731
▁goddess	-10732
lementary	-10733
▁dividend	-10734
▁perfection	-10735
▁complicated	-10736
▁suppression	-10737
▁Ca	-10738
▁RPC	-10739
▁lacs	-10740
▁defam	-10741
▁incomp	-10742
▁slowly	-10743
▁flowing	-10744
▁admitting	-10745
oa	-10746
ste	-10747
▁Akh	-10748
▁IIT	-10749
▁Old	-10750
itors	-10751
▁idol	-10752
▁doors	-10753
▁depose	-10754
▁Deposit	-10755
▁exceeds	-10756
▁Buddhist	-10757
▁enquired	-10758
▁pregnant	-10759
▁railways	-10760
▁Tahsildar	-10761
▁thereupon	-10762
nic	-10763
emat	-10764
ibai	-10765
oster	-10766
▁COMM	-10767
▁reim	-10768
▁ample	-10769
▁debtor	-10770
▁deploy	-10771
▁lifted	-10772
▁prestig	-10773
akrishnan	-10774
▁credited	-10775
▁culpable	-10776
▁homicide	-10777
▁Mahabharata	-10778
▁generations	-10779
HA	-10780
atious	-10781
▁Price	-10782
▁Range	-10783
▁embod	-10784
▁imped	-10785
▁plate	-10786
▁risks	-10787
▁Center	-10788
▁models	-10789
▁Projects	-10790
▁obstruct	-10791
▁copyright	-10792
▁safeguards	-10793
▁revolutionary	-10794
aco	-10795
▁SAR	-10796
▁Sham	-10797
▁whip	-10798
▁debts	-10799
ecessor	-10800
▁Indica	-10801
ammation	-10802
▁decides	-10803
▁discloses	-10804
▁Corporations	-10805
ANG	-10806
ador	-10807
agon	-10808
kind	-10809
State	-10810
▁gang	-10811
▁scan	-10812
▁Obama	-10813
▁broke	-10814
▁Telugu	-10815
▁audience	-10816
▁mathemat	-10817
▁Community	-10818
▁disregard	-10819
▁hospitals	-10820
ishi	-10821
▁PMLA	-10822
▁aided	-10823
emption	-10824
▁Boards	-10825
▁exposed	-10826
▁hectares	-10827
▁respects	-10828
▁Standards	-10829
▁interface	-10830
▁Naya	-10831
▁Analy	-10832
▁inspect	-10833
▁Narendra	-10834
▁Hindustan	-10835
▁tremendous	-10836
olu	-10837
olic	-10838
▁Save	-10839
▁shed	-10840
essful	-10841
▁carved	-10842
▁Centres	-10843
▁exhaustive	-10844
RS	-10845
▁PP	-10846
▁Dutt	-10847
▁draf	-10848
▁intr	-10849
▁Purch	-10850
▁Short	-10851
▁Title	-10852
▁bullet	-10853
▁BENGALURU	-10854
▁frivolous	-10855
▁regulated	-10856
▁restrained	-10857
▁acknowledge	-10858
cut	-10859
▁fro	-10860
ubhai	-10861
▁menu	-10862
▁vest	-10863
▁Malay	-10864
▁coerc	-10865
▁spell	-10866
ortunate	-10867
▁Manipur	-10868
▁belated	-10869
▁alternate	-10870
▁corrected	-10871
▁stability	-10872
▁Principles	-10873
▁demonstrated	-10874
IAL	-10875
ghar	-10876
▁Van	-10877
▁Indra	-10878
▁Lokayuk	-10879
▁Competent	-10880
▁discussing	-10881
▁interaction	-10882
▁congratulate	-10883
unda	-10884
▁Gor	-10885
▁vib	-10886
▁Init	-10887
▁Mess	-10888
▁merc	-10889
▁talks	-10890
▁tooth	-10891
▁Brahma	-10892
▁eleven	-10893
▁matrix	-10894
▁squarely	-10895
▁practically	-10896
▁collaboration	-10897
asp	-10898
▁HL	-10899
uram	-10900
▁Gop	-10901
▁Jai	-10902
▁Sov	-10903
▁ine	-10904
opard	-10905
▁fals	-10906
▁Repeal	-10907
▁extingu	-10908
▁fiction	-10909
▁postpon	-10910
▁objected	-10911
compliance	-10912
▁compelling	-10913
▁neighbours	-10914
▁interpreting	-10915
qf	-10916
▁GA	-10917
iple	-10918
▁Kat	-10919
▁Fire	-10920
rupted	-10921
▁erect	-10922
▁wings	-10923
▁Declar	-10924
▁butter	-10925
▁islands	-10926
▁addresses	-10927
▁everywhere	-10928
▁unfortunate	-10929
▁confidential	-10930
▁conservation	-10931
ohar	-10932
ulum	-10933
avati	-10934
eeper	-10935
▁Aged	-10936
▁illit	-10937
▁Valley	-10938
▁preventive	-10939
▁predecessor	-10940
bu	-10941
yar	-10942
▁Ess	-10943
▁Indo	-10944
idency	-10945
▁Citiz	-10946
▁photo	-10947
▁teleg	-10948
▁theft	-10949
▁Expert	-10950
▁abused	-10951
▁button	-10952
▁voting	-10953
▁worshi	-10954
▁farming	-10955
▁Provident	-10956
▁therewith	-10957
▁Liquidator	-10958
▁Instruments	-10959
agn	-10960
▁EM	-10961
wala	-10962
▁Ult	-10963
▁ice	-10964
▁bund	-10965
▁dedu	-10966
▁tent	-10967
▁appra	-10968
▁Create	-10969
▁Satish	-10970
▁earnest	-10971
▁explicit	-10972
▁threshold	-10973
▁adjudicate	-10974
▁affiliated	-10975
zy	-10976
acts	-10977
wati	-10978
erman	-10979
▁Sher	-10980
venile	-10981
▁empire	-10982
▁jewell	-10983
▁circuit	-10984
▁coverage	-10985
▁operator	-10986
▁sugarcane	-10987
▁convincing	-10988
▁cha	-10989
ighed	-10990
asters	-10991
▁firms	-10992
▁miles	-10993
▁upset	-10994
▁worry	-10995
manship	-10996
▁Empire	-10997
▁abscond	-10998
▁theatre	-10999
▁enormous	-11000
▁secondly	-11001
▁organisms	-11002
▁healthcare	-11003
oga	-11004
▁Thu	-11005
▁bulk	-11006
icitor	-11007
▁gramm	-11008
▁holid	-11009
▁nerve	-11010
▁Access	-11011
▁cigare	-11012
▁advertisements	-11013
abai	-11014
adhy	-11015
aland	-11016
amine	-11017
arked	-11018
▁Arms	-11019
▁mines	-11020
attered	-11021
▁endors	-11022
▁feeding	-11023
▁mailing	-11024
▁breaking	-11025
▁empowers	-11026
▁introduce	-11027
▁Regulatory	-11028
abi	-11029
shaw	-11030
being	-11031
eches	-11032
izers	-11033
ogram	-11034
▁butt	-11035
▁ensh	-11036
▁snow	-11037
ainant	-11038
▁acute	-11039
▁flows	-11040
▁intense	-11041
▁darkness	-11042
▁Following	-11043
▁trustworthy	-11044
eren	-11045
arers	-11046
▁NSEL	-11047
▁Poly	-11048
▁Along	-11049
▁detrim	-11050
▁Gwalior	-11051
▁harmful	-11052
▁concrete	-11053
▁formulation	-11054
kal	-11055
▁Mut	-11056
▁Nic	-11057
eship	-11058
▁rose	-11059
▁lover	-11060
▁modify	-11061
atellite	-11062
▁Command	-11063
▁Minimum	-11064
▁chromos	-11065
▁supplies	-11066
▁Petroleum	-11067
▁panchnama	-11068
▁permanently	-11069
▁adjudicating	-11070
CS	-11071
tar	-11072
▁Oh	-11073
▁DAY	-11074
agues	-11075
▁Hans	-11076
▁tells	-11077
▁Object	-11078
▁Clauses	-11079
▁devoted	-11080
▁abandoned	-11081
▁terminate	-11082
▁Help	-11083
▁desp	-11084
▁Baner	-11085
▁deter	-11086
▁tariff	-11087
▁minerals	-11088
▁Political	-11089
▁confirming	-11090
odal	-11091
▁Enc	-11092
▁nep	-11093
▁Camp	-11094
▁Stock	-11095
▁Truth	-11096
versity	-11097
▁visits	-11098
▁Majesty	-11099
▁damaged	-11100
▁historic	-11101
▁fardbeyan	-11102
▁processed	-11103
▁undertakings	-11104
▁Bush	-11105
▁bias	-11106
▁pest	-11107
▁prox	-11108
ponent	-11109
rowser	-11110
▁misle	-11111
endants	-11112
▁Soviet	-11113
▁differ	-11114
▁ticket	-11115
▁closing	-11116
▁helpless	-11117
nes	-11118
isha	-11119
urai	-11120
yard	-11121
▁Bish	-11122
▁germ	-11123
▁pace	-11124
▁Bhart	-11125
▁tasks	-11126
elihood	-11127
▁Regular	-11128
▁province	-11129
▁reviewed	-11130
▁attaining	-11131
▁enhancing	-11132
▁yesterday	-11133
▁derivative	-11134
▁surprising	-11135
▁Lead	-11136
▁Manj	-11137
▁limb	-11138
▁sees	-11139
▁Sagar	-11140
▁argue	-11141
▁crack	-11142
Section	-11143
▁agenda	-11144
▁opponent	-11145
▁summoned	-11146
▁highlight	-11147
▁Innovation	-11148
▁enunciated	-11149
▁mentioning	-11150
▁prevention	-11151
▁entrepreneurs	-11152
▁AW	-11153
▁Yus	-11154
▁Khas	-11155
▁Pharm	-11156
▁Undert	-11157
▁cavity	-11158
▁Country	-11159
▁extends	-11160
▁heavily	-11161
▁mutually	-11162
beh	-11163
▁Ga	-11164
▁SPE	-11165
▁gunt	-11166
urated	-11167
▁rescue	-11168
▁valued	-11169
▁Certain	-11170
▁Sucharita	-11171
▁hereafter	-11172
HO	-11173
US	-11174
ahi	-11175
rent	-11176
thal	-11177
▁MOU	-11178
phone	-11179
liness	-11180
▁tension	-11181
▁abnormal	-11182
▁Recommend	-11183
▁exercises	-11184
▁increases	-11185
▁emphasized	-11186
▁sufficiently	-11187
etan	-11188
▁Hit	-11189
▁Inj	-11190
▁Sea	-11191
▁grams	-11192
▁magaz	-11193
▁helpful	-11194
▁musical	-11195
▁graduate	-11196
▁disappear	-11197
▁invocation	-11198
wali	-11199
▁Jer	-11200
▁Lak	-11201
▁gla	-11202
▁Nanak	-11203
▁Peeth	-11204
▁attach	-11205
▁winter	-11206
▁dealers	-11207
▁regularisation	-11208
▁LP	-11209
▁ors	-11210
ulter	-11211
▁Star	-11212
▁scar	-11213
▁tact	-11214
▁Terror	-11215
▁manual	-11216
▁Washing	-11217
▁implies	-11218
indranath	-11219
▁Resource	-11220
▁immunity	-11221
▁prohibit	-11222
▁medicines	-11223
▁inadequate	-11224
▁likelihood	-11225
▁inspiration	-11226
▁Unfortunately	-11227
acle	-11228
▁sed	-11229
▁Loan	-11230
▁Stamp	-11231
▁Gautam	-11232
▁condol	-11233
▁demarc	-11234
▁windows	-11235
▁unemploy	-11236
▁occupants	-11237
▁omissions	-11238
stitutional	-11239
QU	-11240
bir	-11241
inc	-11242
▁Md	-11243
amper	-11244
oting	-11245
vency	-11246
▁Bans	-11247
▁Love	-11248
▁Young	-11249
▁enlar	-11250
ATIONAL	-11251
▁Jewish	-11252
▁dispar	-11253
▁timely	-11254
▁Federal	-11255
▁Document	-11256
▁multiply	-11257
▁Otherwise	-11258
ITION	-11259
gical	-11260
ushan	-11261
▁Chal	-11262
▁Garg	-11263
▁Mart	-11264
▁Wild	-11265
▁epic	-11266
▁prolong	-11267
▁Personal	-11268
▁Whatever	-11269
▁colonial	-11270
▁probable	-11271
▁preventing	-11272
▁Ib	-11273
awar	-11274
▁drain	-11275
▁Cannot	-11276
▁bigger	-11277
▁farmer	-11278
▁organic	-11279
▁behavior	-11280
▁credible	-11281
▁generate	-11282
▁substances	-11283
▁reassessment	-11284
VER	-11285
▁EC	-11286
▁HT	-11287
▁Ut	-11288
▁Bra	-11289
▁Get	-11290
▁ICT	-11291
▁acre	-11292
▁hors	-11293
▁favor	-11294
▁keeps	-11295
▁ruler	-11296
▁restore	-11297
▁vendors	-11298
▁promised	-11299
▁classical	-11300
▁irrational	-11301
▁establishments	-11302
▁Pa	-11303
quer	-11304
veen	-11305
▁Tom	-11306
amboo	-11307
▁Play	-11308
isible	-11309
▁Track	-11310
▁laugh	-11311
▁lingu	-11312
▁Colony	-11313
▁Mukesh	-11314
▁sticks	-11315
▁Leprosy	-11316
▁Quality	-11317
▁readers	-11318
▁recalled	-11319
▁shortage	-11320
▁striking	-11321
▁basically	-11322
▁varieties	-11323
▁Aurangabad	-11324
▁colleagues	-11325
▁concluding	-11326
▁connecting	-11327
▁fabricated	-11328
▁constructive	-11329
▁neighbourhood	-11330
ea	-11331
▁RES	-11332
▁suo	-11333
umped	-11334
▁Nirm	-11335
▁medi	-11336
▁freely	-11337
▁junior	-11338
▁Agarwal	-11339
▁Kailash	-11340
▁cleared	-11341
▁illicit	-11342
▁lending	-11343
▁traders	-11344
▁believes	-11345
▁deputation	-11346
▁integration	-11347
wat	-11348
ulus	-11349
▁Ber	-11350
▁Yam	-11351
plant	-11352
▁hide	-11353
▁mood	-11354
▁vacc	-11355
▁Nigam	-11356
▁Yusuf	-11357
▁scrib	-11358
▁invari	-11359
▁parity	-11360
▁averment	-11361
▁everybody	-11362
▁Ministries	-11363
alia	-11364
oult	-11365
▁Light	-11366
▁Minor	-11367
▁Preet	-11368
▁Relief	-11369
▁batter	-11370
▁versus	-11371
▁Witness	-11372
▁batsman	-11373
▁confronted	-11374
▁stipulates	-11375
▁restoration	-11376
▁HO	-11377
▁Gos	-11378
▁Narm	-11379
alment	-11380
▁challan	-11381
▁premise	-11382
▁approaches	-11383
▁instructed	-11384
▁arbitrarily	-11385
▁OS	-11386
eena	-11387
oved	-11388
▁Cost	-11389
▁icon	-11390
▁maybe	-11391
▁stars	-11392
▁locked	-11393
▁misuse	-11394
▁spring	-11395
▁Banking	-11396
▁desires	-11397
▁pillars	-11398
▁defective	-11399
▁incapable	-11400
▁Defendants	-11401
▁addressing	-11402
oul	-11403
ayya	-11404
pent	-11405
▁awa	-11406
▁mud	-11407
owing	-11408
▁hyper	-11409
fficiency	-11410
▁sessions	-11411
▁Personnel	-11412
▁collateral	-11413
apat	-11414
▁gri	-11415
▁rod	-11416
ammal	-11417
▁glad	-11418
▁jung	-11419
▁Cause	-11420
▁loyal	-11421
▁Payment	-11422
▁biggest	-11423
▁distant	-11424
▁neglect	-11425
▁subscrib	-11426
▁transmit	-11427
▁composite	-11428
UG	-11429
२०	-11430
PSC	-11431
eta	-11432
cope	-11433
▁Dou	-11434
▁Lake	-11435
▁Tuls	-11436
▁rash	-11437
▁ther	-11438
ulance	-11439
▁Mines	-11440
▁Paswan	-11441
▁Street	-11442
▁Taluka	-11443
▁serves	-11444
▁underw	-11445
▁wooden	-11446
▁presents	-11447
noon	-11448
▁LPA	-11449
▁AICTE	-11450
▁Tribe	-11451
▁march	-11452
▁Netaji	-11453
▁blocks	-11454
▁forgot	-11455
▁parcel	-11456
▁worthy	-11457
▁outlook	-11458
▁Gujarati	-11459
▁protocol	-11460
▁receives	-11461
▁allocated	-11462
▁exchanges	-11463
▁incentives	-11464
▁invitation	-11465
▁Prohibition	-11466
has	-11467
matic	-11468
nasty	-11469
▁bride	-11470
▁easier	-11471
▁insist	-11472
▁layout	-11473
▁supers	-11474
▁Complex	-11475
▁unusual	-11476
▁Contempt	-11477
▁dramatic	-11478
▁preserved	-11479
▁Srivastava	-11480
▁consortium	-11481
ney	-11482
▁je	-11483
▁yard	-11484
▁Speech	-11485
▁adjour	-11486
▁united	-11487
▁conveyance	-11488
▁promotions	-11489
EO	-11490
END	-11491
ocks	-11492
roid	-11493
▁Bor	-11494
▁wil	-11495
▁Near	-11496
▁epis	-11497
▁Desai	-11498
▁Total	-11499
▁modes	-11500
▁Modern	-11501
▁approve	-11502
▁guardian	-11503
▁profound	-11504
▁Washington	-11505
▁contradictory	-11506
Ins	-11507
ymph	-11508
▁Lod	-11509
▁Club	-11510
▁neut	-11511
▁Arjun	-11512
▁query	-11513
▁adduce	-11514
▁talked	-11515
▁repairs	-11516
▁database	-11517
▁premature	-11518
▁Succession	-11519
▁transmitted	-11520
▁conventional	-11521
nut	-11522
geon	-11523
omed	-11524
▁bio	-11525
▁rope	-11526
▁Click	-11527
▁Privy	-11528
▁Fourth	-11529
▁Present	-11530
▁encouraging	-11531
HAN	-11532
AVAN	-11533
APTER	-11534
▁begun	-11535
▁brill	-11536
▁enshr	-11537
▁worse	-11538
respass	-11539
▁bitter	-11540
▁disall	-11541
▁confers	-11542
▁genetic	-11543
▁exempted	-11544
▁shifting	-11545
▁Negotiable	-11546
▁favourable	-11547
▁communicate	-11548
▁implications	-11549
▁publications	-11550
rous	-11551
adeep	-11552
▁Azad	-11553
▁Take	-11554
▁guntas	-11555
▁Firstly	-11556
▁intimate	-11557
▁vexatious	-11558
▁entertaining	-11559
aras	-11560
▁switch	-11561
▁nearest	-11562
▁Academic	-11563
▁Japanese	-11564
▁Whenever	-11565
▁announce	-11566
▁initiating	-11567
▁circulation	-11568
▁formalities	-11569
▁transferring	-11570
ivals	-11571
issues	-11572
▁Maharaj	-11573
▁vitamin	-11574
▁reserves	-11575
▁Prosecution	-11576
eds	-11577
log	-11578
utors	-11579
▁Real	-11580
▁font	-11581
▁Media	-11582
▁depict	-11583
▁Russian	-11584
▁concepts	-11585
▁mentally	-11586
▁reversed	-11587
▁producers	-11588
▁insufficient	-11589
▁miscellaneous	-11590
TR	-11591
ighth	-11592
▁Long	-11593
▁cous	-11594
▁trek	-11595
iorari	-11596
▁Samaj	-11597
▁exempt	-11598
▁misbeh	-11599
▁nominee	-11600
▁Northern	-11601
▁contacts	-11602
▁hypothes	-11603
▁Accountant	-11604
▁panchanama	-11605
▁prosecuted	-11606
isa	-11607
tha	-11608
▁Cri	-11609
tered	-11610
▁eman	-11611
▁stup	-11612
▁Appro	-11613
▁Broad	-11614
▁Juris	-11615
▁Thank	-11616
▁Perform	-11617
▁opinions	-11618
▁Raghunath	-11619
▁enactments	-11620
▁introducing	-11621
si	-11622
▁bene	-11623
▁tant	-11624
▁labor	-11625
▁exempl	-11626
▁confine	-11627
▁mentions	-11628
▁locations	-11629
▁reproduce	-11630
▁Declaration	-11631
▁advancement	-11632
▁supervisory	-11633
▁disqualified	-11634
kes	-11635
araj	-11636
eper	-11637
▁Line	-11638
▁Pack	-11639
▁intu	-11640
▁Paras	-11641
▁blunt	-11642
▁fourt	-11643
▁overw	-11644
▁plane	-11645
plicate	-11646
▁traced	-11647
▁uncond	-11648
▁vacate	-11649
▁CHAPTER	-11650
▁cooking	-11651
▁hanging	-11652
▁balanced	-11653
▁pertains	-11654
▁requests	-11655
▁trustees	-11656
▁Regarding	-11657
▁Guidelines	-11658
▁questioning	-11659
▁increasingly	-11660
▁participants	-11661
econ	-11662
xide	-11663
▁Muz	-11664
▁Nas	-11665
aksha	-11666
iscal	-11667
point	-11668
▁Asst	-11669
▁Bhub	-11670
▁hire	-11671
▁defaul	-11672
▁fisher	-11673
▁powder	-11674
▁sketch	-11675
▁massive	-11676
▁Chartered	-11677
▁whereupon	-11678
zed	-11679
▁py	-11680
rage	-11681
▁exh	-11682
▁Four	-11683
▁Purn	-11684
inking	-11685
▁advise	-11686
▁unsucc	-11687
▁Freedom	-11688
▁accessible	-11689
▁thoroughly	-11690
hera	-11691
kers	-11692
▁Abs	-11693
▁Bap	-11694
▁Fif	-11695
▁adm	-11696
▁swe	-11697
▁NDPS	-11698
▁shap	-11699
▁ward	-11700
▁skull	-11701
viously	-11702
▁Nation	-11703
▁overse	-11704
▁enlight	-11705
▁presume	-11706
▁unnatural	-11707
▁relatively	-11708
eri	-11709
▁LC	-11710
▁Bye	-11711
▁DRT	-11712
▁Shak	-11713
▁tack	-11714
▁Sugar	-11715
▁Ranjan	-11716
▁tribes	-11717
ographic	-11718
▁heading	-11719
valuation	-11720
▁dissemin	-11721
missibility	-11722
▁generating	-11723
▁encroachment	-11724
▁KV	-11725
▁PL	-11726
rence	-11727
▁exit	-11728
oining	-11729
▁Rupees	-11730
▁consec	-11731
▁patron	-11732
▁Hanuman	-11733
▁specimen	-11734
▁negligent	-11735
▁radiation	-11736
▁EN	-11737
▁SD	-11738
arai	-11739
jeet	-11740
udent	-11741
▁Call	-11742
▁Miss	-11743
▁extr	-11744
▁impe	-11745
▁Mahav	-11746
▁noble	-11747
▁Coming	-11748
▁Rajeev	-11749
▁fought	-11750
▁improb	-11751
▁treaty	-11752
▁players	-11753
▁incentive	-11754
▁travelled	-11755
--	-11756
tas	-11757
▁Fa	-11758
▁GN	-11759
▁COUR	-11760
utical	-11761
▁Course	-11762
▁Reason	-11763
▁pretty	-11764
▁talent	-11765
▁Proceed	-11766
▁carriage	-11767
▁pronouncements	-11768
isers	-11769
peeth	-11770
reams	-11771
▁Fast	-11772
▁palm	-11773
▁Model	-11774
▁larva	-11775
▁Amicus	-11776
▁island	-11777
▁resemb	-11778
▁sometime	-11779
▁responded	-11780
▁dedication	-11781
▁misconceived	-11782
▁Bod	-11783
▁lord	-11784
▁Clerk	-11785
viation	-11786
▁Lahore	-11787
▁Status	-11788
▁loaded	-11789
▁Islands	-11790
▁ensured	-11791
▁surrend	-11792
▁literacy	-11793
▁willingness	-11794
abu	-11795
emia	-11796
umin	-11797
▁unh	-11798
anpur	-11799
▁Dass	-11800
▁Guard	-11801
▁Vikas	-11802
▁hered	-11803
▁honor	-11804
▁sheep	-11805
erating	-11806
▁cooper	-11807
iability	-11808
▁fashion	-11809
▁Sciences	-11810
▁bacteria	-11811
▁equation	-11812
▁mischief	-11813
▁overwhel	-11814
▁Admission	-11815
▁Chaudhary	-11816
▁Organisation	-11817
▁Commissioners	-11818
▁significantly	-11819
tr	-11820
iac	-11821
osa	-11822
arsa	-11823
onut	-11824
▁Tat	-11825
ludes	-11826
essees	-11827
▁canal	-11828
▁loved	-11829
▁skilled	-11830
▁weighed	-11831
▁Nagaland	-11832
▁crossing	-11833
▁frequent	-11834
▁patterns	-11835
▁tourists	-11836
▁cumulative	-11837
ek	-11838
▁BI	-11839
▁DG	-11840
bind	-11841
odox	-11842
ulam	-11843
▁Den	-11844
▁ITS	-11845
▁tag	-11846
▁Geet	-11847
▁ease	-11848
ridges	-11849
▁Debts	-11850
▁Laxman	-11851
▁Result	-11852
▁Topics	-11853
▁focused	-11854
▁mankind	-11855
▁tissues	-11856
▁Surendra	-11857
▁borrowed	-11858
▁operates	-11859
▁Extension	-11860
▁Himalayas	-11861
▁broadcast	-11862
▁attributable	-11863
▁constituency	-11864
▁BO	-11865
amba	-11866
▁Rajiv	-11867
▁intact	-11868
▁thrust	-11869
sections	-11870
▁dominant	-11871
▁envisages	-11872
▁litigants	-11873
▁describing	-11874
▁prosecutor	-11875
▁realization	-11876
▁GP	-11877
▁RA	-11878
ping	-11879
▁axis	-11880
▁Khand	-11881
▁tends	-11882
▁topic	-11883
▁absurd	-11884
▁define	-11885
▁bonafide	-11886
▁Meanwhile	-11887
▁jewellery	-11888
▁expressing	-11889
▁collectively	-11890
▁substitution	-11891
VC	-11892
inh	-11893
▁AL	-11894
▁BH	-11895
iated	-11896
osure	-11897
▁Soon	-11898
▁luck	-11899
▁threw	-11900
▁adults	-11901
▁condem	-11902
▁footing	-11903
aceutical	-11904
▁Mohammad	-11905
▁cheating	-11906
▁trespass	-11907
▁obligatory	-11908
▁perversity	-11909
▁Territories	-11910
▁aspirations	-11911
▁testimonies	-11912
▁improvements	-11913
▁VIII	-11914
▁Royal	-11915
▁inequ	-11916
▁heaven	-11917
▁invent	-11918
▁praise	-11919
▁sounds	-11920
▁estoppel	-11921
▁invoices	-11922
▁disabilities	-11923
EX	-11924
▁Cle	-11925
▁Kas	-11926
▁unm	-11927
lance	-11928
▁calm	-11929
▁keys	-11930
▁mobil	-11931
▁texts	-11932
▁Forces	-11933
▁deaths	-11934
▁Express	-11935
▁chamber	-11936
▁pursued	-11937
▁abstract	-11938
▁producer	-11939
▁reasoned	-11940
▁veracity	-11941
▁comprises	-11942
▁kms	-11943
▁odd	-11944
aming	-11945
enary	-11946
▁Gaur	-11947
▁Poon	-11948
▁tons	-11949
iniyam	-11950
▁Dilip	-11951
▁Vedas	-11952
▁taste	-11953
iencies	-11954
▁revival	-11955
▁measured	-11956
▁attesting	-11957
▁successive	-11958
▁declarations	-11959
cha	-11960
▁FT	-11961
▁voc	-11962
hesis	-11963
ulled	-11964
▁Laxmi	-11965
▁anger	-11966
▁insol	-11967
▁Naresh	-11968
▁charas	-11969
▁wounds	-11970
▁briefly	-11971
▁signing	-11972
▁associates	-11973
▁quantities	-11974
▁unilateral	-11975
▁identifying	-11976
fl	-11977
BER	-11978
oty	-11979
wami	-11980
andom	-11981
▁brut	-11982
▁inex	-11983
bhanga	-11984
▁Varan	-11985
▁gazet	-11986
▁Santro	-11987
▁faster	-11988
▁gentle	-11989
inations	-11990
▁Jyotish	-11991
▁publicity	-11992
IGH	-11993
hoc	-11994
▁Ras	-11995
▁jur	-11996
▁Pram	-11997
▁penis	-11998
▁Motion	-11999
▁buying	-12000
▁kidney	-12001
▁stable	-12002
▁Seventh	-12003
▁Various	-12004
▁exagger	-12005
▁attested	-12006
▁manpower	-12007
▁programming	-12008
kim	-12009
▁XII	-12010
▁rot	-12011
▁degr	-12012
▁mole	-12013
matter	-12014
▁David	-12015
▁Value	-12016
▁liver	-12017
▁saint	-12018
▁SPEECH	-12019
▁superv	-12020
▁inherit	-12021
▁malafide	-12022
▁discontin	-12023
▁explaining	-12024
▁practitioner	-12025
iba	-12026
llah	-12027
serv	-12028
▁Yoj	-12029
▁monu	-12030
▁pond	-12031
itudes	-12032
▁Grand	-12033
▁urgency	-12034
▁Bilaspur	-12035
▁promoter	-12036
▁Referring	-12037
▁imparting	-12038
▁equipments	-12039
▁phenomenon	-12040
▁privileges	-12041
▁psychological	-12042
ky	-12043
▁feas	-12044
▁jack	-12045
▁wash	-12046
▁campus	-12047
▁explos	-12048
▁wholes	-12049
▁African	-12050
▁highway	-12051
▁sincere	-12052
▁counting	-12053
▁discount	-12054
▁receiver	-12055
▁magistrate	-12056
▁ER	-12057
arus	-12058
▁tap	-12059
▁Trad	-12060
▁inel	-12061
enable	-12062
▁shout	-12063
▁hazard	-12064
▁speeches	-12065
▁Governing	-12066
▁philosoph	-12067
▁attractive	-12068
▁certification	-12069
xic	-12070
▁Py	-12071
utra	-12072
▁REP	-12073
vable	-12074
▁Khar	-12075
▁hunt	-12076
opping	-12077
▁Maint	-12078
▁blame	-12079
▁Father	-12080
▁Within	-12081
▁daniel	-12082
▁discern	-12083
▁tainted	-12084
▁Pollution	-12085
▁afternoon	-12086
▁intimated	-12087
▁meaningful	-12088
▁intervening	-12089
▁Mc	-12090
tain	-12091
▁HLEC	-12092
▁cows	-12093
▁slip	-12094
ivable	-12095
▁Param	-12096
▁artist	-12097
▁bottles	-12098
▁threats	-12099
▁Ayurveda	-12100
▁detection	-12101
▁perception	-12102
▁Chairperson	-12103
▁RC	-12104
▁puts	-12105
▁Jagat	-12106
▁intra	-12107
▁monop	-12108
▁enters	-12109
▁fright	-12110
▁occupy	-12111
▁muscles	-12112
▁nullity	-12113
▁reposted	-12114
▁sentencing	-12115
▁constructions	-12116
awn	-12117
hati	-12118
▁Inv	-12119
cated	-12120
▁Conv	-12121
apuram	-12122
ardens	-12123
reight	-12124
▁Pawan	-12125
▁hears	-12126
▁Lastly	-12127
▁demise	-12128
▁plural	-12129
▁Edition	-12130
▁Pradhan	-12131
▁Consolid	-12132
▁Badruddin	-12133
▁partially	-12134
▁disclosing	-12135
Is	-12136
▁Fee	-12137
▁Read	-12138
▁lift	-12139
▁sper	-12140
▁stem	-12141
ighter	-12142
▁guess	-12143
▁tight	-12144
▁grains	-12145
▁federal	-12146
▁streams	-12147
▁fraction	-12148
▁inconven	-12149
▁licences	-12150
▁overseas	-12151
▁vulnerable	-12152
▁shareholder	-12153
▁Establishment	-12154
rik	-12155
uja	-12156
rian	-12157
umps	-12158
▁Niz	-12159
▁Arts	-12160
▁spin	-12161
▁kings	-12162
▁prays	-12163
▁Shimla	-12164
▁Unable	-12165
▁upload	-12166
▁crossed	-12167
▁touched	-12168
▁unequiv	-12169
▁emission	-12170
▁mistakes	-12171
▁solitary	-12172
▁eliminate	-12173
▁conciliation	-12174
adar	-12175
▁Jat	-12176
▁Abdu	-12177
▁accur	-12178
astipur	-12179
▁Nagpur	-12180
▁hearts	-12181
actorily	-12182
▁Varanasi	-12183
▁artistic	-12184
▁expedient	-12185
▁recognise	-12186
▁somewhere	-12187
▁repetition	-12188
▁categorical	-12189
▁unfortunately	-12190
▁DA	-12191
ingh	-12192
▁bes	-12193
▁pin	-12194
akshi	-12195
ibhai	-12196
▁garb	-12197
▁Kabir	-12198
▁dwell	-12199
▁bought	-12200
▁raises	-12201
▁breeding	-12202
▁connections	-12203
▁unauthorised	-12204
opsy	-12205
▁Suk	-12206
▁True	-12207
▁cess	-12208
▁sine	-12209
▁Exhib	-12210
▁disin	-12211
uminous	-12212
▁Ganges	-12213
▁Mangal	-12214
▁Journal	-12215
▁consign	-12216
▁Tripathi	-12217
▁Adhiniyam	-12218
▁Choudhury	-12219
▁considerably	-12220
alp	-12221
obi	-12222
rell	-12223
▁Hus	-12224
▁XXX	-12225
▁bin	-12226
▁Auto	-12227
▁cure	-12228
thened	-12229
▁Drugs	-12230
▁Mitra	-12231
▁raped	-12232
▁equals	-12233
▁trials	-12234
▁versions	-12235
▁adjourned	-12236
▁complying	-12237
▁enshrined	-12238
▁impressed	-12239
▁Conditions	-12240
▁governmental	-12241
oys	-12242
RISH	-12243
▁RTI	-12244
oused	-12245
▁heir	-12246
▁react	-12247
▁smell	-12248
▁Madhub	-12249
▁Studies	-12250
▁matches	-12251
▁publish	-12252
▁readily	-12253
▁pursuing	-12254
▁chemicals	-12255
▁Integrated	-12256
occ	-12257
▁Say	-12258
▁cup	-12259
▁lake	-12260
iences	-12261
▁Taxes	-12262
▁accel	-12263
▁bunch	-12264
▁indef	-12265
▁nodes	-12266
▁Rather	-12267
▁divers	-12268
istrates	-12269
▁abdomen	-12270
▁anxious	-12271
▁recruit	-12272
▁royalty	-12273
▁trustee	-12274
▁watching	-12275
▁Choudhary	-12276
▁ancestral	-12277
▁dissolved	-12278
▁associations	-12279
▁strengthened	-12280
aki	-12281
rab	-12282
ulg	-12283
▁Kad	-12284
▁lis	-12285
ariya	-12286
▁Cutt	-12287
mother	-12288
▁entitle	-12289
▁prudent	-12290
▁networks	-12291
▁touching	-12292
▁precisely	-12293
▁elementary	-12294
▁Presidential	-12295
▁interrogation	-12296
▁satisfactorily	-12297
IFR	-12298
avas	-12299
▁Dip	-12300
acles	-12301
inath	-12302
▁Ghaz	-12303
▁flee	-12304
icular	-12305
oultry	-12306
▁beach	-12307
▁unamb	-12308
▁bamboo	-12309
▁detenu	-12310
▁sphere	-12311
▁viable	-12312
▁nervous	-12313
▁Bhagalpur	-12314
▁implicate	-12315
▁continuity	-12316
In	-12317
KAR	-12318
amal	-12319
oose	-12320
▁Sany	-12321
▁hier	-12322
▁orth	-12323
▁Sangh	-12324
▁Zilla	-12325
▁embra	-12326
▁dreams	-12327
▁Iranian	-12328
▁dictionary	-12329
▁............	-12330
▁#	-12331
▁IX	-12332
▁Ny	-12333
ENCE	-12334
▁Have	-12335
▁bell	-12336
▁optim	-12337
▁corpus	-12338
▁transc	-12339
▁Benefit	-12340
▁Lakshmi	-12341
▁Madurai	-12342
▁checked	-12343
▁arbitrators	-12344
▁discrepancy	-12345
GR	-12346
IX	-12347
▁NB	-12348
vind	-12349
▁Saw	-12350
▁Sus	-12351
▁wet	-12352
▁Insp	-12353
▁Proc	-12354
▁Veer	-12355
▁repeat	-12356
▁unanim	-12357
▁dialogue	-12358
▁narration	-12359
▁Honourable	-12360
▁biological	-12361
ibh	-12362
▁Ju	-12363
omas	-12364
▁Vic	-12365
▁rup	-12366
▁Alam	-12367
▁sums	-12368
acular	-12369
▁Space	-12370
aneswar	-12371
▁deeper	-12372
▁purity	-12373
▁denomin	-12374
▁forgery	-12375
▁pretext	-12376
▁Purchase	-12377
▁withheld	-12378
▁Implement	-12379
▁Islamists	-12380
▁intervene	-12381
▁perfectly	-12382
▁prosecute	-12383
▁sponsored	-12384
▁accusation	-12385
▁consolidated	-12386
ulu	-12387
hesh	-12388
▁Said	-12389
▁http	-12390
▁Heard	-12391
▁midst	-12392
onymous	-12393
▁camera	-12394
ographer	-12395
▁Monitor	-12396
▁apprent	-12397
▁clarify	-12398
▁funding	-12399
▁protein	-12400
▁Judiciary	-12401
▁terrorists	-12402
▁gratification	-12403
abs	-12404
▁ster	-12405
ulously	-12406
▁Sports	-12407
▁prints	-12408
........	-12409
▁William	-12410
▁broadly	-12411
▁mixture	-12412
▁checking	-12413
▁tolerance	-12414
▁tribunals	-12415
▁Provisions	-12416
▁promotional	-12417
eda	-12418
▁Gad	-12419
▁Has	-12420
▁wip	-12421
odara	-12422
▁spon	-12423
▁swit	-12424
▁untr	-12425
▁Sikkim	-12426
▁pushed	-12427
▁Cuttack	-12428
▁browser	-12429
▁explains	-12430
▁isolated	-12431
▁Panchnama	-12432
▁algorithm	-12433
▁amenities	-12434
▁associate	-12435
▁reception	-12436
▁condonation	-12437
▁constrained	-12438
▁OM	-12439
▁Hyd	-12440
▁asp	-12441
▁Mary	-12442
▁silk	-12443
▁Armed	-12444
▁Indus	-12445
▁Ansari	-12446
▁advent	-12447
▁genius	-12448
▁weaker	-12449
ensively	-12450
▁Details	-12451
▁clients	-12452
▁defense	-12453
▁winning	-12454
forcement	-12455
▁Obviously	-12456
▁Complainant	-12457
▁developmental	-12458
▁IF	-12459
iven	-12460
▁Jab	-12461
▁Auro	-12462
▁wave	-12463
igible	-12464
▁smart	-12465
▁trite	-12466
▁Custom	-12467
▁Should	-12468
▁conserv	-12469
▁qualify	-12470
▁streets	-12471
▁convened	-12472
▁equipped	-12473
▁Allowance	-12474
▁modifications	-12475
das	-12476
ugn	-12477
cons	-12478
▁SLP	-12479
▁Tea	-12480
▁aug	-12481
▁mol	-12482
▁Muns	-12483
▁Team	-12484
▁Scale	-12485
▁brave	-12486
▁Contin	-12487
▁notion	-12488
▁uphold	-12489
▁Acharya	-12490
▁hardware	-12491
▁superint	-12492
bled	-12493
eced	-12494
▁FIRs	-12495
▁Requ	-12496
▁aunt	-12497
▁ware	-12498
▁movie	-12499
▁nucle	-12500
▁Safety	-12501
▁intend	-12502
▁packet	-12503
▁Windows	-12504
▁dragged	-12505
▁afforded	-12506
▁panchayat	-12507
▁upholding	-12508
▁Profession	-12509
▁Departmental	-12510
idas	-12511
▁Sai	-12512
▁hut	-12513
oding	-12514
▁Down	-12515
master	-12516
uously	-12517
▁Video	-12518
▁recru	-12519
▁Deepak	-12520
▁remitted	-12521
▁accidents	-12522
▁festivals	-12523
▁surrendered	-12524
▁threatening	-12525
▁FR	-12526
▁Malk	-12527
abetes	-12528
▁minim	-12529
▁miser	-12530
▁snake	-12531
▁Mamlat	-12532
▁Rajput	-12533
▁Shakti	-12534
▁Spirit	-12535
▁Versus	-12536
▁Display	-12537
▁Reports	-12538
▁weighing	-12539
▁mediation	-12540
▁alteration	-12541
▁resolutions	-12542
opl	-12543
▁Bis	-12544
▁auto	-12545
ussion	-12546
▁mango	-12547
▁Challen	-12548
▁coconut	-12549
▁abolition	-12550
▁gathering	-12551
▁inherited	-12552
▁paramount	-12553
▁precedents	-12554
▁utilization	-12555
▁gro	-12556
▁Exts	-12557
▁TRAN	-12558
▁amaz	-12559
▁arts	-12560
ESSAGE	-12561
▁sixth	-12562
▁troops	-12563
▁decimal	-12564
▁singing	-12565
▁provider	-12566
▁concentration	-12567
ARE	-12568
ugal	-12569
▁Run	-12570
▁bug	-12571
▁fer	-12572
▁Kali	-12573
▁glory	-12574
▁authors	-12575
▁Banerjee	-12576
▁Movement	-12577
▁disbelieve	-12578
▁irreparable	-12579
▁intentionally	-12580
allu	-12581
▁Tap	-12582
asive	-12583
▁laps	-12584
▁nurt	-12585
▁obsc	-12586
▁pump	-12587
ranted	-12588
▁shoes	-12589
anishad	-12590
▁humble	-12591
▁fitness	-12592
▁keyboard	-12593
▁adjoining	-12594
▁redressal	-12595
orticulture	-12596
▁Scientific	-12597
▁prescribing	-12598
AYS	-12599
oil	-12600
pes	-12601
andan	-12602
▁fond	-12603
▁Griev	-12604
▁burns	-12605
▁pharm	-12606
▁realm	-12607
▁rigid	-12608
▁vagina	-12609
▁Library	-12610
▁implicit	-12611
▁predomin	-12612
▁Americans	-12613
▁mortgaged	-12614
▁hypothesis	-12615
dam	-12616
rot	-12617
uka	-12618
upp	-12619
eers	-12620
▁fan	-12621
outed	-12622
▁Jews	-12623
acific	-12624
venues	-12625
▁Menon	-12626
▁Shant	-12627
▁excav	-12628
▁ports	-12629
▁vicar	-12630
▁custod	-12631
▁envelop	-12632
HAL	-12633
hot	-12634
nar	-12635
itra	-12636
lesh	-12637
▁Pop	-12638
▁SER	-12639
▁Tik	-12640
▁hol	-12641
aiver	-12642
brane	-12643
▁Memo	-12644
▁pion	-12645
owners	-12646
▁harsh	-12647
▁insight	-12648
▁intends	-12649
▁rituals	-12650
▁persuaded	-12651
▁recruited	-12652
▁retention	-12653
▁compliment	-12654
▁temporarily	-12655
win	-12656
▁CB	-12657
inge	-12658
orms	-12659
othe	-12660
front	-12661
▁Iron	-12662
▁Kush	-12663
▁Rate	-12664
▁mant	-12665
▁spir	-12666
anchal	-12667
making	-12668
▁Solar	-12669
▁toward	-12670
▁Agrawal	-12671
▁MESSAGE	-12672
▁Sanjeev	-12673
▁Darbhanga	-12674
▁Constituent	-12675
▁accountability	-12676
▁reasonableness	-12677
soon	-12678
▁Ken	-12679
▁Unt	-12680
▁ton	-12681
ancer	-12682
otism	-12683
scale	-12684
▁Rana	-12685
▁Saha	-12686
▁ages	-12687
▁india	-12688
▁Muzaff	-12689
▁Serial	-12690
▁franch	-12691
▁writes	-12692
position	-12693
▁desktop	-12694
▁directs	-12695
▁somehow	-12696
▁canvassed	-12697
▁possibilities	-12698
vara	-12699
▁Prit	-12700
▁elev	-12701
▁pink	-12702
▁flying	-12703
▁worksh	-12704
▁Default	-12705
▁bidding	-12706
▁deprive	-12707
▁enlarge	-12708
▁printer	-12709
▁Councils	-12710
▁forehead	-12711
▁promptly	-12712
▁Mamlatdar	-12713
▁inception	-12714
▁autonomous	-12715
aba	-12716
iscl	-12717
▁Word	-12718
▁grab	-12719
▁hung	-12720
▁Blood	-12721
▁Mills	-12722
▁therap	-12723
graduate	-12724
▁anteced	-12725
▁promulg	-12726
▁segment	-12727
▁Protocol	-12728
▁devotees	-12729
▁endorsed	-12730
▁diligence	-12731
▁responses	-12732
▁Electronics	-12733
▁unsuccessful	-12734
ato	-12735
▁Bre	-12736
▁cyl	-12737
▁ske	-12738
▁Chin	-12739
▁Roll	-12740
rolled	-12741
▁Manik	-12742
▁Panel	-12743
▁Honble	-12744
▁terrib	-12745
▁Chatter	-12746
Inspector	-12747
▁persuade	-12748
▁assigning	-12749
▁magnitude	-12750
▁warranted	-12751
▁counselling	-12752
▁Ud	-12753
▁Ast	-12754
▁Squ	-12755
ullah	-12756
▁sport	-12757
▁Needless	-12758
▁accidental	-12759
▁pesticides	-12760
▁presenting	-12761
▁productive	-12762
▁Enforcement	-12763
▁disobedience	-12764
२१	-12765
nty	-12766
appu	-12767
▁Kaz	-12768
▁Pin	-12769
achar	-12770
riers	-12771
▁Link	-12772
aution	-12773
bursed	-12774
▁chick	-12775
▁Budget	-12776
▁humans	-12777
▁nephew	-12778
economic	-12779
▁corners	-12780
▁enemies	-12781
▁stamped	-12782
▁Specific	-12783
▁inspected	-12784
▁Christians	-12785
▁experiments	-12786
▁accompanying	-12787
▁admissibility	-12788
ipp	-12789
term	-12790
▁ADV	-12791
▁Best	-12792
▁earm	-12793
before	-12794
▁Bhutan	-12795
▁Sindhi	-12796
▁connot	-12797
chnology	-12798
▁Kannada	-12799
▁succumb	-12800
▁vesting	-12801
▁Surender	-12802
▁enlarged	-12803
▁fourteen	-12804
▁consensus	-12805
▁ascertaining	-12806
▁authorization	-12807
▁distinguishable	-12808
angle	-12809
eless	-12810
ietal	-12811
ulses	-12812
▁Duty	-12813
▁push	-12814
▁magic	-12815
▁mercy	-12816
▁Curiae	-12817
▁compel	-12818
▁plains	-12819
▁recruits	-12820
▁prospects	-12821
▁spreading	-12822
▁forthcoming	-12823
▁Applications	-12824
▁capabilities	-12825
def	-12826
▁mm	-12827
irms	-12828
▁IPv	-12829
▁Job	-12830
▁OBC	-12831
▁Put	-12832
▁RAM	-12833
▁Tib	-12834
isive	-12835
venty	-12836
ouring	-12837
wealth	-12838
▁Adalat	-12839
▁Immedi	-12840
▁affair	-12841
▁laches	-12842
▁Mohalla	-12843
▁accepts	-12844
▁drought	-12845
▁Electrical	-12846
▁capability	-12847
▁purchasers	-12848
▁retrospect	-12849
OUN	-12850
agu	-12851
veli	-12852
anker	-12853
▁Priy	-12854
▁pays	-12855
▁Phase	-12856
▁Advert	-12857
▁Bihari	-12858
▁judged	-12859
▁Emperor	-12860
▁chances	-12861
▁movable	-12862
▁NATIONAL	-12863
▁Himalayan	-12864
▁invention	-12865
▁conception	-12866
▁BS	-12867
▁sew	-12868
▁Bodh	-12869
▁Syed	-12870
▁peak	-12871
▁slog	-12872
nership	-12873
▁kumari	-12874
▁planet	-12875
▁tenable	-12876
▁conceded	-12877
▁cultures	-12878
▁peripher	-12879
▁vertical	-12880
▁conceived	-12881
▁adequately	-12882
▁satisfying	-12883
▁Bhubaneswar	-12884
▁confessional	-12885
▁contemplates	-12886
▁Radhakrishnan	-12887
MI	-12888
asy	-12889
bat	-12890
UMAR	-12891
▁isn	-12892
andal	-12893
▁Very	-12894
▁Brief	-12895
▁moves	-12896
▁Perman	-12897
▁assent	-12898
▁merger	-12899
▁reluct	-12900
▁sensit	-12901
▁Trading	-12902
▁evaluate	-12903
▁literally	-12904
▁Contractor	-12905
▁Statistical	-12906
EA	-12907
Sh	-12908
fect	-12909
▁PET	-12910
▁Anth	-12911
▁Bhim	-12912
urable	-12913
▁Mandi	-12914
▁reign	-12915
▁rhyth	-12916
▁coffee	-12917
▁couldn	-12918
▁poured	-12919
▁reaches	-12920
▁appealed	-12921
▁maturity	-12922
▁medically	-12923
▁nevertheless	-12924
nis	-12925
rus	-12926
▁DP	-12927
eded	-12928
well	-12929
▁pel	-12930
▁Brij	-12931
▁Type	-12932
▁lone	-12933
▁mart	-12934
ducted	-12935
▁encry	-12936
▁scrap	-12937
▁smoke	-12938
▁trick	-12939
▁Museum	-12940
▁encumb	-12941
▁enquire	-12942
▁expense	-12943
▁advertised	-12944
▁eyewitnesses	-12945
▁administrator	-12946
▁GM	-12947
▁Sid	-12948
pread	-12949
▁Fest	-12950
▁Host	-12951
▁actor	-12952
▁Transl	-12953
▁decrees	-12954
▁destiny	-12955
▁extraneous	-12956
▁invariably	-12957
▁variations	-12958
▁imperialism	-12959
▁innovations	-12960
▁deficiencies	-12961
▁IO	-12962
aidu	-12963
▁Vaj	-12964
▁Item	-12965
▁JUST	-12966
▁Prob	-12967
▁ears	-12968
▁fool	-12969
▁Diplom	-12970
▁cousin	-12971
ffective	-12972
▁restruct	-12973
▁Administr	-12974
▁deprivation	-12975
▁Rehabilitation	-12976
meas	-12977
▁Gok	-12978
▁Fair	-12979
▁Tool	-12980
essors	-12981
▁Patil	-12982
▁hatred	-12983
▁stores	-12984
aternity	-12985
▁signals	-12986
▁airports	-12987
▁factories	-12988
▁intensity	-12989
▁forwarding	-12990
▁publishing	-12991
▁extensively	-12992
▁Jyotishpeeth	-12993
uta	-12994
▁JN	-12995
ucid	-12996
udra	-12997
▁Jog	-12998
itime	-12999
stream	-13000
▁Chowk	-13001
▁Quran	-13002
▁Sikhs	-13003
▁tries	-13004
▁ration	-13005
▁verbal	-13006
▁Earlier	-13007
▁nominal	-13008
▁Aurobind	-13009
▁dwelling	-13010
▁exposure	-13011
▁uncertain	-13012
▁certiorari	-13013
▁committees	-13014
▁demolition	-13015
▁statistics	-13016
▁justifiable	-13017
▁Rabindranath	-13018
▁economically	-13019
sex	-13020
▁Cad	-13021
▁Mak	-13022
▁nit	-13023
Judge	-13024
forma	-13025
▁Durg	-13026
▁Soni	-13027
▁Vill	-13028
▁Chann	-13029
▁Queen	-13030
▁Siwan	-13031
▁fides	-13032
▁maker	-13033
▁Arabia	-13034
▁curric	-13035
▁fiscal	-13036
▁habits	-13037
▁jungle	-13038
▁vimana	-13039
▁adulter	-13040
▁untouch	-13041
▁volumes	-13042
▁Lokayukta	-13043
▁expanding	-13044
▁weightage	-13045
▁advantages	-13046
▁structural	-13047
Reg	-13048
ads	-13049
awa	-13050
fare	-13051
▁CRL	-13052
▁EVE	-13053
▁OFF	-13054
▁tum	-13055
aided	-13056
ettled	-13057
▁Rahul	-13058
▁virus	-13059
▁Jaipur	-13060
▁Period	-13061
▁ninety	-13062
stituting	-13063
▁Intellig	-13064
▁mandates	-13065
▁Governors	-13066
▁incidence	-13067
▁propriety	-13068
▁complement	-13069
▁dimensions	-13070
▁procurement	-13071
ulal	-13072
▁lots	-13073
▁Arabs	-13074
▁excuse	-13075
▁beliefs	-13076
▁edition	-13077
▁forensic	-13078
▁Malayalam	-13079
▁Partnership	-13080
▁grandfather	-13081
▁obstruction	-13082
ela	-13083
obar	-13084
rator	-13085
▁fing	-13086
▁Dutta	-13087
▁Nayak	-13088
▁dimin	-13089
▁denies	-13090
▁detect	-13091
▁noting	-13092
▁restrain	-13093
▁enforcing	-13094
▁Ultimately	-13095
ocy	-13096
heda	-13097
tery	-13098
▁Deo	-13099
▁hem	-13100
▁sue	-13101
▁umb	-13102
▁lacks	-13103
▁Thomas	-13104
▁waiver	-13105
▁audited	-13106
▁abetment	-13107
▁controls	-13108
▁indulged	-13109
▁Processing	-13110
▁horizontal	-13111
▁undergoing	-13112
▁prosecuting	-13113
▁characterized	-13114
YA	-13115
lay	-13116
oja	-13117
oni	-13118
▁ji	-13119
quit	-13120
▁Mic	-13121
▁sen	-13122
ignty	-13123
valid	-13124
▁Kart	-13125
▁Lower	-13126
▁Ocean	-13127
▁irrit	-13128
▁mills	-13129
▁phones	-13130
▁assumes	-13131
▁guiding	-13132
▁Exhibits	-13133
▁frequency	-13134
▁inflation	-13135
▁Nevertheless	-13136
five	-13137
▁Raw	-13138
gging	-13139
▁Qual	-13140
▁caut	-13141
▁Vicer	-13142
▁deems	-13143
▁tears	-13144
verting	-13145
▁decent	-13146
itorious	-13147
▁Tenancy	-13148
▁honoured	-13149
▁parental	-13150
▁Dwarkanath	-13151
▁overlooked	-13152
anty	-13153
▁Bac	-13154
▁Own	-13155
cetic	-13156
plate	-13157
▁Turn	-13158
▁ling	-13159
▁loud	-13160
▁motu	-13161
▁Surya	-13162
▁immig	-13163
▁posed	-13164
orrhage	-13165
▁Mechan	-13166
▁Venkat	-13167
▁founder	-13168
▁availing	-13169
▁Aurobindo	-13170
▁expensive	-13171
▁wonderful	-13172
▁Production	-13173
▁headquarters	-13174
▁legislations	-13175
▁Ara	-13176
▁SID	-13177
apsed	-13178
arman	-13179
athan	-13180
▁Left	-13181
▁Step	-13182
▁maid	-13183
▁uter	-13184
▁wrap	-13185
▁Paris	-13186
▁meets	-13187
ickshaw	-13188
▁Amount	-13189
▁Kishan	-13190
▁insult	-13191
▁Mineral	-13192
▁dynasty	-13193
▁formally	-13194
▁interact	-13195
▁Tehsildar	-13196
▁cartridges	-13197
▁tun	-13198
▁appr	-13199
opathy	-13200
▁Radha	-13201
▁foods	-13202
▁numer	-13203
esthetic	-13204
▁Cricket	-13205
▁affixed	-13206
▁ongoing	-13207
witnesses	-13208
▁Material	-13209
▁Vehicles	-13210
▁ordering	-13211
▁conferring	-13212
▁cultivated	-13213
▁preservation	-13214
afi	-13215
uded	-13216
▁Maz	-13217
▁RFP	-13218
illai	-13219
▁dual	-13220
akhand	-13221
▁Saran	-13222
▁crude	-13223
▁debit	-13224
▁Charan	-13225
▁Volume	-13226
▁dinner	-13227
▁Offices	-13228
▁carrier	-13229
▁disable	-13230
▁tickets	-13231
▁purchases	-13232
▁realistic	-13233
▁hereinbefore	-13234
▁professionals	-13235
▁ul	-13236
▁moh	-13237
odium	-13238
▁Yash	-13239
▁rans	-13240
▁Greek	-13241
▁worst	-13242
▁execut	-13243
▁ladies	-13244
▁JUSTICE	-13245
▁Abdullah	-13246
▁certainty	-13247
▁businesses	-13248
▁illiterate	-13249
▁deliberations	-13250
▁incorporation	-13251
ESI	-13252
▁gh	-13253
▁ail	-13254
▁Patt	-13255
apters	-13256
▁Hemant	-13257
▁clouds	-13258
▁lesson	-13259
▁makers	-13260
▁rarely	-13261
▁sharma	-13262
▁superf	-13263
▁Auditor	-13264
▁crystal	-13265
▁lateral	-13266
▁disaster	-13267
▁earnings	-13268
▁deviation	-13269
▁searching	-13270
▁transfers	-13271
cho	-13272
olf	-13273
▁Kon	-13274
▁Tan	-13275
▁hrs	-13276
osted	-13277
▁Kend	-13278
▁SHRI	-13279
urring	-13280
▁Yojana	-13281
▁Singles	-13282
▁recital	-13283
▁Physical	-13284
▁charging	-13285
▁reciproc	-13286
▁confessed	-13287
osy	-13288
▁MLC	-13289
chron	-13290
▁Kore	-13291
▁Waqf	-13292
▁tiny	-13293
agraha	-13294
inates	-13295
▁payee	-13296
▁resum	-13297
▁Golden	-13298
▁encash	-13299
▁explore	-13300
▁Arunachal	-13301
▁Elementary	-13302
▁fulfilment	-13303
▁reflection	-13304
▁suggesting	-13305
▁inadmissible	-13306
alu	-13307
hek	-13308
▁Bo	-13309
ikar	-13310
▁Gate	-13311
▁Parv	-13312
▁beet	-13313
▁fare	-13314
liable	-13315
▁Given	-13316
▁abate	-13317
▁Dharam	-13318
▁museum	-13319
ologists	-13320
▁Schemes	-13321
▁Irrigation	-13322
▁conditional	-13323
ANT	-13324
angi	-13325
▁BAL	-13326
▁Dab	-13327
▁ICC	-13328
▁Pul	-13329
▁sty	-13330
lings	-13331
▁Poth	-13332
▁Prav	-13333
▁Summ	-13334
verage	-13335
▁Audio	-13336
▁angry	-13337
▁vivid	-13338
▁gender	-13339
▁leased	-13340
▁legend	-13341
▁Pacific	-13342
▁seconds	-13343
▁swelling	-13344
▁Permanent	-13345
▁divisions	-13346
▁exchanged	-13347
▁fulfilling	-13348
▁confiscation	-13349
▁depreciation	-13350
GP	-13351
ago	-13352
▁Nom	-13353
▁Jose	-13354
▁Rich	-13355
▁daco	-13356
ralaya	-13357
company	-13358
itement	-13359
▁dictum	-13360
Division	-13361
▁Invalid	-13362
▁Ravindra	-13363
▁survival	-13364
▁Provincial	-13365
▁enthusiasm	-13366
▁intelligent	-13367
ipt	-13368
ket	-13369
osph	-13370
mohan	-13371
▁Activ	-13372
▁Tahas	-13373
▁ambig	-13374
▁games	-13375
▁knock	-13376
▁toile	-13377
▁bounds	-13378
▁buffal	-13379
▁enrich	-13380
▁varies	-13381
▁Normally	-13382
▁abolished	-13383
▁secretary	-13384
▁improbable	-13385
▁liberation	-13386
▁mechanisms	-13387
▁precaution	-13388
Us	-13389
ii	-13390
▁SIT	-13391
▁haw	-13392
▁Floor	-13393
▁Naval	-13394
▁rites	-13395
examine	-13396
▁induce	-13397
▁lapsed	-13398
▁oldest	-13399
▁senses	-13400
▁autopsy	-13401
▁deficit	-13402
▁Objection	-13403
▁telecommun	-13404
▁concessions	-13405
▁concurrence	-13406
▁contractors	-13407
▁specialized	-13408
▁KI	-13409
▁Gob	-13410
▁Jul	-13411
▁rab	-13412
▁Much	-13413
▁torn	-13414
ENSION	-13415
▁Draft	-13416
▁memor	-13417
▁parad	-13418
▁photoc	-13419
ideration	-13420
▁Manufact	-13421
▁petroleum	-13422
▁comparable	-13423
▁compulsion	-13424
▁sentiments	-13425
▁Ill	-13426
▁Lay	-13427
▁WOR	-13428
nings	-13429
▁Answ	-13430
▁disl	-13431
▁limbs	-13432
▁patta	-13433
▁mosque	-13434
▁videos	-13435
▁Viceroy	-13436
▁clarity	-13437
▁compare	-13438
▁handing	-13439
▁lifting	-13440
▁everyday	-13441
▁variable	-13442
▁Upanishad	-13443
▁agricultur	-13444
▁sovereignty	-13445
OME	-13446
phal	-13447
shot	-13448
wadi	-13449
▁CAV	-13450
▁dub	-13451
▁Mans	-13452
▁Mich	-13453
▁Pray	-13454
▁Samb	-13455
▁cens	-13456
iating	-13457
itably	-13458
▁Birth	-13459
▁Units	-13460
▁admir	-13461
▁loses	-13462
▁semen	-13463
▁Benches	-13464
▁packages	-13465
▁satellite	-13466
▁preferably	-13467
▁similarity	-13468
organisation	-13469
▁comparative	-13470
▁appropriately	-13471
▁SR	-13472
atri	-13473
babu	-13474
bury	-13475
face	-13476
ikip	-13477
inar	-13478
▁Hab	-13479
▁Hir	-13480
▁Suf	-13481
▁aqu	-13482
▁mac	-13483
FAESI	-13484
▁horn	-13485
▁misp	-13486
▁Naidu	-13487
▁honey	-13488
▁unfit	-13489
▁zones	-13490
▁postal	-13491
▁chronic	-13492
▁varying	-13493
▁morality	-13494
▁opposing	-13495
▁consuming	-13496
▁respected	-13497
▁ineligible	-13498
▁distinctive	-13499
▁empowerment	-13500
▁philosophical	-13501
lph	-13502
agan	-13503
▁BCC	-13504
▁Cant	-13505
▁Nizam	-13506
▁sworn	-13507
▁delays	-13508
▁random	-13509
▁regret	-13510
ructuous	-13511
▁typical	-13512
▁Medicine	-13513
▁enjoying	-13514
▁engineers	-13515
▁Fundamental	-13516
▁Commonwealth	-13517
▁connectivity	-13518
▁corporations	-13519
▁investigations	-13520
HER	-13521
IVE	-13522
deo	-13523
have	-13524
▁Kak	-13525
▁MFA	-13526
▁Sch	-13527
▁Syn	-13528
▁tol	-13529
lease	-13530
▁Plot	-13531
▁Koran	-13532
▁Nanda	-13533
▁Radio	-13534
▁Suraj	-13535
▁hopes	-13536
▁Prince	-13537
▁dialog	-13538
▁Digital	-13539
▁acquies	-13540
▁passive	-13541
▁Southern	-13542
▁confused	-13543
▁instinct	-13544
▁membrane	-13545
▁rainfall	-13546
▁penalties	-13547
▁Securities	-13548
▁tantamount	-13549
▁relationships	-13550
vil	-13551
ATED	-13552
usha	-13553
▁cot	-13554
field	-13555
▁Dham	-13556
▁gest	-13557
▁brick	-13558
▁ranks	-13559
▁remit	-13560
▁wives	-13561
▁Vikram	-13562
▁Yamuna	-13563
▁behest	-13564
▁landed	-13565
▁merged	-13566
▁Systems	-13567
▁neutral	-13568
▁nursing	-13569
▁ranging	-13570
▁subtract	-13571
otechnology	-13572
▁Samastipur	-13573
▁individually	-13574
▁ba	-13575
pose	-13576
stan	-13577
ucks	-13578
vial	-13579
▁Imm	-13580
▁LPG	-13581
▁Pud	-13582
▁lal	-13583
CTION	-13584
claim	-13585
▁bars	-13586
▁soph	-13587
▁debar	-13588
▁vests	-13589
▁Ashish	-13590
▁subtle	-13591
izations	-13592
▁pursuit	-13593
▁socially	-13594
▁Solicitor	-13595
▁infructuous	-13596
▁Palestinians	-13597
▁disbursement	-13598
KA	-13599
OD	-13600
ede	-13601
▁SS	-13602
anki	-13603
▁kin	-13604
▁len	-13605
eterm	-13606
▁Camb	-13607
▁Jord	-13608
▁exon	-13609
▁Goyal	-13610
▁Island	-13611
▁indemn	-13612
▁unexpl	-13613
▁ascetic	-13614
▁vitiate	-13615
▁Vadodara	-13616
▁mandated	-13617
▁painting	-13618
▁relieved	-13619
▁romantic	-13620
▁breathing	-13621
▁supplying	-13622
▁Concession	-13623
▁Institutes	-13624
OW	-13625
ico	-13626
▁xx	-13627
adia	-13628
▁NOC	-13629
angal	-13630
mities	-13631
▁coord	-13632
▁gradu	-13633
▁surely	-13634
ikipedia	-13635
▁Pradeep	-13636
▁Turkish	-13637
▁cluster	-13638
▁suffice	-13639
▁validly	-13640
renchment	-13641
▁lifetime	-13642
▁surgical	-13643
▁Generally	-13644
▁economies	-13645
▁employers	-13646
▁countrymen	-13647
▁anniversary	-13648
▁inaugurated	-13649
aga	-13650
ifts	-13651
last	-13652
ptic	-13653
amind	-13654
iples	-13655
▁Amin	-13656
itting	-13657
usible	-13658
▁Treas	-13659
▁indis	-13660
▁Sultan	-13661
▁petrol	-13662
▁redund	-13663
▁repugn	-13664
▁reside	-13665
▁Andaman	-13666
▁inhabit	-13667
▁monsoon	-13668
▁Graduate	-13669
▁distress	-13670
▁enacting	-13671
▁therefor	-13672
▁Democratic	-13673
▁Performance	-13674
do	-13675
▁na	-13676
urit	-13677
▁Anj	-13678
▁Lol	-13679
▁Ros	-13680
▁tin	-13681
▁Viet	-13682
▁barg	-13683
▁bere	-13684
▁escal	-13685
▁opted	-13686
▁slope	-13687
▁Commod	-13688
▁rubber	-13689
▁Manohar	-13690
▁Records	-13691
▁abusing	-13692
▁Palestine	-13693
▁medicinal	-13694
▁deductions	-13695
▁supramental	-13696
▁Intelligence	-13697
vy	-13698
bra	-13699
▁Ki	-13700
igate	-13701
▁lean	-13702
▁whis	-13703
▁Field	-13704
▁earthqu	-13705
▁fingers	-13706
▁provinces	-13707
▁judicially	-13708
▁Uttarakhand	-13709
▁HR	-13710
▁ov	-13711
▁sa	-13712
made	-13713
pati	-13714
ttes	-13715
▁Jun	-13716
▁Kitt	-13717
▁Meas	-13718
▁cane	-13719
▁nice	-13720
▁Mahas	-13721
▁alike	-13722
▁Manish	-13723
▁splend	-13724
▁Bhushan	-13725
▁hearsay	-13726
▁loading	-13727
▁deterior	-13728
▁investor	-13729
▁orthodox	-13730
▁warrants	-13731
▁Chatterjee	-13732
▁Mantralaya	-13733
▁afterwards	-13734
▁indicative	-13735
▁facilitating	-13736
▁neighbouring	-13737
▁shareholding	-13738
२२	-13739
cop	-13740
bert	-13741
ivas	-13742
olen	-13743
askar	-13744
ollen	-13745
RISHNA	-13746
▁bliss	-13747
▁capac	-13748
▁cheap	-13749
▁rupee	-13750
▁Altern	-13751
▁dollar	-13752
▁throat	-13753
▁washed	-13754
▁Tourism	-13755
▁Tripura	-13756
▁cordial	-13757
▁induced	-13758
▁Accident	-13759
▁Statutes	-13760
▁analysed	-13761
▁pressing	-13762
▁untenable	-13763
▁unreliable	-13764
▁altercation	-13765
gedy	-13766
ilee	-13767
▁Loh	-13768
▁Fate	-13769
▁NCTE	-13770
▁Goods	-13771
▁flesh	-13772
▁Hamachi	-13773
▁firearm	-13774
▁outward	-13775
▁planted	-13776
▁apposite	-13777
▁avoiding	-13778
▁inquired	-13779
▁Terrorism	-13780
▁defaulter	-13781
▁evaluated	-13782
▁Litigation	-13783
▁constituent	-13784
LD	-13785
▁ts	-13786
adha	-13787
rium	-13788
▁ANN	-13789
▁Cop	-13790
▁Pot	-13791
▁Kund	-13792
▁cock	-13793
▁Pipes	-13794
▁intox	-13795
▁urine	-13796
imental	-13797
▁Ashram	-13798
▁lights	-13799
▁License	-13800
▁Vietnam	-13801
▁implead	-13802
▁diabetes	-13803
▁inaction	-13804
▁spending	-13805
▁stronger	-13806
▁disciples	-13807
▁forgotten	-13808
▁systematic	-13809
▁Appointment	-13810
▁Recommendation	-13811
BH	-13812
rec	-13813
▁CF	-13814
fast	-13815
ihad	-13816
itha	-13817
▁ray	-13818
▁sli	-13819
adhar	-13820
▁Doct	-13821
itates	-13822
lacing	-13823
▁Areas	-13824
▁COURT	-13825
▁Saheb	-13826
▁demer	-13827
▁Accept	-13828
▁Sandeep	-13829
▁battery	-13830
▁dollars	-13831
▁unaided	-13832
▁exceeded	-13833
▁foremost	-13834
▁proposes	-13835
▁totality	-13836
▁Statutory	-13837
▁affording	-13838
▁perceived	-13839
▁delivering	-13840
▁misleading	-13841
▁consignment	-13842
NAT	-13843
▁Nok	-13844
▁SEZ	-13845
▁nic	-13846
▁pale	-13847
iscrim	-13848
▁cargo	-13849
▁trigg	-13850
▁Gandhar	-13851
▁Install	-13852
▁Manilal	-13853
▁Shastri	-13854
▁heinous	-13855
▁lacking	-13856
▁autonomy	-13857
▁magnetic	-13858
▁visitors	-13859
▁appraisal	-13860
▁worldwide	-13861
▁inordinate	-13862
▁fertilizers	-13863
▁specification	-13864
AA	-13865
eek	-13866
urg	-13867
▁--	-13868
▁DC	-13869
▁Rash	-13870
oucher	-13871
▁Sadar	-13872
▁calam	-13873
▁shame	-13874
▁ships	-13875
▁tribe	-13876
▁Khasra	-13877
▁Tehsil	-13878
▁Greater	-13879
▁Inspect	-13880
▁airport	-13881
▁handled	-13882
▁SARFAESI	-13883
▁stressed	-13884
▁enquiries	-13885
▁Submission	-13886
▁circulated	-13887
▁redemption	-13888
▁Immediately	-13889
▁disposition	-13890
▁nationalism	-13891
▁Communication	-13892
▁Implementation	-13893
kay	-13894
oqu	-13895
mani	-13896
▁Panj	-13897
▁ampl	-13898
▁jute	-13899
▁nest	-13900
▁noon	-13901
▁tone	-13902
▁abide	-13903
▁storm	-13904
▁Examin	-13905
▁Jordan	-13906
warranted	-13907
▁embodied	-13908
▁vicinity	-13909
▁Evolution	-13910
▁collusion	-13911
▁condemned	-13912
▁narrative	-13913
▁attributes	-13914
▁endeavours	-13915
▁unambiguous	-13916
▁inconvenience	-13917
xx	-13918
▁ip	-13919
born	-13920
ethe	-13921
▁Sao	-13922
▁bog	-13923
▁hub	-13924
arium	-13925
ulator	-13926
▁boost	-13927
▁dairy	-13928
▁colours	-13929
▁Buddhism	-13930
▁baseless	-13931
▁attribute	-13932
▁intestine	-13933
▁isolation	-13934
▁reiterate	-13935
▁Tahasildar	-13936
▁coordinate	-13937
▁Vivekananda	-13938
WA	-13939
▁Es	-13940
▁ME	-13941
AKSH	-13942
anag	-13943
mith	-13944
▁Kes	-13945
araja	-13946
owner	-13947
▁Rout	-13948
▁Send	-13949
▁unac	-13950
rishna	-13951
atience	-13952
▁TRANSP	-13953
▁hunger	-13954
▁commend	-13955
▁doubted	-13956
▁entrust	-13957
▁parting	-13958
▁provident	-13959
Gen	-13960
rics	-13961
▁PIN	-13962
▁VRS	-13963
anium	-13964
inees	-13965
▁Mass	-13966
▁Zila	-13967
▁erad	-13968
▁twin	-13969
▁Still	-13970
iration	-13971
▁Sudhir	-13972
▁micros	-13973
▁Advance	-13974
▁harness	-13975
▁researc	-13976
▁trivial	-13977
▁Memorial	-13978
▁ministry	-13979
▁spectrum	-13980
▁Initially	-13981
▁minorities	-13982
▁Maintenance	-13983
▁practicable	-13984
▁consolidation	-13985
AKA	-13986
thi	-13987
ahal	-13988
tier	-13989
▁API	-13990
▁Fig	-13991
▁rib	-13992
▁une	-13993
ankaj	-13994
▁chol	-13995
▁harb	-13996
▁hole	-13997
▁knee	-13998
▁lend	-13999
▁spur	-14000
▁lungs	-14001
▁Demand	-14002
▁Pramod	-14003
▁catena	-14004
▁drawer	-14005
▁virtual	-14006
▁clearing	-14007
▁emotions	-14008
▁numbered	-14009
▁dissatisf	-14010
▁disbelieved	-14011
▁transformed	-14012
▁expectations	-14013
▁IB	-14014
▁VS	-14015
deed	-14016
post	-14017
▁Bhu	-14018
▁Rig	-14019
heres	-14020
▁Hamas	-14021
▁Metro	-14022
▁remitt	-14023
▁Applying	-14024
▁Supervis	-14025
▁condoned	-14026
▁interval	-14027
▁increment	-14028
▁vegetable	-14029
▁Monitoring	-14030
▁candidature	-14031
▁unwarranted	-14032
▁upgradation	-14033
brid	-14034
etus	-14035
▁Lac	-14036
▁NRI	-14037
arted	-14038
▁MBBS	-14039
ponder	-14040
▁yards	-14041
ductive	-14042
▁Pillai	-14043
▁embarr	-14044
▁immort	-14045
▁oppose	-14046
▁pledge	-14047
▁ransom	-14048
▁conject	-14049
▁Europeans	-14050
▁nutrition	-14051
▁particles	-14052
▁prolonged	-14053
▁reopening	-14054
ITH	-14055
ATES	-14056
anqu	-14057
iler	-14058
ilst	-14059
▁Bik	-14060
▁Bhup	-14061
▁Dash	-14062
▁Maul	-14063
▁NIOS	-14064
▁agro	-14065
▁gram	-14066
▁lien	-14067
▁nurs	-14068
▁zeal	-14069
ardhan	-14070
ivance	-14071
ughter	-14072
venant	-14073
▁Coast	-14074
▁Karan	-14075
▁inacc	-14076
▁standi	-14077
▁summon	-14078
▁Courses	-14079
▁Jyotirm	-14080
▁lectures	-14081
▁stranger	-14082
▁Represent	-14083
▁Revolution	-14084
▁expiration	-14085
▁indefinite	-14086
▁reconstruction	-14087
GE	-14088
GS	-14089
pse	-14090
conn	-14091
qbal	-14092
▁DTA	-14093
▁lin	-14094
orate	-14095
▁Pond	-14096
▁Wing	-14097
▁drum	-14098
▁kids	-14099
adhyay	-14100
viable	-14101
▁Crown	-14102
▁overl	-14103
ructural	-14104
▁Asutosh	-14105
▁episode	-14106
▁upgrade	-14107
▁delegate	-14108
▁procured	-14109
▁earmarked	-14110
▁finalized	-14111
▁misplaced	-14112
▁provincial	-14113
▁Magistrates	-14114
▁Muzaffarpur	-14115
▁conflicting	-14116
▁Conciliation	-14117
▁recommending	-14118
▁reimbursement	-14119
cm	-14120
ARI	-14121
cot	-14122
imet	-14123
▁Cash	-14124
▁KIAD	-14125
▁Ankit	-14126
▁Emerg	-14127
▁Ratan	-14128
▁proxy	-14129
▁torch	-14130
General	-14131
▁losing	-14132
▁pulled	-14133
▁Brother	-14134
▁marital	-14135
▁poultry	-14136
▁intensive	-14137
▁Plaintiffs	-14138
▁connivance	-14139
▁Hum	-14140
▁Lee	-14141
▁Nit	-14142
▁SEL	-14143
▁Sex	-14144
▁aus	-14145
▁ink	-14146
▁Moti	-14147
▁Sarp	-14148
▁stro	-14149
itious	-14150
usalem	-14151
▁notew	-14152
▁Animal	-14153
▁tamper	-14154
▁coastal	-14155
▁inspite	-14156
▁Products	-14157
▁drawings	-14158
▁kilogram	-14159
▁moderate	-14160
▁salaries	-14161
▁Jerusalem	-14162
▁elephants	-14163
▁plausible	-14164
▁multiplier	-14165
▁meritorious	-14166
hee	-14167
▁ho	-14168
ette	-14169
▁Kul	-14170
▁gal	-14171
itius	-14172
▁Keep	-14173
▁Meal	-14174
▁Shat	-14175
▁cros	-14176
▁dent	-14177
▁Almast	-14178
▁Ground	-14179
▁Lolita	-14180
▁symbols	-14181
▁Festival	-14182
▁Madhubani	-14183
▁TRANSPORT	-14184
▁assistant	-14185
▁noteworthy	-14186
▁replacement	-14187
▁withdrawing	-14188
▁probabilities	-14189
TPA	-14190
zer	-14191
ante	-14192
olly	-14193
▁GDP	-14194
▁ISO	-14195
▁Miz	-14196
▁SIM	-14197
astra	-14198
endum	-14199
human	-14200
liers	-14201
▁Chaw	-14202
▁Chet	-14203
▁Film	-14204
▁Fold	-14205
▁Kach	-14206
▁Lala	-14207
▁Poet	-14208
▁SERV	-14209
▁stig	-14210
teenth	-14211
▁Frame	-14212
▁embry	-14213
▁incul	-14214
▁infant	-14215
▁sophist	-14216
▁confront	-14217
▁terrible	-14218
▁Exception	-14219
▁teachings	-14220
EB	-14221
JEE	-14222
ITED	-14223
abar	-14224
▁FTIL	-14225
▁unch	-14226
akshmi	-14227
▁Daily	-14228
olation	-14229
▁deadly	-14230
▁explan	-14231
umerable	-14232
▁artists	-14233
▁predict	-14234
unciation	-14235
▁dealings	-14236
▁linkages	-14237
▁monopoly	-14238
▁ambiguity	-14239
▁attracting	-14240
▁retrenchment	-14241
hik	-14242
▁PA	-14243
▁ld	-14244
igha	-14245
▁HON	-14246
atore	-14247
imity	-14248
oresh	-14249
▁BIFR	-14250
▁Bhoj	-14251
▁Kaush	-14252
▁gifts	-14253
▁tiger	-14254
▁typed	-14255
▁buried	-14256
▁routes	-14257
▁stolen	-14258
▁welcom	-14259
▁arrayed	-14260
▁seventh	-14261
▁PETITION	-14262
▁succeeds	-14263
▁agitation	-14264
▁selecting	-14265
▁adjournment	-14266
sey	-14267
voc	-14268
▁LL	-14269
asti	-14270
udev	-14271
▁Beh	-14272
▁Kha	-14273
▁MUK	-14274
▁imb	-14275
marks	-14276
▁Budh	-14277
▁SAYS	-14278
▁Same	-14279
▁clerk	-14280
▁digit	-14281
▁glaci	-14282
▁roles	-14283
▁waves	-14284
▁Chaluk	-14285
▁Dental	-14286
▁Summit	-14287
▁crafts	-14288
▁smoking	-14289
▁targets	-14290
▁Applicant	-14291
▁brilliant	-14292
▁estimates	-14293
▁Jyotirmath	-14294
▁concurrently	-14295
▁authoritative	-14296
▁inconsistency	-14297
Ps	-14298
INK	-14299
anny	-14300
otes	-14301
▁vel	-14302
▁NGOs	-14303
▁Subs	-14304
erving	-14305
▁Intro	-14306
▁Large	-14307
▁Puran	-14308
▁Dharma	-14309
▁cinema	-14310
▁mirror	-14311
▁uncert	-14312
▁centers	-14313
▁indulge	-14314
▁lasting	-14315
▁parking	-14316
▁Devendra	-14317
▁decrease	-14318
▁infected	-14319
▁prevents	-14320
▁Mauritius	-14321
▁favourite	-14322
▁furniture	-14323
▁specifying	-14324
▁succeeding	-14325
uis	-14326
▁Vr	-14327
anna	-14328
aryn	-14329
iraj	-14330
parte	-14331
▁NEET	-14332
called	-14333
▁camel	-14334
▁unreg	-14335
▁Mosque	-14336
▁horses	-14337
▁sevent	-14338
▁Between	-14339
▁vaginal	-14340
▁crystall	-14341
▁magazine	-14342
▁Affidavit	-14343
▁evidently	-14344
▁succumbed	-14345
▁depositing	-14346
▁hereditary	-14347
▁transplant	-14348
▁Cooperation	-14349
▁concealment	-14350
▁erroneously	-14351
OND	-14352
auc	-14353
▁Ox	-14354
iman	-14355
▁Dad	-14356
arial	-14357
▁pipe	-14358
▁guest	-14359
▁metic	-14360
irement	-14361
▁aggrav	-14362
▁counts	-14363
▁infect	-14364
imbatore	-14365
▁Workmen	-14366
▁critics	-14367
▁tractor	-14368
▁resigned	-14369
▁rotation	-14370
▁Relations	-14371
▁Wikipedia	-14372
▁hierarchy	-14373
▁scientist	-14374
▁nationalist	-14375
IAN	-14376
lad	-14377
ansi	-14378
teen	-14379
▁PAR	-14380
▁mes	-14381
eline	-14382
▁Nokia	-14383
▁grows	-14384
▁naked	-14385
▁ninet	-14386
▁rider	-14387
▁smugg	-14388
ampered	-14389
uscript	-14390
▁Garden	-14391
▁Kittur	-14392
▁Sunita	-14393
▁themes	-14394
▁Vehicle	-14395
▁renders	-14396
▁tribute	-14397
▁Sarojini	-14398
▁clothing	-14399
▁shopping	-14400
▁welcomed	-14401
▁assembled	-14402
▁providers	-14403
▁Coimbatore	-14404
▁cancelling	-14405
▁impediment	-14406
▁sanctioning	-14407
▁unjustified	-14408
▁overwhelming	-14409
cotic	-14410
least	-14411
▁Heav	-14412
▁Pant	-14413
▁obey	-14414
asaheb	-14415
▁Youth	-14416
▁pests	-14417
▁Rohtas	-14418
▁ceases	-14419
▁condone	-14420
▁refunded	-14421
▁Presently	-14422
▁intending	-14423
▁depression	-14424
▁linguistic	-14425
▁scholarship	-14426
▁Professional	-14427
▁inflammation	-14428
ASS	-14429
isk	-14430
▁IM	-14431
Tube	-14432
apse	-14433
▁Gal	-14434
▁ank	-14435
▁cab	-14436
▁cel	-14437
anish	-14438
▁Mian	-14439
▁Farid	-14440
assador	-14441
▁evolve	-14442
▁Relying	-14443
▁restaur	-14444
▁washing	-14445
▁Universal	-14446
▁paintings	-14447
▁subsistence	-14448
▁Consultation	-14449
can	-14450
ania	-14451
avur	-14452
▁HIV	-14453
▁Meer	-14454
▁Prop	-14455
▁ours	-14456
ritsar	-14457
▁Bhagav	-14458
▁Option	-14459
▁copper	-14460
▁lapses	-14461
▁roster	-14462
▁Citizens	-14463
▁aesthetic	-14464
▁companion	-14465
▁Literature	-14466
▁cigarettes	-14467
▁insecticides	-14468
▁specifications	-14469
▁superintendence	-14470
IO	-14471
.--	-14472
iro	-14473
▁AID	-14474
▁PDF	-14475
olish	-14476
▁alph	-14477
▁onto	-14478
▁trip	-14479
atible	-14480
▁boxes	-14481
▁moist	-14482
▁enjoin	-14483
piratory	-14484
▁cabinet	-14485
▁offline	-14486
▁refuses	-14487
▁Backward	-14488
▁Sarpanch	-14489
▁acquaint	-14490
▁ancillary	-14491
▁formulate	-14492
▁Assistance	-14493
▁capacities	-14494
▁intermediate	-14495
▁reservations	-14496
▁unconditional	-14497
Ind	-14498
appy	-14499
ball	-14500
▁Wal	-14501
▁Swed	-14502
▁brah	-14503
appeal	-14504
▁Incre	-14505
▁bonus	-14506
▁Delete	-14507
▁Sunder	-14508
▁academ	-14509
▁filter	-14510
▁heights	-14511
▁resides	-14512
▁worried	-14513
idespread	-14514
▁eighteen	-14515
▁noticing	-14516
▁prestige	-14517
▁Different	-14518
▁Emergency	-14519
▁ambulance	-14520
▁possesses	-14521
▁surprised	-14522
▁liquidator	-14523
TO	-14524
ULT	-14525
▁Ky	-14526
▁PB	-14527
▁Ro	-14528
▁SM	-14529
orph	-14530
oven	-14531
▁Was	-14532
▁rum	-14533
▁RERA	-14534
▁jeep	-14535
racted	-14536
▁Iqbal	-14537
▁Choose	-14538
▁minded	-14539
▁equated	-14540
▁freight	-14541
▁promiss	-14542
▁tragedy	-14543
▁wedding	-14544
▁terminating	-14545
▁complainants	-14546
UF	-14547
inth	-14548
list	-14549
uate	-14550
▁Apr	-14551
▁Bay	-14552
▁Kum	-14553
ercul	-14554
isons	-14555
orily	-14556
▁Decc	-14557
▁User	-14558
▁gran	-14559
▁kick	-14560
ispens	-14561
ubilee	-14562
▁Zonal	-14563
▁hindi	-14564
▁relinqu	-14565
▁delicate	-14566
▁militant	-14567
▁throwing	-14568
▁Religious	-14569
▁preponder	-14570
▁rectified	-14571
▁attempting	-14572
▁liquidated	-14573
▁propounded	-14574
▁Proceedings	-14575
▁utilisation	-14576
OSS	-14577
VAT	-14578
las	-14579
▁BJ	-14580
▁Kr	-14581
leep	-14582
▁DEP	-14583
▁Dog	-14584
[...]
