<unk>	0
<s>	0
</s>	0
UuRrLl	0
DdAaTtEe	0
NnUuMm	0
▁t	-0
he	-1
▁a	-2
in	-3
▁o	-4
▁the	-5
re	-6
on	-7
▁s	-8
er	-9
at	-10
en	-11
▁.	-12
is	-13
▁of	-14
nd	-15
▁,	-16
▁c	-17
▁w	-18
it	-19
▁p	-20
es	-21
al	-22
▁b	-23
an	-24
ed	-25
or	-26
▁in	-27
▁f	-28
ar	-29
ion	-30
ou	-31
ing	-32
▁m	-33
▁to	-34
▁and	-35
ic	-36
▁d	-37
as	-38
▁h	-39
ent	-40
le	-41
ro	-42
▁th	-43
ct	-44
▁T	-45
▁I	-46
▁re	-47
▁n	-48
▁S	-49
▁e	-50
os	-51
om	-52
il	-53
▁be	-54
▁l	-55
▁A	-56
ve	-57
▁is	-58
ation	-59
us	-60
ut	-61
ot	-62
ap	-63
▁g	-64
▁C	-65
ce	-66
im	-67
id	-68
ur	-69
▁&	-70
am	-71
ad	-72
▁for	-73
ly	-74
▁P	-75
▁The	-76
et	-77
▁on	-78
▁-	-79
ver	-80
ol	-81
ch	-82
ay	-83
▁M	-84
ment	-85
ri	-86
st	-87
ow	-88
ir	-89
▁that	-90
▁or	-91
▁B	-92
▁as	-93
▁pro	-94
ul	-95
el	-96
▁wh	-97
▁con	-98
▁an	-99
apos	-100
▁st	-101
her	-102
ig	-103
▁it	-104
ith	-105
ra	-106
▁u	-107
ter	-108
▁R	-109
ate	-110
▁al	-111
▁H	-112
ab	-113
ect	-114
▁y	-115
ess	-116
▁de	-117
if	-118
▁with	-119
ge	-120
▁su	-121
▁D	-122
▁by	-123
▁he	-124
res	-125
▁(	-126
▁)	-127
ist	-128
ers	-129
od	-130
▁was	-131
our	-132
▁are	-133
qu	-134
▁G	-135
ak	-136
ld	-137
ity	-138
▁com	-139
and	-140
▁v	-141
op	-142
▁not	-143
▁ex	-144
▁N	-145
em	-146
ill	-147
ere	-148
iv	-149
nt	-150
ain	-151
um	-152
est	-153
ci	-154
ant	-155
se	-156
▁sh	-157
▁W	-158
ive	-159
▁at	-160
▁Ind	-161
art	-162
▁this	-163
ort	-164
ave	-165
pp	-166
ich	-167
▁E	-168
rom	-169
▁L	-170
ia	-171
ht	-172
ore	-173
ure	-174
ies	-175
end	-176
▁which	-177
ac	-178
ud	-179
un	-180
▁se	-181
▁O	-182
▁from	-183
all	-184
▁F	-185
th	-186
ust	-187
▁has	-188
▁have	-189
▁ne	-190
▁In	-191
▁k	-192
ould	-193
▁r	-194
▁his	-195
▁K	-196
▁le	-197
ous	-198
▁ch	-199
ther	-200
ard	-201
▁:	-202
ions	-203
ag	-204
▁you	-205
ind	-206
▁we	-207
▁sp	-208
▁wor	-209
cc	-210
age	-211
▁all	-212
ome	-213
▁J	-214
▁int	-215
ated	-216
ry	-217
▁India	-218
▁im	-219
pt	-220
ance	-221
ice	-222
red	-223
ount	-224
▁comp	-225
▁so	-226
▁j	-227
ans	-228
▁pl	-229
ff	-230
able	-231
▁ad	-232
▁U	-233
hi	-234
▁can	-235
av	-236
ary	-237
▁us	-238
nder	-239
rou	-240
ence	-241
▁ab	-242
over	-243
ical	-244
so	-245
▁any	-246
ong	-247
ear	-248
ep	-249
oc	-250
ast	-251
▁en	-252
▁Th	-253
▁app	-254
ult	-255
▁whe	-256
▁res	-257
og	-258
ru	-259
▁cont	-260
▁dis	-261
▁me	-262
ish	-263
▁un	-264
▁per	-265
▁other	-266
pl	-267
ell	-268
▁It	-269
▁under	-270
▁V	-271
per	-272
ction	-273
ide	-274
ial	-275
▁its	-276
▁their	-277
▁will	-278
▁man	-279
▁St	-280
▁been	-281
▁inc	-282
ost	-283
out	-284
du	-285
gh	-286
▁one	-287
ame	-288
▁part	-289
vel	-290
ub	-291
ations	-292
ik	-293
ok	-294
▁;	-295
▁ag	-296
ine	-297
ie	-298
▁also	-299
ang	-300
ib	-301
iz	-302
▁/	-303
▁had	-304
▁tr	-305
ime	-306
▁do	-307
overn	-308
orm	-309
▁there	-310
act	-311
ase	-312
rit	-313
ress	-314
ection	-315
▁who	-316
lic	-317
▁imp	-318
▁up	-319
▁ar	-320
▁out	-321
ood	-322
▁but	-323
▁cl	-324
are	-325
ian	-326
ire	-327
ight	-328
▁Ch	-329
ition	-330
ual	-331
▁were	-332
▁”	-333
cial	-334
ail	-335
ach	-336
▁He	-337
ose	-338
ourt	-339
very	-340
ght	-341
▁such	-342
one	-343
▁am	-344
▁ind	-345
aw	-346
▁pe	-347
▁sub	-348
ade	-349
▁prov	-350
ass	-351
erv	-352
▁“	-353
▁year	-354
ue	-355
ake	-356
▁they	-357
▁acc	-358
▁comm	-359
▁Com	-360
▁our	-361
ber	-362
▁may	-363
ord	-364
ec	-365
ident	-366
▁rel	-367
overnment	-368
ign	-369
aus	-370
ater	-371
ree	-372
▁them	-373
ace	-374
ational	-375
ory	-376
ens	-377
ah	-378
▁off	-379
ric	-380
ution	-381
▁no	-382
ious	-383
stit	-384
▁qu	-385
now	-386
iss	-387
▁time	-388
erson	-389
▁pre	-390
▁This	-391
ings	-392
aj	-393
ee	-394
▁cons	-395
ities	-396
form	-397
▁ev	-398
ces	-399
▁work	-400
▁Sh	-401
aid	-402
▁him	-403
tern	-404
ike	-405
ople	-406
▁?	-407
ath	-408
▁tw	-409
▁te	-410
▁Y	-411
ack	-412
ove	-413
itt	-414
▁As	-415
hed	-416
rib	-417
▁more	-418
▁bec	-419
▁should	-420
▁person	-421
reat	-422
▁would	-423
ip	-424
▁rec	-425
▁reg	-426
▁count	-427
amp	-428
▁%	-429
▁em	-430
ays	-431
int	-432
fter	-433
▁po	-434
▁people	-435
low	-436
ild	-437
▁Act	-438
▁only	-439
velop	-440
ject	-441
▁act	-442
ank	-443
ause	-444
▁if	-445
pe	-446
▁pol	-447
▁ass	-448
▁some	-449
oy	-450
▁about	-451
▁know	-452
ments	-453
ite	-454
▁like	-455
▁into	-456
ound	-457
ond	-458
elf	-459
▁exp	-460
ook	-461
ates	-462
▁new	-463
lect	-464
▁Comm	-465
▁over	-466
ied	-467
ile	-468
fere	-469
cess	-470
▁sc	-471
▁Court	-472
row	-473
ise	-474
ark	-475
▁form	-476
▁these	-477
▁ri	-478
▁your	-479
▁pr	-480
fore	-481
▁Con	-482
ife	-483
ram	-484
▁when	-485
ced	-486
me	-487
▁Pro	-488
▁made	-489
ert	-490
ific	-491
▁two	-492
ng	-493
▁dec	-494
▁go	-495
igh	-496
▁sy	-497
▁Government	-498
vers	-499
ll	-500
▁’	-501
▁shall	-502
▁pres	-503
▁her	-504
ative	-505
▁ro	-506
▁Indian	-507
▁ob	-508
▁fe	-509
old	-510
▁State	-511
erm	-512
▁fir	-513
ublic	-514
▁Un	-515
▁ac	-516
ally	-517
▁resp	-518
ism	-519
▁than	-520
ha	-521
ating	-522
ness	-523
▁att	-524
▁rep	-525
▁An	-526
ward	-527
ors	-528
▁develop	-529
▁bet	-530
▁trans	-531
▁ent	-532
rough	-533
uc	-534
▁rem	-535
▁dif	-536
ful	-537
eg	-538
een	-539
ission	-540
▁my	-541
ener	-542
▁being	-543
ular	-544
cy	-545
▁inv	-546
▁Pr	-547
▁said	-548
ov	-549
ower	-550
▁through	-551
quot	-552
▁Bh	-553
▁after	-554
uring	-555
ered	-556
▁De	-557
▁But	-558
arm	-559
▁We	-560
uth	-561
▁eff	-562
led	-563
▁des	-564
gan	-565
▁And	-566
ax	-567
▁cent	-568
▁produ	-569
hy	-570
▁where	-571
▁life	-572
li	-573
ning	-574
▁pos	-575
wn	-576
▁sec	-577
ty	-578
stem	-579
▁country	-580
▁years	-581
olog	-582
ob	-583
ink	-584
als	-585
▁Pres	-586
ons	-587
▁So	-588
▁again	-589
lud	-590
ible	-591
▁first	-592
▁serv	-593
und	-594
▁col	-595
▁Ex	-596
ility	-597
ural	-598
ati	-599
ature	-600
der	-601
ents	-602
ne	-603
ract	-604
up	-605
ange	-606
te	-607
▁right	-608
cept	-609
ft	-610
▁very	-611
▁law	-612
▁There	-613
▁set	-614
▁what	-615
▁ra	-616
▁ins	-617
fer	-618
oth	-619
▁world	-620
▁could	-621
ral	-622
rap	-623
its	-624
ision	-625
any	-626
lt	-627
ict	-628
▁need	-629
▁President	-630
ari	-631
ited	-632
ble	-633
▁get	-634
▁call	-635
▁well	-636
▁op	-637
▁must	-638
▁dist	-639
▁pur	-640
▁bl	-641
other	-642
con	-643
▁mem	-644
▁ed	-645
▁num	-646
hen	-647
ided	-648
air	-649
▁add	-650
▁bas	-651
▁giv	-652
▁system	-653
urn	-654
▁case	-655
▁just	-656
les	-657
gt	-658
▁Is	-659
pos	-660
aking	-661
▁good	-662
▁spe	-663
ices	-664
ween	-665
hip	-666
▁ext	-667
▁many	-668
▁mat	-669
eth	-670
▁before	-671
▁includ	-672
▁even	-673
▁requ	-674
irect	-675
▁cap	-676
▁between	-677
▁If	-678
▁then	-679
stitut	-680
iew	-681
inal	-682
▁writ	-683
ised	-684
▁fol	-685
ily	-686
▁used	-687
▁char	-688
▁prog	-689
ures	-690
▁import	-691
uch	-692
▁Hind	-693
pport	-694
ters	-695
chn	-696
▁Am	-697
own	-698
ef	-699
ries	-700
ough	-701
▁co	-702
▁ke	-703
ash	-704
▁min	-705
▁tra	-706
ren	-707
ital	-708
▁differe	-709
oun	-710
▁see	-711
ix	-712
stitution	-713
▁make	-714
▁how	-715
▁child	-716
▁sm	-717
round	-718
▁def	-719
▁public	-720
▁every	-721
▁section	-722
formation	-723
▁own	-724
▁mon	-725
▁long	-726
ages	-727
▁day	-728
▁val	-729
uthor	-730
▁inst	-731
▁most	-732
app	-733
▁&#	-734
ved	-735
ody	-736
▁inf	-737
▁use	-738
▁end	-739
hes	-740
▁mod	-741
▁way	-742
iness	-743
▁lar	-744
▁she	-745
ivers	-746
▁Min	-747
▁gener	-748
▁They	-749
▁i	-750
▁follow	-751
ple	-752
▁great	-753
▁same	-754
▁state	-755
▁Ar	-756
ouse	-757
ety	-758
ana	-759
ern	-760
▁For	-761
▁adv	-762
▁equ	-763
aint	-764
xt	-765
ished	-766
▁power	-767
▁car	-768
▁now	-769
ever	-770
ruct	-771
▁inter	-772
imes	-773
ven	-774
▁conc	-775
▁hel	-776
▁Cent	-777
▁process	-778
conom	-779
▁organ	-780
▁bu	-781
▁Ad	-782
arli	-783
▁br	-784
▁take	-785
▁disc	-786
ks	-787
istr	-788
ality	-789
▁place	-790
gg	-791
erest	-792
▁order	-793
lim	-794
▁pass	-795
alth	-796
arch	-797
▁number	-798
▁fact	-799
icial	-800
▁You	-801
eng	-802
hat	-803
▁because	-804
▁av	-805
▁hum	-806
ars	-807
tic	-808
esh	-809
iod	-810
bers	-811
ament	-812
angu	-813
▁present	-814
▁partic	-815
▁Ne	-816
▁indust	-817
▁against	-818
▁during	-819
▁fl	-820
▁stud	-821
▁development	-822
ention	-823
▁det	-824
▁dem	-825
▁help	-826
▁fam	-827
▁educ	-828
▁dep	-829
▁gr	-830
▁consid	-831
▁those	-832
ired	-833
man	-834
▁back	-835
▁On	-836
▁lead	-837
▁did	-838
rop	-839
▁ret	-840
min	-841
▁Commission	-842
▁leg	-843
▁hand	-844
ified	-845
ined	-846
▁here	-847
ingh	-848
ata	-849
ics	-850
▁different	-851
▁interest	-852
▁period	-853
▁med	-854
▁account	-855
ives	-856
ants	-857
▁occ	-858
▁court	-859
▁Al	-860
ology	-861
▁sur	-862
▁econom	-863
ared	-864
▁est	-865
ases	-866
ds	-867
lish	-868
▁tak	-869
▁grow	-870
▁jud	-871
▁conf	-872
ron	-873
▁bus	-874
get	-875
ting	-876
ists	-877
▁found	-878
han	-879
ted	-880
ner	-881
ick	-882
▁three	-883
▁iss	-884
ya	-885
▁loc	-886
way	-887
▁fore	-888
▁No	-889
▁To	-890
au	-891
ale	-892
▁term	-893
tc	-894
▁Mah	-895
▁called	-896
ai	-897
ained	-898
ploy	-899
▁author	-900
ency	-901
▁both	-902
▁effect	-903
▁does	-904
ten	-905
▁pay	-906
▁down	-907
arn	-908
ather	-909
▁mark	-910
read	-911
ually	-912
▁fin	-913
ides	-914
roup	-915
ull	-916
▁National	-917
▁water	-918
oint	-919
▁&#9	-920
▁cor	-921
▁cert	-922
▁bel	-923
▁comple	-924
ues	-925
▁Mus	-926
▁cre	-927
▁respect	-928
▁gu	-929
▁etc	-930
RB	-931
▁government	-932
▁rece	-933
▁start	-934
▁given	-935
▁techn	-936
ister	-937
ES	-938
ork	-939
rict	-940
ination	-941
▁commun	-942
ck	-943
▁contin	-944
uk	-945
▁langu	-946
riv	-947
ool	-948
▁high	-949
▁var	-950
ph	-951
▁name	-952
nce	-953
ros	-954
▁ph	-955
▁Ram	-956
▁poss	-957
reme	-958
▁str	-959
▁aff	-960
▁wom	-961
ince	-962
less	-963
▁direct	-964
▁view	-965
▁spec	-966
▁applic	-967
▁cond	-968
▁oper	-969
▁‘	-970
ute	-971
icy	-972
▁want	-973
ock	-974
▁much	-975
▁without	-976
not	-977
▁ref	-978
▁sect	-979
▁Raj	-980
▁Re	-981
blem	-982
ceed	-983
▁means	-984
day	-985
▁each	-986
ici	-987
▁important	-988
▁del	-989
▁program	-990
▁gl	-991
▁information	-992
▁look	-993
▁let	-994
▁Singh	-995
erg	-996
▁prev	-997
▁read	-998
iel	-999
▁fac	-1000
har	-1001
isions	-1002
▁human	-1003
por	-1004
▁sim	-1005
▁small	-1006
▁High	-1007
▁book	-1008
▁som	-1009
orts	-1010
ines	-1011
▁All	-1012
▁amount	-1013
here	-1014
▁dev	-1015
▁problem	-1016
▁Shri	-1017
▁gre	-1018
▁Man	-1019
lement	-1020
▁ty	-1021
▁within	-1022
ges	-1023
▁body	-1024
▁social	-1025
▁sign	-1026
▁Eng	-1027
▁Rep	-1028
ived	-1029
▁avail	-1030
gin	-1031
▁fun	-1032
▁business	-1033
▁mar	-1034
▁come	-1035
▁stand	-1036
▁prof	-1037
▁ser	-1038
▁polit	-1039
az	-1040
▁0	-1041
▁..	-1042
▁proper	-1043
aving	-1044
▁cult	-1045
af	-1046
ets	-1047
▁incre	-1048
▁stre	-1049
ized	-1050
iter	-1051
▁tem	-1052
crib	-1053
▁invest	-1054
▁point	-1055
▁ide	-1056
▁relig	-1057
▁Te	-1058
▁At	-1059
▁various	-1060
med	-1061
▁vis	-1062
ected	-1063
ror	-1064
ivid	-1065
▁bank	-1066
lam	-1067
▁play	-1068
▁happ	-1069
pr	-1070
▁che	-1071
▁Off	-1072
rol	-1073
▁fil	-1074
self	-1075
▁exper	-1076
EN	-1077
ains	-1078
▁cle	-1079
▁large	-1080
▁last	-1081
arly	-1082
wards	-1083
▁Dep	-1084
▁say	-1085
▁sch	-1086
reed	-1087
▁Ass	-1088
asht	-1089
▁think	-1090
ought	-1091
▁taken	-1092
▁Muslim	-1093
▁another	-1094
ession	-1095
ining	-1096
▁support	-1097
▁employ	-1098
▁Jud	-1099
ret	-1100
▁Res	-1101
▁group	-1102
▁soci	-1103
▁quest	-1104
▁times	-1105
▁...	-1106
▁assess	-1107
▁cr	-1108
ways	-1109
▁Central	-1110
▁education	-1111
▁cur	-1112
▁known	-1113
ended	-1114
▁!	-1115
ulation	-1116
▁Sc	-1117
ason	-1118
ense	-1119
rial	-1120
▁When	-1121
▁real	-1122
▁mind	-1123
▁while	-1124
ternal	-1125
▁land	-1126
ically	-1127
▁open	-1128
▁activ	-1129
▁How	-1130
ried	-1131
itions	-1132
▁result	-1133
▁company	-1134
ances	-1135
▁level	-1136
stand	-1137
▁ve	-1138
ferred	-1139
▁income	-1140
olution	-1141
uss	-1142
arliament	-1143
▁estab	-1144
irc	-1145
▁appro	-1146
ize	-1147
▁prom	-1148
bs	-1149
▁find	-1150
eration	-1151
▁prot	-1152
▁month	-1153
ization	-1154
ves	-1155
▁move	-1156
▁going	-1157
▁national	-1158
ething	-1159
▁days	-1160
▁Or	-1161
▁allow	-1162
▁rev	-1163
riend	-1164
▁Se	-1165
ivil	-1166
▁beh	-1167
▁elect	-1168
ased	-1169
cil	-1170
na	-1171
▁cannot	-1172
port	-1173
▁wind	-1174
▁ter	-1175
▁OF	-1176
ittee	-1177
ption	-1178
ER	-1179
▁necess	-1180
▁language	-1181
ternational	-1182
ledge	-1183
▁non	-1184
ering	-1185
urther	-1186
ium	-1187
land	-1188
▁These	-1189
▁pop	-1190
▁members	-1191
ccess	-1192
▁subject	-1193
▁health	-1194
▁give	-1195
oard	-1196
lished	-1197
▁meet	-1198
par	-1199
▁special	-1200
ording	-1201
▁less	-1202
▁old	-1203
▁lim	-1204
omm	-1205
ON	-1206
▁rest	-1207
▁sci	-1208
ential	-1209
▁show	-1210
ately	-1211
▁{	-1212
▁children	-1213
▁policy	-1214
ued	-1215
▁ben	-1216
▁particular	-1217
ug	-1218
ability	-1219
pect	-1220
▁pract	-1221
▁div	-1222
▁}	-1223
▁four	-1224
onment	-1225
▁Q	-1226
ran	-1227
▁bro	-1228
artment	-1229
▁—	-1230
▁Sup	-1231
▁exist	-1232
▁class	-1233
▁available	-1234
isation	-1235
ala	-1236
atic	-1237
▁Mr	-1238
▁What	-1239
▁certain	-1240
▁Tr	-1241
ising	-1242
ither	-1243
alf	-1244
inci	-1245
ged	-1246
ajor	-1247
▁main	-1248
▁sk	-1249
ts	-1250
section	-1251
work	-1252
ote	-1253
ury	-1254
iversity	-1255
▁ori	-1256
▁death	-1257
▁Rs	-1258
avan	-1259
▁Brit	-1260
ference	-1261
▁States	-1262
▁came	-1263
▁common	-1264
▁hist	-1265
ator	-1266
▁among	-1267
▁friend	-1268
▁Del	-1269
▁sit	-1270
ode	-1271
▁countries	-1272
▁today	-1273
put	-1274
▁regard	-1275
ara	-1276
TI	-1277
▁accept	-1278
▁cost	-1279
▁PR	-1280
▁service	-1281
▁sent	-1282
▁become	-1283
ross	-1284
▁She	-1285
▁hig	-1286
ouncil	-1287
▁fund	-1288
▁head	-1289
ification	-1290
▁dra	-1291
ules	-1292
oney	-1293
ministr	-1294
▁too	-1295
▁Gu	-1296
▁including	-1297
oss	-1298
ery	-1299
▁conn	-1300
▁product	-1301
▁lo	-1302
isl	-1303
▁Supreme	-1304
ividual	-1305
▁action	-1306
▁comput	-1307
▁free	-1308
▁sche	-1309
▁His	-1310
▁whole	-1311
▁war	-1312
▁App	-1313
ND	-1314
itted	-1315
▁due	-1316
▁cases	-1317
▁Sec	-1318
ructure	-1319
outh	-1320
duct	-1321
ateg	-1322
▁matter	-1323
▁self	-1324
▁put	-1325
▁services	-1326
▁project	-1327
▁done	-1328
▁provisions	-1329
▁Gand	-1330
▁Ag	-1331
ma	-1332
▁list	-1333
▁tre	-1334
ware	-1335
▁met	-1336
▁object	-1337
AR	-1338
▁area	-1339
▁family	-1340
▁care	-1341
▁something	-1342
▁economic	-1343
▁trad	-1344
cing	-1345
▁individual	-1346
uty	-1347
▁upon	-1348
▁major	-1349
▁tax	-1350
tal	-1351
ancial	-1352
▁sw	-1353
▁Islam	-1354
▁vill	-1355
▁charact	-1356
▁respons	-1357
ently	-1358
▁build	-1359
▁political	-1360
▁Constitution	-1361
otion	-1362
▁chang	-1363
aim	-1364
▁belie	-1365
sel	-1366
cl	-1367
▁Parliament	-1368
▁far	-1369
▁Pl	-1370
▁New	-1371
ali	-1372
▁society	-1373
idence	-1374
agement	-1375
▁second	-1376
▁poet	-1377
soci	-1378
▁women	-1379
▁Section	-1380
▁net	-1381
vir	-1382
▁liter	-1383
▁success	-1384
ule	-1385
▁value	-1386
ield	-1387
▁areas	-1388
▁provide	-1389
▁based	-1390
att	-1391
▁institut	-1392
▁express	-1393
irit	-1394
▁Reg	-1395
▁ask	-1396
▁Delhi	-1397
eal	-1398
▁vi	-1399
▁const	-1400
alk	-1401
▁capital	-1402
▁knowledge	-1403
▁plan	-1404
ling	-1405
▁men	-1406
▁food	-1407
▁house	-1408
▁supp	-1409
▁repres	-1410
ending	-1411
▁God	-1412
adesh	-1413
pose	-1414
▁Committee	-1415
ID	-1416
eric	-1417
▁expl	-1418
▁rele	-1419
orth	-1420
▁keep	-1421
lection	-1422
ticle	-1423
▁best	-1424
ilities	-1425
icer	-1426
▁nature	-1427
▁provided	-1428
▁circ	-1429
cies	-1430
osed	-1431
ify	-1432
ilit	-1433
urity	-1434
ricult	-1435
ys	-1436
▁Bhavan	-1437
▁further	-1438
▁change	-1439
▁eng	-1440
▁making	-1441
ples	-1442
▁left	-1443
▁concern	-1444
iqu	-1445
oh	-1446
▁words	-1447
▁British	-1448
▁_	-1449
▁init	-1450
icult	-1451
ems	-1452
▁necessary	-1453
ourse	-1454
▁away	-1455
▁benef	-1456
▁few	-1457
aining	-1458
ogn	-1459
▁That	-1460
▁held	-1461
▁control	-1462
chie	-1463
▁Gandhi	-1464
▁Dr	-1465
▁par	-1466
▁Rasht	-1467
▁Pol	-1468
▁One	-1469
▁reason	-1470
▁date	-1471
▁window	-1472
ittle	-1473
hys	-1474
▁market	-1475
▁English	-1476
▁run	-1477
▁always	-1478
ences	-1479
▁kind	-1480
▁hold	-1481
▁Bank	-1482
▁having	-1483
▁mill	-1484
▁heart	-1485
▁question	-1486
▁whether	-1487
ins	-1488
raph	-1489
▁following	-1490
▁mus	-1491
▁still	-1492
▁En	-1493
epend	-1494
▁Council	-1495
iver	-1496
▁Sub	-1497
▁sol	-1498
iding	-1499
▁five	-1500
vironment	-1501
▁thought	-1502
▁school	-1503
▁el	-1504
▁full	-1505
▁proceed	-1506
▁Beng	-1507
▁spirit	-1508
▁x	-1509
▁age	-1510
▁feel	-1511
ope	-1512
idd	-1513
ior	-1514
▁mater	-1515
▁Hindi	-1516
▁Hindu	-1517
▁required	-1518
rapati	-1519
▁foreign	-1520
ories	-1521
▁Acc	-1522
emb	-1523
▁things	-1524
▁Ab	-1525
▁Law	-1526
▁growth	-1527
mes	-1528
▁young	-1529
▁address	-1530
▁sl	-1531
▁sector	-1532
oura	-1533
▁application	-1534
▁light	-1535
▁deal	-1536
thing	-1537
iction	-1538
▁Rashtrapati	-1539
▁impro	-1540
▁little	-1541
▁Cong	-1542
▁money	-1543
▁possible	-1544
▁mean	-1545
▁sat	-1546
ards	-1547
ured	-1548
▁ann	-1549
▁data	-1550
▁above	-1551
▁himself	-1552
▁bir	-1553
iving	-1554
▁return	-1555
rent	-1556
▁perform	-1557
▁sever	-1558
▁meas	-1559
▁total	-1560
▁later	-1561
ience	-1562
▁achie	-1563
▁suff	-1564
▁Pre	-1565
▁gra	-1566
ita	-1567
▁obs	-1568
▁itself	-1569
▁After	-1570
▁contrib	-1571
▁Americ	-1572
ENT	-1573
pecial	-1574
orn	-1575
▁purpose	-1576
uation	-1577
ises	-1578
cribed	-1579
▁never	-1580
▁report	-1581
ication	-1582
▁art	-1583
ember	-1584
▁others	-1585
▁exam	-1586
▁clause	-1587
umar	-1588
▁diff	-1589
▁eas	-1590
AL	-1591
▁Prov	-1592
▁function	-1593
ration	-1594
ours	-1595
come	-1596
io	-1597
▁towards	-1598
bit	-1599
▁bre	-1600
▁Department	-1601
pportun	-1602
▁industry	-1603
ats	-1604
ources	-1605
▁Serv	-1606
▁love	-1607
▁plac	-1608
cious	-1609
▁ii	-1610
istry	-1611
1;	-1612
▁&#91;	-1613
▁short	-1614
▁record	-1615
ibility	-1616
akh	-1617
▁Union	-1618
▁local	-1619
▁position	-1620
▁ord	-1621
▁Congress	-1622
used	-1623
▁several	-1624
ees	-1625
▁mult	-1626
▁ple	-1627
HE	-1628
▁persons	-1629
▁rese	-1630
▁relations	-1631
▁princi	-1632
▁ens	-1633
▁turn	-1634
▁propos	-1635
▁dise	-1636
osp	-1637
asion	-1638
▁opportun	-1639
▁since	-1640
akes	-1641
ively	-1642
▁civil	-1643
▁material	-1644
▁tru	-1645
pur	-1646
▁character	-1647
uro	-1648
▁RRB	-1649
▁stat	-1650
redit	-1651
▁around	-1652
▁Chand	-1653
▁represent	-1654
ready	-1655
▁es	-1656
▁six	-1657
▁ident	-1658
▁financial	-1659
▁air	-1660
▁Develop	-1661
3;	-1662
▁Me	-1663
▁&#93;	-1664
▁University	-1665
▁Le	-1666
▁understand	-1667
▁er	-1668
ocu	-1669
▁thir	-1670
ta	-1671
▁mess	-1672
▁priv	-1673
ann	-1674
▁post	-1675
▁maint	-1676
▁complete	-1677
▁referred	-1678
▁Z	-1679
▁ir	-1680
▁hard	-1681
▁either	-1682
▁took	-1683
▁administr	-1684
ony	-1685
▁production	-1686
AN	-1687
lu	-1688
▁Gener	-1689
▁appoint	-1690
etition	-1691
anch	-1692
imal	-1693
▁streng	-1694
▁don	-1695
▁With	-1696
▁already	-1697
▁Minister	-1698
▁office	-1699
ample	-1700
▁difficult	-1701
itional	-1702
▁decl	-1703
▁therefore	-1704
▁invol	-1705
▁region	-1706
reedom	-1707
▁course	-1708
ethod	-1709
▁nat	-1710
▁pat	-1711
▁type	-1712
▁treat	-1713
ustom	-1714
▁plant	-1715
of	-1716
▁progress	-1717
▁fail	-1718
selves	-1719
ani	-1720
arat	-1721
sh	-1722
ggest	-1723
umb	-1724
▁sing	-1725
▁fa	-1726
▁Col	-1727
▁sum	-1728
▁dom	-1729
ource	-1730
alc	-1731
▁LRB	-1732
▁home	-1733
erc	-1734
▁quality	-1735
▁Em	-1736
▁Pradesh	-1737
ably	-1738
▁rate	-1739
▁higher	-1740
amb	-1741
jee	-1742
▁enc	-1743
▁able	-1744
rought	-1745
aring	-1746
▁Be	-1747
▁fut	-1748
▁Just	-1749
els	-1750
▁however	-1751
▁ver	-1752
▁recogn	-1753
rah	-1754
▁inn	-1755
▁ur	-1756
▁claim	-1757
▁ut	-1758
bsite	-1759
▁might	-1760
▁along	-1761
▁flow	-1762
▁Su	-1763
▁phys	-1764
▁activities	-1765
▁better	-1766
rim	-1767
▁bring	-1768
▁ey	-1769
▁ground	-1770
▁lab	-1771
udd	-1772
arth	-1773
▁property	-1774
▁caus	-1775
IN	-1776
▁suggest	-1777
▁However	-1778
▁Mad	-1779
▁recomm	-1780
ger	-1781
▁Sw	-1782
ental	-1783
▁agree	-1784
▁demand	-1785
▁international	-1786
empt	-1787
▁received	-1788
most	-1789
rish	-1790
▁side	-1791
▁method	-1792
arent	-1793
▁seen	-1794
▁equal	-1795
urs	-1796
▁bo	-1797
▁Sp	-1798
▁next	-1799
▁force	-1800
▁research	-1801
▁Comp	-1802
▁abs	-1803
▁Chi	-1804
atory	-1805
rodu	-1806
▁general	-1807
▁pen	-1808
▁Muk	-1809
▁Part	-1810
▁ess	-1811
▁cause	-1812
▁begin	-1813
▁Development	-1814
ude	-1815
▁Some	-1816
▁authority	-1817
imum	-1818
▁conv	-1819
▁went	-1820
▁THE	-1821
▁occasion	-1822
abha	-1823
▁nation	-1824
▁appear	-1825
ti	-1826
gether	-1827
▁together	-1828
▁Wh	-1829
itiz	-1830
▁House	-1831
▁strong	-1832
▁discuss	-1833
▁rights	-1834
▁mor	-1835
▁got	-1836
▁institutions	-1837
▁deep	-1838
▁access	-1839
▁redu	-1840
▁basis	-1841
ills	-1842
acity	-1843
▁aut	-1844
▁file	-1845
ving	-1846
▁cell	-1847
ke	-1848
▁started	-1849
▁history	-1850
▁district	-1851
▁test	-1852
ension	-1853
stitute	-1854
▁future	-1855
▁became	-1856
▁Sy	-1857
ened	-1858
▁Fin	-1859
ruction	-1860
▁proced	-1861
▁website	-1862
inary	-1863
▁associ	-1864
▁implement	-1865
▁freedom	-1866
▁problems	-1867
omes	-1868
▁ill	-1869
▁thing	-1870
▁big	-1871
▁docu	-1872
▁though	-1873
▁ten	-1874
▁goods	-1875
ush	-1876
▁working	-1877
▁ele	-1878
ji	-1879
▁party	-1880
▁computer	-1881
ina	-1882
OR	-1883
▁conduct	-1884
▁ce	-1885
▁example	-1886
▁technology	-1887
▁super	-1888
▁related	-1889
aster	-1890
▁Cor	-1891
aper	-1892
medi	-1893
ginal	-1894
cent	-1895
▁initi	-1896
▁matters	-1897
▁integ	-1898
▁Cont	-1899
▁dest	-1900
▁environment	-1901
vi	-1902
▁often	-1903
▁written	-1904
▁viol	-1905
▁step	-1906
ached	-1907
▁z	-1908
▁determ	-1909
▁Dis	-1910
itation	-1911
▁Im	-1912
istic	-1913
▁General	-1914
▁agricult	-1915
side	-1916
ME	-1917
une	-1918
▁word	-1919
▁unt	-1920
▁live	-1921
▁di	-1922
▁gen	-1923
▁key	-1924
▁once	-1925
▁months	-1926
▁Par	-1927
▁modern	-1928
ercial	-1929
itive	-1930
▁entire	-1931
▁farm	-1932
rab	-1933
ians	-1934
mitted	-1935
▁Bengal	-1936
rael	-1937
▁Board	-1938
▁Leg	-1939
▁scheme	-1940
ched	-1941
▁movement	-1942
▁sym	-1943
aries	-1944
riage	-1945
▁Dist	-1946
▁crit	-1947
▁role	-1948
▁Chief	-1949
▁try	-1950
▁terms	-1951
▁Af	-1952
▁sal	-1953
oon	-1954
▁visit	-1955
▁design	-1956
▁pub	-1957
acy	-1958
▁security	-1959
▁conditions	-1960
▁considered	-1961
▁Ministry	-1962
▁Israel	-1963
▁relating	-1964
▁established	-1965
▁brought	-1966
▁mis	-1967
▁pot	-1968
▁independ	-1969
▁needs	-1970
▁pow	-1971
mber	-1972
▁II	-1973
aged	-1974
lected	-1975
▁imm	-1976
aps	-1977
▁Co	-1978
urance	-1979
ring	-1980
▁previous	-1981
▁observ	-1982
▁leaders	-1983
▁opp	-1984
▁energ	-1985
▁separ	-1986
▁deb	-1987
▁fel	-1988
▁top	-1989
▁paid	-1990
hile	-1991
rast	-1992
▁students	-1993
ev	-1994
AT	-1995
▁vol	-1996
ane	-1997
▁field	-1998
▁detail	-1999
▁manner	-2000
▁link	-2001
istan	-2002
▁Direct	-2003
▁norm	-2004
▁My	-2005
▁text	-2006
▁earli	-2007
▁Govern	-2008
▁Courts	-2009
erve	-2010
▁close	-2011
▁cro	-2012
▁line	-2013
▁mother	-2014
leg	-2015
▁blood	-2016
sequ	-2017
▁lib	-2018
▁Sche	-2019
ung	-2020
▁Euro	-2021
isd	-2022
▁PRES	-2023
▁true	-2024
ama	-2025
▁creat	-2026
▁member	-2027
▁saf	-2028
▁sense	-2029
rated	-2030
unt	-2031
fact	-2032
IC	-2033
▁acqu	-2034
▁past	-2035
▁Cl	-2036
▁religious	-2037
ms	-2038
▁official	-2039
▁require	-2040
omb	-2041
hold	-2042
▁mov	-2043
▁press	-2044
▁according	-2045
ait	-2046
oid	-2047
atives	-2048
▁terror	-2049
▁sett	-2050
obal	-2051
▁living	-2052
▁village	-2053
▁citiz	-2054
▁ded	-2055
▁share	-2056
ier	-2057
▁Div	-2058
▁Europe	-2059
▁Ph	-2060
▁ful	-2061
ott	-2062
▁dou	-2063
cell	-2064
ison	-2065
▁story	-2066
▁decision	-2067
00	-2068
aya	-2069
itor	-2070
▁subst	-2071
▁community	-2072
▁Not	-2073
ief	-2074
▁custom	-2075
▁face	-2076
atch	-2077
poses	-2078
▁million	-2079
▁Mukher	-2080
▁Now	-2081
acher	-2082
▁legal	-2083
▁mach	-2084
▁consider	-2085
▁@	-2086
▁except	-2087
▁network	-2088
val	-2089
▁natural	-2090
▁Kumar	-2091
▁learn	-2092
igation	-2093
▁assist	-2094
agar	-2095
ends	-2096
ape	-2097
▁industrial	-2098
▁rule	-2099
▁adop	-2100
▁vari	-2101
ological	-2102
▁Mar	-2103
▁cover	-2104
gr	-2105
change	-2106
▁particip	-2107
▁Mukherjee	-2108
▁undert	-2109
▁Kh	-2110
action	-2111
▁parts	-2112
▁concerned	-2113
▁squ	-2114
cri	-2115
▁personal	-2116
▁justice	-2117
▁cop	-2118
▁trade	-2119
▁energy	-2120
▁passed	-2121
▁purposes	-2122
▁exec	-2123
ches	-2124
▁scient	-2125
tt	-2126
sw	-2127
▁grant	-2128
▁opens	-2129
▁using	-2130
▁specified	-2131
▁Muslims	-2132
amm	-2133
▁study	-2134
ek	-2135
▁training	-2136
imate	-2137
▁taking	-2138
▁loss	-2139
itness	-2140
▁United	-2141
▁credit	-2142
krit	-2143
▁management	-2144
▁issue	-2145
▁fall	-2146
▁democ	-2147
▁rules	-2148
▁current	-2149
▁pri	-2150
IDENT	-2151
hing	-2152
▁father	-2153
▁provides	-2154
usion	-2155
ames	-2156
airs	-2157
▁bea	-2158
mission	-2159
▁Sm	-2160
ship	-2161
vant	-2162
▁forward	-2163
ening	-2164
▁Public	-2165
▁legisl	-2166
▁institution	-2167
▁early	-2168
▁peace	-2169
illed	-2170
ler	-2171
▁*	-2172
▁near	-2173
irl	-2174
▁transfer	-2175
▁Go	-2176
ners	-2177
adi	-2178
▁PRESIDENT	-2179
ots	-2180
▁Justice	-2181
▁sou	-2182
▁century	-2183
▁External	-2184
▁asked	-2185
▁Techn	-2186
▁greater	-2187
▁neg	-2188
▁carry	-2189
▁mag	-2190
▁yet	-2191
▁Pran	-2192
▁Adv	-2193
▁religion	-2194
▁population	-2195
▁bra	-2196
▁developed	-2197
▁Such	-2198
uted	-2199
▁states	-2200
▁themselves	-2201
line	-2202
aun	-2203
▁compl	-2204
▁why	-2205
▁message	-2206
▁disease	-2207
▁Sabha	-2208
ead	-2209
TION	-2210
▁apply	-2211
vey	-2212
▁influ	-2213
war	-2214
▁trib	-2215
▁condition	-2216
▁cast	-2217
▁establish	-2218
▁Ple	-2219
▁port	-2220
▁Do	-2221
ropri	-2222
▁outside	-2223
▁experience	-2224
abad	-2225
rest	-2226
▁clear	-2227
▁appeal	-2228
▁allowed	-2229
▁powers	-2230
▁Pal	-2231
ask	-2232
▁Pun	-2233
▁building	-2234
▁charge	-2235
ilt	-2236
ival	-2237
▁really	-2238
▁introdu	-2239
▁red	-2240
▁provision	-2241
▁pun	-2242
▁son	-2243
▁assessment	-2244
ront	-2245
▁jur	-2246
▁consum	-2247
▁include	-2248
▁SC	-2249
mit	-2250
▁hy	-2251
ada	-2252
▁Rec	-2253
▁tell	-2254
▁parties	-2255
▁culture	-2256
▁mass	-2257
▁immedi	-2258
asing	-2259
▁chall	-2260
▁Trib	-2261
▁soon	-2262
▁Jan	-2263
▁US	-2264
ilk	-2265
emed	-2266
fully	-2267
▁literature	-2268
▁books	-2269
▁programme	-2270
inion	-2271
▁Int	-2272
▁meeting	-2273
▁remov	-2274
▁Sri	-2275
▁Pranab	-2276
▁stage	-2277
ilar	-2278
▁ll	-2279
ored	-2280
ects	-2281
▁arr	-2282
▁earlier	-2283
▁mention	-2284
▁anything	-2285
go	-2286
▁city	-2287
▁gave	-2288
▁Republic	-2289
▁original	-2290
▁Where	-2291
▁bal	-2292
▁lay	-2293
▁Brah	-2294
orrow	-2295
▁capacity	-2296
eral	-2297
▁Ins	-2298
▁Let	-2299
cient	-2300
▁Information	-2301
▁exc	-2302
▁prep	-2303
ulated	-2304
bar	-2305
▁aim	-2306
IS	-2307
▁writing	-2308
▁essential	-2309
▁half	-2310
iddle	-2311
▁instru	-2312
lo	-2313
▁structure	-2314
▁low	-2315
▁Med	-2316
▁boy	-2317
chan	-2318
▁Can	-2319
itable	-2320
▁signific	-2321
va	-2322
▁actually	-2323
jab	-2324
ixed	-2325
▁changes	-2326
icient	-2327
▁exerc	-2328
▁whose	-2329
▁assessee	-2330
▁resources	-2331
eed	-2332
▁wide	-2333
▁Our	-2334
ousand	-2335
IA	-2336
▁aud	-2337
▁almost	-2338
ift	-2339
IT	-2340
▁create	-2341
ares	-2342
▁Bi	-2343
anskrit	-2344
▁attack	-2345
▁duty	-2346
▁physical	-2347
▁Judge	-2348
▁payment	-2349
▁lat	-2350
▁soft	-2351
eness	-2352
▁Bill	-2353
▁medical	-2354
▁Rel	-2355
▁thus	-2356
▁works	-2357
anda	-2358
▁situation	-2359
▁talk	-2360
ctions	-2361
▁san	-2362
▁lear	-2363
▁achieve	-2364
▁eight	-2365
enty	-2366
arma	-2367
▁bar	-2368
▁West	-2369
icers	-2370
▁typ	-2371
▁Please	-2372
oot	-2373
▁evidence	-2374
▁Report	-2375
▁news	-2376
▁decided	-2377
▁issues	-2378
▁police	-2379
३०	-2380
anies	-2381
▁article	-2382
▁Bar	-2383
▁X	-2384
▁laws	-2385
aff	-2386
▁May	-2387
▁woman	-2388
▁products	-2389
pecially	-2390
duc	-2391
▁enter	-2392
▁satis	-2393
men	-2394
▁king	-2395
▁nothing	-2396
▁witness	-2397
12	-2398
4;	-2399
124;	-2400
▁&#124;	-2401
▁Cons	-2402
▁single	-2403
▁issued	-2404
▁fr	-2405
itude	-2406
▁Mahar	-2407
oice	-2408
.0	-2409
▁least	-2410
▁IND	-2411
▁transl	-2412
nam	-2413
ones	-2414
▁lot	-2415
ew	-2416
▁global	-2417
▁ensure	-2418
▁vers	-2419
be	-2420
▁Even	-2421
▁innov	-2422
augh	-2423
estern	-2424
▁efforts	-2425
▁Wor	-2426
tax	-2427
▁award	-2428
wise	-2429
pal	-2430
gar	-2431
ufact	-2432
▁Officer	-2433
▁Mal	-2434
rote	-2435
▁dr	-2436
▁Gur	-2437
▁sure	-2438
▁earth	-2439
▁indic	-2440
▁thousand	-2441
▁Apr	-2442
▁private	-2443
osop	-2444
▁science	-2445
▁treatment	-2446
▁pati	-2447
▁prim	-2448
▁letter	-2449
▁conscious	-2450
▁jo	-2451
▁fig	-2452
▁answ	-2453
▁till	-2454
▁Corpor	-2455
▁Indust	-2456
▁Sanskrit	-2457
▁specific	-2458
undred	-2459
▁job	-2460
▁Service	-2461
adem	-2462
▁ever	-2463
▁subs	-2464
▁makes	-2465
▁profession	-2466
▁Commissioner	-2467
embly	-2468
▁improve	-2469
ators	-2470
▁created	-2471
▁Pe	-2472
ategory	-2473
▁While	-2474
▁wr	-2475
overed	-2476
▁enough	-2477
▁Krish	-2478
▁April	-2479
▁inj	-2480
▁operation	-2481
▁rural	-2482
▁Legisl	-2483
▁approach	-2484
▁kept	-2485
ique	-2486
▁especially	-2487
▁teacher	-2488
▁obt	-2489
▁told	-2490
▁proceedings	-2491
▁District	-2492
▁opportunity	-2493
▁birth	-2494
▁univers	-2495
▁continue	-2496
ams	-2497
uary	-2498
EC	-2499
ilosop	-2500
pre	-2501
▁wrote	-2502
▁tree	-2503
▁leave	-2504
▁hon	-2505
for	-2506
▁repl	-2507
▁serious	-2508
▁crim	-2509
▁doing	-2510
ender	-2511
bed	-2512
▁judicial	-2513
▁increase	-2514
▁South	-2515
▁Op	-2516
▁govern	-2517
▁fav	-2518
▁behalf	-2519
▁procedure	-2520
▁investment	-2521
ores	-2522
▁published	-2523
▁insp	-2524
itting	-2525
let	-2526
estic	-2527
▁Add	-2528
▁depos	-2529
▁circum	-2530
▁notice	-2531
ires	-2532
▁By	-2533
▁Sur	-2534
▁path	-2535
▁temple	-2536
rect	-2537
▁sac	-2538
▁Lord	-2539
▁road	-2540
▁price	-2541
▁jurisd	-2542
▁petition	-2543
▁doub	-2544
▁bur	-2545
roll	-2546
hood	-2547
▁meaning	-2548
ourage	-2549
▁hundred	-2550
▁belong	-2551
eb	-2552
▁providing	-2553
▁Pak	-2554
▁effective	-2555
aves	-2556
▁Educ	-2557
▁Author	-2558
▁night	-2559
▁appropri	-2560
▁spread	-2561
▁economy	-2562
▁similar	-2563
▁lakh	-2564
▁poor	-2565
▁pros	-2566
▁vict	-2567
▁third	-2568
IR	-2569
▁den	-2570
apter	-2571
▁contract	-2572
avi	-2573
▁Under	-2574
face	-2575
ili	-2576
▁Ma	-2577
▁opinion	-2578
▁carried	-2579
▁compet	-2580
la	-2581
▁truth	-2582
eech	-2583
▁Institute	-2584
gu	-2585
▁Thus	-2586
▁seek	-2587
▁stru	-2588
▁vide	-2589
my	-2590
inate	-2591
den	-2592
▁Pat	-2593
▁tour	-2594
▁Punjab	-2595
▁faith	-2596
ban	-2597
▁stop	-2598
▁Sar	-2599
▁popular	-2600
▁administration	-2601
▁emerg	-2602
▁forms	-2603
sec	-2604
▁generally	-2605
rist	-2606
encies	-2607
▁harm	-2608
▁quite	-2609
iture	-2610
▁contact	-2611
▁across	-2612
play	-2613
▁Article	-2614
uck	-2615
▁East	-2616
▁distrib	-2617
rastructure	-2618
▁mere	-2619
▁Bal	-2620
▁manufact	-2621
unal	-2622
▁List	-2623
▁idea	-2624
▁sens	-2625
▁Chair	-2626
▁anal	-2627
▁bill	-2628
aka	-2629
▁collect	-2630
▁rul	-2631
▁International	-2632
▁coop	-2633
▁ris	-2634
ava	-2635
▁prescribed	-2636
kar	-2637
ying	-2638
utions	-2639
▁Income	-2640
▁March	-2641
▁Per	-2642
▁hands	-2643
▁accord	-2644
cle	-2645
▁Bl	-2646
hib	-2647
ump	-2648
▁Trans	-2649
▁percent	-2650
▁Pur	-2651
▁reform	-2652
mir	-2653
gest	-2654
joy	-2655
▁stated	-2656
▁travel	-2657
▁courts	-2658
▁source	-2659
endment	-2660
rug	-2661
▁below	-2662
▁relevant	-2663
▁vir	-2664
ED	-2665
▁size	-2666
ivity	-2667
▁During	-2668
▁draw	-2669
leb	-2670
▁Har	-2671
lege	-2672
▁Your	-2673
▁places	-2674
▁cut	-2675
▁Sa	-2676
etimes	-2677
▁basic	-2678
▁practice	-2679
▁log	-2680
▁King	-2681
▁check	-2682
▁central	-2683
▁jurisdiction	-2684
▁cal	-2685
earch	-2686
▁felt	-2687
▁river	-2688
▁giving	-2689
AS	-2690
▁aspect	-2691
▁importance	-2692
▁sound	-2693
▁dri	-2694
▁IN	-2695
▁crop	-2696
▁jour	-2697
ey	-2698
racy	-2699
▁girl	-2700
▁facilities	-2701
▁parent	-2702
istration	-2703
gram	-2704
hest	-2705
▁foc	-2706
▁sun	-2707
by	-2708
uly	-2709
band	-2710
▁god	-2711
▁comb	-2712
▁plus	-2713
▁write	-2714
ulate	-2715
ras	-2716
right	-2717
ex	-2718
▁Spe	-2719
▁tele	-2720
▁becomes	-2721
▁reach	-2722
utta	-2723
arily	-2724
iry	-2725
▁Arab	-2726
ouses	-2727
▁aware	-2728
▁Day	-2729
▁Sat	-2730
▁li	-2731
raft	-2732
▁event	-2733
▁commercial	-2734
▁bi	-2735
▁firm	-2736
▁emp	-2737
▁coun	-2738
osition	-2739
▁measures	-2740
▁note	-2741
▁accused	-2742
▁Calc	-2743
▁statement	-2744
▁laun	-2745
▁Governor	-2746
▁Qu	-2747
▁According	-2748
ging	-2749
▁marriage	-2750
▁philosop	-2751
▁recommend	-2752
▁Mem	-2753
dom	-2754
▁potential	-2755
▁fast	-2756
▁Afric	-2757
▁criminal	-2758
▁agreement	-2759
▁Ben	-2760
▁dam	-2761
aker	-2762
ami	-2763
ned	-2764
▁repe	-2765
▁oil	-2766
▁strength	-2767
▁Tra	-2768
▁happy	-2769
▁wife	-2770
▁Som	-2771
▁satisf	-2772
▁circumst	-2773
▁comes	-2774
ificate	-2775
▁citizens	-2776
ously	-2777
adu	-2778
rif	-2779
▁regular	-2780
▁Ak	-2781
▁began	-2782
▁novel	-2783
▁spiritual	-2784
▁existing	-2785
▁enjoy	-2786
com	-2787
ume	-2788
hem	-2789
▁hope	-2790
▁followed	-2791
▁Sch	-2792
▁Secret	-2793
ables	-2794
▁prevent	-2795
▁judge	-2796
ney	-2797
char	-2798
▁constitution	-2799
haps	-2800
▁exchange	-2801
gy	-2802
▁install	-2803
ights	-2804
▁room	-2805
▁Then	-2806
▁pers	-2807
▁–	-2808
▁benefit	-2809
▁Plan	-2810
▁camp	-2811
▁disp	-2812
▁groups	-2813
▁usually	-2814
ancy	-2815
▁mer	-2816
▁whom	-2817
▁brother	-2818
▁programmes	-2819
▁mot	-2820
uls	-2821
part	-2822
yond	-2823
▁mand	-2824
▁gives	-2825
▁bound	-2826
iles	-2827
▁punish	-2828
▁Net	-2829
▁anim	-2830
▁simple	-2831
▁trust	-2832
▁activity	-2833
▁lower	-2834
▁NA	-2835
▁wrong	-2836
▁believe	-2837
▁responsible	-2838
▁und	-2839
▁wid	-2840
▁prior	-2841
▁Bab	-2842
▁bit	-2843
▁milit	-2844
▁space	-2845
▁attempt	-2846
▁Technology	-2847
▁particularly	-2848
standing	-2849
▁existence	-2850
▁until	-2851
▁film	-2852
▁appropriate	-2853
▁concept	-2854
▁says	-2855
ox	-2856
nces	-2857
▁deg	-2858
▁dire	-2859
▁offence	-2860
▁Gang	-2861
▁behind	-2862
▁increased	-2863
equ	-2864
istered	-2865
ingu	-2866
▁Lok	-2867
▁unit	-2868
▁American	-2869
▁heav	-2870
▁lost	-2871
▁doct	-2872
▁Every	-2873
enth	-2874
▁mom	-2875
▁request	-2876
utes	-2877
▁sex	-2878
▁prop	-2879
▁rich	-2880
▁cultural	-2881
▁diss	-2882
▁soul	-2883
▁front	-2884
▁mount	-2885
▁conver	-2886
iet	-2887
▁Education	-2888
▁Calcutta	-2889
alty	-2890
body	-2891
▁beginning	-2892
▁stri	-2893
▁fair	-2894
▁song	-2895
▁consist	-2896
ole	-2897
amed	-2898
▁qual	-2899
▁poll	-2900
▁nor	-2901
▁Mu	-2902
▁wall	-2903
▁lives	-2904
▁INDIA	-2905
isters	-2906
▁mut	-2907
▁forest	-2908
▁led	-2909
▁ep	-2910
▁der	-2911
▁final	-2912
▁stay	-2913
rid	-2914
▁search	-2915
▁Civil	-2916
▁rather	-2917
▁Code	-2918
sy	-2919
▁occur	-2920
new	-2921
▁limited	-2922
reg	-2923
uman	-2924
▁saw	-2925
▁Bomb	-2926
ault	-2927
▁win	-2928
hra	-2929
utive	-2930
▁Pakistan	-2931
▁addition	-2932
▁eyes	-2933
▁relation	-2934
▁circumstances	-2935
▁TO	-2936
▁host	-2937
▁values	-2938
▁beyond	-2939
▁significant	-2940
▁schol	-2941
▁protection	-2942
▁crore	-2943
▁takes	-2944
▁histor	-2945
anj	-2946
▁continued	-2947
use	-2948
vest	-2949
▁feed	-2950
oor	-2951
ris	-2952
▁projects	-2953
AY	-2954
▁World	-2955
▁systems	-2956
▁alone	-2957
▁ideas	-2958
▁adj	-2959
▁pal	-2960
▁Budd	-2961
▁warm	-2962
▁employment	-2963
RI	-2964
▁born	-2965
▁Mon	-2966
▁industries	-2967
▁built	-2968
▁remain	-2969
▁accepted	-2970
iff	-2971
▁har	-2972
ospital	-2973
▁poetry	-2974
ishes	-2975
ruit	-2976
▁Kash	-2977
▁expression	-2978
ober	-2979
▁appointed	-2980
though	-2981
ulations	-2982
▁learning	-2983
rick	-2984
▁unf	-2985
▁limit	-2986
anation	-2987
atures	-2988
▁seven	-2989
ades	-2990
etic	-2991
▁nar	-2992
ini	-2993
▁infrastructure	-2994
▁origin	-2995
▁respond	-2996
▁Prof	-2997
▁Tam	-2998
▁protect	-2999
▁dig	-3000
▁cross	-3001
enditure	-3002
▁responsibility	-3003
gn	-3004
abor	-3005
▁Guj	-3006
▁Prime	-3007
▁Christ	-3008
▁banks	-3009
▁Ved	-3010
▁emb	-3011
ouch	-3012
▁trial	-3013
ograph	-3014
▁round	-3015
iful	-3016
▁Des	-3017
▁prob	-3018
▁reference	-3019
▁IT	-3020
▁Any	-3021
▁Pand	-3022
elling	-3023
▁From	-3024
rs	-3025
▁arbit	-3026
▁strugg	-3027
▁Fore	-3028
▁Bombay	-3029
▁coming	-3030
▁getting	-3031
▁seed	-3032
▁mental	-3033
asons	-3034
▁officer	-3035
▁Director	-3036
omen	-3037
▁ways	-3038
▁proposed	-3039
▁direction	-3040
▁tri	-3041
vention	-3042
▁immediately	-3043
▁$	-3044
▁setting	-3045
▁assistance	-3046
rary	-3047
ze	-3048
▁्	-3049
▁joint	-3050
▁Sim	-3051
▁sust	-3052
▁arrest	-3053
▁dre	-3054
▁includes	-3055
▁observed	-3056
▁appre	-3057
▁plants	-3058
umbai	-3059
▁Centre	-3060
▁normal	-3061
NA	-3062
anced	-3063
▁loan	-3064
▁increasing	-3065
rant	-3066
▁details	-3067
▁Of	-3068
▁Fund	-3069
▁Many	-3070
▁music	-3071
▁wanted	-3072
elfare	-3073
ikh	-3074
▁broad	-3075
▁formed	-3076
▁Corporation	-3077
miss	-3078
▁functions	-3079
yle	-3080
▁Utt	-3081
▁mechan	-3082
▁Program	-3083
omp	-3084
▁appl	-3085
▁else	-3086
▁teach	-3087
▁Kal	-3088
ading	-3089
▁mentioned	-3090
▁cy	-3091
▁Expl	-3092
▁drug	-3093
▁Krishna	-3094
▁officers	-3095
▁territ	-3096
▁forces	-3097
usp	-3098
▁Shah	-3099
▁ru	-3100
ucle	-3101
▁aver	-3102
▁device	-3103
ellow	-3104
iva	-3105
▁produce	-3106
bol	-3107
▁dedu	-3108
▁status	-3109
ley	-3110
▁lit	-3111
▁engine	-3112
▁consideration	-3113
▁opt	-3114
▁ste	-3115
gment	-3116
▁purs	-3117
▁perf	-3118
▁attract	-3119
▁agricultural	-3120
▁Dh	-3121
▁violence	-3122
oke	-3123
▁Tax	-3124
▁strengt	-3125
▁transport	-3126
ene	-3127
▁January	-3128
▁secret	-3129
▁sil	-3130
▁goes	-3131
▁document	-3132
ient	-3133
▁instrument	-3134
asa	-3135
▁Nar	-3136
▁celeb	-3137
▁presented	-3138
▁ancient	-3139
raw	-3140
ales	-3141
▁Mag	-3142
▁Sam	-3143
▁disci	-3144
oted	-3145
▁fire	-3146
▁North	-3147
▁scale	-3148
▁famous	-3149
▁America	-3150
reen	-3151
▁connect	-3152
ellect	-3153
▁prepared	-3154
ayan	-3155
▁rad	-3156
where	-3157
▁speech	-3158
ograp	-3159
▁Sept	-3160
▁animals	-3161
know	-3162
▁arch	-3163
▁fem	-3164
▁copy	-3165
▁paper	-3166
▁hus	-3167
▁workers	-3168
▁sn	-3169
▁companies	-3170
▁Dev	-3171
▁Assembly	-3172
▁Fir	-3173
▁relationship	-3174
osis	-3175
▁Rules	-3176
▁medic	-3177
▁Scheme	-3178
cer	-3179
▁Aug	-3180
aughter	-3181
▁refers	-3182
▁Lim	-3183
▁fight	-3184
ression	-3185
PC	-3186
▁Moh	-3187
▁Chandra	-3188
anger	-3189
▁Red	-3190
▁included	-3191
▁max	-3192
▁languages	-3193
nal	-3194
▁minus	-3195
▁receive	-3196
▁complaint	-3197
rate	-3198
▁Bang	-3199
▁fear	-3200
▁longer	-3201
▁af	-3202
▁added	-3203
▁partners	-3204
ton	-3205
▁Hy	-3206
▁depend	-3207
icro	-3208
▁active	-3209
UR	-3210
▁Bas	-3211
▁continu	-3212
▁connection	-3213
▁week	-3214
has	-3215
▁polic	-3216
▁extent	-3217
▁otherwise	-3218
AC	-3219
▁correct	-3220
icit	-3221
▁page	-3222
▁wish	-3223
▁imper	-3224
to	-3225
▁Ac	-3226
▁imag	-3227
▁ign	-3228
inite	-3229
▁memory	-3230
▁Kashmir	-3231
▁Oct	-3232
▁review	-3233
▁obl	-3234
hic	-3235
▁Tur	-3236
ented	-3237
IL	-3238
▁user	-3239
▁attention	-3240
▁Account	-3241
▁accounts	-3242
aks	-3243
▁Tw	-3244
▁fixed	-3245
▁Provided	-3246
▁involved	-3247
▁pain	-3248
▁coll	-3249
▁moment	-3250
▁arrange	-3251
road	-3252
▁base	-3253
esides	-3254
▁tried	-3255
▁units	-3256
▁supply	-3257
enced	-3258
▁sold	-3259
▁tool	-3260
▁caused	-3261
head	-3262
▁sea	-3263
attle	-3264
ensive	-3265
▁Panch	-3266
▁directly	-3267
ipur	-3268
ora	-3269
uge	-3270
▁twenty	-3271
▁produced	-3272
ratic	-3273
▁dram	-3274
▁black	-3275
▁consult	-3276
▁interests	-3277
▁task	-3278
▁bad	-3279
ticles	-3280
▁display	-3281
▁beaut	-3282
▁Mumbai	-3283
stituted	-3284
▁Sah	-3285
cember	-3286
▁Elect	-3287
▁expenditure	-3288
hru	-3289
▁Char	-3290
▁separate	-3291
▁sup	-3292
▁Open	-3293
▁funds	-3294
▁friends	-3295
add	-3296
▁Chairman	-3297
ites	-3298
asure	-3299
▁ago	-3300
▁pict	-3301
▁accordance	-3302
▁hor	-3303
▁types	-3304
▁labour	-3305
▁scientific	-3306
▁UN	-3307
▁Authority	-3308
▁tar	-3309
▁adopted	-3310
ext	-3311
▁June	-3312
▁Tamil	-3313
ja	-3314
pond	-3315
oo	-3316
▁milk	-3317
▁heard	-3318
▁speed	-3319
▁Police	-3320
que	-3321
▁inform	-3322
▁December	-3323
▁Division	-3324
▁documents	-3325
▁appe	-3326
▁Special	-3327
▁democracy	-3328
▁doubt	-3329
▁contained	-3330
▁ge	-3331
amental	-3332
itled	-3333
▁occup	-3334
▁standard	-3335
iny	-3336
▁vision	-3337
hens	-3338
▁domestic	-3339
▁white	-3340
▁Well	-3341
▁Judges	-3342
▁intellect	-3343
▁video	-3344
▁unless	-3345
▁strateg	-3346
▁standards	-3347
▁Air	-3348
atever	-3349
▁Vs	-3350
oly	-3351
vere	-3352
▁pred	-3353
▁situ	-3354
ashtra	-3355
▁Uttar	-3356
▁exercise	-3357
▁Whe	-3358
oting	-3359
▁System	-3360
▁assets	-3361
▁highest	-3362
▁employees	-3363
▁Er	-3364
▁husband	-3365
▁Africa	-3366
▁reached	-3367
▁questions	-3368
▁Up	-3369
▁Other	-3370
▁software	-3371
▁ant	-3372
▁clean	-3373
abled	-3374
▁complex	-3375
▁revolution	-3376
▁ton	-3377
▁September	-3378
▁contribution	-3379
▁fre	-3380
▁pie	-3381
▁laid	-3382
▁stor	-3383
▁north	-3384
▁August	-3385
▁Research	-3386
▁Ah	-3387
osing	-3388
▁town	-3389
ternet	-3390
▁Nehru	-3391
▁advance	-3392
▁Tribunal	-3393
▁Mo	-3394
▁tur	-3395
▁summ	-3396
▁image	-3397
▁likely	-3398
▁print	-3399
▁Asia	-3400
▁substant	-3401
▁Ur	-3402
▁Ra	-3403
ellig	-3404
▁offer	-3405
▁October	-3406
▁beautiful	-3407
▁steps	-3408
▁easy	-3409
▁effort	-3410
▁pack	-3411
▁challeng	-3412
▁Management	-3413
phas	-3414
▁Ker	-3415
▁Bhag	-3416
▁influence	-3417
▁dy	-3418
CT	-3419
▁numbers	-3420
adh	-3421
ager	-3422
▁generation	-3423
oll	-3424
▁School	-3425
▁context	-3426
▁distin	-3427
▁Indians	-3428
▁First	-3429
▁purch	-3430
▁insurance	-3431
▁performance	-3432
ids	-3433
▁multip	-3434
▁reasons	-3435
▁species	-3436
unic	-3437
ength	-3438
aur	-3439
ishn	-3440
▁pattern	-3441
▁Its	-3442
▁agg	-3443
▁Prot	-3444
▁hours	-3445
▁assign	-3446
▁Category	-3447
▁technical	-3448
cience	-3449
▁leading	-3450
▁furn	-3451
▁bod	-3452
▁export	-3453
▁fold	-3454
▁risk	-3455
▁Person	-3456
▁swe	-3457
pta	-3458
▁weak	-3459
▁costs	-3460
▁placed	-3461
▁recent	-3462
cription	-3463
▁Western	-3464
izing	-3465
▁south	-3466
▁largest	-3467
▁middle	-3468
▁majority	-3469
atha	-3470
ressed	-3471
▁Are	-3472
▁Services	-3473
▁organisation	-3474
uration	-3475
▁minor	-3476
▁orders	-3477
▁connected	-3478
▁sometimes	-3479
▁results	-3480
▁Palest	-3481
▁cells	-3482
▁military	-3483
▁exceed	-3484
▁growing	-3485
▁policies	-3486
▁opportunities	-3487
irm	-3488
▁frame	-3489
▁util	-3490
inated	-3491
▁range	-3492
▁described	-3493
asth	-3494
▁Val	-3495
▁tradition	-3496
ground	-3497
▁answer	-3498
▁struggle	-3499
▁instead	-3500
▁charges	-3501
▁implementation	-3502
▁independence	-3503
▁mob	-3504
onst	-3505
resh	-3506
▁Def	-3507
▁academ	-3508
▁threat	-3509
▁Child	-3510
▁educational	-3511
▁fully	-3512
▁quick	-3513
rig	-3514
ional	-3515
▁rail	-3516
▁consciousness	-3517
▁conflic	-3518
▁consequ	-3519
gen	-3520
idy	-3521
olute	-3522
▁mail	-3523
▁patient	-3524
ipt	-3525
▁model	-3526
▁affected	-3527
▁dark	-3528
▁mode	-3529
▁balance	-3530
OS	-3531
▁July	-3532
▁deemed	-3533
▁former	-3534
▁Pra	-3535
▁seems	-3536
▁Hindus	-3537
▁temper	-3538
uled	-3539
▁focus	-3540
▁egg	-3541
quiry	-3542
▁green	-3543
▁victim	-3544
▁Explanation	-3545
ailed	-3546
▁nucle	-3547
▁Project	-3548
▁ones	-3549
▁Ob	-3550
▁principle	-3551
▁Roy	-3552
aught	-3553
▁quant	-3554
ysis	-3555
▁fort	-3556
▁Company	-3557
▁break	-3558
▁media	-3559
EL	-3560
ateral	-3561
▁fine	-3562
▁measure	-3563
▁regarding	-3564
▁Ge	-3565
▁registered	-3566
iment	-3567
ensation	-3568
pped	-3569
▁China	-3570
▁understanding	-3571
umn	-3572
▁vac	-3573
▁Nove	-3574
▁Chapter	-3575
uff	-3576
▁team	-3577
▁gri	-3578
▁People	-3579
▁inside	-3580
▁stra	-3581
▁average	-3582
▁payable	-3583
with	-3584
▁hab	-3585
rown	-3586
▁gold	-3587
▁corpor	-3588
▁independent	-3589
ula	-3590
▁declared	-3591
▁selected	-3592
▁looking	-3593
asc	-3594
▁asset	-3595
ields	-3596
▁command	-3597
▁War	-3598
▁refer	-3599
▁Islamic	-3600
▁facilit	-3601
▁Tag	-3602
▁pan	-3603
▁perhaps	-3604
▁farmers	-3605
▁November	-3606
▁authorities	-3607
RA	-3608
view	-3609
▁prem	-3610
▁extra	-3611
▁Judicial	-3612
▁Lt	-3613
verse	-3614
▁guid	-3615
porary	-3616
▁cooperation	-3617
▁traditional	-3618
overy	-3619
▁animal	-3620
▁Maharashtra	-3621
▁agriculture	-3622
asad	-3623
▁iii	-3624
enior	-3625
▁Gandhiji	-3626
▁associated	-3627
oga	-3628
▁Inf	-3629
inery	-3630
dule	-3631
▁nom	-3632
osh	-3633
▁views	-3634
▁ON	-3635
leep	-3636
▁Second	-3637
▁leader	-3638
venue	-3639
▁earn	-3640
▁rap	-3641
▁Here	-3642
iciency	-3643
▁sections	-3644
▁Ter	-3645
▁dead	-3646
▁adequ	-3647
▁emphas	-3648
▁presence	-3649
▁More	-3650
▁certificate	-3651
▁multi	-3652
▁advice	-3653
▁Khan	-3654
▁lack	-3655
▁useful	-3656
▁Set	-3657
oms	-3658
▁youth	-3659
▁Administr	-3660
▁uns	-3661
▁Therefore	-3662
▁Lal	-3663
order	-3664
▁Soci	-3665
oti	-3666
aily	-3667
▁reve	-3668
ography	-3669
▁Policy	-3670
▁length	-3671
▁creation	-3672
▁extended	-3673
itle	-3674
▁AND	-3675
▁won	-3676
▁unc	-3677
▁style	-3678
▁terrorism	-3679
▁advant	-3680
▁Associ	-3681
▁located	-3682
▁Ro	-3683
▁Mod	-3684
pir	-3685
▁Cap	-3686
▁eye	-3687
uties	-3688
▁autom	-3689
▁needed	-3690
▁mal	-3691
▁Organ	-3692
arant	-3693
▁rout	-3694
▁larger	-3695
▁sentence	-3696
▁additional	-3697
ga	-3698
▁Aut	-3699
▁fra	-3700
▁divine	-3701
▁Di	-3702
ocation	-3703
illing	-3704
▁benefits	-3705
▁hospital	-3706
▁centre	-3707
aji	-3708
▁fulf	-3709
▁College	-3710
▁Inter	-3711
▁Rem	-3712
▁symbol	-3713
aded	-3714
▁Feb	-3715
▁failed	-3716
▁committed	-3717
▁extreme	-3718
▁developing	-3719
▁Princi	-3720
▁principles	-3721
▁hot	-3722
▁introduced	-3723
▁schemes	-3724
▁shown	-3725
▁difference	-3726
▁IS	-3727
▁ball	-3728
▁drink	-3729
▁perman	-3730
ervation	-3731
▁calc	-3732
overty	-3733
ps	-3734
nes	-3735
▁expressed	-3736
▁Most	-3737
▁fest	-3738
▁stories	-3739
▁registration	-3740
▁Us	-3741
▁content	-3742
▁Excell	-3743
▁enact	-3744
▁chem	-3745
▁promote	-3746
▁namely	-3747
hya	-3748
▁Gh	-3749
▁Conference	-3750
erative	-3751
▁San	-3752
▁announ	-3753
▁wealth	-3754
▁objective	-3755
▁successful	-3756
icate	-3757
oud	-3758
▁thinking	-3759
iciary	-3760
▁CO	-3761
apers	-3762
eties	-3763
▁everything	-3764
▁Agricult	-3765
▁cash	-3766
ops	-3767
oured	-3768
▁levels	-3769
▁England	-3770
▁someone	-3771
HA	-3772
itis	-3773
aging	-3774
▁rise	-3775
▁chann	-3776
pper	-3777
▁covered	-3778
▁extend	-3779
▁Fl	-3780
▁fif	-3781
▁item	-3782
▁pric	-3783
▁penalty	-3784
▁Secretary	-3785
▁examination	-3786
tion	-3787
▁pet	-3788
hab	-3789
ially	-3790
vious	-3791
▁Finance	-3792
▁operations	-3793
▁danger	-3794
▁Germ	-3795
▁favour	-3796
▁played	-3797
▁appreci	-3798
▁processing	-3799
▁names	-3800
▁poems	-3801
▁shows	-3802
▁villages	-3803
force	-3804
heduled	-3805
▁contains	-3806
ika	-3807
ube	-3808
icated	-3809
▁Limited	-3810
▁commit	-3811
▁soil	-3812
▁graph	-3813
ows	-3814
ague	-3815
▁virt	-3816
▁wel	-3817
ifying	-3818
▁construction	-3819
▁AT	-3820
▁Iran	-3821
▁lines	-3822
▁tal	-3823
▁sale	-3824
▁ideal	-3825
usive	-3826
ont	-3827
ahar	-3828
▁phot	-3829
▁minimum	-3830
▁resident	-3831
ankar	-3832
▁Mark	-3833
hu	-3834
▁Bec	-3835
▁machine	-3836
▁storage	-3837
▁collection	-3838
▁Kerala	-3839
▁merely	-3840
▁department	-3841
▁sud	-3842
aches	-3843
▁Health	-3844
▁walk	-3845
▁friendly	-3846
olid	-3847
▁lic	-3848
▁Post	-3849
▁constant	-3850
▁judges	-3851
▁running	-3852
▁temples	-3853
▁bed	-3854
itch	-3855
ript	-3856
▁changed	-3857
▁variety	-3858
▁publication	-3859
ruary	-3860
▁skin	-3861
▁entitled	-3862
aksh	-3863
▁weight	-3864
yan	-3865
▁grand	-3866
CC	-3867
cribe	-3868
▁pray	-3869
▁surface	-3870
ero	-3871
ronic	-3872
▁dispos	-3873
▁easily	-3874
▁unique	-3875
omic	-3876
▁ship	-3877
▁parents	-3878
▁sav	-3879
▁vital	-3880
▁contem	-3881
▁raised	-3882
▁files	-3883
▁remark	-3884
▁worship	-3885
▁cat	-3886
▁Inst	-3887
▁Ltd	-3888
▁code	-3889
▁impact	-3890
▁prosper	-3891
▁primary	-3892
lands	-3893
▁site	-3894
ertain	-3895
▁Andhra	-3896
▁external	-3897
ighb	-3898
word	-3899
enses	-3900
▁morning	-3901
▁cand	-3902
iverse	-3903
▁Tagore	-3904
▁engaged	-3905
▁February	-3906
▁Work	-3907
▁desire	-3908
▁relief	-3909
▁bow	-3910
▁chief	-3911
▁Prasad	-3912
▁square	-3913
light	-3914
▁gets	-3915
▁defined	-3916
▁session	-3917
▁maximum	-3918
▁board	-3919
chand	-3920
▁unity	-3921
▁Nep	-3922
lick	-3923
▁expected	-3924
▁Sir	-3925
▁female	-3926
▁looked	-3927
omy	-3928
rows	-3929
▁bab	-3930
▁remains	-3931
abilities	-3932
▁resolution	-3933
▁vehic	-3934
▁withd	-3935
▁European	-3936
▁scholars	-3937
▁greet	-3938
▁Bharat	-3939
pees	-3940
▁duties	-3941
oj	-3942
aled	-3943
▁Their	-3944
▁critic	-3945
we	-3946
▁pra	-3947
▁filed	-3948
apan	-3949
inet	-3950
▁wait	-3951
▁equip	-3952
▁element	-3953
▁elements	-3954
▁Why	-3955
▁Karn	-3956
▁Stand	-3957
▁Gujarat	-3958
BI	-3959
aken	-3960
▁Since	-3961
▁shares	-3962
▁Office	-3963
ilateral	-3964
▁philosophy	-3965
▁Ash	-3966
aja	-3967
▁Social	-3968
▁ST	-3969
▁km	-3970
▁excell	-3971
sych	-3972
▁slow	-3973
▁ready	-3974
prene	-3975
▁fundamental	-3976
▁cere	-3977
▁neighb	-3978
▁Also	-3979
▁convey	-3980
▁organization	-3981
▁Sal	-3982
▁Rama	-3983
▁enable	-3984
II	-3985
▁Ant	-3986
▁cho	-3987
enance	-3988
▁individuals	-3989
▁Kar	-3990
▁rain	-3991
▁valid	-3992
reprene	-3993
▁Though	-3994
▁poverty	-3995
una	-3996
▁suc	-3997
ousing	-3998
▁indeed	-3999
istics	-4000
▁nations	-4001
onse	-4002
uries	-4003
▁card	-4004
▁integral	-4005
▁whatever	-4006
▁cou	-4007
iting	-4008
▁Vill	-4009
ira	-4010
▁Guru	-4011
▁acts	-4012
▁prosec	-4013
▁trying	-4014
▁communication	-4015
▁magn	-4016
atma	-4017
▁ast	-4018
▁error	-4019
▁stock	-4020
ni	-4021
▁moral	-4022
▁feeling	-4023
▁studies	-4024
▁applications	-4025
▁Group	-4026
▁annual	-4027
▁expect	-4028
▁saying	-4029
▁medium	-4030
▁discipl	-4031
▁enterpr	-4032
▁flu	-4033
▁pure	-4034
▁facts	-4035
▁series	-4036
▁Because	-4037
▁throughout	-4038
▁Aud	-4039
ilies	-4040
▁send	-4041
▁reading	-4042
▁feet	-4043
▁minister	-4044
abh	-4045
▁00	-4046
▁Ann	-4047
▁Smt	-4048
▁cultiv	-4049
▁Governments	-4050
▁susp	-4051
endra	-4052
▁excl	-4053
▁requires	-4054
▁ult	-4055
ivery	-4056
▁items	-4057
▁affect	-4058
▁turned	-4059
▁sacrif	-4060
▁articles	-4061
▁Devi	-4062
▁frequ	-4063
▁points	-4064
▁Her	-4065
uit	-4066
▁Bihar	-4067
▁leaves	-4068
▁Members	-4069
▁granted	-4070
omet	-4071
▁entry	-4072
▁Amendment	-4073
▁delay	-4074
▁Ed	-4075
ests	-4076
▁degree	-4077
१०	-4078
▁sem	-4079
▁rapid	-4080
▁prison	-4081
▁aspects	-4082
▁compon	-4083
▁mur	-4084
ferences	-4085
▁removal	-4086
▁Official	-4087
aviour	-4088
▁dischar	-4089
▁divided	-4090
▁Vis	-4091
eless	-4092
▁mainly	-4093
▁daughter	-4094
▁sudden	-4095
▁pressure	-4096
▁practices	-4097
aug	-4098
fort	-4099
▁touch	-4100
▁Art	-4101
ogle	-4102
▁Tod	-4103
essing	-4104
▁Power	-4105
▁Dem	-4106
rance	-4107
ricket	-4108
▁agency	-4109
▁methods	-4110
▁suit	-4111
▁powerful	-4112
asthan	-4113
▁receipt	-4114
▁causes	-4115
▁incident	-4116
ped	-4117
▁suggested	-4118
oming	-4119
▁quar	-4120
lex	-4121
▁incl	-4122
nel	-4123
▁Mand	-4124
▁Langu	-4125
vis	-4126
▁Nav	-4127
▁impl	-4128
▁defence	-4129
ING	-4130
lying	-4131
▁vast	-4132
▁safety	-4133
▁literary	-4134
▁fert	-4135
▁foot	-4136
▁fields	-4137
▁offered	-4138
▁nut	-4139
▁bear	-4140
anas	-4141
▁target	-4142
▁requirements	-4143
apur	-4144
cript	-4145
▁rare	-4146
▁tend	-4147
▁electric	-4148
▁anti	-4149
▁staff	-4150
▁tiss	-4151
▁belief	-4152
▁welfare	-4153
▁petitioner	-4154
mar	-4155
▁bri	-4156
▁adequate	-4157
▁intellig	-4158
▁shape	-4159
▁confident	-4160
▁PRO	-4161
▁daily	-4162
EE	-4163
▁meant	-4164
artments	-4165
▁contain	-4166
▁distribution	-4167
▁fee	-4168
▁upd	-4169
▁universal	-4170
▁wond	-4171
enture	-4172
▁Akbar	-4173
▁distance	-4174
▁Kol	-4175
▁Aust	-4176
▁gone	-4177
▁named	-4178
▁schools	-4179
▁succeed	-4180
aul	-4181
ishing	-4182
▁promotion	-4183
▁Out	-4184
▁completed	-4185
▁sides	-4186
oph	-4187
umer	-4188
iring	-4189
▁Assist	-4190
▁convers	-4191
▁male	-4192
▁learned	-4193
▁Pan	-4194
▁follows	-4195
▁lived	-4196
▁cities	-4197
▁wishes	-4198
ils	-4199
atter	-4200
▁destro	-4201
▁teachers	-4202
▁discussion	-4203
wan	-4204
▁argu	-4205
▁trou	-4206
▁factors	-4207
▁treated	-4208
▁construct	-4209
▁confidence	-4210
▁association	-4211
athy	-4212
▁Whether	-4213
▁eat	-4214
imately	-4215
▁caste	-4216
▁expand	-4217
aign	-4218
olved	-4219
▁sectors	-4220
lal	-4221
mosp	-4222
▁election	-4223
▁Car	-4224
respond	-4225
▁regional	-4226
▁knew	-4227
▁highly	-4228
▁Palestin	-4229
▁Das	-4230
actions	-4231
▁events	-4232
▁Bengali	-4233
▁establishment	-4234
▁beauty	-4235
▁Jain	-4236
▁master	-4237
▁Commercial	-4238
▁Legislative	-4239
▁Bel	-4240
▁root	-4241
▁fresh	-4242
▁altern	-4243
▁Mahatma	-4244
▁esc	-4245
▁actual	-4246
▁maintain	-4247
▁returned	-4248
vision	-4249
▁worked	-4250
▁appears	-4251
▁positive	-4252
ka	-4253
▁serve	-4254
▁volunt	-4255
▁remember	-4256
▁figure	-4257
▁script	-4258
▁believed	-4259
▁Only	-4260
▁died	-4261
▁Japan	-4262
▁encoura	-4263
isc	-4264
▁mid	-4265
▁songs	-4266
izations	-4267
▁avoid	-4268
▁intellectual	-4269
▁gas	-4270
urate	-4271
▁veget	-4272
▁reality	-4273
▁pleasure	-4274
▁capt	-4275
▁option	-4276
▁absolute	-4277
▁academic	-4278
▁machinery	-4279
▁strengthen	-4280
era	-4281
ray	-4282
the	-4283
▁Him	-4284
▁door	-4285
▁Himal	-4286
▁Party	-4287
▁abroad	-4288
▁cru	-4289
▁insects	-4290
▁bodies	-4291
▁Science	-4292
▁Error	-4293
▁internal	-4294
▁color	-4295
▁version	-4296
▁probably	-4297
rav	-4298
▁Russ	-4299
▁decisions	-4300
▁Che	-4301
▁bond	-4302
▁station	-4303
▁determined	-4304
ARD	-4305
ken	-4306
ties	-4307
iling	-4308
stitu	-4309
▁prec	-4310
▁heavy	-4311
▁rupees	-4312
▁punishment	-4313
▁Nag	-4314
▁joy	-4315
▁Prem	-4316
▁nuclear	-4317
▁sleep	-4318
▁speak	-4319
▁Programme	-4320
cast	-4321
▁opening	-4322
▁diseases	-4323
▁Ham	-4324
▁branch	-4325
▁families	-4326
▁Abd	-4327
▁dim	-4328
▁partnership	-4329
▁Ay	-4330
ception	-4331
▁failure	-4332
udi	-4333
urt	-4334
▁dial	-4335
▁miss	-4336
▁dated	-4337
▁proved	-4338
▁Besides	-4339
▁Excellency	-4340
▁newsp	-4341
▁Google	-4342
▁atmosp	-4343
▁clearly	-4344
▁rank	-4345
ming	-4346
▁arri	-4347
▁safe	-4348
▁Panchay	-4349
▁carrying	-4350
▁Association	-4351
set	-4352
▁agreed	-4353
▁Village	-4354
DA	-4355
OL	-4356
▁Aff	-4357
udget	-4358
▁Form	-4359
▁default	-4360
▁Rajasthan	-4361
▁investigation	-4362
▁Inc	-4363
ologies	-4364
▁id	-4365
▁late	-4366
▁seem	-4367
▁agencies	-4368
▁buy	-4369
▁Applic	-4370
▁aw	-4371
ifest	-4372
▁borrow	-4373
▁keeping	-4374
enge	-4375
▁pil	-4376
iance	-4377
▁hearing	-4378
▁response	-4379
▁table	-4380
▁happened	-4381
▁army	-4382
▁goal	-4383
▁Assam	-4384
isms	-4385
putes	-4386
▁voice	-4387
▁Proced	-4388
▁thereof	-4389
IV	-4390
▁Ali	-4391
▁Buddh	-4392
▁Today	-4393
▁Water	-4394
▁prepar	-4395
▁delivery	-4396
ij	-4397
rupt	-4398
▁mutual	-4399
▁innovation	-4400
▁Environment	-4401
ataka	-4402
▁experi	-4403
▁Further	-4404
▁conflict	-4405
▁sufficient	-4406
▁sand	-4407
▁Rajya	-4408
▁estim	-4409
▁controll	-4410
▁recommended	-4411
rust	-4412
▁Men	-4413
▁cold	-4414
▁BC	-4415
▁attend	-4416
▁distingu	-4417
ae	-4418
cip	-4419
cher	-4420
achal	-4421
▁enem	-4422
▁season	-4423
▁compensation	-4424
eria	-4425
▁dealing	-4426
ila	-4427
▁grass	-4428
▁passing	-4429
▁Financial	-4430
▁deduction	-4431
aram	-4432
elines	-4433
▁candid	-4434
▁Ira	-4435
erted	-4436
▁moon	-4437
▁profit	-4438
▁amongst	-4439
▁Independ	-4440
▁accident	-4441
▁constituted	-4442
▁hero	-4443
▁input	-4444
riminal	-4445
▁Insurance	-4446
▁reasonable	-4447
AG	-4448
▁Cur	-4449
▁Est	-4450
▁Two	-4451
▁Another	-4452
▁suitable	-4453
▁leadership	-4454
▁select	-4455
▁officials	-4456
▁Ev	-4457
vert	-4458
▁Pri	-4459
▁launched	-4460
▁features	-4461
▁urban	-4462
▁doctor	-4463
▁happen	-4464
▁reduced	-4465
▁chemical	-4466
▁advantage	-4467
▁Sun	-4468
▁Rail	-4469
rehens	-4470
▁completely	-4471
arian	-4472
▁applicable	-4473
ads	-4474
▁shr	-4475
▁draft	-4476
▁colour	-4477
▁identity	-4478
▁instance	-4479
▁ordinary	-4480
▁fal	-4481
▁MS	-4482
▁adult	-4483
▁encourage	-4484
asm	-4485
eks	-4486
inter	-4487
▁wild	-4488
▁correspond	-4489
▁compr	-4490
essions	-4491
▁latter	-4492
▁instruct	-4493
▁dry	-4494
itect	-4495
▁Econom	-4496
▁wood	-4497
▁appell	-4498
▁Pen	-4499
▁Sing	-4500
rench	-4501
▁Which	-4502
▁Who	-4503
▁Both	-4504
▁prices	-4505
▁planning	-4506
ittees	-4507
▁parliament	-4508
TER	-4509
ply	-4510
▁Iraq	-4511
▁entered	-4512
bal	-4513
▁box	-4514
▁mist	-4515
▁crops	-4516
isition	-4517
▁Att	-4518
ayana	-4519
▁poem	-4520
unicip	-4521
▁Gov	-4522
▁Lab	-4523
▁subsequ	-4524
▁Human	-4525
▁Bus	-4526
▁Gupta	-4527
▁hour	-4528
▁administrative	-4529
▁Jag	-4530
▁Lib	-4531
▁guarant	-4532
▁tom	-4533
▁stone	-4534
▁reserv	-4535
▁desp	-4536
▁concl	-4537
pective	-4538
▁reports	-4539
▁spent	-4540
▁excess	-4541
▁server	-4542
▁elected	-4543
▁recommendations	-4544
EM	-4545
▁fit	-4546
▁critical	-4547
▁permanent	-4548
mi	-4549
▁liqu	-4550
ancing	-4551
▁counter	-4552
▁remained	-4553
ocate	-4554
▁assum	-4555
▁paint	-4556
▁initiatives	-4557
▁Non	-4558
▁Port	-4559
▁applied	-4560
▁centres	-4561
▁materials	-4562
▁motion	-4563
▁fat	-4564
▁negative	-4565
▁supported	-4566
umari	-4567
▁mouth	-4568
anya	-4569
▁Bad	-4570
iti	-4571
grat	-4572
▁ban	-4573
▁notes	-4574
▁psych	-4575
▁holding	-4576
▁approved	-4577
▁president	-4578
▁watch	-4579
▁reject	-4580
▁Criminal	-4581
rad	-4582
after	-4583
▁inner	-4584
▁Hon	-4585
▁Will	-4586
▁breed	-4587
▁Society	-4588
▁drawn	-4589
▁incor	-4590
▁released	-4591
mark	-4592
▁latest	-4593
▁achieved	-4594
▁characters	-4595
▁Speaker	-4596
▁aid	-4597
▁nearly	-4598
▁sustain	-4599
anges	-4600
▁governance	-4601
▁professional	-4602
jud	-4603
uel	-4604
▁Yoga	-4605
▁output	-4606
▁pip	-4607
▁cook	-4608
▁explo	-4609
▁Schedule	-4610
ondon	-4611
▁fruit	-4612
▁moved	-4613
▁trees	-4614
istrate	-4615
▁surround	-4616
RO	-4617
hai	-4618
odes	-4619
▁web	-4620
▁Home	-4621
rency	-4622
▁ende	-4623
▁damage	-4624
▁sanction	-4625
▁congrat	-4626
▁ang	-4627
▁leaf	-4628
isations	-4629
▁greetings	-4630
▁sources	-4631
▁subjects	-4632
▁appointment	-4633
▁privile	-4634
ym	-4635
▁surv	-4636
▁title	-4637
▁Sharma	-4638
▁participation	-4639
lete	-4640
▁campaign	-4641
▁entreprene	-4642
▁mission	-4643
▁numer	-4644
cean	-4645
board	-4646
▁sort	-4647
▁politics	-4648
▁interesting	-4649
key	-4650
▁plays	-4651
▁worth	-4652
▁perfect	-4653
▁undertaking	-4654
▁cred	-4655
▁fram	-4656
▁Ganga	-4657
▁SCC	-4658
pping	-4659
▁judgment	-4660
▁territory	-4661
▁ec	-4662
▁iv	-4663
adav	-4664
▁Jew	-4665
▁Ret	-4666
▁hear	-4667
▁sell	-4668
▁recorded	-4669
▁commission	-4670
▁historical	-4671
▁Gl	-4672
▁Don	-4673
▁removed	-4674
arati	-4675
▁charged	-4676
▁Procedure	-4677
▁legislation	-4678
▁block	-4679
▁rates	-4680
▁Over	-4681
▁save	-4682
▁singh	-4683
▁standing	-4684
▁committee	-4685
rel	-4686
▁game	-4687
▁exact	-4688
▁concent	-4689
▁picture	-4690
▁creating	-4691
het	-4692
▁Invest	-4693
▁remove	-4694
ulating	-4695
phone	-4696
▁Sind	-4697
▁gard	-4698
▁democratic	-4699
ATION	-4700
ordinate	-4701
ird	-4702
igible	-4703
▁London	-4704
▁married	-4705
issa	-4706
▁Foreign	-4707
▁Hist	-4708
▁Member	-4709
▁endeav	-4710
▁Bose	-4711
▁join	-4712
▁weeks	-4713
▁Karnataka	-4714
▁Industrial	-4715
▁Bah	-4716
▁Ser	-4717
utory	-4718
▁analysis	-4719
▁Tem	-4720
pat	-4721
▁Ori	-4722
thern	-4723
▁Sikh	-4724
▁eth	-4725
▁deposit	-4726
▁Lo	-4727
atically	-4728
▁Internet	-4729
▁prosperity	-4730
▁houses	-4731
ese	-4732
▁dece	-4733
▁gain	-4734
▁tonnes	-4735
▁destroy	-4736
▁functioning	-4737
iced	-4738
▁Exp	-4739
rical	-4740
▁finally	-4741
▁proport	-4742
▁amb	-4743
anged	-4744
▁shap	-4745
▁senior	-4746
▁facility	-4747
▁lad	-4748
▁Among	-4749
▁Use	-4750
▁east	-4751
ura	-4752
orial	-4753
▁Could	-4754
▁choice	-4755
▁opened	-4756
rence	-4757
▁obst	-4758
▁false	-4759
▁classes	-4760
▁Pers	-4761
▁River	-4762
▁match	-4763
otic	-4764
▁sole	-4765
▁grad	-4766
▁neither	-4767
▁maintained	-4768
▁theory	-4769
▁challenges	-4770
▁Mission	-4771
▁obvious	-4772
▁drugs	-4773
▁profits	-4774
▁conducted	-4775
hern	-4776
ider	-4777
▁huge	-4778
▁dispute	-4779
▁Christian	-4780
▁challenge	-4781
mon	-4782
iveness	-4783
▁sought	-4784
▁solution	-4785
aman	-4786
▁teaching	-4787
▁Va	-4788
▁CON	-4789
astic	-4790
▁debt	-4791
▁weap	-4792
▁dream	-4793
▁ability	-4794
jection	-4795
▁journey	-4796
▁constitutional	-4797
ET	-4798
▁Kan	-4799
▁reb	-4800
▁noted	-4801
▁Nepal	-4802
▁helped	-4803
▁submitted	-4804
११	-4805
▁stood	-4806
▁banking	-4807
▁demonst	-4808
▁sitting	-4809
▁proposal	-4810
▁communities	-4811
aly	-4812
ester	-4813
▁Park	-4814
▁grown	-4815
▁obtained	-4816
▁awareness	-4817
aut	-4818
hus	-4819
▁Jaw	-4820
▁regions	-4821
▁elections	-4822
▁transform	-4823
aling	-4824
▁mort	-4825
▁defend	-4826
▁records	-4827
▁consists	-4828
▁relative	-4829
oe	-4830
▁Rad	-4831
▁outl	-4832
▁crime	-4833
▁surpr	-4834
▁served	-4835
▁volume	-4836
▁citizen	-4837
▁atmosphere	-4838
▁manufacture	-4839
RL	-4840
ena	-4841
▁accomp	-4842
▁factor	-4843
▁release	-4844
▁didn	-4845
▁waste	-4846
rew	-4847
▁gar	-4848
▁west	-4849
▁letters	-4850
erate	-4851
▁bott	-4852
▁formal	-4853
olly	-4854
icious	-4855
▁Ext	-4856
essor	-4857
▁Right	-4858
▁Orissa	-4859
▁squared	-4860
▁substance	-4861
▁Press	-4862
▁reduce	-4863
pret	-4864
▁birds	-4865
▁effects	-4866
▁Show	-4867
▁comment	-4868
▁reflect	-4869
rog	-4870
ghal	-4871
iform	-4872
▁enhan	-4873
▁changing	-4874
▁expenses	-4875
▁objectives	-4876
▁universities	-4877
lies	-4878
▁wat	-4879
▁Nagar	-4880
▁affairs	-4881
ghan	-4882
▁folk	-4883
▁plat	-4884
▁amend	-4885
▁moving	-4886
aste	-4887
roc	-4888
orthern	-4889
▁Middle	-4890
▁Nature	-4891
ilarly	-4892
iments	-4893
▁writer	-4894
▁situated	-4895
▁transferred	-4896
ocks	-4897
olve	-4898
▁Each	-4899
▁Once	-4900
▁Stat	-4901
▁ment	-4902
▁dign	-4903
▁pill	-4904
▁Austral	-4905
▁suffering	-4906
▁Women	-4907
▁Medical	-4908
▁healthy	-4909
▁approval	-4910
▁attached	-4911
▁IP	-4912
▁Language	-4913
▁Principal	-4914
▁Nat	-4915
▁column	-4916
▁attitude	-4917
▁register	-4918
▁AIR	-4919
▁decades	-4920
▁Although	-4921
▁maintenance	-4922
wal	-4923
▁Sum	-4924
▁sugar	-4925
▁thirty	-4926
▁student	-4927
hand	-4928
▁mobile	-4929
▁devotion	-4930
▁recently	-4931
▁pollution	-4932
garh	-4933
▁Ent	-4934
▁cry	-4935
▁bran	-4936
▁fish	-4937
▁division	-4938
like	-4939
ocol	-4940
▁Nan	-4941
▁honour	-4942
▁offences	-4943
▁Self	-4944
▁description	-4945
▁Chrom	-4946
▁brain	-4947
▁operating	-4948
▁background	-4949
eep	-4950
▁online	-4951
▁Control	-4952
▁Commun	-4953
▁climate	-4954
▁notification	-4955
▁Babu	-4956
▁Sect	-4957
▁phase	-4958
▁yield	-4959
▁processes	-4960
▁Exec	-4961
▁decide	-4962
▁collabor	-4963
▁restrict	-4964
▁architect	-4965
US	-4966
imb	-4967
▁Cert	-4968
▁hair	-4969
▁equipment	-4970
ested	-4971
▁colle	-4972
▁lies	-4973
▁eleph	-4974
▁impris	-4975
▁courage	-4976
iers	-4977
▁nine	-4978
▁Mahab	-4979
▁defin	-4980
▁principal	-4981
▁engineering	-4982
ammu	-4983
oved	-4984
▁cam	-4985
▁uses	-4986
▁Network	-4987
▁absence	-4988
▁ourselves	-4989
▁imprisonment	-4990
ogue	-4991
▁spl	-4992
anging	-4993
▁Ty	-4994
▁Tri	-4995
▁die	-4996
▁prime	-4997
▁resist	-4998
AM	-4999
DU	-5000
▁subt	-5001
▁joined	-5002
▁Gaz	-5003
▁apart	-5004
holders	-5005
▁greatest	-5006
▁settlement	-5007
hara	-5008
▁Bin	-5009
▁coal	-5010
urities	-5011
▁compar	-5012
▁kn	-5013
▁bringing	-5014
▁Vir	-5015
rations	-5016
▁ble	-5017
▁Hyder	-5018
▁gains	-5019
▁habit	-5020
▁Before	-5021
▁fellow	-5022
▁Training	-5023
gypt	-5024
▁See	-5025
▁Son	-5026
▁emotion	-5027
▁pending	-5028
iy	-5029
rat	-5030
▁SP	-5031
oral	-5032
osure	-5033
aced	-5034
ails	-5035
▁arm	-5036
▁inaug	-5037
▁survey	-5038
ifications	-5039
▁users	-5040
ibilities	-5041
▁reported	-5042
▁disputes	-5043
uous	-5044
▁star	-5045
▁recognised	-5046
nov	-5047
▁acid	-5048
achment	-5049
▁amendment	-5050
hel	-5051
▁Av	-5052
▁Land	-5053
▁Jammu	-5054
▁weather	-5055
▁comprehens	-5056
▁pick	-5057
▁becoming	-5058
▁execution	-5059
xy	-5060
agh	-5061
▁phone	-5062
▁Independence	-5063
▁Egypt	-5064
▁resource	-5065
▁Protection	-5066
apt	-5067
utt	-5068
▁bh	-5069
▁store	-5070
▁Univers	-5071
▁smaller	-5072
▁priority	-5073
▁rob	-5074
▁designed	-5075
▁medicine	-5076
▁URL	-5077
inent	-5078
▁helps	-5079
▁Mother	-5080
▁proceeding	-5081
▁translation	-5082
ruption	-5083
▁Subhas	-5084
▁impart	-5085
▁eld	-5086
▁Stud	-5087
▁Life	-5088
▁expert	-5089
▁monitor	-5090
iled	-5091
▁although	-5092
▁efficient	-5093
cks	-5094
▁looks	-5095
▁union	-5096
▁conclud	-5097
▁evening	-5098
▁purchase	-5099
▁fed	-5100
▁piece	-5101
▁Writ	-5102
astern	-5103
▁Madras	-5104
▁scope	-5105
▁Employ	-5106
▁afford	-5107
▁commitment	-5108
▁manufacturing	-5109
▁Rights	-5110
▁behaviour	-5111
withstanding	-5112
vent	-5113
▁Dur	-5114
▁Prom	-5115
▁deals	-5116
▁bul	-5117
▁mix	-5118
▁simpl	-5119
ips	-5120
▁Engine	-5121
▁actions	-5122
CE	-5123
iant	-5124
▁Met	-5125
▁heat	-5126
▁Swami	-5127
▁capable	-5128
▁Security	-5129
▁crow	-5130
▁Affairs	-5131
known	-5132
▁wonder	-5133
unicipal	-5134
▁arising	-5135
▁contempt	-5136
▁Tel	-5137
▁spot	-5138
abinet	-5139
▁possession	-5140
▁signed	-5141
▁Emp	-5142
icted	-5143
omin	-5144
▁Ban	-5145
▁rice	-5146
▁Joint	-5147
▁format	-5148
▁scientists	-5149
▁radi	-5150
▁Divine	-5151
▁launch	-5152
▁Reserve	-5153
▁SH	-5154
amin	-5155
▁Cop	-5156
hance	-5157
▁brief	-5158
▁pointed	-5159
▁revenue	-5160
▁festival	-5161
rees	-5162
▁solar	-5163
▁rivers	-5164
▁finance	-5165
▁password	-5166
▁bilateral	-5167
ESS	-5168
▁alt	-5169
hetic	-5170
▁Order	-5171
▁drive	-5172
▁Rural	-5173
opal	-5174
anta	-5175
arya	-5176
ping	-5177
▁micro	-5178
▁minutes	-5179
▁acquired	-5180
▁Assessing	-5181
▁kil	-5182
▁File	-5183
▁defe	-5184
▁felicit	-5185
▁portion	-5186
▁Scheduled	-5187
▁implemented	-5188
wa	-5189
gor	-5190
udh	-5191
▁Kab	-5192
inces	-5193
▁rock	-5194
▁Business	-5195
▁flowers	-5196
▁appeared	-5197
▁identified	-5198
▁....	-5199
▁Nadu	-5200
▁currency	-5201
▁interpret	-5202
▁performed	-5203
▁friendship	-5204
ammad	-5205
under	-5206
ranath	-5207
▁cricket	-5208
▁manifest	-5209
▁withdraw	-5210
che	-5211
▁Pet	-5212
iation	-5213
▁shared	-5214
▁Fed	-5215
inder	-5216
▁myst	-5217
▁proof	-5218
▁channel	-5219
▁executive	-5220
osite	-5221
aration	-5222
▁commod	-5223
▁Nations	-5224
asi	-5225
▁calls	-5226
▁platform	-5227
▁straight	-5228
▁Sard	-5229
▁zero	-5230
ancell	-5231
▁commence	-5232
▁Pay	-5233
▁Priv	-5234
▁Shiv	-5235
▁skills	-5236
▁initial	-5237
▁assigned	-5238
bon	-5239
amet	-5240
▁filled	-5241
▁installed	-5242
▁Those	-5243
▁mandap	-5244
▁visited	-5245
ohn	-5246
▁lawy	-5247
▁Afghan	-5248
▁enforce	-5249
▁location	-5250
▁Like	-5251
inding	-5252
▁Small	-5253
▁forth	-5254
▁trend	-5255
▁Houses	-5256
▁announced	-5257
▁dance	-5258
▁kinds	-5259
▁oblig	-5260
▁Related	-5261
operative	-5262
▁distinct	-5263
▁satisfied	-5264
▁१	-5265
▁ap	-5266
ette	-5267
▁Time	-5268
▁severe	-5269
▁Israeli	-5270
▁branches	-5271
▁AS	-5272
▁aims	-5273
▁marketing	-5274
urb	-5275
roud	-5276
▁000	-5277
▁reforms	-5278
▁stream	-5279
▁struct	-5280
▁delight	-5281
▁initiative	-5282
▁respective	-5283
▁temperature	-5284
▁organizations	-5285
ithm	-5286
▁Kam	-5287
▁please	-5288
▁AD	-5289
▁discl	-5290
▁Deputy	-5291
▁seemed	-5292
▁formation	-5293
▁represents	-5294
esty	-5295
ulty	-5296
▁Mat	-5297
asant	-5298
▁categ	-5299
▁colon	-5300
▁Jawahar	-5301
▁partner	-5302
▁organized	-5303
▁amp	-5304
▁Food	-5305
▁beings	-5306
▁offices	-5307
▁discussed	-5308
▁environmental	-5309
AD	-5310
▁secure	-5311
▁billion	-5312
▁extension	-5313
AB	-5314
▁evil	-5315
▁email	-5316
▁girls	-5317
▁poets	-5318
▁wants	-5319
▁band	-5320
▁upper	-5321
▁plaint	-5322
▁western	-5323
▁Something	-5324
riving	-5325
▁Hyderabad	-5326
▁Ang	-5327
▁mir	-5328
▁cloth	-5329
▁indig	-5330
▁kumar	-5331
▁battle	-5332
▁mostly	-5333
▁communal	-5334
▁Ministers	-5335
▁collected	-5336
acc	-5337
hal	-5338
atio	-5339
▁hop	-5340
▁pert	-5341
▁Bangl	-5342
▁disapp	-5343
▁marked	-5344
▁none	-5345
▁customer	-5346
▁centuries	-5347
▁ax	-5348
itage	-5349
ensions	-5350
▁immediate	-5351
▁Gan	-5352
▁narrow	-5353
▁possess	-5354
▁rid	-5355
▁wise	-5356
▁Brahm	-5357
▁Vishn	-5358
▁pregn	-5359
▁exists	-5360
▁preced	-5361
▁Cr	-5362
▁Det	-5363
▁absor	-5364
▁doesn	-5365
▁History	-5366
▁compared	-5367
rigation	-5368
▁imposed	-5369
▁Application	-5370
asw	-5371
▁dia	-5372
▁coast	-5373
▁fertil	-5374
▁simply	-5375
▁eligible	-5376
▁conce	-5377
▁Select	-5378
▁judiciary	-5379
▁liquid	-5380
▁council	-5381
▁deliver	-5382
▁mountain	-5383
▁thousands	-5384
▁Sol	-5385
stood	-5386
▁equality	-5387
▁improvement	-5388
▁Dec	-5389
▁Var	-5390
▁ear	-5391
▁tissue	-5392
▁equally	-5393
▁governments	-5394
▁remote	-5395
▁advanced	-5396
elled	-5397
▁Data	-5398
▁Enter	-5399
▁killed	-5400
uli	-5401
▁bone	-5402
ossible	-5403
▁stands	-5404
▁foundation	-5405
▁runs	-5406
▁chance	-5407
▁discharge	-5408
antic	-5409
▁sight	-5410
▁French	-5411
▁prejud	-5412
▁university	-5413
ulatory	-5414
▁containing	-5415
oes	-5416
▁Year	-5417
▁blue	-5418
iration	-5419
▁Maj	-5420
▁gram	-5421
▁limits	-5422
▁movements	-5423
minent	-5424
▁train	-5425
▁consumer	-5426
▁intended	-5427
▁properly	-5428
mer	-5429
▁deleg	-5430
▁instruments	-5431
▁substantial	-5432
▁cow	-5433
oring	-5434
▁Back	-5435
▁Appell	-5436
▁sexual	-5437
▁welcome	-5438
▁Hel	-5439
▁delib	-5440
▁permission	-5441
▁recognition	-5442
▁considerable	-5443
▁height	-5444
ocal	-5445
▁hyd	-5446
▁Resident	-5447
▁composed	-5448
▁initiated	-5449
oples	-5450
▁Know	-5451
▁fifty	-5452
▁employee	-5453
▁brid	-5454
▁Force	-5455
▁Micro	-5456
▁griev	-5457
▁amended	-5458
▁incorpor	-5459
room	-5460
inger	-5461
▁journal	-5462
▁Palestinian	-5463
oses	-5464
ansion	-5465
▁divid	-5466
▁adjust	-5467
▁attrib	-5468
▁folder	-5469
▁screen	-5470
▁depends	-5471
▁visible	-5472
▁transaction	-5473
ih	-5474
▁Vice	-5475
▁supreme	-5476
▁category	-5477
▁entirely	-5478
pro	-5479
dess	-5480
ffic	-5481
▁phen	-5482
▁organised	-5483
▁conference	-5484
alg	-5485
arp	-5486
uddin	-5487
▁Good	-5488
▁Allah	-5489
▁figures	-5490
▁seeking	-5491
▁electricity	-5492
plom	-5493
▁Book	-5494
▁enhance	-5495
▁extremely	-5496
erce	-5497
▁bird	-5498
▁minds	-5499
▁Magistrate	-5500
▁undertaken	-5501
pto	-5502
akti	-5503
oken	-5504
▁Bur	-5505
▁guard	-5506
unction	-5507
▁household	-5508
▁Failed	-5509
▁overall	-5510
▁Assistant	-5511
▁technologies	-5512
back	-5513
hent	-5514
▁starting	-5515
▁dog	-5516
▁eggs	-5517
▁sick	-5518
▁career	-5519
▁personality	-5520
gent	-5521
▁vehicle	-5522
▁directed	-5523
▁competent	-5524
▁Az	-5525
▁org	-5526
▁Count	-5527
▁framework	-5528
clause	-5529
▁Trade	-5530
▁Legislature	-5531
▁rit	-5532
▁agent	-5533
▁ahead	-5534
▁prose	-5535
▁thank	-5536
▁feature	-5537
▁regulations	-5538
UL	-5539
mn	-5540
ux	-5541
icon	-5542
otes	-5543
▁opposition	-5544
▁lie	-5545
▁Trust	-5546
▁raise	-5547
▁config	-5548
▁directions	-5549
▁John	-5550
▁Pass	-5551
▁cave	-5552
▁fell	-5553
▁iron	-5554
▁loans	-5555
inating	-5556
▁insect	-5557
▁creative	-5558
▁multiple	-5559
▁arms	-5560
▁exports	-5561
▁liability	-5562
▁cott	-5563
▁audit	-5564
▁organisations	-5565
▁Bir	-5566
▁claims	-5567
alam	-5568
ingly	-5569
▁dynam	-5570
▁employed	-5571
▁informed	-5572
▁pursu	-5573
ressive	-5574
▁interested	-5575
shi	-5576
▁Urdu	-5577
▁offers	-5578
▁Eastern	-5579
▁il	-5580
▁incur	-5581
▁hardly	-5582
▁Bangladesh	-5583
LE	-5584
ourses	-5585
▁Capital	-5586
▁sacrifice	-5587
sc	-5588
alle	-5589
▁Bench	-5590
▁Process	-5591
VE	-5592
aces	-5593
hered	-5594
oration	-5595
▁closed	-5596
▁fourth	-5597
▁outstanding	-5598
▁felicitations	-5599
ndra	-5600
idden	-5601
▁sweet	-5602
▁track	-5603
▁Institut	-5604
▁examples	-5605
ota	-5606
▁sin	-5607
▁Pandit	-5608
▁choose	-5609
▁couple	-5610
de	-5611
▁myself	-5612
▁continues	-5613
▁customers	-5614
▁districts	-5615
kata	-5616
▁shop	-5617
▁deeply	-5618
▁blind	-5619
▁negoti	-5620
▁Economic	-5621
▁comprehensive	-5622
eum	-5623
ien	-5624
▁fix	-5625
organ	-5626
▁rent	-5627
▁demands	-5628
▁quickly	-5629
▁investig	-5630
PS	-5631
▁Rao	-5632
▁mel	-5633
▁Agriculture	-5634
tes	-5635
▁roll	-5636
▁enabled	-5637
▁witnesses	-5638
▁Committees	-5639
▁Ja	-5640
▁tea	-5641
▁Yadav	-5642
▁remed	-5643
▁railway	-5644
▁proportion	-5645
mb	-5646
▁obtain	-5647
▁markets	-5648
▁devi	-5649
▁Hence	-5650
ications	-5651
▁Mahabhar	-5652
rut	-5653
▁radio	-5654
▁procedures	-5655
▁surg	-5656
▁Award	-5657
▁budget	-5658
▁happens	-5659
▁objects	-5660
▁Yes	-5661
uable	-5662
▁disk	-5663
▁Chait	-5664
▁Laksh	-5665
▁Super	-5666
▁imperial	-5667
▁Ka	-5668
▁raw	-5669
▁kill	-5670
▁sacred	-5671
▁respondent	-5672
▁arbitration	-5673
nan	-5674
othes	-5675
▁Fort	-5676
▁Laws	-5677
▁prove	-5678
▁awarded	-5679
▁counsel	-5680
▁involve	-5681
▁Exchange	-5682
▁mechanism	-5683
ima	-5684
▁Saty	-5685
▁proud	-5686
▁stamp	-5687
▁bright	-5688
▁conven	-5689
▁liberal	-5690
▁alternative	-5691
king	-5692
▁para	-5693
urally	-5694
▁drama	-5695
▁Address	-5696
▁belonging	-5697
▁instructions	-5698
eer	-5699
atab	-5700
▁race	-5701
▁upgr	-5702
▁Madhya	-5703
▁discrim	-5704
fall	-5705
izes	-5706
▁Sen	-5707
▁theme	-5708
▁slight	-5709
▁playing	-5710
▁Executive	-5711
▁Bu	-5712
▁FOR	-5713
anish	-5714
▁transp	-5715
▁contributions	-5716
▁grounds	-5717
▁prosecution	-5718
umber	-5719
▁Dal	-5720
▁skill	-5721
▁Vishnu	-5722
▁Parliamentary	-5723
gments	-5724
▁addressed	-5725
anath	-5726
▁arrangement	-5727
eds	-5728
ola	-5729
▁labor	-5730
▁Territ	-5731
▁describ	-5732
▁Cre	-5733
▁pret	-5734
▁liable	-5735
▁distinguished	-5736
ica	-5737
wari	-5738
going	-5739
▁Mohan	-5740
▁thoughts	-5741
▁impossible	-5742
▁arrived	-5743
▁explained	-5744
▁Move	-5745
▁Verm	-5746
▁span	-5747
▁Sardar	-5748
▁understood	-5749
ander	-5750
▁Rule	-5751
▁jail	-5752
▁Awards	-5753
▁enacted	-5754
▁aspir	-5755
▁apparent	-5756
▁appearance	-5757
PA	-5758
ader	-5759
ruits	-5760
▁exped	-5761
▁horse	-5762
▁toler	-5763
agers	-5764
▁Road	-5765
▁religions	-5766
▁commencement	-5767
▁mr	-5768
rosy	-5769
▁Rab	-5770
▁promoting	-5771
osen	-5772
encing	-5773
▁speaking	-5774
▁respectively	-5775
▁hind	-5776
▁admitted	-5777
▁estimated	-5778
▁personnel	-5779
ema	-5780
uni	-5781
umin	-5782
▁Tele	-5783
▁intention	-5784
▁facilitate	-5785
▁masses	-5786
▁compound	-5787
uru	-5788
oles	-5789
▁core	-5790
▁inquiry	-5791
riages	-5792
▁Similarly	-5793
▁efficiency	-5794
▁differences	-5795
▁requirement	-5796
ION	-5797
▁Po	-5798
cend	-5799
▁lev	-5800
▁cris	-5801
▁definite	-5802
▁statutory	-5803
▁conclusion	-5804
ny	-5805
▁rub	-5806
▁vit	-5807
▁spect	-5808
▁dedicated	-5809
▁effectively	-5810
▁legislative	-5811
▁bat	-5812
▁acting	-5813
▁ritual	-5814
▁constitute	-5815
▁peoples	-5816
TH	-5817
ius	-5818
abet	-5819
▁sympt	-5820
▁everyone	-5821
▁Companies	-5822
▁intelligence	-5823
▁transactions	-5824
OC	-5825
OU	-5826
▁Great	-5827
▁steel	-5828
▁acknow	-5829
▁desert	-5830
▁arrested	-5831
▁alle	-5832
▁pages	-5833
▁showing	-5834
▁allowance	-5835
▁determination	-5836
▁Web	-5837
▁pul	-5838
▁doll	-5839
▁spite	-5840
▁libert	-5841
▁availability	-5842
▁anyone	-5843
▁exclud	-5844
▁covering	-5845
dy	-5846
▁Top	-5847
▁Chen	-5848
▁elim	-5849
▁renew	-5850
▁Germany	-5851
▁guidelines	-5852
▁entrepreneurs	-5853
▁Ms	-5854
▁ram	-5855
▁vig	-5856
▁Conf	-5857
▁fees	-5858
▁suffer	-5859
▁knows	-5860
▁propag	-5861
▁showed	-5862
▁Speaking	-5863
▁definition	-5864
elve	-5865
▁Wind	-5866
ensity	-5867
▁evolution	-5868
▁Jawaharlal	-5869
while	-5870
▁Change	-5871
▁murder	-5872
▁recognized	-5873
▁rend	-5874
▁render	-5875
▁Persian	-5876
▁finding	-5877
▁uniform	-5878
▁victims	-5879
▁emphasis	-5880
▁improved	-5881
iliar	-5882
▁Mult	-5883
▁diet	-5884
▁plans	-5885
unately	-5886
▁consent	-5887
▁detailed	-5888
▁humanity	-5889
▁repeated	-5890
▁terrorist	-5891
top	-5892
anka	-5893
▁lif	-5894
▁tim	-5895
▁leaving	-5896
▁improving	-5897
▁selection	-5898
MS	-5899
pet	-5900
▁Nath	-5901
ashing	-5902
▁derived	-5903
▁Regional	-5904
▁phenomen	-5905
▁baby	-5906
▁Innov	-5907
▁breath	-5908
arh	-5909
▁DNA	-5910
▁motor	-5911
▁integr	-5912
norm	-5913
▁eval	-5914
▁sequ	-5915
hibition	-5916
▁dismiss	-5917
▁writers	-5918
▁representative	-5919
१२	-5920
odh	-5921
▁Chhat	-5922
ciation	-5923
raction	-5924
▁Children	-5925
EP	-5926
▁Bra	-5927
▁Vol	-5928
enous	-5929
▁enemy	-5930
▁floor	-5931
▁Comput	-5932
▁Officers	-5933
▁quantity	-5934
▁certainly	-5935
▁corporate	-5936
▁happiness	-5937
▁convention	-5938
▁Vidy	-5939
▁upto	-5940
▁Buddha	-5941
▁Credit	-5942
▁Industry	-5943
▁infection	-5944
estion	-5945
▁Ahmed	-5946
yal	-5947
▁NI	-5948
▁fib	-5949
rafts	-5950
▁Common	-5951
▁remaining	-5952
▁AP	-5953
▁Gold	-5954
▁practical	-5955
▁difficulty	-5956
ooth	-5957
▁unw	-5958
▁Army	-5959
▁admin	-5960
▁Brahmin	-5961
▁consumption	-5962
▁thor	-5963
▁contemporary	-5964
▁sad	-5965
isher	-5966
▁tools	-5967
▁chapter	-5968
▁Aj	-5969
▁bag	-5970
▁lect	-5971
▁lose	-5972
▁Convention	-5973
▁Registration	-5974
rum	-5975
unk	-5976
▁pu	-5977
▁drop	-5978
▁double	-5979
▁string	-5980
▁housing	-5981
▁settled	-5982
▁guidance	-5983
▁normally	-5984
▁Through	-5985
cont	-5986
assion	-5987
▁kingdom	-5988
▁Petition	-5989
▁heritage	-5990
▁cra	-5991
▁Raja	-5992
▁alleg	-5993
▁papers	-5994
▁accompan	-5995
▁regarded	-5996
owed	-5997
▁Ref	-5998
▁lik	-5999
▁MSME	-6000
▁seeds	-6001
▁center	-6002
▁occurs	-6003
▁Cal	-6004
▁hill	-6005
ailing	-6006
▁About	-6007
▁inspired	-6008
▁strategy	-6009
▁tot	-6010
▁Binoy	-6011
▁consultation	-6012
▁sky	-6013
▁flag	-6014
▁saint	-6015
▁solid	-6016
▁illust	-6017
▁stages	-6018
▁pension	-6019
▁Democ	-6020
▁ratio	-6021
▁complic	-6022
▁computing	-6023
MP	-6024
▁Gr	-6025
▁Tir	-6026
house	-6027
ifies	-6028
▁Legal	-6029
▁Mount	-6030
▁disposal	-6031
inct	-6032
▁hom	-6033
▁cust	-6034
▁reply	-6035
▁unable	-6036
▁Chaitanya	-6037
▁telephone	-6038
▁successfully	-6039
▁cool	-6040
▁vess	-6041
bedkar	-6042
▁emergency	-6043
▁ego	-6044
icide	-6045
ivered	-6046
▁difficulties	-6047
egu	-6048
van	-6049
▁ID	-6050
ilty	-6051
▁Vij	-6052
▁syn	-6053
venth	-6054
icians	-6055
▁injury	-6056
▁immense	-6057
▁Marriage	-6058
▁indirect	-6059
▁sustainable	-6060
▁III	-6061
▁Jay	-6062
asters	-6063
▁filing	-6064
▁Ambedkar	-6065
▁settings	-6066
▁superior	-6067
agraph	-6068
▁Appellate	-6069
arsh	-6070
▁legs	-6071
▁flood	-6072
▁attacks	-6073
▁investors	-6074
▁integrated	-6075
iri	-6076
▁du	-6077
aniel	-6078
▁holds	-6079
▁stead	-6080
▁crisis	-6081
▁college	-6082
aneous	-6083
▁era	-6084
▁Name	-6085
▁enterprise	-6086
aren	-6087
asty	-6088
▁bact	-6089
▁flat	-6090
▁armed	-6091
▁garden	-6092
▁strike	-6093
▁expansion	-6094
ERS	-6095
oned	-6096
▁Equ	-6097
▁mos	-6098
▁Afghanistan	-6099
ashi	-6100
load	-6101
oman	-6102
▁fill	-6103
mation	-6104
▁outer	-6105
▁widely	-6106
RE	-6107
onym	-6108
ommod	-6109
inance	-6110
▁chrom	-6111
▁layer	-6112
▁owner	-6113
▁owners	-6114
▁traffic	-6115
▁tomorrow	-6116
▁involving	-6117
▁electronic	-6118
▁Far	-6119
▁Gram	-6120
▁Turk	-6121
▁manager	-6122
▁talking	-6123
▁accurate	-6124
▁meetings	-6125
▁Panchayat	-6126
▁IC	-6127
▁raj	-6128
▁Start	-6129
▁sister	-6130
▁compuls	-6131
▁millions	-6132
mony	-6133
▁Head	-6134
▁Sant	-6135
▁Allow	-6136
▁finds	-6137
▁quiet	-6138
▁usual	-6139
▁walls	-6140
oresaid	-6141
▁forests	-6142
▁writings	-6143
▁Class	-6144
▁celebrated	-6145
▁contribute	-6146
▁cart	-6147
▁park	-6148
▁accom	-6149
▁founded	-6150
▁trained	-6151
yas	-6152
ilal	-6153
▁Kir	-6154
▁Yet	-6155
▁League	-6156
▁trouble	-6157
▁messages	-6158
iya	-6159
xic	-6160
grim	-6161
▁Nor	-6162
▁Geor	-6163
▁fuel	-6164
▁scen	-6165
▁Academ	-6166
▁deposits	-6167
▁educated	-6168
▁determine	-6169
▁representatives	-6170
▁PO	-6171
uran	-6172
isted	-6173
retion	-6174
▁brings	-6175
▁aforesaid	-6176
▁Industries	-6177
▁remarkable	-6178
▁roads	-6179
▁director	-6180
▁plaintiff	-6181
▁Fam	-6182
▁Pad	-6183
▁adm	-6184
▁viz	-6185
▁blow	-6186
▁taught	-6187
▁arrangements	-6188
inese	-6189
urved	-6190
▁dealt	-6191
▁border	-6192
▁debate	-6193
▁controlled	-6194
▁PC	-6195
▁cos	-6196
active	-6197
ananda	-6198
▁patri	-6199
▁forget	-6200
oli	-6201
ulpt	-6202
inity	-6203
▁permitted	-6204
▁discipline	-6205
▁Sk	-6206
adur	-6207
nergy	-6208
▁guide	-6209
▁illeg	-6210
▁thick	-6211
▁tribal	-6212
▁twelve	-6213
▁voluntary	-6214
▁subsequent	-6215
▁investments	-6216
▁Rev	-6217
▁City	-6218
▁Hari	-6219
▁Unit	-6220
▁harmony	-6221
▁herself	-6222
▁trading	-6223
▁acquisition	-6224
▁chosen	-6225
▁delivered	-6226
▁Free	-6227
▁grew	-6228
▁chain	-6229
obe	-6230
▁Banks	-6231
▁gather	-6232
▁guilty	-6233
▁argument	-6234
▁irrigation	-6235
▁abol	-6236
▁hall	-6237
▁Russia	-6238
▁soldiers	-6239
▁destruction	-6240
ugg	-6241
▁UK	-6242
▁bail	-6243
▁clar	-6244
lation	-6245
▁yourself	-6246
▁neighbour	-6247
▁discussions	-6248
AGE	-6249
▁Dw	-6250
oser	-6251
▁ignor	-6252
▁scene	-6253
▁divide	-6254
▁evident	-6255
▁ocean	-6256
▁begins	-6257
▁fruits	-6258
▁significance	-6259
▁Being	-6260
▁paras	-6261
▁contrary	-6262
▁El	-6263
▁Text	-6264
▁recovery	-6265
▁consisting	-6266
▁productivity	-6267
▁York	-6268
▁leads	-6269
▁Labour	-6270
▁southern	-6271
▁universe	-6272
asks	-6273
ibly	-6274
▁recall	-6275
▁partition	-6276
och	-6277
lets	-6278
uity	-6279
▁ends	-6280
▁equity	-6281
inations	-6282
▁Kolkata	-6283
▁resulting	-6284
▁conviction	-6285
tis	-6286
▁Ary	-6287
▁Earth	-6288
▁Paper	-6289
▁chair	-6290
▁socio	-6291
▁departments	-6292
amy	-6293
▁nerv	-6294
▁envis	-6295
▁burden	-6296
▁safegu	-6297
▁chargeable	-6298
▁competition	-6299
▁depth	-6300
▁Annual	-6301
▁Custom	-6302
▁Import	-6303
▁accompl	-6304
▁solutions	-6305
zz	-6306
araj	-6307
osit	-6308
▁Sita	-6309
▁Apart	-6310
▁broken	-6311
▁identify	-6312
usal	-6313
akrish	-6314
uality	-6315
▁verse	-6316
▁wound	-6317
▁Sav	-6318
eting	-6319
ician	-6320
uting	-6321
▁bomb	-6322
▁innoc	-6323
▁Mughal	-6324
▁possibility	-6325
TS	-6326
rin	-6327
▁hit	-6328
raint	-6329
ranch	-6330
▁sculpt	-6331
▁Chinese	-6332
▁convert	-6333
▁refused	-6334
ullah	-6335
▁News	-6336
▁empt	-6337
ifically	-6338
▁Himachal	-6339
▁numerous	-6340
▁Australia	-6341
▁Jh	-6342
anga	-6343
▁kid	-6344
hemat	-6345
▁Integ	-6346
▁approx	-6347
▁authent	-6348
▁valuable	-6349
care	-6350
▁fasc	-6351
▁spoke	-6352
▁Comment	-6353
▁reaction	-6354
▁continuous	-6355
▁transmission	-6356
hips	-6357
▁Gra	-6358
allel	-6359
▁stake	-6360
▁starts	-6361
ographical	-6362
▁acceptance	-6363
enn	-6364
▁Ors	-6365
etary	-6366
▁roof	-6367
▁thereby	-6368
▁Province	-6369
▁specially	-6370
▁Administrative	-6371
inn	-6372
ker	-6373
▁Bet	-6374
▁temporary	-6375
▁fift	-6376
▁goals	-6377
▁prompt	-6378
▁rulers	-6379
▁Britain	-6380
kash	-6381
▁Ara	-6382
▁ren	-6383
isdom	-6384
▁poetic	-6385
▁criticism	-6386
▁essentially	-6387
achi	-6388
▁unb	-6389
eries	-6390
▁sanct	-6391
▁aggreg	-6392
▁stress	-6393
▁amounts	-6394
▁constitu	-6395
akar	-6396
▁pig	-6397
▁Acts	-6398
ronics	-6399
▁Municipal	-6400
▁Shi	-6401
▁neck	-6402
▁Later	-6403
▁Chrome	-6404
▁bottom	-6405
▁diplom	-6406
▁assembly	-6407
▁Universities	-6408
idi	-6409
▁CS	-6410
▁Jo	-6411
▁waiting	-6412
▁Rah	-6413
▁beg	-6414
▁bats	-6415
▁pound	-6416
▁linked	-6417
▁Station	-6418
▁largely	-6419
▁buildings	-6420
▁gradually	-6421
▁excellence	-6422
▁Sik	-6423
hibit	-6424
▁exch	-6425
▁gods	-6426
▁verses	-6427
▁explain	-6428
▁faculty	-6429
▁weapons	-6430
▁familiar	-6431
▁authorised	-6432
▁securities	-6433
son	-6434
▁coc	-6435
arita	-6436
▁prote	-6437
▁wholly	-6438
▁accommod	-6439
▁amendments	-6440
CI	-6441
rie	-6442
wor	-6443
▁Ord	-6444
▁boys	-6445
herent	-6446
▁Vedic	-6447
utation	-6448
▁Enable	-6449
▁breast	-6450
▁flower	-6451
▁suddenly	-6452
▁forwarded	-6453
▁qualities	-6454
▁Mur	-6455
▁Last	-6456
▁poly	-6457
▁conferred	-6458
▁satisfaction	-6459
▁Administration	-6460
jan	-6461
▁forg	-6462
▁succ	-6463
▁images	-6464
▁strict	-6465
▁advised	-6466
urse	-6467
▁Cle	-6468
▁Tal	-6469
▁vary	-6470
▁Master	-6471
▁Cabinet	-6472
▁comfort	-6473
▁infinite	-6474
▁producing	-6475
▁accordingly	-6476
▁Key	-6477
auses	-6478
▁France	-6479
▁feelings	-6480
▁accompanied	-6481
▁participate	-6482
iso	-6483
▁Gora	-6484
▁proc	-6485
▁vote	-6486
▁Asian	-6487
chandra	-6488
▁attain	-6489
▁replace	-6490
▁components	-6491
IF	-6492
▁click	-6493
▁claimed	-6494
ords	-6495
▁htt	-6496
▁NAME	-6497
▁edge	-6498
▁Anand	-6499
▁Shankar	-6500
▁prepare	-6501
▁suffered	-6502
▁newspaper	-6503
▁encouraged	-6504
▁consequences	-6505
▁introduction	-6506
▁representation	-6507
▁seeing	-6508
▁mandapa	-6509
▁currently	-6510
▁categories	-6511
ria	-6512
▁ca	-6513
orthy	-6514
▁Oper	-6515
▁permit	-6516
▁prince	-6517
▁employer	-6518
▁hat	-6519
▁tong	-6520
▁update	-6521
▁violent	-6522
▁Certificate	-6523
well	-6524
▁Dar	-6525
rator	-6526
▁Rest	-6527
▁audio	-6528
▁links	-6529
▁decade	-6530
▁proposals	-6531
▁achievement	-6532
iger	-6533
ream	-6534
▁Muh	-6535
iques	-6536
peror	-6537
▁nurs	-6538
▁advoc	-6539
▁devices	-6540
▁digital	-6541
▁willing	-6542
▁mo	-6543
▁rom	-6544
▁tab	-6545
▁Disc	-6546
▁deriv	-6547
▁street	-6548
▁waters	-6549
▁concerns	-6550
▁symptoms	-6551
NG	-6552
da	-6553
zy	-6554
▁Lah	-6555
▁arg	-6556
atabase	-6557
▁drinking	-6558
▁northern	-6559
▁carefully	-6560
atre	-6561
▁Mun	-6562
▁deter	-6563
▁react	-6564
habilit	-6565
▁Export	-6566
▁abnorm	-6567
▁reader	-6568
▁examine	-6569
▁parliamentary	-6570
▁hur	-6571
▁crores	-6572
▁ensuring	-6573
uses	-6574
▁tub	-6575
▁Found	-6576
▁eastern	-6577
▁invited	-6578
▁directory	-6579
▁litigation	-6580
rier	-6581
▁anx	-6582
▁tro	-6583
▁Autom	-6584
▁gross	-6585
▁panel	-6586
▁solve	-6587
▁Turkey	-6588
▁unknown	-6589
▁Election	-6590
▁component	-6591
je	-6592
pad	-6593
▁CD	-6594
▁myth	-6595
▁exactly	-6596
▁confined	-6597
▁disabled	-6598
edia	-6599
ensus	-6600
▁adopt	-6601
irement	-6602
▁poison	-6603
▁Railway	-6604
▁opposite	-6605
▁traditions	-6606
▁ow	-6607
▁Sud	-6608
▁alc	-6609
▁thr	-6610
▁PRODU	-6611
▁Sometimes	-6612
ears	-6613
▁Mir	-6614
▁NAB	-6615
ushed	-6616
uster	-6617
▁node	-6618
▁cycle	-6619
▁throw	-6620
▁dignity	-6621
▁secular	-6622
▁pec	-6623
▁shel	-6624
▁despite	-6625
▁stopped	-6626
▁conversion	-6627
cles	-6628
▁sam	-6629
▁gall	-6630
▁appeals	-6631
▁incurred	-6632
▁prominent	-6633
▁suggestion	-6634
▁distributed	-6635
OM	-6636
icks	-6637
alore	-6638
▁customs	-6639
kh	-6640
urer	-6641
▁Having	-6642
▁Bharati	-6643
▁elephant	-6644
EG	-6645
itra	-6646
leum	-6647
rating	-6648
▁sales	-6649
▁seats	-6650
▁causing	-6651
▁pilgrim	-6652
entle	-6653
▁Shiva	-6654
▁atomic	-6655
▁intest	-6656
▁Welfare	-6657
▁empower	-6658
▁Islamist	-6659
▁patients	-6660
▁distinction	-6661
▁Id	-6662
▁UT	-6663
▁allot	-6664
▁gland	-6665
▁represented	-6666
his	-6667
oom	-6668
▁Copy	-6669
▁trem	-6670
▁hence	-6671
▁tender	-6672
▁Kingdom	-6673
▁tourism	-6674
▁followers	-6675
▁wa	-6676
▁Shar	-6677
▁symp	-6678
▁gradu	-6679
▁teeth	-6680
▁nutrit	-6681
▁inserted	-6682
▁involves	-6683
mp	-6684
atar	-6685
▁Eff	-6686
▁Term	-6687
rovers	-6688
▁advis	-6689
▁conqu	-6690
▁mixed	-6691
▁spend	-6692
▁sorrow	-6693
▁Interest	-6694
▁combination	-6695
▁architecture	-6696
▁Lep	-6697
▁Rav	-6698
▁Supp	-6699
▁abst	-6700
▁allows	-6701
▁corner	-6702
▁eternal	-6703
▁commonly	-6704
writ	-6705
▁CHA	-6706
▁Tar	-6707
▁Circ	-6708
▁Flag	-6709
▁Soft	-6710
▁tank	-6711
▁advert	-6712
▁PRODUCT	-6713
▁studied	-6714
▁excellent	-6715
१३	-6716
▁IPC	-6717
▁holy	-6718
▁salt	-6719
mentation	-6720
▁occurred	-6721
▁applicant	-6722
yl	-6723
▁mig	-6724
▁smt	-6725
▁arise	-6726
▁owned	-6727
istries	-6728
▁resign	-6729
▁Support	-6730
▁fighting	-6731
▁Const	-6732
▁yellow	-6733
▁quarter	-6734
za	-6735
mic	-6736
ache	-6737
▁Due	-6738
▁Lat	-6739
apped	-6740
rates	-6741
▁lady	-6742
▁brows	-6743
▁fever	-6744
▁Working	-6745
▁recommendation	-6746
itud	-6747
oram	-6748
utor	-6749
▁hyp	-6750
algam	-6751
amber	-6752
▁Siva	-6753
▁faced	-6754
▁Energy	-6755
▁shaped	-6756
▁innovative	-6757
ded	-6758
rain	-6759
▁ties	-6760
iously	-6761
▁White	-6762
tisgarh	-6763
▁escape	-6764
▁fifteen	-6765
▁illness	-6766
▁passion	-6767
▁radical	-6768
▁achievements	-6769
icity	-6770
▁hills	-6771
▁Private	-6772
▁passeng	-6773
▁secondary	-6774
ayas	-6775
nity	-6776
endar	-6777
▁dust	-6778
▁sheet	-6779
▁greatly	-6780
▁Sessions	-6781
▁indicate	-6782
▁appellant	-6783
▁emotional	-6784
DP	-6785
▁Kap	-6786
▁hun	-6787
▁pup	-6788
▁Abdul	-6789
▁Block	-6790
▁Liter	-6791
▁falls	-6792
▁entrust	-6793
▁equival	-6794
▁Ramayana	-6795
▁diversity	-6796
▁CH	-6797
ients	-6798
▁grat	-6799
hening	-6800
▁Vaishn	-6801
▁courses	-6802
▁Hinduism	-6803
▁strategic	-6804
▁interpretation	-6805
▁transformation	-6806
ls	-6807
▁kg	-6808
▁Mot	-6809
▁ran	-6810
orter	-6811
▁truly	-6812
▁Forest	-6813
▁cotton	-6814
▁pieces	-6815
▁sovere	-6816
▁harvest	-6817
▁rejected	-6818
▁receiving	-6819
eff	-6820
▁signs	-6821
▁NABARD	-6822
▁sports	-6823
▁managed	-6824
▁consumers	-6825
▁Agricultural	-6826
▁civilization	-6827
▁automatically	-6828
husi	-6829
▁Alm	-6830
▁Dom	-6831
▁victory	-6832
▁internet	-6833
▁mountains	-6834
..	-6835
▁Mor	-6836
icket	-6837
▁accum	-6838
▁convin	-6839
▁facing	-6840
▁liberty	-6841
▁discover	-6842
▁converted	-6843
▁ly	-6844
ture	-6845
▁Ven	-6846
▁Coun	-6847
▁Test	-6848
▁seat	-6849
▁wear	-6850
▁aimed	-6851
▁rising	-6852
isha	-6853
▁eve	-6854
▁Make	-6855
▁airc	-6856
▁Money	-6857
▁cancer	-6858
▁signal	-6859
▁Knowledge	-6860
▁technique	-6861
▁compassion	-6862
▁technological	-6863
▁la	-6864
▁bath	-6865
▁stim	-6866
roleum	-6867
▁palace	-6868
▁wisdom	-6869
▁Narayan	-6870
▁deceased	-6871
nex	-6872
ums	-6873
ktop	-6874
▁Max	-6875
▁Taj	-6876
▁ash	-6877
▁dro	-6878
works	-6879
▁resort	-6880
▁realised	-6881
▁dependent	-6882
▁contributed	-6883
▁isol	-6884
▁manage	-6885
▁notified	-6886
▁Notwithstanding	-6887
ukh	-6888
▁Lad	-6889
▁meat	-6890
arathi	-6891
esterday	-6892
▁Engineering	-6893
ificial	-6894
▁diverse	-6895
▁Maharaja	-6896
▁backward	-6897
▁subscribe	-6898
▁developments	-6899
AP	-6900
IG	-6901
▁dh	-6902
NAME	-6903
▁nav	-6904
▁antic	-6905
▁decre	-6906
▁index	-6907
missible	-6908
▁raising	-6909
▁dangerous	-6910
▁statements	-6911
heb	-6912
▁CP	-6913
qual	-6914
▁Gree	-6915
▁remind	-6916
▁Gazette	-6917
▁maintaining	-6918
▁Chhattisgarh	-6919
▁strengthening	-6920
▁tort	-6921
▁pride	-6922
▁saved	-6923
▁enthusi	-6924
▁experts	-6925
▁candidates	-6926
▁ww	-6927
▁ring	-6928
▁Defence	-6929
▁therein	-6930
▁Amb	-6931
▁Iss	-6932
▁Nand	-6933
▁sons	-6934
▁tube	-6935
aryana	-6936
▁minute	-6937
▁submit	-6938
▁applies	-6939
▁desired	-6940
▁examined	-6941
▁affection	-6942
▁childhood	-6943
▁vegetables	-6944
uv	-6945
▁mad	-6946
▁www	-6947
▁utter	-6948
▁salary	-6949
▁closely	-6950
▁multipl	-6951
▁proviso	-6952
▁brothers	-6953
▁structures	-6954
nai	-6955
▁vim	-6956
▁Arch	-6957
▁bull	-6958
▁rough	-6959
▁domain	-6960
▁learnt	-6961
UM	-6962
▁asking	-6963
▁cheque	-6964
▁tourist	-6965
▁guarantee	-6966
▁privilege	-6967
▁declaration	-6968
rm	-6969
rane	-6970
ports	-6971
orders	-6972
▁venture	-6973
▁influenced	-6974
illa	-6975
antly	-6976
▁Note	-6977
▁oral	-6978
erning	-6979
▁inval	-6980
▁Kumari	-6981
▁Online	-6982
▁visual	-6983
entation	-6984
▁planned	-6985
▁strange	-6986
▁Governance	-6987
▁obligation	-6988
▁suggestions	-6989
▁vul	-6990
▁Sund	-6991
▁jobs	-6992
▁Number	-6993
▁listed	-6994
▁Consult	-6995
▁printed	-6996
▁cultivation	-6997
ogen	-6998
▁Four	-6999
othing	-7000
ourable	-7001
▁shrine	-7002
▁eminent	-7003
▁naturally	-7004
▁od	-7005
ding	-7006
▁Ren	-7007
▁avo	-7008
▁Have	-7009
▁fault	-7010
▁fluid	-7011
▁glass	-7012
▁older	-7013
duction	-7014
▁adverse	-7015
▁Planning	-7016
▁ceremony	-7017
▁Additional	-7018
▁experiences	-7019
ATE	-7020
umes	-7021
erved	-7022
itals	-7023
▁Look	-7024
▁Mang	-7025
▁embra	-7026
▁elabor	-7027
▁passage	-7028
▁operative	-7029
▁primarily	-7030
▁institutional	-7031
▁beat	-7032
▁inev	-7033
▁pipes	-7034
▁experiment	-7035
oked	-7036
ollow	-7037
▁forty	-7038
▁marks	-7039
▁route	-7040
▁German	-7041
▁stored	-7042
▁Haryana	-7043
▁custody	-7044
▁preparation	-7045
ju	-7046
ida	-7047
▁rhy	-7048
celer	-7049
iable	-7050
▁aside	-7051
reement	-7052
▁amalgam	-7053
▁controvers	-7054
hash	-7055
▁Deb	-7056
essed	-7057
▁Gita	-7058
▁genu	-7059
▁tail	-7060
▁seeks	-7061
▁carbon	-7062
▁opposed	-7063
▁reduction	-7064
▁Fac	-7065
▁asc	-7066
▁Sett	-7067
▁clim	-7068
▁Death	-7069
iversary	-7070
▁drawing	-7071
▁pertaining	-7072
▁Sin	-7073
▁via	-7074
▁expiry	-7075
▁novels	-7076
▁overse	-7077
urg	-7078
▁vs	-7079
▁Saf	-7080
▁unre	-7081
▁algor	-7082
▁disturb	-7083
▁operate	-7084
▁whereas	-7085
▁attended	-7086
▁subordinate	-7087
rd	-7088
plete	-7089
▁Vish	-7090
uction	-7091
▁ended	-7092
▁bridge	-7093
▁cattle	-7094
▁options	-7095
▁servant	-7096
▁resulted	-7097
▁discovered	-7098
▁instruction	-7099
mad	-7100
▁NO	-7101
▁TV	-7102
▁mic	-7103
obile	-7104
▁Cult	-7105
▁noise	-7106
▁recip	-7107
▁Arabic	-7108
▁condem	-7109
▁entity	-7110
▁fulfil	-7111
▁realise	-7112
▁sharing	-7113
▁totally	-7114
▁supposed	-7115
▁happening	-7116
▁Fr	-7117
ught	-7118
▁Dig	-7119
▁ing	-7120
▁Farm	-7121
▁burn	-7122
▁George	-7123
▁forced	-7124
▁regime	-7125
▁Persons	-7126
▁goddess	-7127
▁percentage	-7128
osc	-7129
▁mah	-7130
▁analy	-7131
▁diagn	-7132
▁persu	-7133
▁Basava	-7134
iculture	-7135
▁Marathi	-7136
▁rational	-7137
▁ministers	-7138
▁thereafter	-7139
EF	-7140
▁flex	-7141
▁surre	-7142
▁Sector	-7143
▁incent	-7144
▁Perhaps	-7145
▁replied	-7146
▁specify	-7147
▁testing	-7148
▁computers	-7149
▁corruption	-7150
▁progressive	-7151
ulf	-7152
rian	-7153
▁Nir	-7154
▁fron	-7155
▁vent	-7156
▁decor	-7157
▁towns	-7158
▁Review	-7159
▁caught	-7160
▁refuge	-7161
▁programs	-7162
▁rendered	-7163
ela	-7164
▁Fil	-7165
▁pull	-7166
▁shif	-7167
▁Table	-7168
▁twice	-7169
▁spoken	-7170
▁societies	-7171
▁completion	-7172
▁situations	-7173
DI	-7174
▁Cy	-7175
mits	-7176
▁irre	-7177
▁pron	-7178
pector	-7179
▁Bills	-7180
▁Obama	-7181
▁stuff	-7182
▁Bahadur	-7183
▁arranged	-7184
▁revolutionary	-7185
asy	-7186
irs	-7187
bles	-7188
▁Mac	-7189
▁Arun	-7190
▁Conn	-7191
▁load	-7192
▁rect	-7193
▁sharp	-7194
▁Search	-7195
▁muscle	-7196
▁emerged	-7197
▁Buddhist	-7198
▁Muhammad	-7199
▁pictures	-7200
▁Mahabharata	-7201
ML	-7202
▁sus	-7203
▁keen	-7204
ferent	-7205
▁bills	-7206
▁covers	-7207
▁editor	-7208
alal	-7209
▁Again	-7210
▁coord	-7211
▁dress	-7212
▁framed	-7213
▁limitation	-7214
▁destination	-7215
▁Ir	-7216
▁Kann	-7217
▁Path	-7218
▁Phys	-7219
▁gift	-7220
▁lamp	-7221
▁neare	-7222
aneously	-7223
▁besides	-7224
▁Accounts	-7225
▁prospect	-7226
▁Regulation	-7227
▁techniques	-7228
agon	-7229
▁cas	-7230
itors	-7231
▁ruling	-7232
▁integrity	-7233
▁discretion	-7234
▁properties	-7235
HER	-7236
eta	-7237
▁Vin	-7238
tical	-7239
▁menu	-7240
▁prol	-7241
▁Lanka	-7242
▁lakhs	-7243
ilation	-7244
▁reprodu	-7245
lammation	-7246
▁Professor	-7247
ns	-7248
arge	-7249
raid	-7250
▁Sov	-7251
▁scar	-7252
▁elder	-7253
▁ruled	-7254
▁sites	-7255
▁Appeal	-7256
▁player	-7257
▁Collect	-7258
▁Punjabi	-7259
▁anticip	-7260
▁publish	-7261
▁marriages	-7262
▁regularly	-7263
▁impression	-7264
habilitation	-7265
ECH	-7266
▁Vik	-7267
abling	-7268
▁Benef	-7269
▁aband	-7270
▁heads	-7271
▁complaints	-7272
▁congratulate	-7273
▁Sou	-7274
▁jew	-7275
▁View	-7276
▁lock	-7277
aching	-7278
▁emerging	-7279
▁oriented	-7280
▁enforcement	-7281
ster	-7282
▁synt	-7283
asions	-7284
▁Green	-7285
▁arriv	-7286
▁Allahabad	-7287
▁displayed	-7288
▁television	-7289
olic	-7290
urch	-7291
eenth	-7292
ulous	-7293
▁Five	-7294
▁sets	-7295
▁metal	-7296
▁Global	-7297
▁earned	-7298
▁ideals	-7299
▁switch	-7300
▁virtue	-7301
▁extensive	-7302
▁specifically	-7303
SS	-7304
uf	-7305
lin	-7306
▁Bach	-7307
▁merg	-7308
▁alive	-7309
hemical	-7310
ishment	-7311
▁Create	-7312
▁Proper	-7313
▁Hindust	-7314
▁concess	-7315
▁rapidly	-7316
▁enl	-7317
▁buff	-7318
▁gate	-7319
▁Never	-7320
▁revol	-7321
▁clothes	-7322
▁enterprises	-7323
▁operational	-7324
ald	-7325
▁Jos	-7326
▁Kav	-7327
▁fly	-7328
▁Lear	-7329
▁putting	-7330
▁paragraph	-7331
▁Sem	-7332
▁Date	-7333
▁encl	-7334
issions	-7335
▁mailing	-7336
▁organisms	-7337
▁monitoring	-7338
▁implementing	-7339
comm	-7340
▁tou	-7341
orous	-7342
endous	-7343
▁immun	-7344
▁roots	-7345
▁organs	-7346
▁imagine	-7347
▁islands	-7348
▁enhanced	-7349
▁interface	-7350
▁constantly	-7351
exp	-7352
life	-7353
ureau	-7354
▁pond	-7355
▁empow	-7356
▁empire	-7357
▁sensitive	-7358
▁calculated	-7359
▁collective	-7360
▁Kor	-7361
▁anc	-7362
▁indigenous	-7363
▁translated	-7364
▁constructed	-7365
▁imagination	-7366
▁Bhut	-7367
▁flour	-7368
▁marry	-7369
▁awards	-7370
▁depart	-7371
▁consolid	-7372
▁indicated	-7373
wide	-7374
▁Ach	-7375
▁Goa	-7376
anand	-7377
rogen	-7378
▁bold	-7379
eshwar	-7380
▁Empire	-7381
▁deliber	-7382
▁warrant	-7383
▁duration	-7384
▁depending	-7385
▁endeavour	-7386
aci	-7387
ugu	-7388
▁Ray	-7389
▁Madh	-7390
▁Polit	-7391
▁wheat	-7392
▁entrusted	-7393
ua	-7394
dev	-7395
inc	-7396
ste	-7397
isite	-7398
▁exem	-7399
istent	-7400
▁stick	-7401
▁combined	-7402
▁offering	-7403
▁replaced	-7404
▁generations	-7405
▁transportation	-7406
▁Keep	-7407
▁worker	-7408
▁ordered	-7409
▁concerning	-7410
▁characteristic	-7411
▁Rai	-7412
chant	-7413
▁Luck	-7414
orious	-7415
▁models	-7416
▁chromos	-7417
▁reaching	-7418
▁newspapers	-7419
▁Govt	-7420
▁Saudi	-7421
▁irres	-7422
▁lover	-7423
▁Recomm	-7424
▁dynamic	-7425
operation	-7426
▁comments	-7427
▁Sucharita	-7428
▁fab	-7429
▁fet	-7430
power	-7431
▁Hand	-7432
▁pair	-7433
▁thin	-7434
▁Patna	-7435
▁catch	-7436
▁cloud	-7437
▁desir	-7438
▁homes	-7439
▁royal	-7440
▁repeal	-7441
▁Chennai	-7442
amination	-7443
▁contrast	-7444
▁whenever	-7445
▁achieving	-7446
▁perfection	-7447
iam	-7448
▁unn	-7449
unals	-7450
▁slowly	-7451
▁Current	-7452
▁fertiliz	-7453
▁organism	-7454
▁supplement	-7455
▁Departments	-7456
UN	-7457
▁MP	-7458
▁Arbit	-7459
▁Times	-7460
▁empty	-7461
▁litig	-7462
▁Canada	-7463
▁divers	-7464
▁ending	-7465
▁selling	-7466
▁parallel	-7467
▁undertake	-7468
▁Na	-7469
lied	-7470
▁Nob	-7471
ching	-7472
▁Check	-7473
▁prefer	-7474
▁settle	-7475
▁Brahman	-7476
▁burning	-7477
▁library	-7478
▁readers	-7479
▁Constitu	-7480
▁Innovation	-7481
lig	-7482
orne	-7483
▁snow	-7484
▁wing	-7485
▁Penal	-7486
▁promise	-7487
ham	-7488
itya	-7489
▁Mach	-7490
▁Local	-7491
▁Three	-7492
itative	-7493
▁paying	-7494
▁degrees	-7495
▁inclusive	-7496
▁resistance	-7497
▁Institutions	-7498
pex	-7499
▁Ste	-7500
▁bon	-7501
▁Bush	-7502
▁Stre	-7503
▁elev	-7504
▁Ashok	-7505
▁sixty	-7506
▁handic	-7507
Os	-7508
iche	-7509
itan	-7510
kind	-7511
▁Card	-7512
▁Prab	-7513
▁wages	-7514
▁eating	-7515
▁listen	-7516
▁unfort	-7517
▁Majesty	-7518
▁factory	-7519
▁ultimate	-7520
▁everywhere	-7521
The	-7522
aem	-7523
addy	-7524
otal	-7525
ective	-7526
▁inher	-7527
▁nerve	-7528
▁worry	-7529
▁Jewish	-7530
▁killing	-7531
▁routine	-7532
▁somebody	-7533
▁beneficial	-7534
▁IR	-7535
▁upl	-7536
▁vib	-7537
▁rose	-7538
▁Cannot	-7539
▁calling	-7540
▁defendant	-7541
pa	-7542
ECT	-7543
▁Oh	-7544
awan	-7545
▁Has	-7546
▁pit	-7547
haust	-7548
▁Access	-7549
▁helping	-7550
▁regards	-7551
JP	-7552
isp	-7553
stig	-7554
▁Sad	-7555
▁duly	-7556
▁zone	-7557
▁Malay	-7558
▁enorm	-7559
factory	-7560
▁Family	-7561
ruitment	-7562
▁earliest	-7563
▁extraord	-7564
▁historic	-7565
▁destroyed	-7566
▁requested	-7567
▁sustained	-7568
▁Foundation	-7569
▁necessarily	-7570
hari	-7571
▁map	-7572
▁rot	-7573
▁arises	-7574
▁condol	-7575
▁crucial	-7576
▁falling	-7577
▁executed	-7578
▁hundreds	-7579
▁collaboration	-7580
▁NG	-7581
aran	-7582
utosh	-7583
▁Terror	-7584
▁Leprosy	-7585
▁Washing	-7586
▁considering	-7587
ato	-7588
uri	-7589
wara	-7590
▁shad	-7591
▁Click	-7592
▁auton	-7593
▁batsman	-7594
▁resolve	-7595
▁turning	-7596
▁colonial	-7597
just	-7598
▁Rat	-7599
▁Sil	-7600
oking	-7601
▁Love	-7602
▁cord	-7603
▁Sever	-7604
▁memor	-7605
▁suicide	-7606
▁corresponding	-7607
IP	-7608
OP	-7609
jun	-7610
▁epic	-7611
TIONAL	-7612
urated	-7613
▁Young	-7614
▁grace	-7615
▁wings	-7616
ictionary	-7617
▁audience	-7618
▁protected	-7619
rh	-7620
HAR	-7621
▁SE	-7622
agra	-7623
▁Get	-7624
▁icon	-7625
▁cruel	-7626
▁stars	-7627
▁tract	-7628
▁aircraft	-7629
▁stations	-7630
▁equivalent	-7631
enda	-7632
orse	-7633
▁dow	-7634
▁haz	-7635
ether	-7636
▁Cell	-7637
istrar	-7638
athered	-7639
▁varied	-7640
▁decline	-7641
▁Consumer	-7642
▁entertain	-7643
▁competitive	-7644
▁inspiration	-7645
irt	-7646
▁PS	-7647
▁SPE	-7648
ruddin	-7649
▁Ayurved	-7650
▁alleged	-7651
▁evolved	-7652
▁prejudice	-7653
▁Investment	-7654
▁obligations	-7655
१४	-7656
bre	-7657
▁Ans	-7658
▁Exc	-7659
▁Log	-7660
▁Perm	-7661
▁Sign	-7662
▁scre	-7663
▁horiz	-7664
▁Soviet	-7665
▁defeat	-7666
▁tongue	-7667
▁genuine	-7668
▁returns	-7669
▁tribunal	-7670
▁interaction	-7671
uma	-7672
rete	-7673
ulus	-7674
▁Nic	-7675
ishra	-7676
night	-7677
▁Mahal	-7678
▁Verma	-7679
▁Sheikh	-7680
▁copies	-7681
▁Revenue	-7682
▁circuit	-7683
▁realize	-7684
▁Software	-7685
▁Prevention	-7686
yam	-7687
aked	-7688
anti	-7689
▁Bro	-7690
▁Han	-7691
▁ICT	-7692
▁Que	-7693
▁RBI	-7694
▁Maur	-7695
▁Treat	-7696
▁illegal	-7697
▁healthcare	-7698
▁Directorate	-7699
▁exploitation	-7700
▁incorporated	-7701
ariat	-7702
▁Forum	-7703
▁newly	-7704
▁tasks	-7705
▁monthly	-7706
▁peaceful	-7707
▁terminal	-7708
▁commodities	-7709
▁DAY	-7710
▁dil	-7711
adation	-7712
▁farming	-7713
▁yesterday	-7714
▁derivative	-7715
oda	-7716
▁ju	-7717
▁Save	-7718
▁hurt	-7719
orters	-7720
▁Truth	-7721
▁shock	-7722
▁taxes	-7723
▁satell	-7724
▁belongs	-7725
▁mistake	-7726
▁complain	-7727
▁multiply	-7728
▁regulation	-7729
▁consequence	-7730
oma	-7731
▁hes	-7732
▁busy	-7733
▁wage	-7734
▁bread	-7735
▁faces	-7736
▁grain	-7737
▁denied	-7738
▁rememb	-7739
▁Nothing	-7740
▁weakness	-7741
▁Bangalore	-7742
▁generated	-7743
▁residence	-7744
▁scheduled	-7745
rem	-7746
▁Bul	-7747
eches	-7748
▁Cast	-7749
▁Prat	-7750
▁blank	-7751
▁shift	-7752
▁finger	-7753
▁composition	-7754
▁territories	-7755
▁conservation	-7756
▁boat	-7757
▁alter	-7758
▁ruler	-7759
▁prayer	-7760
▁Enterpr	-7761
▁kilomet	-7762
▁succeeded	-7763
▁Washington	-7764
▁artificial	-7765
▁supporting	-7766
▁PM	-7767
riev	-7768
▁USA	-7769
▁ice	-7770
nasty	-7771
▁Hall	-7772
▁pled	-7773
▁legit	-7774
▁devoted	-7775
▁injured	-7776
▁recognize	-7777
osted	-7778
▁Kish	-7779
▁dele	-7780
▁pump	-7781
▁trek	-7782
▁tooth	-7783
▁button	-7784
▁simult	-7785
▁Several	-7786
▁prestig	-7787
▁serving	-7788
▁Moreover	-7789
atri	-7790
▁memb	-7791
▁silk	-7792
▁urge	-7793
▁intim	-7794
▁lying	-7795
▁miles	-7796
▁spons	-7797
▁noticed	-7798
▁furnished	-7799
▁presentation	-7800
▁Od	-7801
PTER	-7802
asis	-7803
aven	-7804
▁pest	-7805
▁Entry	-7806
ographic	-7807
▁feeding	-7808
▁intense	-7809
▁obtaining	-7810
▁tremendous	-7811
▁IV	-7812
anth	-7813
etan	-7814
▁Dam	-7815
▁IIT	-7816
▁aer	-7817
incial	-7818
▁shell	-7819
ections	-7820
▁summer	-7821
▁carries	-7822
▁outlook	-7823
▁partial	-7824
▁overcome	-7825
▁vehicles	-7826
▁ultimately	-7827
quar	-7828
igarh	-7829
▁Play	-7830
▁afraid	-7831
▁biggest	-7832
▁recover	-7833
▁Japanese	-7834
▁channels	-7835
▁Recommend	-7836
▁attracted	-7837
▁Sl	-7838
ivek	-7839
time	-7840
▁glad	-7841
▁brill	-7842
▁bigger	-7843
▁deduct	-7844
▁margin	-7845
▁winter	-7846
▁financing	-7847
▁references	-7848
▁CA	-7849
unch	-7850
oding	-7851
hibited	-7852
▁hidden	-7853
indranath	-7854
▁database	-7855
▁disorder	-7856
▁thorough	-7857
▁referring	-7858
▁Employment	-7859
▁frequently	-7860
▁substituted	-7861
CO	-7862
ogy	-7863
▁lung	-7864
▁charm	-7865
▁maybe	-7866
▁Indira	-7867
▁client	-7868
▁innocent	-7869
▁relatives	-7870
▁stability	-7871
▁configuration	-7872
IM	-7873
ss	-7874
rine	-7875
rous	-7876
what	-7877
oster	-7878
▁younger	-7879
▁Computer	-7880
▁agreements	-7881
pent	-7882
▁gun	-7883
▁Mess	-7884
▁dict	-7885
▁intu	-7886
▁wave	-7887
▁Gopal	-7888
▁Telugu	-7889
▁lawyers	-7890
▁theatre	-7891
▁Advocate	-7892
▁characteristics	-7893
▁PD	-7894
▁Jam	-7895
atories	-7896
▁castes	-7897
▁holder	-7898
ribution	-7899
▁CHAPTER	-7900
▁assured	-7901
▁retired	-7902
▁dramatic	-7903
▁inherent	-7904
▁Accordingly	-7905
▁AM	-7906
▁cum	-7907
▁sed	-7908
▁pool	-7909
▁larva	-7910
▁organic	-7911
▁sending	-7912
▁exception	-7913
▁exercised	-7914
▁attachment	-7915
BC	-7916
▁hal	-7917
▁loy	-7918
ecess	-7919
▁vacc	-7920
▁Advis	-7921
▁Dwark	-7922
▁contents	-7923
▁aggregate	-7924
▁varieties	-7925
▁legislature	-7926
▁La	-7927
▁ma	-7928
acle	-7929
aved	-7930
▁stup	-7931
▁Champ	-7932
▁Action	-7933
▁governed	-7934
▁performing	-7935
utch	-7936
▁Pune	-7937
▁Tour	-7938
▁Works	-7939
▁deity	-7940
▁penal	-7941
▁Speech	-7942
▁worshi	-7943
▁Centres	-7944
▁classical	-7945
▁exclusive	-7946
▁positions	-7947
▁punishable	-7948
ST	-7949
off	-7950
▁Ap	-7951
▁Ele	-7952
▁Hig	-7953
▁err	-7954
erals	-7955
irmed	-7956
▁Vide	-7957
▁genus	-7958
▁motiv	-7959
▁tells	-7960
▁Topics	-7961
▁Himalayas	-7962
▁discrimination	-7963
auc	-7964
alli	-7965
▁Sea	-7966
andra	-7967
etime	-7968
▁stom	-7969
▁fraud	-7970
entions	-7971
▁circle	-7972
▁attempts	-7973
▁profound	-7974
▁constitut	-7975
▁occasions	-7976
▁pregnancy	-7977
▁radiation	-7978
met	-7979
bing	-7980
uing	-7981
▁auth	-7982
liance	-7983
ricted	-7984
fulness	-7985
▁easier	-7986
▁fairly	-7987
▁gained	-7988
mat	-7989
▁Case	-7990
▁Indo	-7991
▁mood	-7992
▁loose	-7993
▁delete	-7994
▁thread	-7995
▁mathemat	-7996
▁protocol	-7997
▁sanctioned	-7998
oult	-7999
▁Vid	-8000
▁fle	-8001
being	-8002
▁Norm	-8003
ilding	-8004
▁Nanak	-8005
▁Thank	-8006
▁closer	-8007
▁exhaust	-8008
▁pillars	-8009
▁profile	-8010
▁wherein	-8011
▁describe	-8012
uti	-8013
cers	-8014
wood	-8015
▁mil	-8016
ictions	-8017
▁partly	-8018
▁disqual	-8019
▁genetic	-8020
▁musical	-8021
▁abnormal	-8022
▁bacteria	-8023
▁Transport	-8024
▁increases	-8025
ador	-8026
▁Patel	-8027
lessness	-8028
▁extract	-8029
▁Hospital	-8030
▁precious	-8031
▁reducing	-8032
▁sequence	-8033
▁strongly	-8034
▁preferred	-8035
▁experienced	-8036
▁representing	-8037
▁extraordinary	-8038
law	-8039
atra	-8040
▁Str	-8041
▁flo	-8042
▁row	-8043
akers	-8044
▁united	-8045
▁produces	-8046
▁institute	-8047
ios	-8048
▁Aur	-8049
ipped	-8050
ridge	-8051
▁Help	-8052
▁axis	-8053
ovable	-8054
▁Major	-8055
▁Short	-8056
▁landl	-8057
▁gathered	-8058
▁payments	-8059
▁Ce	-8060
▁recon	-8061
▁furnish	-8062
▁pronoun	-8063
▁Secondary	-8064
hta	-8065
ahan	-8066
atis	-8067
xide	-8068
▁Deep	-8069
▁chest	-8070
▁SPEECH	-8071
▁farmer	-8072
▁metres	-8073
▁spring	-8074
▁cutting	-8075
▁doctors	-8076
▁seriously	-8077
▁integration	-8078
CH	-8079
pura	-8080
▁Gen	-8081
coming	-8082
▁incap	-8083
▁turns	-8084
▁daniel	-8085
▁praise	-8086
▁enjoyed	-8087
▁anywhere	-8088
▁necessity	-8089
▁Dav	-8090
▁Agra	-8091
▁lands	-8092
▁magaz	-8093
▁norms	-8094
itarian	-8095
▁Senior	-8096
▁Islands	-8097
▁scholar	-8098
▁Electric	-8099
▁servants	-8100
▁acceptable	-8101
▁identification	-8102
odox	-8103
▁Indeed	-8104
▁comprom	-8105
▁periods	-8106
▁modified	-8107
▁recording	-8108
▁realisation	-8109
avas	-8110
gage	-8111
▁oxy	-8112
▁fails	-8113
▁plane	-8114
▁risks	-8115
▁Brahma	-8116
▁Session	-8117
▁bearing	-8118
olec	-8119
▁Til	-8120
▁cad	-8121
lessly	-8122
▁bonds	-8123
▁cater	-8124
▁grave	-8125
▁lingu	-8126
▁inputs	-8127
▁pretty	-8128
liminary	-8129
▁Institution	-8130
▁establishing	-8131
▁gap	-8132
arkar	-8133
itate	-8134
▁pace	-8135
isible	-8136
rative	-8137
▁inhab	-8138
▁wider	-8139
▁Netaji	-8140
▁engage	-8141
▁stones	-8142
▁adoption	-8143
▁reposted	-8144
▁acknowled	-8145
▁exceeding	-8146
▁programming	-8147
▁Durga	-8148
▁Light	-8149
▁cance	-8150
▁mould	-8151
▁flight	-8152
lamation	-8153
▁walking	-8154
criptions	-8155
▁revealed	-8156
▁Promotion	-8157
▁indicates	-8158
▁interview	-8159
▁appreciation	-8160
▁Wik	-8161
▁Rani	-8162
▁font	-8163
▁Print	-8164
▁fifth	-8165
▁forum	-8166
▁convicted	-8167
▁increasingly	-8168
endix	-8169
iders	-8170
alysis	-8171
▁Bureau	-8172
missions	-8173
▁Subhash	-8174
▁darkness	-8175
▁BY	-8176
▁NS	-8177
▁SS	-8178
▁Six	-8179
▁nin	-8180
▁vag	-8181
▁Chal	-8182
▁Zone	-8183
▁plot	-8184
▁Relig	-8185
▁Third	-8186
▁Reform	-8187
▁Temple	-8188
▁remedy	-8189
▁Manipur	-8190
▁acceler	-8191
▁windows	-8192
▁contacts	-8193
uts	-8194
▁eg	-8195
down	-8196
acing	-8197
▁Narm	-8198
▁Take	-8199
▁Vivek	-8200
▁texts	-8201
▁uncle	-8202
▁genius	-8203
▁urgent	-8204
▁assumed	-8205
▁Technical	-8206
▁ownership	-8207
▁Organization	-8208
▁AN	-8209
riya	-8210
▁Mrs	-8211
ogram	-8212
▁Docu	-8213
▁mine	-8214
▁incom	-8215
▁march	-8216
▁sheep	-8217
▁golden	-8218
▁imported	-8219
▁somewhat	-8220
▁Registrar	-8221
▁corporation	-8222
lor	-8223
bind	-8224
mans	-8225
herry	-8226
▁Paul	-8227
▁scrut	-8228
▁Academy	-8229
▁enquiry	-8230
▁reflected	-8231
▁villagers	-8232
▁restrictions	-8233
AND	-8234
oty	-8235
▁cul	-8236
eding	-8237
▁luck	-8238
person	-8239
▁faster	-8240
▁stayed	-8241
▁driving	-8242
▁enlight	-8243
▁reserve	-8244
▁silence	-8245
▁compulsory	-8246
▁institutes	-8247
▁remembered	-8248
gi	-8249
ino	-8250
▁HT	-8251
▁Sank	-8252
▁calm	-8253
▁meal	-8254
▁clock	-8255
▁kings	-8256
atively	-8257
▁Lahore	-8258
▁Swaraj	-8259
▁Unable	-8260
▁devote	-8261
▁fabric	-8262
▁impose	-8263
▁silent	-8264
▁harmful	-8265
▁invalid	-8266
▁Contract	-8267
▁equation	-8268
▁continuing	-8269
UD	-8270
yr	-8271
zen	-8272
▁cav	-8273
▁Hard	-8274
arency	-8275
▁infer	-8276
▁Bhutan	-8277
▁adults	-8278
▁perpet	-8279
▁silver	-8280
▁Lucknow	-8281
▁Quality	-8282
▁package	-8283
▁enabling	-8284
▁tourists	-8285
▁wherever	-8286
▁appreciate	-8287
▁encouraging	-8288
CP	-8289
erk	-8290
how	-8291
using	-8292
▁spin	-8293
▁lease	-8294
▁nodes	-8295
▁fought	-8296
▁hearts	-8297
▁preval	-8298
▁smooth	-8299
▁African	-8300
▁imports	-8301
▁pleased	-8302
▁premium	-8303
▁reserved	-8304
▁Badruddin	-8305
oa	-8306
aria	-8307
alaya	-8308
▁Chak	-8309
▁Mart	-8310
▁Sanj	-8311
▁indu	-8312
▁Black	-8313
▁alien	-8314
▁brown	-8315
▁wheel	-8316
usively	-8317
▁Instead	-8318
▁stomach	-8319
akrishnan	-8320
▁literacy	-8321
▁describes	-8322
nic	-8323
opl	-8324
eals	-8325
▁Hus	-8326
plate	-8327
▁Phot	-8328
▁push	-8329
lihood	-8330
▁repay	-8331
ogether	-8332
▁Ganges	-8333
▁gentle	-8334
▁talent	-8335
▁careful	-8336
▁mankind	-8337
▁circular	-8338
▁province	-8339
▁eventually	-8340
▁complicated	-8341
mo	-8342
▁fo	-8343
orce	-8344
archy	-8345
acharya	-8346
▁artist	-8347
▁precise	-8348
▁retirement	-8349
TP	-8350
bh	-8351
ALL	-8352
raj	-8353
▁spr	-8354
▁Radh	-8355
▁posts	-8356
▁Valley	-8357
▁headed	-8358
▁valley	-8359
▁Without	-8360
▁answers	-8361
▁surgery	-8362
▁Islamists	-8363
▁practition	-8364
▁conventional	-8365
aras	-8366
isal	-8367
unate	-8368
▁http	-8369
idency	-8370
▁Sahib	-8371
▁acute	-8372
▁plain	-8373
▁Bhagat	-8374
▁vested	-8375
▁formula	-8376
▁aspirations	-8377
▁geographical	-8378
▁End	-8379
▁Sab	-8380
hical	-8381
omous	-8382
▁wire	-8383
▁feels	-8384
▁keeps	-8385
▁loved	-8386
▁merit	-8387
▁heaven	-8388
▁repair	-8389
▁unlike	-8390
▁printing	-8391
kha	-8392
ario	-8393
ouds	-8394
▁club	-8395
▁Agency	-8396
▁dreams	-8397
▁colleges	-8398
▁entering	-8399
▁inspection	-8400
▁Beg	-8401
▁bin	-8402
angle	-8403
avior	-8404
ipher	-8405
▁Main	-8406
apping	-8407
employ	-8408
▁worse	-8409
▁browser	-8410
▁enormous	-8411
▁networks	-8412
▁algorithm	-8413
UB	-8414
stone	-8415
▁Care	-8416
▁idol	-8417
▁Amrit	-8418
▁bears	-8419
▁bride	-8420
▁Federal	-8421
▁Product	-8422
▁Transfer	-8423
▁interpre	-8424
▁visiting	-8425
END	-8426
▁EX	-8427
▁Hem	-8428
ammed	-8429
urning	-8430
essment	-8431
▁dissem	-8432
▁Inspector	-8433
▁intermedi	-8434
▁comprising	-8435
illy	-8436
nagar	-8437
▁Bhav	-8438
▁dear	-8439
▁beach	-8440
▁begun	-8441
▁taste	-8442
▁batter	-8443
▁firmly	-8444
▁saving	-8445
iciently	-8446
pay	-8447
▁CR	-8448
ulum	-8449
▁PAR	-8450
aming	-8451
▁Sidd	-8452
▁Vict	-8453
ounder	-8454
▁ought	-8455
▁handle	-8456
▁island	-8457
▁refund	-8458
▁licence	-8459
▁advocate	-8460
▁calendar	-8461
▁revision	-8462
▁nominated	-8463
▁observations	-8464
▁subsequently	-8465
▁Ba	-8466
apse	-8467
▁Requ	-8468
ashion	-8469
▁Urban	-8470
▁brave	-8471
▁adding	-8472
▁native	-8473
▁complim	-8474
▁relates	-8475
▁Articles	-8476
▁mandatory	-8477
▁instituted	-8478
hik	-8479
ffee	-8480
▁Gar	-8481
chers	-8482
▁Kaur	-8483
▁admission	-8484
ESSAGE	-8485
▁retain	-8486
▁thinks	-8487
ifferent	-8488
▁Deposit	-8489
▁paramet	-8490
▁everybody	-8491
▁NH	-8492
▁py	-8493
▁rat	-8494
▁tor	-8495
▁Auro	-8496
▁Math	-8497
▁lake	-8498
▁semi	-8499
▁tall	-8500
father	-8501
▁Vijay	-8502
▁adjud	-8503
▁hotel	-8504
▁snake	-8505
▁resear	-8506
▁tribes	-8507
▁Display	-8508
▁exchanges	-8509
▁installation	-8510
१५	-8511
iac	-8512
lesh	-8513
wali	-8514
▁fan	-8515
▁gif	-8516
▁wed	-8517
itary	-8518
ivals	-8519
▁Area	-8520
▁Prim	-8521
▁bare	-8522
itudes	-8523
▁Kabir	-8524
▁penet	-8525
▁Scient	-8526
▁Iranian	-8527
▁Prakash	-8528
▁slightly	-8529
▁Ministries	-8530
▁membership	-8531
▁Ek	-8532
rase	-8533
▁Oil	-8534
▁Azad	-8535
▁Cost	-8536
▁cong	-8537
▁horn	-8538
ulates	-8539
▁depre	-8540
▁driven	-8541
▁nervous	-8542
▁actively	-8543
▁handling	-8544
▁presents	-8545
▁candidate	-8546
▁convinced	-8547
▁disability	-8548
▁stakeholders	-8549
akur	-8550
ford	-8551
nath	-8552
▁dies	-8553
▁hide	-8554
▁orth	-8555
▁rein	-8556
▁resc	-8557
▁tack	-8558
▁thro	-8559
▁Jagann	-8560
▁Nation	-8561
▁massive	-8562
▁expanded	-8563
▁Americans	-8564
▁separately	-8565
▁gov	-8566
▁unp	-8567
▁Band	-8568
▁Next	-8569
▁hunt	-8570
istence	-8571
▁troops	-8572
▁download	-8573
▁elsewhere	-8574
▁obviously	-8575
▁residential	-8576
book	-8577
▁Did	-8578
▁Vig	-8579
▁Jews	-8580
▁Jour	-8581
▁amaz	-8582
▁tons	-8583
▁admit	-8584
▁speedy	-8585
▁MESSAGE	-8586
▁Windows	-8587
▁breeding	-8588
▁speeches	-8589
▁addresses	-8590
▁terrorists	-8591
UG	-8592
rich	-8593
roid	-8594
▁Bri	-8595
antra	-8596
▁Bhai	-8597
▁aged	-8598
▁broke	-8599
▁Repeal	-8600
quarters	-8601
▁essence	-8602
▁keyboard	-8603
▁marginal	-8604
▁surprise	-8605
▁cin	-8606
▁Sang	-8607
▁stem	-8608
▁abuse	-8609
▁crowd	-8610
▁butter	-8611
▁driver	-8612
▁peculi	-8613
▁struck	-8614
▁vessels	-8615
▁hardware	-8616
▁arguments	-8617
oz	-8618
AYS	-8619
▁CL	-8620
adra	-8621
hesis	-8622
▁alcoh	-8623
▁Modern	-8624
▁oxygen	-8625
▁desktop	-8626
▁Resource	-8627
▁Directors	-8628
▁Standards	-8629
▁preceding	-8630
▁violation	-8631
▁Ku	-8632
▁Down	-8633
▁Page	-8634
▁Sure	-8635
▁cogn	-8636
▁logic	-8637
▁Partic	-8638
▁confirm	-8639
▁players	-8640
▁dialogue	-8641
▁premises	-8642
▁sympathy	-8643
▁excessive	-8644
▁governing	-8645
▁ignorance	-8646
▁originally	-8647
▁rehabilitation	-8648
asp	-8649
agues	-8650
▁Spec	-8651
inking	-8652
▁india	-8653
▁noble	-8654
▁plate	-8655
▁agents	-8656
▁handed	-8657
resident	-8658
▁Gujarati	-8659
▁supplied	-8660
▁withdrawal	-8661
airy	-8662
hend	-8663
▁mit	-8664
▁Long	-8665
▁Thir	-8666
▁nose	-8667
▁Ahmad	-8668
ignment	-8669
▁Region	-8670
▁vulner	-8671
ospitals	-8672
▁acquire	-8673
▁Movement	-8674
▁minority	-8675
▁expertise	-8676
▁designated	-8677
▁Organisation	-8678
▁Environmental	-8679
ki	-8680
agn	-8681
vara	-8682
will	-8683
▁Yoj	-8684
▁din	-8685
idity	-8686
▁Kitt	-8687
▁Grand	-8688
▁movie	-8689
▁assert	-8690
▁Pension	-8691
▁Respond	-8692
▁knowing	-8693
▁savings	-8694
sequently	-8695
▁finished	-8696
▁incidents	-8697
awn	-8698
▁AW	-8699
▁NE	-8700
place	-8701
▁pock	-8702
theless	-8703
▁quoted	-8704
▁decimal	-8705
▁generate	-8706
▁overseas	-8707
▁occupation	-8708
▁formulation	-8709
BER	-8710
▁Ny	-8711
▁Cho	-8712
▁IPv	-8713
▁arts	-8714
acific	-8715
iceroy	-8716
▁adapt	-8717
▁films	-8718
▁optim	-8719
▁topic	-8720
▁Appeals	-8721
▁Teacher	-8722
▁tendency	-8723
▁relatively	-8724
lers	-8725
▁lov	-8726
▁pion	-8727
▁Citiz	-8728
▁Vedas	-8729
▁shoot	-8730
▁breach	-8731
▁telling	-8732
▁broadcast	-8733
Cs	-8734
kal	-8735
kim	-8736
rue	-8737
oven	-8738
▁bio	-8739
▁Imple	-8740
▁Level	-8741
▁Raman	-8742
▁Solar	-8743
▁evalu	-8744
▁holid	-8745
▁Design	-8746
▁Default	-8747
▁patterns	-8748
▁Cooperative	-8749
anes	-8750
indra	-8751
otism	-8752
▁jump	-8753
▁monu	-8754
▁glory	-8755
▁tests	-8756
▁ancest	-8757
▁kumari	-8758
▁lawyer	-8759
▁pursue	-8760
▁William	-8761
▁singing	-8762
▁Standard	-8763
▁cultures	-8764
▁monetary	-8765
▁inqu	-8766
intend	-8767
▁Center	-8768
▁protein	-8769
▁subsidy	-8770
▁utilised	-8771
▁Agreement	-8772
▁conducting	-8773
▁particulars	-8774
anim	-8775
aimed	-8776
amboo	-8777
▁Loan	-8778
▁shut	-8779
▁warn	-8780
abetes	-8781
▁Media	-8782
▁Branch	-8783
▁Mishra	-8784
▁plains	-8785
▁affects	-8786
▁focused	-8787
▁protest	-8788
▁winning	-8789
▁engagement	-8790
ett	-8791
▁Tib	-8792
▁Sult	-8793
▁domin	-8794
▁Higher	-8795
▁planet	-8796
▁Commerce	-8797
▁occupied	-8798
▁peculiar	-8799
▁schedule	-8800
▁communications	-8801
aar	-8802
pes	-8803
orry	-8804
▁Tom	-8805
▁fract	-8806
▁rhyth	-8807
ologist	-8808
▁stable	-8809
▁breaking	-8810
▁machines	-8811
▁enhancing	-8812
▁tolerance	-8813
▁livelihood	-8814
▁determining	-8815
▁Yam	-8816
▁Dhan	-8817
asures	-8818
▁Pract	-8819
▁usage	-8820
▁Appendix	-8821
▁Collector	-8822
▁concluded	-8823
▁empowered	-8824
▁absolutely	-8825
▁phenomenon	-8826
▁observation	-8827
▁modification	-8828
hana	-8829
▁isn	-8830
▁sar	-8831
▁vii	-8832
▁Desp	-8833
▁Mean	-8834
▁Mill	-8835
▁shot	-8836
olving	-8837
▁Samaj	-8838
▁abdom	-8839
▁harmon	-8840
▁mineral	-8841
▁Himalayan	-8842
▁Christians	-8843
▁compliance	-8844
▁prevention	-8845
▁approximately	-8846
.-	-8847
EV	-8848
fe	-8849
▁Br	-8850
▁bug	-8851
▁lac	-8852
rible	-8853
▁Sand	-8854
▁hung	-8855
▁acted	-8856
▁anger	-8857
attered	-8858
▁assemb	-8859
▁couldn	-8860
▁viewed	-8861
▁vimana	-8862
▁writes	-8863
▁authors	-8864
▁cancell	-8865
▁insurer	-8866
▁mixture	-8867
▁Railways	-8868
▁Standing	-8869
▁preserve	-8870
log	-8871
▁SA	-8872
oure	-8873
ymph	-8874
▁EVE	-8875
▁Wild	-8876
▁clin	-8877
▁arrive	-8878
▁freely	-8879
▁levied	-8880
▁Housing	-8881
▁Minimum	-8882
▁denomin	-8883
▁printer	-8884
▁announce	-8885
▁objection	-8886
▁delegation	-8887
ugin	-8888
▁rab	-8889
▁Rece	-8890
▁sake	-8891
akings	-8892
itated	-8893
ortion	-8894
▁Arabs	-8895
▁bones	-8896
▁sounds	-8897
▁visits	-8898
▁fashion	-8899
▁immovable	-8900
▁cooperative	-8901
upee	-8902
▁voc	-8903
▁Bhar	-8904
▁stip	-8905
ancies	-8906
▁Grant	-8907
▁Space	-8908
▁cease	-8909
▁genes	-8910
ramental	-8911
▁creates	-8912
▁ignored	-8913
▁revised	-8914
▁commerce	-8915
▁reserves	-8916
▁succession	-8917
teen	-8918
▁nod	-8919
adequ	-8920
urbed	-8921
▁Type	-8922
▁Status	-8923
▁Finally	-8924
▁Freedom	-8925
▁outcome	-8926
▁streams	-8927
▁attained	-8928
▁experiments	-8929
▁innovations	-8930
▁involvement	-8931
▁participants	-8932
▁Haz	-8933
acles	-8934
▁ages	-8935
▁Basic	-8936
▁perce	-8937
▁Survey	-8938
▁humans	-8939
▁nearby	-8940
▁nobody	-8941
▁clauses	-8942
▁exclusively	-8943
▁preliminary	-8944
nut	-8945
▁Dy	-8946
▁ha	-8947
emat	-8948
onent	-8949
▁sees	-8950
otions	-8951
oultry	-8952
ounded	-8953
▁reign	-8954
▁Forces	-8955
▁Museum	-8956
▁compan	-8957
▁Aurobind	-8958
▁believes	-8959
▁dimension	-8960
▁colleagues	-8961
▁imperialism	-8962
▁Constitutional	-8963
▁IF	-8964
▁Ke	-8965
▁chap	-8966
▁fond	-8967
▁Video	-8968
▁abund	-8969
▁Prosec	-8970
▁Sindhi	-8971
▁equals	-8972
▁exceeds	-8973
▁federal	-8974
▁Question	-8975
▁attacked	-8976
▁judgments	-8977
▁qualified	-8978
▁personally	-8979
var	-8980
erge	-8981
▁Lic	-8982
▁nest	-8983
▁palm	-8984
▁void	-8985
▁chart	-8986
▁hyper	-8987
▁binding	-8988
▁missing	-8989
▁commodity	-8990
▁discovery	-8991
▁Dwarkanath	-8992
▁surrounded	-8993
ocy	-8994
aunt	-8995
▁unh	-8996
apore	-8997
▁Call	-8998
▁dish	-8999
▁molec	-9000
▁agenda	-9001
▁Subject	-9002
▁Viceroy	-9003
▁distant	-9004
▁enables	-9005
▁Chancell	-9006
▁separated	-9007
▁surrender	-9008
▁Integrated	-9009
▁electrical	-9010
▁capabilities	-9011
AK	-9012
UK	-9013
ENCE	-9014
vals	-9015
▁Nam	-9016
▁tum	-9017
▁van	-9018
astri	-9019
▁Conv	-9020
terior	-9021
urrent	-9022
▁Estab	-9023
▁magic	-9024
▁pestic	-9025
▁reward	-9026
▁destiny	-9027
▁realized	-9028
▁allocation	-9029
▁accommodation	-9030
DR	-9031
IST	-9032
osa	-9033
▁ul	-9034
rawn	-9035
plant	-9036
ulses	-9037
▁Fest	-9038
▁outs	-9039
▁serves	-9040
▁conform	-9041
▁drought	-9042
▁dynasty	-9043
▁entries	-9044
▁NATIONAL	-9045
▁balanced	-9046
▁dividend	-9047
▁inferior	-9048
▁unemploy	-9049
▁limitations	-9050
▁perspective	-9051
hor	-9052
chen	-9053
soon	-9054
▁Naz	-9055
▁Opt	-9056
▁kit	-9057
▁vex	-9058
▁suits	-9059
▁observe	-9060
▁submission	-9061
▁substances	-9062
▁Constituent	-9063
ba	-9064
das	-9065
▁AR	-9066
▁Os	-9067
acco	-9068
appa	-9069
eers	-9070
rosc	-9071
▁cha	-9072
orney	-9073
▁Ocean	-9074
▁Plant	-9075
▁indul	-9076
▁reass	-9077
▁Sikkim	-9078
▁sharma	-9079
▁Singles	-9080
▁avoided	-9081
▁enemies	-9082
▁horizon	-9083
▁retained	-9084
▁wonderful	-9085
▁productive	-9086
▁restricted	-9087
▁intervention	-9088
▁Radhakrishnan	-9089
▁concentration	-9090
▁kh	-9091
▁gro	-9092
▁ped	-9093
ulent	-9094
atious	-9095
▁Quran	-9096
▁Reddy	-9097
▁Sikhs	-9098
▁spell	-9099
▁thrown	-9100
▁declare	-9101
▁vitamin	-9102
▁repealed	-9103
▁Aurobindo	-9104
▁safeguard	-9105
▁accounting	-9106
▁Secretariat	-9107
▁AC	-9108
▁Gre	-9109
▁Job	-9110
▁Soon	-9111
▁mart	-9112
agraha	-9113
charge	-9114
▁repro	-9115
▁storm	-9116
▁mining	-9117
▁Mohammed	-9118
▁estimate	-9119
▁preparing	-9120
▁consistent	-9121
▁reputation	-9122
PL	-9123
iah	-9124
ipp	-9125
▁BI	-9126
▁Ha	-9127
ajan	-9128
fare	-9129
▁Pip	-9130
▁Sha	-9131
▁Star	-9132
▁actor	-9133
ailable	-9134
inarily	-9135
▁allied	-9136
▁estate	-9137
▁forgot	-9138
▁harass	-9139
▁insert	-9140
▁museum	-9141
▁forming	-9142
▁advances	-9143
▁extending	-9144
▁addressing	-9145
co	-9146
▁MW	-9147
idav	-9148
▁Jer	-9149
aland	-9150
▁Greek	-9151
▁widow	-9152
▁Mobile	-9153
▁Airport	-9154
▁Russian	-9155
▁license	-9156
▁tissues	-9157
▁attractive	-9158
▁separation	-9159
▁Old	-9160
imony	-9161
ressal	-9162
▁Indra	-9163
▁brand	-9164
▁decree	-9165
▁grains	-9166
▁habits	-9167
▁untouch	-9168
▁Protocol	-9169
▁suggests	-9170
▁photograph	-9171
OV	-9172
conn	-9173
tain	-9174
▁Guid	-9175
▁Prop	-9176
▁Tool	-9177
▁beet	-9178
▁figh	-9179
▁peak	-9180
▁spir	-9181
wealth	-9182
▁Bhatt	-9183
▁flows	-9184
▁plural	-9185
▁Abdullah	-9186
▁entrance	-9187
▁Malayalam	-9188
athi	-9189
▁Dou	-9190
▁Enc	-9191
▁Hit	-9192
▁cup	-9193
icing	-9194
▁hect	-9195
▁teleg	-9196
▁therm	-9197
▁tight	-9198
▁Should	-9199
▁bought	-9200
▁insult	-9201
▁tenant	-9202
▁toward	-9203
onscious	-9204
▁Ayurveda	-9205
▁chemicals	-9206
▁dismissed	-9207
▁prisoners	-9208
▁connections	-9209
▁Rabindranath	-9210
SA	-9211
bra	-9212
▁Bai	-9213
▁Ris	-9214
▁tap	-9215
valid	-9216
▁Fire	-9217
▁Full	-9218
▁favor	-9219
manship	-9220
▁Budget	-9221
▁Estate	-9222
▁deleted	-9223
▁desirable	-9224
▁Enterprises	-9225
▁#	-9226
lock	-9227
onic	-9228
▁nurt	-9229
inions	-9230
stream	-9231
▁immig	-9232
▁assume	-9233
▁muscles	-9234
▁satisfy	-9235
▁skilled	-9236
▁judgement	-9237
▁grievances	-9238
▁inevitable	-9239
▁liberation	-9240
▁developmental	-9241
sar	-9242
▁tow	-9243
▁tact	-9244
▁tiny	-9245
onomic	-9246
▁advent	-9247
▁therap	-9248
▁Library	-9249
▁manpower	-9250
▁surrounding	-9251
▁Ib	-9252
tery	-9253
▁Poly	-9254
▁degr	-9255
icable	-9256
▁helpl	-9257
ichever	-9258
▁Mahade	-9259
▁Tribes	-9260
▁miscon	-9261
▁weapon	-9262
▁contrad	-9263
▁approaches	-9264
▁ho	-9265
obar	-9266
ques	-9267
▁bes	-9268
▁Camp	-9269
▁Gard	-9270
▁Rate	-9271
ipping	-9272
▁foods	-9273
▁paddy	-9274
▁deaths	-9275
▁fraction	-9276
▁Territory	-9277
▁functional	-9278
TE	-9279
jo	-9280
emen	-9281
enders	-9282
usions	-9283
▁width	-9284
▁Spirit	-9285
▁resemb	-9286
ificates	-9287
▁Install	-9288
▁Monitor	-9289
▁arrival	-9290
▁rendering	-9291
▁controversy	-9292
▁publications	-9293
araja	-9294
chron	-9295
▁Pars	-9296
▁Audio	-9297
▁Indus	-9298
▁Point	-9299
▁sport	-9300
▁deeper	-9301
▁legend	-9302
▁reiter	-9303
▁Pacific	-9304
▁streets	-9305
▁Rajendra	-9306
▁disaster	-9307
orticulture	-9308
▁Palestinians	-9309
hr	-9310
eri	-9311
▁Ve	-9312
▁ji	-9313
isan	-9314
▁Sit	-9315
▁Khat	-9316
▁hors	-9317
▁seiz	-9318
▁Koran	-9319
▁Menon	-9320
▁borne	-9321
▁ports	-9322
▁Invalid	-9323
▁extends	-9324
▁lending	-9325
▁initially	-9326
▁collecting	-9327
▁psychological	-9328
▁Ru	-9329
▁ov	-9330
ourn	-9331
▁Mall	-9332
▁Total	-9333
▁bench	-9334
▁doors	-9335
▁reads	-9336
▁......	-9337
▁flying	-9338
▁hatred	-9339
▁Turkish	-9340
▁exposed	-9341
▁Recovery	-9342
▁railways	-9343
▁highlight	-9344
▁indirectly	-9345
▁transmitted	-9346
ITY	-9347
▁VI	-9348
bery	-9349
▁Din	-9350
▁Suf	-9351
▁Yog	-9352
▁sul	-9353
▁tape	-9354
liness	-9355
▁Audit	-9356
▁penis	-9357
▁Contin	-9358
▁deploy	-9359
▁patron	-9360
▁inadequ	-9361
▁interim	-9362
▁segment	-9363
▁romantic	-9364
▁Political	-9365
▁substantially	-9366
opp	-9367
pons	-9368
point	-9369
▁Kath	-9370
▁Viet	-9371
▁Exper	-9372
▁Ident	-9373
▁Father	-9374
▁Kanpur	-9375
▁laying	-9376
▁losses	-9377
▁anybody	-9378
▁funding	-9379
▁helpful	-9380
▁laboure	-9381
▁belonged	-9382
▁supports	-9383
▁responses	-9384
▁supramental	-9385
▁philosophical	-9386
ago	-9387
cut	-9388
kes	-9389
▁Jy	-9390
▁mac	-9391
oused	-9392
▁Jord	-9393
▁bulk	-9394
▁Saroj	-9395
▁Arabia	-9396
▁specim	-9397
▁Manager	-9398
▁Upanish	-9399
▁cooking	-9400
▁festivals	-9401
▁spreading	-9402
▁whichever	-9403
▁Regulatory	-9404
▁Territories	-9405
▁shareholders	-9406
▁transparency	-9407
gra	-9408
▁Ken	-9409
▁Vaj	-9410
▁Ragh	-9411
▁ster	-9412
angers	-9413
▁Creat	-9414
▁ambit	-9415
▁Market	-9416
▁dialog	-9417
esthetic	-9418
▁Emperor	-9419
▁plastic	-9420
▁summary	-9421
▁Northern	-9422
▁coloured	-9423
▁possibly	-9424
▁studying	-9425
▁Palestine	-9426
▁fulfilled	-9427
▁countrymen	-9428
▁enthusiasm	-9429
▁simultaneously	-9430
iki	-9431
▁Ten	-9432
roller	-9433
▁shout	-9434
viation	-9435
▁oldest	-9436
▁videos	-9437
▁Despite	-9438
▁logical	-9439
▁warning	-9440
▁shoulder	-9441
▁incentives	-9442
▁mechanical	-9443
▁Infrastructure	-9444
▁Mas	-9445
▁orn	-9446
▁Sach	-9447
ipedia	-9448
▁Khand	-9449
▁depri	-9450
▁shops	-9451
▁Yojana	-9452
▁eleven	-9453
chnology	-9454
▁Hamachi	-9455
▁Natural	-9456
▁appellate	-9457
▁dedication	-9458
▁prevailing	-9459
▁Regulations	-9460
▁explanation	-9461
▁strengthened	-9462
utra	-9463
▁Abs	-9464
▁Dhar	-9465
▁Miss	-9466
▁tied	-9467
▁unus	-9468
▁Preet	-9469
▁cryst	-9470
▁fright	-9471
▁Benefit	-9472
▁beliefs	-9473
▁Whatever	-9474
▁pregnant	-9475
▁intensity	-9476
▁transparent	-9477
obi	-9478
MENT	-9479
▁aqu	-9480
iscal	-9481
▁stro	-9482
earing	-9483
▁irrit	-9484
▁photo	-9485
▁slope	-9486
▁tends	-9487
▁humble	-9488
▁shadow	-9489
▁splend	-9490
▁termin	-9491
▁thrust	-9492
▁Andaman	-9493
▁earthqu	-9494
▁reconst	-9495
▁secured	-9496
▁assessed	-9497
unications	-9498
▁brilliant	-9499
▁economies	-9500
▁protecting	-9501
vas	-9502
phal	-9503
▁Yus	-9504
▁Proc	-9505
▁Broad	-9506
▁virus	-9507
▁differ	-9508
▁treaty	-9509
ologists	-9510
▁allowing	-9511
▁regulate	-9512
▁Terrorism	-9513
▁envisaged	-9514
▁accessible	-9515
▁Examination	-9516
ashed	-9517
cence	-9518
▁Link	-9519
acular	-9520
isting	-9521
▁disag	-9522
▁mango	-9523
mitting	-9524
▁utmost	-9525
▁conspir	-9526
▁Community	-9527
▁Resources	-9528
▁prevalent	-9529
▁anniversary	-9530
▁irrespective	-9531
hot	-9532
▁Cha	-9533
▁moh	-9534
▁Fact	-9535
▁Royal	-9536
▁Tilak	-9537
▁Govind	-9538
▁Portug	-9539
▁camera	-9540
▁answered	-9541
▁concrete	-9542
▁orthodox	-9543
▁inaugurated	-9544
uta	-9545
▁Ber	-9546
▁apt	-9547
▁nit	-9548
▁tag	-9549
amese	-9550
aunch	-9551
▁Pack	-9552
▁Model	-9553
▁alarm	-9554
▁tears	-9555
▁anonym	-9556
▁crimes	-9557
▁grants	-9558
▁ceremon	-9559
▁introduce	-9560
▁provinces	-9561
▁withdrawn	-9562
▁incomplete	-9563
▁allegations	-9564
▁considerably	-9565
CA	-9566
▁NIT	-9567
▁Line	-9568
▁disb	-9569
▁epis	-9570
▁ling	-9571
▁mamm	-9572
ickets	-9573
▁Emerg	-9574
▁Clause	-9575
▁purity	-9576
▁Cricket	-9577
▁coverage	-9578
▁expensive	-9579
▁inflation	-9580
cel	-9581
elt	-9582
ihad	-9583
look	-9584
stan	-9585
▁Fre	-9586
holder	-9587
▁Queen	-9588
▁Yusuf	-9589
▁moves	-9590
▁Prince	-9591
▁Banking	-9592
▁Details	-9593
▁Manilal	-9594
▁prisoner	-9595
▁proceeds	-9596
▁rainfall	-9597
▁Evolution	-9598
▁affecting	-9599
▁gathering	-9600
▁proceeded	-9601
▁satellite	-9602
▁recruitment	-9603
▁respondents	-9604
▁interference	-9605
ca	-9606
▁Bo	-9607
▁Run	-9608
▁fool	-9609
erving	-9610
▁Appro	-9611
▁admir	-9612
▁honey	-9613
▁talks	-9614
▁Jordan	-9615
▁Mandal	-9616
▁voting	-9617
▁Conduct	-9618
▁Counsel	-9619
▁shelter	-9620
▁statute	-9621
▁computed	-9622
▁managing	-9623
▁Corporate	-9624
▁commencing	-9625
gon	-9626
occ	-9627
keep	-9628
▁Lol	-9629
onged	-9630
rants	-9631
▁Real	-9632
▁chol	-9633
▁germ	-9634
▁Hamas	-9635
▁Staff	-9636
▁Excise	-9637
▁Golden	-9638
▁doubts	-9639
▁explos	-9640
▁extrem	-9641
▁reveal	-9642
▁Personal	-9643
▁demanded	-9644
▁vot	-9645
▁Pall	-9646
▁crude	-9647
▁clouds	-9648
▁tempor	-9649
▁alcohol	-9650
▁magnetic	-9651
▁considers	-9652
▁challenged	-9653
▁nationalism	-9654
abu	-9655
ori	-9656
rao	-9657
rued	-9658
▁lal	-9659
▁Best	-9660
▁Kore	-9661
▁Lake	-9662
▁neut	-9663
▁remun	-9664
▁Within	-9665
▁lesser	-9666
▁Buddhism	-9667
▁Projects	-9668
▁discount	-9669
▁disposed	-9670
▁Europeans	-9671
▁basically	-9672
▁witnessed	-9673
▁Recommendation	-9674
bi	-9675
▁१६	-9676
udra	-9677
▁VII	-9678
▁aug	-9679
utors	-9680
▁nice	-9681
▁games	-9682
edience	-9683
▁exempt	-9684
▁Asutosh	-9685
▁Digital	-9686
▁utility	-9687
▁formulated	-9688
▁statistics	-9689
▁significantly	-9690
beh	-9691
eda	-9692
TING	-9693
rypt	-9694
▁Bre	-9695
▁Fig	-9696
▁Mis	-9697
▁Sug	-9698
▁une	-9699
▁vel	-9700
▁obsc	-9701
▁fourt	-9702
▁smart	-9703
ciences	-9704
▁Friend	-9705
▁Island	-9706
▁immort	-9707
▁nearest	-9708
▁suspect	-9709
▁touched	-9710
▁contempl	-9711
▁connecting	-9712
▁liabilities	-9713
▁Commonwealth	-9714
HT	-9715
aha	-9716
▁Vas	-9717
unath	-9718
▁NIOS	-9719
▁SHRI	-9720
▁uter	-9721
usalem	-9722
▁David	-9723
▁parad	-9724
icating	-9725
▁bamboo	-9726
▁dollar	-9727
▁Studies	-9728
▁matches	-9729
▁behavior	-9730
▁membrane	-9731
▁Jerusalem	-9732
▁Judiciary	-9733
▁elephants	-9734
▁medicines	-9735
osy	-9736
onds	-9737
▁ali	-9738
cetic	-9739
▁lord	-9740
▁cheap	-9741
▁unexp	-9742
▁Almast	-9743
▁Follow	-9744
▁Shakti	-9745
▁Sultan	-9746
iliation	-9747
▁monsoon	-9748
▁survive	-9749
▁acquaint	-9750
▁maturity	-9751
▁Selection	-9752
▁automatic	-9753
▁deposited	-9754
▁Revolution	-9755
▁administrator	-9756
aga	-9757
iyar	-9758
▁Dutt	-9759
▁gest	-9760
urable	-9761
▁Mater	-9762
▁bliss	-9763
▁laugh	-9764
▁pharm	-9765
▁decent	-9766
▁emerge	-9767
▁hunger	-9768
▁seconds	-9769
▁Building	-9770
▁hospitals	-9771
▁recognise	-9772
▁conversation	-9773
▁professionals	-9774
MM	-9775
▁SRI	-9776
▁Tat	-9777
▁rig	-9778
▁Fold	-9779
▁bell	-9780
▁drew	-9781
▁wake	-9782
▁Along	-9783
▁Lolita	-9784
▁solemn	-9785
▁cluster	-9786
▁sincere	-9787
▁subsidi	-9788
▁linkages	-9789
▁elaborate	-9790
▁da	-9791
▁Gop	-9792
apati	-9793
▁Mant	-9794
▁Poll	-9795
▁Read	-9796
▁Rich	-9797
▁agro	-9798
▁rear	-9799
▁guess	-9800
▁Thakur	-9801
▁consec	-9802
aughters	-9803
▁Sections	-9804
▁concepts	-9805
▁subjected	-9806
▁altogether	-9807
▁previously	-9808
▁notwithstanding	-9809
▁PW	-9810
ilee	-9811
▁Kas	-9812
▁cod	-9813
▁Cond	-9814
▁SAYS	-9815
▁angry	-9816
▁mature	-9817
▁refuse	-9818
▁allotted	-9819
▁diabetes	-9820
▁helpless	-9821
MA	-9822
aped	-9823
riers	-9824
▁Desh	-9825
▁oath	-9826
▁Claim	-9827
▁enfor	-9828
▁Pandey	-9829
▁Sarasw	-9830
▁cancel	-9831
▁guided	-9832
▁patent	-9833
▁plugin	-9834
▁presum	-9835
▁timely	-9836
▁typical	-9837
▁Property	-9838
▁watching	-9839
▁frequency	-9840
▁generating	-9841
▁legitimate	-9842
▁mechanisms	-9843
uj	-9844
▁Fa	-9845
▁Ji	-9846
▁Om	-9847
▁PL	-9848
arer	-9849
icts	-9850
iety	-9851
orate	-9852
▁Poet	-9853
▁fate	-9854
▁lays	-9855
advant	-9856
▁Issue	-9857
▁Sinha	-9858
▁embod	-9859
▁minim	-9860
▁relie	-9861
imental	-9862
▁attach	-9863
▁worksh	-9864
▁Command	-9865
▁crossing	-9866
▁painting	-9867
▁residents	-9868
▁Electronics	-9869
rus	-9870
uds	-9871
▁Gas	-9872
▁wet	-9873
iwari	-9874
▁jute	-9875
▁Griev	-9876
▁alloc	-9877
▁camel	-9878
itement	-9879
▁errors	-9880
▁affidav	-9881
▁dollars	-9882
▁daughters	-9883
▁imperative	-9884
▁nationalist	-9885
term	-9886
▁Age	-9887
▁hol	-9888
▁hub	-9889
▁ears	-9890
▁kids	-9891
▁Medic	-9892
▁Radio	-9893
▁boost	-9894
▁Object	-9895
▁Rajput	-9896
▁cavity	-9897
▁credited	-9898
▁frequent	-9899
▁Governors	-9900
▁Singapore	-9901
▁recovered	-9902
▁restraint	-9903
▁Processing	-9904
▁quantities	-9905
▁regulatory	-9906
zing	-9907
▁GDP	-9908
eling	-9909
▁Decl	-9910
▁Priy	-9911
▁cocon	-9912
▁lists	-9913
▁Chaluk	-9914
▁Kittur	-9915
▁Customs	-9916
▁terrible	-9917
▁conception	-9918
▁endeavours	-9919
▁Ho	-9920
abil	-9921
▁Hyd	-9922
▁Lax	-9923
▁ray	-9924
▁Puri	-9925
▁pend	-9926
▁grade	-9927
▁upset	-9928
▁casual	-9929
▁themes	-9930
▁flowing	-9931
▁criteria	-9932
▁favourite	-9933
▁inclusion	-9934
▁capability	-9935
▁passengers	-9936
▁procedural	-9937
▁substitute	-9938
JEE	-9939
▁GN	-9940
inee	-9941
▁Neg	-9942
▁RTI	-9943
venty	-9944
▁Amit	-9945
▁shed	-9946
▁Frame	-9947
▁surve	-9948
▁tiger	-9949
▁Castes	-9950
▁curric	-9951
▁permits	-9952
▁Wikipedia	-9953
▁locations	-9954
▁testimony	-9955
▁Settlement	-9956
▁controlling	-9957
▁administered	-9958
▁characterized	-9959
ky	-9960
sa	-9961
eps	-9962
olk	-9963
oub	-9964
oys	-9965
ATES	-9966
Tube	-9967
omas	-9968
▁forb	-9969
illary	-9970
▁Activ	-9971
▁Paris	-9972
arkhand	-9973
▁advise	-9974
▁Primary	-9975
▁inspire	-9976
▁outward	-9977
▁tribute	-9978
unciation	-9979
▁subtract	-9980
▁treasure	-9981
▁Federation	-9982
▁assignment	-9983
▁complement	-9984
▁continuously	-9985
iat	-9986
rot	-9987
▁Ga	-9988
▁TH	-9989
▁Ut	-9990
▁Bod	-9991
▁ISO	-9992
▁PDF	-9993
oresh	-9994
▁trop	-9995
arshan	-9996
▁Birth	-9997
▁hopes	-9998
▁midst	-9999
▁worst	-10000
▁Bhagav	-10001
▁Period	-10002
▁coffee	-10003
▁fallen	-10004
▁traged	-10005
olutions	-10006
▁critics	-10007
▁undergo	-10008
▁Chemical	-10009
▁minerals	-10010
▁validity	-10011
▁variable	-10012
▁Allowance	-10013
▁Arunachal	-10014
▁Panchayats	-10015
▁Electricity	-10016
gged	-10017
▁Mys	-10018
▁lod	-10019
▁Based	-10020
▁Choose	-10021
▁compos	-10022
▁crafts	-10023
▁Contact	-10024
▁instinct	-10025
▁mortgage	-10026
▁scenario	-10027
▁Provision	-10028
▁Tribunals	-10029
▁vexatious	-10030
▁describing	-10031
▁evaluation	-10032
▁philosopher	-10033
▁inflammation	-10034
IAN	-10035
anic	-10036
tier	-10037
▁Ran	-10038
▁Sak	-10039
unior	-10040
▁Bagh	-10041
akhand	-10042
▁Cross	-10043
▁diver	-10044
▁label	-10045
▁split	-10046
▁uncon	-10047
▁Amount	-10048
▁bitter	-10049
▁rarely	-10050
▁anxious	-10051
▁chamber	-10052
▁chronic	-10053
▁desires	-10054
▁volumes	-10055
▁Festival	-10056
▁respects	-10057
▁contracts	-10058
▁instances	-10059
▁negotiations	-10060
BS	-10061
idal	-10062
andum	-10063
icked	-10064
▁hindi	-10065
rection	-10066
uminous	-10067
▁Delete	-10068
▁invite	-10069
▁meters	-10070
▁Systems	-10071
▁receipts	-10072
▁Petroleum	-10073
otechnology	-10074
▁transformed	-10075
hew	-10076
kin	-10077
ella	-10078
usha	-10079
▁Naw	-10080
▁Pop	-10081
gence	-10082
▁Baba	-10083
▁dowry	-10084
▁ships	-10085
version	-10086
▁gender	-10087
▁Journal	-10088
▁upgrade	-10089
▁explains	-10090
▁invested	-10091
▁Establish	-10092
▁disadvant	-10093
▁factories	-10094
▁scientist	-10095
▁classified	-10096
▁threatened	-10097
▁satisfactory	-10098
was	-10099
▁Je	-10100
▁LIN	-10101
▁Auto	-10102
▁Swed	-10103
▁drum	-10104
urement	-10105
uscript	-10106
▁buying	-10107
▁descend	-10108
▁artistic	-10109
▁ministry	-10110
▁uncertain	-10111
▁Chandigarh	-10112
pled	-10113
▁Cro	-10114
▁SEL	-10115
▁SID	-10116
eline	-10117
▁merc	-10118
▁rand	-10119
ilance	-10120
▁Ghosh	-10121
▁lesson	-10122
▁passes	-10123
▁Kannada	-10124
▁Payment	-10125
▁heights	-10126
▁jointly	-10127
▁leaflet	-10128
▁thereto	-10129
▁Councils	-10130
▁devotees	-10131
▁predomin	-10132
▁worldwide	-10133
▁Arbitration	-10134
agu	-10135
▁Py	-10136
▁RA	-10137
andi	-10138
hesh	-10139
itic	-10140
▁Hum	-10141
ringe	-10142
rained	-10143
▁Prior	-10144
▁glaci	-10145
▁moist	-10146
▁Mysore	-10147
▁mirror	-10148
▁sample	-10149
▁welcom	-10150
economic	-10151
▁Hanuman	-10152
▁ascetic	-10153
▁conserv	-10154
▁taxation	-10155
▁confirmed	-10156
▁enactment	-10157
▁nutrition	-10158
▁advantages	-10159
▁biological	-10160
▁associations	-10161
win	-10162
adhy	-10163
inar	-10164
▁HIV	-10165
▁Occ	-10166
▁brah	-10167
▁maid	-10168
▁soph	-10169
utical	-10170
▁Armed	-10171
▁cards	-10172
▁tries	-10173
ductive	-10174
▁interc	-10175
▁jewell	-10176
▁propri	-10177
▁abstract	-10178
▁controls	-10179
▁moderate	-10180
▁unnecess	-10181
▁advertise	-10182
▁confusion	-10183
▁deficiency	-10184
▁empowerment	-10185
▁entrepreneur	-10186
IAL	-10187
▁Bag	-10188
▁dir	-10189
ubilee	-10190
▁Compl	-10191
▁grows	-10192
▁mobil	-10193
▁rupee	-10194
▁misbeh	-10195
▁picked	-10196
▁Nicobar	-10197
▁YouTube	-10198
▁corrupt	-10199
▁insured	-10200
▁worried	-10201
▁Advisory	-10202
▁interact	-10203
▁receives	-10204
▁directors	-10205
▁paintings	-10206
▁teachings	-10207
▁authorized	-10208
▁compromise	-10209
eem	-10210
hin	-10211
nty	-10212
▁dw	-10213
▁sq	-10214
▁vo	-10215
mind	-10216
more	-10217
vati	-10218
▁Hot	-10219
▁MUK	-10220
▁Miz	-10221
▁Very	-10222
▁Stock	-10223
▁ineff	-10224
istical	-10225
▁ignore	-10226
▁retail	-10227
▁artists	-10228
▁targets	-10229
▁everyday	-10230
▁intimate	-10231
▁stronger	-10232
▁perception	-10233
aki	-10234
asts	-10235
imet	-10236
ercul	-10237
opard	-10238
▁Camb	-10239
▁Nare	-10240
▁cure	-10241
▁erad	-10242
▁Advoc	-10243
▁confer	-10244
▁lasting	-10245
▁emotions	-10246
▁exposure	-10247
▁goodwill	-10248
▁promoted	-10249
▁apprehens	-10250
▁attempted	-10251
▁Literature	-10252
▁committees	-10253
▁comparison	-10254
▁parameters	-10255
▁sentiments	-10256
▁Consultation	-10257
▁connectivity	-10258
▁disabilities	-10259
▁Implementation	-10260
UT	-10261
OST	-10262
arus	-10263
fect	-10264
▁Pas	-10265
▁Teh	-10266
▁tun	-10267
pread	-10268
ropol	-10269
▁ease	-10270
▁intr	-10271
▁jack	-10272
▁keys	-10273
▁Guard	-10274
▁Incre	-10275
▁Oriya	-10276
▁waves	-10277
▁Aurang	-10278
▁buffal	-10279
▁injust	-10280
▁lowest	-10281
▁Tripura	-10282
▁torture	-10283
▁comprises	-10284
▁departure	-10285
▁intensive	-10286
▁reporting	-10287
▁fertilizers	-10288
▁substantive	-10289
▁participated	-10290
ANG	-10291
▁Ki	-10292
atta	-10293
vance	-10294
▁Rang	-10295
▁Town	-10296
HERJEE	-10297
▁overw	-10298
regular	-10299
▁absent	-10300
▁define	-10301
▁talked	-10302
▁offline	-10303
▁virtual	-10304
▁doctrine	-10305
▁magnific	-10306
▁resolved	-10307
▁surgical	-10308
▁welcomed	-10309
▁MUKHERJEE	-10310
▁vulnerable	-10311
▁intelligent	-10312
juna	-10313
▁Had	-10314
▁Nok	-10315
▁cel	-10316
▁Srin	-10317
▁apex	-10318
▁ausp	-10319
▁enqu	-10320
▁calam	-10321
▁embry	-10322
▁pests	-10323
▁Church	-10324
▁purely	-10325
▁designs	-10326
▁traders	-10327
▁promised	-10328
▁impartial	-10329
▁listening	-10330
▁returning	-10331
▁Rub	-10332
▁fro	-10333
▁Edit	-10334
▁Mich	-10335
▁digit	-10336
▁dimin	-10337
▁grate	-10338
▁relax	-10339
▁argued	-10340
▁detect	-10341
▁Certain	-10342
▁Gandhar	-10343
▁existed	-10344
aceutical	-10345
▁mutually	-10346
▁preference	-10347
▁Uttarakhand	-10348
▁Ud	-10349
alla	-10350
oria	-10351
▁Kaz	-10352
▁Unt	-10353
agari	-10354
▁alph	-10355
▁Impro	-10356
▁smoke	-10357
▁surpl	-10358
▁Ganesh	-10359
▁astron	-10360
▁filter	-10361
intendent	-10362
▁borrower	-10363
▁defeated	-10364
▁excluded	-10365
▁electoral	-10366
▁expanding	-10367
▁publicity	-10368
▁Democratic	-10369
▁Guidelines	-10370
▁headquarters	-10371
vy	-10372
ICE	-10373
onia	-10374
pass	-10375
▁Mer	-10376
▁Pul	-10377
▁eman	-10378
ioxide	-10379
▁Peace	-10380
▁liver	-10381
▁grammar	-10382
▁revival	-10383
▁wearing	-10384
▁Sarojini	-10385
▁lectures	-10386
▁survival	-10387
▁visitors	-10388
▁aesthetic	-10389
▁medicinal	-10390
▁definitely	-10391
▁laboratory	-10392
▁Vivekananda	-10393
olu	-10394
▁cm	-10395
amma	-10396
▁mud	-10397
▁ske	-10398
▁tob	-10399
innah	-10400
▁Film	-10401
▁Kesh	-10402
▁Mary	-10403
▁jung	-10404
▁Mahav	-10405
▁hards	-10406
▁owing	-10407
▁honest	-10408
▁random	-10409
▁Indones	-10410
▁capture	-10411
▁colours	-10412
▁dominant	-10413
▁Production	-10414
▁privileges	-10415
▁classification	-10416
▁CC	-10417
▁Imm	-10418
▁Wel	-10419
ignty	-10420
▁Mohd	-10421
▁Ranj	-10422
▁deed	-10423
▁tone	-10424
▁dwell	-10425
▁mouse	-10426
▁Jaipur	-10427
▁Summit	-10428
▁viable	-10429
▁Offices	-10430
▁discont	-10431
▁Brahmins	-10432
▁landlord	-10433
▁Ahmedabad	-10434
▁breathing	-10435
▁interfere	-10436
▁narrative	-10437
▁Assistance	-10438
▁congratulated	-10439
▁accountability	-10440
bo	-10441
arti	-10442
▁Kat	-10443
ceans	-10444
orted	-10445
▁Maul	-10446
▁impe	-10447
▁rocks	-10448
▁tired	-10449
reshold	-10450
▁wooden	-10451
▁illiter	-10452
▁shifted	-10453
▁absorbed	-10454
▁equipped	-10455
▁opinions	-10456
▁justified	-10457
fortunately	-10458
▁Thereafter	-10459
haz	-10460
▁Vr	-10461
rose	-10462
wing	-10463
marks	-10464
▁Decc	-10465
▁Does	-10466
▁Ravi	-10467
▁User	-10468
verage	-10469
▁Would	-10470
▁nutri	-10471
▁quote	-10472
▁Krishn	-10473
▁Poresh	-10474
▁coastal	-10475
▁explore	-10476
▁ranging	-10477
▁airports	-10478
▁overwhel	-10479
▁Societies	-10480
▁celebrate	-10481
▁Resolution	-10482
▁implications	-10483
▁relationships	-10484
GP	-10485
▁XX	-10486
etus	-10487
iest	-10488
rics	-10489
▁Mut	-10490
▁Upd	-10491
▁coin	-10492
▁Joshi	-10493
▁modes	-10494
▁proxy	-10495
▁urine	-10496
▁Notice	-10497
▁contra	-10498
▁incons	-10499
▁sphere	-10500
▁borders	-10501
▁lecture	-10502
▁poultry	-10503
▁pursuit	-10504
▁tragedy	-10505
▁advocates	-10506
▁requiring	-10507
▁sovereign	-10508
▁pilgrimage	-10509
▁dissolution	-10510
▁practically	-10511
bir	-10512
rup	-10513
uct	-10514
▁OR	-10515
ifer	-10516
ECTED	-10517
oning	-10518
water	-10519
▁Vers	-10520
▁Annex	-10521
▁decay	-10522
▁Jinnah	-10523
▁manual	-10524
▁subtle	-10525
▁instant	-10526
▁neglect	-10527
▁isolated	-10528
▁reliable	-10529
▁arbitrator	-10530
▁boundaries	-10531
▁exceptional	-10532
ARY	-10533
fly	-10534
olf	-10535
▁DV	-10536
▁UP	-10537
rass	-10538
rium	-10539
▁Nas	-10540
▁hem	-10541
TIONS	-10542
▁anth	-10543
▁vice	-10544
ulator	-10545
vation	-10546
assador	-10547
▁enters	-10548
▁endorse	-10549
▁thereon	-10550
▁sciences	-10551
▁inaugurate	-10552
▁scholarship	-10553
▁unfortunate	-10554
▁considerations	-10555
▁gn	-10556
fast	-10557
iven	-10558
▁Nig	-10559
roots	-10560
▁Moon	-10561
▁Prog	-10562
▁Prize	-10563
▁ranges	-10564
▁inspect	-10565
▁lessons	-10566
▁rituals	-10567
▁graduate	-10568
▁mistakes	-10569
▁pleasant	-10570
▁supplies	-10571
▁engineers	-10572
▁manuscript	-10573
▁constructive	-10574
▁Unfortunately	-10575
EA	-10576
Is	-10577
OME	-10578
dar	-10579
uan	-10580
▁Mc	-10581
▁mm	-10582
▁Ast	-10583
▁Suk	-10584
▁Tan	-10585
▁Tre	-10586
alled	-10587
▁cant	-10588
▁peas	-10589
▁quad	-10590
▁champ	-10591
▁trick	-10592
▁urged	-10593
holding	-10594
▁Thomas	-10595
▁carved	-10596
▁plenty	-10597
▁Maximum	-10598
▁Reforms	-10599
▁painful	-10600
▁impressed	-10601
▁reception	-10602
▁businesses	-10603
▁compliment	-10604
▁imposition	-10605
▁correspondence	-10606
do	-10607
▁AL	-10608
arna	-10609
idas	-10610
▁Bij	-10611
▁Mic	-10612
▁Nay	-10613
anned	-10614
▁NGOs	-10615
▁lots	-10616
ivided	-10617
▁Roman	-10618
▁artic	-10619
▁Pratap	-10620
▁affirm	-10621
▁cement	-10622
▁denial	-10623
▁Various	-10624
▁edition	-10625
▁magazine	-10626
▁Hindustan	-10627
▁Relations	-10628
▁literally	-10629
▁occurring	-10630
▁systematic	-10631
RU	-10632
TA	-10633
zil	-10634
▁Ish	-10635
arted	-10636
▁Send	-10637
▁Venk	-10638
▁zeal	-10639
▁Dharm	-10640
▁Manik	-10641
▁globe	-10642
▁rains	-10643
▁Harish	-10644
▁aftern	-10645
▁legacy	-10646
▁marine	-10647
▁insight	-10648
▁Partners	-10649
▁imposing	-10650
▁investor	-10651
▁Advocates	-10652
▁Marketing	-10653
▁respected	-10654
▁somewhere	-10655
▁celebrations	-10656
▁depreciation	-10657
bat	-10658
avati	-10659
isans	-10660
▁Left	-10661
▁pupp	-10662
▁ware	-10663
teenth	-10664
▁merits	-10665
▁Connect	-10666
▁battery	-10667
▁Nagaland	-10668
▁Sciences	-10669
▁applying	-10670
▁honoured	-10671
▁injustice	-10672
▁sponsored	-10673
▁Principles	-10674
▁apparently	-10675
▁acknowledge	-10676
▁denominator	-10677
▁supervision	-10678
▁participating	-10679
PCL	-10680
orph	-10681
▁Ask	-10682
▁Mong	-10683
▁gang	-10684
leness	-10685
venues	-10686
▁accur	-10687
▁cough	-10688
▁dates	-10689
▁smell	-10690
▁senses	-10691
▁presently	-10692
▁prevented	-10693
organisation	-10694
HI	-10695
cho	-10696
ito	-10697
uja	-10698
iban	-10699
▁Tea	-10700
▁uphe	-10701
▁Eight	-10702
▁annum	-10703
▁kidney	-10704
▁Jharkhand	-10705
▁signature	-10706
▁dimensions	-10707
▁popularity	-10708
▁thoroughly	-10709
▁Cooperation	-10710
▁advancement	-10711
▁possibilities	-10712
DM	-10713
▁DR	-10714
▁AID	-10715
▁gaz	-10716
▁bore	-10717
▁grav	-10718
▁puts	-10719
▁canal	-10720
▁haven	-10721
▁ninet	-10722
▁ranks	-10723
▁pollut	-10724
▁stores	-10725
▁transf	-10726
▁trends	-10727
▁Nanalal	-10728
▁commend	-10729
▁tobacco	-10730
▁glorious	-10731
▁ideology	-10732
▁obstruct	-10733
▁sentences	-10734
▁१७	-10735
aryn	-10736
ayya	-10737
babu	-10738
▁Ver	-10739
▁Ghat	-10740
▁bask	-10741
▁deer	-10742
▁firms	-10743
▁sperm	-10744
▁votes	-10745
▁Deccan	-10746
ursement	-10747
▁damages	-10748
▁nursing	-10749
idespread	-10750
▁findings	-10751
▁measured	-10752
▁Employees	-10753
▁continent	-10754
▁requisite	-10755
▁suspended	-10756
▁reservation	-10757
IME	-10758
ATED	-10759
appy	-10760
otee	-10761
plex	-10762
owing	-10763
▁swim	-10764
ealand	-10765
ushing	-10766
▁Bhagw	-10767
▁Nokia	-10768
▁Narmad	-10769
▁blocks	-10770
▁horses	-10771
▁lights	-10772
▁sensit	-10773
▁worthy	-10774
▁Lakshmi	-10775
▁Consolid	-10776
▁Remember	-10777
▁Automatic	-10778
▁Socialist	-10779
▁disturbed	-10780
▁Fe	-10781
▁NC	-10782
▁Gal	-10783
▁ric	-10784
▁umb	-10785
ieval	-10786
▁Amar	-10787
▁Init	-10788
▁hier	-10789
▁reck	-10790
▁Image	-10791
▁coins	-10792
▁monop	-10793
▁Street	-10794
▁Yamuna	-10795
▁larvae	-10796
▁Schemes	-10797
▁Vietnam	-10798
▁coconut	-10799
▁ethical	-10800
▁declined	-10801
▁militant	-10802
▁telecomm	-10803
▁vertical	-10804
▁afternoon	-10805
▁particles	-10806
▁purchased	-10807
▁realistic	-10808
▁secretary	-10809
▁Programmes	-10810
▁strategies	-10811
▁travelling	-10812
▁sovereignty	-10813
▁acknowledged	-10814
▁laboratories	-10815
▁qualifications	-10816
LA	-10817
URE	-10818
agi	-10819
awar	-10820
unct	-10821
▁Opp	-10822
▁PRAN	-10823
▁Till	-10824
▁Veda	-10825
▁amid	-10826
▁onto	-10827
▁unsu	-10828
▁honor	-10829
▁lotus	-10830
▁stret	-10831
▁Others	-10832
▁Safety	-10833
▁unfair	-10834
▁vessel	-10835
▁walked	-10836
▁contest	-10837
endranath	-10838
erculosis	-10839
▁Himalaya	-10840
▁Mohammad	-10841
▁refugees	-10842
▁removing	-10843
▁scrutiny	-10844
▁Extension	-10845
▁emergence	-10846
▁underlying	-10847
jit	-10848
kay	-10849
urd	-10850
▁PP	-10851
▁Put	-10852
itius	-10853
olent	-10854
tered	-10855
▁Pant	-10856
▁pand	-10857
▁rope	-10858
▁wars	-10859
▁eager	-10860
▁embar	-10861
▁Sports	-10862
▁pledge	-10863
▁strive	-10864
▁Perform	-10865
▁captured	-10866
▁distress	-10867
▁Monitoring	-10868
▁guaranteed	-10869
▁circulation	-10870
di	-10871
▁BO	-10872
▁Si	-10873
brid	-10874
ille	-10875
▁Squ	-10876
alian	-10877
amble	-10878
igned	-10879
▁Club	-10880
▁lion	-10881
onents	-10882
utable	-10883
▁chick	-10884
▁liked	-10885
▁steady	-10886
▁dioxide	-10887
▁reaches	-10888
▁startup	-10889
▁travelled	-10890
▁reflection	-10891
▁Educational	-10892
itz	-10893
▁Mos	-10894
▁Pow	-10895
▁fer	-10896
lings	-10897
itious	-10898
▁Syria	-10899
▁cadre	-10900
▁panch	-10901
▁ceased	-10902
▁comply	-10903
▁repeat	-10904
▁rightly	-10905
▁earnings	-10906
▁shortage	-10907
▁abolition	-10908
▁irregular	-10909
▁conspiracy	-10910
▁ordinarily	-10911
▁verification	-10912
eph	-10913
uda	-10914
▁OS	-10915
five	-10916
▁Bez	-10917
▁lep	-10918
▁nic	-10919
payee	-10920
▁Come	-10921
▁Poon	-10922
▁gran	-10923
▁tang	-10924
▁wasn	-10925
▁Large	-10926
▁deeds	-10927
▁dread	-10928
▁grief	-10929
▁queen	-10930
▁trium	-10931
ipation	-10932
▁babies	-10933
▁bodily	-10934
▁indian	-10935
▁infant	-10936
▁mighty	-10937
▁powder	-10938
umerable	-10939
▁kitchen	-10940
▁reverse	-10941
▁shrines	-10942
▁Register	-10943
▁producer	-10944
▁Provinces	-10945
▁Saraswati	-10946
▁enjoyment	-10947
▁grievance	-10948
▁labourers	-10949
▁relevance	-10950
▁Australian	-10951
▁linguistic	-10952
▁widespread	-10953
gic	-10954
▁VA	-10955
▁pa	-10956
ball	-10957
soft	-10958
▁Jur	-10959
▁kap	-10960
▁ups	-10961
pring	-10962
▁Unic	-10963
▁butt	-10964
ensing	-10965
▁James	-10966
▁cosmic	-10967
▁regret	-10968
▁speaks	-10969
▁Mizoram	-10970
▁beloved	-10971
▁sisters	-10972
▁accorded	-10973
▁delicate	-10974
▁Emergency	-10975
▁Mauritius	-10976
▁surprised	-10977
▁impressive	-10978
▁surprising	-10979
▁certificates	-10980
oler	-10981
▁Gir	-10982
▁nas	-10983
▁ven	-10984
▁Sudd	-10985
▁Youth	-10986
▁angle	-10987
▁tenure	-10988
▁compens	-10989
▁earning	-10990
▁founder	-10991
▁superst	-10992
▁conclude	-10993
▁deciding	-10994
▁infected	-10995
▁kilogram	-10996
▁spending	-10997
▁accepting	-10998
▁correctly	-10999
▁diplomatic	-11000
▁disappoint	-11001
▁fulfilment	-11002
▁safeguards	-11003
▁variations	-11004
▁disciplinary	-11005
TR	-11006
▁q	-11007
agg	-11008
rix	-11009
▁MC	-11010
bhai	-11011
kara	-11012
okes	-11013
▁Rak	-11014
enger	-11015
▁CALL	-11016
erated	-11017
▁Early	-11018
▁drain	-11019
▁meets	-11020
▁spont	-11021
▁copper	-11022
▁fiscal	-11023
appropri	-11024
ographer	-11025
▁density	-11026
▁oneness	-11027
▁seventy	-11028
▁surplus	-11029
▁strictly	-11030
▁Meanwhile	-11031
▁decorated	-11032
▁disappear	-11033
▁jewellery	-11034
▁pursuance	-11035
▁valuation	-11036
▁attraction	-11037
▁territorial	-11038
▁utilization	-11039
bly	-11040
appe	-11041
ishe	-11042
khar	-11043
▁Gul	-11044
▁imb	-11045
▁pix	-11046
akshi	-11047
▁IRDA	-11048
▁awak	-11049
▁Value	-11050
▁guest	-11051
▁veter	-11052
▁infect	-11053
▁divorce	-11054
▁prayers	-11055
▁quantum	-11056
▁reflects	-11057
▁verified	-11058
▁creatures	-11059
▁socialism	-11060
▁comfortable	-11061
▁Distribution	-11062
WA	-11063
flow	-11064
udal	-11065
▁sty	-11066
aders	-11067
▁AIDS	-11068
▁Dise	-11069
▁Jail	-11070
▁Navy	-11071
▁murd	-11072
▁Chann	-11073
▁spots	-11074
▁sulph	-11075
▁Brahmo	-11076
▁Sankara	-11077
▁cabinet	-11078
▁crossed	-11079
▁devotee	-11080
▁holders	-11081
▁hostile	-11082
▁passive	-11083
▁somehow	-11084
▁sessions	-11085
▁Premchand	-11086
▁Institutes	-11087
▁adjustment	-11088
▁favourable	-11089
▁prohibited	-11090
▁Convocation	-11091
▁governmental	-11092
▁FIR	-11093
▁Gok	-11094
▁Was	-11095
▁muc	-11096
▁pin	-11097
astra	-11098
cular	-11099
▁Gaza	-11100
▁suck	-11101
▁Prabh	-11102
▁smile	-11103
▁Ananda	-11104
▁mosque	-11105
▁oceans	-11106
▁relate	-11107
▁seized	-11108
▁filling	-11109
▁joining	-11110
▁Vajpayee	-11111
▁sentiment	-11112
▁transition	-11113
▁appointments	-11114
mas	-11115
ayat	-11116
▁ard	-11117
▁bid	-11118
▁jaw	-11119
arshi	-11120
ishad	-11121
▁Subs	-11122
▁lone	-11123
▁prin	-11124
▁BIHAR	-11125
▁alike	-11126
▁incomp	-11127
▁makers	-11128
▁centers	-11129
▁damaged	-11130
▁inhabit	-11131
▁unusual	-11132
▁warming	-11133
▁insisted	-11134
▁interven	-11135
▁socialist	-11136
▁autonomous	-11137
▁unexpected	-11138
▁economically	-11139
▁expectations	-11140
▁manufacturers	-11141
pus	-11142
▁Ep	-11143
▁Hol	-11144
▁Nal	-11145
▁Pot	-11146
▁Sym	-11147
adian	-11148
rious	-11149
▁Sush	-11150
▁gene	-11151
▁glob	-11152
asaheb	-11153
▁Color	-11154
▁Draft	-11155
▁Meher	-11156
▁Varma	-11157
▁dying	-11158
▁excav	-11159
▁invent	-11160
▁minded	-11161
▁Forward	-11162
▁gardens	-11163
▁boundary	-11164
▁deprived	-11165
▁fourteen	-11166
▁Universal	-11167
▁accidents	-11168
▁agitation	-11169
▁delighted	-11170
▁identical	-11171
▁cultivated	-11172
▁meaningful	-11173
▁permanently	-11174
ii	-11175
untu	-11176
▁Gos	-11177
▁Kul	-11178
▁Try	-11179
▁LINK	-11180
▁alia	-11181
▁amen	-11182
▁cock	-11183
▁harb	-11184
arding	-11185
ishers	-11186
▁Leave	-11187
▁Pipes	-11188
▁lakes	-11189
▁tales	-11190
▁Config	-11191
▁analys	-11192
▁defect	-11193
▁racial	-11194
▁Message	-11195
▁Zealand	-11196
▁auction	-11197
▁restore	-11198
▁Highness	-11199
▁prestige	-11200
▁Microsoft	-11201
▁professor	-11202
▁conscience	-11203
▁physically	-11204
▁publishing	-11205
▁structural	-11206
ORE	-11207
azar	-11208
ctor	-11209
emia	-11210
isht	-11211
▁FDI	-11212
▁Pap	-11213
acter	-11214
▁Body	-11215
▁bits	-11216
▁pink	-11217
▁Nobel	-11218
▁crack	-11219
▁nemat	-11220
▁Wealth	-11221
▁foster	-11222
▁marble	-11223
▁ninety	-11224
▁solved	-11225
▁weekly	-11226
▁peasant	-11227
▁readily	-11228
▁Amritsar	-11229
▁confront	-11230
▁founding	-11231
▁disciples	-11232
▁approached	-11233
▁influences	-11234
▁invitation	-11235
▁neighbours	-11236
▁sculptures	-11237
▁demonstrated	-11238
▁translations	-11239
opy	-11240
▁gh	-11241
anqu	-11242
▁Den	-11243
▁sap	-11244
arama	-11245
ifier	-11246
▁Anti	-11247
▁desc	-11248
▁hole	-11249
▁impr	-11250
▁sung	-11251
▁Maybe	-11252
▁dense	-11253
▁shame	-11254
▁PRANAB	-11255
▁Remote	-11256
▁Goddess	-11257
▁ceiling	-11258
▁females	-11259
▁harness	-11260
▁vibrant	-11261
▁securing	-11262
▁Champions	-11263
▁Generally	-11264
▁greatness	-11265
▁scriptures	-11266
▁realization	-11267
GR	-11268
Ind	-11269
abi	-11270
gal	-11271
▁Bay	-11272
▁Dip	-11273
▁Say	-11274
inous	-11275
isive	-11276
▁Drug	-11277
▁Hill	-11278
▁Meen	-11279
▁bind	-11280
▁cher	-11281
▁coat	-11282
olence	-11283
▁breat	-11284
▁capac	-11285
▁manip	-11286
▁score	-11287
▁sorry	-11288
▁verte	-11289
▁warri	-11290
▁Always	-11291
▁revolt	-11292
ciliation	-11293
▁peripher	-11294
▁segments	-11295
▁disclosed	-11296
▁processed	-11297
▁sanitation	-11298
▁electronics	-11299
▁accomplished	-11300
aine	-11301
yard	-11302
▁DAC	-11303
ersed	-11304
never	-11305
ocity	-11306
▁Gaut	-11307
▁Host	-11308
▁fame	-11309
▁hate	-11310
▁wand	-11311
▁Param	-11312
▁acres	-11313
▁resid	-11314
iliated	-11315
▁admire	-11316
▁exempl	-11317
▁humour	-11318
▁seller	-11319
▁weaker	-11320
▁corners	-11321
▁fulfill	-11322
▁seventh	-11323
▁tension	-11324
▁immortal	-11325
▁improper	-11326
▁operated	-11327
▁Democracy	-11328
▁Gandharva	-11329
▁exclusion	-11330
▁Presidency	-11331
▁subsidiary	-11332
▁worshipped	-11333
▁politicians	-11334
▁practitioner	-11335
▁manifestation	-11336
tar	-11337
uis	-11338
amba	-11339
▁Dra	-11340
▁Niz	-11341
haran	-11342
itime	-11343
▁quot	-11344
▁worn	-11345
alinga	-11346
asagar	-11347
udence	-11348
▁Leban	-11349
▁SIDBI	-11350
▁Saint	-11351
▁Vrind	-11352
▁spray	-11353
▁unpre	-11354
▁colors	-11355
▁revers	-11356
▁throat	-11357
▁unanim	-11358
▁closing	-11359
▁staying	-11360
▁Southern	-11361
▁assurance	-11362
▁municipal	-11363
▁sentenced	-11364
▁transcend	-11365
▁Declaration	-11366
▁intercourse	-11367
▁restriction	-11368
▁manufactured	-11369
▁neighbouring	-11370
stru	-11371
▁Tim	-11372
erves	-11373
field	-11374
uated	-11375
▁Ball	-11376
▁curs	-11377
▁tune	-11378
mother	-11379
oubted	-11380
▁Price	-11381
▁erect	-11382
▁overr	-11383
▁procl	-11384
▁Folder	-11385
▁tested	-11386
▁throne	-11387
appeared	-11388
▁Machine	-11389
▁assault	-11390
▁dropped	-11391
▁leather	-11392
▁signals	-11393
▁triumph	-11394
▁Whenever	-11395
▁immunity	-11396
▁quarters	-11397
▁spectrum	-11398
▁Vaishnava	-11399
▁intestine	-11400
▁preserved	-11401
▁Securities	-11402
▁earthquake	-11403
▁appreciated	-11404
▁collections	-11405
▁permissible	-11406
cket	-11407
rage	-11408
▁Cam	-11409
▁Nil	-11410
▁lin	-11411
▁Saha	-11412
rishna	-11413
▁Kalam	-11414
▁Mexic	-11415
▁cable	-11416
lements	-11417
▁County	-11418
▁Remove	-11419
▁invari	-11420
▁mystic	-11421
▁robust	-11422
▁sevent	-11423
▁varies	-11424
▁wicket	-11425
▁Belarus	-11426
▁Culture	-11427
▁Tourism	-11428
▁Comments	-11429
▁Philosop	-11430
▁SELECTED	-11431
▁passenger	-11432
▁possessed	-11433
▁Jagannatha	-11434
▁misconduct	-11435
▁complainant	-11436
▁introducing	-11437
▁utilisation	-11438
▁Superintendent	-11439
▁Qa	-11440
bled	-11441
rama	-11442
▁Ras	-11443
▁Syn	-11444
▁tit	-11445
ampur	-11446
▁Insp	-11447
▁trip	-11448
▁assim	-11449
▁frank	-11450
▁jihad	-11451
▁overt	-11452
▁steam	-11453
▁tenth	-11454
▁Tiwari	-11455
▁cinema	-11456
▁intens	-11457
▁saints	-11458
▁emperor	-11459
▁symbols	-11460
▁Teachers	-11461
▁Portugues	-11462
▁condemned	-11463
▁producers	-11464
▁afterwards	-11465
▁disclosure	-11466
▁specialized	-11467
sp	-11468
kan	-11469
oul	-11470
thi	-11471
▁pp	-11472
eros	-11473
idth	-11474
scape	-11475
state	-11476
▁Kant	-11477
▁Sadd	-11478
▁guru	-11479
▁Purch	-11480
▁spark	-11481
▁Nagpur	-11482
▁hazard	-11483
▁Acharya	-11484
▁checked	-11485
▁issuing	-11486
▁predict	-11487
▁quarrel	-11488
eneration	-11489
▁Intellig	-11490
▁assisted	-11491
▁reviewed	-11492
▁wildlife	-11493
▁adventure	-11494
▁arbitrary	-11495
▁undivided	-11496
▁exceptions	-11497
▁pesticides	-11498
▁constitutes	-11499
▁expressions	-11500
▁unconscious	-11501
▁reconstruction	-11502
OD	-11503
ahu	-11504
awa	-11505
oea	-11506
ayam	-11507
cipl	-11508
cive	-11509
iser	-11510
nage	-11511
ounce	-11512
▁Conc	-11513
▁epid	-11514
hatkar	-11515
▁Desai	-11516
▁Labor	-11517
▁Surya	-11518
▁flesh	-11519
▁inequ	-11520
▁poore	-11521
▁sixth	-11522
▁motive	-11523
▁rubber	-11524
▁ensured	-11525
▁threats	-11526
izational	-11527
▁decrease	-11528
▁Statement	-11529
▁petitions	-11530
▁allowances	-11531
▁chromosomes	-11532
▁measurement	-11533
▁researchers	-11534
▁occasionally	-11535
apu	-11536
▁EC	-11537
▁na	-11538
adas	-11539
zone	-11540
▁Van	-11541
▁WOR	-11542
▁pear	-11543
▁Naras	-11544
▁blame	-11545
▁edges	-11546
▁hydro	-11547
▁renow	-11548
▁vague	-11549
ghalaya	-11550
▁edited	-11551
▁rhythm	-11552
▁Introdu	-11553
▁defines	-11554
▁mandate	-11555
▁microsc	-11556
▁birthday	-11557
▁confused	-11558
▁affordable	-11559
▁grassroots	-11560
▁proposition	-11561
hyd	-11562
sis	-11563
▁DP	-11564
osph	-11565
urna	-11566
▁Kot	-11567
▁que	-11568
arsha	-11569
enary	-11570
▁COMM	-11571
▁Need	-11572
▁conj	-11573
▁tent	-11574
acious	-11575
▁Maint	-11576
▁Sangh	-11577
▁arose	-11578
▁batch	-11579
▁essay	-11580
▁rival	-11581
▁Demand	-11582
▁dispar	-11583
▁essays	-11584
▁titled	-11585
▁Website	-11586
▁caution	-11587
▁vaccine	-11588
▁Memorial	-11589
▁alphabet	-11590
▁medieval	-11591
▁embarrass	-11592
▁regulated	-11593
▁vacancies	-11594
▁Consequently	-11595
▁remuneration	-11596
▁Communication	-11597
▁sa	-11598
AYEE	-11599
ctic	-11600
▁Jes	-11601
▁inh	-11602
▁unm	-11603
▁ATAL	-11604
▁Chat	-11605
▁moth	-11606
▁pref	-11607
▁Ganes	-11608
▁Study	-11609
▁illum	-11610
▁priest	-11611
▁trials	-11612
▁Country	-11613
▁Jubilee	-11614
▁samples	-11615
▁Egyptian	-11616
▁flexible	-11617
▁peasants	-11618
▁Languages	-11619
▁accompany	-11620
▁divisions	-11621
▁Profession	-11622
▁inadequate	-11623
▁indicating	-11624
ulc	-11625
yar	-11626
▁ms	-11627
cane	-11628
mail	-11629
amind	-11630
aning	-11631
ittal	-11632
opter	-11633
▁Hold	-11634
▁Shuk	-11635
▁VAJP	-11636
▁levy	-11637
aduate	-11638
▁Farid	-11639
▁Final	-11640
▁aston	-11641
▁displ	-11642
▁Sanjay	-11643
▁SPEECHES	-11644
▁Template	-11645
▁VAJPAYEE	-11646
▁conveyed	-11647
▁Kolhatkar	-11648
▁patriotism	-11649
▁PRODUCTNAME	-11650
▁accumulated	-11651
▁concessions	-11652
▁resignation	-11653
▁preservation	-11654
ael	-11655
▁Vi	-11656
asha	-11657
itta	-11658
loom	-11659
▁Bol	-11660
▁Dil	-11661
▁Tab	-11662
asury	-11663
buntu	-11664
▁exit	-11665
▁lift	-11666
▁tens	-11667
rieved	-11668
▁Range	-11669
▁rises	-11670
▁supra	-11671
idation	-11672
▁Return	-11673
▁Supply	-11674
▁layout	-11675
▁notion	-11676
▁strain	-11677
▁suppli	-11678
▁ticket	-11679
▁verbal	-11680
iciaries	-11681
isticated	-11682
▁Telephone	-11683
▁variation	-11684
▁Governorate	-11685
▁interpreted	-11686
▁mathematics	-11687
▁unnecessary	-11688
▁comparatively	-11689
eor	-11690
▁WH	-11691
adha	-11692
last	-11693
▁ICC	-11694
▁Jat	-11695
▁Lin	-11696
▁rum	-11697
▁tip	-11698
▁Gate	-11699
▁Milk	-11700
▁acre	-11701
▁loud	-11702
▁Crime	-11703
▁arrow	-11704
▁bless	-11705
▁chose	-11706
emption	-11707
▁Brazil	-11708
▁Raipur	-11709
▁breeds	-11710
▁hungry	-11711
▁hybrid	-11712
▁worlds	-11713
▁Purusha	-11714
▁textile	-11715
▁Original	-11716
▁Religion	-11717
▁associate	-11718
▁exemption	-11719
▁perfectly	-11720
▁Dictionary	-11721
▁indication	-11722
▁innovators	-11723
▁prosperous	-11724
▁termination	-11725
arse	-11726
nals	-11727
▁Cli	-11728
▁Fif	-11729
aksha	-11730
arded	-11731
rives	-11732
▁adap	-11733
abhuti	-11734
▁Crown	-11735
▁Funds	-11736
▁Given	-11737
▁Italy	-11738
▁Rober	-11739
▁nodal	-11740
▁Medium	-11741
▁Ravana	-11742
▁Tender	-11743
▁Undert	-11744
▁hereby	-11745
▁uterus	-11746
▁valued	-11747
▁Finland	-11748
▁framing	-11749
▁holiday	-11750
▁inherit	-11751
▁injuries	-11752
▁shoulders	-11753
▁attendance	-11754
▁enlightened	-11755
▁facilitating	-11756
lymp	-11757
rait	-11758
worm	-11759
▁urg	-11760
▁ved	-11761
heres	-11762
▁Still	-11763
▁dairy	-11764
▁postp	-11765
▁Vikram	-11766
▁topics	-11767
▁vagina	-11768
▁handled	-11769
▁seizure	-11770
▁smoking	-11771
▁abandoned	-11772
▁eliminate	-11773
▁mentality	-11774
▁threshold	-11775
▁meditation	-11776
▁minorities	-11777
▁orientation	-11778
▁misbehaviour	-11779
FS	-11780
Us	-11781
aph	-11782
ibi	-11783
ENTS	-11784
izer	-11785
▁Dog	-11786
▁Hen	-11787
▁thy	-11788
odhya	-11789
▁boot	-11790
▁fare	-11791
opathy	-11792
▁Naval	-11793
▁Olymp	-11794
▁annex	-11795
▁creed	-11796
▁delta	-11797
▁Bezbar	-11798
▁module	-11799
ithmetic	-11800
oubtedly	-11801
▁Prakrit	-11802
▁Meghalaya	-11803
▁Personnel	-11804
▁repayment	-11805
▁Portuguese	-11806
▁administer	-11807
▁convenient	-11808
▁equipments	-11809
▁disappeared	-11810
▁identifying	-11811
▁civilisation	-11812
GC	-11813
ASS	-11814
oop	-11815
▁Bac	-11816
▁INS	-11817
▁Mam	-11818
▁REC	-11819
acent	-11820
▁Late	-11821
▁Prob	-11822
▁cows	-11823
▁grey	-11824
soever	-11825
▁Iraqi	-11826
▁Latin	-11827
▁teams	-11828
▁tempt	-11829
itaries	-11830
▁BIHARI	-11831
▁digest	-11832
▁intent	-11833
▁losing	-11834
▁Between	-11835
▁Highway	-11836
▁clients	-11837
▁hanging	-11838
▁legally	-11839
▁Vaishnav	-11840
▁deterior	-11841
▁grateful	-11842
▁Different	-11843
▁conflicts	-11844
▁practised	-11845
▁Assessment	-11846
▁occurrence	-11847
▁regulating	-11848
▁communicate	-11849
atal	-11850
bert	-11851
rell	-11852
roph	-11853
▁ATM	-11854
▁Dri	-11855
▁Hom	-11856
▁UTs	-11857
▁bom	-11858
inees	-11859
▁Alex	-11860
▁Gurb	-11861
▁feas	-11862
▁nour	-11863
▁Phase	-11864
▁males	-11865
▁prize	-11866
▁vivid	-11867
▁assent	-11868
▁culmin	-11869
▁superf	-11870
▁airport	-11871
unication	-11872
▁Narendra	-11873
▁ignorant	-11874
▁patience	-11875
▁abolished	-11876
▁equitable	-11877
▁forgotten	-11878
▁preventing	-11879
▁propaganda	-11880
ROM	-11881
isa	-11882
▁Pa	-11883
cium	-11884
iler	-11885
seud	-11886
▁Jad	-11887
▁Rul	-11888
▁Ult	-11889
▁eco	-11890
▁gal	-11891
▁wip	-11892
iries	-11893
▁Fran	-11894
▁Kail	-11895
▁Mail	-11896
▁Near	-11897
▁Veer	-11898
▁cycl	-11899
▁dawn	-11900
▁mini	-11901
▁ours	-11902
▁stir	-11903
▁sums	-11904
▁Burma	-11905
▁Mehta	-11906
▁Padma	-11907
▁Rahul	-11908
▁fatal	-11909
▁gifts	-11910
▁Propos	-11911
▁scenes	-11912
▁wished	-11913
▁Schools	-11914
▁Strateg	-11915
▁delayed	-11916
▁percept	-11917
▁Assamese	-11918
▁Citizens	-11919
▁striking	-11920
▁treating	-11921
▁Ramalinga	-11922
▁prospects	-11923
▁Nevertheless	-11924
ulla	-11925
▁Inv	-11926
▁Raw	-11927
▁Sex	-11928
odder	-11929
▁scan	-11930
▁seas	-11931
eneral	-11932
iketan	-11933
rolled	-11934
ulance	-11935
urious	-11936
▁Areas	-11937
▁MSMEs	-11938
▁bunch	-11939
▁overs	-11940
▁rooms	-11941
▁Launch	-11942
▁Record	-11943
▁assure	-11944
▁superv	-11945
ructural	-11946
▁varying	-11947
▁detected	-11948
▁eighteen	-11949
▁entities	-11950
▁Indonesia	-11951
▁intuitive	-11952
▁Provisions	-11953
▁exhibition	-11954
▁successive	-11955
▁Authorities	-11956
▁distinguish	-11957
▁underground	-11958
▁neighbourhood	-11959
ORT	-11960
▁MM	-11961
▁Um	-11962
itha	-11963
▁SEC	-11964
▁Tah	-11965
mohan	-11966
odium	-11967
rolog	-11968
▁Cash	-11969
▁Find	-11970
▁Kali	-11971
▁Word	-11972
▁bund	-11973
▁sket	-11974
▁slog	-11975
▁fancy	-11976
▁shoes	-11977
▁Bhopal	-11978
▁clever	-11979
▁pocket	-11980
ertained	-11981
▁Shastri	-11982
▁Witness	-11983
▁Attorney	-11984
▁Israelis	-11985
▁effected	-11986
▁granting	-11987
▁litigant	-11988
▁packages	-11989
▁theories	-11990
▁affidavit	-11991
▁certified	-11992
▁employers	-11993
▁repeatedly	-11994
▁differently	-11995
▁entertainment	-11996
▁Sr	-11997
▁१८	-11998
▁Rup	-11999
▁kne	-12000
▁clay	-12001
▁flav	-12002
▁lips	-12003
▁pour	-12004
▁wash	-12005
rupted	-12006
ussain	-12007
usters	-12008
▁Arjun	-12009
▁revel	-12010
parable	-12011
▁Unknown	-12012
▁Bezbaroa	-12013
▁develops	-12014
▁formally	-12015
▁Following	-12016
▁magnitude	-12017
▁Chancellor	-12018
▁collectively	-12019
AA	-12020
▁Ta	-12021
born	-12022
▁Abu	-12023
▁Anr	-12024
▁BJP	-12025
▁Lay	-12026
▁idi	-12027
ensed	-12028
flies	-12029
inath	-12030
▁Tuls	-12031
▁dupl	-12032
▁webs	-12033
itably	-12034
▁alert	-12035
▁burnt	-12036
▁climb	-12037
▁Repres	-12038
▁Arabian	-12039
▁deities	-12040
▁earnest	-12041
▁warfare	-12042
▁shipping	-12043
▁consensus	-12044
▁measuring	-12045
▁Provincial	-12046
▁households	-12047
▁compositions	-12048
▁Commissioners	-12049
Tax	-12050
abar	-12051
▁DVD	-12052
▁Ell	-12053
▁Wal	-12054
▁muk	-12055
▁sik	-12056
atics	-12057
stein	-12058
▁Jack	-12059
▁Mass	-12060
ivable	-12061
▁Goods	-12062
▁maxim	-12063
▁pilot	-12064
▁roles	-12065
ilitary	-12066
istrates	-12067
▁interval	-12068
▁merchant	-12069
▁swelling	-12070
▁turnover	-12071
▁petroleum	-12072
▁renewable	-12073
▁Bhavabhuti	-12074
▁magistrate	-12075
▁persistent	-12076
igm	-12077
oni	-12078
▁Hal	-12079
▁Kun	-12080
▁Moz	-12081
▁asp	-12082
▁ham	-12083
▁mol	-12084
rowth	-12085
▁Chow	-12086
▁Magn	-12087
▁Poth	-12088
▁Syed	-12089
▁adds	-12090
▁fing	-12091
▁foss	-12092
▁Coast	-12093
▁Files	-12094
▁Panel	-12095
▁Spain	-12096
▁gases	-12097
▁tyran	-12098
▁tragic	-12099
▁Guarant	-12100
▁lateral	-12101
▁pressed	-12102
▁Annexure	-12103
▁annually	-12104
▁chapters	-12105
▁initiate	-12106
▁reciproc	-12107
▁successor	-12108
▁elementary	-12109
▁recommends	-12110
▁multiplication	-12111
mal	-12112
sen	-12113
aser	-12114
etal	-12115
ials	-12116
▁NHS	-12117
▁Tun	-12118
▁sen	-12119
▁tam	-12120
▁Arth	-12121
▁HOST	-12122
▁Marx	-12123
▁Stop	-12124
▁plea	-12125
rators	-12126
▁Saheb	-12127
casting	-12128
olation	-12129
▁actors	-12130
▁evolve	-12131
▁spouse	-12132
▁broadly	-12133
▁watched	-12134
▁Balarama	-12135
▁Physical	-12136
▁dividing	-12137
▁socially	-12138
▁symbolic	-12139
▁Meherally	-12140
▁Reference	-12141
▁appearing	-12142
▁Respondent	-12143
▁dictionary	-12144
▁transplant	-12145
▁coordination	-12146
▁certification	-12147
emic	-12148
▁HTML	-12149
▁Mahe	-12150
▁offs	-12151
▁Baner	-12152
▁Rajiv	-12153
▁burst	-12154
▁trace	-12155
General	-12156
▁Dharma	-12157
▁instal	-12158
iability	-12159
▁fortune	-12160
▁implies	-12161
▁omitted	-12162
▁remarks	-12163
▁updated	-12164
ifference	-12165
obedience	-12166
▁Everyone	-12167
▁clearing	-12168
▁morality	-12169
▁pendency	-12170
▁compelled	-12171
▁translate	-12172
▁Satyagraha	-12173
▁magnificent	-12174
▁modifications	-12175
Es	-12176
xx	-12177
rep	-12178
▁EN	-12179
▁KB	-12180
cott	-12181
▁URI	-12182
▁sel	-12183
anyan	-12184
▁Trad	-12185
▁belt	-12186
▁condu	-12187
▁frust	-12188
▁loyal	-12189
▁recur	-12190
▁eighty	-12191
cedented	-12192
▁accepts	-12193
▁categor	-12194
▁heavily	-12195
▁onwards	-12196
▁propose	-12197
▁sleeping	-12198
▁economics	-12199
▁estimates	-12200
▁exploited	-12201
▁virtually	-12202
▁Vidyasagar	-12203
▁capacities	-12204
▁improvements	-12205
▁beneficiaries	-12206
sil	-12207
esis	-12208
quet	-12209
▁NRI	-12210
▁Pub	-12211
▁bee	-12212
itter	-12213
▁Lock	-12214
▁Rele	-12215
▁Tata	-12216
▁cens	-12217
▁dual	-12218
▁Khadi	-12219
▁cheer	-12220
naments	-12221
▁Animal	-12222
▁Mechan	-12223
▁enrich	-12224
▁snakes	-12225
▁Charter	-12226
▁deserve	-12227
▁solving	-12228
ertaining	-12229
▁Learning	-12230
▁disciple	-12231
▁operator	-12232
▁statutes	-12233
▁projected	-12234
▁Upanishads	-12235
▁auspicious	-12236
▁deliberate	-12237
▁presenting	-12238
▁upgradation	-12239
KS	-12240
sha	-12241
wah	-12242
▁Uz	-12243
inth	-12244
name	-12245
othe	-12246
▁wal	-12247
▁Para	-12248
▁Team	-12249
▁Radha	-12250
▁Sanct	-12251
▁threw	-12252
▁tough	-12253
▁rating	-12254
▁rescue	-12255
▁stabil	-12256
▁Disable	-12257
▁leprosy	-12258
▁Maharshi	-12259
▁conceived	-12260
▁construed	-12261
▁dissolved	-12262
▁depression	-12263
▁Christianity	-12264
▁deliberately	-12265
▁undertakings	-12266
▁unemployment	-12267
▁demonstration	-12268
ye	-12269
nis	-12270
▁GR	-12271
▁TB	-12272
icus	-12273
neum	-12274
▁Beh	-12275
▁Dub	-12276
▁END	-12277
▁Low	-12278
▁cars	-12279
▁mant	-12280
▁rays	-12281
▁turb	-12282
▁Multi	-12283
▁chand	-12284
▁login	-12285
▁sword	-12286
▁Server	-12287
▁inflic	-12288
▁blessed	-12289
▁reveals	-12290
▁wedding	-12291
▁stressed	-12292
▁Pollution	-12293
▁acquiring	-12294
▁furniture	-12295
▁reactions	-12296
▁sensation	-12297
▁Hindustani	-12298
▁Partnership	-12299
▁citizenship	-12300
▁concentrated	-12301
In	-12302
▁AB	-12303
▁oh	-12304
ints	-12305
▁Kur	-12306
▁COND	-12307
▁Gaur	-12308
▁Kalp	-12309
▁adul	-12310
istani	-12311
rition	-12312
▁Plate	-12313
▁craft	-12314
▁debts	-12315
▁imped	-12316
▁Ashram	-12317
▁Sudden	-12318
▁binary	-12319
▁unjust	-12320
ventions	-12321
▁Ayodhya	-12322
▁Masters	-12323
▁compact	-12324
▁tenants	-12325
itiveness	-12326
ropolitan	-12327
▁Actually	-12328
▁Chromium	-12329
▁punished	-12330
▁velocity	-12331
▁responded	-12332
▁condolences	-12333
ansi	-12334
erer	-12335
gaon	-12336
hani	-12337
omal	-12338
▁Und	-12339
▁oct	-12340
▁Khal	-12341
▁Shak	-12342
▁Vall	-12343
▁disl	-12344
ogenic	-12345
ureauc	-12346
▁Email	-12347
▁Motor	-12348
▁hoped	-12349
▁knock	-12350
▁Bhakti	-12351
▁modest	-12352
▁surely	-12353
▁tackle	-12354
▁Express	-12355
▁Meeting	-12356
▁carrier	-12357
▁forever	-12358
▁numerator	-12359
▁kilometres	-12360
▁provincial	-12361
▁grandfather	-12362
▁confidential	-12363
OLD	-12364
eur	-12365
▁OK	-12366
▁SW	-12367
lude	-12368
outs	-12369
▁IIS	-12370
▁ail	-12371
▁tie	-12372
arwal	-12373
▁Answ	-12374
▁Kirg	-12375
▁garb	-12376
▁glim	-12377
▁hire	-12378
▁medi	-12379
▁publ	-12380
▁wool	-12381
▁Ghose	-12382
▁lungs	-12383
▁petty	-12384
▁pitch	-12385
▁Panjab	-12386
▁Unless	-12387
▁encoun	-12388
isheries	-12389
▁hunting	-12390
▁locally	-12391
▁pursued	-12392
▁stating	-12393
▁Analysis	-12394
▁Ordinance	-12395
▁vegetable	-12396
▁Consolidated	-12397
▁Intelligence	-12398
▁deliberations	-12399
▁unprecedented	-12400
▁MA	-12401
▁RF	-12402
berg	-12403
dish	-12404
orrh	-12405
umps	-12406
▁Bat	-12407
▁Jai	-12408
▁Kad	-12409
▁Kon	-12410
▁ank	-12411
▁kms	-12412
apsed	-12413
auhan	-12414
▁Patt	-12415
▁deny	-12416
▁pale	-12417
▁Devan	-12418
▁Madan	-12419
▁Minor	-12420
▁shade	-12421
entures	-12422
▁Altern	-12423
▁Daniel	-12424
▁Odisha	-12425
▁occupy	-12426
▁phones	-12427
▁suited	-12428
▁thirst	-12429
▁physics	-12430
▁portray	-12431
▁roughly	-12432
▁Canadian	-12433
▁clothing	-12434
▁requests	-12435
▁detention	-12436
▁sculpture	-12437
▁Electronic	-12438
▁Entreprene	-12439
▁Scientific	-12440
▁curriculum	-12441
▁exercising	-12442
▁sacrifices	-12443
▁innumerable	-12444
▁justification	-12445
azi	-12446
ibh	-12447
▁BS	-12448
▁XV	-12449
miki	-12450
oric	-12451
▁NUM	-12452
▁dan	-12453
▁sle	-12454
agger	-12455
anasi	-12456
erged	-12457
riday	-12458
▁NITs	-12459
▁True	-12460
▁shar	-12461
estone	-12462
orship	-12463
▁Blood	-12464
▁Celeb	-12465
▁token	-12466
▁uncom	-12467
▁Boards	-12468
▁polity	-12469
▁stretc	-12470
▁wouldn	-12471
▁Italian	-12472
▁conting	-12473
▁premier	-12474
igibility	-12475
▁adopting	-12476
▁disorders	-12477
▁specialist	-12478
▁suspension	-12479
▁Compensation	-12480
▁sophisticated	-12481
BA	-12482
box	-12483
eli	-12484
▁Aw	-12485
▁ES	-12486
▁Fi	-12487
▁PE	-12488
▁je	-12489
eath	-12490
jeet	-12491
uits	-12492
▁Atl	-12493
▁Gor	-12494
onial	-12495
▁Arts	-12496
▁Iron	-12497
▁Zion	-12498
▁lust	-12499
▁verd	-12500
▁Clean	-12501
▁Index	-12502
▁toxic	-12503
▁anyway	-12504
▁commem	-12505
▁Michael	-12506
▁Unicode	-12507
▁defects	-12508
▁embrace	-12509
▁hectares	-12510
▁illusion	-12511
▁offender	-12512
▁assistant	-12513
▁dominated	-12514
▁examining	-12515
bu	-12516
OUR	-12517
apat	-12518
opes	-12519
ptic	-12520
rome	-12521
▁MIN	-12522
▁SER	-12523
▁cub	-12524
▁dub	-12525
▁lob	-12526
▁Fair	-12527
▁Much	-12528
▁Naid	-12529
▁Step	-12530
▁fled	-12531
▁Anglo	-12532
▁boxes	-12533
▁buyer	-12534
▁mercy	-12535
▁robot	-12536
▁loaded	-12537
▁marvel	-12538
▁theore	-12539
ashankar	-12540
▁dangers	-12541
▁freight	-12542
▁Dominion	-12543
cellaneous	-12544
▁assumption	-12545
▁chromosome	-12546
▁Legislatures	-12547
EST	-12548
ROW	-12549
▁ug	-12550
SION	-12551
▁INA	-12552
ivest	-12553
▁Mode	-12554
▁vest	-12555
▁wrap	-12556
ometer	-12557
▁Nizam	-12558
▁Title	-12559
▁Vehic	-12560
▁steep	-12561
▁sweep	-12562
▁Memory	-12563
▁Saddam	-12564
▁ingred	-12565
▁posted	-12566
▁pulled	-12567
▁spinal	-12568
▁Taliban	-12569
▁disable	-12570
▁nominee	-12571
▁graphics	-12572
▁provider	-12573
▁Communist	-12574
▁detection	-12575
▁exercises	-12576
▁physician	-12577
▁attributes	-12578
▁harassment	-12579
▁procession	-12580
▁computation	-12581
yn	-12582
cie	-12583
eek	-12584
fold	-12585
oudh	-12586
▁Fat	-12587
▁odd	-12588
▁batt	-12589
▁hook	-12590
▁khan	-12591
▁tion	-12592
ispens	-12593
▁Jesus	-12594
▁Korea	-12595
▁Steel	-12596
▁meter	-12597
▁mills	-12598
▁mines	-12599
▁loving	-12600
▁rebell	-12601
▁Farmers	-12602
▁amazing	-12603
▁credits	-12604
▁impress	-12605
▁Jadunath	-12606
▁carriage	-12607
▁checking	-12608
▁momentum	-12609
▁trekking	-12610
▁allocated	-12611
▁anonymity	-12612
▁intervals	-12613
▁rejection	-12614
▁admissible	-12615
▁excitement	-12616
▁challenging	-12617
▁amalgamation	-12618
▁anticipatory	-12619
bas	-12620
wat	-12621
▁MT	-12622
bral	-12623
isen	-12624
veen	-12625
▁BEG	-12626
▁Chh	-12627
▁SHG	-12628
▁Tub	-12629
comes	-12630
ostic	-12631
▁Anil	-12632
▁arre	-12633
▁corn	-12634
▁dung	-12635
▁trap	-12636
insula	-12637
▁Place	-12638
▁dozen	-12639
▁fibre	-12640
▁wives	-12641
▁Device	-12642
▁Prepar	-12643
▁Relief	-12644
▁downlo	-12645
▁lovers	-12646
▁metall	-12647
▁sympat	-12648
ivestock	-12649
▁Maulana	-12650
▁Advanced	-12651
▁bleeding	-12652
▁climatic	-12653
▁forehead	-12654
obiography	-12655
▁copyright	-12656
▁indispens	-12657
▁dependence	-12658
▁pronounced	-12659
▁constituent	-12660
▁dignitaries	-12661
▁reproduction	-12662
१९	-12663
len	-12664
moh	-12665
oir	-12666
▁GT	-12667
▁fu	-12668
roto	-12669
▁Pil	-12670
▁Pud	-12671
▁gau	-12672
▁lun	-12673
▁yes	-12674
acker	-12675
gging	-12676
idian	-12677
ushan	-12678
▁Pond	-12679
▁surf	-12680
headed	-12681
▁Games	-12682
▁greed	-12683
▁Priyob	-12684
▁Sunday	-12685
▁basket	-12686
▁extens	-12687
▁storey	-12688
▁oneself	-12689
▁updates	-12690
▁Password	-12691
▁Sanctuary	-12692
▁attending	-12693
▁attribute	-12694
▁similarly	-12695
▁competence	-12696
▁concentrate	-12697
agus	-12698
kers	-12699
▁Big	-12700
▁Ill	-12701
▁Sep	-12702
▁gui	-12703
isers	-12704
named	-12705
uance	-12706
▁Fert	-12707
▁bags	-12708
▁epit	-12709
▁hang	-12710
▁puzz	-12711
icking	-12712
▁Window	-12713
▁enumer	-12714
▁fisher	-12715
▁inters	-12716
▁anxiety	-12717
▁excited	-12718
▁expense	-12719
▁pursuing	-12720
▁republic	-12721
▁conducive	-12722
▁gratitude	-12723
▁partially	-12724
▁precisely	-12725
▁typically	-12726
▁nineteenth	-12727
▁nomination	-12728
▁horticulture	-12729
CL	-12730
IO	-12731
akk	-12732
achh	-12733
ispr	-12734
▁Rom	-12735
▁lux	-12736
amond	-12737
arman	-12738
iforn	-12739
osity	-12740
ulars	-12741
urers	-12742
▁Duty	-12743
▁FROM	-12744
▁ISRO	-12745
▁anat	-12746
▁brut	-12747
▁tale	-12748
raries	-12749
uniary	-12750
▁BEGIN	-12751
▁lymph	-12752
▁pairs	-12753
▁shore	-12754
▁Senate	-12755
▁Transl	-12756
▁diamet	-12757
▁eighth	-12758
▁endors	-12759
▁thanks	-12760
▁Inquiry	-12761
▁ensures	-12762
▁execute	-12763
▁intoler	-12764
▁mischie	-12765
▁trusted	-12766
▁recalled	-12767
▁constraint	-12768
▁Chairperson	-12769
▁conferences	-12770
▁encouragement	-12771
amal	-12772
▁Cup	-12773
▁Tow	-12774
▁kal	-12775
atile	-12776
▁Gulf	-12777
▁Ward	-12778
▁bent	-12779
▁tomb	-12780
raisal	-12781
▁GNOME	-12782
▁dried	-12783
▁fluct	-12784
▁fores	-12785
▁harsh	-12786
▁indef	-12787
▁Almost	-12788
▁Sahdev	-12789
▁amidst	-12790
▁neglig	-12791
▁Reports	-12792
▁Respons	-12793
▁decides	-12794
▁reduces	-12795
▁soldier	-12796
▁Manufact	-12797
▁Varanasi	-12798
▁fruitful	-12799
▁lighting	-12800
▁utilized	-12801
▁admiration	-12802
▁creativity	-12803
ksh	-12804
pha	-12805
▁GS	-12806
▁ba	-12807
eous	-12808
want	-12809
▁Diu	-12810
ritis	-12811
▁Chap	-12812
▁Drav	-12813
▁Task	-12814
▁chat	-12815
▁prey	-12816
inates	-12817
▁stagn	-12818
fection	-12819
▁Chaudh	-12820
▁Manual	-12821
▁Serial	-12822
▁cooked	-12823
▁ethnic	-12824
▁intern	-12825
▁Charles	-12826
▁abdomen	-12827
▁ongoing	-12828
▁barriers	-12829
▁websites	-12830
▁Treatment	-12831
▁scattered	-12832
▁plantation	-12833
▁convenience	-12834
▁Establishment	-12835
ERN	-12836
abs	-12837
hau	-12838
iph	-12839
▁Da	-12840
▁ah	-12841
gone	-12842
onal	-12843
ulin	-12844
▁Nos	-12845
▁Sac	-12846
arity	-12847
avari	-12848
mohun	-12849
otomy	-12850
▁Bhat	-12851
▁echo	-12852
▁ferv	-12853
▁wore	-12854
▁Graph	-12855
▁Nived	-12856
▁Tatya	-12857
▁Wales	-12858
▁ridic	-12859
ascular	-12860
▁Fourth	-12861
▁modify	-12862
▁phrase	-12863
▁pushed	-12864
▁solely	-12865
▁Aurangz	-12866
▁Neither	-12867
▁moments	-12868
▁restaur	-12869
▁chairman	-12870
▁portions	-12871
▁tropical	-12872
▁allotment	-12873
▁primitive	-12874
▁prolonged	-12875
▁remainder	-12876
▁charitable	-12877
▁reproductive	-12878
▁KV	-12879
ARDS	-12880
agan	-12881
ahal	-12882
▁Bor	-12883
giene	-12884
notes	-12885
▁bark	-12886
▁dose	-12887
▁grid	-12888
▁uplo	-12889
▁DATED	-12890
▁Sales	-12891
▁Units	-12892
▁disin	-12893
▁sided	-12894
quisite	-12895
ulative	-12896
▁Bihari	-12897
▁Ubuntu	-12898
▁fixing	-12899
▁loyalty	-12900
▁artisans	-12901
▁emission	-12902
▁prevents	-12903
▁restored	-12904
▁shopping	-12905
▁Available	-12906
▁attitudes	-12907
▁launching	-12908
▁Priyobroto	-12909
▁pollutants	-12910
▁Introduction	-12911
▁pharmaceutical	-12912
aba	-12913
▁Il	-12914
ania	-12915
ekar	-12916
eter	-12917
ilas	-12918
inea	-12919
mand	-12920
▁Jha	-12921
▁Chit	-12922
▁auto	-12923
▁yoga	-12924
bedded	-12925
▁Hills	-12926
▁Recogn	-12927
▁floods	-12928
▁openly	-12929
▁rooted	-12930
▁Maharaj	-12931
▁bureauc	-12932
▁chances	-12933
▁guiding	-12934
▁reactor	-12935
▁stretch	-12936
▁Contempt	-12937
▁Rammohun	-12938
▁journals	-12939
▁prohibit	-12940
▁publicly	-12941
▁renowned	-12942
▁textiles	-12943
▁transmit	-12944
▁excluding	-12945
▁instrumental	-12946
▁legislations	-12947
onda	-12948
▁Mel	-12949
▁Mil	-12950
▁lip	-12951
anium	-12952
▁Megh	-12953
▁slip	-12954
▁twin	-12955
▁Initi	-12956
▁Input	-12957
▁Tibet	-12958
▁array	-12959
▁codes	-12960
▁delays	-12961
▁finish	-12962
▁Pothana	-12963
▁despair	-12964
▁washing	-12965
▁borrowed	-12966
▁explicit	-12967
▁touching	-12968
▁searching	-12969
▁undoubtedly	-12970
▁examinations	-12971
▁indispensable	-12972
▁qualification	-12973
PR	-12974
oi	-12975
rak	-12976
ril	-12977
rod	-12978
▁Vy	-12979
keys	-12980
▁Dak	-12981
▁Kes	-12982
▁Siv	-12983
▁kin	-12984
▁pap	-12985
alpur	-12986
rophy	-12987
▁Hans	-12988
▁PART	-12989
▁Samb	-12990
▁dent	-12991
aments	-12992
▁Track	-12993
▁crown	-12994
▁trunk	-12995
▁unlaw	-12996
▁Munshi	-12997
▁Robert	-12998
▁Volume	-12999
▁dishon	-13000
▁locked	-13001
▁wastes	-13002
▁widget	-13003
iniketan	-13004
▁Auditor	-13005
▁Chatter	-13006
▁briefly	-13007
▁fingers	-13008
▁impetus	-13009
▁painted	-13010
▁Nivedita	-13011
▁abundant	-13012
▁cellular	-13013
▁fighters	-13014
▁receiver	-13015
▁foregoing	-13016
▁inception	-13017
▁mortality	-13018
▁prestigious	-13019
▁announcement	-13020
▁contributing	-13021
▁experimental	-13022
▁sufficiently	-13023
▁investigating	-13024
CS	-13025
nar	-13026
oqu	-13027
▁Ye	-13028
▁Ign	-13029
adeva	-13030
akhsh	-13031
emble	-13032
▁Acqu	-13033
▁mild	-13034
▁rely	-13035
adhyay	-13036
atible	-13037
▁Naidu	-13038
▁Quest	-13039
▁cache	-13040
▁camps	-13041
▁hilly	-13042
▁pulse	-13043
▁rites	-13044
angular	-13045
▁Satish	-13046
▁banyan	-13047
▁fodder	-13048
▁hollow	-13049
▁tariff	-13050
▁Chamber	-13051
▁Complex	-13052
▁fiction	-13053
▁retreat	-13054
▁summons	-13055
▁telecom	-13056
▁Californ	-13057
▁deducted	-13058
isprudence	-13059
▁expiration	-13060
▁simplicity	-13061
▁Corporations	-13062
▁Inflammation	-13063
ILL	-13064
can	-13065
chi	-13066
▁ud	-13067
aini	-13068
oded	-13069
▁Ess	-13070
▁Meg	-13071
arter	-13072
▁Crit	-13073
▁Fast	-13074
▁Nirm	-13075
▁Yash	-13076
▁bron	-13077
▁mast	-13078
ompass	-13079
▁Kabul	-13080
▁Qaeda	-13081
▁flame	-13082
▁physi	-13083
▁scrap	-13084
▁Motion	-13085
▁Ramesh	-13086
▁affair	-13087
▁edible	-13088
▁inject	-13089
▁pupils	-13090
▁convict	-13091
▁episode	-13092
▁notable	-13093
▁notices	-13094
▁tonnage	-13095
▁worldly	-13096
▁Secondly	-13097
▁Wildlife	-13098
▁reliance	-13099
▁steadily	-13100
▁wireless	-13101
▁coalition	-13102
▁incidence	-13103
▁horizontal	-13104
▁organizing	-13105
▁exploration	-13106
▁investigate	-13107
ui	-13108
afi	-13109
ona	-13110
she	-13111
aret	-13112
▁vic	-13113
matic	-13114
▁Adal	-13115
▁Sale	-13116
▁sine	-13117
▁Paras	-13118
▁Shyam	-13119
▁coinc	-13120
▁metab	-13121
arriage	-13122
▁Arjuna	-13123
▁Parent	-13124
▁enjoys	-13125
▁trains	-13126
▁Keeping	-13127
▁mothers	-13128
▁nominal	-13129
▁renewed	-13130
▁spirits	-13131
▁Absolute	-13132
▁Disputes	-13133
▁Document	-13134
▁foremost	-13135
▁globally	-13136
▁operates	-13137
▁pressing	-13138
▁encompass	-13139
▁fundament	-13140
▁synthesis	-13141
▁Individual	-13142
▁regardless	-13143
▁reiterated	-13144
▁handicrafts	-13145
▁requisition	-13146
▁Proclamation	-13147
ART	-13148
cca	-13149
iram	-13150
sein	-13151
urop	-13152
adays	-13153
inars	-13154
rivol	-13155
▁heap	-13156
▁unst	-13157
making	-13158
▁Daily	-13159
▁Until	-13160
▁paste	-13161
limited	-13162
▁Active	-13163
▁bowler	-13164
▁inward	-13165
▁tables	-13166
▁Success	-13167
▁mastery	-13168
▁thermal	-13169
▁Students	-13170
▁clusters	-13171
▁congress	-13172
▁clearance	-13173
▁commenced	-13174
▁attributed	-13175
▁determines	-13176
▁subsection	-13177
▁Fundamental	-13178
▁extensively	-13179
▁foundations	-13180
▁impeachment	-13181
DS	-13182
GA	-13183
erb	-13184
thy	-13185
▁Jog	-13186
▁Mak	-13187
▁Mum	-13188
▁cab	-13189
▁rib	-13190
▁Draw	-13191
▁Lect	-13192
▁quit	-13193
adeshi	-13194
apuram	-13195
iosity	-13196
odhpur	-13197
▁Aryan	-13198
▁adorn	-13199
▁heirs	-13200
▁vocal	-13201
▁Single	-13202
▁betray	-13203
▁frivol	-13204
▁inculc	-13205
▁jungle	-13206
▁traced	-13207
▁warned	-13208
▁Hussain	-13209
▁cleared	-13210
▁dancing	-13211
▁infrast	-13212
▁serpent	-13213
▁commands	-13214
▁floating	-13215
▁shortcut	-13216
▁sugarcane	-13217
▁Devanagari	-13218
▁adequately	-13219
▁emphasized	-13220
▁furnishing	-13221
▁procurement	-13222
hee	-13223
jay	-13224
omed	-13225
thal	-13226
▁Bio	-13227
▁PAN	-13228
▁dos	-13229
▁gur	-13230
arium	-13231
arynx	-13232
avana	-13233
obind	-13234
▁Feed	-13235
▁Give	-13236
▁mask	-13237
atural	-13238
ometry	-13239
igating	-13240
▁Taking	-13241
▁Twenty	-13242
▁incarn	-13243
▁serial	-13244
▁enlarge	-13245
▁sixteen	-13246
▁evaluate	-13247
▁Guarantee	-13248
▁diplomacy	-13249
▁distances	-13250
▁envisages	-13251
▁hierarchy	-13252
▁Controller	-13253
▁attainment	-13254
▁incidental	-13255
▁counterpart	-13256
▁flexibility	-13257
▁unfortunately	-13258
DC	-13259
bl	-13260
arb	-13261
▁VP	-13262
wani	-13263
▁Imp	-13264
▁Mid	-13265
▁Uzb	-13266
inals	-13267
range	-13268
▁Half	-13269
▁Less	-13270
▁Pray	-13271
▁diar	-13272
▁hymn	-13273
▁tear	-13274
atable	-13275
▁Dutch	-13276
▁Round	-13277
▁enlar	-13278
▁metre	-13279
▁swift	-13280
▁Treaty	-13281
▁Unlike	-13282
▁asleep	-13283
▁layers	-13284
▁postal	-13285
▁pulses	-13286
▁Shivaji	-13287
▁circles	-13288
▁deficit	-13289
▁fertile	-13290
▁vacancy	-13291
▁Cultural	-13292
▁Mahadevi	-13293
▁holistic	-13294
▁meanings	-13295
▁hereafter	-13296
▁phenomena	-13297
▁delivering	-13298
▁Performance	-13299
▁elimination	-13300
MOR	-13301
zes	-13302
▁HE	-13303
▁LA	-13304
rons	-13305
wala	-13306
▁Jal	-13307
▁guy	-13308
▁lag	-13309
IVERS	-13310
puted	-13311
ucose	-13312
▁Alam	-13313
▁HPCL	-13314
▁Joze	-13315
▁Kart	-13316
▁Sher	-13317
▁Kapil	-13318
▁Music	-13319
▁Sagar	-13320
▁chlor	-13321
▁curve	-13322
▁incon	-13323
▁loses	-13324
▁naked	-13325
▁prone	-13326
▁sniff	-13327
▁tanks	-13328
▁weigh	-13329
▁Instru	-13330
▁Leader	-13331
▁Method	-13332
▁Sweden	-13333
▁cataly	-13334
▁desper	-13335
▁dinner	-13336
▁disreg	-13337
▁homage	-13338
▁misery	-13339
▁Advance	-13340
▁Sahitya	-13341
▁nucleus	-13342
▁ranking	-13343
▁repairs	-13344
▁winners	-13345
▁Internal	-13346
▁memories	-13347
▁optional	-13348
▁alternate	-13349
▁hostility	-13350
▁processor	-13351
▁California	-13352
▁Englishman	-13353
▁Petitioner	-13354
▁accountant	-13355
▁whatsoever	-13356
▁distinctive	-13357
▁traditionally	-13358
ITH	-13359
arc	-13360
rub	-13361
▁Tu	-13362
leys	-13363
▁APP	-13364
▁cyl	-13365
anted	-13366
heast	-13367
olith	-13368
write	-13369
▁Fate	-13370
▁Kala	-13371
▁Mahm	-13372
▁Mosc	-13373
▁Sukh	-13374
▁asks	-13375
▁sadh	-13376
▁synd	-13377
▁vain	-13378
rified	-13379
uclear	-13380
▁Siyar	-13381
▁param	-13382
▁rigid	-13383
▁undue	-13384
ishness	-13385
▁Assemb	-13386
▁Perman	-13387
▁Source	-13388
▁depict	-13389
▁wholes	-13390
akrishna	-13391
▁Century	-13392
▁adjourn	-13393
▁combine	-13394
▁neutral	-13395
▁speaker	-13396
▁strings	-13397
▁unhappy	-13398
▁Position	-13399
▁smallest	-13400
▁sometime	-13401
▁versions	-13402
▁Pakistani	-13403
▁landscape	-13404
▁commentary	-13405
▁fertilizer	-13406
▁periodical	-13407
▁brotherhood	-13408
▁politically	-13409
▁superficial	-13410
▁intermediate	-13411
▁dissemination	-13412
His	-13413
nia	-13414
▁IM	-13415
▁SM	-13416
▁ic	-13417
iner	-13418
link	-13419
uram	-13420
▁Rob	-13421
otype	-13422
▁Anth	-13423
▁COUR	-13424
▁ecst	-13425
▁syll	-13426
ighter	-13427
ulture	-13428
▁Imper	-13429
▁Medal	-13430
▁eaten	-13431
▁portf	-13432
▁rigor	-13433
▁toile	-13434
hearted	-13435
ructive	-13436
▁riding	-13437
▁tranqu	-13438
itations	-13439
▁Omitted	-13440
▁Puranas	-13441
▁condemn	-13442
▁counted	-13443
▁elderly	-13444
▁mystery	-13445
▁strikes	-13446
▁luminous	-13447
▁presided	-13448
▁proteins	-13449
▁reminded	-13450
▁accomplish	-13451
▁invariably	-13452
▁priorities	-13453
▁stipulated	-13454
▁Expenditure	-13455
▁calculation	-13456
▁conclusions	-13457
▁endorsement	-13458
▁prohibition	-13459
▁temporarily	-13460
▁IB	-13461
▁ts	-13462
text	-13463
▁Kak	-13464
▁REL	-13465
▁SMS	-13466
▁Sap	-13467
▁hrs	-13468
▁sli	-13469
andal	-13470
eland	-13471
heric	-13472
imals	-13473
▁Coal	-13474
▁Jyot	-13475
▁dull	-13476
▁dump	-13477
chants	-13478
iances	-13479
▁Mahas	-13480
▁Memor	-13481
▁Using	-13482
ittance	-13483
onymous	-13484
viously	-13485
▁Bachan	-13486
▁Moscow	-13487
▁census	-13488
▁ledger	-13489
▁safely	-13490
▁spices	-13491
▁Appoint	-13492
▁Harijan	-13493
▁gravity	-13494
▁hearted	-13495
▁heating	-13496
▁sanctum	-13497
▁therapy	-13498
▁autonomy	-13499
▁dwelling	-13500
▁hypothes	-13501
▁monopoly	-13502
▁blindness	-13503
▁incorrect	-13504
▁expressing	-13505
▁approaching	-13506
sm	-13507
TIT	-13508
iga	-13509
oil	-13510
▁AK	-13511
▁Ju	-13512
rats	-13513
▁RSS	-13514
▁Mans	-13515
▁None	-13516
▁Wood	-13517
▁bere	-13518
▁rash	-13519
arlier	-13520
izable	-13521
rology	-13522
▁Hasan	-13523
▁Kisan	-13524
▁Psych	-13525
▁ingen	-13526
▁races	-13527
▁Bhawan	-13528
▁INDIAN	-13529
▁absorb	-13530
▁guests	-13531
▁nearer	-13532
▁photos	-13533
▁routes	-13534
▁scarce	-13535
▁Brother	-13536
▁arrears	-13537
▁whereby	-13538
▁Measures	-13539
▁Settings	-13540
▁imminent	-13541
▁biography	-13542
▁dividends	-13543
▁complexity	-13544
▁preventive	-13545
▁celebration	-13546
▁permissions	-13547
▁resolutions	-13548
EB	-13549
had	-13550
ulu	-13551
▁Ox	-13552
unes	-13553
▁RES	-13554
▁UNC	-13555
▁tin	-13556
lines	-13557
▁Cant	-13558
▁IFCI	-13559
master	-13560
▁Schol	-13561
▁Trial	-13562
▁grasp	-13563
▁overl	-13564
ainable	-13565
▁Switch	-13566
▁congen	-13567
▁ethics	-13568
▁frames	-13569
▁lovely	-13570
▁misuse	-13571
▁outlay	-13572
▁stocks	-13573
▁Kishore	-13574
▁Present	-13575
▁compare	-13576
▁escaped	-13577
▁Evidence	-13578
▁arbitral	-13579
▁generous	-13580
▁performs	-13581
▁intuition	-13582
▁offensive	-13583
▁inhabitants	-13584
▁corporations	-13585
IB	-13586
hma	-13587
ogh	-13588
rob	-13589
▁FA	-13590
▁OP	-13591
▁PH	-13592
iary	-13593
imha	-13594
olio	-13595
phan	-13596
▁Box	-13597
▁Flo	-13598
▁ber	-13599
▁wea	-13600
berry	-13601
khand	-13602
▁Abhi	-13603
▁Apex	-13604
▁Bapu	-13605
▁Ghaz	-13606
▁IITs	-13607
▁Java	-13608
iliary	-13609
▁Close	-13610
▁Ghana	-13611
▁incub	-13612
▁unint	-13613
issance	-13614
▁Martin	-13615
▁lifest	-13616
▁respir	-13617
▁Friends	-13618
▁bribery	-13619
▁columns	-13620
▁purview	-13621
▁enforced	-13622
▁invention	-13623
▁patriotic	-13624
▁incapacity	-13625
▁mainstream	-13626
▁petitioners	-13627
▁Conservation	-13628
▁surroundings	-13629
ogg	-13630
pse	-13631
zed	-13632
▁BE	-13633
▁et	-13634
▁Mul	-13635
ISTER	-13636
feree	-13637
ollen	-13638
▁Kama	-13639
▁drag	-13640
▁fora	-13641
▁sage	-13642
▁worm	-13643
eering	-13644
ilated	-13645
▁Clear	-13646
▁argue	-13647
▁domic	-13648
▁mosqu	-13649
▁souls	-13650
▁winds	-13651
ryption	-13652
▁CONDOL	-13653
▁Hitler	-13654
▁NUMBER	-13655
▁Shukla	-13656
▁bacter	-13657
▁combat	-13658
▁insuff	-13659
▁suspic	-13660
sections	-13661
▁Discuss	-13662
▁educate	-13663
▁reputed	-13664
▁altitude	-13665
▁exciting	-13666
▁feedback	-13667
▁monument	-13668
▁solitary	-13669
▁obstruction	-13670
▁Construction	-13671
▁consistently	-13672
▁renunciation	-13673
ko	-13674
esc	-13675
▁Hi	-13676
neys	-13677
oper	-13678
opic	-13679
ulse	-13680
▁Saw	-13681
▁kar	-13682
▁Pill	-13683
▁jeal	-13684
▁giant	-13685
▁https	-13686
▁imbib	-13687
▁inert	-13688
▁paths	-13689
▁worms	-13690
▁zones	-13691
▁breaks	-13692
▁dances	-13693
▁monkey	-13694
▁singer	-13695
▁Earlier	-13696
▁surveys	-13697
▁appealed	-13698
▁inclined	-13699
▁maritime	-13700
▁persuade	-13701
▁neglected	-13702
▁reasoning	-13703
▁selecting	-13704
▁suspected	-13705
▁workshops	-13706
▁Ambassador	-13707
▁aggression	-13708
▁companions	-13709
▁domination	-13710
▁initiation	-13711
▁organising	-13712
▁politician	-13713
▁provisional	-13714
▁replacement	-13715
▁authoritative	-13716
PG	-13717
२०	-13718
cha	-13719
▁Gib	-13720
▁vap	-13721
ilipp	-13722
rally	-13723
rosis	-13724
▁Kaus	-13725
▁arom	-13726
▁barg	-13727
▁calf	-13728
▁inex	-13729
▁phil	-13730
▁Field	-13731
▁Visit	-13732
atching	-13733
rolment	-13734
▁Except	-13735
▁Little	-13736
▁Narain	-13737
▁Series	-13738
▁menace	-13739
▁zamind	-13740
▁confine	-13741
itionally	-13742
▁nitrogen	-13743
▁salaries	-13744
▁troubles	-13745
▁Copyright	-13746
▁Elections	-13747
▁comprised	-13748
▁inherited	-13749
▁injection	-13750
▁aggressive	-13751
ths	-13752
wad	-13753
▁Es	-13754
iece	-13755
urai	-13756
▁Agg	-13757
▁Fax	-13758
▁exh	-13759
▁sew	-13760
venge	-13761
▁Base	-13762
▁Khar	-13763
▁Prad	-13764
▁Srik	-13765
ennium	-13766
▁Eleph	-13767
▁cited	-13768
▁rests	-13769
▁surge	-13770
▁terra	-13771
undoram	-13772
▁Accept	-13773
▁campus	-13774
▁frater	-13775
▁seated	-13776
▁shaping	-13777
▁Aviation	-13778
▁Purchase	-13779
▁consumed	-13780
▁maternal	-13781
▁Vigilance	-13782
▁ambitious	-13783
▁composite	-13784
▁consisted	-13785
▁imparting	-13786
▁kilograms	-13787
▁litigants	-13788
▁retention	-13789
▁absorption	-13790
▁completing	-13791
▁devotional	-13792
▁infectious	-13793
▁conservative	-13794
uka	-13795
▁DD	-13796
list	-13797
▁Alt	-13798
▁XII	-13799
▁hut	-13800
omass	-13801
uture	-13802
▁knee	-13803
▁nons	-13804
▁wine	-13805
icular	-13806
▁Sugar	-13807
▁Years	-13808
▁bloss	-13809
writing	-13810
▁Ground	-13811
▁Vigyan	-13812
▁orange	-13813
▁verify	-13814
▁vigour	-13815
position	-13816
▁pleaded	-13817
▁Bachchan	-13818
▁Gandhian	-13819
▁claiming	-13820
▁informal	-13821
▁lifetime	-13822
▁remedies	-13823
ologically	-13824
▁Anundoram	-13825
▁authentic	-13826
▁harvesting	-13827
▁objections	-13828
▁suggesting	-13829
▁vocational	-13830
▁commendable	-13831
▁conventions	-13832
▁authentication	-13833
BN	-13834
aza	-13835
cot	-13836
umni	-13837
▁Gaj	-13838
▁Loc	-13839
▁Mes	-13840
▁alb	-13841
anchi	-13842
aryng	-13843
chest	-13844
▁Modi	-13845
▁cerv	-13846
verted	-13847
▁Congo	-13848
▁Pharm	-13849
▁brick	-13850
▁secre	-13851
▁Lakshm	-13852
▁Mexico	-13853
▁feudal	-13854
▁finest	-13855
▁harder	-13856
▁incred	-13857
▁recess	-13858
▁Greater	-13859
▁Usually	-13860
▁cordial	-13861
▁folders	-13862
▁gaining	-13863
hibitions	-13864
▁Keyboard	-13865
▁Operation	-13866
▁borrowing	-13867
▁cancelled	-13868
▁exporters	-13869
▁inability	-13870
▁redressal	-13871
▁specimens	-13872
▁concession	-13873
▁converting	-13874
▁thereunder	-13875
▁adjudication	-13876
gl	-13877
nn	-13878
uz	-13879
eet	-13880
▁QU	-13881
felt	-13882
oons	-13883
oval	-13884
▁Cut	-13885
▁VIS	-13886
▁pel	-13887
▁sha	-13888
adium	-13889
askar	-13890
mbuds	-13891
▁Clim	-13892
▁Gall	-13893
▁dism	-13894
▁glow	-13895
▁pipe	-13896
▁tast	-13897
hemist	-13898
▁Write	-13899
▁rainy	-13900
▁yadav	-13901
▁Compet	-13902
▁buried	-13903
▁herein	-13904
▁upheld	-13905
amsharan	-13906
estation	-13907
▁Hussein	-13908
▁cruelty	-13909
▁dispose	-13910
▁endowed	-13911
▁heading	-13912
▁refusal	-13913
▁screens	-13914
▁sikhara	-13915
▁spheres	-13916
▁umbrell	-13917
▁winding	-13918
▁passport	-13919
▁encounter	-13920
▁imperfect	-13921
▁isolation	-13922
▁obstacles	-13923
▁tribunals	-13924
unicipality	-13925
▁Statistics	-13926
▁guarantees	-13927
▁injunction	-13928
▁Independent	-13929
▁Presidential	-13930
HAN	-13931
VAN	-13932
uga	-13933
▁Sn	-13934
arts	-13935
bone	-13936
▁Baj	-13937
▁dys	-13938
▁gop	-13939
▁pad	-13940
gebra	-13941
oping	-13942
▁Cham	-13943
▁Pesh	-13944
▁Rain	-13945
▁Turn	-13946
▁blog	-13947
▁croc	-13948
hibits	-13949
▁Nawab	-13950
▁Scale	-13951
▁flora	-13952
▁macro	-13953
▁yours	-13954
icherry	-13955
▁Friday	-13956
▁Multip	-13957
▁heroic	-13958
▁portal	-13959
▁warmth	-13960
▁washed	-13961
▁Parties	-13962
▁Regular	-13963
▁Valmiki	-13964
▁exhibit	-13965
▁fathers	-13966
▁sulphur	-13967
▁cleaning	-13968
▁Otherwise	-13969
▁aggrieved	-13970
▁companion	-13971
▁diagnosis	-13972
▁Mahabharat	-13973
▁coordinate	-13974
▁discharged	-13975
▁discussing	-13976
▁reasonably	-13977
▁beneficiary	-13978
▁disciplines	-13979
Bs	-13980
hiz	-13981
rik	-13982
upp	-13983
aval	-13984
onts	-13985
▁DEV	-13986
▁Deg	-13987
▁Kum	-13988
▁gon	-13989
arked	-13990
eller	-13991
▁Font	-13992
▁Parm	-13993
▁Qual	-13994
▁SERV	-13995
▁Vari	-13996
▁Virt	-13997
▁arid	-13998
▁buck	-13999
wahati	-14000
▁Daman	-14001
▁Renew	-14002
▁debit	-14003
▁panic	-14004
▁tribe	-14005
▁Client	-14006
▁Nobody	-14007
▁corpus	-14008
▁merged	-14009
▁pillar	-14010
▁repudi	-14011
▁stroke	-14012
▁uplift	-14013
▁Vedanta	-14014
▁envelop	-14015
▁Savarkar	-14016
▁disappro	-14017
▁enduring	-14018
▁synchron	-14019
▁Khandekar	-14020
▁nutrients	-14021
▁translator	-14022
▁contributes	-14023
▁hospitality	-14024
ARC	-14025
▁Du	-14026
akha	-14027
hera	-14028
ilib	-14029
ipse	-14030
▁Haj	-14031
▁Lod	-14032
▁bot	-14033
andan	-14034
erver	-14035
igate	-14036
rooms	-14037
▁Stan	-14038
▁lump	-14039
▁pity	-14040
▁sang	-14041
ectomy	-14042
▁Surat	-14043
▁dilig	-14044
▁heter	-14045
▁metap	-14046
▁Claims	-14047
▁archae	-14048
▁capita	-14049
▁intric	-14050
▁nerves	-14051
▁promin	-14052
▁termed	-14053
▁Lebanon	-14054
▁adapted	-14055
▁barrier	-14056
▁Managing	-14057
▁Narayana	-14058
▁Textiles	-14059
▁enclosed	-14060
▁planting	-14061
▁Questions	-14062
▁formulate	-14063
▁Submission	-14064
▁defendants	-14065
▁journalism	-14066
▁volunteers	-14067
▁Subordinate	-14068
▁efficiently	-14069
▁prejudicial	-14070
▁Siyaramsharan	-14071
po	-14072
▁ja	-14073
adhi	-14074
aque	-14075
asar	-14076
hair	-14077
oter	-14078
▁Obs	-14079
▁lap	-14080
▁por	-14081
▁vom	-14082
athan	-14083
otive	-14084
▁Cere	-14085
▁Nana	-14086
▁Rana	-14087
▁Rand	-14088
▁Soul	-14089
▁Sudh	-14090
▁cess	-14091
▁idle	-14092
▁leap	-14093
▁prox	-14094
arians	-14095
aswami	-14096
formed	-14097
▁arter	-14098
▁meals	-14099
▁reimb	-14100
▁waist	-14101
entials	-14102
olition	-14103
▁Consid	-14104
▁Fertil	-14105
▁Malays	-14106
▁church	-14107
▁Pallava	-14108
▁beneath	-14109
▁glucose	-14110
▁planted	-14111
▁princes	-14112
▁Normally	-14113
▁guardian	-14114
▁invented	-14115
▁locality	-14116
▁promises	-14117
▁remarked	-14118
▁shifting	-14119
▁awakening	-14120
▁clarified	-14121
▁discontin	-14122
▁exemplary	-14123
▁maintains	-14124
▁probation	-14125
▁realities	-14126
▁unlimited	-14127
▁harmonious	-14128
▁peripheral	-14129
▁imperialist	-14130
▁voluntarily	-14131
▁Harishchandra	-14132
map	-14133
ois	-14134
TIVE	-14135
arao	-14136
atti	-14137
▁Dad	-14138
▁lax	-14139
▁wil	-14140
arial	-14141
▁Scot	-14142
rivast	-14143
▁Sudan	-14144
▁dirty	-14145
▁fears	-14146
▁guilt	-14147
▁maker	-14148
▁miser	-14149
station	-14150
▁backed	-14151
▁conced	-14152
▁stupid	-14153
▁trader	-14154
▁Channel	-14155
▁Empower	-14156
▁Jodhpur	-14157
▁License	-14158
▁Setting	-14159
▁diagram	-14160
▁prevail	-14161
▁profess	-14162
▁useless	-14163
icultural	-14164
▁Capacity	-14165
▁Highways	-14166
▁Mahendra	-14167
▁Suddenly	-14168
▁alliance	-14169
▁spinning	-14170
▁survived	-14171
▁frivolous	-14172
▁heartfelt	-14173
▁inspiring	-14174
▁patronage	-14175
▁Background	-14176
▁privileged	-14177
▁Celebrations	-14178
▁Santiniketan	-14179
▁disobedience	-14180
▁tuberculosis	-14181
tr	-14182
psy	-14183
sts	-14184
ften	-14185
ivic	-14186
lace	-14187
ophy	-14188
orus	-14189
▁Bak	-14190
▁Vit	-14191
▁cig	-14192
▁hoc	-14193
acock	-14194
feren	-14195
isure	-14196
orage	-14197
▁Flow	-14198
▁Lakh	-14199
▁Raju	-14200
▁Rash	-14201
▁Vert	-14202
▁clos	-14203
▁duct	-14204
atient	-14205
▁Seven	-14206
▁Tiger	-14207
▁feeds	-14208
▁manif	-14209
itating	-14210
ocratic	-14211
▁Bankim	-14212
▁Garden	-14213
▁Marine	-14214
▁arisen	-14215
▁assass	-14216
▁lawful	-14217
▁scroll	-14218
ilibrium	-14219
▁Nuclear	-14220
▁loading	-14221
▁swollen	-14222
▁Parishad	-14223
▁Recently	-14224
▁assuming	-14225
▁faithful	-14226
▁residing	-14227
▁supervis	-14228
▁Currently	-14229
▁Framework	-14230
▁Permanent	-14231
▁Redressal	-14232
▁attaining	-14233
▁curiosity	-14234
▁merchants	-14235
▁observing	-14236
▁ornaments	-14237
▁pecuniary	-14238
▁propagation	-14239
▁Notification	-14240
▁consolidated	-14241
▁personalities	-14242
OT	-14243
fig	-14244
gia	-14245
▁HR	-14246
ASHT	-14247
UGUR	-14248
angi	-14249
ganj	-14250
ogas	-14251
oves	-14252
riva	-14253
seek	-14254
vard	-14255
▁Ded	-14256
▁ecl	-14257
▁mes	-14258
▁shy	-14259
front	-14260
ierce	-14261
▁Cath	-14262
▁Loss	-14263
▁SCHE	-14264
▁adjo	-14265
▁bowl	-14266
▁grap	-14267
▁soap	-14268
▁sync	-14269
▁ward	-14270
▁Event	-14271
▁accus	-14272
▁flash	-14273
▁gupta	-14274
▁knees	-14275
▁sorts	-14276
▁Ashoka	-14277
▁Format	-14278
▁Rakesh	-14279
▁relied	-14280
▁reluct	-14281
▁sheets	-14282
▁INAUGUR	-14283
▁Trading	-14284
▁annuity	-14285
▁gradual	-14286
▁praised	-14287
connected	-14288
▁compiled	-14289
▁converts	-14290
▁evolving	-14291
▁moisture	-14292
▁seasonal	-14293
▁Bharatiya	-14294
▁Gurbakhsh	-14295
▁adversely	-14296
▁alignment	-14297
▁uniformity	-14298
▁effectiveness	-14299
▁competitiveness	-14300
OW	-14301
ASA	-14302
fty	-14303
▁DG	-14304
ansh	-14305
riti	-14306
west	-14307
▁Bik	-14308
▁ink	-14309
▁rav	-14310
achar	-14311
rowse	-14312
▁Sadh	-14313
▁fart	-14314
▁horm	-14315
▁knot	-14316
▁unav	-14317
▁vein	-14318
▁yard	-14319
icides	-14320
▁Photo	-14321
▁curse	-14322
▁demon	-14323
▁epile	-14324
▁preca	-14325
itherto	-14326
▁Making	-14327
▁derive	-14328
▁recept	-14329
igration	-14330
▁buffalo	-14331
▁charity	-14332
▁jealous	-14333
▁placing	-14334
▁suffers	-14335
▁sympath	-14336
▁tactics	-14337
▁verdict	-14338
▁Guwahati	-14339
▁Preamble	-14340
▁avoiding	-14341
▁handsome	-14342
▁hydrogen	-14343
▁misunder	-14344
▁ventures	-14345
▁expressly	-14346
▁memorable	-14347
▁providers	-14348
▁Commissions	-14349
▁Pondicherry	-14350
▁consecutive	-14351
▁consultancy	-14352
▁populations	-14353
▁descriptions	-14354
▁Entrepreneurs	-14355
LS	-14356
df	-14357
EAS	-14358
▁GP	-14359
▁OI	-14360
icle	-14361
iraj	-14362
opia	-14363
pher	-14364
▁ACT	-14365
▁Lie	-14366
agiri	-14367
▁Coll	-14368
▁Cott	-14369
▁Mars	-14370
▁Tend	-14371
▁goat	-14372
▁misc	-14373
▁sear	-14374
▁Haran	-14375
▁ample	-14376
▁enshr	-14377
▁riots	-14378
▁sweat	-14379
▁vogue	-14380
ineries	-14381
ittings	-14382
osystem	-14383
▁Diplom	-14384
▁Joseph	-14385
▁Orders	-14386
▁Portal	-14387
▁Update	-14388
▁merger	-14389
▁wicked	-14390
▁Philipp	-14391
▁Provide	-14392
▁confron	-14393
▁expired	-14394
▁exploit	-14395
▁hygiene	-14396
iciencies	-14397
▁Priority	-14398
▁comprise	-14399
▁embodied	-14400
▁imprison	-14401
▁memorial	-14402
▁passages	-14403
▁sickness	-14404
▁Presiding	-14405
▁amenities	-14406
▁communist	-14407
▁parasites	-14408
▁prescribe	-14409
▁undertook	-14410
▁Irrigation	-14411
▁Opposition	-14412
▁Philosophy	-14413
▁differenti	-14414
▁originated	-14415
▁Maintenance	-14416
▁enhancement	-14417
▁facilitates	-14418
▁fascinating	-14419
▁respiratory	-14420
▁spontaneous	-14421
▁indifference	-14422
▁Certification	-14423
LD	-14424
avy	-14425
lav	-14426
▁CF	-14427
▁SU	-14428
▁bye	-14429
▁laz	-14430
▁vow	-14431
pling	-14432
▁Nurs	-14433
▁anch	-14434
▁budd	-14435
▁eros	-14436
▁inch	-14437
▁ugly	-14438
▁unin	-14439
▁Antar	-14440
▁Irish	-14441
▁arrog	-14442
▁catal	-14443
▁goats	-14444
▁straw	-14445
clusion	-14446
▁Choudh	-14447
▁Travel	-14448
▁boards	-14449
▁devast	-14450
▁excuse	-14451
▁precip	-14452
▁Improve	-14453
▁Receipt	-14454
▁Savings	-14455
▁Similar	-14456
▁uranium	-14457
▁glaciers	-14458
▁learners	-14459
ordination	-14460
▁Directive	-14461
▁ambulance	-14462
▁provident	-14463
▁transfers	-14464
▁Conditions	-14465
▁protective	-14466
▁undergoing	-14467
▁demonstrate	-14468
▁Championships	-14469
▁establishments	-14470
▁congratulations	-14471
BB	-14472
dh	-14473
ea	-14474
IFE	-14475
LIC	-14476
yer	-14477
▁ER	-14478
▁Ks	-14479
core	-14480
▁Lot	-14481
▁MAN	-14482
▁fur	-14483
▁ore	-14484
break	-14485
ectar	-14486
hthal	-14487
itrus	-14488
▁Gaya	-14489
apurna	-14490
friend	-14491
iaison	-14492
▁acids	-14493
▁bonus	-14494
▁limbs	-14495
▁peaks	-14496
▁stiff	-14497
▁stuck	-14498
▁wells	-14499
▁Mahesh	-14500
▁Palace	-14501
▁Rajesh	-14502
▁defaul	-14503
▁dental	-14504
▁hosted	-14505
▁shapes	-14506
mbudsman	-14507
▁blocked	-14508
▁choices	-14509
▁mounted	-14510
▁storing	-14511
▁tickets	-14512
▁Islamism	-14513
▁MINISTER	-14514
▁creature	-14515
▁organise	-14516
▁unlawful	-14517
▁Important	-14518
▁ascertain	-14519
▁photographs	-14520
▁multilateral	-14521
▁infrastructural	-14522
▁Ec	-14523
▁Mi	-14524
▁Ral	-14525
▁luc	-14526
izers	-14527
▁Girl	-14528
▁Must	-14529
▁Summ	-14530
▁Sust	-14531
▁fant	-14532
▁rape	-14533
ASHTRA	-14534
mented	-14535
▁Notes	-14536
▁annoy	-14537
▁eloqu	-14538
▁fauna	-14539
▁screw	-14540
▁Diwali	-14541
▁Mangal	-14542
▁Result	-14543
▁eldest	-14544
▁embryo	-14545
▁phosph	-14546
▁ration	-14547
ollywood	-14548
▁classic	-14549
▁failing	-14550
▁fishing	-14551
▁masters	-14552
▁redress	-14553
▁CONDOLES	-14554
▁Function	-14555
▁Progress	-14556
▁advisory	-14557
▁decisive	-14558
▁deserves	-14559
▁interior	-14560
▁invasion	-14561
▁inviting	-14562
▁prescrib	-14563
▁wrongful	-14564
▁divisible	-14565
▁sanctuary	-14566
▁arithmetic	-14567
▁illiterate	-14568
▁formulating	-14569
▁immigration	-14570
▁inheritance	-14571
▁Professional	-14572
ado	-14573
afe	-14574
axy	-14575
bow	-14576
chy	-14577
elo	-14578
▁NR	-14579
inda	-14580
umed	-14581
▁Hey	-14582
▁Rig	-14583
▁Rot	-14584
▁Tob	-14585
▁mul	-14586
anker	-14587
inton	-14588
▁Chan	-14589
▁Crop	-14590
▁Face	-14591
▁dogs	-14592
▁memo	-14593
▁sadd	-14594
▁Peter	-14595
▁Poona	-14596
▁accru	-14597
▁cargo	-14598
▁clubs	-14599
▁punct	-14600
▁spare	-14601
▁trash	-14602
▁Answer	-14603
▁analog	-14604
▁devoid	-14605
▁inflam	-14606
▁vacant	-14607
▁Parvati	-14608
▁anthrop	-14609
▁beetles	-14610
▁linkage	-14611
▁valleys	-14612
inguished	-14613
isational	-14614
▁Infinite	-14615
▁conquest	-14616
▁consulted	-14617
▁creditors	-14618
▁emissions	-14619
▁geography	-14620
▁screening	-14621
▁Preferences	-14622
▁temperament	-14623
▁humanitarian	-14624
▁mathematical	-14625
▁partnerships	-14626
▁biotechnology	-14627
ATH	-14628
ede	-14629
hek	-14630
▁Ol	-14631
hale	-14632
hiya	-14633
ohan	-14634
pill	-14635
▁BIS	-14636
▁Cad	-14637
▁Hor	-14638
▁mun	-14639
ilant	-14640
ledon	-14641
▁Anal	-14642
▁Bhim	-14643
▁Kand	-14644
▁Mald	-14645
▁WITH	-14646
▁pars	-14647
▁triv	-14648
criber	-14649
solete	-14650
▁needy	-14651
▁thumb	-14652
▁AWARDS	-14653
▁Ansari	-14654
▁Growth	-14655
▁Junior	-14656
▁beetle	-14657
▁elders	-14658
▁glands	-14659
▁phases	-14660
▁redund	-14661
▁Anandam	-14662
▁Captain	-14663
▁aquatic	-14664
▁persist	-14665
▁priests	-14666
▁connects	-14667
▁diameter	-14668
▁incompet	-14669
▁pilgrims	-14670
▁prompted	-14671
▁seminars	-14672
▁Character	-14673
▁ancestors	-14674
▁contempor	-14675
▁delegates	-14676
▁donations	-14677
▁intestate	-14678
▁Communications	-14679
▁Narmadashankar	-14680
alp	-14681
ulg	-14682
▁ft	-14683
cile	-14684
ohar	-14685
tage	-14686
udev	-14687
▁BHA	-14688
▁Fak	-14689
▁Gad	-14690
▁Lit	-14691
▁Mud	-14692
▁Own	-14693
▁wre	-14694
▁Khil	-14695
▁Liqu	-14696
▁lens	-14697
alling	-14698
▁Books	-14699
▁Front	-14700
▁Kamal	-14701
▁enric	-14702
▁facie	-14703
▁lapse	-14704
▁nurse	-14705
[...]
