<unk>	0
<s>	0
</s>	0
UuRrLl	0
DdAaTtEe	0
NnUuMm	0
▁t	-0
he	-1
▁a	-2
in	-3
▁o	-4
▁the	-5
re	-6
on	-7
er	-8
at	-9
▁s	-10
en	-11
is	-12
▁,	-13
▁.	-14
▁of	-15
nd	-16
▁w	-17
▁c	-18
it	-19
ed	-20
▁p	-21
▁b	-22
an	-23
al	-24
es	-25
ar	-26
or	-27
▁in	-28
▁f	-29
ion	-30
ing	-31
ou	-32
▁to	-33
▁and	-34
as	-35
▁m	-36
▁d	-37
ic	-38
▁h	-39
ent	-40
le	-41
ro	-42
▁th	-43
▁S	-44
ct	-45
▁re	-46
▁T	-47
▁n	-48
▁I	-49
os	-50
▁A	-51
▁be	-52
▁e	-53
il	-54
om	-55
▁l	-56
▁is	-57
ve	-58
ation	-59
us	-60
▁C	-61
ot	-62
ut	-63
ce	-64
id	-65
am	-66
ap	-67
ad	-68
ur	-69
▁P	-70
im	-71
▁g	-72
▁for	-73
▁&	-74
ly	-75
▁M	-76
et	-77
▁on	-78
▁that	-79
▁The	-80
ment	-81
ol	-82
ch	-83
ver	-84
ri	-85
ay	-86
▁B	-87
▁as	-88
el	-89
st	-90
▁-	-91
ir	-92
ow	-93
her	-94
▁con	-95
▁wh	-96
▁pro	-97
▁R	-98
ul	-99
▁or	-100
apos	-101
▁st	-102
▁an	-103
ra	-104
▁by	-105
▁D	-106
ate	-107
ith	-108
▁de	-109
▁u	-110
▁al	-111
ter	-112
▁was	-113
▁su	-114
▁it	-115
▁H	-116
ig	-117
▁with	-118
ab	-119
if	-120
▁he	-121
ess	-122
ect	-123
ge	-124
▁(	-125
▁)	-126
our	-127
res	-128
ist	-129
▁not	-130
ers	-131
and	-132
▁G	-133
▁y	-134
▁N	-135
ant	-136
pp	-137
qu	-138
od	-139
ak	-140
ain	-141
ld	-142
▁com	-143
▁are	-144
ere	-145
▁v	-146
▁ex	-147
ity	-148
se	-149
um	-150
ill	-151
iv	-152
op	-153
est	-154
▁at	-155
nt	-156
em	-157
▁K	-158
rom	-159
▁has	-160
ci	-161
▁sh	-162
ich	-163
▁this	-164
▁L	-165
art	-166
ave	-167
ort	-168
▁E	-169
▁W	-170
ore	-171
end	-172
ive	-173
ud	-174
▁which	-175
gh	-176
▁O	-177
▁from	-178
un	-179
▁Ind	-180
▁his	-181
ac	-182
ure	-183
▁le	-184
ies	-185
ia	-186
▁se	-187
▁F	-188
▁In	-189
ther	-190
▁have	-191
th	-192
all	-193
cc	-194
ould	-195
▁app	-196
ust	-197
ated	-198
▁ne	-199
▁k	-200
ard	-201
▁r	-202
▁J	-203
ition	-204
ag	-205
▁ch	-206
ous	-207
ice	-208
nder	-209
ind	-210
▁:	-211
red	-212
age	-213
av	-214
so	-215
▁sp	-216
▁pl	-217
▁res	-218
hi	-219
ence	-220
▁all	-221
ell	-222
ance	-223
▁comp	-224
ff	-225
igh	-226
▁wor	-227
▁we	-228
▁j	-229
pt	-230
ction	-231
▁you	-232
ome	-233
ary	-234
▁int	-235
▁ad	-236
▁V	-237
▁ab	-238
▁im	-239
able	-240
▁under	-241
ear	-242
▁whe	-243
oc	-244
ount	-245
ry	-246
ase	-247
rou	-248
▁U	-249
▁can	-250
▁cont	-251
ans	-252
▁been	-253
▁so	-254
ish	-255
▁had	-256
▁any	-257
▁India	-258
▁/	-259
ame	-260
over	-261
▁Th	-262
ong	-263
ep	-264
ourt	-265
ical	-266
▁dis	-267
▁us	-268
▁per	-269
▁also	-270
▁It	-271
▁other	-272
▁there	-273
ru	-274
ult	-275
ast	-276
▁St	-277
▁en	-278
pl	-279
▁acc	-280
ions	-281
per	-282
▁ag	-283
og	-284
▁un	-285
▁me	-286
ide	-287
ial	-288
out	-289
▁inc	-290
du	-291
▁their	-292
▁part	-293
▁sub	-294
▁were	-295
ost	-296
▁one	-297
▁its	-298
▁Ch	-299
ub	-300
▁who	-301
ok	-302
lic	-303
itt	-304
ik	-305
ie	-306
▁man	-307
ire	-308
▁will	-309
ord	-310
▁Sh	-311
orm	-312
▁ar	-313
act	-314
ime	-315
ations	-316
ang	-317
iz	-318
ib	-319
▁up	-320
▁cl	-321
vel	-322
ine	-323
overn	-324
aid	-325
▁He	-326
ade	-327
▁do	-328
▁out	-329
ail	-330
▁tr	-331
▁but	-332
▁imp	-333
▁;	-334
sion	-335
aw	-336
are	-337
ection	-338
ond	-339
ah	-340
▁no	-341
ght	-342
ned	-343
▁Court	-344
ec	-345
aj	-346
ach	-347
▁such	-348
ood	-349
ident	-350
▁prov	-351
one	-352
ue	-353
erv	-354
ass	-355
▁ev	-356
ose	-357
▁they	-358
▁am	-359
ally	-360
ight	-361
▁rel	-362
ian	-363
▁year	-364
▁comm	-365
aus	-366
rit	-367
ric	-368
ree	-369
▁Com	-370
▁off	-371
▁rec	-372
ution	-373
very	-374
fter	-375
▁ind	-376
ake	-377
▁him	-378
▁qu	-379
overnment	-380
ress	-381
ber	-382
erson	-383
ace	-384
ater	-385
ath	-386
▁them	-387
▁cons	-388
▁”	-389
ory	-390
▁As	-391
form	-392
fore	-393
▁may	-394
ee	-395
▁resp	-396
▁time	-397
▁pe	-398
▁pre	-399
▁reg	-400
▁our	-401
int	-402
hed	-403
cial	-404
stit	-405
ied	-406
▁case	-407
ious	-408
now	-409
▁would	-410
▁person	-411
ove	-412
ings	-413
▁“	-414
▁This	-415
▁tw	-416
ational	-417
▁her	-418
ces	-419
▁Y	-420
▁work	-421
der	-422
▁Act	-423
▁rep	-424
rib	-425
ities	-426
amp	-427
ign	-428
ack	-429
ip	-430
ank	-431
ments	-432
▁dec	-433
▁only	-434
▁made	-435
low	-436
▁about	-437
▁said	-438
▁bec	-439
▁pres	-440
iff	-441
▁ass	-442
ound	-443
▁pol	-444
ike	-445
ile	-446
ject	-447
ause	-448
▁te	-449
etition	-450
mis	-451
oy	-452
▁should	-453
▁po	-454
ople	-455
tern	-456
ens	-457
▁em	-458
▁more	-459
ness	-460
▁if	-461
ash	-462
ual	-463
▁?	-464
ates	-465
▁when	-466
ark	-467
ays	-468
ild	-469
ific	-470
▁pr	-471
ite	-472
▁Mr	-473
▁into	-474
reat	-475
▁some	-476
▁over	-477
elf	-478
velop	-479
▁know	-480
▁ri	-481
▁%	-482
me	-483
▁sc	-484
▁count	-485
▁De	-486
ced	-487
▁An	-488
ingh	-489
▁State	-490
ha	-491
▁act	-492
▁exp	-493
ram	-494
▁two	-495
ise	-496
ife	-497
ered	-498
▁people	-499
ased	-500
▁ob	-501
cess	-502
pe	-503
ert	-504
▁Con	-505
▁Government	-506
ook	-507
▁these	-508
▁like	-509
oun	-510
▁after	-511
▁new	-512
▁Al	-513
▁Bh	-514
lect	-515
▁form	-516
▁fir	-517
▁ac	-518
▁ent	-519
▁Pr	-520
▁ro	-521
▁Pro	-522
ating	-523
▁ref	-524
▁Su	-525
▁again	-526
▁Singh	-527
erm	-528
▁where	-529
ward	-530
▁go	-531
▁being	-532
ren	-533
led	-534
wn	-535
▁Ex	-536
▁No	-537
▁inv	-538
▁your	-539
▁att	-540
arm	-541
ative	-542
▁shall	-543
▁bet	-544
een	-545
▁Un	-546
rough	-547
ision	-548
eg	-549
ublic	-550
uth	-551
ents	-552
▁lear	-553
mitt	-554
▁sy	-555
▁trans	-556
▁petition	-557
▁Indian	-558
uring	-559
▁pos	-560
ors	-561
old	-562
▁fe	-563
▁On	-564
ty	-565
ular	-566
ener	-567
▁than	-568
▁rem	-569
ari	-570
ef	-571
▁before	-572
▁diff	-573
ict	-574
cy	-575
▁through	-576
ov	-577
aint	-578
ower	-579
vers	-580
▁Ad	-581
ax	-582
used	-583
uc	-584
▁develop	-585
ism	-586
▁first	-587
▁my	-588
▁produ	-589
▁There	-590
▁eff	-591
▁des	-592
▁def	-593
row	-594
esh	-595
ons	-596
its	-597
ati	-598
▁years	-599
▁We	-600
▁tak	-601
pos	-602
▁right	-603
▁order	-604
▁serv	-605
lud	-606
▁state	-607
ning	-608
cept	-609
▁sec	-610
li	-611
▁giv	-612
▁’	-613
▁could	-614
hy	-615
▁But	-616
▁set	-617
other	-618
oth	-619
▁law	-620
ature	-621
gan	-622
▁pur	-623
▁So	-624
▁And	-625
mission	-626
als	-627
ract	-628
ble	-629
ible	-630
any	-631
▁ra	-632
▁col	-633
ob	-634
ility	-635
ited	-636
▁same	-637
te	-638
quot	-639
▁life	-640
▁cent	-641
▁well	-642
ural	-643
▁fact	-644
ful	-645
▁Pres	-646
olog	-647
ink	-648
rap	-649
und	-650
▁mem	-651
ft	-652
▁she	-653
▁very	-654
iew	-655
▁op	-656
ouse	-657
▁country	-658
▁requ	-659
▁mat	-660
▁ins	-661
irect	-662
ants	-663
stem	-664
ange	-665
▁what	-666
inal	-667
▁call	-668
han	-669
▁then	-670
gt	-671
▁fol	-672
ween	-673
▁even	-674
ral	-675
▁Ram	-676
▁against	-677
own	-678
ided	-679
ute	-680
▁char	-681
hen	-682
▁dist	-683
▁between	-684
uthor	-685
▁supp	-686
▁bl	-687
air	-688
▁get	-689
▁En	-690
ised	-691
▁present	-692
▁add	-693
sel	-694
ily	-695
ai	-696
▁ext	-697
▁learned	-698
▁Am	-699
▁need	-700
rict	-701
hip	-702
▁world	-703
round	-704
ention	-705
ough	-706
▁President	-707
▁num	-708
▁must	-709
ody	-710
con	-711
▁inst	-712
ices	-713
▁co	-714
▁includ	-715
app	-716
▁inform	-717
ital	-718
▁Raj	-719
▁Ar	-720
▁just	-721
lt	-722
eth	-723
▁good	-724
▁ed	-725
▁used	-726
▁conc	-727
▁jud	-728
ved	-729
su	-730
istr	-731
▁spe	-732
▁Is	-733
▁pass	-734
les	-735
▁accused	-736
ever	-737
ters	-738
▁consid	-739
▁fur	-740
▁how	-741
stitution	-742
▁applic	-743
▁If	-744
▁see	-745
▁many	-746
ey	-747
▁inf	-748
▁conf	-749
▁system	-750
ix	-751
▁cap	-752
ven	-753
ged	-754
▁differe	-755
▁inter	-756
pre	-757
▁day	-758
▁min	-759
▁place	-760
▁mon	-761
chn	-762
▁disc	-763
▁Shri	-764
▁own	-765
▁name	-766
▁Hind	-767
▁val	-768
▁import	-769
▁follow	-770
ined	-771
▁make	-772
hes	-773
ple	-774
ries	-775
▁For	-776
▁prog	-777
ures	-778
▁public	-779
▁appell	-780
▁Kum	-781
▁tra	-782
▁i	-783
▁child	-784
▁car	-785
ffic	-786
oint	-787
▁did	-788
▁fil	-789
▁adv	-790
ages	-791
▁way	-792
▁hand	-793
▁found	-794
ished	-795
▁sm	-796
ew	-797
gal	-798
ination	-799
ained	-800
▁every	-801
▁long	-802
au	-803
▁power	-804
ified	-805
man	-806
iness	-807
▁occ	-808
xt	-809
▁&#	-810
▁here	-811
hat	-812
ivers	-813
▁gr	-814
ired	-815
▁end	-816
▁det	-817
▁Min	-818
▁most	-819
ather	-820
▁court	-821
▁during	-822
▁lar	-823
ya	-824
▁Par	-825
▁mod	-826
▁gener	-827
▁given	-828
▁Cent	-829
▁They	-830
ock	-831
ared	-832
▁section	-833
erest	-834
har	-835
▁take	-836
▁Mah	-837
iod	-838
▁ret	-839
ety	-840
▁0	-841
▁because	-842
▁now	-843
▁land	-844
bers	-845
uk	-846
▁PW	-847
arch	-848
▁process	-849
▁equ	-850
▁record	-851
▁hel	-852
▁respect	-853
▁writ	-854
▁author	-855
▁back	-856
▁av	-857
▁bu	-858
▁fam	-859
▁great	-860
idence	-861
▁partic	-862
not	-863
ale	-864
▁proper	-865
▁br	-866
▁dem	-867
mitted	-868
▁petitioner	-869
▁account	-870
▁Man	-871
gg	-872
▁appro	-873
▁view	-874
▁three	-875
▁fl	-876
ana	-877
ars	-878
▁period	-879
ceed	-880
▁pay	-881
▁poss	-882
▁est	-883
▁Ben	-884
aking	-885
▁number	-886
imes	-887
▁rece	-888
▁further	-889
ince	-890
▁respond	-891
▁term	-892
conom	-893
▁Kumar	-894
▁taken	-895
▁organ	-896
▁both	-897
▁Commission	-898
ted	-899
rol	-900
alth	-901
lim	-902
ploy	-903
▁interest	-904
▁mark	-905
ality	-906
ick	-907
▁dep	-908
▁down	-909
way	-910
▁stud	-911
nce	-912
▁those	-913
▁ear	-914
▁aff	-915
▁cor	-916
▁different	-917
uman	-918
▁bel	-919
▁Res	-920
min	-921
▁cert	-922
ctions	-923
▁does	-924
ting	-925
ases	-926
▁bus	-927
na	-928
ool	-929
▁coun	-930
▁help	-931
isions	-932
ata	-933
uch	-934
ros	-935
angu	-936
tic	-937
ruct	-938
▁sur	-939
ork	-940
aving	-941
▁effect	-942
▁use	-943
ck	-944
▁Jud	-945
▁med	-946
▁indust	-947
▁lead	-948
ament	-949
up	-950
▁development	-951
▁educ	-952
lish	-953
ister	-954
dition	-955
ull	-956
ron	-957
ives	-958
erred	-959
▁dece	-960
▁gu	-961
▁called	-962
med	-963
ds	-964
tc	-965
ges	-966
icial	-967
ules	-968
ics	-969
▁comple	-970
▁spec	-971
▁&#9	-972
▁report	-973
read	-974
▁bas	-975
▁Dep	-976
ner	-977
riv	-978
▁You	-979
▁High	-980
rial	-981
▁let	-982
▁without	-983
ology	-984
▁stated	-985
get	-986
▁cre	-987
ency	-988
ended	-989
ists	-990
▁house	-991
ph	-992
az	-993
▁body	-994
▁etc	-995
ides	-996
▁direct	-997
▁while	-998
▁cle	-999
▁fore	-1000
▁amount	-1001
▁cannot	-1002
▁econom	-1003
▁par	-1004
ession	-1005
▁opp	-1006
▁quest	-1007
▁start	-1008
itness	-1009
▁deceased	-1010
▁fin	-1011
▁var	-1012
▁invest	-1013
▁read	-1014
▁contin	-1015
preme	-1016
urn	-1017
ived	-1018
▁point	-1019
▁within	-1020
.0	-1021
▁ph	-1022
roup	-1023
▁bro	-1024
▁del	-1025
por	-1026
▁commun	-1027
▁information	-1028
▁regard	-1029
▁loc	-1030
aim	-1031
▁water	-1032
ually	-1033
ized	-1034
▁Dist	-1035
pect	-1036
▁To	-1037
▁issu	-1038
eal	-1039
stitut	-1040
▁come	-1041
▁sim	-1042
▁Mus	-1043
▁ke	-1044
▁came	-1045
▁oper	-1046
▁At	-1047
▁National	-1048
ior	-1049
▁upon	-1050
▁stand	-1051
▁government	-1052
▁each	-1053
▁beh	-1054
less	-1055
▁techn	-1056
▁mar	-1057
▁reas	-1058
rig	-1059
▁high	-1060
iel	-1061
ala	-1062
▁Dr	-1063
irc	-1064
▁exam	-1065
▁find	-1066
▁str	-1067
▁much	-1068
RB	-1069
▁support	-1070
▁Rs	-1071
▁langu	-1072
lement	-1073
ug	-1074
▁Te	-1075
ording	-1076
▁another	-1077
▁prev	-1078
▁Re	-1079
▁want	-1080
icy	-1081
ES	-1082
▁held	-1083
▁employ	-1084
▁witness	-1085
day	-1086
▁appellant	-1087
err	-1088
▁avail	-1089
▁wom	-1090
▁look	-1091
▁Sc	-1092
port	-1093
▁Eng	-1094
af	-1095
▁Supreme	-1096
▁means	-1097
▁All	-1098
crib	-1099
▁Or	-1100
▁che	-1101
▁show	-1102
▁important	-1103
alf	-1104
self	-1105
▁Offic	-1106
▁grow	-1107
▁book	-1108
ically	-1109
anch	-1110
artment	-1111
here	-1112
▁fac	-1113
▁business	-1114
▁sect	-1115
ried	-1116
ines	-1117
rim	-1118
ances	-1119
▁When	-1120
wards	-1121
▁gl	-1122
▁various	-1123
▁How	-1124
blem	-1125
▁vis	-1126
▁ser	-1127
▁program	-1128
▁Pol	-1129
eration	-1130
▁..	-1131
▁som	-1132
▁She	-1133
ought	-1134
▁small	-1135
▁ve	-1136
▁dev	-1137
ets	-1138
ification	-1139
▁Acc	-1140
ll	-1141
▁App	-1142
▁bank	-1143
▁Gu	-1144
pr	-1145
▁vill	-1146
ret	-1147
▁estab	-1148
▁ty	-1149
▁tem	-1150
▁human	-1151
▁sent	-1152
▁matter	-1153
▁fun	-1154
chool	-1155
ern	-1156
▁say	-1157
▁wr	-1158
▁assess	-1159
ator	-1160
inci	-1161
ering	-1162
▁gre	-1163
▁sign	-1164
▁problem	-1165
oard	-1166
ross	-1167
▁prof	-1168
▁evidence	-1169
▁persons	-1170
▁appear	-1171
▁company	-1172
▁month	-1173
▁Sec	-1174
▁Coun	-1175
▁allow	-1176
▁last	-1177
ains	-1178
▁Central	-1179
ining	-1180
▁condition	-1181
▁death	-1182
▁open	-1183
bit	-1184
ivil	-1185
oh	-1186
▁post	-1187
▁cult	-1188
▁rev	-1189
▁happ	-1190
▁result	-1191
ury	-1192
▁relig	-1193
▁Rep	-1194
▁polit	-1195
lam	-1196
▁incre	-1197
▁known	-1198
iter	-1199
▁soci	-1200
▁members	-1201
erg	-1202
▁...	-1203
▁exper	-1204
▁play	-1205
reed	-1206
ivid	-1207
ense	-1208
▁dated	-1209
▁proceed	-1210
erence	-1211
▁Adv	-1212
duct	-1213
▁ide	-1214
▁ben	-1215
▁social	-1216
▁application	-1217
att	-1218
ulation	-1219
▁days	-1220
▁Se	-1221
▁mind	-1222
sec	-1223
▁provisions	-1224
par	-1225
▁large	-1226
mb	-1227
ately	-1228
▁group	-1229
▁non	-1230
▁counsel	-1231
lished	-1232
asht	-1233
▁cur	-1234
▁accept	-1235
ways	-1236
▁necess	-1237
▁subject	-1238
▁real	-1239
▁having	-1240
ani	-1241
▁going	-1242
pur	-1243
▁meet	-1244
▁claim	-1245
▁date	-1246
rop	-1247
EN	-1248
▁Chand	-1249
ither	-1250
▁Muslim	-1251
▁think	-1252
ption	-1253
▁income	-1254
uty	-1255
▁District	-1256
▁due	-1257
▁times	-1258
▁sit	-1259
stand	-1260
▁four	-1261
▁question	-1262
▁education	-1263
▁respondent	-1264
▁activ	-1265
▁above	-1266
ization	-1267
▁Tr	-1268
▁particular	-1269
▁rest	-1270
olution	-1271
▁level	-1272
▁Reg	-1273
▁therefore	-1274
ected	-1275
ternal	-1276
▁Del	-1277
▁Committ	-1278
▁‘	-1279
▁Ag	-1280
ves	-1281
ability	-1282
war	-1283
ize	-1284
ule	-1285
▁give	-1286
▁service	-1287
▁head	-1288
▁compl	-1289
riend	-1290
ma	-1291
ledge	-1292
▁appoint	-1293
▁lim	-1294
▁circ	-1295
▁rele	-1296
▁Ass	-1297
▁prot	-1298
▁!	-1299
▁ele	-1300
▁mis	-1301
iversity	-1302
▁family	-1303
▁repres	-1304
▁available	-1305
ks	-1306
iction	-1307
▁Sub	-1308
ently	-1309
▁dra	-1310
ode	-1311
▁leg	-1312
▁statement	-1313
▁conn	-1314
▁move	-1315
work	-1316
▁including	-1317
▁Ab	-1318
ething	-1319
▁put	-1320
▁exist	-1321
▁certain	-1322
put	-1323
▁const	-1324
ateg	-1325
ger	-1326
▁action	-1327
▁clear	-1328
▁inj	-1329
▁wind	-1330
liament	-1331
▁along	-1332
ential	-1333
▁These	-1334
oney	-1335
▁less	-1336
ising	-1337
▁language	-1338
▁old	-1339
▁succ	-1340
▁class	-1341
▁ask	-1342
osed	-1343
▁national	-1344
▁control	-1345
▁common	-1346
▁second	-1347
▁Q	-1348
▁children	-1349
cil	-1350
ured	-1351
▁Section	-1352
▁met	-1353
▁main	-1354
▁mater	-1355
▁div	-1356
▁war	-1357
land	-1358
▁sche	-1359
▁policy	-1360
▁far	-1361
▁list	-1362
▁reason	-1363
▁done	-1364
▁object	-1365
▁cases	-1366
▁health	-1367
▁Dev	-1368
▁OF	-1369
ts	-1370
onment	-1371
ocu	-1372
▁area	-1373
ending	-1374
▁pop	-1375
omm	-1376
ote	-1377
▁lo	-1378
▁sci	-1379
sue	-1380
ER	-1381
▁pract	-1382
ling	-1383
▁Delhi	-1384
▁plac	-1385
▁whether	-1386
ajor	-1387
▁property	-1388
▁Constitution	-1389
bs	-1390
▁Pl	-1391
avan	-1392
ins	-1393
▁passed	-1394
▁others	-1395
▁friend	-1396
ortun	-1397
▁{	-1398
▁His	-1399
▁among	-1400
aining	-1401
▁since	-1402
ourse	-1403
ministr	-1404
▁sk	-1405
pose	-1406
raph	-1407
▁What	-1408
▁ver	-1409
▁hig	-1410
oss	-1411
atic	-1412
ta	-1413
pra	-1414
ium	-1415
▁}	-1416
isation	-1417
▁become	-1418
▁obs	-1419
ternational	-1420
▁tre	-1421
section	-1422
▁That	-1423
▁too	-1424
▁today	-1425
▁hist	-1426
▁hold	-1427
▁expl	-1428
▁fund	-1429
▁left	-1430
ON	-1431
▁based	-1432
▁init	-1433
otion	-1434
▁decision	-1435
▁services	-1436
orn	-1437
▁tax	-1438
▁nature	-1439
AT	-1440
▁Committee	-1441
gment	-1442
▁prom	-1443
▁submitted	-1444
isl	-1445
▁cost	-1446
ield	-1447
▁product	-1448
▁Gand	-1449
▁away	-1450
▁Brit	-1451
▁States	-1452
alk	-1453
▁referred	-1454
▁orig	-1455
▁project	-1456
▁Department	-1457
sh	-1458
osp	-1459
agement	-1460
cl	-1461
adesh	-1462
▁whole	-1463
▁tot	-1464
soci	-1465
▁care	-1466
▁Bank	-1467
ividual	-1468
cing	-1469
AR	-1470
▁free	-1471
▁comput	-1472
▁benef	-1473
outh	-1474
iding	-1475
▁countries	-1476
▁PR	-1477
ware	-1478
▁elect	-1479
▁sw	-1480
ify	-1481
▁New	-1482
▁build	-1483
uss	-1484
▁self	-1485
▁required	-1486
▁After	-1487
▁trad	-1488
▁vi	-1489
▁police	-1490
▁ple	-1491
▁material	-1492
▁special	-1493
▁belie	-1494
▁took	-1495
▁Col	-1496
▁provided	-1497
ples	-1498
▁prosec	-1499
ogn	-1500
▁docu	-1501
ient	-1502
▁respons	-1503
▁following	-1504
▁necessary	-1505
ita	-1506
▁major	-1507
anj	-1508
▁basis	-1509
▁Officer	-1510
iqu	-1511
▁knowledge	-1512
▁something	-1513
▁making	-1514
▁transf	-1515
ancial	-1516
ND	-1517
▁ground	-1518
▁individual	-1519
▁decl	-1520
▁represent	-1521
▁—	-1522
▁charact	-1523
▁test	-1524
▁Mad	-1525
▁value	-1526
ences	-1527
▁Islam	-1528
▁success	-1529
orts	-1530
▁filed	-1531
▁Gener	-1532
▁society	-1533
▁position	-1534
ush	-1535
▁plan	-1536
cies	-1537
▁chang	-1538
▁situ	-1539
▁continu	-1540
▁keep	-1541
▁economic	-1542
orth	-1543
vir	-1544
▁ord	-1545
▁eng	-1546
error	-1547
▁suit	-1548
▁el	-1549
▁run	-1550
▁political	-1551
ructure	-1552
▁ident	-1553
ricult	-1554
▁Rules	-1555
▁God	-1556
▁Sri	-1557
ara	-1558
▁deal	-1559
▁provide	-1560
▁words	-1561
▁concer	-1562
▁son	-1563
▁areas	-1564
ees	-1565
irit	-1566
ird	-1567
▁liter	-1568
ery	-1569
▁women	-1570
▁purpose	-1571
▁poet	-1572
▁net	-1573
ready	-1574
▁princi	-1575
urity	-1576
▁father	-1577
ran	-1578
▁near	-1579
▁himself	-1580
▁money	-1581
▁went	-1582
▁light	-1583
▁itself	-1584
idd	-1585
▁agree	-1586
▁Z	-1587
▁One	-1588
gu	-1589
▁Parliament	-1590
▁di	-1591
▁best	-1592
▁capital	-1593
▁food	-1594
chie	-1595
ony	-1596
▁ann	-1597
ilit	-1598
▁already	-1599
ID	-1600
▁market	-1601
▁mean	-1602
ilities	-1603
▁sat	-1604
ems	-1605
▁depos	-1606
arma	-1607
▁supra	-1608
▁towards	-1609
▁men	-1610
rish	-1611
▁change	-1612
eric	-1613
cribed	-1614
▁office	-1615
erc	-1616
▁Chi	-1617
▁school	-1618
▁conduct	-1619
▁offic	-1620
▁fail	-1621
aring	-1622
▁address	-1623
▁village	-1624
▁still	-1625
of	-1626
▁five	-1627
▁Pre	-1628
▁age	-1629
ex	-1630
▁Judge	-1631
▁maint	-1632
icult	-1633
▁Gandhi	-1634
epend	-1635
▁Bhavan	-1636
hys	-1637
▁However	-1638
▁few	-1639
▁full	-1640
▁fa	-1641
▁stat	-1642
ten	-1643
▁received	-1644
ication	-1645
ached	-1646
▁perform	-1647
ilar	-1648
▁later	-1649
▁Comm	-1650
▁caus	-1651
▁course	-1652
akh	-1653
▁sever	-1654
▁Vs	-1655
▁British	-1656
▁issued	-1657
▁plaint	-1658
iving	-1659
▁English	-1660
▁gra	-1661
▁institut	-1662
agar	-1663
▁pen	-1664
▁never	-1665
▁conv	-1666
▁always	-1667
▁Bengal	-1668
▁authority	-1669
ittle	-1670
igation	-1671
▁sl	-1672
ember	-1673
▁Hindu	-1674
▁abs	-1675
▁window	-1676
▁Cl	-1677
rought	-1678
ng	-1679
▁Rasht	-1680
▁kind	-1681
adi	-1682
▁x	-1683
ration	-1684
itten	-1685
▁alle	-1686
ively	-1687
▁possible	-1688
▁however	-1689
sequ	-1690
▁mill	-1691
▁University	-1692
▁heart	-1693
▁thought	-1694
▁spirit	-1695
▁General	-1696
arat	-1697
thing	-1698
▁sol	-1699
▁total	-1700
▁Serv	-1701
▁feel	-1702
▁short	-1703
▁party	-1704
▁observ	-1705
▁Direct	-1706
ticle	-1707
▁Spe	-1708
▁Ne	-1709
▁rese	-1710
ali	-1711
▁propos	-1712
▁considered	-1713
ories	-1714
1;	-1715
▁&#91;	-1716
ours	-1717
▁seen	-1718
▁tru	-1719
▁committ	-1720
oura	-1721
▁ten	-1722
ocate	-1723
▁ey	-1724
▁Develop	-1725
▁Hindi	-1726
▁grant	-1727
▁exec	-1728
ggest	-1729
▁several	-1730
▁Muk	-1731
▁clause	-1732
vironment	-1733
▁things	-1734
▁concerned	-1735
▁invol	-1736
▁got	-1737
▁impro	-1738
ope	-1739
▁mus	-1740
▁bre	-1741
▁though	-1742
mes	-1743
▁Me	-1744
ards	-1745
▁meas	-1746
udd	-1747
▁opportun	-1748
rapati	-1749
amb	-1750
▁foreign	-1751
ience	-1752
▁Chief	-1753
▁Comp	-1754
▁Council	-1755
ores	-1756
come	-1757
▁demand	-1758
enior	-1759
▁cr	-1760
▁ir	-1761
▁sum	-1762
cious	-1763
ibility	-1764
▁sector	-1765
▁growth	-1766
▁judgment	-1767
ats	-1768
▁Board	-1769
▁Cong	-1770
▁relations	-1771
3;	-1772
▁&#93;	-1773
▁acqu	-1774
▁Pradesh	-1775
▁little	-1776
▁either	-1777
▁around	-1778
miss	-1779
▁instru	-1780
▁beg	-1781
▁side	-1782
rent	-1783
▁_	-1784
▁Law	-1785
▁Kh	-1786
▁occur	-1787
allen	-1788
▁priv	-1789
▁Pat	-1790
rah	-1791
▁suggest	-1792
▁function	-1793
▁Rashtrapati	-1794
▁cause	-1795
ENT	-1796
istry	-1797
▁written	-1798
▁complete	-1799
lection	-1800
stitute	-1801
▁Union	-1802
▁data	-1803
▁es	-1804
umb	-1805
arent	-1806
▁mother	-1807
▁occas	-1808
redit	-1809
▁achie	-1810
▁Div	-1811
▁six	-1812
▁mention	-1813
▁cust	-1814
▁local	-1815
▁terms	-1816
▁Be	-1817
ribut	-1818
jee	-1819
▁Americ	-1820
▁Police	-1821
ann	-1822
▁eas	-1823
▁Cor	-1824
akes	-1825
▁treat	-1826
▁stren	-1827
▁earli	-1828
▁art	-1829
▁home	-1830
▁Prov	-1831
ources	-1832
▁Petition	-1833
ev	-1834
lu	-1835
▁entire	-1836
▁ur	-1837
AL	-1838
▁love	-1839
pond	-1840
ample	-1841
▁With	-1842
▁according	-1843
riminal	-1844
▁appeal	-1845
rab	-1846
aly	-1847
▁civil	-1848
▁industry	-1849
▁brought	-1850
ti	-1851
▁nat	-1852
▁mult	-1853
▁character	-1854
▁brother	-1855
isd	-1856
inary	-1857
▁plaintiff	-1858
▁Development	-1859
AN	-1860
▁Just	-1861
▁working	-1862
ues	-1863
▁Congress	-1864
▁next	-1865
IN	-1866
▁started	-1867
atory	-1868
▁Minister	-1869
▁understand	-1870
abad	-1871
▁Kar	-1872
▁behalf	-1873
▁sing	-1874
ina	-1875
selves	-1876
▁hard	-1877
▁recogn	-1878
▁production	-1879
HE	-1880
▁enc	-1881
▁Trib	-1882
▁financial	-1883
▁dise	-1884
▁pat	-1885
▁bring	-1886
▁mess	-1887
▁force	-1888
alc	-1889
▁addition	-1890
▁Co	-1891
▁Bi	-1892
▁able	-1893
▁issue	-1894
abha	-1895
▁rate	-1896
▁parties	-1897
▁defend	-1898
▁administr	-1899
▁file	-1900
▁dou	-1901
▁RRB	-1902
▁air	-1903
▁Sy	-1904
uro	-1905
ression	-1906
▁notice	-1907
▁higher	-1908
empt	-1909
▁difficult	-1910
ably	-1911
ici	-1912
▁prosecution	-1913
▁plant	-1914
▁young	-1915
▁legal	-1916
ource	-1917
▁Cont	-1918
imal	-1919
▁charge	-1920
gth	-1921
▁region	-1922
medi	-1923
IR	-1924
▁lab	-1925
ethod	-1926
▁ut	-1927
bt	-1928
▁Ra	-1929
▁type	-1930
▁Le	-1931
▁general	-1932
▁don	-1933
▁initi	-1934
hile	-1935
IT	-1936
▁detail	-1937
▁rights	-1938
rodu	-1939
vant	-1940
▁dom	-1941
igned	-1942
▁phys	-1943
amm	-1944
▁Sw	-1945
▁SC	-1946
▁fut	-1947
ji	-1948
▁mor	-1949
▁activities	-1950
▁might	-1951
▁manner	-1952
▁months	-1953
▁sett	-1954
ened	-1955
▁inn	-1956
arth	-1957
00	-1958
aya	-1959
augh	-1960
els	-1961
ental	-1962
▁quality	-1963
▁goods	-1964
iver	-1965
▁House	-1966
la	-1967
▁wife	-1968
mber	-1969
gether	-1970
▁together	-1971
▁aut	-1972
▁ill	-1973
reedom	-1974
ault	-1975
gar	-1976
▁progress	-1977
kar	-1978
▁Cr	-1979
▁flow	-1980
▁taking	-1981
riage	-1982
▁bo	-1983
▁LRB	-1984
▁ess	-1985
▁better	-1986
▁district	-1987
▁viol	-1988
▁vide	-1989
▁established	-1990
most	-1991
▁occasion	-1992
imum	-1993
▁key	-1994
opy	-1995
aper	-1996
▁fav	-1997
bsite	-1998
▁outs	-1999
ama	-2000
▁paid	-2001
▁became	-2002
▁associ	-2003
▁challen	-2004
▁equal	-2005
▁jur	-2006
aged	-2007
▁Fin	-2008
▁recomm	-2009
▁@	-2010
▁determ	-2011
▁asked	-2012
▁ii	-2013
▁Ins	-2014
▁separ	-2015
cedure	-2016
▁Bench	-2017
▁blood	-2018
▁Sm	-2019
lected	-2020
▁Part	-2021
▁word	-2022
pal	-2023
▁circum	-2024
▁field	-2025
▁dire	-2026
une	-2027
▁Pal	-2028
ises	-2029
▁method	-2030
▁tradition	-2031
▁Sche	-2032
▁sal	-2033
▁Em	-2034
oon	-2035
▁scheme	-2036
▁once	-2037
acity	-2038
▁earlier	-2039
ief	-2040
ressed	-2041
▁super	-2042
▁Dis	-2043
ched	-2044
▁step	-2045
▁pow	-2046
▁strong	-2047
ergy	-2048
▁nam	-2049
ler	-2050
▁research	-2051
cially	-2052
▁My	-2053
▁pub	-2054
▁institutions	-2055
▁exerc	-2056
▁redu	-2057
▁pri	-2058
ills	-2059
▁conditions	-2060
▁ens	-2061
aster	-2062
▁Not	-2063
▁letter	-2064
itiz	-2065
itation	-2066
PC	-2067
▁Some	-2068
omes	-2069
▁subst	-2070
▁ce	-2071
▁nation	-2072
▁Ph	-2073
mit	-2074
▁history	-2075
▁assist	-2076
▁bir	-2077
▁agricult	-2078
▁future	-2079
▁share	-2080
▁cro	-2081
acher	-2082
▁deep	-2083
ott	-2084
rest	-2085
▁argu	-2086
vey	-2087
ream	-2088
usion	-2089
▁relating	-2090
IC	-2091
▁official	-2092
▁implement	-2093
▁Sar	-2094
▁Wh	-2095
▁trial	-2096
ship	-2097
ving	-2098
ruction	-2099
▁related	-2100
▁Lal	-2101
overed	-2102
▁Commissioner	-2103
acy	-2104
▁cell	-2105
▁THE	-2106
inion	-2107
▁proceedings	-2108
▁den	-2109
▁matters	-2110
unt	-2111
▁access	-2112
▁independ	-2113
▁previous	-2114
▁require	-2115
uf	-2116
▁incident	-2117
istered	-2118
▁According	-2119
▁gen	-2120
▁thing	-2121
▁true	-2122
ms	-2123
▁visit	-2124
▁unt	-2125
▁Im	-2126
val	-2127
▁website	-2128
▁return	-2129
▁big	-2130
▁students	-2131
▁consider	-2132
pri	-2133
formation	-2134
▁ful	-2135
▁crit	-2136
after	-2137
▁dest	-2138
▁live	-2139
▁role	-2140
OR	-2141
ane	-2142
▁member	-2143
ership	-2144
▁except	-2145
▁network	-2146
▁computer	-2147
rated	-2148
cent	-2149
▁adop	-2150
ude	-2151
ercial	-2152
▁Leg	-2153
▁z	-2154
▁international	-2155
▁problems	-2156
▁integ	-2157
▁af	-2158
▁namely	-2159
▁story	-2160
▁example	-2161
band	-2162
▁freedom	-2163
▁allowed	-2164
▁Sp	-2165
▁Krish	-2166
rying	-2167
ribution	-2168
▁circumst	-2169
▁security	-2170
iry	-2171
▁Public	-2172
▁award	-2173
▁technology	-2174
istic	-2175
itive	-2176
▁original	-2177
▁Mag	-2178
ION	-2179
▁Ministry	-2180
illed	-2181
▁farm	-2182
aries	-2183
▁Af	-2184
hing	-2185
isf	-2186
oved	-2187
▁often	-2188
▁prep	-2189
erve	-2190
omb	-2191
▁recorded	-2192
▁Mar	-2193
▁cross	-2194
▁prim	-2195
▁gave	-2196
atives	-2197
action	-2198
iss	-2199
▁Med	-2200
▁offence	-2201
sw	-2202
▁environment	-2203
ape	-2204
aps	-2205
ME	-2206
oid	-2207
urance	-2208
▁norm	-2209
▁close	-2210
▁Panch	-2211
▁needs	-2212
▁imm	-2213
atch	-2214
▁movement	-2215
▁rule	-2216
▁modern	-2217
by	-2218
▁lib	-2219
anda	-2220
unal	-2221
▁jurisd	-2222
▁vol	-2223
▁line	-2224
▁Advocate	-2225
▁Ma	-2226
ospital	-2227
rael	-2228
▁Hon	-2229
▁pun	-2230
▁told	-2231
▁natural	-2232
▁petitioners	-2233
▁establish	-2234
▁Jan	-2235
▁Bal	-2236
▁saf	-2237
▁Sur	-2238
▁stage	-2239
▁living	-2240
resh	-2241
▁Govern	-2242
tt	-2243
▁ded	-2244
▁face	-2245
ada	-2246
▁meeting	-2247
▁Now	-2248
▁pot	-2249
duc	-2250
▁top	-2251
urned	-2252
▁undert	-2253
ians	-2254
▁link	-2255
▁Israel	-2256
semb	-2257
char	-2258
▁fel	-2259
▁religious	-2260
ison	-2261
▁Courts	-2262
▁Justice	-2263
itor	-2264
ging	-2265
rast	-2266
▁thus	-2267
▁past	-2268
ait	-2269
▁particip	-2270
▁trade	-2271
ront	-2272
▁Secret	-2273
ourn	-2274
▁suff	-2275
▁provision	-2276
▁sense	-2277
▁states	-2278
▁relevant	-2279
ends	-2280
oad	-2281
▁mach	-2282
▁indic	-2283
poses	-2284
▁forward	-2285
▁custom	-2286
▁payment	-2287
▁personal	-2288
ying	-2289
▁why	-2290
▁text	-2291
▁rules	-2292
▁vict	-2293
istan	-2294
herjee	-2295
▁jurisdiction	-2296
▁Devi	-2297
▁port	-2298
▁immedi	-2299
▁similar	-2300
▁Director	-2301
▁Go	-2302
▁cover	-2303
▁community	-2304
rect	-2305
▁loss	-2306
▁opinion	-2307
▁citiz	-2308
▁PRES	-2309
▁till	-2310
▁apply	-2311
ches	-2312
▁cast	-2313
change	-2314
▁powers	-2315
▁neg	-2316
cri	-2317
ier	-2318
▁credit	-2319
rad	-2320
▁obt	-2321
▁belong	-2322
▁contract	-2323
▁management	-2324
ung	-2325
▁purposes	-2326
▁disp	-2327
▁parts	-2328
▁specified	-2329
▁Bar	-2330
cell	-2331
▁Corpor	-2332
▁squ	-2333
▁Thus	-2334
▁terror	-2335
endra	-2336
airs	-2337
▁using	-2338
▁Do	-2339
▁Mukherjee	-2340
▁complaint	-2341
▁Euro	-2342
▁Moh	-2343
▁witnesses	-2344
▁agreement	-2345
obal	-2346
▁transfer	-2347
▁mentioned	-2348
ots	-2349
▁Pun	-2350
▁decided	-2351
▁building	-2352
ead	-2353
▁outside	-2354
▁industrial	-2355
▁Brah	-2356
aut	-2357
▁institution	-2358
▁yet	-2359
▁below	-2360
▁Sa	-2361
imate	-2362
▁duty	-2363
▁Educ	-2364
▁facts	-2365
▁Techn	-2366
▁vari	-2367
▁wee	-2368
▁specific	-2369
ami	-2370
ender	-2371
krit	-2372
go	-2373
▁Gur	-2374
▁Rec	-2375
▁ter	-2376
▁assessment	-2377
ological	-2378
▁million	-2379
▁provides	-2380
ening	-2381
▁Europe	-2382
▁press	-2383
ixed	-2384
aka	-2385
▁Nar	-2386
▁satisf	-2387
wise	-2388
asad	-2389
▁lat	-2390
▁themselves	-2391
▁circumstances	-2392
ilt	-2393
▁examination	-2394
▁Sharma	-2395
▁May	-2396
▁Even	-2397
▁Sabha	-2398
▁justice	-2399
▁fr	-2400
▁energy	-2401
▁scient	-2402
bar	-2403
▁turn	-2404
IS	-2405
▁Har	-2406
irl	-2407
▁Dh	-2408
usband	-2409
▁san	-2410
▁Bab	-2411
▁arr	-2412
▁dead	-2413
▁legisl	-2414
▁opens	-2415
▁whose	-2416
▁Muslims	-2417
▁current	-2418
▁placed	-2419
▁begin	-2420
▁nothing	-2421
aughter	-2422
▁peace	-2423
ulated	-2424
cle	-2425
▁bra	-2426
▁Sat	-2427
▁consum	-2428
▁kn	-2429
eb	-2430
▁appellants	-2431
▁Pur	-2432
▁United	-2433
▁seek	-2434
▁Ple	-2435
▁developed	-2436
▁Author	-2437
▁Mal	-2438
▁democ	-2439
IDENT	-2440
▁registered	-2441
▁bar	-2442
uly	-2443
ival	-2444
▁Let	-2445
emed	-2446
▁early	-2447
aun	-2448
▁exc	-2449
▁sou	-2450
▁fall	-2451
▁introdu	-2452
▁appointed	-2453
uled	-2454
▁assessee	-2455
ored	-2456
▁Bl	-2457
▁accord	-2458
▁red	-2459
▁training	-2460
eed	-2461
▁message	-2462
line	-2463
▁bal	-2464
▁medical	-2465
▁Sah	-2466
▁Pran	-2467
▁soon	-2468
▁execut	-2469
▁While	-2470
▁li	-2471
ificate	-2472
▁PRESIDENT	-2473
▁Mahar	-2474
▁private	-2475
▁Pe	-2476
▁experience	-2477
▁influ	-2478
▁anything	-2479
▁tell	-2480
▁Lord	-2481
▁situation	-2482
ift	-2483
▁century	-2484
▁religion	-2485
asing	-2486
▁Division	-2487
oot	-2488
▁writing	-2489
▁husband	-2490
▁By	-2491
▁kept	-2492
▁External	-2493
▁half	-2494
irt	-2495
nam	-2496
▁mag	-2497
anies	-2498
▁greater	-2499
▁population	-2500
wal	-2501
▁boy	-2502
▁hy	-2503
▁Chandra	-2504
▁request	-2505
▁Rel	-2506
aff	-2507
▁lay	-2508
▁capacity	-2509
▁disease	-2510
▁answ	-2511
men	-2512
▁books	-2513
lege	-2514
▁mer	-2515
▁Pand	-2516
▁tele	-2517
▁night	-2518
▁Int	-2519
▁really	-2520
▁essential	-2521
▁creat	-2522
▁actually	-2523
▁opportunity	-2524
▁Apr	-2525
orrow	-2526
uary	-2527
▁Civil	-2528
ilk	-2529
uries	-2530
ares	-2531
▁Per	-2532
▁include	-2533
ufact	-2534
▁prior	-2535
▁attack	-2536
ategory	-2537
hai	-2538
▁talk	-2539
▁jo	-2540
hib	-2541
▁consideration	-2542
ava	-2543
▁Mo	-2544
▁news	-2545
fully	-2546
▁Petitioner	-2547
▁road	-2548
▁favour	-2549
▁mere	-2550
▁US	-2551
▁city	-2552
▁discuss	-2553
▁documents	-2554
▁Where	-2555
CT	-2556
▁bur	-2557
▁appropri	-2558
chan	-2559
▁nor	-2560
▁mass	-2561
▁Information	-2562
▁April	-2563
▁single	-2564
▁third	-2565
▁note	-2566
▁March	-2567
▁mot	-2568
cient	-2569
▁culture	-2570
ects	-2571
know	-2572
vest	-2573
▁signific	-2574
▁physical	-2575
▁conver	-2576
▁arbit	-2577
▁aud	-2578
anskrit	-2579
▁programme	-2580
▁*	-2581
iddle	-2582
▁almost	-2583
▁treatment	-2584
va	-2585
▁West	-2586
▁published	-2587
▁copy	-2588
▁Ah	-2589
▁literature	-2590
▁works	-2591
quiry	-2592
eness	-2593
▁saw	-2594
▁Pra	-2595
▁Indust	-2596
▁Service	-2597
▁Pranab	-2598
▁create	-2599
▁Off	-2600
eral	-2601
io	-2602
▁Ash	-2603
▁Cons	-2604
▁regular	-2605
▁issues	-2606
▁teacher	-2607
▁wide	-2608
▁giving	-2609
▁ll	-2610
▁marriage	-2611
jab	-2612
▁aim	-2613
▁Our	-2614
oice	-2615
▁least	-2616
▁serious	-2617
▁Prasad	-2618
let	-2619
▁Education	-2620
oor	-2621
pecially	-2622
avi	-2623
▁low	-2624
▁Tribunal	-2625
▁products	-2626
ousand	-2627
▁X	-2628
▁compet	-2629
▁meaning	-2630
▁prescribed	-2631
▁During	-2632
pta	-2633
be	-2634
ones	-2635
▁produced	-2636
IA	-2637
ators	-2638
▁arrest	-2639
▁Republic	-2640
▁leave	-2641
ission	-2642
for	-2643
▁operation	-2644
▁dri	-2645
▁created	-2646
istrate	-2647
▁carried	-2648
▁conscious	-2649
to	-2650
▁Can	-2651
▁enter	-2652
▁aspect	-2653
▁resources	-2654
▁typ	-2655
istration	-2656
▁criminal	-2657
▁observed	-2658
▁ensure	-2659
oresaid	-2660
ask	-2661
▁Code	-2662
▁laid	-2663
▁design	-2664
▁study	-2665
hold	-2666
utta	-2667
▁makes	-2668
▁followed	-2669
ayan	-2670
▁subs	-2671
▁reference	-2672
▁soft	-2673
▁trib	-2674
▁changes	-2675
▁Bill	-2676
adem	-2677
▁aforesaid	-2678
▁room	-2679
mits	-2680
rence	-2681
rote	-2682
▁procedure	-2683
enty	-2684
▁Under	-2685
▁accepted	-2686
▁continue	-2687
▁achieve	-2688
▁reached	-2689
den	-2690
pir	-2691
▁repl	-2692
▁woman	-2693
▁ever	-2694
▁job	-2695
▁doing	-2696
▁temple	-2697
▁earth	-2698
▁Sanskrit	-2699
bed	-2700
eep	-2701
part	-2702
▁especially	-2703
▁efforts	-2704
▁lot	-2705
estern	-2706
▁document	-2707
▁Please	-2708
ankar	-2709
itude	-2710
▁approach	-2711
▁qual	-2712
▁dr	-2713
inate	-2714
▁price	-2715
▁Respond	-2716
itled	-2717
▁possession	-2718
▁sure	-2719
▁king	-2720
▁Punjab	-2721
▁manufact	-2722
▁transl	-2723
sembly	-2724
▁sale	-2725
▁check	-2726
ires	-2727
▁article	-2728
▁prepared	-2729
▁structure	-2730
▁fig	-2731
▁officer	-2732
ique	-2733
▁event	-2734
omp	-2735
▁hands	-2736
▁govern	-2737
▁parent	-2738
▁Chair	-2739
osition	-2740
▁Panchay	-2741
▁born	-2742
▁purch	-2743
▁committed	-2744
▁respondents	-2745
tax	-2746
▁birth	-2747
▁Legisl	-2748
▁global	-2749
ipur	-2750
▁Shiv	-2751
▁tree	-2752
▁benefit	-2753
▁pati	-2754
▁wrote	-2755
pped	-2756
▁sust	-2757
▁innov	-2758
osop	-2759
▁adj	-2760
▁deg	-2761
rary	-2762
▁caused	-2763
▁defendant	-2764
▁Shah	-2765
▁doct	-2766
▁Krishna	-2767
▁enough	-2768
▁final	-2769
▁Trans	-2770
▁science	-2771
▁improve	-2772
▁thousand	-2773
▁judicial	-2774
▁IND	-2775
▁appre	-2776
▁cut	-2777
▁admitted	-2778
▁East	-2779
endment	-2780
▁Ak	-2781
ora	-2782
ump	-2783
▁Vill	-2784
▁punish	-2785
▁Income	-2786
▁presence	-2787
ancy	-2788
▁Report	-2789
▁Mem	-2790
▁Sam	-2791
▁lakh	-2792
▁providing	-2793
arily	-2794
▁appearing	-2795
▁resident	-2796
▁profession	-2797
▁hon	-2798
▁doubt	-2799
▁Corporation	-2800
▁complain	-2801
▁Therefore	-2802
▁direction	-2803
ban	-2804
▁Gang	-2805
▁investigation	-2806
▁alleged	-2807
▁Institute	-2808
▁appropriate	-2809
undred	-2810
eet	-2811
▁whom	-2812
▁laws	-2813
▁South	-2814
▁Such	-2815
▁Secretary	-2816
ras	-2817
▁eight	-2818
hra	-2819
ension	-2820
▁mand	-2821
▁Senior	-2822
▁Sim	-2823
oo	-2824
ously	-2825
estic	-2826
verse	-2827
▁dam	-2828
▁Special	-2829
▁Mun	-2830
ili	-2831
ilosop	-2832
▁daughter	-2833
▁front	-2834
▁quite	-2835
▁truth	-2836
▁regarding	-2837
urs	-2838
▁univers	-2839
▁contact	-2840
adav	-2841
hood	-2842
irst	-2843
▁mur	-2844
▁install	-2845
▁rural	-2846
▁travel	-2847
▁path	-2848
▁wrong	-2849
▁raised	-2850
▁victim	-2851
encies	-2852
vi	-2853
▁II	-2854
▁led	-2855
▁bey	-2856
▁increase	-2857
body	-2858
▁investment	-2859
▁Som	-2860
▁pros	-2861
▁stay	-2862
▁stru	-2863
▁correct	-2864
▁Pak	-2865
▁From	-2866
▁firm	-2867
▁trust	-2868
ox	-2869
aves	-2870
ring	-2871
▁Magistrate	-2872
hic	-2873
gram	-2874
▁beyond	-2875
▁girl	-2876
▁heard	-2877
mir	-2878
▁sac	-2879
ference	-2880
▁effective	-2881
▁Lok	-2882
▁Bhag	-2883
▁search	-2884
▁spot	-2885
iture	-2886
▁aware	-2887
▁places	-2888
▁bound	-2889
▁forms	-2890
▁spread	-2891
▁Ms	-2892
irm	-2893
▁source	-2894
▁particularly	-2895
face	-2896
ruit	-2897
ourage	-2898
my	-2899
▁appe	-2900
joy	-2901
▁draw	-2902
▁Plan	-2903
▁bill	-2904
▁poor	-2905
▁coming	-2906
▁across	-2907
▁sound	-2908
▁hundred	-2909
▁economy	-2910
▁popular	-2911
▁exercise	-2912
▁faith	-2913
rug	-2914
▁river	-2915
▁coop	-2916
▁und	-2917
▁Guj	-2918
▁Tam	-2919
▁reach	-2920
▁generally	-2921
▁behind	-2922
play	-2923
▁Then	-2924
▁attempt	-2925
though	-2926
eech	-2927
▁Lim	-2928
rs	-2929
▁Counsel	-2930
ini	-2931
▁sens	-2932
▁Tra	-2933
▁School	-2934
hest	-2935
▁percent	-2936
adu	-2937
▁crop	-2938
▁Vi	-2939
▁harm	-2940
rastructure	-2941
▁existing	-2942
wan	-2943
▁mut	-2944
▁orders	-2945
acc	-2946
▁idea	-2947
▁administration	-2948
▁log	-2949
▁becomes	-2950
rist	-2951
▁Calc	-2952
rid	-2953
▁aver	-2954
▁host	-2955
▁fire	-2956
rat	-2957
▁Fore	-2958
▁existence	-2959
▁practice	-2960
▁accordance	-2961
gest	-2962
▁nar	-2963
right	-2964
▁Village	-2965
ingu	-2966
ouses	-2967
▁proved	-2968
▁joint	-2969
▁Hy	-2970
▁basic	-2971
▁Op	-2972
ivity	-2973
▁Day	-2974
venue	-2975
aur	-2976
▁pers	-2977
raft	-2978
earch	-2979
▁Khan	-2980
▁courts	-2981
▁strength	-2982
reg	-2983
ober	-2984
▁Ann	-2985
leb	-2986
ja	-2987
▁immediately	-2988
osh	-2989
▁examined	-2990
hem	-2991
▁bi	-2992
nat	-2993
chol	-2994
▁Kal	-2995
▁size	-2996
▁comes	-2997
rif	-2998
▁Kash	-2999
▁International	-3000
▁er	-3001
▁tour	-3002
que	-3003
▁Qu	-3004
▁rather	-3005
▁King	-3006
▁importance	-3007
dom	-3008
▁felt	-3009
▁appl	-3010
▁relation	-3011
▁attention	-3012
▁facilities	-3013
▁Tax	-3014
▁Your	-3015
atures	-3016
▁prevent	-3017
ume	-3018
▁Jain	-3019
etimes	-3020
▁tried	-3021
▁simple	-3022
▁Red	-3023
▁oil	-3024
▁details	-3025
ikh	-3026
▁List	-3027
▁central	-3028
▁comb	-3029
▁journ	-3030
▁connection	-3031
▁cal	-3032
▁fair	-3033
ED	-3034
▁Mand	-3035
▁Station	-3036
▁sus	-3037
▁Mon	-3038
▁god	-3039
▁lower	-3040
▁says	-3041
▁Company	-3042
▁write	-3043
AS	-3044
▁ris	-3045
▁alone	-3046
▁Governor	-3047
anation	-3048
standing	-3049
▁enjoy	-3050
▁wid	-3051
ulate	-3052
▁camp	-3053
with	-3054
▁emp	-3055
▁continued	-3056
▁Lt	-3057
▁sun	-3058
▁har	-3059
▁complainant	-3060
ga	-3061
oted	-3062
▁consist	-3063
▁plus	-3064
▁cand	-3065
▁Bomb	-3066
▁fell	-3067
▁Mu	-3068
▁Das	-3069
ley	-3070
▁reform	-3071
▁believe	-3072
▁Sun	-3073
▁constitution	-3074
▁Char	-3075
▁laun	-3076
racy	-3077
▁foc	-3078
apter	-3079
overy	-3080
ager	-3081
▁deb	-3082
▁responsible	-3083
▁collect	-3084
▁exchange	-3085
ables	-3086
▁Arab	-3087
▁heav	-3088
▁Bas	-3089
▁Prof	-3090
▁recommend	-3091
▁Ved	-3092
▁contained	-3093
▁Des	-3094
▁prob	-3095
▁extent	-3096
▁fast	-3097
▁judge	-3098
▁Authority	-3099
▁IT	-3100
▁expression	-3101
▁Sept	-3102
▁philosop	-3103
aker	-3104
▁died	-3105
▁Aug	-3106
sy	-3107
▁failed	-3108
▁citizens	-3109
▁Work	-3110
▁unit	-3111
▁January	-3112
▁Calcutta	-3113
▁employment	-3114
▁mov	-3115
▁novel	-3116
use	-3117
▁Net	-3118
▁began	-3119
ulations	-3120
▁potential	-3121
▁activity	-3122
hu	-3123
abor	-3124
▁entitled	-3125
IL	-3126
▁Yadav	-3127
▁lost	-3128
▁happy	-3129
ene	-3130
eds	-3131
▁sex	-3132
▁spiritual	-3133
▁concept	-3134
ograph	-3135
▁charges	-3136
▁limited	-3137
▁IN	-3138
anced	-3139
▁getting	-3140
▁leaders	-3141
▁otherwise	-3142
▁commercial	-3143
ipt	-3144
equ	-3145
iance	-3146
▁Afric	-3147
ris	-3148
haps	-3149
rant	-3150
▁gives	-3151
▁until	-3152
▁Technology	-3153
iles	-3154
▁clearly	-3155
▁Bang	-3156
itting	-3157
heduled	-3158
▁loan	-3159
▁granted	-3160
▁Gupta	-3161
▁groups	-3162
▁Scheme	-3163
▁Ker	-3164
▁Jag	-3165
▁anim	-3166
▁forest	-3167
▁pray	-3168
▁Bombay	-3169
▁Son	-3170
▁involved	-3171
▁mom	-3172
▁disci	-3173
essions	-3174
▁First	-3175
▁Gov	-3176
▁wall	-3177
▁film	-3178
oud	-3179
▁milit	-3180
▁analy	-3181
▁Assist	-3182
▁usually	-3183
▁space	-3184
▁Up	-3185
▁Dece	-3186
▁seven	-3187
▁reasons	-3188
▁authorities	-3189
alty	-3190
▁Bihar	-3191
▁appointment	-3192
sis	-3193
▁remain	-3194
▁employees	-3195
nces	-3196
▁sold	-3197
▁certificate	-3198
aks	-3199
▁Utt	-3200
▁der	-3201
▁unf	-3202
▁discl	-3203
elling	-3204
▁officers	-3205
▁bit	-3206
▁try	-3207
▁measures	-3208
enced	-3209
▁paper	-3210
rown	-3211
▁status	-3212
ticles	-3213
▁wanted	-3214
uls	-3215
▁Vish	-3216
▁programmes	-3217
▁Tamil	-3218
▁fixed	-3219
oke	-3220
rik	-3221
isters	-3222
▁Article	-3223
▁reve	-3224
ights	-3225
ni	-3226
▁Centre	-3227
▁appears	-3228
▁Oct	-3229
▁setting	-3230
ext	-3231
▁eye	-3232
▁produce	-3233
ton	-3234
▁Princi	-3235
▁beginning	-3236
eful	-3237
▁takes	-3238
▁senior	-3239
▁Sal	-3240
▁vehic	-3241
▁American	-3242
▁increased	-3243
jay	-3244
▁occup	-3245
▁assistance	-3246
umbai	-3247
▁eyes	-3248
▁page	-3249
enth	-3250
▁Wor	-3251
▁soul	-3252
▁relationship	-3253
▁ep	-3254
▁Ltd	-3255
ishes	-3256
▁separate	-3257
▁poll	-3258
▁rich	-3259
▁shown	-3260
▁significant	-3261
▁lives	-3262
▁mount	-3263
▁cultural	-3264
▁June	-3265
▁song	-3266
▁limit	-3267
▁declared	-3268
elfare	-3269
fficient	-3270
▁accounts	-3271
▁September	-3272
▁Of	-3273
▁Every	-3274
itle	-3275
▁partn	-3276
obile	-3277
▁Budd	-3278
uction	-3279
▁gone	-3280
ensation	-3281
▁Addition	-3282
▁proposed	-3283
▁candid	-3284
▁Smt	-3285
▁defence	-3286
apur	-3287
▁schol	-3288
▁Account	-3289
▁projects	-3290
▁transport	-3291
com	-3292
▁agricultural	-3293
lig	-3294
▁dig	-3295
▁August	-3296
▁hospital	-3297
▁protection	-3298
rick	-3299
▁pal	-3300
▁College	-3301
▁responsibility	-3302
▁crore	-3303
▁win	-3304
▁scale	-3305
▁built	-3306
12	-3307
▁&#12	-3308
▁histor	-3309
inated	-3310
▁companies	-3311
ouch	-3312
▁hum	-3313
▁INDIA	-3314
AY	-3315
▁else	-3316
stituted	-3317
▁December	-3318
▁conducted	-3319
▁adopted	-3320
▁substant	-3321
etic	-3322
▁round	-3323
▁Pakistan	-3324
▁ign	-3325
▁informed	-3326
▁Ali	-3327
▁Will	-3328
▁defin	-3329
▁thereafter	-3330
dy	-3331
▁mental	-3332
▁Lear	-3333
▁Ac	-3334
▁territ	-3335
▁included	-3336
▁principle	-3337
pper	-3338
▁banks	-3339
▁Feb	-3340
▁emb	-3341
▁contribut	-3342
▁Tur	-3343
▁formed	-3344
▁cy	-3345
enditure	-3346
▁consequ	-3347
▁industries	-3348
▁assault	-3349
▁station	-3350
▁values	-3351
३०	-3352
▁Panchayat	-3353
▁goes	-3354
▁ideas	-3355
▁pref	-3356
▁normal	-3357
▁poetry	-3358
oj	-3359
▁systems	-3360
▁World	-3361
▁TO	-3362
inder	-3363
▁warm	-3364
▁context	-3365
▁learning	-3366
▁teach	-3367
▁protect	-3368
▁Chairman	-3369
▁presented	-3370
yle	-3371
▁review	-3372
▁sil	-3373
▁dispute	-3374
▁Di	-3375
vention	-3376
▁construction	-3377
gn	-3378
▁infrastructure	-3379
ze	-3380
▁team	-3381
▁October	-3382
aram	-3383
rate	-3384
icit	-3385
▁Other	-3386
▁Fur	-3387
omen	-3388
▁supply	-3389
esides	-3390
▁SCC	-3391
▁coll	-3392
▁Christ	-3393
ole	-3394
▁dele	-3395
cer	-3396
▁extre	-3397
▁Prime	-3398
▁hearing	-3399
iful	-3400
▁pursu	-3401
▁subsequ	-3402
▁includes	-3403
▁furn	-3404
▁mechan	-3405
▁North	-3406
▁shows	-3407
▁instrument	-3408
rep	-3409
lal	-3410
▁Add	-3411
ograp	-3412
▁connect	-3413
▁Fund	-3414
▁valid	-3415
▁concern	-3416
▁strugg	-3417
uck	-3418
dule	-3419
head	-3420
▁drug	-3421
pex	-3422
▁Roy	-3423
▁broad	-3424
▁decisions	-3425
▁ways	-3426
▁Def	-3427
▁agg	-3428
▁functions	-3429
▁pack	-3430
▁plants	-3431
oll	-3432
icro	-3433
ruary	-3434
where	-3435
▁Further	-3436
▁Mumbai	-3437
▁engine	-3438
▁secret	-3439
▁Ur	-3440
▁summ	-3441
icated	-3442
▁arrange	-3443
RI	-3444
▁Any	-3445
▁refers	-3446
▁Program	-3447
▁hope	-3448
▁reserv	-3449
ille	-3450
▁Rule	-3451
▁attract	-3452
osing	-3453
▁Many	-3454
▁perf	-3455
▁device	-3456
▁music	-3457
uge	-3458
▁opt	-3459
rator	-3460
▁depend	-3461
▁increasing	-3462
▁unless	-3463
▁Kashmir	-3464
▁sentence	-3465
oms	-3466
▁bad	-3467
▁lit	-3468
▁Expl	-3469
▁steps	-3470
▁Second	-3471
▁February	-3472
ason	-3473
▁Abd	-3474
▁fem	-3475
▁July	-3476
▁express	-3477
▁contended	-3478
▁hol	-3479
▁celeb	-3480
▁workers	-3481
reen	-3482
▁forces	-3483
ucle	-3484
▁principles	-3485
attle	-3486
▁Nag	-3487
▁learn	-3488
asa	-3489
▁hours	-3490
▁inside	-3491
▁submits	-3492
▁directed	-3493
▁fra	-3494
▁receipt	-3495
▁black	-3496
icip	-3497
▁added	-3498
▁minor	-3499
▁hor	-3500
▁Additional	-3501
▁sym	-3502
▁Since	-3503
▁medic	-3504
▁strengt	-3505
▁week	-3506
ror	-3507
▁max	-3508
▁nom	-3509
▁carry	-3510
▁threat	-3511
▁Soci	-3512
olute	-3513
▁fully	-3514
aught	-3515
ented	-3516
▁receive	-3517
▁fight	-3518
iny	-3519
▁names	-3520
▁ancient	-3521
▁Assembly	-3522
▁famous	-3523
anger	-3524
▁Appell	-3525
▁violence	-3526
ties	-3527
▁longer	-3528
▁Limited	-3529
▁appreci	-3530
▁Judicial	-3531
▁Nove	-3532
onst	-3533
▁Management	-3534
▁department	-3535
▁Office	-3536
▁assets	-3537
▁pie	-3538
oti	-3539
▁Tw	-3540
cience	-3541
▁lic	-3542
▁imag	-3543
▁dispos	-3544
▁directly	-3545
▁dy	-3546
▁arch	-3547
▁questions	-3548
▁independent	-3549
adh	-3550
▁fram	-3551
▁America	-3552
▁fal	-3553
▁ren	-3554
ashtra	-3555
tion	-3556
ellect	-3557
▁Gh	-3558
▁distin	-3559
UR	-3560
▁moment	-3561
▁relief	-3562
▁November	-3563
asth	-3564
▁fear	-3565
▁speech	-3566
▁ago	-3567
▁unc	-3568
▁feed	-3569
ites	-3570
▁occurrence	-3571
▁registration	-3572
▁Fl	-3573
▁additional	-3574
NA	-3575
▁insp	-3576
▁holding	-3577
▁prop	-3578
▁Kerala	-3579
▁pred	-3580
ades	-3581
▁user	-3582
▁animals	-3583
ont	-3584
▁wish	-3585
▁imper	-3586
osis	-3587
▁active	-3588
▁described	-3589
▁units	-3590
▁Yog	-3591
ATION	-3592
▁advance	-3593
▁performance	-3594
▁funds	-3595
▁friends	-3596
▁ru	-3597
▁Services	-3598
▁rul	-3599
▁tri	-3600
amental	-3601
▁Uttar	-3602
▁Invest	-3603
▁languages	-3604
▁tar	-3605
▁instead	-3606
EE	-3607
▁Stand	-3608
▁minus	-3609
aji	-3610
▁stra	-3611
▁polic	-3612
ndra	-3613
▁Kam	-3614
asure	-3615
▁leading	-3616
▁Nagar	-3617
▁sn	-3618
▁milk	-3619
▁reported	-3620
idy	-3621
ground	-3622
garh	-3623
▁base	-3624
atha	-3625
▁pain	-3626
dra	-3627
road	-3628
▁Deputy	-3629
isc	-3630
▁Provided	-3631
▁injuries	-3632
ula	-3633
▁consult	-3634
▁standard	-3635
▁memory	-3636
▁quar	-3637
▁quant	-3638
▁labour	-3639
▁reject	-3640
▁white	-3641
▁sought	-3642
▁bod	-3643
▁mal	-3644
rived	-3645
▁expenditure	-3646
▁Post	-3647
▁radi	-3648
atever	-3649
phas	-3650
hru	-3651
▁concl	-3652
▁content	-3653
▁display	-3654
▁twenty	-3655
▁More	-3656
rog	-3657
▁pict	-3658
▁tool	-3659
▁task	-3660
ially	-3661
▁Assam	-3662
▁Karnat	-3663
▁election	-3664
▁gri	-3665
▁sea	-3666
▁vac	-3667
ila	-3668
avit	-3669
▁balance	-3670
▁connected	-3671
.-	-3672
▁FIR	-3673
▁dram	-3674
▁answer	-3675
▁Air	-3676
lying	-3677
▁cong	-3678
ensive	-3679
▁clean	-3680
▁technical	-3681
▁scientific	-3682
▁Sing	-3683
▁gold	-3684
▁deemed	-3685
▁highest	-3686
▁numbers	-3687
▁domestic	-3688
▁Open	-3689
▁offer	-3690
▁interests	-3691
oly	-3692
cription	-3693
▁print	-3694
▁maintain	-3695
▁len	-3696
leep	-3697
▁tal	-3698
▁Arbit	-3699
▁false	-3700
▁Set	-3701
▁beaut	-3702
udh	-3703
▁Are	-3704
aging	-3705
▁origin	-3706
▁types	-3707
izing	-3708
▁shop	-3709
▁Administr	-3710
▁covered	-3711
▁Project	-3712
▁morning	-3713
uation	-3714
▁likely	-3715
arant	-3716
oting	-3717
▁town	-3718
arya	-3719
▁ant	-3720
▁merely	-3721
▁complex	-3722
aily	-3723
mi	-3724
ailed	-3725
▁video	-3726
ids	-3727
▁fre	-3728
▁north	-3729
▁fine	-3730
▁late	-3731
▁larger	-3732
▁Elect	-3733
▁entered	-3734
hya	-3735
▁impl	-3736
▁virt	-3737
▁Karnataka	-3738
chand	-3739
BI	-3740
▁phot	-3741
▁effort	-3742
▁deposed	-3743
▁democracy	-3744
▁Research	-3745
▁guid	-3746
abled	-3747
▁Subh	-3748
▁extra	-3749
▁expressed	-3750
kh	-3751
▁Er	-3752
▁vision	-3753
▁strateg	-3754
▁Well	-3755
▁intellect	-3756
ratic	-3757
▁System	-3758
apers	-3759
▁majority	-3760
▁remov	-3761
▁multip	-3762
▁looking	-3763
ka	-3764
▁recent	-3765
ika	-3766
vere	-3767
erative	-3768
isition	-3769
▁Health	-3770
ira	-3771
ellig	-3772
▁Nehru	-3773
▁Respondent	-3774
▁Associ	-3775
▁stor	-3776
▁perman	-3777
▁named	-3778
pping	-3779
▁kill	-3780
▁software	-3781
▁promotion	-3782
▁ste	-3783
▁Val	-3784
▁ton	-3785
ugned	-3786
▁Assistant	-3787
LE	-3788
▁Gujarat	-3789
▁San	-3790
▁treated	-3791
▁influence	-3792
▁parents	-3793
▁benefits	-3794
▁tur	-3795
▁alleg	-3796
▁speed	-3797
▁revolution	-3798
▁Africa	-3799
▁relied	-3800
itable	-3801
▁selected	-3802
▁standards	-3803
▁contribution	-3804
▁Mark	-3805
▁delay	-3806
▁frame	-3807
▁academ	-3808
▁conflic	-3809
▁Category	-3810
▁Bharat	-3811
▁Though	-3812
▁running	-3813
▁Shankar	-3814
▁pattern	-3815
▁educational	-3816
missions	-3817
▁rail	-3818
▁exceed	-3819
AC	-3820
▁lack	-3821
porary	-3822
ternet	-3823
▁Person	-3824
▁former	-3825
▁generation	-3826
vert	-3827
▁pan	-3828
▁Its	-3829
yan	-3830
▁Asia	-3831
▁south	-3832
▁counter	-3833
▁impugned	-3834
▁situated	-3835
▁easy	-3836
▁image	-3837
view	-3838
▁middle	-3839
▁payable	-3840
aksh	-3841
▁emerg	-3842
▁Mod	-3843
▁util	-3844
▁Maharashtra	-3845
▁War	-3846
asi	-3847
▁export	-3848
▁affected	-3849
▁beautiful	-3850
agraph	-3851
▁notification	-3852
▁returned	-3853
▁ge	-3854
▁Andhra	-3855
▁injury	-3856
abh	-3857
jection	-3858
ields	-3859
▁weak	-3860
ING	-3861
▁quick	-3862
▁corpor	-3863
▁implementation	-3864
charge	-3865
▁seems	-3866
▁species	-3867
▁interpre	-3868
▁applicable	-3869
▁opportunities	-3870
mbol	-3871
▁dismiss	-3872
▁supported	-3873
▁Indians	-3874
uration	-3875
▁measure	-3876
▁extended	-3877
▁Ant	-3878
▁UN	-3879
uties	-3880
ifying	-3881
▁Western	-3882
▁located	-3883
▁mode	-3884
▁stop	-3885
▁grand	-3886
icate	-3887
▁Kan	-3888
▁Ref	-3889
▁emphas	-3890
▁largest	-3891
▁site	-3892
▁Inter	-3893
▁sometimes	-3894
ertain	-3895
▁insurance	-3896
▁applications	-3897
▁Prot	-3898
▁Sanj	-3899
▁fulf	-3900
wari	-3901
iment	-3902
▁stock	-3903
▁Assess	-3904
▁difference	-3905
▁understanding	-3906
▁costs	-3907
OS	-3908
▁commit	-3909
▁results	-3910
▁cash	-3911
▁contem	-3912
▁dark	-3913
▁diss	-3914
▁murder	-3915
▁patient	-3916
ese	-3917
▁Here	-3918
▁compensation	-3919
▁sufficient	-3920
▁growing	-3921
utes	-3922
eties	-3923
▁engaged	-3924
▁Her	-3925
▁range	-3926
▁Car	-3927
▁Palest	-3928
▁military	-3929
▁fort	-3930
▁consciousness	-3931
▁cells	-3932
▁Medical	-3933
▁NA	-3934
inery	-3935
usive	-3936
▁Child	-3937
ocation	-3938
▁sanction	-3939
▁associated	-3940
una	-3941
iced	-3942
▁Principal	-3943
▁hot	-3944
▁thereof	-3945
▁rout	-3946
▁policies	-3947
▁Inf	-3948
force	-3949
▁green	-3950
▁struggle	-3951
▁rap	-3952
ateral	-3953
▁facilit	-3954
▁restrict	-3955
ahar	-3956
▁command	-3957
▁instance	-3958
▁disput	-3959
▁hab	-3960
▁Finance	-3961
▁reading	-3962
▁organisation	-3963
rew	-3964
▁Control	-3965
▁Criminal	-3966
▁risk	-3967
▁Policy	-3968
▁villages	-3969
▁version	-3970
▁style	-3971
▁applicant	-3972
▁ones	-3973
▁farmers	-3974
▁Learned	-3975
▁break	-3976
▁nucle	-3977
▁Sessions	-3978
▁distance	-3979
▁chem	-3980
▁temper	-3981
▁mail	-3982
▁length	-3983
▁shares	-3984
▁articles	-3985
▁communication	-3986
▁withdra	-3987
aded	-3988
▁enact	-3989
▁Scheduled	-3990
▁para	-3991
ussion	-3992
▁introduced	-3993
▁Hindus	-3994
▁ow	-3995
▁Cap	-3996
iting	-3997
▁asset	-3998
▁focus	-3999
ighb	-4000
▁agriculture	-4001
ias	-4002
umar	-4003
▁useful	-4004
▁perhaps	-4005
▁Aut	-4006
▁Organ	-4007
▁ult	-4008
utive	-4009
▁Exec	-4010
iet	-4011
vious	-4012
▁minimum	-4013
▁pointed	-4014
▁statements	-4015
hab	-4016
law	-4017
▁Guru	-4018
▁egg	-4019
▁autom	-4020
▁entry	-4021
▁People	-4022
ows	-4023
▁IS	-4024
▁Ob	-4025
oured	-4026
▁model	-4027
respond	-4028
▁average	-4029
ional	-4030
▁error	-4031
▁title	-4032
▁views	-4033
▁China	-4034
▁Islamic	-4035
▁Explanation	-4036
▁media	-4037
▁advant	-4038
▁creation	-4039
▁ille	-4040
▁adequ	-4041
▁ball	-4042
vis	-4043
▁advice	-4044
▁leader	-4045
▁obtained	-4046
▁independence	-4047
▁Tag	-4048
▁cooperation	-4049
aul	-4050
aled	-4051
erring	-4052
▁discipl	-4053
▁identified	-4054
▁records	-4055
▁resolution	-4056
dden	-4057
१०	-4058
amination	-4059
▁traditional	-4060
▁calc	-4061
ography	-4062
▁Agricult	-4063
asc	-4064
▁Sir	-4065
▁dream	-4066
▁noted	-4067
order	-4068
▁saying	-4069
omic	-4070
opal	-4071
▁convey	-4072
▁ON	-4073
▁Kol	-4074
osite	-4075
▁fest	-4076
▁neighb	-4077
▁multi	-4078
▁Gandhiji	-4079
▁vers	-4080
▁remains	-4081
▁Inst	-4082
pector	-4083
▁drawn	-4084
▁Applic	-4085
▁proceeding	-4086
▁Judges	-4087
▁needed	-4088
▁weap	-4089
▁publication	-4090
▁played	-4091
▁ST	-4092
▁door	-4093
▁passing	-4094
ammu	-4095
▁Ahmed	-4096
▁Pen	-4097
▁item	-4098
▁mort	-4099
▁rise	-4100
▁Swami	-4101
CC	-4102
▁youth	-4103
▁extreme	-4104
nes	-4105
▁symbol	-4106
▁sections	-4107
▁Rail	-4108
▁defined	-4109
▁AT	-4110
▁challenge	-4111
gy	-4112
▁excl	-4113
▁convict	-4114
▁absolute	-4115
▁successful	-4116
enance	-4117
aja	-4118
ading	-4119
▁duties	-4120
▁turned	-4121
utt	-4122
▁Rem	-4123
▁Order	-4124
▁Power	-4125
▁changed	-4126
▁neither	-4127
▁someone	-4128
▁terrorism	-4129
ested	-4130
▁rend	-4131
▁centre	-4132
▁machine	-4133
▁contains	-4134
▁Chhat	-4135
▁objective	-4136
▁Whe	-4137
▁Jammu	-4138
▁divine	-4139
▁cond	-4140
▁board	-4141
▁drink	-4142
▁00	-4143
onse	-4144
▁fif	-4145
gments	-4146
▁Their	-4147
▁square	-4148
▁animal	-4149
▁penalty	-4150
▁developing	-4151
ns	-4152
enses	-4153
▁vehicle	-4154
▁won	-4155
▁caste	-4156
▁Engine	-4157
▁commission	-4158
▁announ	-4159
aken	-4160
assion	-4161
▁vital	-4162
▁schemes	-4163
▁operations	-4164
ps	-4165
▁Rama	-4166
▁agreed	-4167
RA	-4168
▁Also	-4169
imately	-4170
▁applied	-4171
▁everything	-4172
▁sole	-4173
▁Most	-4174
▁chann	-4175
▁transferred	-4176
▁crime	-4177
▁Excell	-4178
▁Bai	-4179
▁acts	-4180
▁prove	-4181
▁Official	-4182
▁remained	-4183
▁stories	-4184
▁Nav	-4185
aration	-4186
pat	-4187
▁pric	-4188
▁wealth	-4189
ague	-4190
▁bri	-4191
▁card	-4192
▁Lab	-4193
▁Tal	-4194
ousing	-4195
▁doctor	-4196
▁AND	-4197
cribe	-4198
▁injured	-4199
het	-4200
▁affid	-4201
▁absence	-4202
▁promote	-4203
▁chief	-4204
▁meant	-4205
▁weight	-4206
▁brok	-4207
▁England	-4208
▁cou	-4209
light	-4210
▁soil	-4211
▁fresh	-4212
▁accident	-4213
▁materials	-4214
▁Gl	-4215
▁suc	-4216
▁tend	-4217
▁looked	-4218
▁collection	-4219
IV	-4220
▁cho	-4221
▁daily	-4222
▁offered	-4223
▁completed	-4224
▁Apex	-4225
▁walk	-4226
▁cere	-4227
▁thinking	-4228
▁construct	-4229
▁Ban	-4230
aches	-4231
▁points	-4232
▁processing	-4233
era	-4234
▁block	-4235
▁lines	-4236
itch	-4237
▁submission	-4238
▁reasonable	-4239
kash	-4240
▁Writ	-4241
overty	-4242
ript	-4243
▁primary	-4244
ube	-4245
itis	-4246
atter	-4247
▁owner	-4248
▁remark	-4249
▁ready	-4250
ray	-4251
▁sav	-4252
▁send	-4253
▁Ev	-4254
athy	-4255
▁Bec	-4256
▁Hyder	-4257
▁enable	-4258
▁IPC	-4259
▁bail	-4260
▁liqu	-4261
▁Him	-4262
▁levels	-4263
▁esc	-4264
▁fundamental	-4265
▁Group	-4266
▁graph	-4267
▁cultiv	-4268
▁CO	-4269
▁accomp	-4270
▁expected	-4271
iya	-4272
▁Bad	-4273
rance	-4274
▁sudden	-4275
wa	-4276
▁Another	-4277
▁married	-4278
▁carrying	-4279
nel	-4280
uddin	-4281
▁stre	-4282
▁poems	-4283
▁storage	-4284
▁Rao	-4285
▁constant	-4286
rix	-4287
▁Cur	-4288
▁Germ	-4289
II	-4290
▁items	-4291
▁sleep	-4292
ivery	-4293
istics	-4294
▁temples	-4295
hens	-4296
▁wel	-4297
▁ship	-4298
▁skin	-4299
▁standing	-4300
▁Road	-4301
▁danger	-4302
▁easily	-4303
▁electric	-4304
▁sem	-4305
▁actual	-4306
▁maximum	-4307
▁gets	-4308
▁female	-4309
▁feet	-4310
▁wait	-4311
▁worship	-4312
▁succeed	-4313
uff	-4314
▁Ge	-4315
▁Nep	-4316
▁extend	-4317
▁pending	-4318
▁lod	-4319
▁degree	-4320
▁Chapter	-4321
▁herein	-4322
▁informant	-4323
ne	-4324
▁categ	-4325
▁staff	-4326
▁follows	-4327
▁variety	-4328
▁external	-4329
▁discussion	-4330
apan	-4331
rene	-4332
▁affect	-4333
▁trying	-4334
▁Bah	-4335
▁bed	-4336
▁susp	-4337
▁impact	-4338
▁default	-4339
▁executed	-4340
▁Conference	-4341
▁Super	-4342
▁ideal	-4343
▁Science	-4344
▁cat	-4345
▁sister	-4346
abilities	-4347
ronic	-4348
▁Supp	-4349
▁surface	-4350
▁friendly	-4351
▁Aud	-4352
vision	-4353
▁Ham	-4354
▁incl	-4355
▁miss	-4356
▁altern	-4357
▁desire	-4358
▁Similar	-4359
▁teachers	-4360
▁constituted	-4361
▁Mohan	-4362
▁unique	-4363
▁Gaz	-4364
▁iii	-4365
▁files	-4366
▁code	-4367
▁element	-4368
▁session	-4369
▁approved	-4370
ero	-4371
aran	-4372
▁offences	-4373
omy	-4374
▁annual	-4375
▁whatever	-4376
▁Head	-4377
▁Thak	-4378
▁denied	-4379
▁keeping	-4380
▁wherein	-4381
▁Dur	-4382
▁knew	-4383
▁colle	-4384
▁series	-4385
▁appeared	-4386
nu	-4387
lick	-4388
utory	-4389
ishing	-4390
▁requires	-4391
▁bow	-4392
▁foot	-4393
▁Patna	-4394
▁Commercial	-4395
HA	-4396
lands	-4397
▁scholars	-4398
▁paragraph	-4399
▁Nath	-4400
asw	-4401
inet	-4402
▁distingu	-4403
pees	-4404
▁fee	-4405
▁Tagore	-4406
▁mobile	-4407
▁aspects	-4408
▁prosper	-4409
sych	-4410
word	-4411
▁equip	-4412
▁throughout	-4413
eless	-4414
▁pure	-4415
▁individuals	-4416
▁Ay	-4417
▁Social	-4418
▁worked	-4419
▁km	-4420
▁Bel	-4421
▁Sad	-4422
▁bab	-4423
stitu	-4424
▁indeed	-4425
▁marked	-4426
▁mainly	-4427
▁contain	-4428
▁cru	-4429
▁failure	-4430
▁Hospital	-4431
olved	-4432
▁dealing	-4433
▁Out	-4434
▁pra	-4435
▁Mahat	-4436
▁finding	-4437
▁Us	-4438
asthan	-4439
▁unity	-4440
▁organization	-4441
▁elements	-4442
eter	-4443
osure	-4444
▁incor	-4445
▁Society	-4446
▁signed	-4447
▁pressure	-4448
▁intention	-4449
▁philosophy	-4450
▁bodies	-4451
ilateral	-4452
achal	-4453
pective	-4454
▁approval	-4455
tis	-4456
▁Ed	-4457
irty	-4458
rust	-4459
▁critic	-4460
▁expect	-4461
▁feeling	-4462
▁Sant	-4463
▁requirements	-4464
▁Why	-4465
ilies	-4466
▁sides	-4467
actions	-4468
rel	-4469
▁slow	-4470
umer	-4471
▁desp	-4472
▁response	-4473
iy	-4474
▁elig	-4475
▁frequ	-4476
▁Hyderabad	-4477
ishra	-4478
▁newsp	-4479
▁stream	-4480
▁confidence	-4481
▁Turk	-4482
▁leaves	-4483
auty	-4484
▁Dem	-4485
▁Vis	-4486
▁minister	-4487
▁rain	-4488
▁Verm	-4489
▁repe	-4490
ests	-4491
▁events	-4492
▁Because	-4493
▁Att	-4494
▁divided	-4495
▁studies	-4496
iva	-4497
▁Est	-4498
▁Stat	-4499
▁highly	-4500
▁prepar	-4501
▁magn	-4502
▁medium	-4503
▁schools	-4504
▁partnership	-4505
hibit	-4506
iciary	-4507
▁factors	-4508
▁sitting	-4509
▁Resident	-4510
▁committee	-4511
▁officials	-4512
bal	-4513
hel	-4514
▁touch	-4515
▁conclud	-4516
▁suggested	-4517
▁Jam	-4518
▁ban	-4519
▁whereas	-4520
▁happened	-4521
▁Gan	-4522
▁judges	-4523
▁Executive	-4524
▁Association	-4525
▁establishment	-4526
▁uns	-4527
reprene	-4528
artments	-4529
▁Akbar	-4530
▁attend	-4531
▁integral	-4532
▁determined	-4533
mar	-4534
▁Tod	-4535
▁flu	-4536
▁promis	-4537
ena	-4538
eria	-4539
▁sacrif	-4540
▁survey	-4541
▁European	-4542
▁greet	-4543
▁fields	-4544
prise	-4545
▁Land	-4546
▁bear	-4547
▁agency	-4548
▁amongst	-4549
iti	-4550
ette	-4551
▁strik	-4552
oming	-4553
▁assum	-4554
▁filing	-4555
▁nations	-4556
hana	-4557
▁Pan	-4558
▁Both	-4559
elines	-4560
▁correspond	-4561
phone	-4562
▁excell	-4563
▁believed	-4564
▁guarant	-4565
▁SE	-4566
▁claimed	-4567
▁male	-4568
▁prison	-4569
▁completely	-4570
ura	-4571
igating	-4572
▁moral	-4573
▁option	-4574
▁poverty	-4575
▁compon	-4576
▁Members	-4577
▁academic	-4578
▁execution	-4579
▁distribution	-4580
▁Kish	-4581
enture	-4582
▁opening	-4583
▁possess	-4584
▁permanent	-4585
▁Form	-4586
▁Governments	-4587
aug	-4588
▁pert	-4589
▁apart	-4590
▁lived	-4591
▁prec	-4592
▁rank	-4593
▁Inspector	-4594
raj	-4595
▁mid	-4596
▁speak	-4597
icipal	-4598
▁borrow	-4599
▁Whether	-4600
▁rapid	-4601
▁shape	-4602
▁volunt	-4603
▁elected	-4604
▁punishment	-4605
ils	-4606
▁Prem	-4607
▁bond	-4608
▁save	-4609
▁conclusion	-4610
cript	-4611
▁buy	-4612
itions	-4613
erences	-4614
▁settlement	-4615
▁association	-4616
▁Ext	-4617
▁destro	-4618
▁reports	-4619
▁welfare	-4620
▁compr	-4621
▁sell	-4622
▁Schedule	-4623
▁Pri	-4624
▁rare	-4625
▁nut	-4626
▁Madh	-4627
▁Party	-4628
▁phone	-4629
▁serve	-4630
oph	-4631
erted	-4632
▁Amendment	-4633
▁respective	-4634
▁Ors	-4635
▁deed	-4636
iling	-4637
▁heavy	-4638
▁target	-4639
▁anti	-4640
▁refer	-4641
▁seeking	-4642
▁remember	-4643
▁rendered	-4644
▁practices	-4645
ception	-4646
▁adequate	-4647
ogle	-4648
▁safe	-4649
▁belief	-4650
▁powerful	-4651
▁avoid	-4652
▁Only	-4653
▁chemical	-4654
▁argument	-4655
▁deposit	-4656
usal	-4657
essor	-4658
▁Langu	-4659
▁arrested	-4660
AG	-4661
▁moved	-4662
▁register	-4663
▁intellig	-4664
▁literary	-4665
▁tis	-4666
▁submit	-4667
▁methods	-4668
▁upd	-4669
iciency	-4670
▁employee	-4671
▁Aff	-4672
▁fit	-4673
▁Const	-4674
▁fert	-4675
▁vast	-4676
▁wishes	-4677
▁delivery	-4678
▁released	-4679
▁affidavit	-4680
▁lad	-4681
ayana	-4682
▁master	-4683
▁acquired	-4684
▁Rajasthan	-4685
▁permission	-4686
▁notes	-4687
▁colour	-4688
▁positive	-4689
ply	-4690
▁Home	-4691
▁confident	-4692
rupt	-4693
▁Babu	-4694
▁Iran	-4695
▁weeks	-4696
jud	-4697
▁Sum	-4698
▁script	-4699
▁Abdul	-4700
▁internal	-4701
bhai	-4702
▁wond	-4703
▁branch	-4704
▁cities	-4705
rav	-4706
▁stood	-4707
ordinate	-4708
▁trou	-4709
tation	-4710
▁Econom	-4711
▁Besides	-4712
▁removal	-4713
▁Insurance	-4714
▁Legislative	-4715
▁Bus	-4716
▁Tem	-4717
▁Commun	-4718
▁expand	-4719
▁eat	-4720
▁illegal	-4721
▁opened	-4722
▁excess	-4723
▁conflict	-4724
▁universal	-4725
▁administrative	-4726
▁Inc	-4727
▁Ganga	-4728
▁box	-4729
▁capt	-4730
▁served	-4731
▁recommended	-4732
▁gas	-4733
▁voice	-4734
▁figure	-4735
▁safety	-4736
▁AS	-4737
mosp	-4738
▁ordinary	-4739
▁machinery	-4740
▁Nadu	-4741
utions	-4742
▁Ashok	-4743
▁sustain	-4744
▁sand	-4745
▁draft	-4746
tisgarh	-4747
ervation	-4748
▁portion	-4749
▁deduction	-4750
cher	-4751
▁root	-4752
▁profit	-4753
▁revenue	-4754
▁causes	-4755
▁families	-4756
▁substance	-4757
inter	-4758
▁rock	-4759
▁veget	-4760
▁Met	-4761
▁Bengali	-4762
▁id	-4763
▁cance	-4764
▁latter	-4765
▁maintained	-4766
▁mist	-4767
▁Mahatma	-4768
▁pleasure	-4769
under	-4770
▁table	-4771
▁sectors	-4772
aste	-4773
▁eld	-4774
ications	-4775
▁amendment	-4776
▁Mishra	-4777
▁abroad	-4778
▁recovery	-4779
▁suitable	-4780
urate	-4781
▁Water	-4782
▁beauty	-4783
aman	-4784
▁Ret	-4785
▁bott	-4786
▁reply	-4787
▁songs	-4788
lex	-4789
issa	-4790
▁fat	-4791
▁pet	-4792
ricket	-4793
▁Palestin	-4794
▁regional	-4795
iber	-4796
▁Russ	-4797
▁probably	-4798
▁Thereafter	-4799
▁Sol	-4800
▁Two	-4801
▁Programme	-4802
▁properties	-4803
▁Chhattisgarh	-4804
anya	-4805
▁PRO	-4806
▁charged	-4807
DA	-4808
orial	-4809
▁Port	-4810
▁seem	-4811
izations	-4812
▁removed	-4813
▁intellectual	-4814
rine	-4815
▁Japan	-4816
▁encoura	-4817
▁reduced	-4818
ming	-4819
▁insects	-4820
▁letters	-4821
▁reality	-4822
ARD	-4823
atio	-4824
▁Himal	-4825
▁decide	-4826
▁purchase	-4827
▁Financial	-4828
ae	-4829
aign	-4830
▁color	-4831
▁claims	-4832
cip	-4833
umn	-4834
▁dim	-4835
▁Men	-4836
▁Today	-4837
▁although	-4838
▁rent	-4839
▁wood	-4840
▁season	-4841
▁Non	-4842
▁stone	-4843
▁demonst	-4844
▁Industrial	-4845
▁aid	-4846
▁scope	-4847
▁Error	-4848
▁atmosp	-4849
▁Excellency	-4850
▁pil	-4851
▁advantage	-4852
aviour	-4853
▁watch	-4854
▁nuclear	-4855
▁Cert	-4856
▁hur	-4857
▁joy	-4858
▁dial	-4859
▁hour	-4860
▁seed	-4861
rency	-4862
▁cred	-4863
▁mutual	-4864
ifications	-4865
udget	-4866
▁Award	-4867
▁Rajya	-4868
▁framed	-4869
▁diseases	-4870
▁killed	-4871
▁Sect	-4872
▁therein	-4873
▁surround	-4874
▁estim	-4875
▁argued	-4876
▁contrary	-4877
▁competent	-4878
▁BC	-4879
rows	-4880
▁army	-4881
▁lands	-4882
▁formal	-4883
▁analysis	-4884
▁emer	-4885
ologies	-4886
unction	-4887
▁Google	-4888
▁agencies	-4889
▁features	-4890
▁launched	-4891
▁input	-4892
▁visited	-4893
▁specif	-4894
▁undertaking	-4895
▁ang	-4896
▁hero	-4897
▁happen	-4898
▁Buddh	-4899
▁aw	-4900
▁goal	-4901
▁Orissa	-4902
▁Br	-4903
load	-4904
iring	-4905
▁worth	-4906
▁negative	-4907
ribute	-4908
▁grass	-4909
▁impris	-4910
▁MS	-4911
▁Human	-4912
▁rupees	-4913
▁journey	-4914
▁identity	-4915
▁prosecut	-4916
▁release	-4917
▁imprisonment	-4918
▁ax	-4919
cast	-4920
▁none	-4921
▁surv	-4922
▁innovation	-4923
itect	-4924
▁blow	-4925
▁motor	-4926
▁finally	-4927
▁Procedure	-4928
▁leadership	-4929
▁Aust	-4930
▁Case	-4931
▁Park	-4932
▁mouth	-4933
anged	-4934
▁enem	-4935
▁moon	-4936
▁urban	-4937
▁experi	-4938
▁arrived	-4939
▁Tri	-4940
▁Va	-4941
▁Ira	-4942
▁Trust	-4943
▁liable	-4944
ider	-4945
▁crops	-4946
▁Before	-4947
▁attached	-4948
▁defendants	-4949
▁Environment	-4950
▁hence	-4951
▁spent	-4952
▁category	-4953
▁assaulted	-4954
▁Nat	-4955
▁Bhar	-4956
▁manif	-4957
▁houses	-4958
▁discussed	-4959
▁initiated	-4960
uel	-4961
▁PO	-4962
▁AIR	-4963
▁cold	-4964
▁proposal	-4965
arian	-4966
▁valu	-4967
▁prices	-4968
▁recovered	-4969
▁motion	-4970
११	-4971
isms	-4972
▁huge	-4973
▁destroy	-4974
▁critical	-4975
▁Rav	-4976
ancing	-4977
▁affairs	-4978
▁Independ	-4979
▁planning	-4980
▁Gram	-4981
▁Maj	-4982
▁conviction	-4983
▁obvious	-4984
▁Tel	-4985
▁Block	-4986
▁exact	-4987
▁Collect	-4988
rench	-4989
▁pick	-4990
▁latest	-4991
▁encourage	-4992
istrar	-4993
▁adult	-4994
▁damage	-4995
▁evening	-4996
anta	-4997
▁cook	-4998
▁background	-4999
▁stands	-5000
▁classes	-5001
▁functioning	-5002
ilal	-5003
▁aside	-5004
▁maintenance	-5005
▁brief	-5006
▁opposite	-5007
udi	-5008
▁Sr	-5009
▁Nepal	-5010
▁select	-5011
▁grounds	-5012
▁belonging	-5013
▁Which	-5014
▁armed	-5015
▁joined	-5016
▁proced	-5017
inent	-5018
▁join	-5019
▁testim	-5020
▁achieved	-5021
▁Nan	-5022
▁Bose	-5023
▁Iraq	-5024
▁debt	-5025
▁parliament	-5026
▁declaration	-5027
mark	-5028
▁rates	-5029
▁trees	-5030
ulating	-5031
▁nearly	-5032
ih	-5033
▁SH	-5034
▁Ty	-5035
▁poem	-5036
▁paint	-5037
▁participation	-5038
▁gar	-5039
▁server	-5040
▁subjects	-5041
▁Application	-5042
▁recommendations	-5043
▁Che	-5044
▁hear	-5045
▁Jew	-5046
▁pip	-5047
▁Vijay	-5048
the	-5049
▁Assessing	-5050
oom	-5051
▁privile	-5052
▁Although	-5053
ET	-5054
ondon	-5055
▁Thakur	-5056
▁Similarly	-5057
▁manufacture	-5058
asm	-5059
▁Ser	-5060
▁Govt	-5061
▁Joint	-5062
▁centres	-5063
▁relative	-5064
▁subsequent	-5065
hara	-5066
▁forth	-5067
▁remove	-5068
▁Hence	-5069
operative	-5070
▁enquiry	-5071
▁sources	-5072
astic	-5073
thern	-5074
▁Member	-5075
▁president	-5076
▁Jaw	-5077
▁reb	-5078
▁inner	-5079
▁psych	-5080
eshwar	-5081
▁Kumari	-5082
▁respectively	-5083
▁Art	-5084
▁fill	-5085
▁compre	-5086
▁settled	-5087
▁initiatives	-5088
icious	-5089
▁Patel	-5090
▁theory	-5091
▁directions	-5092
otic	-5093
▁gard	-5094
▁advanced	-5095
▁collected	-5096
RO	-5097
mon	-5098
rical	-5099
▁expert	-5100
▁Yoga	-5101
▁fruit	-5102
▁choice	-5103
▁satisfied	-5104
▁characters	-5105
▁professional	-5106
▁Av	-5107
hern	-5108
▁Who	-5109
▁Sind	-5110
▁interesting	-5111
▁principal	-5112
olly	-5113
▁reliance	-5114
icient	-5115
inding	-5116
▁breed	-5117
▁Ja	-5118
▁creating	-5119
▁Don	-5120
▁sort	-5121
known	-5122
▁ende	-5123
▁statutory	-5124
▁governance	-5125
▁lif	-5126
anges	-5127
board	-5128
▁considering	-5129
▁Dal	-5130
aling	-5131
▁expenses	-5132
▁Priv	-5133
▁leaf	-5134
▁output	-5135
▁initial	-5136
ola	-5137
▁Raja	-5138
▁ment	-5139
▁obst	-5140
▁perfect	-5141
▁student	-5142
▁teaching	-5143
▁bh	-5144
▁Bin	-5145
▁web	-5146
▁proof	-5147
▁Prakash	-5148
odes	-5149
▁hop	-5150
▁coal	-5151
▁congrat	-5152
▁reflect	-5153
▁elections	-5154
▁Ka	-5155
▁Na	-5156
▁....	-5157
▁Hari	-5158
▁Dar	-5159
mises	-5160
▁legislation	-5161
de	-5162
▁Chen	-5163
▁greetings	-5164
▁constitutional	-5165
▁Show	-5166
▁Madras	-5167
▁minutes	-5168
▁explo	-5169
▁singh	-5170
▁picture	-5171
▁performed	-5172
▁selection	-5173
gor	-5174
▁rejected	-5175
▁entreprene	-5176
▁Sen	-5177
▁game	-5178
▁River	-5179
▁Kab	-5180
acharya	-5181
▁territory	-5182
rive	-5183
▁gain	-5184
▁allot	-5185
▁Rajesh	-5186
▁historical	-5187
▁match	-5188
ributed	-5189
▁London	-5190
cean	-5191
▁Sikh	-5192
▁numer	-5193
▁plays	-5194
▁mission	-5195
▁contention	-5196
cie	-5197
▁Jh	-5198
▁politics	-5199
rut	-5200
ghan	-5201
▁Foreign	-5202
▁facility	-5203
▁Once	-5204
▁Employ	-5205
othes	-5206
▁east	-5207
▁concent	-5208
▁profits	-5209
▁proport	-5210
▁Hem	-5211
▁Vin	-5212
▁pill	-5213
▁evident	-5214
▁assigned	-5215
▁Lib	-5216
▁Hist	-5217
yam	-5218
▁ec	-5219
aced	-5220
▁Over	-5221
▁apparent	-5222
roc	-5223
ammad	-5224
▁candidates	-5225
oe	-5226
ester	-5227
▁moving	-5228
▁arbitration	-5229
▁endeav	-5230
▁Mat	-5231
▁campaign	-5232
▁division	-5233
▁amb	-5234
▁piece	-5235
▁Speaker	-5236
▁arising	-5237
▁eligible	-5238
▁sto	-5239
▁Narayan	-5240
▁addressed	-5241
aped	-5242
▁bringing	-5243
olve	-5244
▁griev	-5245
▁helped	-5246
▁wild	-5247
▁challenges	-5248
▁democratic	-5249
▁description	-5250
lies	-5251
▁factor	-5252
▁awarded	-5253
▁Pay	-5254
▁Allah	-5255
▁conce	-5256
▁Mission	-5257
▁Network	-5258
▁installed	-5259
uli	-5260
▁Verma	-5261
isations	-5262
▁Arbitrator	-5263
▁ble	-5264
▁preced	-5265
▁jail	-5266
▁west	-5267
uct	-5268
▁Among	-5269
▁drugs	-5270
▁sugar	-5271
orthern	-5272
▁suffering	-5273
ota	-5274
▁RE	-5275
▁Bir	-5276
▁enhan	-5277
▁resist	-5278
set	-5279
▁arm	-5280
▁Vishnu	-5281
▁struct	-5282
▁specifically	-5283
omet	-5284
▁tonnes	-5285
▁banking	-5286
▁citizen	-5287
▁prosperity	-5288
agers	-5289
▁ratio	-5290
ashi	-5291
▁explained	-5292
▁transaction	-5293
▁instructions	-5294
CH	-5295
uous	-5296
▁nine	-5297
▁Mahab	-5298
▁accordingly	-5299
▁requirement	-5300
▁compar	-5301
PS	-5302
▁Use	-5303
▁grad	-5304
▁Press	-5305
oral	-5306
▁manufacturing	-5307
da	-5308
ica	-5309
▁bul	-5310
▁eth	-5311
▁Could	-5312
▁ability	-5313
▁solution	-5314
▁Jay	-5315
prises	-5316
▁grown	-5317
atically	-5318
▁inquiry	-5319
AM	-5320
anas	-5321
▁Gar	-5322
▁Pers	-5323
riving	-5324
▁plat	-5325
iveness	-5326
▁Middle	-5327
▁changing	-5328
▁Christian	-5329
▁Bu	-5330
ishad	-5331
▁Class	-5332
ima	-5333
ghal	-5334
holders	-5335
▁advocate	-5336
ST	-5337
imb	-5338
▁Nand	-5339
▁Internet	-5340
▁Security	-5341
▁operating	-5342
▁Sard	-5343
▁atmosphere	-5344
RL	-5345
▁cop	-5346
▁Right	-5347
▁sheet	-5348
ruption	-5349
▁filled	-5350
▁consists	-5351
▁Vice	-5352
iform	-5353
shi	-5354
▁Ven	-5355
▁imposed	-5356
▁containing	-5357
▁volume	-5358
▁recently	-5359
▁Women	-5360
▁communities	-5361
ym	-5362
like	-5363
▁Rural	-5364
▁enforce	-5365
▁recognised	-5366
mer	-5367
▁transform	-5368
▁thirty	-5369
▁writer	-5370
▁comment	-5371
▁Registrar	-5372
▁didn	-5373
▁currency	-5374
▁partition	-5375
adur	-5376
▁SP	-5377
▁Ragh	-5378
▁brain	-5379
▁reduce	-5380
▁attitude	-5381
▁Mang	-5382
▁lies	-5383
anging	-5384
▁birds	-5385
arn	-5386
▁Ba	-5387
▁dry	-5388
▁obl	-5389
▁hair	-5390
▁regions	-5391
▁dismissed	-5392
▁universities	-5393
rd	-5394
▁ourselves	-5395
▁awareness	-5396
while	-5397
▁amend	-5398
▁squared	-5399
OU	-5400
iments	-5401
▁effects	-5402
▁properly	-5403
CE	-5404
uru	-5405
awan	-5406
achment	-5407
▁liability	-5408
ops	-5409
▁sad	-5410
▁dign	-5411
▁prem	-5412
▁online	-5413
▁fish	-5414
withstanding	-5415
hance	-5416
▁folk	-5417
endent	-5418
▁Brahm	-5419
▁waste	-5420
▁testimony	-5421
▁bran	-5422
▁Collector	-5423
inite	-5424
▁micro	-5425
▁Nature	-5426
▁disputes	-5427
▁sustained	-5428
▁objectives	-5429
▁rad	-5430
▁wat	-5431
▁Each	-5432
▁store	-5433
ilty	-5434
▁track	-5435
▁conven	-5436
▁amended	-5437
▁Language	-5438
▁Training	-5439
▁representation	-5440
▁Az	-5441
▁Bur	-5442
▁prime	-5443
▁yield	-5444
▁Ang	-5445
▁phase	-5446
urities	-5447
▁equipment	-5448
▁pollution	-5449
▁Ter	-5450
ports	-5451
▁marg	-5452
▁honour	-5453
▁capable	-5454
▁healthy	-5455
▁involve	-5456
▁discharge	-5457
▁devotion	-5458
▁cam	-5459
▁kil	-5460
▁noticed	-5461
nan	-5462
amin	-5463
▁Self	-5464
▁accompan	-5465
▁Year	-5466
▁Univers	-5467
▁decades	-5468
▁architect	-5469
..	-5470
▁oblig	-5471
▁thereby	-5472
hand	-5473
▁Like	-5474
▁Prom	-5475
▁commence	-5476
▁engineering	-5477
▁Pad	-5478
▁extension	-5479
▁gun	-5480
▁Arun	-5481
▁Through	-5482
TER	-5483
ocol	-5484
▁Ent	-5485
▁location	-5486
arp	-5487
▁rob	-5488
▁spl	-5489
▁star	-5490
hensive	-5491
▁judgments	-5492
OL	-5493
▁sons	-5494
▁Chrom	-5495
▁repeal	-5496
▁permitted	-5497
▁acquisition	-5498
▁collabor	-5499
▁medicine	-5500
▁CON	-5501
▁Anand	-5502
▁Enter	-5503
▁calls	-5504
▁eleph	-5505
▁bag	-5506
▁Appeal	-5507
▁climate	-5508
▁instant	-5509
eev	-5510
▁alt	-5511
▁subt	-5512
ibilities	-5513
▁die	-5514
▁afford	-5515
▁becoming	-5516
iled	-5517
olid	-5518
▁habit	-5519
▁courage	-5520
▁clar	-5521
astern	-5522
▁gains	-5523
▁seized	-5524
▁simply	-5525
▁distinct	-5526
▁greatest	-5527
▁facie	-5528
▁chance	-5529
oses	-5530
▁union	-5531
auses	-5532
abinet	-5533
CI	-5534
akar	-5535
▁Exp	-5536
▁substantial	-5537
▁Stud	-5538
▁guilty	-5539
▁pension	-5540
kata	-5541
rees	-5542
▁defe	-5543
▁uses	-5544
▁remed	-5545
▁Mother	-5546
▁Municipal	-5547
pto	-5548
▁cry	-5549
▁impart	-5550
▁partner	-5551
▁gram	-5552
▁drive	-5553
▁detailed	-5554
▁processes	-5555
bh	-5556
ogue	-5557
asant	-5558
▁smaller	-5559
▁festival	-5560
ips	-5561
▁Meh	-5562
▁earn	-5563
▁inaug	-5564
▁contempt	-5565
AD	-5566
ju	-5567
▁consent	-5568
▁monitor	-5569
▁employed	-5570
▁commitment	-5571
▁translation	-5572
▁iv	-5573
▁Madhya	-5574
▁fix	-5575
▁rice	-5576
▁Subhas	-5577
▁strengthe	-5578
iers	-5579
stood	-5580
▁cloth	-5581
gypt	-5582
▁Revenue	-5583
▁custody	-5584
▁weather	-5585
▁incorpor	-5586
appa	-5587
▁shared	-5588
▁unable	-5589
▁Reserve	-5590
▁remaining	-5591
oring	-5592
▁outl	-5593
xy	-5594
▁Rad	-5595
▁Rai	-5596
▁heat	-5597
▁iron	-5598
▁users	-5599
▁emotion	-5600
▁resource	-5601
▁executive	-5602
▁helps	-5603
▁actions	-5604
▁showing	-5605
▁designed	-5606
bon	-5607
rade	-5608
▁Life	-5609
▁Prab	-5610
▁priority	-5611
▁Mur	-5612
▁prima	-5613
▁Business	-5614
ny	-5615
▁AD	-5616
▁IP	-5617
vent	-5618
▁See	-5619
▁Conf	-5620
▁deals	-5621
▁looks	-5622
▁stamp	-5623
▁intended	-5624
▁immediate	-5625
ams	-5626
▁Joh	-5627
▁URL	-5628
▁devi	-5629
inating	-5630
▁advert	-5631
▁sexual	-5632
▁compared	-5633
▁limits	-5634
anga	-5635
hered	-5636
ivered	-5637
ranath	-5638
▁Egypt	-5639
▁adjust	-5640
▁severe	-5641
▁Appellate	-5642
▁ori	-5643
▁simpl	-5644
▁format	-5645
▁interested	-5646
ails	-5647
▁AP	-5648
▁Rah	-5649
▁duly	-5650
▁raise	-5651
▁prejud	-5652
▁Gazette	-5653
▁undertaken	-5654
yal	-5655
inger	-5656
▁Mandal	-5657
▁handed	-5658
▁electricity	-5659
▁implemented	-5660
▁Jawahar	-5661
▁Rat	-5662
▁liquid	-5663
▁fed	-5664
▁lie	-5665
ashing	-5666
▁Pandey	-5667
▁battle	-5668
▁commod	-5669
▁Protection	-5670
dar	-5671
oes	-5672
▁mix	-5673
rations	-5674
▁secure	-5675
▁straight	-5676
▁efficient	-5677
ulty	-5678
▁crow	-5679
▁channel	-5680
▁deliver	-5681
▁finance	-5682
▁Independence	-5683
eer	-5684
anand	-5685
▁deleg	-5686
▁Affairs	-5687
▁platform	-5688
▁alternative	-5689
yer	-5690
▁absor	-5691
▁closed	-5692
▁wonder	-5693
▁beat	-5694
▁launch	-5695
▁leaving	-5696
DU	-5697
▁ap	-5698
omin	-5699
▁Emp	-5700
elled	-5701
liance	-5702
oration	-5703
▁Pandit	-5704
▁western	-5705
hal	-5706
ingly	-5707
▁formation	-5708
▁wants	-5709
▁exists	-5710
iri	-5711
esty	-5712
▁Food	-5713
▁Divine	-5714
otes	-5715
▁incur	-5716
▁scientists	-5717
▁band	-5718
▁fellow	-5719
▁rivers	-5720
▁felicit	-5721
▁bilateral	-5722
we	-5723
hetic	-5724
▁runs	-5725
▁announced	-5726
▁friendship	-5727
▁Back	-5728
▁agent	-5729
▁deliber	-5730
alg	-5731
ocal	-5732
▁File	-5733
▁neck	-5734
▁floor	-5735
▁girls	-5736
▁equally	-5737
▁password	-5738
▁offices	-5739
▁entirely	-5740
▁definition	-5741
ader	-5742
▁myst	-5743
▁solar	-5744
▁upper	-5745
▁papers	-5746
▁examine	-5747
▁behaviour	-5748
▁marketing	-5749
EM	-5750
▁Lo	-5751
▁lying	-5752
▁flowers	-5753
iant	-5754
inces	-5755
▁Small	-5756
▁distur	-5757
rigation	-5758
▁suggestion	-5759
amy	-5760
apa	-5761
quest	-5762
▁Book	-5763
▁Those	-5764
▁kinds	-5765
▁bone	-5766
▁herself	-5767
▁customer	-5768
ales	-5769
▁Math	-5770
▁Time	-5771
▁Austral	-5772
odh	-5773
▁City	-5774
▁dealt	-5775
▁guard	-5776
che	-5777
▁Lax	-5778
▁Sin	-5779
▁Deep	-5780
examination	-5781
▁accompanied	-5782
▁fourth	-5783
▁narrow	-5784
missible	-5785
▁branches	-5786
▁zero	-5787
▁wound	-5788
▁delivered	-5789
ames	-5790
▁disapp	-5791
roud	-5792
▁recognized	-5793
ESS	-5794
rie	-5795
▁Tele	-5796
▁causing	-5797
unk	-5798
▁remote	-5799
ruitment	-5800
▁organized	-5801
▁considerable	-5802
▁cra	-5803
▁email	-5804
▁represents	-5805
yas	-5806
▁pregn	-5807
▁train	-5808
▁communal	-5809
▁cow	-5810
▁evil	-5811
▁dance	-5812
▁decree	-5813
▁libert	-5814
hent	-5815
ourses	-5816
▁foundation	-5817
▁Trade	-5818
▁Afghan	-5819
▁please	-5820
▁seemed	-5821
▁speaking	-5822
▁guidelines	-5823
idn	-5824
erce	-5825
▁Vir	-5826
▁obtain	-5827
▁Legislature	-5828
oned	-5829
▁happens	-5830
▁Ministers	-5831
▁recognition	-5832
▁Hel	-5833
▁ing	-5834
▁aims	-5835
▁About	-5836
▁Labour	-5837
▁Related	-5838
▁arguments	-5839
▁representative	-5840
▁000	-5841
▁viz	-5842
▁trend	-5843
▁exclud	-5844
▁tender	-5845
▁Israeli	-5846
▁multiple	-5847
uit	-5848
ithm	-5849
▁audit	-5850
▁premises	-5851
▁organizations	-5852
itra	-5853
itage	-5854
▁marks	-5855
▁sight	-5856
▁Sardar	-5857
▁skills	-5858
▁Det	-5859
▁Rab	-5860
▁hit	-5861
▁wise	-5862
▁Laksh	-5863
▁delight	-5864
▁enhance	-5865
▁initiative	-5866
▁temperature	-5867
plom	-5868
ensions	-5869
ossible	-5870
▁overall	-5871
▁refused	-5872
▁allegations	-5873
▁improvement	-5874
room	-5875
▁rid	-5876
alore	-5877
▁kumar	-5878
▁mostly	-5879
▁sick	-5880
▁centuries	-5881
▁university	-5882
oli	-5883
alam	-5884
going	-5885
▁Circ	-5886
▁brid	-5887
▁plaintiffs	-5888
▁amp	-5889
▁lev	-5890
▁mir	-5891
▁ahead	-5892
gent	-5893
▁arms	-5894
▁poets	-5895
▁History	-5896
▁despite	-5897
▁Dw	-5898
▁Lat	-5899
▁Gopal	-5900
▁Micro	-5901
▁Sunil	-5902
▁colon	-5903
▁Something	-5904
▁Fed	-5905
▁cave	-5906
▁Rights	-5907
▁beings	-5908
ela	-5909
▁objection	-5910
▁billion	-5911
▁Rajendra	-5912
▁referring	-5913
▁constitute	-5914
▁outstanding	-5915
AB	-5916
▁Sush	-5917
▁Force	-5918
▁personnel	-5919
EL	-5920
ema	-5921
icide	-5922
▁Prat	-5923
▁blue	-5924
▁coast	-5925
▁indig	-5926
▁Nations	-5927
▁equality	-5928
▁revision	-5929
▁movements	-5930
ham	-5931
oken	-5932
▁dia	-5933
▁Houses	-5934
ocates	-5935
▁doesn	-5936
▁council	-5937
▁Regional	-5938
▁thousands	-5939
▁Data	-5940
▁posts	-5941
▁districts	-5942
▁environmental	-5943
icon	-5944
▁Bangl	-5945
▁Sanjay	-5946
▁negoti	-5947
▁figures	-5948
irs	-5949
ners	-5950
▁Dec	-5951
▁Select	-5952
▁fertil	-5953
▁height	-5954
▁mountain	-5955
▁transactions	-5956
▁Know	-5957
▁depends	-5958
▁railway	-5959
▁Institut	-5960
▁consumer	-5961
▁admission	-5962
▁instruments	-5963
▁stick	-5964
▁cricket	-5965
▁repeated	-5966
▁extremely	-5967
▁CrPC	-5968
▁Urdu	-5969
▁hardly	-5970
▁reforms	-5971
▁opposition	-5972
▁arrangement	-5973
▁Jy	-5974
▁acid	-5975
▁cott	-5976
▁acknow	-5977
▁insect	-5978
▁visible	-5979
▁Companies	-5980
riya	-5981
▁rit	-5982
ellow	-5983
▁minds	-5984
▁column	-5985
▁couple	-5986
▁telephone	-5987
▁understood	-5988
akti	-5989
▁Good	-5990
▁upto	-5991
▁tissue	-5992
pro	-5993
back	-5994
▁Var	-5995
ailing	-5996
▁transp	-5997
ught	-5998
▁Vidy	-5999
▁lock	-6000
▁oral	-6001
▁divid	-6002
▁scene	-6003
▁spite	-6004
▁conference	-6005
▁lease	-6006
▁career	-6007
▁lodged	-6008
▁playing	-6009
dess	-6010
fort	-6011
grad	-6012
▁starting	-6013
▁cart	-6014
▁Annex	-6015
▁loans	-6016
▁Railway	-6017
▁Exchange	-6018
hus	-6019
▁org	-6020
idden	-6021
oples	-6022
▁Saty	-6023
ansion	-6024
▁feature	-6025
▁supreme	-6026
▁quantity	-6027
jan	-6028
▁Eastern	-6029
▁suffered	-6030
▁framework	-6031
iso	-6032
nai	-6033
anti	-6034
▁Has	-6035
▁tom	-6036
▁Count	-6037
▁renew	-6038
▁French	-6039
▁welcome	-6040
▁disclosed	-6041
▁governments	-6042
anath	-6043
▁organised	-6044
alu	-6045
clause	-6046
encing	-6047
▁vs	-6048
illa	-6049
▁Shi	-6050
ulatory	-6051
▁Tir	-6052
irmed	-6053
▁screen	-6054
▁Capital	-6055
▁demands	-6056
▁Officers	-6057
▁requested	-6058
▁appearance	-6059
▁strengthen	-6060
alle	-6061
▁Kir	-6062
▁Rak	-6063
▁asc	-6064
▁Penal	-6065
▁finds	-6066
▁journal	-6067
ke	-6068
▁tea	-6069
urved	-6070
▁showed	-6071
hari	-6072
uted	-6073
▁Swar	-6074
▁phen	-6075
▁bearing	-6076
▁composed	-6077
▁distinguished	-6078
▁Mot	-6079
antic	-6080
minent	-6081
▁fifty	-6082
▁folder	-6083
▁Palestinian	-6084
▁Cre	-6085
▁Inn	-6086
▁disposal	-6087
▁customers	-6088
▁preferred	-6089
▁represented	-6090
top	-6091
▁Din	-6092
▁Fam	-6093
▁Ranj	-6094
▁discrim	-6095
▁definite	-6096
▁Agriculture	-6097
▁Respondents	-6098
▁commencement	-6099
uv	-6100
isis	-6101
▁vir	-6102
▁Reddy	-6103
chandra	-6104
▁acting	-6105
▁anyone	-6106
▁Process	-6107
▁appeals	-6108
▁brothers	-6109
▁bird	-6110
▁render	-6111
▁certainly	-6112
▁personality	-6113
▁determination	-6114
▁Aj	-6115
▁dog	-6116
▁challenged	-6117
urer	-6118
anka	-6119
osen	-6120
▁myself	-6121
▁objects	-6122
mad	-6123
▁Failed	-6124
▁offers	-6125
▁traffic	-6126
pet	-6127
ander	-6128
iation	-6129
▁continues	-6130
▁technologies	-6131
▁pad	-6132
▁thank	-6133
▁Vol	-6134
▁raw	-6135
▁prose	-6136
ushed	-6137
▁eggs	-6138
▁config	-6139
▁Po	-6140
▁Pass	-6141
▁choose	-6142
▁Manager	-6143
▁creative	-6144
▁Beg	-6145
▁hyd	-6146
▁sin	-6147
▁blind	-6148
▁college	-6149
▁proportion	-6150
MS	-6151
ba	-6152
▁Ir	-6153
older	-6154
▁horse	-6155
▁convicted	-6156
▁regulations	-6157
za	-6158
▁park	-6159
▁recording	-6160
▁representatives	-6161
ien	-6162
tes	-6163
retion	-6164
▁skill	-6165
ressive	-6166
▁manifest	-6167
▁sacrifice	-6168
aces	-6169
dish	-6170
▁caught	-6171
▁amounts	-6172
uni	-6173
▁Vik	-6174
itted	-6175
ignment	-6176
▁Registration	-6177
▁१	-6178
pected	-6179
▁exports	-6180
ux	-6181
gery	-6182
▁Jos	-6183
▁Mrs	-6184
▁dynam	-6185
▁sweet	-6186
▁describ	-6187
▁Economic	-6188
▁examples	-6189
urally	-6190
▁invited	-6191
▁weapons	-6192
▁conferred	-6193
▁punishable	-6194
▁Certificate	-6195
alli	-6196
azar	-6197
▁Tah	-6198
organ	-6199
▁prayer	-6200
▁Committees	-6201
▁recall	-6202
▁suffer	-6203
▁Ti	-6204
umber	-6205
▁Vaish	-6206
▁deeply	-6207
▁enabled	-6208
eum	-6209
▁labor	-6210
▁pages	-6211
▁Clause	-6212
▁felicitations	-6213
▁Sik	-6214
▁Dhan	-6215
hibition	-6216
▁liberal	-6217
▁Om	-6218
cont	-6219
etary	-6220
▁Apart	-6221
accused	-6222
▁regards	-6223
▁Cust	-6224
▁seiz	-6225
▁Chait	-6226
▁radio	-6227
▁slight	-6228
piration	-6229
▁quickly	-6230
▁impossible	-6231
▁enacted	-6232
▁household	-6233
▁Bangladesh	-6234
▁differences	-6235
▁Kap	-6236
▁markets	-6237
▁sustainable	-6238
१२	-6239
▁Agra	-6240
▁Sure	-6241
▁span	-6242
▁budget	-6243
▁explain	-6244
▁Mahabhar	-6245
▁Superint	-6246
ruits	-6247
aneous	-6248
reement	-6249
▁facilitate	-6250
emb	-6251
orthy	-6252
▁Dhar	-6253
▁identify	-6254
▁Far	-6255
▁pec	-6256
▁sacred	-6257
▁Yes	-6258
▁pul	-6259
ommod	-6260
▁pret	-6261
▁Bahadur	-6262
▁clothes	-6263
▁subsequently	-6264
TH	-6265
ys	-6266
▁elim	-6267
▁Election	-6268
▁allowance	-6269
▁availability	-6270
▁PM	-6271
▁breath	-6272
▁ritual	-6273
▁virtue	-6274
▁opposed	-6275
▁comprehensive	-6276
▁organisations	-6277
ls	-6278
fall	-6279
ohan	-6280
▁ast	-6281
▁disk	-6282
▁doub	-6283
▁Credit	-6284
▁dedicated	-6285
▁Sud	-6286
▁Oper	-6287
▁core	-6288
▁knows	-6289
▁Territ	-6290
▁forwarded	-6291
▁neighbour	-6292
▁PC	-6293
rafts	-6294
▁theme	-6295
▁Having	-6296
▁strict	-6297
▁mechanism	-6298
▁drama	-6299
▁proud	-6300
▁imperial	-6301
▁indicate	-6302
▁Parliamentary	-6303
▁PS	-6304
▁salary	-6305
▁covering	-6306
▁vig	-6307
erate	-6308
▁Master	-6309
▁bright	-6310
lo	-6311
atab	-6312
apped	-6313
▁Path	-6314
▁seat	-6315
▁owned	-6316
UL	-6317
▁wa	-6318
mony	-6319
umin	-6320
▁steel	-6321
▁double	-6322
▁stopped	-6323
▁Planning	-6324
▁Industries	-6325
▁Key	-6326
▁tim	-6327
▁exped	-6328
▁estimated	-6329
IF	-6330
▁Lah	-6331
▁Web	-6332
▁insist	-6333
▁indicated	-6334
▁receiving	-6335
▁satisfaction	-6336
▁Laws	-6337
▁merit	-6338
▁Kolkata	-6339
▁unknown	-6340
▁notified	-6341
▁thoughts	-6342
▁completion	-6343
rob	-6344
▁race	-6345
▁holds	-6346
ua	-6347
izes	-6348
▁representing	-6349
▁vess	-6350
▁spect	-6351
utation	-6352
▁emphasis	-6353
▁determine	-6354
▁temporary	-6355
▁Nir	-6356
▁Tar	-6357
isher	-6358
▁hind	-6359
▁interf	-6360
▁complic	-6361
▁Mult	-6362
▁arise	-6363
▁seeing	-6364
▁Address	-6365
▁Chennai	-6366
▁derived	-6367
▁Himachal	-6368
▁compound	-6369
▁corporate	-6370
▁consumption	-6371
qual	-6372
▁Move	-6373
▁lect	-6374
▁roof	-6375
▁seats	-6376
▁Buddha	-6377
▁Forest	-6378
▁Prosec	-6379
arh	-6380
rain	-6381
▁Sita	-6382
▁flat	-6383
▁Awards	-6384
▁crores	-6385
▁desert	-6386
▁promoting	-6387
elve	-6388
▁John	-6389
▁Raipur	-6390
▁cheque	-6391
▁advised	-6392
▁fold	-6393
▁toler	-6394
▁employer	-6395
▁mr	-6396
itan	-6397
▁sequ	-6398
▁propag	-6399
▁petitions	-6400
▁submissions	-6401
▁intelligence	-6402
▁contributions	-6403
iable	-6404
▁religions	-6405
▁legislative	-6406
ooth	-6407
▁rub	-6408
iliar	-6409
▁chain	-6410
▁Market	-6411
▁burden	-6412
▁talking	-6413
▁improved	-6414
inct	-6415
owed	-6416
▁thor	-6417
iverse	-6418
▁Great	-6419
▁Trial	-6420
▁normally	-6421
▁efficiency	-6422
▁observations	-6423
abet	-6424
▁FOR	-6425
▁Luc	-6426
▁vit	-6427
▁elder	-6428
ture	-6429
▁Gul	-6430
▁mel	-6431
▁plans	-6432
▁uniform	-6433
ciation	-6434
▁Brahmin	-6435
▁peoples	-6436
▁victims	-6437
▁Annexure	-6438
enous	-6439
▁convers	-6440
▁signature	-6441
▁Legal	-6442
CO	-6443
pa	-6444
▁lik	-6445
herent	-6446
▁fraud	-6447
▁permit	-6448
▁judiciary	-6449
▁effectively	-6450
▁DNA	-6451
▁ran	-6452
▁legs	-6453
▁Comput	-6454
▁everyone	-6455
▁Administrative	-6456
▁Top	-6457
▁doll	-6458
irement	-6459
▁masses	-6460
▁Speaking	-6461
▁investig	-6462
▁Jawaharlal	-6463
▁possibility	-6464
hesh	-6465
akrish	-6466
▁regarded	-6467
ida	-6468
▁interpretation	-6469
▁Han	-6470
▁Rev	-6471
▁ram	-6472
▁Wind	-6473
▁proc	-6474
▁proviso	-6475
och	-6476
▁unw	-6477
ullah	-6478
▁Unit	-6479
rating	-6480
▁paras	-6481
▁Govind	-6482
▁contra	-6483
▁string	-6484
▁constitu	-6485
▁terrorist	-6486
▁procedures	-6487
arsh	-6488
▁Pet	-6489
▁admin	-6490
▁sympt	-6491
▁guidance	-6492
▁meetings	-6493
rum	-6494
▁Ans	-6495
▁Common	-6496
▁housing	-6497
▁evolution	-6498
▁resulting	-6499
▁acceptance	-6500
▁difficulty	-6501
▁competition	-6502
rity	-6503
▁Exc	-6504
▁Copy	-6505
▁baby	-6506
▁lady	-6507
▁pron	-6508
oman	-6509
ensity	-6510
▁Innov	-6511
▁envis	-6512
▁Industry	-6513
▁composition	-6514
▁successfully	-6515
orge	-6516
uity	-6517
▁Ord	-6518
▁drop	-6519
▁Ambed	-6520
dev	-6521
▁Cal	-6522
▁Mos	-6523
▁Sav	-6524
▁hom	-6525
▁Shar	-6526
▁boys	-6527
▁innoc	-6528
▁Persian	-6529
▁Children	-6530
▁chosen	-6531
▁illust	-6532
▁wholly	-6533
▁Ambedkar	-6534
norm	-6535
▁Army	-6536
▁Gold	-6537
▁cool	-6538
▁Later	-6539
▁Germany	-6540
▁occurred	-6541
▁Allahabad	-6542
▁PD	-6543
▁Name	-6544
▁fees	-6545
▁accom	-6546
▁seeds	-6547
▁garden	-6548
▁founded	-6549
▁manager	-6550
▁practical	-6551
▁Accordingly	-6552
MP	-6553
oudh	-6554
▁alias	-6555
▁adverse	-6556
▁involving	-6557
▁consultation	-6558
▁mos	-6559
▁param	-6560
▁center	-6561
▁entrust	-6562
▁improving	-6563
▁prosecutrix	-6564
▁Administration	-6565
▁Ray	-6566
▁Welfare	-6567
▁humanity	-6568
▁Bangalore	-6569
uri	-6570
orney	-6571
▁Chak	-6572
▁Khat	-6573
▁writers	-6574
▁superior	-6575
▁candidate	-6576
▁carefully	-6577
▁infection	-6578
▁syn	-6579
inity	-6580
▁lose	-6581
asters	-6582
▁outer	-6583
▁happiness	-6584
▁ID	-6585
▁Yet	-6586
▁Change	-6587
▁cancel	-6588
▁Private	-6589
▁phenomen	-6590
▁ignor	-6591
▁Standing	-6592
▁residence	-6593
▁Ach	-6594
orted	-6595
▁cogn	-6596
▁enemy	-6597
▁roads	-6598
▁director	-6599
oz	-6600
mal	-6601
ients	-6602
actory	-6603
▁usual	-6604
▁Single	-6605
▁driver	-6606
▁deposits	-6607
▁heritage	-6608
▁contemporary	-6609
▁pu	-6610
rition	-6611
▁tools	-6612
▁computing	-6613
mn	-6614
▁Sk	-6615
▁Nare	-6616
▁hill	-6617
▁Academ	-6618
▁UT	-6619
▁liberty	-6620
ius	-6621
▁sky	-6622
▁flag	-6623
▁willing	-6624
▁uncle	-6625
▁kingdom	-6626
iah	-6627
▁Mir	-6628
▁surre	-6629
▁occurs	-6630
▁tribal	-6631
ortunately	-6632
▁newspaper	-6633
▁controlled	-6634
▁participate	-6635
▁shif	-6636
▁Allow	-6637
▁inspired	-6638
oria	-6639
▁Banks	-6640
▁saint	-6641
▁accommod	-6642
▁southern	-6643
▁categories	-6644
▁Being	-6645
▁broken	-6646
▁authent	-6647
▁celebrated	-6648
▁distinction	-6649
amma	-6650
▁MSME	-6651
▁empt	-6652
▁scen	-6653
▁Mount	-6654
▁flood	-6655
▁solid	-6656
▁approx	-6657
▁asking	-6658
▁stages	-6659
▁strategy	-6660
▁arrangements	-6661
atra	-6662
ibly	-6663
▁sam	-6664
▁York	-6665
ananda	-6666
mation	-6667
▁Champ	-6668
inations	-6669
▁Chaitanya	-6670
▁ego	-6671
venth	-6672
▁Sund	-6673
inance	-6674
▁gather	-6675
▁convention	-6676
▁difficulties	-6677
idi	-6678
▁CD	-6679
achi	-6680
▁Ary	-6681
▁Binoy	-6682
▁ought	-6683
▁equity	-6684
▁pertaining	-6685
▁Cast	-6686
▁hall	-6687
▁findings	-6688
▁consisting	-6689
▁departments	-6690
jun	-6691
nath	-6692
uran	-6693
house	-6694
▁quiet	-6695
▁immense	-6696
▁discussions	-6697
▁accompl	-6698
▁ordered	-6699
▁valuable	-6700
▁expansion	-6701
▁electronic	-6702
▁Last	-6703
▁Democ	-6704
▁significance	-6705
SS	-6706
egu	-6707
▁Amb	-6708
▁Ren	-6709
aniel	-6710
▁ends	-6711
▁trading	-6712
▁era	-6713
▁plea	-6714
aryana	-6715
▁crisis	-6716
▁constructed	-6717
ek	-6718
asty	-6719
▁Cle	-6720
▁Test	-6721
▁walls	-6722
▁contro	-6723
▁indirect	-6724
▁settings	-6725
▁producing	-6726
▁Superintendent	-6727
▁Mahe	-6728
▁chapter	-6729
▁assembly	-6730
▁Constable	-6731
▁voluntary	-6732
▁integrated	-6733
IP	-6734
pad	-6735
▁stead	-6736
▁tomorrow	-6737
▁writings	-6738
▁specially	-6739
▁continuous	-6740
alal	-6741
▁Bet	-6742
▁tank	-6743
▁twelve	-6744
▁trouble	-6745
▁messages	-6746
▁discipline	-6747
riages	-6748
▁gradu	-6749
▁raising	-6750
▁authorised	-6751
▁Directorate	-6752
grim	-6753
ortem	-6754
▁bact	-6755
▁accurate	-6756
▁Vid	-6757
essed	-6758
▁layer	-6759
▁leads	-6760
▁widely	-6761
▁suddenly	-6762
▁Afghanistan	-6763
eng	-6764
atta	-6765
inese	-6766
▁Free	-6767
▁plot	-6768
▁Moham	-6769
▁thick	-6770
▁brings	-6771
▁Nor	-6772
▁Nos	-6773
▁bomb	-6774
▁sharp	-6775
▁strike	-6776
▁taught	-6777
▁Moreover	-6778
▁investors	-6779
nagar	-6780
active	-6781
▁chrom	-6782
▁purchased	-6783
▁litigation	-6784
oser	-6785
▁Anil	-6786
▁fift	-6787
▁fuel	-6788
▁Durga	-6789
▁guide	-6790
▁poison	-6791
▁compliance	-6792
▁roll	-6793
▁Start	-6794
▁chair	-6795
▁millions	-6796
▁irrigation	-6797
▁border	-6798
▁managed	-6799
▁educated	-6800
▁Appellant	-6801
▁enterprise	-6802
▁League	-6803
▁Haryana	-6804
▁contribute	-6805
▁essentially	-6806
▁Universities	-6807
RE	-6808
ERS	-6809
wah	-6810
ords	-6811
osit	-6812
rand	-6813
urse	-6814
▁unb	-6815
raint	-6816
▁gross	-6817
▁Accused	-6818
OC	-6819
ancies	-6820
▁forests	-6821
▁Regulation	-6822
hik	-6823
ache	-6824
▁cos	-6825
▁kidn	-6826
▁cycle	-6827
▁servant	-6828
▁confined	-6829
▁Lad	-6830
erior	-6831
uality	-6832
▁spoke	-6833
▁waiting	-6834
ictionary	-6835
▁Text	-6836
▁interim	-6837
▁trained	-6838
▁chargeable	-6839
▁obligation	-6840
eries	-6841
icians	-6842
▁patri	-6843
▁begins	-6844
▁totally	-6845
▁compassion	-6846
▁remarkable	-6847
▁Engineering	-6848
▁Ara	-6849
▁hat	-6850
▁Shuk	-6851
▁grew	-6852
▁fruits	-6853
▁tenant	-6854
▁convert	-6855
oop	-6856
ulpt	-6857
▁exch	-6858
▁aggreg	-6859
▁Professor	-6860
▁destruction	-6861
son	-6862
ajan	-6863
▁forget	-6864
▁extract	-6865
oked	-6866
▁Mor	-6867
▁Mohd	-6868
▁adjud	-6869
▁intim	-6870
▁Ramesh	-6871
▁Sheikh	-6872
▁contents	-6873
rosy	-6874
▁grat	-6875
▁stip	-6876
▁prompt	-6877
▁harmony	-6878
▁yourself	-6879
▁violation	-6880
▁investments	-6881
▁Investigating	-6882
isdom	-6883
▁Sand	-6884
▁prepare	-6885
ographical	-6886
▁guarantee	-6887
▁Ele	-6888
atics	-6889
▁poly	-6890
▁besides	-6891
▁Interest	-6892
AGE	-6893
▁tort	-6894
▁Annual	-6895
▁buildings	-6896
▁identification	-6897
▁Hig	-6898
▁err	-6899
icket	-6900
▁genu	-6901
▁alter	-6902
▁memor	-6903
ria	-6904
lets	-6905
▁depth	-6906
▁falls	-6907
▁stake	-6908
▁Branch	-6909
▁Choudh	-6910
▁Russia	-6911
▁debate	-6912
▁exercised	-6913
▁consequences	-6914
well	-6915
▁dow	-6916
▁aged	-6917
▁posted	-6918
▁starts	-6919
▁stress	-6920
▁weapon	-6921
▁Brahman	-6922
▁Cabinet	-6923
▁Chinese	-6924
▁attacks	-6925
▁contrad	-6926
erk	-6927
▁Bri	-6928
▁adap	-6929
▁Integ	-6930
▁ocean	-6931
▁divide	-6932
▁Lucknow	-6933
▁resulted	-6934
▁IC	-6935
anth	-6936
ivek	-6937
▁Sett	-6938
▁bottom	-6939
▁replace	-6940
▁productivity	-6941
care	-6942
arkar	-6943
▁shel	-6944
▁faculty	-6945
▁reprodu	-6946
▁universe	-6947
▁discretion	-6948
▁abol	-6949
▁unre	-6950
▁Earth	-6951
▁Vedic	-6952
alla	-6953
▁III	-6954
▁lakhs	-6955
▁equival	-6956
▁reaction	-6957
▁soldiers	-6958
▁impression	-6959
▁transmission	-6960
▁coc	-6961
▁dro	-6962
ashed	-6963
icity	-6964
rates	-6965
▁verse	-6966
habilit	-6967
▁familiar	-6968
ded	-6969
▁nerv	-6970
▁socio	-6971
▁Import	-6972
▁comprom	-6973
▁partners	-6974
heb	-6975
▁sales	-6976
▁Comment	-6977
▁incurred	-6978
▁Kaur	-6979
▁Rest	-6980
▁copies	-6981
▁diplom	-6982
▁securities	-6983
zz	-6984
inn	-6985
atar	-6986
uses	-6987
amber	-6988
▁vote	-6989
▁sanct	-6990
▁Mughal	-6991
▁Rakesh	-6992
▁Sector	-6993
▁convin	-6994
▁proceeded	-6995
▁explanation	-6996
alid	-6997
▁tro	-6998
▁Gora	-6999
▁Raju	-7000
▁supplement	-7001
▁News	-7002
▁Sidd	-7003
iously	-7004
lation	-7005
mortem	-7006
ronics	-7007
▁escape	-7008
▁safegu	-7009
▁sculpt	-7010
▁solutions	-7011
▁villagers	-7012
▁limitation	-7013
rier	-7014
▁gift	-7015
▁listed	-7016
▁stating	-7017
▁northern	-7018
▁Ji	-7019
▁tab	-7020
▁diet	-7021
arathi	-7022
▁persu	-7023
liminary	-7024
▁categor	-7025
gi	-7026
bing	-7027
ding	-7028
▁holder	-7029
▁Working	-7030
▁replied	-7031
▁seizure	-7032
▁attended	-7033
▁ca	-7034
edia	-7035
ician	-7036
▁Chow	-7037
▁fasc	-7038
▁Found	-7039
▁Family	-7040
▁Tiwari	-7041
▁warrant	-7042
▁directory	-7043
▁instruction	-7044
key	-7045
asks	-7046
andum	-7047
isite	-7048
▁Paper	-7049
▁street	-7050
▁belongs	-7051
▁revealed	-7052
▁emergency	-7053
▁distributed	-7054
▁panel	-7055
mitting	-7056
▁attain	-7057
▁linked	-7058
▁Province	-7059
▁concerns	-7060
▁drinking	-7061
▁indicates	-7062
▁recommendation	-7063
leum	-7064
▁alc	-7065
▁Ahmad	-7066
▁customs	-7067
▁passage	-7068
▁numerous	-7069
▁Es	-7070
▁Bach	-7071
▁alive	-7072
▁verses	-7073
▁digital	-7074
▁pronoun	-7075
▁download	-7076
▁converted	-7077
▁furnished	-7078
▁Late	-7079
▁flower	-7080
▁poetic	-7081
▁Britain	-7082
▁appellate	-7083
▁followers	-7084
▁introduction	-7085
ugg	-7086
algam	-7087
▁bath	-7088
▁vary	-7089
▁throw	-7090
▁rulers	-7091
▁gradually	-7092
▁Convention	-7093
▁excellence	-7094
obe	-7095
▁AM	-7096
▁Deb	-7097
▁Kor	-7098
▁Saf	-7099
▁Acts	-7100
▁edge	-7101
▁adopt	-7102
▁expiry	-7103
▁eastern	-7104
sequently	-7105
▁components	-7106
▁preparation	-7107
▁anc	-7108
▁Sinha	-7109
▁Chrome	-7110
▁reiter	-7111
▁qualities	-7112
AP	-7113
▁pig	-7114
▁thr	-7115
ifies	-7116
▁bats	-7117
▁youn	-7118
▁click	-7119
▁faced	-7120
▁comfort	-7121
▁ceremony	-7122
▁criticism	-7123
▁sanctioned	-7124
iger	-7125
onym	-7126
allel	-7127
erent	-7128
indra	-7129
▁gods	-7130
▁irre	-7131
▁pound	-7132
▁courses	-7133
▁exactly	-7134
▁largely	-7135
▁ensuring	-7136
oda	-7137
▁CH	-7138
▁Id	-7139
atre	-7140
▁Cha	-7141
▁Due	-7142
▁shot	-7143
▁goals	-7144
▁breast	-7145
▁learnt	-7146
▁amendments	-7147
yl	-7148
cles	-7149
lied	-7150
▁Siva	-7151
▁nurs	-7152
▁tong	-7153
▁fault	-7154
▁prote	-7155
▁elabor	-7156
▁calling	-7157
▁rightly	-7158
▁studied	-7159
race	-7160
▁Asian	-7161
▁Enable	-7162
▁fifteen	-7163
▁quarter	-7164
▁obtaining	-7165
▁Agricultural	-7166
▁Shiva	-7167
▁feelings	-7168
▁infinite	-7169
▁Secondary	-7170
▁row	-7171
▁Term	-7172
▁seeks	-7173
▁urged	-7174
▁DE	-7175
writ	-7176
▁mob	-7177
▁raj	-7178
▁audio	-7179
▁client	-7180
▁images	-7181
▁proposals	-7182
▁controvers	-7183
▁automatically	-7184
▁kg	-7185
peror	-7186
▁Band	-7187
▁pieces	-7188
▁update	-7189
▁entrusted	-7190
▁Again	-7191
▁links	-7192
▁conspir	-7193
▁harvest	-7194
▁operate	-7195
▁currently	-7196
▁encouraged	-7197
▁achievement	-7198
uj	-7199
▁Dam	-7200
▁anx	-7201
▁bat	-7202
▁bull	-7203
▁ring	-7204
▁teeth	-7205
▁manage	-7206
▁waters	-7207
▁violent	-7208
▁younger	-7209
▁ultimately	-7210
mp	-7211
▁Fr	-7212
▁NI	-7213
DUCT	-7214
▁Teh	-7215
endar	-7216
uster	-7217
▁NAME	-7218
▁Vivek	-7219
▁decade	-7220
▁prominent	-7221
▁El	-7222
▁UK	-7223
using	-7224
▁load	-7225
orated	-7226
urning	-7227
ourable	-7228
▁facing	-7229
▁Bharati	-7230
▁mandapa	-7231
▁secondary	-7232
▁conversion	-7233
▁traditions	-7234
oles	-7235
pura	-7236
▁cad	-7237
▁mad	-7238
igarh	-7239
▁mixed	-7240
▁noise	-7241
▁wages	-7242
▁abnorm	-7243
▁corner	-7244
▁prince	-7245
▁reader	-7246
▁Teacher	-7247
▁disabled	-7248
▁dependent	-7249
ears	-7250
▁sup	-7251
▁empow	-7252
▁react	-7253
▁licence	-7254
▁suicide	-7255
▁Marriage	-7256
▁reserved	-7257
gen	-7258
nal	-7259
▁rom	-7260
▁desc	-7261
▁scrut	-7262
▁primarily	-7263
१३	-7264
enn	-7265
utor	-7266
▁Arch	-7267
▁Autom	-7268
▁deriv	-7269
▁Turkey	-7270
▁devices	-7271
▁factory	-7272
orse	-7273
ensus	-7274
roleum	-7275
▁saved	-7276
atabase	-7277
▁Accounts	-7278
▁deposited	-7279
kk	-7280
▁NAB	-7281
▁tub	-7282
orter	-7283
▁myth	-7284
▁Export	-7285
▁France	-7286
▁component	-7287
▁maintaining	-7288
ster	-7289
▁Disc	-7290
▁shock	-7291
raction	-7292
▁cattle	-7293
▁pilgrim	-7294
▁secular	-7295
▁entertain	-7296
▁regularly	-7297
DP	-7298
got	-7299
▁CP	-7300
▁SI	-7301
▁gall	-7302
▁Proper	-7303
▁putting	-7304
▁backward	-7305
fer	-7306
oking	-7307
▁Four	-7308
▁dignity	-7309
▁symptoms	-7310
▁fab	-7311
▁advis	-7312
▁chest	-7313
▁utter	-7314
▁Vaishn	-7315
▁drawing	-7316
▁empower	-7317
▁Agreement	-7318
▁parliamentary	-7319
eel	-7320
oram	-7321
▁Dig	-7322
▁hyp	-7323
▁encl	-7324
▁bills	-7325
▁illness	-7326
▁Sometimes	-7327
sil	-7328
▁TV	-7329
hips	-7330
▁fib	-7331
▁htt	-7332
erved	-7333
iques	-7334
▁solve	-7335
hibited	-7336
▁paying	-7337
▁Defence	-7338
▁involves	-7339
▁cul	-7340
arwal	-7341
▁Ajay	-7342
▁Chau	-7343
▁cotton	-7344
▁forced	-7345
▁valley	-7346
▁supposed	-7347
▁excellent	-7348
▁combination	-7349
▁Dom	-7350
▁abst	-7351
▁node	-7352
▁aspir	-7353
▁elephant	-7354
▁operative	-7355
▁Shankaracharya	-7356
VE	-7357
▁arriv	-7358
▁arises	-7359
▁fighting	-7360
▁complaints	-7361
▁avo	-7362
▁map	-7363
▁Date	-7364
▁Fort	-7365
▁Rani	-7366
▁Soft	-7367
▁dict	-7368
▁exem	-7369
▁mortg	-7370
▁applies	-7371
▁dischar	-7372
▁commonly	-7373
▁consumers	-7374
▁mig	-7375
▁revol	-7376
▁route	-7377
▁wisdom	-7378
▁Subhash	-7379
▁inserted	-7380
▁la	-7381
▁bon	-7382
▁mah	-7383
ariat	-7384
itals	-7385
▁holy	-7386
▁PRODUCT	-7387
▁retired	-7388
▁arranged	-7389
▁patients	-7390
▁mandatory	-7391
▁discovered	-7392
wara	-7393
entle	-7394
▁dust	-7395
▁Money	-7396
duction	-7397
▁atomic	-7398
▁amalgam	-7399
▁Maharaja	-7400
▁symp	-7401
▁cruel	-7402
▁yellow	-7403
▁tourism	-7404
▁Islamist	-7405
▁reaching	-7406
eena	-7407
▁Kav	-7408
▁jew	-7409
illing	-7410
▁gland	-7411
▁domain	-7412
▁entity	-7413
▁Exhibit	-7414
▁recruitment	-7415
▁Kann	-7416
▁Look	-7417
▁cited	-7418
▁ruled	-7419
▁intest	-7420
▁minute	-7421
▁cultivation	-7422
ums	-7423
nity	-7424
▁trem	-7425
▁Supra	-7426
▁hills	-7427
▁spend	-7428
▁Energy	-7429
▁George	-7430
▁allows	-7431
▁sorrow	-7432
▁vested	-7433
▁passion	-7434
▁venture	-7435
▁architecture	-7436
TI	-7437
▁Jyot	-7438
▁isol	-7439
▁glass	-7440
istries	-7441
▁remedy	-7442
▁remind	-7443
▁eternal	-7444
mentation	-7445
▁Equ	-7446
▁Flag	-7447
▁Hand	-7448
▁inher	-7449
▁surpr	-7450
▁Sarasw	-7451
▁compuls	-7452
▁relatives	-7453
▁CS	-7454
urch	-7455
▁Dav	-7456
▁Full	-7457
▁fever	-7458
▁Contract	-7459
lar	-7460
mic	-7461
▁Taj	-7462
▁smt	-7463
▁Liter	-7464
▁concess	-7465
▁recover	-7466
▁selling	-7467
▁internet	-7468
▁privilege	-7469
▁percentage	-7470
ayas	-7471
▁gate	-7472
estion	-7473
▁Dharm	-7474
▁antic	-7475
▁Higher	-7476
▁assisted	-7477
▁Alm	-7478
alpur	-7479
▁brows	-7480
▁Excise	-7481
▁emerged	-7482
▁strange	-7483
▁Hinduism	-7484
▁innovative	-7485
▁ties	-7486
▁aimed	-7487
▁NABARD	-7488
▁sample	-7489
▁shaped	-7490
▁Ramayana	-7491
▁realised	-7492
▁schedule	-7493
▁strategic	-7494
▁du	-7495
▁Max	-7496
ureau	-7497
▁wear	-7498
▁carbon	-7499
▁sports	-7500
aneously	-7501
▁serving	-7502
▁Australia	-7503
▁contributed	-7504
▁eve	-7505
▁Sang	-7506
▁airc	-7507
aching	-7508
▁Raman	-7509
▁aband	-7510
▁truly	-7511
athered	-7512
▁greatly	-7513
▁printed	-7514
▁consequence	-7515
itud	-7516
▁Sab	-7517
▁Sou	-7518
▁hun	-7519
▁pup	-7520
entation	-7521
▁planned	-7522
▁affection	-7523
▁subscribe	-7524
▁achievements	-7525
▁flo	-7526
▁meat	-7527
▁murd	-7528
▁White	-7529
▁Shukla	-7530
▁Survey	-7531
▁Kishore	-7532
▁influenced	-7533
▁enforcement	-7534
UT	-7535
yr	-7536
▁Muh	-7537
▁Note	-7538
▁memo	-7539
▁heads	-7540
▁cancer	-7541
▁quoted	-7542
▁signal	-7543
▁closely	-7544
▁killing	-7545
▁Knowledge	-7546
▁Transport	-7547
▁structures	-7548
lete	-7549
▁signs	-7550
▁bridge	-7551
▁stayed	-7552
esterday	-7553
▁desired	-7554
▁discover	-7555
▁civilization	-7556
UM	-7557
kha	-7558
▁salt	-7559
▁accum	-7560
▁palace	-7561
▁sovere	-7562
▁radical	-7563
▁concluded	-7564
▁dangerous	-7565
▁mountains	-7566
anchi	-7567
enger	-7568
▁Ravi	-7569
▁tract	-7570
▁twice	-7571
▁Kingdom	-7572
▁eminent	-7573
▁experts	-7574
▁persist	-7575
▁sharing	-7576
▁victory	-7577
▁diversity	-7578
▁transformation	-7579
ctor	-7580
▁mun	-7581
▁stim	-7582
ificial	-7583
▁withdraw	-7584
▁ownership	-7585
▁corresponding	-7586
▁NO	-7587
aren	-7588
▁irres	-7589
▁Tribes	-7590
▁rising	-7591
▁photograph	-7592
oyal	-7593
▁via	-7594
▁Phys	-7595
▁ended	-7596
▁visual	-7597
▁multipl	-7598
▁initially	-7599
▁suggestions	-7600
▁developments	-7601
▁Dy	-7602
andra	-7603
▁Make	-7604
▁landl	-7605
hemical	-7606
▁Temple	-7607
▁technique	-7608
▁appreciation	-7609
▁tube	-7610
▁Three	-7611
▁Number	-7612
▁enthus	-7613
▁confirm	-7614
▁falling	-7615
ktop	-7616
▁Fac	-7617
▁pond	-7618
▁Ganesh	-7619
▁Constitu	-7620
▁advertise	-7621
hew	-7622
andi	-7623
▁Goa	-7624
etime	-7625
▁rect	-7626
▁rough	-7627
▁tourist	-7628
▁emotional	-7629
▁naturally	-7630
▁institutional	-7631
vt	-7632
▁Amar	-7633
▁spoken	-7634
▁monthly	-7635
▁inherent	-7636
▁attracted	-7637
▁disclosure	-7638
▁newspapers	-7639
▁imagination	-7640
▁technological	-7641
▁diverse	-7642
▁prospect	-7643
▁reduction	-7644
▁vegetables	-7645
▁strengthening	-7646
NAME	-7647
▁Ear	-7648
▁nav	-7649
▁Gita	-7650
▁Gree	-7651
▁burn	-7652
▁club	-7653
▁jobs	-7654
▁pride	-7655
ICE	-7656
ahan	-7657
▁Chat	-7658
▁settle	-7659
▁alongwith	-7660
PA	-7661
ogen	-7662
▁cum	-7663
▁Keep	-7664
▁forty	-7665
▁index	-7666
▁recip	-7667
▁Suresh	-7668
▁stored	-7669
▁whereby	-7670
▁contempl	-7671
▁supporting	-7672
▁entrepreneur	-7673
▁MP	-7674
▁dil	-7675
unath	-7676
othing	-7677
▁empty	-7678
▁fulfil	-7679
▁necessarily	-7680
▁preliminary	-7681
umes	-7682
▁cas	-7683
▁sites	-7684
▁Online	-7685
▁mistake	-7686
ATE	-7687
▁fle	-7688
▁pipes	-7689
▁genuine	-7690
▁vim	-7691
orders	-7692
▁Green	-7693
▁dress	-7694
▁earned	-7695
▁ruling	-7696
▁offering	-7697
▁whenever	-7698
▁Notwithstanding	-7699
▁od	-7700
arer	-7701
olic	-7702
▁vul	-7703
ropol	-7704
▁sets	-7705
▁incent	-7706
▁subordinate	-7707
ampur	-7708
▁Mach	-7709
▁stuff	-7710
▁consolid	-7711
▁Technical	-7712
▁societies	-7713
▁Governance	-7714
iam	-7715
agon	-7716
celer	-7717
▁Farm	-7718
▁tail	-7719
▁shrine	-7720
▁quarrel	-7721
▁scholar	-7722
▁emerging	-7723
▁enhanced	-7724
▁scheduled	-7725
▁equivalent	-7726
▁experiment	-7727
ino	-7728
itya	-7729
▁Cell	-7730
▁depart	-7731
ordinary	-7732
▁Hindust	-7733
▁separately	-7734
habilitation	-7735
TS	-7736
▁Sil	-7737
plete	-7738
unior	-7739
▁Main	-7740
▁clim	-7741
▁inev	-7742
▁pull	-7743
▁awards	-7744
▁perusal	-7745
▁returns	-7746
▁specify	-7747
▁governed	-7748
▁happening	-7749
▁involvement	-7750
▁Fil	-7751
▁Vig	-7752
▁rhy	-7753
ulous	-7754
▁Mehta	-7755
▁Shyam	-7756
▁older	-7757
▁finger	-7758
iversary	-7759
▁burning	-7760
▁succeeded	-7761
▁CR	-7762
raid	-7763
umari	-7764
▁Cult	-7765
▁newly	-7766
▁breach	-7767
▁harass	-7768
▁childhood	-7769
▁exclusive	-7770
▁corruption	-7771
▁destination	-7772
▁experiences	-7773
▁incorporated	-7774
▁installation	-7775
athi	-7776
▁Have	-7777
ancell	-7778
▁Bhatt	-7779
▁Build	-7780
▁fluid	-7781
▁covers	-7782
iculture	-7783
▁Punjabi	-7784
▁binding	-7785
▁cutting	-7786
▁options	-7787
▁realise	-7788
▁demanded	-7789
▁observation	-7790
▁Institutions	-7791
▁transportation	-7792
▁mo	-7793
▁Aur	-7794
▁fet	-7795
▁Conn	-7796
▁rein	-7797
▁shad	-7798
▁catch	-7799
▁Pratap	-7800
▁Marathi	-7801
▁anticip	-7802
▁reflected	-7803
▁situations	-7804
▁Sushil	-7805
▁regime	-7806
MA	-7807
▁Um	-7808
▁vent	-7809
▁diagn	-7810
▁refuge	-7811
hend	-7812
▁swe	-7813
ffici	-7814
▁Card	-7815
▁cord	-7816
▁stom	-7817
▁overse	-7818
▁publish	-7819
▁calculated	-7820
▁legislature	-7821
▁DW	-7822
life	-7823
▁Mac	-7824
itors	-7825
▁novels	-7826
▁license	-7827
▁gathered	-7828
▁Directors	-7829
▁concerning	-7830
▁retirement	-7831
jo	-7832
she	-7833
▁ww	-7834
ildar	-7835
▁flex	-7836
▁pair	-7837
▁Local	-7838
▁algor	-7839
▁Arabic	-7840
▁Review	-7841
▁condem	-7842
▁testing	-7843
▁Electric	-7844
▁payments	-7845
▁displayed	-7846
▁integrity	-7847
▁allegation	-7848
urg	-7849
▁Naw	-7850
rants	-7851
▁Mahto	-7852
▁Basava	-7853
▁Search	-7854
▁presum	-7855
▁Ayurved	-7856
▁invalid	-7857
▁combined	-7858
▁pictures	-7859
▁vehicles	-7860
▁instituted	-7861
▁Bro	-7862
▁www	-7863
▁Five	-7864
▁scar	-7865
abling	-7866
▁Perhaps	-7867
▁adoption	-7868
▁residing	-7869
▁prejudice	-7870
▁inspection	-7871
▁lac	-7872
ching	-7873
▁acted	-7874
▁goddess	-7875
▁pleased	-7876
▁computers	-7877
▁agreements	-7878
▁Dil	-7879
▁Prim	-7880
astava	-7881
▁Benef	-7882
▁towns	-7883
▁German	-7884
▁earliest	-7885
▁extensive	-7886
▁ministers	-7887
▁beneficial	-7888
ugu	-7889
riev	-7890
▁Sem	-7891
▁metal	-7892
▁editor	-7893
▁entries	-7894
▁missing	-7895
▁belonged	-7896
▁somebody	-7897
mat	-7898
uti	-7899
▁dh	-7900
chant	-7901
▁Bhut	-7902
▁Bills	-7903
▁Check	-7904
▁coord	-7905
▁validity	-7906
▁Mahabharata	-7907
UN	-7908
rane	-7909
▁prol	-7910
▁Claim	-7911
▁Taluk	-7912
▁wheat	-7913
▁Support	-7914
▁progressive	-7915
asy	-7916
lin	-7917
▁Til	-7918
tical	-7919
utosh	-7920
▁Bhai	-7921
▁lamp	-7922
▁resc	-7923
▁Polit	-7924
▁Indira	-7925
▁translated	-7926
bel	-7927
ques	-7928
▁Hot	-7929
▁Mam	-7930
haust	-7931
orous	-7932
▁Death	-7933
▁Obama	-7934
▁worker	-7935
▁routine	-7936
▁disposed	-7937
▁Advocates	-7938
just	-7939
▁hes	-7940
▁Bhav	-7941
▁keen	-7942
ective	-7943
ruddin	-7944
▁legit	-7945
▁muscle	-7946
▁relates	-7947
▁sending	-7948
▁allotted	-7949
▁undertake	-7950
asp	-7951
▁Ha	-7952
▁Sl	-7953
▁View	-7954
▁buff	-7955
▁promise	-7956
▁Muhammad	-7957
▁oriented	-7958
▁replaced	-7959
▁absolutely	-7960
▁Regulations	-7961
▁revolutionary	-7962
anes	-7963
▁tou	-7964
▁zone	-7965
▁mathem	-7966
▁Buddhist	-7967
▁duration	-7968
▁institute	-7969
▁monitoring	-7970
▁residential	-7971
IG	-7972
ki	-7973
▁AC	-7974
▁Lanka	-7975
▁depict	-7976
▁fabric	-7977
▁organs	-7978
▁player	-7979
▁switch	-7980
▁modified	-7981
▁rational	-7982
ald	-7983
lor	-7984
oub	-7985
van	-7986
▁La	-7987
▁Bul	-7988
▁fly	-7989
antly	-7990
▁menu	-7991
rieved	-7992
▁Distt	-7993
▁desir	-7994
▁roots	-7995
▁fairly	-7996
lammation	-7997
▁appreciate	-7998
▁congratulate	-7999
eters	-8000
▁blank	-8001
▁Global	-8002
▁resolve	-8003
▁statute	-8004
▁ultimate	-8005
▁depending	-8006
▁constantly	-8007
▁Departments	-8008
▁SS	-8009
▁Sahib	-8010
▁flour	-8011
▁panch	-8012
▁prefer	-8013
▁programs	-8014
▁implementing	-8015
jit	-8016
zen	-8017
icus	-8018
▁Sit	-8019
▁shr	-8020
ishment	-8021
▁rapidly	-8022
yers	-8023
▁Fol	-8024
▁bare	-8025
▁synt	-8026
▁Chauhan	-8027
▁doctors	-8028
▁Consumer	-8029
▁peaceful	-8030
▁acknowled	-8031
▁Dra	-8032
▁Sov	-8033
▁Youn	-8034
▁wage	-8035
▁Mahal	-8036
▁Create	-8037
▁ending	-8038
▁Consult	-8039
▁driving	-8040
▁imagine	-8041
ether	-8042
▁Para	-8043
▁Never	-8044
▁auton	-8045
▁ideals	-8046
▁circular	-8047
▁destroyed	-8048
▁sensitive	-8049
▁Foundation	-8050
▁resistance	-8051
▁techniques	-8052
▁enterprises	-8053
▁operational	-8054
aked	-8055
▁plug	-8056
▁fired	-8057
▁immun	-8058
▁Castes	-8059
▁estate	-8060
▁handic	-8061
▁careful	-8062
▁interface	-8063
▁occasions	-8064
▁protected	-8065
▁Prevention	-8066
▁originally	-8067
▁television	-8068
var	-8069
unch	-8070
▁Gir	-8071
eding	-8072
▁Area	-8073
▁Baba	-8074
ilation	-8075
▁comments	-8076
▁collective	-8077
▁Ku	-8078
▁Dub	-8079
night	-8080
▁Table	-8081
▁hotel	-8082
itative	-8083
▁inflic	-8084
▁mailing	-8085
▁contrast	-8086
▁endeavour	-8087
▁inclusive	-8088
▁organisms	-8089
agra	-8090
ayat	-8091
▁Kul	-8092
▁pit	-8093
▁wing	-8094
▁cloud	-8095
▁repay	-8096
usively	-8097
▁crucial	-8098
▁attacked	-8099
▁supplied	-8100
▁exception	-8101
▁nominated	-8102
▁conspiracy	-8103
OP	-8104
▁upl	-8105
ropri	-8106
▁Mant	-8107
endous	-8108
▁dying	-8109
charita	-8110
▁Jagann	-8111
▁islands	-8112
▁judgement	-8113
▁Cy	-8114
iche	-8115
▁USA	-8116
▁Orig	-8117
▁Bhagat	-8118
▁empire	-8119
▁furnish	-8120
▁Engineer	-8121
▁obligations	-8122
BC	-8123
aved	-8124
▁decre	-8125
▁Harish	-8126
▁Saraswati	-8127
▁conducting	-8128
Os	-8129
inc	-8130
▁Saudi	-8131
▁sixty	-8132
▁Empire	-8133
▁hostile	-8134
▁indigenous	-8135
sar	-8136
ste	-8137
enda	-8138
▁Miss	-8139
▁Pune	-8140
▁Point	-8141
▁royal	-8142
▁acceptable	-8143
▁Institution	-8144
▁characteristic	-8145
wide	-8146
▁Chh	-8147
ecess	-8148
▁Radi	-8149
▁Town	-8150
▁Persons	-8151
▁disqual	-8152
▁performing	-8153
zy	-8154
ogy	-8155
▁ju	-8156
▁Bag	-8157
▁Mall	-8158
▁Page	-8159
▁homes	-8160
▁lover	-8161
▁assert	-8162
▁pleaded	-8163
▁fertiliz	-8164
▁confirmed	-8165
▁presentation	-8166
▁Naz	-8167
▁wed	-8168
▁Vinod	-8169
▁simult	-8170
▁assumed	-8171
▁assured	-8172
▁chromos	-8173
▁innocent	-8174
▁achieving	-8175
▁interview	-8176
▁perfection	-8177
rh	-8178
sc	-8179
bir	-8180
eenth	-8181
▁Bush	-8182
▁Hard	-8183
▁Paul	-8184
▁pump	-8185
▁thin	-8186
▁urge	-8187
▁Dwark	-8188
▁Malay	-8189
▁slowly	-8190
▁dynamic	-8191
▁helping	-8192
▁Selection	-8193
▁Sucharita	-8194
The	-8195
ishe	-8196
kind	-8197
quar	-8198
ridge	-8199
▁Desh	-8200
▁Venk	-8201
▁busy	-8202
ovable	-8203
▁Black	-8204
▁eating	-8205
▁resign	-8206
▁stones	-8207
▁library	-8208
▁organism	-8209
▁Employment	-8210
JP	-8211
aven	-8212
▁Kesh	-8213
▁snow	-8214
orters	-8215
▁defeat	-8216
▁Current	-8217
▁stomach	-8218
▁Mohammed	-8219
▁stations	-8220
▁strongly	-8221
▁tribunal	-8222
▁competitive	-8223
▁generations	-8224
▁interference	-8225
▁Oh	-8226
rued	-8227
▁Kur	-8228
▁Vide	-8229
▁Forum	-8230
▁grace	-8231
▁Bureau	-8232
▁deduct	-8233
▁Ce	-8234
▁NG	-8235
adra	-8236
▁RBI	-8237
appell	-8238
▁Advis	-8239
▁enorm	-8240
▁spons	-8241
▁models	-8242
▁degrees	-8243
▁secured	-8244
▁Innovation	-8245
HER	-8246
comm	-8247
otal	-8248
rete	-8249
▁Maur	-8250
▁void	-8251
▁shift	-8252
▁listen	-8253
▁partly	-8254
▁refund	-8255
▁Articles	-8256
stig	-8257
▁pend	-8258
▁rose	-8259
apping	-8260
▁Ghosh	-8261
▁Agency	-8262
▁thorough	-8263
ML	-8264
power	-8265
▁Sign	-8266
ocated	-8267
▁horiz	-8268
arkhand	-8269
▁hidden	-8270
▁extraordinary	-8271
aci	-8272
▁Ek	-8273
▁vib	-8274
▁bold	-8275
ounder	-8276
▁Sever	-8277
▁bench	-8278
▁dowry	-8279
▁nerve	-8280
▁Mahesh	-8281
▁evolved	-8282
▁turning	-8283
▁aircraft	-8284
▁constitut	-8285
▁seriously	-8286
▁approached	-8287
▁arbitrator	-8288
▁everywhere	-8289
▁commodities	-8290
▁reservation	-8291
oi	-8292
▁Nic	-8293
▁alien	-8294
▁taxes	-8295
▁ancest	-8296
▁condol	-8297
▁driven	-8298
▁decline	-8299
operation	-8300
▁hundreds	-8301
▁generated	-8302
▁witnessed	-8303
uma	-8304
usp	-8305
▁Lep	-8306
▁elev	-8307
▁lung	-8308
▁Times	-8309
▁rememb	-8310
▁Chancell	-8311
▁audience	-8312
▁entering	-8313
▁historic	-8314
▁fifth	-8315
▁headed	-8316
▁Ahmedabad	-8317
bre	-8318
veer	-8319
▁Nam	-8320
orious	-8321
▁grave	-8322
▁Brahma	-8323
▁Cannot	-8324
▁Jewish	-8325
▁nearby	-8326
▁tongue	-8327
▁Software	-8328
▁interven	-8329
▁parallel	-8330
▁recognize	-8331
▁continuing	-8332
▁frequently	-8333
▁collaboration	-8334
US	-8335
१४	-8336
▁Love	-8337
▁faces	-8338
▁indul	-8339
▁Majesty	-8340
▁realize	-8341
▁undergo	-8342
dh	-8343
▁NS	-8344
▁ly	-8345
▁Que	-8346
rogen	-8347
▁pool	-8348
▁plain	-8349
▁struck	-8350
▁Washing	-8351
▁suggests	-8352
▁terminal	-8353
▁justified	-8354
ittal	-8355
urated	-8356
▁Amrit	-8357
▁Click	-8358
▁Joshi	-8359
▁Third	-8360
▁afraid	-8361
▁summer	-8362
▁batsman	-8363
▁marriages	-8364
▁comprising	-8365
rup	-8366
tar	-8367
▁ma	-8368
▁Nay	-8369
▁Roh	-8370
▁epic	-8371
▁pled	-8372
▁recon	-8373
▁varied	-8374
▁Transfer	-8375
▁attachment	-8376
▁corporation	-8377
cel	-8378
rao	-8379
▁Sudh	-8380
▁Zone	-8381
▁icon	-8382
▁Arora	-8383
▁bread	-8384
▁marry	-8385
▁stars	-8386
▁wings	-8387
onscious	-8388
▁Jo	-8389
▁NE	-8390
▁CHA	-8391
▁IIT	-8392
▁Log	-8393
▁hal	-8394
▁exhaust	-8395
▁disputed	-8396
▁necessity	-8397
▁surrender	-8398
▁yesterday	-8399
▁injunction	-8400
▁establishing	-8401
ador	-8402
eals	-8403
▁Get	-8404
▁bid	-8405
▁Hall	-8406
▁Mess	-8407
▁Misc	-8408
▁Sank	-8409
▁boat	-8410
incial	-8411
▁Urban	-8412
▁deity	-8413
▁carries	-8414
▁Computer	-8415
▁interaction	-8416
HAR	-8417
▁ash	-8418
▁haz	-8419
eches	-8420
▁Help	-8421
father	-8422
▁Compl	-8423
▁grain	-8424
▁Telugu	-8425
▁Terror	-8426
▁servants	-8427
▁Reference	-8428
▁aggregate	-8429
▁inspiration	-8430
sues	-8431
time	-8432
ulus	-8433
▁Opp	-8434
▁ice	-8435
▁fails	-8436
▁Nothing	-8437
indranath	-8438
ART	-8439
▁Ap	-8440
aria	-8441
▁Neg	-8442
▁lap	-8443
oster	-8444
▁Jail	-8445
▁Sach	-8446
▁Save	-8447
▁glad	-8448
▁norms	-8449
inafter	-8450
▁miscon	-8451
▁perpet	-8452
aughters	-8453
▁colleges	-8454
▁colonial	-8455
▁imported	-8456
▁artificial	-8457
▁healthcare	-8458
▁substituted	-8459
what	-8460
▁DAY	-8461
▁ICT	-8462
cular	-8463
nasty	-8464
person	-8465
▁ruler	-8466
▁castes	-8467
▁deserv	-8468
▁satell	-8469
▁readers	-8470
▁Abh	-8471
▁Gen	-8472
▁Mis	-8473
unals	-8474
▁Kail	-8475
▁hurt	-8476
▁wire	-8477
▁Young	-8478
▁motiv	-8479
▁metres	-8480
▁silver	-8481
▁Several	-8482
▁overcome	-8483
▁regulation	-8484
▁kh	-8485
asha	-8486
▁aer	-8487
▁memb	-8488
icating	-8489
▁Soviet	-8490
▁button	-8491
▁devoted	-8492
▁farming	-8493
▁prestig	-8494
ropolitan	-8495
▁sequence	-8496
▁compromise	-8497
▁derivative	-8498
▁conservation	-8499
ij	-8500
▁Heard	-8501
▁bonds	-8502
▁tooth	-8503
▁anywhere	-8504
▁qualified	-8505
was	-8506
▁BE	-8507
herry	-8508
▁miles	-8509
atories	-8510
▁gained	-8511
▁Session	-8512
▁ignored	-8513
▁daughters	-8514
etan	-8515
▁vag	-8516
osted	-8517
▁Crime	-8518
▁Truth	-8519
▁engage	-8520
▁partial	-8521
▁revised	-8522
▁weakness	-8523
▁Oil	-8524
▁pest	-8525
▁Major	-8526
▁Nanak	-8527
▁minority	-8528
▁occupation	-8529
▁hereinafter	-8530
▁Organization	-8531
▁entrepreneurs	-8532
illy	-8533
rase	-8534
utch	-8535
wani	-8536
▁Ten	-8537
▁gap	-8538
▁tor	-8539
▁Docu	-8540
▁Notice	-8541
▁feeding	-8542
▁disorder	-8543
▁multiply	-8544
▁obviously	-8545
▁sentenced	-8546
▁Washington	-8547
▁particulars	-8548
▁qualification	-8549
apati	-8550
▁Play	-8551
▁silk	-8552
▁bears	-8553
▁heirs	-8554
ections	-8555
▁Indeed	-8556
▁worshi	-8557
▁biggest	-8558
▁channels	-8559
▁describe	-8560
▁financing	-8561
▁subjected	-8562
▁Arbitration	-8563
▁determining	-8564
END	-8565
oma	-8566
▁Ga	-8567
▁da	-8568
asim	-8569
▁Lic	-8570
▁Sha	-8571
▁enqu	-8572
▁thread	-8573
▁winter	-8574
▁intense	-8575
agi	-8576
▁CA	-8577
wood	-8578
▁Eff	-8579
▁Pas	-8580
▁Dutt	-8581
▁Works	-8582
▁brill	-8583
▁loose	-8584
▁Dinesh	-8585
▁silent	-8586
▁Housing	-8587
▁occupied	-8588
▁characteristics	-8589
cers	-8590
inth	-8591
▁unn	-8592
arati	-8593
▁inqu	-8594
▁tells	-8595
▁theatre	-8596
▁visiting	-8597
▁consistent	-8598
▁tremendous	-8599
▁exploitation	-8600
▁configuration	-8601
das	-8602
▁Kun	-8603
inath	-8604
oding	-8605
coming	-8606
▁Manoj	-8607
▁Print	-8608
▁Relig	-8609
▁abuse	-8610
▁bigger	-8611
▁compan	-8612
▁positions	-8613
▁contradict	-8614
▁Secretariat	-8615
▁discrimination	-8616
cope	-8617
▁sed	-8618
▁alia	-8619
▁auth	-8620
engers	-8621
▁clock	-8622
▁tasks	-8623
▁cogniz	-8624
▁Japanese	-8625
▁allowing	-8626
▁database	-8627
ori	-8628
▁Gop	-8629
▁Radh	-8630
▁Prabh	-8631
▁Preet	-8632
▁Saroj	-8633
▁penal	-8634
▁widow	-8635
▁closer	-8636
▁Centres	-8637
avas	-8638
▁gif	-8639
▁vacc	-8640
▁charm	-8641
▁maybe	-8642
▁Canada	-8643
▁Scient	-8644
▁upgrad	-8645
▁Manipur	-8646
▁profile	-8647
▁dramatic	-8648
▁references	-8649
▁Cooperative	-8650
rose	-8651
▁Gaj	-8652
▁Yus	-8653
▁mic	-8654
▁Gaut	-8655
▁wave	-8656
▁Narain	-8657
▁Instead	-8658
▁circuit	-8659
▁knowing	-8660
▁outlook	-8661
▁predict	-8662
▁criteria	-8663
▁pregnancy	-8664
▁withdrawn	-8665
▁eventually	-8666
▁Bra	-8667
ocket	-8668
▁Indo	-8669
▁intu	-8670
▁Param	-8671
▁genus	-8672
▁inhab	-8673
▁NATION	-8674
▁Swaraj	-8675
▁circle	-8676
▁enjoyed	-8677
▁precise	-8678
▁thereto	-8679
akrishnan	-8680
▁Promotion	-8681
▁stability	-8682
sa	-8683
▁adm	-8684
▁Amit	-8685
▁Mill	-8686
▁delete	-8687
▁organic	-8688
▁periods	-8689
▁claiming	-8690
▁detention	-8691
▁empowered	-8692
▁returning	-8693
asion	-8694
erals	-8695
onent	-8696
▁Norm	-8697
▁unex	-8698
▁Baner	-8699
▁Indra	-8700
▁larva	-8701
entions	-8702
▁Action	-8703
isp	-8704
▁ha	-8705
▁Rup	-8706
▁Sak	-8707
▁Prad	-8708
ilance	-8709
▁knife	-8710
▁Access	-8711
▁Chaudh	-8712
▁Reform	-8713
▁golden	-8714
▁thrown	-8715
▁pursuant	-8716
▁classical	-8717
▁ignorance	-8718
sem	-8719
want	-8720
▁Sea	-8721
akers	-8722
▁Kath	-8723
▁meal	-8724
▁stup	-8725
ogether	-8726
▁answers	-8727
▁premium	-8728
▁walking	-8729
▁attempts	-8730
▁Jharkhand	-8731
▁varieties	-8732
ios	-8733
▁BY	-8734
acle	-8735
pent	-8736
▁Tom	-8737
▁Vas	-8738
iders	-8739
uliar	-8740
▁Phot	-8741
▁Tour	-8742
▁idol	-8743
▁sake	-8744
esting	-8745
▁Pension	-8746
▁Judgment	-8747
▁Prosecutor	-8748
▁territories	-8749
▁modification	-8750
MC	-8751
▁Gos	-8752
▁mood	-8753
employ	-8754
▁Others	-8755
▁Recomm	-8756
▁Topics	-8757
▁corrob	-8758
▁hereby	-8759
lessness	-8760
▁musical	-8761
▁package	-8762
▁Himalayas	-8763
mans	-8764
onic	-8765
▁indu	-8766
rative	-8767
▁enlar	-8768
▁inputs	-8769
▁repair	-8770
▁Without	-8771
▁genetic	-8772
▁abnormal	-8773
▁peculiar	-8774
▁radiation	-8775
▁withdrawal	-8776
▁disciplinary	-8777
oga	-8778
down	-8779
isha	-8780
▁Ris	-8781
▁spr	-8782
idency	-8783
▁Level	-8784
▁Thank	-8785
▁tests	-8786
▁Valley	-8787
▁propri	-8788
lamation	-8789
▁Appeals	-8790
▁kilomet	-8791
▁answered	-8792
▁profound	-8793
▁protocol	-8794
▁preceding	-8795
held	-8796
lock	-8797
being	-8798
ounded	-8799
ussain	-8800
▁Hasan	-8801
▁Yusuf	-8802
▁shell	-8803
▁easier	-8804
▁united	-8805
▁formula	-8806
▁reducing	-8807
▁exceeding	-8808
▁increases	-8809
▁nutrition	-8810
▁integration	-8811
how	-8812
iki	-8813
met	-8814
▁Gre	-8815
▁Hit	-8816
▁Kot	-8817
alaya	-8818
ogram	-8819
▁mine	-8820
▁Entry	-8821
▁admit	-8822
▁alarm	-8823
▁shout	-8824
▁impose	-8825
▁auction	-8826
▁pillars	-8827
▁surgery	-8828
▁mortgage	-8829
▁precious	-8830
▁restricted	-8831
yar	-8832
oult	-8833
▁Str	-8834
▁van	-8835
ipped	-8836
▁Sult	-8837
▁dear	-8838
▁Treat	-8839
▁devote	-8840
▁acquire	-8841
criptions	-8842
▁bacteria	-8843
▁darkness	-8844
▁produces	-8845
▁compulsory	-8846
eri	-8847
itate	-8848
ulates	-8849
▁brown	-8850
▁turns	-8851
▁Mobile	-8852
▁farmer	-8853
ificates	-8854
▁threatened	-8855
▁experienced	-8856
ALL	-8857
auc	-8858
▁IR	-8859
acco	-8860
orce	-8861
▁Lar	-8862
▁Six	-8863
▁Care	-8864
▁Next	-8865
▁Vire	-8866
▁Short	-8867
atively	-8868
▁mining	-8869
▁Academy	-8870
▁observe	-8871
▁Recovery	-8872
▁somewhat	-8873
▁residents	-8874
▁Investment	-8875
▁Enterprises	-8876
▁conversation	-8877
oa	-8878
idal	-8879
oure	-8880
▁Mas	-8881
▁oxy	-8882
▁Narm	-8883
▁axis	-8884
regular	-8885
▁flight	-8886
▁preval	-8887
▁reserve	-8888
▁remembered	-8889
▁Examination	-8890
▁realisation	-8891
odox	-8892
rian	-8893
▁End	-8894
▁hect	-8895
lihood	-8896
▁magaz	-8897
▁praise	-8898
▁smooth	-8899
▁spring	-8900
▁windows	-8901
▁convinced	-8902
EECH	-8903
▁cav	-8904
itary	-8905
▁Spec	-8906
hement	-8907
rained	-8908
▁shoot	-8909
▁SPEECH	-8910
▁Speech	-8911
▁motive	-8912
▁attained	-8913
▁reliable	-8914
roll	-8915
▁Bagh	-8916
▁fron	-8917
lessly	-8918
▁mould	-8919
▁plane	-8920
▁Estate	-8921
▁daniel	-8922
▁silence	-8923
▁enabling	-8924
▁intermedi	-8925
▁authorized	-8926
ett	-8927
pay	-8928
▁IV	-8929
plex	-8930
▁Mean	-8931
isible	-8932
▁cater	-8933
▁wider	-8934
itarian	-8935
▁Netaji	-8936
▁native	-8937
▁unlike	-8938
▁Railways	-8939
▁acquitted	-8940
▁Constitutional	-8941
rue	-8942
uts	-8943
▁Bij	-8944
▁clin	-8945
▁lingu	-8946
▁Center	-8947
▁Islands	-8948
▁acceler	-8949
▁Standard	-8950
▁wherever	-8951
ario	-8952
▁Kat	-8953
icing	-8954
▁stab	-8955
arency	-8956
▁Madan	-8957
▁reads	-8958
▁nobody	-8959
▁saving	-8960
▁essence	-8961
▁describes	-8962
▁membership	-8963
▁reputation	-8964
▁succession	-8965
▁NH	-8966
emia	-8967
ipher	-8968
▁Mart	-8969
ashion	-8970
▁relax	-8971
▁wheel	-8972
▁programming	-8973
ford	-8974
omous	-8975
▁font	-8976
commun	-8977
▁incom	-8978
fulness	-8979
▁pretty	-8980
▁reposted	-8981
▁vehement	-8982
▁perspective	-8983
IST	-8984
ukh	-8985
bind	-8986
acing	-8987
▁pace	-8988
▁broke	-8989
▁sheep	-8990
ologist	-8991
▁Primary	-8992
▁Quality	-8993
▁calendar	-8994
▁contacts	-8995
ued	-8996
▁fo	-8997
khar	-8998
▁Azad	-8999
▁Desp	-9000
▁Rece	-9001
▁Sukh	-9002
▁Take	-9003
▁dish	-9004
▁push	-9005
▁acres	-9006
▁borne	-9007
▁march	-9008
▁merits	-9009
▁retain	-9010
▁institutes	-9011
▁proposition	-9012
icer	-9013
chers	-9014
▁Puri	-9015
holder	-9016
▁evalu	-9017
▁shops	-9018
▁concur	-9019
▁clauses	-9020
▁conform	-9021
▁granting	-9022
▁tourists	-9023
▁immovable	-9024
▁geographical	-9025
ato	-9026
kal	-9027
ped	-9028
uate	-9029
▁Haz	-9030
▁alcoh	-9031
▁Kanpur	-9032
▁fought	-9033
▁disturb	-9034
▁Commerce	-9035
▁proceeds	-9036
▁governing	-9037
▁engagement	-9038
▁exclusively	-9039
▁increasingly	-9040
book	-9041
▁Jit	-9042
▁sul	-9043
▁scre	-9044
▁kings	-9045
▁Lahore	-9046
▁lawyer	-9047
▁Bhagwan	-9048
▁declare	-9049
▁telling	-9050
▁actively	-9051
▁incidents	-9052
▁disability	-9053
▁termination	-9054
oty	-9055
▁Ve	-9056
▁Jat	-9057
apore	-9058
▁Vict	-9059
▁tall	-9060
▁brand	-9061
▁films	-9062
▁Ranchi	-9063
▁neglig	-9064
▁urgent	-9065
▁enlight	-9066
▁Gujarati	-9067
▁printing	-9068
▁Badruddin	-9069
▁personally	-9070
▁reiterated	-9071
▁controversy	-9072
▁restrictions	-9073
▁approximately	-9074
TE	-9075
aha	-9076
▁HT	-9077
jeet	-9078
▁Yam	-9079
▁mil	-9080
stone	-9081
▁semi	-9082
▁keeps	-9083
▁risks	-9084
▁texts	-9085
▁genius	-9086
▁Deposit	-9087
▁mankind	-9088
▁finished	-9089
▁pendency	-9090
▁promoted	-9091
airy	-9092
▁crowd	-9093
▁deeds	-9094
▁Bhutan	-9095
▁adults	-9096
▁faster	-9097
▁heaven	-9098
ographic	-9099
▁lawyers	-9100
▁reveals	-9101
▁Mahendra	-9102
nic	-9103
▁Mut	-9104
aimed	-9105
ivals	-9106
▁Push	-9107
▁Rath	-9108
alysis	-9109
otions	-9110
▁Light	-9111
▁abdom	-9112
▁feels	-9113
▁loved	-9114
▁Unable	-9115
▁resort	-9116
▁reveal	-9117
ospitals	-9118
▁arrival	-9119
▁equation	-9120
▁vacancies	-9121
DI	-9122
co	-9123
▁AN	-9124
▁CL	-9125
▁Ish	-9126
▁Tuls	-9127
▁calm	-9128
▁Krishn	-9129
▁firmly	-9130
▁handle	-9131
▁hearts	-9132
quarters	-9133
▁machines	-9134
▁encouraging	-9135
TP	-9136
▁Da	-9137
ffee	-9138
arest	-9139
earing	-9140
▁nodes	-9141
▁penet	-9142
▁......	-9143
▁Mahade	-9144
▁adding	-9145
▁Resource	-9146
▁shoulder	-9147
▁surprise	-9148
▁preparing	-9149
▁complicated	-9150
▁communications	-9151
ouds	-9152
▁cin	-9153
alled	-9154
▁anal	-9155
▁drag	-9156
icable	-9157
▁Grant	-9158
▁chart	-9159
inarily	-9160
▁Ganges	-9161
▁artist	-9162
▁gentle	-9163
▁imports	-9164
▁surrounded	-9165
▁investigating	-9166
abi	-9167
rous	-9168
▁Nil	-9169
▁Pvt	-9170
▁Gard	-9171
▁apex	-9172
▁diam	-9173
▁mole	-9174
▁ther	-9175
▁forum	-9176
▁litig	-9177
▁paddy	-9178
▁worry	-9179
▁worse	-9180
▁agents	-9181
▁arrive	-9182
▁harmful	-9183
▁satisfy	-9184
▁enormous	-9185
▁addresses	-9186
▁elsewhere	-9187
▁accommodation	-9188
SA	-9189
di	-9190
haz	-9191
ken	-9192
▁Si	-9193
chen	-9194
lers	-9195
oose	-9196
archy	-9197
▁spin	-9198
▁batter	-9199
▁talent	-9200
▁Product	-9201
▁motorcy	-9202
▁deciding	-9203
eta	-9204
angle	-9205
avior	-9206
aluation	-9207
ifferent	-9208
▁literacy	-9209
▁province	-9210
▁Islamists	-9211
▁pursuance	-9212
FC	-9213
aland	-9214
▁luck	-9215
▁tied	-9216
▁acute	-9217
▁Modern	-9218
▁butter	-9219
▁outcome	-9220
▁discovery	-9221
▁aspirations	-9222
▁conventional	-9223
PL	-9224
orry	-9225
endix	-9226
hical	-9227
▁Chal	-9228
▁Thir	-9229
▁Kabir	-9230
▁depre	-9231
▁handling	-9232
gue	-9233
upon	-9234
▁bin	-9235
▁kit	-9236
grade	-9237
▁Long	-9238
▁jump	-9239
▁oath	-9240
arding	-9241
▁genes	-9242
▁Design	-9243
▁dreams	-9244
▁tribes	-9245
▁African	-9246
▁forming	-9247
▁assessed	-9248
▁slightly	-9249
▁Recommend	-9250
▁measuring	-9251
▁CC	-9252
isal	-9253
reet	-9254
▁Pip	-9255
▁unp	-9256
▁shap	-9257
asmuch	-9258
▁Khand	-9259
▁Plant	-9260
▁beach	-9261
▁plate	-9262
▁island	-9263
▁pursue	-9264
▁anybody	-9265
▁browser	-9266
▁issuing	-9267
▁algorithm	-9268
▁everybody	-9269
▁excessive	-9270
▁Settlement	-9271
▁designated	-9272
ulum	-9273
will	-9274
▁CBI	-9275
▁Vedas	-9276
▁begun	-9277
▁incap	-9278
▁divers	-9279
▁vessels	-9280
▁certified	-9281
▁irregular	-9282
▁vehemently	-9283
▁din	-9284
▁nose	-9285
▁Samaj	-9286
▁ambit	-9287
▁arose	-9288
▁conqu	-9289
▁logic	-9290
▁shifted	-9291
▁expanded	-9292
▁networks	-9293
urt	-9294
▁Os	-9295
rich	-9296
thal	-9297
▁Old	-9298
▁Begum	-9299
ributes	-9300
▁Region	-9301
▁Finally	-9302
▁Hussain	-9303
▁complim	-9304
▁massive	-9305
▁plastic	-9306
▁Sections	-9307
▁monetary	-9308
▁presents	-9309
▁highlight	-9310
DR	-9311
abu	-9312
agn	-9313
▁AG	-9314
▁SA	-9315
▁py	-9316
akings	-9317
itated	-9318
terior	-9319
▁Tilak	-9320
▁owners	-9321
opl	-9322
adhy	-9323
arus	-9324
wing	-9325
▁Ank	-9326
▁Jai	-9327
▁Yoj	-9328
▁fan	-9329
agues	-9330
amboo	-9331
▁http	-9332
▁orth	-9333
resident	-9334
▁speeches	-9335
▁separated	-9336
ads	-9337
ibi	-9338
▁NIT	-9339
▁mit	-9340
▁Wild	-9341
▁hide	-9342
▁lake	-9343
▁brave	-9344
▁bride	-9345
theless	-9346
▁creates	-9347
▁breaking	-9348
▁exchanges	-9349
lier	-9350
side	-9351
oters	-9352
▁Auro	-9353
▁Rang	-9354
▁Srin	-9355
▁dies	-9356
▁hunt	-9357
ESSAGE	-9358
▁snake	-9359
▁assemb	-9360
▁levied	-9361
▁resear	-9362
▁savings	-9363
▁Ministries	-9364
opp	-9365
▁EX	-9366
emat	-9367
kumar	-9368
ulent	-9369
▁Sahu	-9370
▁shut	-9371
▁assign	-9372
▁marginal	-9373
▁Resources	-9374
▁Standards	-9375
▁aggrieved	-9376
▁expertise	-9377
▁applicants	-9378
▁stakeholders	-9379
,00	-9380
onda	-9381
▁Down	-9382
▁Loan	-9383
▁seas	-9384
▁tons	-9385
▁holid	-9386
▁Nation	-9387
▁thinks	-9388
▁Iranian	-9389
roid	-9390
▁Display	-9391
▁Hanuman	-9392
▁nervous	-9393
▁livelihood	-9394
▁intervention	-9395
arti	-9396
ocks	-9397
sore	-9398
▁Nal	-9399
▁Dass	-9400
cement	-9401
itudes	-9402
▁usage	-9403
▁troops	-9404
▁fashion	-9405
▁keyboard	-9406
▁Americans	-9407
awn	-9408
MENT	-9409
▁Ber	-9410
▁Ran	-9411
ighth	-9412
▁Jews	-9413
▁Basic	-9414
▁cease	-9415
▁taste	-9416
▁trekk	-9417
▁oxygen	-9418
▁prayed	-9419
▁Windows	-9420
▁Mohammad	-9421
▁breeding	-9422
▁doctrine	-9423
▁extending	-9424
▁cooperative	-9425
▁rehabilitation	-9426
UD	-9427
▁ul	-9428
▁sho	-9429
chief	-9430
▁Cost	-9431
▁Kitt	-9432
▁Citiz	-9433
▁Journ	-9434
▁MESSAGE	-9435
▁avoided	-9436
▁Evidence	-9437
▁supports	-9438
▁sympathy	-9439
▁prevailing	-9440
▁challenging	-9441
UG	-9442
▁gro	-9443
▁sar	-9444
▁amaz	-9445
▁tack	-9446
▁David	-9447
▁Grand	-9448
▁noble	-9449
▁laying	-9450
▁Leprosy	-9451
▁hardware	-9452
▁instruct	-9453
oven	-9454
▁rat	-9455
astri	-9456
place	-9457
▁suits	-9458
▁interc	-9459
▁margin	-9460
▁Register	-9461
▁retained	-9462
▁envisaged	-9463
▁delegation	-9464
▁Electricity	-9465
▁notwithstanding	-9466
AYS	-9467
aza	-9468
ayya	-9469
ulla	-9470
▁Camp	-9471
▁Succ	-9472
inking	-9473
▁dates	-9474
▁movie	-9475
▁affects	-9476
▁desktop	-9477
▁utilised	-9478
▁Dictionary	-9479
▁terrorists	-9480
▁surrounding	-9481
bles	-9482
hesis	-9483
▁stem	-9484
▁Estab	-9485
▁abund	-9486
▁transc	-9487
▁Schools	-9488
▁mineral	-9489
▁entrance	-9490
▁generate	-9491
▁Societies	-9492
▁allocation	-9493
eda	-9494
kim	-9495
aunt	-9496
iram	-9497
▁Nig	-9498
▁sees	-9499
▁Audit	-9500
▁incons	-9501
▁Airport	-9502
▁William	-9503
▁decimal	-9504
▁players	-9505
▁applying	-9506
▁dialogue	-9507
▁murdered	-9508
१५	-9509
udge	-9510
arshan	-9511
▁bones	-9512
▁topic	-9513
▁uncon	-9514
▁insert	-9515
▁visits	-9516
▁Santosh	-9517
▁insurer	-9518
▁laboure	-9519
▁subsidy	-9520
▁Movement	-9521
AK	-9522
AND	-9523
rip	-9524
▁Fa	-9525
▁Ru	-9526
gaon	-9527
odal	-9528
wati	-9529
avati	-9530
idity	-9531
▁arts	-9532
▁fled	-9533
wahati	-9534
▁Media	-9535
▁fract	-9536
▁vulner	-9537
▁Despite	-9538
▁endorse	-9539
▁inasmuch	-9540
▁grievance	-9541
▁formulation	-9542
▁territorial	-9543
▁Organisation	-9544
▁Ib	-9545
awar	-9546
vara	-9547
▁tow	-9548
▁monu	-9549
▁pion	-9550
▁Solar	-9551
▁anger	-9552
▁domin	-9553
▁india	-9554
▁optim	-9555
attered	-9556
▁protest	-9557
▁inferior	-9558
▁landlord	-9559
▁requisite	-9560
▁deposition	-9561
wat	-9562
▁AW	-9563
▁IPv	-9564
▁Geet	-9565
▁Perm	-9566
▁Sriv	-9567
▁drew	-9568
▁affili	-9569
▁Parishad	-9570
▁Property	-9571
▁overseas	-9572
UK	-9573
▁Ud	-9574
▁lov	-9575
▁Imple	-9576
▁sounds	-9577
▁singing	-9578
▁patterns	-9579
▁realized	-9580
▁receipts	-9581
▁tendency	-9582
▁allotment	-9583
▁relatively	-9584
▁Grad	-9585
▁Hans	-9586
▁fate	-9587
abetes	-9588
iceroy	-9589
▁glory	-9590
anishad	-9591
istical	-9592
▁plains	-9593
▁solemn	-9594
▁Default	-9595
▁broadcast	-9596
▁enhancing	-9597
▁fulfilled	-9598
▁collecting	-9599
obi	-9600
anim	-9601
▁Hus	-9602
▁Fire	-9603
acific	-9604
olving	-9605
▁Menon	-9606
▁perce	-9607
▁kumari	-9608
▁focused	-9609
▁winning	-9610
▁Chandigarh	-9611
▁colleagues	-9612
▁participated	-9613
BER	-9614
aras	-9615
adequ	-9616
▁palm	-9617
▁Minimum	-9618
▁protein	-9619
▁Attorney	-9620
▁Guwahati	-9621
▁cultures	-9622
▁studying	-9623
▁allegedly	-9624
▁shareholders	-9625
wali	-9626
▁Mer	-9627
▁voc	-9628
▁Exper	-9629
▁Mahav	-9630
▁burnt	-9631
▁cadre	-9632
▁tenure	-9633
▁coloured	-9634
▁commerce	-9635
▁estimate	-9636
▁preserve	-9637
▁irrespective	-9638
▁qualifications	-9639
isan	-9640
more	-9641
wami	-9642
▁Kaly	-9643
▁cryst	-9644
▁planet	-9645
▁stable	-9646
▁writes	-9647
▁jointly	-9648
▁tolerance	-9649
▁Integrated	-9650
▁electrical	-9651
ilas	-9652
▁Star	-9653
▁Pract	-9654
▁rhyth	-9655
▁speedy	-9656
▁dividend	-9657
▁Himalayan	-9658
▁accounting	-9659
ITY	-9660
aph	-9661
▁Had	-9662
▁isn	-9663
▁Garg	-9664
▁sword	-9665
▁Rajput	-9666
▁Sindhi	-9667
▁harmon	-9668
▁streams	-9669
▁possibly	-9670
▁dimension	-9671
▁presently	-9672
▁prevention	-9673
nut	-9674
▁ho	-9675
▁Enc	-9676
▁Tib	-9677
rible	-9678
▁Ball	-9679
▁Poly	-9680
▁Soon	-9681
▁Desai	-9682
▁Labor	-9683
▁Space	-9684
▁Repeal	-9685
▁couldn	-9686
▁doubts	-9687
▁exempt	-9688
▁mixture	-9689
▁printer	-9690
▁commodity	-9691
▁addressing	-9692
▁functional	-9693
▁participants	-9694
▁Environmental	-9695
UB	-9696
▁MW	-9697
soon	-9698
▁bug	-9699
▁hung	-9700
enders	-9701
lowing	-9702
▁Arjun	-9703
▁Medic	-9704
▁disag	-9705
▁doors	-9706
▁hyper	-9707
▁spell	-9708
▁Aurang	-9709
▁Mysore	-9710
▁agenda	-9711
▁assume	-9712
▁vimana	-9713
▁authors	-9714
▁Narendra	-9715
▁reserves	-9716
▁unemploy	-9717
osa	-9718
▁Je	-9719
veen	-9720
ymph	-9721
▁EVE	-9722
acles	-9723
pathi	-9724
▁Type	-9725
▁fallen	-9726
▁pestic	-9727
▁denomin	-9728
▁phenomenon	-9729
▁liabilities	-9730
atti	-9731
pled	-9732
▁rab	-9733
abhai	-9734
▁Adal	-9735
▁Kant	-9736
▁rear	-9737
▁Arabs	-9738
▁overl	-9739
▁plead	-9740
manship	-9741
▁Status	-9742
▁Natural	-9743
▁managing	-9744
▁scrutiny	-9745
▁objections	-9746
▁innovations	-9747
▁permissible	-9748
▁advertisement	-9749
EST	-9750
list	-9751
▁ped	-9752
plant	-9753
▁Conv	-9754
▁Gaur	-9755
▁figh	-9756
ressal	-9757
usions	-9758
▁photo	-9759
▁Forces	-9760
▁freely	-9761
▁reward	-9762
▁tempor	-9763
ramental	-9764
▁damages	-9765
▁wearing	-9766
▁repealed	-9767
▁grievances	-9768
▁mechanical	-9769
▁substantially	-9770
-0	-9771
▁AR	-9772
hani	-9773
gical	-9774
▁ages	-9775
▁fond	-9776
▁rape	-9777
asures	-9778
▁grade	-9779
▁magic	-9780
▁Museum	-9781
▁equals	-9782
▁picked	-9783
▁enables	-9784
▁exceeds	-9785
▁Community	-9786
▁experiments	-9787
▁limitations	-9788
vals	-9789
▁bes	-9790
▁unh	-9791
▁Parm	-9792
▁thro	-9793
▁Quran	-9794
▁allied	-9795
▁deploy	-9796
▁Aurobind	-9797
▁sleeping	-9798
▁accepting	-9799
▁rendering	-9800
▁Dwarkanath	-9801
▁Notification	-9802
▁simultaneously	-9803
utra	-9804
▁Cro	-9805
▁cup	-9806
▁Priy	-9807
▁mant	-9808
ickets	-9809
▁Video	-9810
▁annex	-9811
▁bless	-9812
▁reass	-9813
▁Sultan	-9814
▁forgot	-9815
▁grains	-9816
▁humans	-9817
▁liquor	-9818
▁serves	-9819
▁specim	-9820
▁distant	-9821
▁Ayurveda	-9822
▁Territory	-9823
▁accompany	-9824
▁imperialism	-9825
▁unconscious	-9826
▁Metropolitan	-9827
DC	-9828
▁Tat	-9829
▁Cond	-9830
▁Fest	-9831
▁flows	-9832
▁tight	-9833
▁Subject	-9834
▁claimant	-9835
▁substitute	-9836
▁substantive	-9837
▁continuously	-9838
SL	-9839
ocy	-9840
aser	-9841
pass	-9842
tain	-9843
▁bio	-9844
▁Marg	-9845
▁Saha	-9846
▁disb	-9847
oultry	-9848
▁Ident	-9849
▁favor	-9850
▁toward	-9851
▁drought	-9852
▁Christians	-9853
▁Constituent	-9854
▁concentration	-9855
Ms	-9856
wad	-9857
▁Dip	-9858
▁Job	-9859
▁apt	-9860
ulses	-9861
▁Pill	-9862
▁ster	-9863
▁Cross	-9864
▁enfor	-9865
▁Father	-9866
▁insult	-9867
▁Russian	-9868
▁dynasty	-9869
▁Controller	-9870
▁motorcycle	-9871
▁Radhakrishnan	-9872
▁categorically	-9873
aki	-9874
▁Ke	-9875
eers	-9876
▁Vaj	-9877
▁tum	-9878
oxide	-9879
▁Meet	-9880
▁unus	-9881
stream	-9882
▁Doctor	-9883
▁Viceroy	-9884
▁cooking	-9885
▁deleted	-9886
▁destiny	-9887
▁suspect	-9888
▁Question	-9889
fe	-9890
kin	-9891
▁Jer	-9892
▁Opt	-9893
▁rup	-9894
▁Alam	-9895
▁storm	-9896
▁Sikkim	-9897
▁bought	-9898
▁Freedom	-9899
▁enemies	-9900
▁balanced	-9901
▁issuance	-9902
▁Political	-9903
▁contracts	-9904
▁interfere	-9905
▁Rabindranath	-9906
▁verification	-9907
EC	-9908
EP	-9909
elt	-9910
ganj	-9911
zing	-9912
▁Occ	-9913
▁Ras	-9914
▁ine	-9915
orate	-9916
ushan	-9917
▁Mary	-9918
▁tact	-9919
▁Ocean	-9920
▁trick	-9921
rection	-9922
tension	-9923
▁affirm	-9924
▁meters	-9925
▁resemb	-9926
▁sharma	-9927
▁Library	-9928
▁superst	-9929
▁NATIONAL	-9930
▁believes	-9931
▁narrated	-9932
▁Malayalam	-9933
▁wonderful	-9934
log	-9935
▁Tool	-9936
ailable	-9937
▁Satish	-9938
▁Spirit	-9939
▁Singles	-9940
▁skilled	-9941
▁tissues	-9942
▁vitamin	-9943
▁Aurobindo	-9944
▁legitimate	-9945
▁sq	-9946
,000	-9947
point	-9948
▁Lect	-9949
▁Vers	-9950
▁spir	-9951
agraha	-9952
soever	-9953
▁Mitra	-9954
▁actor	-9955
▁guess	-9956
ichever	-9957
▁Agarwal	-9958
▁notices	-9959
▁thereon	-9960
▁Appendix	-9961
▁Singapore	-9962
▁festivals	-9963
▁attractive	-9964
▁evaluation	-9965
▁formulated	-9966
▁capabilities	-9967
▁Based	-9968
▁Greek	-9969
▁Sikhs	-9970
▁absent	-9971
▁Customs	-9972
▁Maharaj	-9973
▁untouch	-9974
▁Abdullah	-9975
▁Banerjee	-9976
▁Building	-9977
▁desirable	-9978
▁prisoners	-9979
▁dedication	-9980
▁connections	-9981
▁appointments	-9982
▁satisfactory	-9983
bu	-9984
rot	-9985
ENCE	-9986
inee	-9987
rass	-9988
▁Agg	-9989
arded	-9990
plate	-9991
endant	-9992
▁chick	-9993
▁relie	-9994
ciences	-9995
▁denial	-9996
▁museum	-9997
▁shadow	-9998
▁Federal	-9999
▁shelter	-10000
▁subsidi	-10001
▁Projects	-10002
▁advances	-10003
▁attempted	-10004
▁inevitable	-10005
▁practition	-10006
▁productive	-10007
▁Py	-10008
PTER	-10009
fare	-10010
▁Jha	-10011
aming	-10012
araja	-10013
▁Proc	-10014
▁peak	-10015
▁wake	-10016
▁Dubey	-10017
▁penis	-10018
▁width	-10019
▁Junior	-10020
▁emerge	-10021
▁muscles	-10022
▁reconst	-10023
▁Northern	-10024
▁chemicals	-10025
▁identical	-10026
▁separation	-10027
▁substances	-10028
vas	-10029
tery	-10030
▁Run	-10031
▁Vad	-10032
▁Guid	-10033
▁helpl	-10034
▁label	-10035
▁talks	-10036
▁Budget	-10037
▁eleven	-10038
▁habits	-10039
▁jewell	-10040
▁lesser	-10041
▁plural	-10042
▁therap	-10043
▁helpful	-10044
▁lending	-10045
▁Chemical	-10046
▁declined	-10047
▁pregnant	-10048
▁enactment	-10049
orticulture	-10050
uta	-10051
▁tob	-10052
▁Real	-10053
▁epis	-10054
▁tape	-10055
▁Indus	-10056
▁diver	-10057
▁reign	-10058
holding	-10059
▁losses	-10060
▁titled	-10061
ertained	-10062
▁exposed	-10063
▁federal	-10064
▁logical	-10065
▁acquaint	-10066
▁Choudhury	-10067
▁examining	-10068
▁transmitted	-10069
BS	-10070
aga	-10071
▁BI	-10072
udra	-10073
▁Line	-10074
▁mart	-10075
▁mango	-10076
▁vacant	-10077
▁Monitor	-10078
▁inadequ	-10079
▁permits	-10080
▁strictly	-10081
▁arbitrary	-10082
▁prevalent	-10083
▁parameters	-10084
uja	-10085
eren	-10086
▁Ken	-10087
valid	-10088
▁beet	-10089
▁kidney	-10090
▁Kailash	-10091
▁extends	-10092
▁holders	-10093
▁warning	-10094
▁Original	-10095
▁indirectly	-10096
▁liberation	-10097
uda	-10098
▁IF	-10099
▁ji	-10100
amed	-10101
iasm	-10102
▁Age	-10103
▁Unf	-10104
▁rot	-10105
achar	-10106
cence	-10107
▁Call	-10108
▁Pack	-10109
inions	-10110
▁Mater	-10111
▁immig	-10112
▁imple	-10113
▁votes	-10114
▁ceremon	-10115
▁streets	-10116
▁summary	-10117
▁railways	-10118
▁whichever	-10119
▁exercising	-10120
▁#	-10121
▁Bor	-10122
▁Tre	-10123
aksha	-10124
oused	-10125
▁Nirm	-10126
▁Sham	-10127
▁bulk	-10128
▁tiny	-10129
▁Issue	-10130
▁foods	-10131
viation	-10132
▁advent	-10133
▁thrust	-10134
▁Banking	-10135
▁Command	-10136
▁borrower	-10137
▁fraction	-10138
▁medicines	-10139
▁Panchayats	-10140
▁approaches	-10141
▁postmortem	-10142
▁transparent	-10143
▁developmental	-10144
LA	-10145
uds	-10146
obar	-10147
phal	-10148
wala	-10149
▁Baj	-10150
▁Bid	-10151
▁Bhat	-10152
▁Rate	-10153
ipping	-10154
liness	-10155
▁Dutta	-10156
▁Hotel	-10157
▁fatal	-10158
▁remun	-10159
▁Bhawan	-10160
▁deeper	-10161
▁legend	-10162
▁patron	-10163
▁Protocol	-10164
▁deserves	-10165
▁excluded	-10166
▁affecting	-10167
▁correctly	-10168
▁nomination	-10169
TC	-10170
ca	-10171
▁Gor	-10172
▁tap	-10173
▁Link	-10174
acular	-10175
▁alcohol	-10176
▁crossing	-10177
▁Corporate	-10178
▁Upanishad	-10179
▁thereunder	-10180
▁certificates	-10181
▁publications	-10182
▁transparency	-10183
MM	-10184
hot	-10185
▁Bod	-10186
▁Lak	-10187
▁Mak	-10188
▁Wik	-10189
akshi	-10190
chron	-10191
▁Kaus	-10192
▁Audio	-10193
▁Royal	-10194
▁Total	-10195
▁ports	-10196
▁Arabia	-10197
▁flying	-10198
▁fright	-10199
▁intern	-10200
▁CHAPTER	-10201
▁Personal	-10202
▁gathering	-10203
▁commencing	-10204
▁connecting	-10205
eem	-10206
tha	-10207
▁ov	-10208
noon	-10209
▁rig	-10210
▁tag	-10211
▁Body	-10212
onomic	-10213
▁Rajiv	-10214
▁repro	-10215
▁deaths	-10216
▁utmost	-10217
▁incentives	-10218
▁Palestinians	-10219
eph	-10220
keep	-10221
king	-10222
pons	-10223
udev	-10224
▁Raw	-10225
▁Suf	-10226
▁Ghat	-10227
▁Lake	-10228
▁bore	-10229
erated	-10230
wealth	-10231
▁Along	-10232
▁Koran	-10233
▁rival	-10234
▁Contin	-10235
▁Rajeev	-10236
▁videos	-10237
▁viewed	-10238
chnology	-10239
▁Emperor	-10240
▁Invalid	-10241
▁cancell	-10242
▁disaster	-10243
▁watching	-10244
▁Arunachal	-10245
▁elaborate	-10246
▁valuation	-10247
▁Chancellor	-10248
▁altogether	-10249
▁passengers	-10250
▁previously	-10251
▁Educational	-10252
▁appreciated	-10253
▁Consequently	-10254
agu	-10255
bly	-10256
cut	-10257
▁MC	-10258
unct	-10259
▁Gas	-10260
▁moh	-10261
oning	-10262
▁lord	-10263
▁Sangh	-10264
▁rigor	-10265
▁sport	-10266
▁Yojana	-10267
▁passes	-10268
▁Chatter	-10269
▁Pacific	-10270
▁Turkish	-10271
▁existed	-10272
▁conclude	-10273
▁romantic	-10274
▁spreading	-10275
▁strengthened	-10276
▁Infrastructure	-10277
idas	-10278
onds	-10279
vity	-10280
▁Vij	-10281
▁Pall	-10282
▁crack	-10283
▁crimes	-10284
▁patent	-10285
▁termin	-10286
▁Managing	-10287
▁Whatever	-10288
▁manpower	-10289
apt	-10290
▁RO	-10291
emen	-10292
omas	-10293
▁Abs	-10294
▁Niz	-10295
▁Creat	-10296
▁Rahul	-10297
▁Tender	-10298
▁oldest	-10299
▁talked	-10300
▁framing	-10301
▁patriot	-10302
▁staying	-10303
▁resolved	-10304
▁Chaudhary	-10305
▁Statement	-10306
▁confusion	-10307
▁committing	-10308
▁intercourse	-10309
▁supramental	-10310
▁philosophical	-10311
▁classification	-10312
NO	-10313
asis	-10314
eros	-10315
▁orn	-10316
▁tun	-10317
▁vii	-10318
▁Best	-10319
▁Jord	-10320
▁Viet	-10321
▁Ward	-10322
▁Queen	-10323
▁cards	-10324
▁irrit	-10325
▁bamboo	-10326
▁casual	-10327
▁dialog	-10328
▁humble	-10329
esthetic	-10330
▁Details	-10331
▁segment	-10332
ago	-10333
iat	-10334
▁Did	-10335
▁Mukesh	-10336
▁grants	-10337
ologists	-10338
▁corrupt	-10339
▁tobacco	-10340
▁Palestine	-10341
▁basically	-10342
▁Federation	-10343
▁classified	-10344
▁countrymen	-10345
▁enthusiasm	-10346
▁procedural	-10347
dam	-10348
itha	-10349
▁Jal	-10350
▁lal	-10351
▁mac	-10352
pread	-10353
▁Poon	-10354
▁chap	-10355
angers	-10356
ipedia	-10357
▁tears	-10358
edience	-10359
olutions	-10360
▁funding	-10361
▁computed	-10362
▁concrete	-10363
▁prisoner	-10364
▁regulate	-10365
▁brilliant	-10366
▁intensity	-10367
▁introduce	-10368
▁psychological	-10369
off	-10370
LECT	-10371
▁Hal	-10372
▁Kas	-10373
▁Pop	-10374
▁Rub	-10375
▁Van	-10376
ioned	-10377
iscal	-10378
▁Kali	-10379
▁germ	-10380
▁jung	-10381
ivided	-10382
▁lists	-10383
▁Bhopal	-10384
▁Hamachi	-10385
▁expired	-10386
▁coverage	-10387
▁automatic	-10388
▁signatures	-10389
▁anniversary	-10390
▁administered	-10391
VER	-10392
▁Ut	-10393
stan	-10394
▁Akh	-10395
▁Lol	-10396
acent	-10397
vance	-10398
▁Read	-10399
▁lays	-10400
▁pist	-10401
advant	-10402
▁virus	-10403
▁Prince	-10404
▁Shakti	-10405
▁camera	-10406
▁purity	-10407
▁Benefit	-10408
▁beliefs	-10409
▁execute	-10410
▁torture	-10411
▁utility	-10412
▁Allowance	-10413
▁directors	-10414
▁instances	-10415
▁restraint	-10416
▁uncertain	-10417
▁comparison	-10418
▁incomplete	-10419
▁protecting	-10420
▁distinguish	-10421
▁considerably	-10422
olu	-10423
▁DR	-10424
▁NC	-10425
unda	-10426
▁aqu	-10427
▁Rich	-10428
▁gang	-10429
▁neut	-10430
▁stro	-10431
▁Broad	-10432
▁slope	-10433
▁explos	-10434
▁guided	-10435
▁splend	-10436
▁Kannada	-10437
▁Vietnam	-10438
▁mandate	-10439
▁nearest	-10440
aunch	-10441
onged	-10442
▁shed	-10443
▁Kamal	-10444
▁crude	-10445
▁Object	-10446
▁retail	-10447
▁voting	-10448
▁earthqu	-10449
▁credited	-10450
▁orthodox	-10451
▁economies	-10452
▁Srivastava	-10453
▁assignment	-10454
GC	-10455
occ	-10456
cipl	-10457
▁nit	-10458
cetic	-10459
▁horn	-10460
▁Memor	-10461
▁Motor	-10462
▁overr	-10463
▁consec	-10464
▁Andaman	-10465
▁survive	-10466
▁cognizance	-10467
▁Territories	-10468
▁inaugurated	-10469
win	-10470
amba	-10471
conn	-10472
▁seal	-10473
▁Appro	-10474
▁fourt	-10475
urement	-10476
▁Gautam	-10477
▁refuse	-10478
▁touched	-10479
▁behavior	-10480
▁scenario	-10481
▁inconsist	-10482
▁provinces	-10483
▁satellite	-10484
▁Resolution	-10485
▁quantities	-10486
eli	-10487
thy	-10488
ihad	-10489
rypt	-10490
▁fool	-10491
▁ling	-10492
▁mamm	-10493
▁merg	-10494
▁Model	-10495
▁Manilal	-10496
▁matches	-10497
▁Surendra	-10498
▁Employees	-10499
▁Petroleum	-10500
▁possessed	-10501
▁similarly	-10502
▁significantly	-10503
▁Bo	-10504
▁une	-10505
onial	-10506
▁obsc	-10507
▁Caste	-10508
▁Manik	-10509
▁cocon	-10510
▁guilt	-10511
▁quote	-10512
▁tends	-10513
▁Church	-10514
▁Should	-10515
▁hatred	-10516
▁pollut	-10517
▁wooden	-10518
▁flowing	-10519
▁Terrorism	-10520
▁correspondence	-10521
si	-10522
oys	-10523
uram	-10524
▁Fre	-10525
▁ven	-10526
▁uter	-10527
▁Staff	-10528
▁honey	-10529
▁Golden	-10530
▁Jordan	-10531
▁clouds	-10532
▁Studies	-10533
▁designs	-10534
▁legally	-10535
▁invested	-10536
▁minerals	-10537
▁rainfall	-10538
▁construed	-10539
▁inclusion	-10540
HT	-10541
babu	-10542
mise	-10543
▁Nas	-10544
▁gaz	-10545
ontal	-10546
orses	-10547
▁Syed	-10548
▁gest	-10549
▁nest	-10550
▁pharm	-10551
▁Conduct	-10552
▁membrane	-10553
▁verified	-10554
▁Establish	-10555
▁Evolution	-10556
▁electoral	-10557
▁hospitals	-10558
▁inflation	-10559
ANG	-10560
iba	-10561
ket	-10562
▁dw	-10563
hera	-10564
▁SRI	-10565
▁Veer	-10566
▁chol	-10567
▁eman	-10568
▁forb	-10569
▁maid	-10570
▁Hamas	-10571
▁admir	-10572
▁Ansari	-10573
▁Vikram	-10574
▁conserv	-10575
▁inspire	-10576
▁relying	-10577
▁vacancy	-10578
▁Advisory	-10579
▁describing	-10580
▁travelling	-10581
ea	-10582
pus	-10583
▁TH	-10584
▁Kaz	-10585
▁keys	-10586
▁angry	-10587
▁annum	-10588
▁enrol	-10589
▁games	-10590
▁smart	-10591
aintiff	-10592
iration	-10593
▁Laxman	-10594
▁advise	-10595
▁degrad	-10596
▁mature	-10597
▁sealed	-10598
▁Acharya	-10599
▁Digital	-10600
▁chamber	-10601
▁samples	-10602
▁discount	-10603
▁frequent	-10604
▁maturity	-10605
▁unnecess	-10606
▁recognise	-10607
▁definitely	-10608
▁regulatory	-10609
▁negotiations	-10610
awa	-10611
gence	-10612
▁Shak	-10613
▁Friend	-10614
▁Within	-10615
▁cavity	-10616
▁treaty	-10617
▁Asutosh	-10618
▁sisters	-10619
▁effected	-10620
▁magnetic	-10621
▁promised	-10622
▁respects	-10623
▁directing	-10624
▁accessible	-10625
▁nationalism	-10626
sha	-10627
ohar	-10628
term	-10629
▁aug	-10630
▁wet	-10631
▁Bans	-10632
▁Poll	-10633
▁nice	-10634
▁Prior	-10635
▁moves	-10636
▁parad	-10637
▁upset	-10638
▁dollar	-10639
▁immort	-10640
▁invite	-10641
▁monsoon	-10642
▁seconds	-10643
quisition	-10644
▁Buddhism	-10645
▁Europeans	-10646
▁locations	-10647
▁responses	-10648
▁admissible	-10649
▁generating	-10650
▁Electronics	-10651
has	-10652
osy	-10653
▁Vr	-10654
nsic	-10655
vind	-10656
▁Ori	-10657
▁Pul	-10658
▁vel	-10659
▁Sale	-10660
utical	-10661
▁Emerg	-10662
▁bliss	-10663
▁embra	-10664
▁cement	-10665
▁firing	-10666
▁purely	-10667
▁cluster	-10668
▁pressed	-10669
▁concepts	-10670
▁disadvant	-10671
▁imperative	-10672
▁Authorities	-10673
leg	-10674
amar	-10675
vati	-10676
▁Anr	-10677
▁Fig	-10678
▁Kon	-10679
▁Mich	-10680
▁NIOS	-10681
▁Panj	-10682
▁SHRI	-10683
▁Soni	-10684
usalem	-10685
▁diary	-10686
▁embod	-10687
▁stret	-10688
▁Custom	-10689
▁Island	-10690
▁attach	-10691
▁helpless	-10692
▁Jerusalem	-10693
▁elephants	-10694
▁Petitioners	-10695
▁supervision	-10696
▁maintainable	-10697
▁Auto	-10698
▁Rana	-10699
urable	-10700
▁Laxmi	-10701
▁Almast	-10702
▁Lolita	-10703
▁hunger	-10704
▁timely	-10705
▁joining	-10706
▁expensive	-10707
▁reporting	-10708
▁boundaries	-10709
▁preference	-10710
iety	-10711
usha	-10712
▁Tan	-10713
▁ske	-10714
aired	-10715
riers	-10716
▁Anti	-10717
▁ears	-10718
▁Guard	-10719
▁Radha	-10720
▁Payment	-10721
▁painting	-10722
▁reflects	-10723
▁treating	-10724
▁incorrect	-10725
▁Processing	-10726
▁Regulatory	-10727
▁Revolution	-10728
▁professionals	-10729
ilee	-10730
▁Bre	-10731
eline	-10732
▁Chit	-10733
▁Kore	-10734
▁Griev	-10735
▁cheap	-10736
▁overw	-10737
▁surpl	-10738
▁Mangal	-10739
appropri	-10740
▁Cricket	-10741
▁Pradhan	-10742
▁desires	-10743
▁quantum	-10744
unciation	-10745
▁accorded	-10746
▁devotees	-10747
▁departure	-10748
▁biological	-10749
▁manufactured	-10750
TA	-10751
iae	-10752
▁Ju	-10753
▁UP	-10754
▁APP	-10755
▁Bol	-10756
▁Nok	-10757
▁Say	-10758
▁kids	-10759
illary	-10760
▁Radio	-10761
▁hards	-10762
▁laugh	-10763
▁midst	-10764
▁Street	-10765
▁decent	-10766
▁errors	-10767
▁inspect	-10768
▁boundary	-10769
▁diabetes	-10770
▁linkages	-10771
▁frequency	-10772
▁statistics	-10773
▁controlling	-10774
JEE	-10775
ORE	-10776
xic	-10777
▁DO	-10778
▁Ro	-10779
onal	-10780
▁Hyd	-10781
▁Drug	-10782
▁SAYS	-10783
▁agro	-10784
imental	-10785
▁ignore	-10786
▁revers	-10787
ographer	-10788
▁Install	-10789
▁Reforms	-10790
▁defeated	-10791
▁Governors	-10792
▁afternoon	-10793
▁cancelled	-10794
▁deficiency	-10795
▁requisition	-10796
▁administrator	-10797
▁PL	-10798
appe	-10799
▁Hum	-10800
▁cod	-10801
▁hub	-10802
▁ray	-10803
sheet	-10804
▁Suit	-10805
▁Armed	-10806
▁Paris	-10807
▁Kishan	-10808
▁comply	-10809
▁vessel	-10810
▁dollars	-10811
▁typical	-10812
aceutical	-10813
▁Meanwhile	-10814
▁inflicted	-10815
▁prevented	-10816
▁capability	-10817
▁conception	-10818
▁stipulated	-10819
III	-10820
bery	-10821
gedy	-10822
juna	-10823
▁Lod	-10824
▁mud	-10825
▁Poet	-10826
▁Yash	-10827
▁jute	-10828
▁vend	-10829
icular	-10830
▁Sagar	-10831
▁batch	-10832
▁buying	-10833
▁cheques	-10834
▁explains	-10835
▁apparently	-10836
▁characterized	-10837
ipp	-10838
▁VI	-10839
inar	-10840
omed	-10841
▁levy	-10842
▁vice	-10843
cation	-10844
▁canal	-10845
▁split	-10846
▁Thomas	-10847
▁coffee	-10848
▁worksh	-10849
▁Gandhar	-10850
▁Tripura	-10851
▁outward	-10852
ertaining	-10853
▁laboratory	-10854
▁ordinarily	-10855
▁nationalist	-10856
bra	-10857
aidu	-10858
▁butt	-10859
rators	-10860
▁Activ	-10861
▁boost	-10862
▁camel	-10863
uminous	-10864
▁Chaluk	-10865
▁Kittur	-10866
▁Lakshmi	-10867
▁ascetic	-10868
▁rituals	-10869
▁volumes	-10870
▁artistic	-10871
▁goodwill	-10872
▁subtract	-10873
▁considers	-10874
▁jewellery	-10875
▁requiring	-10876
▁successor	-10877
▁endeavours	-10878
▁Commonwealth	-10879
▁acknowledged	-10880
▁participating	-10881
▁RA	-10882
ella	-10883
▁GDP	-10884
▁Hol	-10885
▁Mahan	-10886
▁worst	-10887
▁beaten	-10888
▁honest	-10889
▁anxious	-10890
▁sincere	-10891
▁Sciences	-10892
▁Teachers	-10893
▁conveyed	-10894
▁insisted	-10895
▁intimate	-10896
▁Vigilance	-10897
▁whatsoever	-10898
hin	-10899
tier	-10900
▁Gad	-10901
▁Bish	-10902
▁Init	-10903
▁hopes	-10904
▁minim	-10905
▁owing	-10906
▁themes	-10907
▁suffici	-10908
▁traders	-10909
▁tribute	-10910
▁disclose	-10911
▁imposing	-10912
▁terrible	-10913
▁treasure	-10914
▁Hindustan	-10915
▁Wikipedia	-10916
▁favourite	-10917
▁relevance	-10918
otechnology	-10919
▁physically	-10920
Is	-10921
fol	-10922
ico	-10923
oni	-10924
▁Ki	-10925
▁vo	-10926
Tube	-10927
ayam	-10928
▁Jab	-10929
oresh	-10930
venty	-10931
▁cant	-10932
▁rely	-10933
▁tiger	-10934
▁Amount	-10935
▁Naresh	-10936
▁curric	-10937
▁viable	-10938
▁Festival	-10939
▁absorbed	-10940
▁assurance	-10941
▁factories	-10942
▁complement	-10943
▁discharged	-10944
▁departmental	-10945
IAN	-10946
kay	-10947
olf	-10948
acts	-10949
oter	-10950
▁ISO	-10951
▁RTI	-10952
▁drum	-10953
▁ensu	-10954
▁jack	-10955
akhand	-10956
▁overt	-10957
▁Deepak	-10958
▁Jaipur	-10959
▁upheld	-10960
▁Guarant	-10961
▁Systems	-10962
▁compens	-10963
▁edition	-10964
▁mutually	-10965
▁removing	-10966
▁interpreted	-10967
▁philosopher	-10968
▁deliberately	-10969
rus	-10970
angi	-10971
▁fro	-10972
state	-10973
sildar	-10974
▁Leave	-10975
▁Stock	-10976
hension	-10977
▁bitter	-10978
ursement	-10979
▁beating	-10980
▁chronic	-10981
▁critics	-10982
▁filling	-10983
▁travelled	-10984
▁mechanisms	-10985
ky	-10986
ibh	-10987
nar	-10988
▁PP	-10989
yard	-10990
▁Ver	-10991
▁axe	-10992
opard	-10993
▁unsu	-10994
▁Choose	-10995
▁Nagpur	-10996
▁crafts	-10997
▁lesson	-10998
▁instinct	-10999
▁exemption	-11000
▁reception	-11001
▁memorandum	-11002
▁prohibited	-11003
▁inflammation	-11004
GP	-11005
UST	-11006
▁GO	-11007
▁१६	-11008
lesh	-11009
omal	-11010
▁Kad	-11011
▁Step	-11012
▁intr	-11013
▁rand	-11014
▁rope	-11015
▁chose	-11016
▁flesh	-11017
▁recur	-11018
▁Delete	-11019
▁Instru	-11020
▁Period	-11021
▁buffal	-11022
▁carved	-11023
▁injust	-11024
▁mirror	-11025
▁Jagdish	-11026
▁discont	-11027
▁divorce	-11028
▁Nagaland	-11029
▁taxation	-11030
▁variable	-11031
▁Marketing	-11032
▁confession	-11033
▁transformed	-11034
▁Recommendation	-11035
▁considerations	-11036
▁EN	-11037
mind	-11038
mity	-11039
▁Gok	-11040
▁SID	-11041
▁tune	-11042
▁Bazar	-11043
▁hindi	-11044
▁mobil	-11045
reshold	-11046
▁Yamuna	-11047
▁rarely	-11048
▁Journal	-11049
▁inquest	-11050
▁kitchen	-11051
▁upgrade	-11052
▁ministry	-11053
▁Provision	-11054
▁acquittal	-11055
▁teachings	-11056
▁transition	-11057
▁practically	-11058
▁resignation	-11059
pes	-11060
▁LE	-11061
▁Pa	-11062
ATES	-11063
anic	-11064
arsa	-11065
▁Sany	-11066
▁Till	-11067
▁Very	-11068
▁Purch	-11069
▁liver	-11070
▁tries	-11071
uscript	-11072
▁unfortun	-11073
▁comprises	-11074
▁suspended	-11075
▁Literature	-11076
▁imposition	-11077
▁exceptional	-11078
▁DV	-11079
▁Maul	-11080
▁Tata	-11081
▁brah	-11082
▁ease	-11083
▁merc	-11084
▁Range	-11085
▁Years	-11086
▁lathi	-11087
▁ships	-11088
▁smoke	-11089
itement	-11090
▁ingred	-11091
▁lowest	-11092
▁welcom	-11093
▁Offices	-11094
▁fulfill	-11095
▁attorney	-11096
▁receives	-11097
▁supplies	-11098
▁surgical	-11099
▁apprehend	-11100
▁worldwide	-11101
▁sentiments	-11102
OST	-11103
▁Mc	-11104
outs	-11105
▁Imm	-11106
▁LIN	-11107
▁Swed	-11108
▁cure	-11109
ardhan	-11110
▁Peeth	-11111
▁glaci	-11112
▁manip	-11113
▁Manish	-11114
▁manual	-11115
▁unfair	-11116
▁leaflet	-11117
▁tenants	-11118
▁graduate	-11119
▁clarified	-11120
▁scientist	-11121
▁Memorandum	-11122
▁perception	-11123
▁connectivity	-11124
▁cm	-11125
▁PDF	-11126
▁Put	-11127
▁Pram	-11128
▁Birth	-11129
▁moist	-11130
▁rupee	-11131
▁ceased	-11132
▁gender	-11133
▁earning	-11134
▁heights	-11135
▁prayers	-11136
appellant	-11137
▁everyday	-11138
▁moderate	-11139
▁overwhel	-11140
▁Raghunath	-11141
▁occurring	-11142
▁Chatterjee	-11143
▁committees	-11144
▁unfortunate	-11145
▁Unfortunately	-11146
aq	-11147
▁Gal	-11148
▁HIV	-11149
▁Pot	-11150
▁Wel	-11151
▁nin	-11152
adeep	-11153
anish	-11154
▁Sher	-11155
▁soph	-11156
leness	-11157
ubilee	-11158
▁Odish	-11159
▁Schemes	-11160
▁YouTube	-11161
▁artists	-11162
▁insured	-11163
▁worried	-11164
▁pointing	-11165
▁rejection	-11166
▁somewhere	-11167
▁indicating	-11168
▁dissolution	-11169
▁empowerment	-11170
▁associations	-11171
IM	-11172
anag	-11173
ania	-11174
▁Ast	-11175
▁Jur	-11176
▁Miz	-11177
▁Ste	-11178
andan	-11179
anium	-11180
▁Film	-11181
▁Insp	-11182
▁Lakh	-11183
▁scan	-11184
▁ware	-11185
udence	-11186
▁Jagat	-11187
▁grows	-11188
▁Bhagav	-11189
▁Paswan	-11190
▁detect	-11191
▁illiter	-11192
▁lasting	-11193
▁placing	-11194
▁Brahmins	-11195
▁Councils	-11196
▁Tripathi	-11197
▁emotions	-11198
▁exposure	-11199
▁predomin	-11200
▁securing	-11201
▁stronger	-11202
▁visitors	-11203
▁paintings	-11204
▁surprising	-11205
▁Vivekananda	-11206
▁expressions	-11207
▁implications	-11208
lat	-11209
hiya	-11210
itic	-11211
▁MUK	-11212
▁vex	-11213
▁Khar	-11214
▁erad	-11215
▁Frame	-11216
▁Oriya	-11217
▁Price	-11218
▁Shant	-11219
▁digit	-11220
▁targets	-11221
▁maternal	-11222
▁impartial	-11223
▁impressed	-11224
▁projected	-11225
▁advantages	-11226
▁headquarters	-11227
sp	-11228
ito	-11229
ney	-11230
▁Md	-11231
inge	-11232
▁Saw	-11233
▁cel	-11234
ercul	-11235
▁Manj	-11236
▁reck	-11237
▁Pawan	-11238
▁deter	-11239
▁drain	-11240
▁dwell	-11241
assador	-11242
ductive	-11243
▁Record	-11244
▁differ	-11245
economic	-11246
▁colours	-11247
▁lecture	-11248
▁controls	-11249
▁inviting	-11250
▁isolated	-11251
▁welcomed	-11252
▁enjoyment	-11253
▁municipal	-11254
▁undivided	-11255
▁Guidelines	-11256
▁privileges	-11257
▁acknowledge	-11258
▁permanently	-11259
▁Implementation	-11260
PCL	-11261
apu	-11262
sed	-11263
▁AL	-11264
▁MM	-11265
abai	-11266
asts	-11267
fect	-11268
iven	-11269
▁Jog	-11270
▁Suk	-11271
▁Unt	-11272
anjan	-11273
▁Kush	-11274
▁Sonu	-11275
▁puts	-11276
▁Incre	-11277
▁Naidu	-11278
▁waves	-11279
onymous	-11280
▁defect	-11281
▁define	-11282
▁Clauses	-11283
▁Inquiry	-11284
▁grammar	-11285
▁revival	-11286
▁abstract	-11287
▁disturbed	-11288
▁expanding	-11289
▁listening	-11290
▁suspension	-11291
▁contentions	-11292
▁fertilizers	-11293
bo	-11294
lings	-11295
▁Camb	-11296
▁Near	-11297
▁suck	-11298
HERJEE	-11299
mother	-11300
▁grate	-11301
▁pests	-11302
▁threw	-11303
▁powder	-11304
▁rescue	-11305
▁worthy	-11306
▁Nicobar	-11307
▁offline	-11308
▁Sarojini	-11309
▁lectures	-11310
▁magnific	-11311
▁operated	-11312
▁MUKHERJEE	-11313
▁intensive	-11314
▁circulation	-11315
▁constructive	-11316
do	-11317
far	-11318
▁cha	-11319
▁exh	-11320
▁Decc	-11321
▁Rash	-11322
▁ausp	-11323
▁Chann	-11324
▁random	-11325
▁speaks	-11326
▁dropped	-11327
▁founder	-11328
▁virtual	-11329
▁labourers	-11330
▁medicinal	-11331
▁attributed	-11332
▁harassment	-11333
▁neighbours	-11334
▁paragraphs	-11335
▁Uttarakhand	-11336
▁mm	-11337
born	-11338
▁Bhim	-11339
▁Edit	-11340
▁Khas	-11341
▁tone	-11342
itious	-11343
▁Nanda	-11344
▁Naval	-11345
▁dimin	-11346
▁ticket	-11347
▁Certain	-11348
▁dominant	-11349
▁rigorous	-11350
▁shortage	-11351
▁narrative	-11352
▁allowances	-11353
▁thoroughly	-11354
▁vulnerable	-11355
▁intelligent	-11356
▁Distribution	-11357
len	-11358
nty	-11359
▁BO	-11360
rics	-11361
▁Lef	-11362
tered	-11363
▁Ghaz	-11364
▁Kart	-11365
▁Surya	-11366
▁Value	-11367
▁Manual	-11368
▁Odisha	-11369
▁astron	-11370
▁filter	-11371
▁surplus	-11372
▁arbitral	-11373
▁equipped	-11374
▁Tribunals	-11375
▁breathing	-11376
▁sovereign	-11377
▁pilgrimage	-11378
HI	-11379
akk	-11380
oul	-11381
▁OS	-11382
appu	-11383
arman	-11384
mohan	-11385
▁coin	-11386
▁slog	-11387
▁embry	-11388
▁rooms	-11389
▁Summit	-11390
▁blocks	-11391
▁opined	-11392
▁Indones	-11393
▁Sanjeev	-11394
▁coastal	-11395
▁pursuit	-11396
▁tragedy	-11397
▁airports	-11398
▁deprived	-11399
▁aesthetic	-11400
▁celebrate	-11401
▁sentences	-11402
▁Assistance	-11403
▁Democratic	-11404
▁Divisional	-11405
▁Principles	-11406
▁Production	-11407
▁circumstance	-11408
etus	-11409
otee	-11410
▁Dog	-11411
▁Tea	-11412
innah	-11413
▁Bhub	-11414
▁Pant	-11415
▁worn	-11416
▁artic	-11417
▁modes	-11418
▁proxy	-11419
▁Supply	-11420
▁relate	-11421
▁senses	-11422
▁tested	-11423
▁Highway	-11424
▁capture	-11425
▁explore	-11426
▁onwards	-11427
▁opinions	-11428
▁engineers	-11429
▁injustice	-11430
▁sponsored	-11431
▁admittedly	-11432
▁advancement	-11433
▁congratulated	-11434
▁relationships	-11435
fast	-11436
itta	-11437
▁Deg	-11438
▁nep	-11439
▁alph	-11440
▁Impro	-11441
▁Karan	-11442
▁rocks	-11443
▁urine	-11444
▁Ashram	-11445
▁intent	-11446
▁ranging	-11447
▁Consolid	-11448
▁initiate	-11449
▁survival	-11450
▁restriction	-11451
▁manufacturers	-11452
oil	-11453
oqu	-11454
appy	-11455
rium	-11456
▁CPC	-11457
▁Squ	-11458
ceans	-11459
marks	-11460
vation	-11461
▁Peace	-11462
▁Surat	-11463
▁Varan	-11464
▁mouse	-11465
▁reven	-11466
▁score	-11467
▁sperm	-11468
▁tired	-11469
▁Dharma	-11470
▁enters	-11471
▁infant	-11472
▁monkey	-11473
▁subtle	-11474
▁Perform	-11475
▁borders	-11476
▁deserve	-11477
▁falsely	-11478
▁mistakes	-11479
▁literally	-11480
▁adjustment	-11481
cho	-11482
sen	-11483
apat	-11484
mail	-11485
onia	-11486
inous	-11487
▁Club	-11488
▁Decl	-11489
▁Prog	-11490
▁Send	-11491
▁User	-11492
▁acre	-11493
▁lots	-11494
onents	-11495
▁Would	-11496
▁smell	-11497
▁Poresh	-11498
▁repeat	-11499
▁rushed	-11500
▁sphere	-11501
▁battery	-11502
▁damaged	-11503
▁reverse	-11504
▁Extension	-11505
▁Plaintiff	-11506
▁disciples	-11507
▁invitation	-11508
▁accountability	-11509
RU	-11510
▁OR	-11511
owing	-11512
▁Left	-11513
▁Trad	-11514
▁tang	-11515
ortion	-11516
oubted	-11517
rishna	-11518
ushing	-11519
▁Panel	-11520
▁Tulsi	-11521
▁firms	-11522
▁honor	-11523
▁invent	-11524
▁Maximum	-11525
▁poultry	-11526
▁bleeding	-11527
▁sciences	-11528
▁exclusion	-11529
▁publicity	-11530
▁businesses	-11531
▁photographs	-11532
thi	-11533
ifer	-11534
▁Upd	-11535
▁pin	-11536
arted	-11537
water	-11538
▁Does	-11539
▁Moon	-11540
▁deny	-11541
ulsion	-11542
▁Kalam	-11543
▁Nizam	-11544
▁Nokia	-11545
▁decay	-11546
▁excav	-11547
▁nutri	-11548
▁vague	-11549
▁Boards	-11550
▁Jinnah	-11551
▁Mosque	-11552
▁Tahsil	-11553
▁Various	-11554
▁crossed	-11555
▁underlying	-11556
▁scholarship	-11557
▁depreciation	-11558
ARY	-11559
aba	-11560
zil	-11561
asan	-11562
ensed	-11563
▁Gate	-11564
▁anth	-11565
asaheb	-11566
atious	-11567
opathy	-11568
ulator	-11569
▁Prize	-11570
▁Zilla	-11571
▁calam	-11572
▁champ	-11573
▁embar	-11574
▁Sudhir	-11575
▁assail	-11576
▁marine	-11577
▁sensit	-11578
▁stores	-11579
▁lessons	-11580
▁honoured	-11581
▁measured	-11582
▁obstruct	-11583
▁sessions	-11584
cellaneous	-11585
▁advocates	-11586
▁particles	-11587
▁compliment	-11588
▁inaugurate	-11589
▁repeatedly	-11590
▁endorsement	-11591
▁adjudication	-11592
▁disabilities	-11593
bi	-11594
iest	-11595
izer	-11596
▁Den	-11597
▁Pow	-11598
▁tit	-11599
amble	-11600
amind	-11601
ignty	-11602
▁Prav	-11603
▁inex	-11604
ensing	-11605
▁Dilip	-11606
▁Roman	-11607
▁angle	-11608
▁rains	-11609
▁truck	-11610
ropical	-11611
▁ranges	-11612
▁ceiling	-11613
▁coconut	-11614
▁somehow	-11615
▁interact	-11616
▁magazine	-11617
▁pleasant	-11618
▁passenger	-11619
▁dimensions	-11620
▁manuscript	-11621
▁celebrations	-11622
▁demonstrated	-11623
afi	-11624
ksh	-11625
▁pm	-11626
adha	-11627
isen	-11628
▁ASI	-11629
▁umb	-11630
▁quad	-11631
verage	-11632
▁Clear	-11633
▁Ananda	-11634
▁Deccan	-11635
▁plenty	-11636
▁heavily	-11637
▁inhabit	-11638
▁militant	-11639
▁producer	-11640
▁respected	-11641
▁guaranteed	-11642
▁misconduct	-11643
▁AB	-11644
▁ox	-11645
allu	-11646
aryn	-11647
ghar	-11648
iser	-11649
ping	-11650
▁Dad	-11651
▁Sch	-11652
asury	-11653
uated	-11654
▁cous	-11655
▁pupp	-11656
▁sear	-11657
hibits	-11658
ometer	-11659
teenth	-11660
▁monop	-11661
▁ranks	-11662
▁legacy	-11663
▁caution	-11664
▁commend	-11665
▁factual	-11666
▁insight	-11667
▁neglect	-11668
idespread	-11669
▁disappear	-11670
▁cultivated	-11671
▁subsidiary	-11672
fly	-11673
name	-11674
▁Host	-11675
▁peas	-11676
▁zeal	-11677
▁Vikas	-11678
▁procl	-11679
▁enmity	-11680
▁purport	-11681
▁unusual	-11682
▁vertical	-11683
▁popularity	-11684
five	-11685
orph	-11686
▁Ask	-11687
▁Maz	-11688
graph	-11689
▁Ganj	-11690
▁Prop	-11691
▁Sudd	-11692
▁onto	-11693
▁James	-11694
▁guest	-11695
▁meets	-11696
▁dispar	-11697
▁seller	-11698
▁Country	-11699
▁checked	-11700
▁cruelty	-11701
▁nursing	-11702
▁Judiciary	-11703
▁Relations	-11704
▁secretary	-11705
▁Acquisition	-11706
▁Cooperation	-11707
▁denominator	-11708
GIN	-11709
isa	-11710
brid	-11711
iban	-11712
▁AID	-11713
▁Anth	-11714
▁arre	-11715
▁lift	-11716
▁swim	-11717
▁Pipes	-11718
▁Varma	-11719
▁array	-11720
▁pistol	-11721
▁walked	-11722
▁closing	-11723
▁painful	-11724
▁quashed	-11725
endranath	-11726
▁associate	-11727
▁telecommun	-11728
vy	-11729
▁Ep	-11730
cape	-11731
▁Wal	-11732
▁Was	-11733
astra	-11734
atisf	-11735
payee	-11736
▁Gaya	-11737
▁amen	-11738
▁bind	-11739
author	-11740
▁coins	-11741
▁cough	-11742
▁erect	-11743
▁globe	-11744
▁haven	-11745
writing	-11746
▁Hemant	-11747
▁mosque	-11748
▁pocket	-11749
▁clients	-11750
▁Himalaya	-11751
▁Varanasi	-11752
▁kilogram	-11753
▁dismissal	-11754
▁attendance	-11755
▁scriptures	-11756
▁systematic	-11757
▁documentary	-11758
▁cancellation	-11759
▁possibilities	-11760
ATED	-11761
ball	-11762
cane	-11763
▁Nit	-11764
▁ric	-11765
itius	-11766
roots	-11767
▁Gurb	-11768
▁Veda	-11769
▁amid	-11770
▁deer	-11771
▁Meher	-11772
▁ninet	-11773
▁Bihari	-11774
▁horses	-11775
▁lights	-11776
iciaries	-11777
▁Nanalal	-11778
▁restore	-11779
▁summons	-11780
▁captured	-11781
▁distress	-11782
▁glorious	-11783
semination	-11784
▁abandoned	-11785
▁compelled	-11786
▁pleadings	-11787
▁Monitoring	-11788
▁conscience	-11789
IME	-11790
inh	-11791
▁CE	-11792
▁DP	-11793
▁gh	-11794
▁Hold	-11795
▁conj	-11796
▁gran	-11797
▁Final	-11798
▁liked	-11799
▁Narmad	-11800
▁pledge	-11801
▁Khatoon	-11802
▁defines	-11803
▁devotee	-11804
ciliation	-11805
▁refugees	-11806
▁Automatic	-11807
▁indication	-11808
▁pronounced	-11809
organisation	-11810
▁convenience	-11811
ulu	-11812
aini	-11813
▁sty	-11814
ersed	-11815
icked	-11816
ieval	-11817
▁Mong	-11818
▁NGOs	-11819
▁Samb	-11820
▁crim	-11821
▁Vrind	-11822
▁shoes	-11823
▁Circle	-11824
▁Munshi	-11825
▁skelet	-11826
▁trends	-11827
▁reaches	-11828
▁Remember	-11829
▁ideology	-11830
▁investor	-11831
▁Personnel	-11832
▁Socialist	-11833
▁continent	-11834
▁autonomous	-11835
▁reflection	-11836
▁widespread	-11837
▁measurement	-11838
▁laboratories	-11839
▁gn	-11840
agan	-11841
anty	-11842
stru	-11843
olent	-11844
▁Bodh	-11845
▁Image	-11846
▁Sales	-11847
▁larvae	-11848
▁ninety	-11849
▁Complex	-11850
▁Connect	-11851
▁Reliance	-11852
▁quarters	-11853
▁Premchand	-11854
▁realization	-11855
cha	-11856
▁Ny	-11857
▁XX	-11858
▁Bez	-11859
▁Kak	-11860
askar	-11861
▁PRAN	-11862
▁awak	-11863
▁hier	-11864
▁pand	-11865
▁accur	-11866
▁argue	-11867
▁lotus	-11868
▁regret	-11869
▁Goddess	-11870
erculosis	-11871
▁Intellig	-11872
▁disciple	-11873
▁hectares	-11874
▁Mauritius	-11875
▁emergence	-11876
▁processed	-11877
▁repayment	-11878
▁favourable	-11879
▁demonstrate	-11880
▁neighbouring	-11881
beh	-11882
zer	-11883
ksha	-11884
roph	-11885
▁Bhu	-11886
▁mol	-11887
Judge	-11888
athan	-11889
▁wars	-11890
▁cable	-11891
▁eager	-11892
▁thumb	-11893
▁Safety	-11894
▁campus	-11895
▁exempl	-11896
▁strive	-11897
ointment	-11898
▁infected	-11899
▁Provinces	-11900
▁surprised	-11901
▁strategies	-11902
▁justification	-11903
okes	-11904
▁Anj	-11905
ariya	-11906
haran	-11907
pring	-11908
▁batt	-11909
▁hole	-11910
▁lion	-11911
alinga	-11912
▁Large	-11913
▁spots	-11914
▁Repres	-11915
▁serial	-11916
▁solely	-11917
▁steady	-11918
▁Sankara	-11919
▁cabinet	-11920
▁dioxide	-11921
▁remarks	-11922
▁startup	-11923
▁Vajpayee	-11924
▁earnings	-11925
▁Following	-11926
▁interpret	-11927
▁exceptions	-11928
▁linguistic	-11929
▁meaningful	-11930
▁constitutes	-11931
ahu	-11932
his	-11933
▁GR	-11934
anqu	-11935
▁Mic	-11936
agger	-11937
arama	-11938
inees	-11939
isans	-11940
peeth	-11941
▁Navy	-11942
▁Patt	-11943
▁wasn	-11944
▁Maint	-11945
▁Meena	-11946
▁Saheb	-11947
▁Steel	-11948
▁Syria	-11949
▁dread	-11950
▁grief	-11951
▁queen	-11952
▁resid	-11953
▁sixth	-11954
▁veter	-11955
nership	-11956
parable	-11957
▁invari	-11958
▁mighty	-11959
▁valued	-11960
umerable	-11961
▁Neither	-11962
▁contend	-11963
▁escaped	-11964
▁infring	-11965
▁readily	-11966
▁shrines	-11967
▁Amritsar	-11968
▁detected	-11969
▁fourteen	-11970
▁spending	-11971
▁attending	-11972
▁reasoning	-11973
▁Institutes	-11974
▁grandfather	-11975
▁introducing	-11976
▁remuneration	-11977
etal	-11978
soft	-11979
▁Mit	-11980
▁lep	-11981
▁ups	-11982
field	-11983
▁Come	-11984
▁Lala	-11985
▁Pref	-11986
▁Subs	-11987
▁Ganes	-11988
▁spont	-11989
▁trium	-11990
▁Undert	-11991
▁fixing	-11992
▁incomp	-11993
▁termed	-11994
▁Mizoram	-11995
▁beloved	-11996
▁centers	-11997
▁ensured	-11998
▁inherit	-11999
▁commenced	-12000
▁decorated	-12001
▁eliminate	-12002
▁realistic	-12003
▁seniority	-12004
▁fulfilment	-12005
▁variations	-12006
cum	-12007
▁FA	-12008
udal	-12009
▁Tab	-12010
▁jaw	-12011
▁kap	-12012
▁urg	-12013
▁Hill	-12014
▁Unic	-12015
▁Zila	-12016
▁cock	-12017
▁harb	-12018
▁tent	-12019
asagar	-12020
▁Mandi	-12021
▁Rober	-12022
▁trace	-12023
▁cinema	-12024
▁cosmic	-12025
▁indian	-12026
▁makers	-12027
▁micros	-12028
▁throat	-12029
▁Express	-12030
▁Mathura	-12031
▁Tourism	-12032
▁corners	-12033
▁seventh	-12034
▁peripher	-12035
▁abolition	-12036
▁Programmes	-12037
▁impressive	-12038
▁questioned	-12039
▁comfortable	-12040
▁sovereignty	-12041
▁utilization	-12042
gic	-12043
▁VA	-12044
bert	-12045
▁Fat	-12046
▁Fif	-12047
▁Mil	-12048
▁Ult	-12049
arshi	-12050
▁CALL	-12051
▁addu	-12052
▁pink	-12053
rupted	-12054
▁Youth	-12055
▁bunch	-12056
▁babies	-12057
▁suspic	-12058
oubtedly	-12059
▁density	-12060
▁ethical	-12061
▁seventy	-12062
▁confront	-12063
▁meantime	-12064
▁Choudhary	-12065
▁creatures	-12066
▁Recruitment	-12067
▁economically	-12068
ael	-12069
ulf	-12070
imla	-12071
▁Kes	-12072
▁Syn	-12073
▁Tim	-12074
▁AIDS	-12075
▁Addl	-12076
▁Bhan	-12077
▁cows	-12078
▁lone	-12079
▁quot	-12080
▁illeg	-12081
endants	-12082
▁loaded	-12083
▁Forward	-12084
▁delayed	-12085
▁exhibit	-12086
▁harness	-12087
▁oneness	-12088
▁Memorial	-12089
▁Southern	-12090
▁inclined	-12091
▁prestige	-12092
▁preserved	-12093
▁attraction	-12094
▁deliberate	-12095
▁publishing	-12096
▁unexpected	-12097
▁governmental	-12098
iac	-12099
sor	-12100
▁Fi	-12101
cive	-12102
emic	-12103
ribe	-12104
▁Bac	-12105
▁Beh	-12106
▁imb	-12107
▁pix	-12108
enary	-12109
LECTED	-12110
adhyay	-12111
erance	-12112
▁Goyal	-12113
▁alike	-12114
▁grasp	-12115
▁Brahmo	-12116
▁Ranjan	-12117
▁Telang	-12118
▁copper	-12119
▁fiscal	-12120
▁fortun	-12121
▁verbal	-12122
▁delicate	-12123
▁Emergency	-12124
▁professor	-12125
▁sentiment	-12126
▁socialism	-12127
▁diplomatic	-12128
▁Subsequently	-12129
▁MO	-12130
▁na	-12131
text	-12132
▁DAC	-12133
▁Rul	-12134
▁muc	-12135
▁nic	-12136
ifier	-12137
isive	-12138
ubhai	-12139
▁bags	-12140
▁bund	-12141
atical	-12142
▁capac	-12143
▁molec	-12144
▁smile	-12145
▁vagina	-12146
▁agitation	-12147
▁distribut	-12148
▁producers	-12149
▁virtually	-12150
▁Statistics	-12151
▁Convocation	-12152
bl	-12153
▁q	-12154
bas	-12155
iga	-12156
urd	-12157
▁HC	-12158
▁Qa	-12159
ahal	-12160
osph	-12161
▁Abu	-12162
▁Inv	-12163
▁kms	-12164
anker	-12165
arpur	-12166
▁Fate	-12167
▁Gaza	-12168
▁Mans	-12169
▁Megh	-12170
▁Mian	-12171
▁fare	-12172
orship	-12173
▁Draft	-12174
▁Farid	-12175
▁dense	-12176
▁minded	-12177
▁oceans	-12178
▁unjust	-12179
▁Machine	-12180
▁contest	-12181
▁hanging	-12182
▁signals	-12183
▁symbols	-12184
▁tension	-12185
▁warming	-12186
▁Highness	-12187
▁doubtful	-12188
▁intestine	-12189
▁initiation	-12190
▁structural	-12191
▁unnecessary	-12192
▁corroborated	-12193
▁Investigation	-12194
hyd	-12195
nis	-12196
▁SO	-12197
ekar	-12198
erer	-12199
iate	-12200
▁Gob	-12201
▁Lay	-12202
▁nas	-12203
itime	-12204
▁Dise	-12205
▁Modi	-12206
▁pour	-12207
▁prin	-12208
▁sket	-12209
ishers	-12210
▁BIHAR	-12211
▁Paras	-12212
▁Saint	-12213
▁adapt	-12214
▁forci	-12215
▁sulph	-12216
naments	-12217
▁dishon	-12218
▁humili	-12219
▁marble	-12220
appeared	-12221
▁Enquiry	-12222
▁Message	-12223
▁tenancy	-12224
▁threats	-12225
▁Champions	-12226
▁Generally	-12227
▁Presidency	-12228
▁Profession	-12229
▁afterwards	-12230
▁Partnership	-12231
▁differently	-12232
▁neighbourhood	-12233
▁reconstruction	-12234
WA	-12235
aco	-12236
kan	-12237
ker	-12238
ispr	-12239
ulal	-12240
ulam	-12241
▁Jes	-12242
acter	-12243
▁Cham	-12244
▁PART	-12245
▁Prob	-12246
▁bits	-12247
▁gene	-12248
▁impe	-12249
▁tomb	-12250
▁trip	-12251
▁Early	-12252
▁Nobel	-12253
▁Vehic	-12254
▁undis	-12255
emption	-12256
version	-12257
▁Adalat	-12258
▁Colony	-12259
▁Shashi	-12260
▁bodily	-12261
▁infect	-12262
▁females	-12263
▁gardens	-12264
▁Whenever	-12265
▁improper	-12266
▁Microsoft	-12267
▁delighted	-12268
▁Securities	-12269
ii	-12270
dha	-12271
uka	-12272
▁BS	-12273
▁pp	-12274
etor	-12275
untu	-12276
▁Tap	-12277
alian	-12278
rious	-12279
▁Deed	-12280
▁LINK	-12281
▁fame	-12282
▁impr	-12283
▁rejo	-12284
▁sung	-12285
ealand	-12286
▁dairy	-12287
▁shame	-12288
▁tales	-12289
▁unpre	-12290
▁verte	-12291
▁Config	-12292
▁Wealth	-12293
▁Goswami	-12294
▁founding	-12295
▁spectrum	-12296
▁equitable	-12297
▁socialist	-12298
▁Jagannatha	-12299
▁convenient	-12300
▁sculptures	-12301
▁collectively	-12302
▁expectations	-12303
▁beneficiaries	-12304
mas	-12305
▁१७	-12306
core	-12307
▁FDI	-12308
▁Und	-12309
▁Milk	-12310
▁Rout	-12311
▁cher	-12312
▁glob	-12313
erable	-12314
▁Title	-12315
▁nemat	-12316
▁renow	-12317
▁sorry	-12318
▁unlaw	-12319
▁Sports	-12320
▁confer	-12321
▁weekly	-12322
▁Jyotish	-12323
▁Shastri	-12324
▁passive	-12325
▁Philosop	-12326
▁regulated	-12327
▁threshold	-12328
▁Assessment	-12329
▁Laboratory	-12330
▁sanitation	-12331
▁communicate	-12332
▁electronics	-12333
▁contemplated	-12334
▁translations	-12335
▁Commissioners	-12336
▁Communication	-12337
FA	-12338
gin	-12339
▁Ho	-12340
nage	-12341
rage	-12342
▁fer	-12343
ocity	-12344
▁Duty	-12345
▁coat	-12346
▁exit	-12347
▁trap	-12348
▁wand	-12349
▁Color	-12350
▁Suraj	-12351
▁lakes	-12352
▁spray	-12353
▁tenth	-12354
▁vivid	-12355
▁Demand	-12356
▁PRANAB	-12357
▁Remote	-12358
▁Return	-12359
▁Saddam	-12360
▁foster	-12361
▁locked	-12362
▁solved	-12363
▁throne	-12364
▁unanim	-12365
ensively	-12366
▁Culture	-12367
▁peasant	-12368
▁vibrant	-12369
▁birthday	-12370
▁Universal	-12371
▁Vaishnava	-12372
▁greatness	-12373
▁influences	-12374
▁worshipped	-12375
▁identifying	-12376
▁politicians	-12377
▁manifestation	-12378
DS	-12379
IVE	-12380
aine	-12381
orrh	-12382
▁Bay	-12383
▁Bis	-12384
▁Cam	-12385
▁Hom	-12386
▁Siy	-12387
▁bye	-12388
▁sap	-12389
iries	-12390
khand	-12391
odara	-12392
▁erst	-12393
olence	-12394
▁Maybe	-12395
▁frust	-12396
▁illum	-12397
▁warri	-12398
▁Always	-12399
▁Charan	-12400
▁admire	-12401
▁assent	-12402
▁colors	-12403
▁humour	-12404
▁revolt	-12405
▁earnest	-12406
▁stretch	-12407
▁formally	-12408
▁immortal	-12409
▁interrog	-12410
▁locality	-12411
▁segments	-12412
▁sometime	-12413
▁Gandharva	-12414
▁Guarantee	-12415
▁accomplished	-12416
▁Tun	-12417
▁lin	-12418
▁Fran	-12419
▁Iron	-12420
▁Kala	-12421
▁Seth	-12422
▁Team	-12423
▁fing	-12424
▁loud	-12425
▁sums	-12426
▁Track	-12427
▁spark	-12428
▁edited	-12429
▁enumer	-12430
▁saints	-12431
▁superv	-12432
▁varies	-12433
▁textile	-12434
▁checking	-12435
▁confused	-12436
▁immunity	-12437
▁accidents	-12438
▁acquiring	-12439
▁pertinent	-12440
▁variation	-12441
▁Scientific	-12442
▁pesticides	-12443
▁collections	-12444
▁occasionally	-12445
▁supplementary	-12446
▁Lin	-12447
▁Pap	-12448
▁Sai	-12449
▁rum	-12450
▁wil	-12451
opter	-12452
▁Coal	-12453
▁Rand	-12454
acious	-12455
▁Leban	-12456
▁SIDBI	-12457
▁blame	-12458
▁frank	-12459
ghalaya	-12460
▁layout	-12461
▁sevent	-12462
▁superf	-12463
▁emperor	-12464
▁leather	-12465
▁reviewed	-12466
▁Democracy	-12467
▁Telephone	-12468
▁perfectly	-12469
▁safeguards	-12470
▁successive	-12471
▁eligibility	-12472
chi	-12473
uis	-12474
▁EC	-12475
▁MA	-12476
▁Sex	-12477
aning	-12478
ankaj	-12479
odium	-12480
▁guru	-12481
▁Given	-12482
▁Patil	-12483
▁assim	-12484
▁Folder	-12485
▁mystic	-12486
▁nephew	-12487
▁robust	-12488
▁rubber	-12489
▁weaker	-12490
▁Witness	-12491
▁triumph	-12492
▁striking	-12493
▁dictionary	-12494
▁investigate	-12495
▁specialized	-12496
▁communicated	-12497
▁facilitating	-12498
achh	-12499
anki	-12500
urai	-12501
▁Ros	-12502
▁sle	-12503
▁hate	-12504
ashram	-12505
▁arrow	-12506
▁inequ	-12507
▁steam	-12508
▁Portug	-12509
▁Remove	-12510
▁wicket	-12511
rimonial	-12512
▁accepts	-12513
▁holiday	-12514
eneration	-12515
▁SELECTED	-12516
▁decrease	-12517
▁turnover	-12518
▁ascertain	-12519
▁assumption	-12520
▁completing	-12521
▁earthquake	-12522
akf	-12523
gra	-12524
▁MT	-12525
amal	-12526
▁Mex	-12527
▁asp	-12528
▁tip	-12529
apsed	-12530
▁Mass	-12531
▁frag	-12532
▁grey	-12533
▁pear	-12534
apuram	-12535
isting	-12536
▁hydro	-12537
▁jihad	-12538
▁forged	-12539
ashankar	-12540
▁Belarus	-12541
▁smoking	-12542
▁Comments	-12543
▁Secondly	-12544
▁entities	-12545
▁condemned	-12546
▁probation	-12547
▁affordable	-12548
▁Compensation	-12549
▁improvements	-12550
▁preservation	-12551
GR	-12552
had	-12553
iph	-12554
oea	-12555
ansi	-12556
geon	-12557
gone	-12558
idth	-12559
iler	-12560
▁Rom	-12561
▁Sao	-12562
ement	-12563
▁Kalp	-12564
▁garb	-12565
▁Coast	-12566
▁Funds	-12567
▁edges	-12568
▁gifts	-12569
▁meter	-12570
itional	-12571
▁bottle	-12572
▁notion	-12573
▁Bhushan	-12574
▁Manohar	-12575
▁Meeting	-12576
▁Website	-12577
▁handled	-12578
▁vaccine	-12579
▁deterior	-12580
▁forehead	-12581
▁recalled	-12582
▁wildlife	-12583
▁Portugues	-12584
▁adventure	-12585
▁claimants	-12586
▁ornaments	-12587
▁responded	-12588
▁contractor	-12589
▁inadequate	-12590
▁concessions	-12591
▁amalgamation	-12592
Ind	-12593
urb	-12594
zone	-12595
▁Hab	-12596
▁Mul	-12597
▁gal	-12598
atrix	-12599
▁auto	-12600
▁slip	-12601
hatkar	-12602
▁Padma	-12603
▁Phase	-12604
▁disob	-12605
▁essay	-12606
▁maxim	-12607
▁weigh	-12608
▁Consid	-12609
▁phones	-12610
▁priest	-12611
ructural	-12612
▁Pradeep	-12613
▁wrongly	-12614
izational	-12615
▁adopting	-12616
▁copyright	-12617
▁magnitude	-12618
▁prospects	-12619
▁equipments	-12620
▁chromosomes	-12621
▁researchers	-12622
▁utilisation	-12623
Cs	-12624
URE	-12625
▁Dou	-12626
▁WOR	-12627
▁wip	-12628
▁dues	-12629
▁evid	-12630
verted	-12631
▁Kapil	-12632
▁Dharam	-12633
▁Letter	-12634
▁Medium	-12635
▁hazard	-12636
▁hybrid	-12637
▁misbeh	-12638
▁rhythm	-12639
▁uterus	-12640
▁Agrawal	-12641
▁medieval	-12642
▁packages	-12643
▁demanding	-12644
▁divisions	-12645
▁embarrass	-12646
▁observing	-12647
▁grassroots	-12648
▁computation	-12649
HO	-12650
▁TE	-12651
▁Vy	-12652
eath	-12653
▁Bik	-12654
▁que	-12655
▁unm	-12656
▁moth	-12657
▁wash	-12658
▁Latin	-12659
▁displ	-12660
▁poore	-12661
▁rites	-12662
aneswar	-12663
ulative	-12664
▁Claims	-12665
▁Taking	-12666
▁essays	-12667
▁losing	-12668
▁strain	-12669
▁teleph	-12670
▁Contact	-12671
▁Greater	-12672
▁Jubilee	-12673
▁abdomen	-12674
▁confron	-12675
▁Likewise	-12676
▁Revision	-12677
▁flexible	-12678
▁Ramalinga	-12679
▁dissolved	-12680
▁practised	-12681
▁shoulders	-12682
▁Australian	-12683
▁accumulated	-12684
▁disappeared	-12685
▁entertainment	-12686
NU	-12687
▁Aw	-12688
▁pa	-12689
AYEE	-12690
apse	-12691
ctic	-12692
quet	-12693
▁bom	-12694
ships	-12695
▁ATAL	-12696
▁Gwal	-12697
▁wrap	-12698
aments	-12699
ivable	-12700
▁postp	-12701
▁impress	-12702
▁lodging	-12703
▁nominee	-12704
icipality	-12705
▁Egyptian	-12706
▁Religion	-12707
▁alphabet	-12708
▁offender	-12709
▁swelling	-12710
igm	-12711
moh	-12712
iraj	-12713
ptic	-12714
▁Jad	-12715
allan	-12716
odhya	-12717
▁Less	-12718
▁Pond	-12719
▁VAJP	-12720
▁Ghose	-12721
▁Goods	-12722
▁aston	-12723
▁nodal	-12724
▁Joseph	-12725
▁Kalyan	-12726
▁Relief	-12727
▁jungle	-12728
▁phrase	-12729
▁racial	-12730
▁traced	-12731
▁worlds	-12732
▁airport	-12733
▁pursued	-12734
▁Circular	-12735
▁SPEECHES	-12736
▁Template	-12737
▁VAJPAYEE	-12738
▁prohibit	-12739
▁Different	-12740
▁Kolhatkar	-12741
▁Languages	-12742
▁erstwhile	-12743
▁administer	-12744
▁minorities	-12745
▁patriotism	-12746
▁preventing	-12747
▁regulating	-12748
▁PRODUCTNAME	-12749
▁mathematics	-12750
▁Consultation	-12751
▁consequently	-12752
rell	-12753
▁Cli	-12754
▁Hen	-12755
▁Mud	-12756
anyan	-12757
buntu	-12758
▁Alex	-12759
▁Arts	-12760
▁Cash	-12761
▁Dash	-12762
▁Requ	-12763
▁Areas	-12764
▁Nawab	-12765
▁Still	-12766
▁blows	-12767
▁rises	-12768
▁tempt	-12769
▁Bezbar	-12770
▁Ravana	-12771
▁hungry	-12772
▁pulled	-12773
▁pushed	-12774
▁Between	-12775
▁PRESENT	-12776
▁defects	-12777
isticated	-12778
▁Particip	-12779
▁peasants	-12780
isprudence	-12781
▁forgotten	-12782
▁petroleum	-12783
▁furnishing	-12784
▁meditation	-12785
▁procession	-12786
▁Declaration	-12787
▁Governorate	-12788
▁Intelligence	-12789
▁ms	-12790
▁thy	-12791
▁boot	-12792
eneral	-12793
▁Grade	-12794
▁Minor	-12795
▁Study	-12796
▁alert	-12797
▁demol	-12798
▁knock	-12799
▁revel	-12800
▁breeds	-12801
▁wished	-12802
▁Purusha	-12803
▁Zealand	-12804
▁deities	-12805
▁wedding	-12806
▁Citizens	-12807
▁Physical	-12808
▁clearing	-12809
▁operator	-12810
▁punished	-12811
▁Telangana	-12812
▁vexatious	-12813
▁innovators	-12814
▁prosperous	-12815
▁comparatively	-12816
LC	-12817
eor	-12818
obby	-12819
rait	-12820
rang	-12821
shad	-12822
▁Pud	-12823
▁ail	-12824
▁gam	-12825
▁wal	-12826
arsha	-12827
cated	-12828
▁Khal	-12829
▁True	-12830
▁adds	-12831
▁clay	-12832
▁dupl	-12833
▁verd	-12834
abhuti	-12835
▁Sanct	-12836
▁ample	-12837
itaries	-12838
▁Animal	-12839
▁County	-12840
▁Ranjit	-12841
▁encoun	-12842
▁mandap	-12843
▁module	-12844
▁trials	-12845
▁Masters	-12846
▁Michael	-12847
▁Vaishnav	-12848
▁Meghalaya	-12849
▁conceived	-12850
▁enlightened	-12851
▁underground	-12852
▁examinations	-12853
▁undertakings	-12854
hor	-12855
arse	-12856
lymp	-12857
othe	-12858
▁BJP	-12859
▁Moz	-12860
▁Mum	-12861
▁ved	-12862
odder	-12863
▁Mail	-12864
▁Rele	-12865
▁brut	-12866
▁dawn	-12867
▁mini	-12868
▁ours	-12869
▁Nigam	-12870
▁mines	-12871
uctions	-12872
▁Perman	-12873
▁Pillai	-12874
▁Unless	-12875
▁infirm	-12876
▁verify	-12877
istrates	-12878
ithmetic	-12879
▁Sandeep	-12880
▁grateful	-12881
▁socially	-12882
▁expressly	-12883
▁mentality	-12884
▁propaganda	-12885
▁civilisation	-12886
▁OP	-12887
shed	-12888
ukar	-12889
rives	-12890
▁Bhup	-12891
▁Chet	-12892
▁Jack	-12893
▁Poth	-12894
▁hire	-12895
▁nour	-12896
iketan	-12897
▁Italy	-12898
▁Olymp	-12899
▁climb	-12900
▁creed	-12901
▁delta	-12902
▁males	-12903
▁teams	-12904
ilitary	-12905
▁Brazil	-12906
▁Finland	-12907
▁Prakrit	-12908
▁broadly	-12909
▁justify	-12910
▁varying	-12911
▁workman	-12912
mentioned	-12913
▁pursuing	-12914
▁utilized	-12915
▁comprised	-12916
▁employers	-12917
▁hereafter	-12918
▁implicated	-12919
▁Bhubaneswar	-12920
▁orientation	-12921
▁Construction	-12922
cop	-12923
▁ba	-12924
deep	-12925
inam	-12926
laws	-12927
▁PDD	-12928
▁eco	-12929
etent	-12930
heres	-12931
osity	-12932
rophy	-12933
▁Answ	-12934
▁Vall	-12935
▁feas	-12936
▁lips	-12937
▁tens	-12938
▁Iraqi	-12939
▁Sugar	-12940
▁prize	-12941
▁wives	-12942
istence	-12943
olation	-12944
▁BIHARI	-12945
▁clever	-12946
akrishna	-12947
▁carrier	-12948
▁propose	-12949
roduction	-12950
▁assuming	-12951
▁consumed	-12952
▁stressed	-12953
▁excluding	-12954
▁furniture	-12955
▁inherited	-12956
▁vegetable	-12957
▁Portuguese	-12958
▁modifications	-12959
Us	-12960
ASS	-12961
ORT	-12962
Tax	-12963
▁KV	-12964
▁Ta	-12965
▁UTs	-12966
▁hoc	-12967
▁inh	-12968
▁vic	-12969
riday	-12970
▁Word	-12971
▁corn	-12972
▁stir	-12973
raisal	-12974
▁Burma	-12975
▁Colle	-12976
▁Crown	-12977
▁Nayak	-12978
▁crown	-12979
▁debts	-12980
natural	-12981
▁Kapoor	-12982
▁Mechan	-12983
▁assure	-12984
▁disreg	-12985
iability	-12986
▁arrears	-12987
▁conting	-12988
▁percept	-12989
▁Assamese	-12990
▁adjacent	-12991
▁enclosed	-12992
▁interval	-12993
▁patience	-12994
▁portions	-12995
▁Ordinance	-12996
▁associates	-12997
▁emphasized	-12998
▁provincial	-12999
▁prohibition	-13000
▁Corporations	-13001
▁Nevertheless	-13002
FS	-13003
yed	-13004
▁SW	-13005
bled	-13006
cium	-13007
flow	-13008
▁ham	-13009
CTION	-13010
▁Conc	-13011
▁Mars	-13012
▁cars	-13013
▁surf	-13014
efully	-13015
ulance	-13016
▁Ratan	-13017
▁brick	-13018
▁Keshav	-13019
▁enrich	-13020
▁outset	-13021
▁scenes	-13022
▁License	-13023
▁Strateg	-13024
▁blessed	-13025
▁omitted	-13026
▁Forensic	-13027
▁reciproc	-13028
▁symbolic	-13029
ses	-13030
▁DD	-13031
▁KB	-13032
abar	-13033
mani	-13034
▁Pub	-13035
▁Tik	-13036
adian	-13037
▁COND	-13038
▁aunt	-13039
▁MSMEs	-13040
▁fancy	-13041
▁incon	-13042
▁overs	-13043
▁sweep	-13044
General	-13045
▁Launch	-13046
▁arisen	-13047
▁endors	-13048
▁extrem	-13049
▁mortem	-13050
▁sheets	-13051
▁asserted	-13052
▁ignorant	-13053
▁unauthor	-13054
▁Indonesia	-13055
▁Presiding	-13056
▁clearance	-13057
▁conflicts	-13058
▁intuitive	-13059
▁companions	-13060
▁depression	-13061
▁exhibition	-13062
▁confirmation	-13063
St	-13064
ye	-13065
araj	-13066
ibha	-13067
ints	-13068
seud	-13069
worm	-13070
▁kar	-13071
▁nos	-13072
▁sen	-13073
rolog	-13074
umdar	-13075
▁Much	-13076
▁adjo	-13077
▁dual	-13078
▁flav	-13079
▁nurt	-13080
oyalty	-13081
▁Dayal	-13082
▁Khadi	-13083
▁roles	-13084
▁Orders	-13085
▁intens	-13086
▁occupy	-13087
▁Arabian	-13088
▁Unknown	-13089
▁Whereas	-13090
▁cleared	-13091
▁renewed	-13092
▁Israelis	-13093
▁Wildlife	-13094
▁develops	-13095
▁eighteen	-13096
▁merchant	-13097
▁safeguard	-13098
▁testified	-13099
▁appointing	-13100
▁capacities	-13101
▁elementary	-13102
▁upgradation	-13103
▁instrumental	-13104
▁certification	-13105
DM	-13106
ROM	-13107
hee	-13108
pati	-13109
▁Dab	-13110
▁idi	-13111
▁Find	-13112
▁Need	-13113
▁belt	-13114
▁offs	-13115
usters	-13116
▁Blood	-13117
▁Daman	-13118
▁Email	-13119
▁Sarma	-13120
▁Vinay	-13121
▁afore	-13122
▁burst	-13123
▁pilot	-13124
▁affair	-13125
▁annexed	-13126
▁purview	-13127
▁Bezbaroa	-13128
▁Devendra	-13129
▁Document	-13130
▁borrowed	-13131
▁shipping	-13132
▁theories	-13133
▁detection	-13134
▁meanwhile	-13135
▁charitable	-13136
▁concession	-13137
▁transplant	-13138
In	-13139
eek	-13140
teen	-13141
▁Try	-13142
▁dub	-13143
▁sik	-13144
adhar	-13145
andal	-13146
isted	-13147
sofar	-13148
▁webs	-13149
▁Multi	-13150
▁Pappu	-13151
▁Pharm	-13152
▁Place	-13153
▁buyer	-13154
▁imped	-13155
casting	-13156
▁Altern	-13157
▁Fourth	-13158
▁Sudden	-13159
▁updated	-13160
▁warfare	-13161
▁watched	-13162
▁Lakshman	-13163
▁dividing	-13164
▁restored	-13165
▁abolished	-13166
▁consensus	-13167
▁suspected	-13168
▁Provincial	-13169
▁households	-13170
▁compositions	-13171
▁sufficiently	-13172
BA	-13173
box	-13174
zed	-13175
▁Kr	-13176
ibai	-13177
rama	-13178
uria	-13179
▁ank	-13180
▁tie	-13181
gging	-13182
▁Karm	-13183
▁Must	-13184
▁dump	-13185
▁foss	-13186
itably	-13187
▁gases	-13188
idation	-13189
▁Amicus	-13190
▁Gloria	-13191
▁actors	-13192
▁inspir	-13193
▁instal	-13194
▁topics	-13195
▁tragic	-13196
▁Krishan	-13197
▁failing	-13198
▁lateral	-13199
▁annually	-13200
▁enforced	-13201
▁Pollution	-13202
▁allocated	-13203
▁Bhavabhuti	-13204
▁persistent	-13205
▁citizenship	-13206
▁coordination	-13207
▁Establishment	-13208
from	-13209
▁Adi	-13210
▁DVD	-13211
▁NHS	-13212
▁hrs	-13213
▁hut	-13214
▁pel	-13215
ounce	-13216
rowth	-13217
stein	-13218
▁Fair	-13219
▁HOST	-13220
▁mala	-13221
▁Files	-13222
▁Spain	-13223
▁pitch	-13224
ainable	-13225
orative	-13226
▁Garden	-13227
▁Gorakh	-13228
▁Server	-13229
▁fisher	-13230
cedented	-13231
isheries	-13232
▁forever	-13233
▁implies	-13234
▁leprosy	-13235
ifference	-13236
▁requests	-13237
▁estimates	-13238
▁extracted	-13239
▁renewable	-13240
▁searching	-13241
▁Vidyasagar	-13242
▁competence	-13243
▁discussing	-13244
xx	-13245
rak	-13246
esis	-13247
lude	-13248
▁Haj	-13249
▁ICC	-13250
▁sel	-13251
istani	-13252
▁Bilas	-13253
▁Chowk	-13254
▁Daily	-13255
▁Plate	-13256
▁keros	-13257
▁tyran	-13258
▁Charge	-13259
▁digest	-13260
▁eighty	-13261
▁stretc	-13262
▁surely	-13263
▁Gwalior	-13264
▁Keeping	-13265
▁fortune	-13266
▁refusal	-13267
▁Balarama	-13268
▁Manufact	-13269
▁Meherally	-13270
▁Sanctuary	-13271
▁exercises	-13272
▁attributes	-13273
▁intimation	-13274
▁presenting	-13275
▁approaching	-13276
▁ingredients	-13277
▁Christianity	-13278
▁multiplication	-13279
KS	-13280
upp	-13281
▁TB	-13282
berg	-13283
▁Drav	-13284
▁HTML	-13285
▁Marx	-13286
▁disl	-13287
▁shar	-13288
▁breat	-13289
▁condu	-13290
▁energ	-13291
▁lungs	-13292
▁undue	-13293
▁Robert	-13294
▁modify	-13295
▁Ayodhya	-13296
▁Charter	-13297
ciplinary	-13298
▁Actually	-13299
▁Download	-13300
▁Maharshi	-13301
▁carriage	-13302
▁chapters	-13303
▁receiver	-13304
▁alternate	-13305
▁exploited	-13306
▁precisely	-13307
▁Satyagraha	-13308
▁Upanishads	-13309
▁negligence	-13310
▁extensively	-13311
▁magnificent	-13312
▁matrimonial	-13313
▁deliberations	-13314
idhi	-13315
▁Low	-13316
▁URI	-13317
flies	-13318
semin	-13319
▁Chaw	-13320
▁Durg	-13321
▁Liqu	-13322
▁lump	-13323
ureauc	-13324
▁token	-13325
▁tough	-13326
entures	-13327
▁Serial	-13328
▁Taluka	-13329
▁evolve	-13330
▁rating	-13331
▁snakes	-13332
▁fingers	-13333
▁Learning	-13334
▁unlawful	-13335
▁inability	-13336
▁assaulting	-13337
▁auspicious	-13338
▁kilometres	-13339
PR	-13340
agg	-13341
oba	-13342
▁Ox	-13343
miki	-13344
▁Koh	-13345
▁NRI	-13346
eller	-13347
▁Chan	-13348
▁Lock	-13349
▁Nurs	-13350
▁Pray	-13351
▁Upon	-13352
▁Clean	-13353
▁cheer	-13354
▁loyal	-13355
▁mills	-13356
▁Sunita	-13357
▁errone	-13358
▁spouse	-13359
▁warned	-13360
▁Auditor	-13361
▁counted	-13362
▁invoked	-13363
▁solving	-13364
▁Ravindra	-13365
▁economics	-13366
▁testatrix	-13367
▁unemployment	-13368
rar	-13369
▁Uz	-13370
▁oct	-13371
▁odd	-13372
▁Aged	-13373
▁Bala	-13374
▁Cant	-13375
▁Gulf	-13376
▁Bhakti	-13377
▁Sunday	-13378
▁Vishal	-13379
▁cataly	-13380
▁cousin	-13381
▁Disable	-13382
▁locally	-13383
▁winding	-13384
itiveness	-13385
▁assistant	-13386
▁attribute	-13387
▁sugarcane	-13388
▁procurement	-13389
▁confidential	-13390
▁demonstration	-13391
▁unfortunately	-13392
AA	-13393
azi	-13394
cow	-13395
bral	-13396
ials	-13397
kara	-13398
▁END	-13399
▁gov	-13400
isers	-13401
▁glim	-13402
▁rays	-13403
▁turb	-13404
ogenic	-13405
▁grams	-13406
▁indef	-13407
▁login	-13408
▁quota	-13409
ivision	-13410
▁Daniel	-13411
▁buried	-13412
▁freight	-13413
▁hunting	-13414
▁restaur	-13415
▁washing	-13416
▁shopping	-13417
▁reactions	-13418
▁sensation	-13419
▁translate	-13420
▁Hindustani	-13421
▁magistrate	-13422
▁Chairperson	-13423
▁concentrated	-13424
PG	-13425
pse	-13426
▁GT	-13427
cott	-13428
neum	-13429
▁Atl	-13430
▁Dak	-13431
▁Deo	-13432
▁IIS	-13433
▁Siv	-13434
▁muk	-13435
ostic	-13436
▁Brij	-13437
▁Fert	-13438
▁Noor	-13439
▁adul	-13440
▁pant	-13441
▁publ	-13442
estone	-13443
▁boxes	-13444
▁craft	-13445
▁hoped	-13446
▁incul	-13447
▁mercy	-13448
▁Arvind	-13449
▁Girish	-13450
▁binary	-13451
▁modest	-13452
▁remand	-13453
▁Advance	-13454
▁Reports	-13455
▁concili	-13456
▁dispose	-13457
▁episode	-13458
▁physics	-13459
▁portray	-13460
▁Chromium	-13461
▁affirmed	-13462
▁clothing	-13463
▁lifetime	-13464
▁morality	-13465
▁omission	-13466
▁unreason	-13467
▁velocity	-13468
▁suspicion	-13469
▁specialist	-13470
▁conclusions	-13471
▁condolences	-13472
▁provisional	-13473
▁undoubtedly	-13474
▁reproduction	-13475
▁unprecedented	-13476
HC	-13477
eree	-13478
iman	-13479
last	-13480
▁Bud	-13481
▁Poo	-13482
▁Sep	-13483
acker	-13484
named	-13485
▁Gond	-13486
▁Lead	-13487
▁Rent	-13488
▁Srik	-13489
▁ensh	-13490
▁lust	-13491
onance	-13492
▁Chart	-13493
▁Index	-13494
▁Except	-13495
▁Propos	-13496
▁safely	-13497
ventions	-13498
▁Maulana	-13499
▁coupled	-13500
▁Advanced	-13501
▁dominated	-13502
▁inception	-13503
▁numerator	-13504
▁sacrifices	-13505
▁anticipatory	-13506
CA	-13507
ILL	-13508
jid	-13509
▁Il	-13510
▁OK	-13511
▁oh	-13512
aret	-13513
▁Hir	-13514
▁Loh	-13515
▁Tub	-13516
▁cub	-13517
▁rod	-13518
arked	-13519
avari	-13520
▁Kand	-13521
▁NITs	-13522
▁bent	-13523
▁hook	-13524
▁wool	-13525
icitor	-13526
▁Hills	-13527
▁brack	-13528
▁shade	-13529
▁basket	-13530
▁eighth	-13531
▁upload	-13532
▁Italian	-13533
▁expense	-13534
▁guiding	-13535
▁pressing	-13536
▁Permanent	-13537
▁declaring	-13538
▁partially	-13539
▁beneficiary	-13540
▁constituent	-13541
▁innumerable	-13542
▁Consolidated	-13543
OLD	-13544
roto	-13545
uits	-13546
▁Tow	-13547
gupta	-13548
ivest	-13549
▁thir	-13550
▁ward	-13551
▁Anglo	-13552
▁Celeb	-13553
▁Jesus	-13554
▁Kabul	-13555
▁Siddh	-13556
▁scrap	-13557
▁Gobind	-13558
▁barred	-13559
▁conced	-13560
▁tackle	-13561
▁Regular	-13562
▁cordial	-13563
▁decides	-13564
▁roughly	-13565
▁Everyone	-13566
▁Purchase	-13567
▁persuade	-13568
▁presided	-13569
▁versions	-13570
▁sculpture	-13571
▁Electronic	-13572
▁Entreprene	-13573
▁guarantees	-13574
▁Presidential	-13575
▁representations	-13576
CS	-13577
ANT	-13578
cot	-13579
▁Du	-13580
▁ES	-13581
▁je	-13582
cond	-13583
rome	-13584
umns	-13585
undi	-13586
▁Fak	-13587
▁NUM	-13588
▁lun	-13589
▁Fast	-13590
▁Quar	-13591
▁ferv	-13592
▁pale	-13593
▁Indore	-13594
▁Sarkar	-13595
▁commem	-13596
▁theore	-13597
▁thirst	-13598
▁wouldn	-13599
▁Brother	-13600
▁Trading	-13601
▁credits	-13602
▁scrutin	-13603
▁Vadodara	-13604
▁provider	-13605
▁reassess	-13606
▁foregoing	-13607
▁rejecting	-13608
▁Provisions	-13609
▁voluntarily	-13610
▁Jyotishpeeth	-13611
▁consistently	-13612
▁sophisticated	-13613
FP	-13614
Rs	-13615
oir	-13616
arao	-13617
▁Diu	-13618
▁Imp	-13619
▁Mel	-13620
▁cab	-13621
▁yes	-13622
▁None	-13623
▁Zion	-13624
▁dung	-13625
avitri	-13626
ispens	-13627
▁Games	-13628
▁Psych	-13629
▁fluct	-13630
▁greed	-13631
▁paste	-13632
▁steep	-13633
▁cooked	-13634
▁metall	-13635
▁openly	-13636
▁spinal	-13637
▁versus	-13638
▁Chamber	-13639
▁Shivaji	-13640
▁Siyaram	-13641
▁Unicode	-13642
▁chances	-13643
▁ongoing	-13644
▁premier	-13645
▁Dominion	-13646
▁shifting	-13647
▁wireless	-13648
▁companion	-13649
▁disorders	-13650
▁prolonged	-13651
▁concluding	-13652
▁constraint	-13653
▁curriculum	-13654
▁calculation	-13655
deo	-13656
adas	-13657
eing	-13658
orum	-13659
▁MIN	-13660
▁bee	-13661
ammal	-13662
angal	-13663
mbuds	-13664
▁Magn	-13665
▁Moti	-13666
▁heir	-13667
▁wore	-13668
ompass	-13669
▁Kisan	-13670
▁dozen	-13671
▁naked	-13672
▁query	-13673
▁robot	-13674
ecessor	-13675
quisite	-13676
▁Sunder	-13677
▁Venkat	-13678
▁anyway	-13679
▁incumb	-13680
▁lifted	-13681
▁marvel	-13682
ivestock	-13683
▁Present	-13684
▁anxiety	-13685
▁briefly	-13686
▁embrace	-13687
▁Narayana	-13688
▁illusion	-13689
▁solitary	-13690
▁statutes	-13691
▁indispens	-13692
▁chromosome	-13693
▁delivering	-13694
▁dependence	-13695
▁expressing	-13696
▁plantation	-13697
▁dignitaries	-13698
LD	-13699
ROW	-13700
cap	-13701
▁Big	-13702
▁INA	-13703
▁Kha	-13704
▁Sac	-13705
▁dan	-13706
idian	-13707
ivedi	-13708
▁Arth	-13709
▁Kach	-13710
atible	-13711
eeling	-13712
▁Lalit	-13713
▁fibre	-13714
▁rests	-13715
▁toile	-13716
▁Memory	-13717
▁finish	-13718
▁suited	-13719
▁wholes	-13720
▁Taliban	-13721
▁gravity	-13722
▁Medicine	-13723
▁deducted	-13724
▁fruitful	-13725
▁graphics	-13726
▁lighting	-13727
▁mentions	-13728
▁Communist	-13729
▁Defendant	-13730
▁composite	-13731
▁incidence	-13732
▁preventive	-13733
▁correctness	-13734
AV	-13735
▁fu	-13736
TING	-13737
fold	-13738
▁Muz	-13739
▁Pil	-13740
▁cyl	-13741
▁hem	-13742
▁lux	-13743
ibhai	-13744
▁Kund	-13745
▁Mode	-13746
▁Neel	-13747
▁Sarv	-13748
▁anat	-13749
▁disg	-13750
▁khan	-13751
anchal	-13752
headed	-13753
uniary	-13754
▁Suman	-13755
▁Units	-13756
▁accus	-13757
▁disin	-13758
▁fores	-13759
uncture	-13760
▁Almost	-13761
▁Disput	-13762
▁Pankaj	-13763
▁banyan	-13764
▁lovers	-13765
▁loving	-13766
▁polity	-13767
▁rebell	-13768
▁voters	-13769
▁Charles	-13770
▁Farmers	-13771
▁amazing	-13772
▁dangers	-13773
▁enlarge	-13774
▁Jadunath	-13775
▁dwelling	-13776
▁explicit	-13777
▁renowned	-13778
▁trekking	-13779
obiography	-13780
▁Complaint	-13781
▁gratitude	-13782
▁complained	-13783
▁coordinate	-13784
▁reproduced	-13785
▁Subordinate	-13786
▁concentrate	-13787
▁temporarily	-13788
cca	-13789
▁Fe	-13790
▁HO	-13791
▁Emb	-13792
▁SHG	-13793
▁cig	-13794
▁sli	-13795
comes	-13796
inals	-13797
otomy	-13798
▁Bapu	-13799
▁COMM	-13800
▁cens	-13801
▁chat	-13802
▁dent	-13803
▁epit	-13804
▁puzz	-13805
insula	-13806
▁Kiran	-13807
▁dried	-13808
▁pairs	-13809
▁petty	-13810
icherry	-13811
▁Bachan	-13812
▁Device	-13813
▁Prepar	-13814
▁inters	-13815
▁stocks	-13816
▁thanks	-13817
▁underw	-13818
▁Shekhar	-13819
▁oneself	-13820
▁climatic	-13821
▁momentum	-13822
▁passport	-13823
▁republic	-13824
▁exhibited	-13825
▁remainder	-13826
▁excitement	-13827
▁Legislatures	-13828
ona	-13829
raf	-13830
▁ug	-13831
agus	-13832
oded	-13833
oric	-13834
▁Cup	-13835
▁gau	-13836
▁kin	-13837
▁sew	-13838
atile	-13839
▁Abhi	-13840
▁Meer	-13841
▁Rain	-13842
▁Puran	-13843
▁chand	-13844
▁shore	-13845
▁Curiae	-13846
▁Mandir	-13847
▁Priyob	-13848
▁Tehsil	-13849
▁Window	-13850
▁amidst	-13851
▁dinner	-13852
▁ration	-13853
▁tariff	-13854
▁disable	-13855
▁updates	-13856
▁Password	-13857
▁dissemin	-13858
▁adjoining	-13859
▁intervals	-13860
▁scattered	-13861
▁typically	-13862
▁absorption	-13863
▁enhancement	-13864
▁encouragement	-13865
Es	-13866
IES	-13867
LIC	-13868
can	-13869
hati	-13870
iary	-13871
inqu	-13872
▁Jas	-13873
▁Sul	-13874
▁gui	-13875
▁jag	-13876
ritis	-13877
▁Chap	-13878
▁echo	-13879
essful	-13880
master	-13881
▁harsh	-13882
ascular	-13883
▁Twenty	-13884
▁admits	-13885
▁effici	-13886
▁ledger	-13887
▁misuse	-13888
▁remitt	-13889
estation	-13890
▁Motilal	-13891
▁excited	-13892
▁fiction	-13893
▁moments	-13894
▁profess	-13895
▁soldier	-13896
▁trusted	-13897
▁verdict	-13898
▁Students	-13899
▁chairman	-13900
▁prescrib	-13901
▁supervis	-13902
▁touching	-13903
▁constable	-13904
▁launching	-13905
▁creativity	-13906
▁horizontal	-13907
▁conferences	-13908
▁horticulture	-13909
waj	-13910
▁Ye	-13911
SION	-13912
loom	-13913
mala	-13914
▁Gol	-13915
▁Len	-13916
▁rib	-13917
arium	-13918
▁ISRO	-13919
▁twin	-13920
uously	-13921
▁BEGIN	-13922
▁Nived	-13923
▁lymph	-13924
▁thirt	-13925
▁Ground	-13926
▁Method	-13927
▁Sahdev	-13928
▁Transl	-13929
▁dealer	-13930
▁postal	-13931
▁Madurai	-13932
▁reduces	-13933
▁repairs	-13934
▁Analysis	-13935
▁commands	-13936
▁contends	-13937
▁conducive	-13938
▁incidental	-13939
▁instructed	-13940
▁nineteenth	-13941
▁predecessor	-13942
▁pharmaceutical	-13943
yn	-13944
bey	-13945
▁PE	-13946
NOME	-13947
adar	-13948
aval	-13949
eous	-13950
▁Cad	-13951
▁Ess	-13952
▁Sap	-13953
▁qua	-13954
itter	-13955
▁Jais	-13956
▁Kang	-13957
▁Poor	-13958
▁Stop	-13959
▁dose	-13960
▁medi	-13961
▁misc	-13962
▁rash	-13963
▁sine	-13964
▁tale	-13965
atable	-13966
raries	-13967
▁GNOME	-13968
▁hilly	-13969
▁pulse	-13970
▁stagn	-13971
▁Parent	-13972
▁infrast	-13973
▁worldly	-13974
▁complied	-13975
▁operates	-13976
▁transmit	-13977
▁Petitions	-13978
▁admiration	-13979
▁Performance	-13980
▁entertained	-13981
▁inhabitants	-13982
▁replacement	-13983
pha	-13984
ulin	-13985
umni	-13986
▁lip	-13987
adeva	-13988
giene	-13989
▁Ajit	-13990
▁fake	-13991
▁heap	-13992
▁yard	-13993
▁Cases	-13994
▁Clerk	-13995
▁DATED	-13996
▁drunk	-13997
▁sided	-13998
▁trunk	-13999
▁waist	-14000
▁Inform	-14001
▁Motion	-14002
▁Recogn	-14003
▁Volume	-14004
▁ethnic	-14005
▁seated	-14006
▁bureauc	-14007
▁loyalty	-14008
▁painted	-14009
▁ranking	-14010
▁barriers	-14011
▁fighters	-14012
▁foremost	-14013
▁websites	-14014
▁terminated	-14015
▁inconsistent	-14016
▁consequential	-14017
DE	-14018
ATI	-14019
alp	-14020
adia	-14021
inea	-14022
▁Joy	-14023
▁Rob	-14024
▁Sib	-14025
mohun	-14026
rally	-14027
shala	-14028
▁FROM	-14029
▁grid	-14030
▁hang	-14031
ocular	-14032
▁Diwan	-14033
▁Drugs	-14034
▁Fateh	-14035
▁Korea	-14036
▁Tatya	-14037
▁camps	-14038
▁coinc	-14039
▁homic	-14040
▁intol	-14041
▁mosqu	-14042
▁sniff	-14043
fection	-14044
▁Madhub	-14045
▁washed	-14046
▁Aurangz	-14047
▁Devanag	-14048
▁Respons	-14049
▁nominal	-14050
▁workmen	-14051
▁Disputes	-14052
▁Nivedita	-14053
▁autonomy	-14054
▁guardian	-14055
▁journals	-14056
▁tropical	-14057
▁averments	-14058
▁primitive	-14059
▁organizing	-14060
▁distinctive	-14061
▁announcement	-14062
▁intermediate	-14063
▁practitioner	-14064
▁indispensable	-14065
nia	-14066
▁HE	-14067
▁ah	-14068
amas	-14069
ikar	-14070
puri	-14071
▁Vit	-14072
▁ink	-14073
arity	-14074
▁Crit	-14075
▁cycl	-14076
▁epid	-14077
▁yoga	-14078
▁Graph	-14079
▁encro	-14080
▁Accept	-14081
▁Bharti	-14082
▁Ubuntu	-14083
▁Unlike	-14084
▁bullet	-14085
▁eldest	-14086
▁enjoys	-14087
▁floods	-14088
▁fodder	-14089
▁retros	-14090
▁rooted	-14091
mbudsman	-14092
▁confine	-14093
▁deficit	-14094
▁ensures	-14095
▁posting	-14096
▁tickets	-14097
▁alleging	-14098
▁artisans	-14099
▁awarding	-14100
▁emission	-14101
▁prevents	-14102
▁reminded	-14103
▁Conditions	-14104
▁Priyobroto	-14105
▁expiration	-14106
▁harvesting	-14107
▁pollutants	-14108
▁Pondicherry	-14109
▁discharging	-14110
ril	-14111
▁AK	-14112
ARDS	-14113
cate	-14114
▁ali	-14115
iforn	-14116
notes	-14117
▁Amin	-14118
▁Cott	-14119
▁Load	-14120
▁Rajk	-14121
▁Task	-14122
▁Wood	-14123
▁Cause	-14124
▁flame	-14125
▁riots	-14126
viously	-14127
▁Arjuna	-14128
▁Degree	-14129
▁Nirmal	-14130
▁edible	-14131
▁incarn	-14132
▁ladies	-14133
▁sticks	-14134
▁Receipt	-14135
▁Sahitya	-14136
▁adjourn	-14137
▁beneath	-14138
▁envelop	-14139
▁notable	-14140
▁nowhere	-14141
▁perused	-14142
▁reactor	-14143
▁telecom	-14144
▁Bilaspur	-14145
▁Rammohun	-14146
▁kerosene	-14147
▁opposing	-14148
▁Copyright	-14149
▁attaining	-14150
▁concealed	-14151
▁contradictions	-14152
ECT	-14153
aro	-14154
uga	-14155
▁XV	-14156
▁१८	-14157
mand	-14158
urop	-14159
▁Bat	-14160
▁Ign	-14161
▁PAN	-14162
▁Ruk	-14163
ishek	-14164
urers	-14165
▁culp	-14166
▁insu	-14167
rology	-14168
▁Sadar	-14169
▁Tibet	-14170
▁codes	-14171
▁ridic	-14172
limited	-14173
▁Pathak	-14174
▁Sachin	-14175
▁hollow	-14176
▁nearer	-14177
▁routes	-14178
▁Century	-14179
▁Harijan	-14180
▁Pothana	-14181
▁impetus	-14182
▁retreat	-14183
▁cellular	-14184
▁floating	-14185
▁textiles	-14186
▁attitudes	-14187
▁envisages	-14188
▁concurrent	-14189
▁invariably	-14190
▁contributing	-14191
▁experimental	-14192
▁reproductive	-14193
ansh	-14194
asar	-14195
hyam	-14196
iece	-14197
orus	-14198
▁Adh	-14199
▁Meg	-14200
▁ber	-14201
akhsh	-14202
▁Giri	-14203
▁IRDA	-14204
▁knee	-14205
▁mast	-14206
▁null	-14207
▁synd	-14208
▁vain	-14209
▁wast	-14210
erving	-14211
▁Field	-14212
▁Initi	-14213
▁Input	-14214
▁Music	-14215
▁Vidya	-14216
▁loses	-14217
▁Rather	-14218
▁inject	-14219
▁merged	-14220
▁wastes	-14221
▁widget	-14222
iniketan	-14223
▁neutral	-14224
▁sixteen	-14225
▁abundant	-14226
▁cleaning	-14227
▁evaluate	-14228
▁mentally	-14229
▁mortality	-14230
▁adequately	-14231
▁simplicity	-14232
▁apprehended	-14233
▁counterpart	-14234
▁exploration	-14235
▁prestigious	-14236
▁superficial	-14237
edi	-14238
gon	-14239
▁Km	-14240
▁Tu	-14241
iner	-14242
qbal	-14243
▁Ill	-14244
arynx	-14245
olith	-14246
range	-14247
▁Fact	-14248
▁Mond	-14249
▁Qual	-14250
▁Uday	-14251
▁forg	-14252
▁prey	-14253
▁quit	-14254
▁tear	-14255
ighter	-14256
ortium	-14257
ulture	-14258
venile	-14259
▁Aryan	-14260
▁Munna	-14261
▁Quest	-14262
▁Until	-14263
▁cache	-14264
▁dilig	-14265
▁lapse	-14266
▁delays	-14267
▁inward	-14268
▁respir	-14269
▁scales	-14270
▁trains	-14271
itations	-14272
▁compare	-14273
▁defense	-14274
▁nucleus	-14275
▁spirits	-14276
▁optional	-14277
▁encounter	-14278
▁executing	-14279
▁commentary	-14280
▁purchasing	-14281
▁requesting	-14282
▁Expenditure	-14283
▁foundations	-14284
▁resolutions	-14285
▁Inflammation	-14286
▁Proclamation	-14287
NL	-14288
gm	-14289
▁IB	-14290
oshi	-14291
▁adh	-14292
▁roy	-14293
avana	-14294
ishth	-14295
▁Samp	-14296
▁bidd	-14297
▁bron	-14298
▁prox	-14299
inates	-14300
odhpur	-14301
▁Qaeda	-14302
▁consp	-14303
▁metre	-14304
▁skull	-14305
▁Diplom	-14306
▁Kanhai	-14307
▁Mathem	-14308
▁asleep	-14309
▁matrix	-14310
▁photos	-14311
▁plugin	-14312
▁pupils	-14313
▁riding	-14314
▁Nalanda	-14315
▁compact	-14316
▁dancing	-14317
▁mystery	-14318
▁tonnage	-14319
▁Absolute	-14320
▁Canadian	-14321
▁adjusted	-14322
▁amending	-14323
▁hypothes	-14324
▁Economics	-14325
▁Jagannath	-14326
▁Paragraph	-14327
▁Treatment	-14328
▁coalition	-14329
▁creditors	-14330
▁undergoing	-14331
▁obstruction	-14332
▁legislations	-14333
▁authoritative	-14334
sm	-14335
erb	-14336
yap	-14337
▁LA	-14338
aver	-14339
look	-14340
sein	-14341
▁Ell	-14342
▁RSS	-14343
▁cog	-14344
adays	-14345
ucose	-14346
▁Anup	-14347
▁Feed	-14348
▁bere	-14349
making	-14350
▁Dutch	-14351
▁Round	-14352
▁Tahas	-14353
▁metab	-14354
▁prone	-14355
▁swift	-14356
▁Senate	-14357
▁betray	-14358
▁bowler	-14359
▁corpus	-14360
▁desper	-14361
▁proves	-14362
▁stabil	-14363
▁tables	-14364
▁Earlier	-14365
▁despair	-14366
▁enthusi	-14367
▁planted	-14368
▁Contempt	-14369
▁clusters	-14370
▁congress	-14371
▁monopoly	-14372
▁publicly	-14373
▁survived	-14374
▁adversely	-14375
▁consisted	-14376
▁encompass	-14377
▁fundament	-14378
▁prescribe	-14379
▁attainment	-14380
▁brotherhood	-14381
▁permissions	-14382
▁prospective	-14383
▁Conservation	-14384
▁VP	-14385
▁Gun	-14386
▁SMS	-14387
▁Saj	-14388
▁Half	-14389
▁mask	-14390
▁unst	-14391
▁vest	-14392
adeshi	-14393
anjali	-14394
iosity	-14395
▁Anant	-14396
▁Close	-14397
▁physi	-14398
▁vocal	-14399
arriage	-14400
▁church	-14401
▁mastery	-14402
▁prevail	-14403
▁reputed	-14404
▁Cultural	-14405
▁Mahadevi	-14406
▁Position	-14407
▁globally	-14408
▁holistic	-14409
▁meanings	-14410
▁searched	-14411
▁shortcut	-14412
▁steadily	-14413
▁Otherwise	-14414
▁synthesis	-14415
▁accomplish	-14416
▁accountant	-14417
▁complexity	-14418
▁Fundamental	-14419
▁handicrafts	-14420
▁traditionally	-14421
CL	-14422
VAN	-14423
▁Od	-14424
akha	-14425
ayuk	-14426
▁Box	-14427
imals	-14428
▁Arya	-14429
▁Mahm	-14430
▁Naya	-14431
▁Shan	-14432
▁bark	-14433
▁lien	-14434
ometry	-14435
ritten	-14436
▁Mines	-14437
▁Taxes	-14438
▁Active	-14439
▁Leader	-14440
▁Reader	-14441
▁Talwar	-14442
▁homage	-14443
▁Dwivedi	-14444
▁serpent	-14445
▁thermal	-14446
▁Jabalpur	-14447
▁Surender	-14448
ustainable	-14449
▁distances	-14450
▁illegally	-14451
▁Devanagari	-14452
▁Individual	-14453
▁Irrigation	-14454
▁conformity	-14455
▁fertilizer	-14456
▁flexibility	-14457
oves	-14458
rons	-14459
▁Ath	-14460
▁RES	-14461
agiri	-14462
ighty	-14463
nings	-14464
▁Give	-14465
▁Nana	-14466
▁diar	-14467
▁grab	-14468
▁spur	-14469
icides	-14470
ockets	-14471
▁Schol	-14472
▁chlor	-14473
▁curve	-14474
▁debit	-14475
▁eaten	-14476
▁rainy	-14477
▁strip	-14478
ructive	-14479
▁Ashish	-14480
▁Assemb	-14481
▁census	-14482
▁devoid	-14483
▁gifted	-14484
▁hiding	-14485
▁landed	-14486
▁merger	-14487
▁tranqu	-14488
▁Parties	-14489
▁adduced	-14490
▁circles	-14491
▁elderly	-14492
▁mothers	-14493
▁suffers	-14494
▁Californ	-14495
▁Jitendra	-14496
▁appealed	-14497
▁litigant	-14498
▁diplomacy	-14499
▁hierarchy	-14500
▁Tahasildar	-14501
▁hesitation	-14502
▁possessing	-14503
▁reasonably	-14504
▁suggesting	-14505
▁Maintenance	-14506
▁presumption	-14507
▁probability	-14508
▁consolidated	-14509
▁substitution	-14510
aws	-14511
eur	-14512
rack	-14513
▁gur	-14514
IVERS	-14515
beyan	-14516
inars	-14517
▁Jasw	-14518
▁pipe	-14519
▁torn	-14520
▁turm	-14521
▁Scale	-14522
▁ingen	-14523
▁rigid	-14524
▁tanks	-14525
hearted	-14526
▁Ashoka	-14527
▁Indica	-14528
▁absorb	-14529
▁analog	-14530
▁guests	-14531
▁poured	-14532
▁pulses	-14533
pathetic	-14534
▁Puranas	-14535
▁condemn	-14536
▁fertile	-14537
▁therapy	-14538
▁Bhagwati	-14539
▁phenomena	-14540
▁explaining	-14541
▁periodical	-14542
▁relaxation	-14543
▁celebration	-14544
▁elimination	-14545
▁politically	-14546
▁constituency	-14547
IB	-14548
IAL	-14549
MOR	-14550
arb	-14551
ulg	-14552
zes	-14553
▁ER	-14554
▁Hi	-14555
unci	-14556
▁Cat	-14557
▁guy	-14558
apura	-14559
front	-14560
heast	-14561
▁HPCL	-14562
▁Joze	-14563
▁Wing	-14564
▁mild	-14565
chants	-14566
▁theft	-14567
ishness	-14568
▁Source	-14569
▁defaul	-14570
▁misery	-14571
▁altered	-14572
▁loading	-14573
▁obliged	-14574
▁strings	-14575
▁winners	-14576
▁Internal	-14577
▁forcibly	-14578
▁memories	-14579
▁monument	-14580
▁Operation	-14581
▁Pakistani	-14582
▁discontin	-14583
▁imparting	-14584
▁physician	-14585
▁processor	-14586
▁Englishman	-14587
▁determines	-14588
▁regardless	-14589
▁continuation	-14590
▁dissemination	-14591
ho	-14592
po	-14593
ITH	-14594
afe	-14595
gha	-14596
▁HR	-14597
▁MD	-14598
▁ud	-14599
made	-14600
rats	-14601
riti	-14602
▁Own	-14603
▁Pati	-14604
▁syll	-14605
▁tast	-14606
rified	-14607
uclear	-14608
▁Imper	-14609
▁Raghu	-14610
atching	-14611
▁Palace	-14612
▁relies	-14613
▁hearted	-14614
▁sanctum	-14615
▁unhappy	-14616
▁Aviation	-14617
▁fracture	-14618
▁smallest	-14619
▁kilograms	-14620
▁neglected	-14621
▁undergone	-14622
▁Ambassador	-14623
▁Harishchandra	-14624
His	-14625
icle	-14626
orty	-14627
phan	-14628
adium	-14629
berry	-14630
eland	-14631
oping	-14632
otype	-14633
▁Gall	-14634
▁Vyas	-14635
▁calf	-14636
▁ecst	-14637
▁wine	-14638
eering	-14639
iances	-14640
ilated	-14641
▁Abbas	-14642
▁Mahas	-14643
▁Medal	-14644
▁unint	-14645
▁Shimla	-14646
▁Sweden	-14647
▁dispro	-14648
▁layers	-14649
▁Chakrab	-14650
▁Omitted	-14651
▁columns	-14652
▁combine	-14653
▁implied	-14654
▁praying	-14655
▁generous	-14656
▁luminous	-14657
▁proteins	-14658
▁remedies	-14659
▁salaries	-14660
ordination	-14661
▁landscape	-14662
▁mainstream	-14663
▁priorities	-14664
▁suspicious	-14665
▁manufacturer	-14666
▁renunciation	-14667
aze	-14668
rin	-14669
umi	-14670
▁NB	-14671
atri	-14672
▁ana	-14673
▁gru	-14674
heric	-14675
lines	-14676
rivol	-14677
write	-14678
▁Cath	-14679
▁Cere	-14680
▁aven	-14681
▁dull	-14682
▁Chint	-14683
▁Stamp	-14684
▁meals	-14685
▁tribe	-14686
▁unequ	-14687
▁zones	-14688
▁Moscow	-14689
▁Sharan	-14690
▁Yogesh	-14691
▁derive	-14692
▁lawful	-14693
▁spices	-14694
▁heating	-14695
▁renewal	-14696
▁speaker	-14697
▁strikes	-14698
▁Highways	-14699
▁Madhukar	-14700
▁Registry	-14701
▁passages	-14702
▁hostility	-14703
▁invention	-14704
▁grandmother	-14705
▁inheritance	-14706
▁prejudicial	-14707
▁Introduction	-14708
▁surroundings	-14709
▁independently	-14710
[...]
