<unk>	0
<s>	0
</s>	0
UuRrLl	0
DdAaTtEe	0
NnUuMm	0
▁the	-3.0173
▁	-3.21795
▁.	-3.44407
▁,	-3.46703
▁of	-3.47674
▁and	-3.9182
▁to	-3.96201
s	-3.97858
▁in	-4.06539
▁a	-4.17564
▁is	-4.62288
;	-4.84837
▁&	-4.89618
▁for	-4.97473
▁-	-4.99504
०	-5.01891
▁that	-5.06081
apos	-5.21636
▁be	-5.22386
.	-5.25011
▁it	-5.25235
▁or	-5.29228
▁on	-5.35117
ing	-5.3635
▁as	-5.37908
▁by	-5.38909
ed	-5.43127
▁s	-5.43817
▁)	-5.45557
▁(	-5.45946
▁this	-5.46405
▁was	-5.48988
▁with	-5.50277
▁are	-5.58968
१	-5.63326
▁not	-5.6924
▁he	-5.72488
▁which	-5.81869
▁an	-5.82091
▁i	-5.83607
▁from	-5.84949
▁his	-5.86939
▁have	-5.89675
▁has	-5.90057
▁at	-5.93928
▁you	-6.0443
d	-6.06086
▁:	-6.09438
▁india	-6.16537
▁we	-6.17367
▁all	-6.19231
▁but	-6.2316
ly	-6.27221
२	-6.27779
-	-6.29684
▁one	-6.33128
▁can	-6.39791
▁any	-6.40222
▁their	-6.41974
▁they	-6.44151
▁will	-6.44904
▁there	-6.44939
▁been	-6.473
▁so	-6.48274
e	-6.49425
a	-6.49534
▁also	-6.49947
er	-6.50119
▁other	-6.53008
▁if	-6.53939
▁had	-6.54835
▁its	-6.59419
▁such	-6.60262
▁/	-6.63185
▁under	-6.63266
y	-6.63732
▁were	-6.6397
▁”	-6.65082
▁no	-6.65686
▁may	-6.67793
▁our	-6.68043
▁“	-6.71386
▁who	-6.72656
▁;	-6.762
▁time	-6.77038
▁these	-6.81956
▁when	-6.82476
▁act	-6.84165
▁state	-6.85306
▁up	-6.8584
▁government	-6.863
▁out	-6.88966
▁more	-6.89094
▁people	-6.89351
▁?	-6.90749
३	-6.90937
al	-6.92948
▁do	-6.93079
▁only	-6.94084
▁would	-6.94111
▁should	-6.9482
▁court	-6.95831
▁new	-6.95958
n	-6.96571
▁%	-6.9728
▁them	-6.97362
▁about	-6.98747
▁some	-6.99193
▁t	-6.99646
es	-7.00294
▁your	-7.00968
▁into	-7.02603
▁like	-7.05671
▁two	-7.05781
▁after	-7.06749
▁what	-7.07313
i	-7.09085
▁him	-7.09433
▁made	-7.11418
t	-7.12599
▁over	-7.1392
▁indian	-7.14584
▁shall	-7.15036
▁re	-7.15102
▁’	-7.15418
▁where	-7.16373
▁her	-7.19522
▁than	-7.20099
r	-7.20913
▁president	-7.22005
▁b	-7.22205
▁section	-7.23758
th	-7.23777
▁my	-7.25018
▁being	-7.25028
▁life	-7.25267
▁first	-7.26565
quot	-7.27666
c	-7.27811
▁said	-7.2808
▁un	-7.28681
▁world	-7.31394
▁through	-7.34214
▁well	-7.35224
lt	-7.3536
▁country	-7.35825
▁years	-7.35894
▁me	-7.36692
▁very	-7.38062
▁law	-7.38409
l	-7.38814
m	-7.39052
▁many	-7.39141
▁year	-7.39286
▁could	-7.39812
▁work	-7.40247
▁day	-7.40588
▁national	-7.4115
▁even	-7.42007
▁per	-7.45562
▁must	-7.45921
▁before	-7.46323
▁case	-7.46388
▁person	-7.46568
▁she	-7.46851
▁now	-7.47271
▁then	-7.47344
▁c	-7.4745
४	-7.47966
▁part	-7.49355
gt	-7.49493
▁development	-7.50105
▁between	-7.52881
▁make	-7.52991
able	-7.53629
ic	-7.53789
▁high	-7.5432
▁man	-7.54871
▁p	-7.55848
in	-7.56047
▁d	-7.56207
▁used	-7.56276
▁during	-7.57324
▁us	-7.57425
▁public	-7.58086
▁system	-7.5812
▁sub	-7.59139
k	-7.59422
▁most	-7.59439
▁right	-7.6033
g	-7.60652
▁go	-7.61624
▁m	-7.6239
b	-7.6255
▁way	-7.6401
▁because	-7.64205
▁order	-7.6617
▁number	-7.66217
▁use	-7.66617
ation	-7.67056
▁take	-7.67281
▁same	-7.67877
▁power	-7.68725
▁information	-7.69808
or	-7.69858
ness	-7.70306
▁get	-7.70463
an	-7.70489
▁place	-7.70855
st	-7.71573
▁those	-7.71656
amp	-7.71677
▁here	-7.72635
▁how	-7.72735
▁water	-7.73156
▁both	-7.74776
▁long	-7.76567
▁against	-7.76945
o	-7.77279
ity	-7.77981
p	-7.79014
▁great	-7.79865
▁just	-7.8043
▁own	-7.80733
▁good	-7.80939
▁three	-7.81106
▁see	-7.81698
▁e	-7.81924
▁every	-7.82065
ion	-7.82219
▁different	-7.82535
ers	-7.83131
▁set	-7.83233
▁while	-7.8351
▁period	-7.84376
▁income	-7.85172
▁central	-7.85731
▁need	-7.85856
le	-7.8643
re	-7.87375
▁did	-7.87446
▁each	-7.87456
▁form	-7.87768
en	-7.88093
▁education	-7.89233
▁called	-7.89336
ta	-7.89617
▁given	-7.90548
▁co	-7.91095
f	-7.91412
५	-7.91643
▁v	-7.92296
h	-7.92408
▁etc	-7.92788
▁service	-7.92992
▁without	-7.92993
▁states	-7.93548
on	-7.94087
▁down	-7.94477
▁am	-7.94741
▁human	-7.94786
▁l	-7.95253
▁house	-7.95465
▁much	-7.95668
▁name	-7.95759
us	-7.96847
▁de	-7.96916
▁important	-7.97277
ar	-7.97286
▁does	-7.9729
▁another	-7.97737
▁‘	-7.98031
▁come	-7.98039
▁business	-7.98572
▁know	-7.98707
▁means	-7.99181
u	-7.99431
▁present	-7.99534
▁however	-7.9972
na	-8.00032
▁within	-8.00875
▁company	-8.00935
▁process	-8.01631
▁body	-8.01668
▁social	-8.01694
▁back	-8.02094
▁last	-8.02335
▁help	-8.02415
▁commission	-8.04178
▁g	-8.0433
▁account	-8.04355
▁small	-8.04446
▁language	-8.04658
▁various	-8.05264
▁policy	-8.05325
▁general	-8.05819
▁end	-8.05997
ti	-8.06053
ma	-8.06121
▁non	-8.06546
▁amount	-8.06642
as	-8.06988
▁n	-8.07297
it	-8.08047
▁shri	-8.08647
▁found	-8.09122
man	-8.09351
▁bank	-8.11263
▁today	-8.11356
▁taken	-8.12079
▁members	-8.12636
▁cannot	-8.13093
▁times	-8.13249
▁provided	-8.13351
ment	-8.13417
▁children	-8.13432
ur	-8.13717
▁known	-8.14076
▁services	-8.14091
ism	-8.1438
▁economic	-8.14615
▁!	-8.14661
▁let	-8.1489
▁special	-8.14947
v	-8.15197
ia	-8.15264
▁respect	-8.15496
▁large	-8.1596
▁give	-8.16137
ch	-8.1649
ant	-8.1721
▁support	-8.17573
▁view	-8.176
▁self	-8.1768
li	-8.18296
▁list	-8.18412
▁death	-8.18741
▁going	-8.19149
▁due	-8.19263
ri	-8.19525
ent	-8.20319
▁land	-8.20488
▁f	-8.2055
▁something	-8.20737
▁supreme	-8.20754
▁society	-8.21134
▁women	-8.21552
▁justice	-8.21867
▁war	-8.22244
▁international	-8.22651
▁free	-8.22711
section	-8.22921
▁days	-8.2294
▁action	-8.22959
▁further	-8.23
▁open	-8.23022
▁want	-8.23354
▁available	-8.2345
▁interest	-8.24291
▁nature	-8.24568
▁capital	-8.24689
▁far	-8.24883
▁whether	-8.25147
▁change	-8.25477
at	-8.25705
▁{	-8.25923
▁mind	-8.2607
ate	-8.26368
▁constitution	-8.26489
am	-8.2653
▁}	-8.26591
▁value	-8.26603
▁—	-8.26706
▁countries	-8.26995
▁x	-8.26995
▁food	-8.27054
to	-8.27059
▁political	-8.27128
▁came	-8.27591
il	-8.27648
▁family	-8.27649
▁report	-8.28195
▁rs	-8.28385
el	-8.28469
▁become	-8.28752
▁say	-8.28828
x	-8.29081
▁area	-8.29144
▁control	-8.29218
▁tax	-8.29261
▁group	-8.29438
▁health	-8.29591
▁date	-8.29828
▁foreign	-8.29978
▁matter	-8.29993
▁since	-8.30082
▁...	-8.30085
▁knowledge	-8.30196
▁committee	-8.30442
▁whole	-8.30444
▁provisions	-8.30665
ci	-8.30791
▁including	-8.31013
▁second	-8.31131
▁technology	-8.31253
ul	-8.31377
▁research	-8.31754
▁minister	-8.3185
less	-8.3227
▁common	-8.32386
▁too	-8.32435
▁therefore	-8.32891
▁subject	-8.32979
la	-8.33097
▁provide	-8.33112
▁among	-8.33136
▁think	-8.33499
▁level	-8.3353
ive	-8.33583
um	-8.33715
ra	-8.33993
▁four	-8.34004
te	-8.34071
▁application	-8.34326
▁upon	-8.34362
▁based	-8.34401
▁done	-8.34402
▁fact	-8.34528
▁child	-8.34693
▁council	-8.34784
▁cases	-8.3532
▁point	-8.3533
▁data	-8.35332
▁air	-8.35361
▁having	-8.35684
▁old	-8.35805
id	-8.35875
▁certain	-8.35934
ous	-8.36429
▁home	-8.36465
▁again	-8.36668
▁god	-8.36725
▁local	-8.37013
▁scheme	-8.37198
rb	-8.37415
▁five	-8.3787
▁areas	-8.38037
▁k	-8.3813
w	-8.38135
▁0	-8.38209
▁sector	-8.38307
▁office	-8.38327
▁union	-8.3837
▁financial	-8.38423
▁dr	-8.38487
▁question	-8.38678
▁left	-8.38729
is	-8.38828
▁age	-8.38985
▁put	-8.40353
६	-8.40455
▁delhi	-8.40514
▁men	-8.40787
▁making	-8.40948
▁clause	-8.41401
ary	-8.41554
▁article	-8.41646
▁best	-8.41747
▁authority	-8.41842
▁full	-8.41896
▁department	-8.41898
▁thus	-8.42138
▁singh	-8.42242
▁british	-8.42289
▁always	-8.42311
▁result	-8.42397
▁love	-8.42632
▁money	-8.42694
▁industry	-8.42738
ish	-8.4297
▁still	-8.4322
▁courts	-8.43595
▁away	-8.43608
▁words	-8.4362
▁following	-8.4366
ya	-8.43676
▁hindi	-8.43829
▁few	-8.43839
▁less	-8.44201
▁though	-8.44387
▁necessary	-8.44691
▁find	-8.44711
▁bhavan	-8.44724
ir	-8.4484
▁file	-8.4484
▁held	-8.45238
▁english	-8.45243
lo	-8.45325
▁book	-8.45388
▁chief	-8.45498
▁light	-8.45711
▁_	-8.45914
ies	-8.46153
▁later	-8.46245
▁total	-8.46275
▁parliament	-8.46638
im	-8.47014
▁post	-8.47095
▁growth	-8.47414
▁several	-8.47813
▁look	-8.4784
j	-8.47871
di	-8.47983
0	-8.48098
▁little	-8.48336
▁university	-8.48383
▁cent	-8.48436
est	-8.48528
▁required	-8.4892
▁hand	-8.48975
▁don	-8.48983
ated	-8.49171
▁party	-8.49372
▁force	-8.49472
▁things	-8.49553
▁main	-8.50115
▁mr	-8.50132
▁above	-8.50185
▁window	-8.50363
▁head	-8.50901
▁young	-8.51005
▁r	-8.51012
▁possible	-8.51231
▁school	-8.51553
z	-8.51697
▁j	-8.51888
▁management	-8.51925
▁type	-8.51985
▁himself	-8.52018
▁persons	-8.52115
▁project	-8.52162
▁purpose	-8.52177
▁off	-8.52462
▁ii	-8.52498
ter	-8.52683
▁bar	-8.52902
▁na	-8.53068
▁rules	-8.53168
▁rashtrapati	-8.53285
▁history	-8.53485
▁position	-8.5362
▁never	-8.53624
▁towards	-8.53731
▁judge	-8.53796
▁congress	-8.54417
▁once	-8.54572
▁related	-8.54666
pur	-8.54677
▁officer	-8.54791
▁trade	-8.54832
▁production	-8.55102
▁rights	-8.55516
▁external	-8.55611
▁itself	-8.55611
▁pay	-8.55953
▁ka	-8.5601
▁member	-8.56024
▁rate	-8.56139
▁quality	-8.56176
▁district	-8.56506
▁individual	-8.56769
ist	-8.56911
▁cost	-8.57076
▁market	-8.57261
▁equal	-8.57631
▁around	-8.57756
▁pro	-8.57873
▁security	-8.57892
age	-8.5803
▁effect	-8.58313
▁why	-8.58656
▁according	-8.58687
▁course	-8.58876
▁programme	-8.59035
ry	-8.59107
▁o	-8.59302
▁board	-8.59345
▁working	-8.59422
▁network	-8.59446
▁side	-8.59497
▁higher	-8.59529
ce	-8.59823
▁short	-8.59828
▁hindu	-8.59907
▁&#91;	-8.59951
▁nation	-8.60061
▁bill	-8.60166
▁show	-8.60181
▁civil	-8.60235
se	-8.60246
▁next	-8.60299
ro	-8.60308
▁property	-8.60629
▁south	-8.60676
▁either	-8.60756
▁along	-8.6085
▁legal	-8.6099
▁dis	-8.61361
▁rrb	-8.61435
ni	-8.61746
▁term	-8.62037
▁website	-8.62167
sh	-8.62372
▁institutions	-8.62387
▁h	-8.62407
▁computer	-8.62486
▁already	-8.62523
▁&#93;	-8.62852
▁heart	-8.63103
▁art	-8.63142
ful	-8.632
▁referred	-8.63473
▁major	-8.63505
ol	-8.63531
▁plant	-8.63534
ad	-8.63654
▁play	-8.63678
▁pre	-8.63864
▁took	-8.63869
▁kind	-8.63911
▁thought	-8.64123
▁line	-8.64237
▁u	-8.6427
▁training	-8.64691
▁mother	-8.64696
▁activities	-8.6474
▁credit	-8.64778
▁freedom	-8.65081
ne	-8.65157
tra	-8.65492
▁better	-8.65594
▁rule	-8.65718
et	-8.65803
un	-8.66106
ak	-8.66109
▁problem	-8.66599
▁cause	-8.6685
sa	-8.66945
▁key	-8.67043
▁movement	-8.67058
▁others	-8.67258
▁judicial	-8.68046
▁industrial	-8.68316
▁modern	-8.6837
▁future	-8.68773
me	-8.68788
▁code	-8.68908
▁received	-8.69148
▁muslim	-8.69281
▁police	-8.69447
▁role	-8.69639
va	-8.69843
ling	-8.69947
▁transfer	-8.69998
▁seen	-8.7041
▁vi	-8.70675
▁reason	-8.70789
▁together	-8.71016
▁science	-8.71397
▁plan	-8.72031
▁word	-8.72076
▁care	-8.72191
▁got	-8.72544
▁went	-8.72676
▁ex	-8.72778
७	-8.72839
▁address	-8.72888
▁sense	-8.73062
▁energy	-8.73127
▁bring	-8.73272
▁basis	-8.73292
▁occasion	-8.73393
▁create	-8.73845
▁la	-8.73972
▁pradesh	-8.73985
▁thing	-8.74052
▁message	-8.74092
▁west	-8.74099
ha	-8.74229
▁example	-8.74307
▁keep	-8.7433
▁goods	-8.74472
▁often	-8.74571
▁true	-8.74598
▁started	-8.74614
▁village	-8.74705
▁read	-8.74796
▁yet	-8.74925
▁problems	-8.75044
▁access	-8.75111
▁became	-8.75253
ge	-8.75278
▁procedure	-8.75543
▁culture	-8.75597
▁might	-8.75756
▁field	-8.75798
▁ministry	-8.75909
▁relating	-8.76255
▁written	-8.76513
▁please	-8.76623
▁north	-8.76818
▁centre	-8.76826
▁matters	-8.77251
▁class	-8.77441
00	-8.77468
▁students	-8.77573
▁particular	-8.77608
▁issue	-8.77877
▁able	-8.78334
co	-8.78346
▁w	-8.78391
▁conditions	-8.7848
▁community	-8.78641
▁blood	-8.78706
▁natural	-8.78743
▁progress	-8.78877
▁gandhi	-8.7895
▁king	-8.78994
▁bengal	-8.79062
ance	-8.79098
ty	-8.7923
▁car	-8.79262
▁ba	-8.79313
▁medical	-8.7959
▁terms	-8.79651
▁manner	-8.79673
▁call	-8.79689
▁united	-8.79982
vi	-8.80082
he	-8.80216
▁established	-8.80247
▁months	-8.80446
ut	-8.80615
▁mukherjee	-8.80725
ted	-8.80796
ac	-8.80853
▁east	-8.81411
▁paid	-8.81441
▁live	-8.81474
▁considered	-8.81574
▁start	-8.81582
▁city	-8.81653
▁environment	-8.81855
mi	-8.81915
▁brought	-8.81916
▁father	-8.81951
▁clear	-8.82111
▁religious	-8.82116
▁face	-8.82314
▁river	-8.82486
▁commercial	-8.82516
de	-8.82791
▁return	-8.82903
▁rural	-8.83057
▁st	-8.83119
ine	-8.83388
▁living	-8.83628
▁en	-8.83713
▁decision	-8.84283
▁criminal	-8.84444
▁official	-8.84945
▁fund	-8.85064
ba	-8.85079
▁story	-8.85101
no	-8.85179
▁million	-8.85219
▁early	-8.85272
▁visit	-8.85696
▁building	-8.85764
▁needs	-8.85766
▁taking	-8.85827
ka	-8.85951
▁region	-8.86049
▁religion	-8.86493
▁appeal	-8.86495
▁single	-8.86709
▁personal	-8.86738
▁using	-8.86986
▁global	-8.87132
▁disease	-8.87172
ji	-8.87209
▁complete	-8.87211
the	-8.87267
▁material	-8.87279
▁six	-8.87369
▁real	-8.87382
▁population	-8.87389
▁sa	-8.87895
▁ve	-8.87924
▁pa	-8.87971
▁soon	-8.88161
▁literature	-8.88342
ting	-8.88757
▁century	-8.88769
▁assessment	-8.88989
▁exchange	-8.89086
tic	-8.89158
▁condition	-8.89414
▁private	-8.89556
▁laws	-8.89713
▁ground	-8.89822
▁ma	-8.89888
▁close	-8.89926
ized	-8.89982
tax	-8.90077
▁previous	-8.9016
▁nothing	-8.90465
▁inter	-8.90581
▁prime	-8.90604
▁concerned	-8.90633
ana	-8.90713
ke	-8.90727
▁ensure	-8.90776
▁specified	-8.90872
▁sun	-8.90911
▁greater	-8.91022
▁opens	-8.91048
▁hard	-8.91098
▁chapter	-8.91187
▁past	-8.91248
ja	-8.9128
▁stage	-8.91363
ver	-8.91402
▁meeting	-8.91424
kar	-8.91498
▁passed	-8.91499
▁muslims	-8.91612
▁outside	-8.91805
▁note	-8.91855
▁payment	-8.92011
▁pranab	-8.92069
▁sabha	-8.92163
▁spirit	-8.92319
ot	-8.92342
ial	-8.9243
▁purposes	-8.9253
ating	-8.92585
▁original	-8.9319
▁direct	-8.9324
▁consider	-8.9345
da	-8.93511
▁resources	-8.93556
▁carry	-8.93572
▁third	-8.93588
▁parties	-8.93643
▁experience	-8.93738
▁asked	-8.93773
▁earth	-8.93793
▁path	-8.93816
▁investment	-8.93867
▁character	-8.93956
▁administration	-8.94188
▁evidence	-8.94414
▁strong	-8.94642
ab	-8.94662
▁include	-8.94731
▁study	-8.94815
▁limited	-8.94816
▁sc	-8.94884
▁notice	-8.9499
ence	-8.94995
▁earlier	-8.95019
▁ten	-8.95045
▁error	-8.95065
▁marriage	-8.9513
▁sea	-8.95219
▁march	-8.95292
▁check	-8.95442
▁actually	-8.95445
ud	-8.95596
▁provides	-8.956
▁really	-8.95638
▁developed	-8.95673
▁near	-8.95745
▁half	-8.95753
▁protection	-8.95963
ised	-8.95992
▁structure	-8.96056
▁writing	-8.96138
▁temple	-8.96185
▁physical	-8.96206
▁capacity	-8.96241
▁almost	-8.96707
▁meet	-8.9678
▁themselves	-8.96862
▁books	-8.96887
▁unit	-8.96932
▁demand	-8.9698
▁judges	-8.9703
▁parts	-8.97033
▁duty	-8.97215
▁loss	-8.97411
men	-8.97623
▁al	-8.97628
▁ram	-8.97696
▁truth	-8.97791
▁division	-8.97945
op	-8.98001
▁allowed	-8.98139
▁provision	-8.98323
ee	-8.98331
▁anything	-8.98341
▁opinion	-8.98455
▁poor	-8.99058
▁big	-8.99213
▁treatment	-8.99282
▁price	-8.99322
▁approach	-8.99347
▁republic	-8.99347
▁till	-8.99426
▁institute	-8.99567
▁powers	-8.99573
▁bo	-8.9984
▁search	-9.00038
▁leave	-9.005
▁function	-9.00502
▁text	-9.00615
▁test	-9.00621
▁son	-9.00688
▁ll	-9.00789
pa	-9.00937
▁move	-9.00963
oc	-9.00998
and	-9.01036
▁letter	-9.01369
▁share	-9.01439
▁author	-9.01487
▁sent	-9.01519
be	-9.01644
▁run	-9.01818
▁assessee	-9.01933
▁whose	-9.02182
▁gave	-9.02194
▁situation	-9.02477
▁commissioner	-9.02484
▁add	-9.02486
up	-9.02608
go	-9.0273
▁current	-9.02969
▁changes	-9.03046
▁apply	-9.03163
▁lord	-9.03164
▁operation	-9.03197
▁effective	-9.03254
▁products	-9.03758
rs	-9.03811
▁institution	-9.03887
▁regard	-9.03927
▁insurance	-9.03943
▁ever	-9.03959
▁woman	-9.03985
▁space	-9.04018
▁mo	-9.04048
▁peace	-9.04085
▁export	-9.0415
▁conference	-9.04195
▁benefit	-9.04284
▁method	-9.04411
▁nor	-9.04421
▁works	-9.04424
▁efforts	-9.04572
ise	-9.04883
▁basic	-9.04956
▁islam	-9.04956
▁hope	-9.05005
▁independence	-9.05112
ian	-9.05375
▁top	-9.05517
om	-9.05643
pi	-9.05653
▁press	-9.05744
▁issues	-9.05758
▁continue	-9.0606
▁tree	-9.06087
▁lot	-9.06183
▁increase	-9.06191
▁poet	-9.06449
▁issued	-9.06606
▁believe	-9.06659
▁forward	-9.06772
▁size	-9.07045
▁decided	-9.07086
▁finance	-9.07147
▁product	-9.07231
▁middle	-9.07404
▁award	-9.07527
▁agreement	-9.07532
▁generally	-9.0754
ally	-9.07652
▁entire	-9.07732
▁sanskrit	-9.07748
▁relations	-9.0786
▁rest	-9.08075
▁simple	-9.08182
▁&#124;	-9.08354
▁least	-9.0845
▁da	-9.0875
▁similar	-9.09035
▁anti	-9.0904
ca	-9.09065
▁understand	-9.09149
▁difficult	-9.09203
▁red	-9.09221
▁night	-9.09233
▁practice	-9.09285
▁industries	-9.09312
▁source	-9.09688
▁especially	-9.09795
▁labour	-9.09797
▁proceedings	-9.09813
▁wide	-9.09854
pe	-9.10033
▁providing	-9.10059
▁para	-9.10244
▁specific	-9.10399
▁enough	-9.10503
▁created	-9.10583
▁oil	-9.10701
▁companies	-9.10767
▁economy	-9.10989
▁april	-9.11034
▁speech	-9.11118
▁paper	-9.11165
ah	-9.11168
▁jurisdiction	-9.11168
▁sri	-9.11314
▁birth	-9.11432
▁statement	-9.11549
od	-9.11661
▁opportunity	-9.11704
▁write	-9.11819
▁idea	-9.11921
८	-9.12004
▁ga	-9.12098
▁western	-9.12109
▁doing	-9.12128
▁banks	-9.12211
▁low	-9.12446
▁published	-9.12618
▁front	-9.12647
▁kept	-9.12657
▁ra	-9.1271
cu	-9.12949
ga	-9.12963
nd	-9.1303
os	-9.13058
▁employment	-9.13064
po	-9.1312
▁wrote	-9.1324
▁joint	-9.13344
▁certificate	-9.13377
३०	-9.1343
led	-9.13534
▁told	-9.13539
▁sure	-9.13659
▁charge	-9.13675
▁rich	-9.13713
▁divine	-9.13929
tion	-9.14028
▁agricultural	-9.14109
▁trial	-9.1432
wa	-9.14328
▁behalf	-9.14339
▁quite	-9.14374
▁se	-9.14424
▁assembly	-9.14477
▁white	-9.14538
▁month	-9.14711
▁mode	-9.14732
▁conduct	-9.14775
▁officers	-9.1481
mo	-9.1485
cy	-9.14889
ap	-9.1496
gu	-9.14968
▁category	-9.14985
▁says	-9.15052
ip	-9.15118
▁va	-9.15364
▁talk	-9.15469
sion	-9.15592
▁trust	-9.15668
ru	-9.15686
▁di	-9.15886
▁across	-9.1601
ill	-9.16012
▁plus	-9.16106
▁record	-9.16144
▁fast	-9.16164
▁success	-9.16174
▁ca	-9.16439
▁film	-9.16528
▁lower	-9.1661
▁below	-9.16676
▁measures	-9.16825
▁meaning	-9.16856
▁carried	-9.16856
▁bad	-9.16885
ization	-9.16926
▁pra	-9.1696
fi	-9.17245
▁turn	-9.17271
▁pan	-9.17647
▁loan	-9.17987
ts	-9.1803
▁deep	-9.18065
▁road	-9.1811
▁deal	-9.18126
▁appropriate	-9.18186
▁programmes	-9.1822
ities	-9.18342
ton	-9.18491
▁step	-9.1852
▁cultural	-9.18643
hu	-9.18732
▁accept	-9.18749
▁facilities	-9.1881
ram	-9.18876
▁claim	-9.18947
▁prescribed	-9.19002
▁infrastructure	-9.1902
▁ro	-9.19047
▁ha	-9.1922
▁develop	-9.19223
▁amendment	-9.19273
▁giving	-9.1939
▁importance	-9.194
▁imp	-9.19402
▁ch	-9.19412
▁usually	-9.19544
▁failed	-9.19576
▁until	-9.19632
▁review	-9.19826
▁try	-9.19838
▁relevant	-9.19923
▁final	-9.20032
▁scale	-9.20138
▁fire	-9.20153
hi	-9.20208
▁makes	-9.20213
▁agriculture	-9.20216
▁feel	-9.20376
mb	-9.20393
▁expression	-9.20419
ham	-9.20465
▁forms	-9.20534
▁con	-9.20599
▁media	-9.20633
▁allow	-9.20665
▁base	-9.20713
▁page	-9.20742
▁annual	-9.20903
▁spiritual	-9.21057
▁user	-9.21057
war	-9.2108
▁corporation	-9.21198
bi	-9.21257
▁association	-9.21258
▁iii	-9.21283
▁mental	-9.21292
han	-9.21348
▁status	-9.21444
tu	-9.21486
▁room	-9.21499
▁sp	-9.21502
pt	-9.21545
▁range	-9.21683
lu	-9.21735
ari	-9.21795
▁ho	-9.21831
▁extend	-9.21848
▁soul	-9.21922
▁felt	-9.22232
▁sum	-9.22278
▁details	-9.22395
har	-9.22402
▁potential	-9.22487
iv	-9.22623
▁projects	-9.22659
land	-9.22693
▁su	-9.22711
dy	-9.22828
▁except	-9.2303
▁sometimes	-9.23045
▁cha	-9.23118
▁israel	-9.23199
▁happy	-9.23239
si	-9.23268
▁stated	-9.23328
▁accused	-9.2334
▁reference	-9.23345
con	-9.23382
▁assistance	-9.23396
ize	-9.23396
do	-9.23415
▁copy	-9.23471
▁seven	-9.23488
▁consideration	-9.23503
▁software	-9.23593
▁device	-9.23606
ig	-9.23646
▁strength	-9.23787
▁receive	-9.23839
▁existing	-9.23962
▁learning	-9.23991
▁leaders	-9.24005
▁existence	-9.24105
▁contract	-9.24157
▁bit	-9.24245
ag	-9.24442
▁lead	-9.24446
▁organisation	-9.24795
▁groups	-9.24851
▁firm	-9.24925
▁video	-9.24949
▁nations	-9.24986
▁beginning	-9.2507
▁rather	-9.2512
▁activity	-9.25246
▁black	-9.25272
▁contact	-9.25362
▁wife	-9.25377
▁forces	-9.25406
▁accounts	-9.25406
.0	-9.25443
ious	-9.25662
min	-9.25784
▁saw	-9.2602
▁faith	-9.26341
▁round	-9.26344
▁responsible	-9.26408
▁cell	-9.26409
▁registration	-9.2646
ical	-9.26465
▁popular	-9.26575
▁standard	-9.26686
isation	-9.26768
▁addition	-9.26925
▁mar	-9.26944
▁began	-9.26991
▁american	-9.26992
▁hold	-9.27002
cc	-9.27177
▁setting	-9.2722
▁essential	-9.27263
▁followed	-9.27363
▁tell	-9.27397
▁behind	-9.274
▁seek	-9.27517
▁grant	-9.2758
▁offence	-9.27667
▁mission	-9.27791
▁relation	-9.27834
▁technical	-9.27926
▁whom	-9.27961
▁learn	-9.27994
▁increased	-9.2811
ran	-9.28183
▁particularly	-9.28186
▁poetry	-9.28266
▁le	-9.28353
per	-9.28403
▁krishna	-9.2848
▁crore	-9.2849
▁lost	-9.28555
▁image	-9.2866
▁beyond	-9.2872
▁fine	-9.28761
end	-9.28776
▁places	-9.28838
▁becomes	-9.28896
red	-9.28986
tro	-9.29107
▁par	-9.29122
▁governor	-9.2913
▁wish	-9.29205
▁perhaps	-9.29306
▁systems	-9.29314
▁pe	-9.29336
bo	-9.29346
९	-9.2936
ite	-9.29411
▁ko	-9.29622
▁standards	-9.29725
du	-9.29862
ck	-9.30012
der	-9.30159
vo	-9.30177
▁job	-9.3021
▁normal	-9.30361
▁lok	-9.30384
▁citizens	-9.30385
▁spread	-9.30455
▁team	-9.30519
▁born	-9.30551
▁hands	-9.3083
▁lives	-9.31215
▁calcutta	-9.31413
q	-9.31551
ll	-9.31599
▁fair	-9.31608
▁built	-9.31632
▁reach	-9.31691
▁additional	-9.31693
▁pakistan	-9.31698
▁enable	-9.31818
▁instead	-9.32071
▁ancient	-9.32071
▁examination	-9.32126
▁model	-9.32248
▁director	-9.32263
▁guru	-9.32292
▁host	-9.32407
▁getting	-9.32528
▁responsibility	-9.32566
▁scientific	-9.32566
▁circumstances	-9.32567
▁expenditure	-9.32788
▁immediately	-9.32818
▁comes	-9.32838
▁green	-9.32897
▁serious	-9.32932
ib	-9.33003
▁lakh	-9.33026
▁enter	-9.33028
▁object	-9.33065
ex	-9.33127
▁alone	-9.33187
ep	-9.33194
▁bi	-9.3322
▁gives	-9.33352
▁lo	-9.33358
ph	-9.33422
bu	-9.33426
▁explanation	-9.33566
▁continued	-9.33705
▁sound	-9.33747
ium	-9.33758
em	-9.3378
tri	-9.33814
▁coming	-9.33855
▁eyes	-9.33856
▁active	-9.34094
▁po	-9.34114
▁task	-9.34283
▁democracy	-9.34293
▁exercise	-9.34341
▁design	-9.34394
ard	-9.34494
▁ideas	-9.34661
▁memory	-9.34692
▁table	-9.34728
▁proposed	-9.34737
▁supply	-9.34768
▁protect	-9.34861
▁direction	-9.34915
▁music	-9.34946
▁eye	-9.35075
▁performance	-9.35093
▁accepted	-9.35203
▁appointed	-9.35303
▁stop	-9.35338
▁otherwise	-9.35394
▁doubt	-9.35411
▁resolution	-9.35424
▁select	-9.35441
▁milk	-9.35518
▁ask	-9.3578
▁tribunal	-9.35783
▁twenty	-9.3588
▁hundred	-9.35899
▁color	-9.35911
ure	-9.36083
▁principal	-9.36108
▁influence	-9.36142
▁ni	-9.36158
▁san	-9.36159
▁legislative	-9.36165
▁values	-9.36187
▁chairman	-9.36226
▁eight	-9.36298
ara	-9.36415
▁although	-9.3651
▁proper	-9.36551
▁connection	-9.36565
▁produce	-9.36625
▁regional	-9.36703
▁cut	-9.36789
▁answer	-9.36917
▁funds	-9.36931
▁separate	-9.3701
▁organization	-9.37082
▁functions	-9.37116
▁vision	-9.37188
son	-9.37298
▁master	-9.37343
▁boy	-9.37411
▁kashmir	-9.37433
tor	-9.37457
▁unless	-9.37458
▁workers	-9.37526
▁rama	-9.37729
▁army	-9.3773
▁languages	-9.37796
▁implementation	-9.38032
▁violence	-9.38048
▁college	-9.38075
▁independent	-9.38077
ie	-9.38094
▁plants	-9.38115
▁selected	-9.38173
▁affairs	-9.38204
ring	-9.38303
▁mark	-9.3836
▁goes	-9.38429
▁animals	-9.38473
▁fixed	-9.38522
▁domestic	-9.386
▁net	-9.38717
▁units	-9.38794
▁link	-9.38812
▁friends	-9.3882
▁com	-9.38856
▁cross	-9.38955
▁wrong	-9.38956
▁multi	-9.39006
▁observed	-9.39039
▁traditional	-9.39114
▁america	-9.39128
▁famous	-9.39129
▁balance	-9.39324
▁prevent	-9.39335
▁program	-9.39381
▁fa	-9.39431
▁employees	-9.39439
▁met	-9.39465
▁january	-9.39543
▁election	-9.39703
▁ja	-9.39848
uri	-9.39895
▁clean	-9.40018
▁defence	-9.40137
▁stand	-9.40141
▁mentioned	-9.40275
▁wanted	-9.40473
ors	-9.40483
▁send	-9.40657
▁follow	-9.40759
ten	-9.40863
ward	-9.40921
▁mumbai	-9.40974
ship	-9.413
▁includes	-9.41302
▁mean	-9.41362
▁raj	-9.41432
▁minus	-9.41476
▁terrorism	-9.41525
▁relationship	-9.41647
▁session	-9.41648
ng	-9.4165
▁event	-9.41831
▁formed	-9.41899
▁sentence	-9.41969
▁prepared	-9.42043
▁style	-9.4207
▁build	-9.42079
▁struggle	-9.42122
▁micro	-9.42128
▁ne	-9.42161
▁cooperation	-9.42188
▁bombay	-9.42248
que	-9.42264
▁presented	-9.42486
▁stock	-9.42614
▁attention	-9.42793
bb	-9.42807
▁mu	-9.42817
▁added	-9.43087
ster	-9.43119
▁bal	-9.43126
▁extent	-9.43161
▁cash	-9.43177
▁remain	-9.43331
line	-9.43408
▁documents	-9.4353
▁chandra	-9.43562
▁risk	-9.43645
▁content	-9.43651
▁display	-9.43709
ative	-9.43997
▁focus	-9.44023
▁minimum	-9.44148
▁houses	-9.44224
▁contribution	-9.4427
▁educational	-9.44353
▁takes	-9.44416
▁sha	-9.44424
▁promote	-9.44427
▁collection	-9.44555
▁included	-9.44593
▁refers	-9.44616
▁indeed	-9.44722
chi	-9.44837
▁welfare	-9.44895
dar	-9.44901
▁animal	-9.44906
ber	-9.44936
tha	-9.44949
▁recent	-9.45159
qu	-9.45185
▁default	-9.45271
▁questions	-9.45291
▁longer	-9.45399
▁assets	-9.45486
ani	-9.45489
▁august	-9.45585
thi	-9.45711
ho	-9.45746
▁cl	-9.4579
▁generation	-9.45802
lic	-9.45818
ology	-9.45882
▁youth	-9.45946
▁fundamental	-9.45963
▁innovation	-9.4599
ang	-9.46146
▁regular	-9.4628
ki	-9.46298
▁husband	-9.46343
▁military	-9.46394
▁entry	-9.46414
▁december	-9.46469
▁involved	-9.46524
▁rise	-9.46541
▁fear	-9.46554
▁leader	-9.46623
▁produced	-9.46666
▁principle	-9.46704
▁june	-9.46738
▁average	-9.46915
▁moment	-9.46917
▁punjab	-9.46928
▁directly	-9.46983
▁farmers	-9.47063
▁caused	-9.47117
▁creation	-9.4719
▁tried	-9.47197
▁besides	-9.4724
▁shah	-9.47245
▁stay	-9.47261
▁sign	-9.47326
▁female	-9.47426
▁nehru	-9.47426
ping	-9.47454
▁break	-9.47721
▁administrative	-9.47811
▁highest	-9.47826
▁patient	-9.47863
▁principles	-9.47896
▁promotion	-9.47904
▁ago	-9.47932
ens	-9.47981
▁sat	-9.48101
▁command	-9.48157
▁gas	-9.48162
▁machine	-9.48318
▁universal	-9.48327
▁thousand	-9.48337
▁desire	-9.48421
▁document	-9.48453
▁adopted	-9.48508
ner	-9.48527
▁accordance	-9.48527
nt	-9.48532
▁web	-9.48537
ft	-9.48544
▁wealth	-9.48589
▁tamil	-9.48593
mer	-9.4861
▁friend	-9.48667
▁governments	-9.48674
▁sale	-9.4868
▁pi	-9.4871
▁types	-9.4874
▁european	-9.48845
▁deposit	-9.48887
▁authorities	-9.48993
▁sam	-9.49007
our	-9.49012
▁beautiful	-9.49041
▁executive	-9.49041
▁processing	-9.49072
▁warm	-9.4908
▁ph	-9.4917
▁policies	-9.49171
▁secretary	-9.49173
ai	-9.49221
mon	-9.49268
▁attack	-9.49284
▁october	-9.49302
▁led	-9.49326
▁september	-9.49367
▁ways	-9.49436
▁request	-9.49452
oo	-9.49537
▁majority	-9.49597
▁apart	-9.49656
▁save	-9.49745
▁species	-9.49767
▁fit	-9.49821
▁heard	-9.49842
▁easy	-9.49892
▁fight	-9.49894
ps	-9.49907
▁mis	-9.49955
pp	-9.49961
way	-9.49967
▁deemed	-9.49968
▁former	-9.49991
ability	-9.50011
▁contained	-9.50031
nath	-9.50066
▁africa	-9.50069
▁instrument	-9.50109
▁bha	-9.50114
▁steps	-9.50377
▁limit	-9.50451
▁significant	-9.5056
▁transport	-9.50572
▁percent	-9.50577
▁fi	-9.506
▁governance	-9.50704
▁conflict	-9.50749
▁z	-9.5082
ny	-9.50831
▁effort	-9.50874
▁inside	-9.509
▁draw	-9.50922
▁whatever	-9.50934
▁male	-9.51056
▁universities	-9.51081
▁laid	-9.51135
▁regarding	-9.51167
▁mal	-9.51168
▁agency	-9.51283
▁context	-9.51482
▁schemes	-9.51561
ve	-9.51607
▁reached	-9.5164
▁bharat	-9.51743
▁pain	-9.5175
▁china	-9.51867
▁maximum	-9.52021
▁charges	-9.52132
▁sar	-9.52172
▁schedule	-9.52185
▁foundation	-9.5221
▁opportunities	-9.52217
▁complex	-9.52244
▁asia	-9.52275
▁fall	-9.52333
▁weight	-9.5235
▁looking	-9.52402
ff	-9.52405
▁pass	-9.52459
▁internet	-9.52559
▁sad	-9.52586
▁studies	-9.52621
▁leading	-9.5277
▁understanding	-9.52805
▁witness	-9.52833
▁km	-9.53235
▁block	-9.53266
▁y	-9.53292
▁grow	-9.53304
▁establishment	-9.53542
▁connected	-9.53543
▁primary	-9.53574
▁gra	-9.53598
▁mass	-9.53607
▁li	-9.5367
we	-9.53705
▁maha	-9.53754
▁construction	-9.53787
▁serve	-9.53788
▁interests	-9.53819
▁asset	-9.53859
▁week	-9.53971
▁registered	-9.54066
ala	-9.54098
▁lack	-9.54107
▁likely	-9.54195
▁consciousness	-9.54213
▁hours	-9.5432
▁advice	-9.54326
▁travel	-9.54378
▁express	-9.54503
name	-9.54505
▁articles	-9.54515
▁cells	-9.54593
▁worship	-9.54593
▁daughter	-9.54598
▁rain	-9.54677
▁largest	-9.54714
ik	-9.54776
▁reasons	-9.54792
▁growing	-9.548
▁presence	-9.54805
▁appear	-9.54833
▁costs	-9.55004
▁results	-9.55091
▁planning	-9.55096
les	-9.55138
ow	-9.5517
▁surface	-9.5522
▁park	-9.55253
▁ta	-9.55449
▁origin	-9.55458
▁du	-9.5548
▁communication	-9.55508
▁moral	-9.5562
tan	-9.55633
▁affected	-9.55662
▁everything	-9.55708
rn	-9.55915
▁penalty	-9.55923
▁july	-9.55939
▁star	-9.55939
▁placed	-9.56076
▁storage	-9.56124
▁described	-9.56235
▁dead	-9.56247
itis	-9.56311
▁staff	-9.56334
▁associated	-9.56357
▁stories	-9.56405
▁voice	-9.56405
▁volume	-9.56407
▁length	-9.56615
dha	-9.56615
▁ab	-9.56616
▁soil	-9.56652
▁concept	-9.5667
▁relief	-9.56687
▁academic	-9.56755
▁survey	-9.56755
▁fish	-9.56943
▁useful	-9.56988
▁fully	-9.57004
▁hospital	-9.57106
▁medium	-9.5725
ator	-9.57306
▁distance	-9.57394
und	-9.57525
▁news	-9.57559
▁petitioner	-9.57626
▁benefits	-9.57731
▁november	-9.57816
▁remember	-9.57876
▁super	-9.5794
▁someone	-9.57957
▁wall	-9.57957
▁import	-9.58041
ct	-9.58382
▁forest	-9.58391
▁version	-9.58465
▁suit	-9.58496
▁har	-9.58546
▁objective	-9.58557
▁branch	-9.58582
▁bound	-9.58627
▁title	-9.5866
▁payable	-9.58822
▁moon	-9.58846
▁distribution	-9.58889
▁developing	-9.58939
▁islamic	-9.58972
▁gandhiji	-9.58992
▁improve	-9.59082
▁difference	-9.5919
▁safety	-9.59335
▁sh	-9.59375
▁item	-9.59439
▁declared	-9.59479
▁phase	-9.5948
▁tri	-9.59515
▁vote	-9.59526
▁orders	-9.59555
▁seems	-9.59562
▁sections	-9.5958
▁online	-9.59593
▁offer	-9.59621
gi	-9.59709
rd	-9.59823
▁skin	-9.59835
▁join	-9.59881
▁located	-9.59924
▁appointment	-9.59936
▁ideal	-9.60033
▁successful	-9.60082
▁square	-9.60103
tal	-9.6011
▁adequate	-9.60118
▁philosophy	-9.60118
▁server	-9.60227
▁extended	-9.60252
▁root	-9.60257
▁urban	-9.60264
▁won	-9.60432
▁lay	-9.60447
▁bear	-9.6045
fa	-9.60486
▁acts	-9.60521
▁correct	-9.60567
lan	-9.60613
▁speaking	-9.60707
▁card	-9.60861
▁centres	-9.60929
▁site	-9.61039
▁advance	-9.612
ible	-9.61325
▁shape	-9.61386
light	-9.61453
ell	-9.61473
▁colour	-9.61531
tar	-9.61537
▁sec	-9.61618
▁constitutional	-9.61761
ore	-9.61858
▁senior	-9.61879
▁series	-9.6189
▁motion	-9.61907
▁ke	-9.6194
▁engineering	-9.61961
▁pressure	-9.6197
tur	-9.6199
▁ball	-9.62041
▁kan	-9.62099
ay	-9.62122
▁increasing	-9.62135
▁hindus	-9.62179
▁wind	-9.62181
ec	-9.62195
▁larger	-9.62424
▁cover	-9.62435
istic	-9.62461
▁unique	-9.62548
▁instance	-9.6255
▁tagore	-9.6255
▁station	-9.62615
▁achieve	-9.62655
▁ill	-9.62679
▁internal	-9.62787
▁secret	-9.62849
▁failure	-9.62926
▁late	-9.6295
▁running	-9.63008
qui	-9.63072
▁prince	-9.63146
▁fe	-9.63205
▁raja	-9.63255
▁investigation	-9.63296
▁expressed	-9.63324
▁touch	-9.63337
▁extension	-9.63522
▁impact	-9.63605
▁publication	-9.63749
▁unity	-9.63768
▁committed	-9.63817
▁iv	-9.63885
▁operations	-9.63937
ew	-9.63939
▁teaching	-9.64033
bar	-9.64115
▁revenue	-9.64126
uc	-9.64173
▁profit	-9.64217
▁files	-9.64243
▁ship	-9.64281
▁reading	-9.64293
▁vital	-9.64306
▁che	-9.64342
▁partnership	-9.64435
▁parents	-9.64472
▁tradition	-9.64629
▁novel	-9.6472
▁numbers	-9.64723
▁obtain	-9.64755
▁sir	-9.64778
▁introduced	-9.64805
▁else	-9.64902
nu	-9.64937
▁integral	-9.64962
▁duties	-9.64966
▁needed	-9.64994
▁shown	-9.65003
ven	-9.65006
▁europe	-9.6504
▁comment	-9.65121
▁revolution	-9.65169
▁thinking	-9.65182
▁dance	-9.65275
▁views	-9.65307
▁speaker	-9.65311
▁poverty	-9.65421
▁poems	-9.65462
▁flow	-9.65751
▁damage	-9.65815
▁ut	-9.65831
▁maintain	-9.65834
ign	-9.65865
▁daily	-9.65888
▁speak	-9.6591
▁maharashtra	-9.66038
▁phone	-9.66046
▁ya	-9.66046
▁app	-9.66091
▁covered	-9.66109
▁england	-9.66114
▁teachers	-9.66161
ze	-9.66163
▁finally	-9.6626
▁crop	-9.66276
ach	-9.6635
▁eastern	-9.66445
▁deduction	-9.66452
▁cr	-9.66454
ug	-9.6649
▁kar	-9.66694
▁morning	-9.66739
▁territory	-9.66812
▁draft	-9.66812
▁punishment	-9.66823
▁ran	-9.66864
lin	-9.66868
▁throughout	-9.66872
▁awards	-9.66878
▁convey	-9.66891
▁translation	-9.66968
▁namely	-9.6701
ama	-9.67069
▁merely	-9.67101
▁legislation	-9.67202
▁temples	-9.67248
▁settlement	-9.67375
fe	-9.67377
▁parliamentary	-9.67432
▁safe	-9.67523
▁speed	-9.67546
▁democratic	-9.67547
▁screen	-9.6766
▁khan	-9.67705
▁gold	-9.67754
▁kumar	-9.67848
io	-9.67972
▁aid	-9.68003
ju	-9.6808
▁contains	-9.68111
▁hence	-9.6825
▁railway	-9.68253
▁fee	-9.68275
▁honour	-9.68341
▁location	-9.68387
▁dated	-9.68439
▁figure	-9.68486
▁expected	-9.68511
▁remove	-9.68656
▁kerala	-9.68697
▁played	-9.68759
tru	-9.68768
▁enjoy	-9.68771
▁allowance	-9.68801
▁friendly	-9.68817
▁february	-9.68855
▁purchase	-9.69019
▁removal	-9.69042
▁caste	-9.69203
ile	-9.69238
▁variety	-9.69333
▁compensation	-9.69413
▁feed	-9.69426
▁teacher	-9.69456
▁standing	-9.69562
▁ready	-9.69672
gen	-9.69711
▁sort	-9.69719
eg	-9.69749
ler	-9.69762
ble	-9.69806
▁ocean	-9.69813
ions	-9.69826
▁raised	-9.69932
▁lines	-9.69938
▁easily	-9.69973
▁nuclear	-9.69973
▁changed	-9.69999
▁ban	-9.70008
▁degree	-9.70036
▁entitled	-9.70053
▁uttar	-9.70143
▁brother	-9.70158
▁aim	-9.70167
▁intellectual	-9.70216
▁yoga	-9.70224
▁villages	-9.70231
den	-9.70259
▁resource	-9.70282
▁win	-9.70337
▁shares	-9.70471
▁reform	-9.70591
fer	-9.70617
▁elements	-9.70658
gg	-9.70693
▁discussion	-9.70965
▁waste	-9.70976
▁cap	-9.71035
▁keeping	-9.71037
ration	-9.71129
▁shows	-9.71318
rc	-9.71327
▁engaged	-9.71345
▁defined	-9.71373
sc	-9.71402
▁dealing	-9.71416
▁delay	-9.71417
▁reserve	-9.71448
▁affect	-9.71452
▁feeling	-9.71489
▁tea	-9.71511
▁items	-9.71512
ada	-9.71569
▁positive	-9.71592
▁schools	-9.71663
▁reality	-9.7169
▁equipment	-9.71926
▁consumer	-9.71944
▁opening	-9.71949
au	-9.71972
▁rock	-9.72026
▁literary	-9.72083
▁target	-9.72165
▁saying	-9.72246
▁applications	-9.72256
tt	-9.72262
▁girl	-9.72272
▁bodies	-9.72329
if	-9.72342
▁doctor	-9.72355
▁attempt	-9.72495
▁akbar	-9.725
▁levels	-9.72563
▁mobile	-9.72576
ction	-9.72616
▁ganga	-9.72706
▁petition	-9.72797
▁kingdom	-9.72912
▁release	-9.72921
▁professional	-9.72927
▁powerful	-9.72927
ika	-9.73132
▁environmental	-9.73139
▁banking	-9.73205
sha	-9.7333
▁audit	-9.73448
▁agencies	-9.7357
bha	-9.73576
▁names	-9.73639
▁register	-9.73715
▁exp	-9.73781
▁rupees	-9.73878
▁trying	-9.73967
▁pleasure	-9.73987
▁town	-9.74005
▁count	-9.74055
▁vast	-9.74057
▁solar	-9.7408
▁remains	-9.74098
▁notification	-9.74101
▁folder	-9.74141
▁ministers	-9.74186
▁adv	-9.74205
▁heavy	-9.74238
▁individuals	-9.74239
ning	-9.74296
▁wa	-9.74339
rat	-9.74359
▁favour	-9.74427
▁ju	-9.74451
▁game	-9.74516
▁complaint	-9.74526
▁filed	-9.74602
uk	-9.74704
▁si	-9.74786
▁probably	-9.74826
kh	-9.74912
ably	-9.74935
▁suggested	-9.74979
lam	-9.75043
▁practices	-9.75046
▁beauty	-9.75079
ient	-9.75117
▁indians	-9.75125
out	-9.7513
▁historical	-9.7513
▁fresh	-9.75168
▁holding	-9.7517
▁tu	-9.75206
cent	-9.75233
▁avoid	-9.75255
▁cities	-9.7527
▁spot	-9.754
▁cricket	-9.75418
af	-9.75458
▁hearing	-9.75496
▁gain	-9.75518
▁load	-9.75577
▁feet	-9.75609
▁scheduled	-9.75627
▁gujarat	-9.75667
▁passing	-9.75675
▁dispute	-9.75679
▁machinery	-9.75782
▁permanent	-9.75824
▁cold	-9.75895
▁die	-9.75918
▁legislature	-9.75937
▁flag	-9.75953
▁reduce	-9.76036
▁mainly	-9.76082
ron	-9.76121
▁cons	-9.76208
▁aspects	-9.76209
▁learned	-9.76209
▁choice	-9.76272
▁hour	-9.76378
rate	-9.7656
▁analysis	-9.76612
▁stone	-9.76653
▁ad	-9.76695
▁actual	-9.76783
▁click	-9.76802
▁bc	-9.76853
▁nepal	-9.76876
▁turned	-9.7689
▁mutual	-9.77028
▁bengali	-9.7704
▁threat	-9.77041
ify	-9.77043
gra	-9.77055
▁choose	-9.77132
▁port	-9.77185
aka	-9.77204
ea	-9.77228
▁granted	-9.77335
▁response	-9.77336
▁perform	-9.77358
▁identity	-9.77473
▁pattern	-9.77512
mp	-9.77523
▁festival	-9.776
▁requires	-9.77649
▁joy	-9.77696
▁prove	-9.7774
▁delivery	-9.77837
nc	-9.77848
▁manager	-9.77896
▁divided	-9.77913
▁pension	-9.78005
▁methods	-9.78059
▁critical	-9.78061
▁leaves	-9.78127
▁rajya	-9.78132
▁requirements	-9.78165
▁description	-9.78168
▁cor	-9.78279
▁sur	-9.78403
▁sex	-9.7842
▁families	-9.7843
▁sleep	-9.7843
▁greeting	-9.78431
▁causes	-9.78476
▁des	-9.78525
▁mail	-9.78553
▁format	-9.78673
▁accident	-9.78692
gan	-9.78715
▁agree	-9.78865
▁lu	-9.7903
▁zone	-9.79053
ect	-9.7916
▁factors	-9.79225
▁sand	-9.79229
▁gone	-9.79231
gar	-9.79252
▁output	-9.79275
ava	-9.79294
av	-9.793
▁confidence	-9.79308
▁mahatma	-9.79308
▁completed	-9.79364
▁recommendations	-9.79367
▁chand	-9.79391
▁rajasthan	-9.79396
▁foot	-9.79417
▁insects	-9.79447
▁exist	-9.7948
pro	-9.79634
▁songs	-9.7968
▁gl	-9.79765
▁offered	-9.79772
▁neither	-9.79838
▁tr	-9.79853
ali	-9.79865
▁watch	-9.79908
val	-9.80022
▁ki	-9.8003
▁events	-9.80036
ory	-9.80064
▁symbol	-9.80082
▁diseases	-9.80117
fl	-9.80129
ple	-9.80197
▁facts	-9.80365
▁train	-9.80367
▁eat	-9.80372
▁points	-9.80428
pl	-9.80548
▁acid	-9.80586
sis	-9.80616
gh	-9.80624
nic	-9.80673
▁cave	-9.80678
▁named	-9.80717
▁cast	-9.80812
▁pollution	-9.80817
▁wishes	-9.80975
ists	-9.80993
▁abroad	-9.81176
wal	-9.81251
▁sufficient	-9.81254
▁google	-9.81356
ual	-9.81363
let	-9.81435
▁sacrifice	-9.81467
nal	-9.81552
▁te	-9.8158
wan	-9.81589
ade	-9.81602
▁fields	-9.8161
▁lived	-9.81721
char	-9.81725
▁highly	-9.81747
▁decide	-9.8185
▁debt	-9.81851
▁border	-9.81901
▁concern	-9.8193
▁treated	-9.8195
▁reports	-9.81972
▁sal	-9.82042
▁convention	-9.8205
▁attitude	-9.8207
sp	-9.82134
▁clearly	-9.82138
▁dry	-9.82212
▁drive	-9.82215
ified	-9.82267
▁goal	-9.82353
▁explain	-9.82366
▁vice	-9.8241
▁judiciary	-9.82623
▁sitting	-9.82638
▁fo	-9.82889
▁knew	-9.82897
tle	-9.82957
▁improvement	-9.82995
▁door	-9.83161
▁track	-9.8327
▁measure	-9.8327
▁amongst	-9.83379
nk	-9.83381
▁facility	-9.83447
mu	-9.83478
og	-9.83513
▁im	-9.83554
▁ku	-9.83595
▁participation	-9.83815
▁creating	-9.83823
▁hall	-9.83931
ris	-9.83932
cus	-9.83939
▁leadership	-9.84011
hal	-9.84014
▁believed	-9.84043
▁nine	-9.84046
▁died	-9.84067
▁returned	-9.84095
▁follows	-9.84102
▁extra	-9.84105
▁officials	-9.84124
▁center	-9.84194
ned	-9.84215
▁email	-9.84382
▁ordinary	-9.84462
▁determined	-9.84471
▁citizen	-9.8454
▁journey	-9.84555
▁approval	-9.84648
▁crime	-9.84737
▁campaign	-9.84741
▁remote	-9.84741
▁reasonable	-9.84815
▁negative	-9.84834
▁require	-9.84845
▁match	-9.84893
▁season	-9.84899
▁excellency	-9.84927
▁politics	-9.84927
▁recommended	-9.84972
▁gets	-9.84984
▁dark	-9.85063
▁tool	-9.85064
▁advantage	-9.8509
▁bihar	-9.85105
▁nearly	-9.85109
▁agreed	-9.85269
▁suitable	-9.85277
▁applied	-9.85301
▁elections	-9.85345
▁assam	-9.85358
dra	-9.85367
▁efficient	-9.85395
tes	-9.85398
ura	-9.85535
▁features	-9.85562
▁battle	-9.85585
&	-9.85617
▁proved	-9.85666
ash	-9.85666
▁seem	-9.8573
▁permission	-9.8577
▁expect	-9.85808
az	-9.8586
▁applicable	-9.85864
▁appears	-9.85867
▁background	-9.85958
▁inner	-9.85966
▁trans	-9.85986
▁walk	-9.86063
▁undertaking	-9.86169
▁brain	-9.86195
▁pen	-9.86218
king	-9.86223
▁budget	-9.86241
▁q	-9.86249
▁picture	-9.86266
ery	-9.8628
▁discharge	-9.86336
▁dev	-9.86402
▁andhra	-9.86448
▁arbitration	-9.86529
ising	-9.86555
cr	-9.86568
▁decisions	-9.86592
mal	-9.86613
▁heat	-9.86619
▁begin	-9.86631
act	-9.86637
▁initiatives	-9.86649
▁judgment	-9.86651
ek	-9.86652
▁reduced	-9.86706
▁prices	-9.86722
▁broad	-9.86724
▁recently	-9.86812
las	-9.86815
▁ti	-9.8686
osis	-9.8689
▁happened	-9.86918
▁arrest	-9.86943
▁sides	-9.86988
▁maintenance	-9.87095
▁profession	-9.87121
▁thereof	-9.87134
▁log	-9.87154
▁drugs	-9.87164
▁aware	-9.87189
▁mouth	-9.87222
▁iron	-9.87253
▁rec	-9.87388
ide	-9.87492
▁constituted	-9.87566
▁empire	-9.87574
▁reforms	-9.87582
ub	-9.87615
▁proposal	-9.87623
▁poem	-9.87634
▁refer	-9.87786
ev	-9.87821
so	-9.87836
▁cat	-9.87863
▁corporate	-9.87864
▁element	-9.87889
▁unable	-9.87909
▁notes	-9.87913
▁shift	-9.87964
ko	-9.87999
▁connect	-9.88001
▁awareness	-9.88002
▁climate	-9.88053
▁double	-9.88053
▁launched	-9.88066
one	-9.8807
▁sectors	-9.88116
iya	-9.88134
▁throw	-9.8815
▁ali	-9.88173
▁band	-9.88289
▁crops	-9.88353
▁frame	-9.88361
▁worked	-9.88377
oid	-9.88565
▁false	-9.88632
▁consultation	-9.88756
▁portion	-9.88758
dr	-9.88766
▁completely	-9.88863
tre	-9.88895
▁dream	-9.889
▁photo	-9.88936
▁israeli	-9.89
▁yield	-9.89019
▁marketing	-9.89118
hara	-9.89154
▁jo	-9.89182
▁profits	-9.89273
▁facilitate	-9.89311
▁password	-9.89313
esh	-9.89327
▁attend	-9.8934
▁valid	-9.89373
▁latest	-9.89374
▁roy	-9.89421
▁latter	-9.89422
▁hear	-9.89446
par	-9.89457
su	-9.89465
hy	-9.89558
▁emphasis	-9.89604
▁yes	-9.89604
▁supported	-9.89609
▁ru	-9.89651
yan	-9.89679
▁disputes	-9.89696
▁gu	-9.89701
▁priority	-9.89839
▁challenge	-9.89856
▁elected	-9.89862
ns	-9.89942
her	-9.89983
▁materials	-9.90005
▁graph	-9.90006
▁encourage	-9.90027
▁jail	-9.90049
▁establish	-9.9021
ved	-9.90246
▁mad	-9.90395
for	-9.90408
▁interesting	-9.90493
izing	-9.90494
▁channel	-9.90494
▁radio	-9.90544
▁chance	-9.9063
▁magistrate	-9.90685
▁dar	-9.90693
▁approved	-9.90732
▁belong	-9.90774
▁province	-9.90796
▁seed	-9.90796
▁pu	-9.90837
pati	-9.9088
pos	-9.90891
▁entered	-9.90971
ture	-9.91022
▁bio	-9.91073
▁multiple	-9.9109
▁medicine	-9.91101
▁contempt	-9.9118
▁student	-9.91215
▁spent	-9.91237
▁hair	-9.91254
▁rid	-9.9126
▁folk	-9.91291
▁fat	-9.91312
▁sources	-9.91323
▁suffering	-9.91358
▁accordingly	-9.91594
▁solution	-9.91606
▁tender	-9.91657
▁regulations	-9.91777
▁jain	-9.91779
▁worth	-9.91824
▁pal	-9.91874
▁drama	-9.91936
▁none	-9.92034
▁records	-9.92056
▁evolution	-9.92077
▁factor	-9.92098
stood	-9.92154
▁released	-9.92368
▁thirty	-9.92378
▁sister	-9.92406
▁op	-9.92419
▁drawn	-9.92432
▁remained	-9.9249
▁moved	-9.92571
▁formal	-9.92604
rt	-9.92714
▁execution	-9.9278
ack	-9.92791
▁bose	-9.92812
int	-9.92816
▁blue	-9.92882
▁achieved	-9.92894
▁conclusion	-9.92982
van	-9.92996
▁devi	-9.92997
▁integrated	-9.93012
▁classes	-9.93079
▁cur	-9.93286
ren	-9.9331
▁mention	-9.93328
▁weak	-9.93404
▁departments	-9.93443
▁changing	-9.93489
▁electricity	-9.93509
▁fort	-9.9351
▁finding	-9.93532
▁depend	-9.93553
▁update	-9.93562
ung	-9.93572
▁advanced	-9.93608
▁evil	-9.93616
▁race	-9.93643
ata	-9.93758
▁trouble	-9.93794
▁farm	-9.9386
▁rates	-9.93991
▁minor	-9.94024
▁hi	-9.94026
▁column	-9.941
▁auto	-9.94184
▁dec	-9.9423
dh	-9.94278
▁expenses	-9.94303
▁moving	-9.94305
▁commitment	-9.94328
▁offices	-9.94364
chan	-9.94476
▁counsel	-9.9451
▁trees	-9.94639
▁ob	-9.94674
▁counter	-9.94684
▁weather	-9.94716
ped	-9.94774
▁lake	-9.94808
▁gram	-9.94838
▁meant	-9.94922
▁hill	-9.94942
▁writer	-9.94956
pla	-9.94958
▁regions	-9.95022
▁letters	-9.95039
use	-9.95073
▁removed	-9.95076
▁babu	-9.95085
cation	-9.95124
▁currency	-9.95127
▁couple	-9.95129
▁cow	-9.95144
▁assistant	-9.95161
▁housing	-9.95231
▁welcome	-9.95307
▁married	-9.95334
▁disk	-9.9535
cha	-9.95438
ksha	-9.95445
▁charged	-9.95448
▁prior	-9.95596
▁situated	-9.95645
▁soft	-9.95715
▁theory	-9.95726
▁manufacturing	-9.95749
▁valley	-9.95749
▁london	-9.95853
var	-9.95865
▁box	-9.95891
mat	-9.95911
▁prosperity	-9.95957
▁option	-9.96008
▁hot	-9.96048
▁functioning	-9.96133
▁upper	-9.96166
▁bus	-9.96169
▁didn	-9.96227
▁users	-9.96243
▁kha	-9.96273
▁murder	-9.96275
▁recorded	-9.96306
▁characters	-9.96347
▁tube	-9.96348
pat	-9.96385
▁huge	-9.9639
▁birds	-9.96447
ms	-9.96556
▁signal	-9.96558
▁strike	-9.9659
▁substance	-9.9671
▁convert	-9.96769
▁temperature	-9.96793
▁script	-9.96827
▁guidelines	-9.96898
▁wild	-9.96902
▁challenges	-9.96903
▁compar	-9.97031
▁operating	-9.97109
▁tonnes	-9.97112
▁framework	-9.97217
▁rice	-9.97238
▁initial	-9.97239
▁karnataka	-9.97425
▁arab	-9.9745
▁comm	-9.97475
▁selection	-9.9753
▁discipline	-9.97531
▁happen	-9.97725
▁launch	-9.97726
▁span	-9.97733
▁contain	-9.97808
▁receipt	-9.97893
▁communities	-9.97955
▁scientists	-9.98005
▁panel	-9.98014
▁danger	-9.98145
▁royal	-9.98169
▁scc	-9.98223
▁fourth	-9.98327
▁constitute	-9.98377
▁objectives	-9.98386
▁gift	-9.98389
▁atmosphere	-9.98487
▁pure	-9.98542
▁guide	-9.98608
▁offences	-9.98751
▁poll	-9.98757
▁audio	-9.98814
▁sexual	-9.98815
▁hit	-9.98851
▁mountain	-9.98883
ini	-9.98904
▁proportion	-9.98915
▁alternative	-9.99023
▁zero	-9.99029
▁conducted	-9.99074
▁healthy	-9.99091
▁maintained	-9.99097
▁opposition	-9.99132
com	-9.99137
▁adult	-9.99313
log	-9.99372
▁recovery	-9.99414
▁bills	-9.99414
▁initiative	-9.99423
▁submitted	-9.99573
ever	-9.99601
▁sought	-9.99642
ath	-9.99659
▁grown	-9.99713
▁attached	-9.99717
▁tribal	-9.99784
▁digital	-9.99859
▁electronic	-9.99862
▁weeks	-9.99951
▁orissa	-9.99995
▁desert	-9.99996
▁ray	-10
zi	-10.0003
lum	-10.0006
jan	-10.0013
▁hy	-10.0013
▁eve	-10.0013
▁bilateral	-10.0021
gam	-10.0021
▁scope	-10.0023
▁url	-10.0023
ou	-10.0027
▁opened	-10.0029
atic	-10.003
▁formation	-10.0036
▁kh	-10.0048
gal	-10.0049
▁edge	-10.0056
▁plays	-10.0064
▁absence	-10.0065
▁telephone	-10.0065
▁mor	-10.0074
▁gar	-10.0078
▁raise	-10.0083
▁obtained	-10.0084
xi	-10.0085
cl	-10.0102
▁severe	-10.0102
▁forum	-10.0106
▁regulation	-10.0119
▁calls	-10.0123
▁served	-10.0124
▁partner	-10.0128
▁deliver	-10.0128
▁assessing	-10.0134
▁ability	-10.014
▁skill	-10.0141
▁debate	-10.0142
▁possession	-10.0147
▁courage	-10.0152
▁sweet	-10.0152
▁pending	-10.0152
▁consists	-10.0154
▁absolute	-10.0155
▁armed	-10.0159
▁confident	-10.0162
▁personnel	-10.0174
all	-10.0176
▁subjects	-10.0178
▁bri	-10.0179
cor	-10.0179
mor	-10.0182
dhi	-10.0185
▁imprisonment	-10.0185
▁scene	-10.0187
▁stream	-10.0187
▁squared	-10.0188
▁emergency	-10.0196
▁jan	-10.0197
▁saint	-10.0209
bal	-10.0211
▁everyone	-10.0212
▁intelligence	-10.0219
▁northern	-10.0241
ue	-10.0241
▁sin	-10.0243
ix	-10.0247
▁liquid	-10.0252
▁processes	-10.0255
▁transferred	-10.0255
ants	-10.0259
▁helped	-10.0265
▁bas	-10.0267
▁mere	-10.0272
▁liberal	-10.0274
▁branches	-10.0278
day	-10.0283
▁cho	-10.0306
▁recommendation	-10.0315
▁identify	-10.0319
▁definition	-10.0319
▁repeal	-10.032
▁evening	-10.0321
▁bringing	-10.0323
▁piece	-10.0327
res	-10.0331
▁career	-10.0333
▁islands	-10.0334
▁effects	-10.034
rr	-10.0346
▁layer	-10.0346
▁committees	-10.0348
ili	-10.0352
▁despite	-10.0352
▁lose	-10.0354
▁deputy	-10.0364
▁jammu	-10.0364
kha	-10.0369
▁ar	-10.0369
▁customer	-10.0369
comp	-10.0372
▁hu	-10.0372
▁qua	-10.0374
▁appellate	-10.0375
▁proof	-10.0377
▁similarly	-10.0379
cal	-10.0381
▁scholars	-10.0383
▁os	-10.0389
▁wait	-10.0391
▁garden	-10.0392
▁route	-10.0401
▁map	-10.0403
oli	-10.0419
▁behaviour	-10.042
▁reflect	-10.0422
▁traffic	-10.0431
▁occur	-10.0435
▁decades	-10.0437
▁platform	-10.0443
▁becoming	-10.0443
▁inquiry	-10.0454
▁civilization	-10.0458
▁wood	-10.046
▁greatest	-10.0462
ica	-10.0463
▁comprehensive	-10.0465
▁string	-10.0468
▁guarantee	-10.0476
▁fuel	-10.0477
▁ourselves	-10.0478
▁bond	-10.0485
▁gi	-10.0497
▁sit	-10.0497
▁acc	-10.05
▁tend	-10.0501
▁rep	-10.0505
of	-10.0509
ries	-10.0515
▁rare	-10.0515
▁proceeding	-10.0516
▁equality	-10.0518
row	-10.0523
▁camp	-10.0524
▁determine	-10.0525
▁starting	-10.0526
▁chemical	-10.0526
▁bird	-10.0528
▁prof	-10.053
▁infection	-10.0534
▁steel	-10.0534
▁billion	-10.0538
▁lies	-10.054
▁capable	-10.0541
▁drug	-10.0542
▁aspect	-10.0542
▁shared	-10.0545
▁venture	-10.0546
▁organizations	-10.0548
▁rent	-10.0549
▁bomb	-10.0556
▁suggest	-10.0571
dhar	-10.0585
▁promot	-10.0585
▁owner	-10.0588
▁advocate	-10.0588
▁client	-10.0592
▁madras	-10.0603
▁guard	-10.0612
▁cloth	-10.0616
▁agent	-10.0619
aries	-10.062
▁lie	-10.0621
▁vehicle	-10.0624
ency	-10.0629
▁smaller	-10.0638
ose	-10.0638
▁fruit	-10.0639
▁recognised	-10.0641
▁adopt	-10.0647
ger	-10.0656
▁employer	-10.0662
▁lal	-10.0678
▁conscious	-10.0679
▁girls	-10.068
set	-10.0684
cro	-10.0684
▁friendship	-10.0685
lip	-10.0687
▁tomorrow	-10.0695
▁drop	-10.0702
nce	-10.0703
tation	-10.0706
▁gains	-10.0711
▁coal	-10.0724
▁bone	-10.0729
▁das	-10.073
▁minutes	-10.073
▁professor	-10.0732
▁loans	-10.0732
▁subhas	-10.0734
▁mah	-10.0734
▁secure	-10.0741
▁designed	-10.0751
▁southern	-10.0753
▁sardar	-10.0755
▁estate	-10.0756
▁je	-10.0758
▁print	-10.0762
▁bench	-10.0766
side	-10.077
▁stamp	-10.0771
clause	-10.0775
▁domain	-10.0777
▁shi	-10.0777
▁mon	-10.0781
▁harm	-10.0784
▁wise	-10.0789
uff	-10.0795
arising	-10.0802
▁gr	-10.0806
za	-10.0807
rm	-10.0809
▁fellow	-10.0812
▁technologies	-10.0812
▁liability	-10.0813
mm	-10.0815
▁flowers	-10.082
▁claims	-10.0825
▁intention	-10.0827
ey	-10.0833
▁signed	-10.0834
▁recognition	-10.0847
▁mistake	-10.0847
▁perfect	-10.085
▁secondary	-10.086
▁tissue	-10.0874
▁rivers	-10.0882
▁thank	-10.089
▁thousands	-10.0893
▁communal	-10.0906
▁corner	-10.0908
▁sw	-10.091
dd	-10.091
▁reported	-10.0913
▁min	-10.0918
▁belief	-10.0922
▁street	-10.0926
tive	-10.0926
▁fix	-10.093
▁transaction	-10.0934
ov	-10.0935
▁appeals	-10.0936
▁fifty	-10.0942
▁switch	-10.0942
▁instruments	-10.0946
▁installed	-10.095
▁ven	-10.0953
▁bed	-10.0962
▁notwithstanding	-10.0966
▁constant	-10.0971
▁height	-10.0981
▁van	-10.0995
▁buy	-10.0996
▁insect	-10.0999
▁eligible	-10.1002
▁bridge	-10.1002
▁horse	-10.1007
▁install	-10.1014
▁cabinet	-10.1014
▁stress	-10.1015
▁equally	-10.1029
▁reaction	-10.103
▁dog	-10.1043
▁roll	-10.1047
num	-10.1049
ological	-10.1053
▁salt	-10.1053
▁grand	-10.1061
▁strengthen	-10.1069
▁skills	-10.1074
▁organisations	-10.108
▁securities	-10.1087
▁urge	-10.1088
▁implemented	-10.1096
▁acquired	-10.11
▁package	-10.11
▁bright	-10.1103
▁nadu	-10.1103
mit	-10.1105
ments	-10.1111
▁metal	-10.1115
by	-10.1124
▁identified	-10.1128
▁normally	-10.1129
nes	-10.1138
▁assigned	-10.1139
▁chi	-10.114
car	-10.1148
▁chain	-10.1149
ld	-10.1149
nagar	-10.1155
▁narrow	-10.1159
▁immediate	-10.1164
▁outstanding	-10.1171
▁sugar	-10.1173
▁kill	-10.1174
▁rank	-10.1178
▁dh	-10.1181
fo	-10.1181
▁diet	-10.1184
▁centuries	-10.1195
▁treat	-10.1196
▁prosecution	-10.1197
▁representation	-10.1199
▁bag	-10.12
▁collected	-10.1202
nan	-10.1204
▁employee	-10.1205
shan	-10.121
▁raw	-10.1211
▁proceed	-10.1219
▁song	-10.122
▁palace	-10.122
▁creative	-10.1221
▁performed	-10.1221
▁contribute	-10.1221
▁personality	-10.1222
rum	-10.1229
dge	-10.1232
tta	-10.1233
rup	-10.1236
▁mostly	-10.1237
▁marked	-10.1239
▁organized	-10.1244
atory	-10.1248
ita	-10.1259
▁introduction	-10.1269
▁mandapa	-10.1269
▁motor	-10.1272
▁col	-10.1273
▁appeared	-10.1273
looked	-10.1275
▁poly	-10.1276
▁overall	-10.1278
▁declaration	-10.1281
▁quick	-10.1287
▁suffer	-10.129
▁visited	-10.129
▁mill	-10.1294
wi	-10.1296
▁appearance	-10.1296
▁store	-10.1297
▁library	-10.1306
▁flower	-10.131
▁filled	-10.1312
iz	-10.1323
▁customs	-10.1329
▁pointed	-10.1332
tter	-10.1332
under	-10.1334
▁mid	-10.134
▁municipal	-10.1343
▁satisfied	-10.1343
▁mat	-10.1344
▁000	-10.1347
nch	-10.1358
▁announced	-10.1361
uck	-10.1362
shi	-10.1365
▁download	-10.137
▁swami	-10.1377
▁mechanism	-10.138
▁simply	-10.1393
rg	-10.1399
▁sports	-10.1403
▁floor	-10.1405
▁deals	-10.1407
▁prose	-10.1408
br	-10.1408
▁respondent	-10.1408
▁core	-10.141
rang	-10.1415
▁flat	-10.1415
▁victim	-10.1419
▁cooperative	-10.142
▁arch	-10.1425
▁ji	-10.1426
▁arm	-10.1437
▁input	-10.1437
▁fill	-10.1442
▁french	-10.1443
▁visible	-10.1444
▁household	-10.1445
▁settings	-10.1451
▁respective	-10.1454
▁mount	-10.1456
▁detailed	-10.1463
▁shrine	-10.1466
▁poets	-10.1479
▁heritage	-10.1481
▁belonging	-10.149
▁arms	-10.1497
pu	-10.1497
▁bangladesh	-10.1506
▁tourism	-10.1508
▁discussed	-10.1511
▁aims	-10.1511
▁sen	-10.1517
hat	-10.1519
▁recommend	-10.152
▁feature	-10.1521
▁seemed	-10.153
▁partition	-10.1531
▁represents	-10.1536
ob	-10.154
▁indo	-10.1543
▁containing	-10.1549
▁doesn	-10.1555
▁preparation	-10.1556
▁distinguished	-10.1562
▁prevention	-10.1565
▁escape	-10.1569
bul	-10.157
▁exports	-10.1571
▁statutory	-10.1582
▁competent	-10.1582
table	-10.1588
ulation	-10.1589
▁ego	-10.1595
▁dam	-10.1598
▁substantial	-10.1601
▁bur	-10.1609
▁fell	-10.1614
▁drink	-10.1624
▁bra	-10.1624
▁actions	-10.1633
▁imposed	-10.1635
▁killed	-10.164
▁stands	-10.164
▁tab	-10.1655
uni	-10.1657
▁iran	-10.1657
▁cheque	-10.1659
▁terrorist	-10.1662
▁looks	-10.1664
▁fees	-10.167
▁parent	-10.1671
▁contributions	-10.1684
gri	-10.1687
wn	-10.1689
▁protocol	-10.1697
▁properly	-10.17
▁reply	-10.1705
tr	-10.1707
▁limits	-10.1712
▁palestinian	-10.1716
▁sight	-10.1718
▁unknown	-10.1722
▁discuss	-10.1725
▁acquisition	-10.1735
▁sustainable	-10.1738
▁amended	-10.1741
▁enterprises	-10.1749
▁directions	-10.1751
▁sheet	-10.1752
gy	-10.1753
▁sky	-10.1754
▁ratio	-10.1763
▁wonder	-10.1765
time	-10.1775
▁seeking	-10.1792
▁territories	-10.18
▁thereafter	-10.18
tric	-10.1801
▁extremely	-10.1802
▁composed	-10.1815
▁pull	-10.1827
▁exists	-10.1832
▁seat	-10.1836
joined	-10.1839
▁organised	-10.1841
▁hardly	-10.1841
▁eggs	-10.1845
▁intended	-10.1846
▁trading	-10.1852
fu	-10.1853
sm	-10.1853
▁initiated	-10.1854
▁manufacture	-10.1866
▁attract	-10.1884
▁computing	-10.1891
▁divide	-10.1893
▁respond	-10.1901
▁arrangement	-10.1902
▁disposal	-10.1904
etic	-10.1904
▁slow	-10.1913
▁pot	-10.1914
▁john	-10.1917
▁infinite	-10.1917
▁availability	-10.1918
▁enabled	-10.1921
hra	-10.1925
ef	-10.1927
▁br	-10.1932
era	-10.194
▁el	-10.1944
▁ap	-10.1953
▁excellence	-10.1957
▁pipes	-10.1962
▁figures	-10.1967
▁hyderabad	-10.197
▁cycle	-10.197
▁delete	-10.1974
▁closed	-10.1976
▁employed	-10.1979
cious	-10.1986
ire	-10.1986
▁oh	-10.1989
hana	-10.199
▁prayer	-10.1991
▁sanction	-10.1994
das	-10.2001
▁undertaken	-10.2004
▁enterprise	-10.2009
hood	-10.2009
▁competition	-10.201
▁repair	-10.201
▁irrigation	-10.201
▁permit	-10.2014
▁entirely	-10.2015
▁cook	-10.2019
▁anyone	-10.202
▁submit	-10.2027
▁hero	-10.204
▁witnesses	-10.2041
▁pit	-10.2041
▁compound	-10.205
▁sacred	-10.205
▁index	-10.2051
▁tan	-10.2052
▁ahead	-10.2054
▁madhya	-10.2063
▁suddenly	-10.2065
▁devotion	-10.2066
▁examples	-10.207
cri	-10.2076
▁federal	-10.2076
▁kinds	-10.2077
▁representative	-10.2077
ker	-10.2081
▁efficiency	-10.209
▁conviction	-10.2093
▁listen	-10.2093
▁informed	-10.2096
▁furnish	-10.2099
▁directed	-10.21
▁pair	-10.2101
▁customers	-10.2102
▁impossible	-10.2103
▁leaving	-10.2103
▁urdu	-10.2103
▁possess	-10.2108
hur	-10.2114
pol	-10.2118
▁baby	-10.2118
▁requirement	-10.2122
▁reader	-10.2128
▁quarter	-10.213
▁admitted	-10.2144
kara	-10.2145
▁sita	-10.2148
▁custom	-10.215
▁assist	-10.2159
▁depends	-10.2161
dev	-10.2162
▁poetic	-10.2163
▁http	-10.217
▁invalid	-10.217
▁proud	-10.2172
▁organ	-10.2174
▁christian	-10.2182
▁font	-10.2185
▁instructions	-10.2186
▁golden	-10.219
▁objects	-10.2192
▁plans	-10.2195
▁journal	-10.2197
▁quickly	-10.2218
▁currently	-10.2219
▁monitoring	-10.2225
▁shiva	-10.2226
▁uk	-10.2232
illa	-10.2232
pri	-10.2236
▁accurate	-10.2238
▁felicitations	-10.2251
▁jawaharlal	-10.2251
▁vishnu	-10.2251
▁runs	-10.2261
▁deeply	-10.2264
▁sold	-10.2265
▁districts	-10.2267
▁forests	-10.2273
▁push	-10.2276
▁consent	-10.2283
▁terminal	-10.2292
▁leg	-10.2292
▁league	-10.2306
▁myself	-10.2306
▁penal	-10.2306
▁bush	-10.2307
▁ltd	-10.2309
▁cool	-10.2309
▁manage	-10.2309
▁interested	-10.2311
▁helps	-10.2317
▁playing	-10.2318
▁burden	-10.232
▁semi	-10.2321
▁dynamic	-10.2323
▁remind	-10.2324
▁composition	-10.2333
▁spoke	-10.2337
▁strategy	-10.2347
▁straight	-10.2347
▁prasad	-10.2349
▁hon	-10.2356
▁commencement	-10.2361
some	-10.2365
▁quantity	-10.2374
▁mughal	-10.2374
▁prepare	-10.2378
▁rapid	-10.2384
▁era	-10.2385
▁tools	-10.2386
▁improving	-10.2388
▁transactions	-10.2397
▁eternal	-10.2402
port	-10.2406
▁pick	-10.2409
▁bail	-10.2411
ina	-10.2413
iness	-10.2414
▁happiness	-10.2415
▁societies	-10.2415
▁offers	-10.242
▁examine	-10.2421
▁socio	-10.2424
▁conversion	-10.2429
▁subordinate	-10.2429
▁upto	-10.2433
▁extensive	-10.2443
oon	-10.2449
volving	-10.2452
▁inspired	-10.2455
uous	-10.2465
▁imagine	-10.2471
▁determination	-10.2485
▁movements	-10.2486
iti	-10.2492
oph	-10.2494
▁cotton	-10.2499
▁lit	-10.2508
▁procedures	-10.2508
▁specify	-10.2513
▁radical	-10.2513
▁awarded	-10.2517
▁markets	-10.2518
▁demands	-10.252
▁finger	-10.2529
▁swa	-10.2531
my	-10.2532
▁kal	-10.2539
▁flood	-10.254
▁whenever	-10.2541
▁rose	-10.2542
▁buddha	-10.2543
▁windows	-10.2551
pra	-10.2553
sur	-10.2557
▁mono	-10.2559
▁covering	-10.2559
▁progressive	-10.2565
agon	-10.2571
bh	-10.2572
▁operate	-10.2573
adi	-10.2575
▁certainly	-10.2582
▁circuit	-10.2582
▁commerce	-10.2582
▁persian	-10.2583
▁uses	-10.2585
ami	-10.2586
▁filing	-10.2586
▁estimated	-10.259
▁practical	-10.2592
▁elephant	-10.2592
▁bath	-10.2595
▁applicant	-10.2596
rk	-10.2602
▁germany	-10.2607
▁ritual	-10.2611
▁siva	-10.2615
▁dedicated	-10.2629
▁verse	-10.263
▁directory	-10.2632
▁writers	-10.2636
like	-10.2637
▁museum	-10.2639
▁superior	-10.2639
▁passage	-10.2643
▁merit	-10.2645
▁egg	-10.2645
▁guidance	-10.2653
▁improved	-10.2656
▁hills	-10.2657
lli	-10.266
▁contemporary	-10.2667
▁grass	-10.2675
▁happens	-10.2676
▁mala	-10.2676
▁brief	-10.2677
▁victims	-10.268
des	-10.268
▁license	-10.2681
▁profile	-10.2682
▁talent	-10.2683
▁atomic	-10.2685
▁resident	-10.2689
ched	-10.2691
▁pandit	-10.2696
▁nerve	-10.2696
▁crisis	-10.2696
▁bow	-10.2697
kan	-10.27
▁seeds	-10.2701
ties	-10.2704
▁liable	-10.2708
▁disorder	-10.271
▁char	-10.2715
▁consist	-10.2721
hor	-10.273
ound	-10.273
▁understood	-10.2743
ification	-10.2744
▁wants	-10.2747
▁appellant	-10.2752
▁circle	-10.2752
▁transmission	-10.2752
▁iraq	-10.2752
▁arrived	-10.2762
▁enacted	-10.2765
▁icon	-10.2768
▁gupta	-10.2768
▁addressed	-10.2772
▁respectively	-10.2774
▁reli	-10.2775
▁investors	-10.2776
▁explained	-10.2778
▁ms	-10.2788
▁island	-10.2802
▁drawing	-10.2811
▁tribes	-10.2812
ls	-10.2812
tech	-10.2813
▁masses	-10.2815
▁consumption	-10.2824
▁humanity	-10.2824
▁sharp	-10.2825
▁minds	-10.2832
lar	-10.2832
▁expansion	-10.2838
▁litigation	-10.2838
▁strategic	-10.2838
▁enemy	-10.2838
gr	-10.2846
▁differences	-10.2851
▁holy	-10.2852
▁comments	-10.286
▁pages	-10.2869
▁outer	-10.2869
▁fun	-10.2877
▁leprosy	-10.2882
▁voluntary	-10.2882
▁visual	-10.2882
▁ver	-10.2884
hya	-10.2886
avi	-10.2897
duct	-10.2899
▁msme	-10.2902
▁showing	-10.2904
ove	-10.2908
che	-10.291
▁universe	-10.2911
▁cancer	-10.2912
▁effectively	-10.2919
▁remaining	-10.292
▁continues	-10.2925
▁queen	-10.2926
▁sales	-10.293
▁flu	-10.293
ula	-10.2931
press	-10.2941
▁arrested	-10.2948
▁holder	-10.295
▁lac	-10.2979
▁papers	-10.2985
▁deposits	-10.2993
▁criticism	-10.3
▁castes	-10.3005
hen	-10.3006
▁pin	-10.3008
▁ensur	-10.3011
▁spite	-10.3015
▁backward	-10.3021
dan	-10.3031
▁buddhist	-10.3042
▁maybe	-10.3044
▁promise	-10.3048
lp	-10.3048
▁amendments	-10.3051
▁vir	-10.3053
zo	-10.3062
▁derived	-10.3066
tin	-10.3066
ese	-10.307
▁recognized	-10.3077
oma	-10.3079
▁religions	-10.308
mar	-10.3082
▁twelve	-10.3101
▁virtue	-10.3101
▁pr	-10.3101
▁interpretation	-10.3104
▁difficulty	-10.3116
▁japan	-10.3116
▁dress	-10.3122
▁ble	-10.3122
▁defendant	-10.3122
▁succeed	-10.3131
▁pun	-10.3135
▁forget	-10.3136
aya	-10.3143
▁ambedkar	-10.3145
▁vis	-10.3147
ez	-10.3155
▁viz	-10.3155
▁equity	-10.316
▁gross	-10.3162
▁passion	-10.3167
▁constituent	-10.3175
▁destination	-10.3175
▁boat	-10.3184
▁decade	-10.3186
▁cont	-10.32
▁plaintiff	-10.3205
▁architecture	-10.3205
१०	-10.3208
▁stick	-10.3208
tak	-10.3215
▁faculty	-10.322
▁jam	-10.322
head	-10.3223
hr	-10.3223
pr	-10.3231
▁grounds	-10.3231
▁cre	-10.3232
ral	-10.3232
▁snake	-10.3235
▁york	-10.3235
dis	-10.3235
▁breast	-10.3235
▁difficulties	-10.3242
▁destroy	-10.3251
▁represent	-10.3252
▁thoughts	-10.3256
hari	-10.3261
▁sell	-10.3265
▁patent	-10.3265
▁productivity	-10.3266
▁button	-10.3267
▁enhance	-10.3267
ky	-10.3271
▁database	-10.328
ave	-10.3281
▁dna	-10.3283
▁gradually	-10.3285
vis	-10.3285
mate	-10.3288
▁exception	-10.3289
▁railways	-10.3289
▁breath	-10.3293
lap	-10.3298
▁row	-10.33
▁rulers	-10.3306
▁showed	-10.3316
▁utter	-10.3317
▁bold	-10.3317
▁printer	-10.3317
▁successfully	-10.332
vin	-10.3322
▁representatives	-10.3325
▁fault	-10.3325
ush	-10.3326
▁spring	-10.3328
pic	-10.334
▁combination	-10.334
▁prompt	-10.334
▁quiet	-10.334
▁evident	-10.3355
▁settled	-10.3357
▁sick	-10.3358
▁coast	-10.3361
▁gods	-10.3365
▁bottom	-10.3371
▁afghanistan	-10.3371
ves	-10.3382
▁conf	-10.3384
▁prominent	-10.3386
▁qu	-10.3386
▁roads	-10.3386
▁arrangements	-10.3389
▁lady	-10.3391
११	-10.3392
▁nav	-10.3394
▁appoint	-10.3396
▁continuous	-10.3397
▁mus	-10.3402
▁reveal	-10.3403
▁broken	-10.3407
▁seeing	-10.3408
hin	-10.341
▁palm	-10.3411
abad	-10.3414
▁sole	-10.3414
▁chair	-10.342
▁mag	-10.3422
▁immense	-10.3432
▁temporary	-10.3432
▁presid	-10.3438
▁distinction	-10.344
▁brahman	-10.344
eva	-10.3442
▁sessions	-10.3444
▁monitor	-10.3446
▁injury	-10.3447
bl	-10.3448
▁leaf	-10.3448
ban	-10.3449
▁disabled	-10.3451
▁menu	-10.3457
▁interface	-10.3462
▁topics	-10.3463
▁subscribe	-10.3469
▁technological	-10.3477
▁harmony	-10.3477
▁cal	-10.3478
ras	-10.3479
▁fla	-10.348
▁hotel	-10.3481
▁disc	-10.3488
▁subsequent	-10.3489
nanda	-10.349
▁numerous	-10.3493
▁binoy	-10.3493
▁acceptance	-10.3498
▁fever	-10.35
ila	-10.3514
▁participate	-10.3516
▁hari	-10.3523
▁chaitanya	-10.3524
▁fifteen	-10.3524
▁educated	-10.3531
▁solve	-10.3534
▁fail	-10.3535
nam	-10.3537
▁recall	-10.354
▁speeches	-10.3541
▁abnormal	-10.3554
▁turkey	-10.3555
raj	-10.3558
▁estimate	-10.3562
▁trained	-10.3569
▁discussions	-10.3571
▁club	-10.3571
▁talking	-10.3572
▁implement	-10.3583
▁neighbour	-10.3585
▁prop	-10.3587
▁acting	-10.3587
▁wi	-10.359
▁happening	-10.3592
▁mac	-10.3592
▁regarded	-10.3594
▁occupation	-10.3601
▁violent	-10.3601
▁thick	-10.3601
▁waiting	-10.3604
ick	-10.3604
▁goa	-10.3605
▁authorised	-10.3622
ele	-10.3623
▁excess	-10.363
▁newspaper	-10.363
▁vedic	-10.3633
ute	-10.3643
▁chamber	-10.3648
▁argument	-10.3648
▁options	-10.3651
▁blow	-10.3652
▁symptoms	-10.3657
▁praise	-10.3658
▁breed	-10.3664
worm	-10.3665
▁institutional	-10.3668
▁occurs	-10.3671
▁goals	-10.3675
▁widely	-10.3684
▁beach	-10.3686
▁offering	-10.369
▁destruction	-10.3695
▁virtual	-10.3695
▁contrary	-10.3695
ography	-10.3697
ice	-10.37
▁epic	-10.3702
▁controlled	-10.3704
▁comprise	-10.371
▁mountains	-10.3715
▁depth	-10.3726
▁permitted	-10.3728
▁links	-10.3728
▁fluid	-10.3729
▁meetings	-10.3736
▁editor	-10.3737
fully	-10.3746
▁str	-10.3749
▁afford	-10.3752
▁grew	-10.3759
▁corruption	-10.376
▁tour	-10.3761
cept	-10.3761
▁transformation	-10.3762
▁soldiers	-10.3763
▁usual	-10.3764
work	-10.3768
▁deb	-10.3769
▁em	-10.3769
▁cluster	-10.3773
▁kolkata	-10.3773
ulat	-10.378
nda	-10.3781
▁safeguard	-10.3789
▁protest	-10.3789
▁mut	-10.3795
▁attacks	-10.3798
▁crowd	-10.3799
▁legs	-10.3801
▁celebrated	-10.3802
▁daniel	-10.3805
nation	-10.3806
yam	-10.3808
▁gazette	-10.3821
▁significance	-10.3821
▁ring	-10.3823
aj	-10.3826
▁messages	-10.383
▁mohan	-10.3835
▁roof	-10.3838
▁fruits	-10.3839
▁remarkable	-10.3842
rit	-10.3843
▁distributed	-10.3844
▁wear	-10.3844
▁gora	-10.3846
ier	-10.3847
▁solutions	-10.3848
back	-10.3852
▁chrome	-10.3853
▁defect	-10.3854
ox	-10.3861
▁prize	-10.3866
▁regime	-10.3868
▁meal	-10.3868
▁herself	-10.3869
▁carbon	-10.3869
▁socialist	-10.3869
▁gun	-10.3869
▁automatically	-10.387
▁genetic	-10.387
▁edit	-10.3871
▁taught	-10.3873
▁verses	-10.3873
▁linked	-10.3877
▁millions	-10.3881
fr	-10.3885
graph	-10.3886
ida	-10.3889
▁russia	-10.3904
▁consisting	-10.3905
▁nagar	-10.3907
▁attain	-10.3909
▁noise	-10.3914
▁aforesaid	-10.3917
▁conservation	-10.3917
▁valuable	-10.3917
▁wound	-10.3919
aw	-10.3921
pho	-10.3931
▁categories	-10.3933
tain	-10.3933
▁dear	-10.3941
▁dealt	-10.3942
garh	-10.3944
▁achievement	-10.3945
▁emotional	-10.3946
meter	-10.3948
▁ceremony	-10.3949
▁emperor	-10.3949
▁sample	-10.3952
▁ear	-10.3956
kin	-10.3967
ular	-10.3969
▁pound	-10.3977
▁delivered	-10.3981
put	-10.3983
▁spend	-10.3986
▁drinking	-10.3992
▁yourself	-10.3997
▁brahma	-10.3999
▁noted	-10.4003
▁extract	-10.4006
hri	-10.4006
▁pop	-10.4008
▁chosen	-10.4017
▁relative	-10.4019
▁writ	-10.402
▁operative	-10.4025
accompanied	-10.403
▁component	-10.4038
▁weapons	-10.4042
▁institutes	-10.4045
▁possibility	-10.4046
▁submission	-10.4046
▁licence	-10.4046
▁enforcement	-10.4048
▁guilty	-10.405
▁testing	-10.4057
▁familiar	-10.4062
▁wage	-10.4063
▁perfection	-10.4068
▁sikh	-10.407
▁extreme	-10.4076
▁stages	-10.4082
▁pray	-10.4083
▁australia	-10.4085
▁cloud	-10.4088
▁blind	-10.409
▁gland	-10.4092
▁writings	-10.4093
▁tenant	-10.4097
▁theme	-10.4105
▁investments	-10.4107
▁prison	-10.4108
▁sudden	-10.4109
▁statute	-10.4111
▁essentially	-10.4121
▁exceed	-10.4123
▁wing	-10.4126
yo	-10.4131
▁founded	-10.4132
▁thereby	-10.4133
▁components	-10.4136
▁gate	-10.4139
▁segment	-10.4144
▁chinese	-10.4144
▁specially	-10.4145
▁chargeable	-10.4147
▁walls	-10.4147
▁amp	-10.4149
▁bhi	-10.4154
▁id	-10.4154
▁nar	-10.416
▁absorb	-10.416
▁beat	-10.4161
▁regulatory	-10.4163
▁congratulate	-10.4169
pal	-10.4169
▁holds	-10.4172
▁transform	-10.4178
▁proposals	-10.4185
▁france	-10.4186
▁innovative	-10.4193
▁protein	-10.4193
▁himachal	-10.4193
▁teeth	-10.4193
pertaining	-10.4194
▁salary	-10.4199
▁forty	-10.4206
▁strengthening	-10.4208
▁unc	-10.4209
▁yellow	-10.421
▁modification	-10.421
ement	-10.4217
▁tank	-10.4217
▁parallel	-10.4226
ori	-10.423
▁tourist	-10.4231
▁limitation	-10.4233
▁uncle	-10.4233
▁refused	-10.4238
owing	-10.4238
most	-10.4238
▁illegal	-10.4243
▁mixed	-10.4246
lay	-10.425
▁maharaja	-10.4263
▁interaction	-10.4265
not	-10.4265
reg	-10.4272
▁consult	-10.4276
▁inspection	-10.4279
▁asian	-10.4282
iva	-10.4285
ua	-10.4286
▁begins	-10.4288
rao	-10.4291
▁harvest	-10.4293
▁hind	-10.4295
▁theatre	-10.4296
vel	-10.4299
▁undertake	-10.43
oy	-10.4301
▁producing	-10.4309
▁syn	-10.4314
▁distinct	-10.4315
▁delight	-10.4324
▁instruction	-10.4325
▁widow	-10.4326
▁multiply	-10.4326
▁detail	-10.433
▁britain	-10.4343
▁wholly	-10.4343
▁encouraged	-10.4349
▁cry	-10.4351
▁naturally	-10.4357
▁boys	-10.4363
▁highway	-10.4373
▁mil	-10.4376
▁resort	-10.4376
▁forth	-10.4378
bil	-10.4386
▁planet	-10.4388
▁agra	-10.439
▁satisfaction	-10.4393
▁german	-10.44
▁dust	-10.4407
▁inclusive	-10.441
▁lock	-10.4416
▁summer	-10.4423
▁graduate	-10.4424
▁meat	-10.4425
▁arise	-10.4427
▁victory	-10.4431
▁unlike	-10.4435
▁prem	-10.4443
wo	-10.4443
▁diversity	-10.4444
▁excellent	-10.4444
▁qualities	-10.4444
▁conferred	-10.4444
ong	-10.445
▁recognize	-10.4454
▁taxes	-10.4459
▁teach	-10.4459
▁television	-10.4461
▁warrant	-10.4461
ola	-10.4467
hav	-10.4472
▁opposite	-10.4477
▁percentage	-10.4482
endra	-10.4484
▁kg	-10.4501
▁node	-10.4508
▁rai	-10.451
rah	-10.451
▁marriages	-10.4513
▁critic	-10.4513
▁exactly	-10.4525
ora	-10.453
▁crores	-10.4536
▁wisdom	-10.4546
▁causing	-10.4546
▁strange	-10.4548
▁patients	-10.4549
▁collect	-10.4552
▁courses	-10.4554
▁ash	-10.4554
▁cease	-10.4556
▁radi	-10.4558
▁admit	-10.4563
▁tar	-10.4568
▁consequences	-10.4572
▁dependent	-10.4576
▁liberty	-10.458
stone	-10.458
▁dividend	-10.4581
▁presentation	-10.4583
▁artificial	-10.4597
▁eminent	-10.4597
▁suggestion	-10.4605
▁shop	-10.4608
▁epi	-10.4609
▁cd	-10.4611
▁advised	-10.4615
▁solid	-10.4615
▁properties	-10.4615
▁collaboration	-10.4617
▁dangerous	-10.4618
▁carefully	-10.463
▁administrator	-10.4631
▁images	-10.4638
med	-10.4644
▁devices	-10.4647
▁largely	-10.4648
▁peak	-10.4655
▁flight	-10.4655
▁pursu	-10.4663
▁automatic	-10.4665
▁bureau	-10.4666
▁movie	-10.4666
rom	-10.4668
▁burn	-10.467
▁forwarded	-10.4671
▁grace	-10.4672
▁airport	-10.4672
ight	-10.4675
▁reduction	-10.4683
▁falls	-10.4684
▁raising	-10.4687
▁remark	-10.4688
▁cup	-10.4696
▁grade	-10.4697
▁directors	-10.4702
▁privilege	-10.4707
▁bhag	-10.4713
▁printed	-10.4715
▁gur	-10.4716
ancy	-10.4717
▁cattle	-10.4719
▁duration	-10.472
▁label	-10.4722
▁experiment	-10.4727
▁leads	-10.4729
over	-10.4732
▁retain	-10.4735
form	-10.4736
uch	-10.474
don	-10.4742
▁suffered	-10.4745
▁tip	-10.4751
▁minute	-10.4753
▁claimed	-10.4757
ically	-10.4766
▁discover	-10.4767
▁algorithm	-10.477
▁bacteria	-10.477
▁satellite	-10.477
▁dignity	-10.477
ley	-10.4777
▁adapt	-10.4783
pre	-10.4785
▁grave	-10.4786
▁sorrow	-10.4788
▁empty	-10.4788
lop	-10.4792
▁concerns	-10.4798
down	-10.4799
run	-10.4799
▁invited	-10.4804
room	-10.4805
▁ruling	-10.4808
▁prejudice	-10.4812
▁indigenous	-10.4823
▁stopped	-10.4824
▁childhood	-10.4826
point	-10.4826
▁guest	-10.4827
bri	-10.4829
▁player	-10.4834
▁plate	-10.4834
▁lamp	-10.4838
east	-10.4839
lat	-10.4842
▁attachment	-10.4846
▁goddess	-10.4848
▁rising	-10.4849
▁vs	-10.4853
▁ramayana	-10.4858
▁buildings	-10.486
charya	-10.4867
▁tiger	-10.4877
eri	-10.4879
▁islamist	-10.4891
▁circular	-10.4893
▁continent	-10.4893
▁proviso	-10.4893
▁confined	-10.4893
▁glass	-10.4893
▁silver	-10.4894
▁truly	-10.4895
▁lanka	-10.4897
▁deed	-10.49
▁aircraft	-10.4912
▁pc	-10.4913
▁sharing	-10.4914
▁shaped	-10.4915
▁egypt	-10.4926
▁compassion	-10.4929
pha	-10.4933
metric	-10.4936
▁driver	-10.4939
▁seats	-10.494
▁whi	-10.4946
▁illness	-10.4958
cap	-10.496
ero	-10.4964
▁receiving	-10.4964
▁pride	-10.4965
▁paragraph	-10.4965
▁saved	-10.4967
▁older	-10.4967
uda	-10.4968
▁narayan	-10.497
▁followers	-10.497
▁technique	-10.4974
▁considering	-10.4974
▁factory	-10.4974
▁glad	-10.4975
▁manifest	-10.4977
▁typical	-10.4977
▁consumers	-10.4978
▁rear	-10.4979
▁cultivation	-10.4982
▁incurred	-10.4982
▁installation	-10.4989
▁inform	-10.4994
▁feelings	-10.5001
▁fighting	-10.5002
▁commonly	-10.5006
▁experts	-10.5007
▁attach	-10.5009
eous	-10.501
mod	-10.5013
with	-10.5016
▁expert	-10.5027
▁define	-10.5034
▁inserted	-10.5036
▁actor	-10.5036
▁ec	-10.5037
▁plane	-10.5038
▁govt	-10.504
▁neck	-10.5041
▁impression	-10.5041
ans	-10.5042
▁pack	-10.5043
▁gap	-10.5047
▁achievements	-10.5048
eb	-10.5054
▁trend	-10.5061
▁indicate	-10.5061
▁manual	-10.5065
ene	-10.5067
▁ultimately	-10.5071
▁realise	-10.5071
▁calendar	-10.5072
▁derivative	-10.5072
▁wheat	-10.5072
▁audience	-10.5072
▁maintaining	-10.5073
▁loose	-10.5073
▁traditions	-10.5083
▁vegetables	-10.5084
▁uniform	-10.5085
▁killing	-10.5087
▁faced	-10.5089
▁heaven	-10.509
▁rational	-10.5093
▁amend	-10.5093
▁taste	-10.5094
▁catch	-10.5104
▁obligation	-10.5105
bin	-10.5106
▁suggestions	-10.5106
▁engine	-10.5107
▁wheel	-10.5108
▁impart	-10.5108
▁basava	-10.511
▁knows	-10.5113
▁finds	-10.5129
▁marks	-10.5129
▁incident	-10.513
▁abuse	-10.5134
▁candidates	-10.5134
▁panchayat	-10.5136
▁represented	-10.5142
▁occurred	-10.5145
▁hurt	-10.5148
▁ice	-10.5154
▁referr	-10.5155
▁ruler	-10.5155
▁obvious	-10.5161
▁nabard	-10.5162
▁keyboard	-10.5163
▁dramatic	-10.5165
▁rejected	-10.5166
▁scholar	-10.5167
▁winter	-10.5169
▁depending	-10.5173
bra	-10.5173
def	-10.5175
▁concession	-10.518
▁studied	-10.518
▁avail	-10.5193
▁muscle	-10.5194
▁literacy	-10.5198
▁vitamin	-10.5198
▁facing	-10.5199
▁cancel	-10.5199
▁saudi	-10.52
▁bat	-10.5202
▁handle	-10.5202
▁signs	-10.5203
▁peaceful	-10.5209
▁defeat	-10.5209
ches	-10.5211
▁managed	-10.5211
▁endeavour	-10.5212
▁hinduism	-10.5218
▁consistent	-10.522
▁accord	-10.5223
▁bid	-10.5227
▁rat	-10.5237
▁tv	-10.5237
▁starts	-10.5241
▁provinces	-10.5251
▁involves	-10.5252
▁fifth	-10.5253
appa	-10.5254
▁cra	-10.5263
rel	-10.5268
▁hide	-10.5272
phil	-10.5282
▁magic	-10.5285
ome	-10.5293
ric	-10.5294
▁invest	-10.5298
▁div	-10.5302
hold	-10.5303
▁via	-10.5314
ela	-10.5317
▁silk	-10.5318
▁generate	-10.5322
responsibilities	-10.5327
▁diverse	-10.5327
▁partners	-10.5327
▁intervention	-10.5327
▁prefer	-10.5328
▁complaints	-10.5332
▁revolutionary	-10.5332
hol	-10.5332
bai	-10.534
▁native	-10.5341
ugh	-10.5342
▁ministries	-10.5345
▁tongue	-10.5345
vara	-10.535
worthy	-10.5352
▁om	-10.5352
▁neuro	-10.5353
claim	-10.5355
▁affection	-10.5356
▁emerging	-10.5364
▁assert	-10.5368
dur	-10.5369
▁yesterday	-10.5382
▁snow	-10.5383
▁photograph	-10.5383
▁obviously	-10.5383
▁collective	-10.5385
▁bell	-10.5385
▁operational	-10.5388
ought	-10.5395
▁integrity	-10.5401
▁survive	-10.5401
▁george	-10.5401
▁legend	-10.5402
▁insurer	-10.5403
yl	-10.5404
▁sixty	-10.5409
▁gita	-10.5413
▁notified	-10.5414
chal	-10.5433
▁insist	-10.5435
▁communist	-10.5438
▁urgent	-10.5439
▁lift	-10.5441
▁converted	-10.5442
▁geo	-10.5447
▁shell	-10.545
▁collector	-10.545
▁baba	-10.5451
▁pest	-10.5452
▁greatly	-10.5452
▁ag	-10.5456
▁somebody	-10.5457
▁fig	-10.546
▁surrounding	-10.5464
▁fold	-10.5468
▁arabic	-10.5473
▁contributed	-10.5474
▁custody	-10.5476
▁meta	-10.5476
▁monthly	-10.5477
▁deceased	-10.5479
▁ipc	-10.5479
▁realised	-10.549
▁www	-10.5494
▁rever	-10.5496
▁forced	-10.5505
▁transportation	-10.5508
▁nit	-10.5512
▁indira	-10.5517
▁owned	-10.5517
▁putting	-10.5526
▁primarily	-10.5532
nate	-10.5534
▁sim	-10.5538
▁residence	-10.5543
▁geographical	-10.5546
late	-10.5551
▁pieces	-10.5552
▁servant	-10.5553
▁newspapers	-10.5553
▁specifically	-10.5556
▁plot	-10.5557
▁heads	-10.5559
len	-10.5565
▁nobody	-10.557
▁applies	-10.557
▁planned	-10.5573
win	-10.5576
▁characteristic	-10.5576
▁mm	-10.5577
▁savings	-10.5577
१२	-10.5582
▁financing	-10.5589
▁adverse	-10.5589
▁smart	-10.559
▁jobs	-10.56
▁brothers	-10.5601
▁church	-10.5608
▁predict	-10.5608
▁gha	-10.5611
▁influenced	-10.5616
▁desktop	-10.5627
▁sensitive	-10.5627
▁disaster	-10.5627
▁suicide	-10.5628
vat	-10.5628
dir	-10.5629
hai	-10.5631
▁closely	-10.5631
▁games	-10.5635
▁learnt	-10.5637
▁vol	-10.5639
▁implementing	-10.5646
▁electronics	-10.565
▁publish	-10.565
bir	-10.5665
▁beings	-10.5666
▁subsequently	-10.5669
▁warning	-10.5672
▁partial	-10.5675
▁examined	-10.5678
▁willing	-10.5681
net	-10.5682
▁stored	-10.5683
▁completion	-10.5684
▁configuration	-10.5684
▁decree	-10.5685
▁silent	-10.5686
▁desired	-10.5696
▁pond	-10.5696
▁combined	-10.5697
▁pictures	-10.5698
hir	-10.5699
ii	-10.5701
▁anniversary	-10.5703
anta	-10.5705
stan	-10.5716
saheb	-10.5723
tum	-10.5732
▁calling	-10.5732
▁enhanced	-10.5733
▁wave	-10.5735
▁asking	-10.5735
▁noble	-10.5737
▁enforce	-10.5739
▁marathi	-10.5742
▁expiry	-10.5742
▁premises	-10.5742
▁oriented	-10.5742
▁prospect	-10.5742
▁entity	-10.5743
▁equation	-10.5746
▁smt	-10.5748
▁translated	-10.5756
py	-10.5758
▁overseas	-10.5761
▁trace	-10.5765
▁bull	-10.5768
▁slowly	-10.5769
▁techniques	-10.577
▁fly	-10.5774
▁nest	-10.5778
▁kali	-10.5778
▁spell	-10.5783
try	-10.5787
▁novels	-10.579
▁emerge	-10.5797
▁shock	-10.5801
▁vehicles	-10.5803
▁keen	-10.5812
uti	-10.5822
ily	-10.5824
▁organic	-10.583
▁commodities	-10.5838
▁discretion	-10.5838
▁twice	-10.5838
▁brown	-10.5839
▁depict	-10.5839
vil	-10.5841
▁browser	-10.5842
▁gui	-10.5842
▁resolve	-10.5847
▁miss	-10.5847
▁wages	-10.5848
▁var	-10.5853
▁therein	-10.5857
▁admission	-10.5858
▁caught	-10.5861
ode	-10.5869
▁statements	-10.587
▁burning	-10.5873
▁terror	-10.5875
▁outcome	-10.5878
▁treaty	-10.5879
kash	-10.5879
▁advocates	-10.5882
▁mur	-10.5882
una	-10.5888
▁alive	-10.5892
▁attended	-10.5894
▁identification	-10.5897
▁routine	-10.5897
▁bud	-10.5904
▁bin	-10.5906
▁opposed	-10.5906
▁objection	-10.591
▁ties	-10.5915
▁perspective	-10.5916
▁peasant	-10.5916
list	-10.5918
▁spoken	-10.5922
kal	-10.5923
▁din	-10.5926
▁tal	-10.5926
▁discovered	-10.5926
▁sculpture	-10.5936
▁binding	-10.5942
▁shut	-10.5945
▁thin	-10.5945
▁farming	-10.5948
zy	-10.5953
▁genuine	-10.5956
▁mahabharata	-10.5957
▁oral	-10.5959
▁selling	-10.5959
▁totally	-10.5959
▁hum	-10.5966
▁auditor	-10.5968
oi	-10.5968
ress	-10.5975
▁vimana	-10.5975
▁worse	-10.5976
▁charter	-10.5981
▁pig	-10.5982
▁supposed	-10.5984
▁nir	-10.5985
ific	-10.5987
▁punjabi	-10.5991
▁differ	-10.5991
▁equivalent	-10.5995
▁imagination	-10.5995
▁healthcare	-10.5995
▁recording	-10.5995
▁obama	-10.5996
▁stuff	-10.5998
▁mix	-10.6
anda	-10.6005
▁eating	-10.6006
jo	-10.6008
▁arranged	-10.6009
▁poison	-10.6012
▁majesty	-10.6015
wat	-10.6016
▁copies	-10.6016
lessness	-10.6028
▁inspiration	-10.6035
▁muhammad	-10.6035
▁sequence	-10.6035
▁ultimate	-10.6035
▁assess	-10.6039
hak	-10.6046
▁eu	-10.6047
▁listed	-10.6054
▁replied	-10.6054
▁organisms	-10.6061
▁tract	-10.6064
▁sites	-10.6065
▁surround	-10.6067
▁bonds	-10.6072
▁resistance	-10.6076
▁contrast	-10.6077
book	-10.6077
▁saving	-10.6088
▁agro	-10.6089
▁competitive	-10.609
▁dialogue	-10.6094
▁mailing	-10.6103
▁grain	-10.6103
▁saha	-10.6106
▁rendered	-10.6115
▁organism	-10.6117
▁lover	-10.612
▁bang	-10.6121
▁aside	-10.6122
tat	-10.6124
▁clothes	-10.613
▁decline	-10.6132
▁impose	-10.6133
▁worker	-10.6133
▁surrender	-10.6134
▁margin	-10.6135
▁emerged	-10.6138
▁lawyers	-10.6141
▁towns	-10.6149
▁revision	-10.6154
▁couldn	-10.6163
▁framed	-10.6163
▁ended	-10.6164
▁scar	-10.6167
▁mahal	-10.6168
▁durga	-10.6175
▁kin	-10.6177
ets	-10.6182
▁crown	-10.6187
▁shoot	-10.6192
▁ict	-10.6193
▁inflammation	-10.6194
nna	-10.6197
▁wings	-10.6197
▁corresponding	-10.6202
▁acre	-10.6209
▁classical	-10.6213
▁compulsory	-10.6215
▁discrimination	-10.6215
▁suspect	-10.6215
iff	-10.6229
▁rao	-10.623
▁communications	-10.6232
▁rev	-10.6233
▁lease	-10.6234
▁integration	-10.6235
▁stretch	-10.6235
▁printing	-10.6237
▁realize	-10.6237
▁stem	-10.6242
▁plain	-10.6247
▁regularly	-10.6255
▁mud	-10.6256
▁sons	-10.6266
▁everywhere	-10.6275
▁hundreds	-10.6289
▁lecture	-10.6292
pura	-10.6295
▁eventually	-10.6296
▁magazine	-10.6296
▁filter	-10.6296
▁trip	-10.6297
▁summit	-10.6299
▁elder	-10.6299
▁constructed	-10.6301
▁programs	-10.6307
cho	-10.6307
▁reject	-10.6309
dam	-10.6309
▁declare	-10.6312
▁mechanical	-10.6316
oa	-10.632
▁shot	-10.6323
▁grievances	-10.6328
▁earned	-10.6333
▁assume	-10.6334
▁celebrations	-10.6336
▁stations	-10.6339
▁arts	-10.6343
▁rapidly	-10.6344
▁recover	-10.6345
▁adjust	-10.6348
▁replace	-10.6349
▁expand	-10.6351
ena	-10.6352
jit	-10.6353
▁feeding	-10.6355
▁achieving	-10.6357
▁aggregate	-10.6357
▁outlook	-10.6357
▁petroleum	-10.6357
▁vajpayee	-10.6357
▁soviet	-10.6357
▁retirement	-10.6358
▁silence	-10.6358
▁infant	-10.6359
▁radiation	-10.6362
▁entrepreneurs	-10.6368
▁defend	-10.6368
▁succession	-10.6376
▁computers	-10.638
bol	-10.6382
▁historic	-10.6386
▁addressing	-10.6386
▁constantly	-10.6389
▁ends	-10.6393
▁haryana	-10.6398
▁colonial	-10.6399
lal	-10.6399
▁compos	-10.6401
▁plead	-10.6402
▁ruled	-10.6405
▁mel	-10.641
▁turning	-10.6416
▁marry	-10.6426
pala	-10.6428
▁pool	-10.6428
▁spec	-10.6431
ku	-10.6432
▁structures	-10.6433
▁tremendous	-10.6439
riya	-10.644
▁concerning	-10.6443
▁calculated	-10.6445
▁bharati	-10.6445
▁formulation	-10.6446
▁lakhs	-10.6452
▁assured	-10.6453
▁sending	-10.6457
▁displayed	-10.6462
▁cheap	-10.6464
▁del	-10.6467
▁pulse	-10.6468
▁tooth	-10.6469
▁amounts	-10.6469
▁nic	-10.647
pot	-10.6474
▁frequently	-10.6474
▁deva	-10.6475
▁za	-10.6479
▁innocent	-10.648
▁mit	-10.6481
▁smile	-10.6486
▁score	-10.6491
▁delegation	-10.6501
▁hidden	-10.6501
▁contents	-10.6506
▁pet	-10.6507
▁indicated	-10.6509
tam	-10.6521
▁deity	-10.6522
▁enquiry	-10.6522
▁satisfy	-10.6522
▁gen	-10.6523
▁canada	-10.6523
▁governing	-10.6529
▁returns	-10.6531
ksh	-10.6533
▁roots	-10.6536
▁commenc	-10.654
▁entrusted	-10.6543
▁summary	-10.6544
▁organs	-10.6548
▁electrical	-10.6548
▁cm	-10.6552
▁pul	-10.6556
▁replaced	-10.6557
▁highlight	-10.6558
▁disable	-10.6558
▁ticket	-10.6564
▁pledge	-10.6564
▁complain	-10.6565
▁exclusive	-10.6566
▁excessive	-10.6567
▁busy	-10.657
▁lung	-10.6574
▁payments	-10.658
▁appreciate	-10.6582
▁everybody	-10.6585
long	-10.6585
bus	-10.6586
▁pump	-10.6586
▁rush	-10.6593
▁agreements	-10.6593
▁acquire	-10.6603
▁farmer	-10.6605
▁obligations	-10.6613
rian	-10.6617
▁habit	-10.662
▁chest	-10.6621
▁experiences	-10.6621
▁ideals	-10.6622
board	-10.6628
▁usage	-10.663
▁tasks	-10.6631
▁bread	-10.6633
▁cp	-10.6633
▁membership	-10.6633
१३	-10.664
▁apple	-10.6641
flow	-10.6644
▁rehabilitation	-10.6648
▁myth	-10.666
▁moreover	-10.666
▁covers	-10.6662
▁exceeding	-10.6666
▁refund	-10.6669
▁sucharita	-10.6669
▁bay	-10.6669
▁seminar	-10.667
▁split	-10.667
▁cutting	-10.6674
▁clock	-10.6675
right	-10.6684
cil	-10.6685
▁worry	-10.669
▁artist	-10.6691
▁scholarship	-10.6691
▁withdrawal	-10.6698
▁levi	-10.6698
uz	-10.67
▁virus	-10.67
▁tail	-10.6701
▁mir	-10.6702
▁electric	-10.6702
▁observe	-10.6705
▁pregnancy	-10.6711
dhan	-10.6713
▁mol	-10.6724
emia	-10.6725
▁requested	-10.6726
▁pursue	-10.673
▁beneficial	-10.6732
▁allocation	-10.6732
▁genus	-10.6736
▁judgement	-10.6736
▁laugh	-10.6737
lit	-10.6743
▁sustained	-10.6747
▁chennai	-10.6754
▁decimal	-10.6754
▁disciple	-10.6754
lc	-10.6754
▁repeated	-10.6755
▁dharma	-10.6755
▁provider	-10.6756
path	-10.6758
▁brave	-10.6768
▁duly	-10.6772
rav	-10.6775
▁serving	-10.6775
▁batsman	-10.6775
▁undergo	-10.6778
▁violation	-10.6782
▁ending	-10.6785
▁protected	-10.6791
▁render	-10.6791
▁crucial	-10.6796
art	-10.6798
▁axis	-10.6802
▁ac	-10.6807
▁tele	-10.681
has	-10.6811
▁breach	-10.6814
▁models	-10.6817
▁elaborate	-10.6818
▁reducing	-10.6818
▁driving	-10.6818
▁alter	-10.682
▁exploitation	-10.6821
▁arrive	-10.6831
▁lion	-10.6834
▁stars	-10.6837
▁alien	-10.6839
▁jewish	-10.6839
▁varieties	-10.6839
▁overcome	-10.6839
▁intense	-10.684
▁residential	-10.6841
lm	-10.6843
▁drum	-10.6853
had	-10.6855
but	-10.6855
cast	-10.6856
▁earliest	-10.6861
▁sheep	-10.6862
▁kama	-10.6862
▁modified	-10.6864
▁stability	-10.6866
ivity	-10.687
▁bis	-10.6877
▁sciences	-10.6878
▁pace	-10.6879
▁destroyed	-10.688
▁width	-10.6882
▁norms	-10.6886
▁adoption	-10.6891
▁channels	-10.6902
▁ignorance	-10.6904
▁variable	-10.6904
▁sang	-10.6904
▁falling	-10.6905
▁readers	-10.691
▁narrat	-10.6911
▁charm	-10.6916
▁executed	-10.6917
▁rbi	-10.6917
▁fate	-10.6922
dasa	-10.6923
▁entrance	-10.6925
▁tribute	-10.6925
▁alleged	-10.6926
eshwar	-10.693
▁necessarily	-10.6932
▁weakness	-10.6935
gram	-10.6935
▁unfortunately	-10.6937
▁situations	-10.6938
dom	-10.6944
▁incorporated	-10.6947
▁abdul	-10.6947
▁rag	-10.695
▁dal	-10.6957
▁miles	-10.696
▁camel	-10.6963
▁sati	-10.6966
▁gall	-10.6967
ira	-10.6967
▁bangalore	-10.6969
▁statistics	-10.6969
▁federation	-10.6969
▁neglect	-10.6969
▁programming	-10.6969
▁premium	-10.697
▁functional	-10.6971
▁formula	-10.6971
▁generations	-10.6982
▁kings	-10.6983
▁chromosome	-10.6991
▁sheikh	-10.6991
▁deserve	-10.6991
▁arbitrator	-10.6991
▁monetar	-10.6991
▁varied	-10.6992
▁digest	-10.6993
well	-10.6995
▁helping	-10.6995
▁lying	-10.6996
▁evolved	-10.7004
▁insert	-10.7007
raja	-10.7008
▁mine	-10.7012
▁marginal	-10.7012
▁thread	-10.7013
▁bare	-10.7013
▁retired	-10.7019
▁luck	-10.7022
▁consequence	-10.7023
▁smooth	-10.7034
▁hardware	-10.7035
▁disability	-10.7041
▁marine	-10.7041
▁brahmin	-10.7046
▁sphere	-10.7047
▁allahabad	-10.7056
▁continuing	-10.7056
▁merchant	-10.7056
▁calm	-10.7058
▁shoulder	-10.7062
rus	-10.7065
▁denied	-10.7078
▁emb	-10.7082
▁iranian	-10.7083
▁interim	-10.7091
▁nationalist	-10.7095
lia	-10.71
mba	-10.7101
▁realisation	-10.7106
tala	-10.7109
dem	-10.7119
▁refuse	-10.7122
▁liberation	-10.7125
▁degrees	-10.7127
▁generated	-10.7128
law	-10.7137
▁cu	-10.7143
▁afraid	-10.7144
▁washington	-10.7144
▁mosque	-10.7145
▁por	-10.715
wit	-10.7162
▁initially	-10.7162
▁lib	-10.7163
▁academy	-10.7167
▁references	-10.7167
▁musical	-10.7168
▁arises	-10.7168
▁doctors	-10.7182
▁travell	-10.7186
pc	-10.7186
▁acute	-10.719
▁performing	-10.7198
▁exhibition	-10.7201
giri	-10.7208
▁extraordinary	-10.7211
▁upgrade	-10.7211
▁honor	-10.7225
▁enormous	-10.7233
▁profound	-10.7234
▁subsidy	-10.724
▁digit	-10.7246
▁innovations	-10.7246
▁bearing	-10.7247
nar	-10.7248
▁veda	-10.7249
▁deduct	-10.7253
▁hydro	-10.7255
▁attribute	-10.7255
▁decrease	-10.7256
▁dynasty	-10.7256
▁enabling	-10.7256
▁injured	-10.7256
▁torture	-10.7256
▁empowerment	-10.7259
▁sap	-10.726
▁gran	-10.7262
▁knowing	-10.7264
je	-10.7265
sar	-10.7266
▁homes	-10.7267
▁remedy	-10.7278
▁repeat	-10.728
▁interval	-10.7282
▁tap	-10.7282
can	-10.7286
▁convocation	-10.7301
▁preferred	-10.7302
▁recruitment	-10.7303
▁describe	-10.7305
▁african	-10.7307
▁devoted	-10.7308
▁resist	-10.7315
uring	-10.7316
▁bahadur	-10.7323
▁inherent	-10.7323
▁managing	-10.7323
▁bigger	-10.7326
bhai	-10.7328
khar	-10.7337
▁fur	-10.7342
▁characteristics	-10.7343
▁logic	-10.7344
▁tape	-10.7344
▁succeeded	-10.7345
▁biggest	-10.7346
lock	-10.7347
▁boot	-10.7349
▁imports	-10.735
▁gene	-10.7352
ambi	-10.736
▁attempts	-10.7361
▁william	-10.7369
▁carries	-10.7372
▁instant	-10.7374
▁attracted	-10.7376
aimed	-10.7377
anga	-10.738
▁....	-10.7382
▁borrower	-10.7382
▁ordered	-10.7389
▁compliance	-10.7391
▁interview	-10.7391
▁operator	-10.7391
▁japanese	-10.7392
▁ownership	-10.7393
lon	-10.7393
▁younger	-10.7395
tting	-10.7396
house	-10.7407
ux	-10.7415
▁precious	-10.7417
udi	-10.742
▁furnished	-10.742
▁mood	-10.7421
▁restrictions	-10.7422
▁jack	-10.7423
being	-10.7426
▁nanak	-10.743
ole	-10.7433
▁secular	-10.7436
▁revised	-10.7438
▁honest	-10.7441
▁rail	-10.7446
▁bitter	-10.7447
▁fri	-10.7449
▁politician	-10.7459
▁shadow	-10.7459
▁vertical	-10.746
▁camera	-10.7462
▁reverse	-10.7463
▁sanctioned	-10.7467
▁usa	-10.747
▁lab	-10.7478
▁substituted	-10.7479
▁perception	-10.7482
▁closer	-10.7484
▁imported	-10.7486
▁apparent	-10.7488
▁conventional	-10.749
▁vedas	-10.7493
nga	-10.7502
▁wildlife	-10.7505
▁prophet	-10.7505
▁appendix	-10.7506
▁bhu	-10.7507
link	-10.7509
▁engagement	-10.751
▁mineral	-10.751
▁noticed	-10.7513
▁newly	-10.7516
▁kir	-10.7518
lot	-10.752
▁pm	-10.7521
▁handling	-10.7522
▁alcohol	-10.7528
▁disabilities	-10.7528
▁practitioner	-10.7528
▁module	-10.7528
▁advisory	-10.7532
▁reward	-10.7536
app	-10.7537
▁nose	-10.7547
▁supplement	-10.7549
▁easier	-10.7551
▁plastic	-10.7551
▁surgery	-10.7551
▁fabric	-10.7551
▁himalayas	-10.7553
▁verma	-10.7555
▁nam	-10.7556
vya	-10.7558
▁grants	-10.7564
▁yu	-10.7573
▁breeding	-10.7574
▁telugu	-10.7574
script	-10.7578
▁contacts	-10.7581
▁darkness	-10.7586
▁relatives	-10.7586
pad	-10.7587
▁servants	-10.7595
▁belongs	-10.7596
▁walking	-10.7597
▁divorce	-10.7598
▁climb	-10.7598
▁shelter	-10.7598
▁representing	-10.76
▁inspector	-10.7603
▁governed	-10.7603
▁massive	-10.7606
▁horn	-10.7608
▁establishing	-10.7615
▁colleges	-10.762
▁resembl	-10.7621
▁strongly	-10.7621
▁intimate	-10.7621
▁bro	-10.7622
▁punishable	-10.7624
▁gang	-10.7625
his	-10.763
▁nath	-10.7631
▁conversation	-10.7644
▁fraction	-10.7644
▁iit	-10.765
▁fairly	-10.7655
▁pillars	-10.7658
▁preach	-10.7659
▁kur	-10.7662
▁preserve	-10.7665
▁mou	-10.7666
▁anywhere	-10.7667
▁appreciation	-10.7667
▁preliminary	-10.7667
▁exercised	-10.7671
▁tourists	-10.7675
▁villagers	-10.7677
▁adjustment	-10.7678
▁twin	-10.768
ges	-10.7685
▁adding	-10.7686
▁tin	-10.769
▁reservation	-10.7691
print	-10.7692
▁convicted	-10.7694
▁bug	-10.7695
▁tribunals	-10.7707
▁entertain	-10.7711
chandra	-10.7713
▁netaji	-10.7714
▁confront	-10.7714
▁priest	-10.7714
▁manipur	-10.7715
▁acceptable	-10.7717
▁spin	-10.7734
▁nervous	-10.7738
▁bhutan	-10.7739
▁moderate	-10.7741
▁enactment	-10.7742
▁associate	-10.7748
ui	-10.7753
▁bhai	-10.7756
▁greek	-10.7761
▁pretty	-10.7761
▁fir	-10.7762
▁gathered	-10.7766
wad	-10.7768
▁magnetic	-10.7773
▁indra	-10.7773
▁accounting	-10.7775
ean	-10.778
mark	-10.778
▁regards	-10.7783
▁signature	-10.7785
▁stomach	-10.7785
▁regulate	-10.7785
▁ornament	-10.7786
▁slope	-10.7787
▁settle	-10.7788
ht	-10.7789
pan	-10.7791
▁medal	-10.7792
▁increasingly	-10.7798
▁commit	-10.7806
▁necessity	-10.7808
▁minority	-10.7818
cher	-10.7818
▁chemicals	-10.782
▁prosecutor	-10.7821
▁impress	-10.7825
▁mould	-10.7833
▁kabir	-10.7835
▁agenda	-10.7836
▁gained	-10.7836
▁experienced	-10.7837
▁comput	-10.7838
▁mp	-10.784
▁encouraging	-10.7856
▁provincial	-10.7856
▁surprise	-10.7856
▁designated	-10.7865
cb	-10.7875
▁exclud	-10.7877
ule	-10.7879
▁commodity	-10.788
▁turk	-10.788
▁portal	-10.7884
▁allied	-10.7885
▁brand	-10.7885
▁reserved	-10.79
▁rhythm	-10.7903
▁sahib	-10.7904
▁holiday	-10.7904
▁repost	-10.7904
▁careful	-10.7905
fall	-10.7914
rh	-10.7916
▁sym	-10.7921
▁genius	-10.7927
▁mankind	-10.7927
operative	-10.793
gs	-10.794
▁engage	-10.7947
vari	-10.7948
▁topic	-10.7951
▁ordinance	-10.7951
▁somewhat	-10.7951
▁preparing	-10.7951
▁distress	-10.7952
▁pap	-10.7952
▁enables	-10.7953
▁winning	-10.7953
▁apex	-10.7954
▁originally	-10.7957
▁sindhi	-10.7958
▁seriously	-10.7961
pin	-10.7962
▁pune	-10.7963
▁visiting	-10.7965
▁earn	-10.7971
▁drain	-10.7976
▁wider	-10.7976
▁evaluation	-10.7977
▁swaraj	-10.7977
▁addresses	-10.7978
▁harmful	-10.798
▁padma	-10.798
▁inputs	-10.798
▁pour	-10.7981
▁bowl	-10.7985
▁partly	-10.7985
gl	-10.7991
ache	-10.7993
anti	-10.7994
▁metres	-10.7997
▁landlord	-10.7999
▁litigant	-10.7999
▁registrar	-10.7999
▁pioneer	-10.8
▁definite	-10.8005
▁faster	-10.8008
▁canal	-10.8013
▁accumulat	-10.8015
gm	-10.8019
▁fan	-10.8027
▁shankar	-10.8029
mukh	-10.8031
▁dictionary	-10.8049
▁concentration	-10.8049
▁ruin	-10.8056
term	-10.8058
▁pleased	-10.806
rava	-10.806
haran	-10.8068
▁fails	-10.807
▁oxygen	-10.8072
▁treasure	-10.8072
▁recit	-10.8074
१४	-10.8074
▁empower	-10.8074
▁adults	-10.808
▁indicates	-10.8081
fc	-10.8084
▁enjoyed	-10.8085
▁anger	-10.8092
▁revealed	-10.8093
▁mamm	-10.8094
▁arrow	-10.8098
▁tall	-10.8099
▁plugin	-10.8099
nn	-10.8105
▁linguistic	-10.8121
▁membrane	-10.8121
▁assumed	-10.8124
▁ganges	-10.8131
▁exact	-10.8131
▁funding	-10.8137
▁vii	-10.8139
jee	-10.814
▁publications	-10.8141
▁excise	-10.8145
▁mandatory	-10.8145
▁invite	-10.8148
▁paul	-10.815
▁seventh	-10.8156
▁fulfill	-10.8161
▁tells	-10.8164
oda	-10.8166
▁indus	-10.8167
ret	-10.8167
▁cadre	-10.817
▁mun	-10.817
▁summon	-10.8175
zar	-10.8182
▁missing	-10.8183
ella	-10.8192
▁assurance	-10.8194
▁fashion	-10.8194
▁quran	-10.8196
▁stones	-10.8199
▁risks	-10.82
▁dreams	-10.82
▁grievance	-10.8205
tia	-10.8207
▁borrow	-10.8207
▁reflected	-10.8216
▁sharma	-10.822
▁smoke	-10.822
▁pursuit	-10.8223
▁simultaneously	-10.8225
▁bor	-10.8225
▁kala	-10.8227
chy	-10.823
▁entering	-10.823
▁abstract	-10.8244
▁lahore	-10.8244
▁serial	-10.8245
▁introduce	-10.8245
▁jump	-10.8246
▁frontier	-10.8246
▁arrival	-10.8247
▁approximately	-10.825
▁answers	-10.8252
rp	-10.8262
▁discovery	-10.8262
icide	-10.8263
▁russian	-10.8264
▁idol	-10.8268
▁memorial	-10.8268
▁mortgage	-10.8268
▁secretariat	-10.8268
▁inaugurate	-10.8269
▁omitted	-10.8269
▁knee	-10.827
▁remembered	-10.8273
▁vary	-10.8279
▁hal	-10.829
▁lotus	-10.8292
▁badruddin	-10.8293
▁communicate	-10.8293
▁complicated	-10.8293
▁admire	-10.8295
▁pose	-10.8296
▁participants	-10.83
inous	-10.8306
▁guy	-10.8309
▁speedy	-10.831
▁confer	-10.8316
▁hole	-10.8318
▁guess	-10.8319
▁imperialism	-10.832
▁fought	-10.8322
▁mystic	-10.8323
ock	-10.8324
▁vested	-10.8326
wr	-10.8328
▁macro	-10.8331
▁pad	-10.8335
▁faces	-10.8337
▁sq	-10.8338
▁livelihood	-10.8343
▁lyric	-10.8345
▁rani	-10.8353
ordinat	-10.8355
▁candidate	-10.8356
lf	-10.8357
▁stable	-10.8364
▁stayed	-10.8364
▁accommodation	-10.8368
▁essence	-10.8368
▁tolerance	-10.8368
▁agents	-10.8373
ref	-10.8381
▁describes	-10.8383
resident	-10.8389
yu	-10.8393
▁elsewhere	-10.8393
▁stakeholders	-10.8393
▁nominated	-10.8393
▁nodes	-10.8394
▁angle	-10.8399
▁jai	-10.8403
mati	-10.8404
▁resid	-10.8407
▁comfort	-10.8413
▁meanwhile	-10.8419
▁assignment	-10.8424
▁subtract	-10.8424
aga	-10.8426
▁quit	-10.8434
▁vas	-10.8434
▁empowered	-10.8439
▁comprising	-10.8443
▁mirror	-10.8443
▁entries	-10.8444
▁driven	-10.8444
vali	-10.8445
▁sho	-10.8451
▁aspirations	-10.8453
▁sail	-10.846
▁tag	-10.8471
▁firmly	-10.8486
▁compare	-10.8491
▁chancellor	-10.8494
▁transparency	-10.8494
▁retail	-10.8494
▁expanded	-10.8498
▁withdraw	-10.85
▁tension	-10.8503
▁directorate	-10.8506
▁sil	-10.8507
▁personally	-10.8514
▁observation	-10.8514
▁players	-10.8525
▁lawyer	-10.8537
▁mini	-10.8544
▁intellect	-10.8544
amma	-10.8547
▁bihari	-10.8554
▁andaman	-10.8556
▁flying	-10.8557
▁purana	-10.8567
▁begun	-10.8571
▁fed	-10.8571
▁gujarati	-10.8572
▁supra	-10.8573
▁logical	-10.8573
▁finished	-10.8578
▁gro	-10.8579
▁contracts	-10.8589
een	-10.8592
▁dac	-10.8593
▁increases	-10.8594
▁tiru	-10.8596
▁compliment	-10.8596
▁emission	-10.8596
▁enrich	-10.8596
▁barrier	-10.8596
▁robot	-10.8597
▁taj	-10.8598
▁vessels	-10.8603
▁mining	-10.8606
▁loved	-10.8608
▁terrorists	-10.8612
▁cure	-10.8618
▁employ	-10.8621
▁inclusion	-10.8622
▁slightly	-10.8622
▁mixture	-10.8622
place	-10.8624
▁produces	-10.8632
▁patel	-10.8634
▁rein	-10.8643
▁bamboo	-10.8647
▁leaflet	-10.8648
▁drought	-10.865
▁bhagat	-10.8655
▁turns	-10.8656
▁sake	-10.8656
▁observations	-10.8656
▁trap	-10.8657
asa	-10.8666
▁relates	-10.8668
▁arbitra	-10.8669
▁instituted	-10.867
▁certification	-10.8673
▁compromise	-10.8673
▁embrace	-10.8673
▁enhancing	-10.8673
▁troops	-10.8673
▁beloved	-10.8673
▁fibre	-10.8673
▁laboratory	-10.8673
▁networks	-10.8673
▁exchanges	-10.8676
▁sind	-10.8678
▁productive	-10.8688
▁systematic	-10.8689
▁islamists	-10.8691
nat	-10.8695
▁destiny	-10.8699
▁doctrine	-10.8699
▁qualified	-10.8699
▁sympathy	-10.8699
▁copyright	-10.87
▁prevail	-10.8704
▁moh	-10.8705
▁plea	-10.8709
kul	-10.8717
vati	-10.8721
ibility	-10.8724
▁electoral	-10.8725
▁workshop	-10.8725
▁chronic	-10.8725
▁discount	-10.8726
▁glory	-10.8726
▁expertise	-10.8727
▁preceding	-10.8728
tem	-10.8728
uj	-10.8729
▁singing	-10.8732
▁jews	-10.8751
▁sustain	-10.8753
▁aids	-10.8753
▁headed	-10.8754
▁detect	-10.8755
▁relatively	-10.8755
▁mouse	-10.8758
▁convinced	-10.8761
blast	-10.8761
▁actively	-10.8761
▁peoples	-10.8762
read	-10.8764
▁wire	-10.8768
▁broke	-10.8769
▁intelligent	-10.8777
▁honey	-10.8779
▁ignore	-10.878
▁strip	-10.8781
▁separately	-10.8784
patri	-10.8785
▁judgments	-10.8794
▁edition	-10.8796
▁kun	-10.8796
▁coffee	-10.8803
fold	-10.8803
satisfactory	-10.8803
▁involvement	-10.8806
▁advise	-10.8811
▁jute	-10.8814
muk	-10.8816
▁cum	-10.8821
▁coin	-10.8826
▁arguments	-10.8828
▁behavior	-10.8829
▁crude	-10.8829
▁alliance	-10.8829
▁strain	-10.8829
▁conducting	-10.8833
▁interpret	-10.8833
osa	-10.8839
▁bho	-10.8839
▁occupied	-10.884
kot	-10.8854
▁peculiar	-10.8855
▁pocket	-10.8855
▁supplied	-10.8855
▁pitch	-10.8866
▁mandate	-10.8867
▁kam	-10.8868
hila	-10.8869
▁nurse	-10.888
▁tendency	-10.8883
fulness	-10.8883
▁determining	-10.8883
▁memo	-10.8884
more	-10.8887
▁himalayan	-10.8888
▁quoted	-10.8892
▁absolutely	-10.8901
▁experiments	-10.8901
▁lending	-10.8902
▁balanced	-10.8907
▁monument	-10.8908
▁struck	-10.8909
▁rendering	-10.8913
▁restore	-10.8916
▁breaking	-10.8918
▁hub	-10.8918
▁taxation	-10.8919
▁exhibit	-10.8921
▁aged	-10.8924
▁sac	-10.8929
avan	-10.893
▁descend	-10.8934
disciplinary	-10.8935
▁dispens	-10.8935
▁immovable	-10.8935
▁biological	-10.8937
▁nearby	-10.8937
▁propose	-10.8939
▁attractive	-10.8939
▁wake	-10.894
▁gathering	-10.8942
onia	-10.8942
▁bears	-10.8942
▁implie	-10.8947
▁quote	-10.8956
▁valuation	-10.8961
▁rub	-10.897
▁tight	-10.8976
▁wonderful	-10.8982
▁lend	-10.8982
▁negotiat	-10.8987
▁separation	-10.8988
▁dairy	-10.8988
▁inspire	-10.8991
▁mul	-10.8992
▁telling	-10.9014
▁lucknow	-10.9014
▁contemplat	-10.9014
▁monsoon	-10.9014
▁recognise	-10.9016
▁ipv	-10.9018
▁slip	-10.9022
▁incidents	-10.9023
▁substances	-10.9035
▁machines	-10.9037
▁indication	-10.9046
▁plains	-10.9047
nya	-10.9048
▁elect	-10.905
▁khadi	-10.9055
▁texts	-10.9056
▁mega	-10.9057
▁consolidated	-10.9061
▁repealed	-10.9066
▁kidney	-10.9068
▁phenomenon	-10.9068
▁psychological	-10.9068
▁delegate	-10.9068
▁plural	-10.9068
▁grammar	-10.9069
▁manpower	-10.9071
▁drag	-10.9073
▁flash	-10.9074
▁analog	-10.9086
▁iso	-10.9088
▁merge	-10.9091
▁viceroy	-10.9095
▁revolt	-10.9095
▁romantic	-10.9096
▁involve	-10.9097
▁cord	-10.9098
▁particulars	-10.9106
position	-10.9109
bert	-10.9118
▁nevertheless	-10.9122
▁sultan	-10.9122
▁measurement	-10.9123
▁sixth	-10.9123
▁shipping	-10.9125
gil	-10.9131
▁strict	-10.9137
▁engineers	-10.9139
▁batch	-10.9145
▁ambassador	-10.9149
▁scenario	-10.9149
▁frank	-10.9149
▁storm	-10.915
ema	-10.9154
▁koran	-10.9154
▁incentives	-10.9154
state	-10.9159
▁restricted	-10.9161
▁tons	-10.9164
▁nut	-10.9169
▁sage	-10.9174
▁disclosure	-10.9176
▁utilised	-10.9176
▁reputation	-10.9176
▁inflation	-10.9176
▁paddy	-10.9177
▁motive	-10.9185
▁mango	-10.9185
craft	-10.9186
▁occasions	-10.9201
▁glacier	-10.9203
▁bulk	-10.9205
▁focused	-10.9205
▁posts	-10.9206
▁demonstration	-10.9207
▁temper	-10.9207
abhi	-10.9224
▁reserves	-10.9227
▁connecting	-10.9228
▁wicket	-10.923
▁surgical	-10.923
▁lymph	-10.923
▁philosophical	-10.9233
▁dawn	-10.9233
▁presents	-10.9233
▁coverage	-10.9237
▁eleven	-10.9251
▁cater	-10.9252
gged	-10.9252
ook	-10.9253
▁ignored	-10.9255
▁films	-10.9257
▁diabetes	-10.9258
▁enlarge	-10.9258
▁sanctuary	-10.9258
▁passport	-10.9259
wh	-10.9259
▁suits	-10.9259
▁samaj	-10.926
itude	-10.9266
▁basically	-10.9266
▁positions	-10.927
▁shore	-10.9273
▁developmental	-10.9281
▁inferior	-10.9285
▁affirm	-10.9285
▁ganesh	-10.9285
▁patna	-10.9286
▁acknowledge	-10.9289
apped	-10.9289
▁concluded	-10.9298
▁attorney	-10.9312
▁anybody	-10.9312
▁youtube	-10.9313
▁reign	-10.9314
hrew	-10.9317
▁insight	-10.9318
▁consequently	-10.9327
▁gardens	-10.9328
▁sets	-10.9331
▁coat	-10.9335
▁sport	-10.9338
otic	-10.9338
▁kat	-10.9339
▁sikkim	-10.934
▁pilot	-10.9342
▁pil	-10.9342
tract	-10.9343
desh	-10.9345
load	-10.9347
▁manifestation	-10.9347
▁curve	-10.9348
▁cult	-10.935
pass	-10.9351
fin	-10.9353
▁explore	-10.9355
▁patterns	-10.9355
▁crystal	-10.9368
uli	-10.9368
▁riot	-10.9369
cellular	-10.937
▁substitute	-10.9372
▁weapon	-10.9375
▁frequent	-10.9376
▁retained	-10.9382
▁tam	-10.9395
▁capabilities	-10.9395
▁incomplete	-10.9395
▁intensive	-10.9395
▁imperative	-10.9395
▁boost	-10.9396
▁distant	-10.9397
▁fond	-10.9399
▁headquarters	-10.9403
▁jaya	-10.9412
▁jag	-10.9413
▁shops	-10.942
▁roman	-10.9422
▁attraction	-10.9422
▁companion	-10.9423
▁supramental	-10.9423
▁fourteen	-10.9423
▁bliss	-10.9423
▁developments	-10.9426
eh	-10.9427
▁rupee	-10.9432
▁trustee	-10.9433
▁offline	-10.9433
▁handed	-10.9433
▁tune	-10.9434
▁deleted	-10.9445
▁oblig	-10.9446
▁exclusively	-10.9448
▁frequency	-10.9451
▁bones	-10.9455
▁feels	-10.9456
▁dollar	-10.946
ane	-10.9461
▁advances	-10.9461
▁dismiss	-10.9463
▁borne	-10.9467
rophy	-10.9468
dition	-10.9469
▁sufi	-10.9475
elecommunication	-10.9479
▁utility	-10.9479
▁vidya	-10.948
१५	-10.9494
▁remov	-10.9497
field	-10.9499
rama	-10.95
▁electro	-10.9504
▁skilled	-10.9507
ase	-10.9507
▁aurobindo	-10.9507
▁conquer	-10.9507
▁foster	-10.951
▁colleagues	-10.9515
▁penis	-10.9515
▁cub	-10.9518
▁nice	-10.952
▁prisoners	-10.9522
▁nationalism	-10.9523
▁reactor	-10.9523
▁attained	-10.9528
▁collecting	-10.9528
▁textiles	-10.9532
▁ayurveda	-10.9535
▁commonwealth	-10.9535
▁dwarkanath	-10.9535
▁thrust	-10.9535
▁random	-10.9536
▁captain	-10.9536
off	-10.9537
▁conception	-10.9541
oor	-10.9541
▁freely	-10.9543
entrepreneurship	-10.9546
▁awaken	-10.9547
▁disappear	-10.9547
▁rough	-10.9548
▁cooking	-10.955
▁indic	-10.9558
▁poultry	-10.9563
▁cinema	-10.9564
▁pacific	-10.9564
▁sync	-10.957
▁limitations	-10.9571
▁trick	-10.9577
▁responses	-10.958
▁shak	-10.9585
▁plantation	-10.9587
▁legitimate	-10.9591
▁seizure	-10.9591
▁offender	-10.9592
▁insult	-10.9592
▁separated	-10.9593
▁classification	-10.9594
▁chau	-10.9599
▁blame	-10.9603
▁puri	-10.9606
▁festivals	-10.9606
▁receipts	-10.9608
far	-10.9609
▁investor	-10.961
▁compell	-10.9611
▁christians	-10.9615
▁comparison	-10.962
▁viewed	-10.9621
▁exemption	-10.9628
▁realized	-10.9635
hand	-10.9643
▁pregnant	-10.9648
▁casual	-10.9648
▁cart	-10.9649
▁rainfall	-10.9649
▁factories	-10.9654
▁shiv	-10.9658
▁genes	-10.9659
▁enemies	-10.9677
▁possibly	-10.9677
▁dowry	-10.9677
▁rabindranath	-10.9677
▁voting	-10.9677
▁adventure	-10.9678
▁shade	-10.9678
▁indirect	-10.9686
▁illustrat	-10.9689
ware	-10.969
are	-10.9696
mind	-10.9699
▁americans	-10.97
phal	-10.9703
▁maid	-10.9704
▁ananda	-10.9705
▁gentle	-10.9705
▁earthquake	-10.9705
▁tobacco	-10.9705
▁indulg	-10.9705
▁auction	-10.9706
▁lone	-10.9711
▁ports	-10.9712
▁mall	-10.9713
▁clouds	-10.9718
▁coastal	-10.9724
▁buyer	-10.9725
▁attacked	-10.9726
▁beetle	-10.9735
▁gender	-10.9735
▁hyper	-10.9736
▁guardian	-10.9741
▁conclude	-10.9744
▁hunger	-10.9745
▁losses	-10.9746
▁nil	-10.9746
▁directive	-10.9752
▁cards	-10.9757
▁concrete	-10.9763
▁generating	-10.9763
▁specimen	-10.9763
▁pupil	-10.9763
▁presidency	-10.9763
▁alarm	-10.9764
▁flora	-10.9764
▁shakti	-10.9766
▁satya	-10.9772
▁grains	-10.9773
▁helpful	-10.9778
▁scientist	-10.9778
▁pie	-10.9782
▁arabs	-10.9782
▁fertilizers	-10.9782
type	-10.9783
▁inevitable	-10.9791
▁yojana	-10.9791
▁ceiling	-10.9791
▁hearts	-10.9791
▁jihad	-10.9792
▁sankara	-10.9795
▁elephants	-10.98
▁sounds	-10.9805
▁angel	-10.9811
ulu	-10.9818
▁hypo	-10.9818
ette	-10.9819
▁autonomous	-10.982
▁proxy	-10.982
▁periodical	-10.9822
▁streams	-10.9822
▁confirm	-10.983
▁laying	-10.9837
▁dollars	-10.984
▁controversy	-10.9849
▁malayalam	-10.9849
▁proclamation	-10.9849
▁radhakrishnan	-10.9849
▁configure	-10.9849
▁exit	-10.9851
jp	-10.9852
▁nutrition	-10.9852
▁avoided	-10.9855
▁oath	-10.9855
▁muscles	-10.9856
▁exceeds	-10.9861
▁void	-10.9861
▁hospitals	-10.9862
▁tiny	-10.987
titude	-10.9872
▁cop	-10.9874
space	-10.9876
▁persist	-10.9876
▁fra	-10.9876
▁enclos	-10.9878
▁desirable	-10.9878
▁powder	-10.9878
▁procedural	-10.9878
▁abdullah	-10.9879
▁eighteen	-10.9879
▁layout	-10.9881
▁transition	-10.9881
▁bought	-10.989
▁tests	-10.9893
wash	-10.9896
odi	-10.9907
▁economies	-10.9908
▁irrespective	-10.9908
▁transparent	-10.9908
▁anxious	-10.9908
▁interference	-10.9908
▁sorry	-10.9908
therapy	-10.9911
rin	-10.9912
▁dual	-10.9913
▁maj	-10.9915
▁seller	-10.9915
▁painting	-10.9915
▁shareholders	-10.9922
▁dismissed	-10.9924
▁shortage	-10.9928
▁eco	-10.993
▁ease	-10.993
▁masters	-10.993
gin	-10.9936
▁reflection	-10.9936
▁uncertain	-10.9937
▁abolition	-10.9937
▁buffalo	-10.9937
▁hatred	-10.9937
▁aryan	-10.9941
▁celebrate	-10.9943
▁sikhs	-10.995
▁hang	-10.9953
▁preference	-10.9957
▁lesser	-10.9963
dding	-10.9965
▁arunachal	-10.9966
▁liabilities	-10.9966
▁nicobar	-10.9966
▁dedication	-10.9966
▁interrupt	-10.9966
▁transmitted	-10.9968
▁pdf	-10.9975
▁publicity	-10.9976
▁outward	-10.9987
▁visitors	-10.9988
▁advancement	-10.9991
▁arabia	-10.9993
▁christ	-10.9995
▁criteria	-10.9995
▁intensity	-10.9995
▁vietnam	-10.9995
▁ip	-10.9996
▁contest	-11
pore	-11.0003
▁approaches	-11.0006
▁associations	-11.0019
uv	-11.002
▁tears	-11.002
▁ranking	-11.0023
▁upanishad	-11.0025
▁volunteer	-11.0025
▁transmit	-11.0025
▁accru	-11.0028
▁binary	-11.0029
▁debit	-11.0034
▁odd	-11.0037
▁mature	-11.0037
▁secur	-11.0049
▁exposure	-11.0055
▁palestine	-11.0055
▁nursing	-11.0055
▁crimes	-11.0056
▁shout	-11.0059
matic	-11.0063
yog	-11.0068
▁prisoner	-11.0073
▁violat	-11.0078
▁habits	-11.0081
▁respondents	-11.0083
▁medicinal	-11.0084
▁maturity	-11.0084
india	-11.0084
▁matches	-11.0085
▁tenth	-11.0086
▁minerals	-11.0088
▁restraint	-11.0093
▁harsh	-11.0098
▁secured	-11.0099
▁substantially	-11.0099
▁accountability	-11.0099
ital	-11.0099
ney	-11.01
▁indirectly	-11.0104
▁tissues	-11.0107
▁mines	-11.011
bound	-11.0112
▁brilliant	-11.0114
▁mohammed	-11.0114
▁vaccine	-11.0114
▁template	-11.0114
▁redressal	-11.012
▁strive	-11.012
▁conv	-11.0125
trop	-11.0133
▁seal	-11.0134
▁spreading	-11.0134
▁prevailing	-11.0138
▁humble	-11.0139
▁significantly	-11.014
▁naval	-11.0143
▁oldest	-11.0144
▁coconut	-11.0144
▁enthusiasm	-11.0144
▁neighbor	-11.0144
▁exposed	-11.0144
water	-11.0144
▁tibet	-11.0144
▁flourish	-11.0145
▁pilgrimage	-11.0145
▁homo	-11.0147
▁purity	-11.0148
▁deeper	-11.0148
▁eliminate	-11.0158
▁episode	-11.0174
▁sensation	-11.0174
▁blend	-11.0176
▁turkish	-11.0177
▁writes	-11.0177
▁prohibition	-11.0179
▁dutt	-11.0184
▁cement	-11.0186
▁panchayats	-11.0188
▁connections	-11.0189
▁vein	-11.0189
▁keeps	-11.0193
dp	-11.0198
▁menon	-11.0203
▁philosopher	-11.0204
▁toward	-11.0205
▁azad	-11.0208
▁amar	-11.021
▁capture	-11.0212
▁privileges	-11.0227
▁satyagraha	-11.0234
▁vexatious	-11.0234
▁steam	-11.0234
▁parasite	-11.0234
▁crush	-11.0238
▁accessible	-11.024
▁hate	-11.0242
▁liver	-11.0242
gni	-11.0242
▁yard	-11.0244
▁founder	-11.0245
▁governors	-11.0263
▁affidavit	-11.0264
▁handicraft	-11.0264
▁distinguish	-11.0265
▁token	-11.0273
▁ravi	-11.0277
▁navy	-11.0278
ayya	-11.0284
wise	-11.0286
▁describ	-11.0287
▁journalist	-11.0287
▁rating	-11.0288
▁allowing	-11.0289
▁legislatures	-11.0291
liness	-11.0292
▁horticulture	-11.0294
▁jordan	-11.0294
▁laboratories	-11.0294
▁census	-11.0294
▁smell	-11.0295
▁condolence	-11.0295
ort	-11.0295
▁permits	-11.0297
▁crack	-11.0298
old	-11.0303
▁grid	-11.0305
▁streets	-11.0305
▁restrict	-11.0307
▁cable	-11.0313
▁countrymen	-11.0314
reaching	-11.0315
▁tower	-11.0318
▁kit	-11.0318
▁airports	-11.0319
▁mw	-11.032
▁paris	-11.0322
▁condole	-11.0325
▁hamachi	-11.0325
▁persuade	-11.0325
▁reception	-11.0325
▁manilal	-11.0325
▁fortune	-11.0325
▁prevalent	-11.0327
▁inaugurated	-11.0329
▁suggests	-11.034
▁kr	-11.0344
▁exceptional	-11.0346
▁rash	-11.0349
▁crossing	-11.0354
▁coloured	-11.0354
▁fame	-11.0355
▁kids	-11.0358
kand	-11.0359
▁computation	-11.0361
▁previously	-11.0362
▁allegations	-11.0365
idal	-11.037
▁fulfilled	-11.0381
▁apparently	-11.0381
band	-11.0383
part	-11.0386
hang	-11.0386
▁mathematics	-11.0386
▁jungle	-11.0386
▁phrase	-11.0386
▁nodal	-11.0388
▁insured	-11.0388
▁proceeds	-11.0393
▁tied	-11.0396
▁deficiency	-11.0417
▁militant	-11.0417
▁tilak	-11.0417
▁complement	-11.0417
▁worldwide	-11.042
▁civilisation	-11.0427
▁fulfil	-11.043
lash	-11.0433
▁asutosh	-11.0435
mus	-11.0441
rity	-11.0446
▁expensive	-11.0447
▁structural	-11.0447
▁wikipedia	-11.0447
▁bhakti	-11.0447
▁fiscal	-11.0447
economic	-11.0448
▁rescue	-11.0448
▁favourite	-11.0451
▁rope	-11.0452
▁assessed	-11.0454
plication	-11.0455
▁studying	-11.046
maker	-11.0462
▁anyway	-11.0464
▁envisaged	-11.0467
▁medicines	-11.0473
▁buddhism	-11.0478
▁david	-11.0478
break	-11.048
▁doors	-11.0485
lated	-11.0486
▁rebel	-11.0488
▁challenged	-11.049
para	-11.0495
▁flows	-11.0497
▁strengthened	-11.0498
▁jubilee	-11.0509
▁monkey	-11.051
▁interfere	-11.051
▁sperm	-11.051
▁guided	-11.0515
▁nearest	-11.0526
▁login	-11.0528
got	-11.0529
▁producers	-11.0532
▁instruct	-11.0536
▁maxim	-11.054
▁altogether	-11.054
▁immortal	-11.054
▁supplies	-11.054
▁cavity	-11.054
▁reporting	-11.0544
▁considerably	-11.0545
▁drew	-11.055
mani	-11.0551
▁videos	-11.0556
▁answered	-11.0559
▁notion	-11.057
▁ahmed	-11.0571
▁debenture	-11.0571
▁perceive	-11.0571
▁carrier	-11.0572
▁sentiment	-11.0572
▁translate	-11.058
hala	-11.0581
▁passive	-11.0583
lice	-11.0583
▁bride	-11.0583
▁withdrawn	-11.0583
▁hire	-11.0585
▁palestinians	-11.0587
▁subtle	-11.0591
▁orthodox	-11.0592
▁affecting	-11.0595
▁blank	-11.0598
▁lakshmi	-11.0603
▁wander	-11.0603
▁hamas	-11.0604
▁impartial	-11.0605
▁artistic	-11.0605
▁demon	-11.0607
▁crafts	-11.0611
▁mt	-11.0615
▁outline	-11.062
ians	-11.0623
▁rarely	-11.0623
▁iraqi	-11.0634
▁connectivity	-11.0635
▁repayment	-11.0636
yn	-11.0651
▁pole	-11.0655
▁beliefs	-11.0656
▁limb	-11.0661
oop	-11.0664
▁sovereign	-11.0664
▁ascertain	-11.0665
▁vijay	-11.0666
▁designs	-11.067
▁tent	-11.0687
▁controlling	-11.0693
▁successor	-11.0693
▁emp	-11.0694
rai	-11.0696
▁sixteen	-11.0697
▁spray	-11.0697
▁diplomatic	-11.0698
▁math	-11.0703
▁exploit	-11.0712
▁degrad	-11.0713
▁undertakings	-11.0721
▁sponsored	-11.0725
▁rival	-11.0729
▁persistent	-11.0732
▁capability	-11.0732
▁sword	-11.0735
▁textile	-11.0737
▁paint	-11.0738
▁accountant	-11.0738
▁watching	-11.0738
▁jal	-11.0741
uru	-11.0746
▁bou	-11.0757
▁inherit	-11.0759
▁physics	-11.076
▁aviation	-11.0761
▁dig	-11.0765
▁nios	-11.0768
▁authorized	-11.0771
▁dhan	-11.0773
▁residents	-11.0775
▁alia	-11.0776
▁formulated	-11.0777
▁buying	-11.079
▁observ	-11.0792
▁dissolution	-11.0792
▁encounter	-11.0792
▁......	-11.0793
▁constructive	-11.0794
▁narrative	-11.0796
▁specialist	-11.0796
▁passengers	-11.0802
▁mantra	-11.0822
▁chart	-11.0823
▁jay	-11.0823
▁advertisement	-11.0824
▁substantive	-11.0824
▁physician	-11.0824
▁worst	-11.0824
▁dominion	-11.0824
▁angry	-11.0825
▁artists	-11.0825
▁hiv	-11.0831
▁deer	-11.0832
▁mandal	-11.0833
▁comply	-11.0835
▁disposed	-11.0838
▁professionals	-11.0843
▁linkages	-11.0844
▁१६	-11.0845
▁coordinate	-11.0846
▁jaw	-11.0849
▁resign	-11.0852
▁thanks	-11.0853
▁socialism	-11.0855
▁calculation	-11.0856
▁jerusalem	-11.0856
▁singapore	-11.0856
▁terrible	-11.0856
ogist	-11.0858
▁invad	-11.0859
▁archive	-11.0863
olic	-11.0871
▁chhattisgarh	-11.0888
▁solemn	-11.0888
▁hanuman	-11.0888
▁almast	-11.0888
▁departure	-11.0889
▁horizontal	-11.0889
▁arrange	-11.0894
▁administered	-11.0896
▁fro	-11.09
▁successive	-11.0905
▁assign	-11.0906
▁max	-11.0906
▁broadcast	-11.0907
▁reviv	-11.0907
▁touched	-11.0917
▁critics	-11.092
▁chalukya	-11.0921
▁lolita	-11.0921
▁unusual	-11.0921
▁ascetic	-11.0921
allotted	-11.0921
▁negotiations	-11.0921
▁rajput	-11.0922
▁korea	-11.0927
▁coach	-11.0932
hun	-11.0935
▁provisional	-11.0946
▁occupy	-11.0953
▁requisite	-11.0953
▁bottle	-11.0953
▁invitation	-11.0953
▁upset	-11.0954
mitra	-11.0958
▁painful	-11.0959
▁gopal	-11.0964
▁paintings	-11.0967
▁witnessed	-11.0969
▁cough	-11.0969
▁tries	-11.097
▁ashram	-11.0979
▁boil	-11.0983
▁centers	-11.0985
▁yusuf	-11.0985
▁sanitation	-11.0985
▁dil	-11.0987
▁trait	-11.0987
▁metro	-11.0991
pac	-11.0995
▁validity	-11.0999
hia	-11.1008
▁expedit	-11.101
▁depreciation	-11.1018
▁supervision	-11.1018
▁parameters	-11.1018
▁kittur	-11.1019
▁gulf	-11.1022
▁stores	-11.1023
▁radha	-11.103
▁renew	-11.1036
▁hut	-11.1036
disclosed	-11.1039
berg	-11.1045
eng	-11.1045
▁hop	-11.1047
▁recruit	-11.1047
▁lesson	-11.1048
▁kannada	-11.1051
▁ordinarily	-11.1051
▁quantum	-11.1051
▁nominee	-11.1051
▁dominant	-11.1051
▁afterwards	-11.1052
▁demanded	-11.1062
▁startup	-11.1063
▁publishing	-11.1066
▁rod	-11.1071
▁sect	-11.1076
▁conspiracy	-11.1084
▁disadvantage	-11.1084
▁globe	-11.1084
▁warrior	-11.1084
▁gdp	-11.1087
▁recovered	-11.1088
cular	-11.1091
tub	-11.1094
▁rti	-11.1102
box	-11.1107
▁deposited	-11.1108
▁intend	-11.1109
▁organiz	-11.111
scope	-11.1111
▁instinct	-11.1116
▁intestine	-11.1116
▁quantities	-11.1116
▁testimony	-11.1116
▁conceal	-11.1116
▁investigate	-11.1116
▁premier	-11.1117
▁birthday	-11.112
▁classified	-11.1122
▁advantages	-11.1125
▁brahmins	-11.1133
▁fallen	-11.1135
logy	-11.1136
▁weekly	-11.1142
gp	-11.1142
▁cruel	-11.1148
▁goodwill	-11.1149
▁flesh	-11.115
▁vagina	-11.115
▁puran	-11.115
▁correspondence	-11.1151
▁renewable	-11.1155
▁egyptian	-11.1155
▁flowing	-11.1156
▁owe	-11.1157
▁continuously	-11.1157
▁combine	-11.1159
▁everyday	-11.1161
▁midst	-11.1169
▁eighth	-11.117
▁transformed	-11.1171
▁aesthetic	-11.1183
▁recipient	-11.1183
▁surplus	-11.1183
▁unexpected	-11.1183
▁unicode	-11.1183
▁alphabet	-11.1183
▁agitation	-11.1183
▁kitchen	-11.1183
▁disturbance	-11.1184
▁telecom	-11.1184
▁wet	-11.119
▁stake	-11.1191
▁wooden	-11.1194
▁listening	-11.12
▁kon	-11.1205
▁interact	-11.1208
▁compact	-11.1216
▁absent	-11.1216
▁verification	-11.1217
▁copper	-11.1217
▁meters	-11.1224
▁seventy	-11.1226
▁pillar	-11.123
▁chat	-11.1232
▁prohibit	-11.1233
▁punish	-11.1233
▁panic	-11.1234
phone	-11.1248
▁confusion	-11.1249
▁threatened	-11.1249
▁shame	-11.1255
▁lectures	-11.1255
▁sala	-11.1264
▁dia	-11.127
▁heights	-11.1271
▁finish	-11.1272
▁raman	-11.1278
▁nutrient	-11.1283
▁battery	-11.1283
▁nomination	-11.1283
▁ladies	-11.1283
▁denial	-11.1283
▁phenomena	-11.1283
▁grey	-11.1284
▁kanpur	-11.1294
▁oriya	-11.1295
▁scan	-11.1302
▁condemn	-11.1306
▁convenient	-11.1317
istan	-11.1317
▁tripura	-11.1319
▁attendance	-11.1321
▁expanding	-11.1326
▁revival	-11.1327
▁passes	-11.133
▁confirmed	-11.1333
▁emi	-11.1343
▁ears	-11.1349
▁mechanisms	-11.135
▁presidential	-11.135
▁chandigarh	-11.135
▁levy	-11.135
▁marble	-11.1354
▁hatch	-11.1354
akshi	-11.1358
▁boundary	-11.136
▁practically	-11.1361
▁vest	-11.1365
▁dose	-11.1369
▁deny	-11.137
ogen	-11.1377
▁spare	-11.1378
db	-11.1378
▁physi	-11.1383
▁grandfather	-11.1384
kri	-11.1385
▁endeavours	-11.1391
pathy	-11.1397
▁applying	-11.1398
▁misuse	-11.1399
bel	-11.1401
hab	-11.1403
▁patt	-11.1403
▁cache	-11.1404
▁horses	-11.1404
▁pant	-11.1404
▁trends	-11.1408
▁embryo	-11.1409
▁accepting	-11.1409
▁producer	-11.141
▁corrupt	-11.1413
▁tragedy	-11.1417
▁delicate	-11.1417
▁legacy	-11.1417
▁imposition	-11.1418
▁loud	-11.1426
▁chip	-11.1428
hum	-11.1431
bhadra	-11.1433
▁traders	-11.1435
even	-11.1443
▁kum	-11.1448
▁singer	-11.1449
▁karma	-11.1449
▁emotions	-11.145
▁participating	-11.1451
▁survival	-11.1451
▁indonesia	-11.1451
▁reconstruction	-11.1453
▁brotherhood	-11.1453
▁erect	-11.1458
▁controller	-11.1462
▁invested	-11.1465
▁preet	-11.1476
▁requiring	-11.1486
▁territorial	-11.1486
▁vivekananda	-11.1486
▁orientation	-11.1486
▁tackle	-11.1486
▁mysore	-11.1486
keeper	-11.1488
▁lime	-11.1495
▁rubber	-11.1499
▁prima	-11.1502
▁kb	-11.151
▁defense	-11.152
▁hectare	-11.152
▁manuscript	-11.152
▁worried	-11.152
▁ethical	-11.152
▁decay	-11.1522
▁reliance	-11.1523
vir	-11.1525
▁petro	-11.1528
▁attempted	-11.1531
▁reliable	-11.1533
▁suck	-11.1533
▁incidental	-11.1536
▁county	-11.154
▁paste	-11.1547
▁pilgrim	-11.1552
▁assemble	-11.1554
▁denominator	-11.1554
▁vulnerable	-11.1554
▁ghosh	-11.1554
▁devotees	-11.1554
▁launchpad	-11.1555
▁creator	-11.1556
▁mask	-11.1559
▁coins	-11.1561
▁preferences	-11.1567
▁correspond	-11.1575
oram	-11.1579
▁creed	-11.1587
▁waves	-11.1588
▁memorandum	-11.1589
▁somewhere	-11.1589
▁impulse	-11.1589
▁injuries	-11.1589
▁tariff	-11.1589
▁gateway	-11.159
▁jaipur	-11.1591
▁urine	-11.1592
▁tired	-11.1594
▁slave	-11.1596
▁tenure	-11.1597
▁lowest	-11.1605
▁credited	-11.1611
▁tales	-11.1613
▁resolved	-11.1614
sarojini	-11.1623
▁fetch	-11.1623
▁boundaries	-11.1625
▁citizenship	-11.1626
▁exclude	-11.1627
▁occasionally	-11.1637
▁construct	-11.1642
▁temp	-11.1643
▁oct	-11.1649
▁suppress	-11.1654
och	-11.1655
▁assumption	-11.1658
▁injustice	-11.1658
▁jewellery	-11.1658
▁babies	-11.1658
▁champion	-11.1658
▁analyse	-11.1658
▁confess	-11.166
▁terminat	-11.1661
▁gaza	-11.1664
▁delta	-11.1665
▁likewise	-11.1668
▁provident	-11.1671
▁pancha	-11.1678
mail	-11.168
▁dealer	-11.1692
▁circulation	-11.1693
▁occurrence	-11.1693
▁plenty	-11.1693
▁qualify	-11.1693
▁racial	-11.1693
▁pests	-11.1695
rtha	-11.1695
▁occurring	-11.1696
▁jointly	-11.1698
▁picked	-11.1699
chand	-11.171
▁tata	-11.1711
▁promised	-11.1713
▁restriction	-11.1721
▁intent	-11.1723
▁haz	-11.1724
▁authentic	-11.1724
▁physically	-11.1725
▁glorious	-11.1728
▁opponent	-11.1728
▁strategies	-11.1728
▁utilization	-11.1728
▁implications	-11.1728
eve	-11.1733
▁crash	-11.1734
▁mutually	-11.1735
▁govern	-11.1742
▁participated	-11.1746
▁promoted	-11.1748
▁contend	-11.1751
▁xii	-11.1751
▁purely	-11.1755
▁visitor	-11.1756
prabha	-11.1757
▁stronger	-11.1762
▁conservative	-11.1763
▁exclusion	-11.1763
▁freight	-11.1763
▁swelling	-11.1763
▁themes	-11.1767
▁entertainment	-11.177
▁flame	-11.1778
count	-11.1784
▁mangal	-11.1785
▁assure	-11.1785
▁passenger	-11.1788
▁vaishnava	-11.1795
▁surprising	-11.1798
▁uttarakhand	-11.1798
▁breathing	-11.1802
▁travelling	-11.1811
▁agni	-11.182
▁larva	-11.1821
▁vessel	-11.1824
▁lessons	-11.1824
▁administer	-11.1825
hl	-11.1826
▁backup	-11.1827
▁sentiments	-11.1833
▁literally	-11.1833
▁triumph	-11.1833
▁equipped	-11.1834
▁isolated	-11.1834
▁wearing	-11.1834
▁proposition	-11.1836
▁welcomed	-11.1843
▁brick	-11.1844
▁thereto	-11.1846
▁consequent	-11.185
▁argued	-11.1856
▁moti	-11.1858
divided	-11.1859
▁definitely	-11.1861
▁cosmic	-11.1869
▁overwhelm	-11.1869
▁smoking	-11.1869
rine	-11.1872
▁realistic	-11.1876
▁flee	-11.1881
▁surya	-11.1882
▁gum	-11.1889
▁suspended	-11.1899
▁liberat	-11.1903
▁irregular	-11.1904
▁jinnah	-11.1904
▁remuneration	-11.1904
▁scrutiny	-11.1904
▁yamuna	-11.1905
▁nagaland	-11.1905
▁wool	-11.1906
▁parsi	-11.1909
▁hardship	-11.1913
▁somehow	-11.1914
▁dense	-11.1915
▁lapse	-11.1915
▁param	-11.1917
▁defeated	-11.1919
losing	-11.1921
▁enjoyment	-11.1924
▁retreat	-11.1929
▁pale	-11.193
▁kalam	-11.1936
▁modify	-11.194
▁sovereignty	-11.1942
▁coordination	-11.1943
▁ranging	-11.1946
▁bind	-11.1951
▁advent	-11.1951
▁symbolic	-11.1955
▁justified	-11.1956
▁congratulated	-11.1958
▁businesses	-11.1958
▁lax	-11.1971
▁leather	-11.1976
▁spouse	-11.1976
▁humour	-11.1977
▁sweat	-11.1979
haw	-11.1979
kra	-11.1979
▁brahmo	-11.198
▁closing	-11.1982
▁complainant	-11.1985
▁qualifications	-11.1989
▁rap	-11.1998
▁existed	-11.2011
▁rasa	-11.2012
▁pleasant	-11.2012
▁historian	-11.2012
▁trunk	-11.2012
▁ahmedabad	-11.2012
▁pearl	-11.2013
▁combat	-11.2014
▁authentication	-11.2017
▁argue	-11.2025
▁compete	-11.2032
▁anand	-11.2036
▁abandon	-11.204
▁weaken	-11.2042
▁viable	-11.2044
disqualification	-11.2048
▁quarrel	-11.2048
▁deccan	-11.2049
chha	-11.2051
▁fatal	-11.2052
▁thermal	-11.2053
▁mary	-11.2065
▁unfortunate	-11.2065
▁react	-11.2069
determin	-11.2074
▁spending	-11.2081
▁relevance	-11.2084
▁threshold	-11.2084
▁peninsula	-11.2084
▁afternoon	-11.2084
▁psycho	-11.2085
ike	-11.2089
▁carved	-11.209
▁refugees	-11.2093
▁weigh	-11.2094
▁bullet	-11.2094
▁throat	-11.2099
▁joining	-11.2101
titut	-11.2103
▁dimensions	-11.2105
▁borrowing	-11.2117
▁conciliation	-11.2121
▁gandharva	-11.2121
▁ideology	-11.2121
▁graphics	-11.2121
▁caution	-11.2122
▁fraud	-11.2122
▁impressive	-11.2124
ghat	-11.2125
▁quest	-11.2125
▁earnings	-11.2125
▁abort	-11.2126
▁warming	-11.2129
▁classic	-11.2133
▁premchand	-11.2133
pada	-11.2133
▁derive	-11.2135
ogue	-11.2135
▁dish	-11.2141
▁sensor	-11.2143
▁filling	-11.2148
▁obstruct	-11.215
▁gov	-11.2155
▁subsidiary	-11.2157
▁vocational	-11.2157
▁dialog	-11.2157
▁disturbed	-11.2158
▁alert	-11.2161
▁wireless	-11.2161
▁deepen	-11.2161
▁larvae	-11.2173
▁clearance	-11.2174
rut	-11.2175
▁assent	-11.2176
▁giant	-11.2187
▁earning	-11.2189
▁bunch	-11.219
▁depression	-11.2194
▁intercourse	-11.2194
▁steady	-11.2194
▁imposing	-11.2194
▁cartoon	-11.2194
▁preservation	-11.2197
how	-11.2213
▁annum	-11.2213
wari	-11.2215
▁nanala	-11.2218
▁himalaya	-11.2218
▁fre	-11.222
▁popularity	-11.2223
▁cris	-11.2226
▁pharmaceutical	-11.2231
▁possibilities	-11.2231
▁unfair	-11.2231
▁shortcut	-11.2231
▁ninth	-11.2231
▁manufacturers	-11.2234
▁resignation	-11.2236
wood	-11.2247
▁measured	-11.2251
▁gather	-11.2251
scribed	-11.2252
▁relieve	-11.2259
▁meaningful	-11.226
▁subhash	-11.2264
▁dioxide	-11.2267
▁arithmetic	-11.2268
▁identical	-11.2268
▁density	-11.2268
▁stag	-11.2268
▁mitigat	-11.2268
▁chakra	-11.2269
▁minorities	-11.2271
▁chit	-11.2272
▁surely	-11.2273
▁pesticides	-11.2276
unci	-11.2292
inder	-11.2302
▁array	-11.2305
▁alternate	-11.2305
▁emergence	-11.2305
▁ngos	-11.2305
▁underlying	-11.2313
▁clip	-11.2313
▁characteriz	-11.2314
▁envisage	-11.2318
▁neo	-11.2325
▁dist	-11.2328
▁syria	-11.2329
hap	-11.2331
▁illumin	-11.2342
▁grateful	-11.2342
▁zealand	-11.2343
▁thoroughly	-11.2354
▁patch	-11.2362
▁essays	-11.2377
uddin	-11.2377
▁hazard	-11.2378
▁biotechnology	-11.2379
▁diamond	-11.2379
▁puppet	-11.2379
▁particles	-11.2379
lick	-11.238
▁conven	-11.2384
▁concentrate	-11.2386
five	-11.2391
▁honoured	-11.24
card	-11.2403
▁modest	-11.2415
▁broadly	-11.2416
▁improper	-11.2416
▁deciding	-11.2417
▁grief	-11.2417
▁procurement	-11.2417
▁nokia	-11.2417
▁zeal	-11.2417
▁guaranteed	-11.2419
▁ninety	-11.2423
▁pari	-11.2423
▁grasp	-11.2425
▁indicator	-11.2426
flies	-11.2427
▁leap	-11.2428
fect	-11.2442
▁chin	-11.2445
▁captured	-11.2446
▁acknowledged	-11.2448
▁franc	-11.245
▁meditation	-11.2454
▁mizoram	-11.2454
▁nematode	-11.2454
▁widespread	-11.2454
▁nurture	-11.2454
▁gnome	-11.2454
▁scriptures	-11.2454
▁inscription	-11.2455
▁declined	-11.246
▁emotion	-11.2461
▁elementary	-11.2463
▁initiate	-11.2469
▁deem	-11.2473
aught	-11.2474
▁plum	-11.2476
▁refuge	-11.2482
ough	-11.2484
▁bowler	-11.2487
▁purchased	-11.2489
▁labourers	-11.2491
▁inadequate	-11.2492
▁regret	-11.2492
▁vague	-11.2492
▁eager	-11.2492
▁annexure	-11.2493
▁throne	-11.2493
▁essay	-11.2494
lah	-11.2506
singh	-11.2507
▁cess	-11.2512
▁sung	-11.2512
▁endorse	-11.2514
▁strictly	-11.2518
▁mari	-11.2519
▁exhaust	-11.2527
▁mauritius	-11.253
▁basket	-11.253
▁conscience	-11.253
▁echo	-11.253
▁infected	-11.253
▁distort	-11.2531
▁termination	-11.2534
▁announcement	-11.2535
ectomy	-11.254
▁prohibited	-11.2542
▁campus	-11.2545
▁nobel	-11.2545
▁viii	-11.2546
▁१७	-11.2548
▁hell	-11.2551
▁australian	-11.2553
▁gul	-11.2557
hot	-11.2561
▁varma	-11.2562
▁colon	-11.2564
▁propagat	-11.2564
▁vide	-11.2565
▁intuitive	-11.2568
▁medieval	-11.2568
▁robust	-11.2568
▁bodily	-11.2568
risen	-11.2573
▁bore	-11.2574
gle	-11.2576
ural	-11.2582
▁clay	-11.2586
▁prescribe	-11.2587
▁favourable	-11.2592
chrom	-11.2598
▁exploration	-11.2606
▁jharkhand	-11.2606
▁molecule	-11.2606
▁obstacle	-11.2606
▁manipulat	-11.2608
▁rajendra	-11.2608
▁await	-11.2609
▁variation	-11.2611
▁adhere	-11.2612
▁permanently	-11.2614
▁imperial	-11.2618
▁devotee	-11.2618
natha	-11.2619
▁evaluate	-11.2622
▁prevented	-11.2622
▁convict	-11.2629
▁james	-11.2631
▁verbal	-11.2635
▁variations	-11.264
▁architect	-11.2643
▁flexible	-11.2644
▁intermediate	-11.2644
▁introducing	-11.2644
▁chicken	-11.2644
▁concert	-11.2644
▁burma	-11.2659
▁execute	-11.2659
▁helpless	-11.266
▁manik	-11.2664
▁economically	-11.2671
▁floating	-11.2678
hora	-11.268
▁microsoft	-11.2683
▁transplant	-11.2683
▁ethnic	-11.2683
▁invention	-11.2683
▁statue	-11.2683
▁activate	-11.2686
▁fulfilment	-11.2686
▁comfortable	-11.2691
▁upgradation	-11.2691
▁deliberate	-11.2702
▁hanging	-11.2708
hom	-11.2713
▁surprised	-11.2721
▁brazil	-11.2721
▁kilogram	-11.2721
▁peripheral	-11.2721
▁permissible	-11.2721
▁translator	-11.2721
▁expectations	-11.2722
▁resume	-11.2723
▁salaries	-11.2724
▁interven	-11.2728
▁mighty	-11.2729
▁siddha	-11.273
▁evolve	-11.2737
▁visa	-11.2742
▁delighted	-11.2746
▁processor	-11.2754
▁jewel	-11.2757
▁bribery	-11.276
▁certified	-11.276
▁deprived	-11.276
▁innovators	-11.276
▁tuberculosis	-11.276
▁utilisation	-11.276
▁vigilance	-11.276
▁assault	-11.276
▁decorated	-11.276
▁html	-11.276
▁collapse	-11.276
▁dwell	-11.2763
▁researchers	-11.2765
gress	-11.277
▁ceased	-11.2774
▁bun	-11.2775
▁opt	-11.2779
▁optional	-11.2781
▁contractor	-11.2783
hearted	-11.2787
▁favor	-11.2798
▁spark	-11.2799
▁optimis	-11.28
▁damaged	-11.28
▁relate	-11.2801
▁verified	-11.2801
▁raid	-11.2804
indra	-11.2808
▁realization	-11.2811
▁heap	-11.2813
▁governorate	-11.2818
▁harness	-11.2825
▁meher	-11.2825
▁makers	-11.2826
▁assemblies	-11.2838
▁equitable	-11.2838
▁facilitating	-11.2838
▁immunity	-11.2838
▁striking	-11.2838
▁belarus	-11.2838
▁issuing	-11.284
▁hostile	-11.2843
▁atom	-11.2847
▁prosecut	-11.2852
▁lump	-11.2869
nthrop	-11.2874
▁spectrum	-11.2877
▁carriage	-11.2877
▁synthesis	-11.2877
▁reproduce	-11.2877
▁pursuance	-11.2881
▁scroll	-11.2883
▁sept	-11.2884
▁correctly	-11.29
▁karna	-11.2901
▁vow	-11.2906
▁commander	-11.2907
▁practis	-11.2912
▁ambulance	-11.2917
▁rabbit	-11.2917
▁irda	-11.2918
▁patriotism	-11.2919
▁organis	-11.292
▁ambition	-11.2927
▁packet	-11.293
▁dying	-11.2934
▁decent	-11.2944
▁highness	-11.2951
▁demonstrated	-11.2954
▁kilometre	-11.2956
▁vacancies	-11.2956
▁motivate	-11.2957
▁stir	-11.2957
▁disrupt	-11.2957
▁creatures	-11.2961
kali	-11.2962
▁dozen	-11.2963
▁receiver	-11.2967
▁seized	-11.2969
▁exam	-11.2984
round	-11.2989
khi	-11.2992
gupta	-11.2994
▁misconduct	-11.2996
▁vibrant	-11.2996
▁grassroots	-11.2996
▁assimilat	-11.2996
▁thomas	-11.2996
▁sketch	-11.2996
▁container	-11.3009
▁jagannatha	-11.3009
▁header	-11.3013
▁civilian	-11.3022
▁hybrid	-11.3036
▁miracle	-11.3036
▁prestige	-11.3036
▁framing	-11.3036
▁moth	-11.3038
▁toxic	-11.3039
▁readily	-11.3039
iyar	-11.304
▁kaur	-11.304
▁lag	-11.3041
▁subscriber	-11.3044
▁cultivated	-11.3048
▁vegetable	-11.3049
rick	-11.305
▁fertilizer	-11.3051
gna	-11.3058
▁exempt	-11.3064
▁edited	-11.3066
▁upward	-11.3066
▁lateral	-11.3075
▁imperfect	-11.3076
▁tropical	-11.3076
▁augment	-11.3076
▁specification	-11.3079
▁fdi	-11.3094
▁dung	-11.3098
▁tear	-11.3099
▁wedding	-11.3105
▁amritsar	-11.3116
▁frighten	-11.3116
▁charitable	-11.3116
▁ramalinga	-11.3116
▁desai	-11.312
▁confidential	-11.3121
▁bent	-11.3125
▁strat	-11.3133
▁bark	-11.3135
▁incur	-11.3144
▁lean	-11.3144
kut	-11.3145
▁greatness	-11.3147
▁adviser	-11.3154
▁loyal	-11.3155
▁magnitude	-11.3156
▁unconscious	-11.3156
▁orange	-11.316
▁append	-11.3161
▁procession	-11.3161
mir	-11.3162
▁upload	-11.3172
▁preventive	-11.3173
▁arya	-11.3176
▁monk	-11.318
encies	-11.3182
▁operated	-11.3183
▁contra	-11.3186
deo	-11.3196
▁okay	-11.3197
▁illusion	-11.3197
▁purusha	-11.3197
▁portray	-11.3198
▁verify	-11.3198
▁restart	-11.3199
▁ledger	-11.32
ulla	-11.3209
▁affordable	-11.321
bit	-11.3211
▁peer	-11.3217
▁solved	-11.3218
▁accomplished	-11.3225
▁mahabharat	-11.3235
▁diminish	-11.3237
▁investigating	-11.3237
▁refresh	-11.3237
▁thirteen	-11.3237
▁psychic	-11.3237
▁sidbi	-11.3237
▁worn	-11.3237
▁hungry	-11.3239
▁linga	-11.3243
▁offset	-11.3246
jar	-11.3247
▁renewal	-11.3249
▁lens	-11.325
▁sangh	-11.325
rak	-11.3256
▁orbit	-11.3268
▁preserved	-11.3269
▁regulated	-11.3278
▁fracture	-11.3278
▁supplier	-11.3278
▁dropped	-11.328
▁worshipped	-11.3281
▁brush	-11.3284
ool	-11.3285
▁condemned	-11.3291
▁comparatively	-11.3293
▁halt	-11.3294
▁dimension	-11.3299
esvara	-11.3303
▁documentation	-11.3308
▁manufactured	-11.331
▁knock	-11.3319
▁regulating	-11.3319
▁accompany	-11.3319
▁interior	-11.3319
▁blog	-11.332
▁rigid	-11.3321
▁nail	-11.3324
▁malaria	-11.3325
▁katha	-11.3338
ket	-11.334
▁nri	-11.3342
▁dun	-11.3352
▁hunting	-11.3355
volu	-11.3358
▁ethics	-11.336
▁suspension	-11.336
▁chemist	-11.336
▁loving	-11.336
▁maritime	-11.3361
▁irre	-11.3361
▁vaishnav	-11.3363
▁laughter	-11.3364
hira	-11.337
▁eighty	-11.3372
▁lust	-11.3384
conceived	-11.3392
▁preced	-11.3394
▁sentenced	-11.3396
▁immigration	-11.3402
▁serpent	-11.3402
▁twist	-11.3402
▁confused	-11.3402
▁entities	-11.3402
▁gentlemen	-11.3403
proving	-11.3404
▁arbitrary	-11.3405
▁bookmark	-11.3405
▁trash	-11.3405
▁appreciated	-11.3406
▁faithful	-11.3413
▁instrumental	-11.3416
opathy	-11.3416
▁delayed	-11.3418
▁varies	-11.3425
▁uphold	-11.3425
▁rig	-11.3429
▁automobile	-11.3443
▁predominant	-11.3443
▁propaganda	-11.3443
▁dialect	-11.3443
▁uterus	-11.3443
▁tragic	-11.3443
▁geography	-11.3443
▁indicating	-11.3445
▁hint	-11.3449
▁latin	-11.3449
▁banana	-11.345
▁thy	-11.3461
▁enlightened	-11.3485
▁underground	-11.3485
▁finland	-11.3485
▁earnest	-11.3488
▁gear	-11.3491
▁titled	-11.3495
▁curse	-11.3499
▁fax	-11.3503
bat	-11.3523
▁concurrent	-11.3527
▁clerk	-11.3527
▁rabi	-11.3528
assuming	-11.3528
▁altitude	-11.3529
▁clever	-11.353
▁arose	-11.353
lude	-11.3547
▁ridge	-11.3549
ullah	-11.3558
▁plug	-11.3559
▁cair	-11.3564
▁demonstrate	-11.3566
▁organize	-11.3568
▁saraswati	-11.3569
▁unnecessary	-11.3569
▁pendency	-11.3569
▁chromium	-11.3569
▁allotment	-11.3569
▁incubat	-11.3569
▁tie	-11.357
▁constru	-11.357
▁turnover	-11.3571
▁farid	-11.3577
connect	-11.3589
case	-11.3592
▁detected	-11.3597
▁aggressive	-11.3611
▁ceremonial	-11.3611
▁meghalaya	-11.3611
▁misbehaviour	-11.3611
▁prosperous	-11.3611
▁vigorous	-11.3611
▁martial	-11.3611
▁bleeding	-11.3611
▁blessed	-11.3611
▁excuse	-11.3612
▁multiplication	-11.3612
▁abandoned	-11.362
▁engineer	-11.3623
▁italy	-11.3635
▁handled	-11.3642
▁disturb	-11.365
▁java	-11.3652
▁uplift	-11.3653
▁vivid	-11.3653
▁patience	-11.3653
▁ravana	-11.3653
▁telegraph	-11.3654
▁neighbourhood	-11.3654
▁elimination	-11.3656
xxx	-11.3658
▁theories	-11.3659
▁attainment	-11.367
ogenic	-11.3672
▁chill	-11.3679
▁mentality	-11.3689
▁inhabit	-11.3695
▁kolhatkar	-11.3696
▁measuring	-11.3696
▁messenger	-11.3696
▁spontaneous	-11.3696
▁exponent	-11.3696
▁harijan	-11.3697
▁chose	-11.3699
▁petty	-11.3699
khand	-11.3703
▁pod	-11.3711
▁broadcasting	-11.3715
▁qualification	-11.3723
word	-11.3725
▁experimental	-11.3727
privileged	-11.3732
▁curriculum	-11.3738
▁ubuntu	-11.3738
▁forgotten	-11.3738
▁junior	-11.3738
▁endanger	-11.3738
▁amazing	-11.3738
▁cherish	-11.3739
examining	-11.3739
▁shopping	-11.374
cover	-11.3749
▁updated	-11.3752
▁shoes	-11.3759
▁perfectly	-11.3764
▁locked	-11.3768
▁soldier	-11.3768
▁projection	-11.3779
▁annex	-11.3781
▁generous	-11.3781
▁ignorant	-11.3781
▁landscape	-11.3781
▁portuguese	-11.3781
▁primitive	-11.3781
▁composite	-11.3784
▁raghu	-11.3784
▁discard	-11.3786
▁interpreted	-11.381
▁subsection	-11.3813
▁clinic	-11.3818
bodh	-11.3818
▁donor	-11.3819
▁furniture	-11.3824
▁bezbar	-11.3824
▁consultancy	-11.3825
▁corps	-11.3829
▁banker	-11.383
akka	-11.3837
▁hereby	-11.3841
▁nazi	-11.3842
▁beneficiaries	-11.3868
▁dignitaries	-11.3868
▁injunction	-11.3868
▁portfolio	-11.3868
▁deteriorat	-11.3868
▁sweep	-11.3868
▁magnificent	-11.3868
▁bhopal	-11.3868
tp	-11.387
▁joshi	-11.3871
▁arabian	-11.3888
▁disappeared	-11.3892
▁repeatedly	-11.3906
oresh	-11.3908
▁naga	-11.3909
▁afghan	-11.3911
▁abundant	-11.3911
▁trekking	-11.3911
▁unemployment	-11.3911
▁culminat	-11.3911
▁pallava	-11.3911
▁trigger	-11.3911
▁warfare	-11.3911
▁monarch	-11.3911
▁organise	-11.3922
wai	-11.3923
▁tier	-11.3931
▁crow	-11.3932
▁burnt	-11.3934
▁horizon	-11.3954
▁patron	-11.3954
▁consensus	-11.3955
▁preamble	-11.3955
▁sahitya	-11.3955
▁undoubtedly	-11.3955
▁zoom	-11.3955
▁shastri	-11.3959
▁practised	-11.396
▁sunday	-11.396
▁fancy	-11.3964
▁nana	-11.3968
▁burst	-11.3975
▁abolished	-11.398
biotic	-11.3982
▁deities	-11.3987
▁affair	-11.3988
▁hindustan	-11.3992
▁musician	-11.3996
▁pip	-11.3997
▁convenience	-11.3999
▁handloom	-11.3999
▁innumerable	-11.3999
▁mathematical	-11.3999
▁fodder	-11.3999
▁inhibit	-11.3999
▁nominal	-11.3999
▁narmad	-11.4
▁assamese	-11.4
tell	-11.4004
▁panda	-11.4015
▁gases	-11.4021
system	-11.404
▁duplicate	-11.4043
▁neutral	-11.4043
▁potato	-11.4043
▁frustrat	-11.4043
▁pharma	-11.4043
▁dividing	-11.4043
stom	-11.4044
▁nagpur	-11.4045
▁robert	-11.4045
▁dump	-11.4048
▁sinha	-11.4052
▁grip	-11.4053
▁jati	-11.4055
▁justification	-11.4055
▁loop	-11.406
▁formally	-11.4078
▁deploy	-11.4084
▁disobedience	-11.4087
▁swift	-11.4087
▁amidst	-11.4087
▁mercy	-11.4087
▁bagh	-11.4092
▁pink	-11.4097
▁supp	-11.4108
▁spinal	-11.4114
▁morality	-11.4114
kumar	-11.4119
▁transcend	-11.4129
▁detention	-11.4131
▁remittance	-11.4131
▁reproduction	-11.4131
▁reproductive	-11.4131
▁treasury	-11.4131
▁postpone	-11.4132
▁nizam	-11.4132
▁spain	-11.4132
▁dental	-11.4132
▁kisan	-11.4132
general	-11.4132
▁harassment	-11.4133
▁fiction	-11.4136
vet	-11.4137
▁dissolved	-11.4143
ometer	-11.4155
▁bhatt	-11.4161
▁merger	-11.4163
ographic	-11.4164
▁ghana	-11.4168
▁cau	-11.4173
▁acquiring	-11.4176
▁impeachment	-11.4176
▁maternity	-11.4176
▁vrindavan	-11.4176
▁coalition	-11.4176
▁tribe	-11.4176
▁dvd	-11.4176
▁collectively	-11.4177
▁ultra	-11.4178
▁cruelty	-11.4178
national	-11.4183
▁detection	-11.4183
oil	-11.4187
▁labor	-11.4192
▁hindustani	-11.4192
▁senate	-11.42
▁pipe	-11.4218
▁cock	-11.4218
▁alignment	-11.4221
▁bhavabhuti	-11.4221
▁climatic	-11.4221
▁unlawful	-11.4221
▁qatar	-11.4222
▁italian	-11.4222
▁odisha	-11.4222
▁dwelling	-11.423
▁idle	-11.4231
▁१८	-11.4235
▁informal	-11.4248
▁bias	-11.4256
▁hunter	-11.426
▁wrongful	-11.4263
▁balarama	-11.4266
▁elevation	-11.4266
▁leopard	-11.4266
▁navigation	-11.4266
▁solving	-11.4266
▁velocity	-11.4266
▁canadian	-11.4266
▁broker	-11.4267
ayana	-11.4267
▁betray	-11.4267
udha	-11.428
▁sometime	-11.4292
▁optical	-11.4294
▁outlay	-11.4294
▁fruitful	-11.4298
▁madhu	-11.4304
▁concentrated	-11.4309
▁shake	-11.4309
▁ayodhya	-11.4311
▁incidence	-11.4311
▁numerator	-11.4311
▁statistical	-11.4311
▁stimulate	-11.4311
▁heavily	-11.4311
▁invasion	-11.4312
▁hook	-11.4315
▁dissemination	-11.4315
▁basin	-11.4316
▁subsid	-11.4325
▁deliberately	-11.4334
▁cage	-11.4338
▁amalgamation	-11.4357
▁envelope	-11.4357
▁anonymity	-11.4357
▁prolonged	-11.4357
▁tulsi	-11.4357
▁polity	-11.4357
▁rammoh	-11.4358
▁injection	-11.4361
operation	-11.4363
▁rejection	-11.4366
▁eleventh	-11.4369
▁yogi	-11.4375
ml	-11.4376
▁roughly	-11.4387
▁anglo	-11.4396
▁auspicious	-11.4402
▁capacities	-11.4402
▁incapacity	-11.4402
▁vidyasagar	-11.4402
▁unjust	-11.4402
▁impair	-11.4402
▁ascend	-11.4403
▁kapil	-11.4404
▁dependence	-11.4408
possessed	-11.4409
▁onwards	-11.4409
▁dit	-11.4424
▁chitra	-11.4424
▁stating	-11.4424
nayak	-11.4429
▁reformer	-11.4437
▁incorrect	-11.4448
▁intuition	-11.4448
▁mohammad	-11.4448
▁reorganisation	-11.4448
▁sugarcane	-11.4448
▁widget	-11.4448
▁portrait	-11.4448
▁virgin	-11.4449
▁mortality	-11.4452
▁commence	-11.4455
▁dock	-11.4457
▁christianity	-11.4463
▁nag	-11.4468
low	-11.4474
▁enroll	-11.4488
▁boxes	-11.449
▁greet	-11.4494
▁mahadevi	-11.4494
▁sophisticated	-11.4494
rani	-11.45
▁exploited	-11.4512
shah	-11.4521
▁syed	-11.4522
▁exercising	-11.4541
▁maharshi	-11.4541
▁nineteenth	-11.4541
▁annuity	-11.4541
▁gesture	-11.4541
▁inflict	-11.4541
▁slogan	-11.4541
▁solvent	-11.4543
▁kavi	-11.4544
▁commentary	-11.4554
▁germ	-11.4554
wore	-11.4558
▁precisely	-11.4559
puram	-11.4564
esis	-11.4567
▁behave	-11.4568
▁gem	-11.458
▁celebration	-11.4587
▁exaggerat	-11.4587
▁unprecedented	-11.4587
▁deficit	-11.4587
▁pepper	-11.4587
▁chairperson	-11.4587
▁guiding	-11.4587
▁panjab	-11.4588
▁juice	-11.4591
active	-11.4595
▁ratna	-11.4598
▁edible	-11.4598
▁blindness	-11.46
▁briefly	-11.4603
making	-11.4624
gaon	-11.4625
▁fluctuat	-11.4634
▁superintendent	-11.4634
▁clarifi	-11.4634
▁corpus	-11.4634
▁anticipatory	-11.4634
▁meteor	-11.4634
▁sniff	-11.4634
▁polish	-11.4634
▁steep	-11.4634
▁expense	-11.4635
▁excitement	-11.4635
▁missile	-11.4636
▁cursor	-11.4636
▁scrap	-11.4638
lary	-11.4641
▁pakistani	-11.4671
▁abdomen	-11.4681
▁deliberations	-11.4681
▁predecessor	-11.4681
▁responsive	-11.4681
▁thirst	-11.4681
▁competence	-11.4681
▁query	-11.4683
▁ongoing	-11.4683
▁martin	-11.4685
▁distinctive	-11.4688
▁punished	-11.4696
▁coordinat	-11.47
krishna	-11.4704
▁peter	-11.471
▁usher	-11.471
▁disseminat	-11.4724
▁rib	-11.4725
▁omission	-11.4728
▁boycott	-11.4728
▁requisition	-11.4728
▁seventeen	-11.4728
▁loyalty	-11.473
swami	-11.4739
▁allocated	-11.474
▁endow	-11.4753
▁typing	-11.4755
▁appar	-11.4757
▁imperialist	-11.4757
▁mong	-11.4757
tyl	-11.4758
▁diu	-11.4765
▁reset	-11.4767
▁encrypt	-11.4771
▁partially	-11.4775
▁anxiety	-11.4775
▁warehouse	-11.4775
▁artisans	-11.4775
▁homage	-11.4775
▁bonus	-11.4776
▁weaver	-11.4778
▁wipe	-11.4779
▁endorsement	-11.478
▁obstruction	-11.4784
▁thro	-11.4801
took	-11.4811
▁redress	-11.4816
chen	-11.4818
▁chap	-11.482
▁admissible	-11.4823
▁challenging	-11.4823
▁creativity	-11.4823
▁fragment	-11.4823
▁glimpse	-11.4823
▁maulana	-11.4823
▁pseudo	-11.4823
otomy	-11.4824
▁gratitude	-11.4824
▁biography	-11.4826
▁banyan	-11.4826
▁holi	-11.4832
bhushan	-11.4834
▁momentum	-11.4841
▁curb	-11.4853
duced	-11.4855
▁tolerate	-11.4855
▁fled	-11.4866
▁diploma	-11.4868
▁michael	-11.4871
▁retention	-11.4871
▁fisheries	-11.4871
▁beneath	-11.4871
▁instalment	-11.4871
▁supervisor	-11.4871
▁vocal	-11.4871
▁jesus	-11.4871
▁album	-11.4871
▁hydrogen	-11.4872
▁wives	-11.4873
▁classroom	-11.4875
▁replacement	-11.488
▁laden	-11.4881
▁dominated	-11.4886
▁expedition	-11.4886
▁quarterly	-11.4891
▁scattered	-11.4892
▁hung	-11.4895
▁approve	-11.4896
▁pause	-11.49
intern	-11.4904
comm	-11.4905
▁prone	-11.4905
▁bite	-11.4915
▁despair	-11.4919
▁discourse	-11.4919
▁jadunath	-11.4919
▁ozone	-11.4919
▁renowned	-11.4919
▁restaurant	-11.4919
▁aurangz	-11.4919
▁ghose	-11.4919
▁reckon	-11.4919
▁tonnage	-11.4919
▁oriental	-11.4919
▁mehta	-11.4919
▁diplomacy	-11.492
▁dried	-11.4921
▁charles	-11.4922
▁kavya	-11.4923
▁landmark	-11.4925
▁excited	-11.4928
▁dull	-11.4933
gradation	-11.4933
▁encouragement	-11.4933
▁sickness	-11.4933
▁painted	-11.4948
▁duck	-11.495
▁adjudicat	-11.4963
▁cereal	-11.4967
▁encoding	-11.4967
▁harbour	-11.4967
▁livestock	-11.4967
▁nitrogen	-11.4967
▁preview	-11.4967
▁taliban	-11.4967
▁migrate	-11.4967
▁demerge	-11.4968
▁narendra	-11.4968
▁pothana	-11.4969
▁rites	-11.4973
▁remainder	-11.4975
root	-11.4975
▁richard	-11.4977
▁dalit	-11.4977
▁jury	-11.4979
▁mess	-11.4992
▁oppose	-11.4993
▁hip	-11.4993
burg	-11.5002
▁mast	-11.5002
stream	-11.5005
▁summ	-11.5012
▁conform	-11.5015
▁apprehension	-11.5016
▁conducive	-11.5016
▁forecast	-11.5016
▁forehead	-11.5016
▁feedback	-11.5018
shastra	-11.5023
▁kabul	-11.5024
▁mild	-11.5026
▁enhancement	-11.5031
▁pronounced	-11.5037
hole	-11.5062
▁autobiography	-11.5065
▁conquest	-11.5065
▁gravity	-11.5065
▁zamindar	-11.5065
▁mystery	-11.5065
▁foremost	-11.5065
▁pretend	-11.5067
▁schema	-11.5068
▁polar	-11.507
▁canvas	-11.507
▁clan	-11.5073
▁precise	-11.5095
▁compl	-11.5095
▁jaga	-11.5104
▁vertebra	-11.5105
▁rubb	-11.5107
▁dim	-11.5108
▁appraisal	-11.5114
▁calcium	-11.5114
▁circulate	-11.5114
▁grandmother	-11.5114
▁priyobro	-11.5114
▁oneself	-11.5114
▁dinner	-11.5116
▁procur	-11.5118
▁prakriti	-11.5132
hwa	-11.5134
▁fide	-11.5136
▁vish	-11.514
▁regardless	-11.5143
▁consultant	-11.5149
▁metre	-11.5151
▁veil	-11.5153
▁arrears	-11.5163
▁expiration	-11.5163
▁explicit	-11.5163
▁harmonious	-11.5163
▁untouchable	-11.5163
▁dancing	-11.5163
▁steer	-11.5166
▁curious	-11.5168
▁lane	-11.5172
▁osteo	-11.5177
▁claimant	-11.5187
▁arjuna	-11.5192
▁wine	-11.5192
▁pyr	-11.5199
verted	-11.5206
person	-11.521
▁admiration	-11.5212
▁superficial	-11.5212
▁remedies	-11.5212
▁temperament	-11.5212
embodied	-11.5212
▁plough	-11.5212
▁bestow	-11.5216
▁interactive	-11.5217
▁sponsor	-11.5218
▁whoever	-11.5218
▁hilly	-11.5226
▁victor	-11.5227
centric	-11.5229
class	-11.5231
▁quo	-11.5247
▁contributing	-11.5262
▁miscellaneous	-11.5262
▁respiratory	-11.5262
▁maternal	-11.5262
▁martyr	-11.5262
▁tatya	-11.5262
▁denote	-11.5266
▁flock	-11.5269
▁puja	-11.5269
▁fortunately	-11.5273
▁alteration	-11.5273
▁congo	-11.5276
▁utilized	-11.5278
▁jog	-11.5284
▁vermi	-11.5285
▁justify	-11.5286
▁inspect	-11.5287
▁mentor	-11.5298
▁ahmad	-11.5312
▁adorn	-11.5313
▁saddam	-11.5314
▁dispers	-11.5314
▁lodge	-11.5316
▁pw	-11.5321
▁identifie	-11.5339
▁restored	-11.5357
▁compilation	-11.5362
▁decisive	-11.5362
▁eligibility	-11.5362
▁hierarchy	-11.5362
▁hygiene	-11.5362
▁reinforce	-11.5362
▁matrix	-11.5362
▁hollow	-11.5362
▁dutch	-11.5362
▁maratha	-11.5362
▁inception	-11.5363
▁gallery	-11.5364
▁madhav	-11.5366
▁enact	-11.5368
ologists	-11.5374
▁induce	-11.5392
assisted	-11.5395
▁stranger	-11.5405
▁affiliate	-11.5413
▁anticipate	-11.5413
▁california	-11.5413
▁flexibility	-11.5413
▁simplicity	-11.5413
▁bracket	-11.5413
▁luminous	-11.5413
▁pricing	-11.5413
▁discern	-11.5413
roz	-11.5414
▁naked	-11.5414
▁pratap	-11.5414
▁mainstream	-11.5415
▁realm	-11.5419
▁wales	-11.542
▁journalism	-11.5424
swamy	-11.5424
▁competitiveness	-11.5424
bred	-11.5444
▁audacity	-11.5464
▁domicile	-11.5464
▁indispensable	-11.5464
▁libraries	-11.5464
▁prestigious	-11.5464
▁sulphur	-11.5464
▁foregoing	-11.5464
▁sweden	-11.5464
▁guinea	-11.5464
▁inauguration	-11.5464
▁fauna	-11.5467
▁addict	-11.548
kel	-11.5488
▁fiber	-11.5504
▁optic	-11.5506
▁rape	-11.5509
▁impetus	-11.5515
▁stupid	-11.5515
▁memories	-11.5515
▁munshi	-11.5515
▁evict	-11.5519
chemical	-11.5524
▁arjun	-11.5536
ahdev	-11.5537
lusion	-11.5538
▁seasonal	-11.5543
▁err	-11.5553
▁formulate	-11.5555
▁habitat	-11.5558
▁absorption	-11.5566
▁devanagari	-11.5566
▁embedded	-11.5566
▁nivedita	-11.5566
▁nucleus	-11.5566
▁simplify	-11.5566
▁whisper	-11.5566
▁tenancy	-11.557
▁suspend	-11.5573
vada	-11.5575
▁shelf	-11.5578
▁sukh	-11.558
▁charity	-11.5584
▁jahan	-11.5585
cla	-11.5598
ganj	-11.5602
▁puru	-11.5605
▁slide	-11.5606
▁equat	-11.561
▁dictat	-11.5611
palli	-11.5616
▁aggression	-11.5617
▁offensive	-11.5617
▁tranquil	-11.5617
▁hereafter	-11.5617
▁infectious	-11.5617
▁avenue	-11.5618
▁buffer	-11.5618
▁friday	-11.5618
▁habitual	-11.5619
▁scarce	-11.5623
▁heirs	-11.5631
▁warned	-11.5634
▁republican	-11.5637
▁kalyan	-11.5639
▁committ	-11.5643
▁comparative	-11.5654
▁linkage	-11.5655
▁accommodate	-11.5669
▁fertile	-11.5669
▁mosquito	-11.5669
▁qaeda	-11.5669
▁steadily	-11.5669
▁varanasi	-11.5669
▁bronze	-11.5669
▁encompass	-11.5669
▁solitary	-11.5669
▁diagnosis	-11.5669
▁holistic	-11.5669
▁hesitate	-11.567
▁ecological	-11.5671
▁thou	-11.5674
▁reiterated	-11.5682
▁lav	-11.5683
▁accession	-11.5684
▁lobe	-11.5685
master	-11.5713
▁rob	-11.5714
▁elderly	-11.5718
▁unanimous	-11.5721
▁disregard	-11.5721
▁precaution	-11.5721
▁temporarily	-11.5721
▁monopoly	-11.5721
▁drunk	-11.5721
▁gauge	-11.5724
▁attributed	-11.5724
▁bachan	-11.573
▁hail	-11.5734
▁correction	-11.5734
▁lightning	-11.5736
▁undo	-11.5747
▁educate	-11.5749
idae	-11.5755
▁devotional	-11.576
▁hetero	-11.576
▁autonomy	-11.5774
▁nowadays	-11.5774
▁peacock	-11.5774
▁puzzle	-11.5774
▁unhappy	-11.5774
▁vacancy	-11.5774
▁undue	-11.5774
▁counterpart	-11.5775
▁entrepreneur	-11.5775
▁greenhouse	-11.5776
▁depart	-11.5776
▁hopefully	-11.5778
▁refusal	-11.578
▁reside	-11.578
▁quasi	-11.5781
sisted	-11.5781
▁toilet	-11.5785
▁disclose	-11.5793
▁emphasized	-11.5794
▁protective	-11.5796
▁colony	-11.5801
▁lifetime	-11.5803
▁dispose	-11.5803
varying	-11.5804
▁aunt	-11.5805
▁vain	-11.5811
▁devil	-11.5822
▁aggrieved	-11.5826
▁authoritative	-11.5826
▁constituency	-11.5826
▁extremist	-11.5826
▁olympic	-11.5826
▁uranium	-11.5826
▁premature	-11.5826
▁brutal	-11.5827
▁gautam	-11.5827
▁isolation	-11.5827
▁initiation	-11.5829
▁transcendent	-11.583
▁bapu	-11.5833
▁adaptation	-11.584
sphere	-11.5849
process	-11.5849
▁capita	-11.5852
▁imminent	-11.5879
▁migration	-11.5879
▁sanctum	-11.5879
▁unlimited	-11.5879
▁hostility	-11.5879
▁invariably	-11.5879
▁venkata	-11.5879
▁vikram	-11.5879
▁asleep	-11.5879
▁hrs	-11.5881
▁cancelled	-11.5882
▁misery	-11.5884
▁priorities	-11.5885
▁float	-11.5887
▁potter	-11.5893
▁quotation	-11.5894
▁diagnose	-11.5932
▁moscow	-11.5932
▁whatsoever	-11.5932
▁coincide	-11.5932
▁nawab	-11.5933
▁heroic	-11.5934
▁hitler	-11.5936
▁joze	-11.5936
▁hans	-11.5947
▁fool	-11.5951
▁cake	-11.5961
▁complexity	-11.5966
▁arid	-11.5977
▁gtk	-11.5984
▁jodhpur	-11.5986
▁khandekar	-11.5986
▁renunciation	-11.5986
▁renounc	-11.5986
▁obstina	-11.5986
▁orphan	-11.5987
▁adjournment	-11.599
▁patriotic	-11.5991
▁confirmation	-11.5995
▁natal	-11.6003
▁novelist	-11.601
▁restless	-11.6012
▁collaborat	-11.6028
▁quin	-11.6037
▁consecutive	-11.604
▁esteem	-11.604
▁explosive	-11.604
▁glucose	-11.604
▁lifestyle	-11.604
▁anonymous	-11.604
▁demographic	-11.604
▁regain	-11.604
▁excel	-11.6043
▁adjudication	-11.6045
▁propagation	-11.6045
▁fitting	-11.6053
▁haj	-11.6054
▁accelerated	-11.6057
▁eaten	-11.6063
▁fox	-11.6065
▁hunt	-11.6066
power	-11.6066
▁ashoka	-11.6082
bhava	-11.609
▁mortal	-11.6093
▁beneficiary	-11.6094
▁compiled	-11.6094
▁contributor	-11.6094
▁explosion	-11.6094
▁hpcl	-11.6094
▁verdict	-11.6094
▁thakur	-11.6094
▁reputed	-11.6094
▁diesel	-11.6094
▁airlines	-11.6094
▁aquatic	-11.6095
▁cordial	-11.6097
▁sikhara	-11.6097
▁supervise	-11.6097
▁supplementary	-11.6099
config	-11.61
▁stipulated	-11.6101
▁joke	-11.6122
▁acquaint	-11.6147
▁illiterate	-11.6148
▁mercury	-11.6148
▁umbrella	-11.6148
▁valmiki	-11.6148
▁placing	-11.6148
▁diwali	-11.6148
▁jealous	-11.6148
▁amitabh	-11.6148
▁carpet	-11.6148
▁menace	-11.6149
▁maurya	-11.6149
▁spinning	-11.615
▁abode	-11.6151
▁prospective	-11.6155
▁shaping	-11.6156
▁biology	-11.6157
▁transit	-11.6161
▁announce	-11.6171
mulating	-11.6173
▁kho	-11.6176
▁pronounce	-11.6179
▁occupie	-11.6179
▁democrat	-11.618
writing	-11.6185
▁credentials	-11.6203
▁fascism	-11.6203
▁purview	-11.6203
▁completing	-11.6203
▁exciting	-11.6203
▁rebellion	-11.6203
▁feudal	-11.6203
▁vedanta	-11.6203
▁vomit	-11.6203
▁inhabitants	-11.6203
▁sink	-11.6203
▁thunder	-11.6204
▁fringe	-11.6209
▁rajiv	-11.6212
▁cargo	-11.6223
▁suppose	-11.6235
▁hospitality	-11.6235
▁emanat	-11.6236
▁aspiration	-11.6236
▁restrain	-11.6241
▁fertilise	-11.6258
▁suspicion	-11.6258
▁blossom	-11.6258
▁skull	-11.6258
▁bullock	-11.6258
▁precedent	-11.6261
▁nursery	-11.6262
▁aqua	-11.627
▁calf	-11.6274
iasis	-11.6282
▁leak	-11.6284
▁distribute	-11.629
▁thorough	-11.6294
▁cpu	-11.6302
▁emit	-11.6311
▁modi	-11.6311
▁immigrant	-11.6313
▁convergence	-11.6313
▁manure	-11.6313
▁indigo	-11.6313
▁vendor	-11.6313
▁boast	-11.6313
▁ambitious	-11.6314
▁abbas	-11.6314
▁defi	-11.6315
▁probationers	-11.6315
▁trail	-11.6316
▁dictator	-11.6326
▁monte	-11.6328
▁madan	-11.6332
▁goddesses	-11.6343
▁asthma	-11.6346
▁nutritional	-11.6363
▁dash	-11.6366
▁fertility	-11.6368
▁rigorous	-11.6368
▁bachchan	-11.6368
▁hussein	-11.6368
▁liquor	-11.6368
▁bargain	-11.6368
▁diagram	-11.6369
▁rotation	-11.6374
▁preserv	-11.6382
▁ashok	-11.6383
▁secretion	-11.6404
▁gradual	-11.6405
▁govinda	-11.6409
▁patriot	-11.6416
▁congratulations	-11.6424
▁multilateral	-11.6424
▁inclined	-11.6424
▁mexico	-11.6424
▁domination	-11.6424
▁ideological	-11.6424
▁dirty	-11.6425
▁diameter	-11.6425
▁cited	-11.6427
▁ripe	-11.6428
▁ailment	-11.643
▁flute	-11.6432
▁ballot	-11.6437
▁daman	-11.6437
blo	-11.6439
▁consumed	-11.6441
▁maize	-11.6441
▁waist	-11.6442
▁syrian	-11.6444
▁hack	-11.6447
slav	-11.6448
▁victoria	-11.6449
nathan	-11.646
▁observer	-11.646
text	-11.648
▁advertising	-11.6481
▁commendable	-11.6481
▁discontinu	-11.6481
▁metropolitan	-11.6481
▁pixels	-11.6481
▁superstition	-11.6481
▁trekker	-11.6481
▁vigour	-11.6481
▁paradise	-11.6481
▁scratch	-11.6481
▁cyber	-11.6481
▁bundle	-11.6481
▁slavery	-11.6484
▁suppression	-11.6487
▁chairmanship	-11.6489
▁stride	-11.649
▁frog	-11.6496
▁kick	-11.6496
▁evolving	-11.6499
▁documentary	-11.65
▁jet	-11.6502
▁catholic	-11.6537
▁jurisprudence	-11.6537
▁generator	-11.6537
▁vallabh	-11.6537
▁straw	-11.6538
▁steal	-11.6539
▁plateau	-11.6539
▁obey	-11.654
▁stiff	-11.6542
▁guilt	-11.6543
▁enduring	-11.6546
easing	-11.6556
dimensional	-11.6589
▁inspiring	-11.6594
▁swollen	-11.6594
▁voluntarily	-11.6594
▁biomass	-11.6594
▁upheld	-11.6594
▁screw	-11.6594
▁yadav	-11.6594
▁polio	-11.6595
▁skip	-11.6595
▁microscope	-11.6595
▁consolidation	-11.6598
▁mishra	-11.6599
▁shivaji	-11.66
▁graphical	-11.6601
▁blanket	-11.6602
▁medic	-11.6614
raya	-11.6627
▁moisture	-11.6651
▁refinery	-11.6651
▁vigyan	-11.6651
▁fossil	-11.6651
▁subscription	-11.6651
▁choosing	-11.6651
▁invisible	-11.6651
▁architectural	-11.6651
▁xvii	-11.6652
▁rahul	-11.6653
▁surat	-11.6656
▁divert	-11.6662
▁fearless	-11.6666
▁clash	-11.6667
▁contradiction	-11.6669
▁triple	-11.6676
▁diary	-11.6683
▁chola	-11.6691
▁abdominal	-11.6708
▁inevitably	-11.6708
▁untouchability	-11.6708
▁denomination	-11.6708
▁heartfelt	-11.6708
▁banquet	-11.6708
▁vector	-11.6708
▁amenities	-11.6709
▁retard	-11.6709
▁trauma	-11.6709
▁watershed	-11.6709
▁buried	-11.6709
▁ramakrishna	-11.6709
▁storing	-11.6711
▁detain	-11.6722
▁uniformity	-11.6722
▁reddy	-11.6723
hna	-11.673
▁eliminat	-11.6736
▁pact	-11.6738
▁glow	-11.6749
▁relax	-11.6762
▁algebra	-11.6766
▁exemplary	-11.6766
▁millennium	-11.6766
▁prejudicial	-11.6766
▁malaysia	-11.6766
▁vacant	-11.6766
▁naidu	-11.6766
▁inviting	-11.6767
bari	-11.6768
▁patronage	-11.6769
▁colonies	-11.677
▁magnifi	-11.6773
▁consolidat	-11.6776
▁mediation	-11.6779
▁thermo	-11.6783
▁personalities	-11.6783
wide	-11.6786
logged	-11.6796
▁debtor	-11.6798
▁infrastructur	-11.6804
▁curiosity	-11.6824
▁humanitarian	-11.6824
▁savarkar	-11.6824
▁mcx	-11.6824
▁insulin	-11.6825
▁muscular	-11.6825
▁poona	-11.6826
▁inheritance	-11.6827
rush	-11.6829
▁sudan	-11.6829
▁secularism	-11.6832
other	-11.6834
▁realities	-11.6842
▁thiru	-11.6867
▁ample	-11.687
▁proprietor	-11.6883
rbakhsh	-11.6883
▁enrolment	-11.6883
▁frivolous	-11.6883
▁implicit	-11.6883
▁lebanon	-11.6883
▁siyaramsharan	-11.6883
▁complications	-11.6883
▁activist	-11.6883
▁annoy	-11.6884
▁penalties	-11.6884
▁mythology	-11.6885
▁exhaustive	-11.6887
▁romance	-11.6887
▁console	-11.689
▁clinical	-11.6891
▁knot	-11.6892
▁feast	-11.6893
▁accomplishment	-11.6893
▁handsome	-11.6895
hini	-11.6902
▁motherland	-11.6904
▁shrink	-11.6904
▁illustration	-11.6917
▁discourage	-11.6942
▁fortnight	-11.6942
▁fraudulent	-11.6942
▁guwahati	-11.6942
▁indifference	-11.6942
▁leisure	-11.6942
▁cottage	-11.6942
▁precision	-11.6942
▁shield	-11.6942
▁sediment	-11.6942
▁benchmark	-11.6943
▁thorn	-11.6943
▁constitut	-11.6944
▁bulb	-11.6944
▁attendant	-11.6946
▁vogue	-11.6948
▁diwan	-11.695
▁inquire	-11.6958
▁tailor	-11.6958
roused	-11.6975
▁verb	-11.6999
▁sympathetic	-11.7001
▁santiniketan	-11.7001
▁revelation	-11.7001
▁championships	-11.7001
▁restoration	-11.7001
▁intestate	-11.7001
▁carving	-11.7001
▁parvati	-11.7003
▁reache	-11.701
▁indent	-11.7012
▁litter	-11.7014
▁booklet	-11.7015
▁emphasize	-11.7037
▁creature	-11.7053
gita	-11.7054
▁authenticate	-11.7058
▁repay	-11.706
▁alchemist	-11.706
▁enzyme	-11.706
▁syndrome	-11.706
▁vegetarian	-11.706
▁prescription	-11.706
▁probability	-11.706
▁civic	-11.706
▁feather	-11.706
▁brood	-11.7064
▁hazardous	-11.7064
▁forgive	-11.7065
▁gaya	-11.7069
▁batting	-11.7069
worth	-11.7071
▁pupa	-11.7077
▁nec	-11.7086
sutra	-11.7089
▁barbar	-11.7093
▁sharia	-11.7099
▁incentive	-11.7108
▁rust	-11.7118
▁crocodile	-11.712
▁divisible	-11.712
▁harishchandra	-11.712
▁helicopter	-11.712
▁redemption	-11.712
▁reservoir	-11.712
▁cancellation	-11.712
▁salvation	-11.712
▁swallow	-11.712
▁pigeon	-11.712
▁memorable	-11.712
▁funeral	-11.712
▁adalat	-11.712
▁tennis	-11.7121
▁disagreement	-11.7126
▁dumb	-11.7131
▁snap	-11.7173
▁akademi	-11.7181
▁fascinating	-11.7181
▁hitherto	-11.7181
▁narmadashank	-11.7181
▁tactics	-11.7181
▁unwilling	-11.7181
▁ghost	-11.7181
▁wicked	-11.7181
▁purification	-11.7181
▁minimize	-11.7181
▁diction	-11.7187
▁ugly	-11.7187
▁chatt	-11.7199
zen	-11.7221
▁grievous	-11.7241
▁pondicherry	-11.7241
▁vegetation	-11.7241
▁milestone	-11.7241
▁disbursement	-11.7241
▁nectar	-11.7242
▁disconnect	-11.7244
▁deform	-11.7254
icular	-11.7266
▁whip	-11.728
▁liaison	-11.7302
▁tunnel	-11.7302
▁expedient	-11.7302
▁yeah	-11.7302
▁rfp	-11.7302
▁ulcer	-11.7302
▁alumni	-11.7302
▁austria	-11.7302
▁spear	-11.7302
▁favorite	-11.7304
▁collaborative	-11.7305
▁fellowship	-11.7306
▁stuck	-11.731
▁plaint	-11.7313
▁ghats	-11.7319
▁causa	-11.7325
hoot	-11.7327
science	-11.7331
ghan	-11.7339
▁anterior	-11.7363
▁illustrious	-11.7363
▁ombudsman	-11.7363
▁privacy	-11.7363
▁substitution	-11.7363
▁vernacular	-11.7363
▁citrus	-11.7363
▁incarnation	-11.7363
▁eldest	-11.7363
▁facie	-11.7364
▁turtle	-11.7364
▁telegram	-11.7364
▁hiding	-11.7364
▁inhuman	-11.7364
▁prana	-11.7375
sufficiently	-11.7393
▁exile	-11.7395
▁habitation	-11.74
forestry	-11.7414
based	-11.7423
▁flour	-11.7423
▁obsolete	-11.7425
▁perpetual	-11.7425
▁sensitivity	-11.7425
▁retrieve	-11.7425
▁deceit	-11.7425
aceae	-11.7425
▁mahendra	-11.7427
▁brass	-11.7444
▁ferr	-11.7452
▁convince	-11.7464
▁niche	-11.7472
▁diabetic	-11.7487
▁obscure	-11.7487
▁replies	-11.7487
▁refined	-11.7487
▁cousin	-11.7487
▁incapable	-11.7488
▁trump	-11.7488
▁presume	-11.7488
▁rishi	-11.749
▁truck	-11.749
▁irish	-11.749
▁devoid	-11.7491
▁secretaries	-11.7491
▁nandi	-11.7494
▁alpha	-11.7495
ether	-11.7497
▁globalization	-11.7506
▁unrest	-11.7508
▁magnet	-11.752
while	-11.7525
griva	-11.7527
▁contradict	-11.753
iruni	-11.7539
▁atmospheric	-11.755
▁corridor	-11.755
▁equilibrium	-11.755
▁immune	-11.755
▁python	-11.755
▁refinance	-11.755
▁stabiliz	-11.755
▁aggravat	-11.755
▁opposing	-11.755
▁imbibe	-11.755
▁oxide	-11.755
napurna	-11.755
▁coarse	-11.755
▁wholesale	-11.7555
▁conformity	-11.7555
▁veena	-11.7556
▁heroine	-11.7557
▁scout	-11.756
vam	-11.7562
▁quart	-11.7591
▁paramount	-11.7613
▁antarctic	-11.7613
▁archaeological	-11.7613
▁cooperate	-11.7613
▁epidemic	-11.7613
▁purchasing	-11.7613
▁accusation	-11.7613
▁mahavira	-11.7613
▁pyramid	-11.7613
▁myanmar	-11.7613
▁timber	-11.7613
▁ecosystem	-11.7613
algia	-11.7617
▁excavation	-11.7626
▁asiatic	-11.7627
▁cyclone	-11.7676
▁diagnostic	-11.7676
▁kilometers	-11.7676
▁penetration	-11.7676
▁privy	-11.7676
▁fierce	-11.7676
▁seldom	-11.7676
▁bloom	-11.7676
▁chariot	-11.7676
▁biogas	-11.7676
▁enquire	-11.7676
▁mobilis	-11.7676
▁accomplish	-11.7684
▁customary	-11.7686
▁norway	-11.7688
▁accumulation	-11.7699
▁visva	-11.77
▁specifie	-11.7716
▁inaugura	-11.7728
marg	-11.773
▁caterpillar	-11.774
▁humility	-11.774
▁joseph	-11.774
▁voyage	-11.774
▁articulate	-11.774
▁calamity	-11.774
▁promulgat	-11.774
▁erosion	-11.774
▁concede	-11.774
▁lunar	-11.7741
▁medication	-11.7745
▁editorial	-11.7745
▁isbn	-11.7746
▁imitation	-11.7746
▁barley	-11.7747
faceted	-11.7783
control	-11.7791
▁parse	-11.7792
▁disburs	-11.7803
▁alexander	-11.7804
▁apparatus	-11.7804
▁compulsion	-11.7804
▁constituencies	-11.7804
▁cultivator	-11.7804
▁influential	-11.7804
▁knife	-11.7804
▁declaring	-11.7804
▁parliamentarian	-11.7804
▁inverse	-11.7804
▁cosine	-11.7805
▁foolish	-11.7806
▁encryption	-11.7809
▁cheek	-11.7809
▁attest	-11.7813
trans	-11.7824
▁conjunct	-11.7831
▁pollen	-11.7836
▁kiss	-11.7838
▁browse	-11.7857
colour	-11.7857
▁disagree	-11.7862
▁cigarette	-11.7868
▁continuation	-11.7868
▁discharging	-11.7868
▁hormone	-11.7868
▁reconcil	-11.7868
▁spectacular	-11.7868
▁divinity	-11.7868
▁trivial	-11.7868
▁swadeshi	-11.7868
▁psychology	-11.7869
▁animation	-11.7869
▁wilful	-11.7869
▁missionaries	-11.7874
▁yarn	-11.7875
▁functionaries	-11.7875
malai	-11.7922
▁lamb	-11.7922
▁ambit	-11.7925
▁celebrating	-11.7933
▁cholesterol	-11.7933
▁eclipse	-11.7933
▁mobility	-11.7933
▁optimum	-11.7933
▁reassessment	-11.7933
▁twelfth	-11.7933
▁solidarity	-11.7933
▁blessings	-11.7933
▁gobind	-11.7933
▁vpn	-11.7933
▁mahi	-11.7934
▁dissent	-11.7934
▁mirza	-11.7935
▁kenya	-11.7937
▁eradication	-11.7937
▁garland	-11.7939
▁prick	-11.7944
▁avoidance	-11.7945
▁null	-11.796
▁adjoining	-11.7999
▁collateral	-11.7999
▁hereinafter	-11.7999
▁luggage	-11.7999
▁afflict	-11.7999
▁blair	-11.7999
▁theoretical	-11.7999
▁unesco	-11.7999
▁minimal	-11.8
▁surendra	-11.8001
undergone	-11.8003
▁banned	-11.8003
▁banner	-11.8006
▁agony	-11.8009
▁penance	-11.8009
narayan	-11.8016
▁kush	-11.802
▁slaughter	-11.8064
recognizing	-11.8064
▁elevated	-11.8064
▁erstwhile	-11.8064
▁mysterious	-11.8064
▁preface	-11.8064
▁thailand	-11.8064
▁workforce	-11.8064
▁clarity	-11.8064
▁antenna	-11.8065
▁surdas	-11.8068
▁meantime	-11.8069
▁reverence	-11.8069
▁conclud	-11.8075
▁doubtful	-11.8079
▁stern	-11.8087
treating	-11.8098
▁malabar	-11.8126
▁chicago	-11.8131
▁cylinder	-11.8131
▁dravidian	-11.8131
▁entitlement	-11.8131
▁inconsistent	-11.8131
▁inequality	-11.8131
▁innocence	-11.8131
▁lakshmana	-11.8131
▁refrain	-11.8131
▁banknotes	-11.8131
▁increment	-11.8131
▁forfeit	-11.8131
▁genital	-11.8131
tmost	-11.8131
weight	-11.8132
▁henry	-11.8132
▁mathura	-11.8132
▁curtain	-11.8133
▁accessibility	-11.8135
▁xml	-11.8135
▁shining	-11.8136
▁creep	-11.8136
▁mash	-11.8137
onym	-11.8145
▁neph	-11.8146
▁eradicat	-11.8193
▁fraternit	-11.8197
▁lantern	-11.8197
▁motivation	-11.8197
▁puducherry	-11.8197
▁splendour	-11.8197
▁swimming	-11.8197
▁football	-11.8197
▁gokhale	-11.8197
▁fascist	-11.8197
▁packaging	-11.8197
▁hesitation	-11.8197
▁atlantic	-11.8197
▁swachh	-11.8197
▁nigeria	-11.8198
▁hurry	-11.8198
▁robber	-11.8199
▁intake	-11.82
▁marvel	-11.8201
▁champa	-11.8202
▁intercept	-11.8203
free	-11.8205
▁centenar	-11.8216
▁ranga	-11.8227
▁govind	-11.8229
oplasm	-11.8234
▁erase	-11.8258
▁omit	-11.8263
▁convincing	-11.8264
▁desperate	-11.8264
▁energies	-11.8264
▁legislator	-11.8264
▁madurai	-11.8264
▁stadium	-11.8264
▁leverage	-11.8264
▁analyst	-11.8264
▁depressed	-11.8264
▁jyoti	-11.8265
▁descendants	-11.8266
▁speculation	-11.8266
aditya	-11.8266
▁tumor	-11.827
▁nasal	-11.8271
▁faint	-11.8271
▁maz	-11.8271
▁neem	-11.8279
▁kashi	-11.8317
ttam	-11.8322
▁ankle	-11.8323
▁grind	-11.8323
▁destructive	-11.8332
▁electorate	-11.8332
▁gratuity	-11.8332
▁intimation	-11.8332
▁surveillance	-11.8332
▁thackeray	-11.8332
▁revenge	-11.8332
▁plague	-11.8332
altered	-11.8333
▁entrepreneurial	-11.8334
▁ratha	-11.8334
▁valve	-11.8334
▁nirmal	-11.8335
▁bravery	-11.8338
▁ishwar	-11.8357
▁almighty	-11.84
▁chatterjee	-11.84
▁extinguish	-11.84
▁advaita	-11.84
▁policyholder	-11.84
▁nalanda	-11.84
▁famine	-11.84
▁drift	-11.84
▁spider	-11.84
▁disguise	-11.84
▁mobiliz	-11.8401
▁poisonous	-11.8408
screen	-11.841
▁shyam	-11.843
▁insufficient	-11.8445
▁locate	-11.8445
▁stereo	-11.8454
▁aluminium	-11.8468
▁compensate	-11.8468
▁recurring	-11.8468
▁renaissance	-11.8468
▁shepherd	-11.8468
▁simplified	-11.8468
▁backbone	-11.8468
▁comrade	-11.8468
▁embark	-11.8468
▁pandavas	-11.8468
▁contingent	-11.8469
▁bhagavath	-11.8469
▁finite	-11.8469
▁dentist	-11.8469
▁trainees	-11.8469
▁proactive	-11.8471
▁stool	-11.8472
▁observance	-11.8472
▁relaxation	-11.8474
▁bloc	-11.8474
▁viewpoint	-11.8479
graduate	-11.8481
▁wiki	-11.8485
gorge	-11.8526
ptera	-11.853
▁apprentice	-11.8537
▁bhagwati	-11.8537
▁fountain	-11.8537
▁hypothesis	-11.8537
▁impersonal	-11.8537
▁indefinite	-11.8537
▁prudent	-11.8537
▁redundant	-11.8537
▁flavour	-11.8537
▁tehran	-11.8537
▁paralysis	-11.8537
▁thrill	-11.8537
▁kidnap	-11.8537
▁nowhere	-11.8538
▁spoil	-11.854
▁tsang	-11.854
encephal	-11.8542
▁erdo	-11.8546
▁coerc	-11.8549
▁cream	-11.855
piece	-11.8553
▁millet	-11.8569
▁communism	-11.8607
▁oppression	-11.8607
▁subhashbabu	-11.8607
▁intimidat	-11.8607
▁rejuvenat	-11.8607
▁unveil	-11.8607
▁arctic	-11.8607
▁karachi	-11.8607
▁thigh	-11.8607
▁handicapped	-11.8607
▁wolf	-11.8607
▁blade	-11.8607
▁superstructure	-11.8607
▁disparit	-11.8612
▁vishwa	-11.8618
voidable	-11.8647
▁adjacent	-11.8677
▁astronomy	-11.8677
▁bazaar	-11.8677
▁forbidden	-11.8677
▁matrimonial	-11.8677
▁nickname	-11.8677
▁registry	-11.8677
▁restructuring	-11.8677
▁shakespeare	-11.8677
▁udaipur	-11.8677
▁aromatic	-11.8677
▁stanza	-11.8677
▁ireland	-11.8677
▁unreal	-11.8677
▁motilal	-11.8677
▁clarification	-11.8678
▁reimbursement	-11.8679
▁smith	-11.8679
officio	-11.8681
▁grandson	-11.8682
▁agitate	-11.8686
▁chamba	-11.8694
▁imitat	-11.8694
government	-11.8698
rashtra	-11.87
▁fake	-11.8704
pani	-11.8743
▁contagious	-11.8747
▁contravention	-11.8747
▁indifferent	-11.8747
▁liberties	-11.8747
▁refineries	-11.8747
▁applaud	-11.8747
▁surgeon	-11.8747
▁pillow	-11.8747
▁storeyed	-11.8748
▁deployment	-11.8752
▁elite	-11.8754
▁anandamoy	-11.8818
▁consortium	-11.8818
▁disqualified	-11.8818
▁hussain	-11.8818
▁irrelevant	-11.8818
▁ophthalm	-11.8818
▁segregat	-11.8818
▁polluted	-11.8818
▁massacre	-11.8818
▁plunge	-11.8818
▁durable	-11.8819
▁pipeline	-11.8819
▁fanatic	-11.882
▁cleanliness	-11.882
▁extinction	-11.8822
▁shirt	-11.8822
▁convertible	-11.8823
▁conceptual	-11.8824
▁predator	-11.8824
▁abide	-11.8827
▁glance	-11.8831
▁endowment	-11.8835
spoken	-11.8846
▁infra	-11.885
sighted	-11.8851
sheet	-11.8855
▁awake	-11.8859
▁approximate	-11.8871
▁disillusion	-11.889
▁butterfly	-11.889
▁calamities	-11.889
▁devendranath	-11.889
▁embassy	-11.889
▁enumerated	-11.889
▁grasshopper	-11.889
▁imprisoned	-11.889
▁recourse	-11.889
▁rhyme	-11.889
▁kuwait	-11.889
▁banaras	-11.889
▁purport	-11.889
gnosis	-11.889
▁ajmer	-11.889
▁queue	-11.889
▁sindhu	-11.89
▁differentiate	-11.8911
▁devote	-11.8914
▁arriv	-11.893
ratified	-11.8941
▁maharaj	-11.8952
▁harass	-11.896
▁calculating	-11.8961
▁imbalance	-11.8961
▁offspring	-11.8961
▁rhetoric	-11.8961
▁chatrik	-11.8962
▁invoked	-11.8962
▁thorium	-11.8962
▁automated	-11.8962
▁dispatch	-11.8962
▁ventilat	-11.8962
▁courtyard	-11.8962
▁plaster	-11.8962
▁thumb	-11.8962
▁geeta	-11.8962
▁scanning	-11.8963
iferous	-11.8963
▁focal	-11.8965
wag	-11.8979
▁symptom	-11.8992
▁euro	-11.9005
▁cultivate	-11.9011
▁allegiance	-11.9034
▁comprehend	-11.9034
▁darjeeling	-11.9034
▁deprivation	-11.9034
▁imaginary	-11.9034
▁inappropriate	-11.9034
▁respiration	-11.9034
▁saturday	-11.9034
▁veterinary	-11.9034
▁grandeur	-11.9034
▁infirm	-11.9034
▁flew	-11.9034
▁rebate	-11.9034
▁defining	-11.9035
▁andrew	-11.9038
▁exotic	-11.9039
▁armour	-11.9039
▁salute	-11.9044
salman	-11.9048
▁jiva	-11.9059
▁kamba	-11.91
▁diaspora	-11.9107
▁licensing	-11.9107
▁paradigm	-11.9107
▁unemployed	-11.9107
▁advisable	-11.9107
▁barrister	-11.9107
▁credibility	-11.9107
▁veteran	-11.9107
▁spindle	-11.9107
▁stolen	-11.9107
▁updating	-11.9107
▁strait	-11.9108
▁demise	-11.9108
▁oversee	-11.9132
▁rudra	-11.9145
scribe	-11.9152
▁utilize	-11.9157
uitably	-11.917
wept	-11.918
acquitted	-11.918
▁amalgamated	-11.918
▁deterrence	-11.918
▁haplogroup	-11.918
▁maldives	-11.918
▁repository	-11.918
▁steadfast	-11.918
▁necessitat	-11.918
▁promising	-11.918
▁franchise	-11.9181
▁spacing	-11.9181
▁indicative	-11.9183
▁bhawan	-11.9187
fused	-11.9216
kanta	-11.923
simha	-11.9233
▁profess	-11.9238
▁advisor	-11.9241
▁continuance	-11.9255
▁dilemma	-11.9255
▁ecstasy	-11.9255
▁engaging	-11.9255
▁negligence	-11.9255
▁negotiable	-11.9255
▁combining	-11.9255
▁slender	-11.9255
▁bikaner	-11.9255
▁groundnut	-11.9255
▁rumour	-11.9255
▁louis	-11.9255
▁aspire	-11.9263
▁cyst	-11.9266
nomic	-11.9271
group	-11.9302
▁accelerate	-11.9306
▁irrigat	-11.9325
conferencing	-11.9329
▁galaxy	-11.9329
▁tendulkar	-11.9329
▁enmity	-11.9329
▁sangeet	-11.9329
▁enchant	-11.9329
▁singular	-11.933
▁negp	-11.9331
▁sarala	-11.9338
▁cheese	-11.9345
mohini	-11.9359
▁shareholder	-11.9368
▁bulh	-11.9372
▁inject	-11.9387
color	-11.9398
▁appliance	-11.9404
▁cautious	-11.9404
▁diarrhoea	-11.9404
▁facilitation	-11.9404
▁impediment	-11.9404
▁mahasabha	-11.9404
▁sentencing	-11.9404
▁skeleton	-11.9404
▁terrain	-11.9404
▁unsuccessful	-11.9404
▁analyze	-11.9404
▁apprehend	-11.9404
▁intrinsic	-11.9404
▁parasitic	-11.9404
▁prefix	-11.9404
▁myriad	-11.9404
▁anguish	-11.9404
▁stump	-11.9406
▁lunch	-11.9409
▁abolish	-11.9436
▁retire	-11.9454
people	-11.9459
▁embracing	-11.948
▁extremism	-11.948
▁kerosene	-11.948
▁luxury	-11.948
▁miscarriage	-11.948
▁rashtriya	-11.948
▁squadron	-11.948
▁turmeric	-11.948
▁deception	-11.948
▁jersey	-11.948
▁detriment	-11.948
▁issuance	-11.948
▁stature	-11.948
▁redeem	-11.948
▁fusion	-11.948
▁implant	-11.9481
▁nyaya	-11.9481
▁jurist	-11.9482
▁rotate	-11.9486
▁dominate	-11.9533
▁dedicate	-11.9535
▁dilut	-11.9543
frame	-11.9554
▁kyrgyz	-11.9556
▁abundance	-11.9556
▁cambridge	-11.9556
▁closure	-11.9556
▁continuity	-11.9556
▁hereditary	-11.9556
▁masjid	-11.9556
▁mischief	-11.9556
▁receivable	-11.9556
▁welcoming	-11.9556
▁horror	-11.9556
▁decoration	-11.9557
▁scott	-11.9557
▁sewage	-11.9557
▁ghee	-11.9557
▁stalk	-11.9558
▁crpc	-11.9559
▁preferably	-11.9559
▁ashamed	-11.956
▁akp	-11.9566
▁beggar	-11.9566
▁pelle	-11.9568
gau	-11.9579
▁epilepsy	-11.9633
▁incumbent	-11.9633
▁mushroom	-11.9633
▁netherlands	-11.9633
▁oxford	-11.9633
▁reconciliation	-11.9633
▁uzbek	-11.9633
▁wimbledon	-11.9633
▁ligament	-11.9633
▁temporal	-11.9633
▁abiding	-11.9634
▁seedlings	-11.9634
▁woke	-11.9634
▁crazy	-11.9634
▁trench	-11.9635
▁generic	-11.9635
▁acquaintance	-11.9636
▁sustainability	-11.9636
▁toggle	-11.9637
▁gracious	-11.9638
▁haribha	-11.9646
▁accreditation	-11.9711
▁amalgamating	-11.9711
▁executing	-11.9711
▁practicable	-11.9711
▁ignoring	-11.9711
▁kapoor	-11.9711
▁evaporat	-11.9711
▁movable	-11.9711
▁sensible	-11.9711
conscient	-11.9711
▁infinity	-11.9711
▁refract	-11.9711
▁hammer	-11.9711
▁drown	-11.9712
▁enclosure	-11.9713
▁regiment	-11.9715
tended	-11.9735
folk	-11.975
▁integrate	-11.9766
murti	-11.9784
▁compass	-11.9787
icipatory	-11.9789
▁appetite	-11.9789
▁feasible	-11.9789
▁relentless	-11.9789
▁covenant	-11.9789
▁optimal	-11.9789
▁probable	-11.9789
▁miserable	-11.9789
▁consuming	-11.9789
▁charging	-11.9789
▁challan	-11.9789
▁valour	-11.9789
▁outrage	-11.9789
▁heartening	-11.979
▁wrap	-11.979
▁asparagus	-11.9868
▁cataract	-11.9868
▁forefront	-11.9868
▁happily	-11.9868
▁impugned	-11.9868
▁intimacy	-11.9868
▁fatigue	-11.9868
▁facade	-11.9868
▁entail	-11.9868
▁broadband	-11.9869
▁ferment	-11.9869
▁compel	-11.9892
▁bicycle	-11.9947
▁brahmaputra	-11.9947
▁calculator	-11.9947
▁compatible	-11.9947
▁feasibility	-11.9947
▁subcontinent	-11.9947
▁supremacy	-11.9947
▁vijayanagar	-11.9947
▁consignment	-11.9947
▁harvard	-11.9947
▁junction	-11.9947
▁vidyalaya	-11.9947
▁cholera	-11.9947
▁introspect	-11.9947
▁tunisia	-11.9947
▁ethos	-11.9947
▁invoice	-11.9947
▁rifle	-11.9947
▁christmas	-11.9947
▁drastic	-11.9947
▁stupa	-11.9947
▁vascular	-11.9948
▁berlin	-11.9948
▁haemo	-11.9952
▁nsic	-11.9955
court	-11.9967
▁calculate	-12.0004
▁bladder	-12.0027
▁calculus	-12.0027
▁reconsider	-12.0027
▁unaware	-12.0027
▁formidable	-12.0027
▁saarc	-12.0027
▁parishad	-12.0028
▁whirl	-12.003
▁suburb	-12.0036
▁consume	-12.0076
▁allegation	-12.0083
▁argentina	-12.0108
▁attributable	-12.0108
▁bubble	-12.0108
▁ceremonies	-12.0108
▁hydrocarbon	-12.0108
▁midnight	-12.0108
▁molecular	-12.0108
▁posterior	-12.0108
▁hemisphere	-12.0108
▁hepatitis	-12.0108
▁sunrise	-12.0108
▁woven	-12.0108
▁lucid	-12.0108
▁simulation	-12.011
▁aerial	-12.0116
utosh	-12.0148
▁colleague	-12.0165
▁simultaneous	-12.017
▁replac	-12.0174
▁resolv	-12.0175
▁cumulative	-12.0189
▁intestinal	-12.0189
▁juvenile	-12.0189
▁malnutrition	-12.0189
▁thyroid	-12.0189
▁umpire	-12.0189
▁declining	-12.0189
▁scandal	-12.0189
▁cardiac	-12.0189
▁airways	-12.019
▁haunt	-12.019
▁benign	-12.019
▁curcum	-12.0191
▁sachin	-12.0195
▁refus	-12.0216
▁kaviraj	-12.0247
▁adhishthana	-12.0271
▁contemporaries	-12.0271
▁deterrent	-12.0271
▁disarmament	-12.0271
▁einstein	-12.0271
▁geometry	-12.0271
▁jobseeker	-12.0271
▁nuisance	-12.0271
▁qualitative	-12.0271
▁struggling	-12.0271
▁unmarried	-12.0271
▁autumn	-12.0271
▁triangle	-12.0271
▁arranging	-12.0271
▁complied	-12.0271
▁namibia	-12.0271
▁abilities	-12.0271
▁frozen	-12.0271
▁ruthless	-12.0271
▁optimiz	-12.0272
▁participant	-12.0333
▁appropriation	-12.0354
▁catalogue	-12.0354
▁judicious	-12.0354
▁relativity	-12.0354
▁uncommon	-12.0354
▁butterflies	-12.0354
▁manchester	-12.0354
▁tangible	-12.0354
▁godavari	-12.0354
▁motto	-12.0354
▁refining	-12.0354
▁epoch	-12.0354
▁residue	-12.0355
▁ardent	-12.0356
▁armenia	-12.0356
▁herald	-12.0357
▁undermine	-12.0393
▁pesticide	-12.0418
▁placenta	-12.0425
▁arafat	-12.0437
▁conclusive	-12.0437
▁deficiencies	-12.0437
▁effluent	-12.0437
▁enforcing	-12.0437
▁misleading	-12.0437
▁nyayalaya	-12.0437
▁compiler	-12.0437
▁dakota	-12.0437
▁unicef	-12.0437
▁krishi	-12.0437
▁abstain	-12.0437
▁swear	-12.0437
▁idiom	-12.0437
▁cripp	-12.0438
▁farther	-12.0438
▁multitude	-12.0438
▁wrapped	-12.0438
▁radioactive	-12.0438
▁tendencies	-12.0438
▁intact	-12.0439
▁shook	-12.0439
▁ibid	-12.0441
▁erupt	-12.0442
▁bump	-12.0443
▁socks	-12.0445
▁kutch	-12.0445
▁annul	-12.0474
selves	-12.05
▁balancing	-12.0521
▁interchange	-12.0521
▁lieutenant	-12.0521
▁mozambique	-12.0521
▁submarine	-12.0521
▁reflex	-12.0521
▁scarcity	-12.0521
▁terminology	-12.0521
▁interrogat	-12.0521
▁caliph	-12.0521
▁wield	-12.0521
▁bahrain	-12.0521
▁cantonment	-12.0521
▁integer	-12.0521
▁geological	-12.0522
▁hawk	-12.0528
▁yoke	-12.0528
▁typ	-12.0563
▁sacrific	-12.0586
▁equip	-12.0599
▁initiat	-12.06
▁ancestral	-12.0606
▁bridegroom	-12.0606
▁competitor	-12.0606
▁gwalior	-12.0606
▁merchandise	-12.0606
▁miniature	-12.0606
▁terrace	-12.0606
▁forthcoming	-12.0606
▁prostitute	-12.0606
▁automation	-12.0606
▁settling	-12.0606
▁deleting	-12.0606
▁queries	-12.0606
▁intricate	-12.0606
▁conserve	-12.0606
▁nephew	-12.0607
▁spasm	-12.061
▁pandya	-12.0612
▁lenin	-12.0614
▁brahm	-12.0622
▁grove	-12.0627
▁nasik	-12.0654
ogenesis	-12.0663
▁comptroller	-12.0691
▁disastrous	-12.0691
▁discriminate	-12.0691
▁diversified	-12.0691
▁hurricane	-12.0691
▁incredible	-12.0691
▁lakshadweep	-12.0691
▁meritorious	-12.0691
▁mountbatten	-12.0691
▁narasimha	-12.0691
▁perennial	-12.0691
▁reciprocat	-12.0691
▁battalion	-12.0691
▁ridicule	-12.0691
▁despatch	-12.0691
▁tournament	-12.0691
▁literate	-12.0691
▁linux	-12.0691
▁clutch	-12.0692
▁algeria	-12.0692
lipped	-12.0756
▁regulator	-12.0764
▁reluctant	-12.0777
▁transverse	-12.0777
▁unilateral	-12.0777
▁academia	-12.0777
▁deserving	-12.0777
▁deshbandhu	-12.0777
▁hockey	-12.0777
▁kshatriya	-12.0777
▁multiplied	-12.0777
▁presumption	-12.0777
▁jayadeva	-12.0778
▁bacchan	-12.0778
▁paradox	-12.0778
▁repression	-12.0778
▁lofty	-12.0778
▁shrub	-12.0778
▁eagle	-12.0778
▁ganesa	-12.0778
▁begum	-12.078
▁crease	-12.0781
▁evaluat	-12.0823
▁eject	-12.0842
synchronous	-12.0864
▁celestial	-12.0864
▁endeavor	-12.0864
▁imaginative	-12.0864
▁kazakhstan	-12.0864
▁scotland	-12.0864
▁spectacle	-12.0864
▁tyranny	-12.0864
▁pertinent	-12.0864
▁sprout	-12.0865
▁arteries	-12.0865
▁adherence	-12.0865
▁gdm	-12.0866
▁temptation	-12.0866
▁brook	-12.0866
▁avatar	-12.0872
▁acquittal	-12.0952
▁breeze	-12.0952
▁controversial	-12.0952
▁incompetent	-12.0952
▁suspicious	-12.0952
▁unpleasant	-12.0952
▁vocabulary	-12.0952
▁volatile	-12.0952
▁intolerance	-12.0952
▁crawl	-12.0953
▁emblem	-12.0953
▁purified	-12.0953
▁weaving	-12.0953
▁conceive	-12.0973
cultural	-12.0994
▁allocate	-12.1017
▁fortunate	-12.1022
▁abscess	-12.1041
▁accredited	-12.1041
▁exquisite	-12.1041
▁firefox	-12.1041
▁indebted	-12.1041
▁switzerland	-12.1041
▁tajmahal	-12.1041
▁tanzania	-12.1041
▁upgrading	-12.1041
▁shimla	-12.1041
▁urgency	-12.1041
▁espous	-12.1041
▁travers	-12.1041
▁turban	-12.1041
▁sublime	-12.1041
▁thrive	-12.1041
▁crust	-12.1042
▁sterling	-12.1042
residence	-12.1048
▁witch	-12.105
▁electrification	-12.113
▁fervour	-12.113
▁irreparable	-12.113
▁netanyahu	-12.113
▁saffron	-12.113
▁dignified	-12.113
▁censure	-12.113
▁mucous	-12.113
▁nymph	-12.113
▁compartment	-12.113
▁deceive	-12.113
▁parrot	-12.113
▁parcel	-12.113
▁pundit	-12.113
▁sanjay	-12.113
▁swiss	-12.113
▁intensifi	-12.1145
▁analytical	-12.122
▁atrocities	-12.122
▁ayurvedic	-12.122
▁gibraltar	-12.122
▁irritation	-12.122
▁locomotive	-12.122
▁skeletal	-12.122
▁amazon	-12.122
▁manmohan	-12.122
▁garbage	-12.122
▁edifice	-12.122
▁mygov	-12.122
▁extant	-12.122
▁gestation	-12.122
▁unfit	-12.122
▁sharad	-12.1253
year	-12.1279
▁enthusiastic	-12.1282
compromising	-12.1311
▁invaluable	-12.1311
▁khomeini	-12.1311
▁lodging	-12.1311
▁passphrase	-12.1311
▁shortcomings	-12.1311
▁shukla	-12.1311
▁undesirable	-12.1311
▁vicinity	-12.1311
believing	-12.1311
▁recession	-12.1311
▁vacuum	-12.1311
▁resurgen	-12.1311
▁striving	-12.1311
stricken	-12.1311
▁emulate	-12.1312
prayag	-12.1334
▁acceleration	-12.1403
▁adolescent	-12.1403
▁ancillary	-12.1403
▁browsing	-12.1403
▁coefficient	-12.1403
▁congenital	-12.1403
▁diligence	-12.1403
▁discontent	-12.1403
▁diversification	-12.1403
▁embarrassed	-12.1403
▁greece	-12.1403
▁illiteracy	-12.1403
▁nonsense	-12.1403
▁outsourcing	-12.1403
▁penetrate	-12.1403
▁remedial	-12.1403
▁gconf	-12.1403
▁baghdad	-12.1403
▁overnight	-12.1403
▁aditala	-12.1403
▁override	-12.1403
▁northwest	-12.1403
▁flaming	-12.1403
▁birla	-12.1403
▁shree	-12.1404
▁stalin	-12.1405
mrita	-12.1409
juncture	-12.1457
▁dissolve	-12.1472
▁circumstance	-12.1495
conceited	-12.1495
▁columbia	-12.1495
▁commemorative	-12.1495
▁economist	-12.1495
▁kathmandu	-12.1495
▁prithvi	-12.1495
▁resentment	-12.1495
▁totalitarian	-12.1495
▁persecut	-12.1495
▁sunshine	-12.1495
▁clinton	-12.1495
▁elicit	-12.1495
▁qazi	-12.1495
▁algae	-12.1495
▁thereupon	-12.1495
▁gently	-12.1496
▁sodium	-12.1496
▁citation	-12.1496
▁chloro	-12.1508
▁membr	-12.1523
▁arouse	-12.155
dynamic	-12.1563
eastern	-12.1563
pdf	-12.1563
▁acacia	-12.1589
▁alleviation	-12.1589
▁commemorate	-12.1589
▁conspicuous	-12.1589
▁intermediary	-12.1589
▁kirgiz	-12.1589
▁mulberry	-12.1589
▁straightforward	-12.1589
▁susceptible	-12.1589
▁zimbabwe	-12.1589
▁ganglion	-12.1589
▁malicious	-12.1589
▁marxist	-12.1589
▁teenage	-12.1589
▁routing	-12.1589
▁smear	-12.1589
▁reiterate	-12.166
▁bollywood	-12.1683
▁discomfort	-12.1683
▁horticultural	-12.1683
▁jhansi	-12.1683
▁kirghiz	-12.1683
▁prominence	-12.1683
▁resolute	-12.1683
▁supernatural	-12.1683
▁synonymous	-12.1683
▁blunt	-12.1683
▁rakesh	-12.1683
▁confusing	-12.1683
▁revolve	-12.1683
▁adobe	-12.1683
destined	-12.1684
▁conspir	-12.1684
▁variant	-12.1685
▁gloss	-12.1738
▁advocacy	-12.1778
▁breakfast	-12.1778
▁embellish	-12.1778
▁exploring	-12.1778
▁indulekha	-12.1778
▁monmouth	-12.1778
▁reaffirm	-12.1778
▁repetition	-12.1778
▁rewrite	-12.1778
▁travancore	-12.1778
▁turpentine	-12.1778
▁crusade	-12.1778
▁humidity	-12.1778
▁slokas	-12.1778
▁urinary	-12.1778
▁abatement	-12.1778
▁elastic	-12.1778
▁likelihood	-12.1778
▁celery	-12.1778
▁repudiate	-12.1778
▁cradle	-12.1779
▁coroner	-12.1779
▁knit	-12.1781
▁vikas	-12.179
▁sushil	-12.1792
▁geographic	-12.1801
▁overlook	-12.1808
service	-12.186
written	-12.186
misunderstanding	-12.1874
unconstitutional	-12.1874
▁auxiliary	-12.1874
▁constipation	-12.1874
▁currencies	-12.1874
▁eloquent	-12.1874
▁estimation	-12.1874
▁societal	-12.1874
▁splendid	-12.1874
▁certify	-12.1874
▁chawla	-12.1874
▁overthrow	-12.1875
▁severity	-12.1875
▁sastry	-12.1875
▁versus	-12.1875
▁anthem	-12.1875
▁costume	-12.1878
▁dacoit	-12.1885
cognizable	-12.1972
▁ahimsa	-12.1972
▁bereaved	-12.1972
▁chennamma	-12.1972
▁indemnity	-12.1972
▁moratorium	-12.1972
▁proximity	-12.1972
▁folklore	-12.1972
▁smriti	-12.1972
▁manifold	-12.1972
▁inference	-12.1972
▁blister	-12.1972
▁exhort	-12.1972
▁delineat	-12.1999
▁retina	-12.2003
▁automotive	-12.207
▁binoculars	-12.207
▁catastrophe	-12.207
▁ceylon	-12.207
▁dishonest	-12.207
▁diversify	-12.207
▁fluoride	-12.207
▁immunization	-12.207
▁multiplier	-12.207
▁reciprocal	-12.207
▁stanford	-12.207
▁therapeutic	-12.207
▁abbreviat	-12.207
▁dishonour	-12.207
▁reminiscen	-12.207
▁denounc	-12.207
▁disgust	-12.207
▁socket	-12.207
▁meerut	-12.207
leased	-12.2124
▁scatter	-12.2125
writer	-12.2166
▁jawahar	-12.2168
▁accelerator	-12.2169
▁affiliation	-12.2169
▁bandwidth	-12.2169
▁gambling	-12.2169
▁kernel	-12.2169
▁metallurg	-12.2169
▁unacceptable	-12.2169
▁unsupported	-12.2169
▁clarify	-12.2169
▁translating	-12.2169
▁daemon	-12.2169
▁swedish	-12.2169
▁dynamis	-12.2169
▁tumour	-12.2169
▁womb	-12.2169
▁snatch	-12.2171
toxin	-12.2221
▁turbine	-12.224
▁excavat	-12.2247
▁advancing	-12.2269
▁draupadi	-12.2269
▁emancipati	-12.2269
▁haguichi	-12.2269
▁inclination	-12.2269
▁obedience	-12.2269
▁predicament	-12.2269
▁proliferation	-12.2269
▁stimulus	-12.2269
▁synchronization	-12.2269
▁entrench	-12.2269
▁perpetuat	-12.2269
▁displaced	-12.2269
▁diversion	-12.2269
▁deletion	-12.2269
▁profiling	-12.2269
▁batsmen	-12.2269
▁smiling	-12.2269
▁bosom	-12.2269
▁manohar	-12.227
▁riddle	-12.2272
▁immuno	-12.2327
▁jagannath	-12.2336
▁applause	-12.237
▁concurrence	-12.237
▁coriander	-12.237
▁ineffective	-12.237
▁injurious	-12.237
▁khalifa	-12.237
▁musharraf	-12.237
▁platinum	-12.237
▁playwright	-12.237
▁sequential	-12.237
▁empirical	-12.237
▁midwife	-12.237
▁absurd	-12.237
▁farewell	-12.237
▁metaphor	-12.237
▁lobby	-12.237
▁obesity	-12.237
▁abhiyan	-12.237
▁censor	-12.237
▁ralbal	-12.237
▁reddish	-12.237
▁bankimchand	-12.2381
ophobia	-12.2402
▁recognis	-12.2432
▁cambodia	-12.2472
▁cerebral	-12.2472
▁cervical	-12.2472
▁humayun	-12.2472
▁ibrahim	-12.2472
▁immature	-12.2472
▁incorporation	-12.2472
▁multimedia	-12.2472
▁rashtrakuta	-12.2472
▁tortoise	-12.2472
▁voucher	-12.2472
▁disintegrat	-12.2472
▁secrecy	-12.2472
▁recreation	-12.2472
▁doorstep	-12.2472
2	-12.3669
1	-12.4022
3	-13.6699
4	-13.6699
्	-13.8544
$	-13.8545
–	-13.8546
*	-13.8547
_	-13.8548
—	-13.8549
}	-13.855
{	-13.8551
!	-13.8552
‘	-13.8553
9	-13.8554
#	-13.8555
’	-13.8556
%	-13.8557
?	-13.8558
“	-13.8559
”	-13.856
/	-13.8561
:	-13.8562
(	-13.8563
)	-13.8564
,	-13.8565
