<unk>	0
<s>	0
</s>	0
UuRrLl	0
DdAaTtEe	0
NnUuMm	0
▁क	-0
▁t	-1
he	-2
▁a	-3
▁स	-4
▁the	-5
in	-6
▁,	-7
▁o	-8
▁ह	-9
▁प	-10
re	-11
on	-12
▁म	-13
▁के	-14
या	-15
at	-16
er	-17
▁.	-18
ार	-19
en	-20
्र	-21
▁of	-22
▁s	-23
is	-24
ed	-25
▁न	-26
▁अ	-27
it	-28
▁c	-29
▁है	-30
▁p	-31
▁w	-32
nd	-33
▁b	-34
ें	-35
▁ज	-36
ion	-37
▁।	-38
▁व	-39
र्	-40
▁द	-41
▁in	-42
or	-43
es	-44
▁कि	-45
▁f	-46
an	-47
ar	-48
ता	-49
al	-50
▁में	-51
▁to	-52
as	-53
ों	-54
▁उ	-55
▁ब	-56
▁d	-57
ing	-58
▁ल	-59
्य	-60
ou	-61
▁को	-62
ने	-63
िक	-64
ic	-65
▁की	-66
▁and	-67
▁र	-68
▁प्र	-69
ent	-70
▁औ	-71
▁ग	-72
▁h	-73
▁और	-74
▁m	-75
▁आ	-76
▁th	-77
ित	-78
्त	-79
▁re	-80
ान	-81
▁कर	-82
▁त	-83
le	-84
ct	-85
ro	-86
▁से	-87
▁n	-88
▁be	-89
▁का	-90
▁इ	-91
▁भ	-92
िए	-93
▁S	-94
▁ए	-95
▁T	-96
ना	-97
▁is	-98
्व	-99
▁पर	-100
▁-	-101
▁e	-102
▁C	-103
▁य	-104
▁A	-105
ce	-106
ot	-107
os	-108
id	-109
▁I	-110
▁थ	-111
िय	-112
ही	-113
ation	-114
▁that	-115
il	-116
▁सं	-117
▁इस	-118
▁वि	-119
us	-120
om	-121
ut	-122
ve	-123
▁लिए	-124
▁)	-125
▁श	-126
▁(	-127
्या	-128
▁जा	-129
▁l	-130
्ष	-131
▁P	-132
ाल	-133
▁on	-134
im	-135
▁हो	-136
▁एक	-137
ad	-138
ment	-139
ur	-140
et	-141
▁किया	-142
वा	-143
हीं	-144
ाम	-145
▁नि	-146
ly	-147
▁च	-148
▁नहीं	-149
▁for	-150
ति	-151
▁या	-152
am	-153
▁con	-154
▁as	-155
▁The	-156
्ट	-157
▁यह	-158
ap	-159
▁by	-160
▁or	-161
▁pro	-162
▁g	-163
ारा	-164
▁de	-165
▁अप	-166
▁&	-167
st	-168
▁su	-169
▁गया	-170
▁अन	-171
क्ष	-172
her	-173
▁was	-174
▁ने	-175
▁सम	-176
के	-177
ch	-178
▁not	-179
ri	-180
ll	-181
pp	-182
ate	-183
क्त	-184
▁u	-185
▁अध	-186
सी	-187
▁wh	-188
ver	-189
▁था	-190
▁हैं	-191
▁an	-192
▁/	-193
िया	-194
िस	-195
▁M	-196
our	-197
ेश	-198
▁करने	-199
ay	-200
्थ	-201
▁wit	-202
ow	-203
ir	-204
ले	-205
▁भी	-206
▁R	-207
ant	-208
▁it	-209
न्	-210
ला	-211
ain	-212
▁st	-213
ती	-214
ld	-215
if	-216
se	-217
▁B	-218
ाय	-219
▁द्व	-220
ter	-221
▁उस	-222
ते	-223
▁with	-224
▁सा	-225
▁द्वारा	-226
▁ख	-227
▁D	-228
apos	-229
ig	-230
▁H	-231
ere	-232
▁he	-233
ul	-234
रा	-235
ab	-236
▁N	-237
हा	-238
त्र	-239
qu	-240
ect	-241
कार	-242
ess	-243
▁app	-244
ers	-245
ड़	-246
ol	-247
▁has	-248
▁ex	-249
नी	-250
री	-251
ge	-252
▁रा	-253
res	-254
ूप	-255
िन	-256
ition	-257
▁com	-258
ाद	-259
and	-260
▁अनु	-261
▁कार	-262
▁v	-263
▁जो	-264
ist	-265
िका	-266
ra	-267
▁al	-268
गा	-269
्प	-270
ourt	-271
▁सक	-272
ोग	-273
▁दे	-274
▁निर्	-275
कर्	-276
ियों	-277
ak	-278
▁रूप	-279
▁are	-280
est	-281
देश	-282
ated	-283
ity	-284
ां	-285
ष्ट	-286
cc	-287
od	-288
▁G	-289
ich	-290
▁:	-291
ore	-292
ास	-293
▁न्या	-294
▁उप	-295
ाव	-296
ther	-297
ारी	-298
end	-299
▁at	-300
ंध	-301
▁which	-302
ud	-303
ाह	-304
▁sh	-305
▁फ	-306
▁ha	-307
art	-308
rom	-309
▁this	-310
द्	-311
कर्ता	-312
nder	-313
iv	-314
um	-315
▁E	-316
▁O	-317
्री	-318
ाप	-319
िल	-320
▁प्रति	-321
ould	-322
ence	-323
▁res	-324
ec	-325
▁Court	-326
nt	-327
ort	-328
▁from	-329
ियम	-330
▁अधिक	-331
से	-332
बंध	-333
धार	-334
la	-335
▁under	-336
ies	-337
ंग	-338
gh	-339
ओं	-340
▁In	-341
▁le	-342
मा	-343
▁हु	-344
▁सु	-345
▁मु	-346
▁ले	-347
▁उन	-348
लय	-349
ील	-350
▁माम	-351
▁y	-352
▁have	-353
स्त	-354
▁W	-355
ive	-356
▁न्याया	-357
रण	-358
ure	-359
सा	-360
ial	-361
▁L	-362
ase	-363
ice	-364
का	-365
▁साथ	-366
un	-367
रो	-368
em	-369
▁याच	-370
▁ड	-371
▁पू	-372
न्ह	-373
▁दिया	-374
▁his	-375
▁याचिका	-376
etition	-377
हत	-378
▁जिस	-379
▁किसी	-380
्च	-381
▁पह	-382
▁there	-383
ard	-384
्म	-385
कि	-386
oc	-387
▁been	-388
ction	-389
▁K	-390
ted	-391
ill	-392
ाग	-393
त्त	-394
▁ध	-395
all	-396
ोज	-397
op	-398
▁'	-399
▁कोई	-400
▁F	-401
▁j	-402
ell	-403
pl	-404
▁हम	-405
▁acc	-406
▁any	-407
▁0	-408
ust	-409
▁व्य	-410
▁गई	-411
▁स्थ	-412
red	-413
▁petition	-414
▁थी	-415
▁cont	-416
pon	-417
की	-418
्ल	-419
वाद	-420
▁fa	-421
so	-422
▁वह	-423
ord	-424
▁घ	-425
▁स्व	-426
ंद	-427
▁J	-428
▁ही	-429
▁dis	-430
▁राज	-431
▁गए	-432
▁whe	-433
ff	-434
aid	-435
▁उन्ह	-436
▁सकता	-437
▁तथ	-438
▁ट	-439
ंड	-440
▁कु	-441
▁se	-442
िव	-443
able	-444
ाना	-445
ृत	-446
▁न्यायालय	-447
▁ad	-448
ance	-449
▁अभ	-450
▁पु	-451
खा	-452
्ता	-453
▁also	-454
▁sub	-455
▁आव	-456
▁तो	-457
▁सी	-458
th	-459
▁विश	-460
▁per	-461
ia	-462
क्ति	-463
ie	-464
▁ch	-465
वि	-466
▁ऐ	-467
▁ab	-468
▁can	-469
▁case	-470
ame	-471
ary	-472
▁It	-473
▁had	-474
▁r	-475
स्थ	-476
▁वर्	-477
▁जाता	-478
ag	-479
ंच	-480
▁संबंध	-481
ear	-482
▁चाह	-483
mit	-484
▁all	-485
▁अपने	-486
▁Ind	-487
▁ag	-488
▁ev	-489
lic	-490
▁;	-491
der	-492
▁no	-493
fore	-494
ात	-495
्यों	-496
used	-497
▁int	-498
▁तक	-499
ेद	-500
▁part	-501
चार	-502
▁याचिकाकर्ता	-503
▁im	-504
▁पी	-505
▁मामले	-506
sion	-507
ंत	-508
ous	-509
ac	-510
▁बाद	-511
▁अपील	-512
ीन	-513
र्व	-514
▁तहत	-515
▁were	-516
▁कहा	-517
▁No	-518
▁जब	-519
▁such	-520
रे	-521
ned	-522
over	-523
्क	-524
ंक	-525
ire	-526
▁k	-527
ision	-528
▁other	-529
▁थे	-530
pt	-531
द्ध	-532
▁दो	-533
▁Th	-534
igh	-535
du	-536
▁वाल	-537
▁comp	-538
▁St	-539
▁prov	-540
रह	-541
ution	-542
ूल	-543
धान	-544
▁भार	-545
per	-546
▁rec	-547
दा	-548
ंब	-549
भी	-550
ुत	-551
rou	-552
▁सि	-553
▁कार्य	-554
el	-555
age	-556
पी	-557
▁अव	-558
▁आप	-559
ade	-560
▁V	-561
ून	-562
में	-563
▁आदेश	-564
▁रह	-565
▁sp	-566
ount	-567
दि	-568
▁छ	-569
जी	-570
ind	-571
िला	-572
▁वे	-573
र्ट	-574
योग	-575
च्च	-576
ict	-577
ip	-578
ru	-579
▁साम	-580
▁बना	-581
▁तरह	-582
▁ne	-583
mis	-584
▁ar	-585
▁किए	-586
कर	-587
▁said	-588
गे	-589
▁en	-590
▁inc	-591
▁क्ष	-592
▁cons	-593
िट	-594
ib	-595
▁अधिन	-596
▁अन्य	-597
ide	-598
▁off	-599
ोंने	-600
erv	-601
▁Act	-602
▁order	-603
▁would	-604
▁अधिनियम	-605
ome	-606
िप	-607
▁U	-608
fter	-609
▁dec	-610
ुक्त	-611
out	-612
pos	-613
▁चाहिए	-614
ब्	-615
▁सर	-616
▁हुए	-617
▁दी	-618
ght	-619
मान	-620
use	-621
▁करना	-622
ाध	-623
▁qu	-624
ली	-625
pond	-626
्स	-627
▁we	-628
ुर	-629
ical	-630
aw	-631
▁सह	-632
िर	-633
▁un	-634
rit	-635
port	-636
ue	-637
ाप्त	-638
ime	-639
ection	-640
ish	-641
▁pl	-642
▁reg	-643
सार	-644
erson	-645
ारे	-646
▁सू	-647
ass	-648
▁तथा	-649
ans	-650
▁who	-651
ोट	-652
ub	-653
गी	-654
िश	-655
pondent	-656
र्थ	-657
ied	-658
▁tr	-659
▁समय	-660
▁their	-661
▁do	-662
▁उन्होंने	-663
श्य	-664
वादी	-665
▁आरो	-666
▁pres	-667
ष्	-668
ations	-669
▁pos	-670
istr	-671
▁बी	-672
क्र	-673
▁उसके	-674
ong	-675
▁person	-676
overn	-677
▁Ch	-678
▁He	-679
▁petitioner	-680
▁पहले	-681
▁tak	-682
लिए	-683
्रे	-684
ढ़	-685
▁कारण	-686
▁मान	-687
▁इसलिए	-688
ced	-689
ंत्र	-690
orm	-691
▁made	-692
▁अधिकार	-693
▁कुछ	-694
iz	-695
▁one	-696
▁करता	-697
aint	-698
▁राज्य	-699
▁am	-700
▁me	-701
ep	-702
▁but	-703
▁out	-704
▁its	-705
▁होने	-706
ree	-707
▁सरकार	-708
ident	-709
▁जै	-710
नों	-711
iff	-712
▁जाए	-713
oin	-714
▁rel	-715
जा	-716
▁so	-717
र्ण	-718
▁Com	-719
ments	-720
▁India	-721
िति	-722
्ञ	-723
▁पार	-724
av	-725
ult	-726
ेष	-727
▁करते	-728
▁pre	-729
▁wor	-730
▁उनके	-731
▁पा	-732
ail	-733
▁respondent	-734
▁प्रतिवादी	-735
स्ता	-736
▁may	-737
ered	-738
▁ला	-739
▁कम	-740
▁accused	-741
चित	-742
▁दू	-743
▁ob	-744
ेत्र	-745
िम	-746
▁मै	-747
▁इन	-748
▁Ex	-749
▁आधार	-750
▁mat	-751
▁अभिय	-752
्न	-753
श्यक	-754
▁will	-755
ast	-756
ased	-757
▁him	-758
og	-759
▁fact	-760
▁they	-761
▁man	-762
ोक	-763
न्न	-764
▁def	-765
▁कान	-766
▁क्षेत्र	-767
िना	-768
▁पक्ष	-769
one	-770
ok	-771
ness	-772
▁PW	-773
▁year	-774
र्म	-775
▁रख	-776
▁आवश्यक	-777
▁नियम	-778
overnment	-779
▁only	-780
▁ओ	-781
▁मे	-782
stit	-783
भाव	-784
▁बह	-785
▁शिक	-786
ine	-787
ellant	-788
▁her	-789
▁भारत	-790
pect	-791
▁इसके	-792
किन	-793
▁time	-794
ंबर	-795
▁व्यक्ति	-796
वल	-797
ces	-798
▁होता	-799
ंप	-800
ific	-801
▁सभी	-802
ile	-803
▁State	-804
are	-805
▁प्रद	-806
ीय	-807
▁लेकिन	-808
ry	-809
▁विचार	-810
ाज	-811
क्षा	-812
राध	-813
ove	-814
rib	-815
▁ass	-816
▁होगा	-817
mitted	-818
▁again	-819
ल्	-820
▁As	-821
▁if	-822
▁उत्त	-823
▁सब	-824
▁निर्ण	-825
ings	-826
▁श्री	-827
ach	-828
idence	-829
▁pr	-830
▁उत	-831
▁you	-832
ious	-833
uth	-834
▁स्प	-835
्छ	-836
▁प्राप्त	-837
ory	-838
▁आय	-839
mission	-840
वाह	-841
धि	-842
▁निर्णय	-843
hed	-844
ject	-845
ik	-846
▁मृत	-847
▁ent	-848
▁before	-849
▁केवल	-850
▁रहा	-851
▁अपनी	-852
▁जांच	-853
▁अस	-854
▁same	-855
▁appellant	-856
ise	-857
▁अनुसार	-858
ेज	-859
▁विभ	-860
form	-861
▁उक्त	-862
टी	-863
▁ri	-864
▁Sh	-865
▁वाले	-866
▁sc	-867
▁ind	-868
ual	-869
ood	-870
▁applic	-871
ang	-872
▁निय	-873
▁अद	-874
▁लगा	-875
▁em	-876
ee	-877
▁iss	-878
▁यदि	-879
▁उसे	-880
me	-881
ुल	-882
ah	-883
▁after	-884
ound	-885
▁inv	-886
ath	-887
ौर	-888
sel	-889
ालत	-890
▁बै	-891
ाई	-892
▁?	-893
शन	-894
च्छ	-895
▁चु	-896
पू	-897
र्त	-898
▁अंत	-899
▁law	-900
▁विशेष	-901
▁दर्	-902
र्ड	-903
▁ref	-904
▁shall	-905
▁%	-906
▁प्रकार	-907
▁Government	-908
दे	-909
▁Su	-910
amp	-911
▁jud	-912
ूम	-913
ty	-914
▁परि	-915
▁वर्ष	-916
▁जाना	-917
▁consid	-918
ber	-919
▁This	-920
▁where	-921
जन	-922
erm	-923
▁जी	-924
uthor	-925
▁मूल	-926
▁अपीलकर्ता	-927
.0	-928
▁when	-929
▁ac	-930
oy	-931
▁अल	-932
▁evidence	-933
▁There	-934
ating	-935
▁स्पष्ट	-936
urther	-937
inal	-938
▁dated	-939
▁पूर्व	-940
vel	-941
▁them	-942
ention	-943
not	-944
▁नंबर	-945
iew	-946
▁अदालत	-947
▁उन्हें	-948
▁against	-949
▁दाय	-950
▁धारा	-951
very	-952
▁उत्तर	-953
▁निर्धार	-954
▁fil	-955
▁Con	-956
▁प्रस्त	-957
▁अग	-958
▁being	-959
▁imp	-960
िज	-961
ates	-962
▁क्यों	-963
▁tw	-964
aj	-965
्रा	-966
ost	-967
▁should	-968
▁राष्ट	-969
चना	-970
ign	-971
द्य	-972
▁पै	-973
▁requ	-974
▁उच्च	-975
ight	-976
▁रहे	-977
▁court	-978
▁मैं	-979
▁आवेद	-980
▁work	-981
ert	-982
▁जाने	-983
▁record	-984
माण	-985
कों	-986
▁cla	-987
▁writ	-988
▁inter	-989
ities	-990
हां	-991
ोजन	-992
▁up	-993
▁Re	-994
ेक	-995
▁pur	-996
िख	-997
ose	-998
त्य	-999
ख्या	-1000
▁जारी	-1001
▁pol	-1002
▁कानून	-1003
ank	-1004
▁right	-1005
▁On	-1006
oint	-1007
▁प्रस्तुत	-1008
िता	-1009
▁into	-1010
▁दूस	-1011
▁conc	-1012
▁pla	-1013
▁act	-1014
▁आगे	-1015
▁pass	-1016
▁about	-1017
करण	-1018
स्ताव	-1019
▁giv	-1020
▁cannot	-1021
ेल	-1022
रिक	-1023
ark	-1024
▁“	-1025
▁प्रश	-1026
▁गु	-1027
▁संप	-1028
own	-1029
दार	-1030
▁लाग	-1031
ज्ञ	-1032
ंट	-1033
▁bec	-1034
ब्ल	-1035
▁state	-1036
▁स्वी	-1037
▁उत्प	-1038
▁एस	-1039
▁cl	-1040
त्ति	-1041
ian	-1042
ward	-1043
ोर्ट	-1044
▁lear	-1045
▁बात	-1046
ष्ठ	-1047
ादी	-1048
▁संबंधित	-1049
ract	-1050
ex	-1051
▁जान	-1052
▁देने	-1053
nce	-1054
▁समझ	-1055
▁fir	-1056
irect	-1057
ाइ	-1058
▁सेवा	-1059
ceed	-1060
धी	-1061
▁व्या	-1062
▁disc	-1063
टना	-1064
▁क्योंकि	-1065
▁अपराध	-1066
▁comm	-1067
▁two	-1068
दर्	-1069
▁mak	-1070
oll	-1071
▁ऐसे	-1072
▁further	-1073
क्षण	-1074
▁provision	-1075
▁gr	-1076
▁हाल	-1077
▁विश्व	-1078
▁serv	-1079
▁बारे	-1080
▁मौ	-1081
▁over	-1082
ular	-1083
▁present	-1084
▁बो	-1085
▁these	-1086
stitution	-1087
led	-1088
▁जिसमें	-1089
▁रु	-1090
ite	-1091
▁खिला	-1092
िंग	-1093
ower	-1094
लों	-1095
▁ट्र	-1096
ांत	-1097
leg	-1098
ेट	-1099
▁लिया	-1100
▁”	-1101
▁witness	-1102
ause	-1103
ड़ी	-1104
ens	-1105
ublic	-1106
▁क्या	-1107
ason	-1108
▁पास	-1109
▁kn	-1110
ress	-1111
▁हुआ	-1112
wn	-1113
old	-1114
ack	-1115
ative	-1116
▁कंप	-1117
ffic	-1118
▁वै	-1119
eal	-1120
lect	-1121
▁set	-1122
वन	-1123
▁मह	-1124
ute	-1125
▁proper	-1126
▁देख	-1127
ond	-1128
amin	-1129
▁नाम	-1130
ये	-1131
▁काम	-1132
estion	-1133
▁author	-1134
▁बता	-1135
▁खिलाफ	-1136
ूत	-1137
र्क	-1138
▁att	-1139
pre	-1140
act	-1141
ड़ा	-1142
▁प्रदान	-1143
▁स्थान	-1144
▁spec	-1145
▁rem	-1146
ained	-1147
▁बहुत	-1148
▁न्याय	-1149
▁some	-1150
▁i	-1151
डब्ल	-1152
▁ओर	-1153
▁आरोपी	-1154
▁कोर्ट	-1155
▁dece	-1156
▁निर्धारित	-1157
▁भूम	-1158
▁लोग	-1159
पूर्ण	-1160
ुग	-1161
▁पत्र	-1162
ays	-1163
न्द	-1164
▁stated	-1165
▁land	-1166
ever	-1167
▁learned	-1168
क्रिया	-1169
sec	-1170
▁char	-1171
▁क्र	-1172
▁SC	-1173
ved	-1174
▁De	-1175
▁कह	-1176
▁अलग	-1177
rial	-1178
dition	-1179
▁ऐसा	-1180
▁could	-1181
▁rep	-1182
ational	-1183
लिस	-1184
जे	-1185
▁लग	-1186
een	-1187
ायत	-1188
▁उसने	-1189
▁she	-1190
स्ट	-1191
▁आरोप	-1192
▁view	-1193
▁bet	-1194
▁more	-1195
ोर	-1196
▁भाग	-1197
▁गवाह	-1198
ild	-1199
oun	-1200
uring	-1201
▁report	-1202
ession	-1203
▁deceased	-1204
▁our	-1205
▁नी	-1206
▁अनुम	-1207
▁करें	-1208
▁held	-1209
▁प्रभाव	-1210
ावधान	-1211
त्म	-1212
▁Pro	-1213
▁matter	-1214
▁दु	-1215
▁रिप	-1216
▁ऊ	-1217
round	-1218
any	-1219
▁An	-1220
ोष	-1221
ाधिक	-1222
▁लागू	-1223
▁प्रावधान	-1224
▁बीच	-1225
▁taken	-1226
ताओं	-1227
▁trans	-1228
ash	-1229
▁first	-1230
▁सकती	-1231
▁प्रक्रिया	-1232
▁शाम	-1233
▁issu	-1234
▁even	-1235
eral	-1236
ोजना	-1237
lud	-1238
▁जाती	-1239
जू	-1240
्यू	-1241
ature	-1242
▁proceed	-1243
▁Y	-1244
▁रिपोर्ट	-1245
ास्त	-1246
▁filed	-1247
▁स्वीकार	-1248
▁Ad	-1249
▁ठ	-1250
▁साक्ष	-1251
▁मृतक	-1252
ड़े	-1253
▁reason	-1254
्रीय	-1255
आर	-1256
▁op	-1257
ार्	-1258
▁सकते	-1259
▁होती	-1260
▁सद	-1261
ility	-1262
वाही	-1263
ible	-1264
▁दायर	-1265
▁अधिकारी	-1266
ised	-1267
▁पुलिस	-1268
नि	-1269
▁पीडब्ल	-1270
▁रिक	-1271
तीय	-1272
▁ता	-1273
ife	-1274
ोध	-1275
▁मिल	-1276
▁Pr	-1277
्यान	-1278
▁pay	-1279
▁plaint	-1280
▁years	-1281
▁मुख	-1282
▁आवेदन	-1283
▁form	-1284
▁Sing	-1285
ग्र	-1286
वी	-1287
▁आर	-1288
▁दर्ज	-1289
ike	-1290
ाध्य	-1291
आई	-1292
▁जहां	-1293
▁judg	-1294
cy	-1295
नीय	-1296
ving	-1297
▁परिव	-1298
भा	-1299
▁pe	-1300
▁diff	-1301
ided	-1302
ug	-1303
▁वादी	-1304
▁जन	-1305
ited	-1306
▁compl	-1307
ors	-1308
▁परिस	-1309
▁det	-1310
▁sec	-1311
ाँ	-1312
▁उनकी	-1313
iction	-1314
▁ऑ	-1315
ired	-1316
▁decision	-1317
▁बढ़	-1318
▁prosec	-1319
▁फिर	-1320
▁अर्थ	-1321
म्	-1322
▁given	-1323
▁स्ट	-1324
oth	-1325
▁produ	-1326
ffect	-1327
▁हुई	-1328
रों	-1329
▁ro	-1330
▁question	-1331
▁claim	-1332
▁ext	-1333
▁उपयोग	-1334
▁जाएगा	-1335
ूं	-1336
ploy	-1337
▁शामिल	-1338
▁regard	-1339
दी	-1340
श्च	-1341
▁देश	-1342
ची	-1343
ha	-1344
▁बे	-1345
▁poss	-1346
ax	-1347
एं	-1348
▁जैसा	-1349
irc	-1350
कारी	-1351
ven	-1352
▁exp	-1353
reat	-1354
▁सर्व	-1355
▁इसे	-1356
▁ऐसी	-1357
▁निर्देश	-1358
▁निक	-1359
▁consider	-1360
▁योग	-1361
▁leg	-1362
एस	-1363
▁well	-1364
ollow	-1365
velop	-1366
▁परी	-1367
ानी	-1368
▁राष्ट्र	-1369
▁Un	-1370
शि	-1371
▁Rs	-1372
rough	-1373
ाने	-1374
मे	-1375
▁भारतीय	-1376
endant	-1377
▁te	-1378
ृति	-1379
ified	-1380
डी	-1381
▁must	-1382
▁High	-1383
▁उद्	-1384
▁बार	-1385
तिक	-1386
▁माना	-1387
▁खु	-1388
ंह	-1389
▁respect	-1390
▁शिकायत	-1391
ween	-1392
ting	-1393
▁appro	-1394
▁अभियोजन	-1395
▁term	-1396
▁Jud	-1397
istrict	-1398
▁supp	-1399
तर	-1400
▁स्थिति	-1401
ough	-1402
▁दा	-1403
▁des	-1404
ook	-1405
▁mem	-1406
तान	-1407
owever	-1408
▁पीडब्लू	-1409
दर्भ	-1410
▁follow	-1411
▁application	-1412
▁दिन	-1413
▁व्यक्त	-1414
▁between	-1415
▁than	-1416
▁found	-1417
▁plaintiff	-1418
▁us	-1419
ily	-1420
▁inst	-1421
▁भूमि	-1422
ram	-1423
▁दोनों	-1424
गत	-1425
▁संदर्भ	-1426
▁पद	-1427
cept	-1428
▁संख्या	-1429
ंस	-1430
▁उचित	-1431
▁उसकी	-1432
▁जि	-1433
लेख	-1434
▁just	-1435
ful	-1436
ient	-1437
▁घटना	-1438
िस्ट	-1439
▁मां	-1440
▁upon	-1441
ब्द	-1442
▁Bh	-1443
▁दौर	-1444
▁हि	-1445
▁conf	-1446
▁ग्र	-1447
▁suit	-1448
▁कंपनी	-1449
▁like	-1450
▁बिना	-1451
ouse	-1452
▁अब	-1453
▁उठ	-1454
▁above	-1455
▁स्थाप	-1456
▁inform	-1457
▁पारित	-1458
▁करे	-1459
ज़	-1460
फल	-1461
▁through	-1462
युक्त	-1463
▁go	-1464
erred	-1465
▁पर्	-1466
▁फै	-1467
▁cle	-1468
erc	-1469
▁therefore	-1470
िन्न	-1471
▁ध्यान	-1472
▁व्यव	-1473
हित	-1474
ble	-1475
स्था	-1476
वाई	-1477
िकास	-1478
्यालय	-1479
ार्थ	-1480
▁भुग	-1481
▁then	-1482
▁आवश्यकता	-1483
▁bel	-1484
hi	-1485
▁प्राधिक	-1486
▁employ	-1487
ाया	-1488
ाथ	-1489
▁new	-1490
iod	-1491
ुक	-1492
▁public	-1493
▁examin	-1494
▁circ	-1495
▁मन	-1496
ॉर्ड	-1497
self	-1498
ालन	-1499
▁count	-1500
▁within	-1501
▁विकास	-1502
ended	-1503
▁रिट	-1504
▁दौरान	-1505
▁शिक्ष	-1506
vers	-1507
ari	-1508
▁direct	-1509
ोल	-1510
▁amount	-1511
▁रखा	-1512
▁We	-1513
▁submitted	-1514
कृत	-1515
other	-1516
▁did	-1517
▁Mr	-1518
▁शुर	-1519
▁power	-1520
▁मध	-1521
िखा	-1522
▁find	-1523
ody	-1524
▁भुगतान	-1525
▁period	-1526
▁here	-1527
▁passed	-1528
▁वर्त	-1529
▁place	-1530
▁Singh	-1531
▁विक	-1532
ित्व	-1533
▁दिना	-1534
erest	-1535
ale	-1536
ople	-1537
▁निष	-1538
▁ra	-1539
▁दिनांक	-1540
preme	-1541
▁defendant	-1542
▁ई	-1543
द्योग	-1544
ाली	-1545
▁दिए	-1546
▁अनुमति	-1547
its	-1548
▁वर्तमान	-1549
▁bas	-1550
te	-1551
मार	-1552
▁does	-1553
▁without	-1554
▁judgment	-1555
inc	-1556
▁doc	-1557
ules	-1558
▁कर्म	-1559
िखित	-1560
▁बया	-1561
ances	-1562
▁राशि	-1563
ral	-1564
rim	-1565
▁सामान	-1566
esh	-1567
▁date	-1568
चे	-1569
abl	-1570
▁provisions	-1571
▁offic	-1572
ural	-1573
ording	-1574
▁includ	-1575
क्रम	-1576
▁Supreme	-1577
▁par	-1578
पर	-1579
ification	-1580
▁जिसे	-1581
▁val	-1582
▁प्रत्य	-1583
▁invest	-1584
▁prosecution	-1585
▁विवाद	-1586
▁रिकॉर्ड	-1587
ng	-1588
▁Section	-1589
▁सिद्ध	-1590
▁साक्ष्य	-1591
▁appeal	-1592
▁Ar	-1593
cess	-1594
oci	-1595
▁जिसके	-1596
▁cert	-1597
▁उत्पाद	-1598
ांकि	-1599
▁हालांकि	-1600
▁वास्त	-1601
▁उद्देश	-1602
▁पूरी	-1603
▁occ	-1604
पति	-1605
ेड	-1606
▁सदस	-1607
▁लाभ	-1608
क्ट	-1609
▁जैसे	-1610
▁कार्यवाही	-1611
li	-1612
▁अपना	-1613
▁दृ	-1614
▁कै	-1615
▁सहाय	-1616
▁अधीन	-1617
▁सिंह	-1618
rap	-1619
शोध	-1620
▁interest	-1621
▁तै	-1622
ater	-1623
urn	-1624
▁inj	-1625
▁बाह	-1626
बी	-1627
▁पता	-1628
▁fe	-1629
ric	-1630
▁महत	-1631
▁petitioners	-1632
▁ret	-1633
▁तथ्य	-1634
▁own	-1635
ince	-1636
▁Indian	-1637
▁est	-1638
यन	-1639
धीश	-1640
▁माध्य	-1641
्यता	-1642
▁खंड	-1643
कर्ष	-1644
und	-1645
▁होना	-1646
▁people	-1647
▁प्रव	-1648
▁शक्ति	-1649
को	-1650
▁स्त	-1651
ोड़	-1652
▁differe	-1653
▁शब्द	-1654
▁cor	-1655
ule	-1656
hen	-1657
arm	-1658
ged	-1659
▁what	-1660
▁मामलों	-1661
▁आई	-1662
▁जिन	-1663
▁अभियुक्त	-1664
▁rece	-1665
▁hand	-1666
▁District	-1667
▁रही	-1668
▁docu	-1669
स्व	-1670
▁clear	-1671
▁संपत्ति	-1672
▁But	-1673
गर	-1674
▁अवधि	-1675
▁वास्तव	-1676
▁उत्तरदा	-1677
ल्ल	-1678
▁persons	-1679
ियां	-1680
▁see	-1681
▁मामला	-1682
ix	-1683
▁पं	-1684
▁नोट	-1685
तन	-1686
▁न्यायाधीश	-1687
▁बैंक	-1688
▁दस्ताव	-1689
▁संशोध	-1690
▁av	-1691
ases	-1692
▁mon	-1693
▁घर	-1694
▁Offic	-1695
▁अं	-1696
▁योजना	-1697
णा	-1698
▁very	-1699
▁purpos	-1700
ief	-1701
▁पहु	-1702
▁सुन	-1703
▁gen	-1704
प्त	-1705
▁whether	-1706
bit	-1707
ft	-1708
हार	-1709
ायी	-1710
ल्प	-1711
▁कॉ	-1712
र्ष	-1713
▁मध्य	-1714
▁call	-1715
▁वाली	-1716
लब्	-1717
▁partic	-1718
▁जु	-1719
▁हमारे	-1720
▁सबूत	-1721
▁पुन	-1722
▁If	-1723
▁बु	-1724
uc	-1725
▁Commission	-1726
▁बन	-1727
▁effect	-1728
▁gu	-1729
वाल	-1730
▁सुप	-1731
रोध	-1732
▁माध्यम	-1733
वं	-1734
ital	-1735
▁अला	-1736
▁परिस्थ	-1737
▁alleg	-1738
▁लोगों	-1739
▁समक्ष	-1740
ायल	-1741
▁सो	-1742
ूर	-1743
▁App	-1744
ST	-1745
धिक	-1746
▁ins	-1747
▁झ	-1748
त्	-1749
ष्टि	-1750
चा	-1751
जर	-1752
▁तब	-1753
▁उपलब्	-1754
▁देखा	-1755
▁col	-1756
▁प्रक	-1757
▁mark	-1758
▁issued	-1759
ros	-1760
▁अति	-1761
▁while	-1762
tern	-1763
▁name	-1764
ished	-1765
▁know	-1766
▁inf	-1767
ally	-1768
ेशन	-1769
ेय	-1770
ices	-1771
▁post	-1772
▁statement	-1773
▁nec	-1774
्ड	-1775
ासन	-1776
▁trial	-1777
▁grant	-1778
▁used	-1779
▁circum	-1780
▁account	-1781
▁concer	-1782
▁विभाग	-1783
▁अंतर	-1784
सर	-1785
app	-1786
कद	-1787
▁sy	-1788
▁मा	-1789
hy	-1790
▁मज	-1791
▁चल	-1792
ग्री	-1793
▁read	-1794
▁बयान	-1795
por	-1796
▁परिण	-1797
म्म	-1798
▁make	-1799
▁दस्तावेज	-1800
ene	-1801
▁अलावा	-1802
▁पुर	-1803
▁राष्ट्रपति	-1804
▁show	-1805
uted	-1806
▁याचिकाकर्ताओं	-1807
▁संस	-1808
sh	-1809
▁ground	-1810
▁during	-1811
▁develop	-1812
▁उद्देश्य	-1813
▁तैया	-1814
▁ये	-1815
ctions	-1816
▁सुर	-1817
▁समान	-1818
▁min	-1819
▁सामान्य	-1820
▁प्रयोग	-1821
illa	-1822
IR	-1823
▁शुरू	-1824
ents	-1825
▁property	-1826
▁car	-1827
▁उपलब्ध	-1828
ior	-1829
erial	-1830
विध	-1831
▁मुख्य	-1832
▁both	-1833
▁circumst	-1834
duct	-1835
▁dep	-1836
▁परिणाम	-1837
्टी	-1838
▁ear	-1839
ंभ	-1840
▁take	-1841
रूप	-1842
▁&#	-1843
तम	-1844
▁संवि	-1845
▁because	-1846
▁my	-1847
▁दूसरे	-1848
igation	-1849
▁डी	-1850
▁bl	-1851
▁उसी	-1852
मी	-1853
ob	-1854
aining	-1855
▁हों	-1856
त्या	-1857
बर	-1858
▁माल	-1859
ange	-1860
▁disp	-1861
▁दिखा	-1862
▁होते	-1863
पट	-1864
▁मुझ	-1865
▁need	-1866
▁section	-1867
▁एवं	-1868
▁’	-1869
▁rele	-1870
▁Res	-1871
त्मक	-1872
▁num	-1873
रि	-1874
▁दावा	-1875
▁good	-1876
▁यहां	-1877
▁facts	-1878
▁authority	-1879
▁process	-1880
▁विव	-1881
▁get	-1882
वार	-1883
▁having	-1884
▁पर्या	-1885
रित	-1886
▁Or	-1887
▁house	-1888
िक्री	-1889
▁विभिन्न	-1890
ितियों	-1891
▁निम	-1892
▁भीतर	-1893
▁जीवन	-1894
▁फैस	-1895
▁police	-1896
ith	-1897
▁your	-1898
▁मुकद	-1899
ner	-1900
ai	-1901
posed	-1902
▁comple	-1903
▁कृ	-1904
row	-1905
ंद्र	-1906
▁allow	-1907
▁let	-1908
▁parties	-1909
con	-1910
▁तैयार	-1911
erence	-1912
▁महत्व	-1913
्यु	-1914
द्र	-1915
▁सूचना	-1916
▁वित	-1917
ode	-1918
▁necess	-1919
▁करती	-1920
णी	-1921
▁dem	-1922
▁adv	-1923
▁तीन	-1924
gan	-1925
▁Ram	-1926
ized	-1927
▁stand	-1928
bers	-1929
टर	-1930
ning	-1931
▁basis	-1932
artment	-1933
▁aff	-1934
▁pri	-1935
▁different	-1936
▁लोक	-1937
▁ke	-1938
▁व्याप	-1939
▁way	-1940
▁शी	-1941
षा	-1942
miss	-1943
▁sent	-1944
ather	-1945
▁बद	-1946
▁अच्छ	-1947
▁obs	-1948
▁भा	-1949
▁वक	-1950
umar	-1951
▁material	-1952
iness	-1953
ool	-1954
▁निर्माण	-1955
गम	-1956
▁life	-1957
▁three	-1958
▁rev	-1959
▁प्रमाण	-1960
man	-1961
▁सके	-1962
han	-1963
ave	-1964
▁सार	-1965
▁word	-1966
▁those	-1967
read	-1968
▁offence	-1969
▁खार	-1970
▁व्यक्तियों	-1971
ink	-1972
▁उल्	-1973
काश	-1974
▁back	-1975
▁hold	-1976
▁service	-1977
▁गल	-1978
▁तरी	-1979
AR	-1980
▁appear	-1981
▁Sc	-1982
▁Ass	-1983
▁सिद्धांत	-1984
▁खारिज	-1985
हरा	-1986
िये	-1987
तिम	-1988
▁मुझे	-1989
▁came	-1990
▁अनुप	-1991
uris	-1992
तु	-1993
्सा	-1994
▁समाप्त	-1995
▁Dep	-1996
भव	-1997
▁मो	-1998
▁अगर	-1999
▁स्थापित	-2000
▁पहुंच	-2001
▁proceedings	-2002
▁establ	-2003
▁तारी	-2004
▁Ben	-2005
min	-2006
ग्रह	-2007
जूद	-2008
▁हिस	-2009
▁opp	-2010
दान	-2011
ption	-2012
▁down	-2013
▁Wh	-2014
sequ	-2015
▁विष	-2016
har	-2017
▁And	-2018
▁तारीख	-2019
ामी	-2020
क्षित	-2021
ज्ञान	-2022
▁गै	-2023
▁समझौ	-2024
▁Pol	-2025
मु	-2026
ati	-2027
▁ord	-2028
als	-2029
▁avail	-2030
▁निम्न	-2031
ister	-2032
▁अनुस	-2033
▁Pres	-2034
स्	-2035
▁उल्लेख	-2036
तंत्र	-2037
anc	-2038
ivil	-2039
ants	-2040
ुद्ध	-2041
▁घोष	-2042
▁dist	-2043
वास	-2044
lt	-2045
▁जिला	-2046
med	-2047
ures	-2048
▁&#9	-2049
▁Judge	-2050
▁For	-2051
▁सामग्री	-2052
▁ढ	-2053
ges	-2054
▁Cent	-2055
▁Officer	-2056
ither	-2057
▁Raj	-2058
urre	-2059
ores	-2060
▁day	-2061
olog	-2062
▁Acc	-2063
▁cases	-2064
▁कई	-2065
▁होगी	-2066
▁प्रस्ताव	-2067
▁stat	-2068
▁notice	-2069
▁condition	-2070
ten	-2071
▁subject	-2072
▁equ	-2073
द्द	-2074
▁princ	-2075
ोजित	-2076
ism	-2077
crib	-2078
▁required	-2079
AN	-2080
▁सर्वो	-2081
▁संविधान	-2082
▁विध	-2083
mitt	-2084
▁co	-2085
▁exerc	-2086
ived	-2087
▁cap	-2088
ety	-2089
▁br	-2090
ross	-2091
▁ज्ञ	-2092
uch	-2093
ेप	-2094
ock	-2095
▁company	-2096
▁bus	-2097
EN	-2098
▁child	-2099
▁मांग	-2100
ew	-2101
ality	-2102
ाक	-2103
▁juris	-2104
stem	-2105
▁सीमा	-2106
PC	-2107
▁circumstances	-2108
▁विन	-2109
▁considered	-2110
▁af	-2111
▁concerned	-2112
▁तर्क	-2113
मिक	-2114
lement	-2115
lection	-2116
▁एन	-2117
eg	-2118
▁उल्ल	-2119
chn	-2120
▁प्रत्येक	-2121
▁country	-2122
ौती	-2123
▁observ	-2124
टा	-2125
stru	-2126
▁contin	-2127
▁Reg	-2128
बित	-2129
▁राम	-2130
▁ed	-2131
▁लेने	-2132
after	-2133
bitr	-2134
▁witnesses	-2135
▁import	-2136
▁करके	-2137
शा	-2138
▁agree	-2139
▁पूरा	-2140
way	-2141
▁sit	-2142
▁निपट	-2143
ency	-2144
les	-2145
diction	-2146
▁बच	-2147
ेम	-2148
ides	-2149
▁cent	-2150
स्थान	-2151
▁वस्त	-2152
▁Kumar	-2153
▁Therefore	-2154
▁However	-2155
▁action	-2156
mittee	-2157
oard	-2158
▁fl	-2159
▁So	-2160
▁साल	-2161
▁fam	-2162
▁स्क	-2163
ribun	-2164
▁li	-2165
eth	-2166
▁विषय	-2167
▁Man	-2168
▁beh	-2169
▁गो	-2170
▁body	-2171
▁सीखा	-2172
▁बच्च	-2173
ending	-2174
भग	-2175
ability	-2176
▁Par	-2177
▁ple	-2178
▁निष्	-2179
▁every	-2180
ivers	-2181
▁appoint	-2182
riminal	-2183
00	-2184
▁बताया	-2185
द्दे	-2186
ret	-2187
▁test	-2188
▁कथ	-2189
▁Constitution	-2190
▁death	-2191
hes	-2192
▁month	-2193
ipl	-2194
ूनी	-2195
▁cre	-2196
up	-2197
▁रुप	-2198
▁Sec	-2199
▁purpose	-2200
▁issue	-2201
▁सबसे	-2202
▁साबित	-2203
less	-2204
▁jurisdiction	-2205
▁तथ्यों	-2206
ेदार	-2207
air	-2208
त्रा	-2209
▁चि	-2210
▁चुन	-2211
फ़	-2212
ically	-2213
▁बाहर	-2214
▁समिति	-2215
tic	-2216
▁निष्कर्ष	-2217
▁Ap	-2218
श्व	-2219
▁एम	-2220
▁SCC	-2221
lus	-2222
arch	-2223
▁तत	-2224
▁लगभग	-2225
व्य	-2226
▁अतिरिक	-2227
gg	-2228
▁दर	-2229
▁तु	-2230
▁प्रावधानों	-2231
▁रखने	-2232
ck	-2233
▁non	-2234
▁sim	-2235
▁कभी	-2236
ull	-2237
ared	-2238
▁निष्प	-2239
▁वी	-2240
▁Am	-2241
▁contract	-2242
ov	-2243
▁conduct	-2244
▁अंतिम	-2245
▁बनाम	-2246
मत	-2247
▁समर्थ	-2248
▁use	-2249
▁med	-2250
▁They	-2251
दन	-2252
▁शिक्षा	-2253
राधिक	-2254
▁परिस्थितियों	-2255
▁पृ	-2256
icial	-2257
▁दोष	-2258
▁करेगा	-2259
▁particular	-2260
▁lit	-2261
▁उपरो	-2262
▁वकील	-2263
uty	-2264
▁due	-2265
ुट	-2266
ined	-2267
enef	-2268
▁support	-2269
ाला	-2270
▁respondents	-2271
▁उपरोक्त	-2272
वान	-2273
▁वाप	-2274
▁now	-2275
र्स	-2276
▁अतिरिक्त	-2277
ages	-2278
निक	-2279
ीद	-2280
▁सही	-2281
क्षम	-2282
▁del	-2283
▁exec	-2284
err	-2285
▁इसका	-2286
▁acqu	-2287
▁come	-2288
iry	-2289
cil	-2290
▁चला	-2291
▁पूर्ण	-2292
▁coun	-2293
vant	-2294
ries	-2295
▁उसका	-2296
तः	-2297
arge	-2298
▁Min	-2299
▁मृत्यु	-2300
▁number	-2301
▁जिन्ह	-2302
▁हमें	-2303
साय	-2304
▁पाया	-2305
ुक्ति	-2306
▁मार	-2307
▁var	-2308
▁each	-2309
AT	-2310
oresaid	-2311
▁कब्	-2312
IC	-2313
quot	-2314
▁हर	-2315
▁‘	-2316
▁..	-2317
ribunal	-2318
▁बि	-2319
alf	-2320
ees	-2321
न्त	-2322
illage	-2323
▁पर्याप्त	-2324
▁President	-2325
▁aforesaid	-2326
na	-2327
▁नियमों	-2328
▁सम्म	-2329
▁another	-2330
▁कार्र	-2331
▁point	-2332
शी	-2333
bt	-2334
▁जाते	-2335
त्ता	-2336
▁since	-2337
▁necessary	-2338
▁प्रबंध	-2339
▁उत्तरदाताओं	-2340
▁long	-2341
▁सौ	-2342
▁नोटिस	-2343
▁nature	-2344
पुर	-2345
▁बनाया	-2346
▁mention	-2347
▁संशोधन	-2348
▁Mah	-2349
र्ति	-2350
ourse	-2351
▁शर्त	-2352
▁party	-2353
▁end	-2354
▁सर्वोच्च	-2355
▁po	-2356
▁benef	-2357
▁Comp	-2358
▁She	-2359
▁information	-2360
▁आदि	-2361
anch	-2362
▁प्रवेश	-2363
िब	-2364
▁आया	-2365
▁दिल	-2366
▁great	-2367
हर	-2368
▁ca	-2369
▁डॉ	-2370
▁सूची	-2371
▁At	-2372
▁many	-2373
▁prev	-2374
▁bu	-2375
aring	-2376
▁विस्त	-2377
▁सार्व	-2378
ying	-2379
ator	-2380
▁lim	-2381
▁ऋ	-2382
▁प्रा	-2383
▁कार्रवाई	-2384
▁abs	-2385
▁exist	-2386
▁mis	-2387
द्योगिक	-2388
हन	-2389
▁terms	-2390
ought	-2391
▁Rules	-2392
र्ती	-2393
▁ली	-2394
▁award	-2395
▁system	-2396
▁दंड	-2397
ately	-2398
ya	-2399
▁हस्ता	-2400
▁ऊपर	-2401
िष्ट	-2402
▁fail	-2403
द्यालय	-2404
▁सामने	-2405
▁प्रश्न	-2406
१०	-2407
▁अनुबंध	-2408
▁छोड़	-2409
pra	-2410
of	-2411
allen	-2412
▁et	-2413
ुसार	-2414
▁राय	-2415
▁second	-2416
▁गलत	-2417
ेंस	-2418
▁न्यायिक	-2419
▁हूं	-2420
▁ट्रायल	-2421
▁oper	-2422
▁अथ	-2423
▁possession	-2424
▁प्रदर्	-2425
▁Hon	-2426
ER	-2427
▁IST	-2428
मित	-2429
▁stud	-2430
ीस	-2431
▁स्वतंत्र	-2432
pur	-2433
▁उपस्थ	-2434
▁sign	-2435
▁पढ़	-2436
chool	-2437
ेंट	-2438
वर	-2439
▁...	-2440
▁विप	-2441
▁letter	-2442
▁injur	-2443
▁available	-2444
▁राष्ट्रीय	-2445
▁देता	-2446
▁मूल्य	-2447
यं	-2448
▁मत	-2449
▁उनका	-2450
▁Coun	-2451
▁Police	-2452
्यून	-2453
▁चोट	-2454
▁तय	-2455
ंघ	-2456
▁आज	-2457
▁पंजी	-2458
▁str	-2459
▁नीचे	-2460
▁mar	-2461
sequent	-2462
▁माननीय	-2463
▁सहायता	-2464
▁प्रकृति	-2465
▁conv	-2466
uk	-2467
▁etc	-2468
▁धार	-2469
▁कुमार	-2470
▁add	-2471
▁Sp	-2472
▁परीक्षा	-2473
▁चार	-2474
▁वा	-2475
▁ब्र	-2476
▁प्रो	-2477
▁ve	-2478
▁अधिकारियों	-2479
▁Cr	-2480
▁che	-2481
▁अंग	-2482
▁Shri	-2483
▁पैरा	-2484
▁अवसर	-2485
▁तरीके	-2486
▁referred	-2487
inion	-2488
▁various	-2489
इट	-2490
▁सजा	-2491
▁result	-2492
▁All	-2493
▁members	-2494
▁कानूनी	-2495
▁वस्तु	-2496
▁महत्वपूर्ण	-2497
▁गैर	-2498
फी	-2499
▁world	-2500
ace	-2501
▁पेश	-2502
▁business	-2503
▁एफ	-2504
▁पिता	-2505
▁अध्य	-2506
▁संघ	-2507
icy	-2508
ination	-2509
▁लगाया	-2510
ried	-2511
▁sm	-2512
ापन	-2513
att	-2514
▁along	-2515
▁vi	-2516
▁एक्स	-2517
▁वाला	-2518
▁दाव	-2519
▁sche	-2520
जनिक	-2521
▁रो	-2522
raph	-2523
ured	-2524
▁मध्यस्थ	-2525
ready	-2526
चान	-2527
▁ना	-2528
▁सार्वजनिक	-2529
here	-2530
▁charge	-2531
ugned	-2532
▁लंब	-2533
▁प्राधिकरण	-2534
▁lead	-2535
▁बनाने	-2536
▁संस्थान	-2537
मुख	-2538
▁bro	-2539
ाइल	-2540
quiry	-2541
▁प्रकाश	-2542
▁already	-2543
▁consideration	-2544
▁relevant	-2545
ains	-2546
▁श्र	-2547
▁Is	-2548
क्षेप	-2549
▁बनाए	-2550
▁expl	-2551
isl	-2552
▁impugned	-2553
▁recorded	-2554
▁बिक्री	-2555
ience	-2556
पाल	-2557
▁नियुक्ति	-2558
▁रोक	-2559
▁नियंत्र	-2560
rop	-2561
▁बोर्ड	-2562
ूट	-2563
▁called	-2564
ंज	-2565
▁स्तर	-2566
▁बैठ	-2567
▁वृ	-2568
ick	-2569
▁most	-2570
▁loc	-2571
▁tax	-2572
ata	-2573
▁छोट	-2574
एल	-2575
▁बल्	-2576
▁opinion	-2577
▁itself	-2578
▁rest	-2579
ointed	-2580
▁सूट	-2581
▁उद	-2582
▁Central	-2583
▁पि	-2584
▁प्रण	-2585
ठन	-2586
ीकरण	-2587
▁open	-2588
▁मंत्र	-2589
▁पश्च	-2590
▁वित्त	-2591
▁Tribunal	-2592
▁Sub	-2593
▁प्रया	-2594
▁provided	-2595
था	-2596
▁challen	-2597
▁जर	-2598
▁सक्षम	-2599
▁स्वयं	-2600
ences	-2601
▁नाग	-2602
AL	-2603
▁गवाहों	-2604
▁prog	-2605
▁जबकि	-2606
▁certain	-2607
resent	-2608
▁आयोजित	-2609
▁cause	-2610
▁Tr	-2611
▁ph	-2612
षण	-2613
▁When	-2614
▁जमा	-2615
▁mod	-2616
्ली	-2617
▁appellants	-2618
▁परीक्षण	-2619
hip	-2620
▁sur	-2621
▁विधि	-2622
ives	-2623
▁bank	-2624
au	-2625
▁commun	-2626
enior	-2627
▁supra	-2628
ateg	-2629
▁अथवा	-2630
▁put	-2631
▁वापस	-2632
▁इसमें	-2633
▁शीर्ष	-2634
▁फैसले	-2635
▁That	-2636
▁प्रार	-2637
▁maint	-2638
ren	-2639
▁fore	-2640
▁Department	-2641
नाव	-2642
▁गिर	-2643
▁incident	-2644
▁Committee	-2645
▁dismiss	-2646
▁वरि	-2647
▁legal	-2648
▁following	-2649
▁list	-2650
▁including	-2651
▁बा	-2652
▁deal	-2653
▁according	-2654
▁dra	-2655
▁fav	-2656
▁इसी	-2657
▁प्रस	-2658
istration	-2659
▁mind	-2660
ana	-2661
▁Thus	-2662
▁init	-2663
cedure	-2664
▁प्रयास	-2665
▁complaint	-2666
▁investigation	-2667
▁prom	-2668
ising	-2669
▁arbitr	-2670
▁सरकारी	-2671
▁वरिष्ठ	-2672
▁agreement	-2673
▁days	-2674
▁आयोग	-2675
प्र	-2676
▁लेख	-2677
▁educ	-2678
यी	-2679
gu	-2680
lim	-2681
▁श्रे	-2682
धन	-2683
▁समर्थन	-2684
▁meet	-2685
▁महा	-2686
▁dire	-2687
▁far	-2688
▁परिवार	-2689
▁Rule	-2690
ually	-2691
▁hel	-2692
▁आम	-2693
▁examination	-2694
▁सवाल	-2695
▁Board	-2696
▁though	-2697
्वी	-2698
▁संर	-2699
▁object	-2700
▁based	-2701
▁transf	-2702
uation	-2703
▁आपराधिक	-2704
af	-2705
र्तन	-2706
▁done	-2707
uman	-2708
▁खा	-2709
सान	-2710
No	-2711
▁ser	-2712
cribed	-2713
▁den	-2714
ron	-2715
▁course	-2716
▁कल	-2717
get	-2718
ालय	-2719
▁documents	-2720
▁हाथ	-2721
gt	-2722
क्	-2723
▁dou	-2724
ूह	-2725
भर	-2726
▁विशिष्ट	-2727
▁फ़	-2728
▁alleged	-2729
▁गां	-2730
▁Eng	-2731
ित्र	-2732
orpor	-2733
▁गं	-2734
▁indust	-2735
tal	-2736
▁नियुक्त	-2737
alth	-2738
ey	-2739
roup	-2740
▁जानकारी	-2741
▁give	-2742
▁चिक	-2743
▁संग	-2744
▁say	-2745
▁दूसरी	-2746
▁Gu	-2747
▁सदस्य	-2748
ंकन	-2749
▁ident	-2750
एम	-2751
▁बर	-2752
▁चुनौती	-2753
▁ver	-2754
iding	-2755
▁खोज	-2756
▁Code	-2757
विद्यालय	-2758
▁हे	-2759
▁family	-2760
▁निर	-2761
▁नीति	-2762
olution	-2763
▁सुप्रा	-2764
ंगिक	-2765
▁निदेश	-2766
▁pen	-2767
ात्	-2768
▁development	-2769
द्धि	-2770
▁vide	-2771
ोन	-2772
▁start	-2773
▁favour	-2774
▁entire	-2775
▁दुर्	-2776
ork	-2777
ilar	-2778
▁केंद्र	-2779
▁earli	-2780
▁manner	-2781
ogn	-2782
▁दूर	-2783
▁निष्पाद	-2784
▁mean	-2785
▁यू	-2786
▁समाज	-2787
▁उम्म	-2788
पीसी	-2789
▁देना	-2790
angu	-2791
unction	-2792
▁sett	-2793
▁entit	-2794
▁son	-2795
▁बल्कि	-2796
istered	-2797
िश्च	-2798
wards	-2799
▁constru	-2800
▁उल्लंघ	-2801
▁निहित	-2802
▁represent	-2803
otion	-2804
न्द्र	-2805
▁सच	-2806
az	-2807
▁institution	-2808
yp	-2809
ulation	-2810
▁To	-2811
▁much	-2812
बल	-2813
▁orig	-2814
▁देते	-2815
दिष्ट	-2816
▁admitted	-2817
▁final	-2818
▁विफल	-2819
▁Bank	-2820
rol	-2821
▁conn	-2822
ociety	-2823
inary	-2824
▁organ	-2825
▁उम्मीद	-2826
▁Al	-2827
▁टी	-2828
ines	-2829
▁allowed	-2830
बद्ध	-2831
▁submit	-2832
▁उल्लंघन	-2833
▁Adv	-2834
ivision	-2835
▁ऑफ	-2836
ially	-2837
▁ii	-2838
ple	-2839
▁प्रती	-2840
▁कार्यालय	-2841
▁ताकि	-2842
्यांकन	-2843
▁बंद	-2844
▁संदे	-2845
▁पड़	-2846
▁either	-2847
conom	-2848
▁sale	-2849
▁cross	-2850
स्कार	-2851
▁भाषा	-2852
imes	-2853
▁संच	-2854
▁मही	-2855
▁help	-2856
▁II	-2857
▁sat	-2858
▁Col	-2859
▁means	-2860
▁Petition	-2861
▁उत्पादन	-2862
omm	-2863
▁प्रमुख	-2864
ंश	-2865
चारी	-2866
▁कुल	-2867
्रेट	-2868
▁खरी	-2869
ortun	-2870
क्स	-2871
par	-2872
▁प्रतिनि	-2873
▁general	-2874
ENT	-2875
▁वेतन	-2876
▁Del	-2877
्ले	-2878
▁गति	-2879
ird	-2880
▁Ag	-2881
▁position	-2882
▁पालन	-2883
▁विश्वविद्यालय	-2884
▁high	-2885
▁appointment	-2886
▁अधि	-2887
▁पहली	-2888
ext	-2889
▁दल	-2890
ण्ड	-2891
▁इससे	-2892
▁fin	-2893
▁Direct	-2894
▁subst	-2895
▁however	-2896
▁चिकित	-2897
▁पां	-2898
reed	-2899
▁गुण	-2900
▁पुरस्कार	-2901
ph	-2902
ासंगिक	-2903
▁पृष्ठ	-2904
▁विश्वास	-2905
ेन	-2906
▁अर्	-2907
▁विद	-2908
▁received	-2909
▁determ	-2910
▁making	-2911
▁vis	-2912
ES	-2913
सत	-2914
▁योग्य	-2915
▁Nos	-2916
▁जल	-2917
▁अधिस	-2918
▁respon	-2919
▁ऋण	-2920
▁पहचान	-2921
बा	-2922
▁संह	-2923
▁वर्ग	-2924
▁prot	-2925
▁mentioned	-2926
धानिक	-2927
▁Bench	-2928
▁words	-2929
pted	-2930
दाय	-2931
▁संभाव	-2932
▁संहिता	-2933
▁Mag	-2934
▁सुरक्षा	-2935
▁विवरण	-2936
▁पो	-2937
▁area	-2938
▁tre	-2939
▁लाइ	-2940
▁मि	-2941
▁लिम	-2942
च्छेद	-2943
▁संस्क	-2944
ुष	-2945
▁डि	-2946
▁look	-2947
▁others	-2948
ंतु	-2949
ering	-2950
▁took	-2951
pri	-2952
▁Dr	-2953
ेंगे	-2954
ense	-2955
▁अधिसू	-2956
rie	-2957
▁sum	-2958
▁cop	-2959
▁प्रय	-2960
▁income	-2961
हाँ	-2962
▁Se	-2963
▁According	-2964
▁नई	-2965
▁पंच	-2966
थम	-2967
▁निश्च	-2968
ached	-2969
▁After	-2970
▁herein	-2971
▁common	-2972
▁assess	-2973
▁exercise	-2974
by	-2975
क्टर	-2976
▁techn	-2977
ars	-2978
ॉल	-2979
section	-2980
▁earlier	-2981
▁ची	-2982
▁how	-2983
वरी	-2984
isf	-2985
▁चौ	-2986
▁invol	-2987
▁Te	-2988
▁policy	-2989
▁el	-2990
▁बिल	-2991
ुप	-2992
▁पूछ	-2993
▁अप्र	-2994
osp	-2995
▁हक	-2996
▁पिछ	-2997
▁अस्प	-2998
▁मूल्यांकन	-2999
▁left	-3000
iversity	-3001
ुल्क	-3002
▁pun	-3003
hib	-3004
▁last	-3005
▁स्कूल	-3006
▁seek	-3007
▁शिकायतकर्ता	-3008
▁त्र	-3009
११	-3010
▁भाव	-3011
▁समझौते	-3012
▁document	-3013
ology	-3014
ार्थी	-3015
▁कर्मचारी	-3016
▁orders	-3017
▁clause	-3018
atory	-3019
▁payment	-3020
▁जम	-3021
ication	-3022
▁complain	-3023
▁mer	-3024
▁ten	-3025
स्प	-3026
▁लिख	-3027
▁examined	-3028
▁अपीलकर्ताओं	-3029
▁x	-3030
▁office	-3031
▁behalf	-3032
▁चर्	-3033
▁criminal	-3034
oney	-3035
▁tem	-3036
▁पीड़	-3037
▁class	-3038
▁registered	-3039
▁exper	-3040
ipal	-3041
▁prof	-3042
तना	-3043
▁प्रशासन	-3044
टक	-3045
lusion	-3046
▁सुविध	-3047
▁argu	-3048
▁संदेह	-3049
ics	-3050
▁वहां	-3051
▁लिमिट	-3052
▁सिव	-3053
▁entitled	-3054
ditional	-3055
▁depos	-3056
agement	-3057
रीत	-3058
oh	-3059
ield	-3060
▁दिश	-3061
ets	-3062
▁प्रासंगिक	-3063
▁थीं	-3064
िवार	-3065
▁कब्जे	-3066
ivid	-3067
▁इसकी	-3068
stand	-3069
▁एससी	-3070
onment	-3071
▁विपरीत	-3072
▁सदस्यों	-3073
▁चे	-3074
▁doubt	-3075
रल	-3076
▁justice	-3077
ake	-3078
▁मौजूद	-3079
ON	-3080
▁written	-3081
ocial	-3082
▁लिमिटेड	-3083
▁संक	-3084
▁जिससे	-3085
▁निगम	-3086
▁Delhi	-3087
▁ask	-3088
▁रे	-3089
▁water	-3090
▁व्यापार	-3091
▁Gen	-3092
▁father	-3093
▁सिविल	-3094
▁perform	-3095
▁Vs	-3096
owers	-3097
ास्थ	-3098
▁मानव	-3099
▁चयन	-3100
▁संयुक्त	-3101
▁paid	-3102
▁प्राथ	-3103
▁important	-3104
lected	-3105
▁हित	-3106
▁continu	-3107
ruct	-3108
▁officer	-3109
▁प्राथमिक	-3110
▁National	-3111
▁हस्ताक्ष	-3112
▁समु	-3113
ves	-3114
▁योग्यता	-3115
िस्ट्रेट	-3116
▁गण	-3117
▁thus	-3118
▁placed	-3119
▁demand	-3120
▁require	-3121
ression	-3122
▁taking	-3123
▁जग	-3124
ीक	-3125
▁कठ	-3126
▁stage	-3127
▁committed	-3128
▁धन	-3129
वे	-3130
▁below	-3131
▁जवा	-3132
ूर्ति	-3133
ways	-3134
▁दृष्ट	-3135
▁langu	-3136
▁rights	-3137
▁वार	-3138
▁पहल	-3139
▁seen	-3140
ंख	-3141
ization	-3142
▁discus	-3143
▁विदेश	-3144
▁मं	-3145
▁हस्त	-3146
▁want	-3147
लिखित	-3148
▁मेरे	-3149
▁ज्ञान	-3150
▁उत्पन्न	-3151
▁econom	-3152
▁अंतर्	-3153
itation	-3154
▁प्रभावित	-3155
▁धर्म	-3156
ार्ग	-3157
▁granted	-3158
▁उठा	-3159
▁मजिस्ट्रेट	-3160
▁contr	-3161
ledge	-3162
▁exc	-3163
▁services	-3164
ेयर	-3165
▁dispute	-3166
▁lo	-3167
▁भर	-3168
osed	-3169
ोस	-3170
▁detail	-3171
भीर	-3172
▁कमी	-3173
jection	-3174
िश्चित	-3175
▁cand	-3176
ट्ट	-3177
istrate	-3178
▁कृष	-3179
▁satisf	-3180
▁उद्योग	-3181
▁प्रथम	-3182
ested	-3183
val	-3184
▁complainant	-3185
▁शरी	-3186
▁tra	-3187
▁रद्द	-3188
▁भेज	-3189
▁real	-3190
war	-3191
wise	-3192
▁शुल्क	-3193
▁संव	-3194
ूँ	-3195
▁proved	-3196
ony	-3197
▁जिसका	-3198
▁viol	-3199
arent	-3200
▁fund	-3201
▁activ	-3202
▁ir	-3203
▁लगाए	-3204
▁government	-3205
▁बजे	-3206
▁book	-3207
▁दिल्ली	-3208
▁Commissioner	-3209
▁observed	-3210
utes	-3211
मता	-3212
vi	-3213
▁head	-3214
▁जनता	-3215
▁mere	-3216
▁हमारी	-3217
▁nor	-3218
▁प्रदेश	-3219
▁निर्धारण	-3220
▁sugg	-3221
▁सीख	-3222
day	-3223
▁इनकार	-3224
ँच	-3225
▁wom	-3226
▁cost	-3227
▁original	-3228
▁priv	-3229
▁candid	-3230
▁duty	-3231
▁महिला	-3232
▁ठहरा	-3233
▁दोषी	-3234
▁रज	-3235
▁हल	-3236
ibility	-3237
▁four	-3238
▁indic	-3239
rought	-3240
iple	-3241
▁लिये	-3242
iance	-3243
▁हकदार	-3244
▁light	-3245
ूंकि	-3246
▁सुविधा	-3247
▁कथित	-3248
▁known	-3249
▁चूंकि	-3250
▁कोश	-3251
▁अम	-3252
▁समूह	-3253
म्ब	-3254
▁raised	-3255
▁Civil	-3256
शत	-3257
▁नागरिक	-3258
ocate	-3259
्ला	-3260
▁सुधार	-3261
न्म	-3262
▁महीने	-3263
▁मी	-3264
agar	-3265
कान	-3266
▁reference	-3267
▁बाज	-3268
▁मुकदमे	-3269
▁होंगे	-3270
▁आध	-3271
▁conditions	-3272
▁X	-3273
▁खुद	-3274
▁निम्नलिखित	-3275
▁प्रारंभ	-3276
▁obt	-3277
▁आर्थ	-3278
▁रुपये	-3279
rect	-3280
▁चुनाव	-3281
्रो	-3282
▁ठीक	-3283
▁General	-3284
ms	-3285
▁hig	-3286
▁accept	-3287
▁भरो	-3288
▁reasons	-3289
▁घोषणा	-3290
▁Magistrate	-3291
see	-3292
▁These	-3293
▁Ext	-3294
▁value	-3295
▁अनुसू	-3296
▁war	-3297
jud	-3298
धारण	-3299
▁special	-3300
▁शै	-3301
▁काफी	-3302
▁opportun	-3303
▁चर्चा	-3304
▁You	-3305
ively	-3306
IN	-3307
▁मद	-3308
▁AIR	-3309
▁आने	-3310
्काल	-3311
▁सहित	-3312
fficient	-3313
▁बदल	-3314
▁शरीर	-3315
▁अनुच्छेद	-3316
▁Author	-3317
ons	-3318
▁पार्टी	-3319
su	-3320
क्ता	-3321
▁vict	-3322
▁human	-3323
्यास	-3324
▁बल	-3325
overed	-3326
▁ज़	-3327
▁पाठ	-3328
▁less	-3329
▁गंभीर	-3330
▁उपाय	-3331
▁admin	-3332
▁वास्तविक	-3333
▁money	-3334
▁पार्ट	-3335
▁लिखित	-3336
▁away	-3337
त्नी	-3338
▁Chand	-3339
▁accord	-3340
▁निव	-3341
▁ट्रिब	-3342
▁विस्तार	-3343
▁happ	-3344
▁आर्थिक	-3345
्रीम	-3346
▁ट्रिब्यून	-3347
▁जवाब	-3348
ंदर	-3349
▁cr	-3350
atural	-3351
▁अभी	-3352
▁pract	-3353
▁file	-3354
▁directed	-3355
▁निर्भर	-3356
ensation	-3357
▁जाएगी	-3358
▁पत्नी	-3359
मेंट	-3360
▁नए	-3361
▁शब्दों	-3362
▁months	-3363
▁अच्छी	-3364
▁incre	-3365
▁care	-3366
orn	-3367
▁अपे	-3368
▁रखते	-3369
▁Division	-3370
▁som	-3371
▁लड़	-3372
▁प्रतिशत	-3373
▁एच	-3374
▁met	-3375
▁मालिक	-3376
निया	-3377
▁brought	-3378
▁ट्रिब्यूनल	-3379
▁अने	-3380
▁स्थित	-3381
▁क्षेत्रों	-3382
तों	-3383
▁कर्मचार	-3384
▁अपीलार्थी	-3385
▁परिय	-3386
▁except	-3387
▁establish	-3388
▁rule	-3389
▁मिला	-3390
▁judicial	-3391
ताल	-3392
▁Sri	-3393
▁appropri	-3394
▁prep	-3395
ize	-3396
ger	-3397
cing	-3398
ani	-3399
▁सहायक	-3400
idav	-3401
endent	-3402
▁large	-3403
▁परियोजना	-3404
▁तौर	-3405
▁legisl	-3406
▁contention	-3407
▁Corpor	-3408
▁कार्यक्रम	-3409
▁प्राधिकारी	-3410
▁going	-3411
▁वर्षों	-3412
▁सफल	-3413
▁group	-3414
गार	-3415
▁कर्मचारियों	-3416
ोड	-3417
▁प्रे	-3418
▁00	-3419
▁age	-3420
agraph	-3421
ists	-3422
ियन	-3423
▁decl	-3424
▁tru	-3425
▁खुला	-3426
▁भवन	-3427
▁dismissed	-3428
▁project	-3429
▁आधारित	-3430
▁प्रभ	-3431
▁संभव	-3432
▁build	-3433
ाजिक	-3434
▁towards	-3435
▁मुकदमा	-3436
▁rules	-3437
▁pat	-3438
▁बड़ी	-3439
▁वाह	-3440
▁play	-3441
ancial	-3442
काल	-3443
▁wife	-3444
▁punish	-3445
▁scheme	-3446
▁पूर्वो	-3447
▁व्याख्या	-3448
▁क्ल	-3449
▁आक	-3450
▁अवै	-3451
▁दिनों	-3452
▁submission	-3453
▁himself	-3454
▁cred	-3455
▁मद्दे	-3456
▁produced	-3457
▁हस्ताक्षर	-3458
anj	-3459
▁कृषि	-3460
▁ey	-3461
्से	-3462
र्य	-3463
▁complete	-3464
▁निश्चित	-3465
▁Bi	-3466
▁succ	-3467
▁individ	-3468
band	-3469
ाँकि	-3470
ाहरण	-3471
▁Sche	-3472
▁हालाँकि	-3473
▁village	-3474
▁सामाजिक	-3475
▁मैंने	-3476
्रम	-3477
▁clearly	-3478
▁प्रबंधन	-3479
OR	-3480
IT	-3481
▁main	-3482
▁till	-3483
धारा	-3484
▁acce	-3485
▁व्यवस्था	-3486
▁मद्देन	-3487
▁शर्तों	-3488
▁हिंद	-3489
▁नियमित	-3490
▁वैध	-3491
▁निर्दिष्ट	-3492
▁Serv	-3493
▁डाल	-3494
▁स्टेशन	-3495
▁तीस	-3496
▁अभि	-3497
▁possible	-3498
्ब	-3499
िवक्ता	-3500
oss	-3501
▁उदाहरण	-3502
▁भरोसा	-3503
▁प्रतिक	-3504
▁went	-3505
▁कर्त	-3506
▁सबूतों	-3507
▁मद्देनजर	-3508
▁इंड	-3509
mb	-3510
▁stre	-3511
सल	-3512
▁small	-3513
ospital	-3514
▁side	-3515
स्या	-3516
▁ति	-3517
▁cust	-3518
essee	-3519
▁level	-3520
▁Courts	-3521
▁विर	-3522
▁respons	-3523
▁लगाने	-3524
▁University	-3525
▁knowledge	-3526
▁categ	-3527
▁क्षमता	-3528
▁अवैध	-3529
स्वरूप	-3530
▁प्रौ	-3531
▁specific	-3532
▁गर्	-3533
▁आश	-3534
▁उपबंध	-3535
▁Mad	-3536
्रेड	-3537
▁apply	-3538
ala	-3539
ions	-3540
▁become	-3541
▁निजी	-3542
▁established	-3543
▁sever	-3544
ूक	-3545
ष्ण	-3546
▁IPC	-3547
फ्त	-3548
eration	-3549
र्न	-3550
▁constit	-3551
▁run	-3552
▁दस्तावेजों	-3553
▁हस्तक्षेप	-3554
▁भे	-3555
▁गये	-3556
▁एल	-3557
▁society	-3558
▁जब्त	-3559
▁वर्ण	-3560
▁जमीन	-3561
▁children	-3562
▁नियंत्रण	-3563
िको	-3564
▁पे	-3565
▁victim	-3566
▁नगर	-3567
▁अधिसूचना	-3568
▁got	-3569
▁जे	-3570
▁अनेक	-3571
▁counsel	-3572
▁श्रेणी	-3573
राज	-3574
▁typ	-3575
amm	-3576
▁ब्या	-3577
चल	-3578
▁क्रम	-3579
▁Pl	-3580
▁il	-3581
▁provide	-3582
शील	-3583
▁Law	-3584
▁product	-3585
▁fix	-3586
▁social	-3587
▁contended	-3588
▁राहत	-3589
इन	-3590
▁विरोध	-3591
▁अनिवार	-3592
▁FIR	-3593
▁individual	-3594
पन	-3595
▁प्रणाली	-3596
▁reported	-3597
▁उम्मीदवार	-3598
▁पति	-3599
▁Not	-3600
▁रहने	-3601
▁रजिस्ट	-3602
▁never	-3603
ुओं	-3604
▁दिशा	-3605
▁purch	-3606
▁think	-3607
ressed	-3608
adesh	-3609
▁ann	-3610
पत्र	-3611
▁प्रतिनिध	-3612
▁appointed	-3613
▁रोग	-3614
▁स्	-3615
▁शक्त	-3616
ificate	-3617
▁Mus	-3618
▁affidav	-3619
ellate	-3620
▁decided	-3621
rest	-3622
▁eng	-3623
▁Company	-3624
▁प्रदर्शन	-3625
▁आत्म	-3626
▁निदेशक	-3627
▁appropriate	-3628
hic	-3629
▁five	-3630
▁aspect	-3631
▁conclusion	-3632
▁mother	-3633
▁thereafter	-3634
वासी	-3635
ci	-3636
▁prior	-3637
▁short	-3638
चन	-3639
▁करेंगे	-3640
ts	-3641
▁वित्तीय	-3642
ंडल	-3643
आईआर	-3644
▁सुनवाई	-3645
▁school	-3646
▁पीछ	-3647
▁grow	-3648
▁initi	-3649
▁पीड़ित	-3650
▁समस्या	-3651
ify	-3652
▁tend	-3653
▁न्यायालयों	-3654
र्श	-3655
▁कट	-3656
RB	-3657
▁अनुरोध	-3658
ters	-3659
ोक्ता	-3660
▁पूर्वोक्त	-3661
▁gl	-3662
▁Director	-3663
▁सुना	-3664
▁सुनिश्चित	-3665
▁आपको	-3666
▁relating	-3667
▁civil	-3668
▁Cont	-3669
▁enc	-3670
urrence	-3671
▁illeg	-3672
हास	-3673
duced	-3674
▁OF	-3675
▁powers	-3676
gar	-3677
▁relig	-3678
eed	-3679
▁WP	-3680
▁Co	-3681
▁prescribed	-3682
ope	-3683
▁बड़े	-3684
usband	-3685
ajor	-3686
aged	-3687
▁Chief	-3688
▁अनिवार्य	-3689
▁keep	-3690
▁सुप्रीम	-3691
lia	-3692
igned	-3693
▁education	-3694
ैन	-3695
▁polit	-3696
▁ब्याज	-3697
umb	-3698
▁copy	-3699
▁बाल	-3700
▁bre	-3701
▁बाव	-3702
▁आस	-3703
▁proble	-3704
डर	-3705
▁whole	-3706
न्तु	-3707
▁regarding	-3708
▁Ab	-3709
iples	-3710
▁Spec	-3711
▁तदन	-3712
td	-3713
▁प्रार्थ	-3714
▁accepted	-3715
▁नव	-3716
error	-3717
▁program	-3718
▁reject	-3719
▁language	-3720
क्षक	-3721
▁प्रार्थना	-3722
uly	-3723
ग्न	-3724
hing	-3725
▁Apex	-3726
▁delay	-3727
ंटर	-3728
▁regular	-3729
▁dev	-3730
▁समी	-3731
ियर	-3732
▁employees	-3733
▁instru	-3734
▁पूरे	-3735
▁Order	-3736
riage	-3737
▁स्थापना	-3738
▁relief	-3739
▁goods	-3740
▁इरा	-3741
्याय	-3742
▁compensation	-3743
▁जिसने	-3744
▁समा	-3745
aking	-3746
▁आवेदक	-3747
▁authorities	-3748
ember	-3749
asht	-3750
▁रंग	-3751
▁विनियम	-3752
▁separ	-3753
▁बें	-3754
sw	-3755
▁हिस्सा	-3756
▁near	-3757
▁पुष्टि	-3758
▁cult	-3759
▁compet	-3760
ियो	-3761
राब	-3762
▁अग्र	-3763
utory	-3764
▁several	-3765
▁adver	-3766
▁Be	-3767
▁छा	-3768
▁आन	-3769
▁#	-3770
फार	-3771
▁discl	-3772
▁total	-3773
िक्ष	-3774
resh	-3775
▁स्वास्थ	-3776
liament	-3777
▁जानी	-3778
▁recomm	-3779
▁तदनुसार	-3780
▁प्रौद्योगिक	-3781
▁Even	-3782
▁बाजार	-3783
▁संस्था	-3784
▁free	-3785
दम	-3786
▁old	-3787
medi	-3788
▁Ins	-3789
▁कहते	-3790
▁सुझ	-3791
▁चिकित्सा	-3792
▁defendants	-3793
▁market	-3794
▁मंजू	-3795
▁Respondent	-3796
ंजी	-3797
▁force	-3798
▁वस	-3799
▁Hind	-3800
▁याद	-3801
alk	-3802
ging	-3803
ium	-3804
▁Aug	-3805
▁परिभा	-3806
▁procedure	-3807
ential	-3808
action	-3809
▁इस्त	-3810
▁appears	-3811
▁benefit	-3812
▁उससे	-3813
▁husband	-3814
▁लेन	-3815
ांक	-3816
▁कौ	-3817
▁हत्या	-3818
▁among	-3819
▁आयुक्त	-3820
लेज	-3821
isation	-3822
▁संभावना	-3823
▁New	-3824
▁natural	-3825
▁पुस्त	-3826
▁एज	-3827
▁तुल	-3828
▁pray	-3829
▁स्वास्थ्य	-3830
▁Corporation	-3831
▁san	-3832
▁full	-3833
ैंड	-3834
▁लक्ष	-3835
▁too	-3836
▁हमने	-3837
एँ	-3838
▁कारणों	-3839
II	-3840
▁paragraph	-3841
▁sought	-3842
▁Council	-3843
▁matters	-3844
▁similar	-3845
▁पें	-3846
▁times	-3847
▁परिवर्तन	-3848
▁Engl	-3849
▁appre	-3850
▁accordance	-3851
empt	-3852
्वान	-3853
overy	-3854
▁working	-3855
▁His	-3856
▁qual	-3857
▁बावजूद	-3858
▁rate	-3859
▁पार्टियों	-3860
▁En	-3861
लाह	-3862
श्म	-3863
ricult	-3864
▁suff	-3865
▁nex	-3866
्मिक	-3867
▁meas	-3868
mber	-3869
▁किस	-3870
▁उत्तरदाता	-3871
ably	-3872
▁fri	-3873
▁otherwise	-3874
▁laid	-3875
▁प्रतीत	-3876
▁जिन्हें	-3877
▁तकनी	-3878
▁direction	-3879
▁हिस्से	-3880
▁सीमित	-3881
▁निर्धारिती	-3882
िकोण	-3883
▁देखते	-3884
▁अत्य	-3885
▁sing	-3886
▁occurrence	-3887
▁अपीलीय	-3888
▁adop	-3889
▁prim	-3890
▁interf	-3891
que	-3892
▁दक्ष	-3893
▁यहाँ	-3894
▁HC	-3895
ours	-3896
abad	-3897
मति	-3898
idd	-3899
ane	-3900
▁deed	-3901
▁अधिवक्ता	-3902
िव्य	-3903
urity	-3904
वादियों	-3905
▁जगह	-3906
▁तर	-3907
▁share	-3908
थि	-3909
▁artic	-3910
▁major	-3911
arily	-3912
▁आयु	-3913
▁wind	-3914
▁अधिकारों	-3915
तिहास	-3916
▁बस	-3917
▁valid	-3918
▁पैदा	-3919
ieve	-3920
▁चलता	-3921
▁मंद	-3922
▁aside	-3923
lf	-3924
▁क़	-3925
▁Further	-3926
ta	-3927
▁लाख	-3928
ery	-3929
▁ide	-3930
▁Union	-3931
▁hearing	-3932
्यिक	-3933
iving	-3934
▁अन्त	-3935
ware	-3936
▁हेतु	-3937
▁इच्छ	-3938
▁defence	-3939
ends	-3940
UD	-3941
▁PR	-3942
ek	-3943
▁लाल	-3944
▁blood	-3945
▁control	-3946
सित	-3947
▁What	-3948
▁नं	-3949
िम्म	-3950
▁संसद	-3951
aly	-3952
▁correct	-3953
प्ता	-3954
१२	-3955
▁अस्पताल	-3956
sure	-3957
▁बचाव	-3958
ali	-3959
▁व्यक्तिगत	-3960
akh	-3961
▁संके	-3962
▁principle	-3963
▁आपके	-3964
▁field	-3965
▁brother	-3966
ूरी	-3967
▁मुआ	-3968
▁medical	-3969
▁जिन्होंने	-3970
▁स्वतंत्रता	-3971
▁six	-3972
ris	-3973
▁sk	-3974
फारिश	-3975
▁मुद्दे	-3976
▁transfer	-3977
▁Pat	-3978
▁opportunity	-3979
ID	-3980
▁affidavit	-3981
▁assessment	-3982
ंसा	-3983
▁Authority	-3984
▁पांच	-3985
▁मात्रा	-3986
▁substant	-3987
▁note	-3988
▁spot	-3989
icult	-3990
▁मार्ग	-3991
▁हिन्द	-3992
▁change	-3993
▁failed	-3994
ंगत	-3995
oid	-3996
▁आए	-3997
▁सीआर	-3998
ething	-3999
▁return	-4000
▁Comm	-4001
▁सिफारिश	-4002
▁reasonable	-4003
▁dead	-4004
▁subsequent	-4005
▁बढ़ा	-4006
▁व्यवसाय	-4007
्टर	-4008
▁move	-4009
▁health	-4010
hys	-4011
▁पुनर्	-4012
▁दायित्व	-4013
▁लगता	-4014
ern	-4015
▁मुआव	-4016
acher	-4017
▁neg	-4018
▁अंक	-4019
▁व्यापक	-4020
▁व्यवहार	-4021
ोह	-4022
▁Ltd	-4023
▁recogn	-4024
▁super	-4025
▁उपस्थिति	-4026
न्ध	-4027
▁later	-4028
िकल	-4029
▁vac	-4030
▁सहयोग	-4031
निर्	-4032
▁propos	-4033
▁Ra	-4034
▁true	-4035
▁trad	-4036
▁charact	-4037
▁injuries	-4038
▁दृष्टिकोण	-4039
▁तत्काल	-4040
▁विज्ञान	-4041
▁private	-4042
▁Special	-4043
▁answ	-4044
▁still	-4045
▁तुम	-4046
▁vehic	-4047
▁success	-4048
▁function	-4049
▁decree	-4050
▁Public	-4051
▁Pradesh	-4052
work	-4053
▁विधान	-4054
▁अर	-4055
▁es	-4056
▁भाई	-4057
ems	-4058
▁proceeding	-4059
duc	-4060
▁charges	-4061
▁ur	-4062
▁वाद	-4063
▁Ann	-4064
▁विवाह	-4065
imum	-4066
▁sw	-4067
▁परिणामस्वरूप	-4068
▁sl	-4069
▁कैसे	-4070
▁principles	-4071
▁Develop	-4072
▁पोस्ट	-4073
ग्रहण	-4074
▁भर्ती	-4075
▁Kh	-4076
atic	-4077
▁objection	-4078
▁भू	-4079
▁official	-4080
ूली	-4081
▁next	-4082
ship	-4083
र्प	-4084
▁plead	-4085
▁अध्यक्ष	-4086
▁States	-4087
ाउ	-4088
▁plan	-4089
▁sufficient	-4090
▁शा	-4091
▁sal	-4092
▁today	-4093
tle	-4094
▁अनुमान	-4095
▁Station	-4096
▁ful	-4097
▁sus	-4098
▁intern	-4099
▁उच्चतम	-4100
▁ess	-4101
▁affect	-4102
▁केंद	-4103
▁रोज	-4104
▁financial	-4105
vest	-4106
▁Prov	-4107
▁pref	-4108
▁Secret	-4109
ष्य	-4110
▁जन्म	-4111
▁उपधारा	-4112
ह्न	-4113
▁घोषित	-4114
▁fram	-4115
▁always	-4116
▁पंजीकृत	-4117
▁लाइस	-4118
▁सुझाव	-4119
▁higher	-4120
▁संत	-4121
ats	-4122
▁अन्यथा	-4123
▁उपस्थित	-4124
र्च	-4125
..	-4126
▁बीमा	-4127
▁सेवाओं	-4128
▁resident	-4129
▁निकाल	-4130
▁सूचित	-4131
▁प्रौद्योगिकी	-4132
ara	-4133
▁बच्चों	-4134
▁Muslim	-4135
▁provides	-4136
ension	-4137
▁निवेश	-4138
पूर्व	-4139
कृतिक	-4140
▁खरीद	-4141
▁finding	-4142
augh	-4143
▁Part	-4144
▁chang	-4145
▁उपयुक्त	-4146
▁national	-4147
▁contained	-4148
▁applicant	-4149
▁One	-4150
▁port	-4151
▁mand	-4152
venue	-4153
ांति	-4154
lied	-4155
orth	-4156
▁जोड़	-4157
ीर	-4158
▁indep	-4159
▁caused	-4160
खिल	-4161
लग्न	-4162
▁सभा	-4163
endment	-4164
ury	-4165
▁self	-4166
▁undert	-4167
▁giving	-4168
AM	-4169
thing	-4170
▁एकल	-4171
▁गयी	-4172
▁बच्चे	-4173
बू	-4174
्राफ	-4175
▁सत्र	-4176
▁relations	-4177
▁जीव	-4178
▁लाइसेंस	-4179
▁वही	-4180
▁रक्षा	-4181
arat	-4182
▁चाहते	-4183
sed	-4184
▁presence	-4185
▁अभियुक्तों	-4186
टन	-4187
मती	-4188
▁meeting	-4189
ोप	-4190
▁संतु	-4191
HE	-4192
▁भौ	-4193
▁सै	-4194
▁अस्वी	-4195
▁nothing	-4196
लाई	-4197
▁स्थायी	-4198
▁bring	-4199
▁परिष	-4200
▁सहमति	-4201
▁स्थानीय	-4202
▁sect	-4203
▁अनुभव	-4204
▁अमे	-4205
ानि	-4206
▁प्रधान	-4207
to	-4208
बार	-4209
▁dri	-4210
▁enquiry	-4211
▁namely	-4212
▁Med	-4213
▁दलील	-4214
▁With	-4215
uf	-4216
यों	-4217
ूस	-4218
outh	-4219
णिज	-4220
▁fac	-4221
▁nam	-4222
MENT	-4223
▁जमान	-4224
▁Cla	-4225
▁mot	-4226
▁स्पष्टीकरण	-4227
▁prepared	-4228
▁best	-4229
ोद	-4230
▁treat	-4231
▁पिछले	-4232
षित	-4233
▁क्रिया	-4234
▁विदेशी	-4235
ND	-4236
▁elect	-4237
▁once	-4238
▁कवि	-4239
▁अगस्त	-4240
▁यात्रा	-4241
▁केंद्रीय	-4242
▁arrest	-4243
▁injury	-4244
▁Kar	-4245
वरण	-4246
lam	-4247
▁मेरी	-4248
फना	-4249
▁meaning	-4250
▁Parliament	-4251
▁सचिव	-4252
▁पानी	-4253
amination	-4254
ush	-4255
रासत	-4256
▁wr	-4257
▁impro	-4258
▁वृद्धि	-4259
vir	-4260
▁bey	-4261
▁asked	-4262
▁बाध्य	-4263
▁चरण	-4264
▁third	-4265
▁स्थानांत	-4266
ann	-4267
IL	-4268
▁fall	-4269
▁वाणिज	-4270
ote	-4271
▁senior	-4272
▁अंतर्गत	-4273
▁step	-4274
ेमाल	-4275
▁गिरफ्त	-4276
▁beyond	-4277
▁extent	-4278
▁कोशिश	-4279
▁Advocate	-4280
▁प्रशिक्ष	-4281
▁काल	-4282
नाथ	-4283
istry	-4284
▁lic	-4285
▁सम्मान	-4286
▁इस्तेमाल	-4287
▁विल	-4288
▁conducted	-4289
for	-4290
▁बैठक	-4291
▁prove	-4292
▁प्रतिनिधित्व	-4293
ृत्ति	-4294
▁kind	-4295
▁areas	-4296
▁संकेत	-4297
लन	-4298
▁रखना	-4299
▁मदद	-4300
▁By	-4301
▁नुक	-4302
aper	-4303
▁guil	-4304
▁holding	-4305
▁denied	-4306
▁संशोधित	-4307
▁situation	-4308
come	-4309
▁असम	-4310
dule	-4311
▁अह	-4312
▁Development	-4313
▁Pre	-4314
▁मंजूरी	-4315
▁loss	-4316
ructure	-4317
▁Just	-4318
▁div	-4319
▁औद्योगिक	-4320
une	-4321
ercial	-4322
▁submits	-4323
▁पश्चिम	-4324
▁कॉलेज	-4325
मन	-4326
ma	-4327
▁अंग्रे	-4328
▁intention	-4329
▁सेट	-4330
▁बेंच	-4331
ape	-4332
▁यानी	-4333
vey	-4334
▁decla	-4335
ार्ड	-4336
▁norm	-4337
▁Panch	-4338
▁जिम्म	-4339
▁सौंप	-4340
ribution	-4341
▁Educ	-4342
▁sust	-4343
▁obl	-4344
▁unless	-4345
▁आकर्ष	-4346
▁हूँ	-4347
▁Minister	-4348
▁hist	-4349
▁देरी	-4350
standing	-4351
illed	-4352
▁जरूर	-4353
UR	-4354
ample	-4355
वर्ती	-4356
▁notification	-4357
▁specified	-4358
▁local	-4359
▁tit	-4360
unt	-4361
ards	-4362
▁समीक्षा	-4363
▁ज्या	-4364
AD	-4365
भाग	-4366
▁immedi	-4367
▁petitions	-4368
▁Page	-4369
▁आरोपों	-4370
▁outs	-4371
ulated	-4372
▁सीखे	-4373
▁मध्यस्थता	-4374
igating	-4375
rish	-4376
ault	-4377
▁सुरक्षित	-4378
▁नौ	-4379
▁Such	-4380
▁दावे	-4381
▁thereof	-4382
▁pop	-4383
utive	-4384
▁able	-4385
▁राजस्व	-4386
▁certificate	-4387
aya	-4388
३०	-4389
hold	-4390
▁देय	-4391
▁review	-4392
▁carry	-4393
▁मंदिर	-4394
▁इंग	-4395
▁देशों	-4396
िवी	-4397
▁occas	-4398
▁पीछे	-4399
▁आदेशों	-4400
▁प्राकृतिक	-4401
gether	-4402
▁हलफना	-4403
▁together	-4404
ेंसी	-4405
दायी	-4406
▁भूमिका	-4407
acity	-4408
ार्ज	-4409
urned	-4410
▁करोड़	-4411
▁चिह्न	-4412
▁filing	-4413
▁statutory	-4414
ected	-4415
्रिय	-4416
anation	-4417
डे	-4418
ories	-4419
▁While	-4420
▁एफआईआर	-4421
▁संबंधी	-4422
▁something	-4423
▁मोट	-4424
ties	-4425
▁विकसित	-4426
ूठ	-4427
▁bar	-4428
▁कप	-4429
▁fal	-4430
int	-4431
▁संदर्भित	-4432
▁बंग	-4433
▁Village	-4434
ently	-4435
▁mo	-4436
▁lab	-4437
▁doct	-4438
lege	-4439
▁समझौता	-4440
ान्त	-4441
▁liable	-4442
▁वाहन	-4443
▁difficult	-4444
ुआ	-4445
▁Sm	-4446
▁सलाह	-4447
bs	-4448
ैल	-4449
▁Lim	-4450
▁विभाज	-4451
▁सत	-4452
go	-4453
▁पंजीकरण	-4454
▁सिद्धांतों	-4455
▁बिंद	-4456
ION	-4457
▁started	-4458
▁आल	-4459
irm	-4460
▁काउ	-4461
तियों	-4462
ened	-4463
▁तुलना	-4464
▁relied	-4465
▁students	-4466
iary	-4467
▁deposed	-4468
ियाँ	-4469
▁employee	-4470
ष्ट्रीय	-4471
▁capital	-4472
खंड	-4473
▁hard	-4474
▁courts	-4475
▁therein	-4476
▁हट	-4477
ेंद्र	-4478
डा	-4479
urd	-4480
indu	-4481
adi	-4482
▁रेल	-4483
▁lib	-4484
▁absence	-4485
▁decisions	-4486
▁aut	-4487
▁states	-4488
▁डिक्री	-4489
▁Under	-4490
▁इला	-4491
▁दूसरा	-4492
▁वैधानिक	-4493
▁applicable	-4494
▁previous	-4495
▁bail	-4496
avan	-4497
ग्	-4498
▁comput	-4499
▁issues	-4500
▁एससीसी	-4501
acy	-4502
▁प्रभावी	-4503
▁नुकसान	-4504
▁ठहराया	-4505
arma	-4506
▁belong	-4507
▁serious	-4508
▁बज	-4509
▁अभिव्य	-4510
▁छात्र	-4511
▁राजनी	-4512
▁Senior	-4513
्साह	-4514
▁Govern	-4515
▁Me	-4516
यां	-4517
▁टे	-4518
▁कदम	-4519
▁political	-4520
ंगे	-4521
ाधिकार	-4522
▁निपटान	-4523
▁home	-4524
▁लागत	-4525
isition	-4526
▁ut	-4527
▁जमानत	-4528
▁phys	-4529
▁member	-4530
▁fair	-4531
▁देव	-4532
▁छोटे	-4533
▁daugh	-4534
▁चाल	-4535
▁भेजा	-4536
दार्थ	-4537
ंटी	-4538
▁credit	-4539
▁economic	-4540
▁मिश	-4541
▁यु	-4542
▁लौ	-4543
▁character	-4544
▁धो	-4545
▁वेब	-4546
▁wrong	-4547
▁ach	-4548
▁few	-4549
▁अस्त	-4550
▁settled	-4551
▁मंत्रालय	-4552
▁construction	-4553
▁१	-4554
▁Gand	-4555
▁assessee	-4556
▁जहाँ	-4557
▁प्रतिवादियों	-4558
▁ill	-4559
यात	-4560
alc	-4561
जों	-4562
▁प्रदर्श	-4563
gin	-4564
▁तिथि	-4565
▁expression	-4566
ruit	-4567
▁बहु	-4568
िटी	-4569
with	-4570
▁food	-4571
पि	-4572
selves	-4573
▁around	-4574
ubl	-4575
एफ	-4576
ड़क	-4577
▁ग्राम	-4578
▁भवि	-4579
▁पीठ	-4580
▁लेकर	-4581
दंड	-4582
▁unt	-4583
र्जी	-4584
▁disch	-4585
amb	-4586
सीय	-4587
urance	-4588
▁अनुचित	-4589
▁Hindu	-4590
▁आईपीसी	-4591
▁पदार्थ	-4592
erg	-4593
▁dom	-4594
सि	-4595
▁दृष्टि	-4596
▁sentence	-4597
▁event	-4598
▁अस्थ	-4599
▁बां	-4600
▁भले	-4601
▁countries	-4602
▁Cre	-4603
▁ap	-4604
ues	-4605
्रेस	-4606
ताछ	-4607
▁false	-4608
ama	-4609
▁बोली	-4610
▁भविष्य	-4611
▁JUD	-4612
▁त्रुट	-4613
▁declar	-4614
▁purposes	-4615
essions	-4616
▁recei	-4617
एन	-4618
▁दक्षि	-4619
▁foreign	-4620
▁बेट	-4621
▁निरी	-4622
▁merely	-4623
▁pending	-4624
▁maintain	-4625
▁shown	-4626
राह	-4627
irt	-4628
मात्र	-4629
▁एंड	-4630
▁श्रीमती	-4631
ED	-4632
▁Jan	-4633
▁arri	-4634
▁kept	-4635
cious	-4636
irit	-4637
▁मजब	-4638
▁Bihar	-4639
▁रहते	-4640
▁लंबित	-4641
▁Mar	-4642
▁Secretary	-4643
iting	-4644
▁English	-4645
▁खो	-4646
▁leave	-4647
▁गांव	-4648
▁अर्थात्	-4649
जित	-4650
▁building	-4651
▁candidates	-4652
▁marriage	-4653
▁विकल्प	-4654
vironment	-4655
▁उत्तरदायी	-4656
ancy	-4657
▁wherein	-4658
▁May	-4659
▁Leg	-4660
ंधान	-4661
▁Beng	-4662
▁statements	-4663
▁मर	-4664
▁JUDG	-4665
▁निष्पादित	-4666
▁पेट	-4667
▁शक्तियों	-4668
▁IT	-4669
ita	-4670
तार	-4671
▁Cl	-4672
▁para	-4673
ternal	-4674
▁fut	-4675
aul	-4676
र्मा	-4677
▁eff	-4678
▁conviction	-4679
▁Mun	-4680
▁फर	-4681
▁School	-4682
▁admission	-4683
▁Brit	-4684
त्तियों	-4685
▁विज्ञ	-4686
िवीजन	-4687
▁sanction	-4688
▁रहता	-4689
▁rejected	-4690
▁इका	-4691
▁अच्छा	-4692
▁production	-4693
rix	-4694
▁पूछताछ	-4695
त्मा	-4696
▁followed	-4697
▁aver	-4698
▁defin	-4699
ण्	-4700
▁Dis	-4701
▁crit	-4702
ufact	-4703
▁women	-4704
ership	-4705
▁election	-4706
▁अनुश	-4707
▁संपर्क	-4708
▁activities	-4709
▁accordingly	-4710
▁forward	-4711
▁अनुपालन	-4712
▁institutions	-4713
▁बड़ा	-4714
▁Hence	-4715
▁pursu	-4716
▁Invest	-4717
ेर	-4718
▁प्रारंभिक	-4719
ेशा	-4720
▁उसमें	-4721
ulations	-4722
▁प्रकाशित	-4723
▁ded	-4724
eb	-4725
िफ	-4726
▁आपूर्ति	-4727
▁संचालन	-4728
▁particip	-4729
▁सत्य	-4730
ामीण	-4731
▁कर्तव्य	-4732
▁offences	-4733
fully	-4734
▁why	-4735
▁vol	-4736
ipur	-4737
▁net	-4738
omes	-4739
law	-4740
▁trade	-4741
▁JUDGMENT	-4742
▁publ	-4743
▁ग्रामीण	-4744
▁चाहे	-4745
▁Counsel	-4746
aff	-4747
ethod	-4748
▁Appeal	-4749
▁निर्णयों	-4750
▁टिप	-4751
ires	-4752
▁personal	-4753
ead	-4754
▁feel	-4755
▁जाये	-4756
▁Since	-4757
▁आपत्ति	-4758
▁गठन	-4759
▁vehicle	-4760
▁Criminal	-4761
▁अधिग्रहण	-4762
▁उपकरण	-4763
▁दिखाई	-4764
lu	-4765
▁ele	-4766
▁संसा	-4767
▁management	-4768
▁considering	-4769
▁आद	-4770
▁खाते	-4771
चरण	-4772
▁डिवीजन	-4773
▁नम	-4774
▁पक्षों	-4775
▁अनुसंधान	-4776
▁equal	-4777
र्इ	-4778
▁From	-4779
▁cro	-4780
▁मार्च	-4781
▁अपेक्षा	-4782
शल	-4783
ling	-4784
पूर्वक	-4785
▁bal	-4786
सिक	-4787
emed	-4788
▁रखी	-4789
धे	-4790
stitute	-4791
▁सम्प	-4792
ti	-4793
खी	-4794
▁implement	-4795
▁राज्यों	-4796
१३	-4797
▁whose	-4798
कृति	-4799
▁department	-4800
anies	-4801
र्ग	-4802
▁चित्र	-4803
▁हमेशा	-4804
▁things	-4805
▁Pra	-4806
▁Rec	-4807
▁जोर	-4808
▁informed	-4809
▁कर्	-4810
▁बोल	-4811
▁विद्य	-4812
▁mil	-4813
▁face	-4814
▁देखने	-4815
▁Sar	-4816
▁उनमें	-4817
▁Sy	-4818
▁und	-4819
विदा	-4820
ानुसार	-4821
▁छूट	-4822
eric	-4823
erve	-4824
▁promotion	-4825
▁CR	-4826
▁interpre	-4827
tion	-4828
▁commit	-4829
▁मिली	-4830
▁बाहरी	-4831
▁follows	-4832
र्फ	-4833
uses	-4834
▁request	-4835
▁challenge	-4836
rated	-4837
▁God	-4838
▁facil	-4839
▁Assist	-4840
▁यही	-4841
ught	-4842
▁impos	-4843
▁thought	-4844
▁men	-4845
बाद	-4846
▁लॉ	-4847
▁saf	-4848
▁Education	-4849
▁वन	-4850
▁noted	-4851
ched	-4852
▁तुर	-4853
▁अध्ययन	-4854
▁इतिहास	-4855
▁निष्पादन	-4856
▁claimed	-4857
धिकार	-4858
▁THE	-4859
▁involved	-4860
▁inn	-4861
aving	-4862
▁Islam	-4863
ड़ों	-4864
▁उठाया	-4865
▁gave	-4866
iss	-4867
▁पात्र	-4868
▁कार्यों	-4869
▁week	-4870
▁पक	-4871
ल्पना	-4872
▁अनुसूची	-4873
▁दाखिल	-4874
▁assist	-4875
▁गवाही	-4876
atives	-4877
▁पेंशन	-4878
▁receipt	-4879
▁Thereafter	-4880
▁तकनीकी	-4881
ills	-4882
▁अंतरिम	-4883
▁कला	-4884
▁चुका	-4885
▁price	-4886
▁शीर्षक	-4887
▁टिप्प	-4888
ource	-4889
जार	-4890
▁प्रकट	-4891
▁यून	-4892
▁restr	-4893
itiz	-4894
▁मास	-4895
▁road	-4896
▁ढंग	-4897
लब	-4898
▁commission	-4899
▁fixed	-4900
▁dispos	-4901
irst	-4902
▁आता	-4903
inate	-4904
▁imm	-4905
hai	-4906
▁जाति	-4907
▁might	-4908
▁एड	-4909
▁Justice	-4910
▁illegal	-4911
▁Lal	-4912
ament	-4913
▁mult	-4914
ेध	-4915
▁नक	-4916
▁streng	-4917
▁grounds	-4918
▁इत	-4919
▁turn	-4920
▁design	-4921
▁stay	-4922
▁खर्च	-4923
ril	-4924
▁माता	-4925
▁रचना	-4926
▁दर्श	-4927
▁भौतिक	-4928
▁connection	-4929
▁जिनके	-4930
▁mor	-4931
स्क	-4932
▁रक्त	-4933
▁आवंट	-4934
▁प्रेम	-4935
▁विद्वान	-4936
▁भिन्न	-4937
▁method	-4938
▁spirit	-4939
ources	-4940
▁संगठन	-4941
▁plaintiffs	-4942
▁approach	-4943
▁agricult	-4944
.-	-4945
▁परिप	-4946
▁भावना	-4947
▁वसूली	-4948
▁manufact	-4949
▁security	-4950
▁यद्य	-4951
▁context	-4952
▁executed	-4953
▁लाया	-4954
▁युद्ध	-4955
▁contrary	-4956
▁fr	-4957
▁Service	-4958
▁associ	-4959
oad	-4960
most	-4961
urrent	-4962
usal	-4963
▁यद्यपि	-4964
▁occasion	-4965
CT	-4966
▁situ	-4967
▁मान्यता	-4968
▁March	-4969
हरी	-4970
▁treated	-4971
iced	-4972
asad	-4973
▁effort	-4974
▁आरंभ	-4975
▁देवी	-4976
दर्श	-4977
▁रोजगार	-4978
▁title	-4979
uled	-4980
▁Sim	-4981
▁शासन	-4982
▁parent	-4983
▁Annex	-4984
▁registration	-4985
▁उठाए	-4986
▁future	-4987
reg	-4988
ंता	-4989
▁शेष	-4990
रेट	-4991
▁बुला	-4992
▁bound	-4993
▁seeking	-4994
▁heard	-4995
▁oppos	-4996
▁needs	-4997
▁विस्तृत	-4998
icated	-4999
▁prob	-5000
▁carried	-5001
▁Will	-5002
▁related	-5003
▁लगे	-5004
संद	-5005
▁Chh	-5006
▁Sat	-5007
men	-5008
▁महान	-5009
▁young	-5010
▁पहलू	-5011
▁फिल	-5012
imate	-5013
▁जिरह	-5014
▁owner	-5015
▁dam	-5016
▁लिखा	-5017
▁साहित	-5018
rant	-5019
▁expect	-5020
वीं	-5021
uary	-5022
▁निविदा	-5023
▁ensure	-5024
कु	-5025
▁Tax	-5026
▁recovery	-5027
जरा	-5028
▁खेल	-5029
examination	-5030
▁पाठ्य	-5031
ंजन	-5032
▁consum	-5033
जय	-5034
▁Sah	-5035
▁होनी	-5036
▁Now	-5037
▁किरा	-5038
arant	-5039
▁विरुद्ध	-5040
ायद	-5041
▁appreci	-5042
▁Dist	-5043
▁daughter	-5044
ोन्न	-5045
▁एकमात्र	-5046
▁additional	-5047
ayat	-5048
▁became	-5049
itive	-5050
▁मिले	-5051
▁susp	-5052
▁counter	-5053
rah	-5054
▁खुलासा	-5055
ental	-5056
▁जिनमें	-5057
▁specif	-5058
▁properties	-5059
▁पेज	-5060
erated	-5061
▁आरोपियों	-5062
ात्म	-5063
▁cover	-5064
▁मौत	-5065
▁plant	-5066
▁अस्तित्व	-5067
▁साव	-5068
▁केस	-5069
mes	-5070
▁पदोन्न	-5071
▁होकर	-5072
▁निर्वा	-5073
▁lod	-5074
▁हिरासत	-5075
ंतर	-5076
▁उम	-5077
▁Additional	-5078
▁told	-5079
भूत	-5080
▁प्रग	-5081
▁प्रवि	-5082
▁शव	-5083
▁चाहता	-5084
▁Let	-5085
▁निकल	-5086
▁आकार	-5087
udd	-5088
▁allegations	-5089
elf	-5090
▁देती	-5091
▁जून	-5092
▁crime	-5093
▁वाय	-5094
▁बरा	-5095
▁penal	-5096
▁constitution	-5097
▁industry	-5098
▁declaration	-5099
▁परे	-5100
▁Writ	-5101
▁role	-5102
▁स्म	-5103
▁सम्ब	-5104
▁उपर्	-5105
▁obtained	-5106
▁व्याव	-5107
▁declared	-5108
AS	-5109
ude	-5110
▁बिंदु	-5111
धीन	-5112
▁relation	-5113
ancell	-5114
▁yet	-5115
▁framed	-5116
▁exam	-5117
▁सेवान	-5118
▁ce	-5119
▁details	-5120
▁rese	-5121
▁poet	-5122
▁eas	-5123
enced	-5124
▁बिज	-5125
▁cast	-5126
▁address	-5127
▁spe	-5128
▁आचरण	-5129
▁सेवानिव	-5130
ored	-5131
▁पुत्र	-5132
▁continue	-5133
▁Report	-5134
▁संस्थानों	-5135
▁outside	-5136
▁मश	-5137
▁साह	-5138
▁खे	-5139
▁ज्यादा	-5140
▁उपर्युक्त	-5141
▁Em	-5142
▁allot	-5143
▁विवेक	-5144
NIC	-5145
केट	-5146
▁prosecut	-5147
▁little	-5148
▁First	-5149
▁arbitration	-5150
atch	-5151
र्वा	-5152
▁परंतु	-5153
▁independent	-5154
▁परिषद	-5155
धा	-5156
▁तरफ	-5157
▁permission	-5158
▁Muk	-5159
▁गाँ	-5160
itor	-5161
▁निर्देशित	-5162
▁हमारा	-5163
▁competent	-5164
▁Rep	-5165
म्प	-5166
▁Indust	-5167
▁वाणिज्यिक	-5168
▁Where	-5169
▁officers	-5170
▁lar	-5171
ायक	-5172
▁टै	-5173
omp	-5174
▁संय	-5175
▁किर	-5176
▁writing	-5177
▁संरक्षण	-5178
▁reserv	-5179
▁sector	-5180
▁आकर्षित	-5181
▁निषेध	-5182
▁अभिव्यक्ति	-5183
▁कहना	-5184
▁Sur	-5185
▁furn	-5186
ares	-5187
▁joint	-5188
▁विनिर्	-5189
▁heart	-5190
▁arr	-5191
▁reached	-5192
▁room	-5193
▁अप्रैल	-5194
▁shows	-5195
RI	-5196
▁rend	-5197
▁बेहत	-5198
▁ते	-5199
▁अर्थात	-5200
सन	-5201
▁window	-5202
wal	-5203
▁Bar	-5204
▁di	-5205
▁फाइल	-5206
▁पुस्तक	-5207
▁impl	-5208
▁अभ्यास	-5209
ises	-5210
▁गार	-5211
▁hospital	-5212
▁अश	-5213
tt	-5214
▁whom	-5215
▁applied	-5216
ison	-5217
omb	-5218
▁बराम	-5219
▁testim	-5220
▁better	-5221
land	-5222
▁instant	-5223
acc	-5224
▁Ph	-5225
▁district	-5226
▁सत्ता	-5227
▁teacher	-5228
▁recommend	-5229
▁trust	-5230
▁single	-5231
▁intro	-5232
istrative	-5233
▁revision	-5234
▁Created	-5235
म्ह	-5236
▁data	-5237
▁Limited	-5238
▁bo	-5239
▁agg	-5240
▁विश्ले	-5241
धानी	-5242
▁Fin	-5243
▁गुर	-5244
▁Assistant	-5245
lying	-5246
▁जाँच	-5247
▁British	-5248
▁डे	-5249
मो	-5250
oted	-5251
▁particularly	-5252
रक	-5253
▁Hindi	-5254
▁existing	-5255
▁discussion	-5256
▁Cons	-5257
▁April	-5258
▁बराबर	-5259
▁Gandhi	-5260
▁strong	-5261
▁Bhavan	-5262
▁quality	-5263
▁Ministry	-5264
▁फैसला	-5265
▁त्रुटि	-5266
▁पट्ट	-5267
▁परिसर	-5268
▁House	-5269
▁records	-5270
ैतिक	-5271
▁प्रशिक्षण	-5272
ET	-5273
ंगल	-5274
▁हथ	-5275
▁makes	-5276
▁गांधी	-5277
▁acquit	-5278
▁interim	-5279
▁Annexure	-5280
▁Sw	-5281
▁कहीं	-5282
▁existence	-5283
ज्ञानिक	-5284
▁प्रत्यक्ष	-5285
mises	-5286
▁Pal	-5287
▁execution	-5288
▁minor	-5289
▁दें	-5290
▁रात	-5291
aries	-5292
▁प्रतिबंध	-5293
▁प्रशासनिक	-5294
ring	-5295
▁भ्र	-5296
▁संस्करण	-5297
ेदारी	-5298
▁तंत्र	-5299
▁Petitioner	-5300
▁Bal	-5301
▁इस्ल	-5302
▁याचिकाओं	-5303
▁कांग	-5304
ून्य	-5305
ॉस	-5306
now	-5307
साइट	-5308
▁नया	-5309
pir	-5310
जनक	-5311
▁जिसकी	-5312
▁capacity	-5313
▁सित	-5314
▁applications	-5315
▁शु	-5316
▁साधारण	-5317
aster	-5318
▁treatment	-5319
▁citiz	-5320
▁liter	-5321
▁करनी	-5322
▁पट	-5323
▁mur	-5324
▁join	-5325
▁summ	-5326
airs	-5327
▁enact	-5328
rs	-5329
ालित	-5330
▁पीसी	-5331
garh	-5332
ठित	-5333
▁eye	-5334
ात्मक	-5335
ेदन	-5336
भाई	-5337
▁पुनः	-5338
▁anything	-5339
▁संदेश	-5340
▁साझ	-5341
भू	-5342
▁art	-5343
▁कोर्इ	-5344
▁अनुक	-5345
▁type	-5346
missible	-5347
dra	-5348
endra	-5349
▁प्रगति	-5350
▁Artic	-5351
▁thing	-5352
▁झूठ	-5353
▁दावेदार	-5354
▁growth	-5355
▁Procedure	-5356
▁रिक्त	-5357
▁सिर	-5358
▁Rasht	-5359
▁परन्तु	-5360
▁इंडिया	-5361
▁themselves	-5362
▁separate	-5363
cri	-5364
irl	-5365
प्प	-5366
▁close	-5367
▁तुरंत	-5368
aka	-5369
▁पौ	-5370
▁समझा	-5371
▁search	-5372
सम	-5373
▁मेड	-5374
▁live	-5375
▁fra	-5376
▁sense	-5377
BI	-5378
स्थाप	-5379
cle	-5380
▁बॉ	-5381
▁employment	-5382
▁यथ	-5383
▁उल्लिखित	-5384
▁संतुष्ट	-5385
▁Lab	-5386
▁entered	-5387
▁subs	-5388
▁hence	-5389
▁prevent	-5390
▁station	-5391
▁Im	-5392
▁दर्शा	-5393
गढ़	-5394
न्व	-5395
▁क्षति	-5396
▁पूंजी	-5397
▁पंचायत	-5398
▁मुआवजे	-5399
▁sol	-5400
▁सराह	-5401
▁राजा	-5402
▁z	-5403
▁निकाय	-5404
▁Le	-5405
▁mill	-5406
▁जरूरत	-5407
ृत्त	-5408
▁दक्षिण	-5409
▁अध्याय	-5410
दाता	-5411
▁लगी	-5412
▁findings	-5413
▁Prasad	-5414
▁coming	-5415
▁जल्	-5416
uction	-5417
भाल	-5418
▁तुम्ह	-5419
cent	-5420
▁शेयर	-5421
▁line	-5422
▁Dh	-5423
कारों	-5424
▁शून्य	-5425
▁निर्यात	-5426
▁appellate	-5427
▁बरामद	-5428
▁neither	-5429
ॉक	-5430
▁दि	-5431
▁lay	-5432
▁Clause	-5433
श्वर	-5434
▁अक	-5435
▁विलेख	-5436
▁consist	-5437
▁Cong	-5438
though	-5439
▁love	-5440
▁अस्वीकार	-5441
reedom	-5442
▁Sessions	-5443
▁operation	-5444
▁occur	-5445
▁PO	-5446
▁कारा	-5447
▁निम्नानुसार	-5448
▁गुजरा	-5449
▁तेल	-5450
▁Do	-5451
लाव	-5452
▁story	-5453
▁Americ	-5454
▁passing	-5455
enc	-5456
pr	-5457
▁नही	-5458
▁पुरुष	-5459
▁पाठ्यक्रम	-5460
ांड	-5461
▁region	-5462
▁रि	-5463
▁दिस	-5464
▁पुरा	-5465
▁उद्य	-5466
▁elig	-5467
▁immediately	-5468
संगत	-5469
▁Off	-5470
▁cut	-5471
▁created	-5472
▁कृत	-5473
ैक	-5474
▁पराम	-5475
▁छोड़कर	-5476
▁ter	-5477
▁सोच	-5478
▁alone	-5479
hibit	-5480
▁industrial	-5481
▁उम्मीदवारों	-5482
गल	-5483
▁अधिका	-5484
सनीय	-5485
्राइ	-5486
िस्ता	-5487
▁seized	-5488
ैधानिक	-5489
▁posts	-5490
ertain	-5491
▁During	-5492
▁mus	-5493
▁हटा	-5494
▁Princ	-5495
▁विंड	-5496
▁approval	-5497
ift	-5498
▁fun	-5499
▁पाए	-5500
▁Guj	-5501
▁doing	-5502
▁Nar	-5503
▁संचार	-5504
▁access	-5505
▁include	-5506
jee	-5507
▁Ne	-5508
▁पहला	-5509
▁स्रो	-5510
▁selection	-5511
▁died	-5512
▁सुब	-5513
▁शायद	-5514
▁क़ान	-5515
▁सड़क	-5516
▁Krish	-5517
▁specifically	-5518
imal	-5519
▁draw	-5520
▁मुक्त	-5521
▁murder	-5522
▁शिव	-5523
▁पदों	-5524
▁विशेषज्ञ	-5525
▁छह	-5526
▁उपचार	-5527
▁Bengal	-5528
▁पड़ा	-5529
▁पसंद	-5530
▁महारा	-5531
▁अपराधों	-5532
▁तत्व	-5533
णियों	-5534
gr	-5535
▁भग	-5536
▁अनुरूप	-5537
▁benefits	-5538
रिका	-5539
त्साह	-5540
पालिका	-5541
▁बेहतर	-5542
▁Single	-5543
▁चेक	-5544
▁inquiry	-5545
▁published	-5546
rapati	-5547
▁amendment	-5548
▁अभाव	-5549
▁led	-5550
ening	-5551
ji	-5552
आईसी	-5553
▁Trial	-5554
यर	-5555
▁सामना	-5556
olute	-5557
oice	-5558
र्जा	-5559
धिकरण	-5560
▁Scheme	-5561
▁pointed	-5562
▁Pun	-5563
▁reve	-5564
▁संरचना	-5565
formation	-5566
ously	-5567
▁रखे	-5568
▁rendered	-5569
▁विज्ञापन	-5570
ieved	-5571
नात्मक	-5572
arth	-5573
▁analy	-5574
lector	-5575
AG	-5576
▁key	-5577
▁directions	-5578
▁mach	-5579
▁क़ानून	-5580
▁री	-5581
▁integ	-5582
▁marked	-5583
▁इतना	-5584
adu	-5585
▁dest	-5586
▁बढ़ाने	-5587
▁occup	-5588
▁जनवरी	-5589
▁liability	-5590
▁friend	-5591
▁राजनीतिक	-5592
kh	-5593
oor	-5594
प्ताह	-5595
घु	-5596
▁मिट	-5597
▁har	-5598
▁gre	-5599
▁निरंतर	-5600
हीन	-5601
▁सहमत	-5602
▁प्रयोज	-5603
▁Bl	-5604
्ष्	-5605
▁कार्यकारी	-5606
▁lat	-5607
▁Though	-5608
ators	-5609
ada	-5610
▁मई	-5611
▁पाल	-5612
▁लेना	-5613
▁दुकान	-5614
▁दिखाया	-5615
▁mess	-5616
▁Dece	-5617
▁past	-5618
▁begin	-5619
▁status	-5620
श्छ	-5621
▁कॉल	-5622
▁nar	-5623
▁लेखा	-5624
▁इंज	-5625
▁fresh	-5626
▁Moh	-5627
▁gone	-5628
▁सत्या	-5629
▁providing	-5630
▁अवि	-5631
▁गतिविध	-5632
kar	-5633
▁don	-5634
▁CO	-5635
▁किराय	-5636
▁आत	-5637
▁limited	-5638
▁Medical	-5639
▁dise	-5640
ront	-5641
ज्	-5642
▁बने	-5643
ilities	-5644
▁progress	-5645
▁performance	-5646
▁कीमत	-5647
▁अनुदान	-5648
▁मेरा	-5649
▁मतलब	-5650
▁स्थानांतरित	-5651
▁tried	-5652
▁Rashtrapati	-5653
▁अमेरिका	-5654
बे	-5655
▁merit	-5656
▁living	-5657
ott	-5658
▁इच्छा	-5659
▁दुनिया	-5660
▁वहाँ	-5661
▁discipl	-5662
▁Per	-5663
▁fit	-5664
▁इं	-5665
▁ऊण्	-5666
श्छ्ष्	-5667
▁physical	-5668
▁ऊण्श्छ्ष्	-5669
▁materials	-5670
▁Pand	-5671
▁Lear	-5672
▁scale	-5673
▁शाखा	-5674
irth	-5675
▁firm	-5676
▁least	-5677
semb	-5678
▁पड़ता	-5679
vention	-5680
▁Ka	-5681
CC	-5682
▁उनसे	-5683
▁वेबसाइट	-5684
▁custom	-5685
▁इक	-5686
▁Pur	-5687
▁night	-5688
▁enfor	-5689
▁nom	-5690
▁judge	-5691
▁उपभ	-5692
▁reply	-5693
▁पीएस	-5694
▁किंतु	-5695
▁दिव	-5696
टों	-5697
▁धी	-5698
▁सराहना	-5699
▁requirement	-5700
▁Some	-5701
▁गाँव	-5702
pector	-5703
▁questions	-5704
adem	-5705
▁Oct	-5706
verse	-5707
▁दिखाने	-5708
▁जाय	-5709
▁air	-5710
▁विद्या	-5711
▁testimony	-5712
▁न्यून	-5713
राव	-5714
▁शादी	-5715
▁proposed	-5716
▁बरी	-5717
▁मानते	-5718
▁contem	-5719
▁ign	-5720
bsite	-5721
▁remed	-5722
▁न्यायाधिकरण	-5723
▁पर्य	-5724
▁distin	-5725
▁Congress	-5726
▁bid	-5727
▁addition	-5728
▁actually	-5729
भूम	-5730
▁My	-5731
▁Exec	-5732
ians	-5733
▁adjud	-5734
▁SCA	-5735
▁उद्ध	-5736
▁आग	-5737
▁किये	-5738
▁parts	-5739
किंग	-5740
ुनिक	-5741
roll	-5742
▁decide	-5743
▁मशीन	-5744
change	-5745
▁फॉ	-5746
atures	-5747
▁दायरे	-5748
▁संकल्प	-5749
१४	-5750
▁ब्रिट	-5751
घटना	-5752
put	-5753
▁link	-5754
▁punishment	-5755
▁Trans	-5756
▁presum	-5757
▁adopted	-5758
▁प्रतिष्ठ	-5759
retion	-5760
ियार	-5761
▁drawn	-5762
▁विश्लेषण	-5763
▁continued	-5764
▁pension	-5765
▁सेना	-5766
ंगा	-5767
▁August	-5768
▁करा	-5769
▁श्रम	-5770
▁permit	-5771
▁Mahar	-5772
▁withdra	-5773
▁Legisl	-5774
▁history	-5775
्यो	-5776
▁dr	-5777
pective	-5778
▁iii	-5779
▁Second	-5780
मारी	-5781
▁नजर	-5782
▁squ	-5783
ier	-5784
▁परिभाषित	-5785
▁पत	-5786
▁सात	-5787
▁परामर्श	-5788
▁lower	-5789
िप्त	-5790
▁version	-5791
ोकन	-5792
▁hands	-5793
▁red	-5794
▁सक्रिय	-5795
▁experience	-5796
eng	-5797
▁Rel	-5798
▁Smt	-5799
▁using	-5800
▁मुद्द	-5801
▁January	-5802
ूबर	-5803
▁often	-5804
▁Engine	-5805
elling	-5806
▁problem	-5807
sp	-5808
▁saw	-5809
opp	-5810
▁लि	-5811
▁प्ल	-5812
▁समाप्ति	-5813
▁खत	-5814
▁धोखा	-5815
▁guarant	-5816
▁जज	-5817
▁Lord	-5818
▁deemed	-5819
▁appearing	-5820
▁ब्ल	-5821
▁क्रॉस	-5822
▁challenged	-5823
ठी	-5824
▁Applic	-5825
▁Intern	-5826
▁प्रोत्साह	-5827
▁खाद	-5828
▁accident	-5829
oot	-5830
▁Feb	-5831
▁कांग्रेस	-5832
▁कारावास	-5833
▁लाने	-5834
▁कल्या	-5835
चर	-5836
▁plea	-5837
्यूटर	-5838
▁impris	-5839
▁अफ	-5840
▁resolution	-5841
erring	-5842
▁US	-5843
▁जुलाई	-5844
▁देगा	-5845
▁मेडिकल	-5846
▁दुर्घटना	-5847
▁भारी	-5848
▁वें	-5849
eness	-5850
▁बेटी	-5851
▁संपूर्ण	-5852
कम	-5853
▁international	-5854
▁मंत्री	-5855
▁ST	-5856
▁निकाला	-5857
▁योगदान	-5858
द्व	-5859
▁बिजली	-5860
rob	-5861
▁Techn	-5862
▁मुद्दों	-5863
▁Panchayat	-5864
▁शांति	-5865
▁recovered	-5866
जूदा	-5867
▁adj	-5868
▁essential	-5869
apter	-5870
▁Fore	-5871
els	-5872
▁pert	-5873
equ	-5874
भार	-5875
भूमि	-5876
▁emp	-5877
▁July	-5878
▁freedom	-5879
▁statute	-5880
istic	-5881
▁निश	-5882
▁Chair	-5883
▁वस्तुओं	-5884
▁environment	-5885
▁मौजूदा	-5886
▁समुदाय	-5887
▁Ac	-5888
▁बंध	-5889
▁न्यूनतम	-5890
▁produce	-5891
aging	-5892
ारात्मक	-5893
▁सप्ताह	-5894
▁Sept	-5895
▁NO	-5896
▁unf	-5897
नियों	-5898
र्द	-5899
▁दृश्य	-5900
फा	-5901
▁बजाय	-5902
▁दस	-5903
aps	-5904
▁aud	-5905
▁signific	-5906
▁tender	-5907
▁instance	-5908
▁Mo	-5909
ns	-5910
▁सन्	-5911
पा	-5912
▁समाधान	-5913
स्थित	-5914
▁December	-5915
▁scope	-5916
पित	-5917
cell	-5918
ung	-5919
▁ट्रस्ट	-5920
▁fine	-5921
टल	-5922
▁truth	-5923
rd	-5924
▁community	-5925
▁Pri	-5926
डियो	-5927
▁मिलता	-5928
sequently	-5929
using	-5930
▁निर्व	-5931
▁लक्ष्य	-5932
▁रिश	-5933
▁rather	-5934
▁साहित्य	-5935
माने	-5936
▁हस्तांत	-5937
▁noticed	-5938
▁example	-5939
▁absolute	-5940
▁products	-5941
vis	-5942
aran	-5943
▁अंदर	-5944
▁एकत्र	-5945
▁वैज्ञानिक	-5946
बिर	-5947
asing	-5948
▁प्रतिकूल	-5949
ूर्ण	-5950
चि	-5951
▁मॉ	-5952
▁दुर	-5953
icted	-5954
▁प्रदर्शित	-5955
▁shop	-5956
वक	-5957
▁अवल	-5958
▁वसीय	-5959
hra	-5960
▁proof	-5961
▁आते	-5962
▁स्थग	-5963
▁आधुनिक	-5964
▁disposed	-5965
▁डा	-5966
▁advert	-5967
ival	-5968
▁गारंटी	-5969
▁premises	-5970
ruitment	-5971
▁govern	-5972
स्ल	-5973
ंव	-5974
▁category	-5975
▁अगले	-5976
▁ज्ञापन	-5977
▁उद्यम	-5978
▁संलग्न	-5979
▁पदोन्नति	-5980
▁Sun	-5981
ran	-5982
▁नर	-5983
▁prosecutrix	-5984
▁Ev	-5985
orrow	-5986
▁केन्द्र	-5987
anda	-5988
▁कल्याण	-5989
▁हमला	-5990
▁कोड	-5991
▁aware	-5992
▁RRB	-5993
▁प्राय	-5994
▁निर्मित	-5995
▁खोल	-5996
टे	-5997
द्रा	-5998
ration	-5999
aled	-6000
▁comes	-6001
▁विभाजन	-6002
▁website	-6003
▁Mem	-6004
▁रेलवे	-6005
▁conver	-6006
bed	-6007
▁घायल	-6008
▁tradition	-6009
▁Def	-6010
▁पंजा	-6011
ober	-6012
▁तीसरे	-6013
▁Go	-6014
▁डेट	-6015
▁works	-6016
▁Judicial	-6017
▁becomes	-6018
▁वितरण	-6019
▁error	-6020
▁attempt	-6021
▁loan	-6022
▁steps	-6023
▁Sab	-6024
▁पर्यावरण	-6025
luded	-6026
▁आतंक	-6027
oper	-6028
▁संवैधानिक	-6029
▁मुखबिर	-6030
▁बेच	-6031
▁कब्जा	-6032
ili	-6033
▁vari	-6034
▁laws	-6035
view	-6036
▁lands	-6037
chan	-6038
▁शर्मा	-6039
▁guilty	-6040
▁protection	-6041
▁शास	-6042
▁खुल	-6043
▁सुल	-6044
▁mort	-6045
▁Deputy	-6046
▁perman	-6047
▁acquired	-6048
▁host	-6049
▁influ	-6050
▁कटौती	-6051
▁commercial	-6052
aching	-6053
▁attention	-6054
▁injured	-6055
ots	-6056
▁More	-6057
▁imprisonment	-6058
▁नदी	-6059
▁basic	-6060
▁इंगित	-6061
▁देन	-6062
▁consequ	-6063
▁Accordingly	-6064
▁claims	-6065
▁September	-6066
वाय	-6067
▁तला	-6068
▁farm	-6069
▁Int	-6070
▁reading	-6071
▁सश	-6072
ोदन	-6073
▁deep	-6074
▁मुसल	-6075
▁घंट	-6076
▁religious	-6077
▁research	-6078
▁virt	-6079
▁फरवरी	-6080
चक	-6081
▁discretion	-6082
▁College	-6083
▁मनुष	-6084
▁जिम्मेदार	-6085
▁quant	-6086
ंथ	-6087
▁पाने	-6088
▁Arbitr	-6089
▁चिह्नित	-6090
▁administration	-6091
▁West	-6092
▁lakh	-6093
▁रोकने	-6094
▁preferred	-6095
▁SH	-6096
▁तम	-6097
ृह	-6098
▁Learned	-6099
▁शहर	-6100
▁DW	-6101
sing	-6102
▁responsible	-6103
▁ult	-6104
▁soon	-6105
▁अल्प	-6106
▁respective	-6107
▁assum	-6108
▁धार्मिक	-6109
▁जेल	-6110
▁ती	-6111
▁दश	-6112
▁setting	-6113
▁दब	-6114
▁स्थल	-6115
▁अधिकांश	-6116
िस्तान	-6117
ोषण	-6118
▁covered	-6119
▁विविध	-6120
▁थो	-6121
ruary	-6122
▁परिस्थिति	-6123
uties	-6124
▁big	-6125
▁उम्र	-6126
वत्ता	-6127
▁Collector	-6128
▁Pen	-6129
▁esp	-6130
encies	-6131
▁AP	-6132
pite	-6133
▁sold	-6134
▁create	-6135
▁conscious	-6136
iso	-6137
▁अंग्रेजी	-6138
▁क्षेत्रीय	-6139
▁पृथ	-6140
attis	-6141
▁cell	-6142
▁मौके	-6143
ami	-6144
jab	-6145
▁deli	-6146
inated	-6147
▁identified	-6148
▁sole	-6149
▁June	-6150
▁परिवहन	-6151
▁fire	-6152
▁enter	-6153
▁अनुमोदन	-6154
▁Income	-6155
▁February	-6156
ृत्व	-6157
ांस	-6158
▁000	-6159
ina	-6160
▁फल	-6161
▁pot	-6162
▁satisfied	-6163
▁attack	-6164
▁talk	-6165
▁मानसिक	-6166
▁permitted	-6167
▁एक्ट	-6168
▁भोजन	-6169
ोलन	-6170
va	-6171
▁relationship	-6172
ask	-6173
ourn	-6174
्राम	-6175
▁छुट	-6176
ंचित	-6177
▁करेगी	-6178
▁चार्ज	-6179
▁Ma	-6180
कीय	-6181
▁ग्राह	-6182
▁गुणवत्ता	-6183
amental	-6184
▁examine	-6185
▁accounts	-6186
adav	-6187
कता	-6188
ager	-6189
▁मना	-6190
▁मुसलमान	-6191
▁गुजरात	-6192
▁names	-6193
▁कहानी	-6194
िष	-6195
▁balance	-6196
▁संब	-6197
tation	-6198
नेट	-6199
▁consent	-6200
IA	-6201
attisgarh	-6202
▁agreed	-6203
▁फ्र	-6204
istrar	-6205
ल्ड	-6206
▁दौ	-6207
▁express	-6208
wan	-6209
▁जित	-6210
icipal	-6211
bar	-6212
▁सांस	-6213
▁Sharma	-6214
ankar	-6215
क्रमण	-6216
▁इंटर	-6217
▁evident	-6218
▁कम्प	-6219
▁violation	-6220
▁Nagar	-6221
▁top	-6222
▁computer	-6223
▁suggestion	-6224
▁LRB	-6225
▁पढ़ने	-6226
▁problems	-6227
▁concept	-6228
▁half	-6229
▁mut	-6230
ारण	-6231
▁practice	-6232
▁मोह	-6233
्रिया	-6234
▁खून	-6235
▁आग्रह	-6236
▁क्षेत्राधिकार	-6237
▁representation	-6238
▁ऊर्जा	-6239
▁नेट	-6240
▁wide	-6241
ender	-6242
▁चलाने	-6243
खिक	-6244
▁हास	-6245
ples	-6246
▁paper	-6247
▁judgments	-6248
▁....	-6249
▁बंगाल	-6250
▁Devi	-6251
▁explanation	-6252
▁Ash	-6253
▁गणना	-6254
▁सफलता	-6255
▁छोटी	-6256
▁शारी	-6257
▁rent	-6258
▁Similar	-6259
▁प्रस्तावित	-6260
▁born	-6261
▁छात्रों	-6262
▁जुड़े	-6263
▁almost	-6264
▁whereas	-6265
▁informant	-6266
▁Gr	-6267
▁पद्ध	-6268
▁Schedule	-6269
ological	-6270
▁सीधे	-6271
▁completed	-6272
्वर	-6273
▁शुद्ध	-6274
▁Ah	-6275
▁पीडब्ल्यू	-6276
▁कले	-6277
▁acquisition	-6278
▁page	-6279
▁मंडल	-6280
▁शंक	-6281
▁खाली	-6282
▁nation	-6283
isc	-6284
▁सुबह	-6285
▁sheet	-6286
▁निवास	-6287
▁आकलन	-6288
▁Chhattisgarh	-6289
▁enj	-6290
पथ	-6291
ograph	-6292
▁quite	-6293
▁मू	-6294
▁List	-6295
▁custody	-6296
▁Af	-6297
▁मनोर	-6298
▁आयात	-6299
नल	-6300
द्दा	-6301
▁movement	-6302
▁Ple	-6303
▁विश्वसनीय	-6304
▁awarded	-6305
▁माप	-6306
EC	-6307
▁penalty	-6308
▁माँ	-6309
sis	-6310
▁girl	-6311
▁Punjab	-6312
ras	-6313
▁प्रसाद	-6314
▁शारीरिक	-6315
▁विचारों	-6316
▁विच	-6317
▁extended	-6318
▁opposite	-6319
▁woman	-6320
ecially	-6321
ितीय	-6322
▁Har	-6323
▁remain	-6324
▁बनाई	-6325
▁argument	-6326
▁अके	-6327
iture	-6328
चारिक	-6329
सं	-6330
▁ध्व	-6331
▁gra	-6332
▁अनुपात	-6333
ग्राफ	-6334
एच	-6335
▁मित्र	-6336
▁दिसंबर	-6337
▁Gujarat	-6338
heduled	-6339
क़	-6340
estic	-6341
▁payable	-6342
▁पश्चात्	-6343
▁guid	-6344
▁Other	-6345
▁entry	-6346
riev	-6347
▁wa	-6348
नात	-6349
ump	-6350
्वेष	-6351
▁अहम	-6352
▁इस्लाम	-6353
▁Inspector	-6354
▁अवस्था	-6355
▁thereby	-6356
▁अनुसूचित	-6357
▁exercised	-6358
▁गी	-6359
▁network	-6360
▁सका	-6361
▁getting	-6362
EL	-6363
रत	-6364
▁निधि	-6365
▁पढ़ा	-6366
▁मात्र	-6367
▁Executive	-6368
▁दिख	-6369
▁appeals	-6370
▁included	-6371
▁duties	-6372
▁technology	-6373
AP	-6374
▁stands	-6375
हरे	-6376
▁चाहिये	-6377
▁effective	-6378
▁seiz	-6379
▁Admin	-6380
▁developed	-6381
▁Brah	-6382
▁रखता	-6383
cription	-6384
▁October	-6385
फे	-6386
▁रू	-6387
▁इरादा	-6388
duction	-6389
ayan	-6390
▁defined	-6391
▁सिर्फ	-6392
▁article	-6393
▁reliance	-6394
ुन	-6395
▁स्वामी	-6396
▁आनंद	-6397
▁Information	-6398
ingu	-6399
▁fee	-6400
▁जैसी	-6401
anced	-6402
▁प्रमाणित	-6403
▁नील	-6404
hood	-6405
line	-6406
▁peace	-6407
▁dealing	-6408
▁Sam	-6409
▁refer	-6410
▁threat	-6411
iously	-6412
▁partn	-6413
▁Chandra	-6414
▁situated	-6415
रीय	-6416
▁मजद	-6417
▁मोटर	-6418
▁check	-6419
▁मौखिक	-6420
▁behind	-6421
▁modern	-6422
लिक	-6423
▁इनमें	-6424
▁निवासी	-6425
▁Bhag	-6426
▁pack	-6427
▁punishable	-6428
▁attract	-6429
न्स	-6430
IS	-6431
▁simple	-6432
eep	-6433
व्यव	-6434
▁कवर	-6435
▁proviso	-6436
body	-6437
▁weap	-6438
▁answer	-6439
▁minimum	-6440
ंबई	-6441
ाज्ञ	-6442
▁technical	-6443
साइ	-6444
▁argued	-6445
चीन	-6446
▁आब	-6447
▁parents	-6448
▁नियोक्ता	-6449
▁औसत	-6450
स्थिति	-6451
▁enough	-6452
▁especially	-6453
▁fully	-6454
▁supported	-6455
▁खाता	-6456
▁वालों	-6457
▁निष्पक्ष	-6458
▁sex	-6459
▁cogn	-6460
▁हलफनामे	-6461
▁सर्वे	-6462
▁United	-6463
▁उपन	-6464
▁text	-6465
▁const	-6466
▁source	-6467
▁निर्देशों	-6468
ियल	-6469
▁घट	-6470
▁liqu	-6471
▁returned	-6472
▁imposed	-6473
▁training	-6474
▁acts	-6475
▁supply	-6476
▁सितंबर	-6477
▁निरीक्षण	-6478
pta	-6479
▁Principal	-6480
▁करी	-6481
▁कठोर	-6482
▁वसीयत	-6483
▁portion	-6484
rieved	-6485
▁लेते	-6486
▁Office	-6487
मंत्र	-6488
▁cru	-6489
▁until	-6490
▁Shiv	-6491
ुता	-6492
nat	-6493
▁Appellant	-6494
▁tele	-6495
▁ought	-6496
▁cur	-6497
▁ever	-6498
▁limit	-6499
▁मुखर्जी	-6500
ष्ट्र	-6501
▁उठाने	-6502
▁birth	-6503
imately	-6504
▁corpor	-6505
PA	-6506
▁Case	-6507
▁books	-6508
▁early	-6509
▁डॉक्टर	-6510
▁clar	-6511
▁पाते	-6512
▁Hospital	-6513
घा	-6514
▁really	-6515
▁current	-6516
▁observations	-6517
▁employer	-6518
elfare	-6519
▁approved	-6520
OU	-6521
▁phot	-6522
▁बाध	-6523
▁profession	-6524
▁requires	-6525
▁register	-6526
▁दोहरा	-6527
▁injunction	-6528
▁गिरफ्तार	-6529
▁hon	-6530
▁duly	-6531
▁cancell	-6532
▁पड़े	-6533
▁अच्छे	-6534
▁suggest	-6535
amil	-6536
itude	-6537
▁Bomb	-6538
▁वंचित	-6539
oj	-6540
▁pers	-6541
avi	-6542
▁Pe	-6543
▁Mal	-6544
▁hours	-6545
▁committee	-6546
ुपयोग	-6547
▁scient	-6548
▁सावधानी	-6549
▁settlement	-6550
्षिक	-6551
▁Appellate	-6552
सूस	-6553
▁बर्	-6554
▁energ	-6555
▁विचारा	-6556
rut	-6557
▁Son	-6558
ones	-6559
lusive	-6560
▁install	-6561
▁AS	-6562
▁नमू	-6563
▁परिभाषा	-6564
▁quar	-6565
ाज्ञा	-6566
▁इंजीन	-6567
▁visit	-6568
com	-6569
obile	-6570
▁शुरुआ	-6571
,00	-6572
▁deg	-6573
▁option	-6574
▁कलेक्टर	-6575
▁Patna	-6576
▁stip	-6577
▁इकाई	-6578
दर	-6579
▁गतिविधियों	-6580
▁न्यायाधीशों	-6581
▁likely	-6582
▁default	-6583
▁चुके	-6584
▁गि	-6585
▁प्राप्ति	-6586
▁la	-6587
▁फर्म	-6588
▁companies	-6589
वाला	-6590
uru	-6591
▁East	-6592
▁pros	-6593
▁केन्द	-6594
▁निषेधाज्ञा	-6595
rast	-6596
▁मजबूत	-6597
▁ren	-6598
▁स्रोत	-6599
▁प्राथमिकता	-6600
▁व्यय	-6601
▁लगातार	-6602
▁protect	-6603
▁परिवर्त	-6604
▁deposit	-6605
▁सकें	-6606
▁democ	-6607
elt	-6608
▁निष्कर्षों	-6609
rig	-6610
▁मुद्रा	-6611
▁boy	-6612
ियोग	-6613
▁Investigating	-6614
लू	-6615
▁दूरी	-6616
▁पकड़	-6617
endence	-6618
▁Ors	-6619
▁भेद	-6620
▁Yadav	-6621
▁विचाराधीन	-6622
मल	-6623
▁निकट	-6624
io	-6625
बाइल	-6626
▁आधिकार	-6627
▁connected	-6628
▁signed	-6629
▁quas	-6630
▁युवा	-6631
▁discussed	-6632
▁वो	-6633
▁marks	-6634
▁नियंत्रित	-6635
▁युग	-6636
▁वर्णित	-6637
लो	-6638
ंका	-6639
▁Of	-6640
urop	-6641
▁Gov	-6642
sembly	-6643
▁रेड	-6644
▁lease	-6645
▁आंद	-6646
▁fundamental	-6647
▁आधिकारिक	-6648
▁perusal	-6649
▁mag	-6650
▁नेत	-6651
▁दुरुपयोग	-6652
▁Registrar	-6653
▁सम्	-6654
ground	-6655
▁altern	-6656
▁prejud	-6657
पीठ	-6658
▁Bab	-6659
be	-6660
ifying	-6661
काया	-6662
ृद	-6663
▁facie	-6664
▁Bombay	-6665
▁Work	-6666
▁seven	-6667
▁हिंदू	-6668
▁अंश	-6669
▁articles	-6670
ins	-6671
▁तेज	-6672
▁terror	-6673
▁understand	-6674
▁job	-6675
िज़	-6676
▁temple	-6677
▁मुद्दा	-6678
▁III	-6679
▁स्वीकृति	-6680
dom	-6681
enses	-6682
▁प्राइ	-6683
▁villa	-6684
ायर	-6685
▁न्यू	-6686
▁डेटा	-6687
▁सच्च	-6688
enance	-6689
▁failure	-6690
▁पैराग्राफ	-6691
▁collect	-6692
ancies	-6693
porary	-6694
▁रहती	-6695
▁कृष्ण	-6696
ेलन	-6697
▁अत्यधिक	-6698
▁discharge	-6699
▁असा	-6700
▁Nove	-6701
▁enjoy	-6702
apers	-6703
oke	-6704
lack	-6705
पचारिक	-6706
▁वर्णन	-6707
▁नेतृत्व	-6708
▁recruitment	-6709
▁उन्न	-6710
म्भ	-6711
▁fraud	-6712
▁insp	-6713
▁Associ	-6714
▁Vi	-6715
▁सृ	-6716
▁ताल	-6717
▁sound	-6718
let	-6719
▁substantial	-6720
oud	-6721
▁functions	-6722
isk	-6723
▁wid	-6724
▁जरूरी	-6725
▁त्व	-6726
▁फोन	-6727
▁आत्मा	-6728
ining	-6729
्यात्मक	-6730
▁Mand	-6731
▁हटाने	-6732
▁November	-6733
ंगी	-6734
▁Isra	-6735
ifications	-6736
▁apart	-6737
▁activity	-6738
▁actual	-6739
▁रजिस्ट्र	-6740
▁initiated	-6741
▁दस्तावेज़	-6742
ference	-6743
▁places	-6744
ास्त्र	-6745
▁determined	-6746
▁प्रयोजन	-6747
▁निर्वहन	-6748
▁low	-6749
मंत्री	-6750
▁definition	-6751
▁log	-6752
▁चीज	-6753
▁स्वाम	-6754
duce	-6755
assion	-6756
RD	-6757
▁माह	-6758
▁लघु	-6759
▁असमर्थ	-6760
▁shares	-6761
apur	-6762
▁ग्रह	-6763
▁वैधता	-6764
▁संघर्ष	-6765
▁Revenue	-6766
▁सहकारी	-6767
▁उत्तराधिक	-6768
▁sustained	-6769
▁रकम	-6770
oti	-6771
▁बिहार	-6772
▁seizure	-6773
▁transaction	-6774
hest	-6775
नाटक	-6776
▁instead	-6777
ett	-6778
uck	-6779
erate	-6780
▁प्रेरित	-6781
ne	-6782
▁instrument	-6783
ga	-6784
▁दरवा	-6785
▁believe	-6786
▁तभी	-6787
▁किसान	-6788
▁महसूस	-6789
▁assets	-6790
under	-6791
▁strength	-6792
istan	-6793
▁मानदंड	-6794
▁AG	-6795
▁आह	-6796
म्बर	-6797
▁सम्बन्ध	-6798
धनों	-6799
▁fig	-6800
▁कथन	-6801
▁वार्षिक	-6802
यण	-6803
▁जानते	-6804
▁समाचार	-6805
ृंख	-6806
▁Penal	-6807
▁कंपनियों	-6808
▁says	-6809
▁मिलने	-6810
▁सम्मिल	-6811
▁sister	-6812
▁मनुष्य	-6813
▁कंप्यूटर	-6814
▁उल	-6815
obal	-6816
▁Israel	-6817
▁revenue	-6818
▁export	-6819
ाकू	-6820
पे	-6821
▁संक्षेप	-6822
िड	-6823
▁लै	-6824
▁खान	-6825
▁aspects	-6826
▁generally	-6827
▁facilities	-6828
ाइन	-6829
▁communication	-6830
▁sil	-6831
▁permanent	-6832
ales	-6833
भूति	-6834
▁जुर्म	-6835
▁प्रयोजनों	-6836
स्ती	-6837
▁वर्गी	-6838
▁कौन	-6839
▁लौट	-6840
▁ईश्वर	-6841
ंदा	-6842
▁इसने	-6843
▁greater	-6844
▁कर्नाटक	-6845
▁संग्रह	-6846
▁Management	-6847
▁Super	-6848
ows	-6849
▁बेटे	-6850
▁Provided	-6851
▁Application	-6852
▁प्रतिक्रिया	-6853
▁परम	-6854
irmed	-6855
▁adverse	-6856
ams	-6857
▁तत्प	-6858
्कृत	-6859
▁Shah	-6860
▁निच	-6861
टिल	-6862
▁दै	-6863
▁पूर्वव	-6864
▁oral	-6865
krit	-6866
ंत्रित	-6867
▁energy	-6868
▁achieve	-6869
▁अस्थायी	-6870
▁expressed	-6871
▁lodged	-6872
ulate	-6873
▁fell	-6874
▁unit	-6875
िक्स	-6876
▁Dev	-6877
▁Plan	-6878
▁improve	-6879
▁अपेक्षित	-6880
▁Institute	-6881
ूपी	-6882
▁भगवान	-6883
ुति	-6884
▁bod	-6885
▁prima	-6886
▁doctor	-6887
▁स्वीकार्य	-6888
▁विधिव	-6889
▁front	-6890
▁cogniz	-6891
▁समार	-6892
herjee	-6893
▁territ	-6894
▁transferred	-6895
▁directly	-6896
▁Prof	-6897
▁मानक	-6898
▁structure	-6899
▁दास	-6900
itable	-6901
▁candidate	-6902
दारों	-6903
डिया	-6904
eared	-6905
iddle	-6906
▁fulf	-6907
राष्ट्रीय	-6908
▁प्रसार	-6909
▁पंजाब	-6910
▁आवा	-6911
▁मोबाइल	-6912
▁देकर	-6913
वर्क	-6914
▁कहता	-6915
▁अभियोग	-6916
▁इंस	-6917
▁transport	-6918
▁देखभाल	-6919
▁रजिस्ट्रार	-6920
▁city	-6921
-0	-6922
▁धीरे	-6923
enty	-6924
▁religion	-6925
▁constituted	-6926
▁चरित	-6927
anga	-6928
▁उद्धृत	-6929
▁contribution	-6930
स्थापित	-6931
१५	-6932
IV	-6933
▁remedy	-6934
abh	-6935
शाला	-6936
▁site	-6937
▁जनरल	-6938
▁Add	-6939
▁extra	-6940
▁पृष्ठभूमि	-6941
ेक्ट	-6942
▁जुर्माना	-6943
▁served	-6944
ुम	-6945
▁remained	-6946
▁हद	-6947
ृंखला	-6948
▁एजेंसी	-6949
▁Des	-6950
▁Chairman	-6951
▁Then	-6952
▁signature	-6953
▁शत्र	-6954
▁aim	-6955
▁आंत	-6956
▁ऊंच	-6957
▁lost	-6958
्कुल	-6959
urope	-6960
▁changes	-6961
▁आशय	-6962
▁PRES	-6963
ilt	-6964
ीदारी	-6965
ुण	-6966
▁bill	-6967
ke	-6968
▁assistance	-6969
ousand	-6970
▁अधिकतम	-6971
▁importance	-6972
rid	-6973
utta	-6974
▁खास	-6975
▁submissions	-6976
▁costs	-6977
iti	-6978
▁समारोह	-6979
dd	-6980
शिया	-6981
▁percent	-6982
▁Chapter	-6983
▁कार्यान	-6984
▁takes	-6985
▁IN	-6986
▁Rail	-6987
▁अग्रिम	-6988
operative	-6989
तया	-6990
▁सकेगा	-6991
▁million	-6992
▁Karnat	-6993
▁बढ	-6994
,000	-6995
▁इरादे	-6996
▁पद्धति	-6997
▁CH	-6998
ING	-6999
▁घरे	-7000
▁Mukherjee	-7001
त्री	-7002
▁substance	-7003
gment	-7004
▁संगी	-7005
▁नारा	-7006
ॉज	-7007
▁agricultural	-7008
रिया	-7009
▁निशान	-7010
▁Europe	-7011
▁population	-7012
▁administrative	-7013
िद्ध	-7014
▁हाई	-7015
hem	-7016
rug	-7017
▁Sa	-7018
▁increase	-7019
▁normal	-7020
▁तार	-7021
▁अनुशास	-7022
दृ	-7023
▁कार्यान्व	-7024
iny	-7025
▁CPC	-7026
▁affected	-7027
▁चंद्र	-7028
▁चोटों	-7029
▁purchase	-7030
▁educational	-7031
de	-7032
ोजक	-7033
▁max	-7034
▁faith	-7035
▁बिल्कुल	-7036
▁कहने	-7037
▁efforts	-7038
▁Any	-7039
▁हजार	-7040
▁बाई	-7041
ordinate	-7042
▁conferred	-7043
▁includes	-7044
▁Exhibit	-7045
न्ट	-7046
▁anc	-7047
▁arrange	-7048
▁Stand	-7049
itary	-7050
▁forms	-7051
श्क	-7052
▁Jag	-7053
elines	-7054
▁Bas	-7055
▁डिस	-7056
▁study	-7057
▁Karnataka	-7058
शु	-7059
▁stru	-7060
▁Judges	-7061
▁advance	-7062
▁दर्शाता	-7063
▁intended	-7064
▁परिच	-7065
▁gives	-7066
aut	-7067
▁arrived	-7068
▁described	-7069
▁lack	-7070
▁एचसी	-7071
ouses	-7072
▁खाद्य	-7073
▁कमीशन	-7074
▁घरेलू	-7075
AK	-7076
▁keeping	-7077
िनी	-7078
PS	-7079
▁मनोरंजन	-7080
िकेट	-7081
▁भंड	-7082
uting	-7083
▁Krishna	-7084
▁leading	-7085
ाये	-7086
▁अनुप्र	-7087
▁PS	-7088
▁ठे	-7089
▁Sabha	-7090
▁उपभोक्ता	-7091
बाजी	-7092
▁sou	-7093
▁Bang	-7094
▁agency	-7095
▁शपथ	-7096
eria	-7097
▁Land	-7098
▁संबद्ध	-7099
▁message	-7100
▁goes	-7101
▁convicted	-7102
इयों	-7103
चार्य	-7104
aken	-7105
▁prayer	-7106
ables	-7107
athi	-7108
▁काग	-7109
▁harm	-7110
▁जम्म	-7111
▁मीटर	-7112
▁केन्द्रीय	-7113
▁अवलोकन	-7114
▁enforce	-7115
▁apparent	-7116
ागत	-7117
erty	-7118
▁रहना	-7119
▁कल्पना	-7120
▁limitation	-7121
जात	-7122
▁यूरो	-7123
▁difference	-7124
ोम	-7125
▁प्रभार	-7126
▁हासिल	-7127
▁शिक्षक	-7128
▁आमत	-7129
▁stri	-7130
▁अक्ट	-7131
▁सरल	-7132
essing	-7133
▁जम्मू	-7134
▁धोखाध	-7135
▁आंदोलन	-7136
▁जिले	-7137
▁nos	-7138
▁offer	-7139
▁चूक	-7140
्डी	-7141
▁burd	-7142
▁Bill	-7143
▁running	-7144
▁preced	-7145
▁किरायेदार	-7146
▁Das	-7147
igence	-7148
▁Tamil	-7149
▁अक्टूबर	-7150
▁बनाना	-7151
▁engaged	-7152
▁Municipal	-7153
▁परेश	-7154
ocation	-7155
िशन	-7156
▁coll	-7157
जाम	-7158
▁oblig	-7159
▁अवधार	-7160
▁resources	-7161
▁eligible	-7162
▁धोखाधड़ी	-7163
urer	-7164
▁emph	-7165
sy	-7166
िग	-7167
▁सारे	-7168
▁आमतौर	-7169
▁remains	-7170
rastructure	-7171
▁Lok	-7172
घ्र	-7173
▁er	-7174
▁कविता	-7175
wh	-7176
▁मिन	-7177
▁असफल	-7178
stituted	-7179
▁disease	-7180
▁दशा	-7181
▁संसाधन	-7182
▁sure	-7183
डल	-7184
▁संस्कृत	-7185
▁Resident	-7186
▁गा	-7187
▁किन	-7188
▁debt	-7189
▁टेली	-7190
▁विशाल	-7191
▁mental	-7192
▁interpretation	-7193
▁programme	-7194
▁disclos	-7195
▁महिलाओं	-7196
▁emer	-7197
▁Kash	-7198
▁forth	-7199
▁Muslims	-7200
▁carrying	-7201
▁advertise	-7202
उट	-7203
▁कठिना	-7204
▁investment	-7205
जीव	-7206
▁फार	-7207
▁inside	-7208
▁सम्मिलित	-7209
▁merits	-7210
व्यों	-7211
▁इतनी	-7212
▁compliance	-7213
▁निर्वाचन	-7214
▁वैक	-7215
▁विधेय	-7216
AY	-7217
▁निष्क	-7218
ोग्राम	-7219
▁griev	-7220
▁Post	-7221
▁Block	-7222
▁अनुपस्थिति	-7223
▁International	-7224
▁पाव	-7225
ांकन	-7226
▁Similarly	-7227
मक	-7228
▁Account	-7229
ava	-7230
सायिक	-7231
ट्	-7232
काशन	-7233
सर्स	-7234
▁ट्रेड	-7235
▁खंडन	-7236
▁महत्त	-7237
▁Services	-7238
करार	-7239
▁Red	-7240
डु	-7241
▁सर्वेक्षण	-7242
▁छुट्टी	-7243
▁selected	-7244
▁remo	-7245
adh	-7246
त्कार	-7247
▁opens	-7248
▁ब्रिटिश	-7249
▁पटना	-7250
▁patient	-7251
▁सुश	-7252
्यूट	-7253
चीत	-7254
▁speak	-7255
▁मौलिक	-7256
▁आशा	-7257
▁गरी	-7258
▁added	-7259
▁जब्ती	-7260
देन	-7261
▁बताए	-7262
▁Our	-7263
▁अंड	-7264
▁कोल	-7265
▁प्रि	-7266
▁earth	-7267
▁शाह	-7268
▁संतोष	-7269
enditure	-7270
esides	-7271
▁स्वामित्व	-7272
▁receive	-7273
robor	-7274
▁exceed	-7275
▁प्रमाणपत्र	-7276
ॉट	-7277
▁बुनिया	-7278
▁प्रकाशन	-7279
▁आती	-7280
▁बातचीत	-7281
▁disclosed	-7282
▁प्रविष्टि	-7283
▁offered	-7284
▁allegation	-7285
▁साइ	-7286
▁डिजा	-7287
▁बकाया	-7288
▁विधिवत	-7289
▁अना	-7290
ishing	-7291
▁गिरफ्तारी	-7292
यम	-7293
▁चिंत	-7294
▁कराने	-7295
▁कार्ड	-7296
ीप	-7297
▁Assam	-7298
▁स्टेट	-7299
asm	-7300
▁आदमी	-7301
▁Society	-7302
▁arise	-7303
rog	-7304
▁टाइ	-7305
▁distance	-7306
▁ख़	-7307
▁विवादित	-7308
▁completion	-7309
▁सील	-7310
AV	-7311
▁चा	-7312
vision	-7313
▁staff	-7314
▁volunt	-7315
▁arising	-7316
▁उपक्रम	-7317
▁बरकरार	-7318
▁measures	-7319
▁bad	-7320
▁सभ	-7321
▁Mon	-7322
▁eight	-7323
▁अधिकृत	-7324
▁किन्तु	-7325
ल्पिक	-7326
▁अत्यंत	-7327
ban	-7328
▁मल	-7329
▁arbitrator	-7330
▁der	-7331
IDENT	-7332
ading	-7333
▁recording	-7334
▁bearing	-7335
▁चंद	-7336
▁मंच	-7337
स्लिम	-7338
▁Pran	-7339
▁South	-7340
▁पहुंचा	-7341
▁century	-7342
क्शन	-7343
▁बहन	-7344
▁कठिन	-7345
▁Stat	-7346
▁दंडनीय	-7347
▁अनुशासनात्मक	-7348
▁आंक	-7349
क्ष्म	-7350
ademic	-7351
▁नेटवर्क	-7352
ora	-7353
▁standard	-7354
▁presented	-7355
mir	-7356
▁Health	-7357
▁तमिल	-7358
▁bi	-7359
▁else	-7360
▁Gupta	-7361
▁mechan	-7362
▁सिक	-7363
▁forest	-7364
cise	-7365
▁lot	-7366
▁determination	-7367
▁खात	-7368
ॉप	-7369
▁legislation	-7370
▁कमरे	-7371
▁explained	-7372
▁responsibility	-7373
र्या	-7374
▁IND	-7375
▁जैन	-7376
▁मुस्लिम	-7377
anskrit	-7378
याँ	-7379
rote	-7380
▁लाप	-7381
▁उधार	-7382
ोधित	-7383
inding	-7384
सभा	-7385
▁रोड	-7386
▁विजय	-7387
्रमण	-7388
▁औपचारिक	-7389
▁memo	-7390
▁किराए	-7391
▁चरित्र	-7392
▁डाय	-7393
▁फ़ाइल	-7394
eet	-7395
र्ज	-7396
▁Labour	-7397
iy	-7398
▁Right	-7399
▁amended	-7400
▁thousand	-7401
▁Nag	-7402
▁एनआईसी	-7403
▁size	-7404
▁establishment	-7405
▁constitutional	-7406
▁heav	-7407
▁contact	-7408
▁काट	-7409
ashtra	-7410
▁संज्ञान	-7411
ारक	-7412
▁टिक	-7413
icate	-7414
▁पहुंचे	-7415
▁extract	-7416
jay	-7417
▁साइट	-7418
uls	-7419
▁Hy	-7420
▁weeks	-7421
oval	-7422
umbai	-7423
▁funds	-7424
▁construct	-7425
▁Expl	-7426
डब्ल्यू	-7427
▁ब्रह	-7428
▁नती	-7429
uge	-7430
▁वाक	-7431
▁mass	-7432
▁कराया	-7433
▁corrobor	-7434
▁संस्कृति	-7435
▁Jain	-7436
▁छोटा	-7437
▁बदलाव	-7438
ायिका	-7439
▁तात	-7440
गो	-7441
्शन	-7442
sect	-7443
▁citizens	-7444
▁घंटे	-7445
▁प्रणब	-7446
▁stating	-7447
▁ढां	-7448
▁External	-7449
▁arrested	-7450
पात	-7451
▁retire	-7452
aily	-7453
ches	-7454
▁comb	-7455
वेयर	-7456
▁आपकी	-7457
▁Governor	-7458
▁requirements	-7459
▁गृह	-7460
ishes	-7461
▁स्थानों	-7462
nces	-7463
▁चले	-7464
▁Road	-7465
▁Som	-7466
▁वैकल्पिक	-7467
▁PRESIDENT	-7468
देव	-7469
▁हथियार	-7470
▁व्यावसायिक	-7471
rate	-7472
▁liberty	-7473
▁प्रसन्न	-7474
icide	-7475
▁none	-7476
▁उत्पादों	-7477
lies	-7478
▁लंबे	-7479
▁reads	-7480
wa	-7481
▁TO	-7482
▁extre	-7483
▁तेजी	-7484
लेक्ट	-7485
▁across	-7486
▁risk	-7487
▁refers	-7488
▁emb	-7489
▁नवंबर	-7490
▁How	-7491
▁Both	-7492
▁पुराने	-7493
▁wanted	-7494
▁disputed	-7495
▁शुरुआत	-7496
▁collected	-7497
▁हाउ	-7498
▁rightly	-7499
▁culture	-7500
▁Utt	-7501
▁soft	-7502
▁बनी	-7503
▁claimant	-7504
olk	-7505
▁Can	-7506
▁साधन	-7507
▁तह	-7508
rief	-7509
ox	-7510
्रेता	-7511
्राष्ट्रीय	-7512
▁aggrieved	-7513
▁विद्यार्थ	-7514
MC	-7515
▁factors	-7516
▁burden	-7517
▁significant	-7518
rown	-7519
▁esc	-7520
कर्ताओं	-7521
▁indicated	-7522
▁partition	-7523
▁बुलाया	-7524
▁समग्र	-7525
▁univers	-7526
▁contempl	-7527
▁संक्ष	-7528
ग्ध	-7529
▁खड़ा	-7530
ricity	-7531
▁चुना	-7532
▁breach	-7533
▁खन	-7534
▁निल	-7535
▁अध्या	-7536
▁घटनाओं	-7537
शाली	-7538
ional	-7539
▁अधिकरण	-7540
▁अपराधी	-7541
न्ना	-7542
रोधी	-7543
▁imper	-7544
osh	-7545
ेंड	-7546
▁Gh	-7547
▁pan	-7548
estern	-7549
▁wrote	-7550
▁poor	-7551
▁Calc	-7552
▁pleaded	-7553
क्क	-7554
undred	-7555
राज्य	-7556
▁labour	-7557
▁काउंस	-7558
▁संगीत	-7559
▁appeared	-7560
▁points	-7561
▁disciplinary	-7562
illing	-7563
▁detention	-7564
▁Kal	-7565
▁amounts	-7566
▁प्रतिनिधि	-7567
▁आवश्यकताओं	-7568
ोरी	-7569
▁mal	-7570
▁licence	-7571
राम	-7572
▁tell	-7573
aded	-7574
▁विनियमन	-7575
▁expected	-7576
IM	-7577
चलित	-7578
▁मेल	-7579
रम	-7580
▁कित	-7581
▁formed	-7582
▁दर्शाया	-7583
▁exchange	-7584
▁श्रृंखला	-7585
भाष	-7586
▁rural	-7587
श्किल	-7588
▁गठित	-7589
▁Trust	-7590
....	-7591
▁emphas	-7592
▁meant	-7593
▁हिन्दी	-7594
▁उद्देश्यों	-7595
▁दिवस	-7596
▁प्रचार	-7597
▁संचालित	-7598
शनल	-7599
play	-7600
दारी	-7601
ित्त	-7602
▁पीओ	-7603
rine	-7604
▁आदर्श	-7605
▁बातों	-7606
▁पूर्वा	-7607
▁Fund	-7608
▁विद्युत	-7609
▁adequ	-7610
▁incorpor	-7611
▁obligation	-7612
ength	-7613
▁अपवाद	-7614
▁डिजाइन	-7615
▁आंध	-7616
▁teachers	-7617
▁बध	-7618
▁oil	-7619
▁जोख	-7620
▁मुंबई	-7621
▁transl	-7622
usted	-7623
▁unre	-7624
▁contrad	-7625
▁अदालतों	-7626
▁Sanskrit	-7627
▁ow	-7628
▁tree	-7629
मूर्ति	-7630
▁broad	-7631
▁पहलुओं	-7632
othes	-7633
▁पाई	-7634
ortem	-7635
▁Article	-7636
▁maintenance	-7637
▁कां	-7638
▁cond	-7639
▁advant	-7640
▁नेता	-7641
▁तरीका	-7642
बि	-7643
tax	-7644
ikh	-7645
▁स्वरूप	-7646
▁cash	-7647
▁enable	-7648
▁बुनियादी	-7649
▁महाराष्ट्र	-7650
▁scrut	-7651
▁sell	-7652
▁Every	-7653
▁warrant	-7654
▁detailed	-7655
anger	-7656
▁hy	-7657
क्षणिक	-7658
▁Andhra	-7659
▁pursuant	-7660
▁स्थिर	-7661
ंडी	-7662
▁हाउस	-7663
▁विभागीय	-7664
▁literature	-7665
▁डाला	-7666
etimes	-7667
▁frame	-7668
▁charged	-7669
▁measure	-7670
नक	-7671
▁निपटने	-7672
▁respectively	-7673
NA	-7674
nam	-7675
▁Mumbai	-7676
▁Republic	-7677
▁बौ	-7678
▁मुश्किल	-7679
्फ	-7680
▁क्रमश	-7681
▁conven	-7682
▁interfere	-7683
पास	-7684
ATION	-7685
▁inqu	-7686
▁कर्तव्यों	-7687
▁बोझ	-7688
▁अतः	-7689
▁ग्रहण	-7690
liminary	-7691
▁Shankar	-7692
▁expenditure	-7693
मों	-7694
ique	-7695
श्मीर	-7696
▁quash	-7697
▁disputes	-7698
▁subsequently	-7699
▁whol	-7700
ाट	-7701
▁हृद	-7702
▁प्राचीन	-7703
▁इलेक्ट	-7704
▁majority	-7705
▁सुनी	-7706
▁units	-7707
▁background	-7708
स्य	-7709
▁Mu	-7710
▁चै	-7711
▁officials	-7712
▁Power	-7713
▁encour	-7714
ज्ञा	-7715
▁अभिलेख	-7716
▁खी	-7717
▁objections	-7718
dy	-7719
▁दह	-7720
aram	-7721
त्तर	-7722
▁lev	-7723
iring	-7724
▁extend	-7725
erala	-7726
▁पैसे	-7727
▁अवमान	-7728
aves	-7729
पूर्ति	-7730
▁completely	-7731
▁interference	-7732
▁शीघ्र	-7733
▁excess	-7734
▁काउंटर	-7735
▁ordinary	-7736
रख	-7737
eech	-7738
▁arm	-7739
▁अकेले	-7740
▁Before	-7741
ैया	-7742
eties	-7743
▁central	-7744
बाल	-7745
ोसिए	-7746
▁शता	-7747
▁Ms	-7748
▁गौ	-7749
▁सॉ	-7750
▁felt	-7751
▁Whe	-7752
▁path	-7753
▁wall	-7754
▁इलाज	-7755
▁जोखिम	-7756
▁workers	-7757
▁हाथों	-7758
▁Pranab	-7759
फ्ट	-7760
▁विधेयक	-7761
▁लेनदेन	-7762
▁खुलती	-7763
▁ll	-7764
AC	-7765
▁लो	-7766
्याग	-7767
र्ते	-7768
▁टुक	-7769
▁निवार	-7770
▁science	-7771
utor	-7772
▁mode	-7773
ठा	-7774
▁gold	-7775
▁वायु	-7776
▁servant	-7777
▁तट	-7778
▁interests	-7779
▁मस	-7780
▁try	-7781
▁although	-7782
यू	-7783
ivity	-7784
▁Mark	-7785
▁Centre	-7786
▁Regulations	-7787
▁crop	-7788
▁समानता	-7789
▁अनुप्रयोग	-7790
▁AT	-7791
▁केरल	-7792
▁गलती	-7793
▁entr	-7794
▁fast	-7795
▁proceeded	-7796
▁बयानों	-7797
लाइन	-7798
▁भागीदारी	-7799
▁फ्ल	-7800
▁calc	-7801
▁स्वा	-7802
▁Evidence	-7803
▁रिश्त	-7804
▁हस्तांतरण	-7805
▁जाएंगे	-7806
▁Class	-7807
▁Kerala	-7808
▁संपत्तियों	-7809
▁CW	-7810
▁विंडों	-7811
▁संक्षिप्त	-7812
▁asc	-7813
▁बला	-7814
▁Maharashtra	-7815
▁आठ	-7816
▁suc	-7817
क्षिक	-7818
▁मकान	-7819
▁initial	-7820
िद	-7821
▁repro	-7822
▁ड्राइ	-7823
▁पहुंचने	-7824
PL	-7825
ापि	-7826
▁tri	-7827
▁जीवित	-7828
▁अट	-7829
bitral	-7830
▁salary	-7831
▁Calcutta	-7832
osop	-7833
▁गुजर	-7834
▁sac	-7835
▁अभिप	-7836
▁spread	-7837
ृष्ट	-7838
▁dealt	-7839
▁schedule	-7840
▁आस्त	-7841
ammu	-7842
▁looking	-7843
▁अंतरराष्ट्रीय	-7844
oo	-7845
▁बश	-7846
earch	-7847
▁धारणा	-7848
▁Head	-7849
▁नाते	-7850
▁महत्त्व	-7851
▁वेतनमान	-7852
▁AD	-7853
▁कृप	-7854
▁अनुलग्न	-7855
vere	-7856
▁सिस्ट	-7857
▁सफ	-7858
ributed	-7859
▁regards	-7860
▁domestic	-7861
▁Pak	-7862
▁mom	-7863
atever	-7864
oon	-7865
she	-7866
क्सर	-7867
▁शैक्षणिक	-7868
▁util	-7869
▁आंध्र	-7870
ंशिक	-7871
ेश्वर	-7872
▁Jammu	-7873
▁categor	-7874
▁conflic	-7875
मानी	-7876
▁नष्ट	-7877
▁बधाई	-7878
▁यादव	-7879
▁आवंटित	-7880
▁उपबंधों	-7881
▁जय	-7882
▁अली	-7883
▁prin	-7884
▁removal	-7885
iency	-7886
▁hundred	-7887
▁Please	-7888
▁सीपीसी	-7889
▁cal	-7890
न्हीं	-7891
▁succeed	-7892
pper	-7893
ंपरा	-7894
▁आवास	-7895
▁परिश	-7896
▁Raipur	-7897
▁सेवाएं	-7898
▁tot	-7899
▁हैः	-7900
▁साक्षी	-7901
▁properly	-7902
wari	-7903
▁आंतरिक	-7904
▁विधायिका	-7905
▁निरा	-7906
▁global	-7907
OM	-7908
वें	-7909
्यक	-7910
▁Ent	-7911
▁आमंत्रित	-7912
▁quot	-7913
▁सदन	-7914
▁length	-7915
▁बढ़ावा	-7916
▁प्राथमिकी	-7917
▁maintained	-7918
▁सेवानिवृत्ति	-7919
ुस	-7920
▁task	-7921
▁शेय	-7922
actions	-7923
▁handed	-7924
▁अधी	-7925
▁कमज	-7926
▁alternative	-7927
▁granting	-7928
▁standing	-7929
▁गाय	-7930
▁idea	-7931
▁हानि	-7932
▁advocate	-7933
ncy	-7934
▁anim	-7935
▁द्वितीय	-7936
▁validity	-7937
▁constitute	-7938
▁base	-7939
व्यवस्था	-7940
▁motor	-7941
▁अनुकूल	-7942
▁legislature	-7943
▁round	-7944
▁wound	-7945
▁indicate	-7946
▁publication	-7947
▁संबोधित	-7948
▁strict	-7949
▁Arab	-7950
ula	-7951
▁PM	-7952
▁poll	-7953
raft	-7954
जह	-7955
oms	-7956
▁मिस	-7957
▁इन्ह	-7958
abor	-7959
▁eyes	-7960
▁virtue	-7961
▁फिल्म	-7962
▁proposal	-7963
▁innov	-7964
uss	-7965
EAR	-7966
▁लेता	-7967
ilosop	-7968
▁river	-7969
▁ठेके	-7970
लांग	-7971
ज्ञात	-7972
▁सम्मेलन	-7973
▁justified	-7974
खे	-7975
▁diss	-7976
▁लेखक	-7977
▁Association	-7978
▁won	-7979
▁stood	-7980
रन	-7981
▁introduced	-7982
▁disposal	-7983
▁जटिल	-7984
mortem	-7985
▁prayed	-7986
▁unable	-7987
▁consult	-7988
ौल	-7989
▁pred	-7990
▁गुना	-7991
▁admit	-7992
▁contents	-7993
▁Their	-7994
TH	-7995
▁uns	-7996
▁डाक	-7997
▁Khan	-7998
▁समन्व	-7999
▁king	-8000
▁contain	-8001
▁Cert	-8002
▁रिया	-8003
▁एसोसिए	-8004
▁विरोधा	-8005
▁पश्चिमी	-8006
▁tenant	-8007
▁परंपरा	-8008
ानु	-8009
▁black	-8010
AB	-8011
भास	-8012
▁laun	-8013
▁निलंब	-8014
atio	-8015
म्बे	-8016
▁letters	-8017
▁Elect	-8018
▁निर्भरता	-8019
enth	-8020
aulted	-8021
▁degree	-8022
▁longer	-8023
नाम	-8024
ndra	-8025
thern	-8026
▁पर्व	-8027
▁चिंता	-8028
▁बैंकों	-8029
▁अवधारणा	-8030
▁पाक	-8031
▁preliminary	-8032
iable	-8033
▁reit	-8034
▁analysis	-8035
▁आयकर	-8036
ley	-8037
▁अंततः	-8038
▁reports	-8039
▁sustain	-8040
▁तथापि	-8041
त्न	-8042
▁trib	-8043
▁परिक	-8044
▁प्री	-8045
▁दर्शन	-8046
▁बशर्ते	-8047
▁quashed	-8048
▁cy	-8049
▁राव	-8050
▁Industrial	-8051
▁Br	-8052
▁late	-8053
ंत्रिक	-8054
जाति	-8055
▁सुनाई	-8056
▁बनने	-8057
▁dischar	-8058
▁किश	-8059
▁संतुल	-8060
▁instructions	-8061
▁amp	-8062
▁अनुलग्नक	-8063
vell	-8064
▁प्रत्या	-8065
▁जाया	-8066
▁named	-8067
▁सुश्री	-8068
▁Scheduled	-8069
▁arbitrary	-8070
▁शि	-8071
▁aid	-8072
▁कलक	-8073
▁demon	-8074
▁mandatory	-8075
ुरा	-8076
▁camp	-8077
izing	-8078
▁स्थगित	-8079
्वेषण	-8080
▁vested	-8081
▁क्रमशः	-8082
▁अर्थव्यवस्था	-8083
इड	-8084
▁miscon	-8085
▁शे	-8086
स्ते	-8087
▁Vish	-8088
▁Kam	-8089
hab	-8090
▁घाव	-8091
usion	-8092
ष्प	-8093
ांग	-8094
▁कब	-8095
▁projects	-8096
रखाव	-8097
haps	-8098
विधि	-8099
तल	-8100
▁डिप	-8101
▁avoid	-8102
▁insurance	-8103
धर	-8104
▁ऑप	-8105
▁Priv	-8106
▁जोड़ा	-8107
▁रखरखाव	-8108
▁guidelines	-8109
▁unc	-8110
▁क्रूर	-8111
▁नये	-8112
▁करार	-8113
nother	-8114
▁देखें	-8115
▁Ak	-8116
ाचार	-8117
▁cheque	-8118
right	-8119
▁fear	-8120
▁increased	-8121
कस	-8122
▁अक्ष	-8123
reement	-8124
▁commence	-8125
▁टिप्पणियों	-8126
श्चात	-8127
मंडल	-8128
▁Op	-8129
▁corres	-8130
▁rail	-8131
▁आश्व	-8132
ट्र	-8133
▁समृ	-8134
▁principal	-8135
▁accomp	-8136
▁Another	-8137
▁err	-8138
olved	-8139
▁requested	-8140
▁standards	-8141
▁विनिर्दिष्ट	-8142
▁अन्	-8143
▁Whether	-8144
▁obv	-8145
▁संभावित	-8146
▁Group	-8147
▁daily	-8148
▁released	-8149
▁viz	-8150
▁आसपास	-8151
▁लक्ष्म	-8152
▁numbers	-8153
▁Regulation	-8154
▁चुकी	-8155
▁डब्ल	-8156
▁Moreover	-8157
▁maintainable	-8158
▁space	-8159
▁vacancies	-8160
iya	-8161
▁राजन	-8162
▁मिलती	-8163
▁fem	-8164
▁economy	-8165
asth	-8166
▁कोय	-8167
abilities	-8168
▁infrastructure	-8169
िष्क	-8170
▁mobile	-8171
बूझ	-8172
▁दृढ़	-8173
▁बाधा	-8174
▁despite	-8175
▁exem	-8176
▁दैनिक	-8177
▁डिग्री	-8178
▁हिन्दू	-8179
▁response	-8180
णु	-8181
▁Once	-8182
ख्त	-8183
▁आरक्षण	-8184
▁qualification	-8185
▁कृपया	-8186
▁popular	-8187
िकरण	-8188
▁arguments	-8189
▁confidence	-8190
व्र	-8191
▁mist	-8192
▁गहरा	-8193
▁guilt	-8194
▁Project	-8195
नु	-8196
▁सेल	-8197
▁जिनका	-8198
ades	-8199
orse	-8200
▁उत्स	-8201
▁seems	-8202
िकाओं	-8203
▁शराब	-8204
▁असाधारण	-8205
where	-8206
▁कपड़े	-8207
▁former	-8208
▁पक्षकारों	-8209
▁Day	-8210
ailed	-8211
▁door	-8212
▁जानता	-8213
▁prohib	-8214
hya	-8215
▁King	-8216
कला	-8217
▁धम	-8218
▁हृदय	-8219
▁सुंदर	-8220
▁beginning	-8221
बत	-8222
▁पहा	-8223
▁convey	-8224
▁Commercial	-8225
▁rise	-8226
gn	-8227
▁समाव	-8228
▁attached	-8229
▁शिक्षकों	-8230
▁stamp	-8231
▁morning	-8232
▁Ur	-8233
rist	-8234
ोदित	-8235
▁गुप्ता	-8236
▁PC	-8237
मीटर	-8238
▁तस्व	-8239
▁Char	-8240
▁insect	-8241
▁गैस	-8242
▁academic	-8243
▁undertaking	-8244
▁write	-8245
▁आंशिक	-8246
▁एशिया	-8247
▁litigation	-8248
स्त्र	-8249
▁autom	-8250
▁पहुँच	-8251
▁expert	-8252
▁larger	-8253
▁belonging	-8254
▁implementation	-8255
चित्र	-8256
ler	-8257
▁iv	-8258
▁१६	-8259
▁ali	-8260
▁चश्म	-8261
▁Inter	-8262
▁Uttar	-8263
▁बताता	-8264
▁युक्त	-8265
▁remaining	-8266
▁पूर्ववर्ती	-8267
▁आख	-8268
▁एपी	-8269
▁अयोग	-8270
▁board	-8271
ेबल	-8272
▁ग्रेड	-8273
▁Prosec	-8274
▁refused	-8275
ॉन	-8276
▁Explanation	-8277
माग	-8278
IST	-8279
▁Prog	-8280
▁लापर	-8281
ograp	-8282
▁journ	-8283
▁primary	-8284
▁इलेक्ट्र	-8285
▁सुविधाओं	-8286
▁termination	-8287
दिग्ध	-8288
▁whereby	-8289
▁contempt	-8290
racy	-8291
▁invok	-8292
▁bodies	-8293
▁assaulted	-8294
▁हिम	-8295
▁भाषण	-8296
▁Policy	-8297
▁purchased	-8298
udh	-8299
▁expenses	-8300
▁turned	-8301
▁investigating	-8302
▁खींच	-8303
▁banks	-8304
▁contains	-8305
FA	-8306
aksh	-8307
▁cou	-8308
▁Tw	-8309
▁ऑन	-8310
म्मद	-8311
ateral	-8312
▁groups	-8313
▁Finance	-8314
▁vot	-8315
▁जल्द	-8316
▁विफलता	-8317
▁प्रयुक्त	-8318
▁शुभ	-8319
ni	-8320
rew	-8321
▁deb	-8322
▁foc	-8323
▁plus	-8324
▁Net	-8325
▁प्रयासों	-8326
lal	-8327
nel	-8328
▁आकस	-8329
▁Form	-8330
▁वाता	-8331
▁advertisement	-8332
शीट	-8333
▁इच्छुक	-8334
्रय	-8335
▁repe	-8336
▁अपमान	-8337
▁गोली	-8338
▁located	-8339
▁AND	-8340
ja	-8341
▁नैतिक	-8342
▁मिलकर	-8343
▁संस्थाओं	-8344
▁तथ्यात्मक	-8345
थित	-8346
▁borrow	-8347
▁सिस्टम	-8348
▁आकस्मिक	-8349
▁रजिस्टर	-8350
▁संदिग्ध	-8351
▁pleadings	-8352
ques	-8353
▁करीब	-8354
▁sections	-8355
▁अधिसूचित	-8356
रता	-8357
▁वजह	-8358
ुस्ता	-8359
▁pain	-8360
कत	-8361
बाज	-8362
azar	-8363
▁results	-8364
▁prop	-8365
▁weak	-8366
▁events	-8367
▁reform	-8368
▁possess	-8369
▁स्वीकृत	-8370
▁न्यायमूर्ति	-8371
ब्दी	-8372
भाविक	-8373
▁नाटक	-8374
▁जानबूझ	-8375
arya	-8376
ulted	-8377
▁कक्षा	-8378
िपि	-8379
ानों	-8380
ियान	-8381
▁पूछा	-8382
▁speed	-8383
▁एक्सट	-8384
▁highest	-8385
▁release	-8386
▁Air	-8387
▁सूक्ष्म	-8388
OC	-8389
▁usually	-8390
▁विद्यमान	-8391
▁Her	-8392
▁साक्ष्यों	-8393
शय	-8394
▁आवंटन	-8395
▁समर्प	-8396
endency	-8397
▁खंडपीठ	-8398
▁विद्यालय	-8399
▁dig	-8400
▁correspond	-8401
leb	-8402
ton	-8403
▁अक्सर	-8404
▁आरक्षित	-8405
▁रस	-8406
▁vital	-8407
▁बलात्कार	-8408
▁extension	-8409
▁Ved	-8410
▁sle	-8411
प्पा	-8412
▁hope	-8413
▁formal	-8414
▁अपनाया	-8415
▁बढ़ाया	-8416
आरएस	-8417
▁determine	-8418
▁सेवानिवृत्त	-8419
्नों	-8420
▁उत्क	-8421
▁यूपी	-8422
▁deposited	-8423
▁Technology	-8424
▁rout	-8425
ailing	-8426
▁चोटें	-8427
rick	-8428
्रोल	-8429
▁Here	-8430
▁बनाता	-8431
▁temporary	-8432
▁बहा	-8433
▁धारण	-8434
बीआई	-8435
▁suffered	-8436
▁कॉर्प	-8437
▁विषयों	-8438
▁उपयोगी	-8439
▁reach	-8440
▁विशेषता	-8441
▁issuance	-8442
▁acquittal	-8443
सील	-8444
▁गुरु	-8445
▁पैमाने	-8446
▁potential	-8447
▁interested	-8448
▁टन	-8449
▁आपका	-8450
▁items	-8451
▁निर्मा	-8452
▁maximum	-8453
▁असर	-8454
▁अनुमोदित	-8455
ड़न	-8456
ini	-8457
▁एक्	-8458
▁फीस	-8459
▁Your	-8460
▁शैक्षिक	-8461
▁IV	-8462
▁advantage	-8463
ॉय	-8464
rel	-8465
▁tar	-8466
▁ज्ञात	-8467
▁नागरिकों	-8468
▁साफ	-8469
▁film	-8470
▁schools	-8471
chol	-8472
▁Sal	-8473
▁ready	-8474
▁Up	-8475
▁ratio	-8476
inating	-8477
▁weight	-8478
ze	-8479
▁Ob	-8480
▁आँ	-8481
pped	-8482
▁valu	-8483
▁guarantee	-8484
▁god	-8485
▁बदले	-8486
▁हिंदी	-8487
▁सां	-8488
▁delib	-8489
▁removed	-8490
करी	-8491
▁element	-8492
▁applicants	-8493
▁perf	-8494
▁समुद्र	-8495
ighb	-8496
▁built	-8497
▁वीडियो	-8498
▁proc	-8499
▁Control	-8500
▁वीं	-8501
ites	-8502
▁Mod	-8503
▁बढ़ने	-8504
▁finally	-8505
erted	-8506
▁इत्या	-8507
▁colour	-8508
▁ईसा	-8509
▁क्व	-8510
▁saying	-8511
▁extreme	-8512
▁dt	-8513
▁तल	-8514
inery	-8515
▁proced	-8516
▁समस्याओं	-8517
▁drug	-8518
▁गर्इ	-8519
▁दिमाग	-8520
▁MO	-8521
▁worked	-8522
▁गौर	-8523
▁finds	-8524
▁user	-8525
▁वातावरण	-8526
▁रेखा	-8527
▁विमान	-8528
▁approached	-8529
▁presumption	-8530
▁IS	-8531
वो	-8532
ामा	-8533
▁दवा	-8534
▁मनो	-8535
▁moment	-8536
▁मस्त	-8537
▁भागों	-8538
▁अंतर्राष्ट्रीय	-8539
दीद	-8540
ॉर्ट	-8541
▁deals	-8542
रान	-8543
iment	-8544
▁send	-8545
▁दीवार	-8546
▁अस्पष्ट	-8547
त्व	-8548
▁नामक	-8549
▁objective	-8550
र्डर	-8551
▁शैली	-8552
ume	-8553
▁रुपए	-8554
▁novel	-8555
▁हितों	-8556
▁कश्मीर	-8557
eel	-8558
▁अनुवाद	-8559
▁कलकत्ता	-8560
▁विकलांग	-8561
▁entertain	-8562
▁अवमानना	-8563
▁concluded	-8564
rif	-8565
▁ड्यू	-8566
ॉल्ट	-8567
▁जहा	-8568
the	-8569
▁demonst	-8570
iece	-8571
▁इजर	-8572
▁एप	-8573
▁पैर	-8574
▁void	-8575
सु	-8576
▁जिनकी	-8577
▁चश्मदीद	-8578
▁influence	-8579
्रित	-8580
iciary	-8581
▁recent	-8582
▁नारायण	-8583
▁हलफनामा	-8584
gy	-8585
▁खातों	-8586
▁understanding	-8587
▁अरब	-8588
▁North	-8589
दिक	-8590
▁pal	-8591
▁crore	-8592
वेट	-8593
▁bear	-8594
▁बौद्ध	-8595
▁crores	-8596
▁इंजीनियर	-8597
▁prejudice	-8598
▁retirement	-8599
▁deduction	-8600
▁recommendations	-8601
र्गी	-8602
TC	-8603
▁San	-8604
orial	-8605
▁समाय	-8606
▁cognizance	-8607
▁सुख	-8608
▁pleas	-8609
ATE	-8610
▁धारक	-8611
▁वरिष्ठता	-8612
▁hum	-8613
▁phone	-8614
▁distingu	-8615
▁industries	-8616
▁प्रोत्साहन	-8617
▁contentions	-8618
▁ing	-8619
▁violence	-8620
▁neighb	-8621
▁आंख	-8622
▁medic	-8623
▁philosop	-8624
▁जानबूझकर	-8625
III	-8626
▁hereby	-8627
▁शिक्षण	-8628
▁item	-8629
▁factual	-8630
▁employed	-8631
▁delivery	-8632
▁views	-8633
▁नामित	-8634
▁ordered	-8635
SL	-8636
uct	-8637
▁raise	-8638
▁त्याग	-8639
▁imag	-8640
yle	-8641
▁Exh	-8642
▁stock	-8643
ड्ड	-8644
िने	-8645
▁अभिन	-8646
▁notes	-8647
▁survey	-8648
ैट	-8649
▁Having	-8650
▁engine	-8651
▁मुआवजा	-8652
▁assault	-8653
owry	-8654
ताव	-8655
▁Manager	-8656
LA	-8657
orld	-8658
कालीन	-8659
▁team	-8660
▁fight	-8661
ply	-8662
▁suggested	-8663
idy	-8664
▁recommended	-8665
▁Are	-8666
▁कंट	-8667
िसी	-8668
▁Kashmir	-8669
gest	-8670
▁Mis	-8671
▁eval	-8672
▁Person	-8673
▁प्रतिबद्ध	-8674
▁कारक	-8675
▁भ्रष्ट	-8676
▁मिट्टी	-8677
▁शताब्दी	-8678
▁partnership	-8679
▁card	-8680
▁legislative	-8681
oured	-8682
▁गंगा	-8683
▁amongst	-8684
▁complex	-8685
▁Insurance	-8686
appa	-8687
inder	-8688
▁Ahmed	-8689
▁फॉर्म	-8690
▁filled	-8691
▁square	-8692
dden	-8693
र्धन	-8694
निष्ठ	-8695
▁सारा	-8696
▁notified	-8697
▁rank	-8698
▁Bu	-8699
▁Cor	-8700
▁Est	-8701
्राज	-8702
▁moved	-8703
▁विधायी	-8704
▁यौ	-8705
icit	-8706
▁वेद	-8707
▁बाग	-8708
▁incur	-8709
▁वापसी	-8710
operation	-8711
▁dismissal	-8712
्रीन	-8713
▁chem	-8714
▁दबाव	-8715
▁देखना	-8716
▁तमिलना	-8717
▁AB	-8718
▁render	-8719
▁showing	-8720
▁adequate	-8721
▁ble	-8722
▁दूसरों	-8723
itness	-8724
▁changed	-8725
▁कानूनों	-8726
▁प्रस्तुति	-8727
तक	-8728
bhai	-8729
▁bed	-8730
▁lives	-8731
▁wholly	-8732
▁affairs	-8733
▁assigned	-8734
▁परिवर्तित	-8735
▁आर्	-8736
▁caste	-8737
▁clean	-8738
▁confirmed	-8739
▁bon	-8740
inent	-8741
▁प्ले	-8742
▁impact	-8743
▁addressed	-8744
aur	-8745
una	-8746
श्विक	-8747
▁Bharat	-8748
▁Car	-8749
aches	-8750
▁वारंट	-8751
▁विवादों	-8752
खन	-8753
▁सांस्कृत	-8754
▁happy	-8755
▁motive	-8756
▁स्टैंड	-8757
▁ep	-8758
▁began	-8759
▁urged	-8760
▁सांस्कृतिक	-8761
▁elected	-8762
▁dying	-8763
▁arises	-8764
▁बदलने	-8765
▁satisfaction	-8766
▁महाम	-8767
▁पट्टे	-8768
▁Supp	-8769
▁married	-8770
OS	-8771
▁Prot	-8772
सीसी	-8773
▁CBI	-8774
essor	-8775
▁दहेज	-8776
▁undergo	-8777
▁Sanj	-8778
▁license	-8779
▁American	-8780
utation	-8781
▁executive	-8782
▁compassion	-8783
ताब	-8784
▁Ant	-8785
ेक्टर	-8786
▁अर्जित	-8787
▁Superint	-8788
upees	-8789
▁कुशल	-8790
▁कमजोर	-8791
▁रहेगा	-8792
▁पत्रों	-8793
▁pure	-8794
▁stop	-8795
▁शेयरों	-8796
▁Science	-8797
▁cruel	-8798
▁investig	-8799
▁बुद्धि	-8800
▁स्कूलों	-8801
▁Official	-8802
▁happened	-8803
issa	-8804
▁द्र	-8805
▁प्ला	-8806
▁प्रसिद्ध	-8807
▁sides	-8808
वाले	-8809
▁burn	-8810
▁बताते	-8811
▁papers	-8812
▁चार्जशीट	-8813
▁distribution	-8814
ourth	-8815
गु	-8816
head	-8817
▁प्रबंधक	-8818
काम	-8819
▁seniority	-8820
▁identification	-8821
▁foot	-8822
▁लाइन	-8823
▁अनुसरण	-8824
kash	-8825
▁पूजा	-8826
ensive	-8827
ूद	-8828
▁feed	-8829
▁ट्रांस	-8830
▁चिकित्स	-8831
▁प्रवर्तन	-8832
▁बताने	-8833
▁उपन्यास	-8834
▁programmes	-8835
RA	-8836
▁INDIA	-8837
जल	-8838
▁deserv	-8839
▁Agreement	-8840
▁proposition	-8841
olid	-8842
▁फूल	-8843
मार्ग	-8844
▁आलोक	-8845
▁रोगी	-8846
▁leaders	-8847
▁break	-8848
ictions	-8849
▁प्रभारी	-8850
▁advanced	-8851
▁अवस	-8852
्यापी	-8853
▁pron	-8854
▁distinct	-8855
सीन	-8856
▁lying	-8857
▁क्लॉज	-8858
▁Jh	-8859
▁सें	-8860
▁Govt	-8861
▁विरोधी	-8862
▁referring	-8863
कुल	-8864
▁संबंधों	-8865
ोरेट	-8866
▁discrim	-8867
▁reduced	-8868
▁conce	-8869
▁involve	-8870
▁Assembly	-8871
ज़ा	-8872
▁मंड	-8873
▁भेजे	-8874
▁Ali	-8875
▁फसल	-8876
▁कथा	-8877
▁किलो	-8878
्यव	-8879
▁Kish	-8880
▁flow	-8881
▁Afric	-8882
▁World	-8883
▁जल्दी	-8884
▁निरोध	-8885
▁वर्गों	-8886
▁successful	-8887
▁safe	-8888
▁innoc	-8889
▁cultural	-8890
च्छिक	-8891
herent	-8892
▁sitting	-8893
▁प्रदू	-8894
▁तत्पश्चात	-8895
▁Att	-8896
▁विस	-8897
ियमित	-8898
▁clothes	-8899
withstanding	-8900
▁fre	-8901
▁Madh	-8902
▁तहसील	-8903
▁खराब	-8904
▁नियत	-8905
▁amend	-8906
▁स्थानांतरण	-8907
श्वास	-8908
▁causing	-8909
ख़	-8910
ाइड	-8911
▁डर	-8912
▁यूनिट	-8913
▁spiritual	-8914
▁permissible	-8915
opal	-8916
▁ब्लॉक	-8917
▁connect	-8918
▁sym	-8919
▁twenty	-8920
▁श्व	-8921
▁इजरायल	-8922
▁ORD	-8923
▁अंध	-8924
ousing	-8925
▁highly	-8926
▁लापरवाही	-8927
▁संगठ	-8928
▁driver	-8929
▁binding	-8930
▁issuing	-8931
▁जिम्मेदारी	-8932
aneous	-8933
▁Orissa	-8934
▁tribunal	-8935
▁collection	-8936
▁YEAR	-8937
▁active	-8938
▁opened	-8939
▁indicates	-8940
▁Kan	-8941
▁bur	-8942
▁पत्थ	-8943
▁क्रेड	-8944
▁द्वार	-8945
▁इत्यादि	-8946
aji	-8947
▁suspic	-8948
▁भेदभाव	-8949
▁कार्यवाह	-8950
▁मिनट	-8951
▁श्रमिक	-8952
▁pattern	-8953
orney	-8954
▁Amendment	-8955
राबाद	-8956
▁newsp	-8957
▁अधीनस्थ	-8958
▁पथ	-8959
antly	-8960
attle	-8961
▁विवे	-8962
▁Agricult	-8963
▁Assessing	-8964
▁circumstance	-8965
▁अतिक	-8966
▁रुचि	-8967
▁अनियमित	-8968
▁सलाहकार	-8969
▁अन्तर्	-8970
▁directing	-8971
▁scientific	-8972
▁mortg	-8973
▁परेशान	-8974
mi	-8975
omen	-8976
▁आउट	-8977
▁seed	-8978
▁आपने	-8979
▁ORDER	-8980
andum	-8981
alid	-8982
oned	-8983
▁इतने	-8984
▁तमिलनाडु	-8985
▁cad	-8986
ounce	-8987
cribe	-8988
stood	-8989
▁pict	-8990
▁sun	-8991
▁Circ	-8992
▁save	-8993
▁प्रधानमंत्री	-8994
reen	-8995
road	-8996
▁rul	-8997
▁टीम	-8998
▁OS	-8999
▁thereto	-9000
▁रजिस्ट्री	-9001
orandum	-9002
▁नवी	-9003
▁मजबूर	-9004
िस्त	-9005
▁sem	-9006
▁hot	-9007
▁फी	-9008
achment	-9009
▁speech	-9010
▁sudden	-9011
ception	-9012
▁अमेरिक	-9013
▁minutes	-9014
ंतिम	-9015
▁ant	-9016
▁बचा	-9017
▁सबम	-9018
▁लक्षण	-9019
▁लगाना	-9020
uration	-9021
▁जोड़ने	-9022
▁totally	-9023
▁PD	-9024
▁cho	-9025
▁तिर	-9026
▁इमार	-9027
▁grand	-9028
▁values	-9029
▁secured	-9030
ढ़ी	-9031
िन्	-9032
etic	-9033
▁गुणों	-9034
▁whatever	-9035
▁Roy	-9036
▁छत्त	-9037
ेह	-9038
ira	-9039
▁Di	-9040
▁attend	-9041
▁undertaken	-9042
yer	-9043
▁visited	-9044
asa	-9045
itate	-9046
प्रिय	-9047
▁Nath	-9048
▁brief	-9049
▁ग्राहक	-9050
▁स्वाभाविक	-9051
▁पेटेंट	-9052
▁कार्यान्वयन	-9053
▁आईटी	-9054
▁win	-9055
▁depri	-9056
धारी	-9057
▁दिये	-9058
▁Engineer	-9059
▁increasing	-9060
्टम	-9061
▁बाकी	-9062
▁देयता	-9063
ients	-9064
▁गर्म	-9065
▁ग्रे	-9066
▁सेवक	-9067
▁Award	-9068
▁press	-9069
▁liquid	-9070
▁ठेकेदार	-9071
▁Institution	-9072
नामा	-9073
▁Nadu	-9074
▁इंस्प	-9075
▁जैव	-9076
▁town	-9077
▁अर्ध	-9078
▁अनंतिम	-9079
pe	-9080
mise	-9081
chand	-9082
▁soci	-9083
ाब	-9084
▁Crl	-9085
ल्ला	-9086
मान्य	-9087
▁ब्रह्म	-9088
▁bond	-9089
▁प्राण	-9090
▁device	-9091
▁राज्यपाल	-9092
▁खुले	-9093
▁cited	-9094
ka	-9095
▁चक्र	-9096
▁mount	-9097
▁containing	-9098
▁स्की	-9099
▁काव्य	-9100
▁display	-9101
while	-9102
accused	-9103
▁किराया	-9104
▁क्रेडिट	-9105
▁आइ	-9106
▁bit	-9107
▁ways	-9108
▁पावर	-9109
▁sample	-9110
ila	-9111
▁fif	-9112
▁hab	-9113
▁sens	-9114
▁manif	-9115
▁looked	-9116
▁pendency	-9117
▁Ord	-9118
▁विम	-9119
▁ago	-9120
▁huge	-9121
त्तम	-9122
▁Railway	-9123
▁Champ	-9124
pto	-9125
▁weapon	-9126
▁lie	-9127
▁अवकाश	-9128
▁Program	-9129
संख	-9130
▁Tal	-9131
▁systems	-9132
▁certainly	-9133
पान	-9134
▁XX	-9135
▁vs	-9136
lude	-9137
▁शहरी	-9138
▁बीमारी	-9139
▁प्रचलित	-9140
▁block	-9141
▁गतिविधि	-9142
▁कार्यकाल	-9143
▁fat	-9144
▁soul	-9145
▁प्या	-9146
▁आसानी	-9147
▁depart	-9148
▁अब्द	-9149
▁काउंसिल	-9150
▁परिपत्र	-9151
▁भु	-9152
▁रै	-9153
▁conspir	-9154
▁Officers	-9155
▁मांगी	-9156
▁promot	-9157
▁इन्हें	-9158
▁लोकतंत्र	-9159
▁सिल	-9160
▁नवान	-9161
▁suitable	-9162
▁Chen	-9163
▁latter	-9164
▁सत्यापन	-9165
▁प्रतिस्प	-9166
ियत	-9167
atha	-9168
▁ठोस	-9169
शास्त्र	-9170
▁harass	-9171
▁plants	-9172
▁पूर्वी	-9173
कल	-9174
्चर	-9175
▁कने	-9176
पोर्ट	-9177
▁सारी	-9178
यत	-9179
▁song	-9180
▁description	-9181
ज़र	-9182
▁अपर	-9183
▁खड़े	-9184
▁types	-9185
▁Employ	-9186
▁milk	-9187
▁schol	-9188
▁समझने	-9189
urb	-9190
▁rich	-9191
▁आह्वान	-9192
▁transactions	-9193
uous	-9194
urs	-9195
▁rap	-9196
चित्य	-9197
▁Spe	-9198
▁अचान	-9199
▁आवाज	-9200
स्टेबल	-9201
▁गणराज्य	-9202
ूब	-9203
▁Only	-9204
▁sexual	-9205
वित्र	-9206
▁Met	-9207
▁closed	-9208
▁negl	-9209
▁फार्म	-9210
abled	-9211
▁डिफ़	-9212
▁नीलामी	-9213
▁rates	-9214
▁सशक्त	-9215
ika	-9216
▁पल	-9217
▁Christ	-9218
▁प्रश्नों	-9219
ूंगा	-9220
र्देश	-9221
▁अचानक	-9222
▁histor	-9223
irs	-9224
सीद	-9225
▁wages	-9226
asw	-9227
▁genu	-9228
ेंज	-9229
दर्शन	-9230
भावना	-9231
DA	-9232
▁seats	-9233
ruption	-9234
▁Accused	-9235
▁welfare	-9236
▁Legislature	-9237
▁NIC	-9238
▁Budd	-9239
qual	-9240
▁फंसा	-9241
▁exhib	-9242
▁panch	-9243
▁renew	-9244
▁minister	-9245
▁furnished	-9246
दोष	-9247
azet	-9248
▁हवा	-9249
▁पाकिस्तान	-9250
▁ठाक	-9251
▁प्राइवेट	-9252
▁Dar	-9253
▁profit	-9254
umari	-9255
▁quoted	-9256
▁secret	-9257
▁friends	-9258
र्घ	-9259
held	-9260
▁स्वै	-9261
▁danger	-9262
▁अभियोजक	-9263
िनल	-9264
▁रास्ते	-9265
पक	-9266
▁बेचने	-9267
▁gets	-9268
▁YEARS	-9269
▁सहारा	-9270
्लो	-9271
वानी	-9272
ेंडर	-9273
▁ens	-9274
▁ड्र	-9275
▁बीज	-9276
atter	-9277
हारिक	-9278
ivered	-9279
▁music	-9280
▁obtaining	-9281
▁खुशी	-9282
▁consequence	-9283
▁possibility	-9284
▁lap	-9285
▁joined	-9286
▁सूचीबद्ध	-9287
▁individuals	-9288
ratic	-9289
▁आश्च	-9290
▁मुसलमानों	-9291
akes	-9292
esting	-9293
▁hostile	-9294
▁गईं	-9295
▁वर्मा	-9296
▁Pakistan	-9297
▁criteria	-9298
▁dowry	-9299
▁डिफ़ॉल्ट	-9300
रस	-9301
▁wish	-9302
▁defect	-9303
iver	-9304
▁पृथ्वी	-9305
▁दृष्टया	-9306
lear	-9307
▁hom	-9308
डेंसी	-9309
▁adjudication	-9310
iful	-9311
▁प्रत	-9312
▁चारों	-9313
▁operations	-9314
▁serve	-9315
▁commencement	-9316
hand	-9317
▁जाएं	-9318
ovable	-9319
▁स्नात	-9320
▁identity	-9321
▁solution	-9322
▁संतुष्टि	-9323
▁sanctioned	-9324
▁Its	-9325
▁Categ	-9326
▁hereinafter	-9327
▁fort	-9328
▁video	-9329
▁आतंकवाद	-9330
▁साम्राज	-9331
▁alia	-9332
athe	-9333
oly	-9334
▁piece	-9335
regular	-9336
ream	-9337
▁ऑर्डर	-9338
▁ड्यूटी	-9339
▁सरकारों	-9340
▁संसाधनों	-9341
▁cultiv	-9342
▁लंबी	-9343
▁Sant	-9344
▁factor	-9345
▁motion	-9346
▁college	-9347
▁associated	-9348
▁आश्चर्य	-9349
era	-9350
lex	-9351
▁सुभाष	-9352
▁छत्तीस	-9353
▁प्रवाह	-9354
▁भय	-9355
▁इनके	-9356
▁खेती	-9357
leges	-9358
▁chief	-9359
▁obtain	-9360
▁learning	-9361
▁अधिकारिता	-9362
rep	-9363
▁clos	-9364
▁jail	-9365
▁तीव्र	-9366
आईटी	-9367
▁Yog	-9368
▁अक्षम	-9369
▁negative	-9370
गण	-9371
raj	-9372
ोबार	-9373
▁Cap	-9374
▁लें	-9375
▁deposition	-9376
मय	-9377
▁वर	-9378
▁पॉल	-9379
▁Many	-9380
▁conflict	-9381
▁exercising	-9382
utt	-9383
elled	-9384
▁दोहराया	-9385
▁allotment	-9386
▁necessarily	-9387
ार्ट	-9388
▁cry	-9389
▁scene	-9390
▁कठिनाई	-9391
▁तत्कालीन	-9392
▁अजी	-9393
▁Organ	-9394
▁annual	-9395
▁मेमो	-9396
▁शिकार	-9397
▁सर्वा	-9398
▁प्रोग्राम	-9399
▁MD	-9400
▁uncon	-9401
▁white	-9402
▁तात्काल	-9403
GAL	-9404
लाल	-9405
▁आये	-9406
▁जाह	-9407
▁अफ्री	-9408
▁गुप्त	-9409
▁दावों	-9410
ुरी	-9411
▁१७	-9412
▁lad	-9413
▁limits	-9414
▁CC	-9415
हत्या	-9416
▁ideas	-9417
▁भेजने	-9418
portion	-9419
khand	-9420
▁बचने	-9421
▁compar	-9422
▁Companies	-9423
▁Inf	-9424
▁chann	-9425
▁आयोजन	-9426
▁पात्रता	-9427
▁Research	-9428
▁middle	-9429
▁damages	-9430
▁प्रेष	-9431
▁मानने	-9432
▁series	-9433
िली	-9434
▁झग	-9435
▁Joint	-9436
▁memory	-9437
▁तात्कालिक	-9438
नो	-9439
lace	-9440
▁Pan	-9441
icies	-9442
▁gener	-9443
▁trying	-9444
▁आक्रमण	-9445
▁निकालने	-9446
▁मस्तिष्क	-9447
▁सम्मानित	-9448
▁साज	-9449
▁असंगत	-9450
holders	-9451
▁प्रायः	-9452
owered	-9453
▁Prime	-9454
▁कुंजी	-9455
▁choice	-9456
▁plot	-9457
▁खत्म	-9458
▁contro	-9459
▁विचारण	-9460
न्य	-9461
▁reflect	-9462
▁चीज़	-9463
▁deleg	-9464
▁delivered	-9465
▁recognized	-9466
▁आरोपित	-9467
▁animals	-9468
AME	-9469
▁फें	-9470
▁assign	-9471
▁played	-9472
oring	-9473
▁मैदान	-9474
▁क्रूरता	-9475
▁observation	-9476
▁surf	-9477
▁कौशल	-9478
▁ज्यो	-9479
▁acted	-9480
▁इंस्पेक्टर	-9481
▁हिंसा	-9482
▁sometimes	-9483
▁प्रोट	-9484
▁शर्तें	-9485
▁acquitted	-9486
▁understood	-9487
▁बीमार	-9488
▁allotted	-9489
▁departmental	-9490
▁सुनने	-9491
क्षेत्र	-9492
▁select	-9493
iling	-9494
ड़ीसा	-9495
▁विभाजित	-9496
▁irregular	-9497
▁्	-9498
▁strugg	-9499
▁distinction	-9500
▁फोट	-9501
▁concern	-9502
▁confirm	-9503
▁enacted	-9504
▁शत्रुता	-9505
▁अतिक्रमण	-9506
▁अमरी	-9507
▁equip	-9508
▁उत्पी	-9509
gor	-9510
▁Inc	-9511
▁Thak	-9512
▁शंकर	-9513
▁लेखों	-9514
▁travel	-9515
▁creation	-9516
▁निरीक्षक	-9517
▁MC	-9518
onial	-9519
▁celeb	-9520
▁worth	-9521
▁उठता	-9522
▁comprom	-9523
▁एसोसिएशन	-9524
▁बू	-9525
▁औचित्य	-9526
द्रास	-9527
▁अंतरण	-9528
▁occurred	-9529
▁performed	-9530
जीवन	-9531
सिंह	-9532
मार्टम	-9533
OL	-9534
बिट	-9535
awan	-9536
नाएं	-9537
ादन	-9538
▁bag	-9539
त्मिक	-9540
▁feet	-9541
▁damage	-9542
▁मजदूरी	-9543
▁consequent	-9544
▁ax	-9545
then	-9546
▁Tah	-9547
▁warm	-9548
▁draft	-9549
▁useful	-9550
▁villages	-9551
▁acceptance	-9552
▁पूर्वाग्रह	-9553
▁छत्तीसगढ़	-9554
्वा	-9555
▁सतर्क	-9556
ंडा	-9557
▁MA	-9558
▁मीडिया	-9559
▁recommendation	-9560
▁bird	-9561
▁prec	-9562
▁तुम्हें	-9563
▁chemical	-9564
▁upto	-9565
▁content	-9566
▁Category	-9567
▁पोस्टमार्टम	-9568
▁news	-9569
▁touch	-9570
▁holder	-9571
▁प्रतिस्पर्	-9572
स्थल	-9573
▁पुनरी	-9574
तिहासिक	-9575
▁dele	-9576
▁arbitral	-9577
isite	-9578
▁Also	-9579
▁forces	-9580
▁prison	-9581
▁दिला	-9582
▁System	-9583
▁Contract	-9584
▁controll	-9585
▁वर्गीकरण	-9586
▁remark	-9587
▁opening	-9588
▁आत्महत्या	-9589
▁absolutely	-9590
जतन	-9591
ेंद	-9592
्रदाय	-9593
▁suffer	-9594
▁Articles	-9595
▁alt	-9596
▁शिश	-9597
▁सकारात्मक	-9598
▁नतीजतन	-9599
▁claiming	-9600
▁विरोधाभास	-9601
लर	-9602
लेट	-9603
▁asset	-9604
▁चेतना	-9605
▁contra	-9606
▁poetry	-9607
▁America	-9608
▁deciding	-9609
▁Tur	-9610
▁radi	-9611
▁Hyder	-9612
▁reservation	-9613
▁auction	-9614
▁उत्कृष्ट	-9615
▁paragraphs	-9616
▁अशोक	-9617
▁आध्या	-9618
▁दिशानि	-9619
▁Judgment	-9620
▁Arbitrator	-9621
क्षी	-9622
▁Vice	-9623
▁rape	-9624
▁देंगे	-9625
▁संगठनों	-9626
▁होम	-9627
ifted	-9628
▁आसान	-9629
र्नी	-9630
▁lines	-9631
ications	-9632
फर	-9633
osis	-9634
▁चेन्न	-9635
▁स्वच्छ	-9636
▁Although	-9637
▁receiving	-9638
▁दिशानिर्देश	-9639
▁हैद	-9640
▁नवीन	-9641
▁टिप्पणी	-9642
▁Respondents	-9643
ishra	-9644
▁Child	-9645
▁inherent	-9646
ंभव	-9647
▁अहमद	-9648
▁उड़ीसा	-9649
bur	-9650
ague	-9651
▁दूध	-9652
▁knew	-9653
▁भरने	-9654
▁female	-9655
▁killed	-9656
atically	-9657
▁willing	-9658
▁उद्योगों	-9659
▁Aud	-9660
▁Pay	-9661
▁tool	-9662
▁तोड़	-9663
asthan	-9664
थी	-9665
नाश	-9666
▁sleep	-9667
iles	-9668
त्ते	-9669
▁Rao	-9670
▁box	-9671
eshwar	-9672
▁ultimately	-9673
▁UN	-9674
▁मौसम	-9675
▁challenging	-9676
स्पर	-9677
▁किसानों	-9678
▁परियोजनाओं	-9679
ena	-9680
▁MP	-9681
▁शो	-9682
▁नेहर	-9683
▁बताओ	-9684
ellect	-9685
▁शुभकाम	-9686
▁ट्रै	-9687
▁needed	-9688
▁consequences	-9689
▁शासित	-9690
▁सामग्र	-9691
▁command	-9692
▁convict	-9693
्रण	-9694
▁देर	-9695
▁Swami	-9696
▁suicide	-9697
▁definite	-9698
▁opportunities	-9699
vt	-9700
▁इन्	-9701
ड़ियों	-9702
▁ON	-9703
ahar	-9704
▁floor	-9705
▁पवित्र	-9706
▁सबमिशन	-9707
▁कार्यक्रमों	-9708
श्त	-9709
ानिक	-9710
▁स्मृति	-9711
ider	-9712
दाताओं	-9713
▁Ashok	-9714
▁Mohan	-9715
▁प्रसन्नता	-9716
▁pertaining	-9717
▁functioning	-9718
▁फिट	-9719
▁सख्त	-9720
▁पश्चात	-9721
▁answered	-9722
ंपा	-9723
▁रण	-9724
ounced	-9725
▁manufacturing	-9726
▁लगाई	-9727
▁सुलझ	-9728
▁envis	-9729
▁चेहरे	-9730
▁Non	-9731
▁arch	-9732
▁neck	-9733
▁reserved	-9734
▁Na	-9735
▁mix	-9736
▁मिशन	-9737
▁छो	-9738
▁Dec	-9739
▁जाल	-9740
▁City	-9741
▁प्रदत्त	-9742
▁believed	-9743
जु	-9744
▁Home	-9745
संख्या	-9746
▁खोलने	-9747
▁स्वागत	-9748
▁Him	-9749
▁शास्त	-9750
▁remove	-9751
▁Aff	-9752
▁prem	-9753
▁प्रविष्ट	-9754
▁Out	-9755
▁गोल	-9756
▁नमूना	-9757
▁नकारात्मक	-9758
ड़ाई	-9759
▁सीट	-9760
▁citizen	-9761
▁ball	-9762
▁gun	-9763
▁लड़की	-9764
▁perhaps	-9765
▁recover	-9766
िकेशन	-9767
▁धमकी	-9768
▁division	-9769
▁Bai	-9770
▁Che	-9771
▁रिटर्न	-9772
दर्शी	-9773
▁होटल	-9774
▁throughout	-9775
▁फे	-9776
▁उपायों	-9777
▁सुसंगत	-9778
▁व्यावहारिक	-9779
▁कारबार	-9780
▁निवारण	-9781
▁repl	-9782
▁इंग्ल	-9783
▁average	-9784
सू	-9785
▁AC	-9786
▁साध	-9787
▁बुरा	-9788
▁Chenn	-9789
▁ancient	-9790
▁machinery	-9791
गाह	-9792
▁cul	-9793
▁alter	-9794
▁exped	-9795
▁सैनिक	-9796
▁advice	-9797
▁secure	-9798
bel	-9799
▁dy	-9800
▁indeed	-9801
▁शक्तियां	-9802
▁रम	-9803
▁appointments	-9804
▁Val	-9805
▁easy	-9806
▁समस्त	-9807
▁निपटाया	-9808
▁परिस्थित	-9809
▁coal	-9810
▁देखे	-9811
▁intim	-9812
▁हैदराबाद	-9813
▁Notification	-9814
SH	-9815
▁बनता	-9816
aintiff	-9817
▁अधीक्षक	-9818
▁democracy	-9819
धरी	-9820
▁चैन	-9821
▁परस्पर	-9822
▁doctrine	-9823
ken	-9824
▁रव	-9825
▁drink	-9826
▁absor	-9827
▁anti	-9828
▁mainly	-9829
▁प्रतियोग	-9830
▁करवा	-9831
▁copies	-9832
रप	-9833
▁sea	-9834
▁dark	-9835
▁रसीद	-9836
▁Members	-9837
▁positive	-9838
▁राजस्थान	-9839
ont	-9840
▁irre	-9841
▁तलाश	-9842
▁sentenced	-9843
▁disclosure	-9844
▁Certificate	-9845
▁Superintendent	-9846
▁एडवो	-9847
▁सूर्य	-9848
▁pressure	-9849
EM	-9850
kn	-9851
▁कायम	-9852
▁voice	-9853
▁classes	-9854
▁equally	-9855
▁Election	-9856
ror	-9857
▁आलो	-9858
▁model	-9859
▁लाभों	-9860
▁construed	-9861
▁Cha	-9862
▁उन्नत	-9863
▁manufacture	-9864
orage	-9865
orthy	-9866
पेक्ष	-9867
▁range	-9868
▁Excise	-9869
▁उत्तराधिकार	-9870
ंदन	-9871
दास	-9872
alore	-9873
rises	-9874
▁Disc	-9875
▁अभियंता	-9876
▁एडवोकेट	-9877
▁पक्षकार	-9878
कश	-9879
▁भूल	-9880
▁Const	-9881
फ्टवेयर	-9882
▁ज्योति	-9883
▁policies	-9884
▁relative	-9885
▁राजनैतिक	-9886
mbol	-9887
▁Defendant	-9888
onn	-9889
athy	-9890
inet	-9891
▁चाकू	-9892
▁प्रतिद्व	-9893
▁Consequently	-9894
▁Sr	-9895
▁बेह	-9896
▁Subh	-9897
ulating	-9898
▁Private	-9899
▁आध्यात्मिक	-9900
▁दीर्घ	-9901
▁पर्यवे	-9902
▁subjected	-9903
▁सामग्रियों	-9904
▁नाथ	-9905
▁generation	-9906
▁Ret	-9907
▁internal	-9908
▁electricity	-9909
तीत	-9910
▁teleph	-9911
▁प्रतीक	-9912
▁विनियमों	-9913
▁Hyderabad	-9914
▁Open	-9915
▁रिहा	-9916
▁famous	-9917
▁England	-9918
▁Directors	-9919
▁Arbitration	-9920
▁महत्त्वपूर्ण	-9921
ंकिंग	-9922
irty	-9923
▁उत्पादित	-9924
▁regulations	-9925
ंदी	-9926
ूद्ध	-9927
▁Tri	-9928
▁ऐतिहासिक	-9929
▁भागी	-9930
▁exact	-9931
▁green	-9932
▁farmers	-9933
▁विशेषकर	-9934
▁teaching	-9935
▁association	-9936
▁herself	-9937
umn	-9938
▁औष	-9939
▁shape	-9940
isted	-9941
uli	-9942
▁walk	-9943
▁संगण	-9944
▁प्रच	-9945
▁stopp	-9946
▁संविदा	-9947
▁confession	-9948
asi	-9949
ारों	-9950
▁गर्भ	-9951
▁विधिक	-9952
▁अपीलों	-9953
anes	-9954
uity	-9955
▁surv	-9956
struction	-9957
▁भरा	-9958
▁stipulated	-9959
▁rein	-9960
▁यूरोप	-9961
▁अगली	-9962
इस	-9963
वाली	-9964
▁खतरा	-9965
▁languages	-9966
▁अनुभाग	-9967
▁sav	-9968
▁falls	-9969
▁लिखने	-9970
▁जायेगा	-9971
▁categories	-9972
▁Fl	-9973
माना	-9974
ertained	-9975
शीलता	-9976
▁Member	-9977
▁external	-9978
hru	-9979
▁sn	-9980
sible	-9981
किल	-9982
▁अनि	-9983
▁minus	-9984
▁संतुलन	-9985
▁disclose	-9986
UM	-9987
ादित	-9988
asmuch	-9989
▁media	-9990
▁अनुकंपा	-9991
ray	-9992
▁War	-9993
▁style	-9994
▁vision	-9995
▁schemes	-9996
▁quantity	-9997
▁समितियों	-9998
▁achieved	-9999
EE	-10000
▁कॉपी	-10001
▁सेंट	-10002
▁हवाई	-10003
▁learn	-10004
▁आवेदकों	-10005
▁विद्यार्थियों	-10006
▁acting	-10007
▁resort	-10008
▁forwarded	-10009
lax	-10010
▁बाबू	-10011
▁समन्वय	-10012
▁रिश्तेदार	-10013
ोत	-10014
▁pet	-10015
▁छाप	-10016
▁explain	-10017
lord	-10018
▁hit	-10019
▁असह	-10020
▁Apart	-10021
▁ge	-10022
▁जुड़ा	-10023
▁बचाने	-10024
▁जनसंख्या	-10025
OP	-10026
hu	-10027
▁छिप	-10028
▁लेखन	-10029
▁deserves	-10030
▁inspection	-10031
▁contemplated	-10032
▁Ge	-10033
know	-10034
▁दाह	-10035
▁सब्	-10036
▁गरीब	-10037
▁causes	-10038
▁machine	-10039
▁Prakhand	-10040
▁दिनांकित	-10041
▁fold	-10042
▁supplied	-10043
▁suffering	-10044
▁अवश	-10045
▁Rajasthan	-10046
▁शुभकामनाएं	-10047
▁लक	-10048
▁belief	-10049
▁विमर्श	-10050
▁transp	-10051
▁Financial	-10052
rav	-10053
ronic	-10054
▁grat	-10055
▁posted	-10056
▁omission	-10057
▁फाय	-10058
anged	-10059
ourses	-10060
cla	-10061
भोग	-10062
▁immediate	-10063
▁मोहन	-10064
▁gover	-10065
▁दरवाजा	-10066
▁स्त्री	-10067
▁software	-10068
▁प्रोत्साहित	-10069
▁किशोर	-10070
▁destro	-10071
▁Assessee	-10072
▁depend	-10073
▁impression	-10074
पुट	-10075
order	-10076
▁someone	-10077
▁रिक्तियों	-10078
▁photograph	-10079
▁माइ	-10080
▁Aut	-10081
▁वां	-10082
▁पेशे	-10083
▁अभियान	-10084
▁तस्वीर	-10085
▁facility	-10086
▁conspiracy	-10087
UL	-10088
द्दीन	-10089
▁चौधरी	-10090
▁अमेरिकी	-10091
▁Dur	-10092
▁pec	-10093
▁enhan	-10094
▁professional	-10095
हिम	-10096
▁फोर	-10097
ocates	-10098
▁files	-10099
▁north	-10100
▁प्रथा	-10101
▁promote	-10102
▁relates	-10103
▁categorically	-10104
ANo	-10105
▁Sum	-10106
▁उभर	-10107
▁गोद	-10108
▁प्रोफे	-10109
पीट	-10110
▁पिछली	-10111
▁निरस्त	-10112
▁invalid	-10113
▁कांस्टेबल	-10114
▁agriculture	-10115
▁गव	-10116
▁चीन	-10117
▁Trib	-10118
▁simply	-10119
▁instituted	-10120
ests	-10121
▁डील	-10122
known	-10123
▁उनको	-10124
inarily	-10125
▁हार	-10126
▁अयोग्य	-10127
ilateral	-10128
▁revised	-10129
▁संयंत्र	-10130
▁intellect	-10131
▁निपटा	-10132
urrency	-10133
aph	-10134
▁cat	-10135
वीर	-10136
क्का	-10137
▁लोकप्रिय	-10138
▁organisation	-10139
bal	-10140
▁प्रारूप	-10141
▁governed	-10142
▁विश्वविद्यालयों	-10143
▁कक्ष	-10144
▁अवश्य	-10145
▁तीसरी	-10146
▁strateg	-10147
▁उत्पीड़न	-10148
▁reiterated	-10149
▁MS	-10150
▁Exs	-10151
▁बेल	-10152
भाग्य	-10153
▁kill	-10154
▁Allah	-10155
▁तीनों	-10156
परी	-10157
▁दया	-10158
खास्त	-10159
▁lies	-10160
▁आवासी	-10161
▁scrutiny	-10162
▁Fr	-10163
atel	-10164
▁stra	-10165
▁workman	-10166
▁प्रशंसा	-10167
▁Prakash	-10168
yan	-10169
▁Ed	-10170
▁soil	-10171
▁उदार	-10172
▁Party	-10173
▁चलने	-10174
▁सूत्र	-10175
▁particulars	-10176
▁eld	-10177
▁abuse	-10178
▁एक्ज़	-10179
▁Social	-10180
▁easily	-10181
▁image	-10182
▁quick	-10183
▁repeated	-10184
▁admittedly	-10185
▁प्रतिद्वंद	-10186
▁मरने	-10187
▁capable	-10188
▁प्राधिकार	-10189
▁प्रतिबंधित	-10190
रु	-10191
inger	-10192
▁राजी	-10193
▁south	-10194
▁निगर	-10195
▁centre	-10196
▁श्रेणीः	-10197
▁Tel	-10198
▁नेहरू	-10199
▁बाध्यकारी	-10200
▁ऑफिस	-10201
▁निचली	-10202
▁recall	-10203
▁grievance	-10204
aks	-10205
▁Nav	-10206
ग्रहित	-10207
▁organization	-10208
▁dram	-10209
▁impart	-10210
▁theory	-10211
▁निगरानी	-10212
▁खतरे	-10213
ips	-10214
sych	-10215
साइटी	-10216
▁सौंपा	-10217
▁rupees	-10218
aste	-10219
ibly	-10220
▁Mahe	-10221
▁ones	-10222
▁Nehru	-10223
▁heavy	-10224
▁प्रेस	-10225
ृष्ण	-10226
▁averments	-10227
▁घात	-10228
▁मेसर्स	-10229
▁विधानमंडल	-10230
▁documentary	-10231
▁चढ़	-10232
▁ज़र	-10233
anded	-10234
sheet	-10235
▁compos	-10236
▁Chennai	-10237
astic	-10238
▁रीति	-10239
▁संकट	-10240
▁suspension	-10241
▁incorporated	-10242
dish	-10243
achal	-10244
▁Entry	-10245
▁सोसाइटी	-10246
घात	-10247
िबिट	-10248
वां	-10249
स्टर	-10250
▁रिस	-10251
▁पेड़	-10252
▁बाबत	-10253
▁लिखी	-10254
▁examining	-10255
▁आफ	-10256
tees	-10257
▁Forest	-10258
▁leaving	-10259
▁privile	-10260
शे	-10261
▁शोध	-10262
▁code	-10263
ुस्तान	-10264
▁Ban	-10265
▁beat	-10266
▁Through	-10267
▁वैश्विक	-10268
▁involving	-10269
▁independence	-10270
ks	-10271
▁AM	-10272
ctor	-10273
▁मगर	-10274
▁Vijay	-10275
▁spite	-10276
▁नौकरी	-10277
▁conducting	-10278
▁वंश	-10279
ोरेशन	-10280
▁Verm	-10281
enture	-10282
▁branch	-10283
▁मोहम्मद	-10284
▁योजनाओं	-10285
▁controvers	-10286
AND	-10287
ावली	-10288
▁ओआरएस	-10289
फोन	-10290
▁सीधी	-10291
▁हवाला	-10292
नाक	-10293
aviour	-10294
▁Besides	-10295
appellant	-10296
▁rejection	-10297
▁compr	-10298
▁expiry	-10299
▁Administrative	-10300
▁RE	-10301
amet	-10302
▁रवी	-10303
iation	-10304
▁purchas	-10305
pet	-10306
पों	-10307
▁DR	-10308
▁सीमाओं	-10309
च्छा	-10310
▁विलंब	-10311
ास्थिति	-10312
▁बातें	-10313
▁circular	-10314
णिक	-10315
▁IA	-10316
▁मछ	-10317
▁Bus	-10318
▁defe	-10319
▁एजेंट	-10320
▁Western	-10321
▁नामांकन	-10322
ettlement	-10323
▁पेंडेंसी	-10324
कट	-10325
ादा	-10326
▁tour	-10327
▁legit	-10328
▁species	-10329
▁ठाकुर	-10330
▁compon	-10331
▁मारपीट	-10332
▁पशु	-10333
▁growing	-10334
▁session	-10335
ाधीन	-10336
▁छोड़ने	-10337
▁लिखे	-10338
▁वैसे	-10339
▁cadre	-10340
▁आनन्द	-10341
▁चलाया	-10342
▁People	-10343
▁houses	-10344
▁surround	-10345
opy	-10346
rack	-10347
▁reb	-10348
▁टेक	-10349
far	-10350
ching	-10351
▁भूखंड	-10352
▁Registration	-10353
aja	-10354
▁बुक	-10355
▁वजन	-10356
▁एकता	-10357
▁कृत्य	-10358
▁Madras	-10359
▁Mishra	-10360
▁features	-10361
▁mic	-10362
▁male	-10363
▁मांस	-10364
▁safety	-10365
▁accompan	-10366
▁inasmuch	-10367
▁स्वैच्छिक	-10368
hana	-10369
ommod	-10370
कुमार	-10371
▁साक्षात्	-10372
ैव	-10373
ाले	-10374
ोने	-10375
▁revolution	-10376
णन	-10377
▁mid	-10378
▁डिस्क	-10379
▁संसदीय	-10380
▁पुनरीक्षण	-10381
▁Rem	-10382
▁दशक	-10383
▁Well	-10384
▁वहीं	-10385
▁पोर्ट	-10386
▁मान्य	-10387
▁लीज	-10388
▁cere	-10389
IF	-10390
▁शह	-10391
ीकृत	-10392
▁fees	-10393
▁चलते	-10394
▁देखकर	-10395
▁राजेश	-10396
▁certified	-10397
दों	-10398
▁निभा	-10399
▁वक्त	-10400
▁bringing	-10401
▁पेपर	-10402
▁agent	-10403
▁मानना	-10404
ंदाज	-10405
▁Mot	-10406
▁sugar	-10407
▁जाहिर	-10408
▁बर्खास्त	-10409
light	-10410
▁बहुमत	-10411
▁everything	-10412
▁consciousness	-10413
▁beaut	-10414
▁साजिश	-10415
▁किनारे	-10416
▁arrangement	-10417
above	-10418
▁cart	-10419
▁जाकर	-10420
▁तीसरा	-10421
▁Governments	-10422
न्ड	-10423
िरा	-10424
▁Two	-10425
▁Teacher	-10426
कालिक	-10427
▁hear	-10428
▁चालक	-10429
▁सोने	-10430
▁Pandey	-10431
▁student	-10432
▁छत	-10433
▁यो	-10434
▁हरि	-10435
▁पत्थर	-10436
▁Africa	-10437
▁leaves	-10438
▁determining	-10439
▁सन	-10440
▁surre	-10441
▁claimants	-10442
▁अनदे	-10443
▁exists	-10444
▁listed	-10445
▁अनुशासन	-10446
▁Sir	-10447
▁वीर	-10448
▁processing	-10449
▁recognised	-10450
▁क्षतिपूर्ति	-10451
ole	-10452
▁कदा	-10453
▁सिरे	-10454
जीत	-10455
न्धी	-10456
ूहिक	-10457
▁rare	-10458
▁सृजन	-10459
▁frequ	-10460
▁Bah	-10461
▁उड़	-10462
▁हालत	-10463
▁chain	-10464
▁कृत्यों	-10465
▁remember	-10466
▁lac	-10467
▁द्वीप	-10468
▁cruelty	-10469
ogle	-10470
▁Ref	-10471
▁Guru	-10472
▁Fam	-10473
▁कूट	-10474
▁मार्क	-10475
▁retired	-10476
▁elements	-10477
▁राजमार्ग	-10478
uff	-10479
▁gain	-10480
▁अभिप्रे	-10481
▁अल्पसंख	-10482
▁military	-10483
istics	-10484
▁थोड़ा	-10485
▁judges	-10486
▁सामूहिक	-10487
हता	-10488
▁desire	-10489
▁owners	-10490
▁corporate	-10491
lag	-10492
▁नो	-10493
▁Bec	-10494
▁Port	-10495
▁बताई	-10496
▁compassionate	-10497
OD	-10498
ography	-10499
▁compre	-10500
▁स्कीम	-10501
arc	-10502
पहर	-10503
▁समुचित	-10504
▁सप	-10505
aker	-10506
▁जर्म	-10507
▁raising	-10508
▁resulted	-10509
▁gas	-10510
uddin	-10511
▁largest	-10512
prise	-10513
▁रखें	-10514
▁forum	-10515
▁levels	-10516
▁अन्याय	-10517
▁Bad	-10518
▁Tem	-10519
▁संसार	-10520
▁बॉम्बे	-10521
▁contractor	-10522
▁सेक	-10523
▁हल्	-10524
▁acknow	-10525
▁Narayan	-10526
▁invited	-10527
▁महामहिम	-10528
▁signatures	-10529
▁pick	-10530
▁mouth	-10531
▁चयनित	-10532
▁entries	-10533
ैक्ट	-10534
▁symbol	-10535
▁mechanism	-10536
cl	-10537
▁ban	-10538
▁मुह	-10539
essel	-10540
▁Asia	-10541
कानूनी	-10542
चस्प	-10543
▁seat	-10544
▁विहित	-10545
▁exception	-10546
▁unn	-10547
▁जितना	-10548
▁nuc	-10549
▁नाट	-10550
▁vers	-10551
▁दौरा	-10552
▁Patel	-10553
▁wealth	-10554
▁प्रेरण	-10555
▁profits	-10556
▁normally	-10557
▁residing	-10558
▁developing	-10559
पत	-10560
ola	-10561
र्गीय	-10562
वाहिक	-10563
▁refund	-10564
▁राजपत्र	-10565
anges	-10566
hance	-10567
▁खाना	-10568
erences	-10569
▁empowered	-10570
▁Er	-10571
writ	-10572
▁मकस	-10573
▁rain	-10574
▁दर्द	-10575
▁पार्क	-10576
▁मानता	-10577
▁Rajesh	-10578
▁मद्रास	-10579
▁विक्रेता	-10580
JC	-10581
▁viti	-10582
▁afford	-10583
▁गैरकानूनी	-10584
णों	-10585
ड्डी	-10586
र्जन	-10587
▁पटेल	-10588
▁कारकों	-10589
ॉँ	-10590
▁Abd	-10591
▁जला	-10592
▁निर्दोष	-10593
▁enforcement	-10594
DS	-10595
▁न्यायपालिका	-10596
्ह	-10597
▁रास्ता	-10598
▁मात	-10599
▁सोसाय	-10600
DC	-10601
ंकर	-10602
hens	-10603
▁chance	-10604
▁temper	-10605
▁विरूद्ध	-10606
▁initially	-10607
▁साम्राज्य	-10608
ादेश	-10609
▁waste	-10610
▁आवासीय	-10611
▁चीजों	-10612
▁contrib	-10613
▁कच्च	-10614
▁टेस्ट	-10615
▁डब्ल्यू	-10616
▁bul	-10617
▁Most	-10618
▁ऑनलाइन	-10619
▁Environment	-10620
रोज	-10621
▁Gl	-10622
▁अत	-10623
olve	-10624
्राउ	-10625
▁दबा	-10626
▁estim	-10627
▁सीबीआई	-10628
▁contend	-10629
▁मूल्यों	-10630
▁Prosecutor	-10631
▁एकड़	-10632
▁कराई	-10633
soever	-10634
▁मानवीय	-10635
▁allowing	-10636
▁जानने	-10637
bh	-10638
▁घटक	-10639
▁fault	-10640
▁inquest	-10641
▁पीड़िता	-10642
गोल	-10643
▁घा	-10644
▁kid	-10645
▁relax	-10646
▁elections	-10647
▁personnel	-10648
▁skin	-10649
ervation	-10650
▁divided	-10651
▁दिलचस्प	-10652
▁Bangalore	-10653
ाउन	-10654
▁पेशकश	-10655
▁भंग	-10656
▁amb	-10657
▁इंद	-10658
▁झूठे	-10659
▁agencies	-10660
▁exclusive	-10661
▁traditional	-10662
asc	-10663
cer	-10664
ura	-10665
urt	-10666
iform	-10667
▁अत्या	-10668
▁विधियों	-10669
▁beautiful	-10670
▁residence	-10671
arh	-10672
▁Ay	-10673
▁पैके	-10674
▁assert	-10675
▁incons	-10676
▁representatives	-10677
▁ben	-10678
▁fest	-10679
▁इकट्	-10680
▁ढांचे	-10681
▁दोपहर	-10682
▁entirely	-10683
▁participation	-10684
nu	-10685
▁ट्रे	-10686
▁table	-10687
▁prepar	-10688
▁मिश्रा	-10689
▁notices	-10690
▁operate	-10691
▁खुश	-10692
▁voluntary	-10693
▁representative	-10694
बालिग	-10695
actory	-10696
▁गवर्न	-10697
▁workmen	-10698
aman	-10699
▁इमारत	-10700
केश	-10701
▁EX	-10702
▁audit	-10703
sue	-10704
र्ध	-10705
▁IC	-10706
▁Anr	-10707
▁उन्म	-10708
▁खण्ड	-10709
▁ध्वनि	-10710
▁नाबालिग	-10711
▁ओवर	-10712
▁मकसद	-10713
खों	-10714
वारी	-10715
्यूल	-10716
▁BAN	-10717
तावनी	-10718
acharya	-10719
▁Plaintiff	-10720
वत	-10721
▁armed	-10722
▁अवैधता	-10723
▁प्रतिष्ठा	-10724
▁accompanied	-10725
▁शत्रुतापूर्ण	-10726
▁हा	-10727
gers	-10728
▁चुने	-10729
▁सेमी	-10730
▁effic	-10731
▁inflic	-10732
▁खरीदने	-10733
▁एक्ज़िबिट	-10734
▁बहस	-10735
▁lakhs	-10736
▁नमूने	-10737
▁misconduct	-10738
▁प्रयोगशाला	-10739
▁SE	-10740
▁अय	-10741
onom	-10742
स्स	-10743
▁इंस्ट	-10744
▁animal	-10745
▁प्रयत्न	-10746
▁चेतावनी	-10747
▁दलीलों	-10748
▁storage	-10749
▁कारोबार	-10750
▁सोसायटी	-10751
▁sustainable	-10752
▁gross	-10753
▁struggle	-10754
▁RO	-10755
▁Vis	-10756
▁दुर्बल	-10757
ेजी	-10758
▁annex	-10759
▁किस्म	-10760
▁Indians	-10761
▁actions	-10762
▁landlord	-10763
▁आपत्तियों	-10764
▁मुकदमेबाजी	-10765
▁Sad	-10766
▁पौध	-10767
ांकित	-10768
▁दलों	-10769
▁उत्तरी	-10770
▁पूर्ति	-10771
▁resulting	-10772
▁compromise	-10773
▁consistent	-10774
▁cells	-10775
▁Para	-10776
▁स्वर	-10777
▁विकृत	-10778
▁लु	-10779
entially	-10780
▁कव	-10781
▁पाँच	-10782
▁Distt	-10783
▁पुरानी	-10784
▁discharged	-10785
arp	-10786
▁tort	-10787
▁moral	-10788
▁strengthen	-10789
▁plain	-10790
▁spent	-10791
▁cancellation	-10792
ducing	-10793
▁Reference	-10794
▁अस्वीकृति	-10795
▁ताप	-10796
▁illegality	-10797
RL	-10798
▁mutual	-10799
▁currency	-10800
▁substantive	-10801
▁root	-10802
▁आकाश	-10803
▁राजनीति	-10804
▁विभागों	-10805
▁प्रवृत्ति	-10806
▁आधारों	-10807
▁साक्षात्कार	-10808
igil	-10809
▁China	-10810
▁प्रोफेसर	-10811
▁cancelled	-10812
▁स्थितियों	-10813
▁अचल	-10814
▁पंड	-10815
▁पांडे	-10816
▁constructed	-10817
▁repeal	-10818
▁enhance	-10819
▁Sections	-10820
oming	-10821
▁sons	-10822
▁afore	-10823
▁evening	-10824
▁worship	-10825
roc	-10826
ोचित	-10827
▁Rama	-10828
struct	-10829
▁modified	-10830
atta	-10831
▁Rural	-10832
▁Hindus	-10833
▁अफ्रीका	-10834
▁श्रेष्ठ	-10835
▁सत्यापित	-10836
▁integral	-10837
▁represented	-10838
▁wear	-10839
▁मॉडल	-10840
स्थापन	-10841
▁ingred	-10842
▁calling	-10843
▁appreciation	-10844
▁गुल	-10845
▁मेन	-10846
▁Islamic	-10847
▁उज	-10848
सायनिक	-10849
▁famil	-10850
▁मुद्र	-10851
▁Family	-10852
▁fields	-10853
▁DIST	-10854
▁Google	-10855
▁alongwith	-10856
▁प्राधिकृत	-10857
▁cooperation	-10858
बन्ध	-10859
▁चेन्नई	-10860
▁Because	-10861
▁authorised	-10862
दिन	-10863
▁१८	-10864
▁surface	-10865
▁accommod	-10866
▁appearance	-10867
TA	-10868
▁मोड	-10869
▁देखी	-10870
▁समापन	-10871
▁reliable	-10872
▁cm	-10873
▁आरम्भ	-10874
▁यंत्र	-10875
▁applying	-10876
▁incurred	-10877
▁प्रतिद्वंद्वी	-10878
▁purport	-10879
▁आवेदनों	-10880
▁नगरपालिका	-10881
rupt	-10882
▁SCR	-10883
▁sam	-10884
▁Palest	-10885
▁identify	-10886
ामक	-10887
erce	-10888
▁sort	-10889
▁committing	-10890
▁डायरी	-10891
▁कार्यरत	-10892
▁confident	-10893
ih	-10894
king	-10895
▁जंग	-10896
▁Madhya	-10897
▁confined	-10898
yal	-10899
लाब	-10900
ming	-10901
▁Like	-10902
▁vend	-10903
▁owned	-10904
▁seeks	-10905
▁तकनीक	-10906
▁इकाइयों	-10907
▁पक्षपात	-10908
▁enactment	-10909
ancing	-10910
▁hereinabove	-10911
ev	-10912
रू	-10913
▁जता	-10914
▁निः	-10915
▁Jam	-10916
ushed	-10917
निहित	-10918
▁subjects	-10919
क़्त	-10920
म्मत	-10921
▁Gram	-10922
▁irres	-10923
▁मासिक	-10924
▁Others	-10925
▁मानकों	-10926
▁Selection	-10927
साद	-10928
्वत	-10929
▁guard	-10930
ero	-10931
▁SP	-10932
▁करो	-10933
▁magn	-10934
▁Again	-10935
▁व्याया	-10936
SA	-10937
▁Imp	-10938
▁जगत	-10939
pping	-10940
▁manifest	-10941
ICT	-10942
डीए	-10943
▁Pvt	-10944
▁Commun	-10945
▁leader	-10946
▁sources	-10947
▁आश्वासन	-10948
▁मानदंडों	-10949
▁pra	-10950
▁खाने	-10951
▁निर्णायक	-10952
▁पाता	-10953
▁मार्	-10954
▁एआईआर	-10955
▁clauses	-10956
▁creating	-10957
▁कं	-10958
▁Vol	-10959
▁घातक	-10960
▁बढ़ती	-10961
▁फैसलों	-10962
▁disapp	-10963
▁disqual	-10964
▁सर्वाधिक	-10965
अल	-10966
encing	-10967
▁applies	-10968
▁requisite	-10969
▁कीट	-10970
▁रुख	-10971
▁knife	-10972
न्द्रनाथ	-10973
▁thinking	-10974
▁residential	-10975
▁pi	-10976
anand	-10977
▁seal	-10978
▁stone	-10979
▁vessel	-10980
▁उच्चतर	-10981
▁withdrawn	-10982
▁foundation	-10983
▁id	-10984
▁destroy	-10985
▁methods	-10986
▁speaking	-10987
RE	-10988
▁hour	-10989
▁साझा	-10990
▁हरिया	-10991
▁intell	-10992
▁unreason	-10993
▁inconsist	-10994
ादक	-10995
भारत	-10996
▁sand	-10997
▁प्रदूषण	-10998
rose	-10999
▁यथा	-11000
▁egg	-11001
nagar	-11002
▁sealed	-11003
▁चालू	-11004
▁negoti	-11005
▁adduced	-11006
sc	-11007
विंद	-11008
▁families	-11009
▁उपयोगकर्ता	-11010
ript	-11011
▁सहज	-11012
▁क्ला	-11013
▁दंडित	-11014
▁fourth	-11015
▁master	-11016
▁season	-11017
▁प्रतिव	-11018
▁demanded	-11019
▁equality	-11020
hara	-11021
▁variety	-11022
▁admissible	-11023
▁recognition	-11024
▁youth	-11025
▁कितना	-11026
alg	-11027
iva	-11028
▁Dem	-11029
▁fide	-11030
▁डालने	-11031
▁उपकरणों	-11032
IP	-11033
ंगति	-11034
▁चीनी	-11035
▁बंधक	-11036
▁रोका	-11037
▁practices	-11038
LE	-11039
▁नग	-11040
▁अनाव	-11041
▁दोस्त	-11042
▁विपणन	-11043
▁errone	-11044
र्कों	-11045
▁barred	-11046
▁mistake	-11047
▁यथास्थिति	-11048
hel	-11049
▁यौन	-11050
▁Crime	-11051
▁upheld	-11052
▁ignored	-11053
▁objects	-11054
▁ग्रंथ	-11055
▁critic	-11056
▁अभिप्रेत	-11057
▁Legislative	-11058
isp	-11059
sofar	-11060
urate	-11061
▁अपरि	-11062
▁नेशनल	-11063
▁स्वर्गीय	-11064
▁subordinate	-11065
▁Prem	-11066
▁मिलाकर	-11067
▁मधु	-11068
▁संवाद	-11069
▁अब्दुल	-11070
▁सॉफ्टवेयर	-11071
िमय	-11072
▁गीत	-11073
विचार	-11074
▁input	-11075
▁मशीनरी	-11076
▁depends	-11077
घर	-11078
▁आकर	-11079
▁अकाद	-11080
▁अगला	-11081
▁satisfy	-11082
▁चिप	-11083
▁compared	-11084
▁Transport	-11085
▁दस्तावेजी	-11086
कोर्ट	-11087
▁बुद्ध	-11088
▁Econom	-11089
▁अवसरों	-11090
▁बैंकिंग	-11091
ॉनिक	-11092
unior	-11093
▁earn	-11094
▁अज्ञात	-11095
▁studies	-11096
लिंग	-11097
▁Branch	-11098
▁प्रतिभा	-11099
▁withdraw	-11100
▁Gazet	-11101
▁figure	-11102
▁terrorism	-11103
ल्डर	-11104
▁जड़	-11105
eting	-11106
ioned	-11107
▁medium	-11108
▁पूर्ववर्ष	-11109
▁obligations	-11110
▁बढ़े	-11111
▁वितरित	-11112
▁feeling	-11113
जन्य	-11114
ships	-11115
▁पैनल	-11116
▁हमले	-11117
overty	-11118
▁framing	-11119
▁weapons	-11120
▁separately	-11121
▁संध	-11122
▁rival	-11123
▁payments	-11124
▁Ba	-11125
▁dim	-11126
▁ताकत	-11127
▁equity	-11128
▁निर्माता	-11129
ोई	-11130
▁Bel	-11131
rical	-11132
▁location	-11133
GC	-11134
ube	-11135
▁km	-11136
क्सी	-11137
▁Germ	-11138
▁असाम	-11139
▁तरीकों	-11140
▁Industries	-11141
▁eligibility	-11142
▁नार	-11143
▁जनजाति	-11144
osen	-11145
pons	-11146
▁Ven	-11147
▁nut	-11148
▁मौका	-11149
▁निपटारा	-11150
वंश	-11151
alpur	-11152
▁capt	-11153
▁वचन	-11154
▁Ragh	-11155
▁Water	-11156
▁स्तंभ	-11157
omet	-11158
▁गोप	-11159
मार्क	-11160
त्तियां	-11161
eav	-11162
ils	-11163
ेदी	-11164
▁मंज	-11165
▁रहित	-11166
▁unique	-11167
▁Ja	-11168
▁सटी	-11169
▁सदा	-11170
▁अजीब	-11171
icating	-11172
▁exemption	-11173
पीय	-11174
▁Tag	-11175
▁चतु	-11176
▁Date	-11177
▁fails	-11178
ps	-11179
सुर	-11180
▁सर्वोत्तम	-11181
▁CS	-11182
▁सागर	-11183
▁बच्चा	-11184
▁Thakur	-11185
▁निष्क्रिय	-11186
ज़ी	-11187
lined	-11188
▁Cust	-11189
▁cloth	-11190
▁watch	-11191
laws	-11192
▁paras	-11193
rees	-11194
▁lock	-11195
▁अंकित	-11196
▁retros	-11197
टो	-11198
▁focus	-11199
▁ब्राह	-11200
पय	-11201
▁ईमान	-11202
▁भेजी	-11203
iences	-11204
pected	-11205
▁Standing	-11206
▁supplement	-11207
़्य	-11208
▁roll	-11209
▁superior	-11210
▁रासायनिक	-11211
क्षीय	-11212
▁stick	-11213
▁गंभीरता	-11214
▁Rav	-11215
▁slow	-11216
▁सुविधाएं	-11217
aband	-11218
▁levy	-11219
▁seem	-11220
▁प्रिय	-11221
▁भंडारण	-11222
▁Security	-11223
▁Ve	-11224
▁Hig	-11225
▁अवगत	-11226
▁Human	-11227
▁अंतराल	-11228
▁प्रक्रियाओं	-11229
oph	-11230
vert	-11231
▁wood	-11232
▁endeav	-11233
▁निलंबन	-11234
MP	-11235
यक	-11236
▁बनाते	-11237
▁स्थगन	-11238
▁वाणिज्य	-11239
एगा	-11240
▁opt	-11241
▁पैकेज	-11242
हाबाद	-11243
▁अकबर	-11244
▁Welfare	-11245
▁परिकल्पना	-11246
mn	-11247
लित	-11248
▁चिंतन	-11249
▁allegedly	-11250
▁immovable	-11251
LI	-11252
dar	-11253
▁बजा	-11254
going	-11255
ropri	-11256
▁समावेश	-11257
▁Gandhiji	-11258
▁relatives	-11259
▁सावधानीपूर्वक	-11260
▁मैने	-11261
▁overall	-11262
▁इंटरनेट	-11263
▁Administration	-11264
▁Va	-11265
▁arose	-11266
▁deeds	-11267
▁divine	-11268
▁निर्वि	-11269
▁विरासत	-11270
▁उत्तराधिकारी	-11271
rench	-11272
शक्ति	-11273
ंजा	-11274
बीर	-11275
▁नै	-11276
▁Park	-11277
▁परमाण	-11278
▁सर्वर	-11279
▁thirty	-11280
▁कुमारी	-11281
▁प्रतिप	-11282
▁नियोजित	-11283
▁carefully	-11284
▁उल्लेखनीय	-11285
गमन	-11286
▁चम	-11287
▁bone	-11288
▁ends	-11289
▁पोषण	-11290
▁फेंक	-11291
▁अन्तर	-11292
▁interview	-11293
▁निधन	-11294
▁ऑपरेट	-11295
्राव	-11296
▁Div	-11297
▁सिफारिशों	-11298
▁भाषाओं	-11299
▁pursuance	-11300
▁whatsoever	-11301
्रल	-11302
▁NS	-11303
▁Nor	-11304
▁परिसम	-11305
▁Conference	-11306
itis	-11307
▁तैनात	-11308
▁मनमाना	-11309
▁furnish	-11310
▁classification	-11311
छा	-11312
काब	-11313
aped	-11314
▁Year	-11315
▁अन्दर	-11316
▁समझाया	-11317
▁इश	-11318
▁nearly	-11319
▁partner	-11320
▁temples	-11321
▁शेयरधार	-11322
▁समर्पित	-11323
▁झा	-11324
▁railway	-11325
▁समर्थित	-11326
ails	-11327
▁शेख	-11328
▁litig	-11329
▁operating	-11330
▁bott	-11331
▁आदान	-11332
▁cheques	-11333
▁किलोमीटर	-11334
▁Secondary	-11335
ocal	-11336
▁मेर	-11337
▁devi	-11338
▁lived	-11339
▁लड़के	-11340
▁Foreign	-11341
▁पंचनामा	-11342
▁qualified	-11343
FC	-11344
▁struct	-11345
ोश	-11346
ader	-11347
▁VII	-11348
▁दान	-11349
▁बालक	-11350
▁authorized	-11351
ME	-11352
ORE	-11353
▁VI	-11354
hent	-11355
▁नयी	-11356
▁शिख	-11357
▁हेड	-11358
▁iron	-11359
▁availability	-11360
ेत	-11361
ेटी	-11362
▁Excell	-11363
▁Settlement	-11364
ष्णु	-11365
▁कागज	-11366
▁ग्राहकों	-11367
▁सतह	-11368
▁stayed	-11369
▁नियमितीकरण	-11370
मेल	-11371
▁gar	-11372
▁propri	-11373
▁हाईकोर्ट	-11374
गामी	-11375
▁organiz	-11376
▁Allahabad	-11377
्मा	-11378
ब्लिक	-11379
▁Suit	-11380
▁क्यू	-11381
▁Mandal	-11382
▁संरक्षित	-11383
▁Protection	-11384
एसएल	-11385
redit	-11386
▁sales	-11387
▁होंगी	-11388
▁excell	-11389
▁दावेदारों	-11390
पीएस	-11391
▁उपे	-11392
▁पड़ी	-11393
▁फ़िल	-11394
▁happen	-11395
▁paying	-11396
▁मण	-11397
▁भावी	-11398
▁complaints	-11399
alli	-11400
▁जमी	-11401
etary	-11402
▁grad	-11403
▁ideal	-11404
▁affili	-11405
▁bow	-11406
▁wishes	-11407
▁Univers	-11408
▁vehicles	-11409
▁extracted	-11410
▁inference	-11411
▁controversy	-11412
काता	-11413
▁SRI	-11414
▁आना	-11415
▁संगम	-11416
▁calls	-11417
▁strictly	-11418
▁ऑफ़	-11419
▁Abdul	-11420
▁Trade	-11421
▁Verma	-11422
▁सिवाय	-11423
umer	-11424
▁bab	-11425
▁prices	-11426
▁महीनों	-11427
▁सचे	-11428
▁किताब	-11429
▁गर्दन	-11430
▁opposed	-11431
▁अभियोगी	-11432
▁flat	-11433
▁target	-11434
▁विनिर्माण	-11435
▁agreements	-11436
▁AO	-11437
▁Us	-11438
▁डो	-11439
▁उपाध	-11440
▁ownership	-11441
▁impossible	-11442
▁Pet	-11443
▁ऊपरी	-11444
▁reality	-11445
▁परिणामी	-11446
िरी	-11447
म्मा	-11448
▁nine	-11449
▁बहाल	-11450
▁शुक्र	-11451
▁तद	-11452
ोषित	-11453
lands	-11454
▁stories	-11455
▁नवान्वेषण	-11456
amma	-11457
▁कति	-11458
▁aged	-11459
▁mortgage	-11460
▁philosophy	-11461
दाबाद	-11462
▁Inst	-11463
▁acid	-11464
▁Enter	-11465
▁Constable	-11466
doc	-11467
▁खि	-11468
▁shock	-11469
▁appreciate	-11470
घाटन	-11471
▁सरदार	-11472
वासियों	-11473
▁समूहों	-11474
▁सर्विस	-11475
▁AN	-11476
▁आजीवन	-11477
▁honour	-11478
▁vacant	-11479
▁Resolution	-11480
hend	-11481
र्की	-11482
▁कमेटी	-11483
▁deliver	-11484
▁genuine	-11485
▁उपलब्धता	-11486
▁consumption	-11487
▁dish	-11488
▁upper	-11489
▁कोशिका	-11490
▁stopped	-11491
▁नकदी	-11492
▁वर्षा	-11493
▁अपनाने	-11494
▁regarded	-11495
ावट	-11496
्त्र	-11497
▁Maj	-11498
▁बैठे	-11499
▁drive	-11500
वों	-11501
load	-11502
▁Sol	-11503
▁Full	-11504
▁नीतियों	-11505
▁universal	-11506
▁Jay	-11507
▁भूत	-11508
▁गहरी	-11509
▁लंबाई	-11510
▁त्वरित	-11511
▁विनियमित	-11512
▁भ्रष्टाचार	-11513
▁implemented	-11514
▁Food	-11515
▁खनिज	-11516
▁antic	-11517
▁Petitioners	-11518
▁ang	-11519
▁पहुँ	-11520
▁तैयारी	-11521
▁continuous	-11522
मेन	-11523
▁Babu	-11524
▁वसूल	-11525
▁trees	-11526
▁इलाहाबाद	-11527
ae	-11528
▁रवि	-11529
▁enqu	-11530
▁जागर	-11531
▁yield	-11532
▁allowance	-11533
▁Sunil	-11534
▁असंभव	-11535
▁असमान	-11536
▁anyone	-11537
▁emotion	-11538
▁कार्यवाहियों	-11539
ज्ञेय	-11540
▁holds	-11541
▁प्रभाग	-11542
OUT	-11543
यान	-11544
laced	-11545
▁आखिर	-11546
▁लड़ाई	-11547
▁Kumari	-11548
▁chosen	-11549
▁reveals	-11550
ibilities	-11551
▁attracted	-11552
द्री	-11553
▁opined	-11554
▁ordinarily	-11555
look	-11556
▁psych	-11557
▁त्वचा	-11558
▁चाय	-11559
itect	-11560
ग्रस्त	-11561
▁कितनी	-11562
▁abroad	-11563
▁Gan	-11564
▁compound	-11565
▁pip	-11566
▁pleasure	-11567
▁माध्यमिक	-11568
eries	-11569
▁एस्ट	-11570
▁मुला	-11571
▁वांछ	-11572
▁Claim	-11573
▁sacrif	-11574
▁friendly	-11575
▁पुनर्वास	-11576
▁छि	-11577
mosp	-11578
▁disability	-11579
▁Nep	-11580
▁पेट्रोल	-11581
amy	-11582
वरों	-11583
ighted	-11584
▁आलोचना	-11585
▁निश्चय	-11586
▁compuls	-11587
▁टेलीफोन	-11588
▁Regional	-11589
▁probably	-11590
▁necessity	-11591
▁व्यवस्थित	-11592
▁इंजीनियरिंग	-11593
▁Tod	-11594
▁दुख	-11595
ॉर्नी	-11596
▁लिंक	-11597
ricket	-11598
▁इंकार	-11599
भाषा	-11600
िल्प	-11601
ख्यात	-11602
▁पैसा	-11603
▁लिंग	-11604
▁height	-11605
▁मामूली	-11606
▁सिंध	-11607
aryana	-11608
▁विनिमय	-11609
▁planning	-11610
▁हस्तांतरित	-11611
ोजी	-11612
▁explo	-11613
▁Higher	-11614
▁स्थिरता	-11615
▁सम्बन्धी	-11616
cial	-11617
ports	-11618
▁Pension	-11619
egu	-11620
▁Lax	-11621
▁झार	-11622
▁धात	-11623
दियों	-11624
▁Nand	-11625
▁vast	-11626
▁चिंतित	-11627
▁हरियाणा	-11628
▁जीत	-11629
▁जुड़	-11630
▁स्वभाव	-11631
▁एयर	-11632
▁कदाचार	-11633
▁स्वस्थ	-11634
▁mandate	-11635
िष्	-11636
▁अख	-11637
▁सोचा	-11638
▁Langu	-11639
▁emerg	-11640
▁कतिपय	-11641
▁अनिश्चित	-11642
▁CD	-11643
anta	-11644
like	-11645
खाने	-11646
ान्य	-11647
▁brain	-11648
▁यूनियन	-11649
▁revealed	-11650
क्व	-11651
िपल	-11652
hari	-11653
▁PDD	-11654
▁arre	-11655
▁unity	-11656
▁advised	-11657
▁falling	-11658
▁अटॉर्नी	-11659
▁क्रमांक	-11660
oral	-11661
▁Bhar	-11662
▁सुनील	-11663
▁प्रस्तुतियाँ	-11664
▁Why	-11665
▁park	-11666
anging	-11667
▁veget	-11668
▁narrated	-11669
▁दायित्वों	-11670
habil	-11671
▁Town	-11672
▁grave	-11673
▁बोस	-11674
prene	-11675
arden	-11676
ecess	-11677
▁imple	-11678
▁multiple	-11679
▁Programme	-11680
▁जहाज	-11681
▁चाहती	-11682
▁अधिनियमित	-11683
word	-11684
ल्ली	-11685
▁dues	-11686
▁DNA	-11687
abinet	-11688
▁Haryana	-11689
▁मृत्युदंड	-11690
▁नोड	-11691
▁सतर्कता	-11692
▁Art	-11693
▁रानी	-11694
▁हैंः	-11695
▁अधिरो	-11696
▁साझेदारी	-11697
▁डीडब्ल्यू	-11698
▁qualifications	-11699
▁आराम	-11700
▁track	-11701
▁स्टॉक	-11702
▁anticip	-11703
▁happens	-11704
▁European	-11705
▁निर्विवाद	-11706
iled	-11707
otic	-11708
▁Tahs	-11709
▁poems	-11710
▁caught	-11711
▁प्रोवि	-11712
▁interven	-11713
▁प्रतिवाद	-11714
▁equipment	-11715
▁विशेषाधिकार	-11716
▁considerable	-11717
स्फ	-11718
▁Ham	-11719
▁cum	-11720
▁CrPC	-11721
▁विंडो	-11722
▁elabor	-11723
▁selling	-11724
▁प्रेरणा	-11725
ंचाई	-11726
chief	-11727
prises	-11728
▁indul	-11729
reprene	-11730
▁moving	-11731
▁quarrel	-11732
▁colleges	-11733
▁efficient	-11734
▁dil	-11735
▁बांध	-11736
▁urban	-11737
▁नेताओं	-11738
▁consists	-11739
▁परिणामों	-11740
▁proportion	-11741
्याव	-11742
▁छवि	-11743
arian	-11744
▁गेंद	-11745
velled	-11746
hensive	-11747
ishment	-11748
▁Lib	-11749
▁buy	-11750
▁cas	-11751
▁डीड	-11752
▁Turk	-11753
▁अग्रणी	-11754
▁प्रतिल	-11755
्यूम	-11756
▁गहन	-11757
▁liquor	-11758
▁मालिकों	-11759
▁installed	-11760
oom	-11761
▁सफेद	-11762
▁poverty	-11763
▁brothers	-11764
▁postmortem	-11765
hs	-11766
▁चली	-11767
▁मुंह	-11768
orrect	-11769
▁उत्साह	-11770
▁thereon	-11771
▁धर	-11772
▁Gur	-11773
isting	-11774
▁atmosp	-11775
▁पड़ेगा	-11776
▁व्यायाम	-11777
▁स्क्रीन	-11778
▁अधिग्रहित	-11779
▁टू	-11780
▁पार्	-11781
▁फैला	-11782
▁इनका	-11783
▁अपनाई	-11784
▁latest	-11785
▁वस्तुत	-11786
▁courses	-11787
▁rational	-11788
र्पण	-11789
िज्ञ	-11790
▁शंकरा	-11791
▁विक्रय	-11792
▁involvement	-11793
▁participate	-11794
acco	-11795
▁upd	-11796
▁अभिक	-11797
▁रहें	-11798
▁Mahat	-11799
▁अपह	-11800
udget	-11801
▁prosper	-11802
▁घटनास्थल	-11803
uel	-11804
▁wat	-11805
ildar	-11806
▁script	-11807
▁legally	-11808
▁corporation	-11809
ेरे	-11810
▁Det	-11811
▁Lit	-11812
▁Hari	-11813
▁कैडर	-11814
▁बारह	-11815
▁driving	-11816
▁चाव	-11817
▁परमाणु	-11818
▁demands	-11819
▁कोलकाता	-11820
▁Late	-11821
▁fill	-11822
▁इलेक्ट्रॉनिक	-11823
ua	-11824
inqu	-11825
िवेश	-11826
▁qua	-11827
▁सिटी	-11828
▁narrow	-11829
▁equival	-11830
▁outstanding	-11831
▁रुक	-11832
▁Prom	-11833
▁बारी	-11834
▁hardly	-11835
▁गांवों	-11836
▁relying	-11837
da	-11838
ilal	-11839
ेंशन	-11840
author	-11841
charge	-11842
▁falsely	-11843
▁picture	-11844
▁victims	-11845
MA	-11846
▁हेम	-11847
कीर्ण	-11848
शिष्ट	-11849
▁जरिए	-11850
हान	-11851
▁NC	-11852
▁wel	-11853
▁जुड़ी	-11854
▁column	-11855
▁वैवाहिक	-11856
▁territory	-11857
िटल	-11858
ुका	-11859
▁हार्	-11860
▁Those	-11861
▁recon	-11862
▁अर्जी	-11863
▁उपहार	-11864
▁बाह्य	-11865
▁valuable	-11866
▁Dal	-11867
धारित	-11868
▁अंतः	-11869
▁consumer	-11870
▁nomination	-11871
▁Fri	-11872
▁Hem	-11873
▁fert	-11874
▁वृक्ष	-11875
▁श्रेणियों	-11876
▁consultation	-11877
hers	-11878
▁Each	-11879
▁cities	-11880
▁reduce	-11881
▁partners	-11882
▁entrusted	-11883
▁pronounce	-11884
gery	-11885
▁नकद	-11886
▁launched	-11887
▁clarified	-11888
pal	-11889
▁पूरक	-11890
▁अल्पसंख्यक	-11891
मैन	-11892
▁फैल	-11893
▁अधिकतर	-11894
▁preparation	-11895
अर	-11896
▁SA	-11897
▁Exp	-11898
ayana	-11899
▁सर्ट	-11900
▁पूर्वव्यापी	-11901
ls	-11902
arpur	-11903
oratory	-11904
▁severe	-11905
▁uniform	-11906
▁valuation	-11907
ड़ब	-11908
▁online	-11909
▁ग्रस्त	-11910
▁पुस्तकों	-11911
my	-11912
िर्	-11913
▁Akbar	-11914
▁Tagore	-11915
अंदाज	-11916
▁समेक	-11917
▁suits	-11918
▁liberal	-11919
ica	-11920
▁Ter	-11921
ishad	-11922
▁क्लब	-11923
▁origin	-11924
▁reflected	-11925
▁CON	-11926
▁ट्यू	-11927
ricted	-11928
▁मध्यम	-11929
▁tenure	-11930
▁infring	-11931
▁unknown	-11932
ima	-11933
▁dry	-11934
▁मास्टर	-11935
▁ability	-11936
▁nations	-11937
▁continues	-11938
hat	-11939
uit	-11940
▁आस्ति	-11941
▁बंदूक	-11942
▁अंतर्निहित	-11943
▁चलो	-11944
▁heirs	-11945
arkhand	-11946
▁choose	-11947
▁vacancy	-11948
▁संक्रमण	-11949
▁संतोषजनक	-11950
▁amendments	-11951
▁reproduced	-11952
▁Kab	-11953
▁पाइ	-11954
▁रिज	-11955
▁dign	-11956
▁चैनल	-11957
▁wants	-11958
▁कोयला	-11959
▁तत्वों	-11960
ोक्ति	-11961
▁दुश्म	-11962
▁गज	-11963
▁पॉ	-11964
▁चुप	-11965
▁cook	-11966
▁remote	-11967
▁रिकॉर्डिंग	-11968
▁Av	-11969
▁टक	-11970
▁Din	-11971
चालित	-11972
▁अमान्य	-11973
▁इंडियन	-11974
▁democratic	-11975
▁Supra	-11976
▁कार्ब	-11977
▁safegu	-11978
▁Recovery	-11979
▁याचिकाएं	-11980
एमसी	-11981
▁cog	-11982
▁Aust	-11983
▁दुखी	-11984
▁union	-11985
▁एजेंस	-11986
▁रेड्डी	-11987
▁तहसीलदार	-11988
यल	-11989
ायें	-11990
▁नान	-11991
▁dict	-11992
▁ship	-11993
antial	-11994
▁contractual	-11995
▁adjust	-11996
▁commod	-11997
▁perfect	-11998
▁BY	-11999
▁दमन	-12000
▁मारने	-12001
▁promoted	-12002
▁judgement	-12003
auty	-12004
▁rapid	-12005
▁asking	-12006
▁सिंचाई	-12007
▁behaviour	-12008
शिप	-12009
▁NE	-12010
▁mah	-12011
▁भ्रम	-12012
▁grass	-12013
▁Survey	-12014
▁critical	-12015
▁negligence	-12016
bted	-12017
▁Mang	-12018
▁ससुर	-12019
▁accru	-12020
▁अग्रवाल	-12021
▁महात्मा	-12022
udi	-12023
▁पश	-12024
▁Addl	-12025
ulatory	-12026
विज्ञान	-12027
pat	-12028
रेख	-12029
ाजित	-12030
▁प्रता	-12031
▁constitu	-12032
▁Jy	-12033
▁खट	-12034
▁खनन	-12035
▁सौर	-12036
▁cold	-12037
▁Reddy	-12038
▁powerful	-12039
▁Mic	-12040
▁कितने	-12041
▁महानि	-12042
▁समृद्ध	-12043
यें	-12044
▁लोड	-12045
▁Sush	-12046
▁फंसाया	-12047
▁रियायत	-12048
▁सदस्यता	-12049
pura	-12050
▁lif	-12051
▁पोत	-12052
▁सिक्	-12053
▁सभ्यता	-12054
▁banking	-12055
▁कॉलेजों	-12056
▁attitude	-12057
१९	-12058
▁impose	-12059
बाई	-12060
राशि	-12061
▁सोम	-12062
▁acceptable	-12063
wah	-12064
▁pret	-12065
▁टिकट	-12066
▁वक्फ	-12067
▁Press	-12068
▁ambit	-12069
▁invoked	-12070
▁changing	-12071
▁suspicion	-12072
▁विकलांगता	-12073
fe	-12074
mark	-12075
िलों	-12076
▁crops	-12077
▁denial	-12078
▁मिलियन	-12079
▁विस्तारित	-12080
▁Anand	-12081
▁dates	-12082
▁चन्द्र	-12083
▁deliber	-12084
▁obvious	-12085
▁villagers	-12086
▁उन्	-12087
▁खुली	-12088
▁terminated	-12089
▁Engineering	-12090
HAR	-12091
iah	-12092
just	-12093
▁कैप	-12094
▁सेन	-12095
त्त्व	-12096
▁finger	-12097
▁showed	-12098
▁quashing	-12099
ंठ	-12100
▁शौ	-12101
▁Mat	-12102
▁hor	-12103
▁बेद	-12104
ented	-12105
▁आहार	-12106
▁भरे	-12107
▁लखन	-12108
ॉर्टम	-12109
▁अखिल	-12110
inance	-12111
▁अनधिक	-12112
▁आशंका	-12113
▁पर्यटन	-12114
lusively	-12115
▁ब्राह्म	-12116
▁अन्तर्गत	-12117
लिया	-12118
aling	-12119
▁Kolk	-12120
▁सर्क	-12121
▁स्वे	-12122
▁अद्य	-12123
▁Rights	-12124
▁purchaser	-12125
ARD	-12126
▁eat	-12127
▁pil	-12128
▁seeing	-12129
▁Champaran	-12130
yam	-12131
upon	-12132
ल्हा	-12133
▁Jap	-12134
▁Sure	-12135
aduate	-12136
▁respond	-12137
▁प्रतिनिधियों	-12138
▁corresponding	-12139
▁bills	-12140
▁प्यार	-12141
▁पोस्टम	-12142
▁Managing	-12143
ुरु	-12144
▁बचत	-12145
▁Oper	-12146
▁Ganga	-12147
▁संभाल	-12148
▁regional	-12149
▁incorrect	-12150
▁bra	-12151
▁विनय	-12152
▁सदैव	-12153
luding	-12154
़्त	-12155
एसआई	-12156
erous	-12157
ourage	-12158
▁प्रतियोगिता	-12159
डिट	-12160
cast	-12161
▁tonn	-12162
▁estate	-12163
▁extremely	-12164
rat	-12165
unch	-12166
▁uses	-12167
▁पदार्थों	-12168
▁essentially	-12169
▁एओ	-12170
ganj	-12171
▁lady	-12172
▁Being	-12173
▁व्यक्तित्व	-12174
▁सल	-12175
ondon	-12176
▁blow	-12177
▁gains	-12178
▁लकड़ी	-12179
▁passage	-12180
▁Russ	-12181
▁norms	-12182
▁स्वतः	-12183
▁नजरअंदाज	-12184
▁harassment	-12185
iqu	-12186
दुर	-12187
oken	-12188
▁खेत	-12189
▁बेटा	-12190
▁greet	-12191
▁Enquiry	-12192
▁ingredients	-12193
MS	-12194
oda	-12195
▁Pad	-12196
तरनाक	-12197
▁क्रिकेट	-12198
▁difficulty	-12199
ERS	-12200
▁BC	-12201
▁तिल	-12202
▁divor	-12203
▁encro	-12204
▁सर्टिफ	-12205
▁मार्गदर्शन	-12206
▁पौधों	-12207
▁सम्पूर्ण	-12208
▁ascertain	-12209
▁प्रतीक्षा	-12210
सूर	-12211
▁train	-12212
▁संवर्धन	-12213
AI	-12214
ैर	-12215
पण	-12216
unct	-12217
िश्न	-12218
▁Mur	-12219
▁kil	-12220
▁Today	-12221
▁graph	-12222
urities	-12223
▁परिचित	-12224
▁वार्ता	-12225
▁सच्चाई	-12226
akar	-12227
▁map	-12228
▁बजट	-12229
▁army	-12230
▁intent	-12231
▁execute	-12232
▁excluded	-12233
▁thereunder	-12234
▁मेट	-12235
▁Doctor	-12236
▁घु	-12237
▁rect	-12238
▁इक्व	-12239
▁panel	-12240
▁formation	-12241
hin	-12242
▁trou	-12243
▁Jharkhand	-12244
▁शंकराचार्य	-12245
▁intellectual	-12246
ieving	-12247
▁Chrom	-12248
र्याप्त	-12249
▁प्रतिभूति	-12250
▁सीम	-12251
▁साथी	-12252
▁हिमा	-12253
▁राजधानी	-12254
▁प्रतिस्थापित	-12255
anya	-12256
द्धा	-12257
▁सद्	-12258
icing	-12259
लक	-12260
eev	-12261
ूर्त	-12262
▁CWJC	-12263
oration	-12264
▁assessed	-12265
सीटी	-12266
▁Nan	-12267
▁partly	-12268
▁monthly	-12269
▁verification	-12270
▁PWs	-12271
▁उपखंड	-12272
▁आर्बिट	-12273
▁झारखंड	-12274
▁memorandum	-12275
▁bidd	-12276
▁straight	-12277
▁न्यायसंगत	-12278
▁हिंदुस्तान	-12279
▁एव	-12280
▁छे	-12281
▁Var	-12282
state	-12283
▁Conf	-12284
▁लेती	-12285
▁परमिट	-12286
▁missing	-12287
▁CP	-12288
▁ec	-12289
icip	-12290
▁Vin	-12291
▁शुरु	-12292
▁measuring	-12293
▁notwithstanding	-12294
icity	-12295
ologies	-12296
▁comment	-12297
▁putting	-12298
▁telephone	-12299
▁territorial	-12300
▁पोस्टमॉर्टम	-12301
aign	-12302
▁लगने	-12303
▁cerem	-12304
essment	-12305
▁इकट्ठा	-12306
▁सुनाया	-12307
▁percentage	-12308
▁वास्तविकता	-12309
▁Iran	-12310
▁founded	-12311
mentioned	-12312
्याम	-12313
▁दत्त	-12314
▁फिली	-12315
▁Legal	-12316
▁मुकाब	-12317
▁careful	-12318
▁literary	-12319
▁contracts	-12320
▁discussions	-12321
शो	-12322
ham	-12323
het	-12324
▁पच	-12325
▁निस्स	-12326
ificates	-12327
ोब	-12328
▁fab	-12329
▁चौथ	-12330
▁दुः	-12331
▁वहन	-12332
▁सुदृ	-12333
▁Brahm	-12334
▁habit	-12335
▁विद्र	-12336
▁attrib	-12337
▁considerations	-12338
▁ID	-12339
▁Stud	-12340
▁दरों	-12341
▁पीछा	-12342
▁adopt	-12343
▁channel	-12344
▁convers	-12345
▁Az	-12346
▁goal	-12347
▁lapse	-12348
▁Exchange	-12349
▁newspaper	-12350
▁निर्वाचित	-12351
bon	-12352
भेद	-12353
ौदा	-12354
▁उतना	-12355
▁अंजाम	-12356
▁Master	-12357
ancellor	-12358
▁reliefs	-12359
▁complied	-12360
▁Rat	-12361
itions	-12362
▁उत्तेज	-12363
rigation	-12364
▁besides	-12365
▁legitimate	-12366
▁Sin	-12367
▁आइट	-12368
▁rock	-12369
▁songs	-12370
▁uncle	-12371
▁emphasis	-12372
▁sequ	-12373
▁कोटा	-12374
▁पंडित	-12375
▁Notice	-12376
▁authent	-12377
▁Planning	-12378
▁indirect	-12379
▁recently	-12380
▁निहितार्थ	-12381
▁challenges	-12382
igent	-12383
▁मरम्मत	-12384
▁Business	-12385
▁significance	-12386
alog	-12387
▁moon	-12388
▁असली	-12389
▁मिटा	-12390
▁सुपर	-12391
्राफ्ट	-12392
▁illust	-12393
▁अनावश्यक	-12394
▁अपर्याप्त	-12395
▁Ti	-12396
डिंग	-12397
▁flu	-12398
▁rigor	-12399
▁मालूम	-12400
▁situations	-12401
ब्बे	-12402
▁घूम	-12403
▁minority	-12404
▁Who	-12405
▁चोरी	-12406
▁जनहित	-12407
▁मिलते	-12408
▁मिलेगा	-12409
▁Admitted	-12410
▁designed	-12411
ॉम	-12412
▁सकल	-12413
▁निरसन	-12414
▁decades	-12415
▁sectors	-12416
▁enhanced	-12417
▁Professor	-12418
इश	-12419
लभ	-12420
ल्स	-12421
▁DE	-12422
▁SL	-12423
▁gift	-12424
▁खड़ी	-12425
▁समुद्री	-12426
▁इंग्लैंड	-12427
मूल	-12428
anti	-12429
▁ran	-12430
▁कोट	-12431
▁टाइम	-12432
▁Consid	-12433
▁journey	-12434
▁traffic	-12435
▁विसंगति	-12436
▁शिकायतों	-12437
▁neighbour	-12438
▁interesting	-12439
▁कोष	-12440
ement	-12441
▁game	-12442
▁murd	-12443
▁जवाह	-12444
▁persu	-12445
▁पंक्ति	-12446
▁लक्ष्मी	-12447
▁diseases	-12448
▁buildings	-12449
ोल्डर	-12450
▁girls	-12451
▁London	-12452
▁Kolkata	-12453
▁Schools	-12454
▁Rajendra	-12455
essed	-12456
▁रसाय	-12457
▁alive	-12458
▁drawing	-12459
UB	-12460
्सों	-12461
▁Math	-12462
▁Ranj	-12463
▁नौकर	-12464
▁Sanjay	-12465
▁format	-12466
ba	-12467
बु	-12468
ector	-12469
ांतिक	-12470
▁bare	-12471
▁Gopal	-12472
▁fruit	-12473
▁प्लान	-12474
▁बताती	-12475
▁governance	-12476
▁हिमाचल	-12477
▁pleased	-12478
uj	-12479
ध्य	-12480
▁dial	-12481
▁hero	-12482
▁Women	-12483
▁चालान	-12484
iveness	-12485
▁thr	-12486
▁ब्यू	-12487
▁मारा	-12488
▁summons	-12489
▁accepting	-12490
anas	-12491
▁adult	-12492
▁volume	-12493
▁feature	-12494
▁innocent	-12495
▁Roh	-12496
▁बैग	-12497
ruits	-12498
▁खतरनाक	-12499
lick	-12500
▁ITAT	-12501
▁Unit	-12502
▁infl	-12503
▁Indep	-12504
▁विष्णु	-12505
▁Bengali	-12506
▁उद्घाटन	-12507
नगर	-12508
▁FSL	-12509
▁urg	-12510
▁टूट	-12511
▁डिफ	-12512
▁सना	-12513
iplom	-12514
▁enem	-12515
▁पांड	-12516
▁approx	-12517
▁मैसर्स	-12518
▁नियंत्रक	-12519
ांश	-12520
धियों	-12521
▁Dhan	-12522
▁Rajya	-12523
▁drugs	-12524
▁बॉक्स	-12525
▁प्रशास	-12526
▁संभवतः	-12527
▁raw	-12528
▁सहन	-12529
AJ	-12530
वती	-12531
▁Men	-12532
▁pregn	-12533
▁पुष्प	-12534
▁figures	-12535
▁Interest	-12536
UT	-12537
▁Fed	-12538
▁Raja	-12539
▁color	-12540
▁prime	-12541
▁Lo	-12542
itch	-12543
वायु	-12544
▁eth	-12545
ester	-12546
▁comply	-12547
Nos	-12548
ब्र	-12549
▁rob	-12550
▁लिप	-12551
▁पीडी	-12552
▁throw	-12553
▁कहान	-12554
▁About	-12555
▁Final	-12556
▁dishon	-12557
▁domain	-12558
▁रहेंगे	-12559
▁Affairs	-12560
▁belongs	-12561
▁AR	-12562
ानंद	-12563
ifies	-12564
▁मूलभूत	-12565
▁विवेका	-12566
तांत्रिक	-12567
यंस	-12568
isen	-12569
▁simpl	-12570
▁निवेदन	-12571
▁श्रमिकों	-12572
▁primarily	-12573
itan	-12574
▁lik	-12575
▁सटीक	-12576
▁परिषद्	-12577
▁consequential	-12578
mer	-12579
कोश	-12580
▁चू	-12581
▁जाग	-12582
algam	-12583
▁Build	-12584
▁कमिश्न	-12585
▁शुद्धता	-12586
▁Beg	-12587
▁Set	-12588
itated	-12589
▁ABOUT	-12590
▁भंडार	-12591
▁beauty	-12592
▁MR	-12593
▁धु	-12594
owed	-12595
▁इंत	-12596
▁मिथ	-12597
▁चार्ट	-12598
holding	-12599
▁ठहराने	-12600
inite	-12601
▁kinds	-12602
▁escape	-12603
▁संवेदन	-12604
▁insects	-12605
र्थी	-12606
▁cave	-12607
▁देवता	-12608
▁पब्लिक	-12609
▁proceeds	-12610
▁Bin	-12611
▁कड़ी	-12612
▁हार्दिक	-12613
▁inserted	-12614
चलन	-12615
asan	-12616
esty	-12617
▁बेश	-12618
चंद्र	-12619
▁Show	-12620
▁null	-12621
ordinary	-12622
▁mission	-12623
▁assembly	-12624
▁envisaged	-12625
▁प्रस्तावों	-12626
ghan	-12627
▁पाद	-12628
▁runs	-12629
▁डीलर	-12630
▁deduct	-12631
▁जागरूक	-12632
▁स्वर्ण	-12633
▁Mahatma	-12634
▁स्वचालित	-12635
▁pertinent	-12636
oe	-12637
atap	-12638
▁See	-12639
▁आइटम	-12640
▁एक्सप	-12641
▁प्रतिदिन	-12642
▁commenced	-12643
क्ष्य	-12644
▁धनराशि	-12645
▁restricted	-12646
adur	-12647
▁ताजा	-12648
▁pages	-12649
▁बौद्धिक	-12650
गन	-12651
▁शोर	-12652
▁Lect	-12653
▁shared	-12654
▁factory	-12655
▁monitor	-12656
▁entering	-12657
▁Dhar	-12658
▁प्रिंट	-12659
▁centres	-12660
iri	-12661
▁कमा	-12662
▁सूर	-12663
▁बनाकर	-12664
▁Mission	-12665
▁Admittedly	-12666
▁घटा	-12667
▁फ़िल्म	-12668
▁चिकित्सक	-12669
▁फलस्वरूप	-12670
▁objectives	-12671
▁Jew	-12672
▁sight	-12673
▁अंकों	-12674
igilance	-12675
▁Reserve	-12676
▁अमर	-12677
▁ment	-12678
anches	-12679
▁photographs	-12680
▁automatically	-12681
mar	-12682
▁Sen	-12683
िष्कार	-12684
्लिकेशन	-12685
▁procedural	-12686
▁पुनर्विचार	-12687
▁improvement	-12688
न्थ	-12689
▁hyp	-12690
▁हड्डी	-12691
▁Vishnu	-12692
▁नीतिगत	-12693
▁knowing	-12694
▁expressly	-12695
▁continuing	-12696
HI	-12697
▁ष	-12698
▁ND	-12699
ster	-12700
▁नाक	-12701
uries	-12702
िमांड	-12703
▁store	-12704
▁Gazette	-12705
▁adoption	-12706
lar	-12707
odh	-12708
▁Sl	-12709
rity	-12710
▁minds	-12711
▁entity	-12712
▁pill	-12713
▁प्रम	-12714
▁Grade	-12715
▁bench	-12716
▁quota	-12717
▁तदर्थ	-12718
▁erroneous	-12719
▁substanti	-12720
▁Excellency	-12721
CO	-12722
▁फॉर	-12723
▁Hist	-12724
▁बाएं	-12725
▁conform	-12726
▁समायोजित	-12727
▁equivalent	-12728
habilitation	-12729
▁विश्वसनीयता	-12730
▁unreasonable	-12731
▁Mere	-12732
▁culp	-12733
▁Buddh	-12734
▁न्यास	-12735
▁बताना	-12736
▁offices	-12737
▁जातियों	-12738
▁शान	-12739
▁विनाश	-12740
athered	-12741
▁unfair	-12742
▁nuclear	-12743
▁Palestin	-12744
▁customers	-12745
▁प्रतिलिपि	-12746
fer	-12747
▁MAN	-12748
▁org	-12749
▁Over	-12750
▁उतार	-12751
▁शांत	-12752
▁diary	-12753
▁inner	-12754
▁sharp	-12755
▁प्रिंस	-12756
▁Reliance	-12757
▁सर्टिफिकेट	-12758
पु	-12759
▁mun	-12760
▁डाटा	-12761
▁Himal	-12762
▁loans	-12763
▁दिव्य	-12764
▁रहेगी	-12765
▁हिस्सों	-12766
▁processes	-12767
▁consequently	-12768
ागर	-12769
▁हॉ	-12770
eces	-12771
ेलना	-12772
▁एमओ	-12773
▁पढ़े	-12774
▁Later	-12775
▁serving	-12776
▁तुम्हारे	-12777
xy	-12778
बो	-12779
गोर	-12780
▁roof	-12781
▁निचले	-12782
▁irrespective	-12783
▁परिचय	-12784
▁fairly	-12785
▁इंजीनिय	-12786
▁regulation	-12787
कात	-12788
▁छुप	-12789
▁alien	-12790
▁ignor	-12791
▁sport	-12792
▁atmosphere	-12793
चंद	-12794
▁web	-12795
▁मनी	-12796
▁deten	-12797
▁बनाये	-12798
▁effects	-12799
▁whenever	-12800
▁Authorities	-12801
▁IP	-12802
▁exha	-12803
▁संजय	-12804
क्टरों	-12805
▁affirm	-12806
▁प्रणाल	-12807
▁parliament	-12808
▁sq	-12809
▁Jaw	-12810
board	-12811
▁शिखर	-12812
▁defic	-12813
▁concent	-12814
▁endorse	-12815
▁perverse	-12816
▁discrimination	-12817
aug	-12818
ंपरिक	-12819
▁Bose	-12820
▁चुनौ	-12821
▁Great	-12822
▁विभिन्	-12823
▁व्यापारी	-12824
▁Rai	-12825
▁Soci	-12826
▁Force	-12827
▁cogent	-12828
▁कामगार	-12829
▁अप्रत्य	-12830
▁priority	-12831
▁प्रदर्शनी	-12832
िकी	-12833
▁सीन	-12834
▁सुस	-12835
▁ROAD	-12836
▁घरों	-12837
▁meetings	-12838
▁obviously	-12839
▁इंट	-12840
ulates	-12841
▁एक्सच	-12842
▁गरीबी	-12843
▁संदाय	-12844
▁output	-12845
▁गोपनीय	-12846
▁ब्रिटेन	-12847
▁केंद्रित	-12848
▁वर्गीकृत	-12849
▁Directorate	-12850
पूर	-12851
▁chest	-12852
▁शहरों	-12853
▁समझते	-12854
▁स्नातक	-12855
isations	-12856
quisition	-12857
ss	-12858
ops	-12859
cribes	-12860
▁रायपुर	-12861
▁निरंतरता	-12862
▁facilitate	-12863
▁withdrawal	-12864
▁बर्खास्तगी	-12865
▁Agriculture	-12866
▁ऑडिट	-12867
▁टर्म	-12868
▁Error	-12869
▁grade	-12870
▁लेनदार	-12871
▁प्रेषित	-12872
▁Training	-12873
BC	-12874
टने	-12875
▁tob	-12876
▁बन्द	-12877
▁सांप	-12878
▁सीडी	-12879
▁आजादी	-12880
▁subsid	-12881
बन	-12882
▁टो	-12883
▁hair	-12884
▁sick	-12885
▁कष्ट	-12886
▁पीड़ा	-12887
▁fabric	-12888
▁modification	-12889
▁परिस्थितिजन्य	-12890
रद	-12891
ota	-12892
▁tal	-12893
▁पहच	-12894
▁बाय	-12895
▁arms	-12896
▁borne	-12897
▁grown	-12898
▁नेत्र	-12899
▁मतदान	-12900
▁तृ	-12901
▁लॉग	-12902
▁Book	-12903
▁सीटों	-12904
▁हथिया	-12905
▁resist	-12906
▁starting	-12907
रिव	-12908
▁joy	-12909
▁रेख	-12910
▁अद्यतन	-12911
▁winding	-12912
▁commitment	-12913
▁RT	-12914
room	-12915
▁उतर	-12916
▁बैक	-12917
▁Laksh	-12918
▁स्त्र	-12919
▁visible	-12920
▁threatened	-12921
oz	-12922
▁Rah	-12923
▁tim	-12924
▁झूठा	-12925
▁customer	-12926
▁innovation	-12927
▁environmental	-12928
▁bh	-12929
नीति	-12930
▁spl	-12931
▁fired	-12932
CE	-12933
AGE	-12934
▁stages	-12935
▁ourselves	-12936
▁occupation	-12937
ym	-12938
जनन	-12939
▁AGE	-12940
▁Sav	-12941
▁अल्	-12942
▁टिका	-12943
▁पौधे	-12944
▁phase	-12945
▁president	-12946
Ms	-12947
हल	-12948
ापति	-12949
▁paramet	-12950
▁reputation	-12951
▁appreciated	-12952
UN	-12953
दल	-12954
ICE	-12955
▁शीट	-12956
▁Copy	-12957
▁टाउन	-12958
िवारिक	-12959
▁Which	-12960
▁infirm	-12961
▁दम	-12962
▁ज्व	-12963
ampur	-12964
▁encl	-12965
▁एसटी	-12966
▁बोलने	-12967
▁circumstantial	-12968
खल	-12969
grat	-12970
ष्ठा	-12971
▁Tar	-12972
▁URL	-12973
▁Time	-12974
▁plat	-12975
▁Middle	-12976
▁दक्षता	-12977
▁सुदृढ़	-12978
▁prepare	-12979
▁Technical	-12980
▁entertained	-12981
भु	-12982
▁संप्र	-12983
▁Proper	-12984
▁अविश्वास	-12985
▁उपायुक्त	-12986
▁consisting	-12987
▁leadership	-12988
▁SS	-12989
▁सोन	-12990
▁पत्त	-12991
▁मूर्ति	-12992
▁दुर्बलता	-12993
▁judiciary	-12994
▁Among	-12995
▁observe	-12996
▁tobacco	-12997
▁कनेक्शन	-12998
▁दुर्भाग्य	-12999
▁corroborated	-13000
▁distinguished	-13001
▁फोटो	-13002
▁लॉर्ड	-13003
▁वाक्य	-13004
ictionary	-13005
▁विधानसभा	-13006
▁Rak	-13007
apped	-13008
रिक्ष	-13009
▁इसील	-13010
▁कहां	-13011
▁महाध	-13012
▁gathered	-13013
▁पारिवारिक	-13014
▁वास	-13015
▁इनकी	-13016
▁शिशु	-13017
olition	-13018
▁medicine	-13019
▁प्रवृत्त	-13020
▁अनियमितता	-13021
▁क्षण	-13022
▁leads	-13023
▁जिनसे	-13024
▁effected	-13025
▁institute	-13026
अप	-13027
ज्ज	-13028
दात	-13029
▁Mahto	-13030
▁helped	-13031
▁कमिश्नर	-13032
▁scheduled	-13033
▁questioned	-13034
erk	-13035
विक	-13036
▁alc	-13037
▁नृत	-13038
▁जंगल	-13039
▁match	-13040
▁struck	-13041
▁मनमानी	-13042
▁विविधता	-13043
▁पारंपरिक	-13044
▁evaluation	-13045
▁thor	-13046
▁wise	-13047
▁भत्ता	-13048
▁stream	-13049
▁becoming	-13050
दीप	-13051
idal	-13052
▁छाया	-13053
▁प्रबल	-13054
▁server	-13055
▁साधनों	-13056
▁supporting	-13057
▁effectively	-13058
nath	-13059
▁kidn	-13060
▁नामों	-13061
▁assail	-13062
▁असामान्य	-13063
▁universities	-13064
०क	-13065
▁आबंट	-13066
▁elder	-13067
▁द्विप	-13068
वै	-13069
▁Ira	-13070
ammad	-13071
▁Luck	-13072
▁tank	-13073
▁Count	-13074
▁अपहरण	-13075
▁नेपाल	-13076
▁derived	-13077
▁इक्विटी	-13078
▁दक्षिणी	-13079
▁परिवारों	-13080
ाइयों	-13081
▁Arun	-13082
▁scen	-13083
▁expos	-13084
▁arrive	-13085
▁amalgam	-13086
ortunately	-13087
▁FOR	-13088
▁भरी	-13089
▁Laws	-13090
▁मनाया	-13091
▁समझता	-13092
▁Commit	-13093
▁रूपांत	-13094
▁Network	-13095
▁वस्तुतः	-13096
▁Revision	-13097
▁concerning	-13098
▁departments	-13099
▁comprehensive	-13100
दत्त	-13101
▁परिल	-13102
▁अध्यादेश	-13103
▁identical	-13104
▁establishing	-13105
more	-13106
▁Sik	-13107
▁एसी	-13108
स्वती	-13109
▁Agra	-13110
▁देशी	-13111
जातियों	-13112
RO	-13113
oli	-13114
▁एग्	-13115
▁Path	-13116
▁replied	-13117
▁अप्रत्यक्ष	-13118
nan	-13119
▁जू	-13120
▁डीएन	-13121
▁Review	-13122
itations	-13123
▁depending	-13124
▁NH	-13125
▁अदा	-13126
clause	-13127
▁क्लिक	-13128
▁जलवायु	-13129
▁surrender	-13130
▁अध्यक्षता	-13131
▁Tir	-13132
▁avo	-13133
idden	-13134
▁ahead	-13135
▁कम्पनी	-13136
ames	-13137
▁कही	-13138
▁east	-13139
aneously	-13140
▁Himachal	-13141
▁similarly	-13142
▁पड	-13143
ास्ट	-13144
▁breed	-13145
▁ruled	-13146
▁परम्प	-13147
▁servants	-13148
▁converted	-13149
रेखा	-13150
्राफी	-13151
▁उसको	-13152
▁पुनर्ग	-13153
iet	-13154
riginal	-13155
▁unauthor	-13156
ंस्क	-13157
otton	-13158
▁रमेश	-13159
iments	-13160
▁गाड़ी	-13161
▁क्रेता	-13162
▁एप्लिकेशन	-13163
▁नर्स	-13164
▁खरीदी	-13165
▁बल्ले	-13166
▁Credit	-13167
▁dependent	-13168
▁entreprene	-13169
▁ग़	-13170
सागर	-13171
▁आबादी	-13172
▁सेटिंग	-13173
▁विवरणों	-13174
▁marketing	-13175
▁historical	-13176
▁प्रतिष्ठित	-13177
▁भव	-13178
▁wis	-13179
▁चां	-13180
▁Sind	-13181
▁Tele	-13182
▁Speaker	-13183
▁विनिश्च	-13184
SS	-13185
▁Small	-13186
▁अभिलेखों	-13187
▁अहमदाबाद	-13188
▁controlled	-13189
ux	-13190
join	-13191
▁Hot	-13192
▁फुट	-13193
▁wild	-13194
▁बंदर	-13195
levant	-13196
▁रहस्य	-13197
▁Ramesh	-13198
▁communities	-13199
▁Cal	-13200
▁justification	-13201
mity	-13202
▁बैल	-13203
▁लोह	-13204
दृश्य	-13205
▁rice	-13206
▁कहला	-13207
▁knows	-13208
▁plays	-13209
▁कीटना	-13210
▁couple	-13211
▁discrep	-13212
▁playing	-13213
▁अधिनियमों	-13214
omy	-13215
▁अज	-13216
▁सड़	-13217
हार्य	-13218
▁band	-13219
▁River	-13220
▁अनधिकृत	-13221
▁successfully	-13222
गाव	-13223
▁लम्	-13224
eding	-13225
▁steel	-13226
hension	-13227
ribunals	-13228
▁procedures	-13229
▁हड़	-13230
▁empt	-13231
▁कामका	-13232
▁संग्र	-13233
▁रिश्वत	-13234
▁healthy	-13235
▁पहुंचाने	-13236
▁practical	-13237
▁participated	-13238
▁बीस	-13239
▁leaf	-13240
▁अग्न	-13241
▁झगड़ा	-13242
▁बढ़ते	-13243
▁campaign	-13244
▁deposits	-13245
ोसी	-13246
▁उपज	-13247
▁पते	-13248
▁Test	-13249
▁खोला	-13250
▁त्रिप	-13251
▁प्रारम्भ	-13252
▁acknowled	-13253
लीय	-13254
▁एंट	-13255
astern	-13256
▁fatal	-13257
ुत्प	-13258
्रेम	-13259
▁Life	-13260
▁Sard	-13261
▁Swar	-13262
ेन्द्र	-13263
▁double	-13264
▁वाहनों	-13265
▁मूल्यवान	-13266
▁protected	-13267
▁बीमाकर्ता	-13268
▁engineering	-13269
▁आपात	-13270
▁हिसाब	-13271
▁quantum	-13272
▁involves	-13273
▁exceeding	-13274
▁operative	-13275
▁Prevention	-13276
▁Ir	-13277
lets	-13278
▁Vidy	-13279
▁strike	-13280
▁दरवाजे	-13281
▁experts	-13282
▁inclined	-13283
▁निदेशकों	-13284
▁pollution	-13285
oes	-13286
odes	-13287
्सीय	-13288
▁Iraq	-13289
udence	-13290
▁repay	-13291
▁covering	-13292
▁तंत्रिका	-13293
▁कस	-13294
▁भो	-13295
▁शुक	-13296
▁acres	-13297
▁perpet	-13298
▁squared	-13299
▁initiatives	-13300
▁किल	-13301
कियों	-13302
टीकरण	-13303
ड़िया	-13304
▁mining	-13305
▁discipline	-13306
nsic	-13307
ribe	-13308
न्दु	-13309
ाजनक	-13310
▁खूब	-13311
▁wage	-13312
▁west	-13313
▁confer	-13314
▁सरस्वती	-13315
▁Language	-13316
▁Christian	-13317
▁Don	-13318
▁अभ्य	-13319
course	-13320
▁पुष्ट	-13321
▁प्रतिर	-13322
▁Capital	-13323
▁university	-13324
ापक	-13325
▁चिल	-13326
▁Gang	-13327
▁भक्ति	-13328
▁Territ	-13329
▁career	-13330
▁suggests	-13331
▁लोकतांत्रिक	-13332
केशन	-13333
▁Cro	-13334
▁जना	-13335
▁bona	-13336
▁बुरी	-13337
▁भेंट	-13338
▁गोपाल	-13339
▁फायदा	-13340
▁requisition	-13341
TP	-13342
vent	-13343
▁तिव	-13344
▁सचेत	-13345
्रेषित	-13346
▁निस्त	-13347
▁arrears	-13348
▁प्रान्त	-13349
igarh	-13350
▁Last	-13351
▁देगी	-13352
▁poison	-13353
za	-13354
elve	-13355
ल्पित	-13356
▁संध्या	-13357
▁returns	-13358
IG	-13359
▁Use	-13360
▁अवय	-13361
▁ग्रुप	-13362
▁कुल्हा	-13363
▁पॉलिसी	-13364
▁शक्तिशाली	-13365
▁Venk	-13366
▁crow	-13367
▁poem	-13368
▁evalu	-13369
▁architect	-13370
alla	-13371
anth	-13372
ulty	-13373
▁रखकर	-13374
▁सीधा	-13375
▁बहादुर	-13376
▁बुलाने	-13377
▁समृद्धि	-13378
▁कॉर्पोरेट	-13379
▁convenience	-13380
▁Shankaracharya	-13381
ाफ	-13382
ीली	-13383
▁Mit	-13384
▁गड़ब	-13385
▁ज़्या	-13386
▁भारतीयों	-13387
▁Ministers	-13388
▁household	-13389
▁characters	-13390
ुश	-13391
ker	-13392
▁Gar	-13393
▁heat	-13394
▁मानी	-13395
▁टैक्स	-13396
▁थोड़ी	-13397
▁Considering	-13398
▁Institutions	-13399
ंपी	-13400
▁Sikh	-13401
▁जाली	-13402
▁attained	-13403
▁awareness	-13404
▁applicability	-13405
२०	-13406
▁सैन	-13407
▁Yoga	-13408
▁holders	-13409
▁substituted	-13410
▁intervention	-13411
oudh	-13412
िकता	-13413
▁RBI	-13414
▁sad	-13415
▁tea	-13416
▁फंड	-13417
▁धातु	-13418
▁सीता	-13419
▁रूपों	-13420
▁Appeals	-13421
▁caution	-13422
▁regularly	-13423
▁Universities	-13424
धित	-13425
▁CL	-13426
▁उदा	-13427
▁forthwith	-13428
set	-13429
फ़ी	-13430
प्ति	-13431
▁जीन	-13432
▁रिव	-13433
▁टाइप	-13434
▁गहराई	-13435
▁slight	-13436
▁परिस्थितियां	-13437
GA	-13438
Rs	-13439
मर	-13440
uri	-13441
▁Aur	-13442
ifteen	-13443
▁तिवारी	-13444
▁मतदाता	-13445
▁doubtful	-13446
▁earliest	-13447
▁districts	-13448
ESS	-13449
न्या	-13450
ेक्स	-13451
▁फाइ	-13452
▁राह	-13453
▁roads	-13454
▁smaller	-13455
▁परम्परा	-13456
▁encourage	-13457
▁maintaining	-13458
ंदेह	-13459
▁core	-13460
▁स्तरों	-13461
stitutes	-13462
▁Session	-13463
▁assumed	-13464
▁politics	-13465
▁सीआरपीसी	-13466
▁सिद्धान्त	-13467
▁differences	-13468
▁communicated	-13469
निय	-13470
▁Meh	-13471
▁blue	-13472
▁तनाव	-13473
▁अभिला	-13474
▁पहुंची	-13475
▁permits	-13476
▁director	-13477
▁eviction	-13478
▁प्रकटीकरण	-13479
फो	-13480
▁वय	-13481
काने	-13482
▁रॉय	-13483
▁ultimate	-13484
▁Societies	-13485
cean	-13486
izes	-13487
▁rid	-13488
▁बाँ	-13489
▁अनुर	-13490
▁birds	-13491
▁prefer	-13492
▁inflicted	-13493
▁organized	-13494
gen	-13495
▁औस	-13496
बारा	-13497
▁विघ	-13498
erior	-13499
▁Deep	-13500
▁tick	-13501
▁Compl	-13502
▁unlaw	-13503
▁Pandit	-13504
▁आत्मसम	-13505
▁सीनियर	-13506
▁sending	-13507
▁preceding	-13508
पीए	-13509
▁घृ	-13510
▁नवा	-13511
▁folk	-13512
▁lect	-13513
▁promise	-13514
▁परिश्रम	-13515
▁prospect	-13516
▁interpreted	-13517
▁aw	-13518
०वीं	-13519
▁मस्	-13520
▁लाए	-13521
▁lose	-13522
▁गुफा	-13523
▁stret	-13524
▁tests	-13525
▁जानें	-13526
▁फ्लैट	-13527
▁supposed	-13528
▁estimated	-13529
▁correctness	-13530
▁Yet	-13531
▁hes	-13532
venth	-13533
▁Back	-13534
▁पैकेट	-13535
▁निकाले	-13536
▁discard	-13537
▁finance	-13538
▁सामान्यतः	-13539
▁efficiency	-13540
▁उर्व	-13541
▁रखती	-13542
▁रिज़	-13543
र्माने	-13544
▁dream	-13545
▁प्रीम	-13546
▁बिलकुल	-13547
▁स्तरीय	-13548
▁मंदिरों	-13549
▁जुर्माने	-13550
▁क्रियान्व	-13551
▁चिकित्सीय	-13552
▁certificates	-13553
नाइट	-13554
▁star	-13555
▁अक्त	-13556
▁email	-13557
▁ऊंचाई	-13558
▁जोड़े	-13559
▁broken	-13560
▁producing	-13561
▁महाधिवक्ता	-13562
▁retrospective	-13563
cum	-13564
रेटर	-13565
▁Nir	-13566
▁dro	-13567
▁elim	-13568
abling	-13569
▁Prabh	-13570
▁जितनी	-13571
▁पट्टी	-13572
▁tonnes	-13573
्रु	-13574
ocol	-13575
▁Mahab	-13576
▁मंजूर	-13577
▁reasoning	-13578
pa	-13579
fort	-13580
▁die	-13581
▁singh	-13582
▁mineral	-13583
▁ड्राफ्ट	-13584
▁attorney	-13585
URU	-13586
rary	-13587
▁देखता	-13588
▁परिवी	-13589
▁सकेगी	-13590
▁sovere	-13591
▁टुकड़े	-13592
▁Paragraph	-13593
▁compulsory	-13594
▁imposition	-13595
▁perspective	-13596
▁दिशानिर्देशों	-13597
वेल	-13598
ूलन	-13599
▁Aj	-13600
▁rad	-13601
▁WPNo	-13602
▁याता	-13603
▁मुक्ति	-13604
▁Dy	-13605
▁IO	-13606
▁Vik	-13607
▁डिज	-13608
burse	-13609
erved	-13610
▁Taluk	-13611
▁खासकर	-13612
▁Ahmedabad	-13613
▁rejecting	-13614
िमा	-13615
▁कुट	-13616
स्ट्रे	-13617
▁उन्हीं	-13618
▁पुनराव	-13619
▁declare	-13620
▁samples	-13621
▁wrongly	-13622
▁मुलाकात	-13623
▁Internet	-13624
▁governing	-13625
▁MM	-13626
▁fish	-13627
▁shot	-13628
▁समझे	-13629
▁cance	-13630
▁नवीनी	-13631
▁क्रांति	-13632
▁एक्सचेंज	-13633
▁convention	-13634
iers	-13635
▁dia	-13636
▁अवर	-13637
ureau	-13638
▁वस्त्र	-13639
▁congrat	-13640
ertaining	-13641
▁transform	-13642
▁पुण	-13643
inter	-13644
▁लगती	-13645
▁stake	-13646
▁माइक्र	-13647
▁perused	-13648
unci	-13649
▁अवह	-13650
ंगलोर	-13651
minent	-13652
▁अनदेखी	-13653
▁मिलेगी	-13654
▁Acquisition	-13655
▁नियुक्तियों	-13656
▁Dw	-13657
वाहा	-13658
▁club	-13659
▁symp	-13660
▁औसतन	-13661
▁सूचक	-13662
▁desir	-13663
▁वृद्ध	-13664
▁इसीलिए	-13665
▁Lucknow	-13666
▁annexed	-13667
▁अपमानजनक	-13668
▁secondary	-13669
▁निस्संदेह	-13670
▁conversion	-13671
▁representing	-13672
ERA	-13673
नेश	-13674
▁TV	-13675
ooth	-13676
▁Self	-13677
▁अतीत	-13678
▁विलय	-13679
▁averred	-13680
ूष	-13681
och	-13682
▁marry	-13683
▁मनमाने	-13684
▁ensuring	-13685
▁Committees	-13686
जिद	-13687
याल	-13688
▁El	-13689
▁GO	-13690
डीसी	-13691
▁fed	-13692
िपत्य	-13693
▁लाठी	-13694
▁users	-13695
▁scholar	-13696
▁निलंबित	-13697
▁एजेंसियों	-13698
▁attachment	-13699
▁regularization	-13700
▁ww	-13701
▁झील	-13702
▁डिक	-13703
▁Vaish	-13704
▁यूरोपीय	-13705
▁निदेशालय	-13706
▁organizations	-13707
▁भीड़	-13708
▁स्के	-13709
▁invoking	-13710
▁हथियारों	-13711
▁greetings	-13712
▁designated	-13713
▁आत्मसमर्पण	-13714
▁सफलतापूर्वक	-13715
UK	-13716
गान	-13717
्रोप	-13718
▁नाइ	-13719
▁उठाई	-13720
▁तर्कों	-13721
▁attended	-13722
atra	-13723
▁Amb	-13724
▁bye	-13725
▁विज	-13726
bered	-13727
ज्जित	-13728
▁evid	-13729
▁लखनऊ	-13730
▁lodging	-13731
▁rigorous	-13732
▁प्रतिसाद	-13733
▁suggestions	-13734
साई	-13735
▁OP	-13736
▁Due	-13737
▁तलाक	-13738
▁overr	-13739
▁incrim	-13740
▁waiting	-13741
▁अनुपस्थित	-13742
▁मरा	-13743
osing	-13744
▁जीवा	-13745
▁रिक्ति	-13746
▁council	-13747
▁यातायात	-13748
▁प्रतियां	-13749
द्वी	-13750
▁Ten	-13751
▁खटख	-13752
▁पंचाट	-13753
▁offers	-13754
▁writer	-13755
▁Austral	-13756
▁Original	-13757
▁organism	-13758
inous	-13759
▁rely	-13760
▁कीटनाश	-13761
▁निकलने	-13762
▁Cabinet	-13763
▁orna	-13764
▁एमएस	-13765
▁सुनकर	-13766
▁mov	-13767
▁legs	-13768
▁span	-13769
▁कुल्हाड़ी	-13770
ju	-13771
ners	-13772
▁वाइ	-13773
▁Prim	-13774
▁Common	-13775
▁ब्यूरो	-13776
भौ	-13777
देशक	-13778
▁privilege	-13779
दु	-13780
omin	-13781
रचना	-13782
▁www	-13783
स्टिक	-13784
▁आरंभिक	-13785
▁दुर्लभ	-13786
▁संपन्न	-13787
▁proving	-13788
▁branches	-13789
▁platform	-13790
▁extraordinary	-13791
वाणी	-13792
▁कैल	-13793
▁remand	-13794
▁framework	-13795
▁Han	-13796
▁Joh	-13797
▁Rev	-13798
▁पीढ़ी	-13799
atively	-13800
▁प्रशंस	-13801
▁crucial	-13802
▁regions	-13803
cellaneous	-13804
▁हस्ताक्षरित	-13805
डिश	-13806
ghal	-13807
▁vii	-13808
▁हुस	-13809
ether	-13810
▁Keep	-13811
▁वार्ड	-13812
▁मैत्री	-13813
▁formula	-13814
▁Attorney	-13815
▁infirmity	-13816
BS	-13817
itt	-13818
off	-13819
सों	-13820
riya	-13821
डेंट	-13822
दायक	-13823
▁Rad	-13824
▁pad	-13825
▁Good	-13826
▁ऑफिसर	-13827
▁गुंजा	-13828
▁भाग्य	-13829
▁हानिक	-13830
▁trading	-13831
▁उपेक्षा	-13832
▁devotion	-13833
▁vitiated	-13834
्टा	-13835
▁Om	-13836
▁ओम	-13837
▁बोध	-13838
▁evil	-13839
▁कॉन्	-13840
▁undue	-13841
▁रसायन	-13842
▁prosperity	-13843
imb	-13844
ंधन	-13845
organ	-13846
▁चीजें	-13847
▁देनदार	-13848
▁managed	-13849
ohol	-13850
ेक्शन	-13851
▁Nepal	-13852
▁मतभेद	-13853
▁विधवा	-13854
▁........	-13855
▁festival	-13856
▁Subsequently	-13857
▁pull	-13858
▁आपसी	-13859
othing	-13860
▁अनन्य	-13861
▁pleading	-13862
▁specially	-13863
▁रघु	-13864
▁अंगूठ	-13865
▁हेक्ट	-13866
▁सहयोगी	-13867
▁instruments	-13868
▁introduction	-13869
▁OSNo	-13870
▁सांख	-13871
▁सेवन	-13872
▁जिलों	-13873
▁संपदा	-13874
▁निकायों	-13875
▁रचनात्मक	-13876
ao	-13877
alle	-13878
ट्टा	-13879
▁बांग	-13880
▁bidder	-13881
▁reveal	-13882
▁पारस्प	-13883
▁अक्तूबर	-13884
▁Economic	-13885
▁announced	-13886
▁XV	-13887
▁Gul	-13888
ेंसिक	-13889
▁blind	-13890
cribing	-13891
▁प्रांत	-13892
▁शास्त्र	-13893
▁occasions	-13894
▁competition	-13895
▁फीट	-13896
▁हां	-13897
▁हाइ	-13898
▁खरीदा	-13899
▁performing	-13900
ॉर	-13901
▁AY	-13902
urved	-13903
ांक्षा	-13904
▁तरल	-13905
▁सकी	-13906
uliar	-13907
▁उपभोग	-13908
▁पदोन्नत	-13909
▁contraband	-13910
▁विशेषज्ञों	-13911
▁Ach	-13912
▁कना	-13913
▁पाउ	-13914
▁भया	-13915
▁Banks	-13916
▁burnt	-13917
▁prompt	-13918
▁मस्जिद	-13919
▁disturb	-13920
▁insurer	-13921
▁motorcy	-13922
▁मोटरसाइ	-13923
▁consolid	-13924
▁relaxation	-13925
uv	-13926
aria	-13927
laim	-13928
कथित	-13929
▁Pass	-13930
▁apex	-13931
▁aband	-13932
▁fixing	-13933
▁western	-13934
▁constant	-13935
▁Convention	-13936
▁कॉर्पोरेशन	-13937
▁Pers	-13938
▁स्टील	-13939
▁यथार्थ	-13940
▁peculiar	-13941
pass	-13942
्यवाद	-13943
▁dealer	-13944
▁fifteen	-13945
▁nominated	-13946
▁साहित्यिक	-13947
▁calculated	-13948
▁झट	-13949
्यूशन	-13950
▁cloud	-13951
▁heads	-13952
▁discuss	-13953
▁personality	-13954
ुलर	-13955
्वे	-13956
▁नज	-13957
टीसी	-13958
▁मछली	-13959
▁trend	-13960
▁incent	-13961
▁अवहेलना	-13962
▁कार्मिक	-13963
▁स्वेच्छा	-13964
▁रवीन्द्रनाथ	-13965
cript	-13966
▁upgr	-13967
resents	-13968
▁रेडियो	-13969
▁माध्यस्थ	-13970
▁seriously	-13971
▁translation	-13972
कै	-13973
pro	-13974
आईएल	-13975
जाने	-13976
ित्य	-13977
▁आधे	-13978
▁उपर	-13979
▁mail	-13980
▁fifty	-13981
▁सौंपी	-13982
▁matrim	-13983
▁इस्लामी	-13984
▁अंतरिक्ष	-13985
▁restrictions	-13986
▁Could	-13987
▁Motor	-13988
▁accom	-13989
▁settle	-13990
▁wonder	-13991
▁undertake	-13992
▁कंध	-13993
▁कंस	-13994
त्रियों	-13995
▁mortem	-13996
▁बरामदगी	-13997
▁greatest	-13998
▁Advocates	-13999
▁पारस्परिक	-14000
ष्म	-14001
▁NI	-14002
▁Acts	-14003
▁कहती	-14004
स्वामी	-14005
▁अखबार	-14006
▁खोजने	-14007
▁प्रसंस्क	-14008
ंची	-14009
▁ग्री	-14010
▁जूनियर	-14011
▁contradictions	-14012
हीत	-14013
▁उक	-14014
▁Kap	-14015
▁vic	-14016
▁didn	-14017
▁संस्थ	-14018
▁Nature	-14019
▁Record	-14020
▁twelve	-14021
▁collabor	-14022
eros	-14023
ांसी	-14024
▁cow	-14025
▁छेड़	-14026
▁लंबा	-14027
▁multipl	-14028
▁belonged	-14029
TS	-14030
ुग्	-14031
rase	-14032
▁COM	-14033
▁बैंगलोर	-14034
▁पुस्तिका	-14035
▁प्रिंसिपल	-14036
▁कार्यपालिका	-14037
ema	-14038
▁उजागर	-14039
▁brings	-14040
▁expired	-14041
▁गुंजाइश	-14042
▁electronic	-14043
▁originally	-14044
▁represents	-14045
▁मोटरसाइकिल	-14046
▁instruction	-14047
▁शक	-14048
▁शल	-14049
▁looks	-14050
▁pieces	-14051
▁टा	-14052
▁गीता	-14053
▁बहाली	-14054
▁street	-14055
▁shifted	-14056
▁initiate	-14057
▁निष्कासन	-14058
LC	-14059
Os	-14060
▁Agg	-14061
▁गिन	-14062
▁तंब	-14063
▁गिरवी	-14064
▁arisen	-14065
▁संयोजन	-14066
▁द्विपक्षीय	-14067
मि	-14068
ज़ो	-14069
▁रेश	-14070
isher	-14071
issue	-14072
▁Mant	-14073
▁काली	-14074
▁तारा	-14075
holder	-14076
कारिता	-14077
▁outer	-14078
▁रोकना	-14079
▁Junior	-14080
▁पहाड़ी	-14081
▁stained	-14082
▁अधिरोपित	-14083
▁probation	-14084
▁prevailing	-14085
▁hoc	-14086
▁केश	-14087
▁नृत्य	-14088
▁बनाती	-14089
▁तथाकथित	-14090
▁प्रतिबि	-14091
▁Look	-14092
▁brid	-14093
▁hall	-14094
▁बेशक	-14095
icable	-14096
▁spect	-14097
▁climate	-14098
roud	-14099
umber	-14100
▁काले	-14101
▁लाना	-14102
▁Mother	-14103
▁भागीदार	-14104
▁imposing	-14105
▁intercourse	-14106
▁restriction	-14107
▁बेई	-14108
▁Chak	-14109
▁मोटे	-14110
▁रिला	-14111
▁इंद्र	-14112
▁mostly	-14113
▁courage	-14114
▁unnecess	-14115
part	-14116
▁रोम	-14117
▁सदी	-14118
▁काला	-14119
▁पत्रिका	-14120
gi	-14121
TER	-14122
▁Neg	-14123
▁बिता	-14124
▁plans	-14125
▁परिसंप	-14126
▁borrower	-14127
▁आतंकवादी	-14128
्यौ	-14129
▁Mrs	-14130
▁दाम	-14131
▁fract	-14132
▁Agency	-14133
▁उपलब्धि	-14134
▁satisfactory	-14135
PW	-14136
ids	-14137
फ्र	-14138
▁कच	-14139
▁Tra	-14140
▁mob	-14141
▁Mohd	-14142
▁जताई	-14143
▁थाने	-14144
▁Bazar	-14145
▁felic	-14146
▁ट्रैक	-14147
▁यात्री	-14148
यिक	-14149
▁pp	-14150
back	-14151
▁SAR	-14152
वास्त	-14153
▁coin	-14154
▁vary	-14155
▁विनि	-14156
▁helps	-14157
▁sites	-14158
▁मंजिल	-14159
▁client	-14160
▁premium	-14161
रेज	-14162
▁Po	-14163
▁enum	-14164
▁पृथक	-14165
▁shops	-14166
▁usual	-14167
▁प्रोफ	-14168
▁समझौतों	-14169
ropol	-14170
▁beings	-14171
▁orient	-14172
▁dispose	-14173
▁आधिपत्य	-14174
▁creditors	-14175
ल्फ	-14176
▁ईसाई	-14177
▁लायक	-14178
chandra	-14179
दर्शिता	-14180
▁स्रोतों	-14181
▁Chancellor	-14182
▁शरण	-14183
▁refuse	-14184
▁termed	-14185
▁एफएसएल	-14186
▁Jawahar	-14187
▁answers	-14188
▁रिलायंस	-14189
▁संज्ञेय	-14190
▁समायोजन	-14191
▁व्यापारिक	-14192
▁chargeable	-14193
▁endorsement	-14194
mad	-14195
▁pm	-14196
▁इल	-14197
जीसी	-14198
र्ता	-14199
त्रिम	-14200
▁संधि	-14201
▁संगठित	-14202
▁fulfilled	-14203
▁कर्ण	-14204
▁गायब	-14205
▁प्लस	-14206
▁उठाना	-14207
▁purely	-14208
▁चित्रण	-14209
▁requiring	-14210
▁प्रतिबिंब	-14211
▁appointing	-14212
rup	-14213
unk	-14214
ायण	-14215
▁USA	-14216
▁Paper	-14217
▁multi	-14218
ाध्यक्ष	-14219
▁खरीदार	-14220
▁प्रयोज्यता	-14221
UCT	-14222
anath	-14223
▁judic	-14224
▁route	-14225
▁पड़ोसी	-14226
▁accompl	-14227
▁scrutin	-14228
▁exclusion	-14229
▁अपरिहार्य	-14230
▁निर्देशिका	-14231
▁contributions	-14232
isis	-14233
▁बीत	-14234
ander	-14235
▁resc	-14236
ansion	-14237
ल्डिंग	-14238
▁कामना	-14239
▁एकीकृत	-14240
▁Process	-14241
▁महाराजा	-14242
▁deprived	-14243
संच	-14244
▁लार	-14245
▁बाईं	-14246
▁मोड़	-14247
▁alias	-14248
▁पेशेवर	-14249
▁युक्ति	-14250
▁weather	-14251
▁apprehend	-14252
▁जुट	-14253
▁पहन	-14254
▁शोक	-14255
▁निराश	-14256
▁दुश्मनी	-14257
▁अनुज्ञात	-14258
ोनी	-14259
▁dw	-14260
akti	-14261
इयां	-14262
▁Mil	-14263
▁sake	-14264
कारियों	-14265
ानुभूति	-14266
▁Tiwari	-14267
appropri	-14268
▁Chow	-14269
▁Jyot	-14270
▁royal	-14271
▁भत्ते	-14272
▁aggreg	-14273
▁cricket	-14274
▁अन्वेषण	-14275
▁reaching	-14276
▁proposals	-14277
ॉजी	-14278
▁धरती	-14279
▁राजीव	-14280
ressive	-14281
▁resource	-14282
▁Examination	-14283
WP	-14284
गाई	-14285
▁उर्फ	-14286
▁डेवल	-14287
▁लेबल	-14288
▁साहस	-14289
▁inher	-14290
▁ग्राफ	-14291
▁resign	-14292
▁Eastern	-14293
▁History	-14294
▁Panchay	-14295
▁consumers	-14296
ठे	-14297
ESH	-14298
ुणा	-14299
oses	-14300
▁rit	-14301
▁ste	-14302
▁चरम	-14303
▁File	-14304
▁Saty	-14305
▁नींव	-14306
▁प्लेट	-14307
▁spoken	-14308
▁सम्पत्ति	-14309
▁exclusively	-14310
ny	-14311
ंदगी	-14312
▁Emp	-14313
▁पाप	-14314
▁Cast	-14315
▁मंगल	-14316
सिद्धि	-14317
▁मापदंड	-14318
▁communal	-14319
▁opposition	-14320
▁प्रतिस्पर्धा	-14321
▁स्वीकारोक्ति	-14322
दातर	-14323
▁लाई	-14324
inity	-14325
▁sets	-14326
▁चरणों	-14327
▁शत्रु	-14328
▁Sarasw	-14329
▁awards	-14330
▁unjust	-14331
▁सारांश	-14332
▁guidance	-14333
▁axe	-14334
▁नंद	-14335
roller	-14336
▁spons	-14337
▁अंगों	-14338
▁बिल्ड	-14339
▁Bureau	-14340
▁CA	-14341
oyal	-14342
▁aims	-14343
▁Sinha	-14344
▁relev	-14345
▁housing	-14346
मै	-14347
ंथी	-14348
िणी	-14349
▁TH	-14350
▁बग	-14351
▁‘‘	-14352
▁Vir	-14353
▁राश	-14354
▁वीड	-14355
aught	-14356
▁असंत	-14357
▁मानो	-14358
▁Works	-14359
writing	-14360
▁पुनर्म	-14361
▁कृत्रिम	-14362
▁unlawful	-14363
lter	-14364
▁Bur	-14365
▁boys	-14366
▁वरीय	-14367
chnama	-14368
▁लड़ने	-14369
rations	-14370
▁हिमालय	-14371
▁bilateral	-14372
onies	-14373
▁गौरव	-14374
▁कराना	-14375
▁डीएनए	-14376
▁cutting	-14377
▁उन्मूलन	-14378
▁reasonably	-14379
▁shareholders	-14380
che	-14381
vity	-14382
▁राध	-14383
▁exch	-14384
ounded	-14385
▁computing	-14386
▁ट्रेडमार्क	-14387
इज	-14388
पेट	-14389
▁bot	-14390
eless	-14391
▁faced	-14392
▁तलवार	-14393
▁Transfer	-14394
ढ़े	-14395
बीन	-14396
▁Id	-14397
▁उभ	-14398
▁गू	-14399
amus	-14400
▁कमल	-14401
▁टेन	-14402
▁रिफ	-14403
cular	-14404
▁योनि	-14405
oubted	-14406
▁wisdom	-14407
▁conclude	-14408
▁विद्यार्थी	-14409
वकों	-14410
▁टीवी	-14411
rating	-14412
vation	-14413
▁जायें	-14414
▁आबकारी	-14415
▁जनादेश	-14416
▁पुनर्व	-14417
▁fraudul	-14418
▁अनुक्रम	-14419
क्कर	-14420
न्हा	-14421
रलाल	-14422
▁Upon	-14423
▁Suresh	-14424
▁forced	-14425
▁purview	-14426
▁प्रीमियम	-14427
▁initiative	-14428
ाउंड	-14429
▁पैट	-14430
▁डाले	-14431
▁माने	-14432
▁इनपुट	-14433
▁please	-14434
▁Nations	-14435
▁पुनर्गठन	-14436
▁conclusions	-14437
एसए	-14438
iant	-14439
च्यु	-14440
▁हाँ	-14441
▁colle	-14442
▁divorce	-14443
▁justify	-14444
▁investors	-14445
▁पोल	-14446
▁Disp	-14447
▁eleph	-14448
▁डोमेन	-14449
ogether	-14450
▁fellow	-14451
▁प्रसंस्करण	-14452
▁substantially	-14453
शाह	-14454
स्फोट	-14455
▁utter	-14456
▁कोर्स	-14457
▁breath	-14458
▁discovery	-14459
▁affidavits	-14460
▁RF	-14461
urch	-14462
ुत्व	-14463
▁Mult	-14464
▁drop	-14465
▁अनिल	-14466
▁Govind	-14467
▁facing	-14468
▁occurs	-14469
▁simult	-14470
▁अमरीका	-14471
▁superann	-14472
▁parameters	-14473
▁exceptional	-14474
▁arrangements	-14475
mal	-14476
जिए	-14477
▁स्ल	-14478
▁backward	-14479
▁creditor	-14480
▁infection	-14481
▁purported	-14482
▁Divisional	-14483
shi	-14484
uni	-14485
गंज	-14486
▁लेट	-14487
▁phen	-14488
▁सांवि	-14489
▁casual	-14490
▁laying	-14491
▁शस्त्र	-14492
▁ज़्यादा	-14493
ida	-14494
वर्ड	-14495
▁गेट	-14496
▁annum	-14497
▁Choudh	-14498
piration	-14499
▁tenancy	-14500
RC	-14501
aha	-14502
top	-14503
▁Equ	-14504
▁vag	-14505
▁Data	-14506
▁wait	-14507
▁zero	-14508
▁inaug	-14509
▁string	-14510
▁युवाओं	-14511
▁placing	-14512
▁discovered	-14513
▁aforementioned	-14514
ंद्रह	-14515
▁पाठक	-14516
▁समाम	-14517
▁हुसैन	-14518
▁आधारभूत	-14519
▁illegally	-14520
नेस	-14521
▁Saf	-14522
▁आनु	-14523
▁कीं	-14524
▁ढूं	-14525
afide	-14526
itage	-14527
▁desert	-14528
▁screen	-14529
▁तापमान	-14530
▁presumed	-14531
▁reduction	-14532
कीन	-14533
मीन	-14534
▁BE	-14535
ranath	-14536
▁Urban	-14537
▁earned	-14538
▁कपड़ों	-14539
▁precise	-14540
▁integrity	-14541
▁प्रक्रियात्मक	-14542
▁Um	-14543
न्दर	-14544
▁Rab	-14545
▁खिल	-14546
▁Sund	-14547
▁empty	-14548
▁स्ट्र	-14549
▁solely	-14550
▁पंद्रह	-14551
▁matrimonial	-14552
▁फु	-14553
▁unw	-14554
▁खर्	-14555
▁Nare	-14556
▁सुरेश	-14557
▁विनिश्चय	-14558
▁Independence	-14559
▁incriminating	-14560
▁Far	-14561
rafts	-14562
▁सेशन	-14563
▁दुर्व	-14564
▁सार्थ	-14565
cel	-14566
▁TR	-14567
gaon	-14568
rule	-14569
भासी	-14570
िर्ण	-14571
▁BEN	-14572
▁Naw	-14573
▁Ray	-14574
▁घास	-14575
▁मुल	-14576
▁कड़ाई	-14577
प्राप्त	-14578
▁Letters	-14579
▁Investigation	-14580
▁Sk	-14581
gypt	-14582
▁NCT	-14583
amber	-14584
▁अड्ड	-14585
▁फायर	-14586
▁Sector	-14587
▁रजिस्ट्रीकरण	-14588
loc	-14589
ंसर	-14590
alled	-14591
etime	-14592
▁वनस्प	-14593
▁Nothing	-14594
▁सांख्यिक	-14595
कोट	-14596
▁हरे	-14597
▁पीपी	-14598
▁राजू	-14599
▁चिन्ह	-14600
▁हटाया	-14601
▁transmission	-14602
▁Parliamentary	-14603
▁accommodation	-14604
▁लैस	-14605
▁वोट	-14606
▁Body	-14607
▁लेंगे	-14608
▁injust	-14609
▁rivers	-14610
▁खर्चों	-14611
▁सेक्टर	-14612
▁परिप्रे	-14613
▁concerns	-14614
▁enabling	-14615
▁societies	-14616
▁thousands	-14617
▁प्रस्तुतिकरण	-14618
▁गणित	-14619
▁cycle	-14620
▁अस्थिर	-14621
▁essence	-14622
▁Circular	-14623
▁exhibited	-14624
apa	-14625
बेट	-14626
▁दण्ड	-14627
uality	-14628
▁Third	-14629
▁battle	-14630
▁nearby	-14631
▁कहे	-14632
▁माउ	-14633
▁रोश	-14634
▁bull	-14635
▁budget	-14636
▁defend	-14637
▁skills	-14638
▁Electricity	-14639
परक	-14640
▁अनाज	-14641
▁प्रजनन	-14642
▁creates	-14643
▁कोशिकाओं	-14644
▁transportation	-14645
नर	-14646
िटर	-14647
SION	-14648
र्दू	-14649
antic	-14650
▁Houses	-14651
▁fertil	-14652
▁हेक्टेयर	-14653
▁concession	-14654
▁implication	-14655
ुड	-14656
▁OCC	-14657
▁आपस	-14658
▁जुल	-14659
▁Main	-14660
▁मातृ	-14661
▁भांति	-14662
▁garden	-14663
▁extending	-14664
पेश	-14665
ajan	-14666
hemical	-14667
▁Subhas	-14668
▁scholars	-14669
▁अनुमानित	-14670
▁जाओ	-14671
▁रेग	-14672
▁बांड	-14673
▁बैठा	-14674
▁Egypt	-14675
▁paint	-14676
▁silent	-14677
▁राजेंद्र	-14678
णि	-14679
दू	-14680
तन्य	-14681
▁CIT	-14682
▁झुक	-14683
force	-14684
स्ट्र	-14685
▁अर्ज	-14686
joinder	-14687
▁आंकड़े	-14688
▁रिकवरी	-14689
▁ड्राइवर	-14690
▁precedent	-14691
ef	-14692
leum	-14693
▁समन	-14694
▁Anil	-14695
▁mala	-14696
▁taxes	-14697
▁कामकाज	-14698
▁सकेंगे	-14699
▁परीक्षक	-14700
▁परिलक्षित	-14701
▁प्रोविज़ो	-14702
▁substitute	-14703
RS	-14704
ब्ब	-14705
भूषण	-14706
▁solar	-14707
▁पर्वत	-14708
▁संकाय	-14709
▁Instru	-14710
▁dignity	-14711
▁व्युत्प	-14712
▁inviting	-14713
▁succeeded	-14714
yas	-14715
ंकी	-14716
▁उपय	-14717
▁शोषण	-14718
▁जानकर	-14719
▁Bhawan	-14720
▁witnessed	-14721
▁अभिव्यक्त	-14722
▁motorcycle	-14723
▁Agricultural	-14724
बारी	-14725
▁अभिर	-14726
▁ड्रग	-14727
istence	-14728
▁forged	-14729
▁quarter	-14730
▁कार्यालयों	-14731
राइट	-14732
▁Doc	-14733
▁oath	-14734
▁उर्दू	-14735
rection	-14736
विश्वास	-14737
▁व्यस्त	-14738
▁सौंपने	-14739
▁Bahadur	-14740
▁exports	-14741
▁refusal	-14742
▁प्रसारण	-14743
▁treating	-14744
▁अधिनिर्ण	-14745
▁Urdu	-14746
▁stab	-14747
▁vote	-14748
▁ईंधन	-14749
▁कच्चे	-14750
▁expand	-14751
▁Children	-14752
▁promoting	-14753
▁प्रविष्टियों	-14754
▁Lah	-14755
▁धूम	-14756
▁उग्र	-14757
▁teach	-14758
▁फ्रांस	-14759
स्ट्रेलिया	-14760
▁inconsistent	-14761
इल	-14762
कृष्ण	-14763
▁Rest	-14764
▁किमी	-14765
▁परिवेश	-14766
▁exhaust	-14767
▁reforms	-14768
▁venture	-14769
▁duration	-14770
▁Sand	-14771
▁चर्च	-14772
ounder	-14773
▁प्रोज	-14774
▁Chrome	-14775
▁attributed	-14776
▁परामर्शदाता	-14777
fall	-14778
▁Yes	-14779
enger	-14780
▁Raju	-14781
▁पीने	-14782
SR	-14783
▁doubts	-14784
▁admissions	-14785
akf	-14786
mat	-14787
▁जॉ	-14788
▁Sit	-14789
erent	-14790
orter	-14791
▁cool	-14792
▁डिज़	-14793
▁package	-14794
▁निस्तारण	-14795
▁scientists	-14796
▁investments	-14797
़ी	-14798
▁Si	-14799
रणीय	-14800
विंग	-14801
indra	-14802
▁NAME	-14803
▁समझना	-14804
▁absent	-14805
▁levied	-14806
▁delinqu	-14807
▁improper	-14808
▁difficulties	-14809
वायद	-14810
▁fet	-14811
▁hop	-14812
ellow	-14813
िनेशन	-14814
▁eyew	-14815
▁उत्तम	-14816
दायित्व	-14817
▁दाहिने	-14818
▁flowers	-14819
▁supreme	-14820
▁विद्रोह	-14821
म्बई	-14822
rates	-14823
▁लेबर	-14824
▁चैतन्य	-14825
▁पुराना	-14826
▁markets	-14827
jan	-14828
ंती	-14829
▁pit	-14830
emark	-14831
ighty	-14832
▁Area	-14833
▁Patent	-14834
▁specify	-14835
▁अंग्रेज	-14836
▁समवर्ती	-14837
inct	-14838
▁Bil	-14839
house	-14840
क्षकों	-14841
▁batch	-14842
▁जापान	-14843
▁ढांचा	-14844
oubtedly	-14845
▁Primary	-14846
▁doctors	-14847
▁emergency	-14848
िथ	-14849
्द	-14850
▁ड़	-14851
AGAR	-14852
pled	-14853
▁Sud	-14854
▁Army	-14855
▁Debt	-14856
▁एनआई	-14857
ceived	-14858
▁कवायद	-14859
▁तलाशी	-14860
▁सुशील	-14861
▁स्टाफ	-14862
▁Sardar	-14863
▁acquire	-14864
▁exactly	-14865
▁अत्यन्त	-14866
▁मुकदमों	-14867
▁testator	-14868
ographical	-14869
▁expansion	-14870
▁injustice	-14871
▁cognizable	-14872
▁personally	-14873
▁Ku	-14874
atti	-14875
omic	-14876
▁Jos	-14877
▁PIL	-14878
oning	-14879
▁zone	-14880
▁relate	-14881
▁Customs	-14882
▁journal	-14883
▁बिंदुओं	-14884
▁राजभाषा	-14885
ropolitan	-14886
▁प्रतिभूत	-14887
▁किलोग्राम	-14888
फ़र	-14889
▁नल	-14890
▁Ans	-14891
▁सोल	-14892
▁नज़र	-14893
▁लौटा	-14894
▁skill	-14895
▁उपाधि	-14896
▁jointly	-14897
▁केंद्रों	-14898
▁दोषपूर्ण	-14899
▁पासपोर्ट	-14900
ogue	-14901
▁Mas	-14902
▁Sidd	-14903
▁empower	-14904
▁password	-14905
▁trademark	-14906
▁hat	-14907
▁इलाके	-14908
▁सेंटर	-14909
▁सैन्य	-14910
▁बांग्ला	-14911
▁dimension	-14912
▁temperature	-14913
झा	-14914
▁Ha	-14915
▁बम	-14916
vast	-14917
▁दुःख	-14918
▁incumb	-14919
▁thrown	-14920
▁pressed	-14921
▁परिप्रेक्ष्य	-14922
izon	-14923
ीर्ण	-14924
▁vir	-14925
▁दाग	-14926
▁नास	-14927
▁Note	-14928
▁चावल	-14929
▁सीखी	-14930
▁recip	-14931
▁Divine	-14932
▁alleging	-14933
▁सहानुभूति	-14934
▁प्रतिष्ठान	-14935
▁UT	-14936
▁घो	-14937
▁अमी	-14938
▁बैच	-14939
▁कट्ट	-14940
▁पाइप	-14941
▁फोरम	-14942
roleum	-14943
▁coast	-14944
▁पट्टा	-14945
▁मसौदा	-14946
▁imagination	-14947
▁apprehension	-14948
२१	-14949
वंत	-14950
▁पोजी	-14951
▁Advis	-14952
▁config	-14953
▁ritual	-14954
▁seemed	-14955
▁उद्यान	-14956
▁कागजात	-14957
▁सार्वभौ	-14958
▁instances	-14959
▁conference	-14960
icon	-14961
▁APP	-14962
▁नाल	-14963
▁talking	-14964
▁declined	-14965
▁प्रशिक्षित	-14966
▁liabilities	-14967
OT	-14968
्रू	-14969
rows	-14970
▁Tue	-14971
▁खपत	-14972
▁conj	-14973
▁inev	-14974
▁पड़ती	-14975
▁मुझसे	-14976
▁लगाते	-14977
▁हार्ड	-14978
▁Sushil	-14979
▁इंतजार	-14980
▁Kishore	-14981
▁हानिकारक	-14982
LR	-14983
गोलिक	-14984
▁Jail	-14985
▁Shuk	-14986
▁unex	-14987
▁साहब	-14988
ashing	-14989
cience	-14990
▁sweet	-14991
▁ट्यूब	-14992
▁alcohol	-14993
▁outcome	-14994
ERE	-14995
▁hyd	-14996
▁blank	-14997
▁Vigilance	-14998
▁movements	-14999
▁conversation	-15000
▁ऑपर	-15001
▁Point	-15002
▁tissue	-15003
ार्थियों	-15004
▁Statute	-15005
▁replace	-15006
▁routine	-15007
▁Accounts	-15008
▁installation	-15009
▁La	-15010
omach	-15011
▁चाचा	-15012
▁सुलह	-15013
▁दशकों	-15014
▁वादों	-15015
▁संभोग	-15016
▁myself	-15017
▁संभावनाओं	-15018
▁kg	-15019
▁Bag	-15020
▁Dam	-15021
▁नस्ल	-15022
▁बोलते	-15023
▁शिल्प	-15024
▁समर्पण	-15025
▁convert	-15026
▁enabled	-15027
▁Industry	-15028
▁murdered	-15029
oman	-15030
▁KAR	-15031
▁bears	-15032
▁दिखाए	-15033
तापूर्वक	-15034
▁tenants	-15035
▁वस्तुएं	-15036
▁correctly	-15037
▁eyewitness	-15038
▁corroboration	-15039
▁CE	-15040
anka	-15041
▁Kir	-15042
▁Vid	-15043
▁एसआई	-15044
▁incap	-15045
▁पशुओं	-15046
▁constr	-15047
▁मुख्या	-15048
▁Housing	-15049
▁receipts	-15050
▁organised	-15051
ईसी	-15052
गांव	-15053
▁Fac	-15054
▁deny	-15055
▁gate	-15056
▁एसपी	-15057
▁सीखने	-15058
▁संकीर्ण	-15059
▁friendship	-15060
हाई	-15061
amed	-15062
▁आधा	-15063
▁Vide	-15064
▁नायक	-15065
▁मुहर	-15066
▁मेरिट	-15067
▁शानदार	-15068
▁भौगोलिक	-15069
▁विस्फोट	-15070
▁compelled	-15071
ohan	-15072
onal	-15073
oria	-15074
▁भाष	-15075
ODUCT	-15076
ulous	-15077
▁Gold	-15078
▁द्वि	-15079
▁माला	-15080
▁सुधारने	-15081
▁resolved	-15082
▁प्रतिनिय	-15083
▁governments	-15084
vol	-15085
▁Cur	-15086
▁AGED	-15087
akrish	-15088
▁Estate	-15089
icipality	-15090
▁Provision	-15091
▁beneficial	-15092
वण	-15093
▁Ear	-15094
▁Inn	-15095
▁नोस	-15096
संचार	-15097
employ	-15098
▁Exper	-15099
▁छोड़ा	-15100
uestion	-15101
▁renewal	-15102
▁Marriage	-15103
▁influenced	-15104
▁पेट्रोलियम	-15105
ALL	-15106
▁Ji	-15107
▁छू	-15108
ithm	-15109
बंदी	-15110
्किक	-15111
▁धान	-15112
▁अधिव	-15113
▁erred	-15114
▁newly	-15115
▁निंदा	-15116
▁वरीयता	-15117
▁faculty	-15118
▁मौजूदगी	-15119
▁centuries	-15120
▁corruption	-15121
rh	-15122
लास	-15123
▁क्	-15124
rier	-15125
▁आरटी	-15126
▁स्वप	-15127
▁patent	-15128
▁प्रपत्र	-15129
▁ईमानदारी	-15130
▁implicated	-15131
▁पाठ्यक्रमों	-15132
ese	-15133
देह	-15134
▁Bangl	-15135
▁विनोद	-15136
▁Annual	-15137
▁कर्मियों	-15138
▁dedicated	-15139
▁पुनरावृत्ति	-15140
ार्द	-15141
िक्र	-15142
▁Mir	-15143
▁sla	-15144
▁औषध	-15145
▁tune	-15146
▁लगते	-15147
▁मैट्र	-15148
▁Select	-15149
▁टिप्पण	-15150
थन	-15151
ोज़	-15152
▁du	-15153
▁rub	-15154
isputed	-15155
▁Afghan	-15156
▁समेकित	-15157
▁संशोधनों	-15158
.00	-15159
▁फस	-15160
▁Deed	-15161
▁बदला	-15162
▁भक्त	-15163
▁लंदन	-15164
▁संदेय	-15165
▁ancest	-15166
▁manage	-15167
▁revers	-15168
▁दीवानी	-15169
▁गड़बड़ी	-15170
▁Statement	-15171
▁यात्रियों	-15172
▁Educational	-15173
▁organisations	-15174
▁Notwithstanding	-15175
बली	-15176
▁उतनी	-15177
▁twice	-15178
▁कैंसर	-15179
▁lawful	-15180
▁रिमांड	-15181
▁Despite	-15182
▁निर्वाह	-15183
▁improved	-15184
▁confusion	-15185
▁subsection	-15186
▁prohibition	-15187
▁provisional	-15188
िच	-15189
▁घोर	-15190
oples	-15191
▁Conc	-15192
▁Term	-15193
▁डॉलर	-15194
riages	-15195
▁dance	-15196
▁अभिगम	-15197
▁defeat	-15198
▁घनिष्ठ	-15199
▁नवीकरण	-15200
▁सेक्शन	-15201
▁Related	-15202
▁Something	-15203
▁dangerous	-15204
▁daughters	-15205
▁membership	-15206
ML	-15207
प्रद	-15208
▁isol	-15209
engers	-15210
▁fifth	-15211
▁पोजीशन	-15212
▁उत्तरदायित्व	-15213
शोथ	-15214
wara	-15215
▁jew	-15216
▁अमरीकी	-15217
▁तत्त्व	-15218
▁billion	-15219
▁directory	-15220
norm	-15221
्रीज	-15222
▁Lic	-15223
▁Pas	-15224
▁dog	-15225
▁syn	-15226
▁ऑटो	-15227
▁Liqu	-15228
▁काल्प	-15229
▁खंडों	-15230
▁मानवता	-15231
▁everyone	-15232
▁investigate	-15233
ेब	-15234
VAT	-15235
▁मरी	-15236
empted	-15237
▁horse	-15238
▁kumar	-15239
▁sanct	-15240
▁seeds	-15241
▁पड़ोस	-15242
▁cattle	-15243
▁जर्मनी	-15244
▁रिजर्व	-15245
▁emerged	-15246
▁confirmation	-15247
हारी	-15248
▁UGC	-15249
apping	-15250
▁शिक्षित	-15251
्रीट	-15252
▁mos	-15253
▁tur	-15254
▁नक्	-15255
▁deem	-15256
▁Local	-15257
▁doesn	-15258
▁saved	-15259
▁बढ़ता	-15260
▁मिसाल	-15261
▁वकालत	-15262
▁Defence	-15263
▁पार्श्व	-15264
▁फ़ोल्डर	-15265
▁attacked	-15266
▁examples	-15267
▁monetary	-15268
▁thorough	-15269
PF	-15270
▁स्ने	-15271
▁glass	-15272
▁French	-15273
▁Israeli	-15274
▁younger	-15275
▁suddenly	-15276
▁assessing	-15277
▁deliberately	-15278
▁irregularity	-15279
▁presentation	-15280
rum	-15281
सास	-15282
द्दी	-15283
▁गुम	-15284
▁जबरन	-15285
▁hotel	-15286
▁बिस्त	-15287
▁Without	-15288
▁travell	-15289
▁पूर्णता	-15290
▁restrict	-15291
▁initiation	-15292
▁irrigation	-15293
▁सतत	-15294
▁स्न	-15295
▁Shar	-15296
▁fuel	-15297
▁thumb	-15298
▁Rakesh	-15299
▁cancel	-15300
▁margin	-15301
▁दूरस्थ	-15302
▁सड़कों	-15303
▁combined	-15304
ावर	-15305
▁बृ	-15306
icus	-15307
▁जाएँ	-15308
▁बेहद	-15309
▁quasi	-15310
▁आंखों	-15311
▁यातना	-15312
▁earning	-15313
▁newspapers	-15314
oop	-15315
रीश	-15316
▁Ser	-15317
▁दांत	-15318
▁दोनो	-15319
▁बोतल	-15320
▁काटने	-15321
▁अभिप्र	-15322
▁assured	-15323
▁killing	-15324
ीट	-15325
heb	-15326
दनी	-15327
▁NIT	-15328
▁मंग	-15329
स्राव	-15330
amount	-15331
▁gather	-15332
▁speaks	-15333
▁परिपक्व	-15334
▁भावनाओं	-15335
▁महाभारत	-15336
▁affirmed	-15337
▁Constitutional	-15338
▁दौड़	-15339
▁गर्मी	-15340
▁analog	-15341
▁formulated	-15342
HC	-15343
RICT	-15344
▁SHO	-15345
▁एनडी	-15346
▁कहकर	-15347
▁बनना	-15348
▁mixed	-15349
▁सुलझा	-15350
▁उत्पादक	-15351
rad	-15352
▁लाह	-15353
hemat	-15354
▁गर्व	-15355
▁Shyam	-15356
▁रोशनी	-15357
▁किरायेदारी	-15358
मोहन	-15359
▁Dub	-15360
▁mir	-15361
▁माय	-15362
▁Know	-15363
▁साहू	-15364
onance	-15365
कलापों	-15366
र्तनीय	-15367
▁Found	-15368
▁disbel	-15369
▁mountain	-15370
▁verified	-15371
▁प्रभार्य	-15372
▁उधारकर्ता	-15373
▁comparison	-15374
▁न्	-15375
िश्र	-15376
▁Mor	-15377
▁Web	-15378
▁मेघ	-15379
▁load	-15380
▁Issue	-15381
▁इस्ती	-15382
ruction	-15383
▁driven	-15384
ेस	-15385
▁UK	-15386
ेडकर	-15387
▁पवन	-15388
▁बडी	-15389
▁poly	-15390
▁आएगा	-15391
▁विकि	-15392
▁catch	-15393
▁tract	-15394
ressing	-15395
▁BENGAL	-15396
▁Whereas	-15397
▁rendering	-15398
▁contravention	-15399
ugh	-15400
सेट	-15401
▁gap	-15402
▁ग्ल	-15403
▁पुल	-15404
▁माध	-15405
▁उकसा	-15406
▁पचास	-15407
▁poets	-15408
▁tested	-15409
▁उन्होने	-15410
▁किन्हीं	-15411
▁सशस्त्र	-15412
▁अंब	-15413
▁डाउ	-15414
▁नाज	-15415
▁पिट	-15416
▁सर्	-15417
▁ring	-15418
▁कृति	-15419
▁guide	-15420
▁reass	-15421
▁सवालों	-15422
yl	-15423
alam	-15424
cher	-15425
▁Wind	-15426
▁संस्	-15427
enders	-15428
▁फैक्ट	-15429
▁Discipl	-15430
▁prohibited	-15431
ECT	-15432
ांप	-15433
▁beg	-15434
▁खटखट	-15435
▁गहरे	-15436
▁देनी	-15437
▁मिश्रण	-15438
▁suspect	-15439
▁रिकार्ड	-15440
[...]
