<unk>	0
<s>	0
</s>	0
UuRrLl	0
DdAaTtEe	0
NnUuMm	0
▁क	-0
▁t	-1
he	-2
▁a	-3
▁स	-4
in	-5
▁,	-6
▁ह	-7
▁o	-8
▁the	-9
▁प	-10
re	-11
▁म	-12
▁.	-13
्र	-14
on	-15
er	-16
▁s	-17
at	-18
▁के	-19
ार	-20
en	-21
या	-22
is	-23
▁अ	-24
▁of	-25
nd	-26
▁w	-27
▁व	-28
▁है	-29
▁c	-30
it	-31
ें	-32
▁न	-33
ed	-34
▁ज	-35
▁p	-36
▁b	-37
an	-38
al	-39
es	-40
ar	-41
▁।	-42
or	-43
▁in	-44
र्	-45
▁f	-46
▁द	-47
▁ब	-48
ion	-49
ों	-50
▁में	-51
ता	-52
्य	-53
ing	-54
▁उ	-55
ou	-56
▁to	-57
▁र	-58
▁ल	-59
▁and	-60
as	-61
▁m	-62
▁d	-63
ान	-64
ic	-65
▁प्र	-66
िक	-67
▁की	-68
▁कि	-69
▁h	-70
▁औ	-71
▁आ	-72
ent	-73
▁और	-74
ने	-75
▁को	-76
्त	-77
▁त	-78
le	-79
▁कर	-80
▁ग	-81
▁-	-82
ित	-83
ro	-84
▁th	-85
▁से	-86
▁का	-87
▁भ	-88
▁S	-89
ct	-90
▁re	-91
ना	-92
▁इ	-93
▁T	-94
▁n	-95
▁ए	-96
▁I	-97
्व	-98
os	-99
▁A	-100
▁be	-101
▁पर	-102
▁e	-103
il	-104
om	-105
▁वि	-106
▁श	-107
▁य	-108
▁l	-109
▁is	-110
ve	-111
▁सं	-112
ation	-113
us	-114
▁C	-115
िए	-116
था	-117
▁हो	-118
▁)	-119
ot	-120
▁(	-121
ut	-122
िय	-123
ce	-124
id	-125
ाल	-126
am	-127
ap	-128
ad	-129
ur	-130
्ष	-131
▁च	-132
▁P	-133
im	-134
▁इस	-135
▁g	-136
▁&	-137
्या	-138
्ट	-139
ति	-140
▁for	-141
ly	-142
ही	-143
▁एक	-144
▁M	-145
et	-146
▁on	-147
▁that	-148
ाम	-149
▁हैं	-150
▁लिए	-151
▁The	-152
न्	-153
▁जा	-154
▁सम	-155
ment	-156
वा	-157
ol	-158
ch	-159
ver	-160
ri	-161
ay	-162
▁B	-163
▁as	-164
ती	-165
▁नि	-166
el	-167
के	-168
st	-169
हा	-170
स्	-171
ते	-172
ir	-173
▁अप	-174
ow	-175
her	-176
▁R	-177
▁con	-178
▁wh	-179
▁pro	-180
िया	-181
ul	-182
▁or	-183
क्ष	-184
हीं	-185
ड़	-186
▁ने	-187
▁अन	-188
सी	-189
▁st	-190
त्र	-191
apos	-192
▁रा	-193
▁an	-194
▁या	-195
▁किया	-196
ra	-197
ेश	-198
िल	-199
▁अध	-200
▁D	-201
▁यह	-202
▁by	-203
ate	-204
ारा	-205
▁नहीं	-206
ith	-207
▁de	-208
▁u	-209
▁al	-210
ter	-211
▁su	-212
▁was	-213
▁H	-214
▁it	-215
से	-216
ig	-217
ोग	-218
▁भी	-219
▁ख	-220
रा	-221
▁सा	-222
▁with	-223
ab	-224
if	-225
▁he	-226
क्त	-227
ess	-228
नी	-229
ge	-230
ect	-231
री	-232
कार	-233
▁करने	-234
ास	-235
our	-236
res	-237
ist	-238
▁बा	-239
▁G	-240
▁जो	-241
ers	-242
▁not	-243
▁y	-244
▁थ	-245
▁N	-246
and	-247
▁था	-248
ंग	-249
ant	-250
qu	-251
pp	-252
od	-253
ले	-254
ak	-255
ष्ट	-256
िस	-257
▁उस	-258
त्	-259
िन	-260
्री	-261
▁दे	-262
ain	-263
ld	-264
▁फ	-265
▁स्	-266
▁v	-267
का	-268
▁com	-269
ere	-270
▁are	-271
▁कार	-272
▁गया	-273
ला	-274
▁ex	-275
ity	-276
se	-277
um	-278
▁/	-279
▁उप	-280
▁द्व	-281
ियों	-282
ill	-283
iv	-284
op	-285
ाय	-286
ूप	-287
द्	-288
est	-289
▁at	-290
▁मु	-291
की	-292
कर	-293
nt	-294
em	-295
▁हम	-296
▁K	-297
▁सु	-298
▁उन	-299
▁L	-300
rom	-301
▁सक	-302
▁द्वारा	-303
ंध	-304
ci	-305
▁अनु	-306
▁has	-307
▁sh	-308
ich	-309
▁this	-310
▁:	-311
art	-312
▁E	-313
मा	-314
ort	-315
ave	-316
सा	-317
गा	-318
▁W	-319
ore	-320
▁ध	-321
▁हु	-322
ंद	-323
end	-324
ive	-325
ंत	-326
ud	-327
▁कु	-328
▁which	-329
भा	-330
▁O	-331
gh	-332
ूर्	-333
un	-334
ारी	-335
▁from	-336
▁Ind	-337
▁ही	-338
ac	-339
▁ड	-340
▁his	-341
ओं	-342
ure	-343
ाने	-344
▁le	-345
ies	-346
ाह	-347
ia	-348
▁रूप	-349
▁ले	-350
स्त	-351
▁तथा	-352
्च	-353
▁F	-354
▁se	-355
▁निर्	-356
▁In	-357
ther	-358
▁have	-359
ंड	-360
▁अधिक	-361
th	-362
▁राज	-363
all	-364
▁भार	-365
cc	-366
ould	-367
न्ह	-368
वि	-369
▁;	-370
▁स्व	-371
ल्	-372
▁app	-373
ust	-374
▁k	-375
ated	-376
▁ne	-377
देश	-378
ard	-379
▁r	-380
▁ऐ	-381
▁J	-382
▁प्रति	-383
ली	-384
▁तो	-385
ोज	-386
▁व्य	-387
ag	-388
ition	-389
▁साथ	-390
▁वह	-391
▁विश	-392
ुर	-393
▁किसी	-394
▁ch	-395
त्त	-396
▁आप	-397
िव	-398
बंध	-399
▁घ	-400
द्ध	-401
म्	-402
ous	-403
▁प्रा	-404
▁रह	-405
▁अपने	-406
▁ट	-407
▁पह	-408
दी	-409
ice	-410
nder	-411
ind	-412
ब्	-413
धार	-414
ीन	-415
▁वर्	-416
red	-417
▁उन्ह	-418
▁सि	-419
▁जिस	-420
ैं	-421
age	-422
▁न्या	-423
av	-424
so	-425
▁sp	-426
रे	-427
▁भा	-428
▁pl	-429
hi	-430
▁res	-431
ence	-432
ell	-433
▁all	-434
ाना	-435
▁सी	-436
िका	-437
ance	-438
▁वाल	-439
▁comp	-440
ff	-441
ार्	-442
▁वे	-443
igh	-444
खा	-445
▁we	-446
▁wor	-447
▁j	-448
pt	-449
ction	-450
कि	-451
▁you	-452
भी	-453
▁छ	-454
ृत	-455
ary	-456
ome	-457
▁int	-458
▁थी	-459
▁V	-460
▁ad	-461
जी	-462
▁थे	-463
▁ab	-464
▁im	-465
able	-466
▁under	-467
▁'	-468
ear	-469
▁चाह	-470
ियम	-471
▁whe	-472
▁कार्य	-473
दा	-474
योग	-475
रण	-476
▁U	-477
▁दिया	-478
oc	-479
ंच	-480
▁तक	-481
ount	-482
ry	-483
ase	-484
rou	-485
लय	-486
ष्	-487
▁can	-488
प्त	-489
▁पी	-490
क्ति	-491
ans	-492
▁cont	-493
▁मा	-494
▁so	-495
▁been	-496
ish	-497
▁?	-498
▁क्ष	-499
में	-500
▁had	-501
िर	-502
▁any	-503
▁India	-504
ame	-505
over	-506
▁Th	-507
▁स्थ	-508
स्थ	-509
ong	-510
▁दो	-511
ारे	-512
ep	-513
▁पु	-514
ical	-515
ourt	-516
▁dis	-517
▁जाता	-518
▁श्री	-519
▁us	-520
▁per	-521
ुत	-522
▁also	-523
▁कोई	-524
▁It	-525
ंत्र	-526
▁भारत	-527
गी	-528
▁other	-529
कर्	-530
▁there	-531
ru	-532
ult	-533
▁मह	-534
द्य	-535
▁St	-536
दि	-537
ast	-538
▁पा	-539
▁en	-540
▁अव	-541
ूल	-542
क्र	-543
▁सर	-544
pl	-545
चार	-546
रो	-547
▁ला	-548
og	-549
ions	-550
per	-551
▁acc	-552
▁मे	-553
▁ag	-554
िश	-555
▁साम	-556
▁करना	-557
ide	-558
▁un	-559
▁me	-560
▁जब	-561
ial	-562
ढ़	-563
मान	-564
out	-565
▁राष्ट	-566
च्च	-567
्यों	-568
▁inc	-569
du	-570
▁sub	-571
▁their	-572
▁part	-573
▁कुछ	-574
▁were	-575
▁Ch	-576
नों	-577
▁न्याया	-578
वे	-579
ost	-580
▁बह	-581
▁one	-582
▁its	-583
ub	-584
▁सकता	-585
▁who	-586
गे	-587
ok	-588
जा	-589
▁अभ	-590
▁कहा	-591
पा	-592
▁गई	-593
lic	-594
ik	-595
itt	-596
ie	-597
▁man	-598
▁संबंध	-599
▁“	-600
्रे	-601
ord	-602
ire	-603
▁बी	-604
▁will	-605
orm	-606
▁Sh	-607
्ञ	-608
▁ar	-609
act	-610
ime	-611
ations	-612
▁जी	-613
क्	-614
iz	-615
ang	-616
▁हुए	-617
्रा	-618
▁विक	-619
ib	-620
▁होता	-621
▁माम	-622
▁मैं	-623
▁cl	-624
▁up	-625
ine	-626
vel	-627
overn	-628
aid	-629
▁पूर्	-630
▁बाद	-631
ade	-632
▁He	-633
▁दू	-634
▁मान	-635
▁do	-636
▁”	-637
▁सू	-638
ेत्र	-639
▁out	-640
▁बना	-641
न्न	-642
▁अन्य	-643
ail	-644
▁tr	-645
▁समय	-646
▁गए	-647
▁but	-648
कर्ता	-649
िला	-650
▁जै	-651
▁imp	-652
sion	-653
aw	-654
▁करते	-655
are	-656
▁इन	-657
▁पू	-658
ection	-659
ah	-660
पी	-661
ond	-662
▁%	-663
्छ	-664
▁no	-665
र्थ	-666
ght	-667
ned	-668
ोंने	-669
▁Court	-670
धान	-671
ec	-672
न्द	-673
ील	-674
▁कम	-675
▁क्षेत्र	-676
aj	-677
ोट	-678
ach	-679
िप	-680
▁such	-681
ood	-682
गर	-683
ये	-684
▁उनके	-685
ident	-686
वी	-687
one	-688
▁सरकार	-689
▁prov	-690
ue	-691
erv	-692
▁तर	-693
ass	-694
▁ev	-695
ose	-696
▁they	-697
हां	-698
▁ओ	-699
▁am	-700
ian	-701
ual	-702
ight	-703
▁दी	-704
▁rel	-705
▁करता	-706
cial	-707
ंब	-708
ric	-709
▁year	-710
▁comm	-711
धि	-712
▁वा	-713
aus	-714
rit	-715
▁अपनी	-716
▁0	-717
कों	-718
▁राज्य	-719
र्म	-720
ree	-721
▁Com	-722
▁off	-723
▁rec	-724
ेष	-725
ution	-726
▁qu	-727
क्षा	-728
very	-729
fter	-730
िट	-731
▁ind	-732
▁न्यायालय	-733
िम	-734
वन	-735
ानी	-736
ake	-737
▁him	-738
▁अंत	-739
overnment	-740
ress	-741
▁सह	-742
ber	-743
▁उसके	-744
▁जाए	-745
ुक्त	-746
erson	-747
▁उन्होंने	-748
▁परि	-749
ace	-750
▁चाहिए	-751
च्छ	-752
▁रहे	-753
▁गु	-754
ater	-755
ath	-756
दन	-757
ंक	-758
ोक	-759
▁रहा	-760
पूर्	-761
▁होने	-762
▁them	-763
▁उत्	-764
▁लोग	-765
▁cons	-766
ory	-767
▁As	-768
form	-769
दान	-770
fore	-771
ee	-772
▁may	-773
▁रख	-774
स्था	-775
▁time	-776
▁resp	-777
र्श	-778
▁pe	-779
▁pre	-780
▁वर्ष	-781
▁reg	-782
▁राष्ट्र	-783
▁our	-784
स्ता	-785
त्य	-786
भाव	-787
int	-788
hed	-789
▁मिल	-790
ुल	-791
ौर	-792
stit	-793
ज़	-794
ied	-795
चना	-796
▁देश	-797
▁वाले	-798
▁case	-799
▁प्राप्त	-800
▁हि	-801
ज्ञ	-802
now	-803
▁अनुस	-804
▁सब	-805
ious	-806
▁विश्व	-807
ove	-808
▁would	-809
▁person	-810
्रीय	-811
श्य	-812
ings	-813
▁शिक	-814
▁सभी	-815
▁तरह	-816
ational	-817
▁This	-818
ेल	-819
्म	-820
▁किए	-821
िति	-822
▁बात	-823
ड़ा	-824
▁tw	-825
धिक	-826
▁Y	-827
▁कारण	-828
▁her	-829
▁समा	-830
जन	-831
▁आय	-832
गत	-833
ces	-834
▁बहुत	-835
करण	-836
▁work	-837
der	-838
▁Act	-839
rib	-840
▁rep	-841
ities	-842
को	-843
ध्य	-844
▁जि	-845
amp	-846
ack	-847
ign	-848
ip	-849
ank	-850
▁करें	-851
ंप	-852
तीय	-853
▁बन	-854
ments	-855
▁अधिन	-856
▁dec	-857
▁जाने	-858
▁only	-859
्ल	-860
▁प्रकार	-861
▁चु	-862
▁पहले	-863
ून	-864
पति	-865
low	-866
▁made	-867
ंह	-868
▁इसके	-869
ड़ी	-870
▁व्यक्ति	-871
▁about	-872
▁said	-873
िख	-874
▁bec	-875
▁pres	-876
▁अधिनियम	-877
▁उसे	-878
iff	-879
ound	-880
▁ass	-881
▁उन्हें	-882
▁लग	-883
▁pol	-884
ile	-885
ike	-886
ject	-887
ause	-888
▁te	-889
▁em	-890
नि	-891
etition	-892
▁ऊ	-893
टी	-894
▁आव	-895
हर	-896
oy	-897
किन	-898
tern	-899
▁should	-900
▁po	-901
ens	-902
ople	-903
mis	-904
हत	-905
▁देख	-906
▁याच	-907
▁more	-908
ness	-909
▁if	-910
▁ना	-911
ोल	-912
ash	-913
बा	-914
ates	-915
ग्र	-916
▁लेकिन	-917
ark	-918
▁मामले	-919
▁होगा	-920
पूर्ण	-921
▁when	-922
ays	-923
▁हुआ	-924
ild	-925
▁होती	-926
▁नाम	-927
▁pr	-928
एं	-929
ific	-930
ite	-931
▁कह	-932
वल	-933
▁जन	-934
▁Mr	-935
reat	-936
▁into	-937
ीय	-938
▁some	-939
▁over	-940
▁बि	-941
त्म	-942
▁ऐसे	-943
▁बे	-944
elf	-945
▁भारतीय	-946
velop	-947
me	-948
▁याचिका	-949
वं	-950
▁know	-951
▁ri	-952
▁प्रश	-953
▁sc	-954
▁De	-955
ूम	-956
▁count	-957
▁An	-958
▁व्या	-959
ced	-960
र्ट	-961
ingh	-962
▁दु	-963
▁State	-964
र्त	-965
चित	-966
ha	-967
ड़े	-968
▁मूल	-969
ram	-970
▁act	-971
ise	-972
▁exp	-973
pe	-974
▁two	-975
ife	-976
▁पूर्व	-977
ered	-978
▁ob	-979
ased	-980
वाद	-981
▁people	-982
ert	-983
cess	-984
▁उत्त	-985
▁Con	-986
श्च	-987
▁विकास	-988
▁दूस	-989
▁Government	-990
ां	-991
ook	-992
▁मुख	-993
▁these	-994
▁like	-995
▁काम	-996
oun	-997
र्व	-998
▁सकते	-999
▁आधार	-1000
▁विचार	-1001
▁अस	-1002
▁विशेष	-1003
िता	-1004
ष्ठ	-1005
▁सिंह	-1006
▁Al	-1007
द्योग	-1008
▁यदि	-1009
▁new	-1010
▁after	-1011
माण	-1012
▁क्या	-1013
▁Bh	-1014
lect	-1015
▁form	-1016
▁राष्ट्रपति	-1017
▁अधिकार	-1018
▁ac	-1019
▁जान	-1020
▁fir	-1021
▁पै	-1022
▁ent	-1023
▁निय	-1024
▁एवं	-1025
▁ता	-1026
▁Pro	-1027
▁ग्र	-1028
▁ro	-1029
्स	-1030
▁Pr	-1031
ating	-1032
▁ref	-1033
▁Su	-1034
▁उच्च	-1035
▁again	-1036
erm	-1037
▁Singh	-1038
मे	-1039
ोर	-1040
▁नी	-1041
ोजना	-1042
्यू	-1043
श्यक	-1044
▁धारा	-1045
▁where	-1046
ward	-1047
▁go	-1048
धा	-1049
▁क्र	-1050
▁being	-1051
ren	-1052
दार	-1053
led	-1054
wn	-1055
▁अपील	-1056
▁Ex	-1057
▁No	-1058
▁inv	-1059
▁att	-1060
▁your	-1061
▁परिव	-1062
arm	-1063
ative	-1064
▁बारे	-1065
▁shall	-1066
▁ऐसा	-1067
िंग	-1068
▁उनकी	-1069
▁bet	-1070
▁आवश्यक	-1071
▁Un	-1072
▁ई	-1073
ंट	-1074
▁आर	-1075
त्व	-1076
ख्या	-1077
een	-1078
ाली	-1079
▁ओर	-1080
▁स्था	-1081
तिक	-1082
िये	-1083
ूर	-1084
कृत	-1085
▁समझ	-1086
rough	-1087
▁क्यों	-1088
ision	-1089
eg	-1090
uth	-1091
ally	-1092
ublic	-1093
मी	-1094
धी	-1095
ents	-1096
▁पार	-1097
▁sy	-1098
▁trans	-1099
mitt	-1100
▁lear	-1101
▁petition	-1102
्ड	-1103
क्रम	-1104
▁हू	-1105
▁Indian	-1106
▁मृत	-1107
▁केवल	-1108
ors	-1109
▁सम्	-1110
वाह	-1111
ार्थ	-1112
▁pos	-1113
uring	-1114
रिक	-1115
▁सेवा	-1116
old	-1117
मार	-1118
▁निक	-1119
ंस	-1120
▁वै	-1121
▁fe	-1122
▁बढ़	-1123
ty	-1124
▁On	-1125
▁रु	-1126
▁जाती	-1127
▁भाग	-1128
लू	-1129
ular	-1130
ener	-1131
वर्	-1132
ef	-1133
▁अब	-1134
सर	-1135
ari	-1136
▁rem	-1137
▁than	-1138
ुद्ध	-1139
टा	-1140
यी	-1141
▁before	-1142
▁स्त	-1143
▁लोगों	-1144
cy	-1145
क्षण	-1146
ict	-1147
▁ऐसी	-1148
▁diff	-1149
ov	-1150
▁through	-1151
▁अल	-1152
ास्त	-1153
षण	-1154
aint	-1155
ower	-1156
▁मन	-1157
▁हुई	-1158
vers	-1159
ax	-1160
लों	-1161
▁Ad	-1162
झे	-1163
▁शिक्ष	-1164
▁ठ	-1165
ism	-1166
▁’	-1167
uc	-1168
used	-1169
▁develop	-1170
▁पास	-1171
▁एस	-1172
▁फिर	-1173
▁first	-1174
पर	-1175
▁दिन	-1176
▁सद	-1177
▁हमारे	-1178
▁जाना	-1179
शन	-1180
▁my	-1181
▁produ	-1182
▁ये	-1183
▁बीच	-1184
▁जैसे	-1185
▁नियम	-1186
▁There	-1187
▁des	-1188
▁def	-1189
▁eff	-1190
▁जीवन	-1191
न्त	-1192
its	-1193
row	-1194
▁बार	-1195
धन	-1196
ons	-1197
esh	-1198
▁We	-1199
ati	-1200
चा	-1201
▁i	-1202
▁years	-1203
▁स्प	-1204
▁कृ	-1205
िन्न	-1206
pos	-1207
▁tak	-1208
▁सो	-1209
▁जिसमें	-1210
▁right	-1211
ियां	-1212
▁order	-1213
▁serv	-1214
▁लगा	-1215
▁sec	-1216
▁उपयोग	-1217
lud	-1218
▁state	-1219
▁याचिकाकर्ता	-1220
ning	-1221
li	-1222
cept	-1223
दे	-1224
ेक	-1225
hy	-1226
हाय	-1227
▁giv	-1228
पित	-1229
▁अनुसार	-1230
हित	-1231
▁could	-1232
वादी	-1233
▁set	-1234
▁But	-1235
▁मौ	-1236
लिए	-1237
▁तु	-1238
कृ	-1239
oth	-1240
▁रही	-1241
other	-1242
▁law	-1243
▁तहत	-1244
ature	-1245
ob	-1246
ाइ	-1247
gan	-1248
▁व्यव	-1249
कारी	-1250
▁pur	-1251
▁And	-1252
▁देने	-1253
▁प्रदान	-1254
ract	-1255
als	-1256
▁आरो	-1257
▁So	-1258
तर	-1259
ible	-1260
▁ra	-1261
ble	-1262
any	-1263
▁col	-1264
ited	-1265
द्र	-1266
ची	-1267
▁निर्धार	-1268
mission	-1269
ility	-1270
te	-1271
▁होते	-1272
▁सहाय	-1273
षा	-1274
▁same	-1275
quot	-1276
▁दि	-1277
▁मुझे	-1278
्यालय	-1279
▁पक्ष	-1280
▁इसलिए	-1281
▁अधीन	-1282
▁उत्तर	-1283
बर	-1284
▁life	-1285
ink	-1286
▁cent	-1287
ural	-1288
प्र	-1289
▁well	-1290
▁fact	-1291
ful	-1292
olog	-1293
▁Pres	-1294
ताओं	-1295
▁पीड	-1296
ेत	-1297
ोजन	-1298
rap	-1299
क्रिया	-1300
und	-1301
▁कंप	-1302
ft	-1303
▁चल	-1304
▁आदेश	-1305
▁लिया	-1306
▁mem	-1307
▁जिन	-1308
▁she	-1309
iew	-1310
▁op	-1311
ouse	-1312
▁very	-1313
्न	-1314
▁पुर	-1315
▁country	-1316
▁requ	-1317
▁दा	-1318
▁mat	-1319
ange	-1320
▁ins	-1321
निक	-1322
irect	-1323
stem	-1324
ants	-1325
▁स्ट	-1326
han	-1327
▁what	-1328
inal	-1329
यन	-1330
▁उत्पा	-1331
टना	-1332
▁call	-1333
▁क्योंकि	-1334
ंभ	-1335
▁then	-1336
ाला	-1337
gt	-1338
▁दृ	-1339
ween	-1340
▁fol	-1341
▁प्रयोग	-1342
▁even	-1343
▁खा	-1344
ral	-1345
बी	-1346
हार	-1347
▁Ram	-1348
▁पत्र	-1349
▁दोनों	-1350
▁against	-1351
▁मो	-1352
ल्प	-1353
own	-1354
▁‘	-1355
्यान	-1356
ute	-1357
▁ऑ	-1358
ided	-1359
एस	-1360
hen	-1361
▁char	-1362
▁dist	-1363
ंबर	-1364
▁between	-1365
स्ट	-1366
▁स्थान	-1367
▁उसकी	-1368
▁जहां	-1369
मु	-1370
▁ढ	-1371
▁राम	-1372
uthor	-1373
ब्द	-1374
युक्त	-1375
▁supp	-1376
▁झ	-1377
▁bl	-1378
air	-1379
▁En	-1380
फल	-1381
▁कै	-1382
र्क	-1383
▁अथ	-1384
भाग	-1385
▁get	-1386
र्ड	-1387
ंज	-1388
ai	-1389
▁प्रत्य	-1390
▁अपना	-1391
ised	-1392
▁add	-1393
ेज	-1394
▁कान	-1395
▁present	-1396
sel	-1397
दर्श	-1398
▁पीडब्	-1399
ily	-1400
▁वाली	-1401
▁ext	-1402
▁हा	-1403
▁Am	-1404
▁पहु	-1405
▁बो	-1406
ज्ञान	-1407
hip	-1408
▁learned	-1409
▁हों	-1410
round	-1411
▁प्रक्रिया	-1412
ूत	-1413
▁इसे	-1414
▁बता	-1415
rict	-1416
▁need	-1417
▁world	-1418
▁बै	-1419
▁विभ	-1420
ention	-1421
▁प्रभाव	-1422
ough	-1423
▁सकती	-1424
▁President	-1425
▁संबंधित	-1426
टर	-1427
▁num	-1428
▁स्वी	-1429
▁भूम	-1430
con	-1431
▁लोक	-1432
▁must	-1433
▁पद	-1434
तम	-1435
ody	-1436
त्ति	-1437
▁inst	-1438
▁co	-1439
ices	-1440
णी	-1441
▁हर	-1442
▁includ	-1443
ital	-1444
app	-1445
▁Ar	-1446
▁inform	-1447
▁न्याय	-1448
▁Raj	-1449
▁उसने	-1450
▁just	-1451
lt	-1452
▁पर्	-1453
िस्ट	-1454
▁प्रस्त	-1455
▁ed	-1456
णय	-1457
eth	-1458
▁good	-1459
लब्	-1460
तः	-1461
▁conc	-1462
▁सदस	-1463
▁used	-1464
▁jud	-1465
ved	-1466
▁Is	-1467
▁अथवा	-1468
▁संप	-1469
▁अर्	-1470
istr	-1471
▁दौर	-1472
▁बैं	-1473
▁spe	-1474
▁तब	-1475
les	-1476
▁शाम	-1477
▁pass	-1478
▁योजना	-1479
त्ता	-1480
▁accused	-1481
ंद्र	-1482
त्मक	-1483
रों	-1484
हाँ	-1485
मिक	-1486
ामी	-1487
ुक	-1488
ever	-1489
▁उपलब्	-1490
▁iss	-1491
भव	-1492
▁शुर	-1493
ters	-1494
ey	-1495
▁consid	-1496
▁सामान	-1497
▁fur	-1498
▁how	-1499
▁आगे	-1500
▁applic	-1501
stitution	-1502
▁conf	-1503
▁बद	-1504
▁If	-1505
▁पुन	-1506
▁see	-1507
▁many	-1508
▁inf	-1509
ेट	-1510
वेश	-1511
▁गो	-1512
▁system	-1513
फ़	-1514
▁मुख्य	-1515
ven	-1516
▁cap	-1517
पन	-1518
▁होना	-1519
ged	-1520
▁करती	-1521
▁differe	-1522
ix	-1523
▁inter	-1524
▁!	-1525
्वर	-1526
pre	-1527
▁day	-1528
ोर्ट	-1529
▁योग	-1530
▁min	-1531
▁mon	-1532
▁खु	-1533
▁निर्णय	-1534
▁महत्व	-1535
chn	-1536
▁place	-1537
▁राष्ट्रीय	-1538
▁disc	-1539
▁Shri	-1540
▁name	-1541
डी	-1542
▁Hind	-1543
▁own	-1544
ित्र	-1545
▁val	-1546
▁import	-1547
▁सर्व	-1548
▁follow	-1549
ures	-1550
▁पीडब्लू	-1551
ined	-1552
▁स्पष्ट	-1553
▁अति	-1554
ेद	-1555
▁तै	-1556
▁गा	-1557
▁व्यक्त	-1558
दाय	-1559
▁स्थिति	-1560
▁करे	-1561
क्ट	-1562
व्य	-1563
▁शिक्षा	-1564
hes	-1565
▁make	-1566
ple	-1567
त्रा	-1568
▁आई	-1569
▁For	-1570
▁अलग	-1571
ries	-1572
▁सुर	-1573
▁prog	-1574
ोड़	-1575
▁सूचना	-1576
▁उद्	-1577
▁उठ	-1578
गम	-1579
द्योगिक	-1580
▁public	-1581
ेम	-1582
▁दौरान	-1583
▁अर्थ	-1584
▁appell	-1585
▁Kum	-1586
▁व्याप	-1587
▁tra	-1588
▁सके	-1589
▁car	-1590
▁सबसे	-1591
▁अच्छ	-1592
▁child	-1593
काश	-1594
▁संख्या	-1595
ित्व	-1596
▁पश्च	-1597
▁विष	-1598
ffic	-1599
▁उपलब्ध	-1600
oint	-1601
▁प्रस्तुत	-1602
▁वित	-1603
▁fil	-1604
▁did	-1605
▁स्वा	-1606
पाल	-1607
ages	-1608
▁adv	-1609
ew	-1610
▁way	-1611
नीय	-1612
▁sm	-1613
▁जु	-1614
▁hand	-1615
▁found	-1616
ished	-1617
gal	-1618
िल्	-1619
न्द्र	-1620
au	-1621
ination	-1622
▁बच्च	-1623
ained	-1624
▁long	-1625
▁every	-1626
▁अभिय	-1627
शा	-1628
चे	-1629
▁power	-1630
man	-1631
ified	-1632
▁लिख	-1633
iness	-1634
xt	-1635
ेड	-1636
▁मै	-1637
▁occ	-1638
आर	-1639
▁प्रण	-1640
▁शामिल	-1641
ivers	-1642
▁ब्र	-1643
▁वास्त	-1644
▁वृ	-1645
hat	-1646
▁here	-1647
▁&#	-1648
ired	-1649
▁gr	-1650
▁फ़	-1651
▁det	-1652
▁end	-1653
▁हमें	-1654
▁छोट	-1655
▁कुमार	-1656
ुग	-1657
पुर	-1658
ya	-1659
कृति	-1660
िज	-1661
काल	-1662
▁Min	-1663
ष्टि	-1664
▁most	-1665
ather	-1666
ंजी	-1667
▁हूं	-1668
▁court	-1669
▁during	-1670
ared	-1671
ars	-1672
▁lar	-1673
▁जाते	-1674
▁mod	-1675
▁कभी	-1676
▁अंग	-1677
▁gener	-1678
▁Cent	-1679
ock	-1680
▁given	-1681
▁They	-1682
वरण	-1683
arli	-1684
▁section	-1685
▁जाएगा	-1686
erest	-1687
▁घर	-1688
▁Mah	-1689
जे	-1690
▁take	-1691
▁विभिन्न	-1692
▁ret	-1693
ात	-1694
▁माध्य	-1695
iod	-1696
तंत्र	-1697
ety	-1698
uk	-1699
▁जर	-1700
▁because	-1701
▁जारी	-1702
▁land	-1703
har	-1704
वान	-1705
▁now	-1706
bers	-1707
ण्ड	-1708
▁शक्ति	-1709
arch	-1710
हन	-1711
त्या	-1712
▁जांच	-1713
▁कई	-1714
आई	-1715
▁शब्द	-1716
▁PW	-1717
▁वस्त	-1718
▁process	-1719
▁equ	-1720
▁hel	-1721
स्थित	-1722
▁बु	-1723
▁record	-1724
▁writ	-1725
▁respect	-1726
▁पुल	-1727
▁अध्य	-1728
▁author	-1729
ana	-1730
▁av	-1731
▁bu	-1732
ंतु	-1733
▁सहायता	-1734
▁back	-1735
▁अंतर	-1736
स्प	-1737
▁सामान्य	-1738
▁उल्	-1739
▁fam	-1740
▁great	-1741
idence	-1742
▁partic	-1743
▁br	-1744
ale	-1745
not	-1746
▁प्रस	-1747
▁दूसरे	-1748
▁सुन	-1749
▁proper	-1750
▁dem	-1751
ायत	-1752
ेय	-1753
▁जिसे	-1754
mitted	-1755
स्थान	-1756
▁तीन	-1757
▁विषय	-1758
▁petitioner	-1759
▁अगर	-1760
▁account	-1761
gg	-1762
▁fl	-1763
▁तैय	-1764
▁Ben	-1765
▁Man	-1766
▁view	-1767
▁appro	-1768
▁three	-1769
्यु	-1770
▁आज	-1771
▁रिप	-1772
▁period	-1773
ceed	-1774
शि	-1775
▁pay	-1776
मत	-1777
▁poss	-1778
▁विन	-1779
▁ऋ	-1780
वास	-1781
▁उसका	-1782
▁पहुंच	-1783
▁est	-1784
▁विधि	-1785
▁ज्ञ	-1786
▁संग	-1787
फी	-1788
▁वास्तव	-1789
imes	-1790
aking	-1791
▁number	-1792
▁rece	-1793
▁further	-1794
ince	-1795
ासन	-1796
र्ज	-1797
▁respond	-1798
▁term	-1799
conom	-1800
णा	-1801
▁फै	-1802
▁आवे	-1803
▁उनका	-1804
▁organ	-1805
rol	-1806
▁Kumar	-1807
▁ध्यान	-1808
▁taken	-1809
lim	-1810
▁Commission	-1811
▁both	-1812
ick	-1813
alth	-1814
▁स्वीकार	-1815
ted	-1816
ploy	-1817
▁पता	-1818
▁interest	-1819
▁मंत्र	-1820
▁अधिकारी	-1821
▁mark	-1822
ality	-1823
way	-1824
▁down	-1825
▁dep	-1826
▁मध्य	-1827
▁जिसके	-1828
▁stud	-1829
nce	-1830
▁भाषा	-1831
na	-1832
▁those	-1833
▁cor	-1834
▁aff	-1835
▁लाभ	-1836
uman	-1837
▁different	-1838
▁महा	-1839
▁Res	-1840
शो	-1841
▁bel	-1842
इट	-1843
▁आदि	-1844
ool	-1845
min	-1846
ting	-1847
▁निर्धारित	-1848
ctions	-1849
▁संघ	-1850
▁पुलिस	-1851
▁cert	-1852
▁does	-1853
ases	-1854
▁help	-1855
▁bus	-1856
▁अपीलकर्ता	-1857
्टी	-1858
uch	-1859
▁वी	-1860
ata	-1861
▁coun	-1862
ros	-1863
▁रिपोर्ट	-1864
isions	-1865
ork	-1866
tic	-1867
ruct	-1868
angu	-1869
▁दर	-1870
मुख	-1871
▁sur	-1872
ारों	-1873
ाई	-1874
up	-1875
▁नंबर	-1876
▁लिये	-1877
aving	-1878
▁use	-1879
▁सिद्ध	-1880
ck	-1881
▁इसका	-1882
▁effect	-1883
▁पूर्ण	-1884
▁indust	-1885
प्	-1886
▁Jud	-1887
▁med	-1888
▁gu	-1889
▁lead	-1890
ament	-1891
गू	-1892
lish	-1893
▁निर्माण	-1894
▁development	-1895
▁educ	-1896
ister	-1897
▁उद	-1898
dition	-1899
▁डी	-1900
ull	-1901
ेशन	-1902
ued	-1903
र्ष	-1904
▁शुरू	-1905
▁जल	-1906
ron	-1907
जू	-1908
▁हाल	-1909
ives	-1910
▁अं	-1911
▁खंड	-1912
▁अवसर	-1913
▁डॉ	-1914
▁जिला	-1915
erred	-1916
▁यहां	-1917
▁वाला	-1918
▁कल	-1919
ics	-1920
ds	-1921
tc	-1922
med	-1923
▁called	-1924
▁dece	-1925
ules	-1926
▁तैयार	-1927
धीश	-1928
ges	-1929
▁रुप	-1930
▁बिना	-1931
द्यालय	-1932
icial	-1933
▁मज	-1934
▁अपरा	-1935
▁बैंक	-1936
▁comple	-1937
▁spec	-1938
▁&#9	-1939
▁report	-1940
read	-1941
▁Dep	-1942
र्भ	-1943
ner	-1944
▁माल	-1945
ुट	-1946
▁bas	-1947
▁You	-1948
▁निष्	-1949
▁जैसा	-1950
▁अने	-1951
▁विभाग	-1952
riv	-1953
तन	-1954
rial	-1955
▁High	-1956
ेर	-1957
लेख	-1958
ology	-1959
▁लागू	-1960
▁let	-1961
get	-1962
▁without	-1963
▁शी	-1964
▁stated	-1965
▁अद	-1966
ency	-1967
ांत	-1968
▁cre	-1969
ph	-1970
ुष	-1971
▁कर्म	-1972
▁घटना	-1973
ended	-1974
यं	-1975
▁>	-1976
वर	-1977
▁वकी	-1978
ists	-1979
▁रो	-1980
ूह	-1981
▁अग	-1982
▁दाय	-1983
▁house	-1984
az	-1985
▁etc	-1986
▁body	-1987
ides	-1988
र्तन	-1989
क्षित	-1990
▁direct	-1991
शी	-1992
▁cle	-1993
▁यू	-1994
▁while	-1995
▁fore	-1996
▁amount	-1997
▁start	-1998
▁econom	-1999
▁कंपनी	-2000
▁कॉ	-2001
▁समु	-2002
▁प्रतिवादी	-2003
▁बाहर	-2004
▁cannot	-2005
ession	-2006
▁opp	-2007
▁quest	-2008
itness	-2009
ोष	-2010
▁deceased	-2011
क्ष्य	-2012
▁शु	-2013
▁var	-2014
ालय	-2015
क्ता	-2016
▁fin	-2017
▁..	-2018
▁सौ	-2019
urn	-2020
▁read	-2021
▁माध्यम	-2022
▁invest	-2023
▁ph	-2024
▁ली	-2025
▁contin	-2026
▁संस	-2027
preme	-2028
.0	-2029
▁पृ	-2030
▁अनेक	-2031
ually	-2032
▁पि	-2033
ived	-2034
▁"	-2035
▁point	-2036
roup	-2037
▁within	-2038
ग्रह	-2039
▁प्रया	-2040
▁प्रत्येक	-2041
▁पूरी	-2042
▁संवि	-2043
▁वकील	-2044
▁संस्	-2045
भग	-2046
▁bro	-2047
ाज	-2048
▁del	-2049
▁Re	-2050
▁दूर	-2051
▁बनाम	-2052
por	-2053
हरी	-2054
ेंगे	-2055
▁loc	-2056
कट	-2057
▁information	-2058
▁commun	-2059
▁चि	-2060
▁regard	-2061
▁water	-2062
▁गये	-2063
▁परी	-2064
▁न्यायाधीश	-2065
ues	-2066
aim	-2067
▁To	-2068
ized	-2069
▁मृतक	-2070
▁आरोपी	-2071
▁Dist	-2072
pect	-2073
▁लगभग	-2074
▁प्रकाश	-2075
▁डि	-2076
▁समान	-2077
▁धर्म	-2078
्यता	-2079
▁आवश्यकता	-2080
stitut	-2081
▁बनाने	-2082
▁होगी	-2083
▁Mus	-2084
▁परिण	-2085
▁ke	-2086
▁वित्त	-2087
▁National	-2088
▁come	-2089
▁sim	-2090
▁विध	-2091
ara	-2092
▁At	-2093
▁came	-2094
▁oper	-2095
सल	-2096
▁समाज	-2097
▁महत्वपूर्ण	-2098
▁प्रो	-2099
ior	-2100
▁संर	-2101
▁upon	-2102
▁उक्त	-2103
▁प्रयास	-2104
▁stand	-2105
▁प्रौ	-2106
arly	-2107
मित	-2108
▁...	-2109
तान	-2110
वार	-2111
▁करके	-2112
शत	-2113
▁उद्योग	-2114
▁नई	-2115
▁str	-2116
▁government	-2117
ala	-2118
▁each	-2119
ूट	-2120
▁मत	-2121
less	-2122
▁beh	-2123
ोन	-2124
iel	-2125
वाल	-2126
▁{	-2127
साय	-2128
▁वस्तु	-2129
rig	-2130
▁techn	-2131
▁reas	-2132
▁ची	-2133
▁रखा	-2134
ES	-2135
▁वर्त	-2136
▁high	-2137
▁आया	-2138
▁स्तर	-2139
irc	-2140
▁Dr	-2141
▁mar	-2142
▁संस्था	-2143
▁exam	-2144
ug	-2145
▁find	-2146
RB	-2147
▁much	-2148
▁Te	-2149
▁}	-2150
▁support	-2151
▁Rs	-2152
▁भूमि	-2153
▁उद्देश	-2154
▁जिन्ह	-2155
lement	-2156
▁langu	-2157
▁देता	-2158
र्इ	-2159
ंदर	-2160
नल	-2161
eal	-2162
▁prev	-2163
▁कार्यक्रम	-2164
▁another	-2165
err	-2166
ording	-2167
▁प्रय	-2168
icy	-2169
▁सीमा	-2170
▁स्क	-2171
▁पर्या	-2172
▁want	-2173
▁निर	-2174
▁सार	-2175
▁employ	-2176
▁प्रबंध	-2177
▁held	-2178
▁संस्थान	-2179
न्तु	-2180
▁witness	-2181
day	-2182
▁appellant	-2183
▁श्र	-2184
▁एम	-2185
▁इसी	-2186
▁मार्	-2187
▁अनुम	-2188
▁लि	-2189
रोध	-2190
▁Sc	-2191
▁avail	-2192
▁बल्	-2193
port	-2194
▁देखा	-2195
▁अपराध	-2196
▁दिखा	-2197
▁आर्थ	-2198
▁wom	-2199
▁विदेश	-2200
▁आपको	-2201
▁अंतर्	-2202
▁Eng	-2203
म्ब	-2204
▁look	-2205
▁पड़	-2206
▁प्रार	-2207
ालन	-2208
▁वर्तमान	-2209
जार	-2210
वाई	-2211
▁Supreme	-2212
▁प्राधिक	-2213
▁All	-2214
ठन	-2215
▁सुप	-2216
▁तथ	-2217
▁means	-2218
▁निर्देश	-2219
▁गै	-2220
द्व	-2221
▁दिए	-2222
▁Or	-2223
▁रोग	-2224
निया	-2225
crib	-2226
af	-2227
▁che	-2228
▁स्थापित	-2229
▁वहां	-2230
▁हमारी	-2231
▁प्रमुख	-2232
here	-2233
▁चौ	-2234
▁show	-2235
▁#	-2236
alf	-2237
▁important	-2238
▁Offic	-2239
▁grow	-2240
artment	-2241
▁एन	-2242
ically	-2243
self	-2244
anch	-2245
▁book	-2246
▁gl	-2247
▁fac	-2248
▁आर्थिक	-2249
▁मृत्यु	-2250
▁प्रतिशत	-2251
▁business	-2252
ines	-2253
▁sect	-2254
▁इससे	-2255
ried	-2256
▁जनता	-2257
▁ती	-2258
rim	-2259
रि	-2260
▁टी	-2261
▁उपबंध	-2262
▁खिला	-2263
ances	-2264
▁हेत	-2265
▁विस्त	-2266
wards	-2267
▁When	-2268
ेन	-2269
▁various	-2270
▁परिणाम	-2271
तों	-2272
▁विद्य	-2273
▁प्रौद्योगिक	-2274
▁How	-2275
▁भर	-2276
blem	-2277
▁भाव	-2278
▁गति	-2279
टक	-2280
▁vis	-2281
▁बैठ	-2282
▁नियंत्र	-2283
▁प्रस्ता	-2284
▁ser	-2285
▁Pol	-2286
▁program	-2287
▁निम्	-2288
eration	-2289
▁She	-2290
स्या	-2291
विद्यालय	-2292
▁देना	-2293
▁small	-2294
▁som	-2295
ought	-2296
षि	-2297
▁ve	-2298
ll	-2299
▁समर्थ	-2300
▁dev	-2301
▁अवधि	-2302
धु	-2303
▁App	-2304
ets	-2305
▁Gu	-2306
pr	-2307
ification	-2308
ंख	-2309
▁अम	-2310
▁डा	-2311
▁इसमें	-2312
▁हेतु	-2313
▁अतिरिक	-2314
▁@	-2315
श्व	-2316
▁Acc	-2317
बन्	-2318
▁ज़	-2319
▁ty	-2320
▁bank	-2321
▁स्वयं	-2322
िष्ट	-2323
▁पूरा	-2324
ret	-2325
▁tem	-2326
▁vill	-2327
▁मामलों	-2328
▁estab	-2329
▁human	-2330
▁मार	-2331
▁शा	-2332
▁शिकायत	-2333
▁matter	-2334
ern	-2335
ष्ण	-2336
▁sent	-2337
▁fun	-2338
chool	-2339
▁प्रस्ताव	-2340
▁मी	-2341
▁gre	-2342
मता	-2343
▁आस	-2344
▁wr	-2345
▁say	-2346
▁assess	-2347
हरा	-2348
▁इत	-2349
▁ट्र	-2350
ator	-2351
▁सभा	-2352
inci	-2353
ering	-2354
▁हाथ	-2355
▁विश्वास	-2356
▁मेरे	-2357
▁sign	-2358
▁संद	-2359
▁कानून	-2360
ोड	-2361
▁prof	-2362
▁social	-2363
ross	-2364
oard	-2365
▁problem	-2366
हास	-2367
▁Sec	-2368
▁evidence	-2369
▁Coun	-2370
▁नीति	-2371
oh	-2372
▁persons	-2373
▁company	-2374
▁appear	-2375
▁राशि	-2376
▁month	-2377
रूप	-2378
ains	-2379
▁allow	-2380
▁last	-2381
ining	-2382
▁Central	-2383
▁क्षेत्रों	-2384
▁अन्त	-2385
▁open	-2386
▁स्वतंत्र	-2387
▁condition	-2388
म्प	-2389
▁तुम	-2390
bit	-2391
▁death	-2392
▁दर्श	-2393
ivil	-2394
▁Rep	-2395
▁समाप्त	-2396
▁आवेदन	-2397
▁rev	-2398
▁post	-2399
दिष्ट	-2400
▁cult	-2401
lam	-2402
▁उत्पाद	-2403
ाया	-2404
▁लेख	-2405
▁result	-2406
▁जग	-2407
▁happ	-2408
▁relig	-2409
▁समस्या	-2410
ury	-2411
▁polit	-2412
▁अतिरिक्त	-2413
▁अदाल	-2414
▁मद	-2415
विधा	-2416
iter	-2417
▁incre	-2418
erg	-2419
▁तरी	-2420
▁known	-2421
▁मांग	-2422
▁members	-2423
▁play	-2424
द्धि	-2425
▁ben	-2426
क्षि	-2427
▁समिति	-2428
▁exper	-2429
▁विश्वविद्यालय	-2430
reed	-2431
धारा	-2432
▁जानकारी	-2433
ivid	-2434
▁हिंद	-2435
▁मूल्य	-2436
ense	-2437
▁सूची	-2438
▁रिक	-2439
▁काफी	-2440
ियो	-2441
▁Adv	-2442
erence	-2443
▁Se	-2444
▁छोड़	-2445
▁dated	-2446
▁proceed	-2447
▁application	-2448
▁संशो	-2449
▁सदस्य	-2450
duct	-2451
ाजिक	-2452
▁ज्ञान	-2453
▁भवन	-2454
▁साल	-2455
▁श्रे	-2456
▁ide	-2457
ियन	-2458
ाइल	-2459
इन	-2460
▁केंद्र	-2461
▁आम	-2462
▁विर	-2463
ulation	-2464
EN	-2465
att	-2466
▁days	-2467
▁गयी	-2468
▁गुण	-2469
▁सामाजिक	-2470
mb	-2471
sec	-2472
▁प्रमाण	-2473
▁mind	-2474
▁गण	-2475
▁provisions	-2476
यान	-2477
▁large	-2478
▁सच	-2479
▁आपके	-2480
र्स	-2481
▁non	-2482
▁group	-2483
ately	-2484
▁मानव	-2485
asht	-2486
lished	-2487
▁counsel	-2488
▁cur	-2489
▁उसी	-2490
▁समूह	-2491
rop	-2492
▁सामने	-2493
▁त्र	-2494
▁स्थित	-2495
▁संविधान	-2496
ways	-2497
▁soci	-2498
▁व्यक्तियों	-2499
▁accept	-2500
ani	-2501
▁सम्म	-2502
▁रखने	-2503
▁सुधार	-2504
▁necess	-2505
▁real	-2506
▁subject	-2507
▁वर्ग	-2508
स्व	-2509
िश्च	-2510
राज	-2511
▁having	-2512
बद्ध	-2513
पि	-2514
▁going	-2515
▁claim	-2516
▁meet	-2517
pur	-2518
▁date	-2519
▁रे	-2520
चन	-2521
▁Chand	-2522
▁यु	-2523
▁Muslim	-2524
▁उद्देश्य	-2525
ption	-2526
▁धन	-2527
ither	-2528
▁माना	-2529
▁ऋण	-2530
▁think	-2531
▁income	-2532
uty	-2533
थम	-2534
▁अर	-2535
▁दर्ज	-2536
▁प्रणाली	-2537
▁कवि	-2538
▁मैंने	-2539
एँ	-2540
तिहास	-2541
ंगा	-2542
▁due	-2543
▁District	-2544
▁शरी	-2545
stand	-2546
▁sit	-2547
par	-2548
▁times	-2549
पन्न	-2550
▁four	-2551
▁चिक	-2552
▁बड़ी	-2553
▁प्रौद्योगिकी	-2554
वधान	-2555
▁question	-2556
▁व्यवस्था	-2557
▁respondent	-2558
▁कठ	-2559
तियों	-2560
▁activ	-2561
ization	-2562
▁level	-2563
▁चार	-2564
▁Tr	-2565
iss	-2566
न्म	-2567
olution	-2568
क्स	-2569
▁कुल	-2570
▁above	-2571
▁education	-2572
▁सुरक्षा	-2573
▁particular	-2574
▁सीखा	-2575
▁चला	-2576
▁Reg	-2577
▁rest	-2578
▁Ag	-2579
▁therefore	-2580
चान	-2581
जों	-2582
▁देते	-2583
ule	-2584
▁Del	-2585
ternal	-2586
शील	-2587
▁अदालत	-2588
ected	-2589
▁खिलाफ	-2590
पना	-2591
▁Committ	-2592
ीक	-2593
▁पुस्त	-2594
ability	-2595
00	-2596
▁अपे	-2597
जर	-2598
जूद	-2599
िल्ली	-2600
ma	-2601
▁कोश	-2602
▁सही	-2603
▁आयोग	-2604
▁कृषि	-2605
▁कौ	-2606
ves	-2607
ize	-2608
▁ऊपर	-2609
▁बल	-2610
▁लेने	-2611
▁किस	-2612
▁सुविधा	-2613
▁service	-2614
▁जिससे	-2615
▁give	-2616
▁पिता	-2617
riend	-2618
▁head	-2619
▁Z	-2620
▁compl	-2621
▁जिसका	-2622
▁सहयोग	-2623
ledge	-2624
▁lim	-2625
▁बाल	-2626
▁appoint	-2627
▁रंग	-2628
▁circ	-2629
्यादा	-2630
▁उल्लेख	-2631
▁Ass	-2632
iversity	-2633
▁एक्स	-2634
▁डे	-2635
ks	-2636
ोषण	-2637
▁संदर्भ	-2638
▁rele	-2639
▁उत्पादन	-2640
्ले	-2641
ाव	-2642
▁prot	-2643
▁पिछ	-2644
▁ele	-2645
र्य	-2646
▁व्यापार	-2647
ode	-2648
▁repres	-2649
▁सफल	-2650
▁family	-2651
▁dra	-2652
▁available	-2653
iction	-2654
▁प्रदेश	-2655
▁Sub	-2656
▁बदल	-2657
▁हूँ	-2658
ently	-2659
िक्ष	-2660
work	-2661
▁leg	-2662
▁conn	-2663
▁statement	-2664
▁नीचे	-2665
▁Ab	-2666
▁क्रिया	-2667
▁विशिष्ट	-2668
▁including	-2669
put	-2670
▁move	-2671
▁अभी	-2672
वाही	-2673
ething	-2674
▁आन	-2675
▁महिला	-2676
▁put	-2677
▁exist	-2678
▁certain	-2679
▁इसकी	-2680
▁const	-2681
सू	-2682
बल	-2683
▁शै	-2684
ेंट	-2685
्रो	-2686
ateg	-2687
ग्री	-2688
▁x	-2689
▁Q	-2690
▁action	-2691
▁पेश	-2692
ger	-2693
▁राय	-2694
▁wind	-2695
▁प्रदर्श	-2696
लो	-2697
▁विज्ञान	-2698
▁हिस्	-2699
▁inj	-2700
दारी	-2701
arliament	-2702
▁along	-2703
oney	-2704
ER	-2705
▁national	-2706
ential	-2707
▁बल्कि	-2708
▁These	-2709
▁याद	-2710
ising	-2711
▁ii	-2712
▁बताया	-2713
▁शरीर	-2714
▁less	-2715
▁language	-2716
▁class	-2717
▁सै	-2718
▁special	-2719
ट्ट	-2720
▁मंद	-2721
▁old	-2722
cil	-2723
▁ठीक	-2724
▁succ	-2725
विध	-2726
▁अत्य	-2727
▁met	-2728
▁control	-2729
▁सर्	-2730
▁ask	-2731
osed	-2732
▁second	-2733
▁common	-2734
ured	-2735
▁अला	-2736
▁children	-2737
▁अमे	-2738
▁Section	-2739
▁war	-2740
▁list	-2741
यर	-2742
▁गिर	-2743
▁main	-2744
land	-2745
▁par	-2746
▁आरोप	-2747
▁mater	-2748
ूरी	-2749
▁बड़े	-2750
▁div	-2751
▁sche	-2752
▁चिकित	-2753
▁परिय	-2754
onment	-2755
▁policy	-2756
धारण	-2757
▁object	-2758
▁far	-2759
▁भुग	-2760
▁पढ़	-2761
▁vi	-2762
▁reason	-2763
▁done	-2764
ternational	-2765
ts	-2766
▁cases	-2767
▁OF	-2768
▁health	-2769
▁थीं	-2770
▁Dev	-2771
तिम	-2772
▁देशों	-2773
▁परियोजना	-2774
स्तान	-2775
▁भीतर	-2776
ND	-2777
omm	-2778
▁गवाह	-2779
▁वाप	-2780
▁चुन	-2781
ins	-2782
ान्त	-2783
ocu	-2784
ote	-2785
धित	-2786
▁परिवर्तन	-2787
▁pop	-2788
▁area	-2789
वक	-2790
ending	-2791
िखित	-2792
ling	-2793
▁sci	-2794
▁Pl	-2795
▁lo	-2796
▁भुगतान	-2797
AT	-2798
ajor	-2799
▁आने	-2800
▁उचित	-2801
bs	-2802
भार	-2803
▁Delhi	-2804
ोह	-2805
▁pract	-2806
▁PR	-2807
▁plac	-2808
▁whether	-2809
▁property	-2810
▁Constitution	-2811
▁जमा	-2812
avan	-2813
निर्	-2814
▁others	-2815
▁passed	-2816
▁friend	-2817
ortun	-2818
ीकरण	-2819
▁निश्च	-2820
स्थ्य	-2821
▁लाल	-2822
▁sk	-2823
▁पत्	-2824
raph	-2825
ium	-2826
ta	-2827
▁among	-2828
ministr	-2829
▁ver	-2830
aining	-2831
▁प्रश्न	-2832
▁since	-2833
atic	-2834
ourse	-2835
oss	-2836
▁His	-2837
नाथ	-2838
pose	-2839
▁What	-2840
▁hig	-2841
pra	-2842
च्छेद	-2843
war	-2844
ोजित	-2845
isation	-2846
ॉल	-2847
▁सरकारी	-2848
कर्ष	-2849
▁become	-2850
भर	-2851
पत्र	-2852
▁obs	-2853
▁प्रथम	-2854
▁समक्ष	-2855
▁tre	-2856
▁दुर्	-2857
▁लंब	-2858
section	-2859
▁दूसरी	-2860
▁डाल	-2861
▁expl	-2862
▁That	-2863
▁hist	-2864
▁too	-2865
▁hold	-2866
▁today	-2867
▁fund	-2868
सित	-2869
▁पाठ	-2870
▁left	-2871
ेप	-2872
orn	-2873
▁init	-2874
▁based	-2875
▁tax	-2876
otion	-2877
▁services	-2878
▁decision	-2879
AR	-2880
▁कहते	-2881
ुस	-2882
ield	-2883
▁nature	-2884
▁संपत्ति	-2885
वृ	-2886
वासी	-2887
▁जबकि	-2888
▁Committee	-2889
▁अंतर्गत	-2890
▁संयुक्त	-2891
▁States	-2892
gment	-2893
पट	-2894
▁prom	-2895
isl	-2896
▁cost	-2897
स्थिति	-2898
▁product	-2899
▁जाये	-2900
▁मेरी	-2901
osp	-2902
▁submitted	-2903
alk	-2904
▁कोर्ट	-2905
▁Gand	-2906
▁benef	-2907
▁चाहते	-2908
▁Brit	-2909
▁away	-2910
▁स्वास्थ्य	-2911
▁संबंधी	-2912
▁Department	-2913
▁प्रती	-2914
एम	-2915
▁अभि	-2916
▁सर्वो	-2917
cl	-2918
▁referred	-2919
▁गल	-2920
▁अलावा	-2921
▁project	-2922
लाह	-2923
▁orig	-2924
▁क्षमता	-2925
▁दिल्ली	-2926
agement	-2927
▁tot	-2928
▁पं	-2929
▁care	-2930
soci	-2931
cing	-2932
▁New	-2933
adesh	-2934
▁whole	-2935
▁अंग्रे	-2936
▁उपधारा	-2937
▁पश्चिम	-2938
▁Bank	-2939
ON	-2940
▁विप	-2941
कल	-2942
ividual	-2943
▁अप्र	-2944
▁यहाँ	-2945
▁विवाद	-2946
▁comput	-2947
▁संत	-2948
ware	-2949
▁free	-2950
outh	-2951
▁countries	-2952
iding	-2953
ify	-2954
▁पंच	-2955
▁elect	-2956
ाहरण	-2957
sh	-2958
▁sw	-2959
▁नव	-2960
▁काल	-2961
▁परिवार	-2962
कृतिक	-2963
uss	-2964
▁संच	-2965
▁करेगा	-2966
ंधी	-2967
▁build	-2968
दम	-2969
▁self	-2970
▁निदेश	-2971
▁मार्ग	-2972
▁जीव	-2973
▁खोज	-2974
क़	-2975
▁required	-2976
टन	-2977
ancial	-2978
▁trad	-2979
▁अंतिम	-2980
▁After	-2981
▁उदाहरण	-2982
▁वर्ण	-2983
ुओं	-2984
▁ple	-2985
▁police	-2986
▁material	-2987
▁बस	-2988
▁यात्रा	-2989
▁अह	-2990
▁belie	-2991
▁अर्था	-2992
▁Col	-2993
▁वर्षों	-2994
▁बंद	-2995
▁took	-2996
ogn	-2997
ूर्ति	-2998
त्मा	-2999
ples	-3000
ient	-3001
anj	-3002
▁मिला	-3003
▁सार्व	-3004
▁provided	-3005
▁पीछ	-3006
▁अग्र	-3007
▁docu	-3008
यों	-3009
▁दंड	-3010
▁prosec	-3011
▁major	-3012
ita	-3013
▁respons	-3014
▁वेब	-3015
▁following	-3016
▁necessary	-3017
▁महान	-3018
जरा	-3019
▁अधिव	-3020
ण्	-3021
ष्ट्रीय	-3022
▁Officer	-3023
ंधान	-3024
▁प्रधान	-3025
iqu	-3026
▁basis	-3027
▁अनुमति	-3028
▁भू	-3029
▁knowledge	-3030
▁something	-3031
▁making	-3032
ेंस	-3033
▁दस्ता	-3034
▁transf	-3035
▁individual	-3036
▁Islam	-3037
कु	-3038
▁ground	-3039
▁decl	-3040
error	-3041
▁test	-3042
▁charact	-3043
▁represent	-3044
vir	-3045
▁plan	-3046
▁value	-3047
▁Mad	-3048
ences	-3049
▁पानी	-3050
ush	-3051
▁success	-3052
ँच	-3053
▁ज्यादा	-3054
orts	-3055
▁filed	-3056
र्जी	-3057
▁पारित	-3058
▁Gener	-3059
cies	-3060
▁position	-3061
▁chang	-3062
▁society	-3063
pecial	-3064
▁तौर	-3065
▁situ	-3066
▁run	-3067
बार	-3068
aring	-3069
▁दृष्टि	-3070
▁keep	-3071
▁जे	-3072
▁eng	-3073
▁दक्षि	-3074
▁economic	-3075
▁निर्धारण	-3076
orth	-3077
▁ord	-3078
▁el	-3079
▁suit	-3080
▁political	-3081
▁मिश	-3082
▁रोक	-3083
▁बयान	-3084
▁युद्ध	-3085
▁बंग	-3086
▁रहने	-3087
क्षम	-3088
ructure	-3089
▁जरूर	-3090
ricult	-3091
▁अनुभव	-3092
▁होंगे	-3093
▁निवेश	-3094
urity	-3095
▁प्रकृति	-3096
▁ident	-3097
▁छा	-3098
▁सदस्यों	-3099
▁net	-3100
▁God	-3101
▁साहित	-3102
▁अनुच्छेद	-3103
डा	-3104
▁छोटे	-3105
▁देव	-3106
▁मंदिर	-3107
▁सिद्धांत	-3108
▁चा	-3109
▁Sri	-3110
▁Rules	-3111
▁अनुसंधान	-3112
▁उससे	-3113
▁आधारित	-3114
िशा	-3115
iver	-3116
▁provide	-3117
▁deal	-3118
▁बोर्ड	-3119
ारण	-3120
▁प्रशिक्ष	-3121
ID	-3122
▁बर	-3123
▁words	-3124
िश्चित	-3125
▁son	-3126
▁concer	-3127
ौती	-3128
▁areas	-3129
ird	-3130
ंश	-3131
▁पो	-3132
ery	-3133
ran	-3134
ees	-3135
irit	-3136
▁आरंभ	-3137
▁पाया	-3138
▁liter	-3139
्यास	-3140
▁नियमों	-3141
▁दस्तावे	-3142
▁बच्चों	-3143
वरी	-3144
▁women	-3145
▁purpose	-3146
▁साहित्य	-3147
▁poet	-3148
▁princi	-3149
▁कार्यालय	-3150
ready	-3151
▁father	-3152
▁बनाया	-3153
▁दिव	-3154
▁पैदा	-3155
म्म	-3156
▁विवरण	-3157
▁himself	-3158
▁money	-3159
idd	-3160
▁light	-3161
▁went	-3162
▁लड़	-3163
▁परंतु	-3164
▁itself	-3165
नाव	-3166
▁agree	-3167
ंतर	-3168
▁आश	-3169
▁सुप्रा	-3170
▁राजनी	-3171
▁प्रारंभ	-3172
ंडल	-3173
▁One	-3174
▁Parliament	-3175
ilit	-3176
▁लाख	-3177
▁करेंगे	-3178
ॉर्ड	-3179
▁food	-3180
▁best	-3181
▁capital	-3182
▁sat	-3183
▁प्रेम	-3184
chie	-3185
▁men	-3186
ony	-3187
▁नियंत्रण	-3188
▁विदेशी	-3189
ानों	-3190
ूं	-3191
▁ann	-3192
▁change	-3193
▁कला	-3194
▁नागर	-3195
▁already	-3196
▁पे	-3197
दों	-3198
ilities	-3199
arma	-3200
eric	-3201
▁mean	-3202
▁market	-3203
ems	-3204
्रम	-3205
▁depos	-3206
▁संभव	-3207
▁towards	-3208
rish	-3209
▁supra	-3210
ार्ड	-3211
▁समर्थन	-3212
▁office	-3213
रल	-3214
of	-3215
▁नोट	-3216
▁पहचान	-3217
▁तारी	-3218
▁कमी	-3219
▁बनाए	-3220
ex	-3221
cribed	-3222
▁Chi	-3223
erc	-3224
▁offic	-3225
▁conduct	-3226
▁school	-3227
▁प्रतिनि	-3228
▁mis	-3229
▁fail	-3230
्रेस	-3231
▁इंड	-3232
म्ह	-3233
▁address	-3234
▁village	-3235
▁भेज	-3236
▁रचना	-3237
ोस	-3238
arn	-3239
▁Pre	-3240
▁बहु	-3241
▁five	-3242
▁still	-3243
▁age	-3244
▁बड़ा	-3245
▁Judge	-3246
▁maint	-3247
icult	-3248
▁उत्पन्न	-3249
▁विवाह	-3250
▁खुल	-3251
epend	-3252
▁मदद	-3253
▁Gandhi	-3254
▁नए	-3255
गार	-3256
▁तत्	-3257
ेंद्र	-3258
▁स्थापना	-3259
▁प्रवेश	-3260
▁Bhavan	-3261
hys	-3262
▁However	-3263
▁stat	-3264
▁fa	-3265
▁few	-3266
बाद	-3267
▁लगता	-3268
▁सहित	-3269
▁देवी	-3270
▁full	-3271
IN	-3272
▁तथ्य	-3273
▁फैस	-3274
▁संशोधन	-3275
ten	-3276
▁वित्तीय	-3277
▁रज	-3278
ication	-3279
▁रहते	-3280
▁received	-3281
▁Comm	-3282
दित	-3283
ached	-3284
▁जन्म	-3285
▁perform	-3286
▁English	-3287
चल	-3288
▁ताकि	-3289
▁caus	-3290
▁तर्क	-3291
▁later	-3292
ष्य	-3293
िले	-3294
▁कोर्इ	-3295
akh	-3296
जित	-3297
iving	-3298
तार	-3299
▁course	-3300
▁sever	-3301
▁Vs	-3302
▁pen	-3303
▁conv	-3304
▁British	-3305
▁plaint	-3306
▁gra	-3307
▁issued	-3308
▁सम्बन्	-3309
▁institut	-3310
▁तारीख	-3311
यां	-3312
▁इतिहास	-3313
बू	-3314
▁never	-3315
ीर	-3316
▁Bengal	-3317
शल	-3318
ittle	-3319
▁always	-3320
▁विस्तार	-3321
▁authority	-3322
ल्क	-3323
▁Cl	-3324
▁window	-3325
adi	-3326
ember	-3327
▁वादी	-3328
▁sl	-3329
▁बच	-3330
▁गां	-3331
agar	-3332
igation	-3333
▁Hindu	-3334
▁हमने	-3335
▁abs	-3336
▁टे	-3337
▁विकसित	-3338
▁यही	-3339
▁स्कूल	-3340
ng	-3341
▁आत्म	-3342
rought	-3343
▁वृद्धि	-3344
▁संभाव	-3345
▁Rasht	-3346
▁सीख	-3347
र्जा	-3348
▁kind	-3349
▁University	-3350
▁परन्तु	-3351
ively	-3352
कद	-3353
क्षर	-3354
itten	-3355
▁समझौ	-3356
▁कैसे	-3357
ration	-3358
▁alle	-3359
▁mill	-3360
र्फ	-3361
▁अभियोजन	-3362
▁possible	-3363
▁मामला	-3364
▁पहली	-3365
▁sol	-3366
▁हित	-3367
▁तुम्ह	-3368
टे	-3369
▁however	-3370
▁क्ल	-3371
▁Serv	-3372
▁heart	-3373
sequ	-3374
▁इस्ल	-3375
arat	-3376
▁लेकर	-3377
▁General	-3378
▁खरी	-3379
▁पूछ	-3380
▁बिल	-3381
▁पर्याप्त	-3382
▁thought	-3383
▁गांधी	-3384
▁total	-3385
▁प्रावधान	-3386
▁spirit	-3387
thing	-3388
▁short	-3389
▁Par	-3390
ांकि	-3391
▁सामग्री	-3392
▁नही	-3393
▁feel	-3394
▁हालांकि	-3395
ticle	-3396
▁कांग	-3397
▁संसा	-3398
▁Direct	-3399
▁Ne	-3400
▁नागरिक	-3401
▁रू	-3402
▁rese	-3403
▁party	-3404
▁अध्यक्ष	-3405
कता	-3406
▁observ	-3407
vironment	-3408
▁चे	-3409
ories	-3410
ali	-3411
▁propos	-3412
▁considered	-3413
एल	-3414
▁बाजार	-3415
▁ऑफ	-3416
ours	-3417
र्च	-3418
▁tru	-3419
▁भूमिका	-3420
▁Hindi	-3421
▁seen	-3422
▁committ	-3423
▁अध्ययन	-3424
▁ten	-3425
▁नौ	-3426
▁गैर	-3427
▁पृष्ठ	-3428
oura	-3429
ocate	-3430
▁ey	-3431
▁Develop	-3432
ards	-3433
▁exec	-3434
▁grant	-3435
ggest	-3436
र्द	-3437
यात	-3438
▁कर्	-3439
▁मात्रा	-3440
▁several	-3441
▁clause	-3442
▁Council	-3443
▁Muk	-3444
▁meas	-3445
▁जवा	-3446
▁राजा	-3447
▁things	-3448
▁चिकित्	-3449
▁विधान	-3450
▁concerned	-3451
▁invol	-3452
▁mus	-3453
▁got	-3454
amb	-3455
ope	-3456
▁cr	-3457
▁Comp	-3458
▁impro	-3459
mes	-3460
▁bre	-3461
udd	-3462
rapati	-3463
▁Me	-3464
ंसा	-3465
▁though	-3466
▁प्रतिक	-3467
ats	-3468
▁दिशा	-3469
▁opportun	-3470
▁foreign	-3471
ience	-3472
जनिक	-3473
come	-3474
▁Chief	-3475
▁वापस	-3476
ंकन	-3477
▁वरि	-3478
▁ir	-3479
ores	-3480
▁अध्या	-3481
धिकार	-3482
मन	-3483
▁beg	-3484
▁जम	-3485
▁मि	-3486
▁अपेक्षा	-3487
▁demand	-3488
enior	-3489
▁sum	-3490
▁प्रग	-3491
धे	-3492
cious	-3493
ibility	-3494
▁growth	-3495
▁अच्छी	-3496
▁sector	-3497
▁तकनी	-3498
▁विंड	-3499
▁judgment	-3500
▁इस्त	-3501
▁Kh	-3502
▁Cong	-3503
▁Board	-3504
्ष्	-3505
स्कार	-3506
ENT	-3507
▁relations	-3508
▁सार्वजनिक	-3509
▁acqu	-3510
▁प्रबंधन	-3511
▁दावा	-3512
▁Pradesh	-3513
▁Law	-3514
▁either	-3515
▁instru	-3516
▁little	-3517
श्छ	-3518
rent	-3519
▁around	-3520
▁सत	-3521
▁शीर्ष	-3522
▁side	-3523
▁तुल	-3524
▁संदेश	-3525
र्चा	-3526
ैंड	-3527
umb	-3528
▁श्रेणी	-3529
▁occur	-3530
allen	-3531
▁जगह	-3532
▁priv	-3533
▁Pat	-3534
▁आद	-3535
rah	-3536
▁गुर	-3537
▁बरा	-3538
▁साह	-3539
stitute	-3540
▁नगर	-3541
▁function	-3542
▁suggest	-3543
▁Rashtrapati	-3544
lection	-3545
▁ऊण्	-3546
istry	-3547
श्छ्ष्	-3548
▁ऊण्श्छ्ष्	-3549
▁cause	-3550
ध्या	-3551
▁written	-3552
▁कार्यवाही	-3553
▁complete	-3554
प्ता	-3555
क्ष्म	-3556
▁Union	-3557
▁es	-3558
redit	-3559
क्टर	-3560
▁data	-3561
▁दायर	-3562
▁वरिष्ठ	-3563
arent	-3564
▁राज्यों	-3565
▁हिन्द	-3566
जय	-3567
▁वाय	-3568
सं	-3569
▁mother	-3570
AL	-3571
▁भावना	-3572
▁ते	-3573
▁occas	-3574
ताल	-3575
▁cust	-3576
▁लेखा	-3577
▁achie	-3578
ribut	-3579
ोप	-3580
▁केंद	-3581
▁कानू	-3582
▁local	-3583
▁Div	-3584
▁मंत्रालय	-3585
▁six	-3586
▁mention	-3587
▁कथ	-3588
▁परीक्षा	-3589
▁वास्तविक	-3590
▁बाहरी	-3591
▁उच्चतम	-3592
वीं	-3593
▁Americ	-3594
कल्प	-3595
▁चित्र	-3596
▁एफ	-3597
▁स्वतंत्रता	-3598
▁ur	-3599
श्म	-3600
▁फिल	-3601
ानीय	-3602
▁terms	-3603
ann	-3604
▁Be	-3605
▁पौ	-3606
▁Cor	-3607
▁बढ़ा	-3608
▁वार	-3609
AN	-3610
jee	-3611
▁किये	-3612
▁eas	-3613
▁Police	-3614
akes	-3615
▁शासन	-3616
▁treat	-3617
ources	-3618
ev	-3619
▁पुनः	-3620
▁home	-3621
lu	-3622
नांक	-3623
▁earli	-3624
▁अस्प	-3625
▁भाई	-3626
▁stren	-3627
▁art	-3628
▁दिनों	-3629
▁सुनिश्चित	-3630
मती	-3631
▁Prov	-3632
▁Petition	-3633
▁entire	-3634
miss	-3635
▁सलाह	-3636
▁हस्ता	-3637
▁किंतु	-3638
▁रि	-3639
▁अच्छा	-3640
▁प्रभावित	-3641
▁पीछे	-3642
▁स्थानीय	-3643
▁जोड़	-3644
▁love	-3645
▁सहायक	-3646
▁संसद	-3647
ample	-3648
riminal	-3649
▁संगठन	-3650
pond	-3651
गल	-3652
rab	-3653
▁nat	-3654
▁With	-3655
ys	-3656
▁जाएगी	-3657
▁according	-3658
ti	-3659
▁दोष	-3660
▁appeal	-3661
▁financial	-3662
भाष	-3663
भीर	-3664
▁civil	-3665
कान	-3666
▁industry	-3667
भूत	-3668
ार्थी	-3669
सि	-3670
▁जाय	-3671
साइट	-3672
▁brought	-3673
▁mult	-3674
▁भिन्न	-3675
▁character	-3676
isd	-3677
▁brother	-3678
▁एल	-3679
▁तंत्र	-3680
inary	-3681
▁plaintiff	-3682
▁न्यायिक	-3683
▁Development	-3684
▁मही	-3685
▁working	-3686
ियाँ	-3687
▁Just	-3688
▁पुरस्कार	-3689
▁बच्चे	-3690
▁केंद्रीय	-3691
▁Congress	-3692
▁गांव	-3693
▁शहर	-3694
atory	-3695
र्ग	-3696
▁next	-3697
▁पंजी	-3698
्वी	-3699
▁ग्राम	-3700
▁दृष्ट	-3701
र्मा	-3702
▁दक्षिण	-3703
▁started	-3704
▁रहता	-3705
थमिक	-3706
▁अभियुक्त	-3707
ina	-3708
▁प्रगति	-3709
▁आत	-3710
श्वर	-3711
▁understand	-3712
▁sing	-3713
▁Minister	-3714
▁dise	-3715
abad	-3716
▁व्यवहार	-3717
▁निर्दिष्ट	-3718
भू	-3719
बे	-3720
▁behalf	-3721
HE	-3722
सत	-3723
▁भग	-3724
selves	-3725
▁hard	-3726
▁विनिर्	-3727
▁enc	-3728
▁सक्षम	-3729
▁production	-3730
ल्ड	-3731
▁recogn	-3732
▁प्राथमिक	-3733
alc	-3734
▁Trib	-3735
▁दिनांक	-3736
▁force	-3737
▁साक्ष्य	-3738
िवार	-3739
▁परिष	-3740
▁pat	-3741
▁सत्य	-3742
▁Co	-3743
▁mess	-3744
▁bring	-3745
▁ब्रिट	-3746
▁air	-3747
▁Bi	-3748
abha	-3749
▁rate	-3750
▁लौ	-3751
ियर	-3752
▁file	-3753
▁addition	-3754
▁able	-3755
▁issue	-3756
ource	-3757
▁parties	-3758
uro	-3759
▁होकर	-3760
▁administr	-3761
ME	-3762
▁defend	-3763
IT	-3764
▁खेल	-3765
▁Sy	-3766
▁dou	-3767
▁प्रे	-3768
ामीण	-3769
▁सत्ता	-3770
▁RRB	-3771
ression	-3772
ably	-3773
▁प्रशिक्षण	-3774
▁higher	-3775
▁notice	-3776
▁उठा	-3777
▁ग्रामीण	-3778
empt	-3779
▁योग्य	-3780
▁difficult	-3781
▁ens	-3782
ici	-3783
▁केन्द्र	-3784
▁अधिवक्ता	-3785
▁Cont	-3786
▁plant	-3787
▁prosecution	-3788
▁उनमें	-3789
▁दुनिया	-3790
▁कप	-3791
▁पिछले	-3792
सन	-3793
▁बीमा	-3794
▁उसमें	-3795
ुआ	-3796
रिका	-3797
imal	-3798
▁young	-3799
▁व्यापक	-3800
▁legal	-3801
▁सोच	-3802
िक्री	-3803
▁कांग्रेस	-3804
▁विभा	-3805
▁लगाया	-3806
▁Le	-3807
IR	-3808
▁di	-3809
▁type	-3810
gth	-3811
▁तरीके	-3812
ज्ञानिक	-3813
▁charge	-3814
aya	-3815
▁region	-3816
्टर	-3817
त्त्व	-3818
कम	-3819
▁उत्तरदा	-3820
ुप	-3821
medi	-3822
ज्ञा	-3823
▁निकाल	-3824
▁रिकॉर्ड	-3825
▁आयु	-3826
▁पुत्र	-3827
▁ut	-3828
▁lab	-3829
बो	-3830
▁मुद्	-3831
ंथ	-3832
▁रोज	-3833
ethod	-3834
▁general	-3835
▁जिन्हें	-3836
धुनिक	-3837
la	-3838
▁Ra	-3839
bt	-3840
▁आए	-3841
▁don	-3842
िको	-3843
▁कित	-3844
ैन	-3845
▁key	-3846
▁arg	-3847
amm	-3848
▁dom	-3849
▁लगे	-3850
hile	-3851
▁initi	-3852
▁detail	-3853
त्सा	-3854
▁दिख	-3855
▁rights	-3856
▁पालन	-3857
▁SC	-3858
vant	-3859
साद	-3860
▁पत्नी	-3861
च्छा	-3862
rodu	-3863
igned	-3864
▁phys	-3865
▁Sw	-3866
▁बराबर	-3867
▁उपाय	-3868
▁mor	-3869
▁गं	-3870
ji	-3871
▁लिखा	-3872
▁might	-3873
▁fut	-3874
▁activities	-3875
▁भे	-3876
▁धी	-3877
ault	-3878
els	-3879
▁manner	-3880
▁पांच	-3881
▁months	-3882
▁अमेरिका	-3883
▁aut	-3884
▁near	-3885
arth	-3886
▁sett	-3887
▁अफ	-3888
▁मुसल	-3889
▁शब्दों	-3890
स्क	-3891
ात्	-3892
▁House	-3893
ama	-3894
ened	-3895
▁inn	-3896
▁लक्ष्य	-3897
augh	-3898
ental	-3899
ड़ों	-3900
▁quality	-3901
ैतिक	-3902
्रिय	-3903
▁कट	-3904
▁goods	-3905
▁सेना	-3906
▁vide	-3907
▁सम्मान	-3908
▁चिकित्सा	-3909
mber	-3910
▁ill	-3911
मारी	-3912
▁Cr	-3913
नलिखित	-3914
▁wife	-3915
▁उपकरण	-3916
reedom	-3917
gether	-3918
▁together	-3919
ज्	-3920
gar	-3921
▁अधिकारियों	-3922
▁progress	-3923
फ्त	-3924
▁bo	-3925
ग्	-3926
क्षेप	-3927
▁आकार	-3928
▁flow	-3929
▁viol	-3930
▁औद्योगिक	-3931
▁निश्चित	-3932
▁taking	-3933
स्वर	-3934
दय	-3935
riage	-3936
ेमाल	-3937
▁ess	-3938
▁अनुसू	-3939
▁LRB	-3940
▁better	-3941
▁Ins	-3942
▁district	-3943
aper	-3944
▁भवि	-3945
▁जाति	-3946
▁निम्नलिखित	-3947
▁established	-3948
imum	-3949
most	-3950
▁उद्य	-3951
▁पुस्तक	-3952
▁मुसलमान	-3953
opy	-3954
▁occasion	-3955
▁संके	-3956
सम	-3957
▁वेबसाइट	-3958
▁सर्वोच्च	-3959
्यूटर	-3960
acity	-3961
▁इस्तेमाल	-3962
▁fav	-3963
▁मनुष	-3964
▁निर्भर	-3965
▁परिस्थित	-3966
bsite	-3967
▁outs	-3968
इस	-3969
▁clear	-3970
▁दिल	-3971
▁paid	-3972
▁became	-3973
डे	-3974
▁Fin	-3975
▁jur	-3976
▁associ	-3977
▁challen	-3978
ंटर	-3979
▁Sm	-3980
ल्यू	-3981
▁equal	-3982
▁strong	-3983
▁निगम	-3984
▁जरूरत	-3985
aged	-3986
▁Part	-3987
▁recomm	-3988
IC	-3989
▁आधुनिक	-3990
▁determ	-3991
▁भविष्य	-3992
▁निजी	-3993
▁asked	-3994
▁separ	-3995
▁blood	-3996
▁नियुक्त	-3997
cedure	-3998
▁Bench	-3999
▁आयोजित	-4000
ायल	-4001
lected	-4002
kar	-4003
▁पूंजी	-4004
▁field	-4005
une	-4006
▁Pal	-4007
▁Sche	-4008
pal	-4009
▁word	-4010
▁शर्त	-4011
▁विरुद्ध	-4012
ler	-4013
▁Em	-4014
▁circum	-4015
oon	-4016
▁sal	-4017
▁super	-4018
▁दल	-4019
▁dire	-4020
▁निकल	-4021
कुल	-4022
ises	-4023
▁method	-4024
▁मौजूद	-4025
ीप	-4026
▁tradition	-4027
▁scheme	-4028
PC	-4029
▁कहीं	-4030
▁once	-4031
फार	-4032
▁मिले	-4033
▁आतंक	-4034
▁earlier	-4035
ief	-4036
ोषणा	-4037
ressed	-4038
▁गलत	-4039
ched	-4040
ergy	-4041
३०	-4042
▁पूरे	-4043
▁step	-4044
▁pow	-4045
▁प्रभा	-4046
▁research	-4047
यल	-4048
ills	-4049
▁सन्	-4050
▁जिन्होंने	-4051
▁nam	-4052
▁सिव	-4053
▁प्राय	-4054
द्रा	-4055
▁redu	-4056
घु	-4057
क्षक	-4058
▁pub	-4059
पात	-4060
rest	-4061
▁Dis	-4062
▁Not	-4063
aster	-4064
▁institutions	-4065
▁रजिस्ट	-4066
▁exerc	-4067
▁pri	-4068
OR	-4069
itiz	-4070
▁पट	-4071
▁चर्चा	-4072
itation	-4073
▁पराम	-4074
फा	-4075
▁conditions	-4076
▁letter	-4077
omes	-4078
▁नदी	-4079
▁Ph	-4080
▁चयन	-4081
▁पाल	-4082
▁एच	-4083
वर्ती	-4084
▁भौ	-4085
▁international	-4086
ंगे	-4087
▁कार्र	-4088
▁उपस्थित	-4089
▁Some	-4090
▁z	-4091
▁पुरुष	-4092
ानि	-4093
ream	-4094
▁agricult	-4095
▁नर	-4096
वस्था	-4097
▁subst	-4098
▁ce	-4099
▁history	-4100
्यून	-4101
▁मुकद	-4102
mit	-4103
ott	-4104
▁bir	-4105
▁share	-4106
▁cro	-4107
▁तीस	-4108
▁शाय	-4109
▁assist	-4110
▁चर	-4111
▁विद्व	-4112
acy	-4113
्रेट	-4114
▁प्रकट	-4115
▁future	-4116
▁मश	-4117
acher	-4118
णिज	-4119
क्रमण	-4120
▁deep	-4121
▁खो	-4122
▁सक्रिय	-4123
unt	-4124
▁रखते	-4125
ांति	-4126
ीस	-4127
▁Wh	-4128
्यिक	-4129
मंत्र	-4130
usion	-4131
ruction	-4132
▁official	-4133
▁implement	-4134
▁उल्ल	-4135
▁relating	-4136
शु	-4137
▁बचा	-4138
ving	-4139
▁trial	-4140
▁पदार्थ	-4141
uf	-4142
पे	-4143
स्ल	-4144
▁ढंग	-4145
▁रक्षा	-4146
▁चाहिये	-4147
▁Lal	-4148
ship	-4149
▁related	-4150
▁den	-4151
▁nation	-4152
▁cell	-4153
ercial	-4154
▁Commissioner	-4155
overed	-4156
▁ति	-4157
▁परामर्श	-4158
▁गंभीर	-4159
सिक	-4160
ms	-4161
▁मित्र	-4162
▁THE	-4163
▁नया	-4164
inion	-4165
्ला	-4166
▁proceedings	-4167
▁यून	-4168
▁गी	-4169
▁matters	-4170
▁access	-4171
▁gen	-4172
▁करोड़	-4173
▁independ	-4174
▁चोट	-4175
▁previous	-4176
▁require	-4177
▁big	-4178
▁बज	-4179
istered	-4180
▁incident	-4181
ION	-4182
्यो	-4183
formation	-4184
▁According	-4185
▁Go	-4186
▁रिट	-4187
▁प्रकाशित	-4188
▁true	-4189
▁चाहे	-4190
▁कोशिश	-4191
▁इस्लाम	-4192
ठी	-4193
val	-4194
▁thing	-4195
▁ऊर्जा	-4196
▁Im	-4197
cent	-4198
▁री	-4199
▁visit	-4200
▁unt	-4201
▁निर्वा	-4202
▁सिविल	-4203
▁रेल	-4204
▁website	-4205
▁वाणिज	-4206
▁return	-4207
▁students	-4208
▁वन	-4209
दक	-4210
▁consider	-4211
ैल	-4212
pri	-4213
▁security	-4214
▁सुझ	-4215
फारिश	-4216
न्व	-4217
▁Sp	-4218
▁सां	-4219
tt	-4220
▁निर्यात	-4221
▁crit	-4222
ane	-4223
▁मुखर्जी	-4224
after	-4225
▁ful	-4226
▁धार	-4227
▁dest	-4228
▁शायद	-4229
स्ति	-4230
ership	-4231
▁लिम	-4232
▁live	-4233
▁role	-4234
▁जिनमें	-4235
▁श्रीमती	-4236
▁network	-4237
▁Sar	-4238
▁member	-4239
▁computer	-4240
्राम	-4241
▁खुद	-4242
ेयर	-4243
▁except	-4244
▁Leg	-4245
ड़क	-4246
rated	-4247
▁सिफारिश	-4248
ude	-4249
▁adop	-4250
▁integ	-4251
▁देती	-4252
▁प्रद	-4253
र्ण	-4254
▁यथा	-4255
▁प्रोत्सा	-4256
▁राजनीतिक	-4257
▁af	-4258
▁problems	-4259
खी	-4260
पूर्वक	-4261
चारी	-4262
▁namely	-4263
▁story	-4264
▁example	-4265
मो	-4266
band	-4267
itive	-4268
▁फल	-4269
▁जहाँ	-4270
▁बेहत	-4271
▁freedom	-4272
▁मेरा	-4273
▁allowed	-4274
iry	-4275
▁साब	-4276
ंघ	-4277
▁Krish	-4278
▁इला	-4279
rying	-4280
▁जिसने	-4281
ribution	-4282
▁Public	-4283
▁circumst	-4284
istic	-4285
▁शर्मा	-4286
▁हमारा	-4287
▁पद्ध	-4288
▁award	-4289
▁technology	-4290
ेशा	-4291
aries	-4292
omb	-4293
▁original	-4294
▁Mag	-4295
▁शक्त	-4296
▁वैज्ञानिक	-4297
▁Ministry	-4298
▁क्रम	-4299
▁Af	-4300
illed	-4301
▁farm	-4302
▁सेवाओं	-4303
isf	-4304
hing	-4305
oved	-4306
▁सुना	-4307
▁often	-4308
▁prep	-4309
erve	-4310
▁Med	-4311
▁चाल	-4312
▁नेट	-4313
▁मोट	-4314
▁cross	-4315
▁recorded	-4316
▁वही	-4317
▁चाहता	-4318
ape	-4319
▁prim	-4320
aps	-4321
▁gave	-4322
atives	-4323
▁अर्थात्	-4324
लाई	-4325
▁environment	-4326
sw	-4327
▁रक्त	-4328
▁यद्य	-4329
action	-4330
▁कानूनी	-4331
्प	-4332
ल्ल	-4333
▁करा	-4334
▁अभिव	-4335
▁offence	-4336
चर	-4337
▁पृथ	-4338
▁इतना	-4339
oid	-4340
▁वो	-4341
▁link	-4342
▁पक	-4343
▁मर	-4344
urance	-4345
▁lib	-4346
▁मास	-4347
▁घोषणा	-4348
▁दश	-4349
म्भ	-4350
▁Mar	-4351
atch	-4352
▁imm	-4353
vey	-4354
▁norm	-4355
ोलन	-4356
▁संरचना	-4357
▁close	-4358
▁यद्यपि	-4359
▁vol	-4360
▁संय	-4361
▁Panch	-4362
▁movement	-4363
rael	-4364
▁रखना	-4365
▁needs	-4366
by	-4367
▁महारा	-4368
▁rule	-4369
▁केन्द	-4370
▁modern	-4371
▁अंक	-4372
▁लिमिट	-4373
िकोण	-4374
▁मॉ	-4375
anda	-4376
unal	-4377
▁jurisd	-4378
▁line	-4379
▁natural	-4380
डियो	-4381
▁निष्पा	-4382
▁देखने	-4383
▁दिखाई	-4384
▁Advocate	-4385
▁Ma	-4386
ospital	-4387
▁पश्चात्	-4388
▁कार्रवाई	-4389
▁Bal	-4390
▁Hon	-4391
ृह	-4392
▁pun	-4393
▁told	-4394
▁देखते	-4395
▁सेट	-4396
स्वरूप	-4397
▁शांति	-4398
ada	-4399
▁saf	-4400
▁Jan	-4401
▁establish	-4402
▁petitioners	-4403
▁परीक्षण	-4404
ilar	-4405
▁Sur	-4406
▁मुक्त	-4407
▁निपट	-4408
▁बंगाल	-4409
▁Israel	-4410
▁stage	-4411
▁Govern	-4412
▁living	-4413
resh	-4414
▁face	-4415
▁न्यायालयों	-4416
▁ded	-4417
मेंट	-4418
▁चुनाव	-4419
ोक्ता	-4420
▁बने	-4421
duc	-4422
▁Now	-4423
▁pot	-4424
▁कदम	-4425
▁उद्यम	-4426
▁meeting	-4427
कीय	-4428
▁My	-4429
▁समाधान	-4430
▁top	-4431
ians	-4432
urned	-4433
▁थो	-4434
▁लिमिटेड	-4435
▁क़	-4436
▁undert	-4437
▁fel	-4438
semb	-4439
▁फाइल	-4440
▁संपर्क	-4441
ison	-4442
▁असम	-4443
▁squ	-4444
▁religious	-4445
char	-4446
▁घोष	-4447
▁Courts	-4448
▁हिस्सा	-4449
ging	-4450
itor	-4451
▁बजे	-4452
▁Justice	-4453
▁दें	-4454
ait	-4455
rast	-4456
▁संरक्षण	-4457
तु	-4458
▁past	-4459
▁thus	-4460
▁particip	-4461
ुसार	-4462
▁जैसी	-4463
ront	-4464
▁Secret	-4465
न्दी	-4466
▁दूसरा	-4467
▁बुद्ध	-4468
▁अवस्था	-4469
▁हमेशा	-4470
▁trade	-4471
म्बर	-4472
▁custom	-4473
oad	-4474
ourn	-4475
▁संभावना	-4476
▁provision	-4477
▁suff	-4478
▁states	-4479
फ्ट	-4480
ends	-4481
▁मोह	-4482
▁sense	-4483
▁relevant	-4484
▁अधि	-4485
▁स्म	-4486
▁निम्न	-4487
▁indic	-4488
▁mach	-4489
▁मंत्री	-4490
▁माननीय	-4491
▁text	-4492
▁forward	-4493
▁व्यवसाय	-4494
▁शिव	-4495
poses	-4496
istan	-4497
▁payment	-4498
ying	-4499
▁vict	-4500
▁rules	-4501
▁सीमित	-4502
▁personal	-4503
cri	-4504
▁मनुष्य	-4505
▁why	-4506
▁port	-4507
ung	-4508
herjee	-4509
▁तत्व	-4510
▁terror	-4511
्वेष	-4512
▁जित	-4513
▁अनिवार	-4514
▁jurisdiction	-4515
▁तेल	-4516
▁बोल	-4517
▁उनसे	-4518
▁जिसकी	-4519
राधिक	-4520
▁immedi	-4521
▁साधारण	-4522
▁Devi	-4523
▁सफलता	-4524
▁बढ	-4525
▁लागत	-4526
▁Director	-4527
▁community	-4528
▁cover	-4529
▁शुल्क	-4530
▁ब्या	-4531
ier	-4532
rect	-4533
▁वहाँ	-4534
▁loss	-4535
change	-4536
▁प्रतिनिध	-4537
१०	-4538
▁अश	-4539
▁साबित	-4540
▁संह	-4541
▁परिस	-4542
▁apply	-4543
▁citiz	-4544
▁opinion	-4545
gr	-4546
▁हल	-4547
▁PRES	-4548
▁till	-4549
ches	-4550
▁cast	-4551
▁बिक्री	-4552
▁उत	-4553
▁disp	-4554
▁संकेत	-4555
संद	-4556
▁तय	-4557
▁विल	-4558
▁ईश्वर	-4559
▁समुदाय	-4560
▁powers	-4561
▁neg	-4562
▁मुद्रा	-4563
▁सृ	-4564
▁चुका	-4565
▁credit	-4566
▁तुलना	-4567
▁specified	-4568
▁management	-4569
▁obt	-4570
▁belong	-4571
▁contract	-4572
▁जवाब	-4573
▁विरोध	-4574
▁परिस्थितियों	-4575
▁Euro	-4576
obal	-4577
▁purposes	-4578
▁एज	-4579
ँव	-4580
▁चै	-4581
▁parts	-4582
▁इनमें	-4583
▁नम	-4584
▁Do	-4585
poration	-4586
cell	-4587
airs	-4588
▁Moh	-4589
▁मंज	-4590
▁Thus	-4591
endra	-4592
म्मी	-4593
▁सिर्फ	-4594
▁using	-4595
▁Mukherjee	-4596
▁complaint	-4597
▁हे	-4598
▁सचिव	-4599
imate	-4600
▁agreement	-4601
aut	-4602
ots	-4603
▁पर्य	-4604
▁अधिकां	-4605
▁पार्टी	-4606
▁transfer	-4607
धनों	-4608
▁witnesses	-4609
▁उपन	-4610
▁पैरा	-4611
▁प्राधिकरण	-4612
▁संहिता	-4613
▁mentioned	-4614
इल	-4615
चीन	-4616
▁युवा	-4617
▁संग्रह	-4618
खंड	-4619
▁खरीद	-4620
▁industrial	-4621
ead	-4622
▁Pun	-4623
▁decided	-4624
▁building	-4625
ological	-4626
▁outside	-4627
IS	-4628
ek	-4629
ुक्ति	-4630
▁Brah	-4631
▁आत्मा	-4632
▁प्रशासन	-4633
▁Sa	-4634
▁yet	-4635
▁institution	-4636
▁मजब	-4637
▁व्यक्तिगत	-4638
ार्मिक	-4639
ठित	-4640
▁रकम	-4641
▁छोटी	-4642
▁below	-4643
▁vari	-4644
▁Techn	-4645
▁ter	-4646
▁Educ	-4647
▁duty	-4648
पीसी	-4649
द्द	-4650
▁इका	-4651
▁facts	-4652
▁कम्प	-4653
▁धार्मिक	-4654
krit	-4655
▁Europe	-4656
▁Rec	-4657
ender	-4658
▁assessment	-4659
▁press	-4660
▁Bar	-4661
aka	-4662
▁specific	-4663
ami	-4664
go	-4665
▁प्राकृतिक	-4666
▁Gur	-4667
▁वाह	-4668
ल्पना	-4669
▁अनिवार्य	-4670
▁याचिकाकर्ताओं	-4671
▁million	-4672
ening	-4673
▁स्टेशन	-4674
▁संदे	-4675
▁provides	-4676
▁प्ल	-4677
▁एड	-4678
▁बेहतर	-4679
ixed	-4680
ुन	-4681
ंगल	-4682
म्मे	-4683
▁योगदान	-4684
▁मशीन	-4685
CT	-4686
शिया	-4687
▁युग	-4688
▁satisf	-4689
wise	-4690
कालीन	-4691
▁fr	-4692
▁सवाल	-4693
▁Nar	-4694
▁प्रभावी	-4695
▁धीरे	-4696
ilt	-4697
asad	-4698
▁May	-4699
▁lat	-4700
▁Dh	-4701
▁scient	-4702
▁energy	-4703
▁कंप्यूटर	-4704
▁निर्धारिती	-4705
▁Sabha	-4706
▁themselves	-4707
▁circumstances	-4708
▁00	-4709
▁स्थायी	-4710
▁examination	-4711
▁निदेशक	-4712
▁अधिकांश	-4713
▁Sharma	-4714
हीन	-4715
▁शि	-4716
▁पड़ा	-4717
▁रुपये	-4718
▁United	-4719
▁Even	-4720
▁justice	-4721
irl	-4722
▁turn	-4723
एफ	-4724
▁Bab	-4725
मंत्री	-4726
▁मूल्या	-4727
▁प्रदर्शन	-4728
भाल	-4729
▁arr	-4730
▁वेतन	-4731
usband	-4732
▁san	-4733
▁कविता	-4734
एन	-4735
aun	-4736
▁dead	-4737
▁अस्त	-4738
▁legisl	-4739
eb	-4740
वै	-4741
ंगत	-4742
▁opens	-4743
cle	-4744
▁यूरो	-4745
▁संकल्प	-4746
▁Muslims	-4747
▁current	-4748
▁whose	-4749
▁Mal	-4750
▁विशाल	-4751
▁हस्ताक्षर	-4752
ंदा	-4753
▁मिली	-4754
bar	-4755
▁शाखा	-4756
▁peace	-4757
▁व्याख्या	-4758
▁begin	-4759
▁placed	-4760
▁अस्पताल	-4761
▁दृष्टिकोण	-4762
तया	-4763
▁प्रसाद	-4764
▁आयुक्त	-4765
▁nothing	-4766
aughter	-4767
▁आता	-4768
ंगी	-4769
▁मिट	-4770
▁खर्च	-4771
▁केन्द्रीय	-4772
▁Sat	-4773
▁bra	-4774
ulated	-4775
▁consum	-4776
▁Bl	-4777
▁kn	-4778
▁उपयुक्त	-4779
▁Pur	-4780
▁आंद	-4781
▁पति	-4782
▁सुझाव	-4783
▁Author	-4784
▁appellants	-4785
▁Ple	-4786
▁democ	-4787
▁ढा	-4788
▁seek	-4789
▁शो	-4790
line	-4791
▁पर्यावरण	-4792
▁developed	-4793
वर्क	-4794
▁संगी	-4795
▁हत्या	-4796
ार्क	-4797
ival	-4798
पक	-4799
IDENT	-4800
राष्ट्रीय	-4801
▁अंग्रेजी	-4802
▁फैसले	-4803
ाये	-4804
▁hy	-4805
ृति	-4806
▁भगवान	-4807
▁निधि	-4808
▁registered	-4809
uly	-4810
▁exc	-4811
▁Har	-4812
▁Let	-4813
▁ऊंच	-4814
▁early	-4815
emed	-4816
▁fall	-4817
▁sou	-4818
▁red	-4819
▁introdu	-4820
▁हृ	-4821
▁किरा	-4822
▁रहती	-4823
ठा	-4824
uled	-4825
वत्ता	-4826
▁assessee	-4827
▁appointed	-4828
▁आशा	-4829
▁स्रो	-4830
▁त्रुट	-4831
ored	-4832
▁जोर	-4833
लेज	-4834
्रेड	-4835
▁जानी	-4836
▁li	-4837
eed	-4838
नेट	-4839
▁दशा	-4840
▁US	-4841
▁accord	-4842
▁प्रणब	-4843
▁सिर	-4844
▁message	-4845
▁training	-4846
ift	-4847
िब	-4848
▁bal	-4849
▁डेटा	-4850
▁medical	-4851
▁Sah	-4852
▁soon	-4853
भूति	-4854
▁Pran	-4855
▁उम्मी	-4856
▁execut	-4857
▁While	-4858
ava	-4859
▁ब्रिटिश	-4860
▁Mahar	-4861
ificate	-4862
▁जिनके	-4863
▁PRESIDENT	-4864
▁बाव	-4865
▁Lord	-4866
▁private	-4867
न्दर	-4868
▁mag	-4869
िकल	-4870
▁इं	-4871
▁भागी	-4872
oot	-4873
▁anything	-4874
▁religion	-4875
▁experience	-4876
▁दस	-4877
▁influ	-4878
▁tell	-4879
▁situation	-4880
asing	-4881
▁century	-4882
▁Division	-4883
▁सीआर	-4884
चि	-4885
▁लॉ	-4886
▁bar	-4887
▁disease	-4888
irt	-4889
▁II	-4890
▁सबूत	-4891
▁सारे	-4892
▁ब्याज	-4893
▁writing	-4894
▁गुणवत्ता	-4895
ारोह	-4896
▁husband	-4897
▁तम	-4898
▁kept	-4899
ission	-4900
▁External	-4901
▁population	-4902
धीन	-4903
▁Pe	-4904
▁Int	-4905
▁पद्धति	-4906
▁By	-4907
▁half	-4908
▁खाते	-4909
▁लो	-4910
▁ग्रह	-4911
▁वायु	-4912
wal	-4913
anies	-4914
men	-4915
▁lay	-4916
▁लघु	-4917
ग्न	-4918
▁ख़	-4919
▁greater	-4920
▁boy	-4921
▁पंजा	-4922
▁Rel	-4923
▁दायित्व	-4924
▁कृष्ण	-4925
▁Chandra	-4926
गढ़	-4927
▁request	-4928
▁similar	-4929
▁किन्तु	-4930
▁हस्त	-4931
घा	-4932
गु	-4933
▁संस्कृत	-4934
▁सकेगा	-4935
▁हिन्दी	-4936
▁capacity	-4937
aff	-4938
▁परिषद	-4939
ूक	-4940
▁mer	-4941
▁answ	-4942
▁अधिस	-4943
वर्ष	-4944
lege	-4945
न्स	-4946
▁books	-4947
▁Pand	-4948
▁tele	-4949
▁night	-4950
▁really	-4951
▁भोजन	-4952
▁नियमित	-4953
िना	-4954
▁लगी	-4955
▁Civil	-4956
▁essential	-4957
▁पेट	-4958
तक	-4959
▁Apr	-4960
▁रात	-4961
▁creat	-4962
▁actually	-4963
मल	-4964
▁Per	-4965
▁मिलता	-4966
▁समारोह	-4967
▁स्वामी	-4968
ilk	-4969
uries	-4970
▁सकें	-4971
orrow	-4972
▁विविध	-4973
▁opportunity	-4974
uary	-4975
▁उपचार	-4976
nam	-4977
▁निष्कर्ष	-4978
ares	-4979
▁attack	-4980
िस्ट्रेट	-4981
▁उम	-4982
▁उपभ	-4983
रीय	-4984
▁मार्च	-4985
▁संस्कृति	-4986
श्री	-4987
▁उम्मीद	-4988
यण	-4989
▁include	-4990
ufact	-4991
▁सुरक्षित	-4992
▁news	-4993
▁prior	-4994
▁Mo	-4995
▁पीएस	-4996
▁बैठक	-4997
ategory	-4998
▁talk	-4999
▁महीने	-5000
▁jo	-5001
▁अभिव्य	-5002
ेलन	-5003
▁जल्	-5004
▁विकल्प	-5005
hai	-5006
▁Information	-5007
▁कब्	-5008
hib	-5009
▁नियुक्ति	-5010
▁road	-5011
▁consideration	-5012
▁सम्मिल	-5013
▁सत्र	-5014
va	-5015
जनक	-5016
▁अंदर	-5017
fully	-5018
▁लेना	-5019
त्तर	-5020
▁favour	-5021
▁Petitioner	-5022
▁documents	-5023
▁city	-5024
लाव	-5025
▁mere	-5026
▁आग	-5027
किंग	-5028
▁भरो	-5029
▁भारी	-5030
▁discuss	-5031
चक	-5032
▁Where	-5033
▁single	-5034
▁bur	-5035
▁mass	-5036
▁कहना	-5037
chan	-5038
▁प्रशास	-5039
▁appropri	-5040
▁करनी	-5041
▁April	-5042
▁विचारों	-5043
▁nor	-5044
▁पीड़	-5045
भाई	-5046
ड्ड	-5047
ects	-5048
▁mot	-5049
▁अहम	-5050
▁note	-5051
▁third	-5052
▁समझा	-5053
▁West	-5054
पु	-5055
वेयर	-5056
know	-5057
▁aud	-5058
▁खोल	-5059
cient	-5060
▁March	-5061
▁culture	-5062
iddle	-5063
vest	-5064
▁Off	-5065
▁माता	-5066
anskrit	-5067
▁signific	-5068
▁संस्थानों	-5069
चारियों	-5070
▁conver	-5071
▁physical	-5072
▁arbit	-5073
▁प्रवृ	-5074
io	-5075
▁Service	-5076
ायी	-5077
▁कर्मचारी	-5078
▁programme	-5079
▁treatment	-5080
adu	-5081
▁विनियम	-5082
र्न	-5083
▁Ah	-5084
▁भंड	-5085
▁copy	-5086
▁almost	-5087
▁Indust	-5088
ाक	-5089
quiry	-5090
▁जमीन	-5091
▁published	-5092
कारों	-5093
▁literature	-5094
▁works	-5095
eral	-5096
इयों	-5097
▁Pra	-5098
eness	-5099
स्लिम	-5100
▁अधिसू	-5101
▁फर	-5102
▁saw	-5103
त्री	-5104
▁create	-5105
▁Pranab	-5106
▁छात्र	-5107
▁रेड	-5108
▁आपकी	-5109
▁खुलती	-5110
▁मजिस्ट्रेट	-5111
let	-5112
लाल	-5113
डिया	-5114
▁Ash	-5115
oice	-5116
क्षी	-5117
▁Cons	-5118
▁विधेय	-5119
▁मूल्यांकन	-5120
▁regular	-5121
▁ll	-5122
▁निकट	-5123
▁issues	-5124
pecially	-5125
रीत	-5126
▁teacher	-5127
▁कार्यों	-5128
▁दिवस	-5129
▁giving	-5130
▁नेटवर्क	-5131
▁wide	-5132
▁मुस्लिम	-5133
▁सजा	-5134
ators	-5135
िनी	-5136
▁marriage	-5137
▁aim	-5138
▁चरण	-5139
▁संघर्ष	-5140
jab	-5141
▁तरफ	-5142
स्य	-5143
▁जिम्मे	-5144
▁मल	-5145
▁Our	-5146
oor	-5147
▁विंडों	-5148
▁कर्मचारियों	-5149
ousand	-5150
ूँ	-5151
▁कहानी	-5152
▁शास्त	-5153
▁least	-5154
▁serious	-5155
▁Prasad	-5156
to	-5157
किल	-5158
▁products	-5159
avi	-5160
▁low	-5161
डर	-5162
▁चुनौती	-5163
टों	-5164
ल्स	-5165
▁अत्यंत	-5166
▁Tribunal	-5167
IA	-5168
▁बधा	-5169
▁शता	-5170
▁Can	-5171
for	-5172
▁व्याव	-5173
▁compet	-5174
▁विपरीत	-5175
▁meaning	-5176
▁Education	-5177
ones	-5178
▁आते	-5179
▁नेता	-5180
▁prescribed	-5181
▁During	-5182
▁तकनीकी	-5183
ask	-5184
pta	-5185
▁खास	-5186
▁संसाधन	-5187
▁पहल	-5188
▁produced	-5189
▁चलता	-5190
िटी	-5191
राज्य	-5192
ंव	-5193
▁विफल	-5194
▁Republic	-5195
▁Kal	-5196
▁इच्छा	-5197
ोग्राम	-5198
▁arrest	-5199
▁dri	-5200
▁leave	-5201
ंबई	-5202
▁लिखित	-5203
▁बधाई	-5204
▁शेष	-5205
▁enter	-5206
▁created	-5207
▁महत्त्व	-5208
▁दौ	-5209
▁operation	-5210
▁typ	-5211
▁हैः	-5212
▁Code	-5213
▁कीमत	-5214
istrate	-5215
▁aspect	-5216
▁आंदोलन	-5217
▁carried	-5218
ंति	-5219
▁criminal	-5220
▁conscious	-5221
▁resources	-5222
ayan	-5223
▁शास	-5224
istration	-5225
ंकर	-5226
mits	-5227
▁soft	-5228
▁ग्राह	-5229
▁प्राचीन	-5230
▁एससी	-5231
▁बिज	-5232
▁पाने	-5233
▁पंचायत	-5234
टल	-5235
▁अप्रैल	-5236
▁ensure	-5237
▁observed	-5238
enty	-5239
hold	-5240
▁हटा	-5241
oresaid	-5242
▁reference	-5243
दंड	-5244
▁सित	-5245
▁संगीत	-5246
▁जानते	-5247
▁design	-5248
▁laid	-5249
▁changes	-5250
▁subs	-5251
▁न्यू	-5252
▁study	-5253
utta	-5254
▁makes	-5255
▁बावजूद	-5256
▁followed	-5257
adem	-5258
▁Bill	-5259
दृ	-5260
▁ध्व	-5261
▁room	-5262
▁trib	-5263
▁अधिकारों	-5264
▁Under	-5265
ष्ठा	-5266
▁वर्णन	-5267
▁aforesaid	-5268
भाषा	-5269
▁मध्यस्थ	-5270
▁गतिविध	-5271
rence	-5272
rote	-5273
र्प	-5274
▁procedure	-5275
न्ट	-5276
ायक	-5277
▁घट	-5278
▁आकर्ष	-5279
▁accepted	-5280
▁अवि	-5281
▁continue	-5282
den	-5283
▁इजरा	-5284
eep	-5285
▁achieve	-5286
▁repl	-5287
bed	-5288
▁बौ	-5289
▁reached	-5290
▁सम्मिलित	-5291
pir	-5292
▁job	-5293
▁woman	-5294
▁Sanskrit	-5295
▁ever	-5296
▁परिप	-5297
▁गरी	-5298
▁doing	-5299
▁temple	-5300
▁दास	-5301
▁आदर्श	-5302
▁लेते	-5303
▁earth	-5304
estern	-5305
▁पड़े	-5306
▁especially	-5307
part	-5308
▁स्वरूप	-5309
itude	-5310
▁efforts	-5311
▁document	-5312
su	-5313
▁lot	-5314
▁Please	-5315
▁प्रयोजन	-5316
▁उत्तरदाताओं	-5317
▁कल्या	-5318
▁qual	-5319
▁approach	-5320
ankar	-5321
▁पहला	-5322
▁निवासी	-5323
inate	-5324
▁पर्व	-5325
▁निहित	-5326
▁dr	-5327
▁check	-5328
▁transl	-5329
▁benefit	-5330
▁price	-5331
ंता	-5332
▁Respond	-5333
itled	-5334
▁king	-5335
▁possession	-5336
श्	-5337
▁sure	-5338
ires	-5339
▁इंज	-5340
▁Punjab	-5341
▁ईसा	-5342
▁वाणिज्यिक	-5343
sembly	-5344
्षिक	-5345
▁manufact	-5346
▁चीज	-5347
▁fig	-5348
▁सम्बन्ध	-5349
▁officer	-5350
▁sale	-5351
▁article	-5352
▁प्रत्यक्ष	-5353
omp	-5354
▁अतः	-5355
▁prepared	-5356
थि	-5357
▁ब्रह	-5358
▁structure	-5359
ique	-5360
्रिया	-5361
ump	-5362
▁तुर	-5363
osition	-5364
▁event	-5365
▁global	-5366
▁इंडिया	-5367
▁hands	-5368
▁govern	-5369
▁parent	-5370
▁anal	-5371
▁Chair	-5372
▁Panchay	-5373
▁टै	-5374
▁अच्छे	-5375
▁भरोसा	-5376
▁प्रयोज	-5377
▁born	-5378
▁फ़ाइल	-5379
▁अना	-5380
▁अर्थव्य	-5381
▁परिवर्त	-5382
केट	-5383
▁birth	-5384
▁purch	-5385
ार्थियों	-5386
▁committed	-5387
▁respondents	-5388
▁मां	-5389
▁Legisl	-5390
▁Trans	-5391
tax	-5392
▁क्षति	-5393
▁Report	-5394
त्न	-5395
▁नये	-5396
▁sust	-5397
▁tree	-5398
rary	-5399
▁जरूरी	-5400
▁पड़ता	-5401
▁thousand	-5402
ipur	-5403
osop	-5404
▁Shiv	-5405
▁pati	-5406
pped	-5407
▁wrote	-5408
▁innov	-5409
▁लगाने	-5410
▁science	-5411
▁adj	-5412
▁caused	-5413
ह्न	-5414
▁defendant	-5415
▁विवे	-5416
देव	-5417
▁East	-5418
▁Shah	-5419
▁Krishna	-5420
▁doct	-5421
▁enough	-5422
ora	-5423
घ्र	-5424
िक्	-5425
▁एंड	-5426
▁final	-5427
ूंकि	-5428
▁IND	-5429
▁अंश	-5430
▁प्रसन्न	-5431
▁Income	-5432
▁improve	-5433
धर	-5434
▁Sam	-5435
▁cut	-5436
ंपरा	-5437
▁दबा	-5438
ox	-5439
शाली	-5440
▁judicial	-5441
▁हट	-5442
▁appre	-5443
▁Mem	-5444
▁कर्त	-5445
▁चूंकि	-5446
▁विस्तृत	-5447
▁admitted	-5448
endment	-5449
oo	-5450
▁Ak	-5451
▁आपराधिक	-5452
▁Vill	-5453
▁व्यय	-5454
vi	-5455
▁punish	-5456
ब्दी	-5457
▁भौतिक	-5458
ancy	-5459
▁presence	-5460
▁आनंद	-5461
▁इंटर	-5462
▁खाता	-5463
▁सश	-5464
▁इंग	-5465
▁त्रुटि	-5466
▁Institute	-5467
लीय	-5468
be	-5469
▁lakh	-5470
▁providing	-5471
गो	-5472
▁hon	-5473
ban	-5474
arily	-5475
▁अध्याय	-5476
▁resident	-5477
▁appearing	-5478
▁प्रतिनिधित्व	-5479
वाय	-5480
ून्य	-5481
▁Sim	-5482
▁छोटा	-5483
पालिका	-5484
▁profession	-5485
▁Corporation	-5486
▁doubt	-5487
▁complain	-5488
▁लाने	-5489
▁Therefore	-5490
▁direction	-5491
▁बनाना	-5492
▁Gang	-5493
▁संचार	-5494
▁खाद्य	-5495
▁investigation	-5496
▁खान	-5497
▁कठिन	-5498
▁अनुमान	-5499
▁alleged	-5500
बत	-5501
▁शाह	-5502
▁laws	-5503
▁पात्र	-5504
▁आदमी	-5505
▁South	-5506
ras	-5507
▁Secretary	-5508
eet	-5509
▁appropriate	-5510
estic	-5511
ension	-5512
undred	-5513
▁whom	-5514
▁eight	-5515
▁Special	-5516
hra	-5517
ंगिक	-5518
▁बंध	-5519
▁सात	-5520
▁Such	-5521
▁सुश्री	-5522
▁सका	-5523
▁नारा	-5524
▁चंद्र	-5525
▁मंडल	-5526
न्ना	-5527
▁mand	-5528
▁Senior	-5529
रिया	-5530
▁dam	-5531
▁बें	-5532
▁परंपरा	-5533
▁प्रतीत	-5534
ously	-5535
▁संपूर्ण	-5536
▁अक	-5537
▁path	-5538
▁सामना	-5539
urs	-5540
▁हिन्दू	-5541
▁Mun	-5542
▁कृत	-5543
ilosop	-5544
खिल	-5545
▁परिच	-5546
ili	-5547
irst	-5548
▁अगले	-5549
▁daughter	-5550
▁front	-5551
▁quite	-5552
▁खत	-5553
▁गिरफ्त	-5554
▁install	-5555
▁truth	-5556
▁contact	-5557
लब	-5558
ितीय	-5559
▁घोषित	-5560
▁कल्याण	-5561
▁regarding	-5562
▁चुके	-5563
▁univers	-5564
adav	-5565
शाला	-5566
रत	-5567
hood	-5568
▁mur	-5569
▁मात्र	-5570
११	-5571
▁rural	-5572
▁victim	-5573
▁गाँव	-5574
▁कौन	-5575
▁अंतरराष्ट्रीय	-5576
▁wrong	-5577
▁travel	-5578
▁raised	-5579
▁increase	-5580
encies	-5581
▁led	-5582
▁bey	-5583
gram	-5584
ring	-5585
▁समृ	-5586
▁निर्मित	-5587
body	-5588
▁जून	-5589
▁जैन	-5590
▁सदन	-5591
▁हास	-5592
▁विजय	-5593
▁प्राण	-5594
▁विधेयक	-5595
▁Som	-5596
▁investment	-5597
▁Pak	-5598
hic	-5599
▁रखे	-5600
▁pros	-5601
▁रोजगार	-5602
▁विनिर्दिष्ट	-5603
▁From	-5604
▁अनुक	-5605
▁उपबंधों	-5606
rug	-5607
▁stay	-5608
▁राजन	-5609
▁होनी	-5610
▁दस्तावेज	-5611
ृत्व	-5612
धानिक	-5613
▁stru	-5614
▁trust	-5615
▁अनुरोध	-5616
▁correct	-5617
▁मिलने	-5618
▁firm	-5619
▁दर्शन	-5620
▁source	-5621
बि	-5622
aves	-5623
▁Lok	-5624
▁girl	-5625
▁तथापि	-5626
▁Magistrate	-5627
▁sac	-5628
mir	-5629
कला	-5630
▁अली	-5631
मात्र	-5632
▁beyond	-5633
▁heard	-5634
्रीम	-5635
▁search	-5636
ष्ट्र	-5637
▁कोशिका	-5638
▁शुभ	-5639
ference	-5640
▁effective	-5641
▁Bhag	-5642
▁प्रव	-5643
▁अर्थव्यवस्था	-5644
▁क्षेत्रीय	-5645
सूस	-5646
स्ती	-5647
▁यादव	-5648
▁मान्यता	-5649
▁तथ्यों	-5650
ंडे	-5651
दाता	-5652
▁draw	-5653
▁हृदय	-5654
my	-5655
काम	-5656
▁उपरो	-5657
▁क्रा	-5658
दिक	-5659
सभा	-5660
▁एशिया	-5661
▁spot	-5662
▁शेयर	-5663
इड	-5664
नो	-5665
▁पीठ	-5666
▁उन्न	-5667
▁मानसिक	-5668
ार्म	-5669
iture	-5670
▁विश्ले	-5671
▁मालिक	-5672
▁समाचार	-5673
▁पश्चिमी	-5674
▁सम्मेलन	-5675
▁खे	-5676
▁स्थल	-5677
▁aware	-5678
▁ब्ल	-5679
▁वस्तुओं	-5680
▁places	-5681
irm	-5682
face	-5683
▁forms	-5684
▁मजबूत	-5685
वेदन	-5686
▁bound	-5687
▁महिलाओं	-5688
▁spread	-5689
▁Ms	-5690
▁bill	-5691
राब	-5692
न्त्र	-5693
▁गर्इ	-5694
▁प्रसि	-5695
▁particularly	-5696
ruit	-5697
▁टिप	-5698
▁appe	-5699
▁भेजा	-5700
ourage	-5701
दर	-5702
▁निरी	-5703
joy	-5704
राह	-5705
▁वार्षिक	-5706
▁आतंकवाद	-5707
ED	-5708
▁Plan	-5709
▁कार्यान	-5710
▁कृप	-5711
▁poor	-5712
टिल	-5713
न्हीं	-5714
▁coming	-5715
▁इन्ह	-5716
▁aver	-5717
▁नाटक	-5718
▁across	-5719
▁रखी	-5720
लिक	-5721
▁प्रेर	-5722
▁Lim	-5723
▁विरो	-5724
▁sound	-5725
▁सीखे	-5726
▁faith	-5727
▁hundred	-5728
▁exercise	-5729
्वेषण	-5730
AS	-5731
▁economy	-5732
▁popular	-5733
▁अपीलार्थी	-5734
eech	-5735
▁करी	-5736
▁तेजी	-5737
▁उपरोक्त	-5738
स्म	-5739
▁und	-5740
▁हिंदू	-5741
▁log	-5742
▁सरल	-5743
▁river	-5744
▁शून्य	-5745
तृत्व	-5746
सान	-5747
▁coop	-5748
▁गुजरा	-5749
▁शिकायतकर्ता	-5750
▁ताल	-5751
▁कार्यान्व	-5752
play	-5753
▁Guj	-5754
▁Tam	-5755
▁reach	-5756
▁अपीलकर्ताओं	-5757
▁गठन	-5758
▁बनी	-5759
▁sens	-5760
्राष्ट्रीय	-5761
▁generally	-5762
▁behind	-5763
rs	-5764
ख़	-5765
▁रहना	-5766
▁School	-5767
▁Then	-5768
▁attempt	-5769
▁प्राधिकारी	-5770
ini	-5771
though	-5772
▁महसूस	-5773
hest	-5774
rist	-5775
▁Vi	-5776
▁Tra	-5777
▁Counsel	-5778
मक	-5779
▁प्रभ	-5780
र्ती	-5781
व्र	-5782
wan	-5783
ंका	-5784
▁आवा	-5785
▁Op	-5786
▁fire	-5787
▁नोटिस	-5788
▁percent	-5789
राव	-5790
▁मनो	-5791
▁सम्प	-5792
▁पाए	-5793
▁crop	-5794
acc	-5795
▁harm	-5796
▁host	-5797
rastructure	-5798
rid	-5799
▁existing	-5800
▁Tax	-5801
▁mut	-5802
▁orders	-5803
▁प्रयोजनों	-5804
ंटी	-5805
▁idea	-5806
▁administration	-5807
ja	-5808
▁argu	-5809
द्दी	-5810
▁पीड़ित	-5811
▁becomes	-5812
right	-5813
▁Calc	-5814
▁Fore	-5815
▁International	-5816
▁Hy	-5817
▁रेखा	-5818
▁वाता	-5819
▁bi	-5820
▁गुना	-5821
▁प्राप्ति	-5822
मति	-5823
▁जय	-5824
gest	-5825
▁practice	-5826
ालित	-5827
▁कल्पना	-5828
▁existence	-5829
▁किन	-5830
ivity	-5831
▁द्वार	-5832
▁accordance	-5833
▁nar	-5834
venue	-5835
ober	-5836
▁सुंदर	-5837
reg	-5838
▁हथ	-5839
▁घंट	-5840
earch	-5841
▁बढ़ाने	-5842
▁Day	-5843
सु	-5844
hem	-5845
osh	-5846
ingu	-5847
raft	-5848
▁proved	-5849
▁Village	-5850
▁लौट	-5851
ouses	-5852
▁joint	-5853
▁अनुमो	-5854
यत	-5855
ॉक	-5856
▁basic	-5857
ियार	-5858
▁Ann	-5859
▁pers	-5860
▁अल्प	-5861
leb	-5862
▁अभिप	-5863
▁Khan	-5864
aur	-5865
▁Qu	-5866
NA	-5867
▁courts	-5868
▁size	-5869
▁पाकि	-5870
▁शुद्ध	-5871
▁strength	-5872
हरे	-5873
▁अरब	-5874
▁दृश्य	-5875
▁immediately	-5876
▁er	-5877
म्मद	-5878
▁Red	-5879
▁माह	-5880
▁पहा	-5881
▁examined	-5882
▁उत्तरदाय	-5883
▁निर्वाचन	-5884
chol	-5885
▁निरंतर	-5886
▁समझौते	-5887
▁King	-5888
▁comes	-5889
▁स्रोत	-5890
que	-5891
▁cal	-5892
rif	-5893
▁Kash	-5894
▁कृपया	-5895
IL	-5896
▁आंक	-5897
▁tour	-5898
▁आपका	-5899
▁अनुप्र	-5900
ga	-5901
▁Your	-5902
▁शीघ्र	-5903
dom	-5904
ume	-5905
▁बॉ	-5906
▁rather	-5907
atures	-5908
▁बिजली	-5909
▁खार	-5910
▁परम	-5911
▁prevent	-5912
▁importance	-5913
▁appl	-5914
▁felt	-5915
▁facilities	-5916
▁comb	-5917
▁relation	-5918
▁attention	-5919
णु	-5920
▁oil	-5921
▁चेत	-5922
▁Jain	-5923
▁camp	-5924
▁tried	-5925
▁अत्यधिक	-5926
ikh	-5927
▁Mon	-5928
▁कथा	-5929
etimes	-5930
▁simple	-5931
▁connection	-5932
▁List	-5933
▁commercial	-5934
▁हिम	-5935
ulate	-5936
▁details	-5937
▁प्रावधानों	-5938
▁पसंद	-5939
▁शताब्दी	-5940
▁emp	-5941
▁god	-5942
▁समी	-5943
▁central	-5944
▁परिणामस्वरूप	-5945
वाला	-5946
▁journ	-5947
▁lower	-5948
▁Mand	-5949
▁fair	-5950
▁Station	-5951
▁write	-5952
▁ris	-5953
▁sus	-5954
▁wid	-5955
ंडा	-5956
▁सच्च	-5957
▁alone	-5958
्वा	-5959
▁सफ	-5960
▁Company	-5961
रित	-5962
▁says	-5963
▁आयात	-5964
standing	-5965
▁Governor	-5966
▁शे	-5967
anation	-5968
▁iii	-5969
▁जनवरी	-5970
▁समुद्र	-5971
डल	-5972
▁laun	-5973
▁enjoy	-5974
▁IT	-5975
with	-5976
▁continued	-5977
▁Lt	-5978
▁har	-5979
▁Mu	-5980
▁deb	-5981
▁sun	-5982
▁भ्र	-5983
oted	-5984
▁वर	-5985
▁complainant	-5986
▁आती	-5987
▁consist	-5988
ager	-5989
▁माँ	-5990
▁उपस्थिति	-5991
▁हक	-5992
▁plus	-5993
▁वातावरण	-5994
▁cand	-5995
▁सिस्ट	-5996
▁Sun	-5997
▁Bomb	-5998
▁fell	-5999
▁कराने	-6000
▁सांस्	-6001
▁Char	-6002
▁हिस्से	-6003
▁Das	-6004
▁महाम	-6005
▁continu	-6006
racy	-6007
▁ढांच	-6008
वेक्षण	-6009
▁reform	-6010
▁believe	-6011
▁constitution	-6012
▁पेज	-6013
▁गि	-6014
▁सुब	-6015
▁इतनी	-6016
▁उल	-6017
▁foc	-6018
▁Arab	-6019
▁इजरायल	-6020
apter	-6021
overy	-6022
▁विद्यमान	-6023
ष्क	-6024
▁गर्	-6025
▁लेन	-6026
ables	-6027
▁exchange	-6028
▁responsible	-6029
▁collect	-6030
ंडी	-6031
कृष्ट	-6032
▁Work	-6033
▁अनुप	-6034
▁Des	-6035
प्ताह	-6036
▁Prof	-6037
▁असफल	-6038
▁बौद्ध	-6039
▁heav	-6040
▁recommend	-6041
▁Bas	-6042
▁गृह	-6043
▁पोस्ट	-6044
▁Ved	-6045
▁पाठ्य	-6046
▁contained	-6047
नु	-6048
▁Net	-6049
▁Sept	-6050
▁prob	-6051
▁सूक्ष्म	-6052
▁आंत	-6053
▁fast	-6054
▁extent	-6055
▁judge	-6056
▁Authority	-6057
sy	-6058
▁गुरु	-6059
aker	-6060
▁philosop	-6061
▁ग्रहण	-6062
▁उपन्यास	-6063
▁expression	-6064
▁नक	-6065
▁Aug	-6066
ेश्वर	-6067
▁मानते	-6068
▁Kar	-6069
▁deg	-6070
▁died	-6071
▁अवै	-6072
▁इत्या	-6073
रान	-6074
▁चंद	-6075
▁failed	-6076
▁citizens	-6077
▁टिप्प	-6078
use	-6079
▁unit	-6080
▁स्पष्टीकरण	-6081
▁प्रतिक्रिया	-6082
abor	-6083
▁January	-6084
▁भाषण	-6085
▁Spe	-6086
▁Calcutta	-6087
▁employment	-6088
ene	-6089
▁नामक	-6090
सों	-6091
▁mov	-6092
▁समझौता	-6093
▁अस्तित्व	-6094
ज्य	-6095
iles	-6096
▁novel	-6097
▁काव्य	-6098
ulations	-6099
▁आल	-6100
▁उपा	-6101
ograph	-6102
anced	-6103
▁concept	-6104
▁limited	-6105
ैक	-6106
▁त्या	-6107
ामा	-6108
▁began	-6109
▁potential	-6110
hu	-6111
▁वाद	-6112
▁Yadav	-6113
▁प्रार्थ	-6114
▁activity	-6115
▁अनुसूचित	-6116
▁entitled	-6117
▁प्रधानमंत्री	-6118
रेट	-6119
▁निवास	-6120
eds	-6121
पीठ	-6122
▁lost	-6123
▁happy	-6124
▁Jag	-6125
▁sex	-6126
▁सॉ	-6127
▁कथित	-6128
▁प्रजा	-6129
▁विमान	-6130
▁spiritual	-6131
▁Technology	-6132
लग्न	-6133
▁लेखक	-6134
▁getting	-6135
▁charges	-6136
▁Up	-6137
iance	-6138
▁सीधे	-6139
▁पुनर्	-6140
ipt	-6141
▁गौ	-6142
▁प्रार्थना	-6143
▁leaders	-6144
▁otherwise	-6145
▁प्रदर्शित	-6146
▁दिये	-6147
equ	-6148
भूम	-6149
▁दै	-6150
▁Afric	-6151
haps	-6152
▁जेल	-6153
▁प्रवि	-6154
▁Scheme	-6155
▁gives	-6156
▁until	-6157
चार्य	-6158
▁पंजाब	-6159
▁clearly	-6160
ris	-6161
वों	-6162
▁Bang	-6163
▁समस्याओं	-6164
itting	-6165
heduled	-6166
ासा	-6167
▁groups	-6168
▁loan	-6169
▁अनुवाद	-6170
▁Ker	-6171
▁कंपन	-6172
▁First	-6173
▁granted	-6174
▁anim	-6175
▁नवान	-6176
▁प्रयासों	-6177
▁Gupta	-6178
▁नं	-6179
▁पूर्वो	-6180
▁घा	-6181
▁forest	-6182
ton	-6183
▁pray	-6184
▁milit	-6185
▁बिहार	-6186
▁Bombay	-6187
▁सांस्कृतिक	-6188
▁Son	-6189
▁mom	-6190
▁involved	-6191
▁film	-6192
oud	-6193
▁मू	-6194
▁disci	-6195
▁space	-6196
essions	-6197
▁Assist	-6198
▁Gov	-6199
▁खारिज	-6200
▁अन्तर्	-6201
▁संदेह	-6202
▁नेतृत्व	-6203
▁wall	-6204
उस	-6205
▁फूल	-6206
▁seven	-6207
▁निकाय	-6208
▁प्रभार	-6209
▁विद्युत	-6210
▁डाक	-6211
▁स्थाना	-6212
▁usually	-6213
alty	-6214
nces	-6215
▁Dece	-6216
ेंशन	-6217
▁reasons	-6218
▁authorities	-6219
rik	-6220
गीय	-6221
▁नजर	-6222
श्मीर	-6223
▁Bihar	-6224
▁employees	-6225
▁appointment	-6226
▁status	-6227
▁चले	-6228
▁remain	-6229
▁certificate	-6230
▁der	-6231
▁एकल	-6232
▁sold	-6233
▁उत्स	-6234
▁शक्तियों	-6235
aks	-6236
rick	-6237
▁द्र	-6238
▁विद्वान	-6239
शय	-6240
▁bit	-6241
▁try	-6242
elling	-6243
▁Utt	-6244
▁unf	-6245
▁जाँच	-6246
▁discl	-6247
▁paper	-6248
▁officers	-6249
वत	-6250
आईआर	-6251
वाले	-6252
▁Wor	-6253
▁measures	-6254
rown	-6255
enced	-6256
▁तेज	-6257
▁Oct	-6258
ticles	-6259
▁अभिया	-6260
▁संचालन	-6261
▁विशेषज्ञ	-6262
▁अगस्त	-6263
दास	-6264
▁चिह्न	-6265
oke	-6266
द्या	-6267
▁राजस्व	-6268
क्ट्र	-6269
▁wanted	-6270
▁programmes	-6271
uls	-6272
▁Vish	-6273
rant	-6274
isters	-6275
▁Tamil	-6276
▁American	-6277
▁Centre	-6278
▁पीओ	-6279
▁fixed	-6280
ext	-6281
▁poll	-6282
ights	-6283
▁साम्रा	-6284
ज़ा	-6285
▁Article	-6286
yan	-6287
▁reve	-6288
▁vehic	-6289
▁गवाहों	-6290
उट	-6291
वें	-6292
▁टन	-6293
▁समन्व	-6294
▁इरा	-6295
▁हिंदी	-6296
▁appears	-6297
▁eye	-6298
▁तट	-6299
▁लै	-6300
eful	-6301
▁setting	-6302
चरण	-6303
▁आँ	-6304
▁रद्द	-6305
▁produce	-6306
▁प्रसिद्ध	-6307
▁beginning	-6308
वीय	-6309
नाएं	-6310
▁Princi	-6311
▁senior	-6312
▁Sal	-6313
▁occup	-6314
▁takes	-6315
▁आये	-6316
▁गहरा	-6317
▁मेल	-6318
▁increased	-6319
दारों	-6320
मूर्ति	-6321
jay	-6322
▁दिस	-6323
▁page	-6324
▁दावे	-6325
▁शैली	-6326
▁अधिकतम	-6327
▁देखभाल	-6328
▁assistance	-6329
▁न्यून	-6330
दूर	-6331
▁TO	-6332
enth	-6333
▁eyes	-6334
umbai	-6335
▁अवैध	-6336
▁वितरण	-6337
▁ep	-6338
▁सुख	-6339
▁soul	-6340
▁इंजीन	-6341
▁प्रचार	-6342
▁relationship	-6343
ishes	-6344
▁वैश्व	-6345
▁Ltd	-6346
▁छह	-6347
▁rich	-6348
▁separate	-6349
▁significant	-6350
▁June	-6351
▁mount	-6352
▁shown	-6353
▁lives	-6354
▁आपूर्ति	-6355
▁cultural	-6356
ज़ी	-6357
▁वज	-6358
▁limit	-6359
▁जिनका	-6360
▁September	-6361
▁song	-6362
▁मुसलमानों	-6363
लि	-6364
ारात्मक	-6365
obile	-6366
▁declared	-6367
elfare	-6368
▁लक्षण	-6369
▁पुराने	-6370
▁Of	-6371
itle	-6372
क्शन	-6373
▁बाई	-6374
fficient	-6375
▁contribut	-6376
▁पाकिस्तान	-6377
▁accounts	-6378
▁मई	-6379
▁इनके	-6380
▁गणराज्य	-6381
▁काउ	-6382
▁Every	-6383
ensation	-6384
ley	-6385
राम	-6386
▁सड़क	-6387
uction	-6388
▁कलक	-6389
प्रिय	-6390
▁partn	-6391
▁युक्त	-6392
जीव	-6393
aded	-6394
मय	-6395
com	-6396
▁Addition	-6397
▁Budd	-6398
▁बनाई	-6399
▁transport	-6400
▁gone	-6401
▁छोड़कर	-6402
▁proposed	-6403
▁सर्वा	-6404
▁projects	-6405
▁गतिविधियों	-6406
▁agricultural	-6407
ब्ल्यू	-6408
▁candid	-6409
▁dig	-6410
▁अनुकूल	-6411
▁टा	-6412
apur	-6413
▁Smt	-6414
▁defin	-6415
▁schol	-6416
▁Account	-6417
▁defence	-6418
ज्ञात	-6419
▁गंगा	-6420
RI	-6421
▁pal	-6422
lig	-6423
्ति	-6424
भूमि	-6425
▁win	-6426
▁सारी	-6427
▁August	-6428
▁hum	-6429
▁hospital	-6430
▁protection	-6431
लाइन	-6432
▁फाय	-6433
▁College	-6434
etic	-6435
▁responsibility	-6436
ouch	-6437
▁कोल	-6438
AY	-6439
▁crore	-6440
▁साफ	-6441
inated	-6442
▁इत्यादि	-6443
▁पूजा	-6444
▁scale	-6445
▁प्रायः	-6446
▁Karn	-6447
▁built	-6448
▁संस्करण	-6449
▁संस्थाओं	-6450
▁्	-6451
▁स्थानों	-6452
▁World	-6453
▁histor	-6454
▁आकर्षित	-6455
▁Will	-6456
▁सिस्टम	-6457
▁companies	-6458
▁else	-6459
▁round	-6460
▁Pakistan	-6461
▁सूट	-6462
▁INDIA	-6463
▁मिलती	-6464
▁सत्या	-6465
▁territ	-6466
▁December	-6467
▁Ali	-6468
▁तभी	-6469
▁कटौती	-6470
▁फिल्म	-6471
▁टाइ	-6472
▁शारी	-6473
stituted	-6474
▁conducted	-6475
फे	-6476
▁Ac	-6477
▁adopted	-6478
▁substant	-6479
▁Lear	-6480
विक	-6481
▁ign	-6482
संगत	-6483
▁emb	-6484
▁informed	-6485
▁mental	-6486
▁principle	-6487
▁thereafter	-6488
र्घ	-6489
▁लाया	-6490
pper	-6491
▁करार	-6492
▁included	-6493
परी	-6494
▁Feb	-6495
▁उम्र	-6496
▁banks	-6497
▁छूट	-6498
▁station	-6499
▁industries	-6500
▁फॉ	-6501
▁formed	-6502
▁values	-6503
▁अधिकरण	-6504
▁Tur	-6505
▁assault	-6506
▁तुम्हें	-6507
रक	-6508
ूष	-6509
ूबर	-6510
ades	-6511
▁साझ	-6512
▁जल्दी	-6513
enditure	-6514
▁प्रेरित	-6515
▁योग्यता	-6516
▁प्रशासनिक	-6517
▁प्रोग्राम	-6518
्राफ	-6519
▁consequ	-6520
yle	-6521
▁Di	-6522
▁pref	-6523
▁घरे	-6524
▁मना	-6525
▁श्व	-6526
▁बिंद	-6527
▁warm	-6528
▁normal	-6529
gn	-6530
oj	-6531
▁पथ	-6532
▁extre	-6533
▁protect	-6534
▁Panchayat	-6535
ड़ाई	-6536
▁goes	-6537
▁ideas	-6538
▁आपने	-6539
▁हानि	-6540
▁नाग	-6541
▁October	-6542
▁cy	-6543
▁मधु	-6544
▁हमला	-6545
▁सूचित	-6546
▁poetry	-6547
देन	-6548
▁IN	-6549
▁systems	-6550
add	-6551
▁Christ	-6552
▁NA	-6553
inder	-6554
▁context	-6555
▁learning	-6556
कत	-6557
rate	-6558
▁teach	-6559
vention	-6560
ियत	-6561
▁बेच	-6562
▁Chairman	-6563
वादियों	-6564
▁presented	-6565
ृंख	-6566
▁sil	-6567
▁review	-6568
▁सहकारी	-6569
ानु	-6570
▁अफ्री	-6571
▁यानी	-6572
cer	-6573
ियल	-6574
▁तमिल	-6575
▁dispute	-6576
icit	-6577
▁construction	-6578
ole	-6579
त्मिक	-6580
▁अभिव्यक्ति	-6581
▁team	-6582
▁infrastructure	-6583
▁पत्त	-6584
▁फसल	-6585
▁supply	-6586
aram	-6587
omen	-6588
▁coll	-6589
▁इकाई	-6590
▁Other	-6591
▁न्यायाधीशों	-6592
▁Def	-6593
▁dele	-6594
▁शुभकाम	-6595
▁Fur	-6596
esides	-6597
▁अर्थात	-6598
ze	-6599
icro	-6600
▁SCC	-6601
ंजन	-6602
▁अमरी	-6603
्रय	-6604
▁CO	-6605
▁कॉलेज	-6606
▁शारीरिक	-6607
▁बातों	-6608
▁बचाव	-6609
▁Prime	-6610
▁hearing	-6611
▁sn	-6612
rep	-6613
iful	-6614
▁इले	-6615
ograp	-6616
▁बढ़ावा	-6617
बाइल	-6618
▁connect	-6619
▁subsequ	-6620
▁includes	-6621
▁अधिसूचना	-6622
▁instrument	-6623
▁मंच	-6624
▁अभिन	-6625
▁Fund	-6626
▁मुंबई	-6627
▁लगातार	-6628
▁प्रयुक्त	-6629
▁Add	-6630
▁furn	-6631
▁North	-6632
▁mechan	-6633
▁विश्लेषण	-6634
▁पकड़	-6635
▁shows	-6636
asa	-6637
lal	-6638
▁बैंकों	-6639
▁Roy	-6640
चारिक	-6641
▁घरेलू	-6642
▁सप्ताह	-6643
कलन	-6644
▁broad	-6645
▁गुप्ता	-6646
uck	-6647
dule	-6648
▁आजा	-6649
▁drug	-6650
▁valid	-6651
▁concern	-6652
▁pack	-6653
▁वालों	-6654
▁strugg	-6655
pex	-6656
नाम	-6657
▁Ur	-6658
▁धो	-6659
▁आध्या	-6660
▁लोकतंत्र	-6661
चित्र	-6662
▁decisions	-6663
▁श्रम	-6664
तल	-6665
पान	-6666
▁मतलब	-6667
▁पंजीकरण	-6668
▁functions	-6669
िर्	-6670
रासत	-6671
▁ways	-6672
▁साधन	-6673
▁सभ	-6674
▁agg	-6675
▁अब्द	-6676
▁सुभाष	-6677
oll	-6678
▁कठोर	-6679
▁plants	-6680
ंघन	-6681
▁Program	-6682
▁अल्	-6683
▁एका	-6684
ruary	-6685
पों	-6686
िकी	-6687
▁चक्र	-6688
▁कठिना	-6689
▁bad	-6690
reen	-6691
▁engine	-6692
where	-6693
▁भागों	-6694
▁समस्त	-6695
▁बुद्धि	-6696
▁Further	-6697
ucle	-6698
icated	-6699
▁कुंजी	-6700
▁secret	-6701
▁एकमात्र	-6702
ni	-6703
दरा	-6704
▁summ	-6705
▁Mumbai	-6706
डु	-6707
ोम	-6708
करी	-6709
▁perf	-6710
▁जनरल	-6711
▁दर्शा	-6712
▁arrange	-6713
ille	-6714
▁Any	-6715
▁शिश	-6716
▁Expl	-6717
▁Rule	-6718
▁refers	-6719
▁विषयों	-6720
▁hope	-6721
▁music	-6722
▁reserv	-6723
दु	-6724
िड	-6725
▁मिश्र	-6726
ason	-6727
rator	-6728
कालिक	-6729
शास्त	-6730
▁device	-6731
▁attract	-6732
▁प्रारंभिक	-6733
UR	-6734
▁opt	-6735
osing	-6736
oms	-6737
▁Many	-6738
▁कारणों	-6739
uge	-6740
▁नेहर	-6741
▁हजार	-6742
▁देखें	-6743
▁depend	-6744
▁unless	-6745
▁विभाजन	-6746
▁Kashmir	-6747
▁February	-6748
▁increasing	-6749
▁रुपए	-6750
▁मिलकर	-6751
▁लक्ष्म	-6752
▁sentence	-6753
दीय	-6754
▁hol	-6755
▁lit	-6756
▁जोख	-6757
▁steps	-6758
▁Second	-6759
▁July	-6760
▁ठहरा	-6761
▁Abd	-6762
▁काट	-6763
▁दूरी	-6764
▁express	-6765
▁Nag	-6766
▁fem	-6767
▁contended	-6768
attle	-6769
▁कारबार	-6770
▁उड़	-6771
▁celeb	-6772
▁बुनिया	-6773
▁workers	-6774
▁forces	-6775
▁अमेरिक	-6776
▁अनुप्रयोग	-6777
icip	-6778
▁principles	-6779
▁महत्त्वपूर्ण	-6780
▁तरीका	-6781
▁inside	-6782
▁fra	-6783
▁नुक	-6784
▁जिले	-6785
▁hours	-6786
▁न्यूनतम	-6787
▁learn	-6788
▁चेतना	-6789
▁receipt	-6790
▁submits	-6791
▁टेली	-6792
▁नष्ट	-6793
▁बेंच	-6794
▁black	-6795
▁directed	-6796
▁hor	-6797
▁sym	-6798
▁तीव्र	-6799
▁मौसम	-6800
▁Fl	-6801
▁Office	-6802
▁Tw	-6803
▁max	-6804
▁फोन	-6805
▁added	-6806
▁शुरुआ	-6807
ियोग	-6808
ृंखला	-6809
▁minor	-6810
▁आक्रमण	-6811
▁Additional	-6812
▁Soci	-6813
▁week	-6814
▁violence	-6815
ेंसी	-6816
▁वजह	-6817
aught	-6818
▁खुशी	-6819
▁Since	-6820
▁medic	-6821
▁strengt	-6822
ror	-6823
▁threat	-6824
adh	-6825
▁nom	-6826
▁carry	-6827
▁अंतरण	-6828
▁इन्हें	-6829
▁Limited	-6830
स्ते	-6831
बन	-6832
्यार	-6833
olute	-6834
▁कुशल	-6835
▁fully	-6836
▁मानक	-6837
▁receive	-6838
ented	-6839
तिहासिक	-6840
▁सुप्रीम	-6841
ताब	-6842
▁संगण	-6843
▁अनुरूप	-6844
▁जायेगा	-6845
▁अभिक	-6846
▁fight	-6847
▁Assembly	-6848
▁names	-6849
▁प्रमाणपत्र	-6850
osis	-6851
ties	-6852
क्षेत्र	-6853
onst	-6854
▁अके	-6855
anger	-6856
▁सुनवाई	-6857
▁America	-6858
▁ancient	-6859
▁विद्यार्थियों	-6860
iny	-6861
▁दोषी	-6862
▁famous	-6863
चीत	-6864
िन्	-6865
▁Nove	-6866
▁चुकी	-6867
▁तुरंत	-6868
▁Appell	-6869
▁नारायण	-6870
▁राव	-6871
▁रखता	-6872
▁छि	-6873
क्षिक	-6874
▁सूर्	-6875
cience	-6876
▁पहुँच	-6877
▁स्वागत	-6878
▁Judicial	-6879
▁longer	-6880
▁appreci	-6881
▁राजनैतिक	-6882
▁संगठ	-6883
▁हासिल	-6884
▁lic	-6885
▁pie	-6886
▁Management	-6887
▁department	-6888
tion	-6889
▁करेगी	-6890
▁अंतर्राष्ट्रीय	-6891
oti	-6892
▁Gh	-6893
▁feed	-6894
▁यूरोप	-6895
▁शुभकामनाएं	-6896
ढ़ी	-6897
▁fear	-6898
▁assets	-6899
▁fal	-6900
▁arch	-6901
ashtra	-6902
▁imag	-6903
▁जोखिम	-6904
▁सेवाएं	-6905
▁dispos	-6906
▁directly	-6907
▁तल	-6908
ites	-6909
▁questions	-6910
▁आध्यात्मिक	-6911
▁ren	-6912
verse	-6913
▁fram	-6914
▁independent	-6915
नाटक	-6916
▁अनुपात	-6917
▁November	-6918
▁बातचीत	-6919
▁अपेक्षित	-6920
गण	-6921
ellect	-6922
▁शर्तों	-6923
▁unc	-6924
▁नमू	-6925
asth	-6926
ATION	-6927
▁user	-6928
▁गर्म	-6929
▁प्रका	-6930
▁distin	-6931
▁moment	-6932
▁परिवहन	-6933
▁बाह	-6934
ataka	-6935
▁relief	-6936
ont	-6937
▁प्ले	-6938
▁speech	-6939
न्य	-6940
शनल	-6941
▁आठ	-6942
▁भु	-6943
▁ago	-6944
▁वीर	-6945
▁हवा	-6946
▁कोड	-6947
▁Stand	-6948
▁कलकत्ता	-6949
▁registration	-6950
▁जुड़े	-6951
▁occurrence	-6952
▁prop	-6953
▁ग्रंथ	-6954
▁holding	-6955
▁additional	-6956
▁आह	-6957
▁insp	-6958
▁अभिले	-6959
▁pred	-6960
▁त्याग	-6961
▁नैतिक	-6962
▁Kerala	-6963
▁Yog	-6964
▁Services	-6965
▁प्रसार	-6966
▁animals	-6967
ula	-6968
▁wish	-6969
▁imper	-6970
▁units	-6971
▁described	-6972
▁केरल	-6973
▁एकत्र	-6974
▁active	-6975
▁पंजीकृत	-6976
▁performance	-6977
▁उनको	-6978
▁जटिल	-6979
▁funds	-6980
▁संवर्	-6981
amental	-6982
▁advance	-6983
▁friends	-6984
ैया	-6985
▁वीडियो	-6986
EE	-6987
▁ru	-6988
▁सहमति	-6989
▁tri	-6990
▁Air	-6991
▁प्रसन्नता	-6992
चलित	-6993
▁rul	-6994
▁मिशन	-6995
ground	-6996
▁सैनिक	-6997
▁रोगी	-6998
▁सुनी	-6999
▁Uttar	-7000
▁बाग	-7001
▁Invest	-7002
▁मुकदमा	-7003
▁कार्यक्रमों	-7004
▁लेता	-7005
▁languages	-7006
▁अस्थ	-7007
िक्स	-7008
isc	-7009
▁ब्रा	-7010
▁instead	-7011
▁radi	-7012
▁minus	-7013
▁अन्यथा	-7014
▁stra	-7015
▁चारों	-7016
▁दीर्घ	-7017
िद	-7018
ॉन	-7019
aji	-7020
▁polic	-7021
▁श्रेणीः	-7022
▁समीक्षा	-7023
▁उत्कृष्ट	-7024
▁Kam	-7025
▁आग्रह	-7026
ndra	-7027
पालन	-7028
▁बर्	-7029
▁base	-7030
▁सुबह	-7031
LE	-7032
asure	-7033
▁leading	-7034
ila	-7035
atha	-7036
▁उल्लंघन	-7037
▁reported	-7038
▁milk	-7039
▁Nagar	-7040
▁मोबाइल	-7041
▁प्रोत्साहन	-7042
garh	-7043
▁ant	-7044
▁अक्	-7045
▁कर्नाटक	-7046
वाली	-7047
ading	-7048
dra	-7049
▁pain	-7050
road	-7051
ासंगिक	-7052
▁मुकदमे	-7053
▁प्रकाशन	-7054
▁ड्रा	-7055
▁Deputy	-7056
▁पुष्टि	-7057
▁standard	-7058
ेंड	-7059
phas	-7060
▁मगर	-7061
▁अनुश	-7062
▁consult	-7063
▁संबंधों	-7064
▁स्मृति	-7065
▁Provided	-7066
▁injuries	-7067
▁tar	-7068
संख्या	-7069
▁आंतरिक	-7070
हिम	-7071
▁जहा	-7072
▁memory	-7073
▁reject	-7074
▁पूर्वी	-7075
▁content	-7076
▁mal	-7077
▁quant	-7078
▁task	-7079
▁फरवरी	-7080
▁वर्मा	-7081
▁labour	-7082
म्स	-7083
▁sea	-7084
▁Post	-7085
▁quar	-7086
▁white	-7087
▁tool	-7088
▁प्रच	-7089
▁sought	-7090
यम	-7091
▁रिश	-7092
▁Open	-7093
▁bod	-7094
rived	-7095
atever	-7096
▁आवेदक	-7097
▁expenditure	-7098
▁१	-7099
त्तम	-7100
त्कार	-7101
▁कौशल	-7102
▁display	-7103
▁विरोधी	-7104
▁election	-7105
▁बनने	-7106
▁More	-7107
▁सहमत	-7108
hru	-7109
▁अभाव	-7110
▁concl	-7111
ुस्तान	-7112
▁twenty	-7113
▁pict	-7114
▁vac	-7115
ially	-7116
▁कार्ड	-7117
▁गुजरात	-7118
▁gri	-7119
▁domestic	-7120
▁FIR	-7121
▁वैध	-7122
▁Assam	-7123
▁उपयोगी	-7124
▁ऐतिहासिक	-7125
▁IS	-7126
▁000	-7127
▁scientific	-7128
idy	-7129
oly	-7130
▁दवा	-7131
▁clean	-7132
▁पृथ्वी	-7133
१२	-7134
▁पशु	-7135
abled	-7136
lying	-7137
▁जनजा	-7138
avit	-7139
▁देय	-7140
▁पट्ट	-7141
▁बजाय	-7142
▁balance	-7143
▁connected	-7144
.-	-7145
izing	-7146
▁Sing	-7147
▁dram	-7148
▁answer	-7149
▁उद्ध	-7150
▁अधिकारिता	-7151
▁बेटी	-7152
ensive	-7153
▁video	-7154
फ्टवेयर	-7155
▁technical	-7156
एच	-7157
ार्ज	-7158
▁चीन	-7159
cription	-7160
▁numbers	-7161
ids	-7162
▁false	-7163
rog	-7164
leep	-7165
▁gold	-7166
▁offer	-7167
▁deemed	-7168
▁highest	-7169
▁tal	-7170
oting	-7171
▁print	-7172
▁कर्तव्य	-7173
▁interests	-7174
▁प्रोट	-7175
udh	-7176
▁Set	-7177
▁len	-7178
▁लें	-7179
▁मीटर	-7180
▁जुलाई	-7181
▁Project	-7182
▁maintain	-7183
▁काग	-7184
aging	-7185
▁बेटे	-7186
▁Arbit	-7187
▁मस्ति	-7188
▁महाराष्ट्र	-7189
वेद	-7190
्रीन	-7191
▁beaut	-7192
▁Administr	-7193
▁Are	-7194
▁types	-7195
▁Er	-7196
▁स्थिर	-7197
▁origin	-7198
▁shop	-7199
▁पहुंचा	-7200
▁बुला	-7201
▁Elect	-7202
▁औष	-7203
▁बू	-7204
▁सुल	-7205
arant	-7206
▁लाइस	-7207
▁complex	-7208
aily	-7209
▁निष्पादन	-7210
▁covered	-7211
▁संसाधनों	-7212
▁ऑन	-7213
▁नेहरू	-7214
▁बदलाव	-7215
▁अभिलेख	-7216
▁morning	-7217
▁benefits	-7218
रणा	-7219
ूर्ण	-7220
▁बाध्य	-7221
▁सर्वेक्षण	-7222
▁educational	-7223
▁खी	-7224
▁fre	-7225
▁likely	-7226
▁संबद्ध	-7227
▁मिस	-7228
▁town	-7229
▁निरा	-7230
▁हस्तक्षेप	-7231
mi	-7232
arya	-7233
▁merely	-7234
▁नागरिकों	-7235
BI	-7236
ailed	-7237
▁करीब	-7238
▁चीज़	-7239
▁न्यायमूर्ति	-7240
जूदा	-7241
▁late	-7242
▁virt	-7243
नात्मक	-7244
▁north	-7245
▁larger	-7246
▁सावधान	-7247
णों	-7248
▁fine	-7249
hya	-7250
▁झा	-7251
▁साइ	-7252
▁entered	-7253
▁ज़र	-7254
▁phot	-7255
▁Research	-7256
▁औसत	-7257
▁कूट	-7258
▁impl	-7259
▁परेश	-7260
खे	-7261
▁System	-7262
▁जनसंख्या	-7263
▁Karnataka	-7264
chand	-7265
▁democracy	-7266
ूंगा	-7267
▁गाय	-7268
सायिक	-7269
▁बाबत	-7270
▁effort	-7271
▁बीमारी	-7272
▁deposed	-7273
▁रस	-7274
▁guid	-7275
ING	-7276
ratic	-7277
▁Health	-7278
▁मौजूदा	-7279
▁recent	-7280
म्मू	-7281
▁मिन	-7282
pping	-7283
▁extra	-7284
▁ट्रायल	-7285
AC	-7286
▁नील	-7287
▁Subh	-7288
▁expressed	-7289
▁Well	-7290
▁vision	-7291
▁strateg	-7292
▁intellect	-7293
ुण	-7294
ika	-7295
ोने	-7296
▁अवश्य	-7297
▁software	-7298
vere	-7299
▁कमज	-7300
ॉप	-7301
apers	-7302
▁प्रवाह	-7303
▁majority	-7304
ल्ला	-7305
▁remov	-7306
▁इनकार	-7307
दर्शन	-7308
▁multip	-7309
▁looking	-7310
▁जम्मू	-7311
erative	-7312
ira	-7313
ोकन	-7314
▁Associ	-7315
ellig	-7316
▁रेलवे	-7317
▁प्रतीक	-7318
▁पाठ्यक्रम	-7319
▁San	-7320
▁गौर	-7321
isition	-7322
▁conflic	-7323
▁ste	-7324
्रांस	-7325
▁Assistant	-7326
ष्णु	-7327
▁Val	-7328
▁Nehru	-7329
▁इलेक्ट्र	-7330
▁Respondent	-7331
▁perman	-7332
ेह	-7333
पास	-7334
▁ton	-7335
▁मंड	-7336
▁stor	-7337
▁स्त्री	-7338
▁सरकारों	-7339
▁UN	-7340
▁named	-7341
▁बातें	-7342
▁कश्मीर	-7343
ysis	-7344
ंध्र	-7345
▁kill	-7346
▁वैश्विक	-7347
▁promotion	-7348
▁तह	-7349
▁भूल	-7350
▁आचरण	-7351
▁नुकसान	-7352
▁revolution	-7353
▁केस	-7354
ugned	-7355
▁परिश	-7356
▁Person	-7357
OS	-7358
थी	-7359
▁बिल्	-7360
▁स्वच्छ	-7361
▁Gujarat	-7362
ौल	-7363
▁tur	-7364
▁स्ना	-7365
▁treated	-7366
▁influence	-7367
▁लगाए	-7368
▁frame	-7369
▁टीम	-7370
▁parents	-7371
्टे	-7372
▁स्की	-7373
ternet	-7374
uation	-7375
▁alleg	-7376
▁speed	-7377
कर्ताओं	-7378
▁academ	-7379
▁स्वर	-7380
▁Africa	-7381
▁Mark	-7382
itable	-7383
साधारण	-7384
▁संसार	-7385
▁relied	-7386
पचारिक	-7387
▁delay	-7388
▁selected	-7389
▁standards	-7390
▁contribution	-7391
ूब	-7392
view	-7393
▁महामहिम	-7394
▁Category	-7395
kh	-7396
porary	-7397
▁running	-7398
▁pan	-7399
ंतरित	-7400
▁Bharat	-7401
▁Though	-7402
िकेट	-7403
▁अक्ष	-7404
▁गुप्त	-7405
▁pattern	-7406
▁लोकप्रिय	-7407
▁rail	-7408
▁जमान	-7409
▁साम्राज्य	-7410
▁दस्तावेजों	-7411
▁Prot	-7412
▁राहत	-7413
▁emerg	-7414
▁exceed	-7415
▁Shankar	-7416
▁आलो	-7417
स्त्र	-7418
▁former	-7419
▁counter	-7420
▁विद्यालय	-7421
ogle	-7422
स्पर	-7423
▁Its	-7424
▁lack	-7425
▁अहमद	-7426
▁generation	-7427
▁ठाक	-7428
भाषित	-7429
▁जाएं	-7430
जीत	-7431
▁नाट	-7432
▁image	-7433
▁अनुदान	-7434
▁विशेषता	-7435
पीय	-7436
▁Mod	-7437
▁देगा	-7438
▁south	-7439
▁Maharashtra	-7440
मंडल	-7441
▁Ant	-7442
▁दूध	-7443
▁Asia	-7444
▁impugned	-7445
▁situated	-7446
▁उत्पादों	-7447
▁बुनियादी	-7448
▁easy	-7449
▁आसान	-7450
▁सारा	-7451
▁middle	-7452
▁प्रासंगिक	-7453
▁payable	-7454
▁प्रस्तावित	-7455
्लो	-7456
aksh	-7457
▁export	-7458
asi	-7459
▁dy	-7460
head	-7461
▁आंख	-7462
▁कथन	-7463
▁util	-7464
▁अस्वी	-7465
▁प्रतिनिधि	-7466
▁एकता	-7467
▁सौंप	-7468
▁द्वीप	-7469
▁बीज	-7470
▁कारा	-7471
▁पुरा	-7472
▁green	-7473
▁हकदार	-7474
▁शीर्षक	-7475
▁समाप्ति	-7476
▁affected	-7477
▁beautiful	-7478
▁notification	-7479
▁पत्थ	-7480
agraph	-7481
▁Inter	-7482
▁War	-7483
▁गैस	-7484
▁रोकने	-7485
ields	-7486
▁Assess	-7487
▁संशोधित	-7488
▁returned	-7489
धों	-7490
▁ge	-7491
▁Andhra	-7492
▁injury	-7493
▁द्वितीय	-7494
र्या	-7495
▁बहा	-7496
▁भर्ती	-7497
▁लाइसेंस	-7498
▁भागीदारी	-7499
abh	-7500
jection	-7501
▁species	-7502
▁विशेषकर	-7503
▁उद्योगों	-7504
▁pursu	-7505
ित्त	-7506
▁weak	-7507
▁interpre	-7508
ंदन	-7509
▁प्री	-7510
▁quick	-7511
▁अभियान	-7512
▁कुमारी	-7513
▁मीडिया	-7514
▁संलग्न	-7515
▁measure	-7516
ूद	-7517
▁बाबू	-7518
uration	-7519
▁emphas	-7520
▁संगठनों	-7521
▁implementation	-7522
mbol	-7523
▁त्व	-7524
▁फीस	-7525
▁आश्च	-7526
charge	-7527
▁seems	-7528
▁applicable	-7529
▁opportunities	-7530
uties	-7531
▁Western	-7532
▁समित	-7533
▁dismiss	-7534
▁supported	-7535
ka	-7536
लर	-7537
▁mode	-7538
▁Indians	-7539
▁भले	-7540
▁extended	-7541
धक	-7542
ows	-7543
घटना	-7544
▁तार	-7545
▁तिथि	-7546
▁दृढ़	-7547
▁वैसे	-7548
ifying	-7549
▁largest	-7550
▁कने	-7551
▁भेद	-7552
▁किलो	-7553
▁देकर	-7554
▁located	-7555
▁पाई	-7556
▁रवी	-7557
icate	-7558
▁stop	-7559
▁grand	-7560
▁Ref	-7561
नर	-7562
ेंद	-7563
▁Kan	-7564
▁site	-7565
▁अंध	-7566
▁प्रयत्न	-7567
▁applications	-7568
ertain	-7569
▁Child	-7570
▁किसानों	-7571
▁sometimes	-7572
▁insurance	-7573
ese	-7574
िपि	-7575
▁Sanj	-7576
▁चलते	-7577
▁fulf	-7578
▁शंकर	-7579
▁संविदा	-7580
wari	-7581
▁Here	-7582
▁costs	-7583
iment	-7584
▁stock	-7585
▁commit	-7586
स्थापित	-7587
▁understanding	-7588
▁hot	-7589
▁मुह	-7590
▁बिंदु	-7591
▁difference	-7592
ज़र	-7593
▁मौत	-7594
▁स्वाम	-7595
▁Palest	-7596
▁पश्चात	-7597
धारी	-7598
▁cash	-7599
▁contem	-7600
▁growing	-7601
▁results	-7602
ोरी	-7603
▁diss	-7604
▁आश्चर्य	-7605
ंदी	-7606
eties	-7607
वित्र	-7608
▁dark	-7609
▁cells	-7610
▁murder	-7611
▁Control	-7612
▁patient	-7613
▁मोहम्मद	-7614
▁compensation	-7615
▁सराह	-7616
▁military	-7617
▁sufficient	-7618
utes	-7619
▁टिक	-7620
force	-7621
▁अनुसूची	-7622
▁Her	-7623
▁range	-7624
▁engaged	-7625
▁Inf	-7626
una	-7627
ँचा	-7628
ocation	-7629
▁तत्काल	-7630
नन	-7631
्यूट	-7632
▁fort	-7633
▁Medical	-7634
▁command	-7635
▁consciousness	-7636
यें	-7637
inery	-7638
usive	-7639
▁वाहन	-7640
▁sanction	-7641
▁associated	-7642
iced	-7643
सिंह	-7644
▁राज्यपाल	-7645
▁Principal	-7646
▁सिद्धांतों	-7647
▁शुरुआत	-7648
▁rout	-7649
▁thereof	-7650
vert	-7651
▁ज्यो	-7652
▁policies	-7653
ateral	-7654
▁nucle	-7655
▁struggle	-7656
▁दुकान	-7657
▁Policy	-7658
▁परस्पर	-7659
पथ	-7660
▁तला	-7661
▁हाला	-7662
▁उत्सा	-7663
▁चिंता	-7664
▁facilit	-7665
▁बिल्कुल	-7666
▁rap	-7667
▁version	-7668
▁restrict	-7669
▁इंस	-7670
▁सृजन	-7671
▁आरम्भ	-7672
▁सर्वाधिक	-7673
▁डर	-7674
ahar	-7675
▁परे	-7676
▁style	-7677
▁temper	-7678
▁instance	-7679
▁उपभोक्ता	-7680
rew	-7681
▁रण	-7682
▁disput	-7683
▁Criminal	-7684
▁hab	-7685
▁कब्जे	-7686
▁Finance	-7687
ैव	-7688
▁आख	-7689
▁मस	-7690
▁reading	-7691
धारित	-7692
▁organisation	-7693
▁अनुबंध	-7694
▁मस्तिष्क	-7695
▁आफ	-7696
▁ताप	-7697
▁mail	-7698
▁risk	-7699
▁धारण	-7700
▁रीति	-7701
न्द्रनाथ	-7702
▁villages	-7703
साइ	-7704
▁इतने	-7705
धरी	-7706
▁break	-7707
▁जाएंगे	-7708
▁applicant	-7709
▁माइ	-7710
▁ones	-7711
▁अक्सर	-7712
▁एससीसी	-7713
▁farmers	-7714
▁कंपनियों	-7715
▁Us	-7716
▁model	-7717
▁Learned	-7718
▁articles	-7719
▁distance	-7720
भारत	-7721
▁chem	-7722
▁घंटे	-7723
▁ठाकुर	-7724
▁अफ्रीका	-7725
▁Sessions	-7726
▁छुट	-7727
▁para	-7728
▁agriculture	-7729
▁आउट	-7730
▁length	-7731
▁shares	-7732
▁communication	-7733
ुति	-7734
▁शादी	-7735
▁Organ	-7736
▁withdra	-7737
▁Scheduled	-7738
ॉँ	-7739
िवी	-7740
▁आमत	-7741
▁गार	-7742
▁enact	-7743
बिर	-7744
▁Aut	-7745
ussion	-7746
▁जानता	-7747
▁विधिक	-7748
▁introduced	-7749
▁ST	-7750
▁गोल	-7751
▁आवास	-7752
▁Hindus	-7753
ps	-7754
▁ow	-7755
▁autom	-7756
▁पीडब्ल्यू	-7757
ias	-7758
umar	-7759
गन	-7760
iet	-7761
ighb	-7762
▁चढ़	-7763
▁ball	-7764
▁focus	-7765
▁useful	-7766
▁आइ	-7767
iting	-7768
▁asset	-7769
▁व्यावसायिक	-7770
▁Ob	-7771
▁आंध्र	-7772
▁मुद्दे	-7773
▁Cap	-7774
▁करो	-7775
▁सूर्य	-7776
▁perhaps	-7777
▁पूर्ववर्ष	-7778
CC	-7779
hab	-7780
▁कब	-7781
▁People	-7782
▁शव	-7783
▁ult	-7784
ional	-7785
▁उपक्रम	-7786
▁निरीक्षण	-7787
utive	-7788
▁Exec	-7789
▁entry	-7790
क्का	-7791
▁title	-7792
▁Google	-7793
▁Islamic	-7794
law	-7795
vious	-7796
द्दीन	-7797
▁average	-7798
▁minimum	-7799
▁pointed	-7800
▁statements	-7801
▁egg	-7802
▁Guru	-7803
▁China	-7804
▁पक्षों	-7805
▁प्रतिभा	-7806
aul	-7807
ग्ध	-7808
▁दशक	-7809
oured	-7810
▁error	-7811
▁media	-7812
▁कीट	-7813
▁उठाया	-7814
▁चलाने	-7815
respond	-7816
▁शैक्षिक	-7817
▁पूछा	-7818
▁मुद्दों	-7819
▁views	-7820
▁अमेरिकी	-7821
▁नियंत्रित	-7822
vis	-7823
▁लिखी	-7824
▁Explanation	-7825
ूद्ध	-7826
▁समग्र	-7827
माने	-7828
▁उधार	-7829
▁संकट	-7830
▁सलाहकार	-7831
▁advant	-7832
omic	-7833
ography	-7834
▁creation	-7835
opal	-7836
▁ear	-7837
▁calc	-7838
▁ille	-7839
▁adequ	-7840
▁आमतौर	-7841
▁AT	-7842
▁निः	-7843
▁leader	-7844
▁ON	-7845
aled	-7846
▁Tag	-7847
▁advice	-7848
▁obtained	-7849
▁independence	-7850
RA	-7851
asc	-7852
श्त	-7853
▁sud	-7854
▁प्रि	-7855
▁जीवित	-7856
▁Applic	-7857
▁cooperation	-7858
▁विम	-7859
erring	-7860
amination	-7861
▁अत	-7862
▁इन्	-7863
▁विहित	-7864
▁discipl	-7865
▁extreme	-7866
▁गिरफ्तार	-7867
▁identified	-7868
▁घु	-7869
▁शहरी	-7870
क्षिप्त	-7871
▁records	-7872
▁resolution	-7873
order	-7874
▁गठित	-7875
▁terrorism	-7876
मीटर	-7877
▁आशय	-7878
▁मोटर	-7879
▁शत्र	-7880
▁dream	-7881
▁traditional	-7882
▁Sir	-7883
▁Agricult	-7884
▁PRO	-7885
▁कक्ष	-7886
▁घायल	-7887
▁noted	-7888
▁आनन्द	-7889
▁saying	-7890
▁दुर्घटना	-7891
▁Pen	-7892
▁Inst	-7893
▁weap	-7894
▁मुश्	-7895
▁neighb	-7896
▁Kol	-7897
▁rise	-7898
▁आसपास	-7899
फर	-7900
II	-7901
osite	-7902
▁fest	-7903
▁multi	-7904
▁Gandhiji	-7905
aja	-7906
▁vers	-7907
▁निवार	-7908
▁संसदीय	-7909
▁remains	-7910
▁रिया	-7911
▁चरित्र	-7912
pector	-7913
▁drawn	-7914
▁उठाने	-7915
▁मिट्टी	-7916
▁item	-7917
▁हिंसा	-7918
▁परिवर्तित	-7919
▁proceeding	-7920
ग्रहण	-7921
▁Judges	-7922
याँ	-7923
मार्	-7924
ेक्ट	-7925
▁गीत	-7926
▁needed	-7927
▁अभिप्रे	-7928
▁publication	-7929
▁Car	-7930
▁पाते	-7931
▁played	-7932
▁अन्दर	-7933
▁passing	-7934
▁मछ	-7935
ammu	-7936
▁door	-7937
▁जिनकी	-7938
▁सशक्त	-7939
▁मूल्यों	-7940
utt	-7941
▁mort	-7942
▁Ahmed	-7943
▁पहुंचे	-7944
▁राजनीति	-7945
ंचित	-7946
▁खुश	-7947
▁नवीन	-7948
missions	-7949
ैर	-7950
▁देन	-7951
enance	-7952
▁Swami	-7953
ष्टा	-7954
▁गरीब	-7955
▁Power	-7956
▁youth	-7957
▁वर्षा	-7958
▁नयी	-7959
▁symbol	-7960
▁sections	-7961
gy	-7962
▁Rail	-7963
▁defined	-7964
▁निर्णयों	-7965
▁चम	-7966
▁संबो	-7967
▁challenge	-7968
घात	-7969
▁फैसला	-7970
▁यंत्र	-7971
▁संतुल	-7972
▁हाथों	-7973
▁Rem	-7974
▁excl	-7975
ousing	-7976
▁Order	-7977
▁square	-7978
▁convict	-7979
▁absolute	-7980
▁successful	-7981
▁cond	-7982
▁ब्राह	-7983
▁duties	-7984
▁turned	-7985
▁सुविधाओं	-7986
ube	-7987
▁developing	-7988
▁सितंबर	-7989
enses	-7990
ilarly	-7991
▁चौधरी	-7992
▁जमानत	-7993
▁changed	-7994
▁तिर	-7995
ested	-7996
▁लिखने	-7997
▁machine	-7998
▁neither	-7999
▁someone	-8000
वो	-8001
▁iv	-8002
ोल्ड	-8003
▁rend	-8004
▁centre	-8005
▁ग्राहक	-8006
▁contains	-8007
▁Whe	-8008
▁अकबर	-8009
▁Chhat	-8010
▁Jammu	-8011
▁objective	-8012
▁fif	-8013
▁निश	-8014
▁drink	-8015
▁divine	-8016
onse	-8017
▁वक्त	-8018
ड़ियों	-8019
▁Their	-8020
▁board	-8021
▁animal	-8022
▁vehicle	-8023
gments	-8024
ंत्रिक	-8025
▁पूर्वोक्त	-8026
ंतरण	-8027
▁हरि	-8028
▁देखकर	-8029
▁परमाण	-8030
▁सूत्र	-8031
▁नवान्वेषण	-8032
IV	-8033
ाब	-8034
▁नियत	-8035
▁लंबे	-8036
▁पढ़ने	-8037
▁penalty	-8038
▁won	-8039
▁crime	-8040
▁convey	-8041
▁समुचित	-8042
▁मुश्किल	-8043
▁प्रतिष्ठ	-8044
▁कमरे	-8045
▁डिस्क	-8046
▁Engine	-8047
▁असमर्थ	-8048
▁मुखबिर	-8049
▁caste	-8050
▁आयोजन	-8051
▁पवित्र	-8052
▁commission	-8053
▁परियोजनाओं	-8054
nes	-8055
▁वहीं	-8056
▁शिक्षक	-8057
गोल	-8058
▁फैल	-8059
▁chann	-8060
▁announ	-8061
▁घटनाओं	-8062
ague	-8063
▁आवाज	-8064
▁फर्म	-8065
▁schemes	-8066
▁मोहन	-8067
▁लाइन	-8068
▁ज्योति	-8069
तीत	-8070
aken	-8071
▁टुक	-8072
assion	-8073
▁vital	-8074
▁operations	-8075
िसी	-8076
▁IPC	-8077
वंश	-8078
▁देर	-8079
▁सदा	-8080
▁Rama	-8081
▁agreed	-8082
वीर	-8083
▁जंग	-8084
▁Also	-8085
▁Most	-8086
▁परिसर	-8087
imately	-8088
वैधानिक	-8089
▁निपटान	-8090
▁applied	-8091
▁everything	-8092
ताव	-8093
▁Gl	-8094
▁धर	-8095
▁AND	-8096
▁अपन	-8097
▁खाना	-8098
▁अन्तर	-8099
▁प्रेरणा	-8100
▁sole	-8101
नाश	-8102
▁Nav	-8103
▁शिख	-8104
▁संपा	-8105
▁अग्रिम	-8106
▁transferred	-8107
▁Bai	-8108
▁prove	-8109
aration	-8110
▁Excell	-8111
▁Official	-8112
▁acts	-8113
▁चिकित्स	-8114
▁remained	-8115
pat	-8116
मर	-8117
itis	-8118
▁card	-8119
▁प्रिय	-8120
त्तियों	-8121
▁stories	-8122
▁इसने	-8123
▁wealth	-8124
ोद	-8125
याल	-8126
▁फा	-8127
▁bri	-8128
light	-8129
▁pric	-8130
▁हवाई	-8131
het	-8132
▁Lab	-8133
▁Tal	-8134
▁तदन	-8135
पय	-8136
▁Ban	-8137
▁cou	-8138
▁मैदान	-8139
▁doctor	-8140
▁weight	-8141
▁promote	-8142
ॉट	-8143
cribe	-8144
▁छत्त	-8145
शास्त्र	-8146
▁भाषाओं	-8147
▁injured	-8148
era	-8149
umn	-8150
▁affid	-8151
▁England	-8152
▁absence	-8153
▁soil	-8154
▁chief	-8155
▁meant	-8156
ोजी	-8157
▁brok	-8158
▁accident	-8159
▁सिक्	-8160
▁हार्	-8161
▁fresh	-8162
▁यूनिट	-8163
▁सर्वर	-8164
▁झू	-8165
▁tend	-8166
▁materials	-8167
▁suc	-8168
▁दरवा	-8169
▁looked	-8170
▁processing	-8171
▁cho	-8172
▁जाल	-8173
भाग्य	-8174
▁walk	-8175
▁collection	-8176
क्व	-8177
itch	-8178
aches	-8179
▁daily	-8180
▁offered	-8181
▁completed	-8182
पत	-8183
▁Apex	-8184
▁रजिस्ट्री	-8185
ray	-8186
▁फी	-8187
▁फ़िल	-8188
▁thinking	-8189
▁सम्बन्धी	-8190
▁construct	-8191
ंछ	-8192
▁Ge	-8193
▁cere	-8194
▁खेती	-8195
▁रखें	-8196
▁points	-8197
▁block	-8198
▁enable	-8199
▁Ev	-8200
दायिक	-8201
▁जर्म	-8202
▁lines	-8203
▁दिखाया	-8204
▁submission	-8205
ript	-8206
▁वें	-8207
▁बुरा	-8208
▁Group	-8209
▁शिकार	-8210
▁श्रृंखला	-8211
▁reasonable	-8212
▁लु	-8213
atter	-8214
▁खाने	-8215
▁जाकर	-8216
kash	-8217
▁Writ	-8218
▁bail	-8219
▁सांस	-8220
overty	-8221
▁primary	-8222
▁प्रोत्साहित	-8223
▁owner	-8224
▁remark	-8225
▁Aud	-8226
▁sav	-8227
▁send	-8228
▁esc	-8229
▁खाली	-8230
▁ready	-8231
▁fundamental	-8232
तो	-8233
द्धा	-8234
▁Bec	-8235
▁रवि	-8236
भाविक	-8237
▁पूछता	-8238
▁प्रेष	-8239
▁डाय	-8240
▁वसू	-8241
▁Hyder	-8242
rad	-8243
सीन	-8244
▁पल	-8245
▁liqu	-8246
▁graph	-8247
▁levels	-8248
रु	-8249
▁बाधा	-8250
▁हैदरा	-8251
▁रास्ते	-8252
▁रहेगा	-8253
▁कार्यवाह	-8254
wa	-8255
iya	-8256
athy	-8257
▁खींच	-8258
▁cultiv	-8259
लेट	-8260
▁Him	-8261
▁संतोष	-8262
▁accomp	-8263
▁वर्णित	-8264
▁expected	-8265
rix	-8266
▁Cur	-8267
▁sem	-8268
▁Road	-8269
जु	-8270
▁Germ	-8271
▁ship	-8272
▁आसानी	-8273
▁उत्तरदायी	-8274
▁हैंः	-8275
▁sleep	-8276
▁sudden	-8277
uff	-8278
▁skin	-8279
▁Another	-8280
▁married	-8281
▁carrying	-8282
▁अभिप्रेत	-8283
र्पण	-8284
▁Bad	-8285
uddin	-8286
▁stre	-8287
▁खड़ा	-8288
▁poems	-8289
▁ज्ञात	-8290
▁default	-8291
▁storage	-8292
▁electric	-8293
nel	-8294
▁Rao	-8295
▁पेड़	-8296
▁कराया	-8297
▁Social	-8298
▁constant	-8299
▁उत्तरदाता	-8300
▁प्राथमिकता	-8301
▁wel	-8302
istics	-8303
वासियों	-8304
▁छात्रों	-8305
वली	-8306
▁items	-8307
hens	-8308
ivery	-8309
ronic	-8310
▁खुले	-8311
▁danger	-8312
▁temples	-8313
▁संगम	-8314
▁उत्तरी	-8315
▁standing	-8316
▁स्वीकृति	-8317
कृष्ण	-8318
▁Supp	-8319
▁miss	-8320
▁इंग्ल	-8321
▁easily	-8322
ोजक	-8323
▁actual	-8324
▁ब्रह्म	-8325
▁maximum	-8326
▁gets	-8327
▁female	-8328
HA	-8329
apan	-8330
▁Nep	-8331
▁code	-8332
▁feet	-8333
▁wait	-8334
▁worship	-8335
▁सॉफ्टवेयर	-8336
गाह	-8337
▁Super	-8338
▁Science	-8339
▁succeed	-8340
▁lod	-8341
▁altern	-8342
▁extend	-8343
▁sister	-8344
▁pending	-8345
▁Bah	-8346
▁cat	-8347
▁मुझ	-8348
▁मेड	-8349
▁degree	-8350
▁Chapter	-8351
▁परिभाषित	-8352
▁bow	-8353
▁herein	-8354
▁informant	-8355
▁अशोक	-8356
▁पटना	-8357
▁categ	-8358
▁staff	-8359
▁कमजोर	-8360
▁follows	-8361
▁variety	-8362
▁external	-8363
▁discussion	-8364
rene	-8365
निष्ठ	-8366
▁सरदार	-8367
▁affect	-8368
▁trying	-8369
▁surface	-8370
▁हैदराबाद	-8371
▁Conference	-8372
▁bed	-8373
▁susp	-8374
▁impact	-8375
abilities	-8376
▁executed	-8377
▁प्रत	-8378
vision	-8379
▁ideal	-8380
▁सागर	-8381
पूर्ति	-8382
ंसिल	-8383
▁Ham	-8384
▁files	-8385
▁धारणा	-8386
▁समावेश	-8387
▁friendly	-8388
ero	-8389
शीलता	-8390
▁incl	-8391
▁दूसरों	-8392
▁विंडो	-8393
▁desire	-8394
▁teachers	-8395
▁constituted	-8396
aran	-8397
▁Gaz	-8398
▁session	-8399
▁यथ	-8400
▁पंड	-8401
▁सहज	-8402
▁Mohan	-8403
▁तकनीक	-8404
▁unique	-8405
▁element	-8406
वती	-8407
▁संतु	-8408
▁जितना	-8409
▁approved	-8410
पू	-8411
▁भय	-8412
▁फ्ल	-8413
▁कहने	-8414
▁offences	-8415
▁संक्षिप्त	-8416
खन	-8417
lick	-8418
ोबार	-8419
▁अपी	-8420
▁annual	-8421
omy	-8422
▁whatever	-8423
ूषण	-8424
inet	-8425
▁Head	-8426
▁Thak	-8427
▁denied	-8428
▁समन्वय	-8429
▁keeping	-8430
▁wherein	-8431
पुट	-8432
▁Dur	-8433
▁सिल	-8434
▁knew	-8435
ishing	-8436
▁colle	-8437
▁series	-8438
▁अनुमोदन	-8439
▁appeared	-8440
nu	-8441
eter	-8442
utory	-8443
▁प्रतिबंध	-8444
१३	-8445
▁requires	-8446
▁प्रतिकूल	-8447
▁Commercial	-8448
षे	-8449
sych	-8450
word	-8451
▁foot	-8452
▁Patna	-8453
ne	-8454
asw	-8455
pees	-8456
▁fee	-8457
lands	-8458
▁Nath	-8459
▁जब्त	-8460
▁दाखिल	-8461
▁scholars	-8462
▁paragraph	-8463
▁कार्यान्वयन	-8464
सीय	-8465
▁cru	-8466
▁कार्	-8467
▁आस्ति	-8468
▁distingu	-8469
▁बीमार	-8470
▁Tagore	-8471
▁mobile	-8472
▁मानवीय	-8473
▁km	-8474
क्षता	-8475
▁ज्ञा	-8476
▁equip	-8477
▁स्तंभ	-8478
▁aspects	-8479
णिक	-8480
स्फ	-8481
▁लक	-8482
▁Out	-8483
क्षीय	-8484
▁दबाव	-8485
▁थोड़ा	-8486
▁contain	-8487
▁prosper	-8488
▁SE	-8489
▁जीत	-8490
▁बोली	-8491
▁निश्चय	-8492
▁औपचारिक	-8493
▁throughout	-8494
eless	-8495
▁pure	-8496
▁दैनिक	-8497
▁अधिकतर	-8498
▁individuals	-8499
▁Bel	-8500
▁माप	-8501
▁worked	-8502
तृ	-8503
िरा	-8504
▁bab	-8505
stitu	-8506
iverse	-8507
▁कितना	-8508
▁indeed	-8509
▁marked	-8510
▁failure	-8511
▁वाक	-8512
▁अस्था	-8513
▁mainly	-8514
▁साक्षी	-8515
▁pra	-8516
▁परमाणु	-8517
▁Ay	-8518
▁Ed	-8519
▁असर	-8520
▁चलो	-8521
▁Hospital	-8522
AG	-8523
विंद	-8524
▁कति	-8525
olved	-8526
▁लिखे	-8527
▁विचारण	-8528
▁dealing	-8529
▁Mahat	-8530
▁प्रचलित	-8531
▁organization	-8532
प्ति	-8533
ilies	-8534
asthan	-8535
▁Society	-8536
▁finding	-8537
▁मांस	-8538
्रोल	-8539
▁पैर	-8540
▁सें	-8541
▁डिजा	-8542
▁मौके	-8543
▁unity	-8544
▁pressure	-8545
▁philosophy	-8546
▁डाला	-8547
▁incor	-8548
▁देंगे	-8549
▁लंबित	-8550
▁elements	-8551
osure	-8552
▁बाह्य	-8553
▁स्कीम	-8554
▁stream	-8555
▁निकाला	-8556
rust	-8557
▁Dem	-8558
▁प्रथा	-8559
▁signed	-8560
ilateral	-8561
▁intention	-8562
tis	-8563
▁नै	-8564
achal	-8565
▁बदले	-8566
pective	-8567
विज्ञान	-8568
▁bodies	-8569
▁सुसंगत	-8570
irty	-8571
▁पार्	-8572
▁वसूली	-8573
▁approval	-8574
ूस	-8575
rel	-8576
▁slow	-8577
णन	-8578
सनीय	-8579
▁Sant	-8580
▁उपर्	-8581
▁critic	-8582
▁expect	-8583
▁feeling	-8584
eks	-8585
▁Why	-8586
▁रास्ता	-8587
▁सराहना	-8588
▁महात्मा	-8589
▁requirements	-8590
▁पहलू	-8591
actions	-8592
▁अका	-8593
▁लेखन	-8594
▁sides	-8595
विधि	-8596
▁Att	-8597
▁हार	-8598
▁frequ	-8599
▁newsp	-8600
▁मंजूरी	-8601
▁रम	-8602
umer	-8603
▁दली	-8604
▁desp	-8605
▁events	-8606
▁response	-8607
▁विश्वविद्यालयों	-8608
hel	-8609
▁अय	-8610
▁elig	-8611
▁अब्दुल	-8612
▁संयंत्र	-8613
▁राजस्थान	-8614
iy	-8615
दुर	-8616
auty	-8617
▁magn	-8618
▁repe	-8619
▁Hyderabad	-8620
▁Jam	-8621
▁बाकी	-8622
बाज	-8623
बीर	-8624
ishra	-8625
▁उत्तरा	-8626
▁इंटरनेट	-8627
▁confidence	-8628
▁Vis	-8629
▁Turk	-8630
▁उठाए	-8631
▁leaves	-8632
cript	-8633
▁अचान	-8634
▁European	-8635
▁minister	-8636
iva	-8637
▁rain	-8638
▁तीसरे	-8639
▁बढ़ती	-8640
▁किनारे	-8641
▁पूछताछ	-8642
▁प्रारूप	-8643
दिन	-8644
▁नाथ	-8645
▁Pan	-8646
▁सौर	-8647
▁Stat	-8648
▁Verm	-8649
▁Because	-8650
▁निष्पादित	-8651
ests	-8652
▁आर्	-8653
▁इनका	-8654
▁छत्तीस	-8655
▁नेताओं	-8656
▁वर्गों	-8657
▁studies	-8658
▁Est	-8659
hibit	-8660
rance	-8661
▁समझने	-8662
▁divided	-8663
▁partnership	-8664
▁ban	-8665
▁आकर	-8666
▁खेत	-8667
prise	-8668
र्पित	-8669
▁पार्ट	-8670
▁highly	-8671
▁medium	-8672
▁Resident	-8673
bal	-8674
iti	-8675
केश	-8676
▁touch	-8677
▁अचानक	-8678
▁prepar	-8679
▁schools	-8680
▁Association	-8681
िमय	-8682
eria	-8683
▁flu	-8684
▁रानी	-8685
iciary	-8686
▁कतिपय	-8687
▁factors	-8688
▁sitting	-8689
▁committee	-8690
▁officials	-8691
▁उपर्युक्त	-8692
जल	-8693
शोर	-8694
▁uns	-8695
▁पेंशन	-8696
▁conclud	-8697
▁nations	-8698
▁suggested	-8699
ena	-8700
▁whereas	-8701
▁विरूद्ध	-8702
▁happened	-8703
▁establishment	-8704
mar	-8705
▁मण	-8706
▁Gan	-8707
▁निच	-8708
▁judges	-8709
artments	-8710
▁integral	-8711
▁Executive	-8712
▁होम	-8713
िवीजन	-8714
reprene	-8715
▁पत	-8716
म्मत	-8717
▁bear	-8718
▁attend	-8719
▁fields	-8720
▁determined	-8721
▁कव	-8722
▁Tod	-8723
▁तोड़	-8724
▁strik	-8725
▁promis	-8726
▁सभ्यता	-8727
▁लल	-8728
िस्त	-8729
घाटन	-8730
▁sacrif	-8731
ette	-8732
▁कमा	-8733
▁Land	-8734
▁greet	-8735
▁Members	-8736
▁agency	-8737
▁amongst	-8738
ंख्य	-8739
elines	-8740
porate	-8741
hana	-8742
oming	-8743
▁assum	-8744
▁filing	-8745
▁Both	-8746
▁correspond	-8747
▁आवश्यकताओं	-8748
ठे	-8749
ura	-8750
phone	-8751
▁compon	-8752
▁तमिलना	-8753
▁कितनी	-8754
▁excell	-8755
▁प्रत्या	-8756
▁believed	-8757
हल	-8758
द्री	-8759
▁हाउस	-8760
▁हितों	-8761
▁volunt	-8762
▁guarant	-8763
▁mid	-8764
▁गेंद	-8765
▁Chrom	-8766
▁prison	-8767
▁claimed	-8768
▁संवैधानिक	-8769
▁completely	-8770
कां	-8771
्याय	-8772
▁male	-8773
▁सदैव	-8774
ricket	-8775
▁वृक्ष	-8776
dy	-8777
जारों	-8778
▁पुष्	-8779
igating	-8780
▁option	-8781
▁opening	-8782
जिए	-8783
▁अट	-8784
▁सन	-8785
▁moral	-8786
▁poverty	-8787
▁academic	-8788
▁gas	-8789
कुमार	-8790
▁शुरु	-8791
▁विमर्श	-8792
▁तदनुसार	-8793
▁execution	-8794
▁distribution	-8795
▁दुख	-8796
▁नोड	-8797
▁Kish	-8798
▁rank	-8799
enture	-8800
▁ब्राह्म	-8801
▁permanent	-8802
oph	-8803
्ता	-8804
▁AS	-8805
▁बोस	-8806
▁आहार	-8807
▁फिली	-8808
▁किसान	-8809
▁possess	-8810
▁id	-8811
▁Inc	-8812
▁ang	-8813
▁वंश	-8814
▁Form	-8815
▁Governments	-8816
aug	-8817
ाले	-8818
▁कैं	-8819
▁pert	-8820
▁prec	-8821
▁Akbar	-8822
▁apart	-8823
▁lived	-8824
▁पुरानी	-8825
raj	-8826
▁Ext	-8827
▁उन्	-8828
erences	-8829
▁प्रतिस्प	-8830
▁मकान	-8831
icipal	-8832
▁Inspector	-8833
▁कार्यकारी	-8834
OL	-8835
▁Prem	-8836
▁लंबी	-8837
▁Party	-8838
▁speak	-8839
▁elected	-8840
▁जरिए	-8841
▁borrow	-8842
▁मिश्रा	-8843
▁Whether	-8844
ils	-8845
▁दुर	-8846
▁save	-8847
itions	-8848
▁rapid	-8849
▁shape	-8850
▁विद्या	-8851
▁punishment	-8852
त्स	-8853
पंथ	-8854
▁bond	-8855
▁पैसे	-8856
▁conclusion	-8857
▁सब्	-8858
▁डिवीजन	-8859
▁reports	-8860
▁settlement	-8861
▁association	-8862
▁हद	-8863
▁Pri	-8864
▁compr	-8865
▁Schedule	-8866
न्ड	-8867
▁anti	-8868
▁destro	-8869
▁welfare	-8870
दीप	-8871
▁सतह	-8872
▁rare	-8873
▁sell	-8874
▁प्रशंसा	-8875
रू	-8876
▁स्टेट	-8877
▁कारावास	-8878
▁गवर्	-8879
▁phone	-8880
..	-8881
▁nut	-8882
▁Madh	-8883
▁serve	-8884
▁दीवार	-8885
▁मालूम	-8886
▁यौ	-8887
erted	-8888
iling	-8889
▁खतरा	-8890
ception	-8891
▁Amendment	-8892
▁छत्तीसगढ़	-8893
▁respective	-8894
RL	-8895
▁Ors	-8896
▁deed	-8897
वट	-8898
▁खून	-8899
▁सेल	-8900
▁quot	-8901
▁target	-8902
▁remember	-8903
▁चेक	-8904
▁आकाश	-8905
▁कहता	-8906
▁refer	-8907
▁बदलने	-8908
▁seeking	-8909
▁समर्पित	-8910
▁rendered	-8911
▁practices	-8912
बु	-8913
▁मद्	-8914
▁बराम	-8915
▁heavy	-8916
▁adequate	-8917
▁बहन	-8918
▁Langu	-8919
▁फार्म	-8920
▁belief	-8921
▁अनुसरण	-8922
▁powerful	-8923
▁रोड	-8924
▁avoid	-8925
▁chemical	-8926
शः	-8927
usal	-8928
▁Aff	-8929
▁जैव	-8930
▁Only	-8931
▁इलाज	-8932
▁मिनट	-8933
▁शत्रु	-8934
▁योजनाओं	-8935
िकाओं	-8936
▁अपराधों	-8937
▁argument	-8938
हान	-8939
्रमण	-8940
▁हाइ	-8941
▁चलने	-8942
▁पत्थर	-8943
▁deposit	-8944
▁स्वामित्व	-8945
सील	-8946
िवृ	-8947
mosp	-8948
▁upd	-8949
essor	-8950
▁भंडारण	-8951
▁arrested	-8952
▁safe	-8953
▁गणना	-8954
▁Const	-8955
▁moved	-8956
▁methods	-8957
▁संबोधित	-8958
▁intellig	-8959
▁register	-8960
DA	-8961
▁Home	-8962
▁भावी	-8963
▁submit	-8964
▁आदेशों	-8965
▁conflict	-8966
▁literary	-8967
▁छवि	-8968
▁दोहरा	-8969
▁अनुपालन	-8970
▁positive	-8971
▁दुः	-8972
▁fert	-8973
iciency	-8974
▁employee	-8975
▁Bus	-8976
ayana	-8977
शक्ति	-8978
▁समृद्ध	-8979
jud	-8980
▁fit	-8981
म्बे	-8982
▁Iran	-8983
▁vast	-8984
▁color	-8985
▁wishes	-8986
▁acquired	-8987
▁delivery	-8988
▁released	-8989
▁affidavit	-8990
▁अंतः	-8991
▁विनय	-8992
▁master	-8993
▁internal	-8994
▁Rajasthan	-8995
▁permission	-8996
▁राजधान	-8997
▁अन्तर्गत	-8998
ply	-8999
▁अवल	-9000
▁tiss	-9001
▁मूर्	-9002
▁notes	-9003
▁मुद्र	-9004
▁colour	-9005
▁Insurance	-9006
▁confident	-9007
▁आब	-9008
▁Sum	-9009
▁weeks	-9010
▁Commun	-9011
▁script	-9012
▁आईपीसी	-9013
▁समानता	-9014
▁विभाजित	-9015
▁छो	-9016
▁धु	-9017
rupt	-9018
▁Tem	-9019
▁Babu	-9020
▁हालत	-9021
▁एफआईआर	-9022
rav	-9023
inter	-9024
▁किस्म	-9025
▁प्राइ	-9026
▁Abdul	-9027
▁Econom	-9028
क्क	-9029
न्ध	-9030
व्या	-9031
▁box	-9032
▁सावधानी	-9033
़्य	-9034
bhai	-9035
▁wond	-9036
▁branch	-9037
▁cities	-9038
tation	-9039
▁stood	-9040
▁पूर्ति	-9041
ordinate	-9042
▁eat	-9043
▁trou	-9044
▁चालू	-9045
▁मजदूर	-9046
▁चन्द्र	-9047
▁Besides	-9048
▁removal	-9049
▁जिम्मेदारी	-9050
▁Legislative	-9051
वश	-9052
▁मक	-9053
▁lad	-9054
▁sand	-9055
▁कहान	-9056
▁expand	-9057
▁Met	-9058
ोल्डर	-9059
▁चिंत	-9060
▁अनुचित	-9061
▁किराये	-9062
▁illegal	-9063
▁श्रेष्ठ	-9064
ँकि	-9065
धारणा	-9066
▁opened	-9067
▁दिसंबर	-9068
▁universal	-9069
cher	-9070
▁आश्व	-9071
▁ट्रिब	-9072
▁excess	-9073
▁safety	-9074
▁प्रतियोग	-9075
▁administrative	-9076
बाजी	-9077
▁Ganga	-9078
▁causes	-9079
▁sustain	-9080
▁capt	-9081
▁served	-9082
▁recommended	-9083
िफ	-9084
▁गोली	-9085
utions	-9086
▁voice	-9087
▁figure	-9088
▁संदर्भित	-9089
▁Nadu	-9090
▁अद्य	-9091
▁profit	-9092
▁ordinary	-9093
▁machinery	-9094
▁Ashok	-9095
▁portion	-9096
▁प्रदूषण	-9097
ae	-9098
जात	-9099
▁rock	-9100
ervation	-9101
▁buy	-9102
▁root	-9103
▁खत्म	-9104
▁पदों	-9105
▁draft	-9106
▁निर्व	-9107
▁सम्पूर्ण	-9108
▁स्वाभाविक	-9109
▁अंड	-9110
▁हल्	-9111
tisgarh	-9112
▁ऑनलाइन	-9113
▁पर्यटन	-9114
▁deduction	-9115
▁देखना	-9116
▁revenue	-9117
ider	-9118
ख्यात	-9119
दियों	-9120
▁सुदृ	-9121
▁veget	-9122
▁families	-9123
▁substance	-9124
▁Br	-9125
▁उदार	-9126
▁Water	-9127
▁atmosp	-9128
lex	-9129
ायर	-9130
aign	-9131
ीकृत	-9132
▁Sol	-9133
▁Bengali	-9134
▁fat	-9135
under	-9136
▁पोषण	-9137
▁cance	-9138
▁latter	-9139
ications	-9140
▁Mahatma	-9141
▁maintained	-9142
▁फे	-9143
▁mist	-9144
▁राजी	-9145
▁table	-9146
▁pleasure	-9147
▁ट्रिब्यून	-9148
घर	-9149
▁Ret	-9150
▁विवेक	-9151
▁beauty	-9152
वारों	-9153
▁bott	-9154
▁sectors	-9155
▁परिभाषा	-9156
▁amendment	-9157
▁MS	-9158
aste	-9159
issa	-9160
वाना	-9161
▁eld	-9162
▁त्वचा	-9163
▁विनिमय	-9164
▁Palestin	-9165
▁झु	-9166
▁Mishra	-9167
▁abroad	-9168
▁डिजाइन	-9169
▁recovery	-9170
▁suitable	-9171
▁Programme	-9172
वानी	-9173
वायु	-9174
▁pet	-9175
▁अमर	-9176
orial	-9177
urate	-9178
▁reply	-9179
cip	-9180
aman	-9181
ming	-9182
मार्ग	-9183
▁songs	-9184
▁Financial	-9185
iber	-9186
▁Port	-9187
▁regional	-9188
▁properties	-9189
▁Russ	-9190
▁वंचित	-9191
ET	-9192
ट्र	-9193
बाई	-9194
▁Two	-9195
▁dim	-9196
▁गर्भ	-9197
▁दर्द	-9198
▁Japan	-9199
▁विद्र	-9200
▁probably	-9201
▁Thereafter	-9202
anya	-9203
atio	-9204
▁Men	-9205
izations	-9206
▁हालाँकि	-9207
▁Environment	-9208
▁Chhattisgarh	-9209
▁मृ	-9210
लिया	-9211
्नों	-9212
▁Non	-9213
▁आस्त	-9214
▁charged	-9215
▁removed	-9216
▁क्व	-9217
▁seem	-9218
▁अर्ध	-9219
▁तुम्हारे	-9220
▁सर्वोत्तम	-9221
▁intellectual	-9222
▁Himal	-9223
▁nuclear	-9224
ARD	-9225
▁encoura	-9226
▁reduced	-9227
▁संक्रमण	-9228
▁उल्लिखित	-9229
▁Industrial	-9230
मि	-9231
ास्ट	-9232
▁मॉडल	-9233
▁मध्यम	-9234
▁insects	-9235
▁letters	-9236
▁reality	-9237
वित	-9238
क्रिय	-9239
▁wood	-9240
▁decide	-9241
▁season	-9242
▁हार्दिक	-9243
▁purchase	-9244
हता	-9245
▁claims	-9246
गोर	-9247
▁hur	-9248
▁वचन	-9249
▁cred	-9250
▁खड़े	-9251
▁मनोर	-9252
▁राजेश	-9253
▁संग्र	-9254
▁तमिलनाडु	-9255
र्की	-9256
▁pil	-9257
▁Today	-9258
▁किताब	-9259
▁फ़िल्म	-9260
▁although	-9261
▁फ्र	-9262
▁rent	-9263
उंड	-9264
ेंज	-9265
▁नीतियों	-9266
ifications	-9267
▁aid	-9268
▁साइट	-9269
▁stone	-9270
▁demonst	-9271
DU	-9272
rows	-9273
क्सी	-9274
▁कॉल	-9275
धियों	-9276
aviour	-9277
▁scope	-9278
▁watch	-9279
िरो	-9280
▁seed	-9281
▁Error	-9282
▁क्रिकेट	-9283
▁Excellency	-9284
rine	-9285
udget	-9286
▁ट्रै	-9287
▁शिखर	-9288
▁कक्षा	-9289
▁नौकरी	-9290
▁प्रेस	-9291
▁advantage	-9292
▁नार	-9293
▁Cert	-9294
▁डाटा	-9295
▁वर्गी	-9296
गमन	-9297
▁इंद	-9298
▁hour	-9299
▁Rajya	-9300
▁किशोर	-9301
▁आलोचना	-9302
uel	-9303
▁joy	-9304
▁dial	-9305
▁input	-9306
▁मिलियन	-9307
लाब	-9308
▁ठोस	-9309
rency	-9310
▁mutual	-9311
▁diseases	-9312
थित	-9313
▁गुजर	-9314
▁Award	-9315
▁ढांचे	-9316
▁framed	-9317
OU	-9318
▁रॉ	-9319
▁रहें	-9320
▁formal	-9321
▁killed	-9322
▁BC	-9323
▁जड़	-9324
ात्मक	-9325
▁Sect	-9326
▁परिक	-9327
ग्रस्त	-9328
▁अपनाया	-9329
▁therein	-9330
▁surround	-9331
काब	-9332
▁अख	-9333
▁URL	-9334
▁धात	-9335
▁बेल	-9336
load	-9337
▁estim	-9338
▁argued	-9339
▁स्वस्थ	-9340
▁visited	-9341
▁पहुंचने	-9342
▁संचालित	-9343
▁शेख	-9344
▁दिव्य	-9345
▁असाधारण	-9346
▁analysis	-9347
▁contrary	-9348
▁competent	-9349
ns	-9350
unction	-9351
ोटो	-9352
▁बजा	-9353
▁army	-9354
▁lands	-9355
▁अत्या	-9356
▁कितने	-9357
▁बनाये	-9358
▁emer	-9359
▁जागर	-9360
ologies	-9361
▁agencies	-9362
▁features	-9363
▁उल्लेखनीय	-9364
▁कच्च	-9365
▁launched	-9366
▁ax	-9367
▁सुविधाएं	-9368
▁प्रतिस्पर्	-9369
▁aw	-9370
▁विज्ञा	-9371
▁समूहों	-9372
▁release	-9373
▁राजधानी	-9374
▁गवाही	-9375
▁specif	-9376
▁undertaking	-9377
▁hero	-9378
▁स्त्र	-9379
▁happen	-9380
शे	-9381
▁लाइ	-9382
▁शोध	-9383
▁Buddh	-9384
▁स्वर्	-9385
arian	-9386
▁goal	-9387
▁चुना	-9388
▁Orissa	-9389
▁rupees	-9390
▁विधियों	-9391
▁जिम्मेदार	-9392
ैट	-9393
वां	-9394
iring	-9395
ribute	-9396
▁urban	-9397
▁worth	-9398
▁सेवान	-9399
▁negative	-9400
cast	-9401
क़्त	-9402
▁Park	-9403
▁बांध	-9404
ंत्रित	-9405
▁Human	-9406
▁grass	-9407
▁स्वतः	-9408
▁impris	-9409
▁मद्देन	-9410
राय	-9411
▁कोय	-9412
▁चतु	-9413
itect	-9414
▁Aust	-9415
▁motor	-9416
▁आजादी	-9417
▁नृत	-9418
▁surv	-9419
▁journey	-9420
▁identity	-9421
▁prosecut	-9422
▁काली	-9423
▁imprisonment	-9424
▁Case	-9425
▁none	-9426
▁लड़के	-9427
▁संप्र	-9428
▁ट्रस्ट	-9429
▁innovation	-9430
अर	-9431
▁Va	-9432
▁सूर	-9433
▁प्रवृत्ति	-9434
कू	-9435
▁blow	-9436
▁finally	-9437
▁Procedure	-9438
▁leadership	-9439
▁ट्रिब्यूनल	-9440
प्पा	-9441
▁Tri	-9442
▁mouth	-9443
डब्ल्यू	-9444
▁आपत्ति	-9445
▁उच्चतर	-9446
▁स्थानांतरित	-9447
विदा	-9448
िवेश	-9449
▁Ira	-9450
anged	-9451
भावना	-9452
▁enem	-9453
▁moon	-9454
▁चुने	-9455
▁experi	-9456
▁गारंटी	-9457
▁arrived	-9458
▁पृष्ठभूमि	-9459
▁परा	-9460
▁विपणन	-9461
▁गांवों	-9462
isms	-9463
▁शपथ	-9464
▁लिंग	-9465
ानुसार	-9466
▁Trust	-9467
▁crops	-9468
▁liable	-9469
▁attached	-9470
▁सेन	-9471
▁नेपाल	-9472
▁Before	-9473
▁प्रतिभूति	-9474
▁defendants	-9475
rat	-9476
▁SH	-9477
ज़ार	-9478
▁दान	-9479
▁पटेल	-9480
▁करवा	-9481
▁hence	-9482
▁spent	-9483
▁जवाहर	-9484
▁category	-9485
▁assaulted	-9486
▁आक	-9487
▁AIR	-9488
▁आनु	-9489
ancing	-9490
▁manif	-9491
▁houses	-9492
▁ज्ञापन	-9493
▁discussed	-9494
▁initiated	-9495
खों	-9496
ondon	-9497
▁cold	-9498
▁पंडित	-9499
▁Independ	-9500
▁planning	-9501
▁proposal	-9502
ूपी	-9503
सागर	-9504
rench	-9505
्यवाद	-9506
▁Gram	-9507
▁रसाय	-9508
▁prices	-9509
▁recovered	-9510
िनल	-9511
क्ताओं	-9512
▁उन्नत	-9513
▁तहसील	-9514
▁पौधों	-9515
▁motion	-9516
▁Sr	-9517
ूहिक	-9518
▁Tel	-9519
▁Bhar	-9520
▁huge	-9521
▁संवाद	-9522
▁प्रतिबद्ध	-9523
▁फें	-9524
▁खराब	-9525
▁critical	-9526
▁प्राधिकार	-9527
▁Rav	-9528
▁नेशनल	-9529
▁affairs	-9530
▁प्रविष्टि	-9531
िरी	-9532
बादी	-9533
▁गुल	-9534
▁निर्मा	-9535
▁Maj	-9536
▁वेद	-9537
▁conviction	-9538
ih	-9539
यक	-9540
दर्शी	-9541
▁इनकी	-9542
▁Block	-9543
▁exact	-9544
▁हटाने	-9545
▁obvious	-9546
▁सामूहिक	-9547
पूर्व	-9548
रिक्ष	-9549
▁pick	-9550
▁तस्व	-9551
▁पड़ी	-9552
▁damage	-9553
▁Collect	-9554
▁मद्देनजर	-9555
▁background	-9556
mark	-9557
▁Nat	-9558
▁adult	-9559
▁बल्ले	-9560
▁latest	-9561
▁encourage	-9562
anta	-9563
▁गहन	-9564
तियां	-9565
istrar	-9566
EM	-9567
▁मुला	-9568
▁संदाय	-9569
▁evening	-9570
▁उभर	-9571
▁cook	-9572
▁आदान	-9573
▁निगर	-9574
▁रिक्त	-9575
▁maintenance	-9576
▁जज	-9577
▁यो	-9578
बन्ध	-9579
▁सफेद	-9580
▁stands	-9581
▁सुदृढ़	-9582
▁classes	-9583
▁प्रमाणित	-9584
▁Application	-9585
▁functioning	-9586
ilal	-9587
म्परा	-9588
▁भेजे	-9589
▁aside	-9590
▁पोर्ट	-9591
▁कम्पनी	-9592
▁शिक्षण	-9593
▁लम्	-9594
▁गहरी	-9595
▁अस्थायी	-9596
▁मृत्युदंड	-9597
▁नो	-9598
न्दु	-9599
inent	-9600
▁शिशु	-9601
▁Nepal	-9602
▁brief	-9603
▁grounds	-9604
▁निगरानी	-9605
▁opposite	-9606
▁Which	-9607
▁select	-9608
▁server	-9609
▁sources	-9610
▁समुद्री	-9611
▁belonging	-9612
▁president	-9613
ym	-9614
नाक	-9615
▁Jew	-9616
▁ठहराया	-9617
▁अस्वीकार	-9618
udi	-9619
▁join	-9620
▁armed	-9621
▁paint	-9622
▁joined	-9623
▁proced	-9624
▁squared	-9625
▁यथास्थिति	-9626
PS	-9627
द्वीप	-9628
▁Iraq	-9629
▁testim	-9630
▁achieved	-9631
▁Nan	-9632
▁अपर	-9633
▁Bose	-9634
▁ड्राइ	-9635
ulating	-9636
▁Ser	-9637
▁debt	-9638
▁nearly	-9639
▁सेवानिवृ	-9640
▁parliament	-9641
▁declaration	-9642
▁एक्	-9643
▁शेय	-9644
thern	-9645
▁rates	-9646
▁trees	-9647
▁जलवायु	-9648
▁उद्घाटन	-9649
EL	-9650
पो	-9651
ाइन	-9652
▁Che	-9653
▁pip	-9654
▁डिप	-9655
▁poem	-9656
▁मौलिक	-9657
▁उत्साह	-9658
▁प्रान्त	-9659
▁participation	-9660
the	-9661
्मा	-9662
▁बौद्धिक	-9663
▁subjects	-9664
▁recommendations	-9665
▁ग़	-9666
▁अनि	-9667
▁hear	-9668
▁मिलाकर	-9669
▁relative	-9670
oom	-9671
otic	-9672
▁चीनी	-9673
▁सोचा	-9674
▁Vijay	-9675
▁ब्लॉक	-9676
▁remove	-9677
▁Assessing	-9678
asm	-9679
▁मिलते	-9680
▁रिश्त	-9681
▁reb	-9682
▁पॉल	-9683
▁privile	-9684
▁Although	-9685
उन	-9686
▁psych	-9687
▁Thakur	-9688
▁निवारण	-9689
▁Similarly	-9690
▁manufacture	-9691
फ़ी	-9692
▁Govt	-9693
▁Joint	-9694
▁forth	-9695
▁centres	-9696
▁प्रारम्भ	-9697
▁subsequent	-9698
hara	-9699
म्मा	-9700
▁Jaw	-9701
astic	-9702
▁inner	-9703
▁कपड़े	-9704
▁पैमाने	-9705
mon	-9706
▁Av	-9707
hern	-9708
ंशिक	-9709
▁Art	-9710
▁नवा	-9711
▁नाते	-9712
▁Hence	-9713
▁अर्जित	-9714
▁संवर्धन	-9715
operative	-9716
grat	-9717
▁ताकत	-9718
▁survey	-9719
▁दिखाने	-9720
▁enquiry	-9721
▁ब्रिटेन	-9722
▁Ba	-9723
क्ष्यों	-9724
▁Member	-9725
▁अद्यतन	-9726
▁fill	-9727
▁भंडार	-9728
▁theory	-9729
▁वस्तुत	-9730
▁पड	-9731
▁शान	-9732
▁gard	-9733
▁क्लिक	-9734
▁अग्रणी	-9735
▁respectively	-9736
▁सौं	-9737
वोकेट	-9738
▁....	-9739
▁Kumari	-9740
▁London	-9741
▁तत्वों	-9742
▁advanced	-9743
ंकित	-9744
▁चुनौ	-9745
▁बरामद	-9746
▁compre	-9747
▁settled	-9748
न्थ	-9749
ल्ली	-9750
ानिक	-9751
▁Don	-9752
▁चाय	-9753
othes	-9754
▁उसको	-9755
icious	-9756
▁output	-9757
▁अभ्यास	-9758
▁initiatives	-9759
मूल	-9760
▁Na	-9761
▁Patel	-9762
▁तंत्रिका	-9763
▁स्वर्गीय	-9764
▁directions	-9765
ola	-9766
वहार	-9767
▁भारतीयों	-9768
▁collected	-9769
▁Who	-9770
rical	-9771
▁उत्प	-9772
▁भेंट	-9773
▁भक्ति	-9774
▁expert	-9775
▁विरासत	-9776
▁एडवोकेट	-9777
▁professional	-9778
ST	-9779
ops	-9780
ंटन	-9781
▁शौ	-9782
▁Yoga	-9783
▁fruit	-9784
▁गरीबी	-9785
▁choice	-9786
▁ज़्यादा	-9787
▁satisfied	-9788
▁characters	-9789
▁हिंदुस्तान	-9790
ंठ	-9791
▁web	-9792
▁Sind	-9793
inding	-9794
▁कठिनाई	-9795
▁principal	-9796
▁interesting	-9797
१४	-9798
▁गू	-9799
olly	-9800
▁Rajesh	-9801
▁lif	-9802
▁खतर	-9803
board	-9804
▁गुफा	-9805
▁रेडियो	-9806
▁परम्परा	-9807
▁बैंकिंग	-9808
▁reliance	-9809
▁Lib	-9810
known	-9811
विष्ट	-9812
icient	-9813
▁breed	-9814
▁लड़ाई	-9815
▁मेडिकल	-9816
▁initial	-9817
▁समृद्धि	-9818
▁तत्कालीन	-9819
▁Ja	-9820
▁obst	-9821
▁sort	-9822
▁खण्ड	-9823
▁creating	-9824
anges	-9825
▁जाया	-9826
▁लगाना	-9827
▁अपीलीय	-9828
▁statutory	-9829
क्रो	-9830
▁coal	-9831
▁ende	-9832
▁पाँच	-9833
▁perfect	-9834
▁governance	-9835
षित	-9836
▁वस	-9837
ायें	-9838
▁Dal	-9839
aling	-9840
▁संक्षेप	-9841
▁selection	-9842
▁considering	-9843
फोन	-9844
▁Priv	-9845
▁leaf	-9846
▁नवंबर	-9847
▁प्रणाल	-9848
▁expenses	-9849
०क	-9850
▁Ka	-9851
▁Raja	-9852
▁ment	-9853
▁हथियार	-9854
▁student	-9855
de	-9856
जनन	-9857
▁bh	-9858
▁द्विप	-9859
▁teaching	-9860
odes	-9861
▁Bin	-9862
▁कोट	-9863
▁Chen	-9864
▁Hari	-9865
▁proof	-9866
▁क्रमशः	-9867
▁Prakash	-9868
gor	-9869
वरों	-9870
ॉनिक	-9871
▁match	-9872
▁मानना	-9873
▁स्वर्ण	-9874
▁congrat	-9875
▁reflect	-9876
▁elections	-9877
▁legislation	-9878
▁Pay	-9879
▁अकेले	-9880
▁जातियों	-9881
▁Hem	-9882
▁बजट	-9883
mises	-9884
▁आकलन	-9885
▁एक्ट	-9886
▁सांप	-9887
▁जानने	-9888
▁Ty	-9889
▁अज	-9890
▁चू	-9891
▁Kab	-9892
▁शंक	-9893
▁greetings	-9894
▁constitutional	-9895
▁ec	-9896
cean	-9897
▁gar	-9898
▁Show	-9899
▁अभिला	-9900
▁Madras	-9901
▁destroy	-9902
▁minutes	-9903
AM	-9904
▁Jh	-9905
▁Dar	-9906
▁game	-9907
▁कांस	-9908
▁explo	-9909
▁singh	-9910
▁ध्वनि	-9911
▁picture	-9912
▁rejected	-9913
▁performed	-9914
▁Hist	-9915
▁River	-9916
▁प्यार	-9917
▁entreprene	-9918
rive	-9919
०वीं	-9920
▁Sen	-9921
▁कष्ट	-9922
▁सीमाओं	-9923
▁टिप्पणी	-9924
▁campaign	-9925
▁प्रवृत्त	-9926
▁territory	-9927
▁तात्	-9928
ाधिकार	-9929
acharya	-9930
▁Foreign	-9931
OM	-9932
लन	-9933
ghan	-9934
ammad	-9935
▁gain	-9936
▁allot	-9937
▁numer	-9938
▁Employ	-9939
▁सामान्यतः	-9940
▁historical	-9941
▁आना	-9942
▁पाद	-9943
▁Sikh	-9944
ributed	-9945
▁concent	-9946
▁mission	-9947
▁Vin	-9948
▁दिमा	-9949
▁मैने	-9950
▁plays	-9951
▁column	-9952
▁politics	-9953
▁contention	-9954
cie	-9955
▁विष्णु	-9956
▁पक्षकार	-9957
▁विश्वसनीय	-9958
CH	-9959
rut	-9960
्यूब	-9961
▁देवता	-9962
▁खुलासा	-9963
▁श्रमिक	-9964
▁Network	-9965
▁facility	-9966
roc	-9967
व्यों	-9968
▁Once	-9969
▁अक्त	-9970
▁चीजों	-9971
▁न्यास	-9972
▁assigned	-9973
gu	-9974
yam	-9975
▁रिज	-9976
▁east	-9977
▁पढ़ा	-9978
▁अवमान	-9979
▁profits	-9980
▁proport	-9981
▁क्रांति	-9982
▁Over	-9983
▁pill	-9984
▁evident	-9985
▁उद्देश्यों	-9986
▁घटा	-9987
▁व्यक्तित्व	-9988
वण	-9989
ब्र	-9990
aced	-9991
▁प्रबंधक	-9992
▁apparent	-9993
▁ड्र	-9994
▁नेत्र	-9995
▁आरोपों	-9996
▁candidates	-9997
ester	-9998
▁piece	-9999
▁बच्चा	-10000
▁moving	-10001
▁मूर्ति	-10002
▁इंजीनियर	-10003
▁arbitration	-10004
टो	-10005
ट्	-10006
aly	-10007
▁endeav	-10008
▁पदार्थों	-10009
▁amb	-10010
▁division	-10011
▁eligible	-10012
▁sto	-10013
▁भंग	-10014
मान्य	-10015
▁wild	-10016
▁बांग	-10017
▁अवसरों	-10018
▁संध्या	-10019
▁Narayan	-10020
▁Speaker	-10021
▁arising	-10022
नू	-10023
gen	-10024
▁उतर	-10025
णियों	-10026
▁hop	-10027
▁griev	-10028
orthern	-10029
▁addressed	-10030
▁description	-10031
aped	-10032
▁मिथ	-10033
▁factor	-10034
▁bringing	-10035
olve	-10036
▁बेह	-10037
▁helped	-10038
▁democratic	-10039
मेल	-10040
lies	-10041
प्रा	-10042
ड़िया	-10043
▁Allah	-10044
▁परिचय	-10045
▁शहरों	-10046
▁Mission	-10047
▁उपकरणों	-10048
▁challenges	-10049
फना	-10050
▁ble	-10051
▁बाँ	-10052
द्रास	-10053
▁समाय	-10054
▁awarded	-10055
▁Security	-10056
टु	-10057
भि	-10058
omet	-10059
▁Mat	-10060
▁घूम	-10061
▁एसोस	-10062
▁conce	-10063
▁installed	-10064
oe	-10065
set	-10066
uli	-10067
▁Verma	-10068
▁resist	-10069
isations	-10070
▁Arbitrator	-10071
ुरा	-10072
ashi	-10073
्याम	-10074
▁भरा	-10075
▁drugs	-10076
▁जुड़ा	-10077
▁preced	-10078
▁AP	-10079
▁बहस	-10080
▁jail	-10081
▁west	-10082
▁देशी	-10083
▁Middle	-10084
▁प्रवर्तन	-10085
uct	-10086
▁Bir	-10087
▁Sad	-10088
▁eth	-10089
▁पौधे	-10090
▁Among	-10091
▁sugar	-10092
▁विविधता	-10093
▁suffering	-10094
▁रवीन्द्रनाथ	-10095
तें	-10096
▁उन्म	-10097
▁enhan	-10098
▁चाहती	-10099
▁मुकाब	-10100
▁banking	-10101
▁सिद्धान्त	-10102
▁arm	-10103
agers	-10104
वृत्ति	-10105
▁ratio	-10106
▁बनाता	-10107
▁Vishnu	-10108
▁struct	-10109
▁citizen	-10110
▁specifically	-10111
ica	-10112
▁राह	-10113
पेक्ष	-10114
▁हिमा	-10115
▁रहस्य	-10116
▁tonnes	-10117
▁मैत्री	-10118
▁atmosphere	-10119
▁prosperity	-10120
िली	-10121
ूली	-10122
▁SP	-10123
ामान	-10124
▁bul	-10125
▁भूत	-10126
▁पंक्ति	-10127
▁प्रश्नों	-10128
▁explained	-10129
▁transaction	-10130
▁instructions	-10131
फो	-10132
uous	-10133
निंग	-10134
▁Use	-10135
▁nine	-10136
▁Mahab	-10137
▁Press	-10138
▁इंडियन	-10139
▁accordingly	-10140
▁requirement	-10141
ima	-10142
▁धम	-10143
▁grad	-10144
▁जीवा	-10145
▁compar	-10146
▁उपर	-10147
▁कामना	-10148
▁Internet	-10149
बाल	-10150
oral	-10151
▁Jay	-10152
prises	-10153
▁स्वभाव	-10154
▁ability	-10155
▁solution	-10156
▁manufacturing	-10157
मानी	-10158
▁Pers	-10159
riving	-10160
कल्पिक	-10161
▁Could	-10162
▁आधिकार	-10163
▁बुलाया	-10164
atically	-10165
▁inquiry	-10166
ल्य	-10167
▁Bu	-10168
▁PO	-10169
anas	-10170
न्या	-10171
▁बैठे	-10172
▁grown	-10173
▁मुक्ति	-10174
▁विक्रय	-10175
▁Christian	-10176
shi	-10177
ुत्	-10178
रेखा	-10179
▁बालक	-10180
▁लेती	-10181
eshwar	-10182
▁Class	-10183
▁नृत्य	-10184
▁बहादुर	-10185
▁मद्रास	-10186
▁इस्लामी	-10187
▁changing	-10188
▁शिक्षकों	-10189
▁IP	-10190
iform	-10191
▁plat	-10192
▁खुला	-10193
▁दोस्त	-10194
iveness	-10195
▁रजिस्टर	-10196
▁टो	-10197
ghal	-10198
▁जाग	-10199
ishad	-10200
▁गुणा	-10201
क्षणिक	-10202
ruption	-10203
ॉस	-10204
imb	-10205
्रेता	-10206
▁लड़की	-10207
ग़	-10208
ुरी	-10209
लिंग	-10210
▁मुआ	-10211
श्वास	-10212
▁अगला	-10213
holders	-10214
▁सेटिंग	-10215
▁advocate	-10216
▁क्	-10217
▁Nand	-10218
▁दिला	-10219
▁Right	-10220
▁दर्शाता	-10221
▁operating	-10222
▁तिल	-10223
▁नान	-10224
▁हेम	-10225
▁Sard	-10226
▁देखे	-10227
▁sheet	-10228
▁एजेंसी	-10229
▁डिग्री	-10230
▁वस्त्र	-10231
▁अक्तूबर	-10232
rd	-10233
▁Gar	-10234
▁filled	-10235
▁डॉक्टर	-10236
▁consists	-10237
▁वैकल्पिक	-10238
▁Vice	-10239
▁खतरे	-10240
▁जहाज	-10241
▁अवधारणा	-10242
िरह	-10243
जीवन	-10244
▁मस्	-10245
▁रेश	-10246
▁Rural	-10247
▁समितियों	-10248
▁Ven	-10249
▁imposed	-10250
▁विभागों	-10251
▁partition	-10252
▁containing	-10253
ao	-10254
like	-10255
▁उपे	-10256
▁Women	-10257
▁volume	-10258
▁recently	-10259
यू	-10260
लांग	-10261
▁cop	-10262
▁हाई	-10263
▁प्रसं	-10264
▁स्मार	-10265
▁परिषद्	-10266
▁मंदिरों	-10267
▁communities	-10268
▁दिलच	-10269
▁enforce	-10270
bon	-10271
mer	-10272
ेदन	-10273
▁micro	-10274
▁reduce	-10275
▁thirty	-10276
▁recognised	-10277
ंभव	-10278
ंचाई	-10279
िल्प	-10280
▁तीनों	-10281
▁आधिकारिक	-10282
▁transform	-10283
▁didn	-10284
▁hair	-10285
▁निषे	-10286
▁writer	-10287
▁climate	-10288
▁comment	-10289
▁विनियमन	-10290
▁Registrar	-10291
▁प्रतियोगिता	-10292
▁Mang	-10293
▁guil	-10294
▁होटल	-10295
▁मूलभूत	-10296
▁currency	-10297
adur	-10298
▁dry	-10299
▁आराम	-10300
▁कायम	-10301
▁brain	-10302
▁attitude	-10303
दायक	-10304
▁मोड	-10305
▁Ragh	-10306
▁उतना	-10307
▁कहला	-10308
▁रुचि	-10309
anging	-10310
▁पत्रों	-10311
▁regions	-10312
▁निकालने	-10313
TER	-10314
arsh	-10315
आरएस	-10316
▁गईं	-10317
▁मरा	-10318
▁lies	-10319
▁subt	-10320
▁birds	-10321
▁online	-10322
▁effects	-10323
▁यूरोपीय	-10324
▁स्क्रीन	-10325
कोश	-10326
▁Bur	-10327
▁obl	-10328
▁सेक	-10329
▁बिलकुल	-10330
▁dismissed	-10331
▁साहित्यिक	-10332
▁universities	-10333
▁org	-10334
▁अंतरिक्ष	-10335
▁pollution	-10336
▁जोड़ने	-10337
▁awareness	-10338
▁ourselves	-10339
▁शक्तिशाली	-10340
वेट	-10341
▁घटक	-10342
while	-10343
▁amend	-10344
▁waste	-10345
▁‘‘	-10346
▁जमी	-10347
▁पांड	-10348
iments	-10349
uru	-10350
▁जीन	-10351
▁prem	-10352
▁ट्रे	-10353
▁सीता	-10354
achment	-10355
▁युक्ति	-10356
▁properly	-10357
awan	-10358
ocol	-10359
▁wat	-10360
▁चिप	-10361
▁earn	-10362
▁साझी	-10363
▁ट्रेड	-10364
▁पार्क	-10365
▁liability	-10366
▁प्राधिकृत	-10367
▁dign	-10368
▁इमार	-10369
▁अग्रवाल	-10370
▁अभियुक्तों	-10371
दल	-10372
▁fish	-10373
ध्यक्ष	-10374
▁उपायों	-10375
▁Language	-10376
▁विनिर्माण	-10377
withstanding	-10378
▁विच	-10379
hance	-10380
▁folk	-10381
endent	-10382
▁Brahm	-10383
▁store	-10384
▁yield	-10385
▁खंडपीठ	-10386
▁संतुष्ट	-10387
▁testimony	-10388
▁प्रयोगशाला	-10389
▁प्रक्रियाओं	-10390
▁Az	-10391
ार्ट	-10392
▁bran	-10393
▁Enter	-10394
▁जुर्म	-10395
▁बढ़ने	-10396
▁वाद्य	-10397
▁Collector	-10398
काया	-10399
inite	-10400
▁Each	-10401
▁द्वि	-10402
▁phase	-10403
▁Nature	-10404
▁कारोबार	-10405
▁disputes	-10406
▁sustained	-10407
▁objectives	-10408
▁न्यायपालिका	-10409
▁kil	-10410
▁खनि	-10411
▁इसील	-10412
▁विभिन्	-10413
▁amended	-10414
▁स्वीकृत	-10415
▁Ter	-10416
▁track	-10417
▁conven	-10418
▁Training	-10419
▁equipment	-10420
▁representation	-10421
▁gun	-10422
▁prime	-10423
urities	-10424
्रु	-10425
▁सप	-10426
हारी	-10427
▁सिक	-10428
ports	-10429
▁Univers	-10430
hand	-10431
र्जन	-10432
▁Ang	-10433
▁rad	-10434
▁Self	-10435
▁marg	-10436
▁साझे	-10437
▁honour	-10438
▁capable	-10439
▁healthy	-10440
▁involve	-10441
▁संभावित	-10442
▁discharge	-10443
amin	-10444
सीसी	-10445
▁devotion	-10446
▁किलोमीटर	-10447
ears	-10448
▁cam	-10449
▁उपखंड	-10450
▁noticed	-10451
▁architect	-10452
▁निर्देशित	-10453
▁Prom	-10454
▁गौरव	-10455
▁आरंभिक	-10456
▁accompan	-10457
AD	-10458
वधि	-10459
▁अखिल	-10460
▁उर्व	-10461
▁संतुलन	-10462
▁decades	-10463
▁रजिस्ट्र	-10464
▁अदा	-10465
▁Like	-10466
▁oblig	-10467
▁जायें	-10468
▁thereby	-10469
▁commence	-10470
▁विज्ञापन	-10471
arp	-10472
ख्त	-10473
▁weather	-10474
▁दक्षिणी	-10475
▁engineering	-10476
रम	-10477
▁खि	-10478
फेसर	-10479
हारिक	-10480
▁कारक	-10481
▁हिमालय	-10482
▁extension	-10483
▁सल	-10484
▁spl	-10485
▁Arun	-10486
▁पच	-10487
पश्च	-10488
▁जोड़ा	-10489
▁Through	-10490
▁महाराजा	-10491
▁विनिश्च	-10492
▁location	-10493
▁Ent	-10494
▁alt	-10495
▁rob	-10496
▁Anand	-10497
▁पांडे	-10498
▁AD	-10499
▁star	-10500
▁दलील	-10501
▁धातु	-10502
hensive	-10503
▁repeal	-10504
▁judgments	-10505
खिक	-10506
akar	-10507
वारी	-10508
िएशन	-10509
िकों	-10510
▁sons	-10511
▁जिरह	-10512
▁जुड़	-10513
▁त्रि	-10514
▁permitted	-10515
▁acquisition	-10516
▁bag	-10517
▁Stud	-10518
▁इच्छ	-10519
▁eleph	-10520
▁कब्जा	-10521
▁collabor	-10522
▁medicine	-10523
रन	-10524
▁ऑप	-10525
▁Joh	-10526
▁आईटी	-10527
▁calls	-10528
▁Appeal	-10529
▁instant	-10530
ibilities	-10531
▁शक्तियां	-10532
da	-10533
eev	-10534
olid	-10535
nan	-10536
iled	-10537
▁पश	-10538
काता	-10539
▁die	-10540
▁लॉग	-10541
▁आयकर	-10542
▁afford	-10543
▁becoming	-10544
CI	-10545
ips	-10546
चंद्र	-10547
astern	-10548
▁habit	-10549
▁विलेख	-10550
▁courage	-10551
▁cry	-10552
▁चली	-10553
ड़ीसा	-10554
▁clar	-10555
▁दत्त	-10556
▁gains	-10557
▁seized	-10558
▁परिस्थिति	-10559
▁अंज	-10560
▁शोक	-10561
abinet	-10562
▁चेन्न	-10563
▁simply	-10564
▁distinct	-10565
▁greatest	-10566
▁अनुज्ञात	-10567
oses	-10568
ंतिक	-10569
▁facie	-10570
▁union	-10571
▁chance	-10572
▁उपयोगकर्ता	-10573
▁खिल	-10574
▁तरीकों	-10575
▁आरक्षित	-10576
▁Exp	-10577
▁जगत	-10578
auses	-10579
कीर्ण	-10580
▁Revenue	-10581
▁उपलब्धि	-10582
▁शास्त्र	-10583
▁विद्यार्थी	-10584
▁सदी	-10585
▁गीता	-10586
▁ग्री	-10587
▁सबूतों	-10588
▁सिंचाई	-10589
▁प्रोफेसर	-10590
▁substantial	-10591
अप	-10592
▁uses	-10593
▁बारी	-10594
▁अंततः	-10595
▁guilty	-10596
▁pension	-10597
▁इंजीनिय	-10598
▁सकारात्मक	-10599
kata	-10600
rees	-10601
▁defe	-10602
▁remed	-10603
▁आंशिक	-10604
▁भेजने	-10605
▁Mother	-10606
▁लक्ष्मी	-10607
▁Municipal	-10608
ogue	-10609
▁उतार	-10610
▁द्विपक्षीय	-10611
pto	-10612
नीति	-10613
▁हां	-10614
▁impart	-10615
▁partner	-10616
▁commitment	-10617
xy	-10618
▁gram	-10619
▁heat	-10620
▁drive	-10621
▁पीढ़ी	-10622
▁detailed	-10623
▁processes	-10624
▁व्यावहारिक	-10625
▁Meh	-10626
▁पोत	-10627
asant	-10628
ेन्द्र	-10629
▁फ्रांस	-10630
▁monitor	-10631
▁smaller	-10632
▁festival	-10633
bh	-10634
ju	-10635
सूर	-10636
▁Conf	-10637
▁inaug	-10638
▁जिनसे	-10639
▁वापसी	-10640
▁contempt	-10641
थे	-10642
्यौ	-10643
gypt	-10644
▁अपमान	-10645
▁बनाकर	-10646
▁सकेगी	-10647
▁Madhya	-10648
▁consent	-10649
▁employed	-10650
▁translation	-10651
ंपरिक	-10652
▁क्रमा	-10653
▁ग्राफ	-10654
▁प्रभाग	-10655
▁महीनों	-10656
▁resource	-10657
▁प्रतिदिन	-10658
▁पूर्ववर्ती	-10659
yal	-10660
▁तृ	-10661
omin	-10662
▁Rad	-10663
▁fix	-10664
▁बुल	-10665
▁rice	-10666
▁Subhas	-10667
▁माध्यस्थ	-10668
▁strengthe	-10669
▁Protection	-10670
iers	-10671
▁बचत	-10672
stood	-10673
▁संजय	-10674
▁साझा	-10675
▁cloth	-10676
▁launch	-10677
vent	-10678
oring	-10679
▁हड्ड	-10680
▁shared	-10681
▁Reserve	-10682
▁custody	-10683
appa	-10684
▁outl	-10685
▁साहस	-10686
▁unable	-10687
▁अमरीका	-10688
▁अधिग्रहण	-10689
▁remaining	-10690
▁प्रतिष्ठा	-10691
ंजा	-10692
काय	-10693
▁जला	-10694
▁users	-10695
rations	-10696
▁राजपत्र	-10697
▁Rai	-10698
▁Life	-10699
▁iron	-10700
ashing	-10701
▁सुनील	-10702
▁advert	-10703
▁यथार्थ	-10704
▁emotion	-10705
▁showing	-10706
▁executive	-10707
जो	-10708
ams	-10709
ट्टा	-10710
▁Mur	-10711
▁ईसाई	-10712
▁helps	-10713
▁actions	-10714
▁designed	-10715
हाई	-10716
▁फु	-10717
▁Prab	-10718
▁सेंट	-10719
▁पत्रिका	-10720
▁Business	-10721
▁priority	-10722
ुणा	-10723
िश्र	-10724
▁See	-10725
▁Egypt	-10726
▁prima	-10727
▁Chrome	-10728
▁intended	-10729
्टा	-10730
▁अधी	-10731
iation	-10732
▁deals	-10733
▁looks	-10734
▁stamp	-10735
▁अंकित	-10736
▁immediate	-10737
्वान	-10738
hered	-10739
▁पेशे	-10740
▁पैके	-10741
▁solar	-10742
▁सतर्क	-10743
▁format	-10744
▁sexual	-10745
▁channel	-10746
▁compared	-10747
पल	-10748
़्त	-10749
ails	-10750
▁fed	-10751
▁ori	-10752
▁बारह	-10753
▁limits	-10754
▁तापमान	-10755
▁सम्पत्ति	-10756
ESS	-10757
च्छिक	-10758
▁NAME	-10759
ivered	-10760
ranath	-10761
▁adjust	-10762
▁severe	-10763
▁ग्राहकों	-10764
▁Appellate	-10765
▁interested	-10766
▁alternative	-10767
डो	-10768
▁ap	-10769
▁simpl	-10770
▁prejud	-10771
ader	-10772
anga	-10773
इयां	-10774
▁duly	-10775
▁चैनल	-10776
▁raise	-10777
▁गुणों	-10778
▁Affairs	-10779
▁Gazette	-10780
▁इलेक्ट्रॉनिक	-10781
बारा	-10782
▁Rah	-10783
▁चैतन	-10784
▁मुआव	-10785
▁कार्यरत	-10786
▁undertaken	-10787
▁electricity	-10788
सेना	-10789
▁Rat	-10790
inger	-10791
▁Food	-10792
▁निभा	-10793
▁ढांचा	-10794
▁पर्वत	-10795
▁बनाते	-10796
▁Mandal	-10797
▁handed	-10798
▁आमंत्रित	-10799
▁implemented	-10800
रचना	-10801
▁उपय	-10802
▁वास	-10803
क्राम	-10804
▁समझते	-10805
▁रहेंगे	-10806
▁Jawahar	-10807
▁lie	-10808
▁crow	-10809
▁मानो	-10810
▁भांति	-10811
▁liquid	-10812
▁finance	-10813
▁कोशिकाओं	-10814
MS	-10815
▁गुरू	-10816
▁absor	-10817
inating	-10818
▁Pandey	-10819
▁battle	-10820
▁commod	-10821
▁straight	-10822
▁शैक्षणिक	-10823
▁पक्षकारों	-10824
▁मार्गदर्शन	-10825
oes	-10826
▁छत	-10827
ocal	-10828
▁mix	-10829
▁देखी	-10830
oration	-10831
▁secure	-10832
▁efficient	-10833
▁Independence	-10834
कात	-10835
ulty	-10836
quest	-10837
▁Book	-10838
▁अकाद	-10839
▁क्षण	-10840
▁जितनी	-10841
▁deliver	-10842
eer	-10843
भेद	-10844
iant	-10845
▁File	-10846
▁band	-10847
▁beat	-10848
▁सिंध	-10849
liance	-10850
▁deleg	-10851
▁आबादी	-10852
▁बचाने	-10853
▁युवाओं	-10854
▁व्युत्	-10855
▁अत्यन्त	-10856
▁platform	-10857
yer	-10858
वर्ग	-10859
▁Emp	-10860
▁closed	-10861
▁wonder	-10862
▁वाणिज्य	-10863
ny	-10864
जिद	-10865
▁ड़	-10866
त्ते	-10867
▁फार	-10868
▁डालने	-10869
▁leaving	-10870
▁scientists	-10871
▁Lo	-10872
elled	-10873
ingly	-10874
▁Pandit	-10875
▁cricket	-10876
▁western	-10877
▁definition	-10878
anand	-10879
▁Back	-10880
▁runs	-10881
▁formation	-10882
▁RE	-10883
▁भरे	-10884
▁पोजी	-10885
▁wants	-10886
▁Divine	-10887
▁exists	-10888
▁पारंपरिक	-10889
iri	-10890
्डी	-10891
esty	-10892
▁झील	-10893
▁कागज	-10894
▁क्यू	-10895
▁incur	-10896
▁लकड़ी	-10897
▁मिलेगा	-10898
▁प्रतिवादियों	-10899
che	-10900
्यूम	-10901
▁शोर	-10902
▁पृथक	-10903
▁दर्शाया	-10904
▁bilateral	-10905
▁डो	-10906
▁इकट	-10907
▁हाँ	-10908
▁वार्	-10909
▁शांत	-10910
▁रसायन	-10911
▁होंगी	-10912
▁fellow	-10913
▁rivers	-10914
▁चैतन्य	-10915
▁संवेदन	-10916
▁felicit	-10917
▁कू	-10918
▁वय	-10919
ales	-10920
▁पंख	-10921
hetic	-10922
▁लगती	-10923
▁पट्टी	-10924
▁बहुमत	-10925
▁उड़ीसा	-10926
▁password	-10927
▁announced	-10928
▁friendship	-10929
alg	-10930
▁एयर	-10931
▁कले	-10932
▁agent	-10933
▁बताते	-10934
▁deliber	-10935
▁neck	-10936
▁छाया	-10937
▁floor	-10938
▁girls	-10939
▁equally	-10940
▁flowers	-10941
हि	-10942
▁Gr	-10943
स्ट्रे	-10944
▁गोपाल	-10945
▁offices	-10946
▁entirely	-10947
▁निष्क्रिय	-10948
रस	-10949
▁जाओ	-10950
▁myst	-10951
▁upper	-10952
▁प्रता	-10953
▁papers	-10954
▁examine	-10955
▁बांग्ला	-10956
▁राजभाषा	-10957
▁behaviour	-10958
▁marketing	-10959
▁कार्यवाहियों	-10960
▁अच	-10961
ंगों	-10962
▁Pad	-10963
कर्षण	-10964
▁lying	-10965
▁मानदंड	-10966
▁आतंकवादी	-10967
शाह	-10968
▁नवी	-10969
▁बीस	-10970
▁अज्ञात	-10971
▁Austral	-10972
we	-10973
साई	-10974
▁रहित	-10975
▁मानता	-10976
▁distur	-10977
▁सकेंगे	-10978
odh	-10979
inces	-10980
▁Deep	-10981
▁Time	-10982
▁ग्रे	-10983
ामान्य	-10984
▁Small	-10985
▁तस्वीर	-10986
▁मिलेगी	-10987
rigation	-10988
▁customer	-10989
▁suggestion	-10990
uit	-10991
दोष	-10992
प्रद	-10993
▁खूब	-10994
▁City	-10995
▁bone	-10996
▁ऊपरी	-10997
▁मानी	-10998
स्तानी	-10999
▁Those	-11000
▁kinds	-11001
▁कानूनों	-11002
AB	-11003
apa	-11004
▁कंट	-11005
▁केश	-11006
▁zero	-11007
▁अपराधी	-11008
▁परिवेश	-11009
▁herself	-11010
▁पुस्तकों	-11011
amy	-11012
unk	-11013
शोथ	-11014
▁ठे	-11015
▁Sin	-11016
▁ग्ल	-11017
▁सहन	-11018
शिष्ट	-11019
▁Math	-11020
▁पीडी	-11021
▁चिह्नित	-11022
▁organized	-11023
CE	-11024
अल	-11025
▁कौर	-11026
▁सद्	-11027
तावनी	-11028
▁Tele	-11029
▁खड़ी	-11030
▁धरती	-11031
▁dealt	-11032
▁guard	-11033
▁इसीलिए	-11034
▁पहलुओं	-11035
▁क्रियान्व	-11036
▁झग	-11037
ames	-11038
पंथी	-11039
▁Lax	-11040
▁कोष	-11041
क्तिक	-11042
▁तत्त्व	-11043
examination	-11044
▁accompanied	-11045
भास	-11046
▁गज	-11047
म्बई	-11048
▁टूट	-11049
▁मुंह	-11050
▁fourth	-11051
▁narrow	-11052
▁निविदा	-11053
missible	-11054
▁branches	-11055
▁केंद्रित	-11056
▁wound	-11057
▁हलफना	-11058
▁disapp	-11059
▁कोलकाता	-11060
▁delivered	-11061
▁amp	-11062
▁चुप	-11063
▁फैला	-11064
▁कराना	-11065
▁परिवारों	-11066
झा	-11067
ल्ह	-11068
roud	-11069
राशि	-11070
▁Vir	-11071
▁डिज	-11072
▁issu	-11073
▁span	-11074
▁तारा	-11075
▁मातृ	-11076
▁email	-11077
▁train	-11078
▁खोलने	-11079
▁recognized	-11080
▁temperature	-11081
जाम	-11082
▁ऊंचाई	-11083
▁causing	-11084
▁नकारात्मक	-11085
▁प्रतिष्ठित	-11086
yas	-11087
▁cra	-11088
▁remote	-11089
ruitment	-11090
▁चेतावनी	-11091
▁considerable	-11092
hent	-11093
्यूल	-11094
▁कहां	-11095
▁सिन्	-11096
▁pregn	-11097
▁संपदा	-11098
▁Afghan	-11099
▁गिरफ्तारी	-11100
▁represents	-11101
▁cow	-11102
▁उद्यान	-11103
▁प्रांत	-11104
▁गतिविधि	-11105
▁प्रेषित	-11106
▁communal	-11107
▁Ministers	-11108
साइटी	-11109
▁evil	-11110
▁दुःख	-11111
▁Trade	-11112
▁dance	-11113
▁अभिगम	-11114
▁decree	-11115
▁libert	-11116
▁फ़ोल्डर	-11117
ourses	-11118
▁Micro	-11119
▁Israeli	-11120
▁foundation	-11121
▁रजिस्ट्रार	-11122
स्थल	-11123
▁Hel	-11124
▁भरी	-11125
▁कड़ी	-11126
▁बिता	-11127
▁please	-11128
▁seemed	-11129
▁स्तरों	-11130
▁Related	-11131
▁speaking	-11132
▁guidelines	-11133
▁Legislature	-11134
ँग	-11135
idn	-11136
erce	-11137
▁हिस	-11138
▁About	-11139
▁exclud	-11140
▁obtain	-11141
▁पोजीशन	-11142
▁Nations	-11143
▁happens	-11144
▁प्रतीक्षा	-11145
चंद	-11146
▁जू	-11147
oned	-11148
▁लोड	-11149
▁इकट्	-11150
▁पहाड़ी	-11151
▁recognition	-11152
ithm	-11153
▁aims	-11154
▁trend	-11155
▁Labour	-11156
तांत्रिक	-11157
▁विद्रोह	-11158
▁arguments	-11159
▁representative	-11160
िटल	-11161
वर्ड	-11162
▁hit	-11163
▁viz	-11164
▁आखिर	-11165
▁सुनने	-11166
ensions	-11167
▁tender	-11168
▁आह्वान	-11169
▁History	-11170
▁सोसाइटी	-11171
▁multiple	-11172
ैंक	-11173
itra	-11174
plom	-11175
▁rid	-11176
▁सोने	-11177
▁audit	-11178
▁उन्होने	-11179
▁वस्तुतः	-11180
▁premises	-11181
▁organizations	-11182
१५	-11183
▁Det	-11184
itage	-11185
▁marks	-11186
▁sight	-11187
▁उत्तम	-11188
▁मान्य	-11189
▁skills	-11190
▁व्यापारी	-11191
▁मध्यस्थता	-11192
icon	-11193
ोन्न	-11194
▁Rab	-11195
▁wise	-11196
▁निधन	-11197
▁Laksh	-11198
▁delight	-11199
▁enhance	-11200
▁महाभारत	-11201
▁initiative	-11202
लभ	-11203
िग	-11204
▁ष	-11205
back	-11206
room	-11207
र्दू	-11208
▁ढूं	-11209
ब्लिक	-11210
▁acid	-11211
▁काला	-11212
▁पैसा	-11213
▁Gopal	-11214
▁kumar	-11215
▁जानकर	-11216
▁थोड़ी	-11217
▁संदेय	-11218
ossible	-11219
▁overall	-11220
▁refused	-11221
▁allegations	-11222
▁improvement	-11223
▁एव	-11224
DUCT	-11225
▁III	-11226
alore	-11227
▁दोनो	-11228
▁mostly	-11229
▁परेशान	-11230
▁रेड्डी	-11231
ँचे	-11232
▁Fed	-11233
▁Circ	-11234
▁sick	-11235
▁साहब	-11236
▁चयनित	-11237
▁दिमाग	-11238
▁रूपों	-11239
कांक्षा	-11240
▁centuries	-11241
▁university	-11242
▁Dw	-11243
स्कर	-11244
▁उदा	-11245
going	-11246
▁brid	-11247
▁पाता	-11248
▁प्लस	-11249
▁क्रेड	-11250
▁Rights	-11251
▁plaintiffs	-11252
ंटित	-11253
▁Lat	-11254
▁lev	-11255
▁mir	-11256
▁कही	-11257
▁ज्व	-11258
▁बडी	-11259
▁ahead	-11260
▁poets	-11261
▁billion	-11262
alam	-11263
▁arms	-11264
▁colon	-11265
▁चेहरे	-11266
▁despite	-11267
▁अनुमोदित	-11268
▁Something	-11269
dar	-11270
rie	-11271
▁Dec	-11272
▁तलाश	-11273
▁पाठक	-11274
▁Force	-11275
▁Sunil	-11276
▁अभिलाभ	-11277
top	-11278
oken	-11279
▁सोम	-11280
▁cave	-11281
▁कराई	-11282
▁देखता	-11283
▁beings	-11284
▁रिकार्ड	-11285
▁Regional	-11286
irs	-11287
▁dia	-11288
▁अक्ट	-11289
▁Count	-11290
▁शंकरा	-11291
▁उद्धृत	-11292
▁revision	-11293
▁objection	-11294
▁constitute	-11295
ema	-11296
pro	-11297
▁Prat	-11298
▁Sush	-11299
▁blue	-11300
▁indig	-11301
▁stick	-11302
▁उर्दू	-11303
▁Sardar	-11304
▁अधिकृत	-11305
▁छुट्टी	-11306
▁सम्बंध	-11307
▁अंग्रेज	-11308
▁Rajendra	-11309
▁referring	-11310
▁outstanding	-11311
यु	-11312
ela	-11313
oli	-11314
▁ID	-11315
▁चुनें	-11316
▁personnel	-11317
▁जॉ	-11318
ंदगी	-11319
antic	-11320
▁coast	-11321
▁doesn	-11322
▁भगवान्	-11323
▁equality	-11324
▁movements	-11325
▁environmental	-11326
▁नज	-11327
▁Data	-11328
▁कमीशन	-11329
▁Houses	-11330
▁तैयारी	-11331
▁निष्ठा	-11332
▁शेयरों	-11333
▁council	-11334
▁कांस्टे	-11335
▁इंग्लैंड	-11336
ढ़ा	-11337
ारक	-11338
▁दह	-11339
illa	-11340
▁लिंक	-11341
ocates	-11342
▁पड़ती	-11343
▁fertil	-11344
▁thousands	-11345
ners	-11346
क्कर	-11347
▁Mot	-11348
▁Know	-11349
▁जाएँ	-11350
▁त्वर	-11351
▁याची	-11352
▁Bangl	-11353
▁posts	-11354
▁negoti	-11355
▁districts	-11356
▁बग	-11357
▁लार	-11358
▁स्मरण	-11359
तापूर्ण	-11360
▁Sanjay	-11361
▁height	-11362
▁जायेगी	-11363
▁संभवतः	-11364
▁figures	-11365
▁कर्ण	-11366
▁दण्ड	-11367
▁divid	-11368
▁Select	-11369
▁PRODUCT	-11370
▁Institut	-11371
▁consumer	-11372
▁mountain	-11373
▁transactions	-11374
jan	-11375
▁Jy	-11376
र्थी	-11377
▁सिख	-11378
▁Good	-11379
▁वृद्ध	-11380
▁depends	-11381
▁railway	-11382
▁admission	-11383
▁extremely	-11384
▁instruments	-11385
▁पॉ	-11386
▁मनी	-11387
ेक्टर	-11388
▁Urdu	-11389
▁यूपी	-11390
▁विकि	-11391
कलापों	-11392
▁उत्तेज	-11393
▁आधारभूत	-11394
▁repeated	-11395
▁arrangement	-11396
ोज़	-11397
स्टर	-11398
▁Shi	-11399
▁CrPC	-11400
▁lock	-11401
▁अगली	-11402
▁hardly	-11403
▁reforms	-11404
▁opposition	-11405
ham	-11406
रेख	-11407
riya	-11408
ellow	-11409
▁cott	-11410
▁ईरान	-11411
▁कट्ट	-11412
▁माने	-11413
▁acknow	-11414
▁insect	-11415
▁visible	-11416
▁Companies	-11417
▁rit	-11418
▁छोड	-11419
▁जिल	-11420
▁valu	-11421
▁minds	-11422
▁सहारा	-11423
▁couple	-11424
▁tissue	-11425
▁transp	-11426
▁playing	-11427
▁अक्टूबर	-11428
▁telephone	-11429
▁understood	-11430
akti	-11431
▁एल्	-11432
▁upto	-11433
▁असली	-11434
ailing	-11435
▁मौखिक	-11436
▁French	-11437
▁हिमाचल	-11438
गि	-11439
ught	-11440
ुत्व	-11441
▁शरण	-11442
▁पदोन्न	-11443
▁प्रजनन	-11444
तरी	-11445
▁लिप	-11446
▁oral	-11447
▁अमरीकी	-11448
gent	-11449
▁cart	-11450
▁हाथी	-11451
▁scene	-11452
▁spite	-11453
▁जापान	-11454
▁चिकित्सक	-11455
▁conference	-11456
hus	-11457
ंधन	-11458
▁धा	-11459
fort	-11460
otes	-11461
सीयत	-11462
▁अमी	-11463
ुपयोग	-11464
▁Saty	-11465
▁lease	-11466
▁संभाल	-11467
▁हरिया	-11468
▁career	-11469
▁lodged	-11470
▁Exchange	-11471
dess	-11472
▁Fam	-11473
▁Var	-11474
icide	-11475
idden	-11476
▁अर्ज	-11477
▁काले	-11478
▁पशुओं	-11479
▁सम्भव	-11480
▁supreme	-11481
▁starting	-11482
▁फलस्वरूप	-11483
▁सीआरपीसी	-11484
▁governments	-11485
iso	-11486
pet	-11487
▁घो	-11488
▁Annex	-11489
▁loans	-11490
▁गहराई	-11491
▁Railway	-11492
▁प्रदत्त	-11493
▁definite	-11494
nai	-11495
oples	-11496
▁एकदम	-11497
▁मुगल	-11498
ansion	-11499
▁अंतराल	-11500
▁Eastern	-11501
▁feature	-11502
▁टेलीफोन	-11503
▁quantity	-11504
anti	-11505
isis	-11506
▁Has	-11507
▁आयी	-11508
▁renew	-11509
▁पुरूष	-11510
▁अंतरिम	-11511
▁तत्पश्च	-11512
▁प्रतिबि	-11513
▁suffered	-11514
▁framework	-11515
णि	-11516
▁छु	-11517
जीवी	-11518
▁tom	-11519
▁welcome	-11520
▁disclosed	-11521
ज़े	-11522
uted	-11523
▁लगते	-11524
▁समझे	-11525
▁screen	-11526
▁जवाहरलाल	-11527
▁organised	-11528
ux	-11529
गरी	-11530
▁vs	-11531
▁तिव	-11532
▁लखन	-11533
▁मछली	-11534
clause	-11535
encing	-11536
▁एजेंस	-11537
▁config	-11538
▁संगठित	-11539
▁क्रेडिट	-11540
ंकी	-11541
सार	-11542
anath	-11543
▁Ranj	-11544
▁शान्त	-11545
ulatory	-11546
▁folder	-11547
▁promin	-11548
▁अपनाने	-11549
▁पूर्वा	-11550
▁Capital	-11551
alu	-11552
alle	-11553
▁Tir	-11554
▁tea	-11555
irmed	-11556
▁phen	-11557
▁उग्र	-11558
▁उन्हीं	-11559
▁demands	-11560
▁Officers	-11561
▁requested	-11562
▁appearance	-11563
▁strengthen	-11564
▁Inn	-11565
▁Kir	-11566
▁Rak	-11567
▁asc	-11568
▁हरे	-11569
▁Penal	-11570
▁finds	-11571
▁journal	-11572
▁धन्यवाद	-11573
▁Palestinian	-11574
्वे	-11575
▁घृ	-11576
urved	-11577
▁गलती	-11578
▁फेंक	-11579
▁showed	-11580
▁मानवता	-11581
▁प्रसंस्	-11582
▁कांस्टेबल	-11583
▁उत्तरदायित्व	-11584
▁vir	-11585
▁अजी	-11586
▁fifty	-11587
▁इंगित	-11588
▁पिछली	-11589
▁bearing	-11590
▁composed	-11591
▁distinguished	-11592
ड़ना	-11593
▁Process	-11594
▁कनेक्शन	-11595
▁पेट्रोल	-11596
▁customers	-11597
uv	-11598
▁Cre	-11599
▁hyd	-11600
▁जंगल	-11601
▁बन्द	-11602
▁स्टा	-11603
▁चिन्ह	-11604
▁विवरणी	-11605
▁discrim	-11606
▁disposal	-11607
▁preferred	-11608
▁represented	-11609
▁commencement	-11610
ke	-11611
शेष	-11612
anka	-11613
▁Din	-11614
▁dog	-11615
सायनिक	-11616
▁रूपांत	-11617
▁appeals	-11618
▁विनिश्चय	-11619
▁Agriculture	-11620
▁Respondents	-11621
mad	-11622
ज्ज	-11623
्नि	-11624
▁Vol	-11625
▁Web	-11626
▁अम्	-11627
▁शराब	-11628
chandra	-11629
▁acting	-11630
▁anyone	-11631
▁render	-11632
▁परिचित	-11633
▁सहयोगी	-11634
▁brothers	-11635
▁निर्देशों	-11636
IF	-11637
ba	-11638
थान	-11639
मैन	-11640
▁Aj	-11641
▁PM	-11642
osen	-11643
▁bird	-11644
▁चलाया	-11645
▁तीसरा	-11646
▁सिवाय	-11647
▁certainly	-11648
▁personality	-11649
▁determination	-11650
hari	-11651
▁सीधा	-11652
▁साधनों	-11653
▁objects	-11654
▁स्कूलों	-11655
▁challenged	-11656
ायण	-11657
urer	-11658
▁Swar	-11659
▁मशीनरी	-11660
za	-11661
छा	-11662
ेतन	-11663
▁कस	-11664
वाने	-11665
▁raw	-11666
▁डाउ	-11667
ander	-11668
ष्कार	-11669
▁Vidy	-11670
▁रखकर	-11671
▁साथी	-11672
▁Reddy	-11673
▁myself	-11674
▁तिवारी	-11675
िमा	-11676
older	-11677
▁Wind	-11678
▁नामा	-11679
▁किराए	-11680
▁निष्प	-11681
▁Failed	-11682
▁offers	-11683
▁traffic	-11684
▁sin	-11685
▁निप	-11686
▁पुण	-11687
▁राधा	-11688
▁Credit	-11689
▁काउंसिल	-11690
▁continues	-11691
▁technologies	-11692
▁Po	-11693
▁इक	-11694
▁Beg	-11695
▁नाय	-11696
▁हुस	-11697
▁Pass	-11698
▁दार्	-11699
▁thank	-11700
▁रोगों	-11701
▁विनाश	-11702
▁पड़ेगा	-11703
▁किन्हीं	-11704
▁ब्राह्मण	-11705
▁व्यवस्थित	-11706
परि	-11707
▁नल	-11708
▁एपी	-11709
धिकरण	-11710
▁upgr	-11711
▁prose	-11712
▁अक्षम	-11713
▁जर्मनी	-11714
tes	-11715
aces	-11716
नलोड	-11717
स्को	-11718
▁रसी	-11719
ushed	-11720
▁eggs	-11721
▁पीसी	-11722
▁बताने	-11723
▁समझता	-11724
▁रिश्ते	-11725
▁Manager	-11726
▁फोटो	-11727
▁मुझसे	-11728
▁choose	-11729
▁creative	-11730
ूनी	-11731
▁Ir	-11732
▁सकल	-11733
हाबाद	-11734
▁blind	-11735
▁horse	-11736
▁प्रबल	-11737
▁college	-11738
▁पार्टियों	-11739
▁proportion	-11740
ien	-11741
▁बुक	-11742
itted	-11743
▁park	-11744
▁निशान	-11745
▁convicted	-11746
▁regulations	-11747
▁अनुर	-11748
▁गद्य	-11749
▁स्वप	-11750
▁मासिक	-11751
▁तुर्की	-11752
▁नियंत्रक	-11753
▁recording	-11754
▁representatives	-11755
sue	-11756
▁PC	-11757
▁sad	-11758
▁अवय	-11759
स्वती	-11760
▁devi	-11761
retion	-11762
▁skill	-11763
ignment	-11764
ressive	-11765
▁weapons	-11766
▁विवादों	-11767
▁manifest	-11768
▁sacrifice	-11769
uni	-11770
्राव	-11771
▁इस्	-11772
▁मेघ	-11773
▁आपात	-11774
▁निरसन	-11775
▁शासित	-11776
▁caught	-11777
▁amounts	-11778
▁Registration	-11779
धना	-11780
▁टू	-11781
ंबित	-11782
▁Vik	-11783
▁आपस	-11784
▁नकद	-11785
▁डॉलर	-11786
▁मुद्दा	-11787
▁अधिसूचित	-11788
▁रजिस्ट्रीकरण	-11789
ेरे	-11790
▁Ti	-11791
gery	-11792
▁Jos	-11793
▁Mrs	-11794
▁पहन	-11795
▁सतत	-11796
pected	-11797
▁dynam	-11798
▁चुकता	-11799
▁exports	-11800
▁Economic	-11801
ुख	-11802
यिक	-11803
▁पढ	-11804
alli	-11805
dish	-11806
▁ऑफ़	-11807
स्वामी	-11808
▁sweet	-11809
▁पुनरी	-11810
▁रहेगी	-11811
▁कुशलता	-11812
▁दक्षता	-11813
▁शानदार	-11814
▁describ	-11815
▁examples	-11816
▁रासायनिक	-11817
▁contributions	-11818
cont	-11819
organ	-11820
▁बनता	-11821
▁Allow	-11822
▁चीजें	-11823
▁मुलाकात	-11824
▁सम्पर्क	-11825
▁सम्मानित	-11826
▁conferred	-11827
▁अध्यक्षता	-11828
TH	-11829
urally	-11830
▁दुर्गा	-11831
▁invited	-11832
▁इल	-11833
▁टिकट	-11834
▁दस्तावेज़	-11835
▁punishable	-11836
▁Certificate	-11837
कन	-11838
ब्ब	-11839
azar	-11840
▁Tah	-11841
▁नती	-11842
umber	-11843
▁पंचा	-11844
▁शल्य	-11845
▁अपवाद	-11846
▁जुड़ी	-11847
▁राजीव	-11848
reement	-11849
▁prayer	-11850
▁एकीकृत	-11851
▁डब्ल्यू	-11852
▁Committees	-11853
▁शंकराचार्य	-11854
▁recall	-11855
▁suffer	-11856
▁enabled	-11857
eum	-11858
▁Vaish	-11859
▁deeply	-11860
▁प्राइवेट	-11861
कियों	-11862
▁उतनी	-11863
▁विनि	-11864
▁labor	-11865
▁pages	-11866
▁radio	-11867
▁Clause	-11868
▁संपन्न	-11869
hibition	-11870
▁felicitations	-11871
▁Sik	-11872
▁पोल	-11873
▁Cust	-11874
▁Dhan	-11875
▁भक्त	-11876
▁liberal	-11877
ls	-11878
▁Om	-11879
izes	-11880
etary	-11881
▁किमी	-11882
▁Apart	-11883
accused	-11884
piration	-11885
▁regards	-11886
▁गांधीजी	-11887
▁अंग्रेजों	-11888
OC	-11889
पूर	-11890
▁बम	-11891
▁भो	-11892
▁pul	-11893
▁Chait	-11894
▁slight	-11895
▁लोकसभा	-11896
▁विचारा	-11897
▁quickly	-11898
▁impossible	-11899
▁sustainable	-11900
गामी	-11901
ॉर्ट	-11902
▁जुल	-11903
▁पाइ	-11904
▁Sure	-11905
▁disk	-11906
▁लाना	-11907
▁संधि	-11908
aneous	-11909
▁तीसरी	-11910
▁budget	-11911
▁enacted	-11912
▁markets	-11913
▁household	-11914
▁Bangladesh	-11915
▁differences	-11916
्चर	-11917
▁Kap	-11918
▁pret	-11919
▁धोखा	-11920
▁मंगल	-11921
▁दुर्भाग्य	-11922
▁घात	-11923
▁मंग	-11924
ruits	-11925
वृत्त	-11926
स्पति	-11927
▁Agra	-11928
▁core	-11929
▁elim	-11930
▁डिक्री	-11931
▁explain	-11932
▁Mahabhar	-11933
▁Superint	-11934
गित	-11935
▁रिस	-11936
▁अनाज	-11937
▁वांछ	-11938
▁गाड़ी	-11939
▁धनराशि	-11940
स्ट्रेलिया	-11941
▁facilitate	-11942
भु	-11943
emb	-11944
ohan	-11945
▁vig	-11946
orthy	-11947
▁John	-11948
▁अपरि	-11949
▁नकदी	-11950
▁सैन्य	-11951
▁निपटने	-11952
▁identify	-11953
▁क्रांतिक	-11954
▁क्षतिपूर्ति	-11955
▁pec	-11956
▁गोद	-11957
▁कार्म	-11958
▁sacred	-11959
▁घनिष्ठ	-11960
▁मस्जिद	-11961
▁स्तरीय	-11962
▁allowance	-11963
▁Far	-11964
▁Yes	-11965
▁महल	-11966
ommod	-11967
▁समेक	-11968
▁इंद्र	-11969
▁हिसाब	-11970
▁Bahadur	-11971
▁clothes	-11972
▁स्वाधीन	-11973
▁निर्भरता	-11974
▁availability	-11975
▁subsequently	-11976
दूरी	-11977
▁घरों	-11978
▁पाये	-11979
▁पैनल	-11980
▁ओआरएस	-11981
▁breath	-11982
▁Election	-11983
▁PS	-11984
▁Oper	-11985
▁theme	-11986
▁Territ	-11987
▁ritual	-11988
▁virtue	-11989
▁opposed	-11990
▁स्थितियों	-11991
▁comprehensive	-11992
▁organisations	-11993
ंसक	-11994
fall	-11995
▁ast	-11996
rafts	-11997
▁Path	-11998
▁doub	-11999
▁पावर	-12000
▁याता	-12001
▁सेक्टर	-12002
▁dedicated	-12003
कलाप	-12004
▁अफग	-12005
▁औषध	-12006
▁घाव	-12007
▁बेर	-12008
▁बंदर	-12009
ंख्यिक	-12010
▁Great	-12011
▁knows	-12012
▁forwarded	-12013
▁neighbour	-12014
कोट	-12015
▁IC	-12016
▁उभ	-12017
▁Key	-12018
▁Sud	-12019
▁असह	-12020
▁Laws	-12021
▁Having	-12022
▁strict	-12023
▁mechanism	-12024
lo	-12025
hal	-12026
atab	-12027
umin	-12028
▁drama	-12029
▁proud	-12030
▁विधिव	-12031
▁bright	-12032
▁रायपुर	-12033
▁अन्वेषण	-12034
▁डाउनलोड	-12035
▁सरस्वती	-12036
▁imperial	-12037
▁indicate	-12038
▁Parliamentary	-12039
▁wa	-12040
▁शर	-12041
erate	-12042
▁बचने	-12043
▁Master	-12044
▁salary	-12045
▁पूर्णतः	-12046
▁covering	-12047
▁emphasis	-12048
वंत	-12049
▁tim	-12050
▁दौरा	-12051
▁भाष्	-12052
▁double	-12053
▁चुनौतियों	-12054
ua	-12055
▁DNA	-12056
apped	-12057
▁Mult	-12058
▁seat	-12059
▁owned	-12060
▁कीटों	-12061
▁रचनात्मक	-12062
▁सम्बन्धित	-12063
SS	-12064
ुश	-12065
ota	-12066
िने	-12067
न्दा	-12068
▁जाह	-12069
▁पोष	-12070
▁रघु	-12071
▁सड़	-12072
▁merit	-12073
▁आयुर्	-12074
▁चार्ज	-12075
▁जीवों	-12076
▁बढ़ते	-12077
▁मतदान	-12078
▁मिश्रण	-12079
▁हिरासत	-12080
▁विकलांग	-12081
▁Planning	-12082
▁compound	-12083
▁व्यापारिक	-12084
▁स्त्रियों	-12085
▁Industries	-12086
▁उत्तराधिकार	-12087
▁UT	-12088
▁फौ	-12089
mony	-12090
ैण्ड	-12091
▁मौका	-12092
▁exped	-12093
▁steel	-12094
▁कट्टर	-12095
▁फायदा	-12096
▁stopped	-12097
▁कमल	-12098
▁वजन	-12099
दाताओं	-12100
▁spect	-12101
▁estimated	-12102
ंची	-12103
▁ww	-12104
▁Lah	-12105
▁बडे	-12106
▁बिट	-12107
दाबाद	-12108
▁Dhar	-12109
▁seiz	-12110
▁अनिल	-12111
▁ट्यूब	-12112
▁पीड़ा	-12113
▁पैकेज	-12114
▁insist	-12115
▁unknown	-12116
▁indicated	-12117
▁receiving	-12118
▁satisfaction	-12119
UL	-12120
▁फाइ	-12121
▁race	-12122
▁उर्फ	-12123
▁दीक्षा	-12124
▁Kolkata	-12125
▁notified	-12126
▁thoughts	-12127
▁completion	-12128
rob	-12129
▁मं	-12130
ooth	-12131
▁www	-12132
▁अहि	-12133
▁ईमान	-12134
▁हुसैन	-12135
▁employer	-12136
ढ़े	-12137
देशों	-12138
स्फोट	-12139
▁holds	-12140
▁यातायात	-12141
▁प्रस्तुति	-12142
▁विद्वानों	-12143
▁लोकतांत्रिक	-12144
▁rub	-12145
▁किल	-12146
▁घास	-12147
▁अवकाश	-12148
▁सुनाई	-12149
▁representing	-12150
मेन	-12151
▁PD	-12152
▁Tar	-12153
▁हमे	-12154
house	-12155
isher	-12156
चालित	-12157
▁vess	-12158
▁अभ्य	-12159
▁घाटी	-12160
व्यापी	-12161
▁बताता	-12162
▁मंजूर	-12163
▁वसीयत	-12164
utation	-12165
▁किराया	-12166
▁determine	-12167
▁temporary	-12168
मुच	-12169
▁Nir	-12170
▁hind	-12171
▁roof	-12172
▁interf	-12173
▁complic	-12174
▁वैज्ञानिकों	-12175
qual	-12176
▁FOR	-12177
▁Move	-12178
▁देरी	-12179
▁arise	-12180
▁हार्ड	-12181
▁seeing	-12182
▁साक्षा	-12183
िर्धारित	-12184
▁Address	-12185
▁Chennai	-12186
▁derived	-12187
▁Himachal	-12188
▁उपलब्धता	-12189
▁corporate	-12190
▁consumption	-12191
arh	-12192
orge	-12193
rain	-12194
▁lect	-12195
▁sequ	-12196
▁गणित	-12197
▁ध्वज	-12198
▁seats	-12199
▁Awards	-12200
▁Buddha	-12201
▁Forest	-12202
▁Prosec	-12203
▁प्रविष्ट	-12204
▁निर्देशिका	-12205
भौ	-12206
inct	-12207
itan	-12208
▁htt	-12209
▁Sita	-12210
▁flat	-12211
▁क्रॉस	-12212
▁crores	-12213
▁desert	-12214
▁promoting	-12215
MP	-12216
▁mr	-12217
elve	-12218
बारी	-12219
▁Cal	-12220
iable	-12221
▁Army	-12222
▁fold	-12223
▁आपसे	-12224
▁जल्द	-12225
▁बुरी	-12226
▁भरने	-12227
▁Raipur	-12228
▁cheque	-12229
▁दार्शन	-12230
▁advised	-12231
▁इकाइयों	-12232
▁मित्रों	-12233
खाव	-12234
▁CD	-12235
▁व्	-12236
▁विज	-12237
▁ब्यू	-12238
▁toler	-12239
▁intelligence	-12240
पेश	-12241
▁कृष	-12242
▁cool	-12243
▁तैना	-12244
▁propag	-12245
▁अधीनस्थ	-12246
▁petitions	-12247
▁submissions	-12248
ँस	-12249
ida	-12250
बिट	-12251
▁मॉड	-12252
▁हरी	-12253
▁Unit	-12254
▁अस्थि	-12255
▁त्वरित	-12256
▁प्रतिर	-12257
▁हजारों	-12258
▁प्रतिफल	-12259
▁इलाहाबाद	-12260
▁religions	-12261
▁legislative	-12262
डन	-12263
NAME	-12264
owed	-12265
▁बांट	-12266
▁Trial	-12267
▁chain	-12268
▁Market	-12269
▁burden	-12270
▁talking	-12271
▁improved	-12272
▁terrorist	-12273
▁कार्यान्वित	-12274
abet	-12275
क्की	-12276
▁Gul	-12277
▁mel	-12278
▁vit	-12279
▁thor	-12280
▁क्लब	-12281
▁प्लेट	-12282
▁लेंगे	-12283
▁मानकों	-12284
▁normally	-12285
▁efficiency	-12286
▁observations	-12287
▁Luc	-12288
▁elder	-12289
▁पालिसी	-12290
ुड	-12291
ture	-12292
▁बया	-12293
▁चावल	-12294
▁plans	-12295
▁string	-12296
▁अभियोग	-12297
▁uniform	-12298
कीन	-12299
▁टॉ	-12300
▁अतीत	-12301
ciation	-12302
▁Brahmin	-12303
▁peoples	-12304
▁victims	-12305
▁कलेक्टर	-12306
▁समर्थित	-12307
▁Annexure	-12308
och	-12309
▁कच	-12310
▁तू	-12311
▁चुक	-12312
▁धान	-12313
▁बोध	-12314
▁लाह	-12315
▁सोल	-12316
▁विनोद	-12317
▁सम्रा	-12318
▁convers	-12319
▁दुरुपयोग	-12320
▁evolution	-12321
▁signature	-12322
▁lik	-12323
▁अजय	-12324
▁असल	-12325
त्रिम	-12326
▁आपसी	-12327
▁Legal	-12328
▁शुक्र	-12329
▁Comput	-12330
pa	-12331
oman	-12332
▁Pet	-12333
▁Rev	-12334
herent	-12335
▁fraud	-12336
▁चौहान	-12337
irement	-12338
▁permit	-12339
▁housing	-12340
▁पुस्तिका	-12341
▁judiciary	-12342
▁effectively	-12343
खर	-12344
हाल	-12345
▁Top	-12346
▁ran	-12347
▁संभ	-12348
enous	-12349
▁legs	-12350
▁शुक्	-12351
akrish	-12352
यक्तिक	-12353
▁वैदिक	-12354
ोक्ताओं	-12355
▁everyone	-12356
▁असामान्य	-12357
▁Administrative	-12358
संच	-12359
▁टक	-12360
गोलिक	-12361
▁doll	-12362
▁proc	-12363
▁खनिज	-12364
▁मेमो	-12365
▁आस्था	-12366
▁इंस्प	-12367
▁masses	-12368
▁वस्तुएं	-12369
▁Speaking	-12370
▁investig	-12371
▁राष्ट्रों	-12372
▁Jawaharlal	-12373
▁possibility	-12374
EG	-12375
hesh	-12376
सलों	-12377
▁Han	-12378
वास्त	-12379
▁शासक	-12380
▁chrom	-12381
▁भाग्य	-12382
▁लंबाई	-12383
▁सम्पा	-12384
▁proviso	-12385
▁regarded	-12386
rum	-12387
▁ram	-12388
▁गर्व	-12389
▁शिक्षित	-12390
▁interpretation	-12391
मोहन	-12392
▁Ans	-12393
▁Copy	-12394
▁कृति	-12395
▁देखो	-12396
▁admin	-12397
▁paras	-12398
▁contra	-12399
▁जनजाति	-12400
▁unw	-12401
iliar	-12402
ullah	-12403
▁drop	-12404
▁रमेश	-12405
▁स्वै	-12406
rating	-12407
▁Govind	-12408
▁Industry	-12409
▁constitu	-12410
▁procedures	-12411
▁Exc	-12412
▁Gold	-12413
▁तनाव	-12414
▁sympt	-12415
▁विधाय	-12416
▁Common	-12417
▁guidance	-12418
▁meetings	-12419
▁समुदायों	-12420
▁competition	-12421
dev	-12422
ष्म	-12423
▁hom	-12424
▁नित	-12425
▁कुटु	-12426
▁दायरे	-12427
▁लाभों	-12428
▁सचमुच	-12429
▁resulting	-12430
▁विचाराधीन	-12431
▁acceptance	-12432
▁difficulty	-12433
ैंट	-12434
rity	-12435
▁दया	-12436
▁समू	-12437
▁baby	-12438
▁lady	-12439
▁pron	-12440
▁लगने	-12441
▁Ambed	-12442
▁accom	-12443
▁मतभेद	-12444
▁manager	-12445
▁आरोपियों	-12446
▁स्वीकार्य	-12447
▁composition	-12448
नेश	-12449
uity	-12450
▁ईंधन	-12451
ensity	-12452
तन्त्र	-12453
▁Innov	-12454
▁envis	-12455
▁बढ़कर	-12456
▁Change	-12457
▁chosen	-12458
▁गवर्नर	-12459
▁Germany	-12460
▁जायेंगे	-12461
▁भौगोलिक	-12462
▁Children	-12463
▁successfully	-12464
ोनें	-12465
▁Ord	-12466
▁टेक्	-12467
▁नायक	-12468
▁outer	-12469
▁Ambedkar	-12470
RO	-12471
oz	-12472
pad	-12473
कोर	-12474
सेस	-12475
ांसी	-12476
▁Mos	-12477
▁Sav	-12478
▁mos	-12479
▁boys	-12480
▁लंदन	-12481
▁innoc	-12482
▁param	-12483
▁ऑडियो	-12484
▁नमूने	-12485
▁Persian	-12486
▁भावनाओं	-12487
▁कार्यपालिका	-12488
▁Administration	-12489
▁छाप	-12490
▁पवन	-12491
▁York	-12492
▁fees	-12493
▁ख्या	-12494
▁गोरा	-12495
▁मानने	-12496
▁illust	-12497
▁wholly	-12498
▁खतरनाक	-12499
▁खरीदने	-12500
▁वार्ता	-12501
▁अवमानना	-12502
▁Allahabad	-12503
फ्	-12504
norm	-12505
▁चित	-12506
▁Name	-12507
▁Later	-12508
▁center	-12509
▁occurred	-12510
IP	-12511
श्र	-12512
▁दम	-12513
▁CON	-12514
▁syn	-12515
▁कना	-12516
▁दलों	-12517
▁Champ	-12518
▁seeds	-12519
▁तीर्थ	-12520
▁नमूना	-12521
▁ब्राउ	-12522
▁garden	-12523
▁founded	-12524
▁उपेक्षा	-12525
▁कृत्रिम	-12526
▁practical	-12527
▁Accordingly	-12528
ोई	-12529
ेदी	-12530
oudh	-12531
▁Ray	-12532
▁नस्ल	-12533
▁alias	-12534
▁सीखने	-12535
▁adverse	-12536
▁involving	-12537
▁प्रसंस्करण	-12538
▁consultation	-12539
mal	-12540
▁गोप	-12541
▁रूस	-12542
▁बोलते	-12543
▁Welfare	-12544
▁entrust	-12545
▁उत्पादक	-12546
▁improving	-12547
▁विचारधारा	-12548
▁prosecutrix	-12549
ius	-12550
▁Sk	-12551
परिव	-12552
▁कालेज	-12553
▁humanity	-12554
▁phenomen	-12555
▁Bangalore	-12556
▁infection	-12557
रखाव	-12558
inity	-12559
orney	-12560
▁Chak	-12561
▁Khat	-12562
▁श्वेत	-12563
▁writers	-12564
▁superior	-12565
▁एसोसिएशन	-12566
▁candidate	-12567
▁carefully	-12568
िथ	-12569
uri	-12570
ार्इ	-12571
▁Ach	-12572
▁दमन	-12573
▁दाह	-12574
▁पेर	-12575
▁lose	-12576
▁टर्म	-12577
▁लिपि	-12578
▁स्तन	-12579
asters	-12580
▁driver	-12581
▁आरक्षण	-12582
▁रिजर्व	-12583
▁सभापति	-12584
▁Private	-12585
▁वैधानिक	-12586
▁Standing	-12587
▁केंद्रों	-12588
▁happiness	-12589
िशन	-12590
▁Yet	-12591
▁फुट	-12592
▁लीग	-12593
icket	-12594
ients	-12595
▁cancel	-12596
▁वितरित	-12597
▁residence	-12598
▁controlled	-12599
नाइट	-12600
न्तर	-12601
▁Cle	-12602
▁sam	-12603
▁अंडे	-12604
▁अतिक	-12605
actory	-12606
▁ignor	-12607
▁रखरखाव	-12608
orted	-12609
▁cogn	-12610
▁flag	-12611
संरचना	-12612
▁enemy	-12613
▁roads	-12614
▁tools	-12615
▁usual	-12616
▁director	-12617
▁contemporary	-12618
दनी	-12619
▁चमक	-12620
स्मिक	-12621
▁कहाँ	-12622
▁Single	-12623
▁व्यस्त	-12624
▁दिसम्बर	-12625
▁deposits	-12626
▁heritage	-12627
▁computing	-12628
▁प्रभावशाली	-12629
mn	-12630
AGE	-12631
▁pu	-12632
आईसी	-12633
▁MSME	-12634
rition	-12635
▁newspaper	-12636
बूझ	-12637
हीत	-12638
क़्ति	-12639
▁Nare	-12640
▁hill	-12641
▁उपरा	-12642
▁नर्स	-12643
▁कॉर्प	-12644
▁Academ	-12645
▁लेखकों	-12646
▁घन	-12647
▁sky	-12648
▁एमएस	-12649
▁बताए	-12650
▁पट्टे	-12651
▁बेचने	-12652
▁अवलोकन	-12653
▁शर्तें	-12654
▁kingdom	-12655
▁liberty	-12656
पीट	-12657
यंती	-12658
▁सूच	-12659
▁कारख	-12660
▁बंबई	-12661
▁राजू	-12662
स्परिक	-12663
▁willing	-12664
▁convention	-12665
AP	-12666
बेस	-12667
▁Vid	-12668
▁scen	-12669
▁आर्य	-12670
▁uncle	-12671
▁परिवर्तनों	-12672
iah	-12673
▁Mir	-12674
▁विस	-12675
▁surre	-12676
▁अभिभा	-12677
▁अर्जन	-12678
▁occurs	-12679
▁tribal	-12680
▁नवम्बर	-12681
ortunately	-12682
▁सामान्यतया	-12683
▁participate	-12684
▁खर	-12685
जनों	-12686
▁Amb	-12687
▁shif	-12688
▁अश्व	-12689
▁किरण	-12690
▁गहरे	-12691
▁रखती	-12692
▁लंबा	-12693
▁हमले	-12694
▁राकेश	-12695
▁authent	-12696
▁inspired	-12697
▁voluntary	-12698
हरण	-12699
oria	-12700
▁ऊतक	-12701
▁Last	-12702
▁Banks	-12703
▁saint	-12704
▁solid	-12705
▁accommod	-12706
▁southern	-12707
▁categories	-12708
ुम	-12709
idi	-12710
uran	-12711
ानाथ	-12712
िक्र	-12713
कारिता	-12714
▁Being	-12715
▁layer	-12716
▁खातों	-12717
▁भारती	-12718
▁approx	-12719
▁broken	-12720
▁celebrated	-12721
▁distinction	-12722
क्सा	-12723
▁कवर	-12724
▁ताज	-12725
▁Free	-12726
▁empt	-12727
▁Mount	-12728
▁flood	-12729
▁अग्नि	-12730
▁बकाया	-12731
▁asking	-12732
▁stages	-12733
▁समर्पण	-12734
▁सुन्दर	-12735
inations	-12736
▁accompl	-12737
▁आकस्मिक	-12738
▁strategy	-12739
▁arrangements	-12740
▁पन	-12741
▁भव	-12742
amma	-12743
ibly	-12744
▁Ren	-12745
▁खबर	-12746
▁Test	-12747
▁चट्ट	-12748
ananda	-12749
mation	-12750
▁एक्सट	-12751
▁Chaitanya	-12752
ितु	-12753
र्फ़	-12754
▁Ary	-12755
▁ego	-12756
venth	-12757
▁Sund	-12758
▁hall	-12759
▁अरुण	-12760
inance	-12761
▁ought	-12762
▁अधिरो	-12763
▁gather	-12764
▁हरियाणा	-12765
▁difficulties	-12766
achi	-12767
atra	-12768
▁Cast	-12769
▁Binoy	-12770
▁equity	-12771
▁नदियों	-12772
▁trading	-12773
▁मनोरंजन	-12774
▁कर्तव्यों	-12775
▁pertaining	-12776
लक	-12777
▁fuel	-12778
▁पुराना	-12779
▁रामायण	-12780
▁योजनाएं	-12781
▁findings	-12782
▁consisting	-12783
▁अपेक्षाकृत	-12784
▁departments	-12785
jun	-12786
▁नौकर	-12787
▁मादा	-12788
▁Democ	-12789
▁quiet	-12790
▁कैंसर	-12791
▁immense	-12792
▁discussions	-12793
ERS	-12794
ेडकर	-12795
aniel	-12796
सूत्र	-12797
▁रिज़	-12798
uality	-12799
▁गर्मी	-12800
▁ordered	-12801
▁माध्यस्थम्	-12802
जाल	-12803
▁कं	-12804
▁Bet	-12805
▁वाम	-12806
▁अनुया	-12807
▁पंजाबी	-12808
▁मरम्मत	-12809
▁settings	-12810
▁valuable	-12811
▁expansion	-12812
▁electronic	-12813
egu	-12814
वाणी	-12815
▁Shar	-12816
▁आवेद	-12817
▁वैष्ण	-12818
▁अधीक्षक	-12819
▁significance	-12820
ल्फ	-12821
र्नी	-12822
▁era	-12823
▁अहं	-12824
▁हड़	-12825
▁ends	-12826
▁दौड़	-12827
▁crisis	-12828
ानिस्तान	-12829
र्चे	-12830
▁cos	-12831
▁plea	-12832
aryana	-12833
▁Start	-12834
▁कुरान	-12835
▁टेस्ट	-12836
▁निर्वहन	-12837
▁राजकुमार	-12838
▁राजेंद्र	-12839
▁पारस्परिक	-12840
▁संग्रहालय	-12841
▁constructed	-12842
asty	-12843
▁उदय	-12844
▁आजाद	-12845
▁बनना	-12846
▁walls	-12847
▁जिसको	-12848
▁contro	-12849
▁indirect	-12850
▁messages	-12851
▁producing	-12852
▁Superintendent	-12853
कारा	-12854
▁Mahe	-12855
▁अभिर	-12856
▁मिटा	-12857
▁विजे	-12858
▁gradu	-12859
ानुभूति	-12860
▁chapter	-12861
▁प्रसारण	-12862
▁assembly	-12863
▁Constable	-12864
▁integrated	-12865
▁प्रणालियों	-12866
alal	-12867
▁tank	-12868
▁मोटे	-12869
▁stead	-12870
▁सत्यापन	-12871
▁tomorrow	-12872
▁writings	-12873
▁specially	-12874
▁continuous	-12875
ache	-12876
नामा	-12877
▁धूम	-12878
▁bomb	-12879
▁नर्म	-12880
▁बैठा	-12881
active	-12882
riages	-12883
▁पक्षी	-12884
▁strike	-12885
▁twelve	-12886
▁पुनर्व	-12887
▁trouble	-12888
▁मुख्यतः	-12889
▁discipline	-12890
▁Directorate	-12891
ध्व	-12892
वेल	-12893
grim	-12894
ords	-12895
▁आधे	-12896
▁bact	-12897
▁घृणा	-12898
▁सौंद	-12899
▁सौंपा	-12900
▁स्ट्र	-12901
▁निकलने	-12902
▁मजदूरी	-12903
▁raising	-12904
ictionary	-12905
▁परिकल्पना	-12906
▁authorised	-12907
ंचल	-12908
सेट	-12909
▁कंध	-12910
ortem	-12911
▁गणेश	-12912
▁cycle	-12913
▁निर्ण	-12914
▁poison	-12915
▁यूनियन	-12916
▁accurate	-12917
▁incorpor	-12918
मंड	-12919
▁ओम	-12920
▁ढल	-12921
oser	-12922
urse	-12923
ेंडर	-12924
▁Nos	-12925
essed	-12926
▁plot	-12927
▁leads	-12928
▁widely	-12929
▁suddenly	-12930
▁अधिरोपित	-12931
▁Afghanistan	-12932
चाप	-12933
प्ल	-12934
▁रै	-12935
atta	-12936
▁संब	-12937
▁हिल	-12938
inese	-12939
▁Text	-12940
▁सीबी	-12941
▁Moham	-12942
▁guide	-12943
▁निबंध	-12944
▁brings	-12945
▁taught	-12946
▁millions	-12947
पार	-12948
▁Nor	-12949
▁बलि	-12950
▁सज्	-12951
▁अमृत	-12952
▁sharp	-12953
▁प्रभु	-12954
▁प्रचालन	-12955
▁लक्ष्मण	-12956
▁Moreover	-12957
▁investors	-12958
eng	-12959
▁परत	-12960
▁पाना	-12961
▁gross	-12962
▁अनुक्रम	-12963
▁purchased	-12964
▁compliance	-12965
▁litigation	-12966
ेटी	-12967
▁DE	-12968
▁१६	-12969
rand	-12970
▁unb	-12971
▁उपज	-12972
▁बरी	-12973
▁Anil	-12974
▁fift	-12975
▁roll	-12976
▁Durga	-12977
▁League	-12978
▁border	-12979
▁आस्तियों	-12980
▁व्युत्पन्न	-12981
ोश	-12982
एमई	-12983
गों	-12984
रीन	-12985
्रेम	-12986
ancies	-12987
▁chair	-12988
▁कमांड	-12989
▁दशकों	-12990
▁संयोजन	-12991
▁managed	-12992
▁irrigation	-12993
▁NI	-12994
osit	-12995
चेंज	-12996
▁tro	-12997
▁नाल	-12998
▁बला	-12999
▁सना	-13000
ोरेशन	-13001
▁ग्रा	-13002
▁वन्य	-13003
▁जयंती	-13004
▁ज़रूर	-13005
▁लिखते	-13006
▁प्रोटोक	-13007
▁विस्फोट	-13008
▁educated	-13009
▁Appellant	-13010
▁enterprise	-13011
ाधिक	-13012
ेनिस	-13013
▁बहि	-13014
▁शेर	-13015
raint	-13016
▁Haryana	-13017
▁राजमार्ग	-13018
▁contribute	-13019
▁essentially	-13020
▁Universities	-13021
aha	-13022
▁न्	-13023
चन्द्र	-13024
▁Accused	-13025
▁Regulation	-13026
ूण	-13027
inn	-13028
▁दांत	-13029
▁क्रूर	-13030
▁संगणक	-13031
राधिकारी	-13032
▁forests	-13033
▁आकांक्षा	-13034
▁इंस्पेक्टर	-13035
परा	-13036
▁आवि	-13037
▁बड़	-13038
▁kidn	-13039
▁शाखाओं	-13040
▁servant	-13041
▁confined	-13042
▁destruction	-13043
िटर	-13044
▁CH	-13045
▁Mor	-13046
▁मेज	-13047
eries	-13048
erior	-13049
▁spoke	-13050
▁waiting	-13051
▁तुम्हारी	-13052
▁माध्यमिक	-13053
▁परामर्शदाता	-13054
▁प्रतिस्पर्धा	-13055
सो	-13056
पहर	-13057
▁ca	-13058
▁Ara	-13059
▁hat	-13060
▁इंत	-13061
▁दाम	-13062
▁निल	-13063
nagar	-13064
uster	-13065
▁interim	-13066
▁trained	-13067
▁कार्यकाल	-13068
▁chargeable	-13069
▁obligation	-13070
▁Engineering	-13071
नीत	-13072
बरा	-13073
▁चक	-13074
ोचित	-13075
▁poly	-13076
▁अद्व	-13077
▁सीधी	-13078
icians	-13079
▁patri	-13080
▁Annual	-13081
▁Ramesh	-13082
▁begins	-13083
▁forget	-13084
▁fruits	-13085
▁मारपीट	-13086
▁totally	-13087
▁उद्यमों	-13088
▁देवताओं	-13089
▁compassion	-13090
▁remarkable	-13091
क़्	-13092
▁err	-13093
▁लोह	-13094
▁Shuk	-13095
▁grew	-13096
▁जिलों	-13097
▁भत्ता	-13098
▁aggreg	-13099
▁tenant	-13100
▁convert	-13101
▁अनुशासन	-13102
▁चाहूंगा	-13103
▁विन्यास	-13104
hik	-13105
oop	-13106
उंट	-13107
टाई	-13108
फ्र	-13109
ulpt	-13110
arkar	-13111
▁exch	-13112
▁क्रो	-13113
▁सहेज	-13114
▁छोड़ने	-13115
▁extract	-13116
▁Professor	-13117
▁इंजीनियरिंग	-13118
ML	-13119
ajan	-13120
▁कोमल	-13121
▁Earth	-13122
▁adjud	-13123
▁इन्द्र	-13124
oked	-13125
well	-13126
▁Ele	-13127
▁tab	-13128
▁आधा	-13129
▁मुर	-13130
▁विट	-13131
▁Mohd	-13132
▁Sand	-13133
▁shel	-13134
▁stip	-13135
▁बेटा	-13136
▁intim	-13137
▁अनन्त	-13138
▁Sheikh	-13139
▁contents	-13140
▁डीडब्ल्यू	-13141
▁अभिनिर्धारित	-13142
लीन	-13143
ूदी	-13144
ूलन	-13145
lets	-13146
rosy	-13147
▁grat	-13148
▁tort	-13149
▁कॉपी	-13150
▁मानस	-13151
▁आवासी	-13152
▁prompt	-13153
▁चित्रण	-13154
▁शस्त्र	-13155
▁harmony	-13156
▁जानवरों	-13157
▁yourself	-13158
▁लक्ष्यों	-13159
▁violation	-13160
▁investments	-13161
▁Investigating	-13162
विन	-13163
isdom	-13164
▁टीका	-13165
▁ocean	-13166
▁thick	-13167
▁निरूप	-13168
▁debate	-13169
▁weapon	-13170
▁क़्यों	-13171
▁गोविंद	-13172
▁besides	-13173
▁prepare	-13174
▁विकासशील	-13175
ographical	-13176
▁guarantee	-13177
▁इंजीनियरी	-13178
ria	-13179
▁हॉ	-13180
▁तरल	-13181
atics	-13182
▁adap	-13183
▁प्ला	-13184
▁श्रो	-13185
▁Interest	-13186
▁वर्गीकरण	-13187
▁अभिव्यक्त	-13188
anth	-13189
▁Hig	-13190
▁genu	-13191
▁धारक	-13192
▁स्ने	-13193
▁कमेटी	-13194
▁अवसंरचना	-13195
▁संकल्पना	-13196
▁buildings	-13197
▁उम्मीदवार	-13198
▁वास्तविकता	-13199
▁identification	-13200
वाँ	-13201
ॉल्ट	-13202
▁Rest	-13203
▁खुली	-13204
▁वासी	-13205
▁alter	-13206
▁falls	-13207
▁memor	-13208
▁Branch	-13209
▁bottom	-13210
▁stress	-13211
▁स्वप्न	-13212
▁पुस्तकें	-13213
▁कार्यालयों	-13214
▁Bri	-13215
▁घाट	-13216
▁Sett	-13217
▁कबीर	-13218
▁depth	-13219
▁stake	-13220
▁Choudh	-13221
▁Russia	-13222
▁संगणना	-13223
▁Cabinet	-13224
▁प्रतिपा	-13225
▁परंपरागत	-13226
▁exercised	-13227
▁consequences	-13228
▁उत्तराधिकारी	-13229
पाई	-13230
बान	-13231
care	-13232
edia	-13233
श्रे	-13234
स्तु	-13235
▁dow	-13236
▁aged	-13237
▁इसको	-13238
▁वरन्	-13239
▁Integ	-13240
▁posted	-13241
▁starts	-13242
▁Brahman	-13243
▁Chinese	-13244
▁attacks	-13245
▁contrad	-13246
▁equival	-13247
▁replace	-13248
थन	-13249
erk	-13250
ुरत	-13251
ोसी	-13252
▁कहे	-13253
▁पते	-13254
▁divide	-13255
▁पब्लिक	-13256
▁Lucknow	-13257
▁resulted	-13258
▁दार्शनिक	-13259
▁सफलतापूर्वक	-13260
zz	-13261
▁TV	-13262
▁रन	-13263
ivek	-13264
▁छिप	-13265
▁रसीद	-13266
▁socio	-13267
▁कवियों	-13268
▁Working	-13269
▁पुस्तकाल	-13270
▁productivity	-13271
▁प्रतिनिधियों	-13272
asks	-13273
uses	-13274
आईटी	-13275
▁raj	-13276
▁सकी	-13277
▁पचास	-13278
▁भेजी	-13279
▁संदि	-13280
▁सिरे	-13281
▁सेवक	-13282
ronics	-13283
▁इंकार	-13284
▁तलवार	-13285
▁ग्रस्त	-13286
▁faculty	-13287
▁reprodu	-13288
▁universe	-13289
▁discretion	-13290
पद	-13291
बीन	-13292
▁Es	-13293
rier	-13294
शंकर	-13295
ष्णा	-13296
▁ठहर	-13297
▁बोझ	-13298
पोर्ट	-13299
▁abol	-13300
▁unre	-13301
▁ऊंची	-13302
▁Found	-13303
▁Vedic	-13304
▁गर्भा	-13305
▁सुनकर	-13306
▁आंकड़े	-13307
▁रचनाओं	-13308
▁आश्वासन	-13309
▁परिश्रम	-13310
▁प्रभारी	-13311
▁पहुंचाने	-13312
▁वैयक्तिक	-13313
▁सांख्यिक	-13314
▁प्रशिक्षित	-13315
▁transmission	-13316
alla	-13317
▁coc	-13318
▁भरत	-13319
icity	-13320
▁लखनऊ	-13321
▁lakhs	-13322
▁संचित	-13323
▁Import	-13324
▁डाक्टर	-13325
▁परिपक्व	-13326
▁सितम्बर	-13327
▁reaction	-13328
▁soldiers	-13329
▁impression	-13330
दूत	-13331
ुरु	-13332
▁dro	-13333
▁आदर	-13334
ashed	-13335
rates	-13336
▁आलोक	-13337
▁Benef	-13338
▁sales	-13339
▁verse	-13340
habilit	-13341
▁Comment	-13342
▁पूर्णता	-13343
▁प्रक्रम	-13344
▁partners	-13345
▁शास्त्री	-13346
▁News	-13347
▁nerv	-13348
▁पारि	-13349
▁अक्षर	-13350
▁escape	-13351
▁comprom	-13352
enn	-13353
heb	-13354
▁CP	-13355
ब्बे	-13356
र्कों	-13357
▁फसलों	-13358
▁लिखना	-13359
▁इंदिरा	-13360
▁पुनर्ग	-13361
▁download	-13362
▁incurred	-13363
▁securities	-13364
obe	-13365
रेन	-13366
▁Ji	-13367
ैक्ट	-13368
▁नंद	-13369
▁वेश	-13370
amber	-13371
▁Kaur	-13372
▁vote	-13373
▁एकड़	-13374
▁पीने	-13375
▁कृत्य	-13376
▁copies	-13377
▁diplom	-13378
▁दंडनीय	-13379
▁निरीक्षक	-13380
atar	-13381
▁अड्ड	-13382
▁sanct	-13383
▁विधवा	-13384
▁Mughal	-13385
▁Rakesh	-13386
▁Sector	-13387
▁convin	-13388
▁पदोन्नति	-13389
▁proceeded	-13390
▁supplement	-13391
▁explanation	-13392
▁Fr	-13393
alid	-13394
bing	-13395
▁ing	-13396
▁अमल	-13397
संचार	-13398
स्तीन	-13399
▁Gora	-13400
▁Raju	-13401
iously	-13402
▁panel	-13403
▁निचले	-13404
▁मजबूर	-13405
▁उपग्रह	-13406
▁emergency	-13407
▁solutions	-13408
gi	-13409
कना	-13410
मिन	-13411
▁बडा	-13412
▁Sidd	-13413
lation	-13414
mortem	-13415
▁Paper	-13416
▁safegu	-13417
▁sculpt	-13418
▁villagers	-13419
▁निर्वाचित	-13420
▁limitation	-13421
UM	-13422
▁hyp	-13423
▁Year	-13424
▁gift	-13425
▁विषा	-13426
स्तीनी	-13427
▁संवेद	-13428
▁listed	-13429
▁stating	-13430
▁northern	-13431
▁जुट	-13432
▁diet	-13433
arathi	-13434
▁Ahmad	-13435
▁तुमने	-13436
liminary	-13437
तापूर्वक	-13438
▁categor	-13439
▁अधिवेशन	-13440
▁भागीदार	-13441
▁संग्राम	-13442
▁बल्लेबाज	-13443
▁कम्प्यूटर	-13444
wara	-13445
▁Chow	-13446
▁persu	-13447
▁तालाब	-13448
▁सोसाय	-13449
▁Family	-13450
▁Tiwari	-13451
▁holder	-13452
▁replied	-13453
▁seizure	-13454
▁attended	-13455
▁प्रभार्य	-13456
▁directory	-13457
key	-13458
▁गोर	-13459
▁चूक	-13460
▁बाय	-13461
▁मील	-13462
▁लोप	-13463
andum	-13464
ician	-13465
▁bath	-13466
▁fasc	-13467
▁सूजन	-13468
▁हर्ष	-13469
▁यहूदी	-13470
▁सार्थ	-13471
▁दिखाएँ	-13472
▁स्पर्श	-13473
▁belongs	-13474
▁warrant	-13475
▁वनस्पति	-13476
▁Province	-13477
▁instruction	-13478
▁la	-13479
▁नाक	-13480
▁बेस	-13481
isite	-13482
▁दोपहर	-13483
mitting	-13484
▁street	-13485
▁प्रोटीन	-13486
▁मुहम्मद	-13487
▁drinking	-13488
▁revealed	-13489
▁स्वचालित	-13490
▁indicates	-13491
▁distributed	-13492
ugg	-13493
▁Deb	-13494
▁Saf	-13495
▁alc	-13496
▁गाँ	-13497
िस्टर	-13498
▁चौथा	-13499
▁महतो	-13500
▁attain	-13501
▁linked	-13502
▁ट्रांस	-13503
▁customs	-13504
▁भ्रष्टा	-13505
▁सौंदर्य	-13506
▁concerns	-13507
▁familiar	-13508
▁recommendation	-13509
ड्	-13510
ेस	-13511
गंज	-13512
▁UK	-13513
leum	-13514
▁स्न	-13515
▁edge	-13516
▁बाबा	-13517
▁भीड़	-13518
▁नामित	-13519
▁विलंब	-13520
▁विधायी	-13521
▁passage	-13522
▁numerous	-13523
▁एजेंसियों	-13524
▁सहानुभूति	-13525
वाहा	-13526
▁चिर	-13527
▁बसव	-13528
▁बिन	-13529
▁यौन	-13530
▁Bach	-13531
▁विधा	-13532
▁सफाई	-13533
▁alive	-13534
▁जाहिर	-13535
▁verses	-13536
▁अंतरित	-13537
▁प्रताप	-13538
▁Britain	-13539
▁digital	-13540
▁pronoun	-13541
▁converted	-13542
▁furnished	-13543
पण	-13544
ोरम	-13545
▁AM	-13546
▁Id	-13547
शाही	-13548
ूँगा	-13549
ूकता	-13550
▁Kor	-13551
▁anc	-13552
▁bat	-13553
▁बिर	-13554
▁Late	-13555
▁gods	-13556
▁बदला	-13557
▁चिंतन	-13558
▁सृजित	-13559
▁flower	-13560
▁poetic	-13561
▁appellate	-13562
▁followers	-13563
▁Convention	-13564
▁introduction	-13565
▁राज्यक्षेत्र	-13566
ण्डल	-13567
▁Lad	-13568
algam	-13569
योग्य	-13570
▁Acts	-13571
▁vary	-13572
▁click	-13573
▁pound	-13574
▁throw	-13575
▁expiry	-13576
▁rulers	-13577
▁अर्जुन	-13578
▁कविताओं	-13579
▁निदेशालय	-13580
▁gradually	-13581
▁excellence	-13582
गुण	-13583
▁बटन	-13584
erent	-13585
ग्राफ	-13586
▁ड्यू	-13587
▁adopt	-13588
दर्शिता	-13589
▁eastern	-13590
▁सार्वभौ	-13591
sequently	-13592
▁components	-13593
▁preparation	-13594
ैस	-13595
चिक	-13596
▁du	-13597
iger	-13598
race	-13599
▁pig	-13600
▁असी	-13601
▁फॉर	-13602
▁सैक	-13603
▁विलय	-13604
▁Sinha	-13605
▁लम्बे	-13606
▁reiter	-13607
▁आकर्षण	-13608
▁माइक्रो	-13609
▁विनिधान	-13610
▁सैनिकों	-13611
▁qualities	-13612
RE	-13613
yl	-13614
ded	-13615
शनी	-13616
▁MP	-13617
nath	-13618
▁thr	-13619
▁ह्र	-13620
ifies	-13621
▁bats	-13622
▁youn	-13623
▁faced	-13624
▁prote	-13625
▁प्रतिल	-13626
▁भेदभाव	-13627
▁comfort	-13628
▁exactly	-13629
▁ceremony	-13630
▁criticism	-13631
▁चिकित्सीय	-13632
▁sanctioned	-13633
▁सेवानिवृत्त	-13634
CO	-13635
SA	-13636
oda	-13637
▁El	-13638
onym	-13639
धर्म	-13640
पोषण	-13641
र्ता	-13642
allel	-13643
indra	-13644
▁Four	-13645
▁irre	-13646
▁ऊंचे	-13647
▁इकट्ठा	-13648
▁पेटेंट	-13649
▁courses	-13650
▁largely	-13651
▁ensuring	-13652
▁अंग्रेज़ी	-13653
ंर	-13654
दू	-13655
शित	-13656
atre	-13657
cles	-13658
lied	-13659
▁Cha	-13660
▁Due	-13661
▁अवर	-13662
▁सती	-13663
▁nurs	-13664
▁shot	-13665
▁goals	-13666
▁उपहार	-13667
▁बनाती	-13668
▁Enable	-13669
▁breast	-13670
▁learnt	-13671
▁calling	-13672
▁amendments	-13673
▁SI	-13674
▁kg	-13675
▁मध	-13676
भूषण	-13677
▁tub	-13678
▁विघ	-13679
▁Siva	-13680
▁tong	-13681
▁खंडन	-13682
▁सबके	-13683
▁fault	-13684
▁elabor	-13685
▁rightly	-13686
▁studied	-13687
▁उन्होनें	-13688
DP	-13689
uj	-13690
writ	-13691
▁row	-13692
▁मैच	-13693
▁वीं	-13694
▁Asian	-13695
▁वाक्य	-13696
परीक्षा	-13697
▁client	-13698
▁manage	-13699
▁waters	-13700
▁अन्तिम	-13701
▁जानबूझ	-13702
▁fifteen	-13703
▁quarter	-13704
▁श्रद्धा	-13705
▁संग्रहण	-13706
▁सम्पन्न	-13707
▁obtaining	-13708
▁स्वाधीनता	-13709
▁Agricultural	-13710
▁NO	-13711
दृश्य	-13712
▁Term	-13713
▁Shiva	-13714
▁noise	-13715
▁इनपुट	-13716
▁लॉर्ड	-13717
▁update	-13718
▁feelings	-13719
▁infinite	-13720
▁प्रतिरोध	-13721
▁Secondary	-13722
▁नु	-13723
▁mob	-13724
▁गुट	-13725
▁सामु	-13726
▁audio	-13727
▁seeks	-13728
▁urged	-13729
्यात्मक	-13730
▁images	-13731
▁विनिया	-13732
▁violent	-13733
UT	-13734
नगर	-13735
ेड़	-13736
oles	-13737
देशक	-13738
endar	-13739
▁desc	-13740
▁धमकी	-13741
▁भ्रम	-13742
स्थापन	-13743
▁तैनात	-13744
▁proposals	-13745
▁controvers	-13746
▁फिलीस्तीनी	-13747
▁क्रांतिकारी	-13748
▁automatically	-13749
ensus	-13750
peror	-13751
िकेशन	-13752
▁Band	-13753
क्षरता	-13754
▁pieces	-13755
▁conspir	-13756
▁entrusted	-13757
▁achievement	-13758
VE	-13759
एक	-13760
▁Dam	-13761
▁ring	-13762
▁Again	-13763
▁links	-13764
▁teeth	-13765
▁मारने	-13766
▁कार्बन	-13767
▁harvest	-13768
▁operate	-13769
▁currently	-13770
▁encouraged	-13771
▁तप	-13772
▁anx	-13773
using	-13774
▁bull	-13775
▁उठता	-13776
▁बढ़ता	-13777
▁समापन	-13778
▁younger	-13779
▁अभिभाषण	-13780
▁मिश्रित	-13781
▁component	-13782
▁ultimately	-13783
डू	-13784
ster	-13785
▁Teh	-13786
▁sup	-13787
▁सकने	-13788
▁Vivek	-13789
▁carbon	-13790
▁decade	-13791
▁प्राणी	-13792
▁विदेशों	-13793
▁prominent	-13794
PA	-13795
किम	-13796
▁load	-13797
▁अव्य	-13798
▁बढ़े	-13799
▁हाइड	-13800
orated	-13801
urning	-13802
▁react	-13803
▁जानना	-13804
▁फॉर्म	-13805
ivative	-13806
ourable	-13807
▁France	-13808
▁George	-13809
▁corner	-13810
▁facing	-13811
▁अनुशास	-13812
▁Bharati	-13813
▁mandapa	-13814
▁सशस्त्र	-13815
▁disabled	-13816
▁Agreement	-13817
▁secondary	-13818
▁conversion	-13819
▁traditions	-13820
१क	-13821
pura	-13822
ामिन	-13823
▁rom	-13824
▁गड़	-13825
▁दंत	-13826
igarh	-13827
▁अजीब	-13828
वास्तव	-13829
▁mixed	-13830
▁wages	-13831
▁बताना	-13832
▁abnorm	-13833
▁prince	-13834
▁reader	-13835
▁Teacher	-13836
▁मुकाबले	-13837
▁रिज़र्व	-13838
▁dependent	-13839
िट्	-13840
▁ज़ि	-13841
orter	-13842
▁Arch	-13843
▁साहू	-13844
क्टरों	-13845
▁Autom	-13846
▁empow	-13847
▁shock	-13848
atabase	-13849
▁इन्हीं	-13850
▁दुर्लभ	-13851
▁licence	-13852
▁suicide	-13853
▁Marriage	-13854
▁reserved	-13855
▁पूर्णतया	-13856
fer	-13857
द्म	-13858
utor	-13859
बार्ड	-13860
▁मंडप	-13861
▁scrut	-13862
▁सुरेश	-13863
▁cattle	-13864
▁विधिवत	-13865
▁devices	-13866
▁retired	-13867
▁हिस्सों	-13868
▁primarily	-13869
▁CS	-13870
orse	-13871
कर्म	-13872
▁NAB	-13873
▁नज़र	-13874
▁Turkey	-13875
▁बढ़ाया	-13876
▁सिन्हा	-13877
▁factory	-13878
▁सोसायटी	-13879
ुका	-13880
हवीं	-13881
▁Dig	-13882
▁सीट	-13883
▁आपदा	-13884
▁क्रय	-13885
▁डाले	-13886
▁बाढ़	-13887
▁स्वि	-13888
roleum	-13889
▁saved	-13890
▁उठाना	-13891
▁खासकर	-13892
▁सोचते	-13893
त्रियों	-13894
▁Export	-13895
▁Accounts	-13896
▁जागरूकता	-13897
▁deposited	-13898
kk	-13899
▁fab	-13900
▁चिन	-13901
शुल्क	-13902
▁Disc	-13903
▁myth	-13904
▁node	-13905
▁Proper	-13906
▁डिजिटल	-13907
▁entertain	-13908
▁maintaining	-13909
बरी	-13910
▁भगत	-13911
▁हंस	-13912
raction	-13913
▁यात्री	-13914
▁pilgrim	-13915
▁secular	-13916
▁एकत्रित	-13917
▁regularly	-13918
got	-13919
son	-13920
▁Ste	-13921
▁fib	-13922
ोरिया	-13923
▁gall	-13924
▁ध्रु	-13925
▁bills	-13926
▁कलाकार	-13927
▁putting	-13928
▁backward	-13929
▁हिन्दुस्तान	-13930
TI	-13931
गें	-13932
iques	-13933
oking	-13934
न्नाथ	-13935
▁पेपर	-13936
▁dignity	-13937
▁drawing	-13938
▁महासागर	-13939
▁symptoms	-13940
▁पुनर्वास	-13941
▁श्रीवास्तव	-13942
घन	-13943
हे	-13944
▁चरम	-13945
▁पहच	-13946
▁encl	-13947
ियुक्त	-13948
▁advis	-13949
▁chest	-13950
▁utter	-13951
▁थोड़े	-13952
▁मिलना	-13953
▁Vaishn	-13954
▁empower	-13955
▁नवान्वेष	-13956
▁parliamentary	-13957
hips	-13958
oram	-13959
▁सूरज	-13960
▁सुशील	-13961
▁illness	-13962
▁सदस्यता	-13963
▁स्रोतों	-13964
▁Sometimes	-13965
▁उत्पादकता	-13966
▁भ्रष्टाचार	-13967
▁साक्षात्कार	-13968
sil	-13969
▁Dom	-13970
▁mig	-13971
▁अफ़	-13972
▁ढेर	-13973
▁बढा	-13974
erved	-13975
नीतिक	-13976
▁Date	-13977
▁solve	-13978
▁अपितु	-13979
▁आंखों	-13980
hibited	-13981
▁paying	-13982
▁वृत्ति	-13983
▁Defence	-13984
▁जरूरतों	-13985
▁involves	-13986
णता	-13987
▁Dav	-13988
▁cul	-13989
▁map	-13990
▁फ़ॉ	-13991
arwal	-13992
ंख्यक	-13993
▁Ajay	-13994
▁Chau	-13995
▁Soft	-13996
▁कॉन्	-13997
ंबेडकर	-13998
▁अल्पस	-13999
▁cotton	-14000
▁forced	-14001
▁सतर्कता	-14002
▁elephant	-14003
▁supposed	-14004
▁सूचीबद्ध	-14005
▁excellent	-14006
▁operative	-14007
▁अनुपस्थिति	-14008
▁combination	-14009
▁न्यायाधिकरण	-14010
एगा	-14011
ताई	-14012
▁नमक	-14013
▁पान	-14014
▁abst	-14015
▁dust	-14016
▁सख्त	-14017
▁aspir	-14018
▁निपटा	-14019
▁समझना	-14020
▁नाबार्ड	-14021
▁परिणामों	-14022
▁Shankaracharya	-14023
वत्	-14024
ुर्द	-14025
्यूशन	-14026
▁dict	-14027
▁वैसा	-14028
▁analy	-14029
▁arriv	-14030
▁mortg	-14031
▁अंगों	-14032
▁arises	-14033
▁मास्टर	-14034
▁applies	-14035
▁dischar	-14036
▁अप्रत्य	-14037
▁पार्श्व	-14038
▁fighting	-14039
▁consumers	-14040
▁पुनरीक्षण	-14041
▁complaints	-14042
▁उत्कृष्टता	-14043
mic	-14044
मेह	-14045
ृंग	-14046
▁avo	-14047
▁हसन	-14048
▁Fort	-14049
▁Rani	-14050
▁exem	-14051
▁Liter	-14052
▁आमदनी	-14053
▁commonly	-14054
mp	-14055
nity	-14056
मार्क	-14057
▁संगत	-14058
illing	-14059
▁revol	-14060
▁route	-14061
▁intest	-14062
▁wisdom	-14063
▁इस्पात	-14064
▁चेन्नई	-14065
▁सम्राट	-14066
▁Subhash	-14067
▁सचिवालय	-14068
▁Islamist	-14069
▁inserted	-14070
▁इश	-14071
▁bon	-14072
▁unn	-14073
▁मुक	-14074
ariat	-14075
itals	-14076
▁Hand	-14077
▁holy	-14078
▁गौतम	-14079
▁टाइप	-14080
▁रोका	-14081
▁Money	-14082
▁असंभव	-14083
▁इरादा	-14084
▁पढ़ाई	-14085
▁atomic	-14086
▁domain	-14087
▁संदत्त	-14088
▁tourism	-14089
▁arranged	-14090
▁patients	-14091
▁mandatory	-14092
▁विधानमंडल	-14093
▁discovered	-14094
काव	-14095
सास	-14096
▁ओपन	-14097
entle	-14098
▁ट्रा	-14099
▁भरपूर	-14100
duction	-14101
▁कनेक्ट	-14102
▁नियोजन	-14103
▁amalgam	-14104
▁अनुज्ञा	-14105
▁रूपरेखा	-14106
▁वक्तव्य	-14107
▁Maharaja	-14108
▁निर्माता	-14109
▁प्रयोक्ता	-14110
urch	-14111
▁symp	-14112
▁cruel	-14113
▁yellow	-14114
mentation	-14115
▁reaching	-14116
टने	-14117
बिल	-14118
eena	-14119
▁Equ	-14120
▁Kav	-14121
▁jew	-14122
▁अरबी	-14123
▁आन्द	-14124
▁gland	-14125
▁चोटों	-14126
▁जंगली	-14127
▁शिल्प	-14128
▁entity	-14129
▁Exhibit	-14130
▁स्थानांतरण	-14131
▁recruitment	-14132
▁architecture	-14133
ums	-14134
ंती	-14135
▁Sou	-14136
▁Taj	-14137
▁आँख	-14138
▁Jyot	-14139
▁Kann	-14140
▁Look	-14141
▁घातक	-14142
▁बर्फ	-14143
▁मोड़	-14144
▁Supra	-14145
▁cited	-14146
▁ruled	-14147
▁अपनाई	-14148
▁कारगर	-14149
▁पड़ने	-14150
▁मराठी	-14151
▁रूपये	-14152
▁लाखों	-14153
▁शुरूआ	-14154
▁minute	-14155
▁दूरस्थ	-14156
▁बढ़ाना	-14157
▁स्नातक	-14158
▁जगन्नाथ	-14159
▁सर्वप्र	-14160
▁याचिकाओं	-14161
▁हस्तांतरण	-14162
▁cultivation	-14163
▁mad	-14164
▁कों	-14165
▁घुस	-14166
▁मक्	-14167
▁trem	-14168
▁आईसी	-14169
▁डिफ़	-14170
क्रामक	-14171
▁hills	-14172
▁spend	-14173
▁Energy	-14174
▁allows	-14175
▁sorrow	-14176
▁vested	-14177
▁passion	-14178
▁venture	-14179
▁Transport	-14180
▁पेट्रोलियम	-14181
▁फो	-14182
ताएं	-14183
ल्हा	-14184
▁मित	-14185
▁सोन	-14186
ureau	-14187
▁isol	-14188
▁चश्म	-14189
estion	-14190
▁brows	-14191
▁fever	-14192
▁glass	-14193
▁जोड़े	-14194
istries	-14195
▁remedy	-14196
▁remind	-14197
▁eternal	-14198
▁संदिग्ध	-14199
▁ज्यादातर	-14200
ktop	-14201
खण्ड	-14202
देवी	-14203
▁Flag	-14204
▁Full	-14205
▁inher	-14206
▁surpr	-14207
▁Sarasw	-14208
▁compuls	-14209
▁internet	-14210
▁निष्पक्ष	-14211
▁relatives	-14212
एसआई	-14213
र्ते	-14214
निहित	-14215
▁एण्ड	-14216
व्यवहार	-14217
▁स्थिरता	-14218
▁Contract	-14219
▁समस्याएं	-14220
▁percentage	-14221
lar	-14222
म्र	-14223
▁छू	-14224
▁मठ	-14225
टकों	-14226
ाराम	-14227
िंदर	-14228
▁Mac	-14229
▁Max	-14230
▁Muh	-14231
▁flo	-14232
▁smt	-14233
▁बैक	-14234
▁gate	-14235
▁वरीय	-14236
▁उन्हे	-14237
▁cancer	-14238
▁आनुवंश	-14239
▁इलाकों	-14240
▁बयानों	-14241
▁concess	-14242
▁recover	-14243
▁selling	-14244
▁privilege	-14245
▁किलोग्राम	-14246
▁सिफारिशों	-14247
kha	-14248
▁HT	-14249
ayas	-14250
त्रि	-14251
▁मत्	-14252
▁वहन	-14253
चरिता	-14254
▁परित	-14255
▁भव्य	-14256
▁मारे	-14257
▁शोषण	-14258
▁Dharm	-14259
▁antic	-14260
▁स्टॉक	-14261
▁Higher	-14262
▁निराशा	-14263
▁assisted	-14264
▁दूरसंचार	-14265
▁विनियामक	-14266
इज	-14267
▁खज	-14268
▁लड	-14269
▁Alm	-14270
▁cad	-14271
▁इसल	-14272
alpur	-14273
▁Note	-14274
▁चोटें	-14275
▁बॉक्स	-14276
▁Excise	-14277
▁अभिकरण	-14278
▁emerged	-14279
▁strange	-14280
▁अस्पष्ट	-14281
▁कृत्यों	-14282
▁Hinduism	-14283
▁Ramayana	-14284
▁एक्सचेंज	-14285
▁innovative	-14286
lete	-14287
ग्रा	-14288
▁देह	-14289
ारायण	-14290
ुक़्त	-14291
▁ties	-14292
▁आजकल	-14293
▁aimed	-14294
▁NABARD	-14295
▁sample	-14296
▁shaped	-14297
▁sports	-14298
▁realised	-14299
▁schedule	-14300
▁strategic	-14301
itud	-14302
▁Sab	-14303
▁pup	-14304
▁Sang	-14305
▁airc	-14306
▁wear	-14307
▁निस्	-14308
▁आवश्य	-14309
▁आश्रम	-14310
▁एजेंट	-14311
▁स्थूल	-14312
▁विडियो	-14313
▁स्वदेश	-14314
aneously	-14315
▁serving	-14316
▁व्यष्टि	-14317
▁Australia	-14318
▁contributed	-14319
ICE	-14320
▁LIN	-14321
▁eve	-14322
▁अरो	-14323
▁इराक	-14324
aching	-14325
▁Raman	-14326
▁aband	-14327
▁truly	-14328
▁उपभोग	-14329
athered	-14330
▁वैष्णव	-14331
entation	-14332
▁greatly	-14333
▁printed	-14334
▁सुचरिता	-14335
▁विक्रेता	-14336
▁विधानसभा	-14337
▁affection	-14338
▁consequence	-14339
ंडिक	-14340
▁hun	-14341
हत्या	-14342
▁meat	-14343
▁salt	-14344
▁छिपा	-14345
▁यहीं	-14346
▁twice	-14347
▁अवरोध	-14348
▁एआईआर	-14349
्रदायिक	-14350
▁quoted	-14351
▁planned	-14352
▁sharing	-14353
▁जुर्माना	-14354
▁राष्ट्री	-14355
▁subscribe	-14356
▁achievements	-14357
yr	-14358
किट	-14359
▁इम	-14360
ahan	-14361
▁नक्	-14362
▁पेय	-14363
▁murd	-14364
▁एसआई	-14365
▁नरेश	-14366
▁White	-14367
▁मिस्र	-14368
▁हानिक	-14369
▁Shukla	-14370
▁signal	-14371
▁Kishore	-14372
▁persist	-14373
▁गणतंत्र	-14374
▁संस्थागत	-14375
▁Knowledge	-14376
▁influenced	-14377
▁enforcement	-14378
्ग	-14379
ATE	-14380
्रल	-14381
▁बीत	-14382
▁memo	-14383
▁औषधि	-14384
▁heads	-14385
hemical	-14386
▁closely	-14387
▁killing	-14388
▁व्याख्यान	-14389
▁structures	-14390
▁अफगानिस्तान	-14391
मीन	-14392
▁Dy	-14393
▁बत	-14394
aren	-14395
मुखी	-14396
वकों	-14397
▁कदा	-14398
▁जोशी	-14399
▁signs	-14400
▁कनाडा	-14401
▁मेहता	-14402
▁bridge	-14403
▁sovere	-14404
▁stayed	-14405
▁अन्याय	-14406
esterday	-14407
▁Kingdom	-14408
▁desired	-14409
▁discover	-14410
▁civilization	-14411
ogen	-14412
▁गिन	-14413
▁पाप	-14414
▁Ravi	-14415
▁स्वे	-14416
▁accum	-14417
▁tract	-14418
▁असमान	-14419
▁आजीवन	-14420
▁कोयला	-14421
▁मनाया	-14422
▁हड्डी	-14423
▁Online	-14424
▁palace	-14425
▁अकादमी	-14426
▁अतिमान	-14427
▁जोड़ें	-14428
▁radical	-14429
▁समकालीन	-14430
▁concluded	-14431
▁dangerous	-14432
▁mountains	-14433
परक	-14434
ctor	-14435
▁mun	-14436
anchi	-14437
enger	-14438
▁Mach	-14439
▁burn	-14440
▁प्रक	-14441
▁visual	-14442
▁eminent	-14443
▁experts	-14444
▁victory	-14445
▁अभियोजक	-14446
▁उन्मूलन	-14447
▁diversity	-14448
▁बांग्लादेश	-14449
▁transformation	-14450
ding	-14451
oyal	-14452
वर्त	-14453
▁प्य	-14454
▁लाई	-14455
▁stim	-14456
▁मेहन	-14457
▁index	-14458
▁सदनों	-14459
ificial	-14460
▁rising	-14461
▁withdraw	-14462
▁advertise	-14463
▁ownership	-14464
▁developments	-14465
▁corresponding	-14466
▁यान	-14467
etime	-14468
▁Phys	-14469
च्छेदन	-14470
▁irres	-14471
▁महानि	-14472
▁संकलन	-14473
▁Tribes	-14474
▁ब्यूरो	-14475
▁सौभाग्य	-14476
▁photograph	-14477
UN	-14478
राक	-14479
▁CR	-14480
▁ma	-14481
िकरण	-14482
▁via	-14483
▁vii	-14484
▁मेट	-14485
▁Make	-14486
▁ended	-14487
▁landl	-14488
▁कच्चे	-14489
▁मामूली	-14490
▁multipl	-14491
▁initially	-14492
▁suggestions	-14493
TS	-14494
जपे	-14495
तकों	-14496
बाबू	-14497
andra	-14498
ख़्या	-14499
▁Amar	-14500
▁tube	-14501
▁सर्ज	-14502
▁Green	-14503
▁Three	-14504
▁पुष्प	-14505
▁लेखों	-14506
▁Temple	-14507
▁परिसंप	-14508
▁निवेशकों	-14509
▁technique	-14510
▁appreciation	-14511
टिक	-14512
addy	-14513
न्नी	-14514
▁Fac	-14515
▁कोने	-14516
▁सेवन	-14517
▁आज्ञा	-14518
▁बंदूक	-14519
▁Number	-14520
▁enthus	-14521
▁एशियाई	-14522
▁confirm	-14523
▁falling	-14524
▁नरेंद्र	-14525
▁तात्कालिक	-14526
ड़न	-14527
िल्ल	-14528
▁गंध	-14529
▁गेह	-14530
▁jobs	-14531
▁pond	-14532
▁सबको	-14533
▁सीडी	-14534
▁rough	-14535
▁उत्सव	-14536
▁कामका	-14537
▁Ganesh	-14538
▁Constitu	-14539
▁उम्मीदवारों	-14540
vt	-14541
hew	-14542
▁od	-14543
andi	-14544
शब्द	-14545
▁Goa	-14546
▁कोर	-14547
▁rect	-14548
▁सेशन	-14549
ियारों	-14550
▁कराता	-14551
▁टेनिस	-14552
▁टैगोर	-14553
▁व्यास	-14554
▁श्याम	-14555
▁सच्चे	-14556
▁tourist	-14557
▁emotional	-14558
▁naturally	-14559
▁institutional	-14560
मिया	-14561
▁आकृति	-14562
▁हवाला	-14563
क्तियों	-14564
▁spoken	-14565
▁monthly	-14566
▁inherent	-14567
▁attracted	-14568
▁reduction	-14569
▁disclosure	-14570
▁newspapers	-14571
▁vegetables	-14572
▁imagination	-14573
▁निम्नानुसार	-14574
▁technological	-14575
ध्	-14576
मस	-14577
शक	-14578
▁nav	-14579
▁निभ	-14580
▁Gree	-14581
▁लाभा	-14582
▁pride	-14583
▁रोशनी	-14584
▁अनुकरण	-14585
▁टिप्पण	-14586
▁diverse	-14587
▁prospect	-14588
▁उपलब्धियों	-14589
▁strengthening	-14590
ोगी	-14591
▁कन	-14592
▁१७	-14593
▁Chat	-14594
▁Gita	-14595
▁club	-14596
othing	-14597
▁forty	-14598
▁कीजिए	-14599
▁जानवर	-14600
▁आकर्षक	-14601
▁सर्विस	-14602
▁अनिश्चित	-14603
SL	-14604
ॉज	-14605
▁Ha	-14606
▁फू	-14607
▁गेट	-14608
▁घुट	-14609
▁जॉन	-14610
▁बिग	-14611
चित्य	-14612
▁चर्च	-14613
▁प्लग	-14614
orders	-14615
▁माहौल	-14616
▁settle	-14617
▁इच्छुक	-14618
▁दरवाजे	-14619
▁पड़ोसी	-14620
▁उपनिवेश	-14621
▁alongwith	-14622
याम	-14623
▁cum	-14624
▁dil	-14625
▁vul	-14626
▁भीम	-14627
▁Keep	-14628
▁कन्न	-14629
▁recip	-14630
▁sites	-14631
▁Suresh	-14632
▁stored	-14633
▁सच्चाई	-14634
▁whereby	-14635
▁contempl	-14636
▁डिफ़ॉल्ट	-14637
▁supporting	-14638
▁entrepreneur	-14639
णुओं	-14640
ुतोष	-14641
▁cas	-14642
▁बेश	-14643
unath	-14644
▁Conn	-14645
▁ऑफिस	-14646
▁लगाई	-14647
▁empty	-14648
▁fulfil	-14649
▁प्रतिमा	-14650
▁necessarily	-14651
▁preliminary	-14652
▁सांप्रदायिक	-14653
iam	-14654
ino	-14655
umes	-14656
स्पी	-14657
▁fle	-14658
▁vim	-14659
▁असंत	-14660
▁नजदी	-14661
▁सिने	-14662
▁दरबार	-14663
▁दुश्म	-14664
▁लाहौर	-14665
▁वृत्त	-14666
▁genuine	-14667
▁mistake	-14668
▁emerging	-14669
▁शिकायतों	-14670
▁societies	-14671
▁विस्तारित	-14672
▁equivalent	-14673
ख्	-14674
ैत	-14675
तना	-14676
मित्त	-14677
ियमित	-14678
▁acce	-14679
▁सरोज	-14680
▁dress	-14681
▁neare	-14682
▁pipes	-14683
▁तुलसी	-14684
विश्वास	-14685
▁ग्रन्थ	-14686
▁Hindust	-14687
nal	-14688
ण्ट	-14689
itya	-14690
olic	-14691
▁Fil	-14692
▁भूख	-14693
▁गोवा	-14694
▁ग्रीन	-14695
▁awards	-14696
▁earned	-14697
▁incent	-14698
▁ruling	-14699
▁समेकित	-14700
▁offering	-14701
▁whenever	-14702
▁अप्रत्यक्ष	-14703
▁Notwithstanding	-14704
▁चट	-14705
▁मरी	-14706
▁वसा	-14707
ropol	-14708
▁sets	-14709
▁निभाई	-14710
▁ब्रह्मा	-14711
▁मुख्यालय	-14712
▁Technical	-14713
▁सर्वप्रथम	-14714
▁subordinate	-14715
▁Aur	-14716
▁Sil	-14717
▁वाई	-14718
ampur	-14719
▁Cell	-14720
▁Cult	-14721
▁tail	-14722
▁ऊंचा	-14723
▁ढूंढ	-14724
▁बचपन	-14725
▁बेगम	-14726
▁stuff	-14727
▁harass	-14728
▁consolid	-14729
▁प्रतिवर्ष	-14730
▁Governance	-14731
agon	-14732
athi	-14733
▁दिश	-14734
▁सटी	-14735
▁Farm	-14736
▁Main	-14737
▁मेगा	-14738
▁अभिने	-14739
▁कीटना	-14740
▁खोजने	-14741
▁नामों	-14742
▁मार्क	-14743
▁सुदूर	-14744
▁shrine	-14745
▁उन्नयन	-14746
▁विरोधा	-14747
▁quarrel	-14748
▁दृष्टया	-14749
▁enhanced	-14750
▁अतिक्रमण	-14751
▁scheduled	-14752
▁experiment	-14753
▁Vig	-14754
▁यों	-14755
plete	-14756
▁clim	-14757
▁किंग	-14758
▁मोती	-14759
▁उपाधि	-14760
▁depart	-14761
ordinary	-14762
▁specify	-14763
▁विधियां	-14764
▁विभागीय	-14765
▁तत्पश्चात	-14766
▁separately	-14767
habilitation	-14768
▁दब	-14769
▁पठ	-14770
▁असं	-14771
▁कम्	-14772
▁शब्	-14773
unior	-14774
▁inev	-14775
▁pull	-14776
▁समता	-14777
▁Mehta	-14778
▁older	-14779
▁फूलों	-14780
▁स्क्र	-14781
▁Survey	-14782
▁समीकरण	-14783
iculture	-14784
▁options	-14785
▁perusal	-14786
▁returns	-14787
▁मजदूरों	-14788
▁सुधारने	-14789
▁governed	-14790
▁happening	-14791
▁पुस्तकालय	-14792
▁इस्लामवादी	-14793
▁involvement	-14794
▁AC	-14795
▁rhy	-14796
ulous	-14797
▁Card	-14798
▁Build	-14799
▁Shyam	-14800
▁सेंटर	-14801
▁finger	-14802
▁अज्ञान	-14803
▁सड़कों	-14804
▁स्थगित	-14805
iversary	-14806
▁burning	-14807
▁पुनर्गठन	-14808
▁succeeded	-14809
▁incorporated	-14810
raid	-14811
▁fet	-14812
umari	-14813
▁डालर	-14814
ancell	-14815
▁newly	-14816
▁दावों	-14817
▁स्टार	-14818
▁breach	-14819
▁childhood	-14820
▁exclusive	-14821
▁corruption	-14822
▁destination	-14823
▁experiences	-14824
▁प्रतिबद्धता	-14825
▁installation	-14826
शिप	-14827
▁mo	-14828
प्रति	-14829
▁Have	-14830
▁टीवी	-14831
▁Bhatt	-14832
▁Local	-14833
▁fluid	-14834
▁लम्बी	-14835
▁वैधता	-14836
▁Review	-14837
▁covers	-14838
▁अहिंसा	-14839
▁आवासीय	-14840
▁उत्सुक	-14841
▁स्वर्ग	-14842
▁Punjabi	-14843
▁binding	-14844
▁cutting	-14845
▁realise	-14846
▁demanded	-14847
▁observation	-14848
▁Institutions	-14849
▁transportation	-14850
▁गठ	-14851
जारी	-14852
पर्य	-14853
ादेश	-14854
गारों	-14855
▁rein	-14856
▁क्ला	-14857
▁catch	-14858
▁Pratap	-14859
▁regime	-14860
▁Marathi	-14861
▁anticip	-14862
▁क़्योंकि	-14863
▁सत्यापित	-14864
▁reflected	-14865
▁situations	-14866
lor	-14867
गीर	-14868
▁बश	-14869
िप्ट	-14870
▁swe	-14871
▁बचे	-14872
संदेह	-14873
▁चाकू	-14874
▁पीछा	-14875
▁diagn	-14876
▁तृतीय	-14877
▁परिसी	-14878
श्रेष्ठ	-14879
▁Sushil	-14880
▁आशुतोष	-14881
▁दांडिक	-14882
▁हलफनामे	-14883
▁payments	-14884
▁vehicles	-14885
भुत	-14886
▁Um	-14887
ृश्य	-14888
▁हेड	-14889
itors	-14890
▁vent	-14891
▁रहीं	-14892
▁लौटने	-14893
▁refuge	-14894
▁publish	-14895
▁दोहराया	-14896
हृ	-14897
ॉय	-14898
urg	-14899
▁DW	-14900
hend	-14901
life	-14902
रेटर	-14903
▁साज	-14904
ffici	-14905
▁cord	-14906
▁pair	-14907
▁stom	-14908
▁अवगत	-14909
▁देनी	-14910
▁मेहर	-14911
▁algor	-14912
▁निक्ष	-14913
▁बलराम	-14914
▁महान्	-14915
▁overse	-14916
▁अपूर्ण	-14917
▁license	-14918
▁Electric	-14919
▁calculated	-14920
▁concerning	-14921
▁प्रस्तावों	-14922
▁legislature	-14923
bel	-14924
चलन	-14925
ज़न	-14926
▁अँ	-14927
▁shr	-14928
▁शैल	-14929
▁माँग	-14930
क्साइड	-14931
▁novels	-14932
▁Support	-14933
▁earliest	-14934
▁gathered	-14935
▁Directors	-14936
▁integrity	-14937
▁retirement	-14938
jo	-14939
she	-14940
राई	-14941
गांव	-14942
ार्द	-14943
▁Hot	-14944
▁कैप	-14945
▁तंग	-14946
ildar	-14947
मार्ट	-14948
▁flex	-14949
▁चालक	-14950
▁legit	-14951
▁आशंका	-14952
▁गाँधी	-14953
▁शिष्ट	-14954
▁Arabic	-14955
▁Basava	-14956
▁Search	-14957
▁condem	-14958
▁टाइम्स	-14959
▁testing	-14960
▁pictures	-14961
▁displayed	-14962
▁prejudice	-14963
▁allegation	-14964
lin	-14965
▁Bro	-14966
▁Naw	-14967
▁Five	-14968
▁दरों	-14969
▁Mahto	-14970
▁पुराण	-14971
▁presum	-14972
▁बिन्दु	-14973
▁लाभांश	-14974
▁Ayurved	-14975
▁invalid	-14976
▁क्रमांक	-14977
▁adoption	-14978
▁combined	-14979
▁किरायेदार	-14980
▁instituted	-14981
▁revolutionary	-14982
मों	-14983
▁Sem	-14984
chant	-14985
▁plug	-14986
▁prol	-14987
▁scar	-14988
▁ड्रग	-14989
▁नाना	-14990
▁पेशी	-14991
abling	-14992
▁Polit	-14993
▁गोपनीय	-14994
▁Perhaps	-14995
▁entries	-14996
▁residing	-14997
▁inspection	-14998
IG	-14999
asy	-15000
van	-15001
▁dh	-15002
▁टि	-15003
लैंड	-15004
▁Til	-15005
▁lac	-15006
▁टैब	-15007
▁नोक	-15008
▁मज़	-15009
ching	-15010
▁दहेज	-15011
▁देगी	-15012
▁सिटी	-15013
▁acted	-15014
▁इमारत	-15015
▁स्वाय	-15016
▁German	-15017
▁Global	-15018
▁नेताजी	-15019
▁goddess	-15020
▁pleased	-15021
▁आंकड़ों	-15022
▁Muhammad	-15023
▁rational	-15024
▁कहानियों	-15025
▁computers	-15026
▁agreements	-15027
riev	-15028
▁Prim	-15029
▁बेहद	-15030
astava	-15031
▁Bills	-15032
▁metal	-15033
▁towns	-15034
▁सांवि	-15035
▁सोचने	-15036
▁editor	-15037
▁player	-15038
▁प्रदूष	-15039
▁अहमदाबाद	-15040
▁विधायिका	-15041
▁extensive	-15042
▁ministers	-15043
▁beneficial	-15044
asp	-15045
ugu	-15046
रानी	-15047
▁Dil	-15048
▁आवरण	-15049
▁नींव	-15050
▁Check	-15051
▁coord	-15052
▁शुरूआत	-15053
▁सार्थक	-15054
▁missing	-15055
▁समायोजन	-15056
▁belonged	-15057
▁somebody	-15058
mat	-15059
uti	-15060
▁बट	-15061
rane	-15062
माला	-15063
म्बा	-15064
▁Bhut	-15065
▁menu	-15066
▁पांव	-15067
▁पूरक	-15068
▁हुये	-15069
▁Obama	-15070
▁देखिए	-15071
▁अनियमित	-15072
▁validity	-15073
▁Mahabharata	-15074
▁progressive	-15075
TP	-15076
कोष	-15077
▁छः	-15078
just	-15079
▁रुक	-15080
tical	-15081
▁लौटा	-15082
▁Claim	-15083
▁Taluk	-15084
▁wheat	-15085
▁निर्गम	-15086
▁पहुँचा	-15087
ोगे	-15088
▁रथ	-15089
anes	-15090
ques	-15091
र्डर	-15092
▁लाए	-15093
orous	-15094
utosh	-15095
दर्शक	-15096
मूल्य	-15097
▁Bhai	-15098
▁lamp	-15099
▁resc	-15100
▁zone	-15101
▁मनोज	-15102
▁Death	-15103
▁Lanka	-15104
▁मूत्र	-15105
▁Agency	-15106
▁Indira	-15107
▁इसलिये	-15108
▁नाटकों	-15109
▁नीतिगत	-15110
▁स्त्रो	-15111
▁routine	-15112
▁अनुभूति	-15113
▁अवस्थित	-15114
▁Foundation	-15115
▁translated	-15116
ki	-15117
ँह	-15118
ald	-15119
▁Sl	-15120
▁ओब	-15121
comm	-15122
▁Mam	-15123
haust	-15124
विचार	-15125
▁View	-15126
▁लाठी	-15127
ective	-15128
▁संकाय	-15129
▁fabric	-15130
▁worker	-15131
▁disposed	-15132
▁Advocates	-15133
▁Regulations	-15134
Os	-15135
ियस	-15136
▁hes	-15137
▁माय	-15138
▁Bhav	-15139
▁keen	-15140
▁पागल	-15141
ruddin	-15142
▁संघीय	-15143
▁muscle	-15144
▁crucial	-15145
▁promise	-15146
▁relates	-15147
▁sending	-15148
▁त्रुटिः	-15149
▁allotted	-15150
▁oriented	-15151
▁undertake	-15152
BC	-15153
,00	-15154
गृह	-15155
▁Ap	-15156
▁buff	-15157
▁कहती	-15158
▁पराज	-15159
▁काफ़ी	-15160
▁स्नेह	-15161
▁पुरुषों	-15162
▁modified	-15163
▁replaced	-15164
▁तहसीलदार	-15165
▁आत्महत्या	-15166
▁absolutely	-15167
▁operational	-15168
OP	-15169
ोपण	-15170
▁tou	-15171
▁गरि	-15172
ल्पित	-15173
▁विरा	-15174
▁गर्दन	-15175
▁mathem	-15176
▁switch	-15177
▁Buddhist	-15178
▁duration	-15179
▁institute	-15180
▁मंत्रियों	-15181
▁monitoring	-15182
▁residential	-15183
oub	-15184
ओएस	-15185
▁उग	-15186
▁काय	-15187
antly	-15188
▁Rece	-15189
▁मुर्	-15190
rieved	-15191
▁अर्जी	-15192
▁depict	-15193
▁organs	-15194
▁आउटपुट	-15195
▁प्रसंग	-15196
▁विटामिन	-15197
▁आनुवंशिक	-15198
▁NH	-15199
▁Bul	-15200
▁fly	-15201
▁दार	-15202
▁मदन	-15203
▁मेर	-15204
▁मैन	-15205
eters	-15206
ether	-15207
▁अनाव	-15208
▁रिवा	-15209
▁सन्न	-15210
▁सुलझ	-15211
▁Black	-15212
▁Distt	-15213
▁Forum	-15214
▁Mahal	-15215
▁blank	-15216
▁desir	-15217
▁roots	-15218
▁fairly	-15219
▁राजाओं	-15220
▁अनिवासी	-15221
▁गंभीरता	-15222
lammation	-15223
▁संवेदनशील	-15224
▁संव्यवहार	-15225
▁appreciate	-15226
▁Departments	-15227
▁क्रियान्वयन	-15228
▁congratulate	-15229
इश	-15230
महल	-15231
सर्स	-15232
▁Sov	-15233
▁अंस	-15234
▁अपार	-15235
▁योनि	-15236
▁Never	-15237
▁ग्यार	-15238
▁जैविक	-15239
▁ललिता	-15240
▁prefer	-15241
▁सिर्फ़	-15242
▁resolve	-15243
▁statute	-15244
▁programs	-15245
▁ultimate	-15246
▁depending	-15247
▁प्राथमिकी	-15248
▁constantly	-15249
jit	-15250
गंध	-15251
yers	-15252
करार	-15253
▁पदा	-15254
▁Para	-15255
▁bare	-15256
▁Sahib	-15257
▁flour	-15258
▁panch	-15259
▁Terror	-15260
▁निर्दोष	-15261
▁जानबूझकर	-15262
▁resistance	-15263
▁implementing	-15264
ART	-15265
zen	-15266
▁उक	-15267
icus	-15268
पुरा	-15269
▁Fol	-15270
▁Sit	-15271
▁माध	-15272
▁Youn	-15273
▁http	-15274
▁synt	-15275
▁immun	-15276
▁बम्बई	-15277
ishment	-15278
भूतियों	-15279
▁विपक्ष	-15280
▁rapidly	-15281
▁Consumer	-15282
▁नियन्त्र	-15283
▁संरक्षित	-15284
▁organisms	-15285
टीय	-15286
सुर	-15287
▁राश	-15288
▁shad	-15289
▁पादप	-15290
▁सन्द	-15291
▁cloud	-15292
▁Chauhan	-15293
▁careful	-15294
▁doctors	-15295
▁निकायों	-15296
▁peaceful	-15297
▁तुम्हारा	-15298
▁acknowled	-15299
▁interface	-15300
▁फिलीस्तीन	-15301
▁स्वैच्छिक	-15302
▁विशेषाधिकार	-15303
sc	-15304
The	-15305
जान	-15306
धिप	-15307
unch	-15308
▁Dra	-15309
▁झार	-15310
वाहिक	-15311
ानिर्	-15312
▁wage	-15313
▁निकले	-15314
▁प्रोफ	-15315
▁Create	-15316
▁ending	-15317
▁Consult	-15318
▁driving	-15319
▁imagine	-15320
▁नामांकन	-15321
▁Prevention	-15322
कश	-15323
aked	-15324
बिया	-15325
▁USA	-15326
▁सीन	-15327
▁हनु	-15328
▁वसूल	-15329
▁auton	-15330
▁Castes	-15331
▁ideals	-15332
▁साथियों	-15333
▁circular	-15334
▁comments	-15335
▁समाजवादी	-15336
▁destroyed	-15337
▁sensitive	-15338
▁केन्द्रों	-15339
▁techniques	-15340
▁enterprises	-15341
▁सर्वश्रेष्ठ	-15342
aci	-15343
wah	-15344
▁शक	-15345
agra	-15346
िपुर	-15347
▁Gir	-15348
▁लीला	-15349
▁fired	-15350
▁कर्ता	-15351
▁estate	-15352
▁handic	-15353
▁mailing	-15354
▁पक्षियों	-15355
▁विनियमों	-15356
▁साक्षरता	-15357
▁occasions	-15358
▁protected	-15359
▁सामुदायिक	-15360
▁originally	-15361
▁television	-15362
var	-15363
फ़ा	-15364
ॉजी	-15365
▁गर	-15366
▁Dub	-15367
eding	-15368
▁Area	-15369
▁Baba	-15370
▁अनंत	-15371
▁कहकर	-15372
▁क्री	-15373
▁चलती	-15374
▁पुरी	-15375
▁रंगम	-15376
▁Point	-15377
ilation	-15378
▁औचित्य	-15379
▁contrast	-15380
▁collective	-15381
डि	-15382
णित	-15383
मेर	-15384
▁Ku	-15385
wide	-15386
▁upl	-15387
▁उधर	-15388
night	-15389
▁Bush	-15390
▁Paul	-15391
▁आचार	-15392
▁चाचा	-15393
▁चोरी	-15394
ज्ञानी	-15395
▁Table	-15396
▁hotel	-15397
▁निंदा	-15398
▁सहभाग	-15399
itative	-15400
▁inflic	-15401
▁निरस्त	-15402
▁मुहैया	-15403
▁स्मारक	-15404
▁सुधारों	-15405
▁endeavour	-15406
▁inclusive	-15407
▁अधिनियमित	-15408
▁पैराग्राफ	-15409
▁conspiracy	-15410
पाट	-15411
राग	-15412
ayat	-15413
▁Kul	-15414
▁pit	-15415
▁ओवर	-15416
ridge	-15417
ropri	-15418
▁Mant	-15419
▁Page	-15420
▁wing	-15421
▁कर्ज	-15422
▁repay	-15423
▁न्यूय	-15424
usively	-15425
▁दुर्बल	-15426
▁निमित्त	-15427
▁attacked	-15428
▁supplied	-15429
▁exception	-15430
▁nominated	-15431
▁Cy	-15432
▁गले	-15433
▁Miss	-15434
▁Pune	-15435
▁Radi	-15436
▁pump	-15437
▁खोला	-15438
▁दीपक	-15439
endous	-15440
▁Saudi	-15441
▁dying	-15442
▁बोलने	-15443
charita	-15444
▁Jagann	-15445
▁जिंदगी	-15446
▁जैसाकि	-15447
▁बादशाह	-15448
▁मिथ्या	-15449
▁islands	-15450
▁judgement	-15451
inc	-15452
ste	-15453
▁Ek	-15454
iche	-15455
बर्ट	-15456
भक्त	-15457
१वीं	-15458
▁mah	-15459
▁व्र	-15460
िल्ला	-15461
▁Orig	-15462
▁Vide	-15463
▁आगमन	-15464
▁समाम	-15465
▁पीछला	-15466
▁Bhagat	-15467
▁empire	-15468
▁आचार्य	-15469
▁बाज़ार	-15470
▁furnish	-15471
▁आन्दोलन	-15472
▁प्रशांत	-15473
▁Engineer	-15474
▁प्रदर्शनी	-15475
▁obligations	-15476
ुलर	-15477
▁CA	-15478
aved	-15479
▁Bag	-15480
▁सोव	-15481
▁snow	-15482
▁decre	-15483
▁असंगत	-15484
▁जमींद	-15485
▁Empire	-15486
▁Harish	-15487
▁Saraswati	-15488
▁कठिनाइयों	-15489
▁conducting	-15490
केल	-15491
▁थै	-15492
▁Chh	-15493
▁कैल	-15494
बन्धन	-15495
▁बोला	-15496
▁sixty	-15497
▁दिनेश	-15498
▁कृष्णा	-15499
▁वरीयता	-15500
▁chromos	-15501
▁hostile	-15502
▁संकीर्ण	-15503
▁लड़कियों	-15504
▁indigenous	-15505
▁प्रत्यर्थी	-15506
▁Institution	-15507
enda	-15508
तिया	-15509
▁जरा	-15510
▁वान	-15511
▁बांस	-15512
िवारिक	-15513
▁royal	-15514
▁गरिमा	-15515
▁सारणी	-15516
▁Bureau	-15517
▁disqual	-15518
▁रोगियों	-15519
▁नियोक्ता	-15520
▁दायित्वों	-15521
▁Employment	-15522
▁acceptable	-15523
▁characteristic	-15524
rh	-15525
पटल	-15526
▁NE	-15527
पीएस	-15528
स्सी	-15529
▁बुर	-15530
ecess	-15531
▁Town	-15532
▁bold	-15533
▁कारकों	-15534
▁धर्मों	-15535
▁Persons	-15536
▁assured	-15537
▁प्रवर्त	-15538
▁स्वच्छता	-15539
▁नगरपालिका	-15540
▁performing	-15541
▁पूर्वोत्तर	-15542
▁presentation	-15543
zy	-15544
bir	-15545
ogy	-15546
▁ju	-15547
शिंग	-15548
▁Kur	-15549
▁Naz	-15550
▁बान	-15551
ष्कृत	-15552
▁Hard	-15553
▁Mall	-15554
▁अनदे	-15555
▁ऊँचा	-15556
▁माला	-15557
▁homes	-15558
▁lover	-15559
▁गीतों	-15560
▁assert	-15561
▁मधुमेह	-15562
▁स्टैंड	-15563
▁pleaded	-15564
▁गर्भाशय	-15565
▁fertiliz	-15566
▁confirmed	-15567
rao	-15568
uma	-15569
▁ice	-15570
▁wed	-15571
eenth	-15572
▁thin	-15573
▁सिखा	-15574
▁Vinod	-15575
▁simult	-15576
▁अरविंद	-15577
▁असफलता	-15578
▁पेशेवर	-15579
▁assumed	-15580
[...]
