<unk>	0
<s>	0
</s>	0
UuRrLl	0
DdAaTtEe	0
NnUuMm	0
▁t	-0
he	-1
▁a	-2
▁the	-3
▁o	-4
in	-5
on	-6
re	-7
at	-8
er	-9
▁of	-10
en	-11
ed	-12
is	-13
▁c	-14
it	-15
▁s	-16
ion	-17
▁p	-18
nd	-19
▁b	-20
▁w	-21
▁in	-22
al	-23
or	-24
es	-25
▁f	-26
▁to	-27
ar	-28
an	-29
ing	-30
ent	-31
as	-32
ic	-33
▁d	-34
ou	-35
▁and	-36
ct	-37
▁re	-38
▁th	-39
▁m	-40
ro	-41
le	-42
▁be	-43
▁h	-44
▁C	-45
▁n	-46
st	-47
ation	-48
▁e	-49
▁is	-50
▁T	-51
▁S	-52
ce	-53
id	-54
▁A	-55
▁that	-56
ot	-57
ment	-58
ut	-59
om	-60
ll	-61
▁I	-62
ve	-63
▁con	-64
▁for	-65
se	-66
▁or	-67
▁by	-68
▁on	-69
▁as	-70
pp	-71
▁u	-72
ri	-73
ly	-74
▁pro	-75
▁su	-76
▁l	-77
ad	-78
our	-79
▁de	-80
▁(	-81
ate	-82
▁The	-83
▁an	-84
ur	-85
im	-86
▁P	-87
▁not	-88
ch	-89
il	-90
▁wh	-91
▁app	-92
▁was	-93
ant	-94
her	-95
ver	-96
ourt	-97
▁wit	-98
ter	-99
▁g	-100
ect	-101
ig	-102
ra	-103
▁it	-104
ld	-105
ow	-106
if	-107
▁with	-108
ay	-109
et	-110
▁M	-111
▁R	-112
ere	-113
▁ex	-114
ir	-115
ain	-116
▁Court	-117
qu	-118
ab	-119
ers	-120
am	-121
res	-122
ul	-123
ud	-124
▁H	-125
ess	-126
▁st	-127
nder	-128
▁com	-129
▁v	-130
us	-131
▁B	-132
▁under	-133
ich	-134
▁D	-135
ity	-136
▁has	-137
ge	-138
▁which	-139
▁N	-140
ther	-141
ol	-142
▁he	-143
and	-144
ated	-145
▁sh	-146
est	-147
ions	-148
▁are	-149
▁this	-150
▁al	-151
ist	-152
ak	-153
os	-154
ec	-155
▁ac	-156
▁le	-157
ore	-158
end	-159
iv	-160
▁appe	-161
▁G	-162
▁res	-163
ould	-164
▁any	-165
▁ha	-166
art	-167
ence	-168
od	-169
▁at	-170
ive	-171
ial	-172
▁cas	-173
ies	-174
rom	-175
nt	-176
red	-177
▁j	-178
all	-179
ice	-180
gh	-181
▁In	-182
ted	-183
▁sub	-184
▁from	-185
ition	-186
ust	-187
▁cont	-188
um	-189
igh	-190
ard	-191
▁been	-192
▁have	-193
la	-194
em	-195
ort	-196
ure	-197
▁O	-198
▁prov	-199
un	-200
pon	-201
▁there	-202
▁L	-203
▁J	-204
ance	-205
pl	-206
able	-207
▁Act	-208
aid	-209
▁dis	-210
ction	-211
▁whe	-212
so	-213
▁fa	-214
▁such	-215
▁St	-216
ff	-217
ia	-218
ord	-219
▁case	-220
▁E	-221
ie	-222
over	-223
▁per	-224
▁acc	-225
ned	-226
ution	-227
▁W	-228
ill	-229
▁ad	-230
▁F	-231
lic	-232
ary	-233
▁Ind	-234
▁im	-235
stit	-236
mis	-237
mit	-238
▁int	-239
der	-240
llant	-241
fore	-242
▁ag	-243
▁other	-244
sion	-245
per	-246
th	-247
▁part	-248
▁also	-249
pt	-250
oc	-251
ire	-252
▁we	-253
▁It	-254
su	-255
▁all	-256
▁comp	-257
cl	-258
▁appellant	-259
ru	-260
erv	-261
▁ab	-262
▁cons	-263
▁ch	-264
aw	-265
▁can	-266
overn	-267
▁rec	-268
ee	-269
ame	-270
erson	-271
ght	-272
▁ar	-273
▁had	-274
ous	-275
ade	-276
op	-277
▁y	-278
▁State	-279
▁High	-280
▁en	-281
du	-282
ear	-283
▁off	-284
▁no	-285
▁ev	-286
▁were	-287
▁imp	-288
▁person	-289
▁would	-290
..	-291
ag	-292
▁order	-293
▁may	-294
▁his	-295
ount	-296
▁dec	-297
ations	-298
ac	-299
▁shall	-300
▁jud	-301
age	-302
ection	-303
ision	-304
ied	-305
▁Com	-306
▁Con	-307
min	-308
sed	-309
overnment	-310
▁qu	-311
▁K	-312
pond	-313
rou	-314
▁reg	-315
ict	-316
▁Th	-317
▁U	-318
▁India	-319
ced	-320
ip	-321
ib	-322
▁No	-323
▁am	-324
▁ob	-325
ide	-326
ub	-327
▁rel	-328
fter	-329
pondent	-330
ree	-331
fer	-332
stitution	-333
▁made	-334
▁“	-335
▁se	-336
▁said	-337
▁sp	-338
ific	-339
▁law	-340
used	-341
ject	-342
▁its	-343
▁ri	-344
▁un	-345
pect	-346
orm	-347
▁who	-348
ran	-349
▁Government	-350
▁tak	-351
▁ne	-352
▁pre	-353
▁mat	-354
▁De	-355
ome	-356
ident	-357
sel	-358
use	-359
ments	-360
ind	-361
oin	-362
oun	-363
▁fact	-364
▁pres	-365
rib	-366
etition	-367
ces	-368
▁-	-369
ry	-370
ered	-371
mission	-372
▁Re	-373
ose	-374
iz	-375
▁out	-376
ha	-377
▁right	-378
me	-379
▁respondent	-380
ical	-381
▁year	-382
▁do	-383
ult	-384
▁rep	-385
tain	-386
▁me	-387
iew	-388
▁their	-389
▁before	-390
fere	-391
ise	-392
mitted	-393
▁,	-394
ove	-395
▁issu	-396
▁r	-397
▁only	-398
ty	-399
▁consid	-400
▁judg	-401
ail	-402
pos	-403
▁pur	-404
▁dated	-405
▁ind	-406
▁court	-407
ost	-408
uth	-409
▁if	-410
▁ent	-411
oll	-412
ime	-413
ory	-414
isions	-415
▁so	-416
rit	-417
ious	-418
ish	-419
ile	-420
ates	-421
▁again	-422
ue	-423
▁inv	-424
▁V	-425
form	-426
▁where	-427
▁inc	-428
▁cla	-429
out	-430
▁will	-431
.0	-432
▁one	-433
▁requ	-434
irect	-435
▁inter	-436
▁same	-437
▁applic	-438
▁lear	-439
▁accused	-440
ract	-441
uthor	-442
▁|	-443
ings	-444
ual	-445
istr	-446
▁ass	-447
▁man	-448
ating	-449
ber	-450
▁time	-451
▁ca	-452
▁petition	-453
og	-454
▁k	-455
▁em	-456
▁As	-457
▁but	-458
ong	-459
che	-460
ublic	-461
▁learned	-462
ention	-463
▁def	-464
ities	-465
cc	-466
▁fil	-467
clud	-468
▁SC	-469
ollow	-470
▁against	-471
ach	-472
▁leg	-473
▁held	-474
one	-475
▁being	-476
▁pas	-477
ceed	-478
▁follow	-479
▁exp	-480
▁after	-481
ine	-482
▁pl	-483
urther	-484
▁Jud	-485
▁should	-486
ased	-487
ood	-488
ason	-489
ative	-490
▁pow	-491
▁view	-492
idence	-493
▁Constitution	-494
),	-495
ci	-496
▁appeal	-497
vel	-498
rans	-499
▁pos	-500
not	-501
▁act	-502
▁judgment	-503
▁serv	-504
▁Ch	-505
▁matter	-506
ax	-507
eral	-508
▁provisions	-509
ork	-510
▁'	-511
▁This	-512
ferred	-513
▁spec	-514
ens	-515
▁comm	-516
▁pr	-517
act	-518
ward	-519
ign	-520
nce	-521
oint	-522
▁mak	-523
▁pay	-524
▁tw	-525
ound	-526
▁ter	-527
▁giv	-528
oy	-529
▁coun	-530
cy	-531
▁land	-532
▁Pro	-533
ational	-534
ffect	-535
▁quest	-536
▁record	-537
▁into	-538
ute	-539
are	-540
▁they	-541
▁reason	-542
ided	-543
▁cannot	-544
▁him	-545
▁proceed	-546
ged	-547
rial	-548
▁Sh	-549
▁proper	-550
old	-551
▁direct	-552
▁filed	-553
ok	-554
▁trans	-555
▁author	-556
▁li	-557
ved	-558
ving	-559
▁respect	-560
aint	-561
ified	-562
ility	-563
▁We	-564
▁op	-565
ature	-566
▁when	-567
▁two	-568
▁set	-569
▁‘	-570
ors	-571
▁conc	-572
lect	-573
▁evidence	-574
▁consider	-575
ness	-576
....	-577
▁further	-578
we	-579
iction	-580
▁.	-581
▁pla	-582
▁ext	-583
hed	-584
▁above	-585
▁our	-586
▁pol	-587
▁appro	-588
ast	-589
▁He	-590
▁Su	-591
own	-592
▁counsel	-593
▁must	-594
▁pri	-595
ession	-596
▁There	-597
med	-598
▁char	-599
ase	-600
led	-601
ath	-602
ular	-603
▁SCC	-604
ral	-605
▁bet	-606
rant	-607
▁public	-608
ired	-609
▁years	-610
▁taken	-611
▁regard	-612
ffic	-613
▁state	-614
▁includ	-615
erest	-616
el	-617
very	-618
▁[	-619
ised	-620
ally	-621
cept	-622
erc	-623
▁question	-624
▁Ex	-625
▁Un	-626
ever	-627
irst	-628
▁present	-629
▁within	-630
ms	-631
isl	-632
▁them	-633
ible	-634
ph	-635
▁decision	-636
▁work	-637
▁upon	-638
wn	-639
▁power	-640
▁these	-641
▁amount	-642
ian	-643
pre	-644
bit	-645
▁over	-646
arl	-647
▁Rs	-648
iod	-649
▁Ben	-650
ond	-651
▁interest	-652
▁whether	-653
ploy	-654
ended	-655
ank	-656
ild	-657
▁bec	-658
▁On	-659
ween	-660
▁App	-661
▁period	-662
▁up	-663
ges	-664
▁cl	-665
ification	-666
ight	-667
rimin	-668
any	-669
▁could	-670
aj	-671
velop	-672
▁between	-673
▁cle	-674
▁dif	-675
▁Section	-676
▁given	-677
▁sec	-678
▁well	-679
▁her	-680
mitt	-681
icial	-682
sec	-683
▁Commission	-684
).	-685
ustice	-686
its	-687
ules	-688
▁val	-689
▁Sing	-690
ited	-691
uring	-692
▁effect	-693
▁submitted	-694
▁application	-695
ecess	-696
duct	-697
ven	-698
▁compl	-699
ference	-700
ite	-701
▁bas	-702
▁mar	-703
irc	-704
▁writ	-705
▁claim	-706
ices	-707
▁concer	-708
▁passed	-709
▁grou	-710
ex	-711
▁supp	-712
▁disc	-713
▁att	-714
▁therefore	-715
▁persons	-716
ief	-717
▁poss	-718
pri	-719
▁clear	-720
▁Cent	-721
▁exam	-722
▁par	-723
ug	-724
▁PW	-725
▁cases	-726
▁rem	-727
ined	-728
und	-729
owever	-730
▁grant	-731
ior	-732
ances	-733
stru	-734
serv	-735
▁Mr	-736
hi	-737
▁even	-738
▁0	-739
▁date	-740
▁cer	-741
▁Pres	-742
▁first	-743
▁necess	-744
▁employ	-745
gu	-746
ale	-747
▁ra	-748
▁than	-749
▁Ad	-750
▁accord	-751
▁mean	-752
dition	-753
▁invest	-754
▁Bench	-755
▁mem	-756
▁read	-757
▁rele	-758
pose	-759
ily	-760
abl	-761
rad	-762
av	-763
▁fin	-764
▁prin	-765
ife	-766
▁sent	-767
▁circ	-768
▁inform	-769
ef	-770
▁suit	-771
oth	-772
eneral	-773
por	-774
▁does	-775
ays	-776
▁Judge	-777
▁cor	-778
▁more	-779
▁referred	-780
cess	-781
▁Ar	-782
rough	-783
▁stat	-784
xad	-785
aring	-786
▁est	-787
ack	-788
▁section	-789
itions	-790
▁observ	-791
part	-792
▁Min	-793
▁conf	-794
vant	-795
ass	-796
▁partic	-797
▁stated	-798
▁form	-799
unal	-800
▁offence	-801
▁prosec	-802
riminal	-803
port	-804
▁find	-805
▁te	-806
ash	-807
ress	-808
▁property	-809
▁appellants	-810
bitr	-811
▁deal	-812
▁parties	-813
▁while	-814
▁subject	-815
ap	-816
▁through	-817
▁An	-818
▁President	-819
ribunal	-820
▁exerc	-821
uris	-822
vers	-823
▁following	-824
ke	-825
▁min	-826
▁some	-827
▁allow	-828
▁/	-829
▁purpose	-830
▁tax	-831
▁without	-832
uted	-833
ull	-834
con	-835
▁about	-836
miss	-837
har	-838
▁&	-839
ained	-840
▁count	-841
▁Central	-842
▁af	-843
igation	-844
ores	-845
▁legisl	-846
mittee	-847
ees	-848
▁Appe	-849
▁var	-850
▁good	-851
▁proceedings	-852
ient	-853
▁av	-854
clus	-855
ater	-856
ep	-857
▁Singh	-858
ough	-859
▁acqu	-860
▁circum	-861
▁agree	-862
▁report	-863
▁concerned	-864
▁make	-865
▁trial	-866
ric	-867
ix	-868
te	-869
▁basis	-870
▁facts	-871
▁hold	-872
▁rece	-873
▁mon	-874
▁ro	-875
▁ground	-876
▁provision	-877
▁juris	-878
▁soc	-879
ner	-880
velopment	-881
ivil	-882
▁ben	-883
▁found	-884
oresaid	-885
▁issued	-886
▁aforesaid	-887
▁witness	-888
▁authority	-889
hal	-890
▁us	-891
▁sc	-892
▁circumst	-893
▁own	-894
▁gu	-895
ety	-896
ural	-897
▁disp	-898
▁Reg	-899
▁issue	-900
ries	-901
eg	-902
▁ord	-903
sequ	-904
▁des	-905
▁ret	-906
ability	-907
ished	-908
pra	-909
▁contract	-910
▁required	-911
▁Res	-912
▁need	-913
▁necessary	-914
ince	-915
ting	-916
▁bel	-917
bers	-918
ferent	-919
anc	-920
cil	-921
enior	-922
diction	-923
section	-924
▁Indian	-925
▁post	-926
▁then	-927
▁here	-928
▁Or	-929
▁process	-930
▁appoint	-931
edu	-932
▁hand	-933
▁award	-934
▁new	-935
ith	-936
hip	-937
▁word	-938
▁clause	-939
▁account	-940
▁Whe	-941
urn	-942
▁service	-943
ew	-944
PC	-945
▁deter	-946
▁having	-947
▁jurisdiction	-948
▁del	-949
▁stand	-950
iff	-951
▁occ	-952
ode	-953
▁Shri	-954
▁different	-955
▁those	-956
▁rev	-957
▁both	-958
ption	-959
▁three	-960
ality	-961
▁down	-962
▁take	-963
▁name	-964
▁establ	-965
cheme	-966
▁Offic	-967
▁consideration	-968
▁ins	-969
▁benef	-970
▁relevant	-971
crib	-972
▁Committee	-973
▁place	-974
ceased	-975
tic	-976
▁exec	-977
self	-978
half	-979
ister	-980
ks	-981
erial	-982
iness	-983
▁notice	-984
▁car	-985
▁Tribunal	-986
ither	-987
▁petitioner	-988
▁behalf	-989
▁tre	-990
▁aff	-991
ii	-992
ouse	-993
other	-994
▁terms	-995
▁considered	-996
▁provid	-997
▁offic	-998
ital	-999
▁kn	-1000
ency	-1001
▁arbitr	-1002
▁determin	-1003
▁:	-1004
cip	-1005
ody	-1006
▁death	-1007
▁circumstances	-1008
oard	-1009
▁did	-1010
▁various	-1011
esh	-1012
leg	-1013
▁avail	-1014
▁prosecution	-1015
▁lim	-1016
of	-1017
uty	-1018
▁conv	-1019
man	-1020
▁dem	-1021
lement	-1022
▁deceased	-1023
▁col	-1024
▁provided	-1025
ences	-1026
ants	-1027
tern	-1028
ts	-1029
chn	-1030
supra	-1031
▁like	-1032
after	-1033
raph	-1034
▁co	-1035
▁pe	-1036
▁Del	-1037
▁object	-1038
ren	-1039
ized	-1040
onment	-1041
▁during	-1042
▁oper	-1043
▁rights	-1044
IR	-1045
▁material	-1046
▁prev	-1047
▁opin	-1048
ocu	-1049
▁particular	-1050
ures	-1051
ointed	-1052
▁Rules	-1053
ination	-1054
▁dist	-1055
ending	-1056
▁information	-1057
omm	-1058
▁equ	-1059
▁Ru	-1060
▁she	-1061
▁inst	-1062
▁Acc	-1063
ier	-1064
ause	-1065
ents	-1066
▁statement	-1067
▁what	-1068
▁company	-1069
▁certain	-1070
lection	-1071
▁including	-1072
▁nature	-1073
▁However	-1074
ret	-1075
cedure	-1076
ful	-1077
▁adv	-1078
▁Delhi	-1079
ram	-1080
▁opinion	-1081
▁det	-1082
▁docu	-1083
▁agreement	-1084
▁conduct	-1085
▁num	-1086
▁inj	-1087
▁legal	-1088
▁If	-1089
▁comple	-1090
▁life	-1091
▁Sec	-1092
▁non	-1093
▁bus	-1094
▁month	-1095
▁produ	-1096
▁sit	-1097
▁priv	-1098
allen	-1099
▁main	-1100
olog	-1101
aintiff	-1102
ring	-1103
ages	-1104
/-	-1105
▁Coun	-1106
▁contin	-1107
▁import	-1108
▁exist	-1109
▁see	-1110
▁En	-1111
▁used	-1112
iety	-1113
▁Rule	-1114
▁Comp	-1115
han	-1116
▁rest	-1117
▁manner	-1118
▁respondents	-1119
ov	-1120
▁For	-1121
ogn	-1122
▁mention	-1123
▁Sp	-1124
arlia	-1125
▁cond	-1126
ourse	-1127
▁med	-1128
arliament	-1129
ople	-1130
icy	-1131
ived	-1132
▁Chief	-1133
▁sy	-1134
▁Board	-1135
▁et	-1136
▁each	-1137
▁Cha	-1138
sequent	-1139
▁vi	-1140
▁bu	-1141
▁cro	-1142
▁senior	-1143
▁exercise	-1144
▁prot	-1145
▁because	-1146
ising	-1147
▁Justice	-1148
ars	-1149
ave	-1150
.,	-1151
▁income	-1152
read	-1153
ivid	-1154
ati	-1155
▁challen	-1156
ivers	-1157
▁ref	-1158
▁etc	-1159
▁Code	-1160
▁entit	-1161
arge	-1162
▁ru	-1163
posed	-1164
▁tr	-1165
▁members	-1166
▁expres	-1167
▁constru	-1168
▁pun	-1169
▁sale	-1170
preme	-1171
▁due	-1172
▁country	-1173
▁constitution	-1174
▁abs	-1175
gan	-1176
▁observed	-1177
less	-1178
▁princip	-1179
ugned	-1180
▁Union	-1181
atory	-1182
bt	-1183
▁criminal	-1184
▁goods	-1185
▁far	-1186
▁tra	-1187
▁action	-1188
cipl	-1189
▁show	-1190
stem	-1191
▁police	-1192
▁fund	-1193
ning	-1194
see	-1195
the	-1196
tal	-1197
▁cap	-1198
▁impugned	-1199
▁prom	-1200
▁Parliament	-1201
▁cre	-1202
▁Supreme	-1203
cation	-1204
▁result	-1205
▁Wh	-1206
▁call	-1207
▁use	-1208
........	-1209
ives	-1210
▁thus	-1211
▁business	-1212
ble	-1213
ulation	-1214
▁test	-1215
cribed	-1216
priate	-1217
▁fun	-1218
▁reference	-1219
▁compens	-1220
▁inf	-1221
les	-1222
▁payment	-1223
▁allowed	-1224
▁way	-1225
▁charge	-1226
orpor	-1227
ator	-1228
▁argu	-1229
▁let	-1230
▁judicial	-1231
partment	-1232
▁fra	-1233
▁specific	-1234
ook	-1235
▁Ag	-1236
▁pen	-1237
ateg	-1238
▁development	-1239
▁child	-1240
▁number	-1241
iry	-1242
▁require	-1243
▁people	-1244
▁i	-1245
▁possession	-1246
▁Pol	-1247
endment	-1248
▁since	-1249
lig	-1250
ob	-1251
▁sim	-1252
ES	-1253
ify	-1254
istrict	-1255
▁sentence	-1256
▁available	-1257
ividual	-1258
▁Man	-1259
▁earl	-1260
osed	-1261
▁recorded	-1262
▁according	-1263
ivision	-1264
istration	-1265
ft	-1266
▁pass	-1267
ma	-1268
ris	-1269
row	-1270
tra	-1271
als	-1272
▁assess	-1273
clusion	-1274
▁fail	-1275
▁paid	-1276
▁apply	-1277
▁words	-1278
▁just	-1279
▁invol	-1280
tained	-1281
▁every	-1282
▁plaintiff	-1283
▁day	-1284
▁add	-1285
par	-1286
iance	-1287
▁very	-1288
stitut	-1289
▁ident	-1290
▁situ	-1291
▁appointment	-1292
ately	-1293
▁entitled	-1294
:-	-1295
▁punish	-1296
▁individual	-1297
▁Mar	-1298
ket	-1299
▁services	-1300
ecial	-1301
▁OF	-1302
▁duty	-1303
reed	-1304
agraph	-1305
▁opp	-1306
▁subst	-1307
▁prof	-1308
▁appropriate	-1309
▁party	-1310
▁Y	-1311
▁edu	-1312
▁Law	-1313
▁expl	-1314
ai	-1315
▁Courts	-1316
▁ple	-1317
atis	-1318
▁defend	-1319
▁viol	-1320
jud	-1321
ready	-1322
▁based	-1323
▁area	-1324
▁pract	-1325
▁orders	-1326
▁already	-1327
▁either	-1328
▁back	-1329
▁earlier	-1330
resent	-1331
▁Am	-1332
▁investigation	-1333
ys	-1334
▁another	-1335
rol	-1336
▁ten	-1337
▁recomm	-1338
▁conditions	-1339
▁justice	-1340
ext	-1341
▁National	-1342
▁promot	-1343
▁Therefore	-1344
▁sum	-1345
for	-1346
▁Bank	-1347
▁dra	-1348
▁Officer	-1349
▁complaint	-1350
00	-1351
atisf	-1352
▁making	-1353
▁fore	-1354
▁compensation	-1355
▁At	-1356
ah	-1357
AR	-1358
ancial	-1359
▁contained	-1360
unity	-1361
▁second	-1362
▁special	-1363
▁statut	-1364
ang	-1365
TI	-1366
ought	-1367
inal	-1368
▁go	-1369
▁granted	-1370
▁mentioned	-1371
▁Sub	-1372
▁States	-1373
▁indust	-1374
▁along	-1375
uk	-1376
▁fav	-1377
▁follows	-1378
king	-1379
▁laid	-1380
▁letter	-1381
▁itself	-1382
ilar	-1383
▁appeals	-1384
▁system	-1385
▁policy	-1386
▁cent	-1387
ctions	-1388
▁came	-1389
app	-1390
▁committed	-1391
▁scheme	-1392
▁Raj	-1393
alth	-1394
▁General	-1395
pted	-1396
▁Division	-1397
wise	-1398
ten	-1399
▁means	-1400
▁general	-1401
▁init	-1402
▁cause	-1403
▁er	-1404
▁principle	-1405
ditional	-1406
ON	-1407
▁favour	-1408
ines	-1409
▁placed	-1410
▁position	-1411
▁mer	-1412
▁ph	-1413
▁reasons	-1414
▁All	-1415
▁value	-1416
▁end	-1417
ple	-1418
▁ve	-1419
essee	-1420
▁loc	-1421
▁course	-1422
▁support	-1423
EN	-1424
ss	-1425
▁provide	-1426
▁bl	-1427
here	-1428
▁satisf	-1429
▁powers	-1430
▁Council	-1431
▁matters	-1432
▁relating	-1433
hav	-1434
eep	-1435
ER	-1436
ested	-1437
▁mis	-1438
▁Not	-1439
▁cost	-1440
▁rule	-1441
▁Minister	-1442
▁though	-1443
by	-1444
pons	-1445
itation	-1446
▁techn	-1447
▁Sche	-1448
anding	-1449
▁Leg	-1450
▁dou	-1451
uman	-1452
andid	-1453
▁Civil	-1454
▁days	-1455
▁you	-1456
▁officer	-1457
▁represent	-1458
ication	-1459
▁sur	-1460
▁provides	-1461
ried	-1462
▁constitutional	-1463
▁Petition	-1464
missed	-1465
ining	-1466
▁herein	-1467
▁Direct	-1468
uch	-1469
agistr	-1470
af	-1471
ential	-1472
▁candid	-1473
▁Author	-1474
▁sect	-1475
▁Se	-1476
▁dismissed	-1477
conom	-1478
▁specified	-1479
ively	-1480
▁lead	-1481
▁valid	-1482
poses	-1483
▁chan	-1484
▁except	-1485
ruct	-1486
ashtra	-1487
▁witnesses	-1488
▁courts	-1489
▁Gu	-1490
▁body	-1491
▁ens	-1492
▁gre	-1493
▁interpre	-1494
▁bank	-1495
▁elect	-1496
rect	-1497
▁meet	-1498
▁entire	-1499
▁transfer	-1500
▁prescribed	-1501
▁compet	-1502
▁alle	-1503
▁perform	-1504
▁enact	-1505
istered	-1506
ata	-1507
▁project	-1508
▁Ass	-1509
ording	-1510
▁point	-1511
▁IPC	-1512
▁rules	-1513
▁depos	-1514
▁class	-1515
hib	-1516
▁Thus	-1517
ared	-1518
rie	-1519
▁prog	-1520
▁cred	-1521
▁accept	-1522
▁society	-1523
▁stud	-1524
▁know	-1525
agistrate	-1526
▁Prad	-1527
quiry	-1528
ering	-1529
▁submission	-1530
▁accordance	-1531
▁fam	-1532
llate	-1533
▁received	-1534
▁house	-1535
▁Lt	-1536
▁decl	-1537
AN	-1538
▁sign	-1539
▁indic	-1540
▁mod	-1541
ari	-1542
▁Part	-1543
gg	-1544
▁II	-1545
▁open	-1546
▁come	-1547
▁ser	-1548
ather	-1549
wards	-1550
▁categ	-1551
ell	-1552
agement	-1553
▁paragraph	-1554
rime	-1555
▁aside	-1556
▁directed	-1557
▁purposes	-1558
ology	-1559
▁namely	-1560
▁Respondent	-1561
▁alleged	-1562
▁dispute	-1563
ured	-1564
▁bro	-1565
▁Ram	-1566
▁mere	-1567
▁activ	-1568
▁asse	-1569
▁continu	-1570
iary	-1571
▁taking	-1572
▁discus	-1573
ck	-1574
▁full	-1575
▁force	-1576
soci	-1577
▁however	-1578
▁detail	-1579
cing	-1580
▁orig	-1581
▁According	-1582
▁done	-1583
▁Serv	-1584
▁stage	-1585
▁office	-1586
tak	-1587
▁benefit	-1588
▁constit	-1589
▁medical	-1590
ibility	-1591
▁give	-1592
▁high	-1593
▁procedure	-1594
▁admin	-1595
▁months	-1596
▁statutory	-1597
▁build	-1598
with	-1599
irm	-1600
▁decisions	-1601
▁Magistrate	-1602
▁vide	-1603
missions	-1604
acy	-1605
▁conclusion	-1606
▁thereof	-1607
▁lit	-1608
spect	-1609
▁To	-1610
mber	-1611
urre	-1612
oss	-1613
way	-1614
tific	-1615
▁Prov	-1616
ne	-1617
air	-1618
▁Mem	-1619
▁Ltd	-1620
eed	-1621
▁get	-1622
▁notification	-1623
olution	-1624
▁Te	-1625
isition	-1626
▁otherwise	-1627
taining	-1628
▁fl	-1629
ya	-1630
ciples	-1631
ulations	-1632
AL	-1633
mb	-1634
▁establish	-1635
epend	-1636
▁Department	-1637
BI	-1638
▁acce	-1639
chan	-1640
▁common	-1641
▁met	-1642
▁Pradesh	-1643
▁important	-1644
val	-1645
oney	-1646
▁cust	-1647
▁che	-1648
umar	-1649
▁Police	-1650
▁offences	-1651
▁econom	-1652
orted	-1653
▁Legisl	-1654
▁deem	-1655
▁That	-1656
duced	-1657
▁appointed	-1658
stitutions	-1659
▁financial	-1660
▁District	-1661
▁assessee	-1662
▁exper	-1663
▁Commissioner	-1664
inary	-1665
▁aspect	-1666
▁Dr	-1667
ID	-1668
▁pat	-1669
ked	-1670
▁After	-1671
▁Govern	-1672
▁raised	-1673
lied	-1674
▁long	-1675
▁conn	-1676
▁sett	-1677
▁purch	-1678
orporation	-1679
▁mind	-1680
▁Eng	-1681
▁prior	-1682
empt	-1683
▁Judges	-1684
▁note	-1685
anies	-1686
get	-1687
▁ir	-1688
overed	-1689
fficient	-1690
▁clearly	-1691
▁my	-1692
▁now	-1693
mental	-1694
▁Bh	-1695
lause	-1696
▁hig	-1697
▁recogn	-1698
▁registered	-1699
dule	-1700
▁Par	-1701
ons	-1702
▁Co	-1703
▁Col	-1704
▁put	-1705
▁dep	-1706
igned	-1707
▁Univers	-1708
▁remain	-1709
▁accepted	-1710
▁Authority	-1711
ool	-1712
▁refer	-1713
▁But	-1714
▁New	-1715
utive	-1716
▁arbitration	-1717
rought	-1718
▁private	-1719
▁final	-1720
ters	-1721
▁Special	-1722
▁petitioners	-1723
▁Pr	-1724
▁expression	-1725
risonment	-1726
▁documents	-1727
▁They	-1728
▁noted	-1729
▁sought	-1730
▁rate	-1731
ulated	-1732
arily	-1733
▁Al	-1734
▁Public	-1735
▁Appeal	-1736
▁Cr	-1737
▁IN	-1738
rest	-1739
hic	-1740
ards	-1741
▁These	-1742
oh	-1743
▁correct	-1744
uf	-1745
▁Order	-1746
PW	-1747
▁str	-1748
itor	-1749
▁less	-1750
riage	-1751
up	-1752
▁organ	-1753
▁Further	-1754
▁total	-1755
▁wom	-1756
▁doubt	-1757
▁san	-1758
▁decided	-1759
▁recommend	-1760
▁government	-1761
▁Report	-1762
▁reasonable	-1763
▁context	-1764
▁meaning	-1765
▁sever	-1766
istry	-1767
▁opport	-1768
▁Cont	-1769
uly	-1770
lf	-1771
hes	-1772
▁imprisonment	-1773
▁decree	-1774
▁extent	-1775
▁defendant	-1776
ird	-1777
▁appearing	-1778
▁respons	-1779
...	-1780
▁principles	-1781
▁ur	-1782
▁assessment	-1783
▁fix	-1784
arn	-1785
▁age	-1786
▁substant	-1787
ging	-1788
ury	-1789
▁charges	-1790
▁education	-1791
▁applicable	-1792
▁Artic	-1793
▁water	-1794
▁civil	-1795
▁established	-1796
ower	-1797
▁contended	-1798
▁adver	-1799
▁incident	-1800
standing	-1801
▁reject	-1802
▁Kumar	-1803
▁nor	-1804
au	-1805
action	-1806
▁env	-1807
▁employees	-1808
ainant	-1809
▁list	-1810
sp	-1811
▁mand	-1812
▁undertak	-1813
ajor	-1814
iber	-1815
▁level	-1816
▁gen	-1817
▁separ	-1818
▁took	-1819
ization	-1820
ik	-1821
ufact	-1822
IC	-1823
ray	-1824
▁issues	-1825
▁examined	-1826
▁lic	-1827
▁relied	-1828
▁Criminal	-1829
ictim	-1830
▁den	-1831
ield	-1832
▁incre	-1833
▁affect	-1834
imum	-1835
▁ensure	-1836
▁family	-1837
▁called	-1838
▁Ma	-1839
▁below	-1840
▁review	-1841
oper	-1842
▁unless	-1843
▁initi	-1844
▁Adv	-1845
▁human	-1846
day	-1847
▁brought	-1848
▁amendment	-1849
▁subsequent	-1850
▁discl	-1851
▁meas	-1852
▁authorities	-1853
▁holding	-1854
▁ann	-1855
▁When	-1856
arent	-1857
▁Company	-1858
▁regarding	-1859
▁fall	-1860
utes	-1861
▁lease	-1862
angu	-1863
▁suff	-1864
▁market	-1865
▁examination	-1866
▁hearing	-1867
▁Corporation	-1868
amental	-1869
osp	-1870
sw	-1871
uses	-1872
urity	-1873
ron	-1874
▁money	-1875
▁Lear	-1876
▁sugg	-1877
ense	-1878
ically	-1879
ructure	-1880
▁Nos	-1881
▁victim	-1882
omb	-1883
▁several	-1884
▁possible	-1885
--	-1886
itiz	-1887
ached	-1888
▁care	-1889
ism	-1890
mes	-1891
▁short	-1892
ironment	-1893
havan	-1894
▁function	-1895
▁institutions	-1896
orld	-1897
▁demand	-1898
irection	-1899
▁decla	-1900
hold	-1901
ger	-1902
▁independ	-1903
akh	-1904
▁delay	-1905
▁relation	-1906
▁Mad	-1907
▁vehic	-1908
▁social	-1909
▁ver	-1910
▁others	-1911
ps	-1912
▁ess	-1913
tificate	-1914
vi	-1915
II	-1916
▁mot	-1917
▁nan	-1918
overy	-1919
▁similar	-1920
▁liable	-1921
ves	-1922
hing	-1923
eak	-1924
▁penal	-1925
▁treat	-1926
ace	-1927
▁towards	-1928
▁implement	-1929
▁major	-1930
ira	-1931
ways	-1932
pe	-1933
▁Learned	-1934
ercial	-1935
▁most	-1936
▁cop	-1937
▁appre	-1938
▁Governor	-1939
ENT	-1940
▁complete	-1941
aged	-1942
▁original	-1943
▁direction	-1944
▁vis	-1945
▁enter	-1946
▁propos	-1947
▁relief	-1948
▁conviction	-1949
mon	-1950
▁PR	-1951
urance	-1952
ana	-1953
uled	-1954
▁situation	-1955
▁Ministry	-1956
▁institution	-1957
▁succ	-1958
▁construction	-1959
▁Bhavan	-1960
▁become	-1961
▁light	-1962
▁control	-1963
▁manufact	-1964
na	-1965
▁pointed	-1966
▁Pl	-1967
AT	-1968
oid	-1969
▁term	-1970
idav	-1971
ually	-1972
▁complainant	-1973
▁free	-1974
▁your	-1975
▁express	-1976
▁deemed	-1977
band	-1978
▁document	-1979
come	-1980
chool	-1981
▁eng	-1982
▁Secret	-1983
▁artic	-1984
▁therein	-1985
▁And	-1986
▁plan	-1987
▁reserv	-1988
▁doct	-1989
▁head	-1990
▁interpret	-1991
▁member	-1992
▁say	-1993
▁product	-1994
▁pursu	-1995
▁Tax	-1996
▁previous	-1997
▁till	-1998
▁share	-1999
▁judgments	-2000
iso	-2001
HE	-2002
▁many	-2003
▁large	-2004
medi	-2005
anation	-2006
▁relig	-2007
▁occas	-2008
atural	-2009
▁event	-2010
isation	-2011
▁answ	-2012
▁legislation	-2013
az	-2014
rust	-2015
▁pet	-2016
▁areas	-2017
▁loss	-2018
▁develop	-2019
▁sal	-2020
▁qual	-2021
CI	-2022
▁declar	-2023
▁directions	-2024
▁finding	-2025
▁pending	-2026
▁vac	-2027
▁relations	-2028
▁facil	-2029
▁Director	-2030
iced	-2031
▁building	-2032
▁err	-2033
ledge	-2034
▁disch	-2035
▁defin	-2036
▁wherein	-2037
▁ke	-2038
ories	-2039
unic	-2040
▁trade	-2041
▁alleg	-2042
▁fundamental	-2043
▁giving	-2044
▁While	-2045
▁protect	-2046
▁proved	-2047
▁FIR	-2048
▁five	-2049
lying	-2050
ospital	-2051
▁citiz	-2052
iii	-2053
▁filing	-2054
▁real	-2055
▁payable	-2056
ta	-2057
▁AIR	-2058
▁contention	-2059
▁submit	-2060
▁Under	-2061
ope	-2062
pati	-2063
▁affidav	-2064
▁higher	-2065
▁University	-2066
Ex	-2067
१०	-2068
▁Be	-2069
essions	-2070
ably	-2071
▁six	-2072
bs	-2073
▁Scheme	-2074
▁proviso	-2075
▁Muk	-2076
ides	-2077
▁para	-2078
ake	-2079
▁collect	-2080
▁health	-2081
▁instru	-2082
une	-2083
mbly	-2084
▁thereafter	-2085
DA	-2086
▁include	-2087
▁Fin	-2088
illeg	-2089
missible	-2090
ink	-2091
▁condition	-2092
▁laws	-2093
essional	-2094
▁involved	-2095
▁sufficient	-2096
▁Development	-2097
▁tru	-2098
▁price	-2099
▁Schedule	-2100
▁bail	-2101
▁saf	-2102
iding	-2103
▁norm	-2104
▁leave	-2105
ashtrapati	-2106
▁absence	-2107
▁contain	-2108
▁proceeding	-2109
▁intern	-2110
chie	-2111
rat	-2112
▁neg	-2113
▁statute	-2114
▁acquisition	-2115
▁arrest	-2116
ricult	-2117
com	-2118
▁illeg	-2119
ock	-2120
▁lo	-2121
▁Chap	-2122
reedom	-2123
▁agg	-2124
▁Bill	-2125
pril	-2126
to	-2127
▁Rashtrapati	-2128
jee	-2129
▁sanction	-2130
ises	-2131
▁treated	-2132
▁fee	-2133
▁contr	-2134
anguage	-2135
▁carry	-2136
▁intention	-2137
phas	-2138
IT	-2139
▁bre	-2140
],	-2141
▁four	-2142
▁premis	-2143
▁among	-2144
▁pray	-2145
work	-2146
▁written	-2147
▁regular	-2148
▁grow	-2149
▁sm	-2150
▁achie	-2151
ium	-2152
▁particip	-2153
▁crime	-2154
▁opportunity	-2155
▁officers	-2156
▁consist	-2157
▁keep	-2158
▁Chapter	-2159
que	-2160
▁protection	-2161
▁deed	-2162
▁world	-2163
▁Appellant	-2164
uary	-2165
ience	-2166
ours	-2167
▁wind	-2168
▁competent	-2169
▁submissions	-2170
▁By	-2171
▁essential	-2172
▁She	-2173
▁much	-2174
▁admitted	-2175
ics	-2176
▁last	-2177
ends	-2178
▁Writ	-2179
▁Med	-2180
▁April	-2181
▁Bomb	-2182
▁existing	-2183
vention	-2184
▁personal	-2185
venue	-2186
▁impro	-2187
▁guil	-2188
▁fe	-2189
▁children	-2190
▁Jan	-2191
▁left	-2192
acity	-2193
▁rend	-2194
▁challenge	-2195
▁tem	-2196
▁framed	-2197
▁interpretation	-2198
icult	-2199
▁fac	-2200
hen	-2201
formation	-2202
▁war	-2203
ternal	-2204
▁fair	-2205
▁Where	-2206
▁today	-2207
▁Procedure	-2208
resh	-2209
▁sche	-2210
▁serious	-2211
OR	-2212
▁March	-2213
▁contem	-2214
▁merely	-2215
usband	-2216
ember	-2217
▁allot	-2218
▁judic	-2219
▁conducted	-2220
▁accordingly	-2221
▁dedu	-2222
▁Bombay	-2223
▁acquit	-2224
▁List	-2225
▁heard	-2226
equ	-2227
▁assist	-2228
▁bar	-2229
▁har	-2230
▁aut	-2231
▁noticed	-2232
▁legislative	-2233
vey	-2234
▁punishment	-2235
▁reads	-2236
▁THE	-2237
▁Such	-2238
▁working	-2239
IN	-2240
ension	-2241
pur	-2242
yond	-2243
▁Me	-2244
▁legislature	-2245
▁occasion	-2246
▁hel	-2247
ires	-2248
▁port	-2249
▁awarded	-2250
▁furn	-2251
erated	-2252
▁Soc	-2253
▁dri	-2254
ties	-2255
▁economic	-2256
▁Clause	-2257
reg	-2258
▁proposed	-2259
▁House	-2260
▁marriage	-2261
▁providing	-2262
ancy	-2263
▁immedi	-2264
▁enfor	-2265
▁Lim	-2266
▁super	-2267
▁owner	-2268
▁step	-2269
▁official	-2270
orth	-2271
dra	-2272
▁followed	-2273
ender	-2274
go	-2275
▁activities	-2276
lim	-2277
▁prep	-2278
▁declaration	-2279
cluded	-2280
IA	-2281
retion	-2282
▁beyond	-2283
▁freedom	-2284
ipt	-2285
LP	-2286
▁role	-2287
▁sust	-2288
umb	-2289
▁program	-2290
▁fine	-2291
▁applied	-2292
▁approach	-2293
ently	-2294
▁Indust	-2295
enced	-2296
▁candidates	-2297
▁Secretary	-2298
▁Provided	-2299
▁bal	-2300
▁foreign	-2301
▁contrary	-2302
ocate	-2303
▁Service	-2304
▁security	-2305
▁produced	-2306
atives	-2307
▁dealing	-2308
▁field	-2309
▁restr	-2310
▁rejected	-2311
▁observations	-2312
erve	-2313
rieved	-2314
▁companies	-2315
▁knowledge	-2316
ault	-2317
ery	-2318
▁consum	-2319
TION	-2320
law	-2321
▁sector	-2322
amp	-2323
▁needs	-2324
round	-2325
uries	-2326
ership	-2327
▁mining	-2328
▁affidavit	-2329
aries	-2330
▁contrib	-2331
▁Single	-2332
▁belong	-2333
▁petitions	-2334
▁expressed	-2335
▁intro	-2336
abil	-2337
▁declared	-2338
▁certificate	-2339
▁Chand	-2340
▁tit	-2341
anch	-2342
▁und	-2343
wal	-2344
▁Chair	-2345
ught	-2346
eration	-2347
▁commission	-2348
de	-2349
ize	-2350
▁considering	-2351
aving	-2352
▁discretion	-2353
▁rendered	-2354
▁return	-2355
▁file	-2356
▁anal	-2357
▁whole	-2358
▁vill	-2359
enc	-2360
▁dam	-2361
▁bring	-2362
▁vehicle	-2363
▁Asse	-2364
▁how	-2365
vest	-2366
▁best	-2367
▁functions	-2368
▁lakh	-2369
▁natural	-2370
▁management	-2371
▁requirement	-2372
▁grounds	-2373
▁local	-2374
▁adjud	-2375
arant	-2376
▁preferred	-2377
▁start	-2378
ues	-2379
▁penalty	-2380
▁women	-2381
▁practice	-2382
▁nex	-2383
▁success	-2384
▁Pri	-2385
▁election	-2386
▁registration	-2387
)(	-2388
▁es	-2389
▁With	-2390
▁maintain	-2391
▁premises	-2392
ources	-2393
▁imposed	-2394
▁appreci	-2395
abad	-2396
▁distin	-2397
▁concept	-2398
▁language	-2399
▁fut	-2400
under	-2401
▁argued	-2402
▁credit	-2403
aka	-2404
▁appears	-2405
ional	-2406
▁approval	-2407
▁run	-2408
▁execution	-2409
▁receipt	-2410
▁Comm	-2411
sociation	-2412
▁employee	-2413
omet	-2414
................	-2415
▁Trial	-2416
bsite	-2417
▁known	-2418
▁states	-2419
tt	-2420
▁punishable	-2421
▁diff	-2422
▁reliance	-2423
▁Mukher	-2424
thing	-2425
▁First	-2426
▁Judicial	-2427
▁capital	-2428
▁husband	-2429
▁continue	-2430
▁inn	-2431
icted	-2432
▁Hon	-2433
iving	-2434
▁impl	-2435
▁withdra	-2436
illed	-2437
▁basic	-2438
▁liability	-2439
▁Dis	-2440
▁enc	-2441
▁gra	-2442
ware	-2443
ogniz	-2444
encies	-2445
▁x	-2446
▁questions	-2447
▁whose	-2448
stitute	-2449
land	-2450
▁carried	-2451
▁Even	-2452
▁prohib	-2453
▁additional	-2454
▁addition	-2455
▁book	-2456
▁third	-2457
▁seen	-2458
▁benefits	-2459
acc	-2460
▁treatment	-2461
▁copy	-2462
▁great	-2463
reng	-2464
▁ce	-2465
▁repe	-2466
lines	-2467
▁liber	-2468
▁environment	-2469
tion	-2470
▁Rec	-2471
▁termin	-2472
imate	-2473
▁fixed	-2474
ares	-2475
▁dom	-2476
▁acquired	-2477
▁operation	-2478
▁limited	-2479
opted	-2480
▁Cons	-2481
▁rent	-2482
▁change	-2483
११	-2484
▁Mukherjee	-2485
▁failed	-2486
▁caused	-2487
▁Appellate	-2488
▁plead	-2489
▁Ab	-2490
ases	-2491
earch	-2492
▁satisfied	-2493
▁trust	-2494
igating	-2495
▁production	-2496
ully	-2497
jection	-2498
▁emp	-2499
▁May	-2500
▁settled	-2501
▁wife	-2502
▁SLP	-2503
▁adopted	-2504
duled	-2505
▁request	-2506
rong	-2507
▁Ent	-2508
ugust	-2509
▁outs	-2510
lege	-2511
▁whom	-2512
▁national	-2513
▁executive	-2514
▁polit	-2515
’.	-2516
urrent	-2517
ats	-2518
alc	-2519
▁imm	-2520
▁away	-2521
▁Additional	-2522
▁students	-2523
▁Is	-2524
▁consp	-2525
▁recovery	-2526
hod	-2527
▁January	-2528
▁industrial	-2529
acher	-2530
racted	-2531
▁consent	-2532
▁consequ	-2533
▁prevent	-2534
▁category	-2535
cer	-2536
▁true	-2537
▁makes	-2538
▁website	-2539
▁arising	-2540
cember	-2541
▁defined	-2542
▁scope	-2543
ony	-2544
▁injuries	-2545
▁Sessions	-2546
imes	-2547
▁meeting	-2548
▁signific	-2549
▁nothing	-2550
▁Le	-2551
abour	-2552
▁Since	-2553
▁ut	-2554
int	-2555
▁elig	-2556
▁himself	-2557
ans	-2558
▁defence	-2559
▁remed	-2560
▁corpor	-2561
▁amended	-2562
▁related	-2563
ross	-2564
▁streng	-2565
▁dealt	-2566
▁commercial	-2567
▁Income	-2568
▁Information	-2569
▁Karn	-2570
▁seeking	-2571
▁difficult	-2572
airs	-2573
▁Pre	-2574
istrative	-2575
oor	-2576
fully	-2577
arch	-2578
▁ought	-2579
ators	-2580
▁instant	-2581
ataka	-2582
▁separate	-2583
▁posts	-2584
▁subs	-2585
▁determined	-2586
▁suggest	-2587
▁father	-2588
▁Expl	-2589
abor	-2590
▁resolution	-2591
urd	-2592
orts	-2593
▁arri	-2594
▁details	-2595
unt	-2596
▁unt	-2597
irt	-2598
▁capacity	-2599
▁sex	-2600
▁countries	-2601
ying	-2602
▁definition	-2603
IS	-2604
orne	-2605
▁conferred	-2606
acter	-2607
▁future	-2608
▁Whether	-2609
eb	-2610
▁determination	-2611
▁help	-2612
▁sing	-2613
▁claimed	-2614
▁urged	-2615
▁inquiry	-2616
ruit	-2617
▁lev	-2618
▁Regulations	-2619
war	-2620
▁pension	-2621
▁underst	-2622
▁stip	-2623
▁eff	-2624
▁bound	-2625
▁liberty	-2626
erg	-2627
▁substantial	-2628
▁once	-2629
ptember	-2630
▁findings	-2631
▁Pun	-2632
▁trad	-2633
▁applicant	-2634
▁window	-2635
anced	-2636
▁permission	-2637
▁minor	-2638
▁August	-2639
▁obtained	-2640
▁Articles	-2641
▁What	-2642
▁covered	-2643
▁PRES	-2644
▁Bi	-2645
▁Assembly	-2646
▁nam	-2647
▁Arbitr	-2648
▁Karnataka	-2649
adem	-2650
▁look	-2651
▁outside	-2652
AC	-2653
▁prim	-2654
▁executed	-2655
▁ran	-2656
▁wrong	-2657
▁cogniz	-2658
▁applications	-2659
▁quality	-2660
▁acts	-2661
▁permitted	-2662
▁performance	-2663
▁consult	-2664
▁decide	-2665
▁specifically	-2666
▁forward	-2667
▁Limited	-2668
▁nom	-2669
gether	-2670
▁contro	-2671
▁together	-2672
▁ul	-2673
▁later	-2674
▁December	-2675
▁appellate	-2676
▁Pat	-2677
ancell	-2678
ala	-2679
▁appear	-2680
ifications	-2681
▁guarant	-2682
rast	-2683
▁Ter	-2684
▁challenged	-2685
▁Right	-2686
cement	-2687
▁govern	-2688
▁method	-2689
▁argument	-2690
inate	-2691
ling	-2692
▁training	-2693
▁el	-2694
cise	-2695
ras	-2696
▁international	-2697
▁cover	-2698
▁integ	-2699
▁dispos	-2700
▁anything	-2701
▁promotion	-2702
uation	-2703
▁setting	-2704
▁assets	-2705
▁data	-2706
idelines	-2707
▁Second	-2708
iture	-2709
▁debt	-2710
▁illegal	-2711
▁Legislature	-2712
▁mo	-2713
uties	-2714
▁existence	-2715
▁vol	-2716
▁judge	-2717
▁cult	-2718
▁industry	-2719
wh	-2720
▁expect	-2721
▁convicted	-2722
▁exercised	-2723
▁contempl	-2724
IL	-2725
▁custody	-2726
iet	-2727
▁cross	-2728
▁includes	-2729
▁cho	-2730
itive	-2731
sh	-2732
▁judiciary	-2733
li	-2734
tax	-2735
00/-	-2736
▁character	-2737
nel	-2738
▁constituted	-2739
▁independent	-2740
▁validity	-2741
▁lar	-2742
▁absol	-2743
▁employment	-2744
▁next	-2745
▁group	-2746
▁title	-2747
▁limitation	-2748
▁violation	-2749
▁September	-2750
▁deals	-2751
▁resident	-2752
pr	-2753
jab	-2754
omes	-2755
urer	-2756
▁school	-2757
▁status	-2758
▁went	-2759
▁neither	-2760
▁fri	-2761
▁Sim	-2762
▁Im	-2763
SC	-2764
▁Cl	-2765
▁prosecut	-2766
▁examine	-2767
▁happ	-2768
▁injury	-2769
ource	-2770
lfare	-2771
▁phys	-2772
ifying	-2773
▁always	-2774
withstanding	-2775
▁statements	-2776
▁Edu	-2777
▁informed	-2778
▁entered	-2779
▁fit	-2780
IDENT	-2781
▁gl	-2782
▁Bar	-2783
iver	-2784
▁mult	-2785
clusive	-2786
pro	-2787
▁particularly	-2788
▁candidate	-2789
ote	-2790
ober	-2791
▁access	-2792
▁thereby	-2793
▁minimum	-2794
▁Senior	-2795
▁discussion	-2796
▁kept	-2797
ored	-2798
view	-2799
▁connect	-2800
▁selection	-2801
▁effective	-2802
▁regul	-2803
▁Mahar	-2804
▁exceed	-2805
io	-2806
▁dismiss	-2807
▁PRESIDENT	-2808
urred	-2809
▁drawn	-2810
▁never	-2811
▁supply	-2812
▁intended	-2813
▁plea	-2814
▁prove	-2815
▁requires	-2816
३०	-2817
irmed	-2818
▁disposed	-2819
ins	-2820
▁plant	-2821
▁duties	-2822
▁growth	-2823
▁relationship	-2824
▁still	-2825
▁content	-2826
agar	-2827
atures	-2828
▁measures	-2829
▁opens	-2830
ressed	-2831
▁Sab	-2832
aled	-2833
▁One	-2834
▁clar	-2835
▁included	-2836
▁instance	-2837
▁Trans	-2838
oms	-2839
▁Engine	-2840
▁crit	-2841
▁commence	-2842
▁deposit	-2843
▁Hence	-2844
▁revision	-2845
▁political	-2846
ubl	-2847
ruary	-2848
▁Admin	-2849
ebruary	-2850
▁hence	-2851
▁ill	-2852
▁July	-2853
▁face	-2854
RA	-2855
▁stay	-2856
▁materials	-2857
▁kind	-2858
aper	-2859
▁citizens	-2860
▁Punjab	-2861
▁rightly	-2862
EC	-2863
omp	-2864
iation	-2865
cient	-2866
▁absolute	-2867
▁Thereafter	-2868
▁connection	-2869
▁prepared	-2870
▁joint	-2871
▁steps	-2872
urrence	-2873
▁oblig	-2874
▁Regulation	-2875
aff	-2876
▁tenant	-2877
▁tribunal	-2878
▁ear	-2879
▁road	-2880
▁administration	-2881
▁properties	-2882
gal	-2883
▁play	-2884
▁presence	-2885
▁Pran	-2886
ctober	-2887
▁presum	-2888
erala	-2889
▁Chairman	-2890
▁vested	-2891
▁occup	-2892
▁rese	-2893
▁limit	-2894
▁territ	-2895
▁mor	-2896
▁merit	-2897
▁virt	-2898
▁mort	-2899
selves	-2900
iously	-2901
▁extend	-2902
▁Em	-2903
▁Def	-2904
▁Techn	-2905
▁default	-2906
▁interim	-2907
▁discharge	-2908
▁shown	-2909
mitting	-2910
▁guilty	-2911
▁community	-2912
▁shares	-2913
▁agricult	-2914
'.	-2915
▁Lord	-2916
▁agreed	-2917
usal	-2918
lu	-2919
▁approved	-2920
▁hospital	-2921
jar	-2922
men	-2923
▁lay	-2924
vent	-2925
adha	-2926
▁Sm	-2927
▁signed	-2928
▁experience	-2929
▁educ	-2930
rish	-2931
▁design	-2932
▁records	-2933
▁transferred	-2934
▁Kerala	-2935
.)	-2936
▁technical	-2937
▁prejud	-2938
▁proble	-2939
▁obl	-2940
▁disputes	-2941
change	-2942
▁Medical	-2943
▁transaction	-2944
amil	-2945
riev	-2946
▁sole	-2947
▁commit	-2948
▁Fore	-2949
▁redu	-2950
▁enacted	-2951
ously	-2952
EL	-2953
▁brother	-2954
▁democ	-2955
▁near	-2956
▁Nove	-2957
herein	-2958
▁November	-2959
▁assum	-2960
▁created	-2961
▁impos	-2962
▁Vs	-2963
▁Pranab	-2964
▁entry	-2965
▁June	-2966
▁least	-2967
▁February	-2968
▁immediately	-2969
accused	-2970
▁IND	-2971
▁aspects	-2972
▁lands	-2973
▁directly	-2974
▁Prin	-2975
▁discrimin	-2976
rix	-2977
lling	-2978
▁respective	-2979
▁single	-2980
▁publ	-2981
▁accident	-2982
▁distrib	-2983
▁turn	-2984
▁ren	-2985
▁side	-2986
alse	-2987
▁Explanation	-2988
▁requirements	-2989
rated	-2990
▁Invest	-2991
▁recommendations	-2992
▁ty	-2993
▁small	-2994
▁arise	-2995
▁quant	-2996
▁determine	-2997
rut	-2998
▁Assist	-2999
ists	-3000
cent	-3001
▁exem	-3002
▁Hind	-3003
▁Agree	-3004
▁address	-3005
ST	-3006
▁)	-3007
cell	-3008
▁balance	-3009
▁US	-3010
ern	-3011
▁emphas	-3012
ead	-3013
▁factors	-3014
be	-3015
ictions	-3016
▁judges	-3017
stituted	-3018
▁Fund	-3019
▁privacy	-3020
▁extended	-3021
▁passing	-3022
▁food	-3023
▁costs	-3024
iracy	-3025
▁October	-3026
▁hist	-3027
hereinafter	-3028
▁alia	-3029
▁Intern	-3030
▁So	-3031
ricity	-3032
▁writing	-3033
▁patient	-3034
▁merits	-3035
att	-3036
▁broad	-3037
▁Dep	-3038
▁Entry	-3039
▁adequ	-3040
▁village	-3041
oval	-3042
▁facilities	-3043
].	-3044
ali	-3045
▁unf	-3046
▁Lal	-3047
▁attempt	-3048
▁aggrieved	-3049
▁false	-3050
rastructure	-3051
▁deb	-3052
▁Counsel	-3053
mar	-3054
▁conver	-3055
▁technology	-3056
’,	-3057
▁concern	-3058
▁compliance	-3059
ched	-3060
sequently	-3061
▁Education	-3062
▁yet	-3063
iring	-3064
▁Moh	-3065
ingu	-3066
▁insp	-3067
▁error	-3068
▁Collect	-3069
▁deg	-3070
far	-3071
▁gain	-3072
▁crores	-3073
▁Similar	-3074
ane	-3075
ick	-3076
▁bid	-3077
▁Land	-3078
ulf	-3079
RI	-3080
▁Sha	-3081
unicip	-3082
▁reading	-3083
urder	-3084
▁alone	-3085
▁amend	-3086
▁permit	-3087
cle	-3088
operative	-3089
reat	-3090
▁purchase	-3091
▁able	-3092
▁commun	-3093
▁justified	-3094
urs	-3095
▁claims	-3096
▁preced	-3097
▁dign	-3098
▁guidelines	-3099
kar	-3100
▁dev	-3101
ograph	-3102
▁fresh	-3103
ani	-3104
▁conspiracy	-3105
▁adj	-3106
▁Sect	-3107
▁safe	-3108
manent	-3109
▁equal	-3110
▁admission	-3111
▁AN	-3112
▁article	-3113
▁contra	-3114
▁progress	-3115
▁Ins	-3116
▁Rep	-3117
▁allegations	-3118
▁fully	-3119
▁apart	-3120
▁charged	-3121
aging	-3122
▁arbitrator	-3123
▁IT	-3124
ademic	-3125
ocation	-3126
▁Lok	-3127
anj	-3128
▁depend	-3129
▁ey	-3130
▁CBI	-3131
ancies	-3132
now	-3133
▁Ac	-3134
▁murder	-3135
CT	-3136
uting	-3137
▁son	-3138
osure	-3139
▁cognizance	-3140
▁constitute	-3141
ental	-3142
▁sense	-3143
ems	-3144
erted	-3145
▁district	-3146
▁commencement	-3147
▁around	-3148
▁Sur	-3149
vement	-3150
▁majority	-3151
cience	-3152
kh	-3153
rine	-3154
enance	-3155
ison	-3156
▁Int	-3157
sofar	-3158
▁Speak	-3159
▁susp	-3160
bitral	-3161
▁structure	-3162
▁reit	-3163
▁warrant	-3164
adhaar	-3165
din	-3166
▁sk	-3167
▁Des	-3168
▁arran	-3169
▁becomes	-3170
.—	-3171
▁His	-3172
▁Elect	-3173
▁permissible	-3174
rade	-3175
aryana	-3176
▁interests	-3177
▁Maharashtra	-3178
adu	-3179
▁Services	-3180
▁Nar	-3181
External	-3182
▁Priv	-3183
itable	-3184
▁plot	-3185
▁self	-3186
▁importance	-3187
▁got	-3188
ches	-3189
▁Aadhaar	-3190
▁assistance	-3191
१२	-3192
▁net	-3193
▁too	-3194
▁tar	-3195
rid	-3196
▁bi	-3197
▁Shar	-3198
▁select	-3199
ulted	-3200
No	-3201
▁Tamil	-3202
▁Ann	-3203
enses	-3204
▁aver	-3205
,00	-3206
▁Ors	-3207
▁research	-3208
▁nation	-3209
ruitment	-3210
▁ado	-3211
using	-3212
▁Ra	-3213
ills	-3214
urned	-3215
▁standards	-3216
▁Per	-3217
▁duly	-3218
▁...	-3219
though	-3220
▁empow	-3221
rop	-3222
▁Agreement	-3223
ude	-3224
▁answer	-3225
▁Advocate	-3226
▁III	-3227
▁Trust	-3228
ordinate	-3229
▁Haryana	-3230
▁obligation	-3231
▁From	-3232
gar	-3233
▁eligible	-3234
▁led	-3235
▁speak	-3236
▁removal	-3237
▁implementation	-3238
▁enquiry	-3239
most	-3240
▁dead	-3241
▁Scheduled	-3242
▁failure	-3243
roup	-3244
▁few	-3245
▁Article	-3246
iting	-3247
enditure	-3248
▁educational	-3249
UR	-3250
lies	-3251
indu	-3252
▁continued	-3253
▁investment	-3254
▁div	-3255
▁Tra	-3256
▁arises	-3257
▁pop	-3258
achers	-3259
anchay	-3260
▁enj	-3261
▁fulf	-3262
▁asked	-3263
▁activity	-3264
▁bor	-3265
▁max	-3266
▁funds	-3267
▁discipl	-3268
▁proof	-3269
utation	-3270
AS	-3271
imately	-3272
atter	-3273
▁Collector	-3274
hra	-3275
▁significant	-3276
▁Exec	-3277
▁Amendment	-3278
jarat	-3279
pecial	-3280
▁attention	-3281
▁move	-3282
oad	-3283
pite	-3284
▁pot	-3285
▁Mo	-3286
▁religious	-3287
▁wee	-3288
----	-3289
▁ide	-3290
▁bind	-3291
▁Deputy	-3292
▁Having	-3293
▁parent	-3294
▁counter	-3295
▁mother	-3296
▁sold	-3297
▁Though	-3298
▁occurrence	-3299
In	-3300
▁old	-3301
ici	-3302
▁Off	-3303
▁Pra	-3304
▁initial	-3305
▁Any	-3306
▁reve	-3307
▁remedy	-3308
▁farm	-3309
▁wide	-3310
▁recovered	-3311
lled	-3312
▁enactment	-3313
▁Applic	-3314
▁International	-3315
▁adverse	-3316
▁Accordingly	-3317
▁cru	-3318
▁Territ	-3319
istrar	-3320
▁Utt	-3321
▁actual	-3322
▁likely	-3323
▁Society	-3324
The	-3325
▁firm	-3326
▁responsible	-3327
▁licence	-3328
Jud	-3329
ological	-3330
▁belie	-3331
▁Hindu	-3332
▁strong	-3333
▁deduction	-3334
▁concluded	-3335
ened	-3336
▁Governments	-3337
▁projects	-3338
▁cur	-3339
▁breach	-3340
▁agency	-3341
▁mach	-3342
▁retire	-3343
▁affected	-3344
▁department	-3345
▁Gujarat	-3346
cluding	-3347
ED	-3348
▁objection	-3349
orney	-3350
▁home	-3351
▁indicated	-3352
▁deposed	-3353
▁themselves	-3354
PA	-3355
▁Nadu	-3356
abilities	-3357
cri	-3358
▁submits	-3359
▁products	-3360
outh	-3361
▁advanced	-3362
▁Legislative	-3363
▁why	-3364
▁resources	-3365
▁identified	-3366
▁Sal	-3367
▁Sabha	-3368
▁United	-3369
▁univers	-3370
▁doctrine	-3371
ration	-3372
unicipal	-3373
augh	-3374
▁ult	-3375
▁whereas	-3376
▁volunt	-3377
rig	-3378
▁keeping	-3379
aintenance	-3380
▁added	-3381
▁want	-3382
▁fraud	-3383
▁portion	-3384
▁INDIA	-3385
▁Group	-3386
▁quot	-3387
▁increase	-3388
St	-3389
sy	-3390
▁pers	-3391
▁litigation	-3392
▁regulations	-3393
▁establishment	-3394
▁identity	-3395
▁amounts	-3396
▁doing	-3397
▁reported	-3398
▁close	-3399
▁aware	-3400
▁bearing	-3401
▁transport	-3402
▁detention	-3403
▁virtue	-3404
▁academic	-3405
▁Prosec	-3406
▁undertaking	-3407
▁More	-3408
atch	-3409
▁griev	-3410
▁frame	-3411
asth	-3412
▁Case	-3413
▁sexual	-3414
▁Assess	-3415
ival	-3416
▁physical	-3417
▁carrying	-3418
▁respectively	-3419
▁seek	-3420
▁Official	-3421
▁Sy	-3422
▁published	-3423
▁create	-3424
▁Institute	-3425
▁live	-3426
▁NO	-3427
▁sol	-3428
▁Ms	-3429
estic	-3430
▁defendants	-3431
▁Plan	-3432
ert	-3433
qual	-3434
▁PAR	-3435
▁renew	-3436
▁stands	-3437
rutin	-3438
▁Bihar	-3439
ysis	-3440
▁difference	-3441
▁acquittal	-3442
▁completed	-3443
▁times	-3444
▁insurance	-3445
▁CO	-3446
▁shows	-3447
▁disposal	-3448
▁denied	-3449
▁gave	-3450
▁factual	-3451
▁mandatory	-3452
▁Bengal	-3453
▁might	-3454
▁dignity	-3455
▁substance	-3456
▁Mah	-3457
▁going	-3458
▁During	-3459
▁expenditure	-3460
▁works	-3461
▁better	-3462
▁stating	-3463
▁religion	-3464
▁sections	-3465
▁mut	-3466
▁Assistant	-3467
▁think	-3468
▁enable	-3469
▁recommended	-3470
uri	-3471
,000	-3472
▁permanent	-3473
▁introduced	-3474
▁invok	-3475
▁util	-3476
▁void	-3477
▁Other	-3478
▁bod	-3479
▁prosecutrix	-3480
▁coming	-3481
▁proced	-3482
▁corporate	-3483
▁sheet	-3484
▁partn	-3485
actions	-3486
▁custom	-3487
▁somet	-3488
▁Att	-3489
amination	-3490
▁seniority	-3491
▁draw	-3492
ishes	-3493
▁Similarly	-3494
▁TA	-3495
▁Policy	-3496
▁adequate	-3497
▁discussed	-3498
▁interference	-3499
amb	-3500
▁administrative	-3501
▁nar	-3502
▁employer	-3503
portion	-3504
▁strict	-3505
▁consultation	-3506
▁Pen	-3507
▁quas	-3508
▁apparent	-3509
▁servant	-3510
▁accounts	-3511
ening	-3512
▁aim	-3513
▁testim	-3514
▁dest	-3515
▁advert	-3516
▁committee	-3517
lish	-3518
▁१	-3519
cted	-3520
▁infrastructure	-3521
▁repro	-3522
▁Registrar	-3523
▁mortg	-3524
lly	-3525
iable	-3526
▁Uttar	-3527
▁associ	-3528
▁contemplated	-3529
sc	-3530
vision	-3531
▁until	-3532
▁Ah	-3533
▁sl	-3534
rs	-3535
▁initiated	-3536
▁Association	-3537
▁clauses	-3538
alid	-3539
▁notified	-3540
▁daugh	-3541
bed	-3542
▁revenue	-3543
▁standard	-3544
▁incorpor	-3545
▁Companies	-3546
bor	-3547
icated	-3548
▁innov	-3549
erce	-3550
▁Rel	-3551
▁altern	-3552
asing	-3553
obal	-3554
▁viz	-3555
▁mechan	-3556
▁opined	-3557
▁Management	-3558
asthan	-3559
held	-3560
▁wholly	-3561
▁construed	-3562
aya	-3563
▁Ev	-3564
▁responsibility	-3565
▁advance	-3566
▁aid	-3567
▁enjoy	-3568
▁articles	-3569
▁ow	-3570
▁blood	-3571
▁views	-3572
▁confession	-3573
▁hands	-3574
▁told	-3575
▁proceeded	-3576
▁—	-3577
▁Centre	-3578
▁Finance	-3579
pective	-3580
▁English	-3581
▁supplied	-3582
sured	-3583
▁gone	-3584
▁Madras	-3585
amm	-3586
ror	-3587
▁arrange	-3588
▁sustain	-3589
▁Sharma	-3590
▁belonging	-3591
▁served	-3592
illion	-3593
▁welfare	-3594
▁connected	-3595
adi	-3596
▁marks	-3597
eng	-3598
▁impact	-3599
▁recording	-3600
ene	-3601
ellant	-3602
▁;	-3603
adre	-3604
▁excess	-3605
▁representation	-3606
unction	-3607
▁recruitment	-3608
▁woman	-3609
▁larger	-3610
▁recommendation	-3611
endency	-3612
▁interfere	-3613
ti	-3614
▁reservation	-3615
aching	-3616
▁Rights	-3617
▁percent	-3618
▁referring	-3619
▁Industrial	-3620
▁lod	-3621
▁scale	-3622
▁loan	-3623
▁pertaining	-3624
▁ign	-3625
▁offer	-3626
▁mineral	-3627
▁Form	-3628
▁PART	-3629
pecially	-3630
HA	-3631
▁reached	-3632
▁extracted	-3633
▁Insurance	-3634
▁Mis	-3635
▁seven	-3636
aster	-3637
spective	-3638
▁engaged	-3639
▁leading	-3640
▁individuals	-3641
▁conflic	-3642
▁maintenance	-3643
▁Executive	-3644
▁collected	-3645
▁determining	-3646
▁enh	-3647
▁distinction	-3648
ples	-3649
▁objective	-3650
▁burd	-3651
utions	-3652
▁plaintiffs	-3653
Judge	-3654
▁Panchay	-3655
▁Supp	-3656
▁cheque	-3657
irl	-3658
ouses	-3659
▁reports	-3660
▁prejudice	-3661
▁Princip	-3662
▁potential	-3663
▁Members	-3664
▁comes	-3665
▁arguments	-3666
▁granting	-3667
▁efforts	-3668
▁line	-3669
▁professional	-3670
state	-3671
▁units	-3672
ivery	-3673
▁Station	-3674
hai	-3675
▁scrutin	-3676
rug	-3677
atic	-3678
▁lack	-3679
uls	-3680
▁facilit	-3681
▁Penal	-3682
▁influ	-3683
▁takes	-3684
▁especially	-3685
▁facie	-3686
▁Revenue	-3687
oot	-3688
hest	-3689
IV	-3690
iti	-3691
irth	-3692
▁aud	-3693
overned	-3694
▁beg	-3695
▁page	-3696
▁wid	-3697
▁tele	-3698
CC	-3699
▁calc	-3700
▁Accused	-3701
▁governed	-3702
▁programme	-3703
pees	-3704
▁furnish	-3705
▁remo	-3706
▁explained	-3707
inery	-3708
▁levy	-3709
EM	-3710
uction	-3711
▁Before	-3712
▁liqu	-3713
▁detailed	-3714
▁wages	-3715
▁Rajasthan	-3716
▁Notification	-3717
▁communication	-3718
▁Air	-3719
▁parts	-3720
▁reflect	-3721
asm	-3722
▁motor	-3723
▁produce	-3724
▁Rail	-3725
▁emer	-3726
▁sentenced	-3727
▁Gand	-3728
▁Andhra	-3729
ET	-3730
osite	-3731
▁crore	-3732
▁Let	-3733
▁unit	-3734
▁binding	-3735
▁completion	-3736
rd	-3737
azet	-3738
▁amongst	-3739
ban	-3740
ott	-3741
▁stood	-3742
▁tried	-3743
▁started	-3744
▁suggested	-3745
▁settlement	-3746
▁meant	-3747
SI	-3748
gment	-3749
she	-3750
▁AP	-3751
laim	-3752
▁Hindi	-3753
▁Member	-3754
pta	-3755
▁safety	-3756
eness	-3757
);	-3758
▁corro	-3759
ateral	-3760
illing	-3761
▁asset	-3762
▁Ministers	-3763
▁explanation	-3764
▁achieve	-3765
▁convey	-3766
▁consequence	-3767
▁exemption	-3768
▁air	-3769
▁sell	-3770
▁contempt	-3771
▁Go	-3772
▁thereto	-3773
ivity	-3774
▁Madh	-3775
▁names	-3776
▁necessarily	-3777
▁lakhs	-3778
▁fire	-3779
▁render	-3780
ioned	-3781
▁avoid	-3782
▁advant	-3783
utor	-3784
▁coll	-3785
ground	-3786
ieties	-3787
▁testimony	-3788
▁vot	-3789
▁regards	-3790
▁expenses	-3791
▁Krish	-3792
▁indicate	-3793
▁deposited	-3794
▁quash	-3795
▁mess	-3796
ift	-3797
▁transactions	-3798
▁option	-3799
▁rates	-3800
▁vacancies	-3801
१३	-3802
clause	-3803
▁secured	-3804
▁situated	-3805
▁Ne	-3806
▁proposal	-3807
▁der	-3808
feren	-3809
holders	-3810
▁arrived	-3811
▁pursuant	-3812
clude	-3813
onoun	-3814
▁Ver	-3815
▁analysis	-3816
eech	-3817
▁dischar	-3818
▁Sol	-3819
▁prob	-3820
▁Power	-3821
▁evident	-3822
▁categories	-3823
▁search	-3824
▁remains	-3825
▁Sc	-3826
ovable	-3827
▁perusal	-3828
line	-3829
▁West	-3830
▁uncon	-3831
▁invalid	-3832
▁.,	-3833
person	-3834
▁envis	-3835
▁ris	-3836
▁past	-3837
▁coal	-3838
▁pronoun	-3839
▁wea	-3840
▁became	-3841
rief	-3842
▁supported	-3843
▁Arbitration	-3844
▁Super	-3845
▁gives	-3846
▁source	-3847
▁profession	-3848
▁retirement	-3849
▁using	-3850
▁join	-3851
▁banks	-3852
▁AND	-3853
pped	-3854
▁refund	-3855
▁cancell	-3856
▁undergo	-3857
▁controvers	-3858
▁developed	-3859
▁emb	-3860
▁Contract	-3861
▁Pur	-3862
▁depri	-3863
duction	-3864
tin	-3865
endant	-3866
▁expected	-3867
▁cash	-3868
▁reduced	-3869
▁Cer	-3870
▁maintained	-3871
ATION	-3872
urities	-3873
▁prayer	-3874
▁SE	-3875
▁obv	-3876
▁Bhar	-3877
▁neglig	-3878
▁obtaining	-3879
▁[(	-3880
rate	-3881
▁instead	-3882
▁arbitrary	-3883
▁burden	-3884
▁agricultural	-3885
onom	-3886
State	-3887
▁diss	-3888
▁employed	-3889
▁living	-3890
▁actually	-3891
▁upheld	-3892
▁principal	-3893
ables	-3894
▁disclosed	-3895
▁TO	-3896
▁Sar	-3897
▁buy	-3898
appellant	-3899
▁corrobor	-3900
▁delivery	-3901
▁forth	-3902
▁Technology	-3903
lord	-3904
▁places	-3905
▁prevail	-3906
idd	-3907
▁obtain	-3908
▁Account	-3909
olved	-3910
▁Home	-3911
▁rig	-3912
▁TADA	-3913
▁receive	-3914
▁retro	-3915
▁arrested	-3916
▁Gupta	-3917
▁sustained	-3918
▁seized	-3919
▁expiry	-3920
▁hon	-3921
▁red	-3922
▁example	-3923
▁programmes	-3924
inder	-3925
▁Prof	-3926
istic	-3927
▁strength	-3928
opal	-3929
itude	-3930
▁auction	-3931
▁visit	-3932
▁girl	-3933
▁attack	-3934
▁objections	-3935
ancing	-3936
▁reserved	-3937
▁ordin	-3938
aur	-3939
▁Our	-3940
CO	-3941
▁undertaken	-3942
▁men	-3943
▁summ	-3944
▁prima	-3945
▁Attorney	-3946
▁former	-3947
▁Hospital	-3948
▁cert	-3949
▁paragraphs	-3950
▁maximum	-3951
▁communic	-3952
umbai	-3953
ipur	-3954
▁site	-3955
▁Gandhi	-3956
▁rather	-3957
▁understood	-3958
▁Project	-3959
put	-3960
onst	-3961
▁Sri	-3962
▁investig	-3963
▁register	-3964
▁practices	-3965
',	-3966
ush	-3967
▁ascer	-3968
▁disqual	-3969
▁Mal	-3970
ression	-3971
▁citizen	-3972
▁salary	-3973
racy	-3974
▁unre	-3975
▁College	-3976
▁flow	-3977
▁rural	-3978
▁adopt	-3979
▁gener	-3980
▁School	-3981
▁convict	-3982
▁proposition	-3983
porary	-3984
▁Evidence	-3985
▁allotment	-3986
atio	-3987
▁Ph	-3988
AY	-3989
▁la	-3990
▁Bang	-3991
▁youn	-3992
III	-3993
▁despite	-3994
▁privile	-3995
▁SCR	-3996
mentioned	-3997
ousing	-3998
▁bodies	-3999
▁degree	-4000
▁exped	-4001
▁hard	-4002
▁Office	-4003
▁substantive	-4004
▁stri	-4005
▁workers	-4006
▁expressly	-4007
▁domestic	-4008
▁deciding	-4009
pto	-4010
▁generally	-4011
▁hy	-4012
cial	-4013
▁imper	-4014
▁Principal	-4015
▁ON	-4016
▁Mumbai	-4017
ji	-4018
▁CPC	-4019
▁borrow	-4020
▁expert	-4021
▁labour	-4022
iger	-4023
rises	-4024
▁scient	-4025
▁assigned	-4026
▁distingu	-4027
▁Ob	-4028
otel	-4029
ulate	-4030
▁spir	-4031
▁across	-4032
▁released	-4033
▁reiterated	-4034
uven	-4035
▁mil	-4036
▁Application	-4037
▁college	-4038
imal	-4039
▁lower	-4040
▁friend	-4041
▁teachers	-4042
▁controversy	-4043
▁energ	-4044
▁Cust	-4045
hood	-4046
▁profits	-4047
hind	-4048
▁forms	-4049
▁remaining	-4050
▁cut	-4051
respond	-4052
esides	-4053
asmuch	-4054
ranch	-4055
▁appointments	-4056
▁Officers	-4057
▁history	-4058
▁daughter	-4059
unities	-4060
▁Kh	-4061
▁ST	-4062
izing	-4063
elt	-4064
▁Do	-4065
▁Day	-4066
▁holder	-4067
▁whereby	-4068
.-	-4069
cription	-4070
▁Speaker	-4071
▁distribution	-4072
ship	-4073
▁equality	-4074
▁Har	-4075
encing	-4076
▁schemes	-4077
tection	-4078
▁distinct	-4079
▁Reference	-4080
▁ordinary	-4081
▁fif	-4082
icide	-4083
▁thought	-4084
▁stipulated	-4085
▁Cast	-4086
▁station	-4087
uate	-4088
▁Bal	-4089
▁annual	-4090
▁Some	-4091
▁room	-4092
▁injured	-4093
▁functioning	-4094
ann	-4095
▁demonst	-4096
▁disclosure	-4097
owry	-4098
▁termination	-4099
▁affairs	-4100
▁addressed	-4101
▁operations	-4102
▁Prog	-4103
▁extre	-4104
▁Municipal	-4105
▁strengthe	-4106
▁subsequently	-4107
esting	-4108
ousand	-4109
▁cadre	-4110
▁forest	-4111
▁rupees	-4112
▁shop	-4113
azette	-4114
▁extra	-4115
▁adjudication	-4116
aking	-4117
▁died	-4118
vironment	-4119
▁returned	-4120
▁Financial	-4121
▁furnished	-4122
,000/-	-4123
▁draft	-4124
▁threat	-4125
▁applies	-4126
▁Republic	-4127
▁suitable	-4128
▁bon	-4129
▁install	-4130
▁disputed	-4131
▁energy	-4132
▁limits	-4133
dom	-4134
▁eye	-4135
▁ali	-4136
▁dise	-4137
▁faith	-4138
▁highl	-4139
▁Labour	-4140
▁disability	-4141
▁alternative	-4142
▁satisfaction	-4143
▁elected	-4144
▁attrib	-4145
▁message	-4146
▁prescrib	-4147
▁possess	-4148
apers	-4149
▁compr	-4150
▁Person	-4151
▁recover	-4152
▁arbitral	-4153
▁reply	-4154
▁primary	-4155
▁amendments	-4156
▁oil	-4157
▁try	-4158
▁Aff	-4159
▁instructions	-4160
▁advantage	-4161
▁increased	-4162
▁recognized	-4163
▁sales	-4164
▁incons	-4165
exure	-4166
▁stru	-4167
▁Date	-4168
▁nomin	-4169
ception	-4170
▁population	-4171
▁presumption	-4172
MC	-4173
ponse	-4174
▁Stat	-4175
▁Ordin	-4176
▁choice	-4177
▁investigating	-4178
▁xx	-4179
▁purchas	-4180
ara	-4181
▁foc	-4182
▁errone	-4183
▁relates	-4184
▁ordered	-4185
▁machinery	-4186
mical	-4187
▁ratio	-4188
▁conclus	-4189
operation	-4190
▁described	-4191
▁afore	-4192
▁global	-4193
▁landlord	-4194
▁inconsist	-4195
▁enforcement	-4196
▁behind	-4197
rap	-4198
▁Red	-4199
dy	-4200
▁impose	-4201
AB	-4202
ades	-4203
ratic	-4204
PL	-4205
▁const	-4206
▁staff	-4207
▁normal	-4208
▁spirit	-4209
▁suffered	-4210
▁directing	-4211
▁completely	-4212
ederal	-4213
▁unable	-4214
▁consequences	-4215
▁encour	-4216
▁pendency	-4217
▁contentions	-4218
▁terror	-4219
orand	-4220
▁Control	-4221
herent	-4222
spector	-4223
▁operate	-4224
▁presented	-4225
▁independence	-4226
▁Both	-4227
▁Every	-4228
▁acquitted	-4229
▁extension	-4230
▁correspond	-4231
▁Bu	-4232
▁Environment	-4233
obile	-4234
▁finally	-4235
▁disciplinary	-4236
phasis	-4237
ferences	-4238
▁advice	-4239
ama	-4240
iss	-4241
▁alter	-4242
▁consequent	-4243
▁legit	-4244
▁upto	-4245
▁background	-4246
rain	-4247
▁measure	-4248
▁officials	-4249
▁Madhya	-4250
▁contribution	-4251
▁removed	-4252
▁corru	-4253
icate	-4254
▁fram	-4255
▁often	-4256
▁discuss	-4257
▁dismissal	-4258
▁obligations	-4259
▁spot	-4260
▁quite	-4261
▁greater	-4262
▁quashed	-4263
▁version	-4264
▁ing	-4265
▁attract	-4266
▁victims	-4267
▁inasmuch	-4268
▁Sw	-4269
▁mental	-4270
▁points	-4271
▁discrimination	-4272
▁oral	-4273
▁Award	-4274
▁regulation	-4275
▁Pe	-4276
▁compre	-4277
▁electricity	-4278
▁suffer	-4279
▁acceptance	-4280
▁Tiger	-4281
▁peace	-4282
▁Joint	-4283
▁contains	-4284
▁understand	-4285
alf	-4286
▁creditor	-4287
▁challenging	-4288
▁Head	-4289
▁economy	-4290
▁association	-4291
icit	-4292
▁Sat	-4293
ivered	-4294
▁Reason	-4295
▁origin	-4296
gn	-4297
eel	-4298
▁serve	-4299
▁release	-4300
▁Pal	-4301
▁Petitioner	-4302
▁restrictions	-4303
ager	-4304
▁norms	-4305
▁workmen	-4306
▁intent	-4307
▁Che	-4308
▁remained	-4309
ina	-4310
▁Sections	-4311
▁parents	-4312
▁birth	-4313
▁deliber	-4314
▁appeared	-4315
▁issuing	-4316
▁tot	-4317
ients	-4318
▁profit	-4319
▁temple	-4320
▁exception	-4321
ourses	-4322
▁manif	-4323
▁extreme	-4324
▁delivered	-4325
▁debtor	-4326
▁miscon	-4327
▁current	-4328
ream	-4329
▁Class	-4330
▁publication	-4331
▁multi	-4332
▁exercising	-4333
▁damages	-4334
▁confirmed	-4335
▁Smt	-4336
▁recent	-4337
▁recognised	-4338
▁identification	-4339
▁Li	-4340
▁assail	-4341
▁conflict	-4342
▁Prosecutor	-4343
▁response	-4344
▁UN	-4345
▁democracy	-4346
cious	-4347
▁promote	-4348
▁particulars	-4349
PS	-4350
hy	-4351
▁rise	-4352
isite	-4353
▁Ash	-4354
▁mortgage	-4355
▁things	-4356
▁subsid	-4357
▁commerce	-4358
▁governance	-4359
▁eas	-4360
▁Program	-4361
enty	-4362
▁Chandra	-4363
ME	-4364
dis	-4365
▁although	-4366
▁pursuance	-4367
▁CrPC	-4368
▁valu	-4369
▁allegation	-4370
▁da	-4371
▁press	-4372
orandum	-4373
▁inspection	-4374
▁values	-4375
▁lie	-4376
▁Inter	-4377
▁study	-4378
hens	-4379
▁Health	-4380
▁conven	-4381
▁issuance	-4382
▁protected	-4383
▁purchased	-4384
▁Nag	-4385
▁Pras	-4386
▁thousand	-4387
eria	-4388
hent	-4389
▁Human	-4390
set	-4391
▁pan	-4392
▁Gazette	-4393
▁mode	-4394
▁schedule	-4395
▁proportion	-4396
road	-4397
▁Can	-4398
▁exchange	-4399
▁classification	-4400
▁Notwithstanding	-4401
▁Prime	-4402
▁thing	-4403
▁offered	-4404
▁safegu	-4405
nother	-4406
ark	-4407
▁host	-4408
liminary	-4409
achal	-4410
▁Employ	-4411
▁Pet	-4412
▁events	-4413
▁claimant	-4414
▁injunction	-4415
olid	-4416
▁Mot	-4417
▁confidence	-4418
ply	-4419
yan	-4420
struction	-4421
let	-4422
▁Khan	-4423
partments	-4424
▁Agricult	-4425
▁bo	-4426
▁simple	-4427
▁mandate	-4428
१४	-4429
▁categor	-4430
▁wa	-4431
▁Another	-4432
▁Mus	-4433
▁dying	-4434
▁speech	-4435
▁incurred	-4436
▁Road	-4437
▁Assessing	-4438
▁Ja	-4439
▁pack	-4440
▁tend	-4441
▁Panchayat	-4442
▁manufacture	-4443
▁sil	-4444
▁enough	-4445
▁drug	-4446
▁caste	-4447
OS	-4448
PE	-4449
utta	-4450
▁hours	-4451
▁Constitutional	-4452
leges	-4453
▁reform	-4454
▁highest	-4455
▁Vice	-4456
▁elabor	-4457
▁export	-4458
▁changes	-4459
▁results	-4460
-0	-4461
vis	-4462
▁Research	-4463
▁Trib	-4464
▁equity	-4465
▁thereon	-4466
DR	-4467
▁young	-4468
▁confer	-4469
▁bag	-4470
▁worth	-4471
▁Directors	-4472
▁impart	-4473
▁notwithstanding	-4474
▁million	-4475
▁inherent	-4476
above	-4477
ilateral	-4478
stitutes	-4479
▁territory	-4480
▁voluntary	-4481
▁phot	-4482
▁tariff	-4483
inning	-4484
▁enhance	-4485
▁hereby	-4486
▁sw	-4487
/0	-4488
rog	-4489
ula	-4490
▁typ	-4491
▁Conf	-4492
▁fees	-4493
▁gains	-4494
AG	-4495
ront	-4496
▁low	-4497
▁acting	-4498
umer	-4499
▁deep	-4500
▁modern	-4501
ING	-4502
▁rape	-4503
▁problems	-4504
▁affirm	-4505
ayment	-4506
▁inserted	-4507
▁Paragraph	-4508
▁Sam	-4509
▁tri	-4510
pping	-4511
▁opportunities	-4512
duce	-4513
▁suits	-4514
ocates	-4515
▁achieved	-4516
CE	-4517
mittees	-4518
stitutional	-4519
▁recognition	-4520
▁empowered	-4521
▁situations	-4522
▁plaint	-4523
▁confirm	-4524
▁interested	-4525
orous	-4526
▁subordinate	-4527
▁acres	-4528
▁Moreover	-4529
MS	-4530
▁IV	-4531
▁falls	-4532
▁taxes	-4533
▁agencies	-4534
▁thereunder	-4535
▁understanding	-4536
App	-4537
appro	-4538
▁pred	-4539
▁effic	-4540
HI	-4541
▁involving	-4542
▁incorporated	-4543
▁problem	-4544
▁Election	-4545
iling	-4546
▁risk	-4547
▁insofar	-4548
▁CON	-4549
▁Organ	-4550
▁weeks	-4551
course	-4552
▁network	-4553
▁rever	-4554
▁creditors	-4555
▁po	-4556
▁lost	-4557
▁causing	-4558
▁excluded	-4559
▁guilt	-4560
▁prayed	-4561
▁equally	-4562
▁brief	-4563
▁owners	-4564
▁getting	-4565
▁environmental	-4566
▁region	-4567
ump	-4568
charge	-4569
while	-4570
▁hereinabove	-4571
NA	-4572
comp	-4573
▁Excise	-4574
▁Cor	-4575
anda	-4576
▁SEBI	-4577
▁requested	-4578
▁conclusions	-4579
▁partnership	-4580
▁indicates	-4581
▁ele	-4582
▁Circ	-4583
▁attached	-4584
uss	-4585
▁authorised	-4586
▁resulted	-4587
rown	-4588
▁Rao	-4589
▁Axad	-4590
▁Protection	-4591
▁agreements	-4592
▁representatives	-4593
▁grad	-4594
▁accomp	-4595
▁weight	-4596
▁allowing	-4597
▁feel	-4598
▁Private	-4599
▁contrad	-4600
▁transp	-4601
▁appreciate	-4602
▁suc	-4603
▁abuse	-4604
▁job	-4605
going	-4606
hibit	-4607
▁damage	-4608
▁restriction	-4609
▁Devi	-4610
▁Jain	-4611
▁doctor	-4612
▁Commercial	-4613
my	-4614
ourn	-4615
▁Jag	-4616
▁Excell	-4617
▁almost	-4618
▁lap	-4619
▁agent	-4620
irs	-4621
▁unn	-4622
▁Judic	-4623
▁prison	-4624
▁NE	-4625
▁San	-4626
▁fig	-4627
▁compon	-4628
respondent	-4629
▁Mod	-4630
▁eval	-4631
▁’	-4632
▁guaranteed	-4633
CA	-4634
iency	-4635
▁driver	-4636
▁Work	-4637
▁soon	-4638
bted	-4639
▁Mon	-4640
▁Once	-4641
▁formed	-4642
▁System	-4643
▁applying	-4644
▁assign	-4645
▁immovable	-4646
▁cited	-4647
▁Calc	-4648
▁letters	-4649
▁selected	-4650
▁quar	-4651
▁dowry	-4652
▁innoc	-4653
▁succeed	-4654
▁approached	-4655
ourth	-4656
utory	-4657
itness	-4658
▁factor	-4659
▁allotted	-4660
▁answered	-4661
▁maintainable	-4662
CL	-4663
▁renewal	-4664
rose	-4665
▁xxx	-4666
soever	-4667
▁books	-4668
▁industries	-4669
▁preliminary	-4670
▁refers	-4671
▁South	-4672
examination	-4673
▁possibility	-4674
▁card	-4675
ighted	-4676
▁Ahmed	-4677
quisition	-4678
▁confident	-4679
ape	-4680
▁levels	-4681
▁enforce	-4682
sheet	-4683
▁moved	-4684
▁interpreted	-4685
▁scrutiny	-4686
▁defici	-4687
▁handed	-4688
▁pleaded	-4689
ength	-4690
▁certainly	-4691
icies	-4692
▁arose	-4693
right	-4694
▁Nagar	-4695
▁Hy	-4696
▁formal	-4697
▁necessity	-4698
▁Far	-4699
▁mark	-4700
endent	-4701
▁fell	-4702
▁forum	-4703
▁falling	-4704
▁rou	-4705
▁prem	-4706
lead	-4707
habil	-4708
amy	-4709
endra	-4710
▁Para	-4711
▁owned	-4712
▁affirmed	-4713
▁correctness	-4714
▁intercourse	-4715
▁fide	-4716
▁Gur	-4717
eav	-4718
▁alt	-4719
▁vs	-4720
▁irre	-4721
ilities	-4722
▁comb	-4723
ronic	-4724
▁manifest	-4725
ada	-4726
▁board	-4727
▁entertain	-4728
▁absolutely	-4729
▁Post	-4730
enture	-4731
▁lodged	-4732
▁instituted	-4733
lack	-4734
▁Now	-4735
▁Memon	-4736
▁overr	-4737
▁authent	-4738
▁running	-4739
▁Forest	-4740
▁collection	-4741
▁participation	-4742
GC	-4743
▁central	-4744
▁Child	-4745
▁containing	-4746
▁AC	-4747
▁raise	-4748
▁Affairs	-4749
▁Calcutta	-4750
▁key	-4751
▁art	-4752
ique	-4753
well	-4754
lawful	-4755
▁truth	-4756
▁features	-4757
▁contracts	-4758
Am	-4759
▁Gov	-4760
▁Met	-4761
▁Kal	-4762
▁log	-4763
▁tender	-4764
▁Industries	-4765
pic	-4766
▁laun	-4767
▁adjust	-4768
▁actions	-4769
UL	-4770
▁Cap	-4771
▁heart	-4772
▁litig	-4773
▁claiming	-4774
▁ownership	-4775
PT	-4776
ensive	-4777
▁Territory	-4778
▁opt	-4779
▁endeav	-4780
▁systems	-4781
▁withdraw	-4782
tle	-4783
▁AS	-4784
▁vehicles	-4785
▁instrument	-4786
▁scientific	-4787
cast	-4788
▁length	-4789
▁subjected	-4790
▁none	-4791
▁analy	-4792
usiness	-4793
▁named	-4794
▁creation	-4795
▁properly	-4796
▁z	-4797
▁seiz	-4798
ka	-4799
▁seeks	-4800
▁improve	-4801
▁personnel	-4802
▁resulting	-4803
▁confessional	-4804
atever	-4805
▁observation	-4806
uter	-4807
▁accru	-4808
▁speed	-4809
aram	-4810
▁violence	-4811
wan	-4812
uity	-4813
▁early	-4814
▁cruel	-4815
ARD	-4816
▁fails	-4817
▁Judgment	-4818
RO	-4819
▁rein	-4820
uvenile	-4821
▁Design	-4822
▁residential	-4823
▁regarded	-4824
▁rigorous	-4825
inks	-4826
▁advocate	-4827
▁suffering	-4828
▁felt	-4829
position	-4830
▁Reserve	-4831
▁rational	-4832
know	-4833
▁subxad	-4834
▁circular	-4835
▁tradition	-4836
▁esc	-4837
prises	-4838
▁explain	-4839
ones	-4840
▁Char	-4841
vt	-4842
▁speaking	-4843
▁immediate	-4844
▁successful	-4845
▁PC	-4846
▁paper	-4847
▁requisite	-4848
▁consistent	-4849
ikh	-4850
▁latter	-4851
▁grievance	-4852
ij	-4853
ns	-4854
sue	-4855
▁gross	-4856
▁exclusive	-4857
▁violative	-4858
▁ordinarily	-4859
▁ambit	-4860
icating	-4861
▁examining	-4862
▁proc	-4863
▁Prasad	-4864
▁temporary	-4865
▁ultimately	-4866
▁imposition	-4867
asonable	-4868
▁Sa	-4869
▁Leave	-4870
osition	-4871
▁Inspector	-4872
▁imported	-4873
▁poor	-4874
▁sanctioned	-4875
▁pec	-4876
▁diver	-4877
orial	-4878
▁classes	-4879
aches	-4880
▁courses	-4881
▁estate	-4882
▁rank	-4883
▁secure	-4884
▁entrust	-4885
anger	-4886
▁Shah	-4887
▁residence	-4888
▁representative	-4889
De	-4890
rel	-4891
antly	-4892
▁strictly	-4893
▁pleadings	-4894
▁filled	-4895
▁Customs	-4896
▁reasoning	-4897
ilt	-4898
mir	-4899
▁half	-4900
▁assembly	-4901
undred	-4902
▁deserv	-4903
▁entity	-4904
▁parame	-4905
▁repeal	-4906
▁suicide	-4907
▁model	-4908
▁element	-4909
TE	-4910
▁plain	-4911
▁omission	-4912
▁cou	-4913
▁daily	-4914
oj	-4915
rep	-4916
yal	-4917
▁eviction	-4918
▁Certificate	-4919
▁),	-4920
elled	-4921
▁text	-4922
▁longer	-4923
▁farmers	-4924
▁really	-4925
▁policies	-4926
▁conducting	-4927
▁acted	-4928
▁deleg	-4929
▁irres	-4930
▁sam	-4931
oured	-4932
ales	-4933
usion	-4934
▁ever	-4935
icitor	-4936
▁Agg	-4937
▁objects	-4938
▁overall	-4939
▁Dec	-4940
▁guarantee	-4941
▁Parliamentary	-4942
wo	-4943
▁ed	-4944
▁ship	-4945
ervation	-4946
▁concurrent	-4947
▁substituted	-4948
▁lawy	-4949
ques	-4950
▁retired	-4951
▁criteria	-4952
▁nos	-4953
▁bear	-4954
▁facility	-4955
▁Arbitrator	-4956
▁Administrative	-4957
▁genu	-4958
▁promis	-4959
▁revised	-4960
▁confined	-4961
▁.[	-4962
▁Page	-4963
▁Will	-4964
▁defect	-4965
Ind	-4966
uent	-4967
▁processing	-4968
omen	-4969
▁patent	-4970
▁retrospective	-4971
▁compound	-4972
▁modified	-4973
▁link	-4974
▁barred	-4975
▁unlawful	-4976
▁alongwith	-4977
ller	-4978
▁Consequently	-4979
US	-4980
▁autom	-4981
▁remand	-4982
uge	-4983
▁mutual	-4984
▁comprom	-4985
▁envisaged	-4986
▁implemented	-4987
AD	-4988
▁Of	-4989
rity	-4990
▁considerations	-4991
▁conce	-4992
▁marked	-4993
▁manufacturing	-4994
▁withdrawn	-4995
AM	-4996
ulates	-4997
▁hereunder	-4998
▁whatsoever	-4999
ots	-5000
▁restra	-5001
▁Ordinance	-5002
▁purchaser	-5003
▁acknow	-5004
▁explos	-5005
▁located	-5006
▁indirect	-5007
aul	-5008
irty	-5009
amily	-5010
▁items	-5011
▁Superint	-5012
▁statutes	-5013
▁Dig	-5014
istan	-5015
▁eight	-5016
▁reach	-5017
eric	-5018
▁totally	-5019
▁conscious	-5020
▁qua	-5021
itary	-5022
▁legally	-5023
▁occurred	-5024
osing	-5025
ett	-5026
ishing	-5027
▁night	-5028
itoring	-5029
nam	-5030
▁Review	-5031
▁married	-5032
AA	-5033
▁surre	-5034
▁Convention	-5035
▁Pvt	-5036
atal	-5037
▁quoted	-5038
▁entries	-5039
uro	-5040
ayan	-5041
▁Acts	-5042
▁manufacturer	-5043
venth	-5044
amation	-5045
ishment	-5046
▁mechanism	-5047
▁Allah	-5048
▁negligence	-5049
▁something	-5050
):	-5051
ask	-5052
athe	-5053
▁check	-5054
▁refused	-5055
▁seizure	-5056
▁usu	-5057
▁lives	-5058
▁engine	-5059
▁democratic	-5060
▁reproduced	-5061
▁Ven	-5062
▁arms	-5063
▁prospect	-5064
▁operational	-5065
▁Laws	-5066
▁trib	-5067
hensive	-5068
▁summon	-5069
▁erroneous	-5070
Ch	-5071
▁Di	-5072
▁Ali	-5073
▁withdrawal	-5074
▁Dh	-5075
▁comply	-5076
▁Annexure	-5077
▁Kash	-5078
▁circumstance	-5079
een	-5080
▁Exchange	-5081
▁performed	-5082
▁parameters	-5083
▁Aud	-5084
▁distance	-5085
▁Aggrieved	-5086
kash	-5087
▁Respondents	-5088
avy	-5089
▁generation	-5090
▁sq	-5091
athi	-5092
▁payments	-5093
ricted	-5094
▁erred	-5095
▁exclusion	-5096
▁receiving	-5097
▁Build	-5098
▁Af	-5099
▁securities	-5100
bel	-5101
arth	-5102
lauses	-5103
ergency	-5104
▁framework	-5105
ports	-5106
▁dues	-5107
▁pain	-5108
▁indeed	-5109
▁insurer	-5110
havi	-5111
rule	-5112
minent	-5113
▁passage	-5114
▁contents	-5115
▁Excellency	-5116
▁poll	-5117
▁surv	-5118
urring	-5119
▁disclose	-5120
▁quashing	-5121
EP	-5122
ayuk	-5123
▁Water	-5124
▁seats	-5125
bur	-5126
eth	-5127
▁ingred	-5128
▁believe	-5129
▁Engineer	-5130
▁creating	-5131
▁standing	-5132
alg	-5133
▁intim	-5134
▁Acquisition	-5135
▁Ext	-5136
rees	-5137
▁base	-5138
▁inqu	-5139
▁twenty	-5140
▁associated	-5141
udh	-5142
▁worked	-5143
ae	-5144
▁sound	-5145
▁prohibition	-5146
dul	-5147
hend	-5148
▁willing	-5149
▁Universities	-5150
▁Full	-5151
▁stor	-5152
▁Bas	-5153
▁Dev	-5154
▁wish	-5155
regular	-5156
▁complied	-5157
▁SH	-5158
etings	-5159
▁influence	-5160
......	-5161
▁Reliance	-5162
inking	-5163
▁notes	-5164
▁struck	-5165
▁Rent	-5166
▁advertise	-5167
१५	-5168
’)	-5169
gest	-5170
oral	-5171
▁Shiv	-5172
▁driving	-5173
uous	-5174
prene	-5175
▁whatever	-5176
▁attracted	-5177
▁exceeding	-5178
.(	-5179
▁afford	-5180
▁satisfy	-5181
▁Solicitor	-5182
▁Non	-5183
Pro	-5184
▁pleas	-5185
achment	-5186
reprene	-5187
▁Allahabad	-5188
grad	-5189
▁recall	-5190
▁qualification	-5191
▁cul	-5192
isting	-5193
▁capable	-5194
including	-5195
▁ensuring	-5196
▁arrangement	-5197
▁dele	-5198
▁team	-5199
▁harass	-5200
▁channel	-5201
▁Goa	-5202
▁bond	-5203
▁equip	-5204
▁complaints	-5205
phold	-5206
▁grave	-5207
▁levied	-5208
▁admissible	-5209
▁clarified	-5210
▁wishes	-5211
▁concerning	-5212
essel	-5213
▁King	-5214
▁uns	-5215
▁Assam	-5216
▁increasing	-5217
fe	-5218
▁MCI	-5219
▁type	-5220
▁causes	-5221
iform	-5222
▁divor	-5223
▁allocation	-5224
▁Electricity	-5225
▁exists	-5226
▁sister	-5227
leb	-5228
hanced	-5229
▁bench	-5230
▁seems	-5231
▁compuls	-5232
▁Aust	-5233
▁Muslim	-5234
▁attend	-5235
▁objectives	-5236
▁availability	-5237
▁rare	-5238
▁Defendant	-5239
▁else	-5240
▁Business	-5241
▁Foreign	-5242
▁framing	-5243
▁strateg	-5244
▁Appellants	-5245
▁recon	-5246
haviour	-5247
▁liquid	-5248
▁Insofar	-5249
▁equival	-5250
▁Statement	-5251
▁Bhag	-5252
▁seat	-5253
▁Programme	-5254
▁jun	-5255
▁assessed	-5256
▁procedural	-5257
▁prohibited	-5258
▁integrity	-5259
habilitation	-5260
vency	-5261
▁belief	-5262
▁compar	-5263
▁sustainable	-5264
ita	-5265
author	-5266
▁defines	-5267
▁consumers	-5268
▁Abdul	-5269
▁groups	-5270
▁partly	-5271
▁discharged	-5272
▁involvement	-5273
▁MS	-5274
▁Sign	-5275
▁enum	-5276
▁uphold	-5277
▁Prom	-5278
▁contend	-5279
▁relying	-5280
onn	-5281
▁legitimate	-5282
▁bul	-5283
▁colleges	-5284
▁learning	-5285
▁contractor	-5286
▁BC	-5287
▁Up	-5288
compl	-5289
▁Suit	-5290
▁media	-5291
▁listed	-5292
▁Plaintiff	-5293
▁competence	-5294
ga	-5295
▁tal	-5296
▁Deed	-5297
▁Dist	-5298
▁needed	-5299
▁Vol	-5300
▁sens	-5301
▁disease	-5302
▁consumer	-5303
▁significance	-5304
▁Ed	-5305
▁My	-5306
UN	-5307
▁iron	-5308
▁active	-5309
ibilities	-5310
ibly	-5311
▁Also	-5312
▁Interest	-5313
▁PS	-5314
▁br	-5315
▁pros	-5316
▁committing	-5317
uc	-5318
▁Small	-5319
▁complex	-5320
RE	-5321
▁Proper	-5322
▁England	-5323
▁enhanced	-5324
just	-5325
▁Anr	-5326
▁Pand	-5327
antial	-5328
orship	-5329
▁Mohan	-5330
olvency	-5331
▁remove	-5332
▁superior	-5333
▁repealed	-5334
▁justification	-5335
pet	-5336
▁Tri	-5337
alore	-5338
ey	-5339
▁mag	-5340
▁repla	-5341
▁distur	-5342
▁schools	-5343
▁sitting	-5344
pper	-5345
▁lib	-5346
▁survey	-5347
▁positive	-5348
▁manufactured	-5349
▁Investigating	-5350
.[	-5351
▁session	-5352
free	-5353
▁relative	-5354
▁North	-5355
▁foundation	-5356
▁grat	-5357
▁Apart	-5358
▁simply	-5359
▁inconsistent	-5360
▁vest	-5361
▁vital	-5362
iar	-5363
etent	-5364
▁Brit	-5365
▁medic	-5366
▁Railway	-5367
▁showing	-5368
▁quantity	-5369
wa	-5370
▁Are	-5371
▁huge	-5372
▁deliver	-5373
▁separately	-5374
▁cooperation	-5375
▁Family	-5376
▁papers	-5377
▁bringing	-5378
ocks	-5379
orse	-5380
▁Legal	-5381
▁doctors	-5382
pex	-5383
where	-5384
▁danger	-5385
▁conform	-5386
from	-5387
▁Ant	-5388
▁verification	-5389
ERS	-5390
ols	-5391
▁AT	-5392
levant	-5393
▁founded	-5394
▁restrict	-5395
▁allowance	-5396
arh	-5397
iment	-5398
▁prop	-5399
▁irrespective	-5400
▁qualifications	-5401
teen	-5402
▁friendly	-5403
▁chargeable	-5404
iles	-5405
▁cong	-5406
▁aforementioned	-5407
cond	-5408
▁DNA	-5409
▁hundred	-5410
▁procedures	-5411
▁transportation	-5412
▁valuable	-5413
iy	-5414
▁Americ	-5415
▁facilitate	-5416
oice	-5417
redit	-5418
▁Third	-5419
▁Vis	-5420
ertion	-5421
▁imposing	-5422
▁commenced	-5423
▁percentage	-5424
ommod	-5425
udence	-5426
▁buildings	-5427
requ	-5428
▁efficient	-5429
nai	-5430
▁Id	-5431
anas	-5432
▁acquire	-5433
▁Recovery	-5434
▁Bl	-5435
▁cm	-5436
▁dil	-5437
▁fem	-5438
▁minerals	-5439
oubted	-5440
tinent	-5441
paration	-5442
▁autonom	-5443
▁greetings	-5444
▁applicability	-5445
lar	-5446
▁Ret	-5447
organ	-5448
itations	-5449
,—	-5450
ulty	-5451
▁beginning	-5452
▁motive	-5453
▁changed	-5454
▁throughout	-5455
▁constructed	-5456
dh	-5457
istics	-5458
▁annum	-5459
▁prices	-5460
▁useful	-5461
▁sectors	-5462
▁contravention	-5463
▁squ	-5464
▁factory	-5465
▁effectively	-5466
arc	-5467
igil	-5468
▁mal	-5469
▁Transport	-5470
▁enumerated	-5471
▁Roh	-5472
▁uniform	-5473
▁entrusted	-5474
ammu	-5475
oses	-5476
▁Arun	-5477
▁normally	-5478
RT	-5479
▁misconduct	-5480
OC	-5481
raft	-5482
▁amb	-5483
▁core	-5484
▁declare	-5485
▁initially	-5486
▁operating	-5487
gy	-5488
▁viti	-5489
▁mobile	-5490
▁primarily	-5491
▁Army	-5492
▁Pension	-5493
▁awarding	-5494
▁irregular	-5495
rears	-5496
▁Trade	-5497
rigation	-5498
▁consequential	-5499
ami	-5500
▁mit	-5501
▁gold	-5502
▁rail	-5503
▁vessel	-5504
▁inference	-5505
▁appreciation	-5506
▁harmon	-5507
▁regulate	-5508
ev	-5509
▁Castes	-5510
▁Jammu	-5511
▁challenges	-5512
ley	-5513
aren	-5514
comm	-5515
▁Vill	-5516
▁earn	-5517
▁wound	-5518
▁Constit	-5519
▁unreasonable	-5520
▁Val	-5521
▁cast	-5522
▁calculated	-5523
▁rival	-5524
▁People	-5525
▁Besides	-5526
▁holders	-5527
▁Regional	-5528
▁continues	-5529
erate	-5530
▁target	-5531
▁Kashmir	-5532
▁quantum	-5533
▁eligibility	-5534
irms	-5535
▁vend	-5536
▁contact	-5537
▁qualified	-5538
bid	-5539
hon	-5540
▁raising	-5541
▁governing	-5542
verse	-5543
▁lies	-5544
▁Welfare	-5545
▁authorized	-5546
▁supplement	-5547
anging	-5548
▁estim	-5549
▁comprehensive	-5550
Rs	-5551
lax	-5552
▁famil	-5553
▁resol	-5554
▁Training	-5555
▁restricted	-5556
▁Registration	-5557
▁Again	-5558
▁culture	-5559
BS	-5560
asw	-5561
▁types	-5562
ometric	-5563
▁requiring	-5564
isc	-5565
▁Him	-5566
▁Mand	-5567
▁highlighted	-5568
▁Superintendent	-5569
abled	-5570
▁incl	-5571
▁happy	-5572
▁thirty	-5573
--------	-5574
ancellor	-5575
▁operative	-5576
▁deposition	-5577
▁organization	-5578
ifies	-5579
▁top	-5580
lease	-5581
ported	-5582
▁antic	-5583
▁space	-5584
▁meetings	-5585
body	-5586
▁city	-5587
itally	-5588
▁sources	-5589
isen	-5590
abling	-5591
▁Banks	-5592
▁Sector	-5593
▁movement	-5594
▁equivalent	-5595
bts	-5596
▁lac	-5597
▁little	-5598
▁corresponding	-5599
Os	-5600
▁Disp	-5601
▁says	-5602
▁ready	-5603
▁ruled	-5604
▁asserted	-5605
▁bad	-5606
prise	-5607
oubtedly	-5608
▁save	-5609
▁amalg	-5610
▁guard	-5611
▁invoked	-5612
▁accommod	-5613
▁entirely	-5614
▁Conference	-5615
co	-5616
vity	-5617
▁gas	-5618
reet	-5619
▁organiz	-5620
▁anticip	-5621
lex	-5622
rist	-5623
▁commod	-5624
MP	-5625
osh	-5626
rance	-5627
▁load	-5628
▁focus	-5629
▁cultiv	-5630
▁inflic	-5631
rency	-5632
▁definite	-5633
▁repeated	-5634
▁pure	-5635
▁storage	-5636
▁interven	-5637
▁Bangalore	-5638
ume	-5639
ung	-5640
▁CR	-5641
▁crop	-5642
▁Resolution	-5643
▁RBI	-5644
OL	-5645
▁saw	-5646
▁struct	-5647
▁cruelty	-5648
akf	-5649
issa	-5650
▁Inf	-5651
icing	-5652
▁heirs	-5653
▁unfair	-5654
▁license	-5655
▁questioned	-5656
▁null	-5657
▁banking	-5658
overe	-5659
▁Dhar	-5660
▁Year	-5661
▁task	-5662
▁cultural	-5663
▁accepting	-5664
▁soft	-5665
▁holds	-5666
▁newsp	-5667
▁exclus	-5668
▁Two	-5669
othes	-5670
▁pertinent	-5671
▁fear	-5672
▁stock	-5673
▁consumption	-5674
▁di	-5675
▁tenure	-5676
▁extract	-5677
▁obviously	-5678
uel	-5679
anied	-5680
▁Chen	-5681
▁Territories	-5682
▁initiatives	-5683
▁hear	-5684
employ	-5685
istrator	-5686
▁Capital	-5687
Amendment	-5688
▁substantially	-5689
.....	-5690
▁Compl	-5691
▁clean	-5692
▁histor	-5693
▁Meh	-5694
▁audit	-5695
▁reduce	-5696
▁elections	-5697
▁Ge	-5698
emed	-5699
▁marg	-5700
▁identify	-5701
rah	-5702
▁Rajya	-5703
▁vires	-5704
adav	-5705
▁Pak	-5706
▁exc	-5707
▁City	-5708
▁arisen	-5709
hibition	-5710
▁partition	-5711
▁conversion	-5712
ians	-5713
inet	-5714
▁Kar	-5715
▁supra	-5716
▁dealer	-5717
CR	-5718
mort	-5719
▁bona	-5720
ategory	-5721
derabad	-5722
▁excise	-5723
▁emphasis	-5724
▁Enter	-5725
stituting	-5726
▁Selection	-5727
VE	-5728
ugg	-5729
▁Chh	-5730
▁unnecess	-5731
▁sentences	-5732
▁week	-5733
holder	-5734
▁motion	-5735
▁applicants	-5736
enth	-5737
ites	-5738
▁urban	-5739
▁crucial	-5740
For	-5741
aug	-5742
oned	-5743
▁Their	-5744
▁fields	-5745
▁Austral	-5746
▁Ur	-5747
▁VI	-5748
▁Kol	-5749
▁You	-5750
▁cri	-5751
▁inclined	-5752
▁Designated	-5753
▁innovation	-5754
▁accompanied	-5755
AI	-5756
▁foot	-5757
▁aggreg	-5758
▁borrower	-5759
▁participated	-5760
ulating	-5761
▁developing	-5762
▁Engineering	-5763
▁distinguished	-5764
▁Sun	-5765
estion	-5766
mination	-5767
▁Committees	-5768
▁agriculture	-5769
ja	-5770
▁cy	-5771
▁warm	-5772
▁ultimate	-5773
▁privilege	-5774
▁compromise	-5775
▁hom	-5776
▁late	-5777
ayukta	-5778
▁arrears	-5779
▁Das	-5780
▁Govt	-5781
▁Manager	-5782
▁Session	-5783
▁Dem	-5784
▁mist	-5785
▁chemical	-5786
sees	-5787
▁Bab	-5788
▁sem	-5789
▁harm	-5790
▁Bharat	-5791
▁Prakash	-5792
▁Maj	-5793
▁dr	-5794
omin	-5795
▁block	-5796
▁relax	-5797
▁consisting	-5798
▁Food	-5799
▁felic	-5800
▁taxation	-5801
nan	-5802
head	-5803
itan	-5804
HAN	-5805
wari	-5806
▁average	-5807
BC	-5808
UD	-5809
sub	-5810
utt	-5811
▁NG	-5812
sych	-5813
▁send	-5814
▁pregn	-5815
▁touch	-5816
▁servants	-5817
▁don	-5818
▁prefer	-5819
▁Security	-5820
▁universities	-5821
▁borne	-5822
▁paying	-5823
▁monthly	-5824
▁prosper	-5825
▁photograph	-5826
FT	-5827
▁PM	-5828
▁Gre	-5829
▁Mohd	-5830
▁tort	-5831
▁domain	-5832
▁British	-5833
ena	-5834
vas	-5835
▁anim	-5836
▁vote	-5837
▁finds	-5838
▁stake	-5839
▁Orissa	-5840
▁Hyderabad	-5841
jit	-5842
oti	-5843
▁Mit	-5844
▁paras	-5845
▁Tribes	-5846
▁weapons	-5847
▁nomination	-5848
▁regulatory	-5849
▁documentary	-5850
▁Est	-5851
▁Consid	-5852
▁planning	-5853
mn	-5854
rav	-5855
▁Unit	-5856
▁acceptable	-5857
▁Administration	-5858
▁size	-5859
▁liter	-5860
▁largest	-5861
▁goes	-5862
▁dates	-5863
▁effort	-5864
▁justify	-5865
oke	-5866
▁sure	-5867
▁front	-5868
ologies	-5869
▁offender	-5870
▁Kam	-5871
▁defe	-5872
▁Stand	-5873
ciation	-5874
▁enabling	-5875
▁clearance	-5876
▁cancellation	-5877
▁Ve	-5878
aves	-5879
bhai	-5880
otion	-5881
▁involves	-5882
▁concerns	-5883
▁identical	-5884
alli	-5885
orrect	-5886
▁Market	-5887
▁Subject	-5888
▁opposed	-5889
ependence	-5890
▁beneficial	-5891
▁chain	-5892
▁offices	-5893
inger	-5894
▁gets	-5895
▁genuine	-5896
▁negative	-5897
cons	-5898
▁Imp	-5899
▁flat	-5900
▁dismissing	-5901
ortun	-5902
haust	-5903
vance	-5904
▁fast	-5905
▁Econom	-5906
▁science	-5907
▁ingredients	-5908
▁Pan	-5909
amount	-5910
▁numbers	-5911
▁entreprene	-5912
ESS	-5913
iche	-5914
▁methods	-5915
▁occupation	-5916
▁suspension	-5917
▁description	-5918
▁represented	-5919
esty	-5920
▁input	-5921
▁copies	-5922
▁Village	-5923
▁reasonably	-5924
▁underlying	-5925
▁maintaining	-5926
▁insured	-5927
adh	-5928
khand	-5929
▁licen	-5930
▁Appeals	-5931
▁RI	-5932
sing	-5933
▁ban	-5934
▁nut	-5935
▁spread	-5936
An	-5937
icro	-5938
▁reb	-5939
mortem	-5940
▁Houses	-5941
▁multip	-5942
▁foregoing	-5943
▁electronic	-5944
▁Ans	-5945
▁Ashok	-5946
▁Based	-5947
▁Credit	-5948
▁divorce	-5949
▁experts	-5950
▁notices	-5951
▁harassment	-5952
SCC	-5953
▁rejection	-5954
▁Dub	-5955
▁NCT	-5956
▁Net	-5957
▁external	-5958
▁correctly	-5959
▁CA	-5960
ocal	-5961
▁seed	-5962
▁workman	-5963
▁highly	-5964
▁Try	-5965
cture	-5966
gress	-5967
▁Claim	-5968
▁computing	-5969
kata	-5970
ureau	-5971
▁Chennai	-5972
▁invited	-5973
UM	-5974
▁Reddy	-5975
▁round	-5976
▁honour	-5977
▁centres	-5978
ini	-5979
▁१६	-5980
ially	-5981
▁Survey	-5982
▁Sum	-5983
▁gun	-5984
onsid	-5985
▁BCCI	-5986
▁vision	-5987
lam	-5988
garh	-5989
▁cry	-5990
igarh	-5991
order	-5992
▁ascertain	-5993
ili	-5994
▁Port	-5995
essees	-5996
▁abroad	-5997
▁relate	-5998
▁sovere	-5999
▁precedent	-6000
▁scheduled	-6001
rab	-6002
▁Aut	-6003
▁Her	-6004
▁Rav	-6005
▁Sah	-6006
▁hotel	-6007
uration	-6008
▁mainly	-6009
▁commitment	-6010
▁participate	-6011
etary	-6012
▁inside	-6013
▁Arbitral	-6014
▁proceeds	-6015
bal	-6016
▁rap	-6017
▁hope	-6018
▁undue	-6019
▁Krishna	-6020
▁carefully	-6021
Em	-6022
▁illust	-6023
▁exhaust	-6024
▁forwarded	-6025
TH	-6026
▁signature	-6027
▁designated	-6028
▁crops	-6029
▁unique	-6030
▁depends	-6031
▁comprising	-6032
▁DEL	-6033
▁cart	-6034
olition	-6035
▁Category	-6036
▁violated	-6037
▁Your	-6038
▁lying	-6039
▁Digitally	-6040
▁Art	-6041
▁cal	-6042
▁ment	-6043
aneous	-6044
▁jurispr	-6045
▁Himachal	-6046
▁conclude	-6047
▁teaching	-6048
▁collective	-6049
▁perspective	-6050
▁idea	-6051
▁Being	-6052
▁Found	-6053
▁explo	-6054
▁Notice	-6055
▁subjects	-6056
▁allegedly	-6057
whe	-6058
roller	-6059
▁theory	-6060
▁extremely	-6061
▁appointing	-6062
▁organisation	-6063
LA	-6064
aks	-6065
tains	-6066
▁square	-6067
resident	-6068
▁Chairperson	-6069
▁Note	-6070
▁Stud	-6071
▁memo	-6072
▁rect	-6073
▁destro	-6074
▁partner	-6075
▁depending	-6076
mi	-6077
▁God	-6078
▁anti	-6079
eeping	-6080
▁absor	-6081
▁weapon	-6082
▁preceding	-6083
▁continuing	-6084
rew	-6085
▁Ca	-6086
laws	-6087
▁ant	-6088
▁vag	-6089
▁Yadav	-6090
General	-6091
▁wealth	-6092
▁implied	-6093
▁morality	-6094
▁Ay	-6095
ders	-6096
▁obs	-6097
▁Marriage	-6098
▁processes	-6099
▁female	-6100
▁propri	-6101
▁dispose	-6102
▁ignored	-6103
▁specify	-6104
▁biometric	-6105
▁incorrect	-6106
▁admittedly	-6107
▁suggestion	-6108
▁Add	-6109
▁denial	-6110
▁Transfer	-6111
▁continuous	-6112
upon	-6113
▁Exp	-6114
▁shif	-6115
▁implead	-6116
▁suggestions	-6117
yam	-6118
ankar	-6119
oring	-6120
▁interf	-6121
▁shared	-6122
▁advertisement	-6123
▁opening	-6124
▁exclusively	-6125
▁limitations	-6126
pal	-6127
▁Equ	-6128
adequ	-6129
▁armed	-6130
▁Reform	-6131
▁Science	-6132
▁Managing	-6133
▁certified	-6134
▁Authorities	-6135
▁internal	-6136
ila	-6137
▁IS	-6138
▁weak	-6139
▁range	-6140
▁obvious	-6141
▁Verified	-6142
▁Tem	-6143
▁moral	-6144
▁opened	-6145
.00	-6146
▁PE	-6147
▁Force	-6148
▁Rural	-6149
▁Although	-6150
▁promoted	-6151
haps	-6152
which	-6153
▁lays	-6154
▁story	-6155
▁friends	-6156
▁purview	-6157
▁Property	-6158
▁attained	-6159
▁emergency	-6160
▁interpreting	-6161
See	-6162
▁ability	-6163
▁acknowled	-6164
Con	-6165
▁IST	-6166
enders	-6167
▁calls	-6168
oration	-6169
▁Others	-6170
▁laying	-6171
▁vacancy	-6172
owed	-6173
uality	-6174
▁Branch	-6175
▁regional	-6176
oul	-6177
▁Vid	-6178
▁colour	-6179
▁imposs	-6180
▁tenancy	-6181
▁reconsid	-6182
▁informant	-6183
▁authentication	-6184
bh	-6185
rand	-6186
Civil	-6187
▁Kish	-6188
▁burn	-6189
▁formula	-6190
▁inclusive	-6191
▁outstanding	-6192
RC	-6193
▁alien	-6194
▁divid	-6195
▁Social	-6196
▁Exhibit	-6197
▁improvement	-6198
DS	-6199
off	-6200
▁lif	-6201
monial	-6202
▁reduction	-6203
▁consequently	-6204
▁considerable	-6205
▁Issue	-6206
atically	-6207
▁landing	-6208
▁deserves	-6209
Comp	-6210
▁NEW	-6211
▁Sanj	-6212
overty	-6213
▁excell	-6214
▁growing	-6215
▁Pakistan	-6216
▁Engineers	-6217
▁UGC	-6218
isable	-6219
▁celeb	-6220
▁Clauses	-6221
▁perused	-6222
▁efficiency	-6223
▁imperative	-6224
ails	-6225
aling	-6226
▁adduced	-6227
▁infring	-6228
▁corporation	-6229
▁Crime	-6230
▁compared	-6231
▁villages	-6232
▁essentially	-6233
gone	-6234
▁World	-6235
▁floor	-6236
▁nominated	-6237
▁controlled	-6238
▁incidental	-6239
▁rehabilitation	-6240
ni	-6241
ora	-6242
▁stayed	-6243
▁computer	-6244
▁revealed	-6245
▁Chandigarh	-6246
urt	-6247
writ	-6248
▁Vij	-6249
▁suspic	-6250
▁travel	-6251
▁placing	-6252
▁fulfilled	-6253
▁indul	-6254
▁feature	-6255
▁studies	-6256
▁currency	-6257
chol	-6258
▁PWs	-6259
▁black	-6260
▁awards	-6261
▁narrow	-6262
▁adverted	-6263
▁consists	-6264
▁pleasure	-6265
▁priority	-6266
▁rejecting	-6267
▁plants	-6268
▁bilateral	-6269
def	-6270
inem	-6271
▁Out	-6272
▁equitable	-6273
▁undertake	-6274
▁modification	-6275
ushan	-6276
enable	-6277
othing	-6278
▁Women	-6279
▁plans	-6280
▁spite	-6281
▁liabilities	-6282
aksh	-6283
leum	-6284
oles	-6285
ellig	-6286
▁deprived	-6287
▁integral	-6288
ATE	-6289
mun	-6290
▁cum	-6291
ruits	-6292
▁closed	-6293
▁advised	-6294
▁preparation	-6295
▁Oper	-6296
▁blast	-6297
▁entities	-6298
ney	-6299
isted	-6300
rapali	-6301
▁Awards	-6302
▁launched	-6303
▁Jay	-6304
▁mix	-6305
▁Common	-6306
▁Corpor	-6307
▁congrat	-6308
▁families	-6309
ching	-6310
▁Defence	-6311
tificates	-6312
▁Standing	-6313
▁construct	-6314
▁Constituent	-6315
▁establishing	-6316
opp	-6317
▁Op	-6318
▁VII	-6319
▁yield	-6320
▁corrupt	-6321
▁liberal	-6322
ected	-6323
▁ends	-6324
▁feed	-6325
▁forfe	-6326
▁Speaking	-6327
▁innocent	-6328
▁unauthor	-6329
▁formulated	-6330
▁felicitations	-6331
▁lab	-6332
▁Euro	-6333
Un	-6334
riages	-6335
▁crimes	-6336
▁moment	-6337
▁perpet	-6338
▁deposits	-6339
▁investors	-6340
▁tests	-6341
▁Follow	-6342
▁Object	-6343
▁orient	-6344
▁relatives	-6345
▁societies	-6346
izes	-6347
▁Amrapali	-6348
Ad	-6349
osen	-6350
▁faculty	-6351
play	-6352
▁Var	-6353
▁soil	-6354
ensation	-6355
▁variety	-6356
▁Tribunals	-6357
iece	-6358
▁FOR	-6359
orily	-6360
▁admit	-6361
▁incent	-6362
▁Consumer	-6363
more	-6364
▁Each	-6365
▁implication	-6366
▁Gh	-6367
▁leases	-6368
▁vacant	-6369
AIR	-6370
▁Tar	-6371
▁hab	-6372
nov	-6373
raf	-6374
inqu	-6375
▁Kaur	-6376
▁ultra	-6377
▁stages	-6378
▁expedit	-6379
▁fixing	-6380
▁compulsory	-6381
EF	-6382
ows	-6383
vere	-6384
▁loans	-6385
▁leaving	-6386
▁permits	-6387
▁Railways	-6388
▁observing	-6389
▁Jhar	-6390
▁built	-6391
▁stamp	-6392
▁similarly	-6393
▁casual	-6394
▁wanted	-6395
▁reliable	-6396
kn	-6397
mal	-6398
▁Vin	-6399
▁scen	-6400
roleum	-6401
▁adult	-6402
▁decades	-6403
▁aggregate	-6404
orn	-6405
appa	-6406
ropol	-6407
▁Gopal	-6408
▁batch	-6409
▁declined	-6410
clear	-6411
unior	-6412
▁town	-6413
public	-6414
▁Money	-6415
▁designed	-6416
▁qualifying	-6417
▁undergone	-6418
▁prevailing	-6419
▁prosperity	-6420
▁discriminatory	-6421
xx	-6422
▁oath	-6423
▁uses	-6424
▁royal	-6425
▁sides	-6426
▁unnecessary	-6427
▁Ro	-6428
▁Revision	-6429
▁effected	-6430
▁empowers	-6431
▁Institutions	-6432
▁code	-6433
elling	-6434
irable	-6435
▁Consult	-6436
▁Planning	-6437
▁shareholders	-6438
ichever	-6439
▁surrender	-6440
▁membership	-6441
▁departmental	-6442
uck	-6443
▁ge	-6444
▁eth	-6445
chand	-6446
▁bomb	-6447
abinet	-6448
▁visited	-6449
mp	-6450
▁neigh	-6451
▁chosen	-6452
▁dishon	-6453
▁resort	-6454
like	-6455
▁liquor	-6456
▁terminated	-6457
TS	-6458
▁NI	-6459
ghal	-6460
▁Car	-6461
▁backward	-6462
▁relevance	-6463
▁valuation	-6464
▁institutional	-6465
▁notifications	-6466
▁East	-6467
▁DELHI	-6468
▁derived	-6469
Reg	-6470
▁Jam	-6471
▁Hotel	-6472
▁buyers	-6473
▁solely	-6474
▁federal	-6475
ilos	-6476
▁deeds	-6477
▁lines	-6478
▁persu	-6479
▁Secondly	-6480
▁Judicature	-6481
NG	-6482
▁Sale	-6483
▁cell	-6484
igilance	-6485
judicial	-6486
▁Circular	-6487
▁organized	-6488
ze	-6489
▁Patna	-6490
emphasis	-6491
▁communicated	-6492
SL	-6493
enant	-6494
▁brok	-6495
▁socio	-6496
▁essence	-6497
▁punished	-6498
velled	-6499
▁collabor	-6500
▁entertained	-6501
▁GO	-6502
uddin	-6503
▁mass	-6504
arency	-6505
apur	-6506
▁mus	-6507
▁Only	-6508
▁Vish	-6509
▁Annual	-6510
▁behaviour	-6511
▁terrorist	-6512
▁whichever	-6513
▁sentencing	-6514
awan	-6515
icus	-6516
▁river	-6517
▁exclude	-6518
Su	-6519
▁Roy	-6520
▁housing	-6521
▁Societies	-6522
▁Memorandum	-6523
rase	-6524
▁Conc	-6525
▁leads	-6526
▁exempt	-6527
▁jointly	-6528
▁Following	-6529
▁representing	-6530
▁circumstantial	-6531
,0	-6532
ulatory	-6533
▁tenants	-6534
▁treating	-6535
▁Signature	-6536
▁Foundation	-6537
▁Prevention	-6538
MENT	-6539
lets	-6540
▁choose	-6541
▁caution	-6542
▁inadequ	-6543
▁opposite	-6544
▁partners	-6545
▁indirectly	-6546
▁dig	-6547
▁Seventh	-6548
plaintiff	-6549
▁multiple	-6550
▁categorically	-6551
uti	-6552
ilosop	-6553
▁fault	-6554
▁anyone	-6555
▁houses	-6556
▁enables	-6557
▁affidavits	-6558
aman	-6559
▁cog	-6560
onance	-6561
▁trading	-6562
▁safeguard	-6563
▁).	-6564
▁entering	-6565
▁judicata	-6566
car	-6567
▁jail	-6568
▁announ	-6569
▁lawful	-6570
▁Federal	-6571
▁AM	-6572
▁MO	-6573
▁Nath	-6574
actory	-6575
▁joined	-6576
assion	-6577
▁reveals	-6578
▁suspect	-6579
look	-6580
▁enqu	-6581
▁gift	-6582
▁Persons	-6583
▁superann	-6584
oo	-6585
hana	-6586
▁alloc	-6587
▁expand	-6588
▁Sin	-6589
aneously	-6590
ropolitan	-6591
▁corroborated	-6592
amus	-6593
▁Div	-6594
anasia	-6595
▁panel	-6596
▁plots	-6597
▁Europe	-6598
▁premium	-6599
uthanasia	-6600
▁difficulty	-6601
▁jurisprudence	-6602
▁reliefs	-6603
▁endeavour	-6604
▁equipment	-6605
TA	-6606
Res	-6607
▁Bud	-6608
ducing	-6609
▁firms	-6610
▁multipl	-6611
▁serving	-6612
lad	-6613
erous	-6614
▁psych	-6615
▁observe	-6616
▁Agriculture	-6617
▁Advis	-6618
▁exact	-6619
▁deficiencies	-6620
▁Gang	-6621
▁nine	-6622
▁rich	-6623
▁teleph	-6624
▁involve	-6625
▁precise	-6626
▁recourse	-6627
▁customers	-6628
▁expressions	-6629
▁prospective	-6630
▁ND	-6631
▁AIC	-6632
▁bags	-6633
▁quota	-6634
▁smugg	-6635
iveness	-6636
▁played	-6637
▁series	-6638
▁minority	-6639
▁proposals	-6640
▁Sales	-6641
▁animal	-6642
▁finger	-6643
▁outset	-6644
▁intervention	-6645
ulter	-6646
urate	-6647
uniary	-6648
▁ideas	-6649
▁finality	-6650
▁originally	-6651
▁investments	-6652
isp	-6653
▁nu	-6654
cont	-6655
▁Lie	-6656
nergy	-6657
▁Nations	-6658
▁Jharkhand	-6659
▁IC	-6660
▁Vik	-6661
ruption	-6662
▁allott	-6663
▁lessee	-6664
rimonial	-6665
▁encourage	-6666
▁interview	-6667
▁eventually	-6668
▁impossible	-6669
▁monitoring	-6670
ario	-6671
▁Its	-6672
▁sac	-6673
▁Here	-6674
▁aged	-6675
▁aims	-6676
ceived	-6677
▁forces	-6678
▁Mission	-6679
▁promoting	-6680
▁organizations	-6681
▁EC	-6682
▁NJ	-6683
▁tonn	-6684
▁Dubai	-6685
▁Ident	-6686
▁summons	-6687
▁patients	-6688
MM	-6689
▁mercy	-6690
stwhile	-6691
▁cancelled	-6692
▁Gl	-6693
arsh	-6694
▁Dal	-6695
agers	-6696
▁depre	-6697
▁transl	-6698
▁minutes	-6699
statement	-6700
▁Congress	-6701
▁contractual	-6702
ida	-6703
▁Verma	-6704
▁saying	-6705
▁corruption	-6706
▁practition	-6707
oming	-6708
itated	-6709
inations	-6710
▁Mineral	-6711
▁assault	-6712
▁consonance	-6713
▁enterprise	-6714
dd	-6715
▁residing	-6716
▁reflected	-6717
▁dim	-6718
worth	-6719
▁sets	-6720
rolment	-6721
▁disturb	-6722
▁irrigation	-6723
iration	-6724
▁Kolkata	-6725
▁animals	-6726
▁customs	-6727
▁autonomy	-6728
▁juvenile	-6729
▁turnover	-6730
▁assessing	-6731
▁je	-6732
▁Saf	-6733
▁box	-6734
▁urg	-6735
icket	-6736
▁erstwhile	-6737
▁admissions	-6738
▁Sir	-6739
abric	-6740
▁camp	-6741
utable	-6742
▁Bureau	-6743
▁neighb	-6744
▁traffic	-6745
▁directors	-6746
▁transform	-6747
▁departments	-6748
no	-6749
▁speedy	-6750
olidated	-6751
▁big	-6752
▁Mines	-6753
rations	-6754
▁resign	-6755
▁exceptional	-6756
va	-6757
▁vers	-6758
closed	-6759
ournal	-6760
▁Confessional	-6761
iddle	-6762
▁fuel	-6763
▁Exper	-6764
▁drugs	-6765
endants	-6766
sections	-6767
▁territorial	-6768
▁territories	-6769
inked	-6770
▁item	-6771
ressal	-6772
▁PWxad	-6773
▁Master	-6774
▁centre	-6775
▁(“	-6776
ement	-6777
earing	-6778
▁Appro	-6779
▁Lordship	-6780
▁pressure	-6781
being	-6782
ridge	-6783
▁roads	-6784
▁route	-6785
utenant	-6786
▁looked	-6787
▁location	-6788
▁residents	-6789
▁engineering	-6790
▁Forum	-6791
▁encro	-6792
▁lapse	-6793
▁worship	-6794
▁software	-6795
▁marketing	-6796
▁appreciated	-6797
.]	-6798
▁ded	-6799
▁approx	-6800
▁desire	-6801
▁Housing	-6802
▁Technical	-6803
▁awareness	-6804
▁inclusion	-6805
▁presently	-6806
▁parliament	-6807
▁traditional	-6808
▁Mu	-6809
otal	-6810
▁Inc	-6811
▁Neh	-6812
ertil	-6813
▁fort	-6814
▁usually	-6815
▁regulating	-6816
▁competitive	-6817
▁introduction	-6818
▁Apex	-6819
▁milk	-6820
▁ammun	-6821
▁heavy	-6822
▁learn	-6823
atively	-6824
▁inaug	-6825
▁Estate	-6826
▁adoption	-6827
▁enforced	-6828
▁seriously	-6829
▁sometimes	-6830
▁safeguards	-6831
▁Considering	-6832
DC	-6833
EE	-6834
aji	-6835
▁raw	-6836
burse	-6837
▁arch	-6838
▁vary	-6839
▁buyer	-6840
▁critical	-6841
rupt	-6842
▁Pay	-6843
amble	-6844
igher	-6845
▁elim	-6846
aut	-6847
▁How	-6848
▁phone	-6849
▁unjust	-6850
▁inspect	-6851
▁Lieutenant	-6852
▁constitutes	-6853
uit	-6854
▁divers	-6855
anguages	-6856
▁transfere	-6857
▁Regulatory	-6858
LR	-6859
▁Kan	-6860
▁Mun	-6861
▁hit	-6862
▁Afric	-6863
▁piece	-6864
▁youth	-6865
hension	-6866
▁careful	-6867
pers	-6868
▁Like	-6869
▁NJAC	-6870
▁spect	-6871
ettlement	-6872
▁Economic	-6873
▁Competent	-6874
▁component	-6875
▁contesting	-6876
▁Then	-6877
▁male	-6878
owners	-6879
Emphasis	-6880
▁Bhushan	-6881
▁occasions	-6882
▁allowances	-6883
▁km	-6884
power	-6885
▁Urban	-6886
▁voting	-6887
▁demands	-6888
▁wrongly	-6889
raj	-6890
known	-6891
▁AICTE	-6892
▁Innov	-6893
▁poverty	-6894
▁kg	-6895
▁advocates	-6896
▁converted	-6897
▁enhancement	-6898
ets	-6899
▁१७	-6900
eshwar	-6901
▁summar	-6902
▁comment	-6903
▁implementing	-6904
Cr	-6905
▁culp	-6906
▁waste	-6907
▁winding	-6908
▁Petitions	-6909
IM	-6910
▁ways	-6911
▁Nehru	-6912
▁assumed	-6913
▁creates	-6914
▁computed	-6915
▁estimated	-6916
▁Nor	-6917
▁Moham	-6918
▁thinks	-6919
▁pattern	-6920
▁Building	-6921
▁enactments	-6922
▁boy	-6923
▁fifteen	-6924
▁hostile	-6925
▁attended	-6926
▁division	-6927
▁wherever	-6928
▁forthwith	-6929
NL	-6930
rif	-6931
▁bed	-6932
▁Cabinet	-6933
▁calling	-6934
Ar	-6935
DI	-6936
▁heads	-6937
▁whenever	-6938
▁averments	-6939
▁pollution	-6940
▁performing	-6941
▁Enterprises	-6942
▁--	-6943
iman	-6944
▁rad	-6945
▁Sinha	-6946
▁imped	-6947
▁fraudul	-6948
▁respond	-6949
PR	-6950
gi	-6951
▁scene	-6952
▁Reforms	-6953
▁filling	-6954
▁districts	-6955
▁appearance	-6956
▁strengthen	-6957
loc	-6958
ster	-6959
▁draf	-6960
aterial	-6961
▁elements	-6962
▁retained	-6963
▁Advocates	-6964
▁arrangements	-6965
▁Fl	-6966
▁lat	-6967
otton	-6968
▁Upon	-6969
▁earth	-6970
▁competition	-6971
▁Fac	-6972
ustain	-6973
iciaries	-6974
▁Keeping	-6975
▁accorded	-6976
inter	-6977
▁fill	-6978
ounded	-6979
▁Paper	-6980
▁affecting	-6981
▁rendering	-6982
▁permitting	-6983
rum	-6984
▁Sant	-6985
ifiable	-6986
▁arrive	-6987
▁memorandum	-6988
ima	-6989
▁Oil	-6990
▁Data	-6991
isations	-6992
▁execute	-6993
▁cognizable	-6994
▁wis	-6995
▁bill	-6996
▁posted	-6997
▁lawyers	-6998
▁licensee	-6999
▁evaluation	-7000
▁contributions	-7001
athy	-7002
▁Gram	-7003
▁pages	-7004
▁depart	-7005
▁turned	-7006
▁juncture	-7007
▁achieving	-7008
▁university	-7009
▁confirmation	-7010
pat	-7011
ompl	-7012
▁brib	-7013
▁faced	-7014
▁sanct	-7015
▁Temple	-7016
▁medium	-7017
▁clothes	-7018
▁discrep	-7019
eck	-7020
▁Na	-7021
life	-7022
▁Christ	-7023
ordinary	-7024
▁regulated	-7025
▁initiative	-7026
▁Agricultural	-7027
▁:-	-7028
▁CJ	-7029
athan	-7030
▁acre	-7031
ariness	-7032
▁altered	-7033
▁perhaps	-7034
▁mitigating	-7035
▁succession	-7036
▁acid	-7037
▁dict	-7038
idance	-7039
▁conscience	-7040
amma	-7041
India	-7042
▁destroy	-7043
▁Language	-7044
▁dependent	-7045
RD	-7046
vol	-7047
▁NIT	-7048
▁Ibid	-7049
▁Party	-7050
▁Maruti	-7051
▁existed	-7052
▁Metropolitan	-7053
ming	-7054
▁Ban	-7055
▁hrs	-7056
▁born	-7057
▁sons	-7058
▁killed	-7059
▁besides	-7060
ariat	-7061
▁veget	-7062
▁looking	-7063
▁summary	-7064
▁Pune	-7065
▁wise	-7066
▁fabric	-7067
▁royalty	-7068
▁surround	-7069
▁Administrator	-7070
ler	-7071
▁figures	-7072
▁happened	-7073
aters	-7074
ellect	-7075
▁fourth	-7076
▁simult	-7077
▁empower	-7078
▁resource	-7079
▁separation	-7080
▁certificates	-7081
▁technologies	-7082
▁superannuation	-7083
▁Motor	-7084
▁schol	-7085
▁severe	-7086
▁irrelevant	-7087
▁matrimonial	-7088
ava	-7089
mer	-7090
▁Exh	-7091
▁Steel	-7092
▁sa	-7093
etic	-7094
atform	-7095
▁aimed	-7096
▁conformity	-7097
OP	-7098
▁NS	-7099
icity	-7100
▁path	-7101
Company	-7102
▁leaders	-7103
▁legality	-7104
▁claimants	-7105
▁stipulates	-7106
▁Investigation	-7107
▁UK	-7108
▁scenario	-7109
▁convention	-7110
HER	-7111
chief	-7112
▁cogent	-7113
▁restored	-7114
▁declaring	-7115
▁purported	-7116
erved	-7117
▁stop	-7118
▁annex	-7119
▁leaves	-7120
▁Controller	-7121
▁illegality	-7122
iest	-7123
load	-7124
ndra	-7125
▁See	-7126
essor	-7127
akrish	-7128
▁alive	-7129
▁fifty	-7130
▁viewed	-7131
▁assailed	-7132
▁reversed	-7133
▁accommodation	-7134
bar	-7135
Appe	-7136
▁century	-7137
▁Industry	-7138
▁philosop	-7139
▁supporting	-7140
▁beneficiaries	-7141
atur	-7142
▁Son	-7143
▁Over	-7144
▁cere	-7145
▁incap	-7146
▁Higher	-7147
▁considers	-7148
▁substitute	-7149
▁undoubtedly	-7150
LE	-7151
iah	-7152
time	-7153
▁Just	-7154
▁subscrib	-7155
▁household	-7156
▁Investment	-7157
▁components	-7158
▁interfered	-7159
▁revisional	-7160
▁Det	-7161
▁Sik	-7162
▁asp	-7163
ranches	-7164
▁Cooperative	-7165
FC	-7166
da	-7167
▁rul	-7168
ansion	-7169
▁deduct	-7170
▁doubts	-7171
▁fulfil	-7172
▁presumed	-7173
astern	-7174
▁offers	-7175
▁eminent	-7176
ictionary	-7177
▁institute	-7178
▁furnishing	-7179
▁privileges	-7180
vii	-7181
▁BS	-7182
endix	-7183
▁enun	-7184
rition	-7185
Section	-7186
▁phrase	-7187
▁Lokayukta	-7188
PP	-7189
van	-7190
▁gap	-7191
▁Grant	-7192
▁fairly	-7193
▁nearly	-7194
▁promise	-7195
▁anticipatory	-7196
face	-7197
▁xad	-7198
▁stra	-7199
▁wisdom	-7200
▁substanti	-7201
▁entrepreneurs	-7202
Act	-7203
▁MC	-7204
▁nexus	-7205
▁Sanjay	-7206
▁returns	-7207
▁amending	-7208
▁improper	-7209
▁vitiated	-7210
▁CC	-7211
▁anc	-7212
posit	-7213
rench	-7214
▁Audit	-7215
▁contest	-7216
▁sharing	-7217
▁invoking	-7218
▁insolvency	-7219
▁communities	-7220
▁transparency	-7221
yl	-7222
plus	-7223
▁conj	-7224
▁seem	-7225
▁Privy	-7226
▁nations	-7227
ordination	-7228
cum	-7229
era	-7230
drop	-7231
▁Gen	-7232
thern	-7233
active	-7234
▁ancient	-7235
▁evolved	-7236
▁compassion	-7237
▁preference	-7238
▁discharging	-7239
%.	-7240
▁goal	-7241
lihood	-7242
▁confers	-7243
▁expired	-7244
▁Assessment	-7245
▁discussions	-7246
▁SU	-7247
▁hes	-7248
▁grand	-7249
iliation	-7250
▁endorse	-7251
▁demanded	-7252
▁highlight	-7253
rin	-7254
▁AD	-7255
▁Num	-7256
▁Ten	-7257
▁cease	-7258
.......	-7259
▁Agency	-7260
▁attempts	-7261
▁Employees	-7262
▁investigate	-7263
dar	-7264
▁door	-7265
herry	-7266
▁spent	-7267
▁remote	-7268
▁prescribe	-7269
▁Petitioners	-7270
uestion	-7271
witness	-7272
▁refusal	-7273
▁pecuniary	-7274
▁remission	-7275
▁Deb	-7276
▁Ref	-7277
stant	-7278
ysore	-7279
▁green	-7280
▁Chancellor	-7281
▁Jaipur	-7282
▁retail	-7283
▁stream	-7284
▁handling	-7285
▁indicating	-7286
▁pronounced	-7287
▁transferee	-7288
bu	-7289
apped	-7290
▁perf	-7291
▁resolved	-7292
▁assumption	-7293
fall	-7294
ussain	-7295
▁mistake	-7296
▁AW	-7297
mary	-7298
eries	-7299
▁Good	-7300
▁frequ	-7301
▁chance	-7302
▁gender	-7303
▁retain	-7304
▁contends	-7305
▁euthanasia	-7306
▁requisition	-7307
▁SA	-7308
▁experi	-7309
▁taxable	-7310
▁venture	-7311
▁Disputes	-7312
UT	-7313
alled	-7314
itect	-7315
▁Tele	-7316
▁throw	-7317
▁Energy	-7318
▁purely	-7319
▁Process	-7320
▁Teachers	-7321
▁subxadsection	-7322
has	-7323
▁MP	-7324
▁MW	-7325
akar	-7326
▁MSME	-7327
▁Mere	-7328
▁securing	-7329
▁Principles	-7330
▁concession	-7331
/-.	-7332
oted	-7333
▁tour	-7334
▁changing	-7335
ustainable	-7336
bir	-7337
▁intr	-7338
▁Patent	-7339
▁dispro	-7340
▁hardly	-7341
▁titled	-7342
▁teacher	-7343
▁improving	-7344
▁computation	-7345
idn	-7346
itage	-7347
lands	-7348
▁Prat	-7349
▁remar	-7350
oly	-7351
care	-7352
▁Thak	-7353
▁obsc	-7354
applic	-7355
vation	-7356
▁stran	-7357
▁branch	-7358
▁cheques	-7359
▁morning	-7360
▁obliged	-7361
▁broadcast	-7362
▁extending	-7363
▁conclusive	-7364
▁demonstrate	-7365
▁Anil	-7366
▁wage	-7367
▁Three	-7368
▁chart	-7369
▁deten	-7370
ghalaya	-7371
▁lesser	-7372
▁Despite	-7373
▁voluntarily	-7374
SS	-7375
opy	-7376
para	-7377
▁lad	-7378
▁Vijay	-7379
▁strike	-7380
▁drawing	-7381
▁omitted	-7382
▁initiate	-7383
▁platform	-7384
▁depreciation	-7385
▁establishments	-7386
▁Nav	-7387
▁film	-7388
▁kill	-7389
▁debate	-7390
▁accompl	-7391
▁historical	-7392
▁constituting	-7393
roc	-7394
▁PO	-7395
▁ore	-7396
ridges	-7397
▁bills	-7398
▁wider	-7399
▁client	-7400
▁Nothing	-7401
▁outcome	-7402
▁protest	-7403
TC	-7404
▁Anand	-7405
▁kinds	-7406
▁minds	-7407
ribution	-7408
▁Inquiry	-7409
▁discard	-7410
▁remedies	-7411
▁Cle	-7412
▁user	-7413
▁street	-7414
▁prepare	-7415
▁selling	-7416
▁occurring	-7417
▁therewith	-7418
▁emphasized	-7419
▁Mehta	-7420
▁table	-7421
▁believed	-7422
▁confidential	-7423
▁installation	-7424
▁impermissible	-7425
hr	-7426
ains	-7427
▁incon	-7428
▁Independence	-7429
▁legislations	-7430
EB	-7431
ded	-7432
olic	-7433
▁dro	-7434
▁Associ	-7435
▁ticket	-7436
omination	-7437
▁practical	-7438
MA	-7439
▁MB	-7440
▁lot	-7441
▁capt	-7442
▁love	-7443
▁China	-7444
emption	-7445
▁aggrav	-7446
▁adulter	-7447
▁Secondary	-7448
▁CHA	-7449
▁Test	-7450
▁Purch	-7451
▁critic	-7452
emn	-7453
▁hoc	-7454
▁Reasons	-7455
▁effects	-7456
▁heading	-7457
▁stakeholders	-7458
▁accrued	-7459
▁display	-7460
▁American	-7461
▁duration	-7462
▁reaching	-7463
▁composition	-7464
▁club	-7465
▁pist	-7466
▁domin	-7467
certain	-7468
laration	-7469
▁student	-7470
▁constitu	-7471
▁disabilities	-7472
ba	-7473
cks	-7474
uliar	-7475
▁Rest	-7476
▁bott	-7477
reening	-7478
▁backdrop	-7479
▁mandamus	-7480
DP	-7481
▁00	-7482
▁DW	-7483
otic	-7484
arian	-7485
▁Town	-7486
▁exhib	-7487
▁popular	-7488
▁fairness	-7489
▁executing	-7490
VC	-7491
Crl	-7492
mat	-7493
pura	-7494
ensus	-7495
▁wall	-7496
▁inputs	-7497
▁purport	-7498
▁railway	-7499
▁samples	-7500
▁enrolment	-7501
▁expansion	-7502
▁pronounce	-7503
▁classified	-7504
▁contribute	-7505
▁parliamentary	-7506
▁cess	-7507
▁Junior	-7508
▁finance	-7509
▁fixation	-7510
▁Australia	-7511
▁Settlement	-7512
▁compensatory	-7513
▁pip	-7514
amber	-7515
▁neck	-7516
holding	-7517
▁fulfill	-7518
▁desirable	-7519
▁injustice	-7520
mail	-7521
▁NAB	-7522
aulted	-7523
ensions	-7524
▁putting	-7525
▁peculiar	-7526
▁Shi	-7527
▁maxim	-7528
▁figure	-7529
▁surplus	-7530
▁litigant	-7531
▁livelihood	-7532
pled	-7533
▁failing	-7534
▁instances	-7535
▁therefrom	-7536
.'	-7537
▁ec	-7538
▁fla	-7539
▁Chan	-7540
▁abet	-7541
▁solemn	-7542
▁Conduct	-7543
IG	-7544
ulg	-7545
▁gr	-7546
▁Lic	-7547
▁Lit	-7548
ether	-7549
▁mala	-7550
▁vast	-7551
▁fired	-7552
▁commencing	-7553
▁discipline	-7554
▁relaxation	-7555
attis	-7556
▁Park	-7557
▁steel	-7558
▁recently	-7559
▁discretionary	-7560
PF	-7561
▁Lo	-7562
orter	-7563
▁Ranj	-7564
▁incumb	-7565
▁skills	-7566
▁measuring	-7567
nsic	-7568
▁Sen	-7569
uated	-7570
ractor	-7571
▁simpl	-7572
▁healthy	-7573
▁newspaper	-7574
▁suspicion	-7575
hs	-7576
▁easy	-7577
▁skill	-7578
▁refuse	-7579
▁Meghalaya	-7580
▁protecting	-7581
▁Subsequently	-7582
▁DG	-7583
akes	-7584
▁Orig	-7585
▁vehe	-7586
▁Mahat	-7587
ciences	-7588
▁easily	-7589
ications	-7590
▁knowing	-7591
▁inflicted	-7592
▁Limitation	-7593
▁Securities	-7594
▁transmission	-7595
▁vex	-7596
▁Sush	-7597
▁rain	-7598
chnama	-7599
▁break	-7600
▁Instru	-7601
▁losses	-7602
▁guidance	-7603
▁contending	-7604
hu	-7605
umn	-7606
▁Lep	-7607
▁Inst	-7608
▁Life	-7609
▁repl	-7610
▁Count	-7611
▁Model	-7612
▁Ramesh	-7613
▁canvas	-7614
iculture	-7615
attisgarh	-7616
ellectual	-7617
▁reducing	-7618
▁Deposition	-7619
vert	-7620
▁Six	-7621
▁pil	-7622
▁Doct	-7623
▁sick	-7624
▁recip	-7625
ogether	-7626
▁unfortun	-7627
▁attributed	-7628
▁deficiency	-7629
▁presentation	-7630
▁cr	-7631
▁integrated	-7632
▁disqualified	-7633
▁dy	-7634
gery	-7635
aland	-7636
▁Vide	-7637
▁Mysore	-7638
locutory	-7639
▁adopting	-7640
▁signatures	-7641
▁furtherance	-7642
▁provisional	-7643
econom	-7644
estern	-7645
▁remin	-7646
▁earning	-7647
▁Mohammed	-7648
▁Judiciary	-7649
▁Furthermore	-7650
▁supervision	-7651
▁administered	-7652
▁undertakings	-7653
▁convenience	-7654
▁Commissioners	-7655
ole	-7656
rote	-7657
▁UID	-7658
▁grade	-7659
▁trying	-7660
mittedly	-7661
')	-7662
AGE	-7663
▁Ka	-7664
▁enro	-7665
▁secret	-7666
▁elaborate	-7667
▁exceptions	-7668
▁hereinafter	-7669
▁RD	-7670
▁Chow	-7671
regard	-7672
▁starting	-7673
▁generated	-7674
▁quo	-7675
ushed	-7676
▁Caste	-7677
▁Vehic	-7678
▁quasi	-7679
▁video	-7680
▁NABARD	-7681
▁Please	-7682
▁fiction	-7683
▁assuming	-7684
▁monetary	-7685
▁administer	-7686
▁Cro	-7687
▁Trad	-7688
▁rely	-7689
fering	-7690
▁pursue	-7691
▁belongs	-7692
▁Likewise	-7693
compliance	-7694
▁excessive	-7695
▁marriages	-7696
▁lieu	-7697
▁divided	-7698
ugn	-7699
▁MM	-7700
▁Many	-7701
▁Pursu	-7702
▁debts	-7703
veloper	-7704
▁online	-7705
▁emerging	-7706
inema	-7707
▁chap	-7708
▁roll	-7709
▁drive	-7710
▁earned	-7711
▁Nariman	-7712
▁reality	-7713
▁adversely	-7714
▁allocated	-7715
▁upholding	-7716
▁enforceable	-7717
▁tank	-7718
Appeals	-7719
▁channels	-7720
▁Admittedly	-7721
▁Directorate	-7722
mity	-7723
▁Establ	-7724
▁Forces	-7725
▁assent	-7726
▁blocks	-7727
▁cement	-7728
▁solution	-7729
▁reproduce	-7730
▁arbitrariness	-7731
RS	-7732
▁Indira	-7733
▁differently	-7734
una	-7735
▁Da	-7736
▁Mur	-7737
▁covers	-7738
▁negoti	-7739
▁tendered	-7740
plom	-7741
cript	-7742
ertiliz	-7743
▁Recomm	-7744
▁tested	-7745
▁Vigilance	-7746
▁assessees	-7747
ls	-7748
pla	-7749
▁TRA	-7750
▁fatal	-7751
▁intellig	-7752
▁amounting	-7753
▁municipal	-7754
▁successfully	-7755
Ms	-7756
▁Gan	-7757
▁Letter	-7758
▁enunci	-7759
▁season	-7760
▁Kingdom	-7761
▁immense	-7762
▁literal	-7763
▁missing	-7764
▁primacy	-7765
aboratory	-7766
▁guardian	-7767
▁Departments	-7768
▁Examination	-7769
his	-7770
ding	-7771
▁Disc	-7772
▁Sand	-7773
▁prec	-7774
ladesh	-7775
▁Islam	-7776
▁infer	-7777
▁assured	-7778
▁possibly	-7779
▁producing	-7780
▁tribunals	-7781
ogue	-7782
▁pal	-7783
▁Card	-7784
▁infirm	-7785
▁praying	-7786
▁European	-7787
▁engagement	-7788
▁Av	-7789
oday	-7790
inous	-7791
ensing	-7792
▁guide	-7793
▁rapid	-7794
▁delayed	-7795
▁becoming	-7796
▁deducted	-7797
▁acknowledged	-7798
▁CL	-7799
atin	-7800
opped	-7801
works	-7802
▁inev	-7803
▁conting	-7804
▁trained	-7805
▁brothers	-7806
▁overlook	-7807
▁extraordinary	-7808
▁jurisdictional	-7809
hers	-7810
▁Joh	-7811
▁ensu	-7812
▁hect	-7813
ardship	-7814
▁supers	-7815
▁alleging	-7816
▁enacting	-7817
araj	-7818
▁sugar	-7819
▁Taking	-7820
▁manage	-7821
▁Narayan	-7822
▁species	-7823
▁prevention	-7824
▁approximately	-7825
▁ambig	-7826
▁violate	-7827
▁Pursuant	-7828
▁personally	-7829
jan	-7830
▁ask	-7831
urism	-7832
ricket	-7833
▁facto	-7834
economic	-7835
▁reforms	-7836
▁explosives	-7837
▁hyp	-7838
▁zone	-7839
empted	-7840
▁Those	-7841
rection	-7842
▁sealed	-7843
▁compelled	-7844
▁simultaneously	-7845
▁BY	-7846
▁Us	-7847
▁Ahm	-7848
▁imag	-7849
rained	-7850
athered	-7851
istries	-7852
▁Indeed	-7853
▁driven	-7854
ederation	-7855
▁licences	-7856
▁formation	-7857
▁contraband	-7858
▁Environmental	-7859
▁Fact	-7860
▁Pass	-7861
▁unequ	-7862
▁exchan	-7863
▁exports	-7864
▁customer	-7865
▁perverse	-7866
long	-7867
▁Tel	-7868
▁brings	-7869
▁Objects	-7870
▁exceeds	-7871
▁markets	-7872
▁proving	-7873
▁tourism	-7874
unication	-7875
▁prescribes	-7876
▁Declaration	-7877
▁Din	-7878
▁knew	-7879
▁twel	-7880
matter	-7881
▁Press	-7882
▁mines	-7883
▁remun	-7884
▁vehement	-7885
▁vul	-7886
oppel	-7887
▁Asia	-7888
▁Treat	-7889
▁fight	-7890
whether	-7891
▁Africa	-7892
▁mandates	-7893
▁expedient	-7894
▁resignation	-7895
)]	-7896
▁Bills	-7897
▁weigh	-7898
▁reveal	-7899
▁earliest	-7900
▁supposed	-7901
▁grievances	-7902
atel	-7903
▁Mil	-7904
▁Rai	-7905
▁bur	-7906
ondon	-7907
▁Last	-7908
▁middle	-7909
▁Undertak	-7910
▁structures	-7911
▁productivity	-7912
▁१८	-7913
▁Rat	-7914
ronics	-7915
▁asking	-7916
▁linked	-7917
▁remember	-7918
▁commodity	-7919
▁expertise	-7920
▁apprehension	-7921
▁strengthening	-7922
eet	-7923
sett	-7924
▁gar	-7925
▁murd	-7926
stated	-7927
▁agents	-7928
▁termed	-7929
▁apposite	-7930
▁Ahmedabad	-7931
▁Promotion	-7932
▁Recommend	-7933
▁universal	-7934
▁assignment	-7935
want	-7936
bered	-7937
▁resc	-7938
uments	-7939
▁wrote	-7940
▁Provin	-7941
▁mortem	-7942
▁scales	-7943
▁Governance	-7944
▁enterprises	-7945
▁supplementary	-7946
▁IR	-7947
▁Liqu	-7948
▁headed	-7949
▁herself	-7950
▁hardship	-7951
▁installed	-7952
ule	-7953
▁RE	-7954
rosy	-7955
▁PRO	-7956
rical	-7957
uriae	-7958
▁Area	-7959
▁Noida	-7960
▁affili	-7961
▁Construction	-7962
iri	-7963
rent	-7964
▁Mrs	-7965
ordin	-7966
orrow	-7967
▁symb	-7968
▁shops	-7969
▁Nagpur	-7970
▁Appoint	-7971
▁desired	-7972
▁specially	-7973
▁exploitation	-7974
▁Poll	-7975
atious	-7976
▁convin	-7977
▁delinqu	-7978
▁........	-7979
▁branches	-7980
▁illegally	-7981
▁uncertain	-7982
harma	-7983
▁girls	-7984
▁train	-7985
▁afresh	-7986
▁forming	-7987
▁credibility	-7988
It	-7989
On	-7990
▁ID	-7991
▁Kap	-7992
▁illness	-7993
▁covering	-7994
▁Bangladesh	-7995
▁formulation	-7996
▁disproportion	-7997
▁pronouncement	-7998
▁CE	-7999
▁Rak	-8000
▁assume	-8001
▁Leprosy	-8002
▁Letters	-8003
▁suffers	-8004
bursement	-8005
▁gathered	-8006
▁comprised	-8007
▁excluding	-8008
▁reinstatement	-8009
dict	-8010
ilal	-8011
▁devi	-8012
▁quote	-8013
▁Shaikh	-8014
▁annexed	-8015
▁availed	-8016
▁affirmative	-8017
▁developments	-8018
▁corroboration	-8019
coh	-8020
eced	-8021
service	-8022
▁Fourth	-8023
▁ceased	-8024
▁cities	-8025
▁preval	-8026
akrishnan	-8027
▁prohibit	-8028
▁attempted	-8029
▁generating	-8030
▁instruments	-8031
▁denomination	-8032
▁Expert	-8033
▁ceiling	-8034
▁motorcy	-8035
▁Children	-8036
▁narrated	-8037
▁sensitive	-8038
SA	-8039
Se	-8040
iat	-8041
▁Luck	-8042
struct	-8043
▁Boards	-8044
▁regime	-8045
▁decreed	-8046
▁director	-8047
▁diseases	-8048
▁languages	-8049
▁Employment	-8050
▁expeditiously	-8051
CP	-8052
▁Mas	-8053
▁Mat	-8054
▁eld	-8055
istence	-8056
▁lawyer	-8057
▁periods	-8058
▁promulg	-8059
▁Commerce	-8060
▁verified	-8061
▁apprehend	-8062
▁telephone	-8063
▁ascertained	-8064
PEAL	-8065
avings	-8066
▁Death	-8067
▁command	-8068
▁exempted	-8069
UK	-8070
▁Hand	-8071
▁Sund	-8072
▁enshr	-8073
▁relat	-8074
▁voice	-8075
▁Tariff	-8076
▁guided	-8077
▁coupled	-8078
▁diverse	-8079
▁falsely	-8080
▁paramount	-8081
▁Repe	-8082
ferring	-8083
ableness	-8084
▁nominee	-8085
▁pressed	-8086
▁replaced	-8087
▁extensive	-8088
▁substances	-8089
inct	-8090
▁Bad	-8091
▁Wakf	-8092
▁Grade	-8093
ATIONAL	-8094
AND	-8095
dden	-8096
iagn	-8097
▁Yet	-8098
▁eve	-8099
▁mob	-8100
▁Most	-8101
▁marry	-8102
ulative	-8103
▁Orders	-8104
▁deleted	-8105
resentation	-8106
▁excellence	-8107
ams	-8108
▁Bach	-8109
▁cryst	-8110
▁usage	-8111
▁Mahatma	-8112
▁anteced	-8113
▁CS	-8114
▁pp	-8115
▁Paras	-8116
itative	-8117
▁Eastern	-8118
▁Without	-8119
▁entirety	-8120
▁preserve	-8121
▁Guidelines	-8122
▁distributed	-8123
▁stipulation	-8124
lal	-8125
uru	-8126
▁UP	-8127
heet	-8128
prin	-8129
▁Fee	-8130
▁ago	-8131
enary	-8132
▁COUR	-8133
▁Prem	-8134
▁deny	-8135
ananda	-8136
▁Patel	-8137
▁truck	-8138
▁showed	-8139
▁Accounts	-8140
▁arriving	-8141
▁canvassed	-8142
▁impartial	-8143
▁dissolution	-8144
▁automatically	-8145
ARY	-8146
▁tune	-8147
▁Ambed	-8148
▁Among	-8149
▁Scale	-8150
▁sixty	-8151
▁Online	-8152
▁assertion	-8153
▁ourselves	-8154
▁innovative	-8155
five	-8156
▁Amb	-8157
▁Crl	-8158
▁Pad	-8159
▁goals	-8160
▁Canada	-8161
▁extingu	-8162
▁belonged	-8163
▁distinguish	-8164
odal	-8165
▁bud	-8166
▁MBBS	-8167
▁Ambedkar	-8168
▁cultivation	-8169
▁contemplates	-8170
▁difficulties	-8171
▁IO	-8172
▁SI	-8173
PTER	-8174
▁hyd	-8175
trans	-8176
▁Need	-8177
▁amalgam	-8178
▁gravity	-8179
▁reserve	-8180
▁whereof	-8181
▁Register	-8182
▁explicit	-8183
▁discovery	-8184
▁exhaustive	-8185
▁adjudicating	-8186
▁proportionality	-8187
FA	-8188
▁DDA	-8189
▁USA	-8190
stone	-8191
▁eyes	-8192
▁pict	-8193
▁alias	-8194
▁embod	-8195
▁engage	-8196
▁twelve	-8197
▁prisoner	-8198
▁compelling	-8199
▁expectation	-8200
aq	-8201
els	-8202
▁Bai	-8203
▁sea	-8204
ament	-8205
▁Open	-8206
▁stret	-8207
▁London	-8208
▁Return	-8209
▁Suresh	-8210
▁grants	-8211
▁repugn	-8212
▁conspir	-8213
▁secondary	-8214
▁BO	-8215
▁Mut	-8216
▁Adjud	-8217
▁Local	-8218
▁speaks	-8219
▁taxing	-8220
▁inadequate	-8221
▁entitlement	-8222
gaon	-8223
▁Tal	-8224
▁magn	-8225
▁inher	-8226
▁tools	-8227
▁APPEAL	-8228
▁Reports	-8229
▁affects	-8230
▁scholars	-8231
▁Infrastructure	-8232
ION	-8233
▁Due	-8234
house	-8235
▁describ	-8236
▁resolve	-8237
▁Advisory	-8238
▁hospitals	-8239
▁initiation	-8240
▁Chhattisgarh	-8241
exam	-8242
wala	-8243
▁Neg	-8244
▁Venk	-8245
ortion	-8246
▁Manual	-8247
▁invoke	-8248
▁extends	-8249
ciplinary	-8250
▁assurance	-8251
▁innocence	-8252
▁hesitation	-8253
▁differences	-8254
wali	-8255
▁DAY	-8256
▁Rem	-8257
▁Thakur	-8258
▁answers	-8259
▁pregnancy	-8260
bas	-8261
▁cam	-8262
oided	-8263
▁temper	-8264
▁torture	-8265
clamation	-8266
▁Juvenile	-8267
▁pertains	-8268
▁Professor	-8269
▁acquiring	-8270
▁regularly	-8271
▁prejudicial	-8272
▁CW	-8273
cles	-8274
▁Cal	-8275
▁pra	-8276
▁concent	-8277
▁testing	-8278
▁ER	-8279
▁UT	-8280
zing	-8281
▁Kas	-8282
▁Rad	-8283
claim	-8284
▁ones	-8285
▁vulner	-8286
▁Develop	-8287
▁incrimin	-8288
▁resorted	-8289
▁Secretariat	-8290
▁modifications	-8291
HO	-8292
assess	-8293
▁upper	-8294
▁absent	-8295
▁escape	-8296
▁Lucknow	-8297
▁marginal	-8298
▁receipts	-8299
▁secondly	-8300
▁altogether	-8301
▁charitable	-8302
▁transparent	-8303
▁practitioner	-8304
As	-8305
▁jur	-8306
▁Coal	-8307
icable	-8308
ailable	-8309
▁Contempt	-8310
▁levelled	-8311
mony	-8312
▁Bel	-8313
▁bye	-8314
▁unsu	-8315
ivided	-8316
umping	-8317
▁Today	-8318
renades	-8319
▁avoided	-8320
▁invested	-8321
▁remanded	-8322
▁leadership	-8323
lap	-8324
udi	-8325
▁Aj	-8326
atar	-8327
▁Dhan	-8328
▁Hold	-8329
▁mill	-8330
▁newly	-8331
lements	-8332
▁Benches	-8333
▁premise	-8334
▁shifted	-8335
▁impression	-8336
▁clarification	-8337
IF	-8338
ksh	-8339
▁Mish	-8340
TITION	-8341
▁trend	-8342
▁format	-8343
▁moving	-8344
▁drought	-8345
▁nuclear	-8346
▁numerous	-8347
▁Corporate	-8348
▁answering	-8349
▁Um	-8350
apan	-8351
▁rob	-8352
▁vic	-8353
rates	-8354
▁vehemently	-8355
ops	-8356
iques	-8357
▁John	-8358
▁Laksh	-8359
▁overt	-8360
▁CHAPTER	-8361
▁convers	-8362
▁estoppel	-8363
▁enshrined	-8364
▁repayment	-8365
▁solutions	-8366
arm	-8367
pus	-8368
▁van	-8369
▁Gold	-8370
▁curt	-8371
▁hour	-8372
▁Armed	-8373
▁disse	-8374
theless	-8375
▁facing	-8376
▁firstly	-8377
▁assaulted	-8378
▁enhancing	-8379
▁interfering	-8380
eas	-8381
oon	-8382
▁Sel	-8383
▁inad	-8384
▁race	-8385
▁Pract	-8386
▁Chaudh	-8387
▁Rajesh	-8388
ographic	-8389
▁mandated	-8390
▁disregard	-8391
▁infirmity	-8392
▁fraudulent	-8393
▁arbitrators	-8394
NO	-8395
VI	-8396
IST	-8397
▁LA	-8398
iries	-8399
making	-8400
▁Sunil	-8401
▁allows	-8402
▁Guarant	-8403
▁emerged	-8404
▁Chemical	-8405
▁Arunachal	-8406
▁cooperative	-8407
▁ITR	-8408
▁Kes	-8409
▁bare	-8410
advant	-8411
▁dance	-8412
▁occur	-8413
▁matrix	-8414
▁quarter	-8415
▁attorney	-8416
▁utilised	-8417
▁prevented	-8418
▁subsidiary	-8419
Re	-8420
ox	-8421
▁|(	-8422
▁Saw	-8423
▁apt	-8424
arden	-8425
▁sequ	-8426
▁slum	-8427
▁knife	-8428
▁occurs	-8429
▁Edition	-8430
▁Resident	-8431
▁Legislatures	-8432
▁Opp	-8433
▁suo	-8434
▁define	-8435
▁Centres	-8436
▁respects	-8437
cellaneous	-8438
▁incumbent	-8439
▁emphasised	-8440
ners	-8441
▁Lead	-8442
▁bars	-8443
cludes	-8444
▁Mills	-8445
▁facet	-8446
▁parity	-8447
appellants	-8448
▁enunciated	-8449
▁arm	-8450
indra	-8451
▁Mishra	-8452
▁assert	-8453
▁Original	-8454
▁sovereign	-8455
▁delegation	-8456
▁requesting	-8457
▁Und	-8458
▁sew	-8459
oples	-8460
▁feet	-8461
▁infl	-8462
▁rout	-8463
▁Plant	-8464
▁quick	-8465
▁spouse	-8466
condition	-8467
▁assisted	-8468
▁credited	-8469
▁violates	-8470
▁negligent	-8471
▁virtually	-8472
▁convenient	-8473
▁independently	-8474
oph	-8475
amin	-8476
▁Safety	-8477
▁device	-8478
▁vexatious	-8479
▁delinquent	-8480
▁Fundamental	-8481
▁accountability	-8482
▁maintainability	-8483
hara	-8484
▁Gas	-8485
▁sample	-8486
▁photographs	-8487
lor	-8488
anti	-8489
▁alcoh	-8490
▁indig	-8491
▁votes	-8492
▁Bharati	-8493
▁Provisions	-8494
▁previously	-8495
▁endorsement	-8496
▁unp	-8497
oking	-8498
▁grown	-8499
▁Product	-8500
▁benefic	-8501
▁subsidy	-8502
▁Referring	-8503
▁consistently	-8504
▁SP	-8505
▁Fif	-8506
▁Lax	-8507
▁NGT	-8508
▁ste	-8509
▁tea	-8510
before	-8511
▁UIDAI	-8512
UG	-8513
▁Ir	-8514
▁Who	-8515
▁watch	-8516
ography	-8517
▁clarify	-8518
▁utilized	-8519
▁wrongful	-8520
▁remuneration	-8521
▁investigations	-8522
ton	-8523
▁Dar	-8524
atories	-8525
▁cotton	-8526
▁Shankar	-8527
▁consign	-8528
▁PETITION	-8529
▁medicine	-8530
▁composite	-8531
▁questioning	-8532
▁reconsideration	-8533
yer	-8534
angan	-8535
▁ball	-8536
▁Banking	-8537
▁strongly	-8538
▁surcharge	-8539
▁NC	-8540
rier	-8541
▁PPA	-8542
▁Sad	-8543
attle	-8544
▁saved	-8545
▁twice	-8546
▁Mittal	-8547
▁Manipur	-8548
▁Natural	-8549
▁Commissions	-8550
▁wel	-8551
ulled	-8552
▁abol	-8553
ecific	-8554
▁posed	-8555
▁closely	-8556
▁ensured	-8557
▁restoration	-8558
▁ICC	-8559
▁rif	-8560
mises	-8561
▁Back	-8562
▁Cell	-8563
▁jeep	-8564
▁rice	-8565
igible	-8566
▁appended	-8567
▁repeatedly	-8568
▁contributed	-8569
▁irregularity	-8570
▁ang	-8571
ailed	-8572
▁lacs	-8573
▁sand	-8574
ourage	-8575
▁panch	-8576
▁vague	-8577
▁Number	-8578
▁emerge	-8579
▁strugg	-8580
▁Relying	-8581
▁operates	-8582
▁satisfactory	-8583
----------------	-8584
iya	-8585
urg	-8586
▁fet	-8587
itate	-8588
▁clin	-8589
▁forced	-8590
▁waters	-8591
▁partial	-8592
▁conveyed	-8593
▁meantime	-8594
▁disadvant	-8595
anim	-8596
▁Time	-8597
▁bonds	-8598
▁dwell	-8599
▁handic	-8600
▁misuse	-8601
▁revers	-8602
▁varied	-8603
▁heritage	-8604
▁motorcycle	-8605
▁amalgamation	-8606
aded	-8607
dish	-8608
osex	-8609
▁Bro	-8610
shall	-8611
utors	-8612
isputed	-8613
▁enjoyment	-8614
▁incidents	-8615
▁references	-8616
▁organisations	-8617
▁sake	-8618
aining	-8619
akhand	-8620
▁Staff	-8621
▁flats	-8622
▁fruit	-8623
urement	-8624
carriage	-8625
▁dividend	-8626
▁architect	-8627
▁contested	-8628
▁neighbour	-8629
▁absorption	-8630
▁threatened	-8631
▁orientation	-8632
▁discrepancies	-8633
END	-8634
▁Dam	-8635
PWxad	-8636
▁Shyam	-8637
▁Innovation	-8638
▁adjustment	-8639
▁submitting	-8640
▁chargesheet	-8641
rec	-8642
▁ACT	-8643
▁Mer	-8644
▁Arms	-8645
▁motiv	-8646
▁widow	-8647
▁Firstly	-8648
▁Ministries	-8649
▁alteration	-8650
▁retrospect	-8651
Rup	-8652
fers	-8653
omal	-8654
astic	-8655
ildlife	-8656
▁pistol	-8657
▁Majesty	-8658
▁carries	-8659
▁Registry	-8660
▁apparently	-8661
▁indication	-8662
▁intimation	-8663
▁attributable	-8664
ips	-8665
kin	-8666
atab	-8667
olve	-8668
▁Ger	-8669
below	-8670
volous	-8671
▁prompt	-8672
▁confine	-8673
▁convert	-8674
▁pleased	-8675
▁possessed	-8676
▁predecess	-8677
▁continuance	-8678
:—	-8679
IP	-8680
Tax	-8681
▁PAN	-8682
Union	-8683
rafts	-8684
stante	-8685
▁discon	-8686
▁sudden	-8687
▁Against	-8688
▁comments	-8689
▁promoter	-8690
▁electoral	-8691
▁technological	-8692
▁Ty	-8693
worthy	-8694
▁Record	-8695
▁budget	-8696
▁meters	-8697
graduate	-8698
▁harmony	-8699
▁recognize	-8700
▁thereupon	-8701
▁attachment	-8702
▁comparison	-8703
▁MA	-8704
IVIL	-8705
wife	-8706
▁Level	-8707
▁managing	-8708
Bs	-8709
▁Use	-8710
▁lis	-8711
ccess	-8712
tical	-8713
▁prox	-8714
▁reck	-8715
called	-8716
▁micro	-8717
▁Partic	-8718
▁unlike	-8719
▁enabled	-8720
▁secular	-8721
▁Preamble	-8722
▁analysed	-8723
▁committees	-8724
▁contradictions	-8725
▁pronouncements	-8726
▁aband	-8727
entions	-8728
▁factum	-8729
▁latest	-8730
▁charging	-8731
▁restraint	-8732
vals	-8733
arshan	-8734
tation	-8735
▁Const	-8736
▁Democ	-8737
▁frust	-8738
▁double	-8739
▁billion	-8740
▁offering	-8741
▁witnessed	-8742
ocon	-8743
▁Gul	-8744
▁CIVIL	-8745
▁Juris	-8746
▁Later	-8747
▁vendor	-8748
▁Indians	-8749
▁accounting	-8750
▁restraining	-8751
▁pm	-8752
▁die	-8753
disha	-8754
▁runs	-8755
Rupees	-8756
▁Repeal	-8757
▁adjourn	-8758
▁incentives	-8759
▁reputation	-8760
▁interlocutory	-8761
▁manufacturers	-8762
Dr	-8763
▁FO	-8764
▁IIT	-8765
▁map	-8766
▁chest	-8767
▁military	-8768
▁envisages	-8769
▁Uttarakhand	-8770
▁intellectual	-8771
duc	-8772
aign	-8773
iled	-8774
atern	-8775
coming	-8776
▁Rakesh	-8777
▁conservation	-8778
ese	-8779
was	-8780
osis	-8781
▁feas	-8782
▁cycle	-8783
▁Liquid	-8784
▁functional	-8785
▁influenced	-8786
▁hum	-8787
▁pad	-8788
owner	-8789
raman	-8790
▁nurs	-8791
▁Citiz	-8792
▁intra	-8793
▁manip	-8794
▁career	-8795
▁stress	-8796
▁Proceed	-8797
▁Dictionary	-8798
▁literature	-8799
▁participating	-8800
▁CG	-8801
mark	-8802
abhai	-8803
enger	-8804
ights	-8805
▁scri	-8806
▁Integ	-8807
▁unity	-8808
▁consec	-8809
▁merger	-8810
▁trials	-8811
priation	-8812
▁Finally	-8813
▁multiplier	-8814
▁representations	-8815
ils	-8816
room	-8817
▁Five	-8818
▁lose	-8819
ruction	-8820
▁unknown	-8821
▁frivolous	-8822
▁deductions	-8823
▁miscarriage	-8824
▁War	-8825
ented	-8826
▁mine	-8827
orters	-8828
▁scoot	-8829
▁white	-8830
▁closure	-8831
▁deserve	-8832
▁killing	-8833
▁offending	-8834
▁functionaries	-8835
▁unsustainable	-8836
▁Sl	-8837
▁ft	-8838
ohar	-8839
▁Jal	-8840
▁dry	-8841
▁enl	-8842
itime	-8843
▁isol	-8844
entral	-8845
▁Neither	-8846
▁Payment	-8847
▁machine	-8848
▁discount	-8849
▁freedoms	-8850
▁surrounding	-8851
▁investigated	-8852
unk	-8853
▁Ce	-8854
urch	-8855
engers	-8856
▁guarantees	-8857
▁prosecuted	-8858
▁suppression	-8859
▁]	-8860
pass	-8861
what	-8862
▁ICT	-8863
iscal	-8864
▁Raju	-8865
▁bears	-8866
▁Global	-8867
▁condol	-8868
▁tonnes	-8869
▁upgrad	-8870
▁chapter	-8871
▁degrees	-8872
▁Justices	-8873
▁philosophy	-8874
EST	-8875
ITY	-8876
ENCE	-8877
isms	-8878
▁Sure	-8879
▁Tehs	-8880
▁embar	-8881
▁happen	-8882
▁forests	-8883
▁stopped	-8884
▁refusing	-8885
▁impleaded	-8886
▁friendship	-8887
▁prescribing	-8888
▁Adjudicating	-8889
MT	-8890
▁thor	-8891
▁lists	-8892
▁Odisha	-8893
▁defaul	-8894
▁ending	-8895
▁intest	-8896
▁nonxad	-8897
▁attitude	-8898
▁inviting	-8899
▁adjudicated	-8900
VER	-8901
dec	-8902
▁Jaw	-8903
▁bone	-8904
▁ahead	-8905
▁colon	-8906
▁dilig	-8907
▁silver	-8908
▁Various	-8909
▁evening	-8910
▁propose	-8911
ciliation	-8912
▁improved	-8913
▁overruled	-8914
▁summoning	-8915
apt	-8916
inc	-8917
mpt	-8918
▁Ved	-8919
▁haz	-8920
force	-8921
▁Drug	-8922
▁thres	-8923
▁profile	-8924
▁vesting	-8925
▁concepts	-8926
▁Petroleum	-8927
▁completing	-8928
▁erroneously	-8929
hesh	-8930
▁Bah	-8931
▁Anal	-8932
▁MESS	-8933
▁Mach	-8934
▁ties	-8935
▁stone	-8936
▁conced	-8937
▁incomp	-8938
▁remarks	-8939
▁exercises	-8940
▁characteristics	-8941
Is	-8942
do	-8943
▁JJ	-8944
ambig	-8945
▁root	-8946
▁Kishan	-8947
▁unanim	-8948
▁doubtful	-8949
▁reporting	-8950
▁hereinbelow	-8951
▁CM	-8952
▁lik	-8953
apore	-8954
belie	-8955
▁Lords	-8956
▁blank	-8957
▁grass	-8958
estival	-8959
▁condon	-8960
▁defeat	-8961
▁Certain	-8962
▁MESSAGE	-8963
▁artific	-8964
▁perfect	-8965
▁restore	-8966
▁Resource	-8967
▁Monitoring	-8968
▁deputation	-8969
HT	-8970
UMAR	-8971
▁abst	-8972
awalli	-8973
entures	-8974
raction	-8975
▁encumb	-8976
▁Greater	-8977
▁climate	-8978
▁prohibits	-8979
▁Corruption	-8980
▁deliberate	-8981
▁healthcare	-8982
▁personality	-8983
)/	-8984
othe	-8985
▁Bhat	-8986
▁Ravi	-8987
ugopal	-8988
▁Vikas	-8989
▁Export	-8990
▁bodily	-8991
▁onwards	-8992
▁surface	-8993
▁unambig	-8994
▁fertiliz	-8995
▁disposing	-8996
▁landowners	-8997
▁television	-8998
▁declarations	-8999
ota	-9000
▁Nep	-9001
asion	-9002
▁Body	-9003
▁Autom	-9004
▁Griev	-9005
iversary	-9006
▁hectares	-9007
▁opinions	-9008
▁Personnel	-9009
▁reiterate	-9010
▁weightage	-9011
▁Defendants	-9012
▁continuation	-9013
AYS	-9014
hik	-9015
oda	-9016
ukh	-9017
ford	-9018
ician	-9019
ortium	-9020
▁helps	-9021
▁trees	-9022
▁volume	-9023
▁monitor	-9024
▁Statutory	-9025
▁dedicated	-9026
▁incriminating	-9027
▁reim	-9028
▁KUMAR	-9029
▁surve	-9030
▁Hindus	-9031
▁leased	-9032
▁denying	-9033
▁managed	-9034
▁penalties	-9035
▁techniques	-9036
▁appreciating	-9037
ika	-9038
fort	-9039
▁Tour	-9040
▁kidn	-9041
auvery	-9042
▁Guard	-9043
▁Raman	-9044
▁abund	-9045
▁blind	-9046
▁broadly	-9047
▁prayers	-9048
ographical	-9049
▁financing	-9050
▁commodities	-9051
wara	-9052
▁Ahmad	-9053
▁Cause	-9054
▁Stock	-9055
deceased	-9056
▁Statute	-9057
▁Whereas	-9058
▁peoples	-9059
▁adjusted	-9060
▁attacked	-9061
▁Marketing	-9062
▁prevalent	-9063
▁threshold	-9064
▁precedents	-9065
▁establishes	-9066
▁Establishment	-9067
▁communications	-9068
’).	-9069
▁WIT	-9070
▁inh	-9071
▁dies	-9072
▁empt	-9073
▁Point	-9074
▁diagn	-9075
▁instal	-9076
▁treaty	-9077
▁prolong	-9078
sufficient	-9079
▁meaningful	-9080
▁elaborately	-9081
▁substantiate	-9082
nty	-9083
▁peaceful	-9084
▁squarely	-9085
▁Standards	-9086
▁facilitating	-9087
▁compassionate	-9088
Ann	-9089
▁DE	-9090
▁RTI	-9091
▁Van	-9092
▁drew	-9093
▁eman	-9094
▁Lease	-9095
▁parte	-9096
writing	-9097
▁contemn	-9098
▁strategic	-9099
▁suspended	-9100
organisation	-9101
▁Subordinate	-9102
▁introducing	-9103
MIN	-9104
▁Deep	-9105
▁Russ	-9106
▁York	-9107
▁bull	-9108
▁cant	-9109
▁onus	-9110
▁dynam	-9111
▁spons	-9112
▁Charge	-9113
▁enjoyed	-9114
▁verdict	-9115
▁spectrum	-9116
▁announced	-9117
▁relatable	-9118
▁concluding	-9119
▁deliberately	-9120
Sec	-9121
ura	-9122
▁SEC	-9123
▁rid	-9124
appre	-9125
ignty	-9126
▁Item	-9127
ainted	-9128
visory	-9129
▁aspir	-9130
▁versus	-9131
▁Through	-9132
▁disappro	-9133
▁Guarantee	-9134
▁undivided	-9135
▁obligatory	-9136
▁conditional	-9137
▁concurrently	-9138
▁unauthorized	-9139
▁IA	-9140
ixed	-9141
▁wil	-9142
ammad	-9143
▁Book	-9144
▁flex	-9145
▁Draft	-9146
▁solar	-9147
▁footing	-9148
▁imposes	-9149
▁rationale	-9150
▁liquidation	-9151
ALL	-9152
URE	-9153
abh	-9154
SION	-9155
ceut	-9156
▁Edn	-9157
▁Rev	-9158
▁sun	-9159
agree	-9160
▁Arch	-9161
▁Bhut	-9162
▁Major	-9163
▁mouth	-9164
▁Relief	-9165
▁thrown	-9166
▁earnest	-9167
▁stations	-9168
▁Pollution	-9169
▁nutrition	-9170
▁antecedents	-9171
bi	-9172
Pre	-9173
eous	-9174
iful	-9175
quar	-9176
term	-9177
▁EVE	-9178
▁Text	-9179
▁fish	-9180
▁adhere	-9181
▁cinema	-9182
▁heinous	-9183
▁implies	-9184
▁efficacy	-9185
▁comprises	-9186
▁daughters	-9187
▁Pla	-9188
▁vice	-9189
rating	-9190
▁Supply	-9191
▁sheets	-9192
▁inquest	-9193
▁allottee	-9194
▁Venugopal	-9195
▁implicated	-9196
CH	-9197
Sh	-9198
ica	-9199
that	-9200
▁cler	-9201
▁hire	-9202
▁plus	-9203
▁rede	-9204
▁advis	-9205
▁passengers	-9206
▁utilization	-9207
PG	-9208
ooth	-9209
▁Mult	-9210
ivable	-9211
▁Cases	-9212
▁inequ	-9213
▁forged	-9214
▁Forests	-9215
▁grievous	-9216
▁insertion	-9217
eli	-9218
iva	-9219
isal	-9220
viii	-9221
eding	-9222
▁bids	-9223
▁blow	-9224
▁accum	-9225
▁owing	-9226
▁remem	-9227
▁resid	-9228
ucherry	-9229
▁bidder	-9230
▁planned	-9231
▁reviewed	-9232
▁Implement	-9233
▁accompany	-9234
▁discontin	-9235
▁litigants	-9236
▁adjudicate	-9237
▁construing	-9238
▁Disciplinary	-9239
pee	-9240
▁Bye	-9241
▁Yog	-9242
▁flu	-9243
▁Allow	-9244
▁trave	-9245
▁union	-9246
▁wants	-9247
▁deploy	-9248
▁timely	-9249
▁Cauvery	-9250
▁Deposit	-9251
▁Working	-9252
▁sending	-9253
▁strategy	-9254
▁terrorism	-9255
appropriate	-9256
▁cartridges	-9257
▁purchasers	-9258
SP	-9259
TO	-9260
▁Ak	-9261
▁Pud	-9262
▁sle	-9263
▁Farm	-9264
▁seal	-9265
itical	-9266
▁analog	-9267
▁retention	-9268
▁combination	-9269
▁Compensation	-9270
२०	-9271
abs	-9272
▁Az	-9273
▁APP	-9274
▁Jail	-9275
▁Late	-9276
▁VIII	-9277
▁airc	-9278
▁unex	-9279
▁rebut	-9280
▁Unless	-9281
▁modify	-9282
▁lodging	-9283
▁directive	-9284
▁forfeiture	-9285
DF	-9286
lo	-9287
lt	-9288
Moh	-9289
dev	-9290
▁Vi	-9291
join	-9292
dhury	-9293
▁Meet	-9294
▁Sukh	-9295
▁news	-9296
rative	-9297
▁revol	-9298
ressing	-9299
▁skilled	-9300
▁staying	-9301
▁Projects	-9302
▁legislate	-9303
▁variation	-9304
▁examinations	-9305
zz	-9306
try	-9307
▁AR	-9308
▁pi	-9309
book	-9310
▁cat	-9311
▁cold	-9312
viable	-9313
▁Prabh	-9314
▁silent	-9315
▁decides	-9316
▁utility	-9317
▁Interpre	-9318
▁immunity	-9319
▁Complaint	-9320
▁prospects	-9321
▁continuously	-9322
ny	-9323
rary	-9324
▁Know	-9325
▁TRAI	-9326
▁xxxx	-9327
▁accus	-9328
▁brand	-9329
closure	-9330
▁intend	-9331
▁averred	-9332
▁mutually	-9333
▁Christian	-9334
▁departure	-9335
▁stability	-9336
IO	-9337
igam	-9338
▁syn	-9339
ighed	-9340
▁Micro	-9341
harmaceut	-9342
▁interrog	-9343
▁untenable	-9344
▁overriding	-9345
▁participants	-9346
▁uf	-9347
alle	-9348
ilder	-9349
▁jour	-9350
accept	-9351
illary	-9352
legium	-9353
▁Sever	-9354
▁Bachan	-9355
▁Coming	-9356
▁Regard	-9357
▁couple	-9358
▁degrad	-9359
▁America	-9360
▁emerges	-9361
▁Singapore	-9362
termination	-9363
▁preventing	-9364
▁AG	-9365
anta	-9366
▁debar	-9367
▁rests	-9368
▁errors	-9369
▁Network	-9370
▁Parties	-9371
▁Singhvi	-9372
▁abscond	-9373
▁logical	-9374
▁enrolled	-9375
▁Directive	-9376
▁confessions	-9377
▁Distribution	-9378
▁Organization	-9379
aran	-9380
oves	-9381
enous	-9382
▁bias	-9383
▁Academ	-9384
▁attain	-9385
▁facets	-9386
▁widely	-9387
iscation	-9388
▁Instead	-9389
▁occupied	-9390
▁striking	-9391
▁diversity	-9392
▁introduce	-9393
▁ap	-9394
ALCO	-9395
iven	-9396
▁hor	-9397
▁....	-9398
▁hill	-9399
▁wakf	-9400
artial	-9401
viously	-9402
▁begins	-9403
▁notion	-9404
▁sphere	-9405
▁someone	-9406
▁prosecute	-9407
▁attendance	-9408
▁concurrence	-9409
▁Sk	-9410
eces	-9411
oked	-9412
▁MUK	-9413
uster	-9414
▁fract	-9415
▁shift	-9416
▁tendency	-9417
▁preparing	-9418
▁discovered	-9419
▁prescription	-9420
▁collaboration	-9421
asa	-9422
rim	-9423
▁Dw	-9424
ATES	-9425
iers	-9426
istent	-9427
venues	-9428
▁Witness	-9429
▁cutting	-9430
▁Rajendra	-9431
▁pleading	-9432
▁recruits	-9433
▁ambiguity	-9434
▁registering	-9435
▁sovereignty	-9436
▁unauthorised	-9437
eded	-9438
lier	-9439
▁rod	-9440
▁Educ	-9441
▁......	-9442
▁parade	-9443
▁settle	-9444
▁regions	-9445
▁adultery	-9446
▁minister	-9447
▁locations	-9448
▁expiration	-9449
▁calculation	-9450
▁deprivation	-9451
▁destruction	-9452
ulla	-9453
▁Grad	-9454
▁struggle	-9455
▁physically	-9456
▁regularization	-9457
HAR	-9458
▁JUD	-9459
ildar	-9460
▁amen	-9461
▁hurt	-9462
▁Medic	-9463
▁coverage	-9464
▁pointing	-9465
Respondent	-9466
▁vulnerable	-9467
▁governmental	-9468
▁WP	-9469
back	-9470
▁Gau	-9471
▁wood	-9472
▁Chart	-9473
▁relie	-9474
▁trustee	-9475
▁transfers	-9476
▁Puducherry	-9477
▁collecting	-9478
ux	-9479
enda	-9480
▁hall	-9481
gments	-9482
▁Region	-9483
▁advise	-9484
▁quarrel	-9485
▁detained	-9486
▁inferred	-9487
▁thorough	-9488
▁exchanges	-9489
▁prospecting	-9490
▁Presidential	-9491
▁infringement	-9492
.’	-9493
DT	-9494
ayal	-9495
▁Ham	-9496
assed	-9497
▁fake	-9498
▁Japan	-9499
▁Enquiry	-9500
▁NATIONAL	-9501
▁Resources	-9502
▁abolition	-9503
▁postulates	-9504
oken	-9505
offic	-9506
▁Band	-9507
▁Salve	-9508
▁vests	-9509
erating	-9510
▁Harish	-9511
▁options	-9512
▁noticing	-9513
▁removing	-9514
▁trustees	-9515
▁Concurrent	-9516
▁Federation	-9517
▁redemption	-9518
▁remembered	-9519
▁suitability	-9520
▁transformation	-9521
cel	-9522
▁NT	-9523
▁ine	-9524
▁Cost	-9525
▁Cult	-9526
▁Hari	-9527
▁Requ	-9528
▁chief	-9529
▁magaz	-9530
▁column	-9531
▁fiscal	-9532
ffective	-9533
spection	-9534
▁Several	-9535
▁cleared	-9536
▁Addition	-9537
▁expanded	-9538
▁operated	-9539
▁pregnant	-9540
▁succeeded	-9541
▁confirming	-9542
▁Institution	-9543
▁governments	-9544
harmaceutical	-9545
▁Consolidated	-9546
▁transferring	-9547
▁proportionate	-9548
enn	-9549
omy	-9550
ivedi	-9551
▁Cond	-9552
▁chose	-9553
alities	-9554
▁renewed	-9555
▁gratuity	-9556
▁imparting	-9557
▁Panchayats	-9558
▁Consultation	-9559
▁mig	-9560
▁upd	-9561
▁wal	-9562
▁detri	-9563
▁Amicus	-9564
▁gather	-9565
▁master	-9566
▁Dwivedi	-9567
▁Hearing	-9568
▁alcohol	-9569
▁consumed	-9570
▁remitted	-9571
missibility	-9572
%,	-9573
▁TN	-9574
arya	-9575
rams	-9576
▁Ess	-9577
plete	-9578
▁Sikk	-9579
▁COURT	-9580
▁fruits	-9581
▁leader	-9582
▁briefly	-9583
▁scooter	-9584
▁sanctity	-9585
▁premature	-9586
▁processed	-9587
▁successor	-9588
▁conveyance	-9589
▁congratulate	-9590
Ass	-9591
will	-9592
ietal	-9593
ipped	-9594
rence	-9595
▁Tuls	-9596
▁Sushil	-9597
▁broken	-9598
▁ignore	-9599
▁Chander	-9600
▁adjudic	-9601
▁weighed	-9602
▁Appendix	-9603
▁advances	-9604
▁combined	-9605
▁prisoners	-9606
▁unnatural	-9607
▁warranted	-9608
▁Prosecution	-9609
▁legislatures	-9610
▁preservation	-9611
▁ven	-9612
inity	-9613
▁Cler	-9614
▁Norm	-9615
▁beat	-9616
ailing	-9617
aswamy	-9618
▁breed	-9619
▁coerc	-9620
▁sites	-9621
resents	-9622
▁deaths	-9623
▁utmost	-9624
▁Schemes	-9625
▁artificial	-9626
▁promotions	-9627
▁confiscation	-9628
bon	-9629
▁Pow	-9630
▁Set	-9631
▁win	-9632
ighty	-9633
▁Copy	-9634
▁Wing	-9635
▁brut	-9636
uating	-9637
▁Nigam	-9638
▁derog	-9639
▁Bhutan	-9640
▁contradict	-9641
inth	-9642
▁Max	-9643
▁sad	-9644
▁Guru	-9645
▁pled	-9646
▁tell	-9647
▁elder	-9648
▁corpus	-9649
▁worker	-9650
▁disabled	-9651
▁institutes	-9652
▁preventive	-9653
▁controlling	-9654
mia	-9655
▁IF	-9656
▁fo	-9657
bidd	-9658
macy	-9659
meas	-9660
urit	-9661
▁Daw	-9662
▁MLA	-9663
▁phase	-9664
▁print	-9665
▁Muslims	-9666
▁therefor	-9667
▁thinking	-9668
▁ammunition	-9669
▁conferring	-9670
▁interesting	-9671
▁retrospectively	-9672
za	-9673
rich	-9674
▁orna	-9675
▁sums	-9676
▁wait	-9677
▁“...	-9678
▁Impro	-9679
▁Speech	-9680
▁beings	-9681
▁rarest	-9682
▁slight	-9683
forcement	-9684
▁Premises	-9685
▁internet	-9686
▁Chaudhary	-9687
Corporation	-9688
▁commutation	-9689
▁instruction	-9690
▁Recommendation	-9691
ero	-9692
▁MH	-9693
irds	-9694
▁AOR	-9695
▁NCL	-9696
▁SPE	-9697
▁sty	-9698
▁tom	-9699
hered	-9700
wealth	-9701
▁paddy	-9702
▁adding	-9703
▁urgent	-9704
▁triable	-9705
▁Insolvency	-9706
▁definitely	-9707
▁correspondence	-9708
Cri	-9709
rup	-9710
▁RA	-9711
▁Beg	-9712
▁kil	-9713
▁sear	-9714
▁shar	-9715
▁Benef	-9716
▁Brief	-9717
▁empty	-9718
▁score	-9719
▁Crores	-9720
▁stored	-9721
▁strang	-9722
▁Standard	-9723
▁enclosed	-9724
▁boundaries	-9725
▁represents	-9726
▁undisputed	-9727
▁Complainant	-9728
▁aggravating	-9729
SO	-9730
0/-	-9731
▁won	-9732
inety	-9733
▁Anti	-9734
▁Docu	-9735
▁WITH	-9736
▁rash	-9737
▁tool	-9738
rances	-9739
▁About	-9740
▁Black	-9741
▁Sikkim	-9742
▁behest	-9743
dictions	-9744
▁mission	-9745
▁Sciences	-9746
▁somewhat	-9747
▁projected	-9748
▁complained	-9749
▁convicting	-9750
▁inevitable	-9751
▁Prohibition	-9752
▁identifying	-9753
▁reasonableness	-9754
PCL	-9755
och	-9756
oya	-9757
hari	-9758
▁Yoj	-9759
▁bra	-9760
▁mid	-9761
▁ped	-9762
ading	-9763
▁Team	-9764
▁shel	-9765
except	-9766
▁store	-9767
settled	-9768
wellery	-9769
▁connot	-9770
▁decline	-9771
▁constant	-9772
▁drinking	-9773
▁provider	-9774
▁reflects	-9775
▁panchnama	-9776
▁terminate	-9777
▁Plaintiffs	-9778
▁Secretaries	-9779
▁Organisation	-9780
WC	-9781
atha	-9782
▁Bid	-9783
▁Han	-9784
▁pit	-9785
▁Nare	-9786
▁inse	-9787
▁motu	-9788
invest	-9789
▁allied	-9790
▁picture	-9791
▁Educational	-9792
▁interaction	-9793
BA	-9794
JEE	-9795
▁NH	-9796
onds	-9797
▁heav	-9798
inding	-9799
▁risks	-9800
▁ensures	-9801
▁journey	-9802
▁mischief	-9803
▁Obviously	-9804
▁confusion	-9805
▁delegated	-9806
▁developer	-9807
▁inability	-9808
▁Electronics	-9809
pol	-9810
oure	-9811
▁ASG	-9812
▁Ren	-9813
based	-9814
▁Rash	-9815
▁phen	-9816
▁Manohar	-9817
▁Meeting	-9818
▁actively	-9819
▁demanding	-9820
▁beneficiary	-9821
may	-9822
son	-9823
▁RO	-9824
▁Conv	-9825
raisal	-9826
▁expos	-9827
▁ideal	-9828
husband	-9829
▁Merely	-9830
▁serial	-9831
▁Conserv	-9832
▁inspire	-9833
▁suggests	-9834
▁summoned	-9835
▁dangerous	-9836
▁enforcing	-9837
ola	-9838
ucid	-9839
▁Kum	-9840
▁ble	-9841
-----	-9842
aided	-9843
cking	-9844
▁Hard	-9845
▁Units	-9846
▁bribe	-9847
▁ceases	-9848
▁unconsc	-9849
▁inferior	-9850
▁leviable	-9851
▁Liquidator	-9852
▁violations	-9853
▁Additionally	-9854
▁contradiction	-9855
▁EIA	-9856
▁Radh	-9857
▁evid	-9858
▁Misra	-9859
▁Table	-9860
▁Dinesh	-9861
▁anomal	-9862
chnology	-9863
▁survive	-9864
▁dishonest	-9865
▁newspapers	-9866
▁associations	-9867
▁MT	-9868
iyar	-9869
norm	-9870
▁Capt	-9871
▁Heard	-9872
▁cards	-9873
▁repair	-9874
▁seeing	-9875
▁visual	-9876
aturally	-9877
▁movable	-9878
▁redressal	-9879
▁Identification	-9880
Com	-9881
▁Care	-9882
▁emot	-9883
erting	-9884
▁aided	-9885
▁diary	-9886
▁seeds	-9887
▁blasts	-9888
▁perman	-9889
▁sports	-9890
▁Jagdish	-9891
▁imports	-9892
▁tractor	-9893
paragraph	-9894
▁External	-9895
▁campaign	-9896
▁generate	-9897
▁manpower	-9898
agistrates	-9899
▁affirming	-9900
▁promotees	-9901
orticulture	-9902
▁unfortunate	-9903
,-	-9904
▁Loan	-9905
▁Price	-9906
▁confron	-9907
▁qualify	-9908
▁grenades	-9909
▁passenger	-9910
▁cumulative	-9911
▁communicate	-9912
▁“(	-9913
Supra	-9914
kumar	-9915
▁	-9916
e	-9917
t	-9918
a	-9919
i	-9920
o	-9921
n	-9922
r	-9923
s	-9924
h	-9925
d	-9926
c	-9927
l	-9928
u	-9929
f	-9930
p	-9931
m	-9932
g	-9933
b	-9934
y	-9935
w	-9936
.	-9937
v	-9938
,	-9939
C	-9940
A	-9941
S	-9942
T	-9943
I	-9944
०	-9945
k	-9946
x	-9947
P	-9948
)	-9949
१	-9950
(	-9951
-	-9952
R	-9953
j	-9954
M	-9955
N	-9956
D	-9957
H	-9958
२	-9959
B	-9960
q	-9961
E	-9962
O	-9963
G	-9964
L	-9965
W	-9966
F	-9967
J	-9968
३	-9969
/	-9970
0	-9971
:	-9972
U	-9973
K	-9974
'	-9975
४	-9976
’	-9977
z	-9978
V	-9979
;	-9980
“	-9981
५	-9982
|	-9983
]	-9984
[	-9985
‘	-9986
६	-9987
&	-9988
Y	-9989
७	-9990
%	-9991
८	-9992
—	-9993
