<unk>	0
<s>	0
</s>	0
UuRrLl	0
DdAaTtEe	0
NnUuMm	0
▁t	-0
he	-1
▁a	-2
▁the	-3
▁o	-4
in	-5
on	-6
re	-7
at	-8
er	-9
▁of	-10
en	-11
ed	-12
is	-13
▁c	-14
it	-15
▁s	-16
ion	-17
▁p	-18
nd	-19
▁b	-20
▁w	-21
▁in	-22
al	-23
or	-24
es	-25
▁f	-26
▁to	-27
ar	-28
an	-29
ing	-30
ent	-31
as	-32
ic	-33
▁d	-34
ou	-35
▁and	-36
ct	-37
▁re	-38
▁th	-39
▁m	-40
ro	-41
le	-42
▁be	-43
▁h	-44
▁C	-45
▁n	-46
st	-47
ation	-48
▁e	-49
▁is	-50
▁T	-51
▁S	-52
ce	-53
id	-54
▁A	-55
▁that	-56
ot	-57
ment	-58
ut	-59
om	-60
ll	-61
▁I	-62
ve	-63
▁con	-64
▁for	-65
se	-66
▁or	-67
▁by	-68
▁on	-69
▁as	-70
pp	-71
▁u	-72
ri	-73
ly	-74
▁pro	-75
▁su	-76
▁l	-77
ad	-78
our	-79
▁de	-80
▁(	-81
ate	-82
▁The	-83
▁an	-84
ur	-85
im	-86
▁P	-87
▁not	-88
ch	-89
il	-90
▁wh	-91
▁app	-92
▁was	-93
ant	-94
her	-95
ver	-96
ourt	-97
▁wit	-98
ter	-99
▁g	-100
ect	-101
ig	-102
ra	-103
▁it	-104
ld	-105
ow	-106
if	-107
▁with	-108
ay	-109
et	-110
▁M	-111
▁R	-112
ere	-113
▁ex	-114
ir	-115
ain	-116
▁Court	-117
qu	-118
ab	-119
ers	-120
am	-121
res	-122
ul	-123
ud	-124
▁H	-125
ess	-126
▁st	-127
nder	-128
▁com	-129
▁v	-130
us	-131
▁B	-132
▁under	-133
ich	-134
▁D	-135
ity	-136
▁has	-137
ge	-138
▁which	-139
▁N	-140
ther	-141
ol	-142
▁he	-143
and	-144
ated	-145
▁sh	-146
est	-147
ions	-148
▁are	-149
▁this	-150
▁al	-151
ist	-152
ak	-153
os	-154
ec	-155
▁ac	-156
▁le	-157
ore	-158
end	-159
iv	-160
▁appe	-161
▁G	-162
▁res	-163
ould	-164
▁any	-165
▁ha	-166
art	-167
ence	-168
od	-169
▁at	-170
ive	-171
ial	-172
▁cas	-173
ies	-174
rom	-175
nt	-176
red	-177
▁j	-178
all	-179
ice	-180
gh	-181
▁In	-182
ted	-183
▁sub	-184
▁from	-185
ition	-186
ust	-187
▁cont	-188
um	-189
igh	-190
ard	-191
▁been	-192
▁have	-193
la	-194
em	-195
ort	-196
ure	-197
▁O	-198
▁prov	-199
un	-200
pon	-201
▁there	-202
▁L	-203
▁J	-204
ance	-205
pl	-206
able	-207
▁Act	-208
aid	-209
▁dis	-210
ction	-211
▁whe	-212
so	-213
▁fa	-214
▁such	-215
▁St	-216
ff	-217
ia	-218
ord	-219
▁case	-220
▁E	-221
ie	-222
over	-223
▁per	-224
▁acc	-225
ned	-226
ution	-227
▁W	-228
ill	-229
▁ad	-230
▁F	-231
lic	-232
ary	-233
▁Ind	-234
▁im	-235
stit	-236
mis	-237
mit	-238
▁int	-239
der	-240
llant	-241
fore	-242
▁ag	-243
▁other	-244
sion	-245
per	-246
th	-247
▁part	-248
▁also	-249
pt	-250
oc	-251
ire	-252
▁we	-253
▁It	-254
su	-255
▁all	-256
▁comp	-257
cl	-258
▁appellant	-259
ru	-260
erv	-261
▁ab	-262
▁cons	-263
▁ch	-264
aw	-265
▁can	-266
overn	-267
▁rec	-268
ee	-269
ame	-270
erson	-271
ght	-272
▁ar	-273
▁had	-274
ous	-275
ade	-276
op	-277
▁y	-278
▁State	-279
▁High	-280
▁en	-281
du	-282
ear	-283
▁off	-284
▁no	-285
▁ev	-286
▁were	-287
▁person	-288
▁imp	-289
▁would	-290
..	-291
ag	-292
▁order	-293
▁may	-294
▁his	-295
ount	-296
▁dec	-297
ations	-298
ac	-299
▁shall	-300
▁jud	-301
age	-302
ection	-303
ision	-304
ied	-305
▁Com	-306
▁Con	-307
min	-308
sed	-309
overnment	-310
▁qu	-311
▁K	-312
pond	-313
rou	-314
▁reg	-315
ict	-316
▁Th	-317
▁U	-318
▁India	-319
ced	-320
ip	-321
ib	-322
▁No	-323
▁am	-324
▁ob	-325
ide	-326
ub	-327
▁rel	-328
fter	-329
pondent	-330
ree	-331
fer	-332
stitution	-333
▁made	-334
▁“	-335
▁se	-336
▁said	-337
▁sp	-338
ific	-339
▁law	-340
used	-341
ject	-342
▁its	-343
▁ri	-344
▁un	-345
pect	-346
orm	-347
▁who	-348
ran	-349
▁Government	-350
▁tak	-351
▁ne	-352
▁pre	-353
▁mat	-354
▁De	-355
ome	-356
ident	-357
sel	-358
use	-359
ments	-360
ind	-361
oin	-362
oun	-363
▁fact	-364
▁pres	-365
rib	-366
etition	-367
ces	-368
▁-	-369
ry	-370
ered	-371
mission	-372
▁Re	-373
ose	-374
iz	-375
▁out	-376
ha	-377
▁right	-378
me	-379
▁respondent	-380
ical	-381
▁year	-382
▁do	-383
ult	-384
▁rep	-385
tain	-386
▁me	-387
iew	-388
▁their	-389
▁before	-390
fere	-391
ise	-392
mitted	-393
ove	-394
▁,	-395
▁r	-396
▁issu	-397
▁only	-398
ty	-399
▁consid	-400
▁judg	-401
ail	-402
pos	-403
▁pur	-404
▁dated	-405
▁court	-406
▁ind	-407
ost	-408
uth	-409
▁if	-410
▁ent	-411
oll	-412
ime	-413
ory	-414
isions	-415
▁so	-416
rit	-417
ious	-418
ish	-419
ile	-420
ates	-421
▁again	-422
ue	-423
▁inv	-424
▁V	-425
form	-426
▁where	-427
▁inc	-428
▁cla	-429
▁will	-430
out	-431
.0	-432
▁one	-433
▁requ	-434
irect	-435
▁inter	-436
▁same	-437
▁applic	-438
▁lear	-439
▁accused	-440
ract	-441
uthor	-442
▁|	-443
ings	-444
ual	-445
istr	-446
▁ass	-447
▁man	-448
ating	-449
ber	-450
▁time	-451
▁ca	-452
▁petition	-453
og	-454
▁k	-455
▁em	-456
▁As	-457
▁but	-458
ong	-459
che	-460
ublic	-461
▁learned	-462
ention	-463
▁def	-464
ities	-465
cc	-466
▁fil	-467
clud	-468
▁SC	-469
ollow	-470
▁against	-471
ach	-472
▁leg	-473
▁held	-474
one	-475
▁being	-476
▁pas	-477
ceed	-478
▁follow	-479
▁exp	-480
▁after	-481
ine	-482
▁Jud	-483
▁pl	-484
urther	-485
▁should	-486
ased	-487
ood	-488
ason	-489
ative	-490
▁pow	-491
▁view	-492
idence	-493
▁Constitution	-494
),	-495
ci	-496
▁appeal	-497
vel	-498
rans	-499
▁pos	-500
not	-501
▁act	-502
▁judgment	-503
▁serv	-504
▁Ch	-505
▁matter	-506
ax	-507
eral	-508
▁provisions	-509
ork	-510
▁'	-511
▁This	-512
ferred	-513
▁spec	-514
ens	-515
▁comm	-516
▁pr	-517
act	-518
ward	-519
ign	-520
nce	-521
oint	-522
▁mak	-523
▁pay	-524
▁tw	-525
ound	-526
▁ter	-527
▁giv	-528
oy	-529
▁coun	-530
cy	-531
▁land	-532
▁Pro	-533
ational	-534
ffect	-535
▁quest	-536
▁record	-537
▁into	-538
ute	-539
are	-540
▁they	-541
▁reason	-542
ided	-543
▁cannot	-544
▁him	-545
▁proceed	-546
ged	-547
rial	-548
▁Sh	-549
▁proper	-550
old	-551
▁direct	-552
ok	-553
▁filed	-554
▁trans	-555
▁author	-556
▁li	-557
ved	-558
ving	-559
▁respect	-560
aint	-561
ified	-562
ility	-563
▁We	-564
▁op	-565
ature	-566
▁when	-567
▁two	-568
▁set	-569
ors	-570
▁‘	-571
▁conc	-572
lect	-573
▁evidence	-574
▁consider	-575
ness	-576
....	-577
▁further	-578
we	-579
iction	-580
▁.	-581
▁pla	-582
▁ext	-583
hed	-584
▁above	-585
▁our	-586
▁pol	-587
▁appro	-588
ast	-589
▁He	-590
▁Su	-591
▁counsel	-592
own	-593
▁must	-594
▁pri	-595
ession	-596
▁There	-597
med	-598
▁char	-599
led	-600
ase	-601
ath	-602
ular	-603
▁SCC	-604
ral	-605
rant	-606
▁bet	-607
▁public	-608
ired	-609
▁taken	-610
▁years	-611
▁regard	-612
ffic	-613
▁state	-614
▁includ	-615
erest	-616
el	-617
very	-618
▁[	-619
ised	-620
ally	-621
cept	-622
erc	-623
▁question	-624
▁Un	-625
▁Ex	-626
ever	-627
irst	-628
▁present	-629
▁within	-630
ms	-631
isl	-632
▁them	-633
ible	-634
ph	-635
▁decision	-636
▁upon	-637
▁work	-638
wn	-639
▁power	-640
▁these	-641
▁amount	-642
ian	-643
pre	-644
bit	-645
▁over	-646
arl	-647
▁Rs	-648
iod	-649
▁Ben	-650
ond	-651
▁interest	-652
▁whether	-653
ploy	-654
ended	-655
ank	-656
▁bec	-657
ild	-658
▁On	-659
▁App	-660
ween	-661
▁period	-662
▁up	-663
ges	-664
▁cl	-665
ification	-666
ight	-667
rimin	-668
any	-669
▁could	-670
aj	-671
velop	-672
▁between	-673
▁cle	-674
▁dif	-675
▁Section	-676
▁given	-677
▁sec	-678
▁well	-679
▁her	-680
icial	-681
mitt	-682
sec	-683
▁Commission	-684
).	-685
ustice	-686
its	-687
ules	-688
▁val	-689
ited	-690
▁Sing	-691
uring	-692
▁effect	-693
▁application	-694
▁submitted	-695
ecess	-696
▁compl	-697
ven	-698
duct	-699
ference	-700
ite	-701
▁bas	-702
irc	-703
▁mar	-704
▁writ	-705
▁claim	-706
ices	-707
▁concer	-708
▁passed	-709
▁grou	-710
ex	-711
▁supp	-712
▁disc	-713
▁att	-714
▁therefore	-715
▁persons	-716
ief	-717
▁poss	-718
pri	-719
▁clear	-720
▁exam	-721
▁Cent	-722
▁par	-723
ug	-724
▁PW	-725
▁cases	-726
▁rem	-727
ined	-728
und	-729
owever	-730
ances	-731
▁grant	-732
ior	-733
stru	-734
serv	-735
▁Mr	-736
hi	-737
▁even	-738
▁0	-739
▁cer	-740
▁date	-741
▁Pres	-742
▁first	-743
▁necess	-744
▁employ	-745
ale	-746
gu	-747
▁ra	-748
▁than	-749
▁Ad	-750
▁mean	-751
▁accord	-752
dition	-753
▁invest	-754
▁Bench	-755
▁mem	-756
▁read	-757
▁rele	-758
pose	-759
ily	-760
abl	-761
rad	-762
av	-763
▁prin	-764
ife	-765
▁fin	-766
▁sent	-767
▁circ	-768
▁inform	-769
ef	-770
▁suit	-771
oth	-772
eneral	-773
▁does	-774
por	-775
ays	-776
▁Judge	-777
▁cor	-778
▁more	-779
▁referred	-780
cess	-781
▁Ar	-782
rough	-783
▁stat	-784
xad	-785
▁est	-786
aring	-787
ack	-788
▁section	-789
itions	-790
▁observ	-791
part	-792
▁Min	-793
▁conf	-794
vant	-795
ass	-796
▁partic	-797
▁stated	-798
▁form	-799
▁offence	-800
unal	-801
▁prosec	-802
riminal	-803
port	-804
▁find	-805
▁te	-806
ash	-807
ress	-808
▁property	-809
▁appellants	-810
bitr	-811
▁deal	-812
▁parties	-813
▁while	-814
▁subject	-815
ap	-816
▁through	-817
▁An	-818
▁President	-819
ribunal	-820
▁exerc	-821
uris	-822
vers	-823
▁following	-824
ke	-825
▁min	-826
▁some	-827
▁allow	-828
▁/	-829
▁purpose	-830
▁tax	-831
▁without	-832
uted	-833
ull	-834
con	-835
▁about	-836
miss	-837
har	-838
▁&	-839
ained	-840
▁count	-841
▁Central	-842
▁af	-843
igation	-844
ores	-845
▁legisl	-846
mittee	-847
ees	-848
▁Appe	-849
▁var	-850
▁good	-851
▁proceedings	-852
ient	-853
▁av	-854
clus	-855
ater	-856
ep	-857
▁Singh	-858
ough	-859
▁acqu	-860
▁circum	-861
▁agree	-862
▁report	-863
▁concerned	-864
▁make	-865
▁trial	-866
ric	-867
ix	-868
te	-869
▁basis	-870
▁facts	-871
▁hold	-872
▁rece	-873
▁mon	-874
▁ro	-875
▁ground	-876
▁provision	-877
▁juris	-878
▁soc	-879
ner	-880
velopment	-881
ivil	-882
▁ben	-883
▁found	-884
oresaid	-885
▁issued	-886
▁aforesaid	-887
▁witness	-888
▁authority	-889
hal	-890
▁us	-891
▁sc	-892
▁circumst	-893
▁own	-894
▁gu	-895
ety	-896
ural	-897
▁disp	-898
▁Reg	-899
▁issue	-900
ries	-901
eg	-902
▁ord	-903
sequ	-904
▁des	-905
▁ret	-906
ability	-907
ished	-908
pra	-909
▁contract	-910
▁required	-911
▁Res	-912
▁necessary	-913
▁need	-914
ince	-915
ting	-916
▁bel	-917
bers	-918
ferent	-919
anc	-920
cil	-921
enior	-922
diction	-923
section	-924
▁Indian	-925
▁post	-926
▁then	-927
▁here	-928
▁Or	-929
▁appoint	-930
▁process	-931
edu	-932
▁hand	-933
▁award	-934
▁new	-935
ith	-936
hip	-937
▁word	-938
▁clause	-939
▁account	-940
▁Whe	-941
urn	-942
▁service	-943
ew	-944
PC	-945
▁deter	-946
▁having	-947
▁jurisdiction	-948
▁del	-949
iff	-950
▁stand	-951
ode	-952
▁occ	-953
▁Shri	-954
▁different	-955
▁those	-956
▁rev	-957
▁both	-958
▁three	-959
ption	-960
▁down	-961
ality	-962
▁take	-963
▁name	-964
▁establ	-965
cheme	-966
▁consideration	-967
▁Offic	-968
▁ins	-969
▁benef	-970
▁relevant	-971
crib	-972
▁Committee	-973
▁place	-974
ceased	-975
tic	-976
▁exec	-977
self	-978
half	-979
ister	-980
ks	-981
erial	-982
iness	-983
▁notice	-984
▁car	-985
▁Tribunal	-986
ither	-987
▁behalf	-988
▁petitioner	-989
▁aff	-990
▁tre	-991
ii	-992
ouse	-993
▁considered	-994
other	-995
▁terms	-996
▁provid	-997
▁offic	-998
ital	-999
▁kn	-1000
ency	-1001
▁arbitr	-1002
▁determin	-1003
cip	-1004
▁:	-1005
ody	-1006
▁death	-1007
▁circumstances	-1008
oard	-1009
▁did	-1010
leg	-1011
▁prosecution	-1012
▁various	-1013
esh	-1014
▁avail	-1015
of	-1016
▁lim	-1017
uty	-1018
▁conv	-1019
man	-1020
▁dem	-1021
lement	-1022
▁deceased	-1023
ences	-1024
▁col	-1025
▁provided	-1026
ants	-1027
tern	-1028
ts	-1029
chn	-1030
▁like	-1031
supra	-1032
raph	-1033
after	-1034
▁co	-1035
▁pe	-1036
▁Del	-1037
▁object	-1038
ren	-1039
ized	-1040
▁during	-1041
onment	-1042
▁oper	-1043
▁rights	-1044
IR	-1045
▁material	-1046
▁prev	-1047
▁opin	-1048
ocu	-1049
▁particular	-1050
ointed	-1051
ures	-1052
▁Rules	-1053
ination	-1054
▁dist	-1055
ending	-1056
▁information	-1057
omm	-1058
▁equ	-1059
▁Ru	-1060
▁inst	-1061
▁she	-1062
▁Acc	-1063
ier	-1064
ause	-1065
ents	-1066
▁statement	-1067
▁what	-1068
▁company	-1069
▁certain	-1070
lection	-1071
▁including	-1072
▁nature	-1073
▁However	-1074
cedure	-1075
ret	-1076
ful	-1077
▁Delhi	-1078
▁adv	-1079
▁opinion	-1080
ram	-1081
▁det	-1082
▁docu	-1083
▁agreement	-1084
▁conduct	-1085
▁num	-1086
▁inj	-1087
▁legal	-1088
▁If	-1089
▁life	-1090
▁comple	-1091
▁Sec	-1092
▁non	-1093
▁bus	-1094
▁month	-1095
▁produ	-1096
▁sit	-1097
▁priv	-1098
allen	-1099
▁main	-1100
olog	-1101
aintiff	-1102
ring	-1103
ages	-1104
/-	-1105
▁Coun	-1106
▁contin	-1107
▁import	-1108
▁exist	-1109
▁see	-1110
▁En	-1111
iety	-1112
▁used	-1113
▁Rule	-1114
▁Comp	-1115
han	-1116
▁manner	-1117
▁rest	-1118
▁respondents	-1119
ov	-1120
▁For	-1121
ogn	-1122
▁mention	-1123
▁Sp	-1124
arlia	-1125
▁cond	-1126
ourse	-1127
arliament	-1128
ople	-1129
▁med	-1130
icy	-1131
ived	-1132
▁Chief	-1133
▁et	-1134
▁sy	-1135
▁Board	-1136
▁each	-1137
▁Cha	-1138
sequent	-1139
▁vi	-1140
▁bu	-1141
▁cro	-1142
▁prot	-1143
▁senior	-1144
▁exercise	-1145
▁because	-1146
ising	-1147
▁Justice	-1148
ars	-1149
ave	-1150
.,	-1151
▁income	-1152
read	-1153
ivid	-1154
ati	-1155
ivers	-1156
▁challen	-1157
▁ref	-1158
▁etc	-1159
▁Code	-1160
▁entit	-1161
arge	-1162
▁ru	-1163
posed	-1164
▁tr	-1165
▁members	-1166
▁expres	-1167
▁sale	-1168
▁constru	-1169
▁pun	-1170
preme	-1171
▁due	-1172
▁country	-1173
▁constitution	-1174
▁abs	-1175
gan	-1176
▁observed	-1177
▁princip	-1178
less	-1179
ugned	-1180
▁Union	-1181
atory	-1182
bt	-1183
▁criminal	-1184
▁goods	-1185
▁far	-1186
▁action	-1187
▁tra	-1188
cipl	-1189
▁show	-1190
stem	-1191
▁police	-1192
▁fund	-1193
ning	-1194
see	-1195
the	-1196
tal	-1197
▁cap	-1198
▁impugned	-1199
▁prom	-1200
▁Parliament	-1201
▁cre	-1202
▁Supreme	-1203
cation	-1204
▁result	-1205
▁Wh	-1206
▁call	-1207
▁use	-1208
........	-1209
ives	-1210
▁business	-1211
ble	-1212
▁thus	-1213
ulation	-1214
▁test	-1215
cribed	-1216
priate	-1217
▁fun	-1218
▁reference	-1219
▁compens	-1220
▁inf	-1221
les	-1222
▁payment	-1223
▁allowed	-1224
▁way	-1225
▁charge	-1226
orpor	-1227
ator	-1228
▁argu	-1229
▁let	-1230
▁judicial	-1231
partment	-1232
▁fra	-1233
▁specific	-1234
ook	-1235
▁Ag	-1236
▁pen	-1237
ateg	-1238
▁development	-1239
▁child	-1240
iry	-1241
▁number	-1242
▁require	-1243
▁people	-1244
▁i	-1245
▁possession	-1246
▁Pol	-1247
endment	-1248
▁since	-1249
lig	-1250
ob	-1251
ify	-1252
▁sim	-1253
ES	-1254
istrict	-1255
▁sentence	-1256
▁available	-1257
ividual	-1258
▁Man	-1259
▁earl	-1260
osed	-1261
▁recorded	-1262
▁according	-1263
ivision	-1264
istration	-1265
▁pass	-1266
ft	-1267
ma	-1268
ris	-1269
row	-1270
tra	-1271
als	-1272
clusion	-1273
▁assess	-1274
▁fail	-1275
▁paid	-1276
▁apply	-1277
▁just	-1278
▁words	-1279
▁invol	-1280
tained	-1281
▁every	-1282
▁plaintiff	-1283
▁day	-1284
▁add	-1285
iance	-1286
par	-1287
▁very	-1288
stitut	-1289
▁ident	-1290
▁situ	-1291
▁appointment	-1292
ately	-1293
▁entitled	-1294
:-	-1295
▁punish	-1296
▁individual	-1297
▁Mar	-1298
ket	-1299
▁services	-1300
ecial	-1301
▁OF	-1302
▁duty	-1303
reed	-1304
agraph	-1305
▁subst	-1306
▁opp	-1307
▁party	-1308
▁prof	-1309
▁appropriate	-1310
▁edu	-1311
▁Y	-1312
▁Law	-1313
▁expl	-1314
▁Courts	-1315
ai	-1316
▁ple	-1317
atis	-1318
▁defend	-1319
▁viol	-1320
jud	-1321
ready	-1322
▁area	-1323
▁based	-1324
▁pract	-1325
▁orders	-1326
▁either	-1327
▁already	-1328
▁back	-1329
▁earlier	-1330
resent	-1331
▁Am	-1332
▁investigation	-1333
▁another	-1334
ys	-1335
rol	-1336
▁ten	-1337
▁recomm	-1338
▁justice	-1339
▁conditions	-1340
ext	-1341
▁National	-1342
▁promot	-1343
▁Therefore	-1344
▁sum	-1345
for	-1346
▁Bank	-1347
▁Officer	-1348
▁dra	-1349
▁complaint	-1350
atisf	-1351
00	-1352
▁making	-1353
▁fore	-1354
▁compensation	-1355
▁At	-1356
ah	-1357
ancial	-1358
AR	-1359
▁contained	-1360
unity	-1361
▁second	-1362
▁special	-1363
▁statut	-1364
ang	-1365
TI	-1366
ought	-1367
inal	-1368
▁go	-1369
▁granted	-1370
▁mentioned	-1371
▁States	-1372
▁Sub	-1373
▁indust	-1374
▁along	-1375
uk	-1376
▁fav	-1377
▁follows	-1378
king	-1379
▁laid	-1380
▁letter	-1381
▁appeals	-1382
▁itself	-1383
ilar	-1384
▁system	-1385
▁policy	-1386
ctions	-1387
▁cent	-1388
▁came	-1389
▁committed	-1390
app	-1391
▁scheme	-1392
▁Raj	-1393
alth	-1394
▁General	-1395
pted	-1396
▁Division	-1397
wise	-1398
ten	-1399
▁means	-1400
▁init	-1401
▁general	-1402
▁er	-1403
▁cause	-1404
▁principle	-1405
ditional	-1406
▁favour	-1407
ON	-1408
ines	-1409
▁placed	-1410
▁position	-1411
▁mer	-1412
▁ph	-1413
▁reasons	-1414
▁All	-1415
▁value	-1416
ple	-1417
▁end	-1418
▁ve	-1419
essee	-1420
▁support	-1421
▁loc	-1422
▁course	-1423
EN	-1424
ss	-1425
▁provide	-1426
▁bl	-1427
here	-1428
▁satisf	-1429
▁Council	-1430
▁powers	-1431
▁relating	-1432
▁matters	-1433
hav	-1434
eep	-1435
ested	-1436
ER	-1437
▁mis	-1438
▁Not	-1439
▁cost	-1440
▁rule	-1441
▁Minister	-1442
▁though	-1443
pons	-1444
by	-1445
itation	-1446
▁Sche	-1447
▁techn	-1448
anding	-1449
▁Leg	-1450
▁dou	-1451
uman	-1452
andid	-1453
▁Civil	-1454
▁days	-1455
▁officer	-1456
▁represent	-1457
▁you	-1458
ication	-1459
▁provides	-1460
▁sur	-1461
ried	-1462
▁Petition	-1463
▁constitutional	-1464
missed	-1465
ining	-1466
▁herein	-1467
▁Direct	-1468
uch	-1469
agistr	-1470
af	-1471
ential	-1472
▁candid	-1473
▁Author	-1474
▁sect	-1475
▁Se	-1476
▁dismissed	-1477
conom	-1478
▁specified	-1479
▁lead	-1480
ively	-1481
▁valid	-1482
poses	-1483
▁chan	-1484
ruct	-1485
▁except	-1486
ashtra	-1487
▁witnesses	-1488
▁courts	-1489
▁Gu	-1490
▁body	-1491
▁ens	-1492
▁gre	-1493
▁bank	-1494
▁interpre	-1495
▁elect	-1496
rect	-1497
▁meet	-1498
▁entire	-1499
▁prescribed	-1500
▁compet	-1501
▁transfer	-1502
▁alle	-1503
▁perform	-1504
istered	-1505
▁enact	-1506
ata	-1507
▁project	-1508
▁Ass	-1509
ording	-1510
▁point	-1511
▁IPC	-1512
▁rules	-1513
▁depos	-1514
▁class	-1515
hib	-1516
▁Thus	-1517
ared	-1518
rie	-1519
▁prog	-1520
▁cred	-1521
▁society	-1522
▁accept	-1523
▁know	-1524
▁stud	-1525
agistrate	-1526
▁Prad	-1527
quiry	-1528
ering	-1529
▁submission	-1530
▁accordance	-1531
llate	-1532
▁fam	-1533
▁received	-1534
▁house	-1535
▁Lt	-1536
▁decl	-1537
▁sign	-1538
AN	-1539
▁indic	-1540
▁mod	-1541
ari	-1542
▁Part	-1543
gg	-1544
▁II	-1545
▁open	-1546
▁ser	-1547
▁come	-1548
ather	-1549
wards	-1550
ell	-1551
▁paragraph	-1552
agement	-1553
▁categ	-1554
rime	-1555
▁aside	-1556
▁directed	-1557
▁purposes	-1558
ology	-1559
▁namely	-1560
▁alleged	-1561
▁Respondent	-1562
▁dispute	-1563
ured	-1564
▁bro	-1565
▁Ram	-1566
▁asse	-1567
▁mere	-1568
▁activ	-1569
▁continu	-1570
iary	-1571
▁taking	-1572
▁discus	-1573
ck	-1574
▁force	-1575
▁full	-1576
soci	-1577
▁however	-1578
▁detail	-1579
cing	-1580
▁orig	-1581
▁According	-1582
▁done	-1583
▁Serv	-1584
▁stage	-1585
▁office	-1586
tak	-1587
▁benefit	-1588
▁constit	-1589
ibility	-1590
▁high	-1591
▁procedure	-1592
▁give	-1593
▁medical	-1594
▁months	-1595
▁admin	-1596
▁statutory	-1597
▁build	-1598
with	-1599
irm	-1600
▁Magistrate	-1601
▁vide	-1602
▁decisions	-1603
missions	-1604
acy	-1605
▁conclusion	-1606
spect	-1607
▁thereof	-1608
▁lit	-1609
mber	-1610
▁To	-1611
oss	-1612
urre	-1613
ne	-1614
way	-1615
tific	-1616
▁Prov	-1617
air	-1618
▁Mem	-1619
▁Ltd	-1620
eed	-1621
▁get	-1622
▁notification	-1623
olution	-1624
▁Te	-1625
isition	-1626
▁otherwise	-1627
taining	-1628
mb	-1629
▁fl	-1630
ciples	-1631
ulations	-1632
ya	-1633
▁establish	-1634
AL	-1635
epend	-1636
▁Department	-1637
BI	-1638
▁acce	-1639
▁common	-1640
chan	-1641
▁met	-1642
▁Pradesh	-1643
▁important	-1644
val	-1645
oney	-1646
▁cust	-1647
▁che	-1648
umar	-1649
▁offences	-1650
▁Police	-1651
▁econom	-1652
orted	-1653
▁Legisl	-1654
▁deem	-1655
duced	-1656
▁That	-1657
▁appointed	-1658
▁financial	-1659
stitutions	-1660
▁District	-1661
▁exper	-1662
▁assessee	-1663
▁Commissioner	-1664
▁aspect	-1665
inary	-1666
ID	-1667
▁Dr	-1668
▁pat	-1669
ked	-1670
▁After	-1671
▁Govern	-1672
▁raised	-1673
lied	-1674
▁long	-1675
▁sett	-1676
▁conn	-1677
▁purch	-1678
▁mind	-1679
orporation	-1680
▁note	-1681
▁prior	-1682
▁Eng	-1683
empt	-1684
▁Judges	-1685
anies	-1686
get	-1687
▁ir	-1688
overed	-1689
fficient	-1690
▁clearly	-1691
▁my	-1692
▁now	-1693
▁Bh	-1694
mental	-1695
lause	-1696
▁recogn	-1697
▁hig	-1698
▁registered	-1699
dule	-1700
▁Par	-1701
ons	-1702
▁Co	-1703
▁Col	-1704
▁put	-1705
▁dep	-1706
igned	-1707
▁Univers	-1708
▁accepted	-1709
▁remain	-1710
ool	-1711
▁Authority	-1712
▁refer	-1713
▁But	-1714
▁New	-1715
utive	-1716
▁arbitration	-1717
rought	-1718
▁private	-1719
▁final	-1720
ters	-1721
▁Special	-1722
▁petitioners	-1723
▁Pr	-1724
▁expression	-1725
risonment	-1726
▁documents	-1727
▁They	-1728
▁noted	-1729
▁rate	-1730
▁sought	-1731
ulated	-1732
arily	-1733
▁Al	-1734
▁Public	-1735
▁Appeal	-1736
▁Cr	-1737
▁IN	-1738
hic	-1739
rest	-1740
▁These	-1741
oh	-1742
ards	-1743
▁correct	-1744
uf	-1745
▁Order	-1746
PW	-1747
▁str	-1748
itor	-1749
riage	-1750
▁less	-1751
up	-1752
▁Further	-1753
▁organ	-1754
▁wom	-1755
▁total	-1756
▁doubt	-1757
▁san	-1758
▁decided	-1759
▁recommend	-1760
▁government	-1761
▁Report	-1762
▁meaning	-1763
▁reasonable	-1764
▁context	-1765
▁sever	-1766
▁Cont	-1767
istry	-1768
▁opport	-1769
uly	-1770
lf	-1771
hes	-1772
▁imprisonment	-1773
▁decree	-1774
▁extent	-1775
▁defendant	-1776
ird	-1777
▁respons	-1778
▁appearing	-1779
▁principles	-1780
▁ur	-1781
...	-1782
▁assessment	-1783
arn	-1784
▁age	-1785
▁fix	-1786
▁substant	-1787
ging	-1788
ury	-1789
▁charges	-1790
▁education	-1791
▁applicable	-1792
▁Artic	-1793
▁civil	-1794
▁water	-1795
ower	-1796
▁established	-1797
▁contended	-1798
▁adver	-1799
▁incident	-1800
standing	-1801
▁Kumar	-1802
▁reject	-1803
▁nor	-1804
action	-1805
au	-1806
▁env	-1807
ainant	-1808
▁employees	-1809
▁list	-1810
sp	-1811
▁mand	-1812
▁undertak	-1813
ajor	-1814
iber	-1815
▁level	-1816
▁gen	-1817
▁took	-1818
▁separ	-1819
ization	-1820
ik	-1821
ufact	-1822
IC	-1823
ray	-1824
▁issues	-1825
▁examined	-1826
▁lic	-1827
▁relied	-1828
▁Criminal	-1829
ictim	-1830
▁den	-1831
ield	-1832
▁incre	-1833
▁affect	-1834
imum	-1835
▁family	-1836
▁ensure	-1837
▁called	-1838
▁Ma	-1839
▁below	-1840
▁review	-1841
oper	-1842
▁unless	-1843
▁initi	-1844
▁Adv	-1845
▁human	-1846
▁brought	-1847
day	-1848
▁amendment	-1849
▁discl	-1850
▁subsequent	-1851
▁meas	-1852
▁authorities	-1853
▁holding	-1854
▁ann	-1855
▁When	-1856
arent	-1857
▁Company	-1858
▁regarding	-1859
utes	-1860
▁fall	-1861
▁lease	-1862
▁suff	-1863
angu	-1864
▁market	-1865
▁examination	-1866
▁hearing	-1867
▁Corporation	-1868
sw	-1869
osp	-1870
amental	-1871
uses	-1872
urity	-1873
ron	-1874
▁Lear	-1875
▁sugg	-1876
▁money	-1877
ense	-1878
ically	-1879
ructure	-1880
▁victim	-1881
▁Nos	-1882
▁several	-1883
omb	-1884
--	-1885
▁possible	-1886
itiz	-1887
ached	-1888
▁care	-1889
ism	-1890
mes	-1891
▁short	-1892
ironment	-1893
havan	-1894
▁function	-1895
▁institutions	-1896
orld	-1897
▁demand	-1898
irection	-1899
▁decla	-1900
ger	-1901
hold	-1902
▁independ	-1903
akh	-1904
▁delay	-1905
▁relation	-1906
▁Mad	-1907
▁vehic	-1908
▁social	-1909
▁ver	-1910
ps	-1911
▁others	-1912
tificate	-1913
▁ess	-1914
vi	-1915
▁mot	-1916
II	-1917
▁nan	-1918
overy	-1919
▁similar	-1920
▁liable	-1921
ves	-1922
hing	-1923
eak	-1924
▁penal	-1925
▁treat	-1926
ace	-1927
▁major	-1928
▁towards	-1929
▁implement	-1930
ira	-1931
pe	-1932
ways	-1933
▁Learned	-1934
ercial	-1935
▁most	-1936
▁cop	-1937
▁appre	-1938
▁Governor	-1939
ENT	-1940
▁complete	-1941
aged	-1942
▁direction	-1943
▁propos	-1944
▁original	-1945
▁enter	-1946
▁relief	-1947
▁vis	-1948
▁conviction	-1949
mon	-1950
▁PR	-1951
urance	-1952
ana	-1953
uled	-1954
▁situation	-1955
▁Ministry	-1956
▁institution	-1957
▁succ	-1958
▁construction	-1959
▁Bhavan	-1960
▁become	-1961
▁light	-1962
▁control	-1963
▁manufact	-1964
na	-1965
▁pointed	-1966
▁Pl	-1967
AT	-1968
oid	-1969
idav	-1970
▁term	-1971
ually	-1972
▁complainant	-1973
▁free	-1974
▁express	-1975
▁your	-1976
▁deemed	-1977
band	-1978
▁document	-1979
come	-1980
chool	-1981
▁eng	-1982
▁Secret	-1983
▁artic	-1984
▁therein	-1985
▁plan	-1986
▁And	-1987
▁reserv	-1988
▁doct	-1989
▁member	-1990
▁head	-1991
▁interpret	-1992
▁say	-1993
▁product	-1994
▁pursu	-1995
▁previous	-1996
▁Tax	-1997
▁till	-1998
▁share	-1999
▁judgments	-2000
iso	-2001
HE	-2002
▁many	-2003
▁large	-2004
medi	-2005
anation	-2006
▁relig	-2007
▁occas	-2008
atural	-2009
isation	-2010
▁answ	-2011
▁event	-2012
▁legislation	-2013
az	-2014
▁pet	-2015
rust	-2016
▁areas	-2017
▁sal	-2018
▁loss	-2019
▁develop	-2020
▁qual	-2021
CI	-2022
▁declar	-2023
▁directions	-2024
▁finding	-2025
▁pending	-2026
▁relations	-2027
▁vac	-2028
▁facil	-2029
ledge	-2030
▁Director	-2031
iced	-2032
▁err	-2033
▁ke	-2034
▁disch	-2035
▁building	-2036
▁wherein	-2037
▁defin	-2038
▁trade	-2039
▁alleg	-2040
unic	-2041
ories	-2042
▁giving	-2043
▁fundamental	-2044
▁protect	-2045
▁While	-2046
▁FIR	-2047
▁proved	-2048
▁five	-2049
lying	-2050
ospital	-2051
▁citiz	-2052
iii	-2053
▁filing	-2054
▁real	-2055
ta	-2056
▁payable	-2057
▁contention	-2058
▁AIR	-2059
▁submit	-2060
ope	-2061
▁Under	-2062
▁affidav	-2063
pati	-2064
▁higher	-2065
▁University	-2066
१०	-2067
Ex	-2068
essions	-2069
▁Be	-2070
ably	-2071
▁six	-2072
bs	-2073
▁Scheme	-2074
▁proviso	-2075
ides	-2076
▁Muk	-2077
▁para	-2078
ake	-2079
▁collect	-2080
▁health	-2081
▁instru	-2082
mbly	-2083
une	-2084
▁thereafter	-2085
DA	-2086
▁include	-2087
▁Fin	-2088
illeg	-2089
missible	-2090
ink	-2091
▁condition	-2092
▁laws	-2093
▁involved	-2094
essional	-2095
▁sufficient	-2096
▁Development	-2097
▁price	-2098
▁Schedule	-2099
▁tru	-2100
▁bail	-2101
▁saf	-2102
▁norm	-2103
iding	-2104
▁leave	-2105
ashtrapati	-2106
▁absence	-2107
▁contain	-2108
▁proceeding	-2109
▁intern	-2110
chie	-2111
rat	-2112
▁neg	-2113
▁statute	-2114
▁acquisition	-2115
▁arrest	-2116
ricult	-2117
▁illeg	-2118
com	-2119
ock	-2120
▁lo	-2121
pril	-2122
▁Chap	-2123
reedom	-2124
▁agg	-2125
▁Bill	-2126
to	-2127
▁Rashtrapati	-2128
jee	-2129
▁sanction	-2130
▁contr	-2131
ises	-2132
▁treated	-2133
▁fee	-2134
anguage	-2135
▁carry	-2136
▁intention	-2137
phas	-2138
IT	-2139
▁bre	-2140
],	-2141
▁four	-2142
▁premis	-2143
▁pray	-2144
▁among	-2145
▁written	-2146
work	-2147
▁grow	-2148
▁sm	-2149
▁regular	-2150
▁achie	-2151
ium	-2152
▁crime	-2153
▁particip	-2154
▁officers	-2155
▁consist	-2156
▁opportunity	-2157
▁keep	-2158
que	-2159
▁Chapter	-2160
▁deed	-2161
▁protection	-2162
▁world	-2163
uary	-2164
ience	-2165
▁Appellant	-2166
▁wind	-2167
▁competent	-2168
▁submissions	-2169
ours	-2170
▁By	-2171
▁essential	-2172
▁She	-2173
▁much	-2174
▁admitted	-2175
ics	-2176
ends	-2177
▁last	-2178
▁Writ	-2179
▁April	-2180
▁Med	-2181
▁Bomb	-2182
▁existing	-2183
vention	-2184
▁personal	-2185
venue	-2186
▁guil	-2187
▁impro	-2188
▁fe	-2189
▁children	-2190
▁Jan	-2191
▁left	-2192
acity	-2193
▁rend	-2194
▁challenge	-2195
▁tem	-2196
▁framed	-2197
▁interpretation	-2198
icult	-2199
▁fac	-2200
hen	-2201
formation	-2202
▁war	-2203
ternal	-2204
▁Where	-2205
▁Procedure	-2206
▁fair	-2207
▁today	-2208
resh	-2209
▁sche	-2210
▁serious	-2211
▁March	-2212
OR	-2213
▁contem	-2214
▁merely	-2215
usband	-2216
ember	-2217
▁allot	-2218
▁accordingly	-2219
▁judic	-2220
▁dedu	-2221
▁acquit	-2222
▁conducted	-2223
▁List	-2224
▁Bombay	-2225
▁heard	-2226
▁assist	-2227
equ	-2228
▁bar	-2229
▁har	-2230
▁aut	-2231
▁noticed	-2232
▁punishment	-2233
▁legislative	-2234
vey	-2235
▁reads	-2236
▁working	-2237
▁Such	-2238
▁THE	-2239
IN	-2240
ension	-2241
pur	-2242
yond	-2243
▁Me	-2244
▁occasion	-2245
▁legislature	-2246
▁hel	-2247
ires	-2248
▁port	-2249
▁furn	-2250
▁awarded	-2251
erated	-2252
▁Soc	-2253
▁dri	-2254
ties	-2255
▁Clause	-2256
▁economic	-2257
reg	-2258
▁proposed	-2259
▁House	-2260
▁providing	-2261
▁marriage	-2262
ancy	-2263
▁immedi	-2264
▁enfor	-2265
▁Lim	-2266
▁official	-2267
▁super	-2268
▁owner	-2269
▁step	-2270
dra	-2271
orth	-2272
▁followed	-2273
ender	-2274
go	-2275
▁activities	-2276
lim	-2277
▁prep	-2278
cluded	-2279
▁declaration	-2280
retion	-2281
IA	-2282
▁beyond	-2283
ipt	-2284
LP	-2285
▁freedom	-2286
▁role	-2287
▁sust	-2288
umb	-2289
▁program	-2290
▁fine	-2291
▁approach	-2292
▁applied	-2293
ently	-2294
▁Indust	-2295
enced	-2296
▁candidates	-2297
▁Secretary	-2298
▁bal	-2299
▁Provided	-2300
▁contrary	-2301
▁foreign	-2302
ocate	-2303
▁Service	-2304
▁security	-2305
▁produced	-2306
▁dealing	-2307
atives	-2308
▁field	-2309
▁observations	-2310
▁rejected	-2311
▁restr	-2312
▁knowledge	-2313
▁companies	-2314
erve	-2315
rieved	-2316
ault	-2317
▁consum	-2318
ery	-2319
law	-2320
TION	-2321
▁sector	-2322
amp	-2323
▁needs	-2324
round	-2325
uries	-2326
ership	-2327
▁mining	-2328
▁affidavit	-2329
▁contrib	-2330
aries	-2331
▁Single	-2332
▁belong	-2333
▁petitions	-2334
▁expressed	-2335
▁certificate	-2336
▁intro	-2337
abil	-2338
▁declared	-2339
▁Chand	-2340
anch	-2341
▁tit	-2342
wal	-2343
ught	-2344
▁und	-2345
▁Chair	-2346
eration	-2347
▁commission	-2348
▁discretion	-2349
ize	-2350
de	-2351
▁considering	-2352
aving	-2353
▁rendered	-2354
▁return	-2355
▁file	-2356
▁anal	-2357
▁whole	-2358
▁vill	-2359
enc	-2360
▁dam	-2361
▁bring	-2362
▁vehicle	-2363
▁Asse	-2364
▁how	-2365
vest	-2366
▁functions	-2367
▁best	-2368
▁natural	-2369
▁management	-2370
▁lakh	-2371
▁requirement	-2372
▁grounds	-2373
▁adjud	-2374
▁local	-2375
arant	-2376
▁preferred	-2377
▁start	-2378
ues	-2379
▁penalty	-2380
▁practice	-2381
▁women	-2382
▁election	-2383
▁Pri	-2384
▁success	-2385
▁nex	-2386
▁registration	-2387
)(	-2388
▁es	-2389
▁With	-2390
▁maintain	-2391
▁premises	-2392
ources	-2393
▁imposed	-2394
▁appreci	-2395
abad	-2396
▁distin	-2397
▁concept	-2398
▁language	-2399
under	-2400
▁fut	-2401
▁argued	-2402
▁credit	-2403
aka	-2404
▁appears	-2405
ional	-2406
▁approval	-2407
▁run	-2408
▁execution	-2409
▁receipt	-2410
sociation	-2411
▁employee	-2412
omet	-2413
▁Comm	-2414
................	-2415
bsite	-2416
▁Trial	-2417
tt	-2418
▁known	-2419
▁states	-2420
▁punishable	-2421
▁diff	-2422
▁reliance	-2423
▁Mukher	-2424
thing	-2425
▁First	-2426
▁Judicial	-2427
▁husband	-2428
▁capital	-2429
▁continue	-2430
▁inn	-2431
icted	-2432
▁Hon	-2433
iving	-2434
▁impl	-2435
▁withdra	-2436
illed	-2437
▁basic	-2438
▁liability	-2439
▁Dis	-2440
▁enc	-2441
▁gra	-2442
ogniz	-2443
ware	-2444
encies	-2445
▁whose	-2446
▁x	-2447
▁Even	-2448
stitute	-2449
▁questions	-2450
▁carried	-2451
land	-2452
▁additional	-2453
▁addition	-2454
▁third	-2455
▁prohib	-2456
▁book	-2457
▁seen	-2458
▁benefits	-2459
acc	-2460
▁treatment	-2461
▁copy	-2462
▁great	-2463
reng	-2464
▁ce	-2465
▁repe	-2466
lines	-2467
▁liber	-2468
▁environment	-2469
tion	-2470
▁Rec	-2471
▁fixed	-2472
imate	-2473
▁termin	-2474
ares	-2475
▁dom	-2476
▁acquired	-2477
▁operation	-2478
▁limited	-2479
opted	-2480
▁Cons	-2481
▁rent	-2482
▁change	-2483
११	-2484
▁Mukherjee	-2485
▁plead	-2486
▁caused	-2487
▁failed	-2488
▁Appellate	-2489
▁Ab	-2490
ases	-2491
earch	-2492
▁trust	-2493
▁satisfied	-2494
igating	-2495
▁production	-2496
jection	-2497
ully	-2498
▁emp	-2499
▁May	-2500
▁settled	-2501
▁wife	-2502
▁SLP	-2503
▁adopted	-2504
rong	-2505
duled	-2506
▁Ent	-2507
▁request	-2508
ugust	-2509
▁outs	-2510
▁whom	-2511
lege	-2512
▁national	-2513
▁polit	-2514
▁executive	-2515
’.	-2516
ats	-2517
urrent	-2518
alc	-2519
▁imm	-2520
▁away	-2521
▁Additional	-2522
▁Is	-2523
▁students	-2524
acher	-2525
▁consp	-2526
▁recovery	-2527
▁January	-2528
hod	-2529
▁industrial	-2530
racted	-2531
▁consequ	-2532
▁consent	-2533
cember	-2534
▁makes	-2535
cer	-2536
▁true	-2537
▁prevent	-2538
▁website	-2539
▁arising	-2540
▁category	-2541
▁scope	-2542
ony	-2543
▁defined	-2544
▁injuries	-2545
▁Sessions	-2546
imes	-2547
▁meeting	-2548
▁signific	-2549
▁nothing	-2550
▁Le	-2551
abour	-2552
▁ut	-2553
▁Since	-2554
int	-2555
▁elig	-2556
▁defence	-2557
▁himself	-2558
ans	-2559
▁corpor	-2560
▁amended	-2561
▁remed	-2562
ross	-2563
▁dealt	-2564
▁streng	-2565
▁related	-2566
▁commercial	-2567
▁Income	-2568
▁Information	-2569
▁Karn	-2570
▁seeking	-2571
▁difficult	-2572
airs	-2573
▁Pre	-2574
istrative	-2575
oor	-2576
fully	-2577
▁ought	-2578
arch	-2579
▁instant	-2580
ataka	-2581
ators	-2582
▁posts	-2583
▁separate	-2584
▁determined	-2585
▁subs	-2586
▁father	-2587
▁suggest	-2588
abor	-2589
▁resolution	-2590
▁Expl	-2591
urd	-2592
▁arri	-2593
orts	-2594
▁details	-2595
unt	-2596
▁unt	-2597
irt	-2598
▁capacity	-2599
▁sex	-2600
▁countries	-2601
orne	-2602
ying	-2603
▁definition	-2604
▁conferred	-2605
IS	-2606
acter	-2607
▁future	-2608
▁Whether	-2609
eb	-2610
▁urged	-2611
▁help	-2612
▁sing	-2613
▁claimed	-2614
▁determination	-2615
▁inquiry	-2616
ruit	-2617
war	-2618
▁lev	-2619
▁pension	-2620
▁Regulations	-2621
▁underst	-2622
▁stip	-2623
▁bound	-2624
▁liberty	-2625
▁substantial	-2626
erg	-2627
▁eff	-2628
▁once	-2629
ptember	-2630
▁findings	-2631
▁Pun	-2632
▁trad	-2633
▁applicant	-2634
▁window	-2635
▁permission	-2636
anced	-2637
▁minor	-2638
▁August	-2639
▁obtained	-2640
▁Articles	-2641
▁What	-2642
▁covered	-2643
▁PRES	-2644
▁Assembly	-2645
▁Bi	-2646
▁nam	-2647
▁Arbitr	-2648
▁Karnataka	-2649
adem	-2650
▁look	-2651
▁outside	-2652
▁executed	-2653
▁prim	-2654
▁cogniz	-2655
AC	-2656
▁wrong	-2657
▁ran	-2658
▁applications	-2659
▁quality	-2660
▁acts	-2661
▁permitted	-2662
▁performance	-2663
▁consult	-2664
▁specifically	-2665
▁decide	-2666
▁forward	-2667
gether	-2668
▁together	-2669
▁contro	-2670
▁Limited	-2671
▁ul	-2672
▁nom	-2673
▁December	-2674
▁later	-2675
ancell	-2676
▁appellate	-2677
▁Pat	-2678
ala	-2679
▁appear	-2680
ifications	-2681
▁guarant	-2682
rast	-2683
▁Ter	-2684
▁Right	-2685
▁challenged	-2686
cement	-2687
▁govern	-2688
▁argument	-2689
▁method	-2690
inate	-2691
ling	-2692
▁el	-2693
▁training	-2694
cise	-2695
ras	-2696
▁integ	-2697
▁dispos	-2698
▁international	-2699
▁cover	-2700
▁anything	-2701
▁promotion	-2702
uation	-2703
▁setting	-2704
▁data	-2705
▁assets	-2706
idelines	-2707
▁Second	-2708
iture	-2709
▁illegal	-2710
▁debt	-2711
▁mo	-2712
uties	-2713
▁Legislature	-2714
▁existence	-2715
▁vol	-2716
▁cult	-2717
▁judge	-2718
▁industry	-2719
▁expect	-2720
wh	-2721
▁convicted	-2722
▁exercised	-2723
▁contempl	-2724
IL	-2725
▁includes	-2726
▁custody	-2727
▁cross	-2728
iet	-2729
itive	-2730
▁cho	-2731
sh	-2732
▁judiciary	-2733
li	-2734
tax	-2735
00/-	-2736
▁character	-2737
nel	-2738
▁absol	-2739
▁validity	-2740
▁employment	-2741
▁constituted	-2742
▁independent	-2743
▁lar	-2744
▁next	-2745
▁group	-2746
▁limitation	-2747
▁title	-2748
▁violation	-2749
▁September	-2750
▁deals	-2751
▁resident	-2752
pr	-2753
omes	-2754
▁school	-2755
urer	-2756
▁status	-2757
jab	-2758
▁went	-2759
▁neither	-2760
▁fri	-2761
▁Im	-2762
▁Sim	-2763
SC	-2764
▁Cl	-2765
▁prosecut	-2766
▁examine	-2767
▁injury	-2768
ource	-2769
▁happ	-2770
lfare	-2771
ifying	-2772
▁phys	-2773
▁always	-2774
withstanding	-2775
▁statements	-2776
▁Edu	-2777
▁fit	-2778
▁informed	-2779
IDENT	-2780
▁entered	-2781
▁gl	-2782
▁Bar	-2783
iver	-2784
clusive	-2785
▁mult	-2786
▁particularly	-2787
pro	-2788
▁candidate	-2789
ober	-2790
ote	-2791
▁access	-2792
▁thereby	-2793
▁minimum	-2794
▁kept	-2795
▁Senior	-2796
▁discussion	-2797
view	-2798
ored	-2799
▁connect	-2800
▁selection	-2801
▁effective	-2802
▁regul	-2803
▁Mahar	-2804
io	-2805
▁exceed	-2806
▁dismiss	-2807
▁PRESIDENT	-2808
urred	-2809
▁plea	-2810
▁drawn	-2811
▁never	-2812
▁supply	-2813
▁intended	-2814
▁requires	-2815
▁prove	-2816
३०	-2817
▁growth	-2818
▁still	-2819
▁disposed	-2820
irmed	-2821
▁duties	-2822
▁relationship	-2823
ins	-2824
▁plant	-2825
▁content	-2826
agar	-2827
atures	-2828
▁measures	-2829
ressed	-2830
▁opens	-2831
▁clar	-2832
aled	-2833
▁Sab	-2834
▁included	-2835
▁instance	-2836
▁One	-2837
oms	-2838
▁Trans	-2839
▁commence	-2840
▁crit	-2841
▁Hence	-2842
▁Engine	-2843
▁deposit	-2844
▁revision	-2845
▁political	-2846
ubl	-2847
ruary	-2848
▁July	-2849
▁Admin	-2850
ebruary	-2851
▁ill	-2852
▁hence	-2853
▁face	-2854
RA	-2855
▁materials	-2856
▁stay	-2857
▁kind	-2858
aper	-2859
▁citizens	-2860
▁rightly	-2861
iation	-2862
omp	-2863
▁absolute	-2864
▁Punjab	-2865
cient	-2866
EC	-2867
▁Thereafter	-2868
▁connection	-2869
▁joint	-2870
▁prepared	-2871
▁oblig	-2872
▁steps	-2873
▁Regulation	-2874
aff	-2875
urrence	-2876
▁tenant	-2877
▁tribunal	-2878
▁ear	-2879
▁road	-2880
▁properties	-2881
▁administration	-2882
▁play	-2883
▁presence	-2884
ctober	-2885
gal	-2886
▁Pran	-2887
▁presum	-2888
erala	-2889
▁Chairman	-2890
▁occup	-2891
▁vested	-2892
▁limit	-2893
▁rese	-2894
▁territ	-2895
▁mor	-2896
▁virt	-2897
▁merit	-2898
▁extend	-2899
▁mort	-2900
iously	-2901
selves	-2902
▁Em	-2903
▁Def	-2904
▁Techn	-2905
▁interim	-2906
▁default	-2907
▁discharge	-2908
▁shown	-2909
mitting	-2910
▁guilty	-2911
▁community	-2912
▁agricult	-2913
'.	-2914
▁shares	-2915
▁agreed	-2916
lu	-2917
▁Lord	-2918
usal	-2919
▁hospital	-2920
▁approved	-2921
▁lay	-2922
jar	-2923
men	-2924
vent	-2925
adha	-2926
▁experience	-2927
▁Sm	-2928
▁educ	-2929
▁signed	-2930
▁design	-2931
▁records	-2932
rish	-2933
▁transferred	-2934
▁Kerala	-2935
.)	-2936
▁technical	-2937
▁prejud	-2938
▁obl	-2939
▁proble	-2940
▁disputes	-2941
▁transaction	-2942
change	-2943
amil	-2944
▁sole	-2945
▁Medical	-2946
riev	-2947
▁commit	-2948
▁Fore	-2949
▁redu	-2950
ously	-2951
▁enacted	-2952
EL	-2953
▁brother	-2954
▁democ	-2955
▁near	-2956
▁Nove	-2957
▁November	-2958
herein	-2959
▁assum	-2960
▁impos	-2961
▁created	-2962
▁entry	-2963
▁Pranab	-2964
▁Vs	-2965
▁least	-2966
▁February	-2967
▁immediately	-2968
▁June	-2969
accused	-2970
▁IND	-2971
▁aspects	-2972
▁Prin	-2973
▁lands	-2974
▁directly	-2975
rix	-2976
▁discrimin	-2977
lling	-2978
▁accident	-2979
▁respective	-2980
▁single	-2981
▁publ	-2982
▁distrib	-2983
▁turn	-2984
alse	-2985
▁ren	-2986
▁side	-2987
rated	-2988
▁small	-2989
▁Invest	-2990
▁Explanation	-2991
▁requirements	-2992
▁recommendations	-2993
rut	-2994
▁ty	-2995
▁arise	-2996
▁quant	-2997
▁Assist	-2998
▁determine	-2999
ists	-3000
cent	-3001
▁exem	-3002
▁Hind	-3003
▁Agree	-3004
▁address	-3005
▁balance	-3006
ST	-3007
▁)	-3008
cell	-3009
▁US	-3010
ern	-3011
▁emphas	-3012
be	-3013
ead	-3014
ictions	-3015
▁factors	-3016
▁judges	-3017
stituted	-3018
▁Fund	-3019
▁privacy	-3020
▁extended	-3021
▁passing	-3022
▁food	-3023
▁costs	-3024
▁October	-3025
iracy	-3026
▁hist	-3027
▁alia	-3028
hereinafter	-3029
▁So	-3030
▁Intern	-3031
ricity	-3032
▁writing	-3033
▁patient	-3034
▁merits	-3035
att	-3036
▁Dep	-3037
▁broad	-3038
▁Entry	-3039
▁village	-3040
oval	-3041
▁adequ	-3042
ali	-3043
▁facilities	-3044
].	-3045
▁Lal	-3046
▁unf	-3047
▁false	-3048
▁attempt	-3049
▁aggrieved	-3050
rastructure	-3051
▁deb	-3052
▁Counsel	-3053
mar	-3054
▁conver	-3055
▁technology	-3056
’,	-3057
▁compliance	-3058
▁concern	-3059
ched	-3060
▁Education	-3061
▁Moh	-3062
▁yet	-3063
iring	-3064
sequently	-3065
▁error	-3066
▁insp	-3067
ingu	-3068
▁Collect	-3069
▁deg	-3070
far	-3071
▁gain	-3072
▁crores	-3073
▁Similar	-3074
ane	-3075
ick	-3076
▁bid	-3077
▁Land	-3078
ulf	-3079
RI	-3080
▁Sha	-3081
unicip	-3082
▁reading	-3083
▁alone	-3084
▁amend	-3085
urder	-3086
▁permit	-3087
cle	-3088
operative	-3089
reat	-3090
▁purchase	-3091
▁able	-3092
▁commun	-3093
▁preced	-3094
urs	-3095
▁claims	-3096
▁dign	-3097
▁justified	-3098
▁guidelines	-3099
▁dev	-3100
▁fresh	-3101
ani	-3102
ograph	-3103
kar	-3104
▁conspiracy	-3105
▁adj	-3106
▁Sect	-3107
▁safe	-3108
manent	-3109
▁equal	-3110
▁article	-3111
▁progress	-3112
▁admission	-3113
▁AN	-3114
▁contra	-3115
▁allegations	-3116
▁Ins	-3117
▁Rep	-3118
▁apart	-3119
▁fully	-3120
▁charged	-3121
aging	-3122
▁arbitrator	-3123
▁IT	-3124
▁Lok	-3125
ademic	-3126
ocation	-3127
▁depend	-3128
anj	-3129
▁ey	-3130
▁CBI	-3131
▁Ac	-3132
CT	-3133
now	-3134
ancies	-3135
▁murder	-3136
uting	-3137
▁cognizance	-3138
▁son	-3139
osure	-3140
ental	-3141
▁sense	-3142
▁constitute	-3143
ems	-3144
▁commencement	-3145
erted	-3146
▁district	-3147
▁around	-3148
▁majority	-3149
▁Sur	-3150
vement	-3151
enance	-3152
rine	-3153
kh	-3154
cience	-3155
▁Int	-3156
sofar	-3157
bitral	-3158
ison	-3159
▁susp	-3160
▁Speak	-3161
▁structure	-3162
▁warrant	-3163
▁reit	-3164
adhaar	-3165
din	-3166
▁sk	-3167
▁Des	-3168
▁becomes	-3169
▁arran	-3170
.—	-3171
▁Elect	-3172
▁permissible	-3173
▁His	-3174
▁interests	-3175
rade	-3176
▁Maharashtra	-3177
adu	-3178
aryana	-3179
▁Nar	-3180
▁Services	-3181
External	-3182
▁Priv	-3183
itable	-3184
▁plot	-3185
▁self	-3186
▁importance	-3187
▁got	-3188
ches	-3189
▁Aadhaar	-3190
▁assistance	-3191
१२	-3192
▁too	-3193
▁net	-3194
▁tar	-3195
▁Shar	-3196
▁bi	-3197
▁select	-3198
rid	-3199
ulted	-3200
▁aver	-3201
▁Tamil	-3202
No	-3203
▁Ann	-3204
enses	-3205
,00	-3206
▁Ors	-3207
▁nation	-3208
using	-3209
ruitment	-3210
▁research	-3211
▁ado	-3212
▁Ra	-3213
ills	-3214
urned	-3215
▁standards	-3216
▁Per	-3217
▁duly	-3218
though	-3219
▁empow	-3220
▁...	-3221
rop	-3222
▁Agreement	-3223
ude	-3224
▁answer	-3225
ordinate	-3226
▁Trust	-3227
▁Advocate	-3228
▁III	-3229
▁Haryana	-3230
▁obligation	-3231
▁From	-3232
gar	-3233
▁led	-3234
▁speak	-3235
▁eligible	-3236
▁removal	-3237
▁implementation	-3238
▁enquiry	-3239
most	-3240
▁dead	-3241
▁Scheduled	-3242
▁failure	-3243
▁few	-3244
▁Article	-3245
roup	-3246
iting	-3247
enditure	-3248
▁educational	-3249
UR	-3250
lies	-3251
indu	-3252
▁div	-3253
achers	-3254
▁continued	-3255
▁investment	-3256
▁Tra	-3257
▁pop	-3258
anchay	-3259
▁arises	-3260
▁activity	-3261
▁bor	-3262
▁enj	-3263
▁max	-3264
▁fulf	-3265
▁asked	-3266
▁discipl	-3267
▁funds	-3268
▁proof	-3269
AS	-3270
utation	-3271
atter	-3272
imately	-3273
▁Collector	-3274
▁significant	-3275
pecial	-3276
▁attention	-3277
hra	-3278
▁Exec	-3279
▁move	-3280
▁Amendment	-3281
pite	-3282
jarat	-3283
▁pot	-3284
oad	-3285
▁Mo	-3286
▁religious	-3287
▁bind	-3288
----	-3289
▁wee	-3290
▁ide	-3291
▁Deputy	-3292
▁parent	-3293
▁Having	-3294
▁counter	-3295
▁mother	-3296
▁sold	-3297
In	-3298
▁Though	-3299
▁occurrence	-3300
▁old	-3301
ici	-3302
▁Pra	-3303
▁initial	-3304
▁Any	-3305
▁remedy	-3306
▁reve	-3307
▁wide	-3308
▁recovered	-3309
▁Off	-3310
▁farm	-3311
lled	-3312
▁Applic	-3313
▁enactment	-3314
▁International	-3315
▁Accordingly	-3316
▁adverse	-3317
istrar	-3318
▁Territ	-3319
▁Utt	-3320
▁cru	-3321
▁actual	-3322
▁likely	-3323
▁firm	-3324
▁Society	-3325
▁responsible	-3326
Jud	-3327
The	-3328
▁licence	-3329
ological	-3330
▁belie	-3331
▁Hindu	-3332
▁strong	-3333
▁deduction	-3334
▁concluded	-3335
ened	-3336
▁Governments	-3337
▁projects	-3338
▁breach	-3339
▁cur	-3340
▁mach	-3341
▁agency	-3342
▁retire	-3343
▁affected	-3344
▁department	-3345
orney	-3346
▁Gujarat	-3347
cluding	-3348
ED	-3349
▁objection	-3350
▁home	-3351
▁indicated	-3352
PA	-3353
▁themselves	-3354
▁Nadu	-3355
▁deposed	-3356
outh	-3357
▁submits	-3358
abilities	-3359
▁products	-3360
cri	-3361
▁Legislative	-3362
▁advanced	-3363
▁why	-3364
▁resources	-3365
▁Sal	-3366
▁Sabha	-3367
▁United	-3368
▁doctrine	-3369
▁identified	-3370
▁univers	-3371
▁ult	-3372
ration	-3373
unicipal	-3374
augh	-3375
▁whereas	-3376
▁volunt	-3377
rig	-3378
aintenance	-3379
▁keeping	-3380
▁added	-3381
▁fraud	-3382
▁want	-3383
▁portion	-3384
▁INDIA	-3385
sy	-3386
▁Group	-3387
▁increase	-3388
▁pers	-3389
▁quot	-3390
▁regulations	-3391
St	-3392
▁litigation	-3393
▁establishment	-3394
▁identity	-3395
▁amounts	-3396
▁doing	-3397
▁close	-3398
▁reported	-3399
▁aware	-3400
▁bearing	-3401
▁transport	-3402
▁Prosec	-3403
▁virtue	-3404
▁academic	-3405
▁detention	-3406
▁undertaking	-3407
▁More	-3408
atch	-3409
▁griev	-3410
▁frame	-3411
asth	-3412
▁Assess	-3413
▁Case	-3414
▁sexual	-3415
ival	-3416
▁physical	-3417
▁carrying	-3418
▁respectively	-3419
▁Sy	-3420
▁seek	-3421
▁Official	-3422
▁published	-3423
▁create	-3424
▁Institute	-3425
▁sol	-3426
▁live	-3427
▁Ms	-3428
▁NO	-3429
estic	-3430
qual	-3431
▁defendants	-3432
ert	-3433
▁renew	-3434
▁PAR	-3435
▁Plan	-3436
rutin	-3437
▁Bihar	-3438
▁stands	-3439
▁acquittal	-3440
▁difference	-3441
ysis	-3442
▁completed	-3443
▁times	-3444
▁insurance	-3445
▁disposal	-3446
▁denied	-3447
▁CO	-3448
▁shows	-3449
▁factual	-3450
▁gave	-3451
▁mandatory	-3452
▁might	-3453
▁dignity	-3454
▁substance	-3455
▁Mah	-3456
▁going	-3457
▁Bengal	-3458
▁During	-3459
▁expenditure	-3460
▁stating	-3461
▁works	-3462
▁better	-3463
▁sections	-3464
▁Assistant	-3465
▁mut	-3466
▁religion	-3467
▁think	-3468
▁enable	-3469
uri	-3470
,000	-3471
▁permanent	-3472
▁introduced	-3473
▁recommended	-3474
▁invok	-3475
▁util	-3476
▁void	-3477
▁Other	-3478
▁bod	-3479
▁coming	-3480
▁corporate	-3481
▁prosecutrix	-3482
▁proced	-3483
▁Att	-3484
▁partn	-3485
▁sheet	-3486
actions	-3487
▁custom	-3488
▁somet	-3489
amination	-3490
▁draw	-3491
▁seniority	-3492
ishes	-3493
▁Similarly	-3494
▁TA	-3495
▁Policy	-3496
▁interference	-3497
▁adequate	-3498
▁administrative	-3499
▁nar	-3500
▁discussed	-3501
amb	-3502
▁employer	-3503
portion	-3504
▁strict	-3505
▁consultation	-3506
▁quas	-3507
▁apparent	-3508
▁Pen	-3509
▁servant	-3510
▁accounts	-3511
▁aim	-3512
ening	-3513
▁testim	-3514
▁१	-3515
▁dest	-3516
▁advert	-3517
lish	-3518
▁committee	-3519
cted	-3520
▁infrastructure	-3521
▁repro	-3522
▁Registrar	-3523
▁mortg	-3524
lly	-3525
sc	-3526
iable	-3527
▁Uttar	-3528
▁associ	-3529
▁contemplated	-3530
vision	-3531
▁until	-3532
▁Ah	-3533
▁sl	-3534
▁initiated	-3535
▁Association	-3536
rs	-3537
alid	-3538
▁clauses	-3539
▁notified	-3540
▁daugh	-3541
▁revenue	-3542
▁incorpor	-3543
▁standard	-3544
bed	-3545
icated	-3546
▁Companies	-3547
▁altern	-3548
bor	-3549
▁innov	-3550
erce	-3551
▁Rel	-3552
asing	-3553
obal	-3554
▁opined	-3555
▁construed	-3556
▁Management	-3557
▁viz	-3558
asthan	-3559
▁mechan	-3560
▁wholly	-3561
aya	-3562
held	-3563
▁Ev	-3564
▁responsibility	-3565
▁advance	-3566
▁aid	-3567
▁enjoy	-3568
▁articles	-3569
▁blood	-3570
▁confession	-3571
▁ow	-3572
▁hands	-3573
▁views	-3574
▁proceeded	-3575
▁—	-3576
▁told	-3577
pective	-3578
▁Centre	-3579
▁Finance	-3580
▁English	-3581
sured	-3582
amm	-3583
ror	-3584
▁gone	-3585
▁Madras	-3586
▁sustain	-3587
▁supplied	-3588
▁arrange	-3589
▁Sharma	-3590
▁belonging	-3591
illion	-3592
▁served	-3593
▁welfare	-3594
▁connected	-3595
adi	-3596
▁marks	-3597
▁impact	-3598
▁recording	-3599
eng	-3600
ellant	-3601
▁;	-3602
ene	-3603
▁excess	-3604
adre	-3605
▁representation	-3606
▁recruitment	-3607
▁woman	-3608
unction	-3609
endency	-3610
▁larger	-3611
▁interfere	-3612
▁reservation	-3613
▁recommendation	-3614
ti	-3615
aching	-3616
▁Rights	-3617
▁percent	-3618
▁referring	-3619
▁Industrial	-3620
▁lod	-3621
▁scale	-3622
▁pertaining	-3623
▁loan	-3624
▁ign	-3625
▁mineral	-3626
▁offer	-3627
pecially	-3628
▁Form	-3629
▁PART	-3630
HA	-3631
▁reached	-3632
▁extracted	-3633
▁Insurance	-3634
▁seven	-3635
spective	-3636
▁Mis	-3637
aster	-3638
▁engaged	-3639
▁leading	-3640
▁individuals	-3641
▁conflic	-3642
▁maintenance	-3643
▁determining	-3644
▁collected	-3645
▁distinction	-3646
▁enh	-3647
▁Executive	-3648
ples	-3649
▁objective	-3650
▁burd	-3651
utions	-3652
▁plaintiffs	-3653
Judge	-3654
▁Panchay	-3655
irl	-3656
▁Supp	-3657
▁cheque	-3658
▁prejudice	-3659
ouses	-3660
▁Princip	-3661
▁reports	-3662
▁comes	-3663
▁potential	-3664
▁Members	-3665
▁arguments	-3666
▁granting	-3667
▁efforts	-3668
▁line	-3669
▁professional	-3670
hai	-3671
ivery	-3672
state	-3673
▁units	-3674
▁lack	-3675
▁Station	-3676
▁scrutin	-3677
rug	-3678
atic	-3679
uls	-3680
▁facilit	-3681
▁Penal	-3682
▁influ	-3683
▁takes	-3684
▁especially	-3685
▁facie	-3686
▁Revenue	-3687
oot	-3688
hest	-3689
IV	-3690
iti	-3691
irth	-3692
▁aud	-3693
▁beg	-3694
overned	-3695
▁page	-3696
▁tele	-3697
▁wid	-3698
▁programme	-3699
CC	-3700
pees	-3701
▁calc	-3702
▁Accused	-3703
▁governed	-3704
▁furnish	-3705
▁remo	-3706
▁explained	-3707
inery	-3708
▁levy	-3709
EM	-3710
uction	-3711
▁Before	-3712
▁liqu	-3713
▁parts	-3714
▁wages	-3715
▁reflect	-3716
▁detailed	-3717
▁Notification	-3718
▁Rajasthan	-3719
▁communication	-3720
▁Air	-3721
▁emer	-3722
▁motor	-3723
▁produce	-3724
asm	-3725
osite	-3726
▁Rail	-3727
▁sentenced	-3728
▁Gand	-3729
▁binding	-3730
ET	-3731
▁crore	-3732
▁Let	-3733
▁unit	-3734
▁Andhra	-3735
▁completion	-3736
rd	-3737
azet	-3738
▁amongst	-3739
▁suggested	-3740
ban	-3741
ott	-3742
▁stood	-3743
▁started	-3744
▁settlement	-3745
▁tried	-3746
▁meant	-3747
SI	-3748
gment	-3749
she	-3750
▁AP	-3751
▁Hindi	-3752
▁Member	-3753
pta	-3754
laim	-3755
eness	-3756
▁safety	-3757
);	-3758
▁corro	-3759
ateral	-3760
illing	-3761
▁asset	-3762
▁Ministers	-3763
▁explanation	-3764
▁convey	-3765
▁achieve	-3766
▁consequence	-3767
▁exemption	-3768
▁sell	-3769
▁contempt	-3770
▁air	-3771
▁Go	-3772
▁thereto	-3773
▁names	-3774
ivity	-3775
▁Madh	-3776
▁lakhs	-3777
▁fire	-3778
▁necessarily	-3779
▁render	-3780
utor	-3781
▁avoid	-3782
ioned	-3783
▁advant	-3784
▁coll	-3785
ground	-3786
▁testimony	-3787
▁vot	-3788
ieties	-3789
▁regards	-3790
▁expenses	-3791
▁indicate	-3792
▁Krish	-3793
▁quash	-3794
▁deposited	-3795
▁mess	-3796
ift	-3797
▁transactions	-3798
▁option	-3799
१३	-3800
▁rates	-3801
▁proposal	-3802
▁vacancies	-3803
clause	-3804
▁Ne	-3805
▁secured	-3806
▁situated	-3807
▁der	-3808
▁arrived	-3809
feren	-3810
holders	-3811
▁pursuant	-3812
▁Ver	-3813
onoun	-3814
clude	-3815
▁Power	-3816
▁analysis	-3817
eech	-3818
▁Sol	-3819
▁prob	-3820
▁evident	-3821
▁Sc	-3822
▁dischar	-3823
▁search	-3824
▁remains	-3825
ovable	-3826
▁categories	-3827
▁perusal	-3828
line	-3829
▁uncon	-3830
▁invalid	-3831
▁envis	-3832
▁.,	-3833
▁ris	-3834
▁past	-3835
person	-3836
▁West	-3837
▁coal	-3838
▁pronoun	-3839
▁wea	-3840
▁Arbitration	-3841
rief	-3842
▁became	-3843
▁supported	-3844
▁Super	-3845
▁gives	-3846
▁source	-3847
▁profession	-3848
▁retirement	-3849
▁using	-3850
pped	-3851
▁join	-3852
▁banks	-3853
▁AND	-3854
▁refund	-3855
▁cancell	-3856
▁undergo	-3857
▁controvers	-3858
▁emb	-3859
▁Contract	-3860
▁developed	-3861
tin	-3862
▁depri	-3863
duction	-3864
endant	-3865
▁expected	-3866
▁Pur	-3867
▁cash	-3868
▁reduced	-3869
▁Cer	-3870
ATION	-3871
urities	-3872
▁prayer	-3873
▁maintained	-3874
▁SE	-3875
▁obv	-3876
▁Bhar	-3877
▁neglig	-3878
▁[(	-3879
▁obtaining	-3880
rate	-3881
▁instead	-3882
▁arbitrary	-3883
▁burden	-3884
▁agricultural	-3885
onom	-3886
▁diss	-3887
▁employed	-3888
State	-3889
▁actually	-3890
▁living	-3891
▁buy	-3892
ables	-3893
▁upheld	-3894
▁disclosed	-3895
▁principal	-3896
▁Sar	-3897
appellant	-3898
▁TO	-3899
▁forth	-3900
▁delivery	-3901
▁prevail	-3902
▁corrobor	-3903
▁Technology	-3904
idd	-3905
lord	-3906
olved	-3907
▁obtain	-3908
▁places	-3909
▁Account	-3910
▁Home	-3911
▁rig	-3912
▁TADA	-3913
▁Gupta	-3914
▁retro	-3915
▁receive	-3916
▁arrested	-3917
▁example	-3918
▁sustained	-3919
▁seized	-3920
▁red	-3921
▁expiry	-3922
▁hon	-3923
▁programmes	-3924
istic	-3925
▁Prof	-3926
opal	-3927
inder	-3928
▁strength	-3929
itude	-3930
▁auction	-3931
▁girl	-3932
▁visit	-3933
▁attack	-3934
▁objections	-3935
ancing	-3936
▁ordin	-3937
▁Our	-3938
aur	-3939
▁Attorney	-3940
▁reserved	-3941
▁undertaken	-3942
▁summ	-3943
▁prima	-3944
▁men	-3945
▁former	-3946
▁paragraphs	-3947
▁Hospital	-3948
▁cert	-3949
CO	-3950
▁maximum	-3951
▁communic	-3952
ipur	-3953
umbai	-3954
▁site	-3955
▁rather	-3956
▁Gandhi	-3957
▁understood	-3958
▁Project	-3959
▁disqual	-3960
▁practices	-3961
put	-3962
onst	-3963
▁register	-3964
',	-3965
ush	-3966
▁Sri	-3967
▁ascer	-3968
▁investig	-3969
ression	-3970
▁salary	-3971
▁citizen	-3972
▁Mal	-3973
racy	-3974
▁unre	-3975
▁flow	-3976
▁College	-3977
▁rural	-3978
▁adopt	-3979
▁School	-3980
▁convict	-3981
▁gener	-3982
▁Evidence	-3983
▁proposition	-3984
porary	-3985
▁allotment	-3986
atio	-3987
▁Ph	-3988
AY	-3989
▁la	-3990
▁Bang	-3991
▁youn	-3992
▁despite	-3993
III	-3994
▁privile	-3995
▁SCR	-3996
ousing	-3997
▁exped	-3998
▁degree	-3999
mentioned	-4000
▁bodies	-4001
▁hard	-4002
▁expressly	-4003
▁substantive	-4004
▁stri	-4005
▁workers	-4006
▁domestic	-4007
▁Office	-4008
▁deciding	-4009
▁Principal	-4010
▁generally	-4011
pto	-4012
▁imper	-4013
cial	-4014
▁ON	-4015
▁hy	-4016
▁labour	-4017
iger	-4018
▁CPC	-4019
ulate	-4020
▁Mumbai	-4021
▁borrow	-4022
▁expert	-4023
ji	-4024
rises	-4025
▁scient	-4026
▁assigned	-4027
▁Ob	-4028
▁across	-4029
▁distingu	-4030
▁released	-4031
otel	-4032
▁spir	-4033
▁reiterated	-4034
uven	-4035
▁mil	-4036
▁Application	-4037
▁teachers	-4038
▁controversy	-4039
imal	-4040
▁energ	-4041
▁lower	-4042
▁friend	-4043
▁college	-4044
▁Cust	-4045
hood	-4046
▁profits	-4047
▁forms	-4048
▁cut	-4049
respond	-4050
▁remaining	-4051
hind	-4052
esides	-4053
ranch	-4054
asmuch	-4055
▁Officers	-4056
▁appointments	-4057
▁history	-4058
▁daughter	-4059
unities	-4060
▁ST	-4061
izing	-4062
▁holder	-4063
▁Do	-4064
.-	-4065
elt	-4066
▁Kh	-4067
▁Day	-4068
▁Speaker	-4069
▁whereby	-4070
▁distribution	-4071
ship	-4072
cription	-4073
▁equality	-4074
▁Har	-4075
encing	-4076
▁schemes	-4077
▁Reference	-4078
▁distinct	-4079
tection	-4080
▁ordinary	-4081
▁fif	-4082
icide	-4083
▁thought	-4084
▁stipulated	-4085
▁Bal	-4086
▁station	-4087
uate	-4088
▁Cast	-4089
▁Some	-4090
▁annual	-4091
▁injured	-4092
▁room	-4093
▁functioning	-4094
ann	-4095
owry	-4096
▁demonst	-4097
▁disclosure	-4098
▁termination	-4099
▁affairs	-4100
▁addressed	-4101
▁operations	-4102
▁Prog	-4103
▁Municipal	-4104
▁strengthe	-4105
esting	-4106
▁extre	-4107
ousand	-4108
▁cadre	-4109
▁subsequently	-4110
▁forest	-4111
▁rupees	-4112
azette	-4113
▁extra	-4114
▁furnished	-4115
▁died	-4116
▁shop	-4117
▁Financial	-4118
▁adjudication	-4119
aking	-4120
,000/-	-4121
vironment	-4122
▁returned	-4123
▁draft	-4124
▁threat	-4125
▁applies	-4126
▁Republic	-4127
▁disputed	-4128
▁bon	-4129
▁suitable	-4130
▁energy	-4131
▁install	-4132
▁limits	-4133
dom	-4134
▁eye	-4135
▁dise	-4136
▁ali	-4137
▁faith	-4138
▁highl	-4139
▁Labour	-4140
▁disability	-4141
▁alternative	-4142
▁elected	-4143
▁satisfaction	-4144
▁attrib	-4145
▁message	-4146
▁prescrib	-4147
▁possess	-4148
▁compr	-4149
apers	-4150
▁Person	-4151
▁arbitral	-4152
▁reply	-4153
▁amendments	-4154
▁primary	-4155
▁recover	-4156
▁oil	-4157
▁try	-4158
▁Aff	-4159
▁instructions	-4160
▁advantage	-4161
▁increased	-4162
▁recognized	-4163
▁sales	-4164
exure	-4165
▁incons	-4166
▁Stat	-4167
▁Date	-4168
▁stru	-4169
▁nomin	-4170
▁population	-4171
MC	-4172
▁Ordin	-4173
ception	-4174
▁presumption	-4175
ponse	-4176
▁investigating	-4177
▁xx	-4178
▁choice	-4179
▁purchas	-4180
ara	-4181
▁errone	-4182
▁foc	-4183
▁relates	-4184
▁conclus	-4185
▁ordered	-4186
▁machinery	-4187
mical	-4188
▁ratio	-4189
operation	-4190
▁described	-4191
▁afore	-4192
▁global	-4193
▁landlord	-4194
▁enforcement	-4195
▁Red	-4196
▁inconsist	-4197
dy	-4198
rap	-4199
ades	-4200
▁behind	-4201
AB	-4202
ratic	-4203
▁const	-4204
▁staff	-4205
▁impose	-4206
▁normal	-4207
▁suffered	-4208
▁directing	-4209
PL	-4210
▁spirit	-4211
▁consequences	-4212
ederal	-4213
▁unable	-4214
▁completely	-4215
▁contentions	-4216
▁encour	-4217
▁pendency	-4218
▁terror	-4219
▁Control	-4220
orand	-4221
spector	-4222
▁independence	-4223
herent	-4224
▁Every	-4225
▁operate	-4226
▁presented	-4227
▁Both	-4228
▁acquitted	-4229
▁extension	-4230
▁correspond	-4231
▁Bu	-4232
▁finally	-4233
obile	-4234
▁Environment	-4235
▁disciplinary	-4236
▁advice	-4237
ferences	-4238
phasis	-4239
ama	-4240
iss	-4241
▁consequent	-4242
▁alter	-4243
▁upto	-4244
▁legit	-4245
▁officials	-4246
▁background	-4247
rain	-4248
▁corru	-4249
▁measure	-4250
▁contribution	-4251
▁Madhya	-4252
▁removed	-4253
icate	-4254
▁fram	-4255
▁dismissal	-4256
▁discuss	-4257
▁obligations	-4258
▁spot	-4259
▁quite	-4260
▁greater	-4261
▁version	-4262
▁ing	-4263
▁often	-4264
▁quashed	-4265
▁attract	-4266
▁victims	-4267
▁Sw	-4268
▁points	-4269
▁inasmuch	-4270
▁mental	-4271
▁discrimination	-4272
▁Pe	-4273
▁oral	-4274
▁Award	-4275
▁regulation	-4276
▁compre	-4277
▁electricity	-4278
▁Tiger	-4279
▁suffer	-4280
▁acceptance	-4281
▁Joint	-4282
▁peace	-4283
▁understand	-4284
▁contains	-4285
alf	-4286
▁creditor	-4287
▁challenging	-4288
▁Head	-4289
▁economy	-4290
▁association	-4291
icit	-4292
ivered	-4293
▁Reason	-4294
▁origin	-4295
▁Sat	-4296
gn	-4297
eel	-4298
▁release	-4299
▁serve	-4300
▁restrictions	-4301
ager	-4302
▁Pal	-4303
▁norms	-4304
▁intent	-4305
▁workmen	-4306
▁Petitioner	-4307
▁Che	-4308
▁remained	-4309
ina	-4310
▁parents	-4311
▁Sections	-4312
▁deliber	-4313
▁birth	-4314
▁appeared	-4315
▁issuing	-4316
▁tot	-4317
ients	-4318
▁profit	-4319
▁temple	-4320
ream	-4321
▁manif	-4322
▁delivered	-4323
▁exception	-4324
ourses	-4325
▁debtor	-4326
▁miscon	-4327
▁current	-4328
▁extreme	-4329
▁Class	-4330
▁publication	-4331
▁multi	-4332
▁Prosecutor	-4333
▁damages	-4334
▁exercising	-4335
▁Smt	-4336
▁recent	-4337
▁confirmed	-4338
▁recognised	-4339
▁identification	-4340
▁Li	-4341
▁assail	-4342
▁conflict	-4343
▁UN	-4344
▁response	-4345
▁democracy	-4346
▁promote	-4347
▁particulars	-4348
▁rise	-4349
PS	-4350
cious	-4351
isite	-4352
hy	-4353
▁mortgage	-4354
▁Ash	-4355
▁things	-4356
▁subsid	-4357
▁commerce	-4358
▁governance	-4359
▁eas	-4360
▁Program	-4361
▁pursuance	-4362
dis	-4363
enty	-4364
ME	-4365
▁Chandra	-4366
▁CrPC	-4367
▁although	-4368
▁valu	-4369
▁da	-4370
▁press	-4371
orandum	-4372
▁values	-4373
▁protected	-4374
▁allegation	-4375
▁inspection	-4376
▁Inter	-4377
▁lie	-4378
▁study	-4379
hens	-4380
▁Health	-4381
▁conven	-4382
▁issuance	-4383
▁Nag	-4384
▁Pras	-4385
▁purchased	-4386
▁thousand	-4387
eria	-4388
hent	-4389
▁Human	-4390
▁schedule	-4391
set	-4392
▁pan	-4393
▁Gazette	-4394
▁Can	-4395
▁proportion	-4396
road	-4397
▁mode	-4398
▁thing	-4399
▁exchange	-4400
▁classification	-4401
▁Notwithstanding	-4402
▁Prime	-4403
▁safegu	-4404
▁offered	-4405
▁host	-4406
nother	-4407
liminary	-4408
ark	-4409
▁claimant	-4410
▁Employ	-4411
▁Pet	-4412
achal	-4413
▁events	-4414
▁injunction	-4415
olid	-4416
▁confidence	-4417
▁Mot	-4418
struction	-4419
ply	-4420
yan	-4421
▁Khan	-4422
partments	-4423
▁Agricult	-4424
let	-4425
▁bo	-4426
▁simple	-4427
▁mandate	-4428
१४	-4429
▁wa	-4430
▁categor	-4431
▁Another	-4432
▁Mus	-4433
▁dying	-4434
▁speech	-4435
▁incurred	-4436
▁Assessing	-4437
▁Ja	-4438
▁Road	-4439
▁pack	-4440
▁tend	-4441
▁enough	-4442
▁Panchayat	-4443
▁manufacture	-4444
▁sil	-4445
leges	-4446
▁drug	-4447
▁caste	-4448
OS	-4449
PE	-4450
utta	-4451
▁hours	-4452
▁Constitutional	-4453
▁elabor	-4454
▁reform	-4455
▁highest	-4456
▁Vice	-4457
▁export	-4458
▁changes	-4459
▁results	-4460
-0	-4461
vis	-4462
▁Research	-4463
▁Trib	-4464
▁young	-4465
▁equity	-4466
▁thereon	-4467
DR	-4468
▁bag	-4469
▁confer	-4470
▁Directors	-4471
▁worth	-4472
▁impart	-4473
▁notwithstanding	-4474
▁million	-4475
▁inherent	-4476
▁territory	-4477
above	-4478
ilateral	-4479
stitutes	-4480
▁voluntary	-4481
inning	-4482
▁tariff	-4483
▁phot	-4484
▁enhance	-4485
▁hereby	-4486
▁sw	-4487
/0	-4488
rog	-4489
ula	-4490
▁typ	-4491
▁gains	-4492
▁acting	-4493
AG	-4494
ront	-4495
▁low	-4496
▁Conf	-4497
▁fees	-4498
umer	-4499
▁deep	-4500
▁modern	-4501
ING	-4502
▁rape	-4503
▁problems	-4504
▁affirm	-4505
▁tri	-4506
▁Sam	-4507
pping	-4508
ayment	-4509
▁inserted	-4510
▁Paragraph	-4511
▁opportunities	-4512
duce	-4513
▁suits	-4514
ocates	-4515
▁achieved	-4516
CE	-4517
mittees	-4518
stitutional	-4519
▁recognition	-4520
▁empowered	-4521
▁situations	-4522
▁plaint	-4523
▁confirm	-4524
▁interested	-4525
orous	-4526
▁subordinate	-4527
▁IV	-4528
▁acres	-4529
▁Moreover	-4530
▁thereunder	-4531
MS	-4532
App	-4533
▁falls	-4534
▁taxes	-4535
▁agencies	-4536
▁understanding	-4537
▁pred	-4538
▁effic	-4539
▁incorporated	-4540
HI	-4541
appro	-4542
▁Election	-4543
▁problem	-4544
▁involving	-4545
iling	-4546
▁risk	-4547
▁insofar	-4548
▁CON	-4549
▁Organ	-4550
▁weeks	-4551
course	-4552
▁rever	-4553
▁network	-4554
▁causing	-4555
▁creditors	-4556
▁po	-4557
▁lost	-4558
▁excluded	-4559
▁guilt	-4560
▁prayed	-4561
▁brief	-4562
▁equally	-4563
▁getting	-4564
▁environmental	-4565
▁owners	-4566
ump	-4567
charge	-4568
▁region	-4569
▁hereinabove	-4570
while	-4571
▁Excise	-4572
NA	-4573
comp	-4574
▁Cor	-4575
anda	-4576
▁SEBI	-4577
▁conclusions	-4578
▁partnership	-4579
▁indicates	-4580
▁requested	-4581
▁attached	-4582
▁Circ	-4583
▁authorised	-4584
uss	-4585
▁Rao	-4586
▁ele	-4587
▁resulted	-4588
rown	-4589
▁Axad	-4590
▁accomp	-4591
▁weight	-4592
▁allowing	-4593
▁agreements	-4594
▁representatives	-4595
▁grad	-4596
▁contrad	-4597
▁Protection	-4598
▁Private	-4599
▁feel	-4600
▁transp	-4601
▁appreciate	-4602
▁suc	-4603
▁abuse	-4604
▁job	-4605
going	-4606
hibit	-4607
▁damage	-4608
▁Devi	-4609
▁Jain	-4610
▁doctor	-4611
▁Commercial	-4612
▁restriction	-4613
my	-4614
ourn	-4615
▁Jag	-4616
▁Excell	-4617
▁almost	-4618
▁lap	-4619
irs	-4620
▁Judic	-4621
▁agent	-4622
▁unn	-4623
respondent	-4624
▁NE	-4625
▁San	-4626
▁prison	-4627
▁fig	-4628
▁Mod	-4629
▁eval	-4630
▁compon	-4631
▁guaranteed	-4632
CA	-4633
iency	-4634
▁driver	-4635
▁’	-4636
▁Work	-4637
▁soon	-4638
▁Mon	-4639
▁Once	-4640
▁System	-4641
▁formed	-4642
▁applying	-4643
bted	-4644
▁assign	-4645
▁immovable	-4646
▁quar	-4647
▁cited	-4648
▁Calc	-4649
▁dowry	-4650
▁letters	-4651
▁selected	-4652
▁innoc	-4653
▁succeed	-4654
▁answered	-4655
ourth	-4656
utory	-4657
itness	-4658
▁factor	-4659
▁allotted	-4660
▁approached	-4661
▁maintainable	-4662
CL	-4663
▁renewal	-4664
rose	-4665
▁xxx	-4666
soever	-4667
▁books	-4668
▁preliminary	-4669
▁industries	-4670
▁South	-4671
▁refers	-4672
quisition	-4673
examination	-4674
▁possibility	-4675
ape	-4676
▁card	-4677
ighted	-4678
▁Ahmed	-4679
▁confident	-4680
▁levels	-4681
▁enforce	-4682
sheet	-4683
▁moved	-4684
▁pleaded	-4685
▁interpreted	-4686
▁scrutiny	-4687
▁defici	-4688
▁handed	-4689
▁certainly	-4690
ength	-4691
icies	-4692
▁arose	-4693
right	-4694
▁necessity	-4695
▁Hy	-4696
endent	-4697
▁Nagar	-4698
▁Far	-4699
▁formal	-4700
▁fell	-4701
▁forum	-4702
▁falling	-4703
▁mark	-4704
▁rou	-4705
▁prem	-4706
amy	-4707
habil	-4708
▁Para	-4709
lead	-4710
endra	-4711
▁fide	-4712
▁affirmed	-4713
▁correctness	-4714
▁intercourse	-4715
▁owned	-4716
eav	-4717
▁Gur	-4718
▁alt	-4719
▁vs	-4720
▁irre	-4721
ilities	-4722
▁absolutely	-4723
ronic	-4724
▁comb	-4725
ada	-4726
▁manifest	-4727
▁entertain	-4728
▁board	-4729
enture	-4730
▁Memon	-4731
▁lodged	-4732
▁instituted	-4733
▁Now	-4734
▁Post	-4735
▁authent	-4736
▁running	-4737
lack	-4738
▁overr	-4739
▁Forest	-4740
▁collection	-4741
▁participation	-4742
GC	-4743
▁central	-4744
▁Child	-4745
▁containing	-4746
▁art	-4747
▁raise	-4748
▁Affairs	-4749
▁Calcutta	-4750
▁AC	-4751
well	-4752
▁key	-4753
lawful	-4754
Am	-4755
ique	-4756
▁features	-4757
▁contracts	-4758
▁truth	-4759
▁Gov	-4760
▁Kal	-4761
▁Met	-4762
▁log	-4763
▁tender	-4764
▁Industries	-4765
pic	-4766
▁laun	-4767
▁adjust	-4768
▁actions	-4769
UL	-4770
▁Cap	-4771
▁heart	-4772
▁litig	-4773
▁claiming	-4774
▁ownership	-4775
PT	-4776
ensive	-4777
▁withdraw	-4778
▁Territory	-4779
tle	-4780
▁opt	-4781
▁endeav	-4782
▁AS	-4783
▁systems	-4784
▁vehicles	-4785
▁instrument	-4786
▁scientific	-4787
cast	-4788
▁subjected	-4789
▁analy	-4790
usiness	-4791
▁length	-4792
▁none	-4793
▁named	-4794
▁creation	-4795
▁resulting	-4796
▁z	-4797
▁seiz	-4798
▁seeks	-4799
▁properly	-4800
ka	-4801
▁improve	-4802
▁observation	-4803
▁confessional	-4804
atever	-4805
▁personnel	-4806
uter	-4807
▁accru	-4808
▁speed	-4809
uity	-4810
▁violence	-4811
wan	-4812
aram	-4813
▁early	-4814
▁fails	-4815
ARD	-4816
▁Judgment	-4817
RO	-4818
▁cruel	-4819
▁Design	-4820
▁residential	-4821
▁rein	-4822
uvenile	-4823
▁regarded	-4824
▁rigorous	-4825
inks	-4826
▁advocate	-4827
▁suffering	-4828
position	-4829
▁rational	-4830
▁felt	-4831
▁Reserve	-4832
know	-4833
▁esc	-4834
▁subxad	-4835
▁circular	-4836
▁tradition	-4837
prises	-4838
▁explain	-4839
ones	-4840
▁Char	-4841
vt	-4842
▁speaking	-4843
▁paper	-4844
▁immediate	-4845
▁requisite	-4846
▁successful	-4847
ikh	-4848
▁PC	-4849
▁latter	-4850
▁grievance	-4851
▁consistent	-4852
▁gross	-4853
▁ordinarily	-4854
ij	-4855
ns	-4856
sue	-4857
▁examining	-4858
▁exclusive	-4859
▁violative	-4860
▁ambit	-4861
icating	-4862
▁ultimately	-4863
▁temporary	-4864
▁proc	-4865
▁Prasad	-4866
▁imposition	-4867
asonable	-4868
▁Inspector	-4869
▁Sa	-4870
▁Leave	-4871
osition	-4872
▁imported	-4873
▁poor	-4874
▁sanctioned	-4875
▁pec	-4876
▁classes	-4877
▁diver	-4878
orial	-4879
aches	-4880
▁rank	-4881
▁estate	-4882
▁secure	-4883
▁courses	-4884
▁entrust	-4885
▁assembly	-4886
▁residence	-4887
anger	-4888
▁Shah	-4889
▁representative	-4890
De	-4891
rel	-4892
antly	-4893
▁pleadings	-4894
▁strictly	-4895
▁reasoning	-4896
▁filled	-4897
▁Customs	-4898
ilt	-4899
mir	-4900
▁half	-4901
undred	-4902
▁deserv	-4903
▁entity	-4904
▁repeal	-4905
▁element	-4906
▁suicide	-4907
▁parame	-4908
TE	-4909
▁model	-4910
▁omission	-4911
▁cou	-4912
▁daily	-4913
▁plain	-4914
oj	-4915
▁eviction	-4916
▁Certificate	-4917
yal	-4918
▁),	-4919
elled	-4920
▁text	-4921
▁longer	-4922
▁farmers	-4923
rep	-4924
▁deleg	-4925
▁conducting	-4926
▁really	-4927
▁policies	-4928
▁acted	-4929
▁irres	-4930
ales	-4931
▁sam	-4932
▁ever	-4933
icitor	-4934
oured	-4935
usion	-4936
▁overall	-4937
▁Dec	-4938
▁guarantee	-4939
▁substituted	-4940
▁Parliamentary	-4941
wo	-4942
▁ed	-4943
▁Agg	-4944
▁ship	-4945
ervation	-4946
▁lawy	-4947
▁objects	-4948
▁concurrent	-4949
ques	-4950
▁bear	-4951
▁retired	-4952
▁criteria	-4953
▁facility	-4954
▁Arbitrator	-4955
▁nos	-4956
▁promis	-4957
▁Administrative	-4958
▁genu	-4959
▁revised	-4960
▁confined	-4961
▁.[	-4962
uent	-4963
▁Page	-4964
▁Will	-4965
▁defect	-4966
▁retrospective	-4967
▁processing	-4968
Ind	-4969
omen	-4970
▁patent	-4971
▁unlawful	-4972
▁barred	-4973
▁compound	-4974
▁modified	-4975
▁alongwith	-4976
ller	-4977
▁link	-4978
▁autom	-4979
▁Consequently	-4980
US	-4981
▁remand	-4982
uge	-4983
▁mutual	-4984
▁comprom	-4985
▁considerations	-4986
rity	-4987
▁envisaged	-4988
▁implemented	-4989
AD	-4990
▁Of	-4991
▁marked	-4992
▁manufacturing	-4993
▁conce	-4994
▁hereunder	-4995
▁withdrawn	-4996
AM	-4997
ots	-4998
ulates	-4999
▁whatsoever	-5000
▁Ordinance	-5001
▁purchaser	-5002
▁acknow	-5003
▁restra	-5004
▁located	-5005
▁indirect	-5006
aul	-5007
irty	-5008
amily	-5009
▁items	-5010
▁explos	-5011
▁Superint	-5012
▁Dig	-5013
istan	-5014
▁eight	-5015
▁reach	-5016
▁statutes	-5017
eric	-5018
▁totally	-5019
itary	-5020
▁occurred	-5021
▁conscious	-5022
▁qua	-5023
osing	-5024
▁night	-5025
▁legally	-5026
ett	-5027
ishing	-5028
itoring	-5029
▁married	-5030
nam	-5031
▁Review	-5032
AA	-5033
▁Convention	-5034
▁Pvt	-5035
▁surre	-5036
atal	-5037
▁quoted	-5038
uro	-5039
ayan	-5040
▁Acts	-5041
▁entries	-5042
▁manufacturer	-5043
venth	-5044
amation	-5045
ishment	-5046
▁Allah	-5047
▁mechanism	-5048
▁negligence	-5049
▁check	-5050
▁something	-5051
):	-5052
ask	-5053
athe	-5054
▁refused	-5055
▁seizure	-5056
▁reproduced	-5057
▁Ven	-5058
▁usu	-5059
▁lives	-5060
▁engine	-5061
▁democratic	-5062
▁arms	-5063
▁prospect	-5064
Ch	-5065
▁Laws	-5066
▁trib	-5067
hensive	-5068
▁summon	-5069
▁erroneous	-5070
▁operational	-5071
▁Di	-5072
▁Ali	-5073
▁withdrawal	-5074
▁Annexure	-5075
▁Kash	-5076
▁comply	-5077
▁circumstance	-5078
een	-5079
▁Dh	-5080
▁Exchange	-5081
▁performed	-5082
▁Aud	-5083
▁parameters	-5084
kash	-5085
▁distance	-5086
▁Respondents	-5087
avy	-5088
▁Aggrieved	-5089
▁generation	-5090
▁sq	-5091
▁erred	-5092
▁payments	-5093
athi	-5094
ricted	-5095
▁exclusion	-5096
▁receiving	-5097
lauses	-5098
▁Build	-5099
bel	-5100
▁Af	-5101
ergency	-5102
▁securities	-5103
arth	-5104
▁dues	-5105
▁framework	-5106
ayuk	-5107
rule	-5108
ports	-5109
▁pain	-5110
minent	-5111
▁insurer	-5112
havi	-5113
▁indeed	-5114
▁passage	-5115
▁contents	-5116
▁disclose	-5117
▁Excellency	-5118
▁poll	-5119
▁surv	-5120
▁quashing	-5121
EP	-5122
urring	-5123
▁Water	-5124
▁seats	-5125
bur	-5126
eth	-5127
▁intim	-5128
▁ingred	-5129
▁believe	-5130
▁Engineer	-5131
▁creating	-5132
▁standing	-5133
▁Acquisition	-5134
alg	-5135
▁Ext	-5136
rees	-5137
▁base	-5138
▁twenty	-5139
▁associated	-5140
udh	-5141
ae	-5142
dul	-5143
▁inqu	-5144
▁sound	-5145
▁worked	-5146
▁willing	-5147
hend	-5148
▁prohibition	-5149
▁Universities	-5150
▁Full	-5151
▁stor	-5152
▁Bas	-5153
▁Dev	-5154
▁wish	-5155
regular	-5156
▁complied	-5157
▁influence	-5158
▁SH	-5159
etings	-5160
......	-5161
inking	-5162
▁Reliance	-5163
१५	-5164
▁Rent	-5165
▁struck	-5166
▁advertise	-5167
gest	-5168
oral	-5169
▁Shiv	-5170
▁notes	-5171
’)	-5172
▁driving	-5173
uous	-5174
prene	-5175
▁whatever	-5176
▁attracted	-5177
▁exceeding	-5178
.(	-5179
▁afford	-5180
▁satisfy	-5181
▁Solicitor	-5182
Pro	-5183
▁Non	-5184
▁cul	-5185
▁pleas	-5186
achment	-5187
reprene	-5188
▁Allahabad	-5189
grad	-5190
▁recall	-5191
▁capable	-5192
▁qualification	-5193
▁dele	-5194
isting	-5195
▁harass	-5196
including	-5197
▁arrangement	-5198
▁channel	-5199
▁ensuring	-5200
▁Goa	-5201
▁bond	-5202
▁equip	-5203
▁grave	-5204
▁admissible	-5205
▁complaints	-5206
phold	-5207
▁team	-5208
▁levied	-5209
▁clarified	-5210
▁wishes	-5211
essel	-5212
▁King	-5213
▁concerning	-5214
▁uns	-5215
▁Assam	-5216
▁increasing	-5217
fe	-5218
▁MCI	-5219
▁causes	-5220
iform	-5221
▁divor	-5222
▁allocation	-5223
▁Electricity	-5224
▁type	-5225
▁exists	-5226
hanced	-5227
▁sister	-5228
▁bench	-5229
▁seems	-5230
▁compuls	-5231
leb	-5232
▁Aust	-5233
▁Muslim	-5234
▁attend	-5235
▁objectives	-5236
▁availability	-5237
▁Defendant	-5238
▁else	-5239
▁Business	-5240
▁rare	-5241
▁Foreign	-5242
▁framing	-5243
▁strateg	-5244
▁Appellants	-5245
▁recon	-5246
haviour	-5247
▁liquid	-5248
▁Insofar	-5249
▁equival	-5250
▁Statement	-5251
▁seat	-5252
▁Programme	-5253
▁jun	-5254
▁Bhag	-5255
▁assessed	-5256
▁integrity	-5257
▁procedural	-5258
▁prohibited	-5259
habilitation	-5260
▁sustainable	-5261
ita	-5262
vency	-5263
author	-5264
▁belief	-5265
▁compar	-5266
▁consumers	-5267
▁Abdul	-5268
▁partly	-5269
▁groups	-5270
▁defines	-5271
▁involvement	-5272
▁MS	-5273
▁Sign	-5274
▁enum	-5275
▁uphold	-5276
▁contend	-5277
▁discharged	-5278
▁Prom	-5279
▁relying	-5280
▁colleges	-5281
onn	-5282
▁legitimate	-5283
▁Up	-5284
▁learning	-5285
▁Plaintiff	-5286
▁contractor	-5287
▁BC	-5288
compl	-5289
▁Suit	-5290
▁media	-5291
▁competence	-5292
ga	-5293
▁bul	-5294
▁tal	-5295
▁Deed	-5296
▁listed	-5297
▁needed	-5298
▁Ed	-5299
▁Vol	-5300
▁Dist	-5301
▁sens	-5302
▁disease	-5303
▁consumer	-5304
▁significance	-5305
▁My	-5306
UN	-5307
▁iron	-5308
▁active	-5309
ibilities	-5310
ibly	-5311
▁Also	-5312
▁committing	-5313
▁Interest	-5314
▁PS	-5315
▁br	-5316
▁pros	-5317
uc	-5318
▁Small	-5319
▁complex	-5320
▁enhanced	-5321
▁Mohan	-5322
▁England	-5323
RE	-5324
▁Anr	-5325
▁Pand	-5326
orship	-5327
olvency	-5328
▁Proper	-5329
▁remove	-5330
pet	-5331
just	-5332
antial	-5333
▁repealed	-5334
▁superior	-5335
▁justification	-5336
alore	-5337
▁Tri	-5338
▁mag	-5339
▁repla	-5340
▁distur	-5341
▁schools	-5342
▁sitting	-5343
ey	-5344
free	-5345
pper	-5346
▁lib	-5347
▁positive	-5348
▁manufactured	-5349
▁Investigating	-5350
.[	-5351
▁survey	-5352
▁session	-5353
▁relative	-5354
▁grat	-5355
▁vest	-5356
▁North	-5357
▁foundation	-5358
▁Apart	-5359
iar	-5360
▁simply	-5361
▁showing	-5362
▁inconsistent	-5363
etent	-5364
▁Brit	-5365
▁medic	-5366
▁vital	-5367
▁Railway	-5368
▁quantity	-5369
wa	-5370
▁Are	-5371
▁huge	-5372
▁deliver	-5373
▁separately	-5374
▁cooperation	-5375
▁Family	-5376
▁papers	-5377
▁bringing	-5378
ocks	-5379
orse	-5380
▁Legal	-5381
▁conform	-5382
▁doctors	-5383
pex	-5384
where	-5385
▁danger	-5386
from	-5387
▁Ant	-5388
ERS	-5389
ols	-5390
▁AT	-5391
▁founded	-5392
▁allowance	-5393
▁verification	-5394
▁prop	-5395
levant	-5396
▁irrespective	-5397
▁qualifications	-5398
arh	-5399
teen	-5400
iment	-5401
▁friendly	-5402
▁restrict	-5403
▁chargeable	-5404
iles	-5405
▁cong	-5406
▁aforementioned	-5407
▁DNA	-5408
▁hundred	-5409
▁procedures	-5410
▁transportation	-5411
iy	-5412
▁valuable	-5413
cond	-5414
▁Americ	-5415
▁facilitate	-5416
oice	-5417
redit	-5418
▁Third	-5419
▁imposing	-5420
▁commenced	-5421
▁Vis	-5422
ommod	-5423
ertion	-5424
▁percentage	-5425
udence	-5426
▁buildings	-5427
requ	-5428
▁efficient	-5429
▁Id	-5430
anas	-5431
▁Recovery	-5432
▁cm	-5433
▁fem	-5434
tinent	-5435
▁acquire	-5436
▁minerals	-5437
nai	-5438
▁Bl	-5439
▁dil	-5440
paration	-5441
▁autonom	-5442
▁beginning	-5443
▁greetings	-5444
▁applicability	-5445
lar	-5446
▁Ret	-5447
organ	-5448
oubted	-5449
itations	-5450
,—	-5451
ulty	-5452
▁changed	-5453
▁throughout	-5454
▁annum	-5455
▁motive	-5456
▁constructed	-5457
igil	-5458
▁prices	-5459
▁useful	-5460
▁sectors	-5461
▁contravention	-5462
dh	-5463
▁squ	-5464
istics	-5465
▁effectively	-5466
arc	-5467
▁mal	-5468
▁factory	-5469
▁Transport	-5470
▁enumerated	-5471
▁Roh	-5472
▁Arun	-5473
▁uniform	-5474
▁entrusted	-5475
ammu	-5476
oses	-5477
▁normally	-5478
RT	-5479
▁misconduct	-5480
OC	-5481
raft	-5482
▁amb	-5483
▁core	-5484
▁declare	-5485
▁initially	-5486
▁operating	-5487
gy	-5488
▁Army	-5489
▁viti	-5490
▁mobile	-5491
▁awarding	-5492
▁primarily	-5493
▁Pension	-5494
▁irregular	-5495
▁Trade	-5496
rigation	-5497
▁consequential	-5498
ami	-5499
▁mit	-5500
rears	-5501
▁gold	-5502
▁rail	-5503
▁vessel	-5504
▁inference	-5505
▁appreciation	-5506
▁harmon	-5507
▁regulate	-5508
ev	-5509
▁Castes	-5510
▁Jammu	-5511
▁Constit	-5512
▁challenges	-5513
aren	-5514
comm	-5515
▁Vill	-5516
▁earn	-5517
▁wound	-5518
▁unreasonable	-5519
ley	-5520
▁Val	-5521
▁cast	-5522
▁rival	-5523
▁People	-5524
▁Besides	-5525
▁holders	-5526
▁calculated	-5527
erate	-5528
▁continues	-5529
▁vend	-5530
▁target	-5531
▁Kashmir	-5532
▁quantum	-5533
▁Regional	-5534
▁eligibility	-5535
irms	-5536
hon	-5537
▁contact	-5538
bid	-5539
▁raising	-5540
▁governing	-5541
▁qualified	-5542
▁lies	-5543
anging	-5544
▁supplement	-5545
verse	-5546
▁estim	-5547
▁Welfare	-5548
▁authorized	-5549
▁comprehensive	-5550
Rs	-5551
lax	-5552
▁famil	-5553
▁resol	-5554
▁Training	-5555
▁restricted	-5556
▁Registration	-5557
BS	-5558
▁culture	-5559
asw	-5560
▁Again	-5561
▁types	-5562
ometric	-5563
▁requiring	-5564
isc	-5565
▁Him	-5566
▁Mand	-5567
▁incl	-5568
▁Superintendent	-5569
ancellor	-5570
▁operative	-5571
▁deposition	-5572
▁highlighted	-5573
abled	-5574
▁happy	-5575
▁thirty	-5576
--------	-5577
▁organization	-5578
body	-5579
▁top	-5580
ifies	-5581
lease	-5582
▁antic	-5583
▁space	-5584
▁meetings	-5585
▁lac	-5586
▁city	-5587
itally	-5588
ported	-5589
▁sources	-5590
isen	-5591
abling	-5592
▁Banks	-5593
▁Sector	-5594
▁movement	-5595
▁equivalent	-5596
bts	-5597
▁ready	-5598
▁little	-5599
▁corresponding	-5600
Os	-5601
prise	-5602
▁Disp	-5603
▁says	-5604
▁ruled	-5605
▁asserted	-5606
▁bad	-5607
▁accommod	-5608
co	-5609
vity	-5610
▁save	-5611
▁amalg	-5612
▁guard	-5613
oubtedly	-5614
▁invoked	-5615
▁entirely	-5616
▁Conference	-5617
▁gas	-5618
reet	-5619
▁anticip	-5620
▁organiz	-5621
lex	-5622
rist	-5623
rance	-5624
▁load	-5625
▁commod	-5626
osh	-5627
▁focus	-5628
▁cultiv	-5629
▁inflic	-5630
MP	-5631
▁CR	-5632
▁repeated	-5633
▁definite	-5634
▁RBI	-5635
rency	-5636
▁pure	-5637
▁storage	-5638
▁interven	-5639
▁Bangalore	-5640
▁Resolution	-5641
▁crop	-5642
ume	-5643
ung	-5644
OL	-5645
▁Inf	-5646
▁saw	-5647
▁heirs	-5648
akf	-5649
issa	-5650
icing	-5651
▁struct	-5652
▁license	-5653
overe	-5654
▁null	-5655
▁unfair	-5656
▁banking	-5657
▁cruelty	-5658
▁questioned	-5659
▁Dhar	-5660
▁Year	-5661
▁task	-5662
▁cultural	-5663
▁soft	-5664
▁holds	-5665
▁newsp	-5666
▁accepting	-5667
▁exclus	-5668
▁pertinent	-5669
▁Two	-5670
othes	-5671
▁fear	-5672
▁stock	-5673
▁consumption	-5674
▁di	-5675
▁tenure	-5676
▁extract	-5677
▁obviously	-5678
▁substantially	-5679
uel	-5680
anied	-5681
Amendment	-5682
▁Territories	-5683
▁initiatives	-5684
▁hear	-5685
▁Capital	-5686
.....	-5687
▁Chen	-5688
employ	-5689
▁Compl	-5690
▁clean	-5691
▁histor	-5692
istrator	-5693
▁Meh	-5694
▁audit	-5695
▁elections	-5696
▁Ge	-5697
emed	-5698
▁reduce	-5699
▁identify	-5700
rah	-5701
▁marg	-5702
▁Rajya	-5703
▁vires	-5704
adav	-5705
▁Pak	-5706
▁exc	-5707
▁arisen	-5708
▁partition	-5709
▁City	-5710
▁dealer	-5711
hibition	-5712
▁conversion	-5713
ians	-5714
inet	-5715
▁bona	-5716
▁supra	-5717
CR	-5718
▁Kar	-5719
ategory	-5720
derabad	-5721
▁excise	-5722
▁emphasis	-5723
▁Selection	-5724
mort	-5725
▁Enter	-5726
stituting	-5727
▁sentences	-5728
VE	-5729
ugg	-5730
▁Chh	-5731
▁unnecess	-5732
holder	-5733
▁motion	-5734
▁crucial	-5735
▁applicants	-5736
enth	-5737
ites	-5738
oned	-5739
▁week	-5740
▁urban	-5741
▁inclined	-5742
For	-5743
aug	-5744
▁Ur	-5745
▁Their	-5746
▁fields	-5747
▁Austral	-5748
▁VI	-5749
▁Kol	-5750
▁You	-5751
▁cri	-5752
▁Designated	-5753
▁innovation	-5754
▁accompanied	-5755
AI	-5756
▁foot	-5757
▁aggreg	-5758
▁borrower	-5759
▁participated	-5760
ulating	-5761
▁developing	-5762
▁Engineering	-5763
▁Sun	-5764
ayukta	-5765
estion	-5766
mination	-5767
▁Committees	-5768
▁agriculture	-5769
▁distinguished	-5770
▁cy	-5771
▁warm	-5772
▁ultimate	-5773
▁privilege	-5774
▁compromise	-5775
ja	-5776
▁hom	-5777
▁late	-5778
▁Das	-5779
▁Govt	-5780
▁Manager	-5781
▁Session	-5782
▁arrears	-5783
▁Dem	-5784
▁harm	-5785
▁mist	-5786
▁chemical	-5787
sees	-5788
▁Bab	-5789
▁sem	-5790
▁Bharat	-5791
▁Prakash	-5792
▁Maj	-5793
omin	-5794
▁block	-5795
▁relax	-5796
▁consisting	-5797
▁dr	-5798
wari	-5799
▁Food	-5800
▁felic	-5801
▁taxation	-5802
nan	-5803
▁servants	-5804
HAN	-5805
head	-5806
itan	-5807
▁average	-5808
BC	-5809
UD	-5810
▁NG	-5811
sych	-5812
▁send	-5813
▁pregn	-5814
▁touch	-5815
▁prefer	-5816
sub	-5817
utt	-5818
▁don	-5819
▁borne	-5820
▁paying	-5821
▁Security	-5822
▁universities	-5823
▁Mohd	-5824
▁monthly	-5825
▁prosper	-5826
▁PM	-5827
▁Gre	-5828
▁tort	-5829
▁domain	-5830
▁British	-5831
▁photograph	-5832
FT	-5833
ena	-5834
vas	-5835
▁anim	-5836
▁vote	-5837
▁finds	-5838
▁stake	-5839
▁Orissa	-5840
▁Hyderabad	-5841
jit	-5842
oti	-5843
▁Mit	-5844
▁paras	-5845
▁Consid	-5846
▁Tribes	-5847
▁weapons	-5848
▁planning	-5849
▁nomination	-5850
▁regulatory	-5851
▁documentary	-5852
mn	-5853
▁Est	-5854
rav	-5855
▁Unit	-5856
▁liter	-5857
▁acceptable	-5858
▁Administration	-5859
oke	-5860
▁size	-5861
▁justify	-5862
▁largest	-5863
▁goes	-5864
▁sure	-5865
▁dates	-5866
▁front	-5867
ologies	-5868
▁offender	-5869
▁Kam	-5870
▁defe	-5871
ciation	-5872
▁effort	-5873
▁enabling	-5874
▁cancellation	-5875
▁Ve	-5876
aves	-5877
bhai	-5878
otion	-5879
▁Stand	-5880
▁involves	-5881
▁clearance	-5882
▁concerns	-5883
alli	-5884
▁Subject	-5885
▁opposed	-5886
ependence	-5887
▁beneficial	-5888
▁Imp	-5889
▁gets	-5890
orrect	-5891
▁chain	-5892
▁Market	-5893
▁offices	-5894
▁negative	-5895
▁identical	-5896
inger	-5897
▁genuine	-5898
cons	-5899
▁dismissing	-5900
ortun	-5901
▁flat	-5902
haust	-5903
vance	-5904
▁fast	-5905
▁Econom	-5906
▁science	-5907
▁ingredients	-5908
▁Pan	-5909
amount	-5910
▁numbers	-5911
▁entreprene	-5912
ESS	-5913
iche	-5914
▁methods	-5915
▁occupation	-5916
▁suspension	-5917
▁represented	-5918
esty	-5919
▁input	-5920
▁Village	-5921
▁underlying	-5922
▁description	-5923
▁maintaining	-5924
▁copies	-5925
▁insured	-5926
adh	-5927
sing	-5928
▁ban	-5929
▁licen	-5930
▁Appeals	-5931
▁reasonably	-5932
▁nut	-5933
▁reb	-5934
khand	-5935
▁spread	-5936
An	-5937
▁RI	-5938
icro	-5939
▁Houses	-5940
▁multip	-5941
▁foregoing	-5942
▁electronic	-5943
▁harassment	-5944
▁Ans	-5945
mortem	-5946
▁Based	-5947
▁Credit	-5948
▁divorce	-5949
▁experts	-5950
SCC	-5951
▁Ashok	-5952
▁rejection	-5953
▁NCT	-5954
▁Net	-5955
▁notices	-5956
▁external	-5957
▁correctly	-5958
▁CA	-5959
ocal	-5960
▁Dub	-5961
▁Try	-5962
▁seed	-5963
▁workman	-5964
▁highly	-5965
▁computing	-5966
cture	-5967
gress	-5968
kata	-5969
ureau	-5970
▁Claim	-5971
▁Reddy	-5972
UM	-5973
▁१६	-5974
▁round	-5975
▁honour	-5976
▁centres	-5977
▁invited	-5978
ini	-5979
ially	-5980
▁Survey	-5981
▁Chennai	-5982
▁Sum	-5983
▁gun	-5984
onsid	-5985
▁BCCI	-5986
▁vision	-5987
ili	-5988
lam	-5989
garh	-5990
▁cry	-5991
order	-5992
▁sovere	-5993
▁ascertain	-5994
igarh	-5995
▁Port	-5996
essees	-5997
▁abroad	-5998
▁relate	-5999
▁precedent	-6000
▁scheduled	-6001
rab	-6002
▁Aut	-6003
▁Her	-6004
▁Sah	-6005
▁hotel	-6006
uration	-6007
▁mainly	-6008
▁Arbitral	-6009
▁commitment	-6010
▁participate	-6011
▁Rav	-6012
etary	-6013
▁inside	-6014
▁proceeds	-6015
Em	-6016
bal	-6017
▁rap	-6018
▁hope	-6019
▁undue	-6020
▁illust	-6021
▁Krishna	-6022
▁carefully	-6023
▁exhaust	-6024
▁forwarded	-6025
TH	-6026
▁signature	-6027
▁designated	-6028
▁crops	-6029
olition	-6030
▁unique	-6031
▁depends	-6032
▁comprising	-6033
▁DEL	-6034
▁cart	-6035
▁Category	-6036
▁violated	-6037
▁Your	-6038
▁lying	-6039
▁Digitally	-6040
▁perspective	-6041
▁Art	-6042
▁cal	-6043
▁ment	-6044
aneous	-6045
▁jurispr	-6046
▁Himachal	-6047
▁teaching	-6048
▁idea	-6049
▁explo	-6050
▁Notice	-6051
▁conclude	-6052
▁subjects	-6053
▁allegedly	-6054
▁collective	-6055
whe	-6056
roller	-6057
▁theory	-6058
▁extremely	-6059
▁organisation	-6060
LA	-6061
aks	-6062
▁Being	-6063
▁Found	-6064
▁square	-6065
resident	-6066
▁appointing	-6067
tains	-6068
▁Note	-6069
▁Stud	-6070
▁memo	-6071
▁rect	-6072
▁destro	-6073
▁partner	-6074
▁depending	-6075
▁continuing	-6076
▁Chairperson	-6077
mi	-6078
laws	-6079
▁God	-6080
▁anti	-6081
eeping	-6082
General	-6083
▁weapon	-6084
▁preceding	-6085
rew	-6086
▁Ay	-6087
▁Ca	-6088
ders	-6089
▁ant	-6090
▁vag	-6091
▁Yadav	-6092
▁wealth	-6093
▁implied	-6094
▁morality	-6095
▁Marriage	-6096
▁processes	-6097
yam	-6098
▁Add	-6099
▁obs	-6100
▁female	-6101
▁propri	-6102
▁dispose	-6103
▁ignored	-6104
▁specify	-6105
▁biometric	-6106
▁admittedly	-6107
▁suggestion	-6108
▁denial	-6109
▁Transfer	-6110
▁incorrect	-6111
▁continuous	-6112
upon	-6113
▁shif	-6114
▁absor	-6115
▁suggestions	-6116
ankar	-6117
oring	-6118
▁interf	-6119
▁shared	-6120
▁implead	-6121
▁advertisement	-6122
▁Exp	-6123
adequ	-6124
▁exclusively	-6125
pal	-6126
▁Equ	-6127
▁armed	-6128
▁Science	-6129
▁opening	-6130
▁certified	-6131
▁Authorities	-6132
▁limitations	-6133
▁Reform	-6134
▁obvious	-6135
▁internal	-6136
ila	-6137
▁IS	-6138
▁weak	-6139
▁range	-6140
▁Managing	-6141
▁Verified	-6142
▁Tem	-6143
▁moral	-6144
.00	-6145
▁PE	-6146
▁Force	-6147
▁Rural	-6148
▁opened	-6149
▁friends	-6150
▁purview	-6151
▁Although	-6152
▁promoted	-6153
▁emergency	-6154
haps	-6155
which	-6156
▁story	-6157
▁Property	-6158
See	-6159
▁lays	-6160
▁calls	-6161
▁ability	-6162
▁attained	-6163
▁acknowled	-6164
▁interpreting	-6165
Con	-6166
▁IST	-6167
enders	-6168
oration	-6169
▁Others	-6170
▁laying	-6171
▁vacancy	-6172
owed	-6173
▁Branch	-6174
▁regional	-6175
oul	-6176
▁Vid	-6177
uality	-6178
▁colour	-6179
▁tenancy	-6180
▁reconsid	-6181
▁informant	-6182
▁authentication	-6183
bh	-6184
rand	-6185
▁burn	-6186
▁imposs	-6187
▁formula	-6188
▁inclusive	-6189
▁outstanding	-6190
RC	-6191
off	-6192
Civil	-6193
▁Kish	-6194
▁divid	-6195
▁Social	-6196
▁Exhibit	-6197
▁improvement	-6198
DS	-6199
▁lif	-6200
monial	-6201
▁alien	-6202
atically	-6203
▁reduction	-6204
Comp	-6205
▁Issue	-6206
▁adduced	-6207
▁landing	-6208
▁deserves	-6209
▁consequently	-6210
▁considerable	-6211
▁NEW	-6212
▁Sanj	-6213
▁excell	-6214
▁growing	-6215
▁Pakistan	-6216
▁imperative	-6217
▁UGC	-6218
isable	-6219
overty	-6220
▁celeb	-6221
▁Clauses	-6222
▁perused	-6223
▁Engineers	-6224
▁efficiency	-6225
ails	-6226
▁infring	-6227
▁corporation	-6228
▁Crime	-6229
▁compared	-6230
▁villages	-6231
▁essentially	-6232
gone	-6233
aling	-6234
▁World	-6235
▁floor	-6236
▁nominated	-6237
▁controlled	-6238
▁incidental	-6239
▁rehabilitation	-6240
ni	-6241
ora	-6242
urt	-6243
▁suspic	-6244
▁computer	-6245
▁revealed	-6246
writ	-6247
▁Vij	-6248
▁travel	-6249
▁placing	-6250
▁fulfilled	-6251
▁Chandigarh	-6252
▁indul	-6253
▁stayed	-6254
▁feature	-6255
▁studies	-6256
▁adverted	-6257
chol	-6258
▁PWs	-6259
▁awards	-6260
▁narrow	-6261
▁consists	-6262
▁currency	-6263
▁pleasure	-6264
▁priority	-6265
inem	-6266
▁black	-6267
▁bilateral	-6268
▁rejecting	-6269
def	-6270
▁Out	-6271
othing	-6272
▁plants	-6273
▁equitable	-6274
▁undertake	-6275
▁modification	-6276
ushan	-6277
enable	-6278
▁Women	-6279
▁plans	-6280
▁spite	-6281
▁liabilities	-6282
aksh	-6283
leum	-6284
oles	-6285
ellig	-6286
▁deprived	-6287
▁integral	-6288
ATE	-6289
mun	-6290
▁cum	-6291
▁blast	-6292
▁closed	-6293
▁advised	-6294
▁preparation	-6295
ruits	-6296
▁Oper	-6297
▁entities	-6298
ney	-6299
▁mix	-6300
rapali	-6301
▁Awards	-6302
▁launched	-6303
▁Jay	-6304
isted	-6305
▁Common	-6306
▁Corpor	-6307
▁congrat	-6308
▁corrupt	-6309
▁families	-6310
▁Constituent	-6311
ching	-6312
▁Defence	-6313
tificates	-6314
▁Standing	-6315
▁establishing	-6316
opp	-6317
▁Op	-6318
▁VII	-6319
▁liberal	-6320
▁unauthor	-6321
▁construct	-6322
ected	-6323
▁ends	-6324
▁feed	-6325
▁forfe	-6326
▁Speaking	-6327
▁innocent	-6328
▁formulated	-6329
▁felicitations	-6330
Un	-6331
▁lab	-6332
▁Euro	-6333
▁yield	-6334
▁perpet	-6335
▁investors	-6336
riages	-6337
▁crimes	-6338
▁moment	-6339
▁deposits	-6340
▁Follow	-6341
▁tests	-6342
▁Object	-6343
▁orient	-6344
▁relatives	-6345
izes	-6346
▁Amrapali	-6347
▁societies	-6348
Ad	-6349
osen	-6350
▁faculty	-6351
▁Tribunals	-6352
iece	-6353
play	-6354
▁Var	-6355
▁soil	-6356
▁admit	-6357
ensation	-6358
▁variety	-6359
▁FOR	-6360
orily	-6361
▁incent	-6362
▁Consumer	-6363
▁implication	-6364
more	-6365
▁Gh	-6366
▁hab	-6367
▁Each	-6368
▁leases	-6369
▁vacant	-6370
AIR	-6371
▁Tar	-6372
nov	-6373
raf	-6374
inqu	-6375
▁Kaur	-6376
▁ultra	-6377
▁stages	-6378
▁expedit	-6379
▁compulsory	-6380
ows	-6381
vere	-6382
▁loans	-6383
▁fixing	-6384
▁leaving	-6385
▁permits	-6386
▁observing	-6387
▁built	-6388
▁stamp	-6389
▁Railways	-6390
EF	-6391
▁Jhar	-6392
▁casual	-6393
▁reliable	-6394
▁similarly	-6395
kn	-6396
mal	-6397
▁Vin	-6398
▁scen	-6399
▁wanted	-6400
roleum	-6401
▁decades	-6402
▁aggregate	-6403
orn	-6404
appa	-6405
clear	-6406
▁town	-6407
▁Gopal	-6408
▁adult	-6409
▁batch	-6410
▁declined	-6411
ropol	-6412
public	-6413
▁Money	-6414
▁designed	-6415
▁prevailing	-6416
▁qualifying	-6417
unior	-6418
▁oath	-6419
▁undergone	-6420
▁prosperity	-6421
▁discriminatory	-6422
xx	-6423
▁uses	-6424
▁royal	-6425
▁sides	-6426
▁Revision	-6427
▁unnecessary	-6428
▁Ro	-6429
elling	-6430
▁effected	-6431
▁empowers	-6432
▁Institutions	-6433
▁code	-6434
irable	-6435
▁Consult	-6436
▁shareholders	-6437
chand	-6438
▁bomb	-6439
ichever	-6440
▁Planning	-6441
▁membership	-6442
▁departmental	-6443
uck	-6444
▁ge	-6445
▁eth	-6446
abinet	-6447
▁dishon	-6448
▁visited	-6449
▁surrender	-6450
mp	-6451
▁chosen	-6452
▁resort	-6453
▁backward	-6454
like	-6455
▁neigh	-6456
▁liquor	-6457
▁terminated	-6458
TS	-6459
▁NI	-6460
ghal	-6461
▁Car	-6462
▁solely	-6463
▁relevance	-6464
▁valuation	-6465
▁institutional	-6466
▁notifications	-6467
▁East	-6468
▁DELHI	-6469
▁derived	-6470
Reg	-6471
▁Jam	-6472
▁deeds	-6473
▁buyers	-6474
▁federal	-6475
▁Judicature	-6476
ilos	-6477
▁Hotel	-6478
▁lines	-6479
▁persu	-6480
igilance	-6481
▁Secondly	-6482
NG	-6483
▁Sale	-6484
▁cell	-6485
judicial	-6486
▁Circular	-6487
▁organized	-6488
ze	-6489
▁Patna	-6490
▁communicated	-6491
SL	-6492
enant	-6493
▁brok	-6494
▁socio	-6495
emphasis	-6496
▁essence	-6497
▁punished	-6498
velled	-6499
▁collabor	-6500
▁entertained	-6501
uddin	-6502
▁mass	-6503
arency	-6504
▁GO	-6505
apur	-6506
▁mus	-6507
▁Only	-6508
▁Vish	-6509
▁Annual	-6510
▁behaviour	-6511
▁terrorist	-6512
▁whichever	-6513
▁sentencing	-6514
awan	-6515
icus	-6516
▁river	-6517
▁exclude	-6518
Su	-6519
▁Roy	-6520
▁housing	-6521
▁Following	-6522
▁Societies	-6523
▁Memorandum	-6524
,0	-6525
rase	-6526
▁leads	-6527
▁exempt	-6528
▁caution	-6529
▁jointly	-6530
▁representing	-6531
▁circumstantial	-6532
▁Conc	-6533
ulatory	-6534
▁inadequ	-6535
▁opposite	-6536
▁partners	-6537
▁treating	-6538
▁Signature	-6539
▁Prevention	-6540
lets	-6541
▁choose	-6542
▁tenants	-6543
▁indirectly	-6544
MENT	-6545
▁Seventh	-6546
plaintiff	-6547
▁multiple	-6548
▁Foundation	-6549
▁affidavits	-6550
▁categorically	-6551
uti	-6552
▁dig	-6553
ilosop	-6554
▁fault	-6555
▁anyone	-6556
▁houses	-6557
▁enables	-6558
car	-6559
aman	-6560
▁cog	-6561
onance	-6562
▁announ	-6563
▁trading	-6564
▁safeguard	-6565
▁).	-6566
▁lawful	-6567
▁Federal	-6568
▁entering	-6569
▁judicata	-6570
▁jail	-6571
▁joined	-6572
▁suspect	-6573
▁AM	-6574
▁MO	-6575
▁Nath	-6576
actory	-6577
look	-6578
assion	-6579
▁reveals	-6580
▁enqu	-6581
▁Persons	-6582
▁superann	-6583
oo	-6584
hana	-6585
▁gift	-6586
▁alloc	-6587
▁expand	-6588
amus	-6589
▁Div	-6590
▁Sin	-6591
▁panel	-6592
aneously	-6593
▁difficulty	-6594
▁corroborated	-6595
anasia	-6596
▁plots	-6597
▁Europe	-6598
▁premium	-6599
▁reliefs	-6600
ropolitan	-6601
uthanasia	-6602
▁jurisprudence	-6603
▁endeavour	-6604
▁equipment	-6605
TA	-6606
Res	-6607
▁Bud	-6608
ducing	-6609
▁firms	-6610
▁multipl	-6611
▁serving	-6612
lad	-6613
erous	-6614
▁psych	-6615
▁Agriculture	-6616
▁Advis	-6617
▁exact	-6618
▁teleph	-6619
▁observe	-6620
▁deficiencies	-6621
▁Gang	-6622
▁bags	-6623
▁nine	-6624
▁rich	-6625
iveness	-6626
▁precise	-6627
▁customers	-6628
▁expressions	-6629
▁prospective	-6630
▁ND	-6631
▁AIC	-6632
▁smugg	-6633
▁played	-6634
▁series	-6635
▁involve	-6636
▁minority	-6637
▁recourse	-6638
▁proposals	-6639
urate	-6640
▁Sales	-6641
▁quota	-6642
▁animal	-6643
▁finger	-6644
▁outset	-6645
▁intervention	-6646
▁nu	-6647
cont	-6648
ulter	-6649
uniary	-6650
▁ideas	-6651
▁finality	-6652
▁originally	-6653
▁investments	-6654
isp	-6655
▁IC	-6656
▁Lie	-6657
nergy	-6658
▁Nations	-6659
▁encourage	-6660
▁Vik	-6661
ruption	-6662
▁allott	-6663
▁lessee	-6664
rimonial	-6665
▁Jharkhand	-6666
▁interview	-6667
▁monitoring	-6668
ario	-6669
▁Its	-6670
▁sac	-6671
▁Here	-6672
▁aims	-6673
ceived	-6674
▁mercy	-6675
▁forces	-6676
▁Mission	-6677
▁promoting	-6678
▁eventually	-6679
▁impossible	-6680
▁EC	-6681
▁NJ	-6682
▁aged	-6683
▁tonn	-6684
▁Dubai	-6685
▁Ident	-6686
▁summons	-6687
▁patients	-6688
▁organizations	-6689
stwhile	-6690
▁transl	-6691
▁cancelled	-6692
▁contractual	-6693
▁Gl	-6694
arsh	-6695
▁Dal	-6696
agers	-6697
▁Verma	-6698
▁depre	-6699
▁saying	-6700
▁minutes	-6701
▁Congress	-6702
▁corruption	-6703
MM	-6704
dd	-6705
ida	-6706
inations	-6707
statement	-6708
▁enterprise	-6709
▁practition	-6710
oming	-6711
itated	-6712
▁Mineral	-6713
▁assault	-6714
▁reflected	-6715
▁consonance	-6716
▁residing	-6717
▁dim	-6718
worth	-6719
rolment	-6720
▁disturb	-6721
▁turnover	-6722
▁irrigation	-6723
▁sets	-6724
iration	-6725
▁Kolkata	-6726
▁animals	-6727
▁customs	-6728
▁autonomy	-6729
▁juvenile	-6730
▁assessing	-6731
▁je	-6732
▁Saf	-6733
▁Sir	-6734
▁box	-6735
▁urg	-6736
icket	-6737
▁erstwhile	-6738
▁admissions	-6739
▁camp	-6740
utable	-6741
▁Bureau	-6742
▁resign	-6743
▁traffic	-6744
▁directors	-6745
▁transform	-6746
▁departments	-6747
▁big	-6748
abric	-6749
rations	-6750
▁neighb	-6751
▁speedy	-6752
olidated	-6753
no	-6754
▁exceptional	-6755
va	-6756
▁vers	-6757
closed	-6758
ournal	-6759
▁Mines	-6760
endants	-6761
iddle	-6762
▁fuel	-6763
▁Exper	-6764
▁drugs	-6765
sections	-6766
▁territorial	-6767
▁territories	-6768
▁Confessional	-6769
inked	-6770
▁item	-6771
ressal	-6772
▁PWxad	-6773
▁Master	-6774
▁centre	-6775
▁(“	-6776
ement	-6777
earing	-6778
▁Appro	-6779
▁roads	-6780
▁Lordship	-6781
▁pressure	-6782
being	-6783
▁route	-6784
utenant	-6785
▁looked	-6786
▁location	-6787
▁residents	-6788
▁engineering	-6789
ridge	-6790
▁encro	-6791
▁lapse	-6792
▁Forum	-6793
▁approx	-6794
▁worship	-6795
▁software	-6796
▁marketing	-6797
▁appreciated	-6798
.]	-6799
▁ded	-6800
▁desire	-6801
▁Housing	-6802
▁Technical	-6803
▁awareness	-6804
▁inclusion	-6805
▁parliament	-6806
▁traditional	-6807
▁Mu	-6808
otal	-6809
▁Inc	-6810
▁Neh	-6811
ertil	-6812
▁fort	-6813
▁usually	-6814
▁regulating	-6815
▁competitive	-6816
▁introduction	-6817
▁Apex	-6818
▁milk	-6819
▁ammun	-6820
▁buyer	-6821
▁heavy	-6822
▁learn	-6823
▁presently	-6824
▁seriously	-6825
▁safeguards	-6826
▁Considering	-6827
▁inaug	-6828
atively	-6829
▁Estate	-6830
▁adoption	-6831
▁enforced	-6832
▁sometimes	-6833
DC	-6834
EE	-6835
aji	-6836
▁Pay	-6837
▁raw	-6838
burse	-6839
▁arch	-6840
▁vary	-6841
▁critical	-6842
rupt	-6843
amble	-6844
igher	-6845
▁elim	-6846
aut	-6847
▁phone	-6848
▁inspect	-6849
▁Lieutenant	-6850
▁constitutes	-6851
uit	-6852
▁How	-6853
▁Mun	-6854
hension	-6855
▁divers	-6856
▁unjust	-6857
anguages	-6858
▁transfere	-6859
▁Regulatory	-6860
▁hit	-6861
▁Afric	-6862
▁piece	-6863
▁youth	-6864
▁careful	-6865
▁allowances	-6866
▁contesting	-6867
LR	-6868
▁Kan	-6869
▁Like	-6870
▁NJAC	-6871
ettlement	-6872
▁Economic	-6873
▁Competent	-6874
▁component	-6875
pers	-6876
▁Then	-6877
▁male	-6878
owners	-6879
▁Urban	-6880
▁spect	-6881
Emphasis	-6882
▁Bhushan	-6883
▁occasions	-6884
▁km	-6885
power	-6886
eshwar	-6887
▁voting	-6888
▁demands	-6889
▁wrongly	-6890
raj	-6891
known	-6892
▁AICTE	-6893
▁Innov	-6894
▁converted	-6895
Cr	-6896
▁kg	-6897
▁१७	-6898
▁culp	-6899
▁summar	-6900
▁poverty	-6901
▁advocates	-6902
▁enhancement	-6903
ets	-6904
▁comment	-6905
▁implementing	-6906
▁waste	-6907
▁winding	-6908
▁Petitions	-6909
IM	-6910
▁ways	-6911
▁Moham	-6912
▁Nehru	-6913
▁assumed	-6914
▁creates	-6915
▁computed	-6916
▁estimated	-6917
▁thinks	-6918
▁hostile	-6919
▁pattern	-6920
▁Building	-6921
▁averments	-6922
▁forthwith	-6923
▁enactments	-6924
▁Nor	-6925
▁fifteen	-6926
▁attended	-6927
▁division	-6928
▁wherever	-6929
NL	-6930
rif	-6931
▁bed	-6932
▁boy	-6933
▁Cabinet	-6934
▁calling	-6935
▁whenever	-6936
Ar	-6937
▁rad	-6938
▁heads	-6939
▁respond	-6940
▁pollution	-6941
▁performing	-6942
▁Enterprises	-6943
DI	-6944
▁--	-6945
iman	-6946
▁Sinha	-6947
▁imped	-6948
▁filling	-6949
▁fraudul	-6950
▁elements	-6951
PR	-6952
gi	-6953
▁scene	-6954
▁districts	-6955
▁appearance	-6956
▁strengthen	-6957
▁arrangements	-6958
loc	-6959
ster	-6960
▁draf	-6961
▁Reforms	-6962
▁Advocates	-6963
▁Fl	-6964
▁lat	-6965
otton	-6966
▁earth	-6967
aterial	-6968
▁retained	-6969
▁competition	-6970
▁Fac	-6971
▁Upon	-6972
ifiable	-6973
iciaries	-6974
▁Keeping	-6975
▁accorded	-6976
inter	-6977
ounded	-6978
ustain	-6979
▁Paper	-6980
▁affecting	-6981
▁rendering	-6982
▁cognizable	-6983
▁Sant	-6984
▁fill	-6985
▁arrive	-6986
▁memorandum	-6987
▁permitting	-6988
ima	-6989
rum	-6990
▁Oil	-6991
▁Data	-6992
isations	-6993
▁execute	-6994
▁wis	-6995
▁bill	-6996
▁posted	-6997
▁lawyers	-6998
▁licensee	-6999
▁contributions	-7000
athy	-7001
▁Gram	-7002
▁pages	-7003
▁depart	-7004
▁turned	-7005
▁juncture	-7006
▁achieving	-7007
▁evaluation	-7008
▁confirmation	-7009
pat	-7010
▁brib	-7011
▁faced	-7012
▁sanct	-7013
▁Temple	-7014
▁medium	-7015
▁clothes	-7016
▁regulated	-7017
▁university	-7018
eck	-7019
▁Na	-7020
life	-7021
ompl	-7022
▁Christ	-7023
ordinary	-7024
▁discrep	-7025
▁initiative	-7026
▁Agricultural	-7027
▁:-	-7028
▁CJ	-7029
athan	-7030
▁acre	-7031
ariness	-7032
▁altered	-7033
▁mitigating	-7034
▁succession	-7035
amma	-7036
▁acid	-7037
▁dict	-7038
idance	-7039
▁perhaps	-7040
▁destroy	-7041
▁Language	-7042
▁dependent	-7043
RD	-7044
vol	-7045
▁NIT	-7046
India	-7047
▁Ibid	-7048
▁Party	-7049
▁Maruti	-7050
▁existed	-7051
▁conscience	-7052
ming	-7053
▁Ban	-7054
▁born	-7055
▁sons	-7056
▁killed	-7057
▁besides	-7058
▁Metropolitan	-7059
ariat	-7060
▁veget	-7061
▁looking	-7062
▁summary	-7063
▁surround	-7064
▁hrs	-7065
▁Pune	-7066
▁wise	-7067
▁royalty	-7068
ler	-7069
▁fabric	-7070
▁Administrator	-7071
aters	-7072
ellect	-7073
▁fourth	-7074
▁simult	-7075
▁empower	-7076
▁figures	-7077
▁happened	-7078
▁resource	-7079
▁separation	-7080
▁certificates	-7081
▁technologies	-7082
▁superannuation	-7083
mer	-7084
▁schol	-7085
▁severe	-7086
▁irrelevant	-7087
▁matrimonial	-7088
▁Exh	-7089
▁Motor	-7090
▁Steel	-7091
▁conformity	-7092
ava	-7093
▁sa	-7094
etic	-7095
atform	-7096
▁aimed	-7097
Company	-7098
▁NS	-7099
icity	-7100
▁path	-7101
▁leaders	-7102
▁legality	-7103
▁claimants	-7104
▁stipulates	-7105
▁Investigation	-7106
OP	-7107
▁UK	-7108
▁scenario	-7109
▁convention	-7110
HER	-7111
chief	-7112
▁cogent	-7113
▁restored	-7114
▁declaring	-7115
▁purported	-7116
erved	-7117
▁annex	-7118
▁leaves	-7119
▁Controller	-7120
▁illegality	-7121
▁accommodation	-7122
Appe	-7123
iest	-7124
load	-7125
ndra	-7126
▁See	-7127
essor	-7128
▁stop	-7129
akrish	-7130
▁alive	-7131
▁fifty	-7132
▁viewed	-7133
▁assailed	-7134
▁reversed	-7135
bar	-7136
▁century	-7137
▁Industry	-7138
▁philosop	-7139
▁substitute	-7140
▁supporting	-7141
▁beneficiaries	-7142
atur	-7143
▁Son	-7144
▁Over	-7145
▁cere	-7146
▁incap	-7147
▁Higher	-7148
▁considers	-7149
▁revisional	-7150
LE	-7151
time	-7152
▁Just	-7153
▁subscrib	-7154
▁Investment	-7155
▁interfered	-7156
▁undoubtedly	-7157
iah	-7158
▁Det	-7159
▁Sik	-7160
▁asp	-7161
astern	-7162
ranches	-7163
▁presumed	-7164
▁household	-7165
▁Cooperative	-7166
FC	-7167
da	-7168
▁rul	-7169
ansion	-7170
▁deduct	-7171
▁doubts	-7172
▁fulfil	-7173
▁eminent	-7174
▁Lokayukta	-7175
▁components	-7176
▁privileges	-7177
▁enun	-7178
▁offers	-7179
ictionary	-7180
▁institute	-7181
▁furnishing	-7182
vii	-7183
endix	-7184
rition	-7185
Section	-7186
▁phrase	-7187
▁BS	-7188
van	-7189
▁gap	-7190
▁Grant	-7191
▁fairly	-7192
▁nearly	-7193
▁promise	-7194
▁anticipatory	-7195
PP	-7196
face	-7197
▁xad	-7198
▁stra	-7199
▁wisdom	-7200
▁amending	-7201
▁substanti	-7202
▁entrepreneurs	-7203
Act	-7204
▁MC	-7205
plus	-7206
▁nexus	-7207
▁Sanjay	-7208
▁returns	-7209
▁improper	-7210
▁vitiated	-7211
▁CC	-7212
▁anc	-7213
posit	-7214
rench	-7215
▁Audit	-7216
▁Privy	-7217
▁contest	-7218
▁sharing	-7219
▁invoking	-7220
▁insolvency	-7221
▁communities	-7222
▁transparency	-7223
yl	-7224
▁conj	-7225
▁seem	-7226
active	-7227
▁nations	-7228
ordination	-7229
%.	-7230
cum	-7231
era	-7232
drop	-7233
▁ancient	-7234
▁evolved	-7235
▁Assessment	-7236
▁compassion	-7237
▁preference	-7238
▁Gen	-7239
▁goal	-7240
lihood	-7241
▁confers	-7242
▁demanded	-7243
▁discharging	-7244
▁discussions	-7245
▁SU	-7246
thern	-7247
▁Agency	-7248
iliation	-7249
▁endorse	-7250
▁expired	-7251
▁highlight	-7252
rin	-7253
▁Num	-7254
▁Ten	-7255
▁hes	-7256
▁cease	-7257
▁grand	-7258
.......	-7259
▁attempts	-7260
▁Employees	-7261
▁investigate	-7262
dar	-7263
▁AD	-7264
▁door	-7265
▁Petitioners	-7266
herry	-7267
▁spent	-7268
▁remote	-7269
▁prescribe	-7270
uestion	-7271
witness	-7272
▁stream	-7273
▁refusal	-7274
▁pecuniary	-7275
▁remission	-7276
▁Chancellor	-7277
▁Deb	-7278
▁Ref	-7279
stant	-7280
ysore	-7281
▁green	-7282
▁indicating	-7283
▁Jaipur	-7284
▁retail	-7285
▁handling	-7286
▁resolved	-7287
▁pronounced	-7288
▁transferee	-7289
bu	-7290
▁assumption	-7291
fall	-7292
apped	-7293
▁perf	-7294
▁mistake	-7295
▁AW	-7296
▁SA	-7297
mary	-7298
eries	-7299
▁Good	-7300
ussain	-7301
▁frequ	-7302
▁chance	-7303
▁gender	-7304
▁retain	-7305
▁contends	-7306
▁euthanasia	-7307
▁requisition	-7308
▁throw	-7309
▁taxable	-7310
▁venture	-7311
▁Disputes	-7312
▁Teachers	-7313
UT	-7314
alled	-7315
itect	-7316
▁Tele	-7317
▁Energy	-7318
▁purely	-7319
▁Process	-7320
▁subxadsection	-7321
has	-7322
▁MP	-7323
▁MW	-7324
akar	-7325
▁MSME	-7326
▁Mere	-7327
▁experi	-7328
▁changing	-7329
▁securing	-7330
▁Principles	-7331
▁concession	-7332
/-.	-7333
bir	-7334
oted	-7335
▁obsc	-7336
▁tour	-7337
▁Patent	-7338
▁hardly	-7339
▁teacher	-7340
▁Prat	-7341
▁intr	-7342
▁dispro	-7343
▁titled	-7344
ustainable	-7345
▁improving	-7346
▁conclusive	-7347
▁computation	-7348
itage	-7349
lands	-7350
▁Thak	-7351
▁remar	-7352
▁obliged	-7353
▁extending	-7354
idn	-7355
oly	-7356
care	-7357
applic	-7358
vation	-7359
▁stran	-7360
▁branch	-7361
▁cheques	-7362
▁morning	-7363
▁initiate	-7364
▁broadcast	-7365
▁demonstrate	-7366
▁Anil	-7367
▁wage	-7368
▁Three	-7369
▁chart	-7370
▁deten	-7371
ghalaya	-7372
▁lesser	-7373
▁Despite	-7374
▁drawing	-7375
▁voluntarily	-7376
SS	-7377
opy	-7378
para	-7379
▁Vijay	-7380
▁strike	-7381
▁omitted	-7382
▁platform	-7383
▁depreciation	-7384
▁Nav	-7385
▁lad	-7386
▁film	-7387
▁kill	-7388
▁debate	-7389
▁Nothing	-7390
▁outcome	-7391
▁historical	-7392
▁constituting	-7393
▁establishments	-7394
roc	-7395
▁PO	-7396
▁ore	-7397
ridges	-7398
▁bills	-7399
▁wider	-7400
▁client	-7401
▁accompl	-7402
▁discard	-7403
▁protest	-7404
TC	-7405
▁kinds	-7406
ribution	-7407
▁Inquiry	-7408
▁therewith	-7409
▁Cle	-7410
▁user	-7411
▁Anand	-7412
▁minds	-7413
▁street	-7414
▁prepare	-7415
▁selling	-7416
▁remedies	-7417
▁occurring	-7418
▁emphasized	-7419
▁Mehta	-7420
▁table	-7421
▁believed	-7422
▁confidential	-7423
▁installation	-7424
▁impermissible	-7425
hr	-7426
ains	-7427
▁incon	-7428
▁Independence	-7429
▁legislations	-7430
EB	-7431
olic	-7432
▁dro	-7433
▁Associ	-7434
▁ticket	-7435
omination	-7436
▁practical	-7437
MA	-7438
ded	-7439
▁MB	-7440
▁lot	-7441
▁capt	-7442
▁love	-7443
▁China	-7444
emption	-7445
▁aggrav	-7446
▁adulter	-7447
▁Secondary	-7448
▁CHA	-7449
▁Test	-7450
▁critic	-7451
emn	-7452
▁hoc	-7453
▁Reasons	-7454
▁effects	-7455
▁heading	-7456
▁stakeholders	-7457
▁accrued	-7458
▁display	-7459
▁American	-7460
▁duration	-7461
▁reaching	-7462
▁composition	-7463
cks	-7464
uliar	-7465
▁club	-7466
▁pist	-7467
▁domin	-7468
certain	-7469
laration	-7470
▁student	-7471
▁constitu	-7472
▁mandamus	-7473
▁disabilities	-7474
ba	-7475
▁Rest	-7476
▁bott	-7477
▁Purch	-7478
reening	-7479
▁backdrop	-7480
DP	-7481
Crl	-7482
▁00	-7483
▁DW	-7484
otic	-7485
arian	-7486
ensus	-7487
▁exhib	-7488
▁popular	-7489
▁fairness	-7490
▁executing	-7491
VC	-7492
mat	-7493
▁Town	-7494
▁wall	-7495
▁inputs	-7496
▁purport	-7497
▁railway	-7498
▁samples	-7499
▁enrolment	-7500
▁expansion	-7501
▁classified	-7502
▁contribute	-7503
▁parliamentary	-7504
pura	-7505
▁cess	-7506
▁finance	-7507
▁fixation	-7508
▁Australia	-7509
▁pronounce	-7510
▁Settlement	-7511
▁compensatory	-7512
▁pip	-7513
amber	-7514
▁neck	-7515
holding	-7516
▁Junior	-7517
▁fulfill	-7518
▁peculiar	-7519
▁desirable	-7520
▁injustice	-7521
mail	-7522
▁NAB	-7523
aulted	-7524
ensions	-7525
▁putting	-7526
▁surplus	-7527
▁instances	-7528
▁Shi	-7529
▁maxim	-7530
▁figure	-7531
▁litigant	-7532
▁livelihood	-7533
pled	-7534
▁failing	-7535
▁therefrom	-7536
.'	-7537
▁ec	-7538
▁fla	-7539
▁Chan	-7540
▁abet	-7541
▁solemn	-7542
▁Conduct	-7543
▁discipline	-7544
IG	-7545
▁gr	-7546
▁Lic	-7547
▁Lit	-7548
ether	-7549
▁mala	-7550
▁vast	-7551
▁fired	-7552
▁commencing	-7553
▁relaxation	-7554
ulg	-7555
attis	-7556
▁Park	-7557
▁steel	-7558
▁recently	-7559
▁discretionary	-7560
PF	-7561
▁Lo	-7562
orter	-7563
▁Ranj	-7564
▁simpl	-7565
▁incumb	-7566
▁skills	-7567
▁measuring	-7568
▁suspicion	-7569
nsic	-7570
▁Sen	-7571
uated	-7572
ractor	-7573
▁healthy	-7574
▁newspaper	-7575
hs	-7576
▁easy	-7577
▁skill	-7578
▁refuse	-7579
▁Meghalaya	-7580
▁inflicted	-7581
▁Subsequently	-7582
▁DG	-7583
akes	-7584
▁Orig	-7585
▁vehe	-7586
▁Mahat	-7587
ciences	-7588
▁easily	-7589
ications	-7590
▁knowing	-7591
▁Limitation	-7592
▁Securities	-7593
▁protecting	-7594
▁transmission	-7595
▁vex	-7596
▁Sush	-7597
▁rain	-7598
chnama	-7599
▁Instru	-7600
▁losses	-7601
▁guidance	-7602
▁contending	-7603
hu	-7604
umn	-7605
▁Lep	-7606
▁Inst	-7607
▁Life	-7608
▁repl	-7609
▁Count	-7610
▁Model	-7611
▁break	-7612
▁Ramesh	-7613
▁canvas	-7614
iculture	-7615
attisgarh	-7616
ellectual	-7617
▁reducing	-7618
▁Deposition	-7619
▁Six	-7620
▁pil	-7621
▁Doct	-7622
▁sick	-7623
▁recip	-7624
ogether	-7625
▁unfortun	-7626
▁attributed	-7627
▁deficiency	-7628
▁disqualified	-7629
▁presentation	-7630
▁cr	-7631
vert	-7632
▁integrated	-7633
▁dy	-7634
gery	-7635
aland	-7636
▁Vide	-7637
▁remin	-7638
▁Mysore	-7639
locutory	-7640
▁earning	-7641
▁Mohammed	-7642
▁adopting	-7643
▁signatures	-7644
▁furtherance	-7645
▁provisional	-7646
econom	-7647
estern	-7648
▁Judiciary	-7649
▁Furthermore	-7650
▁supervision	-7651
▁administered	-7652
▁undertakings	-7653
rote	-7654
▁convenience	-7655
▁Commissioners	-7656
ole	-7657
▁UID	-7658
▁grade	-7659
▁trying	-7660
▁elaborate	-7661
▁exceptions	-7662
▁hereinafter	-7663
')	-7664
AGE	-7665
▁Ka	-7666
▁RD	-7667
▁enro	-7668
▁quasi	-7669
▁secret	-7670
mittedly	-7671
▁Chow	-7672
▁starting	-7673
▁generated	-7674
ushed	-7675
regard	-7676
▁Vehic	-7677
▁video	-7678
▁NABARD	-7679
▁Please	-7680
▁fiction	-7681
▁assuming	-7682
▁monetary	-7683
▁administer	-7684
▁Cro	-7685
▁quo	-7686
▁Trad	-7687
▁rely	-7688
fering	-7689
▁Caste	-7690
▁belongs	-7691
▁Likewise	-7692
compliance	-7693
▁excessive	-7694
▁marriages	-7695
▁lieu	-7696
▁pursue	-7697
▁divided	-7698
ugn	-7699
▁MM	-7700
inema	-7701
▁Many	-7702
▁Pursu	-7703
▁debts	-7704
veloper	-7705
▁online	-7706
▁emerging	-7707
▁chap	-7708
▁roll	-7709
▁drive	-7710
Appeals	-7711
▁earned	-7712
▁Nariman	-7713
▁reality	-7714
▁adversely	-7715
▁allocated	-7716
▁upholding	-7717
▁enforceable	-7718
▁tank	-7719
▁channels	-7720
▁Directorate	-7721
RS	-7722
mity	-7723
▁Establ	-7724
▁Forces	-7725
▁assent	-7726
▁blocks	-7727
▁cement	-7728
▁reproduce	-7729
▁Admittedly	-7730
▁arbitrariness	-7731
una	-7732
▁Indira	-7733
▁solution	-7734
▁differently	-7735
▁Da	-7736
▁Mur	-7737
cript	-7738
▁covers	-7739
▁negoti	-7740
▁tendered	-7741
▁Vigilance	-7742
plom	-7743
ertiliz	-7744
▁Recomm	-7745
▁tested	-7746
▁assessees	-7747
ls	-7748
pla	-7749
▁TRA	-7750
▁fatal	-7751
▁enunci	-7752
▁intellig	-7753
▁amounting	-7754
▁municipal	-7755
▁successfully	-7756
Ms	-7757
his	-7758
▁infer	-7759
▁Letter	-7760
▁season	-7761
▁Kingdom	-7762
▁immense	-7763
▁literal	-7764
▁missing	-7765
aboratory	-7766
▁guardian	-7767
▁Departments	-7768
▁Examination	-7769
ding	-7770
▁Gan	-7771
▁Disc	-7772
▁Sand	-7773
▁prec	-7774
ladesh	-7775
▁Islam	-7776
▁assured	-7777
▁primacy	-7778
▁possibly	-7779
▁producing	-7780
▁tribunals	-7781
ogue	-7782
▁pal	-7783
▁Card	-7784
▁infirm	-7785
▁praying	-7786
▁European	-7787
▁overlook	-7788
▁engagement	-7789
▁Av	-7790
oday	-7791
inous	-7792
opped	-7793
ensing	-7794
▁guide	-7795
▁rapid	-7796
▁delayed	-7797
▁becoming	-7798
▁deducted	-7799
▁acknowledged	-7800
▁CL	-7801
atin	-7802
works	-7803
▁inev	-7804
▁conting	-7805
▁trained	-7806
▁brothers	-7807
▁extraordinary	-7808
hers	-7809
▁Joh	-7810
▁ensu	-7811
▁hect	-7812
ardship	-7813
▁species	-7814
▁alleging	-7815
▁jurisdictional	-7816
araj	-7817
▁sugar	-7818
▁Taking	-7819
▁manage	-7820
▁supers	-7821
▁Narayan	-7822
▁enacting	-7823
▁prevention	-7824
▁approximately	-7825
▁ambig	-7826
▁violate	-7827
▁Pursuant	-7828
▁personally	-7829
jan	-7830
▁ask	-7831
urism	-7832
ricket	-7833
▁facto	-7834
▁sealed	-7835
economic	-7836
▁reforms	-7837
▁hyp	-7838
▁zone	-7839
empted	-7840
▁Those	-7841
▁compelled	-7842
▁explosives	-7843
▁simultaneously	-7844
▁BY	-7845
▁Us	-7846
▁Ahm	-7847
▁imag	-7848
rained	-7849
athered	-7850
istries	-7851
rection	-7852
▁Indeed	-7853
▁driven	-7854
ederation	-7855
▁licences	-7856
▁formation	-7857
▁contraband	-7858
▁Fact	-7859
▁Pass	-7860
matter	-7861
▁unequ	-7862
▁exchan	-7863
▁exports	-7864
▁customer	-7865
▁Environmental	-7866
long	-7867
▁Tel	-7868
▁knew	-7869
▁twel	-7870
▁brings	-7871
▁Objects	-7872
▁exceeds	-7873
▁markets	-7874
▁proving	-7875
▁tourism	-7876
▁perverse	-7877
▁prescribes	-7878
▁Declaration	-7879
▁resignation	-7880
▁Din	-7881
▁Press	-7882
▁fight	-7883
▁mines	-7884
▁remun	-7885
unication	-7886
▁vehement	-7887
▁expedient	-7888
▁vul	-7889
oppel	-7890
▁Asia	-7891
whether	-7892
▁Africa	-7893
)]	-7894
atel	-7895
▁Bills	-7896
▁Treat	-7897
▁weigh	-7898
▁reveal	-7899
▁earliest	-7900
▁mandates	-7901
▁supposed	-7902
▁grievances	-7903
▁१८	-7904
▁Mil	-7905
▁Rai	-7906
▁Rat	-7907
▁bur	-7908
▁Last	-7909
▁agents	-7910
▁middle	-7911
▁Undertak	-7912
▁structures	-7913
▁apprehension	-7914
▁productivity	-7915
sett	-7916
ondon	-7917
ronics	-7918
uments	-7919
▁asking	-7920
▁linked	-7921
▁apposite	-7922
▁remember	-7923
▁commodity	-7924
▁expertise	-7925
▁strengthening	-7926
eet	-7927
▁gar	-7928
▁murd	-7929
▁resc	-7930
stated	-7931
▁wrote	-7932
▁scales	-7933
▁termed	-7934
▁Ahmedabad	-7935
▁Promotion	-7936
▁Recommend	-7937
▁universal	-7938
▁assignment	-7939
▁Provin	-7940
▁Governance	-7941
▁enterprises	-7942
▁supplementary	-7943
▁IR	-7944
bered	-7945
▁Liqu	-7946
▁affili	-7947
▁headed	-7948
▁mortem	-7949
▁herself	-7950
▁hardship	-7951
▁installed	-7952
ule	-7953
▁RE	-7954
rent	-7955
rosy	-7956
want	-7957
▁PRO	-7958
rical	-7959
uriae	-7960
▁Area	-7961
▁Poll	-7962
▁Noida	-7963
▁Construction	-7964
iri	-7965
▁Mrs	-7966
orrow	-7967
▁symb	-7968
▁shops	-7969
▁Nagpur	-7970
▁desired	-7971
▁specially	-7972
▁exploitation	-7973
ordin	-7974
atious	-7975
▁Appoint	-7976
▁delinqu	-7977
▁forming	-7978
▁........	-7979
▁branches	-7980
▁illegally	-7981
▁uncertain	-7982
▁ID	-7983
harma	-7984
▁girls	-7985
▁train	-7986
▁afresh	-7987
▁convin	-7988
▁credibility	-7989
▁pronouncement	-7990
It	-7991
On	-7992
ilal	-7993
▁Kap	-7994
▁Letters	-7995
▁suffers	-7996
▁covering	-7997
▁excluding	-7998
▁Bangladesh	-7999
▁formulation	-8000
▁disproportion	-8001
▁Rak	-8002
▁assume	-8003
▁Leprosy	-8004
▁illness	-8005
bursement	-8006
▁gathered	-8007
▁comprised	-8008
dict	-8009
▁devi	-8010
▁quote	-8011
▁Shaikh	-8012
▁preval	-8013
▁annexed	-8014
▁availed	-8015
▁affirmative	-8016
▁developments	-8017
▁reinstatement	-8018
coh	-8019
▁CE	-8020
eced	-8021
service	-8022
▁Fourth	-8023
▁ceased	-8024
▁cities	-8025
▁ceiling	-8026
akrishnan	-8027
▁prohibit	-8028
▁attempted	-8029
▁generating	-8030
▁instruments	-8031
▁denomination	-8032
▁corroboration	-8033
▁Boards	-8034
▁Expert	-8035
▁motorcy	-8036
▁Children	-8037
▁narrated	-8038
▁sensitive	-8039
SA	-8040
Se	-8041
iat	-8042
▁Mas	-8043
▁Luck	-8044
struct	-8045
▁lawyer	-8046
▁regime	-8047
▁decreed	-8048
▁diseases	-8049
▁languages	-8050
▁Employment	-8051
▁expeditiously	-8052
▁Mat	-8053
▁eld	-8054
istence	-8055
▁periods	-8056
▁Commerce	-8057
▁director	-8058
▁verified	-8059
▁apprehend	-8060
▁telephone	-8061
▁ascertained	-8062
CP	-8063
PEAL	-8064
avings	-8065
▁Death	-8066
▁command	-8067
▁promulg	-8068
▁exempted	-8069
UK	-8070
▁Hand	-8071
▁Sund	-8072
▁enshr	-8073
▁relat	-8074
▁voice	-8075
▁Tariff	-8076
▁guided	-8077
▁coupled	-8078
▁falsely	-8079
▁paramount	-8080
dden	-8081
▁Repe	-8082
ferring	-8083
ableness	-8084
▁diverse	-8085
▁nominee	-8086
▁pressed	-8087
▁replaced	-8088
▁extensive	-8089
▁substances	-8090
inct	-8091
▁Bad	-8092
▁Wakf	-8093
▁Grade	-8094
ATIONAL	-8095
▁deleted	-8096
resentation	-8097
AND	-8098
iagn	-8099
▁Yet	-8100
▁eve	-8101
▁mob	-8102
▁Most	-8103
▁marry	-8104
ulative	-8105
▁Orders	-8106
▁Eastern	-8107
▁excellence	-8108
ams	-8109
▁cryst	-8110
▁usage	-8111
▁Mahatma	-8112
▁anteced	-8113
▁CS	-8114
▁pp	-8115
▁Fee	-8116
▁Bach	-8117
▁Patel	-8118
▁Scale	-8119
itative	-8120
▁Without	-8121
▁arriving	-8122
▁entirety	-8123
▁preserve	-8124
▁impartial	-8125
▁Guidelines	-8126
▁distributed	-8127
▁stipulation	-8128
▁automatically	-8129
lal	-8130
uru	-8131
▁UP	-8132
heet	-8133
prin	-8134
▁ago	-8135
▁COUR	-8136
▁Prem	-8137
▁deny	-8138
ananda	-8139
▁truck	-8140
▁showed	-8141
▁Accounts	-8142
▁canvassed	-8143
▁dissolution	-8144
▁tune	-8145
▁Among	-8146
▁sixty	-8147
▁Canada	-8148
▁Online	-8149
▁assertion	-8150
▁ourselves	-8151
▁innovative	-8152
ARY	-8153
five	-8154
▁Amb	-8155
▁Crl	-8156
▁Pad	-8157
enary	-8158
▁Ambed	-8159
▁Paras	-8160
▁goals	-8161
▁extingu	-8162
▁belonged	-8163
▁distinguish	-8164
▁contemplates	-8165
odal	-8166
▁bud	-8167
trans	-8168
▁MBBS	-8169
▁gravity	-8170
▁whereof	-8171
▁explicit	-8172
▁cultivation	-8173
▁difficulties	-8174
FA	-8175
PTER	-8176
▁hyd	-8177
▁twelve	-8178
▁amalgam	-8179
▁reserve	-8180
▁Ambedkar	-8181
▁Register	-8182
▁discovery	-8183
▁compelling	-8184
▁exhaustive	-8185
▁adjudicating	-8186
▁proportionality	-8187
▁IO	-8188
▁SI	-8189
▁DDA	-8190
▁USA	-8191
stone	-8192
▁Need	-8193
▁eyes	-8194
▁alias	-8195
▁embod	-8196
▁Suresh	-8197
▁engage	-8198
▁prisoner	-8199
▁expectation	-8200
aq	-8201
els	-8202
▁Bai	-8203
ament	-8204
▁Open	-8205
▁pict	-8206
▁stret	-8207
▁Return	-8208
▁grants	-8209
▁repugn	-8210
▁conspir	-8211
▁secondary	-8212
▁BO	-8213
▁Mut	-8214
▁sea	-8215
▁Adjud	-8216
▁Local	-8217
▁London	-8218
▁speaks	-8219
▁taxing	-8220
▁affects	-8221
▁inadequate	-8222
▁entitlement	-8223
▁Infrastructure	-8224
gaon	-8225
▁Tal	-8226
▁magn	-8227
▁inher	-8228
▁tools	-8229
▁APPEAL	-8230
▁Reports	-8231
▁scholars	-8232
ION	-8233
house	-8234
▁describ	-8235
▁resolve	-8236
▁Advisory	-8237
▁hospitals	-8238
▁initiation	-8239
▁Chhattisgarh	-8240
exam	-8241
wala	-8242
▁Neg	-8243
▁Venk	-8244
ortion	-8245
▁Manual	-8246
▁invoke	-8247
▁extends	-8248
ciplinary	-8249
▁assurance	-8250
▁innocence	-8251
▁differences	-8252
wali	-8253
▁DAY	-8254
▁Due	-8255
▁Rem	-8256
oided	-8257
▁Thakur	-8258
▁answers	-8259
▁pregnancy	-8260
▁hesitation	-8261
bas	-8262
▁cam	-8263
▁temper	-8264
▁torture	-8265
clamation	-8266
▁pertains	-8267
▁Professor	-8268
▁acquiring	-8269
▁regularly	-8270
▁prejudicial	-8271
▁CW	-8272
cles	-8273
▁Cal	-8274
▁Rad	-8275
▁pra	-8276
▁concent	-8277
▁testing	-8278
▁Juvenile	-8279
▁ER	-8280
▁UT	-8281
zing	-8282
▁Kas	-8283
claim	-8284
▁ones	-8285
renades	-8286
▁escape	-8287
▁vulner	-8288
▁Develop	-8289
▁resorted	-8290
▁Secretariat	-8291
▁modifications	-8292
HO	-8293
▁jur	-8294
assess	-8295
▁upper	-8296
▁Lucknow	-8297
▁incrimin	-8298
▁marginal	-8299
▁receipts	-8300
▁secondly	-8301
▁altogether	-8302
▁charitable	-8303
▁transparent	-8304
▁practitioner	-8305
As	-8306
▁bye	-8307
▁Coal	-8308
icable	-8309
▁absent	-8310
▁avoided	-8311
▁levelled	-8312
atar	-8313
mony	-8314
▁Bel	-8315
▁unsu	-8316
ivided	-8317
umping	-8318
▁Today	-8319
ailable	-8320
▁Contempt	-8321
▁invested	-8322
▁remanded	-8323
▁leadership	-8324
lap	-8325
udi	-8326
▁Aj	-8327
▁vic	-8328
▁Dhan	-8329
▁Hold	-8330
▁mill	-8331
▁newly	-8332
lements	-8333
▁Benches	-8334
▁nuclear	-8335
▁premise	-8336
▁shifted	-8337
▁impression	-8338
▁clarification	-8339
IF	-8340
▁Mish	-8341
TITION	-8342
▁trend	-8343
▁format	-8344
▁moving	-8345
▁drought	-8346
▁numerous	-8347
▁Corporate	-8348
▁answering	-8349
ksh	-8350
▁Um	-8351
apan	-8352
▁rob	-8353
rates	-8354
▁convers	-8355
▁vehemently	-8356
ops	-8357
iques	-8358
▁John	-8359
▁Laksh	-8360
▁overt	-8361
▁CHAPTER	-8362
▁estoppel	-8363
▁enshrined	-8364
▁repayment	-8365
▁solutions	-8366
arm	-8367
pus	-8368
▁van	-8369
▁Gold	-8370
▁curt	-8371
▁hour	-8372
▁Armed	-8373
▁disse	-8374
theless	-8375
▁facing	-8376
▁firstly	-8377
▁assaulted	-8378
▁enhancing	-8379
▁interfering	-8380
eas	-8381
oon	-8382
▁Sel	-8383
▁inad	-8384
▁race	-8385
▁Pract	-8386
▁Chaudh	-8387
▁Rajesh	-8388
▁allows	-8389
▁matrix	-8390
ographic	-8391
▁emerged	-8392
▁mandated	-8393
▁infirmity	-8394
▁fraudulent	-8395
▁arbitrators	-8396
NO	-8397
VI	-8398
IST	-8399
▁LA	-8400
iries	-8401
▁Sunil	-8402
▁Guarant	-8403
▁quarter	-8404
▁Chemical	-8405
▁Arunachal	-8406
▁disregard	-8407
▁ITR	-8408
▁Kes	-8409
▁apt	-8410
▁bare	-8411
advant	-8412
making	-8413
▁occur	-8414
▁attorney	-8415
▁utilised	-8416
▁prevented	-8417
▁subsidiary	-8418
▁cooperative	-8419
Re	-8420
ox	-8421
▁Saw	-8422
arden	-8423
▁sequ	-8424
▁slum	-8425
▁dance	-8426
▁knife	-8427
▁occurs	-8428
▁Edition	-8429
▁Resident	-8430
▁Legislatures	-8431
▁|(	-8432
▁Opp	-8433
▁suo	-8434
▁bars	-8435
cludes	-8436
▁define	-8437
▁Centres	-8438
▁respects	-8439
cellaneous	-8440
▁incumbent	-8441
▁emphasised	-8442
▁enunciated	-8443
ners	-8444
▁sew	-8445
▁Lead	-8446
▁Mills	-8447
▁facet	-8448
▁assert	-8449
▁parity	-8450
appellants	-8451
▁arm	-8452
▁Mishra	-8453
▁Original	-8454
▁sovereign	-8455
▁delegation	-8456
▁requesting	-8457
▁Und	-8458
indra	-8459
oples	-8460
▁feet	-8461
▁infl	-8462
▁rout	-8463
▁quick	-8464
▁spouse	-8465
condition	-8466
▁assisted	-8467
▁credited	-8468
▁violates	-8469
▁negligent	-8470
▁virtually	-8471
▁convenient	-8472
▁independently	-8473
▁accountability	-8474
oph	-8475
amin	-8476
▁Plant	-8477
▁Safety	-8478
▁device	-8479
▁vexatious	-8480
▁delinquent	-8481
▁Fundamental	-8482
▁maintainability	-8483
hara	-8484
▁Gas	-8485
▁sample	-8486
lor	-8487
anti	-8488
▁alcoh	-8489
▁indig	-8490
▁votes	-8491
▁Bharati	-8492
▁Provisions	-8493
▁previously	-8494
▁endorsement	-8495
▁photographs	-8496
▁consistently	-8497
▁unp	-8498
oking	-8499
▁grown	-8500
▁Product	-8501
▁benefic	-8502
▁subsidy	-8503
▁Referring	-8504
▁SP	-8505
▁Fif	-8506
▁Lax	-8507
▁NGT	-8508
▁ste	-8509
▁tea	-8510
before	-8511
▁UIDAI	-8512
▁clarify	-8513
UG	-8514
▁Ir	-8515
▁Who	-8516
▁watch	-8517
ography	-8518
▁utilized	-8519
▁wrongful	-8520
▁composite	-8521
▁remuneration	-8522
ton	-8523
▁Dar	-8524
atories	-8525
▁cotton	-8526
▁Shankar	-8527
▁consign	-8528
▁PETITION	-8529
▁medicine	-8530
▁questioning	-8531
▁investigations	-8532
▁reconsideration	-8533
yer	-8534
angan	-8535
▁ball	-8536
▁Banking	-8537
▁strongly	-8538
▁surcharge	-8539
▁NC	-8540
rier	-8541
▁PPA	-8542
▁Sad	-8543
attle	-8544
▁saved	-8545
▁twice	-8546
▁Mittal	-8547
▁Manipur	-8548
▁Natural	-8549
▁Commissions	-8550
▁wel	-8551
ulled	-8552
▁abol	-8553
ecific	-8554
▁closely	-8555
▁ensured	-8556
▁repeatedly	-8557
▁restoration	-8558
▁rif	-8559
▁Back	-8560
▁Cell	-8561
▁jeep	-8562
▁lacs	-8563
▁rice	-8564
▁posed	-8565
▁appended	-8566
▁contributed	-8567
▁irregularity	-8568
▁ICC	-8569
▁ang	-8570
▁fet	-8571
ailed	-8572
▁sand	-8573
igible	-8574
ourage	-8575
▁panch	-8576
▁vague	-8577
▁Number	-8578
▁emerge	-8579
▁strugg	-8580
▁Relying	-8581
▁operates	-8582
▁satisfactory	-8583
----------------	-8584
iya	-8585
urg	-8586
itate	-8587
mises	-8588
▁clin	-8589
▁forced	-8590
▁waters	-8591
▁partial	-8592
▁conveyed	-8593
▁meantime	-8594
▁disadvant	-8595
anim	-8596
▁Time	-8597
▁bonds	-8598
▁dwell	-8599
▁misuse	-8600
▁revers	-8601
carriage	-8602
▁heritage	-8603
▁incidents	-8604
▁motorcycle	-8605
▁amalgamation	-8606
aded	-8607
dish	-8608
osex	-8609
▁Bro	-8610
shall	-8611
utors	-8612
▁Shyam	-8613
isputed	-8614
▁handic	-8615
▁enjoyment	-8616
▁references	-8617
▁threatened	-8618
▁organisations	-8619
▁sake	-8620
aining	-8621
akhand	-8622
▁Staff	-8623
▁flats	-8624
▁fruit	-8625
urement	-8626
▁varied	-8627
▁dividend	-8628
▁architect	-8629
▁contested	-8630
▁neighbour	-8631
▁absorption	-8632
▁orientation	-8633
END	-8634
▁Dam	-8635
PWxad	-8636
▁Innovation	-8637
▁adjustment	-8638
▁intimation	-8639
▁submitting	-8640
▁chargesheet	-8641
▁discrepancies	-8642
rec	-8643
▁ACT	-8644
▁Mer	-8645
▁Arms	-8646
▁motiv	-8647
▁widow	-8648
▁Firstly	-8649
▁Ministries	-8650
▁indication	-8651
Rup	-8652
fers	-8653
omal	-8654
astic	-8655
below	-8656
ildlife	-8657
▁pistol	-8658
▁sudden	-8659
▁Majesty	-8660
▁alteration	-8661
▁apparently	-8662
▁retrospect	-8663
▁attributable	-8664
ips	-8665
kin	-8666
atab	-8667
olve	-8668
▁Ger	-8669
Union	-8670
volous	-8671
▁prompt	-8672
▁carries	-8673
▁confine	-8674
▁convert	-8675
▁pleased	-8676
▁Registry	-8677
▁possessed	-8678
▁predecess	-8679
▁continuance	-8680
:—	-8681
IP	-8682
Tax	-8683
▁PAN	-8684
rafts	-8685
stante	-8686
▁discon	-8687
▁Against	-8688
▁comments	-8689
▁promoter	-8690
▁electoral	-8691
▁technological	-8692
▁Ty	-8693
worthy	-8694
▁Record	-8695
▁budget	-8696
▁meters	-8697
graduate	-8698
▁harmony	-8699
▁recognize	-8700
▁thereupon	-8701
▁attachment	-8702
▁comparison	-8703
▁MA	-8704
IVIL	-8705
wife	-8706
▁Level	-8707
▁managing	-8708
Bs	-8709
▁Use	-8710
▁lis	-8711
ccess	-8712
tical	-8713
▁reck	-8714
called	-8715
▁micro	-8716
▁Partic	-8717
▁unlike	-8718
▁enabled	-8719
▁secular	-8720
▁Preamble	-8721
▁analysed	-8722
▁committees	-8723
▁contradictions	-8724
▁prox	-8725
arshan	-8726
tation	-8727
▁aband	-8728
entions	-8729
▁factum	-8730
▁latest	-8731
▁charging	-8732
▁restraint	-8733
▁pronouncements	-8734
vals	-8735
▁Gul	-8736
▁Const	-8737
▁Democ	-8738
▁double	-8739
▁billion	-8740
▁offering	-8741
▁witnessed	-8742
ocon	-8743
▁CIVIL	-8744
▁Later	-8745
▁frust	-8746
▁vendor	-8747
▁Indians	-8748
▁accounting	-8749
▁restraining	-8750
▁pm	-8751
▁die	-8752
disha	-8753
▁runs	-8754
Rupees	-8755
▁Juris	-8756
▁Repeal	-8757
▁adjourn	-8758
▁incentives	-8759
▁reputation	-8760
▁interlocutory	-8761
▁manufacturers	-8762
Dr	-8763
▁FO	-8764
▁IIT	-8765
▁map	-8766
▁chest	-8767
▁military	-8768
▁envisages	-8769
▁Uttarakhand	-8770
▁intellectual	-8771
duc	-8772
aign	-8773
iled	-8774
atern	-8775
coming	-8776
▁Rakesh	-8777
▁conservation	-8778
ese	-8779
was	-8780
osis	-8781
raman	-8782
▁feas	-8783
▁cycle	-8784
▁Liquid	-8785
▁functional	-8786
▁influenced	-8787
▁hum	-8788
▁pad	-8789
owner	-8790
▁nurs	-8791
▁Citiz	-8792
▁intra	-8793
▁career	-8794
▁consec	-8795
▁stress	-8796
▁trials	-8797
▁Proceed	-8798
▁Dictionary	-8799
▁literature	-8800
▁miscarriage	-8801
▁participating	-8802
▁CG	-8803
mark	-8804
abhai	-8805
enger	-8806
ights	-8807
▁scri	-8808
▁Integ	-8809
▁manip	-8810
▁unity	-8811
▁merger	-8812
priation	-8813
▁Finally	-8814
▁multiplier	-8815
▁representations	-8816
ils	-8817
room	-8818
▁Five	-8819
▁lose	-8820
ruction	-8821
▁unknown	-8822
▁frivolous	-8823
▁deductions	-8824
▁War	-8825
ented	-8826
▁mine	-8827
orters	-8828
▁scoot	-8829
▁white	-8830
▁closure	-8831
▁deserve	-8832
▁killing	-8833
▁offending	-8834
▁functionaries	-8835
▁unsustainable	-8836
▁Sl	-8837
ohar	-8838
▁Jal	-8839
▁dry	-8840
▁enl	-8841
itime	-8842
▁Neither	-8843
▁Payment	-8844
▁machine	-8845
▁discount	-8846
▁freedoms	-8847
▁surrounding	-8848
▁investigated	-8849
unk	-8850
▁ft	-8851
urch	-8852
▁isol	-8853
engers	-8854
entral	-8855
▁guarantees	-8856
▁suppression	-8857
▁]	-8858
▁Ce	-8859
pass	-8860
what	-8861
▁ICT	-8862
iscal	-8863
▁Raju	-8864
▁bears	-8865
▁Global	-8866
▁condol	-8867
▁tonnes	-8868
▁upgrad	-8869
▁chapter	-8870
▁degrees	-8871
▁stopped	-8872
▁Justices	-8873
▁philosophy	-8874
▁prosecuted	-8875
▁adjudicated	-8876
EST	-8877
ITY	-8878
ENCE	-8879
isms	-8880
▁Sure	-8881
▁Tehs	-8882
▁embar	-8883
▁forests	-8884
ciliation	-8885
▁refusing	-8886
▁friendship	-8887
▁prescribing	-8888
▁Adjudicating	-8889
MT	-8890
▁thor	-8891
▁lists	-8892
▁Odisha	-8893
▁defaul	-8894
▁ending	-8895
▁happen	-8896
▁intest	-8897
▁nonxad	-8898
▁evening	-8899
▁attitude	-8900
▁inviting	-8901
▁impleaded	-8902
dec	-8903
▁Jaw	-8904
▁bone	-8905
▁colon	-8906
▁silver	-8907
▁Various	-8908
▁propose	-8909
▁improved	-8910
▁overruled	-8911
▁summoning	-8912
VER	-8913
apt	-8914
inc	-8915
mpt	-8916
▁Ved	-8917
▁haz	-8918
force	-8919
▁Drug	-8920
▁ahead	-8921
▁dilig	-8922
▁stone	-8923
▁conced	-8924
▁profile	-8925
▁vesting	-8926
▁concepts	-8927
▁Petroleum	-8928
▁completing	-8929
▁erroneously	-8930
hesh	-8931
▁Bah	-8932
▁Anal	-8933
▁MESS	-8934
▁Mach	-8935
▁ties	-8936
▁thres	-8937
▁incomp	-8938
▁remarks	-8939
▁exercises	-8940
▁hereinbelow	-8941
Is	-8942
do	-8943
▁JJ	-8944
▁root	-8945
▁Kishan	-8946
▁unanim	-8947
▁artific	-8948
▁doubtful	-8949
▁reporting	-8950
▁characteristics	-8951
▁CM	-8952
▁lik	-8953
ambig	-8954
apore	-8955
belie	-8956
▁Lords	-8957
▁grass	-8958
estival	-8959
▁defeat	-8960
▁MESSAGE	-8961
▁restore	-8962
▁Resource	-8963
▁Monitoring	-8964
HT	-8965
UMAR	-8966
▁Bhat	-8967
▁abst	-8968
awalli	-8969
ugopal	-8970
▁blank	-8971
entures	-8972
raction	-8973
▁condon	-8974
▁encumb	-8975
▁Certain	-8976
▁Greater	-8977
▁climate	-8978
▁perfect	-8979
▁prohibits	-8980
▁Corruption	-8981
▁deliberate	-8982
▁deputation	-8983
▁healthcare	-8984
▁personality	-8985
)/	-8986
othe	-8987
asion	-8988
▁Ravi	-8989
▁Vikas	-8990
▁Export	-8991
▁bodily	-8992
▁onwards	-8993
▁surface	-8994
▁fertiliz	-8995
▁disposing	-8996
▁weightage	-8997
▁Defendants	-8998
▁landowners	-8999
▁television	-9000
▁declarations	-9001
ota	-9002
▁Nep	-9003
▁Body	-9004
▁Autom	-9005
▁Griev	-9006
iversary	-9007
▁unambig	-9008
▁hectares	-9009
▁opinions	-9010
▁Personnel	-9011
▁reiterate	-9012
▁continuation	-9013
AYS	-9014
hik	-9015
oda	-9016
ukh	-9017
ford	-9018
ician	-9019
ortium	-9020
▁helps	-9021
▁trees	-9022
▁volume	-9023
▁monitor	-9024
▁Statutory	-9025
▁dedicated	-9026
▁reim	-9027
▁KUMAR	-9028
▁surve	-9029
▁Hindus	-9030
▁denying	-9031
▁managed	-9032
▁penalties	-9033
▁techniques	-9034
▁appreciating	-9035
▁incriminating	-9036
ika	-9037
fort	-9038
▁Tour	-9039
auvery	-9040
▁Guard	-9041
▁Raman	-9042
▁abund	-9043
▁leased	-9044
▁Statute	-9045
▁Whereas	-9046
▁broadly	-9047
ographical	-9048
▁financing	-9049
▁prevalent	-9050
▁commodities	-9051
▁establishes	-9052
wara	-9053
▁kidn	-9054
▁Ahmad	-9055
▁Cause	-9056
▁Stock	-9057
▁blind	-9058
deceased	-9059
▁peoples	-9060
▁prayers	-9061
▁adjusted	-9062
▁attacked	-9063
▁meaningful	-9064
▁precedents	-9065
▁Establishment	-9066
▁communications	-9067
nty	-9068
’).	-9069
▁WIT	-9070
▁inh	-9071
▁dies	-9072
▁empt	-9073
▁Point	-9074
▁diagn	-9075
▁instal	-9076
▁treaty	-9077
▁prolong	-9078
sufficient	-9079
▁Marketing	-9080
▁threshold	-9081
▁elaborately	-9082
▁substantiate	-9083
▁peaceful	-9084
▁squarely	-9085
▁Standards	-9086
▁facilitating	-9087
▁compassionate	-9088
Ann	-9089
▁RTI	-9090
▁Van	-9091
▁drew	-9092
▁onus	-9093
▁Lease	-9094
▁parte	-9095
writing	-9096
▁contemn	-9097
▁strategic	-9098
▁suspended	-9099
organisation	-9100
▁Subordinate	-9101
▁introducing	-9102
MIN	-9103
▁DE	-9104
ignty	-9105
▁Deep	-9106
▁Russ	-9107
▁York	-9108
▁bull	-9109
▁cant	-9110
▁eman	-9111
▁dynam	-9112
▁spons	-9113
▁Charge	-9114
▁enjoyed	-9115
▁verdict	-9116
▁announced	-9117
▁relatable	-9118
▁concluding	-9119
▁deliberately	-9120
▁unauthorized	-9121
Sec	-9122
ura	-9123
▁Rev	-9124
appre	-9125
▁Item	-9126
ainted	-9127
visory	-9128
▁aspir	-9129
▁versus	-9130
▁Through	-9131
▁imposes	-9132
▁spectrum	-9133
▁Guarantee	-9134
▁undivided	-9135
▁obligatory	-9136
▁conditional	-9137
▁concurrently	-9138
▁IA	-9139
ixed	-9140
▁SEC	-9141
▁rid	-9142
▁wil	-9143
agree	-9144
ammad	-9145
▁Book	-9146
▁flex	-9147
▁Draft	-9148
▁mouth	-9149
▁solar	-9150
▁footing	-9151
▁disappro	-9152
▁Pollution	-9153
▁rationale	-9154
▁liquidation	-9155
ALL	-9156
URE	-9157
abh	-9158
ceut	-9159
▁Edn	-9160
▁sun	-9161
▁Arch	-9162
▁Bhut	-9163
▁Major	-9164
▁Relief	-9165
▁cinema	-9166
▁thrown	-9167
▁earnest	-9168
▁nutrition	-9169
▁antecedents	-9170
bi	-9171
Pre	-9172
SION	-9173
eous	-9174
iful	-9175
quar	-9176
term	-9177
▁EVE	-9178
▁Text	-9179
▁fish	-9180
▁adhere	-9181
▁heinous	-9182
▁implies	-9183
▁efficacy	-9184
▁stations	-9185
▁Venugopal	-9186
▁comprises	-9187
▁daughters	-9188
▁Pla	-9189
▁vice	-9190
rating	-9191
▁Supply	-9192
▁sheets	-9193
▁allottee	-9194
▁implicated	-9195
CH	-9196
Sh	-9197
ica	-9198
▁cler	-9199
▁hire	-9200
▁plus	-9201
▁rede	-9202
▁advis	-9203
▁inquest	-9204
▁passengers	-9205
▁utilization	-9206
PG	-9207
ooth	-9208
that	-9209
viii	-9210
▁Mult	-9211
ivable	-9212
▁Cases	-9213
▁inequ	-9214
▁forged	-9215
▁Forests	-9216
▁grievous	-9217
▁accompany	-9218
▁insertion	-9219
eli	-9220
iva	-9221
isal	-9222
eding	-9223
▁bids	-9224
▁blow	-9225
▁accum	-9226
▁owing	-9227
▁remem	-9228
▁resid	-9229
▁wants	-9230
ucherry	-9231
▁bidder	-9232
▁planned	-9233
▁Implement	-9234
▁discontin	-9235
▁litigants	-9236
▁adjudicate	-9237
▁construing	-9238
▁Disciplinary	-9239
pee	-9240
▁Bye	-9241
▁Yog	-9242
▁flu	-9243
▁Allow	-9244
▁trave	-9245
▁union	-9246
▁deploy	-9247
▁timely	-9248
▁Cauvery	-9249
▁Deposit	-9250
▁Working	-9251
▁sending	-9252
▁reviewed	-9253
▁strategy	-9254
▁terrorism	-9255
appropriate	-9256
▁cartridges	-9257
▁purchasers	-9258
SP	-9259
TO	-9260
२०	-9261
▁Ak	-9262
▁Pud	-9263
▁sle	-9264
▁Farm	-9265
▁Jail	-9266
▁seal	-9267
itical	-9268
▁Unless	-9269
▁analog	-9270
▁retention	-9271
▁combination	-9272
▁Compensation	-9273
abs	-9274
▁Az	-9275
▁APP	-9276
▁Late	-9277
▁VIII	-9278
▁airc	-9279
▁unex	-9280
▁rebut	-9281
▁modify	-9282
▁lodging	-9283
▁Projects	-9284
▁directive	-9285
▁forfeiture	-9286
▁examinations	-9287
DF	-9288
lo	-9289
lt	-9290
Moh	-9291
dev	-9292
▁Vi	-9293
join	-9294
dhury	-9295
▁Meet	-9296
▁Sukh	-9297
▁news	-9298
rative	-9299
▁revol	-9300
ressing	-9301
▁skilled	-9302
▁staying	-9303
▁Interpre	-9304
▁variation	-9305
zz	-9306
try	-9307
▁AR	-9308
▁pi	-9309
book	-9310
▁cat	-9311
▁cold	-9312
viable	-9313
▁Prabh	-9314
closure	-9315
▁silent	-9316
▁decides	-9317
▁utility	-9318
▁immunity	-9319
▁Complaint	-9320
▁legislate	-9321
▁prospects	-9322
▁continuously	-9323
ny	-9324
rary	-9325
ighed	-9326
▁Know	-9327
▁TRAI	-9328
▁xxxx	-9329
▁accus	-9330
▁brand	-9331
▁intend	-9332
▁mutually	-9333
▁Christian	-9334
▁departure	-9335
▁stability	-9336
IO	-9337
igam	-9338
▁syn	-9339
▁Micro	-9340
▁averred	-9341
harmaceut	-9342
▁interrog	-9343
▁untenable	-9344
▁participants	-9345
▁uf	-9346
alle	-9347
ilder	-9348
▁jour	-9349
accept	-9350
illary	-9351
legium	-9352
▁Sever	-9353
▁Bachan	-9354
▁Coming	-9355
▁Regard	-9356
▁couple	-9357
▁degrad	-9358
▁errors	-9359
▁America	-9360
▁emerges	-9361
▁Singapore	-9362
termination	-9363
▁overriding	-9364
▁preventing	-9365
▁AG	-9366
anta	-9367
▁debar	-9368
▁rests	-9369
▁Network	-9370
▁Parties	-9371
▁Singhvi	-9372
▁logical	-9373
▁enrolled	-9374
▁Directive	-9375
▁confessions	-9376
▁Distribution	-9377
▁Organization	-9378
oves	-9379
enous	-9380
▁Academ	-9381
▁attain	-9382
▁facets	-9383
▁widely	-9384
iscation	-9385
▁Instead	-9386
▁occupied	-9387
▁striking	-9388
▁diversity	-9389
▁introduce	-9390
▁ap	-9391
iven	-9392
▁....	-9393
▁bias	-9394
▁hill	-9395
▁wakf	-9396
artial	-9397
viously	-9398
▁begins	-9399
▁notion	-9400
▁sphere	-9401
▁abscond	-9402
▁someone	-9403
▁prosecute	-9404
▁attendance	-9405
▁Sk	-9406
aran	-9407
eces	-9408
iers	-9409
oked	-9410
▁MUK	-9411
▁hor	-9412
▁shift	-9413
▁tendency	-9414
▁preparing	-9415
▁discovered	-9416
▁concurrence	-9417
▁sovereignty	-9418
▁prescription	-9419
▁collaboration	-9420
asa	-9421
rim	-9422
▁Dw	-9423
ATES	-9424
uster	-9425
istent	-9426
venues	-9427
▁fract	-9428
▁Witness	-9429
▁cutting	-9430
▁Rajendra	-9431
▁minister	-9432
▁pleading	-9433
▁ambiguity	-9434
▁registering	-9435
▁unauthorised	-9436
lier	-9437
▁rod	-9438
▁Educ	-9439
▁......	-9440
▁parade	-9441
▁settle	-9442
▁regions	-9443
▁adultery	-9444
▁recruits	-9445
▁locations	-9446
▁expiration	-9447
▁deprivation	-9448
▁destruction	-9449
eded	-9450
ulla	-9451
▁Grad	-9452
▁struggle	-9453
▁physically	-9454
▁calculation	-9455
▁regularization	-9456
HAR	-9457
▁JUD	-9458
ildar	-9459
▁amen	-9460
▁hurt	-9461
▁Medic	-9462
▁coverage	-9463
▁pointing	-9464
Respondent	-9465
▁vulnerable	-9466
▁WP	-9467
back	-9468
▁Gau	-9469
▁wood	-9470
▁Chart	-9471
▁relie	-9472
▁quarrel	-9473
▁trustee	-9474
▁inferred	-9475
▁transfers	-9476
▁Puducherry	-9477
▁collecting	-9478
▁governmental	-9479
ux	-9480
ALCO	-9481
enda	-9482
assed	-9483
▁hall	-9484
gments	-9485
▁Region	-9486
▁advise	-9487
▁detained	-9488
▁thorough	-9489
▁exchanges	-9490
▁prospecting	-9491
▁Presidential	-9492
▁infringement	-9493
.’	-9494
DT	-9495
ayal	-9496
▁Ham	-9497
▁fake	-9498
▁Japan	-9499
▁vests	-9500
▁Enquiry	-9501
▁NATIONAL	-9502
▁Resources	-9503
▁abolition	-9504
▁postulates	-9505
oken	-9506
offic	-9507
▁Salve	-9508
erating	-9509
▁Harish	-9510
spection	-9511
▁options	-9512
▁noticing	-9513
▁removing	-9514
▁trustees	-9515
▁Federation	-9516
▁redemption	-9517
▁remembered	-9518
▁suitability	-9519
▁transformation	-9520
cel	-9521
▁ine	-9522
▁Band	-9523
▁Cost	-9524
▁Cult	-9525
▁Hari	-9526
▁Requ	-9527
▁chief	-9528
▁magaz	-9529
▁column	-9530
▁fiscal	-9531
ffective	-9532
▁Several	-9533
▁renewed	-9534
▁Addition	-9535
▁expanded	-9536
▁gratuity	-9537
▁operated	-9538
▁pregnant	-9539
▁succeeded	-9540
▁Concurrent	-9541
▁confirming	-9542
▁Institution	-9543
▁governments	-9544
harmaceutical	-9545
▁Consolidated	-9546
▁transferring	-9547
▁proportionate	-9548
enn	-9549
omy	-9550
▁NT	-9551
ivedi	-9552
▁Cond	-9553
▁chose	-9554
alities	-9555
▁cleared	-9556
▁imparting	-9557
▁Panchayats	-9558
▁Consultation	-9559
▁mig	-9560
▁upd	-9561
▁wal	-9562
▁detri	-9563
▁Amicus	-9564
▁gather	-9565
▁master	-9566
▁Dwivedi	-9567
▁Hearing	-9568
▁alcohol	-9569
▁consumed	-9570
▁remitted	-9571
missibility	-9572
▁conveyance	-9573
%,	-9574
▁TN	-9575
arya	-9576
rams	-9577
▁Ess	-9578
plete	-9579
▁Sikk	-9580
▁COURT	-9581
▁fruits	-9582
▁leader	-9583
▁briefly	-9584
▁scooter	-9585
▁weighed	-9586
▁sanctity	-9587
▁premature	-9588
▁processed	-9589
▁successor	-9590
▁congratulate	-9591
Ass	-9592
will	-9593
ietal	-9594
ipped	-9595
rence	-9596
▁Tuls	-9597
▁brut	-9598
▁Sushil	-9599
▁broken	-9600
▁ignore	-9601
▁Chander	-9602
▁adjudic	-9603
▁Appendix	-9604
▁advances	-9605
▁combined	-9606
▁prisoners	-9607
▁unnatural	-9608
▁warranted	-9609
▁artificial	-9610
▁Prosecution	-9611
▁legislatures	-9612
▁preservation	-9613
▁Max	-9614
▁win	-9615
inity	-9616
▁Cler	-9617
▁Norm	-9618
▁beat	-9619
ailing	-9620
aswamy	-9621
▁breed	-9622
▁coerc	-9623
▁sites	-9624
resents	-9625
▁deaths	-9626
▁utmost	-9627
▁Schemes	-9628
▁contradict	-9629
▁promotions	-9630
▁confiscation	-9631
bon	-9632
▁Pow	-9633
▁Set	-9634
▁ven	-9635
ighty	-9636
▁Copy	-9637
▁Wing	-9638
uating	-9639
▁Nigam	-9640
▁derog	-9641
▁Bhutan	-9642
thly	-9643
▁sad	-9644
▁Guru	-9645
▁pled	-9646
▁tell	-9647
▁elder	-9648
▁corpus	-9649
▁worker	-9650
▁disabled	-9651
▁thinking	-9652
▁institutes	-9653
▁controlling	-9654
mia	-9655
▁IF	-9656
▁fo	-9657
bidd	-9658
macy	-9659
meas	-9660
urit	-9661
▁Daw	-9662
▁MLA	-9663
▁phase	-9664
▁print	-9665
▁Muslims	-9666
▁therefor	-9667
▁ammunition	-9668
▁conferring	-9669
▁preventive	-9670
▁interesting	-9671
▁retrospectively	-9672
za	-9673
rup	-9674
rich	-9675
▁orna	-9676
▁wait	-9677
▁“...	-9678
▁Impro	-9679
▁Speech	-9680
▁adding	-9681
▁beings	-9682
▁slight	-9683
forcement	-9684
▁internet	-9685
▁Chaudhary	-9686
Corporation	-9687
▁commutation	-9688
▁instruction	-9689
▁Recommendation	-9690
ero	-9691
▁MH	-9692
irds	-9693
▁AOR	-9694
▁NCL	-9695
▁SPE	-9696
▁sty	-9697
▁tom	-9698
hered	-9699
▁sums	-9700
wealth	-9701
▁paddy	-9702
▁urgent	-9703
▁triable	-9704
▁Insolvency	-9705
▁definitely	-9706
▁correspondence	-9707
Cri	-9708
▁RA	-9709
▁Beg	-9710
▁kil	-9711
▁sear	-9712
▁shar	-9713
▁Benef	-9714
▁Brief	-9715
▁empty	-9716
▁score	-9717
▁Crores	-9718
▁rarest	-9719
▁stored	-9720
▁strang	-9721
▁Premises	-9722
▁Standard	-9723
▁enclosed	-9724
▁boundaries	-9725
▁represents	-9726
▁undisputed	-9727
▁Complainant	-9728
▁aggravating	-9729
SO	-9730
0/-	-9731
▁won	-9732
inety	-9733
▁Anti	-9734
▁Docu	-9735
▁WITH	-9736
▁rash	-9737
▁tool	-9738
rances	-9739
▁About	-9740
▁Black	-9741
settled	-9742
▁Sikkim	-9743
▁behest	-9744
dictions	-9745
▁mission	-9746
▁Sciences	-9747
▁somewhat	-9748
▁projected	-9749
▁complained	-9750
▁inevitable	-9751
▁Prohibition	-9752
▁identifying	-9753
▁reasonableness	-9754
PCL	-9755
och	-9756
oya	-9757
hari	-9758
▁Yoj	-9759
▁bra	-9760
▁mid	-9761
▁ped	-9762
ading	-9763
▁Team	-9764
▁shel	-9765
except	-9766
▁store	-9767
wellery	-9768
▁connot	-9769
▁decline	-9770
▁constant	-9771
▁drinking	-9772
▁provider	-9773
▁reflects	-9774
▁panchnama	-9775
▁terminate	-9776
▁Plaintiffs	-9777
▁convicting	-9778
▁Organisation	-9779
WC	-9780
atha	-9781
▁Bid	-9782
▁Han	-9783
▁pit	-9784
▁Nare	-9785
▁inse	-9786
▁motu	-9787
invest	-9788
▁allied	-9789
▁Educational	-9790
▁Secretaries	-9791
▁interaction	-9792
BA	-9793
JEE	-9794
▁NH	-9795
onds	-9796
▁heav	-9797
inding	-9798
▁risks	-9799
▁ensures	-9800
▁journey	-9801
▁picture	-9802
▁mischief	-9803
▁Obviously	-9804
▁confusion	-9805
▁delegated	-9806
▁demanding	-9807
▁developer	-9808
▁inability	-9809
▁Electronics	-9810
pol	-9811
oure	-9812
▁ASG	-9813
▁Ren	-9814
based	-9815
▁Rash	-9816
▁phen	-9817
▁Manohar	-9818
▁Meeting	-9819
▁actively	-9820
▁beneficiary	-9821
may	-9822
▁RO	-9823
▁Conv	-9824
raisal	-9825
▁expos	-9826
▁ideal	-9827
▁Merely	-9828
▁ceases	-9829
▁serial	-9830
▁Conserv	-9831
▁inspire	-9832
▁inferior	-9833
▁summoned	-9834
▁dangerous	-9835
▁enforcing	-9836
ola	-9837
son	-9838
ucid	-9839
▁Kum	-9840
▁ble	-9841
-----	-9842
aided	-9843
cking	-9844
▁Units	-9845
▁bribe	-9846
husband	-9847
▁unconsc	-9848
▁leviable	-9849
▁suggests	-9850
▁dishonest	-9851
▁Liquidator	-9852
▁violations	-9853
▁Additionally	-9854
▁contradiction	-9855
▁EIA	-9856
▁Hard	-9857
▁Radh	-9858
▁evid	-9859
▁Misra	-9860
▁Table	-9861
▁Dinesh	-9862
▁anomal	-9863
chnology	-9864
▁survive	-9865
▁grenades	-9866
▁newspapers	-9867
▁MT	-9868
iyar	-9869
norm	-9870
▁Capt	-9871
▁Heard	-9872
▁cards	-9873
▁blasts	-9874
▁repair	-9875
▁seeing	-9876
▁visual	-9877
aturally	-9878
▁movable	-9879
agistrates	-9880
▁redressal	-9881
▁associations	-9882
▁Identification	-9883
Com	-9884
▁Care	-9885
▁emot	-9886
erting	-9887
▁aided	-9888
▁diary	-9889
▁seeds	-9890
▁perman	-9891
▁sports	-9892
▁Jagdish	-9893
▁imports	-9894
▁tractor	-9895
paragraph	-9896
▁External	-9897
▁campaign	-9898
▁generate	-9899
▁manpower	-9900
▁affirming	-9901
orticulture	-9902
▁unfortunate	-9903
,-	-9904
▁Loan	-9905
▁Price	-9906
▁confron	-9907
▁qualify	-9908
▁passenger	-9909
▁promotees	-9910
▁cumulative	-9911
▁communicate	-9912
▁“(	-9913
Supra	-9914
kumar	-9915
▁	-9916
e	-9917
t	-9918
a	-9919
i	-9920
o	-9921
n	-9922
r	-9923
s	-9924
h	-9925
d	-9926
c	-9927
l	-9928
u	-9929
f	-9930
p	-9931
m	-9932
g	-9933
b	-9934
y	-9935
w	-9936
.	-9937
v	-9938
,	-9939
C	-9940
A	-9941
S	-9942
T	-9943
I	-9944
०	-9945
k	-9946
x	-9947
P	-9948
)	-9949
१	-9950
(	-9951
-	-9952
R	-9953
j	-9954
M	-9955
N	-9956
D	-9957
H	-9958
२	-9959
B	-9960
q	-9961
E	-9962
O	-9963
G	-9964
L	-9965
W	-9966
F	-9967
J	-9968
३	-9969
/	-9970
0	-9971
:	-9972
U	-9973
K	-9974
'	-9975
४	-9976
’	-9977
z	-9978
V	-9979
;	-9980
“	-9981
५	-9982
|	-9983
]	-9984
[	-9985
‘	-9986
६	-9987
&	-9988
Y	-9989
७	-9990
%	-9991
८	-9992
—	-9993
