<unk>	0
<s>	0
</s>	0
UuRrLl	0
DdAaTtEe	0
NnUuMm	0
▁t	-0
he	-1
▁a	-2
▁the	-3
▁o	-4
in	-5
re	-6
on	-7
at	-8
en	-9
ed	-10
er	-11
▁of	-12
is	-13
▁s	-14
▁,	-15
▁c	-16
it	-17
▁p	-18
▁w	-19
▁b	-20
ion	-21
▁.	-22
nd	-23
▁in	-24
as	-25
ar	-26
▁f	-27
or	-28
▁to	-29
es	-30
an	-31
▁d	-32
al	-33
ou	-34
ent	-35
ing	-36
▁th	-37
ic	-38
▁re	-39
▁and	-40
▁h	-41
ot	-42
▁be	-43
ct	-44
le	-45
▁n	-46
▁m	-47
ro	-48
▁is	-49
▁that	-50
ce	-51
▁C	-52
id	-53
▁T	-54
▁S	-55
▁e	-56
st	-57
ation	-58
▁A	-59
ut	-60
ll	-61
▁con	-62
se	-63
ment	-64
▁su	-65
pp	-66
▁on	-67
▁by	-68
qu	-69
la	-70
▁de	-71
ve	-72
ly	-73
▁as	-74
im	-75
om	-76
▁not	-77
ad	-78
▁I	-79
▁for	-80
▁The	-81
rt	-82
▁&	-83
▁was	-84
▁pro	-85
▁P	-86
▁or	-87
▁u	-88
▁\	-89
ant	-90
her	-91
et	-92
ri	-93
am	-94
▁app	-95
ate	-96
▁an	-97
▁wh	-98
▁wit	-99
ld	-100
ourt	-101
▁)	-102
ch	-103
ur	-104
▁it	-105
▁(	-106
if	-107
os	-108
ere	-109
▁g	-110
ers	-111
ow	-112
ra	-113
us	-114
ition	-115
il	-116
▁R	-117
▁with	-118
▁has	-119
▁M	-120
▁st	-121
ter	-122
gh	-123
ver	-124
▁Court	-125
ir	-126
▁ex	-127
▁he	-128
▁H	-129
ess	-130
▁l	-131
ect	-132
▁D	-133
ay	-134
▁al	-135
▁B	-136
▁com	-137
cc	-138
ore	-139
▁v	-140
ted	-141
ence	-142
▁ha	-143
ain	-144
ab	-145
ud	-146
ul	-147
▁N	-148
nder	-149
ge	-150
quot	-151
▁cas	-152
ich	-153
▁le	-154
▁which	-155
▁res	-156
ated	-157
▁/	-158
res	-159
etition	-160
ould	-161
end	-162
▁under	-163
▁appe	-164
ity	-165
▁this	-166
lic	-167
▁there	-168
ist	-169
est	-170
ak	-171
pos	-172
▁are	-173
▁sh	-174
pon	-175
ned	-176
▁at	-177
art	-178
▁acc	-179
fore	-180
▁case	-181
ec	-182
▁petition	-183
um	-184
iv	-185
▁sub	-186
▁any	-187
so	-188
rom	-189
▁j	-190
▁been	-191
▁fa	-192
▁cont	-193
oun	-194
▁have	-195
▁In	-196
red	-197
▁la	-198
ther	-199
▁from	-200
od	-201
li	-202
ord	-203
aid	-204
mit	-205
▁G	-206
▁dis	-207
ard	-208
and	-209
ial	-210
ction	-211
▁ev	-212
▁whe	-213
▁comp	-214
un	-215
▁also	-216
▁no	-217
ision	-218
▁O	-219
int	-220
ive	-221
▁It	-222
▁his	-223
▁K	-224
ill	-225
▁can	-226
der	-227
▁ad	-228
used	-229
▁L	-230
ght	-231
ies	-232
▁had	-233
▁J	-234
▁such	-235
ust	-236
ig	-237
▁part	-238
▁per	-239
ort	-240
▁prov	-241
all	-242
ame	-243
ff	-244
ure	-245
▁ag	-246
ance	-247
mis	-248
▁W	-249
llant	-250
ice	-251
ution	-252
▁ab	-253
▁rec	-254
oc	-255
▁E	-256
able	-257
ol	-258
pond	-259
ary	-260
▁were	-261
apos	-262
ict	-263
pondent	-264
▁se	-265
sion	-266
▁dec	-267
▁would	-268
em	-269
▁cons	-270
ire	-271
per	-272
▁appellant	-273
▁said	-274
arned	-275
▁other	-276
▁int	-277
▁order	-278
ie	-279
ip	-280
▁accused	-281
▁F	-282
sel	-283
▁pla	-284
▁St	-285
ade	-286
▁all	-287
▁im	-288
▁Th	-289
▁ch	-290
▁:	-291
ue	-292
▁po	-293
▁No	-294
pt	-295
▁fact	-296
▁pers	-297
▁ar	-298
mitted	-299
▁-	-300
▁respondent	-301
▁Act	-302
age	-303
▁we	-304
ag	-305
▁petitioner	-306
ound	-307
over	-308
erv	-309
▁person	-310
idence	-311
fter	-312
▁learned	-313
▁qu	-314
sed	-315
▁reg	-316
▁V	-317
du	-318
▁pres	-319
▁made	-320
▁mat	-321
▁ob	-322
ced	-323
▁off	-324
▁tak	-325
▁&#	-326
iff	-327
▁inc	-328
▁jud	-329
ous	-330
▁	-331
ered	-332
ru	-333
▁evidence	-334
ased	-335
▁def	-336
▁rep	-337
ident	-338
▁un	-339
ib	-340
istr	-341
▁fu	-342
ject	-343
our	-344
▁may	-345
pect	-346
▁gr	-347
▁do	-348
lo	-349
ments	-350
out	-351
ree	-352
ind	-353
ime	-354
▁en	-355
▁who	-356
mission	-357
ide	-358
▁State	-359
stit	-360
ac	-361
▁imp	-362
ific	-363
▁same	-364
▁consid	-365
▁law	-366
▁coun	-367
igh	-368
▁Su	-369
▁pre	-370
ye	-371
ness	-372
rit	-373
▁ri	-374
▁only	-375
▁applic	-376
▁sp	-377
▁ne	-378
▁court	-379
▁record	-380
not	-381
▁He	-382
▁again	-383
▁before	-384
▁her	-385
rther	-386
th	-387
▁am	-388
▁if	-389
▁tr	-390
ations	-391
iew	-392
▁ent	-393
use	-394
▁pr	-395
ention	-396
▁iss	-397
overn	-398
tain	-399
▁Com	-400
▁De	-401
▁cannot	-402
▁out	-403
▁Ch	-404
ied	-405
▁its	-406
▁&#9	-407
iled	-408
▁PW	-409
ish	-410
ty	-411
ove	-412
▁but	-413
ces	-414
▁cla	-415
▁him	-416
fer	-417
ise	-418
▁their	-419
▁r	-420
▁shall	-421
▁so	-422
▁right	-423
ount	-424
rib	-425
▁against	-426
▁High	-427
uth	-428
▁provision	-429
▁time	-430
▁There	-431
ged	-432
orm	-433
ome	-434
▁conc	-435
▁U	-436
▁inv	-437
ia	-438
ee	-439
▁one	-440
▁requ	-441
overnment	-442
sec	-443
one	-444
ile	-445
▁pos	-446
ally	-447
▁judg	-448
ans	-449
amin	-450
▁k	-451
▁witness	-452
ason	-453
▁they	-454
ings	-455
▁ac	-456
▁Con	-457
ari	-458
▁Sh	-459
▁further	-460
▁As	-461
ceed	-462
▁pur	-463
▁counsel	-464
estion	-465
▁Ind	-466
▁where	-467
ose	-468
▁after	-469
▁ca	-470
uthor	-471
eren	-472
stitution	-473
ub	-474
▁dece	-475
▁proper	-476
ough	-477
ract	-478
op	-479
▁held	-480
▁ass	-481
ars	-482
▁exp	-483
hed	-484
▁view	-485
▁deceased	-486
..	-487
▁Government	-488
▁em	-489
▁reason	-490
▁stated	-491
inal	-492
ai	-493
▁prosec	-494
▁giv	-495
▁inter	-496
ory	-497
iz	-498
▁pas	-499
▁being	-500
rial	-501
▁decision	-502
me	-503
▁present	-504
av	-505
▁me	-506
▁state	-507
▁disc	-508
▁question	-509
▁when	-510
▁proceed	-511
▁li	-512
iction	-513
▁submitted	-514
▁Re	-515
intiff	-516
▁will	-517
form	-518
ong	-519
▁writ	-520
▁land	-521
▁claim	-522
▁dire	-523
▁This	-524
▁judgment	-525
ection	-526
▁taken	-527
ach	-528
ating	-529
ult	-530
▁filed	-531
.0	-532
ath	-533
ever	-534
▁_	-535
ute	-536
led	-537
▁ind	-538
▁consider	-539
ates	-540
amp	-541
▁man	-542
ren	-543
ession	-544
▁therefore	-545
▁leg	-546
▁Sing	-547
lice	-548
▁suit	-549
▁examin	-550
▁should	-551
▁upon	-552
endant	-553
▁appeal	-554
▁ye	-555
irc	-556
▁sc	-557
▁Jud	-558
▁act	-559
▁regard	-560
ok	-561
oll	-562
ical	-563
▁Ex	-564
▁pow	-565
▁plaintiff	-566
▁SC	-567
▁reli	-568
▁â	-569
min	-570
▁prosecution	-571
dition	-572
▁emp	-573
pre	-574
▁set	-575
▁above	-576
▁tw	-577
ex	-578
▁pay	-579
--	-580
ward	-581
▁given	-582
▁char	-583
ork	-584
▁circ	-585
▁poss	-586
▁she	-587
▁Mr	-588
▁could	-589
cted	-590
▁On	-591
▁into	-592
▁issu	-593
ah	-594
▁dated	-595
ign	-596
▁ter	-597
▁serv	-598
▁matter	-599
owever	-600
▁author	-601
old	-602
▁;	-603
▁spec	-604
ef	-605
own	-606
▁mak	-607
ublic	-608
ired	-609
▁two	-610
▁doc	-611
▁op	-612
▁even	-613
irst	-614
wn	-615
ised	-616
▁them	-617
ollow	-618
▁compla	-619
▁application	-620
og	-621
▁whether	-622
ail	-623
ved	-624
ature	-625
▁provisions	-626
▁find	-627
aj	-628
▁circum	-629
bit	-630
▁follow	-631
ber	-632
▁parties	-633
▁defendant	-634
▁cle	-635
▁these	-636
ances	-637
ative	-638
▁rem	-639
▁facts	-640
▁circumst	-641
erc	-642
ffic	-643
▁respect	-644
istrict	-645
▁appo	-646
▁trial	-647
ving	-648
3;	-649
▁&#93;	-650
ility	-651
ified	-652
any	-653
▁bas	-654
▁Singh	-655
een	-656
ording	-657
lud	-658
▁work	-659
ond	-660
▁must	-661
▁appro	-662
▁bec	-663
▁inj	-664
▁trans	-665
▁Kum	-666
ual	-667
ank	-668
▁supp	-669
▁rel	-670
▁clear	-671
▁alle	-672
rim	-673
▁does	-674
ible	-675
ark	-676
ended	-677
▁India	-678
ine	-679
ferred	-680
ven	-681
ffect	-682
inc	-683
other	-684
▁amount	-685
▁bet	-686
▁persons	-687
▁District	-688
aring	-689
▁ext	-690
ious	-691
bitr	-692
cept	-693
▁found	-694
ided	-695
▁about	-696
erest	-697
▁within	-698
cy	-699
▁petitioners	-700
▁go	-701
▁Ad	-702
very	-703
ited	-704
▁ref	-705
▁docu	-706
▁grant	-707
▁passed	-708
▁ra	-709
ug	-710
ular	-711
▁over	-712
▁comm	-713
▁property	-714
▁date	-715
▁att	-716
▁=	-717
▁disp	-718
▁first	-719
▁Res	-720
incip	-721
oth	-722
ry	-723
▁We	-724
▁Kumar	-725
▁ground	-726
▁statement	-727
▁well	-728
▁interest	-729
▁power	-730
▁diff	-731
▁offence	-732
▁emplo	-733
ecess	-734
▁just	-735
▁report	-736
▁without	-737
ween	-738
ast	-739
▁between	-740
ens	-741
▁App	-742
erence	-743
ification	-744
ors	-745
erial	-746
▁obs	-747
ap	-748
▁br	-749
▁public	-750
gu	-751
▁rele	-752
▁did	-753
▁circumstances	-754
▁inst	-755
uris	-756
uring	-757
ale	-758
▁afore	-759
les	-760
▁cer	-761
preme	-762
▁Rs	-763
▁0	-764
▁up	-765
▁An	-766
▁Supreme	-767
estig	-768
▁some	-769
▁concer	-770
▁post	-771
ost	-772
▁Judge	-773
▁Constitution	-774
iod	-775
▁cor	-776
pra	-777
▁juris	-778
▁material	-779
▁sec	-780
▁inform	-781
part	-782
ities	-783
vant	-784
▁period	-785
ax	-786
are	-787
ite	-788
▁est	-789
ms	-790
▁necess	-791
▁observ	-792
ouse	-793
self	-794
▁proceedings	-795
ules	-796
▁contract	-797
▁then	-798
1;	-799
▁&#91;	-800
▁val	-801
ior	-802
▁basis	-803
diction	-804
▁exerc	-805
unal	-806
▁Ben	-807
ting	-808
▁SCC	-809
▁par	-810
▁appellants	-811
ges	-812
▁Therefore	-813
▁jurisdiction	-814
ife	-815
▁stat	-816
ribunal	-817
▁authority	-818
▁princip	-819
said	-820
▁place	-821
▁while	-822
act	-823
▁cl	-824
posed	-825
▁mem	-826
▁aforesaid	-827
▁read	-828
▁witnesses	-829
▁purp	-830
▁Pr	-831
ince	-832
▁agree	-833
uted	-834
▁considered	-835
eral	-836
▁own	-837
icial	-838
abl	-839
▁occ	-840
▁hand	-841
▁show	-842
▁here	-843
lus	-844
▁sent	-845
hi	-846
▁years	-847
▁having	-848
▁object	-849
ought	-850
▁supra	-851
ack	-852
IR	-853
ody	-854
▁cases	-855
sequ	-856
▁conf	-857
▁Le	-858
▁hold	-859
its	-860
▁issued	-861
▁issue	-862
illage	-863
har	-864
▁rece	-865
▁arbitr	-866
▁police	-867
ild	-868
▁appoint	-869
▁effect	-870
▁produ	-871
▁partic	-872
esh	-873
▁allow	-874
ble	-875
▁opin	-876
▁However	-877
el	-878
▁kn	-879
▁Whe	-880
ase	-881
▁gu	-882
▁concerned	-883
pri	-884
▁required	-885
▁aff	-886
aw	-887
▁Bench	-888
▁av	-889
por	-890
▁ord	-891
▁notice	-892
▁des	-893
▁house	-894
▁purpose	-895
▁Pro	-896
▁investig	-897
▁acqu	-898
▁pri	-899
riminal	-900
▁rev	-901
hal	-902
▁both	-903
▁Petition	-904
AR	-905
ient	-906
▁possession	-907
▁includ	-908
after	-909
▁Appe	-910
▁respondents	-911
cess	-912
ros	-913
▁stand	-914
▁consideration	-915
ctions	-916
▁Commission	-917
▁exec	-918
rough	-919
ugned	-920
ause	-921
▁Acc	-922
med	-923
urn	-924
ten	-925
▁relevant	-926
▁impugned	-927
▁establ	-928
▁conv	-929
ither	-930
▁Ram	-931
▁Po	-932
▁name	-933
▁Tribunal	-934
arli	-935
....	-936
▁ret	-937
ash	-938
▁main	-939
▁subject	-940
▁Un	-941
ctor	-942
han	-943
▁submission	-944
▁necessary	-945
ption	-946
▁dismis	-947
▁more	-948
▁opinion	-949
ass	-950
▁bel	-951
ner	-952
▁ple	-953
ph	-954
▁award	-955
ined	-956
▁recorded	-957
▁ro	-958
▁argu	-959
isl	-960
▁i	-961
ci	-962
▁account	-963
▁ben	-964
bt	-965
▁condition	-966
▁than	-967
▁differen	-968
▁condu	-969
ke	-970
ished	-971
te	-972
stru	-973
▁through	-974
▁form	-975
▁deal	-976
ep	-977
▁day	-978
▁service	-979
▁death	-980
▁party	-981
▁make	-982
▁test	-983
▁If	-984
▁because	-985
▁what	-986
▁..	-987
▁mention	-988
PC	-989
▁mark	-990
▁agreement	-991
▁Section	-992
▁legal	-993
▁Y	-994
▁Or	-995
▁Offic	-996
▁take	-997
olle	-998
ained	-999
▁different	-1000
▁nature	-1001
enior	-1002
inant	-1003
▁Comp	-1004
ries	-1005
way	-1006
▁comple	-1007
sequent	-1008
▁terms	-1009
▁ele	-1010
▁see	-1011
▁car	-1012
ode	-1013
▁entit	-1014
▁process	-1015
▁down	-1016
▁alleged	-1017
mitt	-1018
▁action	-1019
ix	-1020
▁dem	-1021
▁incident	-1022
▁Coun	-1023
▁mon	-1024
ang	-1025
inted	-1026
ourse	-1027
read	-1028
▁min	-1029
▁det	-1030
iry	-1031
▁during	-1032
ross	-1033
of	-1034
▁Thus	-1035
ability	-1036
▁company	-1037
allen	-1038
▁vi	-1039
man	-1040
▁us	-1041
▁due	-1042
AN	-1043
▁came	-1044
uty	-1045
mittee	-1046
▁three	-1047
ha	-1048
ram	-1049
▁non	-1050
▁expres	-1051
▁sit	-1052
ital	-1053
partment	-1054
ret	-1055
pur	-1056
▁charge	-1057
▁specific	-1058
▁ins	-1059
▁lim	-1060
▁benef	-1061
▁Reg	-1062
ily	-1063
half	-1064
ending	-1065
rent	-1066
▁behalf	-1067
----	-1068
ight	-1069
▁those	-1070
▁referred	-1071
▁Bh	-1072
ivil	-1073
aila	-1074
▁according	-1075
12	-1076
4;	-1077
124;	-1078
▁&#124;	-1079
▁Police	-1080
ather	-1081
▁opp	-1082
lied	-1083
▁since	-1084
▁used	-1085
ized	-1086
▁submit	-1087
▁our	-1088
bers	-1089
▁complainant	-1090
▁Respondent	-1091
▁sale	-1092
ith	-1093
crib	-1094
▁complaint	-1095
lusion	-1096
▁investigation	-1097
▁son	-1098
▁Raj	-1099
▁te	-1100
▁appointment	-1101
▁Shri	-1102
▁deter	-1103
oard	-1104
anch	-1105
ices	-1106
ived	-1107
▁Sec	-1108
lig	-1109
▁contention	-1110
▁entitled	-1111
orted	-1112
▁gen	-1113
▁inf	-1114
▁challen	-1115
ral	-1116
▁fav	-1117
▁Ru	-1118
lan	-1119
▁admitted	-1120
▁dou	-1121
▁manner	-1122
▁inju	-1123
▁exercise	-1124
ants	-1125
▁direct	-1126
▁employe	-1127
ides	-1128
▁itself	-1129
.-	-1130
velo	-1131
▁documents	-1132
▁dist	-1133
ready	-1134
▁already	-1135
▁tre	-1136
▁word	-1137
ful	-1138
▁Officer	-1139
▁examination	-1140
ator	-1141
▁¦	-1142
▁particular	-1143
▁	-1144
hip	-1145
▁point	-1146
ural	-1147
▁good	-1148
▁She	-1149
▁back	-1150
▁observed	-1151
▁year	-1152
▁determin	-1153
ences	-1154
ys	-1155
quiry	-1156
▁committed	-1157
▁den	-1158
▁following	-1159
▁cause	-1160
iness	-1161
▁availa	-1162
▁let	-1163
▁subst	-1164
▁favour	-1165
▁criminal	-1166
ying	-1167
less	-1168
▁constru	-1169
ave	-1170
resent	-1171
▁Rules	-1172
▁examined	-1173
▁bus	-1174
▁certain	-1175
▁allowed	-1176
cedure	-1177
▁legisl	-1178
▁Cr	-1179
▁Man	-1180
▁mis	-1181
▁very	-1182
▁month	-1183
velop	-1184
▁call	-1185
ational	-1186
▁Ar	-1187
▁tax	-1188
ater	-1189
▁herein	-1190
▁vari	-1191
▁dispute	-1192
▁contin	-1193
tained	-1194
▁way	-1195
▁adv	-1196
▁Code	-1197
ety	-1198
▁thus	-1199
▁ident	-1200
▁doubt	-1201
▁though	-1202
▁earli	-1203
▁According	-1204
▁Learned	-1205
▁result	-1206
ents	-1207
▁Village	-1208
▁pass	-1209
ately	-1210
▁entire	-1211
▁placed	-1212
▁sett	-1213
▁mentioned	-1214
▁body	-1215
▁reasons	-1216
▁need	-1217
▁dismissed	-1218
▁At	-1219
▁co	-1220
leg	-1221
ency	-1222
▁Fu	-1223
▁provided	-1224
▁raised	-1225
▁En	-1226
▁cross	-1227
raph	-1228
pted	-1229
▁occur	-1230
▁contended	-1231
▁along	-1232
hat	-1233
▁available	-1234
▁course	-1235
▁sim	-1236
ft	-1237
ian	-1238
▁	-1239
▁rest	-1240
uation	-1241
ric	-1242
▁mer	-1243
▁each	-1244
jud	-1245
▁Rule	-1246
con	-1247
atis	-1248
▁orders	-1249
ma	-1250
▁Sc	-1251
orpor	-1252
▁reject	-1253
▁like	-1254
heme	-1255
▁Board	-1256
▁conclusion	-1257
▁granted	-1258
▁mere	-1259
▁pun	-1260
▁document	-1261
▁payment	-1262
▁second	-1263
▁come	-1264
▁proved	-1265
▁earlier	-1266
▁exist	-1267
▁rights	-1268
atisf	-1269
▁Cent	-1270
ck	-1271
▁Ass	-1272
val	-1273
▁ru	-1274
ality	-1275
oci	-1276
anc	-1277
▁equ	-1278
▁another	-1279
ew	-1280
▁justice	-1281
▁members	-1282
ock	-1283
▁either	-1284
▁But	-1285
istered	-1286
▁abs	-1287
▁Committee	-1288
ivision	-1289
▁That	-1290
wise	-1291
▁dra	-1292
ilar	-1293
▁reference	-1294
▁know	-1295
▁invol	-1296
hib	-1297
ury	-1298
▁stage	-1299
▁compens	-1300
ters	-1301
na	-1302
▁position	-1303
▁however	-1304
▁judicial	-1305
▁Sub	-1306
▁mean	-1307
▁bu	-1308
lly	-1309
▁ten	-1310
ief	-1311
▁information	-1312
▁Vs	-1313
▁prev	-1314
ool	-1315
▁various	-1316
▁ve	-1317
▁satisf	-1318
▁resident	-1319
▁based	-1320
ament	-1321
▁er	-1322
ried	-1323
edical	-1324
▁For	-1325
ogn	-1326
see	-1327
llate	-1328
▁require	-1329
▁contr	-1330
AT	-1331
port	-1332
utory	-1333
pital	-1334
amily	-1335
ared	-1336
au	-1337
▁alleg	-1338
▁lo	-1339
air	-1340
▁y	-1341
▁represent	-1342
ister	-1343
▁far	-1344
cribed	-1345
▁duty	-1346
▁support	-1347
▁num	-1348
▁Dire	-1349
yed	-1350
▁put	-1351
hes	-1352
▁sign	-1353
lement	-1354
ood	-1355
▁indic	-1356
rect	-1357
▁below	-1358
ditional	-1359
ya	-1360
▁relied	-1361
inary	-1362
▁business	-1363
sible	-1364
▁priv	-1365
andid	-1366
▁clearly	-1367
▁mar	-1368
▁oper	-1369
AL	-1370
▁compensation	-1371
ictim	-1372
anj	-1373
▁nor	-1374
▁including	-1375
▁Hon	-1376
idav	-1377
arge	-1378
▁appropri	-1379
▁candid	-1380
yer	-1381
▁pen	-1382
▁paid	-1383
▁registered	-1384
▁done	-1385
tal	-1386
kh	-1387
▁final	-1388
▁Adv	-1389
by	-1390
atory	-1391
▁victim	-1392
▁cr	-1393
istration	-1394
uch	-1395
▁ble	-1396
▁depos	-1397
▁che	-1398
▁decl	-1399
▁punish	-1400
▁Central	-1401
▁cert	-1402
▁valid	-1403
td	-1404
chool	-1405
▁ph	-1406
▁aside	-1407
los	-1408
▁cop	-1409
▁Division	-1410
cepted	-1411
▁Mah	-1412
ures	-1413
iding	-1414
▁il	-1415
▁say	-1416
▁viol	-1417
▁illeg	-1418
▁relief	-1419
ocate	-1420
▁taking	-1421
▁section	-1422
▁appearing	-1423
▁open	-1424
▁Author	-1425
rence	-1426
▁orig	-1427
▁Commissioner	-1428
▁Counsel	-1429
▁principle	-1430
▁Ag	-1431
band	-1432
▁exc	-1433
ning	-1434
par	-1435
▁prom	-1436
▁reasonable	-1437
▁fac	-1438
▁Mo	-1439
ange	-1440
▁aspect	-1441
irm	-1442
▁accept	-1443
▁pra	-1444
ising	-1445
▁father	-1446
ages	-1447
unction	-1448
▁purch	-1449
▁clause	-1450
▁dela	-1451
▁rule	-1452
▁affidav	-1453
app	-1454
▁accepted	-1455
▁get	-1456
▁seek	-1457
▁accord	-1458
▁directed	-1459
▁received	-1460
▁decree	-1461
▁appropriate	-1462
▁Department	-1463
▁sought	-1464
▁Ltd	-1465
ell	-1466
ached	-1467
▁init	-1468
ateg	-1469
▁Company	-1470
▁wife	-1471
unity	-1472
▁conduct	-1473
fficient	-1474
00	-1475
▁sum	-1476
pec	-1477
▁mind	-1478
ociety	-1479
▁otherwise	-1480
essee	-1481
▁adver	-1482
edu	-1483
▁conditions	-1484
ested	-1485
▁colle	-1486
▁hearing	-1487
▁family	-1488
▁thereafter	-1489
itation	-1490
▁laid	-1491
▁assess	-1492
▁making	-1493
▁finding	-1494
▁Gu	-1495
▁took	-1496
iling	-1497
▁except	-1498
lying	-1499
▁give	-1500
▁sentence	-1501
▁cre	-1502
icle	-1503
▁discus	-1504
▁Courts	-1505
▁plead	-1506
▁They	-1507
▁new	-1508
▁IPC	-1509
▁establish	-1510
▁Del	-1511
▁Mag	-1512
▁demand	-1513
unic	-1514
▁prot	-1515
▁Bi	-1516
▁statutory	-1517
▁every	-1518
▁FIR	-1519
▁sug	-1520
▁interf	-1521
▁perform	-1522
▁child	-1523
▁defence	-1524
▁When	-1525
▁injuries	-1526
overed	-1527
▁et	-1528
▁Further	-1529
▁defendants	-1530
ions	-1531
▁After	-1532
ts	-1533
velopment	-1534
▁regarding	-1535
hing	-1536
▁letter	-1537
▁AIR	-1538
▁submits	-1539
▁Bank	-1540
▁Petitioner	-1541
▁written	-1542
▁use	-1543
▁produced	-1544
▁number	-1545
▁etc	-1546
ati	-1547
▁substant	-1548
▁senior	-1549
▁correct	-1550
▁jo	-1551
arent	-1552
agraph	-1553
▁categ	-1554
orporation	-1555
▁All	-1556
▁principles	-1557
▁life	-1558
▁occurrence	-1559
▁contro	-1560
pecial	-1561
▁Min	-1562
ison	-1563
▁decisions	-1564
▁pl	-1565
licy	-1566
▁add	-1567
eep	-1568
ospital	-1569
pe	-1570
▁seen	-1571
ey	-1572
▁Delhi	-1573
endent	-1574
▁constit	-1575
▁sur	-1576
rie	-1577
▁promot	-1578
▁transfer	-1579
af	-1580
▁Magistr	-1581
▁fin	-1582
▁Dr	-1583
▁Pra	-1584
▁rules	-1585
▁ser	-1586
▁delay	-1587
▁appre	-1588
▁words	-1589
su	-1590
▁brought	-1591
▁area	-1592
▁ir	-1593
spect	-1594
▁import	-1595
▁Chief	-1596
▁Indian	-1597
▁appears	-1598
▁procedure	-1599
▁now	-1600
▁recover	-1601
▁goods	-1602
▁others	-1603
tern	-1604
▁applicant	-1605
up	-1606
▁office	-1607
arily	-1608
▁sufficient	-1609
ring	-1610
▁fram	-1611
ibility	-1612
▁liable	-1613
▁charges	-1614
rong	-1615
▁accordance	-1616
▁powers	-1617
▁scheme	-1618
▁Magistrate	-1619
▁enter	-1620
▁affidavit	-1621
utes	-1622
▁Civil	-1623
oney	-1624
▁Authority	-1625
usband	-1626
▁guil	-1627
arch	-1628
▁meet	-1629
▁appointed	-1630
▁prove	-1631
ress	-1632
▁failed	-1633
▁conn	-1634
▁offic	-1635
section	-1636
▁Sri	-1637
▁bank	-1638
▁compet	-1639
▁deed	-1640
lection	-1641
emp	-1642
▁end	-1643
▁thereof	-1644
▁constitution	-1645
sw	-1646
▁intention	-1647
▁regul	-1648
▁original	-1649
ivid	-1650
ivers	-1651
▁dep	-1652
ext	-1653
▁prior	-1654
▁fund	-1655
duced	-1656
cation	-1657
▁decided	-1658
▁interpre	-1659
▁benefit	-1660
▁continu	-1661
reed	-1662
▁Be	-1663
examin	-1664
▁subsequent	-1665
▁follows	-1666
▁institution	-1667
▁injury	-1668
▁established	-1669
ificate	-1670
▁Tr	-1671
EN	-1672
▁proceeding	-1673
ER	-1674
▁prim	-1675
▁tra	-1676
▁Corporation	-1677
▁settled	-1678
ON	-1679
▁err	-1680
▁denied	-1681
▁lic	-1682
▁maintain	-1683
▁conviction	-1684
▁absence	-1685
▁remain	-1686
▁prescribed	-1687
▁petitions	-1688
action	-1689
▁husband	-1690
▁suff	-1691
▁income	-1692
▁Director	-1693
ender	-1694
▁mot	-1695
▁arre	-1696
ured	-1697
▁veh	-1698
omm	-1699
ony	-1700
▁Par	-1701
▁Hence	-1702
▁unless	-1703
▁met	-1704
▁fal	-1705
resh	-1706
▁Even	-1707
▁accordingly	-1708
war	-1709
wards	-1710
▁money	-1711
▁declar	-1712
▁value	-1713
uk	-1714
▁amend	-1715
▁note	-1716
▁months	-1717
▁Mad	-1718
▁courts	-1719
sol	-1720
▁left	-1721
▁common	-1722
ird	-1723
▁cust	-1724
▁matters	-1725
▁san	-1726
▁Chand	-1727
▁special	-1728
ically	-1729
▁fix	-1730
▁answ	-1731
▁offences	-1732
▁loc	-1733
sp	-1734
▁heard	-1735
▁policy	-1736
ify	-1737
▁Am	-1738
▁disclos	-1739
▁private	-1740
▁vide	-1741
▁So	-1742
▁holding	-1743
▁village	-1744
▁admin	-1745
▁Eng	-1746
▁paragraph	-1747
ani	-1748
IT	-1749
ustice	-1750
▁provides	-1751
▁noted	-1752
▁therein	-1753
▁copy	-1754
▁complete	-1755
▁cred	-1756
........	-1757
▁days	-1758
▁contained	-1759
▁my	-1760
hile	-1761
agar	-1762
▁till	-1763
▁employees	-1764
▁filing	-1765
ov	-1766
▁opport	-1767
▁light	-1768
▁bail	-1769
▁applicable	-1770
▁Order	-1771
pex	-1772
▁deposed	-1773
▁separ	-1774
▁lead	-1775
▁individ	-1776
▁merely	-1777
▁class	-1778
▁namely	-1779
▁brother	-1780
▁ask	-1781
▁plaintiffs	-1782
ept	-1783
▁rejected	-1784
▁Gen	-1785
▁spot	-1786
▁apply	-1787
▁possible	-1788
▁dead	-1789
gar	-1790
▁acquit	-1791
▁arbitration	-1792
▁mand	-1793
▁premis	-1794
▁prep	-1795
▁similar	-1796
▁medical	-1797
rix	-1798
ks	-1799
▁caused	-1800
▁extent	-1801
▁relating	-1802
▁Advocate	-1803
▁Nos	-1804
vi	-1805
▁Station	-1806
arr	-1807
▁went	-1808
▁Senior	-1809
▁contrary	-1810
ential	-1811
als	-1812
law	-1813
▁vac	-1814
▁disch	-1815
▁called	-1816
▁considering	-1817
▁review	-1818
empt	-1819
OR	-1820
with	-1821
ging	-1822
▁qual	-1823
▁ren	-1824
▁pract	-1825
▁neg	-1826
ively	-1827
▁construction	-1828
--------	-1829
▁owner	-1830
iary	-1831
▁submissions	-1832
oup	-1833
▁lit	-1834
riage	-1835
ties	-1836
▁individual	-1837
▁Pat	-1838
▁reported	-1839
▁fore	-1840
▁grounds	-1841
uly	-1842
▁Bihar	-1843
▁Ra	-1844
▁tit	-1845
▁statements	-1846
▁Co	-1847
▁claimed	-1848
▁direction	-1849
▁build	-1850
▁Cla	-1851
utive	-1852
▁situation	-1853
▁false	-1854
▁file	-1855
anding	-1856
▁assessee	-1857
▁To	-1858
asad	-1859
hen	-1860
▁general	-1861
atural	-1862
▁ur	-1863
▁cost	-1864
taining	-1865
igned	-1866
ED	-1867
for	-1868
▁prof	-1869
ower	-1870
▁bey	-1871
icles	-1872
▁deli	-1873
ives	-1874
▁beyond	-1875
▁fail	-1876
▁opportunity	-1877
▁enquiry	-1878
IC	-1879
venue	-1880
▁refer	-1881
▁Special	-1882
▁Not	-1883
IN	-1884
▁pending	-1885
▁mother	-1886
▁sever	-1887
▁detail	-1888
▁General	-1889
iced	-1890
ught	-1891
▁Ro	-1892
▁...	-1893
▁findings	-1894
▁propos	-1895
▁giving	-1896
▁conducted	-1897
ines	-1898
ons	-1899
oid	-1900
ually	-1901
▁respon	-1902
▁sanction	-1903
▁appeals	-1904
▁long	-1905
▁Secret	-1906
agement	-1907
lanation	-1908
▁nothing	-1909
missible	-1910
▁towards	-1911
az	-1912
▁sust	-1913
▁force	-1914
▁presence	-1915
▁judgments	-1916
▁sugg	-1917
▁Union	-1918
▁crime	-1919
▁declaration	-1920
examination	-1921
▁services	-1922
▁Appellant	-1923
▁instru	-1924
orn	-1925
▁share	-1926
▁meaning	-1927
▁illegal	-1928
▁Thereafter	-1929
arn	-1930
▁fe	-1931
▁Prasad	-1932
▁list	-1933
▁pat	-1934
▁bo	-1935
▁means	-1936
▁prosecut	-1937
▁indep	-1938
▁arrest	-1939
▁pointed	-1940
▁challenge	-1941
▁care	-1942
omp	-1943
▁framed	-1944
▁vehicle	-1945
▁mur	-1946
▁himself	-1947
▁appellate	-1948
▁Apex	-1949
▁statute	-1950
▁Justice	-1951
▁para	-1952
▁Colle	-1953
▁bid	-1954
▁ess	-1955
isition	-1956
▁art	-1957
▁away	-1958
ulation	-1959
bor	-1960
▁Public	-1961
▁instant	-1962
▁employee	-1963
ger	-1964
▁certificate	-1965
▁Cont	-1966
▁deem	-1967
▁Such	-1968
▁fair	-1969
▁Trial	-1970
ata	-1971
▁title	-1972
▁appreci	-1973
▁premises	-1974
▁expression	-1975
▁decla	-1976
▁recovery	-1977
ta	-1978
▁Te	-1979
▁ens	-1980
▁shown	-1981
▁event	-1982
▁four	-1983
▁admission	-1984
▁society	-1985
▁notification	-1986
chn	-1987
▁involved	-1988
▁stud	-1989
▁Arbitr	-1990
▁Single	-1991
ense	-1992
▁argued	-1993
▁presum	-1994
oss	-1995
▁civil	-1996
ira	-1997
▁affect	-1998
▁context	-1999
▁commission	-2000
ering	-2001
▁treated	-2002
▁allegations	-2003
ik	-2004
▁sy	-2005
▁Lal	-2006
▁issues	-2007
liance	-2008
▁informed	-2009
▁Univers	-2010
umb	-2011
▁bl	-2012
▁These	-2013
▁assa	-2014
reat	-2015
▁never	-2016
▁true	-2017
▁count	-2018
▁properties	-2019
▁mo	-2020
▁pe	-2021
AD	-2022
▁wrong	-2023
tak	-2024
▁Panch	-2025
▁mod	-2026
gr	-2027
▁several	-2028
judic	-2029
▁dau	-2030
▁executed	-2031
▁testim	-2032
▁side	-2033
▁constitutional	-2034
ST	-2035
ably	-2036
▁serious	-2037
▁wherein	-2038
▁election	-2039
ancial	-2040
▁Shar	-2041
▁argument	-2042
▁much	-2043
▁Secretary	-2044
▁bre	-2045
ink	-2046
▁merit	-2047
▁Since	-2048
▁activ	-2049
▁arri	-2050
has	-2051
ises	-2052
▁Law	-2053
ledge	-2054
hold	-2055
▁bar	-2056
▁provide	-2057
▁fall	-2058
to	-2059
▁assessment	-2060
▁fra	-2061
▁head	-2062
▁rend	-2063
▁dri	-2064
usal	-2065
medi	-2066
▁noticed	-2067
▁recogn	-2068
▁termin	-2069
▁receip	-2070
▁plea	-2071
▁Resident	-2072
▁natural	-2073
▁Son	-2074
poses	-2075
▁recomm	-2076
▁hen	-2077
▁Appeal	-2078
und	-2079
uman	-2080
get	-2081
▁competent	-2082
▁got	-2083
▁how	-2084
▁nex	-2085
hedu	-2086
▁applied	-2087
hedule	-2088
▁hence	-2089
cing	-2090
iated	-2091
▁exper	-2092
ves	-2093
que	-2094
▁candidates	-2095
soci	-2096
den	-2097
▁specified	-2098
ope	-2099
▁commit	-2100
▁officer	-2101
▁vis	-2102
wal	-2103
▁oppos	-2104
retion	-2105
▁cap	-2106
▁rate	-2107
garh	-2108
lood	-2109
▁prepared	-2110
▁eye	-2111
▁lod	-2112
▁execution	-2113
olution	-2114
▁Sm	-2115
hibit	-2116
▁reliance	-2117
▁liability	-2118
▁last	-2119
▁amendment	-2120
cil	-2121
▁real	-2122
abad	-2123
▁consent	-2124
ghter	-2125
▁While	-2126
▁Whether	-2127
▁Lim	-2128
▁specifically	-2129
lf	-2130
▁remed	-2131
eed	-2132
▁age	-2133
▁interpret	-2134
row	-2135
ana	-2136
▁discretion	-2137
nex	-2138
aged	-2139
uf	-2140
ination	-2141
▁Criminal	-2142
▁run	-2143
▁marriage	-2144
▁Serv	-2145
▁high	-2146
▁x	-2147
▁Ext	-2148
▁defin	-2149
▁less	-2150
▁followed	-2151
anies	-2152
ayat	-2153
ways	-2154
▁reads	-2155
▁allot	-2156
▁ver	-2157
▁expla	-2158
▁neither	-2159
▁revision	-2160
▁adjudic	-2161
IL	-2162
▁objection	-2163
▁hig	-2164
▁directions	-2165
▁port	-2166
▁Under	-2167
▁loss	-2168
▁appear	-2169
▁undertak	-2170
▁contain	-2171
▁interim	-2172
▁reserv	-2173
▁leave	-2174
▁And	-2175
aving	-2176
▁asked	-2177
▁carry	-2178
▁obtained	-2179
▁Ab	-2180
▁rendered	-2181
▁Pres	-2182
▁fr	-2183
▁University	-2184
ield	-2185
▁independent	-2186
urned	-2187
▁norm	-2188
ulted	-2189
▁requirement	-2190
▁project	-2191
cer	-2192
ires	-2193
▁third	-2194
▁ought	-2195
▁permission	-2196
▁nam	-2197
▁edu	-2198
vel	-2199
▁testimony	-2200
▁knowledge	-2201
▁susp	-2202
ension	-2203
▁und	-2204
rison	-2205
▁observations	-2206
▁registration	-2207
ancy	-2208
▁prosecutrix	-2209
gment	-2210
▁keep	-2211
▁essential	-2212
▁Writ	-2213
olog	-2214
▁treat	-2215
UR	-2216
essions	-2217
yment	-2218
▁purposes	-2219
▁daughter	-2220
▁penal	-2221
▁decide	-2222
▁working	-2223
▁trust	-2224
risonment	-2225
fu	-2226
acc	-2227
ipl	-2228
▁become	-2229
uled	-2230
▁enfor	-2231
ES	-2232
▁near	-2233
▁enc	-2234
▁lib	-2235
▁oblig	-2236
▁counter	-2237
▁super	-2238
▁challenged	-2239
lect	-2240
▁school	-2241
▁building	-2242
▁look	-2243
tion	-2244
luded	-2245
ipur	-2246
▁additional	-2247
ulated	-2248
▁relation	-2249
▁imprisonment	-2250
▁Additional	-2251
ruct	-2252
▁murder	-2253
lled	-2254
lie	-2255
▁blood	-2256
acher	-2257
▁financial	-2258
▁sal	-2259
▁bound	-2260
▁request	-2261
BI	-2262
१०	-2263
▁Def	-2264
endra	-2265
▁price	-2266
▁market	-2267
▁punishment	-2268
▁gra	-2269
arant	-2270
▁records	-2271
▁shows	-2272
▁immedi	-2273
iso	-2274
lim	-2275
▁inquiry	-2276
▁examine	-2277
▁credit	-2278
▁fee	-2279
▁Assist	-2280
▁lease	-2281
▁Parli	-2282
▁asse	-2283
▁absol	-2284
▁Parliament	-2285
▁substantial	-2286
▁dam	-2287
▁underst	-2288
▁kept	-2289
▁disposed	-2290
▁gone	-2291
▁Sharma	-2292
ining	-2293
▁anal	-2294
▁full	-2295
RI	-2296
fully	-2297
ufact	-2298
▁Clause	-2299
▁eng	-2300
▁recovered	-2301
▁AG	-2302
▁Will	-2303
ected	-2304
▁five	-2305
▁regular	-2306
▁Prad	-2307
▁Chhat	-2308
▁Smt	-2309
▁return	-2310
▁entered	-2311
▁materials	-2312
▁pursu	-2313
amental	-2314
▁By	-2315
▁questions	-2316
▁exercised	-2317
▁development	-2318
▁dismiss	-2319
▁guilty	-2320
▁member	-2321
▁approval	-2322
ards	-2323
▁Sim	-2324
▁minor	-2325
▁Sah	-2326
▁agg	-2327
▁custody	-2328
▁states	-2329
sequently	-2330
▁important	-2331
▁scope	-2332
▁total	-2333
▁str	-2334
▁selection	-2335
ake	-2336
gan	-2337
ople	-2338
▁receipt	-2339
▁Dist	-2340
▁Council	-2341
▁function	-2342
ends	-2343
▁declared	-2344
tis	-2345
lose	-2346
▁satisfied	-2347
▁situ	-2348
▁awarded	-2349
▁once	-2350
▁control	-2351
▁relations	-2352
▁Accordingly	-2353
stem	-2354
jo	-2355
icted	-2356
ala	-2357
ience	-2358
▁fixed	-2359
▁har	-2360
▁First	-2361
ION	-2362
▁Leg	-2363
▁Pla	-2364
▁next	-2365
▁six	-2366
rieved	-2367
▁School	-2368
▁consist	-2369
▁proviso	-2370
▁permitted	-2371
imum	-2372
vers	-2373
▁interpretation	-2374
go	-2375
▁bal	-2376
▁express	-2377
▁merits	-2378
▁Assistant	-2379
▁Moh	-2380
▁meeting	-2381
ick	-2382
▁furn	-2383
alth	-2384
lt	-2385
▁facie	-2386
▁seeking	-2387
▁term	-2388
▁department	-2389
isted	-2390
enced	-2391
▁PO	-2392
▁explanation	-2393
ogniz	-2394
▁stay	-2395
▁claims	-2396
▁hospital	-2397
inding	-2398
▁summ	-2399
▁es	-2400
▁accident	-2401
▁short	-2402
▁manufact	-2403
tisgarh	-2404
▁step	-2405
▁Part	-2406
▁succ	-2407
▁respective	-2408
reg	-2409
orth	-2410
▁violation	-2411
▁proof	-2412
▁urged	-2413
▁drawn	-2414
▁aut	-2415
▁seized	-2416
▁aver	-2417
▁categor	-2418
▁mort	-2419
▁absolute	-2420
▁free	-2421
uses	-2422
▁Yad	-2423
▁deemed	-2424
bh	-2425
▁Appellate	-2426
▁vers	-2427
mber	-2428
▁Registr	-2429
aran	-2430
▁Mem	-2431
▁Chhattisgarh	-2432
illed	-2433
▁whole	-2434
ruit	-2435
▁prob	-2436
▁existence	-2437
▁joint	-2438
▁belong	-2439
▁ensure	-2440
▁limitation	-2441
▁distin	-2442
▁emphas	-2443
▁dispos	-2444
iter	-2445
▁Where	-2446
▁discussion	-2447
▁remo	-2448
▁details	-2449
▁tender	-2450
▁occup	-2451
▁Panchayat	-2452
▁passing	-2453
▁From	-2454
▁approach	-2455
▁fundamental	-2456
▁rightly	-2457
▁acquired	-2458
▁consequ	-2459
▁separate	-2460
dra	-2461
▁bring	-2462
▁fl	-2463
▁error	-2464
▁posts	-2465
▁transaction	-2466
rut	-2467
ares	-2468
omet	-2469
No	-2470
urance	-2471
urity	-2472
▁prima	-2473
▁parent	-2474
▁acquisition	-2475
▁elig	-2476
▁people	-2477
ercial	-2478
▁plaint	-2479
▁Procedure	-2480
▁whom	-2481
▁permit	-2482
▁reached	-2483
▁litig	-2484
▁President	-2485
▁Nar	-2486
▁meas	-2487
ustrial	-2488
iously	-2489
▁plan	-2490
▁cogniz	-2491
▁many	-2492
▁whose	-2493
▁promotion	-2494
▁Yadav	-2495
▁injured	-2496
▁instance	-2497
▁cance	-2498
▁known	-2499
▁later	-2500
▁agreed	-2501
omic	-2502
▁imposed	-2503
ajor	-2504
iving	-2505
▁stip	-2506
▁Tax	-2507
▁communic	-2508
▁sole	-2509
▁Limited	-2510
▁applications	-2511
▁prevent	-2512
aled	-2513
▁lands	-2514
▁Sessions	-2515
▁With	-2516
▁carried	-2517
HE	-2518
▁Inv	-2519
▁personal	-2520
▁trade	-2521
▁injunction	-2522
unicip	-2523
▁liber	-2524
▁legislature	-2525
omb	-2526
ane	-2527
▁connection	-2528
▁preferred	-2529
empl	-2530
▁OF	-2531
▁Engine	-2532
aya	-2533
▁system	-2534
▁guarant	-2535
ours	-2536
▁techn	-2537
▁country	-2538
wan	-2539
▁withdra	-2540
▁prejud	-2541
▁limited	-2542
▁reply	-2543
▁punishable	-2544
▁wom	-2545
▁Pradesh	-2546
rutin	-2547
▁quas	-2548
▁New	-2549
▁water	-2550
istrative	-2551
▁supplied	-2552
▁remedy	-2553
▁quot	-2554
▁fit	-2555
▁Ev	-2556
gether	-2557
▁together	-2558
▁adverse	-2559
▁product	-2560
▁most	-2561
opted	-2562
▁arbitrator	-2563
▁Gr	-2564
▁told	-2565
▁benefits	-2566
▁Second	-2567
▁why	-2568
unt	-2569
▁candidate	-2570
▁Defendant	-2571
▁IT	-2572
▁government	-2573
▁sing	-2574
▁died	-2575
▁Al	-2576
▁legislation	-2577
▁adopted	-2578
▁diffic	-2579
▁stands	-2580
aff	-2581
▁higher	-2582
▁station	-2583
▁implic	-2584
▁category	-2585
▁Me	-2586
AM	-2587
▁clar	-2588
sh	-2589
▁performance	-2590
▁Plaintiff	-2591
robor	-2592
▁Though	-2593
ocial	-2594
OU	-2595
▁alone	-2596
▁expect	-2597
thing	-2598
▁reve	-2599
▁sell	-2600
spector	-2601
▁Lab	-2602
▁tenant	-2603
▁fraud	-2604
▁interference	-2605
men	-2606
▁thereby	-2607
▁particip	-2608
ctr	-2609
▁owners	-2610
▁arguments	-2611
▁identified	-2612
▁advert	-2613
▁large	-2614
irmed	-2615
▁sheet	-2616
▁room	-2617
manent	-2618
PP	-2619
▁justified	-2620
pective	-2621
▁contra	-2622
ously	-2623
ilities	-2624
▁ill	-2625
▁duly	-2626
▁nom	-2627
▁employer	-2628
imate	-2629
▁field	-2630
▁Edu	-2631
isc	-2632
▁simp	-2633
mb	-2634
▁perusal	-2635
angu	-2636
▁convicted	-2637
▁able	-2638
ailed	-2639
▁ult	-2640
vis	-2641
▁saf	-2642
▁pension	-2643
▁Ors	-2644
acy	-2645
▁Judges	-2646
ara	-2647
▁Similar	-2648
irt	-2649
acity	-2650
▁always	-2651
▁detention	-2652
▁going	-2653
▁makes	-2654
▁enact	-2655
▁corrobor	-2656
▁validity	-2657
▁dealing	-2658
▁existing	-2659
▁human	-2660
▁major	-2661
▁Bal	-2662
▁Jam	-2663
▁particularly	-2664
▁arise	-2665
▁initial	-2666
▁recommend	-2667
▁design	-2668
▁rent	-2669
▁acts	-2670
▁treatment	-2671
▁consp	-2672
using	-2673
▁warr	-2674
▁contempl	-2675
▁still	-2676
▁tried	-2677
▁Annex	-2678
▁Hospital	-2679
▁children	-2680
▁liberty	-2681
▁Se	-2682
itiz	-2683
▁Legisl	-2684
racted	-2685
▁discharge	-2686
ull	-2687
▁fresh	-2688
▁More	-2689
▁invok	-2690
ti	-2691
११	-2692
ruitment	-2693
▁portion	-2694
▁Dep	-2695
▁employment	-2696
urer	-2697
olit	-2698
anced	-2699
be	-2700
ened	-2701
▁continue	-2702
lp	-2703
lock	-2704
▁breach	-2705
pr	-2706
▁sustained	-2707
▁intended	-2708
▁status	-2709
▁shares	-2710
▁evident	-2711
▁Development	-2712
▁shop	-2713
utor	-2714
▁assum	-2715
inate	-2716
▁xx	-2717
▁sk	-2718
ET	-2719
▁dedu	-2720
▁gener	-2721
▁change	-2722
roduced	-2723
EAR	-2724
▁Sar	-2725
▁imm	-2726
▁disputed	-2727
▁supported	-2728
ali	-2729
▁Exec	-2730
under	-2731
▁road	-2732
erve	-2733
▁sm	-2734
▁impro	-2735
▁requires	-2736
▁authorities	-2737
▁interfere	-2738
▁disclosed	-2739
▁relationship	-2740
sid	-2741
▁immediately	-2742
▁Medical	-2743
aper	-2744
▁allegation	-2745
cle	-2746
▁star	-2747
▁bro	-2748
though	-2749
▁oral	-2750
▁permanent	-2751
▁bur	-2752
▁expressed	-2753
▁Madh	-2754
▁Bar	-2755
une	-2756
▁payable	-2757
ctors	-2758
▁quant	-2759
▁led	-2760
▁Devi	-2761
-0	-2762
▁substance	-2763
▁contentions	-2764
▁help	-2765
▁whereas	-2766
▁deposit	-2767
▁penalty	-2768
▁claimant	-2769
▁determination	-2770
▁enforce	-2771
▁basic	-2772
equ	-2773
side	-2774
▁management	-2775
,00	-2776
ENT	-2777
▁single	-2778
▁unf	-2779
▁Investig	-2780
rish	-2781
pite	-2782
▁defa	-2783
▁confession	-2784
▁prayer	-2785
▁langu	-2786
HA	-2787
▁group	-2788
aka	-2789
▁Registrar	-2790
▁discipl	-2791
omes	-2792
▁Manag	-2793
▁Prosec	-2794
▁acquittal	-2795
▁Evidence	-2796
▁ign	-2797
uting	-2798
▁Ash	-2799
▁aggrieved	-2800
ored	-2801
▁consum	-2802
iation	-2803
▁Exhibit	-2804
▁reading	-2805
ery	-2806
▁restr	-2807
▁Mahar	-2808
▁ut	-2809
▁Revenue	-2810
acter	-2811
riev	-2812
▁forward	-2813
▁licence	-2814
▁presumption	-2815
▁Deputy	-2816
ulations	-2817
ama	-2818
▁wee	-2819
▁factual	-2820
▁compliance	-2821
▁protection	-2822
▁Annexure	-2823
▁fine	-2824
▁lodged	-2825
▁returned	-2826
gth	-2827
ling	-2828
▁Kh	-2829
oper	-2830
▁Of	-2831
▁vol	-2832
▁Ka	-2833
▁attempt	-2834
▁proposed	-2835
▁occas	-2836
▁operation	-2837
tra	-2838
▁belie	-2839
▁judge	-2840
▁phys	-2841
▁character	-2842
▁impos	-2843
ert	-2844
▁version	-2845
▁Bomb	-2846
▁want	-2847
▁sex	-2848
▁Art	-2849
ently	-2850
▁gave	-2851
▁dealt	-2852
▁determined	-2853
▁addition	-2854
▁home	-2855
▁YEAR	-2856
▁Inspector	-2857
▁cho	-2858
aking	-2859
▁official	-2860
▁happ	-2861
ization	-2862
▁started	-2863
▁Pand	-2864
▁signed	-2865
▁purchase	-2866
ressed	-2867
unicipal	-2868
▁needs	-2869
▁Princip	-2870
▁security	-2871
▁burden	-2872
▁purchas	-2873
▁language	-2874
apon	-2875
▁citiz	-2876
▁plot	-2877
▁anything	-2878
day	-2879
▁seiz	-2880
▁tribunal	-2881
▁beh	-2882
▁YEARS	-2883
vey	-2884
kar	-2885
▁recording	-2886
▁representation	-2887
▁Bombay	-2888
▁weapon	-2889
lusive	-2890
▁previous	-2891
▁States	-2892
RA	-2893
▁apparent	-2894
atures	-2895
▁Scheme	-2896
▁failure	-2897
▁pleaded	-2898
▁Education	-2899
▁lab	-2900
▁judic	-2901
▁ST	-2902
ium	-2903
▁apart	-2904
ush	-2905
▁Chair	-2906
▁scrutin	-2907
▁conferred	-2908
▁fut	-2909
▁virt	-2910
▁coming	-2911
▁doing	-2912
▁social	-2913
▁discussed	-2914
▁contrad	-2915
▁too	-2916
uri	-2917
▁Pre	-2918
▁ann	-2919
ancies	-2920
heduled	-2921
▁spe	-2922
▁practice	-2923
▁Cl	-2924
▁balance	-2925
▁Em	-2926
▁One	-2927
▁Block	-2928
EC	-2929
▁aspects	-2930
▁covered	-2931
▁face	-2932
▁prayed	-2933
▁suggestion	-2934
▁arrived	-2935
▁THE	-2936
▁What	-2937
▁Service	-2938
▁cheque	-2939
▁His	-2940
accused	-2941
▁book	-2942
▁pleadings	-2943
▁concept	-2944
▁warrant	-2945
▁companies	-2946
de	-2947
iring	-2948
▁Jan	-2949
atives	-2950
ifications	-2951
▁local	-2952
▁cro	-2953
▁altern	-2954
pped	-2955
▁vested	-2956
pta	-2957
▁adj	-2958
▁crit	-2959
tic	-2960
▁Per	-2961
▁resolution	-2962
▁relig	-2963
▁outside	-2964
▁maintainable	-2965
▁answer	-2966
▁preced	-2967
▁incre	-2968
▁obligation	-2969
▁panch	-2970
jay	-2971
▁marks	-2972
▁definition	-2973
selves	-2974
utation	-2975
▁reiter	-2976
▁Govern	-2977
▁Gov	-2978
▁settlement	-2979
▁guilt	-2980
▁writing	-2981
▁unre	-2982
▁steps	-2983
▁Accused	-2984
▁yet	-2985
▁Agree	-2986
lu	-2987
vention	-2988
▁created	-2989
view	-2990
▁med	-2991
▁Prov	-2992
▁search	-2993
khand	-2994
▁NO	-2995
riv	-2996
ample	-2997
▁institutions	-2998
inder	-2999
standing	-3000
----------------	-3001
▁proceeded	-3002
uel	-3003
▁Comm	-3004
▁objections	-3005
▁informant	-3006
come	-3007
▁Karn	-3008
▁approved	-3009
▁arbitrary	-3010
▁draw	-3011
▁aw	-3012
▁liqu	-3013
heet	-3014
▁legislative	-3015
ees	-3016
II	-3017
,000	-3018
ricult	-3019
▁indicated	-3020
▁signature	-3021
ann	-3022
imes	-3023
▁role	-3024
▁attention	-3025
▁level	-3026
idel	-3027
▁Pen	-3028
▁Patna	-3029
▁fully	-3030
▁parents	-3031
adi	-3032
▁permissible	-3033
alc	-3034
▁Off	-3035
▁Executive	-3036
▁completed	-3037
▁cognizance	-3038
▁among	-3039
▁committee	-3040
▁Dh	-3041
▁Shiv	-3042
▁difficult	-3043
lies	-3044
▁amounts	-3045
empor	-3046
▁unt	-3047
ifying	-3048
UD	-3049
▁Prakhand	-3050
▁executive	-3051
appe	-3052
▁best	-3053
▁griev	-3054
▁transferred	-3055
▁col	-3056
AG	-3057
▁activities	-3058
ched	-3059
▁recruitment	-3060
▁explained	-3061
stitute	-3062
imately	-3063
▁doctor	-3064
▁supply	-3065
▁Judicial	-3066
▁commercial	-3067
▁Sat	-3068
▁....	-3069
▁names	-3070
▁Having	-3071
ators	-3072
ga	-3073
▁students	-3074
ift	-3075
▁Aug	-3076
▁void	-3077
uties	-3078
▁seizure	-3079
▁Gupta	-3080
▁becomes	-3081
ace	-3082
▁vot	-3083
▁opposite	-3084
▁Similarly	-3085
▁--	-3086
ats	-3087
▁capacity	-3088
ene	-3089
ructure	-3090
▁default	-3091
▁granting	-3092
▁fun	-3093
▁defined	-3094
▁Lord	-3095
▁Respondents	-3096
▁Report	-3097
▁articles	-3098
▁continued	-3099
▁During	-3100
▁debt	-3101
adu	-3102
tenance	-3103
▁forth	-3104
▁Penal	-3105
▁laws	-3106
▁National	-3107
▁hands	-3108
▁quashed	-3109
oj	-3110
▁dom	-3111
▁lev	-3112
lected	-3113
▁constitute	-3114
▁proposition	-3115
▁assist	-3116
ues	-3117
here	-3118
▁Sur	-3119
▁Society	-3120
▁dischar	-3121
▁Agreement	-3122
▁mandatory	-3123
isation	-3124
▁turn	-3125
▁entry	-3126
▁vs	-3127
ortem	-3128
▁determine	-3129
▁regards	-3130
▁include	-3131
▁repe	-3132
▁duties	-3133
▁teacher	-3134
cious	-3135
▁success	-3136
▁Ah	-3137
verse	-3138
▁firm	-3139
▁Super	-3140
▁organ	-3141
▁xxx	-3142
▁actual	-3143
hod	-3144
▁sold	-3145
▁indicate	-3146
▁exception	-3147
▁Karnat	-3148
▁advanced	-3149
▁suggest	-3150
SH	-3151
lead	-3152
ead	-3153
endency	-3154
▁rather	-3155
▁Regulations	-3156
▁ty	-3157
▁implement	-3158
▁Judgment	-3159
▁quash	-3160
▁administrative	-3161
▁threat	-3162
▁Karnataka	-3163
▁cited	-3164
▁mortg	-3165
airs	-3166
▁Dece	-3167
▁unable	-3168
dy	-3169
▁Nagar	-3170
▁future	-3171
▁Minister	-3172
ashtra	-3173
▁१	-3174
▁Rec	-3175
ob	-3176
▁Schedule	-3177
enc	-3178
iracy	-3179
jar	-3180
▁kind	-3181
▁minimum	-3182
DD	-3183
ingu	-3184
▁lower	-3185
chie	-3186
▁bon	-3187
▁situated	-3188
▁ascer	-3189
owry	-3190
▁might	-3191
▁Applic	-3192
▁produce	-3193
▁dying	-3194
ference	-3195
▁SH	-3196
▁Moreover	-3197
ism	-3198
▁doctr	-3199
▁providing	-3200
▁May	-3201
▁corpor	-3202
▁completion	-3203
EL	-3204
▁Petitioners	-3205
▁termination	-3206
▁Is	-3207
▁develop	-3208
▁mor	-3209
ott	-3210
ND	-3211
▁prejudice	-3212
▁register	-3213
▁disputes	-3214
▁stating	-3215
uary	-3216
▁Now	-3217
ental	-3218
▁trad	-3219
▁arr	-3220
▁fire	-3221
▁strict	-3222
iate	-3223
▁deals	-3224
▁arises	-3225
▁constituted	-3226
▁revenue	-3227
▁concluded	-3228
▁Ms	-3229
▁applicants	-3230
ulf	-3231
▁Chandra	-3232
▁technical	-3233
ograph	-3234
▁served	-3235
▁binding	-3236
▁circumstance	-3237
iting	-3238
rep	-3239
▁Trust	-3240
▁associ	-3241
▁clos	-3242
▁Maharashtra	-3243
lam	-3244
ankar	-3245
liminary	-3246
▁least	-3247
ize	-3248
▁burn	-3249
▁conspiracy	-3250
▁tot	-3251
▁themselves	-3252
▁dev	-3253
idelines	-3254
▁ado	-3255
▁achie	-3256
ember	-3257
▁cent	-3258
▁pub	-3259
▁somet	-3260
ression	-3261
▁factors	-3262
ology	-3263
▁difference	-3264
▁cut	-3265
▁costs	-3266
itive	-3267
▁likely	-3268
▁saw	-3269
▁March	-3270
▁prohib	-3271
▁related	-3272
▁Ne	-3273
ribution	-3274
▁CO	-3275
▁old	-3276
ground	-3277
▁you	-3278
aries	-3279
▁Before	-3280
▁setting	-3281
mortem	-3282
▁miscon	-3283
▁advertise	-3284
▁remained	-3285
▁Principal	-3286
▁acquitted	-3287
cri	-3288
CC	-3289
ems	-3290
rol	-3291
▁servant	-3292
▁Jag	-3293
▁sour	-3294
▁AB	-3295
▁contents	-3296
wari	-3297
itable	-3298
▁Let	-3299
▁arrested	-3300
▁dismissal	-3301
atter	-3302
▁keeping	-3303
▁Both	-3304
▁safe	-3305
▁cur	-3306
▁emphasis	-3307
▁Mand	-3308
▁arising	-3309
▁functions	-3310
▁AGED	-3311
▁doctrine	-3312
▁disciplinary	-3313
▁Sanj	-3314
▁neglig	-3315
१२	-3316
▁Other	-3317
▁education	-3318
▁uncon	-3319
ordinate	-3320
▁host	-3321
▁subsequently	-3322
ID	-3323
▁none	-3324
▁marked	-3325
AK	-3326
ont	-3327
▁comes	-3328
sing	-3329
▁Road	-3330
▁Municipal	-3331
▁aware	-3332
▁requirements	-3333
ita	-3334
▁Trans	-3335
▁Labour	-3336
▁PS	-3337
▁motive	-3338
▁rape	-3339
▁collected	-3340
▁amended	-3341
held	-3342
din	-3343
enses	-3344
▁econ	-3345
▁bearing	-3346
▁initiated	-3347
▁charged	-3348
▁limit	-3349
▁signific	-3350
▁cruel	-3351
▁extended	-3352
▁dowry	-3353
▁litigation	-3354
................	-3355
▁preliminary	-3356
▁method	-3357
▁sister	-3358
▁div	-3359
▁maintenance	-3360
▁administration	-3361
duce	-3362
▁Bhag	-3363
kash	-3364
▁possess	-3365
▁protect	-3366
lfare	-3367
othes	-3368
▁CBI	-3369
▁Exp	-3370
▁Arbitrator	-3371
▁publ	-3372
▁Sam	-3373
▁fulf	-3374
▁accounts	-3375
▁Mar	-3376
▁disposal	-3377
▁Collector	-3378
▁agency	-3379
▁deserv	-3380
▁carrying	-3381
▁alternative	-3382
▁Fin	-3383
ras	-3384
▁included	-3385
▁College	-3386
amil	-3387
lord	-3388
acted	-3389
stituted	-3390
operative	-3391
▁Chairman	-3392
▁eligible	-3393
chan	-3394
▁inqu	-3395
ictions	-3396
cational	-3397
▁inn	-3398
▁Fore	-3399
apers	-3400
▁retire	-3401
▁entertain	-3402
▁background	-3403
hra	-3404
▁phot	-3405
▁Office	-3406
▁Krish	-3407
▁foreign	-3408
▁ce	-3409
▁Gujar	-3410
▁assaulted	-3411
▁Ma	-3412
▁identification	-3413
duct	-3414
itor	-3415
ners	-3416
rimin	-3417
▁motor	-3418
▁adjudication	-3419
irl	-3420
ndra	-3421
▁loan	-3422
▁handed	-3423
▁virtue	-3424
actions	-3425
ayan	-3426
▁sense	-3427
▁wholly	-3428
▁tempor	-3429
▁deposited	-3430
▁remains	-3431
▁guidelines	-3432
▁physical	-3433
▁December	-3434
▁detailed	-3435
lling	-3436
▁Vi	-3437
▁Scheduled	-3438
cise	-3439
▁accomp	-3440
▁sexual	-3441
▁directly	-3442
▁Stat	-3443
▁pursuant	-3444
tt	-3445
▁responsible	-3446
▁truth	-3447
▁Raipur	-3448
▁Sal	-3449
▁issuance	-3450
▁occasion	-3451
▁necessarily	-3452
kn	-3453
▁scale	-3454
▁August	-3455
▁added	-3456
▁lack	-3457
▁schedule	-3458
▁Admin	-3459
▁Prosecutor	-3460
encies	-3461
▁ik	-3462
▁properly	-3463
▁purchased	-3464
▁confirmed	-3465
▁extra	-3466
atch	-3467
ysis	-3468
▁emer	-3469
▁ordinary	-3470
▁alia	-3471
▁actually	-3472
▁self	-3473
▁errone	-3474
atic	-3475
ulars	-3476
itness	-3477
▁suffered	-3478
▁Investigating	-3479
▁assets	-3480
▁DW	-3481
▁Sun	-3482
▁inspect	-3483
icide	-3484
most	-3485
▁damages	-3486
atio	-3487
▁lar	-3488
▁quar	-3489
▁memo	-3490
PS	-3491
▁arbitral	-3492
▁connected	-3493
▁driver	-3494
vt	-3495
▁appeared	-3496
▁deciding	-3497
▁sw	-3498
emple	-3499
▁works	-3500
▁Nag	-3501
▁weeks	-3502
▁Regulation	-3503
▁Kam	-3504
▁enjo	-3505
▁night	-3506
▁secured	-3507
▁Thak	-3508
eet	-3509
athi	-3510
orney	-3511
▁deposition	-3512
▁ali	-3513
▁obv	-3514
onoun	-3515
▁areas	-3516
▁equal	-3517
▁option	-3518
▁sustain	-3519
appellant	-3520
▁construed	-3521
▁conven	-3522
▁assault	-3523
▁affected	-3524
▁points	-3525
vir	-3526
bed	-3527
▁instrument	-3528
▁July	-3529
▁narr	-3530
▁completely	-3531
esting	-3532
▁workmen	-3533
▁advocate	-3534
umbai	-3535
▁expected	-3536
▁Govt	-3537
▁Associ	-3538
▁ear	-3539
sibility	-3540
▁transactions	-3541
▁landlord	-3542
rop	-3543
▁Gujarat	-3544
isp	-3545
emption	-3546
istry	-3547
eness	-3548
herent	-3549
▁tend	-3550
ins	-3551
▁around	-3552
▁omission	-3553
▁Das	-3554
▁Mumbai	-3555
adh	-3556
▁refused	-3557
alid	-3558
pril	-3559
▁Case	-3560
▁answered	-3561
ING	-3562
▁pack	-3563
ocation	-3564
▁perused	-3565
▁thereto	-3566
apur	-3567
▁pronoun	-3568
asm	-3569
hem	-3570
▁April	-3571
▁contemplated	-3572
▁empow	-3573
▁despite	-3574
oint	-3575
▁concur	-3576
▁restra	-3577
▁Legislature	-3578
eb	-3579
▁ratio	-3580
cription	-3581
▁mob	-3582
iture	-3583
gree	-3584
▁PDD	-3585
▁Pun	-3586
▁commence	-3587
▁Post	-3588
▁salary	-3589
ruck	-3590
▁volunt	-3591
▁cover	-3592
▁depri	-3593
▁esc	-3594
▁engaged	-3595
▁admit	-3596
ariz	-3597
▁viz	-3598
ovable	-3599
ATE	-3600
▁const	-3601
▁convict	-3602
▁stren	-3603
▁principal	-3604
▁qualification	-3605
▁Muk	-3606
▁activity	-3607
▁consult	-3608
▁suspic	-3609
▁uns	-3610
rd	-3611
▁Consequently	-3612
▁exercising	-3613
▁Do	-3614
vement	-3615
▁seniority	-3616
▁site	-3617
istic	-3618
▁girl	-3619
▁January	-3620
▁cruelty	-3621
rief	-3622
▁vit	-3623
▁Assess	-3624
▁offer	-3625
▁think	-3626
att	-3627
ricity	-3628
▁although	-3629
uli	-3630
▁reservation	-3631
OUT	-3632
rig	-3633
▁polit	-3634
ude	-3635
eria	-3636
oura	-3637
▁elect	-3638
▁Head	-3639
▁wa	-3640
▁agricult	-3641
▁belonging	-3642
▁until	-3643
▁behind	-3644
▁Pvt	-3645
▁excess	-3646
▁prog	-3647
▁establishment	-3648
▁ing	-3649
▁territ	-3650
▁today	-3651
▁govern	-3652
▁partners	-3653
ka	-3654
ches	-3655
yers	-3656
▁bod	-3657
▁adequ	-3658
▁partition	-3659
AS	-3660
ening	-3661
▁advance	-3662
▁Kish	-3663
▁close	-3664
▁Har	-3665
▁arrange	-3666
▁consequence	-3667
▁rival	-3668
▁render	-3669
▁innoc	-3670
oot	-3671
▁totally	-3672
▁requested	-3673
▁reiterated	-3674
ills	-3675
▁issuing	-3676
onment	-3677
▁Des	-3678
▁Once	-3679
▁len	-3680
▁live	-3681
▁getting	-3682
▁approached	-3683
▁au	-3684
▁wages	-3685
▁pendency	-3686
▁inherent	-3687
ns	-3688
anda	-3689
▁great	-3690
३०	-3691
▁holder	-3692
▁suicide	-3693
▁analysis	-3694
reedom	-3695
▁incorpor	-3696
▁interested	-3697
above	-3698
▁Shankar	-3699
▁advertisement	-3700
▁became	-3701
▁enable	-3702
▁line	-3703
▁absolutely	-3704
▁woman	-3705
amb	-3706
▁asser	-3707
▁instead	-3708
▁deserves	-3709
▁production	-3710
▁Engineer	-3711
iss	-3712
aching	-3713
far	-3714
▁hereby	-3715
▁industrial	-3716
▁Priv	-3717
ases	-3718
▁cad	-3719
▁Khan	-3720
▁Any	-3721
▁controvers	-3722
sheet	-3723
▁distinction	-3724
UM	-3725
lude	-3726
▁meant	-3727
MC	-3728
apter	-3729
▁satisfaction	-3730
▁effective	-3731
otel	-3732
qual	-3733
▁intern	-3734
▁Kal	-3735
▁lying	-3736
▁contractor	-3737
▁Bab	-3738
▁invalid	-3739
▁offered	-3740
indu	-3741
▁running	-3742
mbly	-3743
asmuch	-3744
withstanding	-3745
▁defect	-3746
▁few	-3747
▁subs	-3748
▁Superint	-3749
▁Prakash	-3750
dh	-3751
usted	-3752
▁Page	-3753
▁invest	-3754
▁contempt	-3755
▁maintained	-3756
aram	-3757
▁hostile	-3758
▁patient	-3759
▁genu	-3760
▁possibility	-3761
▁Jain	-3762
CT	-3763
▁Income	-3764
१३	-3765
▁seven	-3766
▁majority	-3767
▁ABOUT	-3768
▁opined	-3769
▁published	-3770
▁mining	-3771
▁Contract	-3772
▁retirement	-3773
▁custom	-3774
▁acted	-3775
▁proposal	-3776
▁born	-3777
▁alter	-3778
▁paper	-3779
▁disclosure	-3780
▁standard	-3781
▁enactment	-3782
bhai	-3783
▁profession	-3784
▁Pal	-3785
▁remaining	-3786
▁investigating	-3787
oti	-3788
▁Mal	-3789
▁irre	-3790
▁expert	-3791
▁instructions	-3792
mi	-3793
▁health	-3794
▁adduced	-3795
adha	-3796
▁upheld	-3797
rs	-3798
▁Feb	-3799
▁ordered	-3800
body	-3801
▁chan	-3802
▁Rail	-3803
▁inte	-3804
▁expenses	-3805
▁admittedly	-3806
▁documentary	-3807
▁Pur	-3808
▁subjected	-3809
mu	-3810
▁disclose	-3811
▁Li	-3812
sofar	-3813
▁eff	-3814
▁harass	-3815
▁address	-3816
▁Hindu	-3817
▁obtaining	-3818
▁collect	-3819
▁letters	-3820
▁auction	-3821
▁CPC	-3822
▁mach	-3823
▁extend	-3824
▁indicates	-3825
vantage	-3826
▁furnish	-3827
▁sentenced	-3828
▁appointments	-3829
▁incons	-3830
▁guarantee	-3831
▁aid	-3832
▁scrutiny	-3833
▁referring	-3834
▁ow	-3835
▁quite	-3836
▁comprom	-3837
▁hereinabove	-3838
ada	-3839
▁SRI	-3840
ula	-3841
ders	-3842
ruary	-3843
▁determining	-3844
▁leading	-3845
▁temporary	-3846
onst	-3847
▁inference	-3848
▁February	-3849
▁suc	-3850
awan	-3851
lish	-3852
▁AS	-3853
▁succeed	-3854
vision	-3855
▁Power	-3856
▁inconsist	-3857
▁sharehold	-3858
▁Im	-3859
▁contend	-3860
▁vacancies	-3861
duction	-3862
▁Champ	-3863
▁normal	-3864
▁employed	-3865
▁educational	-3866
▁hard	-3867
▁barred	-3868
▁larger	-3869
▁capital	-3870
▁furnished	-3871
▁stipulated	-3872
▁observation	-3873
▁eval	-3874
▁consequent	-3875
▁substantive	-3876
regular	-3877
soever	-3878
▁story	-3879
ern	-3880
▁legit	-3881
▁controversy	-3882
avi	-3883
▁distinct	-3884
▁freedom	-3885
ape	-3886
▁identity	-3887
▁officers	-3888
wa	-3889
▁staff	-3890
▁illegality	-3891
▁clothes	-3892
▁enacted	-3893
▁mult	-3894
GAL	-3895
▁attrib	-3896
▁Ministry	-3897
▁raise	-3898
▁causing	-3899
▁certainly	-3900
▁allotment	-3901
▁irregular	-3902
DA	-3903
▁communication	-3904
▁includes	-3905
▁standing	-3906
inent	-3907
state	-3908
▁finds	-3909
▁Thakur	-3910
▁unreason	-3911
▁Kar	-3912
ribe	-3913
▁fide	-3914
▁undergo	-3915
▁exceed	-3916
▁funds	-3917
▁acceptance	-3918
▁el	-3919
cience	-3920
▁avoid	-3921
vered	-3922
▁Land	-3923
▁confirm	-3924
change	-3925
▁takes	-3926
▁reserved	-3927
udh	-3928
ishra	-3929
▁deliber	-3930
witness	-3931
uls	-3932
aster	-3933
▁entr	-3934
▁House	-3935
▁Bu	-3936
▁reproduced	-3937
portion	-3938
▁inasmuch	-3939
▁Go	-3940
▁Dev	-3941
▁proced	-3942
CO	-3943
akh	-3944
overned	-3945
▁strong	-3946
▁distingu	-3947
IS	-3948
▁lap	-3949
▁governed	-3950
▁Directors	-3951
▁described	-3952
▁grievance	-3953
▁particulars	-3954
vironment	-3955
opal	-3956
▁mental	-3957
▁discharged	-3958
raj	-3959
▁judiciary	-3960
▁Cert	-3961
▁quoted	-3962
▁consequences	-3963
▁qua	-3964
▁abuse	-3965
▁create	-3966
▁max	-3967
▁reports	-3968
▁criteria	-3969
▁fell	-3970
ett	-3971
▁flo	-3972
▁demonst	-3973
▁emb	-3974
redient	-3975
▁assistance	-3976
▁Sept	-3977
rel	-3978
ailing	-3979
▁parts	-3980
▁workman	-3981
▁averments	-3982
▁examining	-3983
▁tele	-3984
▁ingredient	-3985
▁inside	-3986
azar	-3987
▁Rajesh	-3988
▁alongwith	-3989
land	-3990
▁Date	-3991
gested	-3992
▁small	-3993
▁clauses	-3994
▁nos	-3995
▁June	-3996
▁undertaking	-3997
MENT	-3998
▁red	-3999
▁claiming	-4000
orts	-4001
umer	-4002
▁remand	-4003
▁Ph	-4004
▁influ	-4005
▁political	-4006
▁refund	-4007
▁relates	-4008
▁Industrial	-4009
▁hy	-4010
▁Punj	-4011
▁thing	-4012
▁stood	-4013
▁importance	-4014
▁Shah	-4015
▁mortgage	-4016
rid	-4017
antial	-4018
▁Chapter	-4019
▁September	-4020
gal	-4021
▁broad	-4022
▁lie	-4023
▁wid	-4024
▁released	-4025
▁interests	-4026
▁Bas	-4027
▁frame	-4028
▁experience	-4029
aks	-4030
▁papers	-4031
▁bi	-4032
▁suffer	-4033
▁erroneous	-4034
▁source	-4035
▁page	-4036
▁transport	-4037
illing	-4038
erala	-4039
▁Dhar	-4040
▁Late	-4041
▁Ashok	-4042
▁Ver	-4043
▁hours	-4044
▁Mishra	-4045
▁Arbitration	-4046
▁stamp	-4047
NA	-4048
wam	-4049
▁obtain	-4050
▁attached	-4051
▁Kerala	-4052
▁economic	-4053
▁bag	-4054
▁Nath	-4055
▁English	-4056
▁Manager	-4057
▁caste	-4058
▁Management	-4059
yal	-4060
▁cond	-4061
▁distance	-4062
▁rig	-4063
▁simple	-4064
▁extracted	-4065
▁Supp	-4066
▁Governor	-4067
▁paragraphs	-4068
▁lakh	-4069
▁sample	-4070
▁finally	-4071
▁willing	-4072
▁gain	-4073
▁pertaining	-4074
▁understood	-4075
▁Bai	-4076
▁directing	-4077
EP	-4078
▁plant	-4079
iya	-4080
isite	-4081
▁occurred	-4082
outh	-4083
▁removal	-4084
▁retros	-4085
▁Ali	-4086
▁Reference	-4087
ilit	-4088
▁Work	-4089
▁promis	-4090
▁lay	-4091
orrow	-4092
▁formal	-4093
▁degree	-4094
▁affairs	-4095
yan	-4096
▁deduction	-4097
assion	-4098
▁length	-4099
ici	-4100
▁Kumari	-4101
▁living	-4102
▁Ahmed	-4103
▁purchaser	-4104
▁unn	-4105
▁removed	-4106
▁Punjab	-4107
▁conflic	-4108
urt	-4109
hood	-4110
▁conscious	-4111
alf	-4112
irs	-4113
▁aud	-4114
▁times	-4115
▁products	-4116
▁Companies	-4117
▁JUD	-4118
▁categorically	-4119
▁demonstr	-4120
▁community	-4121
▁notified	-4122
▁Oct	-4123
▁allotted	-4124
▁consistent	-4125
▁inflic	-4126
▁teachers	-4127
▁factor	-4128
▁incur	-4129
osh	-4130
▁Tamil	-4131
▁prospect	-4132
adem	-4133
▁brief	-4134
▁Articles	-4135
▁commencement	-4136
▁Sant	-4137
▁imper	-4138
▁ordin	-4139
▁dest	-4140
▁places	-4141
▁showing	-4142
▁advantage	-4143
▁Ins	-4144
▁departmental	-4145
yam	-4146
esides	-4147
▁named	-4148
▁whatsoever	-4149
▁expressly	-4150
▁attack	-4151
▁temple	-4152
▁Vijay	-4153
▁using	-4154
▁regulations	-4155
comp	-4156
respond	-4157
oh	-4158
▁mist	-4159
▁cul	-4160
eshwar	-4161
oned	-4162
▁negligence	-4163
▁gives	-4164
LA	-4165
pa	-4166
orand	-4167
▁structure	-4168
▁conce	-4169
▁confidence	-4170
hest	-4171
▁JUDG	-4172
▁undertaken	-4173
▁Cast	-4174
orandum	-4175
▁measure	-4176
rah	-4177
▁RO	-4178
▁claimants	-4179
ioned	-4180
▁wide	-4181
▁enough	-4182
▁appreciation	-4183
▁Ac	-4184
▁adopt	-4185
▁receive	-4186
▁rein	-4187
▁mobile	-4188
▁extension	-4189
▁committing	-4190
▁sanctioned	-4191
▁disqual	-4192
▁Superintendent	-4193
▁better	-4194
▁crores	-4195
▁infring	-4196
▁prescrib	-4197
▁falls	-4198
▁religious	-4199
▁......	-4200
▁bla	-4201
▁Bhar	-4202
▁past	-4203
▁renew	-4204
hai	-4205
ustr	-4206
▁calc	-4207
pecially	-4208
▁HC	-4209
▁immovable	-4210
▁Association	-4211
▁mut	-4212
▁reliable	-4213
▁vend	-4214
▁residing	-4215
▁Their	-4216
▁param	-4217
lined	-4218
▁coll	-4219
▁Jammu	-4220
▁ultimately	-4221
angal	-4222
▁assign	-4223
▁Right	-4224
▁delivered	-4225
▁levy	-4226
rog	-4227
ron	-4228
ump	-4229
▁soon	-4230
▁events	-4231
▁exped	-4232
▁women	-4233
▁labour	-4234
▁Lok	-4235
▁cadre	-4236
▁bad	-4237
▁citizens	-4238
▁allegedly	-4239
hab	-4240
▁late	-4241
▁falsely	-4242
१४	-4243
▁mal	-4244
▁especially	-4245
▁CH	-4246
ustries	-4247
▁exemption	-4248
▁legally	-4249
▁confer	-4250
IV	-4251
▁WP	-4252
irth	-4253
▁applying	-4254
▁correspond	-4255
▁circumstantial	-4256
▁regulariz	-4257
▁Nove	-4258
▁Class	-4259
▁November	-4260
▁rejection	-4261
set	-4262
▁else	-4263
▁Application	-4264
▁di	-4265
rose	-4266
▁allowing	-4267
▁recognized	-4268
▁valu	-4269
▁Mohan	-4270
▁adequate	-4271
▁hereinafter	-4272
▁suggested	-4273
bted	-4274
▁cash	-4275
▁Heard	-4276
▁mandate	-4277
▁depend	-4278
▁gun	-4279
▁challenging	-4280
▁lost	-4281
▁Sanjay	-4282
▁Provided	-4283
▁compassion	-4284
▁compromise	-4285
ober	-4286
▁primary	-4287
▁fails	-4288
▁Para	-4289
▁envis	-4290
▁choice	-4291
▁classification	-4292
▁East	-4293
aneous	-4294
▁October	-4295
▁unit	-4296
▁married	-4297
▁ordinarily	-4298
▁arose	-4299
▁Consid	-4300
▁admissible	-4301
▁suspension	-4302
▁Explanation	-4303
▁extre	-4304
▁recommendation	-4305
eration	-4306
▁assigned	-4307
▁coal	-4308
▁mode	-4309
▁borrow	-4310
▁manif	-4311
▁addressed	-4312
nother	-4313
▁respectively	-4314
let	-4315
▁birth	-4316
▁ela	-4317
▁Another	-4318
▁cog	-4319
▁Mohd	-4320
▁food	-4321
▁Assessing	-4322
▁ownership	-4323
▁Plan	-4324
▁vill	-4325
▁plain	-4326
▁Health	-4327
IM	-4328
TH	-4329
laws	-4330
llation	-4331
▁propri	-4332
▁quality	-4333
▁release	-4334
▁Services	-4335
▁deten	-4336
▁something	-4337
ote	-4338
estic	-4339
▁data	-4340
▁limits	-4341
▁signatures	-4342
formation	-4343
▁delivery	-4344
▁Ter	-4345
▁article	-4346
▁Intern	-4347
▁enforcement	-4348
PW	-4349
antly	-4350
▁dign	-4351
▁proc	-4352
▁CR	-4353
▁check	-4354
mentioned	-4355
▁reliefs	-4356
▁fri	-4357
ishes	-4358
asis	-4359
▁forum	-4360
▁Sa	-4361
ival	-4362
adhaar	-4363
▁install	-4364
▁correctness	-4365
▁Jh	-4366
▁pert	-4367
▁Aadhaar	-4368
ists	-4369
ites	-4370
▁bodies	-4371
▁Cha	-4372
overy	-4373
▁equally	-4374
▁Ob	-4375
▁mechan	-4376
enditure	-4377
▁applies	-4378
▁selected	-4379
▁Insurance	-4380
CI	-4381
▁BY	-4382
▁intent	-4383
▁requisite	-4384
▁Pandey	-4385
▁generally	-4386
▁der	-4387
▁pec	-4388
▁wound	-4389
▁presented	-4390
▁log	-4391
▁move	-4392
▁believe	-4393
orthy	-4394
▁Narayan	-4395
▁appreciate	-4396
▁agricultural	-4397
▁exclusive	-4398
▁util	-4399
▁Assam	-4400
utt	-4401
while	-4402
▁Circ	-4403
▁West	-4404
▁photograph	-4405
▁strictly	-4406
▁carefully	-4407
hand	-4408
usion	-4409
▁knife	-4410
▁agreements	-4411
▁Notification	-4412
▁cancellation	-4413
abilities	-4414
▁convers	-4415
ora	-4416
AC	-4417
▁sound	-4418
▁views	-4419
▁Mun	-4420
▁resulted	-4421
▁necessity	-4422
▁compassionate	-4423
▁Award	-4424
▁receiving	-4425
work	-4426
▁framing	-4427
▁license	-4428
▁multip	-4429
▁perverse	-4430
aded	-4431
▁APP	-4432
ables	-4433
▁relying	-4434
gin	-4435
alk	-4436
▁Nadu	-4437
▁responsibility	-4438
pees	-4439
▁start	-4440
▁US	-4441
▁Char	-4442
▁invoked	-4443
▁Prof	-4444
▁complied	-4445
▁performed	-4446
ques	-4447
▁jun	-4448
▁seeks	-4449
ception	-4450
▁incorporated	-4451
▁posted	-4452
The	-4453
▁access	-4454
▁copies	-4455
▁district	-4456
▁insurance	-4457
hon	-4458
▁Ranj	-4459
▁expiry	-4460
ociet	-4461
▁Standing	-4462
▁estate	-4463
ji	-4464
▁Dub	-4465
itude	-4466
▁docs	-4467
▁goes	-4468
▁eligibility	-4469
ading	-4470
▁pronounce	-4471
▁instituted	-4472
IST	-4473
▁dues	-4474
▁thought	-4475
▁Gur	-4476
▁prop	-4477
levant	-4478
▁discrep	-4479
▁alt	-4480
▁rise	-4481
▁satisfy	-4482
▁expenditure	-4483
▁Vish	-4484
▁excluded	-4485
▁categories	-4486
▁unreasonable	-4487
▁recommendations	-4488
▁operate	-4489
▁reasoning	-4490
▁Then	-4491
▁door	-4492
▁closed	-4493
▁element	-4494
▁definite	-4495
▁ready	-4496
▁cogent	-4497
▁fil	-4498
anger	-4499
▁notices	-4500
▁response	-4501
ifted	-4502
▁entries	-4503
▁CrPC	-4504
ancell	-4505
verted	-4506
▁things	-4507
▁residence	-4508
▁AND	-4509
▁Champaran	-4510
▁ingredients	-4511
▁Emph	-4512
▁Full	-4513
▁Distt	-4514
▁interven	-4515
▁notes	-4516
▁clarified	-4517
▁vag	-4518
▁Krishna	-4519
▁inquest	-4520
▁sitting	-4521
▁List	-4522
▁says	-4523
▁misconduct	-4524
▁facilities	-4525
▁democ	-4526
▁impact	-4527
▁Br	-4528
▁bear	-4529
▁opposed	-4530
▁narrated	-4531
bal	-4532
▁Din	-4533
▁Elect	-4534
▁Supra	-4535
▁origin	-4536
▁Through	-4537
▁pertinent	-4538
▁introduced	-4539
cent	-4540
▁Admitted	-4541
eev	-4542
▁acting	-4543
▁welfare	-4544
lal	-4545
hentic	-4546
▁draft	-4547
▁press	-4548
▁Mot	-4549
▁harassment	-4550
opp	-4551
ship	-4552
▁del	-4553
▁inspection	-4554
rast	-4555
▁harm	-4556
▁corru	-4557
▁invited	-4558
▁FS	-4559
uous	-4560
▁territor	-4561
author	-4562
▁liquid	-4563
▁containing	-4564
▁Apart	-4565
▁Techn	-4566
▁almost	-4567
iece	-4568
▁Rao	-4569
▁Andhra	-4570
▁Excise	-4571
▁elected	-4572
▁extreme	-4573
▁involving	-4574
▁understand	-4575
▁Tal	-4576
▁intim	-4577
eth	-4578
▁sil	-4579
elled	-4580
▁half	-4581
▁profits	-4582
▁hist	-4583
isters	-4584
▁chain	-4585
▁AT	-4586
▁bra	-4587
▁Gh	-4588
▁blow	-4589
▁grave	-4590
▁whereby	-4591
▁initially	-4592
eck	-4593
▁herself	-4594
▁corroborated	-4595
▁considerations	-4596
▁explain	-4597
▁citizen	-4598
▁residential	-4599
pal	-4600
▁Emphasis	-4601
lief	-4602
▁Anr	-4603
chief	-4604
▁conducting	-4605
endence	-4606
▁certified	-4607
▁Tah	-4608
▁Const	-4609
ja	-4610
▁grat	-4611
▁Group	-4612
▁amongst	-4613
▁dignity	-4614
▁ascertain	-4615
▁modified	-4616
jee	-4617
▁Att	-4618
ademic	-4619
▁faith	-4620
▁Election	-4621
▁disability	-4622
▁profit	-4623
▁quantity	-4624
▁empowered	-4625
▁Certificate	-4626
▁00	-4627
light	-4628
▁phone	-4629
▁card	-4630
▁creditors	-4631
OP	-4632
▁Bill	-4633
▁rates	-4634
▁Admittedly	-4635
▁separately	-4636
▁scene	-4637
▁proble	-4638
dish	-4639
endment	-4640
▁Account	-4641
▁thereon	-4642
nel	-4643
▁Abd	-4644
orrect	-4645
▁inclined	-4646
▁stri	-4647
▁Mandal	-4648
▁reduced	-4649
ICT	-4650
▁Mu	-4651
▁Her	-4652
▁play	-4653
▁objective	-4654
ets	-4655
▁cancelled	-4656
▁consultation	-4657
▁hon	-4658
▁eviction	-4659
▁measures	-4660
olved	-4661
▁save	-4662
▁exhib	-4663
Jud	-4664
▁denial	-4665
▁nomination	-4666
pla	-4667
▁cult	-4668
▁dishon	-4669
▁sealed	-4670
▁quashing	-4671
aily	-4672
▁flat	-4673
TC	-4674
erson	-4675
▁seal	-4676
▁legitimate	-4677
upon	-4678
▁withdraw	-4679
TA	-4680
ila	-4681
▁Mark	-4682
▁ignored	-4683
▁reveals	-4684
▁ever	-4685
ional	-4686
ocates	-4687
hered	-4688
atever	-4689
▁contracts	-4690
vert	-4691
▁sides	-4692
▁wanted	-4693
▁manifest	-4694
▁Cons	-4695
▁board	-4696
▁contains	-4697
▁contractual	-4698
▁quarrel	-4699
▁suits	-4700
▁affirm	-4701
▁thereunder	-4702
▁patent	-4703
uge	-4704
ement	-4705
▁Nand	-4706
▁Teacher	-4707
sy	-4708
▁annex	-4709
▁Reliance	-4710
▁Sab	-4711
▁Vice	-4712
▁weight	-4713
▁Red	-4714
▁nomin	-4715
▁incorrect	-4716
idd	-4717
rency	-4718
▁suspicion	-4719
▁environment	-4720
▁Roh	-4721
▁Sunil	-4722
▁front	-4723
▁latter	-4724
ancellor	-4725
▁null	-4726
▁publication	-4727
▁cry	-4728
▁seat	-4729
▁refers	-4730
▁workers	-4731
▁Vill	-4732
▁unfair	-4733
rimination	-4734
▁liquor	-4735
▁concern	-4736
atal	-4737
▁bona	-4738
▁involvement	-4739
course	-4740
▁irres	-4741
▁moved	-4742
utta	-4743
▁Verma	-4744
▁Suit	-4745
▁DR	-4746
▁strength	-4747
arpur	-4748
▁Control	-4749
▁PM	-4750
uity	-4751
sement	-4752
▁turned	-4753
▁heirs	-4754
rug	-4755
▁See	-4756
achment	-4757
essel	-4758
▁analy	-4759
▁upt	-4760
▁opened	-4761
▁Private	-4762
▁surre	-4763
▁pred	-4764
eel	-4765
▁prec	-4766
▁attracted	-4767
▁standards	-4768
IA	-4769
▁schools	-4770
▁Joint	-4771
▁authentic	-4772
▁job	-4773
▁confined	-4774
AV	-4775
▁SE	-4776
ulty	-4777
▁elabor	-4778
asth	-4779
nama	-4780
▁withdrawn	-4781
▁II	-4782
oured	-4783
▁Abdul	-4784
▁floor	-4785
▁Others	-4786
▁ine	-4787
▁Managing	-4788
▁demanded	-4789
▁Considering	-4790
CL	-4791
▁leve	-4792
▁negative	-4793
▁corporate	-4794
PA	-4795
azet	-4796
▁prem	-4797
▁eight	-4798
ector	-4799
▁pure	-4800
▁relatives	-4801
▁jail	-4802
▁erred	-4803
▁compar	-4804
▁extract	-4805
▁implead	-4806
▁BAN	-4807
▁neck	-4808
▁happened	-4809
▁forthwith	-4810
position	-4811
▁revised	-4812
▁procedural	-4813
▁Railway	-4814
▁hit	-4815
▁filled	-4816
▁gold	-4817
▁payments	-4818
PL	-4819
bility	-4820
▁terminated	-4821
▁recommended	-4822
ibly	-4823
▁Chou	-4824
▁Madras	-4825
▁Cor	-4826
▁piece	-4827
▁electricity	-4828
onial	-4829
▁endor	-4830
▁cheques	-4831
▁enqu	-4832
aryana	-4833
▁notwithstanding	-4834
▁national	-4835
arc	-4836
▁infirm	-4837
sue	-4838
▁sq	-4839
FA	-4840
▁suitable	-4841
▁feel	-4842
▁unauthor	-4843
ARA	-4844
▁arrangement	-4845
ouses	-4846
▁rare	-4847
▁domestic	-4848
▁description	-4849
▁Haryana	-4850
rown	-4851
ousing	-4852
▁units	-4853
▁vital	-4854
▁looking	-4855
▁Asse	-4856
▁unlaw	-4857
▁interpreted	-4858
isting	-4859
▁squ	-4860
▁bott	-4861
▁simply	-4862
ocieties	-4863
▁repeated	-4864
▁individuals	-4865
▁gross	-4866
▁Family	-4867
▁conflict	-4868
▁questioned	-4869
▁Information	-4870
elt	-4871
▁upto	-4872
▁CW	-4873
empted	-4874
ricted	-4875
▁secure	-4876
▁applicability	-4877
mad	-4878
▁attract	-4879
▁incurred	-4880
▁entertained	-4881
lax	-4882
▁SL	-4883
hend	-4884
▁Bengal	-4885
▁Assessee	-4886
▁accepting	-4887
▁impression	-4888
१५	-4889
▁equality	-4890
rap	-4891
▁AP	-4892
▁damage	-4893
▁deb	-4894
▁really	-4895
▁resulting	-4896
▁satisfact	-4897
▁Md	-4898
ustry	-4899
▁equity	-4900
struction	-4901
▁intercourse	-4902
▁Mahto	-4903
▁overr	-4904
▁conclusions	-4905
els	-4906
inery	-4907
▁normally	-4908
▁entirely	-4909
▁deleg	-4910
▁owned	-4911
▁justification	-4912
▁cart	-4913
▁valuation	-4914
▁voluntary	-4915
▁subordinate	-4916
▁assail	-4917
▁impose	-4918
pet	-4919
assed	-4920
▁former	-4921
▁genuine	-4922
▁suffering	-4923
hesh	-4924
▁huge	-4925
▁daily	-4926
▁encro	-4927
▁attend	-4928
the	-4929
▁AC	-4930
▁verification	-4931
▁seems	-4932
oo	-4933
▁Mere	-4934
▁maximum	-4935
▁indul	-4936
▁seats	-4937
▁vacant	-4938
▁distribution	-4939
▁Wh	-4940
▁constructed	-4941
▁vacancy	-4942
▁z	-4943
ATION	-4944
iy	-4945
▁Ent	-4946
▁Fund	-4947
▁revers	-4948
▁increase	-4949
▁Exh	-4950
ological	-4951
▁Ye	-4952
▁retrospective	-4953
▁Ramesh	-4954
▁saying	-4955
▁raising	-4956
▁sections	-4957
▁acceptable	-4958
▁judges	-4959
▁college	-4960
▁anc	-4961
▁vitiated	-4962
▁Utt	-4963
▁Official	-4964
▁reb	-4965
▁Home	-4966
▁discard	-4967
▁execute	-4968
▁significant	-4969
akf	-4970
AND	-4971
▁bond	-4972
▁International	-4973
▁Met	-4974
▁minutes	-4975
una	-4976
inqu	-4977
▁Emp	-4978
arm	-4979
▁subsid	-4980
▁consequential	-4981
▁Sr	-4982
▁fired	-4983
▁worked	-4984
▁representative	-4985
▁culp	-4986
dar	-4987
▁AM	-4988
▁link	-4989
opped	-4990
▁cast	-4991
udence	-4992
▁deeds	-4993
appa	-4994
▁sons	-4995
▁fees	-4996
elling	-4997
▁contradictions	-4998
arb	-4999
nai	-5000
▁tort	-5001
▁forms	-5002
▁forest	-5003
▁spite	-5004
▁sl	-5005
▁Member	-5006
▁capable	-5007
▁creditor	-5008
▁qualified	-5009
ourth	-5010
▁divor	-5011
▁authorized	-5012
▁qualifications	-5013
atel	-5014
ganj	-5015
▁defe	-5016
▁export	-5017
▁formed	-5018
dom	-5019
▁serve	-5020
▁regarded	-5021
▁corre	-5022
alpur	-5023
▁IN	-5024
vent	-5025
▁relax	-5026
▁vessel	-5027
UMAR	-5028
▁justify	-5029
▁comply	-5030
alli	-5031
▁often	-5032
lusively	-5033
▁postmortem	-5034
know	-5035
▁rigor	-5036
writ	-5037
▁Tra	-5038
▁privile	-5039
▁wor	-5040
▁highly	-5041
▁mistake	-5042
▁Plaintiffs	-5043
▁bul	-5044
▁reasonably	-5045
isen	-5046
▁proving	-5047
▁unlawful	-5048
bur	-5049
uddin	-5050
▁restriction	-5051
▁dates	-5052
▁killed	-5053
▁wrongly	-5054
▁developed	-5055
▁infirmity	-5056
▁ambit	-5057
▁sales	-5058
▁Lax	-5059
issa	-5060
▁lies	-5061
▁compr	-5062
▁representatives	-5063
▁stra	-5064
▁represented	-5065
▁bench	-5066
▁appreciated	-5067
cla	-5068
tle	-5069
izing	-5070
▁colour	-5071
▁percent	-5072
▁undue	-5073
▁partnership	-5074
▁driving	-5075
▁block	-5076
▁Some	-5077
▁obli	-5078
▁leaving	-5079
▁pursuance	-5080
▁manufacture	-5081
▁consequently	-5082
fe	-5083
▁Ragh	-5084
▁acknow	-5085
▁distur	-5086
▁compuls	-5087
cra	-5088
aging	-5089
reated	-5090
▁San	-5091
▁foot	-5092
▁exists	-5093
▁gre	-5094
hement	-5095
▁functioning	-5096
▁Int	-5097
▁eas	-5098
▁Sett	-5099
▁rout	-5100
▁results	-5101
▁vehement	-5102
ources	-5103
▁intro	-5104
▁PR	-5105
igil	-5106
▁reflect	-5107
▁retired	-5108
▁tenancy	-5109
▁religion	-5110
▁Constable	-5111
▁contraband	-5112
▁beat	-5113
▁identify	-5114
▁Every	-5115
▁restricted	-5116
HI	-5117
ics	-5118
▁Jun	-5119
▁pot	-5120
▁stayed	-5121
▁fragment	-5122
ni	-5123
▁Rak	-5124
pping	-5125
▁listed	-5126
anied	-5127
▁sustainable	-5128
▁inser	-5129
ourn	-5130
▁Orissa	-5131
▁attorney	-5132
▁type	-5133
▁safegu	-5134
arth	-5135
▁Chen	-5136
▁coup	-5137
▁affidavits	-5138
▁privacy	-5139
belie	-5140
▁City	-5141
▁kill	-5142
▁incrimin	-5143
▁concurrent	-5144
▁proceeds	-5145
▁Selection	-5146
oubted	-5147
▁academic	-5148
▁Anil	-5149
▁presumed	-5150
▁inconsistent	-5151
ook	-5152
chand	-5153
ushed	-5154
▁surv	-5155
▁Patel	-5156
▁accru	-5157
▁transf	-5158
io	-5159
ommod	-5160
▁newsp	-5161
▁precedent	-5162
▁manufacturing	-5163
ava	-5164
amma	-5165
▁whatever	-5166
▁Institute	-5167
▁inflicted	-5168
▁rejecting	-5169
▁authorised	-5170
▁accompanied	-5171
▁Na	-5172
▁matrim	-5173
▁situations	-5174
▁Upon	-5175
▁discrimination	-5176
ua	-5177
▁Meh	-5178
▁dil	-5179
charge	-5180
ounded	-5181
▁norms	-5182
halla	-5183
ildar	-5184
▁Hind	-5185
▁aged	-5186
▁quantum	-5187
▁winding	-5188
arya	-5189
▁fault	-5190
▁enumer	-5191
▁arisen	-5192
▁lakhs	-5193
▁motorcy	-5194
Judge	-5195
▁changed	-5196
▁revealed	-5197
omy	-5198
wami	-5199
▁amp	-5200
▁visited	-5201
▁vehicles	-5202
da	-5203
▁fatal	-5204
▁homic	-5205
▁Although	-5206
▁identical	-5207
▁Secondary	-5208
In	-5209
SP	-5210
▁Disc	-5211
▁MA	-5212
oice	-5213
▁Kan	-5214
nagar	-5215
▁Claim	-5216
GC	-5217
ped	-5218
▁Cust	-5219
▁vehemently	-5220
▁recognition	-5221
irit	-5222
▁Gopal	-5223
▁obviously	-5224
▁AD	-5225
▁Sy	-5226
▁autom	-5227
▁borne	-5228
pper	-5229
▁ignor	-5230
▁Sum	-5231
eries	-5232
amples	-5233
▁Suresh	-5234
▁occupation	-5235
pura	-5236
▁Only	-5237
ulates	-5238
▁neigh	-5239
▁affirmed	-5240
▁prohibition	-5241
▁Hotel	-5242
▁MO	-5243
just	-5244
▁longer	-5245
▁proportion	-5246
▁Ti	-5247
ropri	-5248
▁send	-5249
▁exclusion	-5250
▁Cri	-5251
▁items	-5252
▁integr	-5253
▁summons	-5254
ESH	-5255
oke	-5256
yscra	-5257
▁Doctor	-5258
yscraper	-5259
▁speaking	-5260
▁recognised	-5261
▁skyscraper	-5262
▁machinery	-5263
▁fing	-5264
▁Amendment	-5265
▁Inter	-5266
▁DIST	-5267
▁worth	-5268
▁Finance	-5269
▁professional	-5270
ORE	-5271
▁ris	-5272
▁agent	-5273
oubtedly	-5274
▁pleading	-5275
▁Industries	-5276
▁effic	-5277
▁recall	-5278
▁implication	-5279
▁Hy	-5280
umar	-5281
▁ends	-5282
▁affil	-5283
▁corroboration	-5284
▁Vin	-5285
▁relative	-5286
▁violative	-5287
▁Tri	-5288
▁heav	-5289
▁partly	-5290
▁assessed	-5291
▁Emplo	-5292
▁representing	-5293
▁ide	-5294
going	-5295
▁lapse	-5296
▁looked	-5297
▁teleph	-5298
▁propriet	-5299
▁Ven	-5300
▁Gang	-5301
▁Sure	-5302
▁incriminating	-5303
▁understanding	-5304
▁shock	-5305
▁stock	-5306
▁Form	-5307
▁Again	-5308
▁commenced	-5309
▁territorial	-5310
▁dt	-5311
▁Rav	-5312
▁cum	-5313
▁survey	-5314
▁influence	-5315
▁doubtful	-5316
▁protected	-5317
AI	-5318
▁sle	-5319
▁Build	-5320
▁Forest	-5321
▁interview	-5322
▁Add	-5323
▁Air	-5324
▁matrimonial	-5325
ART	-5326
▁morning	-5327
▁irrespective	-5328
vity	-5329
▁dele	-5330
▁Here	-5331
luding	-5332
▁mortem	-5333
NIC	-5334
oms	-5335
rew	-5336
▁implicated	-5337
▁wp	-5338
▁Paragraph	-5339
icks	-5340
▁Appeals	-5341
▁Dhan	-5342
▁anim	-5343
AB	-5344
ina	-5345
▁IST	-5346
hari	-5347
uven	-5348
▁Trib	-5349
▁Si	-5350
▁forwarded	-5351
▁black	-5352
▁unnecess	-5353
▁complaints	-5354
▁implementation	-5355
▁Allah	-5356
▁caution	-5357
▁Settlement	-5358
BC	-5359
right	-5360
▁mineral	-5361
▁paramet	-5362
▁Tw	-5363
▁try	-5364
▁conform	-5365
▁Assembly	-5366
aps	-5367
▁MAN	-5368
iency	-5369
▁Deed	-5370
▁cli	-5371
▁highest	-5372
▁Lordship	-5373
▁industry	-5374
▁classes	-5375
▁example	-5376
▁exchange	-5377
▁Ga	-5378
▁Gan	-5379
▁rely	-5380
▁effected	-5381
▁maintainability	-5382
arkhand	-5383
▁training	-5384
▁pain	-5385
hension	-5386
▁square	-5387
ales	-5388
nsic	-5389
▁actions	-5390
▁accommod	-5391
▁ROAD	-5392
▁observe	-5393
▁imposition	-5394
▁shareholders	-5395
SS	-5396
▁fig	-5397
▁weapons	-5398
mal	-5399
▁Um	-5400
▁Appellants	-5401
▁SCR	-5402
▁tenure	-5403
▁contends	-5404
▁immediate	-5405
▁distinguish	-5406
afide	-5407
▁collection	-5408
▁Rai	-5409
▁objects	-5410
▁obvious	-5411
▁achieved	-5412
▁hereunder	-5413
▁perspective	-5414
bs	-5415
▁struck	-5416
▁univers	-5417
lor	-5418
▁absor	-5419
▁depart	-5420
▁foundation	-5421
▁aforementioned	-5422
LI	-5423
▁af	-5424
▁joined	-5425
▁tar	-5426
▁reach	-5427
▁impart	-5428
▁prison	-5429
▁restrictions	-5430
oked	-5431
▁bidder	-5432
▁paying	-5433
▁rigorous	-5434
▁flow	-5435
▁guard	-5436
▁spirit	-5437
▁Institution	-5438
▁Jy	-5439
ducing	-5440
▁Transport	-5441
▁remove	-5442
onged	-5443
▁youn	-5444
ayment	-5445
encing	-5446
uru	-5447
asing	-5448
▁neighb	-5449
▁tenants	-5450
▁Sin	-5451
▁Rent	-5452
▁Created	-5453
▁convenience	-5454
▁lac	-5455
▁mala	-5456
▁entrusted	-5457
rastructure	-5458
▁AO	-5459
more	-5460
▁KAR	-5461
▁Pas	-5462
ticip	-5463
▁Mohalla	-5464
▁innocent	-5465
gi	-5466
▁grand	-5467
▁victims	-5468
lementary	-5469
▁envisaged	-5470
ortun	-5471
▁Notice	-5472
▁history	-5473
▁motorcycle	-5474
▁regulation	-5475
▁books	-5476
CR	-5477
ban	-5478
asthan	-5479
▁correctly	-5480
▁communicated	-5481
ena	-5482
jit	-5483
▁१६	-5484
▁photographs	-5485
▁avail	-5486
▁insofar	-5487
▁invoking	-5488
aji	-5489
▁renewal	-5490
▁exact	-5491
▁licen	-5492
▁missing	-5493
▁Jharkhand	-5494
▁Dur	-5495
acco	-5496
▁Rajendra	-5497
▁MR	-5498
▁OR	-5499
tees	-5500
▁gift	-5501
▁Reddy	-5502
angalore	-5503
▁anticip	-5504
▁unjust	-5505
▁Hig	-5506
▁men	-5507
▁founded	-5508
▁holders	-5509
▁Commercial	-5510
UL	-5511
▁SEC	-5512
▁suspect	-5513
UB	-5514
▁Deep	-5515
▁chem	-5516
▁dict	-5517
▁diary	-5518
joinder	-5519
▁Science	-5520
▁Defendants	-5521
▁essentially	-5522
▁Vol	-5523
lihood	-5524
▁paras	-5525
▁United	-5526
▁implied	-5527
ams	-5528
ifies	-5529
▁earn	-5530
▁solely	-5531
agers	-5532
▁Mod	-5533
bacco	-5534
▁Branch	-5535
▁oil	-5536
▁progress	-5537
anging	-5538
azette	-5539
▁danger	-5540
dden	-5541
▁Policy	-5542
amination	-5543
ilitation	-5544
▁entering	-5545
ifi	-5546
▁calling	-5547
▁Allahabad	-5548
▁Lak	-5549
▁gets	-5550
▁features	-5551
▁fairly	-5552
▁Attorney	-5553
ades	-5554
▁knew	-5555
▁peace	-5556
▁annual	-5557
▁corporation	-5558
▁Pl	-5559
ourses	-5560
ba	-5561
▁Mon	-5562
redit	-5563
▁persu	-5564
▁Territ	-5565
▁awarding	-5566
▁similarly	-5567
▁Higher	-5568
▁convey	-5569
▁Chennai	-5570
▁achieve	-5571
▁Rajasthan	-5572
▁passage	-5573
▁superior	-5574
▁enh	-5575
▁rect	-5576
▁vest	-5577
▁afford	-5578
▁belief	-5579
▁facilit	-5580
▁personnel	-5581
▁bill	-5582
▁holds	-5583
▁little	-5584
▁violated	-5585
▁threatened	-5586
▁cru	-5587
▁alien	-5588
▁dispose	-5589
▁numbers	-5590
ots	-5591
ura	-5592
▁Beg	-5593
▁your	-5594
▁transp	-5595
▁Project	-5596
▁located	-5597
▁participated	-5598
▁alias	-5599
opy	-5600
▁careful	-5601
hs	-5602
▁arrive	-5603
▁finality	-5604
▁parameters	-5605
▁Madhya	-5606
▁Town	-5607
▁rank	-5608
▁Madhub	-5609
lex	-5610
▁touch	-5611
▁Up	-5612
rule	-5613
▁contravention	-5614
cell	-5615
▁selling	-5616
▁statutes	-5617
▁Ret	-5618
▁entity	-5619
▁prepar	-5620
▁memorandum	-5621
ificates	-5622
▁impossible	-5623
▁Administrative	-5624
com	-5625
▁Crl	-5626
▁ruled	-5627
ARY	-5628
▁Junior	-5629
▁deprived	-5630
▁Ban	-5631
▁circular	-5632
▁irrelevant	-5633
▁minority	-5634
▁repro	-5635
etent	-5636
▁Chow	-5637
▁Choudh	-5638
▁lodging	-5639
▁rail	-5640
▁Tahs	-5641
▁prefer	-5642
▁declare	-5643
▁Secondly	-5644
▁box	-5645
▁risk	-5646
▁PWs	-5647
▁Manoj	-5648
▁Compla	-5649
▁colleges	-5650
▁enhan	-5651
▁dealer	-5652
▁select	-5653
▁arrears	-5654
▁fraudul	-5655
OC	-5656
▁Resolution	-5657
ilt	-5658
▁refusal	-5659
▁chemical	-5660
▁infringement	-5661
anand	-5662
known	-5663
▁Brah	-5664
▁armed	-5665
▁revisional	-5666
▁significance	-5667
hy	-5668
ayuk	-5669
▁bed	-5670
▁safety	-5671
▁brothers	-5672
▁sudden	-5673
▁advised	-5674
▁divorce	-5675
pat	-5676
SION	-5677
▁uphold	-5678
ror	-5679
▁Calc	-5680
▁truck	-5681
▁Members	-5682
▁Naw	-5683
▁park	-5684
▁burnt	-5685
▁enhance	-5686
▁admissions	-5687
▁irregularity	-5688
ceived	-5689
▁depends	-5690
▁continuing	-5691
cial	-5692
▁Jay	-5693
▁uncle	-5694
▁withdrawal	-5695
▁Dec	-5696
▁fem	-5697
▁dispro	-5698
▁insurer	-5699
▁appointing	-5700
▁confessional	-5701
▁TR	-5702
itig	-5703
▁bye	-5704
orship	-5705
oor	-5706
▁Col	-5707
▁Cites	-5708
URU	-5709
▁low	-5710
▁Kash	-5711
▁positive	-5712
▁ultimate	-5713
▁Bangalore	-5714
▁reinstate	-5715
ini	-5716
ulate	-5717
▁Officers	-5718
▁Statement	-5719
▁eyewitness	-5720
ADA	-5721
▁Ur	-5722
▁Sush	-5723
▁recon	-5724
ounding	-5725
▁illegally	-5726
ones	-5727
▁Rat	-5728
▁hear	-5729
▁Moham	-5730
▁Tiwari	-5731
▁asserted	-5732
▁prohibited	-5733
▁apprehension	-5734
▁factory	-5735
▁operations	-5736
▁Mis	-5737
ersus	-5738
▁brok	-5739
▁Ordin	-5740
▁relev	-5741
ousand	-5742
▁offender	-5743
▁Chancellor	-5744
▁pan	-5745
iating	-5746
sc	-5747
▁grow	-5748
▁Centre	-5749
▁Dinesh	-5750
▁Calcutta	-5751
▁international	-5752
▁expired	-5753
▁conclude	-5754
▁dr	-5755
▁Sinha	-5756
▁vires	-5757
igilance	-5758
▁Welfare	-5759
▁annexed	-5760
▁cognizable	-5761
sive	-5762
urang	-5763
▁borrower	-5764
inks	-5765
alg	-5766
▁reflected	-5767
▁amendments	-5768
▁evaluation	-5769
▁regularization	-5770
iah	-5771
▁TO	-5772
▁fear	-5773
▁knowing	-5774
gaon	-5775
irect	-5776
▁chance	-5777
▁indeed	-5778
▁disbelie	-5779
▁valuable	-5780
▁substantiate	-5781
▁Non	-5782
▁Vid	-5783
▁placing	-5784
▁interfered	-5785
▁canv	-5786
▁Uttar	-5787
▁recourse	-5788
ier	-5789
▁pop	-5790
▁termed	-5791
▁formula	-5792
▁Hem	-5793
▁stre	-5794
▁lawful	-5795
▁theory	-5796
▁putting	-5797
▁conclusive	-5798
abric	-5799
▁wall	-5800
▁content	-5801
▁Ward	-5802
▁evid	-5803
▁advice	-5804
▁reveal	-5805
▁Revision	-5806
▁punished	-5807
othing	-5808
▁visit	-5809
▁refuse	-5810
▁construct	-5811
▁eld	-5812
▁felt	-5813
▁Bharat	-5814
▁motion	-5815
▁appearance	-5816
hik	-5817
▁speak	-5818
▁anyone	-5819
▁finger	-5820
prudence	-5821
arai	-5822
▁exha	-5823
▁Being	-5824
▁stopped	-5825
▁Him	-5826
worthy	-5827
▁quota	-5828
ariness	-5829
▁caught	-5830
▁quasi	-5831
ourable	-5832
▁promoted	-5833
▁successful	-5834
▁Constitutional	-5835
osen	-5836
roll	-5837
where	-5838
▁Petitions	-5839
akar	-5840
▁Dubey	-5841
▁alive	-5842
▁speed	-5843
▁Mit	-5844
emark	-5845
▁evalu	-5846
▁forged	-5847
▁assessing	-5848
▁exceptional	-5849
avan	-5850
▁Rakesh	-5851
▁.....	-5852
▁levelled	-5853
uss	-5854
▁pressed	-5855
▁manufacturer	-5856
▁Om	-5857
▁Gram	-5858
▁weak	-5859
▁essence	-5860
▁judgement	-5861
▁hyp	-5862
▁belongs	-5863
▁Arbitral	-5864
▁chosen	-5865
▁Profess	-5866
▁apprehend	-5867
▁guaranteed	-5868
▁murd	-5869
▁equival	-5870
▁Ajay	-5871
▁Anand	-5872
▁begin	-5873
isputed	-5874
▁detenu	-5875
▁ND	-5876
▁hes	-5877
indra	-5878
▁KUMAR	-5879
▁Shyam	-5880
▁world	-5881
▁samples	-5882
▁underlying	-5883
▁discretionary	-5884
▁SA	-5885
▁plots	-5886
▁discrepancies	-5887
▁GO	-5888
▁RA	-5889
▁Sit	-5890
istol	-5891
▁lock	-5892
▁independence	-5893
ampur	-5894
▁bare	-5895
▁purported	-5896
asw	-5897
▁Ja	-5898
▁recent	-5899
▁Rep	-5900
▁compre	-5901
ica	-5902
ran	-5903
▁probation	-5904
ains	-5905
▁About	-5906
▁JUDGE	-5907
▁purview	-5908
▁Sd	-5909
▁Agg	-5910
▁indirect	-5911
put	-5912
▁Aff	-5913
▁Aged	-5914
▁demol	-5915
▁destro	-5916
▁trying	-5917
▁innocence	-5918
▁surrender	-5919
gle	-5920
ixed	-5921
▁Det	-5922
mn	-5923
▁Furthermore	-5924
gency	-5925
▁sleep	-5926
▁averred	-5927
▁Planning	-5928
het	-5929
▁AGE	-5930
▁tobacco	-5931
▁assembly	-5932
▁item	-5933
▁vendor	-5934
▁prohibit	-5935
▁discrimin	-5936
▁participate	-5937
▁perpet	-5938
Ch	-5939
▁week	-5940
St	-5941
arh	-5942
ints	-5943
▁aim	-5944
uliar	-5945
▁bringing	-5946
▁tendered	-5947
▁Caste	-5948
▁tests	-5949
▁permits	-5950
▁peculiar	-5951
▁appreciating	-5952
▁AN	-5953
rees	-5954
▁facility	-5955
▁primarily	-5956
▁Tar	-5957
▁Gand	-5958
▁fabric	-5959
▁purely	-5960
ientific	-5961
doc	-5962
▁governing	-5963
▁confirmation	-5964
▁FSL	-5965
▁net	-5966
▁Proper	-5967
▁program	-5968
▁imposing	-5969
aha	-5970
vast	-5971
▁Insofar	-5972
▁buildings	-5973
▁continuous	-5974
▁percentage	-5975
▁modification	-5976
emn	-5977
▁Kol	-5978
▁SLP	-5979
▁Vik	-5980
▁tri	-5981
▁Acqu	-5982
▁Prat	-5983
▁dismissing	-5984
ially	-5985
cum	-5986
▁Sad	-5987
▁Entry	-5988
▁१७	-5989
▁gat	-5990
▁stop	-5991
▁crucial	-5992
▁falling	-5993
habilitation	-5994
▁establishing	-5995
▁ran	-5996
onance	-5997
licitor	-5998
EG	-5999
▁talk	-6000
▁doctors	-6001
▁constitu	-6002
▁improper	-6003
▁Two	-6004
▁stained	-6005
▁acknowled	-6006
▁Besides	-6007
▁Subsequently	-6008
▁Di	-6009
▁fixing	-6010
▁pistol	-6011
▁overall	-6012
requ	-6013
▁compon	-6014
▁complex	-6015
▁investment	-6016
DC	-6017
▁Car	-6018
▁amb	-6019
▁None	-6020
▁banks	-6021
▁Master	-6022
▁suffers	-6023
▁projects	-6024
▁restrict	-6025
▁servants	-6026
▁whenever	-6027
▁Madhubani	-6028
▁resources	-6029
▁preparation	-6030
SA	-6031
▁gathered	-6032
▁judicata	-6033
▁Mat	-6034
▁audit	-6035
▁Aggrieved	-6036
loc	-6037
idal	-6038
▁Mus	-6039
▁Crime	-6040
▁Jagdish	-6041
▁problem	-6042
▁obligations	-6043
gone	-6044
▁avo	-6045
▁STATE	-6046
▁Taluk	-6047
▁opening	-6048
▁contribution	-6049
▁monthly	-6050
ratic	-6051
▁currency	-6052
▁..........	-6053
▁reputation	-6054
▁exclusively	-6055
▁God	-6056
▁requiring	-6057
hana	-6058
algam	-6059
▁Also	-6060
writing	-6061
▁doubts	-6062
▁premium	-6063
▁attributed	-6064
asan	-6065
▁Bhawan	-6066
▁shifted	-6067
▁adoption	-6068
▁believed	-6069
ilal	-6070
line	-6071
▁BEN	-6072
▁misc	-6073
▁efforts	-6074
▁pertain	-6075
▁NE	-6076
▁Hari	-6077
▁comb	-6078
uvenile	-6079
ordinary	-6080
ateral	-6081
▁bills	-6082
▁rupees	-6083
▁compulsory	-6084
HAI	-6085
erved	-6086
▁annum	-6087
▁absent	-6088
▁fulfilled	-6089
▁enumerated	-6090
▁unnecessary	-6091
▁kid	-6092
▁typ	-6093
DS	-6094
▁relate	-6095
erce	-6096
eding	-6097
▁outset	-6098
▁violence	-6099
▁certificates	-6100
▁air	-6101
▁injustice	-6102
▁Registration	-6103
ask	-6104
▁ed	-6105
▁Path	-6106
▁deny	-6107
▁expedit	-6108
▁involves	-6109
DR	-6110
lar	-6111
▁lady	-6112
▁onus	-6113
▁ship	-6114
▁Pension	-6115
▁competence	-6116
▁availability	-6117
▁CL	-6118
▁Mant	-6119
▁Raju	-6120
iciary	-6121
▁chann	-6122
▁cy	-6123
▁lays	-6124
ishment	-6125
▁Versus	-6126
▁counsels	-6127
head	-6128
mity	-6129
▁contest	-6130
▁gl	-6131
eech	-6132
▁Rah	-6133
▁mag	-6134
icing	-6135
▁consonance	-6136
▁prevailing	-6137
HAN	-6138
▁clean	-6139
iform	-6140
▁Hyder	-6141
▁asking	-6142
▁Plead	-6143
▁moment	-6144
▁courses	-6145
▁seriously	-6146
▁Investigation	-6147
AY	-6148
gy	-6149
ocal	-6150
acharya	-6151
▁causes	-6152
▁declined	-6153
▁continues	-6154
▁Sw	-6155
▁Ve	-6156
▁ITR	-6157
▁rebut	-6158
mir	-6159
rav	-6160
eeping	-6161
▁Orders	-6162
▁corrupt	-6163
▁rational	-6164
arsh	-6165
▁Sahu	-6166
GALORE	-6167
▁distrib	-6168
▁Mrs	-6169
▁abet	-6170
▁pleas	-6171
▁cultiv	-6172
▁infrastructure	-6173
▁throughout	-6174
▁Engineering	-6175
ray	-6176
cture	-6177
▁Chau	-6178
▁Lect	-6179
▁Arun	-6180
ustain	-6181
▁friend	-6182
▁assuming	-6183
▁murdered	-6184
▁consumption	-6185
▁surr	-6186
▁Leave	-6187
▁forfe	-6188
▁acquire	-6189
▁enhanced	-6190
▁equitable	-6191
▁trademark	-6192
king	-6193
▁Bazar	-6194
▁resign	-6195
atically	-6196
▁division	-6197
▁BANGALORE	-6198
▁depending	-6199
▁Gazette	-6200
▁concerning	-6201
▁resort	-6202
▁enforced	-6203
▁Ministers	-6204
eros	-6205
State	-6206
ether	-6207
▁participation	-6208
anti	-6209
unci	-6210
▁Bah	-6211
ulter	-6212
▁arms	-6213
▁Paswan	-6214
▁overlo	-6215
locutory	-6216
▁Engineers	-6217
▁allowance	-6218
UT	-6219
▁Misc	-6220
▁forc	-6221
▁Customs	-6222
▁executing	-6223
▁ant	-6224
▁thirt	-6225
judicial	-6226
urangabad	-6227
▁voluntarily	-6228
▁corresponding	-6229
pro	-6230
atur	-6231
▁reop	-6232
▁nexus	-6233
▁earning	-6234
▁treating	-6235
MA	-6236
▁CIT	-6237
▁Addl	-6238
▁Liqu	-6239
▁bids	-6240
▁orna	-6241
▁Hyderabad	-6242
▁association	-6243
▁endorsement	-6244
ghted	-6245
utable	-6246
▁medic	-6247
▁houses	-6248
▁occasions	-6249
▁compelled	-6250
▁arbitrariness	-6251
...	-6252
▁repla	-6253
▁Statute	-6254
▁supporting	-6255
▁elic	-6256
▁jointly	-6257
▁undergone	-6258
▁equivalent	-6259
solid	-6260
▁Like	-6261
▁diss	-6262
▁adjust	-6263
▁female	-6264
▁Sections	-6265
▁receipts	-6266
▁substantially	-6267
▁Prim	-6268
▁study	-6269
▁delinqu	-6270
▁belonged	-6271
▁Aurangabad	-6272
▁associated	-6273
▁backd	-6274
▁creates	-6275
▁obliged	-6276
▁elections	-6277
▁Kishore	-6278
ne	-6279
▁Ba	-6280
▁team	-6281
▁electr	-6282
▁current	-6283
uj	-6284
▁Bid	-6285
▁iron	-6286
astipur	-6287
▁domain	-6288
▁licensee	-6289
▁teaching	-6290
▁substitute	-6291
ableness	-6292
▁Lecturer	-6293
▁considerable	-6294
▁Us	-6295
eree	-6296
▁don	-6297
▁user	-6298
▁equip	-6299
▁speech	-6300
▁compared	-6301
ustainable	-6302
▁observing	-6303
▁Legislative	-6304
▁pick	-6305
▁drawing	-6306
▁relevance	-6307
▁demonstrate	-6308
▁integ	-6309
▁defend	-6310
appropri	-6311
▁amalgam	-6312
▁promise	-6313
▁OCC	-6314
urities	-6315
▁uniform	-6316
▁imag	-6317
▁Issue	-6318
▁chest	-6319
lighted	-6320
▁Mahesh	-6321
▁location	-6322
▁instances	-6323
▁unconstitution	-6324
nu	-6325
▁NCT	-6326
▁Sushil	-6327
▁levied	-6328
ae	-6329
ps	-6330
asi	-6331
hara	-6332
▁CON	-6333
orily	-6334
▁defines	-6335
▁attained	-6336
▁operative	-6337
▁affirmative	-6338
▁fract	-6339
▁regulate	-6340
▁potential	-6341
▁relaxation	-6342
▁highlighted	-6343
▁PC	-6344
▁Orig	-6345
▁Parties	-6346
▁prevail	-6347
ung	-6348
▁bribe	-6349
vastava	-6350
▁countries	-6351
yes	-6352
▁difficulty	-6353
▁Can	-6354
▁Lakh	-6355
aduate	-6356
▁Market	-6357
▁answers	-6358
.00	-6359
achal	-6360
roller	-6361
▁hotel	-6362
erosene	-6363
▁Object	-6364
▁illustr	-6365
▁Advocates	-6366
▁contesting	-6367
▁satisfactory	-6368
▁pet	-6369
▁Sale	-6370
▁ultra	-6371
▁across	-6372
▁accrued	-6373
aves	-6374
from	-6375
▁sure	-6376
abling	-6377
applic	-6378
▁asset	-6379
▁early	-6380
▁Administration	-6381
losed	-6382
▁England	-6383
▁Present	-6384
▁exceeding	-6385
▁prospective	-6386
US	-6387
▁Dal	-6388
▁rese	-6389
▁enmity	-6390
▁besides	-6391
▁legality	-6392
cel	-6393
enty	-6394
onic	-6395
▁Maj	-6396
▁choose	-6397
▁factum	-6398
▁sector	-6399
▁vague	-6400
▁Review	-6401
▁creating	-6402
▁exhibited	-6403
▁reinstatement	-6404
aved	-6405
ider	-6406
▁Third	-6407
▁incumb	-6408
▁partner	-6409
▁requisition	-6410
igence	-6411
▁Enquiry	-6412
▁credibility	-6413
▁1	-6414
▁Sand	-6415
▁contending	-6416
aik	-6417
nath	-6418
▁enunci	-6419
▁mainly	-6420
▁demands	-6421
respondent	-6422
▁impermissible	-6423
▁jurisprudence	-6424
nam	-6425
tas	-6426
▁AR	-6427
ayukta	-6428
ensive	-6429
unities	-6430
▁invoke	-6431
▁tested	-6432
▁Santosh	-6433
▁changes	-6434
▁deserve	-6435
▁Technical	-6436
▁investigate	-6437
▁unsustainable	-6438
▁pp	-6439
▁Ans	-6440
▁Math	-6441
▁drug	-6442
▁BENGAL	-6443
▁Design	-6444
aneously	-6445
▁bidders	-6446
▁conscience	-6447
▁hoc	-6448
ternal	-6449
▁terror	-6450
▁deliver	-6451
▁interrog	-6452
▁contested	-6453
reign	-6454
▁Purn	-6455
▁meetings	-6456
▁suggests	-6457
▁sentences	-6458
osite	-6459
▁----	-6460
▁Manj	-6461
▁contradict	-6462
ORT	-6463
osed	-6464
▁Yog	-6465
▁Venk	-6466
▁fourth	-6467
▁initiate	-6468
▁Whereas	-6469
▁assumed	-6470
▁precise	-6471
▁vent	-6472
▁Years	-6473
▁exhaust	-6474
▁unknown	-6475
▁nominated	-6476
▁Acquisition	-6477
▁interlocutory	-6478
▁Authorities	-6479
ivity	-6480
▁insp	-6481
▁Schools	-6482
▁denying	-6483
▁creation	-6484
▁ornaments	-6485
racy	-6486
▁Pay	-6487
▁eyes	-6488
▁inad	-6489
ICE	-6490
edi	-6491
erk	-6492
▁amen	-6493
▁struct	-6494
▁Competent	-6495
▁Electricity	-6496
urd	-6497
edic	-6498
▁Vire	-6499
▁marry	-6500
ogether	-6501
▁Rights	-6502
▁hesitation	-6503
oy	-6504
amus	-6505
▁Bil	-6506
▁Jha	-6507
▁VII	-6508
▁voice	-6509
▁escape	-6510
▁BENGALURU	-6511
▁practices	-6512
arp	-6513
▁Are	-6514
hemes	-6515
▁Mahe	-6516
▁buyer	-6517
▁needed	-6518
▁connect	-6519
▁student	-6520
▁mechanism	-6521
▁preceding	-6522
NAT	-6523
▁IC	-6524
▁vic	-6525
▁laying	-6526
▁initiation	-6527
▁shot	-6528
overeign	-6529
▁Nothing	-6530
▁kerosene	-6531
.--	-6532
▁Tig	-6533
ounted	-6534
▁infer	-6535
▁firing	-6536
▁seeing	-6537
▁interpreting	-6538
▁Rajeev	-6539
▁contrib	-6540
va	-6541
▁Conc	-6542
▁admits	-6543
▁backdrop	-6544
▁Aud	-6545
ding	-6546
ardship	-6547
▁greater	-6548
▁enabling	-6549
▁newspaper	-6550
▁contradiction	-6551
abin	-6552
▁SEBI	-6553
▁hardly	-6554
▁protest	-6555
▁internal	-6556
▁dishonest	-6557
ifiable	-6558
examined	-6559
▁failing	-6560
▁superann	-6561
▁furtherance	-6562
▁oath	-6563
▁concession	-6564
off	-6565
arsa	-6566
▁Bus	-6567
▁devi	-6568
▁poor	-6569
▁entirety	-6570
▁pressure	-6571
▁Lordships	-6572
▁delinquent	-6573
▁arm	-6574
▁decreed	-6575
▁integrity	-6576
▁permitting	-6577
▁deliberately	-6578
vere	-6579
▁Jit	-6580
ailable	-6581
▁defici	-6582
▁testator	-6583
▁originally	-6584
▁transportation	-6585
▁privilege	-6586
▁key	-6587
▁passen	-6588
▁NS	-6589
▁nar	-6590
▁Wakf	-6591
▁feature	-6592
▁promoter	-6593
ishad	-6594
ishing	-6595
▁discovery	-6596
▁discharging	-6597
▁Labor	-6598
▁Interest	-6599
▁JUDGMENT	-6600
▁remedies	-6601
▁presently	-6602
▁unauthorized	-6603
▁Ay	-6604
▁quo	-6605
▁fast	-6606
▁narrow	-6607
▁Financial	-6608
▁extremely	-6609
▁devoid	-6610
▁useful	-6611
▁inserted	-6612
▁entitlement	-6613
▁core	-6614
▁effort	-6615
▁exclude	-6616
▁Societies	-6617
▁SI	-6618
▁speaks	-6619
▁empowers	-6620
▁hardship	-6621
▁assumption	-6622
▁formulated	-6623
▁chargesheet	-6624
▁ITS	-6625
▁Kaur	-6626
▁serving	-6627
▁fif	-6628
▁Sham	-6629
irable	-6630
▁Mehta	-6631
▁experts	-6632
ham	-6633
ories	-6634
▁apex	-6635
▁incidental	-6636
▁extraordinary	-6637
aling	-6638
inter	-6639
▁Prem	-6640
▁Swami	-6641
▁Housing	-6642
▁Pleader	-6643
▁confers	-6644
▁entities	-6645
▁Governments	-6646
▁taxes	-6647
▁disturb	-6648
▁stipulates	-6649
▁anticipatory	-6650
▁Enter	-6651
▁parade	-6652
▁possessed	-6653
gery	-6654
pass	-6655
sych	-6656
▁PIL	-6657
▁Honâ	-6658
▁weigh	-6659
▁Patent	-6660
▁casual	-6661
▁displa	-6662
▁recons	-6663
eav	-6664
odh	-6665
ITION	-6666
kumar	-6667
ancing	-6668
▁incon	-6669
▁remark	-6670
olve	-6671
stated	-6672
▁Regional	-6673
▁Transfer	-6674
▁canvassed	-6675
▁foregoing	-6676
▁UGC	-6677
▁Ravi	-6678
▁played	-6679
▁Neither	-6680
▁improve	-6681
▁fairness	-6682
▁inviting	-6683
▁summon	-6684
▁Muz	-6685
▁Prabh	-6686
▁Chauhan	-6687
▁substituted	-6688
lier	-6689
▁Bad	-6690
▁perf	-6691
▁altogether	-6692
▁intervention	-6693
uck	-6694
haps	-6695
▁endeav	-6696
▁thirty	-6697
▁cartrid	-6698
▁involve	-6699
▁alleging	-6700
▁pointing	-6701
▁conformity	-6702
HAR	-6703
▁VI	-6704
anama	-6705
▁mouth	-6706
▁dissol	-6707
▁incomp	-6708
▁Vigilance	-6709
ifting	-6710
▁Pe	-6711
▁Chak	-6712
▁club	-6713
▁pattern	-6714
▁residents	-6715
▁DNA	-6716
alled	-6717
▁grade	-6718
▁qualifying	-6719
oon	-6720
mark	-6721
▁Mur	-6722
▁sens	-6723
▁leads	-6724
▁gratuity	-6725
▁dependent	-6726
▁undoubtedly	-6727
▁jurisdictional	-6728
▁war	-6729
▁lieu	-6730
fering	-6731
cellaneous	-6732
arg	-6733
▁Bhus	-6734
▁Jail	-6735
▁prox	-6736
cement	-6737
▁designated	-6738
▁enforceable	-6739
ager	-6740
▁Merely	-6741
▁Professor	-6742
▁Solicitor	-6743
▁undisputed	-6744
ICTE	-6745
lets	-6746
▁Sen	-6747
onies	-6748
▁Jyot	-6749
▁deep	-6750
▁Article	-6751
▁discarded	-6752
▁Directorate	-6753
▁Dil	-6754
▁lessee	-6755
▁thousand	-6756
▁institute	-6757
▁submitting	-6758
▁provisional	-6759
▁Han	-6760
ching	-6761
▁AICTE	-6762
▁heavy	-6763
▁consign	-6764
▁ascertained	-6765
uter	-6766
▁consumer	-6767
▁assailants	-6768
▁Cap	-6769
▁Keeping	-6770
appellants	-6771
ea	-6772
APP	-6773
ima	-6774
▁Jal	-6775
▁resc	-6776
▁votes	-6777
ruption	-6778
▁juncture	-6779
▁villagers	-6780
▁Controller	-6781
,0	-6782
iram	-6783
▁sets	-6784
▁adjudicated	-6785
▁interfering	-6786
▁Ku	-6787
cular	-6788
hew	-6789
ainted	-6790
▁Point	-6791
▁Those	-6792
▁trave	-6793
▁Letters	-6794
▁attempted	-6795
▁sovereign	-6796
MP	-6797
athy	-6798
aviour	-6799
▁showed	-6800
▁arriving	-6801
▁witnessed	-6802
▁suggestions	-6803
rant	-6804
▁TRAN	-6805
itated	-6806
▁genuin	-6807
▁firstly	-6808
▁assailed	-6809
▁clarification	-6810
▁agencies	-6811
▁establishes	-6812
▁Ed	-6813
iddle	-6814
▁fill	-6815
▁Survey	-6816
▁expectation	-6817
owed	-6818
▁Bag	-6819
▁boy	-6820
▁heads	-6821
▁condon	-6822
▁attachment	-6823
▁pm	-6824
▁elder	-6825
▁lines	-6826
▁scientific	-6827
hani	-6828
lter	-6829
mail	-6830
▁Dis	-6831
▁filling	-6832
▁telephone	-6833
anta	-6834
▁Oper	-6835
▁Prot	-6836
▁insured	-6837
oda	-6838
oshi	-6839
▁anti	-6840
uniary	-6841
▁waste	-6842
ulative	-6843
▁Castes	-6844
▁Despite	-6845
▁remanded	-6846
▁securing	-6847
zing	-6848
▁Nas	-6849
▁stret	-6850
▁personally	-6851
▁Tehs	-6852
▁Chaudh	-6853
▁summary	-6854
▁discussions	-6855
▁probability	-6856
▁automatically	-6857
ui	-6858
▁Bhoj	-6859
▁relies	-6860
▁retain	-6861
▁operating	-6862
▁conversation	-6863
IF	-6864
▁Tel	-6865
▁scales	-6866
▁Likewise	-6867
▁resolved	-6868
▁Limitation	-6869
▁pronouncement	-6870
▁male	-6871
▁auton	-6872
▁Agency	-6873
▁inferred	-6874
▁empt	-6875
▁locus	-6876
▁Property	-6877
compliance	-6878
ERS	-6879
nan	-6880
▁thrown	-6881
▁travel	-6882
▁Discipl	-6883
▁Divisional	-6884
umn	-6885
ptive	-6886
▁Copy	-6887
aining	-6888
▁officials	-6889
▁calculated	-6890
▁performing	-6891
▁transferee	-6892
▁accommodation	-6893
▁representations	-6894
rup	-6895
icus	-6896
▁Cro	-6897
▁nine	-6898
▁Liquid	-6899
▁settle	-6900
▁complic	-6901
▁fulfill	-6902
▁subjects	-6903
want	-6904
▁Out	-6905
▁mutual	-6906
▁stages	-6907
▁coupled	-6908
▁Recovery	-6909
▁Registry	-6910
▁democracy	-6911
▁maintaining	-6912
▁Shankaracharya	-6913
▁Nal	-6914
▁throw	-6915
▁Muzaff	-6916
▁squarely	-6917
▁verified	-6918
▁incumbent	-6919
pons	-6920
▁Vide	-6921
ghters	-6922
▁incap	-6923
▁Tribes	-6924
▁exhibit	-6925
▁Exchange	-6926
▁constitutes	-6927
▁enables	-6928
▁increased	-6929
▁investigated	-6930
▁manufactured	-6931
UN	-6932
▁Pak	-6933
▁map	-6934
▁fled	-6935
▁afresh	-6936
▁approx	-6937
▁Session	-6938
▁Ahmedabad	-6939
▁controlled	-6940
▁genuineness	-6941
▁Bhat	-6942
▁PART	-6943
▁estopp	-6944
▁refusing	-6945
▁impleaded	-6946
▁expressions	-6947
ster	-6948
▁Val	-6949
SPORT	-6950
▁merc	-6951
▁existed	-6952
▁implemented	-6953
PF	-6954
▁Stand	-6955
▁series	-6956
▁altered	-6957
▁external	-6958
▁directors	-6959
▁liabilities	-6960
ppa	-6961
ajan	-6962
atrix	-6963
▁stab	-6964
▁railway	-6965
▁unfortun	-6966
▁rendering	-6967
▁Roy	-6968
▁sake	-6969
veloper	-6970
▁sources	-6971
▁converted	-6972
▁daughters	-6973
▁panchnama	-6974
resentation	-6975
ugg	-6976
▁unequ	-6977
▁viewed	-6978
▁fixation	-6979
▁supposed	-6980
▁contemplates	-6981
▁supplementary	-6982
hu	-6983
▁MP	-6984
imal	-6985
▁Shuk	-6986
▁Legal	-6987
▁ancest	-6988
▁earliest	-6989
▁TRANSPORT	-6990
▁scheduled	-6991
▁suspicious	-6992
now	-6993
ume	-6994
icit	-6995
▁Est	-6996
inous	-6997
▁Gaya	-6998
▁Sukh	-6999
▁vote	-7000
▁thumb	-7001
▁evening	-7002
▁offending	-7003
▁ban	-7004
essed	-7005
stwhile	-7006
▁client	-7007
▁democratic	-7008
▁enhancement	-7009
▁Far	-7010
▁calls	-7011
▁conve	-7012
▁FOR	-7013
aches	-7014
▁city	-7015
▁prays	-7016
▁shape	-7017
▁Ganesh	-7018
▁Reason	-7019
▁Rohtas	-7020
ervation	-7021
▁ensuring	-7022
▁indicating	-7023
era	-7024
▁Its	-7025
▁Samastipur	-7026
▁erstwhile	-7027
▁proprietor	-7028
▁handwriting	-7029
▁resignation	-7030
▁superannuation	-7031
▁Notwithstanding	-7032
▁facto	-7033
▁panel	-7034
▁nowhere	-7035
▁replied	-7036
ultaneously	-7037
▁Und	-7038
▁Amit	-7039
olitan	-7040
▁Forensic	-7041
▁confusion	-7042
RET	-7043
▁Lo	-7044
▁Nav	-7045
▁Pan	-7046
▁gains	-7047
▁remote	-7048
▁undertake	-7049
▁independently	-7050
▁PET	-7051
▁Pri	-7052
rimes	-7053
▁ante	-7054
▁tell	-7055
arriage	-7056
▁silent	-7057
▁sending	-7058
▁fraudulent	-7059
▁Chh	-7060
▁Mantral	-7061
▁constra	-7062
▁delayed	-7063
▁multiple	-7064
adur	-7065
▁RBI	-7066
▁Test	-7067
▁river	-7068
▁sharp	-7069
uration	-7070
▁outcome	-7071
ropolitan	-7072
unicipality	-7073
▁consisting	-7074
▁furnishing	-7075
ola	-7076
▁Ge	-7077
omal	-7078
raft	-7079
ureau	-7080
▁Naya	-7081
▁discloses	-7082
▁Memorandum	-7083
AKA	-7084
RISH	-7085
rase	-7086
▁Dam	-7087
▁Food	-7088
arious	-7089
▁assisted	-7090
▁apparently	-7091
▁imperative	-7092
lat	-7093
▁frustr	-7094
▁apprehended	-7095
▁limitations	-7096
▁distinguished	-7097
wah	-7098
elve	-7099
▁feet	-7100
▁wage	-7101
prises	-7102
▁severe	-7103
▁Kashmir	-7104
▁assertion	-7105
▁rejoinder	-7106
oses	-7107
▁Siwan	-7108
oration	-7109
▁adversely	-7110
▁Laboratory	-7111
▁beneficial	-7112
▁effectively	-7113
EF	-7114
IP	-7115
oud	-7116
sees	-7117
▁Ten	-7118
▁wis	-7119
▁Agra	-7120
▁Main	-7121
▁Cases	-7122
▁acres	-7123
▁SECRET	-7124
▁analog	-7125
andi	-7126
road	-7127
aspur	-7128
▁roll	-7129
▁Human	-7130
▁prescribe	-7131
▁Chem	-7132
▁meantime	-7133
▁homicidal	-7134
▁safeguard	-7135
LR	-7136
▁Ir	-7137
▁Va	-7138
▁extr	-7139
undred	-7140
▁commod	-7141
▁disposs	-7142
▁locality	-7143
▁Mantralaya	-7144
▁disproportion	-7145
▁base	-7146
▁Vinod	-7147
▁evidences	-7148
▁neighbour	-7149
▁IV	-7150
▁top	-7151
▁Motor	-7152
SR	-7153
ze	-7154
▁pi	-7155
▁lis	-7156
▁kidna	-7157
▁Ray	-7158
▁Som	-7159
etary	-7160
▁round	-7161
▁active	-7162
▁whereof	-7163
▁Examination	-7164
▁expeditiously	-7165
NL	-7166
OL	-7167
oli	-7168
atta	-7169
▁brand	-7170
▁projected	-7171
▁completing	-7172
▁authentication	-7173
ahi	-7174
▁derived	-7175
▁encoura	-7176
KA	-7177
asa	-7178
pers	-7179
▁Fact	-7180
▁fort	-7181
▁mess	-7182
▁fight	-7183
▁Taking	-7184
▁Bhagwan	-7185
▁trustees	-7186
▁notifications	-7187
▁Kap	-7188
▁join	-7189
▁proves	-7190
Rs	-7191
iti	-7192
▁Sav	-7193
▁lat	-7194
▁space	-7195
▁ocular	-7196
istrator	-7197
▁SECRETARY	-7198
▁Territory	-7199
▁discriminatory	-7200
ley	-7201
▁bags	-7202
▁Ranjan	-7203
▁lesser	-7204
▁imported	-7205
▁territory	-7206
suant	-7207
▁prompt	-7208
▁Circular	-7209
▁prevented	-7210
▁therefrom	-7211
▁comparison	-7212
▁prescribes	-7213
▁Complainant	-7214
xx	-7215
▁drive	-7216
▁Govind	-7217
▁twenty	-7218
idential	-7219
▁beginning	-7220
▁nearby	-7221
▁Bhojpur	-7222
▁pervers	-7223
▁mandamus	-7224
▁testatrix	-7225
▁adjudicate	-7226
▁Later	-7227
▁Sales	-7228
▁spent	-7229
erences	-7230
GA	-7231
TT	-7232
ANT	-7233
▁Pet	-7234
▁Organ	-7235
▁ability	-7236
▁Pursuant	-7237
▁restraining	-7238
hr	-7239
▁ON	-7240
▁ADV	-7241
▁Nor	-7242
▁Arora	-7243
▁Steel	-7244
▁earth	-7245
istence	-7246
▁Agricult	-7247
▁IO	-7248
▁Babu	-7249
▁earned	-7250
▁Subject	-7251
▁returns	-7252
▁schemes	-7253
▁remember	-7254
▁declarations	-7255
mer	-7256
▁wr	-7257
oles	-7258
▁rul	-7259
appre	-7260
ussain	-7261
▁Exper	-7262
▁intimation	-7263
▁outstanding	-7264
▁Pin	-7265
▁Each	-7266
▁flats	-7267
▁misrep	-7268
▁attended	-7269
▁regularly	-7270
gue	-7271
▁dw	-7272
▁aband	-7273
▁prepare	-7274
▁amounting	-7275
▁behaviour	-7276
irms	-7277
▁Tiger	-7278
▁region	-7279
▁avoided	-7280
▁wrongful	-7281
▁assurance	-7282
▁allocation	-7283
ometric	-7284
ulating	-7285
▁Mukesh	-7286
▁strang	-7287
▁gravity	-7288
▁declaring	-7289
▁repeatedly	-7290
▁subsection	-7291
▁Person	-7292
▁PETITION	-7293
istics	-7294
▁North	-7295
▁Trade	-7296
▁Record	-7297
▁defeat	-7298
▁emerges	-7299
▁extingu	-7300
MS	-7301
YA	-7302
▁idea	-7303
enders	-7304
▁Madan	-7305
▁shops	-7306
▁happens	-7307
▁respond	-7308
▁trading	-7309
▁bonafide	-7310
▁retained	-7311
▁reduction	-7312
▁arbitrators	-7313
ERA	-7314
ero	-7315
▁chart	-7316
ensation	-7317
▁discuss	-7318
▁conveyance	-7319
▁task	-7320
▁chief	-7321
▁Indeed	-7322
▁Rupees	-7323
▁Firstly	-7324
▁Scrutin	-7325
▁supervis	-7326
▁secondary	-7327
▁Liquidator	-7328
▁prejudicial	-7329
ilk	-7330
unk	-7331
ifteen	-7332
▁Grade	-7333
▁Guarant	-7334
▁deposits	-7335
▁assignment	-7336
▁blank	-7337
hensive	-7338
▁Employe	-7339
▁dro	-7340
▁Coal	-7341
▁cryst	-7342
▁moral	-7343
▁wants	-7344
▁succession	-7345
▁Construction	-7346
JC	-7347
aul	-7348
▁IA	-7349
▁Sabha	-7350
▁debtor	-7351
▁desire	-7352
▁seller	-7353
▁reversed	-7354
▁pecuniary	-7355
▁panchanama	-7356
coh	-7357
iri	-7358
yalty	-7359
▁manip	-7360
▁overt	-7361
▁Shukla	-7362
▁bullet	-7363
▁Bhushan	-7364
▁accorded	-7365
▁estoppel	-7366
▁sometimes	-7367
▁definitely	-7368
▁exceptions	-7369
cond	-7370
▁Conf	-7371
assess	-7372
ractor	-7373
▁batch	-7374
▁resorted	-7375
▁ITAT	-7376
▁polic	-7377
▁vacated	-7378
▁Building	-7379
▁municipal	-7380
CA	-7381
cast	-7382
▁Our	-7383
▁Prom	-7384
▁backward	-7385
▁compound	-7386
▁subsidiary	-7387
▁raw	-7388
▁Party	-7389
▁mitig	-7390
▁elector	-7391
▁Tribunals	-7392
SE	-7393
like	-7394
▁Lic	-7395
▁Pad	-7396
▁heart	-7397
▁reaching	-7398
▁Gre	-7399
▁PRA	-7400
▁Sudh	-7401
certain	-7402
▁thinks	-7403
▁truthful	-7404
▁elaborate	-7405
gn	-7406
ikh	-7407
jun	-7408
▁Dy	-7409
ique	-7410
▁tank	-7411
▁assert	-7412
▁miscarriage	-7413
▁Acts	-7414
▁Inst	-7415
▁love	-7416
iguous	-7417
▁Memon	-7418
▁Unless	-7419
▁strike	-7420
▁Scrutiny	-7421
▁Had	-7422
▁Last	-7423
▁seem	-7424
▁Himachal	-7425
▁bleeding	-7426
▁elicited	-7427
▁Muzaffarpur	-7428
amar	-7429
▁root	-7430
appreci	-7431
▁KARNAT	-7432
▁abscond	-7433
▁Register	-7434
▁Security	-7435
▁answering	-7436
▁pic	-7437
isory	-7438
▁Park	-7439
bid	-7440
aped	-7441
anchi	-7442
essees	-7443
matter	-7444
person	-7445
▁Works	-7446
▁assume	-7447
▁Teachers	-7448
▁KARNATAKA	-7449
▁negligent	-7450
▁perversity	-7451
IG	-7452
ashi	-7453
▁Khat	-7454
▁Based	-7455
▁accus	-7456
▁widow	-7457
▁subjective	-7458
▁stipulation	-7459
DER	-7460
ema	-7461
uti	-7462
▁Via	-7463
▁Unit	-7464
▁wish	-7465
▁Purnea	-7466
▁staying	-7467
▁monetary	-7468
▁Metropolitan	-7469
▁TH	-7470
dict	-7471
▁Body	-7472
▁lodge	-7473
▁Id	-7474
adequ	-7475
emplo	-7476
▁wisdom	-7477
▁membership	-7478
▁RAM	-7479
▁dig	-7480
igarh	-7481
▁Amar	-7482
▁South	-7483
▁inher	-7484
▁score	-7485
▁Circle	-7486
▁disbur	-7487
▁rushed	-7488
▁values	-7489
▁Ca	-7490
▁HL	-7491
▁Disp	-7492
▁arra	-7493
scious	-7494
▁Gandhi	-7495
▁premise	-7496
▁occupants	-7497
▁reproduce	-7498
▁uncertain	-7499
▁enunciated	-7500
▁continuance	-7501
▁Az	-7502
aria	-7503
atra	-7504
▁Need	-7505
▁bone	-7506
▁frequ	-7507
▁ration	-7508
▁forming	-7509
▁convicting	-7510
▁pronounced	-7511
MM	-7512
RICT	-7513
▁branch	-7514
LE	-7515
wala	-7516
▁SHO	-7517
▁empty	-7518
▁young	-7519
▁poison	-7520
▁subscrib	-7521
▁misconceived	-7522
aur	-7523
▁III	-7524
▁Muslim	-7525
▁anybody	-7526
▁closure	-7527
▁presume	-7528
▁enquired	-7529
▁rehabilitation	-7530
bar	-7531
▁argue	-7532
▁Mukher	-7533
▁reduce	-7534
▁perhaps	-7535
ictionary	-7536
▁considers	-7537
LC	-7538
ITY	-7539
aon	-7540
▁CE	-7541
wani	-7542
▁upper	-7543
▁bottle	-7544
▁minerals	-7545
▁Disciplinary	-7546
▁distinguishable	-7547
mar	-7548
ulled	-7549
▁Kolk	-7550
▁vary	-7551
▁accompany	-7552
▁extending	-7553
▁suppressed	-7554
▁mid	-7555
▁Pune	-7556
▁Sang	-7557
▁curt	-7558
▁explos	-7559
▁conting	-7560
▁corrected	-7561
▁incidents	-7562
▁virtually	-7563
▁establishments	-7564
iver	-7565
▁xxxx	-7566
▁broken	-7567
▁restraint	-7568
▁beneficiary	-7569
ju	-7570
illa	-7571
▁Day	-7572
▁Kot	-7573
▁Ved	-7574
▁Nare	-7575
▁Rath	-7576
▁code	-7577
▁inadequ	-7578
▁Spe	-7579
licit	-7580
▁Estate	-7581
▁adjour	-7582
▁excise	-7583
▁prices	-7584
▁stains	-7585
▁therewith	-7586
▁text	-7587
▁town	-7588
umping	-7589
▁coerc	-7590
▁appended	-7591
▁planning	-7592
▁affecting	-7593
▁convenient	-7594
▁Cooperative	-7595
LT	-7596
ERE	-7597
ibi	-7598
ario	-7599
cher	-7600
▁Pram	-7601
▁attacked	-7602
▁Bhagalpur	-7603
▁indirectly	-7604
▁supervision	-7605
▁trustworthy	-7606
▁Sl	-7607
ohar	-7608
▁Bish	-7609
▁Hold	-7610
▁Summ	-7611
▁scen	-7612
▁sequ	-7613
ortium	-7614
▁torture	-7615
▁thereupon	-7616
▁tradition	-7617
▁allowances	-7618
▁facilitate	-7619
lab	-7620
▁Ank	-7621
▁REP	-7622
bered	-7623
▁Amer	-7624
▁ensu	-7625
▁sear	-7626
ederal	-7627
▁disreg	-7628
▁engine	-7629
▁matrix	-7630
▁parcel	-7631
▁contact	-7632
▁adopting	-7633
▁Lokayukta	-7634
▁desirable	-7635
▁Designated	-7636
▁population	-7637
plus	-7638
▁crimes	-7639
▁ignore	-7640
▁prayers	-7641
▁passport	-7642
▁returning	-7643
▁preference	-7644
▁purchasers	-7645
sett	-7646
uriae	-7647
▁forced	-7648
▁taxable	-7649
▁attendance	-7650
veer	-7651
▁Kab	-7652
▁runs	-7653
▁Ahmad	-7654
▁phrase	-7655
▁Without	-7656
▁purport	-7657
▁objected	-7658
▁pertains	-7659
▁ASI	-7660
▁tal	-7661
ration	-7662
▁dealers	-7663
▁DISTRICT	-7664
▁director	-7665
▁predecess	-7666
▁organization	-7667
KAR	-7668
abinet	-7669
▁secret	-7670
▁belated	-7671
▁fifteen	-7672
▁litigant	-7673
▁Prosecution	-7674
▁misappropri	-7675
izes	-7676
jeet	-7677
▁driven	-7678
▁leaves	-7679
▁morality	-7680
▁Chaudhary	-7681
UST	-7682
▁famil	-7683
theless	-7684
▁central	-7685
▁elements	-7686
▁Applicant	-7687
▁Che	-7688
▁Dilip	-7689
▁consists	-7690
▁omissions	-7691
▁compelling	-7692
▁complained	-7693
▁corruption	-7694
▁securities	-7695
▁liquidation	-7696
haw	-7697
cause	-7698
▁groups	-7699
▁surplus	-7700
▁biometric	-7701
▁Sp	-7702
▁Corpor	-7703
▁specify	-7704
▁detained	-7705
▁testified	-7706
▁absorption	-7707
▁discipline	-7708
oure	-7709
▁Port	-7710
▁alcoh	-7711
itative	-7712
▁availed	-7713
▁detenue	-7714
▁disregard	-7715
▁DE	-7716
▁Inc	-7717
▁Bach	-7718
▁estim	-7719
▁tenders	-7720
▁Bengaluru	-7721
▁adjudicating	-7722
▁constituting	-7723
ika	-7724
▁mah	-7725
atched	-7726
owners	-7727
iciaries	-7728
▁someone	-7729
▁unconscious	-7730
rite	-7731
▁Kur	-7732
▁averment	-7733
▁juvenile	-7734
TS	-7735
aja	-7736
bey	-7737
▁Kun	-7738
▁pict	-7739
▁Vaish	-7740
▁smugg	-7741
▁Satish	-7742
▁Parishad	-7743
▁consumers	-7744
FC	-7745
▁Dw	-7746
eter	-7747
▁tick	-7748
▁sleeping	-7749
▁advocates	-7750
▁regulatory	-7751
▁improvement	-7752
▁CD	-7753
▁DEP	-7754
▁lot	-7755
▁concerns	-7756
▁restored	-7757
▁Protection	-7758
MI	-7759
▁Equ	-7760
amble	-7761
▁easily	-7762
▁errors	-7763
▁producing	-7764
▁conversion	-7765
▁Recruitment	-7766
▁beneficiaries	-7767
hash	-7768
thern	-7769
▁scre	-7770
▁stone	-7771
▁lawyer	-7772
▁enjoyment	-7773
▁unnatural	-7774
▁Prevention	-7775
▁Note	-7776
▁Instru	-7777
▁honest	-7778
za	-7779
asia	-7780
▁stor	-7781
▁bonds	-7782
▁built	-7783
▁input	-7784
▁psych	-7785
▁recru	-7786
▁watch	-7787
▁Choudhary	-7788
▁customers	-7789
missibility	-7790
▁cumulative	-7791
▁surrounding	-7792
▁GR	-7793
▁Sud	-7794
ighed	-7795
▁theft	-7796
▁forcibly	-7797
▁computation	-7798
▁registering	-7799
ida	-7800
eswar	-7801
stant	-7802
▁Bureau	-7803
▁negoti	-7804
▁Kolkata	-7805
▁comment	-7806
▁copyright	-7807
▁installation	-7808
TIL	-7809
mat	-7810
▁Original	-7811
▁concealed	-7812
▁detaining	-7813
▁warranted	-7814
▁size	-7815
▁abused	-7816
▁awards	-7817
▁terminate	-7818
SI	-7819
bir	-7820
▁news	-7821
▁plans	-7822
▁promote	-7823
▁consolid	-7824
▁separation	-7825
▁differently	-7826
▁consistently	-7827
▁BAL	-7828
▁Nay	-7829
▁Oil	-7830
▁Raja	-7831
amentary	-7832
▁fracture	-7833
▁administer	-7834
▁electronic	-7835
▁bind	-7836
▁insu	-7837
idavit	-7838
▁Ranchi	-7839
▁nobody	-7840
▁worship	-7841
▁Universities	-7842
▁friends	-7843
▁endeavour	-7844
ITH	-7845
uff	-7846
▁Opp	-7847
▁inev	-7848
▁route	-7849
▁vesting	-7850
▁villages	-7851
▁guarantees	-7852
kha	-7853
adeep	-7854
astic	-7855
▁cros	-7856
▁Rural	-7857
▁Tribe	-7858
▁types	-7859
▁adduce	-7860
▁liberal	-7861
▁adverted	-7862
▁prosecuted	-7863
▁continuation	-7864
CH	-7865
hanga	-7866
oices	-7867
▁dise	-7868
uously	-7869
▁duration	-7870
▁possibly	-7871
▁enactments	-7872
▁presentation	-7873
▁reasonableness	-7874
▁simultaneously	-7875
we	-7876
▁Mahan	-7877
▁table	-7878
▁buyers	-7879
▁traffic	-7880
▁demanding	-7881
▁regulated	-7882
▁successfully	-7883
rue	-7884
▁revol	-7885
▁Primary	-7886
▁Needless	-7887
▁condonation	-7888
ole	-7889
gers	-7890
▁Due	-7891
erous	-7892
▁lacs	-7893
▁thor	-7894
▁unex	-7895
called	-7896
▁explo	-7897
▁conced	-7898
▁ignoring	-7899
▁constable	-7900
▁charitable	-7901
▁deliberate	-7902
mp	-7903
lok	-7904
zed	-7905
▁My	-7906
▁SD	-7907
ingly	-7908
▁delegated	-7909
▁unauthorised	-7910
anged	-7911
▁poll	-7912
▁Water	-7913
uestion	-7914
▁Hussain	-7915
▁integral	-7916
▁utilized	-7917
vency	-7918
▁fake	-7919
▁unten	-7920
▁Temple	-7921
▁solemn	-7922
▁weighed	-7923
▁mandates	-7924
▁adjourned	-7925
allan	-7926
oking	-7927
RISHNA	-7928
struct	-7929
▁unamb	-7930
▁cutting	-7931
▁comprehensive	-7932
▁Inf	-7933
▁Shi	-7934
▁gas	-7935
arcen	-7936
▁Social	-7937
▁practical	-7938
▁societies	-7939
▁Srivastava	-7940
▁physically	-7941
▁apt	-7942
▁hour	-7943
▁unsu	-7944
▁Harish	-7945
▁Bilaspur	-7946
andra	-7947
otion	-7948
▁pret	-7949
▁Hasan	-7950
▁Capital	-7951
▁secondly	-7952
roc	-7953
▁DB	-7954
▁Gaj	-7955
▁tariff	-7956
arbhanga	-7957
▁untenable	-7958
WAR	-7959
eces	-7960
▁assured	-7961
▁fiction	-7962
▁turnover	-7963
▁pronouncements	-7964
rain	-7965
▁uses	-7966
▁Refer	-7967
▁shirt	-7968
▁Pandit	-7969
▁column	-7970
▁correspondence	-7971
▁Ud	-7972
aker	-7973
▁gap	-7974
udent	-7975
▁wind	-7976
▁Patil	-7977
verting	-7978
▁Deepak	-7979
▁Follow	-7980
ahar	-7981
iman	-7982
▁Abh	-7983
▁RES	-7984
wahati	-7985
▁track	-7986
▁grievous	-7987
▁regularisation	-7988
co	-7989
gent	-7990
▁trite	-7991
▁Narain	-7992
▁cancel	-7993
▁Guwahati	-7994
ss	-7995
▁Je	-7996
▁bears	-7997
▁depose	-7998
▁prosecute	-7999
▁succeeded	-8000
was	-8001
ulla	-8002
▁SAR	-8003
unath	-8004
▁Kail	-8005
▁Tata	-8006
▁tune	-8007
▁clarify	-8008
▁packets	-8009
▁probable	-8010
▁scenario	-8011
▁livelihood	-8012
▁prescription	-8013
alat	-8014
▁NDPS	-8015
▁NSEL	-8016
▁abol	-8017
▁media	-8018
▁stake	-8019
holders	-8020
▁growth	-8021
▁problems	-8022
▁Mukherjee	-8023
▁Ordinance	-8024
▁affiliation	-8025
stone	-8026
▁entitle	-8027
▁culpable	-8028
eced	-8029
vation	-8030
▁chose	-8031
▁beaten	-8032
▁safely	-8033
▁Bahadur	-8034
▁redress	-8035
▁clearance	-8036
▁excluding	-8037
▁indication	-8038
▁Sid	-8039
▁veil	-8040
arters	-8041
▁meters	-8042
mination	-8043
▁hundred	-8044
▁logical	-8045
▁pleased	-8046
▁Mahendra	-8047
▁movement	-8048
▁precedents	-8049
▁entertaining	-8050
erer	-8051
umbr	-8052
▁fet	-8053
▁bull	-8054
▁Nawada	-8055
▁royalty	-8056
▁trustee	-8057
▁taxation	-8058
▁equipment	-8059
▁Convention	-8060
▁exhaustive	-8061
hel	-8062
unch	-8063
▁Mam	-8064
▁dim	-8065
▁jeep	-8066
iorari	-8067
isable	-8068
▁parte	-8069
▁verify	-8070
▁adjourn	-8071
▁Railways	-8072
▁searched	-8073
▁differences	-8074
▁CC	-8075
▁ors	-8076
▁Kant	-8077
▁zone	-8078
▁habit	-8079
▁Pratap	-8080
▁managed	-8081
▁probate	-8082
▁Chemical	-8083
▁emphasized	-8084
abai	-8085
iries	-8086
▁quote	-8087
▁attending	-8088
▁disposing	-8089
▁amalgamation	-8090
EM	-8091
▁Akh	-8092
▁Ref	-8093
▁Area	-8094
▁Debt	-8095
▁demis	-8096
▁improb	-8097
▁anteced	-8098
▁apposite	-8099
▁inability	-8100
▁inclusion	-8101
▁paramount	-8102
▁competition	-8103
veen	-8104
wara	-8105
▁TADA	-8106
▁bias	-8107
▁rede	-8108
▁Laksh	-8109
▁amending	-8110
ota	-8111
wamy	-8112
▁camp	-8113
▁spons	-8114
rigation	-8115
▁coparcen	-8116
▁exempted	-8117
OT	-8118
▁MM	-8119
▁MS	-8120
▁Van	-8121
▁intr	-8122
▁Local	-8123
▁mercy	-8124
chandra	-8125
▁propose	-8126
▁formation	-8127
▁governance	-8128
▁safeguards	-8129
▁NJ	-8130
▁big	-8131
prise	-8132
▁drag	-8133
▁surf	-8134
▁webs	-8135
▁cloth	-8136
atti	-8137
▁print	-8138
▁sight	-8139
▁bodily	-8140
▁successor	-8141
▁concluding	-8142
▁overlooked	-8143
▁preventive	-8144
▁Amb	-8145
▁Bis	-8146
▁Direct	-8147
▁Foreign	-8148
▁straight	-8149
▁Following	-8150
▁Sak	-8151
▁Yet	-8152
▁lose	-8153
▁Kamal	-8154
Section	-8155
▁Cabinet	-8156
▁beating	-8157
▁defects	-8158
▁methods	-8159
▁Chandigarh	-8160
▁assaulting	-8161
▁chargeable	-8162
▁testimonies	-8163
oken	-8164
▁elim	-8165
▁Crores	-8166
▁compos	-8167
▁pieces	-8168
▁summoned	-8169
▁discrepancy	-8170
▁suppression	-8171
arian	-8172
▁Sury	-8173
▁bomb	-8174
▁cess	-8175
▁sand	-8176
alities	-8177
▁fallen	-8178
▁modern	-8179
▁retren	-8180
▁Condition	-8181
▁irregularities	-8182
▁SR	-8183
▁Jai	-8184
abled	-8185
▁roof	-8186
▁Privy	-8187
▁pregn	-8188
▁rests	-8189
▁Credit	-8190
▁shared	-8191
▁figures	-8192
▁venture	-8193
▁veracity	-8194
▁admitting	-8195
▁AA	-8196
AKSH	-8197
▁Sign	-8198
▁unil	-8199
▁maxim	-8200
▁wider	-8201
▁Naresh	-8202
▁reconsid	-8203
▁withhold	-8204
▁approximately	-8205
▁CWJC	-8206
▁Paras	-8207
rational	-8208
▁calculation	-8209
▁disqualified	-8210
rab	-8211
ibai	-8212
▁Nir	-8213
abhai	-8214
▁trib	-8215
▁describ	-8216
▁occupied	-8217
▁measuring	-8218
▁cartridges	-8219
HAL	-8220
▁cat	-8221
▁suo	-8222
▁Alam	-8223
▁Chit	-8224
▁clin	-8225
▁ment	-8226
▁Lastly	-8227
▁Letter	-8228
▁absurd	-8229
▁fulfil	-8230
▁stretch	-8231
▁autonomy	-8232
▁extraneous	-8233
UK	-8234
lesh	-8235
claim	-8236
ounder	-8237
▁break	-8238
▁fields	-8239
▁whereupon	-8240
▁discovered	-8241
▁imagination	-8242
▁environmental	-8243
▁MC	-8244
iles	-8245
▁Luck	-8246
▁ball	-8247
▁Manish	-8248
▁intend	-8249
▁adjusted	-8250
▁thorough	-8251
▁sentencing	-8252
VC	-8253
AGAR	-8254
icate	-8255
▁tres	-8256
▁Jamui	-8257
▁enjoy	-8258
▁kinds	-8259
▁lives	-8260
solvency	-8261
▁acquiring	-8262
▁Enterprises	-8263
eg	-8264
▁cm	-8265
▁GOV	-8266
▁Cited	-8267
▁sanct	-8268
▁designed	-8269
▁convention	-8270
▁encroachment	-8271
KN	-8272
▁Ak	-8273
▁sla	-8274
▁Asst	-8275
▁footing	-8276
▁package	-8277
▁invested	-8278
▁defective	-8279
▁implicate	-8280
▁previously	-8281
▁introduction	-8282
▁contradictory	-8283
ECT	-8284
atha	-8285
▁CLB	-8286
▁Sund	-8287
▁fard	-8288
clause	-8289
▁Umesh	-8290
▁Tahsil	-8291
▁deleted	-8292
▁pip	-8293
▁Juris	-8294
▁Charge	-8295
▁Expert	-8296
▁Vishnu	-8297
▁Reasons	-8298
▁tenable	-8299
▁Guarantee	-8300
▁preparing	-8301
▁proposals	-8302
▁CJ	-8303
venth	-8304
▁Arch	-8305
▁Econ	-8306
▁sick	-8307
riment	-8308
▁loans	-8309
▁matern	-8310
▁usually	-8311
▁solution	-8312
▁Naz	-8313
▁Saf	-8314
▁lathi	-8315
▁facing	-8316
▁voters	-8317
▁Citedby	-8318
▁reasoned	-8319
▁supervisory	-8320
RS	-8321
wer	-8322
omin	-8323
stitu	-8324
▁film	-8325
▁Raman	-8326
▁pages	-8327
▁Subhash	-8328
▁conveyed	-8329
▁fabricated	-8330
▁procedures	-8331
▁departments	-8332
oma	-8333
▁Except	-8334
aturally	-8335
▁escaped	-8336
▁nullity	-8337
▁verdict	-8338
▁tribunals	-8339
▁Assessment	-8340
▁Parliamentary	-8341
▁entertainment	-8342
▁Sik	-8343
▁Pawan	-8344
▁debts	-8345
▁drink	-8346
▁mahazar	-8347
▁enclosed	-8348
▁homicide	-8349
▁installed	-8350
▁technology	-8351
wad	-8352
▁Dar	-8353
oming	-8354
▁Regard	-8355
▁brings	-8356
▁deduct	-8357
▁detriment	-8358
▁ignorance	-8359
▁arbitrarily	-8360
ARE	-8361
deo	-8362
▁FA	-8363
▁Imp	-8364
urate	-8365
▁Three	-8366
▁Coming	-8367
▁banking	-8368
▁confron	-8369
▁waiting	-8370
▁computer	-8371
assessment	-8372
▁ancestral	-8373
▁specially	-8374
▁correction	-8375
▁industries	-8376
▁irrational	-8377
rivol	-8378
icable	-8379
▁Saran	-8380
▁raped	-8381
▁Sarasw	-8382
▁instig	-8383
▁Benches	-8384
▁wearing	-8385
▁insisted	-8386
▁invocation	-8387
▁willingness	-8388
LL	-8389
ny	-8390
▁sli	-8391
▁limb	-8392
amount	-8393
anteen	-8394
▁girls	-8395
▁impartial	-8396
▁incapable	-8397
▁restoration	-8398
▁administered	-8399
▁Shak	-8400
▁Spec	-8401
▁cell	-8402
▁wood	-8403
▁defam	-8404
▁Tender	-8405
▁Kailash	-8406
▁suspended	-8407
xw	-8408
BHAI	-8409
▁USA	-8410
ENSION	-8411
usarai	-8412
▁alarm	-8413
▁angle	-8414
▁fides	-8415
▁Colony	-8416
▁Inquiry	-8417
▁mischief	-8418
▁Employees	-8419
▁upholding	-8420
▁likelihood	-8421
▁requesting	-8422
mes	-8423
khar	-8424
▁BDA	-8425
eless	-8426
before	-8427
▁levels	-8428
▁laboure	-8429
▁regulating	-8430
Os	-8431
ols	-8432
▁AU	-8433
▁CM	-8434
iganj	-8435
▁Rest	-8436
uments	-8437
▁stick	-8438
▁average	-8439
▁heinous	-8440
▁killing	-8441
ori	-8442
▁Rad	-8443
▁Agar	-8444
▁blast	-8445
▁spect	-8446
▁incent	-8447
▁intell	-8448
rivolous	-8449
▁decides	-8450
▁website	-8451
▁Constitu	-8452
▁Surendra	-8453
▁credible	-8454
▁deducted	-8455
▁hypothes	-8456
▁wherever	-8457
▁excessive	-8458
▁questioning	-8459
▁ascertaining	-8460
rat	-8461
cated	-8462
ocket	-8463
▁Mines	-8464
▁blows	-8465
▁steel	-8466
▁Indica	-8467
▁disall	-8468
▁middle	-8469
▁Agrawal	-8470
▁Lucknow	-8471
▁machine	-8472
▁Darbhanga	-8473
▁arrangements	-8474
dev	-8475
oring	-8476
▁policies	-8477
▁engagement	-8478
▁formalities	-8479
▁Institutions	-8480
▁satisfactorily	-8481
ESS	-8482
erem	-8483
itle	-8484
▁sol	-8485
acent	-8486
▁Dharm	-8487
▁ceased	-8488
▁double	-8489
▁happen	-8490
▁pursue	-8491
▁twelve	-8492
▁Relying	-8493
▁supports	-8494
▁framework	-8495
▁programme	-8496
▁Contractor	-8497
▁eventually	-8498
▁shareholder	-8499
▁OP	-8500
eena	-8501
▁sac	-8502
ariya	-8503
▁Kati	-8504
▁NJAC	-8505
▁escal	-8506
▁spoken	-8507
▁monitor	-8508
▁Business	-8509
▁consumed	-8510
▁removing	-8511
▁developer	-8512
▁deputation	-8513
▁processing	-8514
२०	-8515
oul	-8516
ails	-8517
▁fate	-8518
▁twice	-8519
▁Commit	-8520
▁divided	-8521
▁joining	-8522
▁frivolous	-8523
▁purchasing	-8524
▁Chairperson	-8525
▁Municipality	-8526
▁ER	-8527
▁DRT	-8528
beyan	-8529
▁retrospect	-8530
Cr	-8531
aiver	-8532
▁Laws	-8533
▁Chart	-8534
▁Urban	-8535
▁brain	-8536
▁rural	-8537
▁nearly	-8538
▁tainted	-8539
▁confirming	-8540
▁mitigating	-8541
▁erroneously	-8542
▁opportunities	-8543
PSC	-8544
jan	-8545
forms	-8546
▁fals	-8547
▁wakf	-8548
▁alloc	-8549
▁utter	-8550
istical	-8551
▁adjacent	-8552
▁Tahsildar	-8553
▁restrained	-8554
▁NIT	-8555
▁King	-8556
▁yard	-8557
▁ORDER	-8558
▁affects	-8559
▁Economic	-8560
▁instruction	-8561
▁concurrently	-8562
▁continuously	-8563
▁admissibility	-8564
amber	-8565
uated	-8566
company	-8567
▁speedy	-8568
spection	-8569
▁Instead	-8570
▁repealed	-8571
▁Fr	-8572
▁Ji	-8573
▁Dham	-8574
▁crore	-8575
▁rooms	-8576
▁shift	-8577
▁parity	-8578
▁sheets	-8579
▁alcohol	-8580
▁Relevant	-8581
OS	-8582
omen	-8583
▁tant	-8584
▁attempts	-8585
▁guardian	-8586
▁classified	-8587
▁structures	-8588
▁confidential	-8589
AP	-8590
▁Lod	-8591
▁ago	-8592
▁cal	-8593
omach	-8594
▁alternate	-8595
▁attributable	-8596
MT	-8597
mun	-8598
▁NG	-8599
Comp	-8600
elow	-8601
▁SHOP	-8602
▁WITH	-8603
▁divid	-8604
▁Advisory	-8605
▁Ravindra	-8606
▁enacting	-8607
▁inferior	-8608
▁portions	-8609
▁remission	-8610
▁hereinbefore	-8611
EAL	-8612
ows	-8613
aikh	-8614
▁farm	-8615
▁union	-8616
viously	-8617
▁repeal	-8618
▁vacate	-8619
▁illicit	-8620
▁regularized	-8621
▁acknowledged	-8622
orr	-8623
aken	-8624
atable	-8625
ortion	-8626
▁ADVOC	-8627
▁sword	-8628
▁mutation	-8629
▁efficiency	-8630
▁materially	-8631
▁mus	-8632
▁Bhan	-8633
▁hope	-8634
▁trap	-8635
rapali	-8636
▁negot	-8637
▁yield	-8638
▁carries	-8639
▁customer	-8640
▁adjustment	-8641
▁predecessor	-8642
▁knows	-8643
▁noise	-8644
▁insist	-8645
▁moving	-8646
▁target	-8647
▁message	-8648
▁validly	-8649
▁abetment	-8650
▁reflects	-8651
▁research	-8652
pus	-8653
sxw	-8654
▁sn	-8655
▁thr	-8656
ccess	-8657
▁Kesh	-8658
▁survive	-8659
▁component	-8660
▁disbelieve	-8661
ses	-8662
room	-8663
▁hum	-8664
▁rob	-8665
▁Time	-8666
▁Dubai	-8667
▁ample	-8668
▁faced	-8669
▁video	-8670
parency	-8671
▁Shaikh	-8672
▁convinc	-8673
▁prudent	-8674
▁Amrapali	-8675
▁invoices	-8676
▁Begusarai	-8677
▁appellantâ	-8678
▁Environment	-8679
▁approaching	-8680
anja	-8681
lete	-8682
▁Deb	-8683
▁Dem	-8684
▁legs	-8685
▁saved	-8686
▁figure	-8687
▁nation	-8688
▁younger	-8689
▁electric	-8690
▁computing	-8691
CE	-8692
▁ven	-8693
uality	-8694
▁cards	-8695
▁files	-8696
▁rarest	-8697
▁licences	-8698
▁composite	-8699
▁comprising	-8700
ATH	-8701
ugn	-8702
▁ft	-8703
INGH	-8704
aman	-8705
▁DAV	-8706
▁beg	-8707
▁van	-8708
▁Said	-8709
▁drew	-8710
▁isol	-8711
ensing	-8712
▁recip	-8713
parable	-8714
▁Kishan	-8715
▁culprit	-8716
▁earnest	-8717
▁warning	-8718
▁contractors	-8719
ami	-8720
def	-8721
▁Ko	-8722
▁MD	-8723
▁Gir	-8724
▁sty	-8725
▁tim	-8726
aided	-8727
▁Rani	-8728
▁liter	-8729
▁device	-8730
▁exempt	-8731
▁margin	-8732
▁resist	-8733
▁categorical	-8734
▁interrogation	-8735
Sh	-8736
heb	-8737
▁NC	-8738
ulal	-8739
▁Desh	-8740
settled	-8741
▁behest	-8742
▁Clauses	-8743
▁commerce	-8744
▁repetition	-8745
▁inadmissible	-8746
▁gratification	-8747
abh	-8748
▁id	-8749
olic	-8750
▁Cle	-8751
▁hor	-8752
amper	-8753
▁Modi	-8754
▁Laxmi	-8755
▁newly	-8756
▁waiver	-8757
▁Educational	-8758
▁composition	-8759
▁IND	-8760
enant	-8761
▁bars	-8762
ooking	-8763
▁laches	-8764
▁omitted	-8765
▁tractor	-8766
▁unequiv	-8767
▁changing	-8768
▁explicit	-8769
▁prosecutor	-8770
▁Sir	-8771
▁sme	-8772
anjan	-8773
arden	-8774
imbur	-8775
▁Chowk	-8776
▁Clerk	-8777
▁aggreg	-8778
▁modify	-8779
▁supers	-8780
▁evolved	-8781
▁vitiate	-8782
witnesses	-8783
▁influenced	-8784
▁possessing	-8785
▁IS	-8786
▁ere	-8787
▁sue	-8788
inity	-8789
▁Tola	-8790
▁Joshi	-8791
▁model	-8792
▁Maruti	-8793
▁emerged	-8794
▁hypothesis	-8795
amy	-8796
▁DEL	-8797
▁Vas	-8798
▁rit	-8799
▁cease	-8800
▁enshr	-8801
▁master	-8802
▁confine	-8803
▁empower	-8804
▁remarks	-8805
▁routine	-8806
▁storage	-8807
▁attesting	-8808
▁alteration	-8809
▁Baj	-8810
anker	-8811
▁Brit	-8812
▁path	-8813
▁vice	-8814
akrish	-8815
hibition	-8816
▁exhibits	-8817
▁Referring	-8818
tar	-8819
▁RT	-8820
▁nu	-8821
laim	-8822
▁Kir	-8823
▁HLEC	-8824
▁Push	-8825
▁Forum	-8826
▁LAKSH	-8827
▁ambig	-8828
Company	-8829
▁Nagpur	-8830
▁couple	-8831
▁experi	-8832
▁harmon	-8833
▁offices	-8834
▁afforded	-8835
▁Goa	-8836
▁Bhad	-8837
▁ener	-8838
arance	-8839
▁disag	-8840
▁sites	-8841
reshold	-8842
▁Indore	-8843
▁manage	-8844
▁spread	-8845
▁Appoint	-8846
▁Colleges	-8847
bu	-8848
di	-8849
▁BS	-8850
▁Ld	-8851
aksh	-8852
▁RAJ	-8853
▁nep	-8854
▁unp	-8855
erent	-8856
order	-8857
father	-8858
▁Banks	-8859
▁Islam	-8860
▁mispla	-8861
▁ip	-8862
inct	-8863
▁COUR	-8864
ivided	-8865
▁roads	-8866
▁critic	-8867
▁housing	-8868
▁organiz	-8869
▁vendors	-8870
▁Obviously	-8871
▁certiorari	-8872
WP	-8873
uct	-8874
esty	-8875
raon	-8876
▁Bri	-8877
agger	-8878
amarhi	-8879
▁encash	-8880
▁consens	-8881
▁attitude	-8882
▁cheating	-8883
▁dangerous	-8884
▁threshold	-8885
▁mentioning	-8886
▁tantamount	-8887
harma	-8888
estern	-8889
ranted	-8890
▁Child	-8891
▁inelig	-8892
▁street	-8893
▁remitted	-8894
▁Sitamarhi	-8895
▁insufficient	-8896
ifts	-8897
igam	-8898
▁Aut	-8899
▁Bin	-8900
▁Neg	-8901
▁Saw	-8902
attle	-8903
earch	-8904
ulous	-8905
▁Arms	-8906
▁Garg	-8907
wanath	-8908
▁Audit	-8909
▁Common	-8910
Inspector	-8911
▁maternal	-8912
▁starting	-8913
▁withheld	-8914
▁electoral	-8915
▁disclosing	-8916
Ws	-8917
▁Bye	-8918
inced	-8919
ports	-8920
rated	-8921
▁Hindi	-8922
▁cycle	-8923
▁misuse	-8924
▁unlike	-8925
▁voting	-8926
▁playing	-8927
▁posting	-8928
▁Mahanadi	-8929
▁Research	-8930
▁charging	-8931
▁managing	-8932
▁disturbed	-8933
▁Committees	-8934
▁instructed	-8935
iche	-8936
otic	-8937
▁Bud	-8938
▁pal	-8939
below	-8940
▁FIRs	-8941
▁mill	-8942
▁depre	-8943
▁label	-8944
▁complying	-8945
▁intentionally	-8946
▁Ha	-8947
▁Sus	-8948
▁Swar	-8949
inagar	-8950
▁usual	-8951
▁Pramod	-8952
iliation	-8953
▁Affairs	-8954
▁Pradeep	-8955
▁channel	-8956
▁discont	-8957
▁ADVOCATE	-8958
▁mortgaged	-8959
▁premature	-8960
▁accidental	-8961
▁promotions	-8962
▁eyewitnesses	-8963
kin	-8964
▁Tq	-8965
allu	-8966
ghar	-8967
ians	-8968
▁Bans	-8969
▁Tuls	-8970
acious	-8971
▁Mills	-8972
▁Param	-8973
▁Ansari	-8974
▁mislead	-8975
▁trespass	-8976
▁confronted	-8977
▁passengers	-8978
▁Year	-8979
▁store	-8980
▁adulter	-8981
▁complainants	-8982
▁MFA	-8983
▁Sao	-8984
utors	-8985
▁gate	-8986
▁prol	-8987
ported	-8988
▁Ident	-8989
▁Return	-8990
▁doubted	-8991
▁praying	-8992
▁violate	-8993
▁repayment	-8994
▁consortium	-8995
oi	-8996
▁Mys	-8997
▁learn	-8998
▁picture	-8999
▁warrants	-9000
▁diligence	-9001
▁exercises	-9002
▁intervene	-9003
▁unambiguous	-9004
oop	-9005
vind	-9006
▁Bhatt	-9007
▁Katihar	-9008
▁studies	-9009
serv	-9010
▁crop	-9011
USTICE	-9012
▁streng	-9013
▁unaided	-9014
▁totality	-9015
▁meanwhile	-9016
▁Statistical	-9017
▁prosecuting	-9018
YAN	-9019
rist	-9020
vable	-9021
▁Rang	-9022
▁grad	-9023
▁briefly	-9024
▁challan	-9025
▁reimbur	-9026
▁Jitendra	-9027
▁transmission	-9028
▁probabilities	-9029
VAT	-9030
van	-9031
▁ID	-9032
ariy	-9033
gans	-9034
▁Lie	-9035
▁Med	-9036
asion	-9037
▁Pank	-9038
▁Begum	-9039
▁junior	-9040
▁lifted	-9041
▁animals	-9042
▁illness	-9043
▁discussing	-9044
▁depositions	-9045
inh	-9046
▁enl	-9047
▁Dass	-9048
▁cave	-9049
▁Cause	-9050
▁Manual	-9051
▁raises	-9052
▁Sanjeev	-9053
▁encumbr	-9054
▁striking	-9055
▁efficient	-9056
▁misplaced	-9057
▁Submission	-9058
▁competitive	-9059
▁Mut	-9060
▁PMLA	-9061
▁rash	-9062
holder	-9063
▁aided	-9064
▁guided	-9065
▁leased	-9066
AKRISHNA	-9067
▁Looking	-9068
▁decades	-9069
▁deprive	-9070
▁attested	-9071
▁families	-9072
▁malafide	-9073
▁collecting	-9074
vin	-9075
araj	-9076
▁Bux	-9077
▁opt	-9078
▁Mund	-9079
▁hair	-9080
▁Money	-9081
▁enlar	-9082
▁indef	-9083
▁agents	-9084
▁cement	-9085
▁energy	-9086
▁slight	-9087
▁titled	-9088
▁bidding	-9089
▁movable	-9090
▁justifiable	-9091
sex	-9092
IMIT	-9093
ware	-9094
otton	-9095
liable	-9096
ulsion	-9097
▁relie	-9098
▁pocket	-9099
▁literal	-9100
▁therefor	-9101
▁increasing	-9102
▁obligatory	-9103
▁travelling	-9104
ils	-9105
disha	-9106
▁ways	-9107
▁milit	-9108
▁exchan	-9109
▁stomach	-9110
▁expedient	-9111
▁Corruption	-9112
alia	-9113
▁Nur	-9114
▁milk	-9115
stante	-9116
▁journ	-9117
▁Odisha	-9118
▁attest	-9119
▁succumb	-9120
ibilities	-9121
▁operates	-9122
▁suspected	-9123
▁variation	-9124
OD	-9125
ANG	-9126
agi	-9127
▁Ish	-9128
▁Mer	-9129
ludes	-9130
▁pant	-9131
▁temp	-9132
▁Small	-9133
ickshaw	-9134
plaintiff	-9135
▁Vaishali	-9136
▁constrained	-9137
BS	-9138
▁LG	-9139
▁fle	-9140
▁Saty	-9141
licate	-9142
▁meter	-9143
▁LAKSHMI	-9144
▁canteen	-9145
▁fardbeyan	-9146
▁inclusive	-9147
▁processes	-9148
▁improbable	-9149
anth	-9150
sory	-9151
▁ste	-9152
▁Lieut	-9153
▁SINGH	-9154
▁posed	-9155
▁engage	-9156
▁violates	-9157
▁naturally	-9158
▁disbelieved	-9159
ahan	-9160
▁Mor	-9161
▁You	-9162
apore	-9163
▁butt	-9164
examine	-9165
▁procure	-9166
▁enshrined	-9167
▁components	-9168
▁sufficiently	-9169
▁MB	-9170
▁VAT	-9171
▁draf	-9172
▁exig	-9173
ducted	-9174
▁covers	-9175
▁losses	-9176
▁Agarwal	-9177
▁command	-9178
▁forgery	-9179
▁visible	-9180
▁AY	-9181
opsy	-9182
outs	-9183
wife	-9184
▁Veh	-9185
usible	-9186
munition	-9187
▁discontin	-9188
▁initiating	-9189
▁judicially	-9190
▁inconsistency	-9191
oly	-9192
▁AJ	-9193
qbal	-9194
▁wed	-9195
▁Nirm	-9196
▁STUD	-9197
▁User	-9198
▁easy	-9199
▁hire	-9200
▁Vikas	-9201
▁facet	-9202
▁occurring	-9203
▁prohibits	-9204
▁Cal	-9205
ewell	-9206
gress	-9207
▁PENSION	-9208
▁reality	-9209
▁inconven	-9210
▁Otherwise	-9211
▁Raghunath	-9212
▁overruled	-9213
rao	-9214
etal	-9215
▁nut	-9216
▁Papp	-9217
▁range	-9218
▁Result	-9219
▁intact	-9220
▁Pradhan	-9221
▁desired	-9222
▁perfect	-9223
rif	-9224
▁Bec	-9225
▁Vad	-9226
orter	-9227
quest	-9228
▁realm	-9229
▁conceal	-9230
▁counted	-9231
▁disease	-9232
▁patients	-9233
▁tendency	-9234
▁ambiguity	-9235
▁investors	-9236
▁Lieutenant	-9237
▁manifestly	-9238
▁privileges	-9239
▁participating	-9240
UBLI	-9241
▁Vis	-9242
▁obl	-9243
ograp	-9244
▁pari	-9245
▁soil	-9246
▁lacks	-9247
▁mines	-9248
▁Ashish	-9249
▁Mittal	-9250
▁Santro	-9251
▁standi	-9252
▁Nalanda	-9253
▁STATION	-9254
▁Detaining	-9255
▁extensive	-9256
▁informing	-9257
▁collateral	-9258
ANJ	-9259
uro	-9260
▁Bo	-9261
▁GA	-9262
▁MCO	-9263
▁FTIL	-9264
▁reck	-9265
▁remun	-9266
ichever	-9267
▁Taluka	-9268
iscation	-9269
▁Against	-9270
▁plastic	-9271
▁departure	-9272
▁affiliated	-9273
▁associates	-9274
▁transferring	-9275
my	-9276
roz	-9277
then	-9278
▁Kas	-9279
▁pref	-9280
IMITED	-9281
▁DELHI	-9282
▁HUBLI	-9283
▁Jehan	-9284
▁abund	-9285
ulously	-9286
▁Courtâ	-9287
▁forensic	-9288
▁Accountant	-9289
▁Technology	-9290
▁ammunition	-9291
▁convincing	-9292
▁advertisements	-9293
▁proportionality	-9294
▁Hal	-9295
uthan	-9296
▁Megh	-9297
▁oppon	-9298
▁Arvind	-9299
▁Degree	-9300
▁Pankaj	-9301
▁catena	-9302
▁artific	-9303
▁persuaded	-9304
▁grievances	-9305
▁inadequate	-9306
▁constructions	-9307
▁communications	-9308
HC	-9309
will	-9310
igare	-9311
▁wait	-9312
▁Bhart	-9313
▁fifth	-9314
▁Sheikh	-9315
▁attain	-9316
▁Because	-9317
▁Complex	-9318
▁Mohammed	-9319
▁convinced	-9320
▁propriety	-9321
▁examinations	-9322
tax	-9323
▁anx	-9324
▁minds	-9325
▁Sector	-9326
▁indisp	-9327
▁preval	-9328
▁recital	-9329
▁priority	-9330
▁prisoner	-9331
▁superint	-9332
▁Regarding	-9333
▁je	-9334
urai	-9335
▁How	-9336
scale	-9337
▁payee	-9338
▁vests	-9339
▁versus	-9340
▁intends	-9341
▁strongly	-9342
▁collective	-9343
▁inevitable	-9344
▁confiscation	-9345
Ed	-9346
ERN	-9347
ingh	-9348
uram	-9349
urch	-9350
▁BUS	-9351
▁Soni	-9352
▁eman	-9353
uttack	-9354
▁embod	-9355
▁unwar	-9356
▁Laxman	-9357
▁mentally	-9358
▁offering	-9359
▁emphasised	-9360
▁protecting	-9361
▁Deo	-9362
▁Inj	-9363
ubhai	-9364
▁soft	-9365
▁wise	-9366
▁Madhe	-9367
▁custod	-9368
▁Finally	-9369
▁whichever	-9370
▁generation	-9371
▁unreliable	-9372
▁unwarranted	-9373
▁Compensation	-9374
▁transparency	-9375
▁CS	-9376
ivek	-9377
orrh	-9378
▁Tir	-9379
arayan	-9380
▁Purch	-9381
▁match	-9382
▁transl	-9383
▁Cuttack	-9384
omination	-9385
▁plausible	-9386
▁Undoubtedly	-9387
▁CG	-9388
rier	-9389
aried	-9390
▁paral	-9391
▁remem	-9392
▁STUDENT	-9393
▁resolve	-9394
▁Provision	-9395
▁Residence	-9396
▁collusion	-9397
▁preventing	-9398
▁Trip	-9399
▁wire	-9400
▁Sagar	-9401
▁Hemant	-9402
▁reverse	-9403
▁Chartered	-9404
▁practition	-9405
hoc	-9406
uni	-9407
imla	-9408
wati	-9409
▁CID	-9410
▁Ham	-9411
itect	-9412
lease	-9413
▁marg	-9414
▁Force	-9415
raction	-9416
▁Claims	-9417
▁anomal	-9418
▁Specific	-9419
▁destroyed	-9420
▁escalation	-9421
▁everything	-9422
▁functional	-9423
ev	-9424
cha	-9425
▁DD	-9426
▁Doc	-9427
▁NOC	-9428
acket	-9429
▁dark	-9430
▁gang	-9431
▁obsc	-9432
▁radi	-9433
▁blunt	-9434
▁catch	-9435
▁deems	-9436
▁Mineral	-9437
▁Reserve	-9438
▁exactly	-9439
uthanasia	-9440
▁conceded	-9441
▁comprised	-9442
▁organized	-9443
▁BALAKRISHNA	-9444
▁Bur	-9445
▁jur	-9446
▁hurt	-9447
▁Suraj	-9448
▁intra	-9449
▁merger	-9450
▁sticks	-9451
▁British	-9452
▁lawyers	-9453
▁mandated	-9454
▁enforcing	-9455
▁MT	-9456
▁Num	-9457
▁RPC	-9458
eting	-9459
gence	-9460
▁Tele	-9461
▁Arjun	-9462
▁Buxar	-9463
▁compel	-9464
▁lowest	-9465
▁repugn	-9466
▁approve	-9467
▁implies	-9468
▁Accounts	-9469
▁Mohammad	-9470
▁channels	-9471
▁defeated	-9472
▁assigning	-9473
▁weightage	-9474
▁deficiency	-9475
ler	-9476
udi	-9477
auri	-9478
▁dup	-9479
mises	-9480
ondon	-9481
▁Gaut	-9482
▁inse	-9483
▁Exhib	-9484
▁Press	-9485
▁resid	-9486
▁drawer	-9487
▁format	-9488
▁leases	-9489
▁regime	-9490
▁operated	-9491
▁household	-9492
▁comparative	-9493
PO	-9494
▁Cer	-9495
▁Ghosh	-9496
edience	-9497
sections	-9498
▁JUSTICE	-9499
▁triable	-9500
▁boundary	-9501
▁transparent	-9502
END	-9503
hala	-9504
apati	-9505
asive	-9506
osing	-9507
panch	-9508
▁Anti	-9509
▁retail	-9510
▁Highway	-9511
▁burning	-9512
▁closely	-9513
▁onwards	-9514
▁university	-9515
▁hereinbelow	-9516
▁CA	-9517
▁Bir	-9518
▁Ren	-9519
illary	-9520
▁Stock	-9521
▁Prison	-9522
▁charas	-9523
▁cooper	-9524
▁economy	-9525
▁urgency	-9526
▁Jehanabad	-9527
▁continuity	-9528
▁concurrence	-9529
otal	-9530
lance	-9531
▁tied	-9532
▁remit	-9533
▁aggrav	-9534
▁Charity	-9535
▁preserve	-9536
▁terrorist	-9537
▁touchstone	-9538
▁sanctioning	-9539
comm	-9540
isal	-9541
time	-9542
▁Bhai	-9543
▁Just	-9544
▁brut	-9545
▁ward	-9546
ponder	-9547
ueries	-9548
▁Brief	-9549
▁Surat	-9550
▁adult	-9551
▁utmost	-9552
▁condoned	-9553
▁entrance	-9554
▁mentions	-9555
▁substitution	-9556
xic	-9557
UARE	-9558
ican	-9559
▁Bom	-9560
▁REG	-9561
arized	-9562
▁Amicus	-9563
Chancellor	-9564
▁reiterate	-9565
▁boundaries	-9566
▁forfeiture	-9567
Ms	-9568
leum	-9569
mities	-9570
▁Desai	-9571
▁Sunita	-9572
essional	-9573
▁Edition	-9574
▁infruct	-9575
▁signing	-9576
▁Choudhury	-9577
▁newspapers	-9578
▁Ult	-9579
▁cra	-9580
▁eth	-9581
▁kil	-9582
▁ahead	-9583
▁wounds	-9584
▁inspire	-9585
▁surrend	-9586
▁peaceful	-9587
▁Singapore	-9588
▁hospitals	-9589
▁negotiations	-9590
▁Administrator	-9591
२१	-9592
▁MLC	-9593
▁tea	-9594
▁Muns	-9595
▁lien	-9596
▁whip	-9597
accept	-9598
roleum	-9599
▁dictum	-9600
▁impedi	-9601
▁suffice	-9602
▁procured	-9603
▁ourselves	-9604
▁panchayat	-9605
▁Principles	-9606
▁operational	-9607
tr	-9608
agn	-9609
bury	-9610
▁boys	-9611
▁Vivek	-9612
▁burns	-9613
▁wrote	-9614
▁Sandeep	-9615
▁Narendra	-9616
▁Surender	-9617
▁amenities	-9618
▁emergency	-9619
▁narration	-9620
▁demolition	-9621
▁infructuous	-9622
▁unfortunate	-9623
▁remuneration	-9624
ANAG	-9625
▁Dip	-9626
▁NEW	-9627
▁vul	-9628
▁Exhibits	-9629
▁comments	-9630
▁detected	-9631
▁highlight	-9632
▁remembered	-9633
▁contemplate	-9634
afi	-9635
oph	-9636
ued	-9637
vedi	-9638
▁MCI	-9639
imity	-9640
idance	-9641
▁Lalit	-9642
▁Level	-9643
▁trace	-9644
▁Declar	-9645
▁Gautam	-9646
▁orient	-9647
▁stamps	-9648
▁wishes	-9649
▁Manohar	-9650
▁pretext	-9651
▁arranged	-9652
▁Honourable	-9653
▁commitment	-9654
hati	-9655
▁Bhav	-9656
▁motu	-9657
angana	-9658
▁cerem	-9659
▁spouse	-9660
▁handling	-9661
ditionally	-9662
▁Saraswati	-9663
▁summoning	-9664
▁demonstrated	-9665
akk	-9666
oted	-9667
▁Cell	-9668
chment	-9669
▁trees	-9670
▁cigare	-9671
▁passes	-9672
▁Objects	-9673
▁ceiling	-9674
▁customs	-9675
▁qualify	-9676
▁computed	-9677
▁sanctity	-9678
▁objectives	-9679
iat	-9680
▁Ran	-9681
▁foc	-9682
▁Drug	-9683
▁Bhagat	-9684
▁divers	-9685
▁combined	-9686
▁refunded	-9687
▁elsewhere	-9688
▁generated	-9689
▁ns	-9690
▁Nan	-9691
▁Occ	-9692
arkar	-9693
▁Band	-9694
▁Mang	-9695
▁SAIL	-9696
▁Sher	-9697
▁COURT	-9698
▁Grant	-9699
▁Sadar	-9700
▁mixed	-9701
inating	-9702
▁offers	-9703
▁roster	-9704
▁Standard	-9705
▁covering	-9706
▁implicit	-9707
▁reporting	-9708
▁transfers	-9709
▁warranting	-9710
▁BCC	-9711
osque	-9712
▁Moti	-9713
▁Rash	-9714
▁repay	-9715
▁Boards	-9716
▁blocks	-9717
▁minute	-9718
▁cleared	-9719
▁convert	-9720
▁primacy	-9721
▁certainty	-9722
▁alienation	-9723
▁ineligible	-9724
▁redemption	-9725
▁denomination	-9726
▁EC	-9727
ilos	-9728
▁symb	-9729
▁defer	-9730
ARTMENT	-9731
ologist	-9732
▁connot	-9733
▁conspir	-9734
▁partial	-9735
▁Statutory	-9736
▁medically	-9737
▁reopening	-9738
▁undertakings	-9739
▁miscellaneous	-9740
LJ	-9741
APPA	-9742
anki	-9743
▁Kad	-9744
▁TRA	-9745
▁Anal	-9746
▁Dictionary	-9747
gen	-9748
geon	-9749
▁haz	-9750
▁kit	-9751
▁syn	-9752
▁Sach	-9753
▁disad	-9754
▁lived	-9755
▁London	-9756
▁Relief	-9757
▁discern	-9758
▁dropped	-9759
▁restore	-9760
▁utility	-9761
▁Applying	-9762
▁succeeds	-9763
▁litigants	-9764
▁operators	-9765
▁retrospectively	-9766
▁Ann	-9767
▁Ara	-9768
▁Net	-9769
▁cous	-9770
▁Nigam	-9771
▁picked	-9772
▁ruling	-9773
▁Nariman	-9774
▁Working	-9775
▁inordinate	-9776
III	-9777
igha	-9778
ishe	-9779
▁Tik	-9780
▁buy	-9781
akshi	-9782
owner	-9783
▁sort	-9784
making	-9785
joining	-9786
▁emerge	-9787
▁Defence	-9788
▁American	-9789
▁unsuccess	-9790
▁NI	-9791
▁Ni	-9792
akes	-9793
bing	-9794
▁HON	-9795
▁Rev	-9796
▁COMM	-9797
▁Hans	-9798
coming	-9799
▁Sever	-9800
▁scoot	-9801
▁denies	-9802
▁differ	-9803
▁visual	-9804
▁.......	-9805
▁envisages	-9806
▁mediation	-9807
▁overriding	-9808
▁supplement	-9809
▁deprivation	-9810
▁instruments	-9811
▁measurement	-9812
▁difficulties	-9813
▁reconsideration	-9814
aco	-9815
acie	-9816
▁ped	-9817
▁wil	-9818
▁Norm	-9819
▁Sidd	-9820
▁worker	-9821
▁contemn	-9822
▁coercion	-9823
▁preponder	-9824
▁multiplier	-9825
▁altercation	-9826
agh	-9827
▁Mob	-9828
▁vex	-9829
▁heir	-9830
▁judged	-9831
▁Certain	-9832
▁autopsy	-9833
▁intimated	-9834
▁conferring	-9835
▁antecedents	-9836
yas	-9837
▁Kr	-9838
anty	-9839
ront	-9840
▁OBC	-9841
▁Pip	-9842
▁wat	-9843
▁Durg	-9844
▁LATE	-9845
▁hall	-9846
▁prime	-9847
▁Mysore	-9848
▁Pakist	-9849
▁heavily	-9850
▁patently	-9851
▁respects	-9852
▁Panchnama	-9853
▁automatic	-9854
▁deviation	-9855
▁mechanical	-9856
▁conditional	-9857
bat	-9858
uit	-9859
iploma	-9860
▁Ratan	-9861
▁logic	-9862
▁urban	-9863
▁System	-9864
▁landing	-9865
▁nominee	-9866
▁becoming	-9867
▁indulged	-9868
▁euthanasia	-9869
▁pill	-9870
▁walk	-9871
▁enrol	-9872
▁occurs	-9873
▁faulted	-9874
▁heading	-9875
▁availing	-9876
▁Telangana	-9877
▁succumbed	-9878
▁accusation	-9879
▁Commissioners	-9880
oves	-9881
▁Six	-9882
▁VBC	-9883
atern	-9884
posit	-9885
▁Back	-9886
▁Care	-9887
▁Sugar	-9888
prising	-9889
▁honour	-9890
▁crossex	-9891
▁handing	-9892
▁Sarpanch	-9893
▁Presently	-9894
▁dissolution	-9895
▁intervening	-9896
▁deficiencies	-9897
ims	-9898
iva	-9899
hila	-9900
▁Ess	-9901
▁hom	-9902
isher	-9903
awalli	-9904
gments	-9905
▁Pappu	-9906
▁usage	-9907
▁Motion	-9908
▁Rather	-9909
▁Chander	-9910
▁affixed	-9911
▁enjoyed	-9912
▁renewed	-9913
▁encourage	-9914
▁DEPARTMENT	-9915
yl	-9916
▁GM	-9917
▁ap	-9918
▁ax	-9919
▁CRA	-9920
▁Div	-9921
▁Kaus	-9922
▁RERA	-9923
▁abst	-9924
▁appr	-9925
▁bund	-9926
▁tree	-9927
▁debit	-9928
▁Proceed	-9929
▁Witness	-9930
▁relinqu	-9931
▁enlarged	-9932
ortunately	-9933
▁affording	-9934
▁investments	-9935
RC	-9936
bi	-9937
Raj	-9938
ule	-9939
▁Dri	-9940
▁Lib	-9941
khana	-9942
▁Till	-9943
▁hect	-9944
▁sine	-9945
▁glass	-9946
ategory	-9947
▁memory	-9948
▁nephew	-9949
▁defense	-9950
▁network	-9951
▁replaced	-9952
▁undivided	-9953
▁artificial	-9954
▁elaborately	-9955
▁retrenchment	-9956
VI	-9957
▁Af	-9958
deed	-9959
what	-9960
▁Gop	-9961
▁Kat	-9962
▁Prior	-9963
▁query	-9964
▁skull	-9965
▁headed	-9966
▁bottles	-9967
▁sharing	-9968
▁coloured	-9969
▁noticing	-9970
ILL	-9971
ilst	-9972
▁Sol	-9973
ivedi	-9974
▁magn	-9975
irdham	-9976
▁metic	-9977
payment	-9978
▁debate	-9979
▁damaged	-9980
▁eminent	-9981
▁equated	-9982
▁incorporation	-9983
▁---	-9984
▁Khar	-9985
▁Durga	-9986
▁decis	-9987
▁Ranjit	-9988
▁career	-9989
▁grants	-9990
▁Devendra	-9991
▁complicity	-9992
▁prejudiced	-9993
▁Resultantly	-9994
▁irreparable	-9995
▁nevertheless	-9996
▁Aj	-9997
▁WR	-9998
▁WPS	-9999
▁rif	-10000
ashed	-10001
▁Peet	-10002
▁scan	-10003
▁urge	-10004
▁science	-10005
▁sequence	-10006
▁expertise	-10007
▁prevalent	-10008
▁Territories	-10009
she	-10010
▁SP	-10011
▁ec	-10012
▁ge	-10013
▁pil	-10014
andan	-10015
ivable	-10016
irendra	-10017
▁commits	-10018
▁periods	-10019
▁Ordinarily	-10020
▁construing	-10021
▁expressing	-10022
▁surrendered	-10023
▁reassessment	-10024
Nos	-10025
▁CB	-10026
ohan	-10027
▁bog	-10028
▁Munna	-10029
▁Suman	-10030
▁Establ	-10031
▁renders	-10032
▁reserve	-10033
▁Statutes	-10034
▁sometime	-10035
▁estimated	-10036
▁absconding	-10037
▁superintendence	-10038
TP	-10039
che	-10040
son	-10041
▁LP	-10042
▁MOU	-10043
arshan	-10044
▁Scale	-10045
iveness	-10046
▁Mangal	-10047
▁Pathak	-10048
▁lastly	-10049
▁packet	-10050
▁photoc	-10051
▁tamper	-10052
irmities	-10053
▁session	-10054
▁sisters	-10055
▁guidance	-10056
▁visiting	-10057
▁Kabirdham	-10058
▁achieving	-10059
▁allocated	-10060
▁labourers	-10061
▁Prohibition	-10062
PCL	-10063
ede	-10064
uma	-10065
▁Bor	-10066
adhar	-10067
night	-10068
ource	-10069
▁rans	-10070
ISSION	-10071
▁MANAG	-10072
▁Kalyan	-10073
▁demise	-10074
▁decline	-10075
▁Marketing	-10076
▁infirmities	-10077
▁Miscellaneous	-10078
▁institutional	-10079
disc	-10080
olen	-10081
▁Unf	-10082
▁Var	-10083
▁tor	-10084
ariat	-10085
▁Jagat	-10086
▁stones	-10087
▁mortgag	-10088
▁surface	-10089
▁efficacy	-10090
▁prescribing	-10091
▁accompanying	-10092
▁DA	-10093
▁Sel	-10094
▁fla	-10095
ensed	-10096
▁load	-10097
▁sket	-10098
losure	-10099
▁Dayal	-10100
▁Lords	-10101
▁appra	-10102
▁GOVERN	-10103
▁repair	-10104
▁decrees	-10105
▁dissent	-10106
▁parting	-10107
▁contempor	-10108
▁personality	-10109
ESI	-10110
▁RE	-10111
▁Kes	-10112
itate	-10113
▁slum	-10114
▁unus	-10115
▁Cross	-10116
utorily	-10117
▁assumes	-10118
ederation	-10119
▁rationale	-10120
▁preponderance	-10121
▁investigations	-10122
Reg	-10123
cont	-10124
▁redu	-10125
▁tent	-10126
▁Indra	-10127
▁hears	-10128
▁adding	-10129
▁Thirdly	-10130
▁immunity	-10131
▁shifting	-10132
▁ancillary	-10133
▁directive	-10134
▁impediment	-10135
▁scrutinized	-10136
▁unjustified	-10137
▁conclusively	-10138
OND	-10139
aked	-10140
chen	-10141
ifur	-10142
ibhai	-10143
▁Most	-10144
▁drugs	-10145
▁patta	-10146
▁style	-10147
▁ulter	-10148
endants	-10149
▁lacuna	-10150
▁abusing	-10151
▁Disputes	-10152
▁exceeded	-10153
▁Madhepura	-10154
▁explaining	-10155
▁unconditional	-10156
▁DG	-10157
▁Ty	-10158
▁Ach	-10159
▁Ant	-10160
▁Gog	-10161
▁Rup	-10162
▁Brij	-10163
▁Guru	-10164
▁Plot	-10165
▁Rama	-10166
▁conj	-10167
▁daco	-10168
utical	-10169
▁firms	-10170
▁Tribal	-10171
spectors	-10172
▁Summons	-10173
▁conject	-10174
▁destroy	-10175
▁ordering	-10176
▁ulterior	-10177
▁Tehsildar	-10178
▁adverting	-10179
▁exposition	-10180
▁distributed	-10181
▁constituency	-10182
▁extinguished	-10183
▁propositions	-10184
onal	-10185
▁Sans	-10186
orious	-10187
▁disob	-10188
▁write	-10189
▁Tehsil	-10190
▁noting	-10191
▁arrival	-10192
▁amenable	-10193
▁amounted	-10194
▁inquired	-10195
▁inspected	-10196
▁conflicting	-10197
bhu	-10198
atin	-10199
▁parli	-10200
▁disent	-10201
▁plants	-10202
▁Commerce	-10203
▁aggregate	-10204
▁deductions	-10205
▁Declaration	-10206
▁disposition	-10207
▁Ang	-10208
▁Init	-10209
▁Rahul	-10210
▁bifur	-10211
▁debar	-10212
▁Chowdh	-10213
▁loaded	-10214
▁Dwivedi	-10215
▁trained	-10216
fficiency	-10217
▁weighing	-10218
▁precisely	-10219
▁sensitive	-10220
▁statutorily	-10221
ih	-10222
adhy	-10223
uded	-10224
▁die	-10225
▁exh	-10226
FAESI	-10227
▁Ajit	-10228
▁Near	-10229
▁Noida	-10230
▁Rajiv	-10231
▁Stamp	-10232
▁inequ	-10233
▁People	-10234
▁abroad	-10235
▁latest	-10236
▁stolen	-10237
▁Reforms	-10238
▁situate	-10239
▁Consumer	-10240
▁Supervis	-10241
▁baseless	-10242
▁restrain	-10243
▁somewhat	-10244
▁Provident	-10245
▁abandoned	-10246
▁dimension	-10247
▁separated	-10248
Corporation	-10249
▁Conditions	-10250
▁controlling	-10251
▁developments	-10252
▁inconvenience	-10253
▁VS	-10254
DING	-10255
alla	-10256
ming	-10257
▁AJN	-10258
▁Who	-10259
ffice	-10260
▁AUTH	-10261
▁derog	-10262
▁hypot	-10263
anchise	-10264
▁Fourth	-10265
▁execut	-10266
▁poured	-10267
▁ransom	-10268
▁wholes	-10269
▁Challen	-10270
▁printed	-10271
▁systems	-10272
▁pleasure	-10273
▁insolvency	-10274
▁occasioned	-10275
▁specifications	-10276
do	-10277
ded	-10278
urp	-10279
sman	-10280
▁Mir	-10281
▁ones	-10282
▁Iqbal	-10283
osition	-10284
▁online	-10285
▁reside	-10286
resident	-10287
▁dragged	-10288
▁postpon	-10289
stituting	-10290
▁Pakistan	-10291
▁absorbed	-10292
▁inaction	-10293
▁opinions	-10294
▁delegation	-10295
ki	-10296
२२	-10297
osp	-10298
▁RF	-10299
▁RI	-10300
izon	-10301
loor	-10302
▁AUTHOR	-10303
▁Mohmed	-10304
▁centre	-10305
▁cousin	-10306
▁designs	-10307
▁marital	-10308
▁.........	-10309
▁advertised	-10310
▁liquidator	-10311
▁manufacturers	-10312
▁Fee	-10313
▁TRAI	-10314
▁Brahm	-10315
▁abdom	-10316
orrhage	-10317
▁taxing	-10318
▁wealth	-10319
▁entrust	-10320
▁quarter	-10321
ANI	-10322
ANN	-10323
ibh	-10324
hiya	-10325
▁Joh	-10326
▁Giri	-10327
▁True	-10328
▁caut	-10329
▁stig	-10330
▁Goyal	-10331
▁Plant	-10332
▁solit	-10333
▁Supply	-10334
▁serial	-10335
▁string	-10336
▁traced	-10337
▁Several	-10338
▁recently	-10339
▁reviewed	-10340
▁Employment	-10341
▁similarity	-10342
qf	-10343
owda	-10344
▁Dum	-10345
INESS	-10346
▁Hand	-10347
▁WRIT	-10348
▁flee	-10349
ponent	-10350
▁Lower	-10351
▁unreg	-10352
ndicate	-10353
▁histor	-10354
▁philos	-10355
▁directs	-10356
▁inspite	-10357
▁parking	-10358
▁analysed	-10359
▁compulsion	-10360
▁pensionary	-10361
▁Subordinate	-10362
▁instrumentality	-10363
▁PP	-10364
inath	-10365
▁deser	-10366
▁Sudhir	-10367
▁expand	-10368
▁medium	-10369
▁BUSINESS	-10370
▁Deceased	-10371
▁bailable	-10372
▁broadcast	-10373
▁partially	-10374
▁rectified	-10375
▁revocation	-10376
▁permanently	-10377
▁strangulation	-10378
rec	-10379
▁Ros	-10380
▁UID	-10381
anganj	-10382
▁owing	-10383
aterial	-10384
aterally	-10385
▁imposes	-10386
▁leveled	-10387
▁evaluated	-10388
▁mortgagee	-10389
▁universal	-10390
▁incomplete	-10391
▁postulates	-10392
▁implementing	-10393
▁substantiated	-10394
OM	-10395
kes	-10396
eded	-10397
▁Bij	-10398
▁MAJ	-10399
alaya	-10400
utably	-10401
▁Raghu	-10402
▁blind	-10403
selling	-10404
▁fitness	-10405
▁dividend	-10406
▁Exception	-10407
Ka	-10408
IGH	-10409
ney	-10410
uals	-10411
▁Sai	-10412
ilesh	-10413
inner	-10414
ustan	-10415
▁allows	-10416
▁invari	-10417
▁SARFAESI	-10418
▁commodity	-10419
▁Rub	-10420
▁cin	-10421
matic	-10422
organ	-10423
▁Card	-10424
▁shad	-10425
▁soci	-10426
▁Nayak	-10427
▁Somet	-10428
▁valued	-10429
▁arrayed	-10430
▁effects	-10431
▁appealed	-10432
▁somebody	-10433
▁recognize	-10434
gs	-10435
▁UN	-10436
ayya	-10437
▁cord	-10438
▁Tahas	-10439
▁train	-10440
▁coroll	-10441
▁enquire	-10442
▁sparing	-10443
▁disagree	-10444
▁directory	-10445
▁enrolment	-10446
▁Unfortunately	-10447
ek	-10448
▁fo	-10449
▁Daw	-10450
▁mine	-10451
istrar	-10452
ivance	-10453
▁Price	-10454
▁consc	-10455
▁guide	-10456
▁lacer	-10457
▁miser	-10458
▁voter	-10459
▁prerog	-10460
▁rescue	-10461
▁LIMITED	-10462
▁Category	-10463
▁goodwill	-10464
▁revolver	-10465
▁adjoining	-10466
▁irrigation	-10467
▁summarized	-10468
▁rectification	-10469
▁LA	-10470
etic	-10471
rage	-10472
▁rod	-10473
▁Gwal	-10474
▁Succ	-10475
▁coven	-10476
iterate	-10477
▁Curiae	-10478
▁Samiti	-10479
▁assent	-10480
▁embark	-10481
▁layout	-10482
▁prints	-10483
▁reform	-10484
▁Kamlesh	-10485
▁planned	-10486
akrishnan	-10487
▁........	-10488
▁GOVERNMENT	-10489
▁appropriately	-10490
ulp	-10491
▁Say	-10492
erman	-10493
facie	-10494
▁Army	-10495
▁Mean	-10496
▁exit	-10497
▁skin	-10498
▁worn	-10499
▁Dated	-10500
▁sugar	-10501
plained	-10502
▁define	-10503
▁stream	-10504
▁Greater	-10505
▁requests	-10506
▁shoulder	-10507
▁precluded	-10508
▁relatable	-10509
▁developing	-10510
▁neighbours	-10511
▁shareholding	-10512
eal	-10513
voc	-10514
raid	-10515
shot	-10516
▁AGA	-10517
opard	-10518
▁Bang	-10519
▁Good	-10520
▁oust	-10521
▁Prash	-10522
▁labor	-10523
▁veget	-10524
▁remind	-10525
▁Reports	-10526
▁Various	-10527
▁adhered	-10528
▁desires	-10529
▁refrain	-10530
▁unusual	-10531
▁rickshaw	-10532
▁unaccept	-10533
▁immaterial	-10534
▁territories	-10535
▁improvements	-10536
▁authorization	-10537
▁..............	-10538
▁SU	-10539
▁DTA	-10540
▁Gul	-10541
▁rid	-10542
▁rot	-10543
inite	-10544
▁Mach	-10545
▁dedic	-10546
▁corpus	-10547
▁disapp	-10548
▁learnt	-10549
▁occupy	-10550
▁kitchen	-10551
▁estimate	-10552
▁solitary	-10553
▁connivance	-10554
▁Agriculture	-10555
▁communicate	-10556
onn	-10557
char	-10558
rest	-10559
▁Mas	-10560
parte	-10561
▁auto	-10562
▁plat	-10563
▁Major	-10564
▁Christ	-10565
▁acquies	-10566
▁anywhere	-10567
▁resisted	-10568
▁indulging	-10569
▁perceived	-10570
▁depositing	-10571
▁recoveries	-10572
▁satisfying	-10573
▁Presidential	-10574
▁proportionate	-10575
▁Yes	-10576
itime	-10577
▁fifty	-10578
▁negat	-10579
arcation	-10580
▁crystal	-10581
▁extends	-10582
▁lifting	-10583
▁Undertak	-10584
▁challenges	-10585
▁forwarding	-10586
▁promotional	-10587
▁organisation	-10588
▁characteristics	-10589
lel	-10590
uja	-10591
▁AK	-10592
▁EM	-10593
arer	-10594
▁Jab	-10595
▁PAN	-10596
▁RET	-10597
▁pad	-10598
▁Bagh	-10599
▁Kath	-10600
▁feas	-10601
▁Found	-10602
▁carved	-10603
▁DAVANAG	-10604
▁AUTHORITY	-10605
▁attaining	-10606
▁promoters	-10607
▁promissory	-10608
eys	-10609
▁OS	-10610
iral	-10611
ksha	-10612
onda	-10613
▁Nit	-10614
▁SON	-10615
▁Dutta	-10616
▁Ganga	-10617
▁Rohit	-10618
▁Shant	-10619
▁cable	-10620
▁announ	-10621
▁Chandan	-10622
▁Express	-10623
valuation	-10624
▁intellig	-10625
▁medicine	-10626
▁intending	-10627
▁passenger	-10628
▁DAVANAGERE	-10629
▁frequently	-10630
▁cultivation	-10631
▁realization	-10632
▁RD	-10633
ader	-10634
▁ASG	-10635
▁Rece	-10636
estine	-10637
istent	-10638
▁invite	-10639
▁petrol	-10640
▁sketch	-10641
▁shelter	-10642
ciliation	-10643
▁realized	-10644
▁suppress	-10645
▁Hindustan	-10646
▁imparting	-10647
▁Succession	-10648
▁commodities	-10649
▁consignment	-10650
▁dishonoured	-10651
▁fraudulently	-10652
▁unacceptable	-10653
mia	-10654
▁COR	-10655
▁Gor	-10656
▁VRS	-10657
ument	-10658
usive	-10659
▁Mans	-10660
▁Vinay	-10661
▁aimed	-10662
▁afraid	-10663
▁cattle	-10664
▁silver	-10665
▁hearsay	-10666
▁credence	-10667
▁parental	-10668
▁adequately	-10669
▁transferor	-10670
▁Secretariat	-10671
▁practically	-10672
▁Corporations	-10673
tee	-10674
rupt	-10675
▁DDA	-10676
▁Gos	-10677
▁NGT	-10678
▁OFF	-10679
▁Rem	-10680
▁ipso	-10681
▁slow	-10682
garwal	-10683
minent	-10684
▁Paper	-10685
▁cargo	-10686
▁Maharaj	-10687
▁manager	-10688
▁supplier	-10689
ographical	-10690
▁aforestated	-10691
▁unexplained	-10692
ANA	-10693
ARD	-10694
▁Sk	-10695
adia	-10696
ulam	-10697
▁Dra	-10698
▁Kor	-10699
▁SMT	-10700
rical	-10701
▁tang	-10702
▁adjud	-10703
▁lapsed	-10704
▁Suffice	-10705
▁ensured	-10706
▁critical	-10707
▁occupant	-10708
▁tenanted	-10709
▁Personnel	-10710
▁Fundamental	-10711
▁Av	-10712
▁Ib	-10713
▁Anj	-10714
owers	-10715
▁Khas	-10716
▁Koth	-10717
▁Kuld	-10718
▁MANU	-10719
▁plus	-10720
▁scri	-10721
▁feels	-10722
▁white	-10723
▁animal	-10724
▁locked	-10725
▁varied	-10726
▁resides	-10727
▁scooter	-10728
▁carriage	-10729
▁endorsed	-10730
▁numerous	-10731
▁redressal	-10732
▁Ultimately	-10733
▁prerogative	-10734
▁circumspection	-10735
▁HU	-10736
isha	-10737
▁dies	-10738
▁semen	-10739
▁organs	-10740
▁Praveen	-10741
▁condone	-10742
▁federal	-10743
unication	-10744
▁probably	-10745
▁impliedly	-10746
▁incentive	-10747
▁preserved	-10748
▁legislations	-10749
▁practitioner	-10750
ayam	-10751
oner	-10752
ooth	-10753
lobal	-10754
▁bore	-10755
▁lift	-10756
▁ring	-10757
▁imply	-10758
▁sixty	-10759
▁trials	-10760
▁worthy	-10761
▁disappe	-10762
▁revoked	-10763
▁testing	-10764
▁corollary	-10765
▁smuggling	-10766
▁acknowledge	-10767
▁demarcation	-10768
▁threatening	-10769
ux	-10770
ARI	-10771
imen	-10772
▁Dab	-10773
▁Wor	-10774
▁pit	-10775
▁Chint	-10776
▁bogus	-10777
▁breath	-10778
▁indulge	-10779
▁jeopard	-10780
▁Tripathi	-10781
▁dominant	-10782
▁inception	-10783
▁processed	-10784
▁retention	-10785
▁provocation	-10786
▁restitution	-10787
▁strenuously	-10788
▁suitability	-10789
Ram	-10790
gir	-10791
rum	-10792
▁Book	-10793
▁Mill	-10794
▁PRAS	-10795
▁Poll	-10796
▁laun	-10797
▁raid	-10798
▁Taxes	-10799
▁indemn	-10800
▁parked	-10801
▁waived	-10802
▁Ranjeet	-10803
▁stamped	-10804
▁Claimant	-10805
▁Virender	-10806
▁constant	-10807
▁deposing	-10808
▁allottees	-10809
▁meaningful	-10810
▁Agricultural	-10811
ukh	-10812
▁ep	-10813
iyar	-10814
orry	-10815
-----	-10816
▁mens	-10817
▁Krishn	-10818
▁Negoti	-10819
ensively	-10820
▁feeling	-10821
▁kidnapped	-10822
▁proximity	-10823
▁Tahasildar	-10824
▁acquitting	-10825
▁introducing	-10826
▁disobedience	-10827
▁authoritative	-10828
▁inconsistencies	-10829
HO	-10830
Un	-10831
oday	-10832
otra	-10833
uate	-10834
▁Ras	-10835
owance	-10836
▁abide	-10837
▁lists	-10838
▁Mobile	-10839
▁gained	-10840
▁notion	-10841
▁overla	-10842
▁Perusal	-10843
▁bullets	-10844
▁Training	-10845
▁vicinity	-10846
▁attendant	-10847
▁hereafter	-10848
▁readiness	-10849
▁evaluating	-10850
▁forthcoming	-10851
▁identifying	-10852
▁Jurisdiction	-10853
▁illustration	-10854
FS	-10855
dem	-10856
how	-10857
▁cam	-10858
ESENT	-10859
▁Ener	-10860
▁Many	-10861
▁SHRI	-10862
▁harsh	-10863
▁maker	-10864
▁culled	-10865
▁induce	-10866
▁clients	-10867
▁exagger	-10868
▁allottee	-10869
▁persuade	-10870
▁Presiding	-10871
▁basically	-10872
▁opposition	-10873
▁Departmental	-10874
▁encumbrances	-10875
▁modifications	-10876
odt	-10877
▁Den	-10878
▁Fac	-10879
▁MBBS	-10880
▁sham	-10881
▁Baner	-10882
▁CHAND	-10883
▁Savita	-10884
▁ceases	-10885
▁confessed	-10886
EE	-10887
TI	-10888
▁Enfor	-10889
▁Regul	-10890
▁Saroj	-10891
mediate	-10892
▁culmin	-10893
▁shadow	-10894
▁Adjudic	-10895
▁Madurai	-10896
▁Trustees	-10897
▁tenderer	-10898
▁defaulter	-10899
▁agriculture	-10900
▁Bel	-10901
▁Exs	-10902
▁Tap	-10903
rahim	-10904
▁Dutt	-10905
▁Life	-10906
▁novel	-10907
▁unfit	-10908
harmace	-10909
▁variety	-10910
▁Contempt	-10911
▁delegate	-10912
▁assessees	-10913
▁districts	-10914
▁sparingly	-10915
▁encashment	-10916
▁unfortunately	-10917
isa	-10918
▁Dig	-10919
▁SHA	-10920
▁cri	-10921
ammal	-10922
anpur	-10923
manand	-10924
▁MAJOR	-10925
▁modes	-10926
▁sworn	-10927
atively	-10928
▁Charan	-10929
▁Lakhan	-10930
▁saving	-10931
▁stress	-10932
ographer	-10933
▁Gwalior	-10934
▁Prashant	-10935
▁lawfully	-10936
▁Promotion	-10937
▁enquiries	-10938
▁marketing	-10939
▁Foundation	-10940
▁extensively	-10941
▁unsuccessful	-10942
eta	-10943
yar	-10944
▁DIR	-10945
▁Lah	-10946
▁awa	-10947
▁cot	-10948
forma	-10949
▁Inte	-10950
▁Same	-10951
▁rope	-10952
▁Women	-10953
▁conco	-10954
ressive	-10955
▁cadres	-10956
▁unique	-10957
stitutes	-10958
▁Seventh	-10959
▁broadly	-10960
▁glaring	-10961
▁harassed	-10962
▁pursuing	-10963
▁utilised	-10964
▁affection	-10965
▁insertion	-10966
▁assertions	-10967
▁undergoing	-10968
▁compensated	-10969
▁withholding	-10970
PPA	-10971
udu	-10972
▁CP	-10973
iben	-10974
iniv	-10975
riya	-10976
▁VIII	-10977
▁akin	-10978
▁Count	-10979
▁Draft	-10980
▁ended	-10981
▁penet	-10982
azetted	-10983
▁forbid	-10984
▁surety	-10985
▁Jyotish	-10986
▁Meeting	-10987
▁induced	-10988
▁repairs	-10989
affidavit	-10990
▁Governing	-10991
▁forfeited	-10992
▁introduce	-10993
▁Establishment	-10994
२३	-10995
well	-10996
▁LRs	-10997
▁Own	-10998
awati	-10999
▁shut	-11000
rolled	-11001
▁Misra	-11002
▁indisc	-11003
▁redeem	-11004
▁reluct	-11005
▁disabled	-11006
▁efficacious	-11007
outed	-11008
▁Sard	-11009
ansion	-11010
astern	-11011
▁drain	-11012
▁green	-11013
▁height	-11014
▁wilful	-11015
▁irrevoc	-11016
condition	-11017
▁estopped	-11018
▁supplies	-11019
ordination	-11020
▁mortgagor	-11021
ls	-11022
oes	-11023
▁ld	-11024
itha	-11025
▁pel	-11026
▁Bhim	-11027
▁Capt	-11028
▁Five	-11029
▁Geet	-11030
▁Hard	-11031
▁fold	-11032
▁motiv	-11033
jection	-11034
▁Adalat	-11035
▁Depart	-11036
▁Mahade	-11037
▁argues	-11038
▁lessor	-11039
▁Tenancy	-11040
▁Backward	-11041
▁Juvenile	-11042
▁executor	-11043
▁needless	-11044
▁recalled	-11045
▁dispensed	-11046
▁pollution	-11047
▁propounded	-11048
harmaceutical	-11049
▁compulsorily	-11050
eli	-11051
pir	-11052
greg	-11053
wadi	-11054
▁DPC	-11055
▁Hab	-11056
▁Stud	-11057
▁Ankit	-11058
▁Lease	-11059
▁Prime	-11060
▁genes	-11061
herence	-11062
▁Bharti	-11063
▁counts	-11064
▁Workmen	-11065
▁enlarge	-11066
▁options	-11067
▁convicts	-11068
▁intimate	-11069
▁minister	-11070
▁quarters	-11071
▁reducing	-11072
▁finalized	-11073
▁constructive	-11074
Act	-11075
IDC	-11076
cid	-11077
▁SK	-11078
aint	-11079
▁Fif	-11080
▁SUB	-11081
▁god	-11082
▁Aust	-11083
▁shout	-11084
▁Venkat	-11085
graduate	-11086
▁parallel	-11087
▁punitive	-11088
▁circulars	-11089
▁satisfies	-11090
▁individually	-11091
▁Da	-11092
▁LJ	-11093
ishek	-11094
▁Sany	-11095
▁Thir	-11096
▁pard	-11097
▁semi	-11098
aution	-11099
▁Bhopal	-11100
▁Ibrahim	-11101
▁chances	-11102
▁grossly	-11103
▁credited	-11104
▁inadvert	-11105
▁Resources	-11106
▁indicative	-11107
▁Rehabilitation	-11108
meas	-11109
▁Kul	-11110
▁hur	-11111
▁mud	-11112
▁nin	-11113
▁Item	-11114
▁Pill	-11115
▁Minor	-11116
▁bones	-11117
▁Prabhu	-11118
▁vulner	-11119
▁concepts	-11120
▁penalties	-11121
▁favourable	-11122
▁cooperative	-11123
ox	-11124
RAM	-11125
▁Ek	-11126
▁pg	-11127
book	-11128
▁Haz	-11129
▁Suk	-11130
▁unan	-11131
▁MCOCA	-11132
▁monop	-11133
▁inputs	-11134
▁linked	-11135
▁apprised	-11136
▁promptly	-11137
▁specimen	-11138
▁miserably	-11139
▁negatived	-11140
▁exploitation	-11141
▁BH	-11142
▁Bla	-11143
joint	-11144
▁Litig	-11145
▁dwell	-11146
▁assemb	-11147
Division	-11148
▁intoxic	-11149
▁pursued	-11150
▁operator	-11151
▁opponent	-11152
▁prudence	-11153
▁terminal	-11154
▁Complaint	-11155
▁Returning	-11156
▁formality	-11157
▁Appointment	-11158
▁concealment	-11159
▁implications	-11160
▁reservations	-11161
▁Ct	-11162
▁Jog	-11163
▁MAD	-11164
▁sch	-11165
IONAL	-11166
aksha	-11167
ayana	-11168
▁Bodh	-11169
▁Pass	-11170
▁Sonu	-11171
▁sewer	-11172
▁Trading	-11173
▁vaginal	-11174
▁emerging	-11175
▁mutually	-11176
▁associate	-11177
▁dissolved	-11178
▁signatory	-11179
▁Negotiable	-11180
▁OM	-11181
▁Ut	-11182
▁hid	-11183
▁rea	-11184
orial	-11185
▁Khal	-11186
▁Pari	-11187
▁rear	-11188
▁abras	-11189
▁outer	-11190
▁Mandir	-11191
▁deline	-11192
▁sphere	-11193
▁whilst	-11194
▁counting	-11195
▁embodied	-11196
▁recruited	-11197
▁consolidated	-11198
▁RC	-11199
bank	-11200
▁PIN	-11201
peeth	-11202
▁Shab	-11203
▁Drugs	-11204
ampered	-11205
▁Yogesh	-11206
▁compan	-11207
▁deeming	-11208
▁invoice	-11209
▁stabbed	-11210
mediately	-11211
▁stranger	-11212
▁magnitude	-11213
▁prospects	-11214
▁reinstated	-11215
▁Instruments	-11216
▁authenticity	-11217
ethe	-11218
hera	-11219
▁Mak	-11220
▁SBI	-11221
clear	-11222
anches	-11223
▁BANKA	-11224
▁Debts	-11225
▁UIDAI	-11226
▁dance	-11227
▁tribe	-11228
▁Course	-11229
▁broker	-11230
▁cotton	-11231
▁unsound	-11232
▁dwelling	-11233
▁helpless	-11234
▁marginal	-11235
▁sessions	-11236
▁consuming	-11237
respondents	-11238
▁kidnapping	-11239
▁perception	-11240
▁precaution	-11241
▁subsisting	-11242
▁Immediately	-11243
▁legitimately	-11244
▁unregistered	-11245
▁FSI	-11246
▁LPA	-11247
▁SIT	-11248
aside	-11249
▁RESP	-11250
▁brid	-11251
▁phen	-11252
anchal	-11253
▁scuff	-11254
▁Champa	-11255
▁Invest	-11256
▁dispar	-11257
▁wooden	-11258
reatment	-11259
▁depreci	-11260
▁faculty	-11261
▁hanging	-11262
Registrar	-11263
▁infringed	-11264
▁prisoners	-11265
▁Departments	-11266
▁adjournment	-11267
▁subsistence	-11268
▁misconception	-11269
▁EN	-11270
▁LC	-11271
▁PA	-11272
ache	-11273
osex	-11274
ream	-11275
▁KAL	-11276
ordin	-11277
▁Kart	-11278
▁arch	-11279
▁fruit	-11280
▁skill	-11281
▁Ramach	-11282
▁Sharan	-11283
▁Shimla	-11284
▁stored	-11285
▁superv	-11286
▁window	-11287
▁Speaker	-11288
▁Nagendra	-11289
▁evaluate	-11290
▁pregnant	-11291
▁voidable	-11292
▁contraven	-11293
▁occupancy	-11294
▁tampering	-11295
▁violating	-11296
▁Concession	-11297
▁organizations	-11298
phy	-11299
▁Uj	-11300
▁Nam	-11301
▁SCA	-11302
▁Set	-11303
▁BCCI	-11304
▁Name	-11305
aswamy	-11306
ruction	-11307
▁lapses	-11308
▁powder	-11309
▁Whenever	-11310
▁Yogendra	-11311
▁inapplic	-11312
▁override	-11313
▁Chowdhury	-11314
▁offenders	-11315
▁Electrical	-11316
▁terminating	-11317
▁governmental	-11318
bai	-11319
raf	-11320
quer	-11321
ruly	-11322
whel	-11323
insic	-11324
▁NEET	-11325
▁POST	-11326
▁emol	-11327
▁Staff	-11328
husband	-11329
▁smooth	-11330
▁loading	-11331
▁tickets	-11332
▁Virendra	-11333
▁preamble	-11334
▁liquidated	-11335
▁monitoring	-11336
▁programmes	-11337
▁meritorious	-11338
RL	-11339
IVE	-11340
PUR	-11341
aki	-11342
rate	-11343
ipped	-11344
▁Kund	-11345
▁Rajn	-11346
▁Roll	-11347
▁Syed	-11348
▁mass	-11349
ledged	-11350
▁Jyoti	-11351
▁excav	-11352
▁bounds	-11353
▁econom	-11354
▁concent	-11355
▁genesis	-11356
▁realised	-11357
▁balancing	-11358
▁eliminate	-11359
▁Federation	-11360
---	-11361
das	-11362
krit	-11363
mani	-11364
ttes	-11365
▁HUF	-11366
▁lad	-11367
iates	-11368
▁HIGH	-11369
▁trend	-11370
▁Consult	-11371
▁Mohanty	-11372
▁Natural	-11373
▁lacking	-11374
▁misused	-11375
▁panchas	-11376
▁refuted	-11377
▁silence	-11378
............	-11379
▁adjudicatory	-11380
▁Ele	-11381
▁Nat	-11382
▁SIM	-11383
▁vou	-11384
worth	-11385
▁Uday	-11386
▁sums	-11387
▁Final	-11388
▁amply	-11389
▁Number	-11390
▁volume	-11391
▁clarity	-11392
▁envelop	-11393
▁willful	-11394
▁Judgments	-11395
▁competing	-11396
▁expansion	-11397
▁committees	-11398
▁preferably	-11399
▁dishonestly	-11400
oob	-11401
wing	-11402
▁Edn	-11403
arers	-11404
least	-11405
▁Rana	-11406
▁fuel	-11407
▁rice	-11408
incial	-11409
▁films	-11410
▁resum	-11411
▁advise	-11412
▁blackl	-11413
bailable	-11414
etheless	-11415
▁Develop	-11416
▁neglect	-11417
▁recruits	-11418
▁Thereupon	-11419
▁occupying	-11420
▁successive	-11421
As	-11422
ITR	-11423
bon	-11424
wat	-11425
mosp	-11426
▁Lad	-11427
▁hol	-11428
▁lif	-11429
▁Amin	-11430
▁Prab	-11431
▁lect	-11432
▁Binod	-11433
▁Floor	-11434
▁Lakhs	-11435
▁Medic	-11436
▁abate	-11437
▁Subram	-11438
▁atmosp	-11439
▁invent	-11440
atisfied	-11441
▁overwhel	-11442
▁platform	-11443
▁effecting	-11444
▁inherited	-11445
▁medicines	-11446
▁purchases	-11447
▁reversing	-11448
▁accounting	-11449
▁Constituent	-11450
▁seriousness	-11451
vil	-11452
bate	-11453
▁Dash	-11454
▁Next	-11455
▁SHIV	-11456
urrent	-11457
▁criter	-11458
▁accepts	-11459
▁recruit	-11460
▁talking	-11461
▁Aggarwal	-11462
▁Preamble	-11463
▁responded	-11464
▁Elementary	-11465
▁transported	-11466
▁Organization	-11467
▁collectively	-11468
chi	-11469
lod	-11470
▁ME	-11471
orty	-11472
▁ore	-11473
avior	-11474
▁Memo	-11475
▁lend	-11476
▁Munda	-11477
▁tribal	-11478
▁earmark	-11479
▁finance	-11480
▁adducing	-11481
▁touching	-11482
▁represents	-11483
▁purportedly	-11484
FR	-11485
▁LT	-11486
URGA	-11487
cles	-11488
lant	-11489
made	-11490
pati	-11491
rete	-11492
ENDRA	-11493
▁Phys	-11494
▁Yash	-11495
▁barg	-11496
▁blue	-11497
▁dock	-11498
▁pool	-11499
ellect	-11500
▁surve	-11501
▁DIRECT	-11502
▁emphat	-11503
▁gender	-11504
▁Federal	-11505
▁Product	-11506
▁Singhvi	-11507
▁abdomen	-11508
▁closing	-11509
▁inherit	-11510
▁conjoint	-11511
▁promised	-11512
▁invitation	-11513
▁justifying	-11514
▁grandfather	-11515
▁corroborates	-11516
fort	-11517
sues	-11518
wali	-11519
▁Kus	-11520
▁Bhub	-11521
▁Radh	-11522
▁Facts	-11523
▁spelt	-11524
▁yards	-11525
outhern	-11526
▁Ishwar	-11527
interest	-11528
▁vessels	-11529
▁Builders	-11530
▁opposing	-11531
▁believing	-11532
▁conceived	-11533
▁exchanged	-11534
▁agricultur	-11535
▁Enforcement	-11536
▁evidentiary	-11537
▁prohibiting	-11538
OI	-11539
sa	-11540
wp	-11541
lla	-11542
▁Op	-11543
adar	-11544
iors	-11545
▁Ber	-11546
▁Baba	-11547
▁aunt	-11548
▁Nanda	-11549
▁teeth	-11550
▁undes	-11551
▁PRASAD	-11552
▁abated	-11553
▁exempl	-11554
▁hazard	-11555
▁Sanskrit	-11556
▁forcible	-11557
▁suddenly	-11558
▁multiplic	-11559
▁promoting	-11560
▁atmosphere	-11561
▁encroached	-11562
▁invariably	-11563
▁returnable	-11564
▁scrutinize	-11565
▁corroborative	-11566
▁parliamentary	-11567
An	-11568
OW	-11569
OUR	-11570
▁Sas	-11571
▁Ser	-11572
▁skt	-11573
▁bath	-11574
▁clot	-11575
ONDENT	-11576
arised	-11577
▁Diary	-11578
▁casts	-11579
▁rigid	-11580
▁Vikram	-11581
▁Vishal	-11582
▁exoner	-11583
▁facets	-11584
▁quarre	-11585
▁Nursing	-11586
▁philosop	-11587
▁Admission	-11588
▁Chemicals	-11589
▁criterion	-11590
▁perfectly	-11591
▁constituent	-11592
▁orientation	-11593
▁unilaterally	-11594
▁BE	-11595
▁SAT	-11596
▁Tej	-11597
▁War	-11598
▁Wed	-11599
▁Chin	-11600
▁poly	-11601
▁sect	-11602
▁seed	-11603
▁crops	-11604
,00,000	-11605
▁insect	-11606
petition	-11607
▁popular	-11608
▁Banerjee	-11609
▁obstruct	-11610
▁undermin	-11611
▁factually	-11612
▁incidence	-11613
▁resorting	-11614
▁comparable	-11615
▁substances	-11616
▁television	-11617
▁conciliation	-11618
isan	-11619
▁Gas	-11620
▁Tre	-11621
rance	-11622
▁Chet	-11623
▁Noor	-11624
▁Basic	-11625
▁Guard	-11626
▁stopp	-11627
▁Bihari	-11628
▁Nanded	-11629
▁Nirmal	-11630
▁capric	-11631
▁sugarc	-11632
▁firearm	-11633
▁integra	-11634
▁pendent	-11635
▁Birendra	-11636
▁Marriage	-11637
▁finished	-11638
▁criticism	-11639
▁increment	-11640
▁Applications	-11641
▁inapplicable	-11642
▁respectfully	-11643
▁truthfulness	-11644
UIL	-11645
▁NB	-11646
gram	-11647
yard	-11648
avati	-11649
enture	-11650
▁Anita	-11651
▁INDIA	-11652
▁Mandi	-11653
▁upset	-11654
▁width	-11655
▁Basant	-11656
▁excuse	-11657
▁gather	-11658
▁Airport	-11659
▁bloodst	-11660
▁versions	-11661
▁sugarcane	-11662
▁RESPONDENT	-11663
▁cancelling	-11664
▁combination	-11665
▁confessions	-11666
▁consciously	-11667
▁Identification	-11668
LP	-11669
VA	-11670
enth	-11671
▁Gob	-11672
▁Ill	-11673
▁Answ	-11674
▁Slum	-11675
afides	-11676
▁World	-11677
ography	-11678
▁Eastern	-11679
▁Signific	-11680
▁branches	-11681
▁foremost	-11682
▁Initially	-11683
▁discredit	-11684
application	-11685
▁cigarettes	-11686
▁emoluments	-11687
▁demonstrates	-11688
▁administrator	-11689
▁UK	-11690
awar	-11691
▁BIF	-11692
grees	-11693
▁Ghat	-11694
▁tape	-11695
rivial	-11696
▁Gulab	-11697
▁Karan	-11698
▁grams	-11699
▁rider	-11700
▁sweep	-11701
▁freely	-11702
undering	-11703
▁expense	-11704
▁healthy	-11705
▁contacted	-11706
▁supplying	-11707
▁landowners	-11708
▁surprising	-11709
▁destruction	-11710
▁recoverable	-11711
▁resolutions	-11712
▁dispossession	-11713
ISH	-11714
▁HS	-11715
NDER	-11716
▁ITI	-11717
odara	-11718
▁Mian	-11719
▁Pers	-11720
▁cler	-11721
▁wake	-11722
rupted	-11723
▁Manjhi	-11724
▁insign	-11725
▁Saharsa	-11726
▁preclude	-11727
▁analogous	-11728
▁photocopy	-11729
▁equipments	-11730
▁misleading	-11731
▁eventuality	-11732
▁impleadment	-11733
▁practicable	-11734
▁sym	-11735
akant	-11736
ottam	-11737
▁Dave	-11738
▁ampl	-11739
▁Dharam	-11740
▁Ismail	-11741
▁jewell	-11742
▁Krishan	-11743
▁Affidavit	-11744
▁invention	-11745
▁abundantly	-11746
▁oppression	-11747
▁Shrivastava	-11748
▁detrimental	-11749
▁Distribution	-11750
ij	-11751
AGE	-11752
eas	-11753
ANTH	-11754
ansh	-11755
race	-11756
reet	-11757
▁Nab	-11758
▁sat	-11759
▁tou	-11760
asury	-11761
▁slip	-11762
viable	-11763
▁Store	-11764
▁Total	-11765
itating	-11766
▁Honble	-11767
▁manual	-11768
▁script	-11769
▁Country	-11770
▁borrowed	-11771
▁convened	-11772
▁Meghalaya	-11773
▁assailing	-11774
▁propounder	-11775
▁candidature	-11776
▁dispossessed	-11777
▁mechanically	-11778
२४	-11779
ford	-11780
harm	-11781
▁PAT	-11782
▁gar	-11783
▁tab	-11784
house	-11785
inees	-11786
▁BIFR	-11787
▁Bibi	-11788
▁Jais	-11789
▁Kush	-11790
▁Show	-11791
ouring	-11792
▁orally	-11793
formance	-11794
▁Minutes	-11795
▁captive	-11796
▁disappro	-11797
▁studying	-11798
▁analyzing	-11799
▁happening	-11800
▁intervened	-11801
▁Proceedings	-11802
▁consistency	-11803
▁obstruction	-11804
FI	-11805
App	-11806
ERV	-11807
Sam	-11808
▁Ke	-11809
▁UP	-11810
debt	-11811
▁Yus	-11812
ician	-11813
urthy	-11814
▁ONGC	-11815
▁emot	-11816
▁shed	-11817
▁vast	-11818
arness	-11819
▁meted	-11820
▁ticket	-11821
▁unanim	-11822
▁counten	-11823
▁scuffle	-11824
measuring	-11825
▁licenses	-11826
▁proposes	-11827
▁illiterate	-11828
▁engineering	-11829
▁irrevocable	-11830
GM	-11831
ALA	-11832
OUN	-11833
inf	-11834
▁Fa	-11835
▁TN	-11836
aiya	-11837
endi	-11838
tari	-11839
ugal	-11840
xxxx	-11841
▁CCI	-11842
▁CHI	-11843
▁dry	-11844
▁unb	-11845
archy	-11846
▁Puri	-11847
▁Nasir	-11848
▁opted	-11849
▁socio	-11850
reening	-11851
▁merged	-11852
▁redund	-11853
ropriate	-11854
▁trivial	-11855
▁software	-11856
▁stations	-11857
▁Pollution	-11858
▁assailant	-11859
▁legislate	-11860
▁violations	-11861
▁attestation	-11862
▁depreciation	-11863
DE	-11864
cl	-11865
▁unm	-11866
gated	-11867
ipher	-11868
▁Janj	-11869
▁John	-11870
▁Ramb	-11871
▁inex	-11872
▁medi	-11873
▁puts	-11874
▁unlo	-11875
▁Appro	-11876
▁Model	-11877
▁Title	-11878
▁accur	-11879
▁gunny	-11880
▁index	-11881
▁mould	-11882
▁whims	-11883
UILDING	-11884
▁Araria	-11885
▁Posted	-11886
▁amicus	-11887
▁godown	-11888
▁initio	-11889
▁Conduct	-11890
▁throwing	-11891
▁Operators	-11892
▁evidently	-11893
▁Litigation	-11894
▁demolished	-11895
▁historical	-11896
▁advancement	-11897
▁authenticated	-11898
▁certification	-11899
▁reimbursement	-11900
PR	-11901
▁TV	-11902
ARAJ	-11903
▁Dom	-11904
▁Gad	-11905
▁Gud	-11906
endar	-11907
▁Bash	-11908
▁Bind	-11909
▁Prit	-11910
▁Sten	-11911
▁haem	-11912
▁lite	-11913
▁ganja	-11914
▁volum	-11915
▁Kapoor	-11916
▁hasten	-11917
▁Khatoon	-11918
▁charter	-11919
▁fateful	-11920
▁smaller	-11921
▁subsidy	-11922
▁Normally	-11923
▁inherently	-11924
▁whereafter	-11925
▁Adjudicating	-11926
▁universities	-11927
EER	-11928
▁BO	-11929
heda	-11930
unct	-11931
lated	-11932
ullah	-11933
▁Ramp	-11934
▁Meena	-11935
▁Peeth	-11936
▁flows	-11937
▁Shashi	-11938
▁beings	-11939
▁Consolid	-11940
▁Graduate	-11941
▁Sanction	-11942
▁receiver	-11943
▁remotely	-11944
▁recipient	-11945
▁aggravating	-11946
▁proprietary	-11947
▁reiterating	-11948
▁withdrawing	-11949
▁acknowledgment	-11950
PT	-11951
idar	-11952
urit	-11953
▁Sil	-11954
▁UTT	-11955
apara	-11956
iance	-11957
rable	-11958
▁Pink	-11959
▁quick	-11960
▁vexat	-11961
▁affair	-11962
▁Payment	-11963
▁dumping	-11964
▁threats	-11965
▁contrast	-11966
▁engaging	-11967
▁Judiciary	-11968
▁travelled	-11969
▁Provisions	-11970
▁inferences	-11971
▁thoroughly	-11972
upp	-11973
▁JN	-11974
▁Maz	-11975
▁NCL	-11976
▁RSA	-11977
▁gro	-11978
idhar	-11979
▁Iron	-11980
▁flaw	-11981
▁gram	-11982
▁lung	-11983
▁upgr	-11984
rampur	-11985
▁Mitra	-11986
▁writs	-11987
▁Altern	-11988
▁Hindus	-11989
▁Mamlat	-11990
▁Rampur	-11991
▁predom	-11992
▁deletion	-11993
▁fulfilling	-11994
▁corroborate	-11995
▁traditional	-11996
▁FL	-11997
aser	-11998
▁Age	-11999
▁YAD	-12000
▁DTAA	-12001
▁Flat	-12002
▁POTA	-12003
▁hors	-12004
▁Shree	-12005
▁annul	-12006
▁clock	-12007
▁efflu	-12008
iration	-12009
▁Kanpur	-12010
▁Equally	-12011
▁analyse	-12012
▁Congress	-12013
▁Corporate	-12014
▁tendering	-12015
▁Deposition	-12016
▁consciousness	-12017
▁functionaries	-12018
▁FC	-12019
anna	-12020
cers	-12021
inth	-12022
pret	-12023
raud	-12024
▁PSI	-12025
utral	-12026
▁APMC	-12027
▁MTNL	-12028
▁acre	-12029
▁drop	-12030
▁goal	-12031
▁Yusuf	-12032
▁focus	-12033
▁paddy	-12034
▁entail	-12035
▁incuri	-12036
▁pardon	-12037
▁Janjgir	-12038
▁Shanker	-12039
▁analogy	-12040
▁planted	-12041
▁Dhamtari	-12042
▁landlords	-12043
▁specifying	-12044
▁sustaining	-12045
▁culpability	-12046
▁unequivocal	-12047
▁stipulations	-12048
lad	-12049
lit	-12050
ops	-12051
ton	-12052
▁Pa	-12053
▁pa	-12054
icro	-12055
▁ESI	-12056
▁Mud	-12057
cence	-12058
eship	-12059
▁Gaur	-12060
▁NCTE	-12061
▁eject	-12062
▁malic	-12063
▁begins	-12064
▁caveat	-12065
▁Hearing	-12066
▁decisive	-12067
▁freedoms	-12068
▁measured	-12069
▁variance	-12070
▁franchise	-12071
▁intendment	-12072
▁wrongfully	-12073
▁fulfillment	-12074
▁Significantly	-12075
lay	-12076
▁hut	-12077
▁une	-12078
adevi	-12079
endix	-12080
▁Jose	-12081
▁taxi	-12082
▁Dipak	-12083
▁Kiran	-12084
▁Uttam	-12085
▁embar	-12086
▁Bhuban	-12087
▁Khanna	-12088
▁uncont	-12089
▁Shekhar	-12090
▁Western	-12091
▁drafted	-12092
▁highway	-12093
▁adultery	-12094
▁Permanent	-12095
▁Represent	-12096
▁Screening	-12097
▁isolation	-12098
▁enterprise	-12099
▁countenanced	-12100
ksh	-12101
waj	-12102
▁Dav	-12103
▁cyl	-12104
aders	-12105
tered	-12106
▁lump	-12107
▁span	-12108
ARAYAN	-12109
▁Pract	-12110
▁Charas	-12111
▁KARWAR	-12112
▁respons	-12113
▁Highways	-12114
▁agitated	-12115
▁ceremony	-12116
▁Sometimes	-12117
▁depriving	-12118
▁earmarked	-12119
▁vexatious	-12120
▁frustrated	-12121
▁Submissions	-12122
▁predominant	-12123
▁Jyotishpeeth	-12124
▁contingencies	-12125
ays	-12126
oja	-12127
▁ig	-12128
beit	-12129
ilak	-12130
ukar	-12131
unte	-12132
▁PAR	-12133
▁Rab	-12134
▁Chik	-12135
▁Mult	-12136
▁garb	-12137
▁hier	-12138
nected	-12139
▁APEAL	-12140
▁bread	-12141
▁deplo	-12142
▁guise	-12143
▁memos	-12144
▁Examin	-12145
▁pushed	-12146
▁Kuldeep	-12147
▁brushed	-12148
▁carrier	-12149
▁perpetr	-12150
▁Thousand	-12151
▁culprits	-12152
▁enjoying	-12153
▁erection	-12154
▁resigned	-12155
▁insisting	-12156
▁comprehend	-12157
▁indefinite	-12158
▁unilateral	-12159
▁Appropriate	-12160
▁litigations	-12161
▁specification	-12162
OK	-12163
INT	-12164
yap	-12165
▁hue	-12166
▁sic	-12167
▁Marg	-12168
▁Praj	-12169
▁Shat	-12170
▁bald	-12171
ANNADA	-12172
▁blame	-12173
▁enorm	-12174
▁signs	-12175
inently	-12176
▁Auditor	-12177
▁Counter	-12178
▁conspic	-12179
▁farmers	-12180
▁kilomet	-12181
▁readily	-12182
▁refuses	-12183
▁avoiding	-12184
▁graduate	-12185
▁rebutted	-12186
▁succinct	-12187
▁Mamlatdar	-12188
▁importantly	-12189
UDA	-12190
▁PE	-12191
▁Adh	-12192
▁Diw	-12193
▁TIP	-12194
▁bud	-12195
▁nur	-12196
▁Club	-12197
▁Nair	-12198
adhyay	-12199
ardhan	-12200
▁Tulsi	-12201
▁seals	-12202
▁spoke	-12203
▁taxed	-12204
▁Records	-12205
▁culture	-12206
▁Academic	-12207
▁stringent	-12208
▁Developers	-12209
▁compensate	-12210
▁Arbitrators	-12211
▁Additionally	-12212
haz	-12213
▁Lt	-12214
ABLE	-12215
phyx	-12216
wear	-12217
▁CDR	-12218
▁MAR	-12219
▁Was	-12220
▁cow	-12221
▁wip	-12222
adhav	-12223
aired	-12224
andal	-12225
athan	-12226
omous	-12227
uming	-12228
▁plen	-12229
▁symp	-12230
▁demur	-12231
igature	-12232
ourteen	-12233
service	-12234
▁Jaipur	-12235
▁Kanhai	-12236
▁carbon	-12237
▁malice	-12238
▁premed	-12239
▁urgent	-12240
▁weaker	-12241
▁anxious	-12242
▁embargo	-12243
▁checking	-12244
▁construe	-12245
▁drinking	-12246
▁frustrate	-12247
▁reliability	-12248
▁uncertainty	-12249
▁disabilities	-12250
awa	-12251
mon	-12252
tty	-12253
▁DC	-12254
asti	-12255
case	-12256
iraj	-12257
orge	-12258
para	-12259
▁ACB	-12260
ulance	-12261
▁Black	-12262
▁Shafi	-12263
▁chair	-12264
ffective	-12265
▁Marathi	-12266
▁atleast	-12267
▁diverse	-12268
▁neutral	-12269
▁Motihari	-12270
▁drawings	-12271
▁usefully	-12272
▁apportion	-12273
▁dealership	-12274
▁insignific	-12275
▁temporarily	-12276
▁interrogated	-12277
met	-12278
puri	-12279
▁Saj	-12280
▁qui	-12281
▁CORP	-12282
▁Shan	-12283
▁band	-12284
▁cold	-12285
▁forg	-12286
▁ours	-12287
▁UNDER	-12288
▁shoot	-12289
ettered	-12290
▁Dental	-12291
▁embell	-12292
▁explan	-12293
▁mosque	-12294
▁reward	-12295
isclosed	-12296
▁Chatter	-12297
▁dacoity	-12298
▁degrees	-12299
▁studied	-12300
▁deferred	-12301
▁extracts	-12302
▁attempting	-12303
▁succeeding	-12304
▁transpired	-12305
▁communities	-12306
▁deliberation	-12307
▁disadvantage	-12308
IRED	-12309
heri	-12310
norm	-12311
▁Cad	-12312
otten	-12313
wages	-12314
▁Alok	-12315
▁Star	-12316
▁fest	-12317
▁grab	-12318
▁unsc	-12319
▁Bhola	-12320
▁Manik	-12321
▁alibi	-12322
▁deity	-12323
▁image	-12324
amended	-12325
▁Dalmia	-12326
▁albeit	-12327
▁curiae	-12328
▁Program	-12329
▁alleges	-12330
▁growing	-12331
▁Vehicles	-12332
▁cultural	-12333
▁declares	-12334
▁clinching	-12335
▁diversion	-12336
▁incorporate	-12337
▁intentional	-12338
▁interesting	-12339
ME	-12340
aar	-12341
afe	-12342
pid	-12343
oral	-12344
psed	-12345
▁CEO	-12346
▁Gar	-12347
▁Ori	-12348
▁tem	-12349
loria	-12350
rious	-12351
▁Sank	-12352
▁impe	-12353
ADURGA	-12354
abouts	-12355
idendi	-12356
▁Anwar	-12357
▁Headm	-12358
▁threw	-12359
▁typed	-12360
adation	-12361
▁Gloria	-12362
▁Classes	-12363
▁guiding	-12364
▁lightly	-12365
▁suspend	-12366
▁fingerpr	-12367
▁lecturer	-12368
▁perusing	-12369
▁receives	-12370
▁salaries	-12371
▁adherence	-12372
▁possesses	-12373
▁laboratory	-12374
▁philosophy	-12375
▁suggestive	-12376
▁admeasuring	-12377
▁neighbourhood	-12378
BH	-12379
OOR	-12380
▁FE	-12381
▁GN	-12382
▁Ox	-12383
ghan	-12384
iven	-12385
▁Kav	-12386
▁MCD	-12387
▁Uma	-12388
▁Vir	-12389
sthan	-12390
▁Team	-12391
▁Wing	-12392
▁cries	-12393
▁torch	-12394
atories	-12395
rolling	-12396
▁Injury	-12397
▁Pillai	-12398
▁Sunder	-12399
▁checked	-12400
▁hatched	-12401
▁voucher	-12402
▁Speaking	-12403
▁buttress	-12404
▁pendente	-12405
▁consulted	-12406
▁detection	-12407
▁dishonour	-12408
▁transform	-12409
▁preferring	-12410
▁discernible	-12411
▁preservation	-12412
Th	-12413
Ltd	-12414
eem	-12415
uda	-12416
awat	-12417
edar	-12418
▁unw	-12419
ppers	-12420
tical	-12421
▁Bhas	-12422
▁Corp	-12423
▁Veer	-12424
ussion	-12425
vestig	-12426
▁Green	-12427
▁rolls	-12428
secured	-12429
▁Shanti	-12430
▁Tariff	-12431
▁booked	-12432
▁depict	-12433
▁Jaiswal	-12434
▁Ramgarh	-12435
▁Sitaram	-12436
▁asserts	-12437
▁curtail	-12438
defendant	-12439
▁coverage	-12440
▁excludes	-12441
▁lacerated	-12442
▁Consequent	-12443
▁Regulatory	-12444
▁integrated	-12445
▁vulnerable	-12446
▁compromised	-12447
▁constructing	-12448
BP	-12449
mt	-12450
zz	-12451
URE	-12452
ips	-12453
oni	-12454
▁TAL	-12455
▁ail	-12456
erers	-12457
▁Hira	-12458
▁Lake	-12459
▁Poon	-12460
▁View	-12461
▁flex	-12462
itious	-12463
jibhai	-12464
▁Relig	-12465
▁Times	-12466
▁Today	-12467
▁phase	-12468
▁Energy	-12469
▁chased	-12470
▁consec	-12471
▁oppose	-12472
▁starts	-12473
▁heredit	-12474
▁Abhishek	-12475
▁repelled	-12476
▁shortage	-12477
▁publicity	-12478
uritisation	-12479
▁Paragraphs	-12480
▁commencing	-12481
▁differential	-12482
▁unnecessarily	-12483
aidu	-12484
▁Jaw	-12485
▁NIA	-12486
KUMAR	-12487
achar	-12488
▁feed	-12489
▁Sarma	-12490
▁CORPOR	-12491
▁Church	-12492
▁detain	-12493
▁garden	-12494
▁ninety	-12495
▁proven	-12496
▁oblique	-12497
▁Vadodara	-12498
▁dealings	-12499
▁enrolled	-12500
▁launched	-12501
▁attributes	-12502
▁prevention	-12503
Bh	-12504
beas	-12505
endu	-12506
▁evil	-12507
aurant	-12508
olving	-12509
▁loose	-12510
▁loses	-12511
▁habeas	-12512
▁Upendra	-12513
▁bullock	-12514
▁resided	-12515
pretation	-12516
▁DIRECTOR	-12517
▁shouting	-12518
▁custodial	-12519
▁deducting	-12520
▁duplicate	-12521
▁jewellery	-12522
▁recognizes	-12523
▁reconsider	-12524
▁accusations	-12525
▁Superintending	-12526
२५	-12527
▁Old	-12528
▁Data	-12529
▁Exts	-12530
▁unim	-12531
itably	-12532
mittal	-12533
▁forty	-12534
▁happy	-12535
▁Pandya	-12536
▁excell	-12537
▁season	-12538
▁RETIRED	-12539
▁exposed	-12540
▁rectify	-12541
▁Jabalpur	-12542
▁incuriam	-12543
▁occupier	-12544
▁Prajapati	-12545
▁curtailed	-12546
▁electrical	-12547
▁ministerial	-12548
▁procurement	-12549
▁undisclosed	-12550
▁conspirators	-12551
▁authorisation	-12552
vo	-12553
EED	-12554
iar	-12555
▁IP	-12556
rich	-12557
vesh	-12558
▁CHA	-12559
▁Gau	-12560
▁Khe	-12561
▁haw	-12562
rasad	-12563
ropic	-12564
▁Anup	-12565
▁Sone	-12566
▁foul	-12567
▁inim	-12568
▁prag	-12569
actory	-12570
jacket	-12571
▁Never	-12572
▁Surya	-12573
▁dress	-12574
▁talks	-12575
ircraft	-12576
▁Safety	-12577
▁futile	-12578
▁unpaid	-12579
▁Austral	-12580
▁drivers	-12581
▁incised	-12582
▁leaders	-12583
ellectual	-12584
▁agreeing	-12585
▁cardinal	-12586
▁inducted	-12587
▁proforma	-12588
▁Directive	-12589
▁Essential	-12590
▁Guidelines	-12591
▁suggesting	-12592
▁Magistrates	-12593
▁circulation	-12594
▁commutation	-12595
▁compounding	-12596
▁whereabouts	-12597
▁manipulation	-12598
alp	-12599
▁Gl	-12600
▁oo	-12601
▁Over	-12602
▁Phot	-12603
▁heat	-12604
▁Along	-12605
▁Mahat	-12606
▁Varan	-12607
▁affix	-12608
▁doors	-12609
▁exche	-12610
▁reven	-12611
ilation	-12612
▁asphyx	-12613
▁landed	-12614
▁purpos	-12615
▁reopen	-12616
▁repeat	-12617
riminate	-12618
▁abetted	-12619
▁apprent	-12620
▁gunshot	-12621
▁lessees	-12622
▁retrial	-12623
▁Accident	-12624
▁advances	-12625
▁monopoly	-12626
▁provider	-12627
▁consensus	-12628
▁employers	-12629
▁pregnancy	-12630
▁provident	-12631
▁redundant	-12632
▁vigilance	-12633
▁Kishanganj	-12634
▁defamation	-12635
▁indulgence	-12636
▁whereunder	-12637
▁calculating	-12638
▁distinctive	-12639
IND	-12640
▁Aw	-12641
▁MW	-12642
aben	-12643
rath	-12644
▁bol	-12645
▁dog	-12646
▁sea	-12647
▁Range	-12648
▁denot	-12649
▁donor	-12650
▁evict	-12651
▁grown	-12652
▁links	-12653
▁Jagann	-12654
▁Notary	-12655
▁adhere	-12656
▁hidden	-12657
▁Process	-12658
▁passive	-12659
▁secular	-12660
▁divorced	-12661
▁rebuttal	-12662
▁Executing	-12663
▁locations	-12664
▁hereditary	-12665
OUD	-12666
SRTC	-12667
aces	-12668
hika	-12669
▁DSS	-12670
▁NPA	-12671
▁hrs	-12672
▁Goel	-12673
▁cure	-12674
▁game	-12675
ugopal	-12676
▁Amrit	-12677
▁Mukul	-12678
▁spell	-12679
▁Jadhav	-12680
▁eleven	-12681
▁trades	-12682
▁waters	-12683
▁builder	-12684
▁evicted	-12685
▁Appendix	-12686
▁Holdings	-12687
▁Varanasi	-12688
▁concrete	-12689
▁licensed	-12690
▁reaction	-12691
▁reopened	-12692
▁rotation	-12693
▁Objection	-12694
▁exchequer	-12695
▁dictionary	-12696
▁transpires	-12697
▁designation	-12698
▁disbursement	-12699
RU	-12700
itt	-12701
▁Mc	-12702
peal	-12703
▁Dat	-12704
▁RFA	-12705
▁Saur	-12706
▁pump	-12707
arning	-12708
mother	-12709
▁Death	-12710
▁beque	-12711
▁drunk	-12712
interim	-12713
▁Kishor	-12714
▁Pathan	-12715
▁Roshan	-12716
▁Hanuman	-12717
▁Whoever	-12718
▁inquire	-12719
▁Malkhana	-12720
▁deterior	-12721
▁fourteen	-12722
▁cartridge	-12723
▁impressed	-12724
▁acquainted	-12725
▁Legislation	-12726
▁incorporating	-12727
▁distinguishing	-12728
ao	-12729
apt	-12730
usa	-12731
▁Er	-12732
ptic	-12733
▁Bhu	-12734
▁Jas	-12735
▁LIC	-12736
▁SIC	-12737
anshu	-12738
aware	-12739
▁Duty	-12740
▁narc	-12741
ashion	-12742
icides	-12743
lining	-12744
▁Shail	-12745
▁agony	-12746
▁canal	-12747
▁cater	-12748
mediary	-12749
▁attach	-12750
▁cinema	-12751
▁Regular	-12752
▁chapter	-12753
▁ongoing	-12754
▁hectares	-12755
▁socially	-12756
▁fortified	-12757
▁strengthen	-12758
▁succinctly	-12759
ALE	-12760
var	-12761
▁BG	-12762
itch	-12763
paul	-12764
▁Has	-12765
opies	-12766
urved	-12767
▁Bare	-12768
▁Dept	-12769
▁Kaim	-12770
▁Meer	-12771
▁Roop	-12772
akshmi	-12773
porter	-12774
▁Eight	-12775
▁Gowda	-12776
▁Tikla	-12777
▁hymen	-12778
▁Middle	-12779
▁campus	-12780
▁hostel	-12781
▁promul	-12782
lamation	-12783
vantages	-12784
▁ancient	-12785
▁display	-12786
▁mutated	-12787
▁BUILDING	-12788
▁REGIONAL	-12789
▁vacation	-12790
Divisional	-12791
▁counterfe	-12792
▁verifying	-12793
▁disturbing	-12794
▁invalidity	-12795
▁determinative	-12796
TPA	-12797
▁WA	-12798
▁Ary	-12799
▁LPG	-12800
osity	-12801
uling	-12802
▁Arts	-12803
▁Hals	-12804
▁bulk	-12805
▁Madhu	-12806
▁Vidya	-12807
▁instal	-12808
▁vagina	-12809
obstante	-12810
ographic	-12811
▁Jyotirm	-12812
▁encroach	-12813
▁fastened	-12814
▁surmises	-12815
▁Mutawalli	-12816
▁attribute	-12817
▁contemnor	-12818
▁displayed	-12819
▁intrinsic	-12820
▁Chatterjee	-12821
▁Ramchandra	-12822
▁appealable	-12823
▁Bhubaneswar	-12824
▁Nevertheless	-12825
▁meticulously	-12826
BT	-12827
ELL	-12828
auk	-12829
▁SS	-12830
▁CRO	-12831
▁Reh	-12832
▁Ujj	-12833
▁Vit	-12834
▁anr	-12835
▁rat	-12836
aught	-12837
▁Budh	-12838
▁Chaw	-12839
▁Dead	-12840
▁Four	-12841
▁Gaon	-12842
agaria	-12843
▁COTPA	-12844
▁chron	-12845
thought	-12846
▁thread	-12847
▁Brother	-12848
▁passion	-12849
▁telling	-12850
▁analyzed	-12851
▁distress	-12852
▁notional	-12853
▁preceded	-12854
▁additions	-12855
▁container	-12856
▁vicarious	-12857
▁conveniently	-12858
▁illegalities	-12859
▁testamentary	-12860
It	-12861
nes	-12862
▁TS	-12863
▁sa	-12864
arly	-12865
econ	-12866
gium	-12867
▁ADD	-12868
force	-12869
liers	-12870
▁Bala	-12871
▁Gold	-12872
▁Among	-12873
▁lorry	-12874
▁truly	-12875
▁venue	-12876
eshwari	-12877
▁Annual	-12878
aternity	-12879
▁Diploma	-12880
▁strange	-12881
▁behavior	-12882
▁communal	-12883
▁depositors	-12884
▁confinement	-12885
▁NH	-12886
▁PTC	-12887
▁TDS	-12888
▁deh	-12889
▁Rout	-12890
▁cens	-12891
apuram	-12892
ermane	-12893
▁Judic	-12894
▁falla	-12895
▁tools	-12896
▁walls	-12897
▁abnorm	-12898
▁bottom	-12899
▁ladies	-12900
olitical	-12901
▁Babulal	-12902
▁ensures	-12903
▁mistakes	-12904
▁thinking	-12905
▁Associate	-12906
▁Petroleum	-12907
▁abolition	-12908
▁prospecting	-12909
▁overwhelming	-12910
▁jurisdictions	-12911
pse	-12912
anka	-12913
▁Jat	-12914
▁PWD	-12915
▁hyd	-12916
▁Bela	-12917
▁Lala	-12918
▁crow	-12919
▁Blood	-12920
▁Thiru	-12921
▁juven	-12922
▁Ground	-12923
▁Houses	-12924
▁Indira	-12925
▁Sriniv	-12926
▁scribe	-12927
▁Command	-12928
▁Muslims	-12929
▁disable	-12930
▁germane	-12931
▁horizon	-12932
▁legitim	-12933
▁lending	-12934
▁Assuming	-12935
▁Purchase	-12936
▁leviable	-12937
▁apartment	-12938
▁promotees	-12939
▁repugnant	-12940
▁searching	-12941
atisfactory	-12942
▁Jyotirmath	-12943
▁believable	-12944
▁resistance	-12945
appreciation	-12946
▁incidentally	-12947
FSL	-12948
Gen	-12949
uka	-12950
arte	-12951
last	-12952
shed	-12953
chant	-12954
▁Bhup	-12955
▁Clin	-12956
▁Insp	-12957
▁Kach	-12958
▁NDMC	-12959
▁diam	-12960
▁Given	-12961
▁Naidu	-12962
▁devot	-12963
▁shots	-12964
▁castes	-12965
▁delays	-12966
▁native	-12967
ceptible	-12968
erential	-12969
rupulous	-12970
▁digital	-12971
▁misread	-12972
▁machines	-12973
▁parlance	-12974
▁Rameshwar	-12975
▁appraisal	-12976
▁modifying	-12977
▁encroacher	-12978
▁prohibitory	-12979
▁dissatisfied	-12980
leb	-12981
tha	-12982
vam	-12983
▁JJ	-12984
▁ba	-12985
orum	-12986
rand	-12987
▁Dad	-12988
▁VID	-12989
▁cou	-12990
▁via	-12991
▁wra	-12992
▁Kali	-12993
▁Room	-12994
▁York	-12995
▁sans	-12996
▁whis	-12997
▁CHITR	-12998
▁Salim	-12999
▁Salve	-13000
▁diagn	-13001
▁shoes	-13002
▁vision	-13003
reserved	-13004
▁Charges	-13005
▁Goswami	-13006
▁cordial	-13007
▁Whatever	-13008
▁sympathy	-13009
▁accidents	-13010
▁positions	-13011
▁Panchayats	-13012
▁references	-13013
▁conjectures	-13014
▁methodology	-13015
▁subscribers	-13016
▁installments	-13017
▁contributions	-13018
IAH	-13019
▁MH	-13020
anya	-13021
asam	-13022
▁PER	-13023
▁flu	-13024
emner	-13025
etime	-13026
▁Bani	-13027
▁Bose	-13028
▁Rajk	-13029
▁pros	-13030
compla	-13031
▁boxes	-13032
▁decre	-13033
General	-13034
▁bridge	-13035
▁bushes	-13036
▁deadly	-13037
▁handic	-13038
▁monies	-13039
▁ousted	-13040
▁timely	-13041
itations	-13042
▁Kingdom	-13043
▁floated	-13044
▁flowing	-13045
▁species	-13046
▁Mahender	-13047
▁Material	-13048
▁Projects	-13049
▁complain	-13050
▁ligature	-13051
▁tangible	-13052
▁Christian	-13053
▁Venugopal	-13054
▁specifies	-13055
▁coordinate	-13056
▁exigencies	-13057
▁complaining	-13058
▁utilization	-13059
▁acquiescence	-13060
▁Infrastructure	-13061
bad	-13062
▁JM	-13063
▁km	-13064
▁ox	-13065
▁ILR	-13066
▁SCW	-13067
▁Sew	-13068
▁ash	-13069
▁Bail	-13070
▁rupt	-13071
▁wash	-13072
arlier	-13073
ocally	-13074
▁Radha	-13075
▁clerk	-13076
▁drast	-13077
▁grass	-13078
▁Canada	-13079
▁Causes	-13080
▁rented	-13081
▁Pratima	-13082
▁concert	-13083
▁Decision	-13084
▁purposive	-13085
▁biological	-13086
▁capricious	-13087
▁Notifications	-13088
▁objectionable	-13089
▁accountability	-13090
IAL	-13091
pad	-13092
STAT	-13093
angi	-13094
aste	-13095
rust	-13096
▁Haj	-13097
▁bic	-13098
▁cod	-13099
aband	-13100
grant	-13101
stand	-13102
▁Dhru	-13103
▁Euro	-13104
▁fict	-13105
active	-13106
ivious	-13107
▁TALUK	-13108
▁quiet	-13109
▁split	-13110
▁Mining	-13111
▁Shetty	-13112
▁treaty	-13113
▁circums	-13114
▁Supplied	-13115
▁deponent	-13116
▁smuggled	-13117
▁architect	-13118
▁prolonged	-13119
▁proximate	-13120
▁strengthe	-13121
▁disallowed	-13122
▁explosives	-13123
▁inflicting	-13124
▁oppressive	-13125
▁incompetent	-13126
UE	-13127
qui	-13128
▁ej	-13129
omas	-13130
onym	-13131
oria	-13132
▁Bod	-13133
▁mix	-13134
front	-13135
igent	-13136
ridge	-13137
▁Chop	-13138
▁Laxm	-13139
▁Parb	-13140
▁Seth	-13141
▁Sita	-13142
▁VILL	-13143
▁beer	-13144
▁torn	-13145
ensity	-13146
tenant	-13147
▁Prima	-13148
▁Share	-13149
▁stall	-13150
achelor	-13151
ciences	-13152
tension	-13153
▁analys	-13154
▁transg	-13155
existing	-13156
▁journal	-13157
▁nominal	-13158
▁Mohallah	-13159
▁asphyxia	-13160
▁covenant	-13161
▁interval	-13162
▁slightly	-13163
▁warranto	-13164
ailability	-13165
appreciate	-13166
▁concocted	-13167
▁emotional	-13168
▁counterfeit	-13169
▁negotiation	-13170
▁sovereignty	-13171
▁corporations	-13172
२६	-13173
opur	-13174
waha	-13175
▁Bik	-13176
▁End	-13177
▁Gam	-13178
▁Why	-13179
▁axe	-13180
heres	-13181
iscal	-13182
▁Miss	-13183
▁Kamla	-13184
▁Rekha	-13185
▁toile	-13186
▁wheel	-13187
▁dinner	-13188
▁menace	-13189
▁notify	-13190
▁America	-13191
▁Ayurved	-13192
▁Doctors	-13193
▁apology	-13194
▁actively	-13195
▁nominate	-13196
▁approving	-13197
▁disbursed	-13198
▁Conclusion	-13199
▁Contention	-13200
▁elementary	-13201
▁Undertaking	-13202
▁instigation	-13203
nar	-13204
apra	-13205
back	-13206
ogue	-13207
▁Upa	-13208
▁gam	-13209
▁upd	-13210
▁yes	-13211
iders	-13212
▁COMP	-13213
▁Mith	-13214
▁Must	-13215
▁Rand	-13216
▁trip	-13217
▁uplo	-13218
icably	-13219
rughan	-13220
▁Crown	-13221
▁cured	-13222
▁rough	-13223
retriev	-13224
▁Joseph	-13225
▁golden	-13226
▁mostly	-13227
▁shifts	-13228
▁strait	-13229
▁Earlier	-13230
▁Shambhu	-13231
▁Trivedi	-13232
▁booking	-13233
▁inflict	-13234
▁obscene	-13235
▁queries	-13236
▁simplic	-13237
▁Manufact	-13238
▁Niranjan	-13239
▁acquires	-13240
▁herewith	-13241
▁explosion	-13242
▁falsehood	-13243
▁motivated	-13244
▁surrounded	-13245
▁uniformity	-13246
▁contributory	-13247
▁dispensation	-13248
▁multiplicity	-13249
▁unequivocally	-13250
PAL	-13251
zer	-13252
▁CV	-13253
▁GD	-13254
eela	-13255
iful	-13256
noon	-13257
▁ALL	-13258
▁PRO	-13259
▁tut	-13260
trial	-13261
▁REPR	-13262
▁CROSS	-13263
▁Mahav	-13264
▁Subst	-13265
▁Sumit	-13266
▁tread	-13267
▁banker	-13268
▁brutal	-13269
▁encomp	-13270
▁Consent	-13271
▁magistr	-13272
▁parcels	-13273
▁handover	-13274
▁juristic	-13275
▁affirming	-13276
▁decidendi	-13277
▁resultant	-13278
▁consensual	-13279
▁CHITRADURGA	-13280
▁Commissions	-13281
▁counselling	-13282
▁unsatisfactory	-13283
ADE	-13284
▁KI	-13285
▁Wa	-13286
ygen	-13287
▁MAL	-13288
▁Pod	-13289
▁Sug	-13290
forth	-13291
▁Naik	-13292
▁Sell	-13293
▁Sult	-13294
▁Turi	-13295
▁capt	-13296
bedkar	-13297
▁Bhand	-13298
▁Gener	-13299
▁Inder	-13300
▁limbs	-13301
▁turns	-13302
▁Bansal	-13303
▁CESTAT	-13304
▁reconc	-13305
▁washed	-13306
▁elapsed	-13307
▁homosex	-13308
▁lengthy	-13309
▁plenary	-13310
▁Ambedkar	-13311
▁Halsbury	-13312
▁Sciences	-13313
▁amicably	-13314
▁disorder	-13315
▁railways	-13316
▁irretriev	-13317
▁releasing	-13318
▁Inspectors	-13319
▁telephonic	-13320
▁worthwhile	-13321
▁differentia	-13322
▁expeditious	-13323
nal	-13324
▁ED	-13325
▁Nu	-13326
▁Kon	-13327
▁RAO	-13328
▁mig	-13329
▁shr	-13330
▁unc	-13331
lucid	-13332
umari	-13333
▁Anur	-13334
▁Kalp	-13335
▁bere	-13336
debtor	-13337
untary	-13338
married	-13339
▁Baroda	-13340
▁Supaul	-13341
▁firmly	-13342
▁fiscal	-13343
▁widely	-13344
▁Surgeon	-13345
▁prolong	-13346
▁publish	-13347
▁Apparent	-13348
▁breached	-13349
▁REPRESENT	-13350
▁abolished	-13351
▁recognise	-13352
▁harmonious	-13353
▁increments	-13354
▁infraction	-13355
▁presenting	-13356
▁punishments	-13357
▁stakeholders	-13358
▁abovementioned	-13359
▁GU	-13360
amal	-13361
idhi	-13362
▁Max	-13363
▁hem	-13364
rozen	-13365
▁Wage	-13366
▁desc	-13367
▁fare	-13368
▁lean	-13369
reight	-13370
▁Dying	-13371
▁misbe	-13372
OURABLE	-13373
etermin	-13374
hetical	-13375
otropic	-13376
▁Girish	-13377
▁Sonveer	-13378
▁marking	-13379
▁tutored	-13380
▁Madhukar	-13381
▁remedial	-13382
▁committal	-13383
▁unsecured	-13384
▁HONOURABLE	-13385
▁fictitious	-13386
▁geographical	-13387
ho	-13388
kia	-13389
▁nd	-13390
drew	-13391
▁Bob	-13392
apped	-13393
zapur	-13394
▁COLL	-13395
▁Kann	-13396
▁Ratn	-13397
▁Ratt	-13398
▁Wife	-13399
▁fron	-13400
▁unch	-13401
consid	-13402
▁Above	-13403
▁Fifth	-13404
▁scrib	-13405
▁accrue	-13406
▁agrees	-13407
▁helped	-13408
▁miscre	-13409
▁quarry	-13410
▁rental	-13411
▁imports	-13412
▁cautious	-13413
▁obstante	-13414
▁withdrew	-13415
▁Bhatapara	-13416
▁assembled	-13417
▁Judicature	-13418
▁connecting	-13419
▁practicing	-13420
▁Challenging	-13421
▁Secretaries	-13422
▁cultivating	-13423
ker	-13424
▁ii	-13425
▁od	-13426
▁vo	-13427
▁ACC	-13428
▁Gun	-13429
▁Nak	-13430
▁Pah	-13431
▁Shr	-13432
▁slo	-13433
owing	-13434
reply	-13435
▁Bhum	-13436
▁Jeth	-13437
▁Sons	-13438
▁dent	-13439
▁keys	-13440
▁Mahal	-13441
▁Kaimur	-13442
▁Keshav	-13443
▁Mukund	-13444
▁Rashid	-13445
▁evasion	-13446
▁varying	-13447
treatment	-13448
▁Electron	-13449
▁Kanhaiya	-13450
▁defining	-13451
▁enjoined	-13452
▁frequent	-13453
worthiness	-13454
▁Community	-13455
▁comprises	-13456
▁deception	-13457
▁emphasise	-13458
▁Agreements	-13459
▁Apparently	-13460
▁Securities	-13461
▁Subsequent	-13462
▁summarised	-13463
▁bifurcation	-13464
▁contingency	-13465
▁Confessional	-13466
▁facilitating	-13467
▁intelligible	-13468
pi	-13469
aba	-13470
▁NA	-13471
ocon	-13472
▁CRI	-13473
▁ske	-13474
shell	-13475
▁Paul	-13476
anship	-13477
icians	-13478
inders	-13479
▁Kallu	-13480
▁Saheb	-13481
▁flood	-13482
▁thigh	-13483
▁wards	-13484
eworthy	-13485
▁Nandan	-13486
▁intest	-13487
▁unsafe	-13488
▁audited	-13489
▁immense	-13490
▁intimid	-13491
▁plainly	-13492
▁Rajinder	-13493
▁sewerage	-13494
▁stressed	-13495
▁declining	-13496
▁retaining	-13497
▁surviving	-13498
vestigation	-13499
▁Maheshwari	-13500
▁concurring	-13501
▁REPRESENTED	-13502
add	-13503
HAND	-13504
ande	-13505
ibus	-13506
rary	-13507
▁Bet	-13508
▁CJI	-13509
▁Kut	-13510
▁MAH	-13511
▁PCR	-13512
▁ang	-13513
▁hop	-13514
▁spr	-13515
▁sun	-13516
astri	-13517
board	-13518
▁Diff	-13519
▁dept	-13520
laimed	-13521
▁Broad	-13522
▁Mohit	-13523
▁celeb	-13524
▁Bachan	-13525
▁elucid	-13526
▁enters	-13527
▁perman	-13528
▁talked	-13529
▁centres	-13530
▁fashion	-13531
▁nuclear	-13532
▁temples	-13533
▁Children	-13534
▁Meanwhile	-13535
▁abduction	-13536
▁COMMISSION	-13537
▁Dharmendra	-13538
▁accomplice	-13539
▁restrictive	-13540
aph	-13541
▁kg	-13542
thal	-13543
▁Mil	-13544
▁hot	-13545
▁inm	-13546
haram	-13547
▁Cham	-13548
▁Hist	-13549
▁Ibid	-13550
▁omit	-13551
▁sued	-13552
apatra	-13553
icated	-13554
isarai	-13555
▁Nagal	-13556
▁Rajya	-13557
▁revise	-13558
structed	-13559
▁Barhara	-13560
▁Parveen	-13561
▁Patwari	-13562
▁Thereby	-13563
▁Personal	-13564
▁Products	-13565
▁commonly	-13566
▁improved	-13567
▁lifetime	-13568
▁tortured	-13569
▁Programme	-13570
▁licensing	-13571
▁Professors	-13572
▁appointees	-13573
▁directives	-13574
▁elaborated	-13575
▁generating	-13576
▁noteworthy	-13577
▁purporting	-13578
▁unfettered	-13579
▁blacklisting	-13580
ATT	-13581
PLE	-13582
illy	-13583
▁DLT	-13584
▁Kha	-13585
▁Sep	-13586
▁tow	-13587
umped	-13588
▁Ball	-13589
▁Fire	-13590
▁Mani	-13591
▁toto	-13592
▁Sahoo	-13593
▁crack	-13594
employe	-13595
▁benami	-13596
▁blasts	-13597
▁temper	-13598
▁Ashwani	-13599
▁Forests	-13600
▁Inquest	-13601
▁Lakshmi	-13602
▁largely	-13603
▁actuated	-13604
▁describe	-13605
▁disentit	-13606
▁numbered	-13607
▁practise	-13608
▁printing	-13609
▁Gopalganj	-13610
▁afternoon	-13611
▁oblivious	-13612
▁tentative	-13613
▁Shatrughan	-13614
▁delivering	-13615
▁contributed	-13616
▁ineffective	-13617
▁realisation	-13618
▁afterthought	-13619
▁impartiality	-13620
iga	-13621
ESCO	-13622
bery	-13623
inde	-13624
ipin	-13625
itur	-13626
kant	-13627
uthu	-13628
▁API	-13629
▁NAG	-13630
▁ink	-13631
▁kms	-13632
endum	-13633
mohan	-13634
ouble	-13635
▁CONT	-13636
▁Sadh	-13637
▁ware	-13638
▁rifle	-13639
▁vigil	-13640
▁wives	-13641
ignment	-13642
inction	-13643
▁Advert	-13644
▁arrear	-13645
▁budget	-13646
▁revoke	-13647
teaching	-13648
▁Proviso	-13649
▁helpful	-13650
▁profile	-13651
▁transit	-13652
▁Khagaria	-13653
▁calendar	-13654
▁dispense	-13655
▁maritime	-13656
▁tampered	-13657
▁deserving	-13658
▁perpetual	-13659
▁assessments	-13660
▁entrustment	-13661
▁partitioned	-13662
▁technicalities	-13663
▁PB	-13664
awal	-13665
chud	-13666
ghat	-13667
ycle	-13668
▁Niz	-13669
▁mol	-13670
eeper	-13671
▁Cler	-13672
▁Fate	-13673
▁Ghaz	-13674
▁Phul	-13675
▁Shal	-13676
▁jobs	-13677
rained	-13678
▁Gogoi	-13679
▁depra	-13680
▁expos	-13681
▁multi	-13682
▁rites	-13683
▁schol	-13684
▁Driver	-13685
▁Europe	-13686
▁flight	-13687
▁forces	-13688
▁jungle	-13689
▁unbelie	-13690
▁everyone	-13691
▁recitals	-13692
▁Lecturers	-13693
▁consisted	-13694
▁formulate	-13695
▁realities	-13696
complainant	-13697
▁Interpretation	-13698
RP	-13699
unke	-13700
▁CCT	-13701
▁Hat	-13702
hotra	-13703
itech	-13704
minal	-13705
▁Argu	-13706
▁Jasw	-13707
▁Gandh	-13708
▁Rajak	-13709
▁Satya	-13710
▁disse	-13711
▁email	-13712
▁APPEAL	-13713
▁Acting	-13714
▁Bhavan	-13715
▁Garden	-13716
▁enrich	-13717
▁sickle	-13718
▁Gauhati	-13719
▁erected	-13720
▁novelty	-13721
▁packing	-13722
▁Computer	-13723
▁inspires	-13724
▁concurred	-13725
▁reluctant	-13726
▁suppliers	-13727
▁Irrigation	-13728
▁Statements	-13729
▁compounded	-13730
▁inappropri	-13731
▁magistrate	-13732
▁solemnized	-13733
▁Interestingly	-13734
BA	-13735
oz	-13736
BER	-13737
arda	-13738
itya	-13739
shad	-13740
▁DSP	-13741
point	-13742
▁Arya	-13743
▁Tara	-13744
▁gunt	-13745
▁noon	-13746
▁Dowry	-13747
▁Karim	-13748
ideline	-13749
itively	-13750
▁Baloda	-13751
▁Chatur	-13752
▁hotels	-13753
▁metres	-13754
▁Darshan	-13755
▁letting	-13756
▁motives	-13757
▁recount	-13758
▁unemplo	-13759
▁Industry	-13760
▁discover	-13761
▁protects	-13762
▁criminals	-13763
▁hierarchy	-13764
▁knowingly	-13765
▁producers	-13766
▁reviewing	-13767
▁wholesale	-13768
▁attracting	-13769
▁destination	-13770
▁regularised	-13771
▁replacement	-13772
GS	-13773
Sub	-13774
▁SO	-13775
▁ie	-13776
iers	-13777
oces	-13778
omed	-13779
▁AAI	-13780
▁Raz	-13781
▁mes	-13782
oneys	-13783
▁Fail	-13784
▁Gian	-13785
▁Poss	-13786
▁Ramk	-13787
▁ease	-13788
▁larg	-13789
▁pond	-13790
akumar	-13791
lation	-13792
▁smell	-13793
▁Pushpa	-13794
▁sports	-13795
▁yardst	-13796
lication	-13797
▁Panchay	-13798
▁Pending	-13799
▁strateg	-13800
▁surgery	-13801
▁Medicine	-13802
▁abstract	-13803
▁aircraft	-13804
▁breaking	-13805
▁encompass	-13806
▁inquiries	-13807
▁autonomous	-13808
▁regardless	-13809
▁disturbance	-13810
▁experienced	-13811
▁impressions	-13812
▁simpliciter	-13813
log	-13814
▁Pw	-13815
APPL	-13816
arni	-13817
▁Arb	-13818
angan	-13819
▁Kand	-13820
▁grud	-13821
▁Anant	-13822
▁Bigha	-13823
▁Viren	-13824
▁arbit	-13825
▁secre	-13826
▁Parade	-13827
▁Rubber	-13828
▁derive	-13829
▁Bharati	-13830
▁Failure	-13831
▁crossed	-13832
▁exceeds	-13833
▁profess	-13834
▁revival	-13835
▁enormous	-13836
▁prevents	-13837
▁rightful	-13838
▁suitably	-13839
▁unmarried	-13840
▁quantified	-13841
▁structural	-13842
CS	-13843
HAK	-13844
HAM	-13845
Sal	-13846
▁xi	-13847
enda	-13848
ikar	-13849
post	-13850
▁Aar	-13851
▁Bak	-13852
▁MCR	-13853
▁Ruk	-13854
▁omn	-13855
▁sav	-13856
eline	-13857
lands	-13858
▁Loya	-13859
▁Saik	-13860
▁busy	-13861
▁diver	-13862
▁Street	-13863
▁cities	-13864
▁outsid	-13865
▁stigma	-13866
economic	-13867
ndestine	-13868
▁KANNADA	-13869
▁absolve	-13870
▁century	-13871
▁chamber	-13872
▁deputed	-13873
▁gazette	-13874
▁million	-13875
▁MANAGING	-13876
▁expanded	-13877
▁weakness	-13878
▁Architect	-13879
▁Paramjeet	-13880
▁congested	-13881
▁consented	-13882
▁dedicated	-13883
▁harassing	-13884
▁Charitable	-13885
▁circulated	-13886
▁advertising	-13887
▁technically	-13888
▁unbelievable	-13889
yd	-13890
ulu	-13891
▁HR	-13892
ATED	-13893
naik	-13894
sell	-13895
▁DIS	-13896
▁ROM	-13897
itant	-13898
utrix	-13899
▁Arti	-13900
▁CCTV	-13901
▁MRTP	-13902
▁palp	-13903
erving	-13904
▁Ganja	-13905
▁Nazir	-13906
▁Siddh	-13907
▁Sixth	-13908
▁Value	-13909
▁Vihar	-13910
▁fluid	-13911
▁inacc	-13912
▁wrist	-13913
manship	-13914
▁Chopra	-13915
▁Khasra	-13916
▁allied	-13917
▁ballot	-13918
▁crying	-13919
▁impair	-13920
▁rebate	-13921
▁Captain	-13922
▁enabled	-13923
▁generis	-13924
▁retiral	-13925
ificatory	-13926
▁Venkates	-13927
▁discount	-13928
▁impropri	-13929
▁inimical	-13930
▁military	-13931
▁minorities	-13932
▁miscreants	-13933
▁recognises	-13934
▁PETITIONERS	-13935
▁RESPONDENTS	-13936
▁contracting	-13937
▁intercepted	-13938
▁manipulated	-13939
idu	-13940
sar	-13941
▁POI	-13942
▁Tur	-13943
ancer	-13944
ields	-13945
imbat	-13946
▁NCLT	-13947
▁Narc	-13948
▁rain	-13949
▁toll	-13950
▁twin	-13951
yalaya	-13952
▁Citiz	-13953
▁Tilak	-13954
▁began	-13955
▁sixth	-13956
▁trail	-13957
achable	-13958
ication	-13959
▁bereft	-13960
▁global	-13961
▁moneys	-13962
ariously	-13963
imbatore	-13964
▁chooses	-13965
▁volunte	-13966
▁accurate	-13967
▁diverted	-13968
▁formally	-13969
▁pressing	-13970
▁absurdity	-13971
▁commences	-13972
▁precision	-13973
▁Coimbatore	-13974
▁expiration	-13975
▁impleading	-13976
▁observance	-13977
▁formulation	-13978
▁inoperative	-13979
▁translation	-13980
▁necessitated	-13981
▁apportionment	-13982
▁significantly	-13983
▁PG	-13984
asim	-13985
osis	-13986
▁Cau	-13987
▁Syn	-13988
ertil	-13989
▁APPA	-13990
▁KIAD	-13991
▁obvi	-13992
▁spur	-13993
▁vind	-13994
inated	-13995
▁CHIEF	-13996
▁Notes	-13997
▁Varun	-13998
▁depth	-13999
▁honor	-14000
dumping	-14001
illance	-14002
itarian	-14003
▁COLLEG	-14004
▁Clerks	-14005
▁demarc	-14006
▁misbeh	-14007
▁serves	-14008
▁verbal	-14009
▁levying	-14010
▁whisper	-14011
▁Minerals	-14012
▁Receiver	-14013
▁defences	-14014
▁examiner	-14015
▁purports	-14016
▁Economics	-14017
▁desertion	-14018
▁logically	-14019
▁pertained	-14020
▁pragmatic	-14021
▁reversion	-14022
▁defamatory	-14023
▁Chandrachud	-14024
▁Prosecutors	-14025
▁economically	-14026
▁intellectual	-14027
▁presumptions	-14028
▁recommending	-14029
▁inappropriate	-14030
TN	-14031
abu	-14032
hri	-14033
adas	-14034
miss	-14035
▁Tul	-14036
▁bab	-14037
▁rub	-14038
▁tub	-14039
ciary	-14040
▁Samp	-14041
▁woke	-14042
▁Asgar	-14043
▁Balod	-14044
▁Bills	-14045
▁Corpn	-14046
▁photo	-14047
▁Sachin	-14048
▁hereto	-14049
▁myself	-14050
criptive	-14051
▁Interim	-14052
▁Mahajan	-14053
▁fleeing	-14054
▁builders	-14055
▁internet	-14056
▁isolated	-14057
▁learning	-14058
▁likewise	-14059
▁reckoned	-14060
▁relieved	-14061
▁injurious	-14062
▁Revisional	-14063
▁explicitly	-14064
availability	-14065
▁Originating	-14066
▁definitions	-14067
▁fabrication	-14068
▁vicariously	-14069
▁emphatically	-14070
▁redevelopment	-14071
ken	-14072
▁Lat	-14073
▁NAR	-14074
▁Nil	-14075
▁Monu	-14076
▁Pran	-14077
▁Real	-14078
▁degr	-14079
▁hind	-14080
▁Democ	-14081
▁Farid	-14082
▁hired	-14083
▁Rehman	-14084
▁buried	-14085
▁makers	-14086
▁mathem	-14087
▁oozing	-14088
▁Cauvery	-14089
▁Unitech	-14090
▁fingers	-14091
▁Bhagwati	-14092
▁Gajendra	-14093
▁Internal	-14094
▁Taxation	-14095
▁vacating	-14096
▁addresses	-14097
▁Ramachandra	-14098
▁amalgamated	-14099
▁probationer	-14100
▁Ce	-14101
agan	-14102
fall	-14103
supp	-14104
▁AGP	-14105
▁EMD	-14106
▁Lac	-14107
antic	-14108
arcer	-14109
tings	-14110
▁Mukh	-14111
▁Nars	-14112
▁Vaid	-14113
▁cows	-14114
▁race	-14115
▁Fateh	-14116
▁Khand	-14117
▁Preet	-14118
▁Track	-14119
▁Behera	-14120
▁Dawood	-14121
▁Gorakh	-14122
▁Sports	-14123
▁pedest	-14124
▁signal	-14125
▁waited	-14126
▁Dealing	-14127
▁Holding	-14128
▁Malhotra	-14129
▁clerical	-14130
▁nutshell	-14131
▁singular	-14132
▁Copyright	-14133
▁abatement	-14134
▁fundament	-14135
▁subsidies	-14136
▁derogation	-14137
▁clandestine	-14138
▁restricting	-14139
▁Securitisation	-14140
२७	-14141
erm	-14142
uar	-14143
▁DV	-14144
avel	-14145
ouch	-14146
▁Kod	-14147
▁Sib	-14148
▁pol	-14149
▁sod	-14150
▁won	-14151
ensor	-14152
hikari	-14153
▁Analy	-14154
▁Tower	-14155
▁knock	-14156
▁minim	-14157
▁waive	-14158
ocietal	-14159
ologies	-14160
▁Meerut	-14161
▁allege	-14162
▁kindly	-14163
▁limine	-14164
▁Advance	-14165
▁Chamber	-14166
▁Persons	-14167
▁commens	-14168
▁pouring	-14169
▁robbery	-14170
▁ascribed	-14171
▁bestowed	-14172
▁equipped	-14173
▁narcotic	-14174
▁severely	-14175
▁guideline	-14176
▁hazardous	-14177
▁Concurrent	-14178
▁Registered	-14179
▁institutes	-14180
▁CORPORATION	-14181
▁Maintenance	-14182
▁impropriety	-14183
▁unscrupulous	-14184
RIC	-14185
inam	-14186
▁SUR	-14187
▁Vij	-14188
utary	-14189
▁Anna	-14190
▁Elig	-14191
▁Pars	-14192
▁Putt	-14193
▁Sole	-14194
▁abey	-14195
▁gist	-14196
▁lake	-14197
▁lane	-14198
▁novo	-14199
▁Mahab	-14200
▁adhoc	-14201
▁rents	-14202
legraph	-14203
olation	-14204
▁Viewed	-14205
▁Wednes	-14206
▁phones	-14207
▁purity	-14208
▁beliefs	-14209
▁brevity	-14210
▁deficit	-14211
▁Operator	-14212
disclosure	-14213
▁Political	-14214
▁deterrent	-14215
▁ejectment	-14216
▁guarantor	-14217
▁recalling	-14218
▁Lakhisarai	-14219
▁Vishwanath	-14220
▁invalidate	-14221
▁discontinued	-14222
vn	-14223
STIT	-14224
izer	-14225
sinh	-14226
▁bit	-14227
atics	-14228
thene	-14229
▁Mono	-14230
▁tool	-14231
isible	-14232
rishna	-14233
▁Still	-14234
▁abrog	-14235
▁grain	-14236
▁tenor	-14237
▁Mechan	-14238
▁basing	-14239
▁bundle	-14240
▁sacrif	-14241
▁Balwant	-14242
▁Jamshed	-14243
▁Trustee	-14244
▁Written	-14245
▁journey	-14246
▁markets	-14247
▁skilled	-14248
▁supreme	-14249
▁wedlock	-14250
requisite	-14251
petitioner	-14252
▁authorise	-14253
▁organised	-14254
▁providers	-14255
▁selecting	-14256
▁legitimacy	-14257
▁quantities	-14258
▁transmitted	-14259
▁substituting	-14260
ASH	-14261
HUR	-14262
ino	-14263
▁Et	-14264
mala	-14265
▁Kak	-14266
▁Str	-14267
Board	-14268
▁GNCT	-14269
▁Poly	-14270
▁Vend	-14271
▁aims	-14272
▁elev	-14273
▁iota	-14274
▁sees	-14275
STITUT	-14276
reties	-14277
▁Units	-14278
▁bonus	-14279
▁metal	-14280
▁naked	-14281
▁rehab	-14282
▁Magadh	-14283
▁Propri	-14284
▁Rathod	-14285
▁Shinde	-14286
▁dehors	-14287
▁packed	-14288
▁remitt	-14289
▁Radhika	-14290
▁Vehicle	-14291
▁caption	-14292
▁council	-14293
▁sealing	-14294
▁secrecy	-14295
▁Krishnan	-14296
▁incarcer	-14297
▁mistaken	-14298
▁reciproc	-14299
▁sureties	-14300
▁Jagannath	-14301
▁underwear	-14302
▁conferment	-14303
▁determines	-14304
▁fulfilment	-14305
▁subscriber	-14306
▁implicating	-14307
▁COMMISSIONER	-14308
ela	-14309
jid	-14310
key	-14311
shi	-14312
▁NM	-14313
encl	-14314
etty	-14315
▁NCB	-14316
▁sus	-14317
kheda	-14318
▁Braj	-14319
▁Gond	-14320
▁Patt	-14321
▁Side	-14322
▁tact	-14323
ananda	-14324
icidal	-14325
isites	-14326
ournal	-14327
▁Indep	-14328
▁Manju	-14329
▁bunch	-14330
▁cloud	-14331
▁ideas	-14332
▁scrup	-14333
▁Kamrup	-14334
▁handle	-14335
▁summed	-14336
▁thrust	-14337
roverted	-14338
▁COLLEGE	-14339
▁compete	-14340
▁confisc	-14341
▁outrage	-14342
ilization	-14343
▁acquaint	-14344
▁precious	-14345
▁societal	-14346
▁awareness	-14347
▁residuary	-14348
▁Evaluation	-14349
▁dependency	-14350
▁horizontal	-14351
▁variations	-14352
▁commensurate	-14353
▁clarificatory	-14354
▁possibilities	-14355
LD	-14356
BED	-14357
INAL	-14358
THER	-14359
kers	-14360
▁Bap	-14361
▁Bol	-14362
▁Fri	-14363
▁KPC	-14364
▁RFP	-14365
▁Yak	-14366
▁Yun	-14367
anath	-14368
anshi	-14369
arest	-14370
▁Jeev	-14371
▁Line	-14372
▁Waqf	-14373
▁pipe	-14374
▁Cadre	-14375
▁Answer	-14376
▁Saikia	-14377
▁Sardar	-14378
▁circle	-14379
▁grudge	-14380
▁unduly	-14381
▁airport	-14382
▁clubbed	-14383
enclature	-14384
▁passages	-14385
▁Subramani	-14386
▁amplitude	-14387
▁authorize	-14388
▁clarifies	-14389
▁courtyard	-14390
▁polythene	-14391
▁thousands	-14392
▁hypothetical	-14393
▁municipality	-14394
▁confidentiality	-14395
NO	-14396
PMC	-14397
num	-14398
▁JT	-14399
▁Km	-14400
aira	-14401
▁ost	-14402
andas	-14403
▁Camp	-14404
▁Fast	-14405
▁PRIN	-14406
▁abla	-14407
ushing	-14408
▁Vimal	-14409
▁monit	-14410
▁reapp	-14411
▁venge	-14412
▁Cement	-14413
▁Vasant	-14414
▁animus	-14415
▁enjoys	-14416
▁repaid	-14417
▁Feeling	-14418
▁Sushila	-14419
▁harmful	-14420
▁reaches	-14421
▁realise	-14422
▁reinfor	-14423
isputably	-14424
▁Incharge	-14425
▁dictated	-14426
▁dispatch	-14427
▁overlook	-14428
▁Annexures	-14429
▁Execution	-14430
▁Ramgarhwa	-14431
▁emanating	-14432
▁evidenced	-14433
▁howsoever	-14434
▁indispens	-14435
▁Headmaster	-14436
▁laundering	-14437
▁undertakes	-14438
▁conjunction	-14439
[...]
