<unk>	0
<s>	0
</s>	0
UuRrLl	0
DdAaTtEe	0
NnUuMm	0
▁t	-0
he	-1
▁a	-2
▁the	-3
in	-4
▁o	-5
re	-6
on	-7
at	-8
er	-9
en	-10
▁of	-11
is	-12
ed	-13
▁c	-14
it	-15
▁s	-16
ion	-17
▁p	-18
nd	-19
▁b	-20
▁w	-21
▁in	-22
al	-23
or	-24
es	-25
▁f	-26
▁to	-27
an	-28
ar	-29
as	-30
ou	-31
ent	-32
ing	-33
▁d	-34
ic	-35
▁and	-36
▁re	-37
▁th	-38
ct	-39
▁m	-40
ro	-41
▁be	-42
le	-43
▁h	-44
▁n	-45
▁C	-46
▁is	-47
▁T	-48
st	-49
▁e	-50
ation	-51
ce	-52
▁S	-53
id	-54
▁that	-55
ot	-56
ut	-57
ment	-58
▁A	-59
ll	-60
om	-61
ve	-62
▁con	-63
▁I	-64
se	-65
ri	-66
▁for	-67
ly	-68
pp	-69
▁as	-70
▁on	-71
▁by	-72
▁l	-73
▁pro	-74
▁u	-75
ad	-76
▁su	-77
▁or	-78
our	-79
▁de	-80
▁The	-81
ur	-82
ate	-83
im	-84
▁an	-85
▁P	-86
▁not	-87
ch	-88
▁(	-89
il	-90
▁app	-91
▁wh	-92
ant	-93
▁was	-94
her	-95
ver	-96
ourt	-97
▁g	-98
ra	-99
gh	-100
▁wit	-101
▁it	-102
ter	-103
ld	-104
ow	-105
if	-106
ay	-107
et	-108
ect	-109
▁with	-110
▁M	-111
ere	-112
▁ex	-113
ir	-114
am	-115
qu	-116
▁Court	-117
▁R	-118
ab	-119
ain	-120
▁H	-121
res	-122
ul	-123
ers	-124
▁st	-125
ess	-126
ud	-127
us	-128
▁com	-129
▁v	-130
▁B	-131
ity	-132
▁D	-133
▁has	-134
ge	-135
nder	-136
ich	-137
ol	-138
ther	-139
▁which	-140
▁he	-141
▁are	-142
and	-143
▁N	-144
est	-145
▁sh	-146
▁al	-147
▁this	-148
▁under	-149
ak	-150
ions	-151
os	-152
▁le	-153
cc	-154
ist	-155
ore	-156
ould	-157
ec	-158
iv	-159
end	-160
ell	-161
ence	-162
▁G	-163
▁ha	-164
ated	-165
ive	-166
art	-167
▁cas	-168
▁res	-169
▁j	-170
ial	-171
▁any	-172
od	-173
nt	-174
ies	-175
▁at	-176
rom	-177
ure	-178
ust	-179
um	-180
▁In	-181
ice	-182
ted	-183
all	-184
▁cont	-185
ition	-186
ig	-187
▁sub	-188
igh	-189
▁from	-190
▁have	-191
ard	-192
▁there	-193
ire	-194
ort	-195
▁been	-196
un	-197
em	-198
▁L	-199
la	-200
▁fa	-201
ance	-202
able	-203
▁prov	-204
so	-205
▁comp	-206
▁dis	-207
▁J	-208
▁O	-209
pon	-210
▁case	-211
aid	-212
▁W	-213
▁whe	-214
ie	-215
ord	-216
▁St	-217
▁such	-218
ution	-219
▁acc	-220
lic	-221
ill	-222
ction	-223
ia	-224
ff	-225
ned	-226
over	-227
▁E	-228
▁ad	-229
▁F	-230
▁per	-231
▁It	-232
▁im	-233
ary	-234
▁int	-235
stit	-236
mit	-237
op	-238
fore	-239
mis	-240
▁also	-241
▁part	-242
ellant	-243
oc	-244
▁Ind	-245
▁ag	-246
▁can	-247
ip	-248
▁other	-249
sion	-250
..	-251
red	-252
▁Act	-253
erv	-254
▁cons	-255
▁ab	-256
▁all	-257
▁ord	-258
aw	-259
▁ch	-260
▁imp	-261
ear	-262
ru	-263
cl	-264
ght	-265
ee	-266
▁appellant	-267
su	-268
pt	-269
ous	-270
ame	-271
▁rec	-272
▁ev	-273
▁would	-274
▁no	-275
overn	-276
per	-277
▁ar	-278
▁High	-279
▁en	-280
ade	-281
▁State	-282
▁had	-283
erson	-284
th	-285
▁may	-286
du	-287
▁dec	-288
▁K	-289
▁his	-290
▁Th	-291
age	-292
▁were	-293
ations	-294
▁jud	-295
▁person	-296
▁y	-297
ount	-298
▁qu	-299
ag	-300
ision	-301
min	-302
ict	-303
▁Con	-304
ac	-305
ied	-306
ib	-307
rou	-308
▁Com	-309
▁shall	-310
▁order	-311
ject	-312
▁U	-313
▁reg	-314
▁ob	-315
el	-316
▁Govern	-317
sed	-318
▁rel	-319
ub	-320
▁law	-321
stitution	-322
ced	-323
ind	-324
▁off	-325
▁“	-326
ree	-327
▁ri	-328
used	-329
pond	-330
▁un	-331
▁said	-332
▁sp	-333
▁India	-334
▁ne	-335
eal	-336
▁am	-337
▁made	-338
pect	-339
sel	-340
ific	-341
▁mat	-342
ose	-343
▁tak	-344
ments	-345
▁its	-346
▁fact	-347
orm	-348
ans	-349
fter	-350
oun	-351
pondent	-352
ident	-353
fer	-354
▁we	-355
ome	-356
▁pre	-357
pl	-358
ide	-359
▁-	-360
▁do	-361
ces	-362
▁pres	-363
▁right	-364
oin	-365
▁se	-366
rib	-367
▁r	-368
ical	-369
ha	-370
▁|	-371
▁tr	-372
▁No	-373
etition	-374
ult	-375
iz	-376
fere	-377
use	-378
▁Government	-379
▁out	-380
iew	-381
ered	-382
▁me	-383
tain	-384
▁only	-385
▁their	-386
mission	-387
▁court	-388
▁V	-389
ise	-390
me	-391
▁who	-392
▁ind	-393
ry	-394
▁so	-395
▁consid	-396
▁rep	-397
ish	-398
ail	-399
ove	-400
mitted	-401
▁if	-402
ty	-403
▁k	-404
ory	-405
▁ent	-406
ost	-407
▁judg	-408
ious	-409
▁ac	-410
▁will	-411
ime	-412
oll	-413
▁respondent	-414
▁before	-415
▁pur	-416
▁one	-417
ep	-418
▁inter	-419
▁issu	-420
rit	-421
ile	-422
ates	-423
ual	-424
▁accused	-425
▁inv	-426
form	-427
▁same	-428
ract	-429
out	-430
▁man	-431
▁requ	-432
▁,	-433
og	-434
isions	-435
ue	-436
pos	-437
▁lear	-438
▁inc	-439
▁again	-440
ings	-441
▁but	-442
ection	-443
▁ca	-444
▁where	-445
irect	-446
▁leg	-447
▁time	-448
uth	-449
▁year	-450
▁applic	-451
ach	-452
▁As	-453
▁cla	-454
▁ass	-455
▁def	-456
idence	-457
one	-458
▁should	-459
▁petition	-460
ong	-461
ublic	-462
not	-463
ason	-464
ating	-465
▁learned	-466
▁exp	-467
ention	-468
istr	-469
▁This	-470
▁view	-471
ine	-472
ollow	-473
ood	-474
ative	-475
▁pl	-476
che	-477
vel	-478
▁bas	-479
▁Ch	-480
▁pow	-481
urther	-482
▁held	-483
▁pos	-484
▁em	-485
clud	-486
eg	-487
▁follow	-488
▁being	-489
▁act	-490
▁Constitution	-491
▁pr	-492
▁appeal	-493
ceed	-494
▁matter	-495
uthor	-496
▁against	-497
act	-498
▁Jud	-499
▁SC	-500
....	-501
ork	-502
ens	-503
▁fil	-504
nce	-505
ities	-506
▁cannot	-507
▁judgment	-508
ign	-509
ber	-510
▁serv	-511
▁comm	-512
▁tw	-513
▁reason	-514
▁quest	-515
▁'	-516
▁coun	-517
▁mak	-518
eral	-519
oint	-520
ound	-521
▁pas	-522
ax	-523
▁after	-524
▁Sh	-525
cy	-526
ute	-527
▁giv	-528
▁spec	-529
are	-530
▁they	-531
▁ter	-532
▁record	-533
▁evidence	-534
▁op	-535
rial	-536
ward	-537
▁We	-538
▁There	-539
ational	-540
▁our	-541
▁must	-542
▁into	-543
▁.	-544
ility	-545
ature	-546
▁provisions	-547
ffect	-548
ok	-549
▁proper	-550
ness	-551
▁li	-552
old	-553
ved	-554
▁two	-555
▁pay	-556
.0	-557
ged	-558
▁Pro	-559
▁him	-560
ided	-561
oy	-562
),	-563
▁proceed	-564
ors	-565
▁when	-566
▁trans	-567
ferred	-568
▁consider	-569
▁counsel	-570
iction	-571
aint	-572
▁set	-573
▁land	-574
ving	-575
▁above	-576
ath	-577
ever	-578
▁‘	-579
▁conc	-580
een	-581
▁pla	-582
▁pri	-583
ast	-584
▁further	-585
own	-586
led	-587
▁direct	-588
cept	-589
lect	-590
▁require	-591
▁question	-592
▁Su	-593
▁ext	-594
▁bet	-595
cip	-596
ular	-597
very	-598
hed	-599
isl	-600
▁He	-601
ally	-602
▁appro	-603
ified	-604
▁these	-605
erest	-606
▁taken	-607
▁public	-608
▁[	-609
erc	-610
▁respect	-611
▁char	-612
med	-613
▁dated	-614
▁pol	-615
ible	-616
wn	-617
▁state	-618
▁regard	-619
▁present	-620
▁power	-621
li	-622
▁them	-623
ank	-624
ised	-625
▁filed	-626
▁decision	-627
rant	-628
aj	-629
▁Un	-630
velop	-631
ession	-632
▁bec	-633
▁dif	-634
▁whether	-635
▁upon	-636
▁Sing	-637
ral	-638
irst	-639
▁well	-640
▁work	-641
▁up	-642
pre	-643
▁could	-644
▁interest	-645
ild	-646
▁includ	-647
ms	-648
ased	-649
▁cle	-650
ef	-651
icial	-652
▁over	-653
ase	-654
ween	-655
▁her	-656
bit	-657
sec	-658
▁within	-659
▁author	-660
ustice	-661
▁Ben	-662
▁between	-663
ecess	-664
ight	-665
▁Mr	-666
▁SCC	-667
▁Ex	-668
irc	-669
ci	-670
ges	-671
mitt	-672
▁given	-673
▁disc	-674
ond	-675
ite	-676
▁ra	-677
incip	-678
▁therefore	-679
ari	-680
ited	-681
owever	-682
any	-683
▁On	-684
▁cl	-685
rimin	-686
ances	-687
ference	-688
▁amount	-689
▁val	-690
▁supp	-691
its	-692
ven	-693
ended	-694
▁mar	-695
ices	-696
▁years	-697
duct	-698
iod	-699
▁clear	-700
▁App	-701
▁claim	-702
▁poss	-703
).	-704
ification	-705
▁submitted	-706
ph	-707
▁grou	-708
▁exam	-709
hi	-710
av	-711
ex	-712
▁necess	-713
▁att	-714
▁effect	-715
▁sec	-716
▁concer	-717
▁period	-718
▁writ	-719
▁even	-720
ief	-721
▁cases	-722
▁obs	-723
ined	-724
uring	-725
▁circ	-726
ploy	-727
▁does	-728
und	-729
stru	-730
▁rem	-731
oth	-732
▁application	-733
▁Commission	-734
ior	-735
ife	-736
▁persons	-737
les	-738
pose	-739
▁cer	-740
▁stat	-741
ules	-742
▁find	-743
▁rele	-744
▁Cent	-745
cess	-746
▁grant	-747
▁PW	-748
ress	-749
▁mem	-750
ian	-751
▁Bench	-752
▁first	-753
▁princip	-754
▁Singh	-755
▁accord	-756
gu	-757
rough	-758
▁prosec	-759
pri	-760
▁sent	-761
▁par	-762
ffic	-763
▁partic	-764
▁more	-765
▁some	-766
vant	-767
▁suit	-768
ale	-769
ap	-770
▁parties	-771
dition	-772
▁observ	-773
▁Ad	-774
▁cor	-775
▁Pres	-776
▁fin	-777
▁than	-778
ack	-779
▁form	-780
▁inform	-781
▁est	-782
▁read	-783
▁invest	-784
▁Par	-785
▁Rs	-786
▁Pr	-787
ug	-788
ass	-789
ke	-790
itions	-791
por	-792
▁&	-793
▁Min	-794
▁circum	-795
▁stated	-796
▁te	-797
▁conf	-798
unal	-799
▁date	-800
▁exerc	-801
con	-802
▁legisl	-803
▁through	-804
vers	-805
ays	-806
uris	-807
▁purpose	-808
▁Judge	-809
ull	-810
ash	-811
eneral	-812
▁De	-813
clus	-814
▁An	-815
ribunal	-816
▁property	-817
▁af	-818
xad	-819
▁circumst	-820
▁facts	-821
▁offence	-822
▁passed	-823
miss	-824
ores	-825
abl	-826
▁min	-827
▁without	-828
har	-829
▁trial	-830
▁subject	-831
▁good	-832
▁soc	-833
bitr	-834
▁deal	-835
ater	-836
▁count	-837
▁develop	-838
mittee	-839
▁employ	-840
ough	-841
▁us	-842
▁appellants	-843
▁while	-844
▁President	-845
riminal	-846
▁own	-847
▁tax	-848
▁ro	-849
▁compl	-850
▁make	-851
▁witness	-852
▁following	-853
▁av	-854
oresaid	-855
▁need	-856
ner	-857
ural	-858
▁aforesaid	-859
▁about	-860
▁object	-861
▁found	-862
▁gu	-863
▁allow	-864
pra	-865
▁provision	-866
▁basis	-867
▁juris	-868
ric	-869
▁differe	-870
▁ground	-871
igation	-872
▁ben	-873
▁agree	-874
▁sc	-875
▁necessary	-876
ety	-877
▁proceedings	-878
▁des	-879
hal	-880
▁acqu	-881
ting	-882
▁Ar	-883
▁hold	-884
▁disp	-885
▁issue	-886
▁/	-887
▁contract	-888
▁concerned	-889
▁process	-890
ained	-891
ability	-892
▁Res	-893
ality	-894
▁referred	-895
hip	-896
ew	-897
stitut	-898
▁Central	-899
▁different	-900
ix	-901
▁0	-902
ents	-903
ries	-904
▁report	-905
▁hand	-906
▁stand	-907
bers	-908
▁required	-909
diction	-910
▁bel	-911
▁both	-912
te	-913
▁Whe	-914
▁new	-915
sequ	-916
▁mon	-917
cil	-918
enior	-919
ished	-920
▁then	-921
self	-922
▁authority	-923
▁deter	-924
▁word	-925
ivil	-926
▁rece	-927
▁circumstances	-928
ati	-929
ince	-930
anc	-931
▁Shri	-932
▁jurisdiction	-933
▁occ	-934
erial	-935
▁take	-936
▁appear	-937
esh	-938
iff	-939
▁Section	-940
arious	-941
edu	-942
▁down	-943
▁here	-944
ceased	-945
▁appoint	-946
▁Committee	-947
▁ear	-948
ith	-949
▁consideration	-950
▁relevant	-951
▁prosecution	-952
▁ins	-953
▁pe	-954
▁establ	-955
▁post	-956
ees	-957
▁place	-958
▁ret	-959
▁Reg	-960
▁three	-961
▁service	-962
▁kn	-963
supra	-964
ither	-965
▁considered	-966
ister	-967
▁benef	-968
▁account	-969
ouse	-970
▁those	-971
▁rev	-972
▁opin	-973
▁did	-974
iness	-975
▁Re	-976
▁tre	-977
▁award	-978
▁dem	-979
ency	-980
chn	-981
half	-982
▁deceased	-983
▁Tribunal	-984
▁car	-985
▁determin	-986
▁like	-987
▁arbitr	-988
ram	-989
▁material	-990
▁name	-991
▁behalf	-992
▁what	-993
▁lim	-994
▁Or	-995
cheme	-996
▁having	-997
ks	-998
▁dist	-999
ital	-1000
ody	-1001
▁However	-1002
ides	-1003
PC	-1004
▁aff	-1005
ts	-1006
▁various	-1007
▁If	-1008
leg	-1009
oard	-1010
urn	-1011
▁particular	-1012
▁death	-1013
ause	-1014
tern	-1015
▁Indian	-1016
▁conv	-1017
▁opinion	-1018
crib	-1019
▁rights	-1020
▁exec	-1021
▁:	-1022
han	-1023
▁col	-1024
ption	-1025
▁petitioner	-1026
▁equ	-1027
ination	-1028
lement	-1029
▁co	-1030
of	-1031
▁issued	-1032
▁priv	-1033
▁avail	-1034
▁terms	-1035
▁nature	-1036
uty	-1037
ful	-1038
ures	-1039
▁life	-1040
▁she	-1041
ants	-1042
ren	-1043
▁import	-1044
▁certain	-1045
ences	-1046
▁oper	-1047
other	-1048
olog	-1049
▁Acc	-1050
▁sit	-1051
man	-1052
▁legal	-1053
ized	-1054
ode	-1055
ily	-1056
ocu	-1057
▁information	-1058
........	-1059
▁inst	-1060
ople	-1061
lection	-1062
▁provided	-1063
▁non	-1064
ointed	-1065
▁Dep	-1066
▁rest	-1067
▁notice	-1068
▁adv	-1069
▁prev	-1070
▁sy	-1071
▁main	-1072
▁exist	-1073
▁comple	-1074
▁Del	-1075
▁Coun	-1076
▁bus	-1077
onment	-1078
ivid	-1079
ret	-1080
▁inj	-1081
ending	-1082
▁statement	-1083
▁because	-1084
ourse	-1085
▁num	-1086
▁manner	-1087
▁det	-1088
aintiff	-1089
▁used	-1090
▁et	-1091
▁docu	-1092
▁during	-1093
ang	-1094
▁For	-1095
lia	-1096
▁conduct	-1097
▁agreement	-1098
liament	-1099
▁constitution	-1100
ring	-1101
IR	-1102
▁contin	-1103
▁expres	-1104
▁En	-1105
ma	-1106
▁etc	-1107
▁produ	-1108
▁Comp	-1109
▁clause	-1110
▁abs	-1111
icy	-1112
▁see	-1113
ages	-1114
allen	-1115
▁each	-1116
▁bu	-1117
▁company	-1118
▁prot	-1119
ange	-1120
ogn	-1121
stem	-1122
after	-1123
ov	-1124
▁cond	-1125
▁exercise	-1126
▁Justice	-1127
▁Delhi	-1128
▁including	-1129
omm	-1130
▁ru	-1131
read	-1132
▁Board	-1133
ave	-1134
gin	-1135
▁Wh	-1136
▁constru	-1137
▁Sp	-1138
▁ref	-1139
▁mention	-1140
tic	-1141
ivers	-1142
▁med	-1143
▁test	-1144
▁Sec	-1145
▁Chief	-1146
cedure	-1147
arge	-1148
iety	-1149
▁people	-1150
▁thus	-1151
▁senior	-1152
less	-1153
▁country	-1154
section	-1155
▁use	-1156
▁observed	-1157
▁result	-1158
▁cre	-1159
▁inf	-1160
▁argu	-1161
▁members	-1162
▁vi	-1163
aring	-1164
▁entit	-1165
▁dep	-1166
▁criminal	-1167
atory	-1168
ble	-1169
ived	-1170
ividual	-1171
▁fund	-1172
ros	-1173
▁due	-1174
▁development	-1175
▁Parliament	-1176
▁month	-1177
artment	-1178
cation	-1179
bt	-1180
sequent	-1181
▁action	-1182
▁show	-1183
▁judicial	-1184
▁del	-1185
ives	-1186
ai	-1187
▁challen	-1188
▁goods	-1189
raph	-1190
▁mean	-1191
ning	-1192
▁conclus	-1193
▁Union	-1194
▁cap	-1195
der	-1196
▁fun	-1197
▁Rules	-1198
ook	-1199
ah	-1200
port	-1201
▁individual	-1202
ob	-1203
▁Therefore	-1204
ris	-1205
ugned	-1206
▁Y	-1207
priate	-1208
▁tra	-1209
▁just	-1210
orpor	-1211
▁very	-1212
▁business	-1213
▁child	-1214
▁call	-1215
▁specific	-1216
posed	-1217
▁govern	-1218
▁invol	-1219
▁prom	-1220
lier	-1221
▁reference	-1222
▁fra	-1223
▁sentence	-1224
▁according	-1225
▁impugned	-1226
ient	-1227
.,	-1228
▁situ	-1229
▁way	-1230
▁pun	-1231
/-	-1232
row	-1233
▁Pol	-1234
preme	-1235
ator	-1236
▁sim	-1237
▁sale	-1238
▁number	-1239
▁ident	-1240
▁section	-1241
osed	-1242
ket	-1243
▁compens	-1244
▁Man	-1245
▁justice	-1246
▁ple	-1247
ateg	-1248
▁every	-1249
▁fail	-1250
reed	-1251
▁based	-1252
▁Ag	-1253
▁respondents	-1254
:-	-1255
ES	-1256
the	-1257
istrict	-1258
▁opp	-1259
ify	-1260
tal	-1261
▁edu	-1262
▁allowed	-1263
ulation	-1264
▁party	-1265
▁subst	-1266
▁possession	-1267
ured	-1268
▁plaintiff	-1269
cribed	-1270
ext	-1271
▁pass	-1272
umar	-1273
par	-1274
▁available	-1275
▁far	-1276
uted	-1277
▁charge	-1278
▁income	-1279
▁Supreme	-1280
▁Courts	-1281
▁principle	-1282
ft	-1283
▁Cha	-1284
▁Ram	-1285
ately	-1286
▁payment	-1287
istration	-1288
ys	-1289
▁add	-1290
▁appointment	-1291
see	-1292
▁duty	-1293
▁entitled	-1294
▁pract	-1295
▁itself	-1296
▁Ru	-1297
▁appropriate	-1298
▁since	-1299
▁recorded	-1300
ready	-1301
▁services	-1302
tained	-1303
▁contro	-1304
▁already	-1305
unity	-1306
▁defend	-1307
ivision	-1308
▁go	-1309
iry	-1310
▁prof	-1311
▁system	-1312
▁either	-1313
gan	-1314
▁pen	-1315
▁ten	-1316
▁OF	-1317
atis	-1318
▁back	-1319
▁viol	-1320
jud	-1321
▁Raj	-1322
▁statut	-1323
▁Code	-1324
▁words	-1325
▁conditions	-1326
iding	-1327
vi	-1328
▁dra	-1329
resent	-1330
▁reasons	-1331
▁general	-1332
▁earlier	-1333
▁expl	-1334
eep	-1335
ought	-1336
ired	-1337
▁area	-1338
▁you	-1339
▁mer	-1340
▁indust	-1341
▁er	-1342
app	-1343
ecial	-1344
▁police	-1345
atisf	-1346
▁constitutional	-1347
▁policy	-1348
▁promot	-1349
▁special	-1350
▁position	-1351
▁apply	-1352
▁ph	-1353
▁follows	-1354
uman	-1355
ising	-1356
▁laid	-1357
lig	-1358
ential	-1359
pted	-1360
tra	-1361
wise	-1362
▁dou	-1363
▁support	-1364
▁States	-1365
▁techn	-1366
conom	-1367
▁National	-1368
▁punish	-1369
▁committed	-1370
▁end	-1371
▁Bank	-1372
▁paid	-1373
▁let	-1374
▁Am	-1375
▁All	-1376
▁cause	-1377
▁ens	-1378
▁making	-1379
▁Thus	-1380
▁mis	-1381
▁appeals	-1382
▁investigation	-1383
▁rule	-1384
▁fore	-1385
▁Sub	-1386
ple	-1387
ten	-1388
▁Rep	-1389
▁course	-1390
▁compensation	-1391
▁orders	-1392
▁means	-1393
uk	-1394
▁complaint	-1395
ancial	-1396
ines	-1397
ilar	-1398
▁interpre	-1399
AR	-1400
▁mentioned	-1401
▁fav	-1402
for	-1403
▁i	-1404
rect	-1405
▁placed	-1406
▁Lt	-1407
TI	-1408
▁Minister	-1409
▁bl	-1410
▁Rule	-1411
▁At	-1412
ruct	-1413
▁loc	-1414
▁courts	-1415
ata	-1416
▁Leg	-1417
▁scheme	-1418
▁though	-1419
▁another	-1420
endment	-1421
▁lead	-1422
▁init	-1423
ctions	-1424
▁gre	-1425
andid	-1426
▁satisf	-1427
ici	-1428
▁Council	-1429
▁ve	-1430
▁recomm	-1431
▁granted	-1432
▁favour	-1433
uch	-1434
▁indic	-1435
EN	-1436
▁day	-1437
▁value	-1438
▁entire	-1439
ested	-1440
▁witnesses	-1441
▁assess	-1442
▁point	-1443
▁Division	-1444
ON	-1445
lied	-1446
▁sur	-1447
▁ori	-1448
▁candid	-1449
itation	-1450
▁accept	-1451
▁sum	-1452
▁mere	-1453
▁provide	-1454
af	-1455
mental	-1456
▁matters	-1457
ya	-1458
missed	-1459
ried	-1460
▁Dr	-1461
▁valid	-1462
▁Ltd	-1463
▁society	-1464
▁body	-1465
king	-1466
acy	-1467
▁represent	-1468
▁Law	-1469
ii	-1470
▁know	-1471
▁Tr	-1472
ording	-1473
▁prog	-1474
▁cost	-1475
▁Gu	-1476
▁dismissed	-1477
▁bro	-1478
▁however	-1479
▁submission	-1480
▁except	-1481
▁came	-1482
ology	-1483
ters	-1484
▁Direct	-1485
ather	-1486
stand	-1487
▁along	-1488
▁ser	-1489
▁sect	-1490
▁Kumar	-1491
▁powers	-1492
pons	-1493
▁stage	-1494
ering	-1495
▁perform	-1496
▁sign	-1497
00	-1498
unic	-1499
ditional	-1500
▁Offic	-1501
▁provides	-1502
▁elect	-1503
▁To	-1504
ining	-1505
▁second	-1506
▁conclusion	-1507
▁open	-1508
ibility	-1509
▁done	-1510
▁compet	-1511
▁discus	-1512
▁project	-1513
▁relating	-1514
agement	-1515
▁build	-1516
▁class	-1517
hib	-1518
ER	-1519
▁decisions	-1520
▁house	-1521
▁herein	-1522
▁activ	-1523
▁str	-1524
▁Author	-1525
▁econom	-1526
▁important	-1527
▁alle	-1528
▁mod	-1529
rime	-1530
▁contained	-1531
▁But	-1532
▁Bh	-1533
ared	-1534
▁fam	-1535
AN	-1536
▁stud	-1537
eed	-1538
▁According	-1539
here	-1540
▁institut	-1541
▁rules	-1542
▁Department	-1543
▁dispute	-1544
▁They	-1545
▁come	-1546
▁full	-1547
▁That	-1548
▁Serv	-1549
irm	-1550
▁aspect	-1551
▁cent	-1552
ively	-1553
▁high	-1554
ellate	-1555
ck	-1556
▁IPC	-1557
gg	-1558
▁meet	-1559
▁enact	-1560
soci	-1561
▁categ	-1562
▁Petition	-1563
▁Mar	-1564
▁my	-1565
▁statutory	-1566
▁give	-1567
missions	-1568
rie	-1569
▁Te	-1570
essee	-1571
▁cred	-1572
▁detail	-1573
▁admin	-1574
▁mind	-1575
▁get	-1576
▁Prad	-1577
epend	-1578
oh	-1579
▁exper	-1580
ross	-1581
▁taking	-1582
▁common	-1583
▁Not	-1584
▁acce	-1585
▁benefit	-1586
val	-1587
way	-1588
▁bank	-1589
▁lit	-1590
▁depos	-1591
eth	-1592
▁continu	-1593
mb	-1594
▁alleged	-1595
▁aside	-1596
by	-1597
▁reject	-1598
ool	-1599
urre	-1600
▁procedure	-1601
▁decl	-1602
▁Civil	-1603
▁otherwise	-1604
▁transfer	-1605
air	-1606
▁sett	-1607
▁Respondent	-1608
elf	-1609
▁Legisl	-1610
▁establish	-1611
▁origin	-1612
▁fl	-1613
▁General	-1614
wards	-1615
oney	-1616
--	-1617
agraph	-1618
▁District	-1619
oss	-1620
▁prescribed	-1621
...	-1622
▁Sche	-1623
quiry	-1624
hold	-1625
▁doubt	-1626
▁Cr	-1627
▁correct	-1628
fficient	-1629
▁Co	-1630
▁clearly	-1631
ashtra	-1632
▁expression	-1633
▁office	-1634
hes	-1635
cing	-1636
▁raised	-1637
▁che	-1638
▁Police	-1639
▁These	-1640
▁Ass	-1641
▁medical	-1642
▁Eng	-1643
▁ir	-1644
tak	-1645
arily	-1646
▁Corpor	-1647
▁long	-1648
anch	-1649
▁recogn	-1650
▁accordance	-1651
▁put	-1652
istered	-1653
ID	-1654
▁Mem	-1655
up	-1656
▁reasonable	-1657
▁accepted	-1658
taining	-1659
tific	-1660
▁context	-1661
▁specified	-1662
utive	-1663
▁After	-1664
▁private	-1665
▁note	-1666
stitute	-1667
AL	-1668
uf	-1669
▁now	-1670
inary	-1671
▁cust	-1672
iversity	-1673
poses	-1674
▁namely	-1675
▁received	-1676
arg	-1677
ked	-1678
▁adop	-1679
▁thereof	-1680
▁Judges	-1681
orted	-1682
▁remain	-1683
▁wom	-1684
als	-1685
▁Appeal	-1686
olution	-1687
▁days	-1688
▁Prov	-1689
▁principles	-1690
▁ur	-1691
▁conn	-1692
▁Pradesh	-1693
▁Further	-1694
▁sever	-1695
hav	-1696
▁financial	-1697
▁contr	-1698
▁arbitration	-1699
ana	-1700
rodu	-1701
ik	-1702
▁noted	-1703
▁force	-1704
▁regul	-1705
ons	-1706
eration	-1707
BI	-1708
▁human	-1709
▁directed	-1710
▁opport	-1711
▁asse	-1712
▁refer	-1713
amental	-1714
▁nor	-1715
▁petitioners	-1716
rought	-1717
▁Officer	-1718
▁hig	-1719
▁education	-1720
▁meaning	-1721
▁New	-1722
▁Authority	-1723
▁offences	-1724
▁substant	-1725
itor	-1726
▁water	-1727
ower	-1728
▁months	-1729
with	-1730
iance	-1731
ajor	-1732
ufact	-1733
ards	-1734
ars	-1735
▁sought	-1736
▁adver	-1737
▁purch	-1738
▁appointed	-1739
na	-1740
▁den	-1741
▁incident	-1742
empt	-1743
▁purposes	-1744
▁issues	-1745
▁final	-1746
▁contended	-1747
overed	-1748
▁gen	-1749
sw	-1750
▁When	-1751
▁possible	-1752
ne	-1753
▁Public	-1754
▁defendant	-1755
▁appearing	-1756
▁Ma	-1757
ury	-1758
▁ess	-1759
▁offic	-1760
▁social	-1761
▁less	-1762
ield	-1763
▁fix	-1764
▁decided	-1765
ainant	-1766
ism	-1767
itiz	-1768
▁extent	-1769
istry	-1770
▁civil	-1771
▁deem	-1772
▁separ	-1773
hic	-1774
ense	-1775
▁Company	-1776
▁san	-1777
▁established	-1778
iber	-1779
▁level	-1780
ictim	-1781
▁ensure	-1782
PW	-1783
anies	-1784
ructure	-1785
▁Part	-1786
action	-1787
▁examined	-1788
▁Commissioner	-1789
▁review	-1790
▁relied	-1791
▁demand	-1792
au	-1793
▁Cont	-1794
▁family	-1795
▁prior	-1796
▁mand	-1797
▁charges	-1798
▁documents	-1799
isition	-1800
risonment	-1801
▁market	-1802
▁env	-1803
▁decree	-1804
▁situation	-1805
▁care	-1806
▁affect	-1807
riage	-1808
ically	-1809
arent	-1810
▁Mag	-1811
igned	-1812
▁unless	-1813
▁Col	-1814
▁several	-1815
ways	-1816
▁applicable	-1817
▁suff	-1818
ves	-1819
▁appre	-1820
mes	-1821
▁independ	-1822
▁rate	-1823
▁IN	-1824
ization	-1825
▁lic	-1826
▁assessee	-1827
▁Corporation	-1828
▁respons	-1829
▁notification	-1830
rest	-1831
▁Special	-1832
▁Se	-1833
▁most	-1834
▁your	-1835
▁victim	-1836
▁Develop	-1837
▁imprisonment	-1838
▁money	-1839
osp	-1840
▁Lear	-1841
▁below	-1842
▁major	-1843
ira	-1844
▁ver	-1845
ird	-1846
▁examination	-1847
urity	-1848
angu	-1849
eak	-1850
ray	-1851
▁Governor	-1852
ron	-1853
▁called	-1854
▁undertak	-1855
▁interpret	-1856
▁function	-1857
▁And	-1858
▁say	-1859
▁recommend	-1860
▁mot	-1861
▁took	-1862
▁complete	-1863
▁sugg	-1864
▁institutions	-1865
▁meas	-1866
▁discl	-1867
chool	-1868
▁registered	-1869
▁fundamental	-1870
orld	-1871
▁enter	-1872
▁brought	-1873
IC	-1874
imum	-1875
▁organ	-1876
▁sm	-1877
ached	-1878
▁free	-1879
ace	-1880
standing	-1881
▁Adv	-1882
▁initi	-1883
spect	-1884
▁hearing	-1885
atural	-1886
▁answ	-1887
▁doct	-1888
▁incre	-1889
▁letter	-1890
▁express	-1891
▁relig	-1892
ps	-1893
bs	-1894
▁trade	-1895
▁construction	-1896
▁become	-1897
▁age	-1898
▁relations	-1899
▁manufact	-1900
sp	-1901
▁nan	-1902
istrate	-1903
▁product	-1904
▁lease	-1905
▁Learned	-1906
▁conviction	-1907
▁control	-1908
▁regarding	-1909
▁recover	-1910
▁Vs	-1911
▁others	-1912
▁err	-1913
▁succ	-1914
▁list	-1915
day	-1916
▁light	-1917
▁government	-1918
utes	-1919
▁judgments	-1920
▁treat	-1921
▁liable	-1922
▁towards	-1923
▁document	-1924
▁subsequent	-1925
▁vehic	-1926
get	-1927
ually	-1928
ENT	-1929
uled	-1930
▁implement	-1931
▁legislation	-1932
▁cro	-1933
aged	-1934
▁statute	-1935
▁large	-1936
▁term	-1937
▁holding	-1938
▁propos	-1939
▁pointed	-1940
alth	-1941
▁finding	-1942
▁delay	-1943
ledge	-1944
▁decla	-1945
▁complainant	-1946
ink	-1947
mon	-1948
tificate	-1949
▁relief	-1950
▁Pl	-1951
▁Be	-1952
ironment	-1953
ulated	-1954
▁fall	-1955
▁defin	-1956
ercial	-1957
▁similar	-1958
▁total	-1959
▁citiz	-1960
pur	-1961
▁eng	-1962
reedom	-1963
▁PR	-1964
▁share	-1965
▁Al	-1966
▁proved	-1967
oid	-1968
ope	-1969
▁occas	-1970
ta	-1971
ably	-1972
phas	-1973
▁member	-1974
AT	-1975
▁contention	-1976
▁amendment	-1977
▁paragraph	-1978
▁real	-1979
▁Magistrate	-1980
▁health	-1981
▁event	-1982
▁Mad	-1983
▁reserv	-1984
irection	-1985
▁protect	-1986
▁original	-1987
▁Cla	-1988
▁institution	-1989
iced	-1990
dule	-1991
▁Ministry	-1992
▁University	-1993
▁While	-1994
medi	-1995
▁vide	-1996
▁areas	-1997
▁absence	-1998
▁norm	-1999
part	-2000
chie	-2001
▁Such	-2002
▁Report	-2003
▁building	-2004
uses	-2005
▁qual	-2006
urance	-2007
▁involved	-2008
IT	-2009
▁essential	-2010
ock	-2011
▁intention	-2012
HE	-2013
▁therein	-2014
az	-2015
▁sufficient	-2016
come	-2017
havan	-2018
pe	-2019
▁ke	-2020
▁alleg	-2021
▁direction	-2022
▁facil	-2023
idav	-2024
▁She	-2025
▁Development	-2026
▁crime	-2027
ospital	-2028
ake	-2029
▁neg	-2030
▁penal	-2031
▁collect	-2032
▁Director	-2033
▁Off	-2034
▁cop	-2035
▁head	-2036
▁achie	-2037
missible	-2038
rat	-2039
band	-2040
▁relation	-2041
▁short	-2042
Ex	-2043
▁Nos	-2044
▁tru	-2045
illeg	-2046
▁assessment	-2047
▁submissions	-2048
mbly	-2049
lying	-2050
▁ann	-2051
▁pet	-2052
ience	-2053
▁personal	-2054
▁bail	-2055
▁economic	-2056
ends	-2057
▁laws	-2058
▁treated	-2059
▁loss	-2060
▁sal	-2061
uly	-2062
▁leave	-2063
▁grow	-2064
▁interpretation	-2065
▁legislature	-2066
▁instru	-2067
▁condition	-2068
▁saf	-2069
ises	-2070
▁disch	-2071
▁fee	-2072
icult	-2073
▁keep	-2074
ories	-2075
▁merely	-2076
▁directions	-2077
▁illeg	-2078
▁declar	-2079
▁higher	-2080
▁many	-2081
▁sing	-2082
▁submit	-2083
▁wind	-2084
work	-2085
▁consist	-2086
▁Criminal	-2087
▁vis	-2088
▁Bhavan	-2089
▁giving	-2090
▁world	-2091
war	-2092
▁freedom	-2093
▁pending	-2094
iso	-2095
▁artic	-2096
ternal	-2097
▁intern	-2098
ics	-2099
anguage	-2100
▁aut	-2101
▁impro	-2102
▁price	-2103
▁much	-2104
▁acquit	-2105
illage	-2106
▁Secret	-2107
CI	-2108
▁include	-2109
................	-2110
com	-2111
▁bre	-2112
▁Under	-2113
▁Lim	-2114
▁opportunity	-2115
▁premis	-2116
▁fair	-2117
▁guil	-2118
ender	-2119
▁Fin	-2120
▁filing	-2121
rad	-2122
ricult	-2123
▁serious	-2124
▁protection	-2125
isation	-2126
▁affidav	-2127
ery	-2128
▁redu	-2129
▁five	-2130
▁particip	-2131
▁heard	-2132
▁Order	-2133
▁fe	-2134
que	-2135
▁six	-2136
▁war	-2137
▁har	-2138
iciary	-2139
▁Appellant	-2140
▁accordingly	-2141
▁FIR	-2142
▁Chand	-2143
▁Scheme	-2144
retion	-2145
▁legislative	-2146
to	-2147
▁tem	-2148
▁agg	-2149
equ	-2150
▁pursu	-2151
▁carry	-2152
essional	-2153
▁employees	-2154
▁Tax	-2155
▁four	-2156
acity	-2157
▁restr	-2158
▁written	-2159
▁role	-2160
],	-2161
▁best	-2162
resh	-2163
OR	-2164
ium	-2165
▁hel	-2166
▁contain	-2167
▁Kar	-2168
▁fac	-2169
▁among	-2170
pati	-2171
essions	-2172
▁vac	-2173
hen	-2174
ging	-2175
tion	-2176
▁lo	-2177
▁concept	-2178
▁regular	-2179
▁approach	-2180
▁House	-2181
▁owner	-2182
▁sust	-2183
ires	-2184
▁admitted	-2185
▁till	-2186
▁deemed	-2187
▁needs	-2188
▁constitut	-2189
formation	-2190
▁thereafter	-2191
▁port	-2192
▁noticed	-2193
▁proviso	-2194
▁Med	-2195
ala	-2196
▁reads	-2197
▁sanction	-2198
▁how	-2199
▁discretion	-2200
▁previous	-2201
ying	-2202
▁challenge	-2203
▁assist	-2204
yond	-2205
▁appreci	-2206
▁proceeding	-2207
▁natural	-2208
ours	-2209
akh	-2210
▁knowledge	-2211
▁occasion	-2212
▁left	-2213
▁field	-2214
int	-2215
▁pray	-2216
▁activities	-2217
▁children	-2218
▁last	-2219
ently	-2220
▁distin	-2221
erated	-2222
▁rend	-2223
hing	-2224
▁plan	-2225
ught	-2226
▁AIR	-2227
ancy	-2228
IN	-2229
▁existing	-2230
▁dri	-2231
orth	-2232
▁anal	-2233
aries	-2234
▁payable	-2235
▁acquisition	-2236
▁wherein	-2237
atives	-2238
▁el	-2239
▁Bill	-2240
▁step	-2241
▁beyond	-2242
mber	-2243
▁expressed	-2244
▁sector	-2245
▁competent	-2246
ties	-2247
▁bal	-2248
▁Service	-2249
ership	-2250
▁contem	-2251
ashtrapati	-2252
▁applied	-2253
▁program	-2254
acc	-2255
▁Indust	-2256
▁THE	-2257
▁Pri	-2258
▁contrary	-2259
▁Even	-2260
▁observations	-2261
ources	-2262
▁para	-2263
erve	-2264
▁Soc	-2265
▁Where	-2266
▁punishment	-2267
LP	-2268
▁consum	-2269
▁enfor	-2270
venue	-2271
▁framed	-2272
▁whole	-2273
reg	-2274
▁Muk	-2275
▁sche	-2276
▁marriage	-2277
omb	-2278
law	-2279
judic	-2280
uries	-2281
▁practice	-2282
▁Rashtrapati	-2283
cluded	-2284
▁inn	-2285
▁settled	-2286
aving	-2287
▁rejected	-2288
imate	-2289
▁bring	-2290
▁fut	-2291
▁und	-2292
▁security	-2293
▁followed	-2294
▁great	-2295
▁By	-2296
▁Artic	-2297
usband	-2298
cies	-2299
▁prep	-2300
▁bar	-2301
▁diff	-2302
▁today	-2303
▁women	-2304
round	-2305
▁deed	-2306
▁awarded	-2307
▁questions	-2308
▁appears	-2309
▁management	-2310
ribution	-2311
▁basic	-2312
▁arrest	-2313
▁valu	-2314
▁argued	-2315
ocate	-2316
▁Cons	-2317
▁working	-2318
▁requirement	-2319
▁liber	-2320
arant	-2321
▁seen	-2322
▁success	-2323
▁conducted	-2324
▁functions	-2325
IA	-2326
▁dam	-2327
▁produced	-2328
▁es	-2329
▁Writ	-2330
umb	-2331
jee	-2332
orts	-2333
sh	-2334
▁maintain	-2335
▁tit	-2336
▁belong	-2337
▁immedi	-2338
▁grounds	-2339
ize	-2340
ware	-2341
▁vehicle	-2342
ional	-2343
dra	-2344
▁companies	-2345
amp	-2346
▁language	-2347
▁signific	-2348
vey	-2349
▁change	-2350
▁Trial	-2351
bsite	-2352
▁imposed	-2353
▁With	-2354
rieved	-2355
▁allot	-2356
▁candidates	-2357
▁declaration	-2358
▁gra	-2359
▁plead	-2360
▁Provided	-2361
ony	-2362
lege	-2363
reng	-2364
▁mining	-2365
▁Asse	-2366
▁polit	-2367
▁Me	-2368
▁What	-2369
ully	-2370
▁providing	-2371
▁election	-2372
acter	-2373
▁Ab	-2374
▁Limited	-2375
▁known	-2376
▁nex	-2377
▁dealing	-2378
▁petitions	-2379
TION	-2380
ension	-2381
▁dom	-2382
▁Comm	-2383
enced	-2384
▁limited	-2385
▁rendered	-2386
ali	-2387
encies	-2388
vention	-2389
rong	-2390
▁Chair	-2391
▁executive	-2392
▁premises	-2393
▁local	-2394
▁sex	-2395
▁enc	-2396
▁chan	-2397
▁prohib	-2398
▁proposed	-2399
▁run	-2400
▁nothing	-2401
sociation	-2402
▁difficult	-2403
▁failed	-2404
ault	-2405
anation	-2406
▁officer	-2407
▁Hon	-2408
’.	-2409
▁start	-2410
▁First	-2411
▁declared	-2412
▁national	-2413
acher	-2414
▁defence	-2415
▁Single	-2416
cer	-2417
DA	-2418
▁continue	-2419
▁wife	-2420
▁certificate	-2421
de	-2422
▁considering	-2423
▁registration	-2424
abil	-2425
▁file	-2426
abad	-2427
▁away	-2428
▁subs	-2429
▁instant	-2430
▁foreign	-2431
▁commission	-2432
▁treatment	-2433
imes	-2434
land	-2435
ulations	-2436
▁true	-2437
▁eff	-2438
▁fine	-2439
go	-2440
▁reliance	-2441
urd	-2442
▁adopted	-2443
fully	-2444
▁liberty	-2445
▁affidavit	-2446
▁ought	-2447
illed	-2448
▁fixed	-2449
▁pat	-2450
▁window	-2451
ethod	-2452
▁SLP	-2453
▁streng	-2454
abor	-2455
▁website	-2456
▁environment	-2457
▁consp	-2458
▁ut	-2459
▁book	-2460
▁quality	-2461
▁Pun	-2462
▁prevent	-2463
▁imm	-2464
▁future	-2465
▁carried	-2466
▁furn	-2467
▁findings	-2468
▁cho	-2469
▁Secretary	-2470
▁Since	-2471
▁injuries	-2472
▁consequ	-2473
▁look	-2474
▁consent	-2475
iving	-2476
▁argument	-2477
▁liability	-2478
▁caused	-2479
▁ce	-2480
▁satisfied	-2481
▁scope	-2482
▁Is	-2483
urrent	-2484
▁termin	-2485
arch	-2486
▁integ	-2487
▁addition	-2488
▁states	-2489
▁trust	-2490
▁approval	-2491
▁character	-2492
▁operation	-2493
oor	-2494
ases	-2495
▁bound	-2496
vest	-2497
erative	-2498
▁communic	-2499
▁rent	-2500
▁decide	-2501
under	-2502
▁arri	-2503
▁urged	-2504
▁adjudic	-2505
icted	-2506
▁trad	-2507
▁remed	-2508
▁execution	-2509
duled	-2510
▁whose	-2511
▁receip	-2512
▁category	-2513
▁credit	-2514
▁related	-2515
▁recovery	-2516
II	-2517
▁father	-2518
▁introdu	-2519
racted	-2520
▁himself	-2521
▁dedu	-2522
▁once	-2523
▁Le	-2524
rast	-2525
▁wrong	-2526
▁definition	-2527
idel	-2528
abour	-2529
▁help	-2530
anced	-2531
▁makes	-2532
▁prim	-2533
▁always	-2534
▁benefits	-2535
▁minor	-2536
▁absol	-2537
▁outs	-2538
▁husband	-2539
▁withdra	-2540
IS	-2541
erg	-2542
chan	-2543
▁data	-2544
▁commercial	-2545
unt	-2546
▁Appellate	-2547
▁existence	-2548
nat	-2549
istrative	-2550
▁capacity	-2551
earch	-2552
▁exclus	-2553
▁method	-2554
▁suggest	-2555
ani	-2556
ators	-2557
▁Information	-2558
▁capital	-2559
▁students	-2560
▁Hence	-2561
▁industrial	-2562
▁Schedule	-2563
itive	-2564
▁penalty	-2565
ogniz	-2566
▁fri	-2567
▁additional	-2568
▁expect	-2569
▁substantial	-2570
▁Bi	-2571
▁Legislature	-2572
▁emp	-2573
▁Whether	-2574
▁production	-2575
agar	-2576
omes	-2577
▁whom	-2578
▁separate	-2579
▁Judicial	-2580
airs	-2581
▁countries	-2582
▁defined	-2583
▁permitted	-2584
▁dealt	-2585
aka	-2586
▁exercised	-2587
pective	-2588
▁ul	-2589
▁Dis	-2590
▁cross	-2591
▁preferred	-2592
att	-2593
▁happ	-2594
▁judiciary	-2595
▁cult	-2596
▁determination	-2597
▁appellate	-2598
ares	-2599
▁unt	-2600
thing	-2601
▁claimed	-2602
▁Clause	-2603
irt	-2604
elfare	-2605
▁details	-2606
tt	-2607
▁acquired	-2608
▁Procedure	-2609
▁industry	-2610
▁candidate	-2611
▁PRES	-2612
▁determined	-2613
▁relationship	-2614
▁request	-2615
ats	-2616
▁br	-2617
▁copy	-2618
▁performance	-2619
▁elig	-2620
▁Bomb	-2621
▁Assembly	-2622
▁gl	-2623
▁guarant	-2624
▁return	-2625
▁applicant	-2626
ote	-2627
▁bor	-2628
▁later	-2629
▁consult	-2630
ource	-2631
▁privacy	-2632
▁lev	-2633
▁neither	-2634
gether	-2635
▁together	-2636
▁independent	-2637
▁never	-2638
anj	-2639
▁Pre	-2640
▁phys	-2641
▁acts	-2642
▁opens	-2643
wal	-2644
ling	-2645
▁illegal	-2646
▁discussion	-2647
▁Sim	-2648
▁mo	-2649
▁absolute	-2650
▁prove	-2651
ruit	-2652
▁democ	-2653
alc	-2654
▁inquiry	-2655
▁Sessions	-2656
▁examine	-2657
pr	-2658
▁Ter	-2659
▁third	-2660
▁plea	-2661
▁content	-2662
ealth	-2663
▁outside	-2664
idelines	-2665
▁Income	-2666
▁Bombay	-2667
▁bi	-2668
▁title	-2669
▁Edu	-2670
rish	-2671
▁One	-2672
▁growth	-2673
▁play	-2674
▁prosecut	-2675
▁stip	-2676
▁intended	-2677
▁specifically	-2678
osition	-2679
lim	-2680
▁obtained	-2681
rol	-2682
▁status	-2683
▁political	-2684
▁Additional	-2685
▁Lord	-2686
▁judge	-2687
▁nam	-2688
▁presum	-2689
▁Ra	-2690
ancell	-2691
▁merit	-2692
▁dispos	-2693
▁employment	-2694
▁crit	-2695
▁mult	-2696
▁validity	-2697
▁cover	-2698
cement	-2699
▁effective	-2700
▁requires	-2701
ored	-2702
▁ill	-2703
ifications	-2704
▁kind	-2705
▁went	-2706
▁Engine	-2707
▁injury	-2708
adha	-2709
▁Second	-2710
▁meeting	-2711
▁resolution	-2712
▁particularly	-2713
▁international	-2714
▁nom	-2715
▁vol	-2716
▁kept	-2717
inate	-2718
▁punishable	-2719
ane	-2720
▁rightly	-2721
▁challenged	-2722
▁Lal	-2723
▁community	-2724
▁includes	-2725
▁fit	-2726
▁met	-2727
IDENT	-2728
lu	-2729
▁contempl	-2730
▁access	-2731
▁limitation	-2732
cise	-2733
▁dign	-2734
iture	-2735
▁Pat	-2736
▁tenant	-2737
▁citizens	-2738
▁promotion	-2739
ictions	-2740
▁applications	-2741
urer	-2742
▁school	-2743
▁setting	-2744
▁resident	-2745
▁Im	-2746
▁Sm	-2747
▁aspects	-2748
▁experience	-2749
▁next	-2750
cient	-2751
▁deals	-2752
atures	-2753
▁selection	-2754
▁still	-2755
▁statements	-2756
▁drawn	-2757
selves	-2758
▁corpor	-2759
▁posts	-2760
'.	-2761
▁cogniz	-2762
▁PRESIDENT	-2763
arma	-2764
▁receipt	-2765
▁connect	-2766
SC	-2767
▁mor	-2768
iously	-2769
▁larg	-2770
▁covered	-2771
▁materials	-2772
▁rese	-2773
▁measures	-2774
▁discrimin	-2775
rix	-2776
IL	-2777
RA	-2778
▁training	-2779
▁violation	-2780
nataka	-2781
▁supply	-2782
ern	-2783
▁assum	-2784
▁factors	-2785
▁Techn	-2786
cipl	-2787
▁employee	-2788
▁Sri	-2789
▁conferred	-2790
▁forward	-2791
▁permission	-2792
▁Mukher	-2793
▁brother	-2794
▁pension	-2795
▁Senior	-2796
▁custom	-2797
▁Counsel	-2798
▁face	-2799
▁joint	-2800
igating	-2801
▁compli	-2802
CT	-2803
▁convicted	-2804
ember	-2805
kar	-2806
▁group	-2807
▁limit	-2808
▁lay	-2809
▁Bar	-2810
EL	-2811
----	-2812
▁emphas	-2813
▁Moh	-2814
▁tribunal	-2815
▁properties	-2816
▁Right	-2817
omp	-2818
urrence	-2819
wh	-2820
▁pati	-2821
▁merits	-2822
▁Thereafter	-2823
▁broad	-2824
▁proble	-2825
▁clar	-2826
▁son	-2827
▁Trans	-2828
▁Karnataka	-2829
▁hence	-2830
▁interfere	-2831
▁technology	-2832
ists	-2833
uary	-2834
cational	-2835
cell	-2836
▁Rec	-2837
▁custody	-2838
▁administration	-2839
▁ty	-2840
▁technical	-2841
▁mort	-2842
▁Sab	-2843
▁instance	-2844
▁shown	-2845
▁minimum	-2846
▁occup	-2847
irmed	-2848
view	-2849
▁Nar	-2850
ressed	-2851
▁hist	-2852
ously	-2853
▁So	-2854
▁Admin	-2855
▁determine	-2856
alse	-2857
▁dev	-2858
rated	-2859
▁dismiss	-2860
▁respective	-2861
lies	-2862
▁executed	-2863
ras	-2864
▁transaction	-2865
▁commit	-2866
▁thereby	-2867
rastructure	-2868
▁stay	-2869
▁error	-2870
00/-	-2871
▁vested	-2872
adem	-2873
▁sense	-2874
▁Mukherjee	-2875
▁disposed	-2876
accused	-2877
ifying	-2878
▁created	-2879
▁arise	-2880
▁guilty	-2881
▁presence	-2882
▁sole	-2883
▁alone	-2884
gar	-2885
▁informed	-2886
▁steps	-2887
▁progress	-2888
▁Jan	-2889
usal	-2890
aper	-2891
].	-2892
▁plant	-2893
ingu	-2894
▁Sha	-2895
▁Medical	-2896
▁agricult	-2897
▁prepared	-2898
iii	-2899
▁seeking	-2900
▁quant	-2901
▁assets	-2902
▁Em	-2903
▁...	-2904
▁design	-2905
▁unf	-2906
▁connection	-2907
▁able	-2908
be	-2909
cience	-2910
▁Ors	-2911
rine	-2912
▁obl	-2913
▁single	-2914
▁small	-2915
uties	-2916
iracy	-2917
▁anything	-2918
▁Regulations	-2919
▁Cl	-2920
lication	-2921
▁requirements	-2922
▁yet	-2923
▁territ	-2924
urred	-2925
anchay	-2926
▁false	-2927
▁Mahar	-2928
▁agreed	-2929
▁entered	-2930
▁importance	-2931
adi	-2932
ick	-2933
mar	-2934
nel	-2935
▁Arbitr	-2936
▁deli	-2937
▁adequ	-2938
▁nation	-2939
▁least	-2940
men	-2941
now	-2942
▁Chap	-2943
▁constituted	-2944
▁arising	-2945
▁concern	-2946
▁shares	-2947
▁prejud	-2948
▁revision	-2949
riev	-2950
▁IND	-2951
▁His	-2952
ental	-2953
▁answer	-2954
▁directly	-2955
▁discharge	-2956
External	-2957
▁Pra	-2958
▁extend	-2959
▁justified	-2960
▁accident	-2961
mitting	-2962
▁becomes	-2963
▁deposit	-2964
▁exceed	-2965
▁disputes	-2966
▁records	-2967
▁road	-2968
ead	-2969
▁food	-2970
une	-2971
▁judges	-2972
ograph	-2973
▁Education	-2974
ison	-2975
▁Def	-2976
▁address	-2977
▁bid	-2978
▁IT	-2979
▁Priv	-2980
▁fully	-2981
kh	-2982
▁ey	-2983
▁self	-2984
▁amended	-2985
adhaar	-2986
▁depend	-2987
▁reading	-2988
urs	-2989
omet	-2990
▁near	-2991
▁interests	-2992
jab	-2993
▁virt	-2994
▁costs	-2995
▁debt	-2996
▁di	-2997
▁attempt	-2998
xx	-2999
▁included	-3000
▁turn	-3001
itable	-3002
▁preced	-3003
▁Chapter	-3004
▁May	-3005
▁lakh	-3006
▁structure	-3007
▁conspiracy	-3008
▁deg	-3009
▁majority	-3010
ems	-3011
ift	-3012
▁Similar	-3013
▁Speak	-3014
din	-3015
ulf	-3016
▁permit	-3017
ched	-3018
▁constitute	-3019
pril	-3020
▁Aadhaar	-3021
▁official	-3022
unicip	-3023
▁allegations	-3024
▁exem	-3025
erala	-3026
▁Chairman	-3027
▁deb	-3028
▁balance	-3029
▁hospital	-3030
lish	-3031
▁permissible	-3032
▁approved	-3033
AC	-3034
ricity	-3035
▁duties	-3036
▁Hind	-3037
▁interim	-3038
sequently	-3039
▁few	-3040
ude	-3041
▁too	-3042
▁sk	-3043
▁side	-3044
▁apart	-3045
▁Services	-3046
▁equal	-3047
▁immediately	-3048
▁Assist	-3049
▁guidelines	-3050
▁Kerala	-3051
aff	-3052
▁dignity	-3053
▁research	-3054
▁claims	-3055
▁authorities	-3056
▁significant	-3057
tax	-3058
ches	-3059
▁pot	-3060
▁facilities	-3061
cle	-3062
▁enj	-3063
urder	-3064
▁default	-3065
▁reit	-3066
jar	-3067
reat	-3068
vement	-3069
▁Mah	-3070
▁proof	-3071
far	-3072
withstanding	-3073
▁Int	-3074
▁Fund	-3075
amil	-3076
pro	-3077
enance	-3078
▁arr	-3079
manent	-3080
RI	-3081
▁adj	-3082
atter	-3083
▁passing	-3084
▁aggrieved	-3085
▁religious	-3086
▁move	-3087
change	-3088
aging	-3089
▁Elect	-3090
▁doctrine	-3091
▁bind	-3092
▁April	-3093
eng	-3094
▁lands	-3095
▁Per	-3096
cent	-3097
rut	-3098
▁Punjab	-3099
▁activity	-3100
▁Fore	-3101
▁murder	-3102
▁cru	-3103
▁village	-3104
▁signed	-3105
ological	-3106
▁Ro	-3107
▁Intern	-3108
osure	-3109
▁Des	-3110
▁conver	-3111
▁admission	-3112
▁entry	-3113
.)	-3114
▁transferred	-3115
most	-3116
pite	-3117
▁pub	-3118
▁Scheduled	-3119
ulted	-3120
▁enacted	-3121
’,	-3122
▁sell	-3123
operative	-3124
▁commence	-3125
▁sexual	-3126
▁compliance	-3127
▁warrant	-3128
▁standards	-3129
▁speak	-3130
ills	-3131
sofar	-3132
achers	-3133
▁fresh	-3134
though	-3135
urned	-3136
▁dead	-3137
▁Ins	-3138
▁Having	-3139
▁March	-3140
▁resources	-3141
▁select	-3142
▁assistance	-3143
▁adverse	-3144
pta	-3145
hra	-3146
▁writing	-3147
▁wide	-3148
▁susp	-3149
▁educational	-3150
▁contra	-3151
▁purchase	-3152
▁Accordingly	-3153
bitral	-3154
▁arbitrator	-3155
▁From	-3156
▁doing	-3157
▁strong	-3158
▁fulf	-3159
oval	-3160
roup	-3161
▁Sur	-3162
▁div	-3163
vent	-3164
▁cur	-3165
ration	-3166
iring	-3167
▁Lok	-3168
▁ren	-3169
▁super	-3170
▁Though	-3171
▁led	-3172
▁arises	-3173
▁extended	-3174
enses	-3175
▁think	-3176
▁recommendations	-3177
▁CBI	-3178
▁mother	-3179
erce	-3180
▁got	-3181
▁ult	-3182
▁advanced	-3183
▁Trust	-3184
▁Mo	-3185
▁failure	-3186
ened	-3187
unities	-3188
▁identity	-3189
▁implementation	-3190
▁acquittal	-3191
augh	-3192
pecial	-3193
▁investment	-3194
▁live	-3195
▁alia	-3196
ancies	-3197
ocation	-3198
▁asked	-3199
ins	-3200
▁More	-3201
▁pers	-3202
▁factual	-3203
▁Princip	-3204
▁close	-3205
▁Invest	-3206
▁Sy	-3207
▁pop	-3208
▁parent	-3209
▁Advocate	-3210
▁religion	-3211
▁Regulation	-3212
cla	-3213
▁create	-3214
▁products	-3215
▁Ms	-3216
▁Other	-3217
▁enactment	-3218
▁funds	-3219
ordinate	-3220
rust	-3221
▁counter	-3222
▁themselves	-3223
AS	-3224
rop	-3225
▁why	-3226
▁Any	-3227
▁objection	-3228
▁obligation	-3229
ains	-3230
▁comput	-3231
▁remedy	-3232
using	-3233
▁interference	-3234
reement	-3235
▁incorpor	-3236
ti	-3237
▁want	-3238
▁net	-3239
▁belie	-3240
▁might	-3241
▁physical	-3242
▁denied	-3243
▁difference	-3244
▁old	-3245
▁asser	-3246
▁cognizance	-3247
▁occurrence	-3248
▁breach	-3249
▁likely	-3250
EC	-3251
aya	-3252
▁Exec	-3253
▁max	-3254
▁home	-3255
▁)	-3256
gal	-3257
▁nar	-3258
iet	-3259
rutin	-3260
▁US	-3261
▁indicated	-3262
imately	-3263
▁responsible	-3264
ruitment	-3265
Jud	-3266
▁mut	-3267
▁stands	-3268
▁AN	-3269
▁licence	-3270
▁portion	-3271
▁firm	-3272
▁better	-3273
inder	-3274
▁frame	-3275
▁keeping	-3276
▁Pras	-3277
▁wee	-3278
iting	-3279
▁aware	-3280
▁Sharma	-3281
▁actual	-3282
▁projects	-3283
▁fraud	-3284
▁Territ	-3285
▁charged	-3286
▁affected	-3287
▁Society	-3288
▁discipl	-3289
▁attention	-3290
▁concluded	-3291
▁aim	-3292
ishes	-3293
▁sol	-3294
▁Governments	-3295
unicipal	-3296
▁Panchay	-3297
ysis	-3298
▁initial	-3299
▁aver	-3300
▁duly	-3301
enditure	-3302
▁agency	-3303
▁Group	-3304
▁substance	-3305
adu	-3306
▁prosecutrix	-3307
amb	-3308
ugust	-3309
actions	-3310
)(	-3311
▁recovered	-3312
▁infrastructure	-3313
cember	-3314
▁testim	-3315
▁amend	-3316
▁continued	-3317
UR	-3318
▁innov	-3319
▁standard	-3320
▁enquiry	-3321
▁plot	-3322
istrar	-3323
▁around	-3324
amination	-3325
cri	-3326
▁Utt	-3327
▁Legislative	-3328
▁added	-3329
▁submits	-3330
indu	-3331
▁district	-3332
▁contrib	-3333
uation	-3334
▁dest	-3335
▁seek	-3336
▁empow	-3337
▁identified	-3338
▁Tra	-3339
▁litigation	-3340
▁regulations	-3341
▁mach	-3342
ED	-3343
aintenance	-3344
▁Ah	-3345
ening	-3346
▁enjoy	-3347
▁eligible	-3348
▁Rel	-3349
▁Prosec	-3350
▁distinction	-3351
▁strict	-3352
▁aid	-3353
▁times	-3354
▁article	-3355
▁administrative	-3356
uri	-3357
▁reve	-3358
irl	-3359
ney	-3360
estic	-3361
▁daugh	-3362
▁INDIA	-3363
▁Sal	-3364
▁shows	-3365
▁griev	-3366
▁bod	-3367
▁going	-3368
▁oblig	-3369
▁welfare	-3370
▁adequate	-3371
bor	-3372
▁department	-3373
aryana	-3374
lled	-3375
▁Maharashtra	-3376
▁removal	-3377
▁amounts	-3378
▁enable	-3379
▁Articles	-3380
▁draw	-3381
▁Tamil	-3382
▁gone	-3383
▁proced	-3384
▁sustain	-3385
▁increase	-3386
▁mechan	-3387
▁volunt	-3388
▁Cer	-3389
▁views	-3390
▁deposed	-3391
eb	-3392
▁transport	-3393
▁Institute	-3394
▁blood	-3395
▁associ	-3396
▁Management	-3397
iti	-3398
▁Sabha	-3399
▁academ	-3400
▁larger	-3401
▁Station	-3402
lly	-3403
▁sold	-3404
▁partn	-3405
qual	-3406
▁util	-3407
▁vari	-3408
▁International	-3409
portion	-3410
▁Association	-3411
▁supplied	-3412
▁emb	-3413
▁apparent	-3414
▁disposal	-3415
▁potential	-3416
▁School	-3417
aur	-3418
▁opined	-3419
▁defendants	-3420
ene	-3421
▁Pran	-3422
▁permanent	-3423
St	-3424
▁hands	-3425
▁invok	-3426
▁woman	-3427
▁United	-3428
▁Haryana	-3429
▁responsibility	-3430
▁Hindu	-3431
▁construed	-3432
verse	-3433
▁Gupta	-3434
▁discussed	-3435
▁efforts	-3436
▁Plan	-3437
▁Similarly	-3438
obal	-3439
▁gave	-3440
▁Ent	-3441
▁ign	-3442
▁wholly	-3443
▁arguments	-3444
▁works	-3445
▁August	-3446
pecially	-3447
▁mandatory	-3448
▁Ev	-3449
abilities	-3450
▁CO	-3451
licit	-3452
▁told	-3453
▁December	-3454
▁January	-3455
eness	-3456
▁void	-3457
▁Gujar	-3458
▁mineral	-3459
▁burd	-3460
ival	-3461
▁advert	-3462
▁whereas	-3463
▁objective	-3464
hai	-3465
▁During	-3466
aching	-3467
▁viz	-3468
aster	-3469
PA	-3470
▁Prasad	-3471
▁mortg	-3472
▁Agreement	-3473
stitu	-3474
osing	-3475
▁Expl	-3476
▁conflic	-3477
▁consultation	-3478
▁establishment	-3479
▁patient	-3480
iversities	-3481
▁lack	-3482
▁altern	-3483
outh	-3484
▁Policy	-3485
▁quot	-3486
▁individuals	-3487
▁commencement	-3488
▁Members	-3489
▁arrange	-3490
amm	-3491
▁English	-3492
oms	-3493
▁influ	-3494
▁necessarily	-3495
▁Deputy	-3496
▁scrutin	-3497
asing	-3498
▁Ministers	-3499
▁Mis	-3500
.-	-3501
▁Krish	-3502
▁reprodu	-3503
▁Registrar	-3504
In	-3505
ues	-3506
ush	-3507
▁sl	-3508
alid	-3509
▁Before	-3510
▁inspect	-3511
▁Uttar	-3512
▁expenditure	-3513
istic	-3514
▁Sar	-3515
▁especially	-3516
osite	-3517
▁committee	-3518
▁comes	-3519
▁Pranab	-3520
▁determining	-3521
▁takes	-3522
▁Nadu	-3523
▁offer	-3524
▁renew	-3525
▁bearing	-3526
▁accounts	-3527
▁ow	-3528
▁carrying	-3529
cluding	-3530
▁Gujarat	-3531
ouses	-3532
ptember	-3533
▁List	-3534
▁proceeded	-3535
▁facie	-3536
▁parts	-3537
onoun	-3538
rid	-3539
atic	-3540
asth	-3541
▁Centre	-3542
▁reflect	-3543
▁obv	-3544
atch	-3545
▁binding	-3546
▁Executive	-3547
▁contemplated	-3548
▁testimony	-3549
ivity	-3550
Judge	-3551
▁reached	-3552
▁remains	-3553
▁officers	-3554
held	-3555
▁Assistant	-3556
▁seniority	-3557
ST	-3558
▁facilit	-3559
onom	-3560
▁analysis	-3561
▁impact	-3562
▁repeal	-3563
▁pronoun	-3564
,00	-3565
▁virtue	-3566
▁employer	-3567
▁insurance	-3568
▁reports	-3569
▁completed	-3570
▁corro	-3571
▁transactions	-3572
▁Supp	-3573
▁render	-3574
▁articles	-3575
▁quas	-3576
▁meant	-3577
▁detention	-3578
▁explained	-3579
▁tele	-3580
▁retire	-3581
▁advance	-3582
▁wid	-3583
▁recording	-3584
▁lod	-3585
▁depri	-3586
racy	-3587
▁prob	-3588
▁explanation	-3589
▁professional	-3590
▁publ	-3591
▁achieve	-3592
▁Power	-3593
io	-3594
she	-3595
cted	-3596
▁mess	-3597
▁Land	-3598
▁engaged	-3599
▁extracted	-3600
person	-3601
▁College	-3602
▁reservation	-3603
▁Our	-3604
▁Bihar	-3605
▁prospect	-3606
▁emer	-3607
ott	-3608
▁enh	-3609
AY	-3610
▁vot	-3611
iation	-3612
▁sheet	-3613
▁connected	-3614
▁Let	-3615
ground	-3616
unction	-3617
ror	-3618
stood	-3619
▁undertaking	-3620
utor	-3621
▁Hospital	-3622
endency	-3623
▁servant	-3624
▁collected	-3625
uls	-3626
▁coll	-3627
▁controvers	-3628
▁pertaining	-3629
The	-3630
iable	-3631
▁past	-3632
▁Andhra	-3633
▁maintenance	-3634
cious	-3635
▁marks	-3636
▁excess	-3637
▁revenue	-3638
▁detailed	-3639
▁indicate	-3640
oot	-3641
▁Gand	-3642
▁leading	-3643
ateral	-3644
▁stating	-3645
holders	-3646
iary	-3647
rief	-3648
▁Rail	-3649
▁tried	-3650
▁Sol	-3651
▁line	-3652
ban	-3653
▁Accused	-3654
herein	-3655
▁source	-3656
▁II	-3657
▁seven	-3658
१०	-3659
▁fire	-3660
▁plaintiffs	-3661
▁Bal	-3662
▁motor	-3663
▁consequence	-3664
▁until	-3665
▁prejudice	-3666
bed	-3667
▁levy	-3668
▁advant	-3669
▁burden	-3670
clude	-3671
▁recommendation	-3672
▁Har	-3673
▁representation	-3674
▁friend	-3675
uction	-3676
▁arbitrary	-3677
adre	-3678
▁aud	-3679
▁belonging	-3680
▁ali	-3681
▁ide	-3682
▁ordin	-3683
▁coming	-3684
▁wea	-3685
▁gives	-3686
▁arrived	-3687
idd	-3688
▁evident	-3689
▁granting	-3690
▁Industrial	-3691
hest	-3692
endra	-3693
▁programme	-3694
▁recruitment	-3695
rate	-3696
▁air	-3697
▁units	-3698
▁corrobor	-3699
opal	-3700
▁liqu	-3701
▁Insurance	-3702
▁suggested	-3703
▁supported	-3704
oung	-3705
▁Ne	-3706
▁PAR	-3707
▁remo	-3708
▁Official	-3709
▁academic	-3710
▁proposition	-3711
▁recommended	-3712
▁Ver	-3713
▁scale	-3714
▁reported	-3715
▁September	-3716
▁developed	-3717
▁loan	-3718
lord	-3719
itude	-3720
▁gover	-3721
illing	-3722
▁expected	-3723
▁referring	-3724
▁ris	-3725
▁hard	-3726
▁governed	-3727
▁July	-3728
▁unit	-3729
utions	-3730
▁Village	-3731
▁introduced	-3732
ATION	-3733
▁citizen	-3734
▁equality	-3735
▁clauses	-3736
▁uncon	-3737
ara	-3738
elt	-3739
▁NO	-3740
state	-3741
▁produce	-3742
▁notified	-3743
ariff	-3744
gment	-3745
dy	-3746
▁expert	-3747
▁rather	-3748
▁regards	-3749
▁published	-3750
hereinafter	-3751
▁sup	-3752
▁unre	-3753
▁Contract	-3754
onst	-3755
▁ascer	-3756
▁served	-3757
▁Project	-3758
▁Kh	-3759
▁invalid	-3760
▁started	-3761
▁practices	-3762
ji	-3763
inery	-3764
ication	-3765
▁understood	-3766
▁secured	-3767
▁programmes	-3768
▁buy	-3769
▁Some	-3770
ipur	-3771
ruary	-3772
ioned	-3773
ebruary	-3774
▁distingu	-3775
▁Ann	-3776
▁deduction	-3777
asm	-3778
▁initiated	-3779
▁exemption	-3780
▁thought	-3781
▁Gandhi	-3782
▁Office	-3783
put	-3784
▁Prof	-3785
ulate	-3786
▁hy	-3787
olved	-3788
▁Revenue	-3789
SI	-3790
▁option	-3791
▁safety	-3792
ables	-3793
ression	-3794
▁expenses	-3795
endant	-3796
▁convey	-3797
tin	-3798
▁privile	-3799
▁Mal	-3800
▁cheque	-3801
▁Ac	-3802
eech	-3803
▁prevail	-3804
▁controversy	-3805
▁sw	-3806
▁corporate	-3807
▁.,	-3808
▁Red	-3809
▁degree	-3810
▁neglig	-3811
▁Technology	-3812
▁categories	-3813
▁completion	-3814
▁Do	-3815
▁Bhar	-3816
rug	-3817
pped	-3818
▁Pur	-3819
▁crores	-3820
▁amongst	-3821
▁prima	-3822
▁Sc	-3823
asthan	-3824
phasis	-3825
▁site	-3826
▁perusal	-3827
▁distinct	-3828
CC	-3829
▁girl	-3830
▁communication	-3831
▁der	-3832
▁gener	-3833
▁wages	-3834
▁sustained	-3835
▁Bengal	-3836
▁Chandra	-3837
▁confession	-3838
▁maintained	-3839
▁profession	-3840
▁settlement	-3841
▁history	-3842
▁example	-3843
▁Panchayat	-3844
rises	-3845
▁using	-3846
▁Amendment	-3847
,000	-3848
▁hon	-3849
hood	-3850
▁choice	-3851
▁actually	-3852
▁undertaken	-3853
▁daughter	-3854
▁generally	-3855
▁strength	-3856
▁energ	-3857
▁reserved	-3858
▁Member	-3859
appellant	-3860
▁ordinary	-3861
▁cancell	-3862
ET	-3863
▁diss	-3864
▁extre	-3865
▁men	-3866
▁calc	-3867
▁envis	-3868
▁names	-3869
▁percent	-3870
cial	-3871
ading	-3872
ancing	-3873
▁places	-3874
atio	-3875
▁Both	-3876
▁sections	-3877
▁faith	-3878
▁red	-3879
▁spir	-3880
▁delivery	-3881
▁flow	-3882
▁substantive	-3883
▁Rights	-3884
▁living	-3885
▁Pen	-3886
▁strengthe	-3887
EM	-3888
ratic	-3889
▁stri	-3890
▁avoid	-3891
▁presumption	-3892
▁Madh	-3893
▁prayer	-3894
hind	-3895
▁Madras	-3896
▁bodies	-3897
▁young	-3898
▁demonst	-3899
▁commerce	-3900
porary	-3901
▁Assess	-3902
▁deposited	-3903
▁Form	-3904
▁forms	-3905
▁scient	-3906
▁auction	-3907
▁expressly	-3908
▁agricultural	-3909
▁Cast	-3910
▁join	-3911
▁rates	-3912
▁sentenced	-3913
३०	-3914
▁AP	-3915
▁Ph	-3916
▁cash	-3917
▁February	-3918
▁proposal	-3919
▁refund	-3920
▁Account	-3921
▁Evidence	-3922
▁Speaker	-3923
▁disclosed	-3924
vere	-3925
▁coal	-3926
▁became	-3927
▁deciding	-3928
▁former	-3929
▁restrictions	-3930
▁ON	-3931
▁labour	-3932
▁Sect	-3933
▁Case	-3934
▁search	-3935
esides	-3936
▁exped	-3937
▁teachers	-3938
▁obtaining	-3939
▁legit	-3940
▁West	-3941
herent	-3942
▁message	-3943
adav	-3944
▁dise	-3945
▁room	-3946
ousing	-3947
▁across	-3948
▁energy	-3949
▁errone	-3950
▁Finance	-3951
▁Sw	-3952
mical	-3953
dom	-3954
▁Ash	-3955
▁instead	-3956
▁democracy	-3957
▁forth	-3958
▁domestic	-3959
▁principal	-3960
▁unable	-3961
▁upheld	-3962
▁Air	-3963
ran	-3964
▁Stat	-3965
▁Article	-3966
▁receive	-3967
▁convict	-3968
▁disqual	-3969
▁Go	-3970
▁Pal	-3971
▁rural	-3972
▁Smt	-3973
State	-3974
▁Sat	-3975
icide	-3976
▁Hindi	-3977
▁mil	-3978
▁Stand	-3979
▁thereto	-3980
▁ST	-3981
irth	-3982
▁inclus	-3983
▁quash	-3984
▁attack	-3985
▁obtain	-3986
▁Collect	-3987
▁contempt	-3988
▁discrimination	-3989
cto	-3990
▁June	-3991
▁PART	-3992
▁banks	-3993
▁attrib	-3994
pees	-3995
izing	-3996
ovable	-3997
▁schemes	-3998
▁normal	-3999
operation	-4000
▁distribution	-4001
▁cut	-4002
▁economy	-4003
▁extra	-4004
mentioned	-4005
▁disputed	-4006
▁Companies	-4007
▁eye	-4008
▁foc	-4009
▁threat	-4010
▁reiterated	-4011
ctober	-4012
▁college	-4013
▁contentions	-4014
PL	-4015
▁landlord	-4016
▁adjudication	-4017
▁Rajasthan	-4018
ederal	-4019
▁values	-4020
▁employed	-4021
▁multip	-4022
▁undergo	-4023
▁vacancies	-4024
▁rig	-4025
▁functioning	-4026
▁highl	-4027
▁global	-4028
▁primary	-4029
line	-4030
owry	-4031
▁Rao	-4032
▁peace	-4033
▁mental	-4034
els	-4035
▁despite	-4036
aking	-4037
▁Prog	-4038
▁Inspect	-4039
▁affairs	-4040
▁Municipal	-4041
▁completely	-4042
▁objections	-4043
▁ing	-4044
▁Khan	-4045
IV	-4046
▁SE	-4047
▁reduced	-4048
inal	-4049
▁situated	-4050
▁encour	-4051
▁possess	-4052
uate	-4053
▁Day	-4054
uven	-4055
eared	-4056
▁holder	-4057
▁spirit	-4058
▁workers	-4059
ama	-4060
▁advice	-4061
▁acquitted	-4062
wan	-4063
▁understand	-4064
▁independence	-4065
▁begin	-4066
▁summ	-4067
▁Every	-4068
▁impose	-4069
▁maximum	-4070
▁version	-4071
umbai	-4072
▁stood	-4073
▁governance	-4074
▁extreme	-4075
▁recognized	-4076
▁measure	-4077
▁Home	-4078
▁discuss	-4079
▁disclosure	-4080
▁AND	-4081
▁seized	-4082
imal	-4083
▁register	-4084
▁la	-4085
▁behind	-4086
▁attract	-4087
▁Che	-4088
▁eas	-4089
▁tot	-4090
▁manif	-4091
▁respectively	-4092
azet	-4093
▁background	-4094
hy	-4095
▁ratio	-4096
ception	-4097
▁investig	-4098
▁advantage	-4099
▁described	-4100
▁died	-4101
▁oral	-4102
▁greater	-4103
cription	-4104
▁injured	-4105
ina	-4106
stant	-4107
▁Nove	-4108
▁quite	-4109
▁limits	-4110
▁November	-4111
▁Republic	-4112
▁exception	-4113
CO	-4114
▁incons	-4115
▁lower	-4116
obile	-4117
▁suitable	-4118
▁retros	-4119
▁alter	-4120
▁stru	-4121
▁alternative	-4122
iger	-4123
course	-4124
▁operate	-4125
rig	-4126
▁po	-4127
▁applies	-4128
▁Health	-4129
hent	-4130
apers	-4131
▁inconsist	-4132
▁operations	-4133
▁bon	-4134
▁Devi	-4135
▁furnish	-4136
▁returned	-4137
asmuch	-4138
ita	-4139
▁oil	-4140
▁Bang	-4141
set	-4142
▁serve	-4143
▁compre	-4144
▁suffered	-4145
eel	-4146
nces	-4147
rain	-4148
▁SCR	-4149
▁page	-4150
▁shop	-4151
▁Mumbai	-4152
▁elected	-4153
▁[(	-4154
▁salary	-4155
▁termination	-4156
gn	-4157
▁Aff	-4158
▁Penal	-4159
▁Labour	-4160
▁acceptance	-4161
▁retirement	-4162
rs	-4163
▁Li	-4164
ream	-4165
▁Reference	-4166
▁consequences	-4167
▁enough	-4168
▁intent	-4169
▁disability	-4170
▁cert	-4171
▁Nagar	-4172
▁afore	-4173
▁thing	-4174
▁purchas	-4175
▁confidence	-4176
▁often	-4177
▁Date	-4178
egu	-4179
▁Ordin	-4180
▁temple	-4181
rap	-4182
HI	-4183
▁corru	-4184
▁promote	-4185
▁identification	-4186
▁inherent	-4187
▁borrow	-4188
▁appointments	-4189
',	-4190
No	-4191
▁Nag	-4192
anda	-4193
▁Inter	-4194
ades	-4195
▁conflict	-4196
▁Principal	-4197
▁understanding	-4198
▁guilt	-4199
urities	-4200
▁parents	-4201
▁Ob	-4202
▁Super	-4203
▁remaining	-4204
▁population	-4205
sy	-4206
▁forest	-4207
▁;	-4208
▁spot	-4209
▁inser	-4210
vt	-4211
▁Bu	-4212
▁October	-4213
▁Financial	-4214
ME	-4215
▁allotment	-4216
▁TO	-4217
▁points	-4218
▁Prosecutor	-4219
▁Explanation	-4220
▁classification	-4221
▁things	-4222
▁damages	-4223
▁released	-4224
▁equally	-4225
▁criter	-4226
▁Pe	-4227
▁press	-4228
▁prescrib	-4229
▁expiry	-4230
▁situations	-4231
ier	-4232
▁recognised	-4233
dis	-4234
▁fram	-4235
▁allegation	-4236
▁intercourse	-4237
ponse	-4238
▁sales	-4239
▁modern	-4240
▁claimant	-4241
▁Constitutional	-4242
ula	-4243
▁results	-4244
▁electricity	-4245
ply	-4246
uss	-4247
nother	-4248
▁taxes	-4249
▁Can	-4250
▁Once	-4251
▁contrad	-4252
AB	-4253
yan	-4254
▁arbitral	-4255
▁stipulated	-4256
▁cadre	-4257
▁profits	-4258
▁relates	-4259
▁arrested	-4260
▁protected	-4261
▁subsid	-4262
▁Moreover	-4263
▁appeared	-4264
▁Post	-4265
▁regulation	-4266
utation	-4267
hens	-4268
▁caste	-4269
▁Another	-4270
▁deep	-4271
▁Private	-4272
▁Char	-4273
▁Road	-4274
ousand	-4275
▁safegu	-4276
road	-4277
esting	-4278
▁norms	-4279
▁events	-4280
▁addressed	-4281
११	-4282
▁satisfaction	-4283
ayan	-4284
respond	-4285
▁’	-4286
alf	-4287
mittees	-4288
▁Program	-4289
▁NE	-4290
isite	-4291
▁remained	-4292
kash	-4293
▁Excell	-4294
▁terror	-4295
▁station	-4296
▁Petitioner	-4297
▁achieved	-4298
▁pendency	-4299
▁enforcement	-4300
▁recent	-4301
▁machinery	-4302
ark	-4303
▁weight	-4304
ilateral	-4305
oj	-4306
oses	-4307
▁reply	-4308
▁conven	-4309
ervation	-4310
▁pursuant	-4311
AG	-4312
▁Jag	-4313
▁dying	-4314
▁opportunities	-4315
▁Trib	-4316
▁proportion	-4317
▁conclusions	-4318
▁wa	-4319
▁feel	-4320
▁host	-4321
▁instructions	-4322
▁factor	-4323
▁removed	-4324
▁dismissal	-4325
▁sil	-4326
▁reform	-4327
▁certainly	-4328
▁effic	-4329
▁profit	-4330
▁contains	-4331
iss	-4332
▁farm	-4333
▁categor	-4334
▁typ	-4335
▁bo	-4336
ples	-4337
▁lie	-4338
▁miscon	-4339
▁install	-4340
ey	-4341
let	-4342
▁tend	-4343
▁nomin	-4344
▁Notification	-4345
▁contribution	-4346
aded	-4347
▁Sam	-4348
▁mandate	-4349
▁Collector	-4350
▁study	-4351
▁suffer	-4352
▁ordered	-4353
▁possibility	-4354
rog	-4355
▁Joint	-4356
▁brief	-4357
▁draft	-4358
▁absolutely	-4359
ann	-4360
▁mortgage	-4361
▁restriction	-4362
▁rise	-4363
bted	-4364
ING	-4365
▁Gov	-4366
lling	-4367
▁finally	-4368
▁problem	-4369
▁although	-4370
▁appreciate	-4371
▁assail	-4372
▁manufacture	-4373
▁Pet	-4374
▁tri	-4375
▁Prot	-4376
▁rape	-4377
▁creditor	-4378
▁furnished	-4379
▁subsequently	-4380
▁visit	-4381
iency	-4382
▁Tiger	-4383
▁elabor	-4384
▁current	-4385
AM	-4386
▁annual	-4387
▁simple	-4388
▁exercising	-4389
▁Pand	-4390
elling	-4391
ieties	-4392
▁assigned	-4393
eav	-4394
▁Entry	-4395
▁compon	-4396
ager	-4397
▁Mus	-4398
▁victims	-4399
▁low	-4400
uting	-4401
ka	-4402
▁Pvt	-4403
▁lost	-4404
▁speech	-4405
artments	-4406
▁inasmuch	-4407
▁eval	-4408
ourses	-4409
▁System	-4410
▁association	-4411
rown	-4412
▁ele	-4413
▁CrPC	-4414
▁phot	-4415
▁Cust	-4416
appro	-4417
▁Directors	-4418
ique	-4419
▁Work	-4420
▁risk	-4421
▁unn	-4422
above	-4423
▁truth	-4424
▁transp	-4425
▁confirmed	-4426
▁extension	-4427
▁heart	-4428
▁da	-4429
ething	-4430
▁Control	-4431
▁network	-4432
▁problems	-4433
itness	-4434
▁mode	-4435
▁worth	-4436
struction	-4437
▁Ja	-4438
▁card	-4439
▁equity	-4440
▁response	-4441
ns	-4442
▁xx	-4443
▁Human	-4444
▁abuse	-4445
▁Prime	-4446
▁innoc	-4447
omething	-4448
▁getting	-4449
▁manifest	-4450
▁territory	-4451
▁endeav	-4452
▁authent	-4453
▁necessity	-4454
▁rupees	-4455
leges	-4456
azette	-4457
examination	-4458
▁irre	-4459
▁accomp	-4460
▁release	-4461
▁doctor	-4462
▁offered	-4463
▁particulars	-4464
right	-4465
▁pred	-4466
anging	-4467
olid	-4468
▁Agricult	-4469
▁Head	-4470
▁reveal	-4471
▁Industries	-4472
▁Mot	-4473
ayment	-4474
▁disciplinary	-4475
▁log	-4476
umer	-4477
▁weeks	-4478
▁consequent	-4479
▁Yadav	-4480
▁agent	-4481
▁affirm	-4482
▁answered	-4483
▁interpreted	-4484
PS	-4485
icies	-4486
▁enhance	-4487
▁tradition	-4488
CE	-4489
▁reasoning	-4490
▁dowry	-4491
▁Application	-4492
achal	-4493
encing	-4494
▁asset	-4495
▁pleaded	-4496
▁Kal	-4497
▁key	-4498
▁scrutiny	-4499
▁industries	-4500
arged	-4501
▁Person	-4502
elled	-4503
▁attached	-4504
▁recognition	-4505
pto	-4506
▁impart	-4507
▁ownership	-4508
▁hereinabove	-4509
▁quar	-4510
▁alt	-4511
▁highest	-4512
▁Sa	-4513
asonable	-4514
nam	-4515
▁mark	-4516
▁Shiv	-4517
soever	-4518
▁systems	-4519
▁representatives	-4520
▁Bl	-4521
▁Mon	-4522
anger	-4523
▁birth	-4524
▁injunction	-4525
▁soon	-4526
▁owners	-4527
▁changes	-4528
▁quashed	-4529
▁correspond	-4530
▁issuing	-4531
vironment	-4532
▁features	-4533
prises	-4534
▁involving	-4535
▁consistent	-4536
▁driver	-4537
▁confident	-4538
▁creditors	-4539
▁increased	-4540
▁inspection	-4541
ourn	-4542
▁workmen	-4543
▁interested	-4544
stitutional	-4545
tle	-4546
orney	-4547
▁pack	-4548
▁raise	-4549
▁defici	-4550
liminary	-4551
▁presented	-4552
▁mill	-4553
▁Research	-4554
▁indicates	-4555
▁Award	-4556
▁forum	-4557
▁Employ	-4558
▁almost	-4559
▁confer	-4560
▁publication	-4561
▁Dh	-4562
athi	-4563
▁art	-4564
▁exchange	-4565
▁partnership	-4566
ape	-4567
▁Gur	-4568
eated	-4569
▁region	-4570
▁amendments	-4571
MC	-4572
▁voluntary	-4573
▁Arbitration	-4574
▁Jain	-4575
▁really	-4576
▁Ven	-4577
▁uns	-4578
▁export	-4579
▁superv	-4580
▁insofar	-4581
▁suc	-4582
▁formal	-4583
▁participation	-4584
MS	-4585
cast	-4586
▁cited	-4587
▁entertain	-4588
▁guaranteed	-4589
▁correctness	-4590
OS	-4591
ivered	-4592
▁tariff	-4593
wari	-4594
ength	-4595
ighted	-4596
▁schedule	-4597
▁drug	-4598
▁falls	-4599
▁plaint	-4600
▁improve	-4601
▁agencies	-4602
▁rou	-4603
overy	-4604
pping	-4605
▁levels	-4606
comp	-4607
▁grad	-4608
vision	-4609
ada	-4610
▁Organ	-4611
▁rational	-4612
▁thousand	-4613
▁enforce	-4614
▁unlaw	-4615
rep	-4616
▁none	-4617
▁succeed	-4618
▁thereon	-4619
▁felt	-4620
▁analy	-4621
PE	-4622
▁deserv	-4623
▁latter	-4624
▁resulted	-4625
irs	-4626
ij	-4627
▁Of	-4628
hibit	-4629
▁overr	-4630
▁tender	-4631
▁paragraphs	-4632
▁element	-4633
▁regarded	-4634
▁Now	-4635
▁excluded	-4636
▁properly	-4637
▁TA	-4638
▁San	-4639
,000/-	-4640
clause	-4641
▁deliber	-4642
▁delivered	-4643
lack	-4644
▁rank	-4645
charge	-4646
▁something	-4647
rade	-4648
ensive	-4649
▁agreements	-4650
ump	-4651
▁Tw	-4652
▁selected	-4653
enty	-4654
ship	-4655
▁bag	-4656
going	-4657
sheet	-4658
enture	-4659
▁observation	-4660
▁subjected	-4661
▁considerations	-4662
ronic	-4663
▁length	-4664
DR	-4665
HA	-4666
rose	-4667
▁causing	-4668
endent	-4669
▁prayed	-4670
▁democratic	-4671
inks	-4672
▁devi	-4673
▁ordinarily	-4674
▁incorporated	-4675
NA	-4676
▁Madhya	-4677
▁scientific	-4678
▁Consequently	-4679
▁Mod	-4680
utory	-4681
▁comb	-4682
▁Environment	-4683
rd	-4684
▁.[	-4685
▁job	-4686
▁cruel	-4687
▁entity	-4688
▁parame	-4689
▁issuance	-4690
▁collection	-4691
ikh	-4692
▁maintainable	-4693
▁z	-4694
pic	-4695
dul	-4696
▁Cor	-4697
▁Shah	-4698
▁lakhs	-4699
▁Vice	-4700
▁arose	-4701
ilt	-4702
▁Bas	-4703
▁board	-4704
▁actions	-4705
amy	-4706
aram	-4707
▁confirm	-4708
▁imported	-4709
▁staff	-4710
▁purchased	-4711
▁poor	-4712
▁Hy	-4713
▁Ali	-4714
▁suits	-4715
▁instrument	-4716
know	-4717
ront	-4718
utta	-4719
▁integr	-4720
▁refers	-4721
▁successful	-4722
▁hours	-4723
▁reach	-4724
▁addu	-4725
▁Ahmed	-4726
▁applying	-4727
▁incurred	-4728
▁Chh	-4729
▁Sah	-4730
erate	-4731
▁grievance	-4732
▁policies	-4733
iling	-4734
CL	-4735
ert	-4736
▁fide	-4737
atever	-4738
▁creation	-4739
▁erroneous	-4740
▁Dist	-4741
▁acting	-4742
▁Excellency	-4743
▁subordinate	-4744
▁Cap	-4745
▁conscious	-4746
▁damage	-4747
▁omission	-4748
sue	-4749
▁seeks	-4750
▁contracts	-4751
▁pleadings	-4752
▁imposition	-4753
ones	-4754
▁affirmed	-4755
▁challenging	-4756
▁assign	-4757
▁suffering	-4758
▁concurrent	-4759
▁cou	-4760
▁fig	-4761
▁pec	-4762
▁letters	-4763
respondent	-4764
▁opt	-4765
▁Circ	-4766
▁wish	-4767
▁totally	-4768
▁Inspector	-4769
▁Territory	-4770
▁approached	-4771
▁mag	-4772
▁tas	-4773
aches	-4774
habil	-4775
▁Axad	-4776
▁Gazette	-4777
▁strictly	-4778
▁ultimately	-4779
▁defect	-4780
▁assembly	-4781
▁requested	-4782
III	-4783
▁esc	-4784
▁litig	-4785
▁Certificate	-4786
▁Bus	-4787
▁pan	-4788
▁fell	-4789
▁plain	-4790
▁speed	-4791
▁secure	-4792
▁directing	-4793
▁examining	-4794
my	-4795
orous	-4796
while	-4797
▁violence	-4798
▁notwithstanding	-4799
▁upto	-4800
▁text	-4801
▁Election	-4802
▁allotted	-4803
ni	-4804
▁overall	-4805
▁speaking	-4806
▁Commercial	-4807
▁preliminary	-4808
UL	-4809
▁AS	-4810
▁Far	-4811
▁circumstance	-4812
▁formed	-4813
▁bear	-4814
▁mutual	-4815
▁Parliamentary	-4816
▁link	-4817
▁manufacturing	-4818
GC	-4819
▁prison	-4820
▁early	-4821
athe	-4822
▁fees	-4823
▁remand	-4824
▁Att	-4825
▁ingred	-4826
▁unlawful	-4827
▁resulting	-4828
▁usu	-4829
▁running	-4830
▁owned	-4831
▁suicide	-4832
▁requisite	-4833
......	-4834
▁wishes	-4835
▁environmental	-4836
rel	-4837
▁Dev	-4838
ourth	-4839
▁prem	-4840
US	-4841
▁Memon	-4842
▁Affairs	-4843
▁lodged	-4844
▁entrust	-4845
▁criteria	-4846
▁parameters	-4847
▁AC	-4848
▁moved	-4849
▁books	-4850
▁empowered	-4851
▁processing	-4852
▁Will	-4853
▁temporary	-4854
udh	-4855
▁qua	-4856
▁ambit	-4857
▁sound	-4858
▁legally	-4859
▁sam	-4860
▁crore	-4861
▁longer	-4862
▁Resident	-4863
▁confined	-4864
yal	-4865
▁Leave	-4866
ung	-4867
▁rare	-4868
▁fails	-4869
▁central	-4870
havi	-4871
▁lawy	-4872
ricted	-4873
itoring	-4874
▁hereby	-4875
▁CON	-4876
▁paper	-4877
▁representative	-4878
arth	-4879
▁immovable	-4880
▁promis	-4881
--------	-4882
▁withdraw	-4883
▁residential	-4884
▁pros	-4885
▁lives	-4886
uvenile	-4887
▁indeed	-4888
▁guarantee	-4889
andum	-4890
▁seems	-4891
▁channel	-4892
▁objects	-4893
▁exclusive	-4894
▁mechanism	-4895
▁generation	-4896
▁allowing	-4897
anas	-4898
▁engine	-4899
▁implic	-4900
▁investigating	-4901
▁ever	-4902
▁acted	-4903
orandum	-4904
▁patent	-4905
▁whatsoever	-4906
▁lap	-4907
amily	-4908
orial	-4909
▁Bhag	-4910
▁autom	-4911
▁named	-4912
wa	-4913
stituent	-4914
▁Engineer	-4915
▁advocate	-4916
uge	-4917
prene	-4918
▁acknow	-4919
▁Protection	-4920
▁negligence	-4921
▁manufacturer	-4922
ja	-4923
ami	-4924
▁SEBI	-4925
inking	-4926
▁Class	-4927
▁CPC	-4928
▁adjust	-4929
▁Judgment	-4930
▁framework	-4931
▁accru	-4932
▁handed	-4933
rah	-4934
▁PO	-4935
oured	-4936
▁rein	-4937
▁irres	-4938
▁exists	-4939
reprene	-4940
usion	-4941
▁Abdul	-4942
▁Mohan	-4943
▁conce	-4944
▁eviction	-4945
▁Paragraph	-4946
▁hereunder	-4947
▁objectives	-4948
App	-4949
▁My	-4950
▁statutes	-4951
▁PC	-4952
▁Up	-4953
▁comprom	-4954
▁immediate	-4955
▁Mand	-4956
▁capable	-4957
▁exclusion	-4958
dh	-4959
eric	-4960
▁surv	-4961
▁Water	-4962
▁estate	-4963
▁Superint	-4964
▁substitut	-4965
▁significance	-4966
garh	-4967
▁renewal	-4968
hend	-4969
▁performed	-4970
▁pursuance	-4971
▁Build	-4972
▁classes	-4973
▁strateg	-4974
▁friendly	-4975
▁reproduced	-4976
▁Conf	-4977
▁check	-4978
▁vehicles	-4979
hensive	-4980
omen	-4981
otel	-4982
▁Calc	-4983
▁rival	-4984
▁passage	-4985
minent	-4986
▁pleas	-4987
ques	-4988
▁lib	-4989
▁influence	-4990
);	-4991
ocates	-4992
udence	-4993
▁willing	-4994
▁Reddy	-4995
lo	-4996
▁Das	-4997
▁laun	-4998
ulates	-4999
▁Design	-5000
▁creating	-5001
▁thereunder	-5002
▁mal	-5003
▁grave	-5004
▁Excise	-5005
▁legitimate	-5006
ARD	-5007
ots	-5008
▁associated	-5009
▁sustainable	-5010
ev	-5011
Ind	-5012
▁gains	-5013
aul	-5014
bel	-5015
eet	-5016
▁contents	-5017
▁Para	-5018
▁else	-5019
▁daily	-5020
▁founded	-5021
▁violative	-5022
▁implemented	-5023
ett	-5024
▁half	-5025
▁erred	-5026
▁confessional	-5027
▁UN	-5028
▁ed	-5029
uous	-5030
▁Full	-5031
▁items	-5032
▁vital	-5033
▁autonom	-5034
▁Tri	-5035
▁seat	-5036
▁deleg	-5037
▁satisfy	-5038
▁retrospective	-5039
As	-5040
▁Agg	-5041
▁courses	-5042
▁purchaser	-5043
ayuk	-5044
free	-5045
▁trib	-5046
▁bench	-5047
▁gross	-5048
▁genu	-5049
▁ship	-5050
icitor	-5051
regular	-5052
▁ensuring	-5053
RO	-5054
▁gain	-5055
▁defines	-5056
▁Anr	-5057
▁facility	-5058
▁attracted	-5059
▁belief	-5060
▁disease	-5061
▁containing	-5062
▁Notwithstanding	-5063
exure	-5064
▁Child	-5065
▁integrity	-5066
yam	-5067
▁appreciation	-5068
TE	-5069
ankar	-5070
▁motive	-5071
▁located	-5072
adh	-5073
iform	-5074
▁refused	-5075
▁authorised	-5076
aneous	-5077
▁eight	-5078
▁indirect	-5079
▁Non	-5080
itary	-5081
▁Reliance	-5082
▁inference	-5083
▁Arbitrator	-5084
▁stor	-5085
▁team	-5086
▁notes	-5087
▁Prom	-5088
ometric	-5089
▁poll	-5090
▁residence	-5091
▁prop	-5092
▁Officers	-5093
▁standing	-5094
ients	-5095
▁cong	-5096
etings	-5097
oubted	-5098
ishment	-5099
▁foundation	-5100
uc	-5101
▁simply	-5102
▁availability	-5103
▁),	-5104
▁safe	-5105
▁sens	-5106
▁type	-5107
▁disclose	-5108
▁procedural	-5109
▁arrangement	-5110
▁MS	-5111
▁tal	-5112
▁core	-5113
levant	-5114
▁Apart	-5115
▁distance	-5116
▁positive	-5117
▁Bab	-5118
▁Reserve	-5119
AI	-5120
▁summon	-5121
▁Solicitor	-5122
EP	-5123
istics	-5124
▁South	-5125
▁barred	-5126
▁recon	-5127
▁rigorous	-5128
istan	-5129
▁equip	-5130
▁causes	-5131
▁Calcutta	-5132
▁withdrawal	-5133
▁afford	-5134
▁believe	-5135
▁consumer	-5136
▁qualification	-5137
avy	-5138
just	-5139
▁Aud	-5140
isory	-5141
▁insp	-5142
▁sister	-5143
▁married	-5144
▁Respondents	-5145
▁cooperation	-5146
▁SH	-5147
haviour	-5148
▁marked	-5149
▁complex	-5150
▁groups	-5151
▁normally	-5152
▁envisaged	-5153
oral	-5154
▁Vol	-5155
urring	-5156
▁media	-5157
holding	-5158
▁compar	-5159
.[	-5160
isting	-5161
▁filled	-5162
▁Plaintiff	-5163
▁prohibition	-5164
▁Administrative	-5165
amation	-5166
▁harass	-5167
▁compound	-5168
▁learning	-5169
rising	-5170
▁adopt	-5171
▁singh	-5172
▁whatever	-5173
▁increasing	-5174
▁involvement	-5175
AD	-5176
Ch	-5177
osh	-5178
unct	-5179
▁Muslim	-5180
▁explain	-5181
▁claiming	-5182
▁Aggrieved	-5183
▁separately	-5184
-0	-5185
ibly	-5186
▁struck	-5187
mi	-5188
requ	-5189
▁Kish	-5190
▁needed	-5191
▁prohibited	-5192
▁conducting	-5193
▁Also	-5194
▁Allah	-5195
▁modified	-5196
▁Af	-5197
unior	-5198
▁worked	-5199
▁Acts	-5200
▁Review	-5201
▁efficient	-5202
▁pain	-5203
▁Forest	-5204
▁Transport	-5205
bur	-5206
oice	-5207
roll	-5208
▁King	-5209
▁inqu	-5210
▁lies	-5211
▁sitting	-5212
▁Ordinance	-5213
▁Kash	-5214
▁seiz	-5215
▁concerning	-5216
▁alongwith	-5217
▁occurred	-5218
▁justification	-5219
asw	-5220
body	-5221
orship	-5222
▁Their	-5223
▁Ext	-5224
▁restra	-5225
▁sectors	-5226
▁Interest	-5227
▁operational	-5228
fe	-5229
undred	-5230
▁active	-5231
▁distur	-5232
uro	-5233
▁Arun	-5234
▁iron	-5235
oubtedly	-5236
▁BC	-5237
▁night	-5238
▁Family	-5239
▁effectively	-5240
ider	-5241
▁incl	-5242
▁surre	-5243
▁debtor	-5244
▁quoted	-5245
▁culture	-5246
▁sanctioned	-5247
▁bul	-5248
▁Kam	-5249
▁dil	-5250
▁pure	-5251
▁Reason	-5252
▁payments	-5253
▁Universities	-5254
▁manufactured	-5255
ila	-5256
▁circular	-5257
▁consumers	-5258
▁cul	-5259
▁arms	-5260
▁viti	-5261
▁whereby	-5262
▁throughout	-5263
▁Insofar	-5264
▁securities	-5265
comm	-5266
▁quantity	-5267
RE	-5268
ets	-5269
▁nos	-5270
estion	-5271
▁explos	-5272
rees	-5273
etent	-5274
▁comply	-5275
▁instituted	-5276
१२	-5277
where	-5278
▁Business	-5279
▁complied	-5280
▁Programme	-5281
uity	-5282
antly	-5283
othes	-5284
▁England	-5285
▁id	-5286
▁Dig	-5287
▁TADA	-5288
achment	-5289
▁distrib	-5290
▁uniform	-5291
▁restrict	-5292
▁competence	-5293
▁contractor	-5294
▁danger	-5295
▁framing	-5296
▁cultural	-5297
irms	-5298
ranch	-5299
▁little	-5300
▁Statement	-5301
▁facilitate	-5302
grad	-5303
▁Dec	-5304
▁obviously	-5305
▁Appellants	-5306
▁unreasonable	-5307
cond	-5308
ians	-5309
▁Mohd	-5310
▁Besides	-5311
▁Prakash	-5312
▁Railway	-5313
▁movement	-5314
▁clarified	-5315
▁Page	-5316
▁task	-5317
▁vill	-5318
▁Krishna	-5319
▁primarily	-5320
▁innovation	-5321
mir	-5322
atal	-5323
▁Dhar	-5324
▁rever	-5325
▁useful	-5326
▁prosper	-5327
▁asserted	-5328
▁Defendant	-5329
▁DEL	-5330
▁harmon	-5331
▁doctors	-5332
ulty	-5333
▁Americ	-5334
▁subxad	-5335
▁entirely	-5336
lex	-5337
▁huge	-5338
▁minerals	-5339
▁withdrawn	-5340
▁sq	-5341
orse	-5342
▁Welfare	-5343
▁taxation	-5344
▁advertise	-5345
compl	-5346
▁contend	-5347
▁Id	-5348
.....	-5349
▁proc	-5350
▁exceeding	-5351
▁restricted	-5352
ili	-5353
ocks	-5354
▁bond	-5355
tinent	-5356
▁fear	-5357
▁judic	-5358
▁emphasis	-5359
▁relative	-5360
aren	-5361
▁You	-5362
redit	-5363
▁Sign	-5364
▁papers	-5365
▁acquire	-5366
▁crucial	-5367
▁Ed	-5368
▁Sun	-5369
hanced	-5370
paration	-5371
▁insurer	-5372
▁ultimate	-5373
▁receiving	-5374
ae	-5375
pper	-5376
ometimes	-5377
▁discharged	-5378
▁Electricity	-5379
/0	-5380
▁fem	-5381
▁irregular	-5382
▁verification	-5383
▁cli	-5384
▁hom	-5385
▁dues	-5386
▁seal	-5387
▁happy	-5388
▁clean	-5389
▁types	-5390
▁changed	-5391
habilitation	-5392
):	-5393
ols	-5394
▁bad	-5395
▁conform	-5396
▁colleges	-5397
▁Allahabad	-5398
▁intim	-5399
▁expand	-5400
▁driving	-5401
▁bringing	-5402
▁warm	-5403
▁vs	-5404
▁mit	-5405
▁Rent	-5406
▁Small	-5407
irty	-5408
ginal	-5409
▁vest	-5410
▁medic	-5411
▁compuls	-5412
▁Assessing	-5413
▁allocation	-5414
pet	-5415
▁divor	-5416
▁entrusted	-5417
▁Castes	-5418
▁levied	-5419
▁contact	-5420
▁quantum	-5421
▁valuable	-5422
essel	-5423
▁recall	-5424
▁struct	-5425
▁definite	-5426
▁challenges	-5427
arc	-5428
▁says	-5429
▁liquid	-5430
▁remove	-5431
▁inclined	-5432
▁ruled	-5433
isc	-5434
lal	-5435
ommod	-5436
prise	-5437
▁initiatives	-5438
▁greetings	-5439
▁NEW	-5440
ifies	-5441
▁vend	-5442
▁ready	-5443
ferences	-5444
▁eligibility	-5445
▁qualifications	-5446
▁Ant	-5447
▁prices	-5448
▁Gh	-5449
alore	-5450
▁Proper	-5451
▁quashing	-5452
▁continues	-5453
jit	-5454
▁base	-5455
author	-5456
▁guard	-5457
▁comprehensive	-5458
▁Meh	-5459
▁soft	-5460
▁focus	-5461
▁enhanced	-5462
▁regulate	-5463
▁Committees	-5464
▁committing	-5465
▁highlighted	-5466
▁inconsistent	-5467
▁irrespective	-5468
.(	-5469
▁rail	-5470
▁complaints	-5471
▁commod	-5472
▁cruelty	-5473
▁MCI	-5474
▁Ashok	-5475
▁Enter	-5476
▁unfair	-5477
alg	-5478
isen	-5479
▁Inf	-5480
▁Ret	-5481
▁negative	-5482
▁superior	-5483
▁admissible	-5484
▁aforementioned	-5485
ales	-5486
▁interven	-5487
▁Convention	-5488
▁percentage	-5489
▁transportation	-5490
▁Met	-5491
vency	-5492
▁North	-5493
▁Customs	-5494
▁factory	-5495
▁relying	-5496
▁schools	-5497
▁procedures	-5498
▁AT	-5499
▁Brit	-5500
▁grat	-5501
▁Aust	-5502
▁Govt	-5503
▁sure	-5504
eshwar	-5505
▁biometric	-5506
▁privilege	-5507
leb	-5508
oti	-5509
utt	-5510
emed	-5511
ortun	-5512
▁declare	-5513
▁saw	-5514
▁Assam	-5515
▁organiz	-5516
▁Selection	-5517
▁qualified	-5518
▁applicability	-5519
▁model	-5520
▁resol	-5521
▁effort	-5522
▁fields	-5523
▁histor	-5524
rigation	-5525
▁seizure	-5526
ger	-5527
nai	-5528
▁DNA	-5529
▁Legal	-5530
▁Third	-5531
arh	-5532
▁Are	-5533
▁amb	-5534
▁cast	-5535
▁twenty	-5536
▁retired	-5537
▁storage	-5538
▁sentences	-5539
ERS	-5540
iles	-5541
abled	-5542
▁gold	-5543
amount	-5544
▁emerg	-5545
▁bill	-5546
▁carefully	-5547
▁save	-5548
▁borne	-5549
mination	-5550
▁enum	-5551
abling	-5552
▁space	-5553
▁depends	-5554
▁raising	-5555
▁inflic	-5556
▁imposing	-5557
▁buildings	-5558
▁urban	-5559
prudence	-5560
▁repeated	-5561
hon	-5562
▁God	-5563
▁try	-5564
▁imple	-5565
▁extract	-5566
▁invoked	-5567
▁involves	-5568
▁pertinent	-5569
▁acceptable	-5570
▁Try	-5571
ortem	-5572
▁Deed	-5573
▁listed	-5574
▁theory	-5575
▁showing	-5576
▁distinguished	-5577
cons	-5578
▁ban	-5579
▁gas	-5580
olvency	-5581
▁mobile	-5582
▁Two	-5583
lease	-5584
▁city	-5585
▁mist	-5586
▁holds	-5587
▁stake	-5588
▁awarding	-5589
icing	-5590
▁harm	-5591
▁sources	-5592
▁Engineering	-5593
VE	-5594
▁chemical	-5595
▁unnecess	-5596
▁questioned	-5597
nan	-5598
pal	-5599
▁vote	-5600
▁accommod	-5601
▁assessed	-5602
▁entreprene	-5603
▁supplement	-5604
▁ingredients	-5605
holder	-5606
▁survey	-5607
ancellor	-5608
▁Regional	-5609
▁meetings	-5610
UN	-5611
▁Di	-5612
igil	-5613
rule	-5614
▁finds	-5615
▁attend	-5616
▁unique	-5617
▁identify	-5618
▁regulatory	-5619
gy	-5620
▁Dem	-5621
▁top	-5622
▁dele	-5623
▁initially	-5624
pex	-5625
▁Market	-5626
▁partly	-5627
▁justify	-5628
▁operating	-5629
▁operative	-5630
▁१	-5631
raft	-5632
▁Nath	-5633
▁hope	-5634
▁holders	-5635
▁Exchange	-5636
▁Superintendent	-5637
Em	-5638
bh	-5639
inger	-5640
▁earn	-5641
▁antic	-5642
▁perused	-5643
▁revised	-5644
▁collective	-5645
akf	-5646
rance	-5647
▁Food	-5648
from	-5649
rency	-5650
▁science	-5651
lam	-5652
▁Your	-5653
▁gets	-5654
ayukta	-5655
▁Trade	-5656
▁seats	-5657
▁touch	-5658
▁inserted	-5659
▁developing	-5660
lax	-5661
ora	-5662
MP	-5663
▁Her	-5664
▁Val	-5665
▁pregn	-5666
▁entries	-5667
▁Training	-5668
▁morality	-5669
▁bona	-5670
▁foot	-5671
▁heirs	-5672
▁accepting	-5673
▁correctly	-5674
earing	-5675
sych	-5676
▁People	-5677
▁anticip	-5678
▁Institut	-5679
▁concerns	-5680
▁substituted	-5681
rav	-5682
▁DELHI	-5683
▁arisen	-5684
▁constructed	-5685
sc	-5686
ley	-5687
▁goes	-5688
▁targ	-5689
▁planning	-5690
▁Aut	-5691
▁falling	-5692
aves	-5693
ites	-5694
▁Goa	-5695
▁Maj	-5696
haust	-5697
umari	-5698
▁ability	-5699
▁deposition	-5700
▁documentary	-5701
▁limitations	-5702
▁don	-5703
▁Others	-5704
istrator	-5705
▁obvious	-5706
quisition	-5707
▁external	-5708
▁underlying	-5709
otion	-5710
▁motion	-5711
▁methods	-5712
▁repla	-5713
▁opposed	-5714
▁ascertain	-5715
▁partition	-5716
▁consumption	-5717
▁universities	-5718
▁moral	-5719
▁vision	-5720
▁implied	-5721
▁license	-5722
▁reasonably	-5723
Os	-5724
HAN	-5725
ena	-5726
ini	-5727
▁Rav	-5728
▁vag	-5729
khand	-5730
▁Again	-5731
▁excell	-5732
▁Capital	-5733
▁feature	-5734
▁extremely	-5735
▁agriculture	-5736
▁perspective	-5737
▁sem	-5738
▁newsp	-5739
▁Bharat	-5740
▁sovere	-5741
▁beneficial	-5742
▁Mit	-5743
enable	-5744
orrect	-5745
▁chain	-5746
▁contravention	-5747
yl	-5748
rist	-5749
▁idea	-5750
▁explo	-5751
▁experts	-5752
▁misconduct	-5753
▁Chairperson	-5754
▁Ay	-5755
▁Ib	-5756
▁Sanj	-5757
▁hear	-5758
▁Tribes	-5759
▁reduce	-5760
▁offender	-5761
▁authentication	-5762
raj	-5763
▁GO	-5764
inet	-5765
ologies	-5766
Rs	-5767
ga	-5768
bal	-5769
▁precedent	-5770
sees	-5771
employ	-5772
icated	-5773
▁Territories	-5774
▁Roh	-5775
vance	-5776
▁Compl	-5777
▁weapon	-5778
▁equival	-5779
▁Him	-5780
▁highly	-5781
vas	-5782
▁cry	-5783
anied	-5784
off	-5785
vity	-5786
▁applicants	-5787
▁organization	-5788
aksh	-5789
bhai	-5790
▁fast	-5791
▁Rajya	-5792
▁domain	-5793
▁propri	-5794
▁depending	-5795
▁commitment	-5796
uli	-5797
kata	-5798
▁nut	-5799
▁audit	-5800
▁shared	-5801
▁deliver	-5802
▁allowance	-5803
▁photograph	-5804
TA	-5805
owed	-5806
▁cri	-5807
▁commenced	-5808
aks	-5809
▁crop	-5810
eeping	-5811
ishing	-5812
▁vessel	-5813
▁friends	-5814
ulating	-5815
▁Foreign	-5816
▁exhaust	-5817
SCC	-5818
omin	-5819
▁squ	-5820
▁liter	-5821
▁story	-5822
▁Security	-5823
enth	-5824
sing	-5825
▁Vij	-5826
▁exc	-5827
attis	-5828
▁Stud	-5829
▁Suit	-5830
▁null	-5831
▁Banks	-5832
▁Rural	-5833
ilities	-5834
▁Science	-5835
haps	-5836
▁Imp	-5837
▁Kol	-5838
▁weak	-5839
mortem	-5840
▁accompanied	-5841
co	-5842
oke	-5843
▁Object	-5844
▁illust	-5845
▁Ur	-5846
▁Houses	-5847
▁cultiv	-5848
▁governing	-5849
▁enumerated	-5850
ocal	-5851
▁City	-5852
▁licen	-5853
▁deprived	-5854
▁deserves	-5855
▁compromise	-5856
▁prosperity	-5857
uel	-5858
▁NG	-5859
▁Equ	-5860
antial	-5861
▁const	-5862
▁Econom	-5863
▁conclude	-5864
▁personnel	-5865
▁processes	-5866
ESS	-5867
▁IC	-5868
rand	-5869
▁ant	-5870
▁adduced	-5871
▁enabling	-5872
▁identical	-5873
▁dr	-5874
uddin	-5875
▁arre	-5876
▁Claim	-5877
▁felicit	-5878
▁hundred	-5879
▁beginning	-5880
▁participate	-5881
▁Est	-5882
▁narrow	-5883
▁ignored	-5884
ammu	-5885
oned	-5886
▁Social	-5887
▁denial	-5888
▁harassment	-5889
▁CR	-5890
▁RBI	-5891
▁fif	-5892
▁Army	-5893
▁Vish	-5894
including	-5895
▁circumstantial	-5896
ume	-5897
awan	-5898
esty	-5899
▁Sin	-5900
▁Chen	-5901
anasia	-5902
attisgarh	-5903
ependence	-5904
uthanasia	-5905
▁occupation	-5906
iy	-5907
▁Exp	-5908
▁Son	-5909
▁stock	-5910
▁Kashmir	-5911
SL	-5912
▁flat	-5913
▁imposs	-5914
▁imperative	-5915
eals	-5916
▁Jay	-5917
▁honour	-5918
▁substantially	-5919
▁tenure	-5920
▁weapons	-5921
▁description	-5922
▁Registration	-5923
icro	-5924
▁indu	-5925
▁relax	-5926
▁inside	-5927
▁cancellation	-5928
▁rap	-5929
etary	-5930
▁Jammu	-5931
▁kumar	-5932
▁lying	-5933
▁excise	-5934
▁Dub	-5935
▁imper	-5936
ciation	-5937
▁Credit	-5938
▁infring	-5939
▁internal	-5940
▁essentially	-5941
overty	-5942
derabad	-5943
▁destro	-5944
▁foregoing	-5945
▁incorrect	-5946
▁maintaining	-5947
▁Vis	-5948
roller	-5949
oration	-5950
▁essence	-5951
▁Arbitral	-5952
▁borrower	-5953
▁efficiency	-5954
▁Administration	-5955
alli	-5956
▁Net	-5957
▁reb	-5958
uality	-5959
uration	-5960
▁prefer	-5961
▁formula	-5962
▁tenancy	-5963
▁elections	-5964
▁calculated	-5965
▁electronic	-5966
▁obligations	-5967
ugg	-5968
issa	-5969
▁British	-5970
▁centres	-5971
▁teaching	-5972
▁Ge	-5973
▁late	-5974
▁ment	-5975
UD	-5976
See	-5977
▁ends	-5978
▁exhib	-5979
▁insured	-5980
▁bilateral	-5981
▁nomination	-5982
▁Vid	-5983
essees	-5984
▁Patna	-5985
▁mainly	-5986
▁Although	-5987
▁integral	-5988
▁proceeds	-5989
▁reliable	-5990
▁equitable	-5991
▁consequential	-5992
▁Pak	-5993
oles	-5994
▁Tem	-5995
▁anti	-5996
▁million	-5997
▁implication	-5998
▁represented	-5999
sub	-6000
ilos	-6001
ellig	-6002
▁send	-6003
▁spread	-6004
emphasis	-6005
▁invited	-6006
▁liberal	-6007
▁III	-6008
▁Each	-6009
▁calls	-6010
▁undue	-6011
▁colour	-6012
▁interpreting	-6013
IF	-6014
order	-6015
▁acres	-6016
▁genuine	-6017
▁offices	-6018
▁requiring	-6019
▁gun	-6020
▁lif	-6021
▁xxx	-6022
tains	-6023
▁seed	-6024
▁Being	-6025
▁input	-6026
▁supra	-6027
▁studies	-6028
▁inclusive	-6029
▁continuing	-6030
Am	-6031
▁eth	-6032
▁mix	-6033
▁vires	-6034
iversal	-6035
▁partner	-6036
▁participated	-6037
TC	-6038
ushan	-6039
▁week	-6040
▁orient	-6041
▁suspic	-6042
▁Appeals	-6043
▁Speaking	-6044
▁pleasure	-6045
RC	-6046
ava	-6047
oul	-6048
rab	-6049
▁Oper	-6050
▁rect	-6051
▁banking	-6052
▁opening	-6053
▁Hyderabad	-6054
ders	-6055
▁Ans	-6056
▁Gang	-6057
▁choose	-6058
▁monthly	-6059
▁Attorney	-6060
organ	-6061
oring	-6062
▁lays	-6063
▁female	-6064
▁Managing	-6065
raf	-6066
▁soil	-6067
ported	-6068
▁alien	-6069
▁annum	-6070
▁range	-6071
▁federal	-6072
▁regional	-6073
itan	-6074
▁shif	-6075
▁Sector	-6076
▁acknowled	-6077
▁authorized	-6078
opp	-6079
▁Gre	-6080
▁lac	-6081
ching	-6082
▁fulfilled	-6083
▁rejection	-6084
TH	-6085
ilosop	-6086
▁Manager	-6087
▁servants	-6088
osen	-6089
▁Note	-6090
▁indul	-6091
▁moment	-6092
▁subjects	-6093
▁Based	-6094
▁dates	-6095
▁socio	-6096
▁abroad	-6097
▁violated	-6098
▁BCCI	-6099
▁sides	-6100
▁thirty	-6101
BC	-6102
▁Issue	-6103
▁Subject	-6104
ially	-6105
▁autonomy	-6106
▁consists	-6107
BS	-6108
ails	-6109
ndra	-6110
▁cal	-6111
▁Gopal	-6112
▁tests	-6113
▁considerable	-6114
▁institutional	-6115
▁Kaur	-6116
▁Only	-6117
▁closed	-6118
▁priority	-6119
▁Car	-6120
▁NCT	-6121
▁burn	-6122
▁cart	-6123
▁Found	-6124
▁laying	-6125
▁Austral	-6126
▁continuous	-6127
▁armed	-6128
▁Consid	-6129
▁allegedly	-6130
▁Designated	-6131
▁conversion	-6132
▁formulated	-6133
onn	-6134
▁scen	-6135
▁Bangalore	-6136
▁CA	-6137
writ	-6138
▁Vin	-6139
ected	-6140
▁Port	-6141
▁uses	-6142
▁dispose	-6143
▁innocent	-6144
ba	-6145
▁Here	-6146
▁feed	-6147
▁block	-6148
▁Session	-6149
▁congrat	-6150
▁collabor	-6151
’)	-6152
▁Ka	-6153
▁PS	-6154
▁amalg	-6155
▁divid	-6156
▁adverted	-6157
▁jurisprudence	-6158
▁Roy	-6159
▁improvement	-6160
१३	-6161
apur	-6162
face	-6163
▁Verma	-6164
▁Orissa	-6165
▁chosen	-6166
atically	-6167
▁arrears	-6168
▁corrupt	-6169
▁construct	-6170
UM	-6171
▁Unit	-6172
itally	-6173
▁entities	-6174
▁Engineers	-6175
▁relevance	-6176
▁suggestions	-6177
ATE	-6178
▁Ca	-6179
▁adult	-6180
▁Branch	-6181
▁stages	-6182
▁faculty	-6183
▁repealed	-6184
▁exclusively	-6185
▁lab	-6186
▁anim	-6187
▁front	-6188
▁divorce	-6189
▁investors	-6190
def	-6191
venth	-6192
▁numbers	-6193
▁Deb	-6194
chand	-6195
gress	-6196
irable	-6197
▁black	-6198
▁Exhibit	-6199
▁decades	-6200
▁Resolution	-6201
laws	-6202
adequ	-6203
iveness	-6204
▁aggreg	-6205
▁relate	-6206
▁caution	-6207
leum	-6208
like	-6209
▁cum	-6210
▁Sinha	-6211
Emphasis	-6212
▁Secondly	-6213
chol	-6214
▁Its	-6215
▁Thak	-6216
othing	-6217
▁floor	-6218
▁leads	-6219
▁variety	-6220
▁Acquisition	-6221
iece	-6222
reet	-6223
▁dig	-6224
▁crops	-6225
▁session	-6226
▁computer	-6227
▁equivalent	-6228
▁suspension	-6229
upon	-6230
▁Year	-6231
▁plans	-6232
▁crimes	-6233
▁travel	-6234
▁Chennai	-6235
▁precise	-6236
▁discriminatory	-6237
head	-6238
▁FOR	-6239
isted	-6240
▁tort	-6241
▁built	-6242
▁incent	-6243
▁involve	-6244
▁signature	-6245
mn	-6246
isable	-6247
▁persu	-6248
▁Pension	-6249
▁consisting	-6250
▁felicitations	-6251
▁absor	-6252
▁anyone	-6253
AA	-6254
izes	-6255
ureau	-6256
▁admit	-6257
▁Lordship	-6258
▁currency	-6259
appa	-6260
rapali	-6261
▁estim	-6262
▁opened	-6263
▁paying	-6264
▁notices	-6265
▁trading	-6266
▁endeavour	-6267
▁unnecessary	-6268
more	-6269
▁cog	-6270
▁experi	-6271
▁advised	-6272
▁behaviour	-6273
▁preparation	-6274
▁shareholders	-6275
ema	-6276
▁IS	-6277
▁Sum	-6278
▁phr	-6279
▁plants	-6280
▁admittedly	-6281
urt	-6282
▁code	-6283
▁rich	-6284
enders	-6285
▁designed	-6286
▁controlled	-6287
▁incidental	-6288
▁Amrapali	-6289
oo	-6290
car	-6291
ows	-6292
well	-6293
▁Ori	-6294
▁Sir	-6295
▁suggestion	-6296
▁Constituent	-6297
▁dim	-6298
▁raw	-6299
arian	-6300
orily	-6301
▁brok	-6302
▁mass	-6303
▁Planning	-6304
▁Standing	-6305
▁gift	-6306
▁Notice	-6307
▁solely	-6308
▁largest	-6309
▁workman	-6310
▁designated	-6311
▁hab	-6312
▁looked	-6313
▁recons	-6314
▁difficulty	-6315
▁establishing	-6316
whe	-6317
gone	-6318
ishra	-6319
▁memo	-6320
ceived	-6321
▁ideas	-6322
▁backward	-6323
▁multiple	-6324
.00	-6325
▁mus	-6326
▁Common	-6327
▁safeguard	-6328
hana	-6329
▁How	-6330
▁Disp	-6331
▁forfe	-6332
▁judicata	-6333
▁impossible	-6334
▁Chhattisgarh	-6335
▁Investigating	-6336
Ad	-6337
▁--	-6338
▁size	-6339
▁perpet	-6340
▁expedit	-6341
▁growing	-6342
▁undertake	-6343
▁Op	-6344
arency	-6345
▁Conference	-6346
▁rehabilitation	-6347
roleum	-6348
▁exact	-6349
▁Sections	-6350
iah	-6351
▁UGC	-6352
monial	-6353
▁Exper	-6354
▁Money	-6355
▁Follow	-6356
▁liquor	-6357
▁vacancy	-6358
▁punished	-6359
▁enl	-6360
ruits	-6361
actory	-6362
▁casual	-6363
▁outset	-6364
▁Himachal	-6365
▁rejecting	-6366
▁comprising	-6367
▁appreciated	-6368
Pro	-6369
uck	-6370
▁PE	-6371
orthy	-6372
▁sometimes	-6373
▁Jam	-6374
▁town	-6375
▁fault	-6376
▁ge	-6377
▁Mun	-6378
igarh	-6379
▁wound	-6380
▁observe	-6381
▁purview	-6382
▁revealed	-6383
▁affidavits	-6384
▁dismissing	-6385
▁corresponding	-6386
DS	-6387
▁oath	-6388
▁firms	-6389
▁desire	-6390
▁Property	-6391
▁nominated	-6392
▁entertained	-6393
▁corroborated	-6394
NG	-6395
mal	-6396
igher	-6397
▁Then	-6398
▁placing	-6399
▁corporation	-6400
▁traditional	-6401
De	-6402
▁Vik	-6403
clear	-6404
ports	-6405
▁Laws	-6406
▁celeb	-6407
▁Annexure	-6408
▁finality	-6409
▁customers	-6410
▁preceding	-6411
enant	-6412
erous	-6413
▁wanted	-6414
▁Consult	-6415
▁Consumer	-6416
▁minority	-6417
▁parliament	-6418
▁prevailing	-6419
mp	-6420
aman	-6421
▁spite	-6422
CR	-6423
velled	-6424
▁buyers	-6425
▁permits	-6426
▁euthanasia	-6427
PT	-6428
Comp	-6429
ement	-6430
▁cell	-6431
▁paras	-6432
▁outstanding	-6433
▁ded	-6434
abinet	-6435
▁lawful	-6436
▁advertisement	-6437
Un	-6438
nov	-6439
orn	-6440
look	-6441
▁copies	-6442
▁finger	-6443
▁resort	-6444
ensation	-6445
▁usually	-6446
▁relatives	-6447
▁conscience	-6448
rew	-6449
vii	-6450
ario	-6451
▁aims	-6452
▁royal	-6453
▁saying	-6454
isp	-6455
play	-6456
judicial	-6457
▁enables	-6458
▁recourse	-6459
▁unauthor	-6460
▁reduction	-6461
▁consequently	-6462
LE	-6463
kn	-6464
oon	-6465
▁dishon	-6466
▁Tribunals	-6467
▁expressions	-6468
▁deficiencies	-6469
▁intervention	-6470
ima	-6471
▁smt	-6472
aneously	-6473
▁Railways	-6474
▁attained	-6475
▁partners	-6476
▁exceptional	-6477
▁investments	-6478
den	-6479
▁sac	-6480
being	-6481
erved	-6482
▁houses	-6483
▁Technical	-6484
▁membership	-6485
▁Agriculture	-6486
▁categorically	-6487
eat	-6488
atur	-6489
▁Kan	-6490
▁enterprise	-6491
▁competitive	-6492
▁modification	-6493
▁Sale	-6494
▁Sant	-6495
▁nine	-6496
▁exclude	-6497
▁declined	-6498
▁villages	-6499
IM	-6500
aut	-6501
vis	-6502
lets	-6503
▁prin	-6504
▁square	-6505
▁wealth	-6506
▁leaving	-6507
▁Pakistan	-6508
▁monitoring	-6509
▁sentencing	-6510
ded	-6511
▁East	-6512
▁Women	-6513
▁psych	-6514
▁youth	-6515
▁average	-6516
▁equipment	-6517
▁undergone	-6518
OC	-6519
▁arch	-6520
▁famil	-6521
▁yield	-6522
▁benefici	-6523
▁avo	-6524
▁Like	-6525
▁blast	-6526
▁river	-6527
▁scene	-6528
▁Secondary	-6529
▁wis	-6530
▁learn	-6531
atively	-6532
▁fixing	-6533
▁stayed	-6534
▁unjust	-6535
▁assault	-6536
ictionary	-6537
▁opposite	-6538
▁interview	-6539
▁similarly	-6540
▁Bud	-6541
▁Pan	-6542
hension	-6543
▁awards	-6544
▁worship	-6545
▁encourage	-6546
va	-6547
▁Lie	-6548
▁Euro	-6549
▁entering	-6550
▁clearance	-6551
An	-6552
CA	-6553
▁ways	-6554
iration	-6555
▁played	-6556
▁Federal	-6557
▁Enterprises	-6558
▁prospective	-6559
▁PM	-6560
power	-6561
▁imped	-6562
▁lines	-6563
aterial	-6564
▁Narayan	-6565
▁empowers	-6566
▁location	-6567
▁promoting	-6568
▁scheduled	-6569
▁organisation	-6570
▁Ve	-6571
ster	-6572
▁multi	-6573
▁disturb	-6574
▁Transfer	-6575
▁component	-6576
▁seriously	-6577
▁constitutes	-6578
▁nu	-6579
▁radi	-6580
uncture	-6581
▁demands	-6582
▁Following	-6583
▁societies	-6584
▁competition	-6585
Su	-6586
Res	-6587
iche	-6588
▁dict	-6589
inations	-6590
▁hostile	-6591
▁patients	-6592
▁residents	-6593
▁Out	-6594
icket	-6595
onance	-6596
resident	-6597
▁Bhushan	-6598
▁critical	-6599
▁Mu	-6600
▁Dal	-6601
amble	-6602
▁creates	-6603
▁tenants	-6604
▁Na	-6605
ounded	-6606
▁Ident	-6607
▁target	-6608
▁inadequ	-6609
▁families	-6610
▁software	-6611
hu	-6612
▁IV	-6613
alaya	-6614
nergy	-6615
▁vary	-6616
▁certified	-6617
iman	-6618
rans	-6619
▁box	-6620
▁enqu	-6621
public	-6622
▁Mission	-6623
▁compared	-6624
▁deposits	-6625
▁World	-6626
▁sanct	-6627
▁pressure	-6628
▁occasions	-6629
▁terminated	-6630
osit	-6631
ulter	-6632
▁jail	-6633
▁path	-6634
▁neigh	-6635
▁philosop	-6636
▁marketing	-6637
▁Foundation	-6638
▁contractual	-6639
da	-6640
▁Lieut	-6641
▁encro	-6642
▁discrep	-6643
MENT	-6644
▁vacant	-6645
▁careful	-6646
▁poverty	-6647
▁juncture	-6648
▁treating	-6649
▁surrender	-6650
▁transform	-6651
▁engineering	-6652
▁camp	-6653
▁Block	-6654
▁arrive	-6655
▁gender	-6656
▁housing	-6657
▁passeng	-6658
▁elements	-6659
▁computing	-6660
▁appointing	-6661
▁qualifying	-6662
▁strengthen	-6663
▁?	-6664
lad	-6665
inked	-6666
▁abol	-6667
▁doub	-6668
ariness	-6669
ifiable	-6670
▁dealer	-6671
▁jointly	-6672
▁Art	-6673
ariat	-6674
▁Force	-6675
▁buyer	-6676
▁pattern	-6677
▁reflected	-6678
▁compulsory	-6679
arging	-6680
▁expos	-6681
▁centre	-6682
▁clothes	-6683
▁achieving	-6684
▁inclusion	-6685
▁organizations	-6686
mun	-6687
▁CJ	-6688
athy	-6689
▁milk	-6690
▁deeds	-6691
▁spect	-6692
▁transl	-6693
▁derived	-6694
▁perhaps	-6695
▁eventually	-6696
▁separation	-6697
gi	-6698
rif	-6699
▁Oil	-6700
▁male	-6701
▁vers	-6702
ournal	-6703
ustain	-6704
▁Higher	-6705
▁leases	-6706
igilance	-6707
▁specify	-6708
▁launched	-6709
AIR	-6710
inqu	-6711
▁big	-6712
Civil	-6713
claim	-6714
which	-6715
▁wise	-6716
▁route	-6717
▁series	-6718
▁Housing	-6719
▁Institutions	-6720
otal	-6721
▁Nor	-6722
abric	-6723
oming	-6724
▁fort	-6725
▁PWxad	-6726
▁ultra	-6727
▁Sanjay	-6728
▁joined	-6729
▁Verified	-6730
▁promoted	-6731
▁resource	-6732
▁awareness	-6733
▁Lieutenant	-6734
hru	-6735
ellect	-6736
▁effected	-6737
uniary	-6738
▁cogent	-6739
▁speedy	-6740
▁voting	-6741
statement	-6742
▁Competent	-6743
▁chargeable	-6744
▁Considering	-6745
▁Cooperative	-6746
aji	-6747
assion	-6748
▁Crime	-6749
▁wisdom	-6750
▁corruption	-6751
OL	-6752
TS	-6753
ida	-6754
▁asp	-6755
▁urg	-6756
▁Anil	-6757
▁sets	-6758
▁diver	-6759
▁forces	-6760
▁wrongly	-6761
plaintiff	-6762
▁valuation	-6763
▁irrelevant	-6764
▁representing	-6765
amma	-6766
cont	-6767
▁elim	-6768
▁seem	-6769
.......	-6770
▁cancelled	-6771
▁consonance	-6772
▁Rai	-6773
▁Data	-6774
▁turned	-6775
▁adoption	-6776
▁wherever	-6777
▁emergency	-6778
mad	-6779
▁hit	-6780
known	-6781
owners	-6782
▁piece	-6783
General	-6784
▁Survey	-6785
▁teleph	-6786
rimonial	-6787
▁destroy	-6788
▁Chandigarh	-6789
▁hes	-6790
▁fill	-6791
akrish	-6792
▁Keeping	-6793
▁happened	-6794
▁directors	-6795
▁initiative	-6796
▁undoubtedly	-6797
▁sa	-6798
akar	-6799
▁bed	-6800
▁boy	-6801
athan	-6802
▁round	-6803
▁lessee	-6804
▁suspect	-6805
▁Recovery	-6806
▁whenever	-6807
▁presently	-6808
▁rendering	-6809
van	-6810
▁PWs	-6811
▁intr	-6812
▁loans	-6813
▁resign	-6814
▁surround	-6815
▁Digitally	-6816
▁notifications	-6817
▁Bai	-6818
▁pal	-6819
ertil	-6820
▁Gram	-6821
▁Ranj	-6822
utable	-6823
▁Europe	-6824
▁scenario	-6825
iya	-6826
▁ND	-6827
▁aimed	-6828
▁Mishra	-6829
▁enforced	-6830
▁departments	-6831
▁cy	-6832
▁Fac	-6833
▁Defence	-6834
▁discard	-6835
▁evolved	-6836
▁licensee	-6837
ICTE	-6838
otton	-6839
▁depart	-6840
▁forwarded	-6841
▁safeguards	-6842
▁goal	-6843
▁Nehru	-6844
▁roads	-6845
▁Shankar	-6846
▁reliefs	-6847
▁originally	-6848
▁preference	-6849
era	-6850
▁Gl	-6851
▁Moham	-6852
▁phone	-6853
▁Master	-6854
▁comment	-6855
▁Signature	-6856
▁evaluation	-6857
▁indirectly	-6858
▁mitigating	-6859
१४	-6860
oly	-6861
uti	-6862
essor	-6863
rolment	-6864
ordinary	-6865
▁components	-6866
▁territorial	-6867
bu	-6868
ming	-6869
▁Div	-6870
▁Jhar	-6871
▁Upon	-6872
▁heavy	-6873
▁Temple	-6874
▁Thakur	-6875
▁aggregate	-6876
▁(“	-6877
ompl	-6878
▁Sik	-6879
inter	-6880
▁Appro	-6881
▁earth	-6882
▁constant	-6883
▁presumed	-6884
ordination	-6885
▁communicated	-6886
EF	-6887
ler	-6888
chief	-6889
▁stra	-6890
▁alive	-6891
▁Agency	-6892
▁leaves	-6893
▁summar	-6894
▁assumed	-6895
▁eminent	-6896
▁respond	-6897
▁Saf	-6898
▁draf	-6899
▁phrase	-6900
olidated	-6901
▁Kolkata	-6902
▁observing	-6903
▁entrepreneurs	-6904
una	-6905
▁Vijay	-6906
▁division	-6907
▁proposals	-6908
▁convention	-6909
icate	-6910
ropol	-6911
▁plat	-6912
itated	-6913
▁nexus	-6914
uestion	-6915
▁simult	-6916
▁empower	-6917
▁departmental	-6918
▁transparency	-6919
Con	-6920
mat	-6921
ansion	-6922
ressal	-6923
itnesses	-6924
▁interfered	-6925
▁communities	-6926
iddle	-6927
▁obsc	-6928
▁Controller	-6929
▁illegality	-6930
▁MO	-6931
▁NI	-6932
▁alloc	-6933
▁heads	-6934
▁exempt	-6935
▁Revision	-6936
▁pollution	-6937
▁regulated	-6938
▁terrorist	-6939
▁assumption	-6940
▁AM	-6941
drop	-6942
▁Conc	-6943
▁Mere	-6944
▁lapse	-6945
▁announ	-6946
▁Cabinet	-6947
▁ancient	-6948
▁nations	-6949
tificates	-6950
▁Congress	-6951
▁arrangements	-6952
▁Lo	-6953
▁NJ	-6954
ussain	-6955
▁Innov	-6956
▁looking	-6957
▁legality	-6958
▁pronounced	-6959
ze	-6960
▁culp	-6961
lihood	-6962
vation	-6963
▁neighb	-6964
▁leaders	-6965
▁irrigation	-6966
▁technologies	-6967
▁km	-6968
life	-6969
▁pra	-6970
itect	-6971
▁thinks	-6972
▁altered	-6973
▁landing	-6974
▁juvenile	-6975
▁introduction	-6976
▁beneficiaries	-6977
agers	-6978
▁love	-6979
▁perf	-6980
▁Party	-6981
▁debate	-6982
▁lawyers	-6983
NL	-6984
▁Mur	-6985
burse	-6986
forms	-6987
▁Prat	-6988
rations	-6989
▁purely	-6990
▁confers	-6991
▁Industry	-6992
▁averments	-6993
▁Administrator	-6994
rum	-6995
▁Inc	-6996
▁Test	-6997
▁Const	-6998
▁depre	-6999
▁plots	-7000
▁offers	-7001
▁promise	-7002
▁OR	-7003
▁MSME	-7004
▁Junior	-7005
▁animal	-7006
▁animals	-7007
▁historical	-7008
▁liabilities	-7009
▁anc	-7010
▁gap	-7011
urate	-7012
▁Tele	-7013
idance	-7014
▁Forum	-7015
▁Steel	-7016
▁schol	-7017
▁chance	-7018
▁contest	-7019
▁Economic	-7020
▁improper	-7021
▁Petitions	-7022
nsic	-7023
▁lat	-7024
▁door	-7025
▁mercy	-7026
▁minds	-7027
▁veget	-7028
▁premium	-7029
▁teacher	-7030
▁privileges	-7031
▁substitute	-7032
arn	-7033
uit	-7034
▁Nav	-7035
▁stamp	-7036
▁Annual	-7037
▁transfere	-7038
Reg	-7039
bir	-7040
▁).	-7041
▁CL	-7042
▁Anand	-7043
▁grand	-7044
▁believed	-7045
▁:-	-7046
ifteen	-7047
▁incon	-7048
▁severe	-7049
▁Teachers	-7050
ustainable	-7051
▁Authorities	-7052
DC	-7053
jan	-7054
▁ram	-7055
▁Over	-7056
▁stop	-7057
▁smugg	-7058
▁medium	-7059
▁remote	-7060
▁Process	-7061
▁customs	-7062
▁venture	-7063
▁dependent	-7064
▁enactments	-7065
▁implementing	-7066
DI	-7067
PR	-7068
etic	-7069
▁obliged	-7070
▁vitiated	-7071
▁broadcast	-7072
mer	-7073
serv	-7074
▁Det	-7075
▁domin	-7076
▁incap	-7077
▁fraudul	-7078
ibilities	-7079
▁substanti	-7080
▁appearance	-7081
▁regulating	-7082
▁EC	-7083
▁fuel	-7084
▁AICTE	-7085
▁Privy	-7086
▁compr	-7087
▁frequ	-7088
▁fabric	-7089
▁Lokayukta	-7090
▁VI	-7091
mary	-7092
▁Ban	-7093
▁wall	-7094
▁execute	-7095
▁filling	-7096
▁improving	-7097
▁admissions	-7098
▁impermissible	-7099
▁parliamentary	-7100
▁minutes	-7101
▁fairness	-7102
▁Gen	-7103
itage	-7104
▁born	-7105
▁enun	-7106
closed	-7107
▁perverse	-7108
▁retained	-7109
▁discussions	-7110
eck	-7111
vol	-7112
uliar	-7113
▁NJAC	-7114
▁sons	-7115
▁Dubai	-7116
▁drugs	-7117
▁kinds	-7118
▁wider	-7119
▁fulfil	-7120
▁royalty	-7121
▁sharing	-7122
ropolitan	-7123
▁reversed	-7124
▁enhancement	-7125
▁accommodation	-7126
amus	-7127
endants	-7128
▁Bureau	-7129
▁easily	-7130
▁hardly	-7131
▁refuse	-7132
▁mistake	-7133
▁outcome	-7134
▁Societies	-7135
▁highlight	-7136
▁injustice	-7137
▁pronounce	-7138
▁university	-7139
▁hyp	-7140
▁Chow	-7141
▁fired	-7142
stwhile	-7143
▁traffic	-7144
▁forthwith	-7145
▁organized	-7146
▁succession	-7147
▁demonstrate	-7148
▁stakeholders	-7149
eries	-7150
riages	-7151
▁Urban	-7152
▁quota	-7153
▁matrimonial	-7154
his	-7155
▁Pay	-7156
apped	-7157
▁bags	-7158
▁Christ	-7159
▁summary	-7160
▁conclusive	-7161
▁performing	-7162
▁rul	-7163
ether	-7164
anguages	-7165
▁summons	-7166
▁channels	-7167
▁converted	-7168
ader	-7169
oted	-7170
▁peculiar	-7171
▁erstwhile	-7172
▁household	-7173
arsh	-7174
▁backdrop	-7175
▁contends	-7176
▁affecting	-7177
▁Directorate	-7178
▁discretionary	-7179
Cr	-7180
atel	-7181
alled	-7182
▁easy	-7183
astern	-7184
▁skill	-7185
▁killed	-7186
▁besides	-7187
▁Circular	-7188
▁assessing	-7189
▁informant	-7190
hr	-7191
care	-7192
▁kill	-7193
ogether	-7194
▁healthy	-7195
▁supporting	-7196
▁establishments	-7197
▁Ref	-7198
India	-7199
▁Caste	-7200
▁Associ	-7201
▁critic	-7202
▁Despite	-7203
▁existed	-7204
omination	-7205
▁compensatory	-7206
aters	-7207
,0	-7208
▁x	-7209
▁Grant	-7210
▁Sales	-7211
▁infirm	-7212
▁strike	-7213
▁restored	-7214
ipl	-7215
▁retail	-7216
▁refusal	-7217
▁reveals	-7218
▁Jharkhand	-7219
▁desirable	-7220
▁livelihood	-7221
CS	-7222
▁dispro	-7223
▁Language	-7224
▁advocates	-7225
▁expansion	-7226
▁Investigation	-7227
anti	-7228
icus	-7229
▁pip	-7230
▁prec	-7231
econom	-7232
certain	-7233
ichever	-7234
▁Nations	-7235
▁winding	-7236
▁discipline	-7237
▁exceptions	-7238
▁composition	-7239
dar	-7240
itors	-7241
▁Good	-7242
▁Afric	-7243
▁Mehta	-7244
Company	-7245
▁stream	-7246
▁duration	-7247
▁unfortun	-7248
▁confirmation	-7249
▁fla	-7250
▁item	-7251
▁Mines	-7252
▁Three	-7253
▁remar	-7254
▁Applic	-7255
▁fairly	-7256
▁Mineral	-7257
▁allowances	-7258
▁permitting	-7259
▁dy	-7260
▁club	-7261
▁maxim	-7262
▁Ramesh	-7263
▁visited	-7264
opy	-7265
▁NS	-7266
▁Sr	-7267
rupt	-7268
▁Add	-7269
▁Venk	-7270
▁aged	-7271
iality	-7272
▁retain	-7273
▁Building	-7274
▁arbitrariness	-7275
▁Cle	-7276
▁Purch	-7277
▁panel	-7278
aration	-7279
▁skills	-7280
▁reality	-7281
▁changing	-7282
▁securing	-7283
▁subscrib	-7284
▁contribute	-7285
▁Petitioners	-7286
akes	-7287
aran	-7288
atar	-7289
lands	-7290
▁inev	-7291
▁mala	-7292
rition	-7293
ulatory	-7294
▁aggrav	-7295
▁client	-7296
▁popular	-7297
ellectual	-7298
hs	-7299
rench	-7300
▁bott	-7301
▁chart	-7302
▁Estate	-7303
▁branch	-7304
▁reaching	-7305
▁Memorandum	-7306
▁territories	-7307
PP	-7308
aug	-7309
▁Just	-7310
▁user	-7311
▁spent	-7312
▁posted	-7313
▁viewed	-7314
iculture	-7315
▁Nothing	-7316
aboratory	-7317
▁Chancellor	-7318
▁revisional	-7319
%.	-7320
▁Fl	-7321
▁Megh	-7322
▁vast	-7323
struct	-7324
▁cease	-7325
mittedly	-7326
▁considers	-7327
▁practical	-7328
▁reproduce	-7329
▁emphasized	-7330
▁stipulates	-7331
▁ore	-7332
▁conj	-7333
ractor	-7334
▁green	-7335
▁literal	-7336
▁pecuniary	-7337
▁integrated	-7338
cks	-7339
▁BS	-7340
▁Joh	-7341
▁Apex	-7342
▁Doct	-7343
▁Energy	-7344
▁command	-7345
▁Likewise	-7346
▁whichever	-7347
▁attributed	-7348
▁Agricultural	-7349
AGE	-7350
▁xad	-7351
▁imag	-7352
▁Awards	-7353
ettlement	-7354
▁officials	-7355
▁prescribe	-7356
IG	-7357
MM	-7358
▁Da	-7359
▁capt	-7360
▁Mahat	-7361
▁fatal	-7362
▁American	-7363
▁turnover	-7364
▁conformity	-7365
▁anticipatory	-7366
ole	-7367
pled	-7368
active	-7369
▁Those	-7370
▁canvas	-7371
▁effects	-7372
▁taxable	-7373
▁accorded	-7374
▁remedies	-7375
▁inflicted	-7376
▁Furthermore	-7377
▁DW	-7378
rosy	-7379
▁UID	-7380
▁lot	-7381
thern	-7382
▁Inst	-7383
▁Pune	-7384
▁accompl	-7385
▁adulter	-7386
▁handling	-7387
▁suspicion	-7388
▁hot	-7389
herry	-7390
urism	-7391
▁wage	-7392
▁finance	-7393
▁putting	-7394
▁solution	-7395
▁remission	-7396
▁Admittedly	-7397
▁insolvency	-7398
.'	-7399
aq	-7400
ilal	-7401
▁Gan	-7402
▁Mrs	-7403
▁vul	-7404
▁Hotel	-7405
▁fifty	-7406
▁lesser	-7407
▁fiction	-7408
▁fifteen	-7409
▁Town	-7410
▁Reasons	-7411
▁elaborate	-7412
UT	-7413
pura	-7414
▁cere	-7415
economic	-7416
▁constitu	-7417
▁instances	-7418
loc	-7419
▁Lit	-7420
sures	-7421
▁Patel	-7422
▁cheques	-7423
▁conceal	-7424
▁endorse	-7425
▁figures	-7426
▁tourism	-7427
unication	-7428
▁protecting	-7429
▁discharging	-7430
SR	-7431
▁Sand	-7432
▁symb	-7433
▁earning	-7434
▁fulfill	-7435
▁litigant	-7436
▁assessees	-7437
▁transferee	-7438
▁extraordinary	-7439
bar	-7440
idn	-7441
inous	-7442
▁Card	-7443
▁Nariman	-7444
▁calling	-7445
▁drawing	-7446
▁convenience	-7447
ensus	-7448
rical	-7449
aulted	-7450
▁Paper	-7451
▁throw	-7452
▁Indeed	-7453
▁prepare	-7454
▁protest	-7455
▁compassion	-7456
PF	-7457
▁gr	-7458
▁Rat	-7459
▁batch	-7460
▁drive	-7461
ategory	-7462
▁ticket	-7463
ableness	-7464
▁Persons	-7465
▁student	-7466
▁contesting	-7467
▁ammun	-7468
▁Maruti	-7469
▁tested	-7470
iliation	-7471
▁primacy	-7472
▁selling	-7473
▁attempts	-7474
▁enrolment	-7475
▁expectation	-7476
▁voluntarily	-7477
▁Us	-7478
▁pursue	-7479
▁divided	-7480
▁immense	-7481
▁expertise	-7482
▁deficiency	-7483
EE	-7484
roc	-7485
▁film	-7486
▁ambig	-7487
emption	-7488
▁apposite	-7489
▁Investment	-7490
▁engagement	-7491
▁indicating	-7492
▁differently	-7493
▁Commissioners	-7494
has	-7495
iri	-7496
▁DR	-7497
vert	-7498
iment	-7499
▁Park	-7500
▁rain	-7501
▁tour	-7502
▁quasi	-7503
▁assailed	-7504
▁intellig	-7505
▁possibly	-7506
▁generated	-7507
▁constituting	-7508
▁corroboration	-7509
▁ask	-7510
▁break	-7511
▁century	-7512
▁serving	-7513
▁resolved	-7514
ika	-7515
pla	-7516
hesh	-7517
▁Num	-7518
▁Tel	-7519
uated	-7520
▁Rest	-7521
matter	-7522
▁claimants	-7523
▁transmission	-7524
fall	-7525
oday	-7526
▁Lic	-7527
▁NIT	-7528
▁Sen	-7529
▁bran	-7530
▁customer	-7531
▁remember	-7532
▁paramount	-7533
▁cognizable	-7534
▁computation	-7535
▁credibility	-7536
▁Aj	-7537
olic	-7538
▁hum	-7539
▁fight	-7540
▁Online	-7541
▁conting	-7542
▁purport	-7543
▁compelled	-7544
▁SA	-7545
time	-7546
▁Rak	-7547
athered	-7548
▁Expert	-7549
▁assume	-7550
▁excessive	-7551
▁universal	-7552
▁legislations	-7553
cum	-7554
ding	-7555
▁quo	-7556
oppel	-7557
ushed	-7558
▁Shyam	-7559
▁alias	-7560
▁exchan	-7561
▁figure	-7562
▁fixation	-7563
▁residing	-7564
▁newspaper	-7565
▁exploitation	-7566
▁contributions	-7567
regard	-7568
▁table	-7569
▁weigh	-7570
▁suffers	-7571
▁ML	-7572
▁ec	-7573
▁Lax	-7574
▁panch	-7575
▁online	-7576
▁proving	-7577
ideration	-7578
▁........	-7579
▁distinguish	-7580
yot	-7581
amber	-7582
▁infer	-7583
▁Rajesh	-7584
▁cement	-7585
▁fourth	-7586
▁Benches	-7587
▁accrued	-7588
▁belongs	-7589
▁adopting	-7590
▁amending	-7591
▁demanded	-7592
▁administer	-7593
▁furtherance	-7594
▁Construction	-7595
DP	-7596
MA	-7597
/-.	-7598
pat	-7599
▁DG	-7600
▁Yet	-7601
harma	-7602
▁vehe	-7603
ruption	-7604
▁Suresh	-7605
▁approx	-7606
▁termed	-7607
isations	-7608
▁guidance	-7609
▁administered	-7610
EB	-7611
ss	-7612
▁Ir	-7613
▁PRO	-7614
▁dro	-7615
shall	-7616
▁steel	-7617
ciences	-7618
▁assuming	-7619
▁becoming	-7620
▁initiate	-7621
▁Judiciary	-7622
▁excellence	-7623
▁enterprises	-7624
▁Independence	-7625
VC	-7626
para	-7627
▁TRA	-7628
▁hoc	-7629
▁Last	-7630
▁Islam	-7631
▁trying	-7632
▁brothers	-7633
▁commodity	-7634
▁extending	-7635
▁concession	-7636
▁pronouncement	-7637
ahar	-7638
gery	-7639
▁gar	-7640
▁Pass	-7641
fering	-7642
▁Chaudh	-7643
▁missing	-7644
▁institute	-7645
▁ourselves	-7646
▁Assessment	-7647
▁affirmative	-7648
▁disabilities	-7649
▁jurisdictional	-7650
----------------	-7651
plus	-7652
cript	-7653
▁tank	-7654
▁remin	-7655
▁Mohammed	-7656
▁attended	-7657
▁invoking	-7658
▁overlook	-7659
compliance	-7660
▁adversely	-7661
▁Principles	-7662
▁structures	-7663
▁installation	-7664
emb	-7665
sett	-7666
▁Mat	-7667
liest	-7668
▁Sush	-7669
▁neck	-7670
ensions	-7671
▁brings	-7672
▁assured	-7673
▁delayed	-7674
▁expired	-7675
▁knowing	-7676
▁purported	-7677
▁proportionality	-7678
▁kg	-7679
ogue	-7680
otic	-7681
▁bills	-7682
▁voice	-7683
▁avoided	-7684
▁desired	-7685
▁display	-7686
▁Regulatory	-7687
▁Metropolitan	-7688
▁apprehension	-7689
▁Mas	-7690
orter	-7691
▁Hand	-7692
▁rely	-7693
▁sick	-7694
ferent	-7695
ronics	-7696
▁diverse	-7697
▁tribunals	-7698
▁supervision	-7699
▁acknowledged	-7700
▁SU	-7701
▁Kap	-7702
▁Disc	-7703
▁Please	-7704
▁preserve	-7705
▁supposed	-7706
▁Ibid	-7707
▁knew	-7708
▁rapid	-7709
▁linked	-7710
▁herself	-7711
▁reforms	-7712
▁earliest	-7713
▁gathered	-7714
▁prohibit	-7715
▁compelling	-7716
▁disqualified	-7717
▁successfully	-7718
▁strengthening	-7719
iplom	-7720
stone	-7721
ysore	-7722
▁faced	-7723
▁inputs	-7724
▁railway	-7725
▁uncertain	-7726
▁Governance	-7727
▁certificates	-7728
ugn	-7729
▁NAB	-7730
▁quote	-7731
▁unequ	-7732
▁samples	-7733
▁violate	-7734
▁productivity	-7735
dict	-7736
ordin	-7737
▁abet	-7738
▁pist	-7739
ciated	-7740
▁recip	-7741
▁video	-7742
▁doubts	-7743
▁earned	-7744
sections	-7745
▁branches	-7746
▁hesitation	-7747
▁relaxation	-7748
▁simultaneously	-7749
▁enacting	-7750
▁Promotion	-7751
▁depreciation	-7752
Crl	-7753
▁embod	-7754
▁Patent	-7755
▁negoti	-7756
▁vulner	-7757
▁infirmity	-7758
▁memorandum	-7759
▁investigate	-7760
HER	-7761
▁|(	-7762
▁Coal	-7763
▁Motor	-7764
▁secret	-7765
▁tendered	-7766
▁occurring	-7767
▁sensitive	-7768
▁altogether	-7769
▁enforceable	-7770
coh	-7771
▁Din	-7772
▁Shi	-7773
aried	-7774
works	-7775
▁facet	-7776
istence	-7777
▁affili	-7778
▁guided	-7779
▁taxing	-7780
▁illness	-7781
▁recently	-7782
▁therefrom	-7783
▁denomination	-7784
mity	-7785
▁pil	-7786
▁ones	-7787
▁roll	-7788
▁convin	-7789
▁Examination	-7790
eced	-7791
▁bur	-7792
estern	-7793
▁pages	-7794
▁waste	-7795
Section	-7796
▁incumb	-7797
▁mortem	-7798
▁answers	-7799
akrishnan	-7800
▁exhaustive	-7801
On	-7802
long	-7803
ertiliz	-7804
▁assent	-7805
▁falsely	-7806
▁Chemical	-7807
▁declaring	-7808
▁Employment	-7809
▁ascertained	-7810
▁Av	-7811
ondon	-7812
stated	-7813
▁Press	-7814
▁annex	-7815
▁manage	-7816
▁species	-7817
ederation	-7818
▁Commerce	-7819
▁narrated	-7820
▁Professor	-7821
▁differences	-7822
▁RI	-7823
▁Ahmad	-7824
▁China	-7825
▁preval	-7826
hibition	-7827
▁complic	-7828
▁practition	-7829
▁formulation	-7830
ura	-7831
hers	-7832
indra	-7833
▁Life	-7834
▁inher	-7835
reening	-7836
▁Indira	-7837
▁matrix	-7838
▁returns	-7839
▁Meghalaya	-7840
▁AD	-7841
▁ap	-7842
▁sun	-7843
opped	-7844
▁Bach	-7845
▁murd	-7846
ardship	-7847
▁driven	-7848
▁districts	-7849
▁innocence	-7850
▁secondary	-7851
▁undertakings	-7852
▁Um	-7853
dden	-7854
▁deten	-7855
▁usage	-7856
▁Reforms	-7857
▁emerging	-7858
▁entirety	-7859
▁incrimin	-7860
▁mandamus	-7861
▁formation	-7862
▁municipal	-7863
▁furnishing	-7864
▁innovative	-7865
▁prevention	-7866
FC	-7867
▁cr	-7868
iagn	-7869
iver	-7870
mail	-7871
▁See	-7872
▁Count	-7873
▁Taking	-7874
▁blocks	-7875
▁Clauses	-7876
▁platform	-7877
▁Confessional	-7878
Ms	-7879
istries	-7880
▁Pandey	-7881
▁covers	-7882
▁anteced	-7883
▁heading	-7884
▁monetary	-7885
hat	-7886
▁Mil	-7887
▁Dhan	-7888
▁Liqu	-7889
▁Need	-7890
▁occur	-7891
rection	-7892
▁Establ	-7893
▁NABARD	-7894
▁losses	-7895
▁therewith	-7896
▁Und	-7897
▁cess	-7898
▁cryst	-7899
▁lawyer	-7900
▁nearly	-7901
▁morning	-7902
▁Category	-7903
▁arriving	-7904
▁computed	-7905
▁resignation	-7906
▁developments	-7907
▁AW	-7908
▁MM	-7909
▁eld	-7910
▁Prem	-7911
▁pict	-7912
▁facto	-7913
itative	-7914
▁sealed	-7915
ographic	-7916
▁motorcy	-7917
▁superann	-7918
▁canvassed	-7919
▁pregnancy	-7920
▁producing	-7921
▁prescribes	-7922
▁hereinafter	-7923
▁BO	-7924
▁ER	-7925
▁RD	-7926
▁Kes	-7927
▁win	-7928
empted	-7929
ricket	-7930
▁enshr	-7931
laration	-7932
▁Objects	-7933
▁affects	-7934
▁coupled	-7935
▁surplus	-7936
▁presentation	-7937
atin	-7938
rained	-7939
▁premise	-7940
▁vehement	-7941
▁upholding	-7942
▁disproportion	-7943
१५	-7944
bas	-7945
cel	-7946
▁BY	-7947
▁Manual	-7948
▁uphold	-7949
▁markets	-7950
▁pressed	-7951
▁secular	-7952
▁Employees	-7953
▁estimated	-7954
▁signatures	-7955
▁Infrastructure	-7956
.]	-7957
CH	-7958
ox	-7959
ady	-7960
▁Bel	-7961
▁Six	-7962
▁eyes	-7963
▁lieu	-7964
▁zone	-7965
chnama	-7966
▁goals	-7967
▁agents	-7968
▁assert	-7969
▁hardship	-7970
▁Vigilance	-7971
inct	-7972
▁Sad	-7973
▁mob	-7974
hara	-7975
▁Wakf	-7976
▁Mills	-7977
▁Raman	-7978
▁Mahatma	-7979
▁Marriage	-7980
▁Departments	-7981
▁instruments	-7982
▁provisional	-7983
▁ID	-7984
amin	-7985
araj	-7986
▁Opp	-7987
▁Fact	-7988
▁curt	-7989
▁Laksh	-7990
▁marry	-7991
▁Orders	-7992
▁regime	-7993
▁dividend	-7994
▁reducing	-7995
▁Australia	-7996
▁classified	-7997
▁expeditiously	-7998
ams	-7999
ese	-8000
▁RE	-8001
▁Mut	-8002
trans	-8003
ulative	-8004
▁Shaikh	-8005
▁Appoint	-8006
▁emerged	-8007
▁diseases	-8008
▁Corporate	-8009
LR	-8010
▁rob	-8011
inema	-8012
▁John	-8013
ladesh	-8014
▁Local	-8015
▁Plant	-8016
▁Sunil	-8017
theless	-8018
▁Kingdom	-8019
▁concent	-8020
▁Register	-8021
▁Constable	-8022
▁discovery	-8023
▁extensive	-8024
▁Settlement	-8025
▁orientation	-8026
▁SI	-8027
▁DAY	-8028
▁Kas	-8029
oples	-8030
▁Bhat	-8031
▁Luck	-8032
▁race	-8033
advant	-8034
▁girls	-8035
▁inaug	-8036
▁sugar	-8037
▁Jaipur	-8038
▁estoppel	-8039
▁explicit	-8040
▁Guidelines	-8041
ksh	-8042
ule	-8043
▁ITR	-8044
▁Vide	-8045
▁ball	-8046
▁deny	-8047
▁sand	-8048
making	-8049
▁Among	-8050
▁Bills	-8051
▁asking	-8052
▁deduct	-8053
▁Without	-8054
▁drought	-8055
▁periods	-8056
▁emphasised	-8057
▁transparent	-8058
ops	-8059
odal	-8060
▁Bad	-8061
▁Bah	-8062
▁Most	-8063
▁disse	-8064
▁Boards	-8065
▁absent	-8066
▁escape	-8067
▁Advocates	-8068
▁Dictionary	-8069
▁impression	-8070
▁apt	-8071
▁hyd	-8072
▁magn	-8073
▁hotel	-8074
ATIONAL	-8075
▁London	-8076
▁solemn	-8077
▁street	-8078
▁gravity	-8079
▁sovereign	-8080
▁grievances	-8081
▁independently	-8082
iat	-8083
▁Arch	-8084
▁cities	-8085
▁define	-8086
▁trained	-8087
▁European	-8088
▁mandates	-8089
▁solutions	-8090
▁contending	-8091
arm	-8092
oph	-8093
ulg	-8094
▁MW	-8095
wara	-8096
▁Sure	-8097
▁tonn	-8098
▁Ambed	-8099
▁Fourth	-8100
▁Letter	-8101
▁extingu	-8102
▁executing	-8103
▁telephone	-8104
▁convenient	-8105
▁personally	-8106
OP	-8107
uru	-8108
▁MC	-8109
▁Crl	-8110
▁Pad	-8111
▁bud	-8112
▁Hold	-8113
▁chap	-8114
▁resc	-8115
▁Today	-8116
▁stret	-8117
▁train	-8118
duction	-8119
▁invoke	-8120
▁failing	-8121
bursement	-8122
▁numerous	-8123
▁allocated	-8124
▁assaulted	-8125
▁assertion	-8126
▁assurance	-8127
▁attempted	-8128
▁expedient	-8129
omal	-8130
▁Rem	-8131
▁Area	-8132
▁mines	-8133
▁vague	-8134
entions	-8135
▁Mysore	-8136
▁device	-8137
▁temper	-8138
▁Guarant	-8139
▁describ	-8140
▁Ambedkar	-8141
▁maintainability	-8142
▁Amb	-8143
▁DDA	-8144
▁Jal	-8145
cated	-8146
▁Cell	-8147
▁Open	-8148
ourage	-8149
worthy	-8150
▁dance	-8151
▁Conduct	-8152
▁resolve	-8153
▁personality	-8154
enary	-8155
house	-8156
▁Asia	-8157
▁hour	-8158
▁Kishan	-8159
▁headed	-8160
▁Eastern	-8161
▁intermedi	-8162
▁regularly	-8163
▁assignment	-8164
▁generating	-8165
▁leadership	-8166
▁reinstatement	-8167
eas	-8168
▁Hari	-8169
▁UIDAI	-8170
▁unity	-8171
▁Forces	-8172
carriage	-8173
▁entitle	-8174
▁resorted	-8175
▁initiation	-8176
▁contradictions	-8177
Ar	-8178
HO	-8179
ola	-8180
▁UP	-8181
▁pp	-8182
arya	-8183
dish	-8184
rier	-8185
▁PPA	-8186
▁Who	-8187
Inspect	-8188
▁engage	-8189
▁kumari	-8190
▁repugn	-8191
▁speaks	-8192
▁closely	-8193
▁pertains	-8194
▁starting	-8195
ARY	-8196
oda	-8197
▁brib	-8198
▁afresh	-8199
▁titled	-8200
▁Inquiry	-8201
▁charitable	-8202
▁irregularity	-8203
▁UK	-8204
ulled	-8205
▁overt	-8206
icature	-8207
▁season	-8208
▁Firstly	-8209
▁Product	-8210
▁exports	-8211
▁nuclear	-8212
▁Registry	-8213
▁answering	-8214
▁disregard	-8215
▁Deposition	-8216
▁stipulation	-8217
▁discrepancies	-8218
AND	-8219
lap	-8220
nity	-8221
rent	-8222
▁Ten	-8223
ammad	-8224
astic	-8225
▁Raju	-8226
▁jeep	-8227
▁quick	-8228
▁trend	-8229
▁freedoms	-8230
▁enshrined	-8231
▁Prevention	-8232
▁MA	-8233
vast	-8234
▁Gul	-8235
▁alcoh	-8236
▁knife	-8237
▁clarify	-8238
▁extends	-8239
▁heritage	-8240
▁disadvant	-8241
▁automatically	-8242
ju	-8243
Moh	-8244
hik	-8245
heet	-8246
▁unsu	-8247
▁votes	-8248
▁watch	-8249
▁allows	-8250
▁farmers	-8251
▁inadequate	-8252
▁Environmental	-8253
ukh	-8254
apan	-8255
▁bye	-8256
▁die	-8257
tical	-8258
▁Many	-8259
▁bars	-8260
cludes	-8261
umping	-8262
▁revers	-8263
▁Centres	-8264
▁Accounts	-8265
▁assisted	-8266
▁architect	-8267
▁entitlement	-8268
▁supplementary	-8269
▁Ti	-8270
▁UT	-8271
osex	-8272
▁Due	-8273
▁Sund	-8274
▁bare	-8275
▁lose	-8276
▁prox	-8277
▁tools	-8278
▁guardian	-8279
▁licences	-8280
▁virtually	-8281
▁Bangladesh	-8282
▁fraudulent	-8283
▁Fundamental	-8284
▁dissolution	-8285
▁Subsequently	-8286
▁consistently	-8287
▁Tal	-8288
▁bomb	-8289
▁rout	-8290
▁debts	-8291
▁fruit	-8292
▁relat	-8293
locutory	-8294
▁Neither	-8295
▁omitted	-8296
▁Juvenile	-8297
▁Secretariat	-8298
SS	-8299
IST	-8300
urg	-8301
atab	-8302
▁Dar	-8303
▁Letters	-8304
▁Lucknow	-8305
▁Seventh	-8306
▁availed	-8307
▁levelled	-8308
▁languages	-8309
▁cultivation	-8310
udi	-8311
wala	-8312
▁Yog	-8313
▁jur	-8314
▁Brah	-8315
▁Poll	-8316
▁truck	-8317
▁ceased	-8318
▁condol	-8319
▁grants	-8320
▁Natural	-8321
▁shifted	-8322
Amendment	-8323
▁belonged	-8324
▁operates	-8325
▁scholars	-8326
▁contraband	-8327
▁difficulties	-8328
▁pronouncements	-8329
▁Sk	-8330
▁PAN	-8331
▁lis	-8332
▁manip	-8333
▁Edition	-8334
ciplinary	-8335
▁composite	-8336
▁marriages	-8337
▁Judicature	-8338
▁accountability	-8339
ION	-8340
▁IO	-8341
▁AOR	-8342
▁Sav	-8343
▁ang	-8344
▁vic	-8345
ortion	-8346
▁grade	-8347
ferring	-8348
▁conspir	-8349
▁concepts	-8350
▁marginal	-8351
▁violates	-8352
▁prevented	-8353
▁philosophy	-8354
▁FO	-8355
ailed	-8356
rafts	-8357
arshan	-8358
▁unlike	-8359
▁deserve	-8360
▁reserve	-8361
▁Rajendra	-8362
▁secondly	-8363
▁illegally	-8364
▁contemplates	-8365
▁technological	-8366
UK	-8367
yer	-8368
▁clin	-8369
▁infl	-8370
ography	-8371
▁Africa	-8372
▁sample	-8373
▁showed	-8374
▁varied	-8375
▁Disputes	-8376
▁miscarriage	-8377
)]	-8378
ton	-8379
exam	-8380
rote	-8381
arden	-8382
▁Nand	-8383
▁Mittal	-8384
▁occurs	-8385
▁offending	-8386
resentation	-8387
▁Declaration	-8388
▁unsustainable	-8389
▁AF	-8390
▁Dw	-8391
▁Gas	-8392
▁ran	-8393
▁inad	-8394
▁happen	-8395
▁strugg	-8396
▁subsidy	-8397
▁mandated	-8398
▁interfering	-8399
▁intellectual	-8400
▁Fee	-8401
▁Saw	-8402
▁tim	-8403
▁van	-8404
▁brid	-8405
▁harmony	-8406
clamation	-8407
▁friendship	-8408
▁restoration	-8409
It	-8410
▁Ved	-8411
▁ago	-8412
oking	-8413
▁sequ	-8414
▁sixty	-8415
▁stress	-8416
▁Reports	-8417
▁forming	-8418
▁Undertak	-8419
▁respects	-8420
▁Arunachal	-8421
▁specially	-8422
▁vehemently	-8423
▁USA	-8424
iques	-8425
▁Mach	-8426
▁shel	-8427
ananda	-8428
▁Autom	-8429
▁cotton	-8430
▁handic	-8431
▁middle	-8432
▁settle	-8433
▁decreed	-8434
▁explosives	-8435
▁reputation	-8436
▁subsidiary	-8437
▁distributed	-8438
▁requisition	-8439
▁MESS	-8440
▁ties	-8441
▁grown	-8442
▁surve	-8443
service	-8444
▁MESSAGE	-8445
▁ensured	-8446
▁deducted	-8447
pus	-8448
umn	-8449
▁MP	-8450
zing	-8451
iders	-8452
▁scri	-8453
▁posed	-8454
▁firstly	-8455
▁Advisory	-8456
▁functional	-8457
▁repeatedly	-8458
▁characteristics	-8459
▁CE	-8460
▁pi	-8461
elve	-8462
osis	-8463
want	-8464
▁wel	-8465
below	-8466
▁sake	-8467
ensing	-8468
▁twice	-8469
Appeals	-8470
▁Safety	-8471
▁scales	-8472
▁convers	-8473
▁director	-8474
▁Ahmedabad	-8475
▁cooperative	-8476
▁photographs	-8477
eli	-8478
ota	-8479
▁Use	-8480
▁sea	-8481
ewell	-8482
itime	-8483
▁Time	-8484
ivided	-8485
▁emerge	-8486
▁sudden	-8487
▁peoples	-8488
▁whereof	-8489
condition	-8490
▁prisoner	-8491
▁enjoyment	-8492
lor	-8493
urch	-8494
▁Cro	-8495
▁eve	-8496
suant	-8497
called	-8498
stante	-8499
▁helps	-8500
▁shops	-8501
▁enabled	-8502
▁contested	-8503
▁excluding	-8504
▁hospitals	-8505
▁arbitrators	-8506
▁adjudicating	-8507
ils	-8508
▁vex	-8509
rates	-8510
▁Juris	-8511
▁upper	-8512
▁artific	-8513
▁apprehend	-8514
▁manufacturers	-8515
ips	-8516
what	-8517
▁Dam	-8518
▁VII	-8519
appre	-8520
aining	-8521
▁Level	-8522
▁analysed	-8523
▁neighbour	-8524
▁enunciated	-8525
wer	-8526
▁Cal	-8527
▁arm	-8528
▁tea	-8529
ccess	-8530
▁frust	-8531
▁remun	-8532
▁Academ	-8533
▁Rakesh	-8534
▁attorney	-8535
▁enhancing	-8536
▁reiterate	-8537
▁restraint	-8538
▁appreciating	-8539
▁superannuation	-8540
▁00	-8541
anta	-8542
ament	-8543
▁isol	-8544
▁repl	-8545
▁runs	-8546
▁Noida	-8547
▁supers	-8548
▁ceiling	-8549
▁Children	-8550
▁Preamble	-8551
▁covering	-8552
▁meantime	-8553
▁utilized	-8554
WC	-8555
▁NGT	-8556
▁Late	-8557
▁Lords	-8558
▁Canada	-8559
▁double	-8560
▁Manipur	-8561
▁cartrid	-8562
▁testing	-8563
▁conveyed	-8564
▁incidents	-8565
Tax	-8566
belie	-8567
itate	-8568
rolled	-8569
▁guide	-8570
▁format	-8571
▁Various	-8572
▁installed	-8573
▁indication	-8574
▁motorcycle	-8575
▁incriminating	-8576
▁investigations	-8577
▁NC	-8578
ambig	-8579
▁blank	-8580
▁dynam	-8581
▁motiv	-8582
▁Unless	-8583
▁defeat	-8584
▁misuse	-8585
▁vendor	-8586
▁climate	-8587
▁dedicated	-8588
▁influenced	-8589
▁threatened	-8590
▁prejudicial	-8591
▁satisfactory	-8592
attle	-8593
▁Ragh	-8594
before	-8595
▁Democ	-8596
▁widow	-8597
▁moving	-8598
▁perfect	-8599
▁propose	-8600
▁disappro	-8601
▁discount	-8602
▁exempted	-8603
▁guarantees	-8604
▁incentives	-8605
▁suppression	-8606
▁Ty	-8607
room	-8608
▁Jaw	-8609
▁fet	-8610
▁Back	-8611
▁COUR	-8612
uments	-8613
▁Armed	-8614
▁saved	-8615
▁Payment	-8616
▁remanded	-8617
▁strongly	-8618
▁amounting	-8619
▁incumbent	-8620
▁Ministries	-8621
▁committees	-8622
▁Commissions	-8623
▁clarification	-8624
mpt	-8625
was	-8626
▁MB	-8627
▁SP	-8628
wife	-8629
▁dry	-8630
▁evol	-8631
▁bonds	-8632
▁colon	-8633
▁indig	-8634
▁solar	-8635
▁Return	-8636
▁factum	-8637
▁carries	-8638
▁machine	-8639
▁unambig	-8640
▁comments	-8641
▁acquiring	-8642
▁recognize	-8643
▁comparison	-8644
▁healthcare	-8645
▁conservation	-8646
ohar	-8647
▁lik	-8648
ivedi	-8649
▁flex	-8650
▁ideal	-8651
raction	-8652
▁Certain	-8653
▁Pursuant	-8654
▁exercises	-8655
▁possessed	-8656
▁continuance	-8657
▁surrounding	-8658
▁concurrently	-8659
▁IIT	-8660
▁dilig	-8661
▁forced	-8662
▁quarter	-8663
▁strategic	-8664
▁witnessed	-8665
▁Legislatures	-8666
▁modifications	-8667
rec	-8668
othe	-8669
▁Exh	-8670
▁Nep	-8671
iscal	-8672
▁rice	-8673
▁wrongful	-8674
do	-8675
uj	-8676
PEAL	-8677
ights	-8678
▁ahead	-8679
vastava	-8680
▁Proceed	-8681
▁envisages	-8682
▁untenable	-8683
▁Monitoring	-8684
▁precedents	-8685
AYS	-8686
asa	-8687
ocon	-8688
▁ICT	-8689
▁unp	-8690
Union	-8691
▁Deep	-8692
▁mine	-8693
akhand	-8694
▁Heard	-8695
▁Vikas	-8696
▁stone	-8697
reshold	-8698
▁Tariff	-8699
▁facing	-8700
▁prompt	-8701
▁Through	-8702
▁adjourn	-8703
▁footing	-8704
▁logical	-8705
▁nominee	-8706
appellants	-8707
▁negligent	-8708
▁weightage	-8709
▁apparently	-8710
▁meaningful	-8711
▁substances	-8712
▁subxadsection	-8713
nty	-8714
fort	-8715
isms	-8716
▁Bri	-8717
asion	-8718
▁root	-8719
incial	-8720
▁aspir	-8721
ildlife	-8722
isputed	-8723
urement	-8724
▁discon	-8725
▁Dwivedi	-8726
▁remarks	-8727
▁hereinbelow	-8728
UG	-8729
nal	-8730
aign	-8731
mark	-8732
▁EVE	-8733
mises	-8734
▁Point	-8735
▁micro	-8736
▁Bharati	-8737
▁Majesty	-8738
▁consign	-8739
▁attitude	-8740
▁offering	-8741
▁overruled	-8742
▁accounting	-8743
▁alteration	-8744
ITY	-8745
cles	-8746
tation	-8747
▁diagn	-8748
▁dwell	-8749
▁inequ	-8750
▁intra	-8751
▁wrote	-8752
viously	-8753
▁Indians	-8754
▁heinous	-8755
▁medicine	-8756
▁Resources	-8757
▁Subordinate	-8758
▁]	-8759
VER	-8760
pass	-8761
▁Ravi	-8762
▁aband	-8763
▁abund	-8764
▁brand	-8765
▁broadly	-8766
▁opinions	-8767
▁receipts	-8768
▁Petroleum	-8769
▁comprised	-8770
▁submitting	-8771
▁reconsideration	-8772
▁Ger	-8773
▁feas	-8774
▁Prabh	-8775
whether	-8776
▁Nagpur	-8777
▁trials	-8778
▁waters	-8779
▁restore	-8780
▁invested	-8781
▁directive	-8782
▁delegation	-8783
▁antecedents	-8784
IP	-8785
Sh	-8786
▁suo	-8787
▁Gold	-8788
▁onus	-8789
ecific	-8790
▁Later	-8791
▁Paras	-8792
▁Vehic	-8793
▁APPEAL	-8794
▁Hearing	-8795
▁promulg	-8796
▁utilised	-8797
▁Guarantee	-8798
▁threshold	-8799
▁Limitation	-8800
▁adjustment	-8801
▁retrospect	-8802
iva	-8803
fers	-8804
ignty	-8805
▁Integ	-8806
▁Pract	-8807
▁Swami	-8808
▁chest	-8809
atories	-8810
▁Hindus	-8811
▁career	-8812
▁confine	-8813
▁prolong	-8814
▁rationale	-8815
▁stability	-8816
▁surcharge	-8817
▁deliberate	-8818
dev	-8819
▁Az	-8820
▁MR	-8821
-----	-8822
▁thor	-8823
▁newly	-8824
▁budget	-8825
▁upgrad	-8826
▁annexed	-8827
▁delinqu	-8828
▁JJ	-8829
ceut	-8830
five	-8831
ford	-8832
▁map	-8833
orrow	-8834
▁abst	-8835
▁vice	-8836
volous	-8837
▁incomp	-8838
▁nonxad	-8839
▁Finally	-8840
▁decides	-8841
▁verdict	-8842
▁Projects	-8843
▁military	-8844
▁peaceful	-8845
▁Referring	-8846
▁Innovation	-8847
▁absorption	-8848
▁concluding	-8849
▁literature	-8850
▁vulnerable	-8851
▁approximately	-8852
▁Five	-8853
entral	-8854
ortium	-8855
▁Scale	-8856
▁Treat	-8857
▁Liquid	-8858
▁Relying	-8859
▁Original	-8860
▁prevalent	-8861
▁prospects	-8862
▁implicated	-8863
▁ICC	-8864
▁syn	-8865
endix	-8866
owner	-8867
▁Math	-8868
▁Misra	-8869
ruction	-8870
▁sharma	-8871
▁ceremon	-8872
▁convert	-8873
▁implies	-8874
▁quarrel	-8875
▁charging	-8876
ographical	-8877
orporation	-8878
▁Marketing	-8879
▁contributed	-8880
iries	-8881
▁Book	-8882
▁consec	-8883
▁facets	-8884
▁rememb	-8885
▁enjoyed	-8886
▁improved	-8887
▁electoral	-8888
▁terrorism	-8889
▁television	-8890
▁chargesheet	-8891
▁deprivation	-8892
▁establishes	-8893
ALL	-8894
unk	-8895
▁Ak	-8896
▁haz	-8897
▁sad	-8898
abhai	-8899
▁bias	-8900
▁extr	-8901
▁tell	-8902
ursing	-8903
▁Citiz	-8904
▁grass	-8905
▁spouse	-8906
▁degrees	-8907
▁prayers	-8908
▁doubtful	-8909
▁promoter	-8910
▁strategy	-8911
▁repayment	-8912
▁Distribution	-8913
▁declarations	-8914
Is	-8915
▁IA	-8916
anim	-8917
▁Bro	-8918
▁rod	-8919
▁....	-8920
▁Agra	-8921
▁margin	-8922
▁Resource	-8923
▁efficacy	-8924
▁Statutory	-8925
▁Uttarakhand	-8926
▁adjudicated	-8927
▁infringement	-8928
PG	-8929
apt	-8930
▁Van	-8931
▁Chou	-8932
▁TRAI	-8933
igible	-8934
▁rests	-8935
writing	-8936
▁intend	-8937
▁merger	-8938
▁notion	-8939
▁forests	-8940
▁killing	-8941
▁someone	-8942
▁impleaded	-8943
▁thereupon	-8944
▁substantiate	-8945
Rup	-8946
inc	-8947
isal	-8948
wali	-8949
▁acre	-8950
▁bull	-8951
▁flats	-8952
▁Export	-8953
▁managed	-8954
▁utility	-8955
▁replaced	-8956
▁prohibits	-8957
▁attributable	-8958
▁Om	-8959
▁empt	-8960
▁reck	-8961
icable	-8962
▁mouth	-8963
▁trees	-8964
▁Charge	-8965
▁amalgam	-8966
▁stopped	-8967
▁surface	-8968
▁thinking	-8969
appropriate	-8970
▁collaboration	-8971
bi	-8972
▁IR	-8973
gaon	-8974
oper	-8975
ented	-8976
▁Know	-8977
▁cycle	-8978
▁pistol	-8979
deceased	-8980
▁exceeds	-8981
Respondent	-8982
termination	-8983
arp	-8984
uter	-8985
▁Tah	-8986
▁kidn	-8987
▁demol	-8988
▁wants	-8989
ceutical	-8990
priation	-8991
▁unknown	-8992
▁diversity	-8993
▁remembered	-8994
▁endorsement	-8995
▁erroneously	-8996
▁functionaries	-8997
▁interlocutory	-8998
▁representations	-8999
FA	-9000
END	-9001
dec	-9002
ENCE	-9003
bidd	-9004
▁cat	-9005
▁Guru	-9006
orters	-9007
rative	-9008
▁scoot	-9009
clusion	-9010
▁Number	-9011
▁advise	-9012
▁bodily	-9013
▁silent	-9014
▁twelve	-9015
graduate	-9016
▁attacked	-9017
▁verified	-9018
sufficient	-9019
▁Chaudhary	-9020
omy	-9021
▁AR	-9022
iled	-9023
ooth	-9024
▁Han	-9025
▁cam	-9026
▁Jail	-9027
▁Mult	-9028
▁Norm	-9029
▁disag	-9030
▁revol	-9031
▁deleted	-9032
▁credited	-9033
▁mutually	-9034
▁sanctity	-9035
▁introduce	-9036
▁attachment	-9037
▁previously	-9038
HR	-9039
alla	-9040
iful	-9041
▁Set	-9042
PWxad	-9043
raman	-9044
uriae	-9045
▁Mang	-9046
accept	-9047
ugopal	-9048
▁Model	-9049
▁Stock	-9050
▁condem	-9051
▁master	-9052
▁adultery	-9053
▁frivolous	-9054
▁construing	-9055
Bs	-9056
may	-9057
▁War	-9058
▁Sidd	-9059
Rupees	-9060
applic	-9061
awalli	-9062
▁Harish	-9063
▁errors	-9064
▁latest	-9065
▁leader	-9066
▁Statute	-9067
▁monitor	-9068
▁partial	-9069
▁torture	-9070
▁tendency	-9071
▁warranted	-9072
ux	-9073
duc	-9074
▁DE	-9075
▁LA	-9076
rary	-9077
utors	-9078
▁Body	-9079
▁load	-9080
▁Grade	-9081
estival	-9082
▁Record	-9083
▁conced	-9084
▁sphere	-9085
▁thrown	-9086
▁Against	-9087
▁daughters	-9088
▁retention	-9089
za	-9090
▁Pud	-9091
▁hor	-9092
▁eman	-9093
▁......	-9094
▁beings	-9095
▁parity	-9096
▁struggle	-9097
▁Obviously	-9098
▁unnatural	-9099
▁inevitable	-9100
▁intimation	-9101
▁landowners	-9102
▁Educational	-9103
▁questioning	-9104
▁reasonableness	-9105
ids	-9106
coming	-9107
▁rebut	-9108
▁resid	-9109
entures	-9110
ressing	-9111
▁Partic	-9112
▁connot	-9113
▁Deposit	-9114
▁Instead	-9115
▁techniques	-9116
▁sovereignty	-9117
EST	-9118
MIN	-9119
oshi	-9120
owing	-9121
▁Tour	-9122
▁impe	-9123
venues	-9124
settled	-9125
ucherry	-9126
▁lodging	-9127
▁vesting	-9128
▁inferred	-9129
▁pleading	-9130
▁refusing	-9131
▁completing	-9132
▁commodities	-9133
▁congratulate	-9134
▁remuneration	-9135
▁transformation	-9136
nu	-9137
▁Beg	-9138
disha	-9139
▁reim	-9140
▁couple	-9141
▁strang	-9142
▁utmost	-9143
▁nutrition	-9144
Se	-9145
igam	-9146
▁bit	-9147
eding	-9148
force	-9149
ighed	-9150
▁Russ	-9151
▁Sukh	-9152
▁Tehs	-9153
▁news	-9154
TITION	-9155
▁bears	-9156
▁detri	-9157
▁shift	-9158
▁spons	-9159
▁analog	-9160
▁planned	-9161
▁Interpre	-9162
▁spectrum	-9163
▁financing	-9164
▁Laboratory	-9165
▁Institution	-9166
▁concurrence	-9167
harmaceutical	-9168
▁continuously	-9169
SA	-9170
▁CG	-9171
▁Lep	-9172
▁ste	-9173
▁Tuls	-9174
▁Cause	-9175
▁Draft	-9176
▁widely	-9177
▁America	-9178
▁Whereas	-9179
▁alcohol	-9180
▁earnest	-9181
▁inspire	-9182
▁Addition	-9183
▁ambiguity	-9184
▁deliberately	-9185
abs	-9186
back	-9187
▁ped	-9188
ician	-9189
▁Babu	-9190
▁Grad	-9191
legium	-9192
▁union	-9193
▁adhere	-9194
▁closure	-9195
▁profile	-9196
▁regions	-9197
▁adjudicate	-9198
▁overriding	-9199
▁facilitating	-9200
▁unauthorized	-9201
alle	-9202
ixed	-9203
will	-9204
apore	-9205
inity	-9206
kumar	-9207
▁Hard	-9208
▁Requ	-9209
▁phen	-9210
▁Madan	-9211
▁Region	-9212
▁ensures	-9213
▁fingerpr	-9214
▁reflects	-9215
▁departure	-9216
▁predecess	-9217
▁Securities	-9218
hab	-9219
▁Sup	-9220
▁sav	-9221
▁sle	-9222
▁Radh	-9223
▁tune	-9224
ivable	-9225
▁Sever	-9226
▁Supply	-9227
▁attain	-9228
▁rarest	-9229
aturally	-9230
▁Network	-9231
▁Singhvi	-9232
▁skilled	-9233
▁Implement	-9234
▁accompany	-9235
▁contradict	-9236
▁forfeiture	-9237
▁prosecuted	-9238
▁combination	-9239
▁legislatures	-9240
rim	-9241
eces	-9242
iven	-9243
veen	-9244
andra	-9245
▁Mill	-9246
▁brut	-9247
▁tool	-9248
uating	-9249
▁coerc	-9250
itarian	-9251
▁emerges	-9252
▁squarely	-9253
▁reporting	-9254
▁variation	-9255
▁artificial	-9256
▁postulates	-9257
▁purchasers	-9258
▁amalgamation	-9259
▁investigated	-9260
▁CC	-9261
▁RA	-9262
oves	-9263
▁Rev	-9264
▁Major	-9265
▁elder	-9266
▁deeply	-9267
▁forged	-9268
▁sheets	-9269
▁volume	-9270
▁briefly	-9271
▁Justices	-9272
▁appended	-9273
▁coverage	-9274
▁somewhat	-9275
▁Venugopal	-9276
▁deductions	-9277
ny	-9278
▁cm	-9279
UMAR	-9280
▁bab	-9281
▁ine	-9282
▁cler	-9283
▁feet	-9284
▁Medic	-9285
▁Dinesh	-9286
▁Global	-9287
▁gather	-9288
▁ignore	-9289
▁chapter	-9290
▁exchanges	-9291
▁summoning	-9292
▁introducing	-9293
')	-9294
TO	-9295
▁CH	-9296
▁१६	-9297
book	-9298
oked	-9299
▁bids	-9300
▁cold	-9301
▁jour	-9302
atious	-9303
inding	-9304
▁Micro	-9305
ailable	-9306
▁broken	-9307
▁encumb	-9308
personal	-9309
▁denying	-9310
▁imposes	-9311
overnment	-9312
▁adjusted	-9313
▁ordinance	-9314
▁preventing	-9315
▁Electronics	-9316
▁utilization	-9317
▁governmental	-9318
▁communications	-9319
quar	-9320
▁Gaj	-9321
▁fish	-9322
▁slum	-9323
▁unex	-9324
▁wood	-9325
▁Tiwari	-9326
▁propag	-9327
▁unanim	-9328
▁Working	-9329
▁cutting	-9330
▁publish	-9331
▁tractor	-9332
▁managing	-9333
▁Puducherry	-9334
▁physically	-9335
▁suitability	-9336
▁contradiction	-9337
SP	-9338
no	-9339
asi	-9340
ica	-9341
that	-9342
▁Ess	-9343
uster	-9344
▁Copy	-9345
▁KUMAR	-9346
▁Instru	-9347
▁Odisha	-9348
▁silver	-9349
▁Parties	-9350
▁inquest	-9351
▁immunity	-9352
▁perceived	-9353
▁governments	-9354
▁probability	-9355
ifth	-9356
▁pad	-9357
▁wal	-9358
ulsion	-9359
▁Basic	-9360
▁datab	-9361
▁habit	-9362
▁Bachan	-9363
▁modify	-9364
▁picture	-9365
▁Forensic	-9366
▁alleging	-9367
▁fertiliz	-9368
▁mischief	-9369
▁occupied	-9370
missibility	-9371
▁perception	-9372
▁requesting	-9373
▁participants	-9374
Adv	-9375
oya	-9376
ensu	-9377
▁ven	-9378
▁Path	-9379
acious	-9380
▁Works	-9381
▁realm	-9382
▁score	-9383
▁vests	-9384
▁begins	-9385
▁deploy	-9386
▁fiscal	-9387
▁Schemes	-9388
▁abscond	-9389
▁thorough	-9390
cellaneous	-9391
▁Directive	-9392
▁discontin	-9393
▁litigants	-9394
▁examinations	-9395
▁Establishment	-9396
▁organisations	-9397
jo	-9398
▁Ul	-9399
▁Max	-9400
enous	-9401
▁blow	-9402
▁bone	-9403
▁wait	-9404
itical	-9405
renades	-9406
resents	-9407
▁Result	-9408
▁NATIONAL	-9409
▁removing	-9410
▁undivided	-9411
try	-9412
adur	-9413
enda	-9414
gans	-9415
ulla	-9416
▁Bye	-9417
▁WIT	-9418
▁flu	-9419
▁emot	-9420
▁rede	-9421
▁parte	-9422
arendra	-9423
▁stored	-9424
chnology	-9425
ffective	-9426
▁Several	-9427
▁Standards	-9428
▁elaborately	-9429
▁continuation	-9430
NO	-9431
▁fr	-9432
macy	-9433
ners	-9434
▁ble	-9435
dhury	-9436
▁Bhut	-9437
▁Coming	-9438
▁Merely	-9439
▁Narain	-9440
▁happens	-9441
▁trustee	-9442
▁weighed	-9443
▁PETITION	-9444
▁inviting	-9445
▁discarded	-9446
▁suspended	-9447
▁Complainant	-9448
▁Additionally	-9449
▁Disciplinary	-9450
▁prescription	-9451
LA	-9452
enn	-9453
▁Sl	-9454
wati	-9455
▁CJI	-9456
▁sty	-9457
▁beat	-9458
aswamy	-9459
▁Chart	-9460
▁Nigam	-9461
▁accus	-9462
▁blind	-9463
▁chose	-9464
▁derog	-9465
▁leased	-9466
▁poison	-9467
▁mission	-9468
▁Defendants	-9469
▁Federation	-9470
▁manifestly	-9471
▁Prosecution	-9472
▁destruction	-9473
▁interaction	-9474
▁unfortunate	-9475
odh	-9476
son	-9477
▁Rad	-9478
▁Cult	-9479
▁Drug	-9480
▁hall	-9481
▁Japan	-9482
▁Primary	-9483
▁minister	-9484
▁terminate	-9485
▁represents	-9486
▁Kir	-9487
▁cha	-9488
▁Team	-9489
ailing	-9490
licate	-9491
▁fract	-9492
▁links	-9493
▁cinema	-9494
▁staying	-9495
▁Needless	-9496
▁pregnant	-9497
▁provider	-9498
▁remitted	-9499
▁relatable	-9500
▁prospecting	-9501
▁Organization	-9502
▁implications	-9503
Dr	-9504
we	-9505
kin	-9506
ALCO	-9507
ucid	-9508
▁Kot	-9509
▁raj	-9510
▁seg	-9511
▁Care	-9512
illary	-9513
raisal	-9514
▁Black	-9515
▁lists	-9516
▁thank	-9517
▁seeing	-9518
▁operated	-9519
▁delinquent	-9520
▁instruction	-9521
▁shareholder	-9522
TRA	-9523
bon	-9524
eop	-9525
och	-9526
ints	-9527
reen	-9528
assed	-9529
essed	-9530
erving	-9531
viable	-9532
▁empty	-9533
▁bidder	-9534
▁fruits	-9535
▁intest	-9536
▁parade	-9537
▁decline	-9538
▁stations	-9539
▁therefor	-9540
▁Lordships	-9541
▁locations	-9542
▁boundaries	-9543
▁inconsistency	-9544
SION	-9545
atha	-9546
bury	-9547
anged	-9548
▁rash	-9549
istent	-9550
▁Griev	-9551
▁owing	-9552
closure	-9553
▁devoid	-9554
▁organs	-9555
▁plural	-9556
▁visual	-9557
▁Charges	-9558
▁comprises	-9559
▁copyright	-9560
▁Compensation	-9561
lit	-9562
▁Baz	-9563
▁Ren	-9564
rence	-9565
▁Cond	-9566
▁Loan	-9567
▁amen	-9568
▁cant	-9569
▁inse	-9570
▁wakf	-9571
▁“...	-9572
▁chief	-9573
alities	-9574
▁Regard	-9575
▁anomal	-9576
▁slight	-9577
▁versus	-9578
▁averred	-9579
orticulture	-9580
▁multiplier	-9581
▁aspirations	-9582
▁integration	-9583
▁incorporation	-9584
pa	-9585
▁RO	-9586
▁Jha	-9587
▁Mer	-9588
nagar	-9589
▁Brij	-9590
▁York	-9591
▁dies	-9592
ecause	-9593
▁Audit	-9594
▁Cases	-9595
ressive	-9596
▁encomp	-9597
▁Express	-9598
▁Muslims	-9599
▁digital	-9600
▁Contempt	-9601
▁implicit	-9602
▁Singapore	-9603
▁happiness	-9604
▁passengers	-9605
▁preventive	-9606
▁aggravating	-9607
▁demonstrated	-9608
▁correspondence	-9609
IO	-9610
DER	-9611
▁CM	-9612
▁NT	-9613
▁Pla	-9614
▁Rah	-9615
▁tub	-9616
cular	-9617
▁drew	-9618
▁pled	-9619
▁Benef	-9620
▁Lalit	-9621
▁Staff	-9622
▁cards	-9623
▁sites	-9624
payment	-9625
▁timely	-9626
▁Jagdish	-9627
velopment	-9628
▁inability	-9629
▁deputation	-9630
▁obligatory	-9631
▁calculation	-9632
mo	-9633
abh	-9634
pee	-9635
pth	-9636
ATES	-9637
mosp	-9638
▁Naz	-9639
based	-9640
ighty	-9641
ainted	-9642
▁Broad	-9643
▁Death	-9644
▁Nepal	-9645
▁Salve	-9646
▁dream	-9647
▁worker	-9648
▁reviewed	-9649
▁Complaint	-9650
▁developer	-9651
▁disposing	-9652
▁transfers	-9653
▁definitely	-9654
▁encouraged	-9655
▁liquidation	-9656
▁participating	-9657
▁proportionate	-9658
▁IF	-9659
icit	-9660
ouch	-9661
▁Cost	-9662
▁SAYS	-9663
▁Guard	-9664
▁enorm	-9665
▁condon	-9666
dictions	-9667
position	-9668
▁journey	-9669
▁panchay	-9670
▁pleased	-9671
▁balanced	-9672
▁drinking	-9673
▁internet	-9674
▁manpower	-9675
▁Pollution	-9676
▁enforcing	-9677
▁preparing	-9678
▁Plaintiffs	-9679
▁institutes	-9680
▁conditional	-9681
▁demographic	-9682
▁preservation	-9683
kim	-9684
disc	-9685
▁IST	-9686
▁Som	-9687
▁Mahesh	-9688
▁Ranjit	-9689
▁meters	-9690
▁Manohar	-9691
▁options	-9692
▁scooter	-9693
▁pointing	-9694
▁striking	-9695
▁dishonest	-9696
▁complained	-9697
▁expiration	-9698
▁beneficiary	-9699
▁unambiguous	-9700
▁propositions	-9701
▁appropriately	-9702
PO	-9703
iyar	-9704
▁CCI	-9705
▁Nir	-9706
▁SPE	-9707
ancel	-9708
▁MBBS	-9709
▁evid	-9710
▁hill	-9711
▁Brief	-9712
▁store	-9713
▁Doctor	-9714
▁Tender	-9715
▁wholes	-9716
▁Chander	-9717
▁Schools	-9718
▁defects	-9719
▁discern	-9720
▁playing	-9721
▁sending	-9722
▁confusion	-9723
▁discovered	-9724
▁advancement	-9725
▁interesting	-9726
oken	-9727
onds	-9728
cking	-9729
▁fake	-9730
▁heav	-9731
formance	-9732
▁clients	-9733
▁praying	-9734
▁actively	-9735
▁foremost	-9736
▁generate	-9737
▁inferior	-9738
▁dangerous	-9739
▁constituent	-9740
▁entertaining	-9741
DF	-9742
▁Ku	-9743
raud	-9744
▁RTI	-9745
gence	-9746
▁Dave	-9747
▁lacs	-9748
stream	-9749
▁print	-9750
▁sight	-9751
▁passes	-9752
▁Jawahar	-9753
▁expanded	-9754
▁attendance	-9755
▁redemption	-9756
▁references	-9757
▁prescribing	-9758
▁associations	-9759
eros	-9760
▁mos	-9761
▁orna	-9762
▁skin	-9763
artial	-9764
wealth	-9765
▁atmosp	-9766
▁ceases	-9767
▁urgent	-9768
▁Leprosy	-9769
▁evening	-9770
▁disbelie	-9771
▁interrog	-9772
▁linkages	-9773
▁restraining	-9774
MT	-9775
▁LG	-9776
norm	-9777
▁Ham	-9778
▁mig	-9779
▁upd	-9780
▁Amar	-9781
▁Item	-9782
orders	-9783
erating	-9784
▁Satish	-9785
▁adding	-9786
▁disabled	-9787
▁processed	-9788
▁vexatious	-9789
▁overlooked	-9790
▁Consolidated	-9791
ero	-9792
mia	-9793
▁Ba	-9794
▁bh	-9795
asan	-9796
Supra	-9797
amper	-9798
hered	-9799
ipped	-9800
plete	-9801
riers	-9802
▁Swar	-9803
▁Text	-9804
▁pool	-9805
▁shot	-9806
▁COURT	-9807
▁debar	-9808
▁raises	-9809
▁Greater	-9810
▁triable	-9811
▁Christian	-9812
▁penalties	-9813
▁Srivastava	-9814
▁collecting	-9815
▁jurisdictions	-9816
aik	-9817
▁Vi	-9818
▁rif	-9819
ietal	-9820
▁Docu	-9821
▁gate	-9822
angana	-9823
▁Price	-9824
▁embra	-9825
▁indef	-9826
▁Kumari	-9827
▁Adjudic	-9828
▁journal	-9829
▁obscene	-9830
▁passive	-9831
▁campaign	-9832
▁dominant	-9833
▁suggests	-9834
▁criticism	-9835
▁cartridges	-9836
▁undisputed	-9837
▁Presidential	-9838
▁strengthened	-9839
▁regularization	-9840
▁retrospectively	-9841
BD	-9842
Act	-9843
aser	-9844
onal	-9845
rage	-9846
rams	-9847
wani	-9848
▁NCL	-9849
▁wil	-9850
▁hire	-9851
▁Ganga	-9852
▁deems	-9853
velling	-9854
▁Mandal	-9855
▁intends	-9856
▁consumed	-9857
▁grievous	-9858
▁recruits	-9859
▁trustees	-9860
▁redressal	-9861
▁Undoubtedly	-9862
▁realization	-9863
▁AG	-9864
▁Ut	-9865
hari	-9866
khar	-9867
oram	-9868
▁Edn	-9869
▁anx	-9870
▁lal	-9871
▁Cler	-9872
▁xxxx	-9873
▁Sikkim	-9874
▁perman	-9875
▁pieces	-9876
▁repair	-9877
▁roster	-9878
iscation	-9879
▁survive	-9880
▁extraneous	-9881
▁identifying	-9882
▁sufficiently	-9883
Te	-9884
tee	-9885
▁fo	-9886
irds	-9887
▁hurt	-9888
▁brain	-9889
▁shape	-9890
▁usual	-9891
▁freely	-9892
rational	-9893
▁cleared	-9894
▁mentions	-9895
▁Community	-9896
▁adequately	-9897
▁Recruitment	-9898
▁communicate	-9899
oure	-9900
▁ASG	-9901
▁CIV	-9902
▁Cre	-9903
▁JUD	-9904
▁MUK	-9905
▁Sus	-9906
▁yard	-9907
▁adjud	-9908
▁breed	-9909
▁risks	-9910
▁toler	-9911
▁sports	-9912
▁contemn	-9913
▁encompass	-9914
▁violations	-9915
▁significantly	-9916
gue	-9917
ham	-9918
oli	-9919
▁ft	-9920
oyal	-9921
▁Ayy	-9922
▁Bid	-9923
▁Emp	-9924
▁Had	-9925
▁hop	-9926
eline	-9927
▁evil	-9928
▁forc	-9929
apping	-9930
▁Anwar	-9931
▁Ghosh	-9932
▁Minor	-9933
husband	-9934
▁Maharaj	-9935
▁intrins	-9936
witnesses	-9937
▁combined	-9938
▁supports	-9939
▁automatic	-9940
▁panchnama	-9941
▁projected	-9942
▁prosecute	-9943
▁destination	-9944
▁unauthorised	-9945
▁professionals	-9946
For	-9947
PCL	-9948
▁pm	-9949
TING	-9950
ghan	-9951
hani	-9952
iers	-9953
ksha	-9954
▁Yoj	-9955
▁Star	-9956
▁bulk	-9957
invest	-9958
▁bullet	-9959
▁serves	-9960
▁societal	-9961
▁publicity	-9962
rup	-9963
nath	-9964
▁Gau	-9965
eswar	-9966
heres	-9967
▁Rash	-9968
mptoms	-9969
tenant	-9970
▁About	-9971
▁Given	-9972
▁accum	-9973
joinder	-9974
▁largely	-9975
▁smaller	-9976
fficiency	-9977
ortunately	-9978
▁contemporary	-9979
▁compassionate	-9980
▁Identification	-9981
▁Ce	-9982
bing	-9983
▁FSL	-9984
▁flo	-9985
owers	-9986
▁Arab	-9987
▁Maha	-9988
▁Shak	-9989
▁airc	-9990
oconut	-9991
▁CIVIL	-9992
▁Tulsi	-9993
▁decis	-9994
illance	-9995
▁caught	-9996
▁disapp	-9997
▁grains	-9998
▁helped	-9999
▁thrust	-10000
▁worthy	-10001
aternity	-10002
▁confron	-10003
▁Manufact	-10004
▁announced	-10005
▁delegated	-10006
▁demanding	-10007
▁measuring	-10008
▁naturally	-10009
▁prisoners	-10010
▁cumulative	-10011
URE	-10012
pol	-10013
▁Sit	-10014
▁bra	-10015
▁pit	-10016
▁Arms	-10017
▁Deal	-10018
▁Kant	-10019
▁Khar	-10020
▁Saty	-10021
▁coin	-10022
▁Vinod	-10023
▁image	-10024
▁Bhopal	-10025
▁resist	-10026
▁tribal	-10027
▁Because	-10028
▁choices	-10029
▁Premises	-10030
▁Sciences	-10031
▁portions	-10032
▁Submission	-10033
▁judicially	-10034
▁Secretaries	-10035
▁CW	-10036
jeet	-10037
▁ACT	-10038
▁Tea	-10039
▁tur	-10040
afide	-10041
eties	-10042
▁Anal	-10043
▁Kail	-10044
▁butt	-10045
▁plus	-10046
▁tant	-10047
▁ware	-10048
ranted	-10049
▁Lease	-10050
▁fourt	-10051
▁Bhutan	-10052
▁Sushil	-10053
▁behest	-10054
▁corpus	-10055
interest	-10056
lementary	-10057
▁Standard	-10058
▁allottee	-10059
▁embodied	-10060
▁summoned	-10061
▁legislate	-10062
▁passenger	-10063
▁succeeded	-10064
▁Concurrent	-10065
▁scientists	-10066
▁controlling	-10067
▁ascertaining	-10068
▁Ox	-10069
priv	-10070
ocket	-10071
▁Tata	-10072
▁Green	-10073
▁angle	-10074
erosene	-10075
▁Select	-10076
▁Santosh	-10077
▁imports	-10078
▁qualify	-10079
▁Colleges	-10080
▁diligence	-10081
▁Liquidator	-10082
▁Provisions	-10083
▁convicting	-10084
▁repetition	-10085
▁conflicting	-10086
TU	-10087
fi	-10088
▁ma	-10089
▁Lib	-10090
rahim	-10091
▁WITH	-10092
▁pill	-10093
▁Impro	-10094
▁shock	-10095
ilation	-10096
▁coparc	-10097
▁Privacy	-10098
▁approve	-10099
▁External	-10100
▁defeated	-10101
▁politics	-10102
▁straight	-10103
▁amenities	-10104
▁promotees	-10105
▁impediment	-10106
▁commutation	-10107
▁Organisation	-10108
fac	-10109
▁La	-10110
▁Sud	-10111
▁vib	-10112
▁NIOS	-10113
▁Shuk	-10114
▁Wing	-10115
ponent	-10116
▁Units	-10117
▁diary	-10118
▁modes	-10119
▁track	-10120
▁abused	-10121
▁cancel	-10122
▁makers	-10123
▁treaty	-10124
ewellery	-10125
▁renewed	-10126
▁humanity	-10127
▁ancillary	-10128
▁conferring	-10129
▁confessions	-10130
▁transferring	-10131
tw	-10132
TER	-10133
sha	-10134
roud	-10135
▁Neg	-10136
▁Giri	-10137
▁Lakh	-10138
termin	-10139
elihood	-10140
▁Claims	-10141
▁absurd	-10142
▁Trading	-10143
▁enrolled	-10144
rimination	-10145
▁Telangana	-10146
▁balancing	-10147
▁preserved	-10148
▁instrumental	-10149
Ann	-10150
vil	-10151
eena	-10152
ilst	-10153
▁Hal	-10154
ishad	-10155
▁Farm	-10156
▁flag	-10157
▁motu	-10158
▁nurt	-10159
ensity	-10160
▁Total	-10161
▁files	-10162
▁symbol	-10163
▁Auditor	-10164
▁framers	-10165
▁refrain	-10166
forcement	-10167
▁intimate	-10168
▁locality	-10169
aboratories	-10170
▁Divisional	-10171
▁biological	-10172
▁acknowledge	-10173
▁Implementation	-10174
Sub	-10175
ccup	-10176
conn	-10177
omas	-10178
▁Unf	-10179
▁hat	-10180
alpur	-10181
▁Loya	-10182
▁Panch	-10183
▁STATE	-10184
▁mixed	-10185
▁uncle	-10186
nership	-10187
▁deline	-10188
▁invite	-10189
▁spoken	-10190
▁Hindust	-10191
▁Support	-10192
▁Thirdly	-10193
▁focused	-10194
▁homosex	-10195
▁neglect	-10196
▁contrast	-10197
▁murdered	-10198
▁propriet	-10199
▁Chowdhury	-10200
▁elsewhere	-10201
Corporation	-10202
▁concurring	-10203
▁frequently	-10204
▁empowerment	-10205
▁Consultation	-10206
▁collectively	-10207
▁confiscation	-10208
iqu	-10209
’).	-10210
▁NH	-10211
xxxx	-10212
aided	-10213
usive	-10214
▁SHRI	-10215
▁fost	-10216
▁roof	-10217
▁sear	-10218
▁aided	-10219
▁flood	-10220
▁seeds	-10221
▁Deemed	-10222
▁Mechan	-10223
▁allied	-10224
▁Banking	-10225
▁shelter	-10226
▁carriage	-10227
▁detained	-10228
▁inconven	-10229
▁competing	-10230
▁currently	-10231
▁propriety	-10232
▁expressing	-10233
▁Radhakrishnan	-10234
▁distinguishable	-10235
LIC	-10236
pay	-10237
▁El	-10238
uals	-10239
▁mid	-10240
andan	-10241
▁Capt	-10242
▁Phys	-10243
▁Rang	-10244
▁reop	-10245
rances	-10246
▁matern	-10247
▁anybody	-10248
▁Applying	-10249
▁Governors	-10250
▁atmosphere	-10251
▁prosecutor	-10252
▁conventional	-10253
GE	-10254
BER	-10255
Sec	-10256
ibi	-10257
eded	-10258
inth	-10259
▁Hem	-10260
▁Nam	-10261
▁SRI	-10262
MINAL	-10263
▁Answ	-10264
▁Maur	-10265
▁Name	-10266
▁clos	-10267
▁Clear	-10268
▁escal	-10269
▁logic	-10270
▁relie	-10271
▁Venkat	-10272
▁enjoin	-10273
▁remark	-10274
▁saving	-10275
▁Hussain	-10276
▁debates	-10277
▁desires	-10278
▁manager	-10279
▁renders	-10280
▁Backward	-10281
▁consolid	-10282
▁examples	-10283
Chancellor	-10284
▁Personnel	-10285
▁attending	-10286
▁mediation	-10287
▁positions	-10288
▁Panchayats	-10289
▁newspapers	-10290
▁unilateral	-10291
▁achievement	-10292
▁Commonwealth	-10293
Dep	-10294
▁dw	-10295
aped	-10296
▁Kha	-10297
▁SEC	-10298
▁Say	-10299
aiver	-10300
akshi	-10301
allan	-10302
▁Real	-10303
▁hect	-10304
father	-10305
rating	-10306
untary	-10307
▁index	-10308
irement	-10309
▁Speech	-10310
▁adults	-10311
▁deaths	-10312
▁gained	-10313
▁sacrif	-10314
▁Forests	-10315
▁dissent	-10316
ocational	-10317
▁gratuity	-10318
▁adverting	-10319
▁offenders	-10320
▁addressing	-10321
▁hereinbefore	-10322
▁practitioner	-10323
▁relationships	-10324
Raj	-10325
arti	-10326
▁Daw	-10327
▁Kun	-10328
▁RES	-10329
posal	-10330
utral	-10331
▁Lect	-10332
▁fate	-10333
▁fold	-10334
ocking	-10335
▁Patil	-10336
▁efflu	-10337
▁flows	-10338
RIMINAL	-10339
▁Causes	-10340
▁Mining	-10341
▁breath	-10342
▁famous	-10343
▁judged	-10344
ventions	-10345
▁Western	-10346
▁beliefs	-10347
▁reverse	-10348
▁maritime	-10349
▁unaccept	-10350
▁imparting	-10351
▁insertion	-10352
▁ornaments	-10353
▁comprehend	-10354
▁encouraging	-10355
▁promotional	-10356
VI	-10357
Com	-10358
JEE	-10359
uff	-10360
case	-10361
chud	-10362
▁Akh	-10363
▁Ray	-10364
▁dark	-10365
▁lien	-10366
▁trem	-10367
▁Rajiv	-10368
▁bribe	-10369
▁burnt	-10370
▁Relief	-10371
▁premature	-10372
respondents	-10373
▁discussing	-10374
▁everything	-10375
▁materially	-10376
▁contractors	-10377
RS	-10378
VIC	-10379
bat	-10380
bro	-10381
hot	-10382
▁ep	-10383
emin	-10384
ipak	-10385
▁Vas	-10386
▁hrs	-10387
▁slow	-10388
Mohmed	-10389
▁debit	-10390
▁phase	-10391
▁Samiti	-10392
▁serial	-10393
▁Ibrahim	-10394
▁implead	-10395
▁reasoned	-10396
▁excellent	-10397
▁organised	-10398
unicipality	-10399
▁Assistance	-10400
▁Conditions	-10401
▁conveyance	-10402
▁promotions	-10403
communication	-10404
▁developmental	-10405
col	-10406
ests	-10407
icks	-10408
▁bio	-10409
Court	-10410
▁Divan	-10411
▁demis	-10412
▁simpl	-10413
▁instal	-10414
▁nobody	-10415
▁overse	-10416
▁weaker	-10417
▁Details	-10418
▁laboure	-10419
▁tourist	-10420
▁validly	-10421
▁credible	-10422
▁enclosed	-10423
▁noticing	-10424
▁phenomen	-10425
▁corrected	-10426
▁discloses	-10427
▁employers	-10428
▁precisely	-10429
▁regularisation	-10430
vo	-10431
kha	-10432
▁CP	-10433
▁RF	-10434
andi	-10435
hash	-10436
▁Ajay	-10437
▁hair	-10438
parable	-10439
▁fallen	-10440
▁trades	-10441
▁movable	-10442
▁availing	-10443
▁certainty	-10444
▁likelihood	-10445
▁propounded	-10446
▁touchstone	-10447
TP	-10448
Pre	-10449
lined	-10450
▁Free	-10451
▁Mant	-10452
assess	-10453
raints	-10454
▁beaut	-10455
▁users	-10456
▁Import	-10457
▁Wealth	-10458
▁Command	-10459
▁Kailash	-10460
▁doubted	-10461
▁Personal	-10462
▁arranged	-10463
▁licenses	-10464
▁convinced	-10465
▁Integrated	-10466
▁exposition	-10467
▁conventions	-10468
▁encroachment	-10469
gm	-10470
ued	-10471
▁OP	-10472
rich	-10473
▁Tur	-10474
urved	-10475
uously	-10476
eligible	-10477
▁Airport	-10478
▁Teacher	-10479
▁bidding	-10480
▁heavily	-10481
▁invoice	-10482
▁onwards	-10483
▁tickets	-10484
▁waiting	-10485
▁Purchase	-10486
▁abetment	-10487
▁afforded	-10488
▁prohibiting	-10489
bl	-10490
eev	-10491
oft	-10492
anka	-10493
▁Jai	-10494
▁Mor	-10495
arges	-10496
ffice	-10497
ildar	-10498
ulous	-10499
▁emph	-10500
▁urge	-10501
igious	-10502
▁Short	-10503
▁prime	-10504
▁sleep	-10505
▁unwar	-10506
▁voter	-10507
▁Govind	-10508
▁Leader	-10509
▁honest	-10510
▁clarity	-10511
▁disposs	-10512
▁feeling	-10513
▁printed	-10514
▁reservo	-10515
▁routine	-10516
▁stretch	-10517
renchment	-10518
▁protects	-10519
▁socially	-10520
▁admitting	-10521
▁providers	-10522
▁Programmes	-10523
▁capabilities	-10524
▁substitution	-10525
gen	-10526
hew	-10527
imp	-10528
such	-10529
▁Ele	-10530
▁moh	-10531
arwal	-10532
ester	-10533
eting	-10534
▁Rece	-10535
▁prud	-10536
mblies	-10537
▁Prior	-10538
▁truly	-10539
▁exempl	-10540
▁firing	-10541
▁nearby	-10542
▁occupy	-10543
▁smooth	-10544
▁Offices	-10545
▁counted	-10546
▁dynamic	-10547
▁Mohammad	-10548
▁successor	-10549
▁Insolvency	-10550
▁revolution	-10551
▁innovations	-10552
▁progressive	-10553
▁registering	-10554
▁DA	-10555
ulam	-10556
▁None	-10557
▁Mukul	-10558
▁Dalmia	-10559
▁Ramach	-10560
▁blasts	-10561
▁decade	-10562
ensively	-10563
▁Kishore	-10564
▁coloured	-10565
▁practise	-10566
▁reserves	-10567
▁mechanisms	-10568
▁mentioning	-10569
▁vegetables	-10570
▁apprehended	-10571
BT	-10572
▁BH	-10573
isan	-10574
▁Dad	-10575
▁cad	-10576
▁god	-10577
oting	-10578
▁COMM	-10579
▁NDPS	-10580
▁Raja	-10581
ensual	-10582
▁Sanct	-10583
▁Sugar	-10584
▁incom	-10585
itating	-10586
▁Motion	-10587
▁carved	-10588
▁Venture	-10589
▁temples	-10590
roduction	-10591
▁salaries	-10592
▁disturbed	-10593
▁incapable	-10594
▁partially	-10595
▁accessible	-10596
▁imagination	-10597
▁achievements	-10598
▁unacceptable	-10599
▁Interpretation	-10600
oes	-10601
ivek	-10602
sues	-10603
▁EIA	-10604
basic	-10605
trial	-10606
▁Bhan	-10607
▁Mark	-10608
▁Wage	-10609
▁sums	-10610
▁disob	-10611
▁paddy	-10612
▁Pandit	-10613
▁visible	-10614
ciliation	-10615
▁creative	-10616
▁Screening	-10617
▁abolition	-10618
▁Contractor	-10619
▁justifiable	-10620
▁unwarranted	-10621
exp	-10622
ENTS	-10623
alaq	-10624
anki	-10625
thal	-10626
uded	-10627
▁Bir	-10628
ayana	-10629
▁sort	-10630
direct	-10631
▁Crown	-10632
▁Study	-10633
▁theft	-10634
ndering	-10635
▁Colony	-10636
▁Thomas	-10637
▁agenda	-10638
quarters	-10639
ructural	-10640
▁builder	-10641
▁decrees	-10642
▁tenders	-10643
▁tremend	-10644
▁appealed	-10645
▁conceded	-10646
▁powerful	-10647
▁refunded	-10648
▁confirming	-10649
▁tantamount	-10650
▁Proceedings	-10651
▁recoverable	-10652
%,	-10653
)/	-10654
RU	-10655
ls	-10656
dem	-10657
▁Pas	-10658
▁sue	-10659
00/-.	-10660
▁dial	-10661
▁elev	-10662
except	-10663
iments	-10664
▁accel	-10665
▁argue	-10666
▁sharp	-10667
edience	-10668
olistic	-10669
▁Ansari	-10670
▁Ismail	-10671
▁Yojana	-10672
▁ancest	-10673
▁diplom	-10674
▁models	-10675
▁farming	-10676
▁situate	-10677
▁unequiv	-10678
▁fourteen	-10679
▁kerosene	-10680
▁pursuing	-10681
▁Knowledge	-10682
▁emotional	-10683
▁formulate	-10684
▁subsidies	-10685
▁endeavours	-10686
▁predecessor	-10687
▁Professional	-10688
▁geographical	-10689
▁specifications	-10690
had	-10691
▁TN	-10692
▁web	-10693
ingly	-10694
▁0.00	-10695
▁Rate	-10696
▁bore	-10697
▁game	-10698
▁lady	-10699
oultry	-10700
▁drain	-10701
▁mount	-10702
outhern	-10703
▁courage	-10704
▁ongoing	-10705
paragraph	-10706
▁Gandhiji	-10707
▁Internet	-10708
▁communal	-10709
▁overseas	-10710
▁regardless	-10711
▁aforestated	-10712
▁constructive	-10713
laim	-10714
wide	-10715
▁Str	-10716
▁kil	-10717
▁upl	-10718
▁pilg	-10719
▁scan	-10720
anship	-10721
auvery	-10722
▁locus	-10723
▁music	-10724
▁custod	-10725
▁degrad	-10726
▁disall	-10727
▁divers	-10728
▁insist	-10729
▁seller	-10730
▁deprive	-10731
▁plastic	-10732
▁leviable	-10733
▁totality	-10734
▁complying	-10735
▁directory	-10736
▁attributes	-10737
▁summarized	-10738
▁formalities	-10739
▁Unfortunately	-10740
Man	-10741
akk	-10742
uma	-10743
asim	-10744
auty	-10745
rame	-10746
umen	-10747
▁eco	-10748
▁Chau	-10749
▁Iron	-10750
▁symp	-10751
eopard	-10752
▁Allow	-10753
▁ignor	-10754
▁magaz	-10755
versity	-10756
radition	-10757
▁Bahadur	-10758
▁Journal	-10759
▁devices	-10760
▁ignoring	-10761
▁Hindustan	-10762
▁Redressal	-10763
▁petroleum	-10764
▁indigenous	-10765
▁Appropriate	-10766
▁punishments	-10767
.’	-10768
phy	-10769
acco	-10770
aste	-10771
load	-10772
▁Sil	-10773
▁rat	-10774
▁ours	-10775
▁Taxes	-10776
▁cater	-10777
▁endor	-10778
tension	-10779
▁Shukla	-10780
▁adjour	-10781
▁defaul	-10782
▁launch	-10783
ependent	-10784
▁Freedom	-10785
▁assumes	-10786
▁surrend	-10787
▁hypothes	-10788
▁persuaded	-10789
▁returning	-10790
▁Australian	-10791
▁ammunition	-10792
▁favourable	-10793
▁Partnership	-10794
▁insufficient	-10795
▁confidentiality	-10796
Ass	-10797
roz	-10798
▁CF	-10799
▁CID	-10800
▁Ser	-10801
water	-10802
▁Sans	-10803
▁apex	-10804
▁Never	-10805
▁remit	-10806
▁treas	-10807
▁Complex	-10808
▁billion	-10809
▁Councils	-10810
▁Chandrachud	-10811
▁definitions	-10812
▁individually	-10813
sa	-10814
oud	-10815
▁..	-10816
TICE	-10817
rete	-10818
xade	-10819
▁PIL	-10820
ocked	-10821
▁Chin	-10822
▁Hist	-10823
▁Srin	-10824
▁eyew	-10825
icians	-10826
▁Sixth	-10827
▁lived	-10828
▁radio	-10829
▁Altern	-10830
▁Scient	-10831
▁Superv	-10832
▁catena	-10833
▁invari	-10834
▁proves	-10835
▁relies	-10836
▁vacate	-10837
▁Pradhan	-10838
▁Tripura	-10839
▁commend	-10840
▁electric	-10841
▁predomin	-10842
▁Provident	-10843
▁associate	-10844
▁fireworks	-10845
▁Corruption	-10846
▁explaining	-10847
▁connectivity	-10848
SH	-10849
Par	-10850
aki	-10851
▁TV	-10852
▁Sex	-10853
scale	-10854
▁FOWC	-10855
▁Desai	-10856
▁Nagal	-10857
▁accur	-10858
▁differ	-10859
▁starts	-10860
▁Specific	-10861
▁undermin	-10862
▁contraven	-10863
▁incentive	-10864
▁commencing	-10865
▁extensively	-10866
▁supervisory	-10867
LT	-10868
▁LE	-10869
tees	-10870
whel	-10871
eless	-10872
ducted	-10873
▁Event	-10874
▁hydro	-10875
witness	-10876
▁Ganesh	-10877
▁Nation	-10878
▁Pratap	-10879
▁counse	-10880
▁airport	-10881
▁cricket	-10882
▁savings	-10883
▁investor	-10884
▁sequence	-10885
▁conceived	-10886
▁consulted	-10887
▁spiritual	-10888
▁autonomous	-10889
▁irrational	-10890
▁Adjudicating	-10891
▁corporations	-10892
▁surveillance	-10893
representation	-10894
▁gratification	-10895
Us	-10896
di	-10897
ua	-10898
aken	-10899
prof	-10900
dhary	-10901
feren	-10902
▁Vers	-10903
ducive	-10904
▁began	-10905
angible	-10906
viation	-10907
▁verify	-10908
▁Challen	-10909
▁chances	-10910
▁harvest	-10911
▁accidents	-10912
▁dissolved	-10913
%)	-10914
,-	-10915
▁FA	-10916
cers	-10917
▁Ill	-10918
▁Sib	-10919
▁tis	-10920
▁Sard	-10921
erance	-10922
▁Mahal	-10923
▁array	-10924
▁match	-10925
▁dictum	-10926
▁hasten	-10927
▁offici	-10928
▁ruling	-10929
▁equated	-10930
▁exactly	-10931
▁paralle	-10932
▁pursued	-10933
Inspector	-10934
▁Relevant	-10935
▁exceeded	-10936
▁supplier	-10937
▁unsuccess	-10938
BA	-10939
ESH	-10940
FIC	-10941
heb	-10942
key	-10943
anth	-10944
krit	-10945
▁Miz	-10946
▁Var	-10947
arest	-10948
human	-10949
inces	-10950
▁Conv	-10951
▁adapt	-10952
▁Raipur	-10953
▁bridge	-10954
▁column	-10955
▁rivers	-10956
▁Studies	-10957
▁transit	-10958
▁younger	-10959
▁probable	-10960
▁attendant	-10961
▁explosion	-10962
▁minorities	-10963
▁recognizes	-10964
▁contemplate	-10965
▁consolidated	-10966
Ext	-10967
term	-10968
▁Dri	-10969
inite	-10970
▁Duty	-10971
▁Fort	-10972
▁Main	-10973
▁gang	-10974
itably	-10975
▁Cauvery	-10976
▁Classes	-10977
▁Current	-10978
▁Enquiry	-10979
▁Systems	-10980
▁accepts	-10981
▁commits	-10982
▁varying	-10983
▁vendors	-10984
▁database	-10985
▁declares	-10986
▁enormous	-10987
▁conducive	-10988
otechnology	-10989
▁accidental	-10990
▁travelling	-10991
▁willingness	-10992
▁Corporations	-10993
▁nevertheless	-10994
▁retrenchment	-10995
Cri	-10996
etal	-10997
many	-10998
▁Haz	-10999
▁Upa	-11000
endar	-11001
▁auto	-11002
▁dear	-11003
▁exig	-11004
▁semi	-11005
▁Royal	-11006
▁proud	-11007
▁culled	-11008
▁voters	-11009
okayukta	-11010
▁Equally	-11011
▁jeopard	-11012
▁replied	-11013
▁overwhel	-11014
▁truthful	-11015
▁destroyed	-11016
▁impartial	-11017
▁incidence	-11018
▁recognise	-11019
▁electrical	-11020
▁statutorily	-11021
▁negotiations	-11022
.),	-11023
0/-	-11024
▁Fr	-11025
IDBI	-11026
atta	-11027
itle	-11028
viii	-11029
▁Khe	-11030
isput	-11031
ridge	-11032
▁CALL	-11033
▁Cert	-11034
▁Isra	-11035
▁MMDR	-11036
▁fora	-11037
▁Javed	-11038
▁juven	-11039
▁payee	-11040
▁Except	-11041
▁Tourism	-11042
▁belated	-11043
▁segment	-11044
▁unaided	-11045
▁weather	-11046
valuation	-11047
▁amounted	-11048
▁sessions	-11049
▁exhibited	-11050
▁responses	-11051
▁Developers	-11052
▁affiliated	-11053
▁tremendous	-11054
▁translation	-11055
ERA	-11056
ISH	-11057
tes	-11058
ugh	-11059
vir	-11060
outs	-11061
vind	-11062
▁sat	-11063
ensed	-11064
inety	-11065
▁NDMC	-11066
▁SING	-11067
▁glob	-11068
▁sine	-11069
▁north	-11070
▁plays	-11071
▁Canara	-11072
▁delays	-11073
▁fellow	-11074
▁elector	-11075
▁guiding	-11076
▁evaluate	-11077
▁literacy	-11078
▁smuggled	-11079
▁stressed	-11080
▁basically	-11081
▁separated	-11082
▁Litigation	-11083
▁compliment	-11084
▁subjective	-11085
▁certification	-11086
aon	-11087
▁CS	-11088
▁TH	-11089
cate	-11090
▁Ear	-11091
▁Gow	-11092
▁pic	-11093
ograp	-11094
▁Bhatt	-11095
▁Indra	-11096
jection	-11097
▁Course	-11098
▁amicus	-11099
▁enmity	-11100
▁memory	-11101
▁wilful	-11102
actorily	-11103
▁neutral	-11104
▁alternate	-11105
▁opposition	-11106
▁traditions	-11107
▁deliberations	-11108
Cha	-11109
wah	-11110
▁Po	-11111
olen	-11112
onym	-11113
▁DAC	-11114
▁DRT	-11115
▁Deg	-11116
▁Tag	-11117
▁awa	-11118
inees	-11119
▁NSEL	-11120
▁agro	-11121
▁pret	-11122
HERJEE	-11123
▁Manoj	-11124
▁minim	-11125
company	-11126
▁hazard	-11127
▁visits	-11128
▁Chauhan	-11129
▁directs	-11130
▁suffice	-11131
▁telecom	-11132
▁endorsed	-11133
▁rainfall	-11134
▁realised	-11135
▁Chartered	-11136
▁MUKHERJEE	-11137
▁omissions	-11138
▁alienation	-11139
▁Appointment	-11140
▁Legislation	-11141
▁categorical	-11142
▁adjudicatory	-11143
CP	-11144
soon	-11145
▁Bet	-11146
uates	-11147
urers	-11148
▁Club	-11149
▁lite	-11150
ounder	-11151
terior	-11152
▁Pawan	-11153
▁misbe	-11154
▁mould	-11155
clusive	-11156
ineness	-11157
▁Church	-11158
▁cadres	-11159
▁counts	-11160
▁elimin	-11161
▁stones	-11162
▁string	-11163
▁organic	-11164
ferencing	-11165
▁CRIMINAL	-11166
▁oriented	-11167
▁affirming	-11168
▁jewellery	-11169
▁Irrigation	-11170
▁condonation	-11171
▁incorporate	-11172
▁reservations	-11173
▁admissibility	-11174
▁intentionally	-11175
▁satisfactorily	-11176
ASH	-11177
IDC	-11178
xic	-11179
▁WP	-11180
ador	-11181
alal	-11182
▁Dil	-11183
▁Nic	-11184
archy	-11185
▁Amit	-11186
▁Fast	-11187
▁Meas	-11188
▁Pack	-11189
▁Vidy	-11190
posive	-11191
ciously	-11192
itaries	-11193
▁Country	-11194
▁Suffice	-11195
▁funding	-11196
▁marital	-11197
defendant	-11198
▁amenable	-11199
▁defining	-11200
▁interval	-11201
▁thoughts	-11202
▁apportion	-11203
▁criterion	-11204
▁eliminate	-11205
▁evolution	-11206
▁Performance	-11207
▁accountable	-11208
▁extinguished	-11209
Re	-11210
ANJ	-11211
iorari	-11212
ruptcy	-11213
▁Fifth	-11214
▁harsh	-11215
atisfied	-11216
ceptible	-11217
iability	-11218
▁burning	-11219
▁damaged	-11220
▁inherit	-11221
▁equipped	-11222
▁singular	-11223
▁supplies	-11224
▁warrants	-11225
▁affection	-11226
▁inception	-11227
▁mortgagee	-11228
▁respected	-11229
▁successive	-11230
▁irregularities	-11231
▁CD	-11232
hand	-11233
▁Bag	-11234
xadex	-11235
▁Soft	-11236
▁limb	-11237
▁pard	-11238
▁Vivek	-11239
▁coast	-11240
▁misle	-11241
Central	-11242
▁Krishn	-11243
▁Status	-11244
▁curric	-11245
▁uncons	-11246
▁waiver	-11247
▁infrast	-11248
▁studied	-11249
▁Products	-11250
▁everyone	-11251
▁symptoms	-11252
▁testator	-11253
▁Chemicals	-11254
▁tolerance	-11255
▁intendment	-11256
▁Prohibition	-11257
▁ammunitions	-11258
ede	-11259
ori	-11260
erer	-11261
▁LPG	-11262
anand	-11263
imity	-11264
▁Gian	-11265
▁Init	-11266
▁Sahu	-11267
▁Sikh	-11268
▁VIII	-11269
▁ampl	-11270
▁Rohat	-11271
▁boxes	-11272
▁depth	-11273
▁films	-11274
▁wheat	-11275
▁lessor	-11276
▁Ayurved	-11277
▁realize	-11278
ferential	-11279
▁Presiding	-11280
▁invention	-11281
▁medicines	-11282
▁mortgaged	-11283
complainant	-11284
▁Provincial	-11285
▁constantly	-11286
▁incomplete	-11287
▁undergoing	-11288
cha	-11289
▁vo	-11290
isha	-11291
ishe	-11292
lesh	-11293
made	-11294
▁APP	-11295
useum	-11296
▁FIRs	-11297
▁tres	-11298
verted	-11299
▁Table	-11300
▁embar	-11301
▁paint	-11302
▁viable	-11303
▁adhered	-11304
▁Agencies	-11305
▁Computer	-11306
▁grenades	-11307
▁holistic	-11308
▁producer	-11309
▁adjourned	-11310
▁concurred	-11311
▁collateral	-11312
▁abovementioned	-11313
pes	-11314
▁HO	-11315
▁ASI	-11316
▁Ber	-11317
▁CHA	-11318
▁Own	-11319
pless	-11320
▁Modi	-11321
bursed	-11322
▁Joshi	-11323
▁Vinay	-11324
▁nodal	-11325
▁style	-11326
▁sweep	-11327
▁stolen	-11328
▁worksh	-11329
manufact	-11330
▁Meeting	-11331
▁Pratima	-11332
▁Rohatgi	-11333
▁coordin	-11334
▁prudent	-11335
▁welcome	-11336
▁Narendra	-11337
▁Subraman	-11338
▁complain	-11339
▁deferred	-11340
▁overcome	-11341
▁recalled	-11342
▁concealed	-11343
▁Jawaharlal	-11344
▁conference	-11345
▁initiating	-11346
▁mechanical	-11347
▁permanently	-11348
▁procurement	-11349
▁conversation	-11350
▁fingerprints	-11351
▁misconceived	-11352
ECH	-11353
haz	-11354
kes	-11355
met	-11356
▁Mc	-11357
▁Va	-11358
abai	-11359
atra	-11360
good	-11361
itha	-11362
▁Mes	-11363
edded	-11364
▁Chak	-11365
▁Plot	-11366
▁Rani	-11367
▁Trip	-11368
▁Uday	-11369
▁ante	-11370
▁MSMEs	-11371
▁Crores	-11372
▁compel	-11373
▁invent	-11374
▁prerog	-11375
▁expense	-11376
▁pendent	-11377
▁supreme	-11378
▁commonly	-11379
▁graduate	-11380
▁parallel	-11381
Government	-11382
unications	-11383
▁Exception	-11384
▁allottees	-11385
▁specifying	-11386
▁generations	-11387
NCT	-11388
jun	-11389
tar	-11390
umin	-11391
▁Lod	-11392
apati	-11393
▁Kalp	-11394
▁cool	-11395
placed	-11396
▁meter	-11397
▁signs	-11398
▁teeth	-11399
estions	-11400
▁Amicus	-11401
▁Oxford	-11402
▁detenu	-11403
▁enjoys	-11404
▁tempor	-11405
National	-11406
▁Minimum	-11407
▁Subhash	-11408
▁ethical	-11409
▁package	-11410
▁Statutes	-11411
▁greatest	-11412
▁mentally	-11413
▁Provision	-11414
▁authentic	-11415
▁narration	-11416
▁probation	-11417
▁hypothesis	-11418
▁inadmissible	-11419
hati	-11420
▁IPL	-11421
▁Sel	-11422
▁era	-11423
▁Chik	-11424
▁Step	-11425
▁twin	-11426
asters	-11427
havior	-11428
ispens	-11429
▁Track	-11430
▁abide	-11431
▁lacks	-11432
▁secre	-11433
▁trigg	-11434
▁beauty	-11435
▁hotels	-11436
▁parked	-11437
▁Bhagwan	-11438
▁deterrent	-11439
▁Processing	-11440
▁intervening	-11441
▁prosecuting	-11442
▁surrendered	-11443
Acc	-11444
agi	-11445
▁Ny	-11446
idal	-11447
▁Ach	-11448
urang	-11449
▁Iyer	-11450
▁Tahs	-11451
▁puts	-11452
oining	-11453
▁feels	-11454
▁rexad	-11455
▁Mahend	-11456
▁Modern	-11457
▁menace	-11458
▁Mizoram	-11459
▁mortgag	-11460
aundering	-11461
▁anywhere	-11462
▁emphasise	-11463
▁Democratic	-11464
▁Opposition	-11465
▁advantages	-11466
▁genuineness	-11467
▁congratulated	-11468
SE	-11469
awar	-11470
acted	-11471
cotic	-11472
▁Jose	-11473
▁Sudh	-11474
▁heat	-11475
▁heir	-11476
▁unus	-11477
USTICE	-11478
▁ample	-11479
▁fides	-11480
▁solid	-11481
inction	-11482
▁mosque	-11483
▁noting	-11484
▁safely	-11485
Annexure	-11486
▁legitim	-11487
▁Capacity	-11488
▁Citizens	-11489
▁passport	-11490
Regulation	-11491
▁Otherwise	-11492
▁intrinsic	-11493
▁operators	-11494
▁Automobile	-11495
▁confronted	-11496
▁dimensions	-11497
organisation	-11498
▁affiliation	-11499
▁constrained	-11500
▁unconscious	-11501
▁dispensation	-11502
En	-11503
amed	-11504
avan	-11505
ifur	-11506
rack	-11507
▁Old	-11508
▁Roop	-11509
venant	-11510
▁Asian	-11511
▁Laxmi	-11512
▁undes	-11513
▁lowest	-11514
▁presume	-11515
▁Internal	-11516
▁advances	-11517
▁misappro	-11518
▁consensus	-11519
▁reversing	-11520
▁preferably	-11521
▁recognises	-11522
▁confidential	-11523
ML	-11524
OI	-11525
VA	-11526
ALE	-11527
how	-11528
inf	-11529
▁KB	-11530
raid	-11531
▁Nan	-11532
Chief	-11533
eenth	-11534
hetic	-11535
worth	-11536
▁Exam	-11537
▁Pram	-11538
▁drop	-11539
▁trap	-11540
cepted	-11541
▁Tenth	-11542
▁abrog	-11543
▁write	-11544
▁broker	-11545
▁parcel	-11546
istrates	-11547
question	-11548
▁Islands	-11549
▁coconut	-11550
▁tonnage	-11551
▁goodwill	-11552
▁remedial	-11553
▁ingredient	-11554
▁recoveries	-11555
▁temperature	-11556
▁Jurisdiction	-11557
▁economically	-11558
▁illustration	-11559
EMA	-11560
agg	-11561
geon	-11562
▁CEC	-11563
▁Cri	-11564
▁Dur	-11565
▁Nal	-11566
▁RFP	-11567
▁Sak	-11568
▁tom	-11569
acent	-11570
▁gram	-11571
▁monu	-11572
▁poly	-11573
▁Drugs	-11574
▁Umesh	-11575
▁glass	-11576
▁rooms	-11577
▁Demand	-11578
▁depict	-11579
▁Darshan	-11580
▁aircraft	-11581
▁barriers	-11582
▁condoned	-11583
▁deterior	-11584
▁defective	-11585
▁Concession	-11586
▁attracting	-11587
▁consortium	-11588
▁satisfying	-11589
▁architecture	-11590
▁pharmaceutical	-11591
rue	-11592
▁REP	-11593
▁Rab	-11594
▁SAR	-11595
court	-11596
▁Call	-11597
▁Cham	-11598
▁Muns	-11599
▁Sang	-11600
▁rans	-11601
reight	-11602
verage	-11603
▁forty	-11604
▁patri	-11605
▁rigid	-11606
▁white	-11607
ometime	-11608
umption	-11609
▁Afghan	-11610
▁Ground	-11611
▁border	-11612
▁coroll	-11613
▁height	-11614
▁layout	-11615
▁packing	-11616
▁averment	-11617
▁disorder	-11618
▁Permanent	-11619
▁Political	-11620
▁attaining	-11621
▁rectification	-11622
ALA	-11623
rao	-11624
abir	-11625
alat	-11626
isor	-11627
ulum	-11628
atell	-11629
reats	-11630
▁Fire	-11631
▁Sham	-11632
▁hier	-11633
▁simp	-11634
▁SINGH	-11635
▁beach	-11636
▁trace	-11637
Special	-11638
chandra	-11639
ergency	-11640
etitive	-11641
▁Circle	-11642
▁Dawood	-11643
▁Vikram	-11644
▁firmly	-11645
▁valued	-11646
itorious	-11647
▁Charter	-11648
▁recruit	-11649
▁Nagaland	-11650
▁Sanskrit	-11651
▁enquired	-11652
▁Regarding	-11653
▁expanding	-11654
▁indispens	-11655
▁repugnant	-11656
▁travelled	-11657
▁conception	-11658
▁correction	-11659
▁equipments	-11660
▁exhibition	-11661
▁methodology	-11662
ho	-11663
▁Ld	-11664
aria	-11665
orig	-11666
▁Baj	-11667
aught	-11668
ceive	-11669
imala	-11670
owered	-11671
▁Areas	-11672
▁Cadre	-11673
▁Salim	-11674
▁catal	-11675
▁erect	-11676
▁sewer	-11677
amended	-11678
ivities	-11679
▁encoun	-11680
▁Agarwal	-11681
▁ceremony	-11682
▁succinct	-11683
▁centuries	-11684
▁dimension	-11685
▁panchayat	-11686
▁varieties	-11687
▁attractive	-11688
▁celebrated	-11689
▁consensual	-11690
▁perversity	-11691
▁purchasing	-11692
▁Communication	-11693
ORT	-11694
uct	-11695
▁LJ	-11696
▁MAN	-11697
▁bun	-11698
liers	-11699
mohan	-11700
ostic	-11701
▁COND	-11702
▁Take	-11703
ipping	-11704
▁Himal	-11705
▁bifur	-11706
casting	-11707
ologist	-11708
▁JUSTICE	-11709
▁nullity	-11710
ancellors	-11711
▁Minerals	-11712
▁entrance	-11713
▁pendente	-11714
▁repelled	-11715
▁shifting	-11716
▁circulars	-11717
▁intervene	-11718
▁approaches	-11719
▁assailants	-11720
▁delivering	-11721
▁comparative	-11722
▁consecutive	-11723
▁expeditious	-11724
▁broadcasting	-11725
▁encumbrances	-11726
▁legitimately	-11727
▁publications	-11728
▁recommending	-11729
▁dissemination	-11730
po	-11731
dep	-11732
usa	-11733
▁Ke	-11734
quet	-11735
wing	-11736
▁End	-11737
▁Ult	-11738
TIONS	-11739
astri	-11740
▁Lake	-11741
▁blue	-11742
▁fled	-11743
▁soul	-11744
▁catch	-11745
▁decre	-11746
▁ended	-11747
▁ports	-11748
▁theme	-11749
▁trite	-11750
special	-11751
subject	-11752
▁0.0000	-11753
▁Explos	-11754
▁Valley	-11755
▁castes	-11756
▁elucid	-11757
▁mostly	-11758
existing	-11759
▁joining	-11760
▁lending	-11761
▁sincere	-11762
▁urgency	-11763
▁Bhagwati	-11764
▁Tripathi	-11765
▁construe	-11766
▁override	-11767
▁assigning	-11768
▁attribute	-11769
▁beautiful	-11770
▁isolation	-11771
▁proximity	-11772
▁purposive	-11773
▁arbitrarily	-11774
hika	-11775
icon	-11776
▁Bod	-11777
▁Den	-11778
▁LIC	-11779
▁OBC	-11780
▁rub	-11781
uming	-11782
▁Bose	-11783
▁Debt	-11784
▁PRAN	-11785
Amount	-11786
▁Liber	-11787
▁Prash	-11788
▁amply	-11789
▁Arvind	-11790
▁Versus	-11791
▁batter	-11792
▁displa	-11793
▁forget	-11794
▁proven	-11795
▁tamper	-11796
Criminal	-11797
▁analyse	-11798
▁players	-11799
▁stained	-11800
Appellant	-11801
▁Builders	-11802
▁crystall	-11803
▁decisive	-11804
▁estimate	-11805
▁Applicant	-11806
▁perfectly	-11807
▁associates	-11808
▁continuity	-11809
▁postulated	-11810
▁approaching	-11811
▁prerogative	-11812
▁trustworthy	-11813
▁inconvenience	-11814
▁infrastructural	-11815
DO	-11816
ses	-11817
▁RP	-11818
ilee	-11819
ombs	-11820
▁Nay	-11821
▁REC	-11822
chant	-11823
equal	-11824
place	-11825
▁Gaur	-11826
▁lake	-11827
▁span	-11828
▁capac	-11829
▁Recomm	-11830
▁booked	-11831
▁drawer	-11832
▁enrich	-11833
▁transg	-11834
estation	-11835
petition	-11836
▁attacks	-11837
▁bullets	-11838
▁chamber	-11839
▁pursuit	-11840
▁accurate	-11841
▁hectares	-11842
▁unemploy	-11843
reasonable	-11844
▁judgement	-11845
▁misplaced	-11846
▁smuggling	-11847
▁suspected	-11848
▁forwarding	-11849
FS	-11850
GR	-11851
log	-11852
oja	-11853
▁Eth	-11854
▁LIF	-11855
▁NTT	-11856
talaq	-11857
▁Bhas	-11858
▁Shar	-11859
▁akin	-11860
▁shed	-11861
lining	-11862
▁SIDBI	-11863
▁Solar	-11864
▁Tribe	-11865
▁Sports	-11866
▁enumer	-11867
▁ocular	-11868
▁pocket	-11869
▁crystal	-11870
▁hypothe	-11871
▁preamble	-11872
▁increases	-11873
▁magnitude	-11874
▁religions	-11875
▁Undertaking	-11876
▁Coordination	-11877
▁overwhelming	-11878
▁consciousness	-11879
▁probabilities	-11880
GP	-11881
non	-11882
uci	-11883
ulp	-11884
who	-11885
lick	-11886
▁BAN	-11887
▁Bul	-11888
▁dup	-11889
lance	-11890
atinib	-11891
rutiny	-11892
▁Buddh	-11893
▁knows	-11894
▁layer	-11895
▁mobil	-11896
▁Bhagat	-11897
▁Russia	-11898
▁manual	-11899
▁polity	-11900
▁ransom	-11901
iversary	-11902
reements	-11903
▁Courses	-11904
▁Shiksha	-11905
▁vibrant	-11906
▁Appendix	-11907
▁Software	-11908
▁Taxation	-11909
▁distress	-11910
▁maternal	-11911
▁superint	-11912
▁testimon	-11913
▁violating	-11914
▁fraternity	-11915
▁uniformity	-11916
▁Cooperation	-11917
▁concessions	-11918
▁disadvantage	-11919
▁improvements	-11920
AP	-11921
tas	-11922
meas	-11923
yers	-11924
▁Raw	-11925
▁Dear	-11926
▁Thir	-11927
▁baby	-11928
mother	-11929
ugment	-11930
▁Mathe	-11931
▁Notes	-11932
▁cells	-11933
▁lodge	-11934
alsbury	-11935
▁Bhawan	-11936
▁Garden	-11937
▁PRANAB	-11938
▁closer	-11939
▁remind	-11940
▁Agrawal	-11941
▁deeming	-11942
▁harmful	-11943
▁realise	-11944
▁restaur	-11945
▁discover	-11946
▁festival	-11947
ailability	-11948
▁Sanctuary	-11949
▁implicate	-11950
ouchability	-11951
▁Production	-11952
▁assertions	-11953
▁invalidity	-11954
▁invariably	-11955
▁unjustified	-11956
▁upgradation	-11957
Rec	-11958
nic	-11959
ANCE	-11960
itis	-11961
▁Kur	-11962
▁SIC	-11963
▁Vit	-11964
aling	-11965
▁Misc	-11966
▁Term	-11967
▁Till	-11968
▁bund	-11969
▁fron	-11970
arayan	-11971
ptions	-11972
▁raped	-11973
▁spoke	-11974
▁Rather	-11975
▁afraid	-11976
▁checks	-11977
▁junior	-11978
▁sacred	-11979
▁talent	-11980
▁tradem	-11981
ifferent	-11982
▁Germany	-11983
▁dropped	-11984
▁pertain	-11985
▁tenable	-11986
▁unusual	-11987
▁Accident	-11988
▁convicts	-11989
▁disaster	-11990
▁insisted	-11991
▁suitably	-11992
▁veracity	-11993
▁Mutawalli	-11994
▁promoters	-11995
▁Ordinarily	-11996
▁businesses	-11997
▁elaborated	-11998
▁ineligible	-11999
▁pensionary	-12000
▁dignitaries	-12001
▁incompetent	-12002
▁sanctioning	-12003
sex	-12004
▁PU	-12005
Axad	-12006
▁Bom	-12007
▁Dom	-12008
▁ast	-12009
isons	-12010
▁Elig	-12011
▁Naph	-12012
▁Final	-12013
onymous	-12014
▁Change	-12015
▁Israel	-12016
▁Tagore	-12017
▁sensit	-12018
contract	-12019
obstante	-12020
▁plenary	-12021
▁postpon	-12022
▁ranging	-12023
▁Particip	-12024
▁balances	-12025
▁forensic	-12026
▁patently	-12027
▁producers	-12028
▁harmonious	-12029
▁circulation	-12030
▁consciously	-12031
▁fertilizers	-12032
▁specialized	-12033
▁constituency	-12034
▁expectations	-12035
▁inappropriate	-12036
DB	-12037
HAR	-12038
▁MT	-12039
alia	-12040
atre	-12041
▁Jas	-12042
▁NPA	-12043
▁fat	-12044
anjan	-12045
itius	-12046
▁Bish	-12047
▁Geor	-12048
▁Sell	-12049
▁emol	-12050
▁legs	-12051
opping	-12052
▁Goods	-12053
consult	-12054
renched	-12055
▁Mandir	-12056
▁Rajeev	-12057
▁impair	-12058
▁Krishan	-12059
▁nearest	-12060
▁redress	-12061
criptions	-12062
▁Material	-12063
▁searched	-12064
▁abolished	-12065
▁forfeited	-12066
▁satisfies	-12067
▁fulfilling	-12068
▁productive	-12069
▁strategies	-12070
▁Magistrates	-12071
▁Resultantly	-12072
▁practicable	-12073
HL	-12074
ELL	-12075
tty	-12076
yar	-12077
VERN	-12078
alam	-12079
down	-12080
▁Jit	-12081
▁Kad	-12082
▁Mud	-12083
▁gif	-12084
arity	-12085
class	-12086
▁Band	-12087
▁Four	-12088
▁Paul	-12089
▁lift	-12090
ancore	-12091
wahati	-12092
▁bombs	-12093
▁stead	-12094
▁Action	-12095
▁Budget	-12096
▁traced	-12097
▁whilst	-12098
President	-12099
▁adjacent	-12100
▁proposes	-12101
▁tomorrow	-12102
▁chemicals	-12103
▁excisable	-12104
▁precluded	-12105
▁retaining	-12106
▁thousands	-12107
▁capacities	-12108
▁warranting	-12109
▁inspiration	-12110
▁conspirators	-12111
▁contradictory	-12112
▁AFT	-12113
▁Vad	-12114
acket	-12115
elect	-12116
plant	-12117
urial	-12118
▁Chan	-12119
▁Kart	-12120
▁MoEF	-12121
▁Self	-12122
▁Trav	-12123
▁erad	-12124
urable	-12125
▁supre	-12126
▁cattle	-12127
▁curiae	-12128
▁prexad	-12129
▁reward	-12130
▁Dealing	-12131
▁Witness	-12132
▁centers	-12133
▁Parishad	-12134
▁coercion	-12135
▁requests	-12136
▁trespass	-12137
▁Essential	-12138
▁Governing	-12139
▁Presently	-12140
▁Returning	-12141
▁Universal	-12142
▁criminals	-12143
▁compulsion	-12144
▁recommends	-12145
▁reflection	-12146
HS	-12147
▁(‘	-12148
ache	-12149
beit	-12150
imla	-12151
izon	-12152
▁000	-12153
▁Bin	-12154
▁Naw	-12155
▁TET	-12156
▁egg	-12157
hotra	-12158
khadi	-12159
risis	-12160
third	-12161
▁Anti	-12162
▁Camp	-12163
▁Khat	-12164
▁Radi	-12165
▁Ward	-12166
▁appr	-12167
▁tree	-12168
▁vacc	-12169
ailure	-12170
icidal	-12171
idavit	-12172
isible	-12173
▁fifth	-12174
▁monit	-12175
▁walls	-12176
▁width	-12177
▁French	-12178
▁Guards	-12179
▁Medium	-12180
▁dental	-12181
▁enters	-12182
▁lapsed	-12183
▁purity	-12184
▁redund	-12185
▁Whoever	-12186
▁planted	-12187
▁threats	-12188
▁concrete	-12189
▁meanings	-12190
Prevention	-12191
▁appraisal	-12192
▁labourers	-12193
▁vicarious	-12194
▁revocation	-12195
▁suppressed	-12196
▁discernible	-12197
▁advertisements	-12198
We	-12199
PCB	-12200
STI	-12201
iny	-12202
lin	-12203
nut	-12204
▁PL	-12205
▁VS	-12206
ayam	-12207
▁Bur	-12208
▁Gop	-12209
▁Hel	-12210
▁Jee	-12211
▁Nas	-12212
enity	-12213
rable	-12214
▁Dutt	-12215
▁Jeth	-12216
▁Share	-12217
▁Swamy	-12218
▁Value	-12219
▁boost	-12220
matical	-12221
▁Pandya	-12222
▁culmin	-12223
▁ending	-12224
▁loaded	-12225
▁captive	-12226
▁parting	-12227
▁Graduate	-12228
▁Identity	-12229
▁Prashant	-12230
▁Scrutiny	-12231
▁dwellers	-12232
▁realized	-12233
▁abandoned	-12234
▁prolonged	-12235
▁Travancore	-12236
▁compensate	-12237
▁immaterial	-12238
▁reconsider	-12239
▁relatively	-12240
▁calculating	-12241
▁flexibility	-12242
▁meritorious	-12243
▁restricting	-12244
ANT	-12245
exec	-12246
sale	-12247
supp	-12248
▁Men	-12249
▁Nab	-12250
▁Tir	-12251
▁Tre	-12252
▁Fair	-12253
▁stig	-12254
▁Shafi	-12255
▁novel	-12256
clauses	-12257
endence	-12258
▁Kanpur	-12259
isheries	-12260
original	-12261
▁Andaman	-12262
▁Chamber	-12263
▁Regular	-12264
▁canteen	-12265
▁charter	-12266
▁dealers	-12267
▁suspend	-12268
▁vacated	-12269
▁Imatinib	-12270
▁deletion	-12271
▁drafting	-12272
▁fracture	-12273
▁inspired	-12274
▁passages	-12275
▁touching	-12276
▁unreason	-12277
▁Allowance	-12278
▁accompanying	-12279
Th	-12280
fin	-12281
▁Cy	-12282
ingh	-12283
orum	-12284
▁Raz	-12285
▁beg	-12286
board	-12287
▁Cess	-12288
marked	-12289
▁Param	-12290
▁birds	-12291
▁canal	-12292
▁homes	-12293
onymity	-12294
▁Custom	-12295
▁Kapoor	-12296
▁Lastly	-12297
▁Search	-12298
▁attach	-12299
▁ideals	-12300
▁overla	-12301
▁Nagaraj	-12302
▁Present	-12303
▁disable	-12304
▁notions	-12305
▁spheres	-12306
▁Medicine	-12307
▁believes	-12308
▁excludes	-12309
▁forcibly	-12310
▁usefully	-12311
▁Choudhary	-12312
▁disclosing	-12313
▁occasioned	-12314
▁affirmation	-12315
▁seriousness	-12316
▁indispensable	-12317
des	-12318
gent	-12319
▁Hab	-12320
▁Inj	-12321
abari	-12322
▁Ball	-12323
▁Arora	-12324
▁abnorm	-12325
▁please	-12326
▁strive	-12327
▁bidders	-12328
▁profess	-12329
▁ancestral	-12330
▁collusion	-12331
▁deviation	-12332
▁ignorance	-12333
▁mortgagor	-12334
▁rectified	-12335
▁escalation	-12336
▁magistrate	-12337
▁succinctly	-12338
▁uncondition	-12339
▁increasingly	-12340
▁psychological	-12341
BLE	-12342
CIL	-12343
IGH	-12344
ker	-12345
orr	-12346
▁Dy	-12347
esis	-12348
urai	-12349
▁won	-12350
▁Subs	-12351
▁exit	-12352
▁oust	-12353
▁pari	-12354
▁unlo	-12355
usible	-12356
▁looks	-12357
Exhibit	-12358
related	-12359
▁GOVERN	-12360
▁powder	-12361
▁robust	-12362
▁summed	-12363
▁tonnes	-12364
assessee	-12365
izations	-12366
▁Advance	-12367
▁sometime	-12368
▁monitored	-12369
▁responded	-12370
▁statistics	-12371
independence	-12372
▁unfortunately	-12373
zz	-12374
cap	-12375
hem	-12376
▁Er	-12377
▁ip	-12378
adhy	-12379
▁CVC	-12380
▁Pai	-12381
▁hur	-12382
▁via	-12383
awati	-12384
front	-12385
isher	-12386
ysing	-12387
▁Chit	-12388
▁Kaus	-12389
▁split	-12390
ndicate	-12391
▁minute	-12392
▁Praveen	-12393
▁intimid	-12394
▁loading	-12395
▁sisters	-12396
▁culpable	-12397
▁homicide	-12398
▁visiting	-12399
▁Recommend	-12400
▁informing	-12401
Development	-12402
▁empowering	-12403
▁depositions	-12404
▁handicapped	-12405
▁uncertainty	-12406
▁civilization	-12407
Ed	-12408
bid	-12409
zed	-12410
▁Ha	-12411
cean	-12412
etus	-12413
obar	-12414
▁SER	-12415
▁rit	-12416
ullah	-12417
▁NGOs	-12418
▁vent	-12419
mities	-12420
ruited	-12421
▁AWARD	-12422
▁Sabar	-12423
▁Suraj	-12424
▁wheel	-12425
▁France	-12426
▁broadc	-12427
▁Kalpana	-12428
▁comfort	-12429
▁salient	-12430
▁succumb	-12431
itisation	-12432
▁quarters	-12433
▁shortage	-12434
..........	-12435
▁Purchaser	-12436
▁collegium	-12437
▁corollary	-12438
▁factories	-12439
▁Individual	-12440
▁explicitly	-12441
▁instructed	-12442
▁liquidator	-12443
▁subsisting	-12444
▁Enforcement	-12445
▁conspirator	-12446
▁eventuality	-12447
▁reimbursement	-12448
Soc	-12449
TIL	-12450
▁AK	-12451
▁AL	-12452
argo	-12453
ethe	-12454
usuf	-12455
▁HON	-12456
▁SAT	-12457
EMENT	-12458
kshaw	-12459
▁Miss	-12460
▁Putt	-12461
▁pace	-12462
▁trou	-12463
rarest	-12464
▁Bazar	-12465
▁Facil	-12466
▁unreg	-12467
▁Tehsil	-12468
▁admits	-12469
▁demise	-12470
unctions	-12471
▁drafted	-12472
▁grossly	-12473
▁readily	-12474
▁violent	-12475
▁cheating	-12476
▁colonial	-12477
▁enlarged	-12478
▁withheld	-12479
▁Mauritius	-12480
▁addresses	-12481
▁meanwhile	-12482
▁movements	-12483
▁suppliers	-12484
▁Sabarimala	-12485
▁comparable	-12486
▁indicative	-12487
▁structural	-12488
▁summarised	-12489
▁compounding	-12490
▁handwriting	-12491
▁withholding	-12492
▁coordination	-12493
SB	-12494
▁pa	-12495
asse	-12496
exad	-12497
rits	-12498
ueen	-12499
▁Lad	-12500
▁lep	-12501
tings	-12502
ulars	-12503
▁Does	-12504
▁Jyot	-12505
▁Sten	-12506
▁curb	-12507
▁flaw	-12508
▁keen	-12509
▁sket	-12510
▁Sagar	-12511
▁Tower	-12512
▁imply	-12513
▁lingu	-12514
stances	-12515
version	-12516
▁Bhatia	-12517
▁evolve	-12518
▁incuri	-12519
substant	-12520
▁signing	-12521
▁Guwahati	-12522
▁Normally	-12523
▁Shekhadi	-12524
▁Whenever	-12525
▁buttress	-12526
▁probably	-12527
assessment	-12528
▁impliedly	-12529
▁provident	-12530
▁stringent	-12531
▁conceptual	-12532
▁importantly	-12533
▁administrator	-12534
▁apportionment	-12535
Work	-12536
ames	-12537
arus	-12538
atti	-12539
cane	-12540
debt	-12541
▁Mac	-12542
▁NRI	-12543
▁tou	-12544
asive	-12545
autam	-12546
ellow	-12547
iduci	-12548
▁NHRC	-12549
▁Rama	-12550
▁Same	-12551
▁barg	-12552
ussion	-12553
▁indem	-12554
▁Mobile	-12555
▁Period	-12556
▁albeit	-12557
▁Vehicle	-12558
▁arrival	-12559
▁challan	-12560
▁hanging	-12561
▁indulge	-12562
▁revival	-12563
▁vitiate	-12564
elligence	-12565
▁Assessee	-12566
▁Auditors	-12567
▁Halsbury	-12568
▁maturity	-12569
▁procured	-12570
▁receives	-12571
▁adherence	-12572
▁customary	-12573
▁economies	-12574
▁gradually	-12575
▁signatory	-12576
▁accusation	-12577
▁inordinate	-12578
▁invocation	-12579
▁proprietor	-12580
▁experiences	-12581
▁restitution	-12582
▁reconstruction	-12583
eer	-12584
File	-12585
Vide	-12586
illa	-12587
▁Ang	-12588
▁CIT	-12589
▁Cur	-12590
▁shad	-12591
▁Dharm	-12592
▁depra	-12593
▁penet	-12594
▁taxed	-12595
missory	-12596
▁Mahade	-12597
▁Mental	-12598
▁lastly	-12599
examined	-12600
▁curtail	-12601
▁induced	-12602
▁abstract	-12603
▁bleeding	-12604
▁calendar	-12605
▁inapplic	-12606
▁abduction	-12607
▁adjoining	-12608
▁condemned	-12609
▁indulging	-12610
▁infection	-12611
▁certiorari	-12612
▁emoluments	-12613
▁fulfilment	-12614
▁incapacity	-12615
▁promissory	-12616
▁succeeding	-12617
▁suspicious	-12618
▁Afghanistan	-12619
▁restrictive	-12620
AK	-12621
Id	-12622
ewal	-12623
umed	-12624
vide	-12625
▁FDI	-12626
▁HIV	-12627
▁Kat	-12628
▁Pot	-12629
▁nav	-12630
▁Jind	-12631
▁desc	-12632
▁negat	-12633
▁pragm	-12634
arising	-12635
assador	-12636
limited	-12637
ourable	-12638
▁Father	-12639
▁Should	-12640
▁reluct	-12641
▁repeat	-12642
▁Naphade	-12643
▁circuit	-12644
.........	-12645
▁Wildlife	-12646
▁importer	-12647
▁millions	-12648
▁redundant	-12649
▁supremacy	-12650
▁villagers	-12651
▁Agreements	-12652
▁Electrical	-12653
▁absconding	-12654
▁compensated	-12655
▁transmitted	-12656
▁Applications	-12657
▁unsuccessful	-12658
OM	-12659
aco	-12660
due	-12661
mic	-12662
vez	-12663
▁PG	-12664
post	-12665
▁Jog	-12666
▁sin	-12667
▁toH	-12668
▁wor	-12669
▁Poly	-12670
▁View	-12671
▁boys	-12672
▁caut	-12673
atible	-12674
common	-12675
elines	-12676
▁recap	-12677
▁ballot	-12678
▁depose	-12679
▁unpaid	-12680
▁council	-12681
▁leprosy	-12682
▁poultry	-12683
▁Signific	-12684
▁attaches	-12685
▁behavior	-12686
▁bestowed	-12687
▁presents	-12688
▁Sometimes	-12689
▁defaulter	-12690
▁physician	-12691
▁supplying	-12692
▁ineffective	-12693
▁subscribers	-12694
NS	-12695
Ps	-12696
IAN	-12697
kal	-12698
sic	-12699
▁PP	-12700
▁dt	-12701
conf	-12702
itud	-12703
yoti	-12704
▁Gir	-12705
▁Corp	-12706
▁Kaul	-12707
▁clim	-12708
▁gran	-12709
biddat	-12710
▁Asgar	-12711
▁arbit	-12712
▁casts	-12713
▁dimin	-12714
▁utter	-12715
▁Answer	-12716
▁Baroda	-12717
▁Rupees	-12718
▁Vishnu	-12719
▁adduce	-12720
▁merged	-12721
▁augment	-12722
▁passion	-12723
▁surgery	-12724
itiveness	-12725
▁commuted	-12726
▁indulged	-12727
▁objected	-12728
▁dictionary	-12729
▁possessing	-12730
consultation	-12731
▁incorporating	-12732
ASS	-12733
IFR	-12734
alu	-12735
lla	-12736
ois	-12737
odes	-12738
ords	-12739
▁MCO	-12740
▁ORS	-12741
▁Tar	-12742
▁esp	-12743
▁vig	-12744
adhar	-12745
bound	-12746
cause	-12747
venty	-12748
▁Cant	-12749
▁MLAs	-12750
▁Mall	-12751
▁Mean	-12752
▁Navy	-12753
▁fals	-12754
▁veil	-12755
▁Facts	-12756
▁Shant	-12757
▁Sibal	-12758
▁Surat	-12759
▁alike	-12760
▁holid	-12761
▁revis	-12762
▁undis	-12763
▁upset	-12764
Accused	-12765
ulously	-12766
▁Within	-12767
▁habeas	-12768
iduciary	-12769
ointment	-12770
▁Address	-12771
▁Nicobar	-12772
▁enlarge	-12773
▁exposed	-12774
▁handing	-12775
▁nursing	-12776
▁rehabil	-12777
▁Academic	-12778
▁clearing	-12779
▁feasible	-12780
▁finished	-12781
▁highways	-12782
▁incuriam	-12783
▁lawfully	-12784
▁operator	-12785
▁persuade	-12786
▁precious	-12787
▁terminal	-12788
▁throwing	-12789
▁occupancy	-12790
▁pertained	-12791
▁selecting	-12792
▁postmortem	-12793
▁practically	-12794
▁contingencies	-12795
uv	-12796
▁GU	-12797
▁Md	-12798
▁Ati	-12799
▁kms	-12800
▁Dass	-12801
▁flav	-12802
▁ryot	-12803
▁wors	-12804
establ	-12805
urious	-12806
▁Datar	-12807
▁Debts	-12808
▁patta	-12809
▁preca	-12810
▁shirt	-12811
▁Dharam	-12812
▁Kalyan	-12813
▁Repeal	-12814
▁concur	-12815
etheless	-12816
▁Dispute	-12817
▁booking	-12818
▁Constitu	-12819
▁Highways	-12820
▁measured	-12821
▁plausible	-12822
▁recruited	-12823
...........	-12824
▁subsection	-12825
▁candidature	-12826
▁designation	-12827
▁testimonies	-12828
▁Proclamation	-12829
▁Rehabilitation	-12830
GA	-12831
ben	-12832
Sche	-12833
aidu	-12834
arer	-12835
eper	-12836
exts	-12837
riya	-12838
wage	-12839
▁Obs	-12840
▁VAT	-12841
▁sus	-12842
antic	-12843
techn	-12844
▁NCLT	-12845
▁dent	-12846
▁forg	-12847
▁Funds	-12848
▁Gowda	-12849
▁agony	-12850
▁venue	-12851
▁script	-12852
▁thread	-12853
▁Cricket	-12854
▁carrier	-12855
▁cooking	-12856
▁posting	-12857
▁Trustees	-12858
▁helpless	-12859
▁assisting	-12860
▁proponent	-12861
▁legitimacy	-12862
▁sustaining	-12863
▁culpability	-12864
▁differentia	-12865
▁exercisable	-12866
▁Notifications	-12867
▁strangulation	-12868
Cs	-12869
All	-12870
▁HU	-12871
▁Sd	-12872
gedy	-12873
rmal	-12874
▁Nil	-12875
itant	-12876
▁Sawh	-12877
▁cure	-12878
▁jobs	-12879
▁rope	-12880
▁talk	-12881
itious	-12882
▁Baner	-12883
▁Begum	-12884
▁Defin	-12885
▁Kiran	-12886
▁repay	-12887
▁rough	-12888
▁Deepak	-12889
▁Pathan	-12890
▁crisis	-12891
▁output	-12892
▁Brother	-12893
▁Digital	-12894
▁inquire	-12895
▁bonafide	-12896
▁contacts	-12897
▁machines	-12898
▁diversion	-12899
▁dividends	-12900
▁realities	-12901
▁sanctions	-12902
▁specifies	-12903
▁Institutes	-12904
▁Ultimately	-12905
▁determines	-12906
▁repugnancy	-12907
▁Maintenance	-12908
▁disturbance	-12909
▁promulgated	-12910
determination	-12911
▁impartiality	-12912
ao	-12913
thy	-12914
uka	-12915
wad	-12916
▁ACC	-12917
▁Gar	-12918
▁Ish	-12919
comes	-12920
roots	-12921
there	-12922
▁BIFR	-12923
▁Bull	-12924
▁IFCI	-12925
▁ster	-12926
embers	-12927
itants	-12928
urated	-12929
▁grain	-12930
▁opted	-12931
▁Assets	-12932
▁Joseph	-12933
▁Sheikh	-12934
▁tribes	-12935
▁prepond	-12936
▁recapit	-12937
▁relinqu	-12938
▁Mahendra	-12939
▁resigned	-12940
▁succeeds	-12941
▁advisable	-12942
▁contempor	-12943
▁capability	-12944
▁convincing	-12945
▁systematic	-12946
▁reliability	-12947
▁Nevertheless	-12948
▁disobedience	-12949
▁inapplicable	-12950
▁laboratories	-12951
▁determinative	-12952
CD	-12953
GS	-12954
MF	-12955
ICI	-12956
bha	-12957
eec	-12958
hek	-12959
leet	-12960
▁Diu	-12961
▁Fil	-12962
▁sla	-12963
ighth	-12964
oneys	-12965
▁HPCL	-12966
▁NCTE	-12967
▁Prit	-12968
▁band	-12969
▁diab	-12970
▁pond	-12971
▁stab	-12972
▁Daman	-12973
▁Yusuf	-12974
▁meets	-12975
earance	-12976
▁Dental	-12977
▁Powers	-12978
▁wounds	-12979
▁Pradeep	-12980
▁dialogue	-12981
▁dwelling	-12982
▁inaction	-12983
▁reciproc	-12984
▁rightful	-12985
▁Emergency	-12986
▁declining	-12987
▁happening	-12988
▁obscenity	-12989
▁restrained	-12990
▁transition	-12991
▁utilisation	-12992
▁differential	-12993
▁Manufacturing	-12994
▁constructions	-12995
MO	-12996
Cont	-12997
jeev	-12998
ocol	-12999
▁Bor	-13000
▁CEO	-13001
▁Sid	-13002
▁Why	-13003
▁Yes	-13004
▁rid	-13005
adian	-13006
ankaj	-13007
▁chair	-13008
▁prest	-13009
▁south	-13010
▁thumb	-13011
appreci	-13012
itality	-13013
▁bottom	-13014
▁entail	-13015
▁revive	-13016
▁agreeing	-13017
▁detected	-13018
▁eventual	-13019
▁formally	-13020
▁fruitful	-13021
▁instruct	-13022
▁programs	-13023
▁shipping	-13024
stitutions	-13025
▁deducting	-13026
▁gathering	-13027
uritisation	-13028
▁Electronic	-13029
▁directives	-13030
▁declaratory	-13031
▁Departmental	-13032
▁horticulture	-13033
chi	-13034
oty	-13035
▁DD	-13036
▁Ji	-13037
aces	-13038
fold	-13039
ganj	-13040
kers	-13041
qbal	-13042
uram	-13043
vedi	-13044
▁Don	-13045
▁EAC	-13046
▁Yak	-13047
▁bog	-13048
▁vir	-13049
build	-13050
purch	-13051
▁ITAT	-13052
▁Meer	-13053
▁ONGC	-13054
▁tack	-13055
ivious	-13056
▁Coast	-13057
▁Dayal	-13058
▁Farid	-13059
▁Haren	-13060
▁Media	-13061
▁Shank	-13062
▁cured	-13063
▁talaq	-13064
Hussain	-13065
▁Commod	-13066
▁Paswan	-13067
▁Volume	-13068
▁handle	-13069
▁metres	-13070
▁fitness	-13071
▁harness	-13072
▁impress	-13073
▁silence	-13074
▁streams	-13075
▁accuracy	-13076
▁borrowed	-13077
▁boundary	-13078
▁deserved	-13079
▁exposure	-13080
▁founding	-13081
▁obstante	-13082
▁occupier	-13083
▁analyzing	-13084
▁anonymity	-13085
▁displayed	-13086
▁impressed	-13087
▁leasehold	-13088
▁reservoir	-13089
▁phenomenon	-13090
▁distinctive	-13091
▁formulating	-13092
▁intelligence	-13093
▁misbehaviour	-13094
▁superintendence	-13095
ORS	-13096
iac	-13097
ims	-13098
uar	-13099
▁HR	-13100
Bank	-13101
CIAL	-13102
aked	-13103
lock	-13104
▁DPC	-13105
▁GRE	-13106
▁SCs	-13107
▁Unt	-13108
aksha	-13109
point	-13110
▁BSNL	-13111
▁Pers	-13112
▁Pond	-13113
▁Shan	-13114
▁tied	-13115
eeches	-13116
killed	-13117
▁Diary	-13118
▁Recon	-13119
▁cloth	-13120
▁devot	-13121
▁yadav	-13122
ository	-13123
▁brutal	-13124
▁redeem	-13125
▁Tenancy	-13126
▁devised	-13127
▁advisory	-13128
▁cardinal	-13129
▁erection	-13130
▁Extension	-13131
▁intending	-13132
▁intestate	-13133
▁prominent	-13134
▁Accountant	-13135
▁Ordinances	-13136
▁evaluating	-13137
▁households	-13138
............	-13139
▁resolutions	-13140
▁interrogation	-13141
▁possibilities	-13142
▁BE	-13143
▁DO	-13144
▁HS	-13145
atri	-13146
iant	-13147
▁nep	-13148
▁Hill	-13149
▁ipso	-13150
▁wire	-13151
ardhan	-13152
ealand	-13153
▁Domin	-13154
▁Malay	-13155
▁SCALE	-13156
▁acute	-13157
▁burns	-13158
▁excav	-13159
▁pride	-13160
▁teach	-13161
▁myself	-13162
▁rifles	-13163
▁waived	-13164
▁Bhavani	-13165
▁patents	-13166
▁vessels	-13167
▁earnings	-13168
▁ordering	-13169
▁pipeline	-13170
▁planting	-13171
▁qualities	-13172
▁resultant	-13173
▁testified	-13174
▁wholesale	-13175
▁contemnors	-13176
▁impleadment	-13177
▁Miscellaneous	-13178
deo	-13179
six	-13180
▁Haj	-13181
▁ger	-13182
etime	-13183
omass	-13184
pract	-13185
ropic	-13186
▁Ajit	-13187
▁Proc	-13188
▁ring	-13189
inders	-13190
▁Clerk	-13191
▁Incre	-13192
▁Video	-13193
▁drast	-13194
▁optim	-13195
rolling	-13196
▁Diplom	-13197
▁Grants	-13198
▁learnt	-13199
atellite	-13200
▁Islamic	-13201
▁enquire	-13202
▁horizon	-13203
▁attested	-13204
▁conjoint	-13205
▁coparcen	-13206
▁describe	-13207
▁parlance	-13208
▁approving	-13209
▁disturbing	-13210
▁fabricated	-13211
▁disbelieved	-13212
▁forthcoming	-13213
▁Conservation	-13214
▁arbitrations	-13215
▁practitioners	-13216
Del	-13217
ius	-13218
waj	-13219
quer	-13220
▁Abs	-13221
▁Age	-13222
▁Bra	-13223
▁Cas	-13224
▁Hot	-13225
▁ISO	-13226
▁Jab	-13227
▁tab	-13228
ERSUS	-13229
igate	-13230
ipher	-13231
▁Cath	-13232
▁LGBT	-13233
▁Sult	-13234
▁monop	-13235
▁vigil	-13236
ativity	-13237
▁Degree	-13238
xadsheet	-13239
▁Matters	-13240
▁chooses	-13241
▁flowers	-13242
▁genesis	-13243
▁greatly	-13244
▁nowhere	-13245
▁parking	-13246
▁Malhotra	-13247
▁Offences	-13248
▁breached	-13249
▁clerical	-13250
▁comprise	-13251
▁engaging	-13252
▁finalized	-13253
▁intimated	-13254
▁motivated	-13255
▁possesses	-13256
▁Activities	-13257
▁amalgamated	-13258
▁realisation	-13259
▁Intelligence	-13260
▁respectfully	-13261
▁Ud	-13262
aker	-13263
▁INA	-13264
▁Rul	-13265
▁TMC	-13266
▁unb	-13267
▁Trad	-13268
▁cord	-13269
▁crow	-13270
▁lend	-13271
▁wild	-13272
▁Initi	-13273
▁Newsp	-13274
▁River	-13275
▁gupta	-13276
ettered	-13277
▁Gautam	-13278
▁Prison	-13279
▁VERSUS	-13280
▁eleven	-13281
▁revise	-13282
▁screen	-13283
▁wooden	-13284
▁authors	-13285
▁revoked	-13286
iberation	-13287
▁Document	-13288
▁enduring	-13289
▁networks	-13290
▁revenues	-13291
▁amplitude	-13292
▁Inspection	-13293
▁depositing	-13294
▁Competition	-13295
▁shareholding	-13296
EA	-13297
ESI	-13298
but	-13299
▁DV	-13300
Fund	-13301
NCTD	-13302
suit	-13303
yani	-13304
▁cyl	-13305
▁joy	-13306
STITU	-13307
since	-13308
▁Phot	-13309
▁pump	-13310
▁Dated	-13311
▁conve	-13312
▁flour	-13313
▁inhab	-13314
▁noble	-13315
▁noise	-13316
▁outer	-13317
ICATION	-13318
olition	-13319
▁Making	-13320
▁accrue	-13321
▁moneys	-13322
▁picked	-13323
▁pledge	-13324
▁rushed	-13325
▁unduly	-13326
▁varies	-13327
▁Telecom	-13328
▁absorbed	-13329
▁monument	-13330
▁promised	-13331
▁slightly	-13332
▁survival	-13333
▁Relations	-13334
▁licensees	-13335
▁Puttaswamy	-13336
▁curriculum	-13337
▁Subramanium	-13338
▁consistency	-13339
▁contentious	-13340
VS	-13341
oz	-13342
xi	-13343
.).	-13344
▁kh	-13345
ande	-13346
opra	-13347
▁BDA	-13348
▁Dav	-13349
▁LRs	-13350
▁Ple	-13351
▁UTs	-13352
Where	-13353
rolog	-13354
▁Indo	-13355
▁Memo	-13356
▁Mull	-13357
▁NEET	-13358
▁UPSC	-13359
▁elap	-13360
▁park	-13361
Public	-13362
estine	-13363
forest	-13364
orious	-13365
osures	-13366
▁Dipak	-13367
▁Multi	-13368
▁Naidu	-13369
▁abdom	-13370
▁bread	-13371
▁crude	-13372
▁drafts	-13373
▁lifted	-13374
▁pardon	-13375
▁Website	-13376
▁dumping	-13377
▁explore	-13378
▁integra	-13379
▁tainted	-13380
▁targets	-13381
▁Canadian	-13382
▁Vehicles	-13383
▁reckoned	-13384
▁assailing	-13385
▁deserving	-13386
▁encounter	-13387
▁exemplary	-13388
▁licensing	-13389
▁precision	-13390
▁accomplice	-13391
▁dedication	-13392
▁prejudiced	-13393
▁thoroughly	-13394
▁Reservation	-13395
▁withdrawing	-13396
▁deliberation	-13397
▁intermediate	-13398
▁commissioning	-13399
:0	-13400
fl	-13401
vy	-13402
cor	-13403
het	-13404
rem	-13405
▁Ni	-13406
▁SO	-13407
Care	-13408
itch	-13409
lete	-13410
opsy	-13411
rape	-13412
▁Hyd	-13413
▁IIS	-13414
▁Rub	-13415
▁SBI	-13416
▁cow	-13417
first	-13418
▁Cash	-13419
▁Hall	-13420
▁Hans	-13421
▁NITs	-13422
▁gest	-13423
▁star	-13424
▁Usman	-13425
▁Willi	-13426
▁spelt	-13427
▁CONDOL	-13428
▁Shanti	-13429
▁assemb	-13430
▁incarc	-13431
▁sketch	-13432
Hussaini	-13433
eduction	-13434
▁Holding	-13435
▁backlog	-13436
▁Atiabari	-13437
▁auditors	-13438
▁delegate	-13439
▁educated	-13440
▁hearings	-13441
▁produces	-13442
▁wildlife	-13443
▁borrowers	-13444
▁dispensed	-13445
▁earmarked	-13446
▁negatived	-13447
▁Ambassador	-13448
▁variations	-13449
▁constraints	-13450
▁experienced	-13451
▁facilitates	-13452
▁backwardness	-13453
▁intelligible	-13454
..............	-13455
BM	-13456
REL	-13457
▁Ct	-13458
▁od	-13459
olve	-13460
▁NIA	-13461
▁Ran	-13462
▁Ras	-13463
▁ash	-13464
▁lad	-13465
ancer	-13466
chron	-13467
night	-13468
▁Bans	-13469
▁FTIL	-13470
▁foul	-13471
▁hors	-13472
anchal	-13473
andran	-13474
lessly	-13475
▁Delay	-13476
▁Sahib	-13477
▁gunny	-13478
▁reaff	-13479
▁spell	-13480
▁tribe	-13481
▁Contin	-13482
▁Rashid	-13483
▁Shetty	-13484
▁campus	-13485
▁ethics	-13486
▁ninety	-13487
▁repudi	-13488
▁trusts	-13489
▁secrecy	-13490
▁Impugned	-13491
▁licensed	-13492
▁treaties	-13493
▁enquiries	-13494
▁evidences	-13495
▁multiplic	-13496
▁Entreprene	-13497
▁coordinate	-13498
▁innovators	-13499
▁citizenship	-13500
▁discrepancy	-13501
▁inaugurated	-13502
▁entertainment	-13503
ki	-13504
si	-13505
IDA	-13506
▁“(	-13507
PTER	-13508
adar	-13509
adia	-13510
ilas	-13511
ture	-13512
year	-13513
▁GDP	-13514
▁Lah	-13515
▁TIP	-13516
▁tob	-13517
FAESI	-13518
parte	-13519
▁File	-13520
▁SCHE	-13521
▁bere	-13522
▁nurs	-13523
yalaya	-13524
▁Kamal	-13525
▁Restr	-13526
▁Sarla	-13527
▁irrig	-13528
▁metic	-13529
▁toHis	-13530
enanced	-13531
▁Tribal	-13532
▁deeper	-13533
▁intact	-13534
▁rising	-13535
▁shadow	-13536
▁Highway	-13537
▁broader	-13538
▁concert	-13539
▁probate	-13540
▁Analysis	-13541
▁builders	-13542
▁dissemin	-13543
▁extracts	-13544
▁historic	-13545
▁interact	-13546
▁railways	-13547
▁restruct	-13548
▁authorise	-13549
▁hazardous	-13550
▁acquitting	-13551
▁assessable	-13552
▁complicity	-13553
▁laboratory	-13554
▁circumspect	-13555
▁detrimental	-13556
▁fulfillment	-13557
▁scholarship	-13558
’),	-13559
Comm	-13560
TIVE	-13561
cher	-13562
iter	-13563
omed	-13564
omic	-13565
umes	-13566
▁Kul	-13567
▁Ros	-13568
▁tor	-13569
field	-13570
gical	-13571
karan	-13572
uthra	-13573
▁Coll	-13574
▁Mess	-13575
▁Move	-13576
▁Nirm	-13577
Indian	-13578
ignity	-13579
▁donor	-13580
▁maker	-13581
▁query	-13582
▁worse	-13583
issance	-13584
▁Amount	-13585
▁petrol	-13586
▁rental	-13587
criminal	-13588
▁highway	-13589
▁resides	-13590
esticides	-13591
▁invasion	-13592
▁lifetime	-13593
▁segments	-13594
▁Represent	-13595
▁Associates	-13596
▁affordable	-13597
▁attempting	-13598
▁preserving	-13599
▁suggesting	-13600
▁confinement	-13601
▁measurement	-13602
▁proprietary	-13603
▁replacement	-13604
omi	-13605
usi	-13606
agan	-13607
irab	-13608
▁Sep	-13609
▁Soh	-13610
▁Tub	-13611
▁Vir	-13612
erves	-13613
▁Abhi	-13614
▁Homes	-13615
▁Mahim	-13616
▁audio	-13617
▁react	-13618
otiable	-13619
▁Dhawan	-13620
▁Luthra	-13621
▁History	-13622
▁Shekhar	-13623
▁misused	-13624
▁orderly	-13625
ognizance	-13626
▁Catholic	-13627
▁Practice	-13628
▁Tulsiram	-13629
▁preceded	-13630
▁revolver	-13631
▁commences	-13632
▁curtailed	-13633
▁renewable	-13634
▁kidnapping	-13635
▁Accountants	-13636
▁conjunction	-13637
▁counselling	-13638
▁overlapping	-13639
▁Associations	-13640
)-	-13641
DG	-13642
LD	-13643
jj	-13644
/-,	-13645
ugu	-13646
▁sn	-13647
ania	-13648
endi	-13649
uran	-13650
▁ASS	-13651
▁Sew	-13652
▁exh	-13653
▁maj	-13654
▁Roll	-13655
▁bath	-13656
▁mail	-13657
▁pays	-13658
▁pick	-13659
▁shut	-13660
adhyay	-13661
akumar	-13662
ietnam	-13663
▁GNCTD	-13664
▁bulls	-13665
▁deity	-13666
▁deriv	-13667
acharya	-13668
istical	-13669
stained	-13670
workman	-13671
▁Laxman	-13672
▁encash	-13673
▁improb	-13674
▁standi	-13675
▁tenets	-13676
▁Academy	-13677
▁Belarus	-13678
▁Narasim	-13679
▁Radhika	-13680
▁Vishwan	-13681
▁recital	-13682
▁tobacco	-13683
▁willful	-13684
▁Measures	-13685
▁Passport	-13686
▁SARFAESI	-13687
▁proclaim	-13688
▁tangible	-13689
▁tourists	-13690
▁Initially	-13691
▁Principle	-13692
▁detriment	-13693
▁liberties	-13694
▁presiding	-13695
▁clearances	-13696
▁debentures	-13697
▁exigencies	-13698
▁Expenditure	-13699
▁facilitated	-13700
▁impeachment	-13701
▁Undertakings	-13702
▁authoritative	-13703
▁participatory	-13704
▁traditionally	-13705
UC	-13706
ROM	-13707
▁GM	-13708
▁Jat	-13709
▁Muz	-13710
▁Sea	-13711
▁bol	-13712
▁fed	-13713
entle	-13714
ivest	-13715
otten	-13716
vided	-13717
▁Bala	-13718
hishek	-13719
inance	-13720
ivance	-13721
▁Lanka	-13722
▁Cement	-13723
▁Naresh	-13724
▁Nature	-13725
▁Promot	-13726
▁Sriniv	-13727
▁godown	-13728
▁initio	-13729
▁reside	-13730
ognition	-13731
transfer	-13732
▁Estates	-13733
▁Gauhati	-13734
▁feeding	-13735
▁lessees	-13736
naissance	-13737
▁Krishnan	-13738
▁Surendra	-13739
▁fraction	-13740
▁speeches	-13741
▁withhold	-13742
▁detection	-13743
▁engineers	-13744
▁hierarchy	-13745
▁remarkable	-13746
▁sanitation	-13747
▁Prosecutors	-13748
▁consultancy	-13749
▁disablement	-13750
▁obstruction	-13751
HC	-13752
').	-13753
iser	-13754
orrh	-13755
regn	-13756
▁Bha	-13757
▁ESI	-13758
▁Gob	-13759
▁SHO	-13760
▁Tan	-13761
ylate	-13762
▁Line	-13763
▁Mary	-13764
▁Rana	-13765
▁ages	-13766
▁cher	-13767
▁miss	-13768
▁INAUG	-13769
▁MCOCA	-13770
▁Susme	-13771
▁basin	-13772
▁guise	-13773
▁infir	-13774
▁prote	-13775
▁rolls	-13776
priated	-13777
▁Khanna	-13778
▁SPEECH	-13779
▁disent	-13780
▁faulted	-13781
amentally	-13782
▁Ravindra	-13783
▁evolving	-13784
▁prevents	-13785
▁punitive	-13786
▁Admission	-13787
▁Valuation	-13788
▁recipient	-13789
▁resolving	-13790
▁screening	-13791
▁sponsored	-13792
▁sugarcane	-13793
▁extraction	-13794
▁inadequacy	-13795
▁inferences	-13796
▁laundering	-13797
▁resistance	-13798
▁sentiments	-13799
▁transferor	-13800
▁Arbitrators	-13801
▁Eligibility	-13802
▁infirmities	-13803
▁countenanced	-13804
▁highlighting	-13805
Es	-13806
Min	-13807
OND	-13808
yap	-13809
▁SB	-13810
edia	-13811
vial	-13812
▁ail	-13813
▁len	-13814
venge	-13815
▁Sach	-13816
▁Yash	-13817
iatric	-13818
▁.....	-13819
▁Aruna	-13820
▁Padma	-13821
▁Times	-13822
▁advoc	-13823
▁blows	-13824
▁semin	-13825
▁zones	-13826
▁Cotton	-13827
▁Immedi	-13828
▁Meerut	-13829
▁stable	-13830
alalitha	-13831
employee	-13832
▁Library	-13833
▁License	-13834
▁Vietnam	-13835
▁forgery	-13836
▁reinfor	-13837
▁Memorial	-13838
▁Province	-13839
▁abundant	-13840
▁clinical	-13841
▁financed	-13842
▁depriving	-13843
▁subscribe	-13844
▁unanimous	-13845
▁abundantly	-13846
▁connecting	-13847
▁ecological	-13848
▁purporting	-13849
DM	-13850
RL	-13851
RIT	-13852
gad	-13853
isk	-13854
oop	-13855
upp	-13856
aini	-13857
ugal	-13858
▁Has	-13859
▁Kut	-13860
▁Mir	-13861
▁bai	-13862
▁rab	-13863
ammal	-13864
dules	-13865
share	-13866
▁Praj	-13867
▁Said	-13868
▁meat	-13869
▁tail	-13870
▁ward	-13871
ushing	-13872
▁Yakub	-13873
▁blame	-13874
▁loses	-13875
▁sport	-13876
▁bright	-13877
▁notify	-13878
esterday	-13879
▁Commons	-13880
▁Sawhney	-13881
▁Strateg	-13882
▁counsels	-13883
▁drainage	-13884
▁feelings	-13885
▁harassed	-13886
▁perceive	-13887
▁printing	-13888
▁inherited	-13889
▁Assemblies	-13890
▁indefinite	-13891
▁inevitably	-13892
▁neighbours	-13893
▁emphatically	-13894
▁entitlements	-13895
▁Significantly	-13896
▁chargexadsheet	-13897
▁inconsistencies	-13898
If	-13899
VAT	-13900
itt	-13901
nes	-13902
uni	-13903
▁RR	-13904
itya	-13905
▁CER	-13906
▁Lab	-13907
▁MAR	-13908
▁MIN	-13909
▁Web	-13910
▁spr	-13911
▁Khas	-13912
▁Look	-13913
▁Room	-13914
▁glad	-13915
▁lect	-13916
▁usur	-13917
hibits	-13918
▁Chile	-13919
▁Forms	-13920
▁Nodal	-13921
▁Uttam	-13922
▁arena	-13923
▁coxad	-13924
▁doctr	-13925
▁doors	-13926
▁tract	-13927
otropic	-13928
usiness	-13929
▁Sardar	-13930
▁Sultan	-13931
ivestock	-13932
▁Gurgaon	-13933
▁Madurai	-13934
▁Summary	-13935
▁circums	-13936
▁ecology	-13937
▁minimal	-13938
▁refuses	-13939
▁sparing	-13940
isputably	-13941
▁credence	-13942
▁dealings	-13943
▁limiting	-13944
sequential	-13945
▁analogous	-13946
▁consuming	-13947
▁rejoinder	-13948
▁resorting	-13949
▁trademark	-13950
▁contingency	-13951
▁extradition	-13952
▁instalments	-13953
▁compulsorily	-13954
▁conciliation	-13955
▁disbursement	-13956
▁Reconstruction	-13957
./	-13958
mt	-13959
Rep	-13960
asc	-13961
yed	-13962
▁EN	-13963
imen	-13964
▁NPC	-13965
▁abh	-13966
▁rad	-13967
▁wet	-13968
Chair	-13969
Works	-13970
hapat	-13971
ingam	-13972
▁BSES	-13973
▁Save	-13974
▁daco	-13975
▁hind	-13976
▁khan	-13977
▁lock	-13978
arbitr	-13979
govern	-13980
▁Aggar	-13981
▁Marks	-13982
▁calam	-13983
▁drink	-13984
▁Mathew	-13985
▁Mukesh	-13986
▁SERVIC	-13987
▁lethal	-13988
▁surviv	-13989
▁widest	-13990
uestions	-13991
▁CHAPTER	-13992
▁Circuit	-13993
▁Failure	-13994
▁benches	-13995
▁designs	-13996
▁detenue	-13997
▁exhibit	-13998
▁linking	-13999
▁listing	-14000
▁strikes	-14001
ictitious	-14002
▁CONDOLES	-14003
▁apprised	-14004
▁condoled	-14005
▁designate	-14006
▁Discussion	-14007
▁conferment	-14008
▁delineated	-14009
▁diagnostic	-14010
▁inequality	-14011
▁practicing	-14012
▁accelerated	-14013
▁considerably	-14014
▁mechanically	-14015
▁effectiveness	-14016
▁preponderance	-14017
WA	-14018
Ret	-14019
UST	-14020
ped	-14021
This	-14022
ague	-14023
atus	-14024
bert	-14025
eraj	-14026
ffee	-14027
kind	-14028
rath	-14029
tery	-14030
▁BOC	-14031
▁Bis	-14032
▁Mak	-14033
▁TPC	-14034
▁Tej	-14035
▁eat	-14036
▁kin	-14037
▁wed	-14038
dated	-14039
▁JUDG	-14040
▁Khal	-14041
▁Noor	-14042
▁emin	-14043
▁novo	-14044
aswami	-14045
estone	-14046
system	-14047
▁Above	-14048
▁Ansal	-14049
▁Space	-14050
▁foods	-14051
▁label	-14052
examine	-14053
▁George	-14054
▁Indore	-14055
▁Terror	-14056
▁unders	-14057
▁banknot	-14058
▁beating	-14059
▁compete	-14060
▁drivers	-14061
▁elapsed	-14062
▁freight	-14063
▁plainly	-14064
▁explains	-14065
▁imminent	-14066
▁imparted	-14067
▁matching	-14068
Inspectors	-14069
▁Grievance	-14070
▁Treatment	-14071
▁believing	-14072
▁intensive	-14073
▁prevailed	-14074
▁succumbed	-14075
▁compounded	-14076
▁connivance	-14077
▁derogation	-14078
▁grassroots	-14079
▁justifying	-14080
▁complicated	-14081
▁exploration	-14082
▁subsistence	-14083
▁commissioned	-14084
▁intermediary	-14085
Pr	-14086
FER	-14087
ROW	-14088
dha	-14089
uja	-14090
▁Ap	-14091
▁Je	-14092
▁nd	-14093
ifty	-14094
prom	-14095
utic	-14096
▁Abh	-14097
▁CAG	-14098
▁Heg	-14099
▁Ken	-14100
▁ric	-14101
asted	-14102
sight	-14103
▁Azad	-14104
▁CGIT	-14105
▁obli	-14106
▁salt	-14107
▁tent	-14108
eering	-14109
▁Clean	-14110
▁esche	-14111
▁repro	-14112
▁skull	-14113
azetted	-14114
▁Charan	-14115
▁Chikna	-14116
▁pedest	-14117
▁prepar	-14118
▁rescue	-14119
▁surely	-14120
ructuous	-14121
▁Martial	-14122
▁Minutes	-14123
▁anxious	-14124
▁audited	-14125
essential	-14126
▁Aggarwal	-14127
▁Rajinder	-14128
▁annually	-14129
▁voidable	-14130
aeological	-14131
disclosure	-14132
▁Clearance	-14133
▁Contracts	-14134
▁affording	-14135
▁evaluated	-14136
▁explosive	-14137
▁fiduciary	-14138
▁federalism	-14139
▁generality	-14140
▁connotation	-14141
▁invalidated	-14142
▁compoundable	-14143
▁conclusively	-14144
▁stipulations	-14145
AF	-14146
ANI	-14147
agh	-14148
jid	-14149
yaz	-14150
eria	-14151
ibre	-14152
veer	-14153
▁Bre	-14154
▁Gal	-14155
▁Pip	-14156
There	-14157
idden	-14158
phone	-14159
rient	-14160
▁Desh	-14161
▁LIFT	-14162
▁east	-14163
▁poet	-14164
▁rock	-14165
prosec	-14166
▁Index	-14167
▁Liter	-14168
▁Sadar	-14169
▁oblit	-14170
▁roots	-14171
▁writs	-14172
▁Bharti	-14173
▁cancer	-14174
▁derive	-14175
▁intake	-14176
▁stains	-14177
▁avenues	-14178
▁denomin	-14179
▁flowing	-14180
▁genetic	-14181
▁lacking	-14182
▁reduces	-14183
▁replace	-14184
▁ascribed	-14185
▁flexible	-14186
▁frequent	-14187
▁sciences	-14188
▁pragmatic	-14189
▁Assistants	-14190
▁Grievances	-14191
▁Permission	-14192
▁faithfully	-14193
▁priorities	-14194
▁undertakes	-14195
▁contracting	-14196
▁incidentally	-14197
▁proclamation	-14198
Gov	-14199
aly	-14200
fact	-14201
▁Bij	-14202
▁Niz	-14203
▁Raf	-14204
▁ost	-14205
▁pel	-14206
antha	-14207
light	-14208
minor	-14209
oices	-14210
uling	-14211
vable	-14212
▁APPL	-14213
▁hygi	-14214
▁khat	-14215
▁scar	-14216
isites	-14217
rossed	-14218
▁Chowk	-14219
▁Compt	-14220
▁Hamid	-14221
▁Sangh	-14222
▁flora	-14223
verseas	-14224
▁Animal	-14225
▁Chairm	-14226
▁Golden	-14227
▁INDIAN	-14228
▁Satyam	-14229
▁Seller	-14230
▁laches	-14231
▁legacy	-14232
▁stance	-14233
▁tissue	-14234
reserved	-14235
▁arrayed	-14236
▁massive	-14237
▁trivial	-14238
Scheduled	-14239
▁Maharaja	-14240
▁Northern	-14241
▁homicidal	-14242
▁inquiries	-14243
▁oblivious	-14244
▁radiation	-14245
▁circulated	-14246
▁irreparable	-14247
▁temporarily	-14248
▁threatening	-14249
▁Appointments	-14250
▁concessional	-14251
▁Communications	-14252
▁constituencies	-14253
DL	-14254
FR	-14255
nas	-14256
osy	-14257
ayat	-14258
paid	-14259
ulal	-14260
harth	-14261
▁Addl	-14262
▁Next	-14263
▁obvi	-14264
▁wake	-14265
liable	-14266
▁Birth	-14267
▁Hegde	-14268
▁INTER	-14269
▁incul	-14270
▁parad	-14271
▁roles	-14272
▁towns	-14273
ductive	-14274
ignific	-14275
irendra	-14276
irlines	-14277
ourcing	-14278
▁Chopra	-14279
▁Gaurav	-14280
▁Jindal	-14281
▁Mother	-14282
▁Parade	-14283
▁Sarasw	-14284
▁Summit	-14285
▁corner	-14286
▁lapses	-14287
▁marine	-14288
▁rebate	-14289
▁checked	-14290
▁defense	-14291
▁granite	-14292
▁helping	-14293
▁revived	-14294
▁utilize	-14295
ificatory	-14296
▁Assuming	-14297
▁Sundaram	-14298
▁avoiding	-14299
▁prudence	-14300
▁warranto	-14301
▁Prajapati	-14302
▁hereafter	-14303
▁medicinal	-14304
▁remainder	-14305
▁reviewing	-14306
▁Eventually	-14307
▁crossxadex	-14308
▁oppression	-14309
▁structured	-14310
▁translated	-14311
▁accumulated	-14312
▁advertising	-14313
▁concentrate	-14314
▁Municipality	-14315
▁demonstrates	-14316
▁periodically	-14317
▁disadvantaged	-14318
MR	-14319
NR	-14320
२०	-14321
voc	-14322
anya	-14323
quit	-14324
▁Dou	-14325
▁Jub	-14326
legal	-14327
▁FROM	-14328
▁Host	-14329
▁Kore	-14330
▁Kuld	-14331
▁cars	-14332
malani	-14333
mander	-14334
proper	-14335
▁Dubey	-14336
▁Kapil	-14337
▁Overs	-14338
▁Subba	-14339
▁teams	-14340
▁unfit	-14341
letting	-14342
ovesaid	-14343
private	-14344
▁Receip	-14345
▁abated	-14346
▁carbon	-14347
▁trauma	-14348
▁Acharya	-14349
▁Proviso	-14350
▁embargo	-14351
▁forbidd	-14352
▁tragedy	-14353
▁wearing	-14354
▁Hinduism	-14355
▁messages	-14356
▁preclude	-14357
▁weighing	-14358
plaintiffs	-14359
▁Oversight	-14360
▁exchanged	-14361
▁infringed	-14362
▁Bankruptcy	-14363
▁elementary	-14364
▁sustenance	-14365
▁adjournment	-14366
▁condolences	-14367
▁infructuous	-14368
▁scrutinized	-14369
▁susceptible	-14370
DE	-14371
ECT	-14372
SCs	-14373
alp	-14374
▁IG	-14375
▁Si	-14376
both	-14377
mann	-14378
shot	-14379
▁MOU	-14380
▁kan	-14381
anasi	-14382
andal	-14383
haran	-14384
panch	-14385
puram	-14386
walia	-14387
▁Alam	-14388
▁Arts	-14389
▁Bhai	-14390
▁IITs	-14391
▁Insp	-14392
▁Purn	-14393
▁medi	-14394
▁mohd	-14395
idency	-14396
utting	-14397
▁Shiva	-14398
▁decid	-14399
▁endow	-14400
▁stick	-14401
▁wareh	-14402
atorium	-14403
operate	-14404
▁Aurang	-14405
▁Sahara	-14406
▁advers	-14407
▁banned	-14408
▁monies	-14409
▁Records	-14410
▁Venkata	-14411
▁brevity	-14412
▁closing	-14413
▁conject	-14414
▁oversee	-14415
[...]
