<unk>	0
<s>	0
</s>	0
UuRrLl	0
DdAaTtEe	0
NnUuMm	0
▁t	-0
he	-1
▁a	-2
▁the	-3
in	-4
▁o	-5
re	-6
on	-7
er	-8
at	-9
▁of	-10
en	-11
ed	-12
is	-13
▁s	-14
▁c	-15
it	-16
nd	-17
▁w	-18
▁p	-19
ion	-20
▁b	-21
▁in	-22
or	-23
al	-24
es	-25
▁f	-26
▁to	-27
an	-28
ar	-29
ing	-30
as	-31
ou	-32
▁d	-33
ic	-34
ent	-35
▁and	-36
▁th	-37
ct	-38
▁re	-39
▁m	-40
▁h	-41
ro	-42
le	-43
▁be	-44
▁n	-45
▁C	-46
st	-47
▁T	-48
▁e	-49
ation	-50
▁S	-51
▁is	-52
ce	-53
id	-54
▁A	-55
il	-56
▁that	-57
ot	-58
ut	-59
om	-60
ment	-61
▁I	-62
ve	-63
▁for	-64
▁con	-65
se	-66
▁on	-67
▁l	-68
im	-69
ly	-70
▁u	-71
▁as	-72
▁by	-73
ad	-74
pp	-75
▁or	-76
▁pro	-77
▁de	-78
▁su	-79
▁The	-80
ig	-81
our	-82
ll	-83
ur	-84
▁an	-85
ate	-86
▁(	-87
▁P	-88
▁g	-89
ver	-90
▁wh	-91
ch	-92
▁not	-93
her	-94
▁was	-95
ra	-96
ith	-97
ter	-98
ant	-99
ld	-100
ay	-101
▁it	-102
ow	-103
▁app	-104
▁with	-105
ri	-106
et	-107
ect	-108
▁M	-109
am	-110
ourt	-111
ir	-112
if	-113
ere	-114
ers	-115
▁st	-116
▁R	-117
ain	-118
ul	-119
res	-120
▁ex	-121
ab	-122
qu	-123
▁H	-124
▁B	-125
us	-126
ol	-127
ess	-128
ud	-129
▁com	-130
▁v	-131
▁he	-132
▁Court	-133
▁has	-134
nder	-135
ist	-136
ity	-137
ge	-138
▁D	-139
ich	-140
igh	-141
and	-142
▁N	-143
▁sh	-144
▁which	-145
est	-146
ak	-147
ther	-148
▁under	-149
▁are	-150
os	-151
ions	-152
ore	-153
▁al	-154
ated	-155
▁this	-156
▁G	-157
▁ha	-158
▁le	-159
art	-160
ial	-161
iv	-162
ec	-163
end	-164
▁at	-165
ies	-166
all	-167
cc	-168
ould	-169
rom	-170
ive	-171
od	-172
▁res	-173
nt	-174
ell	-175
▁r	-176
ort	-177
red	-178
▁from	-179
▁any	-180
▁L	-181
ence	-182
▁j	-183
▁have	-184
▁In	-185
em	-186
la	-187
ase	-188
ice	-189
um	-190
ust	-191
▁J	-192
ition	-193
un	-194
▁cont	-195
ard	-196
ill	-197
▁O	-198
▁W	-199
oc	-200
▁sub	-201
▁been	-202
▁y	-203
ure	-204
▁E	-205
ted	-206
ia	-207
over	-208
▁F	-209
ance	-210
▁there	-211
pl	-212
aid	-213
pon	-214
ction	-215
▁prov	-216
ary	-217
▁whe	-218
op	-219
ord	-220
▁fa	-221
▁dis	-222
ie	-223
able	-224
ff	-225
▁ag	-226
▁per	-227
▁ad	-228
▁St	-229
▁int	-230
ear	-231
th	-232
▁such	-233
ned	-234
▁acc	-235
▁Act	-236
▁im	-237
ution	-238
lic	-239
so	-240
▁all	-241
▁case	-242
▁part	-243
ire	-244
ight	-245
▁Ind	-246
ee	-247
▁ch	-248
▁his	-249
fore	-250
overn	-251
pt	-252
▁U	-253
▁other	-254
mit	-255
▁also	-256
mis	-257
der	-258
stit	-259
sion	-260
▁ab	-261
▁It	-262
ous	-263
▁had	-264
gh	-265
cl	-266
▁comp	-267
per	-268
ame	-269
▁ar	-270
ellant	-271
▁were	-272
su	-273
erv	-274
ade	-275
ac	-276
el	-277
▁off	-278
aw	-279
▁shall	-280
▁cons	-281
▁can	-282
du	-283
▁rec	-284
ations	-285
▁'	-286
▁K	-287
overnment	-288
▁ev	-289
ount	-290
▁would	-291
ag	-292
▁en	-293
▁no	-294
ru	-295
▁appellant	-296
erson	-297
▁dec	-298
▁imp	-299
▁Th	-300
▁State	-301
ass	-302
▁High	-303
▁ne	-304
ib	-305
rou	-306
▁said	-307
..	-308
▁person	-309
▁may	-310
▁sp	-311
▁its	-312
ub	-313
▁order	-314
ip	-315
▁un	-316
ied	-317
ical	-318
▁reg	-319
age	-320
ced	-321
fter	-322
▁jud	-323
▁Con	-324
ans	-325
▁qu	-326
▁Com	-327
▁am	-328
ision	-329
ict	-330
ree	-331
ection	-332
▁who	-333
▁-	-334
ide	-335
ime	-336
▁made	-337
▁India	-338
▁their	-339
▁rel	-340
▁out	-341
ome	-342
▁ob	-343
▁me	-344
pond	-345
▁se	-346
ry	-347
▁pres	-348
▁No	-349
▁will	-350
▁pre	-351
ident	-352
▁tak	-353
▁ref	-354
▁we	-355
orm	-356
ces	-357
oun	-358
sel	-359
ind	-360
pect	-361
stitution	-362
▁law	-363
ose	-364
ject	-365
use	-366
▁wor	-367
oin	-368
pondent	-369
used	-370
▁rep	-371
ost	-372
▁do	-373
ments	-374
▁“	-375
▁year	-376
out	-377
▁again	-378
iz	-379
▁Ch	-380
▁k	-381
▁right	-382
ific	-383
rib	-384
eal	-385
ered	-386
ish	-387
▁tr	-388
▁so	-389
▁mat	-390
ast	-391
ap	-392
▁fact	-393
▁Government	-394
ult	-395
▁only	-396
ep	-397
▁one	-398
▁fil	-399
▁V	-400
ong	-401
tain	-402
▁ind	-403
ise	-404
rit	-405
ail	-406
▁man	-407
etition	-408
▁before	-409
oll	-410
mission	-411
ile	-412
ious	-413
ates	-414
ory	-415
ove	-416
ber	-417
▁but	-418
▁inter	-419
▁ass	-420
ine	-421
▁against	-422
▁inv	-423
▁pol	-424
iew	-425
▁ac	-426
▁inc	-427
▁if	-428
▁they	-429
▁ent	-430
uth	-431
irect	-432
▁issu	-433
av	-434
ty	-435
▁respondent	-436
ings	-437
▁pur	-438
ue	-439
▁consid	-440
mitted	-441
▁pr	-442
one	-443
istr	-444
▁where	-445
▁As	-446
▁court	-447
▁cla	-448
▁judg	-449
ign	-450
▁pl	-451
pos	-452
inal	-453
▁em	-454
og	-455
▁,	-456
are	-457
▁def	-458
▁time	-459
▁work	-460
▁same	-461
isions	-462
▁dated	-463
ating	-464
ublic	-465
ual	-466
ational	-467
sed	-468
iff	-469
▁him	-470
hed	-471
▁requ	-472
ood	-473
clud	-474
form	-475
▁after	-476
ities	-477
▁act	-478
ract	-479
uthor	-480
ach	-481
.0	-482
▁sc	-483
me	-484
ens	-485
▁being	-486
ound	-487
▁accused	-488
ok	-489
▁applic	-490
▁pow	-491
▁lear	-492
ention	-493
ased	-494
ollow	-495
▁exp	-496
vel	-497
▁|	-498
▁into	-499
▁should	-500
▁tw	-501
eral	-502
▁This	-503
▁them	-504
▁pos	-505
▁leg	-506
ative	-507
min	-508
▁petition	-509
▁follow	-510
▁mak	-511
▁held	-512
eg	-513
▁comm	-514
▁serv	-515
ward	-516
urther	-517
oy	-518
▁learned	-519
act	-520
▁Sh	-521
),	-522
▁SC	-523
ceed	-524
▁Jud	-525
cy	-526
ason	-527
▁ter	-528
ath	-529
idence	-530
ank	-531
▁up	-532
not	-533
ik	-534
oint	-535
▁view	-536
old	-537
▁pass	-538
ian	-539
▁direct	-540
▁over	-541
▁when	-542
▁appeal	-543
▁cl	-544
aj	-545
ax	-546
nce	-547
erred	-548
▁two	-549
▁Constitution	-550
▁spec	-551
▁giv	-552
▁matter	-553
▁judgment	-554
▁land	-555
own	-556
ged	-557
▁state	-558
lect	-559
▁pay	-560
rough	-561
ors	-562
▁provisions	-563
very	-564
ms	-565
een	-566
ough	-567
▁pla	-568
▁quest	-569
▁coun	-570
▁eff	-571
ided	-572
▁He	-573
▁bet	-574
ility	-575
ute	-576
▁op	-577
▁Un	-578
▁Pro	-579
ness	-580
▁set	-581
ved	-582
▁conc	-583
ef	-584
wn	-585
▁our	-586
med	-587
ack	-588
▁conf	-589
▁trans	-590
▁years	-591
▁record	-592
▁supp	-593
▁reason	-594
led	-595
▁bec	-596
ite	-597
▁att	-598
▁cannot	-599
▁ext	-600
irst	-601
▁author	-602
ular	-603
▁includ	-604
ified	-605
rial	-606
icial	-607
▁her	-608
▁There	-609
▁you	-610
▁public	-611
▁these	-612
ever	-613
ild	-614
▁char	-615
▁proceed	-616
▁We	-617
▁further	-618
ral	-619
▁proper	-620
▁must	-621
▁Su	-622
erest	-623
con	-624
rim	-625
ised	-626
▁respect	-627
▁sec	-628
aint	-629
ature	-630
▁filed	-631
▁‘	-632
▁consider	-633
▁evidence	-634
ited	-635
▁appro	-636
ible	-637
▁On	-638
▁power	-639
....	-640
ween	-641
▁taken	-642
cept	-643
ause	-644
ession	-645
rant	-646
ark	-647
ired	-648
iction	-649
any	-650
ploy	-651
ash	-652
▁between	-653
▁above	-654
arl	-655
▁could	-656
▁within	-657
▁more	-658
▁[	-659
▁present	-660
▁interest	-661
ond	-662
▁pe	-663
▁regard	-664
▁question	-665
▁counsel	-666
riv	-667
lear	-668
ases	-669
▁disc	-670
▁well	-671
ges	-672
erc	-673
velop	-674
rap	-675
▁day	-676
▁even	-677
und	-678
pre	-679
uring	-680
▁.	-681
▁decision	-682
▁SCC	-683
▁than	-684
isl	-685
▁Ex	-686
ven	-687
▁rem	-688
▁soc	-689
ress	-690
its	-691
inc	-692
▁diff	-693
ended	-694
▁upon	-695
▁given	-696
▁claim	-697
▁count	-698
▁grou	-699
iod	-700
▁first	-701
▁amount	-702
ices	-703
▁whether	-704
ah	-705
ug	-706
▁Ben	-707
mitt	-708
▁period	-709
bit	-710
▁bas	-711
).	-712
oth	-713
duct	-714
reat	-715
▁about	-716
ification	-717
▁Rs	-718
▁just	-719
▁concer	-720
owever	-721
▁report	-722
erence	-723
▁writ	-724
sec	-725
ex	-726
ecess	-727
▁poss	-728
ief	-729
▁clear	-730
▁App	-731
▁val	-732
ew	-733
▁effect	-734
ople	-735
▁mem	-736
▁ro	-737
ving	-738
abl	-739
▁Commission	-740
▁dem	-741
ang	-742
▁est	-743
▁And	-744
irc	-745
▁form	-746
▁compl	-747
▁Section	-748
▁min	-749
▁Sing	-750
▁Pr	-751
ule	-752
ient	-753
▁government	-754
▁rele	-755
ife	-756
ules	-757
▁therefore	-758
▁new	-759
stru	-760
▁aff	-761
▁through	-762
ording	-763
ances	-764
▁Cent	-765
▁submitted	-766
ior	-767
▁cor	-768
▁application	-769
ined	-770
▁Pres	-771
▁passed	-772
eneral	-773
▁invest	-774
▁some	-775
▁exam	-776
▁sent	-777
▁employ	-778
▁partic	-779
dition	-780
▁cer	-781
▁Min	-782
ale	-783
itions	-784
▁people	-785
▁persons	-786
▁cases	-787
▁Ar	-788
▁ra	-789
▁necess	-790
ren	-791
▁read	-792
▁mon	-793
hi	-794
serv	-795
▁does	-796
▁grant	-797
ital	-798
ily	-799
▁parties	-800
▁Mr	-801
▁par	-802
▁te	-803
▁An	-804
▁PW	-805
▁Ad	-806
▁date	-807
anc	-808
ince	-809
▁De	-810
cess	-811
▁0	-812
▁while	-813
vers	-814
▁make	-815
ike	-816
▁President	-817
▁inform	-818
▁us	-819
pose	-820
▁own	-821
▁hand	-822
▁circ	-823
por	-824
▁des	-825
▁without	-826
ffic	-827
▁deal	-828
ister	-829
▁beh	-830
▁stat	-831
▁Bench	-832
ful	-833
▁suit	-834
unal	-835
▁find	-836
▁good	-837
ally	-838
ric	-839
iet	-840
▁section	-841
urn	-842
riminal	-843
ained	-844
man	-845
▁Judge	-846
▁allow	-847
▁referred	-848
▁stated	-849
ees	-850
▁following	-851
▁princ	-852
▁US	-853
igation	-854
vant	-855
▁develop	-856
ouse	-857
ting	-858
▁ret	-859
ivil	-860
itness	-861
▁prosec	-862
ix	-863
▁observ	-864
▁Sc	-865
uc	-866
hip	-867
▁subject	-868
▁rece	-869
▁then	-870
tern	-871
▁tax	-872
▁found	-873
▁she	-874
▁those	-875
▁agree	-876
ner	-877
uted	-878
▁down	-879
mittee	-880
▁offence	-881
rat	-882
bers	-883
▁kn	-884
self	-885
▁property	-886
ished	-887
ha	-888
▁exerc	-889
hen	-890
▁gu	-891
ribunal	-892
▁Central	-893
▁appellants	-894
▁did	-895
▁bel	-896
▁av	-897
▁purpose	-898
▁var	-899
▁take	-900
uris	-901
▁need	-902
ts	-903
▁place	-904
ural	-905
▁/	-906
▁ins	-907
▁legisl	-908
▁basis	-909
ob	-910
▁hold	-911
alf	-912
cil	-913
miss	-914
▁Am	-915
▁af	-916
▁stand	-917
clus	-918
▁opp	-919
ores	-920
▁occ	-921
other	-922
▁both	-923
▁like	-924
▁three	-925
▁war	-926
▁ground	-927
▁&	-928
▁ben	-929
▁word	-930
▁post	-931
▁car	-932
▁co	-933
▁concerned	-934
▁establ	-935
▁Singh	-936
▁Bh	-937
▁circum	-938
▁issue	-939
ram	-940
▁proceedings	-941
▁trial	-942
▁disp	-943
▁del	-944
▁issued	-945
▁acqu	-946
▁Indian	-947
▁ord	-948
way	-949
ater	-950
▁rev	-951
sequ	-952
ination	-953
ures	-954
ris	-955
▁differe	-956
▁witness	-957
lection	-958
▁process	-959
▁what	-960
iness	-961
ability	-962
ents	-963
▁facts	-964
▁name	-965
eek	-966
ither	-967
▁provision	-968
▁Wh	-969
▁call	-970
▁authority	-971
▁juris	-972
ret	-973
▁circumst	-974
▁produ	-975
▁dep	-976
▁necessary	-977
▁contract	-978
▁support	-979
ants	-980
oresaid	-981
▁arbit	-982
▁here	-983
▁aforesaid	-984
ency	-985
▁month	-986
▁required	-987
enior	-988
▁deter	-989
▁Reg	-990
▁Res	-991
▁prot	-992
▁For	-993
▁award	-994
▁account	-995
▁prev	-996
tic	-997
▁rights	-998
▁contin	-999
▁death	-1000
ality	-1001
▁having	-1002
▁service	-1003
▁different	-1004
▁country	-1005
▁appear	-1006
▁col	-1007
▁cap	-1008
here	-1009
of	-1010
▁including	-1011
esh	-1012
▁Or	-1013
▁inf	-1014
ier	-1015
read	-1016
▁num	-1017
▁because	-1018
diction	-1019
ave	-1020
▁appoint	-1021
leg	-1022
ides	-1023
crib	-1024
▁oper	-1025
section	-1026
pra	-1027
▁import	-1028
▁benef	-1029
▁polic	-1030
▁exec	-1031
▁polit	-1032
ring	-1033
ized	-1034
▁clause	-1035
conom	-1036
rop	-1037
lement	-1038
▁bu	-1039
PC	-1040
▁med	-1041
▁your	-1042
gan	-1043
▁Committee	-1044
ode	-1045
▁go	-1046
▁bus	-1047
▁during	-1048
ending	-1049
▁sy	-1050
▁lead	-1051
▁jurisdiction	-1052
▁Acc	-1053
.'	-1054
▁particular	-1055
▁adv	-1056
▁offic	-1057
ption	-1058
ody	-1059
row	-1060
▁my	-1061
erial	-1062
▁lim	-1063
▁main	-1064
ism	-1065
ences	-1066
▁Shri	-1067
oard	-1068
te	-1069
▁Sec	-1070
▁Y	-1071
heme	-1072
▁way	-1073
▁Re	-1074
▁consideration	-1075
▁terms	-1076
istration	-1077
▁dist	-1078
▁conv	-1079
▁If	-1080
ning	-1081
air	-1082
▁various	-1083
▁sit	-1084
ii	-1085
▁cond	-1086
▁life	-1087
▁relevant	-1088
ipl	-1089
▁considered	-1090
uty	-1091
▁behalf	-1092
▁mark	-1093
chn	-1094
▁police	-1095
ov	-1096
▁notice	-1097
▁priv	-1098
ointed	-1099
▁comple	-1100
▁Sp	-1101
ceased	-1102
▁li	-1103
▁inst	-1104
▁provided	-1105
▁equ	-1106
▁avail	-1107
▁Tribunal	-1108
raph	-1109
▁circumstances	-1110
▁statement	-1111
▁company	-1112
ives	-1113
▁child	-1114
ange	-1115
▁object	-1116
▁petitioner	-1117
▁rest	-1118
less	-1119
ft	-1120
ai	-1121
ries	-1122
ocu	-1123
up	-1124
▁used	-1125
▁far	-1126
▁certain	-1127
▁prosecution	-1128
▁Part	-1129
▁Del	-1130
arlia	-1131
omm	-1132
arliament	-1133
▁opin	-1134
▁:	-1135
▁agreement	-1136
▁class	-1137
olog	-1138
▁every	-1139
onment	-1140
▁However	-1141
ived	-1142
▁back	-1143
▁econom	-1144
ration	-1145
▁information	-1146
▁material	-1147
▁det	-1148
▁party	-1149
▁deceased	-1150
stem	-1151
▁vi	-1152
ulation	-1153
ble	-1154
▁members	-1155
allen	-1156
▁social	-1157
after	-1158
▁legal	-1159
arge	-1160
▁conduct	-1161
iety	-1162
ook	-1163
supra	-1164
aring	-1165
▁ed	-1166
▁Dep	-1167
▁Union	-1168
les	-1169
IR	-1170
▁exist	-1171
▁tra	-1172
▁inj	-1173
▁docu	-1174
ros	-1175
▁came	-1176
▁opinion	-1177
▁Rules	-1178
osed	-1179
▁fin	-1180
▁since	-1181
▁fund	-1182
▁non	-1183
ages	-1184
▁Is	-1185
▁let	-1186
han	-1187
gu	-1188
▁Coun	-1189
▁action	-1190
▁nature	-1191
▁Delhi	-1192
▁transf	-1193
▁show	-1194
00	-1195
▁En	-1196
▁Just	-1197
ourse	-1198
OR	-1199
ivers	-1200
▁expl	-1201
▁result	-1202
▁business	-1203
▁bl	-1204
▁cre	-1205
▁number	-1206
ilit	-1207
cedure	-1208
ogn	-1209
ically	-1210
▁each	-1211
▁say	-1212
gg	-1213
▁expres	-1214
▁end	-1215
▁manner	-1216
▁use	-1217
ately	-1218
▁But	-1219
iation	-1220
▁Rep	-1221
▁fore	-1222
▁very	-1223
bt	-1224
ather	-1225
ateg	-1226
▁Ass	-1227
ready	-1228
▁mention	-1229
▁constitution	-1230
port	-1231
aintiff	-1232
▁due	-1233
▁At	-1234
▁challen	-1235
▁Raj	-1236
posed	-1237
ivid	-1238
▁Comp	-1239
▁ca	-1240
/-	-1241
▁senior	-1242
pons	-1243
ify	-1244
ull	-1245
▁fun	-1246
▁another	-1247
ati	-1248
▁sim	-1249
tal	-1250
▁admin	-1251
▁Board	-1252
▁already	-1253
sequent	-1254
hes	-1255
▁Chief	-1256
▁income	-1257
▁political	-1258
▁Rule	-1259
▁criminal	-1260
▁prof	-1261
▁invol	-1262
▁now	-1263
▁though	-1264
▁respondents	-1265
▁fail	-1266
ters	-1267
.,	-1268
▁abs	-1269
ancial	-1270
▁et	-1271
ising	-1272
▁add	-1273
▁constru	-1274
▁according	-1275
ks	-1276
▁pun	-1277
▁exercise	-1278
preme	-1279
▁princip	-1280
▁cent	-1281
rol	-1282
▁Justice	-1283
reed	-1284
▁entit	-1285
har	-1286
pri	-1287
▁Pol	-1288
▁policy	-1289
▁mar	-1290
ines	-1291
▁bro	-1292
▁prom	-1293
par	-1294
uation	-1295
▁come	-1296
▁etc	-1297
▁development	-1298
▁test	-1299
▁system	-1300
amp	-1301
atory	-1302
▁thus	-1303
iance	-1304
▁Offic	-1305
▁fra	-1306
▁conditions	-1307
▁prog	-1308
▁viol	-1309
resent	-1310
▁days	-1311
▁sale	-1312
▁Code	-1313
artment	-1314
▁elect	-1315
▁el	-1316
▁pen	-1317
▁argu	-1318
cribed	-1319
▁house	-1320
▁words	-1321
▁goods	-1322
▁Supreme	-1323
▁determin	-1324
▁observed	-1325
▁mean	-1326
uch	-1327
see	-1328
▁allowed	-1329
ugned	-1330
▁based	-1331
▁charge	-1332
the	-1333
▁National	-1334
▁Man	-1335
istrict	-1336
▁dra	-1337
tained	-1338
▁Parliament	-1339
▁meet	-1340
▁compens	-1341
ys	-1342
▁Minister	-1343
▁States	-1344
ividual	-1345
▁earl	-1346
ering	-1347
▁require	-1348
orpor	-1349
▁reference	-1350
▁impugned	-1351
▁Mar	-1352
▁itself	-1353
........	-1354
ried	-1355
get	-1356
iding	-1357
uk	-1358
▁indust	-1359
eep	-1360
▁area	-1361
ecial	-1362
▁sur	-1363
▁final	-1364
▁available	-1365
▁services	-1366
▁payment	-1367
▁sign	-1368
▁sum	-1369
▁second	-1370
▁judicial	-1371
▁defend	-1372
▁educ	-1373
▁All	-1374
ten	-1375
▁i	-1376
▁working	-1377
day	-1378
ph	-1379
olution	-1380
stitut	-1381
▁paid	-1382
▁general	-1383
▁loc	-1384
▁know	-1385
ajor	-1386
▁possession	-1387
▁str	-1388
▁ident	-1389
▁individual	-1390
▁making	-1391
endment	-1392
▁means	-1393
iry	-1394
▁Bank	-1395
ared	-1396
▁subst	-1397
for	-1398
▁sentence	-1399
ext	-1400
ES	-1401
ivision	-1402
clusion	-1403
af	-1404
atis	-1405
▁cand	-1406
▁appropri	-1407
▁ple	-1408
pr	-1409
▁recorded	-1410
▁fam	-1411
▁bank	-1412
▁assess	-1413
▁either	-1414
▁ten	-1415
app	-1416
unity	-1417
▁powers	-1418
▁open	-1419
uman	-1420
▁ser	-1421
▁apply	-1422
▁earlier	-1423
▁sect	-1424
▁Se	-1425
▁along	-1426
▁ph	-1427
▁entitled	-1428
▁candid	-1429
▁punish	-1430
▁position	-1431
▁special	-1432
▁film	-1433
▁promot	-1434
▁long	-1435
ilar	-1436
als	-1437
▁fl	-1438
▁Therefore	-1439
▁pract	-1440
▁mis	-1441
▁stud	-1442
▁represent	-1443
ugh	-1444
▁high	-1445
anding	-1446
▁fav	-1447
▁init	-1448
▁investigation	-1449
▁Law	-1450
▁plaintiff	-1451
pted	-1452
▁appointment	-1453
▁duty	-1454
:-	-1455
▁cost	-1456
▁justice	-1457
agraph	-1458
▁world	-1459
jud	-1460
▁OF	-1461
▁General	-1462
▁They	-1463
ential	-1464
▁milit	-1465
▁–	-1466
▁incre	-1467
▁orders	-1468
ink	-1469
▁ve	-1470
ey	-1471
▁point	-1472
▁major	-1473
▁put	-1474
ici	-1475
▁seek	-1476
▁Courts	-1477
▁recomm	-1478
▁get	-1479
ck	-1480
atisf	-1481
ron	-1482
▁course	-1483
▁provide	-1484
ya	-1485
ple	-1486
▁Tr	-1487
▁complaint	-1488
ctions	-1489
ditional	-1490
▁indic	-1491
▁cause	-1492
▁most	-1493
ace	-1494
▁laid	-1495
▁Ag	-1496
▁compensation	-1497
▁Al	-1498
AT	-1499
▁give	-1500
▁dou	-1501
▁intern	-1502
▁appropriate	-1503
▁Council	-1504
▁committed	-1505
▁accord	-1506
▁entire	-1507
▁however	-1508
AR	-1509
▁rule	-1510
▁last	-1511
▁organ	-1512
▁Officer	-1513
mber	-1514
▁statut	-1515
▁According	-1516
by	-1517
▁contained	-1518
▁mer	-1519
ively	-1520
▁Sub	-1521
ush	-1522
▁decl	-1523
▁granted	-1524
ested	-1525
▁build	-1526
oss	-1527
▁continu	-1528
▁financial	-1529
ran	-1530
▁After	-1531
▁establish	-1532
urre	-1533
▁mentioned	-1534
▁techn	-1535
omb	-1536
umar	-1537
cent	-1538
ining	-1539
▁months	-1540
▁appeals	-1541
▁follows	-1542
empt	-1543
epend	-1544
▁done	-1545
▁favour	-1546
▁many	-1547
▁Not	-1548
▁placed	-1549
▁took	-1550
▁reasons	-1551
cing	-1552
▁great	-1553
ons	-1554
▁value	-1555
▁scheme	-1556
▁Gu	-1557
▁discus	-1558
urity	-1559
▁New	-1560
▁principle	-1561
▁pri	-1562
▁force	-1563
▁received	-1564
▁directed	-1565
▁tre	-1566
ience	-1567
ured	-1568
▁called	-1569
▁stru	-1570
▁economic	-1571
▁society	-1572
▁Division	-1573
ars	-1574
wards	-1575
ross	-1576
▁satisf	-1577
▁met	-1578
▁ann	-1579
ON	-1580
ibility	-1581
▁accept	-1582
ought	-1583
sure	-1584
▁cred	-1585
▁That	-1586
▁Direct	-1587
az	-1588
oh	-1589
▁civil	-1590
rought	-1591
▁matters	-1592
▁officer	-1593
ock	-1594
▁lit	-1595
▁office	-1596
▁project	-1597
▁mod	-1598
▁alle	-1599
▁body	-1600
▁constitutional	-1601
essee	-1602
unic	-1603
eration	-1604
▁Thus	-1605
ror	-1606
EN	-1607
ool	-1608
▁Col	-1609
ER	-1610
▁relating	-1611
ember	-1612
▁provides	-1613
oney	-1614
▁activ	-1615
▁demand	-1616
missed	-1617
ected	-1618
▁Civil	-1619
▁compet	-1620
aking	-1621
▁Leg	-1622
eed	-1623
▁except	-1624
▁taking	-1625
igned	-1626
mb	-1627
ists	-1628
▁thereof	-1629
hold	-1630
▁Author	-1631
▁er	-1632
ake	-1633
▁asse	-1634
▁To	-1635
▁dismissed	-1636
agistr	-1637
asht	-1638
▁Ram	-1639
poses	-1640
▁decla	-1641
▁che	-1642
ork	-1643
ari	-1644
▁important	-1645
▁perform	-1646
▁courts	-1647
agement	-1648
hib	-1649
▁Petition	-1650
rect	-1651
▁witnesses	-1652
▁nor	-1653
▁interpre	-1654
ains	-1655
▁herein	-1656
istered	-1657
ology	-1658
▁specified	-1659
▁valid	-1660
alth	-1661
iated	-1662
wise	-1663
▁percent	-1664
quiry	-1665
adesh	-1666
▁exper	-1667
▁meas	-1668
▁alleged	-1669
▁less	-1670
irm	-1671
▁head	-1672
▁transfer	-1673
▁rules	-1674
ense	-1675
▁orig	-1676
sp	-1677
▁respons	-1678
▁These	-1679
▁Te	-1680
rie	-1681
amil	-1682
▁official	-1683
▁workers	-1684
▁market	-1685
▁enact	-1686
▁military	-1687
rest	-1688
ata	-1689
▁II	-1690
ORD	-1691
▁depos	-1692
▁detail	-1693
acy	-1694
▁stage	-1695
ury	-1696
ament	-1697
▁prescribed	-1698
▁mere	-1699
▁When	-1700
▁capital	-1701
▁brought	-1702
▁letter	-1703
ards	-1704
ray	-1705
agistrate	-1706
ird	-1707
▁IPC	-1708
▁gen	-1709
eric	-1710
elf	-1711
ves	-1712
iples	-1713
ger	-1714
▁sever	-1715
▁wom	-1716
▁aside	-1717
▁Kumar	-1718
AN	-1719
▁LORD	-1720
itor	-1721
duced	-1722
▁pat	-1723
▁acce	-1724
anies	-1725
▁accordance	-1726
ma	-1727
rad	-1728
▁dispute	-1729
inary	-1730
▁categ	-1731
▁common	-1732
▁constit	-1733
▁Lt	-1734
ield	-1735
with	-1736
▁purposes	-1737
▁sett	-1738
▁Soc	-1739
▁submission	-1740
ellate	-1741
▁den	-1742
itation	-1743
▁Department	-1744
▁Serv	-1745
▁benefit	-1746
▁Appeal	-1747
▁medical	-1748
▁hig	-1749
▁private	-1750
▁water	-1751
▁paragraph	-1752
▁among	-1753
ana	-1754
raq	-1755
xad	-1756
▁children	-1757
uly	-1758
▁namely	-1759
ulations	-1760
▁sought	-1761
▁Cr	-1762
cture	-1763
▁decisions	-1764
▁Iraq	-1765
▁conn	-1766
ocrat	-1767
▁international	-1768
▁Respondent	-1769
▁conclusion	-1770
▁vide	-1771
▁raised	-1772
stitutions	-1773
hing	-1774
taining	-1775
iversity	-1776
▁Tamil	-1777
▁procedure	-1778
▁clearly	-1779
▁Prov	-1780
action	-1781
▁ir	-1782
▁Mah	-1783
tific	-1784
▁level	-1785
▁recogn	-1786
ization	-1787
ira	-1788
rary	-1789
▁statutory	-1790
sw	-1791
▁decided	-1792
...	-1793
▁election	-1794
▁ur	-1795
▁sm	-1796
▁Magistrate	-1797
missions	-1798
▁independ	-1799
▁separ	-1800
osp	-1801
▁appointed	-1802
▁prior	-1803
▁Police	-1804
▁mind	-1805
▁san	-1806
▁Co	-1807
▁cust	-1808
iate	-1809
▁opport	-1810
▁otherwise	-1811
BI	-1812
▁noted	-1813
avan	-1814
orn	-1815
▁total	-1816
▁administration	-1817
▁Be	-1818
overed	-1819
▁Eng	-1820
▁vict	-1821
▁Pradesh	-1822
▁reject	-1823
▁Dr	-1824
▁Ltd	-1825
▁rate	-1826
na	-1827
▁role	-1828
AL	-1829
isition	-1830
▁control	-1831
▁notification	-1832
▁aspect	-1833
arily	-1834
▁deem	-1835
▁family	-1836
▁trade	-1837
utive	-1838
ulated	-1839
▁human	-1840
▁national	-1841
lied	-1842
▁several	-1843
▁accepted	-1844
▁adop	-1845
istry	-1846
▁grow	-1847
▁purch	-1848
▁fall	-1849
illa	-1850
▁offences	-1851
▁large	-1852
ID	-1853
orth	-1854
osition	-1855
▁Commissioner	-1856
▁money	-1857
▁expression	-1858
▁District	-1859
▁Legisl	-1860
▁become	-1861
hic	-1862
▁doubt	-1863
standing	-1864
▁possible	-1865
▁education	-1866
▁Govern	-1867
ower	-1868
▁care	-1869
uf	-1870
▁note	-1871
▁left	-1872
arn	-1873
▁assessee	-1874
aged	-1875
▁established	-1876
▁Corpor	-1877
▁Americ	-1878
▁registered	-1879
▁obl	-1880
▁While	-1881
▁situation	-1882
isation	-1883
hedu	-1884
▁vis	-1885
▁vot	-1886
▁refer	-1887
hedule	-1888
▁suff	-1889
▁issues	-1890
▁function	-1891
▁incident	-1892
▁Authority	-1893
IC	-1894
lause	-1895
▁substant	-1896
▁group	-1897
▁Special	-1898
▁charges	-1899
iber	-1900
▁documents	-1901
▁age	-1902
ics	-1903
▁Judges	-1904
▁extent	-1905
▁original	-1906
▁short	-1907
rael	-1908
riage	-1909
▁Par	-1910
▁env	-1911
▁program	-1912
▁Cont	-1913
ator	-1914
▁undert	-1915
ick	-1916
▁specific	-1917
▁succ	-1918
▁others	-1919
▁Public	-1920
▁correct	-1921
ging	-1922
amental	-1923
▁real	-1924
arent	-1925
illion	-1926
▁authorities	-1927
▁plan	-1928
▁list	-1929
▁meaning	-1930
▁impris	-1931
▁employees	-1932
ticle	-1933
▁arbitration	-1934
▁principles	-1935
▁Israel	-1936
▁complete	-1937
▁pref	-1938
▁context	-1939
▁much	-1940
ached	-1941
▁free	-1942
chool	-1943
▁five	-1944
▁previous	-1945
▁petitioners	-1946
▁answ	-1947
uses	-1948
▁recommend	-1949
▁gl	-1950
ually	-1951
▁Mad	-1952
▁Further	-1953
▁bre	-1954
▁IN	-1955
▁sugg	-1956
▁Order	-1957
▁Le	-1958
PW	-1959
▁Report	-1960
▁decree	-1961
ufact	-1962
▁reasonable	-1963
IT	-1964
▁Ab	-1965
▁fix	-1966
▁similar	-1967
▁assessment	-1968
▁She	-1969
▁foreign	-1970
▁ensure	-1971
imes	-1972
▁imprisonment	-1973
▁ess	-1974
▁appearing	-1975
▁towards	-1976
▁Comm	-1977
imum	-1978
▁relations	-1979
▁mand	-1980
▁cr	-1981
angu	-1982
▁Secret	-1983
▁defendant	-1984
▁victim	-1985
▁delay	-1986
▁adver	-1987
▁mot	-1988
ways	-1989
▁ver	-1990
,'	-1991
▁fe	-1992
▁light	-1993
▁declared	-1994
▁security	-1995
▁implement	-1996
itiz	-1997
utes	-1998
▁neg	-1999
▁areas	-2000
▁member	-2001
▁four	-2002
▁below	-2003
akh	-2004
▁term	-2005
▁enter	-2006
▁propos	-2007
▁applicable	-2008
▁eng	-2009
▁treat	-2010
▁review	-2011
ala	-2012
ably	-2013
▁contended	-2014
▁subsequent	-2015
asion	-2016
▁six	-2017
ainant	-2018
to	-2019
urop	-2020
▁hearing	-2021
une	-2022
▁interf	-2023
▁particip	-2024
▁holding	-2025
▁attack	-2026
▁ful	-2027
▁pursu	-2028
▁institutions	-2029
▁Party	-2030
▁relied	-2031
ospital	-2032
▁lic	-2033
irection	-2034
▁unless	-2035
ony	-2036
▁see	-2037
▁Criminal	-2038
▁how	-2039
uled	-2040
ticles	-2041
ironment	-2042
urope	-2043
▁regarding	-2044
▁sal	-2045
▁examined	-2046
▁product	-2047
illed	-2048
▁Adv	-2049
part	-2050
val	-2051
▁loss	-2052
▁Jan	-2053
▁went	-2054
ocratic	-2055
come	-2056
pril	-2057
▁health	-2058
▁pointed	-2059
▁lo	-2060
▁pop	-2061
▁building	-2062
▁amendment	-2063
▁vehic	-2064
spect	-2065
▁Company	-2066
▁discl	-2067
ories	-2068
--	-2069
▁nex	-2070
▁Europe	-2071
▁fundamental	-2072
ently	-2073
▁examination	-2074
▁direction	-2075
▁event	-2076
▁share	-2077
▁relig	-2078
▁Corporation	-2079
istan	-2080
▁prim	-2081
▁involved	-2082
▁father	-2083
sh	-2084
band	-2085
▁arrest	-2086
fficient	-2087
ercial	-2088
▁tru	-2089
▁week	-2090
com	-2091
▁lease	-2092
▁express	-2093
overy	-2094
▁immed	-2095
uary	-2096
▁countries	-2097
TE	-2098
▁cop	-2099
ership	-2100
▁relation	-2101
▁prep	-2102
▁hel	-2103
▁keep	-2104
▁construction	-2105
land	-2106
▁bring	-2107
▁facil	-2108
▁reserv	-2109
ours	-2110
▁manufact	-2111
urance	-2112
▁doct	-2113
▁Under	-2114
▁relief	-2115
▁document	-2116
▁Lear	-2117
▁full	-2118
▁Ministry	-2119
ying	-2120
▁Develop	-2121
▁appre	-2122
▁start	-2123
▁Nos	-2124
▁April	-2125
▁penal	-2126
▁agg	-2127
▁Pl	-2128
▁carry	-2129
iving	-2130
▁son	-2131
tificate	-2132
atural	-2133
ENT	-2134
▁till	-2135
int	-2136
ope	-2137
illeg	-2138
▁cro	-2139
▁away	-2140
orts	-2141
ledge	-2142
▁nan	-2143
▁legislation	-2144
▁pet	-2145
▁Off	-2146
ends	-2147
ium	-2148
II	-2149
▁liable	-2150
▁es	-2151
essions	-2152
▁tem	-2153
▁Governor	-2154
▁therein	-2155
▁citiz	-2156
ues	-2157
▁serious	-2158
▁return	-2159
oid	-2160
▁conviction	-2161
▁saf	-2162
▁institution	-2163
bs	-2164
reedom	-2165
▁leave	-2166
▁PR	-2167
vention	-2168
▁instru	-2169
▁heard	-2170
▁include	-2171
▁fee	-2172
▁higher	-2173
▁Learned	-2174
▁illeg	-2175
▁giving	-2176
▁University	-2177
chie	-2178
▁defin	-2179
atives	-2180
que	-2181
▁ded	-2182
▁House	-2183
▁alleg	-2184
▁deemed	-2185
tation	-2186
▁price	-2187
mbly	-2188
▁March	-2189
▁dom	-2190
▁aut	-2191
▁God	-2192
▁laws	-2193
▁collect	-2194
▁written	-2195
ises	-2196
▁Director	-2197
'.	-2198
▁declar	-2199
iced	-2200
▁pray	-2201
urrent	-2202
▁Bhavan	-2203
▁assist	-2204
▁ask	-2205
▁bail	-2206
idav	-2207
▁remain	-2208
▁judgments	-2209
▁complainant	-2210
anation	-2211
▁today	-2212
▁help	-2213
▁run	-2214
▁May	-2215
▁By	-2216
▁meeting	-2217
ta	-2218
reg	-2219
▁qual	-2220
apter	-2221
▁With	-2222
▁achie	-2223
▁Tax	-2224
▁move	-2225
▁wherein	-2226
ize	-2227
▁proved	-2228
▁finding	-2229
▁essential	-2230
HE	-2231
ION	-2232
▁whole	-2233
iso	-2234
▁local	-2235
vi	-2236
eb	-2237
▁bar	-2238
▁field	-2239
dra	-2240
ti	-2241
▁officers	-2242
▁Secretary	-2243
iii	-2244
The	-2245
▁lay	-2246
▁produced	-2247
▁states	-2248
▁pending	-2249
icult	-2250
▁opportunity	-2251
anguage	-2252
▁success	-2253
mes	-2254
▁ce	-2255
▁next	-2256
war	-2257
▁norm	-2258
▁himself	-2259
ricult	-2260
▁whose	-2261
erg	-2262
abour	-2263
tion	-2264
▁crime	-2265
▁directions	-2266
▁sufficient	-2267
▁condition	-2268
▁personal	-2269
▁disch	-2270
▁seen	-2271
▁step	-2272
▁super	-2273
aving	-2274
▁play	-2275
abor	-2276
▁tit	-2277
▁companies	-2278
CI	-2279
▁submit	-2280
▁camp	-2281
▁und	-2282
umb	-2283
▁filing	-2284
ught	-2285
▁Even	-2286
▁har	-2287
equ	-2288
ault	-2289
▁Muk	-2290
go	-2291
▁wind	-2292
▁contention	-2293
▁Bush	-2294
▁Intern	-2295
jee	-2296
▁intention	-2297
▁FIR	-2298
mises	-2299
▁United	-2300
▁fut	-2301
१०	-2302
outh	-2303
phas	-2304
Ex	-2305
▁affidav	-2306
oor	-2307
▁payable	-2308
IA	-2309
▁imm	-2310
▁absence	-2311
▁nothing	-2312
▁chan	-2313
▁AIR	-2314
▁Development	-2315
essional	-2316
ources	-2317
▁followed	-2318
urd	-2319
▁Mem	-2320
▁Bill	-2321
▁regular	-2322
▁Such	-2323
▁crit	-2324
DA	-2325
▁protection	-2326
▁existing	-2327
▁best	-2328
▁whom	-2329
ton	-2330
▁vac	-2331
▁Med	-2332
uction	-2333
▁Scheme	-2334
▁treated	-2335
missible	-2336
▁known	-2337
▁Rasht	-2338
▁proviso	-2339
▁corpor	-2340
▁thereafter	-2341
▁signific	-2342
▁"	-2343
▁Since	-2344
▁candidates	-2345
▁villa	-2346
usband	-2347
▁carried	-2348
▁sanction	-2349
rapati	-2350
▁unt	-2351
▁told	-2352
▁proceeding	-2353
▁gra	-2354
▁para	-2355
▁challenge	-2356
omet	-2357
reng	-2358
ires	-2359
IN	-2360
ication	-2361
▁expressed	-2362
yp	-2363
erated	-2364
cies	-2365
▁Schedule	-2366
▁occup	-2367
▁statute	-2368
▁near	-2369
▁sector	-2370
▁Fin	-2371
▁interests	-2372
▁look	-2373
▁Sri	-2374
▁needs	-2375
▁port	-2376
ties	-2377
▁admitted	-2378
▁production	-2379
ptember	-2380
▁proposed	-2381
],	-2382
▁conducted	-2383
▁acquisition	-2384
▁impro	-2385
aries	-2386
acity	-2387
▁continue	-2388
ery	-2389
▁guil	-2390
gether	-2391
▁together	-2392
thing	-2393
▁merely	-2394
▁activities	-2395
acter	-2396
▁still	-2397
cluded	-2398
▁Rashtrapati	-2399
▁third	-2400
▁prevent	-2401
▁rejected	-2402
side	-2403
▁women	-2404
erve	-2405
idd	-2406
selves	-2407
resh	-2408
▁change	-2409
▁deed	-2410
▁American	-2411
▁Where	-2412
unt	-2413
▁anal	-2414
▁withdra	-2415
▁dest	-2416
▁What	-2417
▁consum	-2418
▁wife	-2419
▁So	-2420
▁enc	-2421
▁dam	-2422
▁stri	-2423
▁students	-2424
ipal	-2425
▁face	-2426
aff	-2427
▁fair	-2428
▁hist	-2429
▁contrib	-2430
yond	-2431
▁beyond	-2432
▁fac	-2433
venue	-2434
ional	-2435
▁Chapter	-2436
cer	-2437
▁streng	-2438
▁intro	-2439
lt	-2440
▁freedom	-2441
▁bal	-2442
eak	-2443
▁basic	-2444
▁Writ	-2445
imate	-2446
▁providing	-2447
▁January	-2448
▁rend	-2449
ension	-2450
▁Appellant	-2451
work	-2452
▁Bomb	-2453
ociation	-2454
▁competent	-2455
▁submissions	-2456
ling	-2457
▁approach	-2458
▁contem	-2459
▁occasion	-2460
▁marriage	-2461
lying	-2462
▁measures	-2463
▁Me	-2464
▁interpretation	-2465
enced	-2466
formation	-2467
▁September	-2468
▁happ	-2469
rast	-2470
arat	-2471
ins	-2472
arant	-2473
cember	-2474
▁book	-2475
▁enfor	-2476
▁br	-2477
under	-2478
▁future	-2479
ugust	-2480
pective	-2481
iciary	-2482
ancy	-2483
▁maintain	-2484
▁restr	-2485
▁expect	-2486
▁threat	-2487
▁knowledge	-2488
▁punishment	-2489
▁sust	-2490
▁framed	-2491
▁proble	-2492
vey	-2493
▁declaration	-2494
▁Chand	-2495
▁character	-2496
▁natural	-2497
law	-2498
▁legislative	-2499
oot	-2500
▁turn	-2501
▁failed	-2502
encies	-2503
arch	-2504
ender	-2505
▁sing	-2506
▁fine	-2507
▁brother	-2508
▁accordingly	-2509
▁Procedure	-2510
▁x	-2511
lim	-2512
▁management	-2513
▁One	-2514
▁Arbit	-2515
▁Bombay	-2516
▁acquit	-2517
▁commission	-2518
anch	-2519
ats	-2520
▁ut	-2521
▁awarded	-2522
▁legislature	-2523
ware	-2524
ashing	-2525
▁attempt	-2526
▁limited	-2527
▁furn	-2528
▁allot	-2529
hether	-2530
▁reads	-2531
▁seeking	-2532
▁impl	-2533
▁noticed	-2534
▁questions	-2535
▁THE	-2536
▁imposed	-2537
io	-2538
▁mass	-2539
▁owner	-2540
▁belong	-2541
▁neither	-2542
▁contrary	-2543
▁defence	-2544
ened	-2545
▁claimed	-2546
att	-2547
▁lakh	-2548
▁Indust	-2549
▁credit	-2550
acc	-2551
▁Ger	-2552
▁operation	-2553
▁wr	-2554
ocate	-2555
▁trad	-2556
▁Lim	-2557
▁consequ	-2558
uries	-2559
▁applied	-2560
abad	-2561
vest	-2562
ober	-2563
LP	-2564
▁Clause	-2565
▁husband	-2566
▁ear	-2567
▁Asse	-2568
▁makes	-2569
urned	-2570
▁cover	-2571
▁dealing	-2572
▁dev	-2573
▁language	-2574
ched	-2575
ern	-2576
▁men	-2577
▁difficult	-2578
▁industrial	-2579
ternal	-2580
▁school	-2581
ipt	-2582
▁once	-2583
retion	-2584
▁Service	-2585
usal	-2586
▁lar	-2587
▁small	-2588
isc	-2589
▁Chair	-2590
hod	-2591
acher	-2592
▁later	-2593
irt	-2594
▁grounds	-2595
▁December	-2596
▁least	-2597
▁August	-2598
aper	-2599
▁benefits	-2600
▁summ	-2601
ilities	-2602
▁appears	-2603
ali	-2604
▁considering	-2605
▁List	-2606
▁caused	-2607
▁independent	-2608
▁inn	-2609
▁Af	-2610
rieved	-2611
▁cut	-2612
▁petitions	-2613
ares	-2614
▁never	-2615
▁Cl	-2616
inate	-2617
▁additional	-2618
▁concept	-2619
▁Provided	-2620
nel	-2621
▁certificate	-2622
ressed	-2623
de	-2624
▁file	-2625
▁mining	-2626
ison	-2627
aka	-2628
▁addition	-2629
▁observations	-2630
▁vehicle	-2631
▁practice	-2632
iver	-2633
▁Lord	-2634
alc	-2635
rator	-2636
▁argued	-2637
▁candidate	-2638
ored	-2639
▁true	-2640
lu	-2641
▁SE	-2642
icted	-2643
▁functions	-2644
▁treatment	-2645
tt	-2646
oice	-2647
▁approval	-2648
anced	-2649
▁First	-2650
▁underst	-2651
▁rendered	-2652
▁cast	-2653
▁trust	-2654
▁environment	-2655
stitute	-2656
▁around	-2657
▁affidavit	-2658
▁executive	-2659
▁outside	-2660
▁apprec	-2661
▁Single	-2662
earch	-2663
▁discretion	-2664
ina	-2665
▁communic	-2666
▁minor	-2667
▁request	-2668
airs	-2669
▁mor	-2670
▁penalty	-2671
▁yet	-2672
▁sl	-2673
▁broad	-2674
view	-2675
▁resolution	-2676
ij	-2677
▁nam	-2678
▁distin	-2679
duc	-2680
▁forward	-2681
▁requirement	-2682
iting	-2683
▁industry	-2684
▁particularly	-2685
ubl	-2686
onst	-2687
▁preferred	-2688
racted	-2689
round	-2690
▁execution	-2691
▁liber	-2692
▁consist	-2693
▁terror	-2694
fully	-2695
▁adjud	-2696
▁sold	-2697
▁Sim	-2698
lege	-2699
▁deb	-2700
▁International	-2701
▁adopted	-2702
▁registration	-2703
obal	-2704
▁situ	-2705
▁subs	-2706
▁premises	-2707
▁want	-2708
jection	-2709
pur	-2710
▁Rec	-2711
▁July	-2712
▁employee	-2713
bsite	-2714
▁determined	-2715
▁suggest	-2716
ead	-2717
roll	-2718
▁majority	-2719
▁separate	-2720
▁bound	-2721
▁prohib	-2722
ancell	-2723
▁Pre	-2724
)(	-2725
▁Nove	-2726
▁plant	-2727
▁mult	-2728
▁November	-2729
▁Mukher	-2730
▁few	-2731
asing	-2732
▁method	-2733
▁able	-2734
ctober	-2735
cement	-2736
▁receipt	-2737
ST	-2738
▁rent	-2739
................	-2740
▁Trial	-2741
▁cur	-2742
▁investig	-2743
omes	-2744
▁debt	-2745
▁growth	-2746
▁reliance	-2747
▁strik	-2748
iately	-2749
▁commercial	-2750
ruary	-2751
oved	-2752
ebruary	-2753
wh	-2754
▁consp	-2755
▁Cons	-2756
▁Dem	-2757
▁punishable	-2758
▁substantial	-2759
▁plead	-2760
▁fixed	-2761
▁Judicial	-2762
▁pension	-2763
▁too	-2764
▁guarant	-2765
▁cult	-2766
▁settled	-2767
▁demonst	-2768
▁satisfied	-2769
▁Hon	-2770
itive	-2771
ogniz	-2772
▁liability	-2773
chan	-2774
▁nom	-2775
▁details	-2776
▁agreed	-2777
▁illegal	-2778
▁old	-2779
▁protect	-2780
▁govern	-2781
▁recovery	-2782
▁side	-2783
ruit	-2784
▁former	-2785
▁acquired	-2786
▁emp	-2787
ousand	-2788
▁concern	-2789
▁Mukherjee	-2790
ept	-2791
▁hospital	-2792
▁acts	-2793
▁past	-2794
▁aim	-2795
▁always	-2796
▁integ	-2797
▁might	-2798
▁led	-2799
▁title	-2800
▁Social	-2801
CT	-2802
▁inquiry	-2803
▁anything	-2804
rated	-2805
▁wrong	-2806
pite	-2807
११	-2808
▁ey	-2809
▁posts	-2810
▁copy	-2811
▁specif	-2812
▁judge	-2813
▁prepared	-2814
▁reported	-2815
▁dealt	-2816
idel	-2817
▁consent	-2818
▁Appellate	-2819
▁Ent	-2820
▁defined	-2821
▁injuries	-2822
▁publ	-2823
▁scope	-2824
▁website	-2825
▁capacity	-2826
▁themselves	-2827
▁Def	-2828
ators	-2829
▁June	-2830
adem	-2831
men	-2832
▁urged	-2833
▁arising	-2834
▁His	-2835
▁SLP	-2836
▁training	-2837
▁ult	-2838
▁kind	-2839
▁category	-2840
ety	-2841
▁related	-2842
elfare	-2843
▁UN	-2844
▁elig	-2845
▁stay	-2846
▁sex	-2847
▁February	-2848
▁Additional	-2849
▁October	-2850
▁ought	-2851
▁Assembly	-2852
▁Fr	-2853
▁Karn	-2854
ource	-2855
omp	-2856
▁permission	-2857
▁sw	-2858
’.	-2859
▁belie	-2860
▁Right	-2861
▁Ter	-2862
ataka	-2863
istrative	-2864
▁joint	-2865
▁access	-2866
▁close	-2867
heduled	-2868
▁Information	-2869
▁gave	-2870
▁covered	-2871
▁remed	-2872
▁beg	-2873
▁million	-2874
▁determination	-2875
▁Sessions	-2876
▁Brit	-2877
▁Whether	-2878
▁immediately	-2879
uss	-2880
▁statements	-2881
au	-2882
ops	-2883
▁decide	-2884
▁obtained	-2885
▁created	-2886
idential	-2887
▁amended	-2888
▁presence	-2889
▁vol	-2890
▁tar	-2891
▁discussion	-2892
▁think	-2893
▁Bar	-2894
▁Pun	-2895
cise	-2896
▁ill	-2897
IL	-2898
ani	-2899
oper	-2900
▁instant	-2901
▁window	-2902
▁assets	-2903
▁entered	-2904
▁consult	-2905
▁Income	-2906
ift	-2907
vent	-2908
▁status	-2909
▁argument	-2910
▁dead	-2911
▁liberty	-2912
▁included	-2913
mine	-2914
▁Expl	-2915
▁kept	-2916
▁findings	-2917
▁asked	-2918
▁Second	-2919
▁definition	-2920
ifying	-2921
▁claims	-2922
▁territ	-2923
▁includes	-2924
reet	-2925
▁setting	-2926
▁signed	-2927
▁quality	-2928
▁existence	-2929
▁continued	-2930
▁pers	-2931
▁conferred	-2932
▁article	-2933
▁performance	-2934
ude	-2935
▁affect	-2936
▁Karnataka	-2937
▁applications	-2938
ening	-2939
▁executed	-2940
ras	-2941
▁stip	-2942
▁Im	-2943
▁rese	-2944
▁redu	-2945
▁permitted	-2946
agar	-2947
▁lev	-2948
▁imper	-2949
▁got	-2950
▁Fore	-2951
irmed	-2952
▁sk	-2953
▁oil	-2954
▁going	-2955
▁road	-2956
▁food	-2957
▁cross	-2958
▁employment	-2959
▁specifically	-2960
▁absol	-2961
▁thousand	-2962
rs	-2963
▁div	-2964
iously	-2965
▁conflic	-2966
SC	-2967
ression	-2968
▁directly	-2969
uties	-2970
▁Pat	-2971
▁data	-2972
▁population	-2973
be	-2974
▁why	-2975
ifications	-2976
▁coll	-2977
▁Regulations	-2978
▁applicant	-2979
sc	-2980
▁challenged	-2981
ously	-2982
▁citizens	-2983
▁virt	-2984
▁drawn	-2985
▁Hind	-2986
▁phys	-2987
▁establishment	-2988
▁PRES	-2989
▁cogniz	-2990
▁Articles	-2991
wal	-2992
▁forces	-2993
▁fri	-2994
oms	-2995
augh	-2996
▁relationship	-2997
iture	-2998
▁peace	-2999
▁European	-3000
▁increase	-3001
▁distrib	-3002
▁Limited	-3003
▁promotion	-3004
▁dispos	-3005
ictions	-3006
atures	-3007
▁job	-3008
▁termin	-3009
now	-3010
▁Shar	-3011
▁deals	-3012
▁requires	-3013
▁supply	-3014
▁appellate	-3015
▁strong	-3016
racy	-3017
▁home	-3018
▁commit	-3019
idelines	-3020
▁exceed	-3021
▁custody	-3022
▁experience	-3023
▁thereby	-3024
▁violation	-3025
▁media	-3026
▁contain	-3027
▁informed	-3028
▁convicted	-3029
▁prosecut	-3030
▁opposition	-3031
AC	-3032
▁minimum	-3033
urred	-3034
▁alone	-3035
▁mort	-3036
▁single	-3037
▁contempl	-3038
rish	-3039
▁judiciary	-3040
▁king	-3041
adu	-3042
▁significant	-3043
▁exercised	-3044
aign	-3045
rastru	-3046
▁wea	-3047
most	-3048
▁dismiss	-3049
▁Sur	-3050
▁Em	-3051
▁intended	-3052
▁nation	-3053
▁prove	-3054
tax	-3055
withstanding	-3056
▁Des	-3057
▁effective	-3058
▁Legislature	-3059
▁community	-3060
▁Pra	-3061
▁content	-3062
▁fire	-3063
▁constituted	-3064
my	-3065
▁until	-3066
alse	-3067
▁youn	-3068
ne	-3069
▁examine	-3070
▁address	-3071
▁validity	-3072
pro	-3073
urs	-3074
▁assum	-3075
▁connection	-3076
erala	-3077
jab	-3078
rench	-3079
rived	-3080
▁shown	-3081
akistan	-3082
▁absolute	-3083
▁steps	-3084
▁oblig	-3085
▁limitation	-3086
00/-	-3087
change	-3088
▁global	-3089
▁More	-3090
▁injury	-3091
▁Lank	-3092
▁instance	-3093
▁quot	-3094
▁Educ	-3095
▁Trans	-3096
though	-3097
clusive	-3098
▁responsible	-3099
▁coal	-3100
▁standards	-3101
▁blood	-3102
▁regul	-3103
▁agricult	-3104
ama	-3105
▁Sab	-3106
▁selection	-3107
▁Sy	-3108
TTE	-3109
ems	-3110
▁reve	-3111
▁clar	-3112
▁dri	-3113
▁mur	-3114
▁living	-3115
▁district	-3116
▁facilities	-3117
▁costs	-3118
IDENT	-3119
▁officials	-3120
▁ide	-3121
▁Kerala	-3122
pped	-3123
▁materials	-3124
ert	-3125
▁mother	-3126
▁Senior	-3127
▁Ref	-3128
▁deg	-3129
▁tribunal	-3130
ene	-3131
▁false	-3132
▁pot	-3133
▁guilty	-3134
▁counter	-3135
▁hence	-3136
wing	-3137
▁opens	-3138
igence	-3139
▁Pakistan	-3140
▁progress	-3141
▁revision	-3142
▁Mahar	-3143
▁Sm	-3144
▁campaign	-3145
▁join	-3146
▁extend	-3147
▁investment	-3148
▁plea	-3149
▁Admin	-3150
▁air	-3151
▁offer	-3152
▁interim	-3153
▁Republic	-3154
▁entry	-3155
▁hands	-3156
,00	-3157
▁live	-3158
aging	-3159
▁cris	-3160
▁duties	-3161
▁design	-3162
▁Mus	-3163
▁Pal	-3164
▁Hence	-3165
RI	-3166
▁shares	-3167
▁leading	-3168
▁sections	-3169
▁Mo	-3170
▁la	-3171
▁ren	-3172
▁sole	-3173
adha	-3174
vement	-3175
▁murder	-3176
▁PRESIDENT	-3177
▁lat	-3178
▁presum	-3179
▁Bi	-3180
▁commence	-3181
▁democratic	-3182
ograph	-3183
▁village	-3184
▁city	-3185
▁doing	-3186
▁tal	-3187
▁depend	-3188
▁things	-3189
oke	-3190
▁net	-3191
३०	-3192
▁rul	-3193
▁Engine	-3194
▁disposed	-3195
mitting	-3196
ban	-3197
▁daugh	-3198
▁accident	-3199
anj	-3200
osing	-3201
▁farm	-3202
▁Punjab	-3203
▁Per	-3204
▁host	-3205
▁economy	-3206
▁approved	-3207
.)	-3208
▁balance	-3209
▁rightly	-3210
▁unf	-3211
▁discrim	-3212
▁default	-3213
aul	-3214
▁disputes	-3215
urrence	-3216
▁added	-3217
▁aver	-3218
▁saying	-3219
▁technical	-3220
amb	-3221
ane	-3222
▁coming	-3223
▁emphas	-3224
▁Ob	-3225
indu	-3226
▁Moh	-3227
riev	-3228
▁records	-3229
▁judges	-3230
rastructure	-3231
▁Thereafter	-3232
▁From	-3233
▁sell	-3234
▁Fund	-3235
▁Techn	-3236
▁properties	-3237
▁self	-3238
▁ri	-3239
▁released	-3240
▁vested	-3241
▁assistance	-3242
▁Pran	-3243
undred	-3244
▁failure	-3245
▁transferred	-3246
gal	-3247
▁fit	-3248
▁current	-3249
▁technology	-3250
iring	-3251
▁Regulation	-3252
▁tenant	-3253
▁typ	-3254
ricity	-3255
▁extended	-3256
▁likely	-3257
▁aspects	-3258
▁writing	-3259
▁times	-3260
▁rap	-3261
▁susp	-3262
▁patient	-3263
ourn	-3264
gress	-3265
▁arise	-3266
▁answer	-3267
▁requirements	-3268
▁anti	-3269
using	-3270
▁merit	-3271
ots	-3272
ians	-3273
▁prejud	-3274
atch	-3275
▁initial	-3276
▁discharge	-3277
▁charged	-3278
aster	-3279
▁Conf	-3280
▁crisis	-3281
pecial	-3282
▁determine	-3283
▁limit	-3284
▁enacted	-3285
iary	-3286
▁published	-3287
manent	-3288
cell	-3289
kar	-3290
▁protest	-3291
▁wide	-3292
▁fully	-3293
▁transaction	-3294
▁justified	-3295
▁sense	-3296
upees	-3297
▁forth	-3298
▁Medical	-3299
ills	-3300
lies	-3301
ront	-3302
iracy	-3303
▁Invest	-3304
▁aid	-3305
▁preced	-3306
▁respective	-3307
roup	-3308
▁passing	-3309
imately	-3310
▁Chairman	-3311
▁seven	-3312
▁factors	-3313
▁funds	-3314
▁crores	-3315
▁Wor	-3316
ocation	-3317
▁resources	-3318
▁exem	-3319
▁Now	-3320
ounced	-3321
▁Assist	-3322
▁films	-3323
▁sol	-3324
herein	-3325
▁conver	-3326
▁Hindu	-3327
▁Pranab	-3328
▁attention	-3329
RA	-3330
▁Vs	-3331
▁policies	-3332
In	-3333
oval	-3334
▁quant	-3335
▁religious	-3336
rix	-3337
▁Agree	-3338
▁recommendations	-3339
▁adequ	-3340
▁Pe	-3341
▁altern	-3342
▁IND	-3343
▁allegations	-3344
▁apart	-3345
▁Similar	-3346
accused	-3347
▁transport	-3348
].	-3349
itable	-3350
▁equal	-3351
▁Having	-3352
▁permit	-3353
▁Mal	-3354
ival	-3355
▁tele	-3356
lected	-3357
▁corporate	-3358
PA	-3359
▁better	-3360
▁influ	-3361
▁Int	-3362
ological	-3363
atic	-3364
▁Explanation	-3365
stituted	-3366
ingu	-3367
▁emb	-3368
▁adj	-3369
▁research	-3370
hra	-3371
▁line	-3372
▁fresh	-3373
osure	-3374
▁firm	-3375
▁lands	-3376
▁privacy	-3377
uting	-3378
▁deposit	-3379
▁manufacture	-3380
arth	-3381
▁cru	-3382
▁enj	-3383
▁strugg	-3384
eaking	-3385
▁reports	-3386
erted	-3387
▁works	-3388
EL	-3389
▁young	-3390
▁region	-3391
far	-3392
estic	-3393
▁purchase	-3394
hab	-3395
▁AN	-3396
,000	-3397
▁conspiracy	-3398
▁merits	-3399
rine	-3400
ental	-3401
illing	-3402
ashington	-3403
▁indicated	-3404
▁importance	-3405
▁amend	-3406
▁bi	-3407
sequently	-3408
▁Education	-3409
▁Lal	-3410
▁somet	-3411
▁reading	-3412
▁structure	-3413
orrow	-3414
▁alia	-3415
▁During	-3416
hereinafter	-3417
alled	-3418
▁Washington	-3419
achers	-3420
enance	-3421
▁Entry	-3422
▁parent	-3423
▁insp	-3424
▁banks	-3425
▁Dis	-3426
▁error	-3427
eech	-3428
▁servant	-3429
▁advanced	-3430
▁Sect	-3431
▁Guj	-3432
▁becomes	-3433
▁compliance	-3434
AS	-3435
ocracy	-3436
olly	-3437
ashtra	-3438
▁...	-3439
▁Land	-3440
▁contra	-3441
▁Counsel	-3442
▁Princ	-3443
operative	-3444
▁Ra	-3445
▁reit	-3446
▁responsibility	-3447
eng	-3448
▁Ac	-3449
▁movement	-3450
▁aggrieved	-3451
▁efforts	-3452
▁fulf	-3453
▁consc	-3454
▁affected	-3455
’,	-3456
▁Any	-3457
▁guidelines	-3458
▁recent	-3459
▁LTTE	-3460
lector	-3461
▁reform	-3462
▁Nar	-3463
▁Though	-3464
▁create	-3465
▁admission	-3466
▁activity	-3467
▁concluded	-3468
▁constitute	-3469
▁IT	-3470
▁dign	-3471
vision	-3472
▁comes	-3473
▁undertak	-3474
No	-3475
▁aware	-3476
▁minister	-3477
▁became	-3478
▁Ann	-3479
▁Lok	-3480
▁West	-3481
▁lack	-3482
▁impact	-3483
▁warrant	-3484
hest	-3485
din	-3486
rust	-3487
ades	-3488
▁deep	-3489
▁committee	-3490
enses	-3491
▁agency	-3492
ancies	-3493
▁Services	-3494
▁emer	-3495
aya	-3496
▁started	-3497
▁Ph	-3498
▁gone	-3499
▁hard	-3500
range	-3501
▁academ	-3502
▁frame	-3503
ponse	-3504
▁explained	-3505
▁denied	-3506
▁Sal	-3507
iable	-3508
▁Group	-3509
▁proof	-3510
▁wages	-3511
oad	-3512
▁CBI	-3513
▁woman	-3514
▁release	-3515
uge	-3516
ysis	-3517
▁arbitrator	-3518
▁Association	-3519
▁Other	-3520
▁cognizance	-3521
utin	-3522
▁aud	-3523
▁extre	-3524
unities	-3525
▁Ah	-3526
aled	-3527
▁Ins	-3528
▁removal	-3529
amm	-3530
ara	-3531
▁history	-3532
▁Pen	-3533
▁commencement	-3534
sofar	-3535
▁carrying	-3536
▁implementation	-3537
▁detention	-3538
ordinate	-3539
▁hundred	-3540
utation	-3541
▁Maharashtra	-3542
▁Priv	-3543
▁press	-3544
▁retire	-3545
▁incorpor	-3546
▁rather	-3547
▁max	-3548
▁China	-3549
▁assoc	-3550
ann	-3551
▁permissible	-3552
▁South	-3553
ruitment	-3554
oses	-3555
▁potential	-3556
.—	-3557
ET	-3558
▁ign	-3559
enditure	-3560
▁mach	-3561
adhaar	-3562
▁heav	-3563
ets	-3564
▁Gujarat	-3565
aur	-3566
▁)	-3567
▁nar	-3568
▁Tra	-3569
External	-3570
aryana	-3571
▁eligible	-3572
IS	-3573
▁French	-3574
▁Agreement	-3575
▁ris	-3576
▁wid	-3577
१२	-3578
▁heart	-3579
pecially	-3580
▁obligation	-3581
▁Prime	-3582
dom	-3583
ites	-3584
▁Bal	-3585
▁discipl	-3586
▁Rel	-3587
▁Trust	-3588
▁fraud	-3589
▁arises	-3590
▁Article	-3591
icy	-3592
▁actual	-3593
▁Then	-3594
▁duly	-3595
▁stood	-3596
▁conflict	-3597
▁Aadhaar	-3598
▁Let	-3599
▁Ors	-3600
irl	-3601
ouses	-3602
▁bind	-3603
▁vote	-3604
▁Deputy	-3605
▁supported	-3606
▁educational	-3607
▁behind	-3608
▁introduced	-3609
▁bod	-3610
▁fig	-3611
orney	-3612
▁advance	-3613
▁response	-3614
▁III	-3615
▁renew	-3616
istic	-3617
▁empow	-3618
▁partn	-3619
ples	-3620
reen	-3621
lish	-3622
▁breach	-3623
▁enquiry	-3624
gar	-3625
▁bo	-3626
▁stands	-3627
▁department	-3628
▁Nadu	-3629
▁identified	-3630
ealth	-3631
▁ever	-3632
▁portion	-3633
tle	-3634
▁expected	-3635
▁Iran	-3636
▁Sol	-3637
▁keeping	-3638
▁projects	-3639
▁elections	-3640
▁insurance	-3641
▁Haryana	-3642
▁amounts	-3643
▁shows	-3644
▁Advocate	-3645
▁completed	-3646
iddle	-3647
▁recovered	-3648
▁Utt	-3649
▁served	-3650
▁Amendment	-3651
▁doctrine	-3652
▁Scheduled	-3653
▁uncon	-3654
rate	-3655
▁Elect	-3656
',	-3657
▁especially	-3658
▁Exec	-3659
anchay	-3660
▁welfare	-3661
ishes	-3662
▁testim	-3663
▁volunt	-3664
▁using	-3665
▁repeal	-3666
▁acting	-3667
▁permanent	-3668
▁products	-3669
▁regulations	-3670
cluding	-3671
▁Institute	-3672
▁story	-3673
▁Hindi	-3674
▁Territ	-3675
▁identity	-3676
▁Collector	-3677
ones	-3678
▁Kh	-3679
ederal	-3680
▁occurrence	-3681
▁Accordingly	-3682
----	-3683
▁across	-3684
unicipal	-3685
▁difference	-3686
▁infrastructure	-3687
▁Society	-3688
▁enjoy	-3689
▁speak	-3690
▁apparent	-3691
▁visit	-3692
▁ruling	-3693
▁Sar	-3694
▁Labour	-3695
▁reached	-3696
aching	-3697
▁adverse	-3698
ung	-3699
▁programme	-3700
abilities	-3701
▁Madh	-3702
▁mess	-3703
UR	-3704
itude	-3705
▁objection	-3706
▁Some	-3707
▁fight	-3708
▁remedy	-3709
▁enactment	-3710
▁thing	-3711
aintenance	-3712
▁takes	-3713
St	-3714
utions	-3715
▁whereas	-3716
▁East	-3717
▁Applic	-3718
held	-3719
▁Att	-3720
▁physical	-3721
▁accounts	-3722
▁increased	-3723
bed	-3724
inated	-3725
istrar	-3726
▁licence	-3727
▁griev	-3728
▁mortg	-3729
ghan	-3730
▁religion	-3731
▁deduction	-3732
▁operations	-3733
IV	-3734
Jud	-3735
▁discussed	-3736
▁Governments	-3737
▁scale	-3738
▁try	-3739
▁burd	-3740
laim	-3741
state	-3742
▁hero	-3743
▁deposed	-3744
▁parliament	-3745
▁arrange	-3746
▁respectively	-3747
▁strateg	-3748
cted	-3749
▁objective	-3750
▁Legislative	-3751
▁sexual	-3752
cri	-3753
▁bearing	-3754
▁stating	-3755
▁Sabha	-3756
▁example	-3757
gy	-3758
▁repro	-3759
▁Official	-3760
▁British	-3761
avi	-3762
asth	-3763
bor	-3764
rupt	-3765
▁World	-3766
▁enable	-3767
▁tried	-3768
▁submits	-3769
▁regime	-3770
▁obv	-3771
▁bid	-3772
li	-3773
adi	-3774
▁prison	-3775
qual	-3776
▁produce	-3777
▁problems	-3778
▁undertaking	-3779
▁mut	-3780
▁remains	-3781
▁expenditure	-3782
▁esc	-3783
▁English	-3784
irth	-3785
▁engaged	-3786
▁substance	-3787
▁died	-3788
ini	-3789
irit	-3790
▁Plan	-3791
▁litigation	-3792
inning	-3793
▁virtue	-3794
ART	-3795
ergy	-3796
▁INDIA	-3797
▁Ms	-3798
▁half	-3799
▁views	-3800
actions	-3801
rutin	-3802
sured	-3803
▁initi	-3804
▁Prosec	-3805
▁director	-3806
▁daughter	-3807
riving	-3808
▁Bengal	-3809
▁alternative	-3810
▁labour	-3811
▁standard	-3812
▁initiated	-3813
▁top	-3814
▁util	-3815
vere	-3816
▁proced	-3817
ship	-3818
▁link	-3819
▁strict	-3820
▁parts	-3821
▁Rights	-3822
▁CO	-3823
▁weeks	-3824
▁adequate	-3825
▁unit	-3826
▁defendants	-3827
▁Go	-3828
▁Case	-3829
▁calc	-3830
line	-3831
▁mechan	-3832
▁disposal	-3833
▁custom	-3834
▁Ge	-3835
▁Similarly	-3836
anger	-3837
▁Assess	-3838
ground	-3839
▁discuss	-3840
els	-3841
▁prop	-3842
▁academic	-3843
▁Policy	-3844
▁recommended	-3845
▁strength	-3846
▁Assistant	-3847
▁increasing	-3848
▁Bihar	-3849
iah	-3850
▁;	-3851
iversities	-3852
▁meant	-3853
▁NO	-3854
▁rates	-3855
▁places	-3856
▁acquittal	-3857
▁low	-3858
▁administrative	-3859
▁advert	-3860
▁despite	-3861
icated	-3862
▁larger	-3863
▁individuals	-3864
ishing	-3865
▁articles	-3866
▁Ne	-3867
▁factual	-3868
▁receive	-3869
▁mandatory	-3870
▁diss	-3871
▁dignity	-3872
▁arrested	-3873
▁rise	-3874
▁Socialist	-3875
▁Aust	-3876
ensive	-3877
▁prospect	-3878
▁void	-3879
▁source	-3880
▁speech	-3881
ump	-3882
ivity	-3883
▁employer	-3884
▁consultation	-3885
▁loan	-3886
▁settlement	-3887
▁bomb	-3888
▁mob	-3889
▁hon	-3890
▁laun	-3891
ateral	-3892
▁strike	-3893
▁fear	-3894
▁interference	-3895
▁energy	-3896
▁Centre	-3897
cont	-3898
rief	-3899
eared	-3900
▁revenue	-3901
elled	-3902
▁Afghan	-3903
▁democracy	-3904
erce	-3905
ulted	-3906
▁proposal	-3907
alid	-3908
cle	-3909
▁Ev	-3910
▁names	-3911
izing	-3912
amination	-3913
▁lost	-3914
▁analysis	-3915
▁developed	-3916
▁tro	-3917
elt	-3918
▁TA	-3919
▁lakhs	-3920
▁Finance	-3921
▁instead	-3922
ply	-3923
▁struggle	-3924
▁profit	-3925
eated	-3926
▁domestic	-3927
▁connected	-3928
▁rural	-3929
▁France	-3930
▁seniority	-3931
▁eas	-3932
endency	-3933
▁supplied	-3934
▁quas	-3935
▁prosecutrix	-3936
▁Russ	-3937
ED	-3938
ATION	-3939
▁Uttar	-3940
know	-3941
▁pred	-3942
▁proceeded	-3943
gest	-3944
▁units	-3945
▁early	-3946
▁forms	-3947
▁marks	-3948
▁suggested	-3949
▁cle	-3950
▁१	-3951
▁Sam	-3952
▁North	-3953
▁achieve	-3954
icit	-3955
▁sil	-3956
▁liqu	-3957
▁facilit	-3958
▁referring	-3959
▁Management	-3960
▁contro	-3961
▁excess	-3962
rug	-3963
▁lod	-3964
▁rupees	-3965
▁contemplated	-3966
osite	-3967
eness	-3968
▁Before	-3969
▁seized	-3970
▁big	-3971
▁wholly	-3972
▁comb	-3973
▁union	-3974
unction	-3975
onom	-3976
▁girl	-3977
▁prob	-3978
▁advant	-3979
▁Congress	-3980
▁Form	-3981
▁returned	-3982
she	-3983
hemes	-3984
inent	-3985
▁clauses	-3986
▁notified	-3987
▁Registrar	-3988
▁sustain	-3989
▁Gaz	-3990
asthan	-3991
▁testimony	-3992
▁gives	-3993
▁innov	-3994
▁resident	-3995
▁resol	-3996
▁amongst	-3997
▁belonging	-3998
▁leaders	-3999
▁contempt	-4000
▁fell	-4001
▁Gand	-4002
▁safety	-4003
rid	-4004
▁site	-4005
▁Companies	-4006
▁representation	-4007
asm	-4008
▁err	-4009
▁harm	-4010
▁poor	-4011
▁soon	-4012
adre	-4013
▁arguments	-4014
▁consequences	-4015
▁Andhra	-4016
▁search	-4017
▁employed	-4018
▁recording	-4019
▁described	-4020
▁Industrial	-4021
▁Madras	-4022
▁opined	-4023
▁profits	-4024
▁recruitment	-4025
▁weapons	-4026
▁confession	-4027
nam	-4028
▁construed	-4029
anda	-4030
▁Air	-4031
▁viz	-4032
▁events	-4033
▁Both	-4034
▁red	-4035
▁German	-4036
▁violence	-4037
▁encour	-4038
▁arrived	-4039
▁You	-4040
▁collected	-4041
▁maintenance	-4042
lam	-4043
ancing	-4044
▁Sharma	-4045
▁greater	-4046
▁hours	-4047
▁central	-4048
uls	-4049
▁actions	-4050
ream	-4051
▁Supp	-4052
▁PART	-4053
▁Krish	-4054
▁buy	-4055
▁extracted	-4056
EC	-4057
going	-4058
▁ordinary	-4059
▁enh	-4060
▁mineral	-4061
▁interfere	-4062
▁—	-4063
▁recommendation	-4064
▁saw	-4065
▁scient	-4066
▁professional	-4067
aily	-4068
▁throughout	-4069
▁reduced	-4070
ois	-4071
ches	-4072
▁pertaining	-4073
▁granting	-4074
▁station	-4075
▁principal	-4076
▁der	-4077
ivered	-4078
▁burden	-4079
▁billion	-4080
ousing	-4081
▁maintained	-4082
▁distinction	-4083
nces	-4084
▁reservation	-4085
umbai	-4086
▁staff	-4087
▁Our	-4088
▁determining	-4089
▁motor	-4090
duction	-4091
▁explanation	-4092
▁groups	-4093
▁completely	-4094
ada	-4095
▁extra	-4096
▁extreme	-4097
▁occupation	-4098
hood	-4099
▁friend	-4100
▁detailed	-4101
▁Insurance	-4102
▁Sat	-4103
▁Members	-4104
▁killed	-4105
▁flow	-4106
▁scrutin	-4107
HA	-4108
▁Tig	-4109
porary	-4110
▁sheet	-4111
▁wa	-4112
▁injured	-4113
ivery	-4114
▁delivered	-4115
▁independence	-4116
▁Har	-4117
▁faith	-4118
igating	-4119
▁actually	-4120
▁Executive	-4121
▁crore	-4122
▁spirit	-4123
▁Vij	-4124
inery	-4125
▁bodies	-4126
hai	-4127
▁Pur	-4128
▁lower	-4129
▁cheque	-4130
▁option	-4131
▁cash	-4132
▁page	-4133
ote	-4134
rd	-4135
▁Chen	-4136
▁plaintiffs	-4137
▁Do	-4138
▁indicate	-4139
road	-4140
overned	-4141
CC	-4142
adh	-4143
▁Station	-4144
);	-4145
▁rank	-4146
▁serve	-4147
▁prejudice	-4148
▁Red	-4149
▁completion	-4150
▁gener	-4151
▁elected	-4152
▁evident	-4153
▁consequence	-4154
rown	-4155
▁prevail	-4156
▁governed	-4157
▁poll	-4158
▁regards	-4159
imal	-4160
clude	-4161
▁controvers	-4162
pris	-4163
▁communication	-4164
▁night	-4165
▁Mumbai	-4166
▁alt	-4167
▁retirement	-4168
▁po	-4169
▁art	-4170
Judge	-4171
▁legit	-4172
▁Panchay	-4173
▁Day	-4174
▁measure	-4175
ioned	-4176
▁pron	-4177
▁sentenced	-4178
set	-4179
ieties	-4180
▁Austral	-4181
SS	-4182
▁AP	-4183
▁Bang	-4184
gment	-4185
▁destro	-4186
▁Democratic	-4187
ourth	-4188
▁plans	-4189
▁Rail	-4190
▁troops	-4191
▁answered	-4192
▁Ver	-4193
▁levy	-4194
▁Rajasthan	-4195
▁Sw	-4196
icide	-4197
▁binding	-4198
▁Penal	-4199
▁Revenue	-4200
▁foc	-4201
▁secured	-4202
▁expenses	-4203
▁facie	-4204
employ	-4205
▁asset	-4206
▁avoid	-4207
ables	-4208
uclear	-4209
▁eye	-4210
▁cancell	-4211
▁enough	-4212
operation	-4213
person	-4214
▁offered	-4215
▁generally	-4216
▁born	-4217
let	-4218
▁obtain	-4219
▁finally	-4220
▁privile	-4221
▁problem	-4222
▁victims	-4223
▁Can	-4224
ulate	-4225
▁agricultural	-4226
▁render	-4227
▁attacks	-4228
▁xx	-4229
▁Notification	-4230
▁points	-4231
▁understood	-4232
▁necessarily	-4233
▁ow	-4234
utor	-4235
order	-4236
▁Accused	-4237
▁rig	-4238
▁crop	-4239
holders	-4240
▁temple	-4241
aram	-4242
▁teachers	-4243
iations	-4244
rel	-4245
▁quite	-4246
▁Power	-4247
▁suffered	-4248
▁president	-4249
rist	-4250
▁ele	-4251
▁degree	-4252
enty	-4253
▁key	-4254
▁Ministers	-4255
▁trib	-4256
▁prayer	-4257
▁Gandhi	-4258
▁depart	-4259
▁growing	-4260
▁annual	-4261
▁appeared	-4262
▁lie	-4263
▁Member	-4264
▁Financial	-4265
▁exemption	-4266
▁transactions	-4267
▁Super	-4268
then	-4269
▁situated	-4270
▁presented	-4271
aps	-4272
▁none	-4273
▁understand	-4274
▁possess	-4275
▁profession	-4276
pta	-4277
▁thereto	-4278
▁arbitrary	-4279
▁thought	-4280
▁impose	-4281
▁ordered	-4282
▁Every	-4283
▁unable	-4284
▁choice	-4285
▁refused	-4286
▁remaining	-4287
urities	-4288
opal	-4289
▁const	-4290
▁Moreover	-4291
▁sustained	-4292
▁salary	-4293
apers	-4294
▁lives	-4295
▁affairs	-4296
▁corro	-4297
pping	-4298
▁categories	-4299
▁don	-4300
▁envis	-4301
put	-4302
▁almost	-4303
iqu	-4304
ott	-4305
nother	-4306
▁remained	-4307
▁college	-4308
▁Hospital	-4309
▁often	-4310
▁deposited	-4311
▁room	-4312
▁Muslim	-4313
▁Lanka	-4314
१३	-4315
rain	-4316
ranch	-4317
▁message	-4318
▁sons	-4319
▁dischar	-4320
▁Mis	-4321
▁Office	-4322
rog	-4323
oned	-4324
▁vacancies	-4325
clause	-4326
▁version	-4327
iy	-4328
▁base	-4329
▁earth	-4330
▁Home	-4331
▁little	-4332
▁immediate	-4333
ilt	-4334
▁programmes	-4335
Ch	-4336
▁Another	-4337
▁invalid	-4338
▁pursuant	-4339
▁obtaining	-4340
ipur	-4341
▁borrow	-4342
▁Prof	-4343
▁Contract	-4344
oked	-4345
▁dise	-4346
▁Cer	-4347
▁changes	-4348
▁objections	-4349
atever	-4350
ovable	-4351
▁newsp	-4352
▁maximum	-4353
▁directing	-4354
▁pack	-4355
▁perusal	-4356
▁convey	-4357
▁undertaken	-4358
inder	-4359
▁School	-4360
▁upheld	-4361
mical	-4362
ruption	-4363
▁delivery	-4364
▁Afghanistan	-4365
▁confirmed	-4366
▁Arbitration	-4367
▁Post	-4368
endant	-4369
▁highl	-4370
▁command	-4371
▁.,	-4372
▁negot	-4373
▁round	-4374
many	-4375
▁AND	-4376
▁negl	-4377
▁practices	-4378
▁background	-4379
▁Speak	-4380
▁contrad	-4381
▁refund	-4382
▁College	-4383
▁removed	-4384
▁Attorney	-4385
▁equality	-4386
ooting	-4387
▁register	-4388
▁target	-4389
ager	-4390
▁draw	-4391
▁subsid	-4392
▁dedu	-4393
▁Technology	-4394
▁ordin	-4395
▁advantage	-4396
▁famil	-4397
ilateral	-4398
▁SP	-4399
▁export	-4400
CR	-4401
▁Sin	-4402
▁Account	-4403
▁citizen	-4404
▁Vijay	-4405
▁reserved	-4406
▁reiterated	-4407
▁worth	-4408
▁addressed	-4409
lord	-4410
▁emerg	-4411
▁disclosed	-4412
right	-4413
rolled	-4414
▁auction	-4415
▁[(	-4416
State	-4417
▁says	-4418
▁corrobor	-4419
DP	-4420
▁z	-4421
▁Tw	-4422
▁eight	-4423
▁distribution	-4424
▁TO	-4425
▁plot	-4426
▁cho	-4427
▁draft	-4428
▁expert	-4429
nai	-4430
appellant	-4431
▁forest	-4432
oz	-4433
▁sales	-4434
▁parents	-4435
▁representatives	-4436
▁TADA	-4437
▁Gupta	-4438
▁proport	-4439
ask	-4440
▁expiry	-4441
▁cert	-4442
▁manif	-4443
respond	-4444
▁Khan	-4445
▁dr	-4446
▁Aff	-4447
▁secret	-4448
▁longer	-4449
▁controversy	-4450
kh	-4451
ception	-4452
▁feel	-4453
thern	-4454
▁believe	-4455
▁disqual	-4456
▁although	-4457
▁birth	-4458
▁truth	-4459
▁distingu	-4460
▁Project	-4461
▁perspective	-4462
atio	-4463
▁Cast	-4464
▁quar	-4465
▁tradition	-4466
▁paragraphs	-4467
arm	-4468
▁leader	-4469
ING	-4470
▁risk	-4471
▁exped	-4472
▁territory	-4473
▁prima	-4474
▁expressly	-4475
▁instrument	-4476
lack	-4477
▁highest	-4478
▁results	-4479
▁Prot	-4480
▁ascer	-4481
▁opposed	-4482
ape	-4483
encing	-4484
▁phot	-4485
▁assigned	-4486
▁primary	-4487
▁getting	-4488
▁Evidence	-4489
olid	-4490
▁convict	-4491
iers	-4492
▁cong	-4493
esides	-4494
▁limits	-4495
▁influence	-4496
ev	-4497
▁substantive	-4498
▁subsequently	-4499
ME	-4500
dy	-4501
▁histor	-4502
▁Germany	-4503
▁proposition	-4504
▁study	-4505
MC	-4506
athe	-4507
▁suitable	-4508
▁confidence	-4509
uven	-4510
▁whereby	-4511
yl	-4512
eel	-4513
eth	-4514
uate	-4515
▁Mon	-4516
▁Inter	-4517
▁worked	-4518
▁functioning	-4519
▁daily	-4520
▁promis	-4521
▁agencies	-4522
▁deciding	-4523
▁cou	-4524
▁reb	-4525
ula	-4526
owry	-4527
▁personnel	-4528
AY	-4529
▁ON	-4530
ading	-4531
▁distinct	-4532
▁pressure	-4533
▁attract	-4534
III	-4535
raf	-4536
▁riv	-4537
▁My	-4538
ette	-4539
▁armed	-4540
▁normal	-4541
cription	-4542
mentioned	-4543
▁allotment	-4544
ique	-4545
▁nuclear	-4546
▁exchange	-4547
▁extension	-4548
▁insist	-4549
▁suffer	-4550
rab	-4551
▁CPC	-4552
▁intent	-4553
▁electricity	-4554
▁restrictions	-4555
▁ST	-4556
▁schemes	-4557
▁SCR	-4558
pto	-4559
▁PS	-4560
▁board	-4561
▁attrib	-4562
▁running	-4563
rew	-4564
elling	-4565
▁Principal	-4566
▁Human	-4567
▁recover	-4568
▁Ma	-4569
▁Cust	-4570
▁moved	-4571
▁Ash	-4572
▁disputed	-4573
▁appointments	-4574
va	-4575
▁applies	-4576
▁Application	-4577
▁understanding	-4578
hens	-4579
antly	-4580
▁Speaker	-4581
CO	-4582
▁Officers	-4583
asmuch	-4584
▁reply	-4585
▁danger	-4586
▁levels	-4587
▁tot	-4588
▁conclus	-4589
eria	-4590
▁advice	-4591
▁gas	-4592
▁Kash	-4593
esting	-4594
▁spot	-4595
▁stipulated	-4596
▁brief	-4597
▁association	-4598
rade	-4599
anging	-4600
▁holder	-4601
onial	-4602
▁retros	-4603
▁amendments	-4604
EP	-4605
▁operate	-4606
▁recognized	-4607
▁Che	-4608
rations	-4609
aran	-4610
▁Kam	-4611
▁cadre	-4612
▁estim	-4613
▁modern	-4614
.-	-4615
MP	-4616
udget	-4617
amy	-4618
avid	-4619
▁farmers	-4620
▁disclosure	-4621
▁involving	-4622
▁break	-4623
herent	-4624
▁formed	-4625
▁investigating	-4626
▁satisfaction	-4627
▁weight	-4628
▁termination	-4629
▁contribution	-4630
▁discrimination	-4631
vironment	-4632
▁Reference	-4633
oj	-4634
cast	-4635
▁mus	-4636
▁correspond	-4637
▁acted	-4638
▁regulation	-4639
▁accomp	-4640
▁deliber	-4641
▁instructions	-4642
Th	-4643
▁publication	-4644
▁Municipal	-4645
▁strengthen	-4646
▁enforcement	-4647
gram	-4648
▁adjudication	-4649
iles	-4650
▁possibility	-4651
Am	-4652
▁demands	-4653
▁destroy	-4654
▁ratio	-4655
▁secure	-4656
gn	-4657
▁Pras	-4658
▁popular	-4659
▁furnished	-4660
▁compre	-4661
▁mortgage	-4662
mir	-4663
▁raise	-4664
▁Person	-4665
▁taxes	-4666
▁announced	-4667
,000/-	-4668
▁conven	-4669
▁machinery	-4670
reason	-4671
▁disability	-4672
▁Chennai	-4673
▁beginning	-4674
▁repeated	-4675
▁values	-4676
▁Control	-4677
▁Bu	-4678
▁Stat	-4679
▁wealth	-4680
▁tend	-4681
▁prices	-4682
▁promote	-4683
▁Security	-4684
NA	-4685
▁Foreign	-4686
▁dismissal	-4687
struction	-4688
▁exception	-4689
▁cited	-4690
▁largest	-4691
▁obligations	-4692
iment	-4693
▁Joint	-4694
▁comment	-4695
▁presumption	-4696
▁bon	-4697
▁prescrib	-4698
▁leadership	-4699
▁Ordin	-4700
▁alter	-4701
▁block	-4702
▁incons	-4703
▁arbitral	-4704
▁lib	-4705
▁dw	-4706
phasis	-4707
▁critic	-4708
icate	-4709
▁imperial	-4710
▁ali	-4711
iling	-4712
▁hear	-4713
spector	-4714
▁landlord	-4715
▁resulted	-4716
▁challenging	-4717
▁brok	-4718
▁acceptance	-4719
▁check	-4720
exure	-4721
▁mental	-4722
egu	-4723
▁Date	-4724
▁huge	-4725
▁effic	-4726
▁errone	-4727
▁Equ	-4728
▁genu	-4729
uel	-4730
▁log	-4731
▁proc	-4732
▁Vice	-4733
▁recognised	-4734
igital	-4735
▁inconsist	-4736
▁purchas	-4737
▁something	-4738
▁Health	-4739
▁contains	-4740
▁Of	-4741
▁Nag	-4742
▁Award	-4743
▁afore	-4744
▁relates	-4745
▁issuing	-4746
▁ban	-4747
while	-4748
ensions	-4749
ients	-4750
▁formal	-4751
▁turned	-4752
▁schedule	-4753
ler	-4754
▁youth	-4755
▁damage	-4756
▁claiming	-4757
oured	-4758
▁Program	-4759
SA	-4760
rose	-4761
▁Work	-4762
▁mandate	-4763
hu	-4764
▁gold	-4765
▁deleg	-4766
▁Mark	-4767
▁Environment	-4768
▁contentions	-4769
orters	-4770
▁gains	-4771
▁Christ	-4772
▁acquitted	-4773
▁certainly	-4774
▁disciplinary	-4775
▁ship	-4776
▁innoc	-4777
▁explos	-4778
▁Sections	-4779
▁drug	-4780
▁Organ	-4781
ett	-4782
▁Tiger	-4783
▁Madhya	-4784
▁cas	-4785
▁consequent	-4786
iciency	-4787
▁achieved	-4788
▁pendency	-4789
▁Mot	-4790
▁pan	-4791
▁fram	-4792
▁arose	-4793
▁Employ	-4794
AB	-4795
▁Pet	-4796
▁War	-4797
▁recognition	-4798
▁norms	-4799
▁xxx	-4800
▁factor	-4801
▁creditor	-4802
▁proportion	-4803
▁bear	-4804
▁else	-4805
▁valu	-4806
▁Iraqi	-4807
▁simply	-4808
▁protected	-4809
off	-4810
usion	-4811
▁upto	-4812
ourses	-4813
▁caste	-4814
▁participation	-4815
▁suc	-4816
▁withdrawal	-4817
oral	-4818
▁How	-4819
urg	-4820
▁Once	-4821
▁inasmuch	-4822
▁identification	-4823
ength	-4824
▁arms	-4825
▁rout	-4826
▁quashed	-4827
▁confirm	-4828
▁allowing	-4829
▁regarded	-4830
ns	-4831
▁ing	-4832
▁succeed	-4833
▁lies	-4834
▁team	-4835
▁abuse	-4836
▁rever	-4837
▁elabor	-4838
ournal	-4839
▁oral	-4840
▁Asia	-4841
▁grad	-4842
▁lawy	-4843
▁seems	-4844
▁owners	-4845
▁manifest	-4846
▁debtor	-4847
▁inspection	-4848
▁acknow	-4849
▁Notwithstanding	-4850
duce	-4851
▁fees	-4852
▁Afric	-4853
▁Class	-4854
▁unions	-4855
ounded	-4856
▁safegu	-4857
▁exercising	-4858
▁industries	-4859
▁felt	-4860
▁simple	-4861
▁workmen	-4862
▁SEP	-4863
overty	-4864
▁Palest	-4865
▁letters	-4866
▁governments	-4867
vis	-4868
▁undergo	-4869
inks	-4870
▁handed	-4871
▁families	-4872
▁requested	-4873
▁opportunities	-4874
▁Petitioner	-4875
▁willing	-4876
▁army	-4877
▁explo	-4878
▁really	-4879
stitutes	-4880
▁interested	-4881
fe	-4882
isite	-4883
▁town	-4884
▁Times	-4885
mittees	-4886
▁Reason	-4887
▁latter	-4888
▁decades	-4889
▁creation	-4890
US	-4891
▁named	-4892
▁falling	-4893
▁successful	-4894
sy	-4895
▁surv	-4896
▁chief	-4897
▁miscon	-4898
ighted	-4899
ka	-4900
achal	-4901
▁diver	-4902
▁falls	-4903
▁governance	-4904
ji	-4905
▁seats	-4906
▁assail	-4907
liminary	-4908
▁allegation	-4909
CL	-4910
▁damages	-4911
▁speaking	-4912
▁Prosecutor	-4913
▁resort	-4914
andum	-4915
▁approached	-4916
▁reflect	-4917
▁mag	-4918
ocates	-4919
▁colle	-4920
▁Agricult	-4921
▁purchased	-4922
We	-4923
▁mount	-4924
▁paper	-4925
orandum	-4926
▁partnership	-4927
▁capt	-4928
ales	-4929
▁particulars	-4930
▁Constitutional	-4931
hent	-4932
▁commerce	-4933
▁contracts	-4934
▁agreements	-4935
leb	-4936
▁categor	-4937
▁Smt	-4938
ourge	-4939
▁dying	-4940
▁suicide	-4941
inem	-4942
▁reach	-4943
▁length	-4944
▁necessity	-4945
▁Road	-4946
▁suffering	-4947
umer	-4948
▁Mod	-4949
▁bag	-4950
▁equity	-4951
▁thereon	-4952
▁Trib	-4953
▁equally	-4954
▁Election	-4955
▁Research	-4956
▁Directors	-4957
▁representative	-4958
▁twenty	-4959
▁IV	-4960
bted	-4961
▁CrPC	-4962
▁conscious	-4963
▁environmental	-4964
▁Will	-4965
rimes	-4966
▁seeks	-4967
▁pursuance	-4968
where	-4969
▁jobs	-4970
▁David	-4971
▁hot	-4972
▁issuance	-4973
stitutional	-4974
▁Kal	-4975
▁opt	-4976
▁excluded	-4977
▁Nagar	-4978
▁compon	-4979
▁indicates	-4980
▁PC	-4981
▁incurred	-4982
orous	-4983
▁spok	-4984
▁deliver	-4985
▁Chandra	-4986
▁causing	-4987
▁notwithstanding	-4988
-0	-4989
DR	-4990
▁Cor	-4991
▁analy	-4992
▁ambit	-4993
▁enhance	-4994
▁interview	-4995
ley	-4996
▁filled	-4997
▁inherent	-4998
▁guarantee	-4999
▁classification	-5000
▁Islam	-5001
▁books	-5002
▁servants	-5003
▁injunction	-5004
▁ready	-5005
▁purport	-5006
▁subordinate	-5007
▁Gazette	-5008
▁whatever	-5009
▁voluntary	-5010
MS	-5011
▁tariff	-5012
comp	-5013
▁impart	-5014
ika	-5015
irty	-5016
▁sure	-5017
▁element	-5018
▁comprom	-5019
▁conclusions	-5020
▁AS	-5021
aded	-5022
utta	-5023
ronic	-5024
▁vehicles	-5025
१४	-5026
ourgeois	-5027
hy	-5028
▁doctor	-5029
▁situations	-5030
▁gain	-5031
▁prayed	-5032
respondent	-5033
sa	-5034
vell	-5035
▁hit	-5036
▁Shah	-5037
▁rape	-5038
▁claimant	-5039
▁ultimately	-5040
▁mode	-5041
▁needed	-5042
▁married	-5043
▁assembly	-5044
▁guaranteed	-5045
rif	-5046
▁conce	-5047
▁repla	-5048
▁sister	-5049
vt	-5050
▁temporary	-5051
▁gross	-5052
rep	-5053
apse	-5054
▁stock	-5055
▁Hy	-5056
▁usu	-5057
▁intim	-5058
▁driver	-5059
▁improve	-5060
apan	-5061
▁selected	-5062
▁Assessing	-5063
examination	-5064
▁Sun	-5065
▁guilt	-5066
oly	-5067
▁won	-5068
ropri	-5069
▁prem	-5070
▁send	-5071
prises	-5072
▁affirm	-5073
▁confer	-5074
▁harass	-5075
▁thousands	-5076
ayment	-5077
usiness	-5078
▁Panchayat	-5079
▁creditors	-5080
▁bur	-5081
▁Bab	-5082
▁transp	-5083
athi	-5084
enture	-5085
▁resulting	-5086
▁speed	-5087
▁estate	-5088
▁suits	-5089
ikh	-5090
▁America	-5091
▁absolutely	-5092
As	-5093
▁card	-5094
▁late	-5095
▁hereby	-5096
▁incorporated	-5097
ham	-5098
▁Rao	-5099
▁rein	-5100
▁Ahmed	-5101
▁agent	-5102
▁ago	-5103
aches	-5104
▁Head	-5105
above	-5106
▁systems	-5107
▁Circ	-5108
▁attached	-5109
▁generation	-5110
▁Jag	-5111
▁acres	-5112
▁inserted	-5113
▁scen	-5114
▁concerning	-5115
▁Paragraph	-5116
▁Cap	-5117
▁Affairs	-5118
▁San	-5119
▁love	-5120
uter	-5121
▁bul	-5122
▁cities	-5123
▁collection	-5124
rand	-5125
urer	-5126
▁authorised	-5127
▁Agg	-5128
▁amb	-5129
essel	-5130
▁empowered	-5131
/0	-5132
▁plaint	-5133
▁features	-5134
▁rational	-5135
▁standing	-5136
endra	-5137
HI	-5138
irs	-5139
▁overr	-5140
App	-5141
ami	-5142
▁calls	-5143
▁thereunder	-5144
▁implemented	-5145
▁irre	-5146
▁dowry	-5147
▁subjected	-5148
araj	-5149
▁Met	-5150
▁Devi	-5151
▁enforce	-5152
soever	-5153
▁engine	-5154
Ind	-5155
▁interpreted	-5156
▁indeed	-5157
▁marked	-5158
▁insofar	-5159
▁ownership	-5160
▁terrorist	-5161
ze	-5162
▁CON	-5163
▁assign	-5164
▁spread	-5165
▁eval	-5166
elligence	-5167
▁involvement	-5168
▁significance	-5169
ocks	-5170
▁Jer	-5171
orial	-5172
▁effort	-5173
▁schools	-5174
▁Protection	-5175
▁Sen	-5176
▁Private	-5177
▁framework	-5178
▁anc	-5179
▁unn	-5180
▁restriction	-5181
▁owned	-5182
▁bourgeois	-5183
▁appreciate	-5184
hel	-5185
charge	-5186
▁forum	-5187
▁front	-5188
▁factory	-5189
ky	-5190
yan	-5191
▁Sah	-5192
▁squ	-5193
▁tort	-5194
course	-5195
▁aimed	-5196
▁Reserve	-5197
▁associated	-5198
▁Calc	-5199
▁Their	-5200
▁Ven	-5201
▁preliminary	-5202
▁renewal	-5203
▁elite	-5204
▁applying	-5205
▁Ed	-5206
▁series	-5207
▁channel	-5208
▁entertain	-5209
GC	-5210
ayan	-5211
▁refers	-5212
▁neigh	-5213
nes	-5214
▁rival	-5215
▁SEBI	-5216
▁recon	-5217
▁continues	-5218
hibit	-5219
▁changed	-5220
▁socialist	-5221
▁hereinabove	-5222
▁Excise	-5223
▁destru	-5224
▁Dh	-5225
▁Ant	-5226
▁Two	-5227
▁politics	-5228
▁scrutiny	-5229
habilit	-5230
▁Commercial	-5231
▁scientific	-5232
kash	-5233
▁System	-5234
▁cruel	-5235
▁network	-5236
iti	-5237
▁classes	-5238
▁crimes	-5239
inet	-5240
▁bond	-5241
▁pleaded	-5242
wan	-5243
▁rail	-5244
▁Excell	-5245
▁containing	-5246
ests	-5247
▁Kar	-5248
▁sou	-5249
▁quoted	-5250
▁advocate	-5251
▁seiz	-5252
▁poverty	-5253
▁overall	-5254
▁relative	-5255
▁budget	-5256
▁creating	-5257
▁manufacturing	-5258
▁save	-5259
▁lodged	-5260
▁residence	-5261
▁Bas	-5262
oking	-5263
▁explain	-5264
▁occurred	-5265
fer	-5266
omen	-5267
▁goes	-5268
▁spoke	-5269
▁adjust	-5270
▁attend	-5271
▁retired	-5272
▁Her	-5273
▁text	-5274
▁vital	-5275
PL	-5276
▁fails	-5277
▁surre	-5278
▁payments	-5279
▁properly	-5280
▁’	-5281
▁Dec	-5282
ester	-5283
▁autom	-5284
venth	-5285
▁task	-5286
▁allotted	-5287
▁concerns	-5288
▁emergency	-5289
▁organisation	-5290
endent	-5291
▁inside	-5292
▁organiz	-5293
▁immovable	-5294
eav	-5295
▁sav	-5296
organ	-5297
▁tender	-5298
▁regional	-5299
▁fif	-5300
cial	-5301
utory	-5302
▁remark	-5303
▁compris	-5304
quisition	-5305
▁imposition	-5306
▁intervention	-5307
▁maintainable	-5308
ibly	-5309
▁consistent	-5310
▁Jay	-5311
▁Child	-5312
▁totally	-5313
arc	-5314
ancellor	-5315
▁recently	-5316
▁statutes	-5317
eat	-5318
▁Prasad	-5319
▁middle	-5320
▁Mohan	-5321
▁Jain	-5322
▁newspaper	-5323
▁conducting	-5324
▁NE	-5325
▁bad	-5326
athy	-5327
▁Gov	-5328
▁Sund	-5329
▁wish	-5330
▁authent	-5331
▁offering	-5332
▁sources	-5333
▁affirmed	-5334
lawful	-5335
▁revolution	-5336
RO	-5337
▁vs	-5338
▁Kashmir	-5339
▁Palestin	-5340
▁safe	-5341
isations	-5342
▁instituted	-5343
wa	-5344
▁shooting	-5345
▁Geor	-5346
▁residential	-5347
EM	-5348
atal	-5349
▁correctness	-5350
enth	-5351
▁methods	-5352
iple	-5353
▁endeav	-5354
▁organization	-5355
UL	-5356
hend	-5357
▁built	-5358
▁plain	-5359
▁People	-5360
▁intercourse	-5361
▁Para	-5362
▁began	-5363
▁prepar	-5364
▁struck	-5365
▁vessel	-5366
▁capable	-5367
yal	-5368
irms	-5369
▁played	-5370
▁Convention	-5371
olved	-5372
▁entirely	-5373
▁facility	-5374
▁receiving	-5375
▁cooperation	-5376
▁King	-5377
▁type	-5378
▁Memon	-5379
▁joined	-5380
▁located	-5381
play	-5382
ilk	-5383
▁Bhar	-5384
▁cease	-5385
▁Forest	-5386
▁Calcutta	-5387
▁observation	-5388
▁Army	-5389
▁sound	-5390
▁Industries	-5391
▁furnish	-5392
▁active	-5393
▁federal	-5394
▁exc	-5395
▁Also	-5396
▁genuine	-5397
ishment	-5398
▁exclusive	-5399
▁sanctioned	-5400
▁Aj	-5401
mark	-5402
olit	-5403
called	-5404
urb	-5405
▁respond	-5406
rity	-5407
▁Ali	-5408
▁Ext	-5409
▁cul	-5410
▁ruled	-5411
▁participated	-5412
▁seat	-5413
▁weak	-5414
icating	-5415
▁deserv	-5416
BC	-5417
▁litig	-5418
▁monitor	-5419
▁Territory	-5420
▁Dev	-5421
▁Japan	-5422
uvenile	-5423
▁examining	-5424
▁confined	-5425
▁irr	-5426
uity	-5427
▁irres	-5428
▁withdrawn	-5429
▁Ba	-5430
▁sac	-5431
▁voice	-5432
▁wro	-5433
▁Trade	-5434
▁equip	-5435
▁pleas	-5436
▁strictly	-5437
ita	-5438
pper	-5439
▁pec	-5440
▁Only	-5441
▁accru	-5442
▁assault	-5443
▁effectively	-5444
mat	-5445
▁justify	-5446
▁Inspector	-5447
▁courses	-5448
▁criteria	-5449
era	-5450
▁EU	-5451
▁hy	-5452
▁wage	-5453
▁circular	-5454
▁confessional	-5455
sue	-5456
▁grave	-5457
▁imported	-5458
▁average	-5459
▁Design	-5460
▁nearly	-5461
▁bill	-5462
▁opened	-5463
▁considerations	-5464
ARD	-5465
aji	-5466
▁earn	-5467
▁legally	-5468
▁bringing	-5469
▁interven	-5470
UN	-5471
uent	-5472
▁hope	-5473
▁inqu	-5474
▁Judgment	-5475
▁rigorous	-5476
AD	-5477
▁ap	-5478
▁pros	-5479
▁restra	-5480
▁collabor	-5481
▁mutual	-5482
▁rad	-5483
athan	-5484
▁pronoun	-5485
▁meetings	-5486
reasonable	-5487
una	-5488
▁afford	-5489
▁liquid	-5490
▁Sa	-5491
▁complex	-5492
▁mechanism	-5493
RE	-5494
anth	-5495
head	-5496
rees	-5497
▁clean	-5498
▁Follow	-5499
▁sens	-5500
▁grievance	-5501
▁requisite	-5502
▁Tel	-5503
▁Israeli	-5504
▁Leave	-5505
▁indirect	-5506
▁launched	-5507
▁friends	-5508
▁distance	-5509
▁Abd	-5510
prise	-5511
▁fide	-5512
▁notes	-5513
▁barred	-5514
▁install	-5515
▁withdraw	-5516
▁capitalist	-5517
▁greet	-5518
▁driving	-5519
▁ordinarily	-5520
▁Bl	-5521
inations	-5522
▁violative	-5523
▁Joh	-5524
roc	-5525
▁forced	-5526
▁remove	-5527
▁wishes	-5528
▁entrust	-5529
alore	-5530
arian	-5531
▁dict	-5532
▁passage	-5533
▁revised	-5534
udh	-5535
ortion	-5536
suring	-5537
▁Sark	-5538
ricted	-5539
hensive	-5540
▁exceeding	-5541
▁items	-5542
inating	-5543
▁causes	-5544
▁arrangement	-5545
gypt	-5546
▁entity	-5547
ervation	-5548
▁reasoning	-5549
dh	-5550
ulates	-5551
▁wanted	-5552
▁numbers	-5553
▁processing	-5554
uous	-5555
▁miss	-5556
▁continuing	-5557
▁Russia	-5558
▁resist	-5559
▁contact	-5560
pet	-5561
▁initially	-5562
▁patent	-5563
▁nations	-5564
▁seizure	-5565
▁hom	-5566
▁lif	-5567
▁vast	-5568
▁Egypt	-5569
▁Review	-5570
▁declare	-5571
▁showing	-5572
▁pleadings	-5573
▁seed	-5574
requ	-5575
sheet	-5576
▁eviction	-5577
bel	-5578
estern	-5579
▁parame	-5580
▁Customs	-5581
rav	-5582
."	-5583
▁wrote	-5584
▁objects	-5585
▁omission	-5586
▁revealed	-5587
▁legitimate	-5588
▁parliamentary	-5589
ider	-5590
▁Are	-5591
▁Up	-5592
oring	-5593
▁happy	-5594
▁compar	-5595
▁iron	-5596
▁Consequently	-5597
dd	-5598
▁defect	-5599
▁calling	-5600
▁modified	-5601
▁Certificate	-5602
▁eth	-5603
▁guard	-5604
▁belief	-5605
▁operating	-5606
▁whatsoever	-5607
just	-5608
holding	-5609
apak	-5610
▁Over	-5611
▁Sign	-5612
▁planning	-5613
▁operational	-5614
▁Parliamentary	-5615
raft	-5616
▁morning	-5617
▁performed	-5618
bur	-5619
amily	-5620
▁exists	-5621
▁unlawful	-5622
▁substituted	-5623
ankar	-5624
aves	-5625
▁culture	-5626
▁equival	-5627
▁session	-5628
icitor	-5629
▁foundation	-5630
owed	-5631
▁Stud	-5632
▁Econom	-5633
▁abroad	-5634
ni	-5635
het	-5636
iform	-5637
▁securities	-5638
▁participate	-5639
free	-5640
▁Apart	-5641
▁definite	-5642
ows	-5643
▁brothers	-5644
▁concurrent	-5645
▁Administrative	-5646
VP	-5647
ommod	-5648
redit	-5649
▁eyes	-5650
▁disease	-5651
AM	-5652
▁envisaged	-5653
▁Non	-5654
▁pure	-5655
▁Following	-5656
▁retrospective	-5657
▁mill	-5658
istics	-5659
▁remand	-5660
▁Bhag	-5661
▁Pand	-5662
apur	-5663
▁York	-5664
▁Ordinance	-5665
gam	-5666
pic	-5667
▁.[	-5668
▁model	-5669
▁highly	-5670
▁Arbitrator	-5671
rency	-5672
▁Page	-5673
▁burn	-5674
▁Defence	-5675
▁attracted	-5676
▁GO	-5677
▁pain	-5678
▁celeb	-5679
▁comply	-5680
alk	-5681
▁street	-5682
▁alongwith	-5683
PS	-5684
▁Superint	-5685
comm	-5686
▁Lib	-5687
▁nos	-5688
▁select	-5689
▁exclusion	-5690
▁developing	-5691
▁Aud	-5692
▁gun	-5693
▁dues	-5694
▁century	-5695
▁Water	-5696
▁ensuring	-5697
▁buildings	-5698
▁justification	-5699
▁Vol	-5700
unist	-5701
apakse	-5702
▁figures	-5703
▁opening	-5704
body	-5705
▁sitting	-5706
▁doctors	-5707
othes	-5708
aviour	-5709
▁founded	-5710
▁positive	-5711
▁purchaser	-5712
hand	-5713
iplom	-5714
▁Many	-5715
achment	-5716
▁Lankan	-5717
▁houses	-5718
osh	-5719
osen	-5720
▁fem	-5721
▁qua	-5722
▁satisfy	-5723
▁Rajapakse	-5724
▁hereunder	-5725
▁complaints	-5726
▁Build	-5727
erences	-5728
▁Exchange	-5729
▁Nor	-5730
▁uns	-5731
▁prec	-5732
alin	-5733
▁fast	-5734
urring	-5735
▁talks	-5736
):	-5737
AA	-5738
▁Last	-5739
▁Shiv	-5740
auc	-5741
▁focus	-5742
ibilities	-5743
▁destruction	-5744
▁Pvt	-5745
▁space	-5746
▁entries	-5747
▁Although	-5748
▁Char	-5749
▁negligence	-5750
▁cry	-5751
▁Nations	-5752
▁objectives	-5753
rule	-5754
▁tri	-5755
▁Prakash	-5756
▁contents	-5757
▁shop	-5758
▁endor	-5759
▁autonom	-5760
CA	-5761
▁Its	-5762
▁Colomb	-5763
▁border	-5764
▁thirty	-5765
aug	-5766
▁survey	-5767
▁England	-5768
▁consumer	-5769
▁City	-5770
▁rare	-5771
▁Again	-5772
▁reduce	-5773
▁soldiers	-5774
OS	-5775
▁Acts	-5776
▁kill	-5777
▁Allah	-5778
▁antic	-5779
▁Business	-5780
▁erroneous	-5781
▁closed	-5782
anied	-5783
▁Laws	-5784
▁circumstance	-5785
oo	-5786
▁sq	-5787
▁Abdul	-5788
▁integrity	-5789
▁reproduced	-5790
▁divor	-5791
▁parameters	-5792
▁Son	-5793
oving	-5794
▁erred	-5795
▁Despite	-5796
▁),	-5797
▁AC	-5798
▁Annexure	-5799
▁coalition	-5800
▁Je	-5801
rive	-5802
▁Jes	-5803
prene	-5804
regular	-5805
▁Vik	-5806
▁imposing	-5807
▁mom	-5808
ume	-5809
igar	-5810
▁pra	-5811
▁ingred	-5812
lex	-5813
▁raising	-5814
▁disclose	-5815
▁superior	-5816
▁Aggrieved	-5817
oubted	-5818
▁accommod	-5819
reprene	-5820
▁Respondents	-5821
PT	-5822
▁liberal	-5823
▁percentage	-5824
ayuk	-5825
earing	-5826
▁fields	-5827
▁cultural	-5828
It	-5829
▁Reliance	-5830
▁advertise	-5831
▁Excellency	-5832
hon	-5833
iar	-5834
▁Full	-5835
ertion	-5836
lauses	-5837
▁Stalin	-5838
▁connect	-5839
▁accompanied	-5840
▁prohibition	-5841
ja	-5842
▁Third	-5843
pe	-5844
▁quashing	-5845
▁estimated	-5846
▁allocation	-5847
▁conference	-5848
Pro	-5849
▁MS	-5850
eeping	-5851
▁Acquisition	-5852
▁Universities	-5853
▁listed	-5854
▁partly	-5855
▁Engineer	-5856
▁sectors	-5857
▁Ja	-5858
▁Sch	-5859
▁urban	-5860
▁primarily	-5861
ese	-5862
▁Prom	-5863
▁compared	-5864
▁demanded	-5865
orks	-5866
abinet	-5867
▁medic	-5868
emed	-5869
▁mal	-5870
......	-5871
including	-5872
ols	-5873
▁adopt	-5874
▁compuls	-5875
▁compromise	-5876
▁represented	-5877
grad	-5878
icing	-5879
▁papers	-5880
▁Programme	-5881
१५	-5882
unior	-5883
▁consumers	-5884
▁terrorism	-5885
▁Electricity	-5886
▁SH	-5887
▁size	-5888
▁uniform	-5889
▁Val	-5890
▁Dist	-5891
▁banking	-5892
▁chemical	-5893
▁complied	-5894
▁clarified	-5895
▁Gur	-5896
ondon	-5897
orage	-5898
iating	-5899
▁bench	-5900
▁anticip	-5901
▁challenges	-5902
▁prohibited	-5903
▁Goa	-5904
oming	-5905
▁gets	-5906
sement	-5907
▁holds	-5908
atically	-5909
▁contend	-5910
▁relying	-5911
habilitation	-5912
hanced	-5913
▁Assam	-5914
▁lines	-5915
▁ability	-5916
▁crucial	-5917
.(	-5918
lar	-5919
▁marg	-5920
rators	-5921
▁wound	-5922
▁useful	-5923
▁unemploy	-5924
▁Op	-5925
▁sea	-5926
▁scene	-5927
▁sides	-5928
▁availability	-5929
▁qualification	-5930
CE	-5931
▁Di	-5932
▁Rent	-5933
▁dele	-5934
▁learning	-5935
etary	-5936
▁evil	-5937
▁finance	-5938
nan	-5939
ague	-5940
’)	-5941
▁Roh	-5942
▁John	-5943
▁restrict	-5944
▁governing	-5945
▁admissible	-5946
▁procedures	-5947
vency	-5948
▁chosen	-5949
▁imposs	-5950
▁motion	-5951
▁struct	-5952
▁Britain	-5953
▁markets	-5954
▁Net	-5955
▁mist	-5956
▁disapp	-5957
▁levied	-5958
▁compound	-5959
▁committing	-5960
▁facilitate	-5961
▁Your	-5962
▁Solicitor	-5963
▁investors	-5964
oon	-5965
▁Port	-5966
▁villages	-5967
▁grat	-5968
▁rich	-5969
▁dil	-5970
▁soft	-5971
▁Allahabad	-5972
▁sustainable	-5973
An	-5974
urk	-5975
ammu	-5976
▁music	-5977
▁anyone	-5978
▁colleges	-5979
▁equivalent	-5980
apt	-5981
urt	-5982
mar	-5983
ozy	-5984
▁El	-5985
▁cy	-5986
▁black	-5987
mp	-5988
aman	-5989
▁Obama	-5990
▁drive	-5991
oubtedly	-5992
▁friendly	-5993
▁directors	-5994
▁Cha	-5995
▁assessed	-5996
▁critical	-5997
▁song	-5998
▁sovere	-5999
RT	-6000
▁boy	-6001
▁framing	-6002
▁minority	-6003
ERS	-6004
For	-6005
inger	-6006
▁Mand	-6007
▁prosper	-6008
▁procedural	-6009
▁MCI	-6010
▁ant	-6011
abled	-6012
antial	-6013
mi	-6014
ida	-6015
▁Tal	-6016
▁Small	-6017
▁Insofar	-6018
▁defines	-6019
▁Defendant	-6020
▁Ur	-6021
▁Digital	-6022
▁allowance	-6023
▁considerable	-6024
▁core	-6025
▁discharged	-6026
▁questioned	-6027
▁offices	-6028
▁Statement	-6029
▁calculated	-6030
▁historical	-6031
▁mobile	-6032
itations	-6033
▁suspect	-6034
▁manufactured	-6035
▁transportation	-6036
▁Jammu	-6037
▁commod	-6038
▁designed	-6039
bu	-6040
ila	-6041
▁latest	-6042
uv	-6043
ching	-6044
iences	-6045
▁Sarkozy	-6046
▁supposed	-6047
▁declaring	-6048
▁acquire	-6049
▁separately	-6050
▁narrow	-6051
▁partner	-6052
▁contractor	-6053
▁Id	-6054
▁enum	-6055
▁Appellants	-6056
▁DNA	-6057
▁touch	-6058
▁mainly	-6059
▁enhanced	-6060
▁nomination	-6061
Os	-6062
mon	-6063
▁AT	-6064
▁Ret	-6065
▁Vis	-6066
aters	-6067
compl	-6068
▁Interest	-6069
▁internal	-6070
bid	-6071
algam	-6072
▁casual	-6073
ole	-6074
▁warm	-6075
▁London	-6076
▁conform	-6077
▁invited	-6078
▁Plaintiff	-6079
▁competence	-6080
▁stake	-6081
▁motive	-6082
▁appreciation	-6083
▁BC	-6084
▁Deed	-6085
▁inflic	-6086
▁neighb	-6087
▁Suit	-6088
IF	-6089
▁Meh	-6090
▁asserted	-6091
igil	-6092
author	-6093
from	-6094
▁liter	-6095
▁Proper	-6096
▁obvious	-6097
▁Pri	-6098
▁figure	-6099
▁Railway	-6100
▁acknowled	-6101
▁commitment	-6102
▁highlighted	-6103
UT	-6104
▁PO	-6105
▁Disc	-6106
▁cell	-6107
▁idea	-6108
▁prin	-6109
olvency	-6110
▁resign	-6111
▁travel	-6112
etent	-6113
▁centre	-6114
▁CA	-6115
▁quantity	-6116
▁valuable	-6117
▁greetings	-6118
▁obviously	-6119
esty	-6120
▁repealed	-6121
▁Transport	-6122
levant	-6123
▁Force	-6124
▁moment	-6125
▁accepting	-6126
▁efficient	-6127
▁irrespective	-6128
▁comprehensive	-6129
▁qualifications	-6130
utt	-6131
▁stop	-6132
▁normally	-6133
.[	-6134
sych	-6135
▁sem	-6136
iece	-6137
▁Nav	-6138
▁lik	-6139
▁Legal	-6140
▁Family	-6141
▁exclus	-6142
▁restricted	-6143
▁Investigating	-6144
▁Anr	-6145
▁orient	-6146
ocal	-6147
assion	-6148
▁confron	-6149
▁ignored	-6150
▁scheduled	-6151
▁organisations	-6152
lax	-6153
ulty	-6154
▁cinem	-6155
▁centres	-6156
▁elements	-6157
▁consumption	-6158
PE	-6159
▁Gh	-6160
▁Vish	-6161
▁anim	-6162
ulating	-6163
▁Conference	-6164
▁constructed	-6165
▁inconsistent	-6166
▁shot	-6167
bts	-6168
adav	-6169
▁Mit	-6170
abling	-6171
co	-6172
▁Far	-6173
▁news	-6174
▁science	-6175
▁currency	-6176
▁commenced	-6177
▁strategic	-6178
▁Fl	-6179
▁protests	-6180
▁wall	-6181
aksh	-6182
like	-6183
▁lot	-6184
derabad	-6185
▁processes	-6186
▁supplement	-6187
▁verification	-6188
aren	-6189
▁incl	-6190
oration	-6191
▁extremely	-6192
▁vit	-6193
▁drink	-6194
▁heads	-6195
▁cultiv	-6196
▁housing	-6197
▁underlying	-6198
▁Ve	-6199
isen	-6200
▁obs	-6201
▁fort	-6202
▁rapid	-6203
▁chargeable	-6204
▁corruption	-6205
▁Car	-6206
▁finds	-6207
▁types	-6208
lease	-6209
▁Africa	-6210
▁ton	-6211
▁annum	-6212
▁Australia	-6213
▁irregular	-6214
▁qualified	-6215
BS	-6216
▁visited	-6217
▁communal	-6218
▁initiatives	-6219
▁aforementioned	-6220
▁win	-6221
▁Arab	-6222
▁jail	-6223
udence	-6224
▁Besides	-6225
▁minerals	-6226
▁entrusted	-6227
▁requiring	-6228
asw	-6229
▁Regional	-6230
▁agriculture	-6231
▁contravention	-6232
▁Inf	-6233
attle	-6234
▁Dhar	-6235
usalem	-6236
▁Bangalore	-6237
▁Jerusalem	-6238
▁photograph	-6239
▁paying	-6240
▁Speaking	-6241
eting	-6242
▁Colombo	-6243
▁Recovery	-6244
▁substantially	-6245
ugg	-6246
▁cal	-6247
▁Year	-6248
▁flat	-6249
▁invoked	-6250
▁partition	-6251
▁applicability	-6252
haps	-6253
▁mit	-6254
▁north	-6255
▁weapon	-6256
▁Capital	-6257
▁Welfare	-6258
▁identify	-6259
▁solution	-6260
▁proposals	-6261
,—	-6262
▁vend	-6263
athered	-6264
▁awarding	-6265
▁authorized	-6266
ortun	-6267
▁regulate	-6268
▁organizations	-6269
bal	-6270
▁Him	-6271
▁pert	-6272
▁shif	-6273
▁debate	-6274
▁operative	-6275
▁universities	-6276
▁cm	-6277
▁eat	-6278
▁recall	-6279
▁Constit	-6280
▁monthly	-6281
▁negative	-6282
▁enumerated	-6283
▁talk	-6284
▁heavy	-6285
▁leaving	-6286
▁Jesus	-6287
▁alien	-6288
▁loans	-6289
▁misconduct	-6290
rears	-6291
mination	-6292
eft	-6293
▁abol	-6294
icians	-6295
▁votes	-6296
▁vision	-6297
▁corrupt	-6298
▁surround	-6299
Un	-6300
▁Ber	-6301
▁awards	-6302
▁unreasonable	-6303
▁feed	-6304
▁Pension	-6305
▁membership	-6306
▁inference	-6307
▁rejection	-6308
kn	-6309
ependence	-6310
▁Hyderabad	-6311
lets	-6312
▁Sad	-6313
▁traditional	-6314
▁holders	-6315
▁Federal	-6316
▁maintaining	-6317
cles	-6318
ansion	-6319
▁experts	-6320
▁allegedly	-6321
▁eligibility	-6322
▁consequential	-6323
▁corresponding	-6324
uration	-6325
esterday	-6326
▁Training	-6327
▁presidential	-6328
▁Ay	-6329
year	-6330
▁fuel	-6331
▁judic	-6332
▁innocent	-6333
▁moral	-6334
▁sanct	-6335
▁Castes	-6336
▁plants	-6337
▁reality	-6338
rec	-6339
erous	-6340
itors	-6341
▁quantum	-6342
▁student	-6343
▁gathered	-6344
▁PM	-6345
▁ge	-6346
▁cuts	-6347
▁ways	-6348
▁prime	-6349
▁Superintendent	-6350
esse	-6351
▁bure	-6352
▁shar	-6353
▁grand	-6354
▁river	-6355
SL	-6356
▁mercy	-6357
sub	-6358
▁involves	-6359
▁transform	-6360
▁collective	-6361
▁Territories	-6362
▁Enter	-6363
▁range	-6364
▁stayed	-6365
▁happened	-6366
▁establishing	-6367
▁relatives	-6368
▁controlled	-6369
GT	-6370
WS	-6371
▁UK	-6372
▁Kol	-6373
▁firms	-6374
▁desire	-6375
▁extract	-6376
▁Registration	-6377
▁Jh	-6378
▁mix	-6379
ometric	-6380
▁expand	-6381
▁theory	-6382
▁promoted	-6383
▁supporting	-6384
▁nine	-6385
▁Banks	-6386
▁lying	-6387
inatory	-6388
▁Middle	-6389
hibition	-6390
▁amalgam	-6391
▁discussions	-6392
ps	-6393
isha	-6394
▁looked	-6395
▁emphasis	-6396
▁Disp	-6397
▁door	-6398
▁tenure	-6399
--------	-6400
▁Krishna	-6401
▁unnecess	-6402
▁sentences	-6403
▁impossible	-6404
CS	-6405
▁Food	-6406
▁storage	-6407
▁attempts	-6408
▁acceptable	-6409
▁Est	-6410
▁lab	-6411
▁Inst	-6412
▁unfair	-6413
▁feature	-6414
▁lac	-6415
▁sto	-6416
▁Sector	-6417
▁female	-6418
▁perpet	-6419
▁cruelty	-6420
▁inspect	-6421
▁precedent	-6422
▁deposition	-6423
▁borne	-6424
▁Bharat	-6425
▁carefully	-6426
cons	-6427
▁trying	-6428
▁reduction	-6429
rick	-6430
▁Left	-6431
▁aims	-6432
iam	-6433
▁null	-6434
isting	-6435
▁imple	-6436
▁privilege	-6437
▁Resolution	-6438
▁Vid	-6439
▁dates	-6440
▁license	-6441
▁ultimate	-6442
▁VI	-6443
astern	-6444
▁intelligence	-6445
holder	-6446
▁Jam	-6447
▁heirs	-6448
omin	-6449
ially	-6450
▁Villa	-6451
▁pregn	-6452
▁insurer	-6453
▁organized	-6454
▁ends	-6455
othing	-6456
▁copies	-6457
▁voting	-6458
▁reforms	-6459
UD	-6460
▁shared	-6461
▁outcome	-6462
aks	-6463
ques	-6464
ologies	-6465
▁severe	-6466
istrator	-6467
TA	-6468
▁RBI	-6469
▁Stand	-6470
▁relax	-6471
▁suspic	-6472
▁conversion	-6473
PF	-6474
def	-6475
▁Ap	-6476
▁entering	-6477
▁harassment	-6478
iss	-6479
rissa	-6480
▁preparation	-6481
yam	-6482
▁prefer	-6483
▁inclined	-6484
lag	-6485
▁Those	-6486
▁stamp	-6487
▁reaction	-6488
▁paras	-6489
▁Others	-6490
▁backward	-6491
▁enabling	-6492
▁taxation	-6493
▁consisting	-6494
▁essentially	-6495
back	-6496
▁Maj	-6497
otion	-6498
▁Park	-6499
▁felic	-6500
raj	-6501
ster	-6502
▁Aut	-6503
▁Das	-6504
▁looking	-6505
bh	-6506
mn	-6507
▁mid	-6508
haust	-6509
▁arisen	-6510
▁bureauc	-6511
stituting	-6512
▁external	-6513
▁fulfilled	-6514
▁pertinent	-6515
▁seriously	-6516
▁distinguished	-6517
▁Administration	-6518
See	-6519
adequ	-6520
estion	-6521
LE	-6522
ays	-6523
GE	-6524
orter	-6525
▁precise	-6526
▁believed	-6527
son	-6528
▁Sum	-6529
inese	-6530
▁Sinh	-6531
▁ball	-6532
▁condem	-6533
iled	-6534
ruits	-6535
▁affil	-6536
▁documentary	-6537
▁invasion	-6538
▁applicants	-6539
akf	-6540
mort	-6541
▁park	-6542
▁Compl	-6543
▁Rajya	-6544
▁floor	-6545
▁dealer	-6546
▁opposite	-6547
▁identical	-6548
▁Govt	-6549
▁depends	-6550
▁innovation	-6551
Amendment	-6552
icro	-6553
ewise	-6554
▁cart	-6555
▁elim	-6556
▁aggreg	-6557
▁electronic	-6558
▁Gl	-6559
▁Arun	-6560
▁knew	-6561
ategory	-6562
▁expansion	-6563
▁CR	-6564
more	-6565
time	-6566
▁Tem	-6567
tains	-6568
▁Unit	-6569
▁supra	-6570
▁vires	-6571
▁square	-6572
▁capitalism	-6573
▁Out	-6574
▁ment	-6575
▁Selection	-6576
▁suspension	-6577
▁Engineering	-6578
▁Reddy	-6579
▁blast	-6580
▁residents	-6581
▁regulatory	-6582
▁description	-6583
▁exclusively	-6584
rase	-6585
▁Based	-6586
▁dwell	-6587
▁excise	-6588
▁university	-6589
▁bona	-6590
amount	-6591
▁correctly	-6592
SI	-6593
lair	-6594
.....	-6595
▁memo	-6596
▁losses	-6597
▁arrears	-6598
▁computer	-6599
ented	-6600
riven	-6601
▁teaching	-6602
▁threatened	-6603
▁hab	-6604
▁cancellation	-6605
▁Exp	-6606
minent	-6607
▁honour	-6608
▁divorce	-6609
erate	-6610
▁Dub	-6611
▁arm	-6612
ayukta	-6613
ellect	-6614
▁borrower	-6615
▁Committees	-6616
▁nut	-6617
▁inev	-6618
▁stra	-6619
General	-6620
▁killing	-6621
▁violated	-6622
▁illust	-6623
▁Manager	-6624
▁declined	-6625
▁Communist	-6626
tery	-6627
▁Gul	-6628
ocated	-6629
▁Fourth	-6630
▁Session	-6631
ederation	-6632
▁partners	-6633
look	-6634
lation	-6635
▁unique	-6636
▁massive	-6637
▁Designated	-6638
▁entreprene	-6639
▁eld	-6640
▁spent	-6641
▁continuous	-6642
▁Orissa	-6643
▁hostile	-6644
▁excell	-6645
▁Chinese	-6646
▁dismissing	-6647
▁Art	-6648
▁denial	-6649
JP	-6650
▁Pan	-6651
▁crops	-6652
▁phone	-6653
▁defeat	-6654
▁exhaust	-6655
▁offender	-6656
Con	-6657
HAN	-6658
works	-6659
aneous	-6660
▁choose	-6661
▁island	-6662
▁studies	-6663
▁conclude	-6664
▁Roy	-6665
rance	-6666
roller	-6667
▁quick	-6668
▁minutes	-6669
▁clearance	-6670
▁designated	-6671
alli	-6672
ifies	-6673
▁Oper	-6674
▁Found	-6675
▁exact	-6676
▁announ	-6677
ushed	-6678
▁Mohd	-6679
▁roll	-6680
▁beneficial	-6681
▁teleph	-6682
▁priority	-6683
AI	-6684
▁Blair	-6685
▁advis	-6686
▁chair	-6687
iversal	-6688
▁equipment	-6689
▁suggestion	-6690
rah	-6691
▁Ashok	-6692
▁input	-6693
▁Appeals	-6694
▁journal	-6695
▁proceeds	-6696
unc	-6697
wari	-6698
atform	-6699
orrect	-6700
struct	-6701
▁Science	-6702
▁millions	-6703
▁dependent	-6704
kata	-6705
▁inaug	-6706
ria	-6707
▁competition	-6708
Em	-6709
▁Tribes	-6710
leum	-6711
▁Turk	-6712
▁faced	-6713
▁immig	-6714
▁reasonably	-6715
▁Sir	-6716
which	-6717
▁sets	-6718
enders	-6719
▁Claim	-6720
▁corporation	-6721
iche	-6722
▁Hot	-6723
▁admit	-6724
▁chain	-6725
▁offers	-6726
▁encourage	-6727
▁ingredients	-6728
igarh	-6729
▁Judah	-6730
▁attended	-6731
Rs	-6732
UM	-6733
ingly	-6734
▁ultra	-6735
▁signature	-6736
▁Kish	-6737
▁placing	-6738
ader	-6739
garh	-6740
▁Ans	-6741
▁Here	-6742
▁laying	-6743
▁Subject	-6744
▁consists	-6745
▁construct	-6746
▁comprising	-6747
▁MP	-6748
▁Who	-6749
▁yield	-6750
▁Common	-6751
▁Survey	-6752
▁notices	-6753
▁Economic	-6754
▁outstanding	-6755
▁die	-6756
▁Village	-6757
▁insured	-6758
▁Gang	-6759
▁Credit	-6760
▁congrat	-6761
▁preceding	-6762
DS	-6763
TI	-6764
lin	-6765
enda	-6766
▁Tar	-6767
▁pip	-6768
▁Reform	-6769
▁formula	-6770
▁Houses	-6771
▁diplom	-6772
De	-6773
RC	-6774
▁Try	-6775
▁wis	-6776
roleum	-6777
▁absor	-6778
▁licen	-6779
▁piece	-6780
mortem	-6781
▁Being	-6782
▁adult	-6783
▁Democrat	-6784
▁Equality	-6785
▁CP	-6786
vance	-6787
▁strategy	-6788
▁Australian	-6789
EF	-6790
eck	-6791
▁Add	-6792
▁Sanj	-6793
▁comments	-6794
▁appearance	-6795
▁improvement	-6796
asi	-6797
aut	-6798
ails	-6799
▁mouth	-6800
▁reflected	-6801
▁relate	-6802
▁undertake	-6803
▁imperialism	-6804
writ	-6805
▁gar	-6806
▁urg	-6807
▁subjects	-6808
▁increasingly	-6809
▁representing	-6810
▁RI	-6811
eous	-6812
upon	-6813
▁Var	-6814
▁nominated	-6815
▁labor	-6816
▁advised	-6817
▁landing	-6818
▁computing	-6819
▁foregoing	-6820
CP	-6821
▁Lie	-6822
▁१६	-6823
iginal	-6824
▁pleasure	-6825
izes	-6826
ogue	-6827
▁facing	-6828
▁showed	-6829
asia	-6830
▁Kore	-6831
asions	-6832
▁expos	-6833
▁implied	-6834
▁bilateral	-6835
▁limitations	-6836
▁suggestions	-6837
▁negotiations	-6838
ls	-6839
SCC	-6840
▁dim	-6841
▁path	-6842
▁producer	-6843
▁forwarded	-6844
agon	-6845
oday	-6846
▁deprived	-6847
▁ascertain	-6848
▁depending	-6849
▁eventually	-6850
mun	-6851
▁rect	-6852
▁undue	-6853
▁prepare	-6854
▁prosperity	-6855
▁asp	-6856
▁Each	-6857
▁spite	-6858
▁deploy	-6859
▁fourth	-6860
▁Arbitral	-6861
▁Dal	-6862
▁BCCI	-6863
iveness	-6864
▁torture	-6865
▁morality	-6866
▁household	-6867
isp	-6868
▁bed	-6869
▁Note	-6870
▁leads	-6871
▁colour	-6872
▁planned	-6873
bar	-6874
gone	-6875
▁dro	-6876
rants	-6877
▁wise	-6878
▁deposits	-6879
▁rejecting	-6880
▁repeatedly	-6881
▁masses	-6882
▁propri	-6883
isher	-6884
▁Rev	-6885
empted	-6886
essees	-6887
▁ideas	-6888
▁surrender	-6889
ora	-6890
▁Mun	-6891
▁sacrif	-6892
▁inadequ	-6893
▁attained	-6894
▁deserves	-6895
▁division	-6896
▁television	-6897
erem	-6898
▁lays	-6899
▁arbitr	-6900
▁appointing	-6901
laws	-6902
▁DEL	-6903
▁Most	-6904
velled	-6905
ressive	-6906
▁trading	-6907
▁Category	-6908
▁Himachal	-6909
▁previously	-6910
▁Av	-6911
▁Az	-6912
▁Imp	-6913
igent	-6914
▁divid	-6915
▁patients	-6916
bhai	-6917
ilos	-6918
ompl	-6919
▁domain	-6920
▁traffic	-6921
▁Digitally	-6922
▁originally	-6923
known	-6924
▁Yadav	-6925
▁persu	-6926
▁Notice	-6927
▁titled	-6928
▁Russian	-6929
▁clothes	-6930
▁involve	-6931
▁incorrect	-6932
▁kid	-6933
▁foot	-6934
ceived	-6935
enable	-6936
uality	-6937
▁specify	-6938
▁reliable	-6939
▁Chairperson	-6940
otal	-6941
oviet	-6942
▁stages	-6943
prudence	-6944
▁yesterday	-6945
▁oath	-6946
▁wants	-6947
▁height	-6948
▁toward	-6949
▁hundreds	-6950
▁supporters	-6951
we	-6952
▁box	-6953
▁variety	-6954
▁workman	-6955
▁advertisement	-6956
▁bit	-6957
▁inher	-6958
▁Marriage	-6959
▁promoting	-6960
asc	-6961
amber	-6962
iates	-6963
▁psych	-6964
▁incent	-6965
▁Managing	-6966
▁integral	-6967
▁certified	-6968
oph	-6969
umn	-6970
dden	-6971
▁uses	-6972
▁Moses	-6973
▁indul	-6974
▁spect	-6975
▁emerged	-6976
▁reveals	-6977
▁admittedly	-6978
▁Mond	-6979
▁aband	-6980
▁tests	-6981
▁recons	-6982
ordinary	-6983
▁dispose	-6984
▁permits	-6985
▁worship	-6986
▁biometric	-6987
▁efficiency	-6988
▁imperative	-6989
ima	-6990
▁Authorities	-6991
inqu	-6992
▁star	-6993
▁Rural	-6994
▁essence	-6995
▁Transfer	-6996
▁rehabilitation	-6997
▁tank	-6998
▁Women	-6999
▁interpreting	-7000
▁goal	-7001
▁Gopal	-7002
▁Palestinian	-7003
▁sle	-7004
▁Branch	-7005
▁behold	-7006
.00	-7007
▁hor	-7008
▁prevailing	-7009
▁infring	-7010
▁purview	-7011
▁Property	-7012
▁Verified	-7013
▁informant	-7014
▁consequently	-7015
▁Crime	-7016
▁Patna	-7017
▁royal	-7018
▁serving	-7019
▁behaviour	-7020
▁similarly	-7021
rots	-7022
▁approx	-7023
▁hardly	-7024
oples	-7025
▁brut	-7026
▁Awards	-7027
▁attempted	-7028
▁implication	-7029
ushan	-7030
▁perf	-7031
▁pret	-7032
▁domin	-7033
▁Consid	-7034
▁vacancy	-7035
▁Engineers	-7036
▁electoral	-7037
▁convention	-7038
cks	-7039
Comp	-7040
nergy	-7041
▁soil	-7042
▁inclusive	-7043
▁Yet	-7044
▁cum	-7045
ications	-7046
▁Standing	-7047
▁liabilities	-7048
▁feet	-7049
▁solely	-7050
▁wisdom	-7051
aneously	-7052
▁multiple	-7053
▁societies	-7054
Civil	-7055
assed	-7056
▁arch	-7057
▁seem	-7058
ducing	-7059
▁roads	-7060
▁voters	-7061
▁jointly	-7062
▁perused	-7063
▁demanding	-7064
▁authentication	-7065
▁IST	-7066
verse	-7067
▁code	-7068
▁Final	-7069
▁Issue	-7070
▁White	-7071
▁fifty	-7072
▁dishon	-7073
▁tenancy	-7074
ellectual	-7075
mal	-7076
▁multi	-7077
▁reveal	-7078
▁adduced	-7079
▁producing	-7080
▁Chh	-7081
▁districts	-7082
och	-7083
▁Kamal	-7084
▁south	-7085
▁formulated	-7086
▁initiative	-7087
uit	-7088
ario	-7089
rotsky	-7090
▁becoming	-7091
▁equitable	-7092
▁shareholders	-7093
▁gift	-7094
▁waters	-7095
▁entities	-7096
▁Constituent	-7097
▁differences	-7098
HER	-7099
oles	-7100
igible	-7101
▁incidental	-7102
▁introduction	-7103
▁modification	-7104
appa	-7105
▁NEW	-7106
▁tell	-7107
riages	-7108
resident	-7109
▁Exhibit	-7110
▁observe	-7111
▁perhaps	-7112
▁usually	-7113
▁territories	-7114
ugu	-7115
▁UGC	-7116
▁outset	-7117
▁Clauses	-7118
▁Chancellor	-7119
▁compulsory	-7120
▁enterprise	-7121
▁learn	-7122
▁adverted	-7123
▁platform	-7124
▁confident	-7125
▁investments	-7126
rans	-7127
▁unauthor	-7128
▁destroyed	-7129
▁difficulty	-7130
mise	-7131
oted	-7132
▁JVP	-7133
enant	-7134
public	-7135
▁socio	-7136
▁promise	-7137
▁consolid	-7138
▁cancelled	-7139
▁prisoners	-7140
▁IS	-7141
ecause	-7142
▁unnecessary	-7143
AIR	-7144
▁IC	-7145
based	-7146
▁chance	-7147
▁faculty	-7148
▁autonomy	-7149
▁Chandigarh	-7150
▁PWs	-7151
▁milk	-7152
▁resc	-7153
▁shock	-7154
▁disturb	-7155
▁exclude	-7156
ATE	-7157
iya	-7158
▁AM	-7159
▁alive	-7160
▁deeds	-7161
▁fault	-7162
theless	-7163
tificates	-7164
▁location	-7165
▁occasions	-7166
▁Prevention	-7167
arsh	-7168
▁cat	-7169
rapali	-7170
▁forfe	-7171
▁lawyers	-7172
▁undergone	-7173
nov	-7174
▁Inc	-7175
▁hop	-7176
alaya	-7177
chand	-7178
▁table	-7179
▁Consumer	-7180
aly	-7181
uti	-7182
rosy	-7183
▁Mer	-7184
▁raw	-7185
▁felicitations	-7186
▁discriminatory	-7187
icity	-7188
▁Soviet	-7189
▁warned	-7190
ensation	-7191
▁presently	-7192
no	-7193
▁VII	-7194
▁pal	-7195
▁Great	-7196
▁compr	-7197
▁largely	-7198
▁punished	-7199
▁monitoring	-7200
▁isol	-7201
▁waste	-7202
emphasis	-7203
▁assumed	-7204
▁Foundation	-7205
▁indirectly	-7206
▁institutional	-7207
▁sch	-7208
▁wel	-7209
power	-7210
▁walk	-7211
anches	-7212
ifteen	-7213
ichever	-7214
▁Object	-7215
Ad	-7216
▁Sr	-7217
orily	-7218
▁incap	-7219
▁fighting	-7220
,0	-7221
▁Bel	-7222
▁east	-7223
irable	-7224
olitan	-7225
▁Sinhala	-7226
▁caution	-7227
▁Amrapali	-7228
▁observing	-7229
xx	-7230
olic	-7231
urate	-7232
▁Three	-7233
▁route	-7234
▁fixing	-7235
▁lawful	-7236
▁multipl	-7237
▁safeguard	-7238
pal	-7239
▁Kaur	-7240
▁male	-7241
▁Forum	-7242
▁vacant	-7243
anguages	-7244
▁competitive	-7245
▁Moham	-7246
atively	-7247
▁summon	-7248
▁viewed	-7249
iciencies	-7250
▁Secondly	-7251
▁murd	-7252
▁driven	-7253
▁leases	-7254
▁Planning	-7255
▁Tribunals	-7256
▁civilians	-7257
▁FOR	-7258
▁hour	-7259
▁sick	-7260
▁buyers	-7261
judicial	-7262
▁Consult	-7263
▁Railways	-7264
ordination	-7265
ava	-7266
cond	-7267
face	-7268
orthy	-7269
▁vers	-7270
▁finger	-7271
▁aggregate	-7272
▁arrangements	-7273
vity	-7274
▁avo	-7275
▁hyp	-7276
▁Telugu	-7277
▁quarter	-7278
▁treating	-7279
▁Sale	-7280
▁zone	-7281
▁escal	-7282
▁cinema	-7283
▁derived	-7284
▁expedit	-7285
▁relevance	-7286
▁Det	-7287
▁ang	-7288
rams	-7289
▁decline	-7290
▁categorically	-7291
▁WS	-7292
irac	-7293
▁Money	-7294
▁batch	-7295
▁green	-7296
▁Estate	-7297
▁Trotsky	-7298
uj	-7299
term	-7300
uddin	-7301
▁aged	-7302
▁Master	-7303
▁qualifying	-7304
▁implementing	-7305
elve	-7306
long	-7307
▁Fac	-7308
▁smugg	-7309
▁liquor	-7310
▁heroine	-7311
▁corporations	-7312
MF	-7313
rum	-7314
▁fill	-7315
▁Eastern	-7316
▁advocates	-7317
Reg	-7318
iest	-7319
icature	-7320
▁accompl	-7321
▁display	-7322
▁refusal	-7323
▁effected	-7324
▁?	-7325
yot	-7326
▁sight	-7327
▁evening	-7328
▁sometimes	-7329
▁territorial	-7330
▁Mur	-7331
▁Teh	-7332
essor	-7333
▁Ramesh	-7334
▁headed	-7335
▁component	-7336
rich	-7337
▁Div	-7338
▁pled	-7339
▁Revision	-7340
▁empowers	-7341
▁insisted	-7342
▁Institutions	-7343
▁Advis	-7344
arkhand	-7345
ropolitan	-7346
▁terminated	-7347
▁demonstrate	-7348
▁departmental	-7349
,"	-7350
▁MO	-7351
akes	-7352
▁valuation	-7353
▁engineering	-7354
eet	-7355
▁Bure	-7356
actory	-7357
▁throw	-7358
ropriate	-7359
▁whichever	-7360
▁expressions	-7361
▁contributions	-7362
▁Ka	-7363
▁god	-7364
abric	-7365
bered	-7366
arency	-7367
▁contest	-7368
mer	-7369
oud	-7370
▁Ro	-7371
▁Why	-7372
▁Front	-7373
▁fired	-7374
▁frequ	-7375
▁intens	-7376
▁software	-7377
▁virtually	-7378
ref	-7379
van	-7380
prec	-7381
▁hes	-7382
▁drugs	-7383
▁silver	-7384
▁Mission	-7385
▁sentencing	-7386
uster	-7387
▁editor	-7388
igilance	-7389
▁Instead	-7390
▁careful	-7391
▁strikes	-7392
▁entertained	-7393
▁Cal	-7394
▁See	-7395
ement	-7396
ertil	-7397
▁awareness	-7398
▁customers	-7399
▁communicated	-7400
MM	-7401
opp	-7402
etic	-7403
▁brib	-7404
▁DELHI	-7405
▁Today	-7406
▁exempt	-7407
▁animals	-7408
▁enables	-7409
▁constitutes	-7410
▁notifications	-7411
▁circumstantial	-7412
iri	-7413
▁Agency	-7414
▁divided	-7415
▁Agriculture	-7416
ba	-7417
▁Gen	-7418
▁jun	-7419
uthan	-7420
▁enqu	-7421
iration	-7422
ulatory	-7423
▁Seventh	-7424
▁pattern	-7425
▁Judicature	-7426
▁affidavits	-7427
usse	-7428
▁Kan	-7429
▁Among	-7430
▁Memorandum	-7431
has	-7432
▁Phar	-7433
ustice	-7434
▁Dubai	-7435
▁watch	-7436
▁concent	-7437
▁putting	-7438
▁separation	-7439
atin	-7440
▁Nath	-7441
▁Annual	-7442
▁leaves	-7443
▁posted	-7444
▁refuge	-7445
▁customs	-7446
▁premium	-7447
▁train	-7448
utenant	-7449
▁pursue	-7450
▁attacked	-7451
▁resolved	-7452
Res	-7453
ena	-7454
icus	-7455
▁sin	-7456
ariat	-7457
▁Conc	-7458
▁enem	-7459
▁rain	-7460
▁Press	-7461
▁deaths	-7462
▁Circular	-7463
▁recourse	-7464
▁departments	-7465
awan	-7466
▁draf	-7467
▁panel	-7468
▁Bureau	-7469
▁animal	-7470
▁immense	-7471
▁retained	-7472
▁wherever	-7473
▁undoubtedly	-7474
ilder	-7475
▁culp	-7476
▁audit	-7477
▁mobil	-7478
zz	-7479
▁Br	-7480
▁gather	-7481
▁exports	-7482
▁superann	-7483
load	-7484
▁cog	-7485
▁burnt	-7486
▁plots	-7487
▁unjust	-7488
▁existed	-7489
▁judicata	-7490
▁Signature	-7491
▁Societies	-7492
icked	-7493
▁Dhan	-7494
▁bags	-7495
▁Labor	-7496
artments	-7497
▁describ	-7498
▁tenants	-7499
▁highlight	-7500
▁Saf	-7501
▁ties	-7502
▁Chirac	-7503
▁Persons	-7504
▁spoken	-7505
▁railway	-7506
SP	-7507
upp	-7508
MENT	-7509
mail	-7510
▁club	-7511
▁imag	-7512
onance	-7513
plaintiff	-7514
▁EC	-7515
▁gr	-7516
▁sam	-7517
▁tour	-7518
utable	-7519
▁Kolkata	-7520
▁prospective	-7521
down	-7522
▁Lik	-7523
stwhile	-7524
▁broadcast	-7525
▁Neh	-7526
▁Shankar	-7527
▁irrigation	-7528
▁exploitation	-7529
▁compelled	-7530
▁exceptional	-7531
fall	-7532
▁quota	-7533
▁sudden	-7534
▁Islamic	-7535
▁summons	-7536
amus	-7537
otic	-7538
▁Tri	-7539
▁item	-7540
▁fraudul	-7541
▁currently	-7542
▁manufacturer	-7543
Cr	-7544
atur	-7545
▁Ham	-7546
being	-7547
▁intr	-7548
▁agenda	-7549
▁reliefs	-7550
▁enforced	-7551
▁inclusion	-7552
▁Lieutenant	-7553
▁signatures	-7554
rition	-7555
▁anger	-7556
▁starting	-7557
▁Jharkhand	-7558
▁appreciated	-7559
▁deficiencies	-7560
OC	-7561
nic	-7562
▁Rat	-7563
ensus	-7564
▁Ravi	-7565
▁dial	-7566
▁obsc	-7567
closed	-7568
▁ammun	-7569
▁endeavour	-7570
▁corroborated	-7571
▁km	-7572
▁WSWS	-7573
▁repl	-7574
▁Ident	-7575
▁wider	-7576
▁erstwhile	-7577
▁jurisprudence	-7578
▁BJP	-7579
▁Pay	-7580
▁fruit	-7581
▁pages	-7582
▁fathers	-7583
statement	-7584
▁residing	-7585
▁Na	-7586
▁SPD	-7587
▁pict	-7588
▁Sales	-7589
▁ahead	-7590
▁converted	-7591
▁Assoc	-7592
▁hotel	-7593
▁Academ	-7594
▁branch	-7595
▁thinks	-7596
▁Because	-7597
▁adoption	-7598
▁juvenile	-7599
▁contractual	-7600
▁Jac	-7601
India	-7602
▁Sand	-7603
▁Paris	-7604
▁turnover	-7605
▁marketing	-7606
▁Sant	-7607
▁Verma	-7608
▁agents	-7609
▁deprec	-7610
▁finality	-7611
▁scenario	-7612
▁contesting	-7613
▁accommodation	-7614
▁Oil	-7615
▁coast	-7616
▁overt	-7617
▁quash	-7618
▁sharp	-7619
▁arrive	-7620
uthanasia	-7621
▁Vin	-7622
▁sun	-7623
chief	-7624
ether	-7625
▁ones	-7626
▁broken	-7627
▁medium	-7628
▁communities	-7629
▁unemployment	-7630
dem	-7631
ICTE	-7632
▁vary	-7633
uniary	-7634
▁bread	-7635
▁failing	-7636
▁constitu	-7637
▁securing	-7638
▁affecting	-7639
▁assessing	-7640
▁NI	-7641
drop	-7642
hana	-7643
▁lessee	-7644
▁ran	-7645
owners	-7646
▁veget	-7647
▁Forces	-7648
▁career	-7649
▁retain	-7650
▁simult	-7651
▁speedy	-7652
rimonial	-7653
▁selling	-7654
DC	-7655
▁Ha	-7656
itated	-7657
▁allott	-7658
▁fifteen	-7659
▁Democrats	-7660
▁admissions	-7661
▁practition	-7662
▁resignation	-7663
▁NJ	-7664
▁hum	-7665
▁Count	-7666
▁Housing	-7667
▁creates	-7668
▁Christian	-7669
rack	-7670
▁Exper	-7671
▁lad	-7672
▁Anand	-7673
▁Nehru	-7674
hension	-7675
▁worker	-7676
▁teacher	-7677
apped	-7678
▁Phil	-7679
▁imped	-7680
▁Mineral	-7681
▁Western	-7682
▁conscience	-7683
OL	-7684
amble	-7685
▁Green	-7686
▁buyer	-7687
itarian	-7688
▁effects	-7689
▁execute	-7690
▁safeguards	-7691
akrish	-7692
econom	-7693
▁Mines	-7694
▁philos	-7695
▁returns	-7696
▁regulating	-7697
FP	-7698
▁inequ	-7699
endants	-7700
rolment	-7701
▁Energy	-7702
▁widely	-7703
▁closely	-7704
▁obliged	-7705
▁powerful	-7706
▁secretary	-7707
▁indicating	-7708
▁investigate	-7709
▁acknowledged	-7710
▁Jose	-7711
▁encro	-7712
▁subxad	-7713
▁whenever	-7714
▁allowances	-7715
▁consonance	-7716
▁Ten	-7717
▁unp	-7718
▁tick	-7719
ustain	-7720
▁restored	-7721
▁Gre	-7722
▁Jos	-7723
otton	-7724
▁purely	-7725
▁mistake	-7726
▁formation	-7727
▁extraordinary	-7728
▁kg	-7729
▁lapse	-7730
▁Web	-7731
igher	-7732
▁dance	-7733
▁shift	-7734
▁fabric	-7735
▁spokes	-7736
sections	-7737
▁achieving	-7738
bas	-7739
uro	-7740
▁Technical	-7741
▁concession	-7742
▁confirmation	-7743
▁(“	-7744
ifiable	-7745
▁lawyer	-7746
iciaries	-7747
atha	-7748
▁easy	-7749
ogether	-7750
resents	-7751
▁stream	-7752
▁collapse	-7753
▁Confessional	-7754
ming	-7755
▁stret	-7756
▁summary	-7757
▁reaching	-7758
▁resource	-7759
NL	-7760
ressal	-7761
▁herself	-7762
▁pollution	-7763
VE	-7764
▁Pad	-7765
erved	-7766
force	-7767
▁gate	-7768
incial	-7769
▁drawing	-7770
▁Lordship	-7771
▁performing	-7772
▁resistance	-7773
▁Considering	-7774
.]	-7775
▁Temple	-7776
▁doubts	-7777
▁easily	-7778
▁remote	-7779
▁considers	-7780
rates	-7781
▁summar	-7782
▁twelve	-7783
▁Building	-7784
▁Urban	-7785
Emphasis	-7786
▁numerous	-7787
▁evaluation	-7788
▁privileges	-7789
acle	-7790
▁Apex	-7791
▁schol	-7792
▁wrongly	-7793
MA	-7794
plus	-7795
▁Bhushan	-7796
▁ancient	-7797
ettlement	-7798
▁daughters	-7799
▁preparing	-7800
▁Jew	-7801
▁Street	-7802
▁regions	-7803
▁venture	-7804
▁winding	-7805
▁transfere	-7806
▁--	-7807
▁NC	-7808
isms	-7809
▁Bud	-7810
▁Fil	-7811
itage	-7812
▁Sunday	-7813
▁Cabinet	-7814
▁Industry	-7815
▁emerging	-7816
▁remember	-7817
akk	-7818
life	-7819
▁steel	-7820
▁purported	-7821
edd	-7822
iman	-7823
oser	-7824
▁Bach	-7825
▁Rajini	-7826
▁escape	-7827
▁filling	-7828
▁Competent	-7829
▁criticism	-7830
▁Regulatory	-7831
▁Enterprises	-7832
▁१७	-7833
▁Tele	-7834
▁neck	-7835
▁phrase	-7836
▁offensive	-7837
LR	-7838
▁Ban	-7839
▁NJAC	-7840
▁sequ	-7841
rolling	-7842
▁asking	-7843
▁brings	-7844
▁speaks	-7845
▁council	-7846
▁succession	-7847
▁demonstration	-7848
TS	-7849
osit	-7850
▁canv	-7851
▁legality	-7852
▁enhancement	-7853
▁contradictions	-7854
▁Sha	-7855
▁Innov	-7856
▁annex	-7857
▁Keeping	-7858
▁Workers	-7859
▁altered	-7860
▁accorded	-7861
▁employers	-7862
▁regulated	-7863
▁permitting	-7864
▁NIT	-7865
▁Sinha	-7866
certain	-7867
▁Sanjay	-7868
▁decade	-7869
▁Nothing	-7870
▁AD	-7871
▁SA	-7872
▁nav	-7873
▁Upon	-7874
▁sword	-7875
aterial	-7876
▁besides	-7877
▁handling	-7878
▁Petitions	-7879
▁institute	-7880
▁represents	-7881
▁Agricultural	-7882
▁developments	-7883
▁technologies	-7884
aon	-7885
▁SI	-7886
▁AICTE	-7887
▁conting	-7888
▁stopped	-7889
▁reducing	-7890
▁reversed	-7891
▁components	-7892
▁memorandum	-7893
RD	-7894
▁Mat	-7895
▁Six	-7896
▁bare	-7897
▁Reforms	-7898
▁changing	-7899
▁computed	-7900
▁averments	-7901
▁compassion	-7902
▁rely	-7903
▁symb	-7904
▁refuse	-7905
▁sharing	-7906
▁Metropolitan	-7907
fire	-7908
coming	-7909
▁forthwith	-7910
ils	-7911
▁Gan	-7912
▁Data	-7913
▁Asian	-7914
▁Paper	-7915
▁stone	-7916
economic	-7917
▁channels	-7918
▁enactments	-7919
▁indication	-7920
Is	-7921
pla	-7922
unk	-7923
itect	-7924
lihood	-7925
▁unity	-7926
▁linked	-7927
▁Without	-7928
▁discrep	-7929
▁rendering	-7930
ports	-7931
▁acid	-7932
▁conj	-7933
▁Advocates	-7934
▁Employees	-7935
▁Pakistani	-7936
▁dy	-7937
▁Steel	-7938
▁fairly	-7939
▁propag	-7940
▁neighbour	-7941
ald	-7942
cher	-7943
rained	-7944
itnesses	-7945
▁Bharati	-7946
▁extending	-7947
▁intellectual	-7948
▁collaboration	-7949
ox	-7950
▁Us	-7951
▁ste	-7952
▁doll	-7953
▁vest	-7954
idance	-7955
▁Canada	-7956
▁settle	-7957
▁Investigation	-7958
alam	-7959
ffect	-7960
▁remarks	-7961
▁mitigating	-7962
▁Mc	-7963
▁Naz	-7964
▁acre	-7965
▁video	-7966
reening	-7967
▁incumb	-7968
▁priest	-7969
▁juncture	-7970
▁licensee	-7971
▁hospitals	-7972
▁irrelevant	-7973
ndra	-7974
pread	-7975
▁explicit	-7976
▁cognizable	-7977
▁pronounced	-7978
▁approximately	-7979
▁CE	-7980
pled	-7981
▁vul	-7982
▁debts	-7983
▁enorm	-7984
▁enterprises	-7985
pers	-7986
▁bills	-7987
ariness	-7988
▁Neither	-7989
▁SU	-7990
▁Num	-7991
herry	-7992
▁Good	-7993
▁Gram	-7994
▁lose	-7995
▁Maruti	-7996
▁client	-7997
▁retail	-7998
▁evolved	-7999
▁alliance	-8000
▁attitude	-8001
▁substitute	-8002
jit	-8003
anti	-8004
▁Pune	-8005
▁moving	-8006
▁interpret	-8007
▁Investment	-8008
▁superannuation	-8009
vin	-8010
urch	-8011
hement	-8012
▁Language	-8013
▁contribute	-8014
▁dream	-8015
▁personally	-8016
▁preference	-8017
▁installation	-8018
▁:-	-8019
▁van	-8020
▁Megh	-8021
▁Motor	-8022
▁ec	-8023
▁Nep	-8024
▁pil	-8025
▁Ibid	-8026
▁Hotel	-8027
estival	-8028
▁season	-8029
▁practical	-8030
▁certificates	-8031
▁beneficiaries	-8032
▁demonstrations	-8033
arded	-8034
▁posed	-8035
▁rising	-8036
▁missing	-8037
▁royalty	-8038
▁replaced	-8039
▁subscrib	-8040
oves	-8041
▁hrs	-8042
eries	-8043
▁Bagh	-8044
ribution	-8045
▁branches	-8046
▁covering	-8047
▁initiate	-8048
▁extensive	-8049
▁suspicion	-8050
▁conformity	-8051
▁stipulates	-8052
▁demonstrated	-8053
▁cam	-8054
▁bott	-8055
▁minds	-8056
▁white	-8057
▁origin	-8058
▁presumed	-8059
aph	-8060
wide	-8061
active	-8062
▁Guard	-8063
▁earned	-8064
▁credibility	-8065
WC	-8066
▁).	-8067
amma	-8068
dict	-8069
▁Ahm	-8070
▁adul	-8071
amation	-8072
▁delayed	-8073
▁empower	-8074
▁heading	-8075
▁resolve	-8076
omination	-8077
▁detained	-8078
▁classified	-8079
▁protecting	-8080
▁matrimonial	-8081
▁entrepreneurs	-8082
▁TV	-8083
▁deny	-8084
▁tensions	-8085
▁generated	-8086
▁bourgeoisie	-8087
▁Administrator	-8088
DU	-8089
▁NCT	-8090
erent	-8091
inter	-8092
▁soul	-8093
▁Mehta	-8094
▁recip	-8095
▁Higher	-8096
▁expired	-8097
▁possibly	-8098
▁telephone	-8099
▁assumption	-8100
gers	-8101
▁Venk	-8102
ipping	-8103
▁enunc	-8104
▁invoking	-8105
care	-8106
▁Kap	-8107
▁upper	-8108
▁Indeed	-8109
ustainable	-8110
▁Exh	-8111
▁fulfill	-8112
▁threats	-8113
▁illegality	-8114
▁interfered	-8115
DI	-8116
vii	-8117
ners	-8118
▁Deb	-8119
▁NAT	-8120
Company	-8121
▁heaven	-8122
▁lesser	-8123
▁Inquiry	-8124
▁eminent	-8125
▁Teachers	-8126
▁municipal	-8127
▁positions	-8128
▁Republican	-8129
▁Independence	-8130
▁Bhut	-8131
▁cogent	-8132
▁monetary	-8133
▁difficulties	-8134
▁CJ	-8135
sures	-8136
▁sake	-8137
orders	-8138
▁motiv	-8139
▁assailed	-8140
▁improper	-8141
▁claimants	-8142
▁NS	-8143
seas	-8144
▁Leban	-8145
▁incon	-8146
▁newly	-8147
▁double	-8148
▁Controller	-8149
▁revisional	-8150
▁composition	-8151
LA	-8152
endix	-8153
▁Ranj	-8154
▁shut	-8155
▁deduct	-8156
▁happen	-8157
▁integrated	-8158
▁anticipatory	-8159
Act	-8160
ums	-8161
▁BS	-8162
iful	-8163
▁pit	-8164
▁nexus	-8165
ante	-8166
▁Mohammed	-8167
▁Lokayukta	-8168
▁gap	-8169
▁Paul	-8170
▁Bangl	-8171
Section	-8172
▁inflicted	-8173
▁Cooperative	-8174
aved	-8175
▁Sik	-8176
▁tab	-8177
▁vex	-8178
▁mission	-8179
▁Likewise	-8180
▁spending	-8181
▁insolvency	-8182
▁kidn	-8183
▁Georg	-8184
▁blind	-8185
▁kinds	-8186
▁skills	-8187
ictionary	-8188
▁therewith	-8189
▁voluntarily	-8190
▁transparency	-8191
▁Treat	-8192
▁magaz	-8193
▁George	-8194
▁Jaipur	-8195
▁assured	-8196
▁furnishing	-8197
▁confidential	-8198
gue	-8199
▁AF	-8200
ourage	-8201
▁trained	-8202
▁distributed	-8203
▁orientation	-8204
▁sealed	-8205
idespread	-8206
▁amending	-8207
▁improving	-8208
▁pronounce	-8209
▁livelihood	-8210
▁strengthening	-8211
%.	-8212
▁Es	-8213
cers	-8214
eals	-8215
lands	-8216
ussain	-8217
▁thank	-8218
▁Behold	-8219
▁vitiated	-8220
EE	-8221
itha	-8222
uliar	-8223
utors	-8224
▁race	-8225
▁combined	-8226
▁Assessment	-8227
▁productivity	-8228
gi	-8229
unga	-8230
▁Town	-8231
▁surplus	-8232
▁successfully	-8233
OP	-8234
On	-8235
▁Dam	-8236
▁Ord	-8237
▁spl	-8238
▁holy	-8239
▁Privy	-8240
▁bless	-8241
▁confers	-8242
▁discharging	-8243
▁kil	-8244
▁reck	-8245
▁gender	-8246
▁revolutionary	-8247
Ar	-8248
da	-8249
laration	-8250
▁remission	-8251
ips	-8252
quar	-8253
▁Siv	-8254
uated	-8255
▁Site	-8256
▁bull	-8257
rating	-8258
emption	-8259
uestion	-8260
▁belongs	-8261
▁emphasized	-8262
▁Petitioners	-8263
▁establishments	-8264
IG	-8265
MT	-8266
gery	-8267
▁ore	-8268
▁Mere	-8269
▁Prat	-8270
▁chart	-8271
▁exhib	-8272
▁deeply	-8273
▁master	-8274
▁solemn	-8275
▁discont	-8276
▁peculiar	-8277
▁installed	-8278
▁requisition	-8279
▁auto	-8280
▁aggrav	-8281
▁Narayan	-8282
▁backdrop	-8283
▁prevented	-8284
▁conclusive	-8285
▁instruments	-8286
car	-8287
▁Anil	-8288
▁theat	-8289
▁instances	-8290
▁occurring	-8291
▁widespread	-8292
raman	-8293
aulted	-8294
▁ended	-8295
▁saved	-8296
.......	-8297
▁contends	-8298
▁duration	-8299
▁unfortun	-8300
▁allocated	-8301
▁injustice	-8302
▁pecuniary	-8303
▁prescribe	-8304
▁discipline	-8305
▁transferee	-8306
cum	-8307
loc	-8308
abil	-8309
▁Rai	-8310
▁Rest	-8311
▁drew	-8312
▁surrounding	-8313
DF	-8314
▁tim	-8315
ysore	-8316
▁Life	-8317
venant	-8318
ography	-8319
▁manage	-8320
▁disaster	-8321
▁supplies	-8322
▁incidents	-8323
▁attributed	-8324
EB	-8325
PP	-8326
▁user	-8327
isable	-8328
▁trees	-8329
▁omitted	-8330
▁vehement	-8331
▁imperialist	-8332
▁00	-8333
▁fle	-8334
▁sla	-8335
▁Radh	-8336
▁pist	-8337
▁assert	-8338
▁seeing	-8339
▁Process	-8340
▁cheques	-8341
roportion	-8342
▁Disputes	-8343
▁promised	-8344
▁stability	-8345
▁Principles	-8346
ke	-8347
dis	-8348
erring	-8349
ussein	-8350
▁reserves	-8351
▁ourselves	-8352
▁concessions	-8353
▁Thak	-8354
▁assume	-8355
▁exchan	-8356
RS	-8357
yle	-8358
▁Lit	-8359
▁skill	-8360
▁trend	-8361
▁Patent	-8362
▁desired	-8363
▁healthy	-8364
▁assuming	-8365
lal	-8366
ITION	-8367
▁MSME	-8368
▁uncle	-8369
▁Monday	-8370
▁executing	-8371
▁sensitive	-8372
/-.	-8373
▁eve	-8374
▁adopting	-8375
▁strongly	-8376
▁languages	-8377
▁constituting	-8378
opy	-8379
▁truck	-8380
▁twice	-8381
▁taxable	-8382
▁structures	-8383
▁presentation	-8384
▁impermissible	-8385
oe	-8386
bir	-8387
fort	-8388
▁Opp	-8389
▁Doct	-8390
▁girls	-8391
▁grown	-8392
ardship	-8393
▁covers	-8394
▁earning	-8395
▁everyone	-8396
▁euthanasia	-8397
▁computation	-8398
')	-8399
▁La	-8400
▁MB	-8401
▁di	-8402
▁wait	-8403
▁Muslims	-8404
ideration	-8405
ulg	-8406
▁rob	-8407
attis	-8408
▁dark	-8409
▁deten	-8410
▁maxim	-8411
▁preserve	-8412
▁elaborate	-8413
▁universal	-8414
▁depreciation	-8415
che	-8416
▁DG	-8417
para	-8418
what	-8419
▁scri	-8420
▁Sever	-8421
▁engage	-8422
▁marginal	-8423
▁remedies	-8424
pass	-8425
harraf	-8426
▁Korea	-8427
▁Secondary	-8428
▁Furthermore	-8429
vert	-8430
▁Sud	-8431
▁quo	-8432
▁Chow	-8433
▁cess	-8434
▁begin	-8435
▁fatal	-8436
▁mines	-8437
▁Hussein	-8438
ICE	-8439
iant	-8440
▁abet	-8441
applic	-8442
▁Laksh	-8443
▁panch	-8444
▁unequ	-8445
▁fairness	-8446
▁AW	-8447
▁rej	-8448
▁Pass	-8449
▁blocks	-8450
▁vulner	-8451
▁samples	-8452
▁delegation	-8453
▁magn	-8454
▁Purch	-8455
▁simpl	-8456
▁accrued	-8457
▁pressed	-8458
attisgarh	-8459
▁occupied	-8460
▁programs	-8461
▁desirable	-8462
▁organised	-8463
▁uncertain	-8464
▁engagement	-8465
inee	-8466
nsic	-8467
iscal	-8468
▁Prem	-8469
▁beat	-8470
▁inputs	-8471
▁assertion	-8472
▁Securities	-8473
▁explosives	-8474
▁supervision	-8475
▁deliberately	-8476
▁legislations	-8477
amin	-8478
onym	-8479
▁Pow	-8480
▁empt	-8481
▁inhab	-8482
istries	-8483
▁Please	-8484
▁helped	-8485
▁fiction	-8486
▁warning	-8487
iday	-8488
▁CHA	-8489
▁Din	-8490
▁shel	-8491
▁thor	-8492
▁Musharraf	-8493
▁responded	-8494
▁provisional	-8495
▁simultaneously	-8496
eshwar	-8497
▁measuring	-8498
▁stakeholders	-8499
Crl	-8500
▁Dar	-8501
▁Junior	-8502
▁cement	-8503
▁Reasons	-8504
▁heavily	-8505
▁predecess	-8506
▁Bangladesh	-8507
pat	-8508
▁Sush	-8509
arding	-8510
▁accus	-8511
▁facto	-8512
▁marry	-8513
ressing	-8514
▁everything	-8515
▁disabilities	-8516
ki	-8517
pay	-8518
asan	-8519
rical	-8520
ractor	-8521
▁mandamus	-8522
iae	-8523
▁Test	-8524
▁bidd	-8525
▁Local	-8526
▁image	-8527
▁Several	-8528
▁sending	-8529
▁hardship	-8530
▁northern	-8531
▁Settlement	-8532
▁Subsequently	-8533
uru	-8534
▁Jee	-8535
▁vic	-8536
▁trou	-8537
aining	-8538
engers	-8539
▁unlike	-8540
▁climate	-8541
▁closure	-8542
▁administer	-8543
▁contending	-8544
Wh	-8545
▁Rem	-8546
▁convers	-8547
▁excessive	-8548
▁inadequate	-8549
nty	-8550
arya	-8551
▁Van	-8552
inous	-8553
point	-8554
▁brid	-8555
▁vice	-8556
atunga	-8557
▁homes	-8558
▁online	-8559
▁Freedom	-8560
▁victory	-8561
▁litigant	-8562
▁philosop	-8563
▁enrolment	-8564
▁regularly	-8565
iban	-8566
▁USA	-8567
▁hect	-8568
▁mala	-8569
▁shops	-8570
ulative	-8571
▁diseases	-8572
▁fixation	-8573
▁interrog	-8574
▁therefrom	-8575
▁compensatory	-8576
▁discretionary	-8577
ux	-8578
uck	-8579
wer	-8580
▁NAB	-8581
▁Poll	-8582
▁grade	-8583
▁Conduct	-8584
▁someone	-8585
▁Commerce	-8586
▁relaxation	-8587
▁Kumaratunga	-8588
▁disqualified	-8589
▁implications	-8590
shall	-8591
▁fertil	-8592
▁Kingdom	-8593
▁Through	-8594
▁forming	-8595
▁commencing	-8596
▁politicians	-8597
▁administered	-8598
▁Ca	-8599
eces	-8600
▁hoc	-8601
Su	-8602
▁Lo	-8603
▁Kir	-8604
▁Neg	-8605
ignty	-8606
ietnam	-8607
▁Mahat	-8608
▁embod	-8609
▁goals	-8610
▁sugar	-8611
▁Suresh	-8612
▁falsely	-8613
▁literal	-8614
▁prisoner	-8615
▁RD	-8616
ijing	-8617
▁Deep	-8618
▁fled	-8619
▁runs	-8620
▁frust	-8621
▁backed	-8622
▁screen	-8623
▁guidance	-8624
▁Judiciary	-8625
▁producers	-8626
▁transmission	-8627
kin	-8628
aped	-8629
arden	-8630
ulled	-8631
urism	-8632
▁brand	-8633
▁launch	-8634
▁tested	-8635
▁commodity	-8636
▁upholding	-8637
▁DW	-8638
room	-8639
▁Amb	-8640
▁Lic	-8641
obile	-8642
▁blow	-8643
▁intermed	-8644
▁Stalinist	-8645
▁amounting	-8646
▁illegally	-8647
▁sanctions	-8648
▁differently	-8649
TC	-8650
▁Gold	-8651
▁Gree	-8652
▁abst	-8653
▁couple	-8654
▁emerge	-8655
▁praying	-8656
▁Meghalaya	-8657
udi	-8658
icks	-8659
stone	-8660
▁Vide	-8661
▁Taking	-8662
▁ending	-8663
▁oppose	-8664
▁Deposition	-8665
▁Limitation	-8666
▁grievances	-8667
GR	-8668
iven	-8669
house	-8670
▁journ	-8671
▁pi	-8672
alle	-8673
▁Lep	-8674
ample	-8675
archy	-8676
▁Farm	-8677
▁hall	-8678
▁pipel	-8679
▁editorial	-8680
▁apparently	-8681
▁suppression	-8682
anim	-8683
chnama	-8684
▁manip	-8685
▁surve	-8686
▁ceased	-8687
▁temper	-8688
▁colonial	-8689
▁deficiency	-8690
▁unilateral	-8691
▁dissolution	-8692
rage	-8693
sett	-8694
▁Rav	-8695
▁dry	-8696
▁wood	-8697
ruptcy	-8698
▁oppon	-8699
▁quasi	-8700
▁reserve	-8701
▁tourism	-8702
▁alleging	-8703
▁dangerous	-8704
▁exceptions	-8705
▁convenience	-8706
▁furtherance	-8707
▁undertakings	-8708
▁Cro	-8709
ailed	-8710
▁rede	-8711
▁Journal	-8712
▁violate	-8713
▁independently	-8714
Se	-8715
inct	-8716
ander	-8717
ician	-8718
inton	-8719
▁revol	-8720
▁Establ	-8721
iversary	-8722
mittedly	-8723
▁ongoing	-8724
▁periods	-8725
▁adversely	-8726
▁Declaration	-8727
▁participating	-8728
IP	-8729
ensing	-8730
ricket	-8731
▁bonds	-8732
▁utter	-8733
▁Greens	-8734
▁Mysore	-8735
▁species	-8736
akrishnan	-8737
▁tribunals	-8738
▁Commissioners	-8739
▁CS	-8740
aken	-8741
alities	-8742
▁Indira	-8743
▁Joseph	-8744
▁Beijing	-8745
▁Vietnam	-8746
▁illness	-8747
▁attorney	-8748
▁narrated	-8749
▁marriages	-8750
Ms	-8751
dar	-8752
▁MA	-8753
rent	-8754
▁lieu	-8755
rection	-8756
▁Letter	-8757
▁infirm	-8758
▁answers	-8759
▁perfect	-8760
▁shifted	-8761
unication	-8762
▁contrast	-8763
compliance	-8764
▁investigations	-8765
VC	-8766
akar	-8767
▁UID	-8768
making	-8769
▁Malay	-8770
▁harmon	-8771
▁thrown	-8772
locutory	-8773
▁whereof	-8774
abh	-8775
▁allows	-8776
▁termed	-8777
▁enforceable	-8778
aling	-8779
▁camps	-8780
▁NABARD	-8781
▁inherit	-8782
▁specially	-8783
▁altogether	-8784
▁Directorate	-8785
▁Mu	-8786
ador	-8787
▁curt	-8788
▁Instru	-8789
▁guided	-8790
▁managed	-8791
▁primacy	-8792
▁proving	-8793
▁chairman	-8794
▁overlook	-8795
TH	-8796
UK	-8797
eda	-8798
ugn	-8799
▁Mas	-8800
▁NATO	-8801
▁figh	-8802
▁Vehic	-8803
ointment	-8804
▁avoided	-8805
▁Admittedly	-8806
▁hereinafter	-8807
▁arbitrariness	-8808
This	-8809
▁Nig	-8810
cript	-8811
▁Caste	-8812
▁ambig	-8813
▁column	-8814
▁supers	-8815
▁Nariman	-8816
▁cutting	-8817
▁civilian	-8818
▁perverse	-8819
▁tendered	-8820
▁Vigilance	-8821
▁incumbent	-8822
▁committees	-8823
▁disproportion	-8824
dam	-8825
iat	-8826
▁MC	-8827
▁Bad	-8828
▁Ser	-8829
▁flag	-8830
▁elder	-8831
▁internationally	-8832
lo	-8833
▁Rak	-8834
iments	-8835
Appeals	-8836
▁uphold	-8837
▁secular	-8838
▁reproduce	-8839
▁secondary	-8840
▁contributed	-8841
ipp	-8842
▁Cur	-8843
▁Luc	-8844
▁tune	-8845
▁Major	-8846
▁Model	-8847
▁Pursu	-8848
▁scenes	-8849
▁prevention	-8850
sell	-8851
▁Mrs	-8852
ipped	-8853
▁Coal	-8854
ilitary	-8855
▁exceeds	-8856
▁surface	-8857
▁resorted	-8858
▁striking	-8859
bl	-8860
zen	-8861
▁fet	-8862
▁tea	-8863
astic	-8864
▁drop	-8865
▁actor	-8866
▁flood	-8867
▁remem	-8868
▁spons	-8869
▁confisc	-8870
▁coupled	-8871
▁earliest	-8872
▁reporting	-8873
▁questioning	-8874
▁IA	-8875
▁Bah	-8876
▁Card	-8877
▁Pent	-8878
▁Wall	-8879
▁Recomm	-8880
▁deducted	-8881
▁comprised	-8882
▁impression	-8883
▁Departments	-8884
▁apprehension	-8885
coh	-8886
▁Pate	-8887
▁fate	-8888
▁roles	-8889
▁assignment	-8890
▁Examination	-8891
▁sovereignty	-8892
dad	-8893
▁IR	-8894
▁TRA	-8895
stated	-8896
▁Against	-8897
▁diverse	-8898
▁Children	-8899
▁customer	-8900
▁enacting	-8901
▁discovery	-8902
▁PRO	-8903
iques	-8904
ronics	-8905
▁Sharon	-8906
▁disreg	-8907
▁nominee	-8908
▁renewed	-8909
▁restore	-8910
▁respects	-8911
▁assessees	-8912
▁expedient	-8913
▁ep	-8914
elam	-8915
▁Han	-8916
▁ven	-8917
▁rice	-8918
▁abund	-8919
▁Vikram	-8920
▁pleased	-8921
▁invested	-8922
▁excluding	-8923
▁enl	-8924
▁ensh	-8925
umping	-8926
▁licences	-8927
▁mandates	-8928
▁thorough	-8929
▁Professor	-8930
▁expertise	-8931
▁vehemently	-8932
▁formulation	-8933
▁jurisdictional	-8934
agan	-8935
▁Band	-8936
▁sand	-8937
igious	-8938
▁Armed	-8939
▁knows	-8940
whether	-8941
▁fallen	-8942
▁delinqu	-8943
▁generating	-8944
▁consistently	-8945
▁CL	-8946
▁Due	-8947
▁Fact	-8948
▁remun	-8949
▁vague	-8950
▁suffers	-8951
▁enormous	-8952
▁emphasised	-8953
▁Environmental	-8954
eas	-8955
wood	-8956
▁scales	-8957
▁meantime	-8958
ilal	-8959
auvin	-8960
▁accum	-8961
)]	-8962
▁bars	-8963
cludes	-8964
uments	-8965
▁belonged	-8966
▁prohibit	-8967
▁Employment	-8968
If	-8969
▁BY	-8970
pura	-8971
▁Arch	-8972
▁infer	-8973
▁ballot	-8974
▁fulfil	-8975
▁arriving	-8976
▁prominent	-8977
▁restoration	-8978
thi	-8979
trans	-8980
matter	-8981
▁Raman	-8982
▁quote	-8983
▁Online	-8984
▁Undert	-8985
▁depriv	-8986
▁treaty	-8987
▁testing	-8988
▁supplementary	-8989
lap	-8990
▁Od	-8991
▁web	-8992
▁airc	-8993
▁aspir	-8994
▁react	-8995
▁track	-8996
▁treas	-8997
▁Letters	-8998
▁Pursuant	-8999
▁expectation	-9000
▁automatically	-9001
HO	-9002
▁१८	-9003
iagn	-9004
▁Nic	-9005
iency	-9006
▁Open	-9007
▁mine	-9008
▁preval	-9009
▁ceiling	-9010
▁intimid	-9011
▁contraband	-9012
▁fraudulent	-9013
▁Construction	-9014
whel	-9015
▁widow	-9016
▁Objects	-9017
▁extends	-9018
▁possessed	-9019
▁deliberate	-9020
▁prescribes	-9021
▁reputation	-9022
▁photographs	-9023
▁progressive	-9024
▁transparent	-9025
▁Bro	-9026
▁Nam	-9027
▁Vad	-9028
▁Hand	-9029
▁Mish	-9030
▁package	-9031
▁Ahmedabad	-9032
▁apprehend	-9033
▁bureaucracy	-9034
▁endorsement	-9035
▁UT	-9036
▁id	-9037
▁Bills	-9038
quarters	-9039
▁Baghdad	-9040
▁Pentagon	-9041
▁apposite	-9042
▁coverage	-9043
/­	-9044
FC	-9045
mo	-9046
rowd	-9047
ccess	-9048
▁Time	-9049
▁unsu	-9050
▁Death	-9051
▁solid	-9052
▁grants	-9053
▁annexed	-9054
▁chauvin	-9055
▁decreed	-9056
▁Original	-9057
▁reinstatement	-9058
aked	-9059
▁Bet	-9060
▁Area	-9061
atious	-9062
▁Ahmad	-9063
▁mortem	-9064
▁drought	-9065
▁peaceful	-9066
▁stations	-9067
▁solutions	-9068
▁compelling	-9069
▁convenient	-9070
▁Secretariat	-9071
EA	-9072
ein	-9073
rence	-9074
▁enshr	-9075
▁fiscal	-9076
▁refusing	-9077
▁Promotion	-9078
▁Represent	-9079
▁witnessed	-9080
▁Governance	-9081
▁distinguish	-9082
▁pronouncement	-9083
ESS	-9084
▁MW	-9085
▁Polit	-9086
▁relat	-9087
regation	-9088
▁promulg	-9089
▁Recommend	-9090
▁answering	-9091
▁impartial	-9092
oda	-9093
soc	-9094
apore	-9095
▁empty	-9096
▁sixty	-9097
renades	-9098
▁incomp	-9099
▁........	-9100
▁sovereign	-9101
▁Federation	-9102
▁hesitation	-9103
ny	-9104
▁UP	-9105
iyar	-9106
apsed	-9107
enary	-9108
▁Like	-9109
▁Liqu	-9110
▁symp	-9111
▁Syria	-9112
▁cryst	-9113
▁score	-9114
▁tools	-9115
▁Senate	-9116
▁enjoyed	-9117
▁motorcy	-9118
▁waiting	-9119
▁exempted	-9120
▁southern	-9121
▁verified	-9122
▁recognize	-9123
▁continuation	-9124
▁corroboration	-9125
uff	-9126
▁pp	-9127
eced	-9128
five	-9129
▁prox	-9130
▁sort	-9131
▁Noida	-9132
▁afresh	-9133
▁Reports	-9134
▁heritage	-9135
▁Referring	-9136
claim	-9137
ednes	-9138
▁plays	-9139
▁Nagpur	-9140
iculture	-9141
▁Internet	-9142
▁assisted	-9143
▁ministers	-9144
▁completing	-9145
▁affirmative	-9146
▁Sure	-9147
▁Return	-9148
bursement	-9149
▁scholars	-9150
END	-9151
▁Ir	-9152
▁Um	-9153
CTION	-9154
▁Hold	-9155
▁outl	-9156
▁embra	-9157
▁Berlin	-9158
▁Rajesh	-9159
▁unanim	-9160
▁Product	-9161
▁gravity	-9162
ruct	-9163
▁bye	-9164
ashed	-9165
▁reven	-9166
▁usage	-9167
▁Friday	-9168
▁adding	-9169
▁pieces	-9170
▁Leprosy	-9171
▁Taliban	-9172
▁knowing	-9173
▁peoples	-9174
▁medicine	-9175
▁somewhat	-9176
▁innocence	-9177
▁paramount	-9178
▁ascertained	-9179
▁denomination	-9180
exam	-9181
▁Jal	-9182
iries	-9183
▁Need	-9184
▁absent	-9185
▁remind	-9186
▁affects	-9187
▁elsewhere	-9188
▁subsidiary	-9189
▁Chhattisgarh	-9190
lav	-9191
▁CIA	-9192
▁Ele	-9193
▁Vas	-9194
▁ble	-9195
eswar	-9196
▁bore	-9197
▁root	-9198
▁Staff	-9199
▁voted	-9200
▁Boards	-9201
▁entirety	-9202
▁overwhel	-9203
▁complained	-9204
▁preventing	-9205
ota	-9206
idden	-9207
▁Prad	-9208
arshan	-9209
▁About	-9210
▁demol	-9211
entions	-9212
▁Expert	-9213
▁Orders	-9214
▁brutal	-9215
▁consec	-9216
▁availed	-9217
▁pursued	-9218
▁utilised	-9219
▁architect	-9220
▁comparison	-9221
▁excellence	-9222
▁substances	-9223
▁stipulation	-9224
AND	-9225
ords	-9226
▁Mich	-9227
▁occur	-9228
raction	-9229
▁Tariff	-9230
▁invoke	-9231
▁deleted	-9232
▁unknown	-9233
▁cultivation	-9234
▁expeditiously	-9235
▁transformation	-9236
inu	-9237
▁ID	-9238
enger	-9239
▁Thir	-9240
▁Plant	-9241
▁caught	-9242
▁slight	-9243
▁Finally	-9244
▁Mahatma	-9245
▁machine	-9246
▁reflects	-9247
▁assurance	-9248
Union	-9249
▁cold	-9250
ridges	-9251
▁Ambed	-9252
▁bears	-9253
▁Shaikh	-9254
▁verdict	-9255
clamation	-9256
▁entitlement	-9257
aja	-9258
oes	-9259
▁Sel	-9260
▁Grade	-9261
▁Jacob	-9262
▁Patel	-9263
itative	-9264
▁unders	-9265
▁anteced	-9266
▁conspir	-9267
▁extingu	-9268
▁clarification	-9269
ura	-9270
▁BO	-9271
▁Ker	-9272
▁rod	-9273
▁Wakf	-9274
icable	-9275
▁Never	-9276
ATIONAL	-9277
▁Wednes	-9278
▁revers	-9279
ographic	-9280
▁Ambedkar	-9281
▁commanded	-9282
▁confusion	-9283
▁socialism	-9284
▁exhaustive	-9285
▁participants	-9286
bon	-9287
▁Mor	-9288
oppel	-9289
▁Alliance	-9290
▁assaulted	-9291
▁innovative	-9292
▁references	-9293
▁Five	-9294
advant	-9295
▁alias	-9296
▁bombs	-9297
▁assent	-9298
▁define	-9299
▁transl	-9300
▁clarify	-9301
▁partial	-9302
▁Accounts	-9303
▁Register	-9304
▁Corporate	-9305
▁contested	-9306
▁dedicated	-9307
▁combination	-9308
▁du	-9309
▁rif	-9310
owing	-9311
▁COUR	-9312
▁MBBS	-9313
▁Scale	-9314
ableness	-9315
▁premise	-9316
▁smaller	-9317
▁Advisory	-9318
▁acquiring	-9319
▁canvassed	-9320
▁IO	-9321
▁RE	-9322
heet	-9323
raid	-9324
iders	-9325
▁heat	-9326
▁chose	-9327
▁incur	-9328
▁knife	-9329
▁conced	-9330
▁prompt	-9331
▁strang	-9332
IST	-9333
▁CM	-9334
▁Fee	-9335
▁apt	-9336
▁rat	-9337
▁Later	-9338
▁indef	-9339
▁levelled	-9340
▁Guidelines	-9341
▁adjudicating	-9342
▁Sunil	-9343
▁grass	-9344
▁lived	-9345
▁thres	-9346
▁Thakur	-9347
▁device	-9348
▁Manipur	-9349
▁pregnancy	-9350
▁newspapers	-9351
▁politically	-9352
▁communications	-9353
col	-9354
hesh	-9355
▁jur	-9356
iscrim	-9357
▁disse	-9358
▁Chaudh	-9359
▁format	-9360
▁stress	-9361
▁playing	-9362
▁pointing	-9363
▁stressed	-9364
▁tendency	-9365
ARY	-9366
rier	-9367
that	-9368
▁Mut	-9369
arity	-9370
▁links	-9371
▁usual	-9372
▁carries	-9373
▁enabled	-9374
▁thinking	-9375
▁definitely	-9376
▁contemplates	-9377
PTER	-9378
wali	-9379
▁Crl	-9380
▁Ken	-9381
inces	-9382
▁wild	-9383
assess	-9384
eremony	-9385
▁actors	-9386
▁incrim	-9387
▁repugn	-9388
▁taxing	-9389
▁defense	-9390
▁initiation	-9391
▁cooperative	-9392
igen	-9393
odal	-9394
▁DDA	-9395
▁Mos	-9396
night	-9397
▁APPE	-9398
▁Micro	-9399
▁broadly	-9400
▁funding	-9401
▁expanded	-9402
▁receipts	-9403
▁friendship	-9404
▁inevitable	-9405
▁prejudicial	-9406
▁modifications	-9407
aria	-9408
▁Sav	-9409
▁Und	-9410
▁syn	-9411
ranged	-9412
▁Adjud	-9413
▁decis	-9414
▁cotton	-9415
▁detain	-9416
▁stones	-9417
▁rapidly	-9418
▁ceasefire	-9419
▁spokesman	-9420
FA	-9421
pus	-9422
▁Gas	-9423
▁PET	-9424
▁unc	-9425
▁obst	-9426
ivided	-9427
▁Eelam	-9428
▁Paras	-9429
▁weigh	-9430
ailable	-9431
▁Number	-9432
▁occurs	-9433
▁Lebanon	-9434
▁conveyed	-9435
▁managing	-9436
▁pertains	-9437
▁literature	-9438
▁Infrastructure	-9439
▁accountability	-9440
ica	-9441
omon	-9442
▁UNP	-9443
raham	-9444
▁unex	-9445
itably	-9446
▁Surya	-9447
▁alcoh	-9448
▁truly	-9449
▁APPEAL	-9450
▁tribal	-9451
▁Clinton	-9452
▁quickly	-9453
▁improved	-9454
▁Arunachal	-9455
▁Revolution	-9456
▁proportionality	-9457
Dr	-9458
Sh	-9459
hem	-9460
agree	-9461
▁Jord	-9462
▁Indians	-9463
▁Juvenile	-9464
▁Singapore	-9465
▁enshrined	-9466
▁restraint	-9467
▁sacrifice	-9468
▁suspended	-9469
▁accounting	-9470
▁charitable	-9471
▁interfering	-9472
ooth	-9473
▁Mart	-9474
▁fish	-9475
▁hurt	-9476
▁meat	-9477
▁push	-9478
▁devast	-9479
▁varied	-9480
▁Monitor	-9481
▁ensured	-9482
▁firstly	-9483
▁subsidy	-9484
▁secondly	-9485
▁violates	-9486
▁movements	-9487
▁requesting	-9488
NO	-9489
▁DAY	-9490
There	-9491
indra	-9492
▁Back	-9493
▁write	-9494
atories	-9495
ventions	-9496
▁entitle	-9497
▁repayment	-9498
▁FO	-9499
▁ML	-9500
▁PP	-9501
amed	-9502
▁thr	-9503
hered	-9504
▁Cond	-9505
▁inad	-9506
▁plus	-9507
rative	-9508
▁tonnes	-9509
▁violent	-9510
▁enhancing	-9511
▁infirmity	-9512
▁guarantees	-9513
▁announcement	-9514
EST	-9515
mosp	-9516
olve	-9517
▁mig	-9518
▁Lucknow	-9519
▁priests	-9520
▁mandated	-9521
▁operates	-9522
▁province	-9523
▁remanded	-9524
▁utilized	-9525
▁encouraged	-9526
▁LA	-9527
▁nurs	-9528
▁Nepal	-9529
▁Manual	-9530
▁silent	-9531
▁denying	-9532
▁propose	-9533
▁streets	-9534
ditionally	-9535
▁commented	-9536
▁subsidies	-9537
▁practitioner	-9538
▁technological	-9539
▁ER	-9540
wala	-9541
want	-9542
zing	-9543
▁rock	-9544
▁Global	-9545
iplinary	-9546
▁Guarant	-9547
▁legitim	-9548
▁straight	-9549
▁financing	-9550
▁integration	-9551
agers	-9552
▁Prab	-9553
▁jeep	-9554
▁Conserv	-9555
▁Contempt	-9556
▁restruct	-9557
▁enunciated	-9558
▁Dw	-9559
▁Ga	-9560
ford	-9561
oman	-9562
▁Fif	-9563
scale	-9564
▁Prim	-9565
▁wors	-9566
▁Father	-9567
▁allies	-9568
▁matrix	-9569
▁summit	-9570
▁Chemical	-9571
dec	-9572
inth	-9573
iram	-9574
urai	-9575
▁trials	-9576
▁Iranian	-9577
▁eastern	-9578
▁inhabit	-9579
ciliation	-9580
▁consumed	-9581
king	-9582
will	-9583
▁lists	-9584
▁radio	-9585
▁Jordan	-9586
▁Mishra	-9587
▁Safety	-9588
▁afraid	-9589
▁allied	-9590
▁openly	-9591
▁parity	-9592
▁sample	-9593
▁options	-9594
▁pretext	-9595
▁disadvant	-9596
had	-9597
▁hyd	-9598
owner	-9599
▁dies	-9600
idency	-9601
▁cycle	-9602
▁Benches	-9603
▁conserv	-9604
▁influenced	-9605
▁sad	-9606
rayed	-9607
▁None	-9608
▁Pract	-9609
▁sleep	-9610
▁stead	-9611
▁atmosp	-9612
▁CHAPTER	-9613
▁confine	-9614
▁negligent	-9615
▁discovered	-9616
emn	-9617
yer	-9618
▁GM	-9619
▁PA	-9620
ccup	-9621
oist	-9622
▁Hari	-9623
▁Partic	-9624
▁merger	-9625
▁sphere	-9626
▁Banking	-9627
▁Natural	-9628
▁prolong	-9629
▁righteous	-9630
▁Organisation	-9631
▁functionaries	-9632
asa	-9633
▁Saw	-9634
▁hire	-9635
terror	-9636
▁Mills	-9637
▁famous	-9638
▁actively	-9639
▁opinions	-9640
cellaneous	-9641
orporation	-9642
za	-9643
rup	-9644
inced	-9645
▁Mach	-9646
▁Raju	-9647
▁glory	-9648
▁sites	-9649
▁Centres	-9650
▁Fundamental	-9651
TO	-9652
▁AR	-9653
▁NG	-9654
▁ITR	-9655
▁gang	-9656
▁battle	-9657
▁dropped	-9658
▁postpon	-9659
▁incentives	-9660
▁manufacturers	-9661
▁Sl	-9662
▁|(	-9663
ilst	-9664
▁IMF	-9665
▁bat	-9666
▁suo	-9667
▁harmony	-9668
▁credited	-9669
▁adjustment	-9670
▁arbitrators	-9671
▁Legislatures	-9672
▁investigated	-9673
▁pad	-9674
▁tree	-9675
▁signs	-9676
▁broader	-9677
▁degrees	-9678
▁condemned	-9679
▁delinquent	-9680
▁terrorists	-9681
ocon	-9682
roud	-9683
▁ICC	-9684
▁hat	-9685
▁coin	-9686
▁facet	-9687
▁intend	-9688
▁Edition	-9689
▁supports	-9690
appellants	-9691
▁conflicts	-9692
▁maintainability	-9693
alia	-9694
wife	-9695
ammad	-9696
orate	-9697
worthy	-9698
▁guide	-9699
▁toler	-9700
▁misuse	-9701
▁procure	-9702
▁constant	-9703
▁guardian	-9704
▁locations	-9705
irds	-9706
▁Spec	-9707
before	-9708
▁Const	-9709
▁chest	-9710
▁handic	-9711
▁spouse	-9712
▁turning	-9713
▁charging	-9714
▁publicly	-9715
▁prospects	-9716
▁commodities	-9717
cel	-9718
atab	-9719
▁dynam	-9720
▁convert	-9721
▁journey	-9722
▁exercises	-9723
▁vexatious	-9724
▁prosecuted	-9725
▁vulnerable	-9726
▁remuneration	-9727
▁Ak	-9728
atar	-9729
▁ACT	-9730
▁slow	-9731
▁trig	-9732
▁blank	-9733
▁flats	-9734
isputed	-9735
▁Mittal	-9736
▁Repeal	-9737
▁Working	-9738
▁intends	-9739
▁militar	-9740
▁discount	-9741
▁composite	-9742
▁precisely	-9743
▁satisfactory	-9744
vo	-9745
▁CC	-9746
harm	-9747
▁NGT	-9748
▁NPA	-9749
▁mos	-9750
▁tom	-9751
▁elev	-9752
▁flex	-9753
thened	-9754
▁faces	-9755
entures	-9756
▁pistol	-9757
iability	-9758
▁Firstly	-9759
▁artific	-9760
▁consign	-9761
sufficient	-9762
▁factories	-9763
▁Lax	-9764
▁glob	-9765
illary	-9766
▁Black	-9767
▁repud	-9768
▁tribe	-9769
velling	-9770
▁African	-9771
▁happens	-9772
▁wrongful	-9773
▁accompany	-9774
▁surcharge	-9775
▁sear	-9776
▁Shyam	-9777
▁appealed	-9778
▁Provisions	-9779
▁reconsideration	-9780
jun	-9781
ked	-9782
may	-9783
wara	-9784
▁Cell	-9785
▁Point	-9786
▁Stock	-9787
▁UIDAI	-9788
▁Bachan	-9789
▁picture	-9790
▁PETITION	-9791
▁overseas	-9792
▁passengers	-9793
▁Palestinians	-9794
DT	-9795
haz	-9796
outs	-9797
▁Know	-9798
viously	-9799
▁begins	-9800
▁advances	-9801
▁defeated	-9802
▁salaries	-9803
▁succeeded	-9804
▁attempting	-9805
▁motorcycle	-9806
▁techniques	-9807
▁liquidation	-9808
▁reactionary	-9809
▁declarations	-9810
▁irregularity	-9811
VI	-9812
▁Ren	-9813
rafts	-9814
▁fruits	-9815
▁expense	-9816
▁submitting	-9817
organisation	-9818
▁Commissions	-9819
▁unsustainable	-9820
UST	-9821
gel	-9822
asse	-9823
itime	-9824
▁clin	-9825
▁infl	-9826
▁dividend	-9827
▁estoppel	-9828
▁envisages	-9829
▁pronouncements	-9830
do	-9831
▁ft	-9832
osex	-9833
▁Lad	-9834
ograp	-9835
▁Bhat	-9836
▁Shak	-9837
▁feas	-9838
▁forg	-9839
ulsion	-9840
▁split	-9841
▁condol	-9842
▁meters	-9843
▁sheets	-9844
▁profile	-9845
▁enjoyment	-9846
▁contradiction	-9847
----------------	-9848
▁characteristics	-9849
ams	-9850
eli	-9851
hew	-9852
uct	-9853
ukh	-9854
▁sn	-9855
▁PPA	-9856
human	-9857
▁lacs	-9858
▁slum	-9859
▁Citiz	-9860
▁boost	-9861
istence	-9862
▁assass	-9863
▁assemb	-9864
▁deserve	-9865
▁staying	-9866
▁promoter	-9867
▁hostility	-9868
▁Liberation	-9869
▁meaningful	-9870
▁remembered	-9871
▁amalgamation	-9872
UG	-9873
Ann	-9874
▁ast	-9875
inite	-9876
oting	-9877
▁Bala	-9878
accept	-9879
▁chapter	-9880
▁Consolid	-9881
▁abandoned	-9882
▁introduce	-9883
▁philosophy	-9884
▁continuance	-9885
▁attributable	-9886
▁discrepancies	-9887
ae	-9888
abs	-9889
ohar	-9890
osis	-9891
rivol	-9892
▁flesh	-9893
▁forty	-9894
▁appended	-9895
▁Petroleum	-9896
▁threshold	-9897
▁diplomatic	-9898
▁chargesheet	-9899
▁personality	-9900
imb	-9901
▁ax	-9902
▁pm	-9903
azar	-9904
belie	-9905
▁Ragh	-9906
▁skin	-9907
laimed	-9908
▁resid	-9909
▁risks	-9910
▁Tamils	-9911
▁	-9912
e	-9913
t	-9914
a	-9915
i	-9916
o	-9917
n	-9918
r	-9919
s	-9920
h	-9921
d	-9922
l	-9923
c	-9924
u	-9925
f	-9926
p	-9927
m	-9928
g	-9929
b	-9930
y	-9931
w	-9932
.	-9933
v	-9934
,	-9935
C	-9936
A	-9937
S	-9938
T	-9939
k	-9940
I	-9941
०	-9942
P	-9943
x	-9944
-	-9945
१	-9946
)	-9947
(	-9948
R	-9949
j	-9950
M	-9951
D	-9952
N	-9953
B	-9954
H	-9955
q	-9956
E	-9957
२	-9958
'	-9959
L	-9960
O	-9961
G	-9962
W	-9963
F	-9964
J	-9965
:	-9966
U	-9967
३	-9968
0	-9969
/	-9970
K	-9971
z	-9972
;	-9973
V	-9974
४	-9975
’	-9976
“	-9977
५	-9978
|	-9979
]	-9980
[	-9981
‘	-9982
६	-9983
Y	-9984
&	-9985
?	-9986
७	-9987
"	-9988
%	-9989
८	-9990
­	-9991
—	-9992
–	-9993
