<unk>	0
<s>	0
</s>	0
UuRrLl	0
DdAaTtEe	0
NnUuMm	0
▁t	-0
he	-1
▁a	-2
▁the	-3
in	-4
▁o	-5
re	-6
on	-7
er	-8
at	-9
▁of	-10
en	-11
▁,	-12
ed	-13
is	-14
▁s	-15
▁c	-16
it	-17
nd	-18
▁p	-19
▁w	-20
ion	-21
▁b	-22
▁.	-23
▁in	-24
or	-25
al	-26
es	-27
▁f	-28
▁to	-29
an	-30
ar	-31
ing	-32
as	-33
ou	-34
▁d	-35
ic	-36
ent	-37
▁and	-38
▁th	-39
▁re	-40
ct	-41
▁m	-42
▁h	-43
ro	-44
le	-45
▁be	-46
▁n	-47
▁C	-48
▁T	-49
st	-50
▁e	-51
▁S	-52
ation	-53
▁A	-54
▁is	-55
ce	-56
id	-57
il	-58
▁that	-59
ot	-60
ut	-61
▁I	-62
om	-63
ment	-64
ve	-65
os	-66
▁for	-67
▁con	-68
▁on	-69
▁l	-70
ri	-71
▁u	-72
▁as	-73
ly	-74
▁by	-75
ad	-76
▁su	-77
pp	-78
▁pro	-79
▁&	-80
▁de	-81
▁or	-82
▁)	-83
▁(	-84
▁The	-85
im	-86
se	-87
ll	-88
our	-89
▁P	-90
▁an	-91
ur	-92
ate	-93
▁g	-94
ap	-95
▁wh	-96
ver	-97
am	-98
ch	-99
▁not	-100
her	-101
▁was	-102
ith	-103
ter	-104
ay	-105
ant	-106
gh	-107
ld	-108
▁it	-109
▁app	-110
ow	-111
▁with	-112
▁M	-113
ir	-114
et	-115
ect	-116
ourt	-117
ain	-118
if	-119
▁R	-120
ere	-121
▁st	-122
ers	-123
qu	-124
ul	-125
▁ex	-126
res	-127
ab	-128
▁B	-129
▁H	-130
apos	-131
us	-132
ol	-133
ess	-134
▁com	-135
▁v	-136
ud	-137
▁he	-138
▁Court	-139
▁D	-140
▁has	-141
nder	-142
ra	-143
ist	-144
▁N	-145
ity	-146
ge	-147
ich	-148
▁ha	-149
▁sh	-150
▁which	-151
est	-152
ak	-153
ther	-154
▁under	-155
▁are	-156
ions	-157
▁G	-158
ore	-159
▁al	-160
ated	-161
▁this	-162
▁le	-163
and	-164
art	-165
ial	-166
iv	-167
ec	-168
end	-169
▁at	-170
all	-171
▁ac	-172
ould	-173
rom	-174
ive	-175
ies	-176
▁res	-177
od	-178
nt	-179
ell	-180
▁L	-181
ig	-182
ort	-183
red	-184
▁from	-185
▁any	-186
ence	-187
▁j	-188
▁In	-189
▁have	-190
▁J	-191
la	-192
em	-193
ase	-194
ice	-195
um	-196
ust	-197
▁E	-198
▁:	-199
ition	-200
▁W	-201
▁O	-202
igh	-203
▁cont	-204
un	-205
ard	-206
ill	-207
▁sub	-208
oc	-209
▁F	-210
▁been	-211
▁y	-212
ure	-213
▁&#	-214
ted	-215
over	-216
▁there	-217
ance	-218
ia	-219
pl	-220
aid	-221
ction	-222
▁prov	-223
▁whe	-224
ary	-225
▁fa	-226
op	-227
ord	-228
▁dis	-229
pon	-230
able	-231
ie	-232
▁/	-233
▁ag	-234
▁per	-235
ff	-236
▁St	-237
▁ad	-238
▁int	-239
ear	-240
▁such	-241
ned	-242
th	-243
▁acc	-244
▁im	-245
▁Act	-246
ution	-247
lic	-248
so	-249
▁all	-250
▁part	-251
▁case	-252
▁U	-253
▁Ind	-254
ire	-255
ee	-256
▁ch	-257
▁his	-258
▁r	-259
▁other	-260
fore	-261
overn	-262
▁-	-263
ac	-264
mit	-265
▁also	-266
der	-267
▁ab	-268
mis	-269
▁It	-270
stit	-271
sion	-272
ame	-273
pt	-274
ous	-275
▁had	-276
▁comp	-277
ght	-278
▁inc	-279
▁ar	-280
▁dec	-281
erv	-282
ellant	-283
▁were	-284
ade	-285
▁K	-286
▁off	-287
pos	-288
aw	-289
▁cons	-290
el	-291
▁shall	-292
▁rec	-293
▁can	-294
du	-295
ations	-296
overnment	-297
▁ev	-298
ount	-299
▁en	-300
▁would	-301
▁no	-302
▁appellant	-303
per	-304
ag	-305
ru	-306
▁;	-307
▁pers	-308
▁Th	-309
▁&#9	-310
▁State	-311
min	-312
▁ne	-313
ass	-314
▁High	-315
▁person	-316
▁sp	-317
ib	-318
rou	-319
▁may	-320
▁said	-321
▁un	-322
▁its	-323
ub	-324
▁order	-325
▁reg	-326
ip	-327
ical	-328
ied	-329
age	-330
ced	-331
▁Con	-332
fter	-333
ue	-334
▁am	-335
▁Com	-336
▁jud	-337
▁’	-338
▁qu	-339
port	-340
ans	-341
ection	-342
ision	-343
ict	-344
ree	-345
▁tr	-346
▁ri	-347
▁India	-348
ide	-349
▁made	-350
▁No	-351
▁rel	-352
▁their	-353
▁out	-354
▁ob	-355
▁me	-356
▁se	-357
ome	-358
▁respon	-359
▁pres	-360
▁will	-361
▁pre	-362
ident	-363
▁tak	-364
▁ref	-365
▁we	-366
▁who	-367
ces	-368
oun	-369
orm	-370
dent	-371
sel	-372
▁law	-373
pect	-374
▁wor	-375
stitution	-376
ry	-377
ject	-378
▁“	-379
use	-380
oin	-381
▁do	-382
▁Ch	-383
used	-384
ost	-385
▁k	-386
ind	-387
ments	-388
▁year	-389
▁again	-390
out	-391
iz	-392
▁right	-393
ific	-394
▁so	-395
rib	-396
ered	-397
eal	-398
ish	-399
▁mat	-400
▁V	-401
▁fact	-402
ast	-403
▁Government	-404
ult	-405
▁only	-406
▁one	-407
tain	-408
ime	-409
▁ind	-410
▁Re	-411
▁fil	-412
▁man	-413
ong	-414
ise	-415
rit	-416
ail	-417
▁before	-418
etition	-419
▁ass	-420
oll	-421
mission	-422
ile	-423
ates	-424
ory	-425
▁inter	-426
▁but	-427
ber	-428
ious	-429
ove	-430
▁inv	-431
me	-432
▁conc	-433
▁pol	-434
▁if	-435
▁against	-436
iew	-437
▁ent	-438
ty	-439
▁they	-440
▁respondent	-441
▁iss	-442
uth	-443
irect	-444
av	-445
ings	-446
▁As	-447
▁pur	-448
▁consid	-449
mitted	-450
ual	-451
▁where	-452
▁pl	-453
▁court	-454
istr	-455
▁cla	-456
▁imp	-457
▁em	-458
▁judg	-459
one	-460
ign	-461
▁def	-462
▁work	-463
og	-464
▁pr	-465
▁time	-466
▁dated	-467
cc	-468
▁same	-469
ine	-470
isions	-471
are	-472
ating	-473
ublic	-474
ational	-475
sed	-476
iff	-477
▁him	-478
▁requ	-479
hed	-480
ood	-481
lud	-482
▁act	-483
▁after	-484
12	-485
4;	-486
124;	-487
▁&#124;	-488
▁De	-489
ities	-490
ract	-491
form	-492
uthor	-493
▁accused	-494
ens	-495
▁sc	-496
ach	-497
.0	-498
▁being	-499
▁applic	-500
ound	-501
ok	-502
▁pow	-503
ention	-504
▁lear	-505
ased	-506
ollow	-507
ose	-508
▁tw	-509
▁This	-510
vel	-511
▁should	-512
▁into	-513
eral	-514
▁leg	-515
▁pos	-516
▁them	-517
▁petition	-518
ative	-519
▁SC	-520
▁comm	-521
▁follow	-522
▁mak	-523
▁held	-524
▁serv	-525
▁Sh	-526
ward	-527
urther	-528
oy	-529
▁learned	-530
▁Jud	-531
▁ter	-532
▁..	-533
ceed	-534
act	-535
ason	-536
▁exp	-537
ath	-538
idence	-539
ank	-540
▁up	-541
3;	-542
▁&#93;	-543
ik	-544
▁pass	-545
aj	-546
▁view	-547
oint	-548
▁direct	-549
▁cl	-550
1;	-551
▁&#91;	-552
old	-553
▁when	-554
▁over	-555
▁appeal	-556
ian	-557
▁disc	-558
▁spec	-559
ax	-560
▁...	-561
▁two	-562
▁Constitution	-563
nce	-564
erred	-565
not	-566
▁giv	-567
▁land	-568
amp	-569
▁matter	-570
▁judgment	-571
▁i	-572
▁state	-573
ged	-574
▁pay	-575
lect	-576
own	-577
ight	-578
▁Pro	-579
ors	-580
▁provisions	-581
very	-582
cy	-583
▁Un	-584
▁pla	-585
▁He	-586
een	-587
▁pri	-588
▁quest	-589
▁coun	-590
▁eff	-591
▁bet	-592
ided	-593
ility	-594
▁op	-595
ute	-596
▁includ	-597
▁set	-598
ness	-599
ms	-600
▁trans	-601
wn	-602
ved	-603
▁reason	-604
▁Ex	-605
▁conf	-606
▁our	-607
▁supp	-608
ack	-609
▁rep	-610
▁record	-611
▁years	-612
▁her	-613
led	-614
▁We	-615
▁bec	-616
▁public	-617
ite	-618
▁ext	-619
▁att	-620
▁Su	-621
▁author	-622
▁cannot	-623
rial	-624
aint	-625
irst	-626
ular	-627
▁There	-628
▁‘	-629
▁char	-630
ified	-631
icial	-632
▁you	-633
▁these	-634
ild	-635
▁proceed	-636
▁sec	-637
▁proper	-638
▁further	-639
ever	-640
▁must	-641
ral	-642
▁rem	-643
erest	-644
▁respect	-645
ised	-646
▁On	-647
▁filed	-648
ature	-649
ond	-650
▁consider	-651
▁evidence	-652
▁appro	-653
▁gr	-654
▁issu	-655
ited	-656
ible	-657
▁power	-658
ween	-659
▁taken	-660
cept	-661
ause	-662
ession	-663
ark	-664
ired	-665
iction	-666
▁between	-667
arl	-668
▁above	-669
ploy	-670
▁within	-671
▁could	-672
ash	-673
▁more	-674
▁pe	-675
▁interest	-676
▁PW	-677
▁present	-678
▁SCC	-679
▁question	-680
▁regard	-681
any	-682
▁counsel	-683
lear	-684
ases	-685
▁purpos	-686
▁well	-687
erc	-688
ges	-689
ven	-690
velop	-691
▁even	-692
▁day	-693
uring	-694
▁decision	-695
ving	-696
▁than	-697
und	-698
▁soc	-699
isl	-700
pre	-701
▁diff	-702
ended	-703
ress	-704
▁whether	-705
its	-706
▁upon	-707
▁claim	-708
▁form	-709
inc	-710
▁given	-711
▁grou	-712
▁count	-713
▁first	-714
▁App	-715
iod	-716
▁amount	-717
ices	-718
▁bas	-719
▁fin	-720
ah	-721
▁Ben	-722
ug	-723
▁Rs	-724
mitt	-725
rimin	-726
▁period	-727
bit	-728
▁just	-729
oth	-730
▁about	-731
duct	-732
ally	-733
reat	-734
▁concer	-735
ification	-736
▁report	-737
▁writ	-738
owever	-739
erence	-740
▁poss	-741
▁Ar	-742
▁val	-743
ecess	-744
irc	-745
▁clear	-746
ief	-747
▁0	-748
▁mem	-749
rough	-750
▁effect	-751
sec	-752
▁ro	-753
con	-754
▁dem	-755
▁compl	-756
ople	-757
▁min	-758
▁Section	-759
▁Commission	-760
abl	-761
▁est	-762
▁And	-763
ang	-764
▁te	-765
▁Sing	-766
▁new	-767
ule	-768
▁rele	-769
ew	-770
▁government	-771
ife	-772
ram	-773
▁Cent	-774
ules	-775
▁therefore	-776
▁aff	-777
▁through	-778
▁cor	-779
▁invest	-780
stru	-781
▁Pres	-782
▁employ	-783
▁application	-784
ording	-785
▁submitted	-786
ances	-787
ior	-788
ep	-789
▁some	-790
▁passed	-791
eneral	-792
ef	-793
▁us	-794
rap	-795
▁sent	-796
▁An	-797
▁partic	-798
▁Min	-799
▁par	-800
▁cer	-801
▁Ad	-802
ale	-803
▁persons	-804
▁people	-805
itions	-806
▁add	-807
ained	-808
▁necess	-809
▁cases	-810
▁Pr	-811
ient	-812
▁read	-813
▁mon	-814
ren	-815
▁grant	-816
▁does	-817
▁obs	-818
▁Mr	-819
▁parties	-820
ily	-821
hi	-822
▁date	-823
▁cond	-824
anc	-825
▁circ	-826
▁inform	-827
ince	-828
▁while	-829
▁President	-830
cess	-831
▁own	-832
▁make	-833
vers	-834
part	-835
ike	-836
▁without	-837
▁des	-838
▁hand	-839
▁deal	-840
ough	-841
por	-842
▁here	-843
ined	-844
▁stat	-845
ister	-846
▁beh	-847
▁section	-848
▁good	-849
▁ins	-850
ffic	-851
ital	-852
▁suit	-853
▁Bench	-854
▁US	-855
▁ra	-856
▁find	-857
ful	-858
▁Am	-859
unal	-860
▁exam	-861
▁Judge	-862
med	-863
ex	-864
iet	-865
ric	-866
ees	-867
▁referred	-868
urn	-869
▁allow	-870
▁Sc	-871
▁princ	-872
▁ret	-873
riminal	-874
ries	-875
▁develop	-876
▁stated	-877
▁she	-878
▁following	-879
▁prosec	-880
ting	-881
vant	-882
ouse	-883
▁subject	-884
ivil	-885
▁tax	-886
▁observ	-887
itness	-888
uc	-889
▁agree	-890
▁rece	-891
▁kn	-892
▁then	-893
eg	-894
▁found	-895
hip	-896
▁those	-897
▁offence	-898
ix	-899
▁property	-900
▁down	-901
uted	-902
bitr	-903
tern	-904
mittee	-905
bers	-906
ner	-907
▁Central	-908
▁appellants	-909
▁gu	-910
self	-911
ished	-912
▁exerc	-913
▁Whe	-914
lus	-915
▁bel	-916
▁place	-917
ribunal	-918
▁did	-919
▁av	-920
▁take	-921
▁var	-922
▁need	-923
uris	-924
▁war	-925
ural	-926
▁legisl	-927
▁purpose	-928
▁hold	-929
man	-930
ha	-931
▁basis	-932
▁both	-933
▁cap	-934
ants	-935
miss	-936
cil	-937
igation	-938
alf	-939
▁stand	-940
▁occ	-941
▁like	-942
ures	-943
▁af	-944
▁co	-945
▁opp	-946
▁three	-947
▁ben	-948
▁ground	-949
▁car	-950
ores	-951
▁?	-952
▁post	-953
ob	-954
▁Bh	-955
▁word	-956
▁establ	-957
▁concerned	-958
▁disp	-959
▁Indian	-960
▁trial	-961
▁Singh	-962
▁issue	-963
▁circum	-964
▁proceedings	-965
▁see	-966
posed	-967
▁ord	-968
ater	-969
▁rev	-970
▁acqu	-971
▁For	-972
▁del	-973
▁issued	-974
▁Wh	-975
▁sup	-976
▁including	-977
way	-978
▁witness	-979
sequ	-980
ability	-981
ts	-982
▁differe	-983
▁what	-984
▁process	-985
▁Reg	-986
ality	-987
▁name	-988
lection	-989
▁facts	-990
iness	-991
ents	-992
▁Res	-993
ris	-994
▁provision	-995
▁call	-996
ither	-997
▁authority	-998
▁contract	-999
other	-1000
▁juris	-1001
▁produ	-1002
▁necessary	-1003
▁circumst	-1004
▁support	-1005
oresaid	-1006
▁month	-1007
▁aforesaid	-1008
▁prot	-1009
▁deter	-1010
ency	-1011
▁required	-1012
tic	-1013
▁award	-1014
▁prev	-1015
enior	-1016
▁contin	-1017
▁account	-1018
ret	-1019
▁vi	-1020
▁death	-1021
ks	-1022
▁col	-1023
▁service	-1024
▁rights	-1025
pri	-1026
▁having	-1027
▁different	-1028
▁country	-1029
▁bu	-1030
▁appear	-1031
▁inf	-1032
esh	-1033
▁appoint	-1034
▁num	-1035
▁because	-1036
▁oper	-1037
read	-1038
ier	-1039
..	-1040
▁jurisd	-1041
ave	-1042
ides	-1043
▁benef	-1044
ning	-1045
▁polit	-1046
▁import	-1047
crib	-1048
▁clause	-1049
▁Y	-1050
▁polic	-1051
conom	-1052
▁exec	-1053
▁med	-1054
▁Acc	-1055
leg	-1056
ring	-1057
▁bus	-1058
lement	-1059
ized	-1060
▁Or	-1061
▁Shri	-1062
▁Committee	-1063
▁adv	-1064
▁sy	-1065
▁your	-1066
gan	-1067
▁go	-1068
▁during	-1069
ode	-1070
▁jurisdiction	-1071
▁lead	-1072
▁Sec	-1073
▁If	-1074
erial	-1075
ending	-1076
▁particular	-1077
▁offic	-1078
PC	-1079
▁main	-1080
▁lim	-1081
▁my	-1082
ody	-1083
row	-1084
section	-1085
ences	-1086
ism	-1087
▁determin	-1088
ption	-1089
oard	-1090
air	-1091
▁dist	-1092
heme	-1093
▁way	-1094
▁life	-1095
▁equ	-1096
▁conv	-1097
▁consideration	-1098
of	-1099
▁priv	-1100
▁terms	-1101
istration	-1102
ination	-1103
▁relevant	-1104
▁sit	-1105
▁dece	-1106
▁supra	-1107
▁mark	-1108
▁various	-1109
les	-1110
te	-1111
gin	-1112
▁police	-1113
▁considered	-1114
▁comple	-1115
ipl	-1116
▁arbitr	-1117
uty	-1118
▁Sp	-1119
▁behalf	-1120
▁notice	-1121
chn	-1122
▁li	-1123
▁Tribunal	-1124
▁inst	-1125
ointed	-1126
▁provided	-1127
ov	-1128
▁rest	-1129
▁avail	-1130
▁Part	-1131
quot	-1132
▁petitioner	-1133
▁company	-1134
▁child	-1135
▁statement	-1136
▁Del	-1137
▁circumstances	-1138
▁object	-1139
ives	-1140
ange	-1141
▁far	-1142
ft	-1143
▁deceased	-1144
▁certain	-1145
ocu	-1146
▁prosecution	-1147
less	-1148
▁used	-1149
up	-1150
▁agreement	-1151
arlia	-1152
▁class	-1153
ai	-1154
▁every	-1155
▁opin	-1156
arliament	-1157
▁material	-1158
▁econom	-1159
raph	-1160
▁information	-1161
▁back	-1162
▁det	-1163
▁However	-1164
olog	-1165
onment	-1166
▁%	-1167
ived	-1168
▁Union	-1169
▁social	-1170
▁party	-1171
stem	-1172
▁members	-1173
ulation	-1174
▁legal	-1175
▁ed	-1176
▁conduct	-1177
allen	-1178
▁En	-1179
iety	-1180
▁exist	-1181
▁non	-1182
ook	-1183
aring	-1184
▁since	-1185
▁docu	-1186
▁inj	-1187
▁Is	-1188
gg	-1189
▁Rules	-1190
▁transf	-1191
arge	-1192
▁fund	-1193
after	-1194
▁came	-1195
IR	-1196
▁let	-1197
ros	-1198
▁opinion	-1199
▁Delhi	-1200
▁Coun	-1201
omm	-1202
▁Just	-1203
▁action	-1204
ages	-1205
▁nature	-1206
▁show	-1207
han	-1208
gu	-1209
ons	-1210
ourse	-1211
▁expl	-1212
ivers	-1213
▁business	-1214
OR	-1215
▁cre	-1216
▁Ass	-1217
▁political	-1218
▁bl	-1219
▁result	-1220
rop	-1221
▁number	-1222
cedure	-1223
ilit	-1224
▁say	-1225
▁fore	-1226
▁each	-1227
ogn	-1228
▁end	-1229
▁expres	-1230
00	-1231
▁Raj	-1232
▁ii	-1233
▁use	-1234
▁manner	-1235
▁But	-1236
▁very	-1237
ately	-1238
▁At	-1239
▁Comp	-1240
▁due	-1241
iation	-1242
▁constitution	-1243
▁mention	-1244
bt	-1245
ather	-1246
ateg	-1247
▁Chief	-1248
ready	-1249
aintiff	-1250
▁challen	-1251
▁prof	-1252
▁now	-1253
ivid	-1254
▁admin	-1255
▁senior	-1256
▁fun	-1257
▁sim	-1258
▁another	-1259
▁respondents	-1260
▁income	-1261
▁Rule	-1262
▁Board	-1263
▁criminal	-1264
ull	-1265
▁already	-1266
▁abs	-1267
ify	-1268
▁fail	-1269
sequent	-1270
hes	-1271
▁invol	-1272
ising	-1273
ati	-1274
ically	-1275
tal	-1276
▁et	-1277
ters	-1278
▁constru	-1279
▁Justice	-1280
ancial	-1281
▁Pol	-1282
▁according	-1283
▁princip	-1284
▁pun	-1285
▁bro	-1286
▁cent	-1287
▁mar	-1288
▁contro	-1289
▁exercise	-1290
▁prom	-1291
preme	-1292
▁entit	-1293
reed	-1294
▁policy	-1295
▁el	-1296
ured	-1297
▁development	-1298
▁come	-1299
▁test	-1300
▁sale	-1301
uation	-1302
▁etc	-1303
▁system	-1304
▁herein	-1305
▁Code	-1306
atory	-1307
ought	-1308
▁Offic	-1309
ator	-1310
▁prog	-1311
▁elect	-1312
▁pen	-1313
ines	-1314
▁Tr	-1315
▁conditions	-1316
▁thus	-1317
▁viol	-1318
▁repres	-1319
iance	-1320
▁goods	-1321
har	-1322
▁days	-1323
acy	-1324
▁Supreme	-1325
▁str	-1326
▁house	-1327
▁argu	-1328
▁National	-1329
cribed	-1330
itional	-1331
king	-1332
aining	-1333
▁Man	-1334
▁words	-1335
▁mean	-1336
▁observed	-1337
▁Mar	-1338
▁charge	-1339
partment	-1340
▁allowed	-1341
uch	-1342
▁based	-1343
ried	-1344
▁­	-1345
ugned	-1346
▁Parliament	-1347
▁compens	-1348
▁defend	-1349
istrict	-1350
▁judicial	-1351
▁meet	-1352
▁All	-1353
ma	-1354
▁Minister	-1355
tained	-1356
▁States	-1357
▁earl	-1358
▁reference	-1359
ividual	-1360
▁sur	-1361
ering	-1362
▁indust	-1363
▁require	-1364
rat	-1365
▁impugned	-1366
▁sum	-1367
uk	-1368
▁itself	-1369
get	-1370
iding	-1371
▁Se	-1372
orpor	-1373
▁second	-1374
▁payment	-1375
▁loc	-1376
▁services	-1377
▁sign	-1378
▁area	-1379
▁—	-1380
hy	-1381
▁subst	-1382
▁available	-1383
▁educ	-1384
▁paid	-1385
▁working	-1386
▁general	-1387
▁exc	-1388
eep	-1389
▁know	-1390
par	-1391
▁possession	-1392
▁ident	-1393
olution	-1394
▁individual	-1395
▁Bank	-1396
day	-1397
▁means	-1398
stitut	-1399
▁appropri	-1400
ajor	-1401
▁making	-1402
ared	-1403
endment	-1404
▁ten	-1405
iry	-1406
▁fam	-1407
▁plaintiff	-1408
▁dra	-1409
lusion	-1410
▁bank	-1411
▁sentence	-1412
▁special	-1413
af	-1414
ecial	-1415
▁ple	-1416
ivision	-1417
atis	-1418
▁cand	-1419
▁open	-1420
▁assess	-1421
▁either	-1422
▁recorded	-1423
▁ser	-1424
see	-1425
ten	-1426
ey	-1427
ES	-1428
▁mis	-1429
▁powers	-1430
▁earlier	-1431
▁sect	-1432
▁along	-1433
unity	-1434
uman	-1435
▁punish	-1436
▁promot	-1437
▁apply	-1438
als	-1439
▁entitled	-1440
▁investigation	-1441
ph	-1442
▁candid	-1443
▁position	-1444
▁ens	-1445
▁Law	-1446
▁long	-1447
▁ca	-1448
▁represent	-1449
▁fl	-1450
pr	-1451
▁film	-1452
▁pract	-1453
▁high	-1454
▁init	-1455
▁Therefore	-1456
▁stud	-1457
▁General	-1458
ilar	-1459
▁appointment	-1460
▁fav	-1461
▁duty	-1462
anding	-1463
pted	-1464
▁They	-1465
▁cost	-1466
▁ve	-1467
▁justice	-1468
▁orders	-1469
▁world	-1470
▁milit	-1471
▁OF	-1472
agraph	-1473
▁incre	-1474
▁major	-1475
ential	-1476
▁complaint	-1477
▁put	-1478
ble	-1479
▁point	-1480
▁recomm	-1481
ici	-1482
▁Courts	-1483
▁Al	-1484
▁Ag	-1485
▁ori	-1486
▁get	-1487
▁last	-1488
▁course	-1489
▁provide	-1490
▁Sub	-1491
▁appropriate	-1492
▁cause	-1493
atisf	-1494
▁intern	-1495
▁most	-1496
▁indic	-1497
▁compensation	-1498
ctions	-1499
▁organ	-1500
▁laid	-1501
▁dou	-1502
▁rule	-1503
▁give	-1504
▁Council	-1505
▁Civil	-1506
▁financial	-1507
▁Not	-1508
▁committed	-1509
▁entire	-1510
▁however	-1511
▁accord	-1512
▁build	-1513
ron	-1514
▁statut	-1515
▁mer	-1516
AT	-1517
▁Officer	-1518
▁continu	-1519
▁techn	-1520
▁According	-1521
mber	-1522
▁decl	-1523
▁contained	-1524
▁though	-1525
▁After	-1526
▁Gu	-1527
ively	-1528
rime	-1529
▁granted	-1530
▁New	-1531
ested	-1532
▁establish	-1533
▁mentioned	-1534
ains	-1535
jud	-1536
urre	-1537
AR	-1538
▁appeals	-1539
umar	-1540
▁months	-1541
omb	-1542
▁many	-1543
▁favour	-1544
▁follows	-1545
▁great	-1546
▁done	-1547
empt	-1548
▁value	-1549
▁reasons	-1550
epend	-1551
▁placed	-1552
▁took	-1553
▁scheme	-1554
cing	-1555
cent	-1556
▁discus	-1557
az	-1558
▁principle	-1559
▁force	-1560
ush	-1561
ck	-1562
urity	-1563
▁tre	-1564
▁economic	-1565
ace	-1566
ran	-1567
▁stru	-1568
▁received	-1569
▁directed	-1570
au	-1571
▁called	-1572
▁ann	-1573
▁Direct	-1574
▁society	-1575
▁except	-1576
ience	-1577
▁satisf	-1578
▁Division	-1579
▁met	-1580
▁That	-1581
wards	-1582
▁civil	-1583
ars	-1584
▁cred	-1585
ross	-1586
▁mod	-1587
oney	-1588
pondent	-1589
▁accept	-1590
ibility	-1591
▁lit	-1592
▁To	-1593
▁officer	-1594
rought	-1595
ON	-1596
▁Col	-1597
▁constitutional	-1598
▁office	-1599
▁matters	-1600
▁dep	-1601
▁body	-1602
by	-1603
ury	-1604
▁project	-1605
▁II	-1606
▁alle	-1607
oh	-1608
essee	-1609
▁Thus	-1610
▁relating	-1611
unic	-1612
ror	-1613
▁Leg	-1614
▁compet	-1615
eration	-1616
EN	-1617
▁Ram	-1618
▁Author	-1619
▁demand	-1620
ER	-1621
▁activ	-1622
▁provides	-1623
▁taking	-1624
▁er	-1625
ember	-1626
ected	-1627
missed	-1628
▁asse	-1629
▁depos	-1630
▁thereof	-1631
igned	-1632
▁che	-1633
ists	-1634
mb	-1635
ool	-1636
▁dismissed	-1637
▁Mag	-1638
eed	-1639
▁Petition	-1640
ext	-1641
▁decla	-1642
▁origin	-1643
aking	-1644
asht	-1645
▁Appeal	-1646
▁important	-1647
▁perform	-1648
▁Te	-1649
▁courts	-1650
ari	-1651
hold	-1652
▁witnesses	-1653
▁transfer	-1654
▁specified	-1655
agement	-1656
hib	-1657
▁nor	-1658
rect	-1659
▁interpre	-1660
ake	-1661
▁less	-1662
▁When	-1663
ves	-1664
▁valid	-1665
istered	-1666
ology	-1667
▁rules	-1668
hen	-1669
▁meas	-1670
▁exper	-1671
ata	-1672
▁contr	-1673
▁percent	-1674
▁head	-1675
▁These	-1676
iated	-1677
▁alleged	-1678
quiry	-1679
alth	-1680
wise	-1681
adesh	-1682
▁market	-1683
▁respons	-1684
▁official	-1685
na	-1686
ense	-1687
rie	-1688
ock	-1689
▁workers	-1690
▁enact	-1691
▁detail	-1692
▁military	-1693
amil	-1694
▁prescribed	-1695
irm	-1696
▁stage	-1697
▁mere	-1698
▁IPC	-1699
ORD	-1700
▁gen	-1701
▁capital	-1702
elf	-1703
ink	-1704
▁letter	-1705
val	-1706
▁brought	-1707
osed	-1708
su	-1709
▁Soc	-1710
oss	-1711
▁pat	-1712
istrate	-1713
▁common	-1714
ird	-1715
eric	-1716
▁sever	-1717
▁wom	-1718
▁paragraph	-1719
▁Serv	-1720
▁Kumar	-1721
iples	-1722
ards	-1723
▁aside	-1724
▁private	-1725
▁Respondent	-1726
rest	-1727
▁LORD	-1728
▁sett	-1729
itor	-1730
▁acce	-1731
▁dispute	-1732
▁Department	-1733
duced	-1734
▁accordance	-1735
anies	-1736
▁categ	-1737
▁constit	-1738
▁vide	-1739
mental	-1740
▁Lt	-1741
inary	-1742
▁submission	-1743
▁den	-1744
▁purposes	-1745
ield	-1746
AN	-1747
▁medical	-1748
▁benefit	-1749
ellate	-1750
ually	-1751
▁Prov	-1752
itation	-1753
▁hig	-1754
▁independ	-1755
▁Dr	-1756
xad	-1757
▁water	-1758
▁among	-1759
ana	-1760
ger	-1761
▁namely	-1762
▁children	-1763
▁international	-1764
▁ir	-1765
raq	-1766
uly	-1767
▁conn	-1768
▁Tamil	-1769
▁Iraq	-1770
▁decisions	-1771
▁sought	-1772
ulations	-1773
▁Mah	-1774
cture	-1775
▁procedure	-1776
▁final	-1777
▁program	-1778
hing	-1779
ocrat	-1780
▁conclusion	-1781
▁raised	-1782
stitutions	-1783
▁Co	-1784
▁clearly	-1785
▁sm	-1786
iversity	-1787
taining	-1788
▁total	-1789
▁recogn	-1790
▁separ	-1791
▁cust	-1792
▁ur	-1793
▁level	-1794
▁Police	-1795
▁statutory	-1796
▁decided	-1797
▁money	-1798
tific	-1799
▁prior	-1800
▁Par	-1801
▁appointed	-1802
▁Magistrate	-1803
▁election	-1804
ization	-1805
▁Cr	-1806
▁san	-1807
missions	-1808
▁Eng	-1809
action	-1810
▁vict	-1811
▁otherwise	-1812
▁administration	-1813
▁Be	-1814
▁mind	-1815
osp	-1816
▁propos	-1817
▁human	-1818
▁deem	-1819
sw	-1820
▁control	-1821
▁opport	-1822
▁left	-1823
▁national	-1824
iate	-1825
ork	-1826
sp	-1827
▁noted	-1828
▁family	-1829
avan	-1830
▁rate	-1831
▁reject	-1832
overed	-1833
▁Pradesh	-1834
▁Ltd	-1835
orn	-1836
▁Special	-1837
▁notification	-1838
▁role	-1839
▁trade	-1840
▁purch	-1841
isition	-1842
▁aspect	-1843
app	-1844
BI	-1845
▁District	-1846
arily	-1847
utive	-1848
ulated	-1849
▁several	-1850
AL	-1851
▁adop	-1852
▁Commissioner	-1853
hic	-1854
lied	-1855
▁accepted	-1856
▁offences	-1857
▁grow	-1858
▁substant	-1859
▁fall	-1860
▁large	-1861
▁assessee	-1862
istry	-1863
illa	-1864
▁Legisl	-1865
▁expression	-1866
▁become	-1867
▁education	-1868
▁Corpor	-1869
▁Cont	-1870
▁Govern	-1871
▁doubt	-1872
▁care	-1873
▁Americ	-1874
▁possible	-1875
uf	-1876
for	-1877
standing	-1878
xt	-1879
....	-1880
▁note	-1881
▁established	-1882
ying	-1883
▁Public	-1884
mes	-1885
▁registered	-1886
▁vis	-1887
ID	-1888
▁While	-1889
▁refer	-1890
ower	-1891
aged	-1892
▁obl	-1893
▁Authority	-1894
▁vot	-1895
arn	-1896
▁function	-1897
▁situation	-1898
▁documents	-1899
▁tra	-1900
▁charges	-1901
isation	-1902
hedu	-1903
▁issues	-1904
▁incident	-1905
▁suff	-1906
▁group	-1907
hedule	-1908
▁short	-1909
▁free	-1910
▁Mad	-1911
▁Judges	-1912
▁extent	-1913
iber	-1914
▁age	-1915
▁real	-1916
▁env	-1917
▁specific	-1918
▁IN	-1919
rael	-1920
▁succ	-1921
riage	-1922
▁undert	-1923
▁others	-1924
▁correct	-1925
▁five	-1926
▁reasonable	-1927
▁impris	-1928
▁Cla	-1929
ics	-1930
▁Ab	-1931
▁employees	-1932
▁impos	-1933
▁list	-1934
▁plan	-1935
▁gl	-1936
▁arbitration	-1937
▁complete	-1938
▁authorities	-1939
▁Comm	-1940
▁Le	-1941
▁artic	-1942
▁meaning	-1943
arent	-1944
▁petitioners	-1945
illion	-1946
▁Israel	-1947
▁pref	-1948
amental	-1949
▁principles	-1950
ple	-1951
▁previous	-1952
with	-1953
▁decree	-1954
▁much	-1955
▁context	-1956
▁defendant	-1957
▁bre	-1958
ached	-1959
▁recommend	-1960
▁Artic	-1961
ging	-1962
chool	-1963
▁answ	-1964
▁Report	-1965
▁foreign	-1966
▁Order	-1967
▁She	-1968
uses	-1969
▁Further	-1970
▁sugg	-1971
ick	-1972
▁restr	-1973
▁ess	-1974
▁fix	-1975
aly	-1976
▁imprisonment	-1977
▁similar	-1978
▁assessment	-1979
ala	-1980
▁Adv	-1981
ufact	-1982
▁security	-1983
▁ensure	-1984
▁towards	-1985
▁victim	-1986
▁relations	-1987
▁Criminal	-1988
▁delay	-1989
▁appearing	-1990
▁Secret	-1991
▁light	-1992
▁mot	-1993
▁ver	-1994
imes	-1995
▁adver	-1996
▁mand	-1997
imum	-1998
▁neg	-1999
▁fram	-2000
▁enter	-2001
IC	-2002
▁four	-2003
▁fe	-2004
▁member	-2005
angu	-2006
▁declared	-2007
▁implement	-2008
ways	-2009
▁areas	-2010
ably	-2011
▁below	-2012
itiz	-2013
▁six	-2014
utes	-2015
▁lic	-2016
▁applicable	-2017
▁review	-2018
▁treat	-2019
lt	-2020
▁subsequent	-2021
▁Jan	-2022
▁contended	-2023
▁eng	-2024
asion	-2025
▁unless	-2026
▁Eu	-2027
▁hearing	-2028
▁sal	-2029
▁institutions	-2030
ainant	-2031
▁holding	-2032
IT	-2033
▁particip	-2034
▁interf	-2035
▁ph	-2036
▁ful	-2037
▁dire	-2038
une	-2039
akh	-2040
▁attack	-2041
▁Party	-2042
▁loss	-2043
▁relied	-2044
▁how	-2045
ospital	-2046
▁examined	-2047
rope	-2048
ony	-2049
▁Develop	-2050
▁regarding	-2051
▁product	-2052
uled	-2053
ironment	-2054
▁building	-2055
illed	-2056
▁examination	-2057
▁lo	-2058
▁amendment	-2059
▁Company	-2060
▁pop	-2061
▁went	-2062
▁relig	-2063
▁health	-2064
▁manufact	-2065
spect	-2066
ocratic	-2067
▁Europe	-2068
▁Fin	-2069
▁fundamental	-2070
▁vehic	-2071
pril	-2072
come	-2073
▁discl	-2074
▁father	-2075
▁pointed	-2076
▁original	-2077
▁share	-2078
▁direction	-2079
▁April	-2080
▁Corporation	-2081
▁x	-2082
▁Under	-2083
ories	-2084
▁arrest	-2085
▁event	-2086
▁Nos	-2087
▁cop	-2088
▁lease	-2089
▁express	-2090
ently	-2091
▁AIR	-2092
▁enc	-2093
▁wee	-2094
istan	-2095
▁involved	-2096
▁tru	-2097
▁defin	-2098
ya	-2099
▁immed	-2100
▁recover	-2101
ercial	-2102
fficient	-2103
▁prep	-2104
▁construction	-2105
▁countries	-2106
uary	-2107
▁reserv	-2108
▁bring	-2109
▁relation	-2110
▁Ministry	-2111
▁hel	-2112
▁keep	-2113
▁facil	-2114
▁Pl	-2115
▁full	-2116
▁appre	-2117
▁term	-2118
▁agg	-2119
ership	-2120
▁doct	-2121
--	-2122
▁penal	-2123
▁document	-2124
▁son	-2125
▁relief	-2126
▁Lear	-2127
TE	-2128
ours	-2129
urance	-2130
▁carry	-2131
▁start	-2132
▁#	-2133
▁il	-2134
▁till	-2135
▁es	-2136
▁dri	-2137
iving	-2138
tificate	-2139
atural	-2140
ENT	-2141
▁PR	-2142
▁institution	-2143
▁Off	-2144
omin	-2145
ope	-2146
▁serious	-2147
▁cro	-2148
▁March	-2149
▁tem	-2150
▁illeg	-2151
▁away	-2152
▁pet	-2153
▁May	-2154
ton	-2155
tation	-2156
▁instru	-2157
▁legislation	-2158
ledge	-2159
▁nan	-2160
▁saf	-2161
orth	-2162
▁Governor	-2163
▁citiz	-2164
▁liable	-2165
essions	-2166
▁therein	-2167
ends	-2168
▁deemed	-2169
▁complainant	-2170
▁University	-2171
ium	-2172
▁return	-2173
▁conviction	-2174
▁fee	-2175
▁leave	-2176
▁pray	-2177
▁include	-2178
oid	-2179
▁laws	-2180
ues	-2181
▁higher	-2182
bs	-2183
▁Director	-2184
reedom	-2185
▁heard	-2186
▁aut	-2187
▁Learned	-2188
▁personal	-2189
▁ded	-2190
▁House	-2191
▁giving	-2192
▁collect	-2193
▁God	-2194
chie	-2195
▁price	-2196
atives	-2197
▁Tax	-2198
▁alleg	-2199
que	-2200
here	-2201
▁bail	-2202
▁declar	-2203
▁written	-2204
mbly	-2205
land	-2206
▁With	-2207
▁para	-2208
▁assist	-2209
vention	-2210
▁By	-2211
ises	-2212
▁Bhavan	-2213
iced	-2214
urrent	-2215
▁judgments	-2216
idav	-2217
▁local	-2218
▁qual	-2219
ta	-2220
▁essential	-2221
▁today	-2222
▁run	-2223
▁help	-2224
anation	-2225
▁Sri	-2226
ti	-2227
▁Add	-2228
▁vac	-2229
▁port	-2230
▁proved	-2231
▁meeting	-2232
▁move	-2233
▁Development	-2234
▁whole	-2235
▁achie	-2236
▁wherein	-2237
apter	-2238
▁finding	-2239
▁bar	-2240
▁und	-2241
tion	-2242
▁norm	-2243
ION	-2244
▁officers	-2245
▁field	-2246
▁Secretary	-2247
ize	-2248
iso	-2249
▁pursu	-2250
▁success	-2251
▁lay	-2252
HE	-2253
▁Intern	-2254
▁pending	-2255
▁ce	-2256
▁sufficient	-2257
▁produced	-2258
▁crime	-2259
▁Rep	-2260
▁next	-2261
▁states	-2262
▁companies	-2263
▁directions	-2264
band	-2265
▁opportunity	-2266
icult	-2267
▁whose	-2268
anguage	-2269
dra	-2270
eb	-2271
▁himself	-2272
▁condition	-2273
▁Even	-2274
▁disch	-2275
▁FIR	-2276
▁tit	-2277
▁play	-2278
ricult	-2279
abour	-2280
▁United	-2281
erg	-2282
str	-2283
pir	-2284
▁step	-2285
▁seen	-2286
▁har	-2287
abor	-2288
▁camp	-2289
▁Med	-2290
▁submit	-2291
▁oppos	-2292
▁filing	-2293
oor	-2294
▁Bush	-2295
▁Mem	-2296
▁intention	-2297
▁Muk	-2298
▁imm	-2299
▁fut	-2300
▁regular	-2301
umb	-2302
▁wind	-2303
▁existing	-2304
▁nothing	-2305
▁unt	-2306
▁payable	-2307
▁contention	-2308
▁affidav	-2309
jee	-2310
aving	-2311
mises	-2312
▁Bill	-2313
१०	-2314
▁best	-2315
ault	-2316
▁chan	-2317
▁absence	-2318
▁Rasht	-2319
▁Such	-2320
outh	-2321
phas	-2322
▁known	-2323
▁crit	-2324
▁impro	-2325
▁corpor	-2326
▁protection	-2327
▁followed	-2328
▁Where	-2329
go	-2330
essional	-2331
ources	-2332
urd	-2333
▁basic	-2334
▁Scheme	-2335
adu	-2336
▁occup	-2337
▁signific	-2338
▁whom	-2339
▁Since	-2340
II	-2341
▁treated	-2342
▁proviso	-2343
▁sanction	-2344
missible	-2345
▁villa	-2346
▁thereafter	-2347
enc	-2348
ires	-2349
ication	-2350
▁candidates	-2351
▁proceeding	-2352
usband	-2353
▁carried	-2354
▁Schedule	-2355
▁near	-2356
rapati	-2357
DA	-2358
yp	-2359
▁What	-2360
▁told	-2361
▁stri	-2362
▁production	-2363
▁challenge	-2364
▁third	-2365
▁Sept	-2366
▁expressed	-2367
omet	-2368
reng	-2369
▁interests	-2370
IA	-2371
▁look	-2372
▁statute	-2373
▁sector	-2374
to	-2375
erated	-2376
▁proposed	-2377
▁needs	-2378
uction	-2379
▁admitted	-2380
▁guil	-2381
ties	-2382
▁wife	-2383
▁conducted	-2384
▁Rashtrapati	-2385
▁acquisition	-2386
vey	-2387
▁consum	-2388
▁continue	-2389
gether	-2390
▁together	-2391
luded	-2392
▁Appellant	-2393
aries	-2394
ery	-2395
acity	-2396
▁prevent	-2397
▁September	-2398
▁still	-2399
reg	-2400
▁fair	-2401
▁merely	-2402
▁activities	-2403
thing	-2404
▁change	-2405
ked	-2406
▁American	-2407
acter	-2408
▁freedom	-2409
▁January	-2410
isc	-2411
▁press	-2412
▁withdra	-2413
▁rejected	-2414
▁women	-2415
resh	-2416
side	-2417
idd	-2418
erve	-2419
selves	-2420
▁dest	-2421
▁deed	-2422
▁So	-2423
▁bal	-2424
▁dam	-2425
CI	-2426
war	-2427
▁Writ	-2428
▁hist	-2429
▁Chapter	-2430
▁Me	-2431
▁Bomb	-2432
yond	-2433
▁beyond	-2434
ling	-2435
▁contrib	-2436
equ	-2437
arat	-2438
▁students	-2439
▁face	-2440
▁streng	-2441
▁fac	-2442
▁competent	-2443
▁intro	-2444
▁One	-2445
▁Chand	-2446
▁providing	-2447
ional	-2448
▁br	-2449
▁Dece	-2450
ught	-2451
▁rend	-2452
IN	-2453
▁contem	-2454
imate	-2455
▁SL	-2456
▁marriage	-2457
▁submissions	-2458
eak	-2459
ipal	-2460
omp	-2461
ociation	-2462
▁measures	-2463
venue	-2464
▁Cons	-2465
ension	-2466
▁approach	-2467
▁occasion	-2468
▁SE	-2469
aff	-2470
▁interpretation	-2471
▁natural	-2472
▁book	-2473
lying	-2474
▁enfor	-2475
▁owner	-2476
enced	-2477
▁knowledge	-2478
▁Pri	-2479
▁dev	-2480
▁future	-2481
▁Aug	-2482
▁happ	-2483
▁turn	-2484
▁threat	-2485
▁maintain	-2486
▁sust	-2487
▁punishment	-2488
ators	-2489
arant	-2490
▁Bombay	-2491
▁sing	-2492
▁proble	-2493
▁declaration	-2494
▁expect	-2495
▁brother	-2496
▁legislative	-2497
iciary	-2498
ancy	-2499
▁Procedure	-2500
▁character	-2501
▁failed	-2502
▁framed	-2503
▁December	-2504
▁iii	-2505
▁commission	-2506
pective	-2507
▁management	-2508
oot	-2509
▁allot	-2510
▁ut	-2511
▁fine	-2512
encies	-2513
▁Indust	-2514
ats	-2515
▁mass	-2516
▁limited	-2517
▁acquit	-2518
▁accordingly	-2519
ender	-2520
▁August	-2521
ware	-2522
▁awarded	-2523
▁attempt	-2524
▁Clause	-2525
▁dispos	-2526
rant	-2527
▁THE	-2528
▁legislature	-2529
anch	-2530
▁Pre	-2531
▁belong	-2532
▁Ger	-2533
▁defence	-2534
io	-2535
▁furn	-2536
▁neither	-2537
▁impl	-2538
ashing	-2539
formation	-2540
▁seeking	-2541
▁credit	-2542
▁questions	-2543
▁husband	-2544
▁imposed	-2545
▁noticed	-2546
▁reads	-2547
unt	-2548
▁Service	-2549
▁contrary	-2550
▁Chair	-2551
▁trad	-2552
▁Cl	-2553
▁claimed	-2554
▁wr	-2555
▁lakh	-2556
▁Lim	-2557
▁operation	-2558
ened	-2559
▁Provided	-2560
lim	-2561
▁terror	-2562
▁consequ	-2563
abad	-2564
▁industrial	-2565
cer	-2566
ocate	-2567
▁applied	-2568
▁subs	-2569
▁ear	-2570
▁small	-2571
▁cover	-2572
▁Asse	-2573
ober	-2574
uries	-2575
att	-2576
▁Em	-2577
▁makes	-2578
▁dealing	-2579
▁additional	-2580
▁difficult	-2581
▁lar	-2582
▁men	-2583
urned	-2584
▁once	-2585
▁later	-2586
▁effort	-2587
▁school	-2588
▁language	-2589
▁grounds	-2590
hod	-2591
▁independent	-2592
ipt	-2593
retion	-2594
▁benefits	-2595
▁inn	-2596
▁summ	-2597
▁minor	-2598
▁List	-2599
usal	-2600
▁least	-2601
irt	-2602
arch	-2603
nel	-2604
▁Af	-2605
▁First	-2606
▁appears	-2607
▁cut	-2608
acher	-2609
ternal	-2610
▁caused	-2611
▁considering	-2612
▁certificate	-2613
▁mining	-2614
aper	-2615
▁Rec	-2616
ares	-2617
▁never	-2618
▁trust	-2619
▁concept	-2620
▁petitions	-2621
ilities	-2622
ison	-2623
rieved	-2624
▁approval	-2625
ali	-2626
omes	-2627
▁sl	-2628
▁file	-2629
▁vehicle	-2630
▁addition	-2631
▁Nove	-2632
▁practice	-2633
▁November	-2634
▁Lord	-2635
▁fri	-2636
▁mor	-2637
work	-2638
▁true	-2639
▁observations	-2640
aka	-2641
iver	-2642
▁July	-2643
ressed	-2644
▁cast	-2645
▁argued	-2646
▁candidate	-2647
alc	-2648
▁apprec	-2649
▁treatment	-2650
▁employee	-2651
▁environment	-2652
ored	-2653
▁functions	-2654
▁International	-2655
▁broad	-2656
▁executive	-2657
▁analy	-2658
▁underst	-2659
icted	-2660
▁around	-2661
▁outside	-2662
▁rendered	-2663
oice	-2664
anced	-2665
▁Single	-2666
▁liber	-2667
▁nam	-2668
▁affidavit	-2669
sh	-2670
▁discretion	-2671
earch	-2672
stitute	-2673
▁communic	-2674
▁request	-2675
▁penalty	-2676
▁substantial	-2677
lu	-2678
▁particularly	-2679
ij	-2680
▁UN	-2681
▁distin	-2682
airs	-2683
ina	-2684
▁yet	-2685
▁resolution	-2686
law	-2687
▁forward	-2688
▁Judicial	-2689
▁commercial	-2690
▁industry	-2691
▁requirement	-2692
▁execution	-2693
▁consist	-2694
duc	-2695
▁preferred	-2696
iting	-2697
▁adjud	-2698
▁Fr	-2699
ubl	-2700
▁sold	-2701
▁Sim	-2702
racted	-2703
ched	-2704
▁deb	-2705
▁premises	-2706
▁fr	-2707
▁situ	-2708
▁gra	-2709
▁registration	-2710
▁prohib	-2711
lege	-2712
▁Oct	-2713
hys	-2714
▁adopted	-2715
▁want	-2716
▁suggest	-2717
view	-2718
▁debt	-2719
▁arising	-2720
▁determined	-2721
▁majority	-2722
obal	-2723
jection	-2724
tt	-2725
▁mult	-2726
▁rent	-2727
▁arri	-2728
▁investig	-2729
▁lev	-2730
bsite	-2731
▁separate	-2732
▁Feb	-2733
fully	-2734
▁former	-2735
▁plant	-2736
▁bound	-2737
▁Dem	-2738
▁Trial	-2739
vest	-2740
ancell	-2741
▁demon	-2742
▁method	-2743
▁receipt	-2744
▁few	-2745
▁emphas	-2746
ern	-2747
round	-2748
▁fixed	-2749
▁Mukher	-2750
▁able	-2751
▁Social	-2752
asing	-2753
▁illegal	-2754
cement	-2755
▁growth	-2756
▁old	-2757
▁pension	-2758
▁settled	-2759
▁termin	-2760
▁reliance	-2761
▁punishable	-2762
▁Hon	-2763
▁June	-2764
▁cult	-2765
▁too	-2766
iately	-2767
▁plead	-2768
▁October	-2769
ruary	-2770
oved	-2771
▁dom	-2772
▁liability	-2773
▁Ent	-2774
▁protect	-2775
▁agreed	-2776
▁details	-2777
▁guarant	-2778
▁satisfied	-2779
heduled	-2780
rast	-2781
▁February	-2782
▁consult	-2783
▁recovery	-2784
▁acquired	-2785
▁wrong	-2786
▁SLP	-2787
ogniz	-2788
▁hospital	-2789
▁inquiry	-2790
▁govern	-2791
▁acts	-2792
ani	-2793
▁consent	-2794
chan	-2795
▁side	-2796
▁concern	-2797
▁Def	-2798
▁copy	-2799
ruit	-2800
▁title	-2801
ept	-2802
CT	-2803
▁sex	-2804
▁integ	-2805
▁prim	-2806
▁always	-2807
▁Mukherjee	-2808
ousand	-2809
▁past	-2810
rol	-2811
▁aim	-2812
▁posts	-2813
▁anything	-2814
▁led	-2815
▁judge	-2816
▁Appellate	-2817
▁ey	-2818
pite	-2819
itive	-2820
११	-2821
▁specif	-2822
▁Karn	-2823
▁reported	-2824
▁elig	-2825
▁publ	-2826
▁prepared	-2827
▁Additional	-2828
ead	-2829
▁related	-2830
▁Right	-2831
▁dealt	-2832
▁defined	-2833
▁dead	-2834
▁capacity	-2835
idel	-2836
▁injuries	-2837
▁scope	-2838
▁Income	-2839
▁website	-2840
▁sw	-2841
▁ult	-2842
▁themselves	-2843
▁resident	-2844
▁Ter	-2845
▁category	-2846
▁Whether	-2847
▁His	-2848
▁training	-2849
▁Wor	-2850
▁urged	-2851
adem	-2852
▁stay	-2853
▁vol	-2854
▁kind	-2855
▁Second	-2856
▁access	-2857
▁Pun	-2858
men	-2859
▁emp	-2860
▁ought	-2861
▁permission	-2862
ety	-2863
▁Im	-2864
▁joint	-2865
elfare	-2866
▁Assembly	-2867
▁Brit	-2868
▁Expl	-2869
ource	-2870
▁belie	-2871
▁Information	-2872
▁determination	-2873
▁Bar	-2874
▁tar	-2875
ke	-2876
ataka	-2877
▁gave	-2878
istrative	-2879
▁Sessions	-2880
▁remed	-2881
▁covered	-2882
▁immediately	-2883
▁peace	-2884
▁demonstr	-2885
▁close	-2886
▁million	-2887
▁amended	-2888
▁statements	-2889
▁obtained	-2890
▁status	-2891
▁ill	-2892
int	-2893
▁created	-2894
▁includes	-2895
▁decide	-2896
ops	-2897
uss	-2898
▁liberty	-2899
▁presence	-2900
▁Karnataka	-2901
▁discussion	-2902
▁assets	-2903
under	-2904
▁Fore	-2905
▁window	-2906
IS	-2907
▁entered	-2908
ening	-2909
▁instant	-2910
▁findings	-2911
▁absol	-2912
▁argument	-2913
ift	-2914
▁included	-2915
▁existence	-2916
pur	-2917
▁article	-2918
▁kept	-2919
▁quality	-2920
▁claims	-2921
▁territ	-2922
▁Pat	-2923
▁asked	-2924
▁signed	-2925
▁div	-2926
▁setting	-2927
▁redu	-2928
▁definition	-2929
IL	-2930
▁performance	-2931
▁affect	-2932
▁continued	-2933
reet	-2934
▁applications	-2935
▁rese	-2936
▁conferred	-2937
▁executed	-2938
ifying	-2939
▁cogniz	-2940
▁conspir	-2941
▁applicant	-2942
▁permitted	-2943
▁stip	-2944
▁got	-2945
▁road	-2946
▁Amendment	-2947
▁directly	-2948
ously	-2949
▁food	-2950
▁Regulations	-2951
▁cross	-2952
▁employment	-2953
▁going	-2954
▁oil	-2955
▁Hind	-2956
agar	-2957
irmed	-2958
▁coll	-2959
▁imper	-2960
▁specifically	-2961
▁conflic	-2962
▁thousand	-2963
▁Articles	-2964
▁data	-2965
▁phys	-2966
oper	-2967
▁why	-2968
▁population	-2969
uties	-2970
▁Arbitr	-2971
▁establishment	-2972
▁European	-2973
▁virt	-2974
▁Moh	-2975
▁super	-2976
ordin	-2977
▁distrib	-2978
▁prosecut	-2979
▁citizens	-2980
ifications	-2981
▁relationship	-2982
ude	-2983
▁promotion	-2984
▁challenged	-2985
▁drawn	-2986
▁PRES	-2987
▁mort	-2988
vent	-2989
▁forces	-2990
▁strong	-2991
▁sk	-2992
▁increase	-2993
wal	-2994
▁Limited	-2995
oms	-2996
pped	-2997
▁Per	-2998
▁job	-2999
iture	-3000
augh	-3001
▁might	-3002
urs	-3003
▁supply	-3004
▁Shar	-3005
▁appellate	-3006
ictions	-3007
ape	-3008
▁hereinafter	-3009
rs	-3010
▁custody	-3011
atures	-3012
▁deals	-3013
▁single	-3014
▁requires	-3015
▁Trans	-3016
▁informed	-3017
▁minimum	-3018
▁home	-3019
iously	-3020
▁media	-3021
▁Des	-3022
racy	-3023
▁Senior	-3024
▁commit	-3025
▁ren	-3026
▁exceed	-3027
▁experience	-3028
▁convicted	-3029
idelines	-3030
▁thereby	-3031
▁violation	-3032
▁alone	-3033
▁Regulation	-3034
▁significant	-3035
▁contempl	-3036
▁dismiss	-3037
▁absolute	-3038
urred	-3039
▁community	-3040
▁opposition	-3041
▁judiciary	-3042
vi	-3043
▁king	-3044
▁nation	-3045
▁weap	-3046
▁intended	-3047
▁exercised	-3048
▁fra	-3049
▁global	-3050
aign	-3051
rastru	-3052
▁prove	-3053
▁effective	-3054
rish	-3055
▁content	-3056
▁fire	-3057
▁until	-3058
▁Legislature	-3059
withstanding	-3060
▁LT	-3061
▁Mo	-3062
▁youn	-3063
▁constituted	-3064
▁quot	-3065
▁Educ	-3066
▁assum	-3067
▁examine	-3068
▁address	-3069
▁Ref	-3070
▁regul	-3071
▁validity	-3072
▁Sm	-3073
alse	-3074
▁Pak	-3075
▁shown	-3076
▁tribunal	-3077
ras	-3078
▁Admin	-3079
▁connection	-3080
▁More	-3081
▁coal	-3082
lusive	-3083
ration	-3084
▁Keral	-3085
▁blood	-3086
▁mother	-3087
▁limitation	-3088
▁steps	-3089
▁selection	-3090
▁injury	-3091
▁Sy	-3092
rench	-3093
jab	-3094
▁agricult	-3095
my	-3096
▁responsible	-3097
▁week	-3098
▁clar	-3099
▁Sab	-3100
most	-3101
▁living	-3102
▁Kerala	-3103
▁mur	-3104
▁Lank	-3105
▁instance	-3106
▁standards	-3107
ama	-3108
▁district	-3109
▁materials	-3110
▁ide	-3111
▁costs	-3112
▁reve	-3113
▁facilities	-3114
▁officials	-3115
▁false	-3116
▁cur	-3117
▁oblig	-3118
▁Ann	-3119
▁Mahar	-3120
ems	-3121
▁deg	-3122
change	-3123
▁default	-3124
▁Bi	-3125
▁remain	-3126
AC	-3127
IDENT	-3128
▁revision	-3129
▁progress	-3130
▁counter	-3131
▁guilty	-3132
▁entry	-3133
▁Pal	-3134
▁pot	-3135
▁investment	-3136
▁Pakistan	-3137
▁air	-3138
▁design	-3139
▁democratic	-3140
▁hence	-3141
▁offer	-3142
▁sections	-3143
ene	-3144
▁Mus	-3145
▁net	-3146
▁interim	-3147
▁Punjab	-3148
▁Republic	-3149
▁extend	-3150
▁technical	-3151
▁join	-3152
though	-3153
▁duties	-3154
▁live	-3155
▁sole	-3156
wing	-3157
▁daugh	-3158
▁opens	-3159
▁accident	-3160
▁commence	-3161
▁plea	-3162
igence	-3163
▁presum	-3164
▁murder	-3165
▁campaign	-3166
▁unf	-3167
▁hands	-3168
,00	-3169
▁shares	-3170
▁LTTE	-3171
▁Hence	-3172
▁leading	-3173
▁lat	-3174
▁cris	-3175
▁Techn	-3176
kn	-3177
aging	-3178
▁tal	-3179
▁Engine	-3180
adha	-3181
▁city	-3182
▁village	-3183
▁PRESIDENT	-3184
▁depend	-3185
▁From	-3186
▁self	-3187
▁equal	-3188
vement	-3189
▁anti	-3190
▁doing	-3191
ograph	-3192
▁things	-3193
▁balance	-3194
▁discrimin	-3195
▁tenant	-3196
▁approved	-3197
▁rul	-3198
▁disposed	-3199
oke	-3200
ourn	-3201
▁Dep	-3202
▁host	-3203
३०	-3204
▁farm	-3205
mitting	-3206
amb	-3207
anj	-3208
▁economy	-3209
▁president	-3210
ert	-3211
▁aver	-3212
▁rightly	-3213
▁Fund	-3214
▁vested	-3215
▁failure	-3216
▁disputes	-3217
▁sell	-3218
▁added	-3219
aul	-3220
iable	-3221
▁current	-3222
urrence	-3223
▁Invest	-3224
▁records	-3225
▁Assist	-3226
▁seek	-3227
▁saying	-3228
▁fit	-3229
ane	-3230
▁coming	-3231
▁transferred	-3232
▁susp	-3233
▁judges	-3234
▁transaction	-3235
▁think	-3236
▁Medical	-3237
▁properties	-3238
▁typ	-3239
tax	-3240
▁Conf	-3241
riev	-3242
▁perman	-3243
▁Chairman	-3244
▁Thereafter	-3245
the	-3246
rastructure	-3247
▁assistance	-3248
cla	-3249
ban	-3250
▁Pran	-3251
▁initial	-3252
▁extended	-3253
▁released	-3254
▁technology	-3255
indu	-3256
ample	-3257
▁merit	-3258
▁lands	-3259
▁likely	-3260
be	-3261
undred	-3262
ression	-3263
com	-3264
▁writing	-3265
acc	-3266
▁prejud	-3267
gal	-3268
▁Int	-3269
▁aspects	-3270
▁patient	-3271
▁manufacture	-3272
ricity	-3273
▁arise	-3274
ades	-3275
▁times	-3276
▁answer	-3277
▁requirements	-3278
upees	-3279
lled	-3280
▁sol	-3281
▁Now	-3282
▁published	-3283
▁aid	-3284
▁charged	-3285
▁discharge	-3286
▁la	-3287
▁IND	-3288
ots	-3289
▁Pe	-3290
▁determine	-3291
ians	-3292
▁arr	-3293
▁limit	-3294
▁enacted	-3295
▁fully	-3296
▁protest	-3297
▁crisis	-3298
aster	-3299
▁works	-3300
▁prec	-3301
▁External	-3302
▁seven	-3303
▁exem	-3304
▁religious	-3305
gress	-3306
▁justified	-3307
AS	-3308
iary	-3309
▁wide	-3310
atch	-3311
using	-3312
▁sense	-3313
▁conver	-3314
▁Ac	-3315
▁forth	-3316
kar	-3317
▁preced	-3318
▁Explanation	-3319
rated	-3320
▁respective	-3321
▁IT	-3322
▁Hindu	-3323
........	-3324
ront	-3325
▁funds	-3326
lies	-3327
▁passing	-3328
▁apart	-3329
ills	-3330
▁quant	-3331
▁Agree	-3332
▁transport	-3333
▁cru	-3334
▁factors	-3335
imately	-3336
▁resources	-3337
▁altern	-3338
▁crores	-3339
ounced	-3340
▁adequ	-3341
▁Pranab	-3342
▁films	-3343
▁policies	-3344
de	-3345
▁recommendations	-3346
▁remov	-3347
▁Vs	-3348
cell	-3349
▁Having	-3350
ocation	-3351
▁attention	-3352
▁reform	-3353
▁AN	-3354
▁Ob	-3355
roup	-3356
▁adj	-3357
▁allegations	-3358
▁permit	-3359
▁Similar	-3360
▁tele	-3361
ental	-3362
▁corporate	-3363
rix	-3364
▁emb	-3365
▁better	-3366
▁deposit	-3367
▁Entry	-3368
▁privacy	-3369
▁influ	-3370
▁fresh	-3371
lam	-3372
▁purchase	-3373
ival	-3374
▁esp	-3375
hra	-3376
▁West	-3377
▁Mal	-3378
ological	-3379
atic	-3380
▁Guj	-3381
▁research	-3382
itable	-3383
▁Education	-3384
▁bi	-3385
▁Princ	-3386
ingu	-3387
▁line	-3388
▁Land	-3389
▁Any	-3390
▁begin	-3391
▁somet	-3392
stituted	-3393
osure	-3394
▁strugg	-3395
▁conspiracy	-3396
▁comput	-3397
▁region	-3398
▁young	-3399
▁reports	-3400
▁firm	-3401
▁structure	-3402
▁enj	-3403
▁Ah	-3404
eaking	-3405
▁Ins	-3406
lected	-3407
erted	-3408
▁reading	-3409
estic	-3410
▁amend	-3411
▁During	-3412
▁Lal	-3413
▁importance	-3414
▁merits	-3415
▁indicated	-3416
,000	-3417
▁parent	-3418
▁compliance	-3419
sis	-3420
rine	-3421
ashington	-3422
▁....	-3423
▁Sect	-3424
illing	-3425
▁banks	-3426
▁error	-3427
▁alia	-3428
▁CBI	-3429
orrow	-3430
▁teacher	-3431
▁Washington	-3432
iring	-3433
sequently	-3434
EL	-3435
▁Sal	-3436
enance	-3437
▁guidelines	-3438
▁advanced	-3439
▁Dis	-3440
▁aggrieved	-3441
▁Lok	-3442
▁servant	-3443
eech	-3444
▁consc	-3445
▁Collect	-3446
▁Elect	-3447
▁becomes	-3448
▁Counsel	-3449
▁responsibility	-3450
▁Nar	-3451
▁Though	-3452
▁affected	-3453
ocracy	-3454
▁removal	-3455
▁movement	-3456
RA	-3457
ashtra	-3458
▁admission	-3459
▁fulf	-3460
▁reit	-3461
▁dign	-3462
▁Group	-3463
▁create	-3464
▁efforts	-3465
▁Services	-3466
PA	-3467
▁Ra	-3468
▁recent	-3469
▁ble	-3470
▁lack	-3471
▁activity	-3472
▁export	-3473
▁undertak	-3474
▁concluded	-3475
▁constitute	-3476
far	-3477
aya	-3478
arth	-3479
▁sheet	-3480
olly	-3481
ining	-3482
▁comes	-3483
▁deep	-3484
▁aware	-3485
ne	-3486
▁minister	-3487
▁wages	-3488
▁Article	-3489
alled	-3490
▁cognizance	-3491
▁became	-3492
▁impact	-3493
operative	-3494
▁committee	-3495
▁hard	-3496
din	-3497
▁extre	-3498
▁agency	-3499
▁emer	-3500
▁Priv	-3501
▁academ	-3502
▁Other	-3503
▁frame	-3504
enses	-3505
ancies	-3506
▁proof	-3507
UR	-3508
▁gone	-3509
▁started	-3510
▁Maharashtra	-3511
▁Scheduled	-3512
eng	-3513
▁explained	-3514
▁retire	-3515
▁denied	-3516
▁commencement	-3517
▁South	-3518
▁woman	-3519
▁release	-3520
▁Association	-3521
▁III	-3522
▁aud	-3523
▁Gujarat	-3524
uri	-3525
▁arbitrator	-3526
▁Pen	-3527
amm	-3528
▁Let	-3529
hab	-3530
▁assoc	-3531
uge	-3532
▁hundred	-3533
utin	-3534
▁history	-3535
▁carrying	-3536
oad	-3537
▁max	-3538
ST	-3539
unities	-3540
▁China	-3541
▁fraud	-3542
aled	-3543
▁Sur	-3544
▁eligible	-3545
▁implementation	-3546
orney	-3547
▁detention	-3548
▁French	-3549
▁incorpor	-3550
sofar	-3551
▁actual	-3552
▁rather	-3553
▁My	-3554
▁heav	-3555
ecially	-3556
▁Bal	-3557
bitral	-3558
▁Rel	-3559
▁Deputy	-3560
ordinate	-3561
▁advance	-3562
▁Agreement	-3563
▁potential	-3564
▁permissible	-3565
▁wid	-3566
▁Sar	-3567
▁ign	-3568
▁nar	-3569
▁mach	-3570
hest	-3571
ruitment	-3572
▁ris	-3573
▁heart	-3574
enditure	-3575
adhaar	-3576
▁Trust	-3577
▁discipl	-3578
▁permanent	-3579
▁Prime	-3580
▁renew	-3581
aryana	-3582
▁Aadhaar	-3583
ET	-3584
▁Ors	-3585
▁partn	-3586
▁obligation	-3587
१२	-3588
▁duly	-3589
RI	-3590
▁especially	-3591
▁bod	-3592
▁arises	-3593
▁Haryana	-3594
▁Utt	-3595
▁mut	-3596
▁volunt	-3597
▁conflict	-3598
▁supported	-3599
▁Then	-3600
▁breach	-3601
ites	-3602
▁stood	-3603
▁educational	-3604
▁vote	-3605
▁bind	-3606
▁enquiry	-3607
IV	-3608
▁Sol	-3609
▁department	-3610
▁introduced	-3611
▁response	-3612
irl	-3613
▁fig	-3614
▁Iran	-3615
▁behind	-3616
ouses	-3617
▁empow	-3618
▁bo	-3619
▁repeal	-3620
istic	-3621
▁recovered	-3622
▁identified	-3623
▁NO	-3624
▁stands	-3625
reen	-3626
lish	-3627
▁insurance	-3628
▁Exec	-3629
▁Nadu	-3630
▁welfare	-3631
gar	-3632
▁Applic	-3633
mon	-3634
▁portion	-3635
ples	-3636
tle	-3637
▁iv	-3638
▁keeping	-3639
▁Advocate	-3640
▁ever	-3641
▁Labour	-3642
▁expected	-3643
▁doctrine	-3644
▁projects	-3645
▁elections	-3646
▁Hindi	-3647
▁acting	-3648
▁amounts	-3649
▁regulations	-3650
▁shows	-3651
icy	-3652
▁Kh	-3653
▁using	-3654
▁completed	-3655
ealth	-3656
iddle	-3657
▁served	-3658
▁identity	-3659
▁testim	-3660
▁East	-3661
rad	-3662
▁Collector	-3663
▁CO	-3664
▁Society	-3665
▁Institute	-3666
anchay	-3667
ann	-3668
ishes	-3669
▁products	-3670
▁consultation	-3671
▁fight	-3672
▁Some	-3673
▁difference	-3674
▁story	-3675
▁Territ	-3676
▁apparent	-3677
ones	-3678
▁infrastructure	-3679
▁occurrence	-3680
ederal	-3681
▁Assess	-3682
▁Accordingly	-3683
▁across	-3684
▁adverse	-3685
▁licence	-3686
unicipal	-3687
▁visit	-3688
▁Att	-3689
▁enjoy	-3690
▁speak	-3691
▁mortg	-3692
▁physical	-3693
▁mess	-3694
▁objection	-3695
▁programme	-3696
----	-3697
▁ruling	-3698
▁reached	-3699
▁griev	-3700
aching	-3701
▁strateg	-3702
ara	-3703
ung	-3704
▁sexual	-3705
abilities	-3706
▁religion	-3707
▁enactment	-3708
itude	-3709
▁insp	-3710
▁remedy	-3711
▁thing	-3712
cri	-3713
▁takes	-3714
aintenance	-3715
▁whereas	-3716
▁accounts	-3717
utions	-3718
▁deduction	-3719
▁parliament	-3720
▁scale	-3721
▁arrange	-3722
▁increased	-3723
▁burd	-3724
▁regime	-3725
▁Assistant	-3726
istrar	-3727
▁Legislative	-3728
▁discussed	-3729
▁operations	-3730
▁British	-3731
bed	-3732
ghan	-3733
▁bearing	-3734
▁World	-3735
▁Governments	-3736
ins	-3737
▁hero	-3738
▁English	-3739
▁objective	-3740
▁deposed	-3741
▁articles	-3742
▁Go	-3743
▁Ms	-3744
▁bid	-3745
▁respectively	-3746
▁example	-3747
▁repro	-3748
▁dr	-3749
▁Official	-3750
▁defendants	-3751
▁Ph	-3752
cted	-3753
▁daughter	-3754
▁Plan	-3755
▁obv	-3756
avi	-3757
▁stating	-3758
▁unit	-3759
▁Sabha	-3760
adi	-3761
held	-3762
▁tried	-3763
▁strict	-3764
▁enable	-3765
gy	-3766
bor	-3767
▁INDIA	-3768
asth	-3769
▁esc	-3770
▁prison	-3771
▁proced	-3772
▁director	-3773
▁Ne	-3774
▁undertaking	-3775
▁Bihar	-3776
rupt	-3777
▁died	-3778
▁submits	-3779
▁warrant	-3780
▁custom	-3781
▁expenditure	-3782
▁problems	-3783
▁alternative	-3784
▁engaged	-3785
▁produce	-3786
▁Aust	-3787
▁views	-3788
▁remains	-3789
▁substance	-3790
▁standard	-3791
▁Pra	-3792
▁hon	-3793
▁half	-3794
▁Ge	-3795
▁Prosec	-3796
▁energ	-3797
▁top	-3798
▁adequate	-3799
▁litigation	-3800
irth	-3801
erson	-3802
▁Case	-3803
▁spir	-3804
▁initi	-3805
▁virtue	-3806
▁labour	-3807
portion	-3808
▁Bengal	-3809
▁Policy	-3810
▁thought	-3811
▁initiated	-3812
rutin	-3813
▁prop	-3814
▁util	-3815
▁Rights	-3816
▁PS	-3817
▁calc	-3818
▁parts	-3819
▁low	-3820
▁TA	-3821
▁mechan	-3822
ship	-3823
▁weeks	-3824
aur	-3825
line	-3826
▁academic	-3827
ART	-3828
▁disposal	-3829
actions	-3830
▁employer	-3831
vere	-3832
▁diss	-3833
▁void	-3834
▁Ev	-3835
▁Socialist	-3836
▁administrative	-3837
▁nomin	-3838
▁larger	-3839
▁Similarly	-3840
▁democracy	-3841
▁recommended	-3842
▁strength	-3843
▁individuals	-3844
▁discuss	-3845
▁increasing	-3846
▁rates	-3847
▁despite	-3848
anger	-3849
▁independence	-3850
▁prospect	-3851
▁advert	-3852
▁places	-3853
▁settlement	-3854
▁Form	-3855
▁France	-3856
▁meant	-3857
▁mob	-3858
iversities	-3859
▁dignity	-3860
iah	-3861
▁arrested	-3862
▁acquittal	-3863
▁loan	-3864
li	-3865
▁soon	-3866
▁domestic	-3867
▁Supp	-3868
els	-3869
▁source	-3870
▁factual	-3871
▁mandatory	-3872
▁Finance	-3873
dom	-3874
alid	-3875
▁North	-3876
icated	-3877
▁receive	-3878
state	-3879
▁speech	-3880
▁rise	-3881
▁profit	-3882
ishing	-3883
▁fear	-3884
▁You	-3885
▁bomb	-3886
▁strike	-3887
ensive	-3888
▁Centre	-3889
▁Uttar	-3890
▁Sam	-3891
▁energy	-3892
▁Afghan	-3893
▁connected	-3894
▁interference	-3895
▁laun	-3896
▁quas	-3897
▁pred	-3898
ump	-3899
▁proposal	-3900
ivity	-3901
ateral	-3902
▁revenue	-3903
qual	-3904
▁Management	-3905
▁lost	-3906
rief	-3907
eared	-3908
▁z	-3909
wh	-3910
elled	-3911
▁names	-3912
▁rural	-3913
▁instead	-3914
▁analysis	-3915
erce	-3916
▁cle	-3917
ulted	-3918
▁prosecutrix	-3919
▁developed	-3920
▁struggle	-3921
▁seniority	-3922
▁tro	-3923
▁Russ	-3924
▁SP	-3925
▁eas	-3926
▁rupees	-3927
▁lakhs	-3928
elt	-3929
▁buy	-3930
accused	-3931
▁Madras	-3932
▁profits	-3933
pping	-3934
eated	-3935
▁supplied	-3936
▁Our	-3937
▁sil	-3938
▁units	-3939
▁tend	-3940
▁weapons	-3941
ini	-3942
▁big	-3943
izing	-3944
▁Before	-3945
▁excess	-3946
ground	-3947
ATION	-3948
▁ST	-3949
▁forms	-3950
▁liqu	-3951
▁comb	-3952
▁prob	-3953
▁early	-3954
▁AP	-3955
gest	-3956
▁Registrar	-3957
▁proceeded	-3958
▁referring	-3959
▁suggested	-3960
▁marks	-3961
▁facilit	-3962
▁Congress	-3963
ply	-3964
▁१	-3965
▁seized	-3966
▁lod	-3967
▁innov	-3968
▁wholly	-3969
▁Gaz	-3970
▁achieve	-3971
▁Industrial	-3972
icit	-3973
▁union	-3974
▁Andhra	-3975
▁contemplated	-3976
▁belonging	-3977
▁Do	-3978
▁advant	-3979
▁notified	-3980
▁red	-3981
▁clauses	-3982
▁contempt	-3983
▁returned	-3984
rug	-3985
eness	-3986
▁girl	-3987
▁key	-3988
▁Gand	-3989
▁poor	-3990
▁err	-3991
▁Accused	-3992
hemes	-3993
▁resol	-3994
▁gives	-3995
▁contra	-3996
▁leaders	-3997
▁mineral	-3998
▁representation	-3999
▁Air	-4000
▁safety	-4001
▁amongst	-4002
▁testimony	-4003
▁confession	-4004
asthan	-4005
▁Companies	-4006
▁cad	-4007
▁German	-4008
▁search	-4009
▁fell	-4010
▁viz	-4011
▁Both	-4012
▁extracted	-4013
▁site	-4014
▁described	-4015
▁recruitment	-4016
cle	-4017
▁Chen	-4018
▁maintenance	-4019
hya	-4020
▁recording	-4021
▁arguments	-4022
asm	-4023
anda	-4024
▁employed	-4025
▁consequences	-4026
▁der	-4027
▁Krish	-4028
▁encour	-4029
unction	-4030
▁principal	-4031
ED	-4032
▁opined	-4033
▁central	-4034
▁collected	-4035
▁Sw	-4036
▁construed	-4037
know	-4038
▁Har	-4039
▁ordinary	-4040
▁violence	-4041
▁events	-4042
▁actions	-4043
▁greater	-4044
▁professional	-4045
▁arrived	-4046
▁Sat	-4047
sc	-4048
▁enh	-4049
▁hours	-4050
▁pertaining	-4051
▁Prof	-4052
▁page	-4053
▁Sharma	-4054
▁scient	-4055
ancing	-4056
▁extreme	-4057
▁PART	-4058
▁reduced	-4059
▁interfere	-4060
▁recommendation	-4061
▁plaintiffs	-4062
uls	-4063
▁throughout	-4064
▁saw	-4065
▁motor	-4066
▁Members	-4067
CO	-4068
▁occupation	-4069
▁burden	-4070
▁station	-4071
aily	-4072
amination	-4073
▁Tig	-4074
▁granting	-4075
▁extra	-4076
▁wa	-4077
▁Insurance	-4078
▁maintained	-4079
▁reservation	-4080
▁Every	-4081
▁po	-4082
going	-4083
▁Executive	-4084
▁completely	-4085
▁Rajasthan	-4086
iations	-4087
▁billion	-4088
▁Red	-4089
▁friend	-4090
▁distinction	-4091
▁link	-4092
▁xx	-4093
ivered	-4094
▁staff	-4095
ousing	-4096
▁actually	-4097
▁explanation	-4098
ches	-4099
nces	-4100
umbai	-4101
▁option	-4102
▁determining	-4103
▁Prot	-4104
▁detailed	-4105
ream	-4106
▁Vij	-4107
▁cash	-4108
▁injured	-4109
▁groups	-4110
ets	-4111
▁spirit	-4112
▁Austral	-4113
▁scrutin	-4114
lude	-4115
▁killed	-4116
▁retirement	-4117
▁evident	-4118
▁flow	-4119
▁faith	-4120
▁lower	-4121
▁pend	-4122
hood	-4123
▁Can	-4124
▁elected	-4125
▁delivered	-4126
porary	-4127
▁bodies	-4128
▁cheque	-4129
ada	-4130
▁crore	-4131
aps	-4132
ivery	-4133
▁Revenue	-4134
nam	-4135
onom	-4136
▁Bang	-4137
inery	-4138
▁legit	-4139
▁Mumbai	-4140
▁Station	-4141
▁rank	-4142
▁prejudice	-4143
hai	-4144
▁Panchay	-4145
▁indicate	-4146
▁consequence	-4147
▁mag	-4148
▁uncon	-4149
▁poll	-4150
▁completion	-4151
▁communication	-4152
▁Rail	-4153
overned	-4154
▁gener	-4155
▁serve	-4156
▁prevail	-4157
▁Ver	-4158
▁Day	-4159
▁controvers	-4160
▁alt	-4161
▁art	-4162
▁governed	-4163
HA	-4164
▁regards	-4165
▁night	-4166
▁destro	-4167
▁secured	-4168
▁measure	-4169
▁levy	-4170
▁Cap	-4171
rown	-4172
▁pron	-4173
▁sentenced	-4174
imal	-4175
▁AS	-4176
▁asset	-4177
duction	-4178
▁Democratic	-4179
▁tri	-4180
▁Power	-4181
▁Member	-4182
▁privile	-4183
ieties	-4184
▁Penal	-4185
▁cancell	-4186
▁generally	-4187
▁binding	-4188
▁Notification	-4189
▁avoid	-4190
▁plans	-4191
▁troops	-4192
▁expenses	-4193
tin	-4194
ourth	-4195
▁depri	-4196
▁agricultural	-4197
▁eye	-4198
▁foc	-4199
▁facie	-4200
▁answered	-4201
icide	-4202
igating	-4203
▁born	-4204
▁annual	-4205
▁problem	-4206
Jud	-4207
▁enough	-4208
▁obtain	-4209
▁offered	-4210
rd	-4211
ables	-4212
uclear	-4213
▁ow	-4214
▁teachers	-4215
▁IC	-4216
▁victims	-4217
▁arbitrary	-4218
▁render	-4219
▁finally	-4220
▁Financial	-4221
▁trib	-4222
oses	-4223
▁convey	-4224
▁attacks	-4225
▁ele	-4226
▁points	-4227
▁Home	-4228
▁crop	-4229
▁quite	-4230
▁degree	-4231
▁salary	-4232
▁understood	-4233
▁necessarily	-4234
▁depart	-4235
▁prayer	-4236
▁temple	-4237
operation	-4238
▁Ministers	-4239
▁Ed	-4240
utor	-4241
▁Gandhi	-4242
▁suffered	-4243
▁Mis	-4244
▁exemption	-4245
holders	-4246
▁transactions	-4247
▁deposited	-4248
iy	-4249
enty	-4250
▁lie	-4251
▁growing	-4252
▁possess	-4253
▁profession	-4254
ioned	-4255
▁situated	-4256
▁understand	-4257
rust	-4258
▁appeared	-4259
▁presented	-4260
▁none	-4261
▁impose	-4262
ulate	-4263
▁choice	-4264
▁Tw	-4265
rist	-4266
▁ordin	-4267
▁remaining	-4268
▁ordered	-4269
▁unable	-4270
▁thereto	-4271
▁refused	-4272
▁almost	-4273
▁Cer	-4274
road	-4275
sue	-4276
respon	-4277
pta	-4278
▁don	-4279
▁sustained	-4280
urities	-4281
▁college	-4282
▁often	-4283
▁Muslim	-4284
▁sustain	-4285
▁categories	-4286
opal	-4287
▁corro	-4288
▁Moreover	-4289
▁unre	-4290
▁lives	-4291
set	-4292
▁affairs	-4293
ote	-4294
put	-4295
▁room	-4296
▁borrow	-4297
aram	-4298
apers	-4299
▁Office	-4300
▁dischar	-4301
▁Pur	-4302
▁envis	-4303
▁Contract	-4304
▁base	-4305
▁little	-4306
▁remained	-4307
iqu	-4308
rid	-4309
ding	-4310
ading	-4311
rises	-4312
▁Hospital	-4313
▁vacancies	-4314
▁Post	-4315
nother	-4316
▁immediate	-4317
▁message	-4318
gment	-4319
▁Lanka	-4320
▁contain	-4321
▁maximum	-4322
▁Ma	-4323
▁sons	-4324
▁forest	-4325
▁invalid	-4326
१३	-4327
ranch	-4328
▁Another	-4329
ployment	-4330
▁pursuant	-4331
ois	-4332
▁version	-4333
▁Attorney	-4334
▁objections	-4335
oned	-4336
▁pack	-4337
▁programmes	-4338
▁obtaining	-4339
hu	-4340
▁rig	-4341
▁newsp	-4342
▁equality	-4343
▁Arbitration	-4344
▁earth	-4345
▁subsid	-4346
▁dise	-4347
▁School	-4348
▁Sin	-4349
▁changes	-4350
PS	-4351
rog	-4352
▁TO	-4353
oked	-4354
▁emerg	-4355
▁Technology	-4356
▁negot	-4357
ott	-4358
▁round	-4359
▁register	-4360
rig	-4361
▁negl	-4362
atever	-4363
▁target	-4364
▁directing	-4365
▁perusal	-4366
▁undertaken	-4367
▁Afghanistan	-4368
ilt	-4369
▁contrad	-4370
▁delivery	-4371
▁confirmed	-4372
▁dedu	-4373
▁TADA	-4374
▁command	-4375
▁draw	-4376
▁refund	-4377
▁upheld	-4378
▁College	-4379
mical	-4380
ruption	-4381
▁AND	-4382
inder	-4383
▁highl	-4384
▁Speak	-4385
▁Account	-4386
▁practices	-4387
▁background	-4388
▁auction	-4389
▁removed	-4390
ipur	-4391
▁citizen	-4392
Judge	-4393
ooting	-4394
▁advantage	-4395
▁Germ	-4396
▁Vijay	-4397
▁famil	-4398
▁reserved	-4399
ager	-4400
uting	-4401
▁CPC	-4402
▁distribution	-4403
▁secret	-4404
▁addressed	-4405
▁plot	-4406
ilateral	-4407
▁manif	-4408
▁although	-4409
▁reiterated	-4410
▁expert	-4411
▁disclosed	-4412
▁representatives	-4413
▁draft	-4414
lord	-4415
▁sales	-4416
▁says	-4417
▁corrobor	-4418
▁emphasis	-4419
▁Inter	-4420
▁Project	-4421
ique	-4422
▁cho	-4423
vision	-4424
▁parents	-4425
▁paragraphs	-4426
▁Khan	-4427
▁disqual	-4428
▁Aff	-4429
▁See	-4430
nai	-4431
▁cert	-4432
hens	-4433
▁Gupta	-4434
▁cou	-4435
▁AC	-4436
▁expiry	-4437
▁primary	-4438
ovable	-4439
▁quar	-4440
▁prima	-4441
▁truth	-4442
▁exped	-4443
▁longer	-4444
▁controversy	-4445
▁normal	-4446
▁feel	-4447
▁distingu	-4448
▁Mon	-4449
▁Cast	-4450
atio	-4451
▁birth	-4452
▁Application	-4453
▁substantive	-4454
▁highest	-4455
▁leader	-4456
▁believe	-4457
thern	-4458
▁expressly	-4459
▁Che	-4460
▁histor	-4461
▁Germany	-4462
▁perspective	-4463
▁Evidence	-4464
▁suitable	-4465
▁territory	-4466
▁phot	-4467
ING	-4468
▁Control	-4469
▁results	-4470
EC	-4471
▁ON	-4472
▁reb	-4473
▁ascer	-4474
▁opposed	-4475
▁assigned	-4476
▁convict	-4477
▁Principal	-4478
oz	-4479
order	-4480
▁cong	-4481
encing	-4482
ception	-4483
▁limits	-4484
▁getting	-4485
▁influence	-4486
▁subsequently	-4487
▁confidence	-4488
▁Human	-4489
▁destroy	-4490
▁promis	-4491
▁study	-4492
▁SCR	-4493
▁Cust	-4494
clause	-4495
esides	-4496
▁daily	-4497
cription	-4498
omination	-4499
▁restrictions	-4500
▁distinct	-4501
▁whereby	-4502
dy	-4503
▁Ash	-4504
▁armed	-4505
▁extension	-4506
▁proposition	-4507
iers	-4508
let	-4509
▁worked	-4510
uven	-4511
▁agencies	-4512
▁pressure	-4513
▁allotment	-4514
athe	-4515
▁functioning	-4516
▁risk	-4517
lack	-4518
▁deciding	-4519
▁nuclear	-4520
▁personnel	-4521
▁Joint	-4522
▁attrib	-4523
▁electricity	-4524
eel	-4525
mir	-4526
▁attract	-4527
owry	-4528
▁SEP	-4529
▁insist	-4530
▁exchange	-4531
AY	-4532
ula	-4533
▁schemes	-4534
▁running	-4535
ette	-4536
▁board	-4537
▁suffer	-4538
▁PC	-4539
ME	-4540
minent	-4541
▁danger	-4542
▁intent	-4543
▁correspon	-4544
▁Chennai	-4545
olid	-4546
▁advice	-4547
▁Officers	-4548
▁regulation	-4549
▁appointments	-4550
▁disputed	-4551
pto	-4552
lling	-4553
▁gas	-4554
elling	-4555
▁moved	-4556
▁reply	-4557
▁tot	-4558
▁Municipal	-4559
rew	-4560
▁Speaker	-4561
▁understanding	-4562
va	-4563
▁holder	-4564
▁applies	-4565
▁association	-4566
esting	-4567
▁conclus	-4568
▁levels	-4569
▁Bu	-4570
▁lib	-4571
asmuch	-4572
▁modern	-4573
▁discrimination	-4574
▁Kar	-4575
antly	-4576
▁disclosure	-4577
raf	-4578
▁Kash	-4579
▁break	-4580
▁investigating	-4581
▁Kam	-4582
she	-4583
eria	-4584
▁retros	-4585
▁Reference	-4586
▁spot	-4587
▁cadre	-4588
kh	-4589
amy	-4590
▁brief	-4591
oral	-4592
▁Env	-4593
▁landlord	-4594
▁termination	-4595
ask	-4596
overy	-4597
▁Stat	-4598
▁stipulated	-4599
utation	-4600
▁Christ	-4601
▁involving	-4602
▁instructions	-4603
anging	-4604
▁mortgage	-4605
▁eight	-4606
▁satisfaction	-4607
▁amendments	-4608
▁recognized	-4609
MC	-4610
▁Super	-4611
▁estim	-4612
▁operate	-4613
▁Dav	-4614
▁mental	-4615
mentioned	-4616
▁Annex	-4617
▁contribution	-4618
▁alter	-4619
▁formed	-4620
▁Foreign	-4621
▁disability	-4622
udget	-4623
▁deliber	-4624
▁farmers	-4625
▁mus	-4626
▁popular	-4627
.-	-4628
▁Exc	-4629
▁taxes	-4630
▁enforcement	-4631
herent	-4632
▁publication	-4633
▁Far	-4634
▁values	-4635
▁accomp	-4636
oj	-4637
▁acted	-4638
▁secure	-4639
ler	-4640
gram	-4641
▁adjudication	-4642
▁Pras	-4643
▁ratio	-4644
▁possibility	-4645
▁Health	-4646
▁compre	-4647
▁Security	-4648
▁demands	-4649
▁dismissal	-4650
▁furnished	-4651
▁machinery	-4652
▁wealth	-4653
▁Equ	-4654
▁Class	-4655
▁Ordin	-4656
▁Of	-4657
▁raise	-4658
▁conven	-4659
▁cited	-4660
▁announced	-4661
▁beginning	-4662
▁bon	-4663
▁Mark	-4664
▁repeated	-4665
▁promote	-4666
▁Vice	-4667
▁exception	-4668
▁arbitral	-4669
▁Date	-4670
▁prices	-4671
gn	-4672
▁ali	-4673
▁incons	-4674
▁largest	-4675
endant	-4676
▁Organ	-4677
▁Protection	-4678
▁presumption	-4679
▁something	-4680
iles	-4681
▁genu	-4682
▁upto	-4683
▁acceptance	-4684
▁leadership	-4685
▁NC	-4686
cast	-4687
▁recognised	-4688
▁obligations	-4689
▁Nag	-4690
▁prescrib	-4691
▁Environment	-4692
adh	-4693
▁Madhya	-4694
▁comment	-4695
▁dw	-4696
▁Pet	-4697
▁effic	-4698
▁log	-4699
▁critic	-4700
▁imperial	-4701
▁hear	-4702
▁huge	-4703
▁How	-4704
▁inconsist	-4705
rav	-4706
▁ban	-4707
▁Tiger	-4708
▁resulted	-4709
▁Program	-4710
▁purchas	-4711
▁challenging	-4712
icate	-4713
▁errone	-4714
▁Sections	-4715
▁Ext	-4716
▁gold	-4717
spector	-4718
▁consequent	-4719
▁Award	-4720
III	-4721
▁Notwithstanding	-4722
egu	-4723
▁cas	-4724
▁damage	-4725
▁Mot	-4726
▁formal	-4727
▁proportion	-4728
iling	-4729
▁relates	-4730
▁youth	-4731
▁contains	-4732
▁Petitioner	-4733
▁schedule	-4734
eth	-4735
▁afore	-4736
▁deleg	-4737
▁issuing	-4738
▁disciplinary	-4739
▁War	-4740
▁innoc	-4741
▁turned	-4742
▁acquitted	-4743
▁xxx	-4744
▁drug	-4745
ensions	-4746
▁claiming	-4747
▁resort	-4748
▁pendency	-4749
uel	-4750
ients	-4751
▁mandate	-4752
yl	-4753
▁owners	-4754
oured	-4755
▁ship	-4756
rose	-4757
▁certainly	-4758
▁protected	-4759
▁IV	-4760
iciency	-4761
▁explos	-4762
▁pan	-4763
▁contentions	-4764
▁gains	-4765
▁suc	-4766
▁weight	-4767
▁Assessing	-4768
▁interested	-4769
▁recognition	-4770
ley	-4771
struction	-4772
▁withdrawal	-4773
▁Smt	-4774
▁factor	-4775
▁achieved	-4776
▁norms	-4777
▁ing	-4778
▁fees	-4779
▁Iraqi	-4780
▁arose	-4781
▁caste	-4782
▁manifest	-4783
▁Once	-4784
▁valu	-4785
orters	-4786
▁creditor	-4787
▁rever	-4788
▁workmen	-4789
MP	-4790
ett	-4791
▁cri	-4792
▁else	-4793
ns	-4794
▁Constitutional	-4795
▁bear	-4796
▁oral	-4797
▁twenty	-4798
▁arms	-4799
▁rout	-4800
▁simply	-4801
▁town	-4802
▁abuse	-4803
▁confirm	-4804
▁participation	-4805
▁identification	-4806
ourses	-4807
▁simple	-4808
▁letters	-4809
▁inasmuch	-4810
▁journ	-4811
▁lawy	-4812
▁succeed	-4813
▁allowing	-4814
▁terrorist	-4815
SS	-4816
▁Asia	-4817
▁chief	-4818
▁quashed	-4819
▁regarded	-4820
▁Mod	-4821
ength	-4822
▁Palest	-4823
▁elabor	-4824
▁inspection	-4825
▁team	-4826
▁lies	-4827
▁seems	-4828
▁debtor	-4829
▁Afric	-4830
▁miscon	-4831
▁notwithstanding	-4832
aded	-4833
▁safegu	-4834
▁exercising	-4835
▁industries	-4836
▁Times	-4837
▁gross	-4838
▁acknow	-4839
▁speaking	-4840
▁unions	-4841
▁Road	-4842
▁felt	-4843
▁Reason	-4844
▁handed	-4845
ervation	-4846
▁families	-4847
▁damages	-4848
▁creation	-4849
▁surv	-4850
▁forum	-4851
▁named	-4852
▁really	-4853
▁undergo	-4854
duce	-4855
overty	-4856
▁falling	-4857
▁requested	-4858
▁successful	-4859
▁governments	-4860
▁partnership	-4861
while	-4862
ounded	-4863
▁diver	-4864
▁Agricult	-4865
▁opportunities	-4866
inks	-4867
▁explo	-4868
▁willing	-4869
usion	-4870
▁army	-4871
▁harm	-4872
▁latter	-4873
stitutes	-4874
▁reflect	-4875
▁claimant	-4876
ded	-4877
isite	-4878
mittees	-4879
▁decades	-4880
▁excluded	-4881
▁Research	-4882
AB	-4883
▁colle	-4884
▁purchased	-4885
▁block	-4886
▁contracts	-4887
urg	-4888
▁Election	-4889
▁particulars	-4890
▁hot	-4891
▁paper	-4892
▁seats	-4893
achal	-4894
▁assail	-4895
▁allegation	-4896
▁governance	-4897
▁falls	-4898
▁equity	-4899
liminary	-4900
▁agreements	-4901
▁Trib	-4902
▁dying	-4903
▁Directors	-4904
▁voluntary	-4905
▁Prosecutor	-4906
NA	-4907
ray	-4908
▁CrPC	-4909
▁Will	-4910
▁necessity	-4911
▁representative	-4912
andum	-4913
▁Nagar	-4914
▁commerce	-4915
▁approached	-4916
▁Cor	-4917
▁mount	-4918
▁categor	-4919
▁suicide	-4920
iment	-4921
ocates	-4922
▁compos	-4923
▁environmental	-4924
orandum	-4925
apse	-4926
▁reach	-4927
▁length	-4928
▁conscious	-4929
hent	-4930
▁Islam	-4931
▁inherent	-4932
ka	-4933
▁bag	-4934
ourge	-4935
▁equally	-4936
▁suffering	-4937
right	-4938
ighted	-4939
▁thereon	-4940
▁opt	-4941
leb	-4942
▁compon	-4943
inem	-4944
▁dowry	-4945
▁confident	-4946
▁tariff	-4947
▁jobs	-4948
▁David	-4949
bted	-4950
▁incurred	-4951
▁seeks	-4952
▁causing	-4953
▁pursuance	-4954
▁temporary	-4955
▁Annexure	-4956
▁issuance	-4957
▁servants	-4958
▁sister	-4959
▁comprom	-4960
▁whatever	-4961
▁enhance	-4962
▁purport	-4963
fe	-4964
▁Jag	-4965
▁books	-4966
▁Chandra	-4967
▁indicates	-4968
▁Circ	-4969
▁Shah	-4970
▁rape	-4971
▁spok	-4972
▁Appeals	-4973
▁deliver	-4974
▁ready	-4975
▁subordinate	-4976
▁classification	-4977
▁interview	-4978
orous	-4979
▁superv	-4980
▁Bab	-4981
▁guarantee	-4982
▁Hy	-4983
▁Sun	-4984
▁ambit	-4985
▁filled	-4986
-0	-4987
sa	-4988
▁injunction	-4989
▁Dh	-4990
▁Gazette	-4991
▁element	-4992
▁sure	-4993
▁impart	-4994
▁Commercial	-4995
aran	-4996
▁absolutely	-4997
inking	-4998
urer	-4999
ales	-5000
lined	-5001
▁vehicles	-5002
▁conclusions	-5003
ami	-5004
▁Jay	-5005
▁Para	-5006
ika	-5007
irty	-5008
▁hit	-5009
▁doctor	-5010
▁situations	-5011
wan	-5012
utta	-5013
▁repla	-5014
▁cruel	-5015
▁intim	-5016
१४	-5017
ronic	-5018
▁prem	-5019
▁harass	-5020
ourgeois	-5021
▁conce	-5022
▁prayed	-5023
▁America	-5024
▁improve	-5025
▁married	-5026
▁ultimately	-5027
▁mode	-5028
▁driver	-5029
▁guilt	-5030
▁estate	-5031
▁needed	-5032
▁selected	-5033
▁guaranteed	-5034
▁assembly	-5035
▁Met	-5036
▁Head	-5037
▁Panchayat	-5038
▁restriction	-5039
▁San	-5040
▁send	-5041
▁affirm	-5042
▁win	-5043
▁rein	-5044
vt	-5045
apan	-5046
▁won	-5047
▁speed	-5048
▁confer	-5049
▁irre	-5050
▁tort	-5051
▁creditors	-5052
▁thousands	-5053
▁Ahmed	-5054
▁suits	-5055
▁resulting	-5056
ji	-5057
▁agent	-5058
▁transp	-5059
prises	-5060
▁insofar	-5061
▁Paragraph	-5062
▁instrument	-5063
pro	-5064
▁rap	-5065
▁late	-5066
▁Private	-5067
enture	-5068
▁rational	-5069
▁incorporated	-5070
▁unn	-5071
▁SEBI	-5072
▁card	-5073
▁inserted	-5074
aches	-5075
rif	-5076
▁check	-5077
▁Bas	-5078
▁CON	-5079
▁Rao	-5080
▁attached	-5081
▁authorised	-5082
▁collection	-5083
ikh	-5084
▁hereby	-5085
ev	-5086
athi	-5087
▁systems	-5088
▁socialist	-5089
ze	-5090
rah	-5091
▁ago	-5092
▁amb	-5093
▁bul	-5094
▁acres	-5095
▁ownership	-5096
▁love	-5097
▁proc	-5098
▁engine	-5099
▁generation	-5100
umer	-5101
▁intell	-5102
▁concerning	-5103
▁recon	-5104
▁standing	-5105
ented	-5106
▁scen	-5107
▁assign	-5108
▁Affairs	-5109
▁Reserve	-5110
▁preliminary	-5111
SA	-5112
▁NE	-5113
essel	-5114
▁cities	-5115
▁marked	-5116
▁factory	-5117
▁empowered	-5118
▁overr	-5119
DR	-5120
▁Bus	-5121
▁Dec	-5122
▁features	-5123
▁enforce	-5124
▁renewal	-5125
sy	-5126
▁Agg	-5127
▁anc	-5128
▁calls	-5129
oly	-5130
▁plaint	-5131
▁Ant	-5132
endra	-5133
▁implemented	-5134
irs	-5135
▁Sen	-5136
▁Ven	-5137
▁thereunder	-5138
▁spread	-5139
▁Calc	-5140
▁front	-5141
▁framework	-5142
▁subjected	-5143
▁interpreted	-5144
▁squ	-5145
▁eval	-5146
▁save	-5147
soever	-5148
▁worth	-5149
▁entertain	-5150
▁indeed	-5151
▁Sah	-5152
▁schools	-5153
▁appreciate	-5154
▁involvement	-5155
▁Jer	-5156
▁Two	-5157
▁owned	-5158
▁domin	-5159
▁integr	-5160
▁significance	-5161
ocks	-5162
orial	-5163
▁bourgeois	-5164
▁associated	-5165
DP	-5166
araj	-5167
▁quoted	-5168
▁advocate	-5169
▁relative	-5170
▁Their	-5171
▁stock	-5172
▁emergency	-5173
▁Excise	-5174
HI	-5175
▁retired	-5176
▁CA	-5177
rising	-5178
▁neigh	-5179
▁aimed	-5180
▁adjust	-5181
▁MS	-5182
above	-5183
▁series	-5184
▁elite	-5185
▁crimes	-5186
▁channel	-5187
▁Dev	-5188
▁Gov	-5189
▁Her	-5190
▁bad	-5191
▁applying	-5192
▁scientific	-5193
▁residential	-5194
▁rival	-5195
▁destru	-5196
▁refers	-5197
▁containing	-5198
▁changed	-5199
▁overall	-5200
▁continues	-5201
▁rail	-5202
▁residence	-5203
enth	-5204
rand	-5205
nes	-5206
▁seiz	-5207
ayment	-5208
▁politics	-5209
▁scrutiny	-5210
GC	-5211
▁sou	-5212
▁Army	-5213
▁tender	-5214
▁hereinabove	-5215
▁Devi	-5216
▁System	-5217
▁classes	-5218
▁text	-5219
▁active	-5220
▁interc	-5221
▁Excell	-5222
▁safe	-5223
habilit	-5224
▁poverty	-5225
ky	-5226
▁fif	-5227
▁bond	-5228
▁Child	-5229
▁manufacturing	-5230
kash	-5231
▁surre	-5232
▁middle	-5233
hibit	-5234
▁pleaded	-5235
▁immovable	-5236
inet	-5237
hel	-5238
▁Acqu	-5239
▁creating	-5240
▁seat	-5241
oking	-5242
▁budget	-5243
▁lodged	-5244
▁properly	-5245
aji	-5246
▁EU	-5247
▁sav	-5248
▁allotted	-5249
▁autom	-5250
▁organiz	-5251
▁sens	-5252
▁People	-5253
▁goes	-5254
▁fails	-5255
▁occurred	-5256
▁organisation	-5257
athy	-5258
▁Mohan	-5259
▁spoke	-5260
▁attend	-5261
▁concerns	-5262
▁payments	-5263
▁Aj	-5264
▁authent	-5265
▁revolution	-5266
▁unlaw	-5267
▁inside	-5268
▁regional	-5269
▁intervention	-5270
iti	-5271
ester	-5272
▁imposition	-5273
venth	-5274
▁consistent	-5275
▁Sund	-5276
▁remark	-5277
▁totally	-5278
▁statutes	-5279
▁exclusive	-5280
▁newspaper	-5281
▁uns	-5282
▁Kashmir	-5283
▁conducting	-5284
▁try	-5285
▁survey	-5286
▁maintainable	-5287
eav	-5288
▁CR	-5289
ayan	-5290
ests	-5291
▁Prasad	-5292
ibly	-5293
PL	-5294
The	-5295
cial	-5296
▁Geor	-5297
▁vs	-5298
▁Palestin	-5299
▁recently	-5300
▁instituted	-5301
intend	-5302
ancellor	-5303
▁Jain	-5304
▁federal	-5305
omen	-5306
▁built	-5307
▁cease	-5308
▁interven	-5309
UL	-5310
▁King	-5311
▁Forest	-5312
▁sources	-5313
▁offering	-5314
stitutional	-5315
▁Gr	-5316
▁wish	-5317
sing	-5318
▁Vol	-5319
▁cul	-5320
▁plain	-5321
▁capable	-5322
▁intercourse	-5323
wa	-5324
▁affirmed	-5325
examination	-5326
▁organization	-5327
▁type	-5328
▁sound	-5329
▁prepar	-5330
isations	-5331
arc	-5332
▁task	-5333
▁methods	-5334
▁correctness	-5335
▁shooting	-5336
▁endeav	-5337
osing	-5338
▁Trade	-5339
▁genuine	-5340
▁network	-5341
▁Calcutta	-5342
▁struck	-5343
▁vessel	-5344
▁Convention	-5345
▁Also	-5346
▁Inspector	-5347
▁hy	-5348
▁entirely	-5349
▁receiving	-5350
hend	-5351
▁cooperation	-5352
▁began	-5353
▁grave	-5354
▁played	-5355
▁facility	-5356
▁Industries	-5357
EM	-5358
▁observation	-5359
irms	-5360
▁located	-5361
▁Tel	-5362
▁unc	-5363
▁Page	-5364
▁Memon	-5365
▁joined	-5366
yal	-5367
▁Bl	-5368
▁sac	-5369
▁Only	-5370
▁weak	-5371
▁furnish	-5372
▁sanctioned	-5373
▁CP	-5374
udh	-5375
BC	-5376
▁continuing	-5377
▁accru	-5378
▁examining	-5379
▁Japan	-5380
eat	-5381
▁circular	-5382
▁withdrawn	-5383
▁litig	-5384
▁deserv	-5385
▁Ali	-5386
▁pec	-5387
olved	-5388
▁inqu	-5389
▁strictly	-5390
▁rad	-5391
▁equip	-5392
▁average	-5393
▁participated	-5394
▁Sa	-5395
utory	-5396
▁confined	-5397
No	-5398
▁clean	-5399
▁ruled	-5400
▁Design	-5401
▁monitor	-5402
pper	-5403
▁Disc	-5404
▁pleas	-5405
▁Judgment	-5406
icating	-5407
▁assault	-5408
▁Territory	-5409
▁vital	-5410
▁voice	-5411
uvenile	-5412
▁confessional	-5413
urb	-5414
▁mutual	-5415
▁wage	-5416
▁legally	-5417
▁bringing	-5418
▁imported	-5419
iple	-5420
▁gain	-5421
▁ordinarily	-5422
ilk	-5423
▁earn	-5424
▁opened	-5425
▁courses	-5426
▁effectively	-5427
anth	-5428
▁wro	-5429
▁justify	-5430
▁nearly	-5431
▁criteria	-5432
uity	-5433
play	-5434
▁bill	-5435
▁hope	-5436
▁Abd	-5437
▁pros	-5438
▁guard	-5439
▁liquid	-5440
▁install	-5441
▁Non	-5442
▁distance	-5443
▁rigorous	-5444
▁mechanism	-5445
▁Ba	-5446
▁Leave	-5447
▁collabor	-5448
▁indirect	-5449
ita	-5450
▁Up	-5451
▁Dig	-5452
▁Joh	-5453
▁Review	-5454
▁considerations	-5455
luding	-5456
uent	-5457
▁friends	-5458
▁revised	-5459
▁unreason	-5460
▁processing	-5461
▁SH	-5462
▁Follow	-5463
▁afford	-5464
▁Israeli	-5465
▁complex	-5466
▁pronoun	-5467
▁meetings	-5468
▁grievance	-5469
▁Sark	-5470
▁omission	-5471
ARD	-5472
era	-5473
athan	-5474
▁requisite	-5475
▁arrangement	-5476
roc	-5477
▁Ret	-5478
▁barred	-5479
▁BC	-5480
▁driving	-5481
▁withdraw	-5482
rees	-5483
▁notes	-5484
▁forced	-5485
MS	-5486
rel	-5487
▁Are	-5488
▁launched	-5489
▁capitalist	-5490
▁legitimate	-5491
EP	-5492
▁Over	-5493
▁dict	-5494
▁Customs	-5495
▁entrust	-5496
▁entity	-5497
▁fide	-5498
entation	-5499
▁violative	-5500
▁operational	-5501
prise	-5502
▁greet	-5503
▁remove	-5504
dh	-5505
▁seizure	-5506
▁Stud	-5507
▁wishes	-5508
▁exceeding	-5509
▁Acquisition	-5510
alore	-5511
▁contact	-5512
▁unlawful	-5513
arian	-5514
▁items	-5515
▁Econom	-5516
▁passage	-5517
▁Russia	-5518
▁causes	-5519
▁Certificate	-5520
▁eth	-5521
ricted	-5522
hensive	-5523
▁wanted	-5524
▁consumer	-5525
▁Sign	-5526
▁resist	-5527
▁numbers	-5528
▁reasoning	-5529
gypt	-5530
▁iron	-5531
▁declare	-5532
▁equival	-5533
▁pleadings	-5534
▁seed	-5535
▁defect	-5536
stant	-5537
ulates	-5538
▁showing	-5539
▁vast	-5540
▁Egypt	-5541
▁substituted	-5542
uous	-5543
ishment	-5544
▁eviction	-5545
▁initially	-5546
▁securities	-5547
▁Parliamentary	-5548
head	-5549
▁Pand	-5550
▁irres	-5551
▁nations	-5552
tinent	-5553
▁modified	-5554
▁parliamentary	-5555
rate	-5556
▁parame	-5557
▁Last	-5558
▁compar	-5559
▁objects	-5560
▁operating	-5561
estern	-5562
▁calling	-5563
position	-5564
▁planning	-5565
▁Administrative	-5566
▁PO	-5567
▁Char	-5568
▁pure	-5569
▁wrote	-5570
▁revealed	-5571
▁hom	-5572
▁happy	-5573
▁Consequently	-5574
▁fast	-5575
charge	-5576
▁highly	-5577
ken	-5578
▁GO	-5579
atter	-5580
▁Bhar	-5581
▁pain	-5582
▁Water	-5583
▁belief	-5584
▁culture	-5585
oring	-5586
▁Apart	-5587
▁morning	-5588
▁foundation	-5589
▁whatsoever	-5590
apak	-5591
▁lif	-5592
▁Ordinance	-5593
▁performed	-5594
ols	-5595
▁Bhag	-5596
▁Many	-5597
pet	-5598
raft	-5599
▁Build	-5600
▁exists	-5601
▁session	-5602
▁Defence	-5603
▁concurrent	-5604
ankar	-5605
▁Shiv	-5606
▁street	-5607
▁definite	-5608
▁opening	-5609
▁participate	-5610
icitor	-5611
▁abroad	-5612
▁disease	-5613
▁retrospective	-5614
ni	-5615
una	-5616
▁Lib	-5617
isory	-5618
▁patent	-5619
▁thirty	-5620
▁brothers	-5621
▁Following	-5622
iform	-5623
▁model	-5624
alin	-5625
▁mill	-5626
▁select	-5627
ows	-5628
aves	-5629
hand	-5630
▁Pers	-5631
▁burn	-5632
▁exclusion	-5633
▁Aud	-5634
▁eyes	-5635
▁envisaged	-5636
▁developing	-5637
het	-5638
▁fem	-5639
where	-5640
▁remand	-5641
▁alongwith	-5642
▁Arbitrator	-5643
▁Nor	-5644
orthy	-5645
▁Port	-5646
istics	-5647
▁celeb	-5648
▁positive	-5649
▁Pvt	-5650
▁York	-5651
▁buildings	-5652
bur	-5653
rep	-5654
▁gun	-5655
▁attracted	-5656
▁complaints	-5657
VP	-5658
gam	-5659
▁nos	-5660
▁comply	-5661
▁Business	-5662
organ	-5663
rency	-5664
▁sitting	-5665
▁ensuring	-5666
RO	-5667
ommod	-5668
▁dues	-5669
▁Rajapak	-5670
ider	-5671
▁justification	-5672
▁houses	-5673
▁century	-5674
▁figures	-5675
owed	-5676
▁Kal	-5677
▁doctors	-5678
▁Although	-5679
▁purchaser	-5680
unist	-5681
▁antic	-5682
▁Rajapakse	-5683
ming	-5684
▁shop	-5685
holding	-5686
▁founded	-5687
▁liberal	-5688
▁negligence	-5689
osh	-5690
▁Laws	-5691
RE	-5692
▁Vik	-5693
▁qua	-5694
othes	-5695
aviour	-5696
▁autonom	-5697
▁Exchange	-5698
iplom	-5699
▁Again	-5700
▁Allah	-5701
achment	-5702
▁Lankan	-5703
▁satisfy	-5704
▁terrorism	-5705
▁Ja	-5706
▁Op	-5707
osen	-5708
▁Tal	-5709
▁destruction	-5710
▁space	-5711
▁entries	-5712
▁hereunder	-5713
▁City	-5714
▁focus	-5715
▁border	-5716
▁Je	-5717
mark	-5718
▁cry	-5719
▁Third	-5720
▁talks	-5721
▁coalition	-5722
▁Respondents	-5723
urring	-5724
▁endor	-5725
auc	-5726
▁Dist	-5727
▁kill	-5728
off	-5729
▁reduce	-5730
▁Prakash	-5731
ibilities	-5732
▁Despite	-5733
▁banking	-5734
▁contents	-5735
▁rare	-5736
▁divor	-5737
▁disapp	-5738
▁objectives	-5739
▁England	-5740
▁Nations	-5741
▁Its	-5742
▁mal	-5743
▁reproduced	-5744
redit	-5745
▁Work	-5746
▁Colomb	-5747
▁closed	-5748
▁soldiers	-5749
▁Acts	-5750
▁Full	-5751
▁capt	-5752
▁Stalin	-5753
▁erroneous	-5754
▁integrity	-5755
▁circumstance	-5756
▁sq	-5757
▁prohibition	-5758
▁Prom	-5759
anied	-5760
aug	-5761
▁Abdul	-5762
▁parameters	-5763
▁Reliance	-5764
apur	-5765
▁erred	-5766
erences	-5767
▁imposing	-5768
requ	-5769
▁mom	-5770
▁black	-5771
▁ingred	-5772
▁advertise	-5773
▁Jes	-5774
▁cat	-5775
oving	-5776
prene	-5777
▁urban	-5778
▁accommod	-5779
▁superior	-5780
▁fields	-5781
▁raising	-5782
▁percentage	-5783
................	-5784
▁Val	-5785
tains	-5786
▁struct	-5787
▁cultural	-5788
atically	-5789
bel	-5790
▁AT	-5791
▁CC	-5792
body	-5793
▁disclose	-5794
▁Aggrieved	-5795
▁Sch	-5796
oubted	-5797
▁Assam	-5798
▁Goa	-5799
▁MCI	-5800
reprene	-5801
▁connect	-5802
▁Pension	-5803
▁Prevention	-5804
▁Universities	-5805
igar	-5806
▁anticip	-5807
▁compuls	-5808
▁allocation	-5809
ayuk	-5810
▁Engineer	-5811
▁compromise	-5812
▁accompanied	-5813
▁soft	-5814
▁listed	-5815
▁margin	-5816
▁quashing	-5817
▁Excellency	-5818
iar	-5819
lex	-5820
ume	-5821
ertion	-5822
▁partly	-5823
▁estimated	-5824
▁primarily	-5825
ae	-5826
oo	-5827
▁Net	-5828
▁medic	-5829
▁Interest	-5830
▁conference	-5831
▁represented	-5832
St	-5833
dd	-5834
▁Car	-5835
▁dele	-5836
▁compared	-5837
▁prohibited	-5838
▁Electricity	-5839
▁mist	-5840
▁consumers	-5841
ese	-5842
▁El	-5843
▁adopt	-5844
▁Fam	-5845
▁sectors	-5846
▁chemical	-5847
▁cy	-5848
▁Inc	-5849
iating	-5850
▁qualification	-5851
▁Gur	-5852
▁uniform	-5853
▁demanded	-5854
▁Your	-5855
abinet	-5856
▁papers	-5857
▁clarified	-5858
▁procedural	-5859
▁cr	-5860
roll	-5861
▁Son	-5862
▁John	-5863
▁size	-5864
▁IS	-5865
▁Small	-5866
▁useful	-5867
▁Programme	-5868
▁equivalent	-5869
▁Roh	-5870
▁unem	-5871
▁bench	-5872
▁Bharat	-5873
▁Capital	-5874
▁sustainable	-5875
१५	-5876
unior	-5877
▁Arab	-5878
▁relying	-5879
▁complied	-5880
▁Defendant	-5881
▁Di	-5882
▁Britain	-5883
▁learning	-5884
▁Ur	-5885
ondon	-5886
▁Rent	-5887
▁Legal	-5888
▁holds	-5889
▁levied	-5890
▁crucial	-5891
▁compound	-5892
▁restrict	-5893
▁challenges	-5894
mi	-5895
icing	-5896
orage	-5897
▁evil	-5898
▁gets	-5899
▁sovere	-5900
▁ability	-5901
▁sea	-5902
▁core	-5903
sement	-5904
▁lines	-5905
▁wound	-5906
▁chosen	-5907
▁imposs	-5908
▁contend	-5909
habilitation	-5910
▁Gh	-5911
eeping	-5912
hanced	-5913
▁scene	-5914
▁sides	-5915
▁critical	-5916
▁vit	-5917
▁colleges	-5918
▁strengthe	-5919
▁procedures	-5920
aman	-5921
oming	-5922
▁grat	-5923
▁minority	-5924
▁governing	-5925
▁admissible	-5926
▁availability	-5927
▁friendly	-5928
▁Allahabad	-5929
▁Statement	-5930
▁finance	-5931
▁directors	-5932
▁investors	-5933
▁Crl	-5934
etary	-5935
▁Mand	-5936
▁committing	-5937
ague	-5938
earing	-5939
▁London	-5940
▁motion	-5941
▁facilitate	-5942
▁PM	-5943
▁Obama	-5944
▁transportation	-5945
gt	-5946
vency	-5947
▁rich	-5948
▁markets	-5949
▁Solicitor	-5950
olit	-5951
▁DNA	-5952
▁dil	-5953
▁suspect	-5954
▁assessed	-5955
▁villages	-5956
▁Plaintiff	-5957
nan	-5958
TA	-5959
▁ant	-5960
▁music	-5961
▁anyone	-5962
▁resign	-5963
▁bur	-5964
▁Nav	-5965
▁manufactured	-5966
ammu	-5967
▁drive	-5968
▁discharged	-5969
▁framing	-5970
▁internal	-5971
ozy	-5972
urt	-5973
▁song	-5974
oubtedly	-5975
inal	-5976
▁boy	-5977
▁mobile	-5978
▁offices	-5979
▁considerable	-5980
▁sem	-5981
▁partner	-5982
▁prosper	-5983
ERS	-5984
▁Vis	-5985
sheet	-5986
▁stop	-5987
▁Family	-5988
▁Proper	-5989
▁allowance	-5990
▁strategic	-5991
▁contractor	-5992
▁vii	-5993
abled	-5994
regular	-5995
▁casual	-5996
▁commod	-5997
▁narrow	-5998
▁Insofar	-5999
▁Sarkozy	-6000
▁calculated	-6001
▁historical	-6002
CR	-6003
▁Conc	-6004
called	-6005
▁Jammu	-6006
▁defines	-6007
▁questioned	-6008
▁Suit	-6009
▁latest	-6010
ching	-6011
person	-6012
▁Employ	-6013
▁Sad	-6014
ropri	-6015
▁touch	-6016
▁declaring	-6017
▁Appellants	-6018
▁appreciation	-6019
▁irrespective	-6020
fer	-6021
ida	-6022
▁mainly	-6023
▁designed	-6024
▁acquire	-6025
oon	-6026
▁scheduled	-6027
▁Ib	-6028
▁enhanced	-6029
▁separately	-6030
▁Deed	-6031
▁enum	-6032
▁liter	-6033
itations	-6034
▁supposed	-6035
▁Ve	-6036
aduate	-6037
iences	-6038
▁Fl	-6039
▁Cha	-6040
▁motive	-6041
▁neighb	-6042
▁conform	-6043
▁competence	-6044
▁nomination	-6045
uv	-6046
▁Ay	-6047
▁Das	-6048
▁stake	-6049
▁cell	-6050
▁Railway	-6051
US	-6052
hon	-6053
▁Exhibit	-6054
▁travel	-6055
▁invited	-6056
▁Australia	-6057
▁obviously	-6058
ira	-6059
▁Meh	-6060
▁wat	-6061
algam	-6062
▁lik	-6063
▁obvious	-6064
▁substantially	-6065
rule	-6066
▁Vish	-6067
▁prin	-6068
▁centre	-6069
▁inflic	-6070
▁quantity	-6071
▁ec	-6072
▁fat	-6073
▁normally	-6074
▁verification	-6075
▁asserted	-6076
▁valuable	-6077
▁restricted	-6078
ila	-6079
▁Who	-6080
▁exclus	-6081
▁figure	-6082
▁repealed	-6083
▁efficient	-6084
▁Investigating	-6085
igil	-6086
▁idea	-6087
▁commitment	-6088
▁housing	-6089
▁Transport	-6090
▁acknowled	-6091
▁Superintend	-6092
▁qualifications	-6093
▁accepting	-6094
▁highlighted	-6095
▁comprehensive	-6096
RT	-6097
▁ap	-6098
imin	-6099
▁Tri	-6100
▁moment	-6101
Os	-6102
▁Anr	-6103
▁pra	-6104
▁Dhar	-6105
▁Force	-6106
▁cruelty	-6107
▁greetings	-6108
esty	-6109
▁confron	-6110
▁Registration	-6111
▁UK	-6112
▁Aut	-6113
▁Him	-6114
▁anim	-6115
olvency	-6116
▁cultiv	-6117
▁irregular	-6118
▁organized	-6119
▁supplement	-6120
sych	-6121
▁lot	-6122
▁news	-6123
▁extremely	-6124
mp	-6125
iece	-6126
▁cinem	-6127
▁Krishna	-6128
▁ignored	-6129
▁corruption	-6130
▁organisations	-6131
▁consumption	-6132
TI	-6133
utt	-6134
yan	-6135
ulty	-6136
assion	-6137
▁centres	-6138
▁dealer	-6139
▁elements	-6140
▁minerals	-6141
▁inconsistent	-6142
▁fort	-6143
▁shot	-6144
▁science	-6145
▁Regional	-6146
▁regulate	-6147
▁Conference	-6148
▁constructed	-6149
▁Year	-6150
▁operative	-6151
bts	-6152
▁Hyder	-6153
▁currency	-6154
▁commenced	-6155
▁corresponding	-6156
abling	-6157
▁heavy	-6158
▁protests	-6159
CL	-6160
adav	-6161
▁heads	-6162
lax	-6163
▁Inf	-6164
lar	-6165
State	-6166
▁wall	-6167
▁annum	-6168
▁rapid	-6169
▁Bangalore	-6170
▁processes	-6171
▁underlying	-6172
aren	-6173
▁cal	-6174
▁moral	-6175
▁Recovery	-6176
abh	-6177
▁ton	-6178
▁vend	-6179
▁visited	-6180
▁chargeable	-6181
aksh	-6182
▁Mit	-6183
oration	-6184
▁AA	-6185
▁types	-6186
▁Africa	-6187
▁VI	-6188
isen	-6189
▁mit	-6190
▁qualified	-6191
▁requiring	-6192
▁RBI	-6193
▁jail	-6194
▁finds	-6195
▁partition	-6196
▁unreasonable	-6197
LA	-6198
ulating	-6199
▁recall	-6200
▁Hyderabad	-6201
▁entrusted	-6202
▁contravention	-6203
▁Administration	-6204
▁Tur	-6205
▁Welfare	-6206
▁corrupt	-6207
▁authorized	-6208
▁universities	-6209
▁Besides	-6210
▁photograph	-6211
▁initiatives	-6212
▁organizations	-6213
▁aforementioned	-6214
udence	-6215
▁grand	-6216
▁Constit	-6217
▁identify	-6218
▁negative	-6219
▁agriculture	-6220
asw	-6221
▁arre	-6222
rigation	-6223
▁solution	-6224
▁cm	-6225
attle	-6226
▁reforms	-6227
▁proposals	-6228
▁Resolution	-6229
▁misconduct	-6230
usalem	-6231
▁awards	-6232
▁paying	-6233
▁Jerusalem	-6234
▁consequential	-6235
▁weapon	-6236
▁Speaking	-6237
▁applicability	-6238
▁Ber	-6239
▁north	-6240
▁unfair	-6241
▁Colombo	-6242
▁eligibility	-6243
▁traditional	-6244
then	-6245
▁shif	-6246
▁alien	-6247
▁paras	-6248
▁invoked	-6249
▁leaving	-6250
haps	-6251
▁Imp	-6252
▁eat	-6253
▁loans	-6254
▁debate	-6255
▁awarding	-6256
▁communal	-6257
ugg	-6258
athered	-6259
▁enumerated	-6260
▁Est	-6261
▁vision	-6262
▁Federal	-6263
▁monthly	-6264
▁abol	-6265
▁surround	-6266
▁Kol	-6267
ortun	-6268
▁feed	-6269
emed	-6270
eting	-6271
▁sanct	-6272
▁Superintendent	-6273
▁fuel	-6274
▁nine	-6275
▁Jesus	-6276
▁votes	-6277
▁rejection	-6278
▁membership	-6279
▁flat	-6280
▁experts	-6281
▁collective	-6282
eft	-6283
▁Jh	-6284
▁Ka	-6285
icians	-6286
▁Enter	-6287
▁Training	-6288
▁sto	-6289
▁holders	-6290
▁innocent	-6291
just	-6292
▁amalgam	-6293
▁allegedly	-6294
▁NG	-6295
▁plants	-6296
▁inference	-6297
▁maintaining	-6298
▁presidential	-6299
▁shar	-6300
lets	-6301
inger	-6302
▁Rajya	-6303
▁Stand	-6304
▁quantum	-6305
▁controlled	-6306
▁pic	-6307
etent	-6308
ports	-6309
▁unl	-6310
ansion	-6311
▁river	-6312
▁intelligence	-6313
▁Food	-6314
▁backward	-6315
esse	-6316
▁judic	-6317
▁mercy	-6318
▁prime	-6319
uration	-6320
esterday	-6321
▁student	-6322
▁relatives	-6323
▁transform	-6324
CE	-6325
▁lab	-6326
▁mix	-6327
▁Disp	-6328
▁firms	-6329
▁Castes	-6330
▁Middle	-6331
▁female	-6332
▁license	-6333
▁reality	-6334
▁gathered	-6335
PT	-6336
▁JVP	-6337
▁bure	-6338
▁ways	-6339
▁unnecess	-6340
▁cuts	-6341
▁Banks	-6342
▁involves	-6343
free	-6344
▁range	-6345
▁honour	-6346
▁storage	-6347
▁promoted	-6348
▁establishing	-6349
▁Out	-6350
▁Vid	-6351
▁warm	-6352
▁stayed	-6353
appellant	-6354
▁privilege	-6355
erous	-6356
▁Govt	-6357
▁null	-6358
▁theory	-6359
▁impossible	-6360
▁supporting	-6361
AD	-6362
▁ge	-6363
▁Compl	-6364
▁attempts	-6365
▁happened	-6366
▁Territories	-6367
isha	-6368
▁Jam	-6369
itors	-6370
▁Left	-6371
▁lying	-6372
▁tenure	-6373
▁trying	-6374
▁insurer	-6375
▁reduction	-6376
▁Maj	-6377
▁desire	-6378
▁extract	-6379
▁ultimate	-6380
▁expand	-6381
▁perpet	-6382
▁carefully	-6383
▁lac	-6384
▁door	-6385
ometric	-6386
▁feature	-6387
▁discussions	-6388
RC	-6389
▁Gl	-6390
rack	-6391
▁Those	-6392
▁looked	-6393
▁acceptable	-6394
▁Villa	-6395
▁heirs	-6396
▁Sector	-6397
▁severe	-6398
▁shared	-6399
▁Teacher	-6400
▁sentences	-6401
▁imple	-6402
▁precedent	-6403
▁Art	-6404
▁Sinh	-6405
▁inspect	-6406
▁deposition	-6407
ays	-6408
▁Sum	-6409
▁Arun	-6410
▁Oper	-6411
▁borne	-6412
▁conversion	-6413
▁prefer	-6414
▁aims	-6415
▁essentially	-6416
▁dates	-6417
▁pregn	-6418
--------	-6419
▁harassment	-6420
▁Inst	-6421
▁voting	-6422
▁ends	-6423
▁relax	-6424
▁copies	-6425
▁consisting	-6426
▁electronic	-6427
▁innovation	-6428
▁affil	-6429
▁exhib	-6430
▁stamp	-6431
▁opposite	-6432
▁taxation	-6433
▁Exp	-6434
▁mid	-6435
▁hab	-6436
astern	-6437
▁suspic	-6438
▁Subject	-6439
ially	-6440
▁Park	-6441
▁Unit	-6442
othing	-6443
▁outcome	-6444
▁Selection	-6445
▁seriously	-6446
▁preparation	-6447
ques	-6448
▁Sir	-6449
ologies	-6450
istrator	-6451
▁entering	-6452
▁external	-6453
pons	-6454
▁wal	-6455
▁Others	-6456
▁enabling	-6457
▁applicants	-6458
▁Oris	-6459
▁undue	-6460
▁reaction	-6461
▁SU	-6462
▁condem	-6463
▁inclined	-6464
▁distinguished	-6465
levant	-6466
▁teaching	-6467
▁Tem	-6468
▁looking	-6469
▁beneficial	-6470
▁suspension	-6471
BS	-6472
LE	-6473
lag	-6474
author	-6475
▁bureauc	-6476
▁RI	-6477
▁felic	-6478
mn	-6479
▁Ap	-6480
▁Az	-6481
▁Orissa	-6482
▁explain	-6483
▁precise	-6484
▁pertinent	-6485
WS	-6486
wor	-6487
▁AM	-6488
haust	-6489
lease	-6490
▁aggreg	-6491
▁arisen	-6492
mination	-6493
stituting	-6494
▁fulfilled	-6495
▁documentary	-6496
cl	-6497
▁ball	-6498
▁park	-6499
▁believed	-6500
▁Engineering	-6501
▁bona	-6502
▁cart	-6503
▁floor	-6504
▁expansion	-6505
▁identical	-6506
▁computer	-6507
▁regulatory	-6508
▁description	-6509
ja	-6510
▁MP	-6511
inese	-6512
▁Categ	-6513
▁Independ	-6514
▁university	-6515
ruits	-6516
▁knew	-6517
holder	-6518
▁Ashok	-6519
▁arrears	-6520
▁depends	-6521
▁invasion	-6522
▁residents	-6523
▁licen	-6524
akf	-6525
bal	-6526
ster	-6527
▁Pan	-6528
yam	-6529
▁Rev	-6530
▁ment	-6531
▁Based	-6532
▁exclusively	-6533
aks	-6534
▁excise	-6535
▁Manager	-6536
icro	-6537
ewise	-6538
rants	-6539
▁divorce	-6540
▁correctly	-6541
▁Note	-6542
▁borrower	-6543
mar	-6544
▁vires	-6545
▁capitalism	-6546
▁memo	-6547
▁Reddy	-6548
▁blast	-6549
▁square	-6550
▁Mohd	-6551
▁dwell	-6552
▁Fourth	-6553
▁entreprene	-6554
▁cancellation	-6555
▁00	-6556
▁Bla	-6557
▁inev	-6558
▁Science	-6559
▁killing	-6560
▁massive	-6561
▁threatened	-6562
ole	-6563
▁losses	-6564
▁Communist	-6565
▁Tar	-6566
orter	-6567
▁desir	-6568
▁illust	-6569
▁Chinese	-6570
▁hostile	-6571
▁partners	-6572
▁Committees	-6573
▁Dub	-6574
▁Gul	-6575
▁Siv	-6576
▁Designated	-6577
▁designated	-6578
iche	-6579
▁APP	-6580
▁input	-6581
▁Session	-6582
IF	-6583
▁eld	-6584
▁nut	-6585
▁xad	-6586
▁Survey	-6587
▁denial	-6588
▁unique	-6589
▁violated	-6590
▁continuous	-6591
alli	-6592
erate	-6593
▁defeat	-6594
GE	-6595
rain	-6596
rase	-6597
ayukta	-6598
ellect	-6599
adequ	-6600
▁phone	-6601
▁Transfer	-6602
▁Roy	-6603
ciation	-6604
▁declined	-6605
▁offender	-6606
Ch	-6607
▁Hot	-6608
▁absor	-6609
▁quick	-6610
▁spent	-6611
▁minutes	-6612
ederation	-6613
▁corporation	-6614
▁Sup	-6615
lation	-6616
▁Common	-6617
▁priority	-6618
▁diplom	-6619
wari	-6620
year	-6621
ocated	-6622
▁island	-6623
▁exhaust	-6624
▁comments	-6625
▁clearance	-6626
▁equipment	-6627
▁dismissing	-6628
son	-6629
▁Claim	-6630
▁exact	-6631
▁studies	-6632
▁construct	-6633
▁Found	-6634
▁choose	-6635
▁EC	-6636
▁Here	-6637
▁crops	-6638
▁proceeds	-6639
lin	-6640
kata	-6641
▁Turk	-6642
aneous	-6643
▁announ	-6644
▁conclude	-6645
JP	-6646
HAN	-6647
▁Blair	-6648
▁strik	-6649
▁reasonably	-6650
▁immig	-6651
AM	-6652
▁Person	-6653
▁approx	-6654
▁teleph	-6655
▁dependent	-6656
▁MO	-6657
▁Sanj	-6658
▁chair	-6659
▁Tribes	-6660
▁journal	-6661
▁Economic	-6662
▁millions	-6663
▁competition	-6664
ushed	-6665
iversal	-6666
▁suggestion	-6667
ocal	-6668
▁comprising	-6669
iled	-6670
look	-6671
▁Mun	-6672
ifies	-6673
atform	-6674
▁chain	-6675
otion	-6676
itally	-6677
▁admit	-6678
▁adult	-6679
▁inaug	-6680
▁encourage	-6681
▁strengthen	-6682
▁Chir	-6683
▁morality	-6684
▁Gang	-6685
▁sets	-6686
▁notices	-6687
▁ingredients	-6688
leum	-6689
estion	-6690
▁faced	-6691
▁Kish	-6692
▁insured	-6693
▁signature	-6694
▁offers	-6695
▁Village	-6696
▁outstanding	-6697
▁suggestions	-6698
enders	-6699
▁yield	-6700
▁Credit	-6701
▁Reform	-6702
▁workman	-6703
▁Category	-6704
igarh	-6705
▁Judah	-6706
▁Democrat	-6707
▁attended	-6708
▁Ans	-6709
▁urg	-6710
▁incor	-6711
▁laying	-6712
▁placing	-6713
▁Equality	-6714
▁consists	-6715
▁Australian	-6716
▁Try	-6717
▁pip	-6718
▁subjects	-6719
▁preceding	-6720
▁Na	-6721
▁Var	-6722
▁die	-6723
▁formula	-6724
▁nominated	-6725
▁appearance	-6726
ortem	-6727
ompany	-6728
▁congrat	-6729
▁strategy	-6730
▁improvement	-6731
ader	-6732
▁propri	-6733
garh	-6734
▁Sale	-6735
▁Women	-6736
▁excell	-6737
▁representing	-6738
▁CS	-6739
enda	-6740
▁wis	-6741
▁Being	-6742
▁piece	-6743
mun	-6744
ria	-6745
▁arm	-6746
▁dig	-6747
▁BCCI	-6748
amount	-6749
▁Houses	-6750
▁division	-6751
roleum	-6752
▁advised	-6753
▁Himachal	-6754
DS	-6755
▁Av	-6756
▁Exh	-6757
▁mouth	-6758
▁ultra	-6759
▁colour	-6760
▁inadequ	-6761
▁inclusive	-6762
▁reflected	-6763
EF	-6764
▁Ori	-6765
▁labor	-6766
▁increasingly	-6767
▁Lie	-6768
▁Each	-6769
▁Most	-6770
▁fourth	-6771
▁relate	-6772
▁pleasure	-6773
▁depending	-6774
gr	-6775
▁planned	-6776
▁torture	-6777
▁undertake	-6778
▁imperialism	-6779
raj	-6780
▁rect	-6781
▁colon	-6782
▁implied	-6783
▁producer	-6784
▁negotiations	-6785
▁Mu	-6786
▁gar	-6787
eous	-6788
▁Dal	-6789
▁landing	-6790
▁computing	-6791
▁foregoing	-6792
iri	-6793
▁Crime	-6794
▁facing	-6795
▁SPD	-6796
▁Yadav	-6797
▁showed	-6798
In	-6799
UT	-6800
▁१६	-6801
time	-6802
▁wise	-6803
ployed	-6804
▁divid	-6805
▁spite	-6806
▁Arbitral	-6807
▁deposits	-6808
▁--	-6809
izes	-6810
ogue	-6811
▁Kore	-6812
▁forwarded	-6813
▁limitations	-6814
asc	-6815
▁path	-6816
asions	-6817
▁train	-6818
▁deprived	-6819
▁bilateral	-6820
asia	-6821
▁sacrif	-6822
▁household	-6823
▁ascertain	-6824
▁rejecting	-6825
ls	-6826
agon	-6827
▁informant	-6828
▁surrender	-6829
▁eventually	-6830
▁prosperity	-6831
▁UGC	-6832
▁ideas	-6833
▁prepare	-6834
▁Managing	-6835
bu	-6836
▁ask	-6837
▁Issue	-6838
▁Rural	-6839
▁Notice	-6840
▁specify	-6841
▁originally	-6842
▁repeatedly	-6843
▁bed	-6844
essees	-6845
iveness	-6846
▁Marriage	-6847
▁CG	-6848
▁leads	-6849
▁royal	-6850
▁trading	-6851
▁unauthor	-6852
▁appointing	-6853
back	-6854
▁cum	-6855
▁dro	-6856
▁previously	-6857
▁television	-6858
▁masses	-6859
▁titled	-6860
▁Russian	-6861
ora	-6862
gone	-6863
▁DEL	-6864
vation	-6865
▁Great	-6866
▁psych	-6867
▁deserves	-6868
▁Bec	-6869
▁bit	-6870
▁Consid	-6871
▁attained	-6872
mal	-6873
oday	-6874
▁kid	-6875
ressive	-6876
▁clothes	-6877
▁hundreds	-6878
▁lays	-6879
isting	-6880
▁incorrect	-6881
roller	-6882
velled	-6883
▁traffic	-6884
▁reliable	-6885
▁promoting	-6886
▁efficiency	-6887
▁advertisement	-6888
iates	-6889
▁foot	-6890
▁spect	-6891
▁domain	-6892
▁Property	-6893
▁patients	-6894
▁biometric	-6895
igent	-6896
▁Mond	-6897
▁oath	-6898
▁persu	-6899
▁tests	-6900
▁wants	-6901
▁jurispr	-6902
▁Standing	-6903
▁Digitally	-6904
▁modification	-6905
CC	-6906
UN	-6907
dden	-6908
ilos	-6909
▁involve	-6910
▁yesterday	-6911
uality	-6912
▁White	-6913
▁recons	-6914
▁stages	-6915
▁rehabilitation	-6916
upon	-6917
oviet	-6918
▁height	-6919
▁supporters	-6920
▁Palestinian	-6921
ails	-6922
▁tank	-6923
empted	-6924
▁aband	-6925
▁inher	-6926
▁Branch	-6927
▁toward	-6928
▁essence	-6929
▁variety	-6930
▁worship	-6931
▁certified	-6932
▁imperative	-6933
▁Tro	-6934
▁box	-6935
▁indul	-6936
▁dishon	-6937
▁admittedly	-6938
▁Chh	-6939
▁hor	-6940
▁sle	-6941
▁star	-6942
▁Gopal	-6943
▁Patna	-6944
▁incent	-6945
▁permits	-6946
▁integral	-6947
▁Authorities	-6948
amber	-6949
enable	-6950
▁reveals	-6951
▁vacancy	-6952
PF	-6953
umn	-6954
▁Sr	-6955
▁uses	-6956
▁Moses	-6957
▁emerged	-6958
▁authentication	-6959
▁dispose	-6960
▁convention	-6961
▁interpreting	-6962
isable	-6963
▁fifty	-6964
▁multi	-6965
▁electoral	-6966
▁prevailing	-6967
▁forfe	-6968
▁infring	-6969
▁perhaps	-6970
▁multiple	-6971
▁expos	-6972
▁jointly	-6973
▁serving	-6974
▁brut	-6975
▁goal	-6976
mortem	-6977
▁Three	-6978
▁behold	-6979
▁consolid	-6980
▁similarly	-6981
▁enterprise	-6982
▁differences	-6983
▁Mer	-6984
▁perf	-6985
struct	-6986
▁societies	-6987
.00	-6988
▁VII	-6989
vance	-6990
▁behaviour	-6991
bhai	-6992
▁Yet	-6993
▁waste	-6994
▁Emphas	-6995
▁solely	-6996
▁purview	-6997
▁Verified	-6998
▁entities	-6999
▁Engineers	-7000
▁consequently	-7001
ps	-7002
cks	-7003
▁gift	-7004
▁pret	-7005
▁Chancellor	-7006
▁compulsory	-7007
▁hardly	-7008
▁attempted	-7009
SI	-7010
▁IST	-7011
oples	-7012
▁soil	-7013
▁Money	-7014
▁Awards	-7015
▁Clauses	-7016
▁tenancy	-7017
▁implication	-7018
▁liabilities	-7019
▁shareholders	-7020
rick	-7021
▁arch	-7022
▁voters	-7023
▁usually	-7024
▁presently	-7025
▁producing	-7026
inqu	-7027
nergy	-7028
ushan	-7029
▁initiative	-7030
▁Constituent	-7031
AI	-7032
OS	-7033
orts	-7034
▁feet	-7035
▁seem	-7036
▁Kamal	-7037
▁roads	-7038
ichever	-7039
▁wisdom	-7040
▁WS	-7041
monial	-7042
aneously	-7043
ications	-7044
▁promise	-7045
▁equitable	-7046
amin	-7047
▁Object	-7048
▁perused	-7049
▁demanding	-7050
▁incidental	-7051
▁Kan	-7052
▁code	-7053
▁fault	-7054
▁reveal	-7055
▁Sinhala	-7056
ellectual	-7057
▁districts	-7058
ilosop	-7059
▁south	-7060
▁adduced	-7061
▁Chandigarh	-7062
▁formulated	-7063
▁Chairperson	-7064
▁investments	-7065
▁unnecessary	-7066
▁institutional	-7067
▁AD	-7068
▁resc	-7069
▁chance	-7070
▁becoming	-7071
▁location	-7072
▁introduction	-7073
tsky	-7074
▁PWs	-7075
ighty	-7076
▁waters	-7077
▁destroyed	-7078
ario	-7079
▁BJP	-7080
▁raw	-7081
ducing	-7082
▁green	-7083
ordinary	-7084
▁platform	-7085
▁separation	-7086
▁territories	-7087
asi	-7088
▁fighting	-7089
▁cancelled	-7090
more	-7091
▁NEW	-7092
▁tell	-7093
▁incap	-7094
▁disturb	-7095
▁adverted	-7096
▁autonomy	-7097
UM	-7098
och	-7099
▁Det	-7100
▁Why	-7101
riages	-7102
▁learn	-7103
▁observe	-7104
▁qualifying	-7105
HER	-7106
ugu	-7107
oles	-7108
rance	-7109
▁outset	-7110
▁Seventh	-7111
▁prisoners	-7112
▁difficulty	-7113
▁Bel	-7114
▁pal	-7115
mise	-7116
▁socio	-7117
enant	-7118
▁Moham	-7119
▁faculty	-7120
▁Consumer	-7121
▁Planning	-7122
▁hop	-7123
▁isol	-7124
▁annex	-7125
▁table	-7126
▁derived	-7127
▁male	-7128
▁milk	-7129
▁alive	-7130
▁exclude	-7131
▁Railways	-7132
▁sch	-7133
▁deeds	-7134
▁lawyers	-7135
▁occasions	-7136
▁undergone	-7137
ompl	-7138
theless	-7139
▁vacant	-7140
▁largely	-7141
tificates	-7142
▁Christian	-7143
▁Tribunals	-7144
ATE	-7145
uti	-7146
▁NS	-7147
▁di	-7148
▁wel	-7149
uddin	-7150
rapali	-7151
▁Soviet	-7152
▁discriminatory	-7153
arsh	-7154
rosy	-7155
▁amp	-7156
▁bea	-7157
▁Trotsky	-7158
▁Teh	-7159
alaya	-7160
▁sick	-7161
▁zone	-7162
▁compr	-7163
▁multipl	-7164
▁competitive	-7165
▁hyp	-7166
▁Vide	-7167
▁cere	-7168
▁east	-7169
▁warned	-7170
▁Consult	-7171
▁felicitations	-7172
▁Mur	-7173
chand	-7174
icity	-7175
verse	-7176
▁Telugu	-7177
▁fixing	-7178
▁lawful	-7179
▁assumed	-7180
▁Amrapali	-7181
▁punished	-7182
▁safeguard	-7183
▁whichever	-7184
▁Foundation	-7185
▁indirectly	-7186
yot	-7187
▁route	-7188
▁monitoring	-7189
UD	-7190
uit	-7191
▁FOR	-7192
▁hour	-7193
▁Master	-7194
▁Cal	-7195
orily	-7196
anches	-7197
ifteen	-7198
▁Forum	-7199
▁caution	-7200
▁aged	-7201
▁escal	-7202
▁Revision	-7203
▁observing	-7204
,0	-7205
▁Fac	-7206
▁enem	-7207
▁murd	-7208
olitan	-7209
▁Today	-7210
▁buyers	-7211
▁summon	-7212
▁treating	-7213
pe	-7214
▁Div	-7215
known	-7216
urate	-7217
▁finger	-7218
▁Secondly	-7219
▁aggregate	-7220
▁Institutions	-7221
▁Kaur	-7222
▁vers	-7223
▁driven	-7224
▁viewed	-7225
anguages	-7226
▁quarter	-7227
ima	-7228
▁SA	-7229
assed	-7230
iciencies	-7231
▁arrangements	-7232
▁corporations	-7233
aph	-7234
▁nec	-7235
▁Estate	-7236
▁leases	-7237
▁civilians	-7238
vity	-7239
itionally	-7240
ordination	-7241
▁engineering	-7242
▁avo	-7243
erved	-7244
atively	-7245
▁cinema	-7246
▁Eastern	-7247
▁accompl	-7248
▁display	-7249
▁sometimes	-7250
bar	-7251
▁Gen	-7252
▁culp	-7253
▁smugg	-7254
▁expedit	-7255
▁refusal	-7256
▁relevance	-7257
ava	-7258
ena	-7259
▁CW	-7260
▁ND	-7261
ariat	-7262
▁Dhan	-7263
▁batch	-7264
▁Ramesh	-7265
▁Emphasis	-7266
▁advocates	-7267
▁implementing	-7268
▁categorically	-7269
olic	-7270
claim	-7271
▁obsc	-7272
▁concent	-7273
▁decline	-7274
▁Memorandum	-7275
▁NI	-7276
iest	-7277
▁Annual	-7278
MM	-7279
▁CE	-7280
▁MC	-7281
▁pled	-7282
▁Mission	-7283
▁evening	-7284
▁heroine	-7285
▁territorial	-7286
▁BS	-7287
elve	-7288
face	-7289
▁fill	-7290
▁headed	-7291
▁liquor	-7292
▁broadcast	-7293
▁component	-7294
▁valuation	-7295
rolled	-7296
▁virtually	-7297
▁terminated	-7298
▁entertained	-7299
▁departmental	-7300
▁god	-7301
▁Sand	-7302
▁drugs	-7303
▁frequ	-7304
▁throw	-7305
icature	-7306
▁effected	-7307
▁exceptional	-7308
iss	-7309
▁Inn	-7310
▁sight	-7311
▁exempt	-7312
▁wherever	-7313
▁demonstrate	-7314
▁editor	-7315
▁empowers	-7316
▁contributions	-7317
ker	-7318
▁Ro	-7319
▁Front	-7320
▁ammun	-7321
▁premium	-7322
▁insisted	-7323
▁departments	-7324
▁expressions	-7325
▁Bure	-7326
▁brib	-7327
arkhand	-7328
▁animal	-7329
▁silver	-7330
resident	-7331
ropolitan	-7332
▁software	-7333
▁customers	-7334
▁sentencing	-7335
▁notifications	-7336
▁Saf	-7337
▁jun	-7338
▁wil	-7339
bered	-7340
ulter	-7341
▁Agency	-7342
▁Junior	-7343
▁intens	-7344
▁Instead	-7345
▁turnover	-7346
▁Cond	-7347
▁club	-7348
antial	-7349
▁fired	-7350
▁contest	-7351
▁customs	-7352
▁divided	-7353
▁Agriculture	-7354
abric	-7355
▁Gram	-7356
arency	-7357
▁Pay	-7358
▁enqu	-7359
▁watch	-7360
▁animals	-7361
▁tenants	-7362
▁affidavits	-7363
▁hes	-7364
▁Press	-7365
▁unjust	-7366
▁strikes	-7367
▁awareness	-7368
mer	-7369
▁CD	-7370
▁Phar	-7371
▁Among	-7372
▁DELHI	-7373
igilance	-7374
▁careful	-7375
▁enables	-7376
▁communicated	-7377
▁circumstantial	-7378
ds	-7379
eet	-7380
atin	-7381
hers	-7382
mony	-7383
ertil	-7384
▁Nath	-7385
▁Circular	-7386
▁Signature	-7387
▁BO	-7388
essor	-7389
uster	-7390
▁WSWS	-7391
▁pattern	-7392
▁constitutes	-7393
hr	-7394
isp	-7395
akes	-7396
▁AIC	-7397
▁sin	-7398
ement	-7399
works	-7400
▁Dubai	-7401
▁Societies	-7402
etic	-7403
uthan	-7404
▁rain	-7405
▁plots	-7406
▁posted	-7407
▁refuge	-7408
▁Because	-7409
▁eminent	-7410
▁putting	-7411
▁Judicature	-7412
▁prospective	-7413
usse	-7414
▁elimin	-7415
▁Kolkata	-7416
▁exports	-7417
▁resolved	-7418
▁superann	-7419
▁resignation	-7420
▁draf	-7421
▁mobil	-7422
▁fifteen	-7423
▁Technical	-7424
laws	-7425
igible	-7426
▁Assoc	-7427
▁audit	-7428
▁panel	-7429
▁gather	-7430
▁leaves	-7431
▁Persons	-7432
▁attacked	-7433
▁Sury	-7434
▁root	-7435
▁stra	-7436
▁Labor	-7437
utenant	-7438
▁pursue	-7439
▁juvenile	-7440
▁recourse	-7441
Cs	-7442
icus	-7443
▁Bureau	-7444
▁deaths	-7445
▁immense	-7446
▁retained	-7447
▁undoubtedly	-7448
awan	-7449
▁Housing	-7450
▁existed	-7451
▁fraudul	-7452
▁Jharkhand	-7453
▁inclusion	-7454
▁manufacturer	-7455
MF	-7456
▁dy	-7457
rich	-7458
term	-7459
▁Neh	-7460
based	-7461
▁tour	-7462
▁burnt	-7463
▁pages	-7464
▁summons	-7465
▁item	-7466
▁Chirac	-7467
▁describ	-7468
▁irrigation	-7469
▁cog	-7470
▁sam	-7471
▁Ident	-7472
▁Sales	-7473
▁allott	-7474
▁judicata	-7475
▁highlight	-7476
icked	-7477
▁bags	-7478
▁dial	-7479
▁ties	-7480
▁Paris	-7481
▁medium	-7482
▁spoken	-7483
▁railway	-7484
▁undermin	-7485
▁compelled	-7486
▁satisfact	-7487
▁Vin	-7488
▁Islamic	-7489
▁currently	-7490
SL	-7491
▁imag	-7492
▁Regul	-7493
▁quota	-7494
▁sudden	-7495
MENT	-7496
▁Sant	-7497
▁Anand	-7498
▁Shankar	-7499
▁Ham	-7500
▁Lik	-7501
onance	-7502
▁Academ	-7503
▁deficiencies	-7504
▁exploitation	-7505
▁Jac	-7506
▁Rat	-7507
▁Ten	-7508
stwhile	-7509
▁discon	-7510
▁Lieutenant	-7511
▁appreciated	-7512
▁DG	-7513
▁Six	-7514
apsed	-7515
▁pict	-7516
ceived	-7517
▁contesting	-7518
van	-7519
vis	-7520
▁Green	-7521
▁reliefs	-7522
▁starting	-7523
▁Ha	-7524
amus	-7525
▁Ravi	-7526
utable	-7527
▁hotel	-7528
▁branch	-7529
▁lessee	-7530
▁Western	-7531
▁enforced	-7532
▁endeavour	-7533
otic	-7534
▁NIT	-7535
▁erstwhile	-7536
▁contractual	-7537
▁bott	-7538
▁repl	-7539
▁anger	-7540
▁bread	-7541
▁sharp	-7542
▁Energy	-7543
▁agenda	-7544
▁constitu	-7545
▁signatures	-7546
▁NJ	-7547
▁km	-7548
▁converted	-7549
▁corroborated	-7550
▁jurisprudence	-7551
ga	-7552
▁DW	-7553
atur	-7554
ensus	-7555
▁agents	-7556
▁Mines	-7557
▁ahead	-7558
▁depre	-7559
▁fruit	-7560
▁wider	-7561
▁failing	-7562
▁fathers	-7563
▁herself	-7564
▁adoption	-7565
▁Investigation	-7566
▁unp	-7567
▁residing	-7568
▁marketing	-7569
▁kg	-7570
acle	-7571
▁sun	-7572
▁broken	-7573
▁thinks	-7574
ensation	-7575
▁finality	-7576
▁whenever	-7577
▁accommodation	-7578
unc	-7579
▁Oil	-7580
▁PRO	-7581
▁Verma	-7582
▁securing	-7583
rum	-7584
writ	-7585
▁vary	-7586
▁Exper	-7587
▁buyer	-7588
▁selling	-7589
▁regulating	-7590
▁unemployment	-7591
down	-7592
▁Gre	-7593
▁lad	-7594
▁Good	-7595
▁Tele	-7596
▁overt	-7597
▁quash	-7598
▁veget	-7599
▁arrive	-7600
▁worker	-7601
inations	-7602
▁Nothing	-7603
▁mistake	-7604
▁scenario	-7605
▁SI	-7606
vals	-7607
▁ang	-7608
▁intr	-7609
▁Count	-7610
▁coast	-7611
▁speedy	-7612
▁Mineral	-7613
uthanasia	-7614
▁affecting	-7615
▁assessing	-7616
▁secretary	-7617
long	-7618
▁hum	-7619
▁ones	-7620
▁simult	-7621
▁licensee	-7622
▁Democrats	-7623
▁communities	-7624
ams	-7625
fall	-7626
▁clos	-7627
uniary	-7628
▁Innov	-7629
▁Nehru	-7630
▁career	-7631
▁fabric	-7632
▁retain	-7633
▁creates	-7634
▁investigate	-7635
hem	-7636
hana	-7637
▁Pad	-7638
power	-7639
▁Workers	-7640
▁admissions	-7641
ox	-7642
ss	-7643
▁AF	-7644
▁ran	-7645
▁Phil	-7646
▁encro	-7647
▁Forces	-7648
rimonial	-7649
▁philosop	-7650
▁conscience	-7651
pal	-7652
amble	-7653
itated	-7654
▁lapse	-7655
▁practition	-7656
▁Ga	-7657
▁Hig	-7658
▁imped	-7659
▁Building	-7660
▁concession	-7661
▁execute	-7662
▁Employees	-7663
amma	-7664
hension	-7665
▁closely	-7666
▁effects	-7667
▁Industry	-7668
▁inequ	-7669
▁subxad	-7670
▁twelve	-7671
▁obliged	-7672
▁powerful	-7673
▁extraordinary	-7674
drop	-7675
▁beg	-7676
▁dance	-7677
itarian	-7678
▁purely	-7679
▁allowances	-7680
▁safeguards	-7681
akrish	-7682
▁widely	-7683
▁returns	-7684
▁Competent	-7685
▁indicating	-7686
▁Jose	-7687
▁Urban	-7688
▁shift	-7689
rolment	-7690
▁Sanjay	-7691
▁lawyer	-7692
▁acknowledged	-7693
▁venture	-7694
▁consonance	-7695
nic	-7696
from	-7697
▁Jos	-7698
▁Web	-7699
▁summary	-7700
▁restored	-7701
otton	-7702
▁easy	-7703
▁formation	-7704
▁confirmation	-7705
▁CJ	-7706
▁Bach	-7707
▁MSME	-7708
▁vest	-7709
▁remote	-7710
▁spokes	-7711
▁Inquiry	-7712
▁Without	-7713
▁ancient	-7714
▁drawing	-7715
▁emerging	-7716
▁transfere	-7717
▁Considering	-7718
▁OR	-7719
▁symb	-7720
▁Street	-7721
▁legality	-7722
▁achieving	-7723
▁performing	-7724
▁NCT	-7725
rations	-7726
▁stream	-7727
▁reaching	-7728
▁Jew	-7729
ether	-7730
▁tick	-7731
▁AICTE	-7732
▁remin	-7733
▁stret	-7734
ifiable	-7735
iciaries	-7736
▁wrongly	-7737
▁pollution	-7738
▁Enterprises	-7739
▁approximately	-7740
▁collapse	-7741
▁resource	-7742
▁resistance	-7743
▁Confessional	-7744
▁gate	-7745
General	-7746
▁Temple	-7747
▁easily	-7748
▁considers	-7749
ressal	-7750
▁constr	-7751
atha	-7752
compl	-7753
▁Apex	-7754
incial	-7755
▁summar	-7756
▁Cabinet	-7757
▁Lordship	-7758
now	-7759
opp	-7760
▁IA	-7761
▁Ban	-7762
▁Sunday	-7763
▁doubts	-7764
▁knowing	-7765
▁Agricultural	-7766
ba	-7767
▁Bud	-7768
▁Fil	-7769
▁schol	-7770
▁daughters	-7771
▁Regulatory	-7772
▁privileges	-7773
ament	-7774
chief	-7775
▁NJAC	-7776
▁steel	-7777
▁unity	-7778
▁Rupees	-7779
▁regions	-7780
▁numerous	-7781
▁remember	-7782
▁claimants	-7783
▁preparing	-7784
▁regulated	-7785
▁evaluation	-7786
▁contradictions	-7787
▁Num	-7788
▁Paper	-7789
▁Rajini	-7790
▁Bhushan	-7791
▁Keeping	-7792
▁besides	-7793
▁filling	-7794
▁winding	-7795
TS	-7796
▁Sha	-7797
▁Data	-7798
▁Upon	-7799
ettlement	-7800
▁computed	-7801
▁offensive	-7802
otal	-7803
▁escape	-7804
▁altered	-7805
▁memorandum	-7806
itage	-7807
▁employers	-7808
▁purported	-7809
▁succession	-7810
▁enhancement	-7811
VE	-7812
▁bare	-7813
▁roll	-7814
▁Canada	-7815
▁council	-7816
▁handling	-7817
▁criticism	-7818
iman	-7819
▁sequ	-7820
▁aspir	-7821
▁brings	-7822
▁Conduct	-7823
▁components	-7824
▁Metropolitan	-7825
▁RE	-7826
▁१७	-7827
isms	-7828
▁phrase	-7829
▁speaks	-7830
▁demonstration	-7831
▁canv	-7832
▁const	-7833
▁asking	-7834
▁reversed	-7835
▁institute	-7836
▁cognizable	-7837
▁compassion	-7838
▁permitting	-7839
▁represents	-7840
▁ID	-7841
plus	-7842
▁nav	-7843
▁Ranj	-7844
▁Asian	-7845
▁dispro	-7846
▁conting	-7847
statement	-7848
▁changing	-7849
▁reducing	-7850
▁Petitions	-7851
▁developments	-7852
▁acid	-7853
▁sword	-7854
ogether	-7855
▁accorded	-7856
▁averments	-7857
xx	-7858
▁CL	-7859
▁Sinha	-7860
▁shock	-7861
▁video	-7862
▁decade	-7863
▁Reforms	-7864
▁stopped	-7865
▁mitigating	-7866
▁Megh	-7867
▁linked	-7868
▁installation	-7869
▁technologies	-7870
▁Higher	-7871
▁refuse	-7872
▁sharing	-7873
▁Pakistani	-7874
▁hospitals	-7875
▁Mc	-7876
▁CIV	-7877
▁Naz	-7878
▁ste	-7879
▁stone	-7880
▁royalty	-7881
▁forthwith	-7882
▁neighbour	-7883
▁Investment	-7884
▁intellectual	-7885
▁rely	-7886
▁Steel	-7887
▁evalu	-7888
▁discrep	-7889
▁rendering	-7890
▁enactments	-7891
ils	-7892
▁pil	-7893
▁Rest	-7894
▁Hotel	-7895
▁lesser	-7896
▁propag	-7897
▁channels	-7898
▁Advocates	-7899
▁indication	-7900
▁Gan	-7901
▁Nep	-7902
▁vul	-7903
▁Pune	-7904
▁conj	-7905
▁Depart	-7906
▁double	-7907
▁collaboration	-7908
itect	-7909
▁neck	-7910
lihood	-7911
▁fairly	-7912
ki	-7913
▁doll	-7914
▁white	-7915
▁Neither	-7916
▁Language	-7917
▁substitute	-7918
oud	-7919
▁remarks	-7920
respondent	-7921
▁extending	-7922
▁MM	-7923
mail	-7924
▁Kap	-7925
owners	-7926
▁client	-7927
▁incumb	-7928
▁settle	-7929
▁Administrator	-7930
idance	-7931
▁enorm	-7932
▁moving	-7933
▁explicit	-7934
▁subscrib	-7935
▁practical	-7936
▁superannuation	-7937
herry	-7938
▁Ibid	-7939
▁acre	-7940
sections	-7941
▁missing	-7942
▁irrelevant	-7943
▁preference	-7944
coming	-7945
▁CIVIL	-7946
▁bills	-7947
reening	-7948
▁priest	-7949
▁retail	-7950
▁alliance	-7951
▁covering	-7952
▁juncture	-7953
▁generated	-7954
▁pronounced	-7955
▁enterprises	-7956
▁beneficiaries	-7957
ndra	-7958
▁Thir	-7959
▁debts	-7960
▁interpret	-7961
NL	-7962
ham	-7963
▁Deb	-7964
▁Motor	-7965
▁recip	-7966
▁Maruti	-7967
▁excluding	-7968
▁contribute	-7969
▁Cooperative	-7970
▁Bagh	-7971
▁lose	-7972
ariness	-7973
▁attitude	-7974
FP	-7975
▁van	-7976
▁Fact	-7977
▁theat	-7978
▁evolved	-7979
▁personally	-7980
▁demonstrations	-7981
force	-7982
pread	-7983
hement	-7984
▁dream	-7985
▁presumed	-7986
▁illegality	-7987
▁anticipatory	-7988
▁entrepreneurs	-7989
▁cam	-7990
▁adulter	-7991
▁Ord	-7992
▁Indeed	-7993
▁injust	-7994
▁season	-7995
▁delayed	-7996
▁Independence	-7997
OL	-7998
vin	-7999
▁TV	-8000
pled	-8001
▁Guard	-8002
▁Please	-8003
▁rising	-8004
▁suspicion	-8005
▁protecting	-8006
▁credibility	-8007
▁certificates	-8008
▁incon	-8009
estival	-8010
▁branches	-8011
▁possibly	-8012
▁classified	-8013
▁demonstrated	-8014
▁UT	-8015
fire	-8016
▁NAT	-8017
▁posed	-8018
▁earned	-8019
▁empower	-8020
▁heading	-8021
▁resolve	-8022
▁replaced	-8023
▁extensive	-8024
▁municipal	-8025
▁conformity	-8026
▁stipulates	-8027
▁matrimonial	-8028
▁Cri	-8029
▁Ser	-8030
▁hrs	-8031
▁initiate	-8032
▁Us	-8033
grad	-8034
seas	-8035
▁Ahm	-8036
▁Anil	-8037
▁minds	-8038
▁detained	-8039
▁improper	-8040
▁Republican	-8041
▁assumption	-8042
posit	-8043
▁Teachers	-8044
▁Controller	-8045
▁vex	-8046
▁deny	-8047
▁soul	-8048
ustain	-8049
▁deduct	-8050
urch	-8051
▁Clin	-8052
▁Life	-8053
▁upper	-8054
▁expired	-8055
▁mission	-8056
▁monetary	-8057
▁tensions	-8058
▁revisional	-8059
▁bourgeoisie	-8060
ums	-8061
osite	-8062
▁Mehta	-8063
▁invoking	-8064
▁telephone	-8065
alam	-8066
▁Bhut	-8067
ipping	-8068
▁deten	-8069
▁threats	-8070
▁Mohammed	-8071
▁Lokayukta	-8072
▁IR	-8073
wide	-8074
▁Sik	-8075
▁gap	-8076
▁Bangl	-8077
▁fulfill	-8078
▁interfered	-8079
▁motiv	-8080
▁newly	-8081
▁sealed	-8082
▁taxable	-8083
▁Assessment	-8084
▁integrated	-8085
da	-8086
▁shut	-8087
▁Georg	-8088
▁heaven	-8089
▁positions	-8090
▁insolvency	-8091
▁voluntarily	-8092
▁nex	-8093
▁cogent	-8094
▁composition	-8095
▁confidential	-8096
▁difficulties	-8097
▁revolutionary	-8098
dar	-8099
▁pit	-8100
▁Poll	-8101
▁Thak	-8102
▁sake	-8103
▁Leban	-8104
endants	-8105
▁assailed	-8106
▁transparency	-8107
dict	-8108
iant	-8109
arded	-8110
▁George	-8111
▁Jaipur	-8112
ney	-8113
endix	-8114
▁Paul	-8115
▁Town	-8116
▁Treat	-8117
▁nexus	-8118
▁happen	-8119
▁surplus	-8120
▁furnishing	-8121
gue	-8122
iful	-8123
▁race	-8124
▁blind	-8125
▁gender	-8126
▁remission	-8127
▁AW	-8128
▁inflicted	-8129
▁Principles	-8130
▁Petitioners	-8131
appa	-8132
▁magaz	-8133
▁assured	-8134
▁Likewise	-8135
▁spending	-8136
▁strengthening	-8137
▁tab	-8138
▁holy	-8139
▁aggrav	-8140
▁skills	-8141
▁trained	-8142
▁improving	-8143
oe	-8144
ners	-8145
▁reck	-8146
▁chart	-8147
▁kinds	-8148
ictionary	-8149
▁therewith	-8150
▁pi	-8151
▁master	-8152
▁pronounce	-8153
▁livelihood	-8154
▁distributed	-8155
▁orientation	-8156
aved	-8157
▁spl	-8158
▁Madh	-8159
▁Mere	-8160
▁bull	-8161
▁ore	-8162
▁Prat	-8163
▁abet	-8164
▁thank	-8165
certain	-8166
idespread	-8167
▁amending	-8168
▁combined	-8169
▁unfortun	-8170
▁transferee	-8171
▁Departments	-8172
LT	-8173
▁MB	-8174
ussain	-8175
▁Behold	-8176
itnesses	-8177
▁vitiated	-8178
OP	-8179
cers	-8180
itha	-8181
aband	-8182
losed	-8183
uliar	-8184
utors	-8185
▁Doct	-8186
▁Site	-8187
▁deeply	-8188
hibition	-8189
▁duration	-8190
▁pecuniary	-8191
▁restraint	-8192
▁productivity	-8193
▁successfully	-8194
unga	-8195
▁tim	-8196
▁Privy	-8197
▁bless	-8198
▁belongs	-8199
▁confers	-8200
▁assuming	-8201
▁conclusive	-8202
▁structures	-8203
▁discharging	-8204
▁provisional	-8205
▁requisition	-8206
▁establishments	-8207
▁kil	-8208
▁auto	-8209
ourage	-8210
▁solemn	-8211
▁disaster	-8212
▁discipline	-8213
▁peculiar	-8214
▁predecess	-8215
▁sensitive	-8216
▁stability	-8217
▁universal	-8218
CA	-8219
EB	-8220
iya	-8221
ffect	-8222
lands	-8223
▁Venk	-8224
▁user	-8225
▁Origin	-8226
▁attorney	-8227
ustainable	-8228
▁installed	-8229
▁occurring	-8230
▁widespread	-8231
▁Dam	-8232
▁Lit	-8233
▁Deep	-8234
▁Journ	-8235
▁Laksh	-8236
uestion	-8237
ribution	-8238
▁Process	-8239
▁prevented	-8240
▁emphasized	-8241
▁instruments	-8242
▁MW	-8243
gery	-8244
sore	-8245
▁saved	-8246
▁uncle	-8247
▁injustice	-8248
yle	-8249
▁Dar	-8250
▁manage	-8251
▁backdrop	-8252
▁supplies	-8253
▁Secondary	-8254
▁instances	-8255
▁concessions	-8256
gi	-8257
jit	-8258
apore	-8259
▁ended	-8260
▁Monday	-8261
▁healthy	-8262
▁prescribe	-8263
▁surrounding	-8264
▁cess	-8265
▁pist	-8266
aulted	-8267
▁omitted	-8268
▁contends	-8269
▁allocated	-8270
aja	-8271
▁RD	-8272
abil	-8273
▁Rai	-8274
▁drew	-8275
▁strongly	-8276
▁vehement	-8277
▁attributed	-8278
▁computation	-8279
▁imperialist	-8280
▁Opp	-8281
▁Pass	-8282
venant	-8283
▁trees	-8284
▁assert	-8285
▁Disputes	-8286
▁everyone	-8287
▁promised	-8288
▁incidents	-8289
ips	-8290
▁CHA	-8291
▁Rav	-8292
▁USA	-8293
▁fle	-8294
▁seeing	-8295
▁cheques	-8296
▁desired	-8297
abb	-8298
care	-8299
▁rob	-8300
ography	-8301
▁Patent	-8302
▁assume	-8303
▁reserves	-8304
▁euthanasia	-8305
▁Lo	-8306
▁MA	-8307
▁Radh	-8308
ussein	-8309
▁twice	-8310
▁ourselves	-8311
▁constituting	-8312
asan	-8313
▁Time	-8314
▁wait	-8315
erring	-8316
▁skill	-8317
▁exchan	-8318
▁fairness	-8319
▁everything	-8320
EE	-8321
▁ep	-8322
gers	-8323
iday	-8324
▁Sud	-8325
▁Works	-8326
▁trend	-8327
▁Declar	-8328
▁Vikram	-8329
▁Narayan	-8330
▁earning	-8331
EAL	-8332
oph	-8333
▁NAB	-8334
ITION	-8335
▁Prem	-8336
▁empt	-8337
▁Local	-8338
▁Muslims	-8339
▁accrued	-8340
▁adopting	-8341
▁executing	-8342
▁languages	-8343
▁depreciation	-8344
▁presentation	-8345
▁impermissible	-8346
loc	-8347
comm	-8348
quar	-8349
▁Rem	-8350
▁eve	-8351
▁vic	-8352
▁image	-8353
▁mines	-8354
emption	-8355
▁victory	-8356
▁organised	-8357
▁supervision	-8358
▁UNP	-8359
▁dark	-8360
▁scri	-8361
▁Purch	-8362
▁girls	-8363
▁unequ	-8364
ardship	-8365
uj	-8366
cond	-8367
▁Din	-8368
▁Sever	-8369
▁grown	-8370
▁panch	-8371
▁covers	-8372
▁vulner	-8373
ropriate	-8374
▁remedies	-8375
▁engagement	-8376
▁rej	-8377
▁fatal	-8378
▁maxim	-8379
▁quasi	-8380
▁engage	-8381
▁preserve	-8382
▁elaborate	-8383
▁Securities	-8384
▁Furthermore	-8385
arm	-8386
lal	-8387
ugh	-8388
▁Pow	-8389
▁quo	-8390
attis	-8391
▁Taking	-8392
▁blocks	-8393
▁Freedom	-8394
▁uncertain	-8395
▁Chow	-8396
econom	-8397
▁Korea	-8398
▁inhab	-8399
▁Hussein	-8400
▁Appendix	-8401
▁Amb	-8402
harraf	-8403
▁inputs	-8404
▁unlike	-8405
▁desirable	-8406
▁Bangladesh	-8407
▁delegation	-8408
▁disabilities	-8409
▁Kir	-8410
erent	-8411
▁samples	-8412
▁warning	-8413
▁deliberately	-8414
▁Jee	-8415
▁Van	-8416
▁magn	-8417
▁thor	-8418
▁occupied	-8419
▁programs	-8420
▁Settlement	-8421
▁Lic	-8422
▁Mat	-8423
▁simpl	-8424
▁fiction	-8425
▁pressed	-8426
▁measuring	-8427
▁explosives	-8428
▁stakeholders	-8429
DI	-8430
being	-8431
▁beat	-8432
▁helped	-8433
▁Through	-8434
attisgarh	-8435
▁simultaneously	-8436
ulg	-8437
▁IO	-8438
nsic	-8439
▁Mrs	-8440
▁dim	-8441
iscal	-8442
▁Gold	-8443
▁shel	-8444
▁drink	-8445
▁shops	-8446
▁closure	-8447
▁literal	-8448
▁northern	-8449
▁Musharraf	-8450
▁assertion	-8451
▁enrolment	-8452
▁compensatory	-8453
▁legislations	-8454
ICE	-8455
alle	-8456
onym	-8457
▁sla	-8458
▁ven	-8459
▁Sush	-8460
▁bidd	-8461
ortion	-8462
istries	-8463
▁Commerce	-8464
▁excessive	-8465
▁responded	-8466
▁mov	-8467
▁Test	-8468
▁trou	-8469
▁truck	-8470
▁Establ	-8471
▁Letter	-8472
▁Reasons	-8473
▁mandamus	-8474
▁Meghalaya	-8475
▁illegally	-8476
▁inadequate	-8477
▁CM	-8478
▁accus	-8479
▁Suresh	-8480
▁cement	-8481
▁online	-8482
▁regularly	-8483
▁administer	-8484
▁disqualified	-8485
akk	-8486
▁UID	-8487
▁facto	-8488
▁Several	-8489
▁heavily	-8490
▁hardship	-8491
▁intermed	-8492
▁reconsid	-8493
▁Luc	-8494
▁brid	-8495
▁brand	-8496
▁marry	-8497
Company	-8498
▁interrog	-8499
rical	-8500
▁Viet	-8501
eshwar	-8502
▁climate	-8503
▁sending	-8504
▁discretionary	-8505
cum	-8506
▁Neg	-8507
▁misc	-8508
▁Vigilance	-8509
▁tribunals	-8510
▁relaxation	-8511
▁unilateral	-8512
▁suppression	-8513
▁Subsequently	-8514
▁AR	-8515
▁Gree	-8516
▁mala	-8517
atunga	-8518
engers	-8519
▁forming	-8520
▁contending	-8521
▁vice	-8522
▁homes	-8523
▁convers	-8524
▁falsely	-8525
▁someone	-8526
▁litigant	-8527
▁prisoner	-8528
▁dangerous	-8529
▁commencing	-8530
▁politicians	-8531
▁transmission	-8532
arya	-8533
▁diseases	-8534
▁fixation	-8535
za	-8536
uro	-8537
iban	-8538
inous	-8539
▁hect	-8540
▁Mahat	-8541
▁sugar	-8542
ulative	-8543
▁Mysore	-8544
▁producers	-8545
▁therefrom	-8546
▁Limitation	-8547
▁Declaration	-8548
▁Kumaratunga	-8549
▁differently	-8550
▁administered	-8551
nty	-8552
▁PP	-8553
active	-8554
▁grade	-8555
▁secular	-8556
▁amounting	-8557
▁apparently	-8558
▁implications	-8559
▁Br	-8560
fort	-8561
▁hoc	-8562
▁fled	-8563
▁Model	-8564
▁embod	-8565
ressing	-8566
▁fertil	-8567
▁tested	-8568
▁Kingdom	-8569
▁guidance	-8570
▁abst	-8571
▁blow	-8572
▁talk	-8573
▁manip	-8574
▁experi	-8575
▁commodity	-8576
▁exceptions	-8577
ignty	-8578
▁runs	-8579
▁frust	-8580
▁goals	-8581
▁screen	-8582
▁Judiciary	-8583
▁Sl	-8584
mary	-8585
ijing	-8586
▁tract	-8587
▁backed	-8588
▁ending	-8589
▁launch	-8590
▁Stalinist	-8591
▁grievances	-8592
aped	-8593
▁dry	-8594
arden	-8595
ulled	-8596
urism	-8597
▁pipel	-8598
▁oppose	-8599
▁striking	-8600
▁sanctions	-8601
▁upholding	-8602
wer	-8603
▁Coal	-8604
▁hall	-8605
arding	-8606
▁couple	-8607
▁Vietnam	-8608
▁civilian	-8609
kin	-8610
▁Lep	-8611
▁wood	-8612
▁utter	-8613
▁NABARD	-8614
▁emerge	-8615
▁temper	-8616
economic	-8617
▁Journal	-8618
▁praying	-8619
▁reserve	-8620
▁deficiency	-8621
▁investigations	-8622
▁pp	-8623
▁Cro	-8624
rection	-8625
▁mortem	-8626
▁Deposition	-8627
CP	-8628
▁Ca	-8629
eces	-8630
cript	-8631
▁Instru	-8632
▁primacy	-8633
▁colonial	-8634
▁editorial	-8635
▁Directorate	-8636
▁undertakings	-8637
▁Commissioners	-8638
has	-8639
▁Bad	-8640
archy	-8641
▁Care	-8642
orders	-8643
▁dissolution	-8644
pat	-8645
▁TRA	-8646
stone	-8647
▁rede	-8648
chnama	-8649
▁oppon	-8650
▁Greens	-8651
▁ceased	-8652
▁ongoing	-8653
▁periods	-8654
▁violate	-8655
▁furtherance	-8656
▁arbitrariness	-8657
▁independently	-8658
rage	-8659
▁Open	-8660
ruptcy	-8661
▁revol	-8662
▁Appoint	-8663
▁perfect	-8664
▁species	-8665
▁tourism	-8666
▁alleging	-8667
▁perverse	-8668
▁adversely	-8669
▁compelling	-8670
▁convenience	-8671
▁participating	-8672
IG	-8673
▁Bro	-8674
▁Malay	-8675
▁bonds	-8676
▁harmon	-8677
▁rarest	-8678
▁Beijing	-8679
▁answers	-8680
▁managed	-8681
▁Admitted	-8682
▁Children	-8683
▁assessees	-8684
▁PA	-8685
▁Joseph	-8686
iversary	-8687
▁marriages	-8688
▁specially	-8689
▁disproportion	-8690
vert	-8691
ician	-8692
point	-8693
ensing	-8694
ricket	-8695
▁termed	-8696
▁thrown	-8697
▁Bharati	-8698
▁illness	-8699
▁shifted	-8700
akrishnan	-8701
▁contrast	-8702
tail	-8703
▁lieu	-8704
▁Caste	-8705
▁allows	-8706
▁supers	-8707
▁narrated	-8708
▁prevention	-8709
rier	-8710
ander	-8711
obile	-8712
▁rice	-8713
▁Major	-8714
▁Recomm	-8715
▁infirm	-8716
▁Employment	-8717
▁enforceable	-8718
cont	-8719
▁Nam	-8720
▁Rak	-8721
▁Death	-8722
locutory	-8723
▁drought	-8724
▁whereof	-8725
▁Admittedly	-8726
▁Environmental	-8727
udi	-8728
akar	-8729
eries	-8730
▁NATO	-8731
▁Vehic	-8732
▁enunc	-8733
▁guided	-8734
▁confisc	-8735
▁cutting	-8736
▁tendered	-8737
▁secondary	-8738
anim	-8739
▁Mas	-8740
▁camps	-8741
▁flood	-8742
▁remun	-8743
▁inherit	-8744
▁proving	-8745
▁chairman	-8746
▁overlook	-8747
▁incumbent	-8748
▁solutions	-8749
▁altogether	-8750
▁Examination	-8751
▁sovereignty	-8752
▁internationally	-8753
eda	-8754
ador	-8755
serv	-8756
▁Jal	-8757
▁Tra	-8758
▁Card	-8759
▁drop	-8760
▁flag	-8761
▁Raman	-8762
▁ambig	-8763
▁elder	-8764
▁assignment	-8765
▁questioning	-8766
ugn	-8767
▁id	-8768
▁Han	-8769
▁figh	-8770
▁miss	-8771
▁actor	-8772
▁spons	-8773
▁Repres	-8774
▁column	-8775
▁uphold	-8776
▁Against	-8777
▁Nariman	-8778
▁avoided	-8779
▁reporting	-8780
▁Band	-8781
▁Five	-8782
▁Pent	-8783
▁discovery	-8784
▁expedient	-8785
▁committees	-8786
pass	-8787
▁Bah	-8788
▁Sel	-8789
▁Arch	-8790
▁Pursu	-8791
▁surface	-8792
▁jurisdictional	-8793
TH	-8794
▁Due	-8795
▁Nig	-8796
▁fet	-8797
aling	-8798
▁adap	-8799
▁mine	-8800
▁reproduce	-8801
▁contributed	-8802
▁progressive	-8803
▁Construction	-8804
▁apprehension	-8805
LR	-8806
ipp	-8807
upp	-8808
▁Bet	-8809
ipped	-8810
▁Pate	-8811
▁grad	-8812
▁tune	-8813
▁solid	-8814
▁Sharon	-8815
▁scenes	-8816
▁exceeds	-8817
▁earliest	-8818
coh	-8819
vol	-8820
zen	-8821
▁Ce	-8822
anti	-8823
▁tea	-8824
▁Hand	-8825
▁Wall	-8826
▁Polit	-8827
▁restore	-8828
▁deducted	-8829
▁resorted	-8830
▁comprised	-8831
GR	-8832
opy	-8833
icks	-8834
▁web	-8835
astic	-8836
▁Armed	-8837
▁accum	-8838
▁remem	-8839
▁vague	-8840
▁coupled	-8841
▁delinqu	-8842
▁Promotion	-8843
▁diverse	-8844
▁customer	-8845
▁Professor	-8846
▁impression	-8847
▁enl	-8848
laced	-8849
▁fate	-8850
▁roles	-8851
▁disreg	-8852
▁nominee	-8853
▁renewed	-8854
▁enacting	-8855
▁formulation	-8856
▁supplementary	-8857
dad	-8858
▁prohibit	-8859
▁respects	-8860
▁thorough	-8861
▁contraband	-8862
MA	-8863
room	-8864
ronics	-8865
▁inapp	-8866
▁infer	-8867
▁sixty	-8868
▁pleased	-8869
unication	-8870
▁enormous	-8871
▁generating	-8872
▁Vad	-8873
iques	-8874
▁sand	-8875
▁abund	-8876
▁ballot	-8877
▁Letters	-8878
▁belonged	-8879
▁invested	-8880
▁licences	-8881
▁mandates	-8882
▁peaceful	-8883
▁Corporate	-8884
▁expertise	-8885
▁vehemently	-8886
▁restoration	-8887
ny	-8888
▁BY	-8889
▁La	-8890
rition	-8891
umping	-8892
▁Paras	-8893
▁knows	-8894
▁Online	-8895
lamation	-8896
▁Ir	-8897
inct	-8898
▁fallen	-8899
▁scales	-8900
▁Objects	-8901
▁Ahmedabad	-8902
▁consistently	-8903
▁FO	-8904
▁Like	-8905
▁Supra	-8906
▁widow	-8907
▁intimid	-8908
▁suffers	-8909
▁emphasised	-8910
▁fraudulent	-8911
▁Mos	-8912
▁airc	-8913
▁bars	-8914
▁Staff	-8915
▁overw	-8916
▁treas	-8917
▁Undert	-8918
▁fulfil	-8919
▁meantime	-8920
ilal	-8921
what	-8922
auvin	-8923
▁Bills	-8924
▁score	-8925
▁fiscal	-8926
▁testing	-8927
▁prominent	-8928
▁deliberate	-8929
▁automatically	-8930
iven	-8931
▁prox	-8932
stated	-8933
uments	-8934
▁Recommend	-8935
▁socialism	-8936
▁sovereign	-8937
▁GM	-8938
▁Nic	-8939
house	-8940
icable	-8941
▁quote	-8942
▁treaty	-8943
▁Baghdad	-8944
▁annexed	-8945
▁Pentagon	-8946
▁Pursuant	-8947
▁arriving	-8948
▁marginal	-8949
▁possessed	-8950
▁endorsement	-8951
▁expectation	-8952
▁transparent	-8953
pura	-8954
▁Area	-8955
▁package	-8956
▁apprehend	-8957
VC	-8958
aken	-8959
elam	-8960
iram	-8961
wood	-8962
▁Ele	-8963
▁Vas	-8964
▁Fort	-8965
▁Mish	-8966
▁react	-8967
▁incomp	-8968
▁extends	-8969
▁coverage	-8970
▁refusing	-8971
▁prescribes	-8972
▁reinstatement	-8973
co	-8974
ein	-8975
▁Od	-8976
▁१८	-8977
alog	-8978
iagn	-8979
▁IMF	-8980
▁grants	-8981
▁preval	-8982
▁ceiling	-8983
▁photographs	-8984
DC	-8985
▁Governance	-8986
▁reputation	-8987
▁bureaucracy	-8988
▁Ker	-8989
▁bye	-8990
rence	-8991
▁Liqu	-8992
▁Prad	-8993
▁Friday	-8994
▁decreed	-8995
▁apposite	-8996
▁exempted	-8997
▁Federation	-8998
▁subsidiary	-8999
▁continuation	-9000
uru	-9001
▁symp	-9002
▁relat	-9003
▁tools	-9004
▁Return	-9005
▁chauvin	-9006
▁motorcy	-9007
▁assisted	-9008
▁convenient	-9009
▁affirmative	-9010
▁Chhattisgarh	-9011
DF	-9012
mo	-9013
che	-9014
iat	-9015
thi	-9016
▁wed	-9017
▁Ahmad	-9018
▁Nagpur	-9019
▁stations	-9020
▁impartial	-9021
▁Secretariat	-9022
aked	-9023
life	-9024
▁Fif	-9025
▁Wed	-9026
atious	-9027
▁Grade	-9028
▁Plant	-9029
▁promulg	-9030
▁answering	-9031
▁pronouncement	-9032
EA	-9033
TC	-9034
oda	-9035
▁Bur	-9036
▁ICT	-9037
▁Mor	-9038
▁Hold	-9039
▁unsu	-9040
▁Syria	-9041
▁disse	-9042
▁empty	-9043
▁enshr	-9044
aterial	-9045
ilitary	-9046
▁Rajesh	-9047
▁Senate	-9048
▁Taliban	-9049
▁witnessed	-9050
▁distinguish	-9051
▁NPA	-9052
▁Noida	-9053
▁cryst	-9054
▁Orders	-9055
▁Reports	-9056
▁Internet	-9057
▁paramount	-9058
▁recognize	-9059
▁denomination	-9060
▁corroboration	-9061
▁proportionality	-9062
▁Po	-9063
uriae	-9064
▁plays	-9065
▁reven	-9066
renades	-9067
quarters	-9068
▁waiting	-9069
▁overwhel	-9070
▁southern	-9071
▁charitable	-9072
▁hesitation	-9073
▁terrorists	-9074
eas	-9075
enary	-9076
▁Sure	-9077
▁heat	-9078
▁sort	-9079
▁embra	-9080
▁brutal	-9081
▁unanim	-9082
▁Product	-9083
▁enjoyed	-9084
▁partial	-9085
▁heritage	-9086
▁somewhat	-9087
▁verified	-9088
▁transformation	-9089
ESS	-9090
eced	-9091
iyar	-9092
▁CIA	-9093
▁Need	-9094
▁Berlin	-9095
▁afresh	-9096
iculture	-9097
▁curtail	-9098
▁medicine	-9099
▁Referring	-9100
▁elsewhere	-9101
▁innocence	-9102
▁clarification	-9103
rec	-9104
▁Mich	-9105
making	-9106
▁About	-9107
▁Sunil	-9108
▁Repeal	-9109
▁Tariff	-9110
▁Leprosy	-9111
▁gravity	-9112
▁scholars	-9113
▁ministers	-9114
▁completing	-9115
▁preventing	-9116
▁substances	-9117
▁ascertained	-9118
iency	-9119
▁Wakf	-9120
▁Jacob	-9121
▁usage	-9122
▁Boards	-9123
▁Wednes	-9124
▁absent	-9125
regation	-9126
▁peoples	-9127
bursement	-9128
▁Accounts	-9129
compliance	-9130
▁Guidelines	-9131
▁jur	-9132
▁adding	-9133
▁pieces	-9134
▁affects	-9135
▁unknown	-9136
CS	-9137
we	-9138
ruct	-9139
want	-9140
CTION	-9141
▁cold	-9142
▁Micro	-9143
▁demol	-9144
entions	-9145
▁deleted	-9146
▁Register	-9147
▁complained	-9148
▁entitlement	-9149
▁politically	-9150
END	-9151
bir	-9152
iries	-9153
▁bore	-9154
▁Expert	-9155
▁consec	-9156
▁availed	-9157
▁entirety	-9158
▁LA	-9159
▁DDA	-9160
eswar	-9161
▁voted	-9162
▁Shaikh	-9163
▁revers	-9164
▁slight	-9165
▁Finally	-9166
▁Mahatma	-9167
▁anteced	-9168
▁utilised	-9169
▁architect	-9170
▁assurance	-9171
▁Revolution	-9172
▁excellence	-9173
idden	-9174
arshan	-9175
▁Never	-9176
▁Patel	-9177
▁indef	-9178
▁occur	-9179
▁caught	-9180
▁pursued	-9181
▁comparison	-9182
▁correspond	-9183
▁cultivation	-9184
▁stipulation	-9185
▁expeditiously	-9186
ued	-9187
▁du	-9188
▁PET	-9189
▁Ambed	-9190
▁Global	-9191
▁invoke	-9192
▁transl	-9193
▁journey	-9194
▁machine	-9195
▁Advisory	-9196
▁participants	-9197
HO	-9198
▁1	-9199
dam	-9200
▁ER	-9201
▁Um	-9202
▁Mut	-9203
enger	-9204
▁assent	-9205
▁cotton	-9206
▁clarify	-9207
▁reflects	-9208
▁confusion	-9209
PP	-9210
ids	-9211
lav	-9212
▁Id	-9213
▁Und	-9214
▁Black	-9215
▁bears	-9216
▁knife	-9217
▁unders	-9218
▁playing	-9219
▁verdict	-9220
▁Alliance	-9221
▁Ambedkar	-9222
rim	-9223
▁Ku	-9224
▁COUR	-9225
▁Scale	-9226
▁alias	-9227
itative	-9228
▁Number	-9229
▁stress	-9230
▁extingu	-9231
▁guardian	-9232
▁commanded	-9233
▁exhaustive	-9234
▁innovative	-9235
▁references	-9236
▁cooperative	-9237
▁prejudicial	-9238
▁rat	-9239
▁Adjud	-9240
ATIONAL	-9241
raction	-9242
▁strang	-9243
judicial	-9244
ographic	-9245
uff	-9246
zing	-9247
▁Fee	-9248
oppel	-9249
▁MBBS	-9250
ridges	-9251
▁Surya	-9252
▁device	-9253
▁Resident	-9254
▁wrongful	-9255
▁assaulted	-9256
▁combination	-9257
▁modifications	-9258
asa	-9259
nity	-9260
▁Sav	-9261
▁apt	-9262
▁syn	-9263
▁tom	-9264
▁wild	-9265
▁bombs	-9266
▁chose	-9267
▁Father	-9268
▁conced	-9269
▁define	-9270
▁carries	-9271
▁smaller	-9272
▁acquiring	-9273
▁contested	-9274
▁dedicated	-9275
▁initiation	-9276
▁adjudicating	-9277
Ms	-9278
▁Ken	-9279
▁rif	-9280
▁slow	-9281
▁links	-9282
▁thres	-9283
▁Thakur	-9284
▁prompt	-9285
ableness	-9286
▁premise	-9287
▁Contempt	-9288
▁tendency	-9289
▁canvassed	-9290
▁pregnancy	-9291
SP	-9292
ota	-9293
▁Later	-9294
▁decis	-9295
▁subsidy	-9296
▁violent	-9297
▁Juvenile	-9298
▁pointing	-9299
▁inevitable	-9300
▁communications	-9301
▁grass	-9302
▁Chaudh	-9303
▁repugn	-9304
▁Lucknow	-9305
▁Monitor	-9306
▁defense	-9307
▁levelled	-9308
▁stressed	-9309
▁newspapers	-9310
Is	-9311
ref	-9312
heet	-9313
onal	-9314
raid	-9315
▁alcoh	-9316
▁lived	-9317
▁weigh	-9318
▁Manual	-9319
▁format	-9320
▁tribal	-9321
▁broadly	-9322
▁funding	-9323
▁incrimin	-9324
▁Arunachal	-9325
▁Infrastructure	-9326
AND	-9327
hesh	-9328
▁GDP	-9329
iders	-9330
▁Mach	-9331
▁usual	-9332
▁enabled	-9333
▁Singapore	-9334
▁definitely	-9335
ARY	-9336
ashed	-9337
▁Back	-9338
▁Mart	-9339
▁hurt	-9340
▁kidna	-9341
arriage	-9342
▁taxing	-9343
▁Original	-9344
▁managing	-9345
▁thinking	-9346
▁ceasefire	-9347
▁accounting	-9348
▁friendship	-9349
▁contemplates	-9350
PTER	-9351
wali	-9352
▁Gas	-9353
inces	-9354
▁Eelam	-9355
▁actors	-9356
▁receipts	-9357
▁requesting	-9358
aria	-9359
odal	-9360
rent	-9361
▁None	-9362
▁Prab	-9363
▁plus	-9364
advant	-9365
matter	-9366
▁detain	-9367
▁Indians	-9368
▁rapidly	-9369
▁expanded	-9370
▁sacrifice	-9371
▁spokesman	-9372
▁literature	-9373
aints	-9374
▁meat	-9375
▁push	-9376
▁unex	-9377
ranged	-9378
▁APPEAL	-9379
▁Indira	-9380
▁silent	-9381
▁stones	-9382
▁Clinton	-9383
▁Lebanon	-9384
▁subsidies	-9385
▁suspended	-9386
▁accountability	-9387
mpt	-9388
▁hat	-9389
▁Jord	-9390
▁inad	-9391
▁Nepal	-9392
▁disag	-9393
▁resid	-9394
▁occurs	-9395
▁entitle	-9396
▁quickly	-9397
▁conveyed	-9398
▁pertains	-9399
▁secondly	-9400
▁repayment	-9401
▁encouraged	-9402
pus	-9403
▁ax	-9404
omon	-9405
▁fish	-9406
▁Pract	-9407
▁truly	-9408
▁devast	-9409
ervative	-9410
▁improved	-9411
▁violates	-9412
▁composite	-9413
▁interfering	-9414
▁Organisation	-9415
▁DAY	-9416
▁thr	-9417
apped	-9418
itably	-9419
▁write	-9420
▁varied	-9421
▁Manipur	-9422
▁restruct	-9423
▁enshrined	-9424
▁movements	-9425
▁Fundamental	-9426
ooth	-9427
▁Guarant	-9428
▁Iranian	-9429
▁ensured	-9430
▁firstly	-9431
▁mandated	-9432
▁utilized	-9433
▁tradition	-9434
UK	-9435
ica	-9436
▁mig	-9437
▁sad	-9438
night	-9439
raham	-9440
▁wors	-9441
atories	-9442
▁Partic	-9443
▁Safety	-9444
▁Natural	-9445
▁Working	-9446
▁priests	-9447
▁streets	-9448
▁operates	-9449
▁enhancing	-9450
▁financing	-9451
▁guarantees	-9452
▁announcement	-9453
▁technological	-9454
IST	-9455
▁allies	-9456
▁tonnes	-9457
▁Banking	-9458
▁Discipl	-9459
▁denying	-9460
▁inhabit	-9461
▁legitim	-9462
▁postpon	-9463
▁propose	-9464
▁province	-9465
▁straight	-9466
▁infirmity	-9467
▁adjustment	-9468
bon	-9469
▁Dw	-9470
▁RO	-9471
ishe	-9472
mosp	-9473
hered	-9474
▁hire	-9475
▁nurs	-9476
▁CHAPTER	-9477
▁Chemical	-9478
▁remanded	-9479
▁integration	-9480
Rs	-9481
rary	-9482
wala	-9483
▁ACT	-9484
▁gang	-9485
ivided	-9486
▁parity	-9487
▁summit	-9488
ventions	-9489
▁commented	-9490
▁practitioner	-9491
▁Sil	-9492
arity	-9493
isher	-9494
▁crow	-9495
▁dies	-9496
▁jeep	-9497
▁sample	-9498
▁eastern	-9499
▁disadvant	-9500
ux	-9501
EST	-9502
alia	-9503
▁hyd	-9504
▁pad	-9505
agers	-9506
▁radio	-9507
▁reass	-9508
▁sites	-9509
▁merger	-9510
▁convert	-9511
▁options	-9512
▁enunciated	-9513
▁arbitrators	-9514
▁suo	-9515
ludes	-9516
▁Raju	-9517
▁flex	-9518
▁rock	-9519
▁Total	-9520
▁lists	-9521
▁sleep	-9522
▁Jordan	-9523
▁Mishra	-9524
▁famous	-9525
▁matrix	-9526
▁sphere	-9527
▁consumed	-9528
▁surcharge	-9529
▁vexatious	-9530
▁Ak	-9531
amed	-9532
ford	-9533
ords	-9534
▁Str	-9535
ccess	-9536
▁Hari	-9537
▁afraid	-9538
▁allied	-9539
▁trials	-9540
▁actively	-9541
▁remuneration	-9542
hew	-9543
ura	-9544
inth	-9545
▁Saw	-9546
▁blank	-9547
▁cycle	-9548
▁openly	-9549
▁Benches	-9550
▁pretext	-9551
▁prolong	-9552
▁negligent	-9553
▁discovered	-9554
We	-9555
gel	-9556
pay	-9557
olve	-9558
▁ITR	-9559
▁Mills	-9560
▁flats	-9561
▁confine	-9562
▁profile	-9563
▁Innovation	-9564
▁delinquent	-9565
▁influenced	-9566
▁investigated	-9567
▁PAN	-9568
▁Spec	-9569
▁advis	-9570
▁stead	-9571
▁atmosp	-9572
▁consign	-9573
▁opinions	-9574
▁righteous	-9575
▁functionaries	-9576
oist	-9577
▁Ren	-9578
inced	-9579
▁Know	-9580
▁degrees	-9581
sett	-9582
owned	-9583
▁tree	-9584
igious	-9585
▁Centres	-9586
▁promoter	-9587
▁salaries	-9588
cellaneous	-9589
▁condemned	-9590
▁predecessor	-9591
▁manufacturers	-9592
oi	-9593
atar	-9594
abhai	-9595
indra	-9596
▁UIDAI	-9597
▁glory	-9598
▁guide	-9599
▁signs	-9600
▁tribe	-9601
▁misuse	-9602
▁PETITION	-9603
▁constant	-9604
▁Legislatures	-9605
haz	-9606
▁Integ	-9607
▁Point	-9608
▁battle	-9609
▁betray	-9610
▁spouse	-9611
▁dropped	-9612
▁harmony	-9613
▁incentives	-9614
▁prosecuted	-9615
ilst	-9616
load	-9617
▁Free	-9618
▁coin	-9619
▁forb	-9620
iability	-9621
▁charging	-9622
▁credited	-9623
▁dividend	-9624
▁publicly	-9625
▁conflicts	-9626
▁vulnerable	-9627
▁attributable	-9628
▁maintainability	-9629
uck	-9630
▁NGT	-9631
▁toler	-9632
▁broader	-9633
▁supports	-9634
▁locations	-9635
▁commodities	-9636
▁irregularity	-9637
ocon	-9638
oman	-9639
▁Use	-9640
▁Cell	-9641
▁chest	-9642
▁dynam	-9643
▁facet	-9644
▁Bachan	-9645
▁Mittal	-9646
▁intend	-9647
▁Edition	-9648
▁picture	-9649
▁procure	-9650
▁turning	-9651
▁Provisions	-9652
dem	-9653
ukh	-9654
▁Lad	-9655
▁Lax	-9656
ammad	-9657
▁clin	-9658
▁handic	-9659
ciliation	-9660
▁discount	-9661
▁satisfactory	-9662
alaq	-9663
igen	-9664
urai	-9665
worthy	-9666
▁forty	-9667
▁militar	-9668
▁precisely	-9669
▁prospects	-9670
▁diplomatic	-9671
IP	-9672
▁Raja	-9673
▁Shak	-9674
▁faces	-9675
osition	-9676
▁Deemed	-9677
▁pistol	-9678
▁African	-9679
▁Greater	-9680
▁artific	-9681
▁respond	-9682
▁exercises	-9683
▁amalgamation	-9684
▁reconsideration	-9685
bh	-9686
▁PPA	-9687
▁mos	-9688
rative	-9689
▁Citiz	-9690
▁intends	-9691
▁advances	-9692
▁factories	-9693
▁absorption	-9694
▁declarations	-9695
atab	-9696
disc	-9697
▁Shyam	-9698
ailable	-9699
entures	-9700
▁fruits	-9701
▁Firstly	-9702
▁chapter	-9703
▁accompany	-9704
▁motorcycle	-9705
▁passengers	-9706
▁Pud	-9707
scale	-9708
▁Farm	-9709
▁glob	-9710
▁sear	-9711
illary	-9712
▁Level	-9713
▁repud	-9714
▁sheets	-9715
▁happens	-9716
▁radical	-9717
FA	-9718
HR	-9719
▁IIT	-9720
velling	-9721
▁begins	-9722
▁appealed	-9723
▁overseas	-9724
▁Liberation	-9725
▁meaningful	-9726
▁continuance	-9727
▁reactionary	-9728
▁Palestinians	-9729
▁overwhelming	-9730
▁unsustainable	-9731
wara	-9732
▁Ragh	-9733
▁Stock	-9734
▁split	-9735
▁combat	-9736
▁Consolid	-9737
▁succeeded	-9738
▁alteration	-9739
▁attempting	-9740
▁techniques	-9741
▁liquidation	-9742
▁ft	-9743
▁Tre	-9744
orate	-9745
owing	-9746
▁slum	-9747
isputed	-9748
▁Mohmed	-9749
▁Payment	-9750
▁expense	-9751
▁defeated	-9752
▁penalties	-9753
▁philosophy	-9754
▁submitting	-9755
▁Commissions	-9756
vo	-9757
agan	-9758
▁Ved	-9759
rafts	-9760
▁Kann	-9761
▁Mull	-9762
▁forg	-9763
iments	-9764
▁devot	-9765
▁Whereas	-9766
▁estoppel	-9767
▁enjoyment	-9768
▁personality	-9769
▁interlocutory	-9770
▁pronouncements	-9771
ayed	-9772
itime	-9773
▁Bala	-9774
▁feas	-9775
▁width	-9776
▁assemb	-9777
▁meters	-9778
▁volume	-9779
▁deserve	-9780
▁grievous	-9781
▁abandoned	-9782
▁envisages	-9783
▁contradiction	-9784
▁characteristics	-9785
MT	-9786
UST	-9787
osex	-9788
▁Yog	-9789
ograp	-9790
ulsion	-9791
▁Clear	-9792
▁boost	-9793
▁trigg	-9794
▁Subram	-9795
▁condol	-9796
▁fellow	-9797
▁staying	-9798
▁hostility	-9799
▁discrepancies	-9800
----------------	-9801
eli	-9802
imb	-9803
▁Bhat	-9804
▁lacs	-9805
ocking	-9806
▁Tamils	-9807
▁assass	-9808
▁skilled	-9809
▁appended	-9810
▁introduce	-9811
▁threshold	-9812
▁Ministries	-9813
▁Monitoring	-9814
▁remembered	-9815
▁retrospect	-9816
▁chargesheet	-9817
▁strengthened	-9818
jun	-9819
irds	-9820
▁risks	-9821
▁Certain	-9822
▁forests	-9823
▁deterior	-9824
▁proclaim	-9825
▁Petroleum	-9826
▁successor	-9827
▁landowners	-9828
▁Prohibition	-9829
▁acknowledge	-9830
▁aspirations	-9831
exam	-9832
ohar	-9833
osis	-9834
outs	-9835
▁Mil	-9836
▁load	-9837
▁skin	-9838
utical	-9839
▁Juris	-9840
▁flesh	-9841
▁store	-9842
▁towns	-9843
▁notion	-9844
▁Majesty	-9845
▁prayers	-9846
▁Wednesday	-9847
▁significantly	-9848
▁PL	-9849
▁Rad	-9850
▁lis	-9851
▁Arms	-9852
idency	-9853
▁Buddh	-9854
▁Prior	-9855
▁nearby	-9856
▁vendor	-9857
▁Relying	-9858
▁survive	-9859
▁Registry	-9860
▁greatest	-9861
▁suggests	-9862
▁departure	-9863
▁inability	-9864
▁functional	-9865
ITY	-9866
▁TN	-9867
▁pm	-9868
azar	-9869
▁Rich	-9870
▁bone	-9871
▁insu	-9872
▁Given	-9873
▁rests	-9874
▁serial	-9875
▁actress	-9876
▁imports	-9877
▁aircraft	-9878
▁analysed	-9879
▁dominant	-9880
▁freedoms	-9881
▁thereupon	-9882
▁attachment	-9883
organisation	-9884
▁concurrence	-9885
▁generations	-9886
khar	-9887
▁Take	-9888
▁phen	-9889
akhand	-9890
▁Lease	-9891
▁Royal	-9892
▁adhere	-9893
▁Preamble	-9894
▁atmosphere	-9895
▁inequality	-9896
▁restraining	-9897
▁Organization	-9898
▁Proc	-9899
volous	-9900
▁bitter	-9901
▁deficit	-9902
▁spectrum	-9903
▁tomorrow	-9904
▁intimation	-9905
▁introducing	-9906
▁governmental	-9907
Bs	-9908
▁Const	-9909
▁Export	-9910
▁urgent	-9911
▁doubtful	-9912
▁pursuing	-9913
▁publicity	-9914
▁deductions	-9915
uct	-9916
omas	-9917
essed	-9918
inite	-9919
▁Tehs	-9920
uesday	-9921
▁Ajith	-9922
▁Various	-9923
▁aggression	-9924
ainted	-9925
stante	-9926
▁Medic	-9927
▁Satur	-9928
▁Turkey	-9929
▁forged	-9930
▁Tuesday	-9931
▁vesting	-9932
▁frivolous	-9933
▁attendance	-9934
▁Uttarakhand	-9935
▁Nay	-9936
urbed	-9937
▁Saul	-9938
▁seal	-9939
▁urge	-9940
▁logic	-9941
▁phase	-9942
▁backing	-9943
▁increases	-9944
▁conservation	-9945
UG	-9946
▁IF	-9947
▁Cau	-9948
▁haz	-9949
belie	-9950
▁Mang	-9951
▁intra	-9952
▁Rakesh	-9953
▁gained	-9954
▁ignore	-9955
aturally	-9956
▁airport	-9957
▁inviting	-9958
▁offending	-9959
▁continuously	-9960
▁facilitating	-9961
▁sn	-9962
eded	-9963
▁Book	-9964
▁pill	-9965
▁Analy	-9966
▁helps	-9967
▁index	-9968
▁lifted	-9969
▁formally	-9970
▁returning	-9971
▁miscarriage	-9972
▁Establishment	-9973
TO	-9974
▁exposed	-9975
▁routine	-9976
▁implicated	-9977
▁scientists	-9978
▁violations	-9979
▁Compensation	-9980
cel	-9981
omy	-9982
▁org	-9983
cking	-9984
▁Nand	-9985
illance	-9986
viously	-9987
▁serves	-9988
graduate	-9989
▁adjourn	-9990
▁onwards	-9991
▁Saturday	-9992
▁concepts	-9993
ographical	-9994
▁unauthorized	-9995
ille	-9996
roud	-9997
▁Abh	-9998
▁Jaw	-9999
▁factum	-10000
▁reviewed	-10001
▁projected	-10002
▁prosecute	-10003
▁interesting	-10004
▁vo	-10005
▁Mult	-10006
▁Tour	-10007
▁parte	-10008
assador	-10009
▁ethnic	-10010
▁raises	-10011
▁Proceed	-10012
▁earnest	-10013
▁utility	-10014
▁vessels	-10015
▁disappro	-10016
▁hectares	-10017
▁Adjudicating	-10018
▁restructuring	-10019
rup	-10020
▁Bai	-10021
▁blue	-10022
▁bulk	-10023
▁cler	-10024
▁manager	-10025
▁Personnel	-10026
▁ammunition	-10027
▁concluding	-10028
▁multiplier	-10029
IM	-10030
▁Dan	-10031
▁Ill	-10032
▁via	-10033
ctive	-10034
▁Cost	-10035
▁xxxx	-10036
▁fract	-10037
▁Hindus	-10038
▁bodily	-10039
veillance	-10040
▁Marketing	-10041
▁conditional	-10042
▁confessions	-10043
▁xi	-10044
asse	-10045
▁Sus	-10046
▁rub	-10047
▁Drug	-10048
▁Mill	-10049
▁eman	-10050
▁diagn	-10051
▁fifth	-10052
▁Liquid	-10053
▁Odisha	-10054
▁errors	-10055
▁abolition	-10056
▁prohibits	-10057
▁Corruption	-10058
▁Dictionary	-10059
▁escalation	-10060
▁representations	-10061
▁flo	-10062
ambig	-10063
▁reim	-10064
▁Rather	-10065
▁upgrad	-10066
▁predomin	-10067
▁Statutory	-10068
oul	-10069
▁Ke	-10070
▁Va	-10071
▁Pla	-10072
▁RTI	-10073
aired	-10074
eding	-10075
▁Supply	-10076
▁encumb	-10077
▁layers	-10078
▁thrust	-10079
▁humanity	-10080
▁murdered	-10081
▁attending	-10082
▁establishes	-10083
▁nationalist	-10084
▁willingness	-10085
ola	-10086
▁NH	-10087
ighed	-10088
ivable	-10089
ortium	-10090
▁enrich	-10091
▁heinous	-10092
▁joining	-10093
▁unambig	-10094
▁Justices	-10095
▁adultery	-10096
▁successive	-10097
▁journalists	-10098
itt	-10099
yer	-10100
mace	-10101
▁Rah	-10102
▁Gaza	-10103
▁Marx	-10104
▁Lords	-10105
▁cattle	-10106
▁intest	-10107
▁persist	-10108
▁adjusted	-10109
▁refugees	-10110
▁incapable	-10111
▁rationale	-10112
▁deputation	-10113
▁healthcare	-10114
ajan	-10115
▁Max	-10116
▁Set	-10117
below	-10118
▁Gulf	-10119
▁cant	-10120
▁sums	-10121
▁Prabh	-10122
▁Kishan	-10123
▁Unless	-10124
▁defaul	-10125
▁apparat	-10126
▁logical	-10127
▁arranged	-10128
▁dialogue	-10129
▁overruled	-10130
▁associations	-10131
oyal	-10132
▁Yes	-10133
▁bias	-10134
▁Spain	-10135
▁altar	-10136
▁relie	-10137
▁Coming	-10138
▁Market	-10139
▁closer	-10140
▁surely	-10141
▁savings	-10142
▁younger	-10143
▁Resource	-10144
▁immunity	-10145
▁recruits	-10146
▁removing	-10147
▁contradict	-10148
▁adjudicated	-10149
zz	-10150
▁JJ	-10151
▁Shi	-10152
▁Body	-10153
▁Item	-10154
▁impe	-10155
▁tact	-10156
orious	-10157
▁degrad	-10158
▁comprises	-10159
▁exchanges	-10160
▁prescribing	-10161
▁substantiate	-10162
ENCE	-10163
▁MES	-10164
▁cub	-10165
▁Autom	-10166
▁Cause	-10167
▁Vikas	-10168
▁scoot	-10169
▁solar	-10170
▁style	-10171
▁passes	-10172
▁implies	-10173
▁overcome	-10174
▁hereafter	-10175
▁Presidential	-10176
▁appreciating	-10177
▁Men	-10178
▁hal	-10179
▁dram	-10180
▁hair	-10181
▁tool	-10182
▁poison	-10183
▁footing	-10184
▁drinking	-10185
▁squarely	-10186
▁summoning	-10187
▁relatively	-10188
▁deprivation	-10189
▁erroneously	-10190
afi	-10191
rab	-10192
isal	-10193
thal	-10194
▁Gar	-10195
▁ast	-10196
itate	-10197
▁Camp	-10198
▁Late	-10199
▁attain	-10200
▁uncond	-10201
▁Cauvery	-10202
▁Parties	-10203
▁Solomon	-10204
▁pipeline	-10205
▁convinced	-10206
▁reiterate	-10207
▁physically	-10208
▁incriminating	-10209
SSP	-10210
▁HS	-10211
dish	-10212
isan	-10213
▁Aar	-10214
▁CPI	-10215
▁Cult	-10216
▁Text	-10217
▁orna	-10218
▁phar	-10219
accept	-10220
erting	-10221
▁cards	-10222
▁track	-10223
▁modify	-10224
▁briefly	-10225
▁counted	-10226
▁emerges	-10227
▁undersc	-10228
▁fertiliz	-10229
▁explosion	-10230
▁impleaded	-10231
▁prevalent	-10232
VER	-10233
macy	-10234
▁File	-10235
▁onus	-10236
▁Broad	-10237
▁MESSA	-10238
▁print	-10239
▁songs	-10240
▁fought	-10241
▁versus	-10242
▁cleared	-10243
▁perceived	-10244
▁weightage	-10245
▁forfeiture	-10246
▁overriding	-10247
▁precedents	-10248
▁hereinbelow	-10249
lo	-10250
oes	-10251
oja	-10252
UMAR	-10253
▁LCR	-10254
▁Move	-10255
▁Vive	-10256
▁west	-10257
awalli	-10258
cation	-10259
utiful	-10260
▁unpre	-10261
▁Charge	-10262
▁analog	-10263
▁condon	-10264
▁ceremony	-10265
▁disposing	-10266
▁struggles	-10267
▁collecting	-10268
▁obligatory	-10269
▁congregation	-10270
▁AG	-10271
▁NT	-10272
▁Mir	-10273
▁sat	-10274
▁Guru	-10275
ugopal	-10276
▁Draft	-10277
▁Griev	-10278
▁timely	-10279
▁MESSAGE	-10280
▁contemn	-10281
▁courage	-10282
▁decides	-10283
▁targets	-10284
▁operated	-10285
▁Defendants	-10286
▁biological	-10287
▁compassionate	-10288
cher	-10289
ilee	-10290
ouch	-10291
▁Jaff	-10292
▁pool	-10293
▁wholes	-10294
▁pregnant	-10295
▁sequence	-10296
▁Guarantee	-10297
▁inhabitants	-10298
DT	-10299
MIN	-10300
▁CF	-10301
anta	-10302
kers	-10303
acific	-10304
▁owing	-10305
▁Relief	-10306
▁breath	-10307
▁estimate	-10308
▁retention	-10309
mist	-10310
riers	-10311
▁News	-10312
▁Requ	-10313
▁bids	-10314
▁KUMAR	-10315
▁favor	-10316
▁leased	-10317
▁confronted	-10318
▁controlling	-10319
HT	-10320
AYS	-10321
▁jew	-10322
▁emot	-10323
▁Cases	-10324
▁audio	-10325
writing	-10326
▁Saddam	-10327
▁Statute	-10328
▁replied	-10329
▁allottee	-10330
▁Standards	-10331
▁undivided	-10332
RS	-10333
▁MT	-10334
▁WIT	-10335
▁Kaly	-10336
▁Grant	-10337
▁coerc	-10338
▁Action	-10339
▁instal	-10340
▁burning	-10341
▁focused	-10342
▁imposes	-10343
▁indigen	-10344
▁efficacy	-10345
▁probably	-10346
▁Subordinate	-10347
ede	-10348
▁UA	-10349
▁Jeh	-10350
▁Sang	-10351
▁Appro	-10352
▁Within	-10353
▁Standard	-10354
▁preventive	-10355
▁FA	-10356
emen	-10357
▁ine	-10358
▁TRAI	-10359
▁dism	-10360
▁viii	-10361
▁walk	-10362
▁wing	-10363
▁Rajiv	-10364
▁shape	-10365
▁Thomas	-10366
▁absurd	-10367
▁firing	-10368
▁Whoever	-10369
▁foremost	-10370
maceutical	-10371
▁relatable	-10372
▁variation	-10373
▁encouraging	-10374
iel	-10375
▁DE	-10376
▁Vi	-10377
▁Lev	-10378
▁anx	-10379
asted	-10380
ilder	-10381
▁Jail	-10382
▁cheap	-10383
▁layer	-10384
▁Tigers	-10385
▁festival	-10386
▁cartridges	-10387
▁plantation	-10388
▁antecedents	-10389
▁unauthorised	-10390
▁RA	-10391
▁Daw	-10392
▁bra	-10393
▁ped	-10394
inity	-10395
oting	-10396
ridge	-10397
▁Amar	-10398
▁Math	-10399
▁ideal	-10400
▁recru	-10401
▁bombing	-10402
▁circles	-10403
▁lodging	-10404
▁Pollution	-10405
▁discontin	-10406
▁elaborately	-10407
▁utilization	-10408
▁Nevertheless	-10409
▁ww	-10410
▁Edn	-10411
▁Kad	-10412
▁www	-10413
kumar	-10414
ulous	-10415
enting	-10416
▁Peter	-10417
▁Vivek	-10418
▁detri	-10419
▁stance	-10420
▁obscene	-10421
▁fighters	-10422
▁directive	-10423
▁expressing	-10424
urers	-10425
▁VIII	-10426
▁wars	-10427
▁Basic	-10428
▁habit	-10429
▁Tamiln	-10430
▁bidder	-10431
▁desper	-10432
▁parade	-10433
▁inquest	-10434
▁implicit	-10435
▁profound	-10436
▁promises	-10437
▁Implement	-10438
▁untenable	-10439
▁businesses	-10440
▁Institution	-10441
▁concurrently	-10442
▁Bye	-10443
▁tub	-10444
▁Babu	-10445
▁breed	-10446
▁looks	-10447
▁rebut	-10448
▁resum	-10449
▁suppl	-10450
▁worst	-10451
▁threatening	-10452
five	-10453
▁Hal	-10454
▁neo	-10455
▁Sidd	-10456
▁Kerry	-10457
▁rivers	-10458
▁damaged	-10459
▁reverse	-10460
▁diversity	-10461
▁inheritance	-10462
▁suitability	-10463
▁Ox	-10464
▁Ess	-10465
opard	-10466
▁Norm	-10467
▁wakf	-10468
▁advise	-10469
▁utmost	-10470
▁abscond	-10471
▁socially	-10472
orporation	-10473
▁Venugopal	-10474
▁partially	-10475
▁villagers	-10476
▁addressing	-10477
▁adjudicate	-10478
▁beneficiary	-10479
▁calculation	-10480
▁Distribution	-10481
VI	-10482
inda	-10483
▁EVE	-10484
▁joy	-10485
▁Vict	-10486
▁seeds	-10487
▁Amount	-10488
▁audience	-10489
▁covenant	-10490
▁disabled	-10491
▁generate	-10492
▁mutually	-10493
▁pleading	-10494
▁apparatus	-10495
▁developer	-10496
▁purchasers	-10497
bl	-10498
ALL	-10499
oram	-10500
▁Beg	-10501
▁Till	-10502
▁semi	-10503
rators	-10504
▁argue	-10505
▁depth	-10506
▁micro	-10507
erating	-10508
▁coordin	-10509
▁enemies	-10510
▁separat	-10511
▁transit	-10512
▁weighed	-10513
▁welcome	-10514
▁Projects	-10515
▁Political	-10516
▁confirming	-10517
▁inevitably	-10518
▁redemption	-10519
▁repression	-10520
▁contemporary	-10521
▁examinations	-10522
ims	-10523
▁ts	-10524
eren	-10525
onds	-10526
oure	-10527
▁Som	-10528
uated	-10529
▁forc	-10530
ucherry	-10531
▁Jaffna	-10532
▁repair	-10533
▁Chamber	-10534
▁Deposit	-10535
▁Japanese	-10536
▁believes	-10537
▁endorsed	-10538
▁mischief	-10539
▁retrench	-10540
▁summoned	-10541
▁Directive	-10542
▁insertion	-10543
▁artificial	-10544
▁Disciplinary	-10545
URE	-10546
▁WP	-10547
▁MLA	-10548
arwal	-10549
▁rose	-10550
▁beings	-10551
▁insurg	-10552
▁reward	-10553
▁Forests	-10554
▁cabinet	-10555
▁Interpre	-10556
▁enrolled	-10557
▁Malayalam	-10558
▁dishonest	-10559
▁petroleum	-10560
▁premature	-10561
▁construing	-10562
▁prosecutor	-10563
▁lady	-10564
ilation	-10565
▁Support	-10566
▁drivers	-10567
▁theatre	-10568
▁Conditions	-10569
▁Puducherry	-10570
▁magistrate	-10571
▁preservation	-10572
२०	-10573
beh	-10574
▁UP	-10575
umin	-10576
▁upd	-10577
▁vag	-10578
dhury	-10579
ights	-10580
▁amen	-10581
▁Calif	-10582
▁worthy	-10583
▁litigants	-10584
▁prescription	-10585
ylon	-10586
▁vir	-10587
▁inse	-10588
▁roof	-10589
opular	-10590
▁Short	-10591
▁aided	-10592
▁paddy	-10593
▁worse	-10594
iration	-10595
▁facets	-10596
▁tribes	-10597
▁Command	-10598
▁Network	-10599
▁declares	-10600
▁Tamilnadu	-10601
▁transfers	-10602
▁Concurrent	-10603
▁Recruitment	-10604
▁instruction	-10605
▁Om	-10606
▁Sea	-10607
▁map	-10608
▁Sukh	-10609
▁fake	-10610
▁fold	-10611
▁tens	-10612
akumar	-10613
▁Hearing	-10614
▁legislate	-10615
▁registering	-10616
▁Gaj	-10617
▁Reh	-10618
▁Ult	-10619
▁Main	-10620
▁hill	-10621
▁wake	-10622
▁Madan	-10623
▁derog	-10624
▁Dinesh	-10625
▁Region	-10626
▁Academy	-10627
▁alcohol	-10628
▁Rajendra	-10629
▁unnatural	-10630
▁boundaries	-10631
▁transferring	-10632
di	-10633
iks	-10634
aught	-10635
gments	-10636
▁Chart	-10637
istence	-10638
▁invite	-10639
▁digital	-10640
▁Movement	-10641
▁trustees	-10642
▁Resources	-10643
▁beautiful	-10644
Ind	-10645
▁Os	-10646
▁Sk	-10647
▁AOR	-10648
▁unb	-10649
tical	-10650
▁Jyot	-10651
▁Team	-10652
▁fans	-10653
erving	-10654
▁proud	-10655
▁wicked	-10656
▁quarrel	-10657
▁Californ	-10658
▁magazine	-10659
▁happiness	-10660
▁Insolvency	-10661
▁prospecting	-10662
▁legislatures	-10663
aeda	-10664
▁CJI	-10665
▁JUD	-10666
▁SPE	-10667
▁era	-10668
▁Cler	-10669
▁trem	-10670
▁tres	-10671
rating	-10672
▁drast	-10673
▁Howard	-10674
▁behest	-10675
▁bottom	-10676
▁noting	-10677
▁unconsc	-10678
▁processed	-10679
▁expiration	-10680
▁conservative	-10681
▁surveillance	-10682
ALCO	-10683
▁Cad	-10684
▁Had	-10685
▁brain	-10686
▁blasts	-10687
▁tempor	-10688
▁Express	-10689
▁Singhvi	-10690
▁trustee	-10691
▁winning	-10692
▁inferior	-10693
▁intimate	-10694
government	-10695
▁ambiguity	-10696
▁discussing	-10697
▁constituent	-10698
▁consciousness	-10699
▁correspondence	-10700
▁Tim	-10701
wealth	-10702
▁Sathy	-10703
▁debar	-10704
▁embar	-10705
▁averred	-10706
▁credible	-10707
▁grenades	-10708
▁passenger	-10709
NG	-10710
▁IG	-10711
nage	-10712
▁Bol	-10713
arest	-10714
▁Film	-10715
▁Hist	-10716
▁wave	-10717
ananda	-10718
legium	-10719
▁Price	-10720
▁ignor	-10721
▁corpus	-10722
▁lowest	-10723
▁sports	-10724
cedented	-10725
▁exactly	-10726
▁shelter	-10727
▁unfortunate	-10728
▁congratulate	-10729
BA	-10730
DER	-10731
met	-10732
omal	-10733
▁MUK	-10734
▁Nare	-10735
▁Sikk	-10736
▁Wild	-10737
orship	-10738
▁cance	-10739
▁fourt	-10740
▁Bhopal	-10741
▁string	-10742
▁kingdom	-10743
▁inferred	-10744
▁recalled	-10745
▁Americans	-10746
▁ordinance	-10747
termination	-10748
▁explaining	-10749
▁travelling	-10750
▁infringement	-10751
▁proportionate	-10752
▁regularization	-10753
inety	-10754
▁Deal	-10755
▁Docu	-10756
▁beast	-10757
elihood	-10758
▁Harish	-10759
▁Satish	-10760
▁honest	-10761
▁harvest	-10762
▁eliminate	-10763
▁suspected	-10764
▁Plaintiffs	-10765
▁anniversary	-10766
▁nevertheless	-10767
▁je	-10768
ATES	-10769
uter	-10770
▁CDU	-10771
▁Nir	-10772
▁flee	-10773
▁Impro	-10774
▁talaq	-10775
▁Sivaji	-10776
ffective	-10777
▁amounted	-10778
▁sanctity	-10779
▁Panchayats	-10780
▁conveyance	-10781
▁immigrants	-10782
▁regardless	-10783
▁sufficiently	-10784
▁unprecedented	-10785
olf	-10786
uded	-10787
▁shed	-10788
aswamy	-10789
▁visits	-10790
▁NATIONAL	-10791
▁internet	-10792
▁economies	-10793
▁affiliated	-10794
▁Consultation	-10795
book	-10796
▁Tir	-10797
▁hur	-10798
gence	-10799
utral	-10800
▁rash	-10801
▁broke	-10802
▁theft	-10803
▁Meeting	-10804
▁comfort	-10805
▁decisive	-10806
▁opponents	-10807
▁separated	-10808
▁likelihood	-10809
▁experiences	-10810
▁ly	-10811
arer	-10812
ildar	-10813
▁Copy	-10814
▁Init	-10815
▁Uday	-10816
ursday	-10817
▁Benef	-10818
▁files	-10819
▁saving	-10820
▁borders	-10821
▁inaugur	-10822
▁Thursday	-10823
▁consensus	-10824
▁confiscation	-10825
do	-10826
ixed	-10827
rete	-10828
eenth	-10829
▁Insp	-10830
▁atroc	-10831
▁divide	-10832
▁judged	-10833
▁script	-10834
▁stored	-10835
▁Enquiry	-10836
▁paralle	-10837
▁tickets	-10838
elligence	-10839
▁gratuity	-10840
▁historic	-10841
▁manpower	-10842
▁phenomen	-10843
▁frequently	-10844
▁Prosecution	-10845
▁DA	-10846
▁Sib	-10847
▁Tuls	-10848
▁Wing	-10849
▁fasc	-10850
▁COURT	-10851
▁vests	-10852
▁bullet	-10853
▁symbol	-10854
▁unrest	-10855
iliation	-10856
istrates	-10857
▁competing	-10858
▁enforcing	-10859
▁fundament	-10860
▁naturally	-10861
▁terminate	-10862
▁contractors	-10863
▁identifying	-10864
uma	-10865
▁Er	-10866
mans	-10867
ucid	-10868
▁reop	-10869
stream	-10870
▁Salve	-10871
▁wheat	-10872
alities	-10873
▁Leader	-10874
▁adjudic	-10875
▁laboure	-10876
▁surrend	-10877
▁enclosed	-10878
▁fingerpr	-10879
▁remitted	-10880
▁divisions	-10881
▁conferring	-10882
▁Consolidated	-10883
rian	-10884
ietal	-10885
inter	-10886
oconut	-10887
▁Audit	-10888
▁flows	-10889
▁tabern	-10890
▁approve	-10891
▁balancing	-10892
▁intervene	-10893
▁institutes	-10894
▁postulates	-10895
▁aggravating	-10896
▁professionals	-10897
▁reasonableness	-10898
uals	-10899
unch	-10900
▁Bid	-10901
▁Emp	-10902
▁lift	-10903
acious	-10904
ailing	-10905
▁Aaron	-10906
▁enemy	-10907
▁kings	-10908
▁ports	-10909
▁myself	-10910
▁Abraham	-10911
▁passive	-10912
▁noticing	-10913
▁opposing	-10914
▁suppress	-10915
▁California	-10916
▁promotions	-10917
▁Gau	-10918
asive	-10919
itary	-10920
▁Star	-10921
▁Brief	-10922
▁match	-10923
▁Bhutan	-10924
▁Nation	-10925
▁Select	-10926
▁Sikkim	-10927
▁proven	-10928
▁rescue	-10929
▁qualify	-10930
▁Sciences	-10931
▁explosive	-10932
▁happening	-10933
▁imparting	-10934
▁warranted	-10935
▁undisputed	-10936
▁Complainant	-10937
HAR	-10938
▁LO	-10939
aker	-10940
▁Ach	-10941
▁CGT	-10942
▁DRT	-10943
▁Hem	-10944
▁dub	-10945
▁Meen	-10946
▁Heard	-10947
▁Nigam	-10948
▁Table	-10949
▁ranks	-10950
▁Amicus	-10951
▁bought	-10952
▁encomp	-10953
▁starts	-10954
▁Manohar	-10955
▁discern	-10956
▁inspire	-10957
▁admitting	-10958
▁automatic	-10959
ih	-10960
oya	-10961
ivedi	-10962
ellery	-10963
raisal	-10964
▁bribe	-10965
▁diary	-10966
▁Narain	-10967
▁misapp	-10968
▁misbeh	-10969
▁Dwivedi	-10970
▁biggest	-10971
▁decrees	-10972
plaintiff	-10973
▁Northern	-10974
missibility	-10975
▁unemployed	-10976
▁Educational	-10977
▁probability	-10978
▁expectations	-10979
▁insufficient	-10980
▁AK	-10981
laim	-10982
▁Cre	-10983
▁Say	-10984
▁Loan	-10985
▁Step	-10986
▁feat	-10987
▁Fifth	-10988
▁Prash	-10989
▁Chander	-10990
▁Schemes	-10991
▁ensures	-10992
▁portions	-10993
▁provider	-10994
▁accidents	-10995
▁interaction	-10996
▁Commonwealth	-10997
▁achievements	-10998
▁retrospectively	-10999
▁Jo	-11000
atal	-11001
▁tur	-11002
▁tant	-11003
▁datab	-11004
▁freely	-11005
▁images	-11006
▁Airport	-11007
▁Georgia	-11008
▁Jagdish	-11009
▁stretch	-11010
▁Electronics	-11011
▁Secretaries	-11012
▁communicate	-11013
▁commutation	-11014
PG	-11015
▁EIA	-11016
▁Tru	-11017
▁bes	-11018
▁Speech	-11019
▁exempl	-11020
▁tractor	-11021
▁Obviously	-11022
▁Provincial	-11023
▁conventional	-11024
▁Recommendation	-11025
PW	-11026
▁Saty	-11027
▁leaf	-11028
▁shad	-11029
▁supre	-11030
▁ceases	-11031
▁decent	-11032
▁makers	-11033
▁clients	-11034
▁portray	-11035
▁scooter	-11036
▁triable	-11037
▁Premises	-11038
▁coloured	-11039
▁disagree	-11040
▁targeted	-11041
▁cumulative	-11042
▁productive	-11043
▁shareholder	-11044
▁Additionally	-11045
uate	-11046
▁evid	-11047
▁fost	-11048
▁puts	-11049
▁honor	-11050
▁Claims	-11051
▁Crores	-11052
▁Current	-11053
▁Chaudhary	-11054
▁delegated	-11055
▁denounced	-11056
omic	-11057
▁yes	-11058
▁Chan	-11059
▁Four	-11060
▁Trav	-11061
inding	-11062
▁mixed	-11063
▁Sushil	-11064
▁cadres	-11065
▁viable	-11066
▁humanitarian	-11067
IAN	-11068
was	-11069
▁PE	-11070
▁Srin	-11071
▁begun	-11072
▁Change	-11073
▁Pacific	-11074
▁movable	-11075
▁panchay	-11076
▁therefor	-11077
▁panchnama	-11078
▁convicting	-11079
▁perception	-11080
▁realization	-11081
jan	-11082
▁ASG	-11083
▁Den	-11084
▁Tea	-11085
▁Conv	-11086
▁Units	-11087
▁stars	-11088
▁Import	-11089
▁Motion	-11090
▁bridge	-11091
▁connot	-11092
▁matern	-11093
▁Indones	-11094
▁debates	-11095
▁farming	-11096
▁embodied	-11097
▁worldwide	-11098
▁reconstruction	-11099
PSC	-11100
▁Cy	-11101
gent	-11102
▁Dad	-11103
▁Yoj	-11104
▁Name	-11105
▁Rang	-11106
▁WITH	-11107
▁inel	-11108
▁tear	-11109
▁cooper	-11110
▁silence	-11111
▁balanced	-11112
▁departed	-11113
▁examples	-11114
▁resigned	-11115
▁unaccept	-11116
▁affirming	-11117
▁gathering	-11118
▁mediation	-11119
▁offenders	-11120
▁Identification	-11121
ua	-11122
ael	-11123
ius	-11124
will	-11125
▁Tah	-11126
▁Real	-11127
▁curb	-11128
▁motu	-11129
▁yard	-11130
▁Allow	-11131
▁iniqu	-11132
forcement	-11133
▁conceded	-11134
▁discarded	-11135
▁minorities	-11136
▁conflicting	-11137
▁instrumental	-11138
aser	-11139
▁Fast	-11140
▁Kurd	-11141
▁Jawah	-11142
▁Liber	-11143
▁catch	-11144
▁deems	-11145
▁disob	-11146
▁users	-11147
▁organs	-11148
▁Auditor	-11149
▁ignoring	-11150
ortunately	-11151
unications	-11152
lor	-11153
mat	-11154
▁Amit	-11155
▁Path	-11156
asters	-11157
▁forget	-11158
▁investor	-11159
▁receives	-11160
▁visiting	-11161
▁substitution	-11162
▁incorporation	-11163
▁regularisation	-11164
JEE	-11165
well	-11166
▁ICC	-11167
▁Miz	-11168
▁PIL	-11169
▁bab	-11170
▁Mean	-11171
▁elev	-11172
▁Anwar	-11173
▁Domin	-11174
▁Misra	-11175
▁realm	-11176
▁Merely	-11177
▁lapsed	-11178
▁weaker	-11179
▁devices	-11180
▁signing	-11181
▁western	-11182
▁breaking	-11183
▁deployed	-11184
▁copyright	-11185
▁adequately	-11186
▁aggressive	-11187
FC	-11188
FI	-11189
pa	-11190
PCL	-11191
itz	-11192
yar	-11193
bury	-11194
ints	-11195
ulam	-11196
▁ker	-11197
-----	-11198
▁Anti	-11199
▁Mall	-11200
▁touc	-11201
▁Result	-11202
ollywood	-11203
▁Perform	-11204
▁greatly	-11205
▁leviable	-11206
▁promotees	-11207
▁favourable	-11208
▁demographic	-11209
▁entertaining	-11210
CH	-11211
tr	-11212
riya	-11213
urga	-11214
heres	-11215
before	-11216
ounder	-11217
▁Frank	-11218
▁occupy	-11219
▁amenities	-11220
▁deepening	-11221
▁manifestly	-11222
def	-11223
raz	-11224
▁KV	-11225
▁SRI	-11226
▁flu	-11227
▁mil	-11228
▁band	-11229
▁Treas	-11230
▁fears	-11231
▁incom	-11232
manship	-11233
▁dissolved	-11234
▁indigenous	-11235
▁Intelligence	-11236
▁inconsistency	-11237
how	-11238
iny	-11239
iva	-11240
wife	-11241
allan	-11242
amper	-11243
orted	-11244
rahim	-11245
▁Hard	-11246
▁Lakh	-11247
▁Rice	-11248
▁sack	-11249
▁tent	-11250
▁Coast	-11251
▁payee	-11252
▁Sports	-11253
▁beauty	-11254
▁Needless	-11255
▁disturbed	-11256
orticulture	-11257
▁achievement	-11258
▁prohibiting	-11259
▁collectively	-11260
▁conversation	-11261
▁Bul	-11262
aided	-11263
▁Khar	-11264
▁NIOS	-11265
▁SHRI	-11266
▁Tata	-11267
▁butt	-11268
astrop	-11269
lessly	-11270
tension	-11271
▁adults	-11272
▁culmin	-11273
▁plural	-11274
▁Santosh	-11275
▁defects	-11276
▁disposs	-11277
▁reservo	-11278
▁wounded	-11279
▁mentions	-11280
▁redressal	-11281
▁sentiment	-11282
▁Laboratory	-11283
▁overlooked	-11284
▁Haz	-11285
andal	-11286
arers	-11287
lines	-11288
▁Call	-11289
▁doors	-11290
▁cancel	-11291
▁valley	-11292
▁visual	-11293
radition	-11294
▁conceal	-11295
▁validly	-11296
▁availing	-11297
▁contraven	-11298
▁Liquidator	-11299
▁inaugurated	-11300
▁intervening	-11301
▁jurisdictions	-11302
AA	-11303
gedy	-11304
urit	-11305
▁End	-11306
▁hol	-11307
ingly	-11308
▁Bhagw	-11309
▁Sixth	-11310
▁abide	-11311
▁voter	-11312
▁delays	-11313
▁mighty	-11314
▁pursuit	-11315
▁Whatever	-11316
▁pensions	-11317
▁catastrop	-11318
▁legitimacy	-11319
aki	-11320
ero	-11321
▁FSL	-11322
▁nom	-11323
▁spo	-11324
arlal	-11325
eches	-11326
▁Duty	-11327
▁Jews	-11328
▁desp	-11329
▁inex	-11330
angana	-11331
unicip	-11332
▁Saudi	-11333
▁consp	-11334
▁hosts	-11335
▁Causes	-11336
▁Mahesh	-11337
▁relies	-11338
atisfied	-11339
▁Charges	-11340
▁Classes	-11341
▁Details	-11342
atisation	-11343
▁ornaments	-11344
▁unambiguous	-11345
▁unacceptable	-11346
nar	-11347
▁Hel	-11348
anish	-11349
▁infl	-11350
▁ware	-11351
ponent	-11352
▁Negot	-11353
▁Somet	-11354
▁Mechan	-11355
▁counse	-11356
▁dollar	-11357
▁equipped	-11358
▁Provident	-11359
▁encompass	-11360
▁Opposition	-11361
▁bureaucrat	-11362
▁tabernacle	-11363
▁advancement	-11364
▁apprehended	-11365
cean	-11366
▁Nad	-11367
antic	-11368
▁dear	-11369
iaries	-11370
▁sympt	-11371
▁belated	-11372
▁situate	-11373
▁visible	-11374
▁locality	-11375
▁recognise	-11376
unicipality	-11377
▁Integrated	-11378
▁systematic	-11379
▁resolutions	-11380
▁appropriately	-11381
Th	-11382
▁Dip	-11383
▁gif	-11384
▁MoEF	-11385
▁Ghosh	-11386
▁mosque	-11387
▁praise	-11388
▁Madurai	-11389
▁chamber	-11390
▁mounting	-11391
▁capabilities	-11392
▁consolidated	-11393
It	-11394
cow	-11395
meas	-11396
endar	-11397
▁href	-11398
ducted	-11399
▁Colle	-11400
▁blame	-11401
▁Valley	-11402
▁Venkat	-11403
▁anonym	-11404
▁Ibrahim	-11405
▁Tripura	-11406
▁weather	-11407
▁electric	-11408
▁reasoned	-11409
▁sessions	-11410
▁thoughts	-11411
▁Chowdhury	-11412
▁Presiding	-11413
▁complying	-11414
▁alienation	-11415
dev	-11416
▁NA	-11417
▁RP	-11418
▁CEO	-11419
▁LIC	-11420
▁Old	-11421
▁Tag	-11422
▁SAYS	-11423
▁game	-11424
▁oust	-11425
▁Block	-11426
▁grains	-11427
▁feeling	-11428
▁temples	-11429
▁Provision	-11430
▁certainty	-11431
▁evolution	-11432
▁mentioning	-11433
▁destination	-11434
▁propositions	-11435
▁DO	-11436
▁PT	-11437
▁Sit	-11438
▁Unf	-11439
afide	-11440
osene	-11441
▁Hall	-11442
▁Rober	-11443
▁modes	-11444
▁monop	-11445
▁proves	-11446
ancellors	-11447
▁finished	-11448
▁oriented	-11449
▁associate	-11450
▁offerings	-11451
▁retrenchment	-11452
adian	-11453
nagar	-11454
▁COMM	-11455
▁pick	-11456
▁Areas	-11457
▁Study	-11458
▁Taxes	-11459
▁harsh	-11460
▁rough	-11461
▁walls	-11462
▁abused	-11463
▁camera	-11464
▁coparc	-11465
▁counts	-11466
▁desires	-11467
▁tremend	-11468
▁unequiv	-11469
ocational	-11470
▁licenses	-11471
▁abolished	-11472
▁disappear	-11473
▁autonomous	-11474
▁oppression	-11475
▁purchasing	-11476
tm	-11477
▁RES	-11478
▁awa	-11479
umped	-11480
▁amid	-11481
manent	-11482
ourned	-11483
▁Vinod	-11484
▁angle	-11485
▁decre	-11486
▁Moscow	-11487
▁metres	-11488
▁lending	-11489
▁Internal	-11490
▁carriage	-11491
▁exceeded	-11492
▁imminent	-11493
▁smuggled	-11494
▁yourself	-11495
▁Community	-11496
▁accidental	-11497
▁constantly	-11498
▁militarism	-11499
▁promotional	-11500
▁surrendered	-11501
▁constituency	-11502
▁economically	-11503
▁LG	-11504
▁ox	-11505
▁Kas	-11506
▁Rece	-11507
▁pilg	-11508
eeches	-11509
oinder	-11510
▁feels	-11511
edience	-11512
▁Wealth	-11513
▁sevent	-11514
▁summer	-11515
▁Islands	-11516
▁anybody	-11517
▁abetment	-11518
▁trespass	-11519
▁attaining	-11520
▁conceived	-11521
▁recommends	-11522
▁vegetables	-11523
▁hereinbefore	-11524
▁Implementation	-11525
eek	-11526
▁IP	-11527
▁fo	-11528
gaon	-11529
▁CRI	-11530
▁Vir	-11531
chant	-11532
▁Vidy	-11533
achand	-11534
▁teeth	-11535
▁Explos	-11536
▁Ranjit	-11537
▁Challen	-11538
▁Primary	-11539
▁framers	-11540
▁isolated	-11541
▁ministry	-11542
▁Redressal	-11543
▁criminals	-11544
▁statistics	-11545
mia	-11546
▁OS	-11547
cons	-11548
▁Bri	-11549
▁mail	-11550
ducers	-11551
repres	-11552
uously	-11553
derness	-11554
▁Kapoor	-11555
▁Scient	-11556
▁Treaty	-11557
▁disall	-11558
▁junior	-11559
▁talent	-11560
▁commits	-11561
▁packing	-11562
▁refrain	-11563
▁Colleges	-11564
▁Forensic	-11565
▁supplier	-11566
▁Lordships	-11567
▁Telangana	-11568
▁responses	-11569
▁indefinite	-11570
▁mechanisms	-11571
▁wilderness	-11572
▁experienced	-11573
WC	-11574
ERA	-11575
bas	-11576
tes	-11577
▁bow	-11578
▁Agra	-11579
▁Srik	-11580
▁hier	-11581
rances	-11582
▁rally	-11583
▁Altern	-11584
▁Mahend	-11585
▁Mining	-11586
▁corner	-11587
▁deline	-11588
▁enjoin	-11589
▁minute	-11590
▁whilst	-11591
aternity	-11592
▁Country	-11593
▁neutral	-11594
▁disbelie	-11595
▁inconven	-11596
▁maritime	-11597
▁suppressed	-11598
▁prosecuting	-11599
▁supervisory	-11600
Us	-11601
olen	-11602
▁Nat	-11603
▁SAR	-11604
atell	-11605
owner	-11606
▁busy	-11607
▁cater	-11608
▁drain	-11609
▁enlar	-11610
raneous	-11611
▁Church	-11612
▁banned	-11613
▁detenu	-11614
▁memory	-11615
▁cricket	-11616
▁studied	-11617
▁tourist	-11618
▁testator	-11619
▁Producers	-11620
▁assistant	-11621
▁inflation	-11622
▁invention	-11623
▁Assistance	-11624
▁celebrated	-11625
▁extraneous	-11626
▁immigration	-11627
wah	-11628
▁Il	-11629
aces	-11630
▁Gop	-11631
isons	-11632
▁Axad	-11633
▁cells	-11634
▁execut	-11635
▁roster	-11636
▁Vehicles	-11637
▁Constable	-11638
▁Governors	-11639
▁estimates	-11640
▁expanding	-11641
▁bankruptcy	-11642
▁thoroughly	-11643
२१	-11644
ayam	-11645
▁bog	-11646
mohan	-11647
▁gods	-11648
ATIONS	-11649
ranted	-11650
▁accur	-11651
▁inspir	-11652
▁nobody	-11653
▁Babylon	-11654
▁Privacy	-11655
▁intrins	-11656
▁Applying	-11657
▁afforded	-11658
▁suddenly	-11659
▁declining	-11660
▁excellent	-11661
▁travelled	-11662
▁impediment	-11663
▁traditions	-11664
▁Appropriate	-11665
▁ascertaining	-11666
▁publications	-11667
SC	-11668
▁DR	-11669
itch	-11670
oult	-11671
▁Kat	-11672
▁Sex	-11673
▁Navy	-11674
angers	-11675
▁Italy	-11676
▁minim	-11677
▁patri	-11678
▁theme	-11679
diction	-11680
▁carved	-11681
▁divers	-11682
▁trades	-11683
ensively	-11684
▁Schools	-11685
▁doubted	-11686
▁replace	-11687
▁fourteen	-11688
▁quarters	-11689
▁consulted	-11690
▁jewellery	-11691
▁preserved	-11692
▁provident	-11693
▁conception	-11694
▁instructed	-11695
▁imagination	-11696
▁punishments	-11697
BER	-11698
▁OP	-11699
vast	-11700
▁DPC	-11701
▁gaz	-11702
khadi	-11703
▁Dave	-11704
▁Phys	-11705
▁outs	-11706
urious	-11707
▁misle	-11708
▁novel	-11709
▁Malays	-11710
▁encoun	-11711
▁Minimum	-11712
▁Signific	-11713
▁defended	-11714
▁exhibited	-11715
▁unsuccess	-11716
▁specifying	-11717
▁subsection	-11718
▁ammunitions	-11719
abs	-11720
nal	-11721
▁GN	-11722
▁KB	-11723
▁Bir	-11724
▁CID	-11725
▁Jas	-11726
▁Typ	-11727
rates	-11728
▁Except	-11729
▁Ismail	-11730
▁Oxford	-11731
▁massac	-11732
▁please	-11733
▁smooth	-11734
▁wonder	-11735
rational	-11736
▁Entries	-11737
▁Hundred	-11738
▁helping	-11739
▁invoice	-11740
▁Backward	-11741
▁protects	-11742
▁allottees	-11743
▁discloses	-11744
▁propriety	-11745
▁screening	-11746
▁tantamount	-11747
acco	-11748
ames	-11749
eful	-11750
▁Gal	-11751
▁Flor	-11752
▁Modi	-11753
▁lien	-11754
▁.....	-11755
▁Minor	-11756
▁tanks	-11757
▁Trisha	-11758
▁devoid	-11759
▁firmly	-11760
▁directs	-11761
▁weekend	-11762
▁founding	-11763
▁realised	-11764
▁requests	-11765
▁searched	-11766
▁adverting	-11767
▁concealed	-11768
kel	-11769
▁CB	-11770
▁GOD	-11771
▁REP	-11772
▁bio	-11773
▁dog	-11774
▁Plot	-11775
▁Rate	-11776
▁fash	-11777
▁indu	-11778
ambers	-11779
▁erect	-11780
▁remit	-11781
▁Dalmia	-11782
▁amicus	-11783
▁custod	-11784
▁kilomet	-11785
▁printed	-11786
▁anywhere	-11787
▁diligence	-11788
▁finalized	-11789
▁accusation	-11790
▁delivering	-11791
▁judicially	-11792
▁Undoubtedly	-11793
▁recoverable	-11794
▁interrogation	-11795
airy	-11796
▁DAC	-11797
liers	-11798
▁Sard	-11799
▁desc	-11800
oultry	-11801
▁teach	-11802
▁farmer	-11803
▁wilful	-11804
▁bidding	-11805
▁ranging	-11806
▁restaur	-11807
fficiency	-11808
▁alternate	-11809
▁judgement	-11810
▁motivated	-11811
▁respected	-11812
▁undermine	-11813
▁comprehend	-11814
▁approaching	-11815
▁reservations	-11816
hua	-11817
abal	-11818
▁rid	-11819
▁upl	-11820
▁Jean	-11821
▁Kail	-11822
▁Lect	-11823
▁emph	-11824
▁prud	-11825
▁Emerg	-11826
▁secre	-11827
▁learnt	-11828
▁mostly	-11829
▁stolen	-11830
▁worksh	-11831
▁Richard	-11832
▁Venture	-11833
▁dynamic	-11834
▁concrete	-11835
▁deferred	-11836
▁warrants	-11837
▁ancillary	-11838
▁initiating	-11839
▁provincial	-11840
▁undergoing	-11841
▁headquarters	-11842
▁congratulated	-11843
oft	-11844
usi	-11845
▁Ti	-11846
▁Lah	-11847
▁vib	-11848
▁Dear	-11849
▁Giri	-11850
▁Pack	-11851
▁Roht	-11852
▁keen	-11853
▁Javed	-11854
▁Sanct	-11855
▁basin	-11856
▁paint	-11857
nership	-11858
▁Tender	-11859
▁embark	-11860
▁Studies	-11861
▁bullets	-11862
▁homosex	-11863
▁plastic	-11864
lementary	-11865
▁Canadian	-11866
▁Councils	-11867
▁creative	-11868
Chancellor	-11869
▁emotional	-11870
▁providers	-11871
Corporation	-11872
▁accessible	-11873
▁concurring	-11874
▁explicitly	-11875
▁condonation	-11876
▁consecutive	-11877
▁geographical	-11878
▁relationships	-11879
EMA	-11880
▁Unt	-11881
▁Maur	-11882
▁lord	-11883
▁onto	-11884
▁Panch	-11885
▁roots	-11886
Section	-11887
angible	-11888
settled	-11889
▁ancest	-11890
▁Hussain	-11891
▁Personal	-11892
▁entrance	-11893
▁graduate	-11894
▁corrected	-11895
▁inception	-11896
▁spiritual	-11897
▁neighbours	-11898
▁propaganda	-11899
▁Proceedings	-11900
▁translation	-11901
▁encroachment	-11902
▁fan	-11903
human	-11904
isted	-11905
▁cens	-11906
▁exit	-11907
▁James	-11908
▁flour	-11909
▁rooms	-11910
▁center	-11911
▁reluct	-11912
▁Trading	-11913
▁jeopard	-11914
▁renders	-11915
▁Minerals	-11916
▁Prashant	-11917
▁Shekhadi	-11918
▁parallel	-11919
▁republic	-11920
▁informing	-11921
▁isolation	-11922
▁probation	-11923
▁materially	-11924
▁extensively	-11925
enn	-11926
▁uf	-11927
geon	-11928
posal	-11929
unami	-11930
▁Cert	-11931
▁Club	-11932
▁Subh	-11933
▁emol	-11934
▁Cinem	-11935
▁Event	-11936
▁bases	-11937
▁efflu	-11938
▁repay	-11939
▁zones	-11940
▁invent	-11941
chnology	-11942
▁Advance	-11943
▁beliefs	-11944
▁choices	-11945
▁unaided	-11946
▁commonly	-11947
▁linkages	-11948
▁Screening	-11949
▁fireworks	-11950
emn	-11951
▁Lod	-11952
▁Fire	-11953
▁NDMC	-11954
▁glad	-11955
▁lake	-11956
losure	-11957
▁Patil	-11958
▁Willi	-11959
▁holid	-11960
▁Sarath	-11961
▁captive	-11962
▁chances	-11963
▁households	-11964
▁summarized	-11965
▁Republicans	-11966
▁contemplate	-11967
▁formalities	-11968
gen	-11969
ili	-11970
oli	-11971
erer	-11972
ieth	-11973
▁Don	-11974
▁SID	-11975
▁Bish	-11976
▁Chin	-11977
▁nurt	-11978
▁hopes	-11979
▁Guards	-11980
▁pledge	-11981
▁implead	-11982
▁practise	-11983
▁proposes	-11984
▁Permanent	-11985
▁Concession	-11986
▁permanently	-11987
▁Radhakrishnan	-11988
nu	-11989
▁ty	-11990
▁CCI	-11991
▁UPF	-11992
▁Cath	-11993
▁peas	-11994
▁tied	-11995
▁unus	-11996
ancore	-11997
▁crude	-11998
▁locus	-11999
▁depict	-12000
▁invari	-12001
▁shadow	-12002
▁summed	-12003
▁valued	-12004
▁realize	-12005
▁propriet	-12006
▁Divisional	-12007
▁exhibition	-12008
▁repetition	-12009
▁tremendous	-12010
▁Magistrates	-12011
▁conventions	-12012
▁developmental	-12013
BL	-12014
▁PU	-12015
aced	-12016
othe	-12017
▁NDPS	-12018
HERJEE	-12019
iorari	-12020
▁abrog	-12021
ndering	-12022
▁Doctor	-12023
▁Prabhu	-12024
▁models	-12025
▁rifles	-12026
▁seller	-12027
▁accepts	-12028
▁dollars	-12029
▁Province	-12030
▁MUKHERJEE	-12031
▁basically	-12032
▁violating	-12033
▁Travancore	-12034
▁collateral	-12035
▁empowerment	-12036
▁Interpretation	-12037
▁confidentiality	-12038
apt	-12039
hal	-12040
oric	-12041
▁ASI	-12042
▁Occ	-12043
▁spr	-12044
plete	-12045
▁Make	-12046
iances	-12047
▁Brown	-12048
▁Drugs	-12049
▁poore	-12050
▁Course	-12051
▁Krishan	-12052
▁vendors	-12053
▁defining	-12054
▁incentive	-12055
▁multitude	-12056
▁electrical	-12057
▁constrained	-12058
IVE	-12059
▁ru	-12060
aiah	-12061
mity	-12062
rits	-12063
▁Sem	-12064
▁Tib	-12065
▁rod	-12066
licop	-12067
▁drag	-12068
▁pace	-12069
▁Chile	-12070
▁Phara	-12071
▁beach	-12072
▁boxes	-12073
lerated	-12074
parable	-12075
▁redund	-12076
▁Hindust	-12077
▁faction	-12078
▁Citizens	-12079
▁Taxation	-12080
▁kerosene	-12081
▁Complaint	-12082
▁omissions	-12083
▁irrational	-12084
▁constructive	-12085
▁recommending	-12086
cho	-12087
▁DP	-12088
ENTS	-12089
▁TMC	-12090
MINAL	-12091
▁Earl	-12092
▁Suff	-12093
▁hors	-12094
▁verify	-12095
▁Offices	-12096
▁Pharaoh	-12097
▁escaped	-12098
▁distress	-12099
▁passport	-12100
▁sentiments	-12101
▁subjective	-12102
▁Partnership	-12103
▁affiliation	-12104
▁innovations	-12105
▁TH	-12106
▁Ut	-12107
wage	-12108
▁BBC	-12109
▁row	-12110
akers	-12111
▁Meas	-12112
▁NSEL	-12113
▁pard	-12114
▁Cross	-12115
▁sweep	-12116
▁trace	-12117
▁venue	-12118
▁Thirdly	-12119
▁nearest	-12120
▁publish	-12121
▁inspired	-12122
▁persuaded	-12123
▁recession	-12124
▁Submission	-12125
▁deployment	-12126
▁individually	-12127
...	-12128
IAL	-12129
rip	-12130
▁Abs	-12131
▁kms	-12132
ensed	-12133
▁Indo	-12134
▁eyew	-12135
▁Debts	-12136
▁Final	-12137
▁Franc	-12138
▁Mahal	-12139
▁demer	-12140
▁noise	-12141
▁ships	-12142
▁unwar	-12143
▁Dawood	-12144
▁Yojana	-12145
▁closing	-12146
▁pledged	-12147
▁CRIMINAL	-12148
▁demonstrates	-12149
▁Miscellaneous	-12150
▁certification	-12151
unk	-12152
▁DB	-12153
idal	-12154
▁Abu	-12155
▁Bre	-12156
▁FDI	-12157
field	-12158
▁Naph	-12159
▁cool	-12160
▁radi	-12161
apuram	-12162
▁Vinay	-12163
▁Terror	-12164
▁dealers	-12165
▁dismant	-12166
▁sisters	-12167
▁urgency	-12168
▁Manufact	-12169
▁Particip	-12170
▁Purchase	-12171
▁misrepres	-12172
▁associates	-12173
▁exposition	-12174
▁forthcoming	-12175
ys	-12176
▁HR	-12177
▁Sak	-12178
▁sue	-12179
avior	-12180
cular	-12181
▁Iron	-12182
▁span	-12183
▁stag	-12184
▁Track	-12185
▁ample	-12186
▁disbur	-12187
▁revive	-12188
▁assumes	-12189
▁centers	-12190
▁speeches	-12191
▁Emergency	-12192
▁Represent	-12193
▁meanwhile	-12194
▁Enforcement	-12195
▁incorporate	-12196
ibi	-12197
▁FT	-12198
▁Uk	-12199
▁PDF	-12200
▁aug	-12201
usive	-12202
▁LSSP	-12203
▁losing	-12204
▁provoc	-12205
▁deprive	-12206
▁tragedy	-12207
▁complain	-12208
▁measured	-12209
▁affection	-12210
▁centuries	-12211
▁smuggling	-12212
▁Appointment	-12213
▁justifiable	-12214
▁unwarranted	-12215
▁deliberations	-12216
▁gratification	-12217
NO	-12218
▁AV	-12219
feld	-12220
hari	-12221
ylum	-12222
▁Nan	-12223
andan	-12224
▁heir	-12225
▁stim	-12226
▁veil	-12227
▁Mukul	-12228
▁unrel	-12229
▁Pandey	-12230
▁lessor	-12231
▁menace	-12232
▁poured	-12233
spectors	-12234
▁Kailash	-12235
▁Tourism	-12236
▁planted	-12237
▁societal	-12238
rimination	-12239
▁defaulter	-12240
▁recruited	-12241
▁forwarding	-12242
▁accountable	-12243
▁misappropri	-12244
▁unconditional	-12245
hag	-12246
odh	-12247
▁TR	-12248
like	-12249
oded	-12250
▁OBC	-12251
cotic	-12252
isput	-12253
urved	-12254
▁Lake	-12255
▁Loya	-12256
▁lump	-12257
▁rhet	-12258
▁ring	-12259
cepted	-12260
▁Simbu	-12261
▁Sunni	-12262
▁alike	-12263
▁march	-12264
▁shoot	-12265
▁Shiite	-12266
▁rushed	-12267
▁builder	-12268
▁intense	-12269
▁tenders	-12270
▁exposure	-12271
▁financed	-12272
▁literacy	-12273
▁rainfall	-12274
▁medicines	-12275
▁operators	-12276
▁suppliers	-12277
▁incomplete	-12278
ALE	-12279
▁Ol	-12280
idhi	-12281
iter	-12282
lick	-12283
ugal	-12284
▁HIV	-12285
▁Kel	-12286
▁Mes	-12287
▁Tit	-12288
▁cow	-12289
water	-12290
▁Debt	-12291
▁cars	-12292
termin	-12293
▁Media	-12294
▁hasten	-12295
▁indisc	-12296
▁lessons	-12297
▁composed	-12298
▁mentally	-12299
▁Knowledge	-12300
▁procurement	-12301
▁Professional	-12302
▁intentionally	-12303
ESH	-12304
asp	-12305
bled	-12306
chud	-12307
▁Rab	-12308
askar	-12309
▁Abol	-12310
▁Answ	-12311
▁Chau	-12312
▁SLFP	-12313
▁Cadre	-12314
▁crack	-12315
▁Should	-12316
▁elders	-12317
▁hazard	-12318
▁Peoples	-12319
▁equated	-12320
▁probable	-12321
▁throwing	-12322
▁disregard	-12323
▁formulate	-12324
▁mortgaged	-12325
▁workforce	-12326
▁aforestated	-12327
▁counterpart	-12328
ppa	-12329
born	-12330
▁Gad	-12331
▁Obs	-12332
▁Sou	-12333
▁bol	-12334
ailed	-12335
comed	-12336
▁clim	-12337
▁merc	-12338
▁rans	-12339
ealand	-12340
▁sewer	-12341
ineness	-12342
prising	-12343
▁Volume	-12344
▁Spanish	-12345
▁clarity	-12346
▁Computer	-12347
▁earnings	-12348
▁refunded	-12349
▁shifting	-12350
▁testimon	-12351
▁Chartered	-12352
▁privatisation	-12353
kha	-12354
rao	-12355
▁AL	-12356
oves	-12357
▁MMDR	-12358
▁Mani	-12359
▁Mary	-12360
▁Sten	-12361
▁lest	-12362
▁Ganga	-12363
▁differ	-12364
▁shield	-12365
▁Tenancy	-12366
▁adhered	-12367
▁handing	-12368
▁revival	-12369
▁tsunami	-12370
▁welcomed	-12371
▁Regarding	-12372
▁mortgagee	-12373
▁Legislation	-12374
▁arbitrarily	-12375
▁coordination	-12376
ema	-12377
asks	-12378
▁Ang	-12379
▁CEC	-12380
▁Brij	-12381
▁apex	-12382
▁poly	-12383
▁Divan	-12384
▁compel	-12385
▁refere	-12386
▁vacate	-12387
▁coconut	-12388
▁organic	-12389
▁profess	-12390
▁varying	-12391
▁Catholic	-12392
▁mountain	-12393
▁networks	-12394
▁touching	-12395
▁defending	-12396
▁dominated	-12397
▁ineligible	-12398
ICA	-12399
TER	-12400
VII	-12401
cap	-12402
akshi	-12403
eless	-12404
otten	-12405
▁Wick	-12406
▁ours	-12407
ducive	-12408
▁Crown	-12409
▁Desai	-12410
▁Lalit	-12411
▁Rohat	-12412
▁juven	-12413
▁Ganesh	-12414
▁parked	-12415
▁Florida	-12416
▁Pratima	-12417
▁blessed	-12418
▁sincere	-12419
▁Gandhiji	-12420
▁produces	-12421
▁directory	-12422
▁reporters	-12423
▁dimensions	-12424
▁emoluments	-12425
▁preferably	-12426
▁propounded	-12427
▁accompanying	-12428
heb	-12429
iser	-12430
sues	-12431
▁000	-12432
▁Bat	-12433
▁CVC	-12434
▁Fon	-12435
agues	-12436
ighth	-12437
ocket	-12438
▁Ajay	-12439
▁enth	-12440
▁unle	-12441
verage	-12442
▁acute	-12443
husband	-12444
▁enmity	-12445
▁hotels	-12446
▁pushed	-12447
▁wounds	-12448
▁writer	-12449
▁realise	-12450
▁shortly	-12451
▁tonnage	-12452
witnesses	-12453
▁complicity	-12454
▁continuity	-12455
▁Instruments	-12456
▁Jurisdiction	-12457
▁inadmissible	-12458
▁specifications	-12459
vir	-12460
▁Gow	-12461
▁Upa	-12462
▁fly	-12463
▁Sikh	-12464
▁Wage	-12465
▁toll	-12466
lining	-12467
▁Manoj	-12468
▁Tibet	-12469
▁opted	-12470
▁Rohatgi	-12471
▁numbered	-12472
▁sometime	-12473
▁apportion	-12474
▁conducive	-12475
▁deterrent	-12476
▁correction	-12477
▁structural	-12478
▁Cooperation	-12479
▁misbehaviour	-12480
Tax	-12481
ksh	-12482
igan	-12483
ocol	-12484
▁Jai	-12485
▁Kot	-12486
▁sic	-12487
iksha	-12488
▁Rani	-12489
terior	-12490
▁Dipak	-12491
▁Nagal	-12492
▁crowd	-12493
▁enjoys	-12494
▁unpaid	-12495
▁Michael	-12496
▁condemn	-12497
▁trouble	-12498
▁Mohammad	-12499
▁Abolition	-12500
▁insisting	-12501
▁oppressed	-12502
▁Contractor	-12503
▁compliment	-12504
▁endeavours	-12505
▁touchstone	-12506
▁categorical	-12507
▁genuineness	-12508
▁promulgated	-12509
nut	-12510
▁LE	-12511
▁Ny	-12512
adur	-12513
rics	-12514
rous	-12515
▁eco	-12516
▁fed	-12517
aiver	-12518
eller	-12519
imity	-12520
▁PRAN	-12521
▁Rums	-12522
▁barg	-12523
▁gest	-12524
▁stem	-12525
oining	-12526
▁output	-12527
▁safely	-12528
▁sensit	-12529
▁Systems	-12530
▁hanging	-12531
▁presume	-12532
▁wearing	-12533
▁Rumsfeld	-12534
▁neighbor	-12535
▁realized	-12536
▁adjourned	-12537
▁advantages	-12538
▁attracting	-12539
▁disclosing	-12540
▁elaborated	-12541
▁Unfortunately	-12542
bre	-12543
pose	-12544
▁Kos	-12545
▁UTs	-12546
matic	-12547
▁Brah	-12548
▁AWARD	-12549
▁creat	-12550
▁Tagore	-12551
▁asylum	-12552
▁curiae	-12553
erential	-12554
▁Chauhan	-12555
▁Philist	-12556
▁arrival	-12557
▁inquire	-12558
▁Students	-12559
▁dwellers	-12560
▁likewise	-12561
▁provoked	-12562
▁accumulated	-12563
▁consciously	-12564
▁distinguishable	-12565
hot	-12566
alal	-12567
alat	-12568
itud	-12569
math	-12570
▁Nas	-12571
worth	-12572
▁obst	-12573
▁pull	-12574
ulance	-12575
▁Bhatt	-12576
▁reign	-12577
▁upset	-12578
payment	-12579
▁batter	-12580
▁rivals	-12581
▁Charter	-12582
▁bribery	-12583
▁grossly	-12584
▁regimes	-12585
▁addresses	-12586
▁disciples	-12587
▁excisable	-12588
▁incidence	-12589
▁magnitude	-12590
▁Programmes	-12591
▁recognizes	-12592
▁reflection	-12593
▁Chandrachud	-12594
▁temperature	-12595
▁interventions	-12596
२२	-12597
ORT	-12598
▁Bag	-12599
▁Kes	-12600
▁NRI	-12601
acent	-12602
ayana	-12603
▁Look	-12604
rained	-12605
▁subur	-12606
▁Contin	-12607
▁Suffice	-12608
▁Turkish	-12609
▁suffice	-12610
▁discover	-12611
▁pressing	-12612
▁Extension	-12613
▁Returning	-12614
▁collusion	-12615
▁labourers	-12616
▁supplying	-12617
▁negotiated	-12618
▁Performance	-12619
▁sanctioning	-12620
▁statutorily	-12621
▁withdrawing	-12622
ifur	-12623
▁Kun	-12624
▁MCO	-12625
▁Soh	-12626
▁asp	-12627
▁egg	-12628
▁Does	-12629
▁Hans	-12630
▁NGOs	-12631
▁exig	-12632
▁Goods	-12633
▁Recon	-12634
▁polls	-12635
▁quiet	-12636
amended	-12637
attered	-12638
▁admeas	-12639
▁advers	-12640
▁prophe	-12641
▁Military	-12642
▁colleagues	-12643
▁definitions	-12644
▁encumbrances	-12645
▁irregularities	-12646
▁ML	-12647
andi	-12648
ente	-12649
xxxx	-12650
▁Kod	-12651
▁scan	-12652
▁Daily	-12653
▁Restr	-12654
renched	-12655
▁fisher	-12656
ceptible	-12657
election	-12658
▁Earlier	-12659
▁commend	-12660
▁suspend	-12661
▁Academic	-12662
▁clearing	-12663
▁confront	-12664
▁Jawaharlal	-12665
▁proclaimed	-12666
▁calculating	-12667
oom	-12668
▁Ru	-12669
berg	-12670
made	-12671
upee	-12672
▁Akh	-12673
▁htt	-12674
▁tis	-12675
▁CALL	-12676
▁Sans	-12677
▁limb	-12678
▁tack	-12679
▁birds	-12680
irement	-12681
vastava	-12682
▁Greece	-12683
▁Superv	-12684
▁deputy	-12685
▁Governing	-12686
▁Hindustan	-12687
▁Litigation	-12688
▁succeeding	-12689
▁pharmaceutical	-12690
olas	-12691
▁Bay	-12692
▁Rash	-12693
▁wine	-12694
akanth	-12695
arious	-12696
ivities	-12697
▁Modern	-12698
▁transg	-12699
▁united	-12700
▁urging	-12701
▁Brother	-12702
▁Regular	-12703
▁bailout	-12704
▁fashion	-12705
▁princes	-12706
▁Capacity	-12707
▁presiding	-12708
▁fulfilling	-12709
▁kilometres	-12710
▁restricting	-12711
▁broadcasting	-12712
▁extinguished	-12713
▁fundamentally	-12714
col	-12715
map	-12716
tml	-12717
▁TM	-12718
norm	-12719
vard	-12720
▁fre	-12721
▁gro	-12722
▁sen	-12723
front	-12724
outed	-12725
▁IRDA	-12726
▁MLAs	-12727
▁Pond	-12728
▁sans	-12729
▁scar	-12730
▁trap	-12731
▁glass	-12732
▁sheep	-12733
▁spend	-12734
▁Samiti	-12735
▁broker	-12736
▁enters	-12737
▁golden	-12738
▁exploit	-12739
▁adjacent	-12740
▁borrowed	-12741
▁precious	-12742
▁authorise	-12743
▁circulars	-12744
▁retaining	-12745
▁suggesting	-12746
▁admeasuring	-12747
▁designation	-12748
▁foundations	-12749
▁improvements	-12750
IONS	-12751
aras	-12752
aste	-12753
ethe	-12754
▁Dil	-12755
▁vig	-12756
ollah	-12757
▁Gene	-12758
▁Sank	-12759
▁Salim	-12760
▁moves	-12761
▁undes	-12762
▁wives	-12763
▁Iraqis	-12764
▁checks	-12765
▁layout	-12766
▁telecom	-12767
▁Subraman	-12768
▁shortage	-12769
▁Meanwhile	-12770
▁dictators	-12771
uritisation	-12772
▁Production	-12773
▁nationalism	-12774
▁Corporations	-12775
▁DV	-12776
▁MR	-12777
alai	-12778
wani	-12779
▁Kab	-12780
▁Own	-12781
▁fora	-12782
▁Birth	-12783
company	-12784
legraph	-12785
▁Budget	-12786
▁Robert	-12787
▁catena	-12788
▁loaded	-12789
▁ticket	-12790
▁prudent	-12791
▁barriers	-12792
▁dwelling	-12793
▁interact	-12794
▁aftermath	-12795
▁sanctuary	-12796
▁attributes	-12797
▁invitation	-12798
▁incorporating	-12799
aza	-12800
▁MAN	-12801
▁ost	-12802
▁Kalp	-12803
▁Self	-12804
▁akin	-12805
ughter	-12806
▁River	-12807
▁riots	-12808
▁Garden	-12809
▁redeem	-12810
▁signal	-12811
▁prophet	-12812
aundering	-12813
▁database	-12814
▁hypothes	-12815
▁iniquity	-12816
▁override	-12817
▁presents	-12818
▁concurred	-12819
▁ignorance	-12820
▁licensing	-12821
▁proposing	-12822
▁admissibility	-12823
▁righteousness	-12824
▁DD	-12825
▁MH	-12826
▁dt	-12827
hani	-12828
▁SAT	-12829
urang	-12830
▁Chou	-12831
▁Funds	-12832
▁Latin	-12833
▁bifur	-12834
▁comed	-12835
▁incur	-12836
▁lodge	-12837
essment	-12838
redited	-12839
▁Ansari	-12840
▁Canara	-12841
▁drawer	-12842
▁Complex	-12843
▁marital	-12844
▁talking	-12845
valuation	-12846
▁controls	-12847
▁suitably	-12848
▁nutrition	-12849
▁varieties	-12850
otechnology	-12851
▁domination	-12852
▁elementary	-12853
▁satisfying	-12854
▁neighbouring	-12855
chi	-12856
zed	-12857
▁BH	-12858
quet	-12859
ulla	-12860
▁Cur	-12861
▁Ray	-12862
ument	-12863
▁Kart	-12864
▁SING	-12865
▁boys	-12866
▁fals	-12867
atible	-12868
▁meter	-12869
itating	-12870
ologist	-12871
▁demise	-12872
▁enthusi	-12873
▁unusual	-12874
▁forcibly	-12875
▁symptoms	-12876
▁Democracy	-12877
▁exploited	-12878
▁testified	-12879
▁presenting	-12880
▁restrained	-12881
▁uncertainty	-12882
▁Significantly	-12883
GA	-12884
ISH	-12885
kind	-12886
▁lep	-12887
▁Soft	-12888
▁baby	-12889
▁cher	-12890
▁crew	-12891
▁Peace	-12892
▁naked	-12893
casting	-12894
▁Center	-12895
▁Ukrain	-12896
▁Witness	-12897
▁guiding	-12898
▁refuses	-12899
▁Offences	-12900
▁amenable	-12901
▁disorder	-12902
▁killings	-12903
▁slightly	-12904
▁stranger	-12905
▁totality	-12906
▁assembled	-12907
▁collegium	-12908
▁emergence	-12909
▁perfectly	-12910
▁prolonged	-12911
▁Processing	-12912
▁subxadsection	-12913
ont	-12914
apat	-12915
▁Deg	-12916
▁UPA	-12917
appan	-12918
board	-12919
unger	-12920
▁Best	-12921
▁FIRs	-12922
▁Shan	-12923
▁aven	-12924
▁disg	-12925
▁legs	-12926
▁lend	-12927
▁salt	-12928
▁wire	-12929
backed	-12930
▁Brand	-12931
clauses	-12932
▁Demand	-12933
▁PRANAB	-12934
▁Status	-12935
▁culled	-12936
▁manual	-12937
▁Ayurved	-12938
▁Narendra	-12939
▁calendar	-12940
▁shipping	-12941
▁consortium	-12942
▁devastating	-12943
▁impeachment	-12944
▁administrator	-12945
ECH	-12946
IDC	-12947
conn	-12948
eper	-12949
▁Pot	-12950
▁Ran	-12951
▁bin	-12952
ullah	-12953
▁ally	-12954
▁Notes	-12955
▁reapp	-12956
▁Kumari	-12957
▁ransom	-12958
▁drafted	-12959
▁flowing	-12960
▁Relevant	-12961
▁condoned	-12962
▁drafting	-12963
▁revenues	-12964
▁Allowance	-12965
▁chemicals	-12966
▁delegates	-12967
▁Agreements	-12968
▁attractive	-12969
▁compensate	-12970
▁temporarily	-12971
rac	-12972
▁LJ	-12973
plan	-12974
yers	-12975
▁Kur	-12976
▁LPG	-12977
▁unw	-12978
etted	-12979
hetic	-12980
rible	-12981
▁Mant	-12982
▁ampl	-12983
▁lite	-12984
father	-12985
verted	-12986
▁Greek	-12987
▁bones	-12988
▁gradu	-12989
▁lacks	-12990
▁perce	-12991
▁sweet	-12992
▁remind	-12993
▁surviv	-12994
▁Equally	-12995
▁edition	-12996
▁readily	-12997
▁supreme	-12998
▁assisting	-12999
▁proximity	-13000
▁repugnant	-13001
▁assertions	-13002
▁remarkable	-13003
udd	-13004
▁PG	-13005
▁ix	-13006
▁kh	-13007
veen	-13008
▁Cle	-13009
asamy	-13010
▁Chik	-13011
▁Kesh	-13012
untary	-13013
▁Arjun	-13014
▁Tenth	-13015
▁amply	-13016
▁Island	-13017
▁prerog	-13018
atellite	-13019
▁Levites	-13020
▁stories	-13021
▁wedding	-13022
▁Treasury	-13023
▁describe	-13024
▁suspects	-13025
▁Ramachand	-13026
▁tolerance	-13027
▁approaches	-13028
▁enrichment	-13029
▁solidarity	-13030
▁Independent	-13031
▁practicable	-13032
▁withholding	-13033
▁connectivity	-13034
▁satisfactorily	-13035
uz	-13036
icon	-13037
▁LIF	-13038
amuna	-13039
mised	-13040
▁Manj	-13041
▁Pram	-13042
▁Rath	-13043
▁Sudh	-13044
▁vent	-13045
▁Pawan	-13046
▁Roman	-13047
▁artist	-13048
▁auster	-13049
▁ninety	-13050
▁strive	-13051
▁taught	-13052
▁traced	-13053
erencing	-13054
national	-13055
▁Mizoram	-13056
▁segment	-13057
▁traders	-13058
▁Analysis	-13059
▁Buddhist	-13060
▁Statutes	-13061
▁surprise	-13062
▁telecomm	-13063
▁Exception	-13064
▁hierarchy	-13065
▁connections	-13066
▁conspirator	-13067
▁rectification	-13068
▁Da	-13069
seka	-13070
▁Chak	-13071
▁Hong	-13072
▁ONGC	-13073
▁Succ	-13074
▁Veer	-13075
▁bogus	-13076
itaries	-13077
▁Ground	-13078
▁Pandit	-13079
▁Summit	-13080
▁afflic	-13081
▁merged	-13082
▁Fonseka	-13083
▁Thousand	-13084
▁deletion	-13085
▁patently	-13086
▁singular	-13087
▁withheld	-13088
▁Relations	-13089
▁Universal	-13090
▁displayed	-13091
SR	-13092
ELL	-13093
kal	-13094
pin	-13095
run	-13096
atri	-13097
cles	-13098
illy	-13099
lace	-13100
▁Ary	-13101
▁Bhav	-13102
▁Diff	-13103
▁dust	-13104
akings	-13105
▁SIDBI	-13106
▁STATE	-13107
▁dimin	-13108
▁Geneva	-13109
▁powder	-13110
rastruct	-13111
▁Digital	-13112
▁Subhash	-13113
▁authors	-13114
▁players	-13115
▁Products	-13116
▁accurate	-13117
▁agreeing	-13118
▁intestate	-13119
▁launching	-13120
▁liberties	-13121
▁signatory	-13122
▁equipments	-13123
▁reportedly	-13124
▁fertilizers	-13125
▁abovementioned	-13126
▁HU	-13127
▁AFT	-13128
▁CIT	-13129
▁Nab	-13130
▁Nal	-13131
▁Vim	-13132
ellow	-13133
ostic	-13134
▁Fair	-13135
▁Save	-13136
▁agro	-13137
▁obey	-13138
ranium	-13139
▁Param	-13140
▁Value	-13141
▁inner	-13142
▁mould	-13143
▁breast	-13144
▁dictum	-13145
▁Bahadur	-13146
▁drastic	-13147
▁dwelled	-13148
▁hearings	-13149
▁massacre	-13150
▁shoulder	-13151
▁truthful	-13152
▁Otherwise	-13153
▁austerity	-13154
▁mountains	-13155
▁narration	-13156
▁stringent	-13157
▁Negotiable	-13158
▁absconding	-13159
▁postulated	-13160
▁separatist	-13161
▁circulation	-13162
▁comparative	-13163
▁incompetent	-13164
▁replacement	-13165
▁dictatorship	-13166
▁dissemination	-13167
PCB	-13168
bia	-13169
▁BE	-13170
ahar	-13171
party	-13172
▁Ange	-13173
▁Hill	-13174
▁Selv	-13175
▁hate	-13176
▁Index	-13177
▁Joshi	-13178
▁Swamy	-13179
▁Vishal	-13180
▁booked	-13181
▁overth	-13182
okayukta	-13183
▁neglect	-13184
▁recruit	-13185
▁stained	-13186
▁Recently	-13187
▁convicts	-13188
▁remedial	-13189
▁defective	-13190
▁diversion	-13191
▁wholesale	-13192
▁chauvinist	-13193
▁assassination	-13194
▁ma	-13195
▁ol	-13196
beit	-13197
▁Ayy	-13198
▁IPL	-13199
▁xii	-13200
meric	-13201
▁bund	-13202
▁erad	-13203
▁ryot	-13204
▁twin	-13205
▁debut	-13206
rolling	-13207
service	-13208
▁Assets	-13209
▁buried	-13210
▁challan	-13211
▁dangers	-13212
▁Auditors	-13213
▁Nagaland	-13214
▁evaluate	-13215
▁excludes	-13216
▁holistic	-13217
▁machines	-13218
▁persuade	-13219
▁pertained	-13220
▁Vijayakanth	-13221
▁expeditious	-13222
▁Undertakings	-13223
▁Communication	-13224
lla	-13225
▁Dy	-13226
arus	-13227
atta	-13228
ture	-13229
umen	-13230
▁Kaz	-13231
▁RFP	-13232
▁SER	-13233
▁Squ	-13234
▁edge	-13235
▁laps	-13236
icious	-13237
▁Colon	-13238
▁patta	-13239
▁Wickre	-13240
▁beaten	-13241
▁unload	-13242
▁Kurdish	-13243
▁Pradhan	-13244
▁Strateg	-13245
▁Accident	-13246
▁announce	-13247
▁attendant	-13248
▁Developers	-13249
▁capability	-13250
▁contemnors	-13251
▁invariably	-13252
▁revocation	-13253
▁psychological	-13254
BT	-13255
▁RR	-13256
▁Adh	-13257
▁Bod	-13258
▁Eth	-13259
▁Hez	-13260
▁Pas	-13261
▁rac	-13262
▁rum	-13263
▁Addl	-13264
▁ease	-13265
▁elic	-13266
itored	-13267
▁vigil	-13268
▁wheel	-13269
▁Arabia	-13270
▁curric	-13271
▁dental	-13272
▁hearts	-13273
▁highway	-13274
▁mortgag	-13275
▁Specific	-13276
▁Sundaram	-13277
▁captured	-13278
▁destabil	-13279
▁referend	-13280
▁comparable	-13281
ANJ	-13282
bro	-13283
▁DL	-13284
anki	-13285
bing	-13286
▁Rub	-13287
▁COND	-13288
▁Kand	-13289
▁Subs	-13290
▁boyc	-13291
▁slog	-13292
▁vill	-13293
ensual	-13294
placed	-13295
▁Taluk	-13296
▁meets	-13297
▁penet	-13298
▁prest	-13299
▁Tehran	-13300
▁charter	-13301
▁compete	-13302
▁Assessee	-13303
▁familiar	-13304
▁approving	-13305
▁readiness	-13306
▁harmonious	-13307
▁recognises	-13308
▁backwardness	-13309
▁VS	-13310
nath	-13311
uing	-13312
▁McC	-13313
class	-13314
erion	-13315
▁Cher	-13316
▁Schr	-13317
▁ante	-13318
▁pays	-13319
▁scre	-13320
ubilee	-13321
▁Along	-13322
▁horse	-13323
▁threw	-13324
▁Kalyan	-13325
▁albeit	-13326
▁stable	-13327
▁acceler	-13328
▁nullity	-13329
▁unclean	-13330
▁forensic	-13331
▁impressed	-13332
▁incapacity	-13333
▁liquidator	-13334
▁mechanical	-13335
▁compounding	-13336
▁unconscious	-13337
Un	-13338
bi	-13339
▁q	-13340
ped	-13341
ione	-13342
lers	-13343
▁Haj	-13344
▁ISO	-13345
▁Lab	-13346
adhar	-13347
awati	-13348
▁FOWC	-13349
▁Jack	-13350
▁Sham	-13351
▁caut	-13352
▁http	-13353
▁sine	-13354
artial	-13355
▁Share	-13356
▁raped	-13357
▁Tehsil	-13358
▁castes	-13359
▁ideals	-13360
▁utterly	-13361
continent	-13362
▁explains	-13363
▁meanings	-13364
▁panchayat	-13365
▁Ultimately	-13366
▁confronting	-13367
▁adjudicatory	-13368
gic	-13369
▁SD	-13370
▁ip	-13371
▁Ari	-13372
▁BAN	-13373
▁Hab	-13374
▁Sne	-13375
▁fro	-13376
▁Gian	-13377
▁Term	-13378
▁fron	-13379
tenant	-13380
utting	-13381
▁Surat	-13382
▁nodal	-13383
▁preca	-13384
▁pride	-13385
▁Joshua	-13386
▁Powers	-13387
▁Prison	-13388
▁bright	-13389
▁eleven	-13390
▁Dispute	-13391
▁canteen	-13392
▁carrier	-13393
▁deeming	-13394
▁ethical	-13395
▁outrage	-13396
▁Malaysia	-13397
▁culpable	-13398
▁feelings	-13399
▁rhetoric	-13400
▁succinct	-13401
▁deducting	-13402
▁emphasise	-13403
▁intending	-13404
▁Irrigation	-13405
▁pensionary	-13406
▁Prosecutors	-13407
▁ministerial	-13408
▁preparations	-13409
LAT	-13410
▁SB	-13411
ahan	-13412
arim	-13413
oted	-13414
▁UNC	-13415
▁eru	-13416
▁ram	-13417
▁ric	-13418
etime	-13419
ogues	-13420
▁halt	-13421
▁sees	-13422
▁Above	-13423
▁MSMEs	-13424
▁Sudan	-13425
▁backl	-13426
▁capac	-13427
▁teams	-13428
▁enumer	-13429
▁thanks	-13430
▁earthqu	-13431
▁leprosy	-13432
▁Wildlife	-13433
▁averment	-13434
▁behavior	-13435
▁coercion	-13436
▁objected	-13437
▁survival	-13438
▁anonymity	-13439
▁promoters	-13440
▁reversing	-13441
▁supremacy	-13442
▁certiorari	-13443
▁recoveries	-13444
▁suspicious	-13445
▁provocation	-13446
▁unjustified	-13447
▁fingerprints	-13448
▁illustration	-13449
fl	-13450
२३	-13451
awar	-13452
▁DCP	-13453
▁NIA	-13454
▁NTT	-13455
▁PPP	-13456
▁Ros	-13457
apati	-13458
ropic	-13459
▁Iyer	-13460
▁ears	-13461
▁conqu	-13462
▁email	-13463
▁petrol	-13464
▁therap	-13465
▁waiver	-13466
itorious	-13467
▁crystal	-13468
▁Highways	-13469
▁Whenever	-13470
▁studying	-13471
▁criterion	-13472
▁religions	-13473
▁officially	-13474
▁dispensation	-13475
▁advertisements	-13476
RL	-13477
▁ES	-13478
iyan	-13479
▁CER	-13480
onald	-13481
▁Bash	-13482
▁Benj	-13483
▁Kong	-13484
rupted	-13485
wahati	-13486
▁Charl	-13487
▁Farid	-13488
▁Tower	-13489
▁rigid	-13490
▁Record	-13491
▁Sheikh	-13492
▁attach	-13493
▁coroll	-13494
▁prepon	-13495
izations	-13496
▁Shiksha	-13497
▁earmark	-13498
▁impover	-13499
▁redress	-13500
▁scandal	-13501
▁vacated	-13502
▁whoever	-13503
▁democrat	-13504
▁engaging	-13505
▁procured	-13506
▁adherence	-13507
▁leasehold	-13508
▁monitored	-13509
▁occupying	-13510
▁unanimous	-13511
▁affordable	-13512
▁atrocities	-13513
▁flexibility	-13514
▁importantly	-13515
▁transformed	-13516
▁commissioned	-13517
uan	-13518
▁HO	-13519
▁Ty	-13520
case	-13521
eman	-13522
etus	-13523
yard	-13524
▁Dou	-13525
▁Mud	-13526
▁cod	-13527
itius	-13528
▁Cash	-13529
▁Swar	-13530
▁coup	-13531
▁vacc	-13532
alling	-13533
olving	-13534
orient	-13535
▁Intro	-13536
▁horiz	-13537
▁stick	-13538
▁Poland	-13539
▁hatred	-13540
▁hunger	-13541
▁Captain	-13542
▁circuit	-13543
▁telling	-13544
▁volunte	-13545
Inspector	-13546
▁commuted	-13547
▁reciproc	-13548
▁Applicant	-13549
▁abduction	-13550
▁customary	-13551
▁gradually	-13552
▁intensive	-13553
▁compounded	-13554
▁uniformity	-13555
▁amalgamated	-13556
▁superintend	-13557
▁testimonies	-13558
▁entertainment	-13559
▁inconvenience	-13560
pd	-13561
IES	-13562
IFR	-13563
xic	-13564
▁CH	-13565
comp	-13566
krit	-13567
umes	-13568
▁lin	-13569
▁Cess	-13570
▁diet	-13571
▁temp	-13572
▁Kelly	-13573
▁SINGH	-13574
▁Tribe	-13575
▁naval	-13576
▁older	-13577
chandra	-13578
inction	-13579
▁Circle	-13580
ographer	-13581
▁Bharath	-13582
▁Builders	-13583
▁eventual	-13584
▁highways	-13585
▁reckoned	-13586
▁Essential	-13587
▁Initially	-13588
▁assigning	-13589
▁dimension	-13590
▁displaced	-13591
▁redundant	-13592
▁satisfies	-13593
▁journalist	-13594
▁presidency	-13595
▁Reservation	-13596
▁infrastruct	-13597
▁Applications	-13598
▁celebrations	-13599
▁Notifications	-13600
▁Rehabilitation	-13601
ANT	-13602
cane	-13603
▁MPs	-13604
▁tor	-13605
▁Kant	-13606
▁Misc	-13607
▁Daman	-13608
▁Jeeva	-13609
▁MCOCA	-13610
▁defic	-13611
▁refin	-13612
entieth	-13613
stances	-13614
version	-13615
▁impair	-13616
▁History	-13617
▁helicop	-13618
▁parking	-13619
▁posting	-13620
criptions	-13621
itiveness	-13622
▁Agencies	-13623
▁Graduate	-13624
▁crystall	-13625
▁preamble	-13626
▁borrowers	-13627
▁reception	-13628
▁Institutes	-13629
▁disturbing	-13630
▁indicative	-13631
▁possessing	-13632
▁protracted	-13633
▁accelerated	-13634
▁contradictory	-13635
▁reimbursement	-13636
ECT	-13637
bour	-13638
char	-13639
hati	-13640
ulum	-13641
▁wip	-13642
acles	-13643
ampur	-13644
▁BSNL	-13645
▁Fran	-13646
▁JUST	-13647
▁Same	-13648
▁Wolf	-13649
ispens	-13650
ptions	-13651
▁Swami	-13652
▁cried	-13653
▁maker	-13654
▁turns	-13655
▁Dharam	-13656
▁deeper	-13657
▁picked	-13658
▁undisc	-13659
▁Address	-13660
▁Andaman	-13661
▁disable	-13662
▁streams	-13663
▁maternal	-13664
▁Valuation	-13665
▁appraisal	-13666
▁forfeited	-13667
▁Srivastava	-13668
▁depositing	-13669
▁strategies	-13670
▁Philistines	-13671
▁conciliation	-13672
▁misconceived	-13673
LD	-13674
uar	-13675
▁Bo	-13676
▁IB	-13677
mann	-13678
uros	-13679
▁Ish	-13680
▁Muns	-13681
▁euro	-13682
atinib	-13683
▁SCALE	-13684
▁sixth	-13685
▁elucid	-13686
▁listen	-13687
▁stabil	-13688
▁fitness	-13689
▁oversee	-13690
▁predict	-13691
▁Guwahati	-13692
▁congress	-13693
▁darkness	-13694
▁fraction	-13695
▁inapplic	-13696
▁ordering	-13697
▁Mutawalli	-13698
▁encounter	-13699
▁intimated	-13700
▁maintains	-13701
▁misplaced	-13702
▁threatens	-13703
▁reconsider	-13704
▁accusations	-13705
▁restitution	-13706
▁Conservation	-13707
▁intimidation	-13708
▁confrontation	-13709
▁Reconstruction	-13710
ulf	-13711
uli	-13712
usa	-13713
▁NF	-13714
▁Dri	-13715
▁UMP	-13716
aping	-13717
emark	-13718
useum	-13719
▁Ball	-13720
▁Cant	-13721
▁Mass	-13722
▁NCLT	-13723
isible	-13724
▁Bhart	-13725
▁Himal	-13726
▁Malik	-13727
▁fides	-13728
related	-13729
▁Govind	-13730
▁anomal	-13731
▁intake	-13732
▁sacred	-13733
etheless	-13734
▁fishing	-13735
▁succumb	-13736
▁uranium	-13737
▁Bhagwati	-13738
▁Identity	-13739
▁goodwill	-13740
▁pendente	-13741
appellants	-13742
▁desperate	-13743
▁inquiries	-13744
▁occupancy	-13745
▁realistic	-13746
▁electorate	-13747
▁empowering	-13748
▁inaugurate	-13749
▁phenomenon	-13750
▁Undertaking	-13751
▁prerogative	-13752
lete	-13753
▁Ame	-13754
▁Jha	-13755
▁Vaj	-13756
India	-13757
plant	-13758
shtml	-13759
▁dupl	-13760
▁pump	-13761
eating	-13762
▁Solar	-13763
▁burns	-13764
▁seize	-13765
▁League	-13766
▁demarc	-13767
▁Philipp	-13768
▁bidders	-13769
▁convinc	-13770
▁minimal	-13771
▁pertain	-13772
▁surgery	-13773
▁frequent	-13774
▁implicate	-13775
▁indispens	-13776
▁selecting	-13777
▁sponsored	-13778
▁trademark	-13779
▁capacities	-13780
▁criticised	-13781
▁summarised	-13782
▁seriousness	-13783
ALA	-13784
RTC	-13785
ads	-13786
ias	-13787
ona	-13788
▁AB	-13789
▁Es	-13790
abai	-13791
chen	-13792
▁REL	-13793
▁Dias	-13794
▁Jeth	-13795
▁ward	-13796
idavit	-13797
▁Immed	-13798
▁Animal	-13799
▁Rehman	-13800
▁denoun	-13801
▁repeat	-13802
▁Courses	-13803
▁Dealing	-13804
▁Radhika	-13805
▁booking	-13806
▁reorgan	-13807
▁suburbs	-13808
igibility	-13809
▁Festival	-13810
▁Georgian	-13811
▁fracture	-13812
▁severely	-13813
▁Mauritius	-13814
▁breakdown	-13815
▁dividends	-13816
▁contingent	-13817
▁privileged	-13818
▁confinement	-13819
▁ineffective	-13820
▁inspiration	-13821
▁conspirators	-13822
MK	-13823
EAS	-13824
iler	-13825
uvan	-13826
▁Pap	-13827
▁Rul	-13828
▁cav	-13829
▁Araf	-13830
▁Ital	-13831
▁Forty	-13832
▁blunt	-13833
▁risen	-13834
▁unpro	-13835
▁Lastly	-13836
▁Powell	-13837
▁incarc	-13838
▁robust	-13839
▁tamper	-13840
▁thread	-13841
▁Dhanush	-13842
▁Persian	-13843
▁enlarge	-13844
▁nursing	-13845
▁spheres	-13846
President	-13847
▁Software	-13848
▁importer	-13849
▁adjoining	-13850
▁intrinsic	-13851
▁invocation	-13852
▁kidnapping	-13853
▁citizenship	-13854
▁extradition	-13855
▁methodology	-13856
▁Coordination	-13857
▁architecture	-13858
▁traditionally	-13859
As	-13860
raw	-13861
▁aw	-13862
▁Nil	-13863
ensor	-13864
▁Dutt	-13865
▁Hals	-13866
▁NEET	-13867
▁Roop	-13868
▁lamp	-13869
apters	-13870
asting	-13871
▁Incre	-13872
▁optim	-13873
estions	-13874
▁Grants	-13875
▁Period	-13876
▁Twenty	-13877
▁abnorm	-13878
▁Belarus	-13879
▁Ceiling	-13880
▁Darshan	-13881
▁artists	-13882
▁feeding	-13883
▁harmful	-13884
▁loading	-13885
▁comprise	-13886
▁enquired	-13887
▁sympathy	-13888
▁terminal	-13889
▁Indonesia	-13890
▁infection	-13891
▁assailants	-13892
▁purporting	-13893
▁exercisable	-13894
▁practically	-13895
▁specialized	-13896
▁considerably	-13897
▁constructions	-13898
▁unfortunately	-13899
iana	-13900
▁ANN	-13901
▁Lee	-13902
▁Mac	-13903
naire	-13904
stand	-13905
▁GNCT	-13906
▁bath	-13907
▁Wales	-13908
▁deriv	-13909
▁Arafat	-13910
▁Sriniv	-13911
▁elites	-13912
▁enquire	-13913
▁tenable	-13914
▁enlarged	-13915
▁prophets	-13916
▁celebrate	-13917
▁magazines	-13918
▁resorting	-13919
▁fraternity	-13920
▁hypothesis	-13921
▁intendment	-13922
▁constraints	-13923
▁Conciliation	-13924
▁Departmental	-13925
▁laboratories	-13926
▁unsuccessful	-13927
ASS	-13928
IDA	-13929
lon	-13930
▁SO	-13931
STIT	-13932
ueen	-13933
▁Baj	-13934
▁Dom	-13935
▁TET	-13936
aders	-13937
▁Bose	-13938
▁Braz	-13939
▁View	-13940
rossed	-13941
▁casts	-13942
▁cloth	-13943
▁spell	-13944
▁Diplom	-13945
▁Indore	-13946
▁flight	-13947
▁overla	-13948
▁postal	-13949
▁unfold	-13950
olitical	-13951
▁Lakshmi	-13952
▁analyse	-13953
▁nowhere	-13954
▁patents	-13955
▁plenary	-13956
▁seventh	-13957
▁Halsbury	-13958
▁operator	-13959
▁treaties	-13960
▁veracity	-13961
▁detainees	-13962
▁spreading	-13963
▁casualties	-13964
▁ingredient	-13965
▁dignitaries	-13966
▁disadvantage	-13967
rey	-13968
▁fu	-13969
itis	-13970
▁DSP	-13971
▁lob	-13972
lings	-13973
▁Bhan	-13974
▁Nurs	-13975
▁Sher	-13976
▁appr	-13977
▁navy	-13978
ivance	-13979
▁agony	-13980
▁align	-13981
▁tasks	-13982
▁thumb	-13983
istical	-13984
versity	-13985
▁Bhutto	-13986
▁Pondic	-13987
▁moneys	-13988
▁rebate	-13989
▁Bhagwan	-13990
▁concert	-13991
▁disrupt	-13992
▁lessees	-13993
▁poultry	-13994
▁balances	-13995
▁contacts	-13996
▁fruitful	-13997
▁threaten	-13998
democratic	-13999
▁rectified	-14000
▁assessable	-14001
▁Maintenance	-14002
▁inappropriate	-14003
HU	-14004
had	-14005
▁Bom	-14006
▁Eph	-14007
▁INR	-14008
▁MoU	-14009
▁PSG	-14010
▁STs	-14011
▁UNF	-14012
gging	-14013
pless	-14014
▁Vers	-14015
▁pari	-14016
mander	-14017
▁Films	-14018
▁GNCTD	-14019
▁Kosov	-14020
▁Shant	-14021
▁bonus	-14022
▁genes	-14023
▁globe	-14024
▁ruler	-14025
▁smote	-14026
▁Custom	-14027
▁lastly	-14028
▁pardon	-14029
isheries	-14030
▁harness	-14031
▁inhuman	-14032
▁strange	-14033
▁Benjamin	-14034
▁Mahendra	-14035
▁annually	-14036
▁terrible	-14037
▁Chemicals	-14038
▁Elections	-14039
▁Purchaser	-14040
▁physician	-14041
▁realities	-14042
▁recipient	-14043
▁rehabilit	-14044
▁circulated	-14045
▁subsisting	-14046
▁affirmation	-14047
▁counselling	-14048
▁facilitated	-14049
▁handicapped	-14050
▁dissatisfied	-14051
Res	-14052
ogy	-14053
▁pa	-14054
aire	-14055
isor	-14056
orum	-14057
▁Imm	-14058
▁Naw	-14059
hotra	-14060
▁Coll	-14061
▁Hezb	-14062
▁Next	-14063
▁coff	-14064
▁hide	-14065
▁warn	-14066
establ	-14067
osures	-14068
▁Mathe	-14069
▁Shafi	-14070
▁calam	-14071
▁sworn	-14072
▁veter	-14073
▁Parish	-14074
▁Pratap	-14075
▁Search	-14076
▁affair	-14077
▁habeas	-14078
▁rulers	-14079
obstante	-14080
▁Circuit	-14081
▁JUSTICE	-14082
▁charity	-14083
▁genetic	-14084
▁reinfor	-14085
▁Medicine	-14086
▁attested	-14087
▁boundary	-14088
▁lawfully	-14089
▁railways	-14090
▁treasury	-14091
▁Sanctuary	-14092
▁contempor	-14093
▁deviation	-14094
▁describing	-14095
▁surprising	-14096
▁Pondicherry	-14097
▁trustworthy	-14098
ios	-14099
▁Py	-14100
fold	-14101
▁Diu	-14102
acies	-14103
payee	-14104
urial	-14105
▁Muth	-14106
▁NCTE	-14107
▁perv	-14108
▁Abbas	-14109
▁irrig	-14110
▁outer	-14111
▁reaff	-14112
▁shame	-14113
etitive	-14114
▁Mental	-14115
▁admits	-14116
▁buying	-14117
▁Defense	-14118
▁cluster	-14119
▁elderly	-14120
▁revenge	-14121
▁touched	-14122
▁advisory	-14123
▁erection	-14124
▁lifetime	-14125
▁occupier	-14126
▁passages	-14127
▁Commander	-14128
▁Bankruptcy	-14129
▁directives	-14130
▁executives	-14131
▁invalidity	-14132
▁Disabilities	-14133
▁inapplicable	-14134
▁apportionment	-14135
hor	-14136
occ	-14137
raud	-14138
▁Ern	-14139
▁Ste	-14140
▁nep	-14141
EMENT	-14142
inghe	-14143
isers	-14144
▁Gill	-14145
▁Sach	-14146
▁cord	-14147
▁grew	-14148
▁synd	-14149
usible	-14150
▁Occup	-14151
▁Which	-14152
▁grain	-14153
ettered	-14154
ulously	-14155
▁Brazil	-14156
▁Editor	-14157
▁Pandya	-14158
▁cubits	-14159
▁handle	-14160
▁legacy	-14161
▁revise	-14162
▁Farmers	-14163
▁mankind	-14164
▁vibrant	-14165
▁preceded	-14166
▁punitive	-14167
ailability	-14168
▁attribute	-14169
▁indulging	-14170
▁provinces	-14171
▁reservoir	-14172
▁connivance	-14173
▁realisation	-14174
▁transmitted	-14175
▁legitimately	-14176
▁commissioning	-14177
CD	-14178
agi	-14179
erb	-14180
rmal	-14181
▁Pai	-14182
▁SCs	-14183
comes	-14184
uriam	-14185
▁Khas	-14186
▁NHRC	-14187
▁Shet	-14188
▁Phase	-14189
▁Space	-14190
▁Stamp	-14191
▁cargo	-14192
atorium	-14193
hedules	-14194
verting	-14195
▁Curiae	-14196
▁Merkel	-14197
▁campus	-14198
▁Facilit	-14199
▁Italian	-14200
▁induced	-14201
▁passion	-14202
▁Sanskrit	-14203
▁Srikanth	-14204
▁absorbed	-14205
▁educated	-14206
▁repelled	-14207
▁ancestral	-14208
▁apartment	-14209
▁possesses	-14210
▁precluded	-14211
▁Activities	-14212
▁fabricated	-14213
▁surrounded	-14214
▁depositions	-14215
▁upgradation	-14216
▁possibilities	-14217
ANCE	-14218
usuf	-14219
▁Bor	-14220
▁VAT	-14221
▁exh	-14222
▁Ajit	-14223
▁Corp	-14224
▁Holy	-14225
▁Kala	-14226
▁Ling	-14227
▁prag	-14228
▁stig	-14229
employ	-14230
illery	-14231
itudes	-14232
▁Indra	-14233
▁Karun	-14234
▁Music	-14235
▁Sonia	-14236
▁loyal	-14237
▁taxed	-14238
▁unreg	-14239
▁Recogn	-14240
▁Sundar	-14241
▁entail	-14242
▁Kalpana	-14243
▁chooses	-14244
▁revived	-14245
▁Imatinib	-14246
▁Vajpayee	-14247
▁breached	-14248
▁conjoint	-14249
▁Hezbollah	-14250
▁describes	-14251
▁Succession	-14252
▁coordinate	-14253
▁distribute	-14254
▁justifying	-14255
▁yourselves	-14256
HS	-14257
LI	-14258
iac	-14259
thy	-14260
ande	-14261
ishi	-14262
star	-14263
vind	-14264
▁Inj	-14265
▁Raw	-14266
roots	-14267
▁HPCL	-14268
▁hind	-14269
▁rope	-14270
▁Sagar	-14271
▁delic	-14272
▁hills	-14273
▁Bhagat	-14274
▁Former	-14275
▁Rohini	-14276
▁barbar	-14277
▁indiff	-14278
▁worshi	-14279
mesinghe	-14280
▁coastal	-14281
▁incomes	-14282
▁salient	-14283
▁Material	-14284
▁bombings	-14285
▁dealings	-14286
▁feasible	-14287
▁limiting	-14288
▁planting	-14289
▁Operation	-14290
▁commander	-14291
▁perpetual	-14292
▁specifies	-14293
▁Accountant	-14294
▁succinctly	-14295
▁contracting	-14296
▁exploration	-14297
▁meritorious	-14298
▁disobedience	-14299
DL	-14300
▁SW	-14301
obar	-14302
▁Sep	-14303
▁Yak	-14304
affar	-14305
▁UPFA	-14306
▁ages	-14307
▁exag	-14308
▁flaw	-14309
▁pose	-14310
▁sket	-14311
▁Kiran	-14312
▁Degree	-14313
▁Medium	-14314
▁Mother	-14315
▁hidden	-14316
▁landed	-14317
▁rubber	-14318
▁stocks	-14319
▁trusts	-14320
▁Comment	-14321
▁Telecom	-14322
▁brevity	-14323
▁construe	-14324
▁convened	-14325
▁detected	-14326
▁detaining	-14327
▁slaughter	-14328
▁Automobile	-14329
▁Individual	-14330
▁chauvinism	-14331
▁clearances	-14332
▁transition	-14333
▁Convocation	-14334
▁anticipated	-14335
▁undisclosed	-14336
▁constituencies	-14337
▁infrastructural	-14338
lad	-14339
noon	-14340
omed	-14341
▁Bin	-14342
cated	-14343
▁Pars	-14344
▁cure	-14345
▁unim	-14346
▁gunny	-14347
Hussain	-14348
▁Making	-14349
▁Tiwari	-14350
▁broadc	-14351
▁cancer	-14352
ologists	-14353
▁Bhaskar	-14354
▁Ukraine	-14355
▁relinqu	-14356
▁revoked	-14357
▁messages	-14358
▁tourists	-14359
controlled	-14360
▁corollary	-14361
▁earmarked	-14362
▁exemplary	-14363
▁prevailed	-14364
▁referable	-14365
▁perversity	-14366
▁sustaining	-14367
▁obstruction	-14368
▁subscribers	-14369
▁intermediate	-14370
▁Wickremesinghe	-14371
२४	-14372
iro	-14373
orr	-14374
tar	-14375
▁GU	-14376
▁Pa	-14377
▁Wa	-14378
▁sr	-14379
▁Hit	-14380
▁bun	-14381
oused	-14382
▁Shim	-14383
▁foul	-14384
▁parl	-14385
ivious	-14386
▁Yusuf	-14387
▁imply	-14388
▁trite	-14389
otropic	-14390
▁plight	-14391
▁Cricket	-14392
▁pillars	-14393
▁homicide	-14394
▁weakness	-14395
▁Sathyaraj	-14396
▁forgotten	-14397
▁mortgagor	-14398
▁abundantly	-14399
▁consensual	-14400
▁occasioned	-14401
▁referendum	-14402
▁restrictive	-14403
[...]
