<unk>	0
<s>	0
</s>	0
UuRrLl	0
DdAaTtEe	0
NnUuMm	0
▁t	-0
he	-1
▁a	-2
▁the	-3
▁o	-4
in	-5
on	-6
re	-7
at	-8
er	-9
▁of	-10
en	-11
ed	-12
is	-13
▁c	-14
it	-15
▁s	-16
ion	-17
▁p	-18
nd	-19
▁b	-20
▁w	-21
▁in	-22
al	-23
or	-24
es	-25
▁f	-26
▁to	-27
ar	-28
an	-29
ing	-30
ent	-31
as	-32
ic	-33
▁d	-34
ou	-35
▁and	-36
ct	-37
▁re	-38
▁th	-39
▁m	-40
ro	-41
le	-42
▁be	-43
▁h	-44
▁C	-45
▁n	-46
st	-47
ation	-48
▁e	-49
▁is	-50
▁T	-51
▁S	-52
ce	-53
id	-54
▁A	-55
▁that	-56
ot	-57
ment	-58
ut	-59
om	-60
ll	-61
▁I	-62
ve	-63
▁con	-64
▁for	-65
se	-66
▁or	-67
▁by	-68
▁on	-69
▁as	-70
pp	-71
▁u	-72
ri	-73
ly	-74
▁pro	-75
▁su	-76
▁l	-77
ad	-78
our	-79
▁de	-80
▁(	-81
ate	-82
▁The	-83
▁an	-84
ur	-85
im	-86
▁P	-87
▁not	-88
ch	-89
il	-90
▁wh	-91
▁app	-92
▁was	-93
ant	-94
her	-95
ver	-96
ourt	-97
▁wit	-98
ter	-99
▁g	-100
ect	-101
ig	-102
ra	-103
▁it	-104
ld	-105
ow	-106
if	-107
▁with	-108
ay	-109
et	-110
▁M	-111
▁R	-112
ere	-113
▁ex	-114
ir	-115
ain	-116
▁Court	-117
qu	-118
ab	-119
ers	-120
am	-121
res	-122
ul	-123
ud	-124
▁H	-125
ess	-126
▁st	-127
nder	-128
▁com	-129
▁v	-130
us	-131
▁B	-132
▁under	-133
ich	-134
▁D	-135
ity	-136
▁has	-137
ge	-138
▁which	-139
▁N	-140
ther	-141
ol	-142
▁he	-143
and	-144
ated	-145
▁sh	-146
est	-147
ions	-148
▁are	-149
▁this	-150
▁al	-151
ist	-152
ak	-153
os	-154
ec	-155
▁ac	-156
▁le	-157
ore	-158
end	-159
iv	-160
▁appe	-161
▁G	-162
▁res	-163
ould	-164
▁any	-165
▁ha	-166
art	-167
ence	-168
od	-169
▁at	-170
ive	-171
ial	-172
▁cas	-173
ies	-174
rom	-175
nt	-176
red	-177
▁j	-178
all	-179
ice	-180
gh	-181
▁In	-182
ted	-183
▁sub	-184
▁from	-185
ition	-186
ust	-187
▁cont	-188
um	-189
igh	-190
ard	-191
▁been	-192
▁have	-193
la	-194
em	-195
ort	-196
ure	-197
▁O	-198
▁prov	-199
un	-200
pon	-201
▁there	-202
▁L	-203
▁J	-204
ance	-205
pl	-206
able	-207
▁Act	-208
aid	-209
▁dis	-210
ction	-211
▁whe	-212
so	-213
▁fa	-214
▁such	-215
▁St	-216
ff	-217
ia	-218
ord	-219
▁case	-220
▁E	-221
ie	-222
over	-223
▁per	-224
▁acc	-225
ned	-226
ution	-227
▁W	-228
ill	-229
▁ad	-230
▁F	-231
lic	-232
ary	-233
▁Ind	-234
▁im	-235
stit	-236
mis	-237
mit	-238
▁int	-239
der	-240
llant	-241
fore	-242
▁ag	-243
▁other	-244
sion	-245
per	-246
th	-247
▁part	-248
▁also	-249
pt	-250
oc	-251
ire	-252
▁we	-253
▁It	-254
su	-255
▁all	-256
▁comp	-257
cl	-258
▁appellant	-259
ru	-260
erv	-261
▁ab	-262
▁cons	-263
▁ch	-264
aw	-265
▁can	-266
overn	-267
▁rec	-268
ee	-269
ame	-270
erson	-271
ght	-272
▁ar	-273
▁had	-274
ous	-275
ade	-276
op	-277
▁y	-278
▁State	-279
▁High	-280
▁en	-281
du	-282
ear	-283
▁off	-284
▁no	-285
▁ev	-286
▁were	-287
..	-288
▁person	-289
▁imp	-290
▁would	-291
ag	-292
▁order	-293
▁may	-294
▁his	-295
ount	-296
▁dec	-297
ations	-298
ac	-299
▁shall	-300
▁jud	-301
age	-302
ection	-303
ision	-304
ied	-305
▁Com	-306
▁Con	-307
min	-308
sed	-309
overnment	-310
▁qu	-311
▁K	-312
pond	-313
rou	-314
▁reg	-315
ict	-316
▁Th	-317
▁U	-318
▁India	-319
ced	-320
ip	-321
ib	-322
▁No	-323
▁am	-324
▁ob	-325
ide	-326
ub	-327
▁rel	-328
fter	-329
pondent	-330
ree	-331
fer	-332
stitution	-333
▁made	-334
▁“	-335
▁se	-336
▁said	-337
▁sp	-338
ific	-339
▁law	-340
used	-341
ject	-342
▁its	-343
▁ri	-344
▁un	-345
pect	-346
orm	-347
ran	-348
▁who	-349
▁Government	-350
▁tak	-351
▁ne	-352
▁pre	-353
▁mat	-354
▁De	-355
ome	-356
ident	-357
sel	-358
use	-359
ments	-360
ind	-361
oin	-362
oun	-363
▁fact	-364
▁pres	-365
rib	-366
etition	-367
ces	-368
▁-	-369
ry	-370
ered	-371
mission	-372
▁Re	-373
ose	-374
iz	-375
▁out	-376
ha	-377
▁right	-378
me	-379
▁respondent	-380
ical	-381
▁year	-382
▁do	-383
ult	-384
▁rep	-385
tain	-386
▁me	-387
iew	-388
▁their	-389
▁before	-390
fere	-391
ise	-392
mitted	-393
ove	-394
▁,	-395
▁r	-396
▁issu	-397
▁only	-398
ty	-399
▁consid	-400
▁judg	-401
ail	-402
pos	-403
▁pur	-404
▁dated	-405
▁ind	-406
▁court	-407
ost	-408
uth	-409
▁if	-410
▁ent	-411
oll	-412
ime	-413
ory	-414
isions	-415
▁so	-416
rit	-417
ious	-418
ish	-419
ile	-420
ates	-421
▁again	-422
ue	-423
▁inv	-424
▁V	-425
form	-426
▁where	-427
▁inc	-428
▁cla	-429
out	-430
▁will	-431
.0	-432
▁one	-433
▁requ	-434
irect	-435
▁inter	-436
▁same	-437
▁applic	-438
▁lear	-439
▁accused	-440
ract	-441
uthor	-442
▁|	-443
ings	-444
ual	-445
istr	-446
▁ass	-447
▁man	-448
ating	-449
ber	-450
▁time	-451
▁ca	-452
▁petition	-453
og	-454
▁k	-455
▁em	-456
▁As	-457
▁but	-458
ong	-459
che	-460
ublic	-461
▁learned	-462
ention	-463
▁def	-464
ities	-465
cc	-466
▁fil	-467
clud	-468
▁SC	-469
ollow	-470
▁against	-471
ach	-472
▁leg	-473
▁held	-474
one	-475
▁being	-476
▁pas	-477
ceed	-478
▁follow	-479
▁exp	-480
▁after	-481
ine	-482
▁Jud	-483
▁pl	-484
urther	-485
▁should	-486
ased	-487
ason	-488
ood	-489
ative	-490
▁pow	-491
▁view	-492
idence	-493
▁Constitution	-494
),	-495
ci	-496
▁appeal	-497
vel	-498
rans	-499
▁pos	-500
not	-501
▁act	-502
▁judgment	-503
▁serv	-504
▁Ch	-505
▁matter	-506
ax	-507
eral	-508
▁provisions	-509
ork	-510
▁'	-511
▁This	-512
ferred	-513
▁spec	-514
ens	-515
▁comm	-516
act	-517
▁pr	-518
ward	-519
ign	-520
nce	-521
oint	-522
▁mak	-523
▁pay	-524
▁tw	-525
ound	-526
▁ter	-527
▁giv	-528
oy	-529
▁coun	-530
cy	-531
▁land	-532
▁Pro	-533
ational	-534
ffect	-535
▁quest	-536
▁record	-537
▁into	-538
ute	-539
are	-540
▁they	-541
▁reason	-542
ided	-543
▁cannot	-544
▁him	-545
▁proceed	-546
ged	-547
rial	-548
▁Sh	-549
▁proper	-550
old	-551
▁direct	-552
ok	-553
▁filed	-554
▁trans	-555
▁author	-556
▁li	-557
ved	-558
ving	-559
▁respect	-560
aint	-561
ility	-562
ified	-563
▁We	-564
▁op	-565
ature	-566
▁when	-567
▁two	-568
▁set	-569
ors	-570
▁‘	-571
▁conc	-572
lect	-573
▁consider	-574
▁evidence	-575
....	-576
ness	-577
▁further	-578
we	-579
iction	-580
▁.	-581
▁pla	-582
▁ext	-583
hed	-584
▁above	-585
▁our	-586
▁pol	-587
▁appro	-588
ast	-589
▁He	-590
▁Su	-591
own	-592
▁counsel	-593
▁must	-594
▁pri	-595
ession	-596
▁There	-597
med	-598
▁char	-599
ase	-600
led	-601
ath	-602
ular	-603
▁SCC	-604
ral	-605
rant	-606
▁bet	-607
▁public	-608
ired	-609
▁taken	-610
▁years	-611
▁regard	-612
ffic	-613
▁state	-614
▁includ	-615
erest	-616
el	-617
very	-618
▁[	-619
ised	-620
ally	-621
cept	-622
erc	-623
▁question	-624
▁Un	-625
▁Ex	-626
ever	-627
irst	-628
▁present	-629
▁within	-630
ms	-631
isl	-632
▁them	-633
ible	-634
ph	-635
▁decision	-636
▁upon	-637
▁work	-638
wn	-639
▁power	-640
▁these	-641
▁amount	-642
ian	-643
pre	-644
bit	-645
▁over	-646
arl	-647
▁Rs	-648
iod	-649
▁Ben	-650
ond	-651
▁interest	-652
▁whether	-653
ploy	-654
ended	-655
ank	-656
ild	-657
▁bec	-658
▁On	-659
▁period	-660
▁App	-661
ween	-662
▁up	-663
ges	-664
▁cl	-665
ification	-666
ight	-667
rimin	-668
any	-669
▁could	-670
aj	-671
velop	-672
▁between	-673
▁cle	-674
▁dif	-675
▁Section	-676
▁given	-677
▁sec	-678
▁well	-679
▁her	-680
mitt	-681
icial	-682
sec	-683
▁Commission	-684
).	-685
ustice	-686
its	-687
ules	-688
▁val	-689
▁Sing	-690
ited	-691
uring	-692
▁effect	-693
▁application	-694
▁submitted	-695
ecess	-696
▁compl	-697
ven	-698
duct	-699
ference	-700
ite	-701
▁bas	-702
irc	-703
▁mar	-704
▁writ	-705
▁claim	-706
ices	-707
▁concer	-708
▁passed	-709
▁grou	-710
ex	-711
▁supp	-712
▁disc	-713
▁att	-714
▁therefore	-715
▁persons	-716
ief	-717
▁poss	-718
pri	-719
▁clear	-720
▁Cent	-721
▁exam	-722
▁par	-723
ug	-724
▁PW	-725
▁cases	-726
▁rem	-727
ined	-728
und	-729
owever	-730
▁grant	-731
ances	-732
ior	-733
stru	-734
serv	-735
▁Mr	-736
hi	-737
▁even	-738
▁0	-739
▁date	-740
▁cer	-741
▁Pres	-742
▁first	-743
▁necess	-744
▁employ	-745
ale	-746
gu	-747
▁ra	-748
▁than	-749
▁Ad	-750
▁mean	-751
dition	-752
▁accord	-753
▁invest	-754
▁Bench	-755
▁mem	-756
▁read	-757
▁rele	-758
pose	-759
ily	-760
abl	-761
rad	-762
av	-763
▁prin	-764
▁fin	-765
▁sent	-766
ife	-767
▁circ	-768
▁inform	-769
ef	-770
▁suit	-771
oth	-772
eneral	-773
por	-774
▁does	-775
ays	-776
▁Judge	-777
▁cor	-778
▁more	-779
▁referred	-780
cess	-781
▁Ar	-782
rough	-783
▁stat	-784
xad	-785
▁est	-786
aring	-787
ack	-788
▁section	-789
itions	-790
▁observ	-791
part	-792
▁Min	-793
▁conf	-794
vant	-795
ass	-796
▁partic	-797
▁stated	-798
▁form	-799
▁offence	-800
unal	-801
▁prosec	-802
riminal	-803
port	-804
▁find	-805
▁te	-806
ash	-807
ress	-808
▁property	-809
▁appellants	-810
▁deal	-811
bitr	-812
▁while	-813
▁parties	-814
▁subject	-815
▁through	-816
ap	-817
▁An	-818
▁President	-819
ribunal	-820
▁exerc	-821
uris	-822
vers	-823
▁following	-824
ke	-825
▁min	-826
▁some	-827
▁allow	-828
▁/	-829
▁purpose	-830
▁tax	-831
▁without	-832
uted	-833
ull	-834
▁about	-835
con	-836
miss	-837
har	-838
ained	-839
▁&	-840
▁count	-841
▁Central	-842
▁af	-843
igation	-844
ores	-845
▁legisl	-846
mittee	-847
ees	-848
▁Appe	-849
▁var	-850
▁good	-851
▁proceedings	-852
ient	-853
▁av	-854
clus	-855
ater	-856
ep	-857
▁Singh	-858
ough	-859
▁acqu	-860
▁circum	-861
▁agree	-862
▁report	-863
▁concerned	-864
▁make	-865
▁trial	-866
ric	-867
ix	-868
te	-869
▁basis	-870
▁facts	-871
▁hold	-872
▁rece	-873
▁mon	-874
▁ro	-875
▁ground	-876
▁provision	-877
▁juris	-878
▁soc	-879
ner	-880
velopment	-881
ivil	-882
▁ben	-883
▁found	-884
oresaid	-885
▁issued	-886
▁aforesaid	-887
▁witness	-888
▁authority	-889
hal	-890
▁us	-891
▁sc	-892
▁circumst	-893
▁own	-894
▁gu	-895
ety	-896
ural	-897
▁disp	-898
▁Reg	-899
▁issue	-900
ries	-901
eg	-902
▁ord	-903
sequ	-904
▁des	-905
▁ret	-906
ability	-907
ished	-908
pra	-909
▁contract	-910
▁required	-911
▁Res	-912
▁necessary	-913
▁need	-914
ince	-915
ting	-916
▁bel	-917
bers	-918
ferent	-919
anc	-920
cil	-921
enior	-922
diction	-923
section	-924
▁Indian	-925
▁post	-926
▁then	-927
▁here	-928
▁Or	-929
▁appoint	-930
▁process	-931
edu	-932
▁hand	-933
▁award	-934
▁new	-935
ith	-936
hip	-937
▁word	-938
▁clause	-939
▁account	-940
▁Whe	-941
urn	-942
▁service	-943
ew	-944
PC	-945
▁deter	-946
▁having	-947
▁jurisdiction	-948
▁del	-949
iff	-950
▁stand	-951
▁occ	-952
ode	-953
▁Shri	-954
▁different	-955
▁those	-956
▁rev	-957
▁both	-958
▁three	-959
ality	-960
ption	-961
▁down	-962
▁take	-963
▁name	-964
▁establ	-965
cheme	-966
▁Offic	-967
▁consideration	-968
▁ins	-969
▁benef	-970
▁relevant	-971
crib	-972
▁Committee	-973
▁place	-974
ceased	-975
tic	-976
▁exec	-977
self	-978
half	-979
ister	-980
ks	-981
erial	-982
iness	-983
▁notice	-984
▁car	-985
▁Tribunal	-986
ither	-987
▁behalf	-988
▁petitioner	-989
▁aff	-990
▁tre	-991
ii	-992
ouse	-993
▁considered	-994
other	-995
▁terms	-996
▁provid	-997
▁offic	-998
ital	-999
▁kn	-1000
ency	-1001
▁arbitr	-1002
▁determin	-1003
cip	-1004
▁:	-1005
▁death	-1006
ody	-1007
▁circumstances	-1008
oard	-1009
▁did	-1010
leg	-1011
▁various	-1012
esh	-1013
▁prosecution	-1014
▁avail	-1015
of	-1016
▁lim	-1017
uty	-1018
▁conv	-1019
man	-1020
▁dem	-1021
lement	-1022
▁deceased	-1023
▁col	-1024
▁provided	-1025
ences	-1026
ants	-1027
tern	-1028
ts	-1029
chn	-1030
▁like	-1031
supra	-1032
raph	-1033
after	-1034
▁co	-1035
▁pe	-1036
▁Del	-1037
▁object	-1038
ren	-1039
ized	-1040
onment	-1041
▁during	-1042
▁oper	-1043
▁rights	-1044
IR	-1045
▁material	-1046
▁prev	-1047
▁opin	-1048
ocu	-1049
▁particular	-1050
ointed	-1051
ures	-1052
▁Rules	-1053
ination	-1054
▁dist	-1055
ending	-1056
▁information	-1057
omm	-1058
▁equ	-1059
▁Ru	-1060
▁she	-1061
▁inst	-1062
ier	-1063
▁Acc	-1064
ause	-1065
ents	-1066
▁statement	-1067
▁what	-1068
▁company	-1069
▁certain	-1070
lection	-1071
▁including	-1072
▁nature	-1073
▁However	-1074
cedure	-1075
ret	-1076
ful	-1077
▁adv	-1078
▁Delhi	-1079
▁opinion	-1080
ram	-1081
▁det	-1082
▁docu	-1083
▁agreement	-1084
▁conduct	-1085
▁num	-1086
▁inj	-1087
▁legal	-1088
▁If	-1089
▁life	-1090
▁comple	-1091
▁Sec	-1092
▁non	-1093
▁bus	-1094
▁month	-1095
▁produ	-1096
▁sit	-1097
▁priv	-1098
allen	-1099
▁main	-1100
olog	-1101
aintiff	-1102
ages	-1103
ring	-1104
/-	-1105
▁Coun	-1106
▁contin	-1107
▁import	-1108
▁exist	-1109
▁see	-1110
▁En	-1111
▁used	-1112
iety	-1113
▁Rule	-1114
▁Comp	-1115
han	-1116
▁manner	-1117
▁rest	-1118
▁respondents	-1119
ov	-1120
▁For	-1121
ogn	-1122
▁mention	-1123
▁Sp	-1124
arlia	-1125
▁cond	-1126
ourse	-1127
arliament	-1128
ople	-1129
▁med	-1130
icy	-1131
ived	-1132
▁Chief	-1133
▁et	-1134
▁sy	-1135
▁Board	-1136
▁each	-1137
▁Cha	-1138
sequent	-1139
▁bu	-1140
▁vi	-1141
▁cro	-1142
▁prot	-1143
▁senior	-1144
▁exercise	-1145
ising	-1146
▁because	-1147
ars	-1148
▁Justice	-1149
.,	-1150
ave	-1151
▁income	-1152
ivid	-1153
read	-1154
ati	-1155
ivers	-1156
▁challen	-1157
▁ref	-1158
▁etc	-1159
▁Code	-1160
▁entit	-1161
arge	-1162
▁ru	-1163
posed	-1164
▁tr	-1165
▁members	-1166
▁expres	-1167
▁sale	-1168
▁constru	-1169
▁pun	-1170
preme	-1171
▁due	-1172
▁country	-1173
▁constitution	-1174
▁abs	-1175
gan	-1176
▁observed	-1177
▁princip	-1178
less	-1179
ugned	-1180
▁Union	-1181
atory	-1182
bt	-1183
▁criminal	-1184
▁far	-1185
▁goods	-1186
▁tra	-1187
▁action	-1188
cipl	-1189
▁show	-1190
stem	-1191
▁police	-1192
▁fund	-1193
ning	-1194
see	-1195
the	-1196
tal	-1197
▁cap	-1198
▁impugned	-1199
▁prom	-1200
▁Parliament	-1201
▁cre	-1202
▁Supreme	-1203
cation	-1204
▁result	-1205
▁Wh	-1206
▁call	-1207
........	-1208
▁use	-1209
ives	-1210
▁business	-1211
▁thus	-1212
ble	-1213
ulation	-1214
▁test	-1215
cribed	-1216
priate	-1217
▁fun	-1218
▁reference	-1219
▁compens	-1220
▁inf	-1221
les	-1222
▁allowed	-1223
▁payment	-1224
▁way	-1225
▁charge	-1226
orpor	-1227
ator	-1228
▁argu	-1229
▁let	-1230
partment	-1231
▁judicial	-1232
▁fra	-1233
▁specific	-1234
ook	-1235
▁Ag	-1236
▁pen	-1237
ateg	-1238
▁child	-1239
▁development	-1240
▁number	-1241
iry	-1242
▁require	-1243
▁people	-1244
▁i	-1245
▁possession	-1246
endment	-1247
▁Pol	-1248
▁since	-1249
lig	-1250
ob	-1251
ify	-1252
ES	-1253
▁sim	-1254
istrict	-1255
▁sentence	-1256
▁available	-1257
ividual	-1258
▁Man	-1259
▁earl	-1260
osed	-1261
▁recorded	-1262
▁according	-1263
ivision	-1264
istration	-1265
▁pass	-1266
ft	-1267
ma	-1268
ris	-1269
row	-1270
tra	-1271
als	-1272
clusion	-1273
▁assess	-1274
▁fail	-1275
▁paid	-1276
▁apply	-1277
▁words	-1278
▁just	-1279
▁invol	-1280
tained	-1281
▁every	-1282
▁plaintiff	-1283
▁day	-1284
▁add	-1285
par	-1286
iance	-1287
▁very	-1288
stitut	-1289
▁ident	-1290
▁situ	-1291
▁appointment	-1292
ately	-1293
▁entitled	-1294
:-	-1295
▁punish	-1296
▁individual	-1297
▁Mar	-1298
ket	-1299
▁services	-1300
ecial	-1301
▁OF	-1302
▁duty	-1303
reed	-1304
agraph	-1305
▁subst	-1306
▁opp	-1307
▁party	-1308
▁appropriate	-1309
▁prof	-1310
▁Y	-1311
▁edu	-1312
▁Law	-1313
▁expl	-1314
▁Courts	-1315
ai	-1316
▁ple	-1317
atis	-1318
▁defend	-1319
▁viol	-1320
jud	-1321
▁based	-1322
ready	-1323
▁area	-1324
▁pract	-1325
▁orders	-1326
▁either	-1327
▁already	-1328
▁back	-1329
▁earlier	-1330
resent	-1331
▁Am	-1332
▁investigation	-1333
ys	-1334
▁another	-1335
rol	-1336
▁ten	-1337
▁conditions	-1338
▁recomm	-1339
▁justice	-1340
ext	-1341
▁National	-1342
▁promot	-1343
▁Therefore	-1344
▁sum	-1345
▁Bank	-1346
for	-1347
▁Officer	-1348
▁dra	-1349
▁complaint	-1350
atisf	-1351
00	-1352
▁making	-1353
▁fore	-1354
▁At	-1355
▁compensation	-1356
ah	-1357
ancial	-1358
AR	-1359
▁contained	-1360
unity	-1361
▁second	-1362
▁statut	-1363
▁special	-1364
ang	-1365
TI	-1366
ought	-1367
inal	-1368
▁go	-1369
▁granted	-1370
▁mentioned	-1371
▁States	-1372
▁Sub	-1373
▁indust	-1374
▁along	-1375
uk	-1376
▁fav	-1377
▁follows	-1378
king	-1379
▁laid	-1380
▁letter	-1381
▁appeals	-1382
▁itself	-1383
ilar	-1384
▁system	-1385
▁policy	-1386
ctions	-1387
▁cent	-1388
▁came	-1389
▁committed	-1390
app	-1391
▁scheme	-1392
▁Raj	-1393
alth	-1394
pted	-1395
▁General	-1396
▁Division	-1397
wise	-1398
ten	-1399
▁means	-1400
▁init	-1401
▁general	-1402
▁er	-1403
▁principle	-1404
▁cause	-1405
ditional	-1406
▁favour	-1407
ON	-1408
ines	-1409
▁placed	-1410
▁position	-1411
▁mer	-1412
▁ph	-1413
▁reasons	-1414
▁All	-1415
▁value	-1416
ple	-1417
▁end	-1418
▁ve	-1419
essee	-1420
▁loc	-1421
▁support	-1422
▁course	-1423
EN	-1424
ss	-1425
▁provide	-1426
here	-1427
▁bl	-1428
▁satisf	-1429
▁powers	-1430
▁Council	-1431
▁matters	-1432
▁relating	-1433
eep	-1434
hav	-1435
ested	-1436
ER	-1437
▁mis	-1438
▁Not	-1439
▁cost	-1440
▁rule	-1441
▁Minister	-1442
▁though	-1443
by	-1444
pons	-1445
itation	-1446
▁Sche	-1447
▁techn	-1448
anding	-1449
▁Leg	-1450
▁dou	-1451
uman	-1452
andid	-1453
▁Civil	-1454
▁days	-1455
▁officer	-1456
▁you	-1457
▁represent	-1458
ication	-1459
▁provides	-1460
▁sur	-1461
ried	-1462
▁Petition	-1463
▁constitutional	-1464
missed	-1465
▁herein	-1466
ining	-1467
▁Direct	-1468
uch	-1469
af	-1470
agistr	-1471
ential	-1472
▁candid	-1473
▁Author	-1474
▁sect	-1475
▁Se	-1476
▁dismissed	-1477
conom	-1478
▁specified	-1479
▁lead	-1480
ively	-1481
▁valid	-1482
poses	-1483
▁chan	-1484
ruct	-1485
▁except	-1486
▁witnesses	-1487
ashtra	-1488
▁courts	-1489
▁Gu	-1490
▁body	-1491
▁ens	-1492
▁gre	-1493
▁bank	-1494
▁interpre	-1495
▁elect	-1496
rect	-1497
▁meet	-1498
▁entire	-1499
▁prescribed	-1500
▁compet	-1501
▁transfer	-1502
▁alle	-1503
▁perform	-1504
▁enact	-1505
istered	-1506
ata	-1507
▁Ass	-1508
▁project	-1509
▁point	-1510
ording	-1511
▁rules	-1512
▁IPC	-1513
▁depos	-1514
▁class	-1515
hib	-1516
▁Thus	-1517
ared	-1518
▁cred	-1519
rie	-1520
▁prog	-1521
▁society	-1522
▁accept	-1523
▁know	-1524
▁stud	-1525
agistrate	-1526
▁Prad	-1527
quiry	-1528
ering	-1529
▁accordance	-1530
▁submission	-1531
llate	-1532
▁fam	-1533
▁received	-1534
▁house	-1535
▁Lt	-1536
AN	-1537
▁decl	-1538
▁sign	-1539
▁indic	-1540
▁mod	-1541
ari	-1542
▁Part	-1543
gg	-1544
▁II	-1545
▁open	-1546
▁come	-1547
▁ser	-1548
ather	-1549
wards	-1550
agement	-1551
▁paragraph	-1552
ell	-1553
▁categ	-1554
▁aside	-1555
rime	-1556
▁directed	-1557
ology	-1558
▁purposes	-1559
▁namely	-1560
▁alleged	-1561
▁Respondent	-1562
▁dispute	-1563
▁bro	-1564
ured	-1565
▁Ram	-1566
▁activ	-1567
▁mere	-1568
▁asse	-1569
▁continu	-1570
iary	-1571
▁taking	-1572
▁discus	-1573
▁force	-1574
ck	-1575
▁full	-1576
soci	-1577
▁however	-1578
▁detail	-1579
cing	-1580
▁orig	-1581
▁According	-1582
▁done	-1583
▁Serv	-1584
▁stage	-1585
▁office	-1586
tak	-1587
▁benefit	-1588
ibility	-1589
▁procedure	-1590
▁constit	-1591
▁give	-1592
▁medical	-1593
▁high	-1594
▁months	-1595
▁admin	-1596
▁statutory	-1597
▁build	-1598
with	-1599
irm	-1600
▁vide	-1601
▁Magistrate	-1602
▁decisions	-1603
missions	-1604
▁conclusion	-1605
acy	-1606
▁thereof	-1607
spect	-1608
▁lit	-1609
mber	-1610
▁To	-1611
urre	-1612
oss	-1613
ne	-1614
way	-1615
tific	-1616
▁Prov	-1617
air	-1618
▁Ltd	-1619
▁Mem	-1620
eed	-1621
▁get	-1622
▁notification	-1623
olution	-1624
▁Te	-1625
isition	-1626
▁otherwise	-1627
taining	-1628
▁fl	-1629
ulations	-1630
mb	-1631
ya	-1632
ciples	-1633
▁establish	-1634
AL	-1635
epend	-1636
▁Department	-1637
BI	-1638
▁acce	-1639
▁common	-1640
chan	-1641
▁met	-1642
▁Pradesh	-1643
▁important	-1644
val	-1645
oney	-1646
▁che	-1647
▁cust	-1648
umar	-1649
▁offences	-1650
▁Police	-1651
▁econom	-1652
orted	-1653
▁Legisl	-1654
▁deem	-1655
duced	-1656
▁That	-1657
▁appointed	-1658
▁financial	-1659
stitutions	-1660
▁District	-1661
▁assessee	-1662
▁exper	-1663
▁Commissioner	-1664
▁aspect	-1665
inary	-1666
ID	-1667
▁Dr	-1668
▁pat	-1669
ked	-1670
▁After	-1671
▁Govern	-1672
▁raised	-1673
lied	-1674
▁long	-1675
▁conn	-1676
▁sett	-1677
▁mind	-1678
▁purch	-1679
orporation	-1680
▁prior	-1681
▁Eng	-1682
▁note	-1683
empt	-1684
▁Judges	-1685
anies	-1686
get	-1687
overed	-1688
▁ir	-1689
fficient	-1690
▁clearly	-1691
▁my	-1692
▁now	-1693
▁Bh	-1694
mental	-1695
lause	-1696
▁recogn	-1697
▁registered	-1698
▁hig	-1699
dule	-1700
▁Par	-1701
ons	-1702
▁Co	-1703
▁Col	-1704
▁put	-1705
▁dep	-1706
igned	-1707
▁Univers	-1708
▁accepted	-1709
ool	-1710
▁remain	-1711
▁Authority	-1712
▁refer	-1713
▁But	-1714
▁New	-1715
utive	-1716
rought	-1717
▁arbitration	-1718
▁private	-1719
▁final	-1720
▁Special	-1721
ters	-1722
▁petitioners	-1723
▁Pr	-1724
▁expression	-1725
risonment	-1726
▁documents	-1727
▁They	-1728
▁noted	-1729
▁sought	-1730
▁rate	-1731
ulated	-1732
arily	-1733
▁Al	-1734
▁Cr	-1735
▁Appeal	-1736
▁Public	-1737
▁IN	-1738
rest	-1739
hic	-1740
▁These	-1741
oh	-1742
ards	-1743
▁correct	-1744
uf	-1745
▁Order	-1746
▁str	-1747
PW	-1748
itor	-1749
▁less	-1750
riage	-1751
up	-1752
▁Further	-1753
▁organ	-1754
▁wom	-1755
▁total	-1756
▁doubt	-1757
▁san	-1758
▁decided	-1759
▁recommend	-1760
▁government	-1761
▁Report	-1762
▁meaning	-1763
▁reasonable	-1764
▁context	-1765
▁sever	-1766
▁Cont	-1767
▁opport	-1768
istry	-1769
uly	-1770
lf	-1771
hes	-1772
▁decree	-1773
▁imprisonment	-1774
▁extent	-1775
▁defendant	-1776
ird	-1777
▁respons	-1778
▁appearing	-1779
▁ur	-1780
...	-1781
▁principles	-1782
▁assessment	-1783
arn	-1784
▁age	-1785
▁fix	-1786
▁substant	-1787
ging	-1788
ury	-1789
▁charges	-1790
▁education	-1791
▁applicable	-1792
▁Artic	-1793
▁civil	-1794
▁water	-1795
▁established	-1796
ower	-1797
▁contended	-1798
▁adver	-1799
standing	-1800
▁incident	-1801
▁Kumar	-1802
▁reject	-1803
▁nor	-1804
action	-1805
au	-1806
▁env	-1807
ainant	-1808
▁employees	-1809
▁list	-1810
sp	-1811
▁undertak	-1812
▁mand	-1813
ajor	-1814
iber	-1815
▁level	-1816
▁gen	-1817
▁took	-1818
▁separ	-1819
ization	-1820
ik	-1821
ufact	-1822
IC	-1823
ray	-1824
▁issues	-1825
▁examined	-1826
▁lic	-1827
▁relied	-1828
▁Criminal	-1829
▁den	-1830
ictim	-1831
ield	-1832
▁incre	-1833
▁affect	-1834
imum	-1835
▁ensure	-1836
▁family	-1837
▁called	-1838
▁Ma	-1839
▁below	-1840
▁review	-1841
oper	-1842
▁unless	-1843
▁initi	-1844
▁Adv	-1845
▁human	-1846
▁brought	-1847
day	-1848
▁amendment	-1849
▁subsequent	-1850
▁discl	-1851
▁meas	-1852
▁authorities	-1853
▁holding	-1854
▁ann	-1855
▁When	-1856
▁Company	-1857
arent	-1858
▁regarding	-1859
utes	-1860
▁fall	-1861
▁lease	-1862
angu	-1863
▁suff	-1864
▁market	-1865
▁examination	-1866
▁hearing	-1867
▁Corporation	-1868
sw	-1869
osp	-1870
amental	-1871
uses	-1872
urity	-1873
ron	-1874
▁Lear	-1875
▁sugg	-1876
▁money	-1877
ense	-1878
ically	-1879
ructure	-1880
▁Nos	-1881
▁victim	-1882
▁several	-1883
omb	-1884
--	-1885
ached	-1886
▁possible	-1887
itiz	-1888
▁care	-1889
ism	-1890
▁short	-1891
mes	-1892
ironment	-1893
havan	-1894
▁function	-1895
▁institutions	-1896
orld	-1897
▁demand	-1898
irection	-1899
ger	-1900
▁decla	-1901
hold	-1902
akh	-1903
▁independ	-1904
▁delay	-1905
▁relation	-1906
▁Mad	-1907
▁vehic	-1908
▁social	-1909
▁ver	-1910
ps	-1911
▁others	-1912
tificate	-1913
▁ess	-1914
vi	-1915
▁mot	-1916
II	-1917
▁nan	-1918
overy	-1919
▁similar	-1920
▁liable	-1921
ves	-1922
hing	-1923
eak	-1924
▁penal	-1925
▁treat	-1926
ace	-1927
▁major	-1928
▁towards	-1929
▁implement	-1930
ira	-1931
pe	-1932
ways	-1933
▁Learned	-1934
ercial	-1935
▁most	-1936
▁cop	-1937
▁appre	-1938
▁Governor	-1939
ENT	-1940
▁complete	-1941
aged	-1942
▁direction	-1943
▁enter	-1944
▁relief	-1945
▁original	-1946
▁propos	-1947
▁vis	-1948
▁conviction	-1949
mon	-1950
▁PR	-1951
urance	-1952
ana	-1953
uled	-1954
▁situation	-1955
▁Ministry	-1956
▁institution	-1957
▁construction	-1958
▁become	-1959
▁succ	-1960
▁Bhavan	-1961
▁light	-1962
▁control	-1963
▁manufact	-1964
na	-1965
▁pointed	-1966
AT	-1967
▁Pl	-1968
idav	-1969
oid	-1970
▁term	-1971
ually	-1972
▁complainant	-1973
▁free	-1974
▁your	-1975
▁deemed	-1976
▁express	-1977
band	-1978
▁document	-1979
come	-1980
chool	-1981
▁eng	-1982
▁Secret	-1983
▁artic	-1984
▁therein	-1985
▁plan	-1986
▁And	-1987
▁doct	-1988
▁reserv	-1989
▁interpret	-1990
▁member	-1991
▁head	-1992
▁say	-1993
▁product	-1994
▁pursu	-1995
▁Tax	-1996
▁previous	-1997
▁till	-1998
▁share	-1999
▁judgments	-2000
iso	-2001
HE	-2002
▁many	-2003
medi	-2004
▁large	-2005
anation	-2006
▁relig	-2007
▁occas	-2008
atural	-2009
▁answ	-2010
isation	-2011
▁event	-2012
▁legislation	-2013
az	-2014
rust	-2015
▁pet	-2016
▁areas	-2017
▁loss	-2018
▁develop	-2019
▁sal	-2020
▁qual	-2021
CI	-2022
▁declar	-2023
▁directions	-2024
▁pending	-2025
▁finding	-2026
▁vac	-2027
▁relations	-2028
▁facil	-2029
ledge	-2030
▁Director	-2031
▁building	-2032
▁err	-2033
▁ke	-2034
iced	-2035
▁disch	-2036
▁defin	-2037
▁wherein	-2038
unic	-2039
▁alleg	-2040
▁trade	-2041
ories	-2042
▁giving	-2043
▁fundamental	-2044
▁protect	-2045
▁While	-2046
▁FIR	-2047
▁proved	-2048
▁five	-2049
lying	-2050
▁citiz	-2051
ospital	-2052
iii	-2053
▁filing	-2054
▁payable	-2055
ta	-2056
▁AIR	-2057
▁contention	-2058
▁real	-2059
▁submit	-2060
▁affidav	-2061
ope	-2062
▁Under	-2063
pati	-2064
▁University	-2065
▁higher	-2066
१०	-2067
Ex	-2068
essions	-2069
▁Be	-2070
ably	-2071
▁six	-2072
bs	-2073
▁proviso	-2074
ides	-2075
▁Scheme	-2076
▁Muk	-2077
▁para	-2078
ake	-2079
▁collect	-2080
▁health	-2081
▁instru	-2082
une	-2083
mbly	-2084
▁thereafter	-2085
DA	-2086
▁include	-2087
▁Fin	-2088
missible	-2089
illeg	-2090
▁condition	-2091
ink	-2092
▁laws	-2093
essional	-2094
▁involved	-2095
▁sufficient	-2096
▁Development	-2097
▁bail	-2098
▁price	-2099
▁Schedule	-2100
▁saf	-2101
▁tru	-2102
▁norm	-2103
iding	-2104
▁leave	-2105
▁absence	-2106
ashtrapati	-2107
▁contain	-2108
▁proceeding	-2109
▁intern	-2110
chie	-2111
rat	-2112
▁neg	-2113
▁statute	-2114
▁acquisition	-2115
▁arrest	-2116
ricult	-2117
com	-2118
ock	-2119
▁illeg	-2120
▁lo	-2121
pril	-2122
▁Chap	-2123
▁Bill	-2124
reedom	-2125
▁agg	-2126
to	-2127
▁Rashtrapati	-2128
▁sanction	-2129
jee	-2130
ises	-2131
▁contr	-2132
▁treated	-2133
▁fee	-2134
anguage	-2135
▁intention	-2136
▁carry	-2137
phas	-2138
IT	-2139
],	-2140
▁bre	-2141
▁four	-2142
▁premis	-2143
▁pray	-2144
▁among	-2145
▁written	-2146
work	-2147
▁regular	-2148
▁sm	-2149
▁grow	-2150
▁achie	-2151
ium	-2152
▁crime	-2153
▁particip	-2154
▁opportunity	-2155
▁keep	-2156
▁officers	-2157
▁consist	-2158
que	-2159
▁Chapter	-2160
▁deed	-2161
▁protection	-2162
▁world	-2163
ience	-2164
▁Appellant	-2165
uary	-2166
▁wind	-2167
▁competent	-2168
▁submissions	-2169
ours	-2170
▁By	-2171
▁essential	-2172
▁She	-2173
▁much	-2174
▁admitted	-2175
ics	-2176
ends	-2177
▁last	-2178
▁April	-2179
▁Writ	-2180
▁Med	-2181
▁Bomb	-2182
▁existing	-2183
vention	-2184
▁personal	-2185
venue	-2186
▁impro	-2187
▁guil	-2188
▁fe	-2189
▁children	-2190
▁Jan	-2191
▁left	-2192
acity	-2193
▁rend	-2194
▁challenge	-2195
▁tem	-2196
▁framed	-2197
▁interpretation	-2198
icult	-2199
▁fac	-2200
hen	-2201
formation	-2202
▁war	-2203
ternal	-2204
resh	-2205
▁fair	-2206
▁Where	-2207
▁Procedure	-2208
▁today	-2209
▁sche	-2210
▁serious	-2211
▁March	-2212
OR	-2213
▁contem	-2214
usband	-2215
▁merely	-2216
ember	-2217
▁allot	-2218
▁dedu	-2219
▁accordingly	-2220
▁judic	-2221
▁acquit	-2222
▁conducted	-2223
▁List	-2224
▁Bombay	-2225
▁assist	-2226
▁heard	-2227
equ	-2228
▁bar	-2229
▁har	-2230
▁aut	-2231
▁noticed	-2232
▁punishment	-2233
▁legislative	-2234
vey	-2235
▁reads	-2236
▁Such	-2237
▁THE	-2238
▁working	-2239
IN	-2240
ension	-2241
pur	-2242
yond	-2243
▁Me	-2244
▁occasion	-2245
▁legislature	-2246
▁port	-2247
▁hel	-2248
ires	-2249
▁awarded	-2250
▁furn	-2251
erated	-2252
▁Soc	-2253
ties	-2254
▁dri	-2255
▁Clause	-2256
▁economic	-2257
▁proposed	-2258
reg	-2259
▁House	-2260
▁providing	-2261
ancy	-2262
▁immedi	-2263
▁enfor	-2264
▁marriage	-2265
▁Lim	-2266
▁owner	-2267
▁super	-2268
▁step	-2269
▁official	-2270
dra	-2271
orth	-2272
▁followed	-2273
go	-2274
ender	-2275
▁activities	-2276
lim	-2277
▁prep	-2278
▁declaration	-2279
cluded	-2280
IA	-2281
retion	-2282
▁beyond	-2283
LP	-2284
ipt	-2285
▁freedom	-2286
▁role	-2287
▁sust	-2288
umb	-2289
▁program	-2290
▁fine	-2291
▁approach	-2292
▁applied	-2293
ently	-2294
▁Indust	-2295
▁candidates	-2296
enced	-2297
▁Secretary	-2298
▁Provided	-2299
▁bal	-2300
▁contrary	-2301
▁foreign	-2302
ocate	-2303
▁Service	-2304
▁security	-2305
▁produced	-2306
▁dealing	-2307
atives	-2308
▁field	-2309
▁observations	-2310
▁rejected	-2311
▁restr	-2312
▁knowledge	-2313
▁companies	-2314
erve	-2315
rieved	-2316
ault	-2317
▁consum	-2318
ery	-2319
law	-2320
TION	-2321
▁sector	-2322
amp	-2323
▁needs	-2324
round	-2325
uries	-2326
ership	-2327
▁mining	-2328
▁affidavit	-2329
▁contrib	-2330
aries	-2331
▁Single	-2332
▁belong	-2333
▁expressed	-2334
▁petitions	-2335
▁intro	-2336
▁certificate	-2337
abil	-2338
▁declared	-2339
anch	-2340
▁Chand	-2341
▁tit	-2342
wal	-2343
ught	-2344
▁und	-2345
▁Chair	-2346
eration	-2347
▁commission	-2348
de	-2349
ize	-2350
▁considering	-2351
▁discretion	-2352
aving	-2353
▁rendered	-2354
▁return	-2355
▁file	-2356
▁anal	-2357
▁whole	-2358
▁vill	-2359
enc	-2360
▁dam	-2361
▁bring	-2362
▁Asse	-2363
▁vehicle	-2364
▁how	-2365
vest	-2366
▁functions	-2367
▁best	-2368
▁natural	-2369
▁management	-2370
▁lakh	-2371
▁requirement	-2372
▁local	-2373
▁grounds	-2374
▁adjud	-2375
arant	-2376
▁preferred	-2377
▁start	-2378
ues	-2379
▁penalty	-2380
▁practice	-2381
▁women	-2382
▁election	-2383
▁Pri	-2384
▁nex	-2385
▁success	-2386
▁registration	-2387
)(	-2388
▁es	-2389
▁With	-2390
▁maintain	-2391
▁premises	-2392
ources	-2393
▁imposed	-2394
▁appreci	-2395
abad	-2396
▁distin	-2397
▁concept	-2398
▁language	-2399
under	-2400
▁fut	-2401
▁argued	-2402
▁credit	-2403
aka	-2404
▁appears	-2405
▁approval	-2406
ional	-2407
................	-2408
▁run	-2409
▁receipt	-2410
▁execution	-2411
sociation	-2412
▁employee	-2413
▁Comm	-2414
omet	-2415
bsite	-2416
▁Trial	-2417
▁known	-2418
▁states	-2419
tt	-2420
▁punishable	-2421
▁diff	-2422
▁reliance	-2423
▁Mukher	-2424
thing	-2425
▁First	-2426
▁Judicial	-2427
▁husband	-2428
▁capital	-2429
▁continue	-2430
▁inn	-2431
icted	-2432
▁Hon	-2433
iving	-2434
▁withdra	-2435
▁impl	-2436
illed	-2437
▁basic	-2438
▁gra	-2439
ogniz	-2440
▁Dis	-2441
▁enc	-2442
▁liability	-2443
ware	-2444
encies	-2445
▁whose	-2446
▁questions	-2447
stitute	-2448
▁x	-2449
▁Even	-2450
▁carried	-2451
land	-2452
▁additional	-2453
▁third	-2454
▁prohib	-2455
▁addition	-2456
▁book	-2457
▁seen	-2458
▁benefits	-2459
acc	-2460
▁copy	-2461
▁treatment	-2462
▁great	-2463
reng	-2464
▁ce	-2465
▁repe	-2466
▁liber	-2467
lines	-2468
▁environment	-2469
tion	-2470
▁Rec	-2471
▁termin	-2472
imate	-2473
▁fixed	-2474
ares	-2475
▁dom	-2476
▁acquired	-2477
▁limited	-2478
▁operation	-2479
opted	-2480
▁rent	-2481
▁Cons	-2482
▁change	-2483
११	-2484
▁caused	-2485
▁Mukherjee	-2486
▁failed	-2487
▁Appellate	-2488
▁plead	-2489
▁Ab	-2490
ases	-2491
earch	-2492
▁satisfied	-2493
▁trust	-2494
igating	-2495
▁production	-2496
jection	-2497
ully	-2498
▁emp	-2499
▁May	-2500
▁settled	-2501
▁wife	-2502
▁SLP	-2503
▁adopted	-2504
rong	-2505
duled	-2506
▁request	-2507
▁Ent	-2508
▁outs	-2509
▁whom	-2510
ugust	-2511
lege	-2512
▁national	-2513
▁polit	-2514
▁executive	-2515
’.	-2516
ats	-2517
urrent	-2518
alc	-2519
▁imm	-2520
▁away	-2521
▁Additional	-2522
▁Is	-2523
▁students	-2524
acher	-2525
▁consp	-2526
▁recovery	-2527
hod	-2528
▁January	-2529
▁industrial	-2530
racted	-2531
▁consequ	-2532
▁consent	-2533
cember	-2534
▁arising	-2535
▁prevent	-2536
cer	-2537
▁makes	-2538
▁website	-2539
▁true	-2540
▁category	-2541
▁scope	-2542
ony	-2543
▁defined	-2544
▁injuries	-2545
▁Sessions	-2546
imes	-2547
▁meeting	-2548
▁nothing	-2549
▁signific	-2550
▁Le	-2551
abour	-2552
▁ut	-2553
▁elig	-2554
▁Since	-2555
▁defence	-2556
int	-2557
▁himself	-2558
ans	-2559
▁corpor	-2560
▁amended	-2561
ross	-2562
▁remed	-2563
▁streng	-2564
▁dealt	-2565
▁related	-2566
▁commercial	-2567
▁Income	-2568
▁Information	-2569
▁Karn	-2570
▁seeking	-2571
▁difficult	-2572
airs	-2573
▁Pre	-2574
istrative	-2575
oor	-2576
▁ought	-2577
arch	-2578
fully	-2579
ataka	-2580
▁instant	-2581
ators	-2582
▁posts	-2583
▁separate	-2584
▁determined	-2585
▁subs	-2586
▁suggest	-2587
▁resolution	-2588
▁father	-2589
abor	-2590
▁Expl	-2591
urd	-2592
orts	-2593
▁unt	-2594
▁arri	-2595
▁details	-2596
unt	-2597
▁capacity	-2598
irt	-2599
▁sex	-2600
▁countries	-2601
orne	-2602
ying	-2603
▁definition	-2604
acter	-2605
▁conferred	-2606
IS	-2607
▁future	-2608
▁Whether	-2609
eb	-2610
▁sing	-2611
▁urged	-2612
▁help	-2613
▁determination	-2614
▁claimed	-2615
▁inquiry	-2616
ruit	-2617
war	-2618
▁lev	-2619
▁pension	-2620
▁Regulations	-2621
▁underst	-2622
▁stip	-2623
▁liberty	-2624
erg	-2625
▁eff	-2626
▁bound	-2627
▁findings	-2628
▁substantial	-2629
▁once	-2630
ptember	-2631
▁Pun	-2632
▁applicant	-2633
▁trad	-2634
▁window	-2635
▁permission	-2636
anced	-2637
▁minor	-2638
▁August	-2639
▁obtained	-2640
▁What	-2641
▁covered	-2642
▁Articles	-2643
▁PRES	-2644
▁Assembly	-2645
▁Bi	-2646
▁nam	-2647
▁Arbitr	-2648
▁Karnataka	-2649
adem	-2650
▁outside	-2651
▁executed	-2652
▁look	-2653
▁cogniz	-2654
▁prim	-2655
AC	-2656
▁wrong	-2657
▁ran	-2658
▁applications	-2659
▁quality	-2660
▁acts	-2661
▁permitted	-2662
▁performance	-2663
▁consult	-2664
▁specifically	-2665
▁decide	-2666
▁forward	-2667
gether	-2668
▁together	-2669
▁Limited	-2670
▁ul	-2671
▁nom	-2672
▁contro	-2673
▁December	-2674
ancell	-2675
▁later	-2676
▁appellate	-2677
▁Pat	-2678
ala	-2679
▁appear	-2680
▁guarant	-2681
ifications	-2682
rast	-2683
▁Ter	-2684
▁Right	-2685
▁challenged	-2686
cement	-2687
▁govern	-2688
▁method	-2689
▁argument	-2690
inate	-2691
ling	-2692
▁el	-2693
▁training	-2694
cise	-2695
▁integ	-2696
▁dispos	-2697
▁international	-2698
▁anything	-2699
ras	-2700
▁cover	-2701
▁promotion	-2702
uation	-2703
▁setting	-2704
▁data	-2705
▁assets	-2706
idelines	-2707
▁Second	-2708
▁debt	-2709
iture	-2710
▁illegal	-2711
▁mo	-2712
uties	-2713
▁existence	-2714
▁Legislature	-2715
▁vol	-2716
▁cult	-2717
▁judge	-2718
▁industry	-2719
▁expect	-2720
▁convicted	-2721
▁exercised	-2722
wh	-2723
▁contempl	-2724
IL	-2725
▁includes	-2726
itive	-2727
▁cross	-2728
iet	-2729
▁cho	-2730
▁custody	-2731
sh	-2732
li	-2733
tax	-2734
▁character	-2735
▁judiciary	-2736
00/-	-2737
nel	-2738
▁validity	-2739
▁employment	-2740
▁lar	-2741
▁absol	-2742
▁constituted	-2743
▁independent	-2744
▁next	-2745
▁group	-2746
▁limitation	-2747
▁title	-2748
▁violation	-2749
▁September	-2750
▁deals	-2751
▁resident	-2752
pr	-2753
omes	-2754
▁school	-2755
▁status	-2756
urer	-2757
jab	-2758
▁fri	-2759
▁went	-2760
▁neither	-2761
▁Im	-2762
▁Sim	-2763
SC	-2764
▁Cl	-2765
▁prosecut	-2766
▁examine	-2767
▁injury	-2768
ource	-2769
▁happ	-2770
lfare	-2771
▁phys	-2772
ifying	-2773
▁always	-2774
withstanding	-2775
▁statements	-2776
▁Edu	-2777
▁fit	-2778
▁entered	-2779
IDENT	-2780
▁informed	-2781
▁gl	-2782
▁Bar	-2783
iver	-2784
clusive	-2785
▁mult	-2786
pro	-2787
▁particularly	-2788
ober	-2789
▁candidate	-2790
▁access	-2791
ote	-2792
▁thereby	-2793
▁minimum	-2794
▁Senior	-2795
▁kept	-2796
▁discussion	-2797
▁connect	-2798
ored	-2799
view	-2800
▁selection	-2801
▁regul	-2802
▁effective	-2803
▁Mahar	-2804
io	-2805
▁exceed	-2806
▁dismiss	-2807
▁PRESIDENT	-2808
urred	-2809
▁plea	-2810
▁never	-2811
▁intended	-2812
▁requires	-2813
▁drawn	-2814
▁prove	-2815
३०	-2816
▁supply	-2817
irmed	-2818
▁disposed	-2819
▁plant	-2820
▁still	-2821
▁duties	-2822
▁growth	-2823
ins	-2824
▁content	-2825
▁relationship	-2826
agar	-2827
atures	-2828
▁measures	-2829
▁clar	-2830
ressed	-2831
▁opens	-2832
aled	-2833
▁Sab	-2834
▁instance	-2835
▁included	-2836
▁One	-2837
▁Trans	-2838
oms	-2839
▁Engine	-2840
▁Hence	-2841
▁commence	-2842
▁crit	-2843
▁deposit	-2844
▁revision	-2845
▁political	-2846
ubl	-2847
ruary	-2848
▁July	-2849
▁Admin	-2850
ebruary	-2851
▁ill	-2852
▁hence	-2853
▁face	-2854
RA	-2855
▁stay	-2856
▁materials	-2857
▁kind	-2858
aper	-2859
▁citizens	-2860
▁rightly	-2861
omp	-2862
iation	-2863
▁Punjab	-2864
cient	-2865
▁absolute	-2866
EC	-2867
▁Thereafter	-2868
▁connection	-2869
▁joint	-2870
▁prepared	-2871
▁oblig	-2872
▁steps	-2873
urrence	-2874
▁Regulation	-2875
aff	-2876
▁tenant	-2877
▁tribunal	-2878
▁ear	-2879
▁road	-2880
▁properties	-2881
▁administration	-2882
▁presence	-2883
ctober	-2884
gal	-2885
▁play	-2886
▁Pran	-2887
▁presum	-2888
erala	-2889
▁Chairman	-2890
▁occup	-2891
▁vested	-2892
▁rese	-2893
▁limit	-2894
▁territ	-2895
▁mor	-2896
▁merit	-2897
▁virt	-2898
selves	-2899
iously	-2900
▁extend	-2901
▁mort	-2902
▁Em	-2903
▁Def	-2904
▁Techn	-2905
▁interim	-2906
▁default	-2907
▁discharge	-2908
▁shown	-2909
mitting	-2910
▁agricult	-2911
▁guilty	-2912
▁community	-2913
'.	-2914
▁agreed	-2915
▁shares	-2916
lu	-2917
usal	-2918
▁Lord	-2919
▁approved	-2920
▁hospital	-2921
jar	-2922
men	-2923
vent	-2924
▁lay	-2925
adha	-2926
▁Sm	-2927
▁experience	-2928
▁educ	-2929
▁signed	-2930
▁design	-2931
rish	-2932
▁records	-2933
▁transferred	-2934
▁Kerala	-2935
▁transaction	-2936
.)	-2937
▁technical	-2938
▁prejud	-2939
▁proble	-2940
▁obl	-2941
▁disputes	-2942
change	-2943
▁Medical	-2944
amil	-2945
▁sole	-2946
▁commit	-2947
riev	-2948
▁enacted	-2949
▁Fore	-2950
▁redu	-2951
EL	-2952
ously	-2953
▁democ	-2954
▁brother	-2955
▁near	-2956
▁Nove	-2957
▁November	-2958
herein	-2959
▁impos	-2960
▁created	-2961
▁assum	-2962
▁entry	-2963
▁Pranab	-2964
▁Vs	-2965
▁least	-2966
accused	-2967
▁February	-2968
▁immediately	-2969
▁June	-2970
▁IND	-2971
▁aspects	-2972
▁lands	-2973
▁Prin	-2974
▁directly	-2975
▁discrimin	-2976
rix	-2977
lling	-2978
▁single	-2979
▁accident	-2980
▁respective	-2981
▁publ	-2982
▁distrib	-2983
▁turn	-2984
alse	-2985
▁ren	-2986
▁side	-2987
rated	-2988
▁small	-2989
▁Invest	-2990
▁Explanation	-2991
▁requirements	-2992
▁recommendations	-2993
▁arise	-2994
▁Assist	-2995
▁ty	-2996
rut	-2997
▁quant	-2998
▁determine	-2999
ists	-3000
cent	-3001
▁exem	-3002
▁Hind	-3003
▁Agree	-3004
▁address	-3005
▁balance	-3006
ST	-3007
▁)	-3008
cell	-3009
▁US	-3010
ern	-3011
▁emphas	-3012
be	-3013
ead	-3014
ictions	-3015
▁factors	-3016
▁judges	-3017
stituted	-3018
▁Fund	-3019
▁privacy	-3020
▁extended	-3021
▁passing	-3022
▁October	-3023
▁food	-3024
▁costs	-3025
iracy	-3026
▁hist	-3027
▁alia	-3028
hereinafter	-3029
▁So	-3030
▁Intern	-3031
ricity	-3032
▁patient	-3033
▁writing	-3034
▁merits	-3035
att	-3036
▁Dep	-3037
▁broad	-3038
▁Entry	-3039
oval	-3040
▁adequ	-3041
▁village	-3042
ali	-3043
▁facilities	-3044
].	-3045
▁Lal	-3046
▁unf	-3047
▁false	-3048
▁aggrieved	-3049
▁attempt	-3050
▁deb	-3051
rastructure	-3052
▁Counsel	-3053
▁conver	-3054
mar	-3055
▁technology	-3056
’,	-3057
▁compliance	-3058
▁concern	-3059
ched	-3060
▁Education	-3061
▁Moh	-3062
▁yet	-3063
iring	-3064
sequently	-3065
▁error	-3066
ingu	-3067
▁deg	-3068
▁insp	-3069
▁Collect	-3070
far	-3071
▁gain	-3072
▁crores	-3073
▁Similar	-3074
ick	-3075
▁bid	-3076
ane	-3077
▁Land	-3078
ulf	-3079
RI	-3080
▁Sha	-3081
unicip	-3082
urder	-3083
▁reading	-3084
cle	-3085
▁alone	-3086
▁amend	-3087
▁permit	-3088
operative	-3089
▁preced	-3090
reat	-3091
▁able	-3092
▁commun	-3093
▁purchase	-3094
▁claims	-3095
▁dign	-3096
urs	-3097
▁fresh	-3098
▁justified	-3099
▁guidelines	-3100
▁dev	-3101
ani	-3102
ograph	-3103
kar	-3104
▁conspiracy	-3105
▁adj	-3106
▁Sect	-3107
▁safe	-3108
manent	-3109
▁equal	-3110
▁AN	-3111
▁admission	-3112
▁article	-3113
▁progress	-3114
▁contra	-3115
▁Ins	-3116
▁allegations	-3117
▁Rep	-3118
▁apart	-3119
▁fully	-3120
▁charged	-3121
aging	-3122
▁arbitrator	-3123
▁IT	-3124
▁Lok	-3125
ademic	-3126
ocation	-3127
anj	-3128
▁depend	-3129
▁ey	-3130
▁CBI	-3131
▁Ac	-3132
CT	-3133
▁murder	-3134
▁cognizance	-3135
now	-3136
ancies	-3137
uting	-3138
▁son	-3139
osure	-3140
ental	-3141
▁sense	-3142
▁constitute	-3143
▁district	-3144
ems	-3145
erted	-3146
▁commencement	-3147
▁around	-3148
▁majority	-3149
vement	-3150
enance	-3151
kh	-3152
rine	-3153
▁Sur	-3154
sofar	-3155
cience	-3156
▁Int	-3157
▁susp	-3158
▁Speak	-3159
▁structure	-3160
ison	-3161
bitral	-3162
▁reit	-3163
adhaar	-3164
▁warrant	-3165
din	-3166
▁sk	-3167
▁becomes	-3168
▁Des	-3169
▁arran	-3170
.—	-3171
▁His	-3172
▁Elect	-3173
▁permissible	-3174
▁interests	-3175
rade	-3176
▁Maharashtra	-3177
aryana	-3178
adu	-3179
▁Services	-3180
▁Nar	-3181
External	-3182
▁Priv	-3183
▁self	-3184
itable	-3185
▁plot	-3186
▁importance	-3187
▁got	-3188
ches	-3189
▁Aadhaar	-3190
▁assistance	-3191
१२	-3192
▁too	-3193
▁net	-3194
▁Shar	-3195
▁tar	-3196
▁bi	-3197
▁select	-3198
rid	-3199
ulted	-3200
▁aver	-3201
No	-3202
▁Tamil	-3203
▁Ann	-3204
enses	-3205
,00	-3206
▁Ors	-3207
▁nation	-3208
using	-3209
ruitment	-3210
▁research	-3211
▁ado	-3212
▁Ra	-3213
ills	-3214
urned	-3215
▁standards	-3216
▁Per	-3217
▁duly	-3218
though	-3219
▁empow	-3220
▁...	-3221
rop	-3222
▁Agreement	-3223
ude	-3224
▁answer	-3225
▁Trust	-3226
ordinate	-3227
▁III	-3228
▁Advocate	-3229
▁Haryana	-3230
▁obligation	-3231
▁From	-3232
▁eligible	-3233
gar	-3234
▁led	-3235
▁speak	-3236
▁removal	-3237
▁implementation	-3238
▁enquiry	-3239
most	-3240
▁dead	-3241
▁Scheduled	-3242
▁failure	-3243
roup	-3244
▁few	-3245
▁Article	-3246
enditure	-3247
▁educational	-3248
iting	-3249
UR	-3250
lies	-3251
▁div	-3252
achers	-3253
▁continued	-3254
▁investment	-3255
indu	-3256
anchay	-3257
▁Tra	-3258
▁pop	-3259
▁arises	-3260
▁enj	-3261
▁asked	-3262
▁activity	-3263
▁bor	-3264
▁max	-3265
▁fulf	-3266
▁discipl	-3267
▁funds	-3268
▁proof	-3269
AS	-3270
utation	-3271
atter	-3272
imately	-3273
▁Collector	-3274
▁significant	-3275
▁Amendment	-3276
hra	-3277
pite	-3278
▁Exec	-3279
▁move	-3280
pecial	-3281
▁attention	-3282
jarat	-3283
▁pot	-3284
oad	-3285
▁Mo	-3286
▁religious	-3287
----	-3288
▁wee	-3289
▁bind	-3290
▁ide	-3291
▁Deputy	-3292
▁parent	-3293
▁counter	-3294
▁Having	-3295
▁mother	-3296
▁occurrence	-3297
▁sold	-3298
In	-3299
▁Though	-3300
▁old	-3301
ici	-3302
▁Pra	-3303
▁initial	-3304
▁Any	-3305
▁remedy	-3306
▁recovered	-3307
▁wide	-3308
▁Off	-3309
▁farm	-3310
▁reve	-3311
lled	-3312
▁enactment	-3313
▁International	-3314
▁Applic	-3315
▁Accordingly	-3316
istrar	-3317
▁Territ	-3318
▁adverse	-3319
▁Utt	-3320
▁cru	-3321
▁actual	-3322
▁likely	-3323
Jud	-3324
▁firm	-3325
▁Society	-3326
▁responsible	-3327
The	-3328
▁licence	-3329
ological	-3330
▁belie	-3331
▁Hindu	-3332
▁deduction	-3333
▁strong	-3334
▁concluded	-3335
▁Governments	-3336
ened	-3337
▁projects	-3338
▁cur	-3339
▁mach	-3340
▁breach	-3341
▁agency	-3342
▁retire	-3343
▁affected	-3344
▁department	-3345
orney	-3346
▁Gujarat	-3347
cluding	-3348
ED	-3349
▁objection	-3350
▁home	-3351
▁indicated	-3352
▁themselves	-3353
PA	-3354
outh	-3355
▁Nadu	-3356
▁deposed	-3357
abilities	-3358
▁products	-3359
cri	-3360
▁submits	-3361
▁Legislative	-3362
▁advanced	-3363
▁why	-3364
▁Sal	-3365
▁Sabha	-3366
▁United	-3367
▁resources	-3368
▁identified	-3369
▁doctrine	-3370
▁ult	-3371
ration	-3372
unicipal	-3373
▁univers	-3374
augh	-3375
▁volunt	-3376
▁whereas	-3377
rig	-3378
aintenance	-3379
▁keeping	-3380
▁portion	-3381
▁fraud	-3382
▁want	-3383
▁added	-3384
▁INDIA	-3385
▁Group	-3386
▁increase	-3387
sy	-3388
▁quot	-3389
▁pers	-3390
▁regulations	-3391
St	-3392
▁litigation	-3393
▁establishment	-3394
▁identity	-3395
▁doing	-3396
▁amounts	-3397
▁close	-3398
▁reported	-3399
▁aware	-3400
▁bearing	-3401
▁transport	-3402
▁Prosec	-3403
▁academic	-3404
▁virtue	-3405
▁detention	-3406
▁undertaking	-3407
atch	-3408
▁More	-3409
▁frame	-3410
▁griev	-3411
asth	-3412
▁Case	-3413
▁Assess	-3414
▁sexual	-3415
ival	-3416
▁physical	-3417
▁seek	-3418
▁carrying	-3419
▁respectively	-3420
▁Sy	-3421
▁Official	-3422
▁create	-3423
▁published	-3424
▁Institute	-3425
▁sol	-3426
▁live	-3427
▁Ms	-3428
▁NO	-3429
estic	-3430
ert	-3431
qual	-3432
▁renew	-3433
▁PAR	-3434
▁Plan	-3435
▁defendants	-3436
rutin	-3437
▁Bihar	-3438
▁stands	-3439
▁difference	-3440
▁acquittal	-3441
ysis	-3442
▁completed	-3443
▁times	-3444
▁insurance	-3445
▁disposal	-3446
▁denied	-3447
▁CO	-3448
▁shows	-3449
▁factual	-3450
▁gave	-3451
▁mandatory	-3452
▁substance	-3453
▁might	-3454
▁dignity	-3455
▁Bengal	-3456
▁Mah	-3457
▁going	-3458
▁During	-3459
▁expenditure	-3460
▁stating	-3461
▁works	-3462
▁Assistant	-3463
▁better	-3464
▁sections	-3465
▁mut	-3466
▁religion	-3467
▁invok	-3468
▁enable	-3469
uri	-3470
,000	-3471
▁think	-3472
▁permanent	-3473
▁introduced	-3474
▁recommended	-3475
▁util	-3476
▁void	-3477
▁bod	-3478
▁Other	-3479
▁coming	-3480
▁corporate	-3481
▁prosecutrix	-3482
▁proced	-3483
▁Att	-3484
▁partn	-3485
▁sheet	-3486
actions	-3487
▁custom	-3488
▁somet	-3489
amination	-3490
▁seniority	-3491
ishes	-3492
▁draw	-3493
▁Similarly	-3494
▁TA	-3495
▁Policy	-3496
▁interference	-3497
amb	-3498
▁nar	-3499
▁adequate	-3500
▁discussed	-3501
▁administrative	-3502
▁strict	-3503
▁employer	-3504
portion	-3505
▁consultation	-3506
▁Pen	-3507
▁quas	-3508
▁accounts	-3509
▁apparent	-3510
▁servant	-3511
▁aim	-3512
ening	-3513
▁testim	-3514
▁१	-3515
▁dest	-3516
▁advert	-3517
lish	-3518
▁committee	-3519
cted	-3520
▁infrastructure	-3521
▁repro	-3522
▁Registrar	-3523
lly	-3524
▁mortg	-3525
sc	-3526
▁Uttar	-3527
iable	-3528
vision	-3529
▁associ	-3530
▁contemplated	-3531
▁until	-3532
▁Ah	-3533
▁sl	-3534
▁initiated	-3535
▁Association	-3536
rs	-3537
▁clauses	-3538
alid	-3539
▁notified	-3540
▁daugh	-3541
▁incorpor	-3542
▁standard	-3543
▁revenue	-3544
bed	-3545
▁Companies	-3546
icated	-3547
bor	-3548
▁innov	-3549
erce	-3550
▁Rel	-3551
▁altern	-3552
asing	-3553
obal	-3554
▁opined	-3555
▁Management	-3556
▁viz	-3557
asthan	-3558
▁mechan	-3559
▁wholly	-3560
▁construed	-3561
aya	-3562
▁Ev	-3563
held	-3564
▁responsibility	-3565
▁advance	-3566
▁aid	-3567
▁enjoy	-3568
▁articles	-3569
▁confession	-3570
▁blood	-3571
▁hands	-3572
▁ow	-3573
▁views	-3574
▁proceeded	-3575
▁—	-3576
▁told	-3577
pective	-3578
▁Centre	-3579
▁Finance	-3580
▁English	-3581
sured	-3582
▁supplied	-3583
amm	-3584
ror	-3585
▁gone	-3586
▁Madras	-3587
▁Sharma	-3588
▁arrange	-3589
▁sustain	-3590
▁belonging	-3591
illion	-3592
▁connected	-3593
▁served	-3594
▁welfare	-3595
adi	-3596
▁marks	-3597
▁recording	-3598
eng	-3599
ellant	-3600
▁impact	-3601
▁;	-3602
ene	-3603
adre	-3604
unction	-3605
▁excess	-3606
▁recruitment	-3607
▁representation	-3608
▁woman	-3609
▁interfere	-3610
▁larger	-3611
endency	-3612
▁recommendation	-3613
ti	-3614
aching	-3615
▁reservation	-3616
▁scale	-3617
▁Rights	-3618
▁percent	-3619
▁referring	-3620
▁Industrial	-3621
▁lod	-3622
▁pertaining	-3623
▁loan	-3624
▁ign	-3625
▁mineral	-3626
▁offer	-3627
▁Form	-3628
▁PART	-3629
pecially	-3630
HA	-3631
▁reached	-3632
▁extracted	-3633
▁Insurance	-3634
▁seven	-3635
▁Mis	-3636
aster	-3637
spective	-3638
▁engaged	-3639
▁leading	-3640
▁individuals	-3641
▁maintenance	-3642
▁conflic	-3643
▁determining	-3644
ples	-3645
▁collected	-3646
▁distinction	-3647
▁enh	-3648
▁Executive	-3649
utions	-3650
▁objective	-3651
▁burd	-3652
▁plaintiffs	-3653
Judge	-3654
▁Panchay	-3655
▁Supp	-3656
irl	-3657
▁cheque	-3658
ouses	-3659
▁reports	-3660
▁prejudice	-3661
▁Princip	-3662
▁potential	-3663
▁Members	-3664
▁comes	-3665
▁arguments	-3666
▁line	-3667
▁granting	-3668
▁efforts	-3669
▁professional	-3670
▁units	-3671
hai	-3672
state	-3673
▁lack	-3674
ivery	-3675
▁Station	-3676
▁scrutin	-3677
rug	-3678
atic	-3679
uls	-3680
▁facilit	-3681
▁Penal	-3682
▁influ	-3683
▁takes	-3684
▁especially	-3685
hest	-3686
▁facie	-3687
▁Revenue	-3688
oot	-3689
IV	-3690
▁beg	-3691
iti	-3692
irth	-3693
▁aud	-3694
overned	-3695
▁page	-3696
▁tele	-3697
▁wid	-3698
▁Accused	-3699
▁programme	-3700
CC	-3701
pees	-3702
▁calc	-3703
▁governed	-3704
▁furnish	-3705
▁explained	-3706
inery	-3707
▁remo	-3708
EM	-3709
uction	-3710
▁Before	-3711
▁levy	-3712
▁parts	-3713
▁liqu	-3714
▁wages	-3715
▁reflect	-3716
▁detailed	-3717
▁Notification	-3718
▁Rajasthan	-3719
▁communication	-3720
▁Air	-3721
▁motor	-3722
asm	-3723
▁produce	-3724
osite	-3725
▁emer	-3726
▁Rail	-3727
▁sentenced	-3728
▁Gand	-3729
▁binding	-3730
ET	-3731
▁Let	-3732
▁crore	-3733
▁unit	-3734
▁Andhra	-3735
rd	-3736
azet	-3737
▁completion	-3738
▁suggested	-3739
▁amongst	-3740
ban	-3741
ott	-3742
▁stood	-3743
▁started	-3744
▁settlement	-3745
▁meant	-3746
▁tried	-3747
gment	-3748
SI	-3749
she	-3750
▁AP	-3751
▁Hindi	-3752
▁Member	-3753
pta	-3754
laim	-3755
▁safety	-3756
eness	-3757
);	-3758
▁corro	-3759
ateral	-3760
▁asset	-3761
▁convey	-3762
▁Ministers	-3763
▁explanation	-3764
illing	-3765
▁achieve	-3766
▁contempt	-3767
▁consequence	-3768
▁exemption	-3769
▁sell	-3770
▁air	-3771
▁thereto	-3772
▁Go	-3773
▁names	-3774
ivity	-3775
▁Madh	-3776
▁lakhs	-3777
▁fire	-3778
▁render	-3779
▁necessarily	-3780
ioned	-3781
utor	-3782
▁avoid	-3783
▁advant	-3784
▁coll	-3785
▁testimony	-3786
▁vot	-3787
ground	-3788
ieties	-3789
▁regards	-3790
▁expenses	-3791
▁indicate	-3792
▁Krish	-3793
▁quash	-3794
▁deposited	-3795
▁mess	-3796
ift	-3797
▁transactions	-3798
१३	-3799
▁rates	-3800
▁option	-3801
▁proposal	-3802
▁vacancies	-3803
clause	-3804
▁Ne	-3805
▁secured	-3806
▁pursuant	-3807
▁situated	-3808
▁der	-3809
▁Ver	-3810
holders	-3811
▁arrived	-3812
feren	-3813
onoun	-3814
▁Power	-3815
▁analysis	-3816
clude	-3817
eech	-3818
▁Sol	-3819
▁prob	-3820
▁evident	-3821
▁Sc	-3822
▁dischar	-3823
▁remains	-3824
▁search	-3825
ovable	-3826
▁categories	-3827
▁perusal	-3828
line	-3829
▁uncon	-3830
▁invalid	-3831
▁envis	-3832
▁ris	-3833
▁.,	-3834
▁West	-3835
person	-3836
▁coal	-3837
▁past	-3838
▁pronoun	-3839
rief	-3840
▁wea	-3841
▁became	-3842
▁supported	-3843
▁Arbitration	-3844
▁Super	-3845
▁gives	-3846
▁source	-3847
▁retirement	-3848
▁using	-3849
▁profession	-3850
pped	-3851
▁join	-3852
▁banks	-3853
▁AND	-3854
▁cancell	-3855
▁refund	-3856
▁undergo	-3857
▁controvers	-3858
▁emb	-3859
▁Contract	-3860
▁developed	-3861
duction	-3862
tin	-3863
endant	-3864
▁depri	-3865
▁expected	-3866
▁Pur	-3867
▁reduced	-3868
▁Cer	-3869
ATION	-3870
urities	-3871
▁prayer	-3872
▁maintained	-3873
▁SE	-3874
▁obv	-3875
▁Bhar	-3876
▁cash	-3877
▁neglig	-3878
▁[(	-3879
▁obtaining	-3880
rate	-3881
▁arbitrary	-3882
▁agricultural	-3883
▁instead	-3884
onom	-3885
▁diss	-3886
▁burden	-3887
▁employed	-3888
State	-3889
▁actually	-3890
▁living	-3891
▁buy	-3892
▁upheld	-3893
▁disclosed	-3894
▁Sar	-3895
ables	-3896
appellant	-3897
▁principal	-3898
▁TO	-3899
▁forth	-3900
▁prevail	-3901
▁corrobor	-3902
▁delivery	-3903
▁Technology	-3904
idd	-3905
lord	-3906
▁obtain	-3907
▁places	-3908
▁Account	-3909
▁Home	-3910
▁rig	-3911
olved	-3912
▁TADA	-3913
▁Gupta	-3914
▁arrested	-3915
▁receive	-3916
▁sustained	-3917
▁example	-3918
▁red	-3919
▁retro	-3920
▁expiry	-3921
▁seized	-3922
▁hon	-3923
▁programmes	-3924
▁Prof	-3925
opal	-3926
inder	-3927
istic	-3928
▁strength	-3929
itude	-3930
▁auction	-3931
▁visit	-3932
▁girl	-3933
▁attack	-3934
▁objections	-3935
ancing	-3936
▁ordin	-3937
▁Our	-3938
aur	-3939
▁Attorney	-3940
▁reserved	-3941
▁undertaken	-3942
▁summ	-3943
▁prima	-3944
▁former	-3945
▁paragraphs	-3946
▁men	-3947
▁cert	-3948
▁Hospital	-3949
CO	-3950
▁maximum	-3951
▁communic	-3952
ipur	-3953
umbai	-3954
▁site	-3955
▁Gandhi	-3956
▁rather	-3957
▁understood	-3958
▁Project	-3959
▁disqual	-3960
▁practices	-3961
put	-3962
onst	-3963
▁register	-3964
ush	-3965
▁Sri	-3966
▁ascer	-3967
',	-3968
ression	-3969
▁salary	-3970
▁citizen	-3971
▁investig	-3972
▁Mal	-3973
racy	-3974
▁unre	-3975
▁flow	-3976
▁rural	-3977
▁College	-3978
▁adopt	-3979
▁School	-3980
▁Evidence	-3981
▁gener	-3982
▁convict	-3983
▁proposition	-3984
porary	-3985
▁allotment	-3986
atio	-3987
▁Ph	-3988
AY	-3989
▁despite	-3990
▁la	-3991
▁Bang	-3992
▁youn	-3993
▁privile	-3994
III	-3995
▁SCR	-3996
▁degree	-3997
▁bodies	-3998
mentioned	-3999
ousing	-4000
▁hard	-4001
▁exped	-4002
▁substantive	-4003
▁stri	-4004
▁workers	-4005
▁expressly	-4006
▁domestic	-4007
▁Office	-4008
▁deciding	-4009
pto	-4010
▁Principal	-4011
▁generally	-4012
cial	-4013
▁imper	-4014
▁labour	-4015
▁ON	-4016
▁hy	-4017
▁CPC	-4018
▁Mumbai	-4019
▁borrow	-4020
▁expert	-4021
▁assigned	-4022
ji	-4023
▁Ob	-4024
otel	-4025
rises	-4026
ulate	-4027
▁scient	-4028
▁distingu	-4029
▁released	-4030
▁across	-4031
iger	-4032
▁spir	-4033
▁reiterated	-4034
uven	-4035
▁mil	-4036
▁teachers	-4037
▁Application	-4038
▁Cust	-4039
▁controversy	-4040
imal	-4041
▁energ	-4042
▁friend	-4043
▁college	-4044
▁lower	-4045
hood	-4046
respond	-4047
▁profits	-4048
▁forms	-4049
hind	-4050
▁cut	-4051
esides	-4052
▁remaining	-4053
asmuch	-4054
ranch	-4055
▁Officers	-4056
▁appointments	-4057
▁history	-4058
▁daughter	-4059
unities	-4060
▁ST	-4061
izing	-4062
▁holder	-4063
.-	-4064
elt	-4065
▁Do	-4066
▁Kh	-4067
▁Day	-4068
▁whereby	-4069
▁Speaker	-4070
▁equality	-4071
▁distribution	-4072
ship	-4073
cription	-4074
▁Har	-4075
encing	-4076
▁schemes	-4077
▁Reference	-4078
▁distinct	-4079
▁ordinary	-4080
tection	-4081
▁fif	-4082
▁thought	-4083
icide	-4084
▁Bal	-4085
▁stipulated	-4086
▁station	-4087
uate	-4088
▁Cast	-4089
▁Some	-4090
▁annual	-4091
▁injured	-4092
▁room	-4093
▁functioning	-4094
ann	-4095
▁demonst	-4096
▁disclosure	-4097
▁termination	-4098
owry	-4099
▁affairs	-4100
▁addressed	-4101
▁operations	-4102
▁Prog	-4103
▁extre	-4104
▁Municipal	-4105
▁strengthe	-4106
esting	-4107
ousand	-4108
▁cadre	-4109
▁forest	-4110
▁rupees	-4111
▁subsequently	-4112
azette	-4113
▁extra	-4114
▁furnished	-4115
▁shop	-4116
▁Financial	-4117
▁adjudication	-4118
aking	-4119
▁died	-4120
,000/-	-4121
vironment	-4122
▁returned	-4123
▁draft	-4124
▁threat	-4125
▁applies	-4126
▁Republic	-4127
▁disputed	-4128
▁suitable	-4129
▁bon	-4130
▁energy	-4131
▁limits	-4132
▁install	-4133
dom	-4134
▁eye	-4135
▁dise	-4136
▁ali	-4137
▁faith	-4138
▁highl	-4139
▁disability	-4140
▁Labour	-4141
▁elected	-4142
▁satisfaction	-4143
▁alternative	-4144
▁attrib	-4145
▁message	-4146
▁prescrib	-4147
▁possess	-4148
▁compr	-4149
▁Person	-4150
apers	-4151
▁reply	-4152
▁arbitral	-4153
▁primary	-4154
▁recover	-4155
▁amendments	-4156
▁oil	-4157
▁try	-4158
▁Aff	-4159
▁instructions	-4160
▁advantage	-4161
▁recognized	-4162
▁sales	-4163
▁increased	-4164
exure	-4165
▁incons	-4166
▁Stat	-4167
▁Date	-4168
▁stru	-4169
▁nomin	-4170
▁population	-4171
MC	-4172
▁Ordin	-4173
ception	-4174
▁presumption	-4175
ponse	-4176
▁investigating	-4177
▁xx	-4178
▁choice	-4179
▁purchas	-4180
ara	-4181
▁errone	-4182
▁foc	-4183
mical	-4184
▁relates	-4185
▁conclus	-4186
▁machinery	-4187
▁ratio	-4188
▁ordered	-4189
operation	-4190
▁described	-4191
▁afore	-4192
▁global	-4193
▁landlord	-4194
▁enforcement	-4195
▁inconsist	-4196
ades	-4197
rap	-4198
▁Red	-4199
▁behind	-4200
dy	-4201
ratic	-4202
AB	-4203
▁const	-4204
▁staff	-4205
▁impose	-4206
▁normal	-4207
▁suffered	-4208
PL	-4209
▁spirit	-4210
▁directing	-4211
▁unable	-4212
▁consequences	-4213
ederal	-4214
▁completely	-4215
▁contentions	-4216
▁encour	-4217
▁pendency	-4218
▁terror	-4219
▁Control	-4220
orand	-4221
spector	-4222
▁Both	-4223
herent	-4224
▁operate	-4225
▁presented	-4226
▁correspond	-4227
▁independence	-4228
▁Every	-4229
▁acquitted	-4230
▁extension	-4231
▁Bu	-4232
obile	-4233
▁advice	-4234
▁finally	-4235
▁Environment	-4236
▁disciplinary	-4237
iss	-4238
phasis	-4239
ferences	-4240
ama	-4241
▁alter	-4242
▁consequent	-4243
▁upto	-4244
▁legit	-4245
▁background	-4246
rain	-4247
▁corru	-4248
▁officials	-4249
▁measure	-4250
▁contribution	-4251
▁Madhya	-4252
▁removed	-4253
icate	-4254
▁fram	-4255
▁spot	-4256
▁discuss	-4257
▁version	-4258
▁dismissal	-4259
▁obligations	-4260
▁quite	-4261
▁greater	-4262
▁ing	-4263
▁often	-4264
▁quashed	-4265
▁attract	-4266
▁inasmuch	-4267
▁Sw	-4268
▁points	-4269
▁victims	-4270
▁discrimination	-4271
▁mental	-4272
▁oral	-4273
▁compre	-4274
▁regulation	-4275
▁Pe	-4276
▁Award	-4277
▁electricity	-4278
▁suffer	-4279
▁creditor	-4280
▁acceptance	-4281
▁Joint	-4282
▁peace	-4283
▁contains	-4284
▁understand	-4285
alf	-4286
▁Tiger	-4287
▁challenging	-4288
▁Head	-4289
▁economy	-4290
icit	-4291
▁association	-4292
▁Reason	-4293
ivered	-4294
▁origin	-4295
▁Sat	-4296
gn	-4297
eel	-4298
▁release	-4299
▁serve	-4300
▁restrictions	-4301
ager	-4302
▁Pal	-4303
▁norms	-4304
▁intent	-4305
▁workmen	-4306
▁Petitioner	-4307
▁remained	-4308
▁Che	-4309
ina	-4310
▁parents	-4311
▁Sections	-4312
▁birth	-4313
▁deliber	-4314
▁appeared	-4315
▁issuing	-4316
ients	-4317
▁profit	-4318
▁temple	-4319
▁tot	-4320
▁debtor	-4321
ream	-4322
▁manif	-4323
▁extreme	-4324
▁delivered	-4325
▁exception	-4326
ourses	-4327
▁miscon	-4328
▁current	-4329
▁Class	-4330
▁publication	-4331
▁multi	-4332
▁damages	-4333
▁confirmed	-4334
▁Prosecutor	-4335
▁exercising	-4336
▁Smt	-4337
▁recent	-4338
▁recognised	-4339
▁Li	-4340
▁assail	-4341
▁identification	-4342
▁conflict	-4343
▁UN	-4344
▁response	-4345
▁democracy	-4346
▁promote	-4347
▁rise	-4348
cious	-4349
isite	-4350
▁particulars	-4351
PS	-4352
hy	-4353
▁Ash	-4354
▁mortgage	-4355
▁subsid	-4356
▁things	-4357
▁commerce	-4358
▁governance	-4359
▁eas	-4360
▁Program	-4361
▁pursuance	-4362
dis	-4363
enty	-4364
ME	-4365
▁Chandra	-4366
▁CrPC	-4367
▁although	-4368
▁da	-4369
▁press	-4370
orandum	-4371
▁protected	-4372
▁allegation	-4373
▁inspection	-4374
hens	-4375
▁Inter	-4376
▁conven	-4377
▁values	-4378
▁lie	-4379
▁study	-4380
▁Health	-4381
▁issuance	-4382
▁Nag	-4383
▁Pras	-4384
▁valu	-4385
▁purchased	-4386
hent	-4387
▁thousand	-4388
eria	-4389
▁Human	-4390
▁schedule	-4391
set	-4392
▁pan	-4393
▁Gazette	-4394
▁Can	-4395
▁proportion	-4396
road	-4397
▁mode	-4398
▁thing	-4399
▁exchange	-4400
▁classification	-4401
▁Notwithstanding	-4402
▁Prime	-4403
▁safegu	-4404
▁offered	-4405
▁host	-4406
nother	-4407
ark	-4408
▁claimant	-4409
▁Employ	-4410
liminary	-4411
▁Pet	-4412
achal	-4413
▁events	-4414
▁injunction	-4415
▁confidence	-4416
olid	-4417
▁Mot	-4418
struction	-4419
yan	-4420
▁Khan	-4421
partments	-4422
▁Agricult	-4423
ply	-4424
let	-4425
▁bo	-4426
▁mandate	-4427
१४	-4428
▁simple	-4429
▁wa	-4430
▁categor	-4431
▁Another	-4432
▁Mus	-4433
▁dying	-4434
▁speech	-4435
▁incurred	-4436
▁Assessing	-4437
▁Ja	-4438
▁Road	-4439
▁Panchayat	-4440
▁manufacture	-4441
▁pack	-4442
▁tend	-4443
▁enough	-4444
utta	-4445
▁sil	-4446
▁caste	-4447
▁drug	-4448
OS	-4449
PE	-4450
leges	-4451
▁highest	-4452
▁Constitutional	-4453
▁Vice	-4454
▁hours	-4455
▁elabor	-4456
▁reform	-4457
▁changes	-4458
▁export	-4459
▁results	-4460
-0	-4461
vis	-4462
▁Research	-4463
▁Trib	-4464
▁bag	-4465
▁young	-4466
▁equity	-4467
▁thereon	-4468
DR	-4469
▁confer	-4470
▁Directors	-4471
▁notwithstanding	-4472
▁worth	-4473
▁impart	-4474
▁million	-4475
▁inherent	-4476
▁territory	-4477
above	-4478
ilateral	-4479
stitutes	-4480
▁voluntary	-4481
inning	-4482
▁tariff	-4483
▁phot	-4484
▁enhance	-4485
▁hereby	-4486
▁sw	-4487
/0	-4488
rog	-4489
ula	-4490
▁typ	-4491
▁gains	-4492
AG	-4493
ront	-4494
▁low	-4495
▁Conf	-4496
▁fees	-4497
umer	-4498
▁deep	-4499
▁acting	-4500
▁modern	-4501
ING	-4502
▁rape	-4503
▁problems	-4504
▁affirm	-4505
▁tri	-4506
pping	-4507
ayment	-4508
▁inserted	-4509
▁Paragraph	-4510
▁opportunities	-4511
▁Sam	-4512
▁suits	-4513
duce	-4514
ocates	-4515
▁achieved	-4516
stitutional	-4517
CE	-4518
mittees	-4519
▁recognition	-4520
▁empowered	-4521
▁situations	-4522
▁plaint	-4523
▁confirm	-4524
▁interested	-4525
▁IV	-4526
orous	-4527
▁thereunder	-4528
▁subordinate	-4529
▁Moreover	-4530
HI	-4531
MS	-4532
App	-4533
▁falls	-4534
▁taxes	-4535
▁agencies	-4536
▁incorporated	-4537
▁understanding	-4538
▁pred	-4539
▁acres	-4540
▁effic	-4541
appro	-4542
▁Election	-4543
▁problem	-4544
▁involving	-4545
▁risk	-4546
iling	-4547
▁insofar	-4548
▁CON	-4549
▁Organ	-4550
▁weeks	-4551
course	-4552
▁network	-4553
▁rever	-4554
▁creditors	-4555
▁po	-4556
▁lost	-4557
▁causing	-4558
▁prayed	-4559
▁brief	-4560
▁guilt	-4561
▁excluded	-4562
▁equally	-4563
▁getting	-4564
▁environmental	-4565
▁owners	-4566
ump	-4567
charge	-4568
▁region	-4569
▁hereinabove	-4570
▁Excise	-4571
NA	-4572
comp	-4573
while	-4574
▁Cor	-4575
anda	-4576
▁SEBI	-4577
▁conclusions	-4578
▁partnership	-4579
▁indicates	-4580
▁requested	-4581
▁attached	-4582
▁Circ	-4583
▁authorised	-4584
uss	-4585
rown	-4586
▁ele	-4587
▁Axad	-4588
▁accomp	-4589
▁weight	-4590
▁resulted	-4591
▁agreements	-4592
▁representatives	-4593
▁Rao	-4594
▁grad	-4595
▁contrad	-4596
▁allowing	-4597
▁Protection	-4598
▁Private	-4599
▁transp	-4600
▁feel	-4601
▁abuse	-4602
▁suc	-4603
▁appreciate	-4604
▁job	-4605
going	-4606
hibit	-4607
▁damage	-4608
▁doctor	-4609
▁Jain	-4610
▁Commercial	-4611
▁restriction	-4612
▁Devi	-4613
▁almost	-4614
my	-4615
ourn	-4616
▁Jag	-4617
▁Excell	-4618
▁lap	-4619
irs	-4620
▁unn	-4621
▁Judic	-4622
▁agent	-4623
▁NE	-4624
respondent	-4625
▁San	-4626
▁fig	-4627
▁prison	-4628
▁PC	-4629
▁Mod	-4630
▁eval	-4631
▁compon	-4632
▁guaranteed	-4633
iency	-4634
▁driver	-4635
▁’	-4636
▁Mon	-4637
▁Once	-4638
▁Work	-4639
▁soon	-4640
▁System	-4641
▁applying	-4642
bted	-4643
▁formed	-4644
▁immovable	-4645
▁Calc	-4646
▁assign	-4647
▁quar	-4648
▁cited	-4649
▁innoc	-4650
▁answered	-4651
▁selected	-4652
GC	-4653
▁dowry	-4654
▁succeed	-4655
▁approached	-4656
ourth	-4657
itness	-4658
▁factor	-4659
▁letters	-4660
▁allotted	-4661
utory	-4662
▁maintainable	-4663
rose	-4664
▁renewal	-4665
▁xxx	-4666
▁books	-4667
soever	-4668
▁industries	-4669
▁AC	-4670
▁preliminary	-4671
▁South	-4672
▁refers	-4673
quisition	-4674
examination	-4675
▁possibility	-4676
ape	-4677
▁card	-4678
ighted	-4679
▁Ahmed	-4680
▁confident	-4681
▁levels	-4682
▁enforce	-4683
sheet	-4684
▁moved	-4685
▁interpreted	-4686
▁pleaded	-4687
▁scrutiny	-4688
▁defici	-4689
ength	-4690
▁arose	-4691
▁handed	-4692
▁certainly	-4693
icies	-4694
right	-4695
▁necessity	-4696
▁Hy	-4697
▁Nagar	-4698
CL	-4699
▁Far	-4700
endent	-4701
▁fell	-4702
▁forum	-4703
▁formal	-4704
▁falling	-4705
▁mark	-4706
▁rou	-4707
▁prem	-4708
endra	-4709
habil	-4710
▁Para	-4711
amy	-4712
lead	-4713
▁fide	-4714
▁affirmed	-4715
▁intercourse	-4716
▁owned	-4717
▁Gur	-4718
▁correctness	-4719
eav	-4720
▁alt	-4721
▁vs	-4722
▁irre	-4723
ilities	-4724
▁comb	-4725
▁entertain	-4726
ada	-4727
ronic	-4728
▁manifest	-4729
▁absolutely	-4730
▁board	-4731
enture	-4732
▁lodged	-4733
▁authent	-4734
▁instituted	-4735
▁Now	-4736
▁Post	-4737
▁Memon	-4738
▁running	-4739
▁overr	-4740
▁Forest	-4741
▁collection	-4742
lack	-4743
▁participation	-4744
▁central	-4745
▁Calcutta	-4746
▁Child	-4747
▁containing	-4748
▁art	-4749
▁key	-4750
▁Affairs	-4751
▁contracts	-4752
well	-4753
▁raise	-4754
ique	-4755
lawful	-4756
▁features	-4757
Am	-4758
▁truth	-4759
▁Gov	-4760
▁Kal	-4761
▁log	-4762
▁tender	-4763
▁Industries	-4764
▁Met	-4765
▁laun	-4766
▁adjust	-4767
▁actions	-4768
UL	-4769
pic	-4770
▁Cap	-4771
▁heart	-4772
▁claiming	-4773
▁ownership	-4774
PT	-4775
ensive	-4776
▁litig	-4777
▁withdraw	-4778
▁Territory	-4779
▁endeav	-4780
▁AS	-4781
▁opt	-4782
usiness	-4783
▁systems	-4784
▁vehicles	-4785
▁instrument	-4786
▁scientific	-4787
tle	-4788
cast	-4789
▁length	-4790
▁subjected	-4791
▁analy	-4792
▁none	-4793
▁named	-4794
▁creation	-4795
▁z	-4796
▁seiz	-4797
▁seeks	-4798
▁properly	-4799
▁resulting	-4800
ka	-4801
▁improve	-4802
▁observation	-4803
▁confessional	-4804
atever	-4805
▁personnel	-4806
uter	-4807
▁accru	-4808
▁speed	-4809
uity	-4810
wan	-4811
aram	-4812
▁early	-4813
▁violence	-4814
▁fails	-4815
ARD	-4816
▁Judgment	-4817
RO	-4818
▁Design	-4819
▁residential	-4820
▁rein	-4821
▁cruel	-4822
uvenile	-4823
▁regarded	-4824
▁rigorous	-4825
inks	-4826
▁advocate	-4827
▁suffering	-4828
position	-4829
▁rational	-4830
▁felt	-4831
▁Reserve	-4832
know	-4833
▁esc	-4834
▁subxad	-4835
▁circular	-4836
▁tradition	-4837
prises	-4838
ones	-4839
▁Char	-4840
▁explain	-4841
vt	-4842
▁speaking	-4843
▁paper	-4844
▁immediate	-4845
▁requisite	-4846
▁successful	-4847
ikh	-4848
▁latter	-4849
▁grievance	-4850
▁gross	-4851
▁consistent	-4852
ij	-4853
sue	-4854
▁examining	-4855
▁exclusive	-4856
▁violative	-4857
▁ordinarily	-4858
ns	-4859
▁ambit	-4860
▁ultimately	-4861
icating	-4862
▁proc	-4863
▁Prasad	-4864
▁Inspector	-4865
▁temporary	-4866
▁imposition	-4867
osition	-4868
asonable	-4869
▁Sa	-4870
▁Leave	-4871
▁poor	-4872
▁imported	-4873
▁sanctioned	-4874
▁pec	-4875
▁classes	-4876
AD	-4877
▁diver	-4878
orial	-4879
aches	-4880
▁estate	-4881
▁secure	-4882
▁courses	-4883
▁entrust	-4884
▁rank	-4885
anger	-4886
▁Shah	-4887
▁residence	-4888
▁representative	-4889
De	-4890
rel	-4891
▁strictly	-4892
▁pleadings	-4893
mir	-4894
antly	-4895
▁Customs	-4896
▁reasoning	-4897
▁filled	-4898
ilt	-4899
▁half	-4900
▁assembly	-4901
undred	-4902
▁deserv	-4903
▁entity	-4904
▁repeal	-4905
▁element	-4906
▁suicide	-4907
▁omission	-4908
TE	-4909
▁cou	-4910
▁model	-4911
▁parame	-4912
▁plain	-4913
▁daily	-4914
oj	-4915
▁eviction	-4916
▁Certificate	-4917
yal	-4918
elled	-4919
▁text	-4920
▁longer	-4921
▁farmers	-4922
rep	-4923
▁),	-4924
▁deleg	-4925
▁conducting	-4926
▁really	-4927
▁policies	-4928
▁sam	-4929
▁acted	-4930
▁irres	-4931
ales	-4932
▁ever	-4933
icitor	-4934
oured	-4935
usion	-4936
▁guarantee	-4937
▁overall	-4938
▁Dec	-4939
▁Parliamentary	-4940
▁ed	-4941
▁ship	-4942
ervation	-4943
▁substituted	-4944
wo	-4945
▁Agg	-4946
▁lawy	-4947
▁objects	-4948
▁concurrent	-4949
ques	-4950
▁bear	-4951
▁retired	-4952
▁criteria	-4953
▁nos	-4954
▁facility	-4955
▁Arbitrator	-4956
▁.[	-4957
▁Administrative	-4958
▁promis	-4959
▁revised	-4960
▁confined	-4961
▁Page	-4962
▁Will	-4963
▁genu	-4964
uent	-4965
▁defect	-4966
▁processing	-4967
Ind	-4968
omen	-4969
▁modified	-4970
▁barred	-4971
▁patent	-4972
▁unlawful	-4973
▁alongwith	-4974
▁retrospective	-4975
ller	-4976
▁link	-4977
▁autom	-4978
▁compound	-4979
▁Consequently	-4980
AM	-4981
US	-4982
▁remand	-4983
uge	-4984
rity	-4985
▁mutual	-4986
▁comprom	-4987
▁envisaged	-4988
▁implemented	-4989
▁Of	-4990
▁considerations	-4991
▁marked	-4992
▁manufacturing	-4993
▁conce	-4994
▁hereunder	-4995
▁withdrawn	-4996
ots	-4997
ulates	-4998
▁Ordinance	-4999
▁purchaser	-5000
▁whatsoever	-5001
▁acknow	-5002
▁restra	-5003
▁located	-5004
▁indirect	-5005
aul	-5006
irty	-5007
amily	-5008
▁items	-5009
▁explos	-5010
▁eight	-5011
▁Superint	-5012
eric	-5013
▁Dig	-5014
istan	-5015
▁reach	-5016
▁statutes	-5017
▁qua	-5018
itary	-5019
▁totally	-5020
▁conscious	-5021
▁occurred	-5022
osing	-5023
▁night	-5024
▁legally	-5025
AA	-5026
ett	-5027
ishing	-5028
itoring	-5029
▁Review	-5030
▁married	-5031
nam	-5032
▁Convention	-5033
▁Pvt	-5034
▁surre	-5035
atal	-5036
▁quoted	-5037
▁entries	-5038
ayan	-5039
▁Acts	-5040
▁manufacturer	-5041
uro	-5042
venth	-5043
amation	-5044
ishment	-5045
▁Allah	-5046
▁negligence	-5047
ask	-5048
▁check	-5049
▁mechanism	-5050
▁something	-5051
):	-5052
athe	-5053
▁refused	-5054
▁seizure	-5055
▁democratic	-5056
▁reproduced	-5057
▁Ven	-5058
▁usu	-5059
▁lives	-5060
▁engine	-5061
▁arms	-5062
▁prospect	-5063
▁Laws	-5064
hensive	-5065
▁summon	-5066
Ch	-5067
▁trib	-5068
▁erroneous	-5069
▁operational	-5070
▁Di	-5071
▁Ali	-5072
▁Kash	-5073
▁withdrawal	-5074
CA	-5075
▁Annexure	-5076
een	-5077
▁comply	-5078
▁circumstance	-5079
▁Dh	-5080
▁Exchange	-5081
▁performed	-5082
▁Aud	-5083
kash	-5084
▁distance	-5085
▁parameters	-5086
▁Respondents	-5087
avy	-5088
▁generation	-5089
▁sq	-5090
▁payments	-5091
▁Aggrieved	-5092
athi	-5093
ricted	-5094
▁erred	-5095
▁exclusion	-5096
▁receiving	-5097
bel	-5098
lauses	-5099
▁Build	-5100
▁Af	-5101
ergency	-5102
▁securities	-5103
arth	-5104
▁dues	-5105
▁framework	-5106
ayuk	-5107
rule	-5108
ports	-5109
▁pain	-5110
minent	-5111
▁insurer	-5112
havi	-5113
▁indeed	-5114
▁passage	-5115
▁contents	-5116
▁Excellency	-5117
▁poll	-5118
▁surv	-5119
▁quashing	-5120
EP	-5121
urring	-5122
▁Water	-5123
▁seats	-5124
▁disclose	-5125
bur	-5126
eth	-5127
▁ingred	-5128
▁believe	-5129
▁creating	-5130
▁Acquisition	-5131
alg	-5132
▁intim	-5133
▁Engineer	-5134
▁standing	-5135
▁Ext	-5136
rees	-5137
▁base	-5138
▁twenty	-5139
▁associated	-5140
udh	-5141
ae	-5142
dul	-5143
▁inqu	-5144
▁sound	-5145
▁worked	-5146
▁willing	-5147
hend	-5148
▁prohibition	-5149
▁Universities	-5150
▁Full	-5151
▁stor	-5152
▁Bas	-5153
▁Dev	-5154
▁complied	-5155
▁influence	-5156
▁SH	-5157
▁wish	-5158
etings	-5159
regular	-5160
......	-5161
▁Rent	-5162
inking	-5163
▁Reliance	-5164
१५	-5165
▁struck	-5166
▁advertise	-5167
’)	-5168
gest	-5169
oral	-5170
uous	-5171
▁Shiv	-5172
▁notes	-5173
▁driving	-5174
prene	-5175
▁whatever	-5176
▁attracted	-5177
▁exceeding	-5178
.(	-5179
▁afford	-5180
▁satisfy	-5181
▁Solicitor	-5182
Pro	-5183
▁Non	-5184
achment	-5185
reprene	-5186
▁Allahabad	-5187
grad	-5188
▁cul	-5189
▁pleas	-5190
▁recall	-5191
▁qualification	-5192
▁dele	-5193
isting	-5194
▁harass	-5195
▁capable	-5196
including	-5197
▁arrangement	-5198
▁grave	-5199
▁levied	-5200
▁channel	-5201
▁ensuring	-5202
▁complaints	-5203
▁Goa	-5204
▁bond	-5205
▁equip	-5206
▁admissible	-5207
▁team	-5208
▁clarified	-5209
phold	-5210
▁wishes	-5211
▁concerning	-5212
essel	-5213
▁King	-5214
▁uns	-5215
▁Assam	-5216
▁increasing	-5217
fe	-5218
▁MCI	-5219
▁causes	-5220
iform	-5221
▁divor	-5222
▁allocation	-5223
▁Electricity	-5224
▁type	-5225
▁exists	-5226
▁sister	-5227
hanced	-5228
▁bench	-5229
▁compuls	-5230
leb	-5231
▁Aust	-5232
▁seems	-5233
▁Muslim	-5234
▁attend	-5235
▁Business	-5236
▁Defendant	-5237
▁objectives	-5238
▁availability	-5239
▁else	-5240
▁rare	-5241
▁Foreign	-5242
▁Insofar	-5243
▁framing	-5244
▁strateg	-5245
▁Statement	-5246
▁Appellants	-5247
▁recon	-5248
haviour	-5249
▁liquid	-5250
▁equival	-5251
▁seat	-5252
▁Programme	-5253
▁integrity	-5254
▁jun	-5255
▁Bhag	-5256
▁assessed	-5257
▁procedural	-5258
▁prohibited	-5259
habilitation	-5260
ita	-5261
vency	-5262
author	-5263
▁belief	-5264
▁compar	-5265
▁sustainable	-5266
▁consumers	-5267
▁Abdul	-5268
▁groups	-5269
▁partly	-5270
▁defines	-5271
▁involvement	-5272
▁MS	-5273
▁Sign	-5274
▁enum	-5275
▁discharged	-5276
▁Prom	-5277
▁uphold	-5278
▁contend	-5279
▁relying	-5280
onn	-5281
▁Up	-5282
▁colleges	-5283
▁Plaintiff	-5284
▁legitimate	-5285
▁Suit	-5286
▁learning	-5287
▁contractor	-5288
▁BC	-5289
compl	-5290
▁media	-5291
▁competence	-5292
▁bul	-5293
▁tal	-5294
▁Deed	-5295
▁Dist	-5296
▁sens	-5297
▁listed	-5298
▁needed	-5299
ga	-5300
▁Ed	-5301
▁Vol	-5302
▁disease	-5303
▁consumer	-5304
▁significance	-5305
▁My	-5306
UN	-5307
▁iron	-5308
ibilities	-5309
▁active	-5310
ibly	-5311
▁Also	-5312
▁committing	-5313
▁PS	-5314
▁br	-5315
▁pros	-5316
▁Interest	-5317
uc	-5318
▁Small	-5319
▁complex	-5320
▁enhanced	-5321
▁Pand	-5322
▁Mohan	-5323
olvency	-5324
▁England	-5325
RE	-5326
▁Anr	-5327
orship	-5328
▁Proper	-5329
▁remove	-5330
just	-5331
antial	-5332
▁repealed	-5333
▁superior	-5334
▁justification	-5335
pet	-5336
▁Tri	-5337
alore	-5338
ey	-5339
▁repla	-5340
▁distur	-5341
▁schools	-5342
▁sitting	-5343
▁mag	-5344
free	-5345
pper	-5346
▁lib	-5347
▁positive	-5348
▁manufactured	-5349
▁Investigating	-5350
.[	-5351
▁session	-5352
▁survey	-5353
▁relative	-5354
▁grat	-5355
▁North	-5356
▁Apart	-5357
▁foundation	-5358
▁vest	-5359
▁medic	-5360
▁vital	-5361
▁showing	-5362
▁inconsistent	-5363
iar	-5364
etent	-5365
▁Brit	-5366
▁simply	-5367
▁Railway	-5368
▁quantity	-5369
wa	-5370
▁huge	-5371
▁deliver	-5372
▁separately	-5373
▁cooperation	-5374
▁Are	-5375
where	-5376
▁Family	-5377
ocks	-5378
orse	-5379
▁Legal	-5380
▁papers	-5381
▁conform	-5382
▁doctors	-5383
▁bringing	-5384
pex	-5385
▁danger	-5386
from	-5387
▁Ant	-5388
▁prop	-5389
ERS	-5390
ols	-5391
▁AT	-5392
▁founded	-5393
▁allowance	-5394
▁verification	-5395
levant	-5396
▁irrespective	-5397
▁qualifications	-5398
arh	-5399
teen	-5400
iment	-5401
▁friendly	-5402
▁restrict	-5403
▁chargeable	-5404
▁aforementioned	-5405
iles	-5406
▁cong	-5407
▁DNA	-5408
▁hundred	-5409
▁procedures	-5410
▁transportation	-5411
iy	-5412
▁Americ	-5413
cond	-5414
redit	-5415
▁facilitate	-5416
oice	-5417
▁Third	-5418
▁imposing	-5419
ommod	-5420
ertion	-5421
▁commenced	-5422
▁percentage	-5423
▁Vis	-5424
udence	-5425
▁buildings	-5426
requ	-5427
▁valuable	-5428
▁efficient	-5429
▁Id	-5430
anas	-5431
▁Recovery	-5432
▁dil	-5433
▁fem	-5434
tinent	-5435
▁acquire	-5436
▁minerals	-5437
▁applicability	-5438
nai	-5439
▁Bl	-5440
paration	-5441
▁autonom	-5442
▁beginning	-5443
▁greetings	-5444
lar	-5445
▁Ret	-5446
organ	-5447
oubted	-5448
itations	-5449
,—	-5450
▁cm	-5451
ulty	-5452
▁changed	-5453
▁throughout	-5454
▁constructed	-5455
▁motive	-5456
igil	-5457
▁annum	-5458
▁prices	-5459
▁useful	-5460
▁sectors	-5461
▁contravention	-5462
▁squ	-5463
istics	-5464
▁effectively	-5465
dh	-5466
arc	-5467
▁mal	-5468
▁factory	-5469
▁Transport	-5470
▁entrusted	-5471
▁enumerated	-5472
▁Roh	-5473
▁Arun	-5474
▁uniform	-5475
ammu	-5476
oses	-5477
▁normally	-5478
RT	-5479
gy	-5480
▁operating	-5481
▁misconduct	-5482
OC	-5483
raft	-5484
▁amb	-5485
▁core	-5486
▁declare	-5487
▁initially	-5488
▁Army	-5489
▁mobile	-5490
▁awarding	-5491
▁primarily	-5492
▁viti	-5493
▁Pension	-5494
▁Trade	-5495
rigation	-5496
▁irregular	-5497
▁appreciation	-5498
ami	-5499
▁mit	-5500
rears	-5501
▁gold	-5502
▁rail	-5503
▁vessel	-5504
▁consequential	-5505
▁harmon	-5506
▁holders	-5507
▁inference	-5508
ev	-5509
▁Castes	-5510
▁regulate	-5511
▁Jammu	-5512
▁Constit	-5513
▁challenges	-5514
aren	-5515
comm	-5516
▁Vill	-5517
▁earn	-5518
▁wound	-5519
▁unreasonable	-5520
ley	-5521
▁Val	-5522
▁rival	-5523
▁People	-5524
▁Besides	-5525
▁Kashmir	-5526
▁calculated	-5527
▁cast	-5528
▁continues	-5529
erate	-5530
▁vend	-5531
▁target	-5532
▁quantum	-5533
▁Regional	-5534
▁eligibility	-5535
hon	-5536
irms	-5537
▁contact	-5538
bid	-5539
▁governing	-5540
▁qualified	-5541
▁lies	-5542
▁raising	-5543
▁supplement	-5544
▁comprehensive	-5545
verse	-5546
▁estim	-5547
▁resol	-5548
▁Welfare	-5549
▁authorized	-5550
Rs	-5551
lax	-5552
anging	-5553
▁famil	-5554
▁Training	-5555
▁restricted	-5556
▁Registration	-5557
BS	-5558
▁culture	-5559
asw	-5560
isc	-5561
▁Him	-5562
▁Again	-5563
▁types	-5564
ometric	-5565
▁requiring	-5566
▁Mand	-5567
ancellor	-5568
▁incl	-5569
▁operative	-5570
▁highlighted	-5571
▁Superintendent	-5572
abled	-5573
▁happy	-5574
▁thirty	-5575
--------	-5576
▁deposition	-5577
▁organization	-5578
▁top	-5579
ifies	-5580
lease	-5581
▁antic	-5582
▁space	-5583
▁meetings	-5584
body	-5585
▁city	-5586
itally	-5587
ported	-5588
▁sources	-5589
▁corresponding	-5590
isen	-5591
abling	-5592
▁Banks	-5593
▁Sector	-5594
▁movement	-5595
▁equivalent	-5596
bts	-5597
▁lac	-5598
▁ready	-5599
Os	-5600
prise	-5601
▁Disp	-5602
▁says	-5603
▁ruled	-5604
▁little	-5605
▁asserted	-5606
▁invoked	-5607
▁accommod	-5608
▁Conference	-5609
co	-5610
vity	-5611
▁bad	-5612
▁save	-5613
▁amalg	-5614
▁guard	-5615
oubtedly	-5616
▁entirely	-5617
▁gas	-5618
reet	-5619
▁anticip	-5620
▁organiz	-5621
lex	-5622
rist	-5623
rance	-5624
▁load	-5625
▁commod	-5626
osh	-5627
▁focus	-5628
▁cultiv	-5629
▁repeated	-5630
▁CR	-5631
▁inflic	-5632
▁definite	-5633
MP	-5634
▁RBI	-5635
rency	-5636
▁pure	-5637
▁storage	-5638
▁interven	-5639
▁Bangalore	-5640
▁Resolution	-5641
▁crop	-5642
ume	-5643
ung	-5644
OL	-5645
issa	-5646
▁Inf	-5647
▁heirs	-5648
akf	-5649
▁saw	-5650
icing	-5651
▁struct	-5652
▁license	-5653
overe	-5654
▁task	-5655
▁unfair	-5656
▁banking	-5657
▁questioned	-5658
▁Dhar	-5659
▁Year	-5660
▁null	-5661
▁cruelty	-5662
▁cultural	-5663
▁soft	-5664
▁holds	-5665
▁newsp	-5666
▁accepting	-5667
▁exclus	-5668
▁pertinent	-5669
othes	-5670
▁fear	-5671
▁Two	-5672
▁stock	-5673
▁di	-5674
anied	-5675
▁extract	-5676
▁obviously	-5677
▁consumption	-5678
uel	-5679
▁tenure	-5680
▁Territories	-5681
▁initiatives	-5682
▁substantially	-5683
▁hear	-5684
▁Capital	-5685
Amendment	-5686
.....	-5687
▁Chen	-5688
employ	-5689
▁clean	-5690
▁histor	-5691
istrator	-5692
▁Meh	-5693
▁Compl	-5694
▁audit	-5695
▁elections	-5696
▁Ge	-5697
emed	-5698
▁reduce	-5699
▁identify	-5700
rah	-5701
▁marg	-5702
▁Rajya	-5703
▁vires	-5704
adav	-5705
inet	-5706
▁Pak	-5707
▁exc	-5708
▁arisen	-5709
▁partition	-5710
▁City	-5711
▁dealer	-5712
hibition	-5713
▁conversion	-5714
ians	-5715
▁bona	-5716
CR	-5717
▁Kar	-5718
▁supra	-5719
ategory	-5720
derabad	-5721
stituting	-5722
▁emphasis	-5723
▁Selection	-5724
▁Chh	-5725
▁Enter	-5726
▁unnecess	-5727
VE	-5728
ugg	-5729
mort	-5730
▁excise	-5731
▁sentences	-5732
▁applicants	-5733
holder	-5734
▁motion	-5735
▁crucial	-5736
enth	-5737
ites	-5738
oned	-5739
▁week	-5740
▁urban	-5741
▁fields	-5742
For	-5743
aug	-5744
▁Ur	-5745
▁Their	-5746
▁Austral	-5747
▁inclined	-5748
▁accompanied	-5749
▁VI	-5750
▁Kol	-5751
▁You	-5752
▁Designated	-5753
▁innovation	-5754
▁participated	-5755
AI	-5756
▁foot	-5757
▁aggreg	-5758
▁borrower	-5759
▁cri	-5760
ulating	-5761
▁developing	-5762
▁Engineering	-5763
▁distinguished	-5764
ja	-5765
▁Sun	-5766
ayukta	-5767
estion	-5768
mination	-5769
▁Committees	-5770
▁agriculture	-5771
▁cy	-5772
▁warm	-5773
▁ultimate	-5774
▁privilege	-5775
▁compromise	-5776
▁late	-5777
▁Session	-5778
▁chemical	-5779
▁Das	-5780
▁hom	-5781
▁Govt	-5782
▁Manager	-5783
▁arrears	-5784
▁Dem	-5785
▁mist	-5786
sees	-5787
▁Bab	-5788
▁sem	-5789
▁harm	-5790
▁Bharat	-5791
▁Prakash	-5792
▁Maj	-5793
omin	-5794
▁block	-5795
▁relax	-5796
▁consisting	-5797
▁Food	-5798
▁felic	-5799
▁taxation	-5800
HAN	-5801
nan	-5802
▁dr	-5803
wari	-5804
head	-5805
▁touch	-5806
▁average	-5807
▁servants	-5808
BC	-5809
UD	-5810
▁NG	-5811
itan	-5812
sych	-5813
▁pregn	-5814
sub	-5815
utt	-5816
▁don	-5817
▁send	-5818
▁borne	-5819
▁paying	-5820
▁prefer	-5821
▁Security	-5822
▁universities	-5823
▁Mohd	-5824
▁prosper	-5825
▁PM	-5826
▁Gre	-5827
▁tort	-5828
▁domain	-5829
▁British	-5830
▁monthly	-5831
▁photograph	-5832
FT	-5833
ena	-5834
vas	-5835
▁anim	-5836
▁vote	-5837
▁finds	-5838
▁stake	-5839
▁Orissa	-5840
oti	-5841
▁Hyderabad	-5842
jit	-5843
▁Mit	-5844
▁paras	-5845
▁Tribes	-5846
▁weapons	-5847
▁planning	-5848
▁nomination	-5849
▁regulatory	-5850
▁documentary	-5851
▁Est	-5852
▁Consid	-5853
mn	-5854
rav	-5855
▁Unit	-5856
▁liter	-5857
▁acceptable	-5858
▁Administration	-5859
▁justify	-5860
▁largest	-5861
oke	-5862
▁goes	-5863
▁size	-5864
▁sure	-5865
▁dates	-5866
▁front	-5867
ologies	-5868
▁Kam	-5869
▁defe	-5870
ciation	-5871
▁effort	-5872
▁enabling	-5873
▁offender	-5874
▁cancellation	-5875
▁Ve	-5876
aves	-5877
bhai	-5878
otion	-5879
▁Stand	-5880
▁involves	-5881
▁clearance	-5882
▁offices	-5883
▁concerns	-5884
alli	-5885
ependence	-5886
▁beneficial	-5887
▁Imp	-5888
▁gets	-5889
orrect	-5890
▁chain	-5891
▁Market	-5892
▁Subject	-5893
▁opposed	-5894
▁negative	-5895
▁identical	-5896
inger	-5897
cons	-5898
▁genuine	-5899
▁dismissing	-5900
ortun	-5901
▁flat	-5902
vance	-5903
▁fast	-5904
amount	-5905
▁Econom	-5906
▁science	-5907
▁ingredients	-5908
haust	-5909
▁entreprene	-5910
ESS	-5911
iche	-5912
▁methods	-5913
▁numbers	-5914
▁occupation	-5915
▁suspension	-5916
▁represented	-5917
esty	-5918
▁Pan	-5919
▁input	-5920
▁Village	-5921
▁underlying	-5922
▁description	-5923
▁maintaining	-5924
▁copies	-5925
▁insured	-5926
adh	-5927
sing	-5928
▁ban	-5929
▁licen	-5930
▁Appeals	-5931
▁reasonably	-5932
▁nut	-5933
▁reb	-5934
khand	-5935
▁spread	-5936
An	-5937
▁RI	-5938
icro	-5939
▁Based	-5940
▁Credit	-5941
▁Houses	-5942
▁multip	-5943
▁foregoing	-5944
▁electronic	-5945
▁harassment	-5946
▁Ans	-5947
▁divorce	-5948
▁experts	-5949
SCC	-5950
mortem	-5951
▁rejection	-5952
▁NCT	-5953
▁Net	-5954
▁Ashok	-5955
▁notices	-5956
▁external	-5957
▁correctly	-5958
▁CA	-5959
ocal	-5960
▁Dub	-5961
▁Try	-5962
▁seed	-5963
▁workman	-5964
▁computing	-5965
cture	-5966
gress	-5967
▁highly	-5968
UM	-5969
ureau	-5970
▁Claim	-5971
▁१६	-5972
kata	-5973
▁round	-5974
▁honour	-5975
▁centres	-5976
▁invited	-5977
ini	-5978
▁Reddy	-5979
▁Chennai	-5980
▁Sum	-5981
▁gun	-5982
ially	-5983
onsid	-5984
▁BCCI	-5985
▁vision	-5986
lam	-5987
garh	-5988
▁cry	-5989
order	-5990
▁sovere	-5991
▁ascertain	-5992
ili	-5993
igarh	-5994
▁Port	-5995
essees	-5996
▁hotel	-5997
▁Survey	-5998
▁abroad	-5999
▁relate	-6000
▁precedent	-6001
▁scheduled	-6002
rab	-6003
▁Aut	-6004
▁Her	-6005
▁Sah	-6006
uration	-6007
▁mainly	-6008
▁commitment	-6009
▁participate	-6010
bal	-6011
▁Rav	-6012
etary	-6013
▁inside	-6014
▁Arbitral	-6015
▁proceeds	-6016
Em	-6017
▁rap	-6018
▁hope	-6019
▁undue	-6020
▁illust	-6021
▁Krishna	-6022
▁carefully	-6023
▁forwarded	-6024
TH	-6025
▁exhaust	-6026
▁signature	-6027
▁designated	-6028
▁crops	-6029
▁DEL	-6030
olition	-6031
▁unique	-6032
▁depends	-6033
▁comprising	-6034
▁cart	-6035
▁ment	-6036
▁Category	-6037
▁Your	-6038
▁lying	-6039
▁violated	-6040
▁Digitally	-6041
▁perspective	-6042
▁Art	-6043
▁cal	-6044
aneous	-6045
▁jurispr	-6046
▁Himachal	-6047
▁teaching	-6048
▁idea	-6049
▁explo	-6050
▁Notice	-6051
▁theory	-6052
▁conclude	-6053
▁subjects	-6054
▁allegedly	-6055
▁extremely	-6056
▁collective	-6057
roller	-6058
▁organisation	-6059
LA	-6060
aks	-6061
▁Being	-6062
▁Found	-6063
▁square	-6064
resident	-6065
▁appointing	-6066
▁God	-6067
tains	-6068
▁Stud	-6069
▁memo	-6070
▁rect	-6071
▁destro	-6072
▁partner	-6073
▁depending	-6074
▁preceding	-6075
▁continuing	-6076
▁Chairperson	-6077
mi	-6078
whe	-6079
laws	-6080
▁Note	-6081
▁anti	-6082
eeping	-6083
General	-6084
▁weapon	-6085
rew	-6086
▁Ay	-6087
▁Ca	-6088
ders	-6089
▁ant	-6090
▁vag	-6091
▁Yadav	-6092
▁wealth	-6093
▁implied	-6094
▁morality	-6095
▁Marriage	-6096
▁processes	-6097
yam	-6098
▁Add	-6099
▁obs	-6100
▁female	-6101
▁dispose	-6102
▁ignored	-6103
▁specify	-6104
▁biometric	-6105
▁admittedly	-6106
▁suggestion	-6107
▁denial	-6108
▁propri	-6109
▁Transfer	-6110
▁incorrect	-6111
▁continuous	-6112
upon	-6113
▁shif	-6114
▁absor	-6115
▁suggestions	-6116
▁Exp	-6117
ankar	-6118
oring	-6119
▁interf	-6120
▁shared	-6121
▁implead	-6122
▁advertisement	-6123
▁exclusively	-6124
pal	-6125
▁Equ	-6126
adequ	-6127
▁armed	-6128
▁opening	-6129
▁certified	-6130
▁Authorities	-6131
▁limitations	-6132
▁Reform	-6133
▁Science	-6134
▁obvious	-6135
▁internal	-6136
ila	-6137
▁IS	-6138
▁weak	-6139
▁moral	-6140
▁range	-6141
▁Managing	-6142
▁Verified	-6143
▁Tem	-6144
▁opened	-6145
.00	-6146
▁PE	-6147
▁Force	-6148
▁Rural	-6149
▁friends	-6150
▁Although	-6151
▁promoted	-6152
▁emergency	-6153
haps	-6154
which	-6155
▁story	-6156
▁purview	-6157
▁Property	-6158
See	-6159
▁lays	-6160
▁ability	-6161
▁attained	-6162
▁acknowled	-6163
▁interpreting	-6164
Con	-6165
▁IST	-6166
▁calls	-6167
▁Others	-6168
▁laying	-6169
▁vacancy	-6170
oration	-6171
▁Branch	-6172
▁regional	-6173
▁authentication	-6174
oul	-6175
owed	-6176
▁Vid	-6177
enders	-6178
▁colour	-6179
▁tenancy	-6180
▁reconsid	-6181
▁informant	-6182
bh	-6183
rand	-6184
uality	-6185
▁imposs	-6186
▁formula	-6187
▁inclusive	-6188
▁outstanding	-6189
RC	-6190
off	-6191
Civil	-6192
▁Kish	-6193
▁burn	-6194
▁divid	-6195
▁Social	-6196
▁Exhibit	-6197
▁Engineers	-6198
▁improvement	-6199
▁considerable	-6200
DS	-6201
▁lif	-6202
monial	-6203
▁alien	-6204
atically	-6205
▁landing	-6206
▁reduction	-6207
Comp	-6208
▁NEW	-6209
▁Issue	-6210
▁deserves	-6211
▁consequently	-6212
▁Sanj	-6213
isable	-6214
▁excell	-6215
▁adduced	-6216
▁growing	-6217
▁Pakistan	-6218
overty	-6219
▁celeb	-6220
▁Clauses	-6221
▁perused	-6222
▁efficiency	-6223
▁imperative	-6224
ails	-6225
▁corporation	-6226
▁Crime	-6227
▁infring	-6228
▁compared	-6229
▁villages	-6230
▁essentially	-6231
gone	-6232
▁UGC	-6233
aling	-6234
▁World	-6235
▁floor	-6236
▁nominated	-6237
▁controlled	-6238
▁incidental	-6239
▁rehabilitation	-6240
ni	-6241
ora	-6242
urt	-6243
▁suspic	-6244
▁computer	-6245
▁revealed	-6246
writ	-6247
▁Vij	-6248
▁travel	-6249
▁adverted	-6250
▁fulfilled	-6251
▁Chandigarh	-6252
▁indul	-6253
▁stayed	-6254
▁placing	-6255
▁studies	-6256
chol	-6257
▁PWs	-6258
▁awards	-6259
▁narrow	-6260
▁feature	-6261
▁consists	-6262
▁currency	-6263
▁priority	-6264
def	-6265
▁black	-6266
▁pleasure	-6267
▁bilateral	-6268
▁rejecting	-6269
inem	-6270
▁Out	-6271
othing	-6272
▁plants	-6273
▁equitable	-6274
▁undertake	-6275
▁modification	-6276
ushan	-6277
enable	-6278
▁Women	-6279
▁plans	-6280
▁spite	-6281
▁liabilities	-6282
aksh	-6283
leum	-6284
oles	-6285
ellig	-6286
▁deprived	-6287
▁integral	-6288
ATE	-6289
mun	-6290
▁cum	-6291
▁blast	-6292
▁closed	-6293
▁preparation	-6294
ruits	-6295
▁Oper	-6296
▁advised	-6297
▁entities	-6298
ney	-6299
▁mix	-6300
rapali	-6301
▁Awards	-6302
▁launched	-6303
▁Jay	-6304
isted	-6305
▁Common	-6306
▁Corpor	-6307
▁congrat	-6308
▁corrupt	-6309
▁families	-6310
▁Constituent	-6311
ching	-6312
▁Defence	-6313
tificates	-6314
▁Standing	-6315
▁establishing	-6316
opp	-6317
▁Op	-6318
▁VII	-6319
▁liberal	-6320
▁innocent	-6321
▁unauthor	-6322
ected	-6323
▁ends	-6324
▁feed	-6325
▁forfe	-6326
▁Speaking	-6327
▁construct	-6328
▁formulated	-6329
▁felicitations	-6330
Un	-6331
▁lab	-6332
riages	-6333
▁yield	-6334
▁investors	-6335
▁Euro	-6336
▁moment	-6337
▁perpet	-6338
▁deposits	-6339
▁Follow	-6340
▁Object	-6341
▁tests	-6342
▁crimes	-6343
▁orient	-6344
▁relatives	-6345
izes	-6346
▁Amrapali	-6347
▁societies	-6348
Ad	-6349
iece	-6350
osen	-6351
▁admit	-6352
▁faculty	-6353
play	-6354
▁Var	-6355
▁soil	-6356
ensation	-6357
▁variety	-6358
▁Tribunals	-6359
▁FOR	-6360
orily	-6361
▁Consumer	-6362
more	-6363
▁incent	-6364
▁implication	-6365
AIR	-6366
▁Gh	-6367
▁hab	-6368
▁Each	-6369
▁leases	-6370
▁vacant	-6371
▁Tar	-6372
▁stages	-6373
nov	-6374
raf	-6375
inqu	-6376
▁Kaur	-6377
▁ultra	-6378
▁expedit	-6379
▁compulsory	-6380
ows	-6381
vere	-6382
▁loans	-6383
▁fixing	-6384
▁leaving	-6385
▁permits	-6386
▁built	-6387
▁stamp	-6388
▁Railways	-6389
▁observing	-6390
EF	-6391
▁Jhar	-6392
▁casual	-6393
▁wanted	-6394
▁similarly	-6395
kn	-6396
mal	-6397
▁Vin	-6398
▁scen	-6399
unior	-6400
roleum	-6401
▁batch	-6402
▁decades	-6403
▁reliable	-6404
▁aggregate	-6405
appa	-6406
clear	-6407
▁town	-6408
▁Gopal	-6409
▁adult	-6410
▁declined	-6411
orn	-6412
▁Money	-6413
▁prevailing	-6414
▁qualifying	-6415
ropol	-6416
▁oath	-6417
public	-6418
▁Revision	-6419
▁designed	-6420
▁undergone	-6421
▁prosperity	-6422
▁unnecessary	-6423
▁discriminatory	-6424
xx	-6425
▁uses	-6426
▁royal	-6427
▁sides	-6428
▁Ro	-6429
▁effected	-6430
▁empowers	-6431
▁Institutions	-6432
chand	-6433
▁code	-6434
abinet	-6435
irable	-6436
▁Consult	-6437
▁shareholders	-6438
▁bomb	-6439
elling	-6440
ichever	-6441
▁dishon	-6442
▁Planning	-6443
▁membership	-6444
▁departmental	-6445
uck	-6446
▁ge	-6447
▁eth	-6448
▁visited	-6449
▁surrender	-6450
mp	-6451
▁chosen	-6452
▁resort	-6453
like	-6454
▁neigh	-6455
▁liquor	-6456
▁solely	-6457
▁backward	-6458
▁terminated	-6459
TS	-6460
▁NI	-6461
ghal	-6462
▁Car	-6463
▁DELHI	-6464
▁relevance	-6465
▁valuation	-6466
▁institutional	-6467
▁notifications	-6468
▁East	-6469
▁derived	-6470
▁Jam	-6471
▁deeds	-6472
▁buyers	-6473
▁federal	-6474
▁Judicature	-6475
Reg	-6476
▁Hotel	-6477
▁lines	-6478
▁persu	-6479
igilance	-6480
▁Secondly	-6481
NG	-6482
▁Sale	-6483
▁cell	-6484
judicial	-6485
▁Circular	-6486
▁organized	-6487
ze	-6488
▁brok	-6489
▁Patna	-6490
▁communicated	-6491
SL	-6492
ilos	-6493
enant	-6494
▁socio	-6495
emphasis	-6496
▁essence	-6497
▁punished	-6498
velled	-6499
▁collabor	-6500
▁entertained	-6501
▁GO	-6502
uddin	-6503
▁mass	-6504
arency	-6505
▁mus	-6506
▁Only	-6507
▁Vish	-6508
▁Annual	-6509
▁behaviour	-6510
▁terrorist	-6511
▁whichever	-6512
▁sentencing	-6513
apur	-6514
awan	-6515
icus	-6516
▁Roy	-6517
▁river	-6518
Su	-6519
▁exclude	-6520
▁housing	-6521
▁Following	-6522
▁Societies	-6523
▁Memorandum	-6524
,0	-6525
▁leads	-6526
▁exempt	-6527
▁caution	-6528
▁jointly	-6529
▁representing	-6530
▁circumstantial	-6531
rase	-6532
▁Conc	-6533
ulatory	-6534
▁tenants	-6535
▁opposite	-6536
▁partners	-6537
▁treating	-6538
▁Signature	-6539
▁Prevention	-6540
lets	-6541
▁choose	-6542
▁inadequ	-6543
▁indirectly	-6544
MENT	-6545
▁houses	-6546
▁Seventh	-6547
plaintiff	-6548
▁multiple	-6549
▁Foundation	-6550
▁affidavits	-6551
▁categorically	-6552
uti	-6553
▁dig	-6554
onance	-6555
▁fault	-6556
▁anyone	-6557
▁safeguard	-6558
aman	-6559
▁announ	-6560
▁enables	-6561
▁trading	-6562
car	-6563
▁).	-6564
▁cog	-6565
▁lawful	-6566
▁entering	-6567
▁jail	-6568
ilosop	-6569
▁joined	-6570
▁Federal	-6571
▁suspect	-6572
▁judicata	-6573
▁AM	-6574
▁MO	-6575
▁Nath	-6576
actory	-6577
assion	-6578
▁reveals	-6579
look	-6580
▁enqu	-6581
▁Persons	-6582
▁superann	-6583
oo	-6584
hana	-6585
▁gift	-6586
▁alloc	-6587
▁expand	-6588
amus	-6589
▁Div	-6590
▁Sin	-6591
▁panel	-6592
▁corroborated	-6593
anasia	-6594
▁plots	-6595
aneously	-6596
▁premium	-6597
▁reliefs	-6598
uthanasia	-6599
▁difficulty	-6600
▁jurisprudence	-6601
▁Europe	-6602
ropolitan	-6603
▁endeavour	-6604
▁equipment	-6605
TA	-6606
Res	-6607
▁Bud	-6608
ducing	-6609
▁firms	-6610
▁multipl	-6611
▁serving	-6612
lad	-6613
erous	-6614
▁psych	-6615
▁Agriculture	-6616
▁Advis	-6617
▁exact	-6618
▁teleph	-6619
▁observe	-6620
▁precise	-6621
▁deficiencies	-6622
▁Gang	-6623
▁bags	-6624
▁nine	-6625
▁rich	-6626
▁customers	-6627
▁prospective	-6628
▁IC	-6629
▁ND	-6630
▁AIC	-6631
▁Sales	-6632
▁quota	-6633
▁smugg	-6634
iveness	-6635
▁series	-6636
▁involve	-6637
▁minority	-6638
▁recourse	-6639
▁proposals	-6640
▁expressions	-6641
nergy	-6642
urate	-6643
▁animal	-6644
▁finger	-6645
▁outset	-6646
▁played	-6647
▁intervention	-6648
▁nu	-6649
ulter	-6650
uniary	-6651
▁ideas	-6652
▁finality	-6653
▁originally	-6654
▁investments	-6655
isp	-6656
cont	-6657
▁Lie	-6658
▁Nations	-6659
▁encourage	-6660
▁Vik	-6661
ruption	-6662
▁allott	-6663
▁lessee	-6664
rimonial	-6665
▁Jharkhand	-6666
▁interview	-6667
▁monitoring	-6668
ario	-6669
▁Its	-6670
▁sac	-6671
▁Here	-6672
▁aged	-6673
▁aims	-6674
ceived	-6675
▁forces	-6676
▁Mission	-6677
▁promoting	-6678
▁eventually	-6679
▁impossible	-6680
▁EC	-6681
▁NJ	-6682
▁tonn	-6683
▁Dubai	-6684
▁Ident	-6685
▁summons	-6686
▁patients	-6687
▁contractual	-6688
▁organizations	-6689
▁mercy	-6690
▁transl	-6691
▁cancelled	-6692
▁Gl	-6693
arsh	-6694
▁Dal	-6695
agers	-6696
▁Verma	-6697
▁depre	-6698
stwhile	-6699
▁saying	-6700
▁minutes	-6701
▁Congress	-6702
▁corruption	-6703
MM	-6704
dd	-6705
ida	-6706
oming	-6707
inations	-6708
statement	-6709
▁consonance	-6710
▁enterprise	-6711
▁practition	-6712
itated	-6713
▁Mineral	-6714
▁assault	-6715
▁reflected	-6716
▁residing	-6717
▁turnover	-6718
▁dim	-6719
worth	-6720
rolment	-6721
▁disturb	-6722
▁irrigation	-6723
▁sets	-6724
iration	-6725
▁Kolkata	-6726
▁animals	-6727
▁customs	-6728
▁autonomy	-6729
▁juvenile	-6730
▁assessing	-6731
▁Saf	-6732
▁Sir	-6733
▁box	-6734
▁urg	-6735
icket	-6736
▁admissions	-6737
▁je	-6738
▁camp	-6739
utable	-6740
▁Bureau	-6741
▁resign	-6742
▁traffic	-6743
▁directors	-6744
▁erstwhile	-6745
▁transform	-6746
▁departments	-6747
no	-6748
▁big	-6749
abric	-6750
rations	-6751
▁neighb	-6752
▁speedy	-6753
olidated	-6754
▁exceptional	-6755
va	-6756
▁vers	-6757
closed	-6758
ournal	-6759
▁Mines	-6760
endants	-6761
iddle	-6762
▁fuel	-6763
▁drugs	-6764
sections	-6765
▁territorial	-6766
▁territories	-6767
▁Confessional	-6768
inked	-6769
▁item	-6770
earing	-6771
ressal	-6772
▁Exper	-6773
▁PWxad	-6774
▁Master	-6775
▁centre	-6776
▁(“	-6777
ement	-6778
▁Appro	-6779
▁roads	-6780
▁Lordship	-6781
▁pressure	-6782
being	-6783
▁route	-6784
utenant	-6785
▁looked	-6786
▁location	-6787
▁residents	-6788
▁engineering	-6789
ridge	-6790
▁encro	-6791
▁lapse	-6792
▁Forum	-6793
▁approx	-6794
▁worship	-6795
▁software	-6796
▁marketing	-6797
▁appreciated	-6798
.]	-6799
▁ded	-6800
▁desire	-6801
▁Housing	-6802
▁Technical	-6803
▁awareness	-6804
▁inclusion	-6805
▁parliament	-6806
▁traditional	-6807
▁introduction	-6808
▁Mu	-6809
otal	-6810
▁Inc	-6811
▁Neh	-6812
ertil	-6813
▁fort	-6814
▁usually	-6815
▁regulating	-6816
▁competitive	-6817
▁Apex	-6818
▁milk	-6819
▁ammun	-6820
▁heavy	-6821
▁learn	-6822
▁presently	-6823
▁seriously	-6824
▁safeguards	-6825
▁raw	-6826
▁buyer	-6827
▁inaug	-6828
atively	-6829
▁Estate	-6830
▁adoption	-6831
▁enforced	-6832
▁sometimes	-6833
▁Considering	-6834
DC	-6835
EE	-6836
aji	-6837
▁Pay	-6838
burse	-6839
▁arch	-6840
▁vary	-6841
▁critical	-6842
rupt	-6843
amble	-6844
igher	-6845
▁elim	-6846
▁inspect	-6847
aut	-6848
▁phone	-6849
▁Lieutenant	-6850
▁constitutes	-6851
uit	-6852
▁How	-6853
▁Mun	-6854
▁piece	-6855
▁divers	-6856
▁unjust	-6857
anguages	-6858
▁transfere	-6859
▁Regulatory	-6860
▁hit	-6861
▁Afric	-6862
▁youth	-6863
hension	-6864
▁allowances	-6865
▁contesting	-6866
LR	-6867
▁Kan	-6868
▁Like	-6869
▁NJAC	-6870
▁careful	-6871
ettlement	-6872
▁Economic	-6873
▁Competent	-6874
▁component	-6875
pers	-6876
▁Then	-6877
▁male	-6878
owners	-6879
▁Urban	-6880
▁spect	-6881
Emphasis	-6882
▁Bhushan	-6883
▁occasions	-6884
▁km	-6885
power	-6886
eshwar	-6887
▁voting	-6888
▁demands	-6889
▁wrongly	-6890
raj	-6891
known	-6892
▁AICTE	-6893
▁Innov	-6894
▁converted	-6895
▁kg	-6896
▁१७	-6897
▁summar	-6898
▁poverty	-6899
▁advocates	-6900
▁enhancement	-6901
ets	-6902
▁culp	-6903
▁comment	-6904
▁implementing	-6905
Cr	-6906
▁waste	-6907
▁winding	-6908
▁Petitions	-6909
IM	-6910
▁ways	-6911
▁Moham	-6912
▁Nehru	-6913
▁assumed	-6914
▁hostile	-6915
▁computed	-6916
▁estimated	-6917
▁thinks	-6918
▁Cabinet	-6919
▁creates	-6920
▁pattern	-6921
▁Building	-6922
▁averments	-6923
▁enactments	-6924
▁Nor	-6925
▁fifteen	-6926
▁attended	-6927
▁division	-6928
▁wherever	-6929
NL	-6930
rif	-6931
▁bed	-6932
▁boy	-6933
▁whenever	-6934
▁forthwith	-6935
Ar	-6936
▁rad	-6937
▁heads	-6938
▁calling	-6939
▁fraudul	-6940
▁pollution	-6941
▁performing	-6942
▁Enterprises	-6943
DI	-6944
▁--	-6945
iman	-6946
▁Sinha	-6947
▁imped	-6948
▁respond	-6949
PR	-6950
gi	-6951
▁scene	-6952
▁filling	-6953
▁elements	-6954
▁districts	-6955
▁appearance	-6956
▁strengthen	-6957
▁arrangements	-6958
loc	-6959
ster	-6960
▁draf	-6961
▁Reforms	-6962
▁Advocates	-6963
▁Fl	-6964
▁lat	-6965
otton	-6966
▁earth	-6967
aterial	-6968
▁retained	-6969
▁competition	-6970
▁Fac	-6971
▁Upon	-6972
ounded	-6973
iciaries	-6974
▁Keeping	-6975
▁accorded	-6976
inter	-6977
▁Paper	-6978
ifiable	-6979
▁affecting	-6980
▁rendering	-6981
▁Sant	-6982
▁fill	-6983
ustain	-6984
▁cognizable	-6985
▁memorandum	-6986
▁permitting	-6987
rum	-6988
▁Oil	-6989
▁Data	-6990
▁arrive	-6991
isations	-6992
▁execute	-6993
ima	-6994
▁bill	-6995
▁posted	-6996
▁lawyers	-6997
▁licensee	-6998
▁contributions	-6999
athy	-7000
▁wis	-7001
▁Gram	-7002
▁pages	-7003
▁depart	-7004
▁turned	-7005
▁juncture	-7006
▁achieving	-7007
▁evaluation	-7008
▁confirmation	-7009
▁brib	-7010
▁sanct	-7011
▁Temple	-7012
▁medium	-7013
▁clothes	-7014
▁regulated	-7015
eck	-7016
pat	-7017
▁CJ	-7018
▁Na	-7019
life	-7020
ompl	-7021
▁faced	-7022
▁Christ	-7023
ordinary	-7024
▁discrep	-7025
▁initiative	-7026
▁university	-7027
▁Agricultural	-7028
▁:-	-7029
athan	-7030
▁acre	-7031
ariness	-7032
▁altered	-7033
▁mitigating	-7034
▁succession	-7035
amma	-7036
▁dict	-7037
idance	-7038
▁perhaps	-7039
▁acid	-7040
▁destroy	-7041
▁Language	-7042
RD	-7043
vol	-7044
▁NIT	-7045
India	-7046
▁Ibid	-7047
▁Party	-7048
▁Maruti	-7049
▁killed	-7050
▁existed	-7051
▁dependent	-7052
▁conscience	-7053
ming	-7054
▁Ban	-7055
▁born	-7056
▁sons	-7057
▁besides	-7058
ariat	-7059
▁veget	-7060
▁looking	-7061
▁summary	-7062
▁surround	-7063
▁Metropolitan	-7064
▁hrs	-7065
▁Pune	-7066
▁wise	-7067
▁royalty	-7068
ler	-7069
▁fabric	-7070
▁Administrator	-7071
aters	-7072
ellect	-7073
▁fourth	-7074
▁empower	-7075
▁figures	-7076
▁happened	-7077
▁resource	-7078
▁separation	-7079
▁certificates	-7080
▁technologies	-7081
▁superannuation	-7082
▁schol	-7083
▁severe	-7084
▁simult	-7085
▁irrelevant	-7086
▁matrimonial	-7087
mer	-7088
▁Exh	-7089
▁Motor	-7090
▁Steel	-7091
▁aimed	-7092
▁conformity	-7093
ava	-7094
▁sa	-7095
etic	-7096
atform	-7097
Company	-7098
▁NS	-7099
icity	-7100
▁path	-7101
▁leaders	-7102
▁legality	-7103
▁claimants	-7104
▁stipulates	-7105
▁Investigation	-7106
OP	-7107
▁UK	-7108
▁scenario	-7109
▁convention	-7110
HER	-7111
chief	-7112
▁restored	-7113
▁purported	-7114
erved	-7115
▁annex	-7116
▁cogent	-7117
▁leaves	-7118
▁declaring	-7119
▁Controller	-7120
▁illegality	-7121
▁accommodation	-7122
Appe	-7123
iest	-7124
load	-7125
▁See	-7126
essor	-7127
▁stop	-7128
akrish	-7129
▁alive	-7130
▁fifty	-7131
▁viewed	-7132
▁assailed	-7133
▁reversed	-7134
ndra	-7135
▁century	-7136
▁Industry	-7137
▁substitute	-7138
▁supporting	-7139
▁beneficiaries	-7140
bar	-7141
atur	-7142
▁Son	-7143
▁Over	-7144
▁cere	-7145
▁incap	-7146
▁Higher	-7147
▁considers	-7148
▁revisional	-7149
LE	-7150
time	-7151
▁Just	-7152
▁subscrib	-7153
▁Investment	-7154
▁interfered	-7155
▁undoubtedly	-7156
iah	-7157
▁Det	-7158
▁Sik	-7159
▁asp	-7160
astern	-7161
ranches	-7162
▁philosop	-7163
▁presumed	-7164
▁household	-7165
▁Cooperative	-7166
da	-7167
▁rul	-7168
▁enun	-7169
ansion	-7170
▁deduct	-7171
▁doubts	-7172
▁fulfil	-7173
▁eminent	-7174
▁Lokayukta	-7175
▁components	-7176
▁privileges	-7177
FC	-7178
▁offers	-7179
ictionary	-7180
▁institute	-7181
▁furnishing	-7182
vii	-7183
endix	-7184
rition	-7185
Section	-7186
▁BS	-7187
▁phrase	-7188
van	-7189
▁gap	-7190
▁Grant	-7191
▁fairly	-7192
▁nearly	-7193
▁anticipatory	-7194
PP	-7195
face	-7196
▁xad	-7197
▁stra	-7198
▁promise	-7199
▁amending	-7200
▁substanti	-7201
▁entrepreneurs	-7202
Act	-7203
▁MC	-7204
plus	-7205
▁conj	-7206
▁nexus	-7207
▁Sanjay	-7208
▁wisdom	-7209
▁returns	-7210
▁improper	-7211
▁invoking	-7212
▁insolvency	-7213
▁CC	-7214
▁anc	-7215
posit	-7216
rench	-7217
▁seem	-7218
▁Audit	-7219
▁contest	-7220
▁sharing	-7221
▁vitiated	-7222
▁communities	-7223
▁transparency	-7224
active	-7225
▁Privy	-7226
▁nations	-7227
ordination	-7228
%.	-7229
yl	-7230
cum	-7231
era	-7232
▁ancient	-7233
▁Assessment	-7234
▁compassion	-7235
▁preference	-7236
drop	-7237
▁Gen	-7238
▁goal	-7239
lihood	-7240
▁confers	-7241
▁evolved	-7242
▁demanded	-7243
▁discharging	-7244
▁discussions	-7245
▁SU	-7246
thern	-7247
.......	-7248
▁Agency	-7249
iliation	-7250
▁endorse	-7251
▁expired	-7252
▁highlight	-7253
rin	-7254
▁Num	-7255
▁Ten	-7256
▁hes	-7257
▁cease	-7258
▁grand	-7259
▁attempts	-7260
▁Employees	-7261
dar	-7262
▁door	-7263
▁Petitioners	-7264
▁investigate	-7265
▁AD	-7266
herry	-7267
▁spent	-7268
▁remote	-7269
▁prescribe	-7270
▁Chancellor	-7271
uestion	-7272
witness	-7273
▁stream	-7274
▁refusal	-7275
▁pecuniary	-7276
▁remission	-7277
▁Deb	-7278
▁Ref	-7279
stant	-7280
ysore	-7281
▁green	-7282
▁indicating	-7283
▁Jaipur	-7284
▁retail	-7285
▁handling	-7286
▁pronounced	-7287
▁transferee	-7288
bu	-7289
▁resolved	-7290
fall	-7291
apped	-7292
eries	-7293
▁perf	-7294
▁mistake	-7295
▁AW	-7296
▁SA	-7297
mary	-7298
▁Good	-7299
ussain	-7300
▁frequ	-7301
▁Energy	-7302
▁chance	-7303
▁gender	-7304
▁retain	-7305
▁taxable	-7306
▁contends	-7307
▁assumption	-7308
▁euthanasia	-7309
▁requisition	-7310
▁throw	-7311
▁venture	-7312
▁Disputes	-7313
▁Teachers	-7314
UT	-7315
alled	-7316
itect	-7317
▁Tele	-7318
▁purely	-7319
▁Process	-7320
▁subxadsection	-7321
bir	-7322
has	-7323
▁MP	-7324
▁MW	-7325
akar	-7326
▁MSME	-7327
▁Mere	-7328
▁experi	-7329
▁hardly	-7330
▁securing	-7331
▁Principles	-7332
▁concession	-7333
oted	-7334
▁obsc	-7335
▁tour	-7336
▁Patent	-7337
▁teacher	-7338
▁changing	-7339
/-.	-7340
▁intr	-7341
▁dispro	-7342
▁titled	-7343
▁improving	-7344
▁computation	-7345
itage	-7346
lands	-7347
▁Prat	-7348
▁Thak	-7349
▁Three	-7350
▁remar	-7351
▁cheques	-7352
▁obliged	-7353
ustainable	-7354
▁extending	-7355
▁conclusive	-7356
idn	-7357
oly	-7358
care	-7359
applic	-7360
vation	-7361
▁stran	-7362
▁branch	-7363
▁broadcast	-7364
▁demonstrate	-7365
▁voluntarily	-7366
▁Anil	-7367
▁wage	-7368
▁chart	-7369
▁deten	-7370
ghalaya	-7371
▁lesser	-7372
▁Despite	-7373
▁drawing	-7374
▁morning	-7375
▁omitted	-7376
SS	-7377
opy	-7378
para	-7379
▁lad	-7380
▁Vijay	-7381
▁debate	-7382
▁strike	-7383
▁initiate	-7384
▁platform	-7385
▁depreciation	-7386
▁Nav	-7387
▁film	-7388
▁kill	-7389
▁Nothing	-7390
▁outcome	-7391
▁historical	-7392
▁constituting	-7393
▁establishments	-7394
roc	-7395
▁PO	-7396
▁ore	-7397
ridges	-7398
▁bills	-7399
▁wider	-7400
▁client	-7401
▁accompl	-7402
▁discard	-7403
▁protest	-7404
TC	-7405
▁kinds	-7406
ribution	-7407
▁Inquiry	-7408
▁therewith	-7409
▁Cle	-7410
▁user	-7411
▁Anand	-7412
▁minds	-7413
▁street	-7414
▁prepare	-7415
▁selling	-7416
▁remedies	-7417
▁occurring	-7418
▁emphasized	-7419
▁Mehta	-7420
▁table	-7421
▁believed	-7422
▁confidential	-7423
▁installation	-7424
▁impermissible	-7425
hr	-7426
ains	-7427
▁incon	-7428
▁Independence	-7429
▁legislations	-7430
EB	-7431
olic	-7432
▁dro	-7433
▁lot	-7434
▁Associ	-7435
▁ticket	-7436
omination	-7437
▁practical	-7438
MA	-7439
ded	-7440
▁MB	-7441
▁CHA	-7442
▁capt	-7443
▁love	-7444
▁China	-7445
emption	-7446
▁aggrav	-7447
▁adulter	-7448
▁Secondary	-7449
▁hoc	-7450
▁Test	-7451
▁critic	-7452
▁Reasons	-7453
emn	-7454
▁effects	-7455
▁American	-7456
▁reaching	-7457
▁stakeholders	-7458
▁accrued	-7459
▁display	-7460
▁duration	-7461
▁composition	-7462
cks	-7463
▁club	-7464
▁pist	-7465
▁domin	-7466
certain	-7467
laration	-7468
▁heading	-7469
▁student	-7470
▁constitu	-7471
▁mandamus	-7472
▁disabilities	-7473
ba	-7474
uliar	-7475
▁Rest	-7476
▁bott	-7477
▁Purch	-7478
reening	-7479
▁fairness	-7480
DP	-7481
▁00	-7482
otic	-7483
arian	-7484
ensus	-7485
▁exhib	-7486
▁Junior	-7487
▁popular	-7488
▁samples	-7489
▁backdrop	-7490
▁executing	-7491
▁classified	-7492
VC	-7493
Crl	-7494
▁DW	-7495
pura	-7496
▁Town	-7497
▁wall	-7498
▁inputs	-7499
▁purport	-7500
▁railway	-7501
▁enrolment	-7502
▁expansion	-7503
▁contribute	-7504
▁parliamentary	-7505
mat	-7506
▁cess	-7507
▁finance	-7508
▁fixation	-7509
▁Australia	-7510
▁pronounce	-7511
▁Settlement	-7512
▁compensatory	-7513
▁pip	-7514
amber	-7515
▁neck	-7516
holding	-7517
▁fulfill	-7518
▁desirable	-7519
▁injustice	-7520
mail	-7521
▁NAB	-7522
aulted	-7523
ensions	-7524
▁putting	-7525
▁surplus	-7526
▁peculiar	-7527
▁Shi	-7528
▁maxim	-7529
▁figure	-7530
▁litigant	-7531
▁instances	-7532
▁livelihood	-7533
▁ec	-7534
pled	-7535
▁failing	-7536
▁therefrom	-7537
.'	-7538
▁fla	-7539
▁Chan	-7540
▁abet	-7541
▁Conduct	-7542
▁commencing	-7543
▁discipline	-7544
IG	-7545
▁gr	-7546
▁Lic	-7547
ether	-7548
▁mala	-7549
▁vast	-7550
▁fired	-7551
▁solemn	-7552
▁relaxation	-7553
ulg	-7554
▁Lit	-7555
attis	-7556
▁Park	-7557
▁steel	-7558
▁recently	-7559
▁discretionary	-7560
PF	-7561
▁Lo	-7562
orter	-7563
▁Ranj	-7564
▁simpl	-7565
▁incumb	-7566
▁skills	-7567
▁suspicion	-7568
▁Sen	-7569
uated	-7570
ractor	-7571
▁healthy	-7572
▁measuring	-7573
▁newspaper	-7574
hs	-7575
nsic	-7576
▁easy	-7577
▁skill	-7578
▁refuse	-7579
▁Meghalaya	-7580
▁Subsequently	-7581
akes	-7582
▁Orig	-7583
▁vehe	-7584
▁Mahat	-7585
ciences	-7586
▁easily	-7587
ications	-7588
▁knowing	-7589
▁inflicted	-7590
▁Limitation	-7591
▁Securities	-7592
▁protecting	-7593
▁transmission	-7594
▁vex	-7595
▁Inst	-7596
▁Sush	-7597
▁rain	-7598
chnama	-7599
▁Instru	-7600
▁losses	-7601
▁guidance	-7602
▁contending	-7603
hu	-7604
umn	-7605
▁Lep	-7606
▁Life	-7607
▁repl	-7608
▁Count	-7609
▁Model	-7610
▁break	-7611
▁Ramesh	-7612
▁canvas	-7613
iculture	-7614
attisgarh	-7615
ellectual	-7616
▁reducing	-7617
▁Deposition	-7618
▁Six	-7619
▁pil	-7620
▁sick	-7621
▁recip	-7622
ogether	-7623
▁unfortun	-7624
▁attributed	-7625
▁deficiency	-7626
▁disqualified	-7627
▁presentation	-7628
▁cr	-7629
vert	-7630
▁Doct	-7631
▁integrated	-7632
▁dy	-7633
gery	-7634
aland	-7635
▁Vide	-7636
▁remin	-7637
▁Mysore	-7638
▁earning	-7639
▁Mohammed	-7640
▁adopting	-7641
▁furtherance	-7642
▁provisional	-7643
econom	-7644
estern	-7645
locutory	-7646
▁Judiciary	-7647
▁signatures	-7648
▁Furthermore	-7649
▁convenience	-7650
▁supervision	-7651
▁administered	-7652
▁undertakings	-7653
rote	-7654
▁Ka	-7655
▁UID	-7656
▁grade	-7657
▁trying	-7658
▁elaborate	-7659
▁exceptions	-7660
▁hereinafter	-7661
▁Commissioners	-7662
')	-7663
AGE	-7664
ole	-7665
▁RD	-7666
▁enro	-7667
▁secret	-7668
mittedly	-7669
▁quasi	-7670
▁starting	-7671
▁generated	-7672
ushed	-7673
▁Chow	-7674
regard	-7675
▁Vehic	-7676
▁video	-7677
▁NABARD	-7678
▁Please	-7679
▁assuming	-7680
▁monetary	-7681
▁marriages	-7682
▁administer	-7683
▁Cro	-7684
▁quo	-7685
▁Trad	-7686
▁rely	-7687
fering	-7688
▁Caste	-7689
▁belongs	-7690
▁fiction	-7691
▁Likewise	-7692
compliance	-7693
▁excessive	-7694
▁lieu	-7695
▁pursue	-7696
▁divided	-7697
ugn	-7698
▁MM	-7699
inema	-7700
▁Many	-7701
▁Pursu	-7702
▁debts	-7703
veloper	-7704
▁online	-7705
▁emerging	-7706
▁chap	-7707
▁roll	-7708
▁drive	-7709
Appeals	-7710
▁earned	-7711
▁Nariman	-7712
▁reality	-7713
▁adversely	-7714
▁allocated	-7715
▁upholding	-7716
▁enforceable	-7717
▁tank	-7718
▁channels	-7719
▁Directorate	-7720
RS	-7721
▁DG	-7722
mity	-7723
▁Establ	-7724
▁Forces	-7725
▁assent	-7726
▁blocks	-7727
▁cement	-7728
▁reproduce	-7729
▁Admittedly	-7730
▁arbitrariness	-7731
▁Indira	-7732
▁solution	-7733
▁differently	-7734
▁Da	-7735
▁Mur	-7736
cript	-7737
▁covers	-7738
▁negoti	-7739
▁tendered	-7740
▁Vigilance	-7741
una	-7742
plom	-7743
ertiliz	-7744
▁Recomm	-7745
▁enunci	-7746
▁tested	-7747
▁assessees	-7748
ls	-7749
▁TRA	-7750
▁fatal	-7751
▁Letter	-7752
▁intellig	-7753
▁amounting	-7754
▁municipal	-7755
Ms	-7756
pla	-7757
▁season	-7758
▁Kingdom	-7759
▁immense	-7760
▁literal	-7761
▁missing	-7762
aboratory	-7763
▁guardian	-7764
▁Departments	-7765
▁Examination	-7766
▁successfully	-7767
his	-7768
ding	-7769
▁Gan	-7770
▁Disc	-7771
▁Sand	-7772
▁prec	-7773
ladesh	-7774
▁Islam	-7775
▁infer	-7776
▁assured	-7777
▁primacy	-7778
▁possibly	-7779
▁producing	-7780
▁tribunals	-7781
▁engagement	-7782
ogue	-7783
▁pal	-7784
▁Card	-7785
▁infirm	-7786
▁praying	-7787
▁Av	-7788
oday	-7789
inous	-7790
opped	-7791
ensing	-7792
▁guide	-7793
▁rapid	-7794
▁delayed	-7795
▁European	-7796
▁becoming	-7797
▁deducted	-7798
▁overlook	-7799
▁acknowledged	-7800
▁CL	-7801
atin	-7802
works	-7803
▁inev	-7804
▁conting	-7805
▁trained	-7806
▁brothers	-7807
▁extraordinary	-7808
▁Joh	-7809
▁ensu	-7810
▁hect	-7811
ardship	-7812
▁species	-7813
▁alleging	-7814
▁jurisdictional	-7815
araj	-7816
▁sugar	-7817
▁Taking	-7818
▁manage	-7819
▁supers	-7820
▁Narayan	-7821
▁enacting	-7822
▁personally	-7823
▁prevention	-7824
▁approximately	-7825
jan	-7826
hers	-7827
▁ambig	-7828
▁violate	-7829
▁Pursuant	-7830
▁ask	-7831
urism	-7832
ricket	-7833
▁facto	-7834
▁sealed	-7835
economic	-7836
▁reforms	-7837
▁zone	-7838
empted	-7839
▁Those	-7840
▁compelled	-7841
▁explosives	-7842
▁BY	-7843
▁Us	-7844
▁Ahm	-7845
▁hyp	-7846
▁imag	-7847
rained	-7848
athered	-7849
istries	-7850
rection	-7851
▁Indeed	-7852
▁driven	-7853
ederation	-7854
▁licences	-7855
▁formation	-7856
▁contraband	-7857
▁simultaneously	-7858
▁Fact	-7859
▁Pass	-7860
▁unequ	-7861
▁exchan	-7862
▁Objects	-7863
▁exports	-7864
▁customer	-7865
▁Environmental	-7866
long	-7867
▁Tel	-7868
▁twel	-7869
matter	-7870
▁brings	-7871
▁exceeds	-7872
▁markets	-7873
▁proving	-7874
▁tourism	-7875
▁perverse	-7876
▁prescribes	-7877
▁Declaration	-7878
▁resignation	-7879
▁Din	-7880
▁knew	-7881
▁Press	-7882
▁fight	-7883
▁mines	-7884
▁remun	-7885
unication	-7886
▁vehement	-7887
▁vul	-7888
oppel	-7889
▁Asia	-7890
▁Bills	-7891
▁Africa	-7892
▁expedient	-7893
)]	-7894
atel	-7895
▁Treat	-7896
▁weigh	-7897
▁reveal	-7898
▁earliest	-7899
▁mandates	-7900
▁supposed	-7901
▁grievances	-7902
▁१८	-7903
▁Mil	-7904
▁Rai	-7905
▁bur	-7906
▁Last	-7907
▁middle	-7908
▁Undertak	-7909
▁structures	-7910
▁productivity	-7911
sett	-7912
▁Rat	-7913
ondon	-7914
ronics	-7915
uments	-7916
whether	-7917
▁asking	-7918
▁linked	-7919
▁apposite	-7920
▁remember	-7921
▁commodity	-7922
▁expertise	-7923
▁apprehension	-7924
▁strengthening	-7925
eet	-7926
▁gar	-7927
▁murd	-7928
▁resc	-7929
stated	-7930
▁wrote	-7931
▁agents	-7932
▁scales	-7933
▁termed	-7934
▁Ahmedabad	-7935
▁Promotion	-7936
▁Recommend	-7937
▁universal	-7938
▁assignment	-7939
▁Provin	-7940
▁Governance	-7941
▁enterprises	-7942
▁supplementary	-7943
▁IR	-7944
bered	-7945
▁Liqu	-7946
▁headed	-7947
▁mortem	-7948
▁hardship	-7949
▁installed	-7950
ule	-7951
▁RE	-7952
rent	-7953
rosy	-7954
want	-7955
▁PRO	-7956
rical	-7957
uriae	-7958
▁Poll	-7959
▁Noida	-7960
▁affili	-7961
▁herself	-7962
▁Construction	-7963
iri	-7964
▁Mrs	-7965
orrow	-7966
▁Area	-7967
▁symb	-7968
▁shops	-7969
▁Nagpur	-7970
▁desired	-7971
▁specially	-7972
▁exploitation	-7973
harma	-7974
ordin	-7975
atious	-7976
▁convin	-7977
▁Appoint	-7978
▁delinqu	-7979
▁forming	-7980
▁........	-7981
▁branches	-7982
▁uncertain	-7983
▁ID	-7984
▁girls	-7985
▁train	-7986
▁afresh	-7987
▁illegally	-7988
▁credibility	-7989
▁pronouncement	-7990
On	-7991
ilal	-7992
▁Kap	-7993
▁Letters	-7994
▁suffers	-7995
▁covering	-7996
▁excluding	-7997
▁Bangladesh	-7998
▁formulation	-7999
▁disproportion	-8000
It	-8001
▁Rak	-8002
▁assume	-8003
▁Leprosy	-8004
▁illness	-8005
bursement	-8006
▁gathered	-8007
▁comprised	-8008
▁developments	-8009
dict	-8010
▁devi	-8011
▁quote	-8012
▁Shaikh	-8013
▁ceased	-8014
▁preval	-8015
▁annexed	-8016
▁availed	-8017
▁affirmative	-8018
▁reinstatement	-8019
coh	-8020
▁CE	-8021
eced	-8022
service	-8023
▁Fourth	-8024
▁cities	-8025
▁motorcy	-8026
akrishnan	-8027
▁prohibit	-8028
▁attempted	-8029
▁sensitive	-8030
▁generating	-8031
▁instruments	-8032
▁denomination	-8033
▁corroboration	-8034
▁Boards	-8035
▁ceiling	-8036
▁Children	-8037
▁narrated	-8038
SA	-8039
Se	-8040
iat	-8041
▁Mas	-8042
▁eld	-8043
▁Luck	-8044
struct	-8045
▁Expert	-8046
▁lawyer	-8047
▁regime	-8048
▁decreed	-8049
▁diseases	-8050
▁languages	-8051
▁Employment	-8052
▁expeditiously	-8053
▁Mat	-8054
istence	-8055
▁periods	-8056
▁Commerce	-8057
▁director	-8058
▁verified	-8059
▁apprehend	-8060
▁telephone	-8061
▁ascertained	-8062
CP	-8063
PEAL	-8064
avings	-8065
▁Death	-8066
▁command	-8067
▁promulg	-8068
▁exempted	-8069
▁paramount	-8070
UK	-8071
▁Hand	-8072
▁Sund	-8073
▁enshr	-8074
▁relat	-8075
▁voice	-8076
▁Tariff	-8077
▁guided	-8078
▁coupled	-8079
▁falsely	-8080
▁substances	-8081
dden	-8082
▁Repe	-8083
ferring	-8084
ableness	-8085
▁diverse	-8086
▁nominee	-8087
▁pressed	-8088
▁replaced	-8089
▁extensive	-8090
inct	-8091
▁Bad	-8092
▁Wakf	-8093
▁Grade	-8094
ATIONAL	-8095
▁deleted	-8096
resentation	-8097
AND	-8098
iagn	-8099
▁Yet	-8100
▁eve	-8101
▁mob	-8102
▁Most	-8103
▁marry	-8104
ulative	-8105
▁Orders	-8106
▁Eastern	-8107
▁excellence	-8108
ams	-8109
▁CS	-8110
▁cryst	-8111
▁usage	-8112
▁Mahatma	-8113
▁anteced	-8114
lal	-8115
▁pp	-8116
▁Fee	-8117
▁Bach	-8118
▁Patel	-8119
▁Scale	-8120
itative	-8121
▁showed	-8122
▁Without	-8123
▁entirety	-8124
▁preserve	-8125
▁Guidelines	-8126
▁distributed	-8127
▁stipulation	-8128
▁automatically	-8129
uru	-8130
▁UP	-8131
heet	-8132
prin	-8133
▁ago	-8134
▁COUR	-8135
▁Prem	-8136
▁deny	-8137
ananda	-8138
▁truck	-8139
▁Accounts	-8140
▁arriving	-8141
▁canvassed	-8142
▁impartial	-8143
▁dissolution	-8144
ARY	-8145
five	-8146
▁tune	-8147
▁Among	-8148
▁sixty	-8149
▁Canada	-8150
▁Online	-8151
▁assertion	-8152
▁ourselves	-8153
▁innovative	-8154
▁Amb	-8155
▁Crl	-8156
▁Pad	-8157
enary	-8158
▁Ambed	-8159
▁Paras	-8160
▁goals	-8161
▁extingu	-8162
▁belonged	-8163
▁distinguish	-8164
▁contemplates	-8165
odal	-8166
▁bud	-8167
trans	-8168
▁MBBS	-8169
▁gravity	-8170
▁whereof	-8171
▁explicit	-8172
▁cultivation	-8173
▁difficulties	-8174
FA	-8175
PTER	-8176
▁hyd	-8177
▁twelve	-8178
▁amalgam	-8179
▁reserve	-8180
▁Ambedkar	-8181
▁Register	-8182
▁discovery	-8183
▁exhaustive	-8184
▁adjudicating	-8185
▁proportionality	-8186
▁SI	-8187
▁DDA	-8188
▁USA	-8189
stone	-8190
▁Need	-8191
▁eyes	-8192
▁alias	-8193
▁embod	-8194
▁Suresh	-8195
▁engage	-8196
▁expectation	-8197
aq	-8198
els	-8199
▁IO	-8200
▁Bai	-8201
ament	-8202
▁Open	-8203
▁pict	-8204
▁stret	-8205
▁Return	-8206
▁grants	-8207
▁repugn	-8208
▁conspir	-8209
▁prisoner	-8210
▁secondary	-8211
▁compelling	-8212
▁BO	-8213
▁Mut	-8214
▁sea	-8215
▁Adjud	-8216
▁Local	-8217
▁London	-8218
▁speaks	-8219
▁taxing	-8220
▁inadequate	-8221
▁entitlement	-8222
gaon	-8223
▁Tal	-8224
▁magn	-8225
ortion	-8226
▁inher	-8227
▁tools	-8228
▁APPEAL	-8229
▁Reports	-8230
▁affects	-8231
▁scholars	-8232
▁Infrastructure	-8233
ION	-8234
house	-8235
▁Venk	-8236
▁describ	-8237
▁resolve	-8238
▁Advisory	-8239
▁assurance	-8240
▁hospitals	-8241
▁initiation	-8242
▁Chhattisgarh	-8243
exam	-8244
wala	-8245
▁Neg	-8246
▁Manual	-8247
▁invoke	-8248
▁extends	-8249
ciplinary	-8250
▁innocence	-8251
wali	-8252
▁DAY	-8253
▁Due	-8254
▁Rem	-8255
oided	-8256
▁Thakur	-8257
▁answers	-8258
▁pregnancy	-8259
▁hesitation	-8260
▁differences	-8261
bas	-8262
▁cam	-8263
▁temper	-8264
▁torture	-8265
clamation	-8266
▁pertains	-8267
▁Professor	-8268
▁acquiring	-8269
▁regularly	-8270
▁prejudicial	-8271
▁CW	-8272
cles	-8273
▁Cal	-8274
▁Rad	-8275
▁pra	-8276
▁concent	-8277
▁testing	-8278
▁Juvenile	-8279
▁ER	-8280
▁UT	-8281
zing	-8282
▁Kas	-8283
claim	-8284
▁ones	-8285
renades	-8286
▁escape	-8287
▁vulner	-8288
▁Develop	-8289
▁resorted	-8290
▁Secretariat	-8291
▁modifications	-8292
HO	-8293
▁jur	-8294
assess	-8295
▁upper	-8296
▁Lucknow	-8297
▁marginal	-8298
▁receipts	-8299
▁secondly	-8300
▁altogether	-8301
▁charitable	-8302
▁transparent	-8303
▁practitioner	-8304
As	-8305
▁bye	-8306
▁Coal	-8307
icable	-8308
▁absent	-8309
▁avoided	-8310
▁Contempt	-8311
▁incrimin	-8312
▁levelled	-8313
▁Aj	-8314
mony	-8315
▁Bel	-8316
▁unsu	-8317
umping	-8318
▁Today	-8319
ailable	-8320
▁invested	-8321
▁remanded	-8322
▁leadership	-8323
udi	-8324
atar	-8325
▁vic	-8326
▁Dhan	-8327
▁Hold	-8328
▁mill	-8329
▁newly	-8330
lements	-8331
▁moving	-8332
▁Benches	-8333
▁nuclear	-8334
▁premise	-8335
▁shifted	-8336
▁impression	-8337
▁clarification	-8338
IF	-8339
lap	-8340
▁Mish	-8341
TITION	-8342
ivided	-8343
▁trend	-8344
▁format	-8345
▁drought	-8346
▁numerous	-8347
▁Corporate	-8348
▁answering	-8349
ksh	-8350
▁Um	-8351
apan	-8352
▁rob	-8353
rates	-8354
▁vehemently	-8355
ops	-8356
iques	-8357
▁John	-8358
▁Laksh	-8359
▁overt	-8360
▁CHAPTER	-8361
▁convers	-8362
▁estoppel	-8363
▁enshrined	-8364
▁repayment	-8365
▁solutions	-8366
▁fraudulent	-8367
arm	-8368
pus	-8369
▁van	-8370
▁Gold	-8371
▁curt	-8372
▁hour	-8373
▁Armed	-8374
▁disse	-8375
theless	-8376
▁facing	-8377
▁assaulted	-8378
▁enhancing	-8379
▁interfering	-8380
eas	-8381
oon	-8382
▁Sel	-8383
▁inad	-8384
▁race	-8385
▁Pract	-8386
▁Chaudh	-8387
▁Rajesh	-8388
ographic	-8389
▁firstly	-8390
▁mandated	-8391
▁infirmity	-8392
▁arbitrators	-8393
NO	-8394
VI	-8395
IST	-8396
▁LA	-8397
iries	-8398
▁Sunil	-8399
▁allows	-8400
▁matrix	-8401
▁Guarant	-8402
▁emerged	-8403
▁quarter	-8404
▁Chemical	-8405
▁Arunachal	-8406
▁disregard	-8407
▁ITR	-8408
▁Kes	-8409
▁apt	-8410
▁bare	-8411
advant	-8412
making	-8413
▁occur	-8414
▁attorney	-8415
▁utilised	-8416
▁prevented	-8417
▁subsidiary	-8418
▁cooperative	-8419
Re	-8420
ox	-8421
▁Opp	-8422
▁Saw	-8423
arden	-8424
▁sequ	-8425
▁slum	-8426
▁dance	-8427
▁occurs	-8428
▁Edition	-8429
▁Resident	-8430
▁enunciated	-8431
▁Legislatures	-8432
▁|(	-8433
▁suo	-8434
▁bars	-8435
cludes	-8436
▁knife	-8437
▁define	-8438
▁Centres	-8439
▁respects	-8440
cellaneous	-8441
▁incumbent	-8442
▁emphasised	-8443
ners	-8444
▁sew	-8445
▁Lead	-8446
▁Mills	-8447
▁facet	-8448
▁assert	-8449
▁parity	-8450
appellants	-8451
▁arm	-8452
▁Mishra	-8453
▁Original	-8454
▁sovereign	-8455
▁convenient	-8456
▁delegation	-8457
▁requesting	-8458
▁Und	-8459
indra	-8460
oples	-8461
▁feet	-8462
▁infl	-8463
▁rout	-8464
▁quick	-8465
▁spouse	-8466
condition	-8467
▁assisted	-8468
▁credited	-8469
▁violates	-8470
▁negligent	-8471
▁virtually	-8472
▁independently	-8473
▁accountability	-8474
▁maintainability	-8475
oph	-8476
amin	-8477
▁Plant	-8478
▁Safety	-8479
▁device	-8480
▁vexatious	-8481
▁delinquent	-8482
▁Fundamental	-8483
hara	-8484
▁Gas	-8485
▁sample	-8486
lor	-8487
anti	-8488
▁unp	-8489
▁alcoh	-8490
▁indig	-8491
▁votes	-8492
▁Bharati	-8493
▁Provisions	-8494
▁previously	-8495
▁endorsement	-8496
▁photographs	-8497
▁tea	-8498
oking	-8499
▁grown	-8500
▁Product	-8501
▁benefic	-8502
▁subsidy	-8503
▁Referring	-8504
▁consistently	-8505
▁SP	-8506
▁Fif	-8507
▁Lax	-8508
▁NGT	-8509
▁ste	-8510
before	-8511
▁UIDAI	-8512
▁clarify	-8513
UG	-8514
▁Ir	-8515
▁Who	-8516
▁watch	-8517
ography	-8518
▁utilized	-8519
▁wrongful	-8520
▁composite	-8521
▁remuneration	-8522
ton	-8523
▁Dar	-8524
atories	-8525
▁cotton	-8526
▁Shankar	-8527
▁consign	-8528
▁PETITION	-8529
▁medicine	-8530
▁questioning	-8531
▁investigations	-8532
▁reconsideration	-8533
yer	-8534
angan	-8535
▁ball	-8536
▁Banking	-8537
▁strongly	-8538
▁surcharge	-8539
▁NC	-8540
rier	-8541
▁PPA	-8542
▁Sad	-8543
attle	-8544
▁saved	-8545
▁twice	-8546
▁Mittal	-8547
▁Manipur	-8548
▁Natural	-8549
▁Commissions	-8550
▁wel	-8551
ulled	-8552
▁abol	-8553
ecific	-8554
▁closely	-8555
▁ensured	-8556
▁repeatedly	-8557
▁contributed	-8558
▁Back	-8559
▁Cell	-8560
▁jeep	-8561
▁lacs	-8562
▁rice	-8563
▁posed	-8564
▁appended	-8565
▁meantime	-8566
▁restoration	-8567
▁ICC	-8568
▁ang	-8569
▁fet	-8570
▁rif	-8571
ailed	-8572
▁sand	-8573
igible	-8574
ourage	-8575
▁panch	-8576
▁vague	-8577
▁Number	-8578
▁emerge	-8579
▁forced	-8580
▁strugg	-8581
▁Relying	-8582
▁operates	-8583
▁irregularity	-8584
▁satisfactory	-8585
----------------	-8586
iya	-8587
urg	-8588
itate	-8589
mises	-8590
▁clin	-8591
▁waters	-8592
▁partial	-8593
▁conveyed	-8594
▁disadvant	-8595
▁motorcycle	-8596
anim	-8597
▁Time	-8598
▁bonds	-8599
▁dwell	-8600
▁misuse	-8601
▁revers	-8602
▁heritage	-8603
▁amalgamation	-8604
aded	-8605
dish	-8606
osex	-8607
▁Bro	-8608
shall	-8609
utors	-8610
▁Shyam	-8611
isputed	-8612
▁handic	-8613
carriage	-8614
▁enjoyment	-8615
▁incidents	-8616
▁references	-8617
▁organisations	-8618
▁sake	-8619
aining	-8620
akhand	-8621
▁Staff	-8622
▁flats	-8623
▁fruit	-8624
urement	-8625
▁dividend	-8626
▁architect	-8627
▁contested	-8628
▁neighbour	-8629
▁absorption	-8630
▁threatened	-8631
▁orientation	-8632
END	-8633
▁Dam	-8634
PWxad	-8635
▁varied	-8636
▁Innovation	-8637
▁adjustment	-8638
▁submitting	-8639
▁chargesheet	-8640
▁discrepancies	-8641
rec	-8642
▁ACT	-8643
▁Mer	-8644
below	-8645
▁Arms	-8646
▁motiv	-8647
▁widow	-8648
▁Firstly	-8649
▁Ministries	-8650
▁indication	-8651
Rup	-8652
fers	-8653
omal	-8654
astic	-8655
ildlife	-8656
▁pistol	-8657
▁sudden	-8658
▁Majesty	-8659
▁carries	-8660
▁alteration	-8661
▁apparently	-8662
▁intimation	-8663
▁retrospect	-8664
▁attributable	-8665
Tax	-8666
ips	-8667
kin	-8668
atab	-8669
olve	-8670
▁Ger	-8671
Union	-8672
volous	-8673
▁prompt	-8674
▁confine	-8675
▁convert	-8676
▁pleased	-8677
▁Registry	-8678
▁possessed	-8679
▁predecess	-8680
▁continuance	-8681
:—	-8682
IP	-8683
▁PAN	-8684
rafts	-8685
stante	-8686
▁discon	-8687
▁Against	-8688
▁comments	-8689
▁promoter	-8690
▁electoral	-8691
▁technological	-8692
▁Ty	-8693
worthy	-8694
▁Record	-8695
▁budget	-8696
▁meters	-8697
graduate	-8698
▁harmony	-8699
▁recognize	-8700
▁thereupon	-8701
▁attachment	-8702
▁comparison	-8703
▁MA	-8704
IVIL	-8705
wife	-8706
ccess	-8707
▁Level	-8708
▁managing	-8709
Bs	-8710
▁Use	-8711
▁lis	-8712
tical	-8713
▁reck	-8714
called	-8715
tation	-8716
▁micro	-8717
▁Partic	-8718
▁unlike	-8719
▁enabled	-8720
▁secular	-8721
▁Preamble	-8722
▁analysed	-8723
▁committees	-8724
▁contradictions	-8725
▁prox	-8726
arshan	-8727
▁aband	-8728
entions	-8729
▁factum	-8730
▁latest	-8731
▁charging	-8732
▁restraint	-8733
▁pronouncements	-8734
vals	-8735
▁Const	-8736
▁Democ	-8737
▁double	-8738
▁billion	-8739
▁offering	-8740
▁witnessed	-8741
▁pm	-8742
ocon	-8743
▁Gul	-8744
▁CIVIL	-8745
▁Later	-8746
▁frust	-8747
▁vendor	-8748
▁Indians	-8749
▁accounting	-8750
▁restraining	-8751
Dr	-8752
▁die	-8753
disha	-8754
▁runs	-8755
Rupees	-8756
▁Juris	-8757
▁Repeal	-8758
▁adjourn	-8759
▁reputation	-8760
▁interlocutory	-8761
▁manufacturers	-8762
▁FO	-8763
▁IIT	-8764
▁map	-8765
▁chest	-8766
▁military	-8767
▁envisages	-8768
▁incentives	-8769
▁Uttarakhand	-8770
▁intellectual	-8771
duc	-8772
aign	-8773
iled	-8774
atern	-8775
raman	-8776
coming	-8777
▁Rakesh	-8778
▁conservation	-8779
ese	-8780
was	-8781
osis	-8782
▁feas	-8783
▁cycle	-8784
▁Liquid	-8785
▁merger	-8786
▁functional	-8787
▁influenced	-8788
▁CG	-8789
▁hum	-8790
▁pad	-8791
owner	-8792
▁nurs	-8793
▁Citiz	-8794
▁career	-8795
▁consec	-8796
▁stress	-8797
▁trials	-8798
▁Proceed	-8799
▁Dictionary	-8800
▁literature	-8801
▁participating	-8802
mark	-8803
abhai	-8804
enger	-8805
ights	-8806
▁Five	-8807
▁scri	-8808
▁Integ	-8809
▁intra	-8810
▁manip	-8811
▁unity	-8812
priation	-8813
▁Finally	-8814
▁multiplier	-8815
▁miscarriage	-8816
▁representations	-8817
ils	-8818
room	-8819
▁lose	-8820
ruction	-8821
▁unknown	-8822
▁frivolous	-8823
▁deductions	-8824
▁War	-8825
ented	-8826
▁mine	-8827
orters	-8828
▁scoot	-8829
▁white	-8830
▁closure	-8831
▁deserve	-8832
▁killing	-8833
▁offending	-8834
▁functionaries	-8835
▁Sl	-8836
ohar	-8837
pass	-8838
▁dry	-8839
▁enl	-8840
itime	-8841
▁Neither	-8842
▁Payment	-8843
▁machine	-8844
▁discount	-8845
▁freedoms	-8846
▁surrounding	-8847
▁investigated	-8848
▁unsustainable	-8849
unk	-8850
▁ft	-8851
urch	-8852
iscal	-8853
▁isol	-8854
engers	-8855
entral	-8856
▁guarantees	-8857
▁suppression	-8858
▁]	-8859
▁Ce	-8860
what	-8861
▁ICT	-8862
▁Jal	-8863
▁Raju	-8864
▁bears	-8865
▁Global	-8866
▁condol	-8867
▁tonnes	-8868
▁upgrad	-8869
▁chapter	-8870
▁degrees	-8871
▁stopped	-8872
▁Justices	-8873
▁prosecuted	-8874
EST	-8875
ITY	-8876
ENCE	-8877
isms	-8878
▁Sure	-8879
▁Tehs	-8880
▁embar	-8881
▁ending	-8882
▁forests	-8883
▁refusing	-8884
▁friendship	-8885
▁philosophy	-8886
▁adjudicated	-8887
▁prescribing	-8888
▁Adjudicating	-8889
MT	-8890
▁thor	-8891
▁lists	-8892
▁Odisha	-8893
▁defaul	-8894
▁happen	-8895
▁intest	-8896
▁nonxad	-8897
▁evening	-8898
ciliation	-8899
▁attitude	-8900
▁impleaded	-8901
dec	-8902
▁Jaw	-8903
▁haz	-8904
▁bone	-8905
▁colon	-8906
▁dilig	-8907
▁silver	-8908
▁Various	-8909
▁propose	-8910
▁improved	-8911
▁inviting	-8912
▁overruled	-8913
▁summoning	-8914
VER	-8915
apt	-8916
mpt	-8917
force	-8918
▁Drug	-8919
▁ahead	-8920
▁stone	-8921
▁profile	-8922
▁vesting	-8923
▁Petroleum	-8924
▁completing	-8925
▁erroneously	-8926
▁hereinbelow	-8927
inc	-8928
hesh	-8929
▁Bah	-8930
▁Ved	-8931
▁Anal	-8932
▁MESS	-8933
▁Mach	-8934
▁ties	-8935
▁thres	-8936
▁conced	-8937
▁incomp	-8938
▁remarks	-8939
▁concepts	-8940
▁exercises	-8941
Is	-8942
do	-8943
▁JJ	-8944
ambig	-8945
▁root	-8946
▁Kishan	-8947
▁unanim	-8948
▁artific	-8949
▁doubtful	-8950
▁reporting	-8951
▁characteristics	-8952
▁CM	-8953
▁lik	-8954
apore	-8955
belie	-8956
▁Lords	-8957
▁grass	-8958
estival	-8959
▁defeat	-8960
▁MESSAGE	-8961
▁restore	-8962
▁Resource	-8963
▁Monitoring	-8964
HT	-8965
UMAR	-8966
▁Bhat	-8967
▁abst	-8968
awalli	-8969
ugopal	-8970
entures	-8971
raction	-8972
▁condon	-8973
▁encumb	-8974
▁Certain	-8975
▁Greater	-8976
▁climate	-8977
▁perfect	-8978
▁prohibits	-8979
▁Corruption	-8980
▁deliberate	-8981
▁deputation	-8982
▁healthcare	-8983
▁personality	-8984
)/	-8985
asion	-8986
▁Ravi	-8987
▁Vikas	-8988
▁blank	-8989
▁Export	-8990
▁bodily	-8991
▁onwards	-8992
▁surface	-8993
▁unambig	-8994
▁fertiliz	-8995
▁disposing	-8996
▁weightage	-8997
▁Defendants	-8998
▁landowners	-8999
▁television	-9000
▁declarations	-9001
ota	-9002
othe	-9003
▁Nep	-9004
▁Body	-9005
▁Autom	-9006
▁Griev	-9007
iversary	-9008
▁hectares	-9009
▁opinions	-9010
▁Personnel	-9011
▁reiterate	-9012
▁continuation	-9013
AYS	-9014
hik	-9015
oda	-9016
ukh	-9017
ford	-9018
ician	-9019
ortium	-9020
▁helps	-9021
▁trees	-9022
▁volume	-9023
▁monitor	-9024
▁Statutory	-9025
▁dedicated	-9026
▁reim	-9027
▁KUMAR	-9028
▁surve	-9029
▁Hindus	-9030
▁denying	-9031
▁managed	-9032
▁penalties	-9033
▁techniques	-9034
▁appreciating	-9035
ika	-9036
fort	-9037
▁Tour	-9038
auvery	-9039
▁Guard	-9040
▁Raman	-9041
▁Stock	-9042
▁abund	-9043
▁leased	-9044
▁Whereas	-9045
▁broadly	-9046
ographical	-9047
▁financing	-9048
▁prevalent	-9049
▁commodities	-9050
▁establishes	-9051
▁incriminating	-9052
wara	-9053
▁kidn	-9054
▁Ahmad	-9055
▁Cause	-9056
deceased	-9057
▁Statute	-9058
▁peoples	-9059
▁prayers	-9060
▁adjusted	-9061
▁attacked	-9062
▁meaningful	-9063
▁precedents	-9064
▁Establishment	-9065
▁communications	-9066
nty	-9067
’).	-9068
▁WIT	-9069
▁inh	-9070
▁dies	-9071
▁empt	-9072
▁Point	-9073
▁blind	-9074
▁diagn	-9075
▁treaty	-9076
▁prolong	-9077
sufficient	-9078
▁Marketing	-9079
▁threshold	-9080
▁elaborately	-9081
▁substantiate	-9082
▁instal	-9083
▁peaceful	-9084
▁squarely	-9085
▁Standards	-9086
▁facilitating	-9087
▁compassionate	-9088
Ann	-9089
▁RTI	-9090
▁Van	-9091
▁drew	-9092
▁Lease	-9093
▁parte	-9094
writing	-9095
▁contemn	-9096
▁strategic	-9097
▁suspended	-9098
organisation	-9099
▁Subordinate	-9100
▁introducing	-9101
MIN	-9102
Sec	-9103
▁DE	-9104
ignty	-9105
▁Deep	-9106
▁Russ	-9107
▁York	-9108
▁bull	-9109
▁cant	-9110
▁eman	-9111
▁onus	-9112
▁dynam	-9113
▁spons	-9114
▁enjoyed	-9115
▁verdict	-9116
▁announced	-9117
▁relatable	-9118
▁concluding	-9119
▁deliberately	-9120
▁unauthorized	-9121
ura	-9122
▁Rev	-9123
appre	-9124
▁Item	-9125
ainted	-9126
visory	-9127
▁aspir	-9128
▁Charge	-9129
▁versus	-9130
▁Through	-9131
▁imposes	-9132
▁spectrum	-9133
▁Guarantee	-9134
▁undivided	-9135
▁obligatory	-9136
▁conditional	-9137
▁concurrently	-9138
▁IA	-9139
ceut	-9140
ixed	-9141
▁SEC	-9142
▁rid	-9143
▁wil	-9144
agree	-9145
ammad	-9146
▁Book	-9147
▁flex	-9148
▁Draft	-9149
▁mouth	-9150
▁solar	-9151
▁thrown	-9152
▁footing	-9153
▁disappro	-9154
▁Pollution	-9155
▁rationale	-9156
▁liquidation	-9157
ALL	-9158
URE	-9159
abh	-9160
▁Edn	-9161
▁sun	-9162
▁Arch	-9163
▁Bhut	-9164
▁Major	-9165
▁Relief	-9166
▁cinema	-9167
▁earnest	-9168
▁nutrition	-9169
▁antecedents	-9170
bi	-9171
Pre	-9172
SION	-9173
eous	-9174
iful	-9175
quar	-9176
term	-9177
▁EVE	-9178
▁Text	-9179
▁fish	-9180
▁adhere	-9181
▁heinous	-9182
▁implies	-9183
▁efficacy	-9184
▁stations	-9185
▁Venugopal	-9186
▁comprises	-9187
▁daughters	-9188
▁Pla	-9189
▁vice	-9190
rating	-9191
▁Supply	-9192
▁sheets	-9193
▁allottee	-9194
▁implicated	-9195
CH	-9196
Sh	-9197
ica	-9198
▁cler	-9199
▁plus	-9200
▁rede	-9201
▁advis	-9202
▁inquest	-9203
▁passengers	-9204
▁utilization	-9205
ooth	-9206
that	-9207
viii	-9208
▁Mult	-9209
▁bids	-9210
▁hire	-9211
ivable	-9212
▁Cases	-9213
▁inequ	-9214
▁forged	-9215
▁Forests	-9216
▁insertion	-9217
eli	-9218
iva	-9219
isal	-9220
eding	-9221
▁blow	-9222
▁accum	-9223
▁owing	-9224
▁remem	-9225
▁resid	-9226
▁wants	-9227
ucherry	-9228
▁bidder	-9229
▁planned	-9230
▁grievous	-9231
▁Implement	-9232
▁accompany	-9233
▁discontin	-9234
▁litigants	-9235
▁adjudicate	-9236
▁construing	-9237
▁Disciplinary	-9238
pee	-9239
▁Bye	-9240
▁Yog	-9241
▁flu	-9242
▁Allow	-9243
▁trave	-9244
▁union	-9245
▁deploy	-9246
▁timely	-9247
▁Cauvery	-9248
▁Deposit	-9249
▁Working	-9250
▁sending	-9251
▁reviewed	-9252
▁strategy	-9253
▁terrorism	-9254
appropriate	-9255
▁cartridges	-9256
▁purchasers	-9257
SP	-9258
TO	-9259
२०	-9260
▁Ak	-9261
▁Pud	-9262
▁sle	-9263
▁Farm	-9264
▁seal	-9265
itical	-9266
▁Unless	-9267
▁analog	-9268
▁retention	-9269
▁combination	-9270
▁Compensation	-9271
abs	-9272
▁Az	-9273
▁APP	-9274
▁Jail	-9275
▁Late	-9276
▁VIII	-9277
▁airc	-9278
▁unex	-9279
▁rebut	-9280
▁modify	-9281
▁lodging	-9282
▁Interpre	-9283
▁directive	-9284
▁forfeiture	-9285
▁examinations	-9286
DF	-9287
lo	-9288
lt	-9289
Moh	-9290
dev	-9291
▁Vi	-9292
join	-9293
▁Meet	-9294
▁Sukh	-9295
▁news	-9296
rative	-9297
▁revol	-9298
ressing	-9299
▁skilled	-9300
▁staying	-9301
▁Projects	-9302
▁variation	-9303
zz	-9304
try	-9305
▁AR	-9306
▁pi	-9307
book	-9308
▁cat	-9309
dhury	-9310
▁cold	-9311
viable	-9312
▁Prabh	-9313
closure	-9314
▁silent	-9315
▁decides	-9316
▁utility	-9317
▁immunity	-9318
▁Complaint	-9319
▁legislate	-9320
▁prospects	-9321
▁continuously	-9322
ny	-9323
rary	-9324
▁Know	-9325
▁TRAI	-9326
▁xxxx	-9327
▁accus	-9328
▁brand	-9329
▁intend	-9330
harmaceut	-9331
▁mutually	-9332
▁Christian	-9333
▁departure	-9334
▁stability	-9335
IO	-9336
▁syn	-9337
ighed	-9338
▁Micro	-9339
▁averred	-9340
▁interrog	-9341
▁untenable	-9342
▁participants	-9343
▁AG	-9344
▁uf	-9345
alle	-9346
igam	-9347
ilder	-9348
▁jour	-9349
accept	-9350
illary	-9351
legium	-9352
▁Sever	-9353
▁Bachan	-9354
▁Coming	-9355
▁Regard	-9356
▁couple	-9357
▁degrad	-9358
▁errors	-9359
▁America	-9360
▁emerges	-9361
▁Singapore	-9362
termination	-9363
▁overriding	-9364
▁preventing	-9365
anta	-9366
▁debar	-9367
▁rests	-9368
▁Instead	-9369
▁Network	-9370
▁Parties	-9371
▁Singhvi	-9372
▁logical	-9373
▁enrolled	-9374
▁Directive	-9375
▁confessions	-9376
▁Distribution	-9377
▁Organization	-9378
oves	-9379
enous	-9380
▁Academ	-9381
▁attain	-9382
▁facets	-9383
▁sphere	-9384
▁widely	-9385
iscation	-9386
▁occupied	-9387
▁striking	-9388
▁diversity	-9389
PG	-9390
▁ap	-9391
iven	-9392
▁....	-9393
▁bias	-9394
▁hill	-9395
▁wakf	-9396
artial	-9397
viously	-9398
▁begins	-9399
▁notion	-9400
▁abscond	-9401
▁someone	-9402
▁introduce	-9403
▁prosecute	-9404
▁attendance	-9405
▁Sk	-9406
aran	-9407
eces	-9408
iers	-9409
oked	-9410
▁MUK	-9411
▁hor	-9412
▁shift	-9413
▁tendency	-9414
▁preparing	-9415
▁discovered	-9416
▁concurrence	-9417
▁sovereignty	-9418
▁prescription	-9419
▁collaboration	-9420
asa	-9421
rim	-9422
▁Dw	-9423
ATES	-9424
uster	-9425
istent	-9426
venues	-9427
▁fract	-9428
▁Witness	-9429
▁cutting	-9430
▁Rajendra	-9431
▁minister	-9432
▁pleading	-9433
▁ambiguity	-9434
▁registering	-9435
▁unauthorised	-9436
lier	-9437
▁rod	-9438
▁Educ	-9439
▁......	-9440
▁parade	-9441
▁settle	-9442
▁regions	-9443
▁adultery	-9444
▁recruits	-9445
▁locations	-9446
▁expiration	-9447
▁deprivation	-9448
▁destruction	-9449
eded	-9450
ulla	-9451
▁Grad	-9452
▁struggle	-9453
▁physically	-9454
▁calculation	-9455
▁regularization	-9456
HAR	-9457
▁JUD	-9458
ildar	-9459
▁hurt	-9460
▁Medic	-9461
▁pointing	-9462
Respondent	-9463
▁collecting	-9464
▁vulnerable	-9465
▁WP	-9466
back	-9467
▁Gau	-9468
▁amen	-9469
▁wood	-9470
▁Chart	-9471
▁relie	-9472
▁quarrel	-9473
▁coverage	-9474
▁inferred	-9475
▁transfers	-9476
▁Puducherry	-9477
▁governmental	-9478
ux	-9479
ALCO	-9480
enda	-9481
assed	-9482
▁hall	-9483
gments	-9484
▁Region	-9485
▁advise	-9486
▁trustee	-9487
▁detained	-9488
▁thorough	-9489
▁exchanges	-9490
▁prospecting	-9491
▁Presidential	-9492
▁infringement	-9493
.’	-9494
DT	-9495
ayal	-9496
▁Ham	-9497
▁fake	-9498
▁Japan	-9499
▁Enquiry	-9500
▁NATIONAL	-9501
▁Resources	-9502
▁abolition	-9503
▁postulates	-9504
oken	-9505
offic	-9506
▁Hari	-9507
▁vests	-9508
erating	-9509
▁Harish	-9510
▁fiscal	-9511
spection	-9512
▁options	-9513
▁noticing	-9514
▁trustees	-9515
▁Federation	-9516
▁redemption	-9517
▁remembered	-9518
▁suitability	-9519
harmaceutical	-9520
▁transformation	-9521
cel	-9522
▁ine	-9523
▁Band	-9524
▁Cost	-9525
▁Cult	-9526
▁Requ	-9527
▁Salve	-9528
▁chief	-9529
▁column	-9530
ffective	-9531
▁Several	-9532
▁renewed	-9533
▁Addition	-9534
▁expanded	-9535
▁gratuity	-9536
▁operated	-9537
▁pregnant	-9538
▁removing	-9539
▁succeeded	-9540
▁Concurrent	-9541
▁confirming	-9542
▁Institution	-9543
▁governments	-9544
▁transferring	-9545
▁proportionate	-9546
enn	-9547
▁NT	-9548
ivedi	-9549
▁Cond	-9550
▁chose	-9551
▁magaz	-9552
alities	-9553
▁cleared	-9554
▁imparting	-9555
▁Panchayats	-9556
▁conveyance	-9557
▁Consolidated	-9558
▁Consultation	-9559
%,	-9560
▁mig	-9561
▁upd	-9562
▁wal	-9563
▁detri	-9564
▁Amicus	-9565
▁gather	-9566
▁master	-9567
▁Dwivedi	-9568
▁Hearing	-9569
▁alcohol	-9570
▁consumed	-9571
▁remitted	-9572
missibility	-9573
omy	-9574
▁TN	-9575
arya	-9576
rams	-9577
▁Ess	-9578
plete	-9579
▁Sikk	-9580
▁COURT	-9581
▁broken	-9582
▁fruits	-9583
▁leader	-9584
▁briefly	-9585
▁scooter	-9586
▁sanctity	-9587
▁premature	-9588
▁processed	-9589
▁successor	-9590
▁congratulate	-9591
Ass	-9592
will	-9593
▁Max	-9594
ietal	-9595
ipped	-9596
▁Tuls	-9597
▁Sushil	-9598
▁ignore	-9599
▁Chander	-9600
▁adjudic	-9601
▁weighed	-9602
▁Appendix	-9603
▁advances	-9604
▁combined	-9605
▁prisoners	-9606
▁unnatural	-9607
▁warranted	-9608
▁artificial	-9609
▁Prosecution	-9610
▁legislatures	-9611
▁preservation	-9612
▁win	-9613
inity	-9614
rence	-9615
▁Cler	-9616
▁Norm	-9617
▁beat	-9618
▁brut	-9619
ailing	-9620
aswamy	-9621
▁breed	-9622
▁coerc	-9623
▁sites	-9624
resents	-9625
▁deaths	-9626
▁utmost	-9627
▁Schemes	-9628
▁contradict	-9629
▁promotions	-9630
▁confiscation	-9631
bon	-9632
▁Pow	-9633
▁Set	-9634
▁ven	-9635
ighty	-9636
▁Copy	-9637
▁Wing	-9638
uating	-9639
▁derog	-9640
▁Bhutan	-9641
thly	-9642
▁sad	-9643
▁Guru	-9644
▁tell	-9645
▁Nigam	-9646
▁elder	-9647
▁corpus	-9648
▁worker	-9649
▁disabled	-9650
▁institutes	-9651
mia	-9652
▁IF	-9653
▁fo	-9654
bidd	-9655
macy	-9656
meas	-9657
urit	-9658
▁Daw	-9659
▁MLA	-9660
▁pled	-9661
▁wait	-9662
▁phase	-9663
▁print	-9664
▁Muslims	-9665
▁therefor	-9666
▁thinking	-9667
▁ammunition	-9668
▁conferring	-9669
▁preventive	-9670
▁controlling	-9671
▁interesting	-9672
▁retrospectively	-9673
za	-9674
rup	-9675
rich	-9676
▁orna	-9677
▁Impro	-9678
▁Speech	-9679
▁adding	-9680
▁beings	-9681
▁slight	-9682
forcement	-9683
▁internet	-9684
▁Chaudhary	-9685
Corporation	-9686
▁definitely	-9687
▁commutation	-9688
▁instruction	-9689
▁Recommendation	-9690
ero	-9691
▁MH	-9692
irds	-9693
▁AOR	-9694
▁NCL	-9695
▁SPE	-9696
▁sty	-9697
▁tom	-9698
hered	-9699
▁sums	-9700
▁“...	-9701
wealth	-9702
▁paddy	-9703
▁urgent	-9704
▁triable	-9705
▁Insolvency	-9706
▁correspondence	-9707
Cri	-9708
▁RA	-9709
▁Beg	-9710
▁kil	-9711
▁sear	-9712
▁shar	-9713
▁Benef	-9714
▁Brief	-9715
▁empty	-9716
▁score	-9717
▁Crores	-9718
▁rarest	-9719
▁stored	-9720
▁strang	-9721
▁Premises	-9722
▁Standard	-9723
▁enclosed	-9724
▁boundaries	-9725
▁represents	-9726
▁undisputed	-9727
▁Complainant	-9728
▁aggravating	-9729
SO	-9730
0/-	-9731
▁won	-9732
inety	-9733
▁Anti	-9734
▁Docu	-9735
▁WITH	-9736
▁rash	-9737
▁tool	-9738
rances	-9739
▁About	-9740
▁Black	-9741
settled	-9742
▁Sikkim	-9743
▁behest	-9744
dictions	-9745
▁mission	-9746
▁Sciences	-9747
▁somewhat	-9748
▁projected	-9749
▁complained	-9750
▁inevitable	-9751
▁Prohibition	-9752
▁identifying	-9753
▁reasonableness	-9754
PCL	-9755
och	-9756
oya	-9757
hari	-9758
▁Yoj	-9759
▁bra	-9760
▁mid	-9761
▁ped	-9762
ading	-9763
▁Team	-9764
▁shel	-9765
except	-9766
▁store	-9767
▁connot	-9768
▁decline	-9769
▁constant	-9770
▁drinking	-9771
▁provider	-9772
▁reflects	-9773
▁panchnama	-9774
▁terminate	-9775
▁Plaintiffs	-9776
▁convicting	-9777
▁Organisation	-9778
WC	-9779
atha	-9780
▁Bid	-9781
▁Han	-9782
▁pit	-9783
▁inse	-9784
▁motu	-9785
invest	-9786
wellery	-9787
▁allied	-9788
▁Educational	-9789
▁Secretaries	-9790
▁interaction	-9791
BA	-9792
JEE	-9793
▁NH	-9794
onds	-9795
▁Nare	-9796
▁heav	-9797
inding	-9798
▁risks	-9799
▁ensures	-9800
▁journey	-9801
▁picture	-9802
▁mischief	-9803
▁Obviously	-9804
▁confusion	-9805
▁delegated	-9806
▁demanding	-9807
▁developer	-9808
▁inability	-9809
▁Electronics	-9810
pol	-9811
oure	-9812
▁ASG	-9813
▁Ren	-9814
based	-9815
▁Rash	-9816
▁phen	-9817
▁Manohar	-9818
▁Meeting	-9819
▁actively	-9820
▁beneficiary	-9821
may	-9822
▁RO	-9823
▁Conv	-9824
raisal	-9825
▁expos	-9826
▁ideal	-9827
▁Merely	-9828
▁ceases	-9829
▁serial	-9830
▁Conserv	-9831
▁inspire	-9832
▁summoned	-9833
▁dangerous	-9834
▁enforcing	-9835
ola	-9836
son	-9837
ucid	-9838
▁Kum	-9839
▁ble	-9840
-----	-9841
aided	-9842
▁Units	-9843
▁bribe	-9844
husband	-9845
▁unconsc	-9846
▁inferior	-9847
▁leviable	-9848
▁suggests	-9849
▁dishonest	-9850
▁Liquidator	-9851
▁violations	-9852
▁Additionally	-9853
▁contradiction	-9854
▁EIA	-9855
cking	-9856
▁Hard	-9857
▁Radh	-9858
▁Misra	-9859
▁Table	-9860
▁Dinesh	-9861
▁anomal	-9862
chnology	-9863
▁survive	-9864
▁grenades	-9865
▁newspapers	-9866
▁MT	-9867
iyar	-9868
norm	-9869
▁Capt	-9870
▁evid	-9871
▁Heard	-9872
▁cards	-9873
▁blasts	-9874
▁repair	-9875
▁seeing	-9876
▁visual	-9877
aturally	-9878
▁movable	-9879
agistrates	-9880
▁redressal	-9881
▁associations	-9882
▁Identification	-9883
Com	-9884
▁Care	-9885
▁emot	-9886
erting	-9887
▁aided	-9888
▁diary	-9889
▁seeds	-9890
▁perman	-9891
▁sports	-9892
▁Jagdish	-9893
▁imports	-9894
▁tractor	-9895
paragraph	-9896
▁External	-9897
▁campaign	-9898
▁generate	-9899
▁manpower	-9900
▁affirming	-9901
orticulture	-9902
▁unfortunate	-9903
,-	-9904
▁Loan	-9905
▁Price	-9906
▁confron	-9907
▁qualify	-9908
▁passenger	-9909
▁promotees	-9910
▁cumulative	-9911
▁communicate	-9912
▁“(	-9913
Supra	-9914
kumar	-9915
▁	-9916
e	-9917
t	-9918
a	-9919
i	-9920
o	-9921
n	-9922
r	-9923
s	-9924
h	-9925
d	-9926
c	-9927
l	-9928
u	-9929
f	-9930
p	-9931
m	-9932
g	-9933
b	-9934
y	-9935
w	-9936
.	-9937
v	-9938
,	-9939
C	-9940
A	-9941
S	-9942
T	-9943
I	-9944
०	-9945
k	-9946
x	-9947
P	-9948
)	-9949
१	-9950
(	-9951
-	-9952
R	-9953
j	-9954
M	-9955
N	-9956
D	-9957
H	-9958
२	-9959
B	-9960
q	-9961
E	-9962
O	-9963
G	-9964
L	-9965
W	-9966
F	-9967
J	-9968
३	-9969
/	-9970
0	-9971
:	-9972
U	-9973
K	-9974
'	-9975
४	-9976
’	-9977
z	-9978
V	-9979
;	-9980
“	-9981
५	-9982
|	-9983
]	-9984
[	-9985
‘	-9986
६	-9987
&	-9988
Y	-9989
७	-9990
%	-9991
८	-9992
—	-9993
