<unk>	0
<s>	0
</s>	0
UuRrLl	0
DdAaTtEe	0
NnUuMm	0
▁ક	-0
મા	-1
વા	-2
▁અ	-3
▁સ	-4
્ય	-5
▁પ	-6
▁આ	-7
ના	-8
ને	-9
ાર	-10
માં	-11
▁ત	-12
ની	-13
્ર	-14
▁જ	-15
▁છ	-16
▁હ	-17
▁કર	-18
▁છે	-19
▁ન	-20
▁વ	-21
ર્	-22
▁તે	-23
▁ર	-24
▁અને	-25
▁મ	-26
▁દ	-27
ું	-28
ક્	-29
▁કે	-30
▁એ	-31
▁બ	-32
▁આવ	-33
▁મા	-34
તા	-35
ાય	-36
વામાં	-37
રા	-38
ટે	-39
▁શ	-40
થી	-41
લા	-42
▁પ્ર	-43
િક	-44
િત	-45
▁હત	-46
નો	-47
▁સં	-48
▁માટે	-49
્યા	-50
્ટ	-51
રી	-52
▁વિ	-53
▁કો	-54
તિ	-55
્વા	-56
▁(	-57
▁ઉ	-58
દા	-59
▁લ	-60
▁પર	-61
િય	-62
્વારા	-63
▁દ્વારા	-64
▁જે	-65
પી	-66
▁સા	-67
સ્	-68
▁ભ	-69
ક્ષ	-70
▁રા	-71
કાર	-72
▁ગ	-73
▁જો	-74
થવા	-75
▁સ્	-76
▁આપ	-77
▁કરવામાં	-78
▁ફ	-79
્યો	-80
▁ચ	-81
ંધ	-82
ેલ	-83
▁ના	-84
▁અથવા	-85
ેશ	-86
ન્	-87
▁નિ	-88
ાવ	-89
ત્	-90
▁કોઈ	-91
હી	-92
ંત	-93
કે	-94
યો	-95
સી	-96
કા	-97
▁કાર	-98
વી	-99
▁કરવા	-100
▁ખ	-101
▁હો	-102
શે	-103
હે	-104
તી	-105
્યું	-106
▁સુ	-107
રો	-108
▁હતી	-109
કો	-110
ણી	-111
▁થ	-112
▁નથી	-113
▁કરી	-114
▁સમ	-115
ાસ	-116
ષ્ટ	-117
ધાર	-118
▁હે	-119
▁આવી	-120
નું	-121
▁મુ	-122
ારી	-123
ંગ	-124
તે	-125
▁અધ	-126
ત્ર	-127
ર્ટ	-128
▁ઉપ	-129
▁એક	-130
ન્ય	-131
▁તેમ	-132
▁ની	-133
િયા	-134
▁આવે	-135
પીલ	-136
ણા	-137
▁પણ	-138
મે	-139
જી	-140
ણે	-141
▁કાય	-142
▁અપીલ	-143
▁હતો	-144
્યુ	-145
કી	-146
વે	-147
▁ધ	-148
▁હા	-149
્લ	-150
▁ડ	-151
ઠળ	-152
▁હેઠળ	-153
્રી	-154
થે	-155
યોગ	-156
જૂ	-157
▁સાથે	-158
તો	-159
ધી	-160
ટી	-161
લી	-162
▁વ્ય	-163
દ્	-164
ર્ણ	-165
ક્ત	-166
વિ	-167
▁લે	-168
▁-	-169
▁લા	-170
▁જા	-171
▁માં	-172
▁વા	-173
રે	-174
▁કા	-175
▁બા	-176
િયમ	-177
ક્તિ	-178
સા	-179
્યાર	-180
થા	-181
▁ઓ	-182
રૂ	-183
▁રાજ	-184
▁ટ	-185
▁નો	-186
ot	-187
▁રી	-188
ધા	-189
▁પા	-190
ંચ	-191
દાર	-192
▁&	-193
▁અધિક	-194
qu	-195
▁હતું	-196
quot	-197
▁કાયદા	-198
▁કરે	-199
દેશ	-200
દી	-201
હીં	-202
ાગ	-203
▁ઇ	-204
▁બે	-205
▁રીતે	-206
વું	-207
▁.	-208
સ્ટ	-209
▁સિ	-210
જા	-211
્યાય	-212
નમાં	-213
▁કાર્ય	-214
▁તેના	-215
▁કલ	-216
▁રો	-217
િલ	-218
ક્ટ	-219
▁કેસ	-220
▁પુ	-221
▁અર	-222
▁રાખ	-223
▁મે	-224
્યાં	-225
્રા	-226
▁શકે	-227
▁સમા	-228
ુક	-229
▁/	-230
બંધ	-231
▁ભાર	-232
ન્ટ	-233
▁ન્યાય	-234
▁મૂ	-235
▁નહીં	-236
શન	-237
▁રાજ્ય	-238
ચે	-239
ેલી	-240
▁સર	-241
ેટ	-242
▁વર્	-243
મી	-244
▁પૂ	-245
દર્	-246
જબ	-247
્યારે	-248
▁ઘ	-249
દાલ	-250
▁અદાલ	-251
▁ગુ	-252
▁કોર્ટ	-253
િટ	-254
સર	-255
ર્ડ	-256
પા	-257
છી	-258
ડી	-259
િન	-260
પણ	-261
વાની	-262
▁અન્ય	-263
▁કલમ	-264
▁વ્યક્તિ	-265
વો	-266
બર	-267
સ્ત	-268
ેર	-269
દો	-270
ૂચ	-271
..	-272
પૂ	-273
▁અન	-274
રણ	-275
રીકે	-276
▁તરીકે	-277
▁રજૂ	-278
▁હતા	-279
▁એસ	-280
▁નં	-281
લે	-282
ૃત	-283
શ્	-284
▁સરકાર	-285
▁શક	-286
ંદ	-287
▁પો	-288
્સ	-289
▁પછી	-290
ષ્	-291
નાવ	-292
બી	-293
▁નોંધ	-294
▁તો	-295
▁પરિ	-296
યોગ્ય	-297
▁નિયમ	-298
ગવા	-299
ઈએ	-300
▁કારણ	-301
▁ધ્યા	-302
પ્	-303
▁આરો	-304
ેલા	-305
ર્થ	-306
▁આપવામાં	-307
▁સંબંધ	-308
▁કોઈપણ	-309
▁પ્રતિ	-310
▁જોગવા	-311
દર્ભ	-312
▁સૂચ	-313
▁જોગવાઈ	-314
▁સંદર્ભ	-315
▁જરૂ	-316
વાહી	-317
▁બંધ	-318
ન્સ	-319
▁સે	-320
ાળ	-321
▁આવ્યો	-322
ચ્	-323
▁સમય	-324
▁રોજ	-325
▁પી	-326
▁કાર્યવાહી	-327
▁હોય	-328
યુ	-329
▁મુજબ	-330
▁તેની	-331
પષ્ટ	-332
▁ફર	-333
▁જવા	-334
તર	-335
▁આધાર	-336
જો	-337
▁નિર્	-338
ંડ	-339
▁યોગ્ય	-340
▁ખા	-341
ન્ડ	-342
▁લો	-343
▁હોવા	-344
▁અધિકાર	-345
િંગ	-346
ઓને	-347
▁મો	-348
▁વધ	-349
િવ	-350
નાર	-351
▁જવાબ	-352
▁બી	-353
ોમાં	-354
▁જોઈએ	-355
▁વે	-356
બા	-357
ક્ષણ	-358
▁સી	-359
▁નિર્ણ	-360
▁જાહે	-361
▁ધ્યાનમાં	-362
▁અરજી	-363
ણાવ	-364
▁ભારત	-365
▁ઉત્	-366
▁વર્ષ	-367
▁મહ	-368
▁સુધી	-369
ૂક	-370
યા	-371
આર	-372
▁આવશે	-373
▁ભાગ	-374
▁આવ્યું	-375
લો	-376
▁રહ	-377
▁દા	-378
ક્સ	-379
▁જણાવ	-380
મિ	-381
હિત	-382
▁બંધાર	-383
ંપ	-384
▁સ્પષ્ટ	-385
▁તેથી	-386
પૂર્ણ	-387
ગી	-388
▁વધુ	-389
▁પડ	-390
▁અનુ	-391
▁આરોપી	-392
ક્ર	-393
ચાર	-394
▁જાહેર	-395
▁નંબર	-396
ર્ટે	-397
ંજૂ	-398
▁રૂ	-399
▁રાષ્ટ	-400
▁સંબંધિત	-401
ુકા	-402
મ્	-403
▁શ્રી	-404
દ્ધ	-405
ચા	-406
▁સ્થા	-407
રોક્ત	-408
િતિ	-409
▁ઉપરોક્ત	-410
પાસ	-411
▁સલા	-412
લ્લ	-413
કોર્ટ	-414
▁જ્યારે	-415
ંતુ	-416
▁અમ	-417
▁લી	-418
તુ	-419
▁નીચે	-420
▁ચુકા	-421
એસ	-422
ત્તા	-423
▁ટ્ર	-424
▁સ્થ	-425
જે	-426
▁|	-427
વવા	-428
▁તમા	-429
▁ઉપયોગ	-430
▁&#	-431
ેત્ર	-432
▁મંજૂ	-433
▁લાગ	-434
▁કરવાની	-435
બ્	-436
ુકમ	-437
▁પરંતુ	-438
ોને	-439
▁પસ	-440
ોર	-441
▁તપાસ	-442
▁નિર્ણય	-443
▁દર	-444
આત	-445
ર્વ	-446
કર્	-447
તાં	-448
ંત્ર	-449
સ્થા	-450
▁મંજૂરી	-451
▁હાઈ	-452
ડા	-453
▁ડિ	-454
▁અભ	-455
▁યુ	-456
▁અદાલત	-457
▁પ્રા	-458
▁આવા	-459
આઈ	-460
▁કિ	-461
▁થાય	-462
▁હુકમ	-463
▁તેમના	-464
પ્ર	-465
▁અધિકારી	-466
▁આગ	-467
ીને	-468
ન્દ	-469
ઓની	-470
યોજ	-471
ભાગ	-472
મણ	-473
ંક	-474
▁ક્	-475
&#	-476
▁પ્રો	-477
સિ	-478
હાર	-479
ોની	-480
▁માન	-481
▁શકાય	-482
મીન	-483
હેલા	-484
▁જ્યાં	-485
▁સામા	-486
ડબ	-487
▁બનાવ	-488
▁સલાહ	-489
▁થઈ	-490
▁તેને	-491
▁વિક	-492
ભા	-493
▁ન્યાયા	-494
▁અવ	-495
▁આપી	-496
▁કરનાર	-497
▁એસસી	-498
▁કામ	-499
▁કર્યો	-500
▁મળ	-501
ખલ	-502
વાય	-503
▁ચુકાદા	-504
ેશન	-505
▁એક્ટ	-506
િનિયમ	-507
નિ	-508
વાર	-509
▁બો	-510
▁જરૂરી	-511
▁હેતુ	-512
▁રે	-513
▁અંગ	-514
હો	-515
▁અધિનિયમ	-516
▁પુરા	-517
▁કરાર	-518
ટા	-519
▁પાસ	-520
વણી	-521
▁સુધાર	-522
કારી	-523
▁વ્યવ	-524
▁બંધારણ	-525
▁ઉલ્લ	-526
▁ન્યાયાધી	-527
▁તા	-528
▁[	-529
ક્ષા	-530
દન	-531
▁અમે	-532
▁તર	-533
▁પે	-534
ાર્	-535
▁ક્ષ	-536
▁ગુના	-537
હેવા	-538
પ્ત	-539
્લ્યુ	-540
.0	-541
લ્	-542
▁ન્યાયાધીશ	-543
ાયેલા	-544
ેટા	-545
▁લગ	-546
▁તમામ	-547
માંથી	-548
▁રાષ્ટ્ર	-549
▁સત્તા	-550
▁અપ	-551
▁બાબ	-552
ીએ	-553
▁લેવામાં	-554
વવામાં	-555
▁તેઓ	-556
ત્તિ	-557
▁સ્વ	-558
▁જેમ	-559
▁આવ્યા	-560
▁દાવ	-561
▁મૃત	-562
ેખ	-563
ગત	-564
▁આગળ	-565
ંપની	-566
▁અર્થ	-567
▁પહેલા	-568
પતિ	-569
▁વ્યા	-570
▁ફરિયા	-571
▁પક્ષ	-572
ડબ્લ્યુ	-573
▁રજૂઆત	-574
▁પુરાવા	-575
▁અરજ	-576
▁ફક્ત	-577
ોના	-578
▁આદેશ	-579
વાદી	-580
▁સહ	-581
▁તેમની	-582
ેશે	-583
▁અંગે	-584
▁ત્યાં	-585
▁યોજ	-586
▁જેમાં	-587
▁જી	-588
કમ	-589
▁જમીન	-590
▁તરફ	-591
િલ્	-592
▁જુ	-593
▁કંપની	-594
કીય	-595
ારીખ	-596
▁પાડ	-597
▁તારીખ	-598
કત	-599
▁સંદર્ભમાં	-600
ષ્ઠ	-601
રુ	-602
▁વધાર	-603
▁હાઈકોર્ટ	-604
▁મુખ	-605
▁કુ	-606
▁ને	-607
▁શિ	-608
▁અરજદાર	-609
ન્દ્ર	-610
શ્ય	-611
▁આધારે	-612
▁લાગુ	-613
ધાન	-614
▁સજા	-615
િસ	-616
લના	-617
દારી	-618
▁સમક્ષ	-619
▁અસર	-620
▁આપવા	-621
▁રકમ	-622
▁સામાન્ય	-623
▁ત્યારે	-624
પો	-625
▁ટે	-626
ૂત	-627
▁સંપૂર્ણ	-628
▁લોકો	-629
્રે	-630
▁કરીને	-631
▁દલી	-632
▁જોગવાઈઓ	-633
ભાવ	-634
મો	-635
▁દાખલ	-636
▁મેળ	-637
▁રાષ્ટ્રપતિ	-638
▁નિષ્	-639
▁સ્વી	-640
ગા	-641
▁સેવા	-642
▁સામે	-643
▁કર્યું	-644
▁ભા	-645
▁ચૂક	-646
▁વિશે	-647
સ્સા	-648
▁વિભાગ	-649
▁પેટા	-650
▁વિચાર	-651
કરણ	-652
ોષ	-653
▁સો	-654
▁કર્યા	-655
▁એસસીસી	-656
રિ	-657
ાળા	-658
માણ	-659
▁વિદ	-660
ાયેલ	-661
▁હાઇ	-662
▁એટ	-663
▁ગેર	-664
તાને	-665
દે	-666
▁સમાન	-667
▁રહેશે	-668
▁“	-669
▁કોર્ટે	-670
વેશ	-671
▁દાવો	-672
▁શા	-673
વાદ	-674
▁જણાવ્યું	-675
છા	-676
શ્યક	-677
ર્સ	-678
▁આવેલા	-679
▁કિસ્સા	-680
▁આવશ્યક	-681
થમ	-682
સ્તા	-683
▁જરૂર	-684
er	-685
▁રાખીને	-686
▁પ્રશ્	-687
ચ્ચે	-688
્રીય	-689
વન	-690
▁વચ્ચે	-691
▁માર્	-692
▁છતાં	-693
ાઇ	-694
....	-695
▁કેટ	-696
સાય	-697
ંતર	-698
કની	-699
▁મૂક	-700
▁મુખ્ય	-701
ખા	-702
પે	-703
સે	-704
▁સંસ્થા	-705
▁માન્ય	-706
લન	-707
િકા	-708
લમાં	-709
બાદ	-710
ઓના	-711
વિધ	-712
▁ક્ષેત્ર	-713
▁કરશે	-714
▁થી	-715
▁સામ	-716
▁નિય	-717
▁શર	-718
▁દલીલ	-719
▁વિશ	-720
▁કેન્દ્ર	-721
▁કમિ	-722
▁દરે	-723
તાના	-724
▁મુદ્	-725
▁છીએ	-726
▁યોજના	-727
પ્રા	-728
▁માલ	-729
ર્યા	-730
▁સંપ	-731
તંત્ર	-732
▁સલાહકાર	-733
▁ઉલ્લેખ	-734
▁એમ	-735
▁અમા	-736
શા	-737
▁સ્થાપ	-738
૨૦	-739
મત	-740
▁થય	-741
nd	-742
▁અનુસ	-743
તીય	-744
વર્	-745
▁I	-746
▁ઠ	-747
દાતા	-748
▁કર્	-749
▁સભ	-750
▁દરમ	-751
▁પગ	-752
ધાંત	-753
▁મી	-754
ૂલ	-755
▁વિવિધ	-756
▁પાસે	-757
ક્ષી	-758
િબ	-759
▁નવી	-760
▁બેંચ	-761
▁પ્રતિવાદી	-762
તું	-763
ંને	-764
િયાન	-765
▁o	-766
▁મૂળ	-767
▁તેમણે	-768
▁આવેલી	-769
▁પસાર	-770
ક્રિયા	-771
▁કિસ્સામાં	-772
▁કબ	-773
▁બંને	-774
▁શરૂ	-775
▁પ્રથમ	-776
▁ડી	-777
સુ	-778
▁વિકાસ	-779
▁પ્રક્રિયા	-780
▁પીડબ્લ્યુ	-781
▁દરમિયાન	-782
ખ્યા	-783
▁ધાર	-784
▁નિમણ	-785
▁મૂલ	-786
▁બદ	-787
▁નિર્દેશ	-788
▁પરિણા	-789
▁પુન	-790
નાવણી	-791
▁માંગ	-792
▁નિયમો	-793
▁સુનાવણી	-794
વાનો	-795
ગર	-796
▁ઉત્તર	-797
▁કારણે	-798
▁ત્ર	-799
▁વિના	-800
),	-801
એલ	-802
▁વળ	-803
ર્ડર	-804
િસ્ટ	-805
નિક	-806
▁તથ	-807
▁રદ	-808
્યારબાદ	-809
કોર્ડ	-810
ોધ	-811
▁ફો	-812
ગ્ર	-813
▁વી	-814
▁દરેક	-815
▁નક્	-816
પર	-817
▁૧	-818
▁અહેવા	-819
▁શબ્	-820
▁સ્વીકાર	-821
▁માહિત	-822
▁ચો	-823
▁રેકોર્ડ	-824
જોગ	-825
સ્થ	-826
કલ	-827
▁હકી	-828
▁સંજોગ	-829
જર	-830
ત્વ	-831
ંભ	-832
▁સિવાય	-833
▁વિરુ	-834
▁વિસ્ત	-835
▁હોઈ	-836
▁માટેની	-837
▁ઉપર	-838
્યુન	-839
▁પોલી	-840
એક્સ	-841
▁કેસમાં	-842
▁0	-843
▁જવાબદાર	-844
▁નિવે	-845
▁પસંદ	-846
▁દિવ	-847
▁અલ	-848
▁વિદ્વા	-849
▁ખો	-850
તાની	-851
▁નક્કી	-852
▁શી	-853
દ્ધાંત	-854
શી	-855
કોર્ટે	-856
▁ભારતના	-857
પણે	-858
▁આપે	-859
દાન	-860
મચ	-861
▁રિ	-862
કન	-863
▁કમિશન	-864
▁વિદ્વાન	-865
▁નિમણૂક	-866
હા	-867
સંગ	-868
ત્મ	-869
▁પહો	-870
▁કાયદો	-871
▁સિદ્ધાંત	-872
્રો	-873
▁ચા	-874
))	-875
▁મહિ	-876
ણીય	-877
એમ	-878
▁માહિતી	-879
▁ઉત્પા	-880
▁ઓર્ડર	-881
▁અદાલતે	-882
▁કોર્ટના	-883
▁મર્યા	-884
▁તેણે	-885
▁આપણે	-886
હન	-887
▁કરવાનો	-888
▁સ્થિતિ	-889
લાક	-890
▁દેશ	-891
▁ફરજ	-892
▁જેના	-893
માન	-894
િબ્યુન	-895
ંઘ	-896
તરી	-897
▁સંપત્તિ	-898
▁પહોંચ	-899
પાત્ર	-900
ગાળા	-901
▁પોલીસ	-902
કર્તા	-903
▁ભારતીય	-904
▁વાંચ	-905
મચારી	-906
તન	-907
ળખ	-908
▁ટ્રિબ્યુન	-909
જન	-910
▁હકીકત	-911
ચિત	-912
▁કાયદાની	-913
ફળ	-914
▁વખ	-915
▁વિરુદ્ધ	-916
્વ	-917
▁વિચારણા	-918
કારો	-919
▁શરતો	-920
▁આવક	-921
ંટ	-922
▁પ્રાપ્ત	-923
કાય	-924
▁અભિ	-925
ઓમાં	-926
▁લાભ	-927
▁દે	-928
▁માટેના	-929
▁કરો	-930
ક્ષેત્ર	-931
ગાઉ	-932
▁કર્મચારી	-933
▁શકા	-934
▁,	-935
▁કરતા	-936
પૂર્વ	-937
રીક્ષણ	-938
▁ત્યારબાદ	-939
▁શક્તિ	-940
▁હિ	-941
▁અગાઉ	-942
▁એટલે	-943
▁ફરી	-944
▁કહ	-945
▁આપ્યો	-946
▁સમિતિ	-947
જુ	-948
▁કરવી	-949
દેસર	-950
ક્ષમ	-951
▁આકાર	-952
▁રચ	-953
▁આવેલ	-954
▁વિશેષ	-955
ગે	-956
▁અં	-957
st	-958
નીય	-959
▁સાક્ષી	-960
▁ફરિયાદી	-961
મેન્ટ	-962
મેલ	-963
▁મુદ્દા	-964
▁પૂર્વ	-965
ગ્રી	-966
▁ખાસ	-967
ંદર	-968
કૃ	-969
▁મૃત્યુ	-970
દ્યો	-971
જિસ્ટ	-972
▁લેખ	-973
▁કેટલાક	-974
▁a	-975
▁એન	-976
▁ઘટ	-977
▁તેમને	-978
▁યુન	-979
▁ઉદ્	-980
ર્મ	-981
▁ધરા	-982
▁અલગ	-983
▁કરેલા	-984
દ્યોગ	-985
ાવી	-986
૨૦૧	-987
કાશ	-988
લની	-989
▁આકારણી	-990
▁ઉમે	-991
▁i	-992
▁થયા	-993
▁કરતી	-994
▁મંત	-995
▁તથ્યો	-996
▁હક	-997
▁કહ્યું	-998
▁આમ	-999
▁મિલ	-1000
▁લિ	-1001
▁નામ	-1002
▁તેમાં	-1003
▁એવી	-1004
▁અદાલતો	-1005
▁પ્રમાણ	-1006
ક્ટર	-1007
▁ઓળખ	-1008
ર્ચ	-1009
▁દોષ	-1010
▁કેમ	-1011
▁કહે	-1012
ભવ	-1013
કસ	-1014
▁કાન	-1015
▁ઝ	-1016
ચ્ચ	-1017
▁લીધ	-1018
ળા	-1019
▁સ્ટે	-1020
▁વળતર	-1021
▁બીજા	-1022
ળી	-1023
▁ઉત્તરદાતા	-1024
▁બહાર	-1025
▁અધિકારક્ષેત્ર	-1026
▁સ્વતંત્ર	-1027
▁ખૂ	-1028
ધિ	-1029
ચાણ	-1030
▁ખુ	-1031
▁નિર્ધાર	-1032
નામ	-1033
▁અંત	-1034
મતી	-1035
▁હશે	-1036
▁કરવો	-1037
▁સમયે	-1038
▁નાણા	-1039
▁આર	-1040
▁સૂચના	-1041
▁વખતે	-1042
▁ગો	-1043
▁એડ	-1044
▁t	-1045
▁આઇ	-1046
▁વ્યવસાય	-1047
પીસી	-1048
ટર	-1049
કર્ષ	-1050
▁કરેલી	-1051
▁વેચાણ	-1052
ષ્ટિ	-1053
▁ન્યાયિક	-1054
▁તેનો	-1055
▁જવાબદારી	-1056
▁એવું	-1057
ed	-1058
▁પહેલાં	-1059
▁દિવસ	-1060
▁ત્રણ	-1061
▁રિટ	-1062
▁ચુક	-1063
કૃતિ	-1064
▁એફ	-1065
▁કાનૂ	-1066
ડે	-1067
▁કારણો	-1068
િલ્હી	-1069
▁માનવામાં	-1070
▁વિવાદ	-1071
સુપ્રા	-1072
▁માત્ર	-1073
ત્મક	-1074
▁આવતી	-1075
ઇએ	-1076
જેક્ટ	-1077
▁બાબતો	-1078
વૃ	-1079
▁પડશે	-1080
ૂર	-1081
▁સુર	-1082
▁પ્રતિબંધ	-1083
▁સમયગાળા	-1084
▁હાથ	-1085
▁એવો	-1086
બિત	-1087
▁દિલ્હી	-1088
▁બાકી	-1089
▁શું	-1090
સ્તાવે	-1091
▁ખૂબ	-1092
▁માર્ગ	-1093
▁પ્રવેશ	-1094
▁દસ્તાવે	-1095
▁ગ્રા	-1096
લિ	-1097
▁ચૂ	-1098
રિષ્ઠ	-1099
મ્બર	-1100
નારા	-1101
્રેટ	-1102
▁..	-1103
▁વરિષ્ઠ	-1104
▁A	-1105
ંકા	-1106
▁નકારી	-1107
▁પ્રકાર	-1108
સો	-1109
▁())	-1110
al	-1111
પક	-1112
▁દી	-1113
▁આર્	-1114
▁પાડવામાં	-1115
▁કરવું	-1116
▁ક્ર	-1117
કાત	-1118
▁ચુકવણી	-1119
▁શામેલ	-1120
▁દુ	-1121
▁ધર	-1122
▁કરવાના	-1123
ાયક	-1124
ii	-1125
▁આંતર	-1126
દર	-1127
▁દંડ	-1128
▁પૂરી	-1129
▁સભ્યો	-1130
કારક	-1131
▁બાબત	-1132
▁વ્યવહાર	-1133
પ્લ	-1134
▁ખર્ચ	-1135
▁સમર્થ	-1136
▁વિન	-1137
▁અસ્	-1138
▁સાર	-1139
ણમાં	-1140
▁અનુસાર	-1141
▁જારી	-1142
▁સક્ષમ	-1143
ંતી	-1144
ટેડ	-1145
▁પૂર	-1146
▁બંધારણીય	-1147
િશન	-1148
▁વતી	-1149
ર્શ	-1150
▁of	-1151
▁કાનૂની	-1152
on	-1153
▁મહત્વ	-1154
િતા	-1155
▁પ્રય	-1156
▁લેવા	-1157
ભૂત	-1158
▁ફે	-1159
▁થવા	-1160
▁સંસ	-1161
▁નોટ	-1162
ઇટ	-1163
▁ઉચ્ચ	-1164
▁હોવાનું	-1165
▁ઠેર	-1166
ફર	-1167
▁પ્રશ્ન	-1168
બિટ	-1169
નામું	-1170
▁સર્	-1171
or	-1172
▁બાળ	-1173
તિક	-1174
▁સામગ્રી	-1175
▁નીતિ	-1176
▁જાળ	-1177
▁થયો	-1178
▁ફરિયાદ	-1179
શ્વ	-1180
▁રાષ્ટ્રીય	-1181
પત્ર	-1182
▁નિર્ધારિત	-1183
સંગત	-1184
▁ગણ	-1185
▁રહે	-1186
નગી	-1187
▁જૂ	-1188
વિલ	-1189
▁બેંક	-1190
વિઝ	-1191
▁માન્યતા	-1192
▁હાઇકોર્ટ	-1193
▁કાયદાના	-1194
ાયો	-1195
▁ફરીથી	-1196
િયાત	-1197
▁પાલન	-1198
ક્કસ	-1199
▁જીવન	-1200
▁સહિત	-1201
ુર	-1202
▁હું	-1203
▁રચના	-1204
િયન	-1205
▁હિત	-1206
ફો	-1207
ક્ષિત	-1208
▁જેની	-1209
ાન	-1210
▁વિનંતી	-1211
િકો	-1212
▁બોર્ડ	-1213
▁જાણ	-1214
▁વૈ	-1215
▁ચાલ	-1216
▁અસ	-1217
▁અહીં	-1218
▁ઘટના	-1219
▁હાજર	-1220
▁બના	-1221
▁ચલા	-1222
▁ચોક્કસ	-1223
▁સુપ	-1224
ંહ	-1225
લબ્	-1226
િષ્ટ	-1227
રૂપ	-1228
િટી	-1229
▁જગ	-1230
્રીમ	-1231
ાર્જ	-1232
▁જોઇએ	-1233
▁ઉપલબ્	-1234
▁દિ	-1235
▁આર્બિટ	-1236
▁સબ	-1237
▁પ્રકાશ	-1238
▁સંચા	-1239
▁મત	-1240
▁ઉપલબ્ધ	-1241
▁અભિપ્ર	-1242
▁રાખવામાં	-1243
▁અંદર	-1244
જબી	-1245
▁શોધ	-1246
▁નિષ્ફળ	-1247
▁ટ્રિબ્યુનલ	-1248
▁શબ્દો	-1249
ર્ષ	-1250
લય	-1251
▁સમજ	-1252
▁સૂચિ	-1253
▁જન	-1254
▁પત્ર	-1255
▁અભિપ્રાય	-1256
્ન	-1257
▁ભૂ	-1258
સભા	-1259
▁છૂ	-1260
▁ખરી	-1261
વૃત્તિ	-1262
િકલ	-1263
વાના	-1264
▁હાલના	-1265
▁ભર	-1266
્યે	-1267
ઓએ	-1268
ટન	-1269
▁આવતા	-1270
▁પડકાર	-1271
▁તેમજ	-1272
ટક	-1273
જ્	-1274
િત્વ	-1275
▁વિષ	-1276
▁કાયદાકીય	-1277
▁ચાર્જ	-1278
▁નિયંત્ર	-1279
ઓનો	-1280
ાયેલી	-1281
at	-1282
પૂર્વક	-1283
▁ફાળ	-1284
શ્ચિત	-1285
ગેરે	-1286
▁વગેરે	-1287
એફ	-1288
▁નિરીક્ષણ	-1289
▁આઈ	-1290
▁સુપ્રીમ	-1291
ાયલ	-1292
વર	-1293
▁ટ્રા	-1294
બે	-1295
▁છો	-1296
▁મૂળભૂત	-1297
▁સંજોગોમાં	-1298
▁શિક્ષણ	-1299
▁પૂર્ણ	-1300
▁સમાવેશ	-1301
તિમ	-1302
કરા	-1303
▁વિધાન	-1304
દનો	-1305
▁સાબિત	-1306
▁ઉલ્લંઘ	-1307
લામણ	-1308
▁જુદા	-1309
▁ભલામણ	-1310
▁સિવિલ	-1311
▁નાગર	-1312
▁ઈ	-1313
▁મળી	-1314
▁ખે	-1315
▁તબ	-1316
▁લઈ	-1317
ટો	-1318
▁બતા	-1319
▁અહેવાલ	-1320
▁પસંદગી	-1321
▁બધા	-1322
▁પગલા	-1323
▁ઓછા	-1324
▁વિસ્તાર	-1325
કામ	-1326
▁પ્રદાન	-1327
ર્ક	-1328
▁સ્ટ	-1329
▁અંતિમ	-1330
▁ચે	-1331
▁પડે	-1332
પ્તિ	-1333
▁મહિના	-1334
▁જગ્યા	-1335
▁ધ્યાન	-1336
▁મર્યાદા	-1337
▁માલિક	-1338
▁ફાઇ	-1339
િં	-1340
re	-1341
િશ	-1342
▁સ્થાપિત	-1343
▁વાદી	-1344
આઈઆર	-1345
▁અમને	-1346
▁તબક્	-1347
▁બીજી	-1348
જરી	-1349
▁નોટિસ	-1350
ૈય	-1351
ભાવના	-1352
▁મિલકત	-1353
ર્ચા	-1354
ખી	-1355
વિધા	-1356
).	-1357
▁ચર્ચા	-1358
▁હકદાર	-1359
ત્ત	-1360
▁કરાયેલ	-1361
▁પિટ	-1362
માર	-1363
પોર્ટ	-1364
સાન	-1365
દિત	-1366
▁બન	-1367
▁વિધાનસભા	-1368
▁વકી	-1369
▁ઇન્	-1370
▁આપણા	-1371
▁નિવેદન	-1372
▁મેળવવા	-1373
કર	-1374
▁ઉલ્લંઘન	-1375
▁બાજુ	-1376
એન	-1377
▁ટી	-1378
▁મૂકવામાં	-1379
▁પોસ્ટ	-1380
▁અધ્ય	-1381
ધ્ય	-1382
▁ડે	-1383
........	-1384
▁હાઇકોર્ટે	-1385
▁કરાયેલા	-1386
ત્રી	-1387
ગીરી	-1388
▁ગા	-1389
રલ	-1390
સિટી	-1391
ct	-1392
▁સ્થળ	-1393
▁બિન	-1394
▁ચૂંટ	-1395
▁અસ્પષ્ટ	-1396
▁પાછ	-1397
▁તેવું	-1398
▁શંકા	-1399
▁કહી	-1400
યુક્ત	-1401
▁એવોર્ડ	-1402
હત	-1403
રાંત	-1404
▁રાજ્યના	-1405
દર્શ	-1406
▁વાત	-1407
▁નિષ્કર્ષ	-1408
▁તૈય	-1409
▁અવલો	-1410
▁વિષય	-1411
▁ખાતરી	-1412
▁વેપ	-1413
▁પ્રોજેક્ટ	-1414
▁ગુનો	-1415
▁ઉદ્દેશ	-1416
▁તકની	-1417
ાવવા	-1418
▁તરફે	-1419
▁રૂપે	-1420
▁બનાવવામાં	-1421
▁બાદ	-1422
▁સમર્થન	-1423
▁સુવિધા	-1424
▁લાઇ	-1425
▁હવે	-1426
▁ઉમેદ	-1427
▁ટ્રાયલ	-1428
▁ફેર	-1429
▁સંસદ	-1430
ાં	-1431
▁વસ	-1432
ic	-1433
▁વર્ગ	-1434
▁દૂર	-1435
્લે	-1436
▁અમારા	-1437
ન્સી	-1438
▁કાઉ	-1439
ણો	-1440
▁કેસની	-1441
▁કુલ	-1442
▁પરિણામ	-1443
વિષ્ટ	-1444
િવર્	-1445
્વાસ	-1446
▁c	-1447
▁મોટા	-1448
વતા	-1449
સ્પ	-1450
્યાંકન	-1451
▁એજ	-1452
▁સમાવિષ્ટ	-1453
▁પહ	-1454
▁મામ	-1455
▁ધો	-1456
દારો	-1457
▁સ્થાપના	-1458
હીવ	-1459
▁ચાલુ	-1460
▁દ્ર	-1461
▁વ્યક્તિગત	-1462
કૃત	-1463
રની	-1464
▁હેઠળની	-1465
િવર્સિટી	-1466
્લો	-1467
▁છું	-1468
▁કામગીરી	-1469
▁ઉલ્લેખિત	-1470
▁નાગરિક	-1471
▁મૂલ્ય	-1472
▁સેવાઓ	-1473
ગાર	-1474
▁સુધારણા	-1475
▁જોડ	-1476
લ્યુ	-1477
▁વ્યક્તિઓ	-1478
▁મૃતક	-1479
▁પ્રકૃતિ	-1480
▁સોંપ	-1481
▁રહી	-1482
▁ઉત્પાદન	-1483
▁નાણાકીય	-1484
વિઝન	-1485
કુ	-1486
▁યુનિવર્સિટી	-1487
▁પ્રદેશ	-1488
▁સહાય	-1489
▁કાયદામાં	-1490
▁નુક	-1491
▁વહીવ	-1492
▁મૂલ્યાંકન	-1493
▁પંચ	-1494
▁નુકસાન	-1495
▁સુધારો	-1496
▁એક્	-1497
ન્ડિયા	-1498
▁ભાવ	-1499
▁જાય	-1500
ion	-1501
▁કૃ	-1502
▁અધિકારીઓ	-1503
રાષ્ટ	-1504
▁રાજ્યો	-1505
▁સ્થાના	-1506
▁ગુનાહિત	-1507
▁નોંધણી	-1508
િર	-1509
ંમ	-1510
ાના	-1511
▁ફકરા	-1512
ધિક	-1513
▁કં	-1514
▁ગયો	-1515
ડુ	-1516
▁જેથી	-1517
▁કોર્	-1518
્યક્તિ	-1519
િલ્લા	-1520
્થ	-1521
▁નહો	-1522
ડો	-1523
▁મેજિસ્ટ	-1524
▁કાયદેસર	-1525
સ્ટમ	-1526
▁સભ્ય	-1527
▁ચૂકવવા	-1528
▁હોવી	-1529
▁હાઈકોર્ટે	-1530
▁જોડા	-1531
ષણ	-1532
▁દર્શ	-1533
▁પાસેથી	-1534
ંબ	-1535
▁આપવાની	-1536
▁તેણી	-1537
▁ઉદ્યોગ	-1538
▁અર્થઘ	-1539
▁જજ	-1540
▁જેનો	-1541
▁આધ	-1542
▁લાગે	-1543
▁સૌ	-1544
▁વિલ	-1545
ણવ	-1546
▁જિલ્લા	-1547
▁હેઠળના	-1548
▁વિરો	-1549
ુઆ	-1550
he	-1551
▁મકા	-1552
ર્થિક	-1553
▁કબજો	-1554
એક્સએક્સ	-1555
▁નિકા	-1556
તાનો	-1557
▁સરકારી	-1558
ીર	-1559
ust	-1560
▁ઇન	-1561
▁ઘણા	-1562
▁ખાતે	-1563
▁થશે	-1564
▁આપનાર	-1565
▁અર્થઘટન	-1566
બીબી	-1567
સ્થિતિ	-1568
ગમ	-1569
▁સવા	-1570
▁તરફેણમાં	-1571
▁લીઝ	-1572
▁એક્ટની	-1573
▁અભિવ	-1574
▁મદ	-1575
રેખ	-1576
▁અમલમાં	-1577
ક્ષે	-1578
▁કોર્ટમાં	-1579
જાર	-1580
દની	-1581
▁સત	-1582
▁ઘોષ	-1583
ચી	-1584
▁નોંધપાત્ર	-1585
▁સંભ	-1586
ચ્છ	-1587
ચ્છા	-1588
▁મેળવ	-1589
▁ઉપરાંત	-1590
▁પરિસ્થિતિ	-1591
▁ખાનગી	-1592
en	-1593
▁આરોપ	-1594
ુઆરી	-1595
▁ટકા	-1596
▁સંર	-1597
▁પરિણામે	-1598
▁જેવા	-1599
રાષ્ટ્રીય	-1600
▁તેવા	-1601
ભર	-1602
▁બાંધ	-1603
▁સંખ્યા	-1604
▁બંધારણની	-1605
ન્ટર	-1606
▁આર્બિટ્ર	-1607
ri	-1608
--	-1609
▁ધોરણ	-1610
સ્તુ	-1611
ક્રમ	-1612
▁અભિવ્યક્તિ	-1613
ોરિટી	-1614
તોષ	-1615
▁અંતર્	-1616
▁ઘટા	-1617
▁કહેવા	-1618
▁વિશિષ્ટ	-1619
સ્તિત્વ	-1620
વાનું	-1621
▁પાત્ર	-1622
ુક્ત	-1623
▁શકાતી	-1624
▁પ્રવૃત્તિ	-1625
લાત	-1626
▁વ્યક્તિને	-1627
▁અંતર્ગત	-1628
▁પાર	-1629
▁વિશ્વ	-1630
▁સમાજ	-1631
મિક	-1632
▁વ્યાજ	-1633
રીક્ષા	-1634
ગ્રહ	-1635
▁ચૂંટણી	-1636
▁હોવાથી	-1637
▁ઘડ	-1638
▁d	-1639
જિક	-1640
▁સંતોષ	-1641
રાત	-1642
▁થયેલ	-1643
▁હાઈકોર્ટના	-1644
▁દાવા	-1645
▁સમાધાન	-1646
▁પ્રમા	-1647
આઇ	-1648
▁કાઉન્સ	-1649
▁આર્થિક	-1650
▁કારણોસર	-1651
▁સ્વા	-1652
▁કહેવામાં	-1653
ત્સા	-1654
▁જેને	-1655
્લા	-1656
▁દસ્તાવેજો	-1657
કેટ	-1658
▁આવશ્યકતા	-1659
▁તૈયાર	-1660
થોરિટી	-1661
▁તેઓએ	-1662
વિક	-1663
▁દિશા	-1664
દ્ધિ	-1665
▁ગૌ	-1666
▁અમલ	-1667
▁લીધા	-1668
▁બિ	-1669
▁પ્રયાસ	-1670
નની	-1671
▁લગ્ન	-1672
▁પ્રોત્સા	-1673
પના	-1674
કાયદેસર	-1675
ૂલાત	-1676
▁પિટિશન	-1677
▁રહ્યા	-1678
▁તકનીકી	-1679
લિક	-1680
સાદ	-1681
▁બનાવે	-1682
મતિ	-1683
▁અસ્તિત્વ	-1684
00	-1685
▁દોષિત	-1686
▁મેજિસ્ટ્રેટ	-1687
▁ફાઇલ	-1688
વ્ય	-1689
▁શો	-1690
ક્ષણિક	-1691
▁વિદેશ	-1692
િમ	-1693
લ્પ	-1694
▁સંરક્ષણ	-1695
▁લાદ	-1696
▁સમી	-1697
ંભીર	-1698
▁નિકાલ	-1699
▁મર્યાદિત	-1700
▁રાજ્યની	-1701
▁પ્રમાણે	-1702
▁વાજબી	-1703
▁પહેલ	-1704
▁ઘોષણા	-1705
▁જણાવેલ	-1706
▁આંતરરાષ્ટ્રીય	-1707
▁લિમિ	-1708
તામાં	-1709
▁મુક	-1710
▁પૂરા	-1711
▁તબીબી	-1712
િયર	-1713
▁સામાજિક	-1714
▁લેખિત	-1715
▁બને	-1716
ોળ	-1717
▁સમીક્ષા	-1718
▁p	-1719
્ટી	-1720
▁દો	-1721
▁ગંભીર	-1722
▁તબક્કે	-1723
▁બદલ	-1724
▁તાર	-1725
▁ગેરકાયદેસર	-1726
▁રોકા	-1727
▁સંયુક્ત	-1728
▁પૃ	-1729
ાવવામાં	-1730
પાલ	-1731
▁અસરકારક	-1732
▁અગાઉના	-1733
▁લિમિટેડ	-1734
▁સ્પષ્ટપણે	-1735
▁મોકલ	-1736
▁ભારતમાં	-1737
કનો	-1738
▁૨૦૧	-1739
▁હોત	-1740
▁એલ	-1741
▁C	-1742
ોએ	-1743
▁બેઠ	-1744
ન્શન	-1745
▁નિર્ણયો	-1746
વર્તન	-1747
ડિંગ	-1748
▁અવલોકન	-1749
▁કરવાનું	-1750
▁ડો	-1751
▁શેર	-1752
▁કેસોમાં	-1753
▁જોકે	-1754
▁ટ્રાન્સ	-1755
▁ચાર	-1756
▁ગયા	-1757
▁દખલ	-1758
▁દેખ	-1759
▁વ્યક્ત	-1760
જદારી	-1761
▁અધ્યક્ષ	-1762
in	-1763
▁શરૂઆત	-1764
▁સંદર્ભે	-1765
ંમત	-1766
લિત	-1767
▁ગણતરી	-1768
▁ભાષ	-1769
▁નિયમન	-1770
▁પરીક્ષા	-1771
▁વિશ્વાસ	-1772
▁અપીલકર્તા	-1773
▁બનાવવા	-1774
▁જેણે	-1775
▁ક્ષેત્રમાં	-1776
ar	-1777
▁પ્રમાણપત્ર	-1778
▁કરનારને	-1779
ંધા	-1780
▁રાહત	-1781
વેરા	-1782
▁ચુકાદો	-1783
રાજ	-1784
▁સારી	-1785
▁પ્રતિનિ	-1786
▁દૃ	-1787
▁રાખવા	-1788
▁થયું	-1789
▁સૂચિત	-1790
▁ઓફ	-1791
ચર	-1792
▁આશ	-1793
્યાસ	-1794
ટું	-1795
▁ફોજદારી	-1796
▁અધિનિયમની	-1797
▁કેટલી	-1798
▁તારીખથી	-1799
▁સૂચવે	-1800
▁બચ	-1801
▁સંમતિ	-1802
ફાર	-1803
▁મહત્વપૂર્ણ	-1804
▁ભૂલ	-1805
▁સંભાવના	-1806
સિક	-1807
▁નોંધ્યું	-1808
▁હોવાને	-1809
▁દોર	-1810
ક્શન	-1811
▁સુસંગત	-1812
▁લેવાની	-1813
▁પરના	-1814
ોગ	-1815
▁કૃત	-1816
ેસ	-1817
▁મંત્રા	-1818
સિંહ	-1819
▁ફેરફાર	-1820
▁II	-1821
▁ડિવિઝન	-1822
▁દ્રષ્ટિ	-1823
▁નીચેના	-1824
▁પેરા	-1825
▁અભ્યાસ	-1826
શ્ક	-1827
▁નીચેની	-1828
પુર	-1829
▁આધારિત	-1830
કના	-1831
▁આપ્યું	-1832
▁શાસ	-1833
▁કાઉન્સિલ	-1834
▁O	-1835
▁શ્રે	-1836
▁અમારી	-1837
▁પીડ	-1838
▁મેને	-1839
▁સૌથી	-1840
▁ટા	-1841
▁સરકારના	-1842
ંસ	-1843
▁કમિશનર	-1844
બળ	-1845
▁રાખે	-1846
▁ખાલી	-1847
રેટ	-1848
ાવત	-1849
▁તેનું	-1850
ાવે	-1851
▁શૈ	-1852
▁વાર	-1853
▁વેપાર	-1854
▁વીમા	-1855
▁કંઈ	-1856
નના	-1857
▁f	-1858
▁પર્યા	-1859
▁નિયંત્રણ	-1860
▁ફી	-1861
▁રોક	-1862
▁ઓથોરિટી	-1863
▁ખરીદ	-1864
દ્યોગિક	-1865
ંસા	-1866
▁સચ	-1867
▁પૃષ્ઠ	-1868
▁ચી	-1869
▁પાસા	-1870
▁એન્ટ	-1871
▁ક્ષમ	-1872
es	-1873
▁સ્વતંત્રતા	-1874
▁ન્યાયી	-1875
િયલ	-1876
પાદન	-1877
▁ધરાવતા	-1878
ાઈ	-1879
મ્પ	-1880
ાયી	-1881
ેડ	-1882
▁જ્	-1883
▁યા	-1884
▁વધુમાં	-1885
▁ખોટી	-1886
▁પાંચ	-1887
▁રજિસ્ટ	-1888
▁અપીલની	-1889
▁રોકાણ	-1890
સ્તવિક	-1891
▁મુક્ત	-1892
▁Ind	-1893
દોષ	-1894
મૂ	-1895
▁૨	-1896
ન્ન	-1897
▁કેટલીક	-1898
હુ	-1899
્યુટ	-1900
▁શક્ય	-1901
▁કરોડ	-1902
▁અના	-1903
ઓનું	-1904
ંગલ	-1905
્યુલ	-1906
▁કાર્યવાહીમાં	-1907
▁દરખા	-1908
▁પૂછ	-1909
▁પગાર	-1910
ગ્રા	-1911
ભગ	-1912
▁રૂપ	-1913
▁સુરક્ષા	-1914
▁વિલંબ	-1915
▁નિયુક્ત	-1916
એચ	-1917
▁ગઈ	-1918
an	-1919
રના	-1920
▁ટેક્સ	-1921
▁ઓછી	-1922
.,	-1923
▁s	-1924
દ્ધતિ	-1925
ધ્	-1926
▁નિર્દોષ	-1927
▁મને	-1928
▁શકશે	-1929
ંબા	-1930
▁હોવું	-1931
▁re	-1932
રવ	-1933
▁આપેલા	-1934
▁વાસ્તવિક	-1935
▁અયોગ્ય	-1936
▁કાર્યો	-1937
▁લગભગ	-1938
▁પદ્ધતિ	-1939
▁અવધિ	-1940
▁રહ્યો	-1941
▁પક્ષકારો	-1942
સન્સ	-1943
▁જૂથ	-1944
▁શૈક્ષણિક	-1945
ાની	-1946
ાર્થ	-1947
▁પહોંચા	-1948
▁આર્બિટ્રેશન	-1949
▁પાણી	-1950
▁મંત્રાલય	-1951
ોનો	-1952
▁રજા	-1953
▁સંભવ	-1954
▁મહે	-1955
▁આધિન	-1956
▁પુષ્ટિ	-1957
▁વ્યાખ્યા	-1958
▁વર્ષની	-1959
▁કલ્	-1960
▁બિલ	-1961
▁ભાગી	-1962
▁સંઘ	-1963
▁બંધારણના	-1964
▁આક્ષે	-1965
ડિટ	-1966
▁કાર્યવાહીની	-1967
▁વિદેશી	-1968
▁the	-1969
▁ધરાવે	-1970
▁જનરલ	-1971
ગતો	-1972
▁સ્થાનિક	-1973
▁સમાપ્ત	-1974
▁ત્રી	-1975
▁સુરક્ષિત	-1976
પોર	-1977
▁પ્રશ	-1978
▁કેસના	-1979
▁કરનારા	-1980
▁ધારાસ	-1981
▁ગૃ	-1982
ફ્ટ	-1983
▁સંસ્થાઓ	-1984
બલ	-1985
સ્ત્ર	-1986
▁વિગતો	-1987
▁તક	-1988
▁વસૂલ	-1989
▁સુનિ	-1990
ઇલ	-1991
▁કોડ	-1992
▁સિસ્ટમ	-1993
▁શીખી	-1994
▁નિયમિત	-1995
પકડ	-1996
▁લેતા	-1997
▁ભવન	-1998
▁બોમ્	-1999
દર્શન	-2000
▁લોક	-2001
લું	-2002
▁બની	-2003
▁મુશ્ક	-2004
▁આપતા	-2005
▁ગેરહા	-2006
મમાં	-2007
▁નોંધાયેલા	-2008
ષ્ટિકો	-2009
▁કિંમત	-2010
▁કલ્પના	-2011
▁ચૂકવણી	-2012
ાવર	-2013
▁ફરજિયાત	-2014
્યાર્	-2015
▁મહિલા	-2016
ોધન	-2017
▁એવા	-2018
▁ધરપકડ	-2019
▁સુનિશ્ચિત	-2020
▁ઉમેદવા	-2021
▁સરકારની	-2022
કસ્	-2023
ેશન્સ	-2024
▁લગતા	-2025
▁આન	-2026
રાશ	-2027
▁લાખ	-2028
▁બેંચે	-2029
▁ભાષા	-2030
▁ખેંચ	-2031
▁સંબંધમાં	-2032
પીડબ્લ્યુ	-2033
વ્યા	-2034
▁ગ્રાહ	-2035
▁સંચાલન	-2036
▁પ્રત	-2037
ેદ	-2038
▁વ્યાપક	-2039
રામ	-2040
ન્ડર	-2041
▁મધ્ય	-2042
▁ડિરે	-2043
▁સરકારે	-2044
▁રાષ્ટ્રપતિએ	-2045
▁રાજ્યમાં	-2046
▁સંક	-2047
દાય	-2048
▁હુકમનામું	-2049
om	-2050
▁સવાલ	-2051
▁ચકા	-2052
ગરી	-2053
▁in	-2054
▁એચ	-2055
▁આરોપીને	-2056
▁દ્રષ્ટિએ	-2057
ણના	-2058
▁પોતાના	-2059
▁ટ્રસ્ટ	-2060
▁નજી	-2061
▁મંડ	-2062
કોને	-2063
ધન	-2064
▁લાઇસન્સ	-2065
▁કરતાં	-2066
▁સલામતી	-2067
▁પદ	-2068
▁જામીન	-2069
સાર	-2070
▁વાહન	-2071
ષિ	-2072
વેલ	-2073
ઇઝ	-2074
▁જાતિ	-2075
રેખર	-2076
▁નવા	-2077
હ્ય	-2078
▁ભંડ	-2079
▁જરૂરિયાત	-2080
શીલ	-2081
▁યોગ્યતા	-2082
▁રિપોર્ટ	-2083
▁અંગેના	-2084
ભો	-2085
▁S	-2086
લીમ	-2087
▁ખરેખર	-2088
▁સેન્ટ	-2089
▁મન	-2090
▁શુ	-2091
▁પ્રભાવ	-2092
ંતરિત	-2093
▁એન્ડ	-2094
▁મજબ	-2095
▁હકીકતમાં	-2096
લ્લા	-2097
▁સતત	-2098
▁જોવા	-2099
▁વિસ્તૃત	-2100
▁ઉપયોગમાં	-2101
સ્પિટ	-2102
▁અદાલતમાં	-2103
▁એપ્ર	-2104
▁જમા	-2105
▁કેટે	-2106
▁ઇન્ડિયા	-2107
▁સંપાદન	-2108
મુ	-2109
૦૦	-2110
▁કોલ	-2111
▁ચૂકવવામાં	-2112
▁નિવા	-2113
▁તેવી	-2114
▁સંદેશ	-2115
▁એજન્સી	-2116
ia	-2117
ઇન	-2118
નામા	-2119
▁અનુક	-2120
્યાર્થી	-2121
▁અમલી	-2122
▁એક્સ	-2123
▁લીધી	-2124
▁હોવાના	-2125
ારા	-2126
▁પ્લા	-2127
▁થો	-2128
▁ફાય	-2129
▁વિદ્યાર્થી	-2130
ર્જી	-2131
▁કબૂલાત	-2132
▁બાકાત	-2133
▁પક્ષો	-2134
▁શકી	-2135
▁ભૂત	-2136
▁વર્ણ	-2137
▁મકાન	-2138
વિભાગ	-2139
▁દોષી	-2140
▁અન્યથા	-2141
▁વચ્ચેના	-2142
ભી	-2143
▁સંશ	-2144
▁જોડાણ	-2145
▁આવરી	-2146
નાં	-2147
▁હોસ્પિટ	-2148
▁ઇજા	-2149
૨૦૦	-2150
ધરી	-2151
▁માટેનો	-2152
▁પેન્શન	-2153
ov	-2154
ધિકાર	-2155
▁આપેલ	-2156
▁પ્રધાન	-2157
ષ્ટિકોણ	-2158
▁ભૂમ	-2159
▁પેટ	-2160
▁ચકાસ	-2161
▁વચ	-2162
▁પોતાને	-2163
▁ઠરા	-2164
▁ધારાસભ	-2165
▁બાંધકામ	-2166
▁અપીલકારો	-2167
▁સંભાળ	-2168
▁શબ્દ	-2169
ાર્થના	-2170
१०	-2171
▁જેમણે	-2172
▁ભૂમિકા	-2173
▁વય	-2174
▁નિવેદનો	-2175
▁ફોર્મ	-2176
▁આયોજ	-2177
▁ગેરહાજરી	-2178
▁ટૂ	-2179
લણ	-2180
▁અપીલને	-2181
▁પ્રોત્સાહન	-2182
▁પરીક્ષણ	-2183
▁અવગ	-2184
ફી	-2185
આઈએ	-2186
▁વકીલ	-2187
▁પ્રાર્થના	-2188
ાયા	-2189
▁અરજીને	-2190
▁એપ્રિલ	-2191
▁અમલીકરણ	-2192
▁અનિ	-2193
▁ગૃહ	-2194
▁મેનેજ	-2195
▁વ્યક્તિની	-2196
]]	-2197
ારંભ	-2198
▁સંહ	-2199
▁પ્રકાશિત	-2200
ત્ની	-2201
▁એફઆઈઆર	-2202
▁રાખ્યો	-2203
લ્ડ	-2204
▁પ્રતિસાદ	-2205
▁વેબ	-2206
▁માર્ચ	-2207
▁સમુ	-2208
્રિ	-2209
▁સુધારા	-2210
ર્ષિક	-2211
વ્યો	-2212
▁મુદ્દો	-2213
▁વિકસ	-2214
▁પ્રશ્નો	-2215
▁લીધો	-2216
▁કેટેગરી	-2217
▁સિંગલ	-2218
▁સફળ	-2219
રત	-2220
▁મુદ્દાઓ	-2221
વાદો	-2222
▁દરખાસ્ત	-2223
▁ભંડોળ	-2224
▁કૃષિ	-2225
▁ચુકાદામાં	-2226
ge	-2227
ર્ન	-2228
યું	-2229
▁કરીએ	-2230
▁આપવી	-2231
કને	-2232
▁સખ	-2233
▁બજાર	-2234
▁મેડ	-2235
કાળ	-2236
▁સ્થિતિમાં	-2237
▁છૂટ	-2238
▁આપણી	-2239
પુ	-2240
▁અનુસૂચ	-2241
▁સ્ટેટ	-2242
▁હાલની	-2243
▁નાણાં	-2244
▁પ્રારંભ	-2245
▁આર્ટ	-2246
▁બાર	-2247
▁અપનાવ	-2248
▁વેચ	-2249
▁પ્રસંગ	-2250
રિક	-2251
▁સરળ	-2252
▁કરારની	-2253
▁અમુક	-2254
▁ઇચ્છા	-2255
iii	-2256
▁મદદ	-2257
▁ઇરા	-2258
▁જાણી	-2259
લેજ	-2260
સાઇટ	-2261
▁સારવાર	-2262
▁મુક્તિ	-2263
▁ડ્રા	-2264
▁કોર્ટની	-2265
▁તાલીમ	-2266
▁દીધી	-2267
▁શોધી	-2268
▁D	-2269
▁ટ્રાન્સફર	-2270
▁આખ	-2271
▁બહુ	-2272
ગઠ	-2273
ઘા	-2274
▁નિર્માણ	-2275
▁માનવ	-2276
▁અદાલતના	-2277
▁ઝડ	-2278
▁હસ્ત	-2279
▁સિદ્ધાંતો	-2280
▁પ્રતિબ	-2281
▁ડેટા	-2282
▁અટક	-2283
▁નાખ	-2284
જૂતી	-2285
ડિયા	-2286
▁રામ	-2287
ાયું	-2288
ૂળ	-2289
▁પગલાં	-2290
તની	-2291
▁તફ	-2292
▁પ્રકારની	-2293
▁અનામત	-2294
▁u	-2295
▁થયેલા	-2296
કોની	-2297
▁ઉમેદવારો	-2298
વાળા	-2299
▁મળ્યું	-2300
▁b	-2301
બ્ર	-2302
rial	-2303
▁વાર્ષિક	-2304
▁બોમ્બે	-2305
▁આઈપીસી	-2306
▁વહે	-2307
▁ફાળવણી	-2308
▁વૃ	-2309
▁આપવાનો	-2310
▁કોર્પોર	-2311
ustrial	-2312
રિયા	-2313
▁સ્પ	-2314
લ્ટ	-2315
▁જોખ	-2316
▁પ્રયત્	-2317
િકેશન	-2318
▁વધારે	-2319
▁સંમત	-2320
▁ઓછામાં	-2321
દાર્થ	-2322
્સના	-2323
▁અટ	-2324
ચેરી	-2325
▁મોટી	-2326
▁પ્રતિબંધિત	-2327
▁સમજૂતી	-2328
▁પ્રશંસા	-2329
▁જોગવાઈઓને	-2330
▁ભાડ	-2331
▁વર્ષના	-2332
ણવત્તા	-2333
▁બીજ	-2334
▁માર્ગદર્શ	-2335
ુપ	-2336
▁સંજોગો	-2337
ેથી	-2338
▁જમીનના	-2339
▁સરકારને	-2340
▁પ્રતિનિધિ	-2341
પરછ	-2342
▁હુ	-2343
fic	-2344
▁સંસ્	-2345
▁હત્યા	-2346
્રલ	-2347
મિટ	-2348
▁ગુણવત્તા	-2349
▁જીવ	-2350
▁છૂટા	-2351
▁હોવાનો	-2352
▁થવાની	-2353
le	-2354
▁મારા	-2355
▁વિગત	-2356
it	-2357
▁ઇનકાર	-2358
રોધ	-2359
▁પદાર્થ	-2360
▁દોરી	-2361
▁જણાવ્યા	-2362
▁ભારતની	-2363
▁ક્લ	-2364
▁આનંદ	-2365
▁લેવી	-2366
▁તફાવત	-2367
▁w	-2368
▁આવકવેરા	-2369
યાત	-2370
▁પરિબળ	-2371
▁સંશોધન	-2372
ગતિ	-2373
મના	-2374
▁પ્રત્યે	-2375
▁ગુનાઓ	-2376
▁એક્ઝ	-2377
▁રોજગાર	-2378
ગ્ય	-2379
▁વાંચે	-2380
▁વ્યવસ્થા	-2381
▁સહી	-2382
▁પાડે	-2383
શું	-2384
▁ચકાસણી	-2385
તાઓ	-2386
▁જેટ	-2387
▁વસ્તુ	-2388
▁સ્વરૂપ	-2389
▁શ્રેષ્ઠ	-2390
▁ઉઠ	-2391
તાવ	-2392
દનમાં	-2393
▁કરેલ	-2394
લામાં	-2395
▁પત્ની	-2396
▁વાગ	-2397
▁ગે	-2398
▁વહીવટી	-2399
ભૂ	-2400
▁એન્	-2401
▁વધારો	-2402
▁સૂચવવામાં	-2403
▁અહેવાલમાં	-2404
▁વેબસાઇટ	-2405
▁સ્ક	-2406
▁સંતુ	-2407
કાઉ	-2408
▁ચુકાદાને	-2409
▁શબ્દોમાં	-2410
મને	-2411
▁સંભવિત	-2412
▁જાહેરાત	-2413
▁આરોગ્ય	-2414
▁હાજરી	-2415
▁જણા	-2416
ફે	-2417
▁ઠેરવવામાં	-2418
▁ઉત્તરદાતાઓ	-2419
▁છોડી	-2420
▁પતિ	-2421
▁આપ્યા	-2422
માત્ર	-2423
▁નહોતી	-2424
▁ડિસે	-2425
ગો	-2426
▁આક્ષેપ	-2427
▁લગતી	-2428
▁રહેવા	-2429
ત્તમ	-2430
▁મુલા	-2431
▁પ્રતિક	-2432
▁નાના	-2433
▁લક્ષ	-2434
ળખા	-2435
▁વલણ	-2436
ન્યુઆરી	-2437
ળના	-2438
▁અરજીઓ	-2439
મદ	-2440
▁કેવી	-2441
ંતરણ	-2442
્ડ	-2443
્રાસ	-2444
▁વિવે	-2445
્યવ	-2446
▁India	-2447
સ્તી	-2448
આતો	-2449
ત્કા	-2450
▁સીઆર	-2451
▁સંચાલિત	-2452
▁વર્ત	-2453
▁સેન્ટ્રલ	-2454
▁સંપર્ક	-2455
▁મતે	-2456
ફિસ	-2457
▁મળે	-2458
▁ડિરેક્ટર	-2459
▁વધારાના	-2460
▁પૈ	-2461
બીઆઈ	-2462
▁વહીવટ	-2463
▁જાન્યુઆરી	-2464
▁સ્થાનાંતરિત	-2465
▁નું	-2466
▁કેદની	-2467
જ્ય	-2468
▁આજે	-2469
▁દિવસની	-2470
▁પૂછપરછ	-2471
▁મૂક્યો	-2472
▁ફટ	-2473
▁સામેલ	-2474
▁રજૂઆતો	-2475
ંમેશ	-2476
દરતી	-2477
▁હદ	-2478
▁and	-2479
▁યુનિયન	-2480
▁ચિ	-2481
▁વિશ્લે	-2482
સ્ટે	-2483
▁હુકમની	-2484
▁નિક	-2485
▁ઉદ્દેશ્ય	-2486
▁એકમાત્ર	-2487
▁લોકોને	-2488
ક્ટો	-2489
▁હંમેશ	-2490
▁જુદી	-2491
ણિ	-2492
વોકેટ	-2493
▁સપ્	-2494
▁ઘણી	-2495
▁ભંગ	-2496
▁ઉમેર	-2497
▁દસ્તાવેજ	-2498
▁E	-2499
▁દિવસે	-2500
▁કાર્યરત	-2501
▁P	-2502
▁કવાય	-2503
▁શકીએ	-2504
▁સંગઠ	-2505
ગસ્ટ	-2506
▁અંગેની	-2507
▁વર્ષથી	-2508
▁આદેશને	-2509
▁માર્ગદર્શિકા	-2510
ધનો	-2511
▁માતા	-2512
ધો	-2513
વવાની	-2514
▁તથ્ય	-2515
▁તેઓને	-2516
▁લીધે	-2517
તમ	-2518
▁તુ	-2519
,,	-2520
▁કૃત્ય	-2521
▁પહોંચાડ	-2522
▁કોર્પોરેશન	-2523
▁વિવાદો	-2524
▁અવરોધ	-2525
▁ભરતી	-2526
▁અસ્તિત્વમાં	-2527
મન	-2528
▁પ્રે	-2529
▁પુત્ર	-2530
▁કાયદાને	-2531
▁તેનાથી	-2532
▁દૃષ્ટિકોણ	-2533
▁અપીલમાં	-2534
▁ડિસેમ્બર	-2535
▁શાળા	-2536
ol	-2537
▁સાંભ	-2538
સીઆઈ	-2539
▁ભેદ	-2540
▁આપશે	-2541
▁એન્ટ્રી	-2542
▁પહેલેથી	-2543
શો	-2544
સાયટી	-2545
▁પ્રારંભિક	-2546
▁પછીના	-2547
▁આયોગ	-2548
▁પોતાની	-2549
▁મજબૂત	-2550
▁રાજકીય	-2551
બાની	-2552
▁અરજદારો	-2553
▁આપીને	-2554
▁અટકાય	-2555
▁સર્વિ	-2556
▁ઉભા	-2557
▁વીજ	-2558
▁મનો	-2559
▁નાં	-2560
▁તમારા	-2561
▁શિક્ષ	-2562
પાત	-2563
▁વિત	-2564
મની	-2565
▁સહિતના	-2566
▁જેઓ	-2567
▁એકવાર	-2568
પ્રાપ્તિ	-2569
▁લોકોની	-2570
એક્સએક્સએક્સએક્સ	-2571
ડબલ્યુ	-2572
▁લખ	-2573
ing	-2574
▁ખરીદી	-2575
▁સમુદાય	-2576
ટેમ્બર	-2577
▁આચાર	-2578
▁વાગ્યે	-2579
લાઈ	-2580
▁ઉપાય	-2581
▁ડબ	-2582
નને	-2583
ંતિ	-2584
▁પરત	-2585
ow	-2586
ર્તિ	-2587
▁સ્થાનાંતરણ	-2588
▁વપ	-2589
▁થવું	-2590
▁બાબતે	-2591
▁ઘર	-2592
કોના	-2593
▁કવાયત	-2594
▁ચૂકવવાપાત્ર	-2595
▁ધર્મ	-2596
▁સાત	-2597
જનક	-2598
▁સંસા	-2599
▁એપ્લ	-2600
▁મહારા	-2601
ડર	-2602
લ્લી	-2603
११	-2604
લોજી	-2605
▁નકલ	-2606
▁પીસી	-2607
▁આપવું	-2608
▁કચેરી	-2609
▁શીખ્યા	-2610
િત્ર	-2611
▁ચિં	-2612
કાઉન્ટ	-2613
▁સપ્ટેમ્બર	-2614
▁હેતુઓ	-2615
▁મુદ	-2616
▁આરોપીઓ	-2617
▁આજી	-2618
▁જાળવણી	-2619
▁ખાણ	-2620
▁એડવોકેટ	-2621
▁તમે	-2622
શીટ	-2623
બ્જેક્ટ	-2624
▁વિગતવાર	-2625
▁ગ્રે	-2626
▁માનનીય	-2627
હરણ	-2628
▁બાં	-2629
▁બધી	-2630
યર	-2631
▁ડા	-2632
▁હોવો	-2633
▁સાથેના	-2634
▁ધરવામાં	-2635
▁એઆઈઆર	-2636
▁વાંધા	-2637
▁સામનો	-2638
દંડ	-2639
▁કર્ણા	-2640
................	-2641
રૂપે	-2642
▁આયાત	-2643
▁સોસાયટી	-2644
▁બીજો	-2645
લ્સ	-2646
▁કંપનીઓ	-2647
▁જુબાની	-2648
▁નવે	-2649
▁માલિકી	-2650
▁હજી	-2651
ડિ	-2652
▁પૈસા	-2653
▁લોકોના	-2654
▁ન્યાયતંત્ર	-2655
વાહ	-2656
વલ	-2657
▁કાયમી	-2658
શાહી	-2659
▁વેતન	-2660
▁સ્વીકાર્યું	-2661
▁અપે	-2662
▁રસ	-2663
વાયું	-2664
▁રહેલા	-2665
▁અપીલકર્તાએ	-2666
▁અરજદારે	-2667
પ્રદેશ	-2668
▁આકર્ષ	-2669
▁વિંડ	-2670
▁બીજું	-2671
▁મેડિકલ	-2672
▁આયોજન	-2673
▁બાબતમાં	-2674
▁de	-2675
ખંડ	-2676
▁બદલે	-2677
▁T	-2678
▁ભૂતપૂર્વ	-2679
▁દર્	-2680
થિત	-2681
▁શીર્ષ	-2682
▁હુમ	-2683
બારી	-2684
▁ઉદ	-2685
▁શહે	-2686
▁કુદરતી	-2687
▁ન્યાયાધીશોની	-2688
▁આં	-2689
▁સંહિતા	-2690
▁...	-2691
▁મુખર્જી	-2692
▁વિશ્લેષણ	-2693
કરી	-2694
▁જન્	-2695
▁ભોગ	-2696
▁ઘરે	-2697
સ્થિત	-2698
...	-2699
▁પ્રગતિ	-2700
▁તારણ	-2701
▁ક્યારે	-2702
▁આત્મ	-2703
▁ક્રિયા	-2704
;.	-2705
બુ	-2706
▁લાય	-2707
ારીરિક	-2708
##	-2709
▁ક્ષમતા	-2710
▁સચિવ	-2711
▁અસમ	-2712
▁સમાપ્તિ	-2713
▁બિલ્	-2714
કમાં	-2715
▁અનેક	-2716
▁h	-2717
જિન	-2718
ાત્મક	-2719
▁યાદ	-2720
▁પુનરા	-2721
્યુટી	-2722
▁અટકાયત	-2723
▁સંપત્તિના	-2724
પિત	-2725
▁પોતાનો	-2726
over	-2727
સ્વી	-2728
▁ઘટાડ	-2729
▁રક્ષણ	-2730
▁અભિગમ	-2731
એલપી	-2732
▁સાચ	-2733
▁કેર	-2734
વાનગી	-2735
▁તારીખે	-2736
▁દેવામાં	-2737
▁આદેશો	-2738
્વર	-2739
▁ફેબ્ર	-2740
▁વર્ગી	-2741
પન	-2742
શ્ચ	-2743
▁સત્તાવાર	-2744
ૂહ	-2745
▁સંદર્ભિત	-2746
▁બોલા	-2747
ra	-2748
▁અર્થમાં	-2749
▁પં	-2750
▁દેવા	-2751
▁પોતે	-2752
્યૂ	-2753
▁વહેંચ	-2754
▁શારીરિક	-2755
▁સખત	-2756
▁એકત્ર	-2757
▁નામંજૂ	-2758
હાસ	-2759
▁કન્	-2760
તાનું	-2761
▁સેશન્સ	-2762
▁to	-2763
▁નામંજૂર	-2764
▁ભાગીદારી	-2765
▁નવેમ્બર	-2766
▁ટ્રે	-2767
▁દાખ	-2768
▁કલ્યા	-2769
▁દેશમાં	-2770
▁ધારાસભ્ય	-2771
▁X	-2772
ઉસ	-2773
▁કુમાર	-2774
▁વડા	-2775
▁નિયત	-2776
▁[]]	-2777
▁અનુભવ	-2778
▁કંપનીના	-2779
▁સમગ્ર	-2780
▁સહાયક	-2781
▁વપરાશ	-2782
▁પડી	-2783
▁પ્રણવ	-2784
▁મૂકી	-2785
▁લેણ	-2786
▁શાસન	-2787
થ્	-2788
ૈતિક	-2789
▁ઉદ્ભવ	-2790
▁તર્ક	-2791
▁વચગાળા	-2792
▁ન્યાયના	-2793
▁શીખ	-2794
▁મહિનાની	-2795
▁એસો	-2796
▁વિરોધા	-2797
▁કથિત	-2798
▁કરારના	-2799
▁ઇલે	-2800
▁વિતરણ	-2801
સીએ	-2802
અલ	-2803
ટુંબ	-2804
▁ઇન્ટર	-2805
▁સુવિધાઓ	-2806
્સની	-2807
▁રૂપિયા	-2808
▁આર્ટિકલ	-2809
કતો	-2810
▁કસ્ટ	-2811
ડીએ	-2812
ગ્યુલ	-2813
▁ફેબ્રુઆરી	-2814
▁મારી	-2815
▁લોકશાહી	-2816
▁સ્ત	-2817
▁મુલાકાત	-2818
▁વિંડોમાં	-2819
▁રાખી	-2820
▁એમ્	-2821
ોરણે	-2822
ણિજ્ય	-2823
▁અધિકૃત	-2824
;,	-2825
▁નિકાસ	-2826
તિહાસ	-2827
▁ખુલે	-2828
ષ્ય	-2829
▁ઠરાવ	-2830
▁ધોરણે	-2831
▁શરી	-2832
ભાર	-2833
▁અજ	-2834
વર્ત	-2835
nder	-2836
▁ગૌરવ	-2837
is	-2838
▁પટ	-2839
રું	-2840
▁ખામી	-2841
િયાર	-2842
▁અનુસૂચિત	-2843
▁Au	-2844
▁પરિવ	-2845
▁સંકળ	-2846
વારી	-2847
▁જણાવાયું	-2848
▁એકત્રિત	-2849
સ્તાવ	-2850
▁પરવાનગી	-2851
▁પ્રયત્નો	-2852
▁ઉમેદવાર	-2853
ેલ્	-2854
▁થતાં	-2855
▁પૂર્વગ્રહ	-2856
ંદ્ર	-2857
▁ફરજો	-2858
▁અસમર્થ	-2859
▁એકાઉન્ટ	-2860
ફાઇ	-2861
▁સ્ત્રી	-2862
▁પરિવાર	-2863
▁દાવે	-2864
▁કાર્યક્રમ	-2865
▁લાદવામાં	-2866
▁પ્રમાણમાં	-2867
▁રીત	-2868
▁અપરા	-2869
▁રહ્યું	-2870
સ્પે	-2871
▁કારો	-2872
▁પ્રશ્નમાં	-2873
▁હાઇકોર્ટના	-2874
.)	-2875
ક્ટોબર	-2876
▁લાંબા	-2877
તરા	-2878
▁પ્રસ્તાવ	-2879
ઘુ	-2880
▁પરિવર્તન	-2881
સિએ	-2882
▁નોંધાયેલ	-2883
▁મંદ	-2884
સ્યા	-2885
▁પ્રિ	-2886
▁હિતમાં	-2887
▁મોકલવામાં	-2888
▁પહોંચી	-2889
નિયર	-2890
▁આખરે	-2891
પલ	-2892
ક્રમો	-2893
▁બળ	-2894
્યાયિત	-2895
▁કમિટી	-2896
ખ્યાયિત	-2897
▁ભાડૂત	-2898
▁ઉત્પાદ	-2899
ંજ	-2900
▁અવકાશ	-2901
▁સ્વીકારવામાં	-2902
▁આપતી	-2903
▁પીડિત	-2904
▁((	-2905
પ્લો	-2906
ફા	-2907
iv	-2908
જાબ	-2909
▁ઓછ	-2910
વાળી	-2911
▁અપેક્ષા	-2912
▁બર	-2913
▁વાણિજ્ય	-2914
▁ચીફ	-2915
▁દેશના	-2916
▁જણાવે	-2917
▁કપાત	-2918
▁સાંભળ	-2919
▁પૂરતા	-2920
▁ગેરહાજરીમાં	-2921
▁વ્યાખ્યાયિત	-2922
▁જસ્ટ	-2923
▁pr	-2924
ાર્ડ	-2925
▁સમસ્યા	-2926
▁નિર્ણયને	-2927
▁કરાવ	-2928
▁લેશે	-2929
▁ચાર્જશીટ	-2930
▁સીધી	-2931
▁પ્રણા	-2932
▁લાવવા	-2933
▁વિવેક	-2934
▁પરિવહન	-2935
▁મંતવ્ય	-2936
▁પ્રકાશમાં	-2937
▁વ્યવસાયિક	-2938
▁કાર્યવાહીના	-2939
▁સબમિટ	-2940
▁M	-2941
▁સભા	-2942
▁ઘડવામાં	-2943
▁પુસ્ત	-2944
▁અધ્યાય	-2945
▁પ્રણાલી	-2946
▁સહકારી	-2947
▁શકતા	-2948
▁સિંહ	-2949
કુમાર	-2950
▁કરવાથી	-2951
▁કર્મચારીઓ	-2952
▁ડીડ	-2953
▁મૌ	-2954
▁મૂડી	-2955
▁હસ્તગત	-2956
▁જૂન	-2957
▁કહીએ	-2958
▁લાવવામાં	-2959
▁જેવી	-2960
્મિક	-2961
▁ક્રે	-2962
▁રાજ્યપાલ	-2963
▁કારોબારી	-2964
▁સિધ્	-2965
▁નિશ્ચિત	-2966
▁કલ્યાણ	-2967
ષ્ટ્ર	-2968
▁નિષ્ણા	-2969
▁પંજાબ	-2970
▁કેસો	-2971
▁પહેલાથી	-2972
▁નિવેદનમાં	-2973
▁સોંપવામાં	-2974
▁કર્ણાટક	-2975
▁બદલી	-2976
▁સિક	-2977
કસ્મા	-2978
▁મોર્ટ	-2979
▁જાળવી	-2980
▁ઇલેક્ટ	-2981
▁નિર્ભર	-2982
ન્દ્રીય	-2983
▁ઓળખાય	-2984
▁એપ્લિકેશન	-2985
▁ભેદભાવ	-2986
૦૦૦	-2987
ઉન્ડ	-2988
પોરેટ	-2989
કર્તાને	-2990
▁એસોસિએ	-2991
ઠા	-2992
▁સમાય	-2993
સ્ટ્ર	-2994
ક્રિય	-2995
▁મેનેજમેન્ટ	-2996
વસાય	-2997
▁દર્દી	-2998
ક્વિ	-2999
▁ચલાવવા	-3000
▁બનાવવાની	-3001
▁આર્બિટ્રેટ	-3002
ીય	-3003
▁ધારણા	-3004
▁અકસ્મા	-3005
▁ટાળ	-3006
▁મોડ	-3007
▁રેગ્યુલ	-3008
▁કંઈપણ	-3009
રને	-3010
▁ભાડુ	-3011
▁ગોઠ	-3012
ક્ષિ	-3013
કારાત્મક	-3014
▁મુશ્કેલી	-3015
સં	-3016
ou	-3017
▁પરિષ	-3018
▁પ્રદર્શન	-3019
▁શ્રીમતી	-3020
▁પાછળ	-3021
▁સ્થાયી	-3022
▁શરતોમાં	-3023
▁મહારાષ્ટ્ર	-3024
▁માધ્ય	-3025
▁કેન્દ્રીય	-3026
ation	-3027
્રષ્ટ	-3028
▁અદાલતને	-3029
▁ભાડા	-3030
દારોને	-3031
પનીય	-3032
▁under	-3033
દમ	-3034
▁રાખવું	-3035
▁પ્લો	-3036
▁કલા	-3037
▁આઇપીસી	-3038
▁જસ્ટિસ	-3039
ષ્ણ	-3040
ક્ષર	-3041
▁બેંચના	-3042
▁કલે	-3043
▁ધાર્મિક	-3044
▁સિંઘ	-3045
▁લવાદી	-3046
▁કબજા	-3047
▁કોર્ટને	-3048
▁ફ્લ	-3049
▁તરફથી	-3050
▁ટેકો	-3051
▁અપીલકાર	-3052
જને	-3053
વાન	-3054
▁ટાઇ	-3055
▁ગુનાના	-3056
▁માણ	-3057
▁પરની	-3058
ગામી	-3059
કિંગ	-3060
થમિક	-3061
બાહ્ય	-3062
▁દર્શાવે	-3063
તોને	-3064
ડક	-3065
▁સ્ટેશન	-3066
ોનું	-3067
▁મજૂ	-3068
II	-3069
▁અરજીમાં	-3070
▁મહા	-3071
▁ind	-3072
▁k	-3073
તલ	-3074
સીની	-3075
▁અનુસર	-3076
▁નોંધવામાં	-3077
▁એસએલપી	-3078
▁શિસ્ત	-3079
સર્	-3080
શનલ	-3081
▁માની	-3082
ંજન	-3083
▁તેમનો	-3084
▁મંડળ	-3085
્યવહાર	-3086
▁મેળવી	-3087
▁ક્યારેય	-3088
▁વધારવા	-3089
▁વિભાગના	-3090
▁બેં	-3091
▁શિક્ષિત	-3092
led	-3093
સીટી	-3094
▁પેદા	-3095
▁ચુકાદાના	-3096
▁પ્રથા	-3097
િપ્	-3098
્સમાં	-3099
ત્કાલિક	-3100
▁મનસ્વી	-3101
▁ચલાવવામાં	-3102
▁સ્ટો	-3103
▁સજાને	-3104
▁દુર્	-3105
▁બાજુએ	-3106
બો	-3107
પ્લાય	-3108
▁લઘુ	-3109
▁મુદત	-3110
▁પ્રકારના	-3111
▁પ્રાથમિક	-3112
▁જાહેરનામું	-3113
ent	-3114
▁ય	-3115
▁ક્રો	-3116
▁તાત્કાલિક	-3117
▁માટેનું	-3118
▁જન્મ	-3119
▁પ્લોટ	-3120
▁ડાય	-3121
ંધો	-3122
▁એન્જિન	-3123
▁વિકસિત	-3124
બિ	-3125
સ્થાન	-3126
▁ગોપનીય	-3127
▁પ્રકરણ	-3128
કટ	-3129
▁rec	-3130
▁નિવારણ	-3131
▁શરૂઆતમાં	-3132
દેશિક	-3133
▁માનસિક	-3134
▁સુધીમાં	-3135
▁રજિસ્ટ્ર	-3136
▁ગર્	-3137
▁કસ્ટડી	-3138
▁મોટર	-3139
▁દલીલો	-3140
▁ઉદા	-3141
▁સ્પષ્ટતા	-3142
▁વર્તન	-3143
▁પાછા	-3144
▁અવગણના	-3145
▁પિતા	-3146
▁શરત	-3147
ર્મા	-3148
fice	-3149
▁કોર્ટનો	-3150
▁પ્લાન્ટ	-3151
▁હરા	-3152
ધાન્ય	-3153
ુલ	-3154
▁ઈન્ડિયા	-3155
▁હોદ્	-3156
▁અદાલતની	-3157
▁નિર્દેશિત	-3158
▁અવિ	-3159
▁મુકદ્	-3160
▁જોડાયેલા	-3161
▁કરાયો	-3162
▁પુનર્	-3163
▁હુમલો	-3164
▁મ્યુ	-3165
▁બચાવ	-3166
▁ગયું	-3167
▁કુટુંબ	-3168
▁હુકમના	-3169
▁સજાની	-3170
▁વિકલ્પ	-3171
▁શીર્ષક	-3172
▁અનુરૂપ	-3173
▁પ્રક્રિયામાં	-3174
▁ઇરાદા	-3175
▁જમીનની	-3176
▁સ્તરે	-3177
▁અપીલના	-3178
▁નિયમોના	-3179
▁પ્રાદેશિક	-3180
▁પ્રાધાન્ય	-3181
▁ભૌ	-3182
▁રકમની	-3183
▁સશ	-3184
▁industrial	-3185
▁સિધ્ધાંત	-3186
▁નવીન	-3187
▁નૈતિક	-3188
દના	-3189
▁ન્યાયાધીશો	-3190
▁સપ્લાય	-3191
▁હોઇ	-3192
▁લેવો	-3193
▁વો	-3194
▁ઈજા	-3195
▁ભાવના	-3196
▁કેરળ	-3197
વર્તી	-3198
મીણ	-3199
▁હવા	-3200
ગંદ	-3201
▁વ્યક્તિઓને	-3202
ત્યારબાદ	-3203
▁અપીલદારો	-3204
▁મોહ	-3205
નલ	-3206
▁હરિયા	-3207
▁ક્રેડિટ	-3208
▁રાખવાની	-3209
રંજન	-3210
▁લોન	-3211
મક	-3212
ક્ચર	-3213
▁નિયંત્રિત	-3214
▁તારણો	-3215
▁પ્રમો	-3216
માય	-3217
ંકમાં	-3218
ાવ્યો	-3219
સ્ટર	-3220
▁હેતુથી	-3221
▁બંધારણમાં	-3222
▁બરતર	-3223
▁વિશાળ	-3224
▁કરાઈ	-3225
વશે	-3226
▁શે	-3227
▁થતી	-3228
મૂર્તિ	-3229
▁અરજીની	-3230
▁હુકમથી	-3231
યધરી	-3232
વિટ	-3233
▁મોટાભાગ	-3234
નેગાર	-3235
▁કરનારની	-3236
▁વીજળી	-3237
▁કૌ	-3238
ર્ની	-3239
▁ઝડપી	-3240
▁બાંયધરી	-3241
],	-3242
▁ગ્રામીણ	-3243
▁મહેસ	-3244
▁પ્રવૃત્તિઓ	-3245
▁પાવર	-3246
▁અગાઉની	-3247
ન્દુ	-3248
▁વેપારી	-3249
▁m	-3250
▁દસ	-3251
▁વ્યાવસાય	-3252
થ્થા	-3253
રીને	-3254
▁જાતીય	-3255
યન	-3256
▁મશી	-3257
▁તમારી	-3258
▁કહેવાતા	-3259
▁છા	-3260
▁ગુજ	-3261
▁વસ્તી	-3262
▁ચિંતા	-3263
▁ભાગમાં	-3264
▁આજીવન	-3265
▁અરજદારને	-3266
▁કાળ	-3267
▁લોર્ડ	-3268
▁સર્વિસ	-3269
▁અધિકારીને	-3270
▁હસ્તા	-3271
▁સ્વીકારી	-3272
િરા	-3273
▁ગતિ	-3274
▁ઉત્પ	-3275
▁ગણવામાં	-3276
▁કોર્પોરેટ	-3277
▁સંખ્યામાં	-3278
▁માપ	-3279
▁વર્તમાન	-3280
▁હરિયાણા	-3281
▁અગ્ર	-3282
▁નિયા	-3283
१२	-3284
▁બતાવે	-3285
▁તરત	-3286
સનીય	-3287
▁બનાવી	-3288
નિર્	-3289
ોથી	-3290
▁બાળકો	-3291
▁ગુનેગાર	-3292
▁એર	-3293
▁તમને	-3294
▁કાર્યવાહીને	-3295
▁બહુમતી	-3296
▁સૂચિમાં	-3297
ંકી	-3298
▁પેન્ડ	-3299
▁ખાણકામ	-3300
▁વ્યક્તિના	-3301
જની	-3302
ledge	-3303
▁કરતો	-3304
▁મહત્તમ	-3305
▁વન	-3306
▁સોગંદ	-3307
કિ	-3308
િડે	-3309
કલ્પ	-3310
▁પાછો	-3311
▁સ્થાન	-3312
િયો	-3313
▁પંચાય	-3314
▁એકલા	-3315
▁જગ્યાઓ	-3316
▁હાઉસ	-3317
▁મુદ્દાને	-3318
----	-3319
ંડા	-3320
મેટ	-3321
સ્કાર	-3322
▁કરારમાં	-3323
ાર્વ	-3324
▁recover	-3325
▁સેવામાં	-3326
▁અનુક્ર	-3327
▁ઇચ્છ	-3328
▁મામલો	-3329
▁ક્રોસ	-3330
▁આરોપીની	-3331
▁પક્ષકાર	-3332
▁રીટ	-3333
િક્યુટ	-3334
▁આત	-3335
▁લીધેલા	-3336
▁હંમેશાં	-3337
▁ભાઈ	-3338
▁નિગમ	-3339
▁વૃદ્ધિ	-3340
ણને	-3341
now	-3342
ત્વે	-3343
▁અપવાદ	-3344
▁થા	-3345
▁ટ્રિબ્યુનલે	-3346
▁વર્ષમાં	-3347
ભે	-3348
નેટ	-3349
▁પૂર્	-3350
▁દ્	-3351
ટૂ	-3352
▁અત	-3353
શાસ	-3354
▁ગામ	-3355
▁શકાતો	-3356
▁ધોરણો	-3357
▁લાયકાત	-3358
▁કરતું	-3359
▁સ્પર્	-3360
શ્ચિમ	-3361
નરી	-3362
▁મુખ્યત્વે	-3363
ન્ટ્રા	-3364
▁સ્વીકાર્ય	-3365
અપીલ	-3366
▁અમારું	-3367
નાઇ	-3368
િડેવિટ	-3369
▁સંસાધનો	-3370
જેતર	-3371
▁તુલના	-3372
▁e	-3373
▁ઉદાહરણ	-3374
▁માળખા	-3375
▁ભારપૂર્વક	-3376
▁તાજેતર	-3377
તાથી	-3378
▁III	-3379
▁મુજબની	-3380
▁ઉદ્ભવતા	-3381
દ્ય	-3382
▁વળતરની	-3383
▁વાહ	-3384
ભૂમિ	-3385
▁જુલાઈ	-3386
▁મેમો	-3387
▁પક	-3388
▁એકમ	-3389
્વરિત	-3390
▁ત્વરિત	-3391
▁પુરાવાઓની	-3392
મ્મદ	-3393
સ્તો	-3394
▁ગ્ર	-3395
▁એફિડેવિટ	-3396
▁વંચ	-3397
▁એક્ઝિક્યુટ	-3398
▁કડક	-3399
િશિયલ	-3400
▁નિર્દેશો	-3401
▁ગુજરાત	-3402
▁ઇજાઓ	-3403
▁સત્તાના	-3404
લાલ	-3405
શળ	-3406
જિત	-3407
રોને	-3408
as	-3409
ઝા	-3410
▁બંગ	-3411
▁કબજે	-3412
▁કાયદેસરની	-3413
▁બાબતોમાં	-3414
▁ગૌણ	-3415
▁સ્થળે	-3416
३०	-3417
જાતિ	-3418
ber	-3419
th	-3420
▁લાયક	-3421
▁વચગાળાના	-3422
▁ફાયદા	-3423
▁મુસા	-3424
▁know	-3425
▁સાધન	-3426
▁મુકદ્દ	-3427
▁R	-3428
▁ટો	-3429
્રોલ	-3430
▁હિન્દુ	-3431
▁પ્રતિકૂળ	-3432
પિં	-3433
▁એટર્ની	-3434
▁એમ્પ્લો	-3435
ધીન	-3436
▁કાળજી	-3437
▁સંપૂર્ણપણે	-3438
▁કહેવું	-3439
ાળો	-3440
▁આગળની	-3441
▁knowledge	-3442
▁સીબીઆઈ	-3443
▁ન્યાયમૂર્તિ	-3444
▁રજિસ્ટ્રાર	-3445
ect	-3446
▁મંત્રી	-3447
▁જાળવવા	-3448
▁બિલ્ડિંગ	-3449
▁માંગણી	-3450
▁સાક્ષીઓ	-3451
▁સાક્ષીઓની	-3452
▁છેતર	-3453
▁મુશ્કેલ	-3454
▁એકદમ	-3455
▁લવાદ	-3456
▁વંચિત	-3457
એસસી	-3458
▁દેખરેખ	-3459
▁કર્મચારીઓને	-3460
▁ઇન્સ્ટ	-3461
ર્જા	-3462
▁લેવાનો	-3463
▁સમિતિની	-3464
▁ભલે	-3465
▁નિવૃત્તિ	-3466
સની	-3467
▁શકતો	-3468
▁અકસ્માત	-3469
▁અશ	-3470
વરણીય	-3471
▁રાજ્યને	-3472
▁મેસ	-3473
▁ઉત્પાદનો	-3474
▁પૂરતી	-3475
▁લડ	-3476
▁એક્ઝિક્યુટિવ	-3477
મય	-3478
પરી	-3479
ુસાર	-3480
▁અપીલદાતા	-3481
▁નિર્ણાયક	-3482
લાઇ	-3483
▁prom	-3484
▁ગેરલ	-3485
રોની	-3486
વરણ	-3487
ેલું	-3488
શ્વિક	-3489
▁દર્શાવ	-3490
▁જય	-3491
મિશ	-3492
ેલે	-3493
▁જ્યુ	-3494
દનુસાર	-3495
▁મહેસૂલ	-3496
ત્તર	-3497
▁શાંતિ	-3498
▁મનોરંજન	-3499
▁દાખલા	-3500
▁તદનુસાર	-3501
▁મેળવે	-3502
▁બોલ	-3503
▁અધિ	-3504
▁દાવાને	-3505
▁વૈશ્વિક	-3506
▁ખનિ	-3507
▁N	-3508
▁જશે	-3509
▁મેટ	-3510
▁સ્પર્ધા	-3511
રિટી	-3512
▁ફોર	-3513
▁ગુનાની	-3514
▁લેણદાર	-3515
િકેટ	-3516
કલ્પિક	-3517
▁સાર્વ	-3518
▁ચુકાદાની	-3519
▁વ્યાવસાયિક	-3520
▁જાણવા	-3521
પિંડી	-3522
ંપરા	-3523
▁મેં	-3524
▁અનુગામી	-3525
▁અતિ	-3526
▁સલાહકારની	-3527
ીત	-3528
બાર	-3529
▁સેવ	-3530
▁પેટન્ટ	-3531
▁promot	-3532
▁હાઈકોર્ટની	-3533
▁ફંડ	-3534
▁શક્તિનો	-3535
▁લાલ	-3536
▁બરતરફ	-3537
▁નાબ	-3538
▁તેમાંથી	-3539
▁કાયદાઓ	-3540
▁સહયોગ	-3541
▁વિભાગમાં	-3542
▁રિઝ	-3543
▁નેટ	-3544
▁સર્વે	-3545
▁બાયો	-3546
કનોલોજી	-3547
ન્માન	-3548
▁વાંચન	-3549
▁શાખા	-3550
▁સંગ્રહ	-3551
ધ્ધ	-3552
▁મંદિર	-3553
▁પૃષ્ઠભૂમિ	-3554
▁અસા	-3555
▁સ્થિત	-3556
▁વૈકલ્પિક	-3557
▁વજન	-3558
▁મુસાફ	-3559
▁સ્તર	-3560
▁આશરે	-3561
▁જોડાયેલ	-3562
▁કુશળ	-3563
▁હાલમાં	-3564
▁વટ	-3565
વિષ્ય	-3566
▁પર્યાવરણીય	-3567
▁હિસ્	-3568
▁જરૂરિયા	-3569
સ્ફો	-3570
▁પશ્ચિમ	-3571
▁ખુલ્લ	-3572
▁ફૂ	-3573
વાર્ય	-3574
▁પર્યાવરણ	-3575
▁ખેંચી	-3576
સન	-3577
▁મહાન	-3578
▁વિરોધ	-3579
▁પ્રસંગે	-3580
▁કિસ્સાઓમાં	-3581
થ્થ	-3582
▁યોગ	-3583
▁પ્રતિબદ્ધ	-3584
સાહ	-3585
▁સીધા	-3586
▁સેલ	-3587
▁પ્રોગ્રા	-3588
બ્લ	-3589
▁અપંગ	-3590
▁ફાળો	-3591
▁પુનરાવર્તન	-3592
▁છેલ્લા	-3593
િટર	-3594
રામર્શ	-3595
▁પ્રેર	-3596
▁બિહાર	-3597
▁રાખવી	-3598
▁છેતરપિંડી	-3599
પીએ	-3600
સિંઘ	-3601
▁રંગ	-3602
▁સમયગાળાની	-3603
▁રોગ	-3604
કૃતિક	-3605
▁ચૂકા	-3606
▁ભવિષ્ય	-3607
સના	-3608
▁થવી	-3609
▁અભાવ	-3610
▁સુપર	-3611
ાનિક	-3612
▁ક્વો	-3613
▁આદર	-3614
નર	-3615
ઠવા	-3616
ચાર્	-3617
ચારિક	-3618
▁નવીકરણ	-3619
99	-3620
▁આપવાનું	-3621
▁સત્ર	-3622
▁સંદેશાવ	-3623
▁ટાંક	-3624
ૈચ્છ	-3625
ૈચ્છિક	-3626
▁ડિગ્રી	-3627
▁કાપ	-3628
▁વખત	-3629
▁લંબા	-3630
શાસ્ત્ર	-3631
▁સમયગ	-3632
▁અનિવાર્ય	-3633
▁or	-3634
▁ગુમા	-3635
▁સારા	-3636
બુદ્ધિ	-3637
▁એજન્ટ	-3638
▁કેસને	-3639
▁ખાતા	-3640
▁કૃત્યો	-3641
▁બંધન	-3642
▁પૂરતું	-3643
કસ્મિક	-3644
▁સમયગાળો	-3645
બાતલ	-3646
▁આવતું	-3647
▁મળ્યો	-3648
ન્યુ	-3649
્સને	-3650
▁સમૃ	-3651
▁સૂચનો	-3652
▁સંદેશાવ્યવહાર	-3653
ઓથી	-3654
▁પાઠ	-3655
▁રેડ	-3656
ેલ્વે	-3657
આઈટી	-3658
રાજ્ય	-3659
▁મામલે	-3660
જીત	-3661
▁બ્ર	-3662
▁અધિકારક્ષેત્રની	-3663
▁બેઠક	-3664
▁બેન્	-3665
▁ગુપ્ત	-3666
▁મોક	-3667
▁એસોસિએશન	-3668
મુખ	-3669
▁ઉત્પન્ન	-3670
▁વધારાની	-3671
▁ડીએ	-3672
▁તેણીએ	-3673
▁અહેવાલો	-3674
▁સાં	-3675
▁ભ્રષ્ટ	-3676
▁સમાયેલ	-3677
▁નોંધવું	-3678
▁અઠવા	-3679
▁સેવાની	-3680
▁સત્તાનો	-3681
▁વસૂલવામાં	-3682
▁આંધ	-3683
▁ગુણ	-3684
જય	-3685
▁ક્ષેત્રના	-3686
▁Dr	-3687
▁ચૌ	-3688
▁મૂકવા	-3689
▁વિવેકબુદ્ધિ	-3690
માલિક	-3691
▁ખોટા	-3692
▁બોલી	-3693
સ્પદ	-3694
ુંબ	-3695
▁વગર	-3696
▁ખુલા	-3697
▁રદબાતલ	-3698
▁પરિપત્ર	-3699
▁યોજવામાં	-3700
▁એકી	-3701
▁વિસ્તરણ	-3702
▁મદ્રાસ	-3703
▁દીઠ	-3704
▁અનુક્રમે	-3705
▁પ્રતિબિં	-3706
▁જણ	-3707
▁પૂરો	-3708
▁દોર્યું	-3709
ઝાઇ	-3710
▁ધપ	-3711
▁ચેક	-3712
▁આકસ્મિક	-3713
▁અધિકારીઓની	-3714
ળો	-3715
▁ગાળા	-3716
▁for	-3717
ોમાંથી	-3718
રિફ	-3719
▁१	-3720
▁અસંગત	-3721
▁સમિતિએ	-3722
▁મૃત્યુની	-3723
▁અધિકારીઓને	-3724
▁સૂ	-3725
રમાં	-3726
▁હાથમાં	-3727
▁અધિકારને	-3728
▁સ્વીકૃતિ	-3729
▁ઉક્ત	-3730
▁સૂચન	-3731
બ્દ	-3732
▁બંગાળ	-3733
▁એટલા	-3734
▁સલાહકારે	-3735
્યુઅલ	-3736
▁વિજ્	-3737
▁મળ્યા	-3738
▁શકાતું	-3739
▁અધિકારો	-3740
▁પ્રતિસાદકર્તા	-3741
▁પરંપરા	-3742
▁th	-3743
પચારિક	-3744
▁મેસર્સ	-3745
મ્બ	-3746
ઇન્ટ	-3747
▁ઓછું	-3748
પણી	-3749
▁અર્	-3750
▁હરાજી	-3751
▁વ્યાપ	-3752
▁સ્થાને	-3753
િશનમાં	-3754
▁શુભે	-3755
▁ભૌતિક	-3756
▁પ્રાપ્તિ	-3757
▁હોસ્પિટલમાં	-3758
ક્ય	-3759
માન્ડ	-3760
▁વધી	-3761
▁લગાવ	-3762
▁ઠેરવવા	-3763
▁અસ્થ	-3764
▁સ્રો	-3765
▁અવલોકનો	-3766
▁અઠવાડિયા	-3767
▁કસ્ટમ	-3768
▁કલમો	-3769
▁શર્મા	-3770
▁અપરાધ	-3771
▁કેદ	-3772
▁સંબ	-3773
▁)	-3774
રેજ	-3775
િત્	-3776
▁ત્રીજા	-3777
▁માર્કેટ	-3778
ારૂ	-3779
▁વિરોધી	-3780
▁આધારીત	-3781
લેન્ડ	-3782
વ્યું	-3783
▁સત્ય	-3784
▁સાચું	-3785
▁ચુકાદાઓ	-3786
▁જૈ	-3787
ધિત્વ	-3788
▁વૈજ્	-3789
▁કરું	-3790
▁બતાવવા	-3791
▁ગરી	-3792
▁શુભેચ્છા	-3793
શાસિત	-3794
▁વિશ્વસનીય	-3795
▁નબ	-3796
▁રેલ્વે	-3797
▁મંતવ્યો	-3798
▁કાર્યક્ષમ	-3799
▁ચૂકાદા	-3800
▁દાવાની	-3801
ાયન્સ	-3802
▁recovery	-3803
્રિક	-3804
▁દ્વિ	-3805
▁સભ્યોની	-3806
વ્યવ	-3807
▁પુરવ	-3808
▁સમિતિના	-3809
▁ઇતિહાસ	-3810
▁બજ	-3811
▁છોડ	-3812
વૃત્ત	-3813
▁જમીનનો	-3814
પટ	-3815
▁પોતાનું	-3816
મેન	-3817
સાઈ	-3818
▁ઉંમ	-3819
▁નિર્દ	-3820
▁હસ્તાક્ષર	-3821
ખિક	-3822
▁આપવો	-3823
▁ધરાવ	-3824
▁આંધ્ર	-3825
▁મુખર્જીએ	-3826
ચાર્જ	-3827
▁દંડની	-3828
▁ગેરલાયક	-3829
▁સમર્થનમાં	-3830
▁વિસ્ફો	-3831
▁નિવૃત્ત	-3832
▁એક્ટના	-3833
રુષ	-3834
▁આઇટી	-3835
▁થયેલી	-3836
▁સંમેલ	-3837
▁પ્રોવિઝ	-3838
▁નજીક	-3839
ેલો	-3840
▁પ્રતિનિધિત્વ	-3841
▁સન્માન	-3842
▁નિષ્ફળતા	-3843
▁જમી	-3844
▁મામલામાં	-3845
▁સ્વૈચ્છિક	-3846
મિન	-3847
▁ઓર્સ	-3848
ir	-3849
▁શિક્ષા	-3850
પ્તા	-3851
▁યોજનાઓ	-3852
▁માલના	-3853
▁પરિણામો	-3854
▁જળ	-3855
▁કોલેજ	-3856
▁ટેન્ડર	-3857
દીય	-3858
▁વર્ગીકરણ	-3859
▁દબા	-3860
વાજબી	-3861
ભવે	-3862
▁V	-3863
▁ડ્રાઇ	-3864
ંધી	-3865
▁હરી	-3866
▁આગા	-3867
▁ઉપરના	-3868
▁વાંધો	-3869
▁પિટિશનમાં	-3870
નિસિ	-3871
▁કેન્દ્રશાસિત	-3872
ણની	-3873
▁ફટકાર	-3874
▁કેન્દ્રિત	-3875
પક્ષી	-3876
▁પરામર્શ	-3877
▁સમયની	-3878
થિયાર	-3879
પરેશન	-3880
ંગા	-3881
વલપ	-3882
▁આંતરિક	-3883
ંશ	-3884
▁મોટો	-3885
▁પ્રસાર	-3886
▁રૂપા	-3887
▁અરજદારની	-3888
▁કોન્ટ્રા	-3889
▁પરિસર	-3890
▁મૌખિક	-3891
▁સંસદીય	-3892
▁આપીએ	-3893
ખ્	-3894
નારી	-3895
ાર્ક	-3896
▁જાગ	-3897
▁x	-3898
▁જપ્ત	-3899
▁પછીથી	-3900
▁તી	-3901
▁નેટવર્	-3902
ીલ	-3903
▁મોર્ટગે	-3904
યલ	-3905
▁st	-3906
▁ઇન્ફ	-3907
▁વેરા	-3908
▁મૃતકના	-3909
▁સમાનતા	-3910
▁સ્થાવર	-3911
▁અધ્યયન	-3912
▁હથિયાર	-3913
ાંશ	-3914
▁ઇન્ડ	-3915
▁ટેરિફ	-3916
▁તરીકેની	-3917
▁લેખિતમાં	-3918
▁promotion	-3919
▁અભ્યાસક્રમ	-3920
▁પુરુષ	-3921
▁પડકારવામાં	-3922
▁એકર	-3923
▁રાજી	-3924
▁અનુમાન	-3925
▁અપીલનો	-3926
ઇડ	-3927
▁સેટ	-3928
ફોલ્ટ	-3929
▁ટેલિ	-3930
▁સાવ	-3931
▁સંકે	-3932
▁વસૂલાત	-3933
▁નિયામક	-3934
▁અધિકારીની	-3935
▁સુધીના	-3936
▁મ્યુનિસિ	-3937
ગ્	-3938
કિત	-3939
ચના	-3940
▁રસી	-3941
ન્દી	-3942
ત્ત્વ	-3943
▁ગણાવ	-3944
▁ડબલ્યુ	-3945
▁સ્થિર	-3946
▁ટેકનોલોજી	-3947
▁શકતી	-3948
▁જગ્યાએ	-3949
gust	-3950
▁સારાંશ	-3951
▁ન્યાયાધીશની	-3952
▁ઓવર	-3953
▁થતો	-3954
આરો	-3955
▁ક્ષેત્રની	-3956
ત્કાર	-3957
▁દોરવામાં	-3958
▁માળખ	-3959
ક્રો	-3960
ઝે	-3961
▁અધિકારીએ	-3962
▁માર	-3963
શનમાં	-3964
▁હોવાની	-3965
१३	-3966
ંટી	-3967
▁સિક્યો	-3968
▁પાર્ટી	-3969
▁સક્રિય	-3970
▁બાહ્ય	-3971
▁પ્રક્રિયાને	-3972
▁અભિન	-3973
▁અધિકારની	-3974
▁મૃતકની	-3975
લમ	-3976
▁આરોપો	-3977
▁વર્ષે	-3978
▁ડેવલપ	-3979
▁દાવેદાર	-3980
▁August	-3981
and	-3982
▁આતંક	-3983
▁એસસીઆર	-3984
િપ્પણી	-3985
▁સુધારેલા	-3986
ણું	-3987
ૈનિક	-3988
▁આધીન	-3989
▁માલની	-3990
▁ભારે	-3991
▁ઇલેક્ટ્રો	-3992
▁વચ્ચેનો	-3993
▁પુર	-3994
▁ટિપ્પણી	-3995
▁ડ્રાફ્ટ	-3996
▁ડ્યુટી	-3997
નુ	-3998
ુનિક	-3999
▁સોલ	-4000
▁નક	-4001
▁દારૂ	-4002
વડ	-4003
▁નોકરી	-4004
▁પરથી	-4005
▁ઘટાડો	-4006
;)	-4007
પથી	-4008
▁લંબાઈ	-4009
▁સીપીસી	-4010
▁હિન્દી	-4011
ce	-4012
ગુ	-4013
પ્ટ	-4014
▁on	-4015
ઉન	-4016
▁પુત્રી	-4017
▁આકર્ષિત	-4018
▁થાપણ	-4019
▁સવારે	-4020
▁પિ	-4021
▁ઉત્પાદક	-4022
▁નિર્ણયની	-4023
▁હટ	-4024
▁ફરિયાદો	-4025
ચલ	-4026
ભાસ	-4027
▁[(	-4028
cto	-4029
લીન	-4030
▁અપ્ર	-4031
ctober	-4032
▁મિશ	-4033
▁કામદાર	-4034
ટલ	-4035
▁વ્યક્તિઓના	-4036
▁સાહ	-4037
▁દેવી	-4038
▁બંધનકર્તા	-4039
▁સંબંધો	-4040
▁નિર્ણયમાં	-4041
▁ઉમેરવામાં	-4042
ગાવી	-4043
▁હકીકતની	-4044
▁મુકદ્દમા	-4045
કરો	-4046
વવું	-4047
▁જુઓ	-4048
▁પાછલા	-4049
માર્	-4050
ળાત્કાર	-4051
▁બ્લો	-4052
▁ખરીદનાર	-4053
▁જોખમ	-4054
▁વ્યક્તિઓની	-4055
▁મુંબ	-4056
▁ક્યાં	-4057
▁પરિમાણ	-4058
▁સંસ્કૃતિ	-4059
નાથ	-4060
▁જવાબદારીઓ	-4061
▁મ્યુનિસિપલ	-4062
▁સંવે	-4063
ડાની	-4064
▁કરવેરા	-4065
▁કરાયું	-4066
▁નિમણૂ	-4067
સ્ટેટ	-4068
▁આમંત્ર	-4069
▁મોહમ્મદ	-4070
▁વિસ્તારોમાં	-4071
gh	-4072
▁ભાવિ	-4073
હુકમ	-4074
▁તેમનું	-4075
દિ	-4076
▁યુએસ	-4077
▁October	-4078
▁ગાંધી	-4079
સીના	-4080
ધાનિક	-4081
▁પાડવા	-4082
▁દબાણ	-4083
▁ડિફોલ્ટ	-4084
▁ગ્રાહક	-4085
▁નામે	-4086
▁બળાત્કાર	-4087
▁એન્જિનિયર	-4088
કોમાં	-4089
▁પગલે	-4090
▁હકીકતને	-4091
▁સીએ	-4092
્રેજી	-4093
▁ભલામણો	-4094
▁રોકડ	-4095
▁લોહી	-4096
▁આપવાના	-4097
▁પ્રકારનો	-4098
▁હાઈકોર્ટમાં	-4099
▁વિરોધાભાસ	-4100
▁સિદ્ધાંતને	-4101
ener	-4102
▁માઇ	-4103
▁દુકા	-4104
▁માપદંડ	-4105
▁પ્રતિવાદીઓ	-4106
▁મહત્ત્વ	-4107
olle	-4108
▁નામાં	-4109
▁વિસર્	-4110
રિટીઝ	-4111
▁મજૂર	-4112
▁ઠેરવી	-4113
▁સર્વો	-4114
▁તબક્કા	-4115
તને	-4116
▁પ્રી	-4117
▁હજાર	-4118
▁office	-4119
▁એમ્પ્લોયર	-4120
▁નફા	-4121
▁જોઈ	-4122
નાઇટેડ	-4123
▁ગવર્	-4124
▁અસ્વી	-4125
ેટમાં	-4126
ક્ષક	-4127
▁જજે	-4128
▁ઉપસ્થિત	-4129
લત	-4130
▁નાય	-4131
▁નિર્ભરતા	-4132
નોની	-4133
▁પાય	-4134
▁ક્ષેત્રોમાં	-4135
શય	-4136
▁કોલસા	-4137
▁ચોક્કસપણે	-4138
▁શેડ	-4139
િફ	-4140
▁ત્રિ	-4141
▁બાકીના	-4142
▁ફા	-4143
▁બેદર	-4144
▁નિભાવ	-4145
▁પ્રોવિ	-4146
હિ	-4147
▁એડિશન	-4148
▁લેવાય	-4149
▁સંતુલન	-4150
▁પછીની	-4151
▁આરોપીએ	-4152
▁l	-4153
ડવામાં	-4154
▁હિસ્સો	-4155
▁પ્રમાણિત	-4156
ોટ	-4157
▁અંદા	-4158
▁નહોતો	-4159
દૂ	-4160
▁દહે	-4161
▁વર્ગના	-4162
▁દવા	-4163
▁આશ્ર	-4164
▁પ્રકૃતિમાં	-4165
હ્ન	-4166
▁વૈધાનિક	-4167
▁કયા	-4168
▁વિભાગની	-4169
▁પ્રાણી	-4170
▁સ્વભાવ	-4171
▁અધિકારક્ષેત્રનો	-4172
ચલા	-4173
▁કમ	-4174
▁નીક	-4175
▁સાચી	-4176
▁યુપી	-4177
▁બાબતોને	-4178
▁અંગ્રેજી	-4179
▁વપર	-4180
▁કાર્યકારી	-4181
▁મૈ	-4182
▁ગેઝ	-4183
જ્જ	-4184
▁યુનાઇટેડ	-4185
ખો	-4186
▁ખ્યા	-4187
ડિશિયલ	-4188
દ્ર	-4189
મ્સ	-4190
▁ડિસ્	-4191
▁જોગવાઈઓનું	-4192
▁સર્વ	-4193
▁સાથેની	-4194
ફોર્મ	-4195
▁ઉપકરણ	-4196
ચિત્ર	-4197
▁આશા	-4198
▁કન્સ	-4199
▁નારાજ	-4200
▁સ્થિતિને	-4201
કાં	-4202
લભ	-4203
▁શરતોને	-4204
▁કર્મચારીઓની	-4205
▁યોગદાન	-4206
▁ગેરવાજબી	-4207
પરીત	-4208
િસર	-4209
▁ચોર	-4210
▁અનુકૂળ	-4211
▁કંઇ	-4212
▁વિપરીત	-4213
▁પ્રતિબિંબિત	-4214
▁નવ	-4215
▁પ્રભાવિત	-4216
ધું	-4217
▁પ્રવાહ	-4218
▁રાજસ્થાન	-4219
ક્યુ	-4220
▁સિનિયર	-4221
જિટ	-4222
ણાંક	-4223
▁અસ્વીકાર	-4224
ટિલ	-4225
ાર્ટ	-4226
▁મશીનરી	-4227
ક્સેસ	-4228
▁વટહુકમ	-4229
▁અપીલકર્તાને	-4230
gy	-4231
રિંગ	-4232
▁ખોલ	-4233
બ્લિક	-4234
▁દીધો	-4235
▁મેદાન	-4236
▁આરોપીઓને	-4237
▁આંક	-4238
▁આધુનિક	-4239
▁દેશની	-4240
▁ઓળખવામાં	-4241
સ્પર	-4242
▁નિયમોની	-4243
મણી	-4244
▁નિરીક્ષણો	-4245
▁શીખેલી	-4246
▁નિર્દિષ્ટ	-4247
ડીને	-4248
▁n	-4249
ંહે	-4250
▁સેક	-4251
▁લઈને	-4252
,00	-4253
▁કસ્ટડીમાં	-4254
▁બનશે	-4255
ન્ટ્સ	-4256
ગ્રસ્ત	-4257
▁શુભેચ્છાઓ	-4258
▁પ્રકા	-4259
▁રહેવાની	-4260
▁3	-4261
ંદી	-4262
ated	-4263
▁ફગાવી	-4264
▁સશક્ત	-4265
▁છૂટાછ	-4266
રૂપયોગ	-4267
▁મિ	-4268
▁રુ	-4269
જના	-4270
▁લેનારા	-4271
▁ગણી	-4272
▁દક્ષિ	-4273
▁દુરૂપયોગ	-4274
▁મળીને	-4275
▁સબમિશ	-4276
▁એડિશનલ	-4277
▁કલેક્ટર	-4278
▁જેમાંથી	-4279
▁માંગવામાં	-4280
▁ખસે	-4281
આરોપી	-4282
▁અખ	-4283
▁શ્રેણી	-4284
▁થવો	-4285
▁સમાજના	-4286
ઠ્	-4287
▁સજાના	-4288
▁લેવાનું	-4289
].	-4290
▁ગુણો	-4291
▁હેતુસર	-4292
▁જોવામાં	-4293
▁લાભો	-4294
▁તૈયારી	-4295
▁સહકાર	-4296
ist	-4297
▁મિલકતો	-4298
▁માર્ગદર્શન	-4299
ક્વિટી	-4300
▁ઝડપથી	-4301
▁સરકારો	-4302
▁સિક્યોરિટીઝ	-4303
પ્સ	-4304
▁દેવાદાર	-4305
▁નિયમોમાં	-4306
નામાં	-4307
લક્ષી	-4308
સીઆર	-4309
▁ડેવલપમેન્ટ	-4310
તાવરણ	-4311
▁નાબૂ	-4312
▁વાતાવરણ	-4313
હર	-4314
▁પ્રકાશન	-4315
▁હોસ્પિટલ	-4316
▁અપનાવવામાં	-4317
ીઓ	-4318
▁બુ	-4319
▁ક્લો	-4320
▁લક્ષ્ય	-4321
▁યો	-4322
▁દાય	-4323
▁માનીએ	-4324
▁એકીકૃત	-4325
▁રાજ્યોમાં	-4326
▁માતાપ	-4327
▁થોડા	-4328
▁મકાનમાલિક	-4329
▁અદાલતોએ	-4330
▁ફરિયાદીએ	-4331
ઇસ	-4332
▁ભરવા	-4333
▁આસ	-4334
▁માત્રા	-4335
▁વધારવામાં	-4336
▁g	-4337
▁આના	-4338
વિધાન	-4339
▁ડિજિટ	-4340
▁સર્વોચ્ચ	-4341
ષ્ઠા	-4342
▁ઉભો	-4343
▁મોટાભાગના	-4344
સોટી	-4345
વાલ	-4346
માન્ય	-4347
▁રહેવાસી	-4348
▁આંધ્રપ્રદેશ	-4349
▁કસોટી	-4350
તંત્ર્ય	-4351
ક્ટરી	-4352
▁રાઇટ	-4353
▁જીવંત	-4354
▁બનાવેલા	-4355
▁સંગઠન	-4356
▁અલ્	-4357
રાબ	-4358
####	-4359
▁ફાળવવામાં	-4360
▁મંચ	-4361
▁બેદરકારી	-4362
▁જેનું	-4363
ાવવાની	-4364
▁માધ્યમ	-4365
ાચાર	-4366
▁મિન	-4367
▁જેટલી	-4368
શિ	-4369
િનલ	-4370
▁વાદીએ	-4371
ચિ	-4372
▁વિભા	-4373
▁......	-4374
▁પાર્ટ	-4375
▁ઘા	-4376
▁તેટ	-4377
મકી	-4378
▁આવતો	-4379
▁સિવાયના	-4380
▁સ્વાતંત્ર્ય	-4381
લિંગ	-4382
▁તેલ	-4383
ંદન	-4384
▁એસે	-4385
▁શકાતા	-4386
▁આદેશની	-4387
▁રાખવાનો	-4388
▁શબ્દનો	-4389
▁થતા	-4390
▁શરીર	-4391
વ્ર	-4392
▁કંપનીની	-4393
▁જાહેરનામા	-4394
▁ન્યાયાધીશને	-4395
▁ઓર્ડરને	-4396
ઠી	-4397
ગ્રાફ	-4398
▁રાખ્યું	-4399
▁મંજૂરીની	-4400
▁ડબ્લ્યુ	-4401
▁ટ્રિબ્યુનલના	-4402
se	-4403
▁નેશનલ	-4404
▁અમાન્ય	-4405
▁સ્ટેન્ડ	-4406
▁ફ્રે	-4407
લ્ડિંગ	-4408
▁સાથી	-4409
મંત	-4410
▁યુનિટ	-4411
બંધાર	-4412
▁સમયમાં	-4413
▁હાઇકોર્ટમાં	-4414
▁ન્યુ	-4415
ઝન	-4416
નોના	-4417
પરેટ	-4418
શંક	-4419
▁ગ્રામ	-4420
▁સંતુષ્ટ	-4421
▁કાં	-4422
▁ટેક્	-4423
▁ફટકારી	-4424
મૃત	-4425
▁જોયું	-4426
▁જ્યુડિશિયલ	-4427
ચો	-4428
▁ફાં	-4429
▁ત્રાસ	-4430
▁Of	-4431
બીજા	-4432
ક્ષીને	-4433
▁મુકવામાં	-4434
▁વ્યાપારી	-4435
▁કરીશું	-4436
▁ફોટો	-4437
▁અદાલતોના	-4438
▁અંશ	-4439
▁સંકળાયેલા	-4440
▁કાર્યવાહીનો	-4441
▁v	-4442
પોઝ	-4443
▁આઠ	-4444
▁પ્રશ્નના	-4445
▁સમજી	-4446
▁પરસ્પર	-4447
▁ઇંગ	-4448
▁કેડર	-4449
▁સ્વરૂપમાં	-4450
▁વિભાવના	-4451
▁માલિકીની	-4452
કંપની	-4453
▁કાર્યક્રમો	-4454
▁શોષ	-4455
▁તીવ્ર	-4456
લાઇન	-4457
▁દાયકા	-4458
▁મિલિયન	-4459
▁સહન	-4460
▁બનેલા	-4461
▁શસ્ત્ર	-4462
અને	-4463
▁મૃત્યુદંડ	-4464
▁ઉપયોગી	-4465
▁સંવિધાન	-4466
▁જતા	-4467
▁નદી	-4468
▁બાકીની	-4469
▁આથી	-4470
▁કિલ	-4471
▁બાળક	-4472
▁હેન્ડ	-4473
▁સંસદના	-4474
▁પૂર્વવર્તી	-4475
▁ઇજને	-4476
▁આસપાસ	-4477
▁ઇક્વિટી	-4478
▁વિરુધ્ધ	-4479
૧૧	-4480
શુ	-4481
▁જવાબમાં	-4482
ાવતરા	-4483
▁અંતર	-4484
્રક્ચર	-4485
▁Industrial	-4486
રોના	-4487
am	-4488
▁તકે	-4489
▁આમાં	-4490
▁તેણીને	-4491
▁રાજ્યપા	-4492
વવી	-4493
▁તપાસની	-4494
▁નિયમનકારી	-4495
ભાઇ	-4496
▁જંગ	-4497
▁વિસર્જન	-4498
▁સંસ્કરણ	-4499
▁રિલ	-4500
મિલ	-4501
મિશન	-4502
▁ગુનામાં	-4503
▁મથ	-4504
▁માઇન	-4505
▁અધિકારના	-4506
▁તળ	-4507
▁સ્ટા	-4508
▁પરિષદ	-4509
▁કાવતરા	-4510
▁જાતે	-4511
▁આવકના	-4512
ડીઆર	-4513
▁અજમાય	-4514
▁ખોટું	-4515
▁દક્ષિણ	-4516
ન્ના	-4517
▁ચોરસ	-4518
▁પ્રેક્ટ	-4519
ci	-4520
ંદુ	-4521
દનશીલ	-4522
▁સૂચનાઓ	-4523
▁પીડબલ્યુ	-4524
▁નમૂ	-4525
▁કમ્પ	-4526
▁બતાવવામાં	-4527
વર્તિત	-4528
▁પક્ષોને	-4529
એટ	-4530
▁કાગ	-4531
સ્થાપિત	-4532
▁આચાર્ય	-4533
▁ન્યાયની	-4534
▁વેલ	-4535
હત્યા	-4536
▁અધિકારનો	-4537
,000	-4538
▁હકીકતો	-4539
▁કક્ષા	-4540
▁પહેલી	-4541
ૃતિ	-4542
▁રાય	-4543
▁પૂરક	-4544
વીય	-4545
િતાની	-4546
▁પરિબળો	-4547
ૂહિક	-4548
▁પંચાયત	-4549
▁સામૂહિક	-4550
▁માથા	-4551
્રાસ્ટ	-4552
▁માંગે	-4553
▁કરનારાઓ	-4554
▁પોસ્ટ્સ	-4555
જવણી	-4556
▁રાહ	-4557
▁ડિસ્ટ	-4558
▁બેંકો	-4559
१४	-4560
▁ઓળખા	-4561
▁મૂલ્યો	-4562
ીન	-4563
ભાસી	-4564
પ્રતિ	-4565
▁શોધવા	-4566
▁ઝો	-4567
વાજ	-4568
▁સત્તાઓ	-4569
▁વ્યક્તિએ	-4570
▁જોગવાઈઓનો	-4571
ાંત	-4572
▁આપણને	-4573
▁આર્બિટ્રલ	-4574
▁ઉત્પાદિત	-4575
▁આવું	-4576
▁ચાર્ટ	-4577
▁ચિહ્ન	-4578
▁ક્રૂર	-4579
▁રહેલી	-4580
▁ખુલ્લું	-4581
પક્ષીય	-4582
▁નિષ્ણાત	-4583
પ્તી	-4584
ટ્સ	-4585
▁ખુલાસો	-4586
્યુટર	-4587
▁ગુપ્તા	-4588
▁ખાતામાં	-4589
▁મેળવવાનો	-4590
્યાન	-4591
▁ગર્ભ	-4592
▁ઓગસ્ટ	-4593
▁બચાવવા	-4594
▁સભ્યોને	-4595
▁પ્રોત્સાહિત	-4596
▁ધમકી	-4597
▁વાતચી	-4598
▁સ્રોત	-4599
▁કંપનીને	-4600
▁ગુરુ	-4601
▁ટાઇગર	-4602
▁નમૂના	-4603
▁જોગવાઈને	-4604
▁અજા	-4605
▁અપાયેલી	-4606
નસ	-4607
▁ગેસ	-4608
▁તકો	-4609
અથવા	-4610
▁અજમાયશ	-4611
લયો	-4612
▁આઈએ	-4613
િબદ્ધ	-4614
▁પુનર્વ	-4615
▁ફરિયાદીની	-4616
૧૨	-4617
ગીર	-4618
▁ક્ષેત્રે	-4619
▁આર્બિટ્રેટર	-4620
ંગિક	-4621
▁ખોરા	-4622
▁શંકાસ્પદ	-4623
ંવાર	-4624
▁અલી	-4625
▁આરોપીના	-4626
▁સંજોગોને	-4627
▁વિધાનસભાની	-4628
▁ટક	-4629
અર	-4630
સ્ક	-4631
રીના	-4632
્રિયા	-4633
▁યોજનાની	-4634
▁સંકેત	-4635
▁પડ્યો	-4636
▁મુદ્દે	-4637
▁સાક્ષીઓના	-4638
▁કટ	-4639
રેન્ડ	-4640
▁સજ્જ	-4641
▁સમજાવ	-4642
▁કરવાને	-4643
▁કરારને	-4644
કુલ	-4645
નિંગ	-4646
લેજો	-4647
▁એસ્ટેટ	-4648
▁વારંવાર	-4649
▁દૂ	-4650
▁જાણીતા	-4651
▁રાત્ર	-4652
▁વિદ્યાર્થીઓને	-4653
ાડ	-4654
▁પાક	-4655
▁સ્વીકૃત	-4656
▁પ્રોજેક્ટ્સ	-4657
▁લેવું	-4658
ખ્યાત	-4659
▁પ્રમુખ	-4660
▁સાઇટ	-4661
▁પ્રોગ્રામ	-4662
▁ખરાબ	-4663
▁કેટેગરીમાં	-4664
▁નેન	-4665
▁પ્રતી	-4666
ate	-4667
▁એક્સચે	-4668
▁આમંત્રણ	-4669
▁કરાયેલી	-4670
▁જોગવાઈમાં	-4671
▁હરીફ	-4672
▁પરિવારના	-4673
▁:	-4674
▁ડિઝાઇ	-4675
▁વિવાદમાં	-4676
▁વિરોધાભાસી	-4677
સિંહે	-4678
▁વિદ્યાર્થીઓ	-4679
▁રિઝર્વ	-4680
લાંગ	-4681
▁વળી	-4682
▁અટકાવ	-4683
▁ક્લોઝ	-4684
▁પુરાવાના	-4685
▁વિધાનસભાના	-4686
ફત	-4687
ટિંગ	-4688
▁કાર્	-4689
▁પોલિ	-4690
▁રસ્તા	-4691
▁વર્ણન	-4692
▁ઓર	-4693
▁વકીલે	-4694
▁વિશેષા	-4695
ડિઓ	-4696
ન્દર	-4697
ep	-4698
▁કાર્ડ	-4699
▁કોર્સ	-4700
▁સમયથી	-4701
▁અંગેનો	-4702
▁સીઆરપીસી	-4703
▁ડેપ	-4704
▁નજીકના	-4705
▁પ્રયોગ	-4706
▁અપમાન	-4707
▁વ્યવસાયના	-4708
▁એસી	-4709
▁છાપ	-4710
▁બોલતા	-4711
▁રાખતા	-4712
▁હિતની	-4713
▁દૃષ્ટિકોણથી	-4714
▁મામલા	-4715
▁આક્ષેપો	-4716
▁ગેઝેટમાં	-4717
▁ધારાસભ્યો	-4718
▁ટૂંકા	-4719
▁અપાયેલા	-4720
▁સૂચવ્યા	-4721
▁સ્ત્ર	-4722
▁હુકમને	-4723
▁માઇનિંગ	-4724
▁સફળતા	-4725
ઉટ	-4726
▁જેમની	-4727
▁બનાવશે	-4728
સમ	-4729
જ્યુ	-4730
▁હિસા	-4731
▁મેમોરેન્ડ	-4732
ંદા	-4733
▁એટલું	-4734
▁પરંપરાગત	-4735
વાસી	-4736
િક્સ	-4737
▁ટકાઉ	-4738
▁માણસ	-4739
▁ટકાવી	-4740
▁મિત્ર	-4741
ગ્રે	-4742
od	-4743
પીએસ	-4744
▁નગર	-4745
▁માનવા	-4746
▁લાં	-4747
▁શક્યા	-4748
▁નોંધાવી	-4749
▁ઇરાદાપૂર્વક	-4750
▁સૈ	-4751
▁બાબતોના	-4752
▁સંવેદનશીલ	-4753
ad	-4754
▁તમિ	-4755
કત્તા	-4756
▁અનિશ્ચિત	-4757
▁પર્યાપ્ત	-4758
▁માને	-4759
▁નિર્દેશન	-4760
▁બદલા	-4761
▁પ્રોસિ	-4762
▁પાલ	-4763
વણ	-4764
▁મીટર	-4765
ollege	-4766
▁આંકડા	-4767
▁શક્યો	-4768
▁સંભોગ	-4769
▁એન્જિનિયરિંગ	-4770
મેળ	-4771
▁દબ	-4772
▁ડિલ	-4773
▁ભાગને	-4774
▁કપ	-4775
રોમાં	-4776
સ્થ્ય	-4777
વાઈ	-4778
▁ફ્લેટ	-4779
▁બાબતની	-4780
વેર	-4781
▁વાય	-4782
▁ક્રા	-4783
▁ફાઇના	-4784
▁શહેરી	-4785
ud	-4786
▁પામ	-4787
ુક્તિ	-4788
▁મોડેલ	-4789
▁ચિંત	-4790
▁માંગી	-4791
▁હોદ્દા	-4792
સ્તુત	-4793
▁એકંદર	-4794
▁મહિલાઓ	-4795
▁પ્રદર્શ	-4796
▁ઉત્તરદાતાઓએ	-4797
▁at	-4798
▁પકડ	-4799
▁નેટવર્ક	-4800
▁બંધાયેલા	-4801
ટીએ	-4802
▁ગુણોત્તર	-4803
▁તત્	-4804
▁ગ્રાન્ટ	-4805
▁પ્રોસિજર	-4806
વસ્તુ	-4807
▁કેસનો	-4808
▁પ્રદૂ	-4809
▁વિકલાંગ	-4810
ધારણ	-4811
▁દૈનિક	-4812
▁શકાશે	-4813
▁સ્વાસ્થ્ય	-4814
વેટ	-4815
▁ધરી	-4816
▁જાણે	-4817
મર	-4818
▁અરજીનો	-4819
▁fir	-4820
ન્ટે	-4821
▁પ્રક્રિયાના	-4822
▁વળવા	-4823
જાગ	-4824
▁પ્લ	-4825
▁આને	-4826
▁ફરિયાદીને	-4827
▁બસ	-4828
▁ઓફિસર	-4829
▁ક્રિમ	-4830
▁સૂચવેલા	-4831
▁એકબીજા	-4832
તોની	-4833
ત્મા	-4834
▁સેબી	-4835
રમ	-4836
▁વિસ્ફોટ	-4837
▁કાળજીપૂર્વક	-4838
હેર	-4839
દુપ	-4840
નનો	-4841
▁કું	-4842
▁સામગ્રીની	-4843
ચીન	-4844
▁ગણાવી	-4845
્રાસ્ટ્રક્ચર	-4846
શોર	-4847
▁ઇરાદો	-4848
▁ઉઠાવવામાં	-4849
ગિત	-4850
▁વર્ષોમાં	-4851
▁સંડો	-4852
▁મુસાફરી	-4853
ul	-4854
▁વાતચીત	-4855
▁મૃત્યુદંડની	-4856
બાઈ	-4857
ાળી	-4858
▁પક્ષને	-4859
▁સ્થગિત	-4860
વતી	-4861
▁હંમેશા	-4862
▁સોગંદનામા	-4863
▁નહોતું	-4864
▁વ્યાજબી	-4865
▁ફાર્	-4866
▁હિંસા	-4867
▁દલીલને	-4868
▁તપાસમાં	-4869
▁વિશેષાધિકાર	-4870
મારી	-4871
▁બહા	-4872
▁ડિલિવ	-4873
સ્પેક્ટર	-4874
▁રેગ્યુલેશન	-4875
એમસી	-4876
▁જનર	-4877
▁કોન્	-4878
▁ટ્રેડ	-4879
▁અનુસૂચિ	-4880
▁સબમિશંસ	-4881
▁ભજ	-4882
▁ધારા	-4883
▁રહેણાંક	-4884
▁સુનાવણીની	-4885
▁ob	-4886
▁આગળના	-4887
▁વેસ્ટ	-4888
ભારી	-4889
▁પાછી	-4890
▁આગામી	-4891
▁રોકવા	-4892
▁ભૂતકાળ	-4893
ેશનમાં	-4894
▁કૃષ્ણ	-4895
▁ખ્યાલ	-4896
▁તદુપ	-4897
▁મૂકે	-4898
▁તદુપરાંત	-4899
▁ખત	-4900
ટૂંકમાં	-4901
્યંત	-4902
▁be	-4903
ન્યાય	-4904
▁પારદર્શ	-4905
▁અરજદારોએ	-4906
▁જનજાતિ	-4907
▁બન્યું	-4908
▁સાંક	-4909
▁લાંબી	-4910
▁નાયબ	-4911
▁છૂટાછે	-4912
▁ગ્રેડ	-4913
▁સેવાના	-4914
જિ	-4915
▁અવગણ	-4916
▁મેનેજર	-4917
▁વાંચવા	-4918
▁સાય	-4919
▁કલકત્તા	-4920
▁રિલાયન્સ	-4921
▁it	-4922
▁માફી	-4923
ઠો	-4924
▁IV	-4925
▁આદેશથી	-4926
▁રૂપમાં	-4927
▁y	-4928
▁મની	-4929
શ્રી	-4930
▁વકીલો	-4931
▁એક્ટમાં	-4932
▁પરીક્ષામાં	-4933
▁મધ્યપ્રદેશ	-4934
▁પાડી	-4935
▁રાખવો	-4936
▁રાષ્ટ્રપતિની	-4937
િડ	-4938
▁is	-4939
ract	-4940
શિષ્ટ	-4941
▁સહિતની	-4942
▁થવાનો	-4943
▁નોંધનીય	-4944
▁ફરિયાદીના	-4945
op	-4946
▁વિનિ	-4947
▁સમયાંત	-4948
ગ્ન	-4949
▁અંશત	-4950
બંધારણીય	-4951
▁સમયાંતરે	-4952
▁ભો	-4953
▁અજાણ	-4954
▁દેશો	-4955
▁યોજનામાં	-4956
▁દેશોમાં	-4957
▁અબ્દ	-4958
▁આવ્યાં	-4959
.&	-4960
der	-4961
પ્રાઇઝ	-4962
▁નામના	-4963
▁ફાયદો	-4964
▁વચ્ચેની	-4965
▁તર્કસંગત	-4966
▁વર્ષો	-4967
▁આટ	-4968
▁જપ્તી	-4969
▁મર્યાદામાં	-4970
▁પરિસ્થિતિમાં	-4971
fer	-4972
સામ	-4973
▁પછા	-4974
▁આવકની	-4975
▁ભાગની	-4976
▁તાજેતરના	-4977
િકે	-4978
▁તિર	-4979
▁સુધારવા	-4980
▁મેળવવામાં	-4981
▁ખંડ	-4982
િતાના	-4983
▁વિનિમય	-4984
દરા	-4985
▁જથ્થા	-4986
▁પહોંચ્યા	-4987
રાય	-4988
ાસત્તા	-4989
▁જટિલ	-4990
ળનાડુ	-4991
all	-4992
▁રમ	-4993
િકરણ	-4994
▁નજર	-4995
▁ઇન્સ	-4996
▁ઓર્ડરની	-4997
▁રાવ	-4998
▁નિવાસ	-4999
▁ભથ્થા	-5000
▁નિર્ણયના	-5001
જરૂ	-5002
▁by	-5003
▁આત્મહત્યા	-5004
▁મફત	-5005
▁ચંદ્ર	-5006
▁અભિનંદન	-5007
▁મોર્ટગેજ	-5008
મિનિસ્ટ	-5009
ૈયા	-5010
મ્મુ	-5011
સ્કૃતિક	-5012
▁ફાઇનાન્સ	-5013
▁ડ્ર	-5014
▁બાય	-5015
▁સંકળાયેલ	-5016
▁એકમો	-5017
▁રાત્રે	-5018
▁તમિળનાડુ	-5019
▁કમા	-5020
▁કબજામાં	-5021
▁રેગ્યુલેશન્સ	-5022
લતવી	-5023
▁બ્રા	-5024
▁અવધિમાં	-5025
▁યોજનાના	-5026
રેલા	-5027
▁પદ્ધતિઓ	-5028
▁XX	-5029
▁આપતો	-5030
મંત્રી	-5031
▁નાબૂદ	-5032
▁નીતિના	-5033
▁તિરસ્કાર	-5034
▁ઓફર	-5035
▁હાજરીમાં	-5036
થો	-5037
▁આંખ	-5038
▁ગ્રુપ	-5039
નાત	-5040
▁બુક	-5041
જરૂરી	-5042
સુધાર	-5043
▁અદાલતનો	-5044
▁ઉઠાવ	-5045
▁ઓપરેશન	-5046
▁કેન્દ્રો	-5047
▁ભ્રષ્ટાચાર	-5048
કફ	-5049
▁શુદ્ધ	-5050
નિયમ	-5051
▁ભગવા	-5052
▁આપનારને	-5053
▁અધિગ્રહ	-5054
▁વેચાણની	-5055
▁શિક્ષકો	-5056
▁મુકાય	-5057
▁બાદમાં	-5058
▁માલિકો	-5059
▁કસ્ટમ્સ	-5060
નોમાં	-5061
▁પેપર	-5062
▁બદલામાં	-5063
▁પેન્ડિંગ	-5064
▁પૂર્વે	-5065
▁સુપ્રા	-5066
▁જણાવેલા	-5067
▁અપીલોમાં	-5068
▁નિયુક્તિ	-5069
▁ન્યાયતંત્રની	-5070
▁તપાસના	-5071
▁સાક્ષીની	-5072
ess	-5073
ણૂક	-5074
ુણા	-5075
▁આખા	-5076
દાતાને	-5077
▁પક્ષના	-5078
▁મુલતવી	-5079
▁વસ્તુઓ	-5080
▁ભે	-5081
▁ફિલ્	-5082
▁પોલીસે	-5083
▁વિસંગત	-5084
▁મહિનાના	-5085
▁વર્ગીકૃત	-5086
▁સ્પર્ધાત્મક	-5087
ડય	-5088
▁ખેતી	-5089
જાસત્તા	-5090
તૃ	-5091
▁ષ	-5092
કોઈ	-5093
કેશન	-5094
▁મેમણ	-5095
▁રોકાયેલા	-5096
લ્ક	-5097
▁રમત	-5098
▁ખનિજ	-5099
ડયંત્ર	-5100
▁એન્ટર	-5101
▁દેખાય	-5102
▁મંડળી	-5103
મર્યા	-5104
લર	-5105
સિસ	-5106
ભર્યા	-5107
▁ષડયંત્ર	-5108
-0	-5109
એસઆઈ	-5110
▁થોડી	-5111
▁વર્ષનો	-5112
▁પ્રશ્ના	-5113
il	-5114
▁છુપ	-5115
▁નાગ	-5116
વિચાર	-5117
▁ખર્ચની	-5118
▁વિભાગો	-5119
▁સિંચ	-5120
▁સસ્પે	-5121
▁પ્રજાસત્તા	-5122
▁માર્કેટિંગ	-5123
▁ઇલેક્ટ્રોનિક	-5124
▁રિમાન્ડ	-5125
વાસ	-5126
ભૂતિ	-5127
હાબાદ	-5128
▁સ્ટોક	-5129
ઇમ	-5130
▁એક્સચેંજ	-5131
▁દસ્તાવેજી	-5132
▁માન્યતાને	-5133
▁ઘટક	-5134
▁હિમા	-5135
▁લગાવી	-5136
▁જીવનની	-5137
▁અદાલતોમાં	-5138
▁ઓરિ	-5139
▁નફો	-5140
▁પછાત	-5141
▁લઘુમતી	-5142
ંખ	-5143
પક્ષ	-5144
સ્લિ	-5145
▁ડિલિવરી	-5146
હોલ્ડ	-5147
▁પ્રેક્ટિસ	-5148
નાડુ	-5149
ુંદર	-5150
▁પ્રોવિઝો	-5151
▁ભાડે	-5152
▁દરિયા	-5153
▁ઘટનામાં	-5154
▁તથ્યોને	-5155
▁મેળવ્યો	-5156
▁સંઘર્ષ	-5157
રેરાશ	-5158
▁ખુલ્લી	-5159
મૂલ	-5160
▁પીટી	-5161
▁સંકલન	-5162
▁વેચાણના	-5163
▁અધિકારક્ષેત્રને	-5164
ડેટ	-5165
▁અવે	-5166
▁firm	-5167
▁નીકળ	-5168
▁જોગવાઈઓની	-5169
ત્રા	-5170
નોને	-5171
▁કાવ	-5172
▁ચહે	-5173
▁સપોર્ટ	-5174
▁યોજનાને	-5175
▁હોલ્ડિંગ	-5176
એસી	-5177
▁ભય	-5178
▁ખોટ	-5179
▁નિર્ણયનો	-5180
▁ભાગ્યે	-5181
▁સેક્શન	-5182
▁કર્મચારીને	-5183
▁બનાવટી	-5184
▁પગલું	-5185
▁વિકાસને	-5186
▁ચુકાદાથી	-5187
▁મતદાન	-5188
▁કુશળતા	-5189
▁ત્રીજી	-5190
▁કામદારો	-5191
);	-5192
ણાં	-5193
સ્થી	-5194
▁ચુકવણીની	-5195
૧૦	-5196
પ્રે	-5197
▁ગોળી	-5198
▁દંડનીય	-5199
▁રહેવું	-5200
ટેલ	-5201
▁અપીલકારોએ	-5202
of	-5203
▁વહ	-5204
ચ્ચાર	-5205
તાઓને	-5206
ધિકૃત	-5207
ંચા	-5208
ધાની	-5209
▁વિવાદિત	-5210
▁સંસ્થાના	-5211
▁સંપત્તિનો	-5212
▁પેટ્રોલ	-5213
તોના	-5214
▁શેખ	-5215
▁સ્પી	-5216
▁મીડિયા	-5217
િયત	-5218
▁સગ	-5219
સીએલ	-5220
▁અપના	-5221
▁પસંદગીની	-5222
▁પ્રખ્યાત	-5223
ch	-5224
્રમ	-5225
▁લોકસ	-5226
▁માંથી	-5227
▁માસિક	-5228
▁સંભવત	-5229
▁પ્રાચીન	-5230
▁અદાલતોની	-5231
▁પ્રકૃતિના	-5232
▁અર્ધ	-5233
▁દસ્તાવેજોની	-5234
ટીના	-5235
▁મોત	-5236
▁કેન્દ્રિય	-5237
ંકર	-5238
▁ઉંમર	-5239
▁દુષ્	-5240
▁નિરા	-5241
▁બનવા	-5242
▁રાખશે	-5243
▁માન્યું	-5244
▁વિસ્તારમાં	-5245
▁;	-5246
▁ગણા	-5247
▁સરેરાશ	-5248
▁અંદાજ	-5249
▁લાક્ષણિક	-5250
▁અપીલો	-5251
▁બોર્ડના	-5252
▁કેસોની	-5253
્યૂલ	-5254
▁નબળા	-5255
▁મુજબના	-5256
▁બેગ	-5257
▁વચન	-5258
શિયા	-5259
▁રોડ	-5260
▁સદી	-5261
▁ભાડુઆત	-5262
▁ફેક્ટરી	-5263
▁પરિણ	-5264
▁સગીર	-5265
▁રજૂઆતને	-5266
▁નિમણૂકની	-5267
▁નાન	-5268
▁સૂચિબદ્ધ	-5269
▁વારસ	-5270
મર્યાદા	-5271
▁ટાંકવામાં	-5272
▁સાંસ્કૃતિક	-5273
▁બેઠકો	-5274
▁સમન્સ	-5275
▁વિવાદના	-5276
▁વાંચવામાં	-5277
▁ચલાવી	-5278
▁જેમને	-5279
▁લોકોએ	-5280
▁આપનારા	-5281
▁નાગરિકો	-5282
સંહ	-5283
શ્મી	-5284
ભાવિક	-5285
▁ક્રિમિનલ	-5286
નાના	-5287
▁એકે	-5288
▁સચિ	-5289
નલાઇન	-5290
પાર્ટ	-5291
▁અખબાર	-5292
▁સુસંગતતા	-5293
▁લંબ	-5294
▁દીધા	-5295
▁બીસી	-5296
▁મિશન	-5297
▁ધંધા	-5298
▁હાકલ	-5299
▁પાસાઓ	-5300
.-	-5301
ણેય	-5302
▁પવ	-5303
▁સહમત	-5304
▁ચૌધરી	-5305
▁દીધું	-5306
▁દેવ	-5307
▁સર્ટ	-5308
▁ગ્રાહકો	-5309
▁આશરો	-5310
▁અનુભ	-5311
▁આજ	-5312
કરાર	-5313
▁અરજીના	-5314
▁ક્રમમાં	-5315
▁સિવાયની	-5316
▁સોગંદનામું	-5317
▁સ્ટાફ	-5318
મિલનાડુ	-5319
▁ન્યાયાધીશોના	-5320
▁એજન્સીઓ	-5321
▁પુરસ્કાર	-5322
▁ગેરબંધારણીય	-5323
id	-5324
▁ટકાવારી	-5325
આરએ	-5326
તરું	-5327
્રિક્ટ	-5328
▁સુંદર	-5329
ક્ષિપ્ત	-5330
▁પ્રેરણા	-5331
▁સોંપાયેલ	-5332
▁દર્શાવવામાં	-5333
શ્વાસ	-5334
▁અતિશય	-5335
▁અડ	-5336
▁અંતે	-5337
▁એડવા	-5338
▁ત્રણેય	-5339
▁ત્યાંથી	-5340
▁ઇન્સ્ટિટ	-5341
▁ફાંસીની	-5342
ચંદ્ર	-5343
▁અસ્થાયી	-5344
१५	-5345
ઓવર	-5346
▁[]	-5347
પિંગ	-5348
વિડ	-5349
ીકરણ	-5350
ેટરી	-5351
▁જમ્મુ	-5352
▁મુસ્લિ	-5353
▁કાવતરું	-5354
▁યુનિવર્સિટીઓ	-5355
ત્વા	-5356
બાઇલ	-5357
▁સ્થળોએ	-5358
▁જોગવાઈની	-5359
ફિક	-5360
▁શકતું	-5361
▁સ્વાભાવિક	-5362
ંગી	-5363
▁ઘટકો	-5364
▁સલામત	-5365
▁મેન્યુ	-5366
▁સુધીની	-5367
▁પોલીસને	-5368
▁અનુલ	-5369
▁સાવચે	-5370
્ટા	-5371
આરટી	-5372
▁સંડોવણી	-5373
▁ડેપ્યુટી	-5374
▁નકારાત્મક	-5375
▁સંક્ષિપ્ત	-5376
શક્તિ	-5377
▁બનેલી	-5378
▁શેડ્યૂલ	-5379
▁અસરગ્રસ્ત	-5380
એક	-5381
▁ઇશ	-5382
▁મોકલી	-5383
▁સાધનો	-5384
▁વાંચેલા	-5385
▁બનાવવાનો	-5386
દિક	-5387
▁ભી	-5388
▁બેંગ	-5389
્રિક્સ	-5390
▁ઉપરની	-5391
▁ઉત્તરા	-5392
▁જરૂરિયાતો	-5393
▁વર	-5394
▁આપેલી	-5395
▁ચિહ્નિત	-5396
▁આતંકવાદી	-5397
▁મેળવવાની	-5398
નએ	-5399
▁રિસ	-5400
જાગ્ર	-5401
▁લાદવાની	-5402
▁વિકૃત	-5403
તિહાસિક	-5404
▁દુર્લભ	-5405
▁દેવાની	-5406
દેવ	-5407
ભાષ	-5408
ક્ષેપ	-5409
▁ભાગો	-5410
▁સીધો	-5411
▁કરનારના	-5412
સ્વા	-5413
▁તત્કા	-5414
▁જમીનને	-5415
▁જીવનના	-5416
▁બાબતોની	-5417
દય	-5418
▁ener	-5419
▁પવિત્ર	-5420
▁સામેના	-5421
▁મેદા	-5422
▁અહીંના	-5423
▁આચારસંહ	-5424
્યૂટ	-5425
▁કરની	-5426
▁મહેન	-5427
▁energy	-5428
▁કાર્યકાળ	-5429
▁કેદી	-5430
▁સબસિ	-5431
▁સભાન	-5432
▁પ્રસાદ	-5433
▁સકારાત્મક	-5434
▁એન્ટરપ્રાઇઝ	-5435
િતતા	-5436
▁કિલો	-5437
▁અહે	-5438
▁શોષણ	-5439
▁ઉત્તે	-5440
કાયુક્ત	-5441
▁પ્રદૂષણ	-5442
▁હુકમમાં	-5443
▁ચીજ	-5444
▁સમાજમાં	-5445
▁સંસ્થાઓમાં	-5446
▁દયા	-5447
▁જોતા	-5448
▁ટૂંકમાં	-5449
▁બનાવ્યો	-5450
▁વહેલી	-5451
▁સ્વીકારવા	-5452
▁સુટ	-5453
▁એન્ટિટી	-5454
આરઆઈ	-5455
▁ખાદ્ય	-5456
▁મધ્યસ્થી	-5457
▁ઇસ્	-5458
▁અબ્દુલ	-5459
▁બોર્ડની	-5460
▁ખેડ	-5461
▁કેને	-5462
▁ગરીબ	-5463
▁અનુસરે	-5464
▁ગેરંટી	-5465
▁કાઉન્ટર	-5466
▁તુલનામાં	-5467
સીને	-5468
▁કને	-5469
▁બહે	-5470
▁એપીલ	-5471
▁ભાગીદાર	-5472
ટોક	-5473
પૂર	-5474
▁સમર્	-5475
▁ડિસ્ટ્રિક્ટ	-5476
▁ધી	-5477
▁મિકે	-5478
▁સાચા	-5479
▁અરજીઓને	-5480
▁ઉદ્યોગો	-5481
▁બાળકોને	-5482
િસિટર	-5483
▁મૃતદે	-5484
▁બન્યા	-5485
▁લક્ષણ	-5486
ર્સની	-5487
▁નકાર	-5488
▁મોહન	-5489
▁ભારતી	-5490
▁અધિગ્રહણ	-5491
▁સુનાવણીમાં	-5492
▁કામના	-5493
▁પ્રત્યેક	-5494
▁ન્યાયાધીશના	-5495
ંચી	-5496
▁દળ	-5497
મ્બલી	-5498
▁લેતી	-5499
▁કરનારી	-5500
▁નોંધાવ	-5501
▁ક્ષમતામાં	-5502
▁અનુલક્ષીને	-5503
પોઝિટ	-5504
યોજિત	-5505
▁પીડા	-5506
▁અનુસંધા	-5507
જીએ	-5508
▁સોલિસિટર	-5509
▁કમ્પ્યુટર	-5510
▁સચોટ	-5511
▁ઠેરવ્યા	-5512
▁ચાલી	-5513
▁ડાયરે	-5514
▁અરજદારોને	-5515
▁r	-5516
ફરન્સ	-5517
▁ડોકટ	-5518
▁ડિઝાઇન	-5519
▁બંદ	-5520
▁રુચિ	-5521
▁કોડની	-5522
્રપા	-5523
્રમણ	-5524
▁stand	-5525
▁સૂચવેલ	-5526
▁ટાડા	-5527
▁મિનિટ	-5528
▁અટકાવવા	-5529
▁પત્રમાં	-5530
▁ન્યાયાલય	-5531
વનમાં	-5532
હિત્ય	-5533
▁સ્વાય	-5534
▁અદાલતોને	-5535
શંકપણે	-5536
વિંગ	-5537
▁સમક	-5538
▁મુંબઇ	-5539
▁હતાં	-5540
▁બાબતને	-5541
▁કંટ	-5542
કાયદા	-5543
▁લોકસભા	-5544
▁સમકક્ષ	-5545
▁માતાપિતા	-5546
▁શિવ	-5547
▁સીલ	-5548
▁ઉપચાર	-5549
▁સંચાલ	-5550
▁છૂટાછેડા	-5551
ઝમ	-5552
પથ	-5553
કેર	-5554
ીતી	-5555
▁ગેરરી	-5556
▁જેનાથી	-5557
▁પૃષ્ઠભૂમિમાં	-5558
પયોગ	-5559
▁that	-5560
▁રોયલ	-5561
▁મહિને	-5562
▁ઇંગ્લે	-5563
▁ચીજવસ્તુ	-5564
▁બિનજરૂરી	-5565
ધ્યા	-5566
▁એપી	-5567
▁સંસદમાં	-5568
▁સમીક્ષાની	-5569
mal	-5570
▁અખંડ	-5571
▁અવાજ	-5572
▁લીધું	-5573
▁સાહિત્ય	-5574
▁એડમિનિસ્ટ	-5575
▁ફરિયાદમાં	-5576
▁આય	-5577
▁પ્રધા	-5578
▁પુનર્વસન	-5579
▁છઠ્	-5580
▁અનિયમ	-5581
▁પ્રમોશન	-5582
▁જૈન	-5583
▁અરજદારોની	-5584
▁અધિકારક્ષેત્રના	-5585
▁દાવાઓ	-5586
▁હિસાબ	-5587
▁સેન્ટર	-5588
▁સંસ્થાઓને	-5589
▁કિંમ	-5590
▁પ્રશ્ને	-5591
▁મેનેજિંગ	-5592
▁ફેંકી	-5593
▁ઘટનાની	-5594
▁વિકાસના	-5595
▁ઉત્તરદાતાએ	-5596
▁પાણીની	-5597
▁બેઠકમાં	-5598
▁એસેમ્બલી	-5599
ટર્સ	-5600
▁ફોરે	-5601
▁સામગ્રીના	-5602
▁ac	-5603
▁તિ	-5604
▁આશ્રય	-5605
▁વધારા	-5606
▁સ્કૂલ	-5607
▁અસાધારણ	-5608
▁વર્ષોથી	-5609
૨૨	-5610
▁4	-5611
રોજ	-5612
્રહ	-5613
▁પામે	-5614
લ્યુશન	-5615
▁મૃતકને	-5616
▁ભવિષ્યમાં	-5617
▁ઈન્	-5618
▁એટલી	-5619
▁સીમા	-5620
▁વસૂલવા	-5621
▁આદેશમાં	-5622
▁વાણિજ્યિક	-5623
igh	-5624
▁હૈ	-5625
દ્દી	-5626
▁એમએસ	-5627
▁ઘરની	-5628
▁ધારક	-5629
▁રક્ત	-5630
નમાંથી	-5631
▁કિશોર	-5632
▁નારાય	-5633
▁ભાષણ	-5634
▁અનુસરીને	-5635
▁પુનરાવર્તિત	-5636
▁વ્યાજની	-5637
વટે	-5638
પ્પા	-5639
▁ફોન	-5640
▁રેલ	-5641
▁આવેલું	-5642
▁દેખીતી	-5643
ear	-5644
▁પાના	-5645
▁સીસી	-5646
▁do	-5647
▁સ્ટીલ	-5648
▁નિવેદનની	-5649
▁નોન	-5650
▁નાખવામાં	-5651
નન્ટ	-5652
▁પ્રયત્ન	-5653
):	-5654
ut	-5655
૦૨	-5656
▁ટન	-5657
▁સંસાધન	-5658
▁દિલ્હીના	-5659
▁પુરાવાને	-5660
ay	-5661
ણિક	-5662
▁એસટી	-5663
▁છેવટે	-5664
▁જણાયું	-5665
▁ફટકારવામાં	-5666
▁ઇન્સ્ટિટ્યૂટ	-5667
▁સ્વચ્છ	-5668
▁ઉમેદવારોની	-5669
ith	-5670
▁વાર્	-5671
▁નિમણૂકો	-5672
▁અલ્હાબાદ	-5673
▁માહિતીના	-5674
▁મેમોરેન્ડમ	-5675
ctor	-5676
▁ન્યૂ	-5677
per	-5678
તાર	-5679
▁તૃ	-5680
ment	-5681
ચલાઉ	-5682
▁સાહસ	-5683
▁લેન્ડ	-5684
▁વિષયો	-5685
--------	-5686
▁કામચલાઉ	-5687
▁અધિકારીઓએ	-5688
▁વ્યવસાયમાં	-5689
▁સંભળ	-5690
▁વિભાજન	-5691
▁સત્તાને	-5692
ભૌ	-5693
▁ગુણા	-5694
▁દત્ત	-5695
▁અધિનિયમના	-5696
▁ડીએનએ	-5697
ran	-5698
▁આખી	-5699
▁તળાવ	-5700
▁પ્લે	-5701
▁મતદાર	-5702
▁ગ્રી	-5703
▁ટૂંક	-5704
▁લિક્વિ	-5705
▁પોર્ટ	-5706
ફંડ	-5707
િની	-5708
વેસ્ટ	-5709
વીને	-5710
▁હેતુને	-5711
▁કલાક	-5712
▁ભૂમિ	-5713
▁સમૂહ	-5714
▁પ્રીમ	-5715
▁સ્ત્રો	-5716
▁મૂકવાની	-5717
▁રચાયેલી	-5718
▁ટ્રિબ્યુનલને	-5719
▁સંબોધન	-5720
▁પ્રકૃતિની	-5721
▁સંધિ	-5722
▁અશક્ય	-5723
▁સારું	-5724
▁હોદ્દો	-5725
માણિક	-5726
▁જવાબો	-5727
▁પાણીના	-5728
▁અધિકારીઓના	-5729
▁Act	-5730
▁એડવાન્સ	-5731
આઈએલ	-5732
સિવિલ	-5733
▁કટોક	-5734
▁ઉદ્ભવે	-5735
▁દરમ્યાન	-5736
ત્રીપૂર્ણ	-5737
▁અભ્યાસક્રમો	-5738
▁અહ	-5739
▁વિશ્વના	-5740
▁સુધારેલી	-5741
▁શાહ	-5742
દ્યતન	-5743
▁વયના	-5744
▁વાદીને	-5745
▁રેકોર્ડ્સ	-5746
▁મૃતદેહ	-5747
શ્યૂ	-5748
▁જણાય	-5749
▁સેવક	-5750
▁પહોંચાડવા	-5751
ચુ	-5752
▁કોલેજો	-5753
▁અનધિકૃત	-5754
▁નિર	-5755
▁એમસી	-5756
▁લાવે	-5757
▁પ્લેટ	-5758
▁સાવચેતી	-5759
▁The	-5760
▁વહન	-5761
સ્તાન	-5762
▁formal	-5763
▁રાજ્યોના	-5764
▁ચોક	-5765
સ્ટ્રી	-5766
▁મંજૂર	-5767
▁અમલવારી	-5768
▁કદર	-5769
▁પરો	-5770
▁પડતી	-5771
કર્તાની	-5772
▁માનવું	-5773
▁મોબાઇલ	-5774
▁ગોપનીયતા	-5775
▁સંસ્થાની	-5776
▁શપથ	-5777
▁કાર્યા	-5778
▁ખુલ્લા	-5779
▁થવાનું	-5780
ચરણ	-5781
▁ધિરા	-5782
▁છૂટછા	-5783
▁સંબોધ	-5784
સ્ટ્રેલ	-5785
▁અદ્યતન	-5786
▁દ્રષ્ટિકોણ	-5787
▁ફોર્મમાં	-5788
▁પ્રશ્નાર્થ	-5789
▁રજુ	-5790
▁બેંકિંગ	-5791
▁સત્તાની	-5792
▁અવેજી	-5793
▁ભવનમાં	-5794
▁વિવાદને	-5795
▁સુધારેલ	-5796
▁યુનિવર્સિટીના	-5797
દરાબાદ	-5798
▁સમૃદ્ધ	-5799
વ્યવસ્થા	-5800
પાર્ટમેન્ટ	-5801
▁રજિસ્ટર્ડ	-5802
ઘાટન	-5803
▁નિશા	-5804
racted	-5805
▁છેલ્લ	-5806
▁લેફ્ટ	-5807
▁કેસોના	-5808
/0	-5809
ઝેક્શન	-5810
▁માસ્ટર	-5811
▁શક્તિના	-5812
સેસ	-5813
પ્રો	-5814
▁વિધ	-5815
▁વિભાગીય	-5816
▁પુરાવાઓને	-5817
▁થોડો	-5818
▁હાર્	-5819
▁પુનર્વિચાર	-5820
રીમાં	-5821
▁પ્રચ	-5822
ધિકારી	-5823
▁કોઈને	-5824
▁જણાવી	-5825
▁બંનેને	-5826
▁સંબંધોને	-5827
▁ઉમેદવારોને	-5828
▁ઉભી	-5829
▁વકફ	-5830
▁સમજણ	-5831
▁કરોડની	-5832
▁કંઈક	-5833
▁ઇશ્યૂ	-5834
▁કમિશનની	-5835
▁આકારણીના	-5836
▁તથ્યોના	-5837
▁સશસ્ત્ર	-5838
▁સંસ્થાઓની	-5839
▁પ્રતિનિધિઓ	-5840
કલમ	-5841
▁ઇકો	-5842
▁પ્રતિવાદીની	-5843
ઉત્	-5844
એસએ	-5845
▁Com	-5846
▁ગમે	-5847
▁કૃપા	-5848
▁નકલો	-5849
▁અગ્રણી	-5850
▁વાદીની	-5851
▁યોજાયેલી	-5852
▁ચૂંટાયેલા	-5853
ધડ	-5854
સ્ય	-5855
▁ઘણાં	-5856
▁ઉત્તમ	-5857
▁સબસિડી	-5858
▁અરજદારના	-5859
▁મર્યાદાના	-5860
સલા	-5861
▁આડે	-5862
▁ચિક	-5863
▁પેર	-5864
▁પ્રશ્નોના	-5865
▁માનવાધિકાર	-5866
▁In	-5867
▁પર્ય	-5868
▁ચહેરા	-5869
▁પૂરું	-5870
ાગત	-5871
▁આફ	-5872
▁ઉભ	-5873
▁ઓછો	-5874
▁ઇનપુ	-5875
▁હૈદરાબાદ	-5876
સ્વ	-5877
▁આડેધડ	-5878
▁સ્કેલ	-5879
▁નારાયણ	-5880
▁માળખાગત	-5881
બ્જેક્ટ્સ	-5882
▁સંસ્થાકીય	-5883
▁કોન્ટ્રાક્ટર	-5884
દુ	-5885
સુર	-5886
િયંત્ર	-5887
▁સમયના	-5888
▁બજારમાં	-5889
▁નામાંકિત	-5890
▁ફોટોગ્રાફ	-5891
▁અનુસંધાનમાં	-5892
▁જરૂરિયાતોને	-5893
બીર	-5894
▁બ્રો	-5895
▁દિશાઓ	-5896
▁પહોંચાડે	-5897
▁વિકાસની	-5898
▁રાષ્ટ્રપતિને	-5899
સૂ	-5900
III	-5901
જીસી	-5902
▁ખેડુ	-5903
▁બેલે	-5904
▁લાઇટ	-5905
▁કચ	-5906
▁રકમના	-5907
▁લેફ્ટનન્ટ	-5908
▁બોન્ડ	-5909
▁જોગવાઈના	-5910
પુરા	-5911
▁તત્વો	-5912
▁એમસીઆઈ	-5913
ભૌમ	-5914
શોક	-5915
▁doctor	-5916
▁કુલપતિ	-5917
▁જુનિયર	-5918
▁પીડિતા	-5919
▁બાળકને	-5920
▁વિક્રે	-5921
▁મહત્વનું	-5922
▁વરિષ્ઠતા	-5923
▁સંપત્તિમાં	-5924
▁અભિવ્યક્તિનો	-5925
શેષ	-5926
સ્ટો	-5927
▁તત્વ	-5928
▁ખોરાક	-5929
▁ગેરવર્તન	-5930
▁બંધારણનો	-5931
▁અર્થવ્યવસ્થા	-5932
ગટ	-5933
ીના	-5934
▁દરો	-5935
▁ક્યુ	-5936
▁અપહરણ	-5937
▁અનુસરવામાં	-5938
પ્રદ	-5939
રચના	-5940
▁નાશ	-5941
▁રહેલ	-5942
▁વાંચો	-5943
▁સમયપત્ર	-5944
પદ	-5945
કર્તાના	-5946
▁રાજ્યએ	-5947
▁કારણોને	-5948
▁તારીખના	-5949
▁બાજુમાં	-5950
▁દરવા	-5951
▁જેટલું	-5952
▁મૈત્રીપૂર્ણ	-5953
ણુ	-5954
▁ઉપક્રમ	-5955
▁ગેરરીતિ	-5956
▁પુરાવાઓ	-5957
▁ઓર્ડરમાં	-5958
કડા	-5959
▁સ્થળા	-5960
▁આરોપીઓએ	-5961
▁ઓક્ટોબર	-5962
▁સમૃદ્ધિ	-5963
▁મૂલ્યવાન	-5964
એએ	-5965
ટની	-5966
▁ટ્રાન્	-5967
▁પુરવઠો	-5968
સીસ	-5969
દાયક	-5970
્રાવ	-5971
વાયેલ	-5972
▁હેઠળનો	-5973
▁પરિસ્થિતિઓ	-5974
દાચ	-5975
બત્ત	-5976
▁લાઇન	-5977
▁ચિંતિત	-5978
▁પ્રદેશો	-5979
▁રૂપાંતર	-5980
ter	-5981
ચંદ	-5982
ડ્સ	-5983
▁નવો	-5984
▁રેડ્	-5985
▁સિટી	-5986
▁તારણોને	-5987
▁ઉક	-5988
▁જમ	-5989
▁ચેત	-5990
ૃત્તિ	-5991
▁એમઓ	-5992
▁દહેજ	-5993
ંડી	-5994
▁બૌ	-5995
તૃત્વ	-5996
▁સંસદની	-5997
▁જીવનમાં	-5998
▁ઓરિસ્સા	-5999
રિટ	-6000
શાળા	-6001
▁બરા	-6002
▁નેતા	-6003
▁પાડવાની	-6004
▁મિલકતની	-6005
pp	-6006
▁જહા	-6007
કૃષ્ણ	-6008
▁ન્યાયશાસ્ત્ર	-6009
કટર	-6010
▁વાવે	-6011
▁૨૦૧૨	-6012
▁પક્ષની	-6013
▁દિશામાં	-6014
▁આદર્શ	-6015
▁નિષ્ક્રિય	-6016
▁પાકિ	-6017
▁મેળવ્યા	-6018
▁પ્રસ્તુત	-6019
▁ચોથા	-6020
▁રસીદ	-6021
▁વાક્ય	-6022
▁છેલ્લી	-6023
▁વકીલની	-6024
are	-6025
ગોળ	-6026
સાઈઝ	-6027
▁છીન	-6028
▁જેટલા	-6029
▁સાર્વભૌમ	-6030
▁મુદ્દાઓને	-6031
લ્વ	-6032
લિકો	-6033
િતાને	-6034
▁એનજી	-6035
▁ખનિજો	-6036
▁વહા	-6037
સેક્શન	-6038
▁અલબત્ત	-6039
▁બહારના	-6040
▁માળખું	-6041
▁કમિશનના	-6042
▁બનાવવું	-6043
મલ	-6044
ંસદ	-6045
વવાનો	-6046
▁વેરો	-6047
▁રાખીએ	-6048
▁હિમાચલ	-6049
દાસ	-6050
▁પેકે	-6051
▁શિક્ષણના	-6052
▁રૂપાંતરિત	-6053
▁સંતોષકારક	-6054
▁ટ્રિબ્યુનલની	-6055
મૂલ્ય	-6056
▁બ્લે	-6057
શીપ	-6058
▁with	-6059
▁જજની	-6060
▁ગવર્ન	-6061
▁પ્રેસ	-6062
આઈસી	-6063
▁બોમ્બ	-6064
▁મધ્યમ	-6065
▁કરારનો	-6066
▁કરાવવા	-6067
ઇને	-6068
▁su	-6069
▁ટાં	-6070
ડામાં	-6071
▁ડિપોઝિટ	-6072
▁કાર્યક્ષેત્ર	-6073
▁કરેલો	-6074
▁પ્રતિબંધો	-6075
▁સંપત્તિની	-6076
▁દ્વિપક્ષીય	-6077
પેલ	-6078
▁અનુદાન	-6079
નેસ	-6080
▁ગય	-6081
સ્ત્રી	-6082
▁ફાઉન્ડ	-6083
▁અપીલદારોને	-6084
ખ્ત	-6085
ગાં	-6086
▁ઘાયલ	-6087
▁ઉજવણી	-6088
▁તકરાર	-6089
▁રકમનો	-6090
▁પોઇન્ટ	-6091
▁મીટિંગ	-6092
▁ડ્રાઇવર	-6093
▁જવાબદારો	-6094
વીએ	-6095
▁દૂધ	-6096
▁સોદા	-6097
▁અત્યાર	-6098
▁મેજિસ્ટ્રેટને	-6099
ગલ	-6100
ભારત	-6101
શાળી	-6102
▁સેક્ર	-6103
▁જણાવવામાં	-6104
▁આનુ	-6105
્રેટે	-6106
લ્પનિક	-6107
▁મર્	-6108
▁વાલી	-6109
વાને	-6110
▁આપો	-6111
બકારી	-6112
▁દૃશ્ય	-6113
▁બૌદ્ધ	-6114
▁સંયોજ	-6115
▁ટકી	-6116
▁રવિ	-6117
▁કદાચ	-6118
▁ઉત્તરદાતાઓને	-6119
લનો	-6120
▁માફ	-6121
▁તાકી	-6122
▁બનાવવી	-6123
શિક	-6124
▁ખસેડ	-6125
▁સુપરત	-6126
▁વહેંચણી	-6127
▁બંધારણનું	-6128
ભિ	-6129
ર્ગ	-6130
▁con	-6131
▁રિક	-6132
▁ભગવાન	-6133
▁()	-6134
▁અશોક	-6135
▁વિજય	-6136
▁નીતિઓ	-6137
▁પ્રતિક્રિયા	-6138
લાસ	-6139
ડ્રો	-6140
િત્તે	-6141
▁ડ્રગ	-6142
વિશ્વાસ	-6143
▁તથ્યોની	-6144
▁ઉત્પાદનમાં	-6145
▁ઉમ	-6146
સ્ક્ર	-6147
▁આચરણ	-6148
▁વર્ક	-6149
▁કાલ્પનિક	-6150
▁માહિતીની	-6151
▁સ્થળાંતર	-6152
▁ક્ષેત્રને	-6153
અપ	-6154
▁બેલ	-6155
▁લક્ષ્	-6156
રેન્દ્ર	-6157
▁પબ્લિક	-6158
▁શક્તિની	-6159
▁અજમા	-6160
ચ્યુઅલ	-6161
▁વધુની	-6162
▁કારણસર	-6163
▁સર્ટિફ	-6164
▁નિયમોને	-6165
▁સ્ટેમ્પ	-6166
▁શિક્ષણની	-6167
▁સીજે	-6168
▁વીમાદાતા	-6169
નક	-6170
▁અવિભા	-6171
▁મિશ્રા	-6172
▁એક્સાઈઝ	-6173
▁વધારવાની	-6174
લોની	-6175
▁કોઇ	-6176
▁સ્પે	-6177
▁વાવેતર	-6178
▁પરિમાણો	-6179
▁દરખાસ્તો	-6180
▁ટિક	-6181
▁સમજવા	-6182
▁હર	-6183
▁ફકરો	-6184
▁અન્ડર	-6185
▁મુસ્લિમ	-6186
el	-6187
▁પુસ્તકો	-6188
▁પ્રદર્શિત	-6189
▁અભિવ્યક્તિની	-6190
▁આયોજિત	-6191
▁કંપનીમાં	-6192
▁પ્રત્યેની	-6193
▁બેક	-6194
▁હોમ	-6195
▁ત્રીસ	-6196
▁લીઝની	-6197
ુટ	-6198
▁મગ	-6199
ંગ્રે	-6200
▁પરનો	-6201
▁મેટ્રો	-6202
▁એવોર્ડની	-6203
▁સંસ્થાને	-6204
ઝેડ	-6205
▁જાગૃત	-6206
▁જુલાઇ	-6207
▁આરબીઆઈ	-6208
▁પુસ્તક	-6209
▁આવૃત્તિ	-6210
▁કાર્યવાહીનું	-6211
સૂચ	-6212
ટાઘા	-6213
▁દાવોમાં	-6214
▁નિષ્પક્ષ	-6215
▁નાગરિકોને	-6216
ંઝ	-6217
▁સમયસર	-6218
▁રચાયેલ	-6219
▁રિવિઝન	-6220
▁રાજ્યસભા	-6221
▁સામગ્રીને	-6222
▁પતાવ	-6223
▁રહેતા	-6224
▁આબકારી	-6225
▁નવીનતા	-6226
જાગ્રસ્ત	-6227
▁હાઈકોર્ટનો	-6228
tw	-6229
▁પંચે	-6230
▁આગ્રહ	-6231
▁Office	-6232
પીએલ	-6233
ર્ટી	-6234
▁જેલ	-6235
▁મુસ	-6236
▁deep	-6237
▁ટર્ન	-6238
▁ભાગના	-6239
▁અગાઉથી	-6240
▁ધોરણોને	-6241
▁સમસ્યાઓ	-6242
▁પ્રશ્નની	-6243
શલ	-6244
ity	-6245
નીંગ	-6246
▁અન્યાયી	-6247
સમય	-6248
▁બોડી	-6249
▁રેન્	-6250
▁બન્યો	-6251
▁શખ	-6252
▁લીધેલ	-6253
▁સહભાગ	-6254
▁અહીંથી	-6255
▁સૂચિની	-6256
▁--	-6257
▁મલ	-6258
ભરમાં	-6259
િયાના	-6260
▁આરક્ષણ	-6261
▁કટોકટી	-6262
▁પરિસરમાં	-6263
▁બનાવ્યું	-6264
▁મર્યાદાની	-6265
▁સળ	-6266
▁મળશે	-6267
▁સીબી	-6268
▁ટેલિફો	-6269
▁પ્રેરિત	-6270
▁સશક્તિકરણ	-6271
▁પ્રક્રિયાઓ	-6272
▁ફળ	-6273
▁લિંગ	-6274
▁ઘટનાઓ	-6275
મેટ્રિક	-6276
▁રજિસ્ટર	-6277
▁१६	-6278
▁આગો	-6279
▁ઘટાડવા	-6280
▁વિભાગને	-6281
રાઇ	-6282
ફ્ટવેર	-6283
▁વાટાઘા	-6284
ears	-6285
▁કપડા	-6286
▁પાયે	-6287
તમી	-6288
એમએસ	-6289
▁સુખા	-6290
▁હિલ	-6291
▁નેતૃત્વ	-6292
▁પડકાર્યો	-6293
▁સમુદાયના	-6294
▁પુખ્ત	-6295
▁સજાપાત્ર	-6296
▁અર્થતંત્ર	-6297
▁ડિસ્ચાર્જ	-6298
▁વ્યવહારિક	-6299
વરી	-6300
્લોર	-6301
ન્ડન્ટ	-6302
▁ભાગોમાં	-6303
▁પ્રકારનું	-6304
▁શેરહોલ્ડ	-6305
વિવાદ	-6306
▁એજ્યુ	-6307
▁વિડિઓ	-6308
▁તાજેતરમાં	-6309
ન્સર	-6310
▁નિમ	-6311
▁મેજિસ્ટ્રેટે	-6312
પટ્ટી	-6313
▁યુરો	-6314
▁બેલેન્સ	-6315
▁વર્તણૂક	-6316
નાઈ	-6317
▁ઇમાર	-6318
▁પ્રેમ	-6319
▁બરાબર	-6320
▁બ્લોક	-6321
▁પ્રવર્ત	-6322
▁સંસ્થાઓના	-6323
ha	-6324
ral	-6325
ન્ટલ	-6326
▁એનડી	-6327
▁ટ્રસ્ટી	-6328
▁ઇંગ્લેન્ડ	-6329
▁રાજીનામું	-6330
▁કેપ	-6331
▁ચેન	-6332
ાર્થી	-6333
▁તેવો	-6334
▁વારસો	-6335
▁છૂટછાટ	-6336
પ્રતિવાદી	-6337
▁બીસીસીઆઈ	-6338
ક્તા	-6339
▁નબળ	-6340
કાલીન	-6341
ૈંગિક	-6342
▁ગરીબી	-6343
▁તાજી	-6344
▁અન્યાય	-6345
▁વગેરેના	-6346
▁ન્યાયાધીશે	-6347
લિટ	-6348
▁હોટલ	-6349
▁બાંહે	-6350
▁આવશ્યકતાઓ	-6351
▁કર્મચારીઓના	-6352
▁Ex	-6353
ંબિત	-6354
▁ફૂડ	-6355
ેશ્વર	-6356
▁બંદર	-6357
▁અનુભૂતિ	-6358
▁તત્કાલીન	-6359
▁બાંહેધરી	-6360
▁ટુ	-6361
▁લેખો	-6362
▁માંગતા	-6363
▁વિશેની	-6364
▁હાઉસિંગ	-6365
▁અપીલદાતાએ	-6366
એમઇ	-6367
શને	-6368
▁ફેકલ	-6369
▁તથ્યોમાં	-6370
ત્ય	-6371
▁પચ	-6372
વેન્ટ	-6373
▁ક્વોટા	-6374
ઓએસ	-6375
શન્સ	-6376
આઈએસ	-6377
▁હેડ	-6378
ર્સને	-6379
▁સેકંડ	-6380
▁પ્રીમિયમ	-6381
ાસ્ટ	-6382
▁ખાન	-6383
▁કી	-6384
▁ચોખ્	-6385
▁મિશ્ર	-6386
▁ઉત્સાહ	-6387
▁દરેકને	-6388
▁સોંપણી	-6389
▁પહોંચવા	-6390
▁છોકરી	-6391
▁કંપનીઓના	-6392
વિત	-6393
ક્રમણ	-6394
ચિત્ય	-6395
▁કલમની	-6396
▁પ્રતિષ્ઠ	-6397
▁ટોચ	-6398
▁વાંચી	-6399
▁એક્ટનો	-6400
▁પાછળથી	-6401
▁અપીલકારે	-6402
લટું	-6403
થ્થું	-6404
▁આગોતરા	-6405
▁ભાષામાં	-6406
▁ઇન્ડસ્ટ્રી	-6407
▁કાગળ	-6408
▁હાંસ	-6409
▁ઘરેલું	-6410
▁દિવસના	-6411
▁નોંધાઈ	-6412
▁વિકાસમાં	-6413
▁પ્રાકૃતિક	-6414
▁કરાયા	-6415
▁ક્ષતિ	-6416
▁લઘુત્તમ	-6417
.]	-6418
▁પ્રાંત	-6419
▁ભથ્થું	-6420
▁સ્વીકારે	-6421
▁સર્ટિફિકેટ	-6422
લેલ	-6423
▁દેખા	-6424
▁અસલ	-6425
▁બિડ	-6426
▁ધરવા	-6427
▁પૂજા	-6428
▁પેનલ	-6429
▁કોઈની	-6430
▁જાગૃતિ	-6431
▁વધારીને	-6432
▁સાંભળ્યું	-6433
▁પાઇ	-6434
▁અસમાન	-6435
▁સૂત્ર	-6436
▁એક્સ્ટ	-6437
▁ભરવાની	-6438
▁ભારતને	-6439
▁વિવાદની	-6440
▁પ્રક્રિયાની	-6441
ઇઝેશન	-6442
▁યાદવ	-6443
▁અલગથી	-6444
▁પરિવા	-6445
▁રેલવે	-6446
▁અપંગતા	-6447
▁સભ્યોના	-6448
▁સિમેન્ટ	-6449
▁જવાબદારને	-6450
▁પ્રતિવાદીને	-6451
ધર	-6452
▁ડિફ	-6453
.00	-6454
ટના	-6455
મંડ	-6456
▁રેટ	-6457
▁years	-6458
▁કન્ટે	-6459
▁એનસીટી	-6460
▁પ્રાયો	-6461
▁હથિયારો	-6462
▁કઠ	-6463
▁આભારી	-6464
▁પૈસાની	-6465
ારક	-6466
▁વ્	-6467
▁ઝાર	-6468
ક્ષીએ	-6469
જાહેર	-6470
▁સોના	-6471
▁છીનવી	-6472
▁જોગવાઈઓમાં	-6473
ેરી	-6474
▁ક્રમ	-6475
▁ખલેલ	-6476
▁દરજ્	-6477
▁ધિરાણ	-6478
▁મળેલા	-6479
▁સંબંધી	-6480
▁ઉઠાવ્યો	-6481
▁એજ્યુકેશન	-6482
▁સમયગાળામાં	-6483
▁#	-6484
માર્ગ	-6485
▁ટાંકી	-6486
▁પરોક્ષ	-6487
▁માધ્યમથી	-6488
▁પક્ષકારોની	-6489
AR	-6490
bt	-6491
ટેક	-6492
ટેશન	-6493
મીટર	-6494
▁સખ્	-6495
▁કિંગ	-6496
▁ગર્ભિત	-6497
▁ગુનાનો	-6498
▁તમિલનાડુ	-6499
▁પક્ષકારોના	-6500
▁વ્યવસ્થાપન	-6501
▁આઇટ	-6502
▁ખુશ	-6503
▁ભેટ	-6504
▁ભૂલો	-6505
▁શખ્સ	-6506
▁આકારણીની	-6507
▁ઇન્સ્પેક્ટર	-6508
▁કદ	-6509
પ્રિ	-6510
▁દૃષ્ટિ	-6511
vi	-6512
▁યુકે	-6513
▁લાંચ	-6514
▁દિવસથી	-6515
▁લેબર	-6516
▁પડ્યું	-6517
▁રેડ્ડી	-6518
▁રોયલ્ટી	-6519
▁સત્તાઓના	-6520
▁આવવા	-6521
▁એસિડ	-6522
▁ટાળવા	-6523
▁સ્પેશ	-6524
િયંત્રિત	-6525
▁college	-6526
▁પેન્ડન્સી	-6527
▁સેક્રેટરી	-6528
ડતા	-6529
▁સદ	-6530
▁વોર	-6531
▁ટેક્નો	-6532
▁પડકારો	-6533
▁નોંધ્યા	-6534
▁લોકાયુક્ત	-6535
▁ચેર	-6536
▁આંશિક	-6537
▁પહેલો	-6538
▁સાંજે	-6539
▁લક્ષ્યો	-6540
▁રોકાણકાર	-6541
▁વિવાદોને	-6542
બન	-6543
આઈડી	-6544
▁બેસ	-6545
▁સિને	-6546
▁કંપનીએ	-6547
્રપાલી	-6548
▁બેંચનો	-6549
▁અપીલોને	-6550
▁કંટ્રોલ	-6551
▁મૂલ્યના	-6552
▁મેળવેલા	-6553
કોટ	-6554
લાની	-6555
લ્યુમ	-6556
ાર્કિક	-6557
▁થયાના	-6558
▁વર્મા	-6559
▁વૃદ્ધ	-6560
▁મિકેનિ	-6561
▁કોણ	-6562
▁તાકાત	-6563
▁નામની	-6564
▁શક્તિને	-6565
▁અહેવાલના	-6566
▁જાળવવામાં	-6567
▁જોગવાઈઓના	-6568
ંખ્ય	-6569
▁ગોવા	-6570
▁પત્રો	-6571
▁અસંખ્ય	-6572
▁જાતિના	-6573
▁તેણીની	-6574
▁સસ્પેન્શન	-6575
લગ્ન	-6576
▁ડિજિટલી	-6577
▁ઉતરા	-6578
▁બ્યુ	-6579
▁મુસદ્	-6580
▁સરળતાથી	-6581
એક્	-6582
સીસી	-6583
▁ફેડ	-6584
પાલિકા	-6585
પ્રદાય	-6586
▁કોડના	-6587
▁બોલાવવા	-6588
શ્મીર	-6589
▁Aust	-6590
એસસીસી	-6591
▁ગાર્ડ	-6592
▁સંપ્રદાય	-6593
▁૨૦૦	-6594
ર્સના	-6595
▁ઉદભવ	-6596
▁સ્કૂ	-6597
રુપયોગ	-6598
▁સંમેલન	-6599
▁ફાઉન્ડેશન	-6600
દ્દન	-6601
▁અંતરા	-6602
પીડબલ્યુ	-6603
▁શરતોનું	-6604
▁આરોપીઓની	-6605
ગાવ	-6606
▁ઝૂ	-6607
ફાઇડ	-6608
▁પ્રસારણ	-6609
▁કાયદાઓની	-6610
▁હિંદુ	-6611
▁પર્યટન	-6612
▁અવમૂલ્ય	-6613
▁આદેશોને	-6614
▁વ્યવહારમાં	-6615
▁બ્લ	-6616
▁હિતો	-6617
▁નિયમનો	-6618
▁તદ્દન	-6619
▁વ્યૂહ	-6620
▁ચૂકવેલ	-6621
▁અરજકર્તા	-6622
કાન	-6623
ર્ત	-6624
▁ચુકવણીના	-6625
▁દુરુપયોગ	-6626
▁પેટ્રોલિયમ	-6627
શ્ચર	-6628
▁કરારો	-6629
▁ટિકિટ	-6630
▁પતાવટ	-6631
▁સ્પીકર	-6632
▁કોંગ્રે	-6633
▁સમકાલીન	-6634
ly	-6635
rt	-6636
▁કમ્	-6637
▁પશુ	-6638
▁વિવિધતા	-6639
▁સુખાકારી	-6640
▁રેકોર્ડની	-6641
▁વ્યૂહરચના	-6642
▁ગોઠવણ	-6643
▁સમર્પિત	-6644
▁આમ્રપાલી	-6645
▁દિલ્હીમાં	-6646
amp	-6647
ૃદય	-6648
▁ફિલ	-6649
▁યુગ	-6650
▁લોકોમાં	-6651
▁સાક્ષીએ	-6652
▁કરનારાઓને	-6653
us	-6654
ચારી	-6655
▁આદિ	-6656
▁સિં	-6657
▁દારૂગોળ	-6658
▁સૂચનાની	-6659
▁ઉશ્	-6660
▁વધે	-6661
શ્ચર્ય	-6662
▁શિક્ષક	-6663
▁જાહેરમાં	-6664
▁કામગીરીમાં	-6665
▁પંદર	-6666
▁ચિત્ર	-6667
▁કેટેગરીના	-6668
▁વપરાશકર્તા	-6669
............	-6670
૦૧	-6671
▁ટીકા	-6672
▁સિક્	-6673
▁અવ્યવ	-6674
▁પાસાં	-6675
▁આશ્ચર્ય	-6676
▁આત્મવિશ્વાસ	-6677
AN	-6678
▁as	-6679
બદ્ધ	-6680
સાઇઝ	-6681
સ્પો	-6682
પબ્લિક	-6683
▁ઝારખંડ	-6684
▁ચૂકવવાની	-6685
▁રાજ્યોની	-6686
▁સંપત્તિને	-6687
ઠે	-6688
istor	-6689
ોલ્યુશન	-6690
▁ગોપનીયતાના	-6691
ડીઓ	-6692
▁જથ્થ	-6693
▁કોલકા	-6694
▁તૃતીય	-6695
▁સૈન્ય	-6696
લ્વન્સી	-6697
▁સ્થિતિની	-6698
▁ધા	-6699
ંમતિ	-6700
▁આનો	-6701
▁જીત	-6702
▁ઉચિત	-6703
▁ક્લબ	-6704
▁સરખા	-6705
▁ફેડરલ	-6706
▁જોખમમાં	-6707
▁અનિયંત્રિત	-6708
જમાં	-6709
▁ટુક	-6710
▁તુર	-6711
▁સાંસદ	-6712
▁ચેમ્બર	-6713
▁વર્ગમાં	-6714
▁પુનર્વિચારણા	-6715
ઇથી	-6716
ific	-6717
▁ધારણ	-6718
▁તુરંત	-6719
▁કહેવાતી	-6720
▁ગુણાકાર	-6721
▁ટર્નઓવર	-6722
▁ફેરફારો	-6723
▁ક્ષેત્રો	-6724
▁બોલાવવામાં	-6725
▁જાણીતી	-6726
▁ફેકલ્ટી	-6727
મૂળ	-6728
▁હોતી	-6729
દારોની	-6730
▁કલાકે	-6731
▁અદાલતનું	-6732
▁ઉપલબ્ધતા	-6733
▁મેળવવાના	-6734
▁ફાયદાકારક	-6735
લાના	-6736
▁તેટલી	-6737
▁સ્યુટ	-6738
▁સુધારાઓ	-6739
▁લાભાર્થી	-6740
▁જરૂરિયાતને	-6741
લુ	-6742
▁આડ	-6743
▁વેગ	-6744
▁૨૦૧૧	-6745
▁પ્રોપ	-6746
▁યુદ્ધ	-6747
▁પાડ્યો	-6748
▁તારીખની	-6749
▁હત્યાના	-6750
;&#	-6751
ૂંટ	-6752
ક્ષ્	-6753
મ્મા	-6754
▁ઝોન	-6755
▁દુબ	-6756
▁સંજય	-6757
▁offer	-6758
▁જથ્થો	-6759
▁દુકાન	-6760
▁બેંકના	-6761
▁આચારસંહિતા	-6762
▁મુખ્યમંત્રી	-6763
oftw	-6764
▁કેન	-6765
▁નંબ	-6766
▁(())	-6767
▁આરટી	-6768
▁એનજે	-6769
▁થવાના	-6770
oftware	-6771
▁જોડાવા	-6772
▁મોર્ટમ	-6773
▁વિલંબિત	-6774
રેખા	-6775
▁માંડ	-6776
▁યોજા	-6777
▁પુનરો	-6778
ઉત્પાદન	-6779
▁લગ્નના	-6780
▁ભિ	-6781
નાતક	-6782
▁ઇન્ટ	-6783
▁ઇશ્યુ	-6784
▁બાતમી	-6785
▁પુરવઠા	-6786
▁પુનરોચ્ચાર	-6787
▁હાઇકોર્ટની	-6788
▁હાઇકોર્ટનો	-6789
▁નમ	-6790
▁નવું	-6791
▁હૃદય	-6792
▁વેદના	-6793
▁ડબલ્યુપી	-6794
▁સુધારણાની	-6795
▁IS	-6796
▁કસર	-6797
▁ડ્રો	-6798
▁લાગ્યું	-6799
▁કાર્યોને	-6800
▁રણ	-6801
આરએસ	-6802
▁હક્	-6803
▁પ્રોવિસો	-6804
▁ઇન્સ્ટન્ટ	-6805
ંદુર	-6806
સ્ટિક	-6807
▁ભૂષણ	-6808
▁અત્યંત	-6809
▁પોલિસી	-6810
▁નુકસાનને	-6811
▁લુ	-6812
▁કોઝ	-6813
▁આરામ	-6814
▁એમએમ	-6815
▁બ્રિ	-6816
▁ભાડાની	-6817
▁વર્ણવેલ	-6818
▁સમાર	-6819
▁histor	-6820
▁શક્યું	-6821
▁આર્બિટ્રેશનની	-6822
▁સ્વય	-6823
▁સોંપેલ	-6824
▁કાયદાનું	-6825
▁પ્રકારનાં	-6826
ટીંગ	-6827
▁અંતમાં	-6828
▁ભારતનો	-6829
▁રાજધાની	-6830
▁પાડશે	-6831
▁મળેલી	-6832
▁મૂકવો	-6833
▁વેચવા	-6834
########	-6835
▁સિદ્ધાંતની	-6836
ical	-6837
પોરે	-6838
્રેટર	-6839
▁અવધિની	-6840
▁શોધમાં	-6841
સ્ક્રિપ્	-6842
▁મુશ્કેલીઓ	-6843
ore	-6844
▁લાવી	-6845
વિડન્ડ	-6846
▁તરફેણ	-6847
▁નામાંકન	-6848
▁સલાહકારને	-6849
▁અબ	-6850
▁સુખ	-6851
▁દત્તક	-6852
▁સુમેળ	-6853
ન્યાયિક	-6854
▁સ્ક્રી	-6855
▁ઓલ	-6856
▁આઝા	-6857
▁બચત	-6858
▁રાજા	-6859
▁ખાતેના	-6860
▁પહેલાના	-6861
▁વિચિત્ર	-6862
▁નુકસાનની	-6863
▁અપીલકારોને	-6864
▁ઠા	-6865
બીસી	-6866
▁સંગ્ર	-6867
▁શબ્દોનો	-6868
▁અપીલદારોએ	-6869
ડલ	-6870
▁xx	-6871
▁પરા	-6872
▁ફિલ્મ	-6873
▁સૂચવવા	-6874
▁અપીલકારોની	-6875
▁વેર	-6876
▁સપા	-6877
▁વયની	-6878
▁order	-6879
▁સ્રાવ	-6880
▁પ્રોફાઇ	-6881
▁ઇન્ડસ્ટ્રીઝ	-6882
િટલ	-6883
▁per	-6884
▁નર્સ	-6885
ફિસમાં	-6886
કાંક્ષા	-6887
▁નિર્ધારણ	-6888
▁નોંધાયેલી	-6889
▁સુનાવણીના	-6890
▁એપે	-6891
▁વધતી	-6892
▁વિચારો	-6893
▁સેક્ટર	-6894
▁સ્ટેટ્સ	-6895
▁ચૂકવવાનું	-6896
▁મર	-6897
ધારક	-6898
▁aud	-6899
▁તેણીના	-6900
▁સંધ્યા	-6901
▁અસામાન્ય	-6902
▁કબૂલ	-6903
▁ખાતર	-6904
▁પચાસ	-6905
▁પાડતા	-6906
▁એકાઉન્ટ્સ	-6907
ંદીગ	-6908
પોલિટ	-6909
▁ચાલો	-6910
▁યાદી	-6911
▁પીડાય	-6912
▁પસંદગીના	-6913
ગાડ	-6914
માસ	-6915
cess	-6916
▁જૂથો	-6917
▁તંદુર	-6918
▁પીટીશન	-6919
▁પ્રતિષ્ઠિત	-6920
▁રેકોર્ડિંગ	-6921
▁પરિસ્થિતિઓમાં	-6922
▁પલ	-6923
▁લગ્નની	-6924
▁ટ્રાફિક	-6925
▁ઉમેદવારી	-6926
▁ચલાવવાની	-6927
▁ફરિયાદના	-6928
▁સંહિતાની	-6929
▁અભિપ્રાયને	-6930
▁સ્વતંત્રતાની	-6931
સ્પર્	-6932
▁પ્રોબ	-6933
▁હવાલો	-6934
▁પરિશિષ્ટ	-6935
▁ડબ્લ્યુપી	-6936
▁નિર્ણયોમાં	-6937
આરસી	-6938
▁આઉટ	-6939
કરણની	-6940
▁પંચનામા	-6941
▁લેનાર	-6942
▁ચોકસાઈ	-6943
▁સમાજની	-6944
▁ટેલિફોન	-6945
▁મંત્રાલયે	-6946
▁મંદિ	-6947
▁પાડ્યા	-6948
▁મુલાકા	-6949
▁ફકરામાં	-6950
▁સ્થાપવા	-6951
▁ખુબ	-6952
▁આપું	-6953
▁ઈજાઓ	-6954
▁યુરોપ	-6955
▁ખર્ચને	-6956
▁વાહનના	-6957
▁ડિવિડન્ડ	-6958
▁મહત્ત્વની	-6959
ઇન્	-6960
ટૂંકા	-6961
▁અતિક	-6962
▁ટાઉન	-6963
▁મુનસ	-6964
▁સ્ટી	-6965
▁મુંબઈ	-6966
▁ઉપકરણો	-6967
▁બોર્ડને	-6968
▁એન્જિનિય	-6969
▁કંપનીઓને	-6970
▁પ્રદેશના	-6971
▁રેકોર્ડમાં	-6972
▁સત્તાધિકાર	-6973
ર્મો	-6974
▁અંક	-6975
▁ખબર	-6976
ક્ષ્ય	-6977
▁આઇટમ	-6978
▁an	-6979
હાઉસ	-6980
▁આવકનો	-6981
▁વધારી	-6982
▁લેણદારો	-6983
um	-6984
પેરા	-6985
▁ઓળખી	-6986
▁ઘરના	-6987
▁સીએસ	-6988
▁ચંદીગ	-6989
▁ઇન્ટરનેટ	-6990
▁નિર્વિવાદ	-6991
ેન્ટ	-6992
▁આવાસ	-6993
પોલિટન	-6994
▁ભૂલથી	-6995
▁જેલમાં	-6996
▁કરપાત્ર	-6997
▁પહોંચ્યો	-6998
ત્તી	-6999
▁ઇમ્	-7000
▁બ્લા	-7001
▁યુવા	-7002
▁જેવું	-7003
▁ફર્	-7004
▁માધ્યમિક	-7005
▁પ્રોજેક્ટના	-7006
▁હેલ	-7007
▁વિધિ	-7008
▁બપોરે	-7009
▁અભિન્ન	-7010
▁અમેરિક	-7011
▁ખરીદવા	-7012
▁યુવાનો	-7013
▁નહે	-7014
દ્દીન	-7015
▁કરના	-7016
ેન્દ્ર	-7017
▁ગાળાના	-7018
▁અધિક્ષક	-7019
▁નિર્ણયથી	-7020
▁ત્યારબાદના	-7021
ડકા	-7022
▁૧૦	-7023
વાહિક	-7024
▁કાનૂન	-7025
▁હાંસલ	-7026
▁નીતિની	-7027
▁પ્રતીતિ	-7028
▁ભંડોળના	-7029
ચન	-7030
rom	-7031
▁ઝી	-7032
▁ધંધો	-7033
▁૨૦૧૦	-7034
▁અમલની	-7035
▁કલમના	-7036
▁પાર્ક	-7037
▁પ્રાઈ	-7038
▁કલેકટર	-7039
▁ગતિશીલ	-7040
▁પુરાવો	-7041
હ્	-7042
રોએ	-7043
▁ઓડિટ	-7044
▁પુનર્જી	-7045
▁હાર્દિક	-7046
▁અતિક્રમણ	-7047
▁બેંગ્લોર	-7048
ભુ	-7049
▁ડાબી	-7050
▁તોડી	-7051
▁નબળી	-7052
▁સગવડ	-7053
સ્વામી	-7054
▁કરાવી	-7055
▁બધાને	-7056
▁વેલ્યુ	-7057
▁હેક્ટર	-7058
▁સૂચનાના	-7059
▁મૃત્યુનું	-7060
▁સદ્	-7061
ત્રિક	-7062
▁અપૂર	-7063
▁સર્જ	-7064
▁દેવું	-7065
▁લાદવા	-7066
▁મહિનામાં	-7067
▁વિકસાવવા	-7068
ખોળ	-7069
▁અસલી	-7070
▁અવસાન	-7071
▁હિતને	-7072
▁ચેતવણી	-7073
▁શોધખોળ	-7074
▁નૈતિકતા	-7075
▁સરનામું	-7076
▁પ્રસ્તાવના	-7077
te	-7078
ult	-7079
▁વિનાશ	-7080
▁મહિલાઓને	-7081
સગ	-7082
આઇએ	-7083
ence	-7084
▁સૂર	-7085
▁બજાવ	-7086
▁પૂરતો	-7087
▁સેલ્સ	-7088
▁જાણકાર	-7089
▁મુનસફી	-7090
▁અધિકારીના	-7091
▁કાઉન્સિલના	-7092
કોર	-7093
▁(&	-7094
સંબંધ	-7095
▁પરિપ્રે	-7096
ખાણ	-7097
▁ગિ	-7098
▁ફિ	-7099
▁એકલ	-7100
▁ફેલ	-7101
કાર્ડ	-7102
્રેશન	-7103
▁ગણતરીમાં	-7104
▁ટ્રાન્ઝેક્શન	-7105
ટ્ટ	-7106
▁ગૃહો	-7107
▁મૂકીને	-7108
▁અહેવાલની	-7109
▁ra	-7110
▁માઇક્રો	-7111
▁રજૂઆતોને	-7112
▁કોન્ટ્રાક્ટ	-7113
▁ખોટો	-7114
▁સ્કે	-7115
▁હકની	-7116
▁નિંદા	-7117
▁પડકારતી	-7118
▁વગેરેની	-7119
▁રજૂઆતમાં	-7120
▁પ્રદેશમાં	-7121
બિડ	-7122
આઇઆર	-7123
▁ઓફિસ	-7124
▁જોયો	-7125
▁વાહનો	-7126
▁જવામાં	-7127
▁રાખ્યા	-7128
▁મિલકતને	-7129
▁પરિપ્રેક્ષ્ય	-7130
thor	-7131
સમાં	-7132
▁મેમ	-7133
▁વંશ	-7134
મોર્ટ	-7135
▁આધારો	-7136
▁સંઘીય	-7137
▁ઉશ્કેર	-7138
▁મહત્વની	-7139
▁ઉમેદવારની	-7140
▁વ્યવસ્થિત	-7141
ઝર	-7142
્લીલ	-7143
▁સાતમી	-7144
▁સિંચાઈ	-7145
▁જાણકારી	-7146
▁સેવાઓનો	-7147
▁જવાબદાતા	-7148
▁મેટ્રોપોલિટન	-7149
દક	-7150
રીની	-7151
▁ધપાવ	-7152
▁સ્ક્ર	-7153
▁ઇચ્છનીય	-7154
▁વિલંબને	-7155
▁જોગવાઈનો	-7156
▁કામગીરીની	-7157
રોહ	-7158
▁ii	-7159
▁ટીમ	-7160
▁શાસિત	-7161
▁ઘડવાની	-7162
;&	-7163
સાથે	-7164
▁શકો	-7165
▁સાફ	-7166
▁વેચી	-7167
▁પુરાવાની	-7168
▁વ્યવસાયની	-7169
tt	-7170
પજ	-7171
રંટ	-7172
સીન	-7173
▁[]],	-7174
▁લેખક	-7175
▁Austral	-7176
▁ખરીદદારો	-7177
▁આવશ્યકતાઓને	-7178
▁આસામ	-7179
▁બેંકની	-7180
▁રાજ્યનો	-7181
▁સંજોગોની	-7182
નાય	-7183
▁સબ્	-7184
▁પેસે	-7185
▁પ્લાન	-7186
▁સાંકળ	-7187
▁વૈવાહિક	-7188
રાઈ	-7189
▁આચર	-7190
તોમાં	-7191
▁કોઈએ	-7192
▁જવું	-7193
▁સબંધ	-7194
▁સીમાં	-7195
▁લેવાના	-7196
▁કમિશનને	-7197
▁કર્મચારીની	-7198
▁સ્કી	-7199
▁કામગીરીને	-7200
▁સાર્વત્રિક	-7201
▁१७	-7202
કોઈપણ	-7203
▁Comm	-7204
▁કેબિ	-7205
પરેટિવ	-7206
▁ભૂલભર	-7207
▁પ્રતિવાદીએ	-7208
▁રાજ્યપાલને	-7209
કેશ	-7210
▁એં	-7211
▁નર	-7212
સીપી	-7213
▁બેંચને	-7214
▁સમિતિઓ	-7215
▁બનાવ્યા	-7216
▁નિયમોનું	-7217
▁જિલ્લામાં	-7218
▁ડ્રાઇવિંગ	-7219
▁પ્રદેશોમાં	-7220
લેણ	-7221
મ્યુ	-7222
૨૦૧૦	-7223
▁ફેલા	-7224
▁ખુલ્લો	-7225
વાલય	-7226
▁વીસ	-7227
્રિકા	-7228
▁ચલાવ	-7229
▁જાણીને	-7230
▁ડિજિટલ	-7231
▁સમિતિને	-7232
▁દિલ્હીની	-7233
la	-7234
નિયા	-7235
▁ચલણ	-7236
▁હદે	-7237
▁ભાગે	-7238
ઝ્યુઅલ	-7239
મેન્ટ્સ	-7240
વ્યવહાર	-7241
▁તબક્કો	-7242
▁એફઆઈઆરમાં	-7243
▁ગ્રાહકોને	-7244
▁રાષ્ટ્રની	-7245
9999	-7246
▁ઝૂંપ	-7247
▁ટર્મ	-7248
▁ચલાવે	-7249
▁રિફંડ	-7250
▁એપેક્સ	-7251
▁ગવર્નર	-7252
▁કામદારોને	-7253
રાવ	-7254
▁oper	-7255
▁ઉદાર	-7256
▁એવોર્ડને	-7257
જનિક	-7258
નાઇલ	-7259
ર્વે	-7260
▁ઓઇલ	-7261
▁નૃત	-7262
▁શોક	-7263
▁એસપી	-7264
▁જમણા	-7265
▁પુરુષો	-7266
▁પ્રમાણસર	-7267
▁કહીને	-7268
▁ઘણીવાર	-7269
▁નિવાસી	-7270
▁સ્વતંત્રતાને	-7271
og	-7272
એક્ટ	-7273
નિક્સ	-7274
▁કમાણી	-7275
▁દરજ્જો	-7276
▁વિશ્વમાં	-7277
▁સર્વેક્ષણ	-7278
ઇબ	-7279
દ્વા	-7280
▁પટ્ટા	-7281
▁લાયકા	-7282
▁વાદીના	-7283
▁તેમાંના	-7284
▁સચિવાલય	-7285
▁ઓથોરિટીએ	-7286
▁પ્રોત્સાહ	-7287
▁લગાવવામાં	-7288
▁શહેર	-7289
▁હિમાય	-7290
નિર્માણ	-7291
▁સલાહકારના	-7292
▁મંત્રાલયના	-7293
ંડે	-7294
▁મેરી	-7295
▁જયપુર	-7296
▁બિલ્ડ	-7297
▁જીવનને	-7298
▁ક્રૂરતા	-7299
▁માહિતીને	-7300
▁વિસ્તારના	-7301
▁સ્ટેશનમાં	-7302
શર	-7303
નાની	-7304
▁ઇનો	-7305
સ્પતિ	-7306
પ્રાપ્ત	-7307
▁ભરવામાં	-7308
▁માળખાકીય	-7309
▁પ્રામાણિક	-7310
▁પ્રતિસ્પર્	-7311
▁સ્વતંત્રતાના	-7312
▁નોંધી	-7313
▁રસ્તો	-7314
▁નિર્મા	-7315
▁બેરિંગ	-7316
▁કેડરમાં	-7317
▁શિક્ષકોની	-7318
,0	-7319
ીક	-7320
▁દાણ	-7321
સુધારો	-7322
▁છેલ્લે	-7323
▁પામેલા	-7324
▁પાસાને	-7325
▁એરપોર્ટ	-7326
▁સંતુલિત	-7327
એસએલ	-7328
▁આંગ	-7329
▁ઉર્	-7330
▁બેચ	-7331
પ્રેસ	-7332
▁એશિયા	-7333
▁ઘટનાના	-7334
પૃ	-7335
▁૧૨	-7336
▁રેખા	-7337
▁વોટર	-7338
▁બેંચની	-7339
▁સમારોહ	-7340
▁અમેરિકન	-7341
▁તુલનાત્મક	-7342
▁વ્યાખ્યામાં	-7343
બાકી	-7344
▁નાગરિકોના	-7345
▁સખ્તા	-7346
▁માનવીય	-7347
▁સામેની	-7348
▁અરજીઓની	-7349
▁મિલકતનો	-7350
▁આવશ્યકતાને	-7351
ંપી	-7352
જીવ	-7353
▁નહોતા	-7354
▁સરકારનો	-7355
▁ચૂંટણીની	-7356
▁વિવાદોના	-7357
▁વર્ણવવામાં	-7358
ઝી	-7359
▁ડર	-7360
નેશનલ	-7361
▁rest	-7362
▁ઉપાડ	-7363
▁નાખવા	-7364
▁ભારતનું	-7365
▁અંધ	-7366
▁ક્વા	-7367
▁પરેડ	-7368
▁અસરને	-7369
▁ભિન્ન	-7370
▁અજમાવો	-7371
▁સમજદાર	-7372
▁કુટુંબના	-7373
▁સરકારમાં	-7374
▁બાંધવામાં	-7375
▁સમયમર્યાદા	-7376
vii	-7377
જીવન	-7378
▁ગટર	-7379
▁સીઇ	-7380
્યુલર	-7381
▁એનઆઈ	-7382
ફિશિયલ	-7383
▁ધપાવી	-7384
▁ઓપરેશનલ	-7385
▁પદાર્થો	-7386
▁બાળકોના	-7387
▁ખેડૂત	-7388
▁લાઇસે	-7389
▁વાર્તા	-7390
▁સંસદને	-7391
▁વેચવામાં	-7392
▁ઉત્તરદાતાઓની	-7393
rant	-7394
માંના	-7395
વર્ધન	-7396
▁ફરજની	-7397
▁એનઆઈટી	-7398
▁સ્વામી	-7399
▁વનસ્પતિ	-7400
▁સ્પેશિયલ	-7401
મસ	-7402
વળ	-7403
ુત	-7404
▁તૂ	-7405
▁હલ	-7406
▁ભણે	-7407
ભ્રષ્ટ	-7408
▁પ્રોડ	-7409
▁પરિબળોને	-7410
ૂમ	-7411
રણો	-7412
થ્વી	-7413
▁કેડ	-7414
દાતાના	-7415
▁સહભાગી	-7416
▁જ્યાંથી	-7417
▁સરખામણી	-7418
એટલે	-7419
ડીપી	-7420
thority	-7421
▁વાંધાજનક	-7422
▁આર્બિટ્રેટરની	-7423
ષે	-7424
▁,,	-7425
▁ચલ	-7426
▁ગળા	-7427
▁હકો	-7428
▁ફ્લોર	-7429
▁નિષ્ઠા	-7430
▁વિદ્યા	-7431
▁ઉદ્દેશો	-7432
▁મૂકવાનો	-7433
▁આરોપીઓના	-7434
જીના	-7435
ડીસી	-7436
મારે	-7437
▁....	-7438
▁ચાલે	-7439
▁નિરી	-7440
▁કન્સો	-7441
▁ત્યાર	-7442
▁વર્ગો	-7443
▁જીવલેણ	-7444
▁સંદેશમાં	-7445
▁સાંભળ્યા	-7446
▁પુરાવામાં	-7447
ઉં	-7448
▁વિજ	-7449
▁ઉભરી	-7450
▁પાયો	-7451
▁સીએમ	-7452
▁આપણું	-7453
▁જોવું	-7454
▁અસ્વીકાર્ય	-7455
▁પારદર્શિતા	-7456
▁રાષ્ટ્રપતિના	-7457
▁બજેટ	-7458
▁કેન્ટ	-7459
▁બતાવશે	-7460
▁એક્સાઇઝ	-7461
▁જમીનમાં	-7462
▁નિરાકરણ	-7463
▁નિમિત્તે	-7464
▁નિર્ણયોનો	-7465
▁ચુકાદાઓમાં	-7466
▁સિદ્ધાંતોનું	-7467
ice	-7468
ઘાત	-7469
▁ભવનના	-7470
▁લોખંડ	-7471
પરીક્ષા	-7472
▁ઉદઘાટન	-7473
▁એકત્રી	-7474
▁કલમમાં	-7475
▁ઇજાગ્રસ્ત	-7476
ણપ	-7477
▁ટાડાની	-7478
ોશી	-7479
વિંદ	-7480
▁from	-7481
▁આયર્ન	-7482
▁પાસપોર્ટ	-7483
▁સંક્ષિપ્તમાં	-7484
oc	-7485
પરિ	-7486
કાંત	-7487
વારક	-7488
▁બેઝ	-7489
▁દાણચો	-7490
▁સંઘની	-7491
▁આકારણીને	-7492
▁ઉદ્યોગસાહ	-7493
▁દાસ	-7494
▁બાગ	-7495
▁સગા	-7496
▁gener	-7497
▁રાઇટ્સ	-7498
▁અનિયમિત	-7499
▁આપનારની	-7500
▁મહિનાથી	-7501
વેશન	-7502
સ્કો	-7503
શ્કરી	-7504
▁બીએસ	-7505
▁ભણેલા	-7506
સામાન્ય	-7507
▁સમજવું	-7508
▁રોજગારની	-7509
▁પ્રમાણપત્રની	-7510
યમ	-7511
ડીના	-7512
▁શરણા	-7513
▁અશ્લીલ	-7514
▁સાયન્સ	-7515
▁પાસાઓને	-7516
▁કોન્સ્ટે	-7517
▁સુધારાની	-7518
▁પ્રતિષ્ઠા	-7519
▁ફૂટ	-7520
▁નમ્ર	-7521
▁પ્રશિ	-7522
▁લીઝના	-7523
▁પૃથ્વી	-7524
▁કેબિનેટ	-7525
▁પ્રતિબદ્ધતા	-7526
ાવો	-7527
▁મૂંઝ	-7528
▁આનાથી	-7529
ભાવસ્થા	-7530
▁મૂક્યા	-7531
▁વર્લ્ડ	-7532
▁ધારાસભા	-7533
▁કોર્ટનું	-7534
▁લાગણી	-7535
▁અખંડિતતા	-7536
▁મુદ્દાની	-7537
▁મેળવ્યું	-7538
ઘાલય	-7539
સાથી	-7540
▁કાપડ	-7541
▁નીપજ	-7542
▁મળતી	-7543
▁શરતે	-7544
▁પ્રોફે	-7545
▁સહાયતા	-7546
▁સાંભળી	-7547
▁ત્યારથી	-7548
▁નોટિસની	-7549
ak	-7550
▁એએસ	-7551
▁ચીજો	-7552
▁યુએન	-7553
સાયણિક	-7554
▁કોષ્ટ	-7555
▁ગણાશે	-7556
▁ગોપાલ	-7557
▁ટેક્નોલ	-7558
▁હુકમનામા	-7559
▁ટ્રિબ્યુનલ્સ	-7560
ોડ	-7561
▁ગી	-7562
▁નરી	-7563
▁મણિ	-7564
▁આપતું	-7565
▁કરુણા	-7566
▁નવીની	-7567
▁પંચના	-7568
▁પાછું	-7569
રાષ્ટ્ર	-7570
▁અદાલતી	-7571
▁અપૂર્ણ	-7572
▁સિનેમા	-7573
▁ઉપયોગની	-7574
▁સંપત્તિનું	-7575
▁00	-7576
▁અનિલ	-7577
▁જ્યો	-7578
▁અહેમદ	-7579
▁બ્યુરો	-7580
▁ક્રિકેટ	-7581
▁વિશ્વની	-7582
▁પરીક્ષણો	-7583
▁પરિસ્થિતિને	-7584
વેલી	-7585
▁વસાહ	-7586
▁ઉમેરવા	-7587
▁પિસ્તો	-7588
▁શરણાગતિ	-7589
▁સુધારવામાં	-7590
ગર્	-7591
▁બુલ	-7592
બ્દિક	-7593
▁ડીજી	-7594
▁શુલ્ક	-7595
▁સંવાદ	-7596
▁લંબાવી	-7597
▁શરીરના	-7598
▁વિસ્તારો	-7599
▁પ્રયોગશાળા	-7600
ક્ચ	-7601
▁આની	-7602
વવાના	-7603
▁ચક્ર	-7604
▁મકાનો	-7605
▁ગામમાં	-7606
▁સમાયેલી	-7607
ેલુ	-7608
▁ex	-7609
▁ફસ	-7610
▁આપતાં	-7611
▁લેખમાં	-7612
▁પ્રવેશો	-7613
▁દારૂગોળો	-7614
▁પ્રશ્નનો	-7615
▁વિસ્તારની	-7616
▁શિક્ષાત્મક	-7617
▁સોગંદનામામાં	-7618
;(	-7619
ળું	-7620
▁સફ	-7621
દ્ધા	-7622
▁def	-7623
▁અસરથી	-7624
▁બાળકની	-7625
▁પહેલાંના	-7626
▁વિધાનસભામાં	-7627
િગ	-7628
જુઓ	-7629
ગત્ય	-7630
▁rais	-7631
▁ખામીઓ	-7632
▁ભારતે	-7633
▁પ્રોસેસ	-7634
▁યોજનાનો	-7635
▁પ્રવૃત્તિઓમાં	-7636
દીપ	-7637
▁ખાતું	-7638
▁લાવવાની	-7639
▁સેવામાંથી	-7640
▁generation	-7641
▁કાર્યક્ષમતા	-7642
ધારણા	-7643
▁સાચો	-7644
ર્મેશન	-7645
સિંહના	-7646
▁અગત્ય	-7647
▁સિંહા	-7648
▁પૂર્વજો	-7649
▁મિલકતના	-7650
▁રજૂઆતના	-7651
▁આવશ્યકપણે	-7652
▁સાર્વજનિક	-7653
▁હકારાત્મક	-7654
▁પોસ્ટમોર્ટ	-7655
▁અઠવાડિયામાં	-7656
▁પરિણામલક્ષી	-7657
▁મથા	-7658
▁કાપી	-7659
▁બંધાયેલ	-7660
▁વિદેશમાં	-7661
વંત	-7662
ડીએસ	-7663
ન્સના	-7664
ત્તીસગ	-7665
▁આર્મી	-7666
▁ટકાથી	-7667
▁પ્રગટ	-7668
▁સ્માર	-7669
▁સફળતાપૂર્વક	-7670
લને	-7671
▁મોન	-7672
▁અલ્ટ	-7673
▁કસરત	-7674
▁ચર્ચાઓ	-7675
▁આફ્રિકા	-7676
▁હસ્તક્ષેપ	-7677
ગાંવ	-7678
સમાન	-7679
ોલ	-7680
ard	-7681
કુર	-7682
પીએફ	-7683
બાજુ	-7684
વાયા	-7685
▁મરી	-7686
▁આંદો	-7687
▁કાચા	-7688
સ્થાપન	-7689
▁સ્વયં	-7690
▁મેઘાલય	-7691
▁ન્યાયાલયો	-7692
▁સિદ્ધાંતોની	-7693
એશન	-7694
ડું	-7695
ર્જ	-7696
▁થયાની	-7697
▁ઓળખાતા	-7698
▁કરેલું	-7699
▁ક્રિયાઓ	-7700
▁ફોરેન્સ	-7701
▁બ્લાસ્ટ	-7702
▁સંસ્થામાં	-7703
▁વ્યક્તિત્વ	-7704
પરે	-7705
લ્કો	-7706
▁નિયો	-7707
▁ઓળખવા	-7708
▁ગૃહના	-7709
▁મજબુત	-7710
▁પડકારવા	-7711
▁શાબ્દિક	-7712
▁ખેંચવાની	-7713
▁કાઉન્સિલની	-7714
▁આજથી	-7715
▁ડ્રે	-7716
▁દરવાજા	-7717
▁દહેજની	-7718
▁રસપ્રદ	-7719
▁ચર્ચાને	-7720
▁પ્રયાસો	-7721
▁સંભાવનાને	-7722
▁%	-7723
ગારી	-7724
▁કેશ	-7725
▁સંપા	-7726
▁વ્યભિ	-7727
▁રાસાયણિક	-7728
▁સૂચનામાં	-7729
▁કાયદેસરતા	-7730
▁ભાઇ	-7731
ચ્છનીય	-7732
ર્નિંગ	-7733
▁આકર્ષક	-7734
ધુ	-7735
▁wh	-7736
ટીસી	-7737
▁થિય	-7738
▁વધતા	-7739
▁વધવા	-7740
▁નબળાઇ	-7741
▁વપરાય	-7742
▁કેપિટલ	-7743
▁સંગઠનો	-7744
▁મોકલ્યો	-7745
▁સાક્ષીના	-7746
ડકર	-7747
▁દમન	-7748
▁આગાહી	-7749
▁કેપ્ટ	-7750
▁બ્રિટ	-7751
▁શરતોની	-7752
▁સદ્ભાવના	-7753
▁રિઝોલ્યુશન	-7754
▁ઉછ	-7755
▁કવર	-7756
▁રાઇ	-7757
▁ગામના	-7758
▁રિકવરી	-7759
▁બૌદ્ધિક	-7760
▁કવાયતમાં	-7761
▁પહોંચાડી	-7762
▁રિપબ્લિક	-7763
▁લિક્વિડેટ	-7764
યાર	-7765
સ્ડ	-7766
ંગ્લા	-7767
▁નૃત્ય	-7768
▁છત્તીસગ	-7769
▁પાડવાનો	-7770
ian	-7771
ડપટ્ટી	-7772
▁વરસાદ	-7773
▁શરૂઆતથી	-7774
▁નિમણૂકના	-7775
▁બાયોમેટ્રિક	-7776
ચય	-7777
ડન્ટ	-7778
મેળે	-7779
▁આજુ	-7780
દાવાદ	-7781
▁આઈડી	-7782
▁જંતુ	-7783
▁તથ્યની	-7784
▁સેવાઓની	-7785
▁મુકાયેલી	-7786
▁અસ્પષ્ટતા	-7787
por	-7788
રુતિ	-7789
▁આયોગના	-7790
▁ધરાવતો	-7791
▁વિષયની	-7792
▁રાજ્યોને	-7793
▁ઇન્ફર્મેશન	-7794
▁સદસ્ય	-7795
▁લોકોનો	-7796
▁હુકમનો	-7797
માણુ	-7798
વર્ડ	-7799
વિકા	-7800
વિધ્ય	-7801
▁કઠોર	-7802
▁આપમેળે	-7803
ંગ્લાદેશ	-7804
▁અપમાનજનક	-7805
▁ઉલ્લેખનીય	-7806
▁ફોરેન્સિક	-7807
અનુ	-7808
ભેદ	-7809
ects	-7810
▁IST	-7811
▁ફ્રેમ	-7812
▁સ્થિતિનો	-7813
ગ્નિ	-7814
▁call	-7815
▁આક્રમ	-7816
▁ટૂંકી	-7817
▁ટ્રેક	-7818
▁નીચલા	-7819
▁પ્રોફ	-7820
▁શેરના	-7821
▁ખુલાસા	-7822
▁કહેવાની	-7823
▁પદભ્રષ્ટ	-7824
▁સંખ્યાબંધ	-7825
▁પ્રશ્નાર્થમાં	-7826
એડ	-7827
સભ	-7828
અસર	-7829
લોના	-7830
▁ગુમ	-7831
▁ખુશી	-7832
▁અભિનય	-7833
▁જોખમી	-7834
▁નહેરુ	-7835
▁સમુદ્ર	-7836
▁સમજાવવા	-7837
▁નિર્ણયોની	-7838
જેમ	-7839
ખાના	-7840
રાના	-7841
▁ઘડી	-7842
▁પિટિશનને	-7843
▁નિષ્કર્ષને	-7844
▁બાળકોની	-7845
▁પ્રવેશની	-7846
▁મૃત્યુના	-7847
▁ઝઘ	-7848
▁છૂટી	-7849
▁ફાયર	-7850
ન્દિરા	-7851
▁બેન્ક	-7852
▁વિધવા	-7853
▁શાળાના	-7854
▁સમજાવી	-7855
▁આજુબાજુ	-7856
▁પ્રદાતા	-7857
▁યોજાયેલ	-7858
▁વૈવિધ્ય	-7859
▁વ્યાપકપણે	-7860
સલાહ	-7861
▁કપટ	-7862
▁અનન્ય	-7863
▁ઇસ્લા	-7864
▁શ્વાસ	-7865
▁ગુમાવી	-7866
▁મહત્વના	-7867
▁કમિશનરને	-7868
▁મોર	-7869
પ્રિય	-7870
▁ઇજનેર	-7871
▁લોહીના	-7872
▁શક્તિઓ	-7873
▁ટ્રસ્ટના	-7874
▁ઘટાડવામાં	-7875
▁પક્ષકારોને	-7876
મ્ડ	-7877
▁કોર્પ	-7878
▁તેઓની	-7879
▁પાડવી	-7880
▁દાવેદારો	-7881
▁સર્વિસીસ	-7882
▁સોસાયટીના	-7883
ીની	-7884
▁અછ	-7885
▁શ્ર	-7886
▁કશું	-7887
▁વિમાન	-7888
▁રિસ્પો	-7889
▁મર્યાદાઓ	-7890
િત્રો	-7891
▁debt	-7892
▁આરડી	-7893
▁દવાઓ	-7894
▁અરુણા	-7895
▁જોઈને	-7896
▁મહેનતા	-7897
▁સલાહની	-7898
▁અમદાવાદ	-7899
▁આજીવિકા	-7900
▁દર્શાવવા	-7901
▁રૂપિયાથી	-7902
સ્ક્રિપ્શન	-7903
ault	-7904
ટોમો	-7905
શ્ચય	-7906
▁પેન	-7907
▁આઈટી	-7908
આર્થિક	-7909
▁અપનાવવા	-7910
▁નાબાર્ડ	-7911
▁વ્યવહારના	-7912
▁સ્વીકાર્યા	-7913
res	-7914
ટ્ર	-7915
▁જોઇ	-7916
▁સેસ	-7917
▁પકડી	-7918
▁વેંક	-7919
▁આશંકા	-7920
▁ફાર્મ	-7921
▁કેમિકલ	-7922
▁આતંકવાદ	-7923
▁કાર્યાલય	-7924
▁ફરિયાદની	-7925
▁En	-7926
▁ધ્વ	-7927
▁ફોરમ	-7928
▁જુદાં	-7929
▁પરમાણુ	-7930
▁સહાયથી	-7931
▁ગેરહાજર	-7932
▁ચાર્જની	-7933
▁અનિચ્છનીય	-7934
▁વ્યક્તિઓએ	-7935
▁વ્યવસાયને	-7936
▁Or	-7937
ર્ગે	-7938
▁જોખમો	-7939
▁બદલાવ	-7940
▁બાળકના	-7941
▁હવામાન	-7942
▁અભિપ્રાયની	-7943
ગર્ભ	-7944
▁અર્ક	-7945
▁પીએમ	-7946
▁શરતી	-7947
જ્યુએટ	-7948
ન્ડિંગ	-7949
▁કામકા	-7950
▁એકસાથે	-7951
▁તથ્યના	-7952
પૂર્વકની	-7953
▁જિલ્લાના	-7954
▁પરિપૂર્ણ	-7955
▁પ્રોફેસર	-7956
▁વિકાસકર્તા	-7957
નામી	-7958
▁મસ્	-7959
▁લખન	-7960
▁પીએસ	-7961
▁વધેલી	-7962
ાનાત્મક	-7963
▁access	-7964
▁રિસર્ચ	-7965
▁પ્રધાનની	-7966
બૂ	-7967
▁જોયા	-7968
▁હિંમત	-7969
▁દાવોની	-7970
▁સીડબ્લ્યુ	-7971
▁શાંતિપૂર્ણ	-7972
▁અગ	-7973
▁વડે	-7974
▁બિંદુ	-7975
▁સાયકલ	-7976
▁લાગતું	-7977
▁કેટલીકવાર	-7978
▁ફરિયાદીનો	-7979
▁ટ્રાન્સમિશન	-7980
ાયર	-7981
▁ભાગનો	-7982
▁પક્ષોના	-7983
▁ઇન્સ્ટ્ર	-7984
▁રાજ્યપાલની	-7985
▁ભેદભાવપૂર્ણ	-7986
ગીત	-7987
બીએ	-7988
રીઝ	-7989
ગાવોટ	-7990
▁જમીનો	-7991
▁દરિયાઇ	-7992
▁પક્ષોએ	-7993
▁સુધારી	-7994
▁ક્વાર્ટ	-7995
▁દુષ્કાળ	-7996
▁વિશ્વાસપાત્ર	-7997
જનો	-7998
વાલા	-7999
▁જીએ	-8000
▁બંદૂક	-8001
▁સપાટી	-8002
▁દુર્ભાગ	-8003
▁વિસંગતતા	-8004
▁સમાનતાના	-8005
▁બલ	-8006
નેશન	-8007
▁પવન	-8008
▁પાર્	-8009
▁વ્યૂ	-8010
વવાનું	-8011
▁લાખની	-8012
▁અગ્રતા	-8013
▁આંદોલન	-8014
▁કાવતરાના	-8015
▁બનાવવાનું	-8016
▁યોગ્યતાના	-8017
▁પોસ્ટમોર્ટમ	-8018
est	-8019
▁જિ	-8020
જીની	-8021
ડાના	-8022
▁ચોરી	-8023
▁અક્ષમ	-8024
▁યુવતી	-8025
▁વધવું	-8026
▁વોરંટ	-8027
▁આવકનું	-8028
▁બનવાની	-8029
ત્વાકર્ષ	-8030
▁સરનામાં	-8031
▁યુરોપિયન	-8032
▁કોન્ફરન્સ	-8033
▁સત્તાવાળા	-8034
▁મેજિસ્ટ્રેટની	-8035
શિયન	-8036
▁લોડ	-8037
▁પાયા	-8038
▁નિશ્ચય	-8039
▁મેગાવોટ	-8040
▁કિલોમીટર	-8041
▁વચગાળાની	-8042
▁એએ	-8043
ourt	-8044
▁એસઆઈ	-8045
▁સભ્યપદ	-8046
▁બાદબાકી	-8047
▁મુસદ્દા	-8048
▁પ્રતિકાર	-8049
▁હાઈકોર્ટને	-8050
▁ઉદ્યોગસાહસિક	-8051
ચ્યુ	-8052
▁પોષ	-8053
▁મૌન	-8054
ગોલિક	-8055
પ્રતિક	-8056
ભર્યું	-8057
▁એક્ઝે	-8058
▁પડેલા	-8059
▁અધિકારમાં	-8060
▁ગૌરવપૂર્ણ	-8061
▁ચળ	-8062
અપીલ્સ	-8063
▁ઘરેલુ	-8064
▁જેમના	-8065
▁ઉમેદવારને	-8066
▁મંત્રાલયો	-8067
▁સ્વીકાર્યો	-8068
િકસ	-8069
્યામ	-8070
▁જોતાં	-8071
▁નંબરો	-8072
▁આસપાસના	-8073
▁પિસ્તોલ	-8074
▁રાષ્ટ્રના	-8075
▁બાંગ્લાદેશ	-8076
▁ગુરુત્વાકર્ષ	-8077
ies	-8078
▁એડી	-8079
▁હોટ	-8080
નારને	-8081
પેક્ષ	-8082
▁પક્ષે	-8083
▁સ્થળો	-8084
▁તેટલું	-8085
▁બોર્ડે	-8086
▁લશ્કરી	-8087
એલઆર	-8088
િંગના	-8089
▁પોષણ	-8090
▁અધ્યા	-8091
▁અમારો	-8092
▁આટલું	-8093
▁ઇનપુટ	-8094
▁નિયામ	-8095
▁College	-8096
▁પ્રિન્સ	-8097
▁software	-8098
▁નિવેદનના	-8099
ks	-8100
સંભ	-8101
▁xxx	-8102
▁એડ્	-8103
▁રિવ	-8104
▁ગુલા	-8105
▁કમિશને	-8106
▁સેકન્ડ	-8107
▁પક્ષોની	-8108
▁પરિષદની	-8109
▁પાડ્યું	-8110
▁પાત્રતા	-8111
▁રક્તપિત	-8112
▁નોંધાવવા	-8113
▁6	-8114
રીથી	-8115
ેશનલ	-8116
▁સેન	-8117
િંગની	-8118
▁જૂની	-8119
▁મનની	-8120
▁રચિત	-8121
▁રોજનો	-8122
▁રજૂઆતની	-8123
▁બંધારણને	-8124
ted	-8125
▁ar	-8126
ંદરે	-8127
માની	-8128
▁બદલો	-8129
▁સર્ક	-8130
▁અપવાદો	-8131
▁અભિયાન	-8132
▁સિદ્ધિ	-8133
▁સમાનરૂપે	-8134
▁અધિકારોની	-8135
ટિક	-8136
વંશ	-8137
▁એઆર	-8138
▁જીપ	-8139
▁ઉપયોગને	-8140
▁કરનારનો	-8141
▁લક્ષ્મી	-8142
▁ઉત્પાદકો	-8143
▁અધિકારનું	-8144
▁ઇન્સ્ટ્રુ	-8145
નમ	-8146
આઉટ	-8147
ેટર	-8148
▁ભુ	-8149
▁પંડ	-8150
▁ચાવી	-8151
▁મલ્ટ	-8152
▁રોકી	-8153
▁ક્લિન	-8154
▁પ્રચાર	-8155
સ્ટ્રેલિયા	-8156
▁ઉત્પાદનની	-8157
▁રોકાણકારો	-8158
▁સામગ્રીનો	-8159
ત્રિમ	-8160
▁બીમાર	-8161
▁કચેરીઓ	-8162
▁શબ્દની	-8163
▁ભૌગોલિક	-8164
▁મુકાયેલા	-8165
▁લોકપ્રિય	-8166
▁વ્યવહારો	-8167
▁પ્રકૃતિને	-8168
ડેટેડ	-8169
▁મનાઈ	-8170
▁ગાળાની	-8171
▁બહારની	-8172
▁મોકલવા	-8173
▁મકાનમાં	-8174
▁સમયપત્રક	-8175
▁અધ્યક્ષતા	-8176
ંડન	-8177
ટકી	-8178
▁કામો	-8179
▁ગુણધ	-8180
▁ડાઉન	-8181
▁દુશ્	-8182
▁પગારની	-8183
▁મારુતિ	-8184
▁યુજીસી	-8185
▁વિષયના	-8186
▁જોડાયેલી	-8187
▁અધિકારોને	-8188
▁કાર્યક્રમમાં	-8189
▁ઉધાર	-8190
▁એગ્ર	-8191
▁શાળાઓ	-8192
▁અનુમતિ	-8193
▁આક્રમણ	-8194
▁મંડળના	-8195
▁અયોગ્યતા	-8196
▁અર્થપૂર્ણ	-8197
▁ડાયરેક્ટર	-8198
et	-8199
▁કઈ	-8200
ડીએફ	-8201
વાયેલા	-8202
▁આઝાદી	-8203
▁માંગીએ	-8204
▁વર્ગની	-8205
▁અજાણ્યા	-8206
▁પ્રચલિત	-8207
▁ખસેડવામાં	-8208
સણ	-8209
▁એઆઈ	-8210
▁ઠીક	-8211
મિશ્ર	-8212
▁વિવા	-8213
મૃત્યુ	-8214
▁આવેલો	-8215
▁ટકાના	-8216
▁દિવસો	-8217
▁નાગપુર	-8218
▁માંગવા	-8219
▁પેટાકંપની	-8220
ડ્	-8221
ght	-8222
પાઈ	-8223
સેન	-8224
▁-.	-8225
ંતોષ	-8226
પિરા	-8227
▁આક્રો	-8228
▁ડીડની	-8229
▁બદલાઈ	-8230
▁અનુવાદ	-8231
▁બદલીને	-8232
▁બેંકમાં	-8233
▁વાંચનથી	-8234
▁પૂર્વધારણા	-8235
લોક	-8236
▁el	-8237
▁war	-8238
દારોના	-8239
▁દરરોજ	-8240
▁મનમાં	-8241
▁લેટર્સ	-8242
▁સુયોજિત	-8243
▁સ્ત્રોત	-8244
▁બનાવવાના	-8245
િયસ	-8246
ેટ્સ	-8247
▁મંગ	-8248
▁ઉદભવે	-8249
▁તમારે	-8250
▁સંશોધ	-8251
▁સુરેશ	-8252
▁ક્વોલિ	-8253
▁લાઇસેંસ	-8254
▁હકીકતનો	-8255
▁હાઇડ્રો	-8256
▁વ્યભિચાર	-8257
▁મર્યાદાને	-8258
▁સ્વીકારવાની	-8259
એમએ	-8260
▁થવાને	-8261
▁મસ્જિ	-8262
▁વિષયક	-8263
▁એકંદરે	-8264
▁કાયદાનો	-8265
▁મંજૂરીના	-8266
▁Authority	-8267
▁અરજદારોના	-8268
▁ઉત્તરદાતાને	-8269
im	-8270
સહ	-8271
ઓસી	-8272
ઠાણ	-8273
માણસર	-8274
▁જમણી	-8275
▁થતું	-8276
▁કિસ્સાઓ	-8277
▁કૃત્રિમ	-8278
▁વિક્રેતા	-8279
▁અમલીકરણની	-8280
▁ઉત્પાદનના	-8281
ord	-8282
નેડ	-8283
િત્સ	-8284
▁કપા	-8285
▁કૌર	-8286
▁ગુર	-8287
▁રક્ષા	-8288
▁સોંપી	-8289
▁વેરાની	-8290
▁મહાત્મા	-8291
▁વાંચવું	-8292
▁કેઝ્યુઅલ	-8293
▁પુનર્નિર્માણ	-8294
હેબ	-8295
▁નફ	-8296
▁પિત	-8297
પત્ની	-8298
▁ઈન્ડ	-8299
▁રાઇફ	-8300
▁અપરાધી	-8301
▁દેશોના	-8302
▁નોટિસમાં	-8303
▁રક્તપિત્	-8304
▁ઝૂંપડપટ્ટી	-8305
શનો	-8306
િલે	-8307
▁Con	-8308
▁સાધ	-8309
કારણી	-8310
▁પડેલી	-8311
▁પાસું	-8312
▁બદલવા	-8313
▁મહાનુ	-8314
▁માર્ક	-8315
વ્યક્તિ	-8316
▁ચોખ્ખી	-8317
▁ભૂગર્ભ	-8318
▁સંગ્રહિત	-8319
▁લેટર	-8320
▁વીમો	-8321
હાત્મક	-8322
%%	-8323
ચાનક	-8324
હમ્મદ	-8325
▁એનએસ	-8326
▁મળેલ	-8327
▁વાયુ	-8328
▁પજવણી	-8329
નિર્દેશ	-8330
▁ટેલિકો	-8331
▁બનાવેલ	-8332
▁સભ્યને	-8333
▁સભ્યોએ	-8334
▁default	-8335
▁ગણતરીના	-8336
▁જજમેન્ટ	-8337
▁પ્રવાહી	-8338
▁અપવાદરૂપ	-8339
▁સમાધાનની	-8340
ur	-8341
▁ઉલ	-8342
આઇટી	-8343
ડીની	-8344
▁કોમ	-8345
▁ગ્રીન	-8346
▁ચૂકવી	-8347
▁ભાગલા	-8348
▁આક્રોશ	-8349
▁જીવનનો	-8350
▁રજિસ્ટ્રી	-8351
▁લાક્ષણિકતાઓ	-8352
ઇટી	-8353
ાનની	-8354
ધારિત	-8355
▁કિશન	-8356
▁બહેન	-8357
▁હટાવ	-8358
▁જૂથના	-8359
▁પેકેજ	-8360
▁ઇચ્છિત	-8361
▁ક્યાંય	-8362
▁નાણાંની	-8363
▁શસ્ત્રો	-8364
▁અદ	-8365
▁અંગત	-8366
▁સંકુ	-8367
▁અચાનક	-8368
▁છોકરા	-8369
▁યોજાયો	-8370
▁સભ્યની	-8371
▁પુનર્ગઠ	-8372
▁અદાલતોનો	-8373
▁મેટ્રિક્સ	-8374
દુર	-8375
પણા	-8376
▁VI	-8377
▁રેશ	-8378
▁ફેડર	-8379
▁યાર્ડ	-8380
▁સિક્યુ	-8381
▁ગ્રાઉન્ડ	-8382
▁જીવનસાથી	-8383
▁નિષ્ણાતો	-8384
▁સંદર્ભની	-8385
રાષ્ટ્રપતિ	-8386
▁માત્રામાં	-8387
▁વિચાર્યું	-8388
▁પ્રણાલીમાં	-8389
▁એઓ	-8390
બાઈલ	-8391
▁મનુ	-8392
▁રમેશ	-8393
▁સંકલ	-8394
પિરાઇટ	-8395
▁શરતોના	-8396
▁કબૂલ્યું	-8397
▁નીપજ્યું	-8398
▁ગેરકાયદેસરતા	-8399
▁१८	-8400
પીપી	-8401
૨૦૧૧	-8402
▁સરહ	-8403
▁વાઇસ	-8404
બીબીએસ	-8405
▁ઉતરાણ	-8406
▁ડોકટરો	-8407
▁પત્નીને	-8408
▁સંભળાવી	-8409
▁પ્રાઈવેટ	-8410
▁ભલામણોને	-8411
▁કવ	-8412
પ્લે	-8413
▁આર્મ	-8414
▁દેશે	-8415
▁રોહત	-8416
મચંદ્ર	-8417
▁જૂથની	-8418
▁પહોળા	-8419
▁સ્કીમ	-8420
▁એપ્લિક	-8421
▁માલનું	-8422
▁વ્યકિત	-8423
▁સંમતિથી	-8424
▁કાર્યોના	-8425
▁અવ્યવસ્થિત	-8426
▁વહેંચવામાં	-8427
▁વ્યૂહાત્મક	-8428
ંપ્ર	-8429
મિલી	-8430
સ્તે	-8431
▁માગે	-8432
્યંતિક	-8433
▁ઠાકુર	-8434
▁નામનો	-8435
▁ધર્મના	-8436
▁નિભાવવા	-8437
▁ચલાવવાનો	-8438
▁પ્લાનિંગ	-8439
▁ડીડીએ	-8440
▁બનાવો	-8441
▁ખર્ચના	-8442
▁ખાતાના	-8443
▁વિનાની	-8444
રન્સ	-8445
વેલા	-8446
દાયિક	-8447
▁એકતા	-8448
▁પડતો	-8449
▁નક્કર	-8450
▁મોટું	-8451
▁તપાસનો	-8452
▁સાથેનો	-8453
▁કાયદાઓને	-8454
▁સિદ્ધાંતોનો	-8455
લ્ફ	-8456
▁ડૂ	-8457
દેશી	-8458
▁ગરમ	-8459
▁dele	-8460
▁અંશે	-8461
▁જર્મ	-8462
▁આવતાં	-8463
▁કાગળો	-8464
▁દોરવા	-8465
▁રહેતી	-8466
▁વારસા	-8467
▁ઇવેન્ટ	-8468
▁વોલ્યુમ	-8469
▁સંબોધિત	-8470
▁ઉદ્યોગના	-8471
▁સ્વીકારવી	-8472
▁કાર્યવાહીથી	-8473
▁ઉત્તરદાતાઓના	-8474
▁ન્યાયાધીશોને	-8475
વેદી	-8476
ફરિયા	-8477
▁રૂલ્સ	-8478
સામગ્રી	-8479
▁એમબીબીએસ	-8480
▁એક્સપ્રેસ	-8481
નગર	-8482
મંડળ	-8483
▁સીઈ	-8484
▁જૂના	-8485
▁બળજબ	-8486
▁લેતો	-8487
▁એકેડે	-8488
▁માનું	-8489
▁સ્વાયત	-8490
▁મુકદ્દમો	-8491
ab	-8492
પિ	-8493
▁અપનાવી	-8494
▁ચૂંટણીઓ	-8495
▁દુષ્કર્	-8496
▁પ્રતિભા	-8497
▁મુદ્દાઓની	-8498
33	-8499
ણ્ય	-8500
માર્ક	-8501
▁હ્યુ	-8502
▁બેંકને	-8503
▁તાર્કિક	-8504
▁મૂલ્યની	-8505
▁લગાવ્યો	-8506
▁અવમૂલ્યન	-8507
▁દર્શાવેલ	-8508
▁મહાનુભાવ	-8509
▁સિદ્ધાંતનો	-8510
▁અપીલકર્તાના	-8511
▁જલ	-8512
▁ઝા	-8513
▁છઠ્ઠા	-8514
▁ટુકડા	-8515
▁લાભની	-8516
▁મંડળની	-8517
▁રોજગારી	-8518
▁ભાગીદારો	-8519
▁ઉલ્લંઘનમાં	-8520
▁પ્રજાસત્તાક	-8521
▁દ્રષ્ટિકોણથી	-8522
os	-8523
બ્રા	-8524
્રીટ	-8525
▁સાઠ	-8526
▁ખૂણા	-8527
▁ભાડૂ	-8528
▁ધારકો	-8529
▁સર્કિટ	-8530
▁ગેરવર્ત	-8531
▁સંમિશ્ર	-8532
▁ટેલિવિઝન	-8533
▁વાટાઘાટો	-8534
▁ઉત્તરાખંડ	-8535
▁તબક્કામાં	-8536
ere	-8537
લ્વે	-8538
▁નાદારી	-8539
▁સંલગ્ન	-8540
▁આદિજાતિ	-8541
▁નીતિમાં	-8542
▁વિલંબના	-8543
▁અરજીઓમાં	-8544
▁આત્યંતિક	-8545
▁પક્ષકારોએ	-8546
▁પ્રોપર્ટી	-8547
▁મંતવ્યમાં	-8548
▁અટકાવવામાં	-8549
▁આશ્ચર્યજનક	-8550
▁પ્રોજેક્ટની	-8551
▁sh	-8552
▁ઠે	-8553
શિયલ	-8554
▁કિં	-8555
સીટીઇ	-8556
▁સ્વે	-8557
ાયેલું	-8558
▁ટેસ્ટ	-8559
▁મહેતા	-8560
▁હિતના	-8561
▁આશ્રિત	-8562
▁સ્પર્શ	-8563
▁ઇન્વેસ્ટ	-8564
ges	-8565
▁Th	-8566
તાવળ	-8567
▁sci	-8568
▁મળતા	-8569
▁મુખર	-8570
▁લાદી	-8571
▁ઉર્ફે	-8572
▁પછીનો	-8573
▁પ્રિય	-8574
▁માનતા	-8575
▁કિંમતી	-8576
▁ગૃહમાં	-8577
▁ત્રીજો	-8578
▁મૂકાયો	-8579
▁રસ્તાઓ	-8580
▁પ્રોસેસિંગ	-8581
▁પ્રમાણપત્રો	-8582
▁આયુ	-8583
▁આપણો	-8584
▁દિવા	-8585
▁પથ્થ	-8586
▁ભોજન	-8587
ંપ્રદાયિક	-8588
▁અર્થઘટનના	-8589
▁ઉદ્દેશ્યને	-8590
▁વિશ્વસનીયતા	-8591
▁અભિવ્યક્તિને	-8592
▁ઇલેક્ટ્રોનિક્સ	-8593
ટિ	-8594
વીર	-8595
▁he	-8596
▁કૂ	-8597
ગ્રેડ	-8598
▁ત્યા	-8599
▁મશીન	-8600
▁સંઘના	-8601
▁ઉચ્ચતમ	-8602
▁ખેડુતો	-8603
▁પાછળના	-8604
▁સબમિશન	-8605
▁દૃષ્ટિએ	-8606
▁ટ્રેડિંગ	-8607
▁ઉદ્દેશ્યો	-8608
▁ચુકાદાઓને	-8609
▁સાક્ષીઓને	-8610
▁થાપણો	-8611
▁મળતું	-8612
▁કમિટીની	-8613
▁માલિકને	-8614
▁હકીકતથી	-8615
▁ગંભીરતાથી	-8616
▁જવાબદારની	-8617
ટુ	-8618
▁દિન	-8619
▁શાક	-8620
▁ઘડ્યા	-8621
▁ટ્રાય	-8622
▁કર્ણાટ	-8623
▁જોવાની	-8624
▁મોનિટર	-8625
▁ઉપક્રમો	-8626
▁એમએસએમઇ	-8627
▁ખર્ચમાં	-8628
▁સૂચવ્યું	-8629
▁રિલાયન્સને	-8630
કલા	-8631
▁અફ	-8632
ટિયા	-8633
વાઇઝ	-8634
▁જાન	-8635
નિકારક	-8636
સ્ક્રા	-8637
▁અવગણી	-8638
▁લેણાં	-8639
▁પુત્રો	-8640
▁ફેમિલી	-8641
▁શક્યતા	-8642
▁કોલસાની	-8643
▁પ્રોડક્ટ	-8644
▁ઇન્ટરનેશનલ	-8645
▁વિવેકબુદ્ધિનો	-8646
▁al	-8647
▁વાયર	-8648
▁કક્ષાએ	-8649
▁વિવાદનો	-8650
▁આચરવામાં	-8651
▁અપ્રમાણસર	-8652
▁સમયગાળાને	-8653
▁historical	-8654
ધીશ	-8655
વવો	-8656
▁rem	-8657
▁ફટા	-8658
▁હજુ	-8659
ર્મેટ	-8660
▁શંકર	-8661
▁અમલના	-8662
▁અમારે	-8663
▁ઉપરથી	-8664
▁મલ્ટિ	-8665
▁પામ્યા	-8666
▁પ્રત્ય	-8667
▁રાહતની	-8668
▁ટેલિકોમ	-8669
▁બિનસલાહ	-8670
▁કરાવવાની	-8671
▁રચનાત્મક	-8672
▁સંજોગોના	-8673
▁કોન્સ્ટેબલ	-8674
છલી	-8675
▁બળત	-8676
▁માળ	-8677
▁ડિફે	-8678
▁ત્રા	-8679
સ્કારો	-8680
▁ગેરસમ	-8681
▁પરમિટ	-8682
▁અસંતોષ	-8683
▁પગારના	-8684
▁મિકેનિઝમ	-8685
▁જવાબદારીના	-8686
▁વિદ્યાર્થીઓની	-8687
નન	-8688
▁કહેલી	-8689
▁કોન્સ	-8690
▁ન્યુન	-8691
▁પ્રજન	-8692
▁આદેશના	-8693
▁મકાનના	-8694
▁લેવાતા	-8695
▁ચૂકવણીની	-8696
opy	-8697
એનએલ	-8698
વીઝન	-8699
▁કંઇક	-8700
▁હુમલા	-8701
▁નંબરની	-8702
▁પારદર્શક	-8703
▁પુરસ્કારો	-8704
▁પ્રોવિડન્ટ	-8705
▁ઉત્તરાધિકાર	-8706
▁ડિપાર્ટમેન્ટ	-8707
▁જઈ	-8708
વ્યુ	-8709
▁નીચ	-8710
▁ક્લે	-8711
▁ચેનલ	-8712
▁જુવે	-8713
▁ઇન્સો	-8714
▁માછલી	-8715
▁એનજેએસી	-8716
▁છૂટકારો	-8717
▁દાણચોરી	-8718
▁બ્લોક્સ	-8719
▁પૂછવામાં	-8720
▁જવાબદારીની	-8721
▁ટેન	-8722
▁થ્ર	-8723
▁કપાસ	-8724
▁મથાળા	-8725
▁સમયનો	-8726
▁સર્વસ	-8727
▁પ્રસંગોએ	-8728
▁પૂર્વનિર્	-8729
કાલે	-8730
કિટે	-8731
ન્ડી	-8732
મેઇલ	-8733
િટીશ	-8734
▁પાન	-8735
્યુશન	-8736
▁ઇચ્છે	-8737
▁લઘુતમ	-8738
▁થવામાં	-8739
▁સમારકામ	-8740
▁ડાયરેક્ટ	-8741
▁વસૂલવાની	-8742
▁સેવાઓમાં	-8743
▁ઓથોરિટીને	-8744
▁પ્રત્યક્ષ	-8745
ગમો	-8746
ન્ચ	-8747
ઝનેસ	-8748
▁સારો	-8749
▁પ્રાઇ	-8750
▁નજીકથી	-8751
▁મણિપુર	-8752
▁રેડિયો	-8753
▁સ્ટોરેજ	-8754
▁વધારવાનો	-8755
▁વિચારણાની	-8756
ઝો	-8757
પંચ	-8758
ભું	-8759
▁અકુ	-8760
▁પાવ	-8761
▁એનસી	-8762
▁ખ્રિ	-8763
▁રોકાણો	-8764
▁વળતરના	-8765
▁કાશ્મીર	-8766
▁મામલાની	-8767
▁પેન્શનની	-8768
▁વિધાનસભાએ	-8769
▁પુનર્જીવિત	-8770
▁પ્લેટફોર્મ	-8771
▁આંચ	-8772
▁શાખાઓ	-8773
▁સુબ્ર	-8774
▁જથ્થાબંધ	-8775
▁માળખામાં	-8776
▁હાનિકારક	-8777
▁સંરક્ષણના	-8778
▁સંરક્ષણની	-8779
જીને	-8780
▁high	-8781
▁પર્સ	-8782
▁પ્રભુ	-8783
▁હાલનો	-8784
▁બાંધકામના	-8785
mber	-8786
▁આનુષ	-8787
ટુંબિક	-8788
▁રાજેશ	-8789
▁શોધને	-8790
▁વર્ગને	-8791
▁સમાજને	-8792
▁લાયકાતો	-8793
▁અધિકારોના	-8794
▁કેન્દ્રમાં	-8795
▁સિદ્ધાંતના	-8796
ણપણ	-8797
ર્ય	-8798
▁જોર	-8799
ક્ટેડ	-8800
▁બેંકે	-8801
▁શાણપણ	-8802
▁ઇન્ડિયન	-8803
▁રૂપરેખા	-8804
▁કમિશનરની	-8805
▁ચૂકવવાનો	-8806
▁મેન્યુફે	-8807
▁સત્તાધિકારી	-8808
▁નન	-8809
અન્ય	-8810
ટીને	-8811
વિજ્	-8812
્સનો	-8813
▁કડી	-8814
▁નોડલ	-8815
▁શેરી	-8816
▁ગોઠવણી	-8817
▁આર્કિટે	-8818
▁સ્થિરતા	-8819
▁ચૂકવવાના	-8820
un	-8821
લોડ	-8822
જનરલ	-8823
▁ઇસી	-8824
▁કોશ	-8825
જ્યાં	-8826
▁ફ્રા	-8827
▁વિરામ	-8828
▁વ્યર્થ	-8829
▁સાક્ષર	-8830
▁એમ્પ્લોય	-8831
▁પીડિતાને	-8832
▁રામચંદ્ર	-8833
▁ચુકાદાઓનો	-8834
▁રક્તપિત્ત	-8835
▁એફિડેવિટમાં	-8836
શિપ	-8837
સરા	-8838
▁શૂ	-8839
▁કંઇપણ	-8840
▁બિલની	-8841
▁આયોગની	-8842
▁નોંધાયા	-8843
▁ગર્ભાવસ્થા	-8844
▁રિપોર્ટમાં	-8845
----------------	-8846
▁No	-8847
ફક્ત	-8848
▁ચૌદ	-8849
▁અકાળ	-8850
▁દખલની	-8851
▁નીકળી	-8852
▁નોંધો	-8853
▁મદદની	-8854
▁મનોહર	-8855
▁ભંડોળની	-8856
▁પાણીનો	-8857
▁પહોંચાડવાની	-8858
▁મજબૂ	-8859
▁આગળનો	-8860
▁કિંગડ	-8861
▁પ્રબળ	-8862
▁શાકભા	-8863
▁દૂરસ્થ	-8864
▁નીચેનો	-8865
▁પરિચિત	-8866
▁સંયોજન	-8867
▁હટાવવા	-8868
▁બ્રિટીશ	-8869
▁વેપારના	-8870
▁મંજૂરીને	-8871
▁સત્તાઓનો	-8872
▁સમયગાળાના	-8873
નિય	-8874
વીસ	-8875
▁મં	-8876
▁remov	-8877
▁નિશાન	-8878
▁બ્રિજ	-8879
▁સરપ્લ	-8880
▁શાસનની	-8881
▁નિયમોનો	-8882
▁શિસ્તની	-8883
▁સ્પેક્ટ	-8884
▁જુવેનાઇલ	-8885
▁દેશભરમાં	-8886
▁શિક્ષાપાત્ર	-8887
)]	-8888
નિલ	-8889
▁ખી	-8890
હાટી	-8891
▁કેમ્પ	-8892
▁માર્યો	-8893
▁બ્રિટિશ	-8894
▁કાર્યોની	-8895
▁પ્રવૃત્તિઓને	-8896
નતમ	-8897
▁ઘો	-8898
બેડકર	-8899
વિશેષ	-8900
▁ઘણું	-8901
▁પુષ્	-8902
▁ટ્રાં	-8903
▁બતાવી	-8904
▁બાગાય	-8905
▁સહયોગી	-8906
▁કૌટુંબિક	-8907
▁વિસ્ફોટક	-8908
▁વ્યક્તિનું	-8909
લેસ	-8910
▁.-	-8911
સેવા	-8912
ાવતી	-8913
▁પેશ	-8914
ઉત્તર	-8915
▁અડધા	-8916
▁ગુજાર	-8917
▁લિફ્ટ	-8918
શ્વસનીય	-8919
▁પહોંચે	-8920
▁ભાડૂતને	-8921
▁વ્યક્તિનો	-8922
▁સબ્સ્ક્રા	-8923
ઝના	-8924
હરા	-8925
▁કૈ	-8926
બીની	-8927
બોર્ડ	-8928
▁રાજુ	-8929
▁જેલની	-8930
▁યુએસએ	-8931
▁સુપરિ	-8932
▁હક્કો	-8933
▁નિવારક	-8934
▁યાંત્ર	-8935
▁સંગઠિત	-8936
▁કક્ષાની	-8937
▁કચેરીમાં	-8938
▁પ્રાધાન્યતા	-8939
ટરી	-8940
મલા	-8941
▁બીચ	-8942
ધારકો	-8943
નારાઓ	-8944
ન્સની	-8945
▁આંખના	-8946
▁રાજીવ	-8947
▁કુમારે	-8948
▁બનાવતી	-8949
▁ઇન્સ્યુ	-8950
▁કારણોની	-8951
▁ચર્ચાના	-8952
▁અટકાયતનો	-8953
▁મહેનતાણું	-8954
કરણના	-8955
▁ઉમદા	-8956
▁નીચા	-8957
▁પદવી	-8958
▁કમાન્ડ	-8959
▁કિંમતે	-8960
▁સંતોષવા	-8961
▁મુક્તિની	-8962
▁અઠવાડિયાની	-8963
તીની	-8964
▁આગે	-8965
▁એસ્	-8966
▁લઈએ	-8967
▁અંતરે	-8968
▁જવાની	-8969
▁સુપ્ર	-8970
▁સિંચાઇ	-8971
▁જાણીતું	-8972
▁માર્ગમાં	-8973
▁ગુનેગારને	-8974
▁ન્યાયપાલિકા	-8975
મિત	-8976
વાટ	-8977
▁હળ	-8978
▁હી	-8979
▁VII	-8980
▁અનાજ	-8981
▁ચર્ચ	-8982
▁તકલી	-8983
▁અવગણવામાં	-8984
▁ભૂતકાળમાં	-8985
▁સુનાવણીનો	-8986
ers	-8987
મોડ	-8988
▁તેજ	-8989
રક્ષા	-8990
▁વિજે	-8991
▁ક્લિયર	-8992
▁સરચાર્જ	-8993
▁કોંગ્રેસ	-8994
▁ખાણકામની	-8995
▁ફરિયાદને	-8996
▁Australia	-8997
▁જોગવાઈઓથી	-8998
ેય	-8999
ain	-9000
થું	-9001
▁ઓડિ	-9002
▁અહમદ	-9003
▁પર્વ	-9004
▁રાખો	-9005
▁આંગળી	-9006
▁અગિયાર	-9007
▁પાલિકા	-9008
▁સંપાદનની	-9009
▁સ્વાયત્ત	-9010
▁ટ્રાન્સપોર્ટ	-9011
▁રોય	-9012
સંભાળ	-9013
▁ગ્લો	-9014
▁મિત્	-9015
▁અસરની	-9016
▁રાઉન્ડ	-9017
▁અરજીઓનો	-9018
▁જવાબદારીને	-9019
સાઇ	-9020
rise	-9021
ંકિત	-9022
િંગર	-9023
▁app	-9024
▁ડિમ	-9025
▁પીછ	-9026
▁લડત	-9027
▁ઉપભો	-9028
▁ક્રિ	-9029
સ્નાતક	-9030
▁નફાકારક	-9031
▁પ્રિન્ટ	-9032
▁માધ્યમો	-9033
▁પ્રોબેશન	-9034
▁કાયદેસરના	-9035
▁છત	-9036
▁ધન	-9037
ન્ડા	-9038
ર્થક	-9039
▁આઘાત	-9040
▁ભાવે	-9041
▁શકું	-9042
▁અગ્નિ	-9043
▁સૈનિક	-9044
▁તપાસને	-9045
▁પ્રજનન	-9046
▁બંનેની	-9047
▁સબ્સ્ક્રાઇબ	-9048
▁સિદ્ધાંતોના	-9049
ાઇઝ	-9050
ઇઝ્ડ	-9051
▁લાક	-9052
િલન્સ	-9053
▁એસેટ	-9054
▁ઉતાવળ	-9055
▁બાબતના	-9056
▁કોલકાતા	-9057
▁આનુષંગિક	-9058
▁પાકિસ્તા	-9059
▁મેન્યુઅલ	-9060
▁સાધનસામગ્રી	-9061
સીલ	-9062
તીના	-9063
બીના	-9064
▁દુબઈ	-9065
▁જનરલે	-9066
▁સિસ્ટ	-9067
▁નીતિને	-9068
▁પાછળની	-9069
▁ફટાકડા	-9070
▁વિશ્લેષ	-9071
▁વેચવાના	-9072
▁જોડવામાં	-9073
▁માહિતીનો	-9074
▁યોગ્યતાઓ	-9075
▁એકાઉન્ટન્ટ	-9076
વત	-9077
ડની	-9078
રીયલ	-9079
▁ઉન્ન	-9080
▁બાબુ	-9081
▁પ્રોવિસ	-9082
▁કર્ણાટકની	-9083
▁આડકત	-9084
▁કૌશલ	-9085
▁સભામાં	-9086
▁વાંચીને	-9087
▁ચુકાદાઓની	-9088
ઇંગ	-9089
▁સપો	-9090
▁એલજે	-9091
▁નાની	-9092
▁વીતી	-9093
ન્યાયા	-9094
▁દેખાવ	-9095
▁રહેતો	-9096
▁રાકેશ	-9097
▁અટકાવે	-9098
▁કારણને	-9099
▁શાસનના	-9100
▁જરૂરીયા	-9101
▁વેચાણને	-9102
▁તંદુરસ્ત	-9103
▁અધિનિયમનો	-9104
▁અમલીકરણમાં	-9105
▁નિશ્ચિતપણે	-9106
aw	-9107
સાસ	-9108
▁એપ	-9109
▁was	-9110
▁શિખ	-9111
▁ક્લાય	-9112
▁ગયેલા	-9113
▁ગોલ્ડ	-9114
▁સૂર્ય	-9115
▁scient	-9116
▁વકીલને	-9117
▁પુનર્ગઠન	-9118
હાઇ	-9119
▁છરી	-9120
▁ડીલ	-9121
▁હરિ	-9122
ટેક્સ	-9123
રામાં	-9124
▁જોવી	-9125
▁ફરાર	-9126
▁ફ્રી	-9127
▁એમિકસ	-9128
▁પાડતી	-9129
▁લાકડા	-9130
▁લાવશે	-9131
▁નમૂનાઓ	-9132
▁હિતોને	-9133
કર્મચારી	-9134
▁પ્રિન્સિ	-9135
१९	-9136
એટી	-9137
નાશ	-9138
રિત	-9139
▁St	-9140
એસપી	-9141
▁નાથ	-9142
▁પરી	-9143
▁જેટલો	-9144
▁રાહતનો	-9145
▁ફેડરેશન	-9146
▁સંસાધનોના	-9147
▁અવિશ્વસનીય	-9148
▁ન્યાયાલયની	-9149
રિકા	-9150
ફાઇંગ	-9151
▁ઉછેર	-9152
▁છૂટક	-9153
▁દુર્ઘ	-9154
▁હાંકી	-9155
સ્થાપના	-9156
▁આડકતરી	-9157
▁દાવોના	-9158
ષ્ટિકોણમાં	-9159
▁ઇલેક્ટ્રિક	-9160
▁પ્રયત્નોને	-9161
▁ટ્રિબ્યુનલનો	-9162
નન્સ	-9163
ારામ	-9164
▁કેરો	-9165
▁મળવા	-9166
▁મોટે	-9167
▁સૂચક	-9168
▁માંગને	-9169
▁નિરર્થક	-9170
▁ન્યૂનતમ	-9171
▁કંપનીઓની	-9172
▁ખામીયુક્ત	-9173
▁પત્રવ્યવહાર	-9174
ફેર	-9175
સીએસ	-9176
કાર્ય	-9177
કૃષ્ટ	-9178
▁પેરે	-9179
▁વન્ય	-9180
▁અનૈતિક	-9181
▁કેસોને	-9182
▁મેળવશે	-9183
▁ટેક્સની	-9184
▁રાખવાના	-9185
▁અવિભાજિત	-9186
▁મોટાભાગની	-9187
▁લેણદારોની	-9188
▁નિવાસસ્થાન	-9189
▁વિધાનસભાને	-9190
ET	-9191
ંતીને	-9192
▁એટલો	-9193
▁નેપા	-9194
▁વધશે	-9195
▁Court	-9196
▁આયોગે	-9197
▁ઓર્ગે	-9198
▁ફરીયા	-9199
▁માનવી	-9200
▁જોડાણો	-9201
▁warrant	-9202
▁અલ્ટ્રા	-9203
▁કારણોના	-9204
▁પ્રભારી	-9205
▁ફાયરિંગ	-9206
▁કામગીરીના	-9207
▁નિયંત્રણમાં	-9208
▁નૌ	-9209
શ્વર	-9210
▁ભેગા	-9211
▁મુકવા	-9212
▁લોનની	-9213
▁raised	-9214
▁પરિણમે	-9215
▁મંદિરમાં	-9216
▁પાકિસ્તાન	-9217
▁સાર્વભૌમત્વ	-9218
પ્શન	-9219
વાળો	-9220
▁ટેક	-9221
▁ફરક	-9222
▁પાઇપ	-9223
કર્તાએ	-9224
▁મદદનીશ	-9225
▁હિસ્સે	-9226
▁ગુનાઓની	-9227
▁દર્દીની	-9228
▁સાક્ષીને	-9229
પ્રતિક્રિયા	-9230
▁સિદ્ધાંતનું	-9231
ઉદ	-9232
રાન	-9233
▁“.	-9234
ભરના	-9235
મૃતક	-9236
▁થેલી	-9237
લોજીકલ	-9238
▁અપડેટ	-9239
▁અવશેષ	-9240
▁હકનું	-9241
▁કમિટીએ	-9242
▁સરપ્લસ	-9243
▁અનામતની	-9244
▁આરોપોને	-9245
▁અસમર્થતા	-9246
લાભ	-9247
▁XXX	-9248
orpor	-9249
▁ગૃહની	-9250
▁અપીલરે	-9251
▁સુધીનો	-9252
▁કોલસાના	-9253
▁શ્રદ્ધા	-9254
▁સિસ્ટમો	-9255
▁યુનિવર્સિટીની	-9256
ભવી	-9257
વને	-9258
વીસી	-9259
ડીમાં	-9260
▁ચળવળ	-9261
▁જાણતા	-9262
▁દર્શન	-9263
▁પડોશી	-9264
▁બાંધી	-9265
▁અસ્થિર	-9266
▁સ્વાગત	-9267
▁ઇનોવેશન	-9268
▁બનાવીને	-9269
▁અપનાવ્યો	-9270
▁ઉપયોગિતા	-9271
▁કરનારનું	-9272
▁ખ્રિસ્તી	-9273
▁વિનંતીને	-9274
▁અધ્યક્ષતામાં	-9275
▁અભિવ્યક્તિના	-9276
દગી	-9277
મનો	-9278
olic	-9279
▁અબજ	-9280
▁છુટ	-9281
▁ઓર્ડ	-9282
▁ફીની	-9283
▁ઉમેરો	-9284
▁કોશિશ	-9285
▁કેસોનો	-9286
▁પ્રમોટ	-9287
▁મહત્વા	-9288
▁મહિનાનો	-9289
▁સેવાઓના	-9290
▁ઉમેર્યું	-9291
▁ઇન્ટરવ્યુ	-9292
▁શિસ્તબદ્ધ	-9293
▁..........	-9294
▁સ્પષ્ટીકરણ	-9295
ટેજ	-9296
શયો	-9297
ક્રા	-9298
ોલ્ડ	-9299
ગાર્ડ	-9300
▁ઉત્સ	-9301
▁સહીઓ	-9302
▁અભયાર	-9303
▁ડ્રાઈ	-9304
▁જગ્યાના	-9305
▁ધરાવતું	-9306
▁યાંત્રિક	-9307
▁કામદારોના	-9308
▁પ્રવર્તમાન	-9309
ર્દી	-9310
કારોને	-9311
▁કર્યુ	-9312
▁મર્જર	-9313
▁શ્યામ	-9314
▁વાહનનો	-9315
▁ચિકિત્સ	-9316
▁દર્દીને	-9317
▁સંબંધીઓ	-9318
▁વિજિલન્સ	-9319
▁પ્રદેશોના	-9320
▁ગુણવત્તાની	-9321
િના	-9322
▁))	-9323
ક્લે	-9324
▁આખો	-9325
▁ચેટ	-9326
▁જબર	-9327
▁એનટી	-9328
▁પંચની	-9329
▁પૂર્તિ	-9330
▁બિઝનેસ	-9331
▁ઘટાડીને	-9332
▁વહીવટની	-9333
▁અવિભાજ્ય	-9334
▁સલાહકારી	-9335
▁અનુસ્નાતક	-9336
▁અભિપ્રાયમાં	-9337
પેટ	-9338
ષિત	-9339
િયોગ	-9340
રિક્ત	-9341
▁કાવે	-9342
▁ટાળી	-9343
▁પુરી	-9344
નિકેશન	-9345
▁ઓડિશા	-9346
▁સ્કૂટર	-9347
▁અહેવાલને	-9348
▁લક્ષ્યાં	-9349
▁સુપરવાઇઝ	-9350
કામો	-9351
પર્સ	-9352
▁મેચ	-9353
આઈડીએ	-9354
▁વેણુ	-9355
ઓમાંથી	-9356
▁ઉંમરે	-9357
▁બદનામ	-9358
▁રવાના	-9359
▁વલણને	-9360
▁સંગીત	-9361
▁પત્રની	-9362
▁બીજાને	-9363
▁માંગતી	-9364
▁બિલ્ડિંગમાં	-9365
વક	-9366
ary	-9367
્યુબ	-9368
▁ખર્	-9369
કેદાર	-9370
▁થઈને	-9371
▁માનક	-9372
▁સેશન	-9373
▁arise	-9374
▁એરિયા	-9375
▁નિરાશ	-9376
▁હેલ્થ	-9377
▁મિશ્રણ	-9378
▁જીવનકાળ	-9379
▁રાખવાનું	-9380
▁ગોપનીયતાનો	-9381
▁ન્યાયાધીશોએ	-9382
0,	-9383
સલ	-9384
માલ	-9385
રૂપો	-9386
લોને	-9387
▁ઉલટ	-9388
ection	-9389
▁ઘટાડા	-9390
િફિકેશન	-9391
▁શિપિંગ	-9392
▁આગેવાની	-9393
▁કરારનું	-9394
▁વપરાયેલ	-9395
▁ઉત્કૃષ્ટ	-9396
▁બેન્કિંગ	-9397
▁સુધારાને	-9398
▁દરખાસ્તને	-9399
▁શ્રેણીમાં	-9400
ૂડ	-9401
ણીત	-9402
▁યથ	-9403
આઈપી	-9404
▁ગાય	-9405
▁ડેડબ	-9406
▁ધ્યે	-9407
▁નાનો	-9408
▁પદની	-9409
▁શેરો	-9410
▁પાર્સ	-9411
▁ડેટાબે	-9412
▁દિવસનો	-9413
▁ઠેરવ્યો	-9414
▁વીજળીના	-9415
▁ખરીદવામાં	-9416
▁પહોંચ્યું	-9417
▁સુવિધાઓની	-9418
▁દસ્તાવેજોના	-9419
▁એડમિનિસ્ટ્રેટ	-9420
ઈટ	-9421
પેર	-9422
લિસી	-9423
▁dis	-9424
▁એએમ	-9425
▁કવિ	-9426
ગોપાલ	-9427
▁જાપા	-9428
▁દબાવ	-9429
▁પ્રસ	-9430
▁ભવ્ય	-9431
▁આવવું	-9432
▁કેટલા	-9433
▁બનવું	-9434
▁સિંગા	-9435
▁બનાવતા	-9436
▁વિભાગનો	-9437
▁લાક્ષણિકતા	-9438
▁ચાર્જશીટમાં	-9439
ld	-9440
સીબ	-9441
▁ફુ	-9442
▁ઉણપ	-9443
▁માય	-9444
▁વાદ	-9445
ધિકરણ	-9446
▁મંજુ	-9447
▁ટ્રાઇ	-9448
▁ફિંગર	-9449
▁ડેન્ટલ	-9450
▁વગેરેનો	-9451
▁સાક્ષીઓએ	-9452
▁વિધાનસભાઓ	-9453
નોદ	-9454
▁લખી	-9455
▁ડાંગ	-9456
▁વાપર	-9457
લૈંગિક	-9458
▁બહુવિધ	-9459
▁અમેરિકા	-9460
▁મોટરસાય	-9461
▁સ્વરૂપો	-9462
▁પ્રોફાઇલ	-9463
▁સ્થાનાંતરણની	-9464
ogn	-9465
ટેબલ	-9466
િલ્ડ	-9467
▁એટી	-9468
ક્રિમ	-9469
લીમાં	-9470
▁વાણી	-9471
વાયેલી	-9472
▁મેક્સ	-9473
ગાડવામાં	-9474
▁ઘોષણાને	-9475
▁ડિસ્ટ્ર	-9476
▁ટ્રેક્ટર	-9477
▁અપીલદારોની	-9478
▁દસ્તાવેજની	-9479
▁તુલ	-9480
▁મારો	-9481
▁વિંગ	-9482
▁કોલસો	-9483
▁વસિયત	-9484
માસ્યુટ	-9485
▁ચેરમેન	-9486
▁દર્દીઓ	-9487
▁પ્રચંડ	-9488
▁અપીલન્ટ	-9489
▁ટેક્સ્ટ	-9490
▁સમજવામાં	-9491
▁અંતરાત્મા	-9492
▁રેકોર્ડના	-9493
▁વર્ચ્યુઅલ	-9494
▁સંપર્કમાં	-9495
▁નિર્માણમાં	-9496
▁પરિસ્થિતિઓને	-9497
ID	-9498
કેસ	-9499
,,,,	-9500
દાયી	-9501
▁એલિ	-9502
▁સાઉ	-9503
▁ગંગા	-9504
▁કહેતા	-9505
▁જૈવિક	-9506
▁બ્લેક	-9507
▁કનેક્ટ	-9508
▁પહોળાઈ	-9509
▁ધરાવનાર	-9510
ભારપૂર્વક	-9511
▁અપ્રસ્તુત	-9512
ંથ	-9513
ષેધ	-9514
▁ડિસ	-9515
▁છટકી	-9516
▁જજના	-9517
કિર્દી	-9518
▁ભરપાઈ	-9519
▁વ્યસ્ત	-9520
શાસ્ત્રી	-9521
▁અગ્રવાલ	-9522
▁પૂછ્યું	-9523
▁અતિરિક્ત	-9524
▁કારકિર્દી	-9525
▁ઉત્પાદનોના	-9526
ઝલ	-9527
સભર	-9528
▁બળતણ	-9529
▁સમજા	-9530
▁અવિરત	-9531
▁ખર્ચે	-9532
▁અંદરની	-9533
▁જનરલની	-9534
▁બંનેના	-9535
▁સંચાલક	-9536
▁કાર્યમાં	-9537
▁પહેલાંની	-9538
▁રાજ્યનું	-9539
▁સમાયોજિત	-9540
▁યોગ્યતાની	-9541
▁વાસ્તવિકતા	-9542
▁ફાર્માસ્યુટ	-9543
▁પરિપ્રેક્ષ્યમાં	-9544
IV	-9545
ુમ	-9546
ઠું	-9547
▁.0	-9548
ાનના	-9549
▁ઓએસ	-9550
વંશિક	-9551
▁કોમ્	-9552
▁મંડળીઓ	-9553
▁નિયંત્રક	-9554
▁સિસ્ટમની	-9555
▁પ્રતિરક્ષા	-9556
▁ગુણવત્તામાં	-9557
ઓપી	-9558
▁એપો	-9559
▁રજી	-9560
વાનાં	-9561
▁ઇનસો	-9562
▁જર્ન	-9563
▁એકરૂપ	-9564
્યુલેશન	-9565
▁બાબતોનો	-9566
▁સ્થળેથી	-9567
▁ખોલવામાં	-9568
▁સલાહકારોએ	-9569
▁દૃષ્ટિકોણમાં	-9570
રીએ	-9571
ટાઇમ	-9572
▁ઉપજ	-9573
▁આધ્યા	-9574
▁મુતાવ	-9575
▁સર્વા	-9576
▁કપાતની	-9577
▁ક્રમાં	-9578
▁અરુણાચલ	-9579
▁અપનાવ્યું	-9580
▁હિન્દીમાં	-9581
▁પુરાવાઓમાં	-9582
▁ફોટોગ્રાફ્સ	-9583
▁કાર્યક્ષેત્રમાં	-9584
▁cr	-9585
▁ઓન	-9586
▁મિલ્સ	-9587
▁સુશીલ	-9588
▁હુકમો	-9589
▁એડજ્યુ	-9590
▁આદેશનું	-9591
▁આદેશોની	-9592
▁કનેક્ટેડ	-9593
▁પ્રવેશને	-9594
▁ખરીદનારને	-9595
▁ગ્રેજ્યુએટ	-9596
રસ	-9597
દીશ	-9598
▁બાલ	-9599
▁શિપ	-9600
▁આભાર	-9601
▁ડાબા	-9602
માનમાં	-9603
▁બંનેએ	-9604
▁બિલને	-9605
▁મહેનત	-9606
જનાત્મક	-9607
▁જીલ્લા	-9608
▁નિયમની	-9609
▁બનાવવો	-9610
▁લૈંગિક	-9611
▁પરિષદના	-9612
▁બ્રાન્ડ	-9613
▁બાંધકામો	-9614
▁માલિકીના	-9615
▁મિલકતનું	-9616
▁સલામતીના	-9617
▁નિવૃત્તિની	-9618
▁પહોંચાડવામાં	-9619
▁પ્રજાસત્તાકના	-9620
જવા	-9621
નેજ	-9622
અહીં	-9623
▁ધારે	-9624
▁અસંતુ	-9625
▁ક્લિક	-9626
સંબંધિત	-9627
▁સ્થળની	-9628
▁જણાવેલી	-9629
▁ડિસ્ટ્રિબ	-9630
▁પ્રશિક્ષિત	-9631
લિન	-9632
િયાળ	-9633
▁itor	-9634
▁કપડાં	-9635
▁તકનીક	-9636
▁કરાવવી	-9637
▁સ્ટેનો	-9638
▁અપગ્રેડ	-9639
▁કુટુંબની	-9640
▁બદલવામાં	-9641
▁અધ્યક્ષની	-9642
▁]	-9643
ttp	-9644
ુની	-9645
▁le	-9646
સંગઠ	-9647
▁સૈય	-9648
બ્યુન	-9649
▁ઉતાર	-9650
▁બાલા	-9651
▁દુષ્ટ	-9652
▁અહેસાસ	-9653
▁ચેન્ના	-9654
▁શરતોનો	-9655
▁સમાચાર	-9656
▁ખાતાકીય	-9657
▁અનિયમિતતા	-9658
av	-9659
તીઓ	-9660
તેના	-9661
▁છબી	-9662
▁બધું	-9663
▁ઠરાવો	-9664
▁પરિચય	-9665
▁એજન્ટો	-9666
▁અવરોધિત	-9667
▁કલ્પનાને	-9668
▁ચાર્ટર્ડ	-9669
▁વરિષ્ઠતાની	-9670
lo	-9671
નેશ	-9672
▁સન	-9673
ન્ચર	-9674
▁રોલ	-9675
▁કોમન	-9676
ડુચેરી	-9677
ર્શિયલ	-9678
▁જાતિઓ	-9679
▁નામથી	-9680
▁પટ્ટી	-9681
▁સેવકો	-9682
▁હિતાવ	-9683
▁અપીલોની	-9684
▁ફોર્મેટ	-9685
▁મેળવનાર	-9686
▁સ્ત્રીઓ	-9687
▁આનુવંશિક	-9688
▁વપરાયેલી	-9689
▁રાજેન્દ્ર	-9690
iss	-9691
પક્	-9692
બિલ	-9693
ચુરણ	-9694
લાઇટ	-9695
▁(&#	-9696
એઆઈઆર	-9697
▁ખેડૂ	-9698
▁સીજી	-9699
▁ઉમેરી	-9700
▁કન્વે	-9701
▁ખોવાઈ	-9702
▁ઘટાડી	-9703
▁લીધાં	-9704
▁ઇન્દ્ર	-9705
▁ગેરસમજ	-9706
▁ડિરેક્ટ	-9707
▁મંદિરના	-9708
▁દાવેદારી	-9709
▁પ્રતિભાવ	-9710
▁સમજાવ્યું	-9711
ૂપ	-9712
તાન	-9713
લેખ	-9714
નોંધ	-9715
▁એલએ	-9716
▁લગ્	-9717
▁ઉદ્ય	-9718
▁ચૂકી	-9719
▁હડતા	-9720
▁ડેબિટ	-9721
▁પતિના	-9722
▁આરટીઆઈ	-9723
▁સાલ્વે	-9724
▁હિતાવહ	-9725
▁પ્રમોટર	-9726
▁કન્સ્ટ્ર	-9727
▁કાઉન્સેલ	-9728
▁સીપીસીની	-9729
▁હટાવવાની	-9730
▁સંમેલનમાં	-9731
▁સ્વીકારવું	-9732
રાની	-9733
▁તાપ	-9734
ત્મિક	-9735
▁ઉદ્દ	-9736
▁ચોખા	-9737
▁બ્રે	-9738
▁ભજવી	-9739
ર્ટિયમ	-9740
▁યુવાન	-9741
ક્ચરિંગ	-9742
નાઇઝેશન	-9743
▁આઈટીઆર	-9744
▁ચાર્ટર	-9745
▁પાછળનો	-9746
▁માંગની	-9747
▁સાંકડી	-9748
સુરક્ષિત	-9749
▁એક્સ્ટ્રા	-9750
▁નિયમિતપણે	-9751
▁કર્મચારીના	-9752
▁ઇન્સોલ્વન્સી	-9753
▁કોર્પોરેશનને	-9754
ચકા	-9755
ચરલ	-9756
સીંગ	-9757
▁એએફ	-9758
▁ધીરે	-9759
▁પટ્ટ	-9760
▁અપાયો	-9761
▁ઓળખાતી	-9762
▁પૂર્વા	-9763
▁ભાષાના	-9764
▁માનવતા	-9765
▁ધોરણમાં	-9766
▁વગેરેને	-9767
▁સંવેદના	-9768
▁નિર્માતા	-9769
▁લેવાયેલા	-9770
▁સ્ટેશનના	-9771
▁અપીલ્સમાં	-9772
▁દૃષ્ટિકોણને	-9773
▁Re	-9774
▁PAR	-9775
▁ચેપ	-9776
▁અસરો	-9777
▁આખરી	-9778
▁જંગલ	-9779
▁દોડી	-9780
▁ચાંદી	-9781
▁ત્યાગ	-9782
▁રજાની	-9783
▁સંસદે	-9784
▁પેકિંગ	-9785
▁બિલમાં	-9786
▁બેન્કો	-9787
▁વૃત્તિ	-9788
▁એકેડેમી	-9789
▁વિશેષતા	-9790
ન્યાયાધીશ	-9791
▁સંસાધનોની	-9792
▁અપીલકર્તાની	-9793
▁કબૂલાતભર્યા	-9794
કોચ	-9795
વિષ	-9796
ોડી	-9797
▁પત્	-9798
▁કચરો	-9799
▁કાળા	-9800
▁વહાણ	-9801
▁આર્મ્સ	-9802
▁ગ્રેટર	-9803
▁ડિક્શન	-9804
▁રેન્ડર	-9805
▁લક્ષણો	-9806
▁શંકાના	-9807
▁રૂપિયાની	-9808
▁સંપત્તિઓ	-9809
▁અર્થઘટનને	-9810
▁અસ્તિત્વને	-9811
▁ફાર્માસ્યુટિકલ	-9812
66	-9813
ara	-9814
સમા	-9815
વાવડ	-9816
▁કસુ	-9817
▁જળા	-9818
▁બીલ	-9819
▁વાળ	-9820
▁ઈન્ફ	-9821
▁ચેન્	-9822
▁પિતૃ	-9823
ક્સમાં	-9824
ટેકિંગ	-9825
નિવાસી	-9826
▁રોજની	-9827
▁વટાવી	-9828
▁ડિપ્લો	-9829
▁નજીકની	-9830
▁બહાદુર	-9831
▁માઇન્સ	-9832
▁કાપવામાં	-9833
▁પ્રસારિત	-9834
▁ન્યાયતંત્રમાં	-9835
હાણ	-9836
હોન	-9837
કાર્	-9838
કીના	-9839
દર્શક	-9840
▁ખોલી	-9841
▁ડિબે	-9842
▁માદક	-9843
▁ઠેરવે	-9844
ઝાઇડિંગ	-9845
▁અટકાવી	-9846
▁નંબરમાં	-9847
▁પહોંચેલા	-9848
▁પ્રયત્નોમાં	-9849
▁ગુણવત્તાયુક્ત	-9850
ગમત	-9851
▁ડુ	-9852
વિષય	-9853
સ્તર	-9854
▁નાગા	-9855
કૃષ્ણન	-9856
▁લિસ્ટ	-9857
▁સંકલિત	-9858
▁સવાલનો	-9859
▁ઓર્ડરના	-9860
▁તથ્યોથી	-9861
▁પરિણામી	-9862
▁ઉદ્યોગને	-9863
▁નોંધણીની	-9864
▁પ્રદેશની	-9865
▁મોકલવાની	-9866
▁સિંગાપોર	-9867
▁ઉદ્યોગમાં	-9868
▁આધ્યાત્મિક	-9869
જું	-9870
▁	-9871
ા	-9872
ર	-9873
ે	-9874
ન	-9875
્	-9876
ક	-9877
ી	-9878
વ	-9879
ત	-9880
મ	-9881
ં	-9882
ો	-9883
સ	-9884
િ	-9885
ય	-9886
પ	-9887
લ	-9888
જ	-9889
દ	-9890
અ	-9891
ુ	-9892
હ	-9893
ટ	-9894
આ	-9895
.	-9896
,	-9897
થ	-9898
બ	-9899
શ	-9900
છ	-9901
ણ	-9902
ગ	-9903
ધ	-9904
એ	-9905
ૂ	-9906
ચ	-9907
ડ	-9908
ષ	-9909
ભ	-9910
ખ	-9911
ઈ	-9912
ઓ	-9913
ળ	-9914
०	-9915
ફ	-9916
ઉ	-9917
)	-9918
(	-9919
१	-9920
ઇ	-9921
-	-9922
;	-9923
ઠ	-9924
o	-9925
२	-9926
t	-9927
&	-9928
ૃ	-9929
u	-9930
i	-9931
e	-9932
ઘ	-9933
३	-9934
:	-9935
ઝ	-9936
/	-9937
q	-9938
0	-9939
r	-9940
a	-9941
#	-9942
n	-9943
૧	-9944
૦	-9945
४	-9946
s	-9947
d	-9948
૨	-9949
ૈ	-9950
I	-9951
c	-9952
l	-9953
५	-9954
|	-9955
]	-9956
ૌ	-9957
[	-9958
f	-9959
h	-9960
“	-9961
६	-9962
g	-9963
A	-9964
m	-9965
p	-9966
७	-9967
y	-9968
v	-9969
%	-9970
b	-9971
w	-9972
?	-9973
८	-9974
C	-9975
O	-9976
S	-9977
x	-9978
E	-9979
k	-9980
9	-9981
९	-9982
T	-9983
P	-9984
D	-9985
X	-9986
3	-9987
R	-9988
N	-9989
V	-9990
4	-9991
6	-9992
M	-9993
