<unk>	0
<s>	0
</s>	0
UuRrLl	0
▁क	-0
▁स	-1
▁ह	-2
▁प	-3
▁म	-4
्र	-5
ार	-6
▁#	-7
▁के	-8
▁अ	-9
▁व	-10
▁है	-11
्य	-12
ें	-13
▁ज	-14
▁न	-15
▁।	-16
ों	-17
▁ब	-18
या	-19
▁द	-20
▁,	-21
र्	-22
▁में	-23
ता	-24
▁उ	-25
ान	-26
▁ल	-27
▁प्र	-28
▁र	-29
िक	-30
▁की	-31
▁आ	-32
▁औ	-33
ने	-34
▁कि	-35
▁त	-36
▁कर	-37
्त	-38
▁और	-39
ित	-40
▁को	-41
▁का	-42
▁भ	-43
▁से	-44
ना	-45
▁ग	-46
▁इ	-47
▁पर	-48
▁वि	-49
▁.	-50
्व	-51
▁ए	-52
▁य	-53
▁हो	-54
▁सं	-55
▁श	-56
ाल	-57
था	-58
िय	-59
▁-	-60
िए	-61
्ष	-62
▁च	-63
▁इस	-64
ति	-65
▁हैं	-66
्ट	-67
▁एक	-68
▁सम	-69
्या	-70
ही	-71
▁जा	-72
न्	-73
ती	-74
▁लिए	-75
ते	-76
ाम	-77
स्	-78
वा	-79
▁नि	-80
के	-81
हा	-82
ड़	-83
त्र	-84
▁अप	-85
िया	-86
क्ष	-87
ोग	-88
▁अध	-89
सी	-90
से	-91
▁अन	-92
▁रा	-93
हीं	-94
▁दे	-95
िल	-96
▁या	-97
▁यह	-98
▁भी	-99
▁)	-100
▁नहीं	-101
▁ख	-102
▁(	-103
ारा	-104
ाह	-105
ास	-106
कार	-107
▁किया	-108
▁जो	-109
▁ने	-110
नी	-111
री	-112
रा	-113
ष्ट	-114
क्त	-115
▁करने	-116
त्	-117
ंग	-118
का	-119
▁सा	-120
िन	-121
▁कार	-122
▁स्	-123
▁फ	-124
▁उस	-125
ेश	-126
▁उप	-127
▁थ	-128
द्	-129
ियों	-130
िस	-131
▁हम	-132
▁बा	-133
कर	-134
ले	-135
▁सक	-136
▁मु	-137
ला	-138
▁तथा	-139
ंध	-140
ाय	-141
▁ध	-142
ंत	-143
▁उन	-144
ूप	-145
▁था	-146
गा	-147
की	-148
▁ही	-149
▁भार	-150
▁अनु	-151
▁हु	-152
ूर्	-153
ाने	-154
भा	-155
मा	-156
्च	-157
▁द्व	-158
ओं	-159
सा	-160
्री	-161
▁सु	-162
▁गया	-163
ंद	-164
▁ले	-165
स्त	-166
▁ऐ	-167
▁अधिक	-168
वि	-169
▁कु	-170
▁स्व	-171
द्ध	-172
▁आप	-173
ंड	-174
▁किसी	-175
▁तो	-176
▁ड	-177
▁रूप	-178
▁व्य	-179
▁द्वारा	-180
ल्	-181
▁राज	-182
ारी	-183
▁विश	-184
▁रह	-185
▁निर्	-186
म्	-187
▁वह	-188
ीन	-189
ोज	-190
द्य	-191
▁कार्य	-192
ैं	-193
ाप	-194
न्ह	-195
बंध	-196
देश	-197
▁अपने	-198
▁प्रति	-199
▁वाल	-200
धार	-201
ली	-202
रे	-203
त्त	-204
▁वर्	-205
▁भा	-206
▁परि	-207
▁पु	-208
▁वे	-209
▁पह	-210
▁ट	-211
▁घ	-212
भी	-213
योग	-214
▁चाह	-215
▁साथ	-216
▁जिस	-217
▁छ	-218
ार्	-219
ाना	-220
रण	-221
▁तक	-222
▁क्ष	-223
▁भारत	-224
क्ति	-225
▁न्या	-226
ंत्र	-227
ारे	-228
दि	-229
में	-230
▁स्थ	-231
क्र	-232
▁उन्ह	-233
जी	-234
कि	-235
▁राष्ट	-236
िर	-237
दा	-238
▁जाता	-239
गी	-240
दी	-241
▁करना	-242
▁अव	-243
▁मह	-244
▁दो	-245
स्थ	-246
ष्	-247
▁मा	-248
ृत	-249
ूल	-250
▁थे	-251
ियम	-252
ुत	-253
चार	-254
▁मे	-255
▁कुछ	-256
▁सर	-257
▁'	-258
▁बह	-259
ढ़	-260
▁साम	-261
▁कोई	-262
खा	-263
नों	-264
▁थी	-265
ब्	-266
▁पा	-267
ंच	-268
▁ला	-269
▁सि	-270
िश	-271
▁मैं	-272
च्च	-273
▁सी	-274
मान	-275
▁होता	-276
▁दिया	-277
▁विक	-278
्ञ	-279
▁जी	-280
्यों	-281
ुर	-282
▁सकता	-283
्छ	-284
ूर	-285
▁जब	-286
्रे	-287
ूर्ण	-288
ेत्र	-289
▁/	-290
▁;	-291
गे	-292
न्द	-293
धि	-294
पा	-295
जा	-296
न्न	-297
ाप्त	-298
ये	-299
वर्	-300
िका	-301
▁इन	-302
▁मान	-303
र्थ	-304
▁बी	-305
▁समय	-306
▁कम	-307
▁संबंध	-308
▁क्षेत्र	-309
▁अभ	-310
ोक	-311
▁मिल	-312
ीय	-313
▁करते	-314
वे	-315
▁हुए	-316
▁जै	-317
हां	-318
▁करता	-319
भाव	-320
▁न्याया	-321
▁अंत	-322
कों	-323
धान	-324
▁अन्य	-325
▁सू	-326
गर	-327
च्छ	-328
▁सरकार	-329
वन	-330
▁पू	-331
▁लोग	-332
क्षा	-333
र्म	-334
▁राष्ट्र	-335
▁बना	-336
▁जाए	-337
स्था	-338
ेष	-339
▁अपनी	-340
▁देश	-341
▁उत्	-342
नि	-343
▁चाहिए	-344
िप	-345
▁हि	-346
त्य	-347
ोट	-348
्रीय	-349
दान	-350
▁तर	-351
▁सह	-352
▁प्रा	-353
्रा	-354
▁रहे	-355
▁राज्य	-356
▁वर्ष	-357
▁उनके	-358
▁रहा	-359
▁रख	-360
ज्ञ	-361
▁:	-362
क्	-363
▁विश्व	-364
▁सम्	-365
ूर्व	-366
▁बहुत	-367
चना	-368
▁?	-369
▁होने	-370
▁गई	-371
गत	-372
ज़	-373
▁वाले	-374
को	-375
लय	-376
र्श	-377
▁बाद	-378
▁गु	-379
▁बात	-380
ूस	-381
▁प्राप्त	-382
तीय	-383
पति	-384
▁करें	-385
▁कहा	-386
▁ओ	-387
िक्ष	-388
▁दी	-389
श्य	-390
▁बन	-391
▁सभी	-392
दन	-393
करण	-394
वं	-395
▁जाने	-396
▁प्रकार	-397
▁उसके	-398
ौर	-399
▁सब	-400
ड़ा	-401
स्ता	-402
▁ऊ	-403
ेल	-404
ुक्त	-405
िव	-406
ोंने	-407
▁आय	-408
ुल	-409
ंक	-410
▁ऐसे	-411
▁होती	-412
िम	-413
ानी	-414
िख	-415
ोध	-416
एं	-417
जन	-418
▁व्यक्ति	-419
पूर्ण	-420
▁न्यायालय	-421
िति	-422
▁पी	-423
▁देख	-424
ड़ी	-425
▁चु	-426
▁कारण	-427
▁भारतीय	-428
ंप	-429
धिक	-430
ालय	-431
्ल	-432
▁लग	-433
ोल	-434
श्च	-435
▁तरह	-436
त्म	-437
▁होगा	-438
▁जि	-439
▁हुआ	-440
▁अधिन	-441
▁प्रश	-442
▁जन	-443
▁गए	-444
▁कह	-445
ध्य	-446
▁व्या	-447
▁इसके	-448
▁राष्ट्रपति	-449
▁विकास	-450
▁वा	-451
▁एवं	-452
द्योग	-453
▁उसे	-454
▁पूर्व	-455
ग्र	-456
▁सकते	-457
ड़े	-458
▁किए	-459
बा	-460
िट	-461
▁अधिनियम	-462
▁अनुस	-463
▁उन्हें	-464
▁माम	-465
▁उन्होंने	-466
▁आव	-467
▁यदि	-468
▁ना	-469
मी	-470
▁मूल	-471
▁धारा	-472
▁क्या	-473
▁नी	-474
िये	-475
▁दूस	-476
बर	-477
र्व	-478
▁पहले	-479
▁नाम	-480
किन	-481
▁अस	-482
तन	-483
▁काम	-484
▁आर	-485
▁दु	-486
▁जान	-487
त्व	-488
वल	-489
▁विचार	-490
ोजना	-491
▁लेकिन	-492
िता	-493
वाद	-494
▁उच्च	-495
▁ऐसा	-496
क्रम	-497
तिक	-498
▁ता	-499
▁विशेष	-500
▁हू	-501
▁समा	-502
मे	-503
▁क्र	-504
▁स्थान	-505
माण	-506
ुद्ध	-507
्यू	-508
▁ई	-509
झे	-510
तर	-511
चित	-512
ाली	-513
▁ग्र	-514
▁मुख	-515
धा	-516
श्यक	-517
▁स्त	-518
▁जाती	-519
▁बि	-520
▁ऐसी	-521
▁आधार	-522
ंट	-523
िला	-524
▁बढ़	-525
कृत	-526
▁लोगों	-527
ष्ठ	-528
वी	-529
्ड	-530
पर	-531
सर	-532
ूम	-533
▁निय	-534
▁पै	-535
▁अधिकार	-536
▁अब	-537
▁स्था	-538
न्त	-539
▁भाग	-540
▁बारे	-541
यी	-542
▁हमारे	-543
ां	-544
▁जीवन	-545
ोर	-546
▁ये	-547
▁आवश्यक	-548
▁बे	-549
िंग	-550
▁निक	-551
▁वै	-552
▁उनकी	-553
ील	-554
षण	-555
्स	-556
ियां	-557
▁अधीन	-558
ास्त	-559
▁जैसे	-560
▁प्रभाव	-561
▁सेवा	-562
▁समझ	-563
▁तु	-564
ाइ	-565
ोप	-566
▁शिक्ष	-567
▁होते	-568
▁उत्त	-569
लों	-570
ोर्	-571
क्षण	-572
िन्न	-573
▁उपयोग	-574
▁सद	-575
▁हुई	-576
▁व्यव	-577
▁बार	-578
▁मन	-579
▁दिन	-580
▁रु	-581
▁मुझे	-582
▁क्यों	-583
▁ओर	-584
▁केवल	-585
निक	-586
षा	-587
ार्थ	-588
कृ	-589
▁फिर	-590
टा	-591
ची	-592
प्र	-593
▁जाना	-594
▁रही	-595
दार	-596
टी	-597
▁अल	-598
▁कृ	-599
हाय	-600
▁ठ	-601
ंस	-602
क्रिया	-603
ल्प	-604
ख्या	-605
ुद	-606
▁बीच	-607
▁जिन	-608
ंभ	-609
▁अथ	-610
▁प्रदान	-611
▁प्रयोग	-612
▁बाह	-613
▁श्री	-614
ेक	-615
रों	-616
ताओं	-617
रिक	-618
▁सहाय	-619
कारी	-620
▁चल	-621
वाह	-622
▁ढ	-623
▁उत्पा	-624
ेत	-625
चा	-626
ंब	-627
िल्	-628
यन	-629
▁दृ	-630
▁विर	-631
▁प्रत्य	-632
तः	-633
▁देने	-634
▁अथवा	-635
▁हों	-636
▁पुर	-637
▁पार	-638
धी	-639
तम	-640
मु	-641
▁पास	-642
वेश	-643
वार	-644
कर्	-645
▁वाली	-646
▁“	-647
ज्ञान	-648
शन	-649
ून	-650
▁लोक	-651
्न	-652
▁प्रक्रिया	-653
▁विभ	-654
▁खा	-655
▁जिसमें	-656
▁सो	-657
▁अपना	-658
▁निर्धार	-659
फल	-660
▁लगा	-661
हार	-662
लब्	-663
▁विधि	-664
▁कै	-665
▁दोनों	-666
भव	-667
▁जहां	-668
दर्श	-669
▁सकती	-670
▁s	-671
▁स्प	-672
▁इसे	-673
▁कंप	-674
▁उपलब्	-675
ब्द	-676
त्ता	-677
पित	-678
▁करती	-679
▁राष्ट्रीय	-680
▁झ	-681
णी	-682
▁निर	-683
▁न्याय	-684
▁पश्च	-685
▁व्याप	-686
व्य	-687
त्मक	-688
▁होना	-689
ेद	-690
ित्र	-691
▁महत्व	-692
▁तब	-693
▁पुन	-694
▁उसकी	-695
ेज	-696
▁पहु	-697
टर	-698
▁सके	-699
▁%	-700
▁सदस	-701
▁बद	-702
▁प्रण	-703
फ़	-704
▁संग	-705
▁योजना	-706
हाँ	-707
द्योगिक	-708
▁विष	-709
मिक	-710
ुक	-711
▁सामान	-712
युक्त	-713
▁करे	-714
▁हा	-715
▁हर	-716
▁बै	-717
ूत	-718
▁मौ	-719
भाग	-720
त्रा	-721
▁अर्थ	-722
▁लिया	-723
ोड़	-724
▁सबसे	-725
▁अच्छ	-726
▁वृ	-727
दे	-728
▁बैं	-729
पी	-730
▁प्रे	-731
▁क्योंकि	-732
▁उपलब्ध	-733
▁मुख्य	-734
▁फ़	-735
▁ऑ	-736
▁स्वा	-737
▁शिक्षा	-738
▁अर्	-739
▁वित	-740
▁शुर	-741
▁हमें	-742
ण्ड	-743
▁जाते	-744
ंतु	-745
▁अंतर	-746
▁संबंधित	-747
▁पत्र	-748
ात	-749
▁पद	-750
▁उद्	-751
▁हूं	-752
▁सूचना	-753
▁जर	-754
▁छोट	-755
ोह	-756
▁बच्च	-757
ोजन	-758
▁स्थिति	-759
शा	-760
श्व	-761
▁दौर	-762
▁ब्र	-763
तंत्र	-764
▁अंग	-765
▁कभी	-766
बी	-767
ामी	-768
िखा	-769
न्द्र	-770
▁प्रस	-771
▁वस्त	-772
स्ट	-773
▁स्ट	-774
वरण	-775
▁लिख	-776
चे	-777
▁अति	-778
कृति	-779
▁विषय	-780
▁अनुसार	-781
▁अध्य	-782
▁नियम	-783
ंज	-784
▁तै	-785
ाला	-786
ेट	-787
▁जु	-788
ष्टि	-789
▁आज	-790
▁केंद	-791
▁शाम	-792
▁योग	-793
ित्व	-794
▁इसल	-795
▁उठ	-796
▁सहायता	-797
तों	-798
▁उत्तर	-799
▁वास्त	-800
र्क	-801
▁कई	-802
▁सुर	-803
▁लिये	-804
▁शक्ति	-805
▁भाषा	-806
▁शब्द	-807
▁यु	-808
▁व्यक्त	-809
▁मै	-810
▁विभिन्न	-811
▁दा	-812
▁सर्व	-813
त्ति	-814
्यान	-815
▁जाएगा	-816
▁भूम	-817
नेक	-818
▁ऋ	-819
▁मामले	-820
▁दूसरे	-821
▁अगर	-822
ेय	-823
स्थान	-824
▁गा	-825
रूप	-826
▁सामान्य	-827
▁स्वी	-828
ासन	-829
▁बु	-830
▁मंत्र	-831
फी	-832
काश	-833
िस्ट	-834
▁इत	-835
▁इसलिए	-836
▁दौरान	-837
▁उसका	-838
हर	-839
▁उनका	-840
▁अलग	-841
▁संघ	-842
मुख	-843
धन	-844
▁संप	-845
▁आई	-846
▁इसका	-847
▁>	-848
्म	-849
ोड	-850
▁पूर्ण	-851
▁वाला	-852
▁ज्ञ	-853
▁सुन	-854
▁"	-855
▁शामिल	-856
▁जल	-857
▁पक्ष	-858
▁परिवर्	-859
इट	-860
मत	-861
ंजी	-862
▁&	-863
▁कान	-864
काल	-865
वास	-866
▁आदि	-867
▁विद्य	-868
▁वास्तव	-869
▁वी	-870
वान	-871
▁तैय	-872
प्त	-873
▁एस	-874
▁उसने	-875
▁अनेक	-876
▁संस	-877
क्ट	-878
▁अवसर	-879
▁लाभ	-880
▁संख्या	-881
िज	-882
ूह	-883
डी	-884
▁गये	-885
शि	-886
▁तीन	-887
गम	-888
ुष	-889
▁दर	-890
▁पहुंच	-891
निया	-892
▁उपबंध	-893
ुट	-894
▁महा	-895
▁माध्य	-896
ोर्ट	-897
जार	-898
▁अं	-899
यं	-900
टना	-901
▁बता	-902
ाज	-903
▁जिसे	-904
▁रुप	-905
▁कल	-906
ेंगे	-907
▁प्रत्येक	-908
▁पृ	-909
णा	-910
ृत्य	-911
▁दूर	-912
▁साह	-913
▁सिद्ध	-914
न्तु	-915
▁प्रौ	-916
नीय	-917
शत	-918
▁निर्माण	-919
स्थित	-920
▁प्रया	-921
▁मानव	-922
र्इ	-923
स्व	-924
▁प्रय	-925
▁समाज	-926
▁यहां	-927
द्र	-928
▁उद्योग	-929
पाल	-930
▁संर	-931
▁बनाने	-932
कट	-933
▁भर	-934
▁ध्यान	-935
▁कार्यक्रम	-936
ूट	-937
▁होगी	-938
▁संवि	-939
▁उद	-940
▁संस्था	-941
▁नई	-942
▁महत्वपूर्ण	-943
क्षित	-944
▁वित्त	-945
▁स्पष्ट	-946
▁अंतर्	-947
▁आपको	-948
▁संस्	-949
▁अग	-950
▁मध्य	-951
▁तैयार	-952
▁रोग	-953
▁प्रतिशत	-954
▁विदेश	-955
ाई	-956
दाय	-957
▁प्रयास	-958
▁जिसके	-959
▁आर्थ	-960
▁स्तर	-961
▁ची	-962
नल	-963
▁वस्तु	-964
बन्	-965
▁धर्म	-966
र्ष	-967
ांत	-968
▁हेत	-969
ग्रह	-970
▁बिना	-971
सल	-972
▁शुरू	-973
▁‘	-974
णय	-975
▁पता	-976
▁बाहर	-977
▁खु	-978
वादी	-979
▁हमारी	-980
▁पि	-981
▁देता	-982
▁मत	-983
▁आर्थिक	-984
▁”	-985
ोन	-986
▁रे	-987
▁जनता	-988
▁बैंक	-989
▁पड़	-990
▁हेतु	-991
▁प्रौद्योगिक	-992
स्या	-993
▁प्रार	-994
▁अन्त	-995
्टी	-996
▁आदेश	-997
▁ली	-998
ोष	-999
▁भाव	-1000
▁विध	-1001
▁शी	-1002
▁समान	-1003
▁इससे	-1004
▁परिण	-1005
▁कर्म	-1006
▁सौ	-1007
▁माल	-1008
गू	-1009
▁विन	-1010
▁डा	-1011
पन	-1012
मित	-1013
▁चार	-1014
▁आगे	-1015
▁डि	-1016
▁शु	-1017
▁a	-1018
्ता	-1019
ठन	-1020
▁लेख	-1021
▁चि	-1022
▁करके	-1023
▁संस्थान	-1024
▁प्रो	-1025
▁श्र	-1026
▁सार	-1027
▁गति	-1028
ंह	-1029
▁आवश्यकता	-1030
▁मार्	-1031
धीश	-1032
ूर्ति	-1033
साय	-1034
▁देना	-1035
धारा	-1036
म्ब	-1037
▁बल्	-1038
▁निर्धारित	-1039
▁पर्या	-1040
▁समस्या	-1041
▁सभा	-1042
▁तुम	-1043
▁वहां	-1044
▁इसी	-1045
हास	-1046
त्या	-1047
▁क्षेत्रों	-1048
दिष्ट	-1049
▁इसमें	-1050
▁प्रमुख	-1051
▁i	-1052
▁विस्त	-1053
▁सीमा	-1054
▁लागू	-1055
▁खंड	-1056
▁उल्	-1057
▁निम्	-1058
्यता	-1059
षि	-1060
▁निर्णय	-1061
▁विश्वास	-1062
▁मज	-1063
▁नियंत्र	-1064
▁गयी	-1065
▁उद्देश	-1066
▁यू	-1067
▁स्वयं	-1068
▁ती	-1069
ाइल	-1070
▁नीति	-1071
मता	-1072
ाजिक	-1073
म्प	-1074
▁रिप	-1075
▁जारी	-1076
द्धि	-1077
ंख	-1078
▁पूरी	-1079
▁आपके	-1080
▁सामाजिक	-1081
▁ज़	-1082
▁प्रकाश	-1083
स्प	-1084
▁प्रस्त	-1085
▁मेरे	-1086
▁प्रणाली	-1087
▁काफी	-1088
िष्ट	-1089
▁हाल	-1090
▁आस	-1091
भग	-1092
▁प्रस्ता	-1093
िश्च	-1094
▁आध	-1095
विधा	-1096
▁परिणाम	-1097
▁स्वतंत्र	-1098
▁स्क	-1099
ूरी	-1100
टक	-1101
दों	-1102
▁आया	-1103
▁पूरा	-1104
▁अपे	-1105
▁सुधार	-1106
ालन	-1107
द्व	-1108
▁विभाग	-1109
▁प्रबंध	-1110
ेन	-1111
्यादा	-1112
▁दिखा	-1113
▁गै	-1114
▁प्रौद्योगिकी	-1115
▁कर्	-1116
हत	-1117
▁कवि	-1118
जू	-1119
तिहास	-1120
▁घर	-1121
▁गुण	-1122
▁विनि	-1123
▁समूह	-1124
पि	-1125
वर	-1126
▁प्रस्ताव	-1127
▁मी	-1128
विद्य	-1129
▁गो	-1130
वेदन	-1131
तियों	-1132
शी	-1133
▁माध्यम	-1134
ंदर	-1135
▁स्थापित	-1136
▁हिंद	-1137
ियन	-1138
ियो	-1139
▁ज्ञान	-1140
▁व्यवस्था	-1141
▁बैठ	-1142
▁मूल्य	-1143
▁लगभग	-1144
▁समुद	-1145
▁स्वीकार	-1146
एँ	-1147
बद्ध	-1148
क्ष्य	-1149
▁न्यायाधीश	-1150
चन	-1151
रित	-1152
▁हाथ	-1153
विद्यालय	-1154
▁कंपनी	-1155
▁मामलों	-1156
▁क्रिया	-1157
▁भवन	-1158
शोध	-1159
▁पुस्त	-1160
ॉल	-1161
मार	-1162
▁वर्ग	-1163
▁जैसा	-1164
▁कठ	-1165
▁आयोग	-1166
▁सदस्य	-1167
▁दक्ष	-1168
▁सम्म	-1169
▁हूँ	-1170
▁आम	-1171
▁मृत्य	-1172
न्म	-1173
▁सर्	-1174
ीक	-1175
▁अवधि	-1176
▁सूची	-1177
▁निष्	-1178
▁मैंने	-1179
▁जानकारी	-1180
▁ऋण	-1181
▁प्राधिक	-1182
▁रिपोर्ट	-1183
▁सहयोग	-1184
▁बड़ी	-1185
हित	-1186
लेख	-1187
▁सुरक्षा	-1188
▁अपरा	-1189
▁श्रे	-1190
▁!	-1191
▁अत्य	-1192
इन	-1193
वाई	-1194
▁मद	-1195
ेर	-1196
▁केंद्र	-1197
▁सुविधा	-1198
▁टी	-1199
▁कृषि	-1200
▁अम	-1201
▁फै	-1202
▁कौ	-1203
▁गण	-1204
▁सफल	-1205
▁रंग	-1206
्ले	-1207
▁दर्श	-1208
▁संविधान	-1209
▁देशों	-1210
▁व्यापार	-1211
▁किस	-1212
ान्त	-1213
▁समाप्त	-1214
पन्न	-1215
▁बदल	-1216
ेशन	-1217
▁स्थित	-1218
एस	-1219
▁जिन्ह	-1220
शील	-1221
त्स	-1222
▁धन	-1223
▁विश्वविद्यालय	-1224
धारण	-1225
▁अमे	-1226
च्छेद	-1227
▁डे	-1228
▁अधिकारी	-1229
ित्य	-1230
▁इसकी	-1231
▁अभी	-1232
▁शरी	-1233
▁जिससे	-1234
▁जिसका	-1235
▁संबंधी	-1236
▁विज्ञान	-1237
▁कुल	-1238
▁समर्थ	-1239
▁चिक	-1240
▁परिवर्तन	-1241
▁बाल	-1242
▁परी	-1243
▁ठीक	-1244
▁अर	-1245
▁रखने	-1246
स्तान	-1247
▁देते	-1248
▁कोश	-1249
वृ	-1250
तान	-1251
▁तरी	-1252
र्भ	-1253
ोस	-1254
पना	-1255
▁उत्पादन	-1256
▁त्र	-1257
ोषण	-1258
ुग	-1259
▁रखा	-1260
भार	-1261
▁छोड़	-1262
▁राम	-1263
▁अंतर्गत	-1264
▁विशिष्ट	-1265
▁प्रस्तुत	-1266
▁पिछ	-1267
▁महिला	-1268
▁उपधारा	-1269
▁एन	-1270
▁जाये	-1271
▁बड़े	-1272
▁परिय	-1273
विध	-1274
▁आन	-1275
▁शै	-1276
▁उद्देश्य	-1277
▁जग	-1278
▁<	-1279
▁शा	-1280
▁अनुम	-1281
▁अतिरिक	-1282
▁ऊपर	-1283
▁परियोजना	-1284
▁डी	-1285
टन	-1286
आई	-1287
दारी	-1288
यर	-1289
▁मंद	-1290
सित	-1291
▁बल्कि	-1292
▁निश्च	-1293
▁राशि	-1294
▁काल	-1295
थम	-1296
▁संशोध	-1297
िखित	-1298
ंगा	-1299
▁शरीर	-1300
सं	-1301
▁चाहते	-1302
▁अंग्रे	-1303
▁मेरी	-1304
▁साल	-1305
राज	-1306
▁अभि	-1307
बार	-1308
ष्ण	-1309
स्थ्य	-1310
हन	-1311
हरा	-1312
ष्ट्रीय	-1313
क़	-1314
ण्	-1315
ुओं	-1316
क्स	-1317
▁डाल	-1318
वाल	-1319
▁चिकित	-1320
जों	-1321
▁आने	-1322
ेड	-1323
▁क्षमता	-1324
▁बल	-1325
चान	-1326
▁सही	-1327
▁वर्त	-1328
ाया	-1329
ाव	-1330
पत्र	-1331
▁जीव	-1332
िल्ली	-1333
त्मा	-1334
▁वेब	-1335
▁समिति	-1336
ंधान	-1337
▁सै	-1338
▁देखा	-1339
ीकरण	-1340
▁अतिरिक्त	-1341
▁अनुच्छेद	-1342
▁शिक	-1343
▁निर्देश	-1344
▁अप्र	-1345
▁पश्चिम	-1346
▁सामने	-1347
▁दृष्टि	-1348
ंधी	-1349
▁प्रमाण	-1350
▁मार्ग	-1351
दम	-1352
▁यहाँ	-1353
▁चला	-1354
▁रो	-1355
▁नीचे	-1356
▁ज्यादा	-1357
ाहरण	-1358
▁पाठ	-1359
▁आरंभ	-1360
▁युद्ध	-1361
▁मार	-1362
▁कहते	-1363
▁स्वास्थ्य	-1364
्रो	-1365
कृतिक	-1366
▁उदाहरण	-1367
यों	-1368
बन्ध	-1369
▁बहु	-1370
▁अनुभव	-1371
▁वर्षों	-1372
▁अपराध	-1373
▁यात्रा	-1374
▁प्रश्न	-1375
▁प्रदेश	-1376
▁लेने	-1377
▁परिवार	-1378
▁अनुसंधान	-1379
▁पं	-1380
▁परंतु	-1381
▁जरूर	-1382
▁प्रशिक्ष	-1383
कल	-1384
▁मांग	-1385
▁साहित्य	-1386
▁प्रदर्श	-1387
▁वर्ण	-1388
▁निवेश	-1389
▁उत्पाद	-1390
▁वर्तमान	-1391
▁पानी	-1392
गार	-1393
जे	-1394
▁दक्षि	-1395
▁दिए	-1396
कर्ता	-1397
▁पढ़	-1398
▁जमा	-1399
▁चौ	-1400
▁छोटे	-1401
▁विवाह	-1402
▁विदेशी	-1403
▁निर्धारण	-1404
तिम	-1405
िश्चित	-1406
▁राजनी	-1407
▁संयुक्त	-1408
▁बंग	-1409
▁सच	-1410
▁महान	-1411
▁करेगा	-1412
▁उसी	-1413
लो	-1414
▁रचना	-1415
म्ह	-1416
▁थीं	-1417
जरा	-1418
▁उससे	-1419
▁व्यक्तियों	-1420
ानों	-1421
्ते	-1422
जर	-1423
▁कोर्इ	-1424
▁दंड	-1425
श्	-1426
▁भीतर	-1427
▁होंगे	-1428
▁बच्चों	-1429
पुर	-1430
▁प्रती	-1431
जित	-1432
▁बड़ा	-1433
▁परन्तु	-1434
▁पैदा	-1435
▁अपील	-1436
▁आधारित	-1437
▁संच	-1438
भर	-1439
▁रहने	-1440
▁एम	-1441
▁तौर	-1442
▁कला	-1443
▁दिव	-1444
▁उच्चतम	-1445
▁सिंह	-1446
▁पीछ	-1447
▁हिस्	-1448
▁उद्य	-1449
▁दुर्	-1450
ारण	-1451
▁सरकारी	-1452
▁प्रथम	-1453
▁चुन	-1454
ेंट	-1455
▁लाख	-1456
▁मृत्यु	-1457
▁भू	-1458
▁प्रधान	-1459
ट्ट	-1460
कता	-1461
▁अध्या	-1462
▁तुम्ह	-1463
्रेस	-1464
▁सार्व	-1465
बल	-1466
▁संभव	-1467
▁नियंत्रण	-1468
▁इतिहास	-1469
▁भूमि	-1470
▁रहते	-1471
रल	-1472
▁नही	-1473
▁खोज	-1474
▁कॉ	-1475
ँच	-1476
er	-1477
▁अपेक्षा	-1478
▁मंदिर	-1479
ंश	-1480
▁यही	-1481
्यास	-1482
▁A	-1483
ेप	-1484
डा	-1485
▁वृद्धि	-1486
▁बस	-1487
▁वाप	-1488
▁प्रारंभ	-1489
▁लगता	-1490
▁प्रेम	-1491
▁विकसित	-1492
▁दूसरी	-1493
▁लड़	-1494
र्जा	-1495
▁जन्म	-1496
▁विरोध	-1497
यां	-1498
▁नए	-1499
▁दिश	-1500
▁इस्ल	-1501
▁वित्तीय	-1502
▁नागर	-1503
▁अंतिम	-1504
▁कमी	-1505
पट	-1506
▁अध्ययन	-1507
ष्य	-1508
▁घटना	-1509
▁जांच	-1510
▁मदद	-1511
नाथ	-1512
▁करेंगे	-1513
▁आश	-1514
▁कांग	-1515
्ष्	-1516
▁आद	-1517
श्छ	-1518
ग्री	-1519
▁गांधी	-1520
▁प्रकृति	-1521
▁बाजार	-1522
▁विंड	-1523
▁हिन्द	-1524
जूद	-1525
र्जी	-1526
▁विस्तार	-1527
▁संसा	-1528
▁उत्पन्न	-1529
▁स्थापना	-1530
▁ऊण्	-1531
श्छ्ष्	-1532
▁ऊण्श्छ्ष्	-1533
शल	-1534
▁दिल्ली	-1535
▁प्रग	-1536
▁पुस्तक	-1537
▁लेकर	-1538
▁पेश	-1539
▁भूमिका	-1540
▁कैसे	-1541
▁संभाव	-1542
▁किंतु	-1543
ोजित	-1544
▁विवरण	-1545
▁पुल	-1546
▁सदस्यों	-1547
ार्ड	-1548
▁मिला	-1549
▁संदेश	-1550
▁राज्यों	-1551
▁ते	-1552
चल	-1553
▁किये	-1554
ात्	-1555
▁विधान	-1556
▁पे	-1557
ोर्ड	-1558
▁पुनः	-1559
▁बरा	-1560
▁हमने	-1561
▁बंद	-1562
▁संद	-1563
▁अग्र	-1564
▁दाय	-1565
र्स	-1566
रि	-1567
क्षम	-1568
▁न्यू	-1569
▁मात्रा	-1570
भूत	-1571
▁रोक	-1572
▁भावना	-1573
▁स्वतंत्रता	-1574
▁एक्स	-1575
▁बच	-1576
▁आत्म	-1577
▁माना	-1578
▁वाय	-1579
▁उल्लेख	-1580
▁नागरिक	-1581
स्थिति	-1582
▁हित	-1583
▁संत	-1584
पूर्व	-1585
▁नौ	-1586
▁संसद	-1587
▁विनिर्	-1588
कल्प	-1589
▁चे	-1590
▁प्रतिक	-1591
▁शासन	-1592
िले	-1593
▁पौ	-1594
▁आवेदन	-1595
▁बाहरी	-1596
मन	-1597
तार	-1598
र्च	-1599
▁चित्र	-1600
र्द	-1601
▁तंत्र	-1602
ुस	-1603
▁गिर	-1604
▁तकनी	-1605
ल्क	-1606
साइट	-1607
िना	-1608
लाह	-1609
▁बनाया	-1610
डियो	-1611
▁सहित	-1612
▁कानून	-1613
▁भुग	-1614
▁दिशा	-1615
▁भेज	-1616
▁भिन्न	-1617
▁अध्यक्ष	-1618
▁संगठन	-1619
▁पृष्ठ	-1620
▁आत	-1621
र्य	-1622
▁अच्छा	-1623
▁अच्छी	-1624
▁नव	-1625
▁उचित	-1626
▁ताकि	-1627
▁चिकित्	-1628
▁सुनिश्चित	-1629
▁सिद्धांत	-1630
षित	-1631
▁प्रगति	-1632
▁ब्रिट	-1633
▁बो	-1634
▁बनाए	-1635
▁भुगतान	-1636
▁राय	-1637
▁बढ़ा	-1638
▁पिता	-1639
▁केन्द्र	-1640
▁प्रशिक्षण	-1641
▁जाय	-1642
्रम	-1643
▁अर्था	-1644
▁विप	-1645
▁धी	-1646
नाव	-1647
माल	-1648
▁गल	-1649
ुनिक	-1650
स्क	-1651
▁जोड़	-1652
त्त्व	-1653
▁मंत्रालय	-1654
▁सोच	-1655
▁रहता	-1656
▁जाएगी	-1657
▁स्थानीय	-1658
मय	-1659
▁राजा	-1660
▁सत्ता	-1661
▁दक्षिण	-1662
▁बिल	-1663
▁दुनिया	-1664
▁जबकि	-1665
▁खेल	-1666
▁बीमा	-1667
ूं	-1668
▁अला	-1669
रिका	-1670
▁खुल	-1671
▁विरुद्ध	-1672
▁उसमें	-1673
▁टे	-1674
भू	-1675
ंसा	-1676
▁वास्तविक	-1677
▁कांग्रेस	-1678
▁कित	-1679
्रिय	-1680
▁तहत	-1681
▁पहचान	-1682
ज्ञानिक	-1683
▁होकर	-1684
लू	-1685
र्फ	-1686
▁अह	-1687
▁लक्ष्य	-1688
ैतिक	-1689
▁निर्दिष्ट	-1690
गल	-1691
▁मुसल	-1692
▁संशोधन	-1693
कु	-1694
ैंड	-1695
▁तुल	-1696
वरी	-1697
▁जगह	-1698
▁व्यापक	-1699
▁देव	-1700
▁इंड	-1701
▁बराबर	-1702
▁श्रेणी	-1703
▁उनमें	-1704
▁अमेरिका	-1705
ेंस	-1706
आर	-1707
▁सत	-1708
▁सेना	-1709
▁पीछे	-1710
जनिक	-1711
▁पत्	-1712
▁प्रभावित	-1713
▁मुसलमान	-1714
ियाँ	-1715
्यात	-1716
▁मनुष	-1717
कम	-1718
▁निदेश	-1719
ंथ	-1720
▁व्यवहार	-1721
▁पर्याप्त	-1722
▁प्रबंधन	-1723
▁वेबसाइट	-1724
▁बच्चे	-1725
▁आकार	-1726
▁बेह	-1727
ुप	-1728
▁चा	-1729
र्ण	-1730
्प	-1731
▁आधुनिक	-1732
▁दिनों	-1733
▁सार्वजनिक	-1734
▁अफ	-1735
▁मो	-1736
र्चा	-1737
▁मिश	-1738
नलिखित	-1739
▁क्ल	-1740
▁प्रतिनि	-1741
फार	-1742
▁पश्चात्	-1743
ज्	-1744
▁लगे	-1745
▁परिष	-1746
डर	-1747
श्वर	-1748
▁उपकरण	-1749
▁चाहिये	-1750
दय	-1751
▁सन्	-1752
▁पूंजी	-1753
▁निम्नलिखित	-1754
▁जरूरत	-1755
क्रमण	-1756
हरी	-1757
▁पिछले	-1758
▁मि	-1759
▁पुलिस	-1760
▁प्राय	-1761
▁आतंक	-1762
▁रू	-1763
▁प्रवेश	-1764
ौती	-1765
▁केंद्रीय	-1766
ड़ों	-1767
▁भवि	-1768
बू	-1769
▁यथा	-1770
वस्था	-1771
्ला	-1772
भीर	-1773
▁याद	-1774
▁पहली	-1775
वासी	-1776
▁स्कूल	-1777
▁सत्य	-1778
▁गां	-1779
ीप	-1780
ायत	-1781
▁गैर	-1782
▁रोज	-1783
▁निकाल	-1784
▁लंब	-1785
▁भविष्य	-1786
ंडल	-1787
▁गुर	-1788
▁कहीं	-1789
▁शब्दों	-1790
▁छा	-1791
फारिश	-1792
▁सम्मान	-1793
ामीण	-1794
धिकार	-1795
त्साह	-1796
▁इस्ते	-1797
▁सक्रिय	-1798
▁अलावा	-1799
▁वार	-1800
▁खरी	-1801
▁पद्ध	-1802
तक	-1803
वधान	-1804
▁ग्रामीण	-1805
on	-1806
धे	-1807
िको	-1808
▁कप	-1809
▁मित्र	-1810
▁निश्चित	-1811
▁तथ	-1812
स्ल	-1813
्यूटर	-1814
▁ऊर्जा	-1815
▁प्रकट	-1816
▁शर्	-1817
▁शाय	-1818
▁सिफारिश	-1819
▁निकल	-1820
▁औद्योगिक	-1821
▁आयु	-1822
▁अभिय	-1823
▁चाहे	-1824
▁लौ	-1825
डे	-1826
द्रा	-1827
िवार	-1828
रोध	-1829
▁निर्यात	-1830
▁अनुमति	-1831
च्छा	-1832
▁उपाय	-1833
र्ग	-1834
▁कट	-1835
▁सर्वो	-1836
▁दिख	-1837
▁]	-1838
स्कार	-1839
ानि	-1840
मंत्र	-1841
▁लिखा	-1842
▁समर्थन	-1843
▁ढंग	-1844
ंबर	-1845
▁नदी	-1846
▁[	-1847
▁पांच	-1848
▁पुरुष	-1849
▁मर	-1850
▁विवाद	-1851
▁बोर्ड	-1852
्वी	-1853
▁दल	-1854
स्ति	-1855
▁सां	-1856
▁जिन्हें	-1857
म्भ	-1858
न्व	-1859
ंकन	-1860
▁केन्द	-1861
वर्ती	-1862
▁लेखा	-1863
▁संदर्भ	-1864
बे	-1865
▁इस्लाम	-1866
▁तारी	-1867
▁शायद	-1868
▁दस्ता	-1869
▁देती	-1870
▁समाधान	-1871
▁फल	-1872
▁राजनीतिक	-1873
▁इस्तेमाल	-1874
▁चै	-1875
▁भग	-1876
्राम	-1877
▁उत्स	-1878
▁मिले	-1879
▁प्रद	-1880
▁योग्य	-1881
▁वैज्ञानिक	-1882
▁पदार्थ	-1883
▁S	-1884
ांति	-1885
▁पृथ	-1886
▁कार्यालय	-1887
▁करोड़	-1888
फा	-1889
▁संके	-1890
शु	-1891
▁पाया	-1892
▁करा	-1893
▁जिनमें	-1894
▁सम्बन्ध	-1895
▁मश	-1896
णिज	-1897
्वेष	-1898
वों	-1899
▁नेट	-1900
▁बर	-1901
▁संरचना	-1902
▁रि	-1903
ुआ	-1904
▁इतना	-1905
▁मुखर्जी	-1906
कुल	-1907
सिक	-1908
▁गं	-1909
▁निर्वा	-1910
▁फाइल	-1911
ंगे	-1912
▁वो	-1913
▁रज	-1914
▁मही	-1915
णिज्य	-1916
ेशा	-1917
▁ट्र	-1918
एम	-1919
▁संग्रह	-1920
▁_	-1921
▁गी	-1922
▁चिकित्सा	-1923
▁न्यायालयों	-1924
▁दिल	-1925
▁पूछ	-1926
▁मेरा	-1927
ोलन	-1928
▁भौ	-1929
▁दृष्ट	-1930
▁प्रोत्साह	-1931
▁हमारा	-1932
सन	-1933
▁सामग्री	-1934
न्दी	-1935
▁यूर	-1936
▁उठा	-1937
▁जैसी	-1938
▁न्यायिक	-1939
▁तारीख	-1940
▁चाहता	-1941
दित	-1942
▁मुक्त	-1943
▁सक्षम	-1944
▁बंगाल	-1945
▁पूरे	-1946
▁उद्यम	-1947
▁बज	-1948
▁मनुष्य	-1949
▁संरक्षण	-1950
▁विभा	-1951
▁निजी	-1952
▁सहायक	-1953
▁बढ	-1954
▁सृ	-1955
म्बर	-1956
▁बनाम	-1957
▁संय	-1958
मू	-1959
▁जे	-1960
▁नया	-1961
▁वापस	-1962
▁यद्य	-1963
▁रक्षा	-1964
▁वाणिज्य	-1965
▁प्रकाशित	-1966
▁मॉ	-1967
▁रक्त	-1968
▁साधारण	-1969
▁दस्तावे	-1970
▁खो	-1971
▁दश	-1972
▁पुरस्कार	-1973
बाद	-1974
▁यद्यपि	-1975
चर	-1976
▁तत्व	-1977
ंतर	-1978
▁बने	-1979
▁सफलता	-1980
▁सलाह	-1981
▁इनमें	-1982
ग्	-1983
▁h	-1984
थमिक	-1985
वाही	-1986
▁अभिव	-1987
क्षर	-1988
सि	-1989
पात	-1990
▁बुद्ध	-1991
▁हे	-1992
▁दें	-1993
▁कम्प	-1994
यल	-1995
▁अवस्था	-1996
सम	-1997
▁रखना	-1998
ृह	-1999
▁समक्ष	-2000
▁मास	-2001
▁शीर्ष	-2002
▁पालन	-2003
▁दशा	-2004
खी	-2005
▁हमेशा	-2006
▁चर्चा	-2007
▁प्राथमिक	-2008
▁युवा	-2009
▁जाति	-2010
कीय	-2011
▁लि	-2012
▁सिर्फ	-2013
▁उत	-2014
▁ऑफ	-2015
▁रकम	-2016
▁अधिकां	-2017
▁एल	-2018
▁समझौ	-2019
▁रखते	-2020
▁शांति	-2021
▁आत्मा	-2022
▁फी	-2023
▁सकेगा	-2024
▁मंत्री	-2025
▁सेवाओं	-2026
चीन	-2027
तया	-2028
▁स्म	-2029
घु	-2030
ोक्ता	-2031
▁मुद्रा	-2032
▁वन	-2033
▁शक्त	-2034
▁देखने	-2035
▁लागत	-2036
शिया	-2037
िल्म	-2038
▁ईश्वर	-2039
▁विल	-2040
▁केन्द्रीय	-2041
ar	-2042
▁डॉ	-2043
ड़क	-2044
टे	-2045
▁समुदाय	-2046
▁शेय	-2047
ठित	-2048
▁लाल	-2049
राष्ट्रीय	-2050
▁री	-2051
▁सुझ	-2052
▁संपत्ति	-2053
इस	-2054
▁रिक	-2055
▁रेल	-2056
▁चुका	-2057
▁धीरे	-2058
विल	-2059
▁बताया	-2060
मक	-2061
▁चाल	-2062
▁तीस	-2063
सू	-2064
ैल	-2065
▁योगदान	-2066
▁हृ	-2067
▁गंभीर	-2068
▁पर्य	-2069
▁जिसकी	-2070
▁किन्तु	-2071
पूर्वक	-2072
▁दू	-2073
▁जम	-2074
▁अधिकांश	-2075
at	-2076
िकोण	-2077
▁छोटी	-2078
▁अद	-2079
र्ट	-2080
▁कदम	-2081
▁शहर	-2082
▁जिला	-2083
▁पंच	-2084
▁सप	-2085
▁कानू	-2086
▁परीक्षा	-2087
▁संभावना	-2088
▁क्रम	-2089
ाये	-2090
▁दिखाई	-2091
फ्ट	-2092
▁बेहतर	-2093
▁सम्मिल	-2094
▁मुद्	-2095
त्री	-2096
▁सेट	-2097
▁पद्धति	-2098
ल्ल	-2099
▁तत्	-2100
▁नेटवर्	-2101
▁दूसरा	-2102
ार्मिक	-2103
▁धार	-2104
▁दोष	-2105
▁निर्भर	-2106
▁थो	-2107
▁चयन	-2108
▁धार्मिक	-2109
▁पो	-2110
▁वही	-2111
▁सीमित	-2112
ंटर	-2113
▁आंद	-2114
▁तुलना	-2115
▁ऊंच	-2116
▁वहाँ	-2117
▁पर्यावरण	-2118
▁भे	-2119
्टर	-2120
▁कोशिश	-2121
▁बोल	-2122
▁प्रणब	-2123
न्दर	-2124
मंत्री	-2125
कान	-2126
▁क़	-2127
क्टर	-2128
▁प्रशासन	-2129
भूति	-2130
▁तरीके	-2131
ुन	-2132
▁यूरोप	-2133
ंद्र	-2134
ल्पना	-2135
▁प्रभावी	-2136
हीन	-2137
क्षेप	-2138
en	-2139
टल	-2140
▁कविता	-2141
▁संकल्प	-2142
ृति	-2143
▁महारा	-2144
▁ब्रिटिश	-2145
संद	-2146
▁खर्च	-2147
▁चर	-2148
▁सारे	-2149
▁व्यवसाय	-2150
ंगी	-2151
▁मशीन	-2152
▁संपर्क	-2153
▁शिकायत	-2154
▁रहती	-2155
▁ति	-2156
कद	-2157
▁अनिवार	-2158
▁हिन्दी	-2159
ोषणा	-2160
▁उपचार	-2161
▁ढा	-2162
वर्ष	-2163
▁निधि	-2164
▁इका	-2165
वत्ता	-2166
द्द	-2167
▁अंग्रेजी	-2168
पे	-2169
▁डेटा	-2170
▁उनसे	-2171
▁प्रवृ	-2172
▁वायु	-2173
▁संगी	-2174
▁कंप्यूटर	-2175
तु	-2176
in	-2177
▁जित	-2178
▁विद्यार्थ	-2179
▁आता	-2180
▁मजब	-2181
वेद	-2182
▁पक	-2183
▁प्राकृतिक	-2184
▁निम्न	-2185
▁संस्कृति	-2186
▁C	-2187
▁ख़	-2188
▁सूर	-2189
▁कार्र	-2190
्यो	-2191
नेट	-2192
▁तेल	-2193
ारोह	-2194
▁कथ	-2195
▁गुणवत्ता	-2196
▁ग्रह	-2197
▁विधेय	-2198
▁सम्मिलित	-2199
क्ष्म	-2200
▁विशाल	-2201
▁लघु	-2202
▁आशा	-2203
▁सकें	-2204
▁स्रो	-2205
▁जहाँ	-2206
▁देखते	-2207
▁युग	-2208
▁असम	-2209
▁अस्त	-2210
भाल	-2211
▁परिस्थित	-2212
ायी	-2213
▁दस	-2214
▁अंक	-2215
▁मिट	-2216
▁अधिकारियों	-2217
र्ड	-2218
▁मोट	-2219
घा	-2220
ेलन	-2221
र्ज	-2222
ापन	-2223
▁आए	-2224
▁खाद्य	-2225
▁अनिवार्य	-2226
स्वरूप	-2227
ियर	-2228
▁खुलती	-2229
ताल	-2230
▁संह	-2231
▁ब्या	-2232
ंगत	-2233
▁रजिस्ट	-2234
▁विचारों	-2235
लाई	-2236
▁उपभ	-2237
an	-2238
▁हिस्सा	-2239
▁अध्याय	-2240
राज्य	-2241
▁पड़ा	-2242
धनों	-2243
▁व्यक्तिगत	-2244
न्स	-2245
▁विंडों	-2246
▁नगर	-2247
▁आपकी	-2248
पक	-2249
▁समारोह	-2250
चि	-2251
▁त्रुट	-2252
▁मिलता	-2253
▁संस्कृत	-2254
चक	-2255
त्तर	-2256
वेयर	-2257
रीय	-2258
▁खिला	-2259
▁भोजन	-2260
▁आकर्	-2261
▁नेटवर्क	-2262
▁बधा	-2263
▁करनी	-2264
▁दिवस	-2265
वै	-2266
▁अत्यंत	-2267
▁प्रयोजन	-2268
▁शता	-2269
कारों	-2270
▁हैः	-2271
▁इला	-2272
▁समझा	-2273
▁संहिता	-2274
▁अतः	-2275
▁निर्धारिती	-2276
▁लेना	-2277
स्लिम	-2278
▁दायित्व	-2279
▁महत्त्व	-2280
िकी	-2281
▁पाल	-2282
टों	-2283
▁बधाई	-2284
▁निकट	-2285
▁d	-2286
▁उपयुक्त	-2287
▁भागी	-2288
तित	-2289
चारी	-2290
▁संघर्ष	-2291
▁जिनके	-2292
▁बचा	-2293
▁मुस्लिम	-2294
▁शास्त	-2295
ैन	-2296
ारों	-2297
पु	-2298
म्मे	-2299
▁भंड	-2300
▁अनुसू	-2301
▁विकल्प	-2302
खंड	-2303
ार्क	-2304
दृ	-2305
▁नेता	-2306
▁दृष्टिकोण	-2307
▁प्राचीन	-2308
▁–	-2309
▁शाखा	-2310
▁उपबंधों	-2311
▁आंदोलन	-2312
▁प्ल	-2313
▁इजरा	-2314
▁एज	-2315
▁विद्व	-2316
▁नियमों	-2317
▁संगीत	-2318
ूँ	-2319
▁भारी	-2320
▁बौ	-2321
फ्त	-2322
▁खोल	-2323
▁खास	-2324
▁नर	-2325
▁शुल्क	-2326
▁जल्	-2327
▁अभिव्य	-2328
ान्व	-2329
▁संस्थानों	-2330
डिया	-2331
▁खरीद	-2332
▁पंजी	-2333
▁सिविल	-2334
ंति	-2335
▁निगम	-2336
▁पर्व	-2337
▁आदर्श	-2338
क्षी	-2339
▁पहल	-2340
किंग	-2341
▁गरी	-2342
ोग्राम	-2343
घ्र	-2344
▁तथापि	-2345
▁आरोप	-2346
▁पंजा	-2347
▁आयोजित	-2348
▁नये	-2349
वाब	-2350
▁हजार	-2351
▁घट	-2352
▁I	-2353
▁वर्णन	-2354
▁आते	-2355
▁ईसा	-2356
▁पाने	-2357
▁अस्प	-2358
▁लॉ	-2359
▁विनिर्दिष्ट	-2360
▁घोषणा	-2361
कालीन	-2362
▁अर्थव्य	-2363
▁विविध	-2364
त्न	-2365
▁जोर	-2366
बत	-2367
▁चीज	-2368
▁जानी	-2369
▁फ़ाइल	-2370
▁कार्यवाही	-2371
▁संसाधन	-2372
▁अर्थात्	-2373
▁हस्ता	-2374
▁पराम	-2375
▁हिन्दू	-2376
▁ii	-2377
▁नोट	-2378
ब्दी	-2379
▁सुझाव	-2380
▁कार्यों	-2381
▁खाते	-2382
▁पड़े	-2383
ोम	-2384
्वेषण	-2385
इयों	-2386
▁c	-2387
▁क्षति	-2388
▁जिसने	-2389
▁विधेयक	-2390
▁कार्रवाई	-2391
▁जानते	-2392
ोजनों	-2393
ड्ड	-2394
▁परिस	-2395
▁जरूरी	-2396
▁ध्व	-2397
▁व्यय	-2398
▁प्रशास	-2399
▁सुरक्षित	-2400
▁खुद	-2401
मीर	-2402
▁अंतरराष्ट्रीय	-2403
▁स्वरूप	-2404
ंपरा	-2405
▁प्रसन्न	-2406
▁अंश	-2407
▁अंदर	-2408
▁लेते	-2409
▁उपन	-2410
▁पारित	-2411
▁अच्छे	-2412
▁ग्राह	-2413
▁बनाना	-2414
▁कठिन	-2415
▁चुनाव	-2416
भाषा	-2417
▁हटा	-2418
▁अधि	-2419
▁शि	-2420
▁व्याव	-2421
▁निपट	-2422
जनक	-2423
इल	-2424
▁गतिविध	-2425
▁प्रदर्शन	-2426
शाली	-2427
▁पड़ता	-2428
▁ब्याज	-2429
▁संकेत	-2430
▁अना	-2431
▁इच्छा	-2432
▁शास	-2433
ंबई	-2434
▁कहना	-2435
▁मात्र	-2436
ोषित	-2437
▁सदन	-2438
▁प्राण	-2439
▁परंपरा	-2440
▁परामर्श	-2441
न्ट	-2442
▁अक	-2443
▁तम	-2444
▁त्व	-2445
▁समृ	-2446
▁कोशिका	-2447
ंदा	-2448
▁खत	-2449
क्षक	-2450
त्रों	-2451
▁आदमी	-2452
धीन	-2453
पालिका	-2454
▁भगवान	-2455
▁ग्राम	-2456
▁राजन	-2457
▁अधिकारों	-2458
्रिया	-2459
▁नियुक्त	-2460
वाय	-2461
▁आग	-2462
▁तकनीकी	-2463
▁अर्थव्यवस्था	-2464
▁मिली	-2465
▁एशिया	-2466
रो	-2467
▁बर्	-2468
▁होनी	-2469
▁P	-2470
▁विनियम	-2471
▁गर्इ	-2472
▁कृप	-2473
▁सिर	-2474
▁इन्ह	-2475
गु	-2476
▁पेट	-2477
▁अभिप	-2478
▁उपस्थित	-2479
re	-2480
पादन	-2481
▁टै	-2482
▁छोटा	-2483
▁माता	-2484
▁आतंकवाद	-2485
▁हृदय	-2486
▁सम्मेलन	-2487
▁तट	-2488
▁उल्ल	-2489
▁गलत	-2490
▁वीं	-2491
न्हीं	-2492
▁तर्क	-2493
▁संपूर्ण	-2494
व्र	-2495
▁लगाया	-2496
एल	-2497
▁नाटक	-2498
▁सम्प	-2499
▁प्रत्यक्ष	-2500
▁f	-2501
▁कौन	-2502
▁मार्च	-2503
कला	-2504
काम	-2505
▁जिम्मे	-2506
स्पर	-2507
▁शुभ	-2508
▁इंग	-2509
▁कहानी	-2510
▁अप्रैल	-2511
▁वाणिज्यिक	-2512
▁प्रसि	-2513
ख़	-2514
▁मौजूद	-2515
िक्	-2516
▁एच	-2517
▁लगी	-2518
▁पहला	-2519
▁तेजी	-2520
एफ	-2521
▁सश	-2522
▁शेष	-2523
म्र	-2524
▁बाव	-2525
▁पश्चिमी	-2526
वहन	-2527
ून्य	-2528
▁भाई	-2529
िनी	-2530
▁वाता	-2531
▁परीक्षण	-2532
मेंट	-2533
▁स्थायी	-2534
▁विद्यमान	-2535
▁कर्मचार	-2536
वीं	-2537
▁तरफ	-2538
▁महिलाओं	-2539
▁फिल	-2540
मारी	-2541
िन्	-2542
▁वार्ष	-2543
▁खाता	-2544
▁दर्शन	-2545
▁महस	-2546
ग्न	-2547
▁सका	-2548
▁प्रयोजनों	-2549
ल्ड	-2550
▁शीघ्र	-2551
ठी	-2552
▁त्रुटि	-2553
▁प्रवर्	-2554
▁कार्यान्व	-2555
▁पार्टी	-2556
्राष्ट्रीय	-2557
तें	-2558
स्य	-2559
▁t	-2560
▁बनी	-2561
▁अश	-2562
▁सरल	-2563
▁रहना	-2564
लाव	-2565
ल्स	-2566
▁सित	-2567
▁हास	-2568
▁अरब	-2569
ुसार	-2570
▁दौ	-2571
▁परिच	-2572
▁मल	-2573
▁सात	-2574
▁परिषद	-2575
▁पाकि	-2576
▁चुके	-2577
▁हस्त	-2578
▁वाद	-2579
▁अनुज्ञ	-2580
▁मूल्या	-2581
भाष	-2582
▁गर्	-2583
▁मानसिक	-2584
▁अवि	-2585
▁समु	-2586
▁क्रा	-2587
▁आपका	-2588
▁गुना	-2589
ितीय	-2590
▁पुनर्	-2591
▁मजबूत	-2592
▁कृपया	-2593
▁शताब्दी	-2594
▁मोह	-2595
▁आंक	-2596
▁हट	-2597
▁उन्न	-2598
▁महसूस	-2599
▁विज	-2600
▁अनुक	-2601
जली	-2602
▁विस्तृत	-2603
ठा	-2604
▁अन्तर्	-2605
▁लाने	-2606
▁समाचार	-2607
▁वातावरण	-2608
▁p	-2609
िक्री	-2610
्ति	-2611
▁द्वार	-2612
ष्क	-2613
सभा	-2614
▁अंड	-2615
▁बैठक	-2616
▁वस्तुओं	-2617
▁कर्मचारियों	-2618
▁o	-2619
▁एफ	-2620
▁समुद्र	-2621
▁प्रतिनिध	-2622
▁तय	-2623
▁अभिक	-2624
▁दबा	-2625
▁बंध	-2626
ज्य	-2627
▁सांस्	-2628
▁इंटर	-2629
▁गांव	-2630
▁दि	-2631
▁T	-2632
▁संदे	-2633
▁रखे	-2634
▁अल्प	-2635
▁रोजगार	-2636
ायक	-2637
▁इजरायल	-2638
▁जिन्होंने	-2639
▁अत्यधिक	-2640
▁प्राप्ति	-2641
▁ढांच	-2642
इड	-2643
▁वेतन	-2644
▁बौद्ध	-2645
▁अनुप्र	-2646
▁चरण	-2647
▁परिस्थितियों	-2648
▁ग्रहण	-2649
▁काव्य	-2650
▁निर्मित	-2651
▁प्रतिष्ठ	-2652
▁घंट	-2653
▁नियमित	-2654
▁जवाब	-2655
▁भौतिक	-2656
▁शून्य	-2657
▁पहा	-2658
रिया	-2659
▁कल्पना	-2660
▁कथा	-2661
कृष्ट	-2662
▁सूक्ष्म	-2663
स्म	-2664
▁पट	-2665
▁संचार	-2666
▁अगले	-2667
▁दिये	-2668
▁मिलने	-2669
▁B	-2670
▁उपन्यास	-2671
बि	-2672
▁तथ्य	-2673
▁विश्ले	-2674
▁प्रधानमंत्री	-2675
ृत्व	-2676
▁कानूनी	-2677
▁भ्र	-2678
▁किन	-2679
▁असफल	-2680
▁कर्त	-2681
▁अनुमान	-2682
▁इत्या	-2683
▁समस्याओं	-2684
▁खे	-2685
▁सिस्ट	-2686
ार्म	-2687
▁सामना	-2688
ष्ट्र	-2689
लब	-2690
▁रात	-2691
▁भाषण	-2692
▁इतनी	-2693
▁वर	-2694
▁कल्या	-2695
▁स्रोत	-2696
ंघ	-2697
स्ती	-2698
▁जंग	-2699
▁महाम	-2700
▁हल	-2701
ंव	-2702
म्मी	-2703
▁इंज	-2704
▁शुद्ध	-2705
▁आती	-2706
▁सच्च	-2707
▁विमान	-2708
िटी	-2709
▁द्र	-2710
▁नवान	-2711
▁आयुक्त	-2712
िर्	-2713
्वा	-2714
▁बढ़ाने	-2715
▁आवा	-2716
▁पत्नी	-2717
▁सांस्कृतिक	-2718
▁कराने	-2719
▁आंत	-2720
▁क्षेत्रीय	-2721
ोरी	-2722
ांकि	-2723
▁मान्यता	-2724
▁निर्वाचन	-2725
्रेड	-2726
▁हालांकि	-2727
टिल	-2728
ूक	-2729
▁वाह	-2730
नाएं	-2731
्याग	-2732
▁दावा	-2733
▁प्रयासों	-2734
▁शेयर	-2735
al	-2736
▁ब्रह	-2737
▁तुर	-2738
तृत्व	-2739
▁निरंतर	-2740
▁सॉ	-2741
ंका	-2742
▁अनुवाद	-2743
▁अधिकरण	-2744
▁मंज	-2745
▁साम्रा	-2746
शाला	-2747
दिक	-2748
हरे	-2749
▁कीमत	-2750
▁प्राधिकरण	-2751
▁लेखक	-2752
शय	-2753
▁उल	-2754
मल	-2755
▁युक्त	-2756
▁नामक	-2757
णु	-2758
▁मामला	-2759
▁बावजूद	-2760
▁मध	-2761
▁रेखा	-2762
थि	-2763
▁आये	-2764
▁सफ	-2765
▁सीख	-2766
सों	-2767
▁प्रभार	-2768
▁गणराज्य	-2769
रान	-2770
▁अदाल	-2771
▁वैश्व	-2772
▁पेज	-2773
▁e	-2774
▁विवे	-2775
लिक	-2776
it	-2777
▁आँ	-2778
▁दृश्य	-2779
▁हिंदू	-2780
▁टिप	-2781
▁लक्षण	-2782
▁कार्	-2783
धर	-2784
्वर	-2785
▁मुसलमानों	-2786
▁अभिया	-2787
वक	-2788
▁इंडिया	-2789
गो	-2790
वाले	-2791
▁इनके	-2792
▁सर्वा	-2793
▁निकाय	-2794
▁प्रायः	-2795
▁वार्षिक	-2796
िरा	-2797
▁प्रसिद्ध	-2798
ालित	-2799
▁पाकिस्तान	-2800
▁कल्याण	-2801
▁टन	-2802
▁सुंदर	-2803
▁सुना	-2804
▁हिंदी	-2805
▁कर्मचारी	-2806
▁महीने	-2807
किल	-2808
▁याच	-2809
▁रुपये	-2810
▁प्रतिक्रिया	-2811
▁प्रजा	-2812
▁संस्थाओं	-2813
▁अनुकूल	-2814
▁अधिकतम	-2815
▁अधिकारिता	-2816
▁w	-2817
▁करार	-2818
▁सारी	-2819
यान	-2820
ज़ी	-2821
प्रिय	-2822
▁सचिव	-2823
डल	-2824
▁इत्यादि	-2825
▁माह	-2826
र्घ	-2827
▁गठन	-2828
▁सीधे	-2829
▁गहरा	-2830
▁बिजली	-2831
▁शैली	-2832
लि	-2833
▁पसंद	-2834
▁जिनका	-2835
▁तुम्हें	-2836
▁गृह	-2837
▁उत्तरदाय	-2838
ेतना	-2839
▁हानि	-2840
▁अफ्री	-2841
▁विद्युत	-2842
्रण	-2843
▁स्वामी	-2844
▁प्रोग्राम	-2845
▁पाए	-2846
वेक्षण	-2847
दूर	-2848
ज़ा	-2849
▁अभिन	-2850
▁लौट	-2851
▁मूल्यांकन	-2852
▁साफ	-2853
▁अंतरण	-2854
▁लगाने	-2855
ंबा	-2856
▁उम्मी	-2857
विक	-2858
▁E	-2859
ियत	-2860
▁मिलती	-2861
▁समर्	-2862
ंता	-2863
▁प्रावधान	-2864
▁मेल	-2865
सत	-2866
▁समी	-2867
▁शुभकाम	-2868
▁जल्दी	-2869
es	-2870
वत	-2871
संगत	-2872
▁तभी	-2873
क्ट्र	-2874
▁आक्रमण	-2875
▁सिस्टम	-2876
tm	-2877
▁किरा	-2878
मति	-2879
लाइन	-2880
▁प्रचार	-2881
्ताह	-2882
त्मिक	-2883
▁आपने	-2884
▁परम	-2885
▁नक	-2886
▁अमरी	-2887
▁कारबार	-2888
राब	-2889
▁डाक	-2890
▁प्रवि	-2891
सान	-2892
▁उक्त	-2893
▁लो	-2894
▁रुपए	-2895
▁अधिव	-2896
▁पत्त	-2897
▁पुराने	-2898
उट	-2899
▁सवाल	-2900
रीक्षण	-2901
▁समस्त	-2902
▁अस्तित्व	-2903
▁संब	-2904
▁स्थल	-2905
दीय	-2906
श्मीर	-2907
▁श्व	-2908
▁जनवरी	-2909
▁सभ	-2910
▁करी	-2911
▁मुकद	-2912
▁विषयों	-2913
▁समन्व	-2914
▁प्रयुक्त	-2915
कर्ष	-2916
ुक्ति	-2917
ंटी	-2918
▁देखभाल	-2919
▁लोकतंत्र	-2920
▁पाठ्य	-2921
▁आनंद	-2922
ारात्मक	-2923
▁फूल	-2924
▁न्यायाधीशों	-2925
▁आध्या	-2926
क्षेत्र	-2927
भूम	-2928
▁घरे	-2929
न्ध	-2930
▁मनो	-2931
्रय	-2932
▁मू	-2933
▁दै	-2934
▁बुद्धि	-2935
▁अनुमो	-2936
▁पथ	-2937
▁वज	-2938
▁साधन	-2939
▁पात्र	-2940
▁गुजरा	-2941
▁मानते	-2942
▁साझ	-2943
▁भागों	-2944
▁जनसं	-2945
▁G	-2946
▁याचिका	-2947
्याय	-2948
▁आयात	-2949
▁महत्त्वपूर्ण	-2950
दर	-2951
नु	-2952
▁बढ़ावा	-2953
▁आजा	-2954
▁न्यून	-2955
▁स्थानों	-2956
▁राजनैतिक	-2957
ोने	-2958
मात्र	-2959
▁शिश	-2960
▁इन्हें	-2961
▁चले	-2962
▁शारी	-2963
▁तीव्र	-2964
▁जायेगा	-2965
or	-2966
▁कटौती	-2967
▁पंजाब	-2968
▁उम्मीद	-2969
▁संगण	-2970
▁कुंजी	-2971
▁वितरण	-2972
रेट	-2973
▁जून	-2974
▁नजर	-2975
▁कलक	-2976
▁नेतृत्व	-2977
▁साक्ष्य	-2978
▁रखी	-2979
▁बिक्री	-2980
▁प्रेरित	-2981
▁घा	-2982
▁गतिविधियों	-2983
▁टिप्प	-2984
▁बातों	-2985
लेज	-2986
▁रोगी	-2987
रक	-2988
▁उड़	-2989
▁एका	-2990
▁फिल्म	-2991
▁विद्यार्थियों	-2992
▁जोख	-2993
मद	-2994
सीय	-2995
▁विशेषज्ञ	-2996
▁प्राधिकारी	-2997
▁चेतना	-2998
र्न	-2999
▁फसल	-3000
▁संगठ	-3001
▁कठिना	-3002
▁बैंकों	-3003
ृंख	-3004
▁उपा	-3005
▁घरेलू	-3006
▁मौसम	-3007
▁शुभकामनाएं	-3008
▁नेहर	-3009
▁पुत्र	-3010
▁अख	-3011
▁कंपन	-3012
▁चलता	-3013
▁ग्रंथ	-3014
▁अमेरिक	-3015
लीय	-3016
▁R	-3017
▁शिव	-3018
मूर्ति	-3019
▁नैतिक	-3020
तिहासिक	-3021
न्य	-3022
ड़ित	-3023
▁प्रदर्शित	-3024
▁बनाई	-3025
िकल	-3026
ैक	-3027
ॉँ	-3028
▁कुशल	-3029
▁खुशी	-3030
▁स्वागत	-3031
▁कार्यक्रमों	-3032
▁उनको	-3033
▁जोखिम	-3034
▁आध्यात्मिक	-3035
▁लिखित	-3036
गण	-3037
▁इं	-3038
ड़ाई	-3039
▁टाइ	-3040
▁बुनिया	-3041
▁शारीरिक	-3042
▁दिस	-3043
▁अनुप्रयोग	-3044
▁htm	-3045
▁फाय	-3046
वासियों	-3047
ानु	-3048
▁श्रेणीः	-3049
▁घोषित	-3050
▁तरीका	-3051
▁प्रसन्नता	-3052
▁अपेक्षित	-3053
▁दीर्घ	-3054
भूमि	-3055
▁पहुँच	-3056
▁मंच	-3057
▁बाबत	-3058
▁देखें	-3059
▁शक्तियों	-3060
▁नष्ट	-3061
▁प्रतीत	-3062
▁मंड	-3063
मर	-3064
धानिक	-3065
▁g	-3066
▁स्पष्टीकरण	-3067
▁html	-3068
▁मानक	-3069
ेंशन	-3070
▁गर्म	-3071
▁प्रदू	-3072
▁मां	-3073
▁प्रोत्साहन	-3074
▁संवर्	-3075
▁मिलकर	-3076
▁हवा	-3077
▁सैनिक	-3078
धारित	-3079
▁प्रच	-3080
▁अंतर्राष्ट्रीय	-3081
ह्न	-3082
पों	-3083
▁b	-3084
▁मगर	-3085
▁उत्कृष्ट	-3086
▁अनुप	-3087
▁इकाई	-3088
▁लेता	-3089
▁तेज	-3090
▁त्याग	-3091
▁छह	-3092
▁जटिल	-3093
▁मिशन	-3094
▁अधिस	-3095
▁प्रसार	-3096
▁अवश्य	-3097
▁सर्वोच्च	-3098
▁v	-3099
▁माँ	-3100
▁चारों	-3101
िड	-3102
्यार	-3103
▁कृत	-3104
हिम	-3105
ic	-3106
रत	-3107
ृंखला	-3108
नो	-3109
▁इले	-3110
▁अस्थ	-3111
▁x	-3112
▁निहित	-3113
▁m	-3114
▁चीन	-3115
▁सेवाएं	-3116
▁चुकी	-3117
ंख्य	-3118
▁स्त्री	-3119
▁स्मृति	-3120
▁अगस्त	-3121
▁फीस	-3122
▁विधिक	-3123
कत	-3124
चरण	-3125
िप्त	-3126
▁अभिव्यक्ति	-3127
▁जहा	-3128
▁करेगी	-3129
्रेट	-3130
▁पशु	-3131
▁प्ले	-3132
▁विरोधी	-3133
▁लें	-3134
चलित	-3135
राधिक	-3136
▁मुंबई	-3137
रणा	-3138
▁प्रोट	-3139
▁वीडियो	-3140
करी	-3141
▁अक्	-3142
▁मतलब	-3143
▁संसाधनों	-3144
ढ़ी	-3145
▁साब	-3146
▁वालों	-3147
फ्टवेयर	-3148
▁फर	-3149
▁ऐतिहासिक	-3150
▁आफ	-3151
कालिक	-3152
▁अभिले	-3153
▁लगातार	-3154
▁संबंधों	-3155
▁परिणामस्वरूप	-3156
▁कठोर	-3157
▁प्रमाणपत्र	-3158
▁औष	-3159
क्षिक	-3160
▁मस्ति	-3161
ियोग	-3162
▁वजह	-3163
ताब	-3164
▁आंतरिक	-3165
पाद	-3166
▁कूट	-3167
▁जनसंख्या	-3168
▁ज़र	-3169
▁चीज़	-3170
▁इंजीन	-3171
▁उपयोगी	-3172
क्शन	-3173
शास्त	-3174
▁प्रशासनिक	-3175
कर्ताओं	-3176
▁विश्लेषण	-3177
▁यूनि	-3178
▁पश्चात	-3179
पान	-3180
▁रखता	-3181
▁हथ	-3182
ूंगा	-3183
▁गोप	-3184
▁प्रका	-3185
▁पति	-3186
▁मना	-3187
▁सरकारों	-3188
ामा	-3189
▁नागरिकों	-3190
▁भूल	-3191
▁बातें	-3192
▁न्यूनतम	-3193
▁वैश्विक	-3194
▁छूट	-3195
▁मई	-3196
▁गंगा	-3197
▁नेहरू	-3198
्रीन	-3199
ूबर	-3200
▁आठ	-3201
▁सुख	-3202
▁कृष्ण	-3203
▁दीवार	-3204
चारिक	-3205
▁चक्र	-3206
▁द्वीप	-3207
▁हासिल	-3208
▁साम्राज्य	-3209
ेंद	-3210
▁विफल	-3211
▁निदेशक	-3212
▁हिम	-3213
ुस्तान	-3214
▁प्रवाह	-3215
▁बीज	-3216
चित्र	-3217
बन्धी	-3218
▁जाएं	-3219
▁अल्	-3220
▁संचालन	-3221
कलन	-3222
क्ता	-3223
स्ते	-3224
फे	-3225
▁श्रम	-3226
▁बनने	-3227
▁संसार	-3228
▁दस्तावेज	-3229
▁प्रयत्न	-3230
बन	-3231
▁स्वर	-3232
▁कमज	-3233
▁सत्या	-3234
▁स्की	-3235
▁स्थिर	-3236
▁सप्ताह	-3237
लग्न	-3238
जीव	-3239
▁स्वच्छ	-3240
▁कलकत्ता	-3241
एन	-3242
ुम	-3243
▁अक्ष	-3244
तल	-3245
▁उम्र	-3246
▁विहित	-3247
▁नियुक्ति	-3248
▁आलो	-3249
▁अन्तर	-3250
त्तम	-3251
दाता	-3252
▁नाट	-3253
▁महामहिम	-3254
नाम	-3255
▁पृथ्वी	-3256
ियल	-3257
▁निरा	-3258
▁ब्रा	-3259
▁खिलाफ	-3260
▁अदालत	-3261
णों	-3262
▁सहकारी	-3263
▁शाह	-3264
▁बीमारी	-3265
▁अधिसू	-3266
▁प्रकाशन	-3267
▁आसान	-3268
▁छोड़कर	-3269
▁संगठनों	-3270
▁व्याख्या	-3271
▁ऑन	-3272
▁काट	-3273
▁लेन	-3274
▁शुरुआ	-3275
रीत	-3276
▁खी	-3277
▁अभिलेख	-3278
▁आह	-3279
▁संबद्ध	-3280
पथ	-3281
▁लोकप्रिय	-3282
वाली	-3283
▁L	-3284
▁विशेषकर	-3285
▁सड़क	-3286
▁सुभाष	-3287
▁कोल	-3288
▁प्रतीक	-3289
▁काय	-3290
▁कोड	-3291
▁वैसे	-3292
ेह	-3293
▁उद्योगों	-3294
▁कार्यवाह	-3295
▁विम	-3296
▁एकता	-3297
▁संविदा	-3298
▁M	-3299
is	-3300
शनल	-3301
▁एड	-3302
▁आरम्भ	-3303
यें	-3304
▁रीति	-3305
▁मीडिया	-3306
ैव	-3307
▁अके	-3308
▁माप	-3309
▁अनुरूप	-3310
चीत	-3311
▁जेल	-3312
▁सुल	-3313
▁चलते	-3314
▁सृजन	-3315
ंकर	-3316
▁दवा	-3317
▁कौशल	-3318
स्थापित	-3319
▁निष्कर्ष	-3320
▁N	-3321
▁निः	-3322
▁जमीन	-3323
▁जुड़े	-3324
▁आपूर्ति	-3325
▁सर्वाधिक	-3326
▁विपरीत	-3327
▁आख	-3328
दर्शन	-3329
▁पूर्वी	-3330
▁समुचित	-3331
▁पूजा	-3332
▁पीड़ित	-3333
▁विचारण	-3334
▁प्रतिनिधित्व	-3335
ion	-3336
▁ग्रा	-3337
▁बातचीत	-3338
▁अफ्रीका	-3339
▁बुनियादी	-3340
▁बू	-3341
▁पुरा	-3342
le	-3343
▁वकी	-3344
▁शोध	-3345
▁जाँच	-3346
▁गिरफ्त	-3347
ज्ञा	-3348
▁अभियान	-3349
▁समझौता	-3350
▁सारा	-3351
▁परस्पर	-3352
▁विशेषता	-3353
न्द्रनाथ	-3354
▁किसानों	-3355
▁दूध	-3356
▁आश्च	-3357
साधारण	-3358
▁संकट	-3359
▁ताप	-3360
▁रस	-3361
▁विजय	-3362
ूद्ध	-3363
्रित	-3364
▁आंख	-3365
▁न्यायमूर्ति	-3366
▁अभिप्रे	-3367
▁पूर्ववर्ष	-3368
▁छि	-3369
▁n	-3370
▁गैस	-3371
▁प्रभ	-3372
ंगिक	-3373
वाला	-3374
वित्र	-3375
ॉन	-3376
भारत	-3377
▁मुह	-3378
ियार	-3379
धित	-3380
▁हत्या	-3381
▁मस्तिष्क	-3382
षक	-3383
▁अंध	-3384
▁लै	-3385
▁इन्	-3386
▁करो	-3387
▁विभाजन	-3388
▁तमिल	-3389
▁अनुरोध	-3390
▁कथन	-3391
▁प्रस्तावित	-3392
▁एंड	-3393
▁कीट	-3394
▁मीटर	-3395
▁स्ना	-3396
दास	-3397
▁परिवहन	-3398
▁टेली	-3399
▁उत्पादों	-3400
पय	-3401
▁दशक	-3402
▁कार्ड	-3403
ूब	-3404
▁बाग	-3405
सायिक	-3406
▁गुप्त	-3407
्यूट	-3408
▁बेच	-3409
▁इलेक्ट्र	-3410
िसी	-3411
ोथ	-3412
▁लिप	-3413
▁निवार	-3414
▁सत्र	-3415
▁कर्तव्य	-3416
▁चढ़	-3417
▁जाएंगे	-3418
▁मूल्यों	-3419
▁ताल	-3420
▁दृढ़	-3421
▁हस्ताक्षर	-3422
▁D	-3423
▁एकल	-3424
▁नुक	-3425
▁पकड़	-3426
▁आनन्द	-3427
वंश	-3428
▁भेजा	-3429
▁आश्चर्य	-3430
▁धर	-3431
उस	-3432
▁इतने	-3433
▁एकत्र	-3434
ँचा	-3435
▁अक्सर	-3436
▁अन्दर	-3437
ोकन	-3438
▁दूरी	-3439
▁राज्यपाल	-3440
ुता	-3441
▁देवी	-3442
▁टा	-3443
दारों	-3444
▁पत्थ	-3445
मंडल	-3446
वट	-3447
▁नयी	-3448
▁हिंसा	-3449
न्ना	-3450
▁काग	-3451
▁चुनौती	-3452
▁गीत	-3453
▁दर्शा	-3454
▁संसदीय	-3455
▁मस	-3456
▁धारण	-3457
▁यंत्र	-3458
▁लिम	-3459
▁कक्ष	-3460
▁अमेरिकी	-3461
▁औसत	-3462
दियों	-3463
▁करीब	-3464
▁भागीदारी	-3465
खे	-3466
ंकित	-3467
िकेट	-3468
▁टीम	-3469
ॉप	-3470
▁प्रतिभा	-3471
▁फॉ	-3472
▁अभियुक्त	-3473
▁उपभोक्ता	-3474
▁सर्वेक्षण	-3475
▁भेद	-3476
▁आइ	-3477
▁शह	-3478
▁साबित	-3479
▁राजनीति	-3480
म्स	-3481
▁शे	-3482
▁कश्मीर	-3483
▁परेश	-3484
▁नवान्वेषण	-3485
▁महाराष्ट्र	-3486
▁तार	-3487
▁देगा	-3488
▁मृत्युद	-3489
▁आउट	-3490
▁फैल	-3491
▁लिखी	-3492
▁बॉ	-3493
▁वहीं	-3494
▁परमाण	-3495
घात	-3496
▁चम	-3497
▁समित	-3498
▁सशक्त	-3499
परि	-3500
जूदा	-3501
स्त्र	-3502
▁अभाव	-3503
▁डर	-3504
▁अभिप्रेत	-3505
▁अर्थात	-3506
▁औप	-3507
▁सावधान	-3508
▁रजिस्ट्री	-3509
▁गरीब	-3510
▁जिले	-3511
▁कारणों	-3512
▁मछ	-3513
▁प्रारंभिक	-3514
पास	-3515
▁वें	-3516
भाषित	-3517
▁नियत	-3518
नर	-3519
▁शिख	-3520
▁गठित	-3521
▁डिस्क	-3522
▁बदलाव	-3523
▁परिवर्तित	-3524
मती	-3525
▁माइ	-3526
▁बजाय	-3527
निष्ठ	-3528
▁कति	-3529
▁नमू	-3530
▁मौजूदा	-3531
▁संस्करण	-3532
▁चिंता	-3533
ित्त	-3534
▁बिल्	-3535
ैर	-3536
निर्	-3537
पादित	-3538
्रांस	-3539
मार्	-3540
▁चिह्न	-3541
▁अन्यथा	-3542
▁वर्षा	-3543
▁आमत	-3544
गोल	-3545
▁प्रेरणा	-3546
▁निभा	-3547
▁भाषाओं	-3548
▁हिस्से	-3549
द्या	-3550
▁पहुंचा	-3551
▁समीक्षा	-3552
▁सुविधाओं	-3553
▁मांस	-3554
▁जर्म	-3555
▁सम्बन्धी	-3556
ज़र	-3557
▁मिन	-3558
▁लंबा	-3559
▁समाप्ति	-3560
▁जुलाई	-3561
▁समग्र	-3562
▁अनुपात	-3563
पण	-3564
▁सिक्	-3565
ंत्रिक	-3566
▁लिमिट	-3567
▁संतुल	-3568
▁परियोजनाओं	-3569
सीसी	-3570
▁सर्वर	-3571
▁देय	-3572
ूंकि	-3573
ro	-3574
तीत	-3575
▁किलो	-3576
▁गुरु	-3577
▁लक्ष	-3578
▁वक्त	-3579
ोजी	-3580
▁अत	-3581
▁आचरण	-3582
▁प्रोत्साहित	-3583
बाइल	-3584
▁लिखने	-3585
▁मैदान	-3586
▁रोकने	-3587
वण	-3588
ंदु	-3589
▁कतिपय	-3590
▁हैंः	-3591
▁आमतौर	-3592
▁पौध	-3593
▁द्वितीय	-3594
▁प्रवृत्त	-3595
▁देखकर	-3596
▁चूंकि	-3597
▁पवित्र	-3598
▁आकर्षित	-3599
▁शैक्षिक	-3600
साद	-3601
▁पाई	-3602
▁सदा	-3603
▁रखें	-3604
▁शुरुआत	-3605
प्	-3606
▁भय	-3607
▁उपक्रम	-3608
ाब	-3609
▁साइ	-3610
▁अकबर	-3611
▁हक	-3612
श्किल	-3613
▁सुसंगत	-3614
▁गाय	-3615
▁खाने	-3616
ंडी	-3617
ुरी	-3618
▁जय	-3619
▁गौर	-3620
स्वी	-3621
क्का	-3622
▁अनुश	-3623
▁प्रत	-3624
▁इरा	-3625
नात्मक	-3626
▁अस्पताल	-3627
▁आशय	-3628
▁हवाई	-3629
▁अपन	-3630
डु	-3631
▁खुश	-3632
▁खाना	-3633
▁शहरी	-3634
▁आयोजन	-3635
▁ब्ल	-3636
▁देकर	-3637
गढ़	-3638
▁तल	-3639
▁जानता	-3640
▁बिल्कुल	-3641
▁पाठ्यक्रम	-3642
ताव	-3643
▁तकनीक	-3644
▁ब्राह	-3645
▁निवास	-3646
▁विंडो	-3647
▁शिकार	-3648
▁व्यावसायिक	-3649
ंदी	-3650
▁प्रार्थ	-3651
▁हार्	-3652
▁सॉफ्टवेयर	-3653
ष्टा	-3654
▁उधार	-3655
▁बाधा	-3656
▁बुरा	-3657
▁देर	-3658
▁लिमिटेड	-3659
ोल्	-3660
क्षीय	-3661
▁रहेगा	-3662
▁नियंत्रित	-3663
▁यथ	-3664
ड़ियों	-3665
थी	-3666
नन	-3667
भाग्य	-3668
▁आस्ति	-3669
▁जीवित	-3670
▁निश्चय	-3671
▁कब	-3672
▁अधिकतर	-3673
▁इंस	-3674
▁संलग्न	-3675
▁सुब	-3676
▁सूर्य	-3677
शीलता	-3678
▁मानवीय	-3679
द्धा	-3680
▁चरित्र	-3681
ंछ	-3682
▁जितना	-3683
▁मुद्दों	-3684
धारी	-3685
▁मुझ	-3686
▁तुरंत	-3687
▁मिट्टी	-3688
▁तिर	-3689
▁रिश	-3690
▁चलो	-3691
▁कितना	-3692
▁मुश्किल	-3693
▁प्रतिनिधि	-3694
▁गौ	-3695
राव	-3696
▁परमाणु	-3697
▁सहज	-3698
▁खुले	-3699
▁आग्रह	-3700
▁कमजोर	-3701
▁बाह्य	-3702
▁समावेश	-3703
▁केरल	-3704
त्कार	-3705
▁इंग्ल	-3706
▁प्रेष	-3707
ंदन	-3708
राम	-3709
▁कारा	-3710
▁आसानी	-3711
देव	-3712
▁लाया	-3713
▁उत्तरी	-3714
यण	-3715
▁घंटे	-3716
सु	-3717
▁सांस	-3718
▁स्तंभ	-3719
▁ग्राहक	-3720
▁मंडल	-3721
▁प्रारूप	-3722
नाश	-3723
▁आल	-3724
▁जाकर	-3725
▁घटनाओं	-3726
▁एकमात्र	-3727
ुत्	-3728
▁रवी	-3729
भाविक	-3730
▁अन्तर्गत	-3731
▁विरूद्ध	-3732
▁निष्पादन	-3733
ग्ध	-3734
▁आसपास	-3735
▁थोड़ा	-3736
पुट	-3737
▁उत्साह	-3738
▁गुजरात	-3739
▁समझौते	-3740
▁जिनकी	-3741
▁सहमति	-3742
बाज	-3743
▁अनुदान	-3744
ध्या	-3745
▁इनका	-3746
▁स्कीम	-3747
▁साक्षी	-3748
▁इंटरनेट	-3749
घटना	-3750
▁आवाज	-3751
▁लाइन	-3752
▁बढ़ती	-3753
विज्ञान	-3754
▁दर्ज	-3755
ार्थी	-3756
▁लंबे	-3757
▁विमर्श	-3758
▁महात्मा	-3759
णिक	-3760
▁साध	-3761
▁दूसरों	-3762
▁नेताओं	-3763
ोबार	-3764
▁प्रत्या	-3765
मीटर	-3766
▁वरि	-3767
▁सहमत	-3768
▁सभ्यता	-3769
ौल	-3770
▁खेती	-3771
▁ज्ञात	-3772
▁नुकसान	-3773
▁आवास	-3774
▁सदैव	-3775
▁खान	-3776
▁श्रृंखला	-3777
▁जनजा	-3778
▁बाध्य	-3779
et	-3780
घाटन	-3781
▁टुक	-3782
▁छुट	-3783
▁अंतः	-3784
▁कव	-3785
▁कू	-3786
▁फैस	-3787
माने	-3788
▁विश्वविद्यालयों	-3789
▁पंजीकरण	-3790
्राइ	-3791
▁रिया	-3792
▁शुरु	-3793
▁अपर	-3794
ाक	-3795
▁गोल	-3796
पूर्ति	-3797
▁प्रिय	-3798
▁फिली	-3799
▁रास्ता	-3800
णन	-3801
▁कितनी	-3802
▁कुमार	-3803
▁अग्रिम	-3804
▁आपराधिक	-3805
▁प्रतिकूल	-3806
जिए	-3807
▁प्रथा	-3808
▁स्वाम	-3809
▁प्रार्थना	-3810
▁कार्यान्वयन	-3811
▁सजा	-3812
▁आहार	-3813
ंचित	-3814
▁प्रचलित	-3815
▁कंपनियों	-3816
▁असमर्थ	-3817
▁इसने	-3818
▁गेंद	-3819
▁नवीन	-3820
क्षिप्त	-3821
▁अनुसूचित	-3822
केट	-3823
▁चोट	-3824
▁खतरा	-3825
▁भावी	-3826
▁वृक्ष	-3827
▁पेड़	-3828
▁समझने	-3829
▁मोबाइल	-3830
ंगल	-3831
स्फ	-3832
▁लिखे	-3833
▁मिस	-3834
▁संयंत्र	-3835
दिन	-3836
▁लेखन	-3837
रू	-3838
▁सूत्र	-3839
श्त	-3840
▁गाँ	-3841
▁दुख	-3842
▁मृत	-3843
▁पैरा	-3844
▁मालूम	-3845
▁संगम	-3846
िक्स	-3847
ेक्ट	-3848
▁लक	-3849
द्वीप	-3850
हाद	-3851
▁फा	-3852
गाह	-3853
ेश्वर	-3854
▁जरिए	-3855
▁उठाने	-3856
़्य	-3857
▁नोड	-3858
▁फोन	-3859
▁दुः	-3860
ंजन	-3861
▁वीर	-3862
▁सतह	-3863
सीन	-3864
▁नै	-3865
▁हितों	-3866
ot	-3867
कां	-3868
▁खींच	-3869
▁चिकित्स	-3870
▁विधियों	-3871
▁धारणा	-3872
▁फरवरी	-3873
▁शर्तों	-3874
▁छवि	-3875
▁टिक	-3876
▁बीमार	-3877
▁वकील	-3878
प्रे	-3879
▁अवै	-3880
▁वर्गों	-3881
▁हार	-3882
▁हाथों	-3883
▁जनरल	-3884
▁किनारे	-3885
▁रेलवे	-3886
▁सरदार	-3887
▁उद्ध	-3888
शास्त्र	-3889
▁परिषद्	-3890
विधि	-3891
▁नाग	-3892
न्त्र	-3893
वर्तन	-3894
▁दबाव	-3895
▁पुरानी	-3896
▁चलाने	-3897
ंडा	-3898
▁जाल	-3899
▁वाक	-3900
ोल्डर	-3901
्यु	-3902
▁जैव	-3903
▁किस्म	-3904
▁पोषण	-3905
▁समृद्ध	-3906
▁अनुसूची	-3907
▁उन्	-3908
पेक्ष	-3909
शक्ति	-3910
ॉक	-3911
्नों	-3912
ात्मक	-3913
▁सुदृ	-3914
▁विभिन्	-3915
▁लु	-3916
▁नारा	-3917
▁निरीक्षण	-3918
वश	-3919
िकाओं	-3920
▁कहान	-3921
▁पूर्ति	-3922
जि	-3923
लिया	-3924
▁मालिक	-3925
▁विद्यालय	-3926
गन	-3927
▁गार	-3928
▁सर्वोत्तम	-3929
▁वंश	-3930
▁भंडारण	-3931
▁राजस्व	-3932
▁स्वीकृति	-3933
▁किसान	-3934
▁प्रतिस्प	-3935
र्ती	-3936
▁अद्य	-3937
पंथ	-3938
▁देंगे	-3939
▁समन्वय	-3940
▁समर्पित	-3941
▁उपस्थिति	-3942
▁लंबी	-3943
▁भु	-3944
▁पूछा	-3945
▁राजस्थान	-3946
▁ब्य	-3947
▁अनुसरण	-3948
▁परा	-3949
्यवाद	-3950
▁पैर	-3951
▁पाते	-3952
▁दुर्घटना	-3953
▁सौर	-3954
▁मुद्र	-3955
▁काउ	-3956
▁रास्ते	-3957
▁आकर	-3958
▁सम्पूर्ण	-3959
▁जीत	-3960
▁मिलियन	-3961
▁देन	-3962
▁अका	-3963
▁आस्त	-3964
▁मूर्	-3965
ेंसी	-3966
▁चालू	-3967
▁राजधान	-3968
▁फ्ल	-3969
▁संदाय	-3970
▁अधिर	-3971
▁वरिष्ठ	-3972
वायु	-3973
▁सराह	-3974
पालन	-3975
दु	-3976
म्मत	-3977
▁तुम्हारे	-3978
▁परिभाषित	-3979
धियों	-3980
▁विद्र	-3981
न्ड	-3982
▁पर्यटन	-3983
▁योजनाओं	-3984
▁प्रदूषण	-3985
▁आवश्यकताओं	-3986
▁डाटा	-3987
▁दिना	-3988
▁शिखर	-3989
▁नीतियों	-3990
▁शत्र	-3991
तृ	-3992
▁हल्	-3993
▁सौंप	-3994
▁प्राथमिकता	-3995
▁सें	-3996
▁शीर्षक	-3997
▁संक्रमण	-3998
▁सब्	-3999
▁खड़ा	-4000
▁श्रेष्ठ	-4001
हल	-4002
याल	-4003
वली	-4004
▁कमा	-4005
▁बोस	-4006
ग्रस्त	-4007
▁रण	-4008
ीकृत	-4009
▁गवर्	-4010
▁स्त्र	-4011
▁उदार	-4012
▁छात्र	-4013
ोधित	-4014
▁सिल	-4015
क्रिय	-4016
▁विनिमय	-4017
गोर	-4018
▁ऑनलाइन	-4019
▁फ़िल्म	-4020
ख्यात	-4021
▁बाकी	-4022
▁संदेह	-4023
▁क्रिकेट	-4024
▁अचान	-4025
▁..	-4026
▁...	-4027
▁फर्म	-4028
▁मध्यम	-4029
▁पल	-4030
विष्ट	-4031
▁चलने	-4032
▁प्री	-4033
▁होम	-4034
▁बनाये	-4035
▁आलोचना	-4036
▁असर	-4037
▁बदले	-4038
▁ढांचे	-4039
लन	-4040
▁प्रि	-4041
▁अचानक	-4042
▁अस्था	-4043
▁त्वचा	-4044
▁हार्दिक	-4045
▁सिद्धांतों	-4046
▁मृ	-4047
▁यौ	-4048
▁बिंदु	-4049
▁बदलने	-4050
▁स्वतः	-4051
▁विभाजित	-4052
▁स्वस्थ	-4053
▁तला	-4054
व्या	-4055
ोब	-4056
कृष्ण	-4057
ing	-4058
ाले	-4059
र्की	-4060
▁दर्द	-4061
▁पढ़ने	-4062
▁यथास्थिति	-4063
▁रहें	-4064
▁सागर	-4065
मि	-4066
▁बिहार	-4067
दंड	-4068
ासत	-4069
▁वचन	-4070
▁आजादी	-4071
▁प्रशंसा	-4072
▁प्रवृत्ति	-4073
ंध्र	-4074
▁पत्थर	-4075
▁प्रतियोग	-4076
▁जड़	-4077
वैधानिक	-4078
▁झु	-4079
धारणा	-4080
▁कितने	-4081
▁मजदूर	-4082
▁सुनवाई	-4083
▁पक्षकार	-4084
▁सुविधाएं	-4085
थित	-4086
लेट	-4087
▁पत	-4088
▁दुर	-4089
▁धात	-4090
▁हाइ	-4091
▁प्रतिभूति	-4092
यत	-4093
गमन	-4094
▁कम्पनी	-4095
▁जागर	-4096
▁धो	-4097
▁परे	-4098
▁समूहों	-4099
▁विनिश्च	-4100
काब	-4101
▁मॉडल	-4102
क़्त	-4103
▁पूर्वो	-4104
याँ	-4105
▁बुला	-4106
▁उल्लेखनीय	-4107
▁संक्षिप्त	-4108
▁देखना	-4109
▁संशोधित	-4110
▁जम्	-4111
▁दिव्य	-4112
▁सुदृढ़	-4113
फर	-4114
▁आनु	-4115
▁लम्	-4116
▁इनकी	-4117
▁तिथि	-4118
▁तोड़	-4119
▁पट्ट	-4120
▁पूर्	-4121
▁अत्या	-4122
▁अस्वी	-4123
▁समानता	-4124
ट्र	-4125
▁निच	-4126
▁अर्ध	-4127
▁उसको	-4128
▁किताब	-4129
▁बल्ले	-4130
▁प्रारम्भ	-4131
▁स्वाभाविक	-4132
अर	-4133
▁झा	-4134
ष्ठा	-4135
ानिक	-4136
▁पार्	-4137
▁बाबू	-4138
▁विनय	-4139
▁अनुमोदन	-4140
▁दास	-4141
▁नील	-4142
परी	-4143
▁घु	-4144
म्मद	-4145
▁तत्काल	-4146
▁निवारण	-4147
▁छो	-4148
▁अली	-4149
▁चन्द्र	-4150
▁छात्रों	-4151
▁मृत्युदंड	-4152
▁मकान	-4153
▁पौधों	-4154
▁अवैध	-4155
▁प्राधिकार	-4156
ज्ज	-4157
▁राजधानी	-4158
▁औपचारिक	-4159
▁जिम्मेदारी	-4160
▁डाय	-4161
▁विज्ञ	-4162
▁वर्णित	-4163
▁ठोस	-4164
▁ब्राह्म	-4165
▁गहन	-4166
▁प्रान्त	-4167
र्त	-4168
▁नेपाल	-4169
▁डिजा	-4170
▁फे	-4171
▁उद्घाटन	-4172
▁सन	-4173
▁जवाह	-4174
▁संप्र	-4175
▁संवाद	-4176
▁मण	-4177
तियां	-4178
▁जलवायु	-4179
▁पीठ	-4180
▁ट्यू	-4181
▁बौद्धिक	-4182
खों	-4183
ंसिल	-4184
▁संवर्धन	-4185
▁प्रतिस्पर्	-4186
▁अक्त	-4187
▁हिमालय	-4188
न्दु	-4189
▁हालत	-4190
▁प्रेस	-4191
▁भारतीयों	-4192
▁हस्तक्षेप	-4193
क्क	-4194
ट्	-4195
िरी	-4196
नाटक	-4197
▁कैं	-4198
▁कच्च	-4199
▁समुद्री	-4200
▁करवा	-4201
▁लिंग	-4202
▁ब्रिटेन	-4203
दरा	-4204
▁ग़	-4205
▁बजट	-4206
▁बालक	-4207
as	-4208
ासा	-4209
▁चुने	-4210
▁पड	-4211
म्परा	-4212
▁द्वि	-4213
▁शिशु	-4214
▁दैनिक	-4215
▁सामूह	-4216
▁अय	-4217
▁खत्म	-4218
▁खाली	-4219
▁क्लिक	-4220
▁अद्यतन	-4221
▁चुनौ	-4222
▁शिक्षक	-4223
▁सितंबर	-4224
▁ज़्यादा	-4225
ायें	-4226
▁तत्वों	-4227
▁वस्तुत	-4228
▁गरीबी	-4229
सागर	-4230
▁कष्ट	-4231
▁गहरी	-4232
▁अनि	-4233
पो	-4234
न्थ	-4235
▁गुफा	-4236
▁विपणन	-4237
▁प्रणाल	-4238
फ़ी	-4239
▁भले	-4240
▁मिनट	-4241
▁रसाय	-4242
▁नौकरी	-4243
ेंज	-4244
बादी	-4245
▁द्विप	-4246
बाजी	-4247
मार्ग	-4248
▁भेंट	-4249
जात	-4250
▁मिलाकर	-4251
▁सामूहिक	-4252
▁अज	-4253
▁आकाश	-4254
▁भंडार	-4255
▁विद्या	-4256
▁समृद्धि	-4257
▁दान	-4258
▁भक्ति	-4259
▁वर्गी	-4260
▁ब्रह्म	-4261
त्ती	-4262
▁खतर	-4263
▁आदान	-4264
▁सोचा	-4265
▁तंत्रिका	-4266
▁उत्तरदायी	-4267
▁सामान्यतः	-4268
▁गू	-4269
ेंद्र	-4270
▁परिक	-4271
ंडित	-4272
▁बचाव	-4273
▁मिलते	-4274
ज़ार	-4275
क्सी	-4276
▁आना	-4277
▁लाइस	-4278
▁सिद्धान्त	-4279
▁k	-4280
भावना	-4281
▁कमरे	-4282
▁गांवों	-4283
▁जम्मू	-4284
▁परम्परा	-4285
ार्ज	-4286
▁उपर	-4287
▁कहने	-4288
▁बांध	-4289
▁सकेगी	-4290
▁नंबर	-4291
जनन	-4292
▁रद्द	-4293
▁असाधारण	-4294
▁अक्तूबर	-4295
▁अग्रणी	-4296
पत	-4297
▁’	-4298
▁विद्वान	-4299
▁यून	-4300
▁गणना	-4301
▁राहत	-4302
▁कराया	-4303
▁फार्म	-4304
▁प्रविष्टि	-4305
मो	-4306
▁हद	-4307
ूष	-4308
मूल	-4309
▁चिंत	-4310
▁उच्चतर	-4311
चार्य	-4312
▁कर्नाटक	-4313
ोटो	-4314
▁सफेद	-4315
▁अभिला	-4316
वाना	-4317
▁यूरोपीय	-4318
ेंड	-4319
▁निगर	-4320
▁निश	-4321
▁बजा	-4322
▁डाला	-4323
▁पर्	-4324
▁सांप	-4325
▁पक्षों	-4326
▁निगरानी	-4327
वित	-4328
▁उपनि	-4329
▁कठिनाई	-4330
▁क्रांति	-4331
▁कार्यवाहियों	-4332
▁कब्	-4333
ल्य	-4334
वृत्ति	-4335
▁ड़	-4336
▁उभर	-4337
▁ग्ल	-4338
▁खण्ड	-4339
▁परिभाषा	-4340
▁व्यक्तित्व	-4341
▁चाय	-4342
▁पाद	-4343
▁पड़ी	-4344
वरों	-4345
▁लड़के	-4346
▁शहरों	-4347
▁सुबह	-4348
▁उत्तरा	-4349
▁रवीन्द्रनाथ	-4350
ed	-4351
▁तथ्यों	-4352
▁मैत्री	-4353
▁माध्यस्थ	-4354
▁संवैधानिक	-4355
पीठ	-4356
▁आश्व	-4357
▁पदार्थों	-4358
टु	-4359
▁भंग	-4360
▁लाइ	-4361
▁लड़ाई	-4362
▁आंध्र	-4363
▁निपटान	-4364
▁विविधता	-4365
▁मोड	-4366
▁बैंकिंग	-4367
ंतरण	-4368
▁बांग	-4369
्रमण	-4370
▁घटा	-4371
▁नेशनल	-4372
▁आरंभिक	-4373
▁प्रतिबंध	-4374
ॉट	-4375
▁बाँ	-4376
▁शान	-4377
▁आब	-4378
▁चीजों	-4379
▁लगाना	-4380
रम	-4381
ान्य	-4382
▁भूत	-4383
शिष्ट	-4384
▁नृत्य	-4385
▁मुक्ति	-4386
▁देशी	-4387
▁सीमाओं	-4388
▁चीनी	-4389
▁रहस्य	-4390
▁इस्लामी	-4391
▁जातियों	-4392
▁लाइसेंस	-4393
▁खड़े	-4394
वादियों	-4395
▁अपनाया	-4396
▁स्वर्ण	-4397
▁कारावास	-4398
▁योग्यता	-4399
ग़	-4400
▁कहता	-4401
▁कामना	-4402
▁उतर	-4403
▁पौधे	-4404
नाक	-4405
ॉनिक	-4406
▁कोर्ट	-4407
▁खराब	-4408
▁न्यास	-4409
▁y	-4410
▁उन्नत	-4411
▁पश	-4412
रेखा	-4413
▁वैध	-4414
दर्शी	-4415
▁खतरे	-4416
▁गुणा	-4417
▁पाँच	-4418
ुति	-4419
ोजक	-4420
▁परिचय	-4421
▁मुकाब	-4422
▁न्यायपालिका	-4423
ent	-4424
ॉर्ड	-4425
▁जैन	-4426
▁शिक्षण	-4427
ंशिक	-4428
िल्प	-4429
▁उपे	-4430
▁खेत	-4431
▁जीवा	-4432
▁वस्त्र	-4433
वें	-4434
▁क्	-4435
▁उपखंड	-4436
▁देवता	-4437
▁ध्वनि	-4438
▁पंक्ति	-4439
▁मुद्दे	-4440
जल	-4441
▁कहला	-4442
▁प्यार	-4443
▁प्रसं	-4444
ao	-4445
िब	-4446
▁आक	-4447
▁अवल	-4448
▁सेटिंग	-4449
▁सावधानी	-4450
▁मक	-4451
ास्ट	-4452
▁अब्द	-4453
▁वंचित	-4454
▁मूलभूत	-4455
▁लेती	-4456
▁प्रक्रियाओं	-4457
्वे	-4458
▁दरवा	-4459
▁प्रश्नों	-4460
▁ताकत	-4461
▁युक्ति	-4462
▁उपकरणों	-4463
▁अनुज्ञात	-4464
ङ्	-4465
▁अवसरों	-4466
▁डिजाइन	-4467
▁निर्मा	-4468
▁अधिसूचना	-4469
▁डाउ	-4470
▁यूनिट	-4471
▁स्क्रीन	-4472
▁साहित्यिक	-4473
▁हिंदुस्तान	-4474
▁उतना	-4475
▁साझी	-4476
▁अंतरिक्ष	-4477
▁ट्रै	-4478
▁जानने	-4479
▁‘‘	-4480
▁तीसरे	-4481
दायक	-4482
▁प्राधिकृत	-4483
ष्प	-4484
▁पैसे	-4485
▁मानना	-4486
▁विरासत	-4487
▁मंदिरों	-4488
▁उपायों	-4489
▁प्रतिबद्ध	-4490
el	-4491
▁बिलकुल	-4492
▁विक्रय	-4493
▁शक्तिशाली	-4494
मेल	-4495
▁दावे	-4496
▁अर्जित	-4497
▁संध्या	-4498
ंघन	-4499
▁मैने	-4500
▁अवमान	-4501
▁कक्षा	-4502
▁पोर्ट	-4503
भि	-4504
▁जहाज	-4505
▁जायें	-4506
▁अपराधों	-4507
▁बनाता	-4508
▁मजिस्ट	-4509
▁कोट	-4510
हारिक	-4511
▁आवेद	-4512
▁उठाया	-4513
लैंड	-4514
▁बेल	-4515
▁वाद्य	-4516
▁स्वभाव	-4517
▁कोय	-4518
▁बजे	-4519
▁अधिरोप	-4520
▁वेद	-4521
▁मौलिक	-4522
ैया	-4523
ॉलर	-4524
ल्ला	-4525
▁उन्म	-4526
▁चू	-4527
▁पैमाने	-4528
▁वसू	-4529
▁टिप्पणी	-4530
▁इसील	-4531
मान्य	-4532
स्ट्रे	-4533
▁विनिश्चय	-4534
िस्त	-4535
ंभव	-4536
▁पृथक	-4537
▁मिथ	-4538
▁यहू	-4539
▁चंद्र	-4540
▁अनुचित	-4541
शे	-4542
▁चाहती	-4543
▁पेंशन	-4544
ंतिक	-4545
▁शोक	-4546
▁आराम	-4547
▁अमरीका	-4548
साइ	-4549
▁नार	-4550
▁शर्त	-4551
▁पहुंचने	-4552
▁जीन	-4553
▁असाम	-4554
▁गर्भ	-4555
▁सम्पत्ति	-4556
▁प्रतियोगिता	-4557
▁धु	-4558
सनीय	-4559
▁उपर्य	-4560
▁संचालित	-4561
ंठ	-4562
उंड	-4563
▁भरा	-4564
▁नेत्र	-4565
श्म	-4566
▁अगला	-4567
▁अपरि	-4568
▁स्वामित्व	-4569
यात	-4570
▁घूम	-4571
▁शक्तियां	-4572
▁उद्देश्यों	-4573
▁द्विपक्षीय	-4574
▁वस	-4575
ंगों	-4576
नीति	-4577
▁प्रवर्तन	-4578
वधि	-4579
▁यो	-4580
▁दिला	-4581
▁स्मार	-4582
▁उपलब्धि	-4583
लाब	-4584
▁सदी	-4585
ब्ल	-4586
ूली	-4587
्रोल	-4588
▁घटक	-4589
▁भेजे	-4590
▁मोटर	-4591
▁स्थाना	-4592
▁अस्थायी	-4593
▁मध्यस्थ	-4594
षे	-4595
▁खिल	-4596
▁रेश	-4597
शः	-4598
▁अदा	-4599
▁फें	-4600
▁गुजर	-4601
▁दिमा	-4602
▁सराहना	-4603
▁संबोधित	-4604
यु	-4605
▁विनिर्माण	-4606
वती	-4607
़्त	-4608
▁निकाला	-4609
▁दण्ड	-4610
▁पहलू	-4611
▁साहस	-4612
▁फ्रांस	-4613
▁यथार्थ	-4614
▁जुड़	-4615
कोश	-4616
▁पीढ़ी	-4617
▁बच्चा	-4618
▁भांति	-4619
▁परिवर्त	-4620
फोन	-4621
▁खि	-4622
ग्रहण	-4623
▁ग्री	-4624
▁साइट	-4625
▁ग्राफ	-4626
▁जुड़ा	-4627
▁रेडियो	-4628
▁विभागों	-4629
▁पृष्ठभूमि	-4630
om	-4631
▁मानो	-4632
ायर	-4633
▁तापमान	-4634
▁महाराजा	-4635
▁कायम	-4636
▁दिसंबर	-4637
▁सकेंगे	-4638
▁अंग्रेज	-4639
क्रो	-4640
▁पोत	-4641
▁फ्र	-4642
▁उर्व	-4643
▁मनोर	-4644
▁लॉग	-4645
ंपरिक	-4646
▁पर्वत	-4647
▁श्रमिक	-4648
ड्डी	-4649
▁सेल	-4650
▁मुला	-4651
▁अत्यन्त	-4652
▁पत्रिका	-4653
▁मरा	-4654
▁जिनसे	-4655
ठे	-4656
कीर्ण	-4657
▁तस्वी	-4658
▁संतुलन	-4659
▁श्रीमती	-4660
▁प्रतिदिन	-4661
अप	-4662
▁इंडियन	-4663
▁तमिलना	-4664
▁कोशिकाओं	-4665
रचना	-4666
▁छाप	-4667
▁ड्र	-4668
▁ईसाई	-4669
ख्यान	-4670
▁रजिस्ट्रीकरण	-4671
▁इक	-4672
▁बहस	-4673
▁मूर्ति	-4674
▁विद्यार्थी	-4675
्त्र	-4676
▁पंडित	-4677
▁बनाकर	-4678
▁शास्त्र	-4679
▁पच	-4680
▁रानी	-4681
▁अन्वेषण	-4682
▁कने	-4683
▁परिश	-4684
▁व्युत्	-4685
▁इंजीनिय	-4686
ोक्	-4687
ंचाई	-4688
▁ठहरा	-4689
▁पोजी	-4690
▁ढांचा	-4691
▁कारोबार	-4692
▁जाग	-4693
▁तरीकों	-4694
▁युवाओं	-4695
▁दक्षिणी	-4696
क्तिक	-4697
▁समितियों	-4698
व्यों	-4699
वहार	-4700
▁दर्	-4701
▁वसूली	-4702
▁संग्र	-4703
▁समझते	-4704
ब्र	-4705
यिक	-4706
▁लल	-4707
म्बई	-4708
▁हटाने	-4709
▁अवधारणा	-4710
▁l	-4711
सिंह	-4712
▁समाय	-4713
घर	-4714
ाइन	-4715
म्बे	-4716
▁आर्	-4717
ेदन	-4718
▁न्	-4719
▁मुकदमे	-4720
▁राजभाषा	-4721
▁लंबित	-4722
▁गिरफ्तार	-4723
us	-4724
▁उपय	-4725
▁चैतन	-4726
▁दिलच	-4727
▁जितनी	-4728
▁क्रियान्व	-4729
▁कारक	-4730
▁देखे	-4731
▁उपर्युक्त	-4732
▁उपयोगकर्ता	-4733
▁O	-4734
तरी	-4735
हाई	-4736
▁पॉल	-4737
▁नाते	-4738
▁झील	-4739
▁मानी	-4740
▁संदेय	-4741
▁तत्त्व	-4742
▁पारंपरिक	-4743
शोथ	-4744
▁वय	-4745
▁बचत	-4746
▁बांग्ला	-4747
ुरा	-4748
▁चिप	-4749
▁हाँ	-4750
▁बोली	-4751
▁मिलेगी	-4752
यक	-4753
्मी	-4754
पादक	-4755
▁खनि	-4756
▁क्षण	-4757
स्तानी	-4758
▁रहेंगे	-4759
▁जाओ	-4760
▁लगती	-4761
▁आबादी	-4762
▁प्रभाग	-4763
▁जिम्मेदार	-4764
▁व्यावहारिक	-4765
त्ते	-4766
▁पंख	-4767
क्राम	-4768
▁चैनल	-4769
▁होंगी	-4770
▁परिवेश	-4771
▁पक्षकारों	-4772
▁मार्गदर्शन	-4773
▁उतार	-4774
▁दिखाया	-4775
िर्धारित	-4776
▁नान	-4777
▁दुःख	-4778
▁रिट	-4779
▁हरि	-4780
▁धातु	-4781
▁कराना	-4782
▁फ़ोल्डर	-4783
दल	-4784
▁iii	-4785
▁गुरू	-4786
▁बारह	-4787
▁खूब	-4788
▁गुल	-4789
▁चुना	-4790
▁मिलेगा	-4791
▁संवेदन	-4792
▁बीस	-4793
▁चैतन्य	-4794
▁इलाज	-4795
▁रुचि	-4796
▁कॉलेज	-4797
▁पोजीशन	-4798
▁महीनों	-4799
▁रिकार्ड	-4800
▁तात्	-4801
▁समझे	-4802
▁अकेले	-4803
▁अभिगम	-4804
▁स्तरों	-4805
▁आतंकवादी	-4806
▁सकारात्मक	-4807
▁झू	-4808
ग्रा	-4809
▁हैदरा	-4810
il	-4811
दोष	-4812
▁सद्	-4813
▁इसीलिए	-4814
भेद	-4815
▁छोड	-4816
कुमार	-4817
कलापों	-4818
▁हकदार	-4819
▁अज्ञ	-4820
▁फैला	-4821
ac	-4822
▁अहम	-4823
▁दोनो	-4824
▁उद्यान	-4825
▁केंद्रित	-4826
▁सहन	-4827
▁लड़की	-4828
ेयर	-4829
▁बिता	-4830
▁उन्होने	-4831
ँग	-4832
▁वादी	-4833
▁बनाते	-4834
▁जोड़ने	-4835
▁निष्क्रिय	-4836
ुण	-4837
पंथी	-4838
▁तिल	-4839
▁बडी	-4840
च्छिक	-4841
▁विद्रोह	-4842
द्रास	-4843
ध्यक्ष	-4844
▁दोहरा	-4845
तांत्रिक	-4846
▁इलेक्ट्रॉनिक	-4847
▁ढूं	-4848
▁रिज	-4849
▁पेशे	-4850
▁गारंटी	-4851
▁महाभारत	-4852
काय	-4853
बारा	-4854
लिंग	-4855
▁सिंध	-4856
▁अभिलाभ	-4857
▁संभावित	-4858
▁आपात	-4859
▁पंजीकृत	-4860
सूर	-4861
▁चतु	-4862
▁धरती	-4863
▁ऊंचाई	-4864
▁पालिसी	-4865
▁पुष्टि	-4866
्मा	-4867
▁फार	-4868
ंत्रित	-4869
▁डालने	-4870
▁भर्ती	-4871
▁सम्बंध	-4872
▁सिंचाई	-4873
▁पड़ती	-4874
▁ग्राहकों	-4875
▁अकाद	-4876
▁कट्ट	-4877
▁आधारभूत	-4878
▁मजिस्ट्रेट	-4879
▁याची	-4880
▁संतु	-4881
▁पशुओं	-4882
▁बढ़ने	-4883
▁रूपों	-4884
▁भगवान्	-4885
रुप	-4886
▁कोष	-4887
▁भरी	-4888
▁भरे	-4889
▁प्रांत	-4890
▁वस्तुतः	-4891
ol	-4892
▁एयर	-4893
▁दाख	-4894
▁लार	-4895
▁इमार	-4896
▁जाएँ	-4897
▁रहित	-4898
▁चुनें	-4899
▁कहां	-4900
कांक्षा	-4901
▁प्रेषित	-4902
▁परिवारों	-4903
▁उदा	-4904
▁हिस	-4905
ड़िया	-4906
▁वार्	-4907
▁जानकर	-4908
▁रसायन	-4909
▁स्मरण	-4910
▁जायेगी	-4911
▁इंद	-4912
▁बारी	-4913
▁स्टेशन	-4914
▁उत्तरदायित्व	-4915
िली	-4916
▁हैदराबाद	-4917
▁अम्	-4918
▁चली	-4919
▁छाया	-4920
▁पट्टी	-4921
▁संतोष	-4922
▁टूट	-4923
▁आंशिक	-4924
▁उल्लंघन	-4925
स्ट्रेलिया	-4926
ंदगी	-4927
▁मद्रास	-4928
▁डिज	-4929
▁पदों	-4930
▁निकालने	-4931
▁असह	-4932
दायिक	-4933
▁ऊपरी	-4934
▁ट्रे	-4935
क्षणिक	-4936
▁बहुमत	-4937
▁पहाड़ी	-4938
जीवन	-4939
ायतों	-4940
▁मातृ	-4941
▁प्रतीक्षा	-4942
र्थी	-4943
▁मानता	-4944
▁अमरीकी	-4945
▁इच्छ	-4946
▁शांत	-4947
गि	-4948
जीवी	-4949
▁प्लस	-4950
कल्पिक	-4951
▁फैसला	-4952
▁धा	-4953
काता	-4954
▁शिक्षकों	-4955
▁घृ	-4956
▁फु	-4957
वर्ड	-4958
▁आकलन	-4959
▁संपदा	-4960
▁पहुंचे	-4961
ष्णु	-4962
ैण्ड	-4963
▁ईरान	-4964
▁एकदम	-4965
▁मुंह	-4966
▁जापान	-4967
▁परिसर	-4968
▁प्रतिवादी	-4969
रलाल	-4970
▁जमान	-4971
▁व्यापारी	-4972
कू	-4973
रस	-4974
▁शौ	-4975
▁आयी	-4976
श्वास	-4977
▁अभ्य	-4978
▁कागज	-4979
▁साझा	-4980
▁पार्क	-4981
▁तदन	-4982
▁पाप	-4983
▁कपड़े	-4984
▁पुरूष	-4985
शाह	-4986
▁स्वीकृत	-4987
▁प्रयोगशाला	-4988
ार्ट	-4989
▁मुगल	-4990
▁सम्भव	-4991
▁प्रजनन	-4992
मानी	-4993
▁कर्ण	-4994
▁पांड	-4995
▁मुकदमा	-4996
ंधन	-4997
राशि	-4998
▁कड़ी	-4999
▁देखता	-5000
▁शान्त	-5001
▁विवरणी	-5002
▁वैकल्पिक	-5003
am	-5004
र्गी	-5005
▁एल्	-5006
पू	-5007
्रु	-5008
▁ज्यो	-5009
▁जोड़ा	-5010
▁थोड़ी	-5011
▁मानवता	-5012
▁पुस्तकों	-5013
ur	-5014
बो	-5015
्नि	-5016
▁जला	-5017
द्दीन	-5018
▁हाथी	-5019
▁किन्हीं	-5020
ुत्व	-5021
▁लगते	-5022
▁वर्मा	-5023
▁जर्मनी	-5024
ैट	-5025
ज़े	-5026
▁चुप	-5027
▁लकड़ी	-5028
▁सिवाय	-5029
▁पूर्णतः	-5030
▁वापसी	-5031
▁दस्तावेजों	-5032
्टा	-5033
तावनी	-5034
▁समझता	-5035
▁धन्यवाद	-5036
इयां	-5037
▁पैके	-5038
▁चेक	-5039
▁गहराई	-5040
ड्य	-5041
▁बग	-5042
▁हां	-5043
ाधिकार	-5044
▁विनियमन	-5045
खन	-5046
▁कॉल	-5047
▁रिक्त	-5048
▁जवाहरलाल	-5049
जो	-5050
बान	-5051
र्दू	-5052
्वान	-5053
▁गईं	-5054
ासंगिक	-5055
लभ	-5056
पूर	-5057
कलाप	-5058
▁संधि	-5059
▁संगठित	-5060
▁उल्लिखित	-5061
▁तमिलनाडु	-5062
▁दार्	-5063
▁बैठे	-5064
▁रोगों	-5065
▁सूचित	-5066
▁उन्हीं	-5067
▁निवासी	-5068
▁चेतावनी	-5069
प्ति	-5070
▁पाता	-5071
▁खड़ी	-5072
▁उत्तेज	-5073
▁पहलुओं	-5074
▁जमी	-5075
▁गद्य	-5076
▁गौरव	-5077
▁साधनों	-5078
ेरे	-5079
▁सल	-5080
▁लिंक	-5081
ायल	-5082
▁तृ	-5083
▁कही	-5084
▁मछली	-5085
▁गाड़ी	-5086
▁पढ	-5087
▁शोर	-5088
▁ड्राइ	-5089
▁कुशलता	-5090
▁प्रसंस्	-5091
▁सम्पर्क	-5092
▁नकारात्मक	-5093
▁उर्दू	-5094
▁तुर्की	-5095
▁प्रतिष्ठित	-5096
▁एव	-5097
▁साझे	-5098
▁मान्य	-5099
▁दक्षता	-5100
▁संभवतः	-5101
▁कानूनों	-5102
थान	-5103
▁चिन्ह	-5104
▁विवेक	-5105
▁एप	-5106
▁गिरा	-5107
▁भेजने	-5108
▁किलोमीटर	-5109
नलोड	-5110
▁चुकता	-5111
शेष	-5112
▁आखिर	-5113
▁शल्य	-5114
▁ब्राउ	-5115
▁इल	-5116
▁माने	-5117
▁टिप्पण	-5118
▁इंग्लैंड	-5119
▁फलस्वरूप	-5120
▁मधु	-5121
▁लोड	-5122
▁पड़ेगा	-5123
गरी	-5124
ायण	-5125
▁in	-5126
▁शपथ	-5127
▁अंग्रेजों	-5128
ोहन	-5129
वाने	-5130
▁अवय	-5131
▁सीधा	-5132
▁चयनित	-5133
▁बोध	-5134
▁उग्र	-5135
▁निरसन	-5136
▁गांधीजी	-5137
▁प्रतिबि	-5138
▁अभिनिर्धारित	-5139
▁शो	-5140
न्या	-5141
▁सुश	-5142
▁अक्षम	-5143
▁अट	-5144
▁साहब	-5145
▁आपस	-5146
▁आबंट	-5147
▁डॉलर	-5148
▁प्रबल	-5149
▁स्त्रियों	-5150
▁सतत	-5151
▁दुकान	-5152
निंग	-5153
पक्ष	-5154
▁जुल	-5155
▁उतनी	-5156
▁रखकर	-5157
▁शानदार	-5158
▁नवं	-5159
संरचना	-5160
▁रूपांत	-5161
धक	-5162
▁छिप	-5163
▁देखी	-5164
▁याता	-5165
▁यानी	-5166
▁चीजें	-5167
▁स्टेट	-5168
▁तैयारी	-5169
▁प्रसाद	-5170
▁व्यवस्थित	-5171
नान	-5172
िटल	-5173
फेसर	-5174
▁अंतराल	-5175
▁कनेक्शन	-5176
▁क्रांतिक	-5177
ec	-5178
रेख	-5179
▁सेक	-5180
▁तीनों	-5181
▁प्रतिर	-5182
▁मिश्रण	-5183
▁हरे	-5184
▁पाये	-5185
▁अपमान	-5186
▁विनाश	-5187
▁एकीकृत	-5188
ारक	-5189
▁भरो	-5190
▁सम्बन्धित	-5191
लिप	-5192
▁जू	-5193
▁ज्व	-5194
▁सिख	-5195
▁उत्तम	-5196
▁अफग	-5197
▁काला	-5198
▁मुझसे	-5199
▁अपनाने	-5200
▁स्वाधीन	-5201
▁चिकित्सक	-5202
▁क्व	-5203
▁बन्द	-5204
▁एजेंस	-5205
▁ष	-5206
▁पहन	-5207
▁मेन	-5208
▁रेड	-5209
▁गुणों	-5210
▁पत्रों	-5211
िवृ	-5212
▁पोल	-5213
▁सड़	-5214
▁हिमा	-5215
▁माध्यस्थम्	-5216
स्को	-5217
▁भाष्	-5218
▁दोस्त	-5219
▁चुनौतियों	-5220
एच	-5221
▁कस	-5222
▁खून	-5223
▁अखिल	-5224
▁नवंबर	-5225
▁पोस्ट	-5226
▁हिसाब	-5227
▁चिकित्सीय	-5228
कना	-5229
▁त्रि	-5230
▁कीटों	-5231
▁घनिष्ठ	-5232
▁निष्ठा	-5233
वानी	-5234
▁अहि	-5235
▁सिक	-5236
ष्कार	-5237
▁गर्व	-5238
▁खोलने	-5239
▁जीवों	-5240
▁वृद्ध	-5241
▁अनुपालन	-5242
▁कोलकाता	-5243
▁विश्वसनीय	-5244
गों	-5245
▁औषध	-5246
▁कट्टर	-5247
▁रहेगी	-5248
▁गतिविधि	-5249
देन	-5250
वां	-5251
्रीम	-5252
▁पूर	-5253
▁अंततः	-5254
▁सैन्य	-5255
▁मशीनरी	-5256
▁संपन्न	-5257
▁यातायात	-5258
iv	-5259
प्रद	-5260
▁पैसा	-5261
▁डाउनलोड	-5262
▁प्रोफेसर	-5263
▁नज	-5264
ापरी	-5265
▁वास	-5266
▁हमे	-5267
▁लाना	-5268
▁क्रमशः	-5269
▁विवादों	-5270
भौ	-5271
ुणा	-5272
शनिक	-5273
▁माननीय	-5274
लांग	-5275
वारी	-5276
▁सकल	-5277
ड़ीसा	-5278
▁अनाज	-5279
▁काले	-5280
हे	-5281
▁अपराधी	-5282
प्न	-5283
राय	-5284
यक्तिक	-5285
▁अस्थि	-5286
▁मंजूर	-5287
▁दिसम्बर	-5288
▁कार्यान्वित	-5289
▁वैज्ञानिकों	-5290
▁दिनांक	-5291
▁प्रदत्त	-5292
ंसक	-5293
▁घो	-5294
▁ध्वज	-5295
▁मित्रों	-5296
न्दा	-5297
▁बडे	-5298
▁एजेंसी	-5299
▁परिचित	-5300
जु	-5301
▁शंकर	-5302
▁स्थितियों	-5303
सेना	-5304
▁कार्यपालिका	-5305
▁लोकतांत्रिक	-5306
गामी	-5307
▁इकट	-5308
▁दोषी	-5309
▁प्लेट	-5310
▁बढ़ते	-5311
▁किराये	-5312
▁पुनर्व	-5313
▁लोकसभा	-5314
▁सभापति	-5315
▁महल	-5316
▁बहाद	-5317
▁तस्वीर	-5318
▁दार्शनिक	-5319
रु	-5320
काया	-5321
▁आपसे	-5322
▁उठाए	-5323
▁विलंब	-5324
▁आरक्षित	-5325
▁अस्वीकार	-5326
ाहट	-5327
वृत्त	-5328
▁रचनात्मक	-5329
▁इस्	-5330
▁पीड़ा	-5331
▁घास	-5332
▁हजारों	-5333
▁प्रतिफल	-5334
▁प्रमाणित	-5335
ोज़	-5336
ड़ना	-5337
कियों	-5338
मुच	-5339
स्कर	-5340
त्रिम	-5341
▁कुटु	-5342
▁पंचा	-5343
▁बांट	-5344
▁सहारा	-5345
▁आह्वान	-5346
▁ज्योति	-5347
▁डिग्री	-5348
▁शैक्षणिक	-5349
▁राष्ट्रों	-5350
▁वांछ	-5351
▁क्रमा	-5352
िलों	-5353
▁चेहरे	-5354
▁शत्रु	-5355
▁मानकों	-5356
▁प्रतिष्ठा	-5357
▁क्षतिपूर्ति	-5358
कन	-5359
थे	-5360
न्तर	-5361
▁विनिधान	-5362
▁व्यापारिक	-5363
▁हमला	-5364
▁अधिरोपित	-5365
▁अधिवक्ता	-5366
▁छु	-5367
▁फौ	-5368
▁भक्त	-5369
▁दिमाग	-5370
▁नवम्बर	-5371
्राव	-5372
▁घाटी	-5373
तन्त्र	-5374
▁आस्था	-5375
▁जुड़ी	-5376
▁सतर्क	-5377
मेन	-5378
▁कालेज	-5379
▁ट्यूब	-5380
▁r	-5381
▁बढ़कर	-5382
▁जायेंगे	-5383
लक	-5384
्टे	-5385
▁वस्तुएं	-5386
ME	-5387
ोनें	-5388
▁सचमुच	-5389
▁गवर्नर	-5390
▁शिक्षित	-5391
▁समुदायों	-5392
▁विचारधारा	-5393
▁राह	-5394
ब्लिक	-5395
▁देखो	-5396
▁बदला	-5397
▁संभाल	-5398
▁धनराशि	-5399
▁गि	-5400
▁रूस	-5401
▁घरों	-5402
▁कार्यरत	-5403
ँस	-5404
क़्	-5405
▁उभ	-5406
गोलिक	-5407
▁असली	-5408
▁स्तरीय	-5409
▁इंजीनियर	-5410
▁पुस्तिका	-5411
▁प्रासंगिक	-5412
▁निर्देशिका	-5413
id	-5414
▁तू	-5415
▁नवी	-5416
▁कृति	-5417
▁कृत्रिम	-5418
▁पुण	-5419
▁अभिर	-5420
▁पढ़ा	-5421
▁बंदर	-5422
▁हार्ड	-5423
▁सहयोगी	-5424
थन	-5425
▁कथित	-5426
▁नस्ल	-5427
▁दाखिल	-5428
▁सम्रा	-5429
▁प्रतिरोध	-5430
▁ब्राह्मण	-5431
कात	-5432
▁बम	-5433
र्जन	-5434
सलों	-5435
ार्इ	-5436
▁नकद	-5437
▁इकट्	-5438
▁वाहन	-5439
्रेता	-5440
▁विद्वानों	-5441
यालय	-5442
ंतरित	-5443
▁मतदान	-5444
▁परिवर्तनों	-5445
ंजा	-5446
▁रिस	-5447
क़्ति	-5448
▁अंडे	-5449
▁आपसी	-5450
▁ईंधन	-5451
दाताओं	-5452
▁जमानत	-5453
ोक्ताओं	-5454
▁भावनाओं	-5455
▁भौगोलिक	-5456
▁दुर्भाग्य	-5457
ad	-5458
he	-5459
▁टू	-5460
िकीय	-5461
▁चट्ट	-5462
▁जिसको	-5463
▁श्वेत	-5464
▁आदेशों	-5465
बेस	-5466
▁लीग	-5467
▁फोटो	-5468
▁समेक	-5469
▁स्तन	-5470
▁प्रक्रम	-5471
▁प्रभावशाली	-5472
▁सामान्यतया	-5473
▁कना	-5474
चालित	-5475
▁सीता	-5476
ख्त	-5477
बों	-5478
▁धम	-5479
विदा	-5480
▁मासिक	-5481
▁उत्पादक	-5482
▁उपलब्धता	-5483
अल	-5484
ढ़े	-5485
▁अमर	-5486
▁फाइ	-5487
स्पति	-5488
▁असामान्य	-5489
हीत	-5490
▁पाइ	-5491
▁बुल	-5492
▁लेंगे	-5493
▁लेखकों	-5494
▁परिस्थिति	-5495
▁अच	-5496
स्फोट	-5497
▁लिपि	-5498
▁शासक	-5499
▁अवरोध	-5500
▁अनुदेश	-5501
▁अभ्यास	-5502
▁उड़ीसा	-5503
▁चावल	-5504
▁तलाश	-5505
▁बनता	-5506
ोद	-5507
जाल	-5508
▁खतरनाक	-5509
▁उपेक्षा	-5510
▁दर्शाता	-5511
पेश	-5512
ंडिक	-5513
▁ऊतक	-5514
▁मेम	-5515
▁अपवाद	-5516
▁अर्जन	-5517
▁संवेद	-5518
▁दीक्षा	-5519
▁पूर्वा	-5520
▁सुन्दर	-5521
▁भव	-5522
▁अपी	-5523
▁अग्नि	-5524
▁ऑडियो	-5525
▁शुक्र	-5526
▁सेवान	-5527
▁अज्ञात	-5528
दनी	-5529
वर्त	-5530
▁चमक	-5531
▁अतीत	-5532
▁ईमान	-5533
▁उपरा	-5534
▁गणित	-5535
▁क्रेड	-5536
▁शेयरों	-5537
▁इकाइयों	-5538
▁अपेक्षाकृत	-5539
▁प्रसंस्करण	-5540
IN	-5541
क्की	-5542
साइटी	-5543
▁निबंध	-5544
▁हिमाचल	-5545
वेट	-5546
ोचित	-5547
▁कीम	-5548
▁नाब	-5549
▁बिट	-5550
▁जंगल	-5551
▁वैदिक	-5552
▁पूर्ववर्ती	-5553
▁हाउस	-5554
▁लंबाई	-5555
जनों	-5556
▁सूच	-5557
▁कहाँ	-5558
▁लंदन	-5559
▁अनुक्रम	-5560
▁रजिस्टर	-5561
▁संक्षेप	-5562
▁कम्	-5563
▁उत्प	-5564
▁तीसरा	-5565
▁कार्मिक	-5566
▁पैकेज	-5567
▁अभिप्र	-5568
ानिस्तान	-5569
स्तु	-5570
▁अजी	-5571
▁मेघ	-5572
▁गहरे	-5573
▁गीता	-5574
▁गोरा	-5575
स्परिक	-5576
▁नदियों	-5577
▁योजनाएं	-5578
▁सोसाइटी	-5579
ँचे	-5580
▁बेर	-5581
un	-5582
झा	-5583
वत्	-5584
▁निधन	-5585
▁अंकित	-5586
▁जुर्म	-5587
▁त्वरित	-5588
▁मुख्यतः	-5589
ेस	-5590
ंपा	-5591
▁टिकट	-5592
▁रिकॉर्ड	-5593
▁केंद्रों	-5594
▁प्रणालियों	-5595
▁चुक	-5596
▁सुनने	-5597
▁सलाहकार	-5598
▁राज्यक्षेत्र	-5599
क्सा	-5600
▁परत	-5601
▁आईटी	-5602
▁बुरी	-5603
▁कैंसर	-5604
▁प्रचालन	-5605
▁मादा	-5606
▁पिछली	-5607
▁सेक्टर	-5608
▁संग्रहालय	-5609
▁ः	-5610
रणों	-5611
▁आयकर	-5612
चन्द्र	-5613
▁प्रसारण	-5614
▁अहं	-5615
▁तनाव	-5616
▁फायदा	-5617
▁मतभेद	-5618
▁दिखाने	-5619
▁आस्तियों	-5620
▁यान	-5621
▁रखती	-5622
▁साथी	-5623
▁पक्षी	-5624
▁निर्णयों	-5625
▁व्युत्पन्न	-5626
्द	-5627
▁अगली	-5628
▁नकदी	-5629
▁आयुर्	-5630
▁कुरान	-5631
▁डाक्टर	-5632
▁वार्ता	-5633
ितु	-5634
▁खुला	-5635
▁बोलते	-5636
▁प्रोटोक	-5637
▁सीखने	-5638
ानुभूति	-5639
▁परेशान	-5640
▁विनिया	-5641
▁अनुमोदित	-5642
दूरी	-5643
▁खर्	-5644
▁चेन्न	-5645
▁सितम्बर	-5646
ation	-5647
▁संकल्पना	-5648
▁अध्यक्षता	-5649
▁पारस्परिक	-5650
प्ट	-5651
िमा	-5652
▁असल	-5653
▁बंबई	-5654
▁मोटे	-5655
▁मौका	-5656
▁सोने	-5657
▁शासित	-5658
▁संगणक	-5659
▁रामायण	-5660
ोपण	-5661
▁कच	-5662
▁डो	-5663
▁किल	-5664
▁बचने	-5665
▁दशकों	-5666
▁मंजूरी	-5667
▁विष्णु	-5668
▁व्याख्यान	-5669
डो	-5670
नाइट	-5671
भाषण	-5672
▁ताज	-5673
▁बलि	-5674
▁मस्	-5675
नेक्ट	-5676
▁बयान	-5677
▁सौंदर	-5678
▁अन्तिम	-5679
▁समर्पण	-5680
▁तदनुसार	-5681
▁आमंत्रित	-5682
▁लक्ष्यों	-5683
▁वैयक्तिक	-5684
सेस	-5685
▁नल	-5686
▁ऑफ़	-5687
▁खबर	-5688
▁ज़रूर	-5689
▁मानदंड	-5690
▁व्यस्त	-5691
▁तुम्हारी	-5692
▁पन	-5693
▁बनना	-5694
▁बचाने	-5695
▁लिखते	-5696
डन	-5697
▁लोप	-5698
▁वजन	-5699
▁पाना	-5700
एमई	-5701
चाप	-5702
क्कर	-5703
संख्य	-5704
▁काली	-5705
▁क्रेडिट	-5706
ूण	-5707
कीन	-5708
▁ढल	-5709
▁खनिज	-5710
▁अनन्त	-5711
ंर	-5712
सार	-5713
ांसी	-5714
▁स्टा	-5715
ियुक्त	-5716
▁क़्यों	-5717
▁दांडिक	-5718
▁साक्षा	-5719
▁विन्यास	-5720
▁विकासशील	-5721
छा	-5722
डि	-5723
मंड	-5724
ोसिए	-5725
▁वाम	-5726
▁टीका	-5727
▁तारा	-5728
▁गर्मी	-5729
▁हथियार	-5730
▁प्रबंधक	-5731
▁इंजीनियरी	-5732
▁आदर	-5733
▁चलाया	-5734
▁संगणना	-5735
▁उद्यमों	-5736
णित	-5737
▁दौड़	-5738
▁रासाय	-5739
▁अवसंरचना	-5740
▁पेर	-5741
▁लगाए	-5742
▁वरन्	-5743
▁चाहूंगा	-5744
णि	-5745
▁अर्ज	-5746
▁भाग्य	-5747
▁शाखाओं	-5748
▁परंपरागत	-5749
बीर	-5750
ुरत	-5751
▁खर	-5752
▁वासी	-5753
▁विजे	-5754
▁सहेज	-5755
प्राप्त	-5756
▁रिजर्व	-5757
▁आकांक्षा	-5758
ष्म	-5759
▁टॉ	-5760
आईआर	-5761
▁नर्म	-5762
▁सबूत	-5763
कारिता	-5764
ानुसार	-5765
▁इन्द्र	-5766
▁पुराना	-5767
▁उपरो	-5768
▁तीर्थ	-5769
▁कवियों	-5770
▁फुट	-5771
▁मौत	-5772
▁गलती	-5773
▁पैनल	-5774
▁अंतरित	-5775
▁अभिव्यक्त	-5776
हता	-5777
ामिन	-5778
▁आवि	-5779
व्यापी	-5780
▁सेवानिवृ	-5781
दू	-5782
▁डिप	-5783
▁इसको	-5784
▁ऊंची	-5785
ब्ल्यू	-5786
▁सृजित	-5787
▁पंजाबी	-5788
▁रचनाओं	-5789
▁अधीनस्थ	-5790
्फ	-5791
▁स्वै	-5792
▁आंकड़े	-5793
▁स्वप्न	-5794
▁देवताओं	-5795
▁छत	-5796
▁पॉ	-5797
▁समू	-5798
▁उपरोक्त	-5799
▁मं	-5800
▁विट	-5801
▁अद्व	-5802
▁आजाद	-5803
▁टर्म	-5804
▁पारि	-5805
aa	-5806
ेंच	-5807
▁हरिया	-5808
▁निकलने	-5809
▁अभियोजन	-5810
▁आभ	-5811
▁जॉ	-5812
▁संयोजन	-5813
ार्थियों	-5814
▁सम्मानित	-5815
▁पुस्तकालय	-5816
▁प्रशिक्षित	-5817
▁हड़	-5818
▁निरूप	-5819
▁लाभों	-5820
▁पेट्रोल	-5821
▁संग्रहण	-5822
▁रासायनिक	-5823
िथ	-5824
▁रन	-5825
विंद	-5826
▁किश	-5827
स्तीन	-5828
▁टेक्	-5829
▁पचास	-5830
▁पाठक	-5831
▁नारायण	-5832
▁नियंत्रक	-5833
खर	-5834
▁वन्य	-5835
▁पुस्तकें	-5836
▁बल्लेबाज	-5837
▁अवर	-5838
▁सेंट	-5839
▁संचित	-5840
▁उपग्रह	-5841
▁जानवरों	-5842
पक्व	-5843
▁धूम	-5844
शुल्क	-5845
▁लिखना	-5846
▁वैष्ण	-5847
▁अधिवेशन	-5848
▁विनियामक	-5849
og	-5850
स्टर	-5851
▁दांत	-5852
▁मोहन	-5853
▁प्राइ	-5854
श्रे	-5855
ूँगा	-5856
▁दमन	-5857
▁वेश	-5858
स्तीनी	-5859
▁अक्षर	-5860
▁कमीशन	-5861
▁प्रोटीन	-5862
ध्व	-5863
▁नती	-5864
▁बडा	-5865
▁भिन्	-5866
▁श्रो	-5867
▁होटल	-5868
▁अनुया	-5869
▁दिखाएँ	-5870
िनल	-5871
ानाथ	-5872
▁एण्ड	-5873
▁अखबार	-5874
▁गर्भा	-5875
▁तीसरी	-5876
▁तुमने	-5877
ोधन	-5878
पर्य	-5879
▁मेज	-5880
▁अपितु	-5881
▁पूर्णता	-5882
uot	-5883
विन	-5884
▁तत्स	-5885
▁अधिका	-5886
▁स्पर्श	-5887
▁कविताओं	-5888
▁संतुष्ट	-5889
पोषण	-5890
▁क्यू	-5891
▁विषा	-5892
▁फसलों	-5893
▁परिश्रम	-5894
तो	-5895
▁ऊंचे	-5896
▁जाया	-5897
▁पूर्णतया	-5898
▁परिकल्पना	-5899
▁लगने	-5900
▁आकर्षण	-5901
ण्डल	-5902
ेनिस	-5903
▁रिज़	-5904
▁विधा	-5905
▁कृत्य	-5906
▁परिपक्व	-5907
▁सौंदर्य	-5908
▁निष्पक्ष	-5909
▁कार्यालयों	-5910
ूकता	-5911
▁कहे	-5912
▁विधायी	-5913
▁सम्पन्न	-5914
▁सैनिकों	-5915
ैंक	-5916
कारा	-5917
पीसी	-5918
ेडकर	-5919
▁हिल	-5920
▁आवेदक	-5921
▁बताते	-5922
▁स्कूलों	-5923
▁अंग्रेज़ी	-5924
साई	-5925
▁शर	-5926
▁कराई	-5927
▁दलों	-5928
▁निचले	-5929
▁छुट्टी	-5930
▁स्वाधीनता	-5931
िक्र	-5932
▁जुट	-5933
▁ग्रे	-5934
▁सबके	-5935
▁ग्रस्त	-5936
र्मी	-5937
▁प्रेमच	-5938
▁मरम्मत	-5939
▁सार्वभौ	-5940
▁उन्होनें	-5941
▁प्रभार्य	-5942
एक	-5943
टो	-5944
▁जगत	-5945
▁मील	-5946
▁संभ	-5947
▁सज्	-5948
▁लम्बे	-5949
▁शर्तें	-5950
सेट	-5951
▁उपज	-5952
▁तंग	-5953
▁ह्र	-5954
क्षरता	-5955
▁यहूदी	-5956
▁चित्रण	-5957
▁अभिभाषण	-5958
▁लेखापरी	-5959
▁विधियां	-5960
▁विस्फोट	-5961
▁तरल	-5962
▁सहानुभूति	-5963
दूत	-5964
ूनी	-5965
▁एक्	-5966
▁ज़ि	-5967
▁बटन	-5968
▁प्रतिस्पर्धा	-5969
ुश	-5970
मों	-5971
▁आधा	-5972
▁सेन	-5973
▁सूजन	-5974
▁विदेशों	-5975
▁क्रांतिकारी	-5976
▁असी	-5977
▁समर्थित	-5978
▁फिलीस्तीनी	-5979
▁वास्तविकता	-5980
im	-5981
ड्र	-5982
▁अमल	-5983
▁दाम	-5984
▁बनाती	-5985
▁सफलतापूर्वक	-5986
गें	-5987
तकों	-5988
शाही	-5989
▁कनाडा	-5990
▁कमांड	-5991
ut	-5992
खिक	-5993
बाई	-5994
▁of	-5995
▁नर्स	-5996
▁मिटा	-5997
▁विधाय	-5998
दर्शिता	-5999
▁प्राणी	-6000
▁संदत्त	-6001
▁प्रावधानों	-6002
तना	-6003
शित	-6004
हाल	-6005
▁बसव	-6006
▁सोल	-6007
▁अव्य	-6008
▁क्रय	-6009
▁वृत्ति	-6010
ैस	-6011
त्तियों	-6012
▁इन्हीं	-6013
ढ़ा	-6014
▁घात	-6015
▁ठाक	-6016
▁शादी	-6017
▁सकने	-6018
▁बहादुर	-6019
▁नमक	-6020
▁आपदा	-6021
▁कारख	-6022
▁पीने	-6023
▁भरने	-6024
▁जानना	-6025
चिक	-6026
पश्च	-6027
▁आधे	-6028
▁जाह	-6029
▁निपटने	-6030
▁कलाकार	-6031
▁अनुज्ञा	-6032
▁महासागर	-6033
▁मुकाबले	-6034
टाई	-6035
वाणी	-6036
▁बढा	-6037
▁हिन्दुस्तान	-6038
ल्फ	-6039
▁इंत	-6040
▁शरण	-6041
▁जागरूकता	-6042
▁समस्याएं	-6043
▁चक	-6044
यंती	-6045
▁बहन	-6046
▁शेर	-6047
▁अवकाश	-6048
▁भत्ता	-6049
▁वितरित	-6050
▁मुलाकात	-6051
▁नवान्वेष	-6052
▁उत्पादकता	-6053
▁कम्प्यूटर	-6054
ालों	-6055
▁बुक	-6056
▁टेलीफोन	-6057
▁धान	-6058
▁प्रव	-6059
▁मंडप	-6060
▁बढ़ता	-6061
▁सार्थ	-6062
▁सोचते	-6063
व्यवहार	-6064
▁भागीदार	-6065
▁अड्ड	-6066
▁संगत	-6067
▁अनुशासन	-6068
▁वनस्पति	-6069
▁तत्कालीन	-6070
▁एजेंसियों	-6071
▁विघ	-6072
▁मानस	-6073
▁थोड़े	-6074
र्ता	-6075
▁मोड़	-6076
▁स्ट्र	-6077
तापूर्वक	-6078
▁रिज़र्व	-6079
▁vi	-6080
नीतिक	-6081
▁इनपुट	-6082
▁कारगर	-6083
▁मुहम्मद	-6084
▁रूपरेखा	-6085
▁कार्यकारी	-6086
गित	-6087
▁at	-6088
▁मिश्रित	-6089
▁गिरफ्तारी	-6090
▁प्रयोक्ता	-6091
ृंग	-6092
▁ढेर	-6093
▁आन्द	-6094
▁नौकर	-6095
▁नमूने	-6096
▁भरपूर	-6097
▁भरोसा	-6098
किम	-6099
हवीं	-6100
▁प्य	-6101
▁बाढ़	-6102
▁स्वि	-6103
▁देखिए	-6104
▁मानने	-6105
▁रूपये	-6106
▁उत्कृष्टता	-6107
िट्	-6108
डीएफ	-6109
ादेश	-6110
▁जल्द	-6111
▁वैसा	-6112
▁आमदनी	-6113
▁ट्रेड	-6114
▁सर्वप्र	-6115
घन	-6116
बु	-6117
ूलन	-6118
▁लड	-6119
▁जरा	-6120
दृश्य	-6121
▁अतिक	-6122
▁दिल्	-6123
▁स्वचालित	-6124
ंचल	-6125
▁रॉ	-6126
ायिक	-6127
▁उन्हे	-6128
▁जिलों	-6129
▁पड़ने	-6130
▁ज्ञापन	-6131
▁अप्रत्य	-6132
▁ठे	-6133
▁फ़ॉ	-6134
▁अरबी	-6135
▁खुली	-6136
▁निर्ण	-6137
▁पुनर्ग	-6138
▁कंट	-6139
▁दत्त	-6140
▁मजदूरी	-6141
▁शस्त्र	-6142
िफ	-6143
▁मैच	-6144
▁यों	-6145
▁रवि	-6146
▁राधा	-6147
▁जरूरतों	-6148
▁नाबार्ड	-6149
▁प्रविष्ट	-6150
काव	-6151
▁रै	-6152
चेंज	-6153
▁चित	-6154
▁बहि	-6155
▁उपभोग	-6156
▁मिलना	-6157
▁विशेषाधिकार	-6158
भु	-6159
▁सकी	-6160
ुक़्त	-6161
▁बैठा	-6162
▁स्ने	-6163
▁जयंती	-6164
▁लाखों	-6165
▁कार्बन	-6166
▁परिणामों	-6167
वीय	-6168
▁आजकल	-6169
▁आवश्य	-6170
▁जंगली	-6171
▁शिल्प	-6172
▁सदनों	-6173
▁स्थूल	-6174
▁बढ़ाना	-6175
▁व्यष्टि	-6176
▁राष्ट्री	-6177
मेह	-6178
रोग	-6179
टकों	-6180
र्फ़	-6181
▁अफ़	-6182
▁चिर	-6183
▁बड़	-6184
▁उठाना	-6185
▁शुरूआ	-6186
▁वर्गीकरण	-6187
▁परिसी	-6188
▁पार्ट	-6189
▁अधिसूचित	-6190
राक	-6191
ोरम	-6192
▁तप	-6193
▁इराक	-6194
▁बर्फ	-6195
▁समता	-6196
▁हानिक	-6197
▁कनेक्ट	-6198
मिन	-6199
▁केश	-6200
▁बेस	-6201
▁श्ल	-6202
चरिता	-6203
मित्त	-6204
▁शोषण	-6205
▁शास्त्री	-6206
▁अफगानिस्तान	-6207
ासित	-6208
▁बाय	-6209
▁चौथा	-6210
▁यहीं	-6211
▁उपदेश	-6212
▁मराठी	-6213
▁आनुवंश	-6214
▁एमएस	-6215
▁किमी	-6216
▁मोर्	-6217
▁मिस्र	-6218
▁साक्ष	-6219
▁दूरस्थ	-6220
▁गणतंत्र	-6221
ay	-6222
्ह	-6223
▁नु	-6224
▁दया	-6225
▁डालर	-6226
▁डिजिटल	-6227
▁एकत्रित	-6228
▁गोद	-6229
▁दंत	-6230
▁कराता	-6231
▁वाक्य	-6232
▁अधिकृत	-6233
▁सुचरिता	-6234
▁पहुंचाने	-6235
▁राजकुमार	-6236
▁सिफारिशों	-6237
पद	-6238
मेट	-6239
▁बत	-6240
▁आँख	-6241
▁सफाई	-6242
▁इंकार	-6243
▁समझना	-6244
▁जोड़ें	-6245
▁सम्राट	-6246
▁पार्श्व	-6247
▁देह	-6248
▁भ्रम	-6249
▁विलय	-6250
▁इलाकों	-6251
एगा	-6252
ेटी	-6253
▁घन	-6254
▁नाक	-6255
▁औषधि	-6256
क्रामक	-6257
▁अतिमान	-6258
▁विडियो	-6259
▁राजमार्ग	-6260
▁घुट	-6261
▁घोष	-6262
▁नाय	-6263
▁फेंक	-6264
त्रियों	-6265
▁स्वदेश	-6266
▁स्रोतों	-6267
▁बांग्लादेश	-6268
▁डाले	-6269
▁नोटिस	-6270
▁बताने	-6271
▁अवमानना	-6272
▁संग्राम	-6273
▁सौभाग्य	-6274
क्ल	-6275
सास	-6276
द्दी	-6277
स्मिक	-6278
▁गोली	-6279
▁सबको	-6280
▁आंखों	-6281
▁चिंतन	-6282
▁खरीदने	-6283
▁यात्री	-6284
▁उपनिवेश	-6285
▁निर्वाचित	-6286
षेध	-6287
▁छू	-6288
मुखी	-6289
▁भूख	-6290
▁सीधी	-6291
▁ज्यादातर	-6292
▁दस्तावेज़	-6293
▁ओपन	-6294
▁आकृति	-6295
▁पढ़ाई	-6296
▁वृत्त	-6297
▁नो	-6298
▁कंध	-6299
▁घृणा	-6300
▁दुर्लभ	-6301
▁निवेशकों	-6302
पार	-6303
ल्ली	-6304
▁कीजिए	-6305
▁जानवर	-6306
▁निराशा	-6307
▁ग्रन्थ	-6308
▁दह	-6309
▁नं	-6310
च्छेदन	-6311
▁किराया	-6312
▁वैष्णव	-6313
▁उपलब्धियों	-6314
पल	-6315
रीन	-6316
वकों	-6317
▁लाह	-6318
▁आईसी	-6319
▁प्राप	-6320
▁मस्जि	-6321
बरा	-6322
▁टक	-6323
ताएं	-6324
त्रि	-6325
▁टाइप	-6326
▁वरीय	-6327
▁टेनिस	-6328
्चर	-6329
▁गुट	-6330
▁भव्य	-6331
▁अंगों	-6332
▁निर्व	-6333
▁एशियाई	-6334
▁सर्वप्रथम	-6335
ण्ट	-6336
वाँ	-6337
णुओं	-6338
▁प्लग	-6339
▁मेहन	-6340
▁सिरे	-6341
ंबेडकर	-6342
▁टैगोर	-6343
▁तालाब	-6344
▁इस्पात	-6345
▁एससीसी	-6346
▁आकस्मिक	-6347
शब्द	-6348
▁पान	-6349
▁बैक	-6350
▁पुष्प	-6351
क्तियों	-6352
्रदायिक	-6353
▁प्रतिनिधियों	-6354
ंय	-6355
वेल	-6356
ब्बे	-6357
▁बोझ	-6358
म्मा	-6359
▁निभ	-6360
▁नजदी	-6361
▁राजी	-6362
▁जैसाकि	-6363
▁श्रद्धा	-6364
्यक	-6365
▁पोष	-6366
संचार	-6367
▁लाभा	-6368
▁लम्बी	-6369
▁सुदूर	-6370
▁अन्याय	-6371
▁आकर्षक	-6372
किट	-6373
▁ठहर	-6374
▁अनुकरण	-6375
▁नियोजन	-6376
▁प्रतिवर्ष	-6377
शनी	-6378
▁an	-6379
▁नम	-6380
▁ऊंचा	-6381
▁सेशन	-6382
▁कमेटी	-6383
▁अकादमी	-6384
▁विकलांग	-6385
▁संस्थागत	-6386
▁अपीलार्थी	-6387
▁कर्तव्यों	-6388
▁इस्लामवादी	-6389
ुड	-6390
पाई	-6391
लील	-6392
▁बचपन	-6393
▁खासकर	-6394
▁निक्ष	-6395
▁सच्चे	-6396
▁समीकरण	-6397
▁विज्ञापन	-6398
ोहर	-6399
▁अँ	-6400
▁बीत	-6401
निहित	-6402
▁एक्ट	-6403
▁ढूंढ	-6404
▁बिन्दु	-6405
▁समकालीन	-6406
▁क़्योंकि	-6407
मस	-6408
िणी	-6409
▁जबर	-6410
▁असंभव	-6411
▁सुधारने	-6412
▁अप्रत्यक्ष	-6413
ैक्ट	-6414
▁भ्रष्टा	-6415
▁गंध	-6416
▁यौन	-6417
▁वसा	-6418
▁जोड़े	-6419
▁फूलों	-6420
▁अहिंसा	-6421
▁सशस्त्र	-6422
▁प्रतिलिप	-6423
लाल	-6424
िवी	-6425
ंबित	-6426
ृश्य	-6427
▁उत्सुक	-6428
▁यूनियन	-6429
▁कृत्यों	-6430
णता	-6431
ल्ह	-6432
▁खार	-6433
▁अभिने	-6434
▁महान्	-6435
उन	-6436
भुत	-6437
▁मक्	-6438
▁इनकार	-6439
▁उत्सव	-6440
▁अपूर्ण	-6441
▁बुलाया	-6442
▁अवस्थित	-6443
▁चरम	-6444
▁अमृत	-6445
▁नज़र	-6446
▁विकि	-6447
▁सुपु	-6448
▁माहौल	-6449
tr	-6450
ड्	-6451
AME	-6452
स्थल	-6453
▁पेय	-6454
▁मंग	-6455
हाबाद	-6456
▁पेशी	-6457
बीन	-6458
▁घाव	-6459
▁शेख	-6460
्यूशन	-6461
▁निस्	-6462
▁संकलन	-6463
▁सहभाग	-6464
▁इंदिरा	-6465
▁इसलिये	-6466
▁उन्नयन	-6467
▁स्वर्ग	-6468
▁संव्यवहार	-6469
▁प्रतिरक्षा	-6470
ोश	-6471
ोगे	-6472
▁उदय	-6473
▁पते	-6474
▁हुये	-6475
▁संघीय	-6476
▁सामुद	-6477
▁प्रत्यर्थी	-6478
फ्र	-6479
ोरा	-6480
ोला	-6481
्रेम	-6482
ुपयोग	-6483
▁कोने	-6484
▁सड़कों	-6485
▁सदस्यता	-6486
▁पूर्वोक्त	-6487
▁सांप्रदायिक	-6488
▁ह्य	-6489
▁भीड़	-6490
▁दरबार	-6491
▁नमूना	-6492
▁परिसंप	-6493
जक	-6494
खाव	-6495
▁ओब	-6496
▁गठ	-6497
▁बम्बई	-6498
▁निर्गम	-6499
▁अनुभूति	-6500
▁वक्तव्य	-6501
जाम	-6502
▁देनी	-6503
▁मेगा	-6504
क्साइड	-6505
ोसिएशन	-6506
▁सांवि	-6507
▁अनिवासी	-6508
ज़न	-6509
लित	-6510
▁फू	-6511
हारी	-6512
▁चिन	-6513
▁टैब	-6514
▁कच्चे	-6515
▁गाँधी	-6516
▁शिष्ट	-6517
▁समेकित	-6518
▁सुधारों	-6519
▁हरियाणा	-6520
▁कहानियों	-6521
परक	-6522
▁छः	-6523
सिद्ध	-6524
▁एससी	-6525
▁सोचने	-6526
▁निमित्त	-6527
▁पुनरीक्षण	-6528
टित	-6529
▁रम	-6530
िकता	-6531
▁स्त्रो	-6532
▁त्रुटिः	-6533
▁उत्तराधिकार	-6534
ab	-6535
ूरो	-6536
ोसी	-6537
▁क्रूर	-6538
श्रेष्ठ	-6539
▁लाभांश	-6540
▁दूरसंचार	-6541
रता	-6542
▁केस	-6543
▁भेजी	-6544
▁ठाकुर	-6545
▁समापन	-6546
▁अवधारण	-6547
▁नाटकों	-6548
▁शुरूआत	-6549
▁प्रतिबद्धता	-6550
ँह	-6551
▁दम	-6552
▁विच	-6553
▁मारे	-6554
▁श्लोक	-6555
▁नेताजी	-6556
▁प्रसंग	-6557
▁मिथ्या	-6558
▁सिर्फ़	-6559
शंकर	-6560
▁गेह	-6561
▁लोह	-6562
▁कबीर	-6563
▁हमले	-6564
▁मूत्र	-6565
दर्शक	-6566
बन्धन	-6567
▁काफ़ी	-6568
▁असफलता	-6569
▁आउटपुट	-6570
▁नवा	-6571
▁वहन	-6572
रक्षण	-6573
▁कोमल	-6574
▁नामा	-6575
▁प्ला	-6576
▁माँग	-6577
▁सन्द	-6578
▁विधवा	-6579
▁क्रियान्वयन	-6580
कोष	-6581
पाट	-6582
▁मुक	-6583
▁सोव	-6584
▁बेटे	-6585
▁रहीं	-6586
▁अपनाई	-6587
▁कौंसिल	-6588
▁गिन	-6589
▁असंत	-6590
▁परित	-6591
▁पुराण	-6592
विश्वास	-6593
▁गोपनीय	-6594
▁भेदभाव	-6595
▁माइक्रो	-6596
▁विटामिन	-6597
▁समाजवादी	-6598
▁फिलीस्तीन	-6599
▁हंस	-6600
सूत्र	-6601
▁मंगल	-6602
स्थापन	-6603
▁अभिदाय	-6604
ठार	-6605
▁टि	-6606
▁बेश	-6607
▁सारणी	-6608
▁उद्भूत	-6609
▁टाइम्स	-6610
▁सच्चाई	-6611
▁राजपत्र	-6612
▁सत्यापन	-6613
▁तुम्हारा	-6614
▁पुनर्वास	-6615
▁साक्षरता	-6616
▁अधिनियमित	-6617
▁केन्द्रों	-6618
ter	-6619
▁खज	-6620
पोरेट	-6621
मूल्य	-6622
▁अपार	-6623
▁छिपा	-6624
▁नायक	-6625
▁आंकड़ों	-6626
नीत	-6627
ैंट	-6628
▁बिर	-6629
संदेह	-6630
▁सेवक	-6631
▁जाहिर	-6632
▁पीछला	-6633
▁महाद्वीप	-6634
▁निर्देशों	-6635
▁मंत्रियों	-6636
कोट	-6637
▁माउ	-6638
▁विस	-6639
क्रिप	-6640
▁आवरण	-6641
▁ब्यौ	-6642
▁राजाओं	-6643
▁निकायों	-6644
▁भ्रष्टाचार	-6645
▁साक्षात्कार	-6646
द्म	-6647
▁उग	-6648
▁कोर	-6649
▁घुस	-6650
ख़्या	-6651
▁अक्ट	-6652
▁आचार	-6653
▁न्यूय	-6654
▁पेटेंट	-6655
▁अधिनिर्	-6656
▁आन्दोलन	-6657
▁प्रबन्ध	-6658
▁मजदूरों	-6659
▁हिस्सों	-6660
गुण	-6661
▁Ch	-6662
▁तह	-6663
▁अजीब	-6664
▁किंग	-6665
▁हड्डी	-6666
▁जिंदगी	-6667
▁पक्षियों	-6668
▁पेट्रोलियम	-6669
os	-6670
फ़ा	-6671
ेन्ट	-6672
▁गरि	-6673
▁निल	-6674
▁नोक	-6675
▁क्री	-6676
▁बताता	-6677
▁उन्मूलन	-6678
▁रोगियों	-6679
▁संवेदनशील	-6680
▁iv	-6681
भूषण	-6682
▁उधर	-6683
▁राव	-6684
▁रंगम	-6685
▁ग्रीन	-6686
▁प्रसव	-6687
▁बताना	-6688
▁पब्लिक	-6689
▁विस्तारित	-6690
शक	-6691
▁हॉ	-6692
रानी	-6693
▁थोड	-6694
▁आर्य	-6695
▁हर्ष	-6696
▁सोम	-6697
▁पागल	-6698
▁पादप	-6699
▁शराब	-6700
▁आधिकार	-6701
▁शिकायतों	-6702
▁re	-6703
स्पी	-6704
▁नींव	-6705
▁पुनर	-6706
▁पृथक्	-6707
तापूर्ण	-6708
▁अज्ञान	-6709
▁अभिकरण	-6710
▁श्रद्ध	-6711
चंद्र	-6712
▁चलती	-6713
▁रोचक	-6714
▁खोजने	-6715
▁ब्रह्मा	-6716
▁पुनर्गठन	-6717
▁हिन्दुओं	-6718
गंध	-6719
भक्त	-6720
ॉल्ट	-6721
▁लाई	-6722
▁उठता	-6723
बूझ	-6724
▁वध	-6725
▁गम्	-6726
▁पराज	-6727
▁वर्न	-6728
▁धर्मों	-6729
▁पूर्वोत्तर	-6730
महल	-6731
▁झग	-6732
▁नक्	-6733
▁रसी	-6734
दाबाद	-6735
▁गाँव	-6736
▁कर्ता	-6737
▁बकाया	-6738
▁इकट्ठा	-6739
▁किलोग्राम	-6740
▁मैत्रीपूर्ण	-6741
टने	-6742
पटल	-6743
वीर	-6744
▁गज	-6745
रखाव	-6746
▁पहच	-6747
▁बृह	-6748
▁सुप	-6749
▁अनाव	-6750
▁गूगल	-6751
▁देगी	-6752
▁असमान	-6753
▁उपाधि	-6754
भूतियों	-6755
▁कामगार	-6756
▁निर्धन	-6757
▁मधुमेह	-6758
▁मुहैया	-6759
▁सामर्थ	-6760
▁गड़	-6761
▁शब्	-6762
पोर्ट	-6763
▁एनआई	-6764
▁निभाई	-6765
▁मामूली	-6766
▁आश्वासन	-6767
▁सम्बद्ध	-6768
▁निर्देशित	-6769
▁प्रस्तावों	-6770
षी	-6771
ैत	-6772
खार	-6773
लियों	-6774
ोत्तर	-6775
▁कामका	-6776
▁कीटना	-6777
▁अक्टूबर	-6778
▁अधिकाधिक	-6779
यू	-6780
▁दब	-6781
▁कदा	-6782
ष्कृत	-6783
▁सिखा	-6784
▁कब्जा	-6785
▁श्रेण	-6786
▁स्वाय	-6787
▁रखरखाव	-6788
▁सार्थक	-6789
▁गर्भाशय	-6790
▁अनिश्चित	-6791
▁मुख्यालय	-6792
▁सर्वश्रेष्ठ	-6793
चलन	-6794
ोन्	-6795
चेतन	-6796
▁घाट	-6797
▁बेहद	-6798
▁सन्न	-6799
▁स्नेह	-6800
निर्देश	-6801
▁जीवाणु	-6802
▁पंचायत	-6803
▁स्नातक	-6804
▁पुरुषों	-6805
▁प्रजाति	-6806
▁एक्सचेंज	-6807
▁विधानमंडल	-6808
बरी	-6809
ब्ब	-6810
▁गरिमा	-6811
▁गीतों	-6812
▁विभेद	-6813
▁निरसित	-6814
▁मनोरंजन	-6815
▁रेगि	-6816
▁समाह	-6817
▁आश्रम	-6818
▁प्रगा	-6819
▁लार्ड	-6820
▁सौंपा	-6821
▁सर्विस	-6822
▁उपबंधित	-6823
▁समायोजन	-6824
कोर	-6825
▁दाह	-6826
▁हाई	-6827
▁डॉक्टर	-6828
▁रिश्ते	-6829
▁काउंसिल	-6830
वैज्ञानिक	-6831
▁मनुष्यों	-6832
▁साझीदारी	-6833
्याल	-6834
▁अद्	-6835
▁गोवा	-6836
▁इंगित	-6837
▁कोयला	-6838
▁मौखिक	-6839
▁निर्वहन	-6840
▁कठिनाइयों	-6841
शिंग	-6842
योग्य	-6843
▁अभिल	-6844
▁समझी	-6845
क्टरों	-6846
▁बच्चन	-6847
▁प्रदाह	-6848
▁स्थिरता	-6849
ce	-6850
ंकी	-6851
ुद्व	-6852
▁निप	-6853
▁पदा	-6854
▁बिग	-6855
▁आशंका	-6856
▁स्टार	-6857
▁उपयोक्ता	-6858
▁सत्याग्रह	-6859
▁स्वीकार्य	-6860
डों	-6861
्ती	-6862
▁ar	-6863
शियों	-6864
▁कॉपी	-6865
▁दरों	-6866
▁दौरा	-6867
▁रोशनी	-6868
▁अभियोग	-6869
▁नीतिगत	-6870
▁आयुर्वेद	-6871
हरण	-6872
▁टो	-6873
▁बही	-6874
▁बिन	-6875
▁मरी	-6876
▁रोड	-6877
▁हैस	-6878
▁क्ला	-6879
▁चुंब	-6880
▁आवासी	-6881
▁ओबामा	-6882
▁मनाया	-6883
▁गम्भीर	-6884
▁झिल्ली	-6885
▁पहुँचा	-6886
▁शास्ति	-6887
▁संवेदना	-6888
▁उत्सर्जन	-6889
▁दीक्षांत	-6890
मीन	-6891
▁आगमन	-6892
▁मांसपेश	-6893
ंडे	-6894
बिल	-6895
▁बाज़ार	-6896
▁मुद्दा	-6897
▁हिंदुओं	-6898
▁इलाहाबाद	-6899
▁संस्थापित	-6900
िश्र	-6901
▁पतन	-6902
▁भूक	-6903
त्स्य	-6904
▁बोला	-6905
▁खर्चे	-6906
▁निंदा	-6907
▁श्रील	-6908
▁सालों	-6909
▁आधिकारिक	-6910
▁उपयोगिता	-6911
▁निर्माता	-6912
▁प्रक्षेप	-6913
क्तता	-6914
▁परिन	-6915
▁सिने	-6916
▁सुलझ	-6917
▁पुत्री	-6918
▁वरीयता	-6919
▁तत्पश्च	-6920
▁मोहम्मद	-6921
▁प्रोटोकॉल	-6922
▁माध	-6923
▁बढ़े	-6924
▁रहकर	-6925
▁तिहाई	-6926
▁चौड़ाई	-6927
▁अनुभवों	-6928
नें	-6929
मैन	-6930
▁बट	-6931
▁तमाम	-6932
▁विरा	-6933
▁आगामी	-6934
▁विषयक	-6935
▁नियन्त	-6936
▁संकीर्ण	-6937
ुतोष	-6938
▁द्रव	-6939
▁ध्रु	-6940
▁नारी	-6941
▁साकार	-6942
▁सोचता	-6943
▁एल्गोर	-6944
▁नवीकरण	-6945
▁पेशेवर	-6946
▁स्वच्छता	-6947
▁u	-6948
▁नाल	-6949
▁फेफ	-6950
▁जगत्	-6951
▁दुग्ध	-6952
▁बंगला	-6953
▁मजबूर	-6954
▁ज़रूरत	-6955
▁विख्यात	-6956
▁इंजीनियरिंग	-6957
डऋ	-6958
मै	-6959
▁कड़	-6960
▁उपास	-6961
▁बेचने	-6962
▁संकाय	-6963
▁निधियों	-6964
▁निरन्तर	-6965
▁पर्यटकों	-6966
▁विशेषज्ञों	-6967
▁माय	-6968
▁बांस	-6969
▁बेटी	-6970
▁मुँह	-6971
▁स्वे	-6972
▁छोड़ने	-6973
▁सूचीबद्ध	-6974
▁देशवासियों	-6975
▁आदत	-6976
▁गले	-6977
▁हरी	-6978
▁डेस्	-6979
▁सुगम	-6980
▁आजीवन	-6981
▁फायदे	-6982
▁रंगमंच	-6983
▁प्रगाढ़	-6984
▁सहभागिता	-6985
बाल	-6986
ब्ध	-6987
लाइ	-6988
लेखन	-6989
▁अनू	-6990
ान्तर	-6991
▁आघात	-6992
▁घटित	-6993
▁सब्ज	-6994
जुट	-6995
▁छे	-6996
सन्द	-6997
ापुर	-6998
▁सना	-6999
▁उड़ान	-7000
▁लौटने	-7001
▁उन्नति	-7002
▁बादशाह	-7003
▁लड़कियों	-7004
िज़	-7005
ोरों	-7006
▁धूल	-7007
▁अश्व	-7008
▁रोका	-7009
▁सेवन	-7010
▁किराए	-7011
▁जर्मन	-7012
▁अब्दुल	-7013
▁पीडीएफ	-7014
▁अध्यापक	-7015
▁अवधारित	-7016
ट्टा	-7017
▁ऊँचा	-7018
▁कर्ज	-7019
▁समाम	-7020
▁शब्दा	-7021
दिता	-7022
▁शीत	-7023
▁कहती	-7024
▁जैविक	-7025
▁मेहनत	-7026
▁मस्जिद	-7027
▁श्रीलंका	-7028
केल	-7029
▁अशोक	-7030
▁अहमद	-7031
▁महानि	-7032
▁स्मारक	-7033
▁सुपुर्द	-7034
▁विनियमित	-7035
मलव	-7036
▁कां	-7037
▁सटी	-7038
▁अण्ड	-7039
▁कन्न	-7040
▁योनि	-7041
▁रोमा	-7042
▁ग्यार	-7043
▁बॉक्स	-7044
▁सुनकर	-7045
▁सांख्य	-7046
▁स्थलों	-7047
▁परिदृश्य	-7048
▁दायित्वों	-7049
▁स्वतन्त्र	-7050
▁परियोजनाएं	-7051
मोहन	-7052
▁जॉन	-7053
ढ़ियों	-7054
▁स्टॉक	-7055
▁हटाया	-7056
▁केन्द्रित	-7057
▁स्वैच्छिक	-7058
हि	-7059
ार्द	-7060
▁औरत	-7061
▁कों	-7062
ड्यूल	-7063
▁रोज़	-7064
▁आशुतोष	-7065
▁तुरन्त	-7066
▁विकिरण	-7067
▁संचिका	-7068
▁कार्यकलापों	-7069
▁गत	-7070
देवी	-7071
न्ता	-7072
▁भूट	-7073
▁बनकर	-7074
▁कपड़ा	-7075
▁सृष्टि	-7076
▁साथियों	-7077
▁अन्तर्राष्ट्रीय	-7078
चित्य	-7079
▁मणिप	-7080
▁रेशम	-7081
्याप्त	-7082
▁त्रिप	-7083
▁आपत्ति	-7084
▁निर्दोष	-7085
▁इट	-7086
बाबू	-7087
▁रेख	-7088
▁क्षम	-7089
▁आश्रय	-7090
▁निकले	-7091
जनात्मक	-7092
▁लेखापरीक्षा	-7093
ओएस	-7094
जाज	-7095
ोटी	-7096
▁पटल	-7097
▁भरत	-7098
▁रुक	-7099
▁ज्या	-7100
▁उपहार	-7101
▁एकजुट	-7102
▁खारिज	-7103
▁दशमलव	-7104
रूद्दीन	-7105
▁टर्मिनल	-7106
▁दुरुपयोग	-7107
▁मंत्रालयों	-7108
दक	-7109
बूती	-7110
▁खोलें	-7111
▁निदान	-7112
▁पुनरा	-7113
▁अवलोकन	-7114
▁डेस्कट	-7115
▁परिचालन	-7116
▁महानिदेश	-7117
▁मूल्यवान	-7118
बुद्ध	-7119
▁डिफ़	-7120
▁एआईआर	-7121
▁कुटुम्ब	-7122
ेंडर	-7123
▁मेड	-7124
▁सैक	-7125
▁किले	-7126
▁कॉर्	-7127
▁चर्च	-7128
▁पूछता	-7129
▁दीवारों	-7130
▁In	-7131
▁घोर	-7132
▁ध्य	-7133
▁मेमोरी	-7134
▁कार्यकाल	-7135
▁प्रगतिशील	-7136
ीस	-7137
ूर्त	-7138
▁इनसे	-7139
▁रिवा	-7140
▁सूचक	-7141
▁जिसमे	-7142
▁व्याया	-7143
▁ईमानदारी	-7144
▁विधानसभा	-7145
▁सामर्थ्य	-7146
▁पद्धतियों	-7147
म्बा	-7148
▁मेर	-7149
हीनता	-7150
▁खातों	-7151
▁भारती	-7152
▁गंभीरता	-7153
▁सचिवालय	-7154
▁सामुदायिक	-7155
हम	-7156
िसा	-7157
▁भगत	-7158
▁आलेख	-7159
▁लोगो	-7160
▁जीवंत	-7161
▁पूर्वक	-7162
▁कंप्यूट	-7163
▁डेस्कटॉप	-7164
▁स्नान	-7165
▁प्रचुर	-7166
▁खिलाड़ी	-7167
▁संक्रिया	-7168
▁स्थानांतरित	-7169
गिक	-7170
न्च	-7171
▁मला	-7172
▁अन्तः	-7173
▁बोलने	-7174
▁सभाओं	-7175
▁निविदा	-7176
▁समाहित	-7177
▁मित्रता	-7178
▁आओ	-7179
प्पा	-7180
▁ऋतु	-7181
▁लची	-7182
▁गयीं	-7183
▁मानों	-7184
▁अभिन्न	-7185
▁ब्यूरो	-7186
▁निर्वाह	-7187
▁संतुलित	-7188
▁अनंत	-7189
▁प्रोफ	-7190
▁व्यास	-7191
▁हैसियत	-7192
म्म	-7193
▁ऑप	-7194
▁मुआ	-7195
▁लाए	-7196
▁वसूल	-7197
▁हिमन	-7198
ेन्द्र	-7199
▁कहलाता	-7200
▁अस्पष्ट	-7201
एव	-7202
ंड़	-7203
हान	-7204
▁खपत	-7205
▁कॉन्	-7206
▁तृतीय	-7207
▁बदलें	-7208
▁अंतरिम	-7209
▁विचित्र	-7210
ाइड	-7211
▁उछ	-7212
ोर्स	-7213
▁आधी	-7214
▁गेट	-7215
मार्क	-7216
▁डब्ल्यू	-7217
▁निकालना	-7218
▁यात्रियों	-7219
▁गतिविधियां	-7220
▁निर्माताओं	-7221
ोई	-7222
ृहीत	-7223
▁टेल	-7224
▁बाई	-7225
्रेषण	-7226
▁क्षे	-7227
▁घड़ी	-7228
▁चलना	-7229
▁नामों	-7230
▁परजीवी	-7231
▁पाठकों	-7232
▁प्राइवेट	-7233
▁संरक्षित	-7234
टरी	-7235
▁पण	-7236
▁न्य	-7237
▁बंधन	-7238
्यात्मक	-7239
▁दुर्गा	-7240
▁व्याकरण	-7241
यम	-7242
▁थै	-7243
माला	-7244
▁छेद	-7245
▁फॉर	-7246
▁बंट	-7247
न्नाथ	-7248
▁यज्ञ	-7249
धारकों	-7250
संख्यक	-7251
▁निराश	-7252
▁पड़ोस	-7253
▁आंकड़ा	-7254
▁प्रौढ़	-7255
▁हानिकारक	-7256
▁हार्डवेयर	-7257
▁क्रियाकलाप	-7258
▁गर	-7259
▁आँक	-7260
▁उगा	-7261
▁एंव	-7262
▁केल	-7263
▁बहुल	-7264
▁स्या	-7265
▁पंद्र	-7266
▁विच्छेद	-7267
▁अतिक्रमण	-7268
▁प्रभुत्व	-7269
▁प्रजातियों	-7270
इश	-7271
ख्	-7272
ँजी	-7273
▁कण	-7274
▁शक	-7275
किया	-7276
रेशन	-7277
▁अनो	-7278
▁नरम	-7279
▁दौरे	-7280
▁आवाज़	-7281
▁जितने	-7282
▁लड़का	-7283
▁संतान	-7284
▁निष्पादित	-7285
ीर	-7286
ैम	-7287
▁कन	-7288
▁आवं	-7289
▁गौण	-7290
▁मैथ	-7291
▁मानद	-7292
▁वर्षो	-7293
▁वापिस	-7294
▁बढ़ाया	-7295
▁आस्ट्रेलिया	-7296
चु	-7297
rom	-7298
राई	-7299
स्पद	-7300
डियों	-7301
▁ड्रा	-7302
▁नाइट	-7303
▁डोमेन	-7304
▁गतिशील	-7305
▁बंदरगाह	-7306
▁बदरूद्दीन	-7307
▁उदाहरणार्थ	-7308
▁उपभोक्ताओं	-7309
मेर	-7310
▁नद	-7311
बर्ट	-7312
▁स्टाफ	-7313
▁दार	-7314
▁मूर्ख	-7315
▁संयोग	-7316
▁पड़ोसी	-7317
▁चिह्नित	-7318
▁प्रतिकर	-7319
▁स्वायत्त	-7320
▁प्राणियों	-7321
▁शास्त्रीय	-7322
▁दीर्घकालिक	-7323
▁याचिकाकर्ता	-7324
टकर	-7325
भाई	-7326
ियस	-7327
ंतुक	-7328
▁चूक	-7329
▁धूप	-7330
िकेशन	-7331
▁गवाह	-7332
▁अनन्य	-7333
▁क्षमा	-7334
▁लाहौर	-7335
▁ड्राइव	-7336
▁दोबारा	-7337
▁द्वारक	-7338
▁अध्यादेश	-7339
▁प्रख्यात	-7340
ॉग	-7341
शुदा	-7342
▁फौज	-7343
▁सुस	-7344
▁कारकों	-7345
▁वांछित	-7346
▁विनियमों	-7347
▁संस्थाएं	-7348
र्षि	-7349
▁छंद	-7350
▁बचे	-7351
▁हरा	-7352
▁औजार	-7353
▁ड्रग	-7354
▁लौटा	-7355
▁संकु	-7356
▁सच्ची	-7357
▁सोवियत	-7358
▁दंडादेश	-7359
▁सतर्कता	-7360
▁उद्यमियों	-7361
ir	-7362
oc	-7363
ाणु	-7364
िने	-7365
▁अर्पित	-7366
▁जाएंगी	-7367
▁जगन्नाथ	-7368
ताप	-7369
मियम	-7370
▁असं	-7371
▁रोम	-7372
दिग्ध	-7373
▁मधुर	-7374
▁सख्त	-7375
▁फॉर्म	-7376
▁श्रेय	-7377
▁उर्वरक	-7378
▁लक्ष्म	-7379
▁दिलचस्प	-7380
▁निर्णायक	-7381
▁अपर्याप्त	-7382
ैड	-7383
दिर	-7384
सेल	-7385
वाया	-7386
हत्या	-7387
▁ट्रा	-7388
▁सन्त	-7389
▁अकेला	-7390
▁अतिथि	-7391
▁इमारत	-7392
▁पैरों	-7393
▁बेकार	-7394
▁विपक्ष	-7395
▁डिफ़ॉल्ट	-7396
कस	-7397
विर	-7398
्लो	-7399
▁जज	-7400
वर्स	-7401
▁ढाल	-7402
▁नानक	-7403
▁मास्ट	-7404
िरपेक्ष	-7405
▁गुजराती	-7406
▁परिसीमा	-7407
▁अधिनियमों	-7408
पेट	-7409
बड़	-7410
ुगु	-7411
स्सी	-7412
▁आवृ	-7413
▁ताक	-7414
▁वान	-7415
▁इंजन	-7416
▁घायल	-7417
▁संकल	-7418
▁नाट्य	-7419
▁शर्मा	-7420
▁रणनीति	-7421
▁शासकों	-7422
▁अनावश्यक	-7423
▁युक्तियुक्त	-7424
दाद	-7425
साम	-7426
▁नॉ	-7427
युद्ध	-7428
▁सुनी	-7429
▁कीमतों	-7430
▁आंबेडकर	-7431
▁डेटाबेस	-7432
▁प्रवर्ग	-7433
िल्ला	-7434
▁अतएव	-7435
▁क्लब	-7436
▁पाती	-7437
▁मृतक	-7438
▁सिंग	-7439
▁भ्रूण	-7440
▁संपरि	-7441
▁अंतर्व	-7442
▁उद्धृत	-7443
▁क्रिस्ट	-7444
▁क्षमताओं	-7445
▁संप्रदाय	-7446
▁ऊंट	-7447
▁कैम	-7448
▁फूट	-7449
▁कहकर	-7450
▁विगत	-7451
वीक्षा	-7452
▁राज़्य	-7453
▁निःशुल्क	-7454
जपे	-7455
नाल	-7456
्तन	-7457
▁इधर	-7458
िस्टर	-7459
▁घातक	-7460
▁पुणे	-7461
▁मेहर	-7462
ियारों	-7463
▁महाका	-7464
▁अद्भुत	-7465
▁प्रतिमा	-7466
▁उम्मीदवार	-7467
ers	-7468
▁बश	-7469
ोहित	-7470
▁बिख	-7471
▁रिफ	-7472
र्देश	-7473
▁एसोसिएशन	-7474
ुलर	-7475
खण्ड	-7476
▁कूद	-7477
▁मज़	-7478
▁लखन	-7479
▁सौह	-7480
ंतव्य	-7481
▁जादू	-7482
▁टीवी	-7483
▁दायर	-7484
▁रूचि	-7485
▁जानती	-7486
▁अर्जुन	-7487
▁टुकड़े	-7488
ेव	-7489
ुलिप	-7490
▁भली	-7491
▁मोर	-7492
विचार	-7493
ोरेशन	-7494
▁किस्	-7495
▁धारक	-7496
▁चेहरा	-7497
▁पासवर्ड	-7498
▁संपादित	-7499
▁माध्यमिक	-7500
▁विधायिका	-7501
▁साक्षियों	-7502
▁प्राधिकारियों	-7503
ow	-7504
ंचन	-7505
▁भि	-7506
▁नकल	-7507
▁पडे	-7508
▁महो	-7509
▁संश	-7510
त्तीस	-7511
▁चारा	-7512
▁भयान	-7513
िवारिक	-7514
▁भूटान	-7515
▁हेक्ट	-7516
▁प्रेमी	-7517
▁बालकों	-7518
▁लक्ष्मी	-7519
▁आनुवंशिक	-7520
▁द्वारकानाथ	-7521
ig	-7522
यित	-7523
्ली	-7524
तिया	-7525
▁अवा	-7526
ुस्तानी	-7527
▁ट्रांस	-7528
▁पिछड़े	-7529
▁बिलियन	-7530
▁परेशानी	-7531
▁संख़्या	-7532
ज्ह	-7533
▁we	-7534
▁सऋ	-7535
षकों	-7536
ियॉँ	-7537
▁बुश	-7538
▁कोटि	-7539
▁ऊतकों	-7540
▁लड़ने	-7541
▁जानबूझ	-7542
▁शान्ति	-7543
▁कूटशब्द	-7544
▁प्रपत्र	-7545
▁पारदर्शिता	-7546
▁कार्यवाहियां	-7547
▁ओह	-7548
▁वेग	-7549
▁लगाकर	-7550
▁मुख़्य	-7551
हृ	-7552
ौप	-7553
प्प	-7554
कार्	-7555
ोग्रा	-7556
▁चलकर	-7557
▁विवा	-7558
▁पहाड़	-7559
▁बनायी	-7560
▁भेजें	-7561
▁दिलचस्पी	-7562
▁निरपेक्ष	-7563
▁पर्यवेक्षण	-7564
ity	-7565
ड़न	-7566
▁डाइ	-7567
▁नाज	-7568
▁मौल	-7569
▁अवयव	-7570
▁आगरा	-7571
▁कन्व	-7572
▁दायरे	-7573
▁दुर्बल	-7574
▁अपशिष्ट	-7575
▁निक्षेप	-7576
▁समावेशी	-7577
िपी	-7578
▁बेज	-7579
▁दादा	-7580
कृष्णन	-7581
▁एजेंट	-7582
▁धारित	-7583
▁सनातन	-7584
▁सेंटर	-7585
▁चुनावों	-7586
▁अभिप्राय	-7587
डू	-7588
ोही	-7589
▁नास	-7590
▁औचित्य	-7591
▁मत्स्य	-7592
▁एमएसएमई	-7593
▁कंपनियां	-7594
▁पारिवारिक	-7595
वाट	-7596
शिप	-7597
ष्मा	-7598
▁आइए	-7599
▁जर्	-7600
▁निकला	-7601
▁बदलना	-7602
▁भागवत	-7603
▁गरीबों	-7604
▁नवीनतम	-7605
▁प्रवास	-7606
▁मजबूती	-7607
ढे	-7608
▁झुक	-7609
▁पदक	-7610
▁अन्न	-7611
▁मिलन	-7612
क्षकों	-7613
▁काटने	-7614
▁तत्पर	-7615
▁सोसाय	-7616
▁उदासीन	-7617
▁हड़ताल	-7618
▁अनुमानित	-7619
▁परिपूर्ण	-7620
▁सत्यापित	-7621
ंसी	-7622
स्थि	-7623
ेलना	-7624
ैर्य	-7625
वर्धन	-7626
▁यथास	-7627
्रीकरण	-7628
▁नर्मदा	-7629
▁प्रवासी	-7630
▁लक्षणों	-7631
▁श्रमिकों	-7632
▁वित्तपोषण	-7633
डक	-7634
गीय	-7635
▁नाथ	-7636
▁फर्	-7637
यंत्र	-7638
ियमित	-7639
▁पाण्ड	-7640
▁विकृत	-7641
▁साधना	-7642
▁समर्थक	-7643
▁काश्मीर	-7644
▁विवेकान	-7645
▁अंतर्विष्ट	-7646
ँगा	-7647
दाई	-7648
सनी	-7649
▁पग	-7650
विजन	-7651
▁गिल	-7652
▁पावर	-7653
▁संजाल	-7654
▁सिंधु	-7655
▁अपीलीय	-7656
ag	-7657
शिला	-7658
सीआई	-7659
▁कैल	-7660
▁वृह	-7661
▁ईमेल	-7662
▁चोरी	-7663
▁फलों	-7664
▁क्रोध	-7665
▁दावों	-7666
▁आरोपों	-7667
▁संपादक	-7668
▁प्रदेशों	-7669
RO	-7670
नाई	-7671
▁तन	-7672
वेदी	-7673
ुल्य	-7674
▁भोग	-7675
▁जबरद	-7676
▁धोखा	-7677
▁वनों	-7678
▁विवश	-7679
▁अस्थिर	-7680
▁आश्चर्यजनक	-7681
ेम	-7682
बंद	-7683
्वत	-7684
कक्ष	-7685
न्दन	-7686
वर्ग	-7687
▁खाद	-7688
▁टेप	-7689
ताबिक	-7690
▁अम्ल	-7691
▁नाना	-7692
▁पांव	-7693
▁पायी	-7694
▁बजाए	-7695
▁दर्जा	-7696
▁श्वसन	-7697
▁इच्छुक	-7698
▁निवेदन	-7699
▁संदिग्ध	-7700
▁क्रियाओं	-7701
▁प्रतिभूतियों	-7702
नेस	-7703
डिंग	-7704
बिया	-7705
▁उलझ	-7706
तीकरण	-7707
र्कों	-7708
ारण्य	-7709
▁जमाने	-7710
▁फांसी	-7711
▁भयानक	-7712
▁सर्वथा	-7713
▁जनजातियों	-7714
िद	-7715
टिक	-7716
लाप	-7717
▁इम	-7718
▁एन्	-7719
▁पवन	-7720
▁अभिनय	-7721
▁चरणों	-7722
▁जमींद	-7723
▁परिधि	-7724
▁मुस्क	-7725
▁आरक्षण	-7726
▁गिरावट	-7727
▁जनजाति	-7728
▁व्	-7729
▁रेट	-7730
वस्थित	-7731
▁आबंटन	-7732
▁स्टाक	-7733
▁मुताबिक	-7734
▁विक्रेता	-7735
▁तित	-7736
▁कराए	-7737
▁अब्दु	-7738
▁एकीकरण	-7739
▁जवाबदे	-7740
▁द्रव्य	-7741
▁मंत्रि	-7742
▁मास्टर	-7743
▁सुश्री	-7744
▁निरूपित	-7745
▁सूचनाओं	-7746
▁तात्पर्य	-7747
▁प्रौद्योगिकियों	-7748
लत	-7749
ुलन	-7750
▁Go	-7751
▁अनदे	-7752
▁आजीव	-7753
▁आन्त	-7754
▁सीडी	-7755
▁शिष्य	-7756
▁स्थाई	-7757
▁अर्द्ध	-7758
▁बंगाली	-7759
▁महर्षि	-7760
▁मंत्रिम	-7761
▁अभिरक्षा	-7762
▁तात्कालिक	-7763
▁संभावनाओं	-7764
कश	-7765
सो	-7766
▁सउ	-7767
कर्म	-7768
▁अटल	-7769
▁दाँ	-7770
स्वती	-7771
▁लेबल	-7772
▁कोष्ठ	-7773
▁टेस्ट	-7774
▁प्रभा	-7775
▁वयस्क	-7776
क्रिप्ट	-7777
▁दंडनीय	-7778
▁दरवाजे	-7779
▁आत्महत्या	-7780
ॉय	-7781
▁फेड	-7782
▁पूरक	-7783
▁ग्रुप	-7784
▁संचरण	-7785
▁वाशिंग	-7786
▁व्यर्थ	-7787
▁चित्रों	-7788
▁सौहार्द	-7789
▁विशेषताओं	-7790
बंदी	-7791
सर्ग	-7792
▁लायक	-7793
▁लेगा	-7794
▁शाही	-7795
▁मूलतः	-7796
▁सूचका	-7797
र्थियों	-7798
▁अनुष्ठ	-7799
▁फ़ॉन्ट	-7800
▁बहुमूल्य	-7801
ap	-7802
▁उतने	-7803
▁आभूषण	-7804
▁मारने	-7805
▁ललिता	-7806
▁कामकाज	-7807
श्र	-7808
▁उज	-7809
म्बित	-7810
▁सुनाई	-7811
▁उद्यमी	-7812
रेन	-7813
्रीट	-7814
▁मुर	-7815
▁वाई	-7816
▁अवगत	-7817
▁पाइप	-7818
▁अवतार	-7819
▁गेहूं	-7820
▁जरुरी	-7821
▁पीड़क	-7822
▁यातना	-7823
▁संस्कार	-7824
ालक	-7825
फ़्ट	-7826
शोधन	-7827
▁ढूँ	-7828
▁बाइ	-7829
▁आज्ञा	-7830
▁घोड़े	-7831
▁जरुरत	-7832
▁बिस्त	-7833
▁सोचना	-7834
▁नाटकीय	-7835
▁स्वदेशी	-7836
भावी	-7837
मुना	-7838
▁पडा	-7839
▁फेर	-7840
▁डिवी	-7841
▁पटेल	-7842
▁छोड़ा	-7843
▁दवाओं	-7844
▁निशान	-7845
▁विकार	-7846
▁बलिदान	-7847
▁नियोजित	-7848
▁प्रशांत	-7849
▁मार्गदर्शक	-7850
ंकि	-7851
तको	-7852
शेर	-7853
िती	-7854
फीति	-7855
▁निब	-7856
▁गोला	-7857
▁जंतु	-7858
▁सटीक	-7859
▁सीखा	-7860
▁बुराई	-7861
▁सच्चा	-7862
▁बढ़ाकर	-7863
▁अधिग्रहण	-7864
▁मास्टर्स	-7865
▁प्रतिवेदन	-7866
▁स्थानांतरण	-7867
▁उठे	-7868
▁बहा	-7869
▁एकड़	-7870
▁लगाई	-7871
▁मुफ्त	-7872
▁उपरांत	-7873
▁पंद्रह	-7874
▁महिलाएं	-7875
▁इश	-7876
▁बक	-7877
ड़की	-7878
यंकर	-7879
ायती	-7880
▁धर्	-7881
▁नली	-7882
▁नाश	-7883
▁पाय	-7884
▁मजा	-7885
▁मौके	-7886
▁वाणी	-7887
▁असंगत	-7888
▁खंडों	-7889
▁खेतों	-7890
▁विकेट	-7891
▁मणिपुर	-7892
▁चुंबकीय	-7893
▁सार्वभौमिक	-7894
em	-7895
वह	-7896
पहर	-7897
सात	-7898
▁कसौ	-7899
▁इण्ड	-7900
▁नींद	-7901
▁लखनऊ	-7902
▁समीप	-7903
▁आँखों	-7904
▁छिद्र	-7905
▁बाजारों	-7906
▁पर्यावरणीय	-7907
ul	-7908
▁रच	-7909
▁ओवर	-7910
▁जोड	-7911
▁पित	-7912
▁बोले	-7913
▁माला	-7914
दृष्टि	-7915
▁खाड़ी	-7916
▁मार्क	-7917
▁अनुभाग	-7918
▁ठहराया	-7919
▁सिनेमा	-7920
थल	-7921
एनए	-7922
चनों	-7923
ापित	-7924
▁ईस्ट	-7925
▁बगैर	-7926
▁इंद्र	-7927
▁उठाकर	-7928
▁बनाएँ	-7929
▁करवाने	-7930
▁ट्रस्ट	-7931
▁लार्वा	-7932
▁अनियमित	-7933
▁सूचकांक	-7934
ef	-7935
डब	-7936
वंत	-7937
स्ट्र	-7938
▁प्रॉ	-7939
▁सूरज	-7940
▁स्पी	-7941
▁चाहें	-7942
▁नजदीक	-7943
▁लेखों	-7944
▁अंतररा	-7945
▁गंतव्य	-7946
▁प्रत्यु	-7947
▁सोसायटी	-7948
▁नियन्त्रण	-7949
आइ	-7950
दह	-7951
▁किर	-7952
▁बला	-7953
▁लहर	-7954
बोर्ड	-7955
श्यों	-7956
▁बशर्	-7957
▁रसीद	-7958
प्रदेश	-7959
ष्णुता	-7960
▁एक्सट	-7961
▁भूकंप	-7962
▁विघटन	-7963
▁अनुबंध	-7964
▁पेड़ों	-7965
▁प्रवाहित	-7966
um	-7967
▁जाप	-7968
▁वाइ	-7969
जपेयी	-7970
▁लिखत	-7971
▁समेत	-7972
▁अरुणा	-7973
▁जोड़ी	-7974
▁स्विच	-7975
▁निरस्त	-7976
▁स्त्रोत	-7977
▁अद्वितीय	-7978
▁बीमाकर्ता	-7979
ुख	-7980
ताई	-7981
िकरण	-7982
ॉर्ट	-7983
▁खनन	-7984
▁जूट	-7985
▁भोज	-7986
▁वां	-7987
▁साख	-7988
त्विक	-7989
▁कारी	-7990
▁घुमा	-7991
▁बालों	-7992
▁भयंकर	-7993
▁रात्रि	-7994
▁संपादन	-7995
▁प्रतिलिपि	-7996
बुल	-7997
▁झट	-7998
▁बैल	-7999
▁रोब	-8000
ंजस्य	-8001
▁जीने	-8002
▁वक्र	-8003
▁बैठकों	-8004
▁सरकारें	-8005
▁सम्भावना	-8006
▁सिफारिशें	-8007
िग	-8008
ate	-8009
कावट	-8010
पत्य	-8011
▁धनी	-8012
▁रिए	-8013
▁किरण	-8014
▁डाली	-8015
▁देहा	-8016
▁बेहत	-8017
▁उपनिष	-8018
▁प्रको	-8019
▁लगेगा	-8020
िष्णुता	-8021
▁अग्रसर	-8022
▁दिखायी	-8023
▁बीमारियों	-8024
▁ऑस्ट्रेलिया	-8025
▁सज	-8026
ारिक	-8027
▁कैसा	-8028
▁रत्न	-8029
ास्टिक	-8030
▁गार्ड	-8031
▁पुकार	-8032
▁बदलते	-8033
▁मुल्क	-8034
▁आचार्य	-8035
▁आत्मनि	-8036
▁छत्तीस	-8037
▁समुच्च	-8038
▁चाहेंगे	-8039
▁प्रभावों	-8040
बुद	-8041
गरीय	-8042
धर्म	-8043
▁खैर	-8044
▁बूट	-8045
▁व्र	-8046
▁स्फ	-8047
वाहिक	-8048
▁दायी	-8049
▁बाबा	-8050
▁सुपर	-8051
▁स्टी	-8052
क्षमता	-8053
स्वामी	-8054
▁गवर्न	-8055
▁अंडमान	-8056
▁आवासीय	-8057
▁विलियम	-8058
▁नीतियां	-8059
▁क्रियाकलापों	-8060
जरी	-8061
लापन	-8062
▁ग्लो	-8063
▁मेनन	-8064
▁सौदा	-8065
▁हटाए	-8066
▁कम्पन	-8067
▁चित्त	-8068
▁फ्रेम	-8069
▁बलराम	-8070
▁सेनाओं	-8071
▁आजीविका	-8072
▁सुभाषबाबू	-8073
▁अंतःस्थापित	-8074
सेन	-8075
▁चट	-8076
ोतरी	-8077
▁चंद	-8078
▁किला	-8079
▁बनती	-8080
नाइटेड	-8081
▁परिपथ	-8082
▁शुष्क	-8083
▁सरलता	-8084
▁हटाना	-8085
▁तेलुगु	-8086
▁दृढ़ता	-8087
▁राजकीय	-8088
▁चित्रित	-8089
▁फिल्मों	-8090
▁वाजपेयी	-8091
▁व्याप्त	-8092
▁उत्पादित	-8093
▁प्रारम्भिक	-8094
AT	-8095
ज़्	-8096
म्पर	-8097
िथ्म	-8098
▁सभ्य	-8099
▁सौदे	-8100
▁गोपाल	-8101
िश्रमिक	-8102
▁मुद्रित	-8103
ॉजी	-8104
▁उजा	-8105
▁साठ	-8106
धियां	-8107
▁अर्जी	-8108
▁पट्टे	-8109
▁पुर्त	-8110
▁भीतरी	-8111
▁स्वाद	-8112
▁हल्के	-8113
▁लाभदायक	-8114
▁सरस्वती	-8115
▁विशेषज्ञता	-8116
▁प्रतिस्थापित	-8117
ोगी	-8118
▁शत	-8119
▁अमीर	-8120
▁चलाए	-8121
▁माया	-8122
▁मेनू	-8123
▁शिरा	-8124
▁सूखे	-8125
▁तार्क	-8126
▁निरोध	-8127
▁पूछताछ	-8128
▁पारिश्रमिक	-8129
जान	-8130
परा	-8131
▁हफ	-8132
माही	-8133
▁अलं	-8134
▁डेल	-8135
▁क्यो	-8136
▁ज्वर	-8137
▁ट्रैक	-8138
▁मशीनों	-8139
▁चमत्कार	-8140
▁स्नातको	-8141
▁क्षेत्रफल	-8142
पृ	-8143
थाम	-8144
▁पंथ	-8145
वश्यक	-8146
▁तरंग	-8147
▁मोती	-8148
▁तालिका	-8149
▁प्रामा	-8150
▁विजेता	-8151
▁उपाध्यक्ष	-8152
▁प्रस्तुति	-8153
▁विशेषताएं	-8154
ट्स	-8155
▁मन्	-8156
▁कुर्	-8157
▁पोषक	-8158
▁बलों	-8159
▁पंचाट	-8160
▁चिंतित	-8161
▁दिलाने	-8162
▁मुद्रण	-8163
▁तीव्रता	-8164
▁दिनांकित	-8165
▁प्रीमियम	-8166
▁रूपांतरण	-8167
▁संभावनाएं	-8168
▁हस्तांतरण	-8169
▁अनुपस्थिति	-8170
▁शांतिपूर्ण	-8171
लम	-8172
वेग	-8173
दायी	-8174
ब्बा	-8175
▁जन्	-8176
▁फिन	-8177
ल्पित	-8178
▁खादी	-8179
▁फैले	-8180
▁बढ़ी	-8181
▁सिलस	-8182
▁अवशेष	-8183
▁डालना	-8184
▁मलयाल	-8185
▁पुर्तग	-8186
▁स्थगित	-8187
राधिकारी	-8188
▁दर्शाया	-8189
▁सिक्किम	-8190
▁आविष्कार	-8191
▁वर्गीकृत	-8192
रात	-8193
िल्ल	-8194
ीलाल	-8195
▁कोण	-8196
▁छोर	-8197
▁लाप	-8198
ल्लाह	-8199
▁कीर्	-8200
▁क्षय	-8201
▁पटना	-8202
▁हमसे	-8203
▁इंस्ट	-8204
▁कारित	-8205
▁पड़ते	-8206
▁उत्पत्ति	-8207
▁रेगिस्तान	-8208
▁ae	-8209
िप्र	-8210
▁अधी	-8211
▁कीं	-8212
नागरी	-8213
नेशनल	-8214
▁टिका	-8215
▁धमकी	-8216
▁धीमी	-8217
▁पद्य	-8218
▁लक्ष्मण	-8219
▁पारिस्थित	-8220
▁अंतर्निहित	-8221
▁राधाकृष्णन	-8222
ER	-8223
लीफ	-8224
लेस	-8225
▁थल	-8226
▁मोन	-8227
▁फर्क	-8228
▁मुआव	-8229
▁मुना	-8230
▁वकाल	-8231
▁हुईं	-8232
▁आंखें	-8233
▁दर्शक	-8234
▁पूँजी	-8235
▁व्यंग	-8236
▁डिवीजन	-8237
▁ब्रिता	-8238
▁शृंखला	-8239
▁ग्रंथों	-8240
ch	-8241
किक	-8242
▁fe	-8243
▁लू	-8244
ष्णा	-8245
▁the	-8246
▁कमर	-8247
▁सघन	-8248
▁सती	-8249
▁खोला	-8250
▁बेशक	-8251
▁युवक	-8252
▁सउदी	-8253
पत्रों	-8254
▁अंशदान	-8255
▁चुपचाप	-8256
▁ताजमहल	-8257
▁माइक्र	-8258
▁व्यायाम	-8259
▁संशोधनों	-8260
ञ्	-8261
जिन	-8262
राग	-8263
वात	-8264
▁अभय	-8265
▁लेट	-8266
त्तूर	-8267
▁सरोज	-8268
▁सिवा	-8269
▁हरित	-8270
▁तुर्क	-8271
▁दोपहर	-8272
▁भ्रमण	-8273
▁मणीलाल	-8274
▁सीरिया	-8275
▁जनजातीय	-8276
▁स्वयंसे	-8277
▁न्यायपीठ	-8278
▁समाविष्ट	-8279
▁हथियारों	-8280
▁स्नातकोत्तर	-8281
बोध	-8282
म्य	-8283
आईटी	-8284
न्सी	-8285
ोग्य	-8286
▁दुष्	-8287
▁ब्रे	-8288
▁यकीन	-8289
▁लेनी	-8290
▁चलाना	-8291
▁मानकर	-8292
▁सुप्र	-8293
▁पर्यटक	-8294
▁नगरपालिका	-8295
▁सहयोगियों	-8296
गीर	-8297
▁लय	-8298
राइट	-8299
हाली	-8300
▁अखंड	-8301
▁क़ुर	-8302
▁समनु	-8303
▁धैर्य	-8304
▁पत्तन	-8305
▁समूचे	-8306
▁प्रिंट	-8307
▁लैंगिक	-8308
▁मॉड्यूल	-8309
▁नियोक्ता	-8310
ायन	-8311
ैंस	-8312
प्रण	-8313
बर्ग	-8314
▁बंदी	-8315
▁शंका	-8316
▁सतत्	-8317
▁हाला	-8318
▁आखिरी	-8319
▁उत्पी	-8320
▁चक्कर	-8321
▁जगहों	-8322
ब्दियों	-8323
▁करूंगा	-8324
▁मुकाबला	-8325
▁समन्वित	-8326
▁प्रसारित	-8327
▁सामंजस्य	-8328
▁हेक्टेयर	-8329
बेट	-8330
रेटर	-8331
वस्तु	-8332
▁बुरे	-8333
▁मापन	-8334
▁मोटी	-8335
▁पढ़ना	-8336
▁नारियल	-8337
▁रोकथाम	-8338
▁सर्किट	-8339
▁इन्होंने	-8340
▁उपक्रमों	-8341
▁सेवानिवृत्त	-8342
्ये	-8343
प्ता	-8344
▁इंच	-8345
▁खाल	-8346
▁नाप	-8347
▁ताजा	-8348
▁बताए	-8349
▁मंदी	-8350
▁सुलह	-8351
▁क्षेञ	-8352
▁ध्येय	-8353
▁फारसी	-8354
▁संसद्	-8355
▁समझती	-8356
ष्ट्रपति	-8357
▁निकोबार	-8358
▁नैतिकता	-8359
▁विश्राम	-8360
▁परंपराओं	-8361
▁पारदर्शी	-8362
▁समितियां	-8363
▁सम्बन्धों	-8364
णीत	-8365
आईसी	-8366
बंधन	-8367
मुक्त	-8368
स्कृत	-8369
▁परमा	-8370
▁पेपर	-8371
▁साइन	-8372
धिकारी	-8373
▁नतीजा	-8374
▁विशेन	-8375
▁तयशुदा	-8376
▁मलयालम	-8377
▁निमंत्र	-8378
▁ब्रितानी	-8379
▁श्रेणियों	-8380
ंजर	-8381
द्घ	-8382
ित्	-8383
▁उब	-8384
▁रथ	-8385
पकों	-8386
देशिक	-8387
हार्य	-8388
▁अमान	-8389
▁कार्ट	-8390
▁दीजिए	-8391
▁रंगों	-8392
▁परिप्रे	-8393
▁प्लास्टिक	-8394
▁उत्तराधिकारी	-8395
रेज	-8396
ान्	-8397
्रल	-8398
▁AR	-8399
▁जह	-8400
ogle	-8401
▁रिव	-8402
द्वार	-8403
▁चाहा	-8404
▁ड्यू	-8405
▁निरी	-8406
▁भण्ड	-8407
▁प्रभु	-8408
ंत्रिकी	-8409
▁अपनाना	-8410
▁जापानी	-8411
▁आधुनिकीकरण	-8412
▁रजिस्ट्रीकृत	-8413
गणना	-8414
ड़ने	-8415
▁पाउ	-8416
▁हॉल	-8417
▁गुस्	-8418
▁चंडी	-8419
▁पुष्	-8420
क्सीजन	-8421
▁चार्ट	-8422
▁दिखता	-8423
▁आबंटित	-8424
▁ग्लोबल	-8425
▁निकाले	-8426
▁पोर्टल	-8427
▁सदियों	-8428
▁एल्गोरिथ्म	-8429
अली	-8430
फलक	-8431
▁यश	-8432
▁वॉ	-8433
▁गरम	-8434
▁शाल	-8435
पतियों	-8436
▁घटकों	-8437
▁प्रोज	-8438
▁भौतिकी	-8439
▁सम्प्र	-8440
▁क्रमांक	-8441
ँट	-8442
ोटा	-8443
ब्रे	-8444
ियाई	-8445
▁मर्	-8446
▁पुरी	-8447
▁काल्प	-8448
▁दुश्म	-8449
▁सहारे	-8450
▁आदर्शों	-8451
▁देवनागरी	-8452
▁शब्दावली	-8453
▁निवासियों	-8454
जीत	-8455
▁II	-8456
शियन	-8457
▁झलक	-8458
▁डूब	-8459
▁रवै	-8460
▁शंक	-8461
▁आयाम	-8462
▁बनते	-8463
▁सूखा	-8464
▁बिस्तर	-8465
▁रिश्वत	-8466
ूद	-8467
नीस	-8468
लेन	-8469
ुरु	-8470
▁खिस	-8471
▁मता	-8472
क्टरी	-8473
▁कहें	-8474
▁यूनिक	-8475
▁विराम	-8476
▁हास्य	-8477
धारियों	-8478
ोल्यूशन	-8479
▁विधिज्ञ	-8480
▁उपन्यासों	-8481
▁पुनर्निर्	-8482
वो	-8483
ठों	-8484
माद	-8485
विड	-8486
▁अने	-8487
▁बसे	-8488
▁युसु	-8489
▁मण्डल	-8490
▁निगमित	-8491
▁उत्प्रे	-8492
▁कृतियों	-8493
▁प्रिंटर	-8494
▁भागीदारों	-8495
भास	-8496
▁ढी	-8497
जारी	-8498
स्तर	-8499
▁नौका	-8500
▁भेड़	-8501
न्दर्य	-8502
▁कामों	-8503
▁लिखें	-8504
▁श्वास	-8505
▁सिंधी	-8506
▁महानिदेशक	-8507
▁मुख्यमंत्री	-8508
मिल	-8509
िमी	-8510
ुवा	-8511
ेरा	-8512
ेली	-8513
ज्जा	-8514
नामा	-8515
ोसिस	-8516
ौर्य	-8517
▁उदर	-8518
▁ऋषि	-8519
▁पिट	-8520
दायगी	-8521
धिकरण	-8522
ेशनों	-8523
▁तिलक	-8524
▁बंगल	-8525
▁रुग्	-8526
▁सुखद	-8527
क्रमित	-8528
▁Google	-8529
▁चट्टान	-8530
▁स्थावर	-8531
▁पर्वतीय	-8532
ia	-8533
▁तद	-8534
चेरी	-8535
ॉक्स	-8536
▁पैट	-8537
▁फ्रा	-8538
▁अपवर्	-8539
▁गर्भव	-8540
▁नोड्स	-8541
▁पुष्ट	-8542
▁मानवा	-8543
▁हल्का	-8544
कारियों	-8545
▁अधिष्ठ	-8546
▁सारांश	-8547
▁स्वार्थ	-8548
▁टेलीविजन	-8549
▁वाशिंगटन	-8550
▁नवान्वेषी	-8551
कै	-8552
वस	-8553
▁कवर	-8554
▁कृषक	-8555
▁जायगा	-8556
▁जिज्ञ	-8557
▁धाराओं	-8558
▁प्ररूप	-8559
▁शासकीय	-8560
▁कित्तूर	-8561
▁अभिलिखित	-8562
▁भूतपूर्व	-8563
▁महाकाव्य	-8564
्यौ	-8565
▁sa	-8566
बारी	-8567
▁आभा	-8568
▁गढ़	-8569
▁नाभ	-8570
▁हुस	-8571
िलोकन	-8572
▁तैना	-8573
▁वाहक	-8574
वर्षीय	-8575
ापूर्ण	-8576
▁अंतरा	-8577
▁क्रोम	-8578
▁रवाना	-8579
▁असंख्य	-8580
▁चिन्ता	-8581
▁नौसेना	-8582
▁प्रेरक	-8583
▁प्रदाता	-8584
▁प्रशासक	-8585
डम	-8586
▁सफ़	-8587
▁ऋणों	-8588
▁गुर्	-8589
▁चालक	-8590
▁परिल	-8591
▁फैली	-8592
▁मृदा	-8593
▁्याय	-8594
▁युग्म	-8595
▁वकालत	-8596
▁वादों	-8597
▁बशर्ते	-8598
▁प्रस्तु	-8599
▁संस्थापक	-8600
▁अतिमानसिक	-8601
▁अब्दुल्ला	-8602
▁न्यूयार्क	-8603
ैश	-8604
जलि	-8605
▁एह	-8606
▁शव	-8607
▁कैर	-8608
▁गोर	-8609
▁मीन	-8610
▁उज्ज	-8611
▁बादल	-8612
्लिकेशन	-8613
▁उपासना	-8614
▁क्रमिक	-8615
▁विद्वत	-8616
▁किनारों	-8617
▁द्वीपों	-8618
▁कार्यपाल	-8619
▁जुर्माना	-8620
▁व्यापारियों	-8621
ub	-8622
लोक	-8623
खाना	-8624
त्सव	-8625
▁घों	-8626
▁टोप	-8627
▁फंड	-8628
▁अविल	-8629
▁गाने	-8630
▁गर्दन	-8631
▁फैसले	-8632
▁परंतुक	-8633
▁राजवंश	-8634
▁नामांकन	-8635
▁प्रत्युत्तर	-8636
डिश	-8637
रीद	-8638
▁एर	-8639
▁फो	-8640
धारक	-8641
कार्य	-8642
▁कृपा	-8643
▁रावण	-8644
▁एक्सप	-8645
▁ख्याल	-8646
▁जीतने	-8647
▁लगाये	-8648
▁उत्थान	-8649
▁मुम्बई	-8650
▁निर्भरता	-8651
▁सौन्दर्य	-8652
▁कार्यकलाप	-8653
गृह	-8654
ुखी	-8655
▁कं	-8656
▁भीम	-8657
▁मदर	-8658
▁हिला	-8659
▁क़्या	-8660
▁खुराक	-8661
▁फीसदी	-8662
▁बेरोज	-8663
▁हममें	-8664
▁तार्किक	-8665
▁दर्शकों	-8666
▁देखेंगे	-8667
▁आस्तियां	-8668
▁प्रामाणिक	-8669
▁अनुप्रयोगों	-8670
aoM	-8671
्टन	-8672
▁ओल	-8673
▁अफसर	-8674
▁किशोर	-8675
▁खेलने	-8676
▁दंडित	-8677
▁परमिट	-8678
▁परिकल	-8679
▁बनाएं	-8680
▁साम्य	-8681
▁उल्लास	-8682
▁विचारा	-8683
▁समनुदेश	-8684
▁क्षेत्रक	-8685
▁कार्मिकों	-8686
ुकला	-8687
▁परो	-8688
▁मनी	-8689
ज्जित	-8690
नियों	-8691
▁पच्च	-8692
▁बेटा	-8693
▁श्या	-8694
▁सुलभ	-8695
▁आक्षेप	-8696
▁ग्रंथि	-8697
▁खाद्यान	-8698
▁सुपुर्दगी	-8699
▁आतंकवादियों	-8700
▁डू	-8701
▁एजे	-8702
▁जगा	-8703
▁जाऊ	-8704
▁शार	-8705
▁तटीय	-8706
▁सोना	-8707
▁कसौटी	-8708
▁केलिए	-8709
▁बुखार	-8710
▁निकलता	-8711
▁व्यतिक	-8712
▁सम्मुख	-8713
▁विशुद्ध	-8714
▁नागरिकता	-8715
थिल	-8716
ल्ले	-8717
्युन	-8718
▁इंट	-8719
▁सीट	-8720
▁अभिम	-8721
▁अभिश	-8722
▁भावा	-8723
▁बहुधा	-8724
▁मंडली	-8725
▁हिमनद	-8726
▁कोरिया	-8727
▁चेन्नई	-8728
▁अप्रत्या	-8729
ँकि	-8730
ंची	-8731
▁जौ	-8732
त्सा	-8733
▁पौरा	-8734
▁बैंड	-8735
▁रसोई	-8736
▁वैसी	-8737
लेरिया	-8738
▁जॉर्ज	-8739
▁प्रोफ़	-8740
▁राजदूत	-8741
▁यथासंभव	-8742
▁उत्तेजित	-8743
▁सद्भावना	-8744
ुए	-8745
क्व	-8746
▁उम	-8747
▁नह	-8748
क्ष्	-8749
दत्त	-8750
्टीट	-8751
▁दाल	-8752
चर्या	-8753
नीकरण	-8754
परेशन	-8755
▁देरी	-8756
▁बंधक	-8757
▁वियत	-8758
▁कोयले	-8759
▁इंतजार	-8760
▁प्रेषण	-8761
▁गर्भवती	-8762
▁निदेशकों	-8763
▁सांविधिक	-8764
▁एक्सटेंशन	-8765
▁विमानक्षेत्र	-8766
st	-8767
आन	-8768
जिर	-8769
▁पठ	-8770
सूरत	-8771
▁जनक	-8772
▁थाः	-8773
्याति	-8774
▁गणेश	-8775
▁दहेज	-8776
▁लड़ा	-8777
▁खुलने	-8778
▁अनुयाय	-8779
▁आश्रित	-8780
▁कर्त्त	-8781
▁डिक्री	-8782
▁देखरेख	-8783
▁आन्तरिक	-8784
▁स्ट्रिंग	-8785
▁महाविद्यालय	-8786
न्ने	-8787
ालेख	-8788
▁आगम	-8789
▁पिर	-8790
▁इनको	-8791
▁निवे	-8792
▁पल्ल	-8793
▁बन्ध	-8794
▁मदों	-8795
▁रिहा	-8796
▁लगों	-8797
▁सोशल	-8798
▁परिमाण	-8799
▁बागवानी	-8800
▁लाभकारी	-8801
▁समुच्चय	-8802
▁व्यवसायी	-8803
▁साधारणतया	-8804
▁मनोवैज्ञानिक	-8805
धरी	-8806
ोनी	-8807
्वल	-8808
टिंग	-8809
वाड़	-8810
ोपाल	-8811
▁छान	-8812
▁लिट	-8813
▁अन्ध	-8814
▁मरने	-8815
▁अनुमत	-8816
▁समरूप	-8817
▁हुसैन	-8818
▁नवाचार	-8819
▁ब्राउज़र	-8820
▁संस्थापन	-8821
▁साझेदारी	-8822
▁प्रदर्शनी	-8823
है	-8824
▁ऊर्	-8825
▁अभिस	-8826
▁असीम	-8827
▁करों	-8828
▁पौधा	-8829
▁महार	-8830
▁पाश्च	-8831
▁मैसूर	-8832
▁आईसीटी	-8833
▁पॉलिसी	-8834
▁आकांक्षाओं	-8835
बंधी	-8836
▁खरा	-8837
▁भाँ	-8838
▁मोल	-8839
▁्या	-8840
▁माउस	-8841
▁साफ़	-8842
▁ग्रिड	-8843
▁तारों	-8844
▁फाउंड	-8845
▁बर्तन	-8846
▁रोकना	-8847
▁निवेशक	-8848
▁वर्षगा	-8849
▁विनम्र	-8850
▁सुंदरता	-8851
▁छत्तीसगढ़	-8852
ॉस	-8853
फ्फ	-8854
▁अलम	-8855
▁हिर	-8856
▁डिज़	-8857
▁बाँध	-8858
क्ताओं	-8859
▁ईरानी	-8860
▁उर्वर	-8861
▁खतरों	-8862
▁नामित	-8863
▁लम्बा	-8864
▁शाश्व	-8865
▁ग्यारह	-8866
▁सेवाएँ	-8867
▁एनआईओएस	-8868
▁प्रमाणन	-8869
▁नामनिर्देश	-8870
▁परिस्थितियां	-8871
ँची	-8872
ध्द	-8873
ोत्	-8874
क्के	-8875
▁हड्ड	-8876
▁चालुक	-8877
▁सहेजें	-8878
▁संप्रती	-8879
▁जानबूझकर	-8880
▁प्रतिमान	-8881
▁प्रेमचन्द	-8882
▁विश्वव्यापी	-8883
ङ्ग	-8884
िगर	-8885
▁ढ़	-8886
▁सत्	-8887
क्रेट	-8888
ट्रिक	-8889
निवेश	-8890
▁तिरु	-8891
▁फ़िर	-8892
▁गुलाम	-8893
▁दशाओं	-8894
▁भिक्ष	-8895
▁मिश्र	-8896
▁विक्ष	-8897
▁उद्धरण	-8898
▁ज़रूरी	-8899
▁दुबारा	-8900
▁निदेशालय	-8901
▁परिप्रेक्ष्य	-8902
▁कमिश	-8903
▁फ्री	-8904
▁बांड	-8905
▁सहभा	-8906
▁जिन्ना	-8907
▁पकड़ने	-8908
▁मुद्रक	-8909
▁सुप्रीम	-8910
▁अहमदाबाद	-8911
▁काल्पनिक	-8912
▁भविष्यवाणी	-8913
▁पुनर्विलोकन	-8914
od	-8915
ोहण	-8916
▁अरे	-8917
▁टाल	-8918
▁तरा	-8919
▁उद्घ	-8920
▁निवल	-8921
▁सपने	-8922
▁इलाके	-8923
▁परवाह	-8924
▁वर्ल्ड	-8925
▁संरक्षक	-8926
▁सिंगापुर	-8927
▁प्रोग्रामिंग	-8928
ोभ	-8929
इंट	-8930
चों	-8931
जील	-8932
▁अमी	-8933
▁घेरे	-8934
▁बताई	-8935
▁हरेक	-8936
पोरेशन	-8937
▁उजागर	-8938
▁खेलों	-8939
▁स्पेन	-8940
▁हफ्ते	-8941
▁घटनाएं	-8942
▁दिशानि	-8943
▁निरर्थ	-8944
▁आवृत्ति	-8945
▁पात्रों	-8946
▁बाध्यता	-8947
▁कन्वेंशन	-8948
▁वास्तुकला	-8949
▁प्रतिपूर्ति	-8950
▁ञ	-8951
लाभ	-8952
▁or	-8953
य्या	-8954
ालीस	-8955
▁अंज	-8956
▁हनु	-8957
▁अंडा	-8958
▁ढलान	-8959
▁सचेत	-8960
▁दिखाना	-8961
▁स्वर्गी	-8962
▁अत्याचार	-8963
▁मानचित्र	-8964
▁मध्यवर्ती	-8965
▁खाम	-8966
▁झेल	-8967
▁मौन	-8968
▁शिल	-8969
▁कपास	-8970
▁ब्ला	-8971
▁श्ले	-8972
▁सजीव	-8973
▁डालता	-8974
▁डालते	-8975
▁डीएनए	-8976
▁वर्षीय	-8977
▁व्यतीत	-8978
▁सीमेंट	-8979
▁पौराणिक	-8980
▁करनेवाले	-8981
▁प्रायोजित	-8982
▁अप्रत्याशित	-8983
ee	-8984
कथित	-8985
जिये	-8986
▁अड़	-8987
▁हज़	-8988
▁कटाई	-8989
▁निःश	-8990
▁पीछा	-8991
▁शर्म	-8992
▁धूम्र	-8993
▁बैठकर	-8994
▁शिश्न	-8995
▁कानपुर	-8996
▁मानवाधिकार	-8997
रणीय	-8998
ुदेव	-8999
▁नाव	-9000
▁बाघ	-9001
षिद्ध	-9002
िश्रण	-9003
▁गायब	-9004
▁दस्त	-9005
▁वल्ल	-9006
▁कालाव	-9007
▁यमुना	-9008
▁सब्सि	-9009
▁अस्त्र	-9010
▁स्नायु	-9011
▁फाउंडेशन	-9012
▁यूनाइटेड	-9013
▁रजिस्ट्र	-9014
▁स्वर्गीय	-9015
▁कार्यकर्ताओं	-9016
’’	-9017
▁छल	-9018
गरों	-9019
▁असा	-9020
▁इटली	-9021
▁घंटा	-9022
▁चार्	-9023
▁तेजा	-9024
▁कन्या	-9025
▁बढाने	-9026
▁ख्याति	-9027
▁दिशाओं	-9028
▁अरुणाचल	-9029
▁वैधानिक	-9030
▁पासपोर्ट	-9031
▁दिशानिर्देश	-9032
दो	-9033
ॉं	-9034
्क	-9035
ाम्	-9036
ूति	-9037
▁खुदरा	-9038
▁जिक्र	-9039
▁पक्का	-9040
▁रियास	-9041
▁जंगलों	-9042
▁मतदाता	-9043
▁आश्वस्त	-9044
▁अनुरक्षण	-9045
▁उत्तेजना	-9046
▁क्रमादेश	-9047
▁आत्मनिर्भ	-9048
▁अनुयायियों	-9049
ंगर	-9050
ंदे	-9051
भीत	-9052
मयी	-9053
▁अछ	-9054
▁असु	-9055
▁कैप	-9056
▁समन	-9057
न्नति	-9058
▁निका	-9059
▁ऑपरेट	-9060
▁गुप्ता	-9061
▁जोरदार	-9062
▁विवेका	-9063
▁अधिकथित	-9064
▁पूर्वानु	-9065
▁यांत्रिक	-9066
▁संदर्भित	-9067
▁पंचवर्षीय	-9068
▁राष्ट्रीयता	-9069
यो	-9070
गोश	-9071
▁शाक	-9072
▁हेम	-9073
▁रूसी	-9074
▁पहलों	-9075
▁क्योकि	-9076
▁लक्षित	-9077
▁कलात्मक	-9078
▁खुशहाली	-9079
▁तकनीकों	-9080
▁कलाकारों	-9081
▁कार्यशाला	-9082
कूट	-9083
च्य	-9084
▁उपजा	-9085
▁मेले	-9086
▁लीला	-9087
▁सर्प	-9088
▁जयपुर	-9089
▁मुर्ग	-9090
▁लगाते	-9091
▁नियोजक	-9092
▁स्वरुप	-9093
बिट	-9094
ोंग	-9095
▁aa	-9096
▁कछ	-9097
माना	-9098
ोगिक	-9099
▁दीन	-9100
▁अंगी	-9101
▁चिट्	-9102
▁पद्म	-9103
▁Chrom	-9104
▁जीवनी	-9105
▁रक्षक	-9106
▁तत्समय	-9107
▁बिहारी	-9108
▁भाइयों	-9109
▁शाश्वत	-9110
▁अवस्थाओं	-9111
▁पंचायतों	-9112
▁पत्तियों	-9113
▁अपरिहार्य	-9114
डेट	-9115
ोधी	-9116
▁कस्	-9117
▁झार	-9118
▁भला	-9119
▁लाज	-9120
▁शिर	-9121
बिनेट	-9122
▁उभार	-9123
▁मादक	-9124
▁रूढ़	-9125
▁शाहज	-9126
▁जिनको	-9127
▁नाजुक	-9128
▁निष्क	-9129
▁मक्का	-9130
▁छुटकारा	-9131
▁निम्नतर	-9132
▁वृक्षों	-9133
▁समाजवाद	-9134
▁पीड़ितों	-9135
▁श्रद्धां	-9136
▁श्रीकृष्ण	-9137
▁शताब्दियों	-9138
▁अर्थशास्त्र	-9139
षद	-9140
णीय	-9141
मुझे	-9142
रहित	-9143
ात्य	-9144
▁com	-9145
▁अन्	-9146
▁डिब	-9147
▁नक़	-9148
▁बाप	-9149
▁चढ़ा	-9150
▁दरें	-9151
▁बस्त	-9152
▁सिटी	-9153
▁कब्जे	-9154
▁निपटा	-9155
▁निषेध	-9156
▁माणिक	-9157
▁जागरूक	-9158
▁अभिनेता	-9159
▁जुर्माने	-9160
▁समायोजित	-9161
▁साम्राज्यवाद	-9162
ंशी	-9163
▁हौ	-9164
▁एटी	-9165
▁कंक	-9166
▁खाई	-9167
▁शैल	-9168
त्रिक	-9169
▁जवान	-9170
▁तरफ़	-9171
▁पूछे	-9172
▁बढ़ना	-9173
▁दर्शित	-9174
▁हालाँकि	-9175
▁प्रतिबंधित	-9176
्तों	-9177
▁इलै	-9178
▁खुर	-9179
▁घेर	-9180
▁बिछ	-9181
▁साई	-9182
▁आलोक	-9183
▁चौथे	-9184
▁चौदह	-9185
▁सबका	-9186
▁स्का	-9187
▁आंत्र	-9188
▁दर्जे	-9189
▁यौगिक	-9190
▁सापेक्ष	-9191
▁त्रिपुरा	-9192
कने	-9193
ग्व	-9194
▁टूल	-9195
▁दुक	-9196
▁बगी	-9197
▁लौह	-9198
भक्ति	-9199
विन्द	-9200
▁डिजी	-9201
▁धुंध	-9202
▁क्लास	-9203
▁मुर्गी	-9204
▁लाभप्रद	-9205
▁अपेक्षाओं	-9206
थर	-9207
सम्	-9208
▁गंग	-9209
▁रेत	-9210
त्नों	-9211
▁ठेके	-9212
▁फार्	-9213
▁मुहा	-9214
▁रोटी	-9215
▁संसू	-9216
वर्तित	-9217
▁चुनने	-9218
▁चौथाई	-9219
▁तुलसी	-9220
▁स्क्र	-9221
▁ऑपरेशन	-9222
▁पहचाना	-9223
▁प्रचलन	-9224
▁बढ़िया	-9225
▁संकेतों	-9226
▁इस्लामिक	-9227
ोफ	-9228
सेफ	-9229
ीदा	-9230
ूरक	-9231
▁कैद	-9232
▁एंटी	-9233
▁मामल	-9234
▁अहसास	-9235
▁एकांत	-9236
▁जातीय	-9237
▁पश्चा	-9238
▁पंचांग	-9239
▁इकाइयां	-9240
▁मेगावाट	-9241
▁संस्थित	-9242
ob	-9243
ँव	-9244
ढी	-9245
ist	-9246
कोच	-9247
ीयों	-9248
▁फोल्डर	-9249
▁महाप्र	-9250
▁परिपत्र	-9251
▁स्मार्ट	-9252
▁प्रतिरूप	-9253
▁परिपक्वता	-9254
▁सशक्तीकरण	-9255
▁साफ्टवेयर	-9256
नक	-9257
तुर	-9258
ारस	-9259
्यूम	-9260
▁तूफ	-9261
▁बकर	-9262
▁आएगा	-9263
▁गाथा	-9264
▁पारे	-9265
▁मारा	-9266
▁विषम	-9267
▁कथाओं	-9268
▁करुणा	-9269
▁डेविड	-9270
▁नगरों	-9271
▁अरविंद	-9272
▁आदिवासी	-9273
▁इंस्टीट	-9274
▁पहुँचने	-9275
▁स्टार्ट	-9276
▁स्तंभों	-9277
▁विशिष्टता	-9278
▁आत्मविश्वास	-9279
खल	-9280
तौर	-9281
मील	-9282
यता	-9283
▁कुर	-9284
▁झूठ	-9285
▁टैग	-9286
▁फ़र	-9287
▁हर्	-9288
मेन्ट	-9289
▁दलील	-9290
स्फीति	-9291
▁बस्ती	-9292
▁बैटरी	-9293
▁मल्टी	-9294
▁वेदों	-9295
▁कराधान	-9296
▁जुटाने	-9297
▁वर्षगांठ	-9298
ँसी	-9299
ुका	-9300
▁आदम	-9301
▁अनुभ	-9302
▁अस्व	-9303
▁त्यो	-9304
▁दादी	-9305
▁पीले	-9306
▁व्रत	-9307
▁समया	-9308
▁अपहरण	-9309
▁क्रिस	-9310
▁तुल्य	-9311
▁नामंज	-9312
▁बूढ़े	-9313
▁मंजिल	-9314
▁सीखना	-9315
▁गर्भाव	-9316
▁जोड़ना	-9317
▁उच्छेदन	-9318
▁पूंजीगत	-9319
▁राजनयिक	-9320
▁सैकड़ों	-9321
▁धूम्रपान	-9322
▁प्रेमचंद	-9323
▁व्यक़्ति	-9324
▁भावनात्मक	-9325
EE	-9326
डित	-9327
वटी	-9328
ंदाज	-9329
▁तैर	-9330
वालों	-9331
मुक्ति	-9332
▁नम्बर	-9333
▁बढावा	-9334
▁लीजिए	-9335
िपीडिया	-9336
▁करवाया	-9337
▁चेष्टा	-9338
▁मेडिकल	-9339
▁केन्द्री	-9340
▁प्रॉक्सी	-9341
▁अधिनिर्णय	-9342
▁सहिष्णुता	-9343
▁श्रद्धांजलि	-9344
▁ओज	-9345
▁डु	-9346
▁’’	-9347
ालाल	-9348
ूंगी	-9349
▁अवश	-9350
▁भटक	-9351
▁मसौ	-9352
नीयता	-9353
▁म्यू	-9354
▁लोहे	-9355
▁विस्	-9356
पक्षीय	-9357
▁ऊँचाई	-9358
▁खर्चा	-9359
▁जरिये	-9360
▁पाएंगे	-9361
▁प्रोफाइल	-9362
▁सिद्धदोष	-9363
▁प्रादेशिक	-9364
▁कार्यकर्ता	-9365
ey	-9366
▁ओं	-9367
▁बछ	-9368
बाज़	-9369
▁चौक	-9370
▁लूट	-9371
पृष्ठ	-9372
विदों	-9373
ोरिया	-9374
▁उठाते	-9375
▁कराते	-9376
▁भयभीत	-9377
▁वैद्य	-9378
▁पहुँचे	-9379
▁प्रकटन	-9380
▁अखबारों	-9381
▁अभयारण्य	-9382
▁संक्रामक	-9383
▁सब्जियों	-9384
▁बुद्धिमान	-9385
ंजक	-9386
मैं	-9387
सीए	-9388
सूची	-9389
▁खां	-9390
▁दुस	-9391
▁नाच	-9392
▁उड़ा	-9393
▁ऑफिस	-9394
▁हमास	-9395
▁झुकाव	-9396
▁तलवार	-9397
▁पर्दा	-9398
▁वर्गम	-9399
▁वर्गा	-9400
▁अल्लाह	-9401
▁तिमाही	-9402
▁किस्मों	-9403
▁पृष्ठों	-9404
▁कामगारों	-9405
▁कट्टरपंथी	-9406
▁अत्यावश्यक	-9407
ंन	-9408
फु	-9409
मह	-9410
ल्थ	-9411
स्स	-9412
चकों	-9413
जन्य	-9414
ुकता	-9415
▁जनन	-9416
▁टेक	-9417
▁टोक	-9418
प्रति	-9419
▁करोड	-9420
▁पतली	-9421
▁लाये	-9422
▁डालें	-9423
▁दुर्ग	-9424
▁पत्ते	-9425
▁रोबोट	-9426
▁एकाग्र	-9427
▁कविताएं	-9428
▁वर्गमूल	-9429
▁वियतनाम	-9430
▁प्रभारित	-9431
डोर	-9432
▁कत	-9433
ment	-9434
गारी	-9435
मिया	-9436
समूह	-9437
▁लसी	-9438
▁NAME	-9439
▁चाचा	-9440
▁पैदल	-9441
▁राजप	-9442
ड़ियां	-9443
▁कुष्ठ	-9444
▁गिनती	-9445
▁धरोहर	-9446
वर्सिटी	-9447
▁दिखाता	-9448
▁मापदंड	-9449
▁विलम्ब	-9450
▁समकक्ष	-9451
▁हाइड्र	-9452
▁विलक्षण	-9453
ंतक	-9454
झान	-9455
▁लह	-9456
▁PRO	-9457
▁चैन	-9458
▁सिग	-9459
▁असुर	-9460
▁इजाज	-9461
▁इसमे	-9462
▁कलाम	-9463
▁घिरा	-9464
▁चरित	-9465
▁नोडल	-9466
▁साहा	-9467
▁आँखें	-9468
▁इंसान	-9469
▁सेकंड	-9470
▁होस्ट	-9471
त्तियां	-9472
▁ड्रग्स	-9473
▁कालावधि	-9474
▁वचनबद्ध	-9475
▁प्रबन्धन	-9476
▁संक्रमित	-9477
ph	-9478
ुज	-9479
▁चढ	-9480
▁नहर	-9481
▁वोट	-9482
▁सिम	-9483
▁हुक	-9484
▁हें	-9485
्लेषण	-9486
▁आईडी	-9487
▁क्षै	-9488
▁प्रक	-9489
▁मेला	-9490
णात्मक	-9491
▁अंकों	-9492
▁कार्प	-9493
▁खरगोश	-9494
▁चालीस	-9495
▁वेस्ट	-9496
▁नीलामी	-9497
▁भूमिगत	-9498
▁मुखिया	-9499
▁अनुयायी	-9500
▁तथाकथित	-9501
▁त्योहार	-9502
▁शीघ्रता	-9503
▁न्यायोचित	-9504
▁प्रतिष्ठान	-9505
ख्श	-9506
गिन	-9507
षाण	-9508
वाइस	-9509
▁पला	-9510
▁बाण	-9511
▁सरो	-9512
▁सिड	-9513
▁अम्ब	-9514
▁निया	-9515
▁फ़ाइ	-9516
▁मधुम	-9517
▁अपनाए	-9518
▁अभ्या	-9519
▁ग्रेड	-9520
▁वायदा	-9521
▁दिवसीय	-9522
▁किताबें	-9523
▁अपराधियों	-9524
▁पाश्चात्य	-9525
ंए	-9526
खने	-9527
जना	-9528
ेषण	-9529
▁कक	-9530
िपरि	-9531
▁उठी	-9532
▁कौर	-9533
▁फीट	-9534
▁रुख	-9535
ारायण	-9536
▁आप्र	-9537
▁इष्ट	-9538
▁जीता	-9539
▁साम्	-9540
स्तरीय	-9541
▁दुर्व	-9542
▁परिशि	-9543
▁पसन्द	-9544
▁बदलती	-9545
▁बारिश	-9546
▁ब्लॉक	-9547
▁अकादमिक	-9548
▁निरर्थक	-9549
▁फ़ाइलें	-9550
▁बुद्धिम	-9551
▁सब्सिडी	-9552
▁कहानियां	-9553
▁परिष्कृत	-9554
▁पहाड़ियों	-9555
जय	-9556
ंबू	-9557
ीर्ण	-9558
ोत्त	-9559
तालों	-9560
विवाह	-9561
ोलॉजी	-9562
▁ठंडा	-9563
▁फर्श	-9564
▁संकर	-9565
▁सपना	-9566
▁छोड़े	-9567
▁ज़मीन	-9568
▁पेरिस	-9569
▁विनोद	-9570
▁वृक्क	-9571
▁स्थाय	-9572
▁यूनानी	-9573
▁निर्देशक	-9574
▁प्रतिवाद	-9575
▁संतोषजनक	-9576
▁रिपोर्टों	-9577
▁तत्पश्चात्	-9578
▁सेवानिवृत्ति	-9579
ct	-9580
ेतन	-9581
▁गली	-9582
▁वरन	-9583
▁अंचल	-9584
▁कशेर	-9585
▁पहने	-9586
▁फ़ोन	-9587
फ्रेंस	-9588
▁इजाजत	-9589
▁जार्ज	-9590
▁मैथुन	-9591
▁समाना	-9592
▁नोकिया	-9593
▁प्रशंस	-9594
▁महाराज	-9595
▁वकीलों	-9596
▁पैदावार	-9597
▁सुलझाने	-9598
▁विकिपीडिया	-9599
CT	-9600
pp	-9601
नगर	-9602
िंट	-9603
▁यहा	-9604
▁क्षी	-9605
▁छुपा	-9606
▁ज़ोर	-9607
▁दुखद	-9608
्रेषित	-9609
▁चार्ज	-9610
▁दीवान	-9611
▁नियति	-9612
▁सेक्स	-9613
▁हालात	-9614
ोनेशिया	-9615
▁Chrome	-9616
▁कॉन्फ़	-9617
▁तालमेल	-9618
▁तुम्हे	-9619
▁पराजित	-9620
▁पैटर्न	-9621
▁कोशिकाएं	-9622
▁वर्गाकार	-9623
▁विकल्पों	-9624
डीए	-9625
भवन	-9626
ूपी	-9627
ेता	-9628
▁असंग	-9629
▁त्यौ	-9630
▁शॉर्ट	-9631
▁अनुरुप	-9632
▁ग्रीवा	-9633
▁योद्धा	-9634
▁कैबिनेट	-9635
▁ट्रैकिंग	-9636
▁मानदंडों	-9637
▁एप्लिकेशन	-9638
▁निस्संदेह	-9639
▁मंत्रिपरि	-9640
▁विचाराधीन	-9641
and	-9642
मेव	-9643
्यूल	-9644
▁आरा	-9645
▁तीर	-9646
▁मेह	-9647
▁वॉल	-9648
▁शिष	-9649
शिल्प	-9650
▁फायर	-9651
▁इन्टर	-9652
▁इन्कार	-9653
▁उन्नीस	-9654
▁महत्वा	-9655
▁दुकानों	-9656
▁पात्रता	-9657
▁एवोल्यूशन	-9658
▁सृजनात्मक	-9659
दशा	-9660
▁st	-9661
▁आंग	-9662
▁कमल	-9663
▁फोट	-9664
▁बगल	-9665
▁ब्ले	-9666
▁वर्क	-9667
कुमारी	-9668
ावस्था	-9669
▁अनधिक	-9670
▁करेंः	-9671
▁सिन्ध	-9672
▁अमान्य	-9673
▁महासभा	-9674
▁पीढ़ियों	-9675
तू	-9676
ड़ो	-9677
चालय	-9678
दमों	-9679
पीएस	-9680
▁नित	-9681
▁फंस	-9682
▁फलक	-9683
▁रूट	-9684
▁वक्ष	-9685
▁सादा	-9686
▁हाइड	-9687
म्परिक	-9688
▁उपांत	-9689
▁दिखने	-9690
▁बैठने	-9691
▁अशुद्ध	-9692
▁विराट्	-9693
▁श्रव्य	-9694
▁स्वराज	-9695
▁असमानता	-9696
▁जातियां	-9697
▁पसंदीदा	-9698
▁उपराष्ट्रपति	-9699
ंबन	-9700
भ्र	-9701
मंद	-9702
▁अवह	-9703
▁पैन	-9704
▁बेन	-9705
▁भया	-9706
▁साप	-9707
द्रता	-9708
ध्याय	-9709
▁उष्ण	-9710
▁महास	-9711
▁जमारा	-9712
▁द्रुत	-9713
▁कम्युन	-9714
▁वास्तु	-9715
▁विरचित	-9716
▁हिम्मत	-9717
▁पक्षपात	-9718
▁पत्थरों	-9719
▁संभवतया	-9720
▁निमंत्रण	-9721
▁यहूदियों	-9722
▁विजेताओं	-9723
▁प्रक्षेपण	-9724
▁मंत्रिमंडल	-9725
▁बृ	-9726
ण्डे	-9727
▁पठन	-9728
▁अठार	-9729
▁उपगत	-9730
▁जोशी	-9731
▁ठरोग	-9732
▁मुसी	-9733
▁लीटर	-9734
सिद्धि	-9735
▁भाँति	-9736
▁रंगीन	-9737
▁आधारों	-9738
▁खिड़की	-9739
▁नामंजूर	-9740
▁राज्यसभा	-9741
▁कम्युनिस्ट	-9742
ँघ	-9743
चिव	-9744
▁ठा	-9745
▁कटि	-9746
▁कैन	-9747
▁दूत	-9748
▁नाइ	-9749
थियों	-9750
▁छाती	-9751
▁दुखी	-9752
▁लुप्त	-9753
▁अपीलों	-9754
▁निकलना	-9755
▁विफलता	-9756
▁अफ्रीकी	-9757
▁ड्राफ्ट	-9758
▁त्यौहार	-9759
▁दोहराया	-9760
▁तुलनात्मक	-9761
ND	-9762
महा	-9763
गांव	-9764
ब्लू	-9765
▁कपट	-9766
▁डेन	-9767
▁बें	-9768
▁केबल	-9769
▁खगोल	-9770
▁नीले	-9771
ब्रेरी	-9772
▁उद्गम	-9773
▁बेलार	-9774
▁शिविर	-9775
▁चीज़ें	-9776
▁छोड़ना	-9777
▁तीक्ष्	-9778
▁मेहरअली	-9779
▁साम्राज़	-9780
▁किरायेदार	-9781
▁पंक्तियों	-9782
▁पूर्वानुमान	-9783
दगी	-9784
▁वग	-9785
र्पण	-9786
ुद्र	-9787
▁खली	-9788
▁नेप	-9789
▁समत	-9790
▁सिं	-9791
▁सॉल	-9792
▁भलाई	-9793
▁वादा	-9794
▁पित्त	-9795
▁सुनते	-9796
▁असंतोष	-9797
▁कमजोरी	-9798
▁जनगणना	-9799
▁विकृति	-9800
▁शिशुओं	-9801
▁साहसिक	-9802
▁ग्रीष्म	-9803
▁सुविधाजनक	-9804
▁संरचनात्मक	-9805
यह	-9806
ोंक	-9807
▁लट	-9808
▁con	-9809
▁दीं	-9810
▁निम	-9811
▁पसी	-9812
▁फास	-9813
▁मरण	-9814
ालैंड	-9815
ोजकों	-9816
▁खोले	-9817
▁जुटा	-9818
▁इरादा	-9819
▁सांसद	-9820
▁निकासी	-9821
▁अक्षरों	-9822
▁कार्यकरण	-9823
▁विश्वयुद्ध	-9824
▁शल्यक्रिया	-9825
सक	-9826
बुक	-9827
भंग	-9828
रिश	-9829
ापक	-9830
तत्व	-9831
▁एकक	-9832
▁पदो	-9833
▁मित	-9834
▁वात	-9835
दुनाथ	-9836
ान्ति	-9837
▁मोटा	-9838
ग्राही	-9839
▁औषधीय	-9840
▁कराती	-9841
▁पारसी	-9842
▁पेशकश	-9843
▁हाजिर	-9844
▁चीज़ों	-9845
▁रामलिंग	-9846
▁परिवीक्षा	-9847
गाव	-9848
िकों	-9849
▁जेर	-9850
ग्राफ	-9851
देशीय	-9852
पातिक	-9853
विज्ञ	-9854
▁भत्ते	-9855
▁मनाने	-9856
▁सज्जन	-9857
▁सुस्प	-9858
▁हिंसक	-9859
▁नाइट्र	-9860
▁बाधाओं	-9861
▁अक्षमता	-9862
▁दर्शाती	-9863
▁प्रतियां	-9864
▁विधेयकों	-9865
▁पत्रिकाओं	-9866
तिज	-9867
बली	-9868
▁St	-9869
▁	-9870
ा	-9871
क	-9872
र	-9873
्	-9874
े	-9875
ि	-9876
न	-9877
स	-9878
त	-9879
ं	-9880
ी	-9881
ह	-9882
य	-9883
म	-9884
प	-9885
ो	-9886
व	-9887
ल	-9888
द	-9889
ज	-9890
ग	-9891
ै	-9892
ु	-9893
ब	-9894
#	-9895
अ	-9896
श	-9897
ध	-9898
ए	-9899
च	-9900
भ	-9901
।	-9902
थ	-9903
ू	-9904
ट	-9905
,	-9906
ष	-9907
उ	-9908
आ	-9909
ण	-9910
ड	-9911
औ	-9912
इ	-9913
ख	-9914
.	-9915
़	-9916
-	-9917
ई	-9918
फ	-9919
छ	-9920
ृ	-9921
)	-9922
(	-9923
ौ	-9924
ओ	-9925
ठ	-9926
घ	-9927
ँ	-9928
ऐ	-9929
ढ	-9930
झ	-9931
ः	-9932
ॉ	-9933
'	-9934
ञ	-9935
a	-9936
e	-9937
;	-9938
/	-9939
i	-9940
ऊ	-9941
s	-9942
:	-9943
?	-9944
t	-9945
o	-9946
r	-9947
n	-9948
ऋ	-9949
”	-9950
l	-9951
“	-9952
ऑ	-9953
%	-9954
m	-9955
c	-9956
d	-9957
‘	-9958
>	-9959
h	-9960
"	-9961
&	-9962
A	-9963
u	-9964
’	-9965
E	-9966
p	-9967
S	-9968
I	-9969
g	-9970
!	-9971
T	-9972
<	-9973
f	-9974
R	-9975
y	-9976
v	-9977
C	-9978
M	-9979
b	-9980
P	-9981
N	-9982
–	-9983
w	-9984
O	-9985
k	-9986
L	-9987
D	-9988
]	-9989
[	-9990
x	-9991
B	-9992
_	-9993
ङ	-9994
G	-9995
