<unk>	0
<s>	0
</s>	0
UuRrLl	0
DdAaTtEe	0
NnUuMm	0
▁के	-3.42064
▁	-3.66813
▁।	-3.77145
▁है	-3.7897
▁,	-3.86898
▁में	-3.87603
▁की	-4.05733
▁और	-4.21912
▁से	-4.39356
▁का	-4.41883
▁को	-4.43343
▁.	-4.68944
▁-	-4.77732
▁हैं	-4.9106
ों	-4.94754
▁पर	-5.00164
▁एक	-5.00569
▁लिए	-5.04874
▁कि	-5.10203
0	-5.1289
ी	-5.30413
▁यह	-5.34014
▁)	-5.37737
▁नहीं	-5.3811
▁(	-5.38925
▁भी	-5.42951
▁किया	-5.47398
▁इस	-5.47403
▁या	-5.48708
▁करने	-5.49668
▁जो	-5.58267
▁हो	-5.58376
▁ने	-5.64006
▁कर	-5.6461
ा	-5.75141
▁था	-5.797
▁तथा	-5.8162
▁ही	-5.81797
न	-5.86802
▁गया	-5.92529
▁किसी	-6.0232
ता	-6.02408
▁द्वारा	-6.04089
▁तो	-6.04437
क	-6.0447
▁रूप	-6.07929
▁वह	-6.1109
▁अपने	-6.16079
े	-6.20808
1	-6.20853
▁साथ	-6.25547
▁भारत	-6.28976
▁न	-6.32602
▁जा	-6.33446
▁जाता	-6.38977
▁तक	-6.4011
▁करना	-6.41755
▁थे	-6.43681
▁वे	-6.44428
र	-6.44634
▁कुछ	-6.45695
▁'	-6.46022
ना	-6.47646
▁कोई	-6.48007
ं	-6.5285
▁होता	-6.53427
▁दिया	-6.5368
▁सकता	-6.57977
स	-6.58408
▁हम	-6.59053
▁;	-6.61222
▁थी	-6.62752
ने	-6.6381
ल	-6.64544
▁समय	-6.64964
म	-6.67117
▁करते	-6.68062
▁हुए	-6.69631
▁अधिक	-6.69666
▁/	-6.70322
▁मैं	-6.71061
▁करता	-6.71959
▁आप	-6.72023
▁जब	-6.74665
त	-6.74823
ित	-6.75347
▁अन्य	-6.77942
▁अपनी	-6.78127
▁चाहिए	-6.79631
▁उस	-6.80125
▁उनके	-6.84883
▁रहा	-6.8531
▁बहुत	-6.86129
ो	-6.8626
▁?	-6.86989
▁:	-6.87295
▁वाले	-6.87808
▁कार्य	-6.88717
▁होने	-6.8875
▁गई	-6.91222
▁रहे	-6.91645
ओं	-6.91794
ि	-6.92475
▁राज्य	-6.92861
▁सभी	-6.93089
▁बाद	-6.93271
▁जाने	-6.93467
▁कहा	-6.93804
▁प्रकार	-6.94138
2	-6.94507
▁उसके	-6.94647
▁ऐसे	-6.98335
▁होती	-6.9863
▁प्राप्त	-6.99586
्	-6.99686
▁कम	-7.0073
▁इन	-7.01161
▁सरकार	-7.01847
▁आ	-7.02835
कर	-7.03834
ियों	-7.04142
▁तरह	-7.04928
▁क्षेत्र	-7.05154
व	-7.05237
▁होगा	-7.05428
▁हुआ	-7.05563
▁अ	-7.06056
▁गए	-7.06501
▁भारतीय	-7.06916
▁इसके	-7.07558
▁राष्ट्रपति	-7.07569
▁प्रति	-7.07932
▁सकते	-7.0828
▁एवं	-7.08312
▁कारण	-7.08479
▁उसे	-7.0857
ते	-7.08952
▁किए	-7.09342
▁उन्हें	-7.10615
▁उन्होंने	-7.11364
▁विकास	-7.11614
▁बात	-7.11642
▁करें	-7.12316
▁दो	-7.12496
▁यदि	-7.12554
▁क्या	-7.12824
▁व्यक्ति	-7.12942
▁अधिनियम	-7.13073
▁देश	-7.14054
▁धारा	-7.14275
▁पहले	-7.1444
ट	-7.15252
प	-7.16396
▁न्यायालय	-7.17417
▁लेकिन	-7.18659
▁दी	-7.19489
▁ऐसा	-7.19499
य	-7.21184
▁वर्ष	-7.21485
▁जाती	-7.23826
द	-7.24866
▁ऐसी	-7.25175
▁लोगों	-7.27145
ज	-7.27244
▁जीवन	-7.27322
▁अब	-7.28251
▁बारे	-7.28562
▁हमारे	-7.29215
▁ये	-7.29383
ीय	-7.29412
ः	-7.31067
ें	-7.31068
▁उनकी	-7.31625
▁क	-7.32596
▁काम	-7.32976
▁जैसे	-7.3328
िक	-7.33747
ब	-7.33942
▁होते	-7.3595
▁नाम	-7.36168
▁अधीन	-7.37791
▁ओर	-7.38245
श	-7.38686
▁मुझे	-7.38733
▁सी	-7.38777
▁पूर्व	-7.39293
▁फिर	-7.39335
▁केवल	-7.39539
ह	-7.40154
▁हुई	-7.40269
ग	-7.4032
▁जाना	-7.4131
▁रही	-7.41392
▁बार	-7.42338
ती	-7.42522
▁बीच	-7.44325
▁प्रदान	-7.44687
▁भाग	-7.45448
▁व	-7.45847
▁उन	-7.47748
ड	-7.49543
▁अथवा	-7.50176
▁देने	-7.50344
▁सं	-7.50346
▁ए	-7.50604
▁विचार	-7.50766
▁प्रयोग	-7.50799
▁“	-7.51992
▁वाली	-7.52466
ण	-7.52894
▁जिसमें	-7.54383
▁जहां	-7.56055
▁दोनों	-7.56702
▁मे	-7.56737
▁सकती	-7.57148
▁पास	-7.57161
▁ले	-7.57382
री	-7.58003
▁प्र	-7.58028
▁वि	-7.58197
ई	-7.5896
3	-7.59005
▁करती	-7.59519
▁राष्ट्रीय	-7.59581
▁इसे	-7.59644
्य	-7.59701
▁तब	-7.59721
▁संबंध	-7.60171
▁स	-7.60439
ख	-7.60473
▁श्री	-7.60648
▁होना	-7.61437
▁उसकी	-7.61529
▁%	-7.62128
▁उपयोग	-7.62139
▁उच्च	-7.62208
▁विधि	-7.62307
▁प्रक्रिया	-7.62461
ला	-7.63249
का	-7.63625
एं	-7.63778
▁स्थान	-7.64108
▁विशेष	-7.65208
▁सबसे	-7.6656
▁लिया	-7.66747
▁शिक्षा	-7.67075
ु	-7.67164
▁दिन	-7.6736
▁क्योंकि	-7.67733
ू	-7.67759
▁s	-7.68338
▁आधार	-7.68962
▁जाते	-7.70264
▁हमें	-7.70343
▁ख	-7.70733
▁हूं	-7.70797
▁अपना	-7.70812
▁संबंधित	-7.70851
▁स्थिति	-7.70865
▁सूचना	-7.70957
▁लोग	-7.71088
या	-7.73159
रा	-7.73172
▁कभी	-7.73248
▁सेवा	-7.74362
▁उपलब्ध	-7.74376
▁1	-7.74535
्स	-7.74686
▁विश्व	-7.74907
▁अनुसार	-7.75746
▁ग	-7.76902
▁सहायता	-7.77505
▁सब	-7.77913
वा	-7.78339
▁कई	-7.78375
▁लिये	-7.7867
▁विभिन्न	-7.78934
▁आय	-7.78954
▁मामले	-7.80122
▁जाएगा	-7.80326
▁अगर	-7.80875
▁दूसरे	-7.8102
▁योजना	-7.81935
ड़	-7.82134
▁आज	-7.82429
नी	-7.82801
▁मुख्य	-7.82995
▁जी	-7.83666
▁इसलिए	-7.83733
▁दौरान	-7.8375
▁उसका	-7.83775
▁अलग	-7.83954
▁उनका	-7.84032
▁म	-7.84808
▁>	-7.84953
िंग	-7.85535
▁अधिकार	-7.85735
▁इसका	-7.85917
▁हर	-7.86586
▁वाला	-7.86806
▁शक्ति	-7.86813
▁जाए	-7.86847
▁शामिल	-7.87206
▁"	-7.87315
के	-7.87906
▁आदि	-7.8804
▁अनेक	-7.88182
▁&	-7.88467
▁उसने	-7.89449
▁संख्या	-7.89536
सी	-7.90912
▁गये	-7.91063
▁दे	-7.91664
ए	-7.93382
▁भाषा	-7.93626
▁जिसे	-7.94699
▁प्रत्येक	-7.95109
▁अर्थ	-7.9515
▁जल	-7.95685
च	-7.95765
▁उत्तर	-7.96067
▁निर्माण	-7.96322
▁पत्र	-7.96399
▁सु	-7.96517
▁यहां	-7.97018
▁उप	-7.97076
मा	-7.97965
▁ध्यान	-7.98042
फ	-7.98581
▁बनाने	-7.98765
▁आपको	-7.98994
▁होगी	-7.99737
▁महत्वपूर्ण	-7.99815
▁प्रयास	-7.99858
▁पी	-7.99924
▁बना	-7.99932
▁स्तर	-7.99983
▁प्रभाव	-8.00035
▁नई	-8.0013
▁तैयार	-8.00155
थ	-8.00581
▁तीन	-8.00707
▁जिसके	-8.00928
यों	-8.00983
▁अवसर	-8.01596
▁हेतु	-8.02131
ली	-8.02171
▁बाहर	-8.02172
▁बिना	-8.02256
▁प्रतिशत	-8.02778
▁हमारी	-8.03171
▁पता	-8.03188
िया	-8.03401
▁आर्थिक	-8.03493
▁सामान्य	-8.03545
▁देता	-8.0359
▁जनता	-8.04229
ज़	-8.04479
”	-8.04516
▁प	-8.04554
▁लोक	-8.04554
4	-8.04574
▁विषय	-8.04578
▁धर्म	-8.04847
▁#	-8.04967
की	-8.0515
▁आवश्यक	-8.05154
▁बैंक	-8.0519
ाई	-8.06318
▁इससे	-8.06587
▁नि	-8.07206
▁आगे	-8.07284
▁ब	-8.0747
▁मन	-8.07646
ियां	-8.07787
पूर्ण	-8.07955
▁सके	-8.07987
▁2	-8.08274
▁करके	-8.08579
▁”	-8.08696
▁मूल	-8.08742
▁आवश्यकता	-8.08827
▁समाज	-8.08896
जी	-8.08948
▁कु	-8.09118
▁बन	-8.09298
▁एस	-8.09769
▁देना	-8.0988
से	-8.10298
▁वहां	-8.10556
▁शुरू	-8.10731
▁44	-8.10752
▁प्रमुख	-8.1091
▁इसमें	-8.10984
▁खंड	-8.11346
▁जिस	-8.11507
▁लागू	-8.11868
▁विश्वास	-8.11988
▁चार	-8.1206
▁हों	-8.12676
ंग	-8.13081
▁क्षेत्रों	-8.13285
▁त	-8.1329
▁पूरी	-8.13757
▁दर	-8.13765
▁जारी	-8.13862
▁प्रौद्योगिकी	-8.13906
▁आपके	-8.13971
▁लाभ	-8.14028
▁सामाजिक	-8.14447
▁मेरे	-8.14688
▁प्रणाली	-8.15037
▁काफी	-8.15066
▁ज्ञान	-8.15091
▁आदेश	-8.15113
▁लगा	-8.15353
▁आई	-8.15375
▁इ	-8.15535
▁पूर्ण	-8.1618
▁ऋण	-8.16294
▁इसी	-8.163
▁स्वयं	-8.16344
▁पूरा	-8.16551
▁द	-8.16698
▁भवन	-8.16717
▁घर	-8.16868
▁‘	-8.17255
▁अभि	-8.18
▁नीति	-8.18286
ऋ	-8.18605
▁माध्यम	-8.19122
▁तुम	-8.19304
▁स्थापित	-8.19341
▁व्यवस्था	-8.19398
▁उद्योग	-8.19537
▁गयी	-8.19666
र्इ	-8.19869
▁लगभग	-8.19883
▁दूर	-8.20067
▁सदस्य	-8.20267
▁कंपनी	-8.2063
▁निर्णय	-8.20863
▁मामलों	-8.20974
▁अवधि	-8.21276
▁मूल्य	-8.21874
▁आयोग	-8.21929
▁हूँ	-8.2219
▁रिपोर्ट	-8.22433
▁ई	-8.22435
▁जानकारी	-8.22621
▁समान	-8.22816
▁मैंने	-8.2317
▁बड़ी	-8.23716
▁पद	-8.23958
▁सुरक्षा	-8.23983
▁मिल	-8.24022
▁कार्यक्रम	-8.24102
▁!	-8.2445
▁कृषि	-8.24559
▁अनु	-8.24868
▁परिवर्तन	-8.24908
▁विज्ञान	-8.25331
▁स्पष्ट	-8.25522
▁मानव	-8.25605
▁संविधान	-8.25722
ले	-8.25726
▁सभा	-8.2681
ंड	-8.26833
गी	-8.26929
िका	-8.27186
▁विभाग	-8.27369
▁राशि	-8.27382
▁शब्द	-8.27521
▁अभी	-8.2756
▁ऊ	-8.27716
▁जिससे	-8.28069
▁इसकी	-8.28193
▁स्वीकार	-8.28226
▁जिसका	-8.2824
▁देशों	-8.28252
▁अधिकारी	-8.28573
▁सा	-8.28636
▁ठीक	-8.28993
ति	-8.29001
▁प्रस्तुत	-8.29049
▁सीमा	-8.29131
▁देते	-8.29133
’	-8.29246
▁संबंधी	-8.29339
▁पा	-8.29351
▁रखने	-8.29555
▁ला	-8.29736
▁उत्पादन	-8.29901
ै	-8.30272
▁एन	-8.30452
सा	-8.30543
▁अंतर्गत	-8.30596
▁सूची	-8.30815
▁कुल	-8.30921
▁रखा	-8.30933
▁जैसा	-8.31219
▁उद्देश्य	-8.31368
▁सुधार	-8.31572
▁बड़े	-8.31714
▁<	-8.31748
▁उपधारा	-8.31829
▁ऊपर	-8.32287
▁उ	-8.32327
▁संघ	-8.32332
स्त	-8.32349
▁राष्ट्र	-8.32434
▁ज	-8.33502
▁शरीर	-8.33709
▁ओ	-8.33755
▁बल्कि	-8.34483
▁मध्य	-8.34625
▁ली	-8.34844
▁चाहते	-8.35522
▁मेरी	-8.36152
▁बे	-8.36409
▁रह	-8.36428
▁समूह	-8.36491
़	-8.37061
▁समिति	-8.37434
कार	-8.37514
▁दृष्टि	-8.37623
▁विशिष्ट	-8.37857
▁क्षमता	-8.37938
▁उपबंध	-8.38238
▁सही	-8.38303
ात्मक	-8.38993
▁अतिरिक्त	-8.39202
▁ह	-8.39265
▁प्रश्न	-8.39356
▁देखा	-8.39477
▁अनुच्छेद	-8.39496
वि	-8.39554
को	-8.39694
5	-8.39775
▁रंग	-8.39838
▁सामने	-8.39908
▁आने	-8.40058
▁नीचे	-8.40293
▁यहाँ	-8.40333
रे	-8.40414
दा	-8.40425
▁न्याय	-8.40598
▁च	-8.40741
▁नियम	-8.40847
▁युद्ध	-8.40882
▁कहते	-8.41032
▁भीतर	-8.41037
ीकरण	-8.41177
ध	-8.41282
▁वर्ग	-8.41315
▁मांग	-8.41337
▁स्वास्थ्य	-8.4135
▁बी	-8.42035
▁यात्रा	-8.42394
गत	-8.42439
▁प्रदेश	-8.42625
▁भर	-8.42635
▁परंतु	-8.43022
▁सहयोग	-8.43091
▁अनुसंधान	-8.43105
▁लेने	-8.43163
▁स्थित	-8.43539
▁वर्तमान	-8.44
▁वस्तु	-8.44005
▁बल	-8.44012
▁आर	-8.44366
▁पानी	-8.44528
▁यू	-8.44756
▁परन्तु	-8.44948
▁दिए	-8.44979
▁साल	-8.45184
▁वर्षों	-8.45202
▁प्रयोजन	-8.45267
▁व्यापार	-8.45368
्र	-8.45413
▁छोटे	-8.45592
▁डी	-8.45722
मान	-8.4573
▁विवाह	-8.45836
▁विदेशी	-8.45876
▁संयुक्त	-8.45907
▁अनुभव	-8.45941
▁4	-8.46264
दार	-8.46539
▁निर्धारण	-8.46592
▁आम	-8.46984
▁करेगा	-8.47105
▁परि	-8.47184
▁अंत	-8.47451
▁उससे	-8.47874
▁जमा	-8.47945
टी	-8.48071
▁होंगे	-8.48075
▁व्यक्तियों	-8.48133
▁थीं	-8.48464
भ	-8.48485
▁वास्तव	-8.48588
▁मृत्यु	-8.48627
▁बच्चों	-8.48763
▁राज	-8.4877
▁बड़ा	-8.48837
प्र	-8.4896
▁अव	-8.49081
▁तौर	-8.49162
▁आधारित	-8.49322
▁नियंत्रण	-8.4934
6	-8.49355
▁प्रथम	-8.49479
▁उसी	-8.4966
▁उच्चतम	-8.49675
ौ	-8.49781
▁सिंह	-8.49954
▁अध्ययन	-8.50365
▁रहने	-8.50479
▁मत	-8.50856
▁वृद्धि	-8.51065
▁उदाहरण	-8.51084
s	-8.51084
▁विश्वविद्यालय	-8.51208
▁नही	-8.51381
▁3	-8.5151
▁रहते	-8.51542
▁माल	-8.51643
ओ	-8.51944
एँ	-8.51986
▁ज्यादा	-8.52192
▁संस्थान	-8.52219
▁अप	-8.52642
▁समाप्त	-8.52969
▁सरकारी	-8.53063
▁काल	-8.53092
▁लगता	-8.53136
▁दूसरी	-8.53354
▁विकसित	-8.53499
▁ल	-8.53875
▁परिणाम	-8.53906
वी	-8.5395
▁करेंगे	-8.53951
गा	-8.54005
▁अंतिम	-8.54259
▁नए	-8.54423
▁बाजार	-8.5447
▁न्यायाधीश	-8.54491
ष	-8.54495
▁जन्म	-8.54581
▁वित्तीय	-8.54657
▁ट	-8.5498
▁मदद	-8.55011
▁प्रकृति	-8.55126
▁जांच	-8.55194
छ्ष	-8.55331
ण्श्	-8.55375
ँ	-8.55398
▁पैदा	-8.55447
वीं	-8.55453
▁धन	-8.55457
▁भूमि	-8.55492
ॉ	-8.55496
▁प्रस्ताव	-8.5557
▁उत्पन्न	-8.55968
▁अपील	-8.56027
▁बा	-8.56206
▁जन	-8.56227
▁स्थापना	-8.56382
▁पहचान	-8.56387
▁निर्धारित	-8.56454
▁दिल्ली	-8.56518
नि	-8.56765
▁केंद्र	-8.56787
▁लेकर	-8.56952
▁इतिहास	-8.5703
▁कैसे	-8.57074
▁बस	-8.57199
▁भूमिका	-8.57361
▁किंतु	-8.57361
न्	-8.57479
डी	-8.57674
▁संदेश	-8.5794
▁रुप	-8.57961
▁रोग	-8.58041
▁र	-8.58045
▁हाथ	-8.58466
▁अन	-8.58588
▁स्वतंत्रता	-8.58597
स्ट	-8.58758
▁समस्या	-8.58984
▁किये	-8.59042
▁पुनः	-8.59044
▁सदस्यों	-8.59053
▁संगठन	-8.59189
टा	-8.59243
▁करे	-8.59639
▁हमने	-8.59644
▁शासन	-8.59809
▁खोज	-8.60009
▁संसद	-8.60098
▁मात्रा	-8.60139
▁अच्छा	-8.60208
▁संशोधन	-8.60293
▁माना	-8.60338
▁पहुंच	-8.6034
▁परिवार	-8.60602
▁भ	-8.60793
▁आवेदन	-8.6098
e	-8.61075
पुर	-8.613
▁आरंभ	-8.61396
7	-8.61635
▁कानून	-8.61668
▁पक्ष	-8.61735
▁घ	-8.61796
▁भिन्न	-8.61965
▁सत्ता	-8.62223
▁राज्यों	-8.62277
▁कल	-8.62344
▁कांग्रेस	-8.6248
▁5	-8.62595
▁बाहरी	-8.62777
▁सहित	-8.62802
बी	-8.62805
▁बाल	-8.62916
▁बनाया	-8.63
▁सह	-8.63102
ण्ड	-8.63238
▁एम	-8.63423
▁छोड़	-8.63663
▁सन्	-8.6396
▁बराबर	-8.6413
▁भुगतान	-8.64184
पी	-8.64204
▁निवेश	-8.64281
▁मिला	-8.64406
▁यही	-8.64531
▁अच्छी	-8.64534
▁साहित्य	-8.64542
ठ	-8.6456
▁राय	-8.64575
▁ताकि	-8.64609
▁सुनिश्चित	-8.64615
िन	-8.6467
▁छ	-8.64713
▁उचित	-8.64765
▁राम	-8.64919
▁दक्षिण	-8.64962
▁लाख	-8.65068
o	-8.65253
▁व्यापक	-8.65457
▁विस्तार	-8.65578
▁प्रशिक्षण	-8.6559
▁समझ	-8.65713
फ़	-8.66281
▁दुनिया	-8.66414
▁खेल	-8.66428
▁बनाए	-8.66508
▁अपराध	-8.66515
▁प्रेम	-8.66639
▁जबकि	-8.66939
▁स्थानीय	-8.67044
▁जाएगी	-8.67073
▁रहता	-8.67176
में	-8.67968
▁लक्ष्य	-8.67978
▁विरुद्ध	-8.68047
▁पश्चात्	-8.68094
ंस	-8.68181
▁जिन	-8.68222
▁उसमें	-8.68351
▁अपेक्षा	-8.68527
▁तहत	-8.68575
घ	-8.68678
कारी	-8.68894
हा	-8.69131
▁अमेरिका	-8.69137
▁देख	-8.69157
▁चल	-8.6935
▁जगह	-8.6943
▁निर्दिष्ट	-8.69532
पर	-8.69563
▁जरूरत	-8.69568
रो	-8.69571
▁मार्ग	-8.697
▁दिशा	-8.69869
▁चला	-8.70302
▁बच्चे	-8.70329
▁उनमें	-8.7056
▁वो	-8.70658
▁होकर	-8.70776
▁प्रभावित	-8.71054
▁पीछे	-8.71074
▁स्व	-8.71322
▁श	-8.71418
वाद	-8.716
▁फ	-8.71618
▁क्रिया	-8.71784
▁आकार	-8.71792
▁चाहिये	-8.71885
▁पर्याप्त	-8.71999
▁वेबसाइट	-8.72173
▁सत्य	-8.72253
▁प्रबंधन	-8.72266
▁पिता	-8.72709
▁सार्वजनिक	-8.72786
वर	-8.72809
अ	-8.72967
करण	-8.73022
▁य	-8.73378
सं	-8.73387
ड़ा	-8.73661
▁पूंजी	-8.73697
▁कमी	-8.73823
▁बंद	-8.74057
▁पिछले	-8.74262
▁निम्नलिखित	-8.74291
▁पुलिस	-8.74353
▁परियोजना	-8.7441
त्व	-8.74491
t	-8.74829
ंट	-8.74957
▁गांधी	-8.74974
▁दिनों	-8.75053
▁प्रवेश	-8.75201
▁मान	-8.75228
▁मंदिर	-8.75287
तः	-8.75357
म्ब	-8.75357
वादी	-8.75432
▁आया	-8.75523
▁केंद्रीय	-8.75688
▁पहली	-8.76111
▁महा	-8.76119
▁गैर	-8.76294
ंद	-8.7644
ार	-8.76699
▁सर	-8.76978
▁A	-8.7699
▁सक्रिय	-8.77009
▁दंड	-8.77034
▁क्यों	-8.77038
▁मु	-8.77228
ड़ी	-8.77406
▁प्रगति	-8.77492
▁कहीं	-8.775
▁कह	-8.77539
a	-8.77572
पन	-8.77722
मी	-8.77836
ंक	-8.77845
इ	-8.77877
बा	-8.7792
▁संभव	-8.7819
आ	-8.78258
▁सम	-8.78335
▁अलावा	-8.78537
ढ़	-8.78642
▁निश्चित	-8.7869
▁फाइल	-8.787
ान	-8.78726
वे	-8.78775
▁विवरण	-8.78788
▁ग्रामीण	-8.7891
▁ऊर्जा	-8.78941
र्स	-8.7902
जा	-8.79041
▁शब्दों	-8.791
▁मंत्रालय	-8.79138
▁चाहे	-8.79219
▁अनुमति	-8.79344
▁पार	-8.79396
▁रचना	-8.79468
▁औद्योगिक	-8.79471
▁व्यवहार	-8.79499
▁बीमा	-8.79509
▁व्यक्त	-8.7953
i	-8.79594
▁राजा	-8.79608
्या	-8.79708
छ	-8.79778
▁झ	-8.79859
तर	-8.79974
▁बदल	-8.80003
▁बोर्ड	-8.80075
▁]	-8.80256
िल	-8.8028
▁गति	-8.80357
ास	-8.80385
▁अध्यक्ष	-8.80536
▁लगे	-8.80562
▁ढंग	-8.80649
▁समर्थन	-8.80674
▁लिखा	-8.80702
▁[	-8.80794
▁नदी	-8.80978
▁याद	-8.81021
▁पांच	-8.81228
▁करोड़	-8.81283
▁अंग	-8.81379
▁जिन्हें	-8.81686
▁महत्व	-8.81699
▁सक्षम	-8.82172
▁संस्था	-8.8227
▁शायद	-8.82456
▁इस्तेमाल	-8.82585
▁मि	-8.82753
▁कला	-8.8277
रण	-8.82791
▁सुविधा	-8.82852
▁लेखा	-8.82867
▁देती	-8.82961
▁राजनीतिक	-8.8298
क्ष	-8.83003
▁समाधान	-8.83007
▁आधुनिक	-8.83113
▁अल	-8.83463
▁महान	-8.835
▁केन्द्र	-8.83528
यां	-8.83549
8	-8.83779
▁चिकित्सा	-8.83964
▁हे	-8.84035
▁खर्च	-8.8408
स्	-8.84231
▁चुका	-8.84298
▁प्रकाश	-8.84387
▁प्रकट	-8.8439
▁जिनमें	-8.84429
▁पाया	-8.84468
▁इतना	-8.84772
▁टी	-8.85033
▁मुखर्जी	-8.85435
मे	-8.85722
▁ईश्वर	-8.85769
त्र	-8.85898
ाव	-8.85981
▁एल	-8.8608
ाल	-8.86122
▁योग्य	-8.86131
▁सहायक	-8.86233
▁भविष्य	-8.86267
▁भाव	-8.86564
▁स्कूल	-8.86569
▁मेरा	-8.86676
▁भा	-8.86772
▁मनुष्य	-8.86905
▁मुक्त	-8.86992
▁सामग्री	-8.87108
▁बि	-8.87343
▁न्यायिक	-8.87354
▁जैसी	-8.87385
▁हमारा	-8.87444
▁बंगाल	-8.87462
▁पालन	-8.87581
▁तारीख	-8.87616
▁चाहता	-8.87657
▁निर्यात	-8.87914
▁पूरे	-8.87929
▁एक्स	-8.87954
जन	-8.8796
▁वास्तविक	-8.88119
▁वापस	-8.88177
▁हाल	-8.88273
▁पुस्तक	-8.88373
▁रक्षा	-8.88375
▁संरक्षण	-8.88406
दी	-8.88514
▁निजी	-8.88516
▁बनाम	-8.8889
▁संपत्ति	-8.89197
▁प्रकाशित	-8.89278
▁कविता	-8.89287
▁नया	-8.89313
▁पुरस्कार	-8.89396
▁दल	-8.89469
म्	-8.89545
▁विधान	-8.89587
▁यद्यपि	-8.89603
▁जीव	-8.89847
क्स	-8.89933
▁19	-8.90079
9	-8.90125
▁पे	-8.90175
तम	-8.90209
▁अति	-8.90222
▁प्रारंभ	-8.90233
▁लग	-8.90238
▁ध	-8.90314
▁रक्त	-8.90428
▁अवस्था	-8.9053
▁आत्मा	-8.90537
▁जे	-8.90608
▁भावना	-8.90614
▁सोच	-8.90629
▁इनमें	-8.90727
▁रे	-8.90737
▁पृष्ठ	-8.90801
▁रकम	-8.90863
▁न्यायालयों	-8.9087
▁दशा	-8.91018
▁चर्चा	-8.91181
▁किस	-8.9123
▁समक्ष	-8.91317
▁निर्देश	-8.91335
▁रखना	-8.91563
▁कवि	-8.91664
▁हमेशा	-8.9167
▁शहर	-8.917
▁कंप्यूटर	-8.91773
र्	-8.91779
▁S	-8.91805
▁युवा	-8.91832
▁उल्लेख	-8.91871
▁लाल	-8.91873
▁संदर्भ	-8.91976
▁सिर्फ	-8.92034
,	-8.92089
ाना	-8.92276
▁उत्पाद	-8.92299
▁रखते	-8.92313
▁सि	-8.92402
▁अधिकांश	-8.92444
▁बेहतर	-8.92546
▁समझा	-8.92576
▁मंत्री	-8.92976
▁सकेगा	-8.92996
▁बने	-8.93216
▁संपर्क	-8.93234
▁सेवाओं	-8.93241
▁जाये	-8.93265
▁दें	-8.93267
▁देखने	-8.93367
ूर	-8.93423
▁सेना	-8.93688
▁ड	-8.93756
▁अधि	-8.93779
▁महिला	-8.9381
▁लागत	-8.93818
▁रि	-8.94214
▁केन्द्रीय	-8.94285
▁संरचना	-8.9443
▁बहु	-8.94742
▁धीरे	-8.94864
▁चित्र	-8.94883
▁बताया	-8.95011
▁कदम	-8.95013
ये	-8.95063
नाथ	-8.95125
▁सदन	-8.95167
▁भू	-8.95332
▁परीक्षा	-8.95399
▁पि	-8.95558
▁लघु	-8.95595
▁योगदान	-8.95638
▁किन्तु	-8.95706
▁जिसकी	-8.9571
▁निधि	-8.95799
रू	-8.95852
▁छोटी	-8.96037
▁लि	-8.96151
▁उपचार	-8.96402
▁दिवस	-8.96408
▁पुरुष	-8.96479
▁संकेत	-8.96563
▁पद्धति	-8.96596
▁गो	-8.96699
▁रु	-8.96717
▁पश्चिम	-8.96724
▁प्रशासन	-8.96756
▁दिखाई	-8.97006
हार	-8.97045
▁दूसरा	-8.97226
्व	-8.9725
▁सिद्धांत	-8.97386
्त	-8.9748
▁अंतर	-8.97506
▁धार्मिक	-8.97638
▁a	-8.97862
▁उठा	-8.97929
▁कोशिश	-8.98052
▁नेटवर्क	-8.98089
▁रख	-8.98148
▁वहाँ	-8.98167
▁नाटक	-8.98178
▁गा	-8.98185
▁तंत्र	-8.98187
▁सीमित	-8.98274
▁फ़	-8.9854
▁तरीके	-8.9858
▁सम्मान	-8.98655
▁प्रणब	-8.98873
▁प्रदर्शन	-8.99121
झ	-8.99175
▁व्य	-8.99357
▁ब्रिटिश	-8.99608
▁हिन्दी	-8.99879
▁साधारण	-8.9995
▁आयु	-9.00004
▁सारे	-9.00184
▁जाति	-9.00266
ंच	-9.00282
▁व्यवसाय	-9.00379
▁अध्याय	-9.00449
ाय	-9.00453
▁डि	-9.00499
▁वाद	-9.00541
▁सो	-9.00568
िए	-9.00677
उ	-9.00681
▁अनिवार्य	-9.00685
▁आशा	-9.00708
▁प्रभावी	-9.00745
▁रहती	-9.00799
▁आंदोलन	-9.00801
▁मुद्रा	-9.00838
द्र	-9.00979
▁अंग्रेजी	-9.01239
▁हित	-9.01344
▁उनसे	-9.01372
ंज	-9.01467
टे	-9.01709
▁जिला	-9.01949
▁मै	-9.02024
▁सफल	-9.02107
▁संस्कृति	-9.02113
▁ऑफ	-9.02166
▁प्राकृतिक	-9.02323
▁दस	-9.02361
▁मा	-9.02554
▁गुणवत्ता	-9.02796
▁विशाल	-9.03022
▁बढ़	-9.03357
▁सम्मिलित	-9.0339
स्थ	-9.03407
▁जहाँ	-9.03431
▁शांति	-9.03693
बल	-9.03708
▁देखते	-9.03708
▁आता	-9.03785
▁वित्त	-9.03786
▁विवाद	-9.03987
▁विधेयक	-9.04068
िस	-9.04439
▁संगीत	-9.04518
▁भोजन	-9.04534
▁युग	-9.04622
्म	-9.04675
▁कार्यालय	-9.04797
▁उपकरण	-9.04855
▁मी	-9.04878
▁अधिकारियों	-9.04879
शा	-9.04952
▁आत्म	-9.05038
▁स्प	-9.05337
▁वर्णन	-9.05534
▁ना	-9.05538
▁हिस्सा	-9.0556
▁खुलती	-9.05577
▁आपकी	-9.05865
▁व्यक्तिगत	-9.06119
कर्ता	-9.06133
▁विंडों	-9.06551
▁समारोह	-9.06582
▁शुल्क	-9.06766
y	-9.06864
▁अत्यंत	-9.06869
▁इच्छा	-9.0689
▁गुण	-9.06899
▁मिलता	-9.06928
▁सकें	-9.06937
ृ	-9.06942
▁पड़ा	-9.07028
▁वही	-9.07066
▁पेश	-9.07134
▁शेयर	-9.07147
पा	-9.0717
▁उपयुक्त	-9.07473
▁मुस्लिम	-9.07486
▁संहिता	-9.07528
मय	-9.07729
▁अतः	-9.07875
▁संघर्ष	-9.07991
▁पड़ता	-9.08213
▁घोषणा	-9.08236
▁व्यय	-9.08241
▁करनी	-9.08269
▁बधाई	-9.08276
▁लेना	-9.08276
▁विरोध	-9.08342
▁विकल्प	-9.08344
▁तुलना	-9.08426
मन	-9.08456
▁प्रा	-9.08554
त्त	-9.08576
▁जिनके	-9.08598
▁मह	-9.08623
▁दा	-9.08658
ंत	-9.08741
▁निर्धारिती	-9.08775
▁चि	-9.08847
▁6	-9.08868
▁विचारों	-9.08902
▁हा	-9.08927
▁रो	-9.08939
▁घटना	-9.09075
शील	-9.0915
काल	-9.09269
ां	-9.09286
न्द	-9.09371
▁वैज्ञानिक	-9.09376
▁दृष्टिकोण	-9.09456
▁प्राचीन	-9.09537
▁सफलता	-9.09652
मो	-9.0995
▁संभावना	-9.10124
म्प	-9.10141
▁बता	-9.10176
ेट	-9.10278
▁निर्भर	-9.10372
▁भारी	-9.10473
▁सम्मेलन	-9.10555
▁ठ	-9.11094
▁उपबंधों	-9.1112
▁ऐ	-9.11148
▁सिविल	-9.112
▁नगर	-9.11203
शी	-9.11206
बद्ध	-9.11284
ाम	-9.1133
▁बिल	-9.11352
▁खरीद	-9.11405
▁सुन	-9.11436
▁नियमों	-9.11562
▁खुद	-9.11563
▁सिफारिश	-9.11587
▁गलत	-9.11612
डा	-9.11755
l	-9.1178
▁निम्न	-9.11999
▁नये	-9.12024
▁तथापि	-9.12075
वार	-9.12251
▁आयोजित	-9.12255
▁प्रधान	-9.12361
/	-9.12564
▁हिन्दू	-9.12713
▁संस्थानों	-9.12845
▁गंभीर	-9.12862
▁विनिर्दिष्ट	-9.12937
▁संसाधन	-9.1301
▁हृदय	-9.13013
▁फ़ाइल	-9.13046
▁दु	-9.1307
▁पाने	-9.13081
▁अर्थात्	-9.13157
▁आते	-9.13225
▁पर्यावरण	-9.13301
▁कार्यवाही	-9.13413
रु	-9.1359
S	-9.13702
शन	-9.13774
टर	-9.13837
ड़े	-9.13933
वर्ती	-9.13998
कों	-9.1404
्यू	-9.14084
▁सुझाव	-9.14086
▁खाते	-9.14149
▁फल	-9.14208
▁जानते	-9.14249
▁संस्कृत	-9.14385
▁दर्शन	-9.14431
▁i	-9.14595
▁माता	-9.14603
▁बोल	-9.14618
▁सिर	-9.14682
▁जानी	-9.14766
▁कार्रवाई	-9.14784
▁अच्छे	-9.14797
▁शिकायत	-9.14828
रि	-9.14845
▁–	-9.14862
▁डा	-9.15008
▁जिसने	-9.15018
▁वी	-9.15155
▁सुरक्षित	-9.15193
▁कठिन	-9.15198
▁जरूरी	-9.15264
▁परिषद	-9.1527
▁लेते	-9.15465
▁अंतरराष्ट्रीय	-9.15687
▁स्वरूप	-9.1596
▁ब्याज	-9.1613
यें	-9.16145
▁पारित	-9.16325
▁बनाना	-9.16436
ेशन	-9.1651
k	-9.16783
er	-9.16821
▁निकट	-9.16899
▁सर्व	-9.16909
▁रा	-9.17009
▁सू	-9.17166
▁कहना	-9.17219
▁मात्र	-9.17291
▁जान	-9.17299
▁खाद्य	-9.17762
▁सलाह	-9.17816
यो	-9.1786
यी	-9.17979
ष्ट	-9.17981
▁आदमी	-9.18135
▁छोटा	-9.1832
▁काव्य	-9.18362
▁रोक	-9.18434
▁डेटा	-9.18476
r	-9.18629
▁अर्थव्यवस्था	-9.18643
▁सिद्ध	-9.18714
▁डॉ	-9.18902
▁उपाय	-9.18922
ांत	-9.19098
▁शा	-9.19226
▁तकनीकी	-9.19325
▁कौन	-9.19327
▁उपस्थित	-9.19365
▁गर्इ	-9.19458
▁उद्यम	-9.19575
▁सका	-9.19953
▁गु	-9.19962
▁मिली	-9.20006
▁अंदर	-9.20012
▁पदार्थ	-9.20056
हन	-9.20168
▁मित्र	-9.20193
▁आदर्श	-9.20217
▁तरफ	-9.20298
▁संपूर्ण	-9.20306
सर	-9.20321
▁मर	-9.20333
▁लगाया	-9.20414
लि	-9.20611
क्	-9.20621
▁इजरायल	-9.20748
यन	-9.20795
▁होनी	-9.20822
▁मौजूद	-9.20902
▁तेल	-9.20907
र्क	-9.20918
▁इं	-9.21034
▁स्वतंत्र	-9.21039
▁हैः	-9.21119
▁अधिकारों	-9.21217
▁नियुक्त	-9.2129
▁सौ	-9.21295
▁दृश्य	-9.21317
▁समुदाय	-9.21369
▁सात	-9.21403
▁वाणिज्यिक	-9.21438
▁कहानी	-9.21487
▁कर्म	-9.21509
▁कार्यों	-9.21513
▁पहला	-9.21651
▁अप्रैल	-9.21843
▁तर्क	-9.21936
त्	-9.21957
्यु	-9.21981
▁डे	-9.21982
▁मार्च	-9.22095
▁पश्चिमी	-9.22136
▁तेजी	-9.2225
▁गिर	-9.22278
चर	-9.22307
ियाँ	-9.22311
▁स्थायी	-9.22327
▁तथ्य	-9.22332
ल्ल	-9.22432
▁शेष	-9.22496
▁हानि	-9.2252
राज	-9.22559
▁परीक्षण	-9.22562
▁विद्यमान	-9.22609
▁बीज	-9.22782
▁7	-9.22818
वल	-9.22828
▁महिलाओं	-9.22837
▁मार	-9.23008
▁भाई	-9.23055
▁क्रम	-9.23108
▁खाता	-9.23137
▁पार्टी	-9.23194
▁रात	-9.23202
▁अरब	-9.23233
यर	-9.23469
▁नागरिक	-9.23515
हर	-9.2354
ेज	-9.23594
▁वार्षिक	-9.23689
▁चुके	-9.23841
▁कीमत	-9.23857
्न	-9.24203
▁निगम	-9.24204
पूर्वक	-9.24222
▁रहना	-9.24236
▁निर्वाचन	-9.24358
▁विद्युत	-9.24456
▁कै	-9.24547
स्व	-9.24611
वान	-9.24664
▁पाकिस्तान	-9.2475
▁कृपया	-9.24849
▁समुद्र	-9.24878
िश	-9.24968
▁मानसिक	-9.2498
राम	-9.25011
▁मजबूत	-9.25045
▁योग	-9.25166
▁ब्र	-9.25262
▁शताब्दी	-9.25293
ेड	-9.25384
▁बनी	-9.25394
▁परामर्श	-9.25525
▁बैठक	-9.25625
▁सम्बन्ध	-9.25648
▁आपका	-9.25764
▁महसूस	-9.25839
▁विस्तृत	-9.25839
▁गुना	-9.25905
▁बु	-9.25924
▁निर्	-9.25959
रूप	-9.26203
▁वातावरण	-9.26238
A	-9.2633
▁संचार	-9.26341
▁शून्य	-9.26388
▁प्रमाण	-9.26393
▁अंश	-9.26474
▁वेतन	-9.26478
▁इस्लाम	-9.26573
▁कर्मचारियों	-9.26638
व्य	-9.267
▁ग्रहण	-9.2683
▁लाने	-9.26873
▁प्राप्ति	-9.26875
▁गांव	-9.26926
▁निकाल	-9.26952
▁विदेश	-9.26998
हीन	-9.26999
▁स्रोत	-9.2713
▁वस्तुओं	-9.27217
▁सूक्ष्म	-9.27241
▁रोजगार	-9.27244
▁मो	-9.27273
▁निर्मित	-9.27289
▁दायित्व	-9.27442
न्न	-9.2748
युक्त	-9.27486
▁जोड़	-9.27574
▁जिन्होंने	-9.27645
▁ग्राम	-9.27658
▁अत्यधिक	-9.27696
▁दोष	-9.27736
▁वायु	-9.27912
▁खो	-9.2792
▁परिस्थितियों	-9.28065
▁कल्पना	-9.28157
▁दिये	-9.28404
▁संकल्प	-9.28414
▁चयन	-9.2842
▁प्रसिद्ध	-9.28425
न्त	-9.28522
▁एफ	-9.28543
▁त्रुटि	-9.28546
n	-9.28728
▁हल	-9.28776
▁नियमित	-9.28791
▁खा	-9.28894
▁अगले	-9.29056
▁सरल	-9.29103
द्	-9.29213
खा	-9.29233
▁लो	-9.29236
▁प्रधानमंत्री	-9.29435
ाने	-9.29455
▁आए	-9.29489
▁उपन्यास	-9.29494
ोन	-9.29671
वें	-9.29673
पो	-9.29733
▁बह	-9.29734
▁यथा	-9.29751
िट	-9.29903
ेश	-9.30042
▁करार	-9.3008
▁सामना	-9.30089
▁हवा	-9.30107
▁आयुक्त	-9.30114
▁आरोप	-9.30155
▁समस्याओं	-9.30257
▁इतनी	-9.30263
▁भाषण	-9.30271
▁श्रेणी	-9.303
▁चुनाव	-9.30389
▁मिलने	-9.30486
▁कानूनी	-9.30673
▁शुद्ध	-9.30879
▁प्रत्यक्ष	-9.30938
▁पत्नी	-9.30941
कृत	-9.31109
ेल	-9.31118
▁आती	-9.3116
E	-9.31211
कि	-9.31229
▁छात्र	-9.31306
▁सांस्कृतिक	-9.3136
▁तत्व	-9.3143
रिया	-9.3144
▁बढ़ाने	-9.3147
▁लेखक	-9.31609
तु	-9.31722
▁पुनर्	-9.31763
▁कराने	-9.31791
▁दावा	-9.31827
▁अस	-9.31959
▁जोर	-9.32153
▁हालांकि	-9.32205
▁व्या	-9.32242
वाह	-9.32296
▁अनुवाद	-9.32319
▁क्षेत्रीय	-9.32337
कु	-9.32358
▁अंक	-9.32545
▁देव	-9.3258
▁d	-9.3272
▁निरंतर	-9.32737
रत	-9.328
ेन	-9.32809
वन	-9.32902
च्छ	-9.32932
f	-9.33193
▁गणराज्य	-9.33325
सन	-9.33326
▁अनुकूल	-9.33328
▁पड़	-9.33419
▁स्थल	-9.33423
▁पु	-9.33444
▁मामला	-9.33504
▁मेल	-9.33538
▁अधिकरण	-9.33546
▁मौसम	-9.33702
▁थ	-9.33752
स्क	-9.33756
▁प्राधिकरण	-9.33808
▁बावजूद	-9.33969
देश	-9.34021
▁हिंदू	-9.34033
ar	-9.34123
▁लेख	-9.34143
▁नामक	-9.34232
▁अदालत	-9.34403
▁आतंकवाद	-9.3442
▁लगी	-9.34439
▁सच	-9.34454
▁पाठ	-9.3448
▁कल्याण	-9.34565
ोर	-9.34631
u	-9.34861
▁P	-9.34938
▁पेज	-9.34958
▁हिंदी	-9.34986
▁आयात	-9.35013
▁मुसलमानों	-9.35038
ियन	-9.35068
ही	-9.35219
र्न	-9.35239
▁इनके	-9.35293
▁पुत्र	-9.35297
▁इंडिया	-9.35345
▁बढ़ा	-9.35474
▁भेज	-9.35591
याँ	-9.35777
▁प्रायः	-9.35894
ोल	-9.3595
▁शीघ्र	-9.36029
▁महीने	-9.36103
▁आये	-9.36178
▁कर्मचारी	-9.36208
िता	-9.36299
आर	-9.36326
▁अधिकतम	-9.3646
▁निदेशक	-9.36482
दर	-9.36546
▁उक्त	-9.36582
ज़ा	-9.36631
भा	-9.36781
▁अधिकारिता	-9.36914
▁मानक	-9.36931
▁रुपये	-9.36953
I	-9.3711
▁भार	-9.37136
▁डाल	-9.37209
▁विजय	-9.37209
▁गठन	-9.37261
▁खास	-9.37324
▁प्रतिक्रिया	-9.37376
▁संस्थाओं	-9.37376
▁तट	-9.37419
▁एच	-9.37447
▁शाखा	-9.37456
M	-9.37495
.	-9.37587
▁निकल	-9.37613
▁सीधे	-9.37651
▁गृह	-9.377
▁इत्यादि	-9.37708
▁बिजली	-9.37988
▁सारी	-9.38028
स्प	-9.38154
▁सिस्टम	-9.38158
ोप	-9.38201
▁डाक	-9.38208
▁शैली	-9.38236
▁साफ	-9.38303
▁पै	-9.38312
▁प्रतीक	-9.38505
▁तुम्हें	-9.38516
बर	-9.38551
ात	-9.38652
िम	-9.38654
▁मूल्यांकन	-9.38674
▁जवाब	-9.38834
▁मां	-9.38981
▁प्रो	-9.39094
▁साक्ष्य	-9.39178
▁स्वामी	-9.39188
▁अंतरण	-9.39235
ाँ	-9.39399
गु	-9.39444
▁संग्रह	-9.3948
▁प्रचार	-9.39616
▁मान्यता	-9.39684
▁उपभोक्ता	-9.39744
▁मिलती	-9.39763
ियो	-9.39767
p	-9.39769
▁T	-9.39813
ाया	-9.39823
▁साधन	-9.39935
▁आक्रमण	-9.39987
ुल	-9.40016
▁प्रावधान	-9.40036
▁आनंद	-9.40041
▁मुख	-9.4006
धार	-9.4011
▁कारबार	-9.40149
लो	-9.40163
▁लगाने	-9.40201
▁जल्दी	-9.40319
▁तभी	-9.40504
▁रखे	-9.40566
भाव	-9.40632
नीय	-9.40676
▁हजार	-9.40776
▁नोट	-9.40848
▁कृष्ण	-9.40965
▁पुराने	-9.4101
▁C	-9.41138
▁जून	-9.41284
▁पात्र	-9.41374
▁प्रयुक्त	-9.41416
▁समस्त	-9.41465
▁अस्तित्व	-9.4159
▁गैस	-9.41632
▁सवाल	-9.41689
▁जाय	-9.41691
▁नेता	-9.41697
▁वै	-9.41787
▁रुपए	-9.41849
▁नव	-9.41849
▁पहल	-9.41894
▁समाचार	-9.42061
▁देखभाल	-9.42115
▁मशीन	-9.42179
गो	-9.42403
▁फसल	-9.42653
▁लोकतंत्र	-9.42662
▁प्रयत्न	-9.42761
▁आपने	-9.42771
▁तार	-9.428
▁जनवरी	-9.43002
▁तेज	-9.43005
डे	-9.43029
▁8	-9.43041
▁शीर्ष	-9.43079
▁कथा	-9.43137
ाह	-9.43152
एम	-9.43162
▁प्रतीत	-9.43416
al	-9.43459
▁पथ	-9.43498
चा	-9.43549
्क	-9.43562
▁मानते	-9.43583
▁शिव	-9.43607
▁इन्हें	-9.43649
▁राजनैतिक	-9.43708
निक	-9.43822
▁जायेगा	-9.43986
▁दिल	-9.44034
▁बर	-9.44058
▁महत्त्वपूर्ण	-9.44079
▁पंजाब	-9.44109
▁बढ़ावा	-9.44172
▁कटौती	-9.44365
ुक	-9.44526
र्ड	-9.44533
▁नजर	-9.44605
▁न्यायाधीशों	-9.44669
ंगी	-9.44719
▁नेतृत्व	-9.44785
▁वा	-9.44816
▁स्मृति	-9.44906
▁गतिविधियों	-9.44921
▁प्रेरित	-9.44938
▁द्वार	-9.44961
▁वितरण	-9.44966
▁बिक्री	-9.45086
▁रोगी	-9.45093
ाइ	-9.45183
▁विषयों	-9.45214
▁हु	-9.45235
ीन	-9.45252
▁कं	-9.45261
▁9	-9.45316
▁गुप्त	-9.45342
▁तय	-9.45344
▁विद्यार्थियों	-9.45388
ल्ड	-9.45441
▁चेतना	-9.45452
▁जमीन	-9.45462
▁प्रोत्साहन	-9.4551
▁रखी	-9.45524
▁मुसलमान	-9.45527
सु	-9.45577
दान	-9.45658
▁प्राधिकारी	-9.45715
र्ट	-9.45798
▁टन	-9.45808
गर	-9.45861
▁घरेलू	-9.45872
P	-9.46087
ऊ	-9.46111
▁जि	-9.46184
ाइट	-9.46212
▁शुभकामनाएं	-9.46302
▁प्रकाशन	-9.46323
रों	-9.46416
एल	-9.46425
▁तु	-9.46469
▁मिशन	-9.4651
▁प्रदर्शित	-9.46543
▁चलता	-9.46587
▁प्राण	-9.46592
▁असम	-9.46604
▁स्वागत	-9.46625
▁एशिया	-9.46699
▁उनको	-9.46755
▁श्रेणीः	-9.46806
▁मद	-9.47051
▁चा	-9.4707
▁भौतिक	-9.47123
▁प्राथमिक	-9.47188
▁बनाई	-9.47196
बे	-9.47219
मु	-9.47229
▁जोखिम	-9.47404
र्ज	-9.4742
d	-9.47448
▁आपूर्ति	-9.47478
▁खुशी	-9.47601
▁शारीरिक	-9.47651
▁पो	-9.47673
▁आध्यात्मिक	-9.47713
▁दस्तावेज	-9.47847
▁मगर	-9.47879
▁स्थानों	-9.47956
एस	-9.48
क्त	-9.48138
▁लिखित	-9.48141
▁अभिव्यक्ति	-9.48149
ची	-9.48193
▁B	-9.4825
▁विमान	-9.4835
स्ट्र	-9.4837
▁उठ	-9.48427
▁न्यू	-9.48431
▁लौट	-9.4844
▁तरीका	-9.48458
▁घोषित	-9.48502
▁अपेक्षित	-9.48583
▁बाबत	-9.48646
ज्ञ	-9.48658
मि	-9.48664
▁भूल	-9.48688
▁देखें	-9.48715
▁प्रसन्नता	-9.48819
क्ति	-9.48885
▁पहुंचा	-9.48899
▁अवश्य	-9.48908
▁सामान	-9.48938
▁भागों	-9.48987
▁बैंकों	-9.48994
▁शक्तियों	-9.49007
▁हस्ताक्षर	-9.49022
an	-9.49024
▁मंच	-9.49194
▁नष्ट	-9.4921
▁चरण	-9.49222
▁चीज	-9.49277
▁स्पष्टीकरण	-9.49286
▁गुरु	-9.49379
▁सुना	-9.49409
पाल	-9.49482
▁छूट	-9.495
जे	-9.49628
▁तकनीक	-9.49804
▁मिले	-9.49857
▁अंतर्राष्ट्रीय	-9.50094
▁कार्यक्रमों	-9.50117
▁पश्चात	-9.50171
▁ऑ	-9.50203
▁वीडियो	-9.50241
▁मिलकर	-9.50277
ल्स	-9.50392
▁सर्वोच्च	-9.5041
▁इकाई	-9.5043
▁सुंदर	-9.50518
▁चीन	-9.5053
▁दिखा	-9.50556
▁अभियान	-9.50601
▁छह	-9.50601
▁औसत	-9.50857
ार्थ	-9.50956
▁आयोजन	-9.50969
▁गीत	-9.51089
ांग	-9.51117
▁स्त्री	-9.51196
▁चुकी	-9.51521
▁लें	-9.51591
▁अर	-9.51658
▁विंडो	-9.51673
▁मतलब	-9.51691
▁निहित	-9.51722
▁सेवाएं	-9.51913
▁मुंबई	-9.51948
▁अनुमान	-9.51974
▁लेता	-9.52166
▁कठोर	-9.52337
▁प्रमाणपत्र	-9.52345
ुआ	-9.52447
▁करेगी	-9.5247
▁खोल	-9.52485
▁चले	-9.5251
▁जनसंख्या	-9.52531
नों	-9.52537
▁वजह	-9.52597
▁बातों	-9.52597
चार	-9.52637
▁ता	-9.52649
▁ऐतिहासिक	-9.52661
ान्त	-9.52676
▁सेट	-9.52711
▁वालों	-9.5274
▁गंगा	-9.52762
▁विरोधी	-9.52926
▁लगातार	-9.52936
▁अभिलेख	-9.52994
▁नियुक्ति	-9.53
िर	-9.53028
▁परिणामस्वरूप	-9.53055
▁आंतरिक	-9.5325
▁अगस्त	-9.53256
बंध	-9.53268
▁बढ	-9.53301
▁हत्या	-9.53451
▁फिल्म	-9.53457
वाली	-9.53463
▁पाए	-9.53517
हित	-9.5376
▁पसंद	-9.53773
▁खिलाफ	-9.53812
▁जाँच	-9.5384
▁संसाधनों	-9.53852
▁सार	-9.53853
फा	-9.53897
▁पति	-9.5394
▁15	-9.54004
▁सत्र	-9.54032
▁विश्लेषण	-9.54036
ढ	-9.54091
▁त्रि	-9.54112
▁रखता	-9.54127
▁विधिक	-9.5413
▁रीति	-9.54143
▁ढ	-9.54157
▁डर	-9.54172
▁प्रशासनिक	-9.54218
▁सप्ताह	-9.54302
▁मल	-9.54405
▁सड़क	-9.54416
▁टे	-9.54474
▁संचालन	-9.54632
▁वैश्विक	-9.54706
डर	-9.54718
▁निष्कर्ष	-9.54766
▁वन	-9.54812
▁बजाय	-9.54842
on	-9.54844
▁बैठ	-9.54868
त्य	-9.54889
▁न्यूनतम	-9.54897
▁बातें	-9.54988
▁रेल	-9.55077
▁चिंता	-9.55102
▁नेहरू	-9.55164
▁विचारण	-9.55212
▁आठ	-9.55254
▁पकड़	-9.55321
▁हासिल	-9.55368
▁अग्र	-9.5538
▁श्रम	-9.5541
▁मस्तिष्क	-9.55437
▁अल्प	-9.55455
▁अवि	-9.55529
▁संसार	-9.55534
▁कौशल	-9.55632
▁नियत	-9.55664
पक	-9.55773
द्व	-9.55787
ल्	-9.55916
▁नागरिकों	-9.56006
▁ज़	-9.56073
▁मई	-9.56126
▁कथन	-9.56185
न्ड	-9.56206
कल	-9.56345
ंध	-9.5638
m	-9.56404
▁उम्र	-9.5665
▁आसान	-9.56684
▁कलकत्ता	-9.56709
▁विहित	-9.56898
▁पृथ्वी	-9.56913
ियम	-9.56946
▁कश्मीर	-9.56981
▁कमजोर	-9.56982
▁पढ़	-9.57077
▁अफ्रीका	-9.57117
ाक	-9.57151
▁बै	-9.57188
▁प्रोग्राम	-9.57216
▁सुख	-9.57275
▁जुड़े	-9.57294
▁उपयोगी	-9.57304
▁महामहिम	-9.57321
▁जाएं	-9.57358
पति	-9.57456
▁स्वा	-9.57474
▁अस्पताल	-9.57526
▁बनने	-9.57533
▁कुंजी	-9.57661
▁सुभाष	-9.57672
दि	-9.57795
▁लोकप्रिय	-9.5781
▁शि	-9.57857
▁बीमारी	-9.57903
लर	-9.57905
▁सहकारी	-9.57911
▁सूर्य	-9.57932
▁संबंधों	-9.5797
▁शुरुआत	-9.58005
ष्ठ	-9.58024
▁छोड़कर	-9.58162
▁ii	-9.58266
▁सर्वाधिक	-9.58308
▁लक्षण	-9.58348
▁वैसे	-9.58385
▁जेल	-9.58572
▁संबद्ध	-9.58575
▁सृजन	-9.5867
▁आस	-9.58689
▁मीडिया	-9.58699
पट	-9.58709
▁संविदा	-9.58766
ियर	-9.58775
▁अस्थि	-9.58961
▁f	-9.58972
िनी	-9.59048
द्द	-9.59062
▁विशेषकर	-9.59096
न्स	-9.5919
▁नर	-9.59208
▁चलते	-9.59386
▁पूजा	-9.59461
▁b	-9.59499
▁डिस्क	-9.59547
▁10	-9.59577
▁अनुरूप	-9.59632
्रा	-9.59693
ग्	-9.59791
▁संगठनों	-9.59856
▁न्यायमूर्ति	-9.59871
▁शिकार	-9.59882
ज्	-9.59923
▁रस	-9.59949
▁चक्र	-9.5997
▁यूरोप	-9.60007
▁बदलाव	-9.60017
▁करीब	-9.60019
▁दर्ज	-9.60086
▁मास	-9.60151
▁पीड़ित	-9.60155
▁विपरीत	-9.60225
▁लिख	-9.60259
▁अम	-9.60269
▁हटा	-9.60301
▁विविध	-9.60329
O	-9.60375
▁बातचीत	-9.60576
था	-9.60877
▁समुचित	-9.60929
बू	-9.6096
▁बुनियादी	-9.60997
▁प्रतिनिधित्व	-9.61014
▁त्याग	-9.61066
▁रू	-9.61092
▁विभाजन	-9.61104
▁दशक	-9.61221
or	-9.61281
▁परस्पर	-9.61285
▁बुद्धि	-9.61455
ंब	-9.61562
▁उद्योगों	-9.61582
▁असफल	-9.61626
▁संकट	-9.6167
▁दूध	-9.6172
▁समझौता	-9.61754
▁वकील	-9.61781
क्र	-9.61848
्ट	-9.61928
न्ध	-9.61984
▁क्षति	-9.62222
▁पूर्ववर्ष	-9.62228
▁किसानों	-9.62274
▁तल	-9.62404
नो	-9.625
ङ	-9.62846
▁अनुरोध	-9.62875
चे	-9.62922
जनक	-9.62987
▁लाइन	-9.6305
▁परिवहन	-9.63143
ृत	-9.63218
्ले	-9.63258
▁प्रबंध	-9.63259
▁किस्म	-9.6328
▁स्कीम	-9.63313
▁वीर	-9.63349
इस	-9.63487
दन	-9.63543
ेस	-9.63638
▁बो	-9.63701
▁भगवान	-9.63732
▁सरकारों	-9.63747
▁प्रस्तावित	-9.63775
▁कर्तव्य	-9.63814
▁उद्	-9.63828
▁जाएंगे	-9.63904
▁क्	-9.63946
▁मीटर	-9.6396
▁एंड	-9.64014
मित	-9.64127
▁अन्त	-9.64193
▁रेखा	-9.64246
ic	-9.64246
▁मंडल	-9.6432
▁M	-9.64412
सि	-9.64415
▁पहुँच	-9.64441
▁नौ	-9.64457
तक	-9.64472
ाइड	-9.64509
▁पड़े	-9.64545
▁व्याख्या	-9.6466
चन	-9.64755
र्म	-9.64789
▁बचा	-9.64796
▁कार्ड	-9.64851
दे	-9.64951
िय	-9.64972
▁जहाज	-9.64988
▁आस्ति	-9.65027
▁मू	-9.65063
▁सचिव	-9.65116
भि	-9.65118
▁पूर्वी	-9.65124
देव	-9.65212
▁इतने	-9.65261
▁हिंसा	-9.65262
▁आफ	-9.6528
▁टीम	-9.65316
गार	-9.65325
त्मक	-9.6534
▁भेजा	-9.65393
▁उत्पादों	-9.65401
▁अक्सर	-9.65408
एफ	-9.65455
▁धारण	-9.65497
धी	-9.65522
▁जिले	-9.65573
▁कक्ष	-9.65633
▁अन्दर	-9.65633
▁फूल	-9.6569
▁आनन्द	-9.65699
ेंगे	-9.65742
▁अमेरिकी	-9.65778
▁नयी	-9.65866
▁x	-9.65873
▁राज्यपाल	-9.65969
ुर	-9.66
▁चुनौती	-9.66075
▁निकाय	-9.66122
▁अर्थात	-9.66133
▁प्रेरणा	-9.66182
C	-9.66299
▁खान	-9.66329
▁महाराष्ट्र	-9.66405
▁देवी	-9.66427
▁सर्वेक्षण	-9.66447
▁निदेश	-9.66488
▁पत्थर	-9.66522
द्ध	-9.66593
▁निभा	-9.66718
▁संसदीय	-9.6672
▁ईसा	-9.66728
िज	-9.66786
▁उत्साह	-9.66822
धि	-9.66898
मेंट	-9.66994
िस्ट	-9.67001
▁अभियुक्त	-9.67013
▁कुमार	-9.67056
▁तीव्र	-9.67059
भूत	-9.67173
▁घटा	-9.67195
▁वेब	-9.67226
र्ग	-9.67241
▁साबित	-9.67272
नु	-9.67298
पत्र	-9.67299
c	-9.67314
▁अभाव	-9.67382
▁अभिप्रेत	-9.67423
▁भागीदारी	-9.67454
▁लड़	-9.67486
▁निश्चय	-9.67574
▁अनुपात	-9.67592
▁यंत्र	-9.67649
र्द	-9.67696
▁अकबर	-9.67733
T	-9.67755
▁छवि	-9.67781
▁कॉ	-9.67787
▁देगा	-9.67796
▁माह	-9.67828
▁दूरी	-9.67874
धा	-9.67884
▁लिखी	-9.67886
▁p	-9.6789
▁12	-9.67916
क़	-9.67917
▁सर्वर	-9.67958
▁नवान्वेषण	-9.67966
▁मूल्यों	-9.67981
▁हि	-9.68142
▁वहीं	-9.68192
▁परिवर्तित	-9.68335
▁अनुप्रयोग	-9.68384
▁संस्करण	-9.68407
गे	-9.68449
ीकृत	-9.68453
x	-9.68457
▁प्रारंभिक	-9.68473
ेर	-9.6856
▁स्था	-9.68624
▁समन्वय	-9.68865
▁गठित	-9.68865
ग्न	-9.68917
▁मौजूदा	-9.68922
N	-9.68965
▁अन्यथा	-9.69145
▁सभ्यता	-9.69264
▁शाह	-9.69266
▁समीक्षा	-9.69479
R	-9.69684
▁समग्र	-9.69959
▁आवाज	-9.69998
ंगे	-9.70242
ेगा	-9.70282
▁उतर	-9.70285
▁भाषाओं	-9.70445
▁समाप्ति	-9.70492
▁नैतिक	-9.70501
▁सुसंगत	-9.70562
▁सुविधाओं	-9.70571
▁मैदान	-9.70578
▁उम्मीद	-9.7059
–	-9.70659
▁सम्बन्धी	-9.70739
▁वर्षा	-9.70743
▁स्क	-9.70746
▁पवित्र	-9.70796
▁द्वितीय	-9.70796
▁परमाणु	-9.70877
▁आचरण	-9.70894
▁लिखने	-9.70912
▁कोड	-9.70947
▁उत्	-9.70953
विक	-9.70979
▁अंतर्	-9.71009
▁G	-9.71049
▁आवास	-9.71079
▁नुकसान	-9.71108
en	-9.71111
▁सतह	-9.71169
▁जुलाई	-9.71207
न्ट	-9.71279
▁चीज़	-9.71298
▁परियोजनाओं	-9.71448
▁प्रोत्साहित	-9.71502
▁सॉफ्टवेयर	-9.71579
िड	-9.71656
▁आमतौर	-9.71657
v	-9.71719
▁रोकने	-9.71741
▁ख़	-9.71752
प्	-9.71758
▁कतिपय	-9.71893
▁प्रतिनिधि	-9.71941
▁उपक्रम	-9.72019
▁देखकर	-9.72061
▁आकर्षित	-9.7213
▁खाने	-9.72171
▁पाई	-9.72194
▁c	-9.72203
्ल	-9.72242
▁जिनक	-9.72272
▁फीस	-9.72311
ाद	-9.72377
▁आशय	-9.72407
▁शैक्षिक	-9.72447
▁पशु	-9.726
क्षण	-9.7263
▁आरम्भ	-9.72632
▁ज्ञात	-9.72647
कल्प	-9.72672
▁रखें	-9.72725
▁कम्प	-9.72732
▁बाह्य	-9.72765
▁करो	-9.73348
▁निवास	-9.73376
▁शोध	-9.73488
▁कीट	-9.73538
▁20	-9.73572
▁दि	-9.73579
at	-9.73588
ेश्वर	-9.73613
▁हवाई	-9.73664
▁चूंक	-9.73747
▁बिल्कुल	-9.73804
D	-9.73827
▁g	-9.73837
डि	-9.73951
▁परंपरा	-9.74085
वां	-9.74096
▁संलग्न	-9.74126
्वा	-9.74157
▁जानता	-9.74172
▁स्तंभ	-9.74207
▁सहज	-9.7424
▁आग्रह	-9.74264
▁जीवित	-9.74282
▁पाठ्यक्रम	-9.74288
▁नियंत्रित	-9.74368
▁केरल	-9.74395
▁खाना	-9.74479
▁उभर	-9.74487
पे	-9.74503
▁व्यावसायिक	-9.74529
▁देकर	-9.74594
जि	-9.74594
▁लिमिटेड	-9.7461
▁देर	-9.74658
▁18	-9.7466
वाल	-9.74681
ॉँ	-9.74743
▁अधिकतर	-9.74771
▁ग्राहक	-9.74796
▁प्रसार	-9.74802
▁याचिका	-9.74803
▁रहेगा	-9.74977
▁जितना	-9.74992
ताओं	-9.75063
▁चरित्र	-9.751
▁युक्त	-9.75109
▁लेखन	-9.75193
योग	-9.75222
▁द्वि	-9.75333
▁समा	-9.75373
▁खुले	-9.75417
▁मुद्दों	-9.75424
▁कितना	-9.75446
र्थ	-9.75464
र्व	-9.75488
▁मानवीय	-9.75567
▁तुरंत	-9.75669
▁मिट्टी	-9.75674
▁जड़	-9.75686
▁सहमत	-9.75743
▁गुजरात	-9.75756
▁मुश्किल	-9.75833
▁फार्म	-9.75846
▁निष्पादन	-9.75917
क़्	-9.75938
▁चलो	-9.75972
▁D	-9.76136
शास्त्र	-9.76217
▁आग	-9.76282
ेय	-9.763
▁गोल	-9.76319
जर	-9.76345
▁प्रारूप	-9.76345
b	-9.7638
ूँ	-9.76408
▁भंडार	-9.76437
▁चे	-9.76508
▁क्ल	-9.76571
▁दबाव	-9.7659
▁लाया	-9.7664
▁घंटे	-9.76657
रुप	-9.76723
्ज	-9.76833
▁सदा	-9.76906
प्त	-9.7692
▁प्रभार	-9.76927
▁आसानी	-9.76937
▁सरदार	-9.76968
▁शिखर	-9.77071
▁समझौते	-9.77132
▁प्रतिभा	-9.77148
▁थोड़ा	-9.77154
▁प्यार	-9.77239
▁जटिल	-9.77367
▁आसपास	-9.77403
स्टर	-9.77452
तया	-9.77453
▁मकान	-9.77489
▁लंबे	-9.77492
क्क	-9.77558
▁विरूद्ध	-9.77578
▁अन्तर्गत	-9.77586
▁सहमति	-9.77604
▁प्राथमिकता	-9.77611
वास	-9.77651
L	-9.77663
▁एकमात्र	-9.77674
▁इंटरनेट	-9.77738
▁बिंदु	-9.77748
▁धु	-9.77765
▁घटनाओं	-9.77767
यू	-9.77796
▁फोन	-9.77832
मत	-9.77833
▁यु	-9.77889
षण	-9.77932
▁अनुदान	-9.77941
आई	-9.77943
▁नेपाल	-9.77949
▁अन्तर	-9.77977
▁द्वीप	-9.78041
▁बढ़ती	-9.78114
▁इनका	-9.78275
णी	-9.78324
▁प्रार्थना	-9.78324
▁कारणों	-9.78326
▁महात्मा	-9.78327
▁साक्षी	-9.78335
ेक	-9.78404
▁वर्ण	-9.78431
▁w	-9.7853
▁विमर्श	-9.78576
कालीन	-9.78592
▁जिनकी	-9.78616
▁पेड़	-9.78649
▁पैरा	-9.78819
▁दूसरों	-9.78829
▁श्रृंखला	-9.78829
िये	-9.79153
▁उत्तरी	-9.79178
▁मं	-9.79217
शि	-9.79282
गन	-9.79388
▁बोस	-9.79401
▁सदैव	-9.79423
▁आपराधिक	-9.79423
▁नेताओं	-9.79442
▁प्रथा	-9.79489
▁आहार	-9.79546
B	-9.79621
्रे	-9.79647
▁खेती	-9.79666
▁लिखे	-9.79672
कुल	-9.79678
▁फा	-9.79684
▁बच	-9.79691
ूल	-9.79731
▁राजस्थान	-9.79775
▁सै	-9.79858
शोथ	-9.79875
▁जाकर	-9.79926
▁कागज	-9.79955
▁एकल	-9.80021
it	-9.80051
▁चुन	-9.80058
▁अप्र	-9.8014
▁हैंः	-9.80195
▁रास्ता	-9.802
▁कितनी	-9.80285
▁पंजीकरण	-9.80287
▁प्रतिकूल	-9.80297
टन	-9.80317
▁असमर्थ	-9.8037
▁प्रचलित	-9.80448
▁रद्द	-9.80476
वाई	-9.80517
लिंग	-9.80527
▁n	-9.80563
▁चू	-9.8061
▁मालिक	-9.80749
▁मोबाइल	-9.80792
▁खतरा	-9.80793
▁ताकत	-9.8083
▁कार्यान्वयन	-9.8088
▁अग्रिम	-9.80889
▁आर्	-9.80983
▁कंपनियों	-9.81051
ोस	-9.81144
re	-9.81161
▁शीर्षक	-9.81192
▁दान	-9.81214
▁अनुसूचित	-9.81224
et	-9.81291
▁फै	-9.81292
▁चौ	-9.81324
▁समझने	-9.81325
णा	-9.81389
▁शहरी	-9.81459
▁चोट	-9.81523
▁कब	-9.8154
▁सूत्र	-9.8165
▁मालूम	-9.81658
▁संयंत्र	-9.81769
▁बनाये	-9.8183
▁जनरल	-9.8192
र्ण	-9.81978
▁यूनिट	-9.82181
▁संदेह	-9.82201
लैंड	-9.8221
▁दुख	-9.82287
▁स्थिर	-9.82372
▁उठाने	-9.82397
ाउ	-9.82429
▁सां	-9.8243
▁भावी	-9.82517
▁जरिए	-9.82531
ंगा	-9.82537
▁अध	-9.82567
▁मॉडल	-9.8262
▁खींच	-9.82706
▁14	-9.82834
▁प्रवाह	-9.82924
▁दवा	-9.83063
▁राजनीति	-9.83121
▁प्रेस	-9.83135
▁पूर्ति	-9.83141
▁फैल	-9.83147
▁विश्वविद्यालयों	-9.83149
▁किनारे	-9.8315
▁एकता	-9.8322
▁जैव	-9.83255
▁विधियों	-9.83279
▁साम्राज्य	-9.83346
▁रेलवे	-9.8354
▁परिषद्	-9.83598
▁अर्ध	-9.83606
वत	-9.83617
▁हिस्से	-9.83674
▁शर्तों	-9.83689
▁11	-9.83901
▁देंगे	-9.83929
▁प्रविष्टि	-9.8417
▁फ़िल्म	-9.8421
▁रास्ते	-9.843
▁दिव्य	-9.84322
पि	-9.84354
▁पोषण	-9.84397
लय	-9.84452
▁चलाने	-9.84525
▁तिथि	-9.84572
▁अनुसूची	-9.84575
▁फरवरी	-9.84748
▁तंत्रिका	-9.84789
▁हितों	-9.84891
▁स्ट	-9.84898
▁धारणा	-9.85078
▁राजस्व	-9.85143
▁दर्शा	-9.85183
▁प्रतिभूति	-9.85189
▁निरीक्षण	-9.85196
▁किसान	-9.85255
▁विद्यालय	-9.8529
▁पुरान	-9.85334
▁स्वस्थ	-9.85362
▁समर्पित	-9.85376
in	-9.85396
▁पूछा	-9.85399
▁स्वर	-9.85486
▁सर्वोत्तम	-9.85557
▁हार	-9.85564
विज्ञान	-9.85566
▁स्वीकृति	-9.85571
▁L	-9.85608
ट्ट	-9.85638
▁भंडारण	-9.85797
्ति	-9.85805
ष्	-9.85818
▁R	-9.85822
▁अनुसरण	-9.85828
एन	-9.85849
▁सौर	-9.85896
▁ध्वनि	-9.85912
▁लंबी	-9.85925
नाम	-9.85984
▁उपर	-9.86
▁न्यास	-9.86068
मिन	-9.86088
▁गहन	-9.86112
सो	-9.86161
▁उपस्थिति	-9.86167
▁समृद्ध	-9.86208
▁दीवार	-9.86233
▁पाते	-9.86241
▁हाथों	-9.86271
ीर	-9.86281
▁क्रिकेट	-9.86284
चि	-9.86371
▁दुर्घटना	-9.86374
▁टो	-9.86403
▁वर्गों	-9.86403
▁फर्म	-9.86406
▁चु	-9.86448
ून	-9.86486
▁एड	-9.86542
▁मृत्युदंड	-9.8683
श्त	-9.8686
▁दबा	-9.86872
▁चालू	-9.86881
▁विनय	-9.86936
घात	-9.86966
▁परम	-9.86994
▁सागर	-9.87014
▁सम्पूर्ण	-9.87037
▁संदाय	-9.8704
▁युक्ति	-9.87109
ाकार	-9.87121
जो	-9.87131
▁विनिमय	-9.87201
▁तुम्हारे	-9.87246
▁निपटान	-9.87268
▁पंक्ति	-9.87282
ing	-9.87286
▁हिंदुस्तान	-9.87382
▁करा	-9.87446
▁संक्षिप्त	-9.87473
▁खड़ा	-9.87524
▁फि	-9.87527
▁कोशिका	-9.87536
▁परिभाषित	-9.87538
▁आकर	-9.87541
▁उधार	-9.87563
▁वरिष्ठ	-9.87568
▁पर्यटन	-9.87658
▁प्रवृत्ति	-9.87818
▁प्रदूषण	-9.87842
▁N	-9.87944
▁संक्रमण	-9.87949
▁...	-9.87988
र्त	-9.87988
मैन	-9.88003
▁नीतियों	-9.8812
▁पर्वत	-9.88247
▁अना	-9.88294
▁श्रेष्ठ	-9.88305
▁ऑनलाइन	-9.884
यु	-9.88401
▁तत्काल	-9.88447
▁संवर्धन	-9.88525
▁बाकी	-9.88704
▁आवश्यकताओं	-9.88755
▁योजनाओं	-9.88809
टो	-9.88826
▁त्वचा	-9.88865
▁घट	-9.8905
ंभ	-9.89115
▁असर	-9.89116
▁जु	-9.89137
▁अचानक	-9.89145
▁भय	-9.89145
▁आलोचना	-9.8915
निया	-9.89221
▁ताल	-9.89351
दास	-9.89371
नगर	-9.89392
▁अद्यतन	-9.89426
चित	-9.8948
g	-9.89492
▁दर्द	-9.89496
▁रेडियो	-9.89534
▁मिलियन	-9.89572
▁ढांचे	-9.89614
▁समर्थ	-9.89615
▁हद	-9.89621
▁स्वतः	-9.89667
▁शुरु	-9.8981
▁संवाद	-9.89842
▁बदले	-9.89852
▁काट	-9.89856
▁जाल	-9.89881
▁बदलने	-9.89887
▁क़	-9.89912
ड्र	-9.89916
▁कार	-9.89921
त्ता	-9.89926
तन	-9.89966
▁उड़	-9.89984
▁प्राधिकार	-9.90018
▁ग्र	-9.90067
▁विभाजित	-9.90086
▁हार्दिक	-9.90086
▁पढ़ने	-9.90118
▁प्रिय	-9.90119
▁मध्यम	-9.9012
▁बिहार	-9.90189
▁मिनट	-9.90281
,000	-9.90307
▁लु	-9.90308
▁वृ	-9.9035
▁सारा	-9.9036
पित	-9.90381
गल	-9.90389
ांक	-9.90489
लु	-9.90493
▁प्रशंसा	-9.90561
ाइल	-9.90668
भर	-9.90669
ीम	-9.90722
▁दास	-9.90752
▁यथास्थिति	-9.90754
ंडा	-9.90825
▁इसने	-9.90847
▁चलने	-9.9089
्री	-9.90906
रिक	-9.90915
▁पक्षकार	-9.90993
▁खराब	-9.91039
▁गुजर	-9.91137
▁कितने	-9.91154
▁धा	-9.91192
h	-9.91214
वर्तन	-9.91304
ंप	-9.91326
▁आजादी	-9.91326
▁पाल	-9.91369
▁m	-9.9137
स्य	-9.91378
रोह	-9.9145
▁अवैध	-9.91515
▁सुनवाई	-9.91527
▁सिद्धांतों	-9.91605
▁क्षण	-9.91611
टिक	-9.91718
▁टूट	-9.91767
▁खुश	-9.91788
▁विशेषता	-9.9185
लिन	-9.91863
▁सुविधाएं	-9.91946
▁कम्पनी	-9.91949
▁संशोधित	-9.91996
▁समानता	-9.92169
▁अनुमोदन	-9.92189
▁उल्लेखनीय	-9.92212
▁औ	-9.92239
▁बाबू	-9.92262
▁पैर	-9.92467
▁वेद	-9.92506
ौर	-9.92559
▁सुदृढ़	-9.92576
▁चन्द्र	-9.92683
▁नंबर	-9.92687
▁देखना	-9.92715
▁स्वाभाविक	-9.9277
▁सशक्त	-9.92863
▁निवारण	-9.92964
▁गहरा	-9.93104
▁राजधानी	-9.93257
▁उसको	-9.93359
▁इनकी	-9.93392
▁नृत्य	-9.93452
▁अर्	-9.93495
▁चाल	-9.93512
▁स्वच्छ	-9.93603
क्षा	-9.93622
▁साहस	-9.93708
▁पौधों	-9.93737
▁उत्कृष्ट	-9.9379
▁स्	-9.93802
▁सीख	-9.93805
कता	-9.93814
▁विनिश्चय	-9.93844
▁प्रान्त	-9.93845
▁औपचारिक	-9.93942
▁पेट	-9.93995
▁चिकित्सक	-9.94018
▁शिशु	-9.94045
▁धातु	-9.9405
▁शिक्षक	-9.94122
▁बालक	-9.94139
्ता	-9.94176
▁फ्ल	-9.94184
▁दुकान	-9.9424
▁ठोस	-9.94251
▁वर्णित	-9.94276
▁जिम्मेदारी	-9.94345
▁बाधा	-9.94367
▁बजट	-9.94371
▁जलवायु	-9.94435
▁दुःख	-9.94435
▁कौ	-9.94438
▁क्रांति	-9.9453
▁संगम	-9.94547
▁E	-9.94668
घर	-9.94674
▁हालत	-9.9468
▁भक्ति	-9.94687
क्रम	-9.94698
▁उद्घाटन	-9.94731
▁विभिन्	-9.94955
▁इन्	-9.94983
▁I	-9.94985
▁शर्त	-9.94988
▁बौद्धिक	-9.95041
ाधिकार	-9.9513
▁हिमालय	-9.95131
▁समूहों	-9.95213
▁समुद्री	-9.95282
▁सैनिक	-9.95326
▁ब्रिटेन	-9.95328
▁हस्तक्षेप	-9.9533
es	-9.95355
हि	-9.95381
प्प	-9.95406
दत्त	-9.95448
ोट	-9.9548
▁ज़्यादा	-9.95527
▁सफेद	-9.95527
▁खत्म	-9.95554
वेद	-9.95605
▁क्लिक	-9.95617
▁प्राधिकृत	-9.95627
▁योग्यता	-9.95637
▁बांध	-9.95698
वाला	-9.95748
▁पीठ	-9.95758
▁प्रवृत्त	-9.95799
▁फैला	-9.95862
▁पंच	-9.95895
ज्य	-9.95965
▁चुने	-9.95986
▁अली	-9.96035
▁सुर	-9.96104
▁समृद्धि	-9.9611
▁दैनिक	-9.96128
▁ब्रह्म	-9.96241
▁गुफा	-9.96244
▁लिपि	-9.96292
च्च	-9.96374
▁विविधता	-9.96375
ब्ब	-9.96376
▁खाली	-9.96385
मर	-9.96458
▁चिह्न	-9.96628
▁गरीबी	-9.96698
▁गहरी	-9.96733
▁भले	-9.96736
▁लै	-9.96739
▁कष्ट	-9.96785
▁देय	-9.9683
▁विपणन	-9.96834
▁जैन	-9.9685
▁गाय	-9.96855
तंत्र	-9.96962
▁नौकरी	-9.97013
▁रसायन	-9.9704
▁गि	-9.97048
▁जय	-9.97119
▁कारोबार	-9.97138
▁दिख	-9.97316
▁चैनल	-9.97342
▁भेंट	-9.9736
▁गणना	-9.97371
िटी	-9.97485
▁सामूहिक	-9.97544
▁बचत	-9.97648
्ड	-9.97658
▁छा	-9.97735
▁उत्तरदायी	-9.97761
▁मिलाकर	-9.97778
ानी	-9.9782
▁अक्ष	-9.97867
न्त्र	-9.97993
▁बचाव	-9.9802
▁मिलते	-9.98023
▁बौद्ध	-9.98052
▁सिद्धान्त	-9.98071
▁सोचा	-9.98117
▁ग्रंथ	-9.98121
फल	-9.9814
▁जम्मू	-9.98158
▁दौर	-9.98161
▁सामान्यतः	-9.98166
▁तत्वों	-9.98207
▁विफल	-9.98211
िव	-9.98235
▁सितंबर	-9.9826
▁कमरे	-9.9826
▁आदान	-9.98308
▁माप	-9.98327
▁लेन	-9.98436
मुख	-9.98558
▁मना	-9.98568
▁सकेगी	-9.98639
▁स्टेशन	-9.98693
लों	-9.98715
▁डिजाइन	-9.98774
▁असाधारण	-9.98775
▁13	-9.98845
▁लिंग	-9.98852
▁पू	-9.98874
▁अग्रणी	-9.98887
▁पार्क	-9.98897
▁वैध	-9.98914
▁कर्नाटक	-9.98981
▁राहत	-9.99175
ाब	-9.99186
▁वस्त्र	-9.99247
▁वंश	-9.99272
▁कहने	-9.99319
▁अमर	-9.99399
ग्र	-9.9944
▁लॉ	-9.99507
श्र	-9.99524
▁उतार	-9.9961
▁माँ	-9.99621
▁विनियम	-9.99624
▁यूरोपीय	-9.99706
▁परिसर	-9.99767
▁ऋ	-9.99848
▁स्वर्ण	-9.99938
▁घूम	-10.0002
▁गांवों	-10.0003
▁इक	-10.0004
ँग	-10.0006
▁कराया	-10.0008
▁भंग	-10.0014
पद	-10.0017
▁प्रवर्तन	-10.0018
▁उच्चतर	-10.0019
▁तर	-10.0024
▁घटक	-10.0024
जीव	-10.005
▁अक्तूबर	-10.0054
▁डाला	-10.0065
▁निगरानी	-10.0065
▁प्रत्या	-10.0066
▁अज	-10.007
▁कार्यवाहियों	-10.0075
▁1961	-10.0076
▁परिभाषा	-10.0076
▁आना	-10.0078
▁पृथक	-10.0086
▁लड़के	-10.0091
▁कठिनाई	-10.0093
जल	-10.0094
▁नेत्र	-10.0104
मार	-10.0111
▁रुचि	-10.0122
▁रवीन्द्रनाथ	-10.0128
ाधिक	-10.0141
ॉल	-10.0144
▁व्यक्तित्व	-10.0146
▁संवैधानिक	-10.0149
▁सुबह	-10.0149
▁लड़ाई	-10.0154
ग़	-10.0164
▁गरीब	-10.0167
▁चाय	-10.0168
▁लाइसेंस	-10.0171
▁कारावास	-10.0171
सिंह	-10.0173
▁पड	-10.0174
बो	-10.0177
▁कॉलेज	-10.0182
▁आंध्र	-10.0192
▁खण्ड	-10.0195
▁पौधे	-10.0202
▁चमक	-10.0207
▁निचल	-10.022
▁विद्रोह	-10.0224
डो	-10.0225
▁पल	-10.0233
▁उन्नत	-10.0235
▁बैंकिंग	-10.0241
▁सजा	-10.0247
▁दृढ़	-10.0251
▁नेशनल	-10.0256
▁मोड	-10.0256
▁परिचय	-10.0257
▁पड़ी	-10.0258
ब्र	-10.0259
▁चाह	-10.0263
ज्ञान	-10.027
बार	-10.0272
▁मुक्ति	-10.0276
▁खतरे	-10.0277
▁आरंभिक	-10.0283
▁शोक	-10.0288
▁मुद्दे	-10.0288
▁विरासत	-10.0299
▁पाँच	-10.0299
सार	-10.0303
▁खड़े	-10.031
ेंट	-10.0319
श्	-10.032
क्टर	-10.0334
स्त्र	-10.0342
धान	-10.0344
▁तथ्यों	-10.035
▁सीमाओं	-10.0355
▁लगाना	-10.0361
▁जातियों	-10.0363
▁पक्षों	-10.0364
▁पदार्थों	-10.0365
▁अपनाया	-10.0377
▁वाहन	-10.038
ब्	-10.038
▁पैसे	-10.038
▁2018	-10.0385
▁कामना	-10.0386
▁चीजों	-10.0388
▁मैने	-10.039
▁अश	-10.0392
ख़	-10.0401
ूं	-10.0406
▁न्यायपालिका	-10.0408
▁शहरों	-10.0408
▁चीनी	-10.0409
लन	-10.0415
▁कहता	-10.0416
्ज़	-10.0422
▁पूछ	-10.0422
शाला	-10.0423
शक्ति	-10.0423
▁दोस्त	-10.0428
▁शिक्षण	-10.043
पात	-10.0439
▁वंचित	-10.0451
▁भेद	-10.0452
▁उपखंड	-10.0453
▁देन	-10.0461
▁स्वभाव	-10.0465
ed	-10.0467
▁देवता	-10.0472
▁मूलभूत	-10.0477
▁आश्चर्य	-10.0483
ेरी	-10.0489
▁अनुज्ञात	-10.0493
▁विक्रय	-10.0494
अर	-10.0501
▁पं	-10.0505
▁सम्पत्ति	-10.0506
▁उद	-10.0509
▁अधिसूचना	-10.0517
▁कोर्ट	-10.0521
▁लेती	-10.0533
is	-10.054
▁दायर	-10.0541
▁अंतरिक्ष	-10.0549
▁पेंशन	-10.0549
▁साहित्यिक	-10.0568
▁जीत	-10.057
▁तीसरे	-10.0573
▁लिंक	-10.0577
▁ची	-10.0578
ॉन	-10.058
▁बल्लेबाज	-10.0583
▁अं	-10.0584
धन	-10.0585
▁जानने	-10.0586
▁रहें	-10.0591
▁‘‘	-10.0595
रक	-10.06
▁अदा	-10.0602
▁तलाश	-10.0605
▁प्रक्रियाओं	-10.0607
▁शक्तिशाली	-10.0607
ेंद्र	-10.0614
▁बिलकुल	-10.0617
▁ब्राह्मण	-10.0618
▁अंड	-10.0619
श्म	-10.0619
▁संधि	-10.062
▁इस्लामी	-10.0623
▁बद	-10.0625
▁कूट	-10.0628
▁मानना	-10.0641
पत	-10.0645
▁अर्जित	-10.0649
▁संध्या	-10.0653
▁कक्षा	-10.0654
्ला	-10.0656
▁टा	-10.0657
▁हस्त	-10.067
श्य	-10.0671
विध	-10.0673
उतना	-10.0676
▁वाद्य	-10.0678
गम	-10.0692
▁मौलिक	-10.0694
षा	-10.0696
▁उठाया	-10.0697
▁भागीदार	-10.0712
▁उपलब्धि	-10.0717
▁क्र	-10.0723
▁पैमाने	-10.0727
▁उपकरणों	-10.0734
▁टिप्पणी	-10.0737
▁पढ़ा	-10.0743
▁बजे	-10.0745
ग्रस्त	-10.0748
▁कुशल	-10.0749
▁दीर्घ	-10.0749
▁स्क्रीन	-10.075
▁पुष्टि	-10.0751
▁अक्षर	-10.0755
▁मोह	-10.0757
▁16	-10.0762
▁गुरू	-10.077
▁संत	-10.0778
▁जीन	-10.0789
▁बीस	-10.0794
्टे	-10.0795
▁वृक्ष	-10.0803
▁डाटा	-10.0807
▁उपायों	-10.081
ीज	-10.0813
▁चाहती	-10.0824
सल	-10.0827
िप	-10.0827
▁आकाश	-10.0829
▁नस्ल	-10.083
▁अनुचित	-10.0832
▁बहस	-10.0834
▁बनाता	-10.0841
▁मूर्ति	-10.0848
ठा	-10.0854
▁प्रबंधक	-10.0868
▁ति	-10.0872
▁अमरीका	-10.0875
▁मनो	-10.0875
▁बन्द	-10.0877
▁मंदिरों	-10.0881
लेट	-10.0884
▁प्रतियोगिता	-10.0886
ंडी	-10.0892
▁प्रश्नों	-10.0895
जीवन	-10.0903
▁आउट	-10.0909
गुण	-10.0912
▁आराम	-10.0922
▁संचालित	-10.0922
राव	-10.0923
▁भारतीयों	-10.0928
कर्ताओं	-10.0931
हत	-10.0933
▁पहुंचने	-10.0935
▁अगला	-10.0937
▁पृष्ठभूमि	-10.0944
पार	-10.0946
फर	-10.0946
▁पत	-10.0946
▁अपराधों	-10.0952
▁t	-10.0955
▁नवीन	-10.0955
aa	-10.096
▁स्वामित्व	-10.0966
ल्ला	-10.0968
▁विद्वान	-10.0969
▁बेच	-10.0969
▁गर्म	-10.0974
▁मुगल	-10.098
▁शक्तियां	-10.098
्थ	-10.098
▁अन्वेषण	-10.0989
▁द्विपक्षीय	-10.0989
▁फ़ोल्डर	-10.0989
ञ	-10.0998
▁आइ	-10.1002
▁पट	-10.1012
▁पीढ़ी	-10.1012
▁विश	-10.1017
द्य	-10.102
▁अस्थायी	-10.1024
▁e	-10.1024
हे	-10.1026
▁अंग्रेज	-10.1032
▁पंख	-10.1033
ैल	-10.1035
▁मजिस्ट्रेट	-10.1035
▁सकेंगे	-10.1036
▁शत्रु	-10.1037
▁छत	-10.1044
▁सदी	-10.1045
▁संबोधित	-10.1047
▁सराहना	-10.1047
▁पंडित	-10.1047
▁उद्यान	-10.1048
▁होम	-10.1053
▁वचन	-10.1057
▁श्र	-10.1058
▁दिमाग	-10.1059
▁शाम	-10.1067
▁पहलू	-10.1069
▁विद्यार्थी	-10.107
▁बच्चा	-10.107
▁पत्रिका	-10.1071
▁रिक्त	-10.1082
▁विनिर्माण	-10.1083
▁सिल	-10.1083
▁उदार	-10.1084
▁भांति	-10.1094
▁यथार्थ	-10.1106
▁अवसरों	-10.1108
टक	-10.111
▁कू	-10.1112
▁भरा	-10.1112
▁तापमान	-10.113
▁मानो	-10.1131
▁निकाला	-10.1132
मल	-10.1135
गामी	-10.114
रम	-10.1147
▁इंडियन	-10.1176
कन	-10.1178
ाप	-10.1182
▁विशेषज्ञ	-10.1184
ाइन	-10.1184
▁महाराजा	-10.1193
बि	-10.1206
▁चर	-10.1207
▁साइट	-10.1212
▁कायम	-10.122
▁संतुलन	-10.1222
▁अत्यन्त	-10.1223
▁जिनसे	-10.1224
▁उत्पा	-10.1225
▁फेंक	-10.1225
▁सद	-10.1226
ra	-10.1228
▁प्रतिदिन	-10.1234
▁दिसंबर	-10.1246
▁जुड़ा	-10.1252
▁ईसाई	-10.1254
▁आपात	-10.126
▁कोशिकाओं	-10.1271
कृति	-10.1271
▁हकदार	-10.1273
दाता	-10.1277
▁श्रीमती	-10.1282
्ह	-10.1284
ड़ियों	-10.1288
▁वसूली	-10.1291
▁तस्वीर	-10.1305
धारी	-10.1318
फी	-10.1318
गण	-10.1319
वर्त	-10.1321
▁विल	-10.1327
▁बहन	-10.1327
▁रजिस्ट्रीकरण	-10.1329
▁समझते	-10.133
▁बनाकर	-10.1332
कला	-10.1338
ज़ी	-10.1339
▁भेजे	-10.1346
ैन	-10.1347
▁समझे	-10.135
▁सौंप	-10.135
▁तरीकों	-10.1353
मक	-10.1361
▁भाष्	-10.1364
भारत	-10.1371
▁जितन	-10.1373
▁उत्पादक	-10.1375
▁ढांचा	-10.1377
▁छाप	-10.1377
▁मोटर	-10.138
ेन्द्र	-10.1386
▁शास्त्र	-10.1391
▁मांस	-10.1394
▁उद्देश्यों	-10.1396
▁तोड़	-10.1398
डु	-10.1399
▁वाणिज्य	-10.1406
▁नील	-10.1422
▁चै	-10.1423
वाले	-10.1426
▁री	-10.1427
▁समितियों	-10.1433
▁पोजीशन	-10.1437
वासी	-10.144
▁हटाने	-10.1441
तल	-10.1442
▁झील	-10.1451
भव	-10.1455
▁कस	-10.1461
रोध	-10.1465
▁उपयोगकर्ता	-10.1466
▁अवधारणा	-10.1467
▁समावेश	-10.1468
वासियों	-10.148
▁आल	-10.1481
▁गिरफ्तार	-10.1484
▁उपर्युक्त	-10.1485
▁रानी	-10.1488
▁अभिगम	-10.1497
▁भि	-10.1497
▁लंबित	-10.1498
▁बर्	-10.1499
▁राजभाषा	-10.151
▁अल्	-10.1521
▁जिम्मेदार	-10.1521
ाध	-10.1521
▁पारंपरिक	-10.1522
छा	-10.1523
▁इलाज	-10.1523
▁प्रभाग	-10.1527
▁आपस	-10.1528
▁विवेक	-10.1531
▁मार्गदर्शन	-10.1535
योजन	-10.1539
▁पह	-10.1541
कर्म	-10.1543
▁संदेय	-10.1546
▁मिलेगी	-10.1551
▁परे	-10.1555
▁रहेंगे	-10.1555
ुन	-10.1556
▁चैतन्य	-10.1558
▁चेक	-10.1561
▁हाँ	-10.1563
ंठ	-10.1564
▁दक्षिणी	-10.1569
रस	-10.1574
▁सम्	-10.1575
▁कॉल	-10.1575
▁लगती	-10.1579
▁व्यावहारिक	-10.1583
▁आबादी	-10.1583
▁बाग	-10.1583
▁रिकार्ड	-10.1583
▁डाक्टर	-10.1585
▁प्रतीक्षा	-10.1595
▁अत	-10.1596
ापन	-10.1596
▁दिखाया	-10.1604
▁पुन	-10.1607
▁कट	-10.1616
वृत्त	-10.1617
▁प्रतिष्ठा	-10.1618
▁विभागों	-10.162
▁अंतः	-10.162
▁भूख	-10.1624
▁तत्त्व	-10.1624
सू	-10.1627
▁डो	-10.1631
▁निष्क्रिय	-10.1632
हल	-10.1636
▁बुद्ध	-10.1639
वश	-10.1641
▁गतिविधि	-10.1643
▁जायें	-10.1646
▁परिवेश	-10.1646
▁हरि	-10.1646
▁iii	-10.1647
▁अकेले	-10.1649
नेट	-10.1651
▁महाभारत	-10.1658
▁कारक	-10.166
र्ब	-10.1675
थे	-10.1676
ानु	-10.1681
▁मिलेगा	-10.1689
▁होंगी	-10.1706
▁सकारात्मक	-10.1706
▁किताब	-10.171
ंघ	-10.1716
▁इसीलिए	-10.1718
▁संभावित	-10.1718
▁विष	-10.1723
ग्रह	-10.173
▁गै	-10.1733
el	-10.1734
▁हैदराबाद	-10.1743
▁महीनों	-10.1745
▁आतंकवादी	-10.1746
▁लड़की	-10.1749
▁बोली	-10.175
▁पक्षकारों	-10.175
▁भरे	-10.1751
▁बारह	-10.1755
लू	-10.176
लाइन	-10.1764
▁पुष्प	-10.1765
▁दोनो	-10.1768
▁छोड	-10.1769
▁कराना	-10.177
▁कर्ण	-10.1775
ro	-10.1776
ष्टि	-10.1778
▁उल्लंघन	-10.178
▁अन्तर्	-10.1788
▁मानी	-10.1791
▁सन	-10.181
▁जम	-10.1812
▁उन्होने	-10.1828
▁सम्बंध	-10.1831
ान्तर	-10.1836
▁चुनें	-10.1839
▁गारंटी	-10.1843
▁बडी	-10.1847
▁देखे	-10.185
▁केंद्रित	-10.1851
▁खनिज	-10.1856
▁प्रांत	-10.1857
▁एकत्र	-10.1866
पूर्व	-10.1867
्रि	-10.1868
▁बिता	-10.1871
ुत	-10.1877
▁बनाते	-10.188
▁भर्ती	-10.1882
▁घाट	-10.1883
▁धरती	-10.1884
पल	-10.1884
▁फ्र	-10.1885
▁भगवान्	-10.1892
▁जानकर	-10.1894
▁अभिलाभ	-10.1894
▁पाये	-10.1895
क्शन	-10.1904
▁पंजीकृत	-10.1907
▁साम	-10.1912
▁जोड़ने	-10.1913
▁ऊंचाई	-10.1922
्द	-10.1922
▁सिंचाई	-10.1931
▁इमारत	-10.1931
▁हां	-10.1932
▁पालिसी	-10.1932
▁पड़ती	-10.1933
▁गेंद	-10.1937
हृ	-10.1937
▁डालने	-10.1937
ur	-10.1941
▁स्मरण	-10.1945
▁अनुपालन	-10.1945
▁फो	-10.1945
▁महल	-10.195
▁आधारभूत	-10.1952
▁वक्त	-10.1953
स्ता	-10.1955
मार्ग	-10.1958
▁बढ़ने	-10.1961
▁गद्य	-10.1961
▁मद्रास	-10.1969
▁हिन्दुस्तान	-10.1969
▁दौड़	-10.1969
▁वस्तुतः	-10.1978
▁प्रेषित	-10.1982
▁पशुओं	-10.1998
यल	-10.1999
▁दिला	-10.2002
▁उत्तरदायित्व	-10.2008
▁आकलन	-10.2008
▁भु	-10.2009
▁पट्टी	-10.2014
▁खून	-10.2015
▁जायेगी	-10.2017
▁ईरान	-10.2024
▁अद	-10.2032
▁पाता	-10.2032
ोम	-10.2033
▁आंशिक	-10.2033
कड़	-10.2037
▁छाया	-10.2037
▁प्लस	-10.204
▁ग्राहकों	-10.2043
▁सम्पर्क	-10.2046
▁बोध	-10.2049
▁याची	-10.2056
▁क्रियाकलाप	-10.2059
ोक	-10.2066
धर	-10.2074
▁शु	-10.2079
▁बहुमत	-10.2087
ांतर	-10.2089
▁दाखिल	-10.2097
▁कपड़े	-10.2098
▁अनाज	-10.2106
▁अमरीकी	-10.211
▁टि	-10.2112
▁मिटा	-10.2114
्टर	-10.2116
▁पुरूष	-10.2123
▁पहाड़ी	-10.2124
▁स्वीकृत	-10.2126
रित	-10.2126
भाग	-10.2129
▁बीमार	-10.2139
▁निकालने	-10.214
िकी	-10.2143
▁परिस्थिति	-10.2147
▁जापान	-10.2148
▁फैसला	-10.2149
▁प्रजनन	-10.2149
▁बुला	-10.215
▁मुंह	-10.2162
▁एकदम	-10.2164
▁साझा	-10.2164
सम	-10.217
▁v	-10.217
▁कृति	-10.2171
▁खुला	-10.2185
▁सेक्टर	-10.2186
▁कोष	-10.2189
ीस	-10.2189
ेंस	-10.219
वर्ग	-10.2192
ह्	-10.2192
▁गर्व	-10.2195
▁मुकदमा	-10.2198
▁धन्यवाद	-10.2201
▁संपदा	-10.2201
▁चावल	-10.2204
▁उग्र	-10.2206
▁17	-10.2208
▁अनुशासन	-10.2215
▁मानता	-10.2217
सान	-10.2225
▁मौत	-10.2232
▁रहस्य	-10.2239
▁शिल्प	-10.224
▁पहन	-10.2245
चल	-10.2249
▁निष्ठा	-10.2254
▁पहुंचे	-10.2258
▁सिवाय	-10.226
िफ	-10.226
ौल	-10.2265
▁कप	-10.2266
भी	-10.2266
▁पोत	-10.2268
▁जर्मनी	-10.227
▁शांत	-10.2271
▁जुल	-10.2272
प्ट	-10.2272
▁भरी	-10.2279
▁थोड़ी	-10.2279
▁मृत	-10.2281
▁प्रतिवादी	-10.2283
कारों	-10.2284
▁जोड़ा	-10.2288
▁वैकल्पिक	-10.2292
▁चली	-10.2299
▁रहित	-10.2301
▁विनियमन	-10.2303
▁बॉ	-10.2305
▁शिक्षकों	-10.2308
ट्स	-10.2308
▁कड़ी	-10.2311
▁परम्परा	-10.2317
रन	-10.2318
▁कार्यकलाप	-10.2319
▁फे	-10.2322
ोड	-10.233
▁लकड़ी	-10.2333
▁25	-10.2333
▁बैठे	-10.2333
▁कालेज	-10.2337
▁कहां	-10.234
▁मॉ	-10.2342
▁परिवारों	-10.2349
▁लगते	-10.235
▁गुणा	-10.2354
▁किन्हीं	-10.2358
▁वर्मा	-10.2363
वेल	-10.2364
जू	-10.2369
दु	-10.2369
फ्	-10.2369
▁पूर्णतः	-10.2371
▁ऊपरी	-10.2376
▁ग्राफ	-10.2388
▁देखता	-10.2392
▁श्वेत	-10.2398
▁स्तरों	-10.24
वै	-10.2402
▁दक्षता	-10.2404
▁गहराई	-10.2405
▁वाक्य	-10.2408
▁शोर	-10.2424
▁चेतावनी	-10.2425
ol	-10.2426
▁मानवता	-10.2427
▁जमानत	-10.2428
▁गौरव	-10.2429
क्ल	-10.2436
▁जवाहरलाल	-10.2438
▁उपज	-10.2441
as	-10.2458
▁सावधानी	-10.2464
▁ब्ल	-10.2464
▁उल्लिखित	-10.2465
▁तमिलनाडु	-10.2465
▁फोटो	-10.2466
▁डॉलर	-10.2467
िकल	-10.2468
▁सूचित	-10.2469
शु	-10.2474
▁संगठित	-10.2478
▁उन्हीं	-10.2478
▁माने	-10.2478
▁धनराशि	-10.2478
▁दस्तावेजों	-10.2484
▁चिन्ह	-10.2485
शे	-10.2486
▁विवरणी	-10.249
▁पहलुओं	-10.2491
▁23	-10.2494
▁हाथी	-10.25
लोक	-10.2501
▁समझता	-10.2502
▁रोज	-10.2503
▁विनाश	-10.2508
▁खड़ी	-10.2512
▁व्यापारी	-10.2514
▁ट्यूब	-10.2518
कट	-10.2521
म्म	-10.2523
▁उर्दू	-10.2532
▁कनेक्शन	-10.2532
▁तुर्की	-10.2534
▁जला	-10.2547
श्व	-10.255
▁गाड़ी	-10.2551
▁संभवतः	-10.2552
▁मछली	-10.2559
▁प्रतिष्ठित	-10.2559
▁रजिस्टर	-10.2559
▁भेजने	-10.2584
▁नकारात्मक	-10.2586
▁वापसी	-10.2592
▁पुस्तकों	-10.2595
▁अभिनिर्धारित	-10.26
र्च	-10.2602
फ़ा	-10.261
▁जाओ	-10.2613
▁पदों	-10.262
▁निवासी	-10.2625
▁इंग्लैंड	-10.2626
▁किलोमीटर	-10.2626
▁लीग	-10.2627
▁कुशलता	-10.2628
▁टिकट	-10.263
▁न्	-10.2639
▁उत्तम	-10.2641
मंड	-10.2642
▁चयनित	-10.2643
▁साधनों	-10.2645
▁अग्नि	-10.2654
▁चुकता	-10.2654
▁पड़ेगा	-10.2659
▁करवा	-10.2659
जु	-10.2661
▁चुना	-10.2661
▁o	-10.2662
▁सीधा	-10.2665
▁फलस्वरूप	-10.2667
▁पढ	-10.267
▁शत	-10.2676
▁सभापति	-10.2679
▁साहब	-10.2681
▁प्रचालन	-10.2694
▁प्रसाद	-10.2705
ॉट	-10.2705
▁आदत	-10.2706
▁सतत	-10.2709
खंड	-10.2712
▁प्रबल	-10.2712
ल्फ	-10.2713
ाधीन	-10.272
ांश	-10.272
निष्ठ	-10.2722
टिंग	-10.2722
ियत	-10.2722
▁पाप	-10.2723
▁प्रे	-10.2731
▁आन	-10.2731
▁महत्त्व	-10.2733
▁स्त्रियों	-10.2736
▁निरसन	-10.2736
▁दण्ड	-10.2737
▁लोड	-10.2743
▁30	-10.2749
▁राजकुमार	-10.275
▁असामान्य	-10.2751
▁कही	-10.2761
▁व्यवस्थित	-10.2763
▁गांधीजी	-10.2763
▁अंग्रेजों	-10.2765
▁उतनी	-10.2765
▁अंतराल	-10.2768
दर्श	-10.277
▁सुन्दर	-10.2771
▁खुल	-10.2771
▁अपवाद	-10.2775
▁स्तन	-10.2776
ट्र	-10.2777
▁सेटिंग	-10.2779
एच	-10.2783
ंगल	-10.2787
▁बयान	-10.2794
▁विद्या	-10.28
र्जन	-10.2801
▁आयी	-10.2808
▁रखकर	-10.2809
▁शानदार	-10.2818
यक	-10.2826
▁सहन	-10.283
▁अक्षम	-10.2831
▁पुस्तिका	-10.2832
▁पैकेज	-10.2832
हु	-10.2843
्च	-10.2844
▁गईं	-10.2844
▁पुराण	-10.2853
▁स्टे	-10.2857
▁ध्वज	-10.286
▁एयर	-10.286
बन्ध	-10.286
गढ़	-10.2864
▁भ्रम	-10.2868
▁h	-10.287
▁अनि	-10.2872
बाई	-10.2873
▁चीजें	-10.2874
▁रोगों	-10.2876
षित	-10.2878
▁ट्र	-10.2882
▁गवर्नर	-10.2888
▁पुल	-10.2888
▁बाध्य	-10.2888
िष्ट	-10.2891
▁संपन्न	-10.2892
ूँगा	-10.2893
▁आरक्षित	-10.2894
▁यातायात	-10.2901
▁सैन्य	-10.2902
▁सम्बन्धित	-10.2906
▁संग	-10.2909
▁उल	-10.2912
▁कोलकाता	-10.2915
▁नवंबर	-10.2916
▁मुझसे	-10.2917
रहित	-10.2923
▁हमला	-10.2927
▁बुरा	-10.2927
▁हिसाब	-10.2929
le	-10.293
▁हिंदु	-10.2932
▁मिश्रण	-10.2933
▁वृत्ति	-10.2935
▁इराक	-10.2944
त्रिक	-10.2947
▁देह	-10.2949
▁निशान	-10.2959
▁बेल	-10.2961
ण्ट	-10.2964
▁बक	-10.2964
न्ना	-10.2967
दृ	-10.2968
ad	-10.2969
▁अखिल	-10.2972
▁कानूनों	-10.2972
▁देखी	-10.2972
▁माध्यस्थम्	-10.2974
▁बडे	-10.298
ेम	-10.2984
▁स्टेट	-10.2985
▁डाउनलोड	-10.2986
▁मुकदमे	-10.2995
पू	-10.2997
▁एकीकृत	-10.2998
▁चिकित्सीय	-10.3
▁चुनौतियों	-10.3
▁रुक	-10.3
▁कार्यान्वित	-10.3003
वत्	-10.3008
▁शंकर	-10.301
▁गुट	-10.3013
▁नाक	-10.3013
▁संगणक	-10.3014
▁डाय	-10.3015
▁मार्क	-10.3015
▁खोलने	-10.302
▁प्रोफेसर	-10.3028
▁बांट	-10.3034
▁नी	-10.3034
▁पैसा	-10.3035
हम	-10.3037
▁सलाहकार	-10.3042
▁प्रयोक्ता	-10.3042
्टन	-10.3044
इन	-10.3044
▁घनिष्ठ	-10.3044
▁अनुक्रम	-10.3047
▁चंद्र	-10.3049
▁पुर	-10.3055
चक	-10.3058
हो	-10.3063
ूक	-10.3064
▁वर्	-10.3068
▁हंस	-10.3071
▁रहेगी	-10.3076
▁अंततः	-10.308
▁फी	-10.3083
▁पीड़ा	-10.3087
▁अपनाने	-10.3087
पु	-10.309
▁पोस्ट	-10.3093
▁घास	-10.3094
▁मशीनरी	-10.3097
▁माननीय	-10.3103
▁मंजूर	-10.3107
▁दिनांक	-10.3108
▁क्रमशः	-10.3113
▁बम	-10.3119
ल्ली	-10.3121
परि	-10.3124
▁दावे	-10.3125
▁वादी	-10.3126
▁सकल	-10.3134
▁उठाए	-10.3134
लिये	-10.3136
▁प्रतिफल	-10.3139
▁प्रदत्त	-10.3149
ख्या	-10.3149
▁फ्रांस	-10.3154
प्रद	-10.3163
डिया	-10.3163
▁कीटों	-10.3171
▁परिचित	-10.3174
▁O	-10.3178
▁तन	-10.3181
म्भ	-10.3183
▁लोकसभा	-10.3186
थी	-10.3187
लिया	-10.319
▁निर्देशिका	-10.3193
▁लोकतांत्रिक	-10.3199
▁गुणों	-10.3206
▁झा	-10.3212
▁अस्वीकार	-10.3213
▁एजेंसी	-10.3213
▁ईंधन	-10.3213
▁देखो	-10.3215
▁झुक	-10.3216
ालय	-10.3216
▁रचनात्मक	-10.3216
▁आस्था	-10.3217
▁कार्यपालिका	-10.3218
▁इल	-10.3224
▁y	-10.3229
▁लाना	-10.3242
▁बढ़ते	-10.3244
▁नकद	-10.3251
क्षित	-10.3255
वादियों	-10.3257
▁झूठ	-10.3257
▁वार	-10.3269
वृत	-10.327
▁बहादुर	-10.3271
▁दार्शनिक	-10.3271
▁माइक्रो	-10.3271
▁विलंब	-10.3276
ुष	-10.3283
▁असं	-10.3289
वती	-10.3289
▁प्रमाणित	-10.329
▁शासक	-10.3296
ध्व	-10.3297
▁चेहरे	-10.33
▁स्थितियों	-10.3303
▁दोहरा	-10.3304
्दी	-10.3305
▁मौ	-10.3306
▁in	-10.3308
िस्तान	-10.3312
▁तैयारी	-10.3314
▁क्षतिपूर्ति	-10.3315
▁सहारा	-10.3316
▁दू	-10.3324
▁प्ला	-10.3325
▁विवादों	-10.3325
▁दोषी	-10.3326
▁रिकॉर्ड	-10.3329
▁धो	-10.333
ac	-10.3332
▁व्यापारिक	-10.3336
▁रूस	-10.334
▁आह्वान	-10.3344
▁ड्राइव	-10.3344
▁जंगल	-10.3349
रक्षक	-10.3353
सिक	-10.3356
▁पृ	-10.3357
▁सीता	-10.3358
▁शैक्षणिक	-10.3358
▁मित्रों	-10.3359
▁फायदा	-10.3373
▁स्वप्न	-10.3373
▁डिग्री	-10.3374
▁अगल	-10.3375
▁यानी	-10.3381
▁वैज्ञानिकों	-10.3385
▁जायेंगे	-10.3387
ुम	-10.3388
▁निष्	-10.3389
st	-10.3396
धर्म	-10.3403
▁अभ्यास	-10.3404
▁शक	-10.3404
▁आदर	-10.3416
▁शेख	-10.3417
▁सचमुच	-10.3417
▁उपेक्षा	-10.3417
ट्रो	-10.3424
▁ऊतक	-10.3425
▁नै	-10.343
स्थान	-10.343
▁अधिरोपित	-10.3432
▁जुड़ी	-10.3436
शिया	-10.3437
▁अधिवक्ता	-10.3437
▁रज	-10.3441
▁कार्यरत	-10.3447
ao	-10.3448
रिस	-10.3449
▁प्रारम्भ	-10.3454
▁घाटी	-10.3461
▁कम्प्यूटर	-10.3461
▁भग	-10.3475
ch	-10.3478
नेवाले	-10.348
▁श्रद्धा	-10.3492
▁बढ़कर	-10.3494
▁हजारों	-10.3495
टिव	-10.3495
फ्ट	-10.3504
▁कृत्रिम	-10.3506
▁दिसम्बर	-10.3506
▁शिक्षित	-10.3506
वाँ	-10.3507
ंडर	-10.3511
G	-10.3517
▁आँख	-10.3518
मिक	-10.3522
र्द्ध	-10.3528
▁छु	-10.3533
▁वाल	-10.3538
▁वस्तुएं	-10.3538
▁विचारधारा	-10.3539
▁प्रासंगिक	-10.355
▁वनस्पति	-10.355
▁खिल	-10.355
िमा	-10.3552
न्य	-10.3553
विधि	-10.3557
▁80	-10.356
▁असली	-10.3562
▁आवेदक	-10.3565
मिल	-10.3565
▁मानकों	-10.3567
▁तीनों	-10.3575
▁सिख	-10.3578
▁रणनीति	-10.358
चन्द्र	-10.358
▁नवम्बर	-10.3581
पाद	-10.3594
▁भौगोलिक	-10.361
▁ऑडियो	-10.361
▁कथित	-10.361
▁कण	-10.361
▁प्रतिरोध	-10.3618
▁मतदान	-10.363
▁लेंगे	-10.3631
भार	-10.3632
ानुसार	-10.3635
▁मादा	-10.3636
ूत	-10.3637
▁क्ष	-10.3638
ांकन	-10.3645
नियम	-10.3656
▁प्रभावशाली	-10.3658
▁नं	-10.3658
▁संक्षेप	-10.366
▁ताप	-10.366
▁सामान्यतया	-10.3661
▁अनन्त	-10.3661
▁संवेदनशील	-10.3662
▁जिसको	-10.3678
बोध	-10.3681
ोज	-10.3682
▁गण	-10.3684
▁दया	-10.3685
▁अंडे	-10.3685
▁विष्णु	-10.3687
▁संकल्पना	-10.3694
▁फर	-10.3695
▁अर्जन	-10.3697
तार	-10.3699
▁बेस	-10.3703
▁बू	-10.3711
श्च	-10.3711
▁जुटा	-10.3712
▁पत्रों	-10.3716
▁प्रक्रम	-10.3718
▁प्रजा	-10.3734
ाबाद	-10.3736
▁चढ़	-10.3739
▁भावनाओं	-10.3743
▁समुदायों	-10.3744
▁मंडप	-10.3746
▁अध्यापक	-10.3746
▁दम	-10.3746
▁विद्वानों	-10.3748
र्ष	-10.376
ल्ट	-10.3766
▁स्तरीय	-10.3775
▁अवरोध	-10.3776
▁खतरनाक	-10.3776
▁अज्ञात	-10.3776
▁उड़ीसा	-10.3776
▁मासिक	-10.3776
दू	-10.3789
▁हिमाचल	-10.3791
▁24	-10.3793
दीन	-10.3797
▁अनुदेश	-10.3799
▁हाउस	-10.3807
यम	-10.3809
▁संयोजन	-10.3814
वंश	-10.3822
ोद	-10.3822
▁परिश्रम	-10.3823
सिद्ध	-10.3827
ाशय	-10.3835
▁अतीत	-10.3837
वस्था	-10.3841
▁संगत	-10.3841
▁होटल	-10.3845
ारा	-10.3846
▁सहयोगी	-10.3849
▁व्युत्पन्न	-10.3852
▁लंदन	-10.3853
▁गोरा	-10.3853
▁वैदिक	-10.3868
▁इकाइयों	-10.3868
रोपण	-10.3868
▁राष्ट्रों	-10.3871
▁आपसी	-10.3875
▁अपेक्षाकृत	-10.3878
झा	-10.3882
▁प्रसंस्करण	-10.3883
शेष	-10.389
▁घृणा	-10.3899
▁पैनल	-10.3901
▁लंबाई	-10.3904
▁रन	-10.3907
▁कुरान	-10.3909
कना	-10.391
▁भक्त	-10.3915
▁मान्य	-10.3916
▁हमे	-10.3917
विन	-10.3919
▁पौ	-10.3921
▁सेवक	-10.3922
वर्धन	-10.3922
▁प्रतिबंध	-10.3922
▁लंबा	-10.3923
▁धीम	-10.3924
पना	-10.3925
▁गहरे	-10.393
▁व्यष्टि	-10.3932
ित्र	-10.3933
▁तीसरा	-10.3934
▁बजा	-10.3938
▁गणित	-10.3941
▁कहाँ	-10.3948
▁पूर्ववर्ती	-10.3951
▁आंकड़े	-10.3966
गि	-10.3967
र्जी	-10.397
ोड़	-10.3971
▁लेखकों	-10.3971
▁कार्मिक	-10.3976
▁मुख्यतः	-10.3981
▁ज़ि	-10.3983
▁मोहन	-10.3987
▁सोसाइटी	-10.3992
▁कैंसर	-10.3992
▁त्वरित	-10.3992
▁नदियों	-10.3992
बिल	-10.3995
▁ढेर	-10.3999
त्री	-10.4002
▁संग्रहालय	-10.4008
▁प्रसन्न	-10.4011
▁छिपा	-10.4018
▁उपलब्धता	-10.4018
▁बुरी	-10.4023
खी	-10.4024
19	-10.4025
▁निधन	-10.4027
▁उर्वरक	-10.403
▁बनता	-10.4032
▁मतभेद	-10.404
ाणु	-10.4042
▁नाग	-10.4044
▁बैठा	-10.4045
नर	-10.4046
▁अंकित	-10.4046
▁राज्यक्षेत्र	-10.4047
▁नमक	-10.4047
▁प्रणालियों	-10.4054
▁रामायण	-10.4055
▁प्रण	-10.4055
▁देशी	-10.4059
▁अच	-10.406
▁पक्षी	-10.4061
▁तुम्हार	-10.4061
▁प्रसारण	-10.4065
▁योजनाएं	-10.4071
se	-10.4071
▁तनाव	-10.4072
▁असल	-10.4072
▁मोटे	-10.4077
▁सुनने	-10.4077
▁वृत्त	-10.408
▁परेशान	-10.4083
▁घरों	-10.4083
▁35	-10.4083
▁पिछली	-10.4087
▁प्ले	-10.4097
▁अभिकरण	-10.41
▁संभाल	-10.4101
▁जीवाणु	-10.4103
▁बट	-10.4107
थर	-10.4112
▁खबर	-10.4117
स्म	-10.412
▁दिखाने	-10.4123
▁सीखने	-10.4139
▁रखती	-10.4142
▁सांस	-10.4142
▁अपराधी	-10.4143
▁अधिवेशन	-10.4148
▁तमिल	-10.4152
▁मध्यस्थ	-10.416
▁शेर	-10.4162
▁ऑफ़	-10.4163
▁अनुमोदित	-10.4164
▁शासित	-10.4164
▁अवस्थित	-10.4169
▁पादप	-10.4171
ायत	-10.4172
▁ग्रा	-10.4173
▁सोने	-10.4174
▁इलाक	-10.4175
▁लगाए	-10.4178
मात्र	-10.4179
▁क्यू	-10.4183
▁रोम	-10.4185
▁मौका	-10.4185
▁आधा	-10.4188
▁अनुज्ञा	-10.4188
▁हट	-10.4189
▁रॉ	-10.419
ारी	-10.4191
▁दांत	-10.4196
▁बंबई	-10.4196
▁निरा	-10.4198
▁वास्तविकता	-10.42
▁बर्फ	-10.4201
▁पंचायत	-10.4205
▁परिवर्तनों	-10.4211
ैक	-10.4221
▁वजन	-10.4225
▁आमंत्रित	-10.4228
▁पारस्परिक	-10.4228
▁समर्पण	-10.4229
▁हथियार	-10.4237
▁आयकर	-10.4238
▁बटन	-10.4239
ाज	-10.4243
▁ज्ञापन	-10.4244
▁शिष्य	-10.4244
▁टीका	-10.4255
स्थापन	-10.4257
▁भाग्य	-10.4258
▁अन्तिम	-10.4262
▁लिखते	-10.4263
▁अभियोजन	-10.4263
▁अमल	-10.4265
▁तंग	-10.4266
यत	-10.4268
ायी	-10.4269
▁व्यस्त	-10.427
कत	-10.4274
▁सौंदर्य	-10.4276
▁क्रेडिट	-10.4276
▁जुड़	-10.4278
प्स	-10.428
▁मंजूरी	-10.4283
ावली	-10.4285
टि	-10.4291
▁तदनुसार	-10.4292
▁उगा	-10.4294
▁पहाड़	-10.4298
▁पश्च	-10.4299
ैक्ट	-10.4301
▁वैयक्तिक	-10.4302
▁बचने	-10.4303
लम	-10.4306
▁लॉग	-10.4306
▁सितम्बर	-10.4308
▁खिला	-10.4309
▁बिट	-10.4313
▁बचाने	-10.4315
▁अध्यक्षता	-10.4318
tr	-10.4321
▁बड़	-10.4322
▁लोप	-10.4329
▁विन्यास	-10.4337
▁मुलाकात	-10.434
▁दांडिक	-10.434
▁2015	-10.4341
▁व्याख्यान	-10.4343
▁सबूत	-10.4345
▁घन	-10.4347
▁नियंत्रक	-10.4356
ेन्ट	-10.4356
▁बिन्दु	-10.4358
▁हिम	-10.4366
▁संगणना	-10.4372
▁दशकों	-10.4372
▁आदेशों	-10.4373
▁वसा	-10.4381
ाओं	-10.4381
▁विनियामक	-10.4388
▁उत्सव	-10.4388
▁आईटी	-10.439
▁विकासशील	-10.4391
▁वरन्	-10.4396
स्तर	-10.4397
▁गर्मी	-10.4403
▁पाठक	-10.441
वेश	-10.4411
रान	-10.4417
▁गर्भ	-10.4418
▁चलाया	-10.4418
▁50	-10.442
टल	-10.4425
▁पाना	-10.4426
▁आर्य	-10.4427
▁शाखाओं	-10.4434
िग	-10.4435
▁अवसंरचना	-10.4437
▁टेलीफोन	-10.4437
▁कैल	-10.4439
▁इंजीनियरी	-10.444
ce	-10.444
▁शस्त्र	-10.444
▁संचित	-10.4447
ड्ड	-10.4448
क्ट	-10.4452
▁बनना	-10.4452
▁रिजर्व	-10.4453
▁चाहूंगा	-10.4454
▁डॉक्टर	-10.4455
रचना	-10.4456
▁परंपरागत	-10.4458
▁कमीशन	-10.446
▁नारायण	-10.4463
्रो	-10.4469
▁शराब	-10.4471
▁संग्रहण	-10.4474
्लो	-10.4476
la	-10.448
un	-10.4484
कालिक	-10.4484
▁कवियों	-10.4486
▁उपरोक्त	-10.4486
▁पुराना	-10.4488
▁अंतरित	-10.4492
▁आजाद	-10.4503
▁पचास	-10.4503
▁अधीनस्थ	-10.4514
दर्शी	-10.4515
▁ऊंची	-10.4519
▁महासागर	-10.452
▁केंद्रों	-10.4525
▁उड़ान	-10.4526
स्थापित	-10.453
िला	-10.4535
▁माँग	-10.4538
▁अक	-10.454
▁शे	-10.4545
▁ग्ल	-10.4549
▁विजेता	-10.4552
▁प्रोटीन	-10.4552
▁अम्ल	-10.4554
▁गलती	-10.4568
▁सृजित	-10.4568
▁देवताओं	-10.4569
स्फ	-10.4571
200	-10.4572
बु	-10.4573
▁कहानिय	-10.4579
थन	-10.4583
वाड़	-10.4585
▁सम्राट	-10.4585
▁पुस्तकालय	-10.4586
▁मोड़	-10.4587
▁नकदी	-10.4592
वक	-10.4592
▁प्रव	-10.4603
▁धान	-10.4603
196	-10.4605
▁वर	-10.4607
▁21	-10.4611
▁तीस	-10.4619
▁विधानमंडल	-10.4619
▁घोष	-10.4621
▁दिखाएँ	-10.4624
▁उपग्रह	-10.4628
▁बडा	-10.4631
त्तर	-10.4638
▁गतिशील	-10.4638
▁शो	-10.4638
जित	-10.4641
▁वन्य	-10.4642
▁कमांड	-10.4642
▁औषधि	-10.4645
▁अह	-10.4649
▁प्रशिक्षित	-10.4651
▁22	-10.4655
▁छप	-10.4668
▁सम्मानित	-10.4669
▁बीत	-10.467
▁पंजाबी	-10.4672
▁दरबार	-10.4673
▁क्रि	-10.4673
▁कृत्य	-10.4675
▁मुक	-10.4679
▁रासायनिक	-10.4684
मुखी	-10.4691
▁जगत	-10.4706
ड़िया	-10.4712
▁पुस्तकें	-10.4717
▁स्ल	-10.472
▁पहुँचा	-10.472
▁सूजन	-10.4723
▁लक्ष्यों	-10.4724
▁जानवरों	-10.473
▁मैक	-10.4733
▁लिखना	-10.4738
▁तीसरी	-10.474
पितु	-10.4747
द्वार	-10.4749
ation	-10.4761
▁निकलने	-10.4763
हट	-10.4764
डीए	-10.4765
▁कनाडा	-10.4768
ध्या	-10.477
▁परत	-10.4771
▁अनंत	-10.4778
▁नार	-10.4783
तो	-10.4783
▁मरम्मत	-10.4785
▁आव	-10.4785
▁नकल	-10.479
▁निर्णयों	-10.4796
▁सिं	-10.4796
▁निर	-10.4799
▁इसको	-10.48
95	-10.4802
▁लम्बे	-10.4802
यान	-10.4803
▁हाइ	-10.4803
▁टिप्पण	-10.4806
▁ड़	-10.4807
▁तरल	-10.4812
▁अंग्रेज़ी	-10.4817
▁छुट्टी	-10.4819
▁सम्पन्न	-10.4819
▁स्पर्श	-10.4833
▁ऊंचे	-10.4836
▁नाते	-10.4838
▁शीत	-10.4846
▁इंड	-10.4846
▁दंत	-10.4851
▁सम्भव	-10.4851
▁विकलांग	-10.4853
uot	-10.4853
▁एण्ड	-10.4854
▁ब्रा	-10.486
र्प	-10.4862
▁इम	-10.4866
▁परिकल्पना	-10.4869
▁स्वाधीनता	-10.4869
▁भेड़	-10.4871
▁प्लेट	-10.4871
▁दत्त	-10.4877
▁वासी	-10.488
▁आकर्षण	-10.4886
▁प्रसंग	-10.4887
▁निष्पक्ष	-10.4887
▁सहानुभूति	-10.4887
▁नम	-10.4892
▁पूर्णतया	-10.4893
▁प्रभार्य	-10.4898
▁फौज	-10.4904
▁विज्ञापन	-10.4921
▁विधायी	-10.4922
दल	-10.4924
मुक्त	-10.4925
▁कलाकार	-10.4925
▁जरा	-10.4929
▁चित्रण	-10.493
▁तुमने	-10.4931
मंद	-10.4932
▁द्रव	-10.4939
▁दुर्	-10.4946
11	-10.4948
ऐ	-10.4956
▁of	-10.4956
▁उन्होनें	-10.4958
▁उपाधि	-10.4962
▁r	-10.4963
▁आस्तिय	-10.4966
▁वर्न	-10.4968
w	-10.4971
क्षेत्र	-10.4972
▁विस्फोट	-10.4972
ोत्	-10.4975
िक्स	-10.498
▁शर्तें	-10.4983
तुल	-10.4985
ैस	-10.4991
▁फिलीस्तीनी	-10.4997
▁मंगल	-10.5001
▁दस्त	-10.5003
▁यहूदी	-10.5007
▁अनुभूति	-10.5009
▁सबके	-10.5013
▁बसव	-10.5015
▁स्नातक	-10.5023
▁2014	-10.5024
▁सैनिकों	-10.5026
▁क्रांतिकारी	-10.5027
▁समर्थित	-10.5028
▁ट्रैक	-10.5038
शाली	-10.5039
स्टी	-10.5039
▁चक	-10.5039
▁अभिभाषण	-10.5041
▁चट्टान	-10.5041
▁विधियां	-10.505
▁फसलों	-10.5058
▁आखिर	-10.5058
िज़	-10.5059
▁अंध	-10.5059
बाजी	-10.5066
▁दिल्	-10.5068
क़्त	-10.5068
▁वैष्णव	-10.5075
▁पूर्णता	-10.5079
म्य	-10.508
▁संतुष्ट	-10.5083
लिक	-10.5089
लाई	-10.5093
▁शपथ	-10.5094
माल	-10.5096
▁ठहरा	-10.5097
त्म	-10.5098
▁खेत	-10.51
▁115	-10.5102
▁लगने	-10.5102
▁क्रय	-10.5104
▁सोम	-10.5115
ाचार	-10.5115
▁सफलतापूर्वक	-10.5115
▁मील	-10.5116
क्षेप	-10.5117
ेषण	-10.5122
▁27	-10.5124
▁मिस्र	-10.5128
ोत्तर	-10.5134
जात	-10.5138
▁मुकाबले	-10.5145
▁चरम	-10.5145
▁आधे	-10.5145
दायक	-10.5146
▁पर्व	-10.5147
il	-10.5156
▁इन्हीं	-10.5163
▁कार्बन	-10.5166
बन	-10.5167
युक़्त	-10.5177
▁पेशेवर	-10.518
▁बनाती	-10.5185
मूल	-10.5196
क्व	-10.5196
▁ग्रस्त	-10.5197
▁नोड	-10.5197
▁स्कूलों	-10.5199
▁शादी	-10.5203
▁प्राणी	-10.5205
12	-10.5208
▁हक	-10.5208
▁पॉ	-10.5212
▁विपक्ष	-10.5219
▁गल	-10.5219
▁निपटने	-10.5221
न्द्र	-10.5222
▁सकने	-10.5225
▁कार्यालयों	-10.5225
च्छा	-10.5237
▁राव	-10.5239
ri	-10.5245
लाल	-10.5247
▁उम	-10.5247
▁किशोर	-10.5251
▁साइ	-10.5255
’’	-10.5257
▁इनपुट	-10.5258
▁जाया	-10.5259
क्का	-10.526
ैं	-10.5263
कू	-10.5263
▁भरने	-10.5266
ेरे	-10.5268
▁वितरित	-10.5268
▁हॉ	-10.5271
▁शास्ति	-10.5272
▁सोचते	-10.5275
रंग	-10.5276
▁जागरूकता	-10.5281
▁इलेक्ट्रॉनिक	-10.5282
▁आपदा	-10.5286
▁अवकाश	-10.5286
▁यौन	-10.5286
▁जानना	-10.5296
▁आकृति	-10.5297
▁गवाह	-10.53
बाज	-10.5301
▁दलों	-10.5301
▁दाम	-10.5301
▁समस्याएं	-10.5302
▁स्वचालित	-10.5305
▁मजदूर	-10.5307
▁आह	-10.5316
▁मुहम्मद	-10.5321
▁आमदनी	-10.5321
▁गाँव	-10.5322
ज़े	-10.5323
▁भत्ता	-10.5325
▁जल्द	-10.533
▁थोड़े	-10.5339
▁विदेशों	-10.5341
▁फु	-10.5341
▁कराई	-10.5346
▁तारा	-10.5352
भूमि	-10.5353
नुसार	-10.5355
▁नायक	-10.5357
▁ग़	-10.5359
▁उत्पादकता	-10.536
▁ट्रेड	-10.5363
▁चौक	-10.5364
वित	-10.5372
ुट	-10.5373
▁रूपरेखा	-10.5373
▁एजेंसियों	-10.5375
▁2013	-10.5375
दारी	-10.5379
रोग	-10.5381
▁वैसा	-10.5383
▁मिश्रित	-10.5383
▁पीने	-10.5386
चित्र	-10.5387
▁नमूने	-10.539
यं	-10.5392
मेन	-10.5398
ter	-10.5405
अप	-10.5408
ठी	-10.541
▁रिज़र्व	-10.5411
▁वयस्क	-10.5411
▁भरपूर	-10.5413
▁उन्हे	-10.5415
▁विद्वत	-10.5417
▁नौकर	-10.542
▁बाढ़	-10.5421
▁भरोसा	-10.5429
▁स्थूल	-10.5429
▁अवयव	-10.5429
▁विधा	-10.543
▁कारगर	-10.5431
▁बंधन	-10.5431
▁विभेद	-10.5432
▁आंकड़	-10.5437
▁लाभों	-10.5438
▁l	-10.5441
▁ठहर	-10.5444
परक	-10.5446
▁बढ़ता	-10.5447
▁कार्यकारी	-10.5459
▁रूपये	-10.5459
▁घु	-10.5462
▁रेशम	-10.5465
▁देखिए	-10.5472
▁विशेषाधिकार	-10.5474
▁आवश्य	-10.5478
ंदा	-10.5479
▁आंक	-10.5482
▁अभिव्यक्त	-10.5483
▁जरूर	-10.5484
▁गिरफ्तारी	-10.5484
▁शैल	-10.5489
▁स्मारक	-10.5501
▁सर्विस	-10.5506
डिंग	-10.5509
▁उत्कृष्टता	-10.5511
▁बोझ	-10.5516
िं	-10.5519
▁नियोजन	-10.5524
वृत्ति	-10.5528
तिक	-10.5529
ee	-10.5534
▁काले	-10.5537
▁आपत्ति	-10.5539
र्य	-10.5543
▁नो	-10.5546
ध्य	-10.5551
▁न्या	-10.5552
▁यूनियन	-10.5555
सेट	-10.5557
▁डिजिटल	-10.5558
th	-10.5561
▁विभ	-10.5562
▁अधिकृत	-10.5564
▁जाएँ	-10.5566
▁खुली	-10.5568
▁मैच	-10.5571
पन्न	-10.5573
अधिसूचित	-10.5573
▁चिंतन	-10.5574
▁उपभोग	-10.5576
▁क्लब	-10.5588
▁रै	-10.5591
▁नाबार्ड	-10.5592
▁शोषण	-10.5592
▁जिलों	-10.5593
▁निर्गम	-10.56
▁बदला	-10.56
▁गौर	-10.5601
▁अफगानिस्तान	-10.561
बाल	-10.5611
▁वक्तव्य	-10.5611
▁संतान	-10.5617
▁आजकल	-10.5622
▁मजदूरी	-10.5624
▁उज	-10.5628
▁जयंती	-10.5628
▁सार्थक	-10.5628
▁अरबी	-10.5629
▁ग्रे	-10.5629
▁वर्गीकरण	-10.5629
▁टू	-10.5629
▁सकी	-10.563
▁नज़र	-10.563
▁सल	-10.5637
▁गीता	-10.5637
▁जग	-10.5643
▁शुरूआत	-10.5647
▁निर्धन	-10.5648
▁संवेदना	-10.5655
▁जंगली	-10.5656
▁जोड़ें	-10.566
ेन्स	-10.5663
▁दूरस्थ	-10.5681
▁बाज़ार	-10.5684
▁टैब	-10.5684
ंबर	-10.5694
▁लाइ	-10.5701
▁मराठी	-10.5702
▁आयाम	-10.5703
▁बढ़ाना	-10.5705
▁सबको	-10.5706
म्बर	-10.5713
▁उपदेश	-10.5714
▁भिन्	-10.5718
फ़ी	-10.572
▁निराशा	-10.5721
▁मानने	-10.5721
ट्री	-10.5722
योजित	-10.5727
ay	-10.5732
▁फुट	-10.5733
▁समता	-10.5735
▁ओपन	-10.5737
▁गणतंत्र	-10.5739
▁मिलना	-10.574
▁लक	-10.574
▁राजमार्ग	-10.5742
ीला	-10.5743
▁कहे	-10.5743
▁शी	-10.5744
▁उठाना	-10.5745
▁यहीं	-10.5745
15	-10.5747
▁दाव	-10.5752
▁आनुवंशिक	-10.5757
▁सफाई	-10.5757
▁विडियो	-10.5758
▁ऊँच	-10.5758
▁किलो	-10.5766
▁पड़ने	-10.5771
▁शास्त्री	-10.5773
्टि	-10.5773
▁रच	-10.5774
▁पार्श्व	-10.5775
▁सौभाग्य	-10.5776
▁डूब	-10.578
me	-10.5783
चाल	-10.5783
▁गज	-10.5784
▁इंकार	-10.5787
▁अन्याय	-10.5788
am	-10.5789
घा	-10.5792
▁पेशी	-10.5792
▁एकत्रित	-10.5794
▁सुचरिता	-10.5795
▁कीजिए	-10.5797
▁संग्राम	-10.5798
▁अवमानना	-10.5805
▁यात्री	-10.5808
▁खूब	-10.5813
▁अधिनियमित	-10.5816
ङ्	-10.5819
सीसी	-10.5821
▁ग्रह	-10.5821
ेक्ट	-10.5825
▁लहर	-10.583
▁परिचालन	-10.5832
▁बांग्लादेश	-10.5832
▁जै	-10.5833
▁कराता	-10.5834
▁बुक	-10.5841
▁टिक	-10.5842
▁थक	-10.5848
▁दुर्लभ	-10.5851
▁निर्वाचित	-10.5851
▁फूट	-10.5853
▁नोटिस	-10.5855
▁पहुंचाने	-10.5855
▁काली	-10.5857
▁सीधी	-10.5867
us	-10.5867
ैर	-10.5868
▁गोली	-10.5869
प्पा	-10.587
उन	-10.5875
▁ग्रन्थ	-10.5877
▁समझना	-10.5881
▁ज्यादातर	-10.5881
▁अज्ञान	-10.5884
▁सत्याग्रह	-10.5888
▁टाइप	-10.5888
▁ज़रूरत	-10.5892
▁रिट	-10.5895
▁दस्तावेज़	-10.5896
▁प्ल	-10.5904
▁खरीदने	-10.5908
ग्रहण	-10.5914
दाय	-10.5915
▁जानवर	-10.5919
स्थल	-10.5923
▁बताने	-10.5924
▁इस्पात	-10.5926
सऋ	-10.5927
लक	-10.5928
▁असफलता	-10.5931
▁भव्य	-10.5936
▁शर	-10.5942
▁अपमान	-10.5942
▁प्रयोगशाला	-10.5944
▁रियासत	-10.5945
▁संकलन	-10.5945
▁स्नेह	-10.5945
▁तत्काली	-10.5946
▁बचपन	-10.5953
▁आंखों	-10.5959
▁अमीर	-10.596
लेख	-10.596
▁पढ़ाई	-10.5962
लिस	-10.5962
▁सर्वप्रथम	-10.5964
▁मुल्क	-10.5965
▁हिल	-10.5967
▁विलय	-10.5971
▁प्रतिमा	-10.5973
AT	-10.5974
ूंगा	-10.5981
▁आंख	-10.5981
▁कृषक	-10.5983
▁किराया	-10.5984
पोर्ट	-10.5985
मंडल	-10.5986
फ्रे	-10.5988
▁क़्योंक	-10.599
ate	-10.5999
▁स्वर्ग	-10.6
▁मस्जिद	-10.6002
▁व्याप्त	-10.6004
▁वृद्ध	-10.601
▁निवेशकों	-10.6013
नुमा	-10.6018
▁आकर्षक	-10.6021
यता	-10.6028
▁प्रशासक	-10.604
▁टेनिस	-10.604
▁लिखत	-10.6042
्ली	-10.6048
्यता	-10.6053
ूस	-10.6054
▁कर्ज	-10.6056
▁प्रतिबद्धता	-10.6057
▁जरूरतों	-10.6058
▁आश्वासन	-10.6059
▁मेहनत	-10.6059
ज़र	-10.6061
▁लाखों	-10.6062
चना	-10.6067
चु	-10.6069
▁अतिथि	-10.6069
ट्टा	-10.6076
▁अकादमी	-10.6078
▁आकस्मिक	-10.6078
▁टैगोर	-10.6079
te	-10.6079
▁ऋषि	-10.6081
▁मसल	-10.6082
▁इस्लामवादी	-10.6082
▁दमन	-10.6086
▁सिफारिशों	-10.6086
▁ऊंचा	-10.6092
▁एशियाई	-10.6094
▁डालर	-10.6096
▁अप्रत्यक्ष	-10.6097
▁गरिमा	-10.6097
▁लम्बी	-10.6097
▁परिणामों	-10.6099
▁सिरे	-10.6102
▁सम्म	-10.6114
▁सशस्त्र	-10.6117
▁स्रोतों	-10.6118
▁प्रतिनिधियों	-10.6125
ल्प	-10.6125
▁जैसाकि	-10.6126
▁तालाब	-10.6126
▁छू	-10.6129
डल	-10.6131
▁नजदीक	-10.6136
▁सुदूर	-10.6136
▁194	-10.6138
▁अभ्य	-10.6144
▁रेड	-10.6145
लिखित	-10.6147
▁समर्थक	-10.615
▁आन्दोलन	-10.6155
ैया	-10.6156
पंथ	-10.6161
▁झु	-10.6164
EE	-10.6167
▁अपर	-10.6173
▁विक्रेता	-10.6174
▁सच्चे	-10.6175
ियार	-10.6177
रचनाओं	-10.618
क्षी	-10.6189
ाहट	-10.619
▁ढूंढ	-10.6191
▁तरंग	-10.6192
▁कराए	-10.6193
▁मजबूर	-10.6194
▁घायल	-10.6194
चंद्र	-10.6195
▁अपीलार्थी	-10.6196
▁बां	-10.6196
▁पृथक्	-10.6202
यंत्र	-10.6206
▁संस्थागत	-10.6207
▁स्वीकार्य	-10.6209
▁किमी	-10.621
▁अनुकरण	-10.6211
▁कमेटी	-10.6214
▁युवक	-10.6214
▁समीकरण	-10.6227
▁उत्सुक	-10.6233
▁असंभव	-10.6233
▁संतोष	-10.6237
▁एससीसी	-10.6239
▁प्रतिवर्ष	-10.624
मीटर	-10.6242
▁ढक	-10.6244
▁खासकर	-10.6244
▁जुड	-10.6245
लिप	-10.625
ाली	-10.625
▁समकालीन	-10.6256
▁महान्	-10.6258
▁स्विच	-10.6263
▁संपादक	-10.6272
▁जाहिर	-10.6272
हरा	-10.6276
कर्ष	-10.6284
▁राजपत्र	-10.6297
to	-10.6307
▁इंदिरा	-10.6311
▁वरीयता	-10.6311
▁हर्ष	-10.6318
ढा	-10.6321
▁मोर	-10.6325
▁भरत	-10.6327
ेक्स	-10.633
▁एक्सचेंज	-10.6331
▁बुलाया	-10.6338
गान	-10.6346
▁कंध	-10.6349
▁ढाल	-10.635
▁2000	-10.6353
▁डाले	-10.6353
▁जॉन	-10.6357
▁इनकार	-10.6358
▁सुधारने	-10.6363
▁कर्तव्यों	-10.6365
ाभ	-10.6366
▁राष्ट्री	-10.6369
▁कच्चे	-10.637
▁पूर्वोक्त	-10.637
▁संव्यवहार	-10.6371
▁हुये	-10.6374
▁छल	-10.6376
▁त्रुटिः	-10.6376
▁प्रत्य	-10.6381
सिल	-10.6381
▁माहौल	-10.6391
बर्ट	-10.6394
▁कृत्यों	-10.6395
▁अन्	-10.6395
▁संघीय	-10.64
लैण्ड	-10.6404
▁समापन	-10.6404
▁नमूना	-10.6405
▁सांप्रदायिक	-10.641
▁मूत्र	-10.6416
ादि	-10.6418
▁अपूर्ण	-10.6419
▁निमित्त	-10.6429
▁प्रतिरक्षा	-10.6429
▁भ्रष्टाचार	-10.643
▁उन्नयन	-10.643
लीन	-10.6433
▁मृतक	-10.6437
▁घाव	-10.6441
▁दुर्ग	-10.6447
▁प्रत्यर्थी	-10.6449
रेट	-10.6452
लंब	-10.6452
▁घुस	-10.6453
▁अंगों	-10.6455
र्श	-10.6459
▁फॉर	-10.646
▁पते	-10.646
▁पुकार	-10.6462
▁खाद	-10.6465
▁राह	-10.6466
▁बुल	-10.6466
▁ठाकुर	-10.6469
▁बम्बई	-10.6469
▁संचिका	-10.6469
▁कनेक्ट	-10.647
ाट	-10.647
▁39	-10.6473
▁सत	-10.648
▁फूलों	-10.6481
▁अवधारण	-10.6481
▁उत्तराधिकार	-10.6486
▁आवरण	-10.6491
▁विनिधान	-10.6497
ियाई	-10.6502
▁अध्य	-10.6507
▁गाँधी	-10.6509
▁2016	-10.651
▁साक्षात्कार	-10.651
▁अपार	-10.6516
ंर	-10.6522
दृष्टि	-10.6524
▁मिथ्या	-10.6529
▁हरियाणा	-10.6529
▁अनिवासी	-10.653
▁कबीर	-10.6531
▁पान	-10.6542
▁आँ	-10.6543
▁समेकित	-10.6549
▁अजीब	-10.655
व्	-10.6557
om	-10.6563
▁देनी	-10.6564
▁श्लोक	-10.6569
बिया	-10.657
▁अहमद	-10.6571
▁पुनरीक्षण	-10.6571
दो	-10.6572
▁बैल	-10.6586
▁कौंसिल	-10.659
▁रियायत	-10.659
▁आउटपुट	-10.659
पीठ	-10.6594
▁छः	-10.66
▁अहम	-10.6603
प्रिय	-10.6604
em	-10.6609
▁दूरसंचार	-10.661
▁स्त्रोत	-10.661
▁विधवा	-10.661
▁ऋतु	-10.6612
▁शल्य	-10.6613
▁लाभांश	-10.6614
▁सोचने	-10.6615
निर्	-10.6618
शिप	-10.662
▁नेताजी	-10.6622
▁ठंड	-10.6629
▁पांव	-10.663
▁पेटेंट	-10.6631
▁उन्	-10.6639
मिया	-10.6641
▁सिर्फ़	-10.6644
ांकित	-10.6646
▁अहिंसा	-10.6647
▁रत्न	-10.6651
▁प्रसव	-10.6652
▁अग	-10.6656
▁सड़कों	-10.6665
▁जू	-10.6669
ूद	-10.667
▁विटामिन	-10.6671
▁रोचक	-10.6672
▁जोड़े	-10.6674
बान	-10.6674
▁छिप	-10.668
▁फिलीस्तीन	-10.6682
्श	-10.6684
▁चम	-10.6688
▁मारे	-10.6688
▁क्रियान्वयन	-10.6691
▁भेदभाव	-10.6693
▁मोटा	-10.6693
▁एक्ट	-10.6697
्ठ	-10.6699
मेट	-10.6705
13	-10.6707
शीलता	-10.6707
▁चढ़ा	-10.6709
वर्ड	-10.6711
▁टर्मिनल	-10.6711
▁समायोजन	-10.6712
▁सारणी	-10.6713
▁सत्यापन	-10.6714
▁सच्चाई	-10.6715
▁हमले	-10.6723
▁समाजवादी	-10.6725
▁प्राय	-10.6731
▁परिदृश्य	-10.6732
▁तै	-10.6733
▁पुनर्वास	-10.6734
▁बॉक्स	-10.6737
त्ति	-10.674
▁बेटे	-10.6744
▁सीट	-10.6744
▁सदस्यता	-10.675
NAME	-10.6752
▁हड्डी	-10.6752
▁महाद्वीप	-10.6753
▁टाइम्स	-10.6755
▁असंगत	-10.6758
▁अभिदाय	-10.6759
▁सेशन	-10.676
▁पोर्ट	-10.6763
and	-10.6768
AR	-10.677
▁कोमल	-10.6772
▁साक्षरता	-10.6773
▁उद्भूत	-10.6775
▁पीछल	-10.6776
ण्य	-10.6779
▁चूक	-10.6782
ात्	-10.6785
▁जरुरत	-10.6785
▁काफ़ी	-10.6786
ियल	-10.6789
कोण	-10.6793
▁पेट्रोलियम	-10.6793
▁प्रबन्ध	-10.6794
▁भेजी	-10.6796
▁किरायेदार	-10.68
▁रिहा	-10.68
▁वर्क	-10.6805
▁पब्लिक	-10.6814
▁गूगल	-10.6814
▁राज़्य	-10.6814
▁मुर	-10.6815
▁कन	-10.6816
▁उधर	-10.6818
▁रूचि	-10.6822
आईसी	-10.6822
▁अपनाई	-10.6832
▁हिस्सों	-10.6835
▁तुम्हारा	-10.6836
▁विकार	-10.6837
क्यू	-10.6838
▁इंजन	-10.6839
im	-10.6844
▁मंत्रियों	-10.6846
▁सिखा	-10.6849
▁ओवर	-10.6853
▁मजदूरों	-10.6855
▁उन्मूलन	-10.6855
▁we	-10.686
▁प्रवर्ग	-10.6864
▁लौटा	-10.6875
▁जिंदगी	-10.6876
▁मधुमेह	-10.6876
▁सृष्टि	-10.6876
▁वास	-10.6883
्ट्र	-10.6887
▁वध	-10.6889
▁मुझ	-10.6895
हू	-10.6897
▁राजाओं	-10.6904
▁तू	-10.6905
▁टांग	-10.6907
ma	-10.6911
कृतियों	-10.6917
▁पोल	-10.6918
▁हिन्दुओं	-10.6923
सिन	-10.6925
▁पक्षियों	-10.6925
▁पूर्वोत्तर	-10.6925
▁आगमन	-10.6936
चरित	-10.6936
▁किरण	-10.6939
▁नींव	-10.6939
▁ह्य	-10.6946
एगा	-10.6947
▁गे	-10.6947
▁फट	-10.6958
▁उपयोक्ता	-10.696
▁वार्ता	-10.696
▁निक्षेप	-10.6963
▁विस्तारित	-10.6969
▁तेज़	-10.6969
▁बताना	-10.6972
▁पुनर्गठन	-10.6981
▁गर्भाशय	-10.6981
▁फेर	-10.6983
▁विच्छेद	-10.6984
▁रोगियों	-10.6991
▁तीर्थ	-10.6991
बुल	-10.6991
14	-10.6992
केट	-10.6994
भ्र	-10.6997
गें	-10.7005
75	-10.7006
▁चो	-10.7007
म्मा	-10.7017
▁रहीं	-10.7019
▁टॉ	-10.702
बाद	-10.7021
▁बोला	-10.7022
▁सर्वश्रेष्ठ	-10.7023
माला	-10.7023
▁मनोरंजन	-10.7023
▁स्टॉक	-10.7024
▁चलती	-10.7025
▁घुटन	-10.7028
न्यास	-10.7029
्टी	-10.7032
▁बताता	-10.7037
▁मंत्रि	-10.7042
▁बच्चन	-10.7044
▁भीड़	-10.7045
▁कैन	-10.7045
▁अनिश्चित	-10.7046
▁पीड़क	-10.7048
▁निकायों	-10.7055
गमन	-10.706
▁फंस	-10.7062
▁तह	-10.7062
▁चर्च	-10.7064
▁अक्टूबर	-10.7065
▁मामूली	-10.7065
ायिक	-10.7065
▁वॉ	-10.7066
▁मैत्रीपूर्ण	-10.7068
निर्देश	-10.7069
▁महत्त	-10.7076
▁विश्वसनीय	-10.7077
र्ध	-10.7079
ॉप	-10.7081
▁खोजने	-10.7083
▁देगी	-10.7086
▁विकिरण	-10.7086
▁मुहैया	-10.7086
▁कब्जा	-10.7086
▁बकाया	-10.7087
▁सम्बद्ध	-10.7088
स्टो	-10.7092
▁निर्देशित	-10.7093
▁iv	-10.7098
▁निपटा	-10.7098
▁इकट्ठा	-10.7099
▁जर्मन	-10.71
▁निभाई	-10.7103
▁बैक	-10.7104
▁किलोग्राम	-10.7107
स्वामी	-10.7108
▁गुलाम	-10.7109
▁संचय	-10.7112
▁संकाय	-10.7113
हीनता	-10.7122
▁उठता	-10.7125
▁गोवा	-10.7125
▁कामगार	-10.7127
▁मैत्री	-10.7127
▁आयुर्वेद	-10.7129
स्थिति	-10.7129
ER	-10.713
▁वसूल	-10.7133
▁मित्रता	-10.714
▁पतन	-10.7142
▁कृ	-10.7143
एक	-10.7144
्नी	-10.7145
▁आतंक	-10.7146
▁मुख्यालय	-10.7156
षक	-10.7159
▁स्थिरता	-10.7168
लै	-10.7169
▁जज	-10.7171
▁उत्सर्जन	-10.7171
▁रखरखाव	-10.7171
▁ओबामा	-10.7171
▁बेहद	-10.7171
▁आश्रम	-10.7176
▁निर्देशों	-10.7176
ागार	-10.7177
▁लार्ड	-10.7181
▁शान्ति	-10.7199
▁निंदा	-10.7201
▁श्रमिक	-10.7208
▁निरसित	-10.7214
वसाय	-10.7222
▁जगा	-10.7223
शोध	-10.7224
▁निर्माता	-10.7226
ेस्ट	-10.7227
▁केन्द्रों	-10.7232
▁दौरा	-10.7234
ंकि	-10.7235
▁इलाहाबाद	-10.7236
▁काउंसिल	-10.7236
▁प्रोटोकॉल	-10.7236
▁कोयला	-10.7238
दर्शन	-10.7239
मू	-10.7239
▁सौंपा	-10.725
▁नाल	-10.7256
▁मौखिक	-10.7257
▁रोशनी	-10.7257
▁इंगित	-10.7257
ैट	-10.7258
▁निर्वहन	-10.7258
▁बाध्यता	-10.7265
गीर	-10.7266
▁उलट	-10.7267
्यूट	-10.7273
▁रेगिस्तान	-10.7279
▁सामर्थ्य	-10.7279
▁प्रदाह	-10.7279
▁कठिनाइयों	-10.7279
दाताओं	-10.728
▁कैद	-10.7283
प्रा	-10.7283
▁बादशाह	-10.7285
▁सुधारों	-10.7287
▁जरुर	-10.7289
▁संस्थापित	-10.729
▁साझीदारी	-10.7291
▁उपबंधित	-10.7292
▁याचिकाकर्ता	-10.7294
▁फार	-10.7294
▁हाई	-10.7297
▁शिकायतों	-10.7298
▁आधिकारिक	-10.73
▁मुद्दा	-10.73
▁स्टार	-10.7304
जनों	-10.7305
राग	-10.7306
▁अभियोग	-10.7308
▁यान	-10.7308
▁सॉ	-10.7313
▁घेर	-10.7316
पर्ण	-10.7318
भु	-10.7319
▁गम्भीर	-10.7322
▁मोहम्मद	-10.7322
▁जैविक	-10.7325
▁कामकाज	-10.7327
▁आधी	-10.7327
64	-10.7331
्को	-10.7331
ध्द	-10.734
िच	-10.734
▁मनाया	-10.7344
▁झिल्ली	-10.7344
▁शम	-10.7347
▁कार्यनीति	-10.7349
▁अहं	-10.7351
▁लू	-10.7356
▁काला	-10.7357
ार्थियों	-10.7358
▁प्रीत	-10.7359
पूर	-10.7361
▁आश्रय	-10.7366
▁दीक्षांत	-10.7366
▁वात	-10.7366
▁दुग्ध	-10.7366
▁चौड़ाई	-10.7368
▁पाद	-10.7368
‘	-10.737
▁रेख	-10.7373
▁बायो	-10.7373
▁तिहाई	-10.7387
है	-10.7392
▁लाई	-10.7392
▁पका	-10.7394
▁दीवान	-10.7397
98	-10.7401
▁अन्न	-10.7403
आईडी	-10.7407
▁दुर्भाग्य	-10.7409
▁संकीर्ण	-10.7409
▁धार	-10.7411
85	-10.7412
ृष्ट	-10.7415
बंद	-10.7418
▁at	-10.7418
ेयर	-10.7425
्हे	-10.7425
ङ्ग	-10.7427
▁विख्यात	-10.7431
▁तमाम	-10.7432
▁खर्चे	-10.7439
▁संस्थापन	-10.744
▁साकार	-10.7441
सक	-10.7447
मणि	-10.7449
▁ज्या	-10.745
▁प्रजाति	-10.745
▁उपयोगिता	-10.7453
▁फायदे	-10.7453
▁मुँह	-10.7453
▁खारिज	-10.7454
▁असह	-10.7455
▁गीतों	-10.7456
▁बंग	-10.7457
क़ा	-10.7458
▁पत्तन	-10.7458
▁जाग	-10.7464
ड़ों	-10.7466
ुस	-10.7468
▁आशंका	-10.7469
▁रूपों	-10.7473
▁आघात	-10.7475
पथ	-10.7475
▁योनि	-10.7476
▁जनन	-10.7477
▁शरण	-10.748
▁हू	-10.748
▁जगत्	-10.7486
▁बही	-10.7491
▁आगामी	-10.7492
ाचार्य	-10.7496
▁छि	-10.7496
▁एससी	-10.7497
▁अशोक	-10.7498
▁स्नान	-10.75
▁इंजीनियरिंग	-10.7501
ावस्था	-10.7513
▁यज्ञ	-10.7514
▁स्वच्छता	-10.7515
्बे	-10.7516
▁ध्रुव	-10.7519
▁निरन्तर	-10.7519
▁सूख	-10.7528
▁बढा	-10.7528
बाज़	-10.753
भद्र	-10.753
id	-10.7533
बाबू	-10.7535
▁गेंदबाज	-10.7536
▁बेचने	-10.7537
हिन्द	-10.7543
▁बेटी	-10.7544
कै	-10.7544
▁रहकर	-10.7544
▁स्टाफ	-10.7547
▁झेल	-10.7552
▁उन्नति	-10.7553
▁गंद	-10.7559
▁लड़कियों	-10.7564
▁पुरुषों	-10.7566
▁लेट	-10.7572
▁देशवासियों	-10.7579
▁कृत	-10.7584
▁निधियों	-10.7584
▁अब्दुल	-10.7586
▁प्रगाढ़	-10.7586
▁अवलोकन	-10.7586
▁ताज	-10.7592
▁अस्त	-10.7593
▁घटित	-10.7593
वर्ष	-10.7594
बंदी	-10.7597
▁मेहर	-10.76
▁पुत्री	-10.7603
▁ज्योति	-10.7604
▁कंप	-10.7605
▁सहभागिता	-10.7608
▁अवधारित	-10.7608
▁रंगमंच	-10.7608
▁पीडीएफ	-10.7609
▁गले	-10.7614
▁नाव	-10.7615
▁पर्यटकों	-10.762
▁सूचक	-10.7626
▁धूल	-10.7635
▁अफ़	-10.7639
▁विनियमित	-10.7639
▁रोड	-10.7639
▁निदान	-10.7643
▁सूचीबद्ध	-10.7644
▁कवर	-10.7652
▁तुरन्त	-10.7653
▁आचार	-10.7653
▁नारी	-10.7653
▁किराए	-10.7656
▁धारित	-10.7658
▁साथी	-10.766
▁प्रजातिय	-10.7663
सुर	-10.7664
▁मुह	-10.7665
▁गंभीरता	-10.7666
▁हटाए	-10.7674
▁मनुष्यों	-10.7676
▁विशेषज्ञों	-10.7677
▁स्वी	-10.7677
▁ट्रा	-10.768
▁मतदाता	-10.7684
▁इंटर	-10.7685
▁भ्र	-10.769
▁लौटने	-10.7691
बर्ग	-10.7694
लियन	-10.7695
▁संस्कार	-10.7698
▁समझी	-10.77
▁निकले	-10.7701
▁लाए	-10.7705
▁छोड़ने	-10.7708
तापूर्वक	-10.771
▁आलेख	-10.7711
▁उम्मीदवार	-10.7713
नीत	-10.7716
▁कहती	-10.772
ट्रा	-10.7721
▁नियोक्ता	-10.7721
▁श्रीलंका	-10.7721
▁खोलें	-10.7724
▁सुगम	-10.7724
▁बीमाकर्ता	-10.7726
▁मिलन	-10.7742
पुट	-10.7743
▁प्रगतिशील	-10.7746
▁प्रस्तावों	-10.7757
ir	-10.7765
▁ग्यारह	-10.7766
▁तृतीय	-10.7766
▁धारक	-10.7768
वट	-10.7768
▁प्रतिलिपि	-10.7769
▁विद	-10.777
विष	-10.7772
▁40	-10.7773
▁्याय	-10.7776
▁हटाया	-10.7782
▁ढो	-10.7782
▁प्रतिस्पर्धा	-10.7786
▁स्वैच्छिक	-10.7789
▁अन्तर्राष्ट्रीय	-10.7789
▁कपड़ा	-10.7792
▁अण्ड	-10.7793
ंगर	-10.7794
▁प्रस्तुति	-10.7796
कृ	-10.7801
▁पटल	-10.7803
▁छेद	-10.7804
▁विषयक	-10.7805
▁’	-10.7807
▁गुल	-10.7808
रना	-10.781
▁आशुतोष	-10.7812
▁चमत्कार	-10.7812
▁दशमलव	-10.7812
ायन	-10.7814
▁गरम	-10.7814
कोट	-10.7815
दुर	-10.7816
▁ब्यूरो	-10.782
▁त्र	-10.7825
विद्	-10.7826
▁केन्द्रित	-10.7829
▁कुटुम्ब	-10.7834
▁दुरुपयोग	-10.7834
▁निर्दोष	-10.7835
▁कन्	-10.7835
▁झाड़	-10.7836
रेशन	-10.7847
▁परियोजनाएं	-10.7849
▁मापन	-10.7853
▁प्रतिबिंब	-10.7857
धारा	-10.7859
▁नानक	-10.786
▁ट्रै	-10.7862
ट्रिक	-10.7863
▁बेकार	-10.7865
▁विनि	-10.7874
▁मधुर	-10.7879
▁एकजुट	-10.788
▁रसीद	-10.7881
▁कट्टर	-10.7881
▁लेखापरीक्षा	-10.7881
शोधन	-10.7883
▁रोका	-10.7889
▁खिलाड़ी	-10.7906
बै	-10.7906
काय	-10.7907
▁ट्रांस	-10.791
ॉक्स	-10.7911
▁बूट	-10.7914
▁In	-10.7916
▁बचे	-10.7916
▁मूल्यवान	-10.7916
योग्य	-10.7917
▁इंजीनियर	-10.7919
न्दा	-10.7922
▁उपहार	-10.7924
क्रिया	-10.7925
▁उदर	-10.7925
▁अँ	-10.7925
▁मूर्ख	-10.7926
▁हड़ताल	-10.7926
▁सहेज	-10.7927
▁एज	-10.793
▁जिसमे	-10.7932
▁घोर	-10.7934
▁28	-10.7936
▁सवार	-10.7939
▁भगत	-10.794
▁घड़ी	-10.794
ँव	-10.7941
▁बनकर	-10.7943
ानंद	-10.7943
▁सेल	-10.7945
▁मंद	-10.7952
▁घुमा	-10.7957
विद	-10.7957
▁सांप	-10.7968
▁लोगो	-10.7968
▁मुड़	-10.797
▁अय	-10.7972
▁मेमोरी	-10.7973
▁स्वायत्त	-10.7973
▁डोमेन	-10.7973
▁रिवाज	-10.7975
▁बदरूद्	-10.7975
ार्थी	-10.7977
▁कार्यकाल	-10.7982
▁दुर्गा	-10.7984
▁जीवंत	-10.7984
▁प्रचुर	-10.7996
विल	-10.7998
▁बिन	-10.7998
▁प्रतिकर	-10.7999
▁विचित्र	-10.8002
▁व्यास	-10.8008
▁आइए	-10.8009
ैम	-10.801
क्रा	-10.8013
▁ईमानदारी	-10.8016
▁पद्धतियों	-10.8017
▁एसोसिएशन	-10.8019
▁डेस्कटॉप	-10.8019
▁सामुदायिक	-10.8019
▁विधानसभा	-10.802
▁सक	-10.8023
▁ब्रह्मा	-10.8024
▁स्थलों	-10.8026
गृहीत	-10.803
▁इनसे	-10.8036
▁अभिन्न	-10.8037
▁आज्ञा	-10.8039
▁लाहौर	-10.8042
▁स्थानांतरित	-10.8042
▁प्रतिवेदन	-10.8042
▁खातों	-10.8043
▁सचिवालय	-10.8043
▁भागवत	-10.8046
▁खपत	-10.8053
▁दृढ़ता	-10.8054
▁डब्ल्यू	-10.8057
▁क्रोध	-10.8059
▁दीवारों	-10.8061
▁26	-10.8064
▁संतुलित	-10.8066
▁निविदा	-10.8066
▁सटीक	-10.8066
▁दायित्वों	-10.8066
तोष	-10.8066
▁अतिक्रमण	-10.8067
▁लचील	-10.8067
▁कोटि	-10.8067
▁आवाज़	-10.8073
ैश	-10.8074
वय	-10.8082
▁धर्मों	-10.8083
▁भूत	-10.8084
▁समामेल	-10.809
शाह	-10.8091
▁निर्वाह	-10.8094
▁विषम	-10.8095
▁गिरा	-10.8102
▁गढ़	-10.8107
▁अस्पष्ट	-10.8113
▁हैसियत	-10.8113
▁समाहित	-10.8115
▁प्रभु	-10.8116
▁औषध	-10.8125
रानी	-10.8126
▁पॉल	-10.8129
▁अन्तः	-10.8136
▁श्रेय	-10.8138
▁सालों	-10.814
▁ट्रे	-10.8142
▁अनन्य	-10.8145
शियन	-10.8152
▁चिर	-10.8153
ानन्द	-10.8157
▁वापिस	-10.816
▁बरस	-10.8166
▁कहलाता	-10.8167
▁निर्माताओं	-10.8171
▁अनुभवों	-10.8174
▁परजीवी	-10.8177
▁कूद	-10.8178
▁चंद	-10.818
os	-10.8183
▁हार्डवेयर	-10.8183
▁गतिविधियां	-10.8186
▁बादल	-10.8187
▁संरक्षित	-10.8188
▁बढ़े	-10.8191
▁मंत्र	-10.8193
▁लक्ष्मी	-10.8207
▁विधायिका	-10.8207
▁यात्रियों	-10.8207
▁सतर्कता	-10.8208
▁जंग	-10.821
▁अंतरिम	-10.8212
▁प्रवास	-10.8215
▁उत	-10.8216
▁सभाओं	-10.8216
▁बदलें	-10.8221
▁प्राइवेट	-10.8231
▁सोवियत	-10.8231
▁प्रभुत्व	-10.8232
▁गौण	-10.8236
▁मुल	-10.8239
▁सेवन	-10.8239
ज्ञा	-10.824
▁उत्प	-10.8254
▁निकालना	-10.8255
▁हिमनद	-10.8255
▁बिर	-10.8256
▁एंव	-10.8262
▁व्याकरण	-10.8262
▁गयीं	-10.8268
▁क्षमा	-10.8268
देह	-10.8269
दश	-10.827
▁लड़का	-10.827
▁जनजाति	-10.8273
▁प्रौढ़	-10.8278
▁निष्पादित	-10.8279
▁हानिकारक	-10.8279
▁बोलने	-10.828
पीएस	-10.828
रंज	-10.8284
साध्य	-10.8285
सिस	-10.8288
▁बहुल	-10.8288
▁सिंधु	-10.8294
▁पंद्रह	-10.8302
▁प्रश	-10.8302
▁पाइप	-10.8303
रिंग	-10.8305
ाइम	-10.8307
▁पाठ्य	-10.8308
ha	-10.8309
ोला	-10.8314
▁सेंट	-10.8319
▁माध्य	-10.832
▁प्रख्यात	-10.8326
▁भूटान	-10.8327
▁कुर	-10.8327
▁आंकड़ा	-10.8328
▁विलियम	-10.8328
94	-10.8328
▁घातक	-10.8329
co	-10.8335
▁पाठकों	-10.8341
▁छंद	-10.8342
▁बजाए	-10.8348
▁आस्ट्रेलिया	-10.835
▁मणिपुर	-10.835
▁बंदरगाह	-10.8351
▁बढ़ाया	-10.8351
▁अफ	-10.8352
राय	-10.8353
▁चलना	-10.8362
लता	-10.8364
▁जितने	-10.8368
▁दक्ष	-10.8368
एंगे	-10.8369
▁कर्ता	-10.8373
्मा	-10.8374
▁नाट्य	-10.8375
▁औजार	-10.8375
▁व्यक़्ति	-10.8375
▁अन्ध	-10.8385
ोगे	-10.8387
टेल	-10.8388
नेवाला	-10.8393
ंगो	-10.8395
पत्ति	-10.8395
▁दौरे	-10.8398
▁निर्णायक	-10.8399
▁दोबारा	-10.8399
▁निःशुल्क	-10.8399
▁यकीन	-10.8399
▁शास्त्रीय	-10.84
िकता	-10.8406
▁उदाहरणार्थ	-10.8406
▁द्रव्य	-10.8407
▁आंत	-10.8414
▁मंत्रालयों	-10.8416
▁गोपाल	-10.8418
िणी	-10.8421
▁अपर्याप्त	-10.8423
▁भ्रूण	-10.8423
▁संभाव्य	-10.8423
▁क्वा	-10.8426
▁चुप	-10.8428
्तर	-10.8432
▁चिप	-10.8434
ैत	-10.8436
▁सुनी	-10.8441
खण्ड	-10.8443
रियल	-10.8445
वंत	-10.8446
▁निषेध	-10.8447
▁वांछित	-10.8447
▁धूप	-10.8447
▁मत्स्य	-10.8447
▁दीर्घकालिक	-10.8448
▁पड़ोसी	-10.8449
▁फॉर्म	-10.8449
▁हरी	-10.8451
▁संस्थाएं	-10.8459
▁छोर	-10.846
▁संयोग	-10.8464
रक्त	-10.8465
▁टै	-10.8467
▁दिलचस्प	-10.847
▁डिफ़ॉल्ट	-10.8471
▁पद्म	-10.8472
▁अध्यादेश	-10.8472
कर्त्ता	-10.8473
िद	-10.8475
▁चिह्नित	-10.8475
कीय	-10.848
▁प्राणियों	-10.8482
0,000	-10.8484
▁सूर	-10.8495
▁संप्रदाय	-10.8496
are	-10.8498
▁सेंटर	-10.8498
▁एआईआर	-10.8499
▁आक्षेप	-10.8508
भाई	-10.8512
▁तिर	-10.8513
▁दंडादेश	-10.852
▁परिसीमा	-10.852
▁सच्ची	-10.852
▁पोषक	-10.8521
▁अर्पित	-10.8522
▁सख्त	-10.8524
▁जादू	-10.8526
ड्	-10.8527
रोधी	-10.8537
▁संज्ञा	-10.8542
▁अद्भुत	-10.8545
▁जगन्नाथ	-10.8545
▁अल्पसंख्यक	-10.8545
▁श्वसन	-10.8545
▁जाएंगी	-10.8546
▁युक्तियुक्त	-10.8547
▁शर्मा	-10.8554
▁हिला	-10.8557
▁आगरा	-10.8559
थो	-10.8563
फोर	-10.8564
▁उद्यमियों	-10.8566
▁डेटाबेस	-10.8569
▁सनातन	-10.8569
ष्ण	-10.8572
▁गौ	-10.8573
▁इधर	-10.8575
राष्ट्रीय	-10.8579
राज्य	-10.8589
▁ओह	-10.859
वर्धित	-10.859
▁de	-10.8594
▁अतएव	-10.8594
▁सावधान	-10.8596
▁साम्राज्यवाद	-10.8612
▁मार्	-10.8613
ेप	-10.8614
▁अकेला	-10.8616
स्कर	-10.8617
गृह	-10.8618
▁अनावश्यक	-10.8619
▁अर्जुन	-10.8619
▁महाकाव्य	-10.8619
▁उद्धृत	-10.8619
▁हेम	-10.8619
जीत	-10.8621
ot	-10.863
▁दादा	-10.8643
▁कारकों	-10.8647
▁हरा	-10.8647
▁गेट	-10.8647
रेखा	-10.865
▁साथियों	-10.8651
सीए	-10.8654
▁शुभ	-10.8661
▁आओ	-10.8661
▁100	-10.8664
▁आंबेडकर	-10.8668
स्था	-10.8669
▁संपादित	-10.8672
त्या	-10.8673
▁संजाल	-10.8673
▁अटल	-10.8682
▁ऊंट	-10.8689
ग्री	-10.869
▁मुख़्य	-10.8693
▁पुणे	-10.8693
▁कूटशब्द	-10.8693
भू	-10.8694
▁तप	-10.8697
▁सांसद	-10.8698
▁पासवर्ड	-10.8699
▁किले	-10.8705
ाइज	-10.8706
▁संक्रिया	-10.8712
,5	-10.8716
पक्ष	-10.8729
भेद	-10.8736
▁शिरा	-10.874
▁यांत्रिक	-10.8743
▁तैर	-10.8744
▁चेहरा	-10.8744
▁संख़्या	-10.8745
▁सूअर	-10.8746
दीप	-10.8748
▁टुकड़े	-10.8748
▁पाती	-10.875
▁वर्षो	-10.8762
पुष्ट	-10.8762
▁कहकर	-10.8765
▁शासकों	-10.8765
▁निवेदन	-10.8768
▁गुणसूत्र	-10.8769
▁गुजराती	-10.8769
▁मानों	-10.877
पीड	-10.8771
कारक	-10.8771
▁अभिनेता	-10.8772
▁कृपा	-10.8773
▁हरे	-10.8774
ne	-10.8775
▁निर्व	-10.8775
▁भेजें	-10.8777
▁विगत	-10.8777
▁पैरों	-10.8782
▁u	-10.8782
▁विकृत	-10.8785
लिय	-10.8786
▁क्षमताओं	-10.8788
▁सौहार्द	-10.8793
▁नवीनतम	-10.8796
वक्ता	-10.88
▁खैर	-10.8801
▁जानती	-10.8803
सम्मत	-10.8803
▁ऑन	-10.8804
मूल्य	-10.8805
▁टीवी	-10.8809
▁साख	-10.881
▁आचार्य	-10.8811
▁शव	-10.8811
▁पट्ट	-10.8818
▁द्वारकानाथ	-10.8818
▁साक्षियों	-10.8819
▁भयानक	-10.8819
▁जनजातिय	-10.8825
▁रवि	-10.8831
▁बुश	-10.8831
▁अर्द्ध	-10.8834
बेट	-10.8838
▁पिछड़े	-10.8839
▁दाल	-10.8841
▁बनायी	-10.8843
▁काश्मीर	-10.8844
▁निरपेक्ष	-10.8844
▁सूचकांक	-10.8848
▁लायक	-10.885
▁कमर	-10.8854
▁पवन	-10.8864
▁सुपर	-10.8868
▁अपशिष्ट	-10.8869
▁औचित्य	-10.8869
▁स्वदेशी	-10.887
▁दुर्बल	-10.8871
▁संस्थापक	-10.8875
▁नाना	-10.8878
प्रदेश	-10.8881
ात्मा	-10.8882
▁स्वार्थ	-10.8883
ैड	-10.8884
पिंग	-10.8886
▁प्रपत्र	-10.8886
na	-10.8887
▁माध्यमिक	-10.8892
▁32	-10.8894
▁पारदर्शिता	-10.8894
▁कार्यवाहियां	-10.8894
18	-10.8896
िंद	-10.8899
▁परेशानी	-10.8899
▁झलक	-10.8902
.5	-10.8905
वारी	-10.8913
▁सांख्यिकी	-10.892
▁एजेंट	-10.892
▁मास्टर	-10.8921
▁अंधेर	-10.8922
va	-10.8925
टिल	-10.8927
▁चित्त	-10.8927
▁लेबल	-10.8929
▁टर्	-10.8943
▁संदिग्ध	-10.8945
ent	-10.8947
▁पर्यवेक्षण	-10.8948
▁प्रदाता	-10.895
डम	-10.8954
▁परिधि	-10.8957
▁वाम	-10.8958
▁प्रविष्ट	-10.896
▁अभिप्राय	-10.8971
▁तत्पर	-10.8972
▁प्रशांत	-10.8972
▁दिलचस्पी	-10.8973
▁चलकर	-10.8974
16	-10.8979
▁मेज	-10.8988
▁बालकों	-10.8989
▁लड़ने	-10.899
▁गंतव्य	-10.8997
▁शुष्क	-10.8997
▁कंपनियां	-10.8997
▁अश्व	-10.9
▁उग	-10.9002
रक्षण	-10.9003
स्राव	-10.9007
▁विवश	-10.9008
▁कीमतों	-10.9012
क्रिय	-10.9015
▁ऊतकों	-10.9018
▁एमएसएमई	-10.9022
▁पारिवारिक	-10.9022
▁मार्गदर्शक	-10.9022
▁अवतार	-10.9029
▁भट्ट	-10.903
▁लगाकर	-10.9031
▁मिश्र	-10.9035
ख़ा	-10.9041
▁काटने	-10.9043
▁बदलना	-10.9045
▁आविष्कार	-10.9048
▁सत्यापित	-10.9048
▁पूरक	-10.905
▁तत्सम	-10.9052
युग	-10.9052
▁पावर	-10.9053
▁भोग	-10.9057
▁समावेशी	-10.9061
कोष	-10.9065
▁गुर	-10.9073
▁टेप	-10.9073
▁महर्षि	-10.9074
▁निर्द	-10.9074
तुर	-10.9075
▁स्टाक	-10.9076
वर्ण	-10.908
लिका	-10.908
▁मंजिल	-10.9082
▁परिपूर्ण	-10.9084
▁माइ	-10.9091
▁अनुमानित	-10.9095
भाष	-10.9097
▁पग	-10.9099
▁आलोचक	-10.91
▁वित्तपोषण	-10.91
▁अंतर्विष्ट	-10.91
ावरण	-10.9102
▁ईमेल	-10.9103
▁गरीबों	-10.9117
▁वृक्क	-10.9119
▁चोरी	-10.9122
▁वेग	-10.9123
▁आबंटन	-10.9126
▁मुताबिक	-10.9126
▁अभिनय	-10.9126
▁प्रतिष्ठान	-10.9129
▁कहलात	-10.9129
▁गोप	-10.9132
वृ	-10.915
्ष	-10.9152
▁फांसी	-10.9152
▁पंचाट	-10.9153
▁सोना	-10.9153
▁बर्तन	-10.9153
▁प्रवासी	-10.9155
▁यातना	-10.9157
▁निकला	-10.9158
प्रति	-10.9163
▁the	-10.9177
▁पठन	-10.9179
▁आश्चर्यजनक	-10.918
▁पदक	-10.9185
▁परिणत	-10.9185
▁श्रमिकों	-10.9186
▁सम्भावना	-10.9187
▁सच्चा	-10.9191
▁बेचा	-10.9199
▁साधना	-10.9199
▁चलाए	-10.9201
▁इच्छुक	-10.9204
▁अभियोजक	-10.9206
▁गोद	-10.9214
▁चालक	-10.9214
▁दर्शक	-10.9222
▁अपीलीय	-10.9224
य्या	-10.9228
▁दरवाजे	-10.923
▁पायी	-10.9234
़ी	-10.9239
▁प्रतिभूतियों	-10.924
िआ	-10.9242
आइ	-10.9242
▁इलेक्	-10.9245
▁आरक्षण	-10.9247
क्षक	-10.925
▁जमाने	-10.9252
▁गिरावट	-10.9257
▁बेशक	-10.9257
▁छिद्र	-10.9258
▁सर्वथा	-10.9261
यालय	-10.9261
▁क्रियाओं	-10.9268
▁सऋ	-10.9271
▁रात्रि	-10.9273
▁वृहत	-10.9275
▁पडा	-10.9281
▁तात्पर्य	-10.9283
▁लक्ष्मण	-10.9283
▁अभिरक्षा	-10.9283
▁रिश्त	-10.9284
▁प्रेमी	-10.9285
न्या	-10.9285
▁इस्लामवाद	-10.9287
▁शौक	-10.9298
ण्	-10.9305
▁बताए	-10.9305
▁तात्कालिक	-10.931
▁ग्रुप	-10.931
▁मजबूती	-10.931
▁2001	-10.9311
▁ईस्ट	-10.9313
▁टेस्ट	-10.9313
व्यापी	-10.9313
▁प्रौद्योगिकियों	-10.9315
सेन	-10.9316
गणित	-10.932
▁दर्जा	-10.9327
डोर	-10.9334
▁फ़ॉन्ट	-10.9336
▁निरूपित	-10.9336
▁सुश्री	-10.9336
▁पट्टे	-10.9339
▁संचरण	-10.934
▁मधु	-10.9342
▁लक्षणों	-10.9344
▁स्पेन	-10.9345
ोरा	-10.9346
जीवी	-10.9346
श्रु	-10.9346
आईटी	-10.9349
▁मस्त	-10.9352
▁चुनावों	-10.9352
▁स्थाई	-10.9355
सिया	-10.9356
▁पद्य	-10.9358
लस	-10.936
▁आत्महत्या	-10.9363
▁जबरदस्त	-10.9363
▁बहुमूल्य	-10.9364
पेट	-10.9364
▁सिंध	-10.9367
▁व्यर्थ	-10.9367
▁सर्प	-10.9367
▁दंडनीय	-10.937
▁re	-10.937
ंति	-10.9374
▁विशेषताओं	-10.9379
कार्य	-10.9382
डू	-10.9382
▁अवगत	-10.9383
▁चं	-10.9383
रेटर	-10.9386
▁वक्र	-10.9388
▁सिनेमा	-10.9389
आरए	-10.9398
▁चारा	-10.9399
फू	-10.9404
▁लेगा	-10.9404
ia	-10.9406
नायक	-10.9406
▁मानस	-10.9408
लेखन	-10.9412
चारी	-10.9415
▁हँस	-10.9417
▁जटिलता	-10.943
रिट	-10.9438
▁जमींदार	-10.9443
▁अब्दुल्ला	-10.9443
▁मूलतः	-10.9444
▁गुलाब	-10.9445
▁प्रतिबद्ध	-10.9445
▁निकाले	-10.9446
ग्रे	-10.945
▁सीखा	-10.9453
मेल	-10.9456
▁मानदंड	-10.9457
▁सुनाई	-10.9458
▁आश	-10.9458
▁ae	-10.9464
गाह	-10.9467
▁घोड़े	-10.947
▁समीप	-10.947
▁स्वाद	-10.9476
▁पटेल	-10.9476
▁आभूषण	-10.9477
89	-10.9477
▁वनों	-10.9477
▁तालिका	-10.9477
▁फलों	-10.9479
▁उतने	-10.9485
▁क्लो	-10.9492
▁बाबा	-10.9494
▁गेहूं	-10.9497
▁कीटनाशक	-10.9497
▁संकर	-10.9501
▁मास्टर्स	-10.9501
▁मारने	-10.9504
▁खनन	-10.9505
▁सौदा	-10.951
▁आरोपों	-10.951
▁खु	-10.9514
▁गोर	-10.9515
25	-10.9523
▁मुफ्त	-10.9524
▁लार्वा	-10.9524
▁अधिग्रहण	-10.9526
▁स्थानांतरण	-10.9528
▁बिलियन	-10.9531
▁तिरु	-10.9535
▁चाहेंगे	-10.9535
▁ललिता	-10.9543
▁सीडी	-10.9549
▁बलिदान	-10.9551
▁अनुभाग	-10.9556
▁विकेट	-10.9558
रवाना	-10.956
▁नरम	-10.9562
कुमार	-10.9567
▁बोले	-10.957
▁साइन	-10.9576
▁जंतु	-10.9578
▁ढूँढ	-10.9579
▁मानचित्र	-10.9581
▁लाभदायक	-10.9583
▁बनाएँ	-10.9584
▁सूरज	-10.9587
▁चरणों	-10.9587
▁पूछे	-10.9588
▁बुराई	-10.9588
▁शाही	-10.959
▁सोचना	-10.959
स्तान	-10.9594
▁प्लग	-10.9595
▁नाटकीय	-10.96
▁नियन्त्रण	-10.9605
▁आजीविका	-10.9605
▁दवाओं	-10.9609
▁मौके	-10.9613
वेयर	-10.9614
▁आर्क	-10.962
ल्यू	-10.9622
▁बढ़ाकर	-10.9622
99	-10.9627
▁ट्रेन	-10.9628
▁मातृ	-10.9631
▁वाणी	-10.9636
▁उपरांत	-10.9636
▁सार्वभौमिक	-10.9639
पेक्ष	-10.9658
्यायालय	-10.966
▁चुंबकीय	-10.966
▁अनियमित	-10.966
▁बगैर	-10.966
▁तुर्क	-10.9661
▁बिस्तर	-10.9662
▁नींद	-10.9666
ho	-10.9666
▁महिलाएं	-10.9669
▁भोज	-10.967
▁बोर	-10.9673
▁क्रमांक	-10.9678
भुज	-10.9681
▁बौ	-10.9683
▁लय	-10.9683
▁लखनऊ	-10.9687
▁विघटन	-10.9687
थ्र	-10.9688
▁खेतों	-10.969
▁छोड़ा	-10.9693
▁ठहराया	-10.9696
▁खाड़ी	-10.9696
▁अवमान	-10.9698
▁ढल	-10.9701
▁vi	-10.9704
▁मण्डल	-10.9706
डीपी	-10.9707
▁नियोजित	-10.9707
▁स्टोर	-10.9708
▁ट्रस्ट	-10.9712
▁लूट	-10.9712
▁नली	-10.9715
▁बशर्ते	-10.9715
▁करवाने	-10.9716
▁अवसाद	-10.9717
ैप	-10.9725
▁अखबार	-10.9727
▁चिल्ला	-10.9728
17	-10.9728
▁दिवा	-10.973
▁पर्यावरणीय	-10.973
▁बंगाली	-10.9731
्ती	-10.9732
▁ऑपरेट	-10.9732
▁पंथ	-10.9733
▁रूपांतरण	-10.9738
▁लगाई	-10.9742
▁ज्वर	-10.9743
▁समेत	-10.9744
▁अग्रसर	-10.9747
ab	-10.9754
▁जूट	-10.9758
▁निम	-10.9764
लाइट	-10.9768
▁अद्वितीय	-10.977
▁सोसायटी	-10.977
▁संपादन	-10.977
▁नाश	-10.9773
▁आभार	-10.9776
▁पुरा	-10.9788
पार्ट	-10.9791
▁विशिष्टता	-10.9792
▁लगेगा	-10.9793
पटल	-10.9794
▁उद्यमी	-10.9795
▁भूकंप	-10.9798
▁विधिमान्य	-10.9798
▁प्रोसेस	-10.9798
▁विशेषज्ञता	-10.9802
▁बंट	-10.9804
▁गार्ड	-10.9804
श्क	-10.9804
▁सिवा	-10.9807
▁अनुबंध	-10.9809
▁प्रवाहित	-10.981
▁उदय	-10.9816
▁ब्रे	-10.982
▁छुपा	-10.982
▁रेत	-10.9823
▁भयंकर	-10.9826
▁अंडमान	-10.9831
▁पंजी	-10.9838
ul	-10.9846
ांतरण	-10.9847
▁टूल	-10.9847
धारकों	-10.9847
धारियों	-10.9848
▁स्टै	-10.9851
▁सिम	-10.9851
▁भड़क	-10.9851
▁माया	-10.9854
▁ऑस्ट्रेलिया	-10.9854
▁निकोबार	-10.9854
▁स्नायु	-10.9854
▁मुद्रण	-10.9854
इं	-10.9855
श्वर	-10.986
sh	-10.9866
▁साम्यवाद	-10.9872
▁बीमारियों	-10.9873
ग्राम	-10.9881
▁चिन्ता	-10.9882
▁प्रलेख	-10.9887
▁दिखायी	-10.9887
▁ढलान	-10.9889
ap	-10.9894
र्र	-10.9894
▁निः	-10.9895
▁सिफारिशें	-10.9897
▁उठे	-10.9899
ऑ	-10.9901
मूर्ति	-10.9906
धु	-10.991
▁डिवीजन	-10.991
▁उद्धरण	-10.9911
▁धर	-10.9912
▁विशेन	-10.9913
▁ऑटो	-10.9913
▁हास्य	-10.9914
▁प्रारम्भिक	-10.9923
▁कैसा	-10.9924
▁बदलते	-10.9929
राष्ट्र	-10.993
द्घ	-10.9933
येंगे	-10.9938
▁वाजपेयी	-10.9938
▁अधिष्ठा	-10.9939
▁मुद्रित	-10.9939
▁उत्पत्ति	-10.9939
▁कारित	-10.994
▁साठ	-10.9944
▁अपरि	-10.9945
▁बेन	-10.9949
भाषी	-10.995
▁चित्रों	-10.9951
▁उत्पादित	-10.9953
▁क्रो	-10.9957
▁आवृत्ति	-10.9959
▁पेय	-10.9961
▁अर्जी	-10.9963
▁आवासीय	-10.9963
▁निरोध	-10.9964
गुन	-10.9964
▁अंतःस्थापित	-10.9967
▁चित्रित	-10.9977
▁पर्यटक	-10.9981
▁बग	-10.9981
तऋ	-10.9981
▁अंदाज	-10.9984
हरण	-10.9987
▁नीतियां	-10.9991
▁बनती	-10.9991
▁मॉड्यूल	-10.9995
▁सर्किट	-10.9995
▁मेनू	-10.9995
▁राजकीय	-10.9997
▁हिंद	-11
▁सेनाओं	-11
▁रूढ़	-11.0001
▁मेनन	-11.0002
▁सरलता	-11.0006
▁बलराम	-11.0007
हान	-11.0012
▁मस	-11.0017
▁31	-11.0018
▁स्राव	-11.0018
▁नीला	-11.0021
▁तेलुगु	-11.0023
▁व्यायाम	-11.0023
▁परिपथ	-11.0026
जिस्ट	-11.0026
▁सौदे	-11.0027
▁हटाना	-11.0031
▁पेड़ों	-11.0037
▁टाल	-11.0038
▁टेली	-11.004
▁नहर	-11.0041
जिन	-11.0043
▁29	-11.0045
▁उपनिवेश	-11.0046
▁सूखे	-11.0047
वधि	-11.0048
ive	-11.005
▁हल्के	-11.0052
कूट	-11.0058
रक्षित	-11.0059
ट्टी	-11.0062
▁क्षय	-11.0066
▁प्रतिस्थापित	-11.0066
मीन	-11.008
▁पुर्तगाल	-11.008
▁सरस्वती	-11.008
▁तार्किक	-11.008
▁चिंतित	-11.008
▁अणु	-11.0081
▁बुखार	-11.0081
▁इंसान	-11.0083
:	-11.0083
▁लड	-11.0086
ॉक	-11.009
मैं	-11.0094
▁पत्रकार	-11.0096
ers	-11.0099
di	-11.0101
▁हेल	-11.0102
▁फिल्मों	-11.0103
ph	-11.0104
चालित	-11.0104
▁एल्	-11.0105
भोग	-11.0105
▁परिसंपत्ति	-11.0107
▁पारिश्रमिक	-11.0109
▁समुच्चय	-11.0109
▁सिक्किम	-11.0109
▁उपाध्यक्ष	-11.0109
▁पूँजी	-11.0109
▁पूछताछ	-11.0109
▁विवेचन	-11.0109
▁लेखों	-11.0111
▁फर्क	-11.0121
▁बज	-11.0123
▁डाली	-11.0132
▁वाइ	-11.0132
वरी	-11.0134
▁सामंजस्य	-11.0138
▁स्थगित	-11.0138
▁प्रिंटर	-11.0139
▁झगड़	-11.014
▁विशेषताएं	-11.0152
▁निरस्त	-11.0153
▁तीव्रता	-11.0162
▁क्षेत्रफल	-11.0163
शियल	-11.0163
▁अंतर्निहित	-11.0166
▁साध	-11.0169
▁संभावनाएं	-11.0172
▁दिलाने	-11.0173
ub	-11.0177
स्थित	-11.0178
▁सरकारें	-11.018
▁रथ	-11.0181
क्षम	-11.0185
▁सितार	-11.0188
▁शांतिपूर्ण	-11.0189
▁विरल	-11.0191
▁प्रीमियम	-11.0195
▁सउदी	-11.0195
▁समाविष्ट	-11.0196
▁हस्तांतरण	-11.0196
▁अवशेष	-11.0199
व्या	-11.0201
▁अनुपस्थिति	-11.0202
▁जीने	-11.0202
▁भटक	-11.0203
▁दायी	-11.0204
um	-11.0204
▁वर्गीकृत	-11.0204
▁आंखें	-11.0205
▁तिल	-11.021
▁दर्शाया	-11.021
▁भौ	-11.0215
▁बं	-11.0219
▁नीच	-11.0224
▁ताजमहल	-11.0224
▁धमकी	-11.0224
▁अत्याचार	-11.0225
▁दिनांकित	-11.0226
▁नवाचार	-11.0226
हीं	-11.023
दायी	-11.0231
▁धनी	-11.0233
लाप	-11.0233
र्बुद	-11.0234
▁मरीज	-11.0234
▁संरक्षक	-11.0235
▁बैठकों	-11.0236
▁भ्रमण	-11.0237
▁उभार	-11.024
▁बंधक	-11.0242
▁मेघ	-11.0245
▁बाइ	-11.0252
▁हॉल	-11.0253
▁राधाकृष्णन	-11.0253
▁शृंखला	-11.0253
▁दोपहर	-11.0253
▁सारांश	-11.0255
▁ग्रीन	-11.0258
▁माला	-11.0264
▁डालना	-11.0268
ta	-11.0268
▁उत्त	-11.0269
▁पड़ते	-11.027
▁जवान	-11.027
मेर	-11.0272
ोसिस	-11.0275
▁चुपचाप	-11.0283
▁लैंगिक	-11.0283
▁करुणा	-11.0283
▁सघन	-11.0283
हड़	-11.0283
▁स्नातकोत्तर	-11.0283
▁फैले	-11.0287
▁सतत्	-11.0289
जार	-11.0297
▁com	-11.0297
▁नैतिकता	-11.0306
▁खादी	-11.0307
▁राधा	-11.031
▁सूखा	-11.0313
▁गुम	-11.0319
▁सीरिया	-11.0322
▁बुरे	-11.0325
▁पेपर	-11.0327
▁इन्द्रिय	-11.0327
एसएस	-11.033
साद	-11.0338
▁महानिदेशक	-11.0341
▁वकालत	-11.0341
▁विनोद	-11.0341
▁हज़ार	-11.0341
▁समन्वित	-11.0342
▁जनजातीय	-11.0343
▁नारियल	-11.0343
▁मणील	-11.0344
▁नियोजक	-11.0344
▁अंशदान	-11.0346
▁अष्ट	-11.0346
▁ग्रंथि	-11.035
▁बुद्धिमान	-11.035
▁अर्थशास्त्र	-11.0354
▁समूचे	-11.0355
▁खुर	-11.0359
▁जोड़ी	-11.0367
▁आबंटित	-11.0371
▁धैर्य	-11.0371
▁उन्मुक्त	-11.0371
▁नगरपालिका	-11.0372
▁यश	-11.0373
बैक	-11.0373
▁न्यायपीठ	-11.0374
▁शिविर	-11.0374
▁ताजा	-11.0389
▁कैप	-11.0392
▁असीम	-11.0393
▁चाहें	-11.0395
जान	-11.0397
▁इन्होंने	-11.04
▁देवनागरी	-11.04
▁हेक्टेयर	-11.04
▁प्लास्टिक	-11.04
▁लगाये	-11.0401
▁1999	-11.0401
▁सैकड़	-11.0402
▁फारसी	-11.0405
▁नवान्वेष	-11.0405
ॉय	-11.041
▁हथियारों	-11.0413
शुल्क	-11.0414
सूची	-11.0415
च्य	-11.0421
▁खोला	-11.0422
▁गंध	-11.0423
खाना	-11.0423
▁करूंगा	-11.0426
▁शर्म	-11.0429
▁ग्रंथों	-11.0429
▁बांस	-11.0429
▁ग्लोबल	-11.043
▁तयशुदा	-11.043
▁मुकाबला	-11.043
▁वाष्प	-11.043
▁चक्कर	-11.043
▁नतीजा	-11.043
ss	-11.0431
▁पारदर्शी	-11.0432
▁कृमि	-11.0437
▁मोटी	-11.0442
▁प्रसारित	-11.0442
▁60	-11.0444
▁अम्ब	-11.0447
▁मंदी	-11.045
ity	-11.045
▁अनुमत	-11.045
▁मलयालम	-11.0459
▁विश्राम	-11.0459
▁सिक्ख	-11.0459
▁खगोल	-11.0459
▁मुद्रक	-11.046
▁अंज	-11.0474
▁निश	-11.0477
▁तिलक	-11.0483
88	-11.0485
▁आखिरी	-11.0485
▁डै	-11.0487
▁हमसे	-11.0488
▁रोकथाम	-11.0489
▁चौदह	-11.0489
▁तिब्बत	-11.0489
▁सुलह	-11.0489
लौकिक	-11.0489
▁ख्याल	-11.0491
▁बाण	-11.0491
▁मशीनों	-11.0492
▁हरित	-11.0496
▁परंपराओं	-11.0496
▁पढ़ना	-11.0496
▁नामांकन	-11.0502
▁माफ	-11.0502
▁नाच	-11.0505
▁संसद्	-11.051
▁समितियां	-11.051
▁सेवानिवृत्त	-11.0516
कोश	-11.0516
▁क्षेञ	-11.0519
▁ध्येय	-11.0519
▁बाँध	-11.0519
▁दीजिए	-11.0519
▁असमानता	-11.0519
▁सहयोगियों	-11.052
▁विराम	-11.052
▁सापेक्ष	-11.0522
▁श्वास	-11.0524
▁असंख्य	-11.0526
▁निवासियों	-11.053
ास्थि	-11.0536
od	-11.054
▁सुखद	-11.0544
एमएस	-11.0544
▁मानकर	-11.0545
ोनिया	-11.0546
▁एल्गोरिथ्म	-11.0549
▁ब्रितानी	-11.0549
▁श्रेणियों	-11.0549
▁रजिस्ट्रीकृत	-11.0549
▁पागल	-11.0552
ौं	-11.0553
▁समझती	-11.0555
86	-11.0562
▁बढ़ी	-11.0562
फिल	-11.0566
म्स	-11.057
▁पिट	-11.0572
▁जुट	-11.0574
38	-11.0574
▁चलाना	-11.0575
▁सौन्दर्य	-11.0579
▁2012	-11.058
▁अमृत	-11.0581
▁जापानी	-11.0582
tion	-11.0589
ment	-11.0591
अली	-11.0596
▁आधुनिकीकरण	-11.06
ग्ध	-11.0601
▁नामित	-11.0608
▁टेलीविजन	-11.0609
▁प्रत्युत्तर	-11.0609
▁उल्लास	-11.0609
▁क्रिस	-11.0612
▁प्रशस्त	-11.0613
▁बारीक	-11.0615
▁मोल	-11.0623
▁लेनी	-11.0626
▁उत्तराधिकारी	-11.0627
▁राजदूत	-11.0639
▁खुराक	-11.064
गीत	-11.0644
▁कौम	-11.065
▁शेयरधारक	-11.065
▁इंच	-11.0655
▁बंधु	-11.0656
▁चाहा	-11.0658
भ्य	-11.0659
▁सदियों	-11.0662
रुण	-11.0667
▁सहारे	-11.067
गति	-11.0673
▁निर्यातक	-11.0676
▁फ़िर	-11.0677
▁शै	-11.0679
▁दिखता	-11.068
पृष्ठ	-11.0687
कथा	-11.069
▁वाहक	-11.069
▁साफ़	-11.0695
▁II	-11.0697
वर्षीय	-11.0698
▁शब्दावली	-11.0705
▁युग्म	-11.071
▁बनते	-11.0714
▁खाल	-11.0715
हानि	-11.0723
र्पण	-11.0723
▁पोर्टल	-11.0726
▁व्यव	-11.0727
▁sa	-11.0731
▁प्रेरक	-11.0732
इर	-11.0738
▁आकांक्षा	-11.0742
▁टुकड़	-11.0759
▁विधिज्ञ	-11.0759
▁दुश्मन	-11.0761
▁गिल	-11.0763
▁वर्षीय	-11.0772
▁रूक	-11.0773
परीक्षा	-11.0784
▁निबंधन	-11.0789
▁लिखें	-11.079
▁दलील	-11.0793
ॉं	-11.0804
▁नौका	-11.0805
▁ब्राउज़र	-11.0806
▁लार	-11.0812
▁लीला	-11.0812
▁शह	-11.082
▁प्रिंट	-11.0821
▁Google	-11.0822
▁प्रदूषक	-11.0822
▁वाशिंगटन	-11.0822
▁हल्का	-11.0822
▁मुख्यमंत्री	-11.0826
▁निगमित	-11.0834
▁निर्भरता	-11.0834
▁चह	-11.0841
ध्यक्ष	-11.0848
▁जह	-11.0848
▁सिंधी	-11.085
ोदय	-11.0851
▁घटकों	-11.0852
▁नलिका	-11.0852
▁पुरी	-11.0852
▁नौसेना	-11.0853
▁तैनात	-11.0854
▁स्थावर	-11.086
▁समाजवाद	-11.086
▁सम्बन्धों	-11.0861
78	-11.0863
▁साय	-11.0865
▁निबंध	-11.0871
▁भौतिकी	-11.0874
▁बहि	-11.0874
▁पर्वतीय	-11.0876
▁हुईं	-11.0881
▁चोर	-11.0882
▁कारीगर	-11.0885
▁टैक्स	-11.0886
▁खिसक	-11.0887
▁राजवंश	-11.0888
नामा	-11.0889
▁क़्या	-11.089
▁नोड्स	-11.0892
▁फंड	-11.0892
▁जायगा	-11.0895
जन्य	-11.0905
िष्ठ	-11.0906
▁न्यूयार्क	-11.0915
▁मृदा	-11.0915
▁उपासना	-11.0915
▁कित्तूर	-11.0915
▁सुलभ	-11.0915
▁भूतपूर्व	-11.0916
▁प्ररूप	-11.0916
▁फलक	-11.0917
▁बसे	-11.0919
▁वारंट	-11.0919
▁अभिलिखित	-11.092
▁परमिट	-11.092
▁कहें	-11.0922
ob	-11.0925
▁शासकीय	-11.093
▁क्रमिक	-11.093
▁गणेश	-11.0938
▁जुर्माना	-11.0946
▁परिप्रेक्ष्य	-11.0946
▁मुम्बई	-11.0946
ST	-11.0947
▁किनारों	-11.0947
▁अफसर	-11.0948
▁धूम	-11.0949
▁कपास	-11.0951
▁मुस	-11.0959
▁मौन	-11.0959
▁कड़ा	-11.097
▁नागर	-11.0972
▁रिएक्टर	-11.0978
▁दाहिन	-11.0979
▁शक़्ति	-11.098
▁बिखर	-11.0981
रात	-11.099
▁पिछ	-11.099
▁बहुधा	-11.0993
▁फैसले	-11.0994
योजक	-11.1007
▁हुसैन	-11.1009
▁फीसदी	-11.1015
टिन	-11.1015
▁नाप	-11.1016
79	-11.1017
▁आस्तियां	-11.1018
▁थै	-11.1023
▁सव	-11.1024
िटर	-11.1025
▁अपनाना	-11.1025
5,000	-11.1033
▁जीतने	-11.1037
▁अस्वीकृत	-11.104
▁बेरोजगार	-11.104
▁गर्दन	-11.1041
▁भैंस	-11.1041
▁स्म	-11.1049
▁रावण	-11.1051
▁नाराज	-11.1061
स्तरीय	-11.1062
ig	-11.1066
▁जौ	-11.1068
▁चिकन	-11.1069
▁बेटा	-11.1072
▁उत्थान	-11.1072
▁दहेज	-11.1072
▁वर्ल्ड	-11.1074
िओ	-11.1082
्ध	-11.1082
▁राग	-11.1083
▁साज	-11.1084
िज्म	-11.1084
▁फ्री	-11.1085
▁देखेंगे	-11.1086
चीन	-11.1088
च्छेद	-11.1102
▁प्रामाणिक	-11.1104
▁स्ट्रिंग	-11.1104
ोन्मुख	-11.1104
गिन	-11.1105
सूर	-11.1106
ंदर	-11.1107
भंग	-11.1109
▁पक्षपात	-11.111
▁शैव	-11.1111
▁साझीदार	-11.1118
▁पच	-11.1127
▁फैली	-11.1133
▁व्यापारियों	-11.1133
▁इंतजार	-11.1135
▁एक्सटेंशन	-11.1135
▁कसौटी	-11.1135
▁जॉर्ज	-11.1135
▁सोशल	-11.1136
▁अभ्यर्थ	-11.1136
▁जता	-11.1136
▁सम्मुख	-11.1138
घट	-11.1143
▁प्रेषण	-11.1147
76	-11.1152
▁मूर्त	-11.1154
▁बनाएं	-11.1159
▁दंडित	-11.1161
जाल	-11.1162
सूत्र	-11.1162
▁चेन्नई	-11.1167
▁विशुद्ध	-11.1167
बुक	-11.1168
▁सुपुर्दगी	-11.1168
▁रवैय	-11.1168
▁बंदी	-11.1169
त्तम	-11.117
▁भली	-11.1177
▁सद्भावना	-11.1179
▁fe	-11.1182
फोर्ड	-11.1183
▁आतंकवादियों	-11.1187
▁दर्शकों	-11.119
▁परंतुक	-11.1193
▁पौधा	-11.1196
▁उत्तेजित	-11.1199
▁यथासंभव	-11.1199
▁आश्रित	-11.1199
क्चर	-11.12
▁सम्प	-11.12
▁विमानक्षेत्र	-11.1201
प्राप्त	-11.1202
▁केलिए	-11.1203
▁तटीय	-11.1207
▁लम्बा	-11.1209
धिक	-11.121
डेल	-11.1211
▁टैग	-11.1213
▁हममें	-11.1231
▁अस्पृश्य	-11.1231
▁रसोई	-11.1231
▁कोयले	-11.1234
ऊंगा	-11.1234
▁मेले	-11.1239
▁मक्का	-11.1239
▁खां	-11.124
77	-11.1241
▁मदर	-11.1245
▁द्वीपों	-11.1246
▁सहेजें	-11.1246
▁खेलने	-11.1249
▁वैसी	-11.1252
▁गाने	-11.1255
स्थि	-11.1256
▁पटना	-11.1261
▁वियतनाम	-11.1263
▁देखरेख	-11.1263
▁बिगड़	-11.1264
▁ग्रिड	-11.1267
▁लल	-11.1278
pe	-11.1284
त्ती	-11.1293
▁कन्वेंशन	-11.1296
▁छत्तीसगढ़	-11.1296
▁महाविद्यालय	-11.1296
▁सांविधिक	-11.1296
▁आश्वस्त	-11.1296
▁मकबर	-11.1296
▁गर्भवती	-11.1296
▁नित्य	-11.1299
ियस	-11.1302
गर्भ	-11.1303
▁निकलता	-11.1305
▁अनुप्रयोगों	-11.1306
ान्तरण	-11.1311
पुत्र	-11.1314
▁सुझा	-11.1325
▁आन्तरिक	-11.1328
▁स्वेच्छा	-11.1328
▁डिक्री	-11.1328
▁मादक	-11.1328
िकाओं	-11.1334
▁ढील	-11.1338
▁बागान	-11.1346
्योर	-11.1347
▁ब्लॉक	-11.1355
वायर	-11.1356
ंए	-11.1359
▁नागरिकता	-11.1359
▁अपरिहार्य	-11.136
▁मनोवैज्ञानिक	-11.136
▁बागवानी	-11.1361
▁परिमाण	-11.1361
▁साधारणतया	-11.1365
▁गोला	-11.1368
▁परिपत्र	-11.137
▁पीढ़िय	-11.1376
्यान	-11.1376
▁दुष्	-11.1377
▁पाट	-11.1378
ब्ल	-11.1385
▁वाय	-11.1386
▁खुलने	-11.1388
इश	-11.139
▁साझेदारी	-11.1391
▁ईरानी	-11.1393
▁पुनर्विलोकन	-11.1393
▁माउस	-11.1394
▁लाभकारी	-11.1395
▁घबरा	-11.1396
▁समरूप	-11.1403
ष्य	-11.1405
स्का	-11.1411
▁सजीव	-11.1414
▁बाघ	-11.1417
▁बगल	-11.142
ग्राही	-11.1421
▁विनम्र	-11.1426
▁सिंगापुर	-11.1426
▁दुबारा	-11.1426
▁आईसीटी	-11.1426
▁हाजिर	-11.1426
▁मेजबान	-11.1426
▁मैसूर	-11.1427
▁पॉलिसी	-11.1428
▁डीएनए	-11.1428
▁फ्रेम	-11.1429
▁परिपक्व	-11.1434
▁पैक	-11.1446
शंकर	-11.1452
▁खूबसूरत	-11.1459
▁खतरों	-11.1459
▁जानबूझकर	-11.1461
▁परिस्थितियां	-11.1462
▁तिरू	-11.1463
▁विश्वव्यापी	-11.1464
▁शान्त	-11.1464
्यूल	-11.1466
▁आगम	-11.1467
▁मंडली	-11.147
▁पित्त	-11.1471
रुद्ध	-11.1471
▁सुंदरता	-11.1473
▁ऐल	-11.1486
▁सेवाएँ	-11.1486
▁अस्त्र	-11.1491
▁एनआईओएस	-11.1491
▁अहमदाबाद	-11.1492
▁महीन	-11.1495
ag	-11.1498
▁प्रतिपूर्ति	-11.1498
▁देरी	-11.15
▁संयम	-11.1507
जातीय	-11.1507
ie	-11.151
▁अनाम	-11.1513
▁रुख	-11.1515
गुच्छ	-11.1522
▁कर्त्तव्य	-11.1524
▁भविष्यवाणी	-11.1524
▁मांसपेशिय	-11.1524
▁यूनाइटेड	-11.1524
▁संप्रतीक	-11.1524
▁सुप्रीम	-11.1524
▁यमुना	-11.1525
▁मंत्रिमंडल	-11.1525
▁सपने	-11.1525
▁शिश्न	-11.1525
▁प्रेमचन्द	-11.1526
▁42	-11.1526
▁रोकना	-11.1538
▁सत्	-11.1541
▁ज़रूरी	-11.1541
▁कन्या	-11.1544
▁मरने	-11.1544
कॉम	-11.1547
▁म्यू	-11.1553
दृष्ट	-11.1555
▁सचेत	-11.1556
▁आक्रामक	-11.1558
▁उत्तेजना	-11.1558
▁उजागर	-11.1558
▁शाश्वत	-11.1558
▁निदेशालय	-11.1559
▁जिन्ना	-11.156
▁बांड	-11.1565
ण्ण	-11.1565
▁अनजान	-11.1568
विहीन	-11.1568
▁मन्त्र	-11.1571
▁33	-11.1572
ंतर	-11.1573
▁डालते	-11.1575
कारियों	-11.1578
िशन	-11.158
गिरि	-11.159
▁गड़बड़	-11.1591
▁पौराणिक	-11.1591
▁काल्पनिक	-11.1591
▁सज्जन	-11.1591
ुए	-11.1591
▁व्रत	-11.1591
▁निवेशक	-11.1592
▁प्रमाणन	-11.1593
कर्ण	-11.1595
▁बंदर	-11.1597
ve	-11.1598
art	-11.1599
खोर	-11.16
▁हफ्ते	-11.1603
कोड	-11.1608
▁एंटी	-11.1608
▁चार्ज	-11.1612
▁लौह	-11.1613
▁इलाके	-11.1616
▁ऑपरेशन	-11.1624
वेन	-11.1625
▁प्रायोजित	-11.1626
वर्स	-11.1627
▁वरन	-11.1631
▁बताई	-11.1631
▁पीछा	-11.1634
▁शंका	-11.1634
सीआई	-11.1634
▁मानवाधिकार	-11.1638
▁हरेक	-11.1639
▁मध्यवर्ती	-11.1642
▁प्रोग्रामिंग	-11.1643
विद्या	-11.1644
▁गायब	-11.1646
▁निवल	-11.1647
▁घिर	-11.1649
▁इन्द्र	-11.165
▁इनको	-11.1654
▁प्रतिवाद	-11.1655
▁अप्रत्याशित	-11.1658
▁निरर्थक	-11.1658
▁फाउंडेशन	-11.1658
▁वास्तुकला	-11.1658
्जा	-11.1659
▁विलम्ब	-11.1662
▁बंगला	-11.1664
ग्रा	-11.1664
▁तीख	-11.1665
▁बढाने	-11.1667
▁घेरे	-11.167
ाइज़	-11.1677
पालिका	-11.1678
▁पलट	-11.168
▁पकड़ने	-11.1682
ाधिकारी	-11.1685
▁सीमेंट	-11.1686
मेन्ट	-11.1687
▁अरे	-11.1691
▁मापदंड	-11.1691
▁व्यतीत	-11.1691
▁घटनाएं	-11.1696
▁कार्यकर्ताओं	-11.1696
▁आंत्र	-11.17
▁खाद्यान्न	-11.1725
▁घंटा	-11.1725
▁श्याम	-11.1726
▁कानपुर	-11.1729
▁प्रतिमान	-11.173
▁जयपुर	-11.1731
गंज	-11.1732
▁बाप	-11.1737
ow	-11.1741
समूह	-11.1743
▁दिखाना	-11.1744
AP	-11.1746
ng	-11.1748
▁वैधानिक	-11.1759
▁प्रचलन	-11.1759
▁इटली	-11.1759
▁इंद्र	-11.1759
▁अनुरक्षण	-11.1762
▁समाचारपत्र	-11.1762
▁घुल	-11.1763
हाल	-11.1767
▁आवेग	-11.177
▁स्वर्गीय	-11.1771
▁कटाई	-11.1772
▁क्लास	-11.1772
मुझे	-11.1775
संस्कृत	-11.1775
आकांक्षाओं	-11.178
▁ड्रा	-11.1785
याधीश	-11.1792
▁मन्दिर	-11.1792
▁फोल्डर	-11.1792
▁व्यतिक्रम	-11.1792
▁अधिकथित	-11.1793
▁भाइयों	-11.1794
▁कटि	-11.1795
ec	-11.1802
▁डालता	-11.1805
▁पैन	-11.1807
▁आलोक	-11.1816
घाट	-11.1816
बरी	-11.182
▁कार्यशाला	-11.1825
▁अरुणाचल	-11.1826
▁प्रोफाइल	-11.1826
▁माणिक	-11.1826
▁ख्याति	-11.1827
▁ज़मीन	-11.1828
▁दर्शित	-11.1828
▁दिशानिर्देश	-11.1829
▁चतुर	-11.1832
▁सोलह	-11.1832
ist	-11.1835
▁मश	-11.1835
▁पासपोर्ट	-11.1836
ञ्ज	-11.1845
▁पक्का	-11.1849
▁करनेवाले	-11.1856
▁उलझ	-11.1859
▁अनुयायियों	-11.1861
▁आत्मनिर्भर	-11.1861
▁आत्मविश्वास	-11.1861
▁क्रमादेश	-11.1861
▁त्रिपुरा	-11.1861
▁धोखा	-11.1863
▁टोक	-11.1863
▁जिक्र	-11.1865
▁लक्षित	-11.1866
▁खुदरा	-11.1867
▁संस्थित	-11.1868
▁ज़रुरत	-11.1873
▁जोरदार	-11.1875
्यूशन	-11.1875
▁बैठकर	-11.1877
ऊँ	-11.1883
▁क्रियाशील	-11.1888
▁क्योकि	-11.1895
▁कलात्मक	-11.1898
▁टैंक	-11.1898
▁श्रीकृष्ण	-11.1898
▁प्रत्ये	-11.1902
▁45	-11.1903
▁उड़ा	-11.1905
यह	-11.1909
▁हौ	-11.1913
af	-11.1916
▁खुशहाली	-11.1929
▁संपरिवर्तन	-11.1929
▁हालाँकि	-11.1929
▁भृंग	-11.1929
▁छेड़	-11.1933
▁चांद	-11.1938
▁विफलता	-11.1941
▁तीर	-11.1944
▁मठ	-11.1945
▁दिशाओं	-11.1946
▁भला	-11.1955
▁तरफ़	-11.1956
▁जंगलों	-11.196
▁अभयारण्य	-11.1964
▁शताब्दियों	-11.1964
▁व्यंग्य	-11.1964
▁पत्तियों	-11.1964
▁पंचांग	-11.1966
▁निश्	-11.197
▁देयता	-11.1973
स्की	-11.1974
व्यक्ति	-11.1974
ग्ग	-11.1977
▁34	-11.1979
धारण	-11.198
▁छुटकारा	-11.1998
▁यौगिक	-11.1998
▁धरोहर	-11.1998
▁नाजुक	-11.1998
▁चिन्तन	-11.1998
▁कालावधि	-11.1999
▁समायोजित	-11.1999
▁चौथे	-11.2
▁सिटी	-11.2003
▁प्रोटो	-11.2003
▁पंज	-11.2004
▁अंकुर	-11.2005
आईएस	-11.2006
▁संदर्भित	-11.2008
hi	-11.2017
▁जिनको	-11.2021
▁क्रूरता	-11.2021
▁प्रतिबंधित	-11.2024
▁परवाह	-11.2027
▁रूसी	-11.2031
▁जुर्माने	-11.2033
▁साफ्टवेयर	-11.2033
▁कब्जे	-11.2034
▁अंचल	-11.2034
▁कलाकारों	-11.2042
▁जागरूक	-11.2043
▁गोपनीय	-11.2045
▁निम्नतर	-11.2045
▁रूख	-11.2048
ak	-11.2052
▁कपट	-11.2054
▁फॉ	-11.2058
▁श्रद्धांजलि	-11.2068
▁लगाते	-11.2072
चरण	-11.208
शूल	-11.209
ार्म	-11.2095
▁बांग्ला	-11.2102
▁नम्बर	-11.2105
कोशिका	-11.2108
▁फ़ोन	-11.2112
▁वृक्षों	-11.2113
उस	-11.2115
नाशी	-11.2135
▁प्रकटन	-11.2137
▁राजपूत	-11.2138
▁तुलसी	-11.2138
▁अधिनिर्णय	-11.2139
▁दर्जे	-11.2142
▁दरें	-11.2143
ढे	-11.2146
▁बिहारी	-11.2147
▁इस्लामिक	-11.2148
▁लाये	-11.2152
▁निर्देशक	-11.2153
▁पंचायतों	-11.2154
▁अवध	-11.2157
खार	-11.2159
▁हथ	-11.2166
पुरम	-11.2166
श्न	-11.2172
▁खाई	-11.2173
▁इकाइयां	-11.2173
▁अहसास	-11.2173
▁डेविड	-11.2173
▁व्यवहार्य	-11.2174
▁मुर्गी	-11.2175
▁लाभप्रद	-11.2181
▁बनावट	-11.2182
▁महानगर	-11.2188
▁चतुर्थ	-11.2195
▁चट	-11.2199
▁दुखद	-11.2202
▁बढ़ना	-11.2203
ai	-11.2208
▁ऋस	-11.2208
▁अरविंद	-11.2208
▁बैटरी	-11.2209
▁पल्लव	-11.2209
▁प्रेमचंद	-11.221
▁बढ़िया	-11.2213
▁चिड़िया	-11.2213
▁चौथाई	-11.2213
oc	-11.2217
▁ट्रि	-11.2221
▁क्रेता	-11.2221
▁रोटी	-11.2227
▁साहा	-11.2231
▁परिपक्वता	-11.2235
बुद्धि	-11.2238
आईए	-11.2239
▁एप्लिकेशन	-11.2244
▁स्मार्ट	-11.2244
▁प्रॉक्सी	-11.2244
▁चालीस	-11.2246
▁अल्लाह	-11.2251
▁हार्ड	-11.2255
भूषण	-11.2259
▁मामल	-11.2261
▁आएगा	-11.2273
▁तूफान	-11.228
▁बस्ती	-11.2283
और	-11.2284
▁चुनने	-11.2284
▁पर्दा	-11.2285
▁साई	-11.2285
▁भावनात्मक	-11.2286
▁गाथा	-11.2286
▁शीघ्रता	-11.2287
▁सशक्तीकरण	-11.2288
▁सादा	-11.2292
▁प्रतिरूप	-11.2304
ऐं	-11.2306
▁वक्ष	-11.2312
ea	-11.2312
▁डिज़ाइन	-11.2315
▁पैटर्न	-11.2315
▁मेडिकल	-11.2315
▁प्रादेशिक	-11.2315
▁बूढ़े	-11.2315
▁लीजिए	-11.2315
▁डाइ	-11.2317
▁महाराज	-11.2322
बिन	-11.2325
▁आदिवासी	-11.2327
च्युत	-11.2332
्था	-11.2335
वोल्ट	-11.234
▁शुक्र	-11.2342
ल्हा	-11.2347
▁धूम्रपान	-11.2351
▁वर्षगांठ	-11.2351
▁उच्छेदन	-11.2351
▁भण्डार	-11.2351
▁पत्ते	-11.2351
▁कराधान	-11.2353
▁अपहरण	-11.2354
▁क्री	-11.2354
▁झुकाव	-11.2355
▁तलवार	-11.2357
▁पहुँचने	-11.2363
मीर	-11.2367
▁विदा	-11.2371
विदों	-11.2372
▁कथाओं	-11.2376
पालन	-11.2376
CT	-11.2381
▁पीले	-11.2383
शेखर	-11.2383
▁राजनयिक	-11.2387
▁नामंजूर	-11.2387
▁चेष्टा	-11.2387
▁रोबोट	-11.2387
बोर्ड	-11.2387
▁जरिये	-11.2387
▁लोहे	-11.239
सीआर	-11.2396
▁करवाया	-11.24
▁कुष्ठ	-11.2403
ोचित	-11.2404
निधि	-11.2405
▁चार्ट	-11.2405
▁दादी	-11.2405
क्रमण	-11.2406
▁सीखना	-11.2408
सन्धि	-11.2413
▁उक	-11.2414
मंत्र	-11.2417
▁डालें	-11.2419
▁मारा	-11.2422
▁कट्टरपंथी	-11.2423
▁संक्रामक	-11.2423
▁सहिष्णुता	-11.2423
▁अनुयायी	-11.2423
▁पसन्द	-11.2423
▁खिंच	-11.2423
▁दाँत	-11.2424
▁वैद्य	-11.2426
▁ढूंढ़	-11.2428
िश्च	-11.2428
▁ऊँचाई	-11.2429
▁बढावा	-11.243
▁पाएंगे	-11.243
▁राष्ट्रवाद	-11.2433
षऋ	-11.2434
▁परिशि	-11.2434
ग्रन्थि	-11.2436
ion	-11.2437
▁सुलझा	-11.2446
कूल	-11.2447
▁अप्रति	-11.2448
▁नासा	-11.2452
▁अत्यावश्यक	-11.2459
▁तिमाही	-11.2459
▁भयभीत	-11.2459
▁मेगावाट	-11.2459
▁फुल	-11.246
▁सिद्धदोष	-11.246
▁पैदल	-11.2461
▁दूत	-11.2463
▁अवलंब	-11.2463
▁चाचा	-11.2464
▁ज़ोर	-11.2465
▁कार्यकर्ता	-11.2468
भाषा	-11.2468
गुप्त	-11.247
▁पडता	-11.247
▁ऑफिस	-11.2471
▁बताये	-11.2472
र्फ	-11.2473
▁हमास	-11.2473
▁वेदों	-11.2474
क्के	-11.2478
दन्त	-11.2482
▁सब्जियों	-11.2496
▁समकक्ष	-11.2496
▁गिनती	-11.2496
▁ड्रग्स	-11.2498
▁जोड़ना	-11.2498
फाइ	-11.2499
▁फायर	-11.25
▁वास्तु	-11.2504
▁पतली	-11.2506
▁साधु	-11.251
▁ठंडा	-11.2523
इए	-11.2525
▁अनधिक	-11.2532
▁प्रतिबिम्ब	-11.2532
▁लेनदेन	-11.2532
▁कार्यपालक	-11.2532
▁एकाग्र	-11.2533
▁कराते	-11.2536
▁पराग	-11.2536
▁मेला	-11.2538
▁सेकंड	-11.254
केन्द्र	-11.2542
▁कविताएं	-11.2547
▁आँखें	-11.2549
▁पहने	-11.255
▁गायक	-11.2552
▁अखबारों	-11.2553
▁मिट	-11.2554
▁रूट	-11.2555
sp	-11.2557
सूचना	-11.2566
▁प्रोत्सा	-11.2568
▁PRO	-11.2569
▁परिष्कृत	-11.2569
▁बेचैन	-11.257
▁विलक्षण	-11.2571
▁वर्गमूल	-11.2574
▁दब	-11.2579
▁प्रभारित	-11.2584
▁पेरिस	-11.2586
▁फ़ाइलें	-11.2588
टोर	-11.2595
▁नाभिक	-11.2602
▁एंट	-11.2603
▁त्योहार	-11.2606
▁तामील	-11.2606
▁193	-11.2607
द्योग	-11.2608
▁नवीकरण	-11.2613
िस्म	-11.2615
▁अधो	-11.2615
▁तद	-11.262
▁कटु	-11.2629
▁पहुँचे	-11.263
▁घिरा	-11.2632
▁ग्रीष्म	-11.2643
स्क्रिप्ट	-11.2643
▁खरगोश	-11.2643
▁तथाकथित	-11.2643
▁पाश्चात्य	-11.2643
▁विकिपीडिया	-11.2643
▁संक्रमित	-11.2643
▁निर्वचन	-11.2644
▁नीलामी	-11.2645
▁न्यायोचित	-11.2645
▁सेवानिवृत्ति	-11.2646
▁अवज्ञा	-11.2646
▁वचनबद्ध	-11.2646
ायण	-11.2646
▁तत्पश्चात्	-11.2649
ant	-11.2653
▁पौध	-11.2659
▁रंगीन	-11.2661
▁फीड	-11.2669
▁पाय	-11.2676
▁कहानियां	-11.2683
▁भूमिगत	-11.2683
गांव	-11.2686
▁प्रबन्धन	-11.2693
▁बनारस	-11.2693
▁उच	-11.2696
▁निष्पा	-11.2697
▁प्रवृति	-11.2699
▁किताबें	-11.2699
वेग	-11.27
▁मुखिया	-11.2701
प्रभाव	-11.2706
्जे	-11.2712
संघ	-11.2713
▁टाइम	-11.2716
▁अकादमिक	-11.2717
▁तत्	-11.2717
्फ़	-11.2718
▁सडक	-11.2719
▁वायदा	-11.2719
▁नोकिया	-11.272
▁हज	-11.272
▁पेंट	-11.2722
्रेशन	-11.2725
▁वर्गाकार	-11.2726
▁स्वराज	-11.2731
▁पहाड़ियों	-11.2737
ाक्षर	-11.274
पादित	-11.2748
रोज	-11.2749
▁बदलती	-11.275
▁सब्सिडी	-11.2754
▁कच्चा	-11.2754
▁संतोषजनक	-11.2755
▁दुहरा	-11.2757
▁फर्श	-11.2758
▁मेरु	-11.2763
▁नियति	-11.2764
▁चतुर्	-11.2765
▁सुलझाने	-11.2768
▁ब्रो	-11.2771
▁साधक	-11.2772
कुर	-11.278
क्ष्य	-11.2782
▁जार्ज	-11.2786
▁Chrome	-11.2792
▁इजाजत	-11.2792
▁उपराष्ट्रपति	-11.2792
▁एवोल्यूशन	-11.2792
▁मैथुन	-11.2792
▁यूनानी	-11.2792
▁स्थगन	-11.2792
▁पराजित	-11.2792
▁स्कैन	-11.2794
▁छात्रवृत्ति	-11.2798
;	-11.2799
▁बारिश	-11.2801
▁सपना	-11.2805
▁बनवाय	-11.2808
▁पैदावार	-11.2811
ैंट	-11.2824
▁योद्धा	-11.2829
▁ह्रास	-11.2829
▁अमान्य	-11.2829
▁कूटनीति	-11.2829
▁चार्टर	-11.283
▁मानसून	-11.283
▁अपराधियों	-11.2836
पुष्प	-11.2837
▁10,000	-11.2839
पतियों	-11.2841
▁उदास	-11.2849
▁फीट	-11.2851
▁तुम्हे	-11.2857
▁ग्रेट	-11.2862
▁कैबिनेट	-11.2867
▁निस्संदेह	-11.2867
▁कार्टून	-11.2867
▁ग्रीवा	-11.2867
▁तालमेल	-11.2868
▁अभिकर्ता	-11.2874
▁कॉपी	-11.2876
▁हालात	-11.2877
▁सृजनात्मक	-11.2879
योंकि	-11.2879
▁शीश	-11.288
▁कोशिकाएं	-11.2887
मोन	-11.2893
▁संकेतक	-11.2898
▁कौर	-11.2901
▁चौथा	-11.2903
▁हिम्मत	-11.2905
▁पसंदीदा	-11.2905
▁महासभा	-11.2906
▁पुण्य	-11.2906
▁ट्रैकिंग	-11.2913
▁ग्रेड	-11.2916
▁अनुरुप	-11.2917
▁इन्कार	-11.2918
▁जातियां	-11.292
इफ	-11.2921
▁अधिमान	-11.2929
ID	-11.2929
▁आसन	-11.2931
▁गुहा	-11.2931
वस्तु	-11.2933
▁मंत्रिपरिषद	-11.2943
▁बाँट	-11.2943
▁उद्गम	-11.2947
ya	-11.295
▁टकराव	-11.2951
▁अक्षमता	-11.2957
निर्धारण	-11.2958
▁उन्मुख	-11.2959
▁मानदंडों	-11.2967
▁उपगत	-11.2968
सभा	-11.297
▁पात्रता	-11.297
▁वेस्ट	-11.2975
IN	-11.2977
▁बैठने	-11.2979
▁प्रक्षेपण	-11.2981
▁यहूदियों	-11.2981
▁द्रुत	-11.2981
▁क्षीण	-11.2981
डेंट	-11.2983
एपी	-11.2984
▁विराट्	-11.2986
▁अत्य	-11.2989
▁गली	-11.3
▁चीज़ें	-11.3013
▁अपनाए	-11.3014
मण्डल	-11.3019
▁निमंत्रण	-11.3019
▁विरचित	-11.3019
▁अशुद्ध	-11.3019
▁ज्वार	-11.302
▁श्रव्य	-11.3022
▁संभवतया	-11.3026
▁सोल	-11.3029
क्तियों	-11.303
▁कतार	-11.303
▁192	-11.303
▁दाब	-11.3035
चय	-11.304
▁प्रताप	-11.3043
युद्ध	-11.3045
▁बालिका	-11.3051
ाइयों	-11.3052
▁कम्युनिस्ट	-11.3058
▁त्यौहार	-11.3058
▁श्रृंग	-11.3058
▁भूगोल	-11.3058
▁ग़लत	-11.3059
▁बतला	-11.3059
▁जमाराशि	-11.3059
ाइटिस	-11.3063
वुड	-11.3066
▁तुलनात्मक	-11.3066
ख्त	-11.3073
मति	-11.3077
ear	-11.3077
▁कलाम	-11.3078
▁लीटर	-11.3079
शंस	-11.309
▁टॉम	-11.3091
कार्ड	-11.3093
ci	-11.3095
▁खिड़की	-11.3096
▁तीक्ष्ण	-11.3096
▁भाँति	-11.3096
▁सतर्क	-11.3096
▁ड्राफ्ट	-11.3097
▁क्रियान्वित	-11.3097
▁भ्रष्ट	-11.3098
▁ठरोग	-11.3099
▁जानकार	-11.3099
बन्धु	-11.3101
▁भो	-11.3103
▁चंद्रमा	-11.3106
▁राज्यसभा	-11.3106
▁दोहराया	-11.3108
▁कुचल	-11.3109
लेटर	-11.311
▁पंक्तियों	-11.3111
नारायण	-11.3113
▁कतर	-11.3117
▁राइ	-11.3119
ातीत	-11.3129
▁स्न	-11.3135
▁अफ्रीकी	-11.3135
▁प्रोजेक्ट	-11.3135
▁पेशकश	-11.3135
▁माधव	-11.3135
▁जागृत	-11.3136
▁लुप्त	-11.3137
▁यूरोपियन	-11.314
▁रामलिंग	-11.3143
▁भलाई	-11.3145
सागर	-11.3147
▁समाधि	-11.3148
▁36	-11.3152
▁छाती	-11.3158
▁मरण	-11.316
▁हें	-11.3166
मुद्र	-11.3171
▁अमूर्त	-11.3172
▁आभास	-11.3172
▁अठारह	-11.3174
▁पूर्वानुमान	-11.3174
▁जनगणना	-11.3174
▁निःशक्त	-11.3174
▁असंतोष	-11.3174
▁नवजात	-11.3176
▁माडल	-11.3177
प्राप्ति	-11.3181
▁कैर	-11.3188
▁जेब	-11.3199
▁बढे	-11.3201
▁निकलना	-11.3203
आईआर	-11.3209
▁सुनते	-11.3211
▁इंटरनेशनल	-11.3213
▁हिंसक	-11.3213
▁हनुमान	-11.3213
एमपी	-11.3214
▁शब्दकोश	-11.3216
▁विश्वयुद्ध	-11.3217
▁ताक	-11.3218
▁संरचनात्मक	-11.322
▁सुविधाजनक	-11.3221
RE	-11.3228
▁साहसिक	-11.323
▁पट्टा	-11.3234
मंत्री	-11.3239
▁मंग	-11.3247
▁नीले	-11.3248
▁उदारता	-11.3251
▁डिवाइस	-11.3252
▁मुसीबत	-11.3252
▁इरादा	-11.3252
▁मलेरिया	-11.3252
▁डेल्टा	-11.3252
▁जिहाद	-11.3252
▁शिशुओं	-11.3253
▁नक़ल	-11.3253
▁बल्ल	-11.3255
▁कैश	-11.3255
▁आप्रवास	-11.3257
डियम	-11.3258
▁वाच	-11.3258
▁सूरत	-11.3272
▁कराती	-11.3284
बीएस	-11.3287
▁निकासी	-11.3289
▁अनुष्ठान	-11.3292
▁डिजीटल	-11.3292
▁सम्प्रदाय	-11.3292
▁रोमांच	-11.3292
▁रघु	-11.3292
▁भत्ते	-11.3292
▁संकोच	-11.3292
▁परीक्षक	-11.3292
▁समतल	-11.3297
▁औषधीय	-11.3301
▁रोमन	-11.3304
▁अतिमानस	-11.3304
न्ग	-11.3305
▁कफ	-11.3311
▁दर्शाती	-11.3318
▁वास्त	-11.3318
▁मनाने	-11.3327
▁मात	-11.3327
▁कॉन्फ़िगर	-11.3331
▁हस्तशिल्प	-11.3331
▁चौधरी	-11.3331
▁अलमस्त	-11.3331
▁थोक	-11.3336
▁नवाब	-11.3337
▁करोड	-11.3338
▁संगणित	-11.3339
▁पारसी	-11.3339
ियॉँ	-11.334
▁प्रहार	-11.3346
▁गाल	-11.3346
▁प्रातः	-11.3346
▁आहरण	-11.3347
वाहक	-11.3351
▁पहना	-11.3351
▁प्रबंधित	-11.3355
▁दिखने	-11.3357
▁दुष्ट	-11.3359
▁शल्यक्रिया	-11.3364
▁पत्रिकाओं	-11.3369
▁अमेरिकन	-11.3371
▁प्रायोगिक	-11.3371
▁शिष्टमंडल	-11.3371
▁सहकारिता	-11.3371
▁निराश	-11.3371
▁राक्षस	-11.3371
▁प्रायद्वीप	-11.3371
▁बाधाओं	-11.3371
▁LIN	-11.3371
▁आरेख	-11.3372
▁सैं	-11.3372
▁वायुमंडल	-11.3373
▁असा	-11.3381
▁मचा	-11.3383
▁टकरा	-11.3384
▁कार्यकरण	-11.339
▁पुनरा	-11.3396
भाष्	-11.3396
▁अतिमानसि	-11.3398
RL	-11.3403
शाही	-11.3409
▁कमिश्नर	-11.3411
▁निवेदिता	-11.3411
▁वामपंथी	-11.3411
▁गर्भावस्था	-11.3411
▁सेकेंड	-11.3412
ुअल	-11.3414
▁पेट्रो	-11.3416
▁कार्यभार	-11.3417
वर्धक	-11.3421
▁अरुण	-11.3422
▁आसमान	-11.3423
▁मानद	-11.3431
▁उठाये	-11.3432
▁प्रतियां	-11.3434
चंद	-11.3436
▁चैक	-11.3438
लाभ	-11.3438
▁शिला	-11.3448
▁सरोजिनी	-11.3451
▁जवाबदेही	-11.3451
▁फिनलैंड	-11.3451
▁शुक्राणु	-11.3451
▁सम्पादित	-11.3451
▁बैर	-11.3453
दौलत	-11.3455
▁बहती	-11.3456
▁चिपका	-11.3461
रंजन	-11.3462
▁कटा	-11.3463
▁रखेगा	-11.3471
▁निपट	-11.3475
▁मध्यस्थता	-11.3477
▁इंस्टीट्यूट	-11.3491
▁साहिब	-11.3491
▁वल्लभ	-11.3491
▁कचरा	-11.3491
▁नानालाल	-11.3491
▁परमात्मा	-11.3492
▁विषाणु	-11.3492
▁लटक	-11.3492
▁कृतज्ञ	-11.3493
▁ज्यों	-11.35
चन्द	-11.3507
▁चांदी	-11.3509
mp	-11.3509
▁हरिजन	-11.3512
मैट	-11.3514
▁परिवाद	-11.3515
वृद्धि	-11.3519
स्कोप	-11.352
चक्र	-11.3528
▁घंटों	-11.3531
▁अंगीकार	-11.3532
▁लॉर्ड	-11.3534
▁पिछला	-11.3537
टीन	-11.354
शिर	-11.3541
▁तुच्छ	-11.3542
▁दर्शाने	-11.3544
▁प्रतिज्ञा	-11.3545
प्रकाश	-11.3547
▁नमून	-11.3548
▁भरती	-11.3556
▁सींग	-11.3563
सीएल	-11.357
▁सभ्य	-11.3571
▁राख	-11.3571
▁युसुफ़	-11.3572
▁शिथिल	-11.3572
▁बैंड	-11.3573
▁क्रीड़ा	-11.3574
ट्ठा	-11.3574
▁लॉगिन	-11.3577
▁रिश्तेदार	-11.3577
▁केशव	-11.3587
ूष	-11.3589
निक्स	-11.359
▁सार्व	-11.3593
▁लडक	-11.3595
▁खोद	-11.3596
▁अचल	-11.3598
▁Re	-11.361
▁साझे	-11.361
▁चंडीगढ़	-11.3612
▁साप्ताहिक	-11.3612
▁यूनिकोड	-11.3612
▁आरोग्य	-11.3612
▁लसीका	-11.3612
▁उपद्रव	-11.3612
ुद्दीन	-11.3612
▁जवाहर	-11.3613
▁वायरस	-11.3613
▁रामकृष्ण	-11.3614
▁गौतम	-11.3615
ide	-11.3617
▁बरसात	-11.3618
▁राष्ट्रवादी	-11.3619
▁उद्यमिता	-11.362
▁पाचन	-11.3627
▁प्रस्थान	-11.3627
त्सा	-11.3634
.4	-11.3636
ेट्स	-11.364
▁कैसी	-11.3643
नोडल	-11.3645
निर्णय	-11.3647
ञ्	-11.3648
▁भरण	-11.3651
▁बहिष्कार	-11.3653
▁भवभूति	-11.3653
▁सम्पादक	-11.3653
▁पुरातन	-11.3654
▁मान्यताप्राप्त	-11.3654
▁अमृतसर	-11.3655
▁दीर्घकालीन	-11.3655
शासन	-11.3656
▁आबद्ध	-11.3656
▁पिताजी	-11.3656
est	-11.3656
▁रुग्ण	-11.3658
▁जमाव	-11.3658
▁नरेश	-11.3659
▁शॉ	-11.3659
▁निर्मल	-11.366
▁टेबल	-11.3663
▁अकाल	-11.3663
▁अध्या	-11.3668
▁एड्स	-11.3673
▁पुनर्वि	-11.3683
▁गला	-11.3693
▁कुटुंब	-11.3694
▁लवण	-11.3694
▁मायने	-11.3694
▁कुर्सी	-11.3694
▁चलाई	-11.3695
▁सचेतन	-11.3697
▁प्राणिक	-11.3697
डेन	-11.3697
▁लपेट	-11.3698
▁टाटा	-11.3702
▁विकृति	-11.3703
▁बेहतरीन	-11.3704
▁क्रे	-11.3705
▁चढ़ाव	-11.3707
▁रौ	-11.371
▁सीमांत	-11.372
धिकार	-11.372
▁साम्य	-11.3726
▁लख	-11.3729
तत्त्व	-11.3733
▁इजराइल	-11.3735
▁ऊष्मा	-11.3735
▁वांछनीय	-11.3735
▁अनुपूरक	-11.3735
▁प्रशंसक	-11.3735
▁विवेकानंद	-11.3736
▁सजावट	-11.3737
▁चौथी	-11.3737
▁तात्या	-11.3737
▁विहार	-11.375
▁तोड़ने	-11.3754
ect	-11.3757
▁दैवी	-11.3759
▁अधिवक्ताओं	-11.3763
▁सौंपे	-11.3764
▁सांसारिक	-11.3777
▁गोदाम	-11.3778
IC	-11.3782
▁परोक्ष	-11.3782
.3	-11.3786
क्रांत	-11.379
▁पीला	-11.3791
पूर्ति	-11.3795
▁कॉन्	-11.3799
▁सैर	-11.3815
विच	-11.3815
au	-11.3818
▁यदुनाथ	-11.3818
▁निरीक्षक	-11.3818
पात्र	-11.3818
▁उच्चारण	-11.3818
▁भोपाल	-11.3819
▁चैत्य	-11.3821
▁मुकदम	-11.3824
▁पालि	-11.3828
टिकल	-11.383
▁झुंड	-11.383
▁मोक्ष	-11.3833
▁बैच	-11.3835
सीएस	-11.3835
▁शिकायतें	-11.3838
▁हिन्दु	-11.385
▁विक्रम	-11.3853
▁कर्मियों	-11.3854
आरआई	-11.3857
▁अवहेलना	-11.386
▁गोविंद	-11.386
▁सन्दर्भ	-11.386
▁स्टील	-11.3861
▁आइस	-11.3875
▁छिड़	-11.388
▁विशेषतः	-11.3884
▁तकलीफ	-11.3885
▁सर्वत्र	-11.3886
द्धि	-11.3887
▁कैदी	-11.389
गम्य	-11.3901
▁कारखाने	-11.3902
▁नामनिर्देशित	-11.3902
▁कुत्ते	-11.3902
▁पर्वतमाला	-11.3903
▁कॉफी	-11.3904
▁पैकेट	-11.3906
रियो	-11.3906
▁बैंककारी	-11.3908
▁इतिहासकार	-11.391
इंग	-11.3915
▁कार्ल	-11.3916
▁विफलः	-11.3929
औ	-11.3929
▁फैलाने	-11.393
▁लगीं	-11.3933
▁छीन	-11.3941
▁पच्चीस	-11.3944
▁पारम्परिक	-11.3944
▁माउंट	-11.3944
निकेतन	-11.3944
▁प्राप्य	-11.3944
▁आभासी	-11.3946
100	-11.3947
टिस	-11.3949
चर्म	-11.3954
ga	-11.3957
he	-11.3958
▁CO	-11.3961
▁विश्वसनीयता	-11.3962
एनएस	-11.3963
▁भोल	-11.3964
वाहिनी	-11.3965
▁डैक	-11.3968
एसआई	-11.3984
▁मौलाना	-11.3986
▁महावीर	-11.3986
▁निर्वाचक	-11.3986
▁आज़ाद	-11.3987
▁पाश	-11.3988
▁रखनी	-11.399
▁चलचित्र	-11.399
▁तराश	-11.3991
▁जैक	-11.3993
▁विलास	-11.3995
▁सिद्धि	-11.4004
▁प्रकरण	-11.4018
पाट	-11.4026
गढ	-11.4026
▁अयोध्या	-11.4028
▁मछलियों	-11.4028
▁संप्रेषण	-11.4028
▁संश्लेष	-11.4028
▁निजाम	-11.4028
▁प्रतिपादन	-11.403
श्लेष्म	-11.403
▁जाएँगे	-11.4031
▁व्ह	-11.4032
▁आयातित	-11.4034
▁पौंड	-11.4038
पीएम	-11.4038
▁अयोग्य	-11.4044
▁प्रयोगशालाओं	-11.405
▁सम्यक्	-11.4059
मूलक	-11.4064
▁बचना	-11.407
▁राममोहन	-11.4071
▁कैमरा	-11.4071
▁बर्ताव	-11.4071
▁बाधित	-11.4071
▁देसाई	-11.4071
▁तंतु	-11.4071
▁पीठासी	-11.4071
▁मिथक	-11.4071
▁रिश्ते	-11.4071
▁सावधि	-11.4075
▁लड़कों	-11.4078
▁राजीव	-11.4082
▁बाव	-11.4083
▁बूंद	-11.4087
OR	-11.4106
निवेश	-11.411
ld	-11.4111
▁अनौपचारिक	-11.4113
▁बेलारूस	-11.4113
▁तर्कसंगत	-11.4113
▁फेफड़ों	-11.4113
▁कपिल	-11.4114
▁रेखांकित	-11.4114
▁आत्मसात	-11.4115
▁वायुयान	-11.4116
▁निकलती	-11.4116
▁स्वतन्त्रता	-11.4128
▁मद्य	-11.413
यॉ	-11.4134
▁सद्भाव	-11.4141
▁दरअसल	-11.4156
▁द्विआधारी	-11.4156
▁शॉर्टकट	-11.4156
▁संकलित	-11.4156
▁कम्पनियों	-11.4156
▁टुकड़ा	-11.4158
▁जेम्स	-11.4158
विज	-11.4159
ग्रंथ	-11.4165
▁उपयोगकर्ताओं	-11.4167
▁सड़	-11.4167
per	-11.4175
▁औषधियों	-11.4181
▁ताड़	-11.4182
▁37	-11.4187
▁इज	-11.4193
▁रचित	-11.4196
▁क्षैतिज	-11.4199
▁अदायगी	-11.4199
▁महादेवी	-11.4199
▁डेयरी	-11.42
▁मेघालय	-11.42
▁अविश्वास	-11.42
स्वरूप	-11.4201
▁2002	-11.4201
जहां	-11.4208
▁हठ	-11.4214
▁निकलते	-11.4221
▁फ्लोर	-11.4222
▁बरतन	-11.4234
शायर	-11.4237
▁वाट	-11.4237
▁सर्वोपरि	-11.4243
▁साम्प्रदायिक	-11.4243
▁तेरह	-11.4243
▁पत्तों	-11.4243
▁तानाशाह	-11.4243
▁मातृभूमि	-11.4243
▁पोतन्ना	-11.4244
▁घनत्व	-11.4247
▁देखती	-11.4248
घोष	-11.425
▁प्रवृत्तियों	-11.4253
आईपी	-11.4265
▁गाइड	-11.4269
▁साँस	-11.4272
pp	-11.4275
http	-11.4286
▁अद्वैत	-11.4286
▁बढ़ोतरी	-11.4286
▁कप्तान	-11.4286
▁अत्याधिक	-11.4287
▁ब्यौरे	-11.4287
▁महोदय	-11.4288
▁अध्यापन	-11.4289
▁विषयवस्तु	-11.429
▁वेश्या	-11.4297
▁इलेक्ट्रॉनिक्स	-11.4297
▁स्वराज्य	-11.4298
▁बापू	-11.43
aI	-11.4303
▁मृग	-11.4305
▁रखेंगे	-11.4309
▁शीतल	-11.4322
प्ति	-11.4323
▁संस्कृतियों	-11.4323
▁अनुज्ञप्ति	-11.433
▁पाउंड	-11.433
▁वार्मिंग	-11.433
▁अखंडता	-11.433
▁फ्रांसीसी	-11.433
▁टोकन	-11.4332
▁रमण	-11.4333
up	-11.4333
▁त्यागपत्र	-11.4334
निर्मित	-11.434
▁अभिप्राप्त	-11.4343
▁यंग	-11.4343
▁प्रतिबन्ध	-11.4357
▁नातेदार	-11.4361
▁लौ	-11.4369
▁अतिरिक़्त	-11.4374
▁झारखंड	-11.4374
▁प्रतिषेध	-11.4374
▁रजिस्ट्रार	-11.4374
▁अपडेट	-11.4374
▁वार्तालाप	-11.4374
▁वेंकट	-11.4375
▁कब्र	-11.4376
▁नोक	-11.4383
▁निपटारा	-11.4383
▁समझाया	-11.4398
वर्म	-11.4398
▁भुला	-11.4399
▁समूच	-11.4399
▁ब्रांड	-11.4407
▁विनिर्दि	-11.4416
▁रास	-11.4418
▁जनसाधारण	-11.4418
▁सुल्तान	-11.4418
▁विधायक	-11.4419
▁पत्रकारिता	-11.4419
▁परम्परागत	-11.4425
▁यन्त्र	-11.4426
▁पूछने	-11.4426
▁बाय	-11.4427
▁92	-11.443
▁यकृत	-11.4433
▁फोरम	-11.4442
▁न्यूज	-11.4445
▁नवान्वेषक	-11.4446
▁ईंट	-11.446
▁परित्याग	-11.4462
▁सुसज्जित	-11.4462
▁सुस्पष्ट	-11.4462
▁रुझान	-11.4462
▁वफादार	-11.4462
ार्ध	-11.4463
▁गांठ	-11.4467
▁विलेख	-11.4474
▁पिच	-11.4478
▁बर्मा	-11.4478
▁वक़्त	-11.4479
▁उपवास	-11.448
▁बहाल	-11.4501
▁www	-11.4506
▁फुफ्फुस	-11.4506
▁वृंदावन	-11.4506
▁अछूत	-11.4506
▁पाषाण	-11.4506
▁समावेदन	-11.4506
▁साइकिल	-11.4506
▁सिडबी	-11.4507
▁दूषित	-11.4508
▁ब्लैक	-11.4508
▁प्रौद्योगिक	-11.4508
▁मल्टी	-11.4508
ज्जा	-11.4512
▁खेद	-11.4517
▁वाहिका	-11.4518
▁जनमत	-11.4519
▁गिरवी	-11.4528
▁ट्रीय	-11.4531
मापी	-11.4538
संख्य	-11.454
▁कमाने	-11.4546
ख़्त	-11.4549
▁अदृश्य	-11.4551
▁औपनिवेशिक	-11.4551
▁प्रोफ़ाइल	-11.4551
▁समतुल्य	-11.4551
आक्साइड	-11.4551
▁भित्ति	-11.4553
▁प्रत्यक्षतः	-11.4565
▁वेदना	-11.4568
चिंत	-11.4573
▁चूह	-11.4591
▁अड्डा	-11.4596
▁क्रिस्टल	-11.4596
▁चाँद	-11.4596
▁क्रू	-11.4598
▁कुलपति	-11.4598
टीपी	-11.4601
▁उपस्कर	-11.4603
श्रम	-11.4604
▁संभोग	-11.4605
ew	-11.4605
▁भावुक	-11.4607
▁पारिस्थितिकी	-11.4609
▁डिम्ब	-11.4614
पाठ	-11.4625
▁समानांतर	-11.4625
▁बचाया	-11.4628
वर्तित	-11.4635
ल्लाह	-11.464
▁कार्रवाइय	-11.4641
▁आवधिक	-11.4641
▁पिघल	-11.4642
▁क्षतिग्रस्त	-11.4644
▁राष्ट्रमंडल	-11.4647
▁छपाई	-11.4649
▁सारवान	-11.465
▁मुहर	-11.4657
भोज	-11.4658
▁दिलाया	-11.4663
ग्ल	-11.4664
▁कवक	-11.4665
▁अनुपस्थित	-11.4676
▁गध	-11.4683
ana	-11.4684
▁परिचर्चा	-11.4686
▁सॉफ़्टवेयर	-11.4686
▁कदाचार	-11.4686
▁कच्ची	-11.4687
▁सामरिक	-11.4688
▁फिट	-11.4689
▁शौ	-11.4701
▁श्रोत	-11.4709
▁तुलन	-11.4713
▁कार्यक्षेत्र	-11.4713
साइड	-11.4723
िष्णु	-11.4726
विष्ट	-11.4729
▁कोल्हटकर	-11.4732
▁मर्यादा	-11.4732
▁वैवाहिक	-11.4732
▁संकुचन	-11.4732
▁सर्वांगीण	-11.4732
▁रिश्वत	-11.4732
▁अभिकथन	-11.4732
▁नर्मदाशंकर	-11.4732
▁रस्सी	-11.4732
▁कुंजीपटल	-11.4733
▁धमनी	-11.4733
▁चौड़ा	-11.4735
▁नागपुर	-11.4737
▁विधिवत	-11.474
▁सैल	-11.474
▁निधियां	-11.475
▁प्रस्ता	-11.475
▁पड़ोस	-11.477
▁मर्द	-11.4772
▁गुंजाइश	-11.4777
▁फ़ारसी	-11.4777
▁वसीयत	-11.4777
▁फिल्टर	-11.4777
▁मुंशी	-11.4777
▁सपनों	-11.4778
▁मुद्रास्फीति	-11.4778
▁उद्भव	-11.478
▁दूंगा	-11.4786
▁पढ़ते	-11.4788
क्रियात्मक	-11.4797
▁प्रतिस्थापन	-11.4801
पुंज	-11.4815
▁गुड़	-11.4819
▁सुगंध	-11.4823
▁समयावधि	-11.4823
▁अंतररा	-11.4825
7,	-11.4826
▁अवरुद्ध	-11.4826
ae	-11.4827
▁ख़ान	-11.483
▁ऑक्स	-11.4834
▁सन्देश	-11.4838
▁करवाना	-11.4845
TT	-11.4862
▁रोज़	-11.4863
स्पेस	-11.4866
▁मर्म	-11.4868
▁अनुज्ञेय	-11.4869
▁इलेक्ट्रानिक	-11.4869
▁ठेकेदार	-11.4869
▁नाइट्रोजन	-11.4869
▁स्वंय	-11.487
▁रोज़गार	-11.487
▁कहानियाँ	-11.4872
▁गुज़र	-11.4873
▁नियमावली	-11.4876
इट	-11.4878
▁सलाम	-11.4879
▁आलू	-11.488
▁पूज	-11.488
▁लिखकर	-11.4881
ME	-11.4884
▁उद्घोषणा	-11.4916
▁हुकूमत	-11.4916
▁आवंटन	-11.4916
▁निपुण	-11.4916
▁ड्यूटी	-11.4916
▁रिसर्च	-11.4916
▁सैयद	-11.4916
▁पूंछ	-11.4916
▁कचरे	-11.4916
▁पितृ	-11.4916
▁कपड़ों	-11.4917
▁वीणा	-11.4923
पीओ	-11.4925
▁एसिड	-11.4937
▁चलेगा	-11.494
▁इन्फ	-11.494
▁पक्क	-11.4945
▁मुर्ग	-11.4946
▁जड़ें	-11.4954
नाशक	-11.496
▁अविभक्त	-11.4962
▁षड्यंत्र	-11.4962
▁विरोधाभास	-11.4962
▁आधारशिला	-11.4962
▁भिक्षु	-11.4962
▁संरक्षा	-11.4962
▁थोडा	-11.4962
▁पूर्वाग्रह	-11.4962
▁फ्रेंच	-11.4962
▁वाकई	-11.4962
▁कठिनाइया	-11.4963
▁संभालने	-11.4965
इये	-11.4965
▁संघटक	-11.4975
SS	-11.4983
▁साँ	-11.4986
▁गोपनीयता	-11.4994
▁शत्रुओं	-11.5002
▁आर्ट	-11.5005
प्रधान	-11.5005
▁उठती	-11.5007
▁पनप	-11.5009
▁अभियांत्रिकी	-11.5009
▁अमिताभ	-11.5009
▁श्रवण	-11.5009
▁मार्जिन	-11.5009
▁विद्यासागर	-11.5009
▁बरामद	-11.501
▁लंका	-11.501
▁निद्रा	-11.5011
▁दर्पण	-11.5013
▁घटनाक्रम	-11.5014
▁निबन्ध	-11.502
▁आवेदनपत्र	-11.502
▁इंद्रिय	-11.5021
बेल	-11.5027
▁आकड	-11.5032
चिकित्सा	-11.5036
संधान	-11.5038
▁पकड	-11.5039
▁घिस	-11.5042
▁वंशज	-11.505
▁दर्शाते	-11.5053
म्फ	-11.5054
▁सेनापति	-11.5055
▁स्वयंसेवक	-11.5056
▁ऊर्ध्व	-11.5056
▁थलग	-11.5056
▁नदियां	-11.5056
▁विवेकाधिकार	-11.5058
▁दोहरी	-11.5062
▁प्रांतीय	-11.5082
ard	-11.5084
▁ट्व	-11.5092
▁उद्ध	-11.5093
ty	-11.5096
▁मार्केट	-11.5098
▁अभूतपूर्व	-11.5103
▁मज़दूर	-11.5103
▁यूनिवर्सिटी	-11.5103
▁आकृष्ट	-11.5103
▁नियामक	-11.5103
▁मजाक	-11.5103
▁जर्नल	-11.5103
▁अड्डे	-11.5104
▁vii	-11.5106
एससी	-11.5106
पीड़	-11.5106
▁कामयाब	-11.5107
▁टेक्न	-11.5108
▁महिमा	-11.511
ब्रि	-11.511
▁उदासीनता	-11.5124
▁जिम	-11.5124
न्च	-11.5134
▁स्वतन्त्र	-11.5135
▁द्रोण	-11.515
▁प्रवर्तक	-11.515
▁दुर्भाग्यवश	-11.5151
▁परमेश्वर	-11.5154
▁राजनेता	-11.5156
ांजलि	-11.5159
▁मोती	-11.5159
▁हटकर	-11.5178
▁दिखाए	-11.519
▁दूतावास	-11.5198
▁2005	-11.5198
▁देशीराज्य	-11.5199
▁मेहता	-11.5199
▁hO	-11.52
▁स्थानापन्	-11.5208
▁विचाराधीन	-11.5208
▁दाद	-11.521
ud	-11.5211
मार्क	-11.5218
▁किराये	-11.5232
▁क्रूर	-11.5244
▁चुनौतियां	-11.5246
▁मक्खी	-11.5246
▁हड्डियों	-11.5246
▁दरवाजा	-11.5246
▁लॉन्च	-11.5246
▁उल्टी	-11.5247
▁टिड्ड	-11.5247
▁व्यंजन	-11.5247
▁मैट्रिक	-11.5248
▁गिर्द	-11.5253
▁संबधित	-11.5257
▁बहाना	-11.5259
▁लटका	-11.5259
▁निकटतम	-11.526
डीसी	-11.5262
जन्म	-11.5268
▁लोकहित	-11.527
कॉन	-11.5272
▁सार्वभौम	-11.5283
▁मैग	-11.5294
▁क्लाइंट	-11.5294
▁फर्नीचर	-11.5294
▁स्वीडन	-11.5294
▁रेड्डी	-11.5294
▁मच्छर	-11.5294
▁स्तम्भ	-11.5294
▁नोबेल	-11.5294
▁उदात्त	-11.5294
▁स्त्रियां	-11.5294
▁पार्टियों	-11.5294
▁वर्जित	-11.5295
▁ब्यौरा	-11.5296
▁जिंदा	-11.5299
▁अहंकार	-11.5301
▁दिखाएं	-11.5302
▁जुडे	-11.5302
▁ज्ह	-11.5311
डिट	-11.5315
NT	-11.5326
▁ह्रदय	-11.5342
▁पुनरावृत्ति	-11.5343
▁बाइट	-11.5352
फोन	-11.5356
फिर	-11.5358
▁मुकदमेबाज	-11.5362
▁सस्ता	-11.5364
▁लेनदार	-11.5372
ग्राफ	-11.5383
फिन	-11.5383
▁अध्यधीन	-11.5391
▁इंडोनेशिया	-11.5391
▁कांफ्रेंस	-11.5391
▁रुकावट	-11.5391
▁भाजपा	-11.5391
▁उपेक्षित	-11.5391
▁2007	-11.5391
▁मौर्य	-11.5392
▁नरेंद्र	-11.5394
▁मराठ	-11.5394
▁रहस्यमय	-11.5395
▁वारिस	-11.5398
▁संयोजक	-11.5399
▁अंधकार	-11.5401
▁सल्ल	-11.5406
▁गाजा	-11.5411
▁मुनि	-11.5411
▁जुड़ने	-11.5416
cl	-11.5424
▁ललित	-11.5425
▁सप्त	-11.5429
▁उलझन	-11.543
▁पदोन्नति	-11.544
▁महासचिव	-11.544
▁स्तूप	-11.544
▁दुसरे	-11.544
▁2004	-11.544
▁असहमति	-11.544
▁वृद्धावस्था	-11.544
सन्निकट	-11.5443
▁धक्का	-11.5443
▁मोचन	-11.5446
श्वास	-11.5446
▁सर्जन	-11.546
▁उन्न	-11.5463
कृष्ण	-11.5471
▁बनेगा	-11.5487
▁घोड़ा	-11.5489
▁पराजय	-11.5489
▁उथल	-11.5491
▁परिसंघ	-11.5491
▁बोतल	-11.5492
▁रैंक	-11.5493
▁मिर्च	-11.5494
▁प्रजातियां	-11.5495
▁सिखाया	-11.5502
▁ढोल	-11.551
▁प्रमाणीकरण	-11.5511
▁प्रदर्शक	-11.5513
▁पावन	-11.5516
▁पर्यवेक्ष	-11.5532
▁उधारकर्ता	-11.5533
▁क्रोमियम	-11.5538
▁नागालैंड	-11.5538
▁निलंबित	-11.5538
▁स्ट्रीम	-11.5538
▁चेतन	-11.5539
▁प्रत्यर्थियो	-11.5539
▁पिंजर	-11.5539
▁राजनीतिज्ञ	-11.5542
▁बिठा	-11.5546
▁देशभक्ति	-11.5546
▁हिरण	-11.5548
▁अकेल	-11.5551
िलक्षित	-11.5551
.8	-11.5552
▁वाक्	-11.5556
▁जूते	-11.556
ly	-11.5564
▁देनदार	-11.5565
▁संतुष्टि	-11.5566
▁बाड़	-11.5567
▁दीक्षा	-11.558
▁संबध	-11.5586
▁मौद्रिक	-11.5587
किसी	-11.5588
▁प्रवीण	-11.5588
▁अकसर	-11.5591
▁ब्रह्मांड	-11.5593
▁कोष्ठक	-11.5594
▁सपाट	-11.5594
▁अलगाव	-11.5597
▁ko	-11.5605
टीआई	-11.561
▁दावेदार	-11.5617
ind	-11.5618
ik	-11.562
▁आरम्भिक	-11.5628
स्सा	-11.5631
▁इंग्लिश	-11.5637
▁जिज्ञासा	-11.5637
▁मकसद	-11.5637
▁नक्षत्र	-11.5637
▁निवारक	-11.5637
▁तुल्य	-11.5638
▁अधिरोपण	-11.5641
▁धनुष	-11.5645
▁देहात	-11.5649
8,	-11.5653
▁मीरा	-11.5665
▁खडे	-11.5679
▁चोल	-11.5681
▁नौजवान	-11.5687
▁बंगलौर	-11.5687
▁सैद्धांतिक	-11.5687
▁डाटाबेस	-11.5687
▁गुर्दे	-11.5687
▁org	-11.5687
▁एटीएम	-11.5687
▁सदृश	-11.5687
▁सजग	-11.5687
▁कैरियर	-11.5688
▁कथानक	-11.5688
▁अपमानजनक	-11.5689
RI	-11.5689
▁राजशाही	-11.569
▁वरदान	-11.569
▁गुजार	-11.569
▁शोभा	-11.569
▁पत्ती	-11.5693
▁मिटाएँ	-11.5695
▁पड़ोसियों	-11.5697
▁गोल्ड	-11.5706
▁फंच	-11.5712
▁दूरभाष	-11.5725
▁हिज	-11.5731
आउट	-11.5734
प्रमाण	-11.5735
ोत्सव	-11.5736
▁बेजबरु	-11.5737
▁प्रकोष्ठ	-11.5737
▁असुविधा	-11.5737
▁उन्नीसवी	-11.5737
▁पीटर	-11.5738
▁सस्ती	-11.5739
▁उभरते	-11.5739
▁सिक्के	-11.5739
▁खासतौ	-11.5741
▁ऑयल	-11.5741
त्त्व	-11.5742
▁जन्मजात	-11.5743
▁प्रदाय	-11.5767
▁1/2	-11.5787
▁उत्कीर्ण	-11.5788
▁कॉपीराइट	-11.5788
▁साँचाः	-11.5788
▁पुनर्निर्माण	-11.5789
▁245	-11.5795
▁लम्बाई	-11.5796
ावधान	-11.5811
LE	-11.5812
▁छन्द	-11.5818
▁समझौत	-11.582
▁लिहाज	-11.5828
प्रवाह	-11.5828
▁आदर्शवाद	-11.5834
▁परिवीक्षाधीन	-11.5839
▁अभिभावक	-11.5839
▁बुनियाद	-11.584
▁राहुल	-11.5841
▁जाग्रत	-11.5843
▁पेशाब	-11.5845
▁रीढ़	-11.5847
▁राजेन्द्र	-11.5847
व्रण	-11.5849
▁तटस्थ	-11.5849
▁मंज	-11.5854
गुआ	-11.5854
.7	-11.5855
▁असीमित	-11.5859
mm	-11.5877
▁ब्राह्म	-11.5881
▁बहिर्	-11.5881
▁छानबीन	-11.589
▁देवेन्द्रनाथ	-11.589
▁वैचारिक	-11.589
▁अंतर्वलित	-11.589
▁उत्तराखंड	-11.589
▁माइनस	-11.589
▁पठार	-11.589
फॉर्म	-11.5891
▁प्रतिभाशाली	-11.5891
▁बछड़	-11.5892
▁एकरूपता	-11.5892
▁दलाल	-11.5893
▁कर्मकार	-11.5894
▁उकसा	-11.5896
▁आनन्दमय	-11.5899
▁मनोहर	-11.59
▁सिद्व	-11.59
▁पड़ेगी	-11.5908
RA	-11.5913
▁घाना	-11.5919
▁आवेश	-11.5925
▁माध्यस्थम	-11.5931
निर्माण	-11.5937
▁अधिनिर्णी	-11.5941
▁एहसास	-11.5941
▁रिपब्लिक	-11.5941
▁न्यायसंगत	-11.5941
▁बस्तियों	-11.5941
▁रूपांतरित	-11.5941
▁जोधपुर	-11.5941
▁रिटर्न	-11.5943
▁जूझ	-11.5944
▁for	-11.5946
▁साइंस	-11.5946
▁पिछड़	-11.5953
▁जूरी	-11.5955
▁बहाव	-11.5957
▁प्रत्याशा	-11.5957
▁Ch	-11.5961
▁थोप	-11.5962
▁घोल	-11.5976
निर्दिष्ट	-11.5991
▁लाइब्रेरी	-11.5992
▁सुप्रसिद्ध	-11.5992
▁1956	-11.5992
▁अनुषंगी	-11.5992
▁विषाक्त	-11.5992
▁सिन्धु	-11.5992
▁ब्राजील	-11.5993
▁gui	-11.5993
▁कवच	-11.5993
▁फ़ोटो	-11.5993
▁सिक्का	-11.5997
▁दूरदर्शन	-11.5999
अनु	-11.6001
▁कपूर	-11.6015
▁बकरिय	-11.6043
▁आनुपातिक	-11.6044
▁डिबेंचर	-11.6044
▁प्रणालियां	-11.6044
▁दीर्घावधि	-11.6044
▁लेबनान	-11.6044
▁नर्सिंग	-11.6044
▁मार्टिन	-11.6045
▁गड्ढ	-11.6045
▁मंगोल	-11.6047
▁सन्देह	-11.6048
▁परिचालित	-11.6048
▁सुशासन	-11.6049
प्रतिशत	-11.6049
▁सामंत	-11.6051
▁बहू	-11.6052
▁आफिस	-11.6055
▁देखिये	-11.6055
▁कैम्प	-11.6056
▁सम्यक	-11.6061
▁आएगी	-11.6071
▁भूरे	-11.6076
▁मृदु	-11.6081
▁गुवाहाटी	-11.6096
▁तत्संबंधी	-11.6096
▁सिगरेट	-11.6096
▁कार्यकारिणी	-11.6096
▁स्ट्रीट	-11.6096
▁आँकड़ा	-11.6096
▁कमज़ोर	-11.6096
▁चार्ल्स	-11.6096
▁संवेदी	-11.6097
▁शारदा	-11.6097
▁वृहद	-11.6102
फार्म	-11.6102
eg	-11.6113
▁हृद	-11.6119
▁असहाय	-11.6124
▁चीख	-11.6134
▁कार्यप्रणाली	-11.6149
▁बुद्धिमत्ता	-11.6149
▁कीमियागर	-11.6149
▁हल्की	-11.6149
▁सामग्रिय	-11.615
▁हाइड्रोजन	-11.615
▁प्यास	-11.615
ोग्राफ	-11.6151
ध्वनि	-11.6158
▁269	-11.6164
▁ऐक्ट	-11.6165
▁पुनरीक्ष	-11.6196
फोड़	-11.62
▁सिपाही	-11.6201
▁आवंटित	-11.6201
▁धब्बे	-11.6201
▁2009	-11.6202
▁2011	-11.6204
▁50,000	-11.6207
▁वर्तनी	-11.6209
▁उदारीकरण	-11.6212
▁छुप	-11.6213
▁गणितीय	-11.6225
▁प्रतिभागियो	-11.6244
▁अनदेखी	-11.6254
▁पन्द्रह	-11.6254
▁फिलहाल	-11.6254
▁बुजुर्ग	-11.6254
▁साउथ	-11.6254
▁संबोधन	-11.6254
▁फोकस	-11.6254
▁सोपान	-11.6255
▁अर्हता	-11.6255
▁खयाल	-11.6255
▁नर्तक	-11.6256
भ्रंश	-11.6258
▁तख्त	-11.626
▁थैली	-11.626
▁खोखल	-11.626
िनद्	-11.6272
▁इकट्ठ	-11.6275
▁चीफ	-11.6279
▁डबल	-11.628
▁यूएस	-11.6294
▁आदमियों	-11.6307
▁गठबंधन	-11.6307
▁गुरबख्श	-11.6307
▁डब्लू	-11.6307
▁तालिबान	-11.6307
▁पांडुलिपि	-11.6307
▁शर्करा	-11.6307
▁निरूपण	-11.6307
▁अपलोड	-11.6308
▁पहुच	-11.6308
▁घोंसल	-11.6308
▁अलंकार	-11.6308
▁मीनार	-11.6309
IT	-11.631
▁डाउन	-11.6311
रूद्ध	-11.6315
▁मिलेंगे	-11.6332
ill	-11.6335
▁यूरेनियम	-11.6361
▁सांविधानिक	-11.6361
▁सिलसिले	-11.6361
▁सिकंदर	-11.6361
▁पोशाक	-11.6361
▁संचलन	-11.6361
▁ख़रीद	-11.6364
▁मनोरम	-11.6368
▁साझेदार	-11.6368
फेस	-11.6368
▁निकास	-11.6369
▁प्रत्यय	-11.6383
▁गुदा	-11.6394
ib	-11.6395
▁चुकौती	-11.6415
▁ट्रिब्यूनल	-11.6415
▁प्रतिस्पर्धी	-11.6415
▁विचलित	-11.6415
▁इशारा	-11.6415
▁आइटम	-11.6415
▁अनेकानेक	-11.6415
स्फूर्त	-11.6415
▁सब्जी	-11.6415
▁एकाएक	-11.6415
▁पीडित	-11.6416
▁शुक्ल	-11.6417
▁पोषित	-11.6418
▁विपत्ति	-11.6426
▁शहद	-11.6428
▁शशि	-11.6432
▁सेटिंग्स	-11.6432
▁डायरी	-11.6434
कण्ठ	-11.6436
▁उदासीन	-11.6446
▁मॉँ	-11.6447
▁कार्यान्व	-11.6456
आरसी	-11.6458
▁एजेन्सी	-11.6469
▁वाराणसी	-11.6469
▁सुव्यवस्थित	-11.6469
▁सूत्रकृमि	-11.6469
▁उत्तीर्ण	-11.6469
▁परिपाटी	-11.6469
▁वायुसेना	-11.6469
▁द्रविड़	-11.6469
▁कुर्की	-11.6469
▁छठे	-11.6469
▁रोगाणु	-11.6475
▁पुर्न	-11.6483
राशि	-11.649
▁प्रक्रमण	-11.6496
▁सफर	-11.6497
▁सुधर	-11.6512
▁तत्पश्चात	-11.6514
▁क्षुद्र	-11.6523
▁चालुक्य	-11.6523
▁महाभियोग	-11.6523
▁अवशिष्ट	-11.6523
▁पुरोहित	-11.6523
▁मुनाफा	-11.6523
▁सहभागी	-11.6523
▁मोर्चे	-11.6523
▁खजाने	-11.6523
▁चुम्बक	-11.6523
▁बोनस	-11.6524
▁भगवती	-11.6524
▁त्रिकोण	-11.6525
▁अनुपम	-11.6525
▁छठी	-11.6529
▁जनशक्ति	-11.6533
▁वार्ड	-11.6535
▁सादे	-11.6544
▁कहेंगे	-11.6545
▁IS	-11.6557
▁लोहा	-11.6576
▁कबील	-11.6577
▁घुड़सवार	-11.6578
▁ज्येष्ठ	-11.6578
▁नैसर्गिक	-11.6578
▁संकुचित	-11.6578
▁भ्रामक	-11.6578
▁अंकुश	-11.6578
▁जागरण	-11.6582
▁बर्बर	-11.6583
▁निगाह	-11.6584
कंटक	-11.6602
▁बंधे	-11.6608
aw	-11.6616
बीआई	-11.6619
▁अनदेखा	-11.6633
▁अनवरत	-11.6633
रज्जु	-11.6633
▁यत्न	-11.6633
▁नैगम	-11.6634
ies	-11.6637
▁मनोमय	-11.6638
▁रेटिंग	-11.6639
▁रक़्त	-11.664
युक्	-11.6649
डब्ल्यू	-11.6653
▁शिकायतकर्ता	-11.6667
▁दिखायें	-11.667
▁नीड़	-11.6678
▁फाल	-11.6686
▁समनुदेशन	-11.6688
▁समीक्षक	-11.6688
▁शिवाजी	-11.6688
▁मातृभाषा	-11.6688
▁धुंधल	-11.6688
▁गंधर्व	-11.6689
▁अन्तरराष्ट्रीय	-11.6689
▁भूभाग	-11.6693
▁पर्याय	-11.6695
रेंस	-11.6696
लोचन	-11.6702
▁अंग्रेज़	-11.6705
▁मुर्गिय	-11.6717
▁विनिधानकर्ता	-11.6722
विन्यास	-11.6726
प्रसाद	-11.6727
▁चुरा	-11.6734
▁घटिया	-11.6739
▁अवक्षयण	-11.6743
▁आशीर्वाद	-11.6743
▁कारपोरेट	-11.6743
▁सराहनीय	-11.6743
▁नायडू	-11.6743
▁मलेशिया	-11.6744
▁विभक्त	-11.6744
▁सूरदास	-11.6745
▁आत्मकथा	-11.6746
▁वैश्व	-11.6746
लब्ध	-11.6747
▁तेजाब	-11.6748
▁मज्जा	-11.6749
▁प्रारुप	-11.6751
▁नवीकरणीय	-11.6754
▁मोनो	-11.6754
▁पदधारी	-11.6756
▁झूल	-11.6759
▁उपनिवेशवाद	-11.676
▁विलीन	-11.6764
▁लतीफ	-11.6776
▁क्षार	-11.6777
▁हफ्त	-11.678
▁ब्यू	-11.6798
▁दफ्तर	-11.6799
▁शुभारंभ	-11.6799
▁अल्पावधि	-11.6799
▁इंस्टॉल	-11.6799
▁खाण्डे	-11.6799
▁संचालक	-11.6799
▁निषिद्ध	-11.6801
▁स्केल	-11.6812
▁भुजा	-11.6818
▁समवर्ती	-11.6819
▁ह्यू	-11.6832
▁सूच	-11.6848
▁क़ुरआन	-11.6856
▁सांकेतिक	-11.6856
▁हथकरघा	-11.6856
▁तात्विक	-11.6856
▁विस्मय	-11.6856
▁अपरिचित	-11.6857
▁सेमिनार	-11.6857
▁कन्नड़	-11.6858
▁अभिनव	-11.6858
▁बदनाम	-11.6859
▁स्कंध	-11.6861
▁राशन	-11.687
▁पूर्त	-11.6871
▁नाभि	-11.6876
प्रेरित	-11.6883
▁हसन	-11.6891
नियोजित	-11.6892
मिक्स	-11.6901
▁एचपीसीएल	-11.6912
▁स्थापत्य	-11.6912
▁काउंटर	-11.6912
▁हिटलर	-11.6912
▁जीवाश्म	-11.6912
▁सम्मिश्रण	-11.6912
▁वसंत	-11.6914
▁हलचल	-11.6916
▁बृहत्	-11.6918
▁ईमानदार	-11.6919
▁बनर्जी	-11.6923
▁चौंक	-11.6926
मिजाज	-11.6938
वाचक	-11.6966
▁एक्सप्रेस	-11.6969
▁महमूद	-11.6969
▁अव्यवस्था	-11.6969
▁रिचर्ड	-11.6969
▁फौरन	-11.6969
▁अवार्ड	-11.6969
व्यू	-11.6969
▁व्यवधान	-11.697
▁नायिका	-11.697
▁मुस्करा	-11.697
▁सौम्य	-11.6973
▁सम्पदा	-11.6976
द्दाम	-11.6984
▁छत्त	-11.6984
▁pr	-11.6988
टेक्स	-11.6999
▁अशक्त	-11.7
all	-11.7005
▁पतंग	-11.7015
▁अनगिनत	-11.7026
▁खुफिया	-11.7026
▁रक्तचाप	-11.7026
▁शौचालय	-11.7026
▁इण्डिया	-11.7026
▁उल्टा	-11.7026
▁व्यथित	-11.7026
▁उछाल	-11.7026
▁समज्ह	-11.7026
▁सौदों	-11.7027
▁बैकअप	-11.7027
▁तदर्थ	-11.7027
▁पुनर्विचार	-11.7027
▁जहॉँ	-11.7027
ग्राह	-11.7029
▁ex	-11.7029
▁संतति	-11.7042
िजनों	-11.7044
प्रेरणा	-11.7058
▁बहुआयाम	-11.7083
▁बहुपक्षीय	-11.7083
▁मिजोरम	-11.7083
▁हरिश्चन्द्र	-11.7083
▁अब्बास	-11.7083
▁निबटा	-11.7084
▁दोहरे	-11.7084
▁अल्पकालिक	-11.7086
▁सम्भवतः	-11.7089
▁धागे	-11.7093
▁जुग	-11.7111
▁समेट	-11.7128
▁साम्राज़्यवाद	-11.7133
▁प्रदूषित	-11.7141
▁गुम्बद	-11.7141
▁अस्थाई	-11.7141
▁प्रसूति	-11.7141
▁सतीश	-11.7142
▁2003	-11.7142
▁स्पर्धा	-11.7142
▁बर्बाद	-11.7142
▁पडेगा	-11.7145
▁प्लगिन	-11.7146
▁बन्धन	-11.715
▁चादर	-11.715
▁पण्य	-11.7151
छेदन	-11.7154
▁विवेकपूर्ण	-11.7156
▁पुर्ज	-11.7161
▁राइट	-11.7169
age	-11.7169
▁देशभक्त	-11.719
▁निःसंदेह	-11.7199
▁पूर्वावलोकन	-11.7199
▁विनिर्माता	-11.7199
▁स्तुति	-11.7199
▁पौष्टिक	-11.7199
▁मुलायम	-11.7199
▁टेक्स्ट	-11.7199
▁आरोहण	-11.7199
▁तितली	-11.72
▁शिलालेख	-11.72
▁गर्भपात	-11.7201
▁मानदण्ड	-11.7202
▁टुकड	-11.7208
▁खरीदार	-11.721
▁गोबर	-11.7213
▁प्रज्ञा	-11.7214
चेंज	-11.7241
प्रसू	-11.7242
▁ग्रीनहाउस	-11.7258
▁चेन्नम्मा	-11.7258
▁विश्लेषक	-11.7258
▁शाब्दिक	-11.7258
▁भयावह	-11.7258
▁उर्जा	-11.7258
▁उमीद	-11.7258
▁मिसाल	-11.7258
▁2006	-11.7258
▁सस्ते	-11.7258
पीआर	-11.7264
▁फ्रांसिस	-11.7264
▁सर्दी	-11.7265
▁बंदूक	-11.7267
▁ख़ास	-11.7275
▁अधिवास	-11.7279
रेक्ट	-11.729
सूचक	-11.7302
दोष	-11.7303
▁pro	-11.7312
▁नर्मदा	-11.7317
▁कारखानों	-11.7317
▁संप्रभु	-11.7317
▁पुरातत्व	-11.7317
▁अस्वस्थ	-11.7317
▁अयस्क	-11.7319
मूर्तियों	-11.732
▁चूर्ण	-11.732
▁प्रवर्तित	-11.7324
▁समांतर	-11.7325
▁उर्वर	-11.7349
वार्षिक	-11.7357
सीबी	-11.7367
▁श्रोणि	-11.7376
▁दुरूपयोग	-11.7376
▁यादृच्छिक	-11.7376
▁रिफाइनरी	-11.7376
▁वायसराय	-11.7376
▁सियारामशरण	-11.7376
▁सेंट्रल	-11.7376
शंकाओं	-11.7376
▁तारामंडल	-11.7377
▁पलायन	-11.7377
▁सर्जनात्मक	-11.7379
▁पशुधन	-11.7379
▁संवेदन	-11.7381
▁बत्ती	-11.7383
▁ज्योतिष	-11.7389
▁पूति	-11.7393
परीक्षित	-11.7407
ET	-11.7411
▁स्क्व	-11.7414
▁स्वै	-11.7424
स्फीति	-11.7434
▁आईएफसीआई	-11.7435
▁उबुन्ट	-11.7435
▁मसौदा	-11.7435
▁विज्ञप्ति	-11.7435
▁अनोखा	-11.7435
▁मोर्चा	-11.7435
▁परिधीय	-11.7435
▁मनमाने	-11.7436
▁अफगान	-11.7436
▁फोटोग्राफ	-11.7436
▁मेहराब	-11.7437
युकत	-11.7437
ाइजेशन	-11.7438
▁उदयपुर	-11.7439
▁कीर्तन	-11.744
▁कैंप	-11.7442
▁प्रतिभावान	-11.7442
▁खांसी	-11.7443
▁सुझाया	-11.7444
▁अहिंस	-11.7444
▁निन्दा	-11.7448
▁खिलफ	-11.7449
▁ब्लाक	-11.7463
भाऊ	-11.7482
▁आच्छादित	-11.7495
▁इक्विटी	-11.7495
▁बहुसंख्यक	-11.7495
▁वॉल्यूम	-11.7495
▁अधीक्षक	-11.7495
▁घोड़ों	-11.7495
▁ग्रसनी	-11.7495
▁सिक्कों	-11.7495
▁इंटरफेस	-11.7496
डोल	-11.7497
▁टनभार	-11.7498
▁जयदेव	-11.7499
▁वैभव	-11.7499
▁निम्नानुसार	-11.75
▁प्लेयर	-11.75
▁सूफी	-11.7501
▁सज्जा	-11.7502
▁अध्यात्म	-11.7525
▁फैसल	-11.7528
पायर	-11.7554
▁फेडरल	-11.7556
▁बायोगैस	-11.7556
▁पहाडिय	-11.7556
▁श्रोताओं	-11.7556
▁शुक्रवार	-11.7557
▁हिस्सेदारी	-11.7557
▁सावधानीपूर्वक	-11.756
▁दुगुन	-11.7562
▁ग्रीक	-11.7568
▁हताश	-11.7569
▁एक्सेस	-11.757
भक्षी	-11.758
▁उद्धार	-11.76
▁पॉलि	-11.7608
▁ईर्ष्या	-11.7616
▁उत्पीड़न	-11.7616
▁चुनिंदा	-11.7616
▁त्रासदी	-11.7616
▁द्वेष	-11.7616
▁खलीफा	-11.7616
▁डेनमार्क	-11.7616
▁मृत्युदण्ड	-11.7616
▁सावरकर	-11.7616
▁सामयिक	-11.7616
▁खजाना	-11.7616
▁प्रखर	-11.7617
▁चटर्जी	-11.7617
▁व्हाइट	-11.7617
▁ग्राफिक्स	-11.7617
▁बंजर	-11.7618
▁रिव्यू	-11.7618
▁गंवा	-11.7622
▁रेशे	-11.7624
ओगे	-11.7654
▁टिप्पणिय	-11.7667
▁अंतरराष्ट्री	-11.767
▁अभिकथित	-11.7677
▁असुरक्षित	-11.7677
▁आक्सीजन	-11.7677
▁उज्ज्वल	-11.7677
▁प्रशंसनीय	-11.7677
▁मजहब	-11.7677
▁वगैरह	-11.7677
▁अग्रेषित	-11.7677
▁बंकिम	-11.7677
▁अवयस्क	-11.7677
▁मद्देनज	-11.7677
▁समीचीन	-11.7677
▁जन्मदिन	-11.7677
▁अधूरा	-11.7677
▁खामोश	-11.7677
▁पत्तियां	-11.7677
▁प्रयाग	-11.7677
▁शंख	-11.7677
▁कावेरी	-11.7679
▁1998	-11.7681
▁गुरुदेव	-11.7683
▁आखिरकार	-11.7685
▁रहस्यवाद	-11.769
यात्रा	-11.7696
▁शाहजहाँ	-11.7738
▁उत्प्रेरक	-11.7738
▁ढाँचा	-11.7738
▁न्यूयॉर्क	-11.7738
▁वाल्मीकि	-11.7738
▁ऑक्सीजन	-11.7738
▁लाभान्वित	-11.7738
▁उपजाऊ	-11.7738
▁उछल	-11.7739
▁उपधारणा	-11.774
▁ख़त्म	-11.7741
▁रविवार	-11.7741
▁पूर्वजों	-11.7742
▁पत्निय	-11.7743
▁समझदारी	-11.7745
▁इत्या	-11.7746
▁बेगम	-11.7753
▁पोलियो	-11.7769
चिह्न	-11.7793
▁END	-11.78
▁ग्रामोद्योग	-11.78
▁न्यायात्रय	-11.78
▁पैतृक	-11.78
▁फायदों	-11.78
▁सर्वसाधारण	-11.78
▁जिलाधीश	-11.78
▁संगमर्मर	-11.78
▁निरक्षर	-11.78
▁सर्जरी	-11.78
▁अँधेर	-11.78
▁शिमला	-11.78
▁अनुशंसा	-11.78
▁1990	-11.78
▁मलाशय	-11.7803
▁अभिवृद्धि	-11.7804
▁पारेषण	-11.7806
▁स्कोर	-11.7816
▁जकड़	-11.7822
मस्तिष्क	-11.7856
▁अनुक्रिया	-11.786
▁दृढ	-11.786
▁आयुर्विज्ञान	-11.7862
▁गोविन्द	-11.7862
▁टिकाऊ	-11.7862
▁अलंकृत	-11.7862
▁प्रिंस	-11.7863
log	-11.7863
▁चंचल	-11.7863
▁गुस्सा	-11.7864
▁परिकलित	-11.7865
▁किनारा	-11.7868
▁पागलपन	-11.7873
▁झोंक	-11.7891
द्वीप	-11.7918
▁चाहूंगी	-11.7925
▁जेरूसलम	-11.7925
▁प्रबुद्ध	-11.7925
▁मॉनिटर	-11.7925
▁स्क्रॉल	-11.7925
▁अनोखी	-11.7925
▁केंद्रशास	-11.7925
▁मुयमंत्र	-11.7925
▁गर्भगृह	-11.7926
▁ट्रान्स	-11.7927
▁महारानी	-11.7929
▁फिलिप	-11.7933
▁बिंब	-11.7938
पाणि	-11.796
▁प्रस्तु	-11.7965
▁इंग़्लै	-11.7988
▁तपस्या	-11.7988
▁सम्पादन	-11.7988
▁चरितार्थ	-11.7988
▁बैंकनोट	-11.7988
▁नगण्य	-11.7988
▁शहीद	-11.7988
▁दूरबीन	-11.7988
▁दखल	-11.7988
▁जुलूस	-11.7989
▁The	-11.7989
▁स्वरयंत्र	-11.7989
▁बरबाद	-11.799
▁पाठशाला	-11.7993
▁परिभान	-11.7994
▁रिलीज	-11.8006
▁सत्कार	-11.8029
शून्य	-11.805
▁अपवर्जित	-11.8051
▁जस्टिस	-11.8051
▁अलंकरण	-11.8051
▁मेन्यू	-11.8051
▁अजमेर	-11.8052
able	-11.8052
▁माइकल	-11.8053
▁विनिश्चित	-11.8055
▁उष्ण	-11.8057
▁आसाम	-11.8076
▁ब्राउज़	-11.8086
▁स्टॉ	-11.8102
विवेक	-11.8104
▁क्रास	-11.8108
▁चाइल्ड	-11.8115
▁उपनिषदों	-11.8115
▁फेडरेशन	-11.8115
▁मनपसंद	-11.8115
▁1996	-11.8115
▁1992	-11.8115
▁सल्फर	-11.8115
▁समेकन	-11.8115
▁जन्तु	-11.8115
▁ख़ुद	-11.8115
▁असहयोग	-11.8116
पार्श्व	-11.8119
▁फ़ॉर	-11.8124
ED	-11.8139
▁उपमहाद्वीप	-11.8179
▁कॉर्पोरेट	-11.8179
▁तंबाकू	-11.8179
▁दृष्टिगोचर	-11.8179
▁धर्मनिरपेक्ष	-11.8179
▁प्रियव्रत	-11.8179
▁प्रोद्भूत	-11.8179
▁बुराइयों	-11.8179
▁मशहूर	-11.8179
▁धोखे	-11.8179
▁शपथपत्र	-11.8181
▁लज्जा	-11.8182
▁प्रास्थिति	-11.8182
▁ब्लॉग	-11.8183
▁गोलाकार	-11.8188
▁टोल	-11.82
▁बृहत	-11.8237
▁जिन्होने	-11.8243
▁मथुरा	-11.8243
▁स्थायित्व	-11.8243
▁गुस्से	-11.8243
▁विलुप्त	-11.8243
▁असफ़ल	-11.8243
▁ढाका	-11.8244
▁मूत्राशय	-11.8244
▁कारखाना	-11.8245
▁वैश्वीकरण	-11.8246
▁मास्को	-11.8254
▁जिम्मेवार	-11.8262
▁परामर्शदाता	-11.8264
▁शलभ	-11.8298
▁बृहद	-11.8308
▁बिजनेस	-11.8308
▁अराजकता	-11.8308
▁पालतू	-11.8308
▁बेहोश	-11.8308
▁उपादान	-11.8308
▁गद्दी	-11.8308
▁ध्वस्त	-11.8308
▁पैराग्राफ	-11.8309
▁महोत्सव	-11.831
▁बंगलादेश	-11.831
▁पैलेस	-11.8311
▁साइबर	-11.8311
▁बन्धक	-11.8312
शब्द	-11.8314
▁घारा	-11.8317
साहेब	-11.8347
रूपेण	-11.8358
कार्बनिक	-11.8364
ions	-11.837
▁अंधविश्वास	-11.8374
▁ओडिशा	-11.8374
▁क़ुरान	-11.8374
▁पांडिच	-11.8374
▁मांसपेशी	-11.8374
▁डीवीडी	-11.8374
▁हेनरी	-11.8374
▁बुकमार्क	-11.8374
▁सूडान	-11.8374
▁कस्टम	-11.8375
▁परिशिष्ट	-11.8375
▁2008	-11.8376
▁मनोविज्ञान	-11.8377
▁कर्सर	-11.8378
port	-11.8379
▁फ़्ल	-11.838
न्वित	-11.8387
▁कूल्ह	-11.8392
दीप्ति	-11.8395
एसटी	-11.8438
▁अमानवीय	-11.8439
▁आधिपत्य	-11.8439
▁एनालॉग	-11.8439
▁चयापचय	-11.8439
▁न्यूजीलैंड	-11.8439
▁कंट्रोल	-11.8439
▁फाइबर	-11.8439
ऊँगा	-11.8443
▁मसीह	-11.8446
▁भूतकाल	-11.8448
▁दलदल	-11.8449
▁सकूं	-11.8453
▁कॉर्पोरेशन	-11.8506
▁ज़िम्मेदार	-11.8506
▁जॉर्डन	-11.8506
▁बर्खास्त	-11.8506
▁इस्तीफा	-11.8506
▁छिड़काव	-11.8506
▁पक्षाघात	-11.8506
▁वानिकी	-11.8506
▁विवाद्यक	-11.8507
▁दयालु	-11.8508
▁रेखाचित्र	-11.8508
▁चमड़े	-11.8509
▁पुनर्वित्त	-11.8509
▁स्टार्ट	-11.8525
ज्जत	-11.855
पुच्छ	-11.8556
▁द्योतक	-11.8572
▁न्यायाधिकरण	-11.8572
▁संसाधित	-11.8572
▁सिलसिला	-11.8572
▁निर्बाध	-11.8572
▁प्रकीर्ण	-11.8572
▁बैरिस्टर	-11.8572
▁तरक्की	-11.8572
▁बतौर	-11.8572
▁प्रत्याशित	-11.8572
▁भरोसे	-11.8572
▁सिकुड़	-11.8572
▁अतिशय	-11.8573
▁मनोनीत	-11.8574
▁संग्रहीत	-11.8574
▁अफवाह	-11.8575
▁कारागार	-11.8575
वृक्ष	-11.8594
ust	-11.8599
▁तीर्थयात्र	-11.8611
▁स्टीव	-11.8611
ath	-11.8633
ोपाध्याय	-11.8639
▁उत्सर्जित	-11.8639
▁गोखले	-11.8639
▁अनुपयुक्त	-11.8639
▁सम्मिलन	-11.8639
▁परात्पर	-11.8639
▁धड़कन	-11.8639
▁पाण्डव	-11.8639
▁रबड़	-11.8639
▁खातिर	-11.864
▁सहनशीलता	-11.8641
▁उद्यमशीलता	-11.8643
▁मातृत्व	-11.8643
सामान्य	-11.8645
▁ईराक	-11.8645
▁परोपकार	-11.8654
▁दुविधा	-11.8657
स्पर्श	-11.8657
▁अत्याधुनिक	-11.8707
▁अफसोस	-11.8707
▁इंग्लैण्ड	-11.8707
▁डेमोक्रेट	-11.8707
▁तम्बाकू	-11.8707
▁इरादे	-11.8707
▁अभिवचन	-11.8707
▁हकीकत	-11.8707
▁किंगडम	-11.8707
▁क्रान्ति	-11.8707
▁फ्लैट	-11.8709
▁हिचक	-11.8711
ug	-11.8714
▁ड्रग	-11.8772
▁कलकत्ते	-11.8775
▁गवर्नमेंट	-11.8775
▁मेधावी	-11.8775
▁क्रॉस	-11.8775
▁मैनुअल	-11.8775
▁पहेली	-11.8775
▁हवेली	-11.8775
▁बाधक	-11.8775
▁भाजक	-11.8776
▁पर्दे	-11.8782
ace	-11.8792
▁चिट्ठी	-11.8843
▁दुर्योधन	-11.8843
▁पिक्सेल	-11.8843
▁विवादास्पद	-11.8843
▁पाउडर	-11.8843
▁सिन्हा	-11.8843
▁उपदर्शित	-11.8843
▁जबर्दस्त	-11.8843
▁पुजारी	-11.8843
▁कर्मकांड	-11.8844
ोपरांत	-11.8844
द्रष्टा	-11.8844
▁क्षितिज	-11.8844
▁मार्शल	-11.8844
▁उन्माद	-11.8844
▁दुर्व्यवहार	-11.8844
▁पसीना	-11.8844
▁मुजरा	-11.8844
▁स्टार्टअप	-11.8844
▁प्लेटफार्म	-11.8844
▁मुहावर	-11.8844
▁पेयजल	-11.8845
▁हितलाभ	-11.8846
▁चूँक	-11.8847
▁नीरस	-11.8847
▁एकमेव	-11.8849
yaa	-11.8849
परिभाषित	-11.8864
▁अविश्वसनीय	-11.8912
▁उपनिषद्	-11.8912
▁ओड़िसा	-11.8912
▁कंप्यूटिंग	-11.8912
▁वेशभूषा	-11.8912
▁गणमान्य	-11.8912
▁हज़रत	-11.8912
▁जादुई	-11.8912
▁गूंज	-11.8913
▁1980	-11.8913
▁आयताकार	-11.8913
▁डायरेक्ट	-11.8913
▁फॉन्ट	-11.8914
▁निश्चल	-11.8914
▁ग्राह्य	-11.8914
▁जहरील	-11.8914
▁अन्तरात्मा	-11.8914
▁परिसंपत्तियां	-11.8916
▁विभूति	-11.8962
▁उद्देशिका	-11.8982
▁दशरथ	-11.8982
▁भर्त्सना	-11.8982
▁वर्चुअल	-11.8982
▁हस्तांतरित	-11.8982
▁आमंत्रण	-11.8982
▁निराश्रित	-11.8982
▁बगीचे	-11.8982
▁बूढ़ा	-11.8982
▁इलैक्ट्रानिक	-11.8982
▁पार्वती	-11.8982
,00,000	-11.8982
▁उखाड़	-11.8982
▁गन्ने	-11.8982
▁लालटेन	-11.8983
▁2010	-11.8983
▁शंकराचार्य	-11.8983
▁हाइड्रो	-11.905
▁अभ्यावेदन	-11.9052
▁कैल्शियम	-11.9052
▁फ़िल्टर	-11.9052
▁महत्वाकांक्षी	-11.9052
▁मुमकिन	-11.9052
▁ईसाइयों	-11.9052
▁धरातल	-11.9052
▁फाइनल	-11.9052
▁चौबीस	-11.9052
link	-11.9052
▁प्रांगण	-11.9052
▁ओजोन	-11.9052
▁कालिदास	-11.9052
▁बक्से	-11.9052
▁बुनकर	-11.9052
▁चतुष्	-11.9052
▁जठर	-11.9053
▁ब्लेयर	-11.9053
▁जघन	-11.9054
दयाल	-11.9056
प्रतिस्पर्धात्मक	-11.906
▁188	-11.911
▁रजिस्ट्री	-11.912
▁इन्टरनेट	-11.9122
▁काउंटी	-11.9122
▁थोरियम	-11.9122
▁बेवकूफ	-11.9122
▁समसामयिक	-11.9122
▁हस्पताल	-11.9122
▁बलात्कार	-11.9122
▁शिकागो	-11.9122
▁संवीक्षा	-11.9122
▁मालदीव	-11.9122
▁बंधपत्र	-11.9122
▁स्टेडियम	-11.9123
▁तिलहन	-11.9125
▁सीढ़िय	-11.9145
निर्धारित	-11.9148
▁परिकलन	-11.9149
“	-11.9151
▁प्रशिक्षक	-11.9193
▁परिक्रमा	-11.9193
▁अभिशाप	-11.9193
▁फ़रीद	-11.9193
▁कड़ियाँ	-11.9193
▁सादगी	-11.9193
▁झटके	-11.9193
▁सरोकार	-11.9194
▁सीढ़ी	-11.9194
कल्चर	-11.92
...	-11.9224
लंघन	-11.9225
पयोगी	-11.9255
▁आक्रोश	-11.9265
▁गवर्नेंस	-11.9265
▁ढाँचे	-11.9265
▁मॉरिशस	-11.9265
▁हार्मोन	-11.9265
▁दरवाज़े	-11.9265
▁डिब्बे	-11.9265
▁साबुन	-11.9265
▁अडिग	-11.9265
▁प्रकोप	-11.9265
▁भीष्म	-11.9266
▁अंतर्वस्तु	-11.9266
▁टाउन	-11.9267
डऋए	-11.9311
▁विक्टोरिया	-11.9337
▁सब्जियां	-11.9337
▁क्षोभ	-11.9337
▁नक्काशी	-11.9337
▁विसंगति	-11.9337
▁आईएसओ	-11.9337
▁घण्टे	-11.9337
▁गर्भधारण	-11.9337
▁स्वादिष्ट	-11.9337
▁मदिरा	-11.9337
▁पशुपालन	-11.9338
▁विद्यापीठ	-11.9338
▁शरियत	-11.9338
▁बैंगन	-11.9338
▁समाशोधन	-11.9338
▁मनीष	-11.9349
▁अंगुलि	-11.9366
शिक्षा	-11.9371
▁नवयुवक	-11.9409
▁निःस्वार्थ	-11.9409
▁सल्तनत	-11.9409
▁प्यूपा	-11.9409
▁मसालों	-11.9409
▁दीपावली	-11.9409
▁नदियाँ	-11.9409
▁चन्दु	-11.9409
▁विपुल	-11.9409
▁भतीज	-11.9416
मिज़ाज	-11.9433
▁इंजेक्शन	-11.9482
▁उत्खनन	-11.9482
▁बीकानेर	-11.9482
▁मधुमक्खी	-11.9482
▁नौवहन	-11.9482
▁आवागमन	-11.9482
▁डिब्बा	-11.9482
▁निरहता	-11.9482
▁लन्दन	-11.9482
ईजीपी	-11.9482
▁विखंडन	-11.9482
▁बिगाड़	-11.9482
▁नेहरु	-11.9483
▁अंगूठ	-11.9483
▁ऐंठन	-11.9483
▁लैटिन	-11.9483
▁हैल्थ	-11.9485
▁कुसुम	-11.953
ानुभूति	-11.9554
▁इंसुलिन	-11.9556
▁द्रौपदी	-11.9556
▁संवितरण	-11.9556
▁1997	-11.9556
▁अनूदित	-11.9556
▁परिकल्पित	-11.9556
▁निलंबन	-11.9556
▁अजनबी	-11.9556
▁पुतली	-11.9556
▁बॉम्बे	-11.9556
▁मेहमान	-11.9556
▁उपायुक्त	-11.9556
▁ख़राब	-11.9556
▁प्रतियोगी	-11.9556
▁नालंदा	-11.9556
▁कीजिये	-11.9557
▁अर्हक	-11.9558
▁आज्ञापक	-11.9558
▁मनोवृत्ति	-11.9558
▁ऑप्टिकल	-11.963
▁क़ानून	-11.963
▁देहरादून	-11.963
▁संस्मरण	-11.963
▁फ़रवरी	-11.963
▁पायलट	-11.963
▁हुक्म	-11.963
▁मक़्ख	-11.963
▁संबन्धी	-11.963
▁रमेश	-11.963
▁मोतीलाल	-11.963
▁शौर्य	-11.963
▁क्षत्रिय	-11.963
▁वज़न	-11.9631
▁रूढि	-11.9632
▁निर्धारक	-11.9647
ग्रन्थ	-11.9649
शोष	-11.967
डऋई	-11.969
▁असंतुलन	-11.9704
▁कैलेंडर	-11.9704
▁नैदानिक	-11.9704
▁पुनर्जागरण	-11.9704
▁सेंटीमीटर	-11.9704
ोत्पादक	-11.9704
▁रूकावट	-11.9704
▁खुजली	-11.9704
▁प्रच्छन्न	-11.9704
▁अय्यर	-11.9704
▁थोडी	-11.9704
संतृप्त	-11.9705
▁चौहान	-11.9706
▁कांस्य	-11.9707
▁आईपीसी	-11.9719
▁ठिकान	-11.9728
दंश	-11.974
▁कमोडिटी	-11.9779
▁गोदावरी	-11.9779
▁तादात्म्य	-11.9779
▁राजकोषीय	-11.9779
▁सज्जित	-11.9779
▁फेफड़े	-11.9779
▁दण्डादेश	-11.9779
▁बीबीसी	-11.9779
▁संगमरमर	-11.9779
▁पुथल	-11.9779
▁नब्बे	-11.978
▁द्वास	-11.978
▁key	-11.9855
▁अनभिज्ञ	-11.9855
▁निरंकुश	-11.9855
▁यथोचित	-11.9855
▁स्टांप	-11.9855
स्फुट	-11.9857
▁उष्म	-11.9857
▁फँस	-11.9857
▁इलेक्ट्रॉ	-11.993
▁आनुषंगिक	-11.9931
▁एजेंसियां	-11.9931
▁कॉरपोरेट	-11.9931
▁टैरिफ	-11.9931
▁मुस्कुरा	-11.9931
▁अंतरफलक	-11.9932
▁शिक्षार्थियों	-11.9932
▁पीढी	-11.9932
▁चक्रवात	-11.9932
▁नितांत	-11.9932
▁पुनर्जीवि	-11.9939
▁जिम्मे	-11.9984
▁कन्नड	-12.0006
▁पुरःस्थापित	-12.0008
▁प्रफुल्ल	-12.0008
▁माइक्रोसॉफ्ट	-12.0008
▁कदाचित	-12.0008
▁खिड़किय	-12.0008
▁प्राक्कलन	-12.0008
▁सविनय	-12.0008
▁बारंबार	-12.0008
▁छद्म	-12.0008
▁ज्वालामुखी	-12.0009
▁अन्तर्विष्ट	-12.0009
▁शरणार्थी	-12.0009
▁क्षयरोग	-12.0009
▁स्वशास	-12.0009
▁ख़ुश	-12.0009
▁सिंहासन	-12.001
▁नेटाल	-12.0012
▁प्याज	-12.0016
▁ईसवी	-12.0016
▁उंगलिय	-12.0017
out	-12.0022
▁परहेज	-12.0059
▁सुपुर्द	-12.0083
▁अभिनंदन	-12.0086
▁ऋग्वेद	-12.0086
▁कुक्कुट	-12.0086
▁डेवलपमेंट	-12.0086
▁मूंगफली	-12.0086
▁उत्तेजक	-12.0086
▁कुलाध्यक्ष	-12.0086
▁मुग़ल	-12.0086
▁स्टाम्प	-12.0086
▁कुवैत	-12.0086
▁नफरत	-12.0086
जिह्वा	-12.0087
▁वज्र	-12.0087
▁एप्पल	-12.0089
▁दैव	-12.0121
जिसपर	-12.0149
विधाओं	-12.0155
▁जोसेफ	-12.0162
▁आगंतुक	-12.0164
▁मुट्ठी	-12.0164
▁सॉल्वैंट	-12.0164
▁मीयादी	-12.0164
▁मिठाई	-12.0164
▁मसाले	-12.0164
▁अस्सी	-12.0165
▁संकलक	-12.0179
▁अंकगणितीय	-12.0243
▁अथारिटी	-12.0243
▁अन्तर्निहित	-12.0243
▁औरंगज़ेब	-12.0243
▁चिरस्थायी	-12.0243
▁टेक्नोलॉजी	-12.0243
▁बहरहाल	-12.0243
▁यूट्यूब	-12.0243
▁सिपाहिय	-12.0243
▁नक्शे	-12.0243
▁बरकरार	-12.0243
_	-13.9451
[	-13.9452
]	-13.9453
<	-13.9454
!	-13.9455
#	-13.9456
&	-13.9457
"	-13.9458
>	-13.9459
%	-13.946
?	-13.9461
'	-13.9462
(	-13.9463
)	-13.9464
-	-13.9465
।	-13.9466
