<unk>	0
<s>	0
</s>	0
UuRrLl	0
DdAaTtEe	0
NnUuMm	0
▁क	-0
▁स	-1
▁ह	-2
▁प	-3
▁म	-4
्र	-5
ार	-6
▁के	-7
▁अ	-8
▁है	-9
▁व	-10
्य	-11
ें	-12
▁ज	-13
▁न	-14
ों	-15
▁ब	-16
या	-17
र्	-18
▁द	-19
▁में	-20
ता	-21
▁उ	-22
ान	-23
▁ल	-24
▁प्र	-25
▁र	-26
िक	-27
▁की	-28
▁आ	-29
ने	-30
▁औ	-31
्त	-32
▁कि	-33
▁कर	-34
▁त	-35
▁और	-36
ित	-37
▁को	-38
▁का	-39
▁भ	-40
▁से	-41
ना	-42
▁ग	-43
▁इ	-44
▁पर	-45
्व	-46
▁वि	-47
▁ए	-48
▁य	-49
▁हो	-50
▁सं	-51
ाल	-52
▁श	-53
िय	-54
था	-55
िए	-56
्ष	-57
▁च	-58
▁इस	-59
ति	-60
्ट	-61
▁हैं	-62
▁एक	-63
्या	-64
ही	-65
▁सम	-66
न्	-67
▁जा	-68
ती	-69
▁लिए	-70
ते	-71
ाम	-72
स्	-73
वा	-74
▁नि	-75
के	-76
हा	-77
ड़	-78
त्र	-79
िया	-80
सी	-81
▁अप	-82
क्ष	-83
से	-84
ोग	-85
▁अध	-86
▁अन	-87
▁रा	-88
हीं	-89
िल	-90
ेश	-91
▁यह	-92
▁या	-93
▁भी	-94
▁नहीं	-95
रा	-96
▁(	-97
ारा	-98
▁ख	-99
कार	-100
ाह	-101
ास	-102
री	-103
नी	-104
▁किया	-105
ंग	-106
ष्ट	-107
क्त	-108
▁जो	-109
▁ने	-110
▁करने	-111
त्	-112
का	-113
िन	-114
▁कार	-115
▁सा	-116
▁उस	-117
▁स्	-118
▁फ	-119
▁दे	-120
▁उप	-121
द्	-122
▁थ	-123
िस	-124
ियों	-125
कर	-126
▁हम	-127
▁बा	-128
ले	-129
ला	-130
सा	-131
▁सक	-132
▁मु	-133
ंध	-134
▁तथा	-135
ंत	-136
गा	-137
की	-138
ूप	-139
▁था	-140
▁उन	-141
▁ध	-142
▁ही	-143
भा	-144
▁भार	-145
मा	-146
▁अनु	-147
ाने	-148
्री	-149
ूर्	-150
▁हु	-151
वि	-152
्च	-153
▁द्व	-154
ाय	-155
ओं	-156
▁सु	-157
▁गया	-158
ंद	-159
स्त	-160
▁ले	-161
▁ऐ	-162
▁अधिक	-163
▁कु	-164
ंड	-165
▁आप	-166
▁स्व	-167
द्ध	-168
ल्	-169
▁तो	-170
▁किसी	-171
▁द्वारा	-172
▁रूप	-173
▁राज	-174
ारी	-175
▁व्य	-176
म्	-177
▁ड	-178
▁विश	-179
▁रह	-180
▁निर्	-181
ोज	-182
द्य	-183
ीन	-184
▁वह	-185
ैं	-186
ाप	-187
देश	-188
न्ह	-189
बंध	-190
▁कार्य	-191
रे	-192
ली	-193
▁अपने	-194
िव	-195
▁वाल	-196
त्त	-197
धार	-198
▁प्रति	-199
▁वर्	-200
ुर	-201
▁भा	-202
▁वे	-203
भी	-204
योग	-205
▁पह	-206
ार्	-207
▁चाह	-208
▁जिस	-209
▁घ	-210
ाना	-211
▁छ	-212
▁साथ	-213
▁ट	-214
रण	-215
▁तक	-216
▁क्ष	-217
▁भारत	-218
क्ति	-219
ंत्र	-220
जी	-221
में	-222
क्र	-223
कि	-224
▁न्या	-225
ारे	-226
दि	-227
▁उन्ह	-228
िर	-229
दा	-230
▁स्थ	-231
दी	-232
▁जाता	-233
गी	-234
▁राष्ट	-235
स्थ	-236
▁करना	-237
ष्	-238
▁अव	-239
▁मह	-240
ुत	-241
ूल	-242
ृत	-243
चार	-244
▁दो	-245
▁मा	-246
ियम	-247
▁थे	-248
िश	-249
ढ़	-250
▁मे	-251
खा	-252
ब्	-253
▁कुछ	-254
▁कोई	-255
▁बह	-256
नों	-257
▁थी	-258
▁साम	-259
मान	-260
ंच	-261
▁पा	-262
च्च	-263
▁सर	-264
▁ला	-265
▁होता	-266
▁मैं	-267
▁दिया	-268
्रे	-269
्ञ	-270
▁विक	-271
्यों	-272
▁पु	-273
▁जी	-274
पा	-275
▁सकता	-276
ूर	-277
▁सि	-278
्छ	-279
न्द	-280
ेत्र	-281
जा	-282
क्	-283
▁जब	-284
ूर्ण	-285
गे	-286
ये	-287
िका	-288
न्न	-289
▁सी	-290
ाप्त	-291
धि	-292
र्थ	-293
▁मान	-294
▁इन	-295
ीय	-296
वे	-297
▁अभ	-298
▁कम	-299
▁समय	-300
▁करते	-301
▁बी	-302
▁क्षेत्र	-303
▁मिल	-304
▁संबंध	-305
िप	-306
▁हुए	-307
भाव	-308
कों	-309
▁करता	-310
हां	-311
▁अंत	-312
गर	-313
धान	-314
▁न्याया	-315
▁अन्य	-316
▁सू	-317
र्म	-318
▁जै	-319
वन	-320
च्छ	-321
▁लोग	-322
क्षा	-323
▁जाए	-324
▁बना	-325
स्था	-326
▁पू	-327
▁सरकार	-328
नि	-329
को	-330
ेष	-331
▁राष्ट्र	-332
▁अपनी	-333
▁उत्	-334
्रा	-335
▁देश	-336
▁चाहिए	-337
्रीय	-338
ज़	-339
▁हि	-340
त्य	-341
दान	-342
▁परि	-343
ोट	-344
▁तर	-345
▁रहे	-346
▁राज्य	-347
ज्ञ	-348
▁प्रा	-349
▁सह	-350
ोक	-351
▁रख	-352
▁रहा	-353
▁वर्ष	-354
▁उनके	-355
चना	-356
▁विश्व	-357
▁गई	-358
ूर्व	-359
▁होने	-360
▁वाले	-361
गत	-362
▁बहुत	-363
तीय	-364
▁बाद	-365
▁सम्	-366
र्श	-367
ूस	-368
लय	-369
▁बात	-370
▁गु	-371
▁करें	-372
पति	-373
▁प्राप्त	-374
▁कहा	-375
िक्ष	-376
ेल	-377
दन	-378
श्य	-379
▁दी	-380
▁बन	-381
करण	-382
वं	-383
▁ओ	-384
▁जाने	-385
▁सभी	-386
प्र	-387
ौर	-388
ुल	-389
ड़ा	-390
▁प्रकार	-391
स्ता	-392
▁उसके	-393
▁सब	-394
ंक	-395
ुक्त	-396
मी	-397
जन	-398
ानी	-399
▁होती	-400
िख	-401
ोंने	-402
एं	-403
▁आय	-404
ोध	-405
▁व्यक्ति	-406
▁ऐसे	-407
ड़ी	-408
धिक	-409
िति	-410
▁देख	-411
▁कारण	-412
वर्	-413
▁चु	-414
पूर्ण	-415
ालय	-416
▁भारतीय	-417
▁न्यायालय	-418
ोल	-419
्ल	-420
बा	-421
ंप	-422
श्च	-423
ध्य	-424
▁हुआ	-425
▁होगा	-426
त्म	-427
▁तरह	-428
▁गए	-429
द्योग	-430
▁अधिन	-431
▁लग	-432
ग्र	-433
▁जि	-434
▁कह	-435
्याप	-436
▁पी	-437
▁इसके	-438
▁सकते	-439
िट	-440
▁एवं	-441
▁विकास	-442
▁उसे	-443
▁प्रश	-444
ड़े	-445
▁जन	-446
▁किए	-447
▁राष्ट्रपति	-448
▁अनुस	-449
▁अधिनियम	-450
▁उन्हें	-451
िम	-452
▁माम	-453
▁आव	-454
वी	-455
बर	-456
▁उन्होंने	-457
िये	-458
▁ना	-459
▁क्या	-460
र्व	-461
▁यदि	-462
▁पूर्व	-463
▁मूल	-464
किन	-465
▁नी	-466
▁वा	-467
मे	-468
सर	-469
तन	-470
पर	-471
▁नाम	-472
▁पहले	-473
▁काम	-474
ोजना	-475
▁दु	-476
▁धारा	-477
वाद	-478
त्व	-479
वल	-480
▁जान	-481
िता	-482
▁'	-483
▁लेकिन	-484
क्रम	-485
्यू	-486
▁आर	-487
▁ऐसा	-488
तिक	-489
▁विचार	-490
▁दूस	-491
▁ऊ	-492
तर	-493
माण	-494
▁उच्च	-495
चित	-496
▁हू	-497
टी	-498
ुद्ध	-499
ाली	-500
▁ता	-501
▁क्र	-502
झे	-503
▁समा	-504
धा	-505
▁विशेष	-506
▁अस	-507
▁स्थान	-508
▁परिव	-509
िला	-510
श्यक	-511
्ड	-512
▁मुख	-513
कृत	-514
यी	-515
▁ग्र	-516
▁जाती	-517
ष्ठ	-518
टा	-519
▁ई	-520
▁ऐसी	-521
▁बढ़	-522
▁बि	-523
▁आधार	-524
▁स्त	-525
ोर	-526
िंग	-527
▁लोगों	-528
ां	-529
ूम	-530
▁बारे	-531
न्त	-532
▁अधिकार	-533
▁बे	-534
▁जीवन	-535
▁अब	-536
▁स्था	-537
▁पै	-538
▁आवश्यक	-539
▁निय	-540
षण	-541
▁हमारे	-542
▁भाग	-543
ील	-544
▁ये	-545
्स	-546
▁श्री	-547
▁निक	-548
▁उनकी	-549
ास्त	-550
ियां	-551
▁वै	-552
टर	-553
▁प्रभाव	-554
▁तु	-555
ोर्	-556
▁अधीन	-557
ोप	-558
▁समझ	-559
▁सेवा	-560
▁होते	-561
▁उत्त	-562
यन	-563
लों	-564
क्षण	-565
ची	-566
िन्न	-567
षा	-568
▁उपयोग	-569
▁शिक्ष	-570
कृ	-571
ाइ	-572
▁हुई	-573
▁सद	-574
▁क्यों	-575
मु	-576
▁रु	-577
▁दिन	-578
ार्थ	-579
▁मुझे	-580
▁जैसे	-581
▁ओर	-582
▁केवल	-583
▁मन	-584
दार	-585
ंस	-586
▁फिर	-587
▁जाना	-588
हाय	-589
▁रही	-590
निक	-591
क्रिया	-592
कारी	-593
▁कृ	-594
धी	-595
▁व्यव	-596
ल्प	-597
ंभ	-598
▁बार	-599
ख्या	-600
▁प्रयोग	-601
ेक	-602
रिक	-603
▁अथ	-604
▁बीच	-605
चा	-606
तु	-607
ुद	-608
ताओं	-609
िल्	-610
▁जिन	-611
▁सहाय	-612
वाह	-613
कर्	-614
▁चल	-615
रों	-616
बी	-617
▁उत्पा	-618
ून	-619
▁“	-620
तः	-621
णी	-622
▁ढ	-623
▁हों	-624
ज्ञान	-625
▁देने	-626
तम	-627
▁ठ	-628
▁अथवा	-629
▁लगा	-630
व्य	-631
▁प्रत्य	-632
▁वाली	-633
▁प्रदान	-634
▁दृ	-635
्न	-636
▁पार	-637
▁पास	-638
▁सो	-639
फल	-640
दे	-641
▁अल	-642
फ़	-643
पी	-644
..	-645
दर्श	-646
हार	-647
▁विभ	-648
▁खा	-649
▁प्रक्रिया	-650
▁पुर	-651
लब्	-652
▁अपना	-653
▁कै	-654
▁जिसमें	-655
▁लोक	-656
▁सकती	-657
ब्द	-658
धारण	-659
भव	-660
▁हे	-661
▁इसे	-662
▁दोनों	-663
▁उपलब्	-664
त्ता	-665
शन	-666
▁राष्ट्रीय	-667
▁कंप	-668
▁जहां	-669
▁करती	-670
ंब	-671
▁होना	-672
त्मक	-673
▁विर	-674
ेद	-675
▁व्याप	-676
▁महत्व	-677
ेज	-678
ित्र	-679
▁पहु	-680
द्योगिक	-681
हाँ	-682
▁स्प	-683
▁तब	-684
▁निर	-685
▁उसकी	-686
▁विधि	-687
▁न्याय	-688
▁पुन	-689
सं	-690
▁स्थाप	-691
युक्त	-692
भाग	-693
▁योजना	-694
▁सके	-695
मिक	-696
▁बद	-697
▁झ	-698
▁बाह	-699
ुक	-700
▁सदस	-701
▁पश्च	-702
▁प्रण	-703
ोड़	-704
▁विष	-705
ूत	-706
▁हर	-707
▁बैं	-708
▁करे	-709
▁संग	-710
▁सबसे	-711
▁सामान	-712
त्रा	-713
▁मौ	-714
▁हा	-715
ण्ड	-716
▁फ़	-717
▁लिया	-718
▁बै	-719
▁अच्छ	-720
▁अर्थ	-721
▁उपलब्ध	-722
स्ट	-723
▁ऑ	-724
चे	-725
शा	-726
▁क्योंकि	-727
वेश	-728
श्व	-729
▁वृ	-730
▁मुख्य	-731
▁प्रे	-732
▁स्वा	-733
▁शुर	-734
▁शिक्षा	-735
ोह	-736
▁बच्च	-737
तों	-738
ामी	-739
▁जाते	-740
▁हमें	-741
ाला	-742
▁अंतर	-743
▁संबंधित	-744
▁सूचना	-745
तंत्र	-746
ोजन	-747
ंतु	-748
▁जर	-749
▁हूं	-750
▁उद्	-751
ित्त	-752
न्द्र	-753
▁पद	-754
▁दौर	-755
▁स्थिति	-756
▁अर्	-757
ंट	-758
िखा	-759
▁अनुसार	-760
ेट	-761
▁ब्र	-762
▁स्ट	-763
वरण	-764
कृति	-765
ंज	-766
▁अंग	-767
▁अति	-768
र्क	-769
▁लिख	-770
▁शाम	-771
▁छोट	-772
▁तै	-773
ष्टि	-774
डी	-775
स्थान	-776
▁सहायता	-777
▁विषय	-778
ित्व	-779
▁नियम	-780
▁भाषा	-781
▁लिये	-782
लिए	-783
▁उत्तर	-784
▁आज	-785
▁अध्य	-786
▁जु	-787
▁कई	-788
▁उठ	-789
रूप	-790
▁वास्त	-791
▁योग	-792
▁केंद	-793
▁दा	-794
▁वस्त	-795
त्ति	-796
▁सुर	-797
▁मै	-798
्यान	-799
▁विभिन्न	-800
▁शब्द	-801
क्ट	-802
▁जाएगा	-803
▁व्यक्त	-804
हर	-805
▁सर्व	-806
धन	-807
▁ऋ	-808
स्व	-809
▁अगर	-810
▁यु	-811
▁मामले	-812
ेय	-813
काश	-814
मुख	-815
फी	-816
काल	-817
▁भूम	-818
िस्ट	-819
▁स्वी	-820
▁गा	-821
ासन	-822
इट	-823
▁दौरान	-824
▁सामान्य	-825
▁इत	-826
▁पत्र	-827
▁बु	-828
▁इसलिए	-829
▁उसका	-830
▁उनका	-831
▁शक्ति	-832
▁सुन	-833
धारित	-834
▁मंत्र	-835
्म	-836
▁अने	-837
▁इसका	-838
▁:	-839
▁वाला	-840
ज्य	-841
▁शामिल	-842
▁कभी	-843
ारों	-844
मत	-845
नल	-846
ंजी	-847
▁संप	-848
ोड	-849
▁पूर्ण	-850
वास	-851
▁संघ	-852
▁जल	-853
वान	-854
ात	-855
▁उसने	-856
▁आदि	-857
ूह	-858
▁तैय	-859
▁अवसर	-860
▁परिवर्	-861
▁वास्तव	-862
▁विद्य	-863
▁ज्ञ	-864
▁प्रस	-865
▁अनेक	-866
निया	-867
गम	-868
▁कान	-869
▁संख्या	-870
ुट	-871
ुष	-872
▁पक्ष	-873
▁गये	-874
▁लाभ	-875
▁दूसरे	-876
▁पहुंच	-877
ोर्ट	-878
टना	-879
शि	-880
▁महा	-881
यं	-882
▁संस	-883
द्र	-884
▁माध्य	-885
▁दर	-886
▁उपबंध	-887
▁तीन	-888
▁बता	-889
ाज	-890
नीय	-891
ेंगे	-892
पाल	-893
शत	-894
▁रुप	-895
स्थित	-896
▁अं	-897
ृत्य	-898
▁प्रौ	-899
▁प्रत्येक	-900
▁सिद्ध	-901
▁कल	-902
▁&	-903
▁प्रया	-904
▁साह	-905
न्तु	-906
▁उद्योग	-907
▁दूर	-908
कट	-909
ूट	-910
▁निर्माण	-911
▁मानव	-912
▁व्या	-913
▁प्रय	-914
क्षित	-915
▁पृ	-916
▁बनाने	-917
▁ध्यान	-918
दाय	-919
▁डि	-920
▁जिसे	-921
▁होगी	-922
र्इ	-923
▁नई	-924
▁कार्यक्रम	-925
▁आई	-926
▁यहां	-927
बन्	-928
वादी	-929
सल	-930
▁संर	-931
▁हेतु	-932
ोन	-933
र्ष	-934
▁अग	-935
▁महत्वपूर्ण	-936
▁समाज	-937
▁स्पष्ट	-938
ाई	-939
▁मध्य	-940
▁तैयार	-941
▁अंतर्	-942
▁अलग	-943
▁एस	-944
▁प्रयास	-945
ांत	-946
▁ची	-947
▁संवि	-948
▁संस्था	-949
▁s	-950
▁बैंक	-951
▁भर	-952
▁रोग	-953
▁संस्	-954
णय	-955
▁”	-956
▁उद	-957
र्थिक	-958
▁बिना	-959
निर्	-960
▁धर्म	-961
▁पता	-962
▁बाहर	-963
▁आपको	-964
▁वित्त	-965
▁शुरू	-966
ग्रह	-967
▁विदेश	-968
▁मत	-969
स्या	-970
्टी	-971
▁स्तर	-972
▁पि	-973
▁देता	-974
▁प्रतिशत	-975
म्प	-976
▁विध	-977
▁खु	-978
ोष	-979
▁प्रौद्योगिक	-980
▁हमारी	-981
▁गुण	-982
▁जिसके	-983
धारा	-984
▁प्रार	-985
▁आदेश	-986
गू	-987
▁रे	-988
ंह	-989
▁जनता	-990
▁‘	-991
ारण	-992
▁अन्त	-993
▁परिण	-994
▁ली	-995
एस	-996
ुओं	-997
▁पड़	-998
▁श्रे	-999
हास	-1000
▁इससे	-1001
▁आगे	-1002
म्ब	-1003
ठन	-1004
▁शी	-1005
▁सौ	-1006
▁समान	-1007
▁कर्म	-1008
▁आवश्यकता	-1009
ूर्ति	-1010
▁#	-1011
▁संस्थान	-1012
▁करके	-1013
धीश	-1014
जार	-1015
आई	-1016
हत	-1017
▁चि	-1018
स्प	-1019
▁समस्या	-1020
▁विन	-1021
▁माल	-1022
▁देना	-1023
▁बल्	-1024
▁आर्थिक	-1025
▁गति	-1026
▁मार्	-1027
षि	-1028
क्ता	-1029
▁प्रो	-1030
▁तुम	-1031
▁डा	-1032
▁शु	-1033
▁प्रमुख	-1034
▁लेख	-1035
▁ज़	-1036
▁निर्धारित	-1037
मार	-1038
्यता	-1039
मता	-1040
▁इसी	-1041
▁निम्	-1042
▁श्र	-1043
दिष्ट	-1044
▁सार	-1045
▁लागू	-1046
▁इसमें	-1047
द्व	-1048
▁वहां	-1049
▁आपके	-1050
▁विस्त	-1051
▁क्षेत्रों	-1052
▁निर्णय	-1053
▁स्वयं	-1054
द्धि	-1055
▁उल्	-1056
▁गयी	-1057
▁भाव	-1058
▁जारी	-1059
▁उद्देश	-1060
ाइल	-1061
▁मेरे	-1062
भार	-1063
इन	-1064
विधा	-1065
िष्ट	-1066
ाजिक	-1067
भग	-1068
शी	-1069
▁पूरी	-1070
▁नियंत्र	-1071
▁रिप	-1072
▁नीति	-1073
विद्य	-1074
▁विश्वास	-1075
ूरी	-1076
▁ती	-1077
तिहास	-1078
▁मज	-1079
▁सीमा	-1080
▁काफी	-1081
ियन	-1082
वर	-1083
िश्च	-1084
▁खंड	-1085
मित	-1086
▁प्रस्त	-1087
▁परिणाम	-1088
▁प्रकाश	-1089
दों	-1090
्यादा	-1091
टक	-1092
ियो	-1093
▁आस	-1094
▁सामाजिक	-1095
▁सभा	-1096
एँ	-1097
▁स्क	-1098
▁प्रस्ता	-1099
▁आध	-1100
ेन	-1101
पि	-1102
▁प्रौद्योगिकी	-1103
ालन	-1104
ॉल	-1105
जू	-1106
▁पूरा	-1107
▁स्वतंत्र	-1108
▁प्रणाली	-1109
वेदन	-1110
▁दिखा	-1111
▁अपे	-1112
विद्यालय	-1113
ंदर	-1114
▁ऋण	-1115
▁माध्यम	-1116
▁घर	-1117
▁प्रबंध	-1118
▁गै	-1119
तियों	-1120
▁मी	-1121
▁आया	-1122
▁हाल	-1123
क्ष्य	-1124
लेख	-1125
▁समूह	-1126
▁स्वीकार	-1127
▁प्रस्ताव	-1128
▁सुधार	-1129
▁गो	-1130
रित	-1131
बद्ध	-1132
▁कवि	-1133
▁स्थापित	-1134
▁वी	-1135
▁बैठ	-1136
चन	-1137
▁लगभग	-1138
▁मूल्य	-1139
पत्र	-1140
ान्त	-1141
▁हाथ	-1142
▁न्यायाधीश	-1143
▁समुद	-1144
हित	-1145
▁हूँ	-1146
▁मामलों	-1147
▁कंपनी	-1148
▁-	-1149
न्म	-1150
...	-1151
▁कर्	-1152
▁हिंद	-1153
▁कठ	-1154
▁विभाग	-1155
वाई	-1156
ीक	-1157
▁आयोग	-1158
▁जानकारी	-1159
▁सूची	-1160
▁ज्ञान	-1161
पन	-1162
▁अवधि	-1163
▁पुस्त	-1164
▁आम	-1165
▁सम्म	-1166
▁अपरा	-1167
▁सर्	-1168
▁क्रिया	-1169
ेशन	-1170
▁सदस्य	-1171
शोध	-1172
▁मैंने	-1173
▁यू	-1174
▁भवन	-1175
▁दक्ष	-1176
▁निष्	-1177
▁मद	-1178
▁रिपोर्ट	-1179
▁सफल	-1180
▁प्राधिक	-1181
्ले	-1182
तान	-1183
▁अम	-1184
▁चे	-1185
▁सहयोग	-1186
▁वर्ग	-1187
▁व्यवस्था	-1188
▁जैसा	-1189
▁सुरक्षा	-1190
▁मृत्य	-1191
▁कृषि	-1192
ंख	-1193
▁फै	-1194
ित्य	-1195
▁बड़ी	-1196
▁अत्य	-1197
▁गण	-1198
▁सुविधा	-1199
▁विश्वविद्यालय	-1200
▁किस	-1201
▁समाप्त	-1202
▁बदल	-1203
▁धन	-1204
वृ	-1205
स्तान	-1206
▁देशों	-1207
▁अमे	-1208
पन्न	-1209
सम	-1210
▁रंग	-1211
बार	-1212
▁संविधान	-1213
▁स्थित	-1214
▁कौ	-1215
च्छेद	-1216
▁डे	-1217
ुग	-1218
शील	-1219
▁अधिकारी	-1220
ष्ण	-1221
▁केंद्र	-1222
ोस	-1223
▁राम	-1224
विध	-1225
▁a	-1226
▁इसकी	-1227
▁जिन्ह	-1228
▁कुल	-1229
▁रखने	-1230
▁व्यापार	-1231
▁देते	-1232
क्स	-1233
▁अर	-1234
▁दर्श	-1235
▁शरी	-1236
ियोजना	-1237
यर	-1238
▁जिसका	-1239
िकित	-1240
▁जिससे	-1241
▁अभी	-1242
▁समर्थ	-1243
ोषण	-1244
ष्ट्रीय	-1245
टन	-1246
▁कोश	-1247
▁त्र	-1248
▁छोड़	-1249
▁बाल	-1250
ेर	-1251
▁परिवर्तन	-1252
▁उत्पादन	-1253
पुर	-1254
▁अंतर्गत	-1255
▁तरी	-1256
▁प्रस्तुत	-1257
▁परी	-1258
सित	-1259
हन	-1260
▁परियोजना	-1261
▁ठीक	-1262
▁विशिष्ट	-1263
▁पिछ	-1264
▁जाये	-1265
▁संबंधी	-1266
▁विज्ञान	-1267
▁उद्देश्य	-1268
▁आन	-1269
वार	-1270
क़	-1271
▁टी	-1272
▁अतिरिक	-1273
▁अनुम	-1274
त्या	-1275
दारी	-1276
र्भ	-1277
▁अभि	-1278
▁रखा	-1279
ंगा	-1280
▁उपधारा	-1281
▁जग	-1282
िखित	-1283
▁राशि	-1284
तना	-1285
▁बल्कि	-1286
भर	-1287
▁ऊपर	-1288
▁महिला	-1289
▁चाहते	-1290
थम	-1291
▁शा	-1292
त्स	-1293
▁मंद	-1294
▁निश्च	-1295
जों	-1296
वाल	-1297
हरा	-1298
जे	-1299
▁मेरी	-1300
यों	-1301
आर	-1302
स्थ्य	-1303
िल्ली	-1304
▁बड़े	-1305
▁साल	-1306
ाव	-1307
▁वेब	-1308
चान	-1309
▁शै	-1310
कल	-1311
प्	-1312
ाया	-1313
▁आने	-1314
▁शरीर	-1315
ण्	-1316
▁डाल	-1317
▁चार	-1318
ंधान	-1319
▁क्षमता	-1320
▁अंग्रे	-1321
त्मा	-1322
्रो	-1323
▁जीव	-1324
दम	-1325
▁वर्त	-1326
ीकरण	-1327
▁सही	-1328
▁सै	-1329
▁चला	-1330
▁अतिरिक्त	-1331
पूर्व	-1332
▁देखा	-1333
▁ज्यादा	-1334
▁बल	-1335
ंधी	-1336
▁शिक	-1337
ेड	-1338
बन्ध	-1339
▁रो	-1340
▁समिति	-1341
▁प्रदेश	-1342
ाहरण	-1343
▁चिकित	-1344
कर्ता	-1345
▁कहते	-1346
▁मार	-1347
कृतिक	-1348
▁प्रमाण	-1349
▁सामने	-1350
▁आरंभ	-1351
▁यहाँ	-1352
▁युद्ध	-1353
▁अप्र	-1354
लो	-1355
▁वस्तु	-1356
▁मार्ग	-1357
▁लेने	-1358
ुप	-1359
▁नीचे	-1360
▁दृष्टि	-1361
▁वर्षों	-1362
▁पाठ	-1363
▁वर्ण	-1364
▁स्वास्थ्य	-1365
▁अनुसंधान	-1366
▁सिंह	-1367
▁श्रेणी	-1368
▁अपराध	-1369
▁अनुभव	-1370
▁जरूर	-1371
▁उत्पाद	-1372
▁मांग	-1373
▁पढ़	-1374
▁निवेश	-1375
▁प्रश्न	-1376
श्	-1377
▁काल	-1378
▁पानी	-1379
▁प्रशिक्ष	-1380
जर	-1381
र्स	-1382
▁दिए	-1383
कु	-1384
▁वर्तमान	-1385
▁पं	-1386
▁साहित्य	-1387
्याय	-1388
िश्चित	-1389
डा	-1390
पट	-1391
▁उदाहरण	-1392
तिम	-1393
▁अनुच्छेद	-1394
▁संशोध	-1395
▁परंतु	-1396
चल	-1397
▁जमा	-1398
▁प्रदर्श	-1399
म्ह	-1400
▁दक्षि	-1401
▁निर्देश	-1402
▁इतिहास	-1403
जित	-1404
जरा	-1405
▁बंग	-1406
▁डी	-1407
बल	-1408
▁महान	-1409
साय	-1410
▁करेगा	-1411
▁उससे	-1412
ानों	-1413
▁''	-1414
▁बच्चों	-1415
▁यात्रा	-1416
्ते	-1417
▁राजनी	-1418
▁संयुक्त	-1419
▁थीं	-1420
▁उसी	-1421
▁विदेशी	-1422
▁उद्य	-1423
▁"	-1424
▁पैदा	-1425
▁बड़ा	-1426
▁व्यक्तियों	-1427
ंश	-1428
▁रहने	-1429
▁होंगे	-1430
▁तौर	-1431
▁प्रती	-1432
ँच	-1433
▁चौ	-1434
▁विवाह	-1435
कता	-1436
▁नियंत्रण	-1437
▁भीतर	-1438
▁दुर्	-1439
▁हिस्	-1440
▁चुन	-1441
्रेस	-1442
er	-1443
▁परन्तु	-1444
ेंट	-1445
▁निर्धारण	-1446
रल	-1447
▁सत	-1448
▁कोर्इ	-1449
पित	-1450
▁नही	-1451
▁बहु	-1452
▁तुम्ह	-1453
▁दंड	-1454
▁लाख	-1455
▁भू	-1456
्यास	-1457
▁खोज	-1458
▁रहते	-1459
▁संभव	-1460
▁प्रथम	-1461
रि	-1462
▁छोटे	-1463
▁रचना	-1464
▁कॉ	-1465
▁लगता	-1466
▁सार्व	-1467
▁दिव	-1468
गार	-1469
▁उच्चतम	-1470
▁अपेक्षा	-1471
▁वृद्धि	-1472
▁वाप	-1473
▁बस	-1474
ग्री	-1475
यां	-1476
▁पीछ	-1477
▁आधारित	-1478
▁मदद	-1479
र्जा	-1480
नाथ	-1481
▁कला	-1482
▁मंदिर	-1483
▁विकसित	-1484
▁इस्ल	-1485
▁अपील	-1486
▁प्रारंभ	-1487
ार्ड	-1488
▁यही	-1489
▁जन्म	-1490
▁कमी	-1491
▁मृत्यु	-1492
▁भूमि	-1493
▁प्रधान	-1494
ष्य	-1495
▁दिश	-1496
मन	-1497
▁विंड	-1498
▁दूसरी	-1499
शल	-1500
र्जी	-1501
▁लड़	-1502
ट्ट	-1503
▁नागर	-1504
▁एन	-1505
कम	-1506
▁घटना	-1507
▁नए	-1508
▁आद	-1509
▁कैसे	-1510
▁वित्तीय	-1511
▁करेंगे	-1512
▁हिन्द	-1513
▁अंतिम	-1514
गति	-1515
▁दिल्ली	-1516
जूद	-1517
▁गांधी	-1518
▁अध्ययन	-1519
्ष्	-1520
श्छ	-1521
▁उत्पन्न	-1522
ेप	-1523
▁स्थापना	-1524
ुस	-1525
▁संसा	-1526
▁आश	-1527
▁प्रेम	-1528
▁संभाव	-1529
▁संद	-1530
▁जांच	-1531
ोजित	-1532
▁पुल	-1533
ऊण्	-1534
ऊण्श्छ	-1535
ऊण्श्छ्ष्	-1536
▁संच	-1537
▁लेकर	-1538
ोर्ड	-1539
▁पुस्तक	-1540
▁भूमिका	-1541
▁पेश	-1542
▁किये	-1543
▁कांग	-1544
▁मिला	-1545
▁विस्तार	-1546
▁सच	-1547
▁किंतु	-1548
▁विरोध	-1549
भूत	-1550
वीं	-1551
्याप्त	-1552
▁पे	-1553
▁ते	-1554
िना	-1555
▁संदेश	-1556
साइट	-1557
िले	-1558
णि	-1559
▁आवेदन	-1560
▁सदस्यों	-1561
▁न्यू	-1562
▁विवरण	-1563
▁बंद	-1564
क्षम	-1565
र्च	-1566
▁प्रकृति	-1567
ात्	-1568
स्थिति	-1569
▁वाय	-1570
लाह	-1571
▁बच	-1572
▁मात्रा	-1573
▁बरा	-1574
▁राज्यों	-1575
▁माना	-1576
▁पुनः	-1577
▁दाय	-1578
माल	-1579
▁हमने	-1580
▁स्वतंत्रता	-1581
▁सरकारी	-1582
तार	-1583
▁उल्लेख	-1584
डियो	-1585
▁नागरिक	-1586
तक	-1587
र्द	-1588
▁अग्र	-1589
▁गिर	-1590
▁रोक	-1591
इस	-1592
▁नौ	-1593
स्क	-1594
▁विधान	-1595
▁आत्म	-1596
िज	-1597
▁हित	-1598
▁एक्स	-1599
▁एम	-1600
▁इं	-1601
्रम	-1602
▁परिवार	-1603
▁संसद	-1604
▁सहित	-1605
▁प्रतिक	-1606
▁बनाया	-1607
कल्प	-1608
▁भेज	-1609
ुगतान	-1610
गल	-1611
ल्क	-1612
व्यव	-1613
▁अधिव	-1614
▁दिशा	-1615
▁अच्छा	-1616
▁विनिर्	-1617
▁सुनिश्चित	-1618
▁कानून	-1619
▁नव	-1620
ियाँ	-1621
▁ताकि	-1622
▁तकनी	-1623
षित	-1624
▁बो	-1625
▁खेल	-1626
▁सोच	-1627
▁अच्छी	-1628
एम	-1629
ैंड	-1630
र्य	-1631
▁भावना	-1632
▁संगठन	-1633
▁उचित	-1634
▁पौ	-1635
▁खुल	-1636
भू	-1637
▁बढ़ा	-1638
▁बनाए	-1639
रिका	-1640
बू	-1641
▁अध्यक्ष	-1642
ुनिक	-1643
▁राय	-1644
▁आत	-1645
▁बाजार	-1646
नाव	-1647
▁सिद्धांत	-1648
▁प्रगति	-1649
लू	-1650
▁गल	-1651
▁विप	-1652
▁अला	-1653
▁केन्द्र	-1654
वासी	-1655
▁प्रशिक्षण	-1656
▁जाएगी	-1657
▁तहत	-1658
▁जोड़	-1659
▁ब्रिट	-1660
▁रहता	-1661
▁राजा	-1662
▁चित्र	-1663
▁भुगतान	-1664
▁दुनिया	-1665
▁तंत्र	-1666
त्त्व	-1667
ूं	-1668
वरी	-1669
▁जाय	-1670
▁पृष्ठ	-1671
▁स्थानीय	-1672
▁जबकि	-1673
▁बिल	-1674
▁दक्षिण	-1675
लग	-1676
▁चिकित्	-1677
ज्ञानिक	-1678
▁सां	-1679
▁अह	-1680
▁विरुद्ध	-1681
▁लक्ष्य	-1682
▁बीमा	-1683
▁टे	-1684
▁तुल	-1685
र्फ	-1686
▁वास्तविक	-1687
▁उसमें	-1688
▁मंत्रालय	-1689
ैतिक	-1690
ेंस	-1691
),	-1692
▁होकर	-1693
▁पहचान	-1694
▁वेबसाइट	-1695
्रिय	-1696
डर	-1697
▁अमेरिका	-1698
डे	-1699
▁उनमें	-1700
▁व्यापक	-1701
▁बेह	-1702
जनिक	-1703
बे	-1704
सलमान	-1705
ज्	-1706
▁मिश	-1707
▁निर्दिष्ट	-1708
▁बच्चे	-1709
ंसा	-1710
▁सेना	-1711
्यूटर	-1712
▁सत्ता	-1713
▁जगह	-1714
▁कांग्रेस	-1715
▁बराबर	-1716
▁मनुष	-1717
नलिखित	-1718
in	-1719
▁मो	-1720
▁इंड	-1721
▁प्रभावित	-1722
ंथ	-1723
▁A	-1724
हरी	-1725
▁शासन	-1726
िवार	-1727
श्वर	-1728
फार	-1729
णा	-1730
▁लगे	-1731
▁प्रबंधन	-1732
ीप	-1733
▁पर्याप्त	-1734
▁आकार	-1735
▁दिनों	-1736
▁निम्नलिखित	-1737
▁पुलिस	-1738
सू	-1739
▁आधुनिक	-1740
र्चा	-1741
▁अर्था	-1742
▁उपकरण	-1743
दय	-1744
ौती	-1745
▁याद	-1746
▁निदेश	-1747
▁पीछे	-1748
ंडल	-1749
▁नदी	-1750
▁सार्वजनिक	-1751
▁मि	-1752
ामीण	-1753
क्रमण	-1754
▁जरूरत	-1755
▁चाहिये	-1756
▁क्ल	-1757
शु	-1758
मंत्र	-1759
▁पिछले	-1760
▁पश्चात्	-1761
▁मुसलमान	-1762
पु	-1763
▁सन्	-1764
▁प्राय	-1765
▁प्रवेश	-1766
▁अफ	-1767
▁चा	-1768
▁परिष	-1769
भीर	-1770
स्ल	-1771
ड़ों	-1772
on	-1773
सि	-1774
▁केंद्रीय	-1775
रोध	-1776
▁भवि	-1777
▁रू	-1778
्यात	-1779
▁स्कूल	-1780
▁शर्	-1781
▁आतंक	-1782
▁देव	-1783
▁पहली	-1784
र्ण	-1785
स्कार	-1786
ायत	-1787
▁पत्	-1788
▁निकाल	-1789
द्रा	-1790
▁ग्रामीण	-1791
▁भविष्य	-1792
त्साह	-1793
▁अलावा	-1794
▁भिन्न	-1795
▁पूंजी	-1796
▁रोज	-1797
वधान	-1798
▁गुर	-1799
▁व्यवहार	-1800
र्ग	-1801
▁शब्दों	-1802
धे	-1803
िको	-1804
▁सत्य	-1805
फारिश	-1806
▁प्रतिनि	-1807
प्त	-1808
▁संदर्भ	-1809
▁इस्ते	-1810
▁गां	-1811
न्दी	-1812
▁तथ	-1813
▁निकल	-1814
▁आयु	-1815
ानि	-1816
च्छा	-1817
▁खरी	-1818
▁सम्मान	-1819
▁निश्चित	-1820
▁अनुमति	-1821
ायद	-1822
▁औद्योगिक	-1823
▁सिफारिश	-1824
▁मित्र	-1825
▁गैर	-1826
▁यथा	-1827
न्व	-1828
▁प्रकट	-1829
▁सक्रिय	-1830
म्भ	-1831
▁दिख	-1832
▁लौ	-1833
ंबर	-1834
्राम	-1835
▁कहीं	-1836
▁कम्प	-1837
▁ऊर्जा	-1838
ंकन	-1839
▁उपाय	-1840
कुल	-1841
धिकार	-1842
▁सर्वो	-1843
फा	-1844
▁ढंग	-1845
▁इस्लाम	-1846
सन	-1847
▁वार	-1848
स्ति	-1849
▁समर्थन	-1850
ुआ	-1851
▁कट	-1852
▁मर	-1853
वर्ती	-1854
▁लिखा	-1855
▁केन्द	-1856
▁शायद	-1857
▁अभिय	-1858
▁बोर्ड	-1859
▁देती	-1860
▁दस्ता	-1861
्ला	-1862
सिक	-1863
मय	-1864
्वी	-1865
▁इस्तेमाल	-1866
▁मिले	-1867
▁संशोधन	-1868
वों	-1869
▁भग	-1870
▁दल	-1871
ांति	-1872
▁मुखर्जी	-1873
▁तत्	-1874
▁जिन्हें	-1875
ेशा	-1876
ंगे	-1877
▁छा	-1878
▁तारी	-1879
बाद	-1880
ैन	-1881
▁बर	-1882
▁संत	-1883
▁पाया	-1884
▁समाधान	-1885
▁करोड़	-1886
मू	-1887
▁फल	-1888
▁लेखा	-1889
▁कार्यालय	-1890
▁उत्स	-1891
ंतर	-1892
▁संरचना	-1893
▁करा	-1894
▁पद्ध	-1895
▁मही	-1896
▁इतना	-1897
▁वो	-1898
म्बर	-1899
पाद	-1900
▁संके	-1901
▁राजनीतिक	-1902
▁कप	-1903
राष्ट्रीय	-1904
▁पूछ	-1905
▁पांच	-1906
▁पदार्थ	-1907
▁नेट	-1908
▁सम्बन्ध	-1909
▁योग्य	-1910
▁वैज्ञानिक	-1911
ोलन	-1912
▁पृथ	-1913
▁गं	-1914
▁मश	-1915
▁प्रद	-1916
णिज्य	-1917
▁बनाम	-1918
▁मेरा	-1919
▁प्रोत्साह	-1920
▁दिल	-1921
टे	-1922
▁चाहे	-1923
पात	-1924
्वेष	-1925
चर	-1926
▁पुरस्कार	-1927
ैल	-1928
▁उठा	-1929
▁दृष्ट	-1930
▁चाहता	-1931
▁पूरे	-1932
▁उद्यम	-1933
▁बंगाल	-1934
▁फाइल	-1935
▁जिनमें	-1936
▁यूर	-1937
▁मनुष्य	-1938
▁बज	-1939
▁विवाद	-1940
सत	-1941
▁ऑफ	-1942
▁दश	-1943
▁वापस	-1944
▁मॉ	-1945
िल्म	-1946
राज	-1947
▁हमारा	-1948
राज्य	-1949
▁सलाह	-1950
▁भौ	-1951
▁तारीख	-1952
▁दें	-1953
▁निर्यात	-1954
ar	-1955
चीन	-1956
▁खो	-1957
▁बने	-1958
▁निर्वा	-1959
▁रक्त	-1960
कान	-1961
वाही	-1962
▁जैसी	-1963
▁सहायक	-1964
▁न्यायालयों	-1965
▁रज	-1966
▁नया	-1967
▁सफलता	-1968
क्षर	-1969
खी	-1970
▁दस्तावे	-1971
द्यपि	-1972
संग	-1973
यल	-1974
र्ट	-1975
शिया	-1976
▁सक्षम	-1977
थमिक	-1978
▁चिकित्सा	-1979
▁मास	-1980
▁प्रकाशित	-1981
▁ट्र	-1982
▁हमेशा	-1983
▁संग्रह	-1984
▁न्यायिक	-1985
ग्	-1986
▁बढ	-1987
▁सामग्री	-1988
घु	-1989
▁सृ	-1990
▁विभा	-1991
▁रखना	-1992
▁रक्षा	-1993
▁गी	-1994
▁अधिकां	-1995
▁लि	-1996
▁निजी	-1997
दृ	-1998
▁मुक्त	-1999
कीय	-2000
ृह	-2001
▁संरक्षण	-2002
▁संय	-2003
▁इनमें	-2004
्प	-2005
ड़क	-2006
▁खे	-2007
▁अभिव	-2008
▁वन	-2009
ुन	-2010
▁अवस्था	-2011
▁यद्यपि	-2012
.0	-2013
▁सिर्फ	-2014
▁समक्ष	-2015
वै	-2016
▁रखते	-2017
▁शीर्ष	-2018
▁वाणिज्य	-2019
▁जे	-2020
▁तत्व	-2021
▁युवा	-2022
at	-2023
पे	-2024
▁फी	-2025
▁साधारण	-2026
▁देखने	-2027
फ्ट	-2028
▁समझौ	-2029
मक	-2030
तया	-2031
▁चर्चा	-2032
▁दशा	-2033
▁प्राथमिक	-2034
▁लाल	-2035
▁रकम	-2036
▁शांति	-2037
▁धी	-2038
▁रि	-2039
▁केन्द्रीय	-2040
एन	-2041
ेयर	-2042
▁पालन	-2043
▁शक्त	-2044
en	-2045
▁रेल	-2046
▁चुका	-2047
▁मुद्रा	-2048
▁सकेगा	-2049
▁स्म	-2050
▁जिला	-2051
▁लागत	-2052
▁सेवाओं	-2053
ोक्ता	-2054
▁थो	-2055
ठित	-2056
▁आत्मा	-2057
▁[	-2058
▁शहर	-2059
▁बुद्ध	-2060
▁बेहतर	-2061
▁अधिकांश	-2062
पूर्वक	-2063
▁पर्य	-2064
▁मंत्री	-2065
त्री	-2066
्टर	-2067
▁डॉ	-2068
ल्ल	-2069
▁ईश्वर	-2070
▁योगदान	-2071
▁पर्या	-2072
▁रिक	-2073
वर्ष	-2074
▁संभावना	-2075
संद	-2076
िकोण	-2077
▁बताया	-2078
हीन	-2079
▁जाति	-2080
▁री	-2081
▁श्रेणीः	-2082
▁पुरुष	-2083
द्द	-2084
▁सुझ	-2085
▁उपन	-2086
▁गंभीर	-2087
▁कंप्यूटर	-2088
▁क़	-2089
▁चै	-2090
▁दू	-2091
▁दिखाई	-2092
▁समुदाय	-2093
टल	-2094
मंत्री	-2095
▁तुलना	-2096
▁वहाँ	-2097
▁संपत्ति	-2098
▁जिसकी	-2099
चि	-2100
▁ख़	-2101
वेद	-2102
वर्क	-2103
लाई	-2104
▁प्रणब	-2105
ंद्र	-2106
▁पिता	-2107
▁तीस	-2108
क्टर	-2109
▁किन्तु	-2110
▁बोल	-2111
▁कदम	-2112
▁भे	-2113
▁कोशिश	-2114
▁सम्मिल	-2115
▁चयन	-2116
▁पंच	-2117
00	-2118
▁दूसरा	-2119
▁वही	-2120
▁सीमित	-2121
▁जम	-2122
an	-2123
▁चाल	-2124
न्दर	-2125
र्ड	-2126
▁मुद्	-2127
▁पर्यावरण	-2128
भाल	-2129
भूति	-2130
▁वायु	-2131
▁अधिवक्ता	-2132
▁विल	-2133
ार्मिक	-2134
▁निर्भर	-2135
क्षेप	-2136
ii	-2137
ियर	-2138
▁लं	-2139
▁दोष	-2140
ृति	-2141
ल्पना	-2142
वत्ता	-2143
▁कानू	-2144
▁तरीके	-2145
र्ज	-2146
नेट	-2147
▁धार्मिक	-2148
▁महारा	-2149
▁सेट	-2150
▁परीक्षा	-2151
▁शिकायत	-2152
▁खर्च	-2153
घा	-2154
▁यूरोप	-2155
▁सारे	-2156
▁आंद	-2157
▁प्रभावी	-2158
कद	-2159
ताल	-2160
डिया	-2161
ोषणा	-2162
▁क्रम	-2163
▁इका	-2164
▁मशीन	-2165
▁ब्रिटिश	-2166
बाह	-2167
▁संपर्क	-2168
▁ऊंच	-2169
▁रहती	-2170
▁छोटी	-2171
▁अनिवार	-2172
▁प्रशासन	-2173
▁पो	-2174
▁उपचार	-2175
खंड	-2176
ंगी	-2177
गीत	-2178
त्तर	-2179
▁हिन्दी	-2180
▁तेल	-2181
व्यवस्था	-2182
न्स	-2183
▁हृ	-2184
▁कविता	-2185
▁प्राकृतिक	-2186
▁जित	-2187
स्वरूप	-2188
▁ढा	-2189
जो	-2190
▁सूर	-2191
▁निधि	-2192
▁आता	-2193
▁कथ	-2194
एल	-2195
▁उनसे	-2196
▁चर	-2197
क्ष्म	-2198
▁एल	-2199
▁मजब	-2200
▁प्रवृ	-2201
▁निम्न	-2202
▁खुलती	-2203
▁गुणवत्ता	-2204
▁विशाल	-2205
▁अद	-2206
▁कार्र	-2207
िकी	-2208
▁संकल्प	-2209
▁आशा	-2210
▁सकें	-2211
▁जहाँ	-2212
▁विंडों	-2213
▁आपकी	-2214
▁पद्धति	-2215
▁विद्यार्थ	-2216
▁देखते	-2217
▁परिस्थित	-2218
▁पक	-2219
▁सम्मिलित	-2220
ेलन	-2221
▁अंक	-2222
एफ	-2223
चक	-2224
ारोह	-2225
▁खिला	-2226
▁लघु	-2227
वेयर	-2228
▁आए	-2229
ापन	-2230
▁अंग्रेजी	-2231
नु	-2232
▁युग	-2233
▁विधेय	-2234
धनों	-2235
▁डेटा	-2236
▁अनिवार्य	-2237
▁हिस्सा	-2238
रीय	-2239
▁असम	-2240
्यो	-2241
▁ग्रह	-2242
▁संस्कृति	-2243
▁मिट	-2244
▁वित	-2245
▁उपभ	-2246
▁स्रो	-2247
▁आकर्	-2248
ार्क	-2249
▁खाद्य	-2250
हिता	-2251
▁अधिकारियों	-2252
▁इला	-2253
▁करनी	-2254
▁दस	-2255
▁नगर	-2256
▁लेना	-2257
▁मिलता	-2258
▁व्यक्तिगत	-2259
▁पड़ा	-2260
कला	-2261
▁त्रुट	-2262
▁भोजन	-2263
▁संस्कृत	-2264
रो	-2265
▁धारण	-2266
चारी	-2267
▁हैः	-2268
▁अस्त	-2269
▁विचारों	-2270
▁अतः	-2271
▁ब्या	-2272
▁;	-2273
कारों	-2274
ख़	-2275
भाषा	-2276
▁उपयुक्त	-2277
▁प्रयोजन	-2278
▁ध्व	-2279
तित	-2280
स्लिम	-2281
टों	-2282
▁अत्यंत	-2283
म्मे	-2284
▁शता	-2285
▁समारोह	-2286
▁नेटवर्क	-2287
ूँ	-2288
--	-2289
▁समझा	-2290
अप	-2291
▁रजिस्ट	-2292
सभा	-2293
▁महत्त्व	-2294
▁निकट	-2295
▁विकल्प	-2296
▁नेता	-2297
किंग	-2298
▁आरोप	-2299
▁पर्व	-2300
इल	-2301
क्षी	-2302
▁प्राचीन	-2303
▁बधा	-2304
▁दिवस	-2305
बाहरी	-2306
गु	-2307
ोग्राम	-2308
▁अध्याय	-2309
▁पाल	-2310
▁दृष्टिकोण	-2311
▁पश्चिम	-2312
▁दायित्व	-2313
▁भंड	-2314
▁भागी	-2315
▁विद्व	-2316
▁बधाई	-2317
▁ति	-2318
▁खोल	-2319
कालीन	-2320
फ्त	-2321
▁भारी	-2322
▁संहिता	-2323
▁सिव	-2324
▁संघर्ष	-2325
▁निर्धारिती	-2326
▁निगम	-2327
यु	-2328
पादन	-2329
विक	-2330
▁प्ल	-2331
▁.	-2332
ान्व	-2333
▁आयोजित	-2334
▁बौ	-2335
▁बचा	-2336
▁नर	-2337
क्षेत्र	-2338
▁मोट	-2339
▁उपबंधों	-2340
▁0	-2341
▁खरीद	-2342
▁शाखा	-2343
▁गरी	-2344
▁नियमों	-2345
▁पाने	-2346
▁आदर्श	-2347
▁संगीत	-2348
वाब	-2349
▁आंदोलन	-2350
िमी	-2351
▁पंजी	-2352
▁वर्णन	-2353
मो	-2354
▁जिनके	-2355
▁तथापि	-2356
▁एज	-2357
▁कार्यवाही	-2358
घ्र	-2359
ंति	-2360
▁घट	-2361
▁घोषणा	-2362
▁हिन्दू	-2363
त्न	-2364
▁संसाधन	-2365
न्ट	-2366
▁संस्थानों	-2367
▁फ़ाइल	-2368
▁जानी	-2369
मीर	-2370
▁कित	-2371
▁खाते	-2372
▁पंजा	-2373
ड्ड	-2374
▁लॉ	-2375
प्ता	-2376
▁पड़े	-2377
▁अभिव्य	-2378
बि	-2379
ायी	-2380
इयों	-2381
▁ईसा	-2382
▁हस्ता	-2383
▁मुस्लिम	-2384
बत	-2385
ब्दी	-2386
▁अस्प	-2387
▁सिविल	-2388
▁आते	-2389
▁जल्	-2390
ंबई	-2391
▁अनुसू	-2392
▁लेते	-2393
▁क्षति	-2394
ाये	-2395
▁नोट	-2396
▁इजरा	-2397
▁अक	-2398
▁विविध	-2399
▁कार्यों	-2400
▁चीज	-2401
▁नये	-2402
▁कार्रवाई	-2403
ल्ड	-2404
ष्ट्र	-2405
▁बनाना	-2406
िरा	-2407
▁जानते	-2408
▁सुरक्षित	-2409
▁अंदर	-2410
शाली	-2411
or	-2412
▁कठिन	-2413
▁खास	-2414
▁हटा	-2415
ोजनों	-2416
▁चुनाव	-2417
▁जिसने	-2418
ंपरा	-2419
▁पारित	-2420
▁शास्त	-2421
▁इन्ह	-2422
▁अच्छे	-2423
▁अंतरराष्ट्रीय	-2424
▁खुद	-2425
▁ग्राह	-2426
▁जरूरी	-2427
▁सुझाव	-2428
जनक	-2429
▁पराम	-2430
▁परिस	-2431
▁व्याव	-2432
▁गतिविध	-2433
त्रों	-2434
▁विधेयक	-2435
ंदा	-2436
▁प्रसन्न	-2437
▁विनिर्दिष्ट	-2438
▁ब्याज	-2439
क्षक	-2440
▁पड़ता	-2441
भाष	-2442
▁पहल	-2443
▁इच्छा	-2444
्रिया	-2445
▁निपट	-2446
काम	-2447
▁अर्थव्यवस्था	-2448
मिल	-2449
्वेषण	-2450
▁कहना	-2451
▁आग	-2452
▁जोर	-2453
es	-2454
▁अना	-2455
सु	-2456
ोषित	-2457
धीन	-2458
▁प्रशास	-2459
▁भगवान	-2460
▁व्यय	-2461
ल्स	-2462
▁त्व	-2463
▁ग्राम	-2464
▁अंश	-2465
▁स्वरूप	-2466
▁संकेत	-2467
▁शुल्क	-2468
पालिका	-2469
▁लंब	-2470
▁परिप	-2471
▁लगाया	-2472
▁लो	-2473
▁सदन	-2474
मारी	-2475
▁प्रदर्शन	-2476
▁होनी	-2477
्राष्ट्रीय	-2478
स्य	-2479
▁खत	-2480
▁S	-2481
▁बर्	-2482
▁सिर	-2483
▁उपस्थित	-2484
गो	-2485
▁कृप	-2486
▁मिली	-2487
▁नियुक्त	-2488
▁अधिकारों	-2489
ठा	-2490
▁पेट	-2491
▁राजन	-2492
▁कोशिका	-2493
ठी	-2494
▁गलत	-2495
▁एशिया	-2496
▁माता	-2497
▁प्राण	-2498
इड	-2499
व्र	-2500
▁पार्टी	-2501
▁समृ	-2502
▁तर्क	-2503
▁आदमी	-2504
▁परामर्श	-2505
िनी	-2506
म्र	-2507
न्हीं	-2508
मेंट	-2509
▁बाव	-2510
▁शास	-2511
▁छोटा	-2512
▁लगी	-2513
▁अभिप	-2514
▁आतंकवाद	-2515
▁संपूर्ण	-2516
▁उल्ल	-2517
▁परंपरा	-2518
▁सम्मेलन	-2519
िक्	-2520
▁हास	-2521
▁गर्इ	-2522
साथ	-2523
▁इंग	-2524
▁परिच	-2525
▁मात्र	-2526
ुसार	-2527
▁जिम्मे	-2528
▁तट	-2529
▁मौजूद	-2530
▁तकनीकी	-2531
▁अर्थात्	-2532
▁कौन	-2533
३०	-2534
▁सम्प	-2535
स्पर	-2536
▁मार्च	-2537
▁महस	-2538
▁पहला	-2539
▁अप्रैल	-2540
▁भाई	-2541
▁शुभ	-2542
▁तेजी	-2543
▁प्रसि	-2544
लाव	-2545
▁कहानी	-2546
एक	-2547
भारत	-2548
रिया	-2549
▁अधि	-2550
▁हृदय	-2551
▁स्थायी	-2552
▁सश	-2553
▁त्रुटि	-2554
चारियों	-2555
▁शेष	-2556
ून्य	-2557
किस्तान	-2558
▁वाता	-2559
▁सका	-2560
▁नाटक	-2561
▁व्यवसाय	-2562
▁बनी	-2563
▁परीक्षण	-2564
तें	-2565
▁तरफ	-2566
ितीय	-2567
▁मोह	-2568
िक्री	-2569
▁आपका	-2570
▁कार्यान्व	-2571
▁टै	-2572
▁रहना	-2573
िन्	-2574
▁खाता	-2575
▁विमान	-2576
▁प्रयोजनों	-2577
▁चुके	-2578
▁समाचार	-2579
▁विद्यमान	-2580
▁अरब	-2581
▁वाणिज्यिक	-2582
▁परिषद	-2583
▁शीघ्र	-2584
it	-2585
▁गर्	-2586
▁महिलाओं	-2587
▁प्रत्यक्ष	-2588
▁आंक	-2589
▁गुना	-2590
▁वार्ष	-2591
▁अवि	-2592
▁क्रा	-2593
▁हस्त	-2594
▁_	-2595
▁महसूस	-2596
▁अश	-2597
▁मल	-2598
िर्	-2599
▁वाद	-2600
▁विज	-2601
मल	-2602
▁फिल	-2603
ष्क	-2604
▁सरल	-2605
▁मूल्या	-2606
▁कृपया	-2607
▁शताब्दी	-2608
▁हट	-2609
▁सित	-2610
▁विस्तृत	-2611
▁प्रवर्	-2612
▁विनियम	-2613
▁मजबूत	-2614
▁उन्न	-2615
▁पुनर्	-2616
▁मानसिक	-2617
ज्ञा	-2618
स्म	-2619
▁लाने	-2620
▁समु	-2621
▁बैठक	-2622
▁समुद्र	-2623
▁सात	-2624
al	-2625
जली	-2626
▁याच	-2627
▁अनुप्र	-2628
▁पश्चिमी	-2629
▁वातावरण	-2630
▁अन्तर्	-2631
्रेड	-2632
▁तय	-2633
किल	-2634
▁दबा	-2635
▁अनुक	-2636
▁परिस्थितियों	-2637
▁रखे	-2638
ंव	-2639
....	-2640
▁अभिक	-2641
लब	-2642
▁अगले	-2643
कृष्ट	-2644
▁असफल	-2645
म्मी	-2646
दूर	-2647
▁चरण	-2648
▁अंड	-2649
▁द्वार	-2650
▁वस्तुओं	-2651
▁प्रतिनिध	-2652
▁दिये	-2653
▁मिलने	-2654
▁इंटर	-2655
▁संदे	-2656
▁कर्मचारियों	-2657
▁बौद्ध	-2658
दर	-2659
▁दौ	-2660
▁गांव	-2661
▁नियमित	-2662
▁दि	-2663
शाला	-2664
▁अत्यधिक	-2665
स्ती	-2666
▁कल्पना	-2667
▁जवाब	-2668
▁ढांच	-2669
▁अनुमान	-2670
▁इत्या	-2671
▁पहा	-2672
▁दर्शन	-2673
ायक	-2674
▁आती	-2675
▁जिन्होंने	-2676
▁समस्याओं	-2677
िटी	-2678
ांकि	-2679
▁तथ्य	-2680
स्कृतिक	-2681
ंघ	-2682
▁प्रतिष्ठ	-2683
▁विश्ले	-2684
▁अल्प	-2685
▁सिस्ट	-2686
▁रोजगार	-2687
▁साम्रा	-2688
▁निर्मित	-2689
ृत्व	-2690
ूक	-2691
▁सामना	-2692
▁इतनी	-2693
टिल	-2694
रान	-2695
▁बंध	-2696
▁भौतिक	-2697
▁संचार	-2698
▁सूक्ष्म	-2699
ज़ा	-2700
▁सीख	-2701
▁आवा	-2702
▁दावा	-2703
▁कराने	-2704
▁ग्रहण	-2705
लिक	-2706
मद	-2707
▁जंग	-2708
▁हल	-2709
▁भाषण	-2710
▁हालांकि	-2711
▁भ्र	-2712
▁बढ़ाने	-2713
चित्र	-2714
▁कर्त	-2715
▁उत	-2716
▁इंज	-2717
▁उपन्यास	-2718
▁किन	-2719
▁सच्च	-2720
▁प्रधानमंत्री	-2721
▁शून्य	-2722
लि	-2723
हरे	-2724
▁प्राप्ति	-2725
सों	-2726
भूम	-2727
धु	-2728
▁अदाल	-2729
▁स्रोत	-2730
ार्म	-2731
▁वेतन	-2732
धर	-2733
▁धीरे	-2734
▁विवे	-2735
▁निरंतर	-2736
▁आंत	-2737
▁इजरायल	-2738
▁एच	-2739
▁मंज	-2740
ज़ी	-2741
दिक	-2742
▁कानूनी	-2743
्वर	-2744
▁शेयर	-2745
▁शुद्ध	-2746
▁अनुवाद	-2747
्याण	-2748
थि	-2749
▁प्रयासों	-2750
यान	-2751
▁कीमत	-2752
▁द्र	-2753
▁महाम	-2754
शय	-2755
लाइन	-2756
▁सॉ	-2757
▁तुर	-2758
तृत्व	-2759
▁वैश्व	-2760
▁वाह	-2761
▁बावजूद	-2762
▁क्षेत्रीय	-2763
▁इनके	-2764
वाले	-2765
▁आयुक्त	-2766
▁याचिका	-2767
णु	-2768
नो	-2769
▁लेखक	-2770
▁प्राधिकरण	-2771
▁आँ	-2772
▁मामला	-2773
ालित	-2774
▁नामक	-2775
▁गणराज्य	-2776
▁अधिकरण	-2777
▁d	-2778
▁नवान	-2779
▁रात	-2780
▁सर्वा	-2781
नाएं	-2782
्याग	-2783
▁मान्यता	-2784
▁आये	-2785
▁लक्षण	-2786
▁ब्रह	-2787
▁विनि	-2788
▁महीने	-2789
▁टन	-2790
वक	-2791
्वा	-2792
प्रिय	-2793
▁अभिया	-2794
▁वर	-2795
▁कार्	-2796
वें	-2797
िप्प	-2798
▁हिंदू	-2799
▁प्रजा	-2800
▁इत्यादि	-2801
गण	-2802
न्य	-2803
▁पट	-2804
मंडल	-2805
▁सांस्कृतिक	-2806
ियत	-2807
्यात्म	-2808
▁सुना	-2809
▁निर्वाचन	-2810
र्घ	-2811
▁प्रायः	-2812
▁पाकिस्तान	-2813
▁काव्य	-2814
▁इंडिया	-2815
▁कर्मचारी	-2816
▁पेज	-2817
▁युक्त	-2818
▁सुंदर	-2819
▁पसंद	-2820
▁प्रसिद्ध	-2821
डल	-2822
राब	-2823
▁शि	-2824
▁सफ	-2825
▁पाए	-2826
▁उम्मी	-2827
▁वार्षिक	-2828
▁तुम्हें	-2829
▁प्रतिक्रिया	-2830
▁धा	-2831
वेक्षण	-2832
▁गठन	-2833
क्ट्र	-2834
▁अधिकतम	-2835
▁मुसलमानों	-2836
▁सारी	-2837
▁माह	-2838
▁रुपये	-2839
▁लगाने	-2840
▁विद्युत	-2841
ंता	-2842
▁कथा	-2843
▁दृश्य	-2844
▁पत्नी	-2845
▁उत्तरदाय	-2846
▁रेखा	-2847
्ति	-2848
र्प	-2849
रीक्षण	-2850
भूमि	-2851
▁अनुकूल	-2852
▁हिंदी	-2853
मति	-2854
▁गहरा	-2855
re	-2856
▁प्रावधान	-2857
▁मिलती	-2858
सान	-2859
मात्र	-2860
▁C	-2861
▁अधिकारिता	-2862
नियों	-2863
▁निकाय	-2864
▁कल्याण	-2865
▁सीधे	-2866
▁स्वामी	-2867
▁संस्थाओं	-2868
प्ताह	-2869
▁करार	-2870
▁देखभाल	-2871
▁c	-2872
▁अभिन	-2873
▁लौट	-2874
▁बिजली	-2875
ैक	-2876
▁जनसं	-2877
▁जिनका	-2878
▁प्रभार	-2879
▁बैंकों	-2880
उट	-2881
▁आनंद	-2882
संगत	-2883
▁प्रोग्राम	-2884
▁मूल्यांकन	-2885
बोध	-2886
▁इन्हें	-2887
जि	-2888
कर्ष	-2889
उस	-2890
शास्त	-2891
रक	-2892
राह	-2893
▁अमरी	-2894
▁सिस्टम	-2895
▁समी	-2896
ंटी	-2897
▁उल	-2898
▁आक्रमण	-2899
▁आपने	-2900
▁फिल्म	-2901
ज्ञात	-2902
▁तभी	-2903
▁सवाल	-2904
▁कृष्ण	-2905
▁I	-2906
▁अंतरण	-2907
ोने	-2908
मर	-2909
▁दै	-2910
▁शुभकाम	-2911
न्त्र	-2912
▁पाठ्य	-2913
ारात्मक	-2914
▁प्रयुक्त	-2915
दीय	-2916
ic	-2917
▁एफ	-2918
▁सभ	-2919
▁साफ	-2920
▁मुकद	-2921
▁f	-2922
▁रुपए	-2923
▁पुराने	-2924
▁वज	-2925
▁उम्मीद	-2926
खिम	-2927
▁समस्त	-2928
▁किरा	-2929
▁अफ्री	-2930
्रय	-2931
▁श्व	-2932
)।	-2933
▁पत्त	-2934
ंका	-2935
▁उक्त	-2936
▁जनवरी	-2937
श्मीर	-2938
▁विषयों	-2939
िकल	-2940
र्न	-2941
▁सचिव	-2942
▁हानि	-2943
▁प्रवि	-2944
लीय	-2945
▁मानते	-2946
ह्न	-2947
▁मनो	-2948
▁रखी	-2949
▁बढ़ावा	-2950
पान	-2951
▁w	-2952
▁प्रचार	-2953
▁चले	-2954
▁जल्दी	-2955
▁नक	-2956
▁घरे	-2957
▁डाक	-2958
▁लोकतंत्र	-2959
▁भागों	-2960
रेट	-2961
ृंख	-2962
सीय	-2963
▁बातों	-2964
लेज	-2965
▁उड़	-2966
▁करी	-2967
▁जायेगा	-2968
▁अस्तित्व	-2969
▁पात्र	-2970
▁न्यून	-2971
▁न्यायाधीशों	-2972
▁महत्त्वपूर्ण	-2973
▁गतिविधियों	-2974
▁अनुमो	-2975
▁नेहर	-2976
▁स्थानों	-2977
▁शिव	-2978
कलाप	-2979
▁बाहरी	-2980
▁राजनैतिक	-2981
▁साक्ष्य	-2982
▁मू	-2983
▁साधन	-2984
करी	-2985
▁नजर	-2986
ुक्ति	-2987
▁अमेरिक	-2988
▁प्राधिकारी	-2989
पास	-2990
▁मौसम	-2991
▁वितरण	-2992
▁साझ	-2993
▁पंजाब	-2994
▁कटौती	-2995
▁शिश	-2996
▁देखें	-2997
बह	-2998
▁अख	-2999
▁घा	-3000
▁शारी	-3001
▁कुंजी	-3002
▁चलता	-3003
▁कठिना	-3004
▁एका	-3005
▁रोगी	-3006
▁हजार	-3007
▁गुजरा	-3008
▁विशेषज्ञ	-3009
▁जून	-3010
▁फसल	-3011
▁आयात	-3012
▁नेतृत्व	-3013
ोम	-3014
िकता	-3015
▁संगण	-3016
रत	-3017
▁तीव्र	-3018
मूर्ति	-3019
▁पहुँच	-3020
दु	-3021
▁जोखिम	-3022
दर्शन	-3023
▁अनुप्रयोग	-3024
▁कलक	-3025
▁प्रदर्शित	-3026
▁प्रेरित	-3027
▁बिक्री	-3028
▁विद्यार्थियों	-3029
वासियों	-3030
▁शैली	-3031
▁घरेलू	-3032
ड़ित	-3033
▁आजा	-3034
ड़ाई	-3035
▁बनाई	-3036
▁उपा	-3037
▁खुशी	-3038
ानु	-3039
▁तरीका	-3040
▁संगठ	-3041
▁पुत्र	-3042
▁टाइ	-3043
▁माँ	-3044
्यार	-3045
▁आध्यात्म	-3046
▁शुभकामनाएं	-3047
▁गृह	-3048
▁लिखित	-3049
तिहासिक	-3050
▁स्वागत	-3051
िड	-3052
▁उनको	-3053
▁परम	-3054
▁कार्यक्रमों	-3055
▁ज़र	-3056
▁प्रोत्साहन	-3057
वत	-3058
▁पथ	-3059
▁प्रतीत	-3060
▁संवर्	-3061
▁बुनिया	-3062
▁नैतिक	-3063
ढ़ी	-3064
▁शारीरिक	-3065
▁बुद्धि	-3066
▁सेवाएं	-3067
▁अपेक्षित	-3068
ॉँ	-3069
▁मुंबई	-3070
▁कारबार	-3071
▁नष्ट	-3072
▁मिशन	-3073
▁अंतर्राष्ट्रीय	-3074
▁साब	-3075
▁हवा	-3076
ृंखला	-3077
▁कुशल	-3078
▁गर्म	-3079
▁जटिल	-3080
▁चीज़	-3081
▁कुमार	-3082
▁इकाई	-3083
ताब	-3084
▁प्रसन्नता	-3085
शक्ति	-3086
▁घोषित	-3087
चरण	-3088
▁शक्तियों	-3089
▁मानक	-3090
▁लें	-3091
यें	-3092
▁दीर्घ	-3093
िप्त	-3094
िलेख	-3095
▁लेता	-3096
ेंशन	-3097
ंटे	-3098
▁बाबत	-3099
▁उत्कृष्ट	-3100
फे	-3101
▁प्रच	-3102
is	-3103
ँचा	-3104
▁मिलकर	-3105
▁स्पष्टीकरण	-3106
बन	-3107
चलित	-3108
▁प्रदू	-3109
▁t	-3110
ब्र	-3111
ामा	-3112
▁अल्	-3113
▁ग्रंथ	-3114
▁वालों	-3115
फ्टवेयर	-3116
राधिक	-3117
▁टिप्प	-3118
▁फाय	-3119
▁मंच	-3120
कत	-3121
जीव	-3122
हिम	-3123
▁तेज	-3124
▁मां	-3125
▁अधिस	-3126
्रेट	-3127
▁अवश्य	-3128
▁सर्वोच्च	-3129
▁अक्	-3130
▁चारों	-3131
ियोग	-3132
▁मगर	-3133
▁अनुप	-3134
▁मतलब	-3135
▁निहित	-3136
▁चुकी	-3137
▁परिणामस्वरूप	-3138
सायन	-3139
क्शन	-3140
▁स्थल	-3141
▁साम्राज्य	-3142
▁वजह	-3143
▁दिस	-3144
ॉन	-3145
▁मिश्र	-3146
▁फूल	-3147
देव	-3148
धानिक	-3149
▁द्वीप	-3150
▁संसाधनों	-3151
ूबर	-3152
कालिक	-3153
▁प्रोट	-3154
▁हासिल	-3155
▁शाह	-3156
▁सैनिक	-3157
कर्ताओं	-3158
▁औष	-3159
▁मना	-3160
▁रखता	-3161
▁जनसंख्या	-3162
▁इले	-3163
▁सहकारी	-3164
रणा	-3165
दाता	-3166
्रीन	-3167
▁चेतना	-3168
▁अगस्त	-3169
▁गोप	-3170
▁पशु	-3171
▁कठोर	-3172
▁करेगी	-3173
▁त्याग	-3174
▁लगातार	-3175
मार्	-3176
▁फीस	-3177
▁गंगा	-3178
▁नेहरू	-3179
▁संबंधों	-3180
▁वैश्विक	-3181
▁स्मृति	-3182
▁उपयोगी	-3183
▁अस्थ	-3184
दित	-3185
▁जहा	-3186
▁अन्तर	-3187
▁वीडियो	-3188
▁जाएं	-3189
▁बनने	-3190
▁आंतरिक	-3191
▁कृत	-3192
▁भूल	-3193
▁T	-3194
▁बातें	-3195
▁पश्चात	-3196
▁इंजीन	-3197
▁सरकारों	-3198
▁प्रमाणपत्र	-3199
▁हथ	-3200
▁फर	-3201
▁छूट	-3202
''	-3203
▁छह	-3204
णों	-3205
▁कूट	-3206
▁विफल	-3207
काशन	-3208
स्ते	-3209
▁चीन	-3210
स्तिष्क	-3211
▁स्त्री	-3212
ूंगा	-3213
विज्ञान	-3214
▁नागरिकों	-3215
▁न्यूनतम	-3216
ियल	-3217
▁सप्ताह	-3218
▁आफ	-3219
▁उम्र	-3220
▁विश्लेषण	-3221
▁अभिव्यक्ति	-3222
ैर	-3223
लग्न	-3224
▁निरा	-3225
▁अदालत	-3226
▁खिलाफ	-3227
▁ऐतिहासिक	-3228
साधारण	-3229
ंकर	-3230
et	-3231
▁प्ले	-3232
▁पति	-3233
बन्धी	-3234
ेंद	-3235
▁शुरुआ	-3236
ात्मक	-3237
▁धार	-3238
▁विधिक	-3239
▁प्रशासनिक	-3240
▁आसान	-3241
ुस्तान	-3242
▁आध्यात्मिक	-3243
▁आलो	-3244
▁सुभाष	-3245
स्थापित	-3246
ंडी	-3247
हि	-3248
ion	-3249
त्तम	-3250
▁सुख	-3251
▁पृथ्वी	-3252
▁...	-3253
कलन	-3254
▁बीज	-3255
ैव	-3256
▁कोड	-3257
▁लोकप्रिय	-3258
▁मई	-3259
वाली	-3260
चीत	-3261
धित	-3262
▁नियुक्ति	-3263
मह	-3264
▁B	-3265
१०	-3266
▁कोल	-3267
▁सड़क	-3268
▁निदेशक	-3269
▁मीडिया	-3270
▁प्रयत्न	-3271
▁स्थिर	-3272
▁छोड़कर	-3273
▁काट	-3274
▁अधिसू	-3275
▁संसार	-3276
▁बीमारी	-3277
खे	-3278
म्स	-3279
▁स्वर	-3280
▁अभिलेख	-3281
▁दस्तावेज	-3282
▁व्याख्या	-3283
▁वकी	-3284
रीत	-3285
▁पुरा	-3286
▁अके	-3287
▁स्की	-3288
▁आरम्भ	-3289
▁संबद्ध	-3290
▁कलकत्ता	-3291
िकेट	-3292
▁सर्वाधिक	-3293
▁आठ	-3294
ेह	-3295
▁स्वच्छ	-3296
▁प्रकाशन	-3297
▁विहित	-3298
षक	-3299
▁आख	-3300
वाला	-3301
स्वी	-3302
▁ऑन	-3303
प्रदाय	-3304
▁निष्कर्ष	-3305
दास	-3306
▁प्रतीक	-3307
▁माप	-3308
▁ब्रा	-3309
▁खी	-3310
▁अनुरूप	-3311
▁उद्योगों	-3312
वंश	-3313
▁जेल	-3314
▁दवा	-3315
▁समन्व	-3316
▁संगठनों	-3317
▁संचालन	-3318
▁मुह	-3319
▁प्रवाह	-3320
▁प्रभ	-3321
▁लेन	-3322
▁महामहिम	-3323
▁आपूर्ति	-3324
क्षिक	-3325
om	-3326
▁सृजन	-3327
▁विशेषता	-3328
▁चलते	-3329
िपि	-3330
न्ना	-3331
शासन	-3332
▁जुड़े	-3333
▁करो	-3334
▁रीति	-3335
▁कार्यवाह	-3336
▁विजय	-3337
▁सारा	-3338
नर	-3339
▁जाँच	-3340
▁विपरीत	-3341
यम	-3342
्लो	-3343
रू	-3344
▁P	-3345
▁जमीन	-3346
▁संविदा	-3347
▁एकता	-3348
▁नाट	-3349
▁बातचीत	-3350
तल	-3351
सीसी	-3352
▁सुल	-3353
▁श्रम	-3354
▁किसानों	-3355
▁प्रतिनिधित्व	-3356
▁दशक	-3357
ोकन	-3358
▁छि	-3359
▁उत्पादों	-3360
▁बुनियादी	-3361
न्द्रनाथ	-3362
▁एंड	-3363
▁गिरफ्त	-3364
▁गैस	-3365
▁आश्च	-3366
▁कार्ड	-3367
▁बॉ	-3368
ियार	-3369
वित्र	-3370
▁जाएंगे	-3371
▁समझौता	-3372
▁दूध	-3373
▁बेच	-3374
▁विरा	-3375
▁विरोधी	-3376
le	-3377
▁मछ	-3378
▁कने	-3379
▁ताप	-3380
▁चक्र	-3381
▁अभियान	-3382
▁समुचित	-3383
▁आंख	-3384
गोल	-3385
▁पीड़ित	-3386
▁निभा	-3387
▁परस्पर	-3388
ूब	-3389
▁”-	-3390
ंकित	-3391
▁टीम	-3392
▁अनुरोध	-3393
मेल	-3394
िसी	-3395
थर	-3396
▁संकट	-3397
मती	-3398
▁ग्रा	-3399
▁तमिल	-3400
▁मीटर	-3401
▁विचारण	-3402
न्ध	-3403
▁हिम	-3404
▁अभिप्रे	-3405
▁निः	-3406
सायिक	-3407
ॉप	-3408
▁साबित	-3409
मि	-3410
दिन	-3411
▁भेजा	-3412
वट	-3413
श्री	-3414
▁परिवहन	-3415
▁शे	-3416
▁अंध	-3417
▁शोध	-3418
▁हत्या	-3419
जोर	-3420
▁गुप्त	-3421
▁पूर्ववर्ष	-3422
▁एकल	-3423
क्षीय	-3424
पय	-3425
▁नुक	-3426
▁कौशल	-3427
▁कथन	-3428
▁अक्सर	-3429
▁हस्ताक्षर	-3430
▁धर	-3431
▁प्रस्तावित	-3432
▁विशेषकर	-3433
स्त्र	-3434
▁देवी	-3435
▁महाराष्ट्र	-3436
राव	-3437
▁रस	-3438
▁वैसे	-3439
▁प्रसार	-3440
जै	-3441
ंदी	-3442
ोजी	-3443
▁आह	-3444
▁इन्	-3445
पादित	-3446
▁चुनौती	-3447
▁मस्तिष्क	-3448
▁टेली	-3449
राम	-3450
▁बाग	-3451
▁वरि	-3452
ार्थी	-3453
▁अमेरिकी	-3454
▁औसत	-3455
▁इतने	-3456
▁अफ्रीका	-3457
दारों	-3458
▁कीट	-3459
चारिक	-3460
▁दृढ़	-3461
▁स्ना	-3462
ज़र	-3463
▁लिम	-3464
▁दूरी	-3465
▁एकत्र	-3466
▁इलेक्ट्र	-3467
विधि	-3468
▁तार	-3469
▁माइ	-3470
▁आश्चर्य	-3471
दियों	-3472
▁बजाय	-3473
▁o	-3474
▁फॉ	-3475
▁सत्र	-3476
▁आनन्द	-3477
डु	-3478
▁दर्शा	-3479
▁राजनीति	-3480
▁न्यायमूर्ति	-3481
▁पकड़	-3482
▁कर्तव्य	-3483
▁काग	-3484
▁राज्यपाल	-3485
▁p	-3486
▁लै	-3487
▁पूजा	-3488
घात	-3489
▁डर	-3490
▁परेश	-3491
▁G	-3492
▁अकबर	-3493
▁सर्वेक्षण	-3494
▁शह	-3495
▁मंड	-3496
ोथ	-3497
अलग	-3498
▁अन्दर	-3499
▁उपभोक्ता	-3500
्रांस	-3501
▁विभाजन	-3502
▁संसदीय	-3503
▁एड	-3504
▁बिल्	-3505
▁लिखी	-3506
▁ताल	-3507
निष्ठ	-3508
साद	-3509
▁मेल	-3510
▁हिंसा	-3511
▁फैल	-3512
▁सावधान	-3513
▁भागीदारी	-3514
बाइल	-3515
भाषित	-3516
्यु	-3517
▁अभाव	-3518
▁देगा	-3519
▁अवधारण	-3520
▁चिंता	-3521
▁चम	-3522
▁परिवर्तित	-3523
देन	-3524
▁आइ	-3525
जूदा	-3526
▁नयी	-3527
▁भाषाओं	-3528
▁मस	-3529
▁परमाण	-3530
▁मूल्यों	-3531
णन	-3532
▁शिख	-3533
▁बदलाव	-3534
▁कारणों	-3535
मूल	-3536
▁मिन	-3537
▁संस्करण	-3538
▁नमू	-3539
▁गरीब	-3540
▁जिले	-3541
गढ़	-3542
र्त	-3543
प्रति	-3544
▁गुरु	-3545
▁सशक्त	-3546
▁डिस्क	-3547
▁लिमिट	-3548
▁गठित	-3549
▁टा	-3550
▁प्रतिभा	-3551
).	-3552
▁रखें	-3553
▁वहीं	-3554
▁अभिप्रेत	-3555
ताव	-3556
श्किल	-3557
शास्त्र	-3558
▁प्रारंभिक	-3559
▁मैदान	-3560
▁लक्ष	-3561
▁हैंः	-3562
▁जुलाई	-3563
▁हिस्से	-3564
▁अभियुक्त	-3565
▁विरू	-3566
तीत	-3567
▁वर्षा	-3568
ंदु	-3569
▁मृत्युद	-3570
▁समीक्षा	-3571
▁मौजूदा	-3572
वण	-3573
▁भेद	-3574
▁अत	-3575
क्का	-3576
▁अन्यथा	-3577
ंत्रिक	-3578
▁पहुंचा	-3579
:-	-3580
▁शुरुआत	-3581
▁समाप्ति	-3582
▁खाने	-3583
▁नियत	-3584
▁अनुपात	-3585
▁परियोजनाओं	-3586
▁करीब	-3587
▁जर्म	-3588
▁रजिस्ट्री	-3589
▁अपर	-3590
▁परिश	-3591
▁रोकने	-3592
माने	-3593
▁कति	-3594
▁घु	-3595
>>	-3596
▁खाना	-3597
▁हवाई	-3598
▁पवित्र	-3599
▁सुविधाओं	-3600
▁नवान्वेषण	-3601
▁समग्र	-3602
▁चिह्न	-3603
▁गीत	-3604
▁द्वितीय	-3605
ूंकि	-3606
▁प्रेरणा	-3607
बाई	-3608
▁वक्त	-3609
▁किलो	-3610
▁आकर्षित	-3611
ाब	-3612
ंदन	-3613
मतौर	-3614
▁प्रत	-3615
▁सिक्	-3616
▁देखकर	-3617
▁संतुल	-3618
▁प्रोत्साहित	-3619
पुट	-3620
▁विंडो	-3621
▁समित	-3622
▁यंत्र	-3623
▁देय	-3624
▁पाई	-3625
▁सदा	-3626
-0	-3627
▁अपन	-3628
▁साइ	-3629
पक	-3630
▁हक	-3631
▁आचरण	-3632
▁मुश्किल	-3633
▁लिमिटेड	-3634
▁प्रवृत्त	-3635
▁मांस	-3636
▁बिल्कुल	-3637
जु	-3638
भाग्य	-3639
नात्मक	-3640
नाम	-3641
नन	-3642
▁खुश	-3643
▁गौर	-3644
पूर्ति	-3645
▁वरिष्ठ	-3646
ोल्	-3647
क्व	-3648
धारी	-3649
▁चलो	-3650
▁चूंकि	-3651
▁जानता	-3652
▁सर्वर	-3653
▁गाय	-3654
ड़ियों	-3655
▁तकनीक	-3656
▁प्रान्त	-3657
जिए	-3658
▁जय	-3659
त्कार	-3660
▁पूर्वी	-3661
▁शैक्षिक	-3662
▁देर	-3663
शीलता	-3664
▁अक्ष	-3665
ष्टा	-3666
▁कतिपय	-3667
▁लिखने	-3668
▁शिकार	-3669
▁पाठ्यक्रम	-3670
▁आमतौर	-3671
▁यून	-3672
▁हार्	-3673
▁संलग्न	-3674
कभी	-3675
▁आशय	-3676
▁ब्ल	-3677
▁जितना	-3678
▁भय	-3679
ंगिक	-3680
▁जैव	-3681
▁अस्पताल	-3682
ट्र	-3683
▁अधिकतर	-3684
▁देकर	-3685
▁जीवित	-3686
▁मुद्दों	-3687
ेत	-3688
▁इरा	-3689
▁आयोजन	-3690
धों	-3691
▁नियंत्रित	-3692
▁रिश	-3693
▁दूसरों	-3694
▁अर्थात	-3695
यण	-3696
▁गौ	-3697
▁बाधा	-3698
▁तल	-3699
्यवाद	-3700
▁निवास	-3701
▁ब्राह	-3702
समय	-3703
▁इंस	-3704
▁मुझ	-3705
▁बुरा	-3706
ot	-3707
मीटर	-3708
▁निश्चय	-3709
▁सॉफ्टवेयर	-3710
नाश	-3711
▁उधार	-3712
▁कारा	-3713
▁कितना	-3714
▁सुसंगत	-3715
▁()	-3716
घटना	-3717
▁आसानी	-3718
▁यूनि	-3719
ंछ	-3720
▁तुरंत	-3721
संस्	-3722
▁रहेगा	-3723
ंगल	-3724
बाज	-3725
▁कमजोर	-3726
्ता	-3727
▁आसपास	-3728
▁परमाणु	-3729
▁लाया	-3730
▁शहरी	-3731
▁इंग्ल	-3732
▁मानवीय	-3733
शेष	-3734
▁खान	-3735
▁कक्ष	-3736
▁ग्राहक	-3737
▁एकमात्र	-3738
▁प्रारूप	-3739
मर्श	-3740
▁सहज	-3741
▁सूर्य	-3742
▁केरल	-3743
्राइ	-3744
▁खुले	-3745
▁जाकर	-3746
▁यथ	-3747
लिया	-3748
▁प्रार्थ	-3749
्यूट	-3750
▁घंटे	-3751
▁उत्तरी	-3752
▁विद	-3753
ध्या	-3754
▁व्यावसायिक	-3755
▁स्तंभ	-3756
▁आग्रह	-3757
▁बढ़ती	-3758
▁सप	-3759
iv	-3760
▁थोड़ा	-3761
▁बाह्य	-3762
▁अन्तर्गत	-3763
र्ती	-3764
▁चरित्र	-3765
पिता	-3766
▁घटनाओं	-3767
▁समावेश	-3768
▁लंबे	-3769
▁उपक्रम	-3770
▁मिट्टी	-3771
▁तिर	-3772
द्वीप	-3773
द्धा	-3774
▁समझौते	-3775
भाविक	-3776
▁इनका	-3777
▁रवी	-3778
▁अंतः	-3779
▁अनुदान	-3780
▁नुकसान	-3781
▁सभ्यता	-3782
स्फ	-3783
ेश्वर	-3784
▁उत्साह	-3785
▁प्रतिनिधि	-3786
▁आस्ति	-3787
▁सहमति	-3788
िक्स	-3789
▁वकील	-3790
▁सम्बन्धी	-3791
पथ	-3792
अर	-3793
ॉक	-3794
▁सांस	-3795
ग्ध	-3796
▁शुरु	-3797
केट	-3798
श्त	-3799
▁स्कीम	-3800
जल	-3801
ुता	-3802
घाटन	-3803
▁विरूद्ध	-3804
क्षिप्त	-3805
▁आवाज	-3806
▁इंटरनेट	-3807
▁आल	-3808
▁क्रिकेट	-3809
▁चोट	-3810
▁रिया	-3811
▁प्रेष	-3812
ंडा	-3813
गाह	-3814
ोरी	-3815
ोबार	-3816
▁बाध्य	-3817
ुत्	-3818
▁सहमत	-3819
थी	-3820
▁फैस	-3821
▁आवास	-3822
▁कितनी	-3823
▁गुजरात	-3824
▁प्रार्थना	-3825
▁मृत	-3826
▁दर्ज	-3827
▁कार्यान्वयन	-3828
▁सजा	-3829
ेक्ट	-3830
▁जिनकी	-3831
जारों	-3832
▁ज्ञात	-3833
ंचित	-3834
वायु	-3835
▁छुट	-3836
▁सदैव	-3837
▁प्रिय	-3838
▁रेलवे	-3839
▁रास्ता	-3840
सीन	-3841
▁टुक	-3842
▁समझने	-3843
११	-3844
▁गाँ	-3845
▁गेंद	-3846
▁नवीन	-3847
▁महात्मा	-3848
ौल	-3849
प्रे	-3850
▁आउट	-3851
▁गोल	-3852
▁मिस	-3853
▁खेती	-3854
▁नेताओं	-3855
▁कव	-3856
▁पंजीकरण	-3857
तृ	-3858
पालन	-3859
▁संयंत्र	-3860
▁निष्पादन	-3861
▁असमर्थ	-3862
▁आपराधिक	-3863
▁श्रृंखला	-3864
न्ड	-3865
▁जरिए	-3866
▁प्रतिकूल	-3867
कां	-3868
कृष्ण	-3869
▁e	-3870
▁खतरा	-3871
▁उठाने	-3872
परी	-3873
▁भावी	-3874
▁प्रत्या	-3875
▁बू	-3876
▁नाग	-3877
▁इसने	-3878
म्मत	-3879
▁पेड़	-3880
▁लाइन	-3881
गन	-3882
र्पित	-3883
▁आहार	-3884
▁प्रचलित	-3885
▁विश्वविद्यालयों	-3886
▁कंपनियों	-3887
आप	-3888
▁लक	-3889
पू	-3890
मार्ग	-3891
▁नारा	-3892
पंथ	-3893
पचारिक	-3894
▁राजस्थान	-3895
▁विद्यालय	-3896
ंजन	-3897
क्रिय	-3898
▁मालूम	-3899
▁अवै	-3900
फर	-3901
▁सौर	-3902
▁फिली	-3903
▁हाथों	-3904
▁साक्षी	-3905
▁g	-3906
दंड	-3907
▁फोन	-3908
ेंद्र	-3909
▁जनजा	-3910
▁मोबाइल	-3911
ोल्डर	-3912
▁चलाने	-3913
▁हितों	-3914
▁चढ़	-3915
▁खींच	-3916
▁वृक्ष	-3917
▁सूत्र	-3918
▁हार	-3919
▁पर्यटन	-3920
▁दिना	-3921
ग्रस्त	-3922
▁h	-3923
▁छवि	-3924
▁गार	-3925
▁भंडारण	-3926
▁पुरानी	-3927
▁–	-3928
▁सतह	-3929
▁प्रतिस्प	-3930
▁नै	-3931
▁भु	-3932
▁सुदृ	-3933
विन	-3934
▁नोड	-3935
▁दबाव	-3936
▁पूछा	-3937
▁सरदार	-3938
ामान	-3939
िकाओं	-3940
▁निरीक्षण	-3941
वली	-3942
▁राजधान	-3943
▁'%	-3944
▁किस्म	-3945
▁शर्तों	-3946
▁चिकित्स	-3947
▁m	-3948
▁दुख	-3949
▁वाक	-3950
▁धारणा	-3951
▁फरवरी	-3952
▁स्वीकृति	-3953
▁प्रथा	-3954
म्मद	-3955
भावना	-3956
▁ब्य	-3957
▁वर्गों	-3958
▁दुर्घटना	-3959
▁पाते	-3960
धियों	-3961
▁देंगे	-3962
▁दुः	-3963
पेक्ष	-3964
▁उद्ध	-3965
▁सुनवाई	-3966
▁सम्पूर्ण	-3967
्नों	-3968
▁काउ	-3969
▁रास्ते	-3970
▁समृद्ध	-3971
ेंसी	-3972
▁अका	-3973
▁वीर	-3974
▁कहान	-3975
▁लिखे	-3976
ing	-3977
▁वंश	-3978
▁बाकी	-3979
▁किनारे	-3980
यक	-3981
▁स्वाम	-3982
▁उपस्थिति	-3983
स्थायी	-3984
▁अग्रिम	-3985
याल	-3986
▁आवश्यकताओं	-3987
र्की	-3988
र्पण	-3989
▁सें	-3990
▁मुद्र	-3991
▁विभिन्	-3992
▁समर्पित	-3993
▁सर्वोत्तम	-3994
▁किसान	-3995
वश	-3996
सार	-3997
▁बहा	-3998
▁मध्यम	-3999
▁अनुसरण	-4000
रचना	-4001
▁अद्य	-4002
▁विधियों	-4003
▁बीमार	-4004
़्य	-4005
▁टिक	-4006
थित	-4007
याँ	-4008
▁मूर्	-4009
▁नीतियों	-4010
▁आकर	-4011
▁सागर	-4012
▁फा	-4013
▁परिषद्	-4014
▁तुम्हारे	-4015
▁अनुसूची	-4016
▁अली	-4017
▁दीवार	-4018
▁R	-4019
गोर	-4020
▁लंबी	-4021
▁संगम	-4022
▁मालिक	-4023
गि	-4024
▁शिखर	-4025
▁पूर्ति	-4026
/-	-4027
▁खड़ा	-4028
▁परा	-4029
▁मिलियन	-4030
पत	-4031
▁शत्र	-4032
▁छात्र	-4033
▁योजनाओं	-4034
▁संक्रमण	-4035
▁परिभाषित	-4036
▁सराह	-4037
▁पढ़ने	-4038
▁डाटा	-4039
▁सौंप	-4040
▁शीर्षक	-4041
▁रण	-4042
चानक	-4043
नाटक	-4044
यह	-4045
▁कू	-4046
▁जीत	-4047
▁बोस	-4048
▁अधिर	-4049
▁बदलने	-4050
▁कमा	-4051
▁तला	-4052
▁चालू	-4053
as	-4054
▁बदले	-4055
▁संदाय	-4056
▁आलोचना	-4057
▁ऑनलाइन	-4058
▁अनुसूचित	-4059
▁१	-4060
गमन	-4061
लेट	-4062
▁दास	-4063
▁बनाये	-4064
▁श्रेष्ठ	-4065
▁देखना	-4066
णिक	-4067
▁सिद्धांतों	-4068
विष्ट	-4069
▁त्वचा	-4070
ज़ार	-4071
ाक	-4072
▁हल्	-4073
ख्यात	-4074
▁सिवा	-4075
▁प्राथमिकता	-4076
▁असर	-4077
▁रहें	-4078
▁अचानक	-4079
▁कश्मीर	-4080
▁जाल	-4081
▁प्रि	-4082
▁>>	-4083
क़्त	-4084
ष्ठा	-4085
▁प्री	-4086
पश्च	-4087
▁सिल	-4088
▁उदार	-4089
▁संदेह	-4090
▁चलने	-4091
▁झु	-4092
▁कितने	-4093
▁विभाजित	-4094
▁प्रतियोग	-4095
वित	-4096
ष्प	-4097
स्तु	-4098
▁उन्	-4099
▁स्त्र	-4100
▁यौ	-4101
▁बुला	-4102
▁लेखन	-4103
):	-4104
फ़ी	-4105
िवेश	-4106
▁पूर्वो	-4107
▁दुर	-4108
▁स्वतः	-4109
▁x	-4110
परि	-4111
ंध्र	-4112
नीति	-4113
▁संक्षिप्त	-4114
▁संबोध	-4115
▁फ़िल्म	-4116
न्दु	-4117
▁नेपाल	-4118
▁प्रदूषण	-4119
▁धु	-4120
ासा	-4121
ीकृत	-4122
▁राजधानी	-4123
▁पल	-4124
्यक	-4125
▁मृ	-4126
▁जड़	-4127
▁पैरा	-4128
उन	-4129
काब	-4130
▁धो	-4131
▁मॉडल	-4132
▁स्वस्थ	-4133
▁अस्वी	-4134
▁ढांचे	-4135
▁विद्र	-4136
▁सुदृढ़	-4137
जीवन	-4138
▁चन्द्र	-4139
▁हार्दिक	-4140
▁प्रारम्भ	-4141
▁मधु	-4142
रेखा	-4143
▁बल्ले	-4144
▁उल्लेखनीय	-4145
दरा	-4146
ब्ल	-4147
▁इनकी	-4148
▁फर्म	-4149
ॉट	-4150
▁ज़्यादा	-4151
ाले	-4152
▁परे	-4153
▁करवा	-4154
▁प्रवृत्ति	-4155
और	-4156
▁लम्	-4157
▁आस्त	-4158
▁निच	-4159
ट्	-4160
▁कम्पनी	-4161
एच	-4162
ंसिल	-4163
ानिक	-4164
▁जागर	-4165
▁प्रशंसा	-4166
▁अवैध	-4167
▁समानता	-4168
▁छो	-4169
▁विनिश्च	-4170
▁सुविधाएं	-4171
दूस	-4172
सागर	-4173
▁दैनिक	-4174
▁सब्	-4175
▁दर्द	-4176
▁बिहार	-4177
▁हिमालय	-4178
न्थ	-4179
▁कब	-4180
▁उसको	-4181
टि	-4182
वां	-4183
▁सन	-4184
▁आजादी	-4185
रेख	-4186
त्ती	-4187
▁निव	-4188
वैधानिक	-4189
▁संवर्धन	-4190
िल्प	-4191
▁तत्काल	-4192
▁ग़	-4193
▁ट्यू	-4194
▁तिथि	-4195
▁वचन	-4196
▁अनुमोदन	-4197
▁छात्रों	-4198
▁पक्षकार	-4199
▁प्रतिस्पर्	-4200
▁जलवायु	-4201
क्सी	-4202
▁नेश	-4203
▁मकान	-4204
▁पत्थर	-4205
▁आनु	-4206
▁जिम्मेदारी	-4207
िस्त	-4208
▁पार्	-4209
▁अत्या	-4210
▁किताब	-4211
▁मजदूर	-4212
▁उद्घाटन	-4213
▁पैर	-4214
ायर	-4215
▁वर्णित	-4216
▁ब्राह्म	-4217
▁प्रतिभूति	-4218
▁स्वाभाविक	-4219
भि	-4220
▁कैं	-4221
▁बाबू	-4222
म्मू	-4223
▁हालत	-4224
०क	-4225
खों	-4226
▁झा	-4227
▁मिनट	-4228
▁निर्व	-4229
बादी	-4230
▁जैन	-4231
▁N	-4232
▁दिव्य	-4233
▁विपणन	-4234
▁समूहों	-4235
ग़	-4236
▁गहन	-4237
ेंड	-4238
ंतरण	-4239
▁ठोस	-4240
▁बिंदु	-4241
▁संशोधित	-4242
चार्य	-4243
▁जवाह	-4244
▁प्राधिकार	-4245
▁यथास्थिति	-4246
▁समुद्री	-4247
▁आकाश	-4248
▁हस्तक्षेप	-4249
▁पूर्	-4250
▁होम	-4251
▁नौकरी	-4252
ोटो	-4253
०वीं	-4254
म्परा	-4255
▁अर्ध	-4256
▁प्रेस	-4257
बाजी	-4258
▁राजस्व	-4259
ार्ज	-4260
▁पीठ	-4261
.)	-4262
ेंज	-4263
▁तोड़	-4264
▁गरीबी	-4265
जात	-4266
▁खत्म	-4267
▁धातु	-4268
▁लिंग	-4269
▁मृत्युदंड	-4270
क्क	-4271
▁उपर	-4272
▁मिलते	-4273
▁कच्च	-4274
▁विनिमय	-4275
यात	-4276
▁चुनौ	-4277
▁क्लिक	-4278
▁विनय	-4279
▁गहरी	-4280
▁भारतीयों	-4281
क्रो	-4282
▁बजट	-4283
▁अक्त	-4284
▁खाली	-4285
▁अय	-4286
वाना	-4287
ूहिक	-4288
▁शिक्षक	-4289
ed	-4290
▁आना	-4291
▁डिजा	-4292
▁शिशु	-4293
▁उत्तरदायी	-4294
▁नील	-4295
▁हाइ	-4296
▁विज्ञ	-4297
ूष	-4298
▁डाला	-4299
▁बालक	-4300
▁संवाद	-4301
ॉर्ड	-4302
▁अद्यतन	-4303
▁फे	-4304
▁कर्नाटक	-4305
दल	-4306
▁सोचा	-4307
▁पड	-4308
▁सिद्धान्त	-4309
▁कष्ट	-4310
▁परिक	-4311
▁भेंट	-4312
जनन	-4313
▁चुने	-4314
क्ताओं	-4315
▁निवारण	-4316
▁मिलाकर	-4317
ंडित	-4318
व्याप	-4319
▁नंबर	-4320
▁L	-4321
▁वस्तुत	-4322
▁बांध	-4323
वृत्ति	-4324
▁गांवों	-4325
▁कब्	-4326
▁गुफा	-4327
▁लाइस	-4328
▁कराया	-4329
▁परिचय	-4330
ent	-4331
▁गू	-4332
गरानी	-4333
▁तत्वों	-4334
यू	-4335
▁द्विप	-4336
साइ	-4337
▁पत	-4338
▁उत्तरा	-4339
▁ब्रिटेन	-4340
▁खतर	-4341
तियां	-4342
▁जनरल	-4343
▁पट्ट	-4344
▁रद्द	-4345
▁कहने	-4346
▁खराब	-4347
ास्ट	-4348
▁अनि	-4349
▁वर्गी	-4350
▁तथ्यों	-4351
ॉनिक	-4352
▁अब्द	-4353
▁अग्रणी	-4354
▁सामूहिक	-4355
▁पक्षों	-4356
▁सामान्यतः	-4357
▁आदान	-4358
▁कमरे	-4359
▁राहत	-4360
▁सितंबर	-4361
▁M	-4362
दर्शी	-4363
▁n	-4364
▁दान	-4365
▁गणना	-4366
▁हद	-4367
▁निश	-4368
▁गवर्	-4369
▁भंडार	-4370
▁शहरों	-4371
▁असाधारण	-4372
▁सकेगी	-4373
▁ब्रह्म	-4374
▁क्रांति	-4375
▁विद्वान	-4376
▁भले	-4377
▁प्रणाल	-4378
▁उभर	-4379
▁निगरानी	-4380
el	-4381
लैंड	-4382
▁बजा	-4383
श्वास	-4384
▁पौधों	-4385
्रमण	-4386
▁कठिनाई	-4387
▁समृद्धि	-4388
तरी	-4389
वरों	-4390
▁चीनी	-4391
iii	-4392
▁लाइ	-4393
▁लड़के	-4394
कू	-4395
पक्ष	-4396
▁अभिला	-4397
▁अक्तूबर	-4398
▁व्यक्तित्व	-4399
वस्था	-4400
▁पड़ी	-4401
▁परिभाषा	-4402
धक	-4403
रम	-4404
▁तंत्रिका	-4405
घर	-4406
▁चिंत	-4407
पो	-4408
▁घटा	-4409
▁डाय	-4410
▁बौद्धिक	-4411
शे	-4412
▁इस्लामी	-4413
▁प्रविष्टि	-4414
▁अवल	-4415
▁जम्मू	-4416
वधि	-4417
िवर्	-4418
▁शान	-4419
▁स्वर्ण	-4420
▁अज	-4421
▁चाय	-4422
▁सुबह	-4423
टु	-4424
वादियों	-4425
▁यूरोपीय	-4426
▁बाँ	-4427
▁लगाना	-4428
▁उच्चतर	-4429
ल्ला	-4430
▁कोर्ट	-4431
ङ्	-4432
स्ट्रे	-4433
▁जानने	-4434
निर्देश	-4435
▁फ्ल	-4436
कार्य	-4437
▁परम्परा	-4438
ेदन	-4439
टो	-4440
▁सफेद	-4441
▁रहस्य	-4442
▁कार्यवाहियों	-4443
ठे	-4444
दूसरे	-4445
▁लड़ाई	-4446
कोश	-4447
ंख्य	-4448
▁द्वि	-4449
▁सीमाओं	-4450
▁देशी	-4451
▁बचाव	-4452
▁चीजों	-4453
▁कारावास	-4454
▁मैत्री	-4455
▁प्रतिबंध	-4456
il	-4457
▁लेती	-4458
ामान्य	-4459
▁अपनाया	-4460
▁अवसरों	-4461
▁योग्यता	-4462
▁लाइसेंस	-4463
▁फार्म	-4464
श्म	-4465
▁उतना	-4466
▁प्यार	-4467
ोजक	-4468
▁उतर	-4469
▁पाद	-4470
▁वैध	-4471
▁मुद्दे	-4472
▁रवीन्द्रनाथ	-4473
▁कहता	-4474
▁कहला	-4475
▁मानना	-4476
▁पदार्थों	-4477
▁दावे	-4478
▁बैंकिंग	-4479
▁उपे	-4480
ao	-4481
लन	-4482
ंभव	-4483
▁दरवा	-4484
▁आंध्र	-4485
▁आरंभिक	-4486
नाक	-4487
▁मोड	-4488
▁खतरे	-4489
▁मुकाब	-4490
▁मूलभूत	-4491
▁खड़े	-4492
▁ताकत	-4493
▁निपटान	-4494
न्या	-4495
▁क्व	-4496
▁खण्ड	-4497
▁पाँच	-4498
▁माध्यस्थ	-4499
▁शल	-4500
▁उन्नत	-4501
▁नेशनल	-4502
▁उपकरणों	-4503
▁सेल	-4504
▁सावधानी	-4505
▁आब	-4506
▁मक	-4507
ंशिक	-4508
दायक	-4509
▁जीवा	-4510
▁अंतरिक्ष	-4511
ंठ	-4512
ॉलर	-4513
ायें	-4514
ग्रहण	-4515
▁प्रक्रियाओं	-4516
उंड	-4517
ैया	-4518
श्र	-4519
▁ट्रै	-4520
▁ध्वज	-4521
▁पोषण	-4522
▁नृत्य	-4523
▁बनाता	-4524
▁मुक्ति	-4525
▁पर्	-4526
▁स्क्रीन	-4527
▁न्यायपालिका	-4528
विमर्श	-4529
▁भक्ति	-4530
▁क्	-4531
जैसे	-4532
▁अध्याप	-4533
▁संवैधानिक	-4534
▁पैसे	-4535
बो	-4536
फोन	-4537
▁पर्वत	-4538
▁बिलकुल	-4539
▁सेटिंग	-4540
१२	-4541
▁भूत	-4542
▁विरासत	-4543
▁विविधता	-4544
▁प्रतिबद्ध	-4545
ंटा	-4546
▁आक	-4547
▁पैमाने	-4548
▁आराम	-4549
▁ध्वनि	-4550
▁साहित्यिक	-4551
▁उर्व	-4552
▁बांग	-4553
▁वस्त्र	-4554
▁अनुज्ञात	-4555
▁,	-4556
प्रदान	-4557
▁तीसरे	-4558
▁अधिसूचना	-4559
जब	-4560
डि	-4561
▁जायें	-4562
▁उपायों	-4563
▁पंक्ति	-4564
▁प्रश्नों	-4565
▁शक्तिशाली	-4566
दोष	-4567
▁साझी	-4568
सनीय	-4569
▁फ्र	-4570
मान्य	-4571
▁मैने	-4572
▁उठाया	-4573
▁कामना	-4574
▁चंद्र	-4575
▁उद्यान	-4576
▁युक्ति	-4577
यिक	-4578
ूली	-4579
ol	-4580
▁पोजी	-4581
▁वंचित	-4582
▁चू	-4583
▁लु	-4584
▁अदा	-4585
▁ड्र	-4586
▁हिंदुस्तान	-4587
▁मौलिक	-4588
धीरे	-4589
▁बजे	-4590
▁प्रतियोगिता	-4591
▁पश	-4592
▁आवेद	-4593
▁ग्री	-4594
िरी	-4595
▁‘‘	-4596
▁जीन	-4597
▁यूनिट	-4598
▁अर्जित	-4599
▁जातियों	-4600
ंतिक	-4601
▁न्यास	-4602
▁अपराधों	-4603
▁औपचारिक	-4604
राशि	-4605
▁डिजाइन	-4606
▁मंदिरों	-4607
▁प्राधिकृत	-4608
दो	-4609
▁उपखंड	-4610
▁संध्या	-4611
लाब	-4612
▁अवमान	-4613
ou	-4614
हम	-4615
▁E	-4616
्त्र	-4617
▁कक्षा	-4618
▁पोर्ट	-4619
▁अमरीका	-4620
▁पृष्ठभूमि	-4621
ंघन	-4622
भेद	-4623
▁कोय	-4624
▁मोटर	-4625
▁पहुंचने	-4626
▁मण	-4627
िश्र	-4628
▁बेल	-4629
▁इसील	-4630
ंगों	-4631
्रोल	-4632
▁सदी	-4633
▁अधिरोप	-4634
▁अनुचित	-4635
▁मध्यस्थ	-4636
▁विनिर्माण	-4637
काय	-4638
सिंह	-4639
▁स्वभाव	-4640
▁विनिश्चय	-4641
▁प्रतिवादी	-4642
तो	-4643
शः	-4644
सूर	-4645
▁झील	-4646
▁दिमा	-4647
▁बच्चा	-4648
▁शिक्षण	-4649
पना	-4650
ग्रा	-4651
र्जन	-4652
▁घटक	-4653
▁फें	-4654
▁मिथ	-4655
▁दिला	-4656
▁पहलू	-4657
▁भेजे	-4658
▁निर्मा	-4659
▁धन्यवाद	-4660
▁खिल	-4661
ख्यान	-4662
▁अगला	-4663
▁उपर्य	-4664
▁स्मार	-4665
▁सत्याप	-4666
़्त	-4667
▁गुजर	-4668
▁पौधे	-4669
िस्ट्रेट	-4670
▁उद्देश्यों	-4671
िब	-4672
▁सराहना	-4673
▁संचालित	-4674
्मी	-4675
▁यहू	-4676
लै	-4677
▁वस	-4678
▁पॉल	-4679
▁उन्म	-4680
▁पोजीशन	-4681
षे	-4682
▁जुड़	-4683
▁पीढ़ी	-4684
▁तापमान	-4685
ुण	-4686
वती	-4687
▁चाहती	-4688
▁अस्थायी	-4689
अनु	-4690
रुप	-4691
▁यो	-4692
▁आश्व	-4693
▁याची	-4694
▁सकेंगे	-4695
ac	-4696
▁जहाज	-4697
▁साइट	-4698
▁साहस	-4699
▁द्विपक्षीय	-4700
ुति	-4701
हारिक	-4702
▁कायम	-4703
▁जुड़ा	-4704
▁फ्रांस	-4705
▁प्रवर्तन	-4706
▁शक्तियां	-4707
▁नार	-4708
▁वसू	-4709
▁गर्भ	-4710
▁पेंशन	-4711
▁रेडियो	-4712
पार	-4713
▁नेत्र	-4714
▁उपलब्धि	-4715
ंपरिक	-4716
▁पृथक	-4717
कलापों	-4718
▁लॉग	-4719
मैं	-4720
म्बे	-4721
▁रेश	-4722
▁शोक	-4723
▁संबोधित	-4724
ुरी	-4725
▁खि	-4726
▁एयर	-4727
▁निकाला	-4728
▁स्थाना	-4729
ंचाई	-4730
▁वेद	-4731
▁तमिलना	-4732
ड्डी	-4733
▁तस्वी	-4734
▁सम्पत्ति	-4735
▁स्वामित्व	-4736
कीर्ण	-4737
▁मनोर	-4738
ध्यक्ष	-4739
▁मानो	-4740
म्बई	-4741
प्राप्त	-4742
▁बहस	-4743
▁मरा	-4744
▁मुला	-4745
▁अत्यन्त	-4746
पादक	-4747
▁जिनसे	-4748
▁यथार्थ	-4749
पीठ	-4750
शिष्ट	-4751
▁प्रांत	-4752
▁परिवर्त	-4753
▁आर्	-4754
▁टिप्पणी	-4755
▁घूम	-4756
▁बनाकर	-4757
रस	-4758
▁भरा	-4759
▁चतु	-4760
▁ग्राफ	-4761
ोब	-4762
▁ठहरा	-4763
लिंग	-4764
▁जाओ	-4765
▁लगती	-4766
स्तानी	-4767
यत	-4768
▁कोशिकाओं	-4769
▁दाख	-4770
▁संतुलन	-4771
▁लल	-4772
▁विक्रय	-4773
ँग	-4774
▁झू	-4775
▁ढांचा	-4776
▁मूर्ति	-4777
▁विद्यार्थी	-4778
▁पच	-4779
त्ते	-4780
▁दक्षिणी	-4781
मै	-4782
गरी	-4783
सेना	-4784
▁दिलच	-4785
▁समितियों	-4786
▁ईसाई	-4787
▁हिमा	-4788
शोथ	-4789
क्राम	-4790
व्यों	-4791
▁रानी	-4792
▁भर्ती	-4793
▁छाप	-4794
▁रिट	-4795
▁हटाने	-4796
▁प्रभाग	-4797
▁रुचि	-4798
▁श्रमिक	-4799
▁अवधारणा	-4800
रु	-4801
्टा	-4802
▁वादी	-4803
▁शर्त	-4804
▁देवता	-4805
▁पंडित	-4806
▁मिलेगी	-4807
िवृ	-4808
▁भंग	-4809
▁इलाज	-4810
▁समाय	-4811
▁कॉलेज	-4812
▁उपय	-4813
दृश्य	-4814
▁अकेले	-4815
▁व्युत्	-4816
▁क्रियान्व	-4817
▁मुकदमे	-4818
स्ट्रेलिया	-4819
▁समझते	-4820
▁युवाओं	-4821
▁गिरफ्तार	-4822
▁वय	-4823
वर्ड	-4824
▁आबादी	-4825
▁कराना	-4826
▁दिसंबर	-4827
▁रजिस्ट्रीकरण	-4828
उप	-4829
▁जितनी	-4830
▁महीनों	-4831
▁मिलेगा	-4832
ंदगी	-4833
प्रद	-4834
मानी	-4835
▁क्षण	-4836
▁रसायन	-4837
▁पत्रिका	-4838
▁उपर्युक्त	-4839
▁पंख	-4840
▁बचत	-4841
▁दोनो	-4842
▁चैनल	-4843
▁बिता	-4844
▁इंडियन	-4845
▁होंगी	-4846
िर्धारित	-4847
▁कारोबार	-4848
ाइन	-4849
पोषण	-4850
▁बोली	-4851
▁परिवेश	-4852
▁संवेदन	-4853
▁पोत	-4854
▁शेय	-4855
▁रहेंगे	-4856
▁खूब	-4857
▁लंबित	-4858
▁मानी	-4859
▁वर्मा	-4860
व्यवहार	-4861
▁दिखाया	-4862
▁जिम्मेदार	-4863
तन्य	-4864
▁हकदार	-4865
▁इंजीनिय	-4866
▁महाभारत	-4867
▁उपयोगकर्ता	-4868
हे	-4869
गामी	-4870
▁खनि	-4871
▁अकाद	-4872
▁जाएँ	-4873
▁देखे	-4874
▁फैला	-4875
▁रिकार्ड	-4876
▁संभावित	-4877
▁मार्गदर्शन	-4878
पंथी	-4879
▁संतु	-4880
ंत्रित	-4881
▁महाराजा	-4882
am	-4883
▁इमार	-4884
▁कारक	-4885
▁चुना	-4886
▁दण्ड	-4887
▁पांड	-4888
▁लड़की	-4889
▁गारंटी	-4890
▁प्रतिदिन	-4891
▁पक्षकारों	-4892
▁सकारात्मक	-4893
हाई	-4894
बारा	-4895
▁दोहरा	-4896
▁स्तरों	-4897
थान	-4898
▁सद्	-4899
▁नाते	-4900
▁मछली	-4901
▁श्रीमती	-4902
शाह	-4903
्मा	-4904
▁दीव	-4905
▁उतार	-4906
▁निष्क्रिय	-4907
च्छिक	-4908
▁संदेय	-4909
ष्णु	-4910
▁गुल	-4911
ड़िया	-4912
द्रास	-4913
▁तात्	-4914
▁धरती	-4915
▁स्टेशन	-4916
▁उन्होने	-4917
▁फ़ोल्डर	-4918
▁b	-4919
▁चिप	-4920
दराबाद	-4921
▁वसूली	-4922
तांत्रिक	-4923
काता	-4924
▁इंद	-4925
▁पेशे	-4926
▁मातृ	-4927
▁शांत	-4928
▁इलेक्ट्रॉनिक	-4929
▁y	-4930
▁चुनें	-4931
▁बनाते	-4932
▁अन्वेषण	-4933
▁पुष्टि	-4934
▁पारंपरिक	-4935
▁गुरू	-4936
▁जोड़ने	-4937
▁आधारभूत	-4938
ज़े	-4939
जाल	-4940
कर्म	-4941
▁तदन	-4942
▁विद्रोह	-4943
▁न्	-4944
▁बढ़ने	-4945
▁संतोष	-4946
▁इच्छ	-4947
▁इसीलिए	-4948
ंटर	-4949
▁अम्	-4950
▁ढूं	-4951
▁डालने	-4952
▁समन्वय	-4953
▁ग्राहकों	-4954
▁हिस	-4955
▁अभिगम	-4956
▁अंग्रेज	-4957
▁पंजीकृत	-4958
▁चली	-4959
कांक्षा	-4960
▁सिंचाई	-4961
▁बांग्ला	-4962
पल	-4963
▁D	-4964
▁रिज	-4965
क्तिक	-4966
ग्राम	-4967
▁मंडल	-4968
▁सम्बंध	-4969
भौ	-4970
द्दीन	-4971
▁छाया	-4972
▁आतंकवादी	-4973
▁टूट	-4974
▁नान	-4975
▁फार	-4976
▁ऊंचाई	-4977
▁पड़ती	-4978
▁उत्तरदायित्व	-4979
शुल्क	-4980
▁बारह	-4981
▁तरीकों	-4982
▁तिल	-4983
▁निकालने	-4984
▁परिवारों	-4985
▁प्रतीक्षा	-4986
▁दुःख	-4987
▁उल्लंघन	-4988
र्थी	-4989
▁कहां	-4990
▁जोड़ा	-4991
▁चैतन्य	-4992
id	-4993
शास	-4994
▁ट्रे	-4995
▁अभिलाभ	-4996
▁अमरीकी	-4997
▁केंद्रित	-4998
▁अहम	-4999
▁बडी	-5000
▁भगवान्	-5001
जिस	-5002
▁हाँ	-5003
▁याता	-5004
▁कपड़े	-5005
▁बहुमत	-5006
▁विद्या	-5007
▁स्वीकृत	-5008
रलाल	-5009
▁जाग	-5010
▁गुणा	-5011
▁जायेगी	-5012
▁दस्तावेजों	-5013
▁व्यावहारिक	-5014
▁छोड	-5015
▁बीस	-5016
▁मुगल	-5017
▁मानता	-5018
▁आपात	-5019
▁ऊपरी	-5020
▁सुश्री	-5021
▁फैसला	-5022
▁विवेक	-5023
▁k	-5024
ायतों	-5025
▁समझे	-5026
संरचना	-5027
▁सिंध	-5028
कल्पिक	-5029
▁परिसर	-5030
▁पशुओं	-5031
▁पार्क	-5032
▁पहुंचे	-5033
▁पालिसी	-5034
सम्	-5035
▁उदा	-5036
▁लार	-5037
▁एकदम	-5038
क्षणिक	-5039
▁जानकर	-5040
▁जापान	-5041
▁प्रेषित	-5042
▁कोष	-5043
कुमार	-5044
▁कट्ट	-5045
▁देखता	-5046
▁वस्तुतः	-5047
जीवी	-5048
▁पदों	-5049
▁जर्मनी	-5050
कना	-5051
▁पाप	-5052
▁रूपों	-5053
▁मुकदमा	-5054
र्दू	-5055
सीमा	-5056
तावनी	-5057
▁वार्	-5058
▁स्मरण	-5059
▁तुर्की	-5060
▁मद्रास	-5061
▁ईरान	-5062
▁कड़ी	-5063
▁पाता	-5064
▁पहाड़ी	-5065
▁प्रयोगशाला	-5066
ec	-5067
ायल	-5068
ूरक	-5069
▁तत्त्व	-5070
ंधन	-5071
ुत्व	-5072
▁स्टार	-5073
▁शौ	-5074
▁कागज	-5075
▁शान्त	-5076
▁प्रसंस्	-5077
▁गईं	-5078
▁आंशिक	-5079
▁यातायात	-5080
अल	-5081
▁माननीय	-5082
▁व्यापारी	-5083
▁मजिस्ट्रेट	-5084
▁घृ	-5085
इयां	-5086
मानत	-5087
▁लकड़ी	-5088
▁प्रसाद	-5089
▁पूर्णतः	-5090
ड्य	-5091
▁आयी	-5092
▁लगते	-5093
▁हैदराबाद	-5094
▁जला	-5095
▁मुंह	-5096
▁हाथी	-5097
▁गहराई	-5098
मेन	-5099
ुरा	-5100
▁तमिलनाडु	-5101
▁खड़ी	-5102
▁प्लस	-5103
▁प्रजनन	-5104
ण्ट	-5105
र्गी	-5106
▁सूचित	-5107
दुर	-5108
िली	-5109
नलोड	-5110
▁अभ्य	-5111
▁पैके	-5112
▁साझा	-5113
▁सम्भव	-5114
▁चेतावनी	-5115
▁जवाहरलाल	-5116
▁कॉल	-5117
▁गौरव	-5118
▁दार्	-5119
▁राजभाषा	-5120
▁सम्पर्क	-5121
st	-5122
▁तृ	-5123
▁चेक	-5124
▁थोड़ी	-5125
▁इंग्लैंड	-5126
१३	-5127
▁किन्हीं	-5128
ोज़	-5129
▁फु	-5130
निंग	-5131
▁गिरा	-5132
▁रोगों	-5133
▁उन्हीं	-5134
हल	-5135
शोधन	-5136
▁कर्ण	-5137
▁उत्तेज	-5138
नान	-5139
ायण	-5140
यालय	-5141
▁ज्व	-5142
▁दुकान	-5143
▁रिक्त	-5144
▁समझता	-5145
▁पहलुओं	-5146
▁विवरणी	-5147
स्को	-5148
▁संभवतः	-5149
िपी	-5150
ोहन	-5151
▁हां	-5152
▁डॉलर	-5153
▁भांति	-5154
▁संगठित	-5155
▁प्रतिष्ठित	-5156
ैंक	-5157
▁चुप	-5158
▁तारा	-5159
▁भेजने	-5160
▁मानवता	-5161
थे	-5162
▁जमी	-5163
▁शंकर	-5164
▁चुकता	-5165
ंजा	-5166
▁लिंक	-5167
▁उल्लिखित	-5168
▁अवय	-5169
▁नकारात्मक	-5170
मंड	-5171
▁बग	-5172
्रीम	-5173
▁डिज	-5174
▁उत्तम	-5175
▁ड्राइ	-5176
▁वापसी	-5177
▁एव	-5178
▁हरि	-5179
▁आखिर	-5180
▁पड़ेगा	-5181
▁फलस्वरूप	-5182
▁सम्बन्धित	-5183
▁आपस	-5184
▁सीधा	-5185
▁चयनित	-5186
▁किलोमीटर	-5187
कन	-5188
्रु	-5189
स्थल	-5190
▁कही	-5191
▁निरसन	-5192
▁शो	-5193
▁डाउ	-5194
▁ज्यो	-5195
▁साधनों	-5196
▁वैकल्पिक	-5197
भाषण	-5198
वंबर	-5199
▁निवासी	-5200
▁शिक्षकों	-5201
▁अभिनिर्धारित	-5202
▁सल	-5203
▁तैयारी	-5204
▁एल्	-5205
▁अक्षम	-5206
▁दक्षता	-5207
्वे	-5208
▁भरी	-5209
▁भरो	-5210
▁गाड़ी	-5211
▁मान्य	-5212
▁स्टेट	-5213
राष्ट्र	-5214
खन	-5215
िटल	-5216
्वान	-5217
▁लोड	-5218
▁उतनी	-5219
▁बैठे	-5220
▁कानूनों	-5221
ad	-5222
ंगत	-5223
लांग	-5224
▁सिवाय	-5225
▁शानदार	-5226
▁क्रांतिक	-5227
जनों	-5228
▁प्रबल	-5229
▁संपदा	-5230
▁कुशलता	-5231
पै	-5232
फेसर	-5233
▁दोस्त	-5234
▁अंग्रेजों	-5235
▁औषध	-5236
▁गद्य	-5237
▁देखी	-5238
▁रखकर	-5239
▁जू	-5240
▁पढ	-5241
ुप्त	-5242
▁आबंट	-5243
▁भाष्	-5244
▁साझे	-5245
▁साहब	-5246
▁दिनांक	-5247
निर	-5248
गों	-5249
्नि	-5250
▁कस	-5251
▁दाखिल	-5252
▁पुनर्व	-5253
▁कनेक्शन	-5254
अन	-5255
न्दा	-5256
▁खोलने	-5257
▁i	-5258
साम	-5259
▁आकलन	-5260
▁अपमान	-5261
▁प्रास	-5262
▁वृद्ध	-5263
▁प्रतिबि	-5264
राय	-5265
श्रे	-5266
▁इस्	-5267
ष्कार	-5268
तन्त्र	-5269
▁अपनाने	-5270
बु	-5271
ड़ना	-5272
▁नाब	-5273
▁मेन	-5274
▁अखिल	-5275
▁उग्र	-5276
▁कथित	-5277
▁चीजें	-5278
▁रहेगी	-5279
ुणा	-5280
न्तर	-5281
विदा	-5282
▁भरे	-5283
▁पुस्तकों	-5284
▁विश्वसनीय	-5285
▁शपथ	-5286
▁सतत	-5287
▁मुझसे	-5288
▁लाना	-5289
▁संधि	-5290
▁अंततः	-5291
▁चिन्ह	-5292
▁तीनों	-5293
▁हिसाब	-5294
▁गांधीजी	-5295
▁व्यवस्थित	-5296
ME	-5297
▁ष	-5298
▁कोलकाता	-5299
▁स्त्रियों	-5300
▁खून	-5301
छा	-5302
डो	-5303
दनी	-5304
▁सिख	-5305
▁पाये	-5306
▁क्रमशः	-5307
▁अनुपालन	-5308
▁चुनौतियों	-5309
वाने	-5310
▁काला	-5311
▁माने	-5312
▁जीवों	-5313
▁अंतराल	-5314
▁रूपांत	-5315
शनिक	-5316
ापरी	-5317
▁अफग	-5318
▁सिक	-5319
▁बन्द	-5320
प्ति	-5321
स्टर	-5322
▁पहन	-5323
▁उर्दू	-5324
झा	-5325
प्न	-5326
काया	-5327
▁विनाश	-5328
िलों	-5329
▁साध	-5330
▁हरे	-5331
▁कट्टर	-5332
▁नवंबर	-5333
▁सैन्य	-5334
▁अपराधी	-5335
▁एकीकृत	-5336
▁निष्ठा	-5337
▁क्षतिपूर्ति	-5338
▁पोल	-5339
▁लिप	-5340
▁हमे	-5341
वृत्त	-5342
▁गतिविधि	-5343
he	-5344
▁घो	-5345
▁अनाज	-5346
▁घरों	-5347
▁चिकित्सक	-5348
▁नज	-5349
▁मिश्रण	-5350
ँस	-5351
प्ट	-5352
ड़ीसा	-5353
ब्लिक	-5354
▁एजेंस	-5355
▁डाउनलोड	-5356
▁प्रोफेसर	-5357
▁शोर	-5358
▁बारी	-5359
▁गुणों	-5360
▁प्रतिर	-5361
त्रिम	-5362
▁कीटों	-5363
▁मशीनरी	-5364
▁स्थितियों	-5365
ारक	-5366
▁अट	-5367
▁प्रमाणित	-5368
▁चिकित्सीय	-5369
क्ल	-5370
▁शास्त्र	-5371
▁कार्यान्वित	-5372
वारी	-5373
▁ट्यूब	-5374
▁घनिष्ठ	-5375
▁मित्रों	-5376
बेस	-5377
शब्द	-5378
ोनें	-5379
दाताओं	-5380
▁चेहरे	-5381
▁एजेंसी	-5382
चालित	-5383
▁सहारा	-5384
▁आरक्षित	-5385
▁विवादों	-5386
ंसक	-5387
▁अहि	-5388
▁रेड	-5389
▁शल्य	-5390
▁स्वाधीन	-5391
▁लोकतांत्रिक	-5392
ढ़े	-5393
▁घास	-5394
▁निम	-5395
▁बोध	-5396
▁मंजूर	-5397
▁बम	-5398
▁महल	-5399
▁इंजीनियर	-5400
IN	-5401
पेश	-5402
मुच	-5403
▁सेक	-5404
▁उठाए	-5405
▁दोषी	-5406
▁वैज्ञानिकों	-5407
ेरे	-5408
▁इकट	-5409
▁टिप्पण	-5410
▁तस्वीर	-5411
▁भव	-5412
▁पैसा	-5413
▁शत्रु	-5414
▁कार्यपालिका	-5415
स्कर	-5416
▁राह	-5417
गोलिक	-5418
▁माध्यस्थम्	-5419
▁फौ	-5420
▁किराये	-5421
og	-5422
माम	-5423
ोटी	-5424
▁ऑफ़	-5425
▁वांछ	-5426
▁दार्शनिक	-5427
्राव	-5428
▁पाइ	-5429
▁सकल	-5430
्रेता	-5431
▁आपसे	-5432
▁हमला	-5433
▁क्रमा	-5434
▁जुड़ी	-5435
▁मानकों	-5436
▁रहित	-5437
▁पीड़ा	-5438
▁पुरूष	-5439
▁संपन्न	-5440
हो	-5441
धर्म	-5442
▁सड़	-5443
▁घाटी	-5444
▁लिपि	-5445
▁सतर्क	-5446
▁हजारों	-5447
▁रचनात्मक	-5448
डन	-5449
▁बुल	-5450
▁बंदर	-5451
▁दिमाग	-5452
▁बढ़ते	-5453
▁वाद्य	-5454
लक	-5455
ोद	-5456
क़्	-5457
▁संभाल	-5458
▁डिग्री	-5459
▁प्रदत्त	-5460
▁शैक्षणिक	-5461
ूनी	-5462
▁सहन	-5463
▁चट्ट	-5464
▁पंचा	-5465
▁कार्यरत	-5466
गुण	-5467
मिन	-5468
▁उभ	-5469
▁उत्पादक	-5470
सलों	-5471
▁कहाँ	-5472
▁लंदन	-5473
▁नवम्बर	-5474
वर्तन	-5475
स्पति	-5476
▁अपरि	-5477
▁बदला	-5478
▁आह्वान	-5479
खाव	-5480
▁बडे	-5481
▁विलंब	-5482
▁सम्रा	-5483
▁परिचित	-5484
विचार	-5485
▁काले	-5486
▁कुटु	-5487
▁आस्था	-5488
▁हार्ड	-5489
▁अभिभाषण	-5490
▁प्रतिफल	-5491
▁राष्ट्रों	-5492
ख्त	-5493
चलन	-5494
िकीय	-5495
▁पढ़ा	-5496
▁बढ़कर	-5497
▁वैदिक	-5498
▁धनराशि	-5499
वह	-5500
ॉम	-5501
▁भक्त	-5502
▁क्रेड	-5503
▁व्यापारिक	-5504
▁निर्देशिका	-5505
ंतरित	-5506
▁सचमुच	-5507
▁दिसम्बर	-5508
जिन	-5509
बों	-5510
▁अमर	-5511
▁जायेंगे	-5512
▁भौगोलिक	-5513
▁अधिरोपित	-5514
बीर	-5515
पर्य	-5516
▁असली	-5517
▁वस्तुएं	-5518
▁दुर्भाग्य	-5519
स्फोट	-5520
▁अस्थि	-5521
▁सहयोगी	-5522
▁पुस्तिका	-5523
▁ब्राह्मण	-5524
▁प्रतिष्ठा	-5525
▁छु	-5526
अपने	-5527
▁बनता	-5528
▁सीता	-5529
▁कृत्रिम	-5530
▁विभागों	-5531
▁नस्ल	-5532
▁स्तन	-5533
▁ज़रूर	-5534
▁पट्टी	-5535
ोक्ताओं	-5536
▁आदेशों	-5537
▁सलाहकार	-5538
ँचे	-5539
ितु	-5540
▁गर्व	-5541
▁फोटो	-5542
ानिस्तान	-5543
▁विचारधारा	-5544
▁प्रभावशाली	-5545
▁विद्वानों	-5546
बूझ	-5547
▁इकट्	-5548
▁वाहन	-5549
▁अनुदेश	-5550
▁उपलब्धता	-5551
▁समुदायों	-5552
▁प्रसंस्करण	-5553
▁सामान्यतया	-5554
खर	-5555
कात	-5556
▁कना	-5557
क़्ति	-5558
साइटी	-5559
ब्ल्यू	-5560
ाधिकार	-5561
▁जिसको	-5562
▁गवर्नर	-5563
▁योजनाएं	-5564
पूर	-5565
▁अभिर	-5566
▁तलाश	-5567
▁लोकसभा	-5568
▁शिक्षित	-5569
▁परिवर्तनों	-5570
▁वास	-5571
ation	-5572
▁देखो	-5573
चन्द्र	-5574
यक्तिक	-5575
▁ज्योति	-5576
▁चुक	-5577
संबंध	-5578
▁आपसी	-5579
▁लेंगे	-5580
▁हिमाचल	-5581
▁प्रतिरोध	-5582
वाँ	-5583
क्की	-5584
▁असह	-5585
▁मस्	-5586
▁कृति	-5587
▁संग्रहालय	-5588
क्सा	-5589
ार्इ	-5590
कियों	-5591
▁अतीत	-5592
▁ब्राउ	-5593
▁अभ्यास	-5594
▁भावनाओं	-5595
▁असामान्य	-5596
▁तू	-5597
दूरी	-5598
ियुक्त	-5599
▁परिस्थिति	-5600
टिक	-5601
▁बेर	-5602
वस्तु	-5603
▁उपेक्षा	-5604
▁कालेज	-5605
ंडिक	-5606
नाइट	-5607
▁चमक	-5608
▁अगली	-5609
▁कुरान	-5610
▁सीखने	-5611
▁दर्शाता	-5612
हीत	-5613
▁रूस	-5614
▁ईमान	-5615
▁अध्या	-5616
▁पूर्वा	-5617
▁विष्णु	-5618
▁ताज	-5619
▁अंडे	-5620
▁अंकित	-5621
▁कैंसर	-5622
▁इकाइयों	-5623
▁विनियमन	-5624
▁सोसाइटी	-5625
सेस	-5626
▁जमानत	-5627
▁तदनुसार	-5628
ेस	-5629
▁मध	-5630
▁अपी	-5631
ंपा	-5632
▁फाइ	-5633
▁मेघ	-5634
▁यानी	-5635
▁अपवाद	-5636
▁मतदान	-5637
एमई	-5638
▁अजी	-5639
▁पुण	-5640
▁रिस	-5641
▁ईंधन	-5642
▁गणित	-5643
▁सुनने	-5644
▁रिकॉर्ड	-5645
▁विनिधान	-5646
aa	-5647
है	-5648
संख	-5649
▁शुक्र	-5650
▁मादा	-5651
परिवर्	-5652
▁खतरनाक	-5653
▁नदियों	-5654
▁अपेक्षाकृत	-5655
▁नकद	-5656
▁शासक	-5657
▁तीसरा	-5658
▁मतभेद	-5659
▁दिखाने	-5660
▁परेशान	-5661
▁क्रेडिट	-5662
▁गीता	-5663
▁चावल	-5664
कंप	-5665
ज्ज	-5666
साई	-5667
हाल	-5668
▁डो	-5669
ोसिए	-5670
▁सूच	-5671
▁गहरे	-5672
▁त्वरित	-5673
▁जॉ	-5674
▁असल	-5675
▁मानदंड	-5676
ढ़ा	-5677
▁टू	-5678
देशी	-5679
▁नवी	-5680
▁बनना	-5681
▁समेक	-5682
▁हाउस	-5683
▁संवेद	-5684
▁उड़ीसा	-5685
▁लेखकों	-5686
कै	-5687
▁संब	-5688
▁बुरी	-5689
▁पैकेज	-5690
▁शेयरों	-5691
▁सुन्दर	-5692
▁रजिस्टर	-5693
▁खर	-5694
▁लीग	-5695
▁जंगल	-5696
▁निबंध	-5697
▁अभिकरण	-5698
▁अभिप्र	-5699
▁दीक्षा	-5700
▁रामायण	-5701
ार्थियों	-5702
▁प्रक्रम	-5703
चाप	-5704
▁अफ़	-5705
▁वन्य	-5706
▁कार्मिक	-5707
▁मुख्यतः	-5708
िथ	-5709
्द	-5710
रखाव	-5711
पुरुष	-5712
▁निधन	-5713
▁रखती	-5714
▁लगाए	-5715
▁मंजूरी	-5716
▁अनुक्रम	-5717
▁पूर्ववर्ती	-5718
▁लंबा	-5719
▁अर्जन	-5720
आईआर	-5721
▁बयान	-5722
▁मंडप	-5723
▁मौका	-5724
ूण	-5725
▁कीम	-5726
▁धूम	-5727
000	-5728
ध्व	-5729
पीसी	-5730
▁खबर	-5731
▁परत	-5732
▁पेर	-5733
व्यापी	-5734
▁मासिक	-5735
▁प्रचालन	-5736
▁धम	-5737
सायनिक	-5738
▁आयुर्	-5739
▁दशकों	-5740
▁लंबाई	-5741
ानुभूति	-5742
▁उद्यमों	-5743
ोपण	-5744
ामिन	-5745
▁खुला	-5746
▁चेन्न	-5747
▁ऊतक	-5748
▁पाना	-5749
▁रिज़	-5750
त्यक्ष	-5751
▁पिछली	-5752
क्तियों	-5753
▁प्रबंधक	-5754
ेंच	-5755
▁रन	-5756
स्परिक	-5757
▁गर्मी	-5758
▁जुर्म	-5759
▁बोलते	-5760
▁भाग्य	-5761
▁आंकड़े	-5762
▁डाक्टर	-5763
▁विनिया	-5764
▁केंद्रों	-5765
▁अध्यक्षता	-5766
▁व्याख्यान	-5767
कीन	-5768
क्कर	-5769
▁टिकट	-5770
▁अस्वीकार	-5771
▁v	-5772
▁वजन	-5773
▁गोरा	-5774
▁तनाव	-5775
▁त्रि	-5776
▁बचने	-5777
ानुसार	-5778
▁श्वेत	-5779
्यात्मक	-5780
▁अज्ञात	-5781
▁संकल्पना	-5782
▁व्युत्पन्न	-5783
पृ	-5784
▁साथी	-5785
▁बचाने	-5786
▁सितम्बर	-5787
▁निर्णयों	-5788
ुरत	-5789
▁गलती	-5790
▁सेक्टर	-5791
▁राज्यक्षेत्र	-5792
फ्र	-5793
ोचित	-5794
▁सबूत	-5795
्योंकि	-5796
▁फायदा	-5797
▁निकलने	-5798
▁लक्ष्यों	-5799
दू	-5800
▁लिखते	-5801
▁अच	-5802
ाधिक	-5803
प्रथम	-5804
कारिता	-5805
▁तीर्थ	-5806
▁अन्तिम	-5807
▁वार्ता	-5808
▁आस्तियों	-5809
▁खर्	-5810
▁पादप	-5811
वानिवृ	-5812
▁शाखाओं	-5813
▁हथियार	-5814
▁आमंत्रित	-5815
▁प्रणालियों	-5816
सेट	-5817
नीतिक	-5818
पत्ति	-5819
▁टीका	-5820
▁सोने	-5821
▁चलाया	-5822
मैन	-5823
▁मौत	-5824
▁काली	-5825
▁विजे	-5826
▁अपितु	-5827
▁अनुमोदित	-5828
▁सम्मानित	-5829
ur	-5830
▁मोहन	-5831
प्रदायिक	-5832
▁संक्षेप	-5833
▁तुम्हारी	-5834
ंर	-5835
▁लोप	-5836
सिद्ध	-5837
▁आयकर	-5838
▁इन्द्र	-5839
ष्म	-5840
▁सहेज	-5841
▁अग्नि	-5842
▁पत्रों	-5843
▁प्रसारण	-5844
लभ	-5845
▁आदर	-5846
▁बंबई	-5847
▁पोस्ट	-5848
ांसी	-5849
▁अहं	-5850
▁फुट	-5851
▁वाम	-5852
▁स्टा	-5853
▁संगणक	-5854
▁आकर्षण	-5855
▁रिजर्व	-5856
पद	-5857
▁नल	-5858
▁खनिज	-5859
▁अवरोध	-5860
भास	-5861
▁आवि	-5862
▁मरम्मत	-5863
▁पुस्तकालय	-5864
प्ल	-5865
▁ढल	-5866
▁ज़ि	-5867
▁पुराना	-5868
१४	-5869
▁अर्ज	-5870
▁हरिया	-5871
▁साक्षा	-5872
▁स्वप्न	-5873
मों	-5874
▁इसको	-5875
▁अनन्त	-5876
▁पक्षी	-5877
▁संगणना	-5878
▁अभियोजन	-5879
▁चाहूंगा	-5880
▁विकासशील	-5881
आत	-5882
▁यान	-5883
▁वरन्	-5884
▁आमदनी	-5885
▁नाबार्ड	-5886
im	-5887
हता	-5888
▁पाठक	-5889
▁लगने	-5890
▁सृजित	-5891
▁प्रेमच	-5892
▁सभापति	-5893
▁ड़	-5894
▁नकदी	-5895
▁प्रोटीन	-5896
िट्	-5897
▁कच	-5898
▁पन	-5899
ण्डल	-5900
▁हिल	-5901
▁कमीशन	-5902
ग्न	-5903
▁हाला	-5904
▁पुष्प	-5905
▁सौंदर	-5906
▁टर्म	-5907
▁इंजीनियरी	-5908
▁धान	-5909
▁पारि	-5910
▁स्वै	-5911
▁शिल्प	-5912
▁अंतरित	-5913
घन	-5914
गें	-5915
रोग	-5916
ल्फ	-5917
▁छत	-5918
▁उपरो	-5919
▁अक्षर	-5920
▁कवियों	-5921
▁मुहम्मद	-5922
भु	-5923
विंद	-5924
▁किश	-5925
▁जानवरों	-5926
▁संतुष्ट	-5927
कारा	-5928
ूँगा	-5929
ेनिस	-5930
▁किल	-5931
▁बलि	-5932
▁तुमने	-5933
▁समर्पण	-5934
वेट	-5935
▁एण्ड	-5936
▁पैनल	-5937
▁अनुया	-5938
▁वैष्ण	-5939
▁सोचते	-5940
▁पेट्रोल	-5941
१क	-5942
▁नती	-5943
▁होटल	-5944
▁शासित	-5945
▁संग्रहण	-5946
▁बल्लेबाज	-5947
संघ	-5948
▁समू	-5949
▁जाया	-5950
▁पचास	-5951
▁विनियामक	-5952
ैली	-5953
▁दांत	-5954
स्तीनी	-5955
▁प्लेट	-5956
▁फसलों	-5957
▁लिखना	-5958
▁पारस्परिक	-5959
▁प्रशिक्षित	-5960
▁पॉ	-5961
▁नमक	-5962
स्तीन	-5963
▁निरूप	-5964
▁लाभों	-5965
▁दांडिक	-5966
▁पंजाबी	-5967
▁उपरोक्त	-5968
▁डिप	-5969
▁बडा	-5970
▁हड़	-5971
▁अद्व	-5972
▁कराई	-5973
▁नर्म	-5974
▁अधीनस्थ	-5975
▁परिपक्व	-5976
▁आकांक्षा	-5977
▁कम्प्यूटर	-5978
शिक्ष	-5979
बरा	-5980
बिल	-5981
▁मं	-5982
तकों	-5983
▁कहे	-5984
योग्य	-5985
▁श्रो	-5986
▁कृत्य	-5987
▁स्तरीय	-5988
▁स्कूलों	-5989
▁अवसंरचना	-5990
▁निष्पक्ष	-5991
▁ग्रे	-5992
▁टेक्	-5993
▁शादी	-5994
▁दिखाएँ	-5995
▁उत्पादकता	-5996
▁शर	-5997
ानाथ	-5998
▁दमन	-5999
▁दाम	-6000
दर्शिता	-6001
काव	-6002
भोग	-6003
ूकता	-6004
विश्वास	-6005
▁संयोजन	-6006
▁प्रोटोक	-6007
▁प्रावधानों	-6008
कुछ	-6009
िक्र	-6010
दर्शक	-6011
▁दौड़	-6012
▁समस्याएं	-6013
टाई	-6014
लाल	-6015
शाही	-6016
▁सेंट	-6017
▁छुट्टी	-6018
▁शर्तें	-6019
दूत	-6020
क्षरता	-6021
▁नारायण	-6022
▁उन्होनें	-6023
▁आधा	-6024
मूल्य	-6025
▁नर्स	-6026
▁स्वि	-6027
▁गर्भा	-6028
▁जानना	-6029
त्तियों	-6030
▁परिकल्पना	-6031
खिक	-6032
ोटे	-6033
▁तरल	-6034
▁वेश	-6035
▁बनाती	-6036
▁रचनाओं	-6037
▁स्पर्श	-6038
▁पुस्तकें	-6039
▁पूर्णतया	-6040
▁क्रांतिकारी	-6041
▁नोक	-6042
▁बटन	-6043
▁विट	-6044
नियां	-6045
भिन्न	-6046
संचार	-6047
▁दलों	-6048
▁भरने	-6049
uot	-6050
वानी	-6051
▁निचले	-6052
▁बताते	-6053
▁लम्बे	-6054
▁परिश्रम	-6055
▁महासागर	-6056
डीएफ	-6057
प्रण	-6058
रांत	-6059
वाणी	-6060
▁सज्	-6061
▁परंपरागत	-6062
ेडकर	-6063
▁तीसरी	-6064
▁संचित	-6065
▁अधिवेशन	-6066
▁प्रतिस्पर्धा	-6067
ुड	-6068
किम	-6069
▁आजाद	-6070
▁रासायनिक	-6071
▁सहानुभूति	-6072
▁अमल	-6073
▁ऊंची	-6074
▁मिटा	-6075
▁सबके	-6076
▁सूजन	-6077
▁कलाकार	-6078
▁सार्वभौ	-6079
▁मील	-6080
▁शरण	-6081
▁कनाडा	-6082
▁संप्र	-6083
▁सैनिकों	-6084
▁इंत	-6085
▁तंग	-6086
▁सेन	-6087
▁सकने	-6088
▁बहादुर	-6089
▁of	-6090
▁आवेदक	-6091
▁निर्ण	-6092
▁कविताओं	-6093
▁विस्फोट	-6094
शित	-6095
▁ऑडियो	-6096
▁विधाय	-6097
बाल	-6098
▁जुट	-6099
▁रवि	-6100
▁प्राइ	-6101
▁सत्या	-6102
▁निपटने	-6103
▁पूर्णता	-6104
▁विदेशों	-6105
▁स्वाधीनता	-6106
▁कार्यालयों	-6107
▁वास्तविकता	-6108
यो	-6109
कने	-6110
ड्र	-6111
यंती	-6112
▁ह्र	-6113
▁सार्थ	-6114
▁समर्थित	-6115
▁अपीलार्थी	-6116
हृ	-6117
▁अड्ड	-6118
▁ऊंचे	-6119
▁इनपुट	-6120
▁कीजिए	-6121
▁यहूदी	-6122
▁विधायी	-6123
▁लेखापरी	-6124
▁प्रभार्य	-6125
▁फिलीस्तीनी	-6126
▁सफलतापूर्वक	-6127
फ्	-6128
▁फ़ॉ	-6129
▁बसव	-6130
▁शेर	-6131
▁माइक्रो	-6132
▁रिज़र्व	-6133
स्तर	-6134
▁उपज	-6135
▁क्यू	-6136
तापूर्वक	-6137
▁वैयक्तिक	-6138
किसी	-6139
▁असी	-6140
▁दत्त	-6141
र्ता	-6142
▁मैच	-6143
▁भरोसा	-6144
▁सौंदर्य	-6145
▁रॉ	-6146
हवीं	-6147
▁एक्	-6148
▁बढा	-6149
▁प्राणी	-6150
▁नियंत्रक	-6151
▁सेवानिवृ	-6152
▁अंग्रेज़ी	-6153
▁कार्यकारी	-6154
’’	-6155
▁आधे	-6156
▁मोटे	-6157
▁उन्हे	-6158
▁पढ़ाई	-6159
थन	-6160
ुश	-6161
शनल	-6162
▁बिट	-6163
▁मुकाबले	-6164
▁रूपरेखा	-6165
▁वनस्पति	-6166
▁विन्यास	-6167
▁सम्पन्न	-6168
मेह	-6169
लेखन	-6170
बुद्ध	-6171
▁इन्हीं	-6172
▁वितरित	-6173
▁संदत्त	-6174
▁/	-6175
▁O	-6176
ंचल	-6177
चेंज	-6178
▁जाह	-6179
वीय	-6180
ूलन	-6181
▁अवकाश	-6182
▁कारगर	-6183
▁मजदूरी	-6184
▁अनुज्ञा	-6185
ro	-6186
▁आपदा	-6187
▁ट्रेड	-6188
▁पार्ट	-6189
▁विधियां	-6190
ैट	-6191
बान	-6192
▁भरपूर	-6193
▁उपग्रह	-6194
▁हिन्दुस्तान	-6195
▁बुक	-6196
▁नमूने	-6197
▁उत्कृष्टता	-6198
ैस	-6199
वत्	-6200
आईसी	-6201
▁इसल	-6202
▁सोल	-6203
▁कारख	-6204
▁मोड़	-6205
▁मोर्	-6206
▁शर्मा	-6207
▁टेलीफोन	-6208
रीन	-6209
टकों	-6210
हाबाद	-6211
▁अव्य	-6212
▁राजी	-6213
▁अधिसूचित	-6214
▁प्रयोक्ता	-6215
▁नौकर	-6216
▁उपभोग	-6217
▁मस्जि	-6218
▁मुलाकात	-6219
वीर	-6220
▁ढेर	-6221
▁दंत	-6222
ुक़्त	-6223
▁गोली	-6224
▁उठाना	-6225
▁जरूरतों	-6226
▁तत्कालीन	-6227
▁स्वचालित	-6228
▁।	-6229
प्रा	-6230
......	-6231
▁कमांड	-6232
▁मानने	-6233
▁गणतंत्र	-6234
▁प्रासंगिक	-6235
ृंग	-6236
▁इक	-6237
द्दी	-6238
ायिक	-6239
▁विघ	-6240
▁स्ने	-6241
▁जिलों	-6242
▁मिलना	-6243
श्रेष्ठ	-6244
▁नवान्वेष	-6245
ay	-6246
▁टक	-6247
▁नु	-6248
▁केश	-6249
▁आन्द	-6250
▁विषा	-6251
▁पड़ने	-6252
▁भत्ता	-6253
▁मराठी	-6254
▁इलाकों	-6255
▁कार्बन	-6256
▁अनुशासन	-6257
▁भागीदार	-6258
▁गिरफ्तारी	-6259
हरण	-6260
िमा	-6261
▁बाढ़	-6262
▁बैठा	-6263
स्थापन	-6264
▁आवश्य	-6265
▁रूपये	-6266
▁बढ़ाना	-6267
▁जागरूकता	-6268
▁at	-6269
र्फ़	-6270
▁अहमद	-6271
▁खुली	-6272
▁जंगली	-6273
▁बढ़ता	-6274
वैज्ञानिक	-6275
▁एजेंसियों	-6276
▁जल्द	-6277
▁विधा	-6278
▁उपदेश	-6279
▁थोड़े	-6280
ैण्ड	-6281
▁घात	-6282
▁घुट	-6283
▁छिप	-6284
▁सकी	-6285
▁दिल्	-6286
गित	-6287
▁लड	-6288
्रोत	-6289
▁जगत	-6290
लियों	-6291
▁यहीं	-6292
▁ग्रस्त	-6293
▁नं	-6294
ादेश	-6295
▁इराक	-6296
▁बर्फ	-6297
क्रामक	-6298
सूची	-6299
▁कड़	-6300
▁अभिने	-6301
▁हानिक	-6302
▁इस्पात	-6303
▁परिणामों	-6304
▁प्रविष्ट	-6305
जान	-6306
ालों	-6307
▁जरा	-6308
▁प्य	-6309
▁वसा	-6310
▁आजकल	-6311
▁प्रव	-6312
▁मानस	-6313
▁वैसा	-6314
▁जयंती	-6315
त्रियों	-6316
चु	-6317
्चर	-6318
▁आँख	-6319
▁बहन	-6320
▁राधा	-6321
▁स्ट्र	-6322
▁अकादमी	-6323
▁निराशा	-6324
▁वर्गीकरण	-6325
एगा	-6326
बीन	-6327
ल्ली	-6328
सूत्र	-6329
▁जोड़ें	-6330
▁राजमार्ग	-6331
▁ठे	-6332
▁चिर	-6333
▁भूख	-6334
▁क्रय	-6335
▁विलय	-6336
▁दूरस्थ	-6337
▁सम्राट	-6338
▁एकत्रित	-6339
▁व्यष्टि	-6340
कोष	-6341
राक	-6342
ोहर	-6343
▁छू	-6344
▁खेत	-6345
▁कराता	-6346
▁सदनों	-6347
▁कनेक्ट	-6348
▁व्यस्त	-6349
▁पहुंचाने	-6350
िनल	-6351
काव्य	-6352
▁लाखों	-6353
▁खरीदने	-6354
ोरम	-6355
▁चक	-6356
▁कंट	-6357
▁नाक	-6358
स्मिक	-6359
पाई	-6360
लाइ	-6361
लोक	-6362
▁अतिक	-6363
▁मिस्र	-6364
▁वृत्ति	-6365
▁ज्यादातर	-6366
▁सिफारिशों	-6367
मुखी	-6368
▁अपार	-6369
▁शोषण	-6370
▁समता	-6371
▁अधिकृत	-6372
▁विडियो	-6373
ab	-6374
▁उदय	-6375
▁घोष	-6376
▁बहि	-6377
▁नोटिस	-6378
▁बताने	-6379
▁आनुवंश	-6380
▁पार्श्व	-6381
सास	-6382
िने	-6383
▁“%	-6384
त्रि	-6385
चरिता	-6386
युद्ध	-6387
▁आईटी	-6388
▁इंकार	-6389
▁साक्ष	-6390
▁स्रोतों	-6391
▁निर्वाचित	-6392
.-	-6393
ूरो	-6394
▁नो	-6395
▁बत	-6396
रानी	-6397
वर्त	-6398
निहित	-6399
▁मेहन	-6400
,–	-6401
लील	-6402
वेल	-6403
▁in	-6404
ब्बे	-6405
▁ठाक	-6406
▁बचपन	-6407
▁एशियाई	-6408
जक	-6409
ड्	-6410
▁डाले	-6411
▁समझना	-6412
▁स्थूल	-6413
▁ज्ञापन	-6414
किट	-6415
▁अरबी	-6416
▁आंखों	-6417
▁तालाब	-6418
▁सौभाग्य	-6419
▁अभिव्यक्त	-6420
▁घन	-6421
वकों	-6422
▁कबीर	-6423
▁किंग	-6424
▁टाइप	-6425
▁दस्तावेज़	-6426
▁देह	-6427
▁बड़	-6428
पोर्ट	-6429
▁किमी	-6430
▁आकृति	-6431
▁बुलाया	-6432
▁अवमानना	-6433
▁सुचरिता	-6434
▁अफगानिस्तान	-6435
विल	-6436
वर्ग	-6437
▁बेस	-6438
▁लाह	-6439
▁घृणा	-6440
▁भव्य	-6441
▁दुर्लभ	-6442
▁शास्त्री	-6443
▁l	-6444
▁तप	-6445
▁अनुज्ञ	-6446
▁पुनर्ग	-6447
जाम	-6448
महल	-6449
शनी	-6450
▁मंग	-6451
▁औषधि	-6452
▁भ्रम	-6453
▁संगत	-6454
▁आकर्षक	-6455
▁मिश्रित	-6456
▁दया	-6457
▁इंदिरा	-6458
▁टाइम्स	-6459
▁आकस्मिक	-6460
▁विज्ञापन	-6461
्टे	-6462
स्पी	-6463
▁कंध	-6464
▁गोद	-6465
▁ग्ल	-6466
▁सचे	-6467
▁प्लग	-6468
▁सबको	-6469
▁अंगों	-6470
▁जानवर	-6471
▁टेनिस	-6472
▁अतिमान	-6473
फ़ा	-6474
▁गंध	-6475
▁नजदी	-6476
▁नज़र	-6477
▁सन्द	-6478
▁चित्रण	-6479
▁उपलब्धियों	-6480
णुओं	-6481
▁वरीय	-6482
च्छेदन	-6483
▁वैष्णव	-6484
द्म	-6485
▁अँ	-6486
▁घाव	-6487
▁नाय	-6488
▁यूनियन	-6489
▁सुधारने	-6490
▁निवेशकों	-6491
▁पोष	-6492
▁बोझ	-6493
ुपयोग	-6494
क्साइड	-6495
▁असंभव	-6496
▁पुराण	-6497
▁समीकरण	-6498
ठार	-6499
ेटी	-6500
ख़्या	-6501
▁माँग	-6502
▁चिंतन	-6503
▁टैगोर	-6504
▁सुदूर	-6505
▁विकलांग	-6506
▁राष्ट्री	-6507
सो	-6508
१५	-6509
ज़न	-6510
▁ओपन	-6511
▁गुट	-6512
्यूशन	-6513
▁विकि	-6514
▁सिरे	-6515
ंबेडकर	-6516
▁अन्याय	-6517
▁ढूंढ	-6518
ोसिएशन	-6519
▁मास्ट	-6520
,000	-6521
ंबित	-6522
म्मा	-6523
▁खार	-6524
▁बीत	-6525
▁अमृत	-6526
▁जैसाकि	-6527
▁अप्रत्यक्ष	-6528
णता	-6529
भुत	-6530
▁नम	-6531
▁पते	-6532
▁पेय	-6533
विशेष	-6534
▁ऊंचा	-6535
▁हुये	-6536
▁लम्बी	-6537
▁सहभाग	-6538
▁श्रद्धा	-6539
▁क़्योंकि	-6540
शंकर	-6541
▁यौन	-6542
▁हर्ष	-6543
▁वाक्य	-6544
▁उन्नयन	-6545
▁डिजिटल	-6546
▁यात्री	-6547
▁कर्तव्यों	-6548
▁सर्वप्रथम	-6549
ut	-6550
टित	-6551
ोगे	-6552
्रेम	-6553
▁अनुकरण	-6554
▁इसलिये	-6555
रात	-6556
लित	-6557
▁चरम	-6558
▁बैक	-6559
▁डालर	-6560
▁सीधी	-6561
▁इनकार	-6562
▁उत्सुक	-6563
▁ग्रन्थ	-6564
▁समकालीन	-6565
नीत	-6566
बन्धन	-6567
▁अक्ट	-6568
▁काफ़ी	-6569
▁माहौल	-6570
▁संघीय	-6571
▁उपनिवेश	-6572
▁कृत्यों	-6573
▁सशस्त्र	-6574
▁प्रतिनिधियों	-6575
AME	-6576
टने	-6577
िवी	-6578
▁ओब	-6579
भांश	-6580
▁सोचने	-6581
▁स्वर्ग	-6582
▁इस्लामवादी	-6583
▁सर्वश्रेष्ठ	-6584
▁दह	-6585
हारी	-6586
▁देन	-6587
▁शेख	-6588
चिकित	-6589
▁निषे	-6590
▁नमूना	-6591
▁असफलता	-6592
▁गोपनीय	-6593
▁दूरसंचार	-6594
ँह	-6595
ोन्	-6596
▁पीने	-6597
▁निक्ष	-6598
▁एससीसी	-6599
▁प्रतिल	-6600
▁प्रतिवर्ष	-6601
▁रहीं	-6602
▁सुपु	-6603
▁ठाकुर	-6604
▁फूलों	-6605
▁सच्चे	-6606
▁प्रबन्ध	-6607
▁हरियाणा	-6608
▁सेशन	-6609
▁गाँधी	-6610
▁प्राप	-6611
▁त्रुटिः	-6612
▁रै	-6613
▁हमले	-6614
▁नियोजन	-6615
▁बाज़ार	-6616
▁शस्त्र	-6617
▁अवस्थित	-6618
▁प्रतिबद्धता	-6619
▁गठ	-6620
िप्ट	-6621
संदेह	-6622
▁याचिकाकर्ता	-6623
▁ठहर	-6624
▁वें	-6625
▁देखिए	-6626
ष्टाचार	-6627
▁वक्तव्य	-6628
▁सदस्यता	-6629
इंड	-6630
कोर	-6631
▁देनी	-6632
▁बच्चन	-6633
ोसी	-6634
▁माउ	-6635
▁भिन्	-6636
▁सफाई	-6637
▁कमेटी	-6638
▁अहिंसा	-6639
▁अनिवासी	-6640
▁संस्थागत	-6641
ंकी	-6642
▁ह्य	-6643
▁जोड़े	-6644
▁वृत्त	-6645
▁अपूर्ण	-6646
▁कहानियों	-6647
▁उत्तराधिकार	-6648
▁चित	-6649
▁सोव	-6650
▁निस्	-6651
▁मेगा	-6652
▁उत्सव	-6653
▁कच्चे	-6654
▁शिष्ट	-6655
em	-6656
▁ः	-6657
पटल	-6658
भक्त	-6659
▁लोह	-6660
▁मारे	-6661
▁सामुद	-6662
▁नेताजी	-6663
▁अक्टूबर	-6664
▁अन्तर्राष्ट्रीय	-6665
ंबा	-6666
िणी	-6667
चंद्र	-6668
▁भेजी	-6669
▁महान्	-6670
▁सच्चाई	-6671
▁मोहम्मद	-6672
▁संग्राम	-6673
पाट	-6674
समा	-6675
▁गिन	-6676
▁भीड़	-6677
▁अपनाई	-6678
▁ग्रीन	-6679
▁अब्दुल	-6680
▁सड़कों	-6681
▁देवताओं	-6682
▁प्रतिरक्षा	-6683
दाबाद	-6684
▁एक्ट	-6685
▁शुरूआत	-6686
▁सर्विस	-6687
▁अधिनिर्	-6688
▁राजकुमार	-6689
▁संव्यवहार	-6690
▁प्रत्यर्थी	-6691
▁रम	-6692
▁दरबार	-6693
▁बताना	-6694
▁निमित्त	-6695
▁हॉ	-6696
गारों	-6697
▁नामा	-6698
निर्माण	-6699
▁सुधारों	-6700
ter	-6701
ट्स	-6702
मंच	-6703
ेन्ट	-6704
▁टैब	-6705
▁बेश	-6706
▁समापन	-6707
▁r	-6708
गृह	-6709
परक	-6710
देवी	-6711
▁मुक	-6712
▁नींव	-6713
▁प्ला	-6714
▁संकलन	-6715
धिकारिक	-6716
▁कौंसिल	-6717
▁बांग्लादेश	-6718
▁छः	-6719
▁दब	-6720
▁दम	-6721
▁व्	-6722
▁अवर	-6723
▁वहन	-6724
▁आवरण	-6725
▁पेशी	-6726
आर्थिक	-6727
▁अनुभूति	-6728
ताएं	-6729
िन्त	-6730
ॉल्ट	-6731
्याल	-6732
▁कोमल	-6733
▁क्रूर	-6734
▁केन्द्रों	-6735
▁पूर्वोक्त	-6736
▁क्रियान्वयन	-6737
ap	-6738
नियम	-6739
भूषण	-6740
समूह	-6741
▁सांवि	-6742
▁जिंदगी	-6743
▁निरसित	-6744
▁निर्गम	-6745
▁निर्धन	-6746
nd	-6747
१वीं	-6748
▁ऋतु	-6749
▁बेटे	-6750
▁न्यूय	-6751
▁किराया	-6752
▁परिसंप	-6753
▁इलाहाबाद	-6754
▁साक्षरता	-6755
▁पुनरीक्षण	-6756
२क	-6757
ंटों	-6758
▁घुस	-6759
▁भेदभाव	-6760
▁मामूली	-6761
▁समेकित	-6762
▁सिर्फ़	-6763
ंय	-6764
मीन	-6765
आईटी	-6766
▁अजीब	-6767
▁रोचक	-6768
▁जाहिर	-6769
ब्ब	-6770
▁जबर	-6771
▁ज़रूरत	-6772
▁आंकड़ों	-6773
▁तुम्हारा	-6774
▁नियन्त्र	-6775
▁पुनर्वास	-6776
▁संवेदनशील	-6777
▁गेह	-6778
▁असंत	-6779
▁बेहद	-6780
▁राजाओं	-6781
▁सार्थक	-6782
▁हिस्सों	-6783
▁समाजवादी	-6784
hr	-6785
बाबू	-6786
शिंग	-6787
▁गरि	-6788
म्भीर	-6789
▁छिपा	-6790
▁परित	-6791
▁ब्यौ	-6792
▁मंगल	-6793
▁इंजीनियरिंग	-6794
ंडे	-6795
िज़	-6796
ोत्तर	-6797
▁आचार	-6798
▁गाँव	-6799
▁पागल	-6800
▁रेगि	-6801
भूतियों	-6802
▁उद्भूत	-6803
▁लाभांश	-6804
▁प्रजाति	-6805
▁अधिनियमित	-6806
▁पेट्रोलियम	-6807
गंध	-6808
बरी	-6809
▁जॉन	-6810
▁मक्	-6811
▁राव	-6812
▁शब्	-6813
त्स्य	-6814
▁कब्जा	-6815
▁खासकर	-6816
▁नाटकों	-6817
▁निकायों	-6818
शक	-6819
कक्ष	-6820
▁नवा	-6821
रक्षण	-6822
ष्कृत	-6823
▁बताता	-6824
▁धर्मों	-6825
▁मधुमेह	-6826
खार	-6827
णित	-6828
▁टो	-6829
ैक्ट	-6830
▁देगी	-6831
▁सुलझ	-6832
▁निभाई	-6833
▁बम्बई	-6834
▁विटामिन	-6835
▁मंत्रियों	-6836
//	-6837
काज	-6838
लंका	-6839
▁नायक	-6840
सरकारी	-6841
▁मुहैया	-6842
परिवर्तन	-6843
▁साक्षात्कार	-6844
लाभ	-6845
किया	-6846
▁चौथा	-6847
▁हड्डी	-6848
▁मित्रता	-6849
▁राजपत्र	-6850
▁सत्यापन	-6851
▁हिन्दुओं	-6852
गड़	-6853
सेवा	-6854
मुक्त	-6855
▁आगमन	-6856
▁उठता	-6857
▁गूगल	-6858
▁सिखा	-6859
▁डॉक्टर	-6860
▁श्रद्ध	-6861
▁मास्टर्स	-6862
ताप	-6863
माला	-6864
▁कोट	-6865
▁सोम	-6866
▁अशोक	-6867
▁सेवक	-6868
▁पीछला	-6869
▁नीतिगत	-6870
▁मस्जिद	-6871
▁आन्दोलन	-6872
▁ब्रह्मा	-6873
▁भ्रष्टाचार	-6874
▁:-	-6875
▁गड़	-6876
▁निल	-6877
▁पराज	-6878
▁सौंपा	-6879
▁स्वाय	-6880
▁अभिदाय	-6881
▁मजदूरों	-6882
▁अधिकाधिक	-6883
▁मनुष्यों	-6884
▁मुख्यालय	-6885
▁मरी	-6886
▁उन्मूलन	-6887
tr	-6888
▁खोजने	-6889
▁बकाया	-6890
▁बेचने	-6891
▁बिन्दु	-6892
▁रखरखाव	-6893
▁आश्वासन	-6894
▁विस्तारित	-6895
.–	-6896
▁चलती	-6897
दृष्टि	-6898
▁आश्रम	-6899
▁उपाधि	-6900
▁रोगियों	-6901
▁महाद्वीप	-6902
▁संस्थापित	-6903
मोरी	-6904
▁अद्	-6905
▁आदत	-6906
▁नक्	-6907
▁लाई	-6908
▁रोशनी	-6909
▁इकट्ठा	-6910
▁प्रसंग	-6911
▁मिथ्या	-6912
▁उपयोक्ता	-6913
▁दीक्षांत	-6914
राष्ट्रपति	-6915
ir	-6916
▁)	-6917
सेल	-6918
हान	-6919
▁अनाव	-6920
▁अभिल	-6921
▁कोने	-6922
▁वर्न	-6923
प्रदेश	-6924
भारतीय	-6925
▁गरिमा	-6926
▁बॉक्स	-6927
▁विधवा	-6928
▁श्रेण	-6929
▁अज्ञान	-6930
▁विकिरण	-6931
▁समायोजन	-6932
▁अनिश्चित	-6933
▁फिलीस्तीन	-6934
▁प्रस्तावों	-6935
शियों	-6936
▁अश्व	-6937
▁शराब	-6938
▁सिने	-6939
▁असमान	-6940
▁अभियोग	-6941
▁अवलोकन	-6942
▁पब्लिक	-6943
▁काउंसिल	-6944
▁निर्वहन	-6945
▁शिकायतों	-6946
▁प्रोटोकॉल	-6947
▁मैत्रीपूर्ण	-6948
आव	-6949
पह	-6950
केल	-6951
पटा	-6952
ुतोष	-6953
▁समाह	-6954
क्टरों	-6955
धारकों	-6956
▁ओबामा	-6957
▁प्रसव	-6958
▁मनाया	-6959
▁पहुँचा	-6960
▁पेटेंट	-6961
▁व्यवसा	-6962
बर्ट	-6963
▁एससी	-6964
▁चुंब	-6965
▁इंगित	-6966
▁गम्भीर	-6967
▁मनोरंजन	-6968
▁एक्सचेंज	-6969
▁विधानमंडल	-6970
आन	-6971
”।	-6972
ओएस	-6973
▁टि	-6974
म्बा	-6975
ियाई	-6976
▁बृह	-6977
▁विच	-6978
▁मजबूर	-6979
▁सम्बद्ध	-6980
▁उत्सर्जन	-6981
डों	-6982
▁उग	-6983
▁आर्य	-6984
ेन्द्र	-6985
▁मूत्र	-6986
▁जीवाणु	-6987
▁मुद्दा	-6988
▁रिश्ते	-6989
▁कठिनाइयों	-6990
अर्	-6991
▁घाट	-6992
▁बिन	-6993
▁हाई	-6994
▁क्ला	-6995
▁गोवा	-6996
▁बेटी	-6997
▁आधिकारिक	-6998
ce	-6999
ोई	-7000
ओआर	-7001
सात	-7002
यंत्र	-7003
▁दौरा	-7004
▁बांट	-7005
▁लार्ड	-7006
▁सालों	-7007
ुद्व	-7008
मार्क	-7009
ान्तर	-7010
▁ऊँचा	-7011
क्षमता	-7012
▁साकार	-7013
▁उपयोगिता	-7014
▁साझीदारी	-7015
धारक	-7016
ापुर	-7017
▁दाह	-7018
▁पतन	-7019
▁स्क्र	-7020
▁स्नेह	-7021
▁बादशाह	-7022
▁शास्ति	-7023
▁सामर्थ	-7024
▁गर्भाशय	-7025
महा	-7026
▁हंस	-7027
▁ध्रु	-7028
▁सन्न	-7029
▁निरन्तर	-7030
▁निर्दोष	-7031
▁मांसपेश	-7032
▁प्रक्षेप	-7033
▁स्वीकार्य	-7034
सह	-7035
निय	-7036
शिप	-7037
▁तह	-7038
▁कोर	-7039
▁द्रव	-7040
▁आशंका	-7041
▁कीटना	-7042
▁खर्चे	-7043
▁स्नातक	-7044
▁उपबंधित	-7045
▁सहभागिता	-7046
ैत	-7047
जाने	-7048
सन्द	-7049
▁धूल	-7050
▁रोड	-7051
पत्रों	-7052
▁उड़ान	-7053
▁प्रगा	-7054
▁मौखिक	-7055
▁तत्पश्च	-7056
▁स्थिरता	-7057
भाई	-7058
▁भरत	-7059
▁व्र	-7060
▁आगामी	-7061
▁स्मारक	-7062
▁आयुर्वेद	-7063
us	-7064
आइ	-7065
ंसी	-7066
जाज	-7067
खण्ड	-7068
देशक	-7069
▁हैस	-7070
▁दरों	-7071
▁आवासी	-7072
▁खातों	-7073
▁वरीयता	-7074
▁निधियों	-7075
EE	-7076
दिर	-7077
ब्ध	-7078
्ती	-7079
▁इट	-7080
▁कन्न	-7081
▁डेस्	-7082
▁रोज़	-7083
▁कोयला	-7084
▁मेहनत	-7085
▁शब्दा	-7086
▁सोचता	-7087
▁हिंदुओं	-7088
राई	-7089
▁छोड़ने	-7090
▁पंचायत	-7091
▁खिलाड़ी	-7092
▁विख्यात	-7093
▁पुनर्गठन	-7094
▁परियोजनाएं	-7095
▁पूर्वोत्तर	-7096
साह	-7097
मोहन	-7098
▁माय	-7099
▁सना	-7100
▁उपास	-7101
▁बोला	-7102
स्वामी	-7103
▁आशुतोष	-7104
▁पेशेवर	-7105
▁पक्षियों	-7106
▁स्वच्छता	-7107
▁रसी	-7108
▁तमाम	-7109
▁निंदा	-7110
▁विभेद	-7111
डऋ	-7112
ोधन	-7113
ोरों	-7114
▁केस	-7115
▁हरी	-7116
क्तता	-7117
▁योनि	-7118
▁अनुभवों	-7119
▁निर्माता	-7120
oc	-7121
शर्	-7122
दिता	-7123
▁अनू	-7124
▁समझी	-7125
▁सुगम	-7126
▁दुग्ध	-7127
▁सुनकर	-7128
▁झिल्ली	-7129
▁दुरुपयोग	-7130
▁किलोग्राम	-7131
▁निर्देशित	-7132
मेर	-7133
िसा	-7134
▁किरण	-7135
▁बढ़े	-7136
▁रोका	-7137
▁स्वे	-7138
ढ़ियों	-7139
▁पृथक्	-7140
▁परिचालन	-7141
▁संवेदना	-7142
▁स्वतन्त्र	-7143
चौ	-7144
▁फेफ	-7145
▁क्री	-7146
▁घटित	-7147
संबंधी	-7148
▁फायदे	-7149
▁लौटने	-7150
िपीडिया	-7151
▁ब्यूरो	-7152
▁सांख्य	-7153
▁सत्याग्रह	-7154
ीर	-7155
जुट	-7156
▁(%	-7157
न्ता	-7158
स्पद	-7159
िपुर	-7160
▁खपत	-7161
▁अण्ड	-7162
▁कहती	-7163
▁किराए	-7164
प्रणाली	-7165
▁संकीर्ण	-7166
▁विनियमित	-7167
▁श्रीलंका	-7168
▁सूचीबद्ध	-7169
▁देशवासियों	-7170
िद	-7171
▁यों	-7172
▁परिन	-7173
▁संकाय	-7174
▁पुत्री	-7175
मलव	-7176
▁गले	-7177
ड्यूल	-7178
हीनता	-7179
▁चर्च	-7180
▁रहकर	-7181
▁उन्नति	-7182
▁परिदृश्य	-7183
▁विमानक्षेत्र	-7184
एव	-7185
▁बट	-7186
कार्	-7187
▁टेल	-7188
▁किले	-7189
▁नारी	-7190
▁पूछता	-7191
▁सुपुर्द	-7192
▁पर्यटकों	-7193
▁विशेषाधिकार	-7194
पेट	-7195
▁वध	-7196
▁निभ	-7197
▁ज्या	-7198
▁पुनर	-7199
▁सेवन	-7200
▁बंगला	-7201
▁अवधारित	-7202
ंड़	-7203
प्पा	-7204
ूर्त	-7205
▁सटी	-7206
▁कर्ज	-7207
▁खारिज	-7208
▁प्रगाढ़	-7209
▁प्रगतिशील	-7210
डम	-7211
ॉग	-7212
▁उगा	-7213
▁कों	-7214
▁बनकर	-7215
▁बांस	-7216
▁मुँह	-7217
▁आजीवन	-7218
▁उर्वरक	-7219
▁रंगमंच	-7220
▁विशेषज्ञों	-7221
हट	-7222
विद	-7223
ट्टा	-7224
▁घोर	-7225
▁ध्य	-7226
▁सुप	-7227
हत्या	-7228
▁चलना	-7229
▁पाइप	-7230
▁हटाया	-7231
▁रणनीति	-7232
▁अध्यापक	-7233
▁मूल्यवान	-7234
);	-7235
नें	-7236
▁छे	-7237
कटॉप	-7238
ेंडर	-7239
ारण्य	-7240
संशोधन	-7241
▁आवाज़	-7242
▁खोलें	-7243
▁जिसमे	-7244
▁दशमलव	-7245
▁पुरुषों	-7246
▁दायित्वों	-7247
टरी	-7248
निष	-7249
बूती	-7250
चित्य	-7251
मताओं	-7252
▁ड्रग	-7253
▁जैविक	-7254
▁आपत्ति	-7255
▁दीवारों	-7256
▁कार्यकाल	-7257
▁कार्यकलापों	-7258
दक	-7259
▁फू	-7260
ष्मा	-7261
ोर्स	-7262
▁गेट	-7263
▁दर्	-7264
▁मैथ	-7265
▁नाइट	-7266
▁सांप	-7267
▁निकले	-7268
▁निदान	-7269
▁स्टॉक	-7270
▁आउटपुट	-7271
▁टर्मिनल	-7272
os	-7273
ख्	-7274
डक	-7275
परा	-7276
बंद	-7277
ार्ट	-7278
▁फॉर	-7279
बोर्ड	-7280
▁गवाह	-7281
संख्यक	-7282
▁ग्यार	-7283
)-	-7284
▁रेशम	-7285
यात्रा	-7286
▁उपहार	-7287
▁कर्ता	-7288
जनात्मक	-7289
रूद्दीन	-7290
▁कहलाता	-7291
▁आओ	-7292
हार्	-7293
▁शीत	-7294
▁कॉपी	-7295
▁ट्रा	-7296
▁कपड़ा	-7297
▁क्रोध	-7298
▁पुनरा	-7299
▁तुरन्त	-7300
▁दुर्गा	-7301
▁प्रदाह	-7302
▁गंभीरता	-7303
▁लेखापरीक्षा	-7304
कथा	-7305
गिक	-7306
न्च	-7307
▁गयीं	-7308
▁समाम	-7309
▁एल्गोर	-7310
▁चौड़ाई	-7311
▁डेस्कटॉप	-7312
बड़	-7313
▁पंथ	-7314
▁एमएस	-7315
▁मृतक	-7316
▁लोगो	-7317
▁जर्मन	-7318
▁महानि	-7319
▁नवीकरण	-7320
▁स्थलों	-7321
▁साथियों	-7322
▁ईमानदारी	-7323
▁निष्पादित	-7324
नाल	-7325
ियस	-7326
▁गत	-7327
▁पान	-7328
▁अनंत	-7329
▁आश्रय	-7330
▁एकजुट	-7331
▁बोलने	-7332
तापूर्ण	-7333
▁अंतरिम	-7334
▁अभिन्न	-7335
▁संरक्षित	-7336
▁स्वैच्छिक	-7337
ow	-7338
लाप	-7339
▁अनो	-7340
▁जुल	-7341
▁नाल	-7342
▁मेर	-7343
पृष्ठ	-7344
▁इनसे	-7345
▁गीतों	-7346
▁तृतीय	-7347
▁भारती	-7348
▁सारणी	-7349
▁मेमोरी	-7350
▁विधानसभा	-7351
▁मंत्रालयों	-7352
ul	-7353
इश	-7354
▁भगत	-7355
▁रोमा	-7356
▁बदलें	-7357
▁निविदा	-7358
▁व्याया	-7359
▁बंदरगाह	-7360
▁सचिवालय	-7361
षी	-7362
ity	-7363
पानी	-7364
रेशन	-7365
र्षि	-7366
▁आवं	-7367
▁बाई	-7368
▁भूट	-7369
▁विय	-7370
▁हिमन	-7371
▁त्रिप	-7372
▁समाहित	-7373
▁अस्पष्ट	-7374
▁संक्रिया	-7375
▁संस्थाएं	-7376
▁क्रियाकलाप	-7377
,-	-7378
्सा	-7379
बारी	-7380
मुझे	-7381
▁लची	-7382
वाद्य	-7383
▁क्षमा	-7384
▁जितने	-7385
▁स्थानांतरित	-7386
कस	-7387
फु	-7388
ीस	-7389
▁पटल	-7390
▁लाए	-7391
▁सैक	-7392
▁ग्लो	-7393
▁पड़ोसी	-7394
▁संचिका	-7395
▁संतुलित	-7396
▁गतिविधियां	-7397
▁विकिपीडिया	-7398
ँजी	-7399
दाद	-7400
▁पदा	-7401
त्तीस	-7402
▁आलेख	-7403
▁जगत्	-7404
▁लक्ष्म	-7405
▁सृष्टि	-7406
▁कुटुम्ब	-7407
▁निकालना	-7408
un	-7409
स्सी	-7410
▁असं	-7411
▁आगरा	-7412
▁वसूल	-7413
▁मानों	-7414
▁व्याकरण	-7415
▁हार्डवेयर	-7416
डू	-7417
चाह	-7418
▁इल	-7419
श्ले	-7420
▁बचे	-7421
▁संकल	-7422
▁लड़का	-7423
▁पाठकों	-7424
▁हैसियत	-7425
▁लड़कियों	-7426
ig	-7427
▁आधी	-7428
▁मला	-7429
▁इंजन	-7430
▁स्या	-7431
▁जीवंत	-7432
▁नामों	-7433
▁प्रोफ	-7434
▁हानिकारक	-7435
▁सामुदायिक	-7436
▁प्रजातियों	-7437
▁१६	-7438
▁औरत	-7439
▁काय	-7440
▁पहच	-7441
▁आघात	-7442
▁सूचक	-7443
▁पंद्र	-7444
▁कीमतों	-7445
▁बढ़ाया	-7446
▁अधिनियमों	-7447
um	-7448
ॉय	-7449
नाई	-7450
ृहीत	-7451
िल्ला	-7452
▁अन्तः	-7453
▁क्रिस्ट	-7454
▁स्वायत्त	-7455
ch	-7456
▁गि	-7457
आपको	-7458
वाया	-7459
शुदा	-7460
िस्टर	-7461
▁दायर	-7462
▁मधुर	-7463
▁वापिस	-7464
▁आंकड़ा	-7465
▁अपर्याप्त	-7466
▁केन्द्रित	-7467
ेव	-7468
विर	-7469
▁नद	-7470
▁बही	-7471
्रेषण	-7472
▁चोरी	-7473
▁दौरे	-7474
▁मूर्ख	-7475
▁संयोग	-7476
▁अर्जुन	-7477
▁सोवियत	-7478
▁शास्त्रीय	-7479
ef	-7480
▁गर	-7481
▁पण	-7482
ोहित	-7483
▁संदि	-7484
▁सब्ज	-7485
▁इमारत	-7486
▁पाण्ड	-7487
▁प्रचुर	-7488
▁उद्यमियों	-7489
▁निर्देशों	-7490
▁शक	-7491
डिंग	-7492
षकों	-7493
ोत्स	-7494
न्नाथ	-7495
स्ट्र	-7496
ोरेशन	-7497
▁आईसी	-7498
▁ड्रा	-7499
▁दोबारा	-7500
▁वांछित	-7501
▁उछ	-7502
▁धूप	-7503
▁हरा	-7504
▁घायल	-7505
▁अकेला	-7506
▁संतान	-7507
▁प्रौढ़	-7508
▁चिह्नित	-7509
▁सतर्कता	-7510
▁सामर्थ्य	-7511
ag	-7512
चाल	-7513
मेट	-7514
▁कन	-7515
र्सी	-7516
▁फौज	-7517
▁डिफ़	-7518
▁लौटा	-7519
▁सिन्	-7520
▁स्टाफ	-7521
▁एंव	-7522
▁कां	-7523
▁नरम	-7524
▁लखन	-7525
डियों	-7526
▁कॉन्	-7527
▁क्लब	-7528
▁सख्त	-7529
▁श्रेय	-7530
▁सेंटर	-7531
▁जाएंगी	-7532
▁दिलचस्प	-7533
▁लक्ष्मी	-7534
▁निर्णायक	-7535
▁पद्धतियों	-7536
▁बदरूद्दीन	-7537
▁उपभोक्ताओं	-7538
बै	-7539
नेस	-7540
▁(&	-7541
▁छेद	-7542
▁अनन्य	-7543
▁व्यास	-7544
▁गतिशील	-7545
▁निःशुल्क	-7546
ुगु	-7547
तिया	-7548
रहित	-7549
▁टीवी	-7550
▁यज्ञ	-7551
▁प्रीम	-7552
▁भ्रूण	-7553
▁लाहौर	-7554
▁विचित्र	-7555
यित	-7556
ंतव्य	-7557
िकेशन	-7558
▁किस्	-7559
▁रूचि	-7560
▁सिंग	-7561
▁फॉर्म	-7562
▁वर्षो	-7563
▁ड्राइव	-7564
▁आँक	-7565
▁रिव	-7566
बूझकर	-7567
▁सुनी	-7568
▁चेहरा	-7569
▁निर्वाह	-7570
ज़्	-7571
ंतुक	-7572
▁मेहर	-7573
▁पैरों	-7574
▁कारकों	-7575
▁अध्यादेश	-7576
▁क्षमताओं	-7577
गीय	-7578
ाणु	-7579
▁चिक	-7580
▁अतिथि	-7581
▁प्रभुत्व	-7582
▁यात्रियों	-7583
जय	-7584
▁पवन	-7585
▁घड़ी	-7586
▁पहाड़	-7587
▁सच्ची	-7588
▁द्वारक	-7589
▁एसोसिएशन	-7590
जपे	-7591
ज्जा	-7592
▁इधर	-7593
▁गिल	-7594
▁नकल	-7595
वर्धन	-7596
▁बंधन	-7597
▁बदलना	-7598
▁बेकार	-7599
▁अद्भुत	-7600
▁इच्छुक	-7601
▁जगन्नाथ	-7602
▁दंडादेश	-7603
▁कंपनियां	-7604
▁प्रख्यात	-7605
▁प्राइवेट	-7606
▁विधायिका	-7607
▁प्राणियों	-7608
▁आस्ट्रेलिया	-7609
ोश	-7610
यदि	-7611
▁नॉ	-7612
बंधन	-7613
▁आवृ	-7614
▁बिख	-7615
▁बुश	-7616
▁जादू	-7617
ियारों	-7618
▁अर्पित	-7619
▁परजीवी	-7620
▁पूर्वक	-7621
दाई	-7622
वाट	-7623
मुना	-7624
▁ढाल	-7625
मण्डल	-7626
▁पाती	-7627
▁दायरे	-7628
▁उदासीन	-7629
▁कूटशब्द	-7630
▁परिसीमा	-7631
▁अतिक्रमण	-7632
िफ	-7633
▁संकु	-7634
▁डेटाबेस	-7635
▁अनावश्यक	-7636
ँगा	-7637
बुल	-7638
▁नानक	-7639
▁मत्स्य	-7640
▁शासकों	-7641
▁परेशानी	-7642
▁विवेकान	-7643
▁अनुमानित	-7644
अध	-7645
ंचन	-7646
ुल्य	-7647
▁मज़	-7648
▁मोर	-7649
ोग्रा	-7650
▁अवयव	-7651
िवारिक	-7652
्रीकरण	-7653
▁डोमेन	-7654
▁उद्धृत	-7655
▁प्रतिमा	-7656
▁दीर्घकालिक	-7657
▁भि	-7658
भावी	-7659
▁सन्त	-7660
▁सभाओं	-7661
▁साँचा	-7662
▁नवीनतम	-7663
▁आंबेडकर	-7664
ers	-7665
स्थि	-7666
▁कदा	-7667
▁पडे	-7668
▁फलों	-7669
▁बहुल	-7670
▁जानती	-7671
▁लगाकर	-7672
▁गरीबों	-7673
▁विनियमों	-7674
ER	-7675
ढे	-7676
ड़न	-7677
▁गज	-7678
▁न्य	-7679
▁मेड	-7680
ताबिक	-7681
नागरी	-7682
▁अतएव	-7683
▁कहकर	-7684
▁विगत	-7685
▁काटने	-7686
▁सनातन	-7687
▁मुख़्य	-7688
▁प्रतिकर	-7689
▁प्रवासी	-7690
▁दिलचस्पी	-7691
▁संप्रदाय	-7692
बिट	-7693
ान्	-7694
▁ओल	-7695
▁अवा	-7696
तीकरण	-7697
विवाह	-7698
स्वती	-7699
▁पुणे	-7700
▁भयान	-7701
कृष्णन	-7702
▁भेजें	-7703
▁संख़्या	-7704
ुम	-7705
ेलना	-7706
▁छंद	-7707
▁नाथ	-7708
▁इण्ड	-7709
▁फेंक	-7710
▁निकला	-7711
▁बनायी	-7712
ुस्तानी	-7713
▁आरोपों	-7714
▁गुजराती	-7715
▁आनुवंशिक	-7716
सेन	-7717
ुलन	-7718
म्पर	-7719
शिला	-7720
▁कैम	-7721
▁क्षे	-7722
▁लड़ने	-7723
▁राज़्य	-7724
▁शान्ति	-7725
▁नीतियां	-7726
हाद	-7727
▁ऑप	-7728
छोटे	-7729
▁चूक	-7730
▁झुक	-7731
द्वार	-7732
▁चलकर	-7733
▁अंतर्व	-7734
▁प्रवर्ग	-7735
▁मुताबिक	-7736
ee	-7737
ैम	-7738
▁ar	-7739
्रीट	-7740
▁अभय	-7741
▁दार	-7742
▁पदक	-7743
▁धारक	-7744
▁सोसाय	-7745
▁पिछड़े	-7746
▁पर्यवेक्षण	-7747
▁पारदर्शिता	-7748
RO	-7749
ोला	-7750
विजन	-7751
नेशनल	-7752
▁कोटि	-7753
▁घातक	-7754
▁पटेल	-7755
▁वनों	-7756
▁उर्वर	-7757
▁धारित	-7758
▁अपशिष्ट	-7759
▁अभिप्राय	-7760
▁द्वारकानाथ	-7761
चय	-7762
एनए	-7763
जहां	-7764
बंदी	-7765
ैर्य	-7766
▁भली	-7767
▁माध	-7768
▁वृह	-7769
▁वेग	-7770
विवाद	-7771
ियमित	-7772
जीविका	-7773
▁अपीलीय	-7774
▁दुर्बल	-7775
▁पासवर्ड	-7776
▁लक्षणों	-7777
▁उत्पत्ति	-7778
▁डिफ़ॉल्ट	-7779
▁निर्माताओं	-7780
▁युक्तियुक्त	-7781
▁कार्यवाहियां	-7782
.,	-7783
कश	-7784
▁’	-7785
ुलर	-7786
ोटा	-7787
ोही	-7788
फ़्ट	-7789
रेटर	-7790
▁पाउ	-7791
▁अन्न	-7792
क्षकों	-7793
▁एआईआर	-7794
▁संजाल	-7795
▁हेक्ट	-7796
▁विपक्ष	-7797
▁सौहार्	-7798
▁चुनावों	-7799
▁सुभाषबाबू	-7800
▁प्राधिकारियों	-7801
लेन	-7802
▁सऋ	-7803
अधिक	-7804
▁ताक	-7805
▁दाँ	-7806
ल्लाह	-7807
ुल्ला	-7808
▁दावों	-7809
▁परिधि	-7810
▁वयस्क	-7811
▁स्नान	-7812
▁टुकड़े	-7813
▁मजबूती	-7814
▁साक्षियों	-7815
सनी	-7816
▁नास	-7817
▁रिफ	-7818
▁चारा	-7819
▁विवश	-7820
▁खाड़ी	-7821
▁निक्षेप	-7822
ुरु	-7823
▁खाद	-7824
▁मौल	-7825
▁अनदे	-7826
▁कन्व	-7827
▁धोखा	-7828
▁अभिनय	-7829
▁एजेंट	-7830
▁भित्त	-7831
▁विषयक	-7832
▁सोचना	-7833
▁औचित्य	-7834
▁गिरावट	-7835
▁महर्षि	-7836
▁हड़ताल	-7837
AT	-7838
ड़की	-7839
न्दन	-7840
बर्ग	-7841
संभव	-7842
स्वा	-7843
▁अम्ल	-7844
▁ईमेल	-7845
▁किला	-7846
▁घुमा	-7847
▁दादा	-7848
▁बजाए	-7849
▁लेगा	-7850
▁टेस्ट	-7851
▁तत्पर	-7852
▁दर्जा	-7853
▁नाट्य	-7854
▁पारिवारिक	-7855
▁वित्तपोषण	-7856
थल	-7857
दह	-7858
▁कण	-7859
ॉक्स	-7860
▁अटल	-7861
र्कों	-7862
▁पायी	-7863
▁पावर	-7864
▁अर्जी	-7865
▁ऊतकों	-7866
▁बालकों	-7867
▁साँचाः	-7868
▁माध्यमिक	-7869
वो	-7870
▁यश	-7871
माही	-7872
सर्ग	-7873
▁आइए	-7874
▁उलझ	-7875
▁डाइ	-7876
▁मुर	-7877
▁पांव	-7878
▁चिन्त	-7879
▁जोड़ी	-7880
▁तुर्क	-7881
▁एकीकरण	-7882
▁फिल्मों	-7883
▁सत्यापित	-7884
अभ	-7885
ियॉँ	-7886
ॉर्ट	-7887
▁एन्	-7888
▁नाज	-7889
▁ट्रांस	-7890
▁फ़ॉन्ट	-7891
▁बिलियन	-7892
▁वाशिंग	-7893
▁संपादक	-7894
▁आश्चर्यजनक	-7895
▁सांप्रदायिक	-7896
▁प्रौद्योगिकियों	-7897
रीद	-7898
सैन	-7899
ाइड	-7900
▁जमाने	-7901
▁विकृत	-7902
▁अस्थिर	-7903
▁समर्थक	-7904
▁क्रियाओं	-7905
ताई	-7906
संप	-7907
्वत	-7908
▁रुक	-7909
▁मिलन	-7910
▁आज्ञा	-7911
▁भयानक	-7912
▁संचरण	-7913
▁स्थाई	-7914
डब	-7915
ome	-7916
▁तन	-7917
राइट	-7918
▁सीए	-7919
हिन्दी	-7920
▁आबंटन	-7921
▁चरणों	-7922
▁जरुरी	-7923
▁भूटान	-7924
▁श्वसन	-7925
▁श्रमिकों	-7926
मस	-7927
िकरण	-7928
▁फर्	-7929
हार्य	-7930
▁लेबल	-7931
▁प्रभा	-7932
▁परिपूर्ण	-7933
▁विशेषताओं	-7934
ोडा	-7935
▁कैल	-7936
▁कराए	-7937
▁शाही	-7938
▁पड़ोस	-7939
▁फांसी	-7940
▁विकेट	-7941
▁जवाबदे	-7942
▁चुंबकीय	-7943
▁सूचनाओं	-7944
▁तात्पर्य	-7945
▁संभावनाओं	-7946
▁अंतर्विष्ट	-7947
▁मार्गदर्शक	-7948
उदी	-7949
▁गौण	-7950
▁ढूँ	-7951
▁फेड	-7952
▁वाई	-7953
म्बित	-7954
शासित	-7955
▁नाना	-7956
▁पूरक	-7957
निर्भर	-7958
▁यातना	-7959
▁अनुभाग	-7960
▁उद्यमी	-7961
▁करवाने	-7962
▁दरवाजे	-7963
▁राजवंश	-7964
▁सर्वथा	-7965
जुल	-7966
बिया	-7967
▁मौके	-7968
पश्चिम	-7969
▁घोड़े	-7970
▁बिस्त	-7971
▁सुनाई	-7972
▁आरक्षण	-7973
▁बंगाली	-7974
▁निरूपित	-7975
▁संपादित	-7976
०ख	-7977
र्मी	-7978
▁पित	-7979
▁नर्मदा	-7980
▁व्यर्थ	-7981
▁अभिरक्षा	-7982
▁प्रदेशों	-7983
तको	-7984
गरीय	-7985
▁पाय	-7986
भक्ति	-7987
वाहिक	-7988
ष्ठान	-7989
▁क़ुर	-7990
▁लखनऊ	-7991
▁लायक	-7992
▁गार्ड	-7993
▁जरुरत	-7994
▁मास्टर	-7995
▁मंत्रिम	-7996
▁बहुमूल्य	-7997
▁अंतःस्थापित	-7998
▁ऑस्ट्रेलिया	-7999
पहर	-8000
विड	-8001
▁झग	-8002
कांक	-8003
▁उतने	-8004
▁एओआर	-8005
▁दवाओं	-8006
▁मारने	-8007
▁मूलतः	-8008
▁सिंधु	-8009
▁उदाहरणार्थ	-8010
वंत	-8011
फीति	-8012
ारिक	-8013
▁धनी	-8014
▁जमींद	-8015
▁बुराई	-8016
▁मुफ्त	-8017
र्थियों	-8018
▁अर्द्ध	-8019
▁कामकाज	-8020
▁गंतव्य	-8021
▁दंडनीय	-8022
▁विलियम	-8023
▁प्रतिभूतियों	-8024
://	-8025
ंकि	-8026
▁इश	-8027
प्रो	-8028
र्तग	-8029
▁सटीक	-8030
▁भागवत	-8031
▁मंत्रि	-8032
▁आत्महत्या	-8033
म्म	-8034
वात	-8035
०वें	-8036
▁कसौ	-8037
▁तित	-8038
▁पडा	-8039
▁मन्	-8040
▁रेट	-8041
▁अवगत	-8042
▁समीप	-8043
▁एक्सट	-8044
▁ललिता	-8045
▁सिनेमा	-8046
▁दिनांकित	-8047
जग	-8048
▁आन्त	-8049
▁स्टी	-8050
नाइटेड	-8051
स्तरीय	-8052
▁नजदीक	-8053
▁पंद्रह	-8054
▁चाहेंगे	-8055
▁बाजारों	-8056
▁समावेशी	-8057
सद	-8058
शेर	-8059
▁वॉ	-8060
▁लहर	-8061
▁वान	-8062
▁जीने	-8063
▁अरुणा	-8064
▁चाहें	-8065
▁छोड़ा	-8066
▁स्विच	-8067
▁अनुबंध	-8068
▁छत्तीस	-8069
▁सम्भावना	-8070
▁पर्यावरणीय	-8071
सक	-8072
आउट	-8073
राग	-8074
यंकर	-8075
▁ईस्ट	-8076
▁देहा	-8077
▁मुआव	-8078
▁सीखा	-8079
▁सूरज	-8080
ास्टिक	-8081
▁असंगत	-8082
▁द्रव्य	-8083
▁नाटकीय	-8084
▁बढ़ाकर	-8085
▁सौहार्द	-8086
▁प्रतिवेदन	-8087
्टन	-8088
▁नींद	-8089
▁बशर्	-8090
▁बेहत	-8091
▁मार्क	-8092
▁जनजाति	-8093
▁ताजमहल	-8094
▁प्रेमी	-8095
▁मणिपुर	-8096
▁आजीविका	-8097
िती	-8098
▁Go	-8099
नामा	-8100
▁उठे	-8101
▁ऑटो	-8102
ानिर्	-8103
▁कैसा	-8104
▁बगैर	-8105
▁सुपर	-8106
▁बनाएँ	-8107
▁लेखों	-8108
▁ठहराया	-8109
▁सोसायटी	-8110
सच	-8111
दण्ड	-8112
विभाग	-8113
▁लगाई	-8114
▁खेतों	-8115
▁पीड़क	-8116
▁बदलते	-8117
▁सच्चा	-8118
▁चित्रों	-8119
▁संदिग्ध	-8120
▁सरकारें	-8121
▁स्वदेशी	-8122
लेस	-8123
कावट	-8124
गणना	-8125
शियन	-8126
▁रोम	-8127
जपेयी	-8128
त्विक	-8129
▁आश्र	-8130
▁गोला	-8131
▁डाली	-8132
▁डिवी	-8133
▁बोले	-8134
▁इंद्र	-8135
▁लगेगा	-8136
▁आचार्य	-8137
▁सूचकांक	-8138
▁जनजातियों	-8139
▁लेट	-8140
धियां	-8141
वित्त	-8142
▁वक्र	-8143
▁आँखों	-8144
▁शिष्य	-8145
▁नोकिया	-8146
▁पुर्तग	-8147
▁चमत्कार	-8148
▁डब्ल्यू	-8149
▁क्षेत्रक	-8150
▁प्रारम्भिक	-8151
▁सार्वभौमिक	-8152
ेरा	-8153
ापित	-8154
▁ओवर	-8155
▁भूकंप	-8156
▁अंतररा	-8157
▁पेड़ों	-8158
▁नियोजित	-8159
▁रेगिस्तान	-8160
▁क्रियाकलापों	-8161
ia	-8162
थाम	-8163
लीफ	-8164
▁ढी	-8165
चनों	-8166
लापन	-8167
▁जोड	-8168
▁टेप	-8169
▁खोला	-8170
▁बढ़ो	-8171
▁वाणी	-8172
▁समेत	-8173
▁आभूषण	-8174
▁उठाकर	-8175
▁छिद्र	-8176
▁अनियमित	-8177
▁लक्ष्मण	-8178
▁बीमारियों	-8179
▁स्थानांतरण	-8180
क्य	-8181
भंग	-8182
जारी	-8183
ब्बा	-8184
▁बला	-8185
श्यों	-8186
▁जबरद	-8187
▁रत्न	-8188
ष्णुता	-8189
▁कोष्ठ	-8190
▁गोपाल	-8191
▁बलराम	-8192
▁भयंकर	-8193
▁साधना	-8194
▁उपरांत	-8195
▁ट्रस्ट	-8196
▁पूछताछ	-8197
▁समुच्च	-8198
▁महिलाएं	-8199
▁व्याप्त	-8200
ञ्	-8201
भवन	-8202
ब्रे	-8203
िल्ल	-8204
▁किर	-8205
▁धर्	-8206
▁पटना	-8207
▁परिपथ	-8208
▁प्रत्यु	-8209
▁सरस्वती	-8210
ुख	-8211
ate	-8212
ंची	-8213
जीत	-8214
▁शत	-8215
खाना	-8216
▁भोग	-8217
▁गेहूं	-8218
▁निशान	-8219
▁अग्रसर	-8220
▁पर्यटक	-8221
▁प्रवास	-8222
▁लार्वा	-8223
▁शृंखला	-8224
▁स्त्रोत	-8225
▁अद्वितीय	-8226
▁अधिग्रहण	-8227
लत	-8228
ॉजी	-8229
सीआई	-8230
▁ऋषि	-8231
▁जूट	-8232
▁बेज	-8233
▁संभ	-8234
धिकरण	-8235
▁दायी	-8236
▁दुष्	-8237
▁बढ़ी	-8238
▁बताए	-8239
▁बनती	-8240
▁बाबा	-8241
▁हटाना	-8242
▁चिंतित	-8243
▁बलिदान	-8244
▁प्रवाहित	-8245
▁क्षेत्रफल	-8246
▁प्रस्तुति	-8247
▁सिफारिशें	-8248
ेम	-8249
गीर	-8250
फलक	-8251
▁(0	-8252
▁१७	-8253
दायी	-8254
▁खैर	-8255
▁बैल	-8256
▁रोब	-8257
▁लाप	-8258
▁कारी	-8259
▁प्रॉ	-8260
▁मोती	-8261
▁सूखे	-8262
▁खंडों	-8263
▁जॉर्ज	-8264
▁तार्क	-8265
▁बालों	-8266
▁विघटन	-8267
▁हल्के	-8268
▁दिखायी	-8269
▁निरस्त	-8270
▁मुद्रित	-8271
▁विशेषताएं	-8272
▁विशेषज्ञता	-8273
vi	-8274
जरी	-8275
बुद	-8276
▁झट	-8277
िथ्म	-8278
▁कीं	-8279
▁चंद	-8280
▁वाइ	-8281
ंजस्य	-8282
▁सभ्य	-8283
▁ग्रुप	-8284
▁विकार	-8285
▁व्यंग	-8286
▁स्टाक	-8287
ंत्रिकी	-8288
▁बैठकों	-8289
▁मशीनों	-8290
▁रात्रि	-8291
▁इन्होंने	-8292
▁रूपांतरण	-8293
▁प्रतिलिपि	-8294
कौ	-8295
▁हफ	-8296
▁अलं	-8297
▁कोण	-8298
▁बाय	-8299
▁सती	-8300
▁अमीर	-8301
▁मुहा	-8302
▁मेनन	-8303
▁मेनू	-8304
▁भीतरी	-8305
▁आवासीय	-8306
▁निवेदन	-8307
▁सेनाओं	-8308
▁वाजपेयी	-8309
▁सिक्किम	-8310
▁आविष्कार	-8311
▁प्रभावों	-8312
▁प्रीमियम	-8313
म्य	-8314
वेग	-8315
न्सी	-8316
ल्ले	-8317
▁छोर	-8318
▁फिन	-8319
▁मोन	-8320
▁रिए	-8321
▁धीमी	-8322
▁पोषक	-8323
▁दीजिए	-8324
▁पूँजी	-8325
▁मुल्क	-8326
▁स्वाद	-8327
▁तेलुगु	-8328
▁मानचित्र	-8329
▁विक्रेता	-8330
िग	-8331
▁बक	-8332
बड़ी	-8333
यालम	-8334
▁एकड़	-8335
▁कीर्	-8336
▁फैले	-8337
▁बेशक	-8338
▁सौदा	-8339
▁खुलने	-8340
▁पड़ते	-8341
▁राजकीय	-8342
▁पर्वतीय	-8343
▁संभावनाएं	-8344
▁डेल	-8345
▁ब्रे	-8346
▁डालना	-8347
▁प्रको	-8348
▁फ्रेम	-8349
▁कोरिया	-8350
▁क्रमांक	-8351
▁निरपेक्ष	-8352
▁तात्कालिक	-8353
▁नियन्त्रण	-8354
ॉस	-8355
उत्	-8356
▁उज	-8357
▁पग	-8358
माना	-8359
िप्र	-8360
▁जन्	-8361
▁चलाए	-8362
▁देरी	-8363
▁लिखत	-8364
▁सौदे	-8365
वर्षीय	-8366
▁दोपहर	-8367
▁ध्येय	-8368
▁सरलता	-8369
िश्रमिक	-8370
▁मुद्रण	-8371
▁सीरिया	-8372
▁लाभदायक	-8373
▁उजा	-8374
▁मजा	-8375
▁स्फ	-8376
▁माया	-8377
▁स्पी	-8378
▁उपनिष	-8379
▁चित्त	-8380
▁पत्तन	-8381
▁दिलाने	-8382
▁दृढ़ता	-8383
▁विजेता	-8384
▁संपादन	-8385
राधिकारी	-8386
▁चित्रित	-8387
▁प्रतिस्थापित	-8388
जिसे	-8389
▁कमर	-8390
▁फर्क	-8391
▁हटाए	-8392
▁आखिरी	-8393
▁इंस्ट	-8394
▁पंचाट	-8395
▁हुसैन	-8396
तकोत्तर	-8397
▁जापानी	-8398
▁दर्शाया	-8399
▁उत्पादित	-8400
▁निवासियों	-8401
▁अनुपस्थिति	-8402
षद	-8403
ाहट	-8404
▁निब	-8405
▁क्यो	-8406
▁सिलस	-8407
▁उद्धरण	-8408
▁विद्वत	-8409
▁हस्तांतरण	-8410
▁शांतिपूर्ण	-8411
रेज	-8412
एक्स	-8413
▁नली	-8414
▁टिका	-8415
▁यकीन	-8416
▁आंखें	-8417
▁चलाना	-8418
▁शुष्क	-8419
▁अंडमान	-8420
▁प्रिंटर	-8421
▁पारिस्थित	-8422
▁प्लास्टिक	-8423
्ह	-8424
किक	-8425
नीस	-8426
बेट	-8427
▁सघन	-8428
▁कृषक	-8429
▁तिरु	-8430
▁धमकी	-8431
▁मंदी	-8432
▁रसीद	-8433
फ्रेंस	-8434
▁अवतार	-8435
▁धैर्य	-8436
▁स्वयंसे	-8437
▁वर्गीकृत	-8438
▁पारिश्रमिक	-8439
ub	-8440
ogle	-8441
▁गोर	-8442
▁क्षय	-8443
▁बलों	-8444
▁मापन	-8445
▁अवशेष	-8446
▁ट्रैक	-8447
▁दुश्म	-8448
▁समन्वित	-8449
▁समाविष्ट	-8450
▁चट	-8451
ल्पित	-8452
▁वकाल	-8453
▁शिरा	-8454
▁सीडी	-8455
▁चुपचाप	-8456
▁तीव्रता	-8457
▁प्रपत्र	-8458
▁अंतर्निहित	-8459
विष	-8460
सुर	-8461
▁नाप	-8462
▁साख	-8463
ेशनों	-8464
▁बंगल	-8465
▁सरोज	-8466
▁हुईं	-8467
प्रधान	-8468
▁चक्कर	-8469
▁नारियल	-8470
▁स्थगित	-8471
▁मुकाबला	-8472
▁शब्दावली	-8473
▁हथियारों	-8474
▁बीमाकर्ता	-8475
▁राधाकृष्णन	-8476
ठों	-8477
णीत	-8478
▁जज	-8479
ितानी	-8480
▁....	-8481
▁बनते	-8482
▁माला	-8483
▁लेनी	-8484
▁सतत्	-8485
ँट	-8486
ंजर	-8487
कूट	-8488
डिश	-8489
मंद	-8490
्रल	-8491
▁ओह	-8492
स्तक	-8493
देशिक	-8494
▁साइन	-8495
▁हमसे	-8496
▁कारित	-8497
▁पट्टे	-8498
▁अपनाना	-8499
▁करूंगा	-8500
▁व्यायाम	-8501
यद	-8502
▁ae	-8503
▁आभ	-8504
▁टॉ	-8505
ीलाल	-8506
▁मीन	-8507
▁सहि	-8508
▁खादी	-8509
▁युवक	-8510
पतियों	-8511
▁पुकार	-8512
▁मानकर	-8513
▁मानवा	-8514
ब्दियों	-8515
▁अंशदान	-8516
▁डिवीजन	-8517
▁नौसेना	-8518
▁काश्मीर	-8519
▁विश्राम	-8520
▁उपाध्यक्ष	-8521
▁सहयोगियों	-8522
छे	-8523
ायन	-8524
ुखी	-8525
ैंट	-8526
▁खनन	-8527
▁खाल	-8528
▁फेर	-8529
▁हॉल	-8530
क्टरी	-8531
त्तूर	-8532
▁रावण	-8533
▁जगहों	-8534
▁हास्य	-8535
▁प्रामा	-8536
▁न्यायपीठ	-8537
▁प्रसारित	-8538
▁श्रेणियों	-8539
',	-8540
फिर	-8541
ैंस	-8542
▁लू	-8543
ौर्य	-8544
▁डूब	-8545
▁फूट	-8546
▁अखंड	-8547
▁ड्यू	-8548
▁पेपर	-8549
▁बंदी	-8550
▁घटकों	-8551
▁चार्ट	-8552
▁नतीजा	-8553
▁फारसी	-8554
▁विधिव	-8555
▁समूचे	-8556
▁मणीलाल	-8557
▁मलयालम	-8558
▁जनजातीय	-8559
▁मॉड्यूल	-8560
▁संशोधनों	-8561
EN	-8562
ोरा	-8563
क्या	-8564
▁ऊंट	-8565
▁नाभ	-8566
▁सफ़	-8567
▁कोल्	-8568
▁भण्ड	-8569
▁सउदी	-8570
▁कॉर्प	-8571
▁खेलने	-8572
▁प्रभु	-8573
▁हल्का	-8574
▁परिप्रे	-8575
▁नगरपालिका	-8576
माद	-8577
▁पुत	-8578
▁साठ	-8579
क्सीजन	-8580
▁उत्पी	-8581
▁पढ़ना	-8582
▁बनाएं	-8583
▁तालिका	-8584
▁बिस्तर	-8585
▁रोकथाम	-8586
▁निमंत्र	-8587
▁संस्कार	-8588
▁सामंजस्य	-8589
नक	-8590
ूद	-8591
द्घ	-8592
नगर	-8593
पों	-8594
रोधी	-8595
ायती	-8596
▁इंच	-8597
▁सोशल	-8598
▁अपवर्	-8599
▁सहारे	-8600
ोल्यूशन	-8601
▁गुप्ता	-8602
▁मुम्बई	-8603
▁--	-8604
▁उब	-8605
▁रथ	-8606
▁शंक	-8607
▁गुस्	-8608
▁पद्य	-8609
▁परमा	-8610
▁बेटा	-8611
▁रसोई	-8612
▁भ्रमण	-8613
धारियों	-8614
▁नियोक्ता	-8615
▁ब्रितानी	-8616
▁समितियां	-8617
अली	-8618
▁गुम	-8619
▁जगा	-8620
▁झलक	-8621
▁रवै	-8622
दायगी	-8623
▁कहें	-8624
▁चाहा	-8625
▁फ्रा	-8626
▁दिखता	-8627
▁धूम्र	-8628
▁नोड्स	-8629
▁आबंटित	-8630
▁सेवाएँ	-8631
▁सम्बन्धों	-8632
xx	-8633
सचिव	-8634
▁पूर	-8635
▁शाल	-8636
▁पुरी	-8637
▁शंका	-8638
▁सुलह	-8639
ज्ञानी	-8640
▁कामों	-8641
▁काल्प	-8642
▁समझती	-8643
▁चट्टान	-8644
▁सारांश	-8645
▁हेक्टेयर	-8646
काई	-8647
गांठ	-8648
ोसिस	-8649
िलोकन	-8650
▁भेड़	-8651
न्दर्य	-8652
▁संसद्	-8653
▁ग्लोबल	-8654
निर्धारण	-8655
▁अभिलिखित	-8656
▁परंपराओं	-8657
▁वाशिंगटन	-8658
▁स्नातकोत्तर	-8659
▁उत्तराधिकारी	-8660
ाम्	-8661
जाति	-8662
हाली	-8663
▁खिस	-8664
चर्या	-8665
वश्यक	-8666
▁औजार	-8667
▁चंडी	-8668
▁हरित	-8669
▁रंगों	-8670
▁लिखें	-8671
▁बशर्ते	-8672
▁सदियों	-8673
निरपेक्ष	-8674
▁नैतिकता	-8675
धरी	-8676
▁or	-8677
भासी	-8678
▁भोज	-8679
▁निरी	-8680
▁नामांकन	-8681
▁छत्तीसगढ़	-8682
▁अनुप्रयोगों	-8683
्ये	-8684
ज्जित	-8685
▁आयाम	-8686
▁बादल	-8687
▁जीतने	-8688
▁प्रोज	-8689
▁बेरोज	-8690
▁श्वास	-8691
कारियों	-8692
▁Google	-8693
▁रिश्वत	-8694
चिकित्सा	-8695
▁आदर्शों	-8696
▁देवनागरी	-8697
▁पारदर्शी	-8698
▁महाकाव्य	-8699
ैश	-8700
गान	-8701
ीयर	-8702
्यौ	-8703
▁लय	-8704
चेरी	-8705
सूरत	-8706
परेशन	-8707
▁ताजा	-8708
▁मुना	-8709
▁अंतरा	-8710
▁निवार	-8711
▁उल्लास	-8712
▁तयशुदा	-8713
▁निकाले	-8714
▁आधुनिकीकरण	-8715
▁कुर	-8716
▁गरम	-8717
▁हनु	-8718
नीकरण	-8719
▁सुखद	-8720
▁कार्ट	-8721
▁उत्प्रे	-8722
▁उपन्यासों	-8723
od	-8724
▁we	-8725
ment	-8726
तत्व	-8727
▁कवर	-8728
▁कैर	-8729
▁भीम	-8730
▁तैना	-8731
▁समनु	-8732
क्रमित	-8733
ुतीकरण	-8734
▁क्षेञ	-8735
▁गर्भव	-8736
▁विशेन	-8737
▁पॉलिसी	-8738
▁पोर्टल	-8739
▁कृतियों	-8740
▁विधिज्ञ	-8741
▁स्वार्थ	-8742
▁मध्यवर्ती	-8743
▁महाविद्यालय	-8744
ँची	-8745
जलि	-8746
ोपाल	-8747
▁उधर	-8748
▁तैर	-8749
▁फैली	-8750
▁बंधक	-8751
▁बुरे	-8752
▁मृदा	-8753
▁युसु	-8754
▁रवाना	-8755
▁वकालत	-8756
▁चेन्नई	-8757
▁भौतिकी	-8758
▁तार्किक	-8759
▁कार्यकलाप	-8760
▁भागीदारों	-8761
▁मुख्यमंत्री	-8762
▁रजिस्ट्रीकृत	-8763
ob	-8764
लम	-8765
ँकि	-8766
चों	-8767
ुवा	-8768
क्ष्	-8769
▁उदर	-8770
▁पैट	-8771
▁बसे	-8772
बारों	-8773
▁अफसर	-8774
▁बाँध	-8775
धिकारी	-8776
▁दंडित	-8777
▁चिन्ता	-8778
▁धाराओं	-8779
▁प्रिंट	-8780
▁किनारों	-8781
▁अभयारण्य	-8782
▁व्यापारियों	-8783
ुकला	-8784
▁the	-8785
▁ऋणों	-8786
▁तिलक	-8787
ापूर्ण	-8788
▁जायगा	-8789
▁फैसले	-8790
▁युग्म	-8791
▁लगाये	-8792
▁निगमित	-8793
▁द्वीपों	-8794
▁टेलीविजन	-8795
गोश	-8796
▁एह	-8797
पीएस	-8798
▁थाः	-8799
▁फंड	-8800
▁सीट	-8801
▁अखबार	-8802
▁खुराक	-8803
▁तारों	-8804
▁इंतजार	-8805
▁उपासना	-8806
▁ज़रूरी	-8807
▁वियतना	-8808
▁देखेंगे	-8809
▁कं	-8810
चक्र	-8811
ोग्य	-8812
▁दाल	-8813
▁हज़	-8814
▁एनआई	-8815
▁परिल	-8816
▁श्या	-8817
▁सूखा	-8818
▁किशोर	-8819
▁परिकल	-8820
▁फीसदी	-8821
▁विराम	-8822
▁प्रेरक	-8823
▁कित्तूर	-8824
▁संप्रती	-8825
▁अब्दुल्ला	-8826
▁नवान्वेषी	-8827
ोदय	-8828
▁उम	-8829
कुशल	-8830
क्के	-8831
न्ने	-8832
▁टोप	-8833
▁मर्	-8834
▁शार	-8835
▁तरंग	-8836
▁रुग्	-8837
लेरिया	-8838
▁दर्शक	-8839
▁हिमनद	-8840
▁देखरेख	-8841
▁परिमाण	-8842
▁खाद्यान	-8843
▁प्रदाता	-8844
▁अप्रत्या	-8845
▁संस्थापक	-8846
▁एक्सटेंशन	-8847
इम	-8848
aoM	-8849
बिर	-8850
▁एर	-8851
▁फो	-8852
टिंग	-8853
्युन	-8854
▁घों	-8855
▁्याय	-8856
▁अस्पृ	-8857
▁क़्या	-8858
▁ख्याल	-8859
▁गर्दन	-8860
▁परमिट	-8861
▁वादों	-8862
▁सिंधी	-8863
▁उत्थान	-8864
▁क्रमिक	-8865
▁प्ररूप	-8866
▁संरक्षक	-8867
▁सुपुर्दगी	-8868
pl	-8869
दिव	-8870
▁शव	-8871
▁आगम	-8872
्याति	-8873
▁रिहा	-8874
▁कसौटी	-8875
▁साम्य	-8876
▁ग्रंथों	-8877
▁उत्तेजित	-8878
▁अतिमानसिक	-8879
▁न्यूयार्क	-8880
▁महानिदेशक	-8881
जिर	-8882
ड्स	-8883
▁AR	-8884
▁जह	-8885
▁जाऊ	-8886
▁नाश	-8887
ट्रिक	-8888
योजना	-8889
▁अभिस	-8890
▁गणेश	-8891
▁चार्	-8892
▁ज्वर	-8893
▁फ़िर	-8894
▁बहुप	-8895
▁सोना	-8896
▁हिला	-8897
▁निरोध	-8898
▁मुस्क	-8899
▁हममें	-8900
▁परंतुक	-8901
▁सर्किट	-8902
▁जुर्माना	-8903
▁प्रत्युत्तर	-8904
थिल	-8905
दत्त	-8906
शैली	-8907
▁एजे	-8908
▁परो	-8909
▁मता	-8910
▁गुर्	-8911
▁तटीय	-8912
▁नौका	-8913
▁पद्म	-8914
▁लगों	-8915
स्पष्ट	-8916
▁बहुधा	-8917
▁लैंगिक	-8918
ढा	-8919
कोण	-8920
प्प	-8921
ेली	-8922
▁re	-8923
▁जौ	-8924
क्षि	-8925
्टीट	-8926
▁गढ़	-8927
पोरेट	-8928
▁उज्ज	-8929
▁गाने	-8930
▁केलिए	-8931
▁क्रोम	-8932
▁जिज्ञ	-8933
▁निकोबार	-8934
▁कार्यपाल	-8935
▁व्यवसायी	-8936
▁कार्मिकों	-8937
इंट	-8938
त्सा	-8939
वाड़	-8940
▁इलै	-8941
▁पौरा	-8942
▁सपने	-8943
▁अनुमत	-8944
▁फाउंड	-8945
▁सम्मुख	-8946
▁प्रशासक	-8947
▁सौन्दर्य	-8948
▁एल्गोरिथ्म	-8949
▁आतंकवादियों	-8950
▁!	-8951
ध्द	-8952
यियों	-8953
▁जंतु	-8954
▁मेले	-8955
▁स्पेन	-8956
▁असंख्य	-8957
▁ग्रंथि	-8958
▁निकलता	-8959
▁प्रोफ़	-8960
▁वर्ल्ड	-8961
▁सीमेंट	-8962
▁स्थावर	-8963
▁एमएसएमई	-8964
▁यथासंभव	-8965
▁विशुद्ध	-8966
▁समुच्चय	-8967
▁धूम्रपान	-8968
II	-8969
हु	-8970
ेषण	-8971
▁अंज	-8972
▁पिर	-8973
▁अविल	-8974
▁वाहक	-8975
▁वैसी	-8976
मुक्ति	-8977
▁खेलों	-8978
▁बुखार	-8979
▁शासकीय	-8980
ानिर्देश	-8981
▁गर्भवती	-8982
▁लाभकारी	-8983
▁सुंदरता	-8984
▁सुप्रीम	-8985
▁नागरिकता	-8986
▁ब्राउज़र	-8987
▁भूतपूर्व	-8988
सेफ	-8989
▁डू	-8990
▁तद	-8991
र्थक	-8992
ालेख	-8993
▁छान	-8994
▁मदर	-8995
▁हेम	-8996
शिल्प	-8997
▁इटली	-8998
▁इनको	-8999
▁मदों	-9000
▁साफ़	-9001
▁पुष्ट	-9002
▁व्यतिक	-9003
अनुच्छेद	-9004
▁आन्तरिक	-9005
▁प्रशांत	-9006
▁पुनर्विलोकन	-9007
th	-9008
”,	-9009
अंग	-9010
िटर	-9011
्वल	-9012
ुदेव	-9013
▁अभिश	-9014
▁गायब	-9015
▁डिज़	-9016
▁सिटी	-9017
पीडीएफ	-9018
▁कोयले	-9019
▁ग्रिड	-9020
▁नामित	-9021
▁आक्षेप	-9022
▁डिक्री	-9023
▁राजदूत	-9024
प्लिकेशन	-9025
▁दर्शकों	-9026
ङ्ग	-9027
ालक	-9028
▁इम	-9029
▁बूट	-9030
▁सुस	-9031
क्रेट	-9032
▁पल्ल	-9033
▁मरने	-9034
▁ईरानी	-9035
▁चालुक	-9036
▁रोकना	-9037
▁ग्यारह	-9038
▁पकड़ने	-9039
▁विचारा	-9040
▁सहेजें	-9041
▁जानबूझकर	-9042
▁संस्थापन	-9043
▁प्रेमचन्द	-9044
▁मनोवैज्ञानिक	-9045
ँव	-9046
ोभ	-9047
तौर	-9048
िगर	-9049
एमएस	-9050
िश्न	-9051
▁Chr	-9052
▁टाल	-9053
▁अभिम	-9054
▁चालक	-9055
▁महार	-9056
▁यूनिक	-9057
▁लम्बा	-9058
▁प्रमाणन	-9059
सब	-9060
्ली	-9061
▁अमी	-9062
द्रीय	-9063
▁रूसी	-9064
▁वासी	-9065
▁शर्म	-9066
▁यूनाइटेड	-9067
▁सद्भावना	-9068
▁सिंगापुर	-9069
▁वास्तुकला	-9070
▁श्रीकृष्ण	-9071
▁परिस्थितियां	-9072
ोहण	-9073
▁पठ	-9074
गरों	-9075
▁अलम	-9076
न्नति	-9077
▁असीम	-9078
▁पौधा	-9079
▁बताई	-9080
▁भावा	-9081
▁माउस	-9082
▁सुलभ	-9083
रेटिंग	-9084
▁परवाह	-9085
▁पाश्च	-9086
▁मक्का	-9087
▁लीजिए	-9088
▁कर्त्त	-9089
▁निवेशक	-9090
▁मुद्रक	-9091
▁प्रतिमान	-9092
▁प्रेमचंद	-9093
▁प्रदर्शनी	-9094
▁भविष्यवाणी	-9095
▁अप्रत्याशित	-9096
▁प्रतिपूर्ति	-9097
▁परिप्रेक्ष्य	-9098
डेट	-9099
यता	-9100
ेता	-9101
▁ढ़	-9102
चरित	-9103
हरों	-9104
▁जनक	-9105
▁फ़र	-9106
▁मनी	-9107
फार्म	-9108
▁चिट्	-9109
▁एकांत	-9110
▁खतरों	-9111
▁गुलाम	-9112
▁जीवनी	-9113
▁डेविड	-9114
▁सुप्र	-9115
▁हफ्ते	-9116
▁दुबारा	-9117
▁अरुणाचल	-9118
▁काल्पनिक	-9119
▁निर्भरता	-9120
कथित	-9121
हानि	-9122
▁करों	-9123
▁दहेज	-9124
▁पच्च	-9125
▁मेजब	-9126
▁हरेक	-9127
▁दशाओं	-9128
▁मैसूर	-9129
▁उपक्रमों	-9130
▁फाउंडेशन	-9131
▁साधारणतया	-9132
▁सेवानिवृत्त	-9133
ंदे	-9134
ग्व	-9135
▁ऊर्	-9136
▁जर्	-9137
▁मोल	-9138
िश्रण	-9139
▁अंडा	-9140
▁कटाई	-9141
▁कृपा	-9142
▁इलाके	-9143
▁डालते	-9144
▁तिहाई	-9145
▁समरूप	-9146
▁आश्रित	-9147
▁कानपुर	-9148
▁दिखाना	-9149
▁विनम्र	-9150
द्योगिकी	-9151
▁निदेशालय	-9152
▁पूर्वानु	-9153
▁सांविधिक	-9154
▁दिशानिर्देश	-9155
ंशी	-9156
तुर	-9157
भीत	-9158
▁डु	-9159
देशन	-9160
बीसी	-9161
ालीस	-9162
▁अड़	-9163
▁नाव	-9164
▁मौन	-9165
▁हड्ड	-9166
▁उजागर	-9167
▁शाश्व	-9168
▁व्यतीत	-9169
▁स्नायु	-9170
तू	-9171
ंगर	-9172
भ्र	-9173
ोत्	-9174
▁१८	-9175
गंगा	-9176
गणित	-9177
▁बाघ	-9178
▁पीछा	-9179
▁बर्तन	-9180
▁मतदाता	-9181
▁अभिनेता	-9182
▁राष्ट्रीयता	-9183
िकर	-9184
जिये	-9185
▁खाम	-9186
▁नक़	-9187
▁्या	-9188
न्याय	-9189
बिनेट	-9190
विधान	-9191
▁कपास	-9192
▁घेरे	-9193
▁निवल	-9194
कश्मीर	-9195
▁कन्या	-9196
▁घटनाएं	-9197
▁जिन्ना	-9198
▁बढ़िया	-9199
▁पात्रों	-9200
▁निदेशकों	-9201
▁संदर्भित	-9202
▁साझेदारी	-9203
करे	-9204
डोर	-9205
ोंग	-9206
जन्य	-9207
▁कूद	-9208
▁टूल	-9209
▁तरा	-9210
ोत्सव	-9211
▁उद्घ	-9212
▁कलाम	-9213
▁ढलान	-9214
▁तरफ़	-9215
▁पूछे	-9216
▁बैंड	-9217
▁डीएनए	-9218
▁निपटा	-9219
▁सीखना	-9220
▁ख्याति	-9221
▁आश्वस्त	-9222
▁करनेवाले	-9223
▁पासपोर्ट	-9224
▁अपरिहार्य	-9225
ak	-9226
्क	-9227
ँसी	-9228
आया	-9229
च्य	-9230
ूति	-9231
गीता	-9232
ोगिक	-9233
▁झार	-9234
विन्द	-9235
विश्व	-9236
षिद्ध	-9237
▁अन्ध	-9238
▁फार्	-9239
▁श्ले	-9240
▁डालता	-9241
▁भिक्ष	-9242
▁नवाचार	-9243
▁उत्तेजना	-9244
▁कन्वेंशन	-9245
▁प्रायोजित	-9246
▁आकांक्षाओं	-9247
▁आत्मनिर्भर	-9248
उच्च	-9249
▁खरा	-9250
▁शिल	-9251
ग्रंथ	-9252
▁जोशी	-9253
▁राजप	-9254
▁वल्ल	-9255
▁सजीव	-9256
▁बढाने	-9257
▁वेदों	-9258
▁शिश्न	-9259
▁अस्त्र	-9260
▁ड्रग्स	-9261
▁माइक्र	-9262
▁विवेका	-9263
▁तकनीकों	-9264
▁पौराणिक	-9265
▁अनुयायियों	-9266
ey	-9267
op	-9268
लु	-9269
ॉं	-9270
▁u	-9271
केश	-9272
कोच	-9273
ीदा	-9274
मिया	-9275
हाउस	-9276
ीयों	-9277
१वें	-9278
▁खां	-9279
▁गंग	-9280
▁सत्	-9281
▁साई	-9282
र्गीय	-9283
▁ठेके	-9284
▁ब्ला	-9285
▁अंकुर	-9286
▁जयपुर	-9287
▁पक्का	-9288
▁लगाते	-9289
▁जंगलों	-9290
▁पाएंगे	-9291
▁प्रेषण	-9292
▁बिहारी	-9293
▁अधिकथित	-9294
▁पहुँचने	-9295
▁बागवानी	-9296
▁त्रिपुरा	-9297
▁स्ट्रिंग	-9298
▁विश्वव्यापी	-9299
षाण	-9300
▁छल	-9301
ुकता	-9302
्रार	-9303
▁झेल	-9304
मेन्ट	-9305
▁डिवा	-9306
▁फायर	-9307
बुद्धि	-9308
▁कब्जे	-9309
▁कालाव	-9310
▁पश्चा	-9311
प्रतिशत	-9312
▁दिशाओं	-9313
▁पंचवर्षीय	-9314
उथ	-9315
▁कत	-9316
बाज़	-9317
▁खाई	-9318
▁झूठ	-9319
▁लाज	-9320
▁तेजा	-9321
▁संग्र	-9322
▁सब्सि	-9323
▁कलात्मक	-9324
▁परिपत्र	-9325
▁बाध्यता	-9326
▁वृक्षों	-9327
▁अनुरक्षण	-9328
▁अधिनिर्णय	-9329
▁कार्यकर्ताओं	-9330
and	-9331
खने	-9332
्यूम	-9333
▁दुक	-9334
▁मेज	-9335
▁पत्थ	-9336
▁ऊँचाई	-9337
▁तुलसी	-9338
▁मंजिल	-9339
▁मंडली	-9340
▁तिमाही	-9341
▁निर्या	-9342
▁महाप्र	-9343
▁लक्षित	-9344
▁समाजवाद	-9345
▁अहमदाबाद	-9346
ist	-9347
मयी	-9348
मील	-9349
ारस	-9350
गारी	-9351
▁कैप	-9352
▁शिर	-9353
▁आएगा	-9354
▁पारे	-9355
▁पैदल	-9356
▁मामल	-9357
▁रूढ़	-9358
स्फीति	-9359
▁इंसान	-9360
▁जिक्र	-9361
▁बढ़ना	-9362
▁आवृत्ति	-9363
▁नामनिर्देश	-9364
▁शताब्दियों	-9365
▁अर्थशास्त्र	-9366
ल्थ	-9367
▁हौ	-9368
आईएस	-9369
▁एकक	-9370
▁मेह	-9371
▁विस	-9372
ोरिया	-9373
▁धुंध	-9374
▁निका	-9375
▁सहभा	-9376
सिद्धि	-9377
▁जार्ज	-9378
▁पहलों	-9379
▁क्योकि	-9380
▁जागरूक	-9381
▁जोरदार	-9382
▁तत्समय	-9383
▁प्रचलन	-9384
▁फोल्डर	-9385
▁भाइयों	-9386
▁किताबें	-9387
▁छुटकारा	-9388
▁स्वर्गीय	-9389
ढी	-9390
फॉ	-9391
ोंक	-9392
माता	-9393
य्या	-9394
▁कंक	-9395
▁कस्	-9396
ारायण	-9397
▁म्यू	-9398
▁खरगोश	-9399
▁खुदरा	-9400
▁भूगोल	-9401
▁यौगिक	-9402
▁विमर्श	-9403
▁अवस्थाओं	-9404
▁परिपक्वता	-9405
▁बुद्धिमान	-9406
▁प्रतिबंधित	-9407
.?	-9408
ind	-9409
गैर	-9410
चाहे	-9411
▁अधी	-9412
▁असु	-9413
▁भाँ	-9414
▁लूट	-9415
त्रिक	-9416
िवर्स	-9417
▁जवान	-9418
▁डिजी	-9419
श्लेषण	-9420
▁आरोपी	-9421
▁वैद्य	-9422
▁पहुँचे	-9423
▁प्रकटन	-9424
▁स्तंभों	-9425
▁हालाँकि	-9426
▁इस्लामिक	-9427
▁अपेक्षाओं	-9428
टीएम	-9429
▁असा	-9430
▁श्ल	-9431
ंत्रण	-9432
समन्व	-9433
ांजलि	-9434
▁अंगी	-9435
▁गौतम	-9436
▁दरें	-9437
▁लड़ा	-9438
▁सबका	-9439
▁डालें	-9440
▁धरोहर	-9441
▁नम्बर	-9442
▁करवाया	-9443
▁दर्शित	-9444
▁इकाइयां	-9445
▁ग्रीष्म	-9446
बिन	-9447
गांव	-9448
ड़ने	-9449
राइड	-9450
▁कैद	-9451
▁नहर	-9452
ध्याय	-9453
▁जीता	-9454
▁फ्री	-9455
▁मादक	-9456
▁मारा	-9457
ावस्था	-9458
▁झुकाव	-9459
▁पेरिस	-9460
▁मुर्गी	-9461
▁शाश्वत	-9462
▁स्वरुप	-9463
▁लाभप्रद	-9464
▁जुर्माने	-9465
▁पंचायतों	-9466
▁पत्तियों	-9467
▁पीड़ितों	-9468
▁समायोजित	-9469
डीए	-9470
तीस	-9471
वटी	-9472
ंडों	-9473
राहट	-9474
▁कौर	-9475
▁शाक	-9476
▁शैल	-9477
ग्राफ	-9478
▁दलील	-9479
▁संसू	-9480
▁दर्जे	-9481
▁बारिश	-9482
▁बैटरी	-9483
▁बैठकर	-9484
▁यमुना	-9485
▁निम्नतर	-9486
▁संकेतों	-9487
▁सुलझाने	-9488
▁कलाकारों	-9489
▁सशक्तीकरण	-9490
▁साम्राज्यवाद	-9491
िशन	-9492
ंदाज	-9493
अपील	-9494
ठरोग	-9495
ात्य	-9496
्यूल	-9497
▁रेत	-9498
▁लौह	-9499
वारों	-9500
▁अस्व	-9501
▁एंटी	-9502
▁त्यो	-9503
▁क्रिस	-9504
▁खर्चा	-9505
त्तियां	-9506
▁ऑपरेशन	-9507
▁पंचांग	-9508
▁खुशहाली	-9509
▁व्यक़्ति	-9510
▁भावनात्मक	-9511
if	-9512
डित	-9513
▁खुर	-9514
▁चौक	-9515
▁रुख	-9516
▁सिग	-9517
त्नों	-9518
देशीय	-9519
प्रेस	-9520
▁ऑफिस	-9521
▁अपहरण	-9522
▁अहसास	-9523
▁बढावा	-9524
▁बस्ती	-9525
▁वेस्ट	-9526
▁संस्थित	-9527
▁सैकड़ों	-9528
▁यांत्रिक	-9529
▁आत्मविश्वास	-9530
▁प्रोग्रामिंग	-9531
खल	-9532
ear	-9533
कोट	-9534
दशा	-9535
ूपी	-9536
ोधी	-9537
▁कछ	-9538
▁अनौ	-9539
▁आदम	-9540
▁घेर	-9541
▁डिब	-9542
▁हुक	-9543
अर्था	-9544
विकास	-9545
▁लोहे	-9546
▁चुनने	-9547
▁निराश	-9548
▁भयभीत	-9549
▁जोड़ना	-9550
▁इंस्टीट	-9551
▁किस्मों	-9552
▁वैधानिक	-9553
हू	-9554
जना	-9555
जाना	-9556
ाधीन	-9557
ालाल	-9558
्तों	-9559
▁समन	-9560
▁उभार	-9561
▁चौदह	-9562
▁जरिये	-9563
▁रक्षक	-9564
▁विक्ष	-9565
ोनेशिया	-9566
▁नियोजक	-9567
▁मेडिकल	-9568
▁वर्षीय	-9569
▁एनआईओएस	-9570
▁सापेक्ष	-9571
▁प्रोफाइल	-9572
▁प्रादेशिक	-9573
tt	-9574
est	-9575
मक्	-9576
▁अछ	-9577
परिश	-9578
पुरा	-9579
स्की	-9580
िकों	-9581
िपरि	-9582
ोल्ट	-9583
▁वीं	-9584
नीयता	-9585
वालों	-9586
▁अनुभ	-9587
▁घंटा	-9588
▁बस्त	-9589
▁लाये	-9590
▁समया	-9591
ारियों	-9592
▁करुणा	-9593
▁क्लास	-9594
▁गिनती	-9595
▁ज़मीन	-9596
▁मैथुन	-9597
डब्ल्यू	-9598
▁कंप्यूट	-9599
▁प्रतिरूप	-9600
▁विशिष्टता	-9601
नत	-9602
गमूल	-9603
चकों	-9604
▁अरे	-9605
▁पहने	-9606
▁लीटर	-9607
▁हमास	-9608
▁जिनको	-9609
▁नामंज	-9610
▁मल्टी	-9611
▁शॉर्ट	-9612
▁अल्लाह	-9613
▁जुटाने	-9614
▁मापदंड	-9615
▁हनुमान	-9616
▁अखबारों	-9617
▁अत्याचार	-9618
▁वर्षगांठ	-9619
▁संक्रामक	-9620
▁साफ्टवेयर	-9621
गिन	-9622
पत्	-9623
रिश	-9624
▁In	-9625
चालय	-9626
ब्लू	-9627
ोरेट	-9628
▁टैग	-9629
▁सिम	-9630
▁आलोक	-9631
▁चाचा	-9632
▁मेला	-9633
▁व्रत	-9634
▁सपना	-9635
▁सर्प	-9636
▁आंत्र	-9637
▁नगरों	-9638
▁निष्क	-9639
▁मुर्ग	-9640
▁वायदा	-9641
▁अरविंद	-9642
▁गर्भाव	-9643
▁महत्वा	-9644
▁पृष्ठों	-9645
▁स्मार्ट	-9646
▁प्रॉक्सी	-9647
ड़ो	-9648
बैक	-9649
----	-9650
▁वॉल	-9651
तालों	-9652
विदों	-9653
▁अनुयायी	-9654
▁वर्गमूल	-9655
▁प्रभारित	-9656
ंबू	-9657
झान	-9658
फान	-9659
यास	-9660
िंट	-9661
▁आंग	-9662
▁जनन	-9663
▁बगी	-9664
▁वोट	-9665
▁फ़ोन	-9666
▁ब्ले	-9667
▁कराते	-9668
▁ग्रेड	-9669
▁माणिक	-9670
▁समकक्ष	-9671
▁त्योहार	-9672
▁पूंजीगत	-9673
▁फ़ाइलें	-9674
▁कट्टरपंथी	-9675
▁श्रद्धांजलि	-9676
वादा	-9677
विंग	-9678
ियान	-9679
ूंगी	-9680
▁मसौ	-9681
ालैंड	-9682
▁अंचल	-9683
▁अनुश	-9684
▁अमान	-9685
▁आप्र	-9686
▁इसमे	-9687
▁उड़ा	-9688
▁चौथे	-9689
▁सैयद	-9690
▁हाइड	-9691
▁आँखें	-9692
▁नाजुक	-9693
▁रोबोट	-9694
▁वर्गा	-9695
▁तुम्हे	-9696
▁दिखाता	-9697
▁यूनानी	-9698
▁स्वराज	-9699
▁कैबिनेट	-9700
▁मेगावाट	-9701
▁राजनयिक	-9702
▁प्रतिवाद	-9703
▁मानदंडों	-9704
ेदी	-9705
कारक	-9706
वेदी	-9707
ान्स	-9708
ीर्ण	-9709
▁सरो	-9710
लैण्ड	-9711
ाइलों	-9712
▁असंग	-9713
▁क्षै	-9714
तत्त्व	-9715
वृद्धि	-9716
▁अंकों	-9717
▁अपनाए	-9718
▁उठाते	-9719
▁छोड़े	-9720
▁जातीय	-9721
▁आदिवासी	-9722
▁आस्तियां	-9723
▁अत्यावश्यक	-9724
इज	-9725
ैड	-9726
ंजक	-9727
▁अन्	-9728
▁कमल	-9729
▁नाच	-9730
▁बंट	-9731
▁भटक	-9732
▁सॉल	-9733
▁श्लो	-9734
समन्वय	-9735
▁पत्ते	-9736
▁होस्ट	-9737
▁एकाग्र	-9738
▁चीज़ों	-9739
▁चेष्टा	-9740
▁महाराज	-9741
▁विलम्ब	-9742
▁वचनबद्ध	-9743
▁कामगारों	-9744
▁सिद्धदोष	-9745
समी	-9746
ेतन	-9747
▁ओज	-9748
▁com	-9749
र्मित	-9750
ोलॉजी	-9751
▁करोड	-9752
▁घिरा	-9753
▁पीले	-9754
▁विस्	-9755
▁पर्दा	-9756
▁निकलना	-9757
▁भूमिगत	-9758
▁पैदावार	-9759
▁विलक्षण	-9760
▁परिष्कृत	-9761
CT	-9762
ंए	-9763
धना	-9764
जोरी	-9765
▁अम्ब	-9766
▁इजाज	-9767
▁उपजा	-9768
कुमारी	-9769
▁चौधरी	-9770
▁तुल्य	-9771
▁बूढ़े	-9772
▁राजीव	-9773
▁स्थाय	-9774
▁प्रशंस	-9775
▁दुकानों	-9776
▁वियतनाम	-9777
▁संतोषजनक	-9778
▁न्यायोचित	-9779
▁मंत्रिपरि	-9780
ct	-9781
ँघ	-9782
बड़े	-9783
▁अवश	-9784
▁उठी	-9785
▁भला	-9786
▁मित	-9787
▁असुर	-9788
▁पतली	-9789
▁फर्श	-9790
म्परिक	-9791
▁दिखने	-9792
▁दुर्व	-9793
▁बदलती	-9794
▁सेक्स	-9795
▁तालमेल	-9796
▁महासभा	-9797
▁कालावधि	-9798
▁शीघ्रता	-9799
▁श्लोकों	-9800
▁तत्पश्चात्	-9801
फो	-9802
▁an	-9803
▁फीट	-9804
▁लसी	-9805
▁इक्व	-9806
▁परिर	-9807
▁जनगणना	-9808
▁पराजित	-9809
्युनिस्ट	-9810
▁सब्सिडी	-9811
▁स्टार्ट	-9812
▁अपराधियों	-9813
▁उम्मीदवार	-9814
▁पाश्चात्य	-9815
▁सहिष्णुता	-9816
▁कार्यकर्ता	-9817
ip	-9818
ख्श	-9819
चंद	-9820
चेतन	-9821
▁खली	-9822
▁ग्व	-9823
▁दूत	-9824
▁पला	-9825
▁बेन	-9826
▁अठार	-9827
▁उष्ण	-9828
▁त्यौ	-9829
▁नोडल	-9830
▁साहा	-9831
्रेषित	-9832
▁कुष्ठ	-9833
▁परिवी	-9834
▁कराधान	-9835
▁मुखिया	-9836
▁पसंदीदा	-9837
▁सन्दर्भ	-9838
▁पीढ़ियों	-9839
▁विश्वयुद्ध	-9840
ंबन	-9841
काने	-9842
पाली	-9843
बहुत	-9844
▁बिछ	-9845
सूचना	-9846
▁इष्ट	-9847
▁दुखद	-9848
▁साम्	-9849
पनिवेश	-9850
▁घंटों	-9851
▁समाना	-9852
▁तीक्ष्	-9853
▁पहचाना	-9854
▁कहानियां	-9855
▁कोशिकाएं	-9856
▁	-9857
ा	-9858
क	-9859
र	-9860
्	-9861
े	-9862
ि	-9863
न	-9864
स	-9865
त	-9866
ं	-9867
ी	-9868
ह	-9869
य	-9870
म	-9871
प	-9872
ो	-9873
व	-9874
ल	-9875
द	-9876
ज	-9877
ग	-9878
ै	-9879
ु	-9880
ब	-9881
अ	-9882
श	-9883
ध	-9884
ए	-9885
च	-9886
भ	-9887
।	-9888
थ	-9889
ट	-9890
ू	-9891
,	-9892
ष	-9893
उ	-9894
आ	-9895
ण	-9896
ड	-9897
औ	-9898
इ	-9899
ख	-9900
.	-9901
़	-9902
-	-9903
ई	-9904
फ	-9905
०	-9906
छ	-9907
ृ	-9908
)	-9909
(	-9910
ौ	-9911
ओ	-9912
ठ	-9913
१	-9914
घ	-9915
ँ	-9916
ऐ	-9917
ढ	-9918
झ	-9919
ः	-9920
ॉ	-9921
२	-9922
'	-9923
ञ	-9924
a	-9925
e	-9926
/	-9927
;	-9928
i	-9929
३	-9930
ऊ	-9931
?	-9932
:	-9933
s	-9934
t	-9935
o	-9936
r	-9937
n	-9938
0	-9939
ऋ	-9940
”	-9941
४	-9942
“	-9943
l	-9944
ऑ	-9945
%	-9946
c	-9947
d	-9948
"	-9949
५	-9950
‘	-9951
m	-9952
&	-9953
A	-9954
u	-9955
h	-9956
’	-9957
#	-9958
p	-9959
I	-9960
E	-9961
g	-9962
S	-9963
!	-9964
T	-9965
६	-9966
f	-9967
>	-9968
R	-9969
y	-9970
v	-9971
C	-9972
b	-9973
M	-9974
P	-9975
N	-9976
७	-9977
w	-9978
–	-9979
x	-9980
O	-9981
k	-9982
]	-9983
D	-9984
[	-9985
L	-9986
B	-9987
८	-9988
G	-9989
ङ	-9990
९	-9991
_	-9992
ॅ	-9993
