<unk>	0
<s>	0
</s>	0
UuRrLl	0
DdAaTtEe	0
NnUuMm	0
▁क	-0
▁स	-1
▁ह	-2
▁प	-3
▁म	-4
्र	-5
ार	-6
▁के	-7
▁अ	-8
▁है	-9
▁व	-10
्य	-11
ें	-12
▁ज	-13
▁न	-14
ों	-15
▁ब	-16
या	-17
र्	-18
▁द	-19
▁में	-20
ता	-21
▁उ	-22
ान	-23
▁ल	-24
▁प्र	-25
▁र	-26
िक	-27
▁की	-28
▁आ	-29
ने	-30
▁औ	-31
्त	-32
▁कि	-33
▁कर	-34
▁त	-35
▁और	-36
ित	-37
▁को	-38
▁का	-39
▁भ	-40
▁से	-41
ना	-42
▁ग	-43
▁इ	-44
▁पर	-45
्व	-46
▁वि	-47
▁ए	-48
▁य	-49
▁हो	-50
▁सं	-51
ाल	-52
▁श	-53
िय	-54
था	-55
िए	-56
्ष	-57
▁च	-58
▁इस	-59
ति	-60
्ट	-61
▁हैं	-62
▁एक	-63
्या	-64
ही	-65
▁सम	-66
न्	-67
▁जा	-68
ती	-69
▁लिए	-70
ते	-71
ाम	-72
स्	-73
वा	-74
▁नि	-75
के	-76
हा	-77
ड़	-78
त्र	-79
िया	-80
सी	-81
▁अप	-82
क्ष	-83
से	-84
ोग	-85
▁अध	-86
▁अन	-87
▁रा	-88
हीं	-89
िल	-90
ेश	-91
▁यह	-92
▁या	-93
▁भी	-94
▁नहीं	-95
रा	-96
ारा	-97
▁(	-98
▁ख	-99
कार	-100
ाह	-101
ास	-102
री	-103
नी	-104
▁किया	-105
ंग	-106
ष्ट	-107
क्त	-108
▁जो	-109
▁ने	-110
▁करने	-111
त्	-112
का	-113
िन	-114
▁कार	-115
▁उस	-116
▁सा	-117
▁स्	-118
▁फ	-119
▁दे	-120
▁उप	-121
द्	-122
▁थ	-123
िस	-124
ियों	-125
कर	-126
▁हम	-127
▁बा	-128
ले	-129
ला	-130
सा	-131
▁सक	-132
▁मु	-133
ंध	-134
▁तथा	-135
ंत	-136
गा	-137
की	-138
ूप	-139
▁था	-140
▁उन	-141
▁ध	-142
▁ही	-143
भा	-144
▁भार	-145
मा	-146
▁अनु	-147
ाने	-148
ूर्	-149
▁हु	-150
वि	-151
्री	-152
्च	-153
▁द्व	-154
ाय	-155
ओं	-156
▁सु	-157
▁गया	-158
ंद	-159
स्त	-160
▁ले	-161
▁ऐ	-162
▁अधिक	-163
▁कु	-164
ंड	-165
▁आप	-166
▁स्व	-167
द्ध	-168
ल्	-169
▁तो	-170
▁किसी	-171
▁द्वारा	-172
▁रूप	-173
▁राज	-174
ारी	-175
▁व्य	-176
म्	-177
▁ड	-178
▁विश	-179
▁रह	-180
▁निर्	-181
ोज	-182
द्य	-183
ीन	-184
▁वह	-185
ैं	-186
ाप	-187
देश	-188
न्ह	-189
बंध	-190
▁कार्य	-191
रे	-192
ली	-193
▁अपने	-194
▁वाल	-195
धार	-196
त्त	-197
▁प्रति	-198
िव	-199
▁वर्	-200
ुर	-201
▁भा	-202
▁वे	-203
भी	-204
योग	-205
▁पह	-206
ार्	-207
▁चाह	-208
▁जिस	-209
▁घ	-210
ाना	-211
▁छ	-212
▁साथ	-213
▁ट	-214
रण	-215
▁तक	-216
▁क्ष	-217
▁भारत	-218
क्ति	-219
ंत्र	-220
में	-221
जी	-222
क्र	-223
कि	-224
▁न्या	-225
ारे	-226
दि	-227
▁उन्ह	-228
िर	-229
दा	-230
▁स्थ	-231
दी	-232
▁जाता	-233
गी	-234
▁राष्ट	-235
स्थ	-236
▁करना	-237
▁अव	-238
ष्	-239
▁मह	-240
ुत	-241
ूल	-242
ृत	-243
चार	-244
▁दो	-245
▁मा	-246
ियम	-247
▁थे	-248
िश	-249
ढ़	-250
▁मे	-251
खा	-252
ब्	-253
▁कुछ	-254
▁कोई	-255
▁बह	-256
नों	-257
▁थी	-258
▁साम	-259
मान	-260
ंच	-261
▁पा	-262
च्च	-263
▁सर	-264
▁ला	-265
▁होता	-266
▁मैं	-267
▁दिया	-268
्रे	-269
्ञ	-270
▁विक	-271
्यों	-272
▁पु	-273
▁जी	-274
पा	-275
▁सकता	-276
ूर	-277
्छ	-278
न्द	-279
▁सि	-280
ेत्र	-281
जा	-282
▁जब	-283
ूर्ण	-284
गे	-285
ये	-286
न्न	-287
िका	-288
ाप्त	-289
क्	-290
धि	-291
▁सी	-292
र्थ	-293
▁मान	-294
▁इन	-295
ीय	-296
वे	-297
▁अभ	-298
▁कम	-299
▁समय	-300
▁करते	-301
▁बी	-302
▁क्षेत्र	-303
▁मिल	-304
▁संबंध	-305
िप	-306
▁हुए	-307
भाव	-308
कों	-309
▁करता	-310
हां	-311
▁अंत	-312
गर	-313
धान	-314
▁न्याया	-315
▁अन्य	-316
▁सू	-317
र्म	-318
▁जै	-319
वन	-320
च्छ	-321
▁लोग	-322
क्षा	-323
▁जाए	-324
▁बना	-325
स्था	-326
▁पू	-327
▁सरकार	-328
नि	-329
को	-330
ेष	-331
▁राष्ट्र	-332
▁अपनी	-333
▁उत्	-334
▁देश	-335
्रा	-336
▁चाहिए	-337
्रीय	-338
ज़	-339
▁हि	-340
त्य	-341
दान	-342
▁परि	-343
ोट	-344
▁तर	-345
▁रहे	-346
ज्ञ	-347
▁प्रा	-348
▁सह	-349
▁राज्य	-350
ोक	-351
▁रख	-352
▁रहा	-353
▁वर्ष	-354
▁उनके	-355
चना	-356
▁विश्व	-357
▁गई	-358
ूर्व	-359
▁होने	-360
▁वाले	-361
गत	-362
▁बहुत	-363
▁बाद	-364
तीय	-365
▁सम्	-366
र्श	-367
ूस	-368
लय	-369
▁बात	-370
▁करें	-371
▁गु	-372
पति	-373
▁प्राप्त	-374
▁कहा	-375
िक्ष	-376
ेल	-377
श्य	-378
दन	-379
▁दी	-380
▁बन	-381
करण	-382
वं	-383
▁ओ	-384
▁जाने	-385
▁सभी	-386
प्र	-387
ौर	-388
ुल	-389
ड़ा	-390
▁प्रकार	-391
स्ता	-392
▁उसके	-393
▁सब	-394
ंक	-395
ुक्त	-396
मी	-397
जन	-398
ानी	-399
▁होती	-400
िख	-401
ोंने	-402
एं	-403
▁आय	-404
ोध	-405
▁व्यक्ति	-406
▁ऐसे	-407
ड़ी	-408
धिक	-409
िति	-410
▁देख	-411
▁कारण	-412
वर्	-413
▁चु	-414
पूर्ण	-415
▁भारतीय	-416
ालय	-417
▁न्यायालय	-418
ोल	-419
्ल	-420
बा	-421
ंप	-422
श्च	-423
ध्य	-424
▁हुआ	-425
▁होगा	-426
त्म	-427
▁तरह	-428
▁गए	-429
द्योग	-430
▁अधिन	-431
▁लग	-432
ग्र	-433
▁जि	-434
▁कह	-435
्याप	-436
▁इसके	-437
▁सकते	-438
▁पी	-439
िट	-440
▁एवं	-441
▁उसे	-442
▁विकास	-443
▁प्रश	-444
ड़े	-445
▁जन	-446
▁किए	-447
▁राष्ट्रपति	-448
▁अनुस	-449
▁अधिनियम	-450
▁उन्हें	-451
िम	-452
▁माम	-453
▁आव	-454
बर	-455
वी	-456
▁उन्होंने	-457
िये	-458
▁क्या	-459
▁ना	-460
र्व	-461
▁यदि	-462
▁पूर्व	-463
▁मूल	-464
किन	-465
▁नी	-466
मे	-467
सर	-468
तन	-469
▁वा	-470
पर	-471
▁नाम	-472
▁पहले	-473
▁काम	-474
ोजना	-475
▁दु	-476
▁धारा	-477
वाद	-478
त्व	-479
वल	-480
▁जान	-481
िता	-482
▁'	-483
▁लेकिन	-484
क्रम	-485
्यू	-486
▁ऐसा	-487
▁आर	-488
तिक	-489
▁विचार	-490
▁दूस	-491
▁ऊ	-492
तर	-493
माण	-494
▁उच्च	-495
चित	-496
▁हू	-497
ुद्ध	-498
टी	-499
ाली	-500
▁ता	-501
▁क्र	-502
झे	-503
▁समा	-504
धा	-505
▁विशेष	-506
▁अस	-507
▁स्थान	-508
▁परिव	-509
िला	-510
श्यक	-511
्ड	-512
▁मुख	-513
कृत	-514
यी	-515
▁ग्र	-516
▁जाती	-517
टा	-518
ष्ठ	-519
▁ई	-520
▁ऐसी	-521
▁बढ़	-522
▁बि	-523
▁आधार	-524
▁स्त	-525
ोर	-526
िंग	-527
▁लोगों	-528
ां	-529
ूम	-530
▁बारे	-531
न्त	-532
▁अधिकार	-533
▁बे	-534
▁जीवन	-535
▁अब	-536
▁स्था	-537
▁पै	-538
▁आवश्यक	-539
▁निय	-540
षण	-541
▁हमारे	-542
▁भाग	-543
▁ये	-544
्स	-545
ील	-546
▁निक	-547
▁उनकी	-548
ास्त	-549
ियां	-550
▁वै	-551
टर	-552
▁प्रभाव	-553
▁तु	-554
ोर्	-555
▁अधीन	-556
ोप	-557
▁समझ	-558
▁सेवा	-559
▁होते	-560
▁उत्त	-561
यन	-562
क्षण	-563
लों	-564
ची	-565
िन्न	-566
षा	-567
▁उपयोग	-568
▁शिक्ष	-569
कृ	-570
ाइ	-571
▁हुई	-572
▁सद	-573
▁क्यों	-574
▁रु	-575
मु	-576
▁दिन	-577
ार्थ	-578
▁श्री	-579
▁मुझे	-580
▁जैसे	-581
▁ओर	-582
▁केवल	-583
▁मन	-584
दार	-585
▁फिर	-586
ंस	-587
▁जाना	-588
हाय	-589
▁रही	-590
निक	-591
क्रिया	-592
कारी	-593
▁व्यव	-594
▁कृ	-595
धी	-596
ल्प	-597
ंभ	-598
▁बार	-599
ख्या	-600
▁प्रयोग	-601
ेक	-602
रिक	-603
▁अथ	-604
▁बीच	-605
चा	-606
तु	-607
ुद	-608
ताओं	-609
िल्	-610
▁जिन	-611
▁सहाय	-612
वाह	-613
कर्	-614
▁चल	-615
रों	-616
बी	-617
▁उत्पा	-618
ून	-619
▁“	-620
तः	-621
णी	-622
▁ढ	-623
▁हों	-624
ज्ञान	-625
▁देने	-626
तम	-627
▁ठ	-628
▁अथवा	-629
▁लगा	-630
व्य	-631
▁वाली	-632
▁प्रत्य	-633
▁प्रदान	-634
▁दृ	-635
▁पार	-636
्न	-637
▁पास	-638
▁सो	-639
फल	-640
दे	-641
▁अल	-642
फ़	-643
दर्श	-644
पी	-645
हार	-646
..	-647
▁विभ	-648
▁खा	-649
▁प्रक्रिया	-650
लब्	-651
▁पुर	-652
▁अपना	-653
▁कै	-654
▁जिसमें	-655
▁लोक	-656
▁सकती	-657
धारण	-658
भव	-659
ब्द	-660
▁हे	-661
▁इसे	-662
▁दोनों	-663
▁उपलब्	-664
त्ता	-665
▁राष्ट्रीय	-666
शन	-667
▁जहां	-668
▁कंप	-669
▁करती	-670
ंब	-671
▁होना	-672
त्मक	-673
▁विर	-674
ेद	-675
▁व्याप	-676
▁महत्व	-677
ेज	-678
ित्र	-679
▁पहु	-680
द्योगिक	-681
हाँ	-682
▁तब	-683
▁निर	-684
▁स्प	-685
▁उसकी	-686
▁विधि	-687
▁न्याय	-688
▁पुन	-689
▁स्थाप	-690
सं	-691
युक्त	-692
भाग	-693
▁योजना	-694
▁सके	-695
▁बद	-696
मिक	-697
▁बाह	-698
▁झ	-699
ुक	-700
▁सदस	-701
▁पश्च	-702
▁प्रण	-703
ोड़	-704
▁विष	-705
ूत	-706
▁हर	-707
▁बैं	-708
▁करे	-709
▁संग	-710
▁सबसे	-711
▁सामान	-712
▁मौ	-713
त्रा	-714
▁हा	-715
ण्ड	-716
▁फ़	-717
▁लिया	-718
▁अच्छ	-719
▁बै	-720
▁अर्थ	-721
▁उपलब्ध	-722
स्ट	-723
▁ऑ	-724
चे	-725
▁क्योंकि	-726
वेश	-727
श्व	-728
शा	-729
▁वृ	-730
▁मुख्य	-731
▁प्रे	-732
▁स्वा	-733
▁शुर	-734
▁शिक्षा	-735
▁बच्च	-736
ोह	-737
तों	-738
▁जाते	-739
ामी	-740
▁हमें	-741
ाला	-742
▁अंतर	-743
▁संबंधित	-744
▁सूचना	-745
तंत्र	-746
ोजन	-747
ंतु	-748
▁जर	-749
▁हूं	-750
▁उद्	-751
ित्त	-752
न्द्र	-753
▁पद	-754
▁दौर	-755
▁स्थिति	-756
▁अर्	-757
ंट	-758
िखा	-759
▁अनुसार	-760
ेट	-761
▁ब्र	-762
▁स्ट	-763
वरण	-764
कृति	-765
ंज	-766
▁अंग	-767
▁अति	-768
र्क	-769
▁लिख	-770
▁शाम	-771
▁छोट	-772
▁तै	-773
ष्टि	-774
डी	-775
स्थान	-776
▁सहायता	-777
▁विषय	-778
ित्व	-779
▁नियम	-780
▁भाषा	-781
▁लिये	-782
लिए	-783
▁अध्य	-784
▁आज	-785
▁उत्तर	-786
▁जु	-787
▁कई	-788
▁उठ	-789
रूप	-790
▁वास्त	-791
▁योग	-792
▁केंद	-793
▁वस्त	-794
▁दा	-795
त्ति	-796
▁सुर	-797
▁मै	-798
्यान	-799
▁विभिन्न	-800
▁शब्द	-801
क्ट	-802
▁जाएगा	-803
▁व्यक्त	-804
हर	-805
▁सर्व	-806
धन	-807
▁अगर	-808
▁यु	-809
▁ऋ	-810
स्व	-811
▁मामले	-812
ेय	-813
मुख	-814
फी	-815
काश	-816
काल	-817
▁भूम	-818
िस्ट	-819
▁स्वी	-820
▁गा	-821
ासन	-822
▁दौरान	-823
इट	-824
▁सामान्य	-825
▁इत	-826
▁पत्र	-827
▁बु	-828
▁इसलिए	-829
▁उसका	-830
▁उनका	-831
▁शक्ति	-832
धारित	-833
▁मंत्र	-834
्म	-835
▁सुन	-836
▁अने	-837
▁इसका	-838
▁:	-839
▁वाला	-840
ज्य	-841
▁कभी	-842
▁शामिल	-843
ारों	-844
मत	-845
▁संप	-846
नल	-847
ंजी	-848
ोड	-849
▁पूर्ण	-850
वास	-851
▁संघ	-852
▁जल	-853
वान	-854
ात	-855
▁उसने	-856
ूह	-857
▁तैय	-858
▁आदि	-859
▁अवसर	-860
▁परिवर्	-861
▁वास्तव	-862
▁विद्य	-863
▁ज्ञ	-864
▁प्रस	-865
▁अनेक	-866
निया	-867
गम	-868
▁कान	-869
▁संख्या	-870
ुट	-871
ुष	-872
▁पक्ष	-873
▁गये	-874
▁लाभ	-875
▁दूसरे	-876
▁पहुंच	-877
ोर्ट	-878
टना	-879
शि	-880
▁महा	-881
▁संस	-882
यं	-883
द्र	-884
▁माध्य	-885
▁दर	-886
▁उपबंध	-887
▁तीन	-888
▁बता	-889
ाज	-890
ेंगे	-891
पाल	-892
नीय	-893
शत	-894
▁रुप	-895
स्थित	-896
ृत्य	-897
▁अं	-898
▁प्रौ	-899
▁प्रत्येक	-900
▁&	-901
▁कल	-902
▁सिद्ध	-903
▁प्रया	-904
▁साह	-905
न्तु	-906
▁उद्योग	-907
▁दूर	-908
कट	-909
▁निर्माण	-910
▁मानव	-911
ूट	-912
▁व्या	-913
▁प्रय	-914
क्षित	-915
▁पृ	-916
▁बनाने	-917
▁ध्यान	-918
दाय	-919
▁जिसे	-920
▁डि	-921
▁होगी	-922
र्इ	-923
▁नई	-924
▁कार्यक्रम	-925
▁यहां	-926
बन्	-927
सल	-928
वादी	-929
▁संर	-930
▁हेतु	-931
ोन	-932
▁अग	-933
▁महत्वपूर्ण	-934
▁समाज	-935
ाई	-936
र्ष	-937
▁आई	-938
▁स्पष्ट	-939
▁तैयार	-940
▁अंतर्	-941
▁मध्य	-942
▁अलग	-943
▁s	-944
▁प्रयास	-945
ांत	-946
▁ची	-947
▁संवि	-948
▁संस्था	-949
▁एस	-950
▁बैंक	-951
▁भर	-952
▁रोग	-953
▁संस्	-954
णय	-955
▁”	-956
▁उद	-957
र्थिक	-958
▁बिना	-959
▁धर्म	-960
निर्	-961
▁पता	-962
▁बाहर	-963
▁आपको	-964
▁वित्त	-965
▁शुरू	-966
ग्रह	-967
▁विदेश	-968
▁मत	-969
स्या	-970
▁स्तर	-971
्टी	-972
▁पि	-973
▁देता	-974
▁प्रतिशत	-975
म्प	-976
▁विध	-977
▁खु	-978
▁प्रौद्योगिक	-979
▁हमारी	-980
ोष	-981
▁गुण	-982
▁जिसके	-983
धारा	-984
▁प्रार	-985
गू	-986
▁रे	-987
▁आदेश	-988
▁जनता	-989
▁‘	-990
▁अन्त	-991
ारण	-992
▁परिण	-993
▁ली	-994
ुओं	-995
▁पड़	-996
▁श्रे	-997
हास	-998
ंह	-999
▁इससे	-1000
एस	-1001
▁आगे	-1002
ठन	-1003
म्ब	-1004
▁शी	-1005
▁सौ	-1006
▁समान	-1007
▁कर्म	-1008
▁आवश्यकता	-1009
ूर्ति	-1010
▁#	-1011
▁संस्थान	-1012
▁करके	-1013
जार	-1014
हत	-1015
▁चि	-1016
▁समस्या	-1017
आई	-1018
स्प	-1019
धीश	-1020
▁माल	-1021
▁विन	-1022
▁देना	-1023
▁बल्	-1024
▁आर्थिक	-1025
▁गति	-1026
▁मार्	-1027
षि	-1028
▁प्रो	-1029
▁तुम	-1030
▁डा	-1031
▁प्रमुख	-1032
▁शु	-1033
▁लेख	-1034
▁ज़	-1035
▁निर्धारित	-1036
्यता	-1037
मता	-1038
▁इसी	-1039
▁श्र	-1040
▁निम्	-1041
दिष्ट	-1042
▁सार	-1043
▁लागू	-1044
▁इसमें	-1045
▁वहां	-1046
▁आपके	-1047
द्व	-1048
▁विस्त	-1049
▁क्षेत्रों	-1050
▁निर्णय	-1051
▁स्वयं	-1052
द्धि	-1053
▁उल्	-1054
▁गयी	-1055
▁भाव	-1056
▁जारी	-1057
▁उद्देश	-1058
▁मेरे	-1059
ाइल	-1060
भार	-1061
इन	-1062
विधा	-1063
िष्ट	-1064
ाजिक	-1065
भग	-1066
▁पूरी	-1067
▁नियंत्र	-1068
▁रिप	-1069
▁नीति	-1070
विद्य	-1071
▁विश्वास	-1072
▁ती	-1073
तिहास	-1074
शी	-1075
▁मज	-1076
ूरी	-1077
▁सीमा	-1078
▁काफी	-1079
ियन	-1080
मार	-1081
िश्च	-1082
वर	-1083
▁खंड	-1084
▁प्रस्त	-1085
मित	-1086
▁परिणाम	-1087
दों	-1088
्यादा	-1089
▁प्रकाश	-1090
ियो	-1091
टक	-1092
▁आस	-1093
▁सामाजिक	-1094
▁सभा	-1095
एँ	-1096
▁स्क	-1097
▁प्रस्ता	-1098
▁आध	-1099
ेन	-1100
पि	-1101
▁प्रौद्योगिकी	-1102
ॉल	-1103
ालन	-1104
जू	-1105
▁पूरा	-1106
▁स्वतंत्र	-1107
▁प्रणाली	-1108
▁दिखा	-1109
▁अपे	-1110
विद्यालय	-1111
ंदर	-1112
▁ऋण	-1113
वेदन	-1114
▁माध्यम	-1115
▁घर	-1116
▁प्रबंध	-1117
▁गै	-1118
तियों	-1119
▁आया	-1120
▁मी	-1121
▁हाल	-1122
क्ष्य	-1123
लेख	-1124
▁समूह	-1125
▁स्वीकार	-1126
▁प्रस्ताव	-1127
▁सुधार	-1128
रित	-1129
▁स्थापित	-1130
▁गो	-1131
▁कवि	-1132
बद्ध	-1133
▁बैठ	-1134
चन	-1135
▁लगभग	-1136
▁मूल्य	-1137
पत्र	-1138
ान्त	-1139
▁हाथ	-1140
▁वी	-1141
▁समुद	-1142
हित	-1143
▁हूँ	-1144
▁मामलों	-1145
▁-	-1146
▁कंपनी	-1147
न्म	-1148
▁न्यायाधीश	-1149
...	-1150
▁हिंद	-1151
▁कठ	-1152
▁कर्	-1153
▁विभाग	-1154
ीक	-1155
▁आयोग	-1156
▁जानकारी	-1157
वाई	-1158
▁सूची	-1159
▁ज्ञान	-1160
▁अवधि	-1161
▁पुस्त	-1162
▁आम	-1163
पन	-1164
▁सम्म	-1165
▁अपरा	-1166
▁सर्	-1167
▁क्रिया	-1168
ेशन	-1169
▁सदस्य	-1170
▁मैंने	-1171
शोध	-1172
▁यू	-1173
▁भवन	-1174
▁दक्ष	-1175
▁निष्	-1176
तान	-1177
▁मद	-1178
▁रिपोर्ट	-1179
▁सफल	-1180
▁प्राधिक	-1181
्ले	-1182
▁अम	-1183
▁चे	-1184
▁सहयोग	-1185
▁वर्ग	-1186
▁व्यवस्था	-1187
▁जैसा	-1188
▁सुरक्षा	-1189
▁मृत्य	-1190
▁कृषि	-1191
ंख	-1192
▁फै	-1193
ित्य	-1194
▁बड़ी	-1195
▁अत्य	-1196
▁गण	-1197
▁सुविधा	-1198
▁विश्वविद्यालय	-1199
▁किस	-1200
▁समाप्त	-1201
▁बदल	-1202
▁धन	-1203
वृ	-1204
स्तान	-1205
▁देशों	-1206
▁अमे	-1207
पन्न	-1208
सम	-1209
▁रंग	-1210
बार	-1211
▁स्थित	-1212
▁संविधान	-1213
▁कौ	-1214
च्छेद	-1215
▁डे	-1216
ुग	-1217
शील	-1218
▁केंद्र	-1219
▁अधिकारी	-1220
ष्ण	-1221
क्ता	-1222
ोस	-1223
▁a	-1224
▁राम	-1225
विध	-1226
▁इसकी	-1227
▁जिन्ह	-1228
▁रखने	-1229
▁व्यापार	-1230
▁कुल	-1231
▁देते	-1232
क्स	-1233
▁दर्श	-1234
▁शरी	-1235
ियोजना	-1236
▁अर	-1237
यर	-1238
▁जिसका	-1239
िकित	-1240
▁जिससे	-1241
▁अभी	-1242
▁समर्थ	-1243
ोषण	-1244
ष्ट्रीय	-1245
टन	-1246
▁कोश	-1247
▁छोड़	-1248
▁बाल	-1249
▁परिवर्तन	-1250
ेर	-1251
▁त्र	-1252
▁उत्पादन	-1253
पुर	-1254
▁अंतर्गत	-1255
▁तरी	-1256
▁प्रस्तुत	-1257
▁परी	-1258
सित	-1259
हन	-1260
▁परियोजना	-1261
▁ठीक	-1262
▁विशिष्ट	-1263
▁पिछ	-1264
▁जाये	-1265
▁संबंधी	-1266
▁विज्ञान	-1267
▁उद्देश्य	-1268
वार	-1269
क़	-1270
▁आन	-1271
▁अतिरिक	-1272
त्या	-1273
दारी	-1274
▁अनुम	-1275
र्भ	-1276
▁टी	-1277
▁रखा	-1278
ंगा	-1279
▁उपधारा	-1280
▁अभि	-1281
▁जग	-1282
▁राशि	-1283
तना	-1284
▁बल्कि	-1285
िखित	-1286
भर	-1287
▁ऊपर	-1288
▁महिला	-1289
▁चाहते	-1290
थम	-1291
▁शा	-1292
त्स	-1293
▁मंद	-1294
▁निश्च	-1295
जों	-1296
हरा	-1297
जे	-1298
▁मेरी	-1299
वाल	-1300
यों	-1301
स्थ्य	-1302
▁बड़े	-1303
िल्ली	-1304
▁साल	-1305
ाव	-1306
▁वेब	-1307
चान	-1308
▁शै	-1309
कल	-1310
ुप	-1311
ाया	-1312
▁शरीर	-1313
▁आने	-1314
ण्	-1315
▁डाल	-1316
▁चार	-1317
ंधान	-1318
▁क्षमता	-1319
▁अंग्रे	-1320
त्मा	-1321
्रो	-1322
▁जीव	-1323
दम	-1324
▁वर्त	-1325
▁सही	-1326
▁चला	-1327
▁अतिरिक्त	-1328
ीकरण	-1329
▁देखा	-1330
▁ज्यादा	-1331
ंधी	-1332
▁शिक	-1333
▁बल	-1334
ेड	-1335
बन्ध	-1336
पूर्व	-1337
▁सै	-1338
▁रो	-1339
▁समिति	-1340
ाहरण	-1341
▁चिकित	-1342
आर	-1343
▁कहते	-1344
▁प्रदेश	-1345
▁मार	-1346
कृतिक	-1347
▁प्रमाण	-1348
▁सामने	-1349
▁आरंभ	-1350
▁यहाँ	-1351
▁युद्ध	-1352
▁अप्र	-1353
कर्ता	-1354
प्	-1355
लो	-1356
▁मार्ग	-1357
▁वस्तु	-1358
▁लेने	-1359
▁नीचे	-1360
▁दृष्टि	-1361
▁वर्षों	-1362
▁पाठ	-1363
▁वर्ण	-1364
▁स्वास्थ्य	-1365
▁अनुसंधान	-1366
▁श्रेणी	-1367
▁अपराध	-1368
▁अनुभव	-1369
▁जरूर	-1370
▁उत्पाद	-1371
▁मांग	-1372
▁पढ़	-1373
▁निवेश	-1374
▁प्रश्न	-1375
▁काल	-1376
▁पानी	-1377
▁प्रशिक्ष	-1378
श्	-1379
र्स	-1380
जर	-1381
▁दिए	-1382
▁वर्तमान	-1383
▁साहित्य	-1384
कु	-1385
▁पं	-1386
िश्चित	-1387
्याय	-1388
▁सिंह	-1389
डा	-1390
पट	-1391
▁उदाहरण	-1392
तिम	-1393
▁अनुच्छेद	-1394
▁परंतु	-1395
▁संशोध	-1396
▁जमा	-1397
▁प्रदर्श	-1398
चल	-1399
म्ह	-1400
▁दक्षि	-1401
▁इतिहास	-1402
▁निर्देश	-1403
जित	-1404
बल	-1405
▁महान	-1406
जरा	-1407
साय	-1408
▁बंग	-1409
▁करेगा	-1410
▁उससे	-1411
▁डी	-1412
ानों	-1413
▁''	-1414
▁बच्चों	-1415
▁यात्रा	-1416
्ते	-1417
▁राजनी	-1418
▁संयुक्त	-1419
▁थीं	-1420
▁उसी	-1421
▁विदेशी	-1422
▁उद्य	-1423
▁"	-1424
▁पैदा	-1425
▁बड़ा	-1426
▁व्यक्तियों	-1427
ंश	-1428
▁रहने	-1429
▁होंगे	-1430
▁तौर	-1431
▁प्रती	-1432
ँच	-1433
▁विवाह	-1434
कता	-1435
▁नियंत्रण	-1436
▁चौ	-1437
▁भीतर	-1438
▁दुर्	-1439
▁हिस्	-1440
▁चुन	-1441
्रेस	-1442
er	-1443
▁परन्तु	-1444
ेंट	-1445
▁निर्धारण	-1446
▁सत	-1447
▁कोर्इ	-1448
पित	-1449
रल	-1450
▁नही	-1451
▁बहु	-1452
▁तुम्ह	-1453
▁दंड	-1454
▁लाख	-1455
्यास	-1456
▁भू	-1457
▁खोज	-1458
▁रहते	-1459
▁संभव	-1460
▁प्रथम	-1461
▁छोटे	-1462
▁रचना	-1463
▁कॉ	-1464
▁सार्व	-1465
▁दिव	-1466
▁लगता	-1467
गार	-1468
▁उच्चतम	-1469
▁अपेक्षा	-1470
▁वृद्धि	-1471
▁वाप	-1472
ग्री	-1473
यां	-1474
▁बस	-1475
▁पीछ	-1476
▁आधारित	-1477
▁मदद	-1478
र्जा	-1479
▁कला	-1480
▁मंदिर	-1481
▁विकसित	-1482
▁इस्ल	-1483
▁प्रारंभ	-1484
ार्ड	-1485
नाथ	-1486
▁यही	-1487
▁जन्म	-1488
▁कमी	-1489
▁मृत्यु	-1490
▁भूमि	-1491
▁प्रधान	-1492
ष्य	-1493
▁अपील	-1494
▁विंड	-1495
▁दूसरी	-1496
मन	-1497
शल	-1498
र्जी	-1499
▁लड़	-1500
▁दिश	-1501
रि	-1502
ट्ट	-1503
▁नागर	-1504
▁घटना	-1505
कम	-1506
▁नए	-1507
▁एन	-1508
▁कैसे	-1509
▁वित्तीय	-1510
▁करेंगे	-1511
▁हिन्द	-1512
▁आद	-1513
▁अंतिम	-1514
गति	-1515
▁दिल्ली	-1516
जूद	-1517
▁गांधी	-1518
▁अध्ययन	-1519
्ष्	-1520
श्छ	-1521
▁उत्पन्न	-1522
ेप	-1523
▁स्थापना	-1524
▁संसा	-1525
ुस	-1526
▁प्रेम	-1527
▁संभाव	-1528
▁संद	-1529
▁आश	-1530
▁जांच	-1531
ोजित	-1532
▁पुल	-1533
ऊण्	-1534
ऊण्श्छ	-1535
ऊण्श्छ्ष्	-1536
▁संच	-1537
▁लेकर	-1538
ोर्ड	-1539
▁पुस्तक	-1540
▁भूमिका	-1541
▁पेश	-1542
▁किये	-1543
▁कांग	-1544
▁मिला	-1545
▁विस्तार	-1546
▁सच	-1547
▁किंतु	-1548
▁विरोध	-1549
भूत	-1550
वीं	-1551
्याप्त	-1552
▁पे	-1553
▁ते	-1554
▁संदेश	-1555
साइट	-1556
िना	-1557
णि	-1558
िले	-1559
▁सदस्यों	-1560
▁न्यू	-1561
▁विवरण	-1562
▁बंद	-1563
क्षम	-1564
र्च	-1565
▁प्रकृति	-1566
ात्	-1567
स्थिति	-1568
▁वाय	-1569
▁बच	-1570
▁मात्रा	-1571
लाह	-1572
▁बरा	-1573
▁राज्यों	-1574
▁माना	-1575
▁आवेदन	-1576
▁पुनः	-1577
▁दाय	-1578
माल	-1579
▁हमने	-1580
▁स्वतंत्रता	-1581
▁सरकारी	-1582
तार	-1583
▁उल्लेख	-1584
डियो	-1585
▁नागरिक	-1586
तक	-1587
र्द	-1588
▁अग्र	-1589
▁रोक	-1590
▁गिर	-1591
इस	-1592
▁नौ	-1593
स्क	-1594
▁विधान	-1595
▁आत्म	-1596
▁हित	-1597
▁एक्स	-1598
िज	-1599
▁इं	-1600
▁परिवार	-1601
्रम	-1602
▁संसद	-1603
▁सहित	-1604
▁प्रतिक	-1605
▁बनाया	-1606
कल्प	-1607
▁भेज	-1608
ुगतान	-1609
गल	-1610
ल्क	-1611
व्यव	-1612
▁एम	-1613
▁अच्छा	-1614
▁विनिर्	-1615
▁सुनिश्चित	-1616
▁कानून	-1617
▁दिशा	-1618
▁नव	-1619
▁ताकि	-1620
ियाँ	-1621
▁तकनी	-1622
षित	-1623
▁खेल	-1624
▁सोच	-1625
▁अच्छी	-1626
▁बो	-1627
एम	-1628
र्य	-1629
▁भावना	-1630
ैंड	-1631
▁संगठन	-1632
▁उचित	-1633
▁पौ	-1634
▁खुल	-1635
भू	-1636
▁बढ़ा	-1637
▁बनाए	-1638
रिका	-1639
बू	-1640
▁अध्यक्ष	-1641
ुनिक	-1642
▁आत	-1643
▁राय	-1644
▁बाजार	-1645
नाव	-1646
▁सिद्धांत	-1647
▁प्रगति	-1648
लू	-1649
▁गल	-1650
▁अला	-1651
▁विप	-1652
▁केन्द्र	-1653
वासी	-1654
▁प्रशिक्षण	-1655
▁जाएगी	-1656
▁तहत	-1657
▁ब्रिट	-1658
▁जोड़	-1659
▁रहता	-1660
▁राजा	-1661
▁चित्र	-1662
▁भुगतान	-1663
▁दुनिया	-1664
▁तंत्र	-1665
त्त्व	-1666
ूं	-1667
▁पृष्ठ	-1668
वरी	-1669
▁स्थानीय	-1670
▁जबकि	-1671
▁जाय	-1672
▁बिल	-1673
▁दक्षिण	-1674
लग	-1675
▁चिकित्	-1676
ज्ञानिक	-1677
▁सां	-1678
▁विरुद्ध	-1679
▁लक्ष्य	-1680
▁बीमा	-1681
▁टे	-1682
▁तुल	-1683
र्फ	-1684
▁वास्तविक	-1685
▁उसमें	-1686
▁मंत्रालय	-1687
ैतिक	-1688
ेंस	-1689
▁अह	-1690
▁होकर	-1691
▁पहचान	-1692
),	-1693
▁वेबसाइट	-1694
्रिय	-1695
डर	-1696
▁अमेरिका	-1697
▁उनमें	-1698
डे	-1699
▁व्यापक	-1700
▁बेह	-1701
जनिक	-1702
सलमान	-1703
ज्	-1704
▁निर्दिष्ट	-1705
▁बच्चे	-1706
ंसा	-1707
िवार	-1708
▁सेना	-1709
्यूटर	-1710
▁सत्ता	-1711
▁जगह	-1712
बे	-1713
in	-1714
▁कांग्रेस	-1715
▁बराबर	-1716
▁मनुष	-1717
▁इंड	-1718
▁मिश	-1719
नलिखित	-1720
▁प्रभावित	-1721
ंथ	-1722
▁मो	-1723
हरी	-1724
▁शासन	-1725
▁A	-1726
फार	-1727
▁लगे	-1728
▁प्रबंधन	-1729
ीप	-1730
श्वर	-1731
▁पर्याप्त	-1732
▁आकार	-1733
▁दिनों	-1734
▁पुलिस	-1735
▁निम्नलिखित	-1736
णा	-1737
सू	-1738
▁आधुनिक	-1739
र्चा	-1740
▁अर्था	-1741
▁उपकरण	-1742
दय	-1743
ौती	-1744
▁निदेश	-1745
▁पीछे	-1746
▁सार्वजनिक	-1747
▁मि	-1748
ामीण	-1749
▁नदी	-1750
ंडल	-1751
क्रमण	-1752
▁जरूरत	-1753
▁चाहिये	-1754
शु	-1755
▁क्ल	-1756
मंत्र	-1757
▁पिछले	-1758
▁पश्चात्	-1759
▁याद	-1760
▁मुसलमान	-1761
पु	-1762
▁सन्	-1763
▁प्राय	-1764
▁अफ	-1765
▁चा	-1766
▁परिष	-1767
▁प्रवेश	-1768
भीर	-1769
स्ल	-1770
ड़ों	-1771
on	-1772
▁केंद्रीय	-1773
रोध	-1774
▁भवि	-1775
सि	-1776
्यात	-1777
▁रू	-1778
▁स्कूल	-1779
▁आतंक	-1780
▁देव	-1781
▁पहली	-1782
र्ण	-1783
स्कार	-1784
ायत	-1785
▁पत्	-1786
▁निकाल	-1787
द्रा	-1788
▁ग्रामीण	-1789
▁भविष्य	-1790
त्साह	-1791
▁अलावा	-1792
▁भिन्न	-1793
▁पूंजी	-1794
▁रोज	-1795
वधान	-1796
▁गुर	-1797
▁व्यवहार	-1798
र्ग	-1799
▁शब्दों	-1800
धे	-1801
िको	-1802
फारिश	-1803
▁शर्	-1804
▁सत्य	-1805
▁प्रतिनि	-1806
प्त	-1807
▁संदर्भ	-1808
▁इस्ते	-1809
▁गां	-1810
न्दी	-1811
▁निकल	-1812
▁तथ	-1813
▁आयु	-1814
ानि	-1815
च्छा	-1816
▁खरी	-1817
▁सम्मान	-1818
▁निश्चित	-1819
▁अनुमति	-1820
ायद	-1821
▁औद्योगिक	-1822
▁सिफारिश	-1823
▁मित्र	-1824
▁गैर	-1825
▁यथा	-1826
न्व	-1827
▁प्रकट	-1828
▁सक्रिय	-1829
म्भ	-1830
▁दिख	-1831
▁लौ	-1832
्राम	-1833
ंबर	-1834
▁कहीं	-1835
▁कम्प	-1836
▁ऊर्जा	-1837
ंकन	-1838
▁उपाय	-1839
धिकार	-1840
कुल	-1841
फा	-1842
▁सर्वो	-1843
▁ढंग	-1844
▁इस्लाम	-1845
सन	-1846
▁वार	-1847
स्ति	-1848
▁समर्थन	-1849
ुआ	-1850
▁मर	-1851
▁कट	-1852
▁लिखा	-1853
वर्ती	-1854
▁केन्द	-1855
▁शायद	-1856
▁अभिय	-1857
▁देती	-1858
▁बोर्ड	-1859
्ला	-1860
सिक	-1861
मय	-1862
▁दस्ता	-1863
▁इस्तेमाल	-1864
्वी	-1865
▁मिले	-1866
वों	-1867
▁भग	-1868
ांति	-1869
▁दल	-1870
▁तत्	-1871
▁संशोधन	-1872
▁जिन्हें	-1873
▁मुखर्जी	-1874
ेशा	-1875
ंगे	-1876
▁छा	-1877
▁तारी	-1878
बाद	-1879
▁बर	-1880
▁पाया	-1881
▁समाधान	-1882
▁करोड़	-1883
▁फल	-1884
▁लेखा	-1885
▁संत	-1886
▁कार्यालय	-1887
▁उत्स	-1888
मू	-1889
ंतर	-1890
▁संरचना	-1891
▁करा	-1892
▁पद्ध	-1893
ैन	-1894
▁इतना	-1895
▁मही	-1896
▁वो	-1897
म्बर	-1898
पाद	-1899
▁संके	-1900
▁राजनीतिक	-1901
▁कप	-1902
राष्ट्रीय	-1903
▁पूछ	-1904
▁पांच	-1905
▁पदार्थ	-1906
▁नेट	-1907
▁सम्बन्ध	-1908
▁योग्य	-1909
▁वैज्ञानिक	-1910
ोलन	-1911
▁पृथ	-1912
▁गं	-1913
▁मश	-1914
▁प्रद	-1915
णिज्य	-1916
▁मेरा	-1917
▁प्रोत्साह	-1918
▁बनाम	-1919
▁दिल	-1920
टे	-1921
▁चाहे	-1922
पात	-1923
्वेष	-1924
चर	-1925
▁पुरस्कार	-1926
▁उठा	-1927
▁दृष्ट	-1928
▁चाहता	-1929
ैल	-1930
▁पूरे	-1931
▁उद्यम	-1932
▁जिनमें	-1933
▁फाइल	-1934
▁यूर	-1935
▁मनुष्य	-1936
▁बज	-1937
▁विवाद	-1938
सत	-1939
▁बंगाल	-1940
▁ऑफ	-1941
▁दश	-1942
▁वापस	-1943
▁मॉ	-1944
िल्म	-1945
▁हमारा	-1946
राज	-1947
राज्य	-1948
▁तारीख	-1949
▁भौ	-1950
▁सलाह	-1951
▁निर्यात	-1952
चीन	-1953
▁दें	-1954
ar	-1955
▁खो	-1956
▁बने	-1957
▁निर्वा	-1958
▁रक्त	-1959
कान	-1960
▁जैसी	-1961
▁न्यायालयों	-1962
▁सहायक	-1963
▁नया	-1964
वाही	-1965
▁सफलता	-1966
क्षर	-1967
खी	-1968
▁रज	-1969
द्यपि	-1970
्प	-1971
▁दस्तावे	-1972
संग	-1973
शिया	-1974
▁सक्षम	-1975
थमिक	-1976
यल	-1977
र्ट	-1978
▁चिकित्सा	-1979
▁प्रकाशित	-1980
▁ट्र	-1981
▁हमेशा	-1982
▁संग्रह	-1983
▁मास	-1984
▁न्यायिक	-1985
▁बढ	-1986
▁सामग्री	-1987
घु	-1988
ग्	-1989
▁सृ	-1990
▁विभा	-1991
▁रक्षा	-1992
▁रखना	-1993
▁गी	-1994
▁अधिकां	-1995
▁लि	-1996
▁निजी	-1997
दृ	-1998
▁मुक्त	-1999
कीय	-2000
ृह	-2001
▁संरक्षण	-2002
▁संय	-2003
▁इनमें	-2004
ड़क	-2005
▁खे	-2006
▁अभिव	-2007
▁वन	-2008
ुन	-2009
▁अवस्था	-2010
▁यद्यपि	-2011
.0	-2012
▁सिर्फ	-2013
वै	-2014
▁समक्ष	-2015
▁रखते	-2016
▁वाणिज्य	-2017
▁जे	-2018
▁शीर्ष	-2019
▁तत्व	-2020
▁युवा	-2021
at	-2022
▁फी	-2023
पे	-2024
▁साधारण	-2025
▁देखने	-2026
फ्ट	-2027
▁समझौ	-2028
मक	-2029
तया	-2030
▁चर्चा	-2031
▁दशा	-2032
▁प्राथमिक	-2033
▁लाल	-2034
▁रकम	-2035
▁शांति	-2036
▁धी	-2037
▁केन्द्रीय	-2038
ेयर	-2039
▁शक्त	-2040
▁पालन	-2041
en	-2042
▁रेल	-2043
▁चुका	-2044
▁मुद्रा	-2045
▁सकेगा	-2046
▁स्म	-2047
▁जिला	-2048
▁लागत	-2049
▁सेवाओं	-2050
▁थो	-2051
▁रि	-2052
एन	-2053
ठित	-2054
ोक्ता	-2055
▁आत्मा	-2056
▁[	-2057
▁शहर	-2058
▁बुद्ध	-2059
▁बेहतर	-2060
▁अधिकांश	-2061
पूर्वक	-2062
▁पर्य	-2063
▁मंत्री	-2064
त्री	-2065
ल्ल	-2066
्टर	-2067
▁ईश्वर	-2068
▁योगदान	-2069
▁पर्या	-2070
वर्ष	-2071
▁रिक	-2072
▁संभावना	-2073
संद	-2074
िकोण	-2075
▁बताया	-2076
हीन	-2077
▁जाति	-2078
▁री	-2079
▁श्रेणीः	-2080
▁अधिव	-2081
▁पुरुष	-2082
▁सुझ	-2083
द्द	-2084
▁डॉ	-2085
▁उपन	-2086
▁गंभीर	-2087
▁कंप्यूटर	-2088
▁क़	-2089
▁चै	-2090
▁दू	-2091
▁दिखाई	-2092
▁समुदाय	-2093
टल	-2094
मंत्री	-2095
▁तुलना	-2096
▁वहाँ	-2097
▁संपत्ति	-2098
▁जिसकी	-2099
▁ख़	-2100
वर्क	-2101
वेद	-2102
▁प्रणब	-2103
लाई	-2104
▁पिता	-2105
▁तीस	-2106
चि	-2107
क्टर	-2108
▁किन्तु	-2109
ंद्र	-2110
▁बोल	-2111
▁कदम	-2112
▁भे	-2113
▁कोशिश	-2114
▁सम्मिल	-2115
▁चयन	-2116
▁पंच	-2117
00	-2118
▁दूसरा	-2119
▁वही	-2120
▁सीमित	-2121
▁जम	-2122
▁चाल	-2123
न्दर	-2124
an	-2125
▁मुद्	-2126
▁पर्यावरण	-2127
भाल	-2128
र्ड	-2129
भूति	-2130
▁वायु	-2131
ार्मिक	-2132
▁निर्भर	-2133
▁विल	-2134
क्षेप	-2135
ii	-2136
▁लं	-2137
▁दोष	-2138
ृति	-2139
ल्पना	-2140
ियर	-2141
वत्ता	-2142
▁तरीके	-2143
नेट	-2144
▁कानू	-2145
र्ज	-2146
▁धार्मिक	-2147
▁सेट	-2148
▁परीक्षा	-2149
▁महारा	-2150
▁शिकायत	-2151
▁खर्च	-2152
घा	-2153
▁यूरोप	-2154
▁सारे	-2155
▁आंद	-2156
▁प्रभावी	-2157
कद	-2158
ताल	-2159
डिया	-2160
ोषणा	-2161
▁क्रम	-2162
▁इका	-2163
▁मशीन	-2164
▁ब्रिटिश	-2165
बाह	-2166
▁संपर्क	-2167
▁ऊंच	-2168
▁रहती	-2169
▁छोटी	-2170
▁अनिवार	-2171
▁प्रशासन	-2172
▁उपचार	-2173
▁पो	-2174
ंगी	-2175
गीत	-2176
त्तर	-2177
▁हिन्दी	-2178
व्यवस्था	-2179
न्स	-2180
▁हृ	-2181
▁प्राकृतिक	-2182
▁जित	-2183
स्वरूप	-2184
▁तेल	-2185
▁कविता	-2186
▁ढा	-2187
खंड	-2188
जो	-2189
▁सूर	-2190
▁आता	-2191
▁कथ	-2192
▁उनसे	-2193
▁निधि	-2194
▁चर	-2195
क्ष्म	-2196
▁मजब	-2197
▁प्रवृ	-2198
▁खुलती	-2199
▁निम्न	-2200
▁गुणवत्ता	-2201
▁एल	-2202
एल	-2203
▁विशाल	-2204
▁कार्र	-2205
िकी	-2206
▁संकल्प	-2207
▁आशा	-2208
▁अद	-2209
▁सकें	-2210
▁जहाँ	-2211
▁विंडों	-2212
▁आपकी	-2213
▁पद्धति	-2214
▁विद्यार्थ	-2215
▁परिस्थित	-2216
▁देखते	-2217
▁पक	-2218
▁सम्मिलित	-2219
ेलन	-2220
चक	-2221
एफ	-2222
ारोह	-2223
▁खिला	-2224
▁लघु	-2225
वेयर	-2226
▁आए	-2227
▁अंक	-2228
ापन	-2229
▁अंग्रेजी	-2230
▁युग	-2231
▁विधेय	-2232
धनों	-2233
▁डेटा	-2234
नु	-2235
▁अनिवार्य	-2236
▁हिस्सा	-2237
रीय	-2238
्यो	-2239
▁ग्रह	-2240
▁संस्कृति	-2241
▁मिट	-2242
▁असम	-2243
▁वित	-2244
▁उपभ	-2245
▁स्रो	-2246
▁आकर्	-2247
ार्क	-2248
▁खाद्य	-2249
हिता	-2250
▁अधिकारियों	-2251
▁इला	-2252
▁करनी	-2253
▁दस	-2254
▁नगर	-2255
▁लेना	-2256
▁मिलता	-2257
▁व्यक्तिगत	-2258
▁पड़ा	-2259
रो	-2260
कला	-2261
▁त्रुट	-2262
▁भोजन	-2263
▁संस्कृत	-2264
▁धारण	-2265
चारी	-2266
▁हैः	-2267
▁अस्त	-2268
▁विचारों	-2269
▁अतः	-2270
▁ब्या	-2271
▁;	-2272
कारों	-2273
ख़	-2274
भाषा	-2275
▁उपयुक्त	-2276
▁प्रयोजन	-2277
▁ध्व	-2278
तित	-2279
स्लिम	-2280
टों	-2281
▁अत्यंत	-2282
म्मे	-2283
▁शता	-2284
▁समारोह	-2285
▁नेटवर्क	-2286
ूँ	-2287
--	-2288
▁समझा	-2289
अप	-2290
▁महत्त्व	-2291
सभा	-2292
▁निकट	-2293
▁रजिस्ट	-2294
▁नेता	-2295
किंग	-2296
▁विकल्प	-2297
▁आरोप	-2298
▁पर्व	-2299
इल	-2300
▁प्राचीन	-2301
▁बधा	-2302
▁दिवस	-2303
बाहरी	-2304
क्षी	-2305
ोग्राम	-2306
▁अध्याय	-2307
▁पाल	-2308
▁दृष्टिकोण	-2309
▁दायित्व	-2310
▁भंड	-2311
▁भागी	-2312
▁विद्व	-2313
▁बधाई	-2314
▁पश्चिम	-2315
▁ति	-2316
▁खोल	-2317
कालीन	-2318
फ्त	-2319
▁भारी	-2320
▁संहिता	-2321
▁संघर्ष	-2322
▁निर्धारिती	-2323
पादन	-2324
▁सिव	-2325
▁निगम	-2326
यु	-2327
विक	-2328
▁प्ल	-2329
ान्व	-2330
▁आयोजित	-2331
▁बौ	-2332
▁बचा	-2333
▁.	-2334
गु	-2335
क्षेत्र	-2336
▁मोट	-2337
▁उपबंधों	-2338
▁खरीद	-2339
▁गरी	-2340
▁नियमों	-2341
▁पाने	-2342
▁नर	-2343
▁0	-2344
▁आदर्श	-2345
▁संगीत	-2346
▁शाखा	-2347
वाब	-2348
▁आंदोलन	-2349
िमी	-2350
▁पंजी	-2351
▁वर्णन	-2352
मो	-2353
▁जिनके	-2354
▁तथापि	-2355
▁एज	-2356
घ्र	-2357
ंति	-2358
▁घट	-2359
▁घोषणा	-2360
▁कार्यवाही	-2361
▁हिन्दू	-2362
त्न	-2363
▁संसाधन	-2364
▁संस्थानों	-2365
न्ट	-2366
▁फ़ाइल	-2367
▁जानी	-2368
▁कित	-2369
▁खाते	-2370
ड्ड	-2371
▁लॉ	-2372
▁पड़े	-2373
▁अभिव्य	-2374
मीर	-2375
बि	-2376
ायी	-2377
▁पंजा	-2378
इयों	-2379
▁ईसा	-2380
▁हस्ता	-2381
▁मुस्लिम	-2382
बत	-2383
ब्दी	-2384
▁अस्प	-2385
▁आते	-2386
ंबई	-2387
▁जल्	-2388
▁अनुसू	-2389
▁सिविल	-2390
▁लेते	-2391
▁क्षति	-2392
ाये	-2393
▁नोट	-2394
▁इजरा	-2395
▁अक	-2396
▁विविध	-2397
▁कार्यों	-2398
▁चीज	-2399
▁नये	-2400
▁कार्रवाई	-2401
ल्ड	-2402
▁बनाना	-2403
ष्ट्र	-2404
▁जानते	-2405
▁सुरक्षित	-2406
▁अंदर	-2407
शाली	-2408
or	-2409
▁कठिन	-2410
▁खास	-2411
प्ता	-2412
▁हटा	-2413
िरा	-2414
ोजनों	-2415
▁चुनाव	-2416
▁जिसने	-2417
ंपरा	-2418
▁पारित	-2419
▁शास्त	-2420
▁इन्ह	-2421
▁अच्छे	-2422
▁अंतरराष्ट्रीय	-2423
▁खुद	-2424
▁ग्राह	-2425
▁जरूरी	-2426
▁सुझाव	-2427
जनक	-2428
▁पराम	-2429
▁परिस	-2430
▁व्याव	-2431
▁गतिविध	-2432
त्रों	-2433
▁विधेयक	-2434
▁प्रसन्न	-2435
▁विनिर्दिष्ट	-2436
▁ब्याज	-2437
क्षक	-2438
▁पड़ता	-2439
ंदा	-2440
▁पहल	-2441
▁इच्छा	-2442
्रिया	-2443
▁निपट	-2444
काम	-2445
▁अर्थव्यवस्था	-2446
्वेषण	-2447
▁कहना	-2448
▁आग	-2449
मिल	-2450
▁जोर	-2451
▁अना	-2452
es	-2453
ोषित	-2454
ल्स	-2455
धीन	-2456
▁प्रशास	-2457
▁भगवान	-2458
▁व्यय	-2459
▁त्व	-2460
▁ग्राम	-2461
सु	-2462
▁अंश	-2463
▁संकेत	-2464
भाष	-2465
▁शुल्क	-2466
पालिका	-2467
▁स्वरूप	-2468
▁परिप	-2469
▁लंब	-2470
▁लगाया	-2471
▁सदन	-2472
मारी	-2473
▁लो	-2474
▁प्रदर्शन	-2475
▁होनी	-2476
स्य	-2477
▁खत	-2478
्राष्ट्रीय	-2479
▁बर्	-2480
▁सिर	-2481
▁उपस्थित	-2482
गो	-2483
▁कृप	-2484
▁मिली	-2485
▁नियुक्त	-2486
▁अधिकारों	-2487
ठा	-2488
▁राजन	-2489
▁कोशिका	-2490
▁गलत	-2491
▁पेट	-2492
▁एशिया	-2493
ठी	-2494
▁माता	-2495
▁प्राण	-2496
इड	-2497
व्र	-2498
▁पार्टी	-2499
▁समृ	-2500
▁तर्क	-2501
▁आदमी	-2502
▁परामर्श	-2503
िनी	-2504
म्र	-2505
▁S	-2506
न्हीं	-2507
मेंट	-2508
▁बाव	-2509
▁शास	-2510
▁छोटा	-2511
▁लगी	-2512
▁अभिप	-2513
▁आतंकवाद	-2514
▁संपूर्ण	-2515
▁उल्ल	-2516
▁परंपरा	-2517
▁सम्मेलन	-2518
▁हास	-2519
▁गर्इ	-2520
साथ	-2521
▁इंग	-2522
▁परिच	-2523
▁मात्र	-2524
िक्	-2525
▁जिम्मे	-2526
▁तट	-2527
▁मौजूद	-2528
▁तकनीकी	-2529
▁अर्थात्	-2530
ुसार	-2531
▁कौन	-2532
३०	-2533
▁सम्प	-2534
स्पर	-2535
▁मार्च	-2536
▁महस	-2537
▁पहला	-2538
▁अप्रैल	-2539
▁भाई	-2540
▁तेजी	-2541
▁प्रसि	-2542
लाव	-2543
▁कहानी	-2544
एक	-2545
भारत	-2546
▁अधि	-2547
▁शुभ	-2548
▁हृदय	-2549
रिया	-2550
▁स्थायी	-2551
▁सश	-2552
▁त्रुटि	-2553
चारियों	-2554
▁शेष	-2555
ून्य	-2556
किस्तान	-2557
▁वाता	-2558
▁सका	-2559
▁नाटक	-2560
▁व्यवसाय	-2561
▁बनी	-2562
▁परीक्षण	-2563
तें	-2564
ितीय	-2565
िक्री	-2566
▁तरफ	-2567
▁आपका	-2568
▁कार्यान्व	-2569
▁टै	-2570
▁रहना	-2571
िन्	-2572
▁खाता	-2573
▁विमान	-2574
▁प्रयोजनों	-2575
▁चुके	-2576
▁समाचार	-2577
▁विद्यमान	-2578
▁अरब	-2579
▁वाणिज्यिक	-2580
it	-2581
▁परिषद	-2582
▁गर्	-2583
▁शीघ्र	-2584
▁महिलाओं	-2585
▁आंक	-2586
▁गुना	-2587
▁वार्ष	-2588
▁प्रत्यक्ष	-2589
▁क्रा	-2590
▁मोह	-2591
▁हस्त	-2592
▁_	-2593
▁अवि	-2594
▁महसूस	-2595
िर्	-2596
▁वाद	-2597
▁अश	-2598
▁मल	-2599
मल	-2600
▁फिल	-2601
ष्क	-2602
▁सरल	-2603
▁मूल्या	-2604
▁विज	-2605
▁कृपया	-2606
▁शताब्दी	-2607
▁हट	-2608
▁विस्तृत	-2609
▁सित	-2610
▁प्रवर्	-2611
▁विनियम	-2612
▁मजबूत	-2613
▁उन्न	-2614
▁पुनर्	-2615
▁मानसिक	-2616
ज्ञा	-2617
स्म	-2618
▁लाने	-2619
▁समु	-2620
▁बैठक	-2621
▁समुद्र	-2622
▁सात	-2623
al	-2624
जली	-2625
▁अनुप्र	-2626
▁पश्चिमी	-2627
▁वातावरण	-2628
▁अन्तर्	-2629
्रेड	-2630
▁तय	-2631
▁दबा	-2632
▁अनुक	-2633
▁परिस्थितियों	-2634
▁रखे	-2635
ंव	-2636
▁अभिक	-2637
लब	-2638
किल	-2639
कृष्ट	-2640
▁अगले	-2641
▁असफल	-2642
म्मी	-2643
दूर	-2644
▁चरण	-2645
▁अंड	-2646
▁द्वार	-2647
▁वस्तुओं	-2648
▁प्रतिनिध	-2649
....	-2650
▁दिये	-2651
▁मिलने	-2652
▁संदे	-2653
▁इंटर	-2654
▁कर्मचारियों	-2655
▁बौद्ध	-2656
▁दौ	-2657
▁गांव	-2658
▁नियमित	-2659
दर	-2660
शाला	-2661
▁अत्यधिक	-2662
स्ती	-2663
▁कल्पना	-2664
▁दि	-2665
▁याच	-2666
▁जवाब	-2667
▁ढांच	-2668
▁अनुमान	-2669
▁इत्या	-2670
▁पहा	-2671
▁दर्शन	-2672
▁आती	-2673
▁जिन्होंने	-2674
ायक	-2675
▁समस्याओं	-2676
िटी	-2677
ांकि	-2678
▁तथ्य	-2679
स्कृतिक	-2680
ंघ	-2681
▁प्रतिष्ठ	-2682
▁विश्ले	-2683
▁अल्प	-2684
▁सिस्ट	-2685
▁रोजगार	-2686
▁साम्रा	-2687
▁निर्मित	-2688
ृत्व	-2689
ूक	-2690
▁सामना	-2691
▁इतनी	-2692
टिल	-2693
रान	-2694
▁बंध	-2695
▁भौतिक	-2696
▁संचार	-2697
▁सूक्ष्म	-2698
▁सीख	-2699
ज़ा	-2700
▁आवा	-2701
▁दावा	-2702
▁कराने	-2703
▁ग्रहण	-2704
लिक	-2705
▁जंग	-2706
▁हल	-2707
▁भाषण	-2708
▁हालांकि	-2709
▁भ्र	-2710
▁बढ़ाने	-2711
चित्र	-2712
▁कर्त	-2713
▁उत	-2714
▁इंज	-2715
▁उपन्यास	-2716
▁किन	-2717
▁सच्च	-2718
▁प्रधानमंत्री	-2719
▁शून्य	-2720
हरे	-2721
▁प्राप्ति	-2722
लि	-2723
सों	-2724
भूम	-2725
धु	-2726
▁अदाल	-2727
▁स्रोत	-2728
ार्म	-2729
▁वेतन	-2730
▁धीरे	-2731
▁निरंतर	-2732
▁आंत	-2733
▁इजरायल	-2734
▁मंज	-2735
दिक	-2736
▁एच	-2737
ज़ी	-2738
धर	-2739
▁शेयर	-2740
▁शुद्ध	-2741
▁अनुवाद	-2742
▁कानूनी	-2743
्याण	-2744
थि	-2745
▁प्रयासों	-2746
यान	-2747
▁विवे	-2748
्वर	-2749
▁कीमत	-2750
▁द्र	-2751
▁महाम	-2752
शय	-2753
लाइन	-2754
▁सॉ	-2755
▁तुर	-2756
तृत्व	-2757
▁वैश्व	-2758
▁बावजूद	-2759
▁क्षेत्रीय	-2760
▁वाह	-2761
▁इनके	-2762
वाले	-2763
▁आयुक्त	-2764
मद	-2765
नो	-2766
▁लेखक	-2767
▁प्राधिकरण	-2768
▁आँ	-2769
णु	-2770
ालित	-2771
▁नामक	-2772
▁मामला	-2773
▁गणराज्य	-2774
▁d	-2775
▁अधिकरण	-2776
▁नवान	-2777
▁रात	-2778
▁सर्वा	-2779
नाएं	-2780
्याग	-2781
▁मान्यता	-2782
▁आये	-2783
▁लक्षण	-2784
▁ब्रह	-2785
▁विनि	-2786
▁टन	-2787
▁महीने	-2788
वक	-2789
्वा	-2790
प्रिय	-2791
▁अभिया	-2792
▁वर	-2793
▁कार्	-2794
िप्प	-2795
▁प्रजा	-2796
▁हिंदू	-2797
▁इत्यादि	-2798
न्य	-2799
वें	-2800
मंडल	-2801
▁याचिका	-2802
▁सांस्कृतिक	-2803
ियत	-2804
्यात्म	-2805
▁निर्वाचन	-2806
र्घ	-2807
▁पट	-2808
▁प्रायः	-2809
▁पाकिस्तान	-2810
▁सुना	-2811
▁काव्य	-2812
▁इंडिया	-2813
▁कर्मचारी	-2814
▁पेज	-2815
▁युक्त	-2816
▁पसंद	-2817
▁सुंदर	-2818
▁प्रसिद्ध	-2819
डल	-2820
राब	-2821
▁शि	-2822
▁सफ	-2823
▁पाए	-2824
▁उम्मी	-2825
▁वार्षिक	-2826
▁तुम्हें	-2827
▁प्रतिक्रिया	-2828
▁धा	-2829
वेक्षण	-2830
▁गठन	-2831
क्ट्र	-2832
▁अधिकतम	-2833
▁मुसलमानों	-2834
▁c	-2835
गण	-2836
▁सारी	-2837
▁माह	-2838
▁रुपये	-2839
▁लगाने	-2840
▁विद्युत	-2841
ंता	-2842
▁कथा	-2843
▁दृश्य	-2844
▁पत्नी	-2845
▁उत्तरदाय	-2846
▁रेखा	-2847
्ति	-2848
र्प	-2849
रीक्षण	-2850
भूमि	-2851
▁अनुकूल	-2852
re	-2853
▁हिंदी	-2854
▁गहरा	-2855
मति	-2856
▁प्रावधान	-2857
▁मिलती	-2858
सान	-2859
मात्र	-2860
▁अधिकारिता	-2861
नियों	-2862
▁निकाय	-2863
▁कल्याण	-2864
▁सीधे	-2865
▁संस्थाओं	-2866
▁करार	-2867
▁देखभाल	-2868
प्ताह	-2869
▁अभिन	-2870
▁लौट	-2871
▁स्वामी	-2872
▁बिजली	-2873
ैक	-2874
▁जनसं	-2875
▁जिनका	-2876
▁प्रभार	-2877
▁बैंकों	-2878
उट	-2879
संगत	-2880
▁प्रोग्राम	-2881
▁C	-2882
▁मूल्यांकन	-2883
बोध	-2884
▁इन्हें	-2885
जि	-2886
कर्ष	-2887
उस	-2888
शास्त	-2889
रक	-2890
राह	-2891
▁आनंद	-2892
▁अमरी	-2893
▁सिस्टम	-2894
ंटी	-2895
▁उल	-2896
▁समी	-2897
▁आक्रमण	-2898
▁आपने	-2899
▁फिल्म	-2900
ज्ञात	-2901
▁तभी	-2902
▁सवाल	-2903
▁अंतरण	-2904
ोने	-2905
▁कृष्ण	-2906
मर	-2907
▁दै	-2908
▁f	-2909
▁शुभकाम	-2910
न्त्र	-2911
▁पाठ्य	-2912
ारात्मक	-2913
▁प्रयुक्त	-2914
दीय	-2915
ic	-2916
▁एफ	-2917
▁सभ	-2918
▁साफ	-2919
▁मुकद	-2920
▁रुपए	-2921
▁पुराने	-2922
▁वज	-2923
▁उम्मीद	-2924
खिम	-2925
▁समस्त	-2926
▁किरा	-2927
▁अफ्री	-2928
्रय	-2929
▁पत्त	-2930
▁उक्त	-2931
)।	-2932
ंका	-2933
▁श्व	-2934
▁जनवरी	-2935
▁विषयों	-2936
िकल	-2937
र्न	-2938
▁सचिव	-2939
▁हानि	-2940
▁प्रवि	-2941
श्मीर	-2942
▁I	-2943
▁मानते	-2944
लीय	-2945
▁w	-2946
ह्न	-2947
▁मनो	-2948
▁रखी	-2949
▁बढ़ावा	-2950
पान	-2951
▁प्रचार	-2952
▁चले	-2953
▁जल्दी	-2954
▁नक	-2955
▁घरे	-2956
▁लोकतंत्र	-2957
▁डाक	-2958
▁भागों	-2959
रेट	-2960
ृंख	-2961
सीय	-2962
▁बातों	-2963
लेज	-2964
▁उड़	-2965
▁करी	-2966
▁जायेगा	-2967
▁अस्तित्व	-2968
▁पात्र	-2969
▁न्यून	-2970
▁महत्त्वपूर्ण	-2971
▁गतिविधियों	-2972
▁अनुमो	-2973
▁न्यायाधीशों	-2974
▁नेहर	-2975
▁स्थानों	-2976
कलाप	-2977
▁बाहरी	-2978
▁राजनैतिक	-2979
▁साक्ष्य	-2980
▁मू	-2981
▁साधन	-2982
करी	-2983
▁नजर	-2984
▁अमेरिक	-2985
▁प्राधिकारी	-2986
ुक्ति	-2987
▁शिव	-2988
पास	-2989
▁मौसम	-2990
▁वितरण	-2991
▁साझ	-2992
▁कटौती	-2993
बह	-2994
▁अख	-2995
▁घा	-2996
▁शिश	-2997
▁शारी	-2998
▁देखें	-2999
▁कुंजी	-3000
▁पंजाब	-3001
▁चलता	-3002
▁कठिना	-3003
▁अधिवक्ता	-3004
▁एका	-3005
▁रोगी	-3006
▁हजार	-3007
▁विशेषज्ञ	-3008
▁जून	-3009
▁फसल	-3010
▁आयात	-3011
▁नेतृत्व	-3012
ोम	-3013
िकता	-3014
▁गुजरा	-3015
▁संगण	-3016
रत	-3017
▁तीव्र	-3018
मूर्ति	-3019
▁पहुँच	-3020
▁जोखिम	-3021
▁अनुप्रयोग	-3022
▁कलक	-3023
दर्शन	-3024
▁प्रदर्शित	-3025
▁प्रेरित	-3026
दु	-3027
▁बिक्री	-3028
▁विद्यार्थियों	-3029
वासियों	-3030
▁शैली	-3031
▁घरेलू	-3032
ड़ित	-3033
▁आजा	-3034
ड़ाई	-3035
▁बनाई	-3036
▁खुशी	-3037
ानु	-3038
▁तरीका	-3039
▁संगठ	-3040
▁पुत्र	-3041
▁टाइ	-3042
▁माँ	-3043
▁उपा	-3044
्यार	-3045
▁आध्यात्म	-3046
▁शुभकामनाएं	-3047
▁गृह	-3048
▁लिखित	-3049
तिहासिक	-3050
▁स्वागत	-3051
िड	-3052
▁उनको	-3053
▁परम	-3054
▁कार्यक्रमों	-3055
▁ज़र	-3056
▁प्रोत्साहन	-3057
वत	-3058
▁पथ	-3059
▁प्रतीत	-3060
▁संवर्	-3061
▁बुनिया	-3062
▁नैतिक	-3063
ढ़ी	-3064
▁शारीरिक	-3065
▁बुद्धि	-3066
▁सेवाएं	-3067
▁अपेक्षित	-3068
ॉँ	-3069
▁मुंबई	-3070
▁कारबार	-3071
▁नष्ट	-3072
▁मिशन	-3073
▁अंतर्राष्ट्रीय	-3074
▁साब	-3075
▁हवा	-3076
ृंखला	-3077
▁कुशल	-3078
▁गर्म	-3079
▁जटिल	-3080
▁चीज़	-3081
▁इकाई	-3082
ताब	-3083
▁प्रसन्नता	-3084
शक्ति	-3085
▁घोषित	-3086
चरण	-3087
▁शक्तियों	-3088
▁मानक	-3089
▁लें	-3090
▁t	-3091
▁दीर्घ	-3092
▁लेता	-3093
िप्त	-3094
ेंशन	-3095
ंटे	-3096
▁बाबत	-3097
▁उत्कृष्ट	-3098
यें	-3099
फे	-3100
▁प्रच	-3101
is	-3102
ँचा	-3103
▁मिलकर	-3104
बन	-3105
चलित	-3106
▁प्रदू	-3107
ब्र	-3108
ामा	-3109
िलेख	-3110
▁अल्	-3111
▁ग्रंथ	-3112
▁वालों	-3113
फ्टवेयर	-3114
राधिक	-3115
▁फाय	-3116
▁मंच	-3117
▁टिप्प	-3118
कत	-3119
हिम	-3120
▁तेज	-3121
▁मां	-3122
▁स्पष्टीकरण	-3123
्रेट	-3124
▁अधिस	-3125
▁अवश्य	-3126
▁अक्	-3127
▁चारों	-3128
जीव	-3129
ियोग	-3130
▁मगर	-3131
▁अनुप	-3132
▁मतलब	-3133
▁निहित	-3134
▁चुकी	-3135
▁परिणामस्वरूप	-3136
सायन	-3137
▁स्थल	-3138
▁साम्राज्य	-3139
▁वजह	-3140
▁सर्वोच्च	-3141
▁दिस	-3142
ॉन	-3143
क्शन	-3144
▁मिश्र	-3145
▁फूल	-3146
देव	-3147
धानिक	-3148
▁द्वीप	-3149
▁संसाधनों	-3150
ूबर	-3151
कालिक	-3152
▁प्रोट	-3153
▁हासिल	-3154
▁सैनिक	-3155
कर्ताओं	-3156
▁औष	-3157
▁मना	-3158
▁रखता	-3159
▁जनसंख्या	-3160
▁इले	-3161
रणा	-3162
▁सहकारी	-3163
्रीन	-3164
▁चेतना	-3165
▁अगस्त	-3166
▁गोप	-3167
▁पशु	-3168
▁कठोर	-3169
▁करेगी	-3170
▁त्याग	-3171
▁लगातार	-3172
मार्	-3173
▁फीस	-3174
▁गंगा	-3175
▁नेहरू	-3176
▁संबंधों	-3177
▁वैश्विक	-3178
▁शाह	-3179
▁स्मृति	-3180
▁उपयोगी	-3181
दाता	-3182
▁अस्थ	-3183
दित	-3184
▁जहा	-3185
▁अन्तर	-3186
▁वीडियो	-3187
▁जाएं	-3188
▁बनने	-3189
▁आंतरिक	-3190
▁कृत	-3191
▁भूल	-3192
▁बातें	-3193
▁पश्चात	-3194
▁इंजीन	-3195
▁सरकारों	-3196
▁प्रमाणपत्र	-3197
▁हथ	-3198
''	-3199
▁छह	-3200
▁फर	-3201
णों	-3202
▁कूट	-3203
▁विफल	-3204
स्ते	-3205
▁चीन	-3206
स्तिष्क	-3207
▁स्त्री	-3208
ूंगा	-3209
विज्ञान	-3210
▁नागरिकों	-3211
▁T	-3212
काशन	-3213
▁न्यूनतम	-3214
ियल	-3215
▁आफ	-3216
▁उम्र	-3217
▁विश्लेषण	-3218
▁अभिव्यक्ति	-3219
ैर	-3220
▁निरा	-3221
▁सप्ताह	-3222
लग्न	-3223
▁छूट	-3224
▁अदालत	-3225
▁खिलाफ	-3226
▁ऐतिहासिक	-3227
साधारण	-3228
et	-3229
▁प्ले	-3230
▁पति	-3231
बन्धी	-3232
ेंद	-3233
▁शुरुआ	-3234
ात्मक	-3235
▁धार	-3236
▁विधिक	-3237
▁प्रशासनिक	-3238
▁आसान	-3239
ुस्तान	-3240
▁आध्यात्मिक	-3241
▁आलो	-3242
स्थापित	-3243
ंकर	-3244
▁सुभाष	-3245
ंडी	-3246
हि	-3247
ion	-3248
त्तम	-3249
▁सुख	-3250
▁पृथ्वी	-3251
▁...	-3252
कलन	-3253
▁बीज	-3254
ैव	-3255
▁कोड	-3256
▁लोकप्रिय	-3257
▁मई	-3258
वाली	-3259
चीत	-3260
धित	-3261
▁नियुक्ति	-3262
मह	-3263
▁कोल	-3264
▁सड़क	-3265
▁निदेशक	-3266
▁मीडिया	-3267
▁प्रयत्न	-3268
१०	-3269
▁स्थिर	-3270
▁छोड़कर	-3271
▁काट	-3272
▁B	-3273
▁अधिसू	-3274
▁संसार	-3275
▁बीमारी	-3276
खे	-3277
म्स	-3278
▁स्वर	-3279
▁व्याख्या	-3280
▁दस्तावेज	-3281
रीत	-3282
▁पुरा	-3283
▁अके	-3284
▁स्की	-3285
▁आरम्भ	-3286
▁संबद्ध	-3287
▁कलकत्ता	-3288
िकेट	-3289
▁सर्वाधिक	-3290
▁अभिलेख	-3291
▁आठ	-3292
ेह	-3293
▁वकी	-3294
▁स्वच्छ	-3295
▁विहित	-3296
षक	-3297
▁आख	-3298
▁प्रकाशन	-3299
स्वी	-3300
▁ऑन	-3301
वाला	-3302
प्रदाय	-3303
▁निष्कर्ष	-3304
▁प्रतीक	-3305
▁माप	-3306
▁ब्रा	-3307
▁खी	-3308
▁अनुरूप	-3309
▁उद्योगों	-3310
दास	-3311
वंश	-3312
▁जेल	-3313
▁दवा	-3314
▁समन्व	-3315
▁संगठनों	-3316
▁संचालन	-3317
▁मुह	-3318
▁प्रवाह	-3319
▁लेन	-3320
▁प्रभ	-3321
▁महामहिम	-3322
▁आपूर्ति	-3323
क्षिक	-3324
om	-3325
▁सृजन	-3326
▁विशेषता	-3327
▁चलते	-3328
िपि	-3329
शासन	-3330
▁जुड़े	-3331
▁करो	-3332
▁रीति	-3333
▁कार्यवाह	-3334
न्ना	-3335
▁जाँच	-3336
नर	-3337
यम	-3338
▁विपरीत	-3339
्लो	-3340
रू	-3341
▁जमीन	-3342
▁संविदा	-3343
▁एकता	-3344
▁विजय	-3345
▁नाट	-3346
▁सारा	-3347
▁बातचीत	-3348
सीसी	-3349
▁सुल	-3350
▁श्रम	-3351
▁किसानों	-3352
▁प्रतिनिधित्व	-3353
▁कुमार	-3354
तल	-3355
▁दशक	-3356
ोकन	-3357
▁छि	-3358
▁उत्पादों	-3359
▁बुनियादी	-3360
न्द्रनाथ	-3361
▁गिरफ्त	-3362
▁गैस	-3363
▁आश्च	-3364
▁कार्ड	-3365
▁बॉ	-3366
ियार	-3367
वित्र	-3368
▁जाएंगे	-3369
▁समझौता	-3370
le	-3371
▁दूध	-3372
▁एंड	-3373
▁बेच	-3374
▁विरा	-3375
▁विरोधी	-3376
▁मछ	-3377
▁कने	-3378
▁ताप	-3379
▁अभियान	-3380
▁समुचित	-3381
▁आंख	-3382
▁चक्र	-3383
गोल	-3384
▁पीड़ित	-3385
▁निभा	-3386
▁परस्पर	-3387
ूब	-3388
▁”-	-3389
ंकित	-3390
▁टीम	-3391
▁अनुरोध	-3392
▁P	-3393
मेल	-3394
िसी	-3395
थर	-3396
▁संकट	-3397
▁ग्रा	-3398
▁मीटर	-3399
▁विचारण	-3400
न्ध	-3401
▁हिम	-3402
▁अभिप्रे	-3403
▁निः	-3404
सायिक	-3405
ॉप	-3406
▁साबित	-3407
मि	-3408
दिन	-3409
▁तमिल	-3410
▁भेजा	-3411
वट	-3412
▁परिवहन	-3413
▁अंध	-3414
▁शोध	-3415
▁हत्या	-3416
जोर	-3417
▁गुप्त	-3418
▁पूर्ववर्ष	-3419
▁एकल	-3420
क्षीय	-3421
पय	-3422
▁नुक	-3423
▁कौशल	-3424
▁कथन	-3425
▁अक्सर	-3426
▁हस्ताक्षर	-3427
मती	-3428
▁धर	-3429
▁प्रस्तावित	-3430
▁p	-3431
▁विशेषकर	-3432
स्त्र	-3433
▁रस	-3434
▁वैसे	-3435
▁प्रसार	-3436
जै	-3437
राव	-3438
▁देवी	-3439
▁महाराष्ट्र	-3440
ंदी	-3441
ोजी	-3442
▁आह	-3443
▁इन्	-3444
पादित	-3445
▁चुनौती	-3446
▁मस्तिष्क	-3447
▁टेली	-3448
▁बाग	-3449
राम	-3450
▁शे	-3451
▁अमेरिकी	-3452
▁o	-3453
▁औसत	-3454
▁इतने	-3455
▁अफ्रीका	-3456
दारों	-3457
▁कीट	-3458
चारिक	-3459
▁दृढ़	-3460
▁स्ना	-3461
▁लिम	-3462
▁दूरी	-3463
▁एकत्र	-3464
▁इलेक्ट्र	-3465
विधि	-3466
▁तार	-3467
▁माइ	-3468
▁आश्चर्य	-3469
ज़र	-3470
दियों	-3471
▁बजाय	-3472
ार्थी	-3473
▁सत्र	-3474
▁आनन्द	-3475
▁फॉ	-3476
▁दर्शा	-3477
▁एड	-3478
▁राजनीति	-3479
▁पकड़	-3480
▁कर्तव्य	-3481
▁काग	-3482
▁राज्यपाल	-3483
▁न्यायमूर्ति	-3484
▁लै	-3485
▁पूजा	-3486
घात	-3487
▁डर	-3488
▁परेश	-3489
▁अकबर	-3490
▁सर्वेक्षण	-3491
▁शह	-3492
▁मंड	-3493
अलग	-3494
▁अन्दर	-3495
ोथ	-3496
्रांस	-3497
▁G	-3498
▁विभाजन	-3499
▁संसदीय	-3500
▁बिल्	-3501
▁लिखी	-3502
▁उपभोक्ता	-3503
निष्ठ	-3504
▁मेल	-3505
▁हिंसा	-3506
▁ताल	-3507
▁फैल	-3508
▁सावधान	-3509
▁भागीदारी	-3510
बाइल	-3511
भाषित	-3512
▁अभाव	-3513
▁देगा	-3514
▁अवधारण	-3515
डु	-3516
▁चिंता	-3517
▁चम	-3518
▁परिवर्तित	-3519
्यु	-3520
देन	-3521
साद	-3522
जूदा	-3523
▁नयी	-3524
▁भाषाओं	-3525
▁मस	-3526
▁परमाण	-3527
▁मूल्यों	-3528
णन	-3529
▁शिख	-3530
▁बदलाव	-3531
▁कारणों	-3532
मूल	-3533
▁मिन	-3534
▁संस्करण	-3535
▁नमू	-3536
▁आइ	-3537
▁गरीब	-3538
▁जिले	-3539
र्त	-3540
▁गुरु	-3541
▁सशक्त	-3542
▁डिस्क	-3543
▁लिमिट	-3544
ताव	-3545
प्रति	-3546
▁गठित	-3547
▁टा	-3548
).	-3549
▁रखें	-3550
▁वहीं	-3551
▁अभिप्रेत	-3552
श्किल	-3553
शास्त्र	-3554
गढ़	-3555
▁मैदान	-3556
▁प्रारंभिक	-3557
▁हैंः	-3558
▁जुलाई	-3559
▁हिस्से	-3560
▁अभियुक्त	-3561
▁विरू	-3562
▁प्रतिभा	-3563
तीत	-3564
▁लक्ष	-3565
▁वर्षा	-3566
▁मृत्युद	-3567
▁मौजूदा	-3568
ंदु	-3569
▁भेद	-3570
▁समीक्षा	-3571
क्का	-3572
▁अन्यथा	-3573
वण	-3574
▁अत	-3575
ंत्रिक	-3576
▁पहुंचा	-3577
:-	-3578
▁शुरुआत	-3579
▁समाप्ति	-3580
▁खाने	-3581
▁नियत	-3582
▁अनुपात	-3583
▁परियोजनाओं	-3584
▁करीब	-3585
▁जर्म	-3586
▁रजिस्ट्री	-3587
▁अपर	-3588
▁परिश	-3589
▁रोकने	-3590
माने	-3591
▁कति	-3592
>>	-3593
▁खाना	-3594
▁हवाई	-3595
▁पवित्र	-3596
▁सुविधाओं	-3597
▁नवान्वेषण	-3598
▁घु	-3599
▁समग्र	-3600
▁चिह्न	-3601
▁गीत	-3602
▁द्वितीय	-3603
▁प्रेरणा	-3604
बाई	-3605
ूंकि	-3606
▁वक्त	-3607
▁किलो	-3608
▁आकर्षित	-3609
ाब	-3610
ंदन	-3611
मतौर	-3612
▁प्रत	-3613
▁देखकर	-3614
▁संतुल	-3615
▁प्रोत्साहित	-3616
पुट	-3617
▁विंडो	-3618
▁समित	-3619
▁यंत्र	-3620
▁देय	-3621
▁पाई	-3622
▁सिक्	-3623
▁अपन	-3624
▁वरि	-3625
▁साइ	-3626
क्व	-3627
▁सदा	-3628
▁आचरण	-3629
▁मुश्किल	-3630
▁लिमिटेड	-3631
▁प्रवृत्त	-3632
▁मांस	-3633
▁बिल्कुल	-3634
जु	-3635
भाग्य	-3636
नात्मक	-3637
नाम	-3638
नन	-3639
▁खुश	-3640
▁हक	-3641
पूर्ति	-3642
-0	-3643
ोल्	-3644
धारी	-3645
▁चलो	-3646
▁गौर	-3647
▁जानता	-3648
्ता	-3649
▁चूंकि	-3650
▁सर्वर	-3651
▁गाय	-3652
ड़ियों	-3653
▁तकनीक	-3654
▁प्रान्त	-3655
जिए	-3656
▁पूर्वी	-3657
▁शैक्षिक	-3658
▁जय	-3659
▁देर	-3660
त्कार	-3661
शीलता	-3662
ष्टा	-3663
▁कतिपय	-3664
▁लिखने	-3665
▁शिकार	-3666
▁पाठ्यक्रम	-3667
▁आमतौर	-3668
▁यून	-3669
▁हार्	-3670
▁संलग्न	-3671
कभी	-3672
▁आशय	-3673
▁अक्ष	-3674
पक	-3675
▁ब्ल	-3676
▁जितना	-3677
▁भय	-3678
ंगिक	-3679
▁जैव	-3680
▁अस्पताल	-3681
ट्र	-3682
▁अधिकतर	-3683
▁देकर	-3684
▁जीवित	-3685
▁मुद्दों	-3686
▁इरा	-3687
▁आयोजन	-3688
ेत	-3689
धों	-3690
▁नियंत्रित	-3691
▁रिश	-3692
▁दूसरों	-3693
▁अर्थात	-3694
यण	-3695
▁बाधा	-3696
▁तल	-3697
्यवाद	-3698
▁निवास	-3699
▁ब्राह	-3700
समय	-3701
▁इंस	-3702
▁मुझ	-3703
▁बुरा	-3704
ot	-3705
नाश	-3706
मीटर	-3707
▁निश्चय	-3708
▁सॉफ्टवेयर	-3709
▁उधार	-3710
▁कारा	-3711
▁कितना	-3712
▁सुसंगत	-3713
▁()	-3714
घटना	-3715
▁आसानी	-3716
▁यूनि	-3717
ंछ	-3718
▁तुरंत	-3719
संस्	-3720
▁रहेगा	-3721
ंगल	-3722
बाज	-3723
▁कमजोर	-3724
▁आसपास	-3725
▁परमाणु	-3726
▁लाया	-3727
▁शहरी	-3728
▁इंग्ल	-3729
▁मानवीय	-3730
शेष	-3731
▁कक्ष	-3732
▁ग्राहक	-3733
▁एकमात्र	-3734
▁प्रारूप	-3735
मर्श	-3736
▁सहज	-3737
▁सूर्य	-3738
्राइ	-3739
▁खुले	-3740
▁जाकर	-3741
▁यथ	-3742
लिया	-3743
▁प्रार्थ	-3744
्यूट	-3745
▁घंटे	-3746
▁उत्तरी	-3747
▁विद	-3748
▁केरल	-3749
▁गौ	-3750
ध्या	-3751
▁व्यावसायिक	-3752
▁स्तंभ	-3753
▁आग्रह	-3754
▁बढ़ती	-3755
▁सप	-3756
iv	-3757
▁थोड़ा	-3758
▁खान	-3759
▁बाह्य	-3760
▁अन्तर्गत	-3761
र्ती	-3762
▁चरित्र	-3763
पिता	-3764
▁घटनाओं	-3765
▁समावेश	-3766
▁लंबे	-3767
▁उपक्रम	-3768
▁मिट्टी	-3769
▁तिर	-3770
द्वीप	-3771
द्धा	-3772
▁समझौते	-3773
भाविक	-3774
▁इनका	-3775
▁अंतः	-3776
▁अनुदान	-3777
▁नुकसान	-3778
▁सभ्यता	-3779
स्फ	-3780
▁रवी	-3781
▁उत्साह	-3782
▁प्रतिनिधि	-3783
▁आस्ति	-3784
िक्स	-3785
▁सहमति	-3786
▁सम्बन्धी	-3787
पथ	-3788
ॉक	-3789
▁सांस	-3790
अर	-3791
ग्ध	-3792
ेश्वर	-3793
▁शुरु	-3794
श्त	-3795
▁स्कीम	-3796
केट	-3797
घाटन	-3798
▁विरूद्ध	-3799
ुता	-3800
▁वकील	-3801
जल	-3802
▁आवाज	-3803
क्षिप्त	-3804
▁इंटरनेट	-3805
▁क्रिकेट	-3806
▁चोट	-3807
▁रिया	-3808
▁प्रेष	-3809
गाह	-3810
ोरी	-3811
ोबार	-3812
▁बाध्य	-3813
ंडा	-3814
ुत्	-3815
▁सहमत	-3816
थी	-3817
▁फैस	-3818
▁आवास	-3819
▁कितनी	-3820
▁प्रार्थना	-3821
▁आल	-3822
▁मृत	-3823
▁कार्यान्वयन	-3824
▁सजा	-3825
▁दर्ज	-3826
▁वरिष्ठ	-3827
श्री	-3828
ेक्ट	-3829
▁जिनकी	-3830
जारों	-3831
▁ज्ञात	-3832
▁गुजरात	-3833
ंचित	-3834
वायु	-3835
▁सदैव	-3836
▁रेलवे	-3837
▁रास्ता	-3838
सीन	-3839
▁टुक	-3840
▁समझने	-3841
▁छुट	-3842
११	-3843
▁गाँ	-3844
▁गेंद	-3845
▁महात्मा	-3846
ौल	-3847
▁आउट	-3848
▁गोल	-3849
▁मिस	-3850
▁खेती	-3851
▁नवीन	-3852
▁प्रिय	-3853
▁नेताओं	-3854
▁कव	-3855
प्रे	-3856
▁e	-3857
पालन	-3858
▁पंजीकरण	-3859
▁संयंत्र	-3860
▁निष्पादन	-3861
▁असमर्थ	-3862
▁आपराधिक	-3863
▁श्रृंखला	-3864
न्ड	-3865
▁जरिए	-3866
▁प्रतिकूल	-3867
कां	-3868
कृष्ण	-3869
▁खतरा	-3870
▁उठाने	-3871
परी	-3872
▁भावी	-3873
▁प्रत्या	-3874
▁बू	-3875
▁इसने	-3876
म्मत	-3877
▁पेड़	-3878
▁लाइन	-3879
गन	-3880
र्पित	-3881
तृ	-3882
▁आहार	-3883
▁प्रचलित	-3884
▁विश्वविद्यालयों	-3885
▁कंपनियों	-3886
आप	-3887
▁लक	-3888
पू	-3889
मार्ग	-3890
▁नारा	-3891
पंथ	-3892
पचारिक	-3893
▁g	-3894
▁विद्यालय	-3895
क्रिय	-3896
▁मालूम	-3897
▁अवै	-3898
▁नाग	-3899
▁h	-3900
▁फिली	-3901
▁हाथों	-3902
▁साक्षी	-3903
दंड	-3904
▁फोन	-3905
▁जनजा	-3906
▁मोबाइल	-3907
▁राजस्थान	-3908
ंजन	-3909
ोल्डर	-3910
▁सौर	-3911
▁चलाने	-3912
▁हितों	-3913
▁चढ़	-3914
▁खींच	-3915
▁वृक्ष	-3916
▁सूत्र	-3917
▁हार	-3918
▁पर्यटन	-3919
ेंद्र	-3920
ग्रस्त	-3921
▁छवि	-3922
फर	-3923
▁गार	-3924
▁भंडारण	-3925
▁पुरानी	-3926
▁–	-3927
▁सतह	-3928
▁प्रतिस्प	-3929
▁नै	-3930
▁सुदृ	-3931
▁m	-3932
▁भु	-3933
▁नोड	-3934
▁दबाव	-3935
▁पूछा	-3936
▁सरदार	-3937
विन	-3938
ामान	-3939
िकाओं	-3940
▁निरीक्षण	-3941
वली	-3942
▁राजधान	-3943
▁'%	-3944
▁दिना	-3945
▁किस्म	-3946
▁शर्तों	-3947
▁चिकित्स	-3948
▁दुख	-3949
▁वाक	-3950
▁धारणा	-3951
▁फरवरी	-3952
▁स्वीकृति	-3953
▁प्रथा	-3954
भावना	-3955
▁ब्य	-3956
▁वर्गों	-3957
▁दुर्घटना	-3958
▁पाते	-3959
धियों	-3960
▁देंगे	-3961
▁दुः	-3962
पेक्ष	-3963
▁उद्ध	-3964
▁सम्पूर्ण	-3965
्नों	-3966
▁काउ	-3967
▁रास्ते	-3968
▁समृद्ध	-3969
ेंसी	-3970
▁अका	-3971
▁कहान	-3972
▁लिखे	-3973
ing	-3974
▁वंश	-3975
▁बाकी	-3976
▁किनारे	-3977
यक	-3978
▁वीर	-3979
▁स्वाम	-3980
▁उपस्थिति	-3981
म्मद	-3982
स्थायी	-3983
▁अग्रिम	-3984
याल	-3985
▁आवश्यकताओं	-3986
र्की	-3987
र्पण	-3988
▁मुद्र	-3989
▁विभिन्	-3990
▁समर्पित	-3991
▁सर्वोत्तम	-3992
▁सें	-3993
▁किसान	-3994
वश	-3995
▁मध्यम	-3996
▁अनुसरण	-3997
रचना	-3998
▁बहा	-3999
▁अद्य	-4000
▁विधियों	-4001
▁बीमार	-4002
़्य	-4003
▁टिक	-4004
थित	-4005
याँ	-4006
सार	-4007
▁मूर्	-4008
▁नीतियों	-4009
▁आकर	-4010
▁सागर	-4011
▁फा	-4012
▁परिषद्	-4013
▁तुम्हारे	-4014
▁अनुसूची	-4015
▁दीवार	-4016
गोर	-4017
▁लंबी	-4018
▁संगम	-4019
▁मालिक	-4020
गि	-4021
▁शिखर	-4022
▁पूर्ति	-4023
▁सुनवाई	-4024
/-	-4025
▁अली	-4026
▁खड़ा	-4027
▁परा	-4028
▁मिलियन	-4029
पत	-4030
▁शत्र	-4031
▁छात्र	-4032
▁योजनाओं	-4033
▁संक्रमण	-4034
▁परिभाषित	-4035
▁सराह	-4036
▁डाटा	-4037
▁सौंप	-4038
▁शीर्षक	-4039
▁पढ़ने	-4040
▁R	-4041
▁रण	-4042
चानक	-4043
यह	-4044
▁कू	-4045
▁जीत	-4046
▁अधिर	-4047
▁बदलने	-4048
▁कमा	-4049
▁तला	-4050
▁चालू	-4051
as	-4052
▁बदले	-4053
▁संदाय	-4054
▁आलोचना	-4055
▁ऑनलाइन	-4056
▁अनुसूचित	-4057
गमन	-4058
लेट	-4059
▁बोस	-4060
▁बनाये	-4061
▁श्रेष्ठ	-4062
नाटक	-4063
▁देखना	-4064
णिक	-4065
▁सिद्धांतों	-4066
▁१	-4067
विष्ट	-4068
▁त्वचा	-4069
ज़ार	-4070
ाक	-4071
▁हल्	-4072
ख्यात	-4073
▁सिवा	-4074
▁प्राथमिकता	-4075
▁असर	-4076
▁रहें	-4077
▁अचानक	-4078
▁जाल	-4079
▁प्रि	-4080
▁>>	-4081
क़्त	-4082
ष्ठा	-4083
पश्च	-4084
▁सिल	-4085
▁उदार	-4086
▁प्री	-4087
▁संदेह	-4088
▁चलने	-4089
▁झु	-4090
▁कितने	-4091
▁विभाजित	-4092
▁प्रतियोग	-4093
वित	-4094
ष्प	-4095
स्तु	-4096
▁स्त्र	-4097
▁कश्मीर	-4098
▁यौ	-4099
▁उन्	-4100
▁दास	-4101
▁लेखन	-4102
):	-4103
फ़ी	-4104
िवेश	-4105
▁पूर्वो	-4106
▁स्वतः	-4107
▁x	-4108
परि	-4109
नीति	-4110
▁दुर	-4111
▁संबोध	-4112
▁फ़िल्म	-4113
▁संक्षिप्त	-4114
▁नेपाल	-4115
▁प्रदूषण	-4116
न्दु	-4117
ासा	-4118
ीकृत	-4119
▁राजधानी	-4120
▁पल	-4121
ंध्र	-4122
▁बुला	-4123
्यक	-4124
▁मृ	-4125
▁जड़	-4126
▁पैरा	-4127
उन	-4128
काब	-4129
▁धो	-4130
▁मॉडल	-4131
▁स्वस्थ	-4132
▁ढांचे	-4133
▁विद्र	-4134
▁अस्वी	-4135
▁सुदृढ़	-4136
जीवन	-4137
▁हार्दिक	-4138
▁प्रारम्भ	-4139
▁धु	-4140
▁मधु	-4141
रेखा	-4142
▁बल्ले	-4143
▁चन्द्र	-4144
▁उल्लेखनीय	-4145
दरा	-4146
▁इनकी	-4147
▁फर्म	-4148
▁ज़्यादा	-4149
टि	-4150
ट्	-4151
ाले	-4152
▁परे	-4153
▁करवा	-4154
▁प्रवृत्ति	-4155
और	-4156
▁लम्	-4157
▁आस्त	-4158
▁निच	-4159
▁कम्पनी	-4160
ंसिल	-4161
ानिक	-4162
▁जागर	-4163
▁प्रशंसा	-4164
▁अवैध	-4165
▁समानता	-4166
▁छो	-4167
▁विनिश्च	-4168
▁सुविधाएं	-4169
दूस	-4170
सागर	-4171
▁सब्	-4172
▁दैनिक	-4173
▁दर्द	-4174
▁हिमालय	-4175
न्थ	-4176
▁कब	-4177
▁उसको	-4178
एच	-4179
वां	-4180
▁सन	-4181
▁आजादी	-4182
रेख	-4183
▁निव	-4184
वैधानिक	-4185
▁संवर्धन	-4186
ॉट	-4187
ब्ल	-4188
िल्प	-4189
▁तत्काल	-4190
▁ग़	-4191
▁ट्यू	-4192
▁तिथि	-4193
▁बिहार	-4194
▁वचन	-4195
▁अनुमोदन	-4196
▁छात्रों	-4197
▁पक्षकार	-4198
▁प्रतिस्पर्	-4199
▁जलवायु	-4200
क्सी	-4201
▁नेश	-4202
▁मकान	-4203
▁पत्थर	-4204
त्ती	-4205
▁जिम्मेदारी	-4206
िस्त	-4207
▁पार्	-4208
▁अत्या	-4209
▁किताब	-4210
▁मजदूर	-4211
▁उद्घाटन	-4212
▁पैर	-4213
ायर	-4214
▁वर्णित	-4215
▁ब्राह्म	-4216
▁प्रतिभूति	-4217
▁स्वाभाविक	-4218
▁कैं	-4219
▁बाबू	-4220
▁हालत	-4221
भि	-4222
०क	-4223
खों	-4224
▁मिनट	-4225
बादी	-4226
▁दिव्य	-4227
▁विपणन	-4228
▁समूहों	-4229
ग़	-4230
▁गहन	-4231
▁निर्व	-4232
ेंड	-4233
ंतरण	-4234
▁आनु	-4235
▁ठोस	-4236
▁बिंदु	-4237
▁झा	-4238
म्मू	-4239
▁संशोधित	-4240
▁N	-4241
चार्य	-4242
▁जवाह	-4243
▁प्राधिकार	-4244
▁यथास्थिति	-4245
▁समुद्री	-4246
▁हस्तक्षेप	-4247
▁पूर्	-4248
▁होम	-4249
▁नौकरी	-4250
ोटो	-4251
०वीं	-4252
म्परा	-4253
▁अर्ध	-4254
▁आकाश	-4255
▁प्रेस	-4256
बाजी	-4257
▁राजस्व	-4258
ार्ज	-4259
▁पीठ	-4260
.)	-4261
ेंज	-4262
▁तोड़	-4263
▁गरीबी	-4264
जात	-4265
▁खत्म	-4266
▁धातु	-4267
▁लिंग	-4268
▁मृत्युदंड	-4269
क्क	-4270
▁मिलते	-4271
▁कच्च	-4272
▁विनिमय	-4273
यात	-4274
▁चुनौ	-4275
▁क्लिक	-4276
▁उपर	-4277
▁गहरी	-4278
▁भारतीयों	-4279
क्रो	-4280
▁बजट	-4281
▁अक्त	-4282
▁खाली	-4283
वाना	-4284
ूहिक	-4285
▁विनय	-4286
▁शिक्षक	-4287
ed	-4288
▁आना	-4289
▁डिजा	-4290
▁उत्तरदायी	-4291
▁हाइ	-4292
▁शिशु	-4293
▁विज्ञ	-4294
▁नील	-4295
▁डाला	-4296
▁बालक	-4297
▁संवाद	-4298
▁अय	-4299
▁अद्यतन	-4300
▁फे	-4301
दल	-4302
▁सोचा	-4303
▁पड	-4304
▁सिद्धान्त	-4305
▁कष्ट	-4306
▁परिक	-4307
▁भेंट	-4308
जनन	-4309
▁जैन	-4310
▁चुने	-4311
क्ताओं	-4312
▁निवारण	-4313
▁मिलाकर	-4314
ंडित	-4315
ॉर्ड	-4316
व्याप	-4317
▁वस्तुत	-4318
▁कर्नाटक	-4319
ूष	-4320
▁बांध	-4321
वृत्ति	-4322
▁गांवों	-4323
▁कब्	-4324
▁गुफा	-4325
▁नंबर	-4326
▁लाइस	-4327
▁कराया	-4328
▁परिचय	-4329
ent	-4330
▁गू	-4331
गरानी	-4332
▁तत्वों	-4333
यू	-4334
▁L	-4335
▁द्विप	-4336
साइ	-4337
▁पत	-4338
▁ब्रिटेन	-4339
▁खतर	-4340
तियां	-4341
▁जनरल	-4342
▁पट्ट	-4343
▁रद्द	-4344
▁कहने	-4345
▁खराब	-4346
ास्ट	-4347
▁अनि	-4348
▁वर्गी	-4349
ॉनिक	-4350
▁तथ्यों	-4351
▁अग्रणी	-4352
▁उत्तरा	-4353
▁सामूहिक	-4354
▁n	-4355
▁पक्षों	-4356
▁सामान्यतः	-4357
▁आदान	-4358
▁कमरे	-4359
▁राहत	-4360
दर्शी	-4361
▁गणना	-4362
▁सितंबर	-4363
▁हद	-4364
▁दान	-4365
▁निश	-4366
▁गवर्	-4367
▁भंडार	-4368
▁शहरों	-4369
▁असाधारण	-4370
▁सकेगी	-4371
▁ब्रह्म	-4372
▁क्रांति	-4373
▁विद्वान	-4374
▁भले	-4375
▁प्रणाल	-4376
▁M	-4377
▁उभर	-4378
▁निगरानी	-4379
el	-4380
लैंड	-4381
▁बजा	-4382
श्वास	-4383
▁पौधों	-4384
▁कठिनाई	-4385
▁समृद्धि	-4386
तरी	-4387
वरों	-4388
▁अब्द	-4389
▁चीनी	-4390
iii	-4391
▁लाइ	-4392
▁लड़के	-4393
कू	-4394
पक्ष	-4395
▁अभिला	-4396
▁अक्तूबर	-4397
▁व्यक्तित्व	-4398
▁पड़ी	-4399
▁परिभाषा	-4400
धक	-4401
्रमण	-4402
▁तंत्रिका	-4403
घर	-4404
▁चिंत	-4405
पो	-4406
▁घटा	-4407
वस्था	-4408
▁बौद्धिक	-4409
शे	-4410
▁इस्लामी	-4411
▁प्रविष्टि	-4412
▁अवल	-4413
वधि	-4414
िवर्	-4415
▁शान	-4416
▁स्वर्ण	-4417
▁चाय	-4418
▁डाय	-4419
▁सुबह	-4420
टु	-4421
रम	-4422
वादियों	-4423
▁यूरोपीय	-4424
▁बाँ	-4425
▁लगाना	-4426
▁उच्चतर	-4427
▁जम्मू	-4428
ल्ला	-4429
ङ्	-4430
स्ट्रे	-4431
▁जानने	-4432
▁फ्ल	-4433
कार्य	-4434
▁परम्परा	-4435
ेदन	-4436
टो	-4437
▁सफेद	-4438
▁रहस्य	-4439
▁कार्यवाहियों	-4440
ठे	-4441
दूसरे	-4442
▁कोर्ट	-4443
▁लड़ाई	-4444
कोश	-4445
ंख्य	-4446
निर्देश	-4447
▁द्वि	-4448
▁सीमाओं	-4449
▁अज	-4450
▁देशी	-4451
▁बचाव	-4452
▁चीजों	-4453
▁कारावास	-4454
▁मैत्री	-4455
▁प्रतिबंध	-4456
il	-4457
▁लेती	-4458
ामान्य	-4459
▁अपनाया	-4460
▁अवसरों	-4461
▁योग्यता	-4462
▁लाइसेंस	-4463
▁फार्म	-4464
श्म	-4465
▁उतना	-4466
▁प्यार	-4467
ोजक	-4468
▁उतर	-4469
▁पाद	-4470
▁वैध	-4471
▁मुद्दे	-4472
▁रवीन्द्रनाथ	-4473
▁कहता	-4474
▁कहला	-4475
▁मानना	-4476
▁पदार्थों	-4477
▁दावे	-4478
▁बैंकिंग	-4479
▁उपे	-4480
ao	-4481
लन	-4482
ंभव	-4483
▁दरवा	-4484
▁आरंभिक	-4485
नाक	-4486
▁मोड	-4487
▁खतरे	-4488
▁मुकाब	-4489
▁मूलभूत	-4490
▁खड़े	-4491
▁ताकत	-4492
▁निपटान	-4493
▁क्व	-4494
▁खण्ड	-4495
▁पाँच	-4496
▁माध्यस्थ	-4497
▁शल	-4498
▁उन्नत	-4499
▁नेशनल	-4500
▁उपकरणों	-4501
▁आंध्र	-4502
▁सावधानी	-4503
▁आब	-4504
ंशिक	-4505
दायक	-4506
▁जीवा	-4507
▁अंतरिक्ष	-4508
ंठ	-4509
ॉलर	-4510
न्या	-4511
ायें	-4512
ग्रहण	-4513
▁प्रक्रियाओं	-4514
उंड	-4515
▁सेल	-4516
ैया	-4517
▁ट्रै	-4518
▁ध्वज	-4519
▁पोषण	-4520
▁नृत्य	-4521
▁बनाता	-4522
▁मुक्ति	-4523
श्र	-4524
▁पर्	-4525
▁स्क्रीन	-4526
▁न्यायपालिका	-4527
विमर्श	-4528
▁क्	-4529
जैसे	-4530
▁अध्याप	-4531
▁संवैधानिक	-4532
▁पैसे	-4533
फोन	-4534
▁पर्वत	-4535
▁बिलकुल	-4536
▁सेटिंग	-4537
▁मक	-4538
▁भूत	-4539
▁भक्ति	-4540
▁विरासत	-4541
▁विविधता	-4542
▁प्रतिबद्ध	-4543
बो	-4544
१२	-4545
ंटा	-4546
▁आक	-4547
▁पैमाने	-4548
▁आराम	-4549
▁ध्वनि	-4550
▁साहित्यिक	-4551
▁उर्व	-4552
▁बांग	-4553
▁वस्त्र	-4554
▁अनुज्ञात	-4555
▁,	-4556
प्रदान	-4557
▁तीसरे	-4558
जब	-4559
डि	-4560
▁जायें	-4561
▁उपायों	-4562
▁पंक्ति	-4563
▁प्रश्नों	-4564
▁शक्तिशाली	-4565
दोष	-4566
▁साझी	-4567
▁अधिसूचना	-4568
सनीय	-4569
मान्य	-4570
▁मैने	-4571
▁उठाया	-4572
▁कामना	-4573
▁युक्ति	-4574
यिक	-4575
ूली	-4576
▁उद्यान	-4577
ol	-4578
▁पोजी	-4579
▁वंचित	-4580
▁चू	-4581
▁लु	-4582
▁अदा	-4583
▁ड्र	-4584
▁फ्र	-4585
▁चंद्र	-4586
▁हिंदुस्तान	-4587
▁मौलिक	-4588
धीरे	-4589
▁बजे	-4590
▁प्रतियोगिता	-4591
▁पश	-4592
▁ग्री	-4593
िरी	-4594
▁‘‘	-4595
▁जीन	-4596
▁यूनिट	-4597
▁अर्जित	-4598
▁जातियों	-4599
▁आवेद	-4600
ंतिक	-4601
▁न्यास	-4602
▁अपराधों	-4603
▁औपचारिक	-4604
राशि	-4605
▁डिजाइन	-4606
▁मंदिरों	-4607
▁प्राधिकृत	-4608
दो	-4609
▁उपखंड	-4610
▁संध्या	-4611
लाब	-4612
▁अवमान	-4613
ou	-4614
हम	-4615
्त्र	-4616
▁कक्षा	-4617
▁पोर्ट	-4618
▁अमरीका	-4619
▁पृष्ठभूमि	-4620
ंघन	-4621
भेद	-4622
▁कोय	-4623
▁मोटर	-4624
▁पहुंचने	-4625
िश्र	-4626
▁बेल	-4627
▁इसील	-4628
▁E	-4629
ंगों	-4630
्रोल	-4631
▁सदी	-4632
▁अधिरोप	-4633
▁अनुचित	-4634
▁मध्यस्थ	-4635
▁विनिर्माण	-4636
काय	-4637
▁स्वभाव	-4638
▁विनिश्चय	-4639
सिंह	-4640
तो	-4641
शः	-4642
सूर	-4643
▁मण	-4644
▁झील	-4645
▁दिमा	-4646
▁बच्चा	-4647
▁शिक्षण	-4648
पना	-4649
ग्रा	-4650
र्जन	-4651
▁घटक	-4652
▁फें	-4653
▁मिथ	-4654
▁दिला	-4655
▁पहलू	-4656
▁भेजे	-4657
▁निर्मा	-4658
▁धन्यवाद	-4659
▁खिल	-4660
ख्यान	-4661
▁अगला	-4662
▁उपर्य	-4663
▁स्मार	-4664
़्त	-4665
▁गुजर	-4666
▁पौधे	-4667
▁सत्याप	-4668
िस्ट्रेट	-4669
▁उद्देश्यों	-4670
िब	-4671
▁सराहना	-4672
▁संचालित	-4673
▁प्रतिवादी	-4674
▁यहू	-4675
लै	-4676
▁वस	-4677
▁पॉल	-4678
▁उन्म	-4679
▁पोजीशन	-4680
षे	-4681
▁जुड़	-4682
▁पीढ़ी	-4683
▁तापमान	-4684
वती	-4685
▁चाहती	-4686
▁अस्थायी	-4687
अनु	-4688
रुप	-4689
्मी	-4690
▁यो	-4691
▁आश्व	-4692
▁याची	-4693
▁सकेंगे	-4694
ac	-4695
▁जहाज	-4696
▁साइट	-4697
▁साहस	-4698
▁द्विपक्षीय	-4699
ुति	-4700
हारिक	-4701
▁कायम	-4702
▁जुड़ा	-4703
▁फ्रांस	-4704
▁प्रवर्तन	-4705
▁शक्तियां	-4706
▁नार	-4707
▁वसू	-4708
▁गर्भ	-4709
▁पेंशन	-4710
▁रेडियो	-4711
पार	-4712
▁नेत्र	-4713
▁उपलब्धि	-4714
ंपरिक	-4715
▁पृथक	-4716
कलापों	-4717
▁लॉग	-4718
मैं	-4719
म्बे	-4720
▁रेश	-4721
▁शोक	-4722
▁संबोधित	-4723
ुरी	-4724
▁खि	-4725
▁एयर	-4726
▁निकाला	-4727
▁स्थाना	-4728
ंचाई	-4729
▁वेद	-4730
ड्डी	-4731
▁तस्वी	-4732
▁सम्पत्ति	-4733
▁स्वामित्व	-4734
कीर्ण	-4735
ध्यक्ष	-4736
▁मनोर	-4737
▁मानो	-4738
म्बई	-4739
प्राप्त	-4740
▁बहस	-4741
▁मरा	-4742
▁मुला	-4743
▁तमिलना	-4744
▁अत्यन्त	-4745
पादक	-4746
▁जिनसे	-4747
▁यथार्थ	-4748
शिष्ट	-4749
▁प्रांत	-4750
▁परिवर्त	-4751
▁आर्	-4752
▁घूम	-4753
▁टिप्पणी	-4754
▁बनाकर	-4755
रस	-4756
पीठ	-4757
▁भरा	-4758
▁ग्राफ	-4759
ोब	-4760
▁ठहरा	-4761
लिंग	-4762
▁जाओ	-4763
▁लगती	-4764
स्तानी	-4765
यत	-4766
ुण	-4767
▁कोशिकाओं	-4768
▁चतु	-4769
▁संतुलन	-4770
▁विक्रय	-4771
ँग	-4772
▁झू	-4773
▁ढांचा	-4774
▁मूर्ति	-4775
▁विद्यार्थी	-4776
▁पच	-4777
▁लल	-4778
त्ते	-4779
▁दक्षिणी	-4780
मै	-4781
गरी	-4782
▁दिलच	-4783
▁समितियों	-4784
▁ईसाई	-4785
शोथ	-4786
क्राम	-4787
व्यों	-4788
▁भर्ती	-4789
▁छाप	-4790
▁प्रभाग	-4791
▁रिट	-4792
▁रानी	-4793
▁रुचि	-4794
▁हटाने	-4795
▁श्रमिक	-4796
▁अवधारणा	-4797
रु	-4798
्टा	-4799
▁वादी	-4800
▁शर्त	-4801
▁देवता	-4802
▁पंडित	-4803
▁मिलेगी	-4804
▁भंग	-4805
▁इलाज	-4806
▁समाय	-4807
▁कॉलेज	-4808
िवृ	-4809
▁उपय	-4810
दृश्य	-4811
▁अकेले	-4812
▁व्युत्	-4813
▁क्रियान्व	-4814
▁हिमा	-4815
▁मुकदमे	-4816
स्ट्रेलिया	-4817
▁समझते	-4818
▁युवाओं	-4819
▁गिरफ्तार	-4820
▁वय	-4821
वर्ड	-4822
▁दाख	-4823
▁आबादी	-4824
▁कराना	-4825
▁दिसंबर	-4826
▁रजिस्ट्रीकरण	-4827
▁जितनी	-4828
▁महीनों	-4829
▁मिलेगा	-4830
ंदगी	-4831
प्रद	-4832
मानी	-4833
सेना	-4834
▁क्षण	-4835
▁रसायन	-4836
▁पत्रिका	-4837
▁उपर्युक्त	-4838
▁पंख	-4839
▁बचत	-4840
▁दोनो	-4841
▁चैनल	-4842
▁बिता	-4843
▁इंडियन	-4844
उप	-4845
▁होंगी	-4846
िर्धारित	-4847
▁कारोबार	-4848
ाइन	-4849
पोषण	-4850
▁बोली	-4851
▁परिवेश	-4852
▁संवेदन	-4853
▁पोत	-4854
▁शेय	-4855
▁रहेंगे	-4856
▁खूब	-4857
▁मानी	-4858
▁लंबित	-4859
व्यवहार	-4860
▁दिखाया	-4861
▁जिम्मेदार	-4862
तन्य	-4863
▁हकदार	-4864
▁इंजीनिय	-4865
▁महाभारत	-4866
▁उपयोगकर्ता	-4867
हे	-4868
गामी	-4869
▁खनि	-4870
▁अकाद	-4871
▁जाएँ	-4872
▁देखे	-4873
▁फैला	-4874
▁रिकार्ड	-4875
▁संभावित	-4876
▁मार्गदर्शन	-4877
▁b	-4878
पंथी	-4879
▁संतु	-4880
ंत्रित	-4881
▁महाराजा	-4882
am	-4883
▁इमार	-4884
▁कारक	-4885
▁चुना	-4886
▁दण्ड	-4887
▁लड़की	-4888
▁गारंटी	-4889
▁प्रतिदिन	-4890
▁पक्षकारों	-4891
▁सकारात्मक	-4892
हाई	-4893
बारा	-4894
▁दोहरा	-4895
▁स्तरों	-4896
थान	-4897
▁सद्	-4898
▁नाते	-4899
▁मछली	-4900
शाह	-4901
्मा	-4902
▁उतार	-4903
▁निष्क्रिय	-4904
च्छिक	-4905
▁संदेय	-4906
▁गुल	-4907
ड़िया	-4908
द्रास	-4909
▁तात्	-4910
▁धरती	-4911
▁स्टेशन	-4912
▁उन्होने	-4913
▁फ़ोल्डर	-4914
▁चिप	-4915
दराबाद	-4916
▁वसूली	-4917
तांत्रिक	-4918
काता	-4919
▁पेशे	-4920
▁मातृ	-4921
▁इलेक्ट्रॉनिक	-4922
▁y	-4923
▁चुनें	-4924
▁बनाते	-4925
▁अन्वेषण	-4926
▁पुष्टि	-4927
▁पारंपरिक	-4928
▁गुरू	-4929
▁जोड़ने	-4930
ष्णु	-4931
▁शांत	-4932
▁आधारभूत	-4933
ज़े	-4934
जाल	-4935
कर्म	-4936
▁दीव	-4937
▁विद्रोह	-4938
▁न्	-4939
▁बढ़ने	-4940
▁वर्मा	-4941
▁इसीलिए	-4942
ंटर	-4943
▁अम्	-4944
▁ढूं	-4945
▁तदन	-4946
▁इच्छ	-4947
▁डालने	-4948
▁समन्वय	-4949
▁ग्राहकों	-4950
▁हिस	-4951
▁अभिगम	-4952
▁अंग्रेज	-4953
▁पंजीकृत	-4954
▁चली	-4955
कांक्षा	-4956
▁सिंचाई	-4957
▁बांग्ला	-4958
▁इंद	-4959
▁रिज	-4960
क्तिक	-4961
ग्राम	-4962
▁सम्बंध	-4963
▁श्रीमती	-4964
भौ	-4965
द्दीन	-4966
▁छाया	-4967
▁आतंकवादी	-4968
▁टूट	-4969
▁नान	-4970
▁ऊंचाई	-4971
▁पड़ती	-4972
▁संतोष	-4973
▁उत्तरदायित्व	-4974
▁D	-4975
शुल्क	-4976
▁बारह	-4977
▁तरीकों	-4978
▁तिल	-4979
▁निकालने	-4980
▁परिवारों	-4981
▁प्रतीक्षा	-4982
▁फार	-4983
▁दुःख	-4984
▁उल्लंघन	-4985
▁कहां	-4986
▁मंडल	-4987
▁जोड़ा	-4988
▁चैतन्य	-4989
र्थी	-4990
id	-4991
पल	-4992
शास	-4993
▁ट्रे	-4994
▁अभिलाभ	-4995
▁अमरीकी	-4996
▁केंद्रित	-4997
▁अहम	-4998
▁बडी	-4999
▁भगवान्	-5000
जिस	-5001
▁हाँ	-5002
▁याता	-5003
▁कपड़े	-5004
▁बहुमत	-5005
▁विद्या	-5006
▁स्वीकृत	-5007
रलाल	-5008
▁जाग	-5009
▁गुणा	-5010
▁पांड	-5011
▁जायेगी	-5012
▁व्यावहारिक	-5013
▁छोड	-5014
▁बीस	-5015
▁मुगल	-5016
▁मानता	-5017
▁k	-5018
▁आपात	-5019
▁ऊपरी	-5020
▁फैसला	-5021
ायतों	-5022
▁समझे	-5023
संरचना	-5024
कल्पिक	-5025
▁परिसर	-5026
▁पशुओं	-5027
▁पार्क	-5028
▁पहुंचे	-5029
▁पालिसी	-5030
▁दस्तावेजों	-5031
सम्	-5032
▁उदा	-5033
▁लार	-5034
▁एकदम	-5035
▁सिंध	-5036
क्षणिक	-5037
▁जानकर	-5038
▁जापान	-5039
▁प्रेषित	-5040
▁कोष	-5041
कुमार	-5042
▁कट्ट	-5043
▁देखता	-5044
▁वस्तुतः	-5045
जीवी	-5046
▁पदों	-5047
▁जर्मनी	-5048
कना	-5049
▁पाप	-5050
▁रूपों	-5051
▁मुकदमा	-5052
र्दू	-5053
सीमा	-5054
▁वार्	-5055
▁स्मरण	-5056
▁तुर्की	-5057
▁मद्रास	-5058
तावनी	-5059
▁ईरान	-5060
▁कड़ी	-5061
▁पाता	-5062
▁पहाड़ी	-5063
▁प्रयोगशाला	-5064
ec	-5065
ायल	-5066
ूरक	-5067
▁तत्त्व	-5068
ंधन	-5069
ुत्व	-5070
▁स्टार	-5071
▁शौ	-5072
▁कागज	-5073
▁विवेक	-5074
▁शान्त	-5075
▁प्रसंस्	-5076
▁गईं	-5077
▁आंशिक	-5078
▁यातायात	-5079
अल	-5080
▁व्यापारी	-5081
▁मजिस्ट्रेट	-5082
इयां	-5083
मानत	-5084
▁लकड़ी	-5085
▁पूर्णतः	-5086
ड्य	-5087
▁घृ	-5088
▁आयी	-5089
▁लगते	-5090
▁हैदराबाद	-5091
▁जला	-5092
▁मुंह	-5093
▁हाथी	-5094
▁गहराई	-5095
मेन	-5096
▁खड़ी	-5097
▁प्लस	-5098
▁प्रजनन	-5099
बु	-5100
ण्ट	-5101
र्गी	-5102
▁सूचित	-5103
िली	-5104
नलोड	-5105
▁अभ्य	-5106
▁पैके	-5107
▁साझा	-5108
▁सम्भव	-5109
▁प्रसाद	-5110
▁जवाहरलाल	-5111
दुर	-5112
▁कॉल	-5113
▁दार्	-5114
▁चेतावनी	-5115
▁राजभाषा	-5116
▁सम्पर्क	-5117
st	-5118
▁तृ	-5119
▁चेक	-5120
▁थोड़ी	-5121
▁इंग्लैंड	-5122
▁तमिलनाडु	-5123
▁किन्हीं	-5124
१३	-5125
ोज़	-5126
निंग	-5127
▁गिरा	-5128
▁रोगों	-5129
▁उन्हीं	-5130
हल	-5131
शोधन	-5132
▁कर्ण	-5133
▁उत्तेज	-5134
नान	-5135
ायण	-5136
यालय	-5137
▁ज्व	-5138
▁दुकान	-5139
▁रिक्त	-5140
▁समझता	-5141
▁पहलुओं	-5142
▁विवरणी	-5143
स्को	-5144
▁गौरव	-5145
▁संभवतः	-5146
िपी	-5147
ोहन	-5148
▁हां	-5149
▁डॉलर	-5150
▁भांति	-5151
▁संगठित	-5152
▁प्रतिष्ठित	-5153
ैंक	-5154
▁चुप	-5155
▁तारा	-5156
▁भेजने	-5157
▁मानवता	-5158
थे	-5159
▁चुकता	-5160
ंजा	-5161
▁लिंक	-5162
▁उल्लिखित	-5163
▁अवय	-5164
▁नकारात्मक	-5165
मंड	-5166
▁बग	-5167
्रीम	-5168
▁डिज	-5169
▁उत्तम	-5170
▁ड्राइ	-5171
▁वापसी	-5172
▁एव	-5173
▁आखिर	-5174
▁पड़ेगा	-5175
▁फलस्वरूप	-5176
▁सम्बन्धित	-5177
▁आपस	-5178
▁जमी	-5179
▁सीधा	-5180
▁चयनित	-5181
▁किलोमीटर	-5182
कन	-5183
▁फु	-5184
स्थल	-5185
▁कही	-5186
▁निरसन	-5187
्रु	-5188
▁शो	-5189
▁डाउ	-5190
▁ज्यो	-5191
▁माननीय	-5192
▁साधनों	-5193
▁वैकल्पिक	-5194
भाषण	-5195
वंबर	-5196
▁हरि	-5197
▁निवासी	-5198
▁शिक्षकों	-5199
▁अभिनिर्धारित	-5200
▁सल	-5201
▁तैयारी	-5202
▁एल्	-5203
▁अक्षम	-5204
राष्ट्र	-5205
▁दक्षता	-5206
्वे	-5207
▁भरी	-5208
▁भरो	-5209
▁गाड़ी	-5210
▁मान्य	-5211
▁स्टेट	-5212
खन	-5213
िटल	-5214
्वान	-5215
▁लोड	-5216
▁उतनी	-5217
▁बैठे	-5218
▁कानूनों	-5219
ंगत	-5220
लांग	-5221
▁सिवाय	-5222
▁शानदार	-5223
▁क्रांतिक	-5224
ad	-5225
जनों	-5226
▁प्रबल	-5227
▁संपदा	-5228
▁कुशलता	-5229
फेसर	-5230
▁शंकर	-5231
▁दोस्त	-5232
▁अंग्रेजों	-5233
▁औषध	-5234
▁गद्य	-5235
▁देखी	-5236
▁रखकर	-5237
▁जू	-5238
▁पढ	-5239
ुप्त	-5240
▁आबंट	-5241
▁भाष्	-5242
▁साझे	-5243
▁साहब	-5244
पै	-5245
▁i	-5246
निर	-5247
गों	-5248
▁पुनर्व	-5249
▁कनेक्शन	-5250
अन	-5251
साम	-5252
न्दा	-5253
▁खोलने	-5254
▁आकलन	-5255
▁अपमान	-5256
▁प्रास	-5257
▁वृद्ध	-5258
▁प्रतिबि	-5259
राय	-5260
्नि	-5261
श्रे	-5262
▁इस्	-5263
ष्कार	-5264
तन्त्र	-5265
▁अपनाने	-5266
ड़ना	-5267
▁नाब	-5268
▁मेन	-5269
▁अखिल	-5270
▁उग्र	-5271
▁कथित	-5272
▁चीजें	-5273
▁रहेगी	-5274
▁कस	-5275
न्तर	-5276
विदा	-5277
▁भरे	-5278
▁पुस्तकों	-5279
▁विश्वसनीय	-5280
▁शपथ	-5281
▁सतत	-5282
▁मुझसे	-5283
▁लाना	-5284
▁संधि	-5285
▁अंततः	-5286
▁चिन्ह	-5287
▁तीनों	-5288
▁हिसाब	-5289
▁गांधीजी	-5290
▁व्यवस्थित	-5291
ME	-5292
▁ष	-5293
▁दिनांक	-5294
▁कोलकाता	-5295
▁स्त्रियों	-5296
▁खून	-5297
छा	-5298
डो	-5299
दनी	-5300
ुरा	-5301
▁सिख	-5302
▁पाये	-5303
▁क्रमशः	-5304
▁अनुपालन	-5305
▁चुनौतियों	-5306
ुणा	-5307
वाने	-5308
▁काला	-5309
▁माने	-5310
▁जीवों	-5311
▁अंतराल	-5312
▁रूपांत	-5313
शनिक	-5314
ापरी	-5315
▁अफग	-5316
▁सिक	-5317
▁बन्द	-5318
प्ति	-5319
स्टर	-5320
िलों	-5321
▁पहन	-5322
▁उर्दू	-5323
प्न	-5324
काया	-5325
▁विनाश	-5326
▁साध	-5327
▁हरे	-5328
▁कट्टर	-5329
▁नवंबर	-5330
▁सैन्य	-5331
▁अपराधी	-5332
▁एकीकृत	-5333
▁निष्ठा	-5334
▁क्षतिपूर्ति	-5335
▁पोल	-5336
▁लिप	-5337
▁हमे	-5338
वृत्त	-5339
▁दाखिल	-5340
▁गतिविधि	-5341
he	-5342
झा	-5343
▁घो	-5344
▁अनाज	-5345
▁घरों	-5346
▁चिकित्सक	-5347
▁नज	-5348
▁मिश्रण	-5349
ँस	-5350
प्ट	-5351
ड़ीसा	-5352
ब्लिक	-5353
▁एजेंस	-5354
▁डाउनलोड	-5355
▁प्रोफेसर	-5356
▁शोर	-5357
▁बारी	-5358
▁गुणों	-5359
▁प्रतिर	-5360
त्रिम	-5361
▁कीटों	-5362
▁मशीनरी	-5363
▁स्थितियों	-5364
ारक	-5365
▁अट	-5366
▁प्रमाणित	-5367
▁चिकित्सीय	-5368
▁शास्त्र	-5369
▁कार्यान्वित	-5370
वारी	-5371
▁ट्यूब	-5372
▁घनिष्ठ	-5373
▁मित्रों	-5374
बेस	-5375
शब्द	-5376
ोनें	-5377
▁चेहरे	-5378
▁एजेंसी	-5379
चालित	-5380
▁सहारा	-5381
▁आरक्षित	-5382
▁विवादों	-5383
ंसक	-5384
▁अहि	-5385
▁शल्य	-5386
दाताओं	-5387
▁स्वाधीन	-5388
▁लोकतांत्रिक	-5389
ढ़े	-5390
▁घास	-5391
▁निम	-5392
▁बोध	-5393
▁रेड	-5394
▁मंजूर	-5395
▁बम	-5396
▁महल	-5397
▁इंजीनियर	-5398
IN	-5399
क्ल	-5400
पेश	-5401
मुच	-5402
▁सेक	-5403
▁उठाए	-5404
▁दोषी	-5405
▁वैज्ञानिकों	-5406
ेरे	-5407
▁इकट	-5408
▁टिप्पण	-5409
▁तस्वीर	-5410
▁पैसा	-5411
▁शत्रु	-5412
▁कार्यपालिका	-5413
गोलिक	-5414
▁माध्यस्थम्	-5415
▁फौ	-5416
▁किराये	-5417
ोटी	-5418
▁तम	-5419
▁ऑफ़	-5420
▁वांछ	-5421
▁दार्शनिक	-5422
▁भव	-5423
्राव	-5424
▁पाइ	-5425
▁सकल	-5426
्रेता	-5427
▁आपसे	-5428
▁हमला	-5429
▁क्रमा	-5430
▁जुड़ी	-5431
▁मानकों	-5432
▁रहित	-5433
▁पीड़ा	-5434
▁पुरूष	-5435
▁संपन्न	-5436
og	-5437
धर्म	-5438
▁सड़	-5439
▁घाटी	-5440
▁लिपि	-5441
▁सतर्क	-5442
▁हजारों	-5443
▁रचनात्मक	-5444
▁बुल	-5445
▁बंदर	-5446
▁दिमाग	-5447
▁बढ़ते	-5448
▁वाद्य	-5449
लक	-5450
क़्	-5451
स्कर	-5452
▁संभाल	-5453
▁डिग्री	-5454
▁प्रदत्त	-5455
▁शैक्षणिक	-5456
ूनी	-5457
▁राह	-5458
▁सहन	-5459
▁चट्ट	-5460
▁पंचा	-5461
▁कार्यरत	-5462
गुण	-5463
मिन	-5464
▁उभ	-5465
▁उत्पादक	-5466
सलों	-5467
▁कहाँ	-5468
▁लंदन	-5469
▁नवम्बर	-5470
वर्तन	-5471
स्पति	-5472
▁अपरि	-5473
▁बदला	-5474
▁आह्वान	-5475
हो	-5476
ोद	-5477
खाव	-5478
▁बडे	-5479
▁विलंब	-5480
▁सम्रा	-5481
▁परिचित	-5482
विचार	-5483
▁काले	-5484
▁कुटु	-5485
▁हार्ड	-5486
▁अभिभाषण	-5487
▁प्रतिफल	-5488
▁राष्ट्रों	-5489
ख्त	-5490
चलन	-5491
िकीय	-5492
▁पढ़ा	-5493
▁बढ़कर	-5494
▁वैदिक	-5495
▁धनराशि	-5496
डन	-5497
वह	-5498
▁भक्त	-5499
▁आस्था	-5500
▁क्रेड	-5501
▁व्यापारिक	-5502
▁निर्देशिका	-5503
ंतरित	-5504
▁सचमुच	-5505
▁दिसम्बर	-5506
जिन	-5507
बों	-5508
▁अमर	-5509
▁जायेंगे	-5510
▁भौगोलिक	-5511
▁अधिरोपित	-5512
पर्य	-5513
▁असली	-5514
▁वस्तुएं	-5515
▁दुर्भाग्य	-5516
ॉम	-5517
बीर	-5518
स्फोट	-5519
▁अस्थि	-5520
▁सहयोगी	-5521
▁पुस्तिका	-5522
▁ब्राह्मण	-5523
▁प्रतिष्ठा	-5524
▁छु	-5525
अपने	-5526
▁बनता	-5527
▁सीता	-5528
▁कृत्रिम	-5529
▁विभागों	-5530
▁नस्ल	-5531
▁स्तन	-5532
▁ज़रूर	-5533
▁पट्टी	-5534
ोक्ताओं	-5535
ँचे	-5536
▁गर्व	-5537
▁फोटो	-5538
ानिस्तान	-5539
▁विचारधारा	-5540
▁प्रभावशाली	-5541
▁विद्वानों	-5542
बूझ	-5543
▁इकट्	-5544
▁वाहन	-5545
▁अनुदेश	-5546
▁आदेशों	-5547
▁सलाहकार	-5548
▁उपलब्धता	-5549
▁समुदायों	-5550
▁प्रसंस्करण	-5551
▁सामान्यतया	-5552
कात	-5553
ितु	-5554
▁कना	-5555
क़्ति	-5556
साइटी	-5557
ाधिकार	-5558
▁जिसको	-5559
▁गवर्नर	-5560
▁योजनाएं	-5561
पूर	-5562
▁अभिर	-5563
▁तलाश	-5564
▁लोकसभा	-5565
▁शिक्षित	-5566
▁परिवर्तनों	-5567
▁वास	-5568
ation	-5569
▁देखो	-5570
चन्द्र	-5571
यक्तिक	-5572
▁ज्योति	-5573
▁चुक	-5574
संबंध	-5575
▁आपसी	-5576
▁लेंगे	-5577
▁प्रतिरोध	-5578
वाँ	-5579
क्की	-5580
▁असह	-5581
▁मस्	-5582
▁कृति	-5583
▁संग्रहालय	-5584
क्सा	-5585
ार्इ	-5586
कियों	-5587
▁अतीत	-5588
▁ब्राउ	-5589
▁अभ्यास	-5590
▁भावनाओं	-5591
▁असामान्य	-5592
▁तू	-5593
दूरी	-5594
ियुक्त	-5595
▁परिस्थिति	-5596
टिक	-5597
▁बेर	-5598
वस्तु	-5599
▁उपेक्षा	-5600
▁कालेज	-5601
ंडिक	-5602
नाइट	-5603
▁चमक	-5604
▁अगली	-5605
▁कुरान	-5606
▁सीखने	-5607
▁हिमाचल	-5608
▁दर्शाता	-5609
हीत	-5610
▁रूस	-5611
▁ईमान	-5612
▁अध्या	-5613
▁पूर्वा	-5614
▁ताज	-5615
▁अंडे	-5616
▁कैंसर	-5617
▁इकाइयों	-5618
▁विनियमन	-5619
▁सोसाइटी	-5620
सेस	-5621
▁जमानत	-5622
ेस	-5623
▁मध	-5624
ब्ल्यू	-5625
ंपा	-5626
▁फाइ	-5627
▁यानी	-5628
▁अपवाद	-5629
▁मतदान	-5630
एमई	-5631
▁अजी	-5632
▁पुण	-5633
▁रिस	-5634
▁ईंधन	-5635
▁गणित	-5636
▁सुनने	-5637
▁विष्णु	-5638
▁तदनुसार	-5639
▁विनिधान	-5640
aa	-5641
खर	-5642
है	-5643
संख	-5644
▁अपी	-5645
▁शुक्र	-5646
▁मादा	-5647
परिवर्	-5648
▁खतरनाक	-5649
▁नदियों	-5650
▁अपेक्षाकृत	-5651
▁नकद	-5652
▁शासक	-5653
▁तीसरा	-5654
▁मतभेद	-5655
▁दिखाने	-5656
▁परेशान	-5657
▁क्रेडिट	-5658
▁मेघ	-5659
▁चावल	-5660
▁रिकॉर्ड	-5661
कंप	-5662
ज्ज	-5663
साई	-5664
हाल	-5665
▁डो	-5666
▁सूच	-5667
▁गहरे	-5668
▁गीता	-5669
▁त्वरित	-5670
ोसिए	-5671
▁असल	-5672
▁अंकित	-5673
▁मानदंड	-5674
ढ़ा	-5675
▁टू	-5676
देशी	-5677
▁नवी	-5678
▁बनना	-5679
▁समेक	-5680
▁हाउस	-5681
▁संवेद	-5682
▁उड़ीसा	-5683
▁लेखकों	-5684
कै	-5685
▁जॉ	-5686
▁संब	-5687
▁बुरी	-5688
▁पैकेज	-5689
▁शेयरों	-5690
▁सुन्दर	-5691
▁रजिस्टर	-5692
▁खर	-5693
▁लीग	-5694
▁जंगल	-5695
▁निबंध	-5696
▁अभिकरण	-5697
▁अभिप्र	-5698
▁दीक्षा	-5699
▁रामायण	-5700
ार्थियों	-5701
▁प्रक्रम	-5702
चाप	-5703
▁अफ़	-5704
▁वन्य	-5705
▁कार्मिक	-5706
▁मुख्यतः	-5707
िथ	-5708
्द	-5709
रखाव	-5710
पुरुष	-5711
▁निधन	-5712
▁रखती	-5713
▁लगाए	-5714
▁मंजूरी	-5715
▁अनुक्रम	-5716
▁पूर्ववर्ती	-5717
▁लंबा	-5718
▁अर्जन	-5719
आईआर	-5720
▁बयान	-5721
▁मंडप	-5722
▁मौका	-5723
ूण	-5724
▁कीम	-5725
▁धूम	-5726
000	-5727
ध्व	-5728
पीसी	-5729
▁खबर	-5730
▁परत	-5731
▁पेर	-5732
व्यापी	-5733
▁मासिक	-5734
▁प्रचालन	-5735
▁धम	-5736
सायनिक	-5737
▁आयुर्	-5738
▁दशकों	-5739
▁लंबाई	-5740
ानुभूति	-5741
▁उद्यमों	-5742
ोपण	-5743
ामिन	-5744
▁खुला	-5745
▁चेन्न	-5746
▁ऊतक	-5747
▁पाना	-5748
त्यक्ष	-5749
▁पिछली	-5750
क्तियों	-5751
▁प्रबंधक	-5752
▁रन	-5753
स्परिक	-5754
▁गर्मी	-5755
▁जुर्म	-5756
▁बोलते	-5757
▁भाग्य	-5758
▁आंकड़े	-5759
▁डाक्टर	-5760
▁विनिया	-5761
▁केंद्रों	-5762
▁अध्यक्षता	-5763
▁व्याख्यान	-5764
कीन	-5765
क्कर	-5766
▁टिकट	-5767
▁अस्वीकार	-5768
▁v	-5769
▁वजन	-5770
▁गोरा	-5771
▁तनाव	-5772
▁बचने	-5773
▁श्वेत	-5774
्यात्मक	-5775
▁अज्ञात	-5776
▁संकल्पना	-5777
▁व्युत्पन्न	-5778
पृ	-5779
▁त्रि	-5780
▁साथी	-5781
ानुसार	-5782
▁बचाने	-5783
▁सितम्बर	-5784
▁निर्णयों	-5785
ुरत	-5786
ेंच	-5787
▁गलती	-5788
▁सेक्टर	-5789
▁राज्यक्षेत्र	-5790
फ्र	-5791
ोचित	-5792
▁सबूत	-5793
्योंकि	-5794
▁फायदा	-5795
▁निकलने	-5796
▁लक्ष्यों	-5797
दू	-5798
▁लिखते	-5799
ष्म	-5800
▁अच	-5801
ाधिक	-5802
प्रथम	-5803
कारिता	-5804
▁तीर्थ	-5805
▁अन्तिम	-5806
▁वार्ता	-5807
▁आस्तियों	-5808
▁खर्	-5809
▁पादप	-5810
▁शाखाओं	-5811
▁हथियार	-5812
▁आमंत्रित	-5813
▁प्रणालियों	-5814
सेट	-5815
नीतिक	-5816
पत्ति	-5817
▁टीका	-5818
▁सोने	-5819
वानिवृ	-5820
▁चलाया	-5821
मैन	-5822
▁मौत	-5823
▁काली	-5824
▁विजे	-5825
▁अपितु	-5826
▁अनुमोदित	-5827
▁सम्मानित	-5828
प्रदायिक	-5829
▁संक्षेप	-5830
▁तुम्हारी	-5831
ur	-5832
ंर	-5833
▁लोप	-5834
सिद्ध	-5835
▁आयकर	-5836
▁इन्द्र	-5837
▁सहेज	-5838
▁पत्रों	-5839
▁प्रसारण	-5840
लभ	-5841
▁आदर	-5842
▁बंबई	-5843
▁पोस्ट	-5844
ांसी	-5845
▁अहं	-5846
▁फुट	-5847
▁वाम	-5848
▁स्टा	-5849
▁संगणक	-5850
▁आकर्षण	-5851
▁रिजर्व	-5852
पद	-5853
▁नल	-5854
▁खनिज	-5855
▁रिज़	-5856
▁अग्नि	-5857
▁अवरोध	-5858
भास	-5859
▁आवि	-5860
▁मरम्मत	-5861
▁पुस्तकालय	-5862
प्ल	-5863
▁ढल	-5864
▁ज़ि	-5865
▁पुराना	-5866
▁अर्ज	-5867
▁स्वप्न	-5868
१४	-5869
मों	-5870
▁इसको	-5871
▁अनन्त	-5872
▁पक्षी	-5873
▁संगणना	-5874
▁साक्षा	-5875
▁अभियोजन	-5876
▁चाहूंगा	-5877
▁विकासशील	-5878
आत	-5879
▁यान	-5880
▁वरन्	-5881
▁आमदनी	-5882
▁नाबार्ड	-5883
im	-5884
▁मोहन	-5885
▁लगने	-5886
▁सृजित	-5887
▁प्रेमच	-5888
▁सभापति	-5889
▁ड़	-5890
▁नकदी	-5891
▁प्रोटीन	-5892
िट्	-5893
▁कच	-5894
▁पन	-5895
ण्डल	-5896
▁हिल	-5897
▁उपरो	-5898
▁कमीशन	-5899
ग्न	-5900
▁हाला	-5901
▁पुष्प	-5902
▁सौंदर	-5903
▁हरिया	-5904
हता	-5905
▁टर्म	-5906
▁पाठक	-5907
▁इंजीनियरी	-5908
▁धान	-5909
▁पारि	-5910
▁स्वै	-5911
▁शिल्प	-5912
▁अंतरित	-5913
घन	-5914
गें	-5915
रोग	-5916
ल्फ	-5917
▁छत	-5918
▁अक्षर	-5919
▁कवियों	-5920
▁मुहम्मद	-5921
भु	-5922
विंद	-5923
▁जानवरों	-5924
▁संतुष्ट	-5925
कारा	-5926
ूँगा	-5927
ेनिस	-5928
▁किल	-5929
▁बलि	-5930
▁तुमने	-5931
▁समर्पण	-5932
वेट	-5933
▁किश	-5934
▁एण्ड	-5935
▁पैनल	-5936
▁अनुया	-5937
▁सोचते	-5938
▁पेट्रोल	-5939
१क	-5940
▁नती	-5941
▁होटल	-5942
▁शासित	-5943
▁संग्रहण	-5944
▁बल्लेबाज	-5945
संघ	-5946
▁समू	-5947
▁जाया	-5948
▁पचास	-5949
▁विनियामक	-5950
ैली	-5951
▁दांत	-5952
स्तीनी	-5953
▁प्लेट	-5954
▁फसलों	-5955
▁लिखना	-5956
▁पारस्परिक	-5957
▁प्रशिक्षित	-5958
▁पॉ	-5959
▁नमक	-5960
स्तीन	-5961
▁निरूप	-5962
▁लाभों	-5963
▁वैष्ण	-5964
▁दांडिक	-5965
▁पंजाबी	-5966
▁उपरोक्त	-5967
▁डिप	-5968
▁बडा	-5969
▁हड़	-5970
▁अद्व	-5971
▁कराई	-5972
▁नर्म	-5973
▁अधीनस्थ	-5974
▁परिपक्व	-5975
▁आकांक्षा	-5976
▁कम्प्यूटर	-5977
शिक्ष	-5978
बरा	-5979
बिल	-5980
▁मं	-5981
तकों	-5982
▁कहे	-5983
योग्य	-5984
▁श्रो	-5985
▁कृत्य	-5986
▁स्तरीय	-5987
▁स्कूलों	-5988
▁अवसंरचना	-5989
▁निष्पक्ष	-5990
▁ग्रे	-5991
▁टेक्	-5992
▁शादी	-5993
▁दिखाएँ	-5994
▁उत्पादकता	-5995
▁शर	-5996
ानाथ	-5997
▁दमन	-5998
▁दाम	-5999
दर्शिता	-6000
काव	-6001
भोग	-6002
ूकता	-6003
विश्वास	-6004
▁संयोजन	-6005
▁प्रोटोक	-6006
▁प्रावधानों	-6007
कुछ	-6008
िक्र	-6009
दर्शक	-6010
▁दौड़	-6011
▁समस्याएं	-6012
टाई	-6013
लाल	-6014
शाही	-6015
▁सेंट	-6016
▁शर्तें	-6017
दूत	-6018
क्षरता	-6019
▁नारायण	-6020
▁उन्होनें	-6021
▁आधा	-6022
मूल्य	-6023
▁नर्स	-6024
▁स्वि	-6025
▁गर्भा	-6026
▁जानना	-6027
त्तियों	-6028
▁छुट्टी	-6029
▁परिकल्पना	-6030
खिक	-6031
ोटे	-6032
▁तरल	-6033
▁वेश	-6034
▁बनाती	-6035
▁रचनाओं	-6036
▁स्पर्श	-6037
▁पुस्तकें	-6038
▁पूर्णतया	-6039
▁क्रांतिकारी	-6040
▁नोक	-6041
▁बटन	-6042
▁विट	-6043
नियां	-6044
भिन्न	-6045
संचार	-6046
▁भरने	-6047
uot	-6048
▁of	-6049
▁दलों	-6050
▁निचले	-6051
▁बताते	-6052
▁लम्बे	-6053
▁परिश्रम	-6054
▁महासागर	-6055
डीएफ	-6056
प्रण	-6057
रांत	-6058
वाणी	-6059
▁सज्	-6060
▁परंपरागत	-6061
ुड	-6062
ेडकर	-6063
▁तीसरी	-6064
▁संचित	-6065
▁अधिवेशन	-6066
▁प्रतिस्पर्धा	-6067
▁आजाद	-6068
▁रासायनिक	-6069
▁सहानुभूति	-6070
वानी	-6071
▁अमल	-6072
▁ऊंची	-6073
▁मिटा	-6074
▁सबके	-6075
▁सूजन	-6076
▁कलाकार	-6077
▁सार्वभौ	-6078
▁मील	-6079
▁शरण	-6080
▁कनाडा	-6081
▁संप्र	-6082
▁सैनिकों	-6083
▁इंत	-6084
▁तंग	-6085
▁सेन	-6086
▁सकने	-6087
▁निर्ण	-6088
▁बहादुर	-6089
▁कविताओं	-6090
▁विस्फोट	-6091
शित	-6092
▁आवेदक	-6093
▁ऑडियो	-6094
▁विधाय	-6095
किम	-6096
बाल	-6097
▁जुट	-6098
▁प्राइ	-6099
▁सत्या	-6100
▁निपटने	-6101
▁पूर्णता	-6102
▁विदेशों	-6103
▁स्वाधीनता	-6104
▁कार्यालयों	-6105
▁वास्तविकता	-6106
यो	-6107
कने	-6108
ड्र	-6109
यंती	-6110
▁ह्र	-6111
▁समर्थित	-6112
हृ	-6113
▁अड्ड	-6114
▁ऊंचे	-6115
▁इनपुट	-6116
▁कीजिए	-6117
▁यहूदी	-6118
▁विधायी	-6119
▁लेखापरी	-6120
▁प्रभार्य	-6121
▁फिलीस्तीनी	-6122
▁सफलतापूर्वक	-6123
फ्	-6124
▁फ़ॉ	-6125
▁बसव	-6126
▁सुश्री	-6127
▁माइक्रो	-6128
▁रिज़र्व	-6129
स्तर	-6130
▁उपज	-6131
▁क्यू	-6132
तापूर्वक	-6133
▁वैयक्तिक	-6134
किसी	-6135
▁असी	-6136
▁शेर	-6137
▁सार्थ	-6138
र्ता	-6139
▁मैच	-6140
▁दत्त	-6141
▁भरोसा	-6142
▁सौंदर्य	-6143
हवीं	-6144
▁एक्	-6145
▁बढा	-6146
▁प्राणी	-6147
▁नियंत्रक	-6148
▁अंग्रेज़ी	-6149
▁कार्यकारी	-6150
’’	-6151
▁आधे	-6152
▁मोटे	-6153
▁उन्हे	-6154
▁पढ़ाई	-6155
▁सेवानिवृ	-6156
थन	-6157
ुश	-6158
शनल	-6159
▁बिट	-6160
▁मुकाबले	-6161
▁रूपरेखा	-6162
▁वनस्पति	-6163
▁विन्यास	-6164
▁सम्पन्न	-6165
मेह	-6166
लेखन	-6167
▁रवि	-6168
बुद्ध	-6169
▁इन्हीं	-6170
▁वितरित	-6171
▁संदत्त	-6172
ंचल	-6173
चेंज	-6174
▁जाह	-6175
▁अपीलार्थी	-6176
ro	-6177
वीय	-6178
ूलन	-6179
▁रॉ	-6180
▁अवकाश	-6181
▁कारगर	-6182
▁मजदूरी	-6183
▁अनुज्ञा	-6184
▁आपदा	-6185
▁ट्रेड	-6186
▁विधियां	-6187
ैट	-6188
बान	-6189
▁भरपूर	-6190
▁उपग्रह	-6191
▁हिन्दुस्तान	-6192
▁बुक	-6193
▁नमूने	-6194
▁पार्ट	-6195
▁उत्कृष्टता	-6196
ैस	-6197
वत्	-6198
आईसी	-6199
▁इसल	-6200
▁सोल	-6201
▁कारख	-6202
▁मोड़	-6203
▁मोर्	-6204
▁टेलीफोन	-6205
रीन	-6206
टकों	-6207
हाबाद	-6208
▁अव्य	-6209
▁अधिसूचित	-6210
▁O	-6211
▁नौकर	-6212
▁उपभोग	-6213
▁मस्जि	-6214
▁मुलाकात	-6215
▁प्रयोक्ता	-6216
▁ढेर	-6217
▁दंत	-6218
ुक़्त	-6219
▁गोली	-6220
▁उठाना	-6221
▁जरूरतों	-6222
▁तत्कालीन	-6223
▁स्वचालित	-6224
▁।	-6225
प्रा	-6226
▁कमांड	-6227
▁मानने	-6228
▁गणतंत्र	-6229
▁प्रासंगिक	-6230
ृंग	-6231
▁इक	-6232
ायिक	-6233
▁विघ	-6234
▁स्ने	-6235
▁जिलों	-6236
▁मिलना	-6237
श्रेष्ठ	-6238
▁नवान्वेष	-6239
ay	-6240
वीर	-6241
▁टक	-6242
▁नु	-6243
▁केश	-6244
▁आन्द	-6245
▁विषा	-6246
......	-6247
▁पड़ने	-6248
▁भत्ता	-6249
▁मराठी	-6250
▁इलाकों	-6251
▁कार्बन	-6252
▁अनुशासन	-6253
▁भागीदार	-6254
▁गिरफ्तारी	-6255
हरण	-6256
िमा	-6257
▁in	-6258
▁बाढ़	-6259
▁बैठा	-6260
▁आवश्य	-6261
▁रूपये	-6262
▁बढ़ाना	-6263
▁जागरूकता	-6264
▁at	-6265
द्दी	-6266
र्फ़	-6267
▁खुली	-6268
▁जंगली	-6269
▁बढ़ता	-6270
वैज्ञानिक	-6271
▁एजेंसियों	-6272
▁विधा	-6273
▁उपदेश	-6274
▁थोड़े	-6275
ैण्ड	-6276
▁घात	-6277
▁घुट	-6278
▁छिप	-6279
▁सकी	-6280
▁जल्द	-6281
▁दिल्	-6282
गित	-6283
▁लड	-6284
्रोत	-6285
▁जगत	-6286
लियों	-6287
▁यहीं	-6288
▁ग्रस्त	-6289
ादेश	-6290
▁इराक	-6291
▁बर्फ	-6292
क्रामक	-6293
▁नं	-6294
सूची	-6295
▁कड़	-6296
▁अभिने	-6297
▁हानिक	-6298
▁इस्पात	-6299
▁परिणामों	-6300
▁प्रविष्ट	-6301
ालों	-6302
▁जरा	-6303
▁प्य	-6304
▁वसा	-6305
▁आजकल	-6306
▁प्रव	-6307
▁मानस	-6308
▁वैसा	-6309
▁जयंती	-6310
त्रियों	-6311
चु	-6312
जान	-6313
्चर	-6314
▁आँख	-6315
▁बहन	-6316
▁राधा	-6317
▁स्ट्र	-6318
▁अकादमी	-6319
▁निराशा	-6320
▁वर्गीकरण	-6321
एगा	-6322
बीन	-6323
ल्ली	-6324
सूत्र	-6325
▁जोड़ें	-6326
▁राजमार्ग	-6327
▁ठे	-6328
▁चिर	-6329
▁भूख	-6330
▁क्रय	-6331
▁विलय	-6332
▁दूरस्थ	-6333
▁सम्राट	-6334
▁एकत्रित	-6335
▁व्यष्टि	-6336
कोष	-6337
राक	-6338
ोहर	-6339
▁छू	-6340
▁खेत	-6341
▁कराता	-6342
▁सदनों	-6343
▁कनेक्ट	-6344
▁व्यस्त	-6345
▁पहुंचाने	-6346
िनल	-6347
काव्य	-6348
▁राजी	-6349
▁लाखों	-6350
▁खरीदने	-6351
▁चक	-6352
▁कंट	-6353
▁नाक	-6354
स्मिक	-6355
पाई	-6356
लाइ	-6357
लोक	-6358
▁अतिक	-6359
▁मिस्र	-6360
▁वृत्ति	-6361
▁ज्यादातर	-6362
▁सिफारिशों	-6363
मुखी	-6364
▁अपार	-6365
▁शोषण	-6366
▁समता	-6367
▁अधिकृत	-6368
▁विडियो	-6369
ab	-6370
▁घोष	-6371
▁बहि	-6372
▁नोटिस	-6373
▁बताने	-6374
▁आनुवंश	-6375
▁पार्श्व	-6376
सास	-6377
▁“%	-6378
त्रि	-6379
चरिता	-6380
युद्ध	-6381
▁इंकार	-6382
▁साक्ष	-6383
▁स्रोतों	-6384
▁निर्वाचित	-6385
ूरो	-6386
▁नो	-6387
▁बत	-6388
रानी	-6389
वर्त	-6390
निहित	-6391
▁आईटी	-6392
▁मेहन	-6393
,–	-6394
.-	-6395
लील	-6396
वेल	-6397
ोरम	-6398
▁गि	-6399
ब्बे	-6400
▁ठाक	-6401
▁बचपन	-6402
स्थापन	-6403
▁एशियाई	-6404
जक	-6405
▁डाले	-6406
▁समझना	-6407
▁स्थूल	-6408
▁ज्ञापन	-6409
किट	-6410
▁अरबी	-6411
▁आंखों	-6412
▁तालाब	-6413
▁सौभाग्य	-6414
▁अभिव्यक्त	-6415
▁घन	-6416
वकों	-6417
▁उदय	-6418
▁कबीर	-6419
▁किंग	-6420
▁टाइप	-6421
▁दस्तावेज़	-6422
▁l	-6423
▁देह	-6424
▁बड़	-6425
पोर्ट	-6426
▁किमी	-6427
▁आकृति	-6428
▁अवमानना	-6429
▁सुचरिता	-6430
▁अफगानिस्तान	-6431
ड्	-6432
विल	-6433
वर्ग	-6434
▁बेस	-6435
▁लाह	-6436
▁भव्य	-6437
▁दुर्लभ	-6438
▁शास्त्री	-6439
▁तप	-6440
▁घृणा	-6441
▁अनुज्ञ	-6442
▁पुनर्ग	-6443
महल	-6444
शनी	-6445
▁मंग	-6446
▁औषधि	-6447
▁भ्रम	-6448
▁संगत	-6449
▁आकर्षक	-6450
▁मिश्रित	-6451
▁दया	-6452
▁टाइम्स	-6453
▁आकस्मिक	-6454
▁विज्ञापन	-6455
्टे	-6456
स्पी	-6457
▁कंध	-6458
▁गोद	-6459
▁ग्ल	-6460
▁सचे	-6461
▁प्लग	-6462
▁सबको	-6463
▁अंगों	-6464
▁जानवर	-6465
▁टेनिस	-6466
▁अतिमान	-6467
फ़ा	-6468
▁गंध	-6469
▁नजदी	-6470
▁नज़र	-6471
▁सन्द	-6472
▁चित्रण	-6473
▁उपलब्धियों	-6474
णुओं	-6475
▁वरीय	-6476
च्छेदन	-6477
▁वैष्णव	-6478
जाम	-6479
द्म	-6480
▁अँ	-6481
▁घाव	-6482
▁नाय	-6483
▁यूनियन	-6484
▁सुधारने	-6485
▁निवेशकों	-6486
▁पोष	-6487
▁बोझ	-6488
ुपयोग	-6489
क्साइड	-6490
▁असंभव	-6491
▁पुराण	-6492
▁बुलाया	-6493
▁समीकरण	-6494
ठार	-6495
ेटी	-6496
▁नम	-6497
ख़्या	-6498
▁माँग	-6499
▁चिंतन	-6500
▁टैगोर	-6501
▁सुदूर	-6502
▁विकलांग	-6503
▁राष्ट्री	-6504
सो	-6505
ज़न	-6506
▁ओपन	-6507
▁गुट	-6508
्यूशन	-6509
▁विकि	-6510
▁सिरे	-6511
ंबेडकर	-6512
▁अन्याय	-6513
१५	-6514
▁ढूंढ	-6515
▁मास्ट	-6516
,000	-6517
ंबित	-6518
▁बीत	-6519
▁अमृत	-6520
ोसिएशन	-6521
▁जैसाकि	-6522
▁अप्रत्यक्ष	-6523
णता	-6524
भुत	-6525
म्मा	-6526
▁खार	-6527
▁पते	-6528
▁पेय	-6529
विशेष	-6530
▁ऊंचा	-6531
▁हुये	-6532
▁लम्बी	-6533
▁सहभाग	-6534
▁श्रद्धा	-6535
▁क़्योंकि	-6536
▁यौन	-6537
▁वाक्य	-6538
▁इंदिरा	-6539
▁उन्नयन	-6540
▁डिजिटल	-6541
▁यात्री	-6542
▁कर्तव्यों	-6543
▁सर्वप्रथम	-6544
ut	-6545
टित	-6546
ोगे	-6547
्रेम	-6548
▁अनुकरण	-6549
▁इसलिये	-6550
रात	-6551
लित	-6552
▁चरम	-6553
▁बैक	-6554
▁डालर	-6555
▁सीधी	-6556
▁इनकार	-6557
▁उत्सुक	-6558
▁ग्रन्थ	-6559
▁समकालीन	-6560
बन्धन	-6561
▁अक्ट	-6562
▁काफ़ी	-6563
▁माहौल	-6564
▁संघीय	-6565
▁उपनिवेश	-6566
▁कृत्यों	-6567
▁सशस्त्र	-6568
▁प्रतिनिधियों	-6569
AME	-6570
टने	-6571
िवी	-6572
▁ओब	-6573
भांश	-6574
शंकर	-6575
▁सोचने	-6576
▁स्वर्ग	-6577
▁इस्लामवादी	-6578
▁सर्वश्रेष्ठ	-6579
▁दह	-6580
हारी	-6581
▁देन	-6582
चिकित	-6583
▁निषे	-6584
▁नमूना	-6585
▁असफलता	-6586
▁गोपनीय	-6587
▁दूरसंचार	-6588
ँह	-6589
▁/	-6590
ोन्	-6591
▁पीने	-6592
▁निक्ष	-6593
▁एससीसी	-6594
▁प्रतिल	-6595
▁प्रतिवर्ष	-6596
▁रहीं	-6597
▁सुपु	-6598
▁ठाकुर	-6599
▁फूलों	-6600
▁सच्चे	-6601
▁प्रबन्ध	-6602
▁अहमद	-6603
▁सेशन	-6604
▁गाँधी	-6605
▁प्राप	-6606
▁त्रुटिः	-6607
▁रै	-6608
▁शेख	-6609
▁हमले	-6610
▁नियोजन	-6611
▁बाज़ार	-6612
▁शस्त्र	-6613
▁अवस्थित	-6614
▁प्रतिबद्धता	-6615
▁गठ	-6616
िप्ट	-6617
संदेह	-6618
▁ठहर	-6619
▁देखिए	-6620
ष्टाचार	-6621
▁वक्तव्य	-6622
▁सदस्यता	-6623
इंड	-6624
कोर	-6625
▁देनी	-6626
▁बच्चन	-6627
ोसी	-6628
▁माउ	-6629
▁भिन्	-6630
▁सफाई	-6631
▁कमेटी	-6632
▁अहिंसा	-6633
▁अनिवासी	-6634
▁हरियाणा	-6635
▁संस्थागत	-6636
▁ह्य	-6637
▁जोड़े	-6638
▁वृत्त	-6639
▁अपूर्ण	-6640
▁कहानियों	-6641
▁उत्तराधिकार	-6642
ंकी	-6643
नीत	-6644
▁चित	-6645
▁सोव	-6646
▁निस्	-6647
▁मेगा	-6648
▁उत्सव	-6649
▁कच्चे	-6650
▁शिष्ट	-6651
em	-6652
▁ः	-6653
पटल	-6654
भक्त	-6655
▁लोह	-6656
▁वें	-6657
▁मारे	-6658
▁सामुद	-6659
▁नेताजी	-6660
▁अक्टूबर	-6661
▁अन्तर्राष्ट्रीय	-6662
▁r	-6663
ंबा	-6664
िणी	-6665
चंद्र	-6666
▁भेजी	-6667
▁महान्	-6668
▁सच्चाई	-6669
▁संग्राम	-6670
पाट	-6671
समा	-6672
▁रम	-6673
▁गिन	-6674
▁भीड़	-6675
▁अपनाई	-6676
▁ग्रीन	-6677
▁सड़कों	-6678
▁देवताओं	-6679
▁प्रतिरक्षा	-6680
दाबाद	-6681
▁एक्ट	-6682
▁हर्ष	-6683
▁शुरूआत	-6684
▁सर्विस	-6685
▁अधिनिर्	-6686
▁राजकुमार	-6687
▁संव्यवहार	-6688
▁दरबार	-6689
▁बताना	-6690
▁निमित्त	-6691
▁प्रत्यर्थी	-6692
▁हॉ	-6693
गारों	-6694
निर्माण	-6695
▁सुधारों	-6696
ter	-6697
ट्स	-6698
ेन्ट	-6699
▁टैब	-6700
▁बेश	-6701
▁समापन	-6702
गृह	-6703
परक	-6704
देवी	-6705
▁मुक	-6706
▁नामा	-6707
▁नींव	-6708
▁प्ला	-6709
▁संकलन	-6710
धिकारिक	-6711
▁कौंसिल	-6712
▁बांग्लादेश	-6713
ap	-6714
▁छः	-6715
▁दब	-6716
▁दम	-6717
▁व्	-6718
▁अवर	-6719
▁वहन	-6720
▁आवरण	-6721
▁पेशी	-6722
आर्थिक	-6723
▁शर्मा	-6724
▁अनुभूति	-6725
ताएं	-6726
िन्त	-6727
ॉल्ट	-6728
्याल	-6729
▁क्रूर	-6730
▁केन्द्रों	-6731
▁पूर्वोक्त	-6732
▁क्रियान्वयन	-6733
un	-6734
नियम	-6735
भूषण	-6736
समूह	-6737
▁कोमल	-6738
▁सांवि	-6739
▁जिंदगी	-6740
▁निरसित	-6741
▁निर्गम	-6742
▁निर्धन	-6743
१वीं	-6744
▁ऋतु	-6745
▁बेटे	-6746
▁न्यूय	-6747
▁किराया	-6748
▁परिसंप	-6749
▁मोहम्मद	-6750
▁इलाहाबाद	-6751
▁साक्षरता	-6752
▁पुनरीक्षण	-6753
▁याचिकाकर्ता	-6754
२क	-6755
मंच	-6756
ंटों	-6757
▁घुस	-6758
▁भेदभाव	-6759
▁मामूली	-6760
▁समेकित	-6761
▁सिर्फ़	-6762
ंय	-6763
मीन	-6764
▁अजीब	-6765
▁रोचक	-6766
▁जाहिर	-6767
ब्ब	-6768
आईटी	-6769
▁जबर	-6770
▁अब्दुल	-6771
▁ज़रूरत	-6772
▁आंकड़ों	-6773
▁तुम्हारा	-6774
▁नियन्त्र	-6775
▁पुनर्वास	-6776
▁संवेदनशील	-6777
▁गेह	-6778
▁असंत	-6779
▁बेहद	-6780
▁राजाओं	-6781
▁हिस्सों	-6782
▁समाजवादी	-6783
hr	-6784
बाबू	-6785
शिंग	-6786
▁गरि	-6787
म्भीर	-6788
▁छिपा	-6789
▁परित	-6790
▁ब्यौ	-6791
▁मंगल	-6792
▁इंजीनियरिंग	-6793
ंडे	-6794
िज़	-6795
ोत्तर	-6796
▁आचार	-6797
▁गाँव	-6798
▁पागल	-6799
▁रेगि	-6800
भूतियों	-6801
▁उद्भूत	-6802
▁लाभांश	-6803
▁प्रजाति	-6804
▁अधिनियमित	-6805
▁पेट्रोलियम	-6806
गंध	-6807
बरी	-6808
▁जॉन	-6809
▁मक्	-6810
▁शब्	-6811
त्स्य	-6812
▁कब्जा	-6813
▁खासकर	-6814
▁नाटकों	-6815
▁निकायों	-6816
शक	-6817
कक्ष	-6818
▁नवा	-6819
▁राव	-6820
रक्षण	-6821
ष्कृत	-6822
▁बताता	-6823
▁धर्मों	-6824
▁मधुमेह	-6825
▁सार्थक	-6826
खार	-6827
णित	-6828
▁टो	-6829
ैक्ट	-6830
▁देगी	-6831
▁सुलझ	-6832
▁निभाई	-6833
▁बम्बई	-6834
▁विटामिन	-6835
▁मंत्रियों	-6836
//	-6837
काज	-6838
लंका	-6839
सरकारी	-6840
▁मुहैया	-6841
परिवर्तन	-6842
लाभ	-6843
▁an	-6844
किया	-6845
▁चौथा	-6846
▁हड्डी	-6847
▁मित्रता	-6848
▁राजपत्र	-6849
▁हिन्दुओं	-6850
▁साक्षात्कार	-6851
गड़	-6852
सेवा	-6853
मुक्त	-6854
▁आगमन	-6855
▁उठता	-6856
▁गूगल	-6857
▁सिखा	-6858
▁डॉक्टर	-6859
▁श्रद्ध	-6860
▁सत्यापन	-6861
▁मास्टर्स	-6862
▁कोट	-6863
▁सोम	-6864
▁सेवक	-6865
▁पीछला	-6866
▁नीतिगत	-6867
▁मस्जिद	-6868
▁आन्दोलन	-6869
▁ब्रह्मा	-6870
▁भ्रष्टाचार	-6871
tr	-6872
▁:-	-6873
▁गड़	-6874
▁निल	-6875
▁नायक	-6876
▁पराज	-6877
▁सौंपा	-6878
▁स्वाय	-6879
▁अभिदाय	-6880
▁मजदूरों	-6881
▁अधिकाधिक	-6882
▁मनुष्यों	-6883
▁मुख्यालय	-6884
▁मरी	-6885
▁उन्मूलन	-6886
▁खोजने	-6887
▁बकाया	-6888
▁बेचने	-6889
▁बिन्दु	-6890
▁रखरखाव	-6891
▁आश्वासन	-6892
▁विस्तारित	-6893
.–	-6894
ताप	-6895
माला	-6896
▁चलती	-6897
दृष्टि	-6898
▁आश्रम	-6899
▁उपाधि	-6900
▁रोगियों	-6901
▁महाद्वीप	-6902
▁संस्थापित	-6903
मोरी	-6904
▁अद्	-6905
▁आदत	-6906
▁नक्	-6907
▁लाई	-6908
▁रोशनी	-6909
▁इकट्ठा	-6910
▁प्रसंग	-6911
▁मिथ्या	-6912
▁उपयोक्ता	-6913
▁दीक्षांत	-6914
राष्ट्रपति	-6915
ir	-6916
सेल	-6917
▁अनाव	-6918
▁अभिल	-6919
▁कोने	-6920
▁वर्न	-6921
प्रदेश	-6922
भारतीय	-6923
▁गरिमा	-6924
▁बॉक्स	-6925
▁विधवा	-6926
▁श्रेण	-6927
▁अज्ञान	-6928
▁विकिरण	-6929
▁समायोजन	-6930
▁अनिश्चित	-6931
▁फिलीस्तीन	-6932
▁प्रस्तावों	-6933
शियों	-6934
▁अशोक	-6935
▁शराब	-6936
▁सिने	-6937
▁असमान	-6938
▁अभियोग	-6939
▁अवलोकन	-6940
▁पब्लिक	-6941
▁काउंसिल	-6942
▁शिकायतों	-6943
▁प्रोटोकॉल	-6944
▁मैत्रीपूर्ण	-6945
आव	-6946
पह	-6947
केल	-6948
▁समाह	-6949
क्टरों	-6950
धारकों	-6951
▁ओबामा	-6952
▁प्रसव	-6953
▁मनाया	-6954
▁पहुँचा	-6955
▁पेटेंट	-6956
▁व्यवसा	-6957
▁)	-6958
पटा	-6959
▁टि	-6960
बर्ट	-6961
▁एससी	-6962
▁चुंब	-6963
▁इंगित	-6964
▁गम्भीर	-6965
▁एक्सचेंज	-6966
▁विधानमंडल	-6967
”।	-6968
ओएस	-6969
म्बा	-6970
ियाई	-6971
▁बृह	-6972
▁विच	-6973
▁मजबूर	-6974
▁निर्वहन	-6975
▁मनोरंजन	-6976
▁सम्बद्ध	-6977
▁उत्सर्जन	-6978
डों	-6979
राई	-6980
▁उग	-6981
▁आर्य	-6982
▁मूत्र	-6983
▁जीवाणु	-6984
▁मुद्दा	-6985
▁रिश्ते	-6986
▁कठिनाइयों	-6987
अर्	-6988
▁घाट	-6989
▁हाई	-6990
▁क्ला	-6991
▁गोवा	-6992
▁बेटी	-6993
▁आधिकारिक	-6994
ce	-6995
सात	-6996
▁बिन	-6997
यंत्र	-6998
▁दौरा	-6999
▁बांट	-7000
▁लार्ड	-7001
▁सालों	-7002
हान	-7003
ुद्व	-7004
मार्क	-7005
ान्तर	-7006
▁अश्व	-7007
▁ऊँचा	-7008
क्षमता	-7009
▁साकार	-7010
▁उपयोगिता	-7011
▁साझीदारी	-7012
धारक	-7013
ापुर	-7014
▁दाह	-7015
▁पतन	-7016
ेन्द्र	-7017
▁स्क्र	-7018
▁स्नेह	-7019
▁बादशाह	-7020
▁शास्ति	-7021
▁सामर्थ	-7022
▁गर्भाशय	-7023
ुतोष	-7024
▁हंस	-7025
▁ध्रु	-7026
▁सन्न	-7027
▁निरन्तर	-7028
▁निर्दोष	-7029
▁मांसपेश	-7030
▁प्रक्षेप	-7031
▁स्वीकार्य	-7032
आन	-7033
ोई	-7034
निय	-7035
शिप	-7036
▁तह	-7037
▁कोर	-7038
▁द्रव	-7039
▁आशंका	-7040
▁कीटना	-7041
▁खर्चे	-7042
▁स्नातक	-7043
▁उपबंधित	-7044
▁सहभागिता	-7045
जाने	-7046
सन्द	-7047
▁धूल	-7048
▁रोड	-7049
पत्रों	-7050
▁उड़ान	-7051
▁प्रगा	-7052
▁मौखिक	-7053
▁तत्पश्च	-7054
▁स्थिरता	-7055
ैत	-7056
भाई	-7057
▁व्र	-7058
▁आगामी	-7059
▁स्मारक	-7060
▁आयुर्वेद	-7061
us	-7062
आइ	-7063
ंसी	-7064
खण्ड	-7065
देशक	-7066
▁हैस	-7067
▁दरों	-7068
▁आवासी	-7069
▁खातों	-7070
▁वरीयता	-7071
▁निधियों	-7072
EE	-7073
ब्ध	-7074
महा	-7075
्ती	-7076
▁इट	-7077
▁कन्न	-7078
▁डेस्	-7079
▁कोयला	-7080
▁मेहनत	-7081
▁शब्दा	-7082
▁सोचता	-7083
▁हिंदुओं	-7084
▁रोज़	-7085
▁छोड़ने	-7086
▁पंचायत	-7087
▁खिलाड़ी	-7088
▁विख्यात	-7089
▁पुनर्गठन	-7090
▁परियोजनाएं	-7091
▁पूर्वोत्तर	-7092
साह	-7093
मोहन	-7094
▁माय	-7095
▁सना	-7096
▁उपास	-7097
▁बोला	-7098
स्वामी	-7099
▁पेशेवर	-7100
▁पक्षियों	-7101
▁स्वच्छता	-7102
▁रसी	-7103
▁तमाम	-7104
▁निंदा	-7105
▁विभेद	-7106
oc	-7107
डऋ	-7108
दिर	-7109
ोधन	-7110
ोरों	-7111
▁केस	-7112
▁भरत	-7113
▁हरी	-7114
क्तता	-7115
▁योनि	-7116
▁अनुभवों	-7117
▁निर्माता	-7118
शर्	-7119
▁अनू	-7120
▁समझी	-7121
▁सुगम	-7122
▁दुग्ध	-7123
▁झिल्ली	-7124
▁दुरुपयोग	-7125
▁किलोग्राम	-7126
▁निर्देशित	-7127
मेर	-7128
िसा	-7129
▁किरण	-7130
▁बढ़े	-7131
▁रोका	-7132
▁स्वे	-7133
ढ़ियों	-7134
▁पृथक्	-7135
▁सुनकर	-7136
▁परिचालन	-7137
▁संवेदना	-7138
▁स्वतन्त्र	-7139
चौ	-7140
▁फेफ	-7141
▁क्री	-7142
▁घटित	-7143
संबंधी	-7144
▁फायदे	-7145
▁लौटने	-7146
िपीडिया	-7147
▁ब्यूरो	-7148
▁सांख्य	-7149
▁सत्याग्रह	-7150
ीर	-7151
जुट	-7152
▁(%	-7153
दिता	-7154
न्ता	-7155
स्पद	-7156
▁खपत	-7157
▁अण्ड	-7158
▁कहती	-7159
▁किराए	-7160
प्रणाली	-7161
▁संकीर्ण	-7162
▁विनियमित	-7163
▁श्रीलंका	-7164
▁देशवासियों	-7165
जाज	-7166
▁यों	-7167
▁परिन	-7168
▁संकाय	-7169
▁पुत्री	-7170
मलव	-7171
्सा	-7172
▁गले	-7173
ड्यूल	-7174
हीनता	-7175
▁चर्च	-7176
▁रहकर	-7177
▁आशुतोष	-7178
▁उन्नति	-7179
▁परिदृश्य	-7180
▁विमानक्षेत्र	-7181
एव	-7182
▁बट	-7183
कार्	-7184
▁टेल	-7185
▁किले	-7186
▁नारी	-7187
▁पूछता	-7188
▁सुपुर्द	-7189
▁पर्यटकों	-7190
▁विशेषाधिकार	-7191
सह	-7192
पेट	-7193
▁वध	-7194
▁निभ	-7195
▁ज्या	-7196
▁पुनर	-7197
▁सेवन	-7198
▁बंगला	-7199
▁अवधारित	-7200
ंड़	-7201
ूर्त	-7202
▁सटी	-7203
▁कर्ज	-7204
▁प्रगाढ़	-7205
▁सूचीबद्ध	-7206
▁प्रगतिशील	-7207
डम	-7208
ॉग	-7209
िपुर	-7210
▁उगा	-7211
▁कों	-7212
▁सुप	-7213
▁बनकर	-7214
▁बांस	-7215
▁मुँह	-7216
▁आजीवन	-7217
▁खारिज	-7218
▁उर्वरक	-7219
▁रंगमंच	-7220
▁विशेषज्ञों	-7221
दक	-7222
हट	-7223
विद	-7224
ट्टा	-7225
▁घोर	-7226
▁ध्य	-7227
हत्या	-7228
▁चलना	-7229
▁पाइप	-7230
▁हटाया	-7231
▁रणनीति	-7232
▁अध्यापक	-7233
▁मूल्यवान	-7234
);	-7235
नें	-7236
▁छे	-7237
कटॉप	-7238
ेंडर	-7239
ारण्य	-7240
संशोधन	-7241
▁आवाज़	-7242
▁खोलें	-7243
▁जिसमे	-7244
▁दशमलव	-7245
▁पुरुषों	-7246
▁दायित्वों	-7247
टरी	-7248
निष	-7249
प्पा	-7250
बूती	-7251
चित्य	-7252
मताओं	-7253
▁ड्रग	-7254
▁जैविक	-7255
▁आपत्ति	-7256
▁दीवारों	-7257
▁कार्यकाल	-7258
▁कार्यकलापों	-7259
▁फू	-7260
ष्मा	-7261
ोर्स	-7262
▁गेट	-7263
▁दर्	-7264
▁मैथ	-7265
▁नाइट	-7266
▁सांप	-7267
▁निकले	-7268
▁निदान	-7269
▁स्टॉक	-7270
▁आउटपुट	-7271
▁टर्मिनल	-7272
ख्	-7273
डक	-7274
परा	-7275
बंद	-7276
ार्ट	-7277
▁फॉर	-7278
बोर्ड	-7279
▁गवाह	-7280
संख्यक	-7281
▁ग्यार	-7282
)-	-7283
os	-7284
▁रेशम	-7285
यात्रा	-7286
▁उपहार	-7287
▁कर्ता	-7288
जनात्मक	-7289
रूद्दीन	-7290
▁कहलाता	-7291
▁आओ	-7292
हार्	-7293
▁शीत	-7294
▁कॉपी	-7295
▁ट्रा	-7296
▁कपड़ा	-7297
▁क्रोध	-7298
▁पुनरा	-7299
▁तुरन्त	-7300
▁दुर्गा	-7301
▁प्रदाह	-7302
▁गंभीरता	-7303
▁लेखापरीक्षा	-7304
कथा	-7305
गिक	-7306
न्च	-7307
▁गयीं	-7308
▁समाम	-7309
▁एल्गोर	-7310
▁चौड़ाई	-7311
▁डेस्कटॉप	-7312
बड़	-7313
▁पंथ	-7314
▁एमएस	-7315
▁मृतक	-7316
▁लोगो	-7317
▁जर्मन	-7318
▁महानि	-7319
▁नवीकरण	-7320
▁स्थलों	-7321
▁साथियों	-7322
▁ईमानदारी	-7323
▁निष्पादित	-7324
नाल	-7325
ियस	-7326
▁गत	-7327
▁पान	-7328
▁अनंत	-7329
▁आश्रय	-7330
▁एकजुट	-7331
▁बोलने	-7332
तापूर्ण	-7333
▁अभिन्न	-7334
▁संरक्षित	-7335
▁स्वैच्छिक	-7336
ow	-7337
लाप	-7338
▁अनो	-7339
▁जुल	-7340
▁नाल	-7341
▁मेर	-7342
पृष्ठ	-7343
▁इनसे	-7344
▁गीतों	-7345
▁तृतीय	-7346
▁सारणी	-7347
▁मेमोरी	-7348
▁विधानसभा	-7349
▁मंत्रालयों	-7350
ul	-7351
इश	-7352
▁भगत	-7353
▁रोमा	-7354
▁बदलें	-7355
▁निविदा	-7356
▁व्याया	-7357
▁बंदरगाह	-7358
▁सचिवालय	-7359
षी	-7360
ity	-7361
पानी	-7362
रेशन	-7363
र्षि	-7364
▁आवं	-7365
▁बाई	-7366
▁भूट	-7367
▁विय	-7368
▁हिमन	-7369
▁अंतरिम	-7370
▁समाहित	-7371
▁अस्पष्ट	-7372
▁संक्रिया	-7373
▁संस्थाएं	-7374
▁क्रियाकलाप	-7375
,-	-7376
मुझे	-7377
▁लची	-7378
वाद्य	-7379
▁जितने	-7380
▁स्थानांतरित	-7381
कस	-7382
▁पटल	-7383
▁लाए	-7384
▁सैक	-7385
▁ग्लो	-7386
▁भारती	-7387
▁पड़ोसी	-7388
▁संचिका	-7389
▁संतुलित	-7390
▁गतिविधियां	-7391
▁विकिपीडिया	-7392
ीस	-7393
ँजी	-7394
दाद	-7395
बारी	-7396
▁पदा	-7397
▁आलेख	-7398
▁जगत्	-7399
▁क्षमा	-7400
▁लक्ष्म	-7401
▁सृष्टि	-7402
▁कुटुम्ब	-7403
▁निकालना	-7404
फु	-7405
स्सी	-7406
▁असं	-7407
▁आगरा	-7408
▁वसूल	-7409
▁मानों	-7410
▁व्याकरण	-7411
▁हार्डवेयर	-7412
डू	-7413
चाह	-7414
िने	-7415
▁इल	-7416
श्ले	-7417
▁बचे	-7418
▁संकल	-7419
▁लड़का	-7420
▁पाठकों	-7421
▁हैसियत	-7422
▁लड़कियों	-7423
ig	-7424
▁आधी	-7425
▁मला	-7426
▁इंजन	-7427
▁स्या	-7428
▁जीवंत	-7429
▁त्रिप	-7430
▁नामों	-7431
▁प्रोफ	-7432
▁हानिकारक	-7433
▁सामुदायिक	-7434
▁प्रजातियों	-7435
▁औरत	-7436
▁काय	-7437
▁पहच	-7438
▁आघात	-7439
▁सूचक	-7440
▁पंद्र	-7441
▁कीमतों	-7442
▁बढ़ाया	-7443
▁अधिनियमों	-7444
um	-7445
ॉय	-7446
नाई	-7447
▁१६	-7448
ृहीत	-7449
िल्ला	-7450
▁अन्तः	-7451
▁स्वायत्त	-7452
ch	-7453
आपको	-7454
वाया	-7455
शुदा	-7456
त्तीस	-7457
िस्टर	-7458
▁दायर	-7459
▁मधुर	-7460
▁वापिस	-7461
▁आंकड़ा	-7462
▁अपर्याप्त	-7463
▁केन्द्रित	-7464
ेव	-7465
विर	-7466
▁नद	-7467
▁बही	-7468
्रेषण	-7469
▁चोरी	-7470
▁दौरे	-7471
▁मूर्ख	-7472
▁संयोग	-7473
▁अर्जुन	-7474
▁सोवियत	-7475
▁शास्त्रीय	-7476
ef	-7477
▁गर	-7478
▁पण	-7479
▁संदि	-7480
▁सब्ज	-7481
▁इमारत	-7482
▁पाण्ड	-7483
▁प्रचुर	-7484
▁उद्यमियों	-7485
▁शक	-7486
डिंग	-7487
षकों	-7488
ोत्स	-7489
न्नाथ	-7490
स्ट्र	-7491
ोरेशन	-7492
▁आईसी	-7493
▁ड्रा	-7494
▁दोबारा	-7495
▁वांछित	-7496
▁उछ	-7497
▁धूप	-7498
▁हरा	-7499
▁घायल	-7500
▁अकेला	-7501
▁संतान	-7502
▁प्रौढ़	-7503
▁क्रिस्ट	-7504
▁चिह्नित	-7505
▁सतर्कता	-7506
▁सामर्थ्य	-7507
ag	-7508
चाल	-7509
मेट	-7510
▁कन	-7511
▁नॉ	-7512
र्सी	-7513
▁फौज	-7514
▁डिफ़	-7515
▁लौटा	-7516
▁स्टाफ	-7517
▁निर्देशों	-7518
िद	-7519
ोहित	-7520
▁एंव	-7521
▁कां	-7522
▁नरम	-7523
▁लखन	-7524
डियों	-7525
▁कॉन्	-7526
▁क्लब	-7527
▁सख्त	-7528
▁श्रेय	-7529
▁सेंटर	-7530
▁जाएंगी	-7531
▁दिलचस्प	-7532
▁निर्णायक	-7533
▁पद्धतियों	-7534
▁बदरूद्दीन	-7535
▁उपभोक्ताओं	-7536
बै	-7537
नेस	-7538
▁(&	-7539
▁छेद	-7540
▁अनन्य	-7541
▁व्यास	-7542
▁गतिशील	-7543
▁निःशुल्क	-7544
ुगु	-7545
तिया	-7546
रहित	-7547
▁टीवी	-7548
▁यज्ञ	-7549
▁प्रीम	-7550
▁भ्रूण	-7551
▁लाहौर	-7552
▁विचित्र	-7553
यित	-7554
ंतव्य	-7555
िकेशन	-7556
▁किस्	-7557
▁सिंग	-7558
▁फॉर्म	-7559
▁वर्षो	-7560
▁ड्राइव	-7561
▁आँक	-7562
▁रिव	-7563
बूझकर	-7564
▁सुनी	-7565
▁चेहरा	-7566
▁निर्वाह	-7567
▁लक्ष्मी	-7568
ज़्	-7569
ंतुक	-7570
▁पैरों	-7571
▁कारकों	-7572
▁अध्यादेश	-7573
▁क्षमताओं	-7574
गीय	-7575
▁चिक	-7576
▁अतिथि	-7577
▁प्रभुत्व	-7578
▁यात्रियों	-7579
▁घड़ी	-7580
▁पहाड़	-7581
▁सच्ची	-7582
▁द्वारक	-7583
जपे	-7584
ाणु	-7585
ज्जा	-7586
▁इधर	-7587
▁गिल	-7588
▁नकल	-7589
▁बंधन	-7590
▁बदलना	-7591
▁बेकार	-7592
▁अद्भुत	-7593
▁जगन्नाथ	-7594
▁दंडादेश	-7595
▁एसोसिएशन	-7596
▁कंपनियां	-7597
▁प्रख्यात	-7598
▁प्राइवेट	-7599
▁विधायिका	-7600
▁प्राणियों	-7601
▁आस्ट्रेलिया	-7602
ोश	-7603
यदि	-7604
बंधन	-7605
▁आवृ	-7606
▁बिख	-7607
▁बुश	-7608
▁जादू	-7609
▁मेहर	-7610
ियारों	-7611
▁अर्पित	-7612
▁इच्छुक	-7613
▁परजीवी	-7614
▁पूर्वक	-7615
दाई	-7616
वाट	-7617
मुना	-7618
▁ढाल	-7619
मण्डल	-7620
▁पाती	-7621
▁रूचि	-7622
▁सिन्	-7623
▁दायरे	-7624
▁उदासीन	-7625
▁कूटशब्द	-7626
▁परिसीमा	-7627
▁अतिक्रमण	-7628
▁संकु	-7629
▁डेटाबेस	-7630
▁अनावश्यक	-7631
ँगा	-7632
वर्धन	-7633
▁नानक	-7634
▁मत्स्य	-7635
▁शासकों	-7636
▁परेशानी	-7637
▁विवेकान	-7638
▁अनुमानित	-7639
ुल्य	-7640
▁मज़	-7641
▁मोर	-7642
ोग्रा	-7643
▁अवयव	-7644
िवारिक	-7645
्रीकरण	-7646
▁डोमेन	-7647
▁उद्धृत	-7648
▁दीर्घकालिक	-7649
िफ	-7650
▁भि	-7651
भावी	-7652
▁सन्त	-7653
▁सभाओं	-7654
▁साँचा	-7655
▁नवीनतम	-7656
▁आंबेडकर	-7657
▁प्रतिमा	-7658
ers	-7659
ंचन	-7660
▁इम	-7661
स्थि	-7662
▁कदा	-7663
▁पडे	-7664
▁फलों	-7665
▁बहुल	-7666
▁जानती	-7667
▁लगाकर	-7668
▁गरीबों	-7669
▁विनियमों	-7670
ER	-7671
ढे	-7672
ड़न	-7673
▁गज	-7674
▁न्य	-7675
▁मेड	-7676
ताबिक	-7677
नागरी	-7678
▁अतएव	-7679
▁कहकर	-7680
▁विगत	-7681
▁काटने	-7682
▁सनातन	-7683
▁मुख़्य	-7684
▁प्रतिकर	-7685
▁प्रवासी	-7686
▁दिलचस्पी	-7687
▁संप्रदाय	-7688
जय	-7689
बिट	-7690
ान्	-7691
ुलर	-7692
▁ओल	-7693
▁अवा	-7694
▁पवन	-7695
तीकरण	-7696
विवाह	-7697
स्वती	-7698
▁पुणे	-7699
▁भयान	-7700
▁भेजें	-7701
▁संख़्या	-7702
ुम	-7703
ेलना	-7704
▁छंद	-7705
▁इण्ड	-7706
▁फेंक	-7707
कृष्णन	-7708
▁निकला	-7709
▁बनायी	-7710
ुस्तानी	-7711
▁आरोपों	-7712
▁गुजराती	-7713
▁आनुवंशिक	-7714
सेन	-7715
ुलन	-7716
म्पर	-7717
शिला	-7718
▁कैम	-7719
▁क्षे	-7720
▁लड़ने	-7721
▁राज़्य	-7722
▁शान्ति	-7723
▁नीतियां	-7724
हाद	-7725
▁ऑप	-7726
छोटे	-7727
▁चूक	-7728
▁झुक	-7729
द्वार	-7730
▁चलकर	-7731
▁अंतर्व	-7732
▁प्रवर्ग	-7733
▁मुताबिक	-7734
ee	-7735
ैम	-7736
▁ar	-7737
्रीट	-7738
▁दार	-7739
▁पदक	-7740
▁धारक	-7741
▁सोसाय	-7742
▁पिछड़े	-7743
▁पर्यवेक्षण	-7744
▁पारदर्शिता	-7745
RO	-7746
ोला	-7747
विजन	-7748
▁अभय	-7749
▁नाथ	-7750
नेशनल	-7751
▁कोटि	-7752
▁घातक	-7753
▁वनों	-7754
▁उर्वर	-7755
▁धारित	-7756
▁अपशिष्ट	-7757
▁अभिप्राय	-7758
▁द्वारकानाथ	-7759
चय	-7760
एनए	-7761
जहां	-7762
बंदी	-7763
ैर्य	-7764
▁भली	-7765
▁माध	-7766
▁वृह	-7767
▁वेग	-7768
विवाद	-7769
ियमित	-7770
जीविका	-7771
▁दुर्बल	-7772
▁पासवर्ड	-7773
▁लक्षणों	-7774
▁उत्पत्ति	-7775
▁डिफ़ॉल्ट	-7776
▁निर्माताओं	-7777
▁युक्तियुक्त	-7778
▁कार्यवाहियां	-7779
कश	-7780
▁’	-7781
ोटा	-7782
ोही	-7783
फ़्ट	-7784
रेटर	-7785
▁पाउ	-7786
▁अन्न	-7787
क्षकों	-7788
▁एआईआर	-7789
▁संजाल	-7790
▁हेक्ट	-7791
▁विपक्ष	-7792
▁सौहार्	-7793
▁चुनावों	-7794
▁सुभाषबाबू	-7795
▁प्राधिकारियों	-7796
लेन	-7797
▁सऋ	-7798
अधिक	-7799
▁ताक	-7800
▁दाँ	-7801
ल्लाह	-7802
ुल्ला	-7803
▁दावों	-7804
▁परिधि	-7805
▁वयस्क	-7806
▁स्नान	-7807
▁टुकड़े	-7808
▁मजबूती	-7809
▁साक्षियों	-7810
बुल	-7811
सनी	-7812
▁नास	-7813
▁रिफ	-7814
▁चारा	-7815
▁पटेल	-7816
▁विवश	-7817
▁खाड़ी	-7818
▁अपीलीय	-7819
▁निक्षेप	-7820
ुरु	-7821
▁खाद	-7822
▁मौल	-7823
▁अनदे	-7824
▁कन्व	-7825
▁धोखा	-7826
▁अभिनय	-7827
▁एजेंट	-7828
▁भित्त	-7829
▁विषयक	-7830
▁सोचना	-7831
▁औचित्य	-7832
▁गिरावट	-7833
▁महर्षि	-7834
▁हड़ताल	-7835
AT	-7836
ड़की	-7837
न्दन	-7838
बर्ग	-7839
संभव	-7840
स्वा	-7841
▁अम्ल	-7842
▁ईमेल	-7843
▁किला	-7844
▁घुमा	-7845
▁दादा	-7846
▁बजाए	-7847
▁लेगा	-7848
▁टेस्ट	-7849
▁तत्पर	-7850
▁दर्जा	-7851
▁नाट्य	-7852
▁पारिवारिक	-7853
▁वित्तपोषण	-7854
.,	-7855
थल	-7856
दह	-7857
▁कण	-7858
ॉक्स	-7859
▁अटल	-7860
र्कों	-7861
▁पायी	-7862
▁पावर	-7863
▁अर्जी	-7864
▁ऊतकों	-7865
▁बालकों	-7866
▁साँचाः	-7867
▁माध्यमिक	-7868
माही	-7869
सर्ग	-7870
▁उलझ	-7871
▁मुर	-7872
▁पांव	-7873
▁चिन्त	-7874
▁जोड़ी	-7875
▁तुर्क	-7876
▁एकीकरण	-7877
▁फिल्मों	-7878
▁सत्यापित	-7879
अभ	-7880
वो	-7881
ियॉँ	-7882
ॉर्ट	-7883
▁एन्	-7884
▁डाइ	-7885
▁नाज	-7886
▁ट्रांस	-7887
▁फ़ॉन्ट	-7888
▁बिलियन	-7889
▁वाशिंग	-7890
▁संपादक	-7891
▁आश्चर्यजनक	-7892
▁सांप्रदायिक	-7893
▁प्रौद्योगिकियों	-7894
रीद	-7895
ाइड	-7896
▁जमाने	-7897
▁विकृत	-7898
▁अस्थिर	-7899
▁समर्थक	-7900
▁क्रियाओं	-7901
ताई	-7902
संप	-7903
्वत	-7904
▁रुक	-7905
▁मिलन	-7906
▁आज्ञा	-7907
▁भयानक	-7908
▁संचरण	-7909
▁स्थाई	-7910
डब	-7911
ome	-7912
राइट	-7913
हिन्दी	-7914
▁आबंटन	-7915
▁चरणों	-7916
▁जरुरी	-7917
▁भूटान	-7918
▁श्वसन	-7919
▁श्रमिकों	-7920
िकरण	-7921
▁आइए	-7922
▁फर्	-7923
हार्य	-7924
▁लेबल	-7925
▁परिपूर्ण	-7926
▁विशेषताओं	-7927
ोडा	-7928
▁कैल	-7929
▁कराए	-7930
▁शाही	-7931
▁पड़ोस	-7932
▁फांसी	-7933
▁विकेट	-7934
▁जवाबदे	-7935
▁चुंबकीय	-7936
▁सूचनाओं	-7937
▁तात्पर्य	-7938
▁संभावनाओं	-7939
▁अंतर्विष्ट	-7940
▁मार्गदर्शक	-7941
उदी	-7942
▁गौण	-7943
▁ढूँ	-7944
▁फेड	-7945
म्बित	-7946
शासित	-7947
▁नाना	-7948
▁पूरक	-7949
निर्भर	-7950
▁यातना	-7951
▁उद्यमी	-7952
▁करवाने	-7953
▁दरवाजे	-7954
▁राजवंश	-7955
▁सर्वथा	-7956
जुल	-7957
बिया	-7958
▁मौके	-7959
पश्चिम	-7960
▁घोड़े	-7961
▁बिस्त	-7962
▁सुनाई	-7963
▁आरक्षण	-7964
▁बंगाली	-7965
▁निरूपित	-7966
▁संपादित	-7967
०ख	-7968
म्म	-7969
र्मी	-7970
▁पित	-7971
▁प्रभा	-7972
▁अनुभाग	-7973
▁नर्मदा	-7974
▁व्यर्थ	-7975
▁अभिरक्षा	-7976
▁प्रदेशों	-7977
तको	-7978
गरीय	-7979
▁पाय	-7980
भक्ति	-7981
वाहिक	-7982
ष्ठान	-7983
▁क़ुर	-7984
▁लखनऊ	-7985
▁लायक	-7986
▁गार्ड	-7987
▁जरुरत	-7988
▁मंत्रिम	-7989
▁बहुमूल्य	-7990
▁अंतःस्थापित	-7991
▁ऑस्ट्रेलिया	-7992
पहर	-7993
विड	-7994
▁झग	-7995
▁तन	-7996
कांक	-7997
▁उतने	-7998
▁दवाओं	-7999
▁मारने	-8000
▁मूलतः	-8001
▁सिंधु	-8002
▁उदाहरणार्थ	-8003
वंत	-8004
फीति	-8005
ारिक	-8006
▁धनी	-8007
▁जमींद	-8008
▁बुराई	-8009
▁मुफ्त	-8010
र्थियों	-8011
▁अर्द्ध	-8012
▁कामकाज	-8013
▁गंतव्य	-8014
▁दंडनीय	-8015
▁प्रतिभूतियों	-8016
://	-8017
ंकि	-8018
▁इश	-8019
प्रो	-8020
र्तग	-8021
▁सटीक	-8022
▁भागवत	-8023
▁मंत्रि	-8024
▁विलियम	-8025
▁आत्महत्या	-8026
मस	-8027
वात	-8028
०वें	-8029
▁कसौ	-8030
▁तित	-8031
▁पडा	-8032
▁मन्	-8033
▁रेट	-8034
▁अवगत	-8035
▁समीप	-8036
▁एक्सट	-8037
▁ललिता	-8038
▁सिनेमा	-8039
▁दिनांकित	-8040
सैन	-8041
▁आन्त	-8042
▁स्टी	-8043
नाइटेड	-8044
स्तरीय	-8045
▁नजदीक	-8046
▁पंद्रह	-8047
▁मास्टर	-8048
▁चाहेंगे	-8049
▁बाजारों	-8050
▁समावेशी	-8051
जग	-8052
सद	-8053
शेर	-8054
▁वॉ	-8055
▁लहर	-8056
▁वान	-8057
▁जीने	-8058
▁चाहें	-8059
▁छोड़ा	-8060
▁स्विच	-8061
▁सम्भावना	-8062
▁पर्यावरणीय	-8063
सक	-8064
आउट	-8065
▁यश	-8066
यंकर	-8067
▁ईस्ट	-8068
▁देहा	-8069
▁मुआव	-8070
▁सीखा	-8071
▁सूरज	-8072
ास्टिक	-8073
▁असंगत	-8074
▁अनुबंध	-8075
▁द्रव्य	-8076
▁नाटकीय	-8077
▁बढ़ाकर	-8078
▁सौहार्द	-8079
▁प्रतिवेदन	-8080
अध	-8081
राग	-8082
्टन	-8083
▁नींद	-8084
▁बशर्	-8085
▁बेहत	-8086
▁मार्क	-8087
▁जनजाति	-8088
▁ताजमहल	-8089
▁प्रेमी	-8090
▁आजीविका	-8091
िती	-8092
नामा	-8093
▁उठे	-8094
▁ऑटो	-8095
ानिर्	-8096
▁कैसा	-8097
▁बगैर	-8098
▁सुपर	-8099
▁बनाएँ	-8100
▁लेखों	-8101
▁ठहराया	-8102
▁सोसायटी	-8103
सच	-8104
दण्ड	-8105
▁वाई	-8106
विभाग	-8107
▁लगाई	-8108
▁खेतों	-8109
▁पीड़क	-8110
▁बदलते	-8111
▁सच्चा	-8112
▁चित्रों	-8113
▁संदिग्ध	-8114
▁सरकारें	-8115
▁स्वदेशी	-8116
लेस	-8117
कावट	-8118
गणना	-8119
शियन	-8120
▁रोम	-8121
जपेयी	-8122
त्विक	-8123
▁आश्र	-8124
▁गोला	-8125
▁डाली	-8126
▁डिवी	-8127
▁बोले	-8128
▁इंद्र	-8129
▁लगेगा	-8130
▁आचार्य	-8131
▁सूचकांक	-8132
▁जनजातियों	-8133
▁Go	-8134
▁लेट	-8135
धियां	-8136
वित्त	-8137
▁वक्र	-8138
▁अरुणा	-8139
▁आँखों	-8140
▁शिष्य	-8141
▁छत्तीस	-8142
▁नोकिया	-8143
▁पुर्तग	-8144
▁चमत्कार	-8145
▁क्षेत्रक	-8146
▁प्रारम्भिक	-8147
▁सार्वभौमिक	-8148
ेरा	-8149
ापित	-8150
▁ओवर	-8151
▁भूकंप	-8152
▁अंतररा	-8153
▁पेड़ों	-8154
▁नियोजित	-8155
▁रेगिस्तान	-8156
▁क्रियाकलापों	-8157
ia	-8158
थाम	-8159
लीफ	-8160
चनों	-8161
लापन	-8162
▁जोड	-8163
▁टेप	-8164
▁खोला	-8165
▁बढ़ो	-8166
▁वाणी	-8167
▁समेत	-8168
▁आभूषण	-8169
▁उठाकर	-8170
▁छिद्र	-8171
▁मणिपुर	-8172
▁अनियमित	-8173
▁लक्ष्मण	-8174
▁बीमारियों	-8175
▁स्थानांतरण	-8176
क्य	-8177
भंग	-8178
जारी	-8179
ब्बा	-8180
▁बला	-8181
श्यों	-8182
▁जबरद	-8183
▁रत्न	-8184
ष्णुता	-8185
▁कोष्ठ	-8186
▁गोपाल	-8187
▁भयंकर	-8188
▁साधना	-8189
▁उपरांत	-8190
▁ट्रस्ट	-8191
▁पूछताछ	-8192
▁समुच्च	-8193
▁महिलाएं	-8194
▁व्याप्त	-8195
ञ्	-8196
भवन	-8197
ब्रे	-8198
िल्ल	-8199
▁किर	-8200
▁धर्	-8201
▁पटना	-8202
▁परिपथ	-8203
▁प्रत्यु	-8204
▁सरस्वती	-8205
ुख	-8206
ate	-8207
ंची	-8208
▁शत	-8209
खाना	-8210
▁भोग	-8211
▁गेहूं	-8212
▁निशान	-8213
▁अग्रसर	-8214
▁पर्यटक	-8215
▁प्रवास	-8216
▁लार्वा	-8217
▁शृंखला	-8218
▁स्त्रोत	-8219
▁अद्वितीय	-8220
▁अधिग्रहण	-8221
लत	-8222
ॉजी	-8223
सीआई	-8224
▁जूट	-8225
▁बेज	-8226
▁संभ	-8227
धिकरण	-8228
▁दायी	-8229
▁दुष्	-8230
▁बढ़ी	-8231
▁बताए	-8232
▁बनती	-8233
▁बाबा	-8234
▁बलराम	-8235
▁हटाना	-8236
▁चिंतित	-8237
▁बलिदान	-8238
▁प्रवाहित	-8239
▁क्षेत्रफल	-8240
▁प्रस्तुति	-8241
▁सिफारिशें	-8242
ेम	-8243
गीर	-8244
फलक	-8245
▁(0	-8246
दायी	-8247
▁खैर	-8248
▁बैल	-8249
▁रोब	-8250
▁लाप	-8251
▁कारी	-8252
▁प्रॉ	-8253
▁मोती	-8254
▁सूखे	-8255
▁खंडों	-8256
▁ग्रुप	-8257
▁तार्क	-8258
▁बालों	-8259
▁विघटन	-8260
▁हल्के	-8261
▁दिखायी	-8262
▁निरस्त	-8263
▁मुद्रित	-8264
▁विशेषताएं	-8265
▁विशेषज्ञता	-8266
vi	-8267
जरी	-8268
बुद	-8269
▁झट	-8270
▁१७	-8271
िथ्म	-8272
▁कीं	-8273
ंजस्य	-8274
▁सभ्य	-8275
▁विकार	-8276
▁व्यंग	-8277
▁स्टाक	-8278
ंत्रिकी	-8279
▁बैठकों	-8280
▁मशीनों	-8281
▁रात्रि	-8282
▁इन्होंने	-8283
▁रूपांतरण	-8284
▁प्रतिलिपि	-8285
कौ	-8286
▁हफ	-8287
▁अलं	-8288
▁कोण	-8289
▁बाय	-8290
▁वाइ	-8291
▁अमीर	-8292
▁मुहा	-8293
▁मेनन	-8294
▁मेनू	-8295
▁जॉर्ज	-8296
▁भीतरी	-8297
▁आवासीय	-8298
▁निवेदन	-8299
▁सेनाओं	-8300
▁वाजपेयी	-8301
▁आविष्कार	-8302
▁प्रभावों	-8303
▁प्रीमियम	-8304
जीत	-8305
वेग	-8306
न्सी	-8307
ल्ले	-8308
▁छोर	-8309
▁फिन	-8310
▁मोन	-8311
▁रिए	-8312
▁धीमी	-8313
▁पोषक	-8314
▁दीजिए	-8315
▁पूँजी	-8316
▁मुल्क	-8317
▁स्वाद	-8318
▁तेलुगु	-8319
▁मानचित्र	-8320
▁विक्रेता	-8321
िग	-8322
▁बक	-8323
बड़ी	-8324
यालम	-8325
▁चंद	-8326
▁एकड़	-8327
▁कीर्	-8328
▁फैले	-8329
▁बेशक	-8330
▁सौदा	-8331
▁खुलने	-8332
▁पड़ते	-8333
▁राजकीय	-8334
▁पर्वतीय	-8335
▁संभावनाएं	-8336
▁डेल	-8337
▁ब्रे	-8338
▁डालना	-8339
▁प्रको	-8340
▁फ्रेम	-8341
▁कोरिया	-8342
▁क्रमांक	-8343
▁डब्ल्यू	-8344
▁निरपेक्ष	-8345
▁तात्कालिक	-8346
▁नियन्त्रण	-8347
ॉस	-8348
उत्	-8349
▁उज	-8350
▁पग	-8351
माना	-8352
िप्र	-8353
▁जन्	-8354
▁चलाए	-8355
▁लिखत	-8356
▁सौदे	-8357
वर्षीय	-8358
▁दोपहर	-8359
▁ध्येय	-8360
▁सरलता	-8361
िश्रमिक	-8362
▁मुद्रण	-8363
▁सीरिया	-8364
▁लाभदायक	-8365
्ली	-8366
▁उजा	-8367
▁ऋषि	-8368
▁मजा	-8369
▁सती	-8370
▁स्फ	-8371
▁माया	-8372
▁स्पी	-8373
▁उपनिष	-8374
▁चित्त	-8375
▁पत्तन	-8376
▁दिलाने	-8377
▁दृढ़ता	-8378
▁विजेता	-8379
▁संपादन	-8380
राधिकारी	-8381
▁चित्रित	-8382
▁प्रतिस्थापित	-8383
म्य	-8384
जिसे	-8385
▁कमर	-8386
▁फर्क	-8387
▁हटाए	-8388
▁आखिरी	-8389
▁इंस्ट	-8390
▁पंचाट	-8391
तकोत्तर	-8392
▁जापानी	-8393
▁दर्शाया	-8394
▁सिक्किम	-8395
▁उत्पादित	-8396
▁निवासियों	-8397
▁अनुपस्थिति	-8398
षद	-8399
ाहट	-8400
▁ढी	-8401
▁निब	-8402
▁क्यो	-8403
▁सिलस	-8404
▁उद्धरण	-8405
▁विद्वत	-8406
▁हस्तांतरण	-8407
▁शांतिपूर्ण	-8408
▁नली	-8409
▁टिका	-8410
▁यकीन	-8411
▁आंखें	-8412
▁चलाना	-8413
▁शुष्क	-8414
▁अंडमान	-8415
▁प्रिंटर	-8416
▁पारिस्थित	-8417
▁प्लास्टिक	-8418
्ह	-8419
किक	-8420
नीस	-8421
बेट	-8422
रेज	-8423
▁सघन	-8424
▁कृषक	-8425
▁धमकी	-8426
▁मंदी	-8427
▁रसीद	-8428
फ्रेंस	-8429
▁अवतार	-8430
▁धैर्य	-8431
▁स्वयंसे	-8432
▁वर्गीकृत	-8433
▁पारिश्रमिक	-8434
ub	-8435
ogle	-8436
एक्स	-8437
▁गोर	-8438
▁क्षय	-8439
▁बलों	-8440
▁मापन	-8441
▁अवशेष	-8442
▁ट्रैक	-8443
▁दुश्म	-8444
▁समन्वित	-8445
▁समाविष्ट	-8446
▁चट	-8447
ल्पित	-8448
▁वकाल	-8449
▁शिरा	-8450
▁सीडी	-8451
▁चुपचाप	-8452
▁तीव्रता	-8453
▁प्रपत्र	-8454
▁अंतर्निहित	-8455
विष	-8456
सुर	-8457
▁नाप	-8458
▁साख	-8459
ेशनों	-8460
▁बंगल	-8461
▁हुईं	-8462
प्रधान	-8463
▁चक्कर	-8464
▁नारियल	-8465
▁स्थगित	-8466
▁मुकाबला	-8467
▁शब्दावली	-8468
▁हथियारों	-8469
▁बीमाकर्ता	-8470
▁राधाकृष्णन	-8471
ठों	-8472
▁जज	-8473
ितानी	-8474
▁बनते	-8475
▁माला	-8476
▁लेनी	-8477
▁सतत्	-8478
▁सरोज	-8479
ँट	-8480
ंजर	-8481
कूट	-8482
मंद	-8483
्रल	-8484
▁ओह	-8485
स्तक	-8486
देशिक	-8487
▁साइन	-8488
▁हमसे	-8489
▁कारित	-8490
▁पट्टे	-8491
▁अपनाना	-8492
▁करूंगा	-8493
▁व्यायाम	-8494
▁ae	-8495
▁आभ	-8496
▁टॉ	-8497
ीलाल	-8498
▁मीन	-8499
▁सहि	-8500
▁....	-8501
▁खादी	-8502
▁देरी	-8503
▁युवक	-8504
पतियों	-8505
▁पुकार	-8506
▁मानकर	-8507
▁मानवा	-8508
ब्दियों	-8509
▁अंशदान	-8510
▁डिवीजन	-8511
▁नौसेना	-8512
▁काश्मीर	-8513
▁विश्राम	-8514
▁उपाध्यक्ष	-8515
▁सहयोगियों	-8516
छे	-8517
ायन	-8518
ुखी	-8519
ैंट	-8520
▁खनन	-8521
▁खाल	-8522
▁फेर	-8523
▁हॉल	-8524
क्टरी	-8525
त्तूर	-8526
▁रावण	-8527
▁जगहों	-8528
▁हास्य	-8529
▁प्रामा	-8530
▁न्यायपीठ	-8531
▁प्रसारित	-8532
▁श्रेणियों	-8533
',	-8534
णीत	-8535
फिर	-8536
ैंस	-8537
▁लू	-8538
ौर्य	-8539
▁डूब	-8540
▁फूट	-8541
▁अखंड	-8542
▁ड्यू	-8543
▁पेपर	-8544
▁बंदी	-8545
▁घटकों	-8546
▁चार्ट	-8547
▁नतीजा	-8548
▁फारसी	-8549
▁विधिव	-8550
▁समूचे	-8551
▁मणीलाल	-8552
▁मलयालम	-8553
▁जनजातीय	-8554
▁मॉड्यूल	-8555
▁संशोधनों	-8556
EN	-8557
क्या	-8558
▁ऊंट	-8559
▁नाभ	-8560
▁सफ़	-8561
▁कोल्	-8562
▁भण्ड	-8563
▁सउदी	-8564
▁कॉर्प	-8565
▁खेलने	-8566
▁हल्का	-8567
▁परिप्रे	-8568
▁नगरपालिका	-8569
माद	-8570
राइड	-8571
▁पुत	-8572
▁साठ	-8573
क्सीजन	-8574
▁उत्पी	-8575
▁पढ़ना	-8576
▁प्रभु	-8577
▁बनाएं	-8578
▁हुसैन	-8579
▁तालिका	-8580
▁बिस्तर	-8581
▁रोकथाम	-8582
▁निमंत्र	-8583
▁संस्कार	-8584
▁सामंजस्य	-8585
नक	-8586
ूद	-8587
डिश	-8588
द्घ	-8589
नगर	-8590
पों	-8591
रोधी	-8592
ायती	-8593
▁इंच	-8594
▁सोशल	-8595
▁अपवर्	-8596
▁सहारे	-8597
ोल्यूशन	-8598
▁मुम्बई	-8599
▁--	-8600
▁उब	-8601
▁रथ	-8602
▁शंक	-8603
▁गुस्	-8604
▁पद्य	-8605
▁परमा	-8606
▁बेटा	-8607
▁रसोई	-8608
▁भ्रमण	-8609
धारियों	-8610
▁ब्रितानी	-8611
▁समितियां	-8612
अली	-8613
▁गुम	-8614
▁जगा	-8615
▁झलक	-8616
▁रवै	-8617
दायगी	-8618
▁कहें	-8619
▁चाहा	-8620
▁फ्रा	-8621
▁दिखता	-8622
▁धूम्र	-8623
▁नोड्स	-8624
▁आबंटित	-8625
▁सेवाएँ	-8626
▁नियोक्ता	-8627
▁सम्बन्धों	-8628
xx	-8629
सचिव	-8630
▁पूर	-8631
▁तिरु	-8632
▁शंका	-8633
▁सुलह	-8634
ज्ञानी	-8635
▁कामों	-8636
▁काल्प	-8637
▁समझती	-8638
▁चट्टान	-8639
▁सारांश	-8640
▁हेक्टेयर	-8641
काई	-8642
गांठ	-8643
ोसिस	-8644
▁शाल	-8645
िलोकन	-8646
▁पुरी	-8647
▁भेड़	-8648
न्दर्य	-8649
▁संसद्	-8650
▁ग्लोबल	-8651
निर्धारण	-8652
▁अभिलिखित	-8653
▁परंपराओं	-8654
▁वाशिंगटन	-8655
▁स्नातकोत्तर	-8656
▁उत्तराधिकारी	-8657
ाम्	-8658
जाति	-8659
हाली	-8660
▁खिस	-8661
चर्या	-8662
वश्यक	-8663
▁औजार	-8664
▁चंडी	-8665
▁हरित	-8666
▁रंगों	-8667
▁लिखें	-8668
▁बशर्ते	-8669
▁सदियों	-8670
निरपेक्ष	-8671
▁नैतिकता	-8672
▁In	-8673
▁or	-8674
भासी	-8675
▁भोज	-8676
▁निरी	-8677
▁अनुप्रयोगों	-8678
्ये	-8679
ज्जित	-8680
▁आयाम	-8681
▁बादल	-8682
▁जीतने	-8683
▁प्रोज	-8684
▁बेरोज	-8685
▁श्वास	-8686
कारियों	-8687
▁Google	-8688
▁रिश्वत	-8689
चिकित्सा	-8690
▁आदर्शों	-8691
▁देवनागरी	-8692
▁पारदर्शी	-8693
▁महाकाव्य	-8694
ैश	-8695
गान	-8696
धरी	-8697
ीयर	-8698
्यौ	-8699
▁लय	-8700
चेरी	-8701
सूरत	-8702
परेशन	-8703
▁ताजा	-8704
▁मुना	-8705
▁अंतरा	-8706
▁निवार	-8707
▁उल्लास	-8708
▁तयशुदा	-8709
▁निकाले	-8710
▁नामांकन	-8711
▁आधुनिकीकरण	-8712
▁गरम	-8713
▁हनु	-8714
नीकरण	-8715
▁सुखद	-8716
▁कार्ट	-8717
▁उत्प्रे	-8718
▁उपन्यासों	-8719
od	-8720
▁we	-8721
ment	-8722
तत्व	-8723
▁कवर	-8724
▁कैर	-8725
▁भीम	-8726
▁तैना	-8727
▁समनु	-8728
क्रमित	-8729
ुतीकरण	-8730
▁क्षेञ	-8731
▁गर्भव	-8732
▁विशेन	-8733
▁पॉलिसी	-8734
▁पोर्टल	-8735
▁कृतियों	-8736
▁विधिज्ञ	-8737
▁स्वार्थ	-8738
▁मध्यवर्ती	-8739
▁महाविद्यालय	-8740
ँची	-8741
जलि	-8742
ोपाल	-8743
▁the	-8744
▁उधर	-8745
▁तैर	-8746
▁फैली	-8747
▁बंधक	-8748
▁बुरे	-8749
▁मृदा	-8750
▁युसु	-8751
▁रवाना	-8752
▁वकालत	-8753
▁गुप्ता	-8754
▁चेन्नई	-8755
▁भौतिकी	-8756
▁तार्किक	-8757
▁कार्यकलाप	-8758
▁भागीदारों	-8759
▁मुख्यमंत्री	-8760
▁रजिस्ट्रीकृत	-8761
ob	-8762
लम	-8763
ँकि	-8764
चों	-8765
ुवा	-8766
क्ष्	-8767
▁उदर	-8768
▁पैट	-8769
▁बसे	-8770
बारों	-8771
▁अफसर	-8772
▁बाँध	-8773
धिकारी	-8774
▁दंडित	-8775
▁चिन्ता	-8776
▁धाराओं	-8777
▁प्रिंट	-8778
▁किनारों	-8779
▁अभयारण्य	-8780
▁छत्तीसगढ़	-8781
▁व्यापारियों	-8782
ुकला	-8783
्युन	-8784
▁ऋणों	-8785
▁तिलक	-8786
ापूर्ण	-8787
▁जायगा	-8788
▁फैसले	-8789
▁युग्म	-8790
▁लगाये	-8791
▁निगमित	-8792
▁द्वीपों	-8793
▁टेलीविजन	-8794
गोश	-8795
▁एह	-8796
▁थाः	-8797
▁फंड	-8798
▁सीट	-8799
▁अखबार	-8800
▁खुराक	-8801
▁तारों	-8802
▁इंतजार	-8803
▁उपासना	-8804
▁ज़रूरी	-8805
▁वियतना	-8806
▁देखेंगे	-8807
इम	-8808
चक्र	-8809
ोग्य	-8810
▁दाल	-8811
▁हज़	-8812
▁एनआई	-8813
▁परिल	-8814
▁सूखा	-8815
▁परिकल	-8816
▁फीसदी	-8817
▁विराम	-8818
▁प्रेरक	-8819
▁कित्तूर	-8820
▁संप्रती	-8821
▁अब्दुल्ला	-8822
▁नवान्वेषी	-8823
ोदय	-8824
कुशल	-8825
क्के	-8826
न्ने	-8827
▁कुर	-8828
▁टोप	-8829
▁मर्	-8830
▁शार	-8831
▁तरंग	-8832
▁रुग्	-8833
▁श्या	-8834
लेरिया	-8835
▁दर्शक	-8836
▁हिमनद	-8837
▁देखरेख	-8838
▁परिमाण	-8839
▁खाद्यान	-8840
▁प्रदाता	-8841
▁अप्रत्या	-8842
▁संस्थापक	-8843
▁एक्सटेंशन	-8844
pl	-8845
aoM	-8846
बिर	-8847
▁एर	-8848
▁कं	-8849
▁फो	-8850
टिंग	-8851
▁घों	-8852
▁्याय	-8853
▁अस्पृ	-8854
▁क़्या	-8855
▁किशोर	-8856
▁ख्याल	-8857
▁गर्दन	-8858
▁परमिट	-8859
▁वादों	-8860
▁सिंधी	-8861
▁उत्थान	-8862
▁क्रमिक	-8863
▁प्ररूप	-8864
▁संरक्षक	-8865
▁सुपुर्दगी	-8866
दिव	-8867
▁re	-8868
▁शव	-8869
▁आगम	-8870
्याति	-8871
▁रिहा	-8872
▁कसौटी	-8873
▁साम्य	-8874
▁ग्रंथों	-8875
▁उत्तेजित	-8876
▁अतिमानसिक	-8877
▁न्यूयार्क	-8878
▁महानिदेशक	-8879
जिर	-8880
▁AR	-8881
▁उम	-8882
▁जह	-8883
▁जाऊ	-8884
▁नाश	-8885
ट्रिक	-8886
योजना	-8887
▁अभिस	-8888
▁गणेश	-8889
▁चार्	-8890
▁ज्वर	-8891
▁फ़िर	-8892
▁बहुप	-8893
▁सोना	-8894
▁हिला	-8895
▁निरोध	-8896
▁मुस्क	-8897
▁हममें	-8898
▁परंतुक	-8899
▁सर्किट	-8900
▁जुर्माना	-8901
▁प्रत्युत्तर	-8902
ड्स	-8903
थिल	-8904
दत्त	-8905
शैली	-8906
▁एजे	-8907
▁परो	-8908
▁मता	-8909
▁गुर्	-8910
▁तटीय	-8911
▁नौका	-8912
▁पद्म	-8913
▁लगों	-8914
▁बहुधा	-8915
▁लैंगिक	-8916
कोण	-8917
ेली	-8918
▁जौ	-8919
क्षि	-8920
्टीट	-8921
▁गढ़	-8922
पोरेट	-8923
▁उज्ज	-8924
▁गाने	-8925
▁केलिए	-8926
▁क्रोम	-8927
▁जिज्ञ	-8928
▁निकोबार	-8929
▁कार्यपाल	-8930
▁व्यवसायी	-8931
▁कार्मिकों	-8932
इंट	-8933
त्सा	-8934
वाड़	-8935
▁इलै	-8936
▁पौरा	-8937
▁सपने	-8938
▁अनुमत	-8939
▁फाउंड	-8940
▁सम्मुख	-8941
▁प्रशासक	-8942
▁सौन्दर्य	-8943
▁एल्गोरिथ्म	-8944
▁आतंकवादियों	-8945
▁!	-8946
ध्द	-8947
यियों	-8948
▁जंतु	-8949
▁मेले	-8950
▁स्पेन	-8951
▁असंख्य	-8952
▁ग्रंथि	-8953
▁निकलता	-8954
▁प्रोफ़	-8955
▁वर्ल्ड	-8956
▁सीमेंट	-8957
▁स्थावर	-8958
▁एमएसएमई	-8959
▁यथासंभव	-8960
▁विशुद्ध	-8961
▁समुच्चय	-8962
▁धूम्रपान	-8963
हु	-8964
ेषण	-8965
▁अंज	-8966
▁पिर	-8967
▁अविल	-8968
▁वाहक	-8969
▁वैसी	-8970
मुक्ति	-8971
▁खेलों	-8972
▁बुखार	-8973
▁शासकीय	-8974
ानिर्देश	-8975
▁गर्भवती	-8976
▁लाभकारी	-8977
▁सुंदरता	-8978
▁सुप्रीम	-8979
▁नागरिकता	-8980
▁ब्राउज़र	-8981
▁भूतपूर्व	-8982
ढा	-8983
यद	-8984
सेफ	-8985
▁डू	-8986
▁तद	-8987
र्थक	-8988
ालेख	-8989
▁छान	-8990
▁मदर	-8991
शिल्प	-8992
▁इटली	-8993
▁इनको	-8994
▁मदों	-8995
▁साफ़	-8996
स्पष्ट	-8997
▁पुष्ट	-8998
▁व्यतिक	-8999
अनुच्छेद	-9000
▁आन्तरिक	-9001
▁प्रशांत	-9002
▁पुनर्विलोकन	-9003
th	-9004
”,	-9005
अंग	-9006
िटर	-9007
्वल	-9008
ुदेव	-9009
▁सुस	-9010
▁अभिश	-9011
▁गायब	-9012
▁डिज़	-9013
▁सिटी	-9014
पीडीएफ	-9015
▁कोयले	-9016
▁ग्रिड	-9017
▁नामित	-9018
▁आक्षेप	-9019
▁डिक्री	-9020
▁राजदूत	-9021
प्लिकेशन	-9022
▁दर्शकों	-9023
ङ्ग	-9024
ालक	-9025
▁बूट	-9026
क्रेट	-9027
▁मरने	-9028
▁ईरानी	-9029
▁चालुक	-9030
▁रोकना	-9031
▁ग्यारह	-9032
▁पकड़ने	-9033
▁विचारा	-9034
▁सहेजें	-9035
▁जानबूझकर	-9036
▁संस्थापन	-9037
▁प्रेमचन्द	-9038
▁मनोवैज्ञानिक	-9039
ँव	-9040
ोभ	-9041
तौर	-9042
िगर	-9043
एमएस	-9044
पीएस	-9045
िश्न	-9046
▁Chr	-9047
▁टाल	-9048
▁हेम	-9049
▁अभिम	-9050
▁चालक	-9051
▁महार	-9052
▁यूनिक	-9053
▁लम्बा	-9054
▁प्रमाणन	-9055
सब	-9056
▁अमी	-9057
द्रीय	-9058
▁रूसी	-9059
▁वासी	-9060
▁शर्म	-9061
▁यूनाइटेड	-9062
▁सद्भावना	-9063
▁सिंगापुर	-9064
▁वास्तुकला	-9065
▁श्रीकृष्ण	-9066
▁परिस्थितियां	-9067
ोहण	-9068
▁पठ	-9069
गरों	-9070
▁अलम	-9071
न्नति	-9072
▁असीम	-9073
▁पौधा	-9074
▁बताई	-9075
▁भावा	-9076
▁माउस	-9077
▁सुलभ	-9078
रेटिंग	-9079
▁परवाह	-9080
▁पाश्च	-9081
▁मक्का	-9082
▁लीजिए	-9083
▁कर्त्त	-9084
▁निवेशक	-9085
▁मुद्रक	-9086
▁प्रतिमान	-9087
▁प्रेमचंद	-9088
▁प्रदर्शनी	-9089
▁भविष्यवाणी	-9090
▁अप्रत्याशित	-9091
▁परिप्रेक्ष्य	-9092
डेट	-9093
यता	-9094
▁ढ़	-9095
चरित	-9096
हरों	-9097
▁जनक	-9098
▁फ़र	-9099
▁मनी	-9100
फार्म	-9101
▁चिट्	-9102
▁पल्ल	-9103
▁एकांत	-9104
▁खतरों	-9105
▁गुलाम	-9106
▁जीवनी	-9107
▁डेविड	-9108
▁सुप्र	-9109
▁हफ्ते	-9110
▁दुबारा	-9111
▁काल्पनिक	-9112
▁निर्भरता	-9113
▁प्रतिपूर्ति	-9114
कथित	-9115
हानि	-9116
▁करों	-9117
▁दहेज	-9118
▁पच्च	-9119
▁मेजब	-9120
▁हरेक	-9121
▁दशाओं	-9122
▁मैसूर	-9123
▁उपक्रमों	-9124
▁फाउंडेशन	-9125
▁साधारणतया	-9126
ंदे	-9127
ग्व	-9128
▁ऊर्	-9129
▁जर्	-9130
▁मोल	-9131
िश्रण	-9132
▁अंडा	-9133
▁कटाई	-9134
▁कृपा	-9135
▁इलाके	-9136
▁डालते	-9137
▁तिहाई	-9138
▁समरूप	-9139
▁आश्रित	-9140
▁कानपुर	-9141
▁दिखाना	-9142
▁विनम्र	-9143
द्योगिकी	-9144
▁निदेशालय	-9145
▁पूर्वानु	-9146
▁सांविधिक	-9147
▁दिशानिर्देश	-9148
▁सेवानिवृत्त	-9149
तुर	-9150
भीत	-9151
देशन	-9152
बीसी	-9153
ालीस	-9154
▁अड़	-9155
▁नाव	-9156
▁मौन	-9157
▁हड्ड	-9158
▁उजागर	-9159
▁शाश्व	-9160
▁व्यतीत	-9161
▁स्नायु	-9162
तू	-9163
ंगर	-9164
ंशी	-9165
भ्र	-9166
ोत्	-9167
गंगा	-9168
गणित	-9169
▁बाघ	-9170
▁पीछा	-9171
▁बर्तन	-9172
▁मतदाता	-9173
▁अभिनेता	-9174
▁राष्ट्रीयता	-9175
िकर	-9176
▁१८	-9177
जिये	-9178
▁खाम	-9179
▁नक़	-9180
▁्या	-9181
न्याय	-9182
बिनेट	-9183
विधान	-9184
▁कपास	-9185
▁घेरे	-9186
▁निवल	-9187
कश्मीर	-9188
▁कन्या	-9189
▁घटनाएं	-9190
▁जिन्ना	-9191
▁बढ़िया	-9192
▁पात्रों	-9193
▁निदेशकों	-9194
▁संदर्भित	-9195
▁साझेदारी	-9196
करे	-9197
डोर	-9198
जन्य	-9199
▁कूद	-9200
▁टूल	-9201
▁तरा	-9202
ोत्सव	-9203
▁उद्घ	-9204
▁कलाम	-9205
▁ढलान	-9206
▁तरफ़	-9207
▁पूछे	-9208
▁बैंड	-9209
▁डीएनए	-9210
▁सीखना	-9211
▁ख्याति	-9212
▁अरुणाचल	-9213
▁आश्वस्त	-9214
▁करनेवाले	-9215
▁पासपोर्ट	-9216
▁अपरिहार्य	-9217
ak	-9218
्क	-9219
ँसी	-9220
आया	-9221
च्य	-9222
ूति	-9223
ोगिक	-9224
विन्द	-9225
विश्व	-9226
षिद्ध	-9227
▁अन्ध	-9228
▁फार्	-9229
▁श्ले	-9230
▁डालता	-9231
▁निपटा	-9232
▁भिक्ष	-9233
▁नवाचार	-9234
▁उत्तेजना	-9235
▁कन्वेंशन	-9236
▁प्रायोजित	-9237
▁आकांक्षाओं	-9238
▁आत्मनिर्भर	-9239
ारस	-9240
उच्च	-9241
▁खरा	-9242
▁शिल	-9243
ग्रंथ	-9244
▁वल्ल	-9245
▁सजीव	-9246
▁बढाने	-9247
▁वेदों	-9248
▁शिश्न	-9249
▁अस्त्र	-9250
▁ड्रग्स	-9251
▁माइक्र	-9252
▁विवेका	-9253
▁तकनीकों	-9254
▁पौराणिक	-9255
▁अनुयायियों	-9256
ey	-9257
लु	-9258
ॉं	-9259
कोच	-9260
ीदा	-9261
मिया	-9262
हाउस	-9263
ीयों	-9264
१वें	-9265
▁खां	-9266
▁गंग	-9267
▁सत्	-9268
र्गीय	-9269
▁ठेके	-9270
▁ब्ला	-9271
▁जयपुर	-9272
▁पक्का	-9273
▁लगाते	-9274
▁जंगलों	-9275
▁पाएंगे	-9276
▁प्रेषण	-9277
▁बिहारी	-9278
▁अधिकथित	-9279
▁पहुँचने	-9280
▁बागवानी	-9281
▁स्ट्रिंग	-9282
▁विश्वव्यापी	-9283
op	-9284
षाण	-9285
ेता	-9286
ोंग	-9287
▁छल	-9288
गीता	-9289
ुकता	-9290
▁झेल	-9291
मेन्ट	-9292
▁डिवा	-9293
▁फायर	-9294
बुद्धि	-9295
▁कब्जे	-9296
▁कालाव	-9297
▁पश्चा	-9298
प्रतिशत	-9299
▁दिशाओं	-9300
▁पंचवर्षीय	-9301
उथ	-9302
▁कत	-9303
बाज़	-9304
▁खाई	-9305
▁झूठ	-9306
▁लाज	-9307
▁तेजा	-9308
▁संग्र	-9309
▁सब्सि	-9310
▁कलात्मक	-9311
▁परिपत्र	-9312
▁बाध्यता	-9313
▁वृक्षों	-9314
▁अनुरक्षण	-9315
▁अधिनिर्णय	-9316
▁कार्यकर्ताओं	-9317
and	-9318
खने	-9319
्यूम	-9320
▁दुक	-9321
▁मेज	-9322
▁पत्थ	-9323
▁ऊँचाई	-9324
▁तुलसी	-9325
▁मंजिल	-9326
▁मंडली	-9327
▁तिमाही	-9328
▁निर्या	-9329
▁महाप्र	-9330
▁लक्षित	-9331
▁समाजवाद	-9332
▁अहमदाबाद	-9333
ist	-9334
मील	-9335
गारी	-9336
▁कैप	-9337
▁शिर	-9338
▁साई	-9339
▁आएगा	-9340
▁पारे	-9341
▁पैदल	-9342
▁मामल	-9343
▁रूढ़	-9344
स्फीति	-9345
▁अंकुर	-9346
▁इंसान	-9347
▁जिक्र	-9348
▁बढ़ना	-9349
▁आवृत्ति	-9350
▁नामनिर्देश	-9351
▁शताब्दियों	-9352
▁अर्थशास्त्र	-9353
ल्थ	-9354
▁हौ	-9355
आईएस	-9356
्रार	-9357
▁एकक	-9358
▁विस	-9359
ोरिया	-9360
▁धुंध	-9361
▁निका	-9362
▁राजप	-9363
▁सहभा	-9364
सिद्धि	-9365
▁जार्ज	-9366
▁पहलों	-9367
▁क्योकि	-9368
▁जागरूक	-9369
▁जोरदार	-9370
▁तत्समय	-9371
▁प्रचलन	-9372
▁फोल्डर	-9373
▁भाइयों	-9374
▁किताबें	-9375
▁छुटकारा	-9376
▁स्वर्गीय	-9377
ढी	-9378
फॉ	-9379
ोंक	-9380
माता	-9381
य्या	-9382
▁कंक	-9383
▁कस्	-9384
ारायण	-9385
▁म्यू	-9386
▁खरगोश	-9387
▁खुदरा	-9388
▁भूगोल	-9389
▁यौगिक	-9390
▁विमर्श	-9391
▁अवस्थाओं	-9392
▁त्रिपुरा	-9393
▁परिपक्वता	-9394
▁बुद्धिमान	-9395
▁प्रतिबंधित	-9396
.?	-9397
ind	-9398
गैर	-9399
मयी	-9400
चाहे	-9401
▁अधी	-9402
▁असु	-9403
▁भाँ	-9404
▁लूट	-9405
त्रिक	-9406
िवर्स	-9407
▁जवान	-9408
▁डिजी	-9409
श्लेषण	-9410
▁आरोपी	-9411
▁पहुँचे	-9412
▁प्रकटन	-9413
▁स्तंभों	-9414
▁हालाँकि	-9415
▁इस्लामिक	-9416
▁अपेक्षाओं	-9417
टीएम	-9418
▁असा	-9419
▁श्ल	-9420
ंत्रण	-9421
समन्व	-9422
ांजलि	-9423
▁अंगी	-9424
▁दरें	-9425
▁लड़ा	-9426
▁सबका	-9427
▁डालें	-9428
▁धरोहर	-9429
▁नम्बर	-9430
▁करवाया	-9431
▁दर्शित	-9432
▁इकाइयां	-9433
▁ग्रीष्म	-9434
बिन	-9435
गांव	-9436
ड़ने	-9437
▁कैद	-9438
▁झार	-9439
▁नहर	-9440
▁मेह	-9441
▁जीता	-9442
▁फ्री	-9443
▁मादक	-9444
▁मारा	-9445
ावस्था	-9446
▁झुकाव	-9447
▁पेरिस	-9448
▁मुर्गी	-9449
▁शाश्वत	-9450
▁स्वरुप	-9451
▁लाभप्रद	-9452
▁जुर्माने	-9453
▁पंचायतों	-9454
▁पत्तियों	-9455
▁पीड़ितों	-9456
▁समायोजित	-9457
डीए	-9458
तीस	-9459
वटी	-9460
ंडों	-9461
राहट	-9462
▁कौर	-9463
▁शाक	-9464
▁शैल	-9465
ग्राफ	-9466
▁जोशी	-9467
▁दलील	-9468
▁संसू	-9469
▁दर्जे	-9470
▁बारिश	-9471
▁बैटरी	-9472
▁बैठकर	-9473
▁यमुना	-9474
▁निम्नतर	-9475
▁संकेतों	-9476
▁सुलझाने	-9477
▁कलाकारों	-9478
▁सशक्तीकरण	-9479
▁साम्राज्यवाद	-9480
िशन	-9481
ंदाज	-9482
ठरोग	-9483
ात्य	-9484
्यूल	-9485
▁रेत	-9486
▁लौह	-9487
वारों	-9488
▁अस्व	-9489
▁एंटी	-9490
▁त्यो	-9491
▁क्रिस	-9492
▁खर्चा	-9493
त्तियां	-9494
▁ऑपरेशन	-9495
▁पंचांग	-9496
▁खुशहाली	-9497
▁व्यक़्ति	-9498
▁भावनात्मक	-9499
if	-9500
फो	-9501
डित	-9502
▁खुर	-9503
▁चौक	-9504
▁रुख	-9505
▁सिग	-9506
त्नों	-9507
देशीय	-9508
प्रेस	-9509
▁ऑफिस	-9510
▁अपहरण	-9511
▁अहसास	-9512
▁बढावा	-9513
▁बस्ती	-9514
▁वेस्ट	-9515
▁संस्थित	-9516
▁सैकड़ों	-9517
▁यांत्रिक	-9518
▁आत्मविश्वास	-9519
▁प्रोग्रामिंग	-9520
खल	-9521
ear	-9522
कोट	-9523
दशा	-9524
ोधी	-9525
▁कछ	-9526
अपील	-9527
▁अनौ	-9528
▁आदम	-9529
▁घेर	-9530
▁डिब	-9531
▁हुक	-9532
अर्था	-9533
विकास	-9534
▁लोहे	-9535
▁चुनने	-9536
▁निराश	-9537
▁भयभीत	-9538
▁जोड़ना	-9539
▁इंस्टीट	-9540
▁किस्मों	-9541
▁वैधानिक	-9542
हू	-9543
जना	-9544
जाना	-9545
ाधीन	-9546
ालाल	-9547
्तों	-9548
▁समन	-9549
▁उभार	-9550
▁चौदह	-9551
▁जरिये	-9552
▁रक्षक	-9553
▁विक्ष	-9554
▁वैद्य	-9555
ोनेशिया	-9556
▁नियोजक	-9557
▁मेडिकल	-9558
▁वर्षीय	-9559
▁एनआईओएस	-9560
▁सापेक्ष	-9561
▁प्रोफाइल	-9562
▁प्रादेशिक	-9563
tt	-9564
est	-9565
केश	-9566
मक्	-9567
ूपी	-9568
▁अछ	-9569
परिश	-9570
पुरा	-9571
स्की	-9572
िकों	-9573
िपरि	-9574
ोल्ट	-9575
▁वीं	-9576
नीयता	-9577
वालों	-9578
▁अनुभ	-9579
▁घंटा	-9580
▁बस्त	-9581
▁लाये	-9582
▁समया	-9583
ारियों	-9584
▁करुणा	-9585
▁क्लास	-9586
▁गिनती	-9587
▁ज़मीन	-9588
▁मैथुन	-9589
▁कंप्यूट	-9590
▁प्रतिरूप	-9591
▁विशिष्टता	-9592
नत	-9593
प्प	-9594
गमूल	-9595
चकों	-9596
▁com	-9597
▁अरे	-9598
ध्याय	-9599
▁पहने	-9600
▁लीटर	-9601
▁हमास	-9602
▁जिनको	-9603
▁नामंज	-9604
▁मल्टी	-9605
▁शॉर्ट	-9606
डब्ल्यू	-9607
▁अल्लाह	-9608
▁जुटाने	-9609
▁मापदंड	-9610
▁हनुमान	-9611
▁अखबारों	-9612
▁अत्याचार	-9613
▁वर्षगांठ	-9614
▁संक्रामक	-9615
▁साफ्टवेयर	-9616
गिन	-9617
पत्	-9618
रिश	-9619
चालय	-9620
ब्लू	-9621
ोरेट	-9622
▁टैग	-9623
▁सिम	-9624
▁आलोक	-9625
▁चाचा	-9626
▁मेला	-9627
▁व्रत	-9628
▁सपना	-9629
▁सर्प	-9630
▁आंत्र	-9631
▁नगरों	-9632
▁निष्क	-9633
▁मुर्ग	-9634
▁वायदा	-9635
▁अरविंद	-9636
▁गर्भाव	-9637
▁महत्वा	-9638
▁पृष्ठों	-9639
▁स्मार्ट	-9640
▁प्रॉक्सी	-9641
ड़ो	-9642
बैक	-9643
----	-9644
▁वॉल	-9645
तालों	-9646
विदों	-9647
▁अनुयायी	-9648
▁वर्गमूल	-9649
▁प्रभारित	-9650
ंबू	-9651
झान	-9652
फान	-9653
यास	-9654
िंट	-9655
▁आंग	-9656
▁जनन	-9657
▁बगी	-9658
▁वोट	-9659
▁फ़ोन	-9660
▁ब्ले	-9661
▁कराते	-9662
▁ग्रेड	-9663
▁माणिक	-9664
▁समकक्ष	-9665
▁त्योहार	-9666
▁पूंजीगत	-9667
▁फ़ाइलें	-9668
▁कट्टरपंथी	-9669
▁श्रद्धांजलि	-9670
वादा	-9671
विंग	-9672
ियान	-9673
ूंगी	-9674
▁मसौ	-9675
▁अंचल	-9676
▁अनुश	-9677
▁अमान	-9678
▁आप्र	-9679
▁इसमे	-9680
▁उड़ा	-9681
▁चौथे	-9682
▁हाइड	-9683
▁आँखें	-9684
▁नाजुक	-9685
▁रोबोट	-9686
▁वर्गा	-9687
▁तुम्हे	-9688
▁दिखाता	-9689
▁यूनानी	-9690
▁स्वराज	-9691
▁कैबिनेट	-9692
▁मेगावाट	-9693
▁राजनयिक	-9694
▁प्रतिवाद	-9695
▁मानदंडों	-9696
कारक	-9697
ान्स	-9698
ीर्ण	-9699
▁सरो	-9700
लैण्ड	-9701
ाइलों	-9702
▁असंग	-9703
▁क्षै	-9704
तत्त्व	-9705
वृद्धि	-9706
▁अंकों	-9707
▁अपनाए	-9708
▁उठाते	-9709
▁छोड़े	-9710
▁जातीय	-9711
▁आदिवासी	-9712
▁आस्तियां	-9713
▁अत्यावश्यक	-9714
इज	-9715
ैड	-9716
▁u	-9717
ंजक	-9718
▁अन्	-9719
▁नाच	-9720
▁बंट	-9721
▁भटक	-9722
▁सॉल	-9723
▁श्लो	-9724
समन्वय	-9725
▁पत्ते	-9726
▁होस्ट	-9727
▁एकाग्र	-9728
▁चीज़ों	-9729
▁चेष्टा	-9730
▁महाराज	-9731
▁विलम्ब	-9732
▁वचनबद्ध	-9733
▁कामगारों	-9734
▁सिद्धदोष	-9735
समी	-9736
ेतन	-9737
▁ओज	-9738
र्मित	-9739
ोलॉजी	-9740
▁करोड	-9741
▁घिरा	-9742
▁पीले	-9743
▁विस्	-9744
▁पर्दा	-9745
▁निकलना	-9746
▁भूमिगत	-9747
▁पैदावार	-9748
▁विलक्षण	-9749
▁परिष्कृत	-9750
CT	-9751
II	-9752
ंए	-9753
धना	-9754
जोरी	-9755
▁इजाज	-9756
▁उपजा	-9757
कुमारी	-9758
▁तुल्य	-9759
▁बूढ़े	-9760
▁स्थाय	-9761
▁प्रशंस	-9762
▁दुकानों	-9763
▁वियतनाम	-9764
▁संतोषजनक	-9765
▁न्यायोचित	-9766
▁मंत्रिपरि	-9767
ct	-9768
ँघ	-9769
बड़े	-9770
वेदी	-9771
▁अवश	-9772
▁उठी	-9773
▁भला	-9774
▁मित	-9775
▁अम्ब	-9776
▁असुर	-9777
▁पतली	-9778
▁फर्श	-9779
म्परिक	-9780
▁दिखने	-9781
▁दुर्व	-9782
▁बदलती	-9783
▁सेक्स	-9784
▁तालमेल	-9785
▁कालावधि	-9786
▁शीघ्रता	-9787
▁श्लोकों	-9788
▁तत्पश्चात्	-9789
▁फीट	-9790
▁लसी	-9791
ालैंड	-9792
▁इक्व	-9793
▁परिर	-9794
▁चौधरी	-9795
▁जनगणना	-9796
▁पराजित	-9797
▁महासभा	-9798
्युनिस्ट	-9799
▁सब्सिडी	-9800
▁स्टार्ट	-9801
▁अपराधियों	-9802
▁उम्मीदवार	-9803
▁पाश्चात्य	-9804
▁सहिष्णुता	-9805
▁कार्यकर्ता	-9806
ip	-9807
ख्श	-9808
चंद	-9809
ोरा	-9810
▁खली	-9811
▁ग्व	-9812
▁दूत	-9813
▁पला	-9814
▁बेन	-9815
▁अठार	-9816
▁उष्ण	-9817
▁त्यौ	-9818
▁नोडल	-9819
▁साहा	-9820
्रेषित	-9821
▁कुष्ठ	-9822
▁परिवी	-9823
▁कराधान	-9824
▁मुखिया	-9825
▁पसंदीदा	-9826
▁सन्दर्भ	-9827
▁पीढ़ियों	-9828
▁विश्वयुद्ध	-9829
ंबन	-9830
ण्य	-9831
काने	-9832
चेतन	-9833
पाली	-9834
बहुत	-9835
▁कमल	-9836
▁बिछ	-9837
सूचना	-9838
▁इष्ट	-9839
▁दुखद	-9840
▁साम्	-9841
पनिवेश	-9842
▁घंटों	-9843
▁समाना	-9844
▁तीक्ष्	-9845
▁पहचाना	-9846
▁कहानियां	-9847
▁कोशिकाएं	-9848
▁विकल्पों	-9849
▁संक्रमित	-9850
▁कार्यशाला	-9851
▁निस्संदेह	-9852
▁पहाड़ियों	-9853
▁प्रायद्वीप	-9854
▁पूर्वानुमान	-9855
गै	-9856
▁	-9857
ा	-9858
क	-9859
र	-9860
्	-9861
े	-9862
ि	-9863
न	-9864
स	-9865
त	-9866
ं	-9867
ी	-9868
ह	-9869
य	-9870
म	-9871
प	-9872
ो	-9873
व	-9874
ल	-9875
द	-9876
ज	-9877
ग	-9878
ै	-9879
ु	-9880
ब	-9881
अ	-9882
श	-9883
ध	-9884
ए	-9885
च	-9886
भ	-9887
।	-9888
थ	-9889
ट	-9890
ू	-9891
,	-9892
ष	-9893
उ	-9894
आ	-9895
ण	-9896
ड	-9897
औ	-9898
इ	-9899
ख	-9900
.	-9901
़	-9902
-	-9903
ई	-9904
फ	-9905
०	-9906
छ	-9907
ृ	-9908
)	-9909
(	-9910
ौ	-9911
ओ	-9912
ठ	-9913
१	-9914
घ	-9915
ँ	-9916
ऐ	-9917
ढ	-9918
झ	-9919
ः	-9920
ॉ	-9921
२	-9922
'	-9923
ञ	-9924
a	-9925
e	-9926
/	-9927
;	-9928
i	-9929
३	-9930
ऊ	-9931
?	-9932
:	-9933
s	-9934
t	-9935
o	-9936
r	-9937
n	-9938
0	-9939
ऋ	-9940
”	-9941
४	-9942
“	-9943
l	-9944
ऑ	-9945
%	-9946
c	-9947
d	-9948
"	-9949
५	-9950
‘	-9951
m	-9952
&	-9953
A	-9954
u	-9955
h	-9956
’	-9957
#	-9958
p	-9959
E	-9960
I	-9961
g	-9962
S	-9963
!	-9964
T	-9965
६	-9966
f	-9967
>	-9968
R	-9969
y	-9970
v	-9971
C	-9972
b	-9973
M	-9974
N	-9975
P	-9976
७	-9977
w	-9978
–	-9979
x	-9980
O	-9981
k	-9982
]	-9983
D	-9984
[	-9985
L	-9986
B	-9987
८	-9988
G	-9989
ङ	-9990
९	-9991
_	-9992
ॅ	-9993
