<unk>	0
<s>	0
</s>	0
UuRrLl	0
DdAaTtEe	0
NnUuMm	0
▁	-3.2514
▁के	-3.43432
▁।	-3.7849
▁है	-3.8033
▁,	-3.86238
▁में	-3.88967
▁की	-4.0711
▁और	-4.23269
▁से	-4.40747
▁का	-4.43352
▁को	-4.4473
▁.	-4.54776
▁-	-4.77194
▁हैं	-4.92391
ों	-4.97157
▁पर	-5.01474
▁एक	-5.01926
▁लिए	-5.06228
०	-5.08108
▁कि	-5.11592
ी	-5.33104
▁यह	-5.35379
▁)	-5.39126
▁नहीं	-5.39457
▁(	-5.40315
▁भी	-5.44316
▁किया	-5.4875
▁इस	-5.49007
▁या	-5.50231
▁करने	-5.51021
▁जो	-5.59639
▁हो	-5.59792
▁ने	-5.65851
▁कर	-5.66363
१	-5.72278
ा	-5.79437
▁था	-5.81077
▁तथा	-5.82966
▁ही	-5.83222
न	-5.8925
▁गया	-5.93878
ता	-6.00372
▁किसी	-6.03681
▁द्वारा	-6.0544
▁तो	-6.05795
क	-6.09249
▁रूप	-6.1017
▁वह	-6.12524
▁अपने	-6.17426
े	-6.25049
▁साथ	-6.26915
▁भारत	-6.30356
२	-6.31126
▁जा	-6.3496
▁न	-6.36989
▁जाता	-6.4033
▁तक	-6.41502
▁करना	-6.43097
र	-6.4496
▁थे	-6.45057
▁वे	-6.45458
▁कुछ	-6.4704
▁'	-6.47176
ना	-6.48578
▁कोई	-6.49361
▁होता	-6.54795
▁दिया	-6.55028
ं	-6.5609
▁सकता	-6.59326
▁/	-6.59686
▁हम	-6.60432
स	-6.60977
▁;	-6.62053
म	-6.63231
▁थी	-6.64134
ल	-6.64762
ने	-6.6505
▁समय	-6.66327
▁करते	-6.69412
▁हुए	-6.7067
▁अधिक	-6.71015
▁मैं	-6.72424
▁करता	-6.73335
▁आप	-6.734
▁जब	-6.76005
त	-6.7662
▁अन्य	-6.79311
▁अपनी	-6.79481
ित	-6.79835
▁चाहिए	-6.80976
▁उस	-6.81513
ो	-6.8493
▁उनके	-6.86228
▁रहा	-6.86661
▁:	-6.86678
▁बहुत	-6.87476
▁?	-6.88335
▁वाले	-6.89213
▁होने	-6.90082
▁कार्य	-6.9014
▁गई	-6.92587
▁रहे	-6.93001
ि	-6.93108
३	-6.93772
ओं	-6.94323
▁राज्य	-6.94323
▁सभी	-6.94439
▁बाद	-6.94644
▁जाने	-6.94805
▁कहा	-6.95157
▁प्रकार	-6.95483
▁उसके	-6.95992
▁ऐसे	-6.99695
▁होती	-6.99974
▁प्राप्त	-7.00958
▁आ	-7.01098
्	-7.01727
▁कम	-7.01778
▁इन	-7.02904
▁सरकार	-7.03222
कर	-7.03592
ियों	-7.04463
▁अ	-7.0557
व	-7.06012
▁तरह	-7.06289
▁क्षेत्र	-7.06564
▁होगा	-7.06772
▁हुआ	-7.06908
▁गए	-7.07852
▁भारतीय	-7.08281
▁इसके	-7.08909
▁राष्ट्रपति	-7.08915
▁प्रति	-7.09316
▁सकते	-7.09643
▁एवं	-7.09674
▁कारण	-7.09877
▁उसे	-7.09903
ते	-7.10297
▁किए	-7.10694
▁उन्हें	-7.1196
▁उन्होंने	-7.12709
▁विकास	-7.12959
▁बात	-7.12998
▁करें	-7.1366
▁यदि	-7.13911
▁क्या	-7.14169
▁व्यक्ति	-7.1434
▁दो	-7.14459
▁अधिनियम	-7.14708
▁देश	-7.15493
प	-7.15553
▁धारा	-7.15662
▁पहले	-7.15785
▁न्यायालय	-7.18785
▁लेकिन	-7.20005
▁ऐसा	-7.20845
▁दी	-7.21457
▁वर्ष	-7.22194
य	-7.24248
▁जाती	-7.25394
▁ऐसी	-7.26533
ट	-7.27609
▁लोगों	-7.28479
▁जीवन	-7.28761
▁अब	-7.29631
▁बारे	-7.29891
▁हमारे	-7.3056
ज	-7.30659
▁ये	-7.30989
ः	-7.32533
▁उनकी	-7.32977
▁काम	-7.34472
ें	-7.34523
ीय	-7.34597
▁जैसे	-7.34625
ब	-7.36335
ग	-7.36545
▁होते	-7.37288
▁नाम	-7.3765
द	-7.3853
▁अधीन	-7.39144
श	-7.39258
▁ओर	-7.39597
▁मुझे	-7.40109
ह	-7.40232
▁फिर	-7.40702
▁केवल	-7.4089
▁पूर्व	-7.41085
▁हुई	-7.41618
▁सी	-7.42024
ती	-7.42394
▁जाना	-7.42647
▁रही	-7.4274
िक	-7.43337
▁क	-7.44588
▁बीच	-7.45671
▁प्रदान	-7.46033
▁बार	-7.46808
▁भाग	-7.46916
४	-7.48416
▁उन	-7.49177
ड	-7.49721
▁अथवा	-7.51522
▁देने	-7.51692
▁विचार	-7.51946
▁प्रयोग	-7.52144
▁व	-7.52929
▁“	-7.53424
▁वाली	-7.54012
▁सं	-7.54777
▁जिसमें	-7.55755
▁ए	-7.56878
▁जहां	-7.57428
री	-7.57869
▁ले	-7.57905
▁दोनों	-7.58047
ई	-7.58217
▁सकती	-7.58493
▁पास	-7.58521
▁मे	-7.58738
ण	-7.60172
▁वि	-7.60548
▁करती	-7.60863
▁इसे	-7.60914
▁राष्ट्रीय	-7.60977
▁तब	-7.61056
▁संबंध	-7.6155
▁प्र	-7.62048
▁श्री	-7.62764
▁होना	-7.62769
▁उसकी	-7.62882
का	-7.63115
▁स	-7.63417
▁%	-7.63464
▁उपयोग	-7.63543
▁उच्च	-7.63563
ला	-7.63741
▁विधि	-7.63748
▁प्रक्रिया	-7.63808
▁स्थान	-7.65567
्य	-7.65883
▁विशेष	-7.66548
एं	-7.67416
▁सबसे	-7.67916
▁लिया	-7.68212
▁शिक्षा	-7.68384
▁दिन	-7.68731
▁क्योंकि	-7.69089
▁आधार	-7.70316
▁s	-7.71194
▁जाते	-7.71615
▁हमें	-7.71682
▁हूं	-7.72142
या	-7.72143
▁अपना	-7.72158
▁संबंधित	-7.72212
▁स्थिति	-7.7228
▁सूचना	-7.72352
▁लोग	-7.72457
ख	-7.72632
ू	-7.73879
रा	-7.73927
▁कभी	-7.74593
▁उपलब्ध	-7.75735
▁सेवा	-7.75745
▁विश्व	-7.76252
▁अनुसार	-7.77103
वा	-7.78127
▁ग	-7.78194
▁सहायता	-7.78851
▁सब	-7.79209
▁कई	-7.79728
▁लिये	-7.80133
▁विभिन्न	-7.80281
▁आय	-7.80408
▁ख	-7.80699
ड़	-7.81231
▁मामले	-7.81525
▁जाएगा	-7.81706
नी	-7.82207
▁अगर	-7.8222
▁दूसरे	-7.82365
ु	-7.8268
▁योजना	-7.83388
▁आज	-7.83821
▁मुख्य	-7.8434
▁इसलिए	-7.85078
▁दौरान	-7.85095
▁उसका	-7.85121
▁अलग	-7.85301
▁उनका	-7.85378
▁जी	-7.85601
िंग	-7.85606
्स	-7.85736
▁>	-7.86298
▁अधिकार	-7.8713
▁इसका	-7.87264
के	-7.87317
▁जाए	-7.88202
▁शक्ति	-7.88317
▁वाला	-7.88336
▁हर	-7.88525
▁शामिल	-7.88551
▁"	-7.88685
▁आदि	-7.89391
▁अनेक	-7.89527
▁&	-7.89812
ए	-7.90276
५	-7.90509
▁उसने	-7.90789
▁संख्या	-7.90923
▁म	-7.91734
सी	-7.92336
▁गये	-7.92422
▁दे	-7.93206
▁भाषा	-7.95091
च	-7.9577
▁जिसे	-7.96036
▁प्रत्येक	-7.9648
▁अर्थ	-7.96496
▁जल	-7.97357
▁उत्तर	-7.97465
▁निर्माण	-7.97704
▁पत्र	-7.98018
▁यहां	-7.98356
मा	-7.98844
ली	-7.98988
▁उप	-7.99173
▁ध्यान	-7.99402
▁सु	-7.99415
▁बनाने	-8.00148
फ	-8.00255
▁आपको	-8.00342
▁होगी	-8.01084
▁महत्वपूर्ण	-8.0116
▁प्रयास	-8.01203
▁बना	-8.01253
▁प्रभाव	-8.01309
▁स्तर	-8.01468
▁नई	-8.01475
▁तैयार	-8.01512
▁पी	-8.01925
▁तीन	-8.02075
▁जिसके	-8.02302
▁अवसर	-8.02958
यों	-8.0327
▁हेतु	-8.03477
▁बाहर	-8.03529
▁बिना	-8.03596
▁0	-8.04165
▁प्रतिशत	-8.04205
▁पता	-8.04332
▁हमारी	-8.04505
”	-8.04599
ज़	-8.04623
▁आर्थिक	-8.04838
▁सामान्य	-8.0492
▁देता	-8.04941
▁जनता	-8.05577
▁विषय	-8.05951
▁लोक	-8.06031
▁#	-8.06313
▁धर्म	-8.06346
की	-8.06494
▁आवश्यक	-8.06539
▁बैंक	-8.06566
▁नि	-8.06721
▁कु	-8.07347
▁इससे	-8.07931
पूर्ण	-8.07952
▁आगे	-8.08627
▁सके	-8.09309
▁करके	-8.09956
▁आवश्यकता	-8.1018
▁समाज	-8.1025
से	-8.10285
▁मूल	-8.10289
िया	-8.10435
▁प	-8.10607
ाई	-8.10715
▁बन	-8.10798
▁देना	-8.11221
ियां	-8.1126
▁”	-8.115
▁एस	-8.11873
▁वहां	-8.11899
▁शुरू	-8.12107
▁प्रमुख	-8.12255
▁इसमें	-8.12329
जी	-8.12543
▁खंड	-8.1284
▁मन	-8.12872
▁जिस	-8.13073
▁लागू	-8.13261
▁विश्वास	-8.13352
ंग	-8.13626
▁चार	-8.1371
▁हों	-8.13898
▁क्षेत्रों	-8.1458
▁ब	-8.14916
▁पूरी	-8.15102
▁जारी	-8.15206
▁प्रौद्योगिकी	-8.15248
▁आपके	-8.15333
▁लाभ	-8.15441
थ	-8.15675
▁सामाजिक	-8.15792
▁मेरे	-8.16036
▁दर	-8.16213
▁प्रणाली	-8.16395
▁काफी	-8.16407
▁आदेश	-8.1647
▁ज्ञान	-8.16536
▁लगा	-8.16674
ऋ	-8.1722
▁इसी	-8.17475
▁आई	-8.17625
▁स्वयं	-8.1769
▁पूरा	-8.17913
▁भवन	-8.18063
▁घर	-8.18536
▁‘	-8.18739
▁इ	-8.18797
▁पूर्ण	-8.19003
▁नीति	-8.19634
▁ऋण	-8.19998
▁माध्यम	-8.20491
▁तुम	-8.20593
▁व्यवस्था	-8.2076
▁स्थापित	-8.20826
▁उद्योग	-8.20899
▁गयी	-8.21016
र्इ	-8.21195
▁अभि	-8.21218
▁लगभग	-8.21228
▁दूर	-8.21469
▁सदस्य	-8.21641
▁कंपनी	-8.21975
▁निर्णय	-8.22283
▁मामलों	-8.22336
▁अवधि	-8.22618
’	-8.22668
▁आयोग	-8.23275
▁मूल्य	-8.23328
▁हूँ	-8.23534
▁रिपोर्ट	-8.23778
▁जानकारी	-8.23965
▁समान	-8.24098
▁मैंने	-8.24506
ले	-8.24571
▁बड़ी	-8.25058
▁अनु	-8.252
▁सुरक्षा	-8.25347
▁कार्यक्रम	-8.25464
▁पद	-8.25712
▁मिल	-8.25735
▁!	-8.25814
▁कृषि	-8.25904
▁सा	-8.26082
▁परिवर्तन	-8.26324
▁ई	-8.26458
गी	-8.26712
▁स्पष्ट	-8.26867
▁विज्ञान	-8.26952
▁मानव	-8.26968
▁संविधान	-8.27067
▁द	-8.27588
सा	-8.27976
▁सभा	-8.28225
▁कुल	-8.28306
▁विभाग	-8.2873
▁राशि	-8.28794
▁अभी	-8.28939
▁शब्द	-8.28941
िका	-8.29078
▁जिससे	-8.29414
▁इसकी	-8.29527
▁ऊ	-8.29529
▁देशों	-8.29545
▁जिसका	-8.29586
▁स्वीकार	-8.29598
▁अधिकारी	-8.29883
▁ठीक	-8.30338
▁प्रस्तुत	-8.30396
▁देते	-8.30476
▁संबंधी	-8.30679
ति	-8.30887
▁रखने	-8.30896
▁उत्पादन	-8.31281
ै	-8.31413
▁अंतर्गत	-8.31979
▁सूची	-8.32245
▁रखा	-8.32262
▁एन	-8.32551
▁जैसा	-8.32565
▁त	-8.3261
▁उद्देश्य	-8.3273
▁सुधार	-8.32941
▁बड़े	-8.33058
▁<	-8.33093
▁उपधारा	-8.33193
रे	-8.33533
▁ऊपर	-8.33681
▁संघ	-8.33818
▁राष्ट्र	-8.33857
▁सीमा	-8.34945
▁शरीर	-8.35055
स्त	-8.35753
▁बल्कि	-8.35829
▁पा	-8.35897
▁मध्य	-8.35977
६	-8.36036
▁ओ	-8.36387
ध	-8.36396
▁चाहते	-8.36867
वि	-8.37411
ॉ	-8.3743
▁मेरी	-8.37497
▁रह	-8.37779
▁समूह	-8.37932
▁ली	-8.38521
▁उ	-8.38603
▁समिति	-8.3878
▁दृष्टि	-8.39111
▁विशिष्ट	-8.39188
को	-8.39266
▁क्षमता	-8.39286
▁सही	-8.39629
▁उपबंध	-8.39646
़	-8.40113
ात्मक	-8.40168
▁अतिरिक्त	-8.40547
▁प्रश्न	-8.40718
▁देखा	-8.40813
▁अनुच्छेद	-8.40842
▁ज	-8.40857
▁सामने	-8.41253
▁रंग	-8.4134
▁आने	-8.41437
कार	-8.41618
▁नीचे	-8.41638
▁यहाँ	-8.41683
▁न्याय	-8.42051
▁युद्ध	-8.42303
ंड	-8.42315
▁कहते	-8.42377
▁नियम	-8.42406
ीकरण	-8.42602
▁मांग	-8.42685
▁स्वास्थ्य	-8.4279
▁वर्ग	-8.42897
▁च	-8.43351
▁बल	-8.43384
गत	-8.43415
▁यात्रा	-8.43788
▁बी	-8.4422
▁भर	-8.44251
▁ला	-8.44312
▁परंतु	-8.44379
▁सहयोग	-8.44449
▁अनुसंधान	-8.4445
▁लेने	-8.44528
्र	-8.44888
▁स्थित	-8.44982
मान	-8.45275
▁बे	-8.45316
▁वर्तमान	-8.45367
▁वस्तु	-8.45434
▁पानी	-8.45868
▁परन्तु	-8.46293
▁दिए	-8.46323
▁आर	-8.46342
▁ह	-8.46399
▁यू	-8.4644
▁वर्षों	-8.4651
s	-8.46585
▁प्रयोजन	-8.46613
▁साल	-8.46722
▁व्यापार	-8.46732
▁छोटे	-8.46937
▁विवाह	-8.47182
▁संयुक्त	-8.47251
▁विदेशी	-8.4728
▁अनुभव	-8.47303
दार	-8.47768
दा	-8.47906
▁निर्धारण	-8.4802
▁परि	-8.4839
▁करेगा	-8.48448
▁आम	-8.48598
▁डी	-8.48609
▁अंत	-8.4881
टी	-8.4916
▁उससे	-8.49219
▁जमा	-8.49255
▁होंगे	-8.49418
▁व्यक्तियों	-8.49498
▁भीतर	-8.49739
▁थीं	-8.4978
▁वास्तव	-8.49938
▁मृत्यु	-8.49971
▁बच्चों	-8.50108
▁बड़ा	-8.5018
▁तौर	-8.50507
▁राज	-8.50577
▁आधारित	-8.50663
▁नियंत्रण	-8.50685
▁प्रथम	-8.50824
▁उसी	-8.50937
▁उच्चतम	-8.51043
▁अव	-8.5117
▁सिंह	-8.51592
▁अध्ययन	-8.5171
प्र	-8.5175
ओ	-8.51762
▁रहने	-8.51811
स्ट	-8.52075
▁प्रदेश	-8.52306
वी	-8.52335
▁वृद्धि	-8.52487
▁उदाहरण	-8.52523
▁विश्वविद्यालय	-8.5257
▁नही	-8.52729
▁रहते	-8.52886
न्	-8.53038
▁माल	-8.53187
एँ	-8.53442
▁ज्यादा	-8.53537
ँ	-8.53562
▁संस्थान	-8.53578
▁मत	-8.53607
e	-8.53904
▁समाप्त	-8.54316
▁सरकारी	-8.54353
ौ	-8.54355
गा	-8.54379
▁लगता	-8.54484
▁अप	-8.54657
▁दूसरी	-8.54699
▁विकसित	-8.54844
ष	-8.55
▁परिणाम	-8.5529
▁करेंगे	-8.55297
▁काल	-8.55372
▁अंतिम	-8.55603
▁नए	-8.55775
▁बाजार	-8.55815
▁न्यायाधीश	-8.55855
भ	-8.55877
▁जन्म	-8.55995
▁वित्तीय	-8.56
▁मदद	-8.56352
▁प्रकृति	-8.56481
▁जांच	-8.56537
छ्ष	-8.56676
ण्श्	-8.5672
▁पैदा	-8.56792
▁प्रस्ताव	-8.56962
▁भूमि	-8.57026
▁उत्पन्न	-8.57313
▁अपील	-8.574
▁अन	-8.57417
▁धन	-8.57457
डी	-8.57676
▁स्थापना	-8.5773
▁पहचान	-8.57733
▁निर्धारित	-8.5786
▁दिल्ली	-8.57864
▁लेकर	-8.58301
▁इतिहास	-8.58385
▁कैसे	-8.58417
▁केंद्र	-8.58465
▁बस	-8.58671
▁किंतु	-8.58706
▁भूमिका	-8.58706
▁जन	-8.58769
टा	-8.59049
नि	-8.59126
▁रुप	-8.59206
▁संदेश	-8.59279
▁रोग	-8.59614
▁हाथ	-8.59841
▁स्वतंत्रता	-8.59946
फ़	-8.59953
▁समस्या	-8.60334
▁सदस्यों	-8.60374
▁किये	-8.60384
▁पुनः	-8.60389
▁संगठन	-8.60552
▁करे	-8.60862
▁घ	-8.60928
▁हमने	-8.60975
पुर	-8.61117
▁शासन	-8.61239
▁खोज	-8.61364
▁संसद	-8.61449
▁मात्रा	-8.61486
▁अच्छा	-8.61549
0	-8.61625
▁संशोधन	-8.61639
ठ	-8.61641
▁माना	-8.61667
▁पहुंच	-8.61889
▁परिवार	-8.61989
▁आवेदन	-8.62326
▁आरंभ	-8.62773
▁कानून	-8.63043
▁समझ	-8.63098
▁पक्ष	-8.63255
▁भिन्न	-8.63311
▁ल	-8.63482
▁राज्यों	-8.63529
▁सत्ता	-8.63582
▁मु	-8.63735
▁कांग्रेस	-8.63825
▁बाहरी	-8.641
▁सहित	-8.64139
▁बनाया	-8.64372
बी	-8.64457
▁छ	-8.64462
▁छोड़	-8.65029
▁सन्	-8.65446
▁बराबर	-8.65502
▁भुगतान	-8.65529
▁मिला	-8.65557
▁यही	-8.65574
▁निवेश	-8.65805
▁अच्छी	-8.65879
▁साहित्य	-8.65893
▁ताकि	-8.65952
▁सुनिश्चित	-8.65961
७	-8.66082
▁राय	-8.66108
▁उचित	-8.6611
हा	-8.66321
▁दक्षिण	-8.6636
▁लाख	-8.66416
ण्ड	-8.66765
▁व्यापक	-8.66803
▁विस्तार	-8.66928
▁प्रशिक्षण	-8.66935
▁राम	-8.67015
▁भ	-8.67152
▁सह	-8.67483
▁दुनिया	-8.6776
▁खेल	-8.67792
में	-8.67793
▁बनाए	-8.67855
ड़ा	-8.67861
▁अपराध	-8.67902
▁प्रेम	-8.67941
ास	-8.68222
▁जबकि	-8.68309
▁स्थानीय	-8.6838
▁जाएगी	-8.68419
▁रहता	-8.68528
▁जिन	-8.68773
o	-8.69082
रो	-8.69092
▁लक्ष्य	-8.6934
▁विरुद्ध	-8.69392
▁पश्चात्	-8.69438
▁उसमें	-8.69697
कारी	-8.6987
▁अपेक्षा	-8.69927
इ	-8.69941
▁तहत	-8.69975
ंट	-8.70269
वे	-8.70326
▁बा	-8.7038
▁एम	-8.70416
▁अमेरिका	-8.70483
▁देख	-8.70524
▁जगह	-8.70777
पी	-8.70822
▁जरूरत	-8.7093
▁निर्दिष्ट	-8.7098
▁चल	-8.71056
स्	-8.71119
▁दिशा	-8.71217
▁मार्ग	-8.71352
वाद	-8.71406
▁चला	-8.71655
▁बच्चे	-8.71703
▁उनमें	-8.71905
▁बंद	-8.71907
▁होकर	-8.72125
▁प्रभावित	-8.72389
▁पीछे	-8.7242
अ	-8.72929
वर	-8.73001
▁आकार	-8.73136
▁चाहिये	-8.7323
▁पर्याप्त	-8.73344
▁क्रिया	-8.73397
करण	-8.73518
▁वेबसाइट	-8.73519
▁सत्य	-8.73602
▁प्रबंधन	-8.73608
त्र	-8.7386
▁बाल	-8.73888
ंस	-8.74066
▁पिता	-8.74068
▁सार्वजनिक	-8.74131
घ	-8.74436
▁हे	-8.74744
▁ट	-8.74778
▁पूंजी	-8.75043
▁कमी	-8.75194
a	-8.75369
सं	-8.75383
जा	-8.75385
▁पिछले	-8.75608
पन	-8.75629
▁निम्नलिखित	-8.75637
▁पुलिस	-8.75698
▁परियोजना	-8.75759
िन	-8.75916
आ	-8.76089
त्व	-8.76294
▁गांधी	-8.7632
▁दिनों	-8.76349
▁कल	-8.76385
मी	-8.76524
▁प्रवेश	-8.76576
▁मंदिर	-8.76649
तः	-8.76718
▁आया	-8.76832
▁केंद्रीय	-8.77029
▁पहली	-8.7745
▁र	-8.77648
▁गैर	-8.77682
▁वो	-8.78
▁A	-8.78141
्या	-8.78339
▁सक्रिय	-8.78356
▁क्यों	-8.78383
▁मान	-8.7856
▁दंड	-8.78666
▁प्रगति	-8.78837
▁कह	-8.78841
▁कहीं	-8.78844
▁सम	-8.79089
बा	-8.79134
▁संभव	-8.79535
▁सर	-8.79699
▁अलावा	-8.79883
▁फाइल	-8.80046
▁निश्चित	-8.80084
▁विवरण	-8.80146
▁ग्रामीण	-8.80255
▁ऊर्जा	-8.80286
▁शब्दों	-8.80417
▁मंत्रालय	-8.805
▁चाहे	-8.80567
तर	-8.80569
र्स	-8.80624
▁अनुमति	-8.80687
▁व्यवहार	-8.8077
▁बीमा	-8.80874
▁औद्योगिक	-8.80879
▁व्यक्त	-8.80886
▁राजा	-8.80999
▁पार	-8.81303
▁बदल	-8.81372
म्ब	-8.81403
▁बोर्ड	-8.81539
वादी	-8.81645
▁झ	-8.81706
▁अध्यक्ष	-8.81876
▁लगे	-8.81902
▁ढंग	-8.81994
▁गति	-8.81995
▁लिखा	-8.82013
▁समर्थन	-8.82017
▁याद	-8.82242
▁नदी	-8.82329
▁रचना	-8.82388
▁पांच	-8.82572
t	-8.82611
▁स्व	-8.82622
▁करोड़	-8.82636
▁अंग	-8.82882
▁महा	-8.82903
▁महत्व	-8.83043
▁जिन्हें	-8.83063
छ	-8.83299
▁फ	-8.83475
▁सक्षम	-8.8355
▁संस्था	-8.83608
▁शायद	-8.83801
▁इस्तेमाल	-8.83931
▁सुविधा	-8.84201
▁लेखा	-8.84205
▁कला	-8.8423
▁देती	-8.84306
▁राजनीतिक	-8.84322
▁समाधान	-8.84352
▁आधुनिक	-8.84459
दी	-8.84535
▁महान	-8.84795
▁केन्द्र	-8.85006
ड़ी	-8.85172
▁खर्च	-8.85433
▁चिकित्सा	-8.85437
▁चुका	-8.85643
ार	-8.85649
▁प्रकट	-8.85739
▁अल	-8.85763
▁जिनमें	-8.85775
▁पाया	-8.85808
▁प्रकाश	-8.85849
▁इतना	-8.86117
मे	-8.86129
पर	-8.86314
▁मुखर्जी	-8.8678
▁ईश्वर	-8.87114
▁एक्स	-8.87197
▁एल	-8.87323
▁सहायक	-8.87579
▁भविष्य	-8.87612
▁योग्य	-8.8766
▁स्कूल	-8.8793
▁भा	-8.87982
i	-8.87999
▁मेरा	-8.88019
▁मनुष्य	-8.88267
▁सामग्री	-8.88453
▁टी	-8.88492
यां	-8.88537
▁मुक्त	-8.88593
▁न्यायिक	-8.88691
▁जैसी	-8.8873
▁हमारा	-8.88785
▁भाव	-8.88845
▁बंगाल	-8.88853
▁चाहता	-8.89004
▁मि	-8.89081
▁पालन	-8.89105
▁तारीख	-8.89199
▁निर्यात	-8.89263
▁पूरे	-8.89275
▁सो	-8.89447
▁वास्तविक	-8.89474
▁वापस	-8.89535
▁य	-8.89554
▁रक्षा	-8.8972
▁पुस्तक	-8.89737
▁संरक्षण	-8.89751
▁हाल	-8.89804
▁निजी	-8.8986
ंद	-8.89995
म्	-8.90165
▁श	-8.90389
▁संपत्ति	-8.90542
▁प्रकाशित	-8.90618
▁बनाम	-8.90661
▁कविता	-8.90665
क्ष	-8.90708
▁नया	-8.90736
▁पुरस्कार	-8.90741
तम	-8.90764
▁विधान	-8.90929
▁यद्यपि	-8.90948
▁दल	-8.91098
रण	-8.91123
हार	-8.91255
▁अति	-8.91546
▁किस	-8.91555
▁प्रारंभ	-8.91619
▁लग	-8.91672
▁पे	-8.91694
▁जीव	-8.91737
▁आत्मा	-8.91861
▁अवस्था	-8.91872
▁रक्त	-8.9199
िल	-8.92023
▁सोच	-8.92046
▁इनमें	-8.92072
▁न्यायालयों	-8.9212
▁रकम	-8.92211
कर्ता	-8.92283
क्स	-8.92299
▁पृष्ठ	-8.92305
▁जे	-8.92511
▁दशा	-8.92515
▁चर्चा	-8.92527
▁भावना	-8.92566
▁समक्ष	-8.92661
▁रखना	-8.92907
▁निर्देश	-8.92935
▁कवि	-8.92977
▁हमेशा	-8.93051
▁शहर	-8.93083
▁कंप्यूटर	-8.93118
ंक	-8.93144
▁युवा	-8.93177
▁उल्लेख	-8.93216
▁संदर्भ	-8.93326
ाव	-8.93332
▁सिर्फ	-8.9338
▁लाल	-8.93407
ढ़	-8.93424
▁रखते	-8.93657
▁उत्पाद	-8.93675
्म	-8.93725
रू	-8.93767
▁युग	-8.93771
▁अधिकांश	-8.93789
y	-8.93884
▁बेहतर	-8.93891
▁सकेगा	-8.94341
जन	-8.9443
▁मंत्री	-8.94445
झ	-8.94472
▁बने	-8.94524
▁रे	-8.94568
▁सेवाओं	-8.94578
▁संपर्क	-8.9458
▁दें	-8.94592
▁S	-8.94651
▁जाये	-8.94665
▁देखने	-8.94709
▁सेना	-8.94919
▁अधि	-8.95056
▁a	-8.95093
▁लागत	-8.95159
▁महिला	-8.95179
ये	-8.95213
▁केन्द्रीय	-8.95626
▁संरचना	-8.95806
ान	-8.95863
नाथ	-8.96098
▁कदम	-8.96142
▁धीरे	-8.96209
ंज	-8.96217
▁बहु	-8.96312
▁बताया	-8.96356
▁भू	-8.96421
▁सदन	-8.96516
▁चित्र	-8.96536
▁रि	-8.96619
▁परीक्षा	-8.96903
▁लघु	-8.96941
▁योगदान	-8.96983
▁पि	-8.97026
▁किन्तु	-8.97051
▁जिसकी	-8.97053
▁सि	-8.97149
▁निधि	-8.97286
▁छोटी	-8.97383
ाय	-8.9743
्त	-8.97507
▁दिवस	-8.97791
▁पुरुष	-8.97841
▁संकेत	-8.97917
▁उपचार	-8.97932
▁पद्धति	-8.97942
▁पश्चिम	-8.98084
▁प्रशासन	-8.98218
▁दिखाई	-8.98388
▁गो	-8.98457
▁दूसरा	-8.98571
▁बि	-8.98741
▁सिद्धांत	-8.98749
▁अंतर	-8.98923
▁धार्मिक	-8.98983
शी	-8.99016
▁रु	-8.99059
▁ध	-8.99067
▁उठा	-8.99148
▁कोशिश	-8.99398
▁नेटवर्क	-8.99434
▁वहाँ	-8.99516
▁रख	-8.99551
▁सीमित	-8.99618
टे	-8.99668
उ	-8.99854
▁तरीके	-8.99926
▁तंत्र	-9.0004
▁सम्मान	-9.00061
▁प्रणब	-9.00212
▁प्रदर्शन	-9.00466
८	-9.00559
▁व्य	-9.0079
▁ब्रिटिश	-9.00953
▁हिन्दी	-9.01225
▁साधारण	-9.01296
▁आयु	-9.0131
ाना	-9.01436
▁आशा	-9.0148
▁सारे	-9.01529
▁जाति	-9.01612
▁अध्याय	-9.01794
ंच	-9.01939
ाल	-9.01949
▁अनिवार्य	-9.0203
▁प्रभावी	-9.02057
▁रहती	-9.02144
▁आंदोलन	-9.02146
िए	-9.02155
▁मुद्रा	-9.02241
▁समझा	-9.0227
वीं	-9.02479
▁अंग्रेजी	-9.0258
शा	-9.02591
र्	-9.02669
▁उनसे	-9.02717
▁जिला	-9.03292
▁गा	-9.03428
▁सफल	-9.03443
▁संस्कृति	-9.03456
▁ऑफ	-9.03513
▁हित	-9.0362
▁प्राकृतिक	-9.03668
▁दस	-9.03721
▁स्प	-9.03816
बल	-9.03984
▁वाद	-9.04012
▁गुणवत्ता	-9.04141
▁विशाल	-9.04371
▁फ़	-9.04372
▁मै	-9.04381
▁सम्मिलित	-9.04735
▁जहाँ	-9.04776
न्द	-9.04795
▁बढ़	-9.04836
▁शांति	-9.0504
ूर	-9.05041
▁देखते	-9.05051
▁वित्त	-9.05152
स्थ	-9.05184
▁आता	-9.05269
▁विवाद	-9.05345
▁विधेयक	-9.05413
▁संगीत	-9.05863
▁भोजन	-9.05879
▁लि	-9.05969
S	-9.06097
▁कार्यालय	-9.062
▁उपकरण	-9.06216
▁अधिकारियों	-9.06223
▁आत्म	-9.06411
▁नाटक	-9.06702
त्त	-9.06794
▁वर्णन	-9.06878
▁हिस्सा	-9.06905
▁खुलती	-9.06922
यर	-9.07124
▁आपकी	-9.07204
्व	-9.0728
▁व्यक्तिगत	-9.07463
▁विंडों	-9.07893
▁समारोह	-9.07927
▁वही	-9.08186
मय	-9.08211
▁अत्यंत	-9.08214
▁इच्छा	-9.08276
▁मिलता	-9.08282
▁शुल्क	-9.08296
▁पड़ा	-9.08341
▁सकें	-9.08341
▁मी	-9.08373
पा	-9.08408
▁शेयर	-9.08524
▁पेश	-9.08549
▁गुण	-9.08556
रु	-9.08804
▁उपयुक्त	-9.08818
▁मुस्लिम	-9.08832
▁दा	-9.08834
▁संहिता	-9.08873
मन	-9.08903
ंत	-9.09096
▁अतः	-9.09221
शील	-9.09247
काल	-9.09296
▁संघर्ष	-9.09336
▁पड़ता	-9.09562
▁घोषणा	-9.09581
▁व्यय	-9.09585
▁करनी	-9.09621
▁बधाई	-9.09621
▁लेना	-9.09662
▁विकल्प	-9.09688
▁विरोध	-9.09699
er	-9.0971
▁तुलना	-9.0977
▁प्रा	-9.09799
▁जिनके	-9.09978
▁सिद्ध	-9.09999
▁निर्धारिती	-9.101
▁विचारों	-9.10172
▁घटना	-9.10423
▁गु	-9.1043
ड़े	-9.10528
डा	-9.10648
▁चि	-9.10672
ां	-9.10748
क्	-9.10751
▁दृष्टिकोण	-9.10801
▁प्राचीन	-9.10882
▁सफलता	-9.11007
▁वैज्ञानिक	-9.11023
▁संभावना	-9.11471
▁बता	-9.11515
▁निर्भर	-9.11711
▁भारी	-9.11803
▁सम्मेलन	-9.119
▁रो	-9.1232
ृ	-9.12337
▁उपबंधों	-9.1243
▁कर्म	-9.12471
बद्ध	-9.12573
▁बिल	-9.12611
▁सिविल	-9.12631
▁गलत	-9.12858
▁नियमों	-9.12916
▁खुद	-9.12922
▁सुन	-9.12936
▁सिफारिश	-9.12951
▁ऐ	-9.13015
▁खरीद	-9.13077
▁नगर	-9.13214
ाम	-9.13258
९	-9.13276
▁निम्न	-9.13343
▁नये	-9.13367
▁तथापि	-9.13408
ेशन	-9.13483
▁आयोजित	-9.136
▁प्रधान	-9.13833
▁व्यवसाय	-9.13972
▁मा	-9.13979
शन	-9.13991
▁हिन्दू	-9.14058
▁संस्थानों	-9.1416
▁गंभीर	-9.14209
▁विनिर्दिष्ट	-9.14282
▁हृदय	-9.14359
▁संसाधन	-9.14372
▁पाने	-9.1439
▁फ़ाइल	-9.14393
▁हा	-9.14461
▁अर्थात्	-9.14501
कों	-9.14586
▁आते	-9.14627
▁पर्यावरण	-9.14649
r	-9.14754
▁कार्यवाही	-9.14759
▁i	-9.14822
म्प	-9.15053
▁सुझाव	-9.15431
▁खाते	-9.15494
▁जानते	-9.15593
▁दु	-9.15593
l	-9.158
▁बोल	-9.15843
▁संस्कृत	-9.15913
▁माता	-9.1593
▁सिर	-9.15932
▁दर्शन	-9.16063
▁जानी	-9.16102
▁फल	-9.16129
▁अच्छे	-9.16144
वर्ती	-9.16171
▁कार्रवाई	-9.16174
▁शिकायत	-9.16189
▁जिसने	-9.16401
▁ठ	-9.16484
▁सुरक्षित	-9.16538
▁कठिन	-9.16545
▁जरूरी	-9.16606
▁परिषद	-9.16617
▁ड	-9.16739
ेट	-9.16818
▁लेते	-9.16857
▁–	-9.16991
▁अंतरराष्ट्रीय	-9.17032
वार	-9.1728
िस	-9.17294
रि	-9.17424
▁स्वरूप	-9.17446
▁ब्याज	-9.17475
यें	-9.17494
▁पारित	-9.17623
▁मह	-9.17714
ष्ट	-9.17715
▁बनाना	-9.17772
u	-9.17827
00	-9.18063
k	-9.18136
▁सर्व	-9.18163
▁निकट	-9.18245
f	-9.18442
▁कहना	-9.18562
यो	-9.18607
यी	-9.18725
▁वी	-9.18807
▁सू	-9.18975
▁जान	-9.1899
▁मात्र	-9.1903
▁खाद्य	-9.19111
▁सलाह	-9.19162
▁डि	-9.19248
▁आदमी	-9.19481
▁छोटा	-9.19665
▁रोक	-9.19684
मो	-9.19761
▁काव्य	-9.19773
▁डेटा	-9.19821
▁अर्थव्यवस्था	-9.19988
▁डॉ	-9.20131
▁उपाय	-9.20279
▁डा	-9.20462
▁तकनीकी	-9.20658
▁कौन	-9.20671
▁उपस्थित	-9.20757
लि	-9.20757
▁गर्इ	-9.20804
▁उद्यम	-9.20933
कृत	-9.21229
▁सका	-9.21291
▁मिली	-9.21315
▁अंदर	-9.21357
▁पदार्थ	-9.21418
टर	-9.21535
▁मित्र	-9.21554
▁आदर्श	-9.21586
व्य	-9.21625
▁तरफ	-9.21642
▁संपूर्ण	-9.21646
▁लगाया	-9.21759
वल	-9.21797
र्क	-9.21903
ांत	-9.22041
▁इजरायल	-9.22093
चर	-9.22141
▁होनी	-9.22175
▁हैः	-9.22237
▁मौजूद	-9.2226
्यु	-9.22317
▁स्वतंत्र	-9.22377
▁तेल	-9.22379
▁मर	-9.22388
▁अधिकारों	-9.22496
▁नियुक्त	-9.2262
▁सौ	-9.22633
▁कार्यों	-9.22686
▁दृश्य	-9.2271
▁समुदाय	-9.22731
▁वाणिज्यिक	-9.22781
्यू	-9.22809
▁सात	-9.22813
▁कहानी	-9.22834
▁रा	-9.22845
िश	-9.22921
▁पहला	-9.22985
▁अप्रैल	-9.23236
▁तर्क	-9.23387
पूर्वक	-9.23389
▁पश्चिमी	-9.23511
ेन	-9.23531
▁मार्च	-9.23536
▁तेजी	-9.23635
▁तथ्य	-9.23694
▁इं	-9.23771
▁स्थायी	-9.23789
▁विद्यमान	-9.23954
▁परीक्षण	-9.23956
्न	-9.23996
हर	-9.24014
▁हानि	-9.24105
▁महिलाओं	-9.2418
▁शेष	-9.24246
▁खाता	-9.2449
▁पार्टी	-9.24542
▁अरब	-9.24588
▁भाई	-9.24669
▁रात	-9.24795
▁नागरिक	-9.24871
▁डे	-9.25094
▁वार्षिक	-9.25146
▁चुके	-9.25187
▁कीमत	-9.25237
▁क्रम	-9.25242
ियाँ	-9.25245
▁निगम	-9.25606
▁रहना	-9.25626
▁निर्वाचन	-9.25703
कु	-9.25787
▁विद्युत	-9.25801
राम	-9.25931
रूप	-9.26094
▁पाकिस्तान	-9.26096
▁कृपया	-9.26194
▁समुद्र	-9.26243
▁मानसिक	-9.26324
A	-9.26355
▁मजबूत	-9.26402
▁शताब्दी	-9.26638
सर	-9.26645
ल्ल	-9.2666
▁बनी	-9.26696
रिया	-9.26888
खा	-9.26896
▁परामर्श	-9.26912
▁बैठक	-9.2698
▁सम्बन्ध	-9.27028
▁आपका	-9.27113
▁महसूस	-9.27184
▁विस्तृत	-9.27184
▁गुना	-9.2727
युक्त	-9.27271
▁बु	-9.27295
▁योग	-9.27345
यन	-9.27376
▁वातावरण	-9.27583
हीन	-9.27629
▁संचार	-9.27684
▁वेतन	-9.27828
▁अंश	-9.27831
▁शून्य	-9.27843
▁प्रमाण	-9.27885
३०	-9.27913
▁इस्लाम	-9.27944
▁कर्मचारियों	-9.27983
▁लाने	-9.28179
वाह	-9.28257
▁निर्	-9.28286
▁निकाल	-9.28324
▁विदेश	-9.28367
▁प्राप्ति	-9.28393
▁गांव	-9.28473
▁ब्र	-9.2855
▁वस्तुओं	-9.28557
▁स्रोत	-9.28569
▁सूक्ष्म	-9.28586
▁रोजगार	-9.28589
▁ग्रहण	-9.28632
▁निर्मित	-9.28792
▁दायित्व	-9.28804
▁बीज	-9.28855
▁गिर	-9.28944
n	-9.28969
▁जिन्होंने	-9.28991
▁खो	-9.29021
▁अत्यधिक	-9.29042
बे	-9.29077
▁जोड़	-9.29082
वान	-9.29211
▁दोष	-9.29239
▁ग्राम	-9.29254
▁वायु	-9.29256
न्त	-9.29397
▁परिस्थितियों	-9.2941
ेज	-9.29414
▁कल्पना	-9.29503
▁मार	-9.29516
वें	-9.2965
▁दिये	-9.29748
▁प्रसिद्ध	-9.29767
▁चयन	-9.2977
▁संकल्प	-9.2981
त्	-9.29822
▁त्रुटि	-9.29892
▁मो	-9.30061
▁नियमित	-9.30176
▁सरल	-9.30483
दर	-9.30547
▁अगले	-9.30552
▁खा	-9.30636
▁ना	-9.30733
▁प्रधानमंत्री	-9.30781
▁उपन्यास	-9.30843
▁एफ	-9.309
▁हल	-9.30925
▁आए	-9.30932
▁यथा	-9.31108
तु	-9.31154
E	-9.31263
▁करार	-9.31283
ेल	-9.31329
▁हवा	-9.31403
▁बह	-9.3141
▁सामना	-9.31435
▁आयुक्त	-9.31464
▁आरोप	-9.31534
▁समस्याओं	-9.31597
▁इतनी	-9.31608
▁भाषण	-9.31615
▁श्रेणी	-9.31646
▁चुनाव	-9.31752
▁मिलने	-9.31814
▁कानूनी	-9.32046
▁शुद्ध	-9.32225
▁पत्नी	-9.32286
▁प्रत्यक्ष	-9.32388
▁आती	-9.32523
▁छात्र	-9.32652
▁सांस्कृतिक	-9.32705
▁तत्व	-9.32787
▁बढ़ाने	-9.32812
▁लेखक	-9.32953
▁कराने	-9.33125
▁दावा	-9.3317
क्त	-9.3335
▁जोर	-9.33516
▁हालांकि	-9.3355
▁क्षेत्रीय	-9.33649
द्र	-9.33658
▁अनुवाद	-9.33665
राज	-9.33744
▁अंक	-9.33903
▁निरंतर	-9.34082
▁पु	-9.34208
ेश	-9.34309
ज़ा	-9.345
पो	-9.34535
▁गणराज्य	-9.3467
▁अनुकूल	-9.34673
p	-9.34684
▁पड़	-9.34831
सु	-9.34837
▁अधिकरण	-9.34882
▁मामला	-9.349
▁देव	-9.34917
▁मौसम	-9.35047
▁प्राधिकरण	-9.35153
▁स्थल	-9.35194
▁मेल	-9.35233
याँ	-9.35284
▁बावजूद	-9.35315
▁हिंदू	-9.35378
▁अस	-9.35379
ंध	-9.35381
ाने	-9.35383
▁व्या	-9.3552
▁नामक	-9.35524
▁कै	-9.35649
▁लगी	-9.35772
▁आतंकवाद	-9.35778
ar	-9.35797
▁सच	-9.35891
▁अदालत	-9.3591
ही	-9.35941
▁कल्याण	-9.35964
▁पाठ	-9.36001
ोन	-9.36019
▁हिंदी	-9.36329
कि	-9.36355
▁आयात	-9.36365
▁मुसलमानों	-9.36368
ियन	-9.36437
आर	-9.36608
▁पेज	-9.3663
▁d	-9.36631
▁इनके	-9.36638
▁इंडिया	-9.36689
▁बढ़ा	-9.36693
▁पुत्र	-9.36888
I	-9.36913
▁भेज	-9.37044
▁प्रायः	-9.37239
▁शीघ्र	-9.37376
▁लेख	-9.37429
ाँ	-9.37433
▁महीने	-9.37447
▁P	-9.3745
M	-9.37479
▁आये	-9.3748
सन	-9.37518
▁कर्मचारी	-9.37554
भाव	-9.37787
▁अधिकतम	-9.37804
▁निदेशक	-9.37822
▁शा	-9.37884
▁उक्त	-9.37892
ोप	-9.3799
▁पुनर्	-9.38014
▁अधिकारिता	-9.38258
▁मानक	-9.38272
▁रुपये	-9.38299
▁डाल	-9.38544
▁विजय	-9.38556
▁भार	-9.38572
▁गठन	-9.38606
▁तट	-9.3871
▁संस्थाओं	-9.38717
▁प्रतिक्रिया	-9.38727
▁खास	-9.38729
न्न	-9.38781
▁शाखा	-9.38799
▁सीधे	-9.38997
▁निकल	-9.38997
▁इत्यादि	-9.39053
ेड	-9.39141
▁पै	-9.39244
▁बिजली	-9.39333
▁सारी	-9.39352
▁एच	-9.39398
▁गृह	-9.39417
▁सिस्टम	-9.39518
स्प	-9.39533
▁शैली	-9.39576
▁साफ	-9.39674
ोर	-9.39731
▁डाक	-9.39742
▁प्रतीक	-9.3985
▁तुम्हें	-9.39861
▁लो	-9.39876
▁मां	-9.39949
रत	-9.39981
▁मूल्यांकन	-9.40019
▁प्रो	-9.40049
िता	-9.40163
▁जवाब	-9.40179
र्ड	-9.40344
▁साक्ष्य	-9.40523
र्न	-9.40547
▁संग्रह	-9.40799
▁स्वामी	-9.40899
▁प्रचार	-9.40961
▁मान्यता	-9.41034
▁उपभोक्ता	-9.41089
▁मिलती	-9.41108
▁अंतरण	-9.41117
वन	-9.41159
▁साधन	-9.4131
▁आक्रमण	-9.41332
▁प्रावधान	-9.41381
▁आनंद	-9.41386
▁कारबार	-9.41494
▁लगाने	-9.41534
▁जल्दी	-9.41658
गो	-9.41794
निक	-9.4181
▁तभी	-9.41848
▁रखे	-9.41922
▁T	-9.41993
▁हजार	-9.42134
नीय	-9.4215
लो	-9.42226
▁नोट	-9.42231
▁पुराने	-9.4235
▁मुख	-9.42494
▁कृष्ण	-9.42531
▁जून	-9.42644
रों	-9.42742
▁प्रयुक्त	-9.42761
बर	-9.42782
▁समस्त	-9.42811
▁पात्र	-9.42907
▁अस्तित्व	-9.42935
मि	-9.42944
चा	-9.42958
▁सवाल	-9.43034
▁जाय	-9.43076
▁गैस	-9.43078
▁वै	-9.43138
स्क	-9.43162
▁रुपए	-9.43196
▁नेता	-9.43291
▁पहल	-9.43295
▁नव	-9.43398
▁समाचार	-9.43406
▁देखभाल	-9.43461
▁मशीन	-9.43541
▁C	-9.43568
एम	-9.438
▁लोकतंत्र	-9.44007
▁कं	-9.44072
▁आपने	-9.44087
▁प्रयत्न	-9.44106
▁शीर्ष	-9.44429
▁जनवरी	-9.44465
▁तेज	-9.44629
डे	-9.44707
▁कथा	-9.44743
▁प्रतीत	-9.44761
च्छ	-9.44854
▁मानते	-9.44926
▁इन्हें	-9.44996
ियो	-9.45009
▁शिव	-9.45044
▁राजनैतिक	-9.45054
दान	-9.45061
द्	-9.45154
▁पथ	-9.45247
▁जायेगा	-9.45331
▁महत्त्वपूर्ण	-9.45424
▁बढ़ावा	-9.45517
▁पंजाब	-9.45527
▁दिल	-9.45663
▁कटौती	-9.4571
ीन	-9.45752
मु	-9.45787
स्ट्र	-9.45808
▁नजर	-9.45947
al	-9.4602
▁न्यायाधीशों	-9.46033
पति	-9.46088
▁नेतृत्व	-9.4613
P	-9.4621
एल	-9.46247
▁स्मृति	-9.4625
▁गतिविधियों	-9.46266
▁वितरण	-9.46311
▁रोगी	-9.46407
▁प्रेरित	-9.46427
▁बिक्री	-9.46431
▁विषयों	-9.4649
▁विद्यार्थियों	-9.46733
▁तय	-9.46754
▁चेतना	-9.46796
▁द्वार	-9.46804
▁जमीन	-9.46807
▁रखी	-9.46849
▁प्रोत्साहन	-9.46855
▁मुसलमान	-9.46889
र्ट	-9.46971
▁प्राधिकारी	-9.47053
ोल	-9.47202
▁घरेलू	-9.47218
▁हु	-9.47274
▁शुभकामनाएं	-9.47647
▁प्रकाशन	-9.47665
ची	-9.47757
ंगी	-9.47807
▁मिशन	-9.47855
▁प्रदर्शित	-9.47888
▁चलता	-9.47937
▁प्राण	-9.47949
▁स्वागत	-9.4797
▁एशिया	-9.48041
्क	-9.48048
▁टन	-9.48054
▁उनको	-9.48107
▁श्रेणीः	-9.4815
▁बर	-9.48223
गर	-9.48259
▁असम	-9.48358
ुक	-9.48442
▁प्राथमिक	-9.48515
an	-9.48522
▁भौतिक	-9.48584
▁बनाई	-9.48605
▁जोखिम	-9.48749
▁आपूर्ति	-9.48824
d	-9.48848
▁जि	-9.48927
▁खुशी	-9.48938
▁मद	-9.48963
▁शारीरिक	-9.48996
एस	-9.49012
ाया	-9.49057
▁आध्यात्मिक	-9.49058
िम	-9.49136
▁स्थानों	-9.49195
▁दस्तावेज	-9.4921
▁मगर	-9.49223
ज्	-9.49304
पाल	-9.49326
▁पो	-9.49422
▁अभिव्यक्ति	-9.49517
िट	-9.49566
ल्	-9.49572
▁विमान	-9.49696
▁न्यू	-9.49703
त्य	-9.49786
▁तरीका	-9.49804
▁घोषित	-9.49846
▁पहुंचा	-9.49847
जे	-9.49849
▁लौट	-9.49953
▁लिखित	-9.49985
▁अपेक्षित	-9.49991
▁बाबत	-9.49991
▁उठ	-9.50015
▁देखें	-9.50049
गु	-9.5005
▁भूल	-9.50098
▁प्रसन्नता	-9.50164
▁भागों	-9.50205
▁अवश्य	-9.50253
▁बैंकों	-9.50268
▁सामान	-9.50281
▁तु	-9.50329
ज्ञ	-9.50348
▁शक्तियों	-9.50348
▁हस्ताक्षर	-9.50367
▁सुना	-9.50439
▁मंच	-9.50538
▁नष्ट	-9.50555
▁B	-9.50574
re	-9.50613
▁स्पष्टीकरण	-9.5063
क्ति	-9.5064
▁चीज	-9.50642
▁गुरु	-9.50723
▁चरण	-9.50828
▁छूट	-9.50846
▁मिले	-9.51047
▁तकनीक	-9.51166
▁कार्यक्रमों	-9.51404
▁अंतर्राष्ट्रीय	-9.5144
▁पश्चात	-9.5152
▁वीडियो	-9.51588
▁मिलकर	-9.51623
र्ज	-9.51667
फा	-9.51696
▁सर्वोच्च	-9.51756
▁इकाई	-9.51774
▁थ	-9.51821
▁दिखा	-9.51853
▁सुंदर	-9.51859
▁अभियान	-9.51928
▁छह	-9.51951
▁ऑ	-9.51981
▁चीन	-9.52176
▁औसत	-9.52266
▁आयोजन	-9.52315
चार	-9.52335
▁स्त्री	-9.52612
ार्थ	-9.52618
स्व	-9.52802
दि	-9.52821
▁लें	-9.52829
▁गीत	-9.52829
▁चुकी	-9.52867
▁वा	-9.52927
नों	-9.52944
▁विंडो	-9.53023
▁निहित	-9.53067
▁मतलब	-9.531
▁सेवाएं	-9.53248
▁मुंबई	-9.53294
▁सेट	-9.5332
▁अनुमान	-9.5339
नो	-9.5342
वाली	-9.53446
▁लेता	-9.53577
▁प्रमाणपत्र	-9.5369
हित	-9.53705
▁कठोर	-9.53747
▁बातों	-9.53758
▁करेगी	-9.53815
▁चले	-9.53841
▁जनसंख्या	-9.53876
▁वजह	-9.53942
▁खोल	-9.53948
▁ऐतिहासिक	-9.54006
ग्	-9.54013
▁वालों	-9.54078
▁गंगा	-9.54139
▁विरोधी	-9.54251
▁लगातार	-9.54346
▁नियुक्ति	-9.54366
▁परिणामस्वरूप	-9.544
ढ	-9.54455
▁अभिलेख	-9.5447
m	-9.54561
▁पाए	-9.54567
▁आंतरिक	-9.54595
▁अगस्त	-9.54601
द्व	-9.54637
ल्स	-9.54735
▁हत्या	-9.54797
▁फिल्म	-9.54819
▁त्रि	-9.54855
लर	-9.54869
▁बढ	-9.54923
▁पसंद	-9.55118
ाक	-9.55148
▁संसाधनों	-9.55172
▁p	-9.55179
▁जाँच	-9.55185
▁खिलाफ	-9.55292
▁पति	-9.55361
▁सत्र	-9.55383
▁विधिक	-9.554
▁रखता	-9.55481
▁रीति	-9.55485
▁विश्लेषण	-9.55508
▁प्रशासनिक	-9.55553
देश	-9.55616
▁सप्ताह	-9.55647
ाइ	-9.55651
▁सड़क	-9.55777
▁संचालन	-9.55977
▁डर	-9.55985
▁वैश्विक	-9.56051
▁निष्कर्ष	-9.56111
हन	-9.56193
▁बजाय	-9.5621
▁न्यूनतम	-9.56243
▁बातें	-9.56309
▁बैठ	-9.56327
ात	-9.56331
▁क्र	-9.56343
▁सार	-9.56441
▁चिंता	-9.56449
▁रेल	-9.56479
▁नेहरू	-9.5651
▁आठ	-9.56613
▁पकड़	-9.56692
▁अर	-9.56707
▁हासिल	-9.56713
▁अल्प	-9.56877
▁संसार	-9.5688
▁फसल	-9.569
▁मस्तिष्क	-9.56929
▁श्रम	-9.56934
▁कौशल	-9.56979
on	-9.57079
पक	-9.57102
▁अग्र	-9.57164
▁नियत	-9.57203
▁नागरिकों	-9.57328
बंध	-9.57351
▁वन	-9.57392
▁मई	-9.57471
▁स्वा	-9.57488
▁कथन	-9.57527
न्ड	-9.57653
▁मल	-9.57743
ुल	-9.5783
ुआ	-9.57832
िर	-9.57898
▁विचारण	-9.5796
▁उम्र	-9.57995
▁आसान	-9.58042
▁कलकत्ता	-9.58055
▁विहित	-9.58243
▁पृथ्वी	-9.58258
▁कश्मीर	-9.58326
▁कमजोर	-9.58327
ांग	-9.58392
▁अफ्रीका	-9.58462
▁पढ़	-9.58549
▁प्रोग्राम	-9.58561
▁उपयोगी	-9.58563
गल	-9.58587
▁सुख	-9.58617
▁जाएं	-9.58633
▁जुड़े	-9.58635
▁महामहिम	-9.58666
ियम	-9.58712
▁बनने	-9.58865
▁कुंजी	-9.59006
▁सुभाष	-9.59025
ाह	-9.59052
▁अस्पताल	-9.59076
▁लोकप्रिय	-9.59155
▁संबंधों	-9.59195
▁बीमारी	-9.59249
▁सहकारी	-9.59255
▁सूर्य	-9.5928
▁शुरुआत	-9.5935
▁ढ	-9.59354
ष्ठ	-9.59463
▁छोड़कर	-9.59508
▁ii	-9.59612
▁लक्षण	-9.59708
▁वैसे	-9.5973
▁सर्वाधिक	-9.59805
कल	-9.59853
▁संबद्ध	-9.59917
▁जेल	-9.59937
▁सृजन	-9.60016
▁मीडिया	-9.60044
चे	-9.60099
था	-9.60099
▁संविदा	-9.60115
▁अस्थि	-9.60312
द्द	-9.60337
O	-9.60377
िनी	-9.60422
▁विशेषकर	-9.60442
भा	-9.60581
जि	-9.60678
▁चलते	-9.60728
ियर	-9.60744
▁पूजा	-9.60806
▁रस	-9.60855
▁डिस्क	-9.60903
शि	-9.60951
▁अनुरूप	-9.60978
पट	-9.61012
▁आस	-9.6113
▁संगठनों	-9.61155
▁शिकार	-9.61219
▁न्यायमूर्ति	-9.61225
▁यूरोप	-9.61356
▁बदलाव	-9.6136
▁करीब	-9.61362
न्ध	-9.6141
▁दर्ज	-9.61456
▁पीड़ित	-9.61501
▁चक्र	-9.61534
▁मास	-9.61536
▁लिख	-9.61552
▁विपरीत	-9.6157
धार	-9.61622
▁विविध	-9.61666
▁हटा	-9.61702
▁शि	-9.61795
▁बातचीत	-9.61921
▁b	-9.62048
▁बुनियादी	-9.62341
▁समुचित	-9.62345
▁प्रतिनिधित्व	-9.62359
▁त्याग	-9.62413
c	-9.62466
जनक	-9.62466
▁विभाजन	-9.62544
▁परस्पर	-9.6263
▁दशक	-9.62644
▁चू	-9.62769
▁उद्योगों	-9.62858
or	-9.62913
▁संकट	-9.63014
▁बुद्धि	-9.63027
▁असफल	-9.6303
पत	-9.6305
▁दूध	-9.63066
▁समझौता	-9.63097
▁चा	-9.63268
▁तार	-9.63289
▁वकील	-9.63412
ान्त	-9.6354
▁क्षति	-9.63565
▁पूर्ववर्ष	-9.63573
▁किसानों	-9.63606
इस	-9.6368
न्स	-9.64034
▁अनुरोध	-9.6422
्रा	-9.6425
तक	-9.64302
सि	-9.64325
▁उद्	-9.64333
▁तल	-9.64351
ङ	-9.64406
▁परिवहन	-9.64565
▁प्रबंध	-9.64606
▁स्कीम	-9.64661
मित	-9.6467
▁रू	-9.64689
भि	-9.64694
▁किस्म	-9.64748
▁वीर	-9.64819
गार	-9.64837
िय	-9.64841
▁गुप्त	-9.64851
▁सरकारों	-9.64866
ऊ	-9.64944
्ले	-9.65049
▁भगवान	-9.65082
▁प्रस्तावित	-9.65106
▁लाइन	-9.65156
▁कर्तव्य	-9.65176
देव	-9.6518
▁जाएंगे	-9.65248
▁एंड	-9.65294
▁अन्त	-9.65458
क्र	-9.6555
▁बो	-9.65558
एफ	-9.65575
▁नौ	-9.65756
विक	-9.65759
▁मीटर	-9.65806
▁क्	-9.65808
▁पड़े	-9.65879
▁रेखा	-9.65996
▁पहुँच	-9.65999
▁बचा	-9.66055
▁व्याख्या	-9.66079
▁मंडल	-9.66209
C	-9.66304
▁जहाज	-9.66333
▁पूर्वी	-9.6634
▁आस्ति	-9.66375
▁मू	-9.66446
▁कार्ड	-9.66504
▁इतने	-9.66606
▁हिंसा	-9.66607
▁सचिव	-9.66608
नु	-9.66638
▁टीम	-9.66668
निया	-9.66707
▁उत्पादों	-9.66712
▁भेजा	-9.6672
▁अक्सर	-9.66753
▁आफ	-9.6689
▁जिले	-9.66938
▁कक्ष	-9.66951
▁अन्दर	-9.66979
▁धारण	-9.66989
▁आनन्द	-9.67044
ंब	-9.67047
▁फूल	-9.67058
▁अमेरिकी	-9.67123
▁नयी	-9.67206
▁प्रेरणा	-9.67231
▁राज्यपाल	-9.67314
पत्र	-9.67321
भूत	-9.67345
ेंगे	-9.67364
▁चुनौती	-9.6742
त्मक	-9.67427
▁अर्थात	-9.67473
▁निकाय	-9.67484
▁M	-9.67538
ेस	-9.67542
▁खान	-9.67694
▁देवी	-9.67754
▁सर्वेक्षण	-9.67793
▁निदेश	-9.67833
▁पत्थर	-9.67867
▁महाराष्ट्र	-9.67899
धा	-9.67914
ेय	-9.68029
▁वेब	-9.68051
▁संसदीय	-9.68055
T	-9.68073
▁ईसा	-9.68074
▁निभा	-9.68092
▁उत्साह	-9.68167
बू	-9.68278
▁ज़	-9.68278
डर	-9.68328
▁घटा	-9.68346
र्ग	-9.68349
▁अभियुक्त	-9.68357
▁तीव्र	-9.68399
x	-9.68476
▁x	-9.68528
लय	-9.68538
▁अवि	-9.68591
▁साबित	-9.68618
▁अभाव	-9.68737
▁अभिप्रेत	-9.68768
▁भागीदारी	-9.68791
धि	-9.68906
िज	-9.68911
▁निश्चय	-9.68919
N	-9.68922
▁अनुपात	-9.68934
▁कुमार	-9.69062
▁अकबर	-9.69078
▁लड़	-9.69081
▁माह	-9.69124
▁छवि	-9.69131
▁दूरी	-9.69165
▁देगा	-9.69214
▁लिखी	-9.69218
▁यंत्र	-9.69238
▁मूल्यों	-9.69255
द्ध	-9.69265
▁नवान्वेषण	-9.6931
▁सर्वर	-9.69314
▁बै	-9.69431
▁वहीं	-9.69527
▁परिवर्तित	-9.6968
▁अनुप्रयोग	-9.69746
▁संस्करण	-9.69753
R	-9.69849
▁प्रारंभिक	-9.69883
चन	-9.70032
दे	-9.70203
▁समन्वय	-9.70211
▁गठित	-9.70211
▁मौजूदा	-9.70246
ीकृत	-9.7038
▁स्क	-9.70454
▁अन्यथा	-9.7049
▁सभ्यता	-9.70612
–	-9.7065
प्	-9.70768
▁समीक्षा	-9.70825
▁कॉ	-9.70882
▁शाह	-9.71114
ंगे	-9.71213
दन	-9.71259
▁आवाज	-9.71344
▁समग्र	-9.71381
ाइट	-9.71435
र्द	-9.71472
▁उतर	-9.71667
▁भाषाओं	-9.71775
क़	-9.71786
▁समाप्ति	-9.7183
▁नैतिक	-9.7184
▁सुसंगत	-9.71907
▁सुविधाओं	-9.7191
▁मैदान	-9.71924
▁उम्मीद	-9.71935
▁वर्षा	-9.7195
्ट	-9.72046
▁सम्बन्धी	-9.72064
v	-9.72075
▁पवित्र	-9.72141
▁द्वितीय	-9.72141
ेगा	-9.72168
▁परमाणु	-9.72222
▁आचरण	-9.7224
▁लिखने	-9.7225
▁अंतर्	-9.72315
ृत	-9.72372
न्ट	-9.72388
▁नुकसान	-9.72453
▁आवास	-9.72478
▁सतह	-9.72513
en	-9.72519
▁जुलाई	-9.72552
▁चीज़	-9.72647
मेंट	-9.72695
पे	-9.72759
▁परियोजनाओं	-9.72786
▁प्रोत्साहित	-9.72847
▁नर	-9.72922
▁सॉफ्टवेयर	-9.72924
र्म	-9.72968
▁आमतौर	-9.73002
▁रोकने	-9.73081
▁कीट	-9.7319
▁G	-9.73193
▁कोड	-9.73206
▁प्रतिनिधि	-9.73287
▁कतिपय	-9.73318
ुर	-9.7334
▁उपक्रम	-9.73365
▁देखकर	-9.73406
▁आकर्षित	-9.73475
▁खाने	-9.73498
▁पाई	-9.73521
▁फीस	-9.73631
▁आशय	-9.73714
D	-9.73746
▁शैक्षिक	-9.73792
▁पशु	-9.73948
▁आरम्भ	-9.73983
▁ज्ञात	-9.74016
▁रखें	-9.74051
▁कम्प	-9.74069
▁बाह्य	-9.7411
िड	-9.74302
स्टर	-9.74341
वाल	-9.7446
क़्	-9.74551
धी	-9.74554
्ल	-9.74712
▁करो	-9.74716
▁निवास	-9.74734
वां	-9.74823
ेक	-9.74878
ॉँ	-9.74895
ेश्वर	-9.74986
▁हवाई	-9.7501
गे	-9.75117
▁बिल्कुल	-9.75149
योग	-9.75183
▁परंपरा	-9.75433
▁संलग्न	-9.75471
▁चूंक	-9.75519
▁जानता	-9.75526
▁स्तंभ	-9.75552
b	-9.75562
▁आग्रह	-9.75611
▁जीवित	-9.75617
▁सहज	-9.75624
▁पाठ्यक्रम	-9.75634
▁नियंत्रित	-9.75713
▁केरल	-9.7575
ताओं	-9.7581
वत	-9.75811
▁उभर	-9.75829
▁व्यावसायिक	-9.75875
▁ख़	-9.75919
▁देकर	-9.75941
▁लिमिटेड	-9.75956
▁दि	-9.75983
▁देर	-9.76073
▁अधिकतर	-9.76113
यू	-9.76139
▁याचिका	-9.7614
ल्ड	-9.76149
▁खाना	-9.76152
▁प्रसार	-9.76158
▁ग्राहक	-9.76158
शास्त्र	-9.76209
▁रहेगा	-9.7632
▁जिनक	-9.76323
▁जितना	-9.76329
▁चरित्र	-9.76446
▁खुले	-9.76752
▁मुद्दों	-9.76769
▁g	-9.76775
▁द्वि	-9.76781
▁कितना	-9.76791
▁टे	-9.76825
▁मानवीय	-9.76897
▁लेखन	-9.76955
▁तुरंत	-9.77014
▁मिट्टी	-9.77019
▁जड़	-9.77023
▁शोध	-9.77102
▁सहमत	-9.77169
▁मुश्किल	-9.77178
▁गुजरात	-9.77194
▁धु	-9.77223
▁निष्पादन	-9.77262
▁चलो	-9.77329
मत	-9.77399
▁फार्म	-9.77411
टन	-9.77571
L	-9.77678
▁चे	-9.77754
▁प्रारूप	-9.77773
▁भंडार	-9.77787
▁दबाव	-9.77934
▁लाया	-9.77967
ाद	-9.77975
▁घंटे	-9.78002
▁गोल	-9.78115
▁आग	-9.78152
▁आसानी	-9.78267
▁सरदार	-9.78313
▁प्रभार	-9.78315
▁सदा	-9.78349
▁शिखर	-9.78416
आई	-9.78467
▁समझौते	-9.78476
कालीन	-9.78495
▁थोड़ा	-9.78499
▁प्यार	-9.78585
ूँ	-9.78619
ic	-9.78628
▁युक्त	-9.78633
▁D	-9.78635
तया	-9.78637
▁जटिल	-9.78673
▁आसपास	-9.78748
▁प्रतिभा	-9.78791
▁मकान	-9.78834
▁लंबे	-9.78842
▁विरूद्ध	-9.78923
▁प्राथमिकता	-9.78982
▁अन्तर्गत	-9.79014
▁एकमात्र	-9.79019
▁सहमति	-9.79033
▁इंटरनेट	-9.79084
▁घटनाओं	-9.79107
▁बिंदु	-9.79233
▁अनुदान	-9.79287
▁नेपाल	-9.79297
▁अन्तर	-9.79412
▁कारणों	-9.7942
▁बढ़ती	-9.79459
▁समा	-9.79479
▁फोन	-9.79537
▁द्वीप	-9.79588
कल्प	-9.79595
▁इनका	-9.79618
B	-9.79643
▁प्रार्थना	-9.79669
▁महात्मा	-9.79672
▁साक्षी	-9.79681
त्ता	-9.79751
▁क्ल	-9.79788
▁विमर्श	-9.79921
▁जिनकी	-9.79933
▁पेड़	-9.8003
▁फा	-9.80067
▁पैरा	-9.80133
▁दूसरों	-9.80175
▁श्रृंखला	-9.80175
▁यु	-9.80205
▁वर्ण	-9.80234
वाई	-9.80321
▁उत्तरी	-9.80445
जर	-9.80726
▁बच	-9.80761
▁सदैव	-9.80768
▁नेताओं	-9.80783
▁प्रथा	-9.80833
▁बोस	-9.8085
▁आपराधिक	-9.80853
▁आहार	-9.80904
▁उत्	-9.80906
▁हि	-9.80984
at	-9.81005
▁मं	-9.81006
▁खेती	-9.81007
▁लिखे	-9.81016
शोथ	-9.81144
▁राजस्थान	-9.81206
▁जाकर	-9.81278
▁एकल	-9.81309
▁हैंः	-9.81406
▁w	-9.81496
▁चुन	-9.81512
णी	-9.81624
▁रास्ता	-9.8163
▁कितनी	-9.8163
▁पंजीकरण	-9.81632
▁प्रतिकूल	-9.81643
▁असमर्थ	-9.81715
▁I	-9.81761
▁प्रचलित	-9.81793
▁रद्द	-9.8182
सो	-9.8186
ंगा	-9.82005
लिंग	-9.82021
्ज	-9.82051
▁मालिक	-9.82086
▁मोबाइल	-9.82137
▁खतरा	-9.82138
▁अप्र	-9.82178
▁ताकत	-9.82188
▁कार्यान्वयन	-9.82225
▁अग्रिम	-9.82233
लेट	-9.82301
▁कंपनियों	-9.82396
क्षण	-9.82423
िये	-9.82471
▁अनुसूचित	-9.82569
▁समझने	-9.82681
▁शहरी	-9.82754
▁चोट	-9.82882
▁शीर्षक	-9.82962
▁मालूम	-9.83003
▁कब	-9.8303
h	-9.83068
टो	-9.83071
▁संयंत्र	-9.83109
▁बनाये	-9.83208
▁जनरल	-9.83265
▁दुख	-9.83294
ूल	-9.8333
et	-9.83357
र्व	-9.83378
▁यूनिट	-9.83526
▁संदेह	-9.83545
क्षा	-9.83669
▁उठाने	-9.83735
it	-9.83799
▁भावी	-9.83824
▁f	-9.83825
▁जरिए	-9.83876
▁स्थिर	-9.83891
▁प्रेस	-9.83907
्ति	-9.83945
▁मॉडल	-9.83965
▁खींच	-9.84052
चि	-9.84146
ब्	-9.84167
▁दवा	-9.84345
ाउ	-9.84376
▁विश्वविद्यालयों	-9.84431
▁राजनीति	-9.84475
▁किनारे	-9.84495
▁प्रवाह	-9.84537
▁फैल	-9.84545
र्ण	-9.84556
▁जैव	-9.84608
▁विधियों	-9.84619
▁साम्राज्य	-9.84716
▁दान	-9.84741
▁पूर्ति	-9.84777
ीर	-9.84813
▁रेलवे	-9.84888
वास	-9.84932
▁परिषद्	-9.84939
▁अर्ध	-9.8496
▁हिस्से	-9.85018
▁शर्तों	-9.85019
र्थ	-9.85036
▁एकता	-9.85272
▁देंगे	-9.85273
मिन	-9.85407
विज्ञान	-9.85543
▁फ़िल्म	-9.85555
▁c	-9.85643
▁रास्ते	-9.85645
्वा	-9.85652
▁दिव्य	-9.85668
▁ग्र	-9.85725
▁पोषण	-9.85741
एन	-9.85772
▁प्रविष्टि	-9.85801
▁चलाने	-9.85857
▁अनुसूची	-9.85921
▁अम	-9.85983
▁फरवरी	-9.86093
▁तिथि	-9.86099
लु	-9.86109
▁तंत्रिका	-9.86127
णा	-9.86168
▁हितों	-9.86196
डो	-9.86228
नाम	-9.86265
▁सै	-9.86436
▁राजस्व	-9.86487
▁स्था	-9.86505
▁अर्	-9.86517
▁प्रतिभूति	-9.86536
ष्	-9.86538
▁निरीक्षण	-9.86541
▁दर्शा	-9.86582
गन	-9.866
▁धारणा	-9.86605
▁किसान	-9.8662
▁विद्यालय	-9.86636
▁स्वस्थ	-9.86699
▁समर्पित	-9.86721
▁पूछा	-9.86733
▁परम	-9.86766
लैंड	-9.86786
चक	-9.86818
▁सर्वोत्तम	-9.86902
▁स्वीकृति	-9.86921
▁पुरान	-9.86995
जो	-9.87109
▁भंडारण	-9.87138
▁करा	-9.87155
▁अनुसरण	-9.87174
मैन	-9.87234
▁सौर	-9.87243
▁लंबी	-9.87275
▁चु	-9.87357
▁गहन	-9.87433
ाकार	-9.87486
▁ध्वनि	-9.87494
▁उपस्थिति	-9.87512
▁स्वर	-9.87525
▁समृद्ध	-9.87553
▁हाथों	-9.87556
▁पाते	-9.87566
▁दीवार	-9.87589
तन	-9.87628
▁क्रिकेट	-9.87629
▁वर्गों	-9.87678
▁दुर्घटना	-9.87719
रिक	-9.87724
▁फर्म	-9.87749
▁n	-9.87993
▁उपर	-9.88002
घात	-9.88065
▁दबा	-9.88118
▁मृत्युदंड	-9.8818
चित	-9.88186
▁चालू	-9.88217
▁विनय	-9.88284
श्त	-9.88286
▁एड	-9.88298
▁सम्पूर्ण	-9.88384
▁संदाय	-9.88385
▁युक्ति	-9.88488
▁विनिमय	-9.88547
▁L	-9.88548
▁तुम्हारे	-9.88586
▁पंक्ति	-9.88631
▁सागर	-9.88684
▁न्यास	-9.887
▁निपटान	-9.88704
▁हिंदुस्तान	-9.88727
यु	-9.88767
▁संक्षिप्त	-9.88818
▁खड़ा	-9.88873
▁उधार	-9.88889
▁वरिष्ठ	-9.88913
▁...	-9.89003
▁पर्यटन	-9.89003
हि	-9.89061
▁परिभाषित	-9.89066
▁आकर	-9.89117
▁प्रवृत्ति	-9.89182
▁प्रदूषण	-9.89187
▁कोशिका	-9.89239
g	-9.89277
▁संक्रमण	-9.89293
ंभ	-9.89331
नगर	-9.89385
▁नीतियों	-9.89462
दास	-9.89467
▁अना	-9.89576
▁पर्वत	-9.89602
▁टो	-9.89635
ट्ट	-9.89636
▁श्रेष्ठ	-9.89651
▁इन्	-9.89674
▁ऑनलाइन	-9.89745
▁तत्काल	-9.89784
▁R	-9.89851
▁संवर्धन	-9.89869
▁बाकी	-9.90036
▁फि	-9.90043
▁आवश्यकताओं	-9.90085
लिन	-9.90106
▁योजनाओं	-9.90133
▁त्वचा	-9.90211
ेर	-9.90347
पित	-9.90434
▁असर	-9.90443
▁भय	-9.90465
ांक	-9.90485
▁अचानक	-9.9049
▁आलोचना	-9.90496
▁समर्थ	-9.90675
▁काट	-9.90696
ून	-9.90701
▁अद्यतन	-9.90772
▁दर्द	-9.90835
▁मिलियन	-9.90917
▁N	-9.90941
▁ढांचे	-9.9096
▁हद	-9.90961
▁स्वतः	-9.91007
▁जु	-9.9115
▁शुरु	-9.91156
▁संवाद	-9.91163
▁बदले	-9.91172
▁रेडियो	-9.91188
▁बदलने	-9.9122
▁घट	-9.91224
डि	-9.91277
▁चौ	-9.91304
▁प्राधिकार	-9.91374
▁विभाजित	-9.91431
▁हार्दिक	-9.91431
▁पढ़ने	-9.91458
प्त	-9.91462
▁मध्यम	-9.91477
▁उड़	-9.91505
▁विल	-9.91506
टिक	-9.91619
▁मिनट	-9.91628
▁सारा	-9.91672
▁प्रशंसा	-9.91907
▁जाल	-9.92014
▁बिहार	-9.92022
▁इसने	-9.92023
▁प्रिय	-9.92064
▁यथास्थिति	-9.921
▁लु	-9.92145
▁चलने	-9.92216
▁पक्षकार	-9.92352
▁खराब	-9.92384
ोस	-9.92405
▁गुजर	-9.92485
▁कितने	-9.92499
▁आजादी	-9.92664
ंप	-9.92752
श्	-9.92809
▁अवैध	-9.9286
▁सुनवाई	-9.92872
▁सिद्धांतों	-9.92907
▁टूट	-9.93059
▁खुश	-9.93165
▁विशेषता	-9.93249
▁सुविधाएं	-9.93286
▁कम्पनी	-9.93295
▁संशोधित	-9.93341
▁अनुमोदन	-9.93534
▁समानता	-9.93552
▁उल्लेखनीय	-9.93556
▁दास	-9.93589
▁औ	-9.93902
▁सुदृढ़	-9.93921
▁धा	-9.93962
ाइल	-9.94008
▁नंबर	-9.94029
▁देखना	-9.94054
▁स्वाभाविक	-9.94115
▁क्षण	-9.94135
▁पैर	-9.94148
▁कागज	-9.9418
▁बाबू	-9.94199
▁अध	-9.94234
▁सशक्त	-9.94296
▁निवारण	-9.94309
१०	-9.94368
▁गहरा	-9.94371
ौर	-9.94448
क्रम	-9.94585
in	-9.946
▁राजधानी	-9.94602
▁उसको	-9.94706
▁इनकी	-9.94723
▁नृत्य	-9.94797
▁चन्द्र	-9.94906
▁स्वच्छ	-9.94938
▁साहस	-9.95062
▁पौधों	-9.95078
▁उत्कृष्ट	-9.9513
▁प्रान्त	-9.9514
▁विनिश्चय	-9.95189
▁पाल	-9.95202
्ड	-9.95206
वाला	-9.95229
▁औपचारिक	-9.95287
दत्त	-9.95343
▁बालक	-9.95348
घर	-9.95361
▁शिशु	-9.95393
▁धातु	-9.95395
▁ड्र	-9.95435
▁शिक्षक	-9.95484
▁फ्ल	-9.95488
▁चिकित्सक	-9.95511
▁दुकान	-9.95585
▁ठोस	-9.95595
▁जिम्मेदारी	-9.9568
हे	-9.95685
कता	-9.95704
▁बाधा	-9.95711
▁वर्णित	-9.95714
▁बजट	-9.95715
▁कौ	-9.95721
▁जलवायु	-9.9578
▁दुःख	-9.9578
▁क्रांति	-9.95867
▁संगम	-9.95896
▁पेट	-9.95928
पि	-9.95928
▁हालत	-9.96018
▁भक्ति	-9.96027
▁उद्घाटन	-9.96077
भर	-9.96193
▁सीख	-9.96236
▁विभिन्	-9.96291
ंडा	-9.96296
▁m	-9.96317
▁क़	-9.96333
▁शर्त	-9.96346
ग्न	-9.96372
▁बौद्धिक	-9.96379
र्ब	-9.96384
ाधिकार	-9.96446
▁हिमालय	-9.96476
▁समूहों	-9.96478
▁समुद्री	-9.96587
▁सूत्र	-9.9659
प्प	-9.96645
▁ब्रिटेन	-9.96673
▁सैनिक	-9.96688
▁हस्तक्षेप	-9.96774
▁ज़्यादा	-9.96872
▁सफेद	-9.96872
▁खत्म	-9.96897
▁क्लिक	-9.96955
▁फैला	-9.96958
▁प्राधिकृत	-9.96972
▁योग्यता	-9.97028
तंत्र	-9.97033
▁बांध	-9.97048
▁कार	-9.97066
▁प्रवृत्त	-9.97124
▁पंच	-9.97295
▁चुने	-9.97321
▁समृद्धि	-9.97455
▁दैनिक	-9.97477
फल	-9.97502
▁गुफा	-9.97592
▁सां	-9.97676
खे	-9.97706
ज्य	-9.97707
▁खाली	-9.97725
▁ब्रह्म	-9.97733
▁विविधता	-9.97739
▁पीठ	-9.97774
्ता	-9.97777
▁अली	-9.97796
▁लिपि	-9.97827
सार	-9.97884
कुल	-9.98023
▁गरीबी	-9.98032
च्च	-9.98034
▁गहरी	-9.98079
▁भले	-9.98079
०वीं	-9.98108
▁कष्ट	-9.98124
▁देय	-9.98138
▁गाय	-9.98149
▁विपणन	-9.98179
▁जैन	-9.98199
▁चिह्न	-9.98201
▁सुर	-9.98266
षण	-9.98276
▁नौकरी	-9.98351
▁रसायन	-9.98385
▁कारोबार	-9.98483
्रे	-9.98485
▁जय	-9.98498
ीज	-9.98502
ँग	-9.98513
मुख	-9.98561
ब्ब	-9.98598
▁गि	-9.98608
▁E	-9.98676
▁चैनल	-9.98687
▁भेंट	-9.98704
▁गणना	-9.9877
▁लै	-9.98801
▁सामूहिक	-9.9889
िटी	-9.98932
स्म	-9.98978
▁दिख	-9.99018
▁उत्तरदायी	-9.99117
▁मिलाकर	-9.99124
▁फै	-9.99153
▁बचत	-9.99237
पद	-9.99324
वेद	-9.99334
▁मना	-9.99344
श्र	-9.99359
▁मिलते	-9.99361
▁बचाव	-9.99364
▁बौद्ध	-9.99404
▁सिद्धान्त	-9.99416
▁सोचा	-9.99425
लों	-9.99472
▁जम्मू	-9.99503
▁सामान्यतः	-9.9951
▁तत्वों	-9.9952
▁दौर	-9.99531
▁विफल	-9.99542
▁सितंबर	-9.99605
▁कमरे	-9.99632
▁आदान	-9.99661
▁अमर	-9.99722
▁लॉ	-9.99775
es	-9.99793
▁ग्रंथ	-9.99806
▁लेन	-9.99899
▁सकेगी	-9.99986
▁स्टेशन	-10.0003
ग्र	-10.0006
▁डिजाइन	-10.0012
▁असाधारण	-10.0012
▁माप	-10.0023
▁पार्क	-10.0023
▁अग्रणी	-10.0025
▁वैध	-10.0027
▁कर्नाटक	-10.0033
▁अक्ष	-10.0035
िस्ट	-10.0036
▁राहत	-10.0052
▁वस्त्र	-10.0059
जीव	-10.006
▁कहने	-10.0065
लन	-10.0066
रक	-10.0079
बो	-10.0086
▁उतार	-10.0094
▁माँ	-10.0094
▁विनियम	-10.0098
जल	-10.01
▁यूरोपीय	-10.0105
▁परिसर	-10.0111
▁हार	-10.012
बार	-10.0121
वर्तन	-10.0127
▁स्वर्ण	-10.0128
▁गांवों	-10.0135
▁घूम	-10.0137
▁कराया	-10.0138
▁उच्चतर	-10.0153
▁वंश	-10.0154
▁घटक	-10.0159
कृति	-10.016
▁प्रवर्तन	-10.0162
▁लिंग	-10.0172
सिंह	-10.0174
क्टर	-10.018
▁अक्तूबर	-10.0189
▁भंग	-10.019
▁डाला	-10.0196
िव	-10.0197
▁निगरानी	-10.0199
▁प्रत्या	-10.0202
ग़	-10.0203
ानी	-10.0207
▁पू	-10.0209
▁कार्यवाहियों	-10.021
▁परिभाषा	-10.0211
▁आना	-10.0216
▁पृथक	-10.022
▁इक	-10.0221
▁लड़के	-10.0226
▁कठिनाई	-10.0227
▁नेत्र	-10.025
धान	-10.0255
▁रुचि	-10.0257
▁रवीन्द्रनाथ	-10.0263
▁व्यक्तित्व	-10.028
▁संवैधानिक	-10.0284
▁सुबह	-10.0284
▁लड़ाई	-10.0288
स्य	-10.0294
▁ताल	-10.0296
▁चाय	-10.03
▁गरीब	-10.0304
▁लाइसेंस	-10.0305
▁कारावास	-10.0306
▁कॉलेज	-10.0317
ाधिक	-10.0317
▁अज	-10.0333
▁पौधे	-10.0336
ब्र	-10.0338
्टे	-10.034
▁चमक	-10.0341
▁निचल	-10.0355
▁आंध्र	-10.0358
▁विद्रोह	-10.036
▁उन्नत	-10.037
▁पुर	-10.0372
▁बैंकिंग	-10.0376
▁मोड	-10.038
▁चाह	-10.0381
▁सजा	-10.0383
▁खण्ड	-10.0388
बि	-10.0388
▁छा	-10.0388
▁दृढ़	-10.0388
▁पड़ी	-10.039
▁नेशनल	-10.0391
▁परिचय	-10.0391
११	-10.0404
शक्ति	-10.0406
▁मुक्ति	-10.041
▁खतरे	-10.0412
▁आरंभिक	-10.0415
▁शोक	-10.0423
▁विरासत	-10.0433
▁पाँच	-10.0433
▁मुद्दे	-10.0444
▁खड़े	-10.0445
षा	-10.0451
ख़	-10.0451
▁तथ्यों	-10.0481
स्त्र	-10.0482
▁पक्षों	-10.0492
ोट	-10.0493
्थ	-10.0494
▁लगाना	-10.0494
अर	-10.0494
फर	-10.0495
▁पदार्थों	-10.0495
▁जातियों	-10.0497
जु	-10.0506
▁सीमाओं	-10.0508
▁पल	-10.0508
▁अपनाया	-10.0511
▁पैसे	-10.0515
▁वाहन	-10.0517
▁कामना	-10.0518
▁चीजों	-10.052
श्य	-10.0523
शाला	-10.0526
▁मैने	-10.0535
कन	-10.0536
▁शहरों	-10.0537
▁पं	-10.0539
▁चीनी	-10.0542
▁न्यायपालिका	-10.0542
ेंट	-10.0545
▁कहता	-10.0553
▁पूछ	-10.0558
▁दोस्त	-10.0562
क्क	-10.0563
▁शिक्षण	-10.0564
ूं	-10.0576
▁वंचित	-10.0585
ed	-10.0586
▁उपखंड	-10.0588
▁देन	-10.0591
ठा	-10.0598
▁स्वभाव	-10.0599
द्य	-10.0599
धन	-10.0604
▁देवता	-10.0608
▁मूलभूत	-10.0611
विध	-10.0613
▁आश्चर्य	-10.0617
▁अनुज्ञात	-10.0627
▁अश	-10.0628
▁विक्रय	-10.0629
विद	-10.0629
▁सम्पत्ति	-10.064
▁भेद	-10.0643
▁अधिसूचना	-10.0651
▁लेती	-10.0669
▁कोर्ट	-10.0675
▁इल	-10.0676
▁दायर	-10.0682
▁अंतरिक्ष	-10.0684
▁पेंशन	-10.0684
▁अं	-10.0685
ra	-10.0696
▁साहित्यिक	-10.07
▁रहें	-10.0707
उतना	-10.0707
▁तीसरे	-10.0708
▁लिंक	-10.0711
ing	-10.0715
▁बल्लेबाज	-10.0717
▁जानने	-10.0719
▁‘‘	-10.073
न्य	-10.0732
्री	-10.0737
▁बद	-10.0737
▁अदा	-10.0738
▁प्रक्रियाओं	-10.0739
▁तलाश	-10.074
▁शक्तिशाली	-10.0742
ग्रस्त	-10.0747
▁अंड	-10.0748
▁बिलकुल	-10.0752
▁ब्राह्मण	-10.0752
गम	-10.0753
▁इस्लामी	-10.0754
▁संधि	-10.0755
▁मानना	-10.0775
पार	-10.0781
र्त	-10.0781
▁संध्या	-10.0787
▁कक्षा	-10.079
श्म	-10.0795
▁अर्जित	-10.0795
▁हस्त	-10.0805
▁जीत	-10.0809
्ज़	-10.0811
▁वाद्य	-10.0811
▁कूट	-10.0814
▁मौलिक	-10.0829
ाइड	-10.0831
▁उठाया	-10.0832
▁उद	-10.0836
▁भागीदार	-10.0847
▁उपलब्धि	-10.0854
▁पढ़ा	-10.0858
▁पैमाने	-10.0862
▁उपकरणों	-10.0864
▁छत	-10.087
▁टिप्पणी	-10.0871
▁बजे	-10.0879
is	-10.0882
▁स्क्रीन	-10.0884
▁दीर्घ	-10.0885
▁पुष्टि	-10.0886
▁कुशल	-10.0886
ल्ला	-10.0887
▁मोह	-10.0889
▁अक्षर	-10.0891
मर	-10.0897
जीवन	-10.0897
▁गुरू	-10.0905
गुण	-10.0907
ेक्ट	-10.0924
▁सम्	-10.0929
ॉन	-10.0937
▁डाटा	-10.0941
हत	-10.0943
ेंद्र	-10.0949
▁उपायों	-10.0951
राव	-10.0955
▁संत	-10.0956
▁ची	-10.0957
▁चाहती	-10.0958
▁वृक्ष	-10.0961
▁आकाश	-10.0964
▁नस्ल	-10.0964
▁अनुचित	-10.0967
▁बहस	-10.0968
▁बीस	-10.0978
▁बनाता	-10.098
ॉल	-10.098
▁मनो	-10.0995
▁प्रबंधक	-10.1003
▁अमरीका	-10.1009
▁मंदिरों	-10.101
िष्ट	-10.1017
▁ऋ	-10.1018
तल	-10.1019
▁आइ	-10.102
▁प्रश्नों	-10.102
▁प्रतियोगिता	-10.102
▁भारतीयों	-10.103
▁वेद	-10.1034
कर्ताओं	-10.1055
▁आराम	-10.1057
▁संचालित	-10.1057
सल	-10.1068
मल	-10.1069
▁पहुंचने	-10.1069
मक	-10.1069
▁आउट	-10.1075
▁मूर्ति	-10.1076
▁पृष्ठभूमि	-10.1078
▁अपराधों	-10.1079
▁नवीन	-10.109
▁अगला	-10.1093
▁स्वामित्व	-10.1101
दु	-10.1103
▁गर्म	-10.111
▁शक्तियां	-10.1113
▁मुगल	-10.1115
ञ	-10.1118
▁अन्वेषण	-10.1124
▁द्विपक्षीय	-10.1124
▁फ़ोल्डर	-10.1124
▁पीढ़ी	-10.1147
▁अस्थायी	-10.1158
▁टा	-10.1159
डु	-10.1162
▁बेच	-10.1166
्च	-10.1167
▁अंग्रेज	-10.1169
▁मजिस्ट्रेट	-10.117
▁सकेंगे	-10.1171
▁शत्रु	-10.1172
▁सदी	-10.1181
▁संबोधित	-10.1181
▁सराहना	-10.1181
▁पंडित	-10.1181
▁उद्यान	-10.1182
▁पंख	-10.1186
▁शाम	-10.1189
▁वचन	-10.1191
ाब	-10.1192
▁दिमाग	-10.1193
▁पहलू	-10.1203
▁विद्यार्थी	-10.1205
▁बच्चा	-10.1205
▁पत्रिका	-10.1205
▁रिक्त	-10.1216
▁जीन	-10.1216
▁विनिर्माण	-10.1217
▁उदार	-10.1219
▁भांति	-10.1229
▁अवसरों	-10.1229
▁भरा	-10.1232
▁विद्वान	-10.1237
कला	-10.124
▁यथार्थ	-10.1241
िप	-10.1246
सू	-10.1255
▁वृ	-10.1257
▁तर	-10.1258
▁होम	-10.1258
▁निकाला	-10.1263
▁तापमान	-10.1265
▁मानो	-10.1267
गण	-10.127
गामी	-10.1272
वश	-10.128
▁सद	-10.128
▁उत्पा	-10.1291
▁चाल	-10.1301
▁डो	-10.1301
▁आर्	-10.131
▁इंडियन	-10.131
ज़ी	-10.1313
▁कू	-10.1315
▁विशेषज्ञ	-10.1319
▁विश	-10.1322
▁महाराजा	-10.1327
भारत	-10.1345
धारी	-10.1346
▁कायम	-10.1354
▁संतुलन	-10.1357
▁अत्यन्त	-10.1357
▁जिनसे	-10.1359
▁फेंक	-10.136
फी	-10.136
▁प्रतिदिन	-10.1369
aa	-10.1377
▁सिल	-10.1378
▁दिसंबर	-10.138
▁जुड़ा	-10.1381
वाले	-10.1381
ैल	-10.1386
रस	-10.1386
▁ईसाई	-10.1389
▁धो	-10.1396
▁कोशिकाओं	-10.1405
▁हकदार	-10.1408
▁आपात	-10.1412
▁श्रीमती	-10.1416
वासी	-10.1421
▁वसूली	-10.1424
ड़ियों	-10.1429
▁तस्वीर	-10.144
▁बन्द	-10.1446
▁बर्	-10.1456
लू	-10.1458
भव	-10.1463
▁रजिस्ट्रीकरण	-10.1464
▁समझते	-10.1466
▁बनाकर	-10.1467
▁भेजे	-10.1475
▁साइट	-10.1478
▁बहन	-10.1481
वर्त	-10.1482
▁सौंप	-10.1487
▁तरीकों	-10.1488
ाइन	-10.1502
▁उत्पादक	-10.1507
▁छाप	-10.1509
w	-10.1511
▁ढांचा	-10.1511
▁मोटर	-10.1514
▁अल्	-10.1516
▁समझे	-10.1519
▁जितन	-10.1519
▁उद्देश्यों	-10.152
कर्म	-10.1532
▁परे	-10.1533
थे	-10.1538
▁वाणिज्य	-10.1541
▁भाष्	-10.1555
▁चै	-10.156
योजन	-10.156
▁तोड़	-10.1566
रम	-10.1566
▁समितियों	-10.1567
▁पोजीशन	-10.1572
▁हटाने	-10.1575
रोध	-10.1577
▁झील	-10.1585
▁ति	-10.1587
नेट	-10.159
▁मांस	-10.159
▁अवधारणा	-10.1603
▁उपयोगकर्ता	-10.1603
▁समावेश	-10.1604
▁नील	-10.1605
ह्	-10.1609
वृत्त	-10.161
वासियों	-10.161
el	-10.1617
▁उपर्युक्त	-10.162
▁गिरफ्तार	-10.162
▁अभिगम	-10.1632
ण्ट	-10.1636
▁राजभाषा	-10.1645
▁पारंपरिक	-10.1656
▁लंबित	-10.1657
▁जिम्मेदार	-10.1657
▁इलाज	-10.1658
▁प्रभाग	-10.1661
कड़	-10.1668
▁मार्गदर्शन	-10.1669
ष्टि	-10.1674
▁चर	-10.1675
▁संदेय	-10.1681
▁मिलेगी	-10.1686
▁रहेंगे	-10.1689
▁आल	-10.1691
▁विवेक	-10.1691
▁चैतन्य	-10.1693
▁रानी	-10.1694
▁हाँ	-10.1697
▁दक्षिणी	-10.1698
▁बाग	-10.1701
▁चेक	-10.1708
▁t	-10.171
▁आपस	-10.1712
▁लगती	-10.1714
▁व्यावहारिक	-10.1717
▁आबादी	-10.1717
▁रिकार्ड	-10.1718
ग्रह	-10.1719
▁कॉल	-10.1721
▁शास्त्र	-10.1728
▁प्रतीक्षा	-10.173
▁डाक्टर	-10.1731
▁दिखाया	-10.1739
▁विभागों	-10.1743
हल	-10.1746
▁पुन	-10.1752
▁प्रतिष्ठा	-10.1752
▁अंतः	-10.1754
▁जायें	-10.1758
लाइन	-10.1768
▁पह	-10.177
▁गतिविधि	-10.1778
▁निष्क्रिय	-10.1779
▁परिवेश	-10.178
▁पट	-10.1781
▁बुद्ध	-10.1781
▁iii	-10.1781
▁अकेले	-10.1783
▁भि	-10.1792
▁महाभारत	-10.1792
▁तत्त्व	-10.18
ंठ	-10.1806
▁गै	-10.1817
▁मिलेगा	-10.1824
ंघ	-10.1826
▁होंगी	-10.1838
▁सकारात्मक	-10.184
▁e	-10.184
▁कट	-10.1841
ानु	-10.1844
्ब	-10.1844
▁किताब	-10.1846
शु	-10.1847
▁इसीलिए	-10.1853
▁संभावित	-10.1853
ाध	-10.1857
▁अत	-10.1866
▁कारक	-10.1871
▁आतंकवादी	-10.1877
▁हैदराबाद	-10.1878
▁महीनों	-10.1879
▁भरे	-10.1881
▁बोली	-10.1881
पूर्व	-10.1882
▁पक्षकारों	-10.1882
▁लड़की	-10.1883
▁बारह	-10.1886
यल	-10.1892
▁कराना	-10.1895
▁हरि	-10.1896
▁छोड	-10.1899
▁दोनो	-10.1904
▁भूख	-10.1908
ro	-10.1923
▁अन्तर्	-10.1923
▁उल्लंघन	-10.1927
▁मानी	-10.1932
शे	-10.1945
▁पुष्प	-10.1946
▁विष	-10.1948
मार्ग	-10.1957
▁कर्ण	-10.196
▁उन्होने	-10.1963
▁सम्बंध	-10.1966
ेंस	-10.197
▁चुनें	-10.1973
▁गारंटी	-10.1978
▁बडी	-10.1981
▁केंद्रित	-10.1983
▁देखे	-10.1984
▁खनिज	-10.199
▁प्रांत	-10.1991
▁जम	-10.1992
▁बिता	-10.1999
लिया	-10.2001
▁पाये	-10.201
▁बनाते	-10.2014
▁भर्ती	-10.2015
▁धरती	-10.2018
रोह	-10.2023
ंडी	-10.2025
▁भगवान्	-10.2026
▁एकत्र	-10.2028
▁जानकर	-10.2028
▁अभिलाभ	-10.2029
▁पंजीकृत	-10.2041
▁हां	-10.2045
▁ऊंचाई	-10.2057
▁जोड़ने	-10.2059
▁सिंचाई	-10.2066
▁इमारत	-10.2066
▁पालिसी	-10.2067
▁पड़ती	-10.2067
▁गेंद	-10.2071
▁डालने	-10.2071
▁घाट	-10.2071
▁स्मरण	-10.2079
▁अनुपालन	-10.208
▁महल	-10.208
▁दिला	-10.2085
▁आधारभूत	-10.2086
्रो	-10.2087
▁बढ़ने	-10.2095
▁गद्य	-10.2096
▁मद्रास	-10.2104
▁हिन्दुस्तान	-10.2104
▁दौड़	-10.2104
फ़ा	-10.2112
▁वस्तुतः	-10.2113
▁प्रेषित	-10.2117
भाग	-10.2117
▁साम	-10.2119
ापन	-10.2124
ैन	-10.2125
▁फ्र	-10.2131
▁पशुओं	-10.2132
िकी	-10.2138
भी	-10.2142
▁उत्तरदायित्व	-10.2142
▁आकलन	-10.2142
▁पट्टी	-10.2148
▁खून	-10.2148
▁जायेगी	-10.2151
ुत	-10.2152
▁ईरान	-10.216
सम	-10.216
▁पाता	-10.2164
्द	-10.2165
▁आंशिक	-10.2168
सान	-10.2173
▁ग्राहकों	-10.2174
▁छाया	-10.2175
▁भु	-10.2178
▁सम्पर्क	-10.2181
वर्ग	-10.2188
▁याची	-10.2191
▁क्रियाकलाप	-10.2193
ांतर	-10.22
चल	-10.2201
▁फो	-10.2209
पल	-10.2211
▁टि	-10.2212
धर	-10.2215
१२	-10.2218
▁बहुमत	-10.2221
प्ट	-10.2225
मार	-10.2228
मंड	-10.2229
▁दाखिल	-10.2232
▁कपड़े	-10.2233
▁मिटा	-10.2234
▁प्लस	-10.2239
भाष	-10.2241
▁अनाज	-10.2241
▁अमरीकी	-10.2245
▁फे	-10.2246
▁सन	-10.2249
्ह	-10.2253
▁पुरूष	-10.2258
▁बुला	-10.2264
▁बॉ	-10.2268
पात	-10.2271
▁पहाड़ी	-10.2271
▁वक्त	-10.2272
▁निकालने	-10.2274
▁बीमार	-10.2276
▁परिस्थिति	-10.2281
▁फैसला	-10.2283
▁जापान	-10.2283
▁प्रजनन	-10.2284
▁स्वीकृत	-10.2286
ोक	-10.2291
▁मुंह	-10.2296
▁एकदम	-10.2298
▁साझा	-10.2299
▁बोध	-10.2303
▁खुला	-10.2314
▁सेक्टर	-10.2324
▁गर्व	-10.2329
▁मुकदमा	-10.2332
▁धन्यवाद	-10.2335
▁संपदा	-10.2335
▁चावल	-10.2338
ग्रे	-10.2344
▁अद	-10.2345
▁अनुशासन	-10.2349
▁मानता	-10.2354
▁मौत	-10.2367
▁शिल्प	-10.2375
▁h	-10.2376
▁रहस्य	-10.2377
▁पहुंचे	-10.2387
▁निष्ठा	-10.2389
▁शु	-10.2391
▁पहन	-10.2393
▁सिवाय	-10.2394
षित	-10.2394
ाप	-10.2395
▁कोष	-10.2401
▁स्टे	-10.2403
▁शांत	-10.2404
▁जर्मनी	-10.2404
ज्ञान	-10.2404
▁भरी	-10.2405
▁कप	-10.2408
▁थोड़ी	-10.2414
▁प्रतिवादी	-10.2415
▁मृत	-10.2416
▁जुल	-10.2424
▁वैकल्पिक	-10.2427
▁पोत	-10.2429
▁चली	-10.2429
▁जोड़ा	-10.2433
▁विनियमन	-10.2437
▁शिक्षकों	-10.244
▁कड़ी	-10.2443
▁परम्परा	-10.2451
▁मॉ	-10.2452
▁कार्यकलाप	-10.2453
▁कहां	-10.2462
लोक	-10.2462
▁बैठे	-10.2465
▁लकड़ी	-10.2467
▁कालेज	-10.2471
०क	-10.2474
टिंग	-10.2475
▁परिवारों	-10.2475
▁लगते	-10.2484
वेल	-10.2485
▁पड	-10.2492
▁किन्हीं	-10.2493
▁वर्मा	-10.2497
▁ऊपरी	-10.2502
श्व	-10.2504
▁पूर्णतः	-10.2506
ेरी	-10.2507
स्ता	-10.2518
▁स्तरों	-10.2519
ट्स	-10.2526
▁जला	-10.2526
▁देखता	-10.2529
▁श्वेत	-10.2533
▁दक्षता	-10.2538
▁गहराई	-10.254
▁वाक्य	-10.2542
▁v	-10.2544
▁गुणा	-10.2552
▁गण	-10.2558
▁शोर	-10.2558
▁चेतावनी	-10.2559
▁रहित	-10.2562
▁जमानत	-10.2562
▁गौरव	-10.2564
▁मानवता	-10.2565
▁जवाहरलाल	-10.2572
▁सावधानी	-10.2598
▁उल्लिखित	-10.2599
▁फोटो	-10.26
▁डॉलर	-10.2601
▁माने	-10.2602
▁सूचित	-10.2603
राग	-10.2609
▁उपज	-10.2609
▁तमिलनाडु	-10.2612
▁संगठित	-10.2612
▁उन्हीं	-10.2613
▁धनराशि	-10.2613
▁दस्तावेजों	-10.2615
म्म	-10.2615
▁विवरणी	-10.2619
▁ग्राफ	-10.2621
रन	-10.2623
▁पहलुओं	-10.2626
▁हाथी	-10.2628
▁चिन्ह	-10.2637
ल्फ	-10.2638
▁व्यापारी	-10.2642
▁समझता	-10.2644
▁विनाश	-10.2644
▁खड़ी	-10.2644
क्ल	-10.2646
खंड	-10.2647
▁ट्यूब	-10.2653
दाता	-10.2659
▁ब्ल	-10.2663
▁तुर्की	-10.2663
हृ	-10.2664
▁कनेक्शन	-10.2666
▁उर्दू	-10.2666
▁गाड़ी	-10.2685
▁संभवतः	-10.2686
▁रोज	-10.2688
▁मछली	-10.2693
▁प्रतिष्ठित	-10.2693
▁भेजने	-10.2718
▁नकारात्मक	-10.272
▁वापसी	-10.2722
▁पुस्तकों	-10.2723
दारी	-10.2725
▁अभिनिर्धारित	-10.2734
▁पदों	-10.2743
▁जाओ	-10.2753
▁निवासी	-10.2757
▁इंग्लैंड	-10.2761
▁कुशलता	-10.2761
▁किलोमीटर	-10.2761
▁टिकट	-10.2765
▁शत	-10.277
▁y	-10.2775
▁उत्तम	-10.2775
▁साधनों	-10.2776
▁अग्नि	-10.2788
▁कृति	-10.2789
▁चुकता	-10.2789
▁चयनित	-10.279
रित	-10.2791
▁करवा	-10.2791
▁पड़ेगा	-10.2793
▁सीधा	-10.2799
एच	-10.2801
▁फलस्वरूप	-10.2802
▁चुना	-10.2805
▁लीग	-10.2805
त्रिक	-10.2807
▁पढ	-10.2814
▁साहब	-10.2815
▁सभापति	-10.2818
दू	-10.2826
▁प्रचालन	-10.2829
निष्ठ	-10.2829
रिस	-10.2833
पु	-10.2836
▁पाप	-10.2837
▁आदत	-10.2841
कट	-10.2843
▁सतत	-10.2845
▁प्रबल	-10.2846
ाधीन	-10.2852
ोड	-10.2852
▁लोड	-10.2853
हु	-10.2853
ट्र	-10.2863
le	-10.2865
ियत	-10.2866
▁महत्त्व	-10.2868
▁दण्ड	-10.287
▁स्त्रियों	-10.287
▁निरसन	-10.2871
गढ़	-10.2871
▁प्रसाद	-10.2873
▁राजकुमार	-10.2885
▁असामान्य	-10.2885
▁कही	-10.2889
रहित	-10.289
ांश	-10.2894
▁अंग्रेजों	-10.2897
दर्श	-10.2897
▁गांधीजी	-10.2897
▁व्यवस्थित	-10.2898
▁उतनी	-10.29
▁अंतराल	-10.2902
▁अपवाद	-10.2909
र्जन	-10.2916
▁सेटिंग	-10.2917
▁रजिस्टर	-10.2923
र्च	-10.2923
▁बयान	-10.2928
▁आयी	-10.293
▁स्तन	-10.2932
▁खुल	-10.2937
दृ	-10.2941
▁रखकर	-10.2943
ीस	-10.2946
पू	-10.2946
ol	-10.2952
▁शानदार	-10.2953
थि	-10.2955
▁सहन	-10.2956
▁गईं	-10.2965
▁अक्षम	-10.2966
▁पुस्तिका	-10.2966
▁पैकेज	-10.2967
▁आन	-10.2972
▁विद्या	-10.2986
क्शन	-10.2986
▁ध्वज	-10.2995
▁एयर	-10.2997
▁रोगों	-10.3001
बन्ध	-10.3003
मिल	-10.3005
▁चीजें	-10.3008
▁पुराण	-10.3013
▁बाध्य	-10.3017
▁गवर्नर	-10.3022
▁निशान	-10.3025
▁संपन्न	-10.3026
ूँगा	-10.3028
▁आरक्षित	-10.3029
्टन	-10.303
्रि	-10.3035
▁यातायात	-10.3036
▁सैन्य	-10.3037
▁सम्बन्धित	-10.3039
▁बक	-10.3045
▁पुल	-10.3048
▁बेल	-10.3049
▁कोलकाता	-10.305
▁नवंबर	-10.3051
▁मुझसे	-10.3052
▁बुरा	-10.3061
▁हमला	-10.3061
िफ	-10.3064
▁हिसाब	-10.3064
▁हिंदु	-10.3066
▁उल	-10.3069
▁स्टेट	-10.3071
▁इराक	-10.3079
▁मिश्रण	-10.309
▁देखी	-10.31
ॉट	-10.3102
▁कस	-10.3104
▁अखिल	-10.3106
▁माध्यस्थम्	-10.3109
as	-10.311
▁कानूनों	-10.3111
▁बडे	-10.3114
्ला	-10.3116
▁डाउनलोड	-10.312
▁अनि	-10.3122
▁भ्रम	-10.3125
▁मुकदमे	-10.3128
▁एकीकृत	-10.313
▁चुनौतियों	-10.3134
▁कार्यान्वित	-10.3137
ालय	-10.314
ंगल	-10.3142
न्ना	-10.3144
ुद	-10.3146
▁संगणक	-10.3148
▁खोलने	-10.3154
▁गुट	-10.3155
▁रुक	-10.3161
▁प्रोफेसर	-10.3162
▁देह	-10.3165
▁वृत्ति	-10.3165
st	-10.3167
म्भ	-10.3169
▁पैसा	-10.317
▁नाक	-10.3171
▁बांट	-10.3172
▁संग	-10.3173
सिक	-10.3173
▁सलाहकार	-10.3176
▁डाय	-10.3176
▁प्रयोक्ता	-10.3177
▁घनिष्ठ	-10.3179
▁अनुक्रम	-10.3181
थी	-10.319
▁चिकित्सीय	-10.3191
कारों	-10.3196
ch	-10.3198
▁शंकर	-10.3204
▁हंस	-10.3205
▁रहेगी	-10.3211
▁अंततः	-10.3215
▁अपनाने	-10.3219
प्रद	-10.3222
▁पीड़ा	-10.3223
लिये	-10.3225
▁घास	-10.323
▁मशीनरी	-10.3231
▁पोस्ट	-10.3232
▁माननीय	-10.3237
ल्ली	-10.3238
▁मंजूर	-10.3242
▁मार्क	-10.3246
▁क्रमशः	-10.3248
▁दावे	-10.3258
ad	-10.3264
▁उठाए	-10.3267
▁सकल	-10.3268
मिक	-10.327
▁दिनांक	-10.3272
▁प्रतिफल	-10.3274
▁छु	-10.3275
▁चंद्र	-10.3277
▁प्रदत्त	-10.3284
▁फ्रांस	-10.3287
▁कीटों	-10.3299
▁वर्	-10.3304
▁रज	-10.3307
्टी	-10.3307
▁परिचित	-10.3308
▁लोकसभा	-10.332
▁निर्देशिका	-10.3327
▁बम	-10.3328
वादियों	-10.3331
▁लोकतांत्रिक	-10.3333
▁गुणों	-10.3335
▁सुन्दर	-10.3339
▁अस्वीकार	-10.3348
▁एजेंसी	-10.3348
▁ईंधन	-10.3348
▁रचनात्मक	-10.3351
▁कार्यपालिका	-10.3352
▁आस्था	-10.3355
▁देखो	-10.3357
ेन्द्र	-10.336
▁लाना	-10.3364
दायी	-10.3375
▁बढ़ते	-10.3378
धर्म	-10.3378
वती	-10.3383
▁नकद	-10.3388
िकल	-10.339
▁झूठ	-10.3391
se	-10.3395
वत्	-10.3399
यम	-10.3402
▁दार्शनिक	-10.3406
▁बहादुर	-10.3406
▁मौ	-10.341
▁विलंब	-10.3411
▁असं	-10.3414
स्थान	-10.3421
▁प्रमाणित	-10.3423
▁शासक	-10.3432
िस्तान	-10.3434
▁चेहरे	-10.3435
▁तैयारी	-10.3436
▁स्थितियों	-10.3437
▁दोहरा	-10.3438
१३	-10.3449
▁क्षतिपूर्ति	-10.3449
▁दू	-10.3451
▁विवादों	-10.3454
▁प्ला	-10.3459
▁रिकॉर्ड	-10.3464
▁सहारा	-10.3465
▁व्यापारिक	-10.3467
▁पृ	-10.3468
▁दोषी	-10.3471
क्षित	-10.3472
रक्षक	-10.3477
▁रूस	-10.3478
▁आह्वान	-10.3478
▁ड्राइव	-10.3478
तार	-10.3481
▁जंगल	-10.3487
▁मित्रों	-10.3489
▁शैक्षणिक	-10.3493
▁ट्र	-10.3498
▁सीता	-10.35
▁फायदा	-10.3508
▁स्वप्न	-10.3508
▁डिग्री	-10.3508
▁वैज्ञानिकों	-10.3514
▁यानी	-10.3518
्टर	-10.352
▁जायेंगे	-10.3522
टि	-10.3524
खी	-10.3528
▁अगल	-10.3532
हम	-10.3536
▁अभ्यास	-10.3538
▁भग	-10.3541
G	-10.3545
▁आदर	-10.3549
▁सचमुच	-10.3551
यक	-10.3556
विन	-10.356
▁ऊतक	-10.3562
▁अधिरोपित	-10.3566
▁उपेक्षा	-10.3566
▁जुड़ी	-10.3569
▁अधिवक्ता	-10.3572
▁कार्यरत	-10.358
चन्द्र	-10.3581
दीन	-10.3586
▁प्रारम्भ	-10.3589
▁निष्	-10.3593
▁घाटी	-10.3594
▁कम्प्यूटर	-10.3596
▁O	-10.3599
डिया	-10.36
न्यास	-10.3603
▁शेख	-10.3604
स्टी	-10.3605
विधि	-10.3609
्लो	-10.3622
▁हजारों	-10.3625
▁श्रद्धा	-10.3626
▁न्	-10.3626
▁पॉ	-10.3627
वाँ	-10.3628
▁बढ़कर	-10.3628
▁o	-10.3633
फ्ट	-10.3637
▁नै	-10.364
▁कृत्रिम	-10.364
▁शिक्षित	-10.3641
ंडर	-10.3644
▁आँख	-10.3649
▁दिसम्बर	-10.3655
पाद	-10.3659
नियम	-10.3661
नेवाले	-10.3662
कत	-10.3669
▁वस्तुएं	-10.3671
▁विचारधारा	-10.3674
हो	-10.3676
र्द्ध	-10.3678
बोध	-10.3682
▁प्रासंगिक	-10.3685
▁वनस्पति	-10.3685
ुम	-10.3687
▁तीनों	-10.3693
▁असली	-10.3695
▁मानकों	-10.3697
ao	-10.3699
▁आवेदक	-10.37
िमा	-10.37
▁तन	-10.3702
▁खिल	-10.3702
पना	-10.3703
टक	-10.3711
▁रणनीति	-10.3714
▁नवम्बर	-10.3715
▁कण	-10.3742
▁नी	-10.3743
▁भौगोलिक	-10.3744
▁ऑडियो	-10.3744
▁कथित	-10.3744
▁सिख	-10.3745
▁प्रतिरोध	-10.3753
ेम	-10.3757
▁मतदान	-10.3765
▁लेंगे	-10.3766
▁मादा	-10.3769
ानुसार	-10.3771
वंश	-10.3776
बु	-10.3782
▁प्रभावशाली	-10.3792
▁संक्षेप	-10.3793
▁सामान्यतया	-10.3795
▁अनन्त	-10.3795
▁झा	-10.3796
▁संवेदनशील	-10.3796
▁प्रजा	-10.3801
▁वादी	-10.381
▁जिसको	-10.3813
▁अंडे	-10.3819
▁विष्णु	-10.3821
र्प	-10.3825
▁जुटा	-10.3826
▁संकल्पना	-10.3828
▁अर्जन	-10.3831
▁पत्रों	-10.3833
▁प्रक्रम	-10.3853
▁बेस	-10.3858
झा	-10.3862
छा	-10.3866
▁दया	-10.3869
▁समुदायों	-10.3873
▁भावनाओं	-10.3876
ल्ट	-10.3879
▁विद्वानों	-10.3879
▁अध्यापक	-10.388
▁मंडप	-10.3881
ुष	-10.3892
शेष	-10.3897
श्च	-10.3899
र्ष	-10.3907
ाबाद	-10.3908
▁मासिक	-10.391
▁खतरनाक	-10.3911
▁अज्ञात	-10.3911
▁उड़ीसा	-10.3911
ांकन	-10.3914
ूत	-10.392
▁अवरोध	-10.3926
▁ताप	-10.3928
▁वाल	-10.3932
▁अनुदेश	-10.3932
▁दम	-10.3935
▁चढ़	-10.3937
▁फर	-10.3938
▁हाउस	-10.3942
▁संयोजन	-10.3948
ोज	-10.3952
बिल	-10.3957
▁परिश्रम	-10.3957
ाशय	-10.396
▁संगत	-10.3962
परि	-10.3968
▁हिमाचल	-10.3972
वस्था	-10.3972
▁स्तरीय	-10.3972
▁अतीत	-10.3972
▁सहयोगी	-10.3975
▁होटल	-10.3976
थर	-10.3979
▁गोरा	-10.3982
▁व्युत्पन्न	-10.3987
▁पौ	-10.3988
▁लंदन	-10.3988
▁राष्ट्रों	-10.3993
▁छिपा	-10.3996
रोपण	-10.3998
▁वैदिक	-10.4002
▁इकाइयों	-10.4003
▁आपसी	-10.4006
▁हमे	-10.4013
▁अपेक्षाकृत	-10.4014
▁प्रसंस्करण	-10.4018
▁बू	-10.403
▁वार	-10.4031
▁घृणा	-10.4033
▁पैनल	-10.4035
▁लंबाई	-10.4038
▁कुरान	-10.4042
▁मान्य	-10.4047
▁भक्त	-10.405
▁बजा	-10.4055
▁प्रतिबंध	-10.4056
वर्धन	-10.4056
▁सेवक	-10.4056
▁लंबा	-10.4059
▁गहरे	-10.4064
▁व्यष्टि	-10.4067
▁तीसरा	-10.4068
▁ज़ि	-10.4075
▁धीम	-10.4075
▁कहाँ	-10.4084
▁पूर्ववर्ती	-10.4085
▁रॉ	-10.4085
▁नं	-10.4087
▁आंकड़े	-10.41
▁लेखकों	-10.4101
नर	-10.4104
▁मुख्यतः	-10.4115
▁सोसाइटी	-10.4126
▁कैंसर	-10.4126
▁नदियों	-10.4126
▁ढेर	-10.4133
ac	-10.4137
▁कार्मिक	-10.4142
▁संग्रहालय	-10.4143
▁प्रसन्न	-10.4145
▁गणित	-10.4155
▁बुरी	-10.4158
▁बैठा	-10.4158
▁उपलब्धता	-10.416
▁निधन	-10.4162
▁उर्वरक	-10.4164
▁देशी	-10.4164
▁नाग	-10.4171
▁बनता	-10.4171
▁मतभेद	-10.4174
▁अंकित	-10.4179
▁नमक	-10.4181
ोड़	-10.4184
मात्र	-10.4184
▁पक्षी	-10.4185
रुप	-10.4186
▁रामायण	-10.4189
▁त्वरित	-10.4189
▁प्रणालियों	-10.4191
वेश	-10.4192
प्स	-10.4195
▁तुम्हार	-10.4197
▁प्रसारण	-10.4199
▁घरों	-10.4202
बंदी	-10.4202
▁योजनाएं	-10.4203
▁तनाव	-10.4206
▁असल	-10.4206
▁प्ले	-10.4208
▁सुनने	-10.4211
▁मोटे	-10.4212
▁सांस	-10.4212
▁परेशान	-10.4218
▁पिछली	-10.4222
ाओं	-10.4227
▁रन	-10.4233
▁अभिकरण	-10.4235
▁संभाल	-10.4236
▁जीवाणु	-10.4237
▁राज्यक्षेत्र	-10.4243
▁खबर	-10.425
कना	-10.4254
▁दिखाने	-10.4257
ख्या	-10.4263
▁अपराधी	-10.4264
शिया	-10.4269
▁सीखने	-10.4273
▁रखती	-10.4276
▁अधिवेशन	-10.4283
▁तमिल	-10.4286
▁शेर	-10.4291
▁ऑफ़	-10.4297
▁अनुमोदित	-10.4299
▁शासित	-10.4299
▁अवस्थित	-10.43
यत	-10.4305
▁पादप	-10.4305
▁लगाए	-10.4307
▁मध्यस्थ	-10.431
la	-10.431
▁जग	-10.4313
▁इलाक	-10.4313
▁सोने	-10.4316
▁मौका	-10.432
▁अनुज्ञा	-10.4322
▁आधा	-10.4327
▁दांत	-10.433
▁बंबई	-10.4331
▁परिवर्तनों	-10.4331
▁निरा	-10.4333
▁पंचायत	-10.4341
▁वास्तविकता	-10.4342
▁रोम	-10.4342
स्फ	-10.4345
▁बर्फ	-10.4348
▁वजन	-10.4357
▁आमंत्रित	-10.4362
▁पारस्परिक	-10.4362
▁समर्पण	-10.4363
▁उगा	-10.4373
स्थापन	-10.4373
▁हथियार	-10.4373
▁आयकर	-10.4373
▁अमल	-10.4373
▁बटन	-10.4373
ce	-10.4376
फ्	-10.4377
▁ज्ञापन	-10.4378
▁शिष्य	-10.4379
▁बट	-10.4382
▁तंग	-10.4386
▁भाग्य	-10.4388
▁अच	-10.4389
▁टीका	-10.4389
▁अन्तिम	-10.4396
▁लिखते	-10.4396
▁अभियोजन	-10.4398
▁विन्यास	-10.44
ri	-10.44
▁वृत्त	-10.4401
▁खिला	-10.4403
▁व्यस्त	-10.4404
▁मोहन	-10.4407
ावली	-10.441
▁सौंदर्य	-10.441
▁क्रेडिट	-10.441
▁मंजूरी	-10.4417
▁जुड़	-10.4423
न्त्र	-10.4423
वक	-10.4423
▁क्यू	-10.4424
▁तदनुसार	-10.4426
स्तर	-10.4432
▁पश्च	-10.4433
▁पहाड़	-10.4434
▁बचने	-10.4437
▁लॉग	-10.4441
▁सितम्बर	-10.4442
कालिक	-10.4444
▁बचाने	-10.4449
ायत	-10.4449
▁वैयक्तिक	-10.445
रचना	-10.4453
▁अध्यक्षता	-10.4455
▁ग्रा	-10.4456
ैक	-10.4458
▁बिन्दु	-10.4458
▁हट	-10.4459
▁बड़	-10.446
▁लोप	-10.4461
▁मुलाकात	-10.4475
▁दांडिक	-10.4475
▁व्याख्यान	-10.4478
▁सबूत	-10.448
ूक	-10.448
▁हिम	-10.4481
ेन्ट	-10.4488
▁नियंत्रक	-10.4491
▁आदेशों	-10.4491
▁in	-10.4492
▁दशकों	-10.4503
▁आर्य	-10.4507
▁संगणना	-10.4507
▁विनियामक	-10.4523
▁उत्सव	-10.4523
▁विकासशील	-10.4525
▁बिट	-10.4527
▁वरन्	-10.4531
स्थापित	-10.4531
▁गर्मी	-10.4536
▁वसा	-10.454
▁पाठक	-10.4543
▁श्र	-10.4548
▁पाना	-10.4549
▁चलाया	-10.4553
▁शाखाओं	-10.4567
▁अवसंरचना	-10.4572
▁टेलीफोन	-10.4572
▁इंजीनियरी	-10.4573
▁शस्त्र	-10.4574
▁संचित	-10.4578
▁बनना	-10.4585
un	-10.4586
▁रिजर्व	-10.4588
▁चाहूंगा	-10.4588
▁डॉक्टर	-10.4589
ड्ड	-10.4591
जित	-10.4592
▁परंपरागत	-10.4592
▁कमीशन	-10.4594
▁निः	-10.4596
▁घन	-10.4599
ायी	-10.46
▁शराब	-10.4605
▁आईटी	-10.4608
▁संग्रहण	-10.4616
थन	-10.4618
▁कवियों	-10.462
▁पुराना	-10.462
▁उपरोक्त	-10.4621
▁गर्भ	-10.4621
▁अक	-10.4631
▁आजाद	-10.4637
▁पचास	-10.4638
▁अंतरित	-10.464
▁अधीनस्थ	-10.4648
दर्शी	-10.4648
▁केंद्रों	-10.4649
▁ऊंची	-10.4653
▁महासागर	-10.4654
▁नारायण	-10.4655
▁उड़ान	-10.4672
▁माँग	-10.4676
▁विजेता	-10.4687
▁प्रोटीन	-10.4687
▁अम्ल	-10.4688
जू	-10.4691
डीए	-10.4693
▁गलती	-10.4693
च्छा	-10.4694
▁देवताओं	-10.4703
▁सृजित	-10.4703
वित	-10.4709
▁सम्राट	-10.4719
▁पुस्तकालय	-10.4721
▁कहानिय	-10.4723
▁नकदी	-10.4724
हट	-10.4724
दल	-10.4725
▁मोड़	-10.4731
लंब	-10.4734
्दी	-10.4748
▁विधानमंडल	-10.4754
यं	-10.4754
▁दिखाएँ	-10.4758
▁ग्ल	-10.4762
▁उपग्रह	-10.4763
▁बडा	-10.4765
त्तर	-10.4766
▁गतिशील	-10.4766
▁वन्य	-10.4776
▁कमांड	-10.4777
मुखी	-10.4778
▁तीस	-10.4779
▁प्रशिक्षित	-10.4786
▁औषधि	-10.4786
ation	-10.4788
▁हाइ	-10.4793
बाई	-10.4801
▁सम्मानित	-10.4801
▁कृत्य	-10.4803
▁r	-10.4803
▁पंजाबी	-10.4803
वाड़	-10.4803
द्वार	-10.4804
▁दरबार	-10.4807
▁घोष	-10.4808
▁पहुँचा	-10.481
▁रासायनिक	-10.4819
▁छप	-10.4835
ड़िया	-10.4836
ोद	-10.4839
▁बीत	-10.4843
▁शीत	-10.4845
ौल	-10.4846
▁लक्ष्यों	-10.4849
▁पुस्तकें	-10.485
▁जगत	-10.4855
▁सूजन	-10.4858
▁जानवरों	-10.4863
क्व	-10.4867
▁लिखना	-10.4872
पितु	-10.4872
▁तीसरी	-10.4874
▁परत	-10.4882
▁निकलने	-10.4895
ठी	-10.4896
▁कनाडा	-10.4903
▁ब्रा	-10.491
▁निर्णयों	-10.4914
▁मरम्मत	-10.4919
तुल	-10.4921
▁नकल	-10.4923
मुक्त	-10.4929
तो	-10.4929
▁शो	-10.4931
▁इसको	-10.4935
▁तरल	-10.4935
▁लम्बे	-10.4936
▁बैक	-10.4937
▁सिं	-10.494
▁धान	-10.4941
मंद	-10.4941
▁अंग्रेज़ी	-10.4951
▁छुट्टी	-10.4953
▁सम्पन्न	-10.4954
▁मैक	-10.4955
ऐ	-10.4957
माल	-10.4967
▁टिप्पण	-10.4967
▁नाते	-10.4969
ध्या	-10.497
▁नार	-10.497
▁ऊंचे	-10.497
▁निर	-10.4976
▁दंत	-10.4985
▁सम्भव	-10.4986
▁एण्ड	-10.4986
▁विकलांग	-10.4987
uot	-10.4988
ैक्ट	-10.4997
▁स्पर्श	-10.5002
▁स्वाधीनता	-10.5004
▁परिकल्पना	-10.5004
▁आकर्षण	-10.5021
▁प्रसंग	-10.5021
▁निष्पक्ष	-10.5021
▁सहानुभूति	-10.5021
▁पूर्णतया	-10.5027
▁प्लेट	-10.5028
▁प्रभार्य	-10.5032
▁नम	-10.5033
▁फौज	-10.5038
▁शे	-10.5046
▁विज्ञापन	-10.5055
▁विधायी	-10.5056
लिक	-10.5057
▁कलाकार	-10.5061
म्य	-10.5061
▁चित्रण	-10.5063
▁तुमने	-10.5064
▁जरा	-10.5065
फ़ी	-10.5069
▁क्रि	-10.507
▁of	-10.5074
शाली	-10.5077
▁द्रव	-10.5077
यान	-10.5078
▁दुर्	-10.5079
लाई	-10.508
िग	-10.508
ध्व	-10.5081
▁उन्होनें	-10.5092
स्टो	-10.5094
▁उपाधि	-10.5097
▁आस्तिय	-10.51
▁वर्न	-10.5101
मूल	-10.5104
▁दस्त	-10.5105
ित्र	-10.5105
▁विस्फोट	-10.5106
जात	-10.5115
बाजी	-10.5116
▁शर्तें	-10.5118
वाहक	-10.5121
▁कैल	-10.5127
▁इम	-10.5127
लाल	-10.5129
▁फिलीस्तीनी	-10.5131
▁इंड	-10.5137
वै	-10.514
▁यहूदी	-10.5141
▁अनुभूति	-10.5143
▁सबके	-10.5148
▁बसव	-10.5148
▁सैनिकों	-10.5157
▁स्नातक	-10.5158
▁क्रांतिकारी	-10.5161
▁समर्थित	-10.5161
▁फसलों	-10.5164
▁मंगल	-10.5174
▁अभिभाषण	-10.5175
▁चट्टान	-10.5175
्टि	-10.5177
िज़	-10.5188
▁आखिर	-10.5194
▁दिल्	-10.5199
▁विधियां	-10.52
▁वासी	-10.5207
▁ठहरा	-10.5209
▁वैष्णव	-10.521
▁अंध	-10.5211
▁संतुष्ट	-10.5217
वस	-10.5218
▁पूर्णता	-10.522
क़्त	-10.5222
▁अह	-10.5223
▁शपथ	-10.5228
१४	-10.5234
▁लगने	-10.5234
▁क्रय	-10.524
▁पर्व	-10.5247
▁खेत	-10.5248
▁सफलतापूर्वक	-10.525
बाज	-10.5251
▁मील	-10.5251
▁मिस्र	-10.5262
ज़े	-10.5263
ोत्तर	-10.5266
▁दत्त	-10.5273
कू	-10.5274
▁हॉ	-10.5274
दायक	-10.5279
▁चरम	-10.5279
▁मुकाबले	-10.528
▁माइक्रो	-10.528
▁आधे	-10.528
▁उग्र	-10.5285
ट्री	-10.5287
▁इन्हीं	-10.5297
▁री	-10.5301
युक़्त	-10.5309
▁ट्रैक	-10.5309
रंग	-10.5314
▁पेशेवर	-10.5315
▁बनाती	-10.5319
क्का	-10.532
▁स्कूलों	-10.5325
त्म	-10.5335
▁प्राणी	-10.5336
▁शादी	-10.5337
ाज	-10.534
तिक	-10.5348
न्द्र	-10.5351
▁कार्यालयों	-10.5353
भूमि	-10.5353
▁विपक्ष	-10.5354
▁निपटने	-10.5355
▁सकने	-10.5357
’’	-10.5359
ाचार	-10.5367
▁कार्बन	-10.5368
म्बर	-10.5368
▁सोम	-10.5375
▁घु	-10.5379
चित्र	-10.5379
ंदा	-10.5381
रोग	-10.5388
▁जाया	-10.5391
▁इनपुट	-10.5393
▁उम	-10.5395
▁भरने	-10.5399
us	-10.5401
लम	-10.5403
▁वितरित	-10.5403
▁किशोर	-10.5403
▁सोचते	-10.5409
▁आपदा	-10.5412
▁जागरूकता	-10.5416
▁इलेक्ट्रॉनिक	-10.5417
▁अवकाश	-10.542
▁यौन	-10.5421
अप	-10.5422
▁दलों	-10.5427
▁दाम	-10.5427
रान	-10.5429
▁जानना	-10.5429
सिद्ध	-10.543
▁तारा	-10.543
▁समस्याएं	-10.5435
▁गवाह	-10.5436
▁स्वचालित	-10.5439
▁शास्ति	-10.5441
पन्न	-10.5444
▁मजदूर	-10.5445
il	-10.5453
▁साइ	-10.5454
▁मुहम्मद	-10.5456
▁गाँव	-10.5456
▁आमदनी	-10.5456
ज़र	-10.5457
▁कराई	-10.5459
▁भत्ता	-10.546
ur	-10.5465
▁शक	-10.5465
▁जल्द	-10.5466
▁विदेशों	-10.5469
▁थोड़े	-10.5474
▁चौक	-10.5475
ेषण	-10.5487
th	-10.549
नुसार	-10.549
▁उत्पादकता	-10.5495
▁नोड	-10.5499
ter	-10.55
▁फु	-10.5502
▁रूपरेखा	-10.5508
इन	-10.5509
▁एजेंसियों	-10.5509
टु	-10.5511
▁न्या	-10.5514
परक	-10.5516
रचनाओं	-10.5517
▁मिश्रित	-10.5517
▁वैसा	-10.5517
▁पीने	-10.5518
ैस	-10.5521
▁नमूने	-10.5524
वृत्ति	-10.5529
▁000	-10.553
ारा	-10.5537
प्रभा	-10.5543
▁रिज़र्व	-10.5545
▁वयस्क	-10.5545
▁ग्रस्त	-10.5547
▁भरपूर	-10.5547
▁उन्हे	-10.5549
▁विद्वत	-10.5552
▁लाभों	-10.5554
▁बाढ़	-10.5555
▁नौकर	-10.5556
▁भरोसा	-10.5563
▁स्थूल	-10.5563
▁अवयव	-10.5563
▁कारगर	-10.5565
▁राव	-10.5566
▁विभेद	-10.5567
▁वर	-10.5571
▁आंकड़	-10.5575
▁बंधन	-10.5576
लिस	-10.5576
▁नायक	-10.5584
▁बढ़ता	-10.5584
▁रूपये	-10.5592
▁कार्यकारी	-10.5592
▁रेशम	-10.56
▁ठहर	-10.5602
▁देखिए	-10.5607
▁विशेषाधिकार	-10.5608
सेट	-10.561
▁आंक	-10.561
▁अभिव्यक्त	-10.5611
▁आवश्य	-10.5612
▁गिरफ्तारी	-10.5617
▁जरूर	-10.562
▁शैल	-10.5629
▁स्मारक	-10.5635
टल	-10.564
▁सर्विस	-10.564
ay	-10.5642
▁उत्कृष्टता	-10.5646
te	-10.5651
▁बोझ	-10.5652
र्श	-10.5657
▁नियोजन	-10.5658
बाल	-10.5665
▁रै	-10.5668
▁आपत्ति	-10.5674
रेट	-10.5679
▁काले	-10.568
▁यूनियन	-10.569
▁डिजिटल	-10.5693
ेन्स	-10.5696
▁क्ष	-10.5698
▁जाएँ	-10.5699
▁अधिकृत	-10.57
▁खुली	-10.5701
▁आह	-10.5702
▁मैच	-10.5706
अधिसूचित	-10.5708
▁चिंतन	-10.5709
▁उपभोग	-10.571
त्री	-10.5719
▁क्लब	-10.5722
चु	-10.5723
▁बदला	-10.5725
▁नाबार्ड	-10.5726
▁शोषण	-10.5727
क्ट	-10.5727
▁जिलों	-10.5728
▁ग़	-10.5729
ध्य	-10.5734
▁निर्गम	-10.5735
िक्स	-10.5736
गान	-10.5736
▁गौर	-10.5741
व्	-10.5744
▁अफगानिस्तान	-10.5745
▁वक्तव्य	-10.5746
प्रा	-10.575
▁संतान	-10.5752
▁हक	-10.5754
▁आजकल	-10.5756
▁मजदूरी	-10.5758
▁अरबी	-10.5758
▁आव	-10.5758
घा	-10.5761
चाल	-10.5761
▁सकी	-10.5761
▁जयंती	-10.5763
▁सार्थक	-10.5763
▁वर्गीकरण	-10.5763
▁गीता	-10.5766
▁नज़र	-10.5766
▁शुरूआत	-10.5781
▁निर्धन	-10.5783
▁मसल	-10.5783
ee	-10.5786
▁जंगली	-10.5789
▁संवेदना	-10.579
लक	-10.5796
▁नो	-10.58
▁दूरस्थ	-10.5815
▁बाज़ार	-10.5818
▁टैब	-10.582
ंबर	-10.5829
▁जोड़ें	-10.5833
▁मराठी	-10.5836
▁बढ़ाना	-10.5838
वर्षीय	-10.5842
▁सबको	-10.5843
▁प्रव	-10.5843
▁उपदेश	-10.5846
▁आयाम	-10.5851
▁भिन्	-10.5852
▁मानने	-10.5854
▁निराशा	-10.5855
योजित	-10.5863
tr	-10.5865
▁फुट	-10.5866
▁कहे	-10.587
▁मिलना	-10.5872
▁ओपन	-10.5872
▁समता	-10.5874
▁गणतंत्र	-10.5874
▁यहीं	-10.5876
▁राजमार्ग	-10.5876
▁उठाना	-10.5878
ङ्	-10.5884
▁आनुवंशिक	-10.5892
▁सफाई	-10.5892
▁विडियो	-10.5892
▁ऊँच	-10.5895
▁पड़ने	-10.5903
▁शास्त्री	-10.5906
▁सौभाग्य	-10.591
स्थल	-10.5914
▁डूब	-10.5916
▁पेशी	-10.5918
▁रच	-10.592
▁इंकार	-10.5921
▁दाव	-10.5922
▁अन्याय	-10.5924
▁किलो	-10.5925
▁एकत्रित	-10.5927
▁सुचरिता	-10.5929
▁लाइ	-10.5931
▁कीजिए	-10.5932
ग्रहण	-10.5932
ट्रो	-10.5932
▁संग्राम	-10.5933
▁शर	-10.5933
▁अधिनियमित	-10.5934
▁यात्री	-10.5936
ढा	-10.5941
ीला	-10.5945
▁पार्श्व	-10.5948
▁खूब	-10.5948
▁प्ल	-10.595
▁विधा	-10.5953
▁कर्ज	-10.5954
▁गज	-10.5955
ुन	-10.5956
लेख	-10.5956
▁अवमानना	-10.5958
▁उज	-10.5959
▁परिचालन	-10.5966
▁बांग्लादेश	-10.5967
▁कराता	-10.597
सऋ	-10.5973
▁थक	-10.5978
▁दुर्लभ	-10.5985
▁निर्वाचित	-10.5985
मंडल	-10.5987
▁पहुंचाने	-10.5988
▁फूट	-10.5988
▁नोटिस	-10.5989
▁गोली	-10.6
▁सीधी	-10.6
प्पा	-10.6003
▁ज्यादातर	-10.6016
▁अज्ञान	-10.6016
▁समझना	-10.6019
▁सत्याग्रह	-10.6023
▁टाइप	-10.6023
▁ज़रूरत	-10.6027
▁दस्तावेज़	-10.603
दाय	-10.6033
▁फी	-10.6034
चना	-10.6035
ैं	-10.6044
पोर्ट	-10.6053
▁जानवर	-10.6055
▁बताने	-10.6057
▁खरीदने	-10.606
▁इस्पात	-10.606
▁असफलता	-10.6069
▁भव्य	-10.6072
▁बुक	-10.6074
▁अपमान	-10.6077
▁प्रयोगशाला	-10.6079
▁रियासत	-10.6079
▁स्नेह	-10.6079
▁संकलन	-10.6079
▁लहर	-10.608
AT	-10.6084
▁तत्काली	-10.6086
▁हिल	-10.6087
▁बचपन	-10.6088
▁आंखों	-10.6092
डल	-10.6094
▁अमीर	-10.6094
▁पढ़ाई	-10.6096
▁सर्वप्रथम	-10.6098
▁मुल्क	-10.61
▁ग्रन्थ	-10.6103
▁प्रतिमा	-10.6106
▁काली	-10.6108
▁कृषक	-10.6117
▁किराया	-10.6118
▁आंख	-10.612
▁क़्योंक	-10.6129
ूंगा	-10.6129
▁स्वर्ग	-10.6134
शल	-10.6134
▁व्याप्त	-10.6134
▁मस्जिद	-10.6136
▁वृद्ध	-10.6144
नुमा	-10.6146
लिखित	-10.6146
▁निवेशकों	-10.6147
र्जी	-10.6148
▁विकृत	-10.615
▁आकर्षक	-10.6155
▁ग्रह	-10.6159
▁विलय	-10.616
पंथ	-10.6161
स्वरुप	-10.6163
ड्र	-10.6164
ate	-10.6169
▁प्रशासक	-10.6174
▁टेनिस	-10.6174
▁जरूरतों	-10.6181
उन	-10.6181
▁रिट	-10.6183
▁लाखों	-10.6185
लिप	-10.6187
▁प्रतिबद्धता	-10.6192
▁विभ	-10.6193
▁आश्वासन	-10.6194
▁मेहनत	-10.6194
ट्टा	-10.6194
सिल	-10.6199
▁अतिथि	-10.6204
ल्प	-10.621
▁अकादमी	-10.6213
▁आकस्मिक	-10.6213
▁टैगोर	-10.6213
▁सिफारिशों	-10.6213
▁इस्लामवादी	-10.6215
▁ऋषि	-10.6216
▁लिखत	-10.6216
▁परिणामों	-10.6223
क्षी	-10.6226
▁ऊंचा	-10.6226
▁एशियाई	-10.6229
▁अप्रत्यक्ष	-10.6232
▁गरिमा	-10.6232
▁लम्बी	-10.6232
▁सिरे	-10.6233
▁जै	-10.6236
मीटर	-10.6244
▁स्रोतों	-10.6246
▁सशस्त्र	-10.6251
▁प्रतिनिधियों	-10.6259
▁जैसाकि	-10.626
▁रेड	-10.6263
हरा	-10.6266
▁छू	-10.6267
▁डालर	-10.627
▁नजदीक	-10.627
▁सुदूर	-10.627
▁तालाब	-10.6274
▁दमन	-10.6279
me	-10.6285
am	-10.6287
▁आन्दोलन	-10.629
EE	-10.629
▁विक्रेता	-10.6309
▁सच्चे	-10.6309
▁ढक	-10.6313
मिया	-10.6323
▁टिक	-10.6324
▁तरंग	-10.6324
▁अपर	-10.6325
▁ढूंढ	-10.6326
to	-10.6327
▁मजबूर	-10.6328
▁घायल	-10.6328
▁जुड	-10.6328
▁अपीलार्थी	-10.633
बुल	-10.6331
▁पृथक्	-10.6335
▁स्वीकार्य	-10.6336
▁कराए	-10.6341
▁संस्थागत	-10.6342
▁समर्थक	-10.6345
▁अनुकरण	-10.6347
▁कमेटी	-10.6348
▁युवक	-10.6349
▁किमी	-10.6349
▁प्रभु	-10.6351
कर्ष	-10.6355
▁गे	-10.6356
▁समीकरण	-10.6362
▁उत्सुक	-10.6367
▁असंभव	-10.6368
क्षेत्र	-10.6369
▁लक	-10.6371
▁संतोष	-10.6371
▁प्रतिवर्ष	-10.6375
्यता	-10.6376
▁खासकर	-10.6379
ाहट	-10.6382
▁महान्	-10.6387
▁समकालीन	-10.639
▁एससीसी	-10.6393
▁स्विच	-10.6397
▁आकृति	-10.6397
▁l	-10.64
▁संपादक	-10.6406
▁जाहिर	-10.6407
▁बां	-10.6411
ेरे	-10.642
ोत्	-10.6424
▁राजपत्र	-10.6431
ैर	-10.6431
मेन	-10.6435
ाणु	-10.6439
ैया	-10.644
लीन	-10.6444
▁इंदिरा	-10.6445
▁वरीयता	-10.6446
▁हर्ष	-10.6452
चंद्र	-10.6457
र्य	-10.6461
दो	-10.6463
▁मोर	-10.6464
▁एक्सचेंज	-10.6466
▁बुलाया	-10.6473
▁डाले	-10.648
▁कंध	-10.6482
▁ढाल	-10.6489
▁इनकार	-10.649
▁भरत	-10.649
▁राष्ट्री	-10.649
▁जॉन	-10.6491
रेशन	-10.6494
त्स	-10.6494
▁कर्तव्यों	-10.6495
▁सुधारने	-10.6495
▁संव्यवहार	-10.6505
▁कच्चे	-10.6505
▁पूर्वोक्त	-10.6505
▁प्रत्य	-10.6505
▁पते	-10.6506
▁हुये	-10.6509
▁त्रुटिः	-10.651
सीसी	-10.6519
दृष्टि	-10.6525
▁माहौल	-10.6525
▁कृत्यों	-10.6527
▁संघीय	-10.6531
वृत	-10.6532
▁समापन	-10.6538
▁नमूना	-10.6539
▁सांप्रदायिक	-10.6544
▁मूत्र	-10.6551
▁स्ल	-10.6552
▁अपूर्ण	-10.6556
▁निमित्त	-10.6564
▁प्रतिरक्षा	-10.6564
▁भ्रष्टाचार	-10.6564
▁उन्नयन	-10.6564
बर्ट	-10.6565
▁मृतक	-10.657
▁छल	-10.6571
ma	-10.6573
प्रिय	-10.6573
▁घाव	-10.6575
▁फॉर	-10.6577
▁अभ्य	-10.6577
▁अंगों	-10.6578
▁दुर्ग	-10.6582
▁प्रत्यर्थी	-10.6584
पीठ	-10.6595
िला	-10.6595
▁अन्	-10.6596
▁पुकार	-10.6597
बन	-10.6598
▁घुस	-10.6603
शिप	-10.6603
▁ठाकुर	-10.6604
▁संचिका	-10.6604
▁खाद	-10.6604
▁कनेक्ट	-10.6605
▁झु	-10.6607
▁फूलों	-10.6611
▁अवधारण	-10.6613
▁उत्तराधिकार	-10.6622
▁बम्बई	-10.6624
▁राह	-10.6624
▁आवरण	-10.6625
▁विनिधान	-10.663
▁गाँधी	-10.6644
▁साक्षात्कार	-10.6644
लैण्ड	-10.6655
▁अपार	-10.666
ंर	-10.6662
▁मिथ्या	-10.6664
▁अनिवासी	-10.6664
▁कबीर	-10.6665
▁अध्य	-10.6669
क्यू	-10.6679
बिया	-10.6681
▁उन्	-10.6683
▁समेकित	-10.6684
▁हरियाणा	-10.6684
▁अजीब	-10.6685
▁टू	-10.6692
▁देनी	-10.6697
▁श्लोक	-10.6704
▁अहमद	-10.6706
▁पुनरीक्षण	-10.6707
▁टॉ	-10.6708
ाभ	-10.672
▁अहम	-10.6723
▁कौंसिल	-10.6724
▁रियायत	-10.6724
▁आउटपुट	-10.6725
बान	-10.6734
ांकित	-10.6735
▁छः	-10.6735
▁भ्र	-10.6743
▁दूरसंचार	-10.6744
▁स्त्रोत	-10.6744
त्ति	-10.6745
▁विधवा	-10.6745
▁तै	-10.6745
▁ऋतु	-10.6746
▁शल्य	-10.6747
▁सोचने	-10.6748
▁लाभांश	-10.6749
कृतियों	-10.6749
▁चढ़ा	-10.675
▁बैल	-10.6755
▁नेताजी	-10.6756
▁ठंड	-10.6758
१५	-10.6761
▁पांव	-10.6765
▁पेटेंट	-10.6766
फ्रे	-10.6766
आईसी	-10.6768
▁सिर्फ़	-10.6778
▁अहिंसा	-10.6783
▁सड़कों	-10.6795
▁विटामिन	-10.6805
▁प्रसव	-10.6807
▁रोचक	-10.6808
▁जोड़े	-10.681
▁मारे	-10.6811
▁फिलीस्तीन	-10.6817
▁मोटा	-10.6822
▁एक्ट	-10.6825
▁क्रियान्वयन	-10.6826
▁भेदभाव	-10.6827
▁वॉ	-10.6828
मू	-10.6831
▁बुल	-10.6838
▁प्रण	-10.6844
▁टर्मिनल	-10.6846
▁समायोजन	-10.6847
▁सारणी	-10.6848
▁सत्यापन	-10.6849
▁सच्चाई	-10.685
▁जू	-10.6855
शीलता	-10.6856
▁समाजवादी	-10.6857
कोण	-10.6859
▁हमले	-10.6859
वर्ड	-10.686
▁प्राय	-10.6861
▁सीट	-10.6862
AR	-10.6862
▁सत	-10.6865
▁परिदृश्य	-10.6866
▁पुनर्वास	-10.6868
▁बेटे	-10.6878
्ली	-10.6879
and	-10.6883
NAME	-10.6887
▁हड्डी	-10.6887
▁महाद्वीप	-10.6887
▁टाइम्स	-10.6889
▁सदस्यता	-10.689
▁बॉक्स	-10.6892
▁असंगत	-10.6893
गें	-10.6896
▁अभिदाय	-10.6896
▁कोमल	-10.6897
ादि	-10.69
▁सेशन	-10.6904
▁साक्षरता	-10.6907
▁उद्भूत	-10.6909
▁रत्न	-10.6917
▁जरुरत	-10.692
▁झुक	-10.692
▁रिहा	-10.6923
▁भेजी	-10.6925
▁पान	-10.6927
▁पेट्रोलियम	-10.6928
▁प्रबन्ध	-10.6929
▁चम	-10.6931
▁काफ़ी	-10.6931
▁किरायेदार	-10.6936
चरित	-10.6938
ूद	-10.6946
em	-10.6947
▁वर्क	-10.6947
▁पब्लिक	-10.6949
▁गूगल	-10.6949
▁राज़्य	-10.6949
▁अग	-10.6951
▁पीछल	-10.6952
▁उधर	-10.6952
▁सिखा	-10.6955
▁रूचि	-10.6956
▁लौटा	-10.6957
▁विकार	-10.6959
ियाई	-10.6959
▁तुम्हारा	-10.6968
▁अपनाई	-10.6969
▁हिस्सों	-10.6969
बाद	-10.6972
▁इंजन	-10.6973
लै	-10.6973
▁we	-10.6978
▁मंत्रियों	-10.698
▁तू	-10.6982
▁वध	-10.6984
१वीं	-10.6984
▁मजदूरों	-10.6988
▁ओवर	-10.6988
ूस	-10.699
▁उन्मूलन	-10.699
▁चूक	-10.6992
ाली	-10.6997
▁कृ	-10.6997
▁जिंदगी	-10.7011
▁मधुमेह	-10.7011
▁सृष्टि	-10.7011
▁प्रवर्ग	-10.7019
माला	-10.703
▁मुझ	-10.7032
▁राजाओं	-10.7036
▁पोर्ट	-10.7038
▁टांग	-10.7043
्ट्र	-10.7044
▁हिन्दुओं	-10.7057
▁किरण	-10.7058
▁पक्षियों	-10.7059
▁पूर्वोत्तर	-10.706
▁फट	-10.7066
पुट	-10.7068
निर्देश	-10.707
▁आगमन	-10.7071
▁नींव	-10.7073
▁पतन	-10.7076
ड़ों	-10.7077
ेक्स	-10.7081
ात्	-10.7081
▁शू	-10.7082
▁उपयोक्ता	-10.7094
▁वार्ता	-10.7095
▁निक्षेप	-10.7097
▁विस्तारित	-10.71
▁दै	-10.7102
▁चो	-10.7102
▁ह्य	-10.7103
▁बताना	-10.7106
स्वामी	-10.7107
म्मा	-10.7111
▁गर्भाशय	-10.7115
▁विच्छेद	-10.7118
▁रोगियों	-10.7125
▁तीर्थ	-10.7125
ियल	-10.7125
मेट	-10.7133
स्थिति	-10.7138
गमन	-10.7142
ण्य	-10.7144
लस	-10.7148
▁बोला	-10.7149
एगा	-10.7149
▁स्टॉक	-10.7156
▁सर्वश्रेष्ठ	-10.7157
▁मनोरंजन	-10.7157
▁चलती	-10.716
▁घुटन	-10.7161
▁रहीं	-10.7162
▁कैन	-10.7166
▁तह	-10.7169
▁सॉ	-10.7169
▁मंत्रि	-10.7174
▁बच्चन	-10.7178
▁अनिश्चित	-10.718
▁निकायों	-10.7185
▁भीड़	-10.7186
पूर	-10.7191
एक	-10.7192
▁फंस	-10.7195
▁पीड़क	-10.7195
▁निपटा	-10.7198
▁चर्च	-10.7199
▁अक्टूबर	-10.7199
▁मामूली	-10.7199
▁मैत्रीपूर्ण	-10.7202
▁महत्त	-10.7206
▁विश्वसनीय	-10.7211
▁खोजने	-10.7216
▁बताता	-10.7216
▁विकिरण	-10.7221
▁कब्जा	-10.7221
▁देगी	-10.7221
▁मुहैया	-10.7221
▁सम्बद्ध	-10.7223
ार्थियों	-10.7223
शोध	-10.7231
▁इकट्ठा	-10.7233
▁जर्मन	-10.7236
▁निभाई	-10.7238
दर्शन	-10.7239
▁पुनर्गठन	-10.7242
▁किलोग्राम	-10.7242
▁बकाया	-10.7243
▁गुलाम	-10.7243
▁निर्देशित	-10.7246
▁संचय	-10.7247
▁संकाय	-10.7247
कै	-10.7254
हीनता	-10.7254
ER	-10.7255
▁iv	-10.7257
▁उठता	-10.7261
▁मैत्री	-10.7261
▁कामगार	-10.7262
▁आयुर्वेद	-10.7263
भु	-10.7264
▁सल	-10.7269
▁वसूल	-10.7271
▁भेड़	-10.7272
▁मित्रता	-10.7277
▁आतंक	-10.7281
▁मुख्यालय	-10.7291
▁फेर	-10.7292
मारी	-10.7294
भार	-10.7296
▁पोल	-10.7302
▁गोवा	-10.7303
▁स्थिरता	-10.7303
▁उत्सर्जन	-10.7306
▁रखरखाव	-10.7306
▁ओबामा	-10.7306
▁बेहद	-10.7306
ंकि	-10.7308
▁आश्रम	-10.731
▁लार्ड	-10.7315
डिंग	-10.7319
▁निर्देशों	-10.7322
आईडी	-10.7327
है	-10.7331
▁शान्ति	-10.7334
▁निंदा	-10.7335
पर्ण	-10.7336
क्रा	-10.7339
ागार	-10.7341
▁श्रमिक	-10.7342
▁निरसित	-10.7349
▁केन्द्रों	-10.7355
▁निर्माता	-10.7361
‘	-10.7369
▁इलाहाबाद	-10.737
▁काउंसिल	-10.737
▁प्रोटोकॉल	-10.737
▁कोयला	-10.7373
▁दौरा	-10.7381
▁सौंपा	-10.7382
ाट	-10.7385
▁मौखिक	-10.7392
▁रोशनी	-10.7392
▁इंगित	-10.7392
▁निर्वहन	-10.7393
▁सुधारों	-10.7403
▁बाध्यता	-10.7406
▁उलट	-10.7407
▁रेगिस्तान	-10.7413
▁सामर्थ्य	-10.7413
ेस्ट	-10.7413
▁कैद	-10.7414
▁नाल	-10.7414
▁कठिनाइयों	-10.7414
▁जज	-10.7414
▁प्रदाह	-10.7416
दुर	-10.742
▁बादशाह	-10.742
▁रूपों	-10.7423
▁जरुर	-10.7423
▁संस्थापित	-10.7424
▁शिकायतों	-10.7425
▁साझीदारी	-10.7425
वसाय	-10.7428
▁हाई	-10.7429
▁याचिकाकर्ता	-10.743
▁जगा	-10.7431
▁आधिकारिक	-10.7435
▁मुद्दा	-10.7435
▁फार	-10.7435
▁अभियोग	-10.7442
▁उपबंधित	-10.7443
पथ	-10.7448
मोहन	-10.7449
गीर	-10.745
▁घेर	-10.745
▁गम्भीर	-10.7457
▁मोहम्मद	-10.7457
▁जैविक	-10.7458
▁स्टार	-10.746
▁आधी	-10.7461
▁कामकाज	-10.7461
▁काला	-10.7465
दों	-10.7467
ध्द	-10.7471
▁शम	-10.7476
▁मनाया	-10.7477
▁झिल्ली	-10.7478
▁अहं	-10.7483
▁कार्यनीति	-10.7484
▁प्रीत	-10.749
▁स्टै	-10.7496
▁आश्रय	-10.75
▁दीक्षांत	-10.7501
▁दुग्ध	-10.7501
▁चौड़ाई	-10.7503
▁टेक	-10.7511
▁रेख	-10.7518
▁तिहाई	-10.7522
शोधन	-10.7528
▁दीवान	-10.753
बाबू	-10.7534
▁अनंत	-10.7536
ियार	-10.7536
मणि	-10.7539
▁कन	-10.7542
बाज़	-10.7543
१क	-10.7543
▁दुर्भाग्य	-10.7543
▁यान	-10.7544
▁संकीर्ण	-10.7544
▁पका	-10.755
▁असह	-10.7554
▁विख्यात	-10.7566
▁तमाम	-10.7566
▁अन्न	-10.7566
▁खर्चे	-10.7568
▁बढा	-10.7574
▁साकार	-10.7576
ङ्ग	-10.7578
▁गीतों	-10.7585
▁संस्थापन	-10.7586
▁उपयोगिता	-10.7587
▁फायदे	-10.7588
▁मुँह	-10.7588
▁खारिज	-10.7588
▁ताज	-10.7588
▁पत्तन	-10.7589
वर्ष	-10.7592
यता	-10.7594
▁वास	-10.7597
▁स्वी	-10.7597
▁प्रजाति	-10.7598
ृष्ट	-10.7606
िच	-10.7606
▁आघात	-10.761
▁योनि	-10.7611
▁आशंका	-10.7612
▁शरण	-10.7612
▁ज्या	-10.7613
▁बही	-10.7619
▁जगत्	-10.7621
ाचार्य	-10.7624
▁आगामी	-10.7627
▁अशोक	-10.7633
ावस्था	-10.7633
▁स्नान	-10.7635
▁इंजीनियरिंग	-10.7636
▁जनन	-10.7636
▁्याय	-10.7639
विष	-10.7639
भद्र	-10.7645
▁जाग	-10.7645
▁मुर	-10.7648
हिन्द	-10.7649
▁स्वच्छता	-10.765
▁सम्म	-10.7651
▁ध्रुव	-10.7654
▁निरन्तर	-10.7654
केट	-10.7658
▁बायो	-10.7666
▁बेचने	-10.767
▁सूख	-10.767
▁गेंदबाज	-10.7673
सुर	-10.7674
▁बेटी	-10.7677
▁रहकर	-10.7681
▁ट्रा	-10.7681
▁हू	-10.7685
▁झेल	-10.7686
▁उन्नति	-10.7688
▁पुरुषों	-10.7691
▁गले	-10.7696
बंद	-10.7697
थो	-10.7697
▁लाई	-10.7698
▁लड़कियों	-10.7698
▁स्टाफ	-10.77
▁साथी	-10.7703
▁गंद	-10.7706
▁देशवासियों	-10.7713
▁लू	-10.7714
▁निधियों	-10.7718
▁अब्दुल	-10.772
▁प्रगाढ़	-10.7721
▁अवलोकन	-10.7721
▁पाद	-10.7721
▁कन्	-10.7722
▁घटित	-10.7727
कृ	-10.7727
▁पुत्री	-10.7732
im	-10.7734
कुर	-10.7737
▁ज्योति	-10.7738
▁अस्त	-10.7741
▁मेहर	-10.7741
▁सहभागिता	-10.7743
▁रंगमंच	-10.7743
▁पीडीएफ	-10.7743
▁अवधारित	-10.7745
ार्थी	-10.7748
▁पर्यटकों	-10.7753
बर्ग	-10.7754
कोट	-10.7758
▁नारी	-10.7759
▁धूल	-10.7769
▁लाए	-10.7771
▁विनियमित	-10.7772
▁रोड	-10.7776
▁सूचीबद्ध	-10.7778
▁हटाए	-10.7778
▁प्रजातिय	-10.7783
▁कवर	-10.7785
▁तुरन्त	-10.7788
▁आचार	-10.7789
▁किराए	-10.7791
क़ा	-10.7796
▁मनुष्यों	-10.7799
▁गंभीरता	-10.78
▁निदान	-10.78
दश	-10.7802
▁कंप	-10.7802
▁विशेषज्ञों	-10.7808
▁ट्रै	-10.781
▁सूचक	-10.7812
▁इंटर	-10.7818
धारा	-10.7822
▁लौटने	-10.7825
▁निकले	-10.783
विद्	-10.7831
▁अफ़	-10.7832
▁संस्कार	-10.7833
राय	-10.7837
▁छोड़ने	-10.784
▁समझी	-10.7841
▁उम्मीदवार	-10.7847
▁आलेख	-10.785
▁कहती	-10.7854
id	-10.7855
▁नियोक्ता	-10.7855
▁श्रीलंका	-10.7855
▁वात	-10.7856
तापूर्वक	-10.7857
▁खोलें	-10.7858
▁सुगम	-10.7862
▁बीमाकर्ता	-10.7868
रियल	-10.7876
▁प्रस्तावों	-10.7876
▁प्रगतिशील	-10.788
सिन	-10.7884
▁धार	-10.7891
▁ढो	-10.7893
▁मिलन	-10.7895
निर्	-10.7899
ion	-10.7899
▁ग्यारह	-10.7901
▁तृतीय	-10.7901
▁प्रतिलिपि	-10.7903
सिस	-10.7906
क्रिया	-10.7909
ल्यू	-10.791
योग्य	-10.7912
▁हटाया	-10.7916
▁विषयक	-10.7922
▁स्वैच्छिक	-10.7923
▁अन्तर्राष्ट्रीय	-10.7924
▁अण्ड	-10.7926
▁कपड़ा	-10.7926
▁मुह	-10.7927
▁विनि	-10.7927
▁प्रस्तुति	-10.7928
▁प्रतिस्पर्धा	-10.793
लियन	-10.7932
र्ध	-10.7934
जनों	-10.7938
▁आशुतोष	-10.7946
▁चमत्कार	-10.7946
▁दशमलव	-10.7946
नीत	-10.7949
▁गरम	-10.7955
▁ब्यूरो	-10.7955
▁झाड़	-10.7959
▁केन्द्रित	-10.796
▁कुटुम्ब	-10.7969
▁दुरुपयोग	-10.7969
▁निर्दोष	-10.7969
▁परियोजनाएं	-10.7982
ंगर	-10.7984
▁बेकार	-10.7988
▁नाव	-10.7992
▁प्रतिबिंब	-10.7992
▁नानक	-10.7994
▁एकजुट	-10.8015
▁कट्टर	-10.8015
▁रसीद	-10.8015
▁लेखापरीक्षा	-10.8016
ne	-10.8016
▁एससी	-10.8017
▁मधुर	-10.8017
▁मापन	-10.8018
▁बचे	-10.8036
▁अँ	-10.8036
ायिक	-10.8036
▁खिलाड़ी	-10.804
▁ट्रांस	-10.8041
िं	-10.8042
▁एज	-10.8044
तन्त्र	-10.8047
▁पटल	-10.8048
▁मूल्यवान	-10.805
▁In	-10.8053
▁इंजीनियर	-10.8055
▁बूट	-10.8055
▁छेद	-10.8058
▁उदर	-10.8059
▁उपहार	-10.8059
▁मूर्ख	-10.8061
▁हड़ताल	-10.8061
▁सहेज	-10.8061
रानी	-10.8062
▁घोर	-10.8069
▁सक	-10.8072
▁भगत	-10.8074
शाह	-10.8074
▁घड़ी	-10.8074
▁बनकर	-10.8077
न्दा	-10.808
▁सवार	-10.808
▁at	-10.8085
▁सांप	-10.8085
ैट	-10.8087
▁लोगो	-10.8088
▁जिसमे	-10.809
ानंद	-10.8091
▁घुमा	-10.8092
▁धारित	-10.8092
ir	-10.8093
ॉक्स	-10.8102
▁मेमोरी	-10.8107
▁स्वायत्त	-10.8107
▁डोमेन	-10.8108
नू	-10.8108
▁बिन	-10.8109
▁रिवाज	-10.8109
▁बदरूद्	-10.811
▁सेल	-10.8111
▁रोका	-10.8115
▁कार्यकाल	-10.8117
▁दुर्गा	-10.8117
▁जीवंत	-10.8119
तोष	-10.8124
वट	-10.8127
▁प्रचुर	-10.813
▁गिरा	-10.8135
▁प्रतिकर	-10.8136
▁विचित्र	-10.8137
▁व्यास	-10.8142
▁आइए	-10.8147
▁ईमानदारी	-10.815
▁पद्धतियों	-10.8151
▁स्थलों	-10.8153
▁एसोसिएशन	-10.8154
▁डेस्कटॉप	-10.8154
▁सामुदायिक	-10.8154
▁विधानसभा	-10.8154
▁ब्रह्मा	-10.8155
गृहीत	-10.8162
स्टा	-10.8169
▁अभिन्न	-10.817
काय	-10.817
▁आज्ञा	-10.8172
▁इनसे	-10.8175
▁अय	-10.8176
▁लाहौर	-10.8177
▁स्थानांतरित	-10.8177
▁प्रतिवेदन	-10.8177
▁खातों	-10.8177
▁सचिवालय	-10.8178
विल	-10.818
▁भागवत	-10.8182
▁दृढ़ता	-10.8183
रना	-10.8189
▁दीवारों	-10.8191
▁धर्मों	-10.8192
▁खपत	-10.8192
▁दायित्वों	-10.8193
▁क्रोध	-10.8193
▁संतुलित	-10.82
▁निविदा	-10.82
▁सटीक	-10.8201
▁लचील	-10.8201
दीप	-10.8205
▁आवाज़	-10.8207
▁कोटि	-10.8218
▁धारक	-10.822
▁समामेल	-10.8224
शियन	-10.8228
▁निर्वाह	-10.8229
▁विषम	-10.8232
▁अस्पष्ट	-10.8247
▁हैसियत	-10.8248
▁अतिक्रमण	-10.8248
▁समाहित	-10.8249
▁डब्ल्यू	-10.8249
▁औषध	-10.8251
टिल	-10.8255
▁सालों	-10.8256
सीए	-10.8259
▁बहुल	-10.8265
▁अन्तः	-10.827
▁श्रेय	-10.8272
ड्	-10.8277
▁अनन्य	-10.8278
टेल	-10.8279
▁अनुभवों	-10.8291
▁वापिस	-10.8294
▁चिर	-10.8298
▁de	-10.8298
▁कहलाता	-10.83
रंज	-10.8303
▁निर्माताओं	-10.8305
▁बढ़े	-10.8311
▁परजीवी	-10.8311
खड़	-10.8311
▁मुड़	-10.8313
▁बरस	-10.8313
देह	-10.8314
▁कूद	-10.8314
os	-10.8316
▁हार्डवेयर	-10.8318
ानन्द	-10.832
▁गतिविधियां	-10.8321
ायन	-10.8322
यंत्र	-10.8322
▁संरक्षित	-10.8322
साध्य	-10.8323
▁मंद	-10.8323
▁बादल	-10.8326
▁सेवन	-10.8328
▁प्रवास	-10.8339
▁विधायिका	-10.8342
▁यात्रियों	-10.8342
▁सतर्कता	-10.8343
▁अंतरिम	-10.8347
▁सभाओं	-10.8347
▁जंग	-10.8349
ोला	-10.8351
▁बदलें	-10.8353
पीएस	-10.8356
▁बिर	-10.8359
▁प्रश	-10.8359
▁पॉल	-10.8363
▁प्राइवेट	-10.8365
▁सोवियत	-10.8365
▁लक्ष्मी	-10.8366
▁प्रभुत्व	-10.8367
▁गौण	-10.837
ha	-10.8371
ट्	-10.8379
▁१६	-10.838
आँ	-10.8381
▁निकालना	-10.8389
▁हिमनद	-10.839
▁गयीं	-10.8396
▁व्याकरण	-10.8396
▁गुल	-10.8399
▁एंव	-10.8399
▁क्षमा	-10.8402
▁लड़का	-10.8405
▁बोलने	-10.8413
▁प्रौढ़	-10.8413
▁निष्पादित	-10.8413
▁मार्	-10.8414
▁हानिकारक	-10.8414
▁मंत्र	-10.8419
▁जनजाति	-10.8421
▁सिंधु	-10.843
खण्ड	-10.8432
▁पंद्रह	-10.8437
भू	-10.8439
ख़ा	-10.844
▁पाठ्य	-10.8442
त्या	-10.8453
▁माध्य	-10.8453
▁ट्रे	-10.8457
▁आंकड़ा	-10.8461
▁प्रख्यात	-10.8461
▁भूटान	-10.8461
▁विलियम	-10.8463
▁घातक	-10.8465
एंगे	-10.8468
▁बजाए	-10.8471
▁टै	-10.8473
▁पाठकों	-10.8473
ाइम	-10.8477
▁यज्ञ	-10.8478
रक्त	-10.8478
ंगो	-10.848
▁आस्ट्रेलिया	-10.8485
▁मणिपुर	-10.8485
▁बंदरगाह	-10.8485
▁बढ़ाया	-10.8485
▁छंद	-10.8486
भाई	-10.8495
▁चलना	-10.8495
्ठ	-10.8497
पत्ति	-10.8498
▁दक्ष	-10.85
▁जितने	-10.8501
ोगे	-10.8505
▁संज्ञा	-10.8508
▁नाट्य	-10.8509
▁औजार	-10.8509
▁व्यक़्ति	-10.851
▁सेंट	-10.8511
ान्तर	-10.8523
ज्ञा	-10.8525
▁अन्ध	-10.8529
▁दौरे	-10.853
▁शास्त्रीय	-10.8533
▁दोबारा	-10.8533
▁निःशुल्क	-10.8533
▁यकीन	-10.8534
▁मंत्रालयों	-10.8537
co	-10.8538
▁उदाहरणार्थ	-10.8541
▁द्रव्य	-10.8542
पाट	-10.8545
▁पाइप	-10.8547
▁गोपाल	-10.8553
▁आंत	-10.8554
▁अपर्याप्त	-10.8557
▁भ्रूण	-10.8557
▁संभाव्य	-10.8558
▁हरी	-10.856
लिय	-10.8562
▁चुप	-10.8563
▁सुनी	-10.8567
ैम	-10.8568
िणी	-10.8576
राष्ट्रीय	-10.8576
▁क्वा	-10.8576
राज्य	-10.8581
▁चं	-10.8582
▁निषेध	-10.8582
▁वांछित	-10.8582
▁धूप	-10.8582
▁मत्स्य	-10.8582
स्कर	-10.8582
▁दीर्घकालिक	-10.8582
▁पड़ोसी	-10.8583
वक्ता	-10.8585
▁चंद	-10.8585
▁मुल	-10.8592
▁संस्थाएं	-10.8592
▁निर्णायक	-10.8593
▁छोर	-10.8594
२क	-10.8595
ढ़ा	-10.8596
▁संयोग	-10.8598
स्था	-10.8598
▁पद्म	-10.86
▁गढ़	-10.8602
▁उत	-10.8602
▁दिलचस्प	-10.8606
▁डिफ़ॉल्ट	-10.8606
▁अध्यादेश	-10.8607
कर्त्ता	-10.8607
▁चिह्नित	-10.8609
कीय	-10.8614
▁भूत	-10.8614
▁प्राणियों	-10.8616
गृह	-10.8617
वंत	-10.8622
नेवाला	-10.8622
▁संप्रदाय	-10.863
▁सेंटर	-10.8634
▁आक्षेप	-10.8639
्यूट	-10.8641
▁तिर	-10.8641
्नी	-10.8646
om	-10.8647
ैश	-10.8647
िकता	-10.8647
▁फॉर्म	-10.8649
▁निर्व	-10.8651
रोधी	-10.8651
रेखा	-10.8654
▁परिसीमा	-10.8655
▁सच्ची	-10.8655
▁पोषक	-10.8656
▁दंडादेश	-10.8656
▁अर्पित	-10.8656
जीत	-10.8657
▁हिला	-10.8658
▁सख्त	-10.8658
▁जादू	-10.8663
पक्ष	-10.8667
▁शुभ	-10.8673
▁अद्भुत	-10.8679
▁जगन्नाथ	-10.8679
▁अल्पसंख्यक	-10.8679
▁श्वसन	-10.8679
्तर	-10.8682
▁शर्मा	-10.8687
ष्ण	-10.8689
▁आगरा	-10.8693
▁गौ	-10.8694
▁उद्यमियों	-10.8701
▁डेटाबेस	-10.8704
▁सनातन	-10.8704
▁जाएंगी	-10.8704
▁युक्तियुक्त	-10.8706
्हे	-10.8708
सम्मत	-10.8709
▁इधर	-10.8709
वर्धित	-10.8723
▁अतएव	-10.8729
िद	-10.8729
▁ओह	-10.873
▁सावधान	-10.8732
▁साम्राज्यवाद	-10.874
▁तप	-10.8742
कारक	-10.8745
▁अकेला	-10.8746
▁अनावश्यक	-10.8753
▁अर्जुन	-10.8753
▁महाकाव्य	-10.8753
▁उद्धृत	-10.8754
▁दादा	-10.8754
हू	-10.8763
▁कारकों	-10.8777
▁साथियों	-10.8781
क्षेप	-10.8786
▁सूर	-10.8793
ैत	-10.8798
वारी	-10.8801
▁आंबेडकर	-10.8803
बै	-10.8804
▁आओ	-10.8805
▁बारी	-10.8806
▁संपादित	-10.8806
▁संजाल	-10.8807
मूल्य	-10.8808
▁ट्रेड	-10.8813
▁अटल	-10.8816
na	-10.8817
▁ऊंट	-10.8825
▁मुख़्य	-10.8828
▁पुणे	-10.8828
▁कूटशब्द	-10.8828
▁एआईआर	-10.8831
▁पासवर्ड	-10.8834
फू	-10.8836
ाइज	-10.8841
▁गेट	-10.8842
▁संक्रिया	-10.8845
▁सांसद	-10.8849
▁किले	-10.885
▁हरा	-10.8861
पुष्ट	-10.8864
▁यांत्रिक	-10.8878
▁चेहरा	-10.8878
▁सूअर	-10.888
▁संख़्या	-10.8881
प्रदेश	-10.8881
▁पाती	-10.8882
▁टुकड़े	-10.8882
तुर	-10.8882
▁शिरा	-10.8882
▁तैर	-10.8884
पिंग	-10.8885
▁मानों	-10.8889
▁हरे	-10.889
▁शासकों	-10.8897
▁कहकर	-10.89
▁गुजराती	-10.89
▁हेम	-10.8901
▁निवेदन	-10.8903
▁गुणसूत्र	-10.8904
▁अभिनेता	-10.8906
▁वर्षो	-10.8907
▁पैरों	-10.8911
▁विगत	-10.8911
▁भेजें	-10.8913
▁कृपा	-10.8914
▁क्षमताओं	-10.892
▁सौहार्द	-10.8928
▁नवीनतम	-10.8931
▁खैर	-10.8934
▁जानती	-10.8937
va	-10.8941
▁शव	-10.8942
▁ऑन	-10.8943
▁टीवी	-10.8944
▁जनजातिय	-10.8946
▁आचार्य	-10.8946
भेद	-10.8949
▁साख	-10.8951
▁द्वारकानाथ	-10.8953
▁साक्षियों	-10.8953
▁भयानक	-10.8953
are	-10.8955
▁पट्ट	-10.8959
▁रवि	-10.8966
▁बुश	-10.8966
▁अर्द्ध	-10.8969
▁प्रदाता	-10.897
▁पिछड़े	-10.8973
▁बनायी	-10.8977
सिया	-10.8978
▁काश्मीर	-10.8978
▁निरपेक्ष	-10.8979
▁लायक	-10.8984
▁सुपर	-10.8987
▁दाल	-10.8988
ात्मा	-10.8992
▁पवन	-10.8995
▁नाना	-10.8998
क्रिय	-10.8998
▁अपशिष्ट	-10.9004
▁औचित्य	-10.9004
▁स्वदेशी	-10.9004
▁दुर्बल	-10.9005
▁सूचकांक	-10.9008
▁संस्थापक	-10.9009
▁स्वार्थ	-10.9013
स्राव	-10.9016
▁टर्	-10.9016
▁मेज	-10.9016
▁माध्यमिक	-10.9019
▁प्रपत्र	-10.9021
वर्ण	-10.9025
▁पारदर्शिता	-10.9029
▁कार्यवाहियां	-10.9029
▁परेशानी	-10.9031
ंति	-10.9043
▁अंधेर	-10.9048
वय	-10.905
युग	-10.9053
▁सांख्यिकी	-10.9054
▁एजेंट	-10.9055
▁मास्टर	-10.9055
▁कमर	-10.9057
▁प्रविष्ट	-10.9061
▁लेबल	-10.9064
्को	-10.9064
▁झलक	-10.9066
डम	-10.9067
दाताओं	-10.9072
कोष	-10.9075
▁संदिग्ध	-10.908
ुस	-10.9082
▁चित्त	-10.9083
िंद	-10.9085
▁पर्यवेक्षण	-10.9086
▁परिधि	-10.9092
रक्षण	-10.91
षक	-10.9101
ण्	-10.9105
▁अभिप्राय	-10.9105
▁ऑपरेट	-10.9106
▁दिलचस्पी	-10.9106
▁प्रशांत	-10.9107
▁तत्पर	-10.9107
▁चलकर	-10.9109
ंद्र	-10.9109
▁बालकों	-10.9118
▁वाम	-10.9123
▁लड़ने	-10.9123
▁गंतव्य	-10.9131
▁शुष्क	-10.9131
▁कंपनियां	-10.9131
▁अश्व	-10.9133
▁कीमतों	-10.9138
▁विवश	-10.9143
sh	-10.9146
▁ऊतकों	-10.9149
लिका	-10.9151
▁एमएसएमई	-10.9157
▁पारिवारिक	-10.9157
▁मार्गदर्शक	-10.9157
प्रति	-10.9161
▁भट्ट	-10.9163
▁अवतार	-10.9164
▁रूपान्तर	-10.9166
▁लगाकर	-10.9166
▁मिश्र	-10.9169
▁काटने	-10.9175
▁बदलना	-10.9178
लोम	-10.918
▁आविष्कार	-10.9183
▁सत्यापित	-10.9183
▁पूरक	-10.9185
▁पावर	-10.9187
▁तत्सम	-10.9188
▁समावेशी	-10.9192
▁टेप	-10.9193
▁बेचा	-10.9193
गुल	-10.92
ैड	-10.9208
▁महर्षि	-10.9209
▁स्टाक	-10.921
▁मंजिल	-10.9215
ावरण	-10.9218
▁परिपूर्ण	-10.9219
▁गोप	-10.9224
▁अनुमानित	-10.9227
▁आलोचक	-10.9234
▁अंतर्विष्ट	-10.9234
▁वित्तपोषण	-10.9234
▁ईमेल	-10.9237
▁पग	-10.9243
आइ	-10.9246
▁माइ	-10.9247
▁गरीबों	-10.9248
▁वृक्क	-10.9251
ऑ	-10.9254
▁चोरी	-10.9255
▁निर्द	-10.9257
श्रु	-10.9259
▁आबंटन	-10.926
▁मुताबिक	-10.926
▁अभिनय	-10.9261
▁खु	-10.9261
▁प्रतिष्ठान	-10.9264
▁कहलात	-10.9265
▁फांसी	-10.9286
▁निकला	-10.9287
डू	-10.9287
▁पंचाट	-10.9287
▁बर्तन	-10.9288
▁प्रवासी	-10.9288
▁यातना	-10.9291
▁the	-10.9295
▁पदक	-10.9306
▁सोना	-10.9314
▁पठन	-10.9314
▁आश्चर्यजनक	-10.9314
▁भोग	-10.9317
▁श्रमिकों	-10.9319
▁परिणत	-10.9319
गणित	-10.9322
▁सच्चा	-10.9323
▁चलाए	-10.9323
▁सम्भावना	-10.9324
▁चालक	-10.9325
्मा	-10.9328
▁साधना	-10.9328
रिट	-10.9329
▁इच्छुक	-10.9339
▁अभियोजक	-10.9341
फोर	-10.9341
डोर	-10.9345
गिन	-10.9348
▁उग	-10.9349
रेटर	-10.9351
▁गुर	-10.9352
▁अपीलीय	-10.9355
वेयर	-10.9362
▁दर्शक	-10.9363
▁दरवाजे	-10.9365
आईटी	-10.9365
क्षक	-10.9367
▁पायी	-10.9367
▁वेग	-10.9374
▁प्रतिभूतियों	-10.9375
ent	-10.9378
▁आरक्षण	-10.9381
▁पडा	-10.9384
▁जमाने	-10.9384
ेप	-10.9386
▁गोद	-10.9387
▁क्लो	-10.9388
▁गिरावट	-10.9391
नायक	-10.9392
▁छिद्र	-10.9392
▁बेशक	-10.9392
▁सर्वथा	-10.9395
कार्य	-10.9397
पेट	-10.9398
▁क्रियाओं	-10.94
लेखन	-10.9404
▁प्रेमी	-10.9405
▁वृहत	-10.9407
▁रात्रि	-10.9408
▁तात्पर्य	-10.9418
▁लक्ष्मण	-10.9418
▁अभिरक्षा	-10.9418
▁रिश्त	-10.942
▁इस्लामवाद	-10.9421
व्यापी	-10.9423
▁मस्त	-10.9427
▁बताए	-10.9428
लाइट	-10.9429
जीवी	-10.9431
▁शौक	-10.9437
▁मजबूती	-10.9438
▁तात्कालिक	-10.9444
▁ग्रुप	-10.9444
य्या	-10.9449
▁प्रौद्योगिकियों	-10.9449
▁दर्जा	-10.9454
▁टेस्ट	-10.9454
▁ईस्ट	-10.9461
टिव	-10.9464
▁फ़ॉन्ट	-10.9471
▁निरूपित	-10.9471
▁सुश्री	-10.9471
▁मधु	-10.9473
▁पट्टे	-10.9473
▁संचरण	-10.9475
▁चुनावों	-10.9478
▁स्थाई	-10.9487
▁स्पेन	-10.9488
चारी	-10.9494
गाह	-10.9496
▁आत्महत्या	-10.9497
▁जबरदस्त	-10.9497
▁बहुमूल्य	-10.9499
▁लक्षणों	-10.9499
▁व्यर्थ	-10.9501
▁सिंध	-10.9503
▁दंडनीय	-10.9504
▁सर्प	-10.9505
▁पद्य	-10.9506
ta	-10.9508
▁चारा	-10.9509
▁विशेषताओं	-10.9513
▁अवगत	-10.9517
▁सिनेमा	-10.9524
▁वक्र	-10.9525
▁मानस	-10.9538
▁लेगा	-10.9539
थ्र	-10.9546
़ी	-10.955
▁हँस	-10.9552
सेन	-10.9553
ोरा	-10.9573
मेल	-10.9574
▁निकाले	-10.9576
▁जमींदार	-10.9577
▁प्रतिबद्ध	-10.9577
▁जटिलता	-10.9578
▁मूलतः	-10.9578
▁अब्दुल्ला	-10.9578
▁गुलाब	-10.9579
▁सीखा	-10.958
धारकों	-10.9583
▁मानदंड	-10.9594
▁सुनाई	-10.9595
कुमार	-10.9596
▁सऋ	-10.9599
▁फलों	-10.9603
▁वनों	-10.9603
▁घोड़े	-10.9604
▁समीप	-10.9605
▁तालिका	-10.9608
▁स्वाद	-10.9608
▁पटेल	-10.9611
▁आभूषण	-10.9611
▁उतने	-10.9619
▁बाबा	-10.9622
आरए	-10.963
▁गेहूं	-10.9631
▁कीटनाशक	-10.9632
▁मारने	-10.9633
▁संकर	-10.9635
▁मास्टर्स	-10.9635
▁आरोपों	-10.9636
▁खनन	-10.9639
त्ती	-10.964
▁सौदा	-10.9643
ट्रा	-10.9646
▁ललिता	-10.9652
पेक्ष	-10.9654
▁मुफ्त	-10.9658
▁लार्वा	-10.9659
▁अधिग्रहण	-10.966
▁तिरु	-10.9661
ia	-10.9662
▁स्थानांतरण	-10.9663
▁बिलियन	-10.9665
गुन	-10.9666
▁चाहेंगे	-10.9669
्ष	-10.9674
▁ae	-10.9676
▁नरम	-10.9683
▁बलिदान	-10.9685
▁सीडी	-10.9686
रवाना	-10.9689
▁अनुभाग	-10.9691
▁विकेट	-10.9692
डीपी	-10.9696
▁बोले	-10.97
▁आर्क	-10.9704
▁जंतु	-10.9713
▁ढूँढ	-10.9714
▁साइन	-10.9714
di	-10.9714
▁चरणों	-10.9715
▁मानचित्र	-10.9715
▁लाभदायक	-10.9717
▁बनाएँ	-10.9718
▁सूरज	-10.9721
स्तान	-10.9722
▁बुराई	-10.9723
▁पूछे	-10.9723
ैप	-10.9723
▁सोचना	-10.9724
दित	-10.9726
▁नाटकीय	-10.9729
▁नियन्त्रण	-10.974
▁आजीविका	-10.974
▁दवाओं	-10.9743
▁मौके	-10.9747
▁बढ़ाकर	-10.9757
▁ट्रेन	-10.9762
श्वर	-10.9762
▁मातृ	-10.9766
भुज	-10.9768
▁वाणी	-10.977
▁उपरांत	-10.977
▁सार्वभौमिक	-10.9773
पटल	-10.9785
िआ	-10.9787
▁गोर	-10.979
▁चुंबकीय	-10.9795
▁अनियमित	-10.9795
▁बगैर	-10.9795
▁बिस्तर	-10.9797
▁नींद	-10.98
▁महिलाएं	-10.9802
▁बौ	-10.9802
पार्ट	-10.9806
▁छोड़ा	-10.9808
▁शाही	-10.9811
▁क्रमांक	-10.9814
▁खेतों	-10.9821
▁लखनऊ	-10.9822
▁विघटन	-10.9822
धु	-10.9829
▁खाड़ी	-10.983
▁ठहराया	-10.983
▁अवमान	-10.9833
▁ट्रस्ट	-10.9849
▁बशर्ते	-10.985
▁करवाने	-10.985
▁लूट	-10.985
▁अवसाद	-10.9852
▁दिवा	-10.9852
▁बोर	-10.9852
▁स्टोर	-10.9853
▁बंगाली	-10.9856
▁नली	-10.9858
नाई	-10.9858
वृ	-10.9861
▁चिल्ला	-10.9862
▁पर्यावरणीय	-10.9863
▁अखबार	-10.9863
▁vi	-10.9866
▁ढल	-10.9867
▁लड	-10.9868
▁रूपांतरण	-10.9872
तऋ	-10.9873
्यायालय	-10.9873
pe	-10.9876
▁लगाई	-10.9876
▁ज्वर	-10.9878
▁समेत	-10.9878
▁अग्रसर	-10.9881
ग्राम	-10.9883
ot	-10.9887
▁भोज	-10.9891
▁जूट	-10.9892
यालय	-10.9899
मूर्ति	-10.9902
▁अद्वितीय	-10.9905
▁सोसायटी	-10.9905
▁संपादन	-10.9905
▁आभार	-10.9906
▁नियोजित	-10.9909
लाप	-10.9914
्सन	-10.9921
▁पुरा	-10.9922
▁उद्यमी	-10.9922
▁ब्रे	-10.9927
▁लगेगा	-10.9927
▁भूकंप	-10.9933
▁विधिमान्य	-10.9933
▁बंट	-10.9935
▁सिवा	-10.9937
▁विशेषज्ञता	-10.9938
▁मण्डल	-10.9939
▁गार्ड	-10.9939
▁छुपा	-10.9942
▁प्रवाहित	-10.9943
▁अनुबंध	-10.9943
▁विशिष्टता	-10.9946
▁उदय	-10.9948
ांतरण	-10.995
▁टूल	-10.9954
म्बा	-10.9956
▁भयंकर	-10.9961
▁पंजी	-10.9962
धारियों	-10.9963
चालित	-10.9963
ph	-10.9965
▁अंडमान	-10.9966
▁रेत	-10.9973
▁वाइ	-10.9981
▁भड़क	-10.9986
▁ऑस्ट्रेलिया	-10.9988
▁निकोबार	-10.9988
▁स्नायु	-10.9988
▁मुद्रण	-10.9989
फ्र	-10.9999
▁साम्यवाद	-11.0003
▁बीमारियों	-11.0007
ul	-11.0012
▁चिन्ता	-11.0017
▁दिखायी	-11.0022
▁ढलान	-11.0023
▁प्रलेख	-11.0023
▁उठे	-11.0025
धारित	-11.0026
हड़	-11.0028
▁सिम	-11.0028
▁सिफारिशें	-11.003
▁माया	-11.0034
ab	-11.004
मोन	-11.0044
▁डिवीजन	-11.0045
▁उद्धरण	-11.0045
▁विशेन	-11.0047
▁ऑटो	-11.0047
▁हास्य	-11.0048
म्स	-11.0049
जार	-11.0049
▁कारित	-11.0053
▁प्रारम्भिक	-11.0056
▁१७	-11.0058
▁कैसा	-11.0058
▁प्रदेशों	-11.0059
▁पंथ	-11.0061
▁बदलते	-11.0062
द्घ	-11.0064
▁नाश	-11.0071
▁चित्रों	-11.0072
▁वाजपेयी	-11.0073
▁अधिष्ठा	-11.0073
▁मुद्रित	-11.0073
▁उत्पत्ति	-11.0074
▁साठ	-11.0082
▁अपरि	-11.0082
▁उत्पादित	-11.0084
श्क	-11.0086
येंगे	-11.0087
दक	-11.0093
▁आवृत्ति	-11.0095
▁अर्जी	-11.0095
▁आवासीय	-11.0096
▁निरोध	-11.01
▁अंतःस्थापित	-11.0102
भोग	-11.0107
▁चित्रित	-11.0108
हान	-11.0114
टिन	-11.0115
▁पर्यटक	-11.0117
ंदन	-11.0118
▁नीला	-11.0121
▁नीतियां	-11.0124
▁बनती	-11.0125
▁मॉड्यूल	-11.0129
▁सर्किट	-11.0129
▁अंदाज	-11.0131
▁राजकीय	-11.0132
▁सेनाओं	-11.0132
▁पेय	-11.0133
▁रूढ़	-11.0135
मैं	-11.0135
▁हिंद	-11.0135
▁मेनन	-11.0138
▁सरलता	-11.014
▁बलराम	-11.0142
ho	-11.0148
▁क्रो	-11.0153
▁तेलुगु	-11.0158
▁व्यायाम	-11.0158
▁परिपथ	-11.0161
▁सौदे	-11.0161
रक्षित	-11.0164
▁हटाना	-11.0164
▁मेनू	-11.0165
▁पेड़ों	-11.0166
▁टेली	-11.0173
▁नहर	-11.0175
▁बेन	-11.0175
स्थित	-11.0177
▁उपनिवेश	-11.0183
▁सूखे	-11.0184
ers	-11.0184
▁टाल	-11.0185
▁हल्के	-11.0186
क्षम	-11.0193
▁क्षय	-11.0196
हीं	-11.0198
वरी	-11.0198
जिक	-11.0198
▁प्रतिस्थापित	-11.0201
▁पत्रकार	-11.021
▁पुर्तगाल	-11.0215
▁सरस्वती	-11.0215
▁तार्किक	-11.0215
▁चिंतित	-11.0215
▁अणु	-11.0215
▁बुखार	-11.0216
▁इंसान	-11.0217
ive	-11.0221
जान	-11.0227
▁फिल्मों	-11.0231
▁लेखों	-11.0231
सूर	-11.0231
कूट	-11.0236
▁परिसंपत्ति	-11.0242
▁पारिश्रमिक	-11.0243
▁समुच्चय	-11.0243
▁सिक्किम	-11.0243
▁उपाध्यक्ष	-11.0243
▁पूँजी	-11.0243
▁पूछताछ	-11.0243
▁विवेचन	-11.0244
▁फर्क	-11.0255
▁डाली	-11.026
▁सामंजस्य	-11.0272
▁स्थगित	-11.0272
▁झगड़	-11.0275
▁प्रिंटर	-11.0276
व्या	-11.0282
▁अभ	-11.0282
▁बज	-11.0284
▁विशेषताएं	-11.0286
▁निरस्त	-11.0288
मीन	-11.029
▁स्राव	-11.0296
▁क्षेत्रफल	-11.0297
▁तीव्रता	-11.0298
▁अंतर्निहित	-11.0301
▁सरकारें	-11.0304
▁संभावनाएं	-11.0305
▁दिलाने	-11.0306
▁रथ	-11.0308
थु	-11.0308
▁धर	-11.0309
शियल	-11.0309
वण	-11.0312
फिल	-11.0313
हरण	-11.0318
जिन	-11.0319
ss	-11.0322
▁सितार	-11.0323
▁शांतिपूर्ण	-11.0323
▁विरल	-11.0326
▁प्रीमियम	-11.033
▁समाविष्ट	-11.033
▁सउदी	-11.033
▁जीने	-11.033
▁हस्तांतरण	-11.033
▁अवशेष	-11.0334
▁भटक	-11.0336
▁अनुपस्थिति	-11.0336
ट्टी	-11.0336
▁वर्गीकृत	-11.0338
▁आंखें	-11.034
▁भौ	-11.0344
▁दर्शाया	-11.0344
▁धनी	-11.0346
बैक	-11.0348
▁एम्	-11.0352
▁sa	-11.0356
साद	-11.0358
▁ताजमहल	-11.0359
▁धमकी	-11.0359
▁अत्याचार	-11.0359
▁दिनांकित	-11.0359
▁बैठकों	-11.036
▁नवाचार	-11.0361
▁संरक्षक	-11.0369
▁मरीज	-11.037
▁भ्रमण	-11.0373
▁उभार	-11.0373
र्र	-11.0377
▁मेघ	-11.0383
▁बंधक	-11.0384
▁बाइ	-11.0385
▁राधाकृष्णन	-11.0388
▁शृंखला	-11.0388
▁दोपहर	-11.0388
▁सारांश	-11.039
um	-11.0393
▁नीच	-11.0393
पिंड	-11.0393
▁ग्रीन	-11.0393
खाना	-11.0398
▁तिल	-11.0399
▁हॉल	-11.04
▁डालना	-11.0402
एसएस	-11.0403
▁जवान	-11.0404
▁पड़ते	-11.0404
▁उत्त	-11.0404
च्य	-11.0414
शुल्क	-11.0416
▁फैले	-11.0416
▁चुपचाप	-11.0417
▁लैंगिक	-11.0417
▁करुणा	-11.0417
▁सघन	-11.0417
▁स्नातकोत्तर	-11.0418
सूची	-11.0419
▁सतत्	-11.0423
णीय	-11.0433
▁साध	-11.0434
▁खादी	-11.044
▁com	-11.0441
▁सूखा	-11.0443
▁नैतिकता	-11.0443
▁राधा	-11.0444
▁सीरिया	-11.0457
▁पेपर	-11.0459
▁बुरे	-11.046
▁इन्द्रिय	-11.0465
▁जोड़ी	-11.0471
▁कैप	-11.0472
▁महानिदेशक	-11.0476
▁वकालत	-11.0476
▁विनोद	-11.0476
▁हज़ार	-11.0476
▁समन्वित	-11.0476
▁जनजातीय	-11.0477
▁नारियल	-11.0478
▁नियोजक	-11.0479
▁मणील	-11.0479
▁अंशदान	-11.048
▁अष्ट	-11.0483
▁बुद्धिमान	-11.0485
▁ग्रंथि	-11.0486
▁अर्थशास्त्र	-11.0488
▁समूचे	-11.0489
ोसिस	-11.0491
▁गुम	-11.0493
▁डै	-11.0493
▁यश	-11.0497
भ्य	-11.0501
▁आबंटित	-11.0505
▁धैर्य	-11.0505
▁उन्मुक्त	-11.0505
▁नगरपालिका	-11.0506
▁न्यायपीठ	-11.0508
▁शिविर	-11.0509
ity	-11.051
▁ताजा	-11.0517
▁चाहें	-11.0522
▁असीम	-11.0525
▁इन्होंने	-11.0535
▁देवनागरी	-11.0535
▁हेक्टेयर	-11.0535
▁प्लास्टिक	-11.0535
▁सैकड़	-11.0536
▁फारसी	-11.054
▁नवान्वेष	-11.054
▁लगाये	-11.0542
▁हथियारों	-11.0545
▁माला	-11.0545
▁खोला	-11.055
कोश	-11.0556
▁ग्रंथों	-11.0558
▁करूंगा	-11.0559
▁बांस	-11.0564
▁शर्म	-11.0564
▁ग्लोबल	-11.0564
▁तयशुदा	-11.0564
▁मुकाबला	-11.0564
▁चक्कर	-11.0564
▁वाष्प	-11.0564
▁नतीजा	-11.0564
▁पारदर्शी	-11.0567
▁कृमि	-11.0573
▁प्रसारित	-11.0575
▁मोटी	-11.0577
जातीय	-11.0577
▁मंदी	-11.0583
▁अनुमत	-11.0587
▁शै	-11.0589
▁मलयालम	-11.0594
▁विश्राम	-11.0594
▁सिक्ख	-11.0594
▁खगोल	-11.0594
▁मुद्रक	-11.0595
अली	-11.0596
▁बाण	-11.0605
ौं	-11.0612
एमएस	-11.0617
▁आखिरी	-11.0617
▁तिलक	-11.0618
▁मशीनों	-11.0618
▁हरित	-11.062
▁हमसे	-11.0622
▁निस्	-11.0623
▁चौदह	-11.0624
▁रोकथाम	-11.0624
▁तिब्बत	-11.0624
लौकिक	-11.0624
▁सुलह	-11.0624
▁बालों	-11.0626
▁ख्याल	-11.0626
▁परंपराओं	-11.063
▁पढ़ना	-11.063
▁नामांकन	-11.0636
▁संसद्	-11.0642
▁समितियां	-11.0644
▁माफ	-11.0644
▁नाच	-11.0644
मेर	-11.065
▁सेवानिवृत्त	-11.0651
▁क्षेञ	-11.0653
▁ध्येय	-11.0653
▁बाँध	-11.0653
▁दीजिए	-11.0654
▁असमानता	-11.0654
▁सहयोगियों	-11.0654
▁विराम	-11.0654
▁सापेक्ष	-11.0656
ment	-11.066
▁असंख्य	-11.0661
स्का	-11.0663
▁निवासियों	-11.0664
गति	-11.0671
कथा	-11.0674
▁मानकर	-11.0679
▁लार	-11.0682
▁एल्गोरिथ्म	-11.0683
▁ब्रितानी	-11.0683
▁श्रेणियों	-11.0683
▁रजिस्ट्रीकृत	-11.0684
▁बग	-11.0684
पृष्ठ	-11.0685
ग्ध	-11.0686
▁बढ़ी	-11.0687
▁पागल	-11.0688
गीत	-11.069
ास्थि	-11.069
▁समझती	-11.0692
▁क्रिस	-11.0696
▁कौम	-11.0698
▁बं	-11.0698
▁अंज	-11.0703
▁खुर	-11.0706
▁चलाना	-11.0706
▁सौन्दर्य	-11.0713
हानि	-11.0714
▁जापानी	-11.0714
▁अमृत	-11.0715
पतियों	-11.0722
▁नामित	-11.0724
▁आधुनिकीकरण	-11.0734
▁सुखद	-11.074
▁श्वास	-11.074
▁मोल	-11.0741
▁टेलीविजन	-11.0743
▁प्रत्युत्तर	-11.0743
▁उल्लास	-11.0744
▁प्रशस्त	-11.0747
▁शह	-11.0756
▁उत्तराधिकारी	-11.0759
▁लेनी	-11.076
ादेश	-11.0762
▁राजदूत	-11.0774
▁खुराक	-11.0775
▁भीतरी	-11.0777
▁जुट	-11.0781
परीक्षा	-11.0786
▁चाहा	-11.0788
▁शेयरधारक	-11.079
▁इंच	-11.0793
▁सदियों	-11.0797
▁सहारे	-11.0804
▁निर्यातक	-11.0807
▁फ़िर	-11.0811
▁दिखता	-11.0816
रुण	-11.0831
▁II	-11.0834
▁साफ़	-11.0834
ग्री	-11.0836
▁बंधु	-11.0838
▁शब्दावली	-11.0839
कॉम	-11.0841
▁गिल	-11.0844
▁बनते	-11.0846
र्पण	-11.0857
▁पोर्टल	-11.0861
▁पिट	-11.0865
▁प्रेरक	-11.0865
▁खाल	-11.0867
ॉं	-11.0879
od	-11.0892
▁विधिज्ञ	-11.0893
▁दुश्मन	-11.0896
▁टुकड़	-11.0896
▁बहि	-11.0908
▁जह	-11.0915
▁बंग	-11.0917
▁fe	-11.0917
रात	-11.0918
▁निबंधन	-11.0925
▁दलील	-11.0927
▁नौका	-11.094
▁रूक	-11.0943
▁लीला	-11.0947
▁प्रिंट	-11.0952
▁लिखें	-11.0957
▁Google	-11.0957
▁प्रदूषक	-11.0957
▁वाशिंगटन	-11.0957
▁हल्का	-11.0957
▁मुख्यमंत्री	-11.096
नामा	-11.0961
▁निगमित	-11.0965
▁बेर	-11.0966
▁ब्राउज़र	-11.0971
जन्य	-11.0972
▁निर्भरता	-11.0973
▁घटकों	-11.0981
ध्यक्ष	-11.0982
ोदय	-11.0983
▁सिंधी	-11.0983
ST	-11.0984
▁सम्बन्धों	-11.0985
▁नलिका	-11.0986
▁नौसेना	-11.0988
▁तैनात	-11.0989
टरी	-11.0989
▁विदा	-11.0989
▁स्थावर	-11.0993
▁समाजवाद	-11.0995
▁हुईं	-11.0997
ub	-11.0998
▁भौतिकी	-11.1002
ie	-11.1003
▁निबंध	-11.1004
▁पर्वतीय	-11.1009
▁फंड	-11.1015
▁आकांक्षा	-11.1018
▁कारीगर	-11.102
▁टैक्स	-11.1021
▁साय	-11.1021
▁बसे	-11.1022
▁राजवंश	-11.1023
▁चोर	-11.1025
▁क़्या	-11.1025
▁नोड्स	-11.1026
▁जायगा	-11.103
डेल	-11.1047
▁न्यूयार्क	-11.105
▁मृदा	-11.105
▁उपासना	-11.105
▁कित्तूर	-11.105
▁सुलभ	-11.105
▁प्ररूप	-11.105
▁भूतपूर्व	-11.105
▁कहें	-11.1051
▁फलक	-11.1052
▁वारंट	-11.1054
▁परमिट	-11.1054
▁अभिलिखित	-11.1054
स्तरीय	-11.106
▁क्रमिक	-11.1062
▁शासकीय	-11.1064
▁व्यव	-11.1069
िष्ठ	-11.107
▁छि	-11.1076
▁गणेश	-11.1077
राइड	-11.1078
▁जुर्माना	-11.1081
▁परिप्रेक्ष्य	-11.1081
▁मुम्बई	-11.1081
▁अफसर	-11.1081
▁किनारों	-11.1082
▁धूम	-11.1084
▁कपास	-11.1086
▁एल्	-11.109
▁मौन	-11.1095
ट्रिक	-11.1095
गिरि	-11.1104
धिक	-11.1106
ob	-11.1109
चीन	-11.111
▁पिछ	-11.1111
▁थै	-11.1112
▁रिएक्टर	-11.1112
▁शक़्ति	-11.1114
▁बिखर	-11.1115
▁दाहिन	-11.1116
जाल	-11.1118
▁बहुधा	-11.1126
▁चह	-11.1127
▁फैसले	-11.1128
योजक	-11.114
▁हुसैन	-11.1144
▁फीसदी	-11.1149
▁आस्तियां	-11.1152
▁बारीक	-11.1154
▁अपनाना	-11.1154
सूत्र	-11.116
बेट	-11.116
▁कड़ा	-11.1161
▁नाप	-11.1162
बुक	-11.1164
▁जीतने	-11.1171
▁अस्वीकृत	-11.1175
▁बेरोजगार	-11.1175
▁गर्दन	-11.1175
▁भैंस	-11.1175
▁रावण	-11.1186
▁नाराज	-11.1193
▁जौ	-11.1197
च्छेद	-11.1199
प्राप्त	-11.12
▁बेटा	-11.1204
▁चिकन	-11.1206
▁उत्थान	-11.1207
▁दहेज	-11.1207
▁नागर	-11.1208
▁वर्ल्ड	-11.1208
▁स्न	-11.121
▁फ्री	-11.121
िज्म	-11.122
▁देखेंगे	-11.1221
त्तम	-11.1238
▁प्रामाणिक	-11.1238
ोन्मुख	-11.1239
▁स्ट्रिंग	-11.1239
वर्स	-11.124
▁पक्षपात	-11.1243
▁साझीदार	-11.1253
इश	-11.1259
▁फैली	-11.1262
▁जता	-11.1266
▁डिप	-11.1266
▁व्यापारियों	-11.1267
tion	-11.1268
▁इंतजार	-11.127
▁एक्सटेंशन	-11.127
▁कसौटी	-11.127
▁जॉर्ज	-11.127
▁अभ्यर्थ	-11.1271
भंग	-11.1272
▁सोशल	-11.1273
▁सम्मुख	-11.1273
▁पच	-11.1277
▁प्रेषण	-11.1279
वायर	-11.128
▁बनाएं	-11.1288
▁दंडित	-11.1291
▁चेन्नई	-11.1302
▁विशुद्ध	-11.1302
गर्भ	-11.1302
▁रवैय	-11.1303
▁सुपुर्दगी	-11.1303
घट	-11.1308
▁परंतुक	-11.131
▁साज	-11.1311
▁भली	-11.1311
पुत्र	-11.1312
फोर्ड	-11.1313
▁सद्भावना	-11.1313
ig	-11.1316
▁खां	-11.1319
▁आतंकवादियों	-11.1322
▁दर्शकों	-11.1322
स्थि	-11.1328
▁पौधा	-11.133
क्चर	-11.1332
▁उत्तेजित	-11.1334
▁यथासंभव	-11.1334
▁आश्रित	-11.1334
▁विमानक्षेत्र	-11.1335
▁केलिए	-11.1338
▁तटीय	-11.1339
▁लम्बा	-11.1345
▁शैव	-11.1362
ाधीश	-11.1365
▁हममें	-11.1365
▁अस्पृश्य	-11.1366
▁रसोई	-11.1366
▁मेले	-11.1367
▁कोयले	-11.1368
ऊंगा	-11.137
सिस्ट	-11.1373
▁मक्का	-11.1374
▁द्वीपों	-11.1374
▁सहेजें	-11.1381
▁खेलने	-11.1382
▁मदर	-11.1384
▁गाने	-11.1386
▁वैसी	-11.1386
▁वियतनाम	-11.1398
▁देखरेख	-11.1398
्यान	-11.1398
▁बिगड़	-11.1399
▁ग्रिड	-11.1402
▁पटना	-11.1402
▁मूर्त	-11.1408
ap	-11.1416
▁मुस	-11.1422
ेटिव	-11.1426
▁कन्वेंशन	-11.143
▁छत्तीसगढ़	-11.143
▁सांविधिक	-11.143
▁आश्वस्त	-11.143
▁महाविद्यालय	-11.143
▁मकबर	-11.143
▁गर्भवती	-11.1431
शंकर	-11.1431
▁अनुप्रयोगों	-11.1433
▁नित्य	-11.1436
▁निकलता	-11.1443
क्की	-11.1444
ियस	-11.1448
▁उत्प	-11.1449
▁सुझा	-11.1459
▁आन्तरिक	-11.1463
▁स्वेच्छा	-11.1463
▁डिक्री	-11.1463
▁मादक	-11.1464
▁ढील	-11.1473
▁बागान	-11.1479
▁ऐल	-11.1481
बरी	-11.1487
बिन	-11.1487
▁ब्लॉक	-11.1491
ंए	-11.1494
ंदर	-11.1494
▁अपरिहार्य	-11.1495
▁बागवानी	-11.1495
▁परिमाण	-11.1495
▁मनोवैज्ञानिक	-11.1495
▁गोला	-11.1497
▁नागरिकता	-11.1497
▁साधारणतया	-11.15
▁परिपत्र	-11.1504
▁पीढ़िय	-11.1508
▁दुष्	-11.1509
▁लल	-11.1516
▁खुलने	-11.1522
ष्य	-11.1524
▁ईरानी	-11.1524
▁साझेदारी	-11.1525
▁पुनर्विलोकन	-11.1528
▁लाभकारी	-11.1529
▁माउस	-11.1529
▁घबरा	-11.153
▁समरूप	-11.1538
टिया	-11.1541
▁बाघ	-11.1547
िकाओं	-11.1548
▁सजीव	-11.1551
कोड	-11.1552
▁बगल	-11.1552
ग्राही	-11.1553
▁सिंगापुर	-11.156
▁विनम्र	-11.156
▁दुबारा	-11.156
▁हाजिर	-11.156
▁आईसीटी	-11.156
▁मेजबान	-11.1561
▁पॉलिसी	-11.1562
▁एट	-11.1564
▁डीएनए	-11.1564
▁फ्रेम	-11.1565
▁परिपक्व	-11.1568
▁सव	-11.1568
कर्ण	-11.157
विहीन	-11.1574
ca	-11.1579
किन	-11.1586
ve	-11.1588
▁खूबसूरत	-11.1593
▁मैसूर	-11.1594
▁तिरू	-11.1596
▁जानबूझकर	-11.1596
▁शान्त	-11.1596
▁परिस्थितियां	-11.1597
▁मंडली	-11.1597
▁विश्वव्यापी	-11.1598
रुद्ध	-11.16
▁आगम	-11.1604
▁सुंदरता	-11.1609
स्की	-11.1609
विद्या	-11.161
▁पैक	-11.1614
▁सेवाएँ	-11.162
▁पित्त	-11.1622
▁एनआईओएस	-11.1626
▁अस्त्र	-11.1626
▁महीन	-11.1626
▁अहमदाबाद	-11.1626
▁देरी	-11.1628
▁प्रतिपूर्ति	-11.1633
दृष्ट	-11.1633
गंज	-11.1641
▁संयम	-11.1642
िओ	-11.1646
▁अनाम	-11.1657
▁भविष्यवाणी	-11.1659
▁यूनाइटेड	-11.1659
▁कर्त्तव्य	-11.1659
▁संप्रतीक	-11.1659
▁मांसपेशिय	-11.1659
▁यमुना	-11.1659
▁खतरों	-11.1659
▁मंत्रिमंडल	-11.1659
▁सपने	-11.1659
▁शिश्न	-11.166
▁प्रेमचन्द	-11.166
्योर	-11.1665
▁कन्या	-11.1669
▁रोकना	-11.1671
▁ज़रूरी	-11.1675
्यूल	-11.1677
▁मरने	-11.1677
▁टैग	-11.1678
▁म्यू	-11.168
कारियों	-11.1682
▁रुख	-11.1683
खोर	-11.1684
साइट	-11.169
▁सचेत	-11.169
▁आक्रामक	-11.1692
▁उजागर	-11.1692
▁उत्तेजना	-11.1692
▁शाश्वत	-11.1692
▁निदेशालय	-11.1694
▁जिन्ना	-11.1694
▁एंटी	-11.1695
▁बांड	-11.1695
▁मन्त्र	-11.1701
सीआई	-11.1701
ण्ण	-11.1702
▁अनजान	-11.1703
ान्तरण	-11.1708
▁डालते	-11.1708
पालिका	-11.1712
▁निवेशक	-11.1713
▁प्रमाणन	-11.1723
▁गड़बड़	-11.1725
▁पौराणिक	-11.1725
▁सुप्रीम	-11.1725
▁सज्जन	-11.1725
▁काल्पनिक	-11.1725
▁व्रत	-11.1726
▁हफ्ते	-11.1737
िशन	-11.1743
▁चार्ज	-11.1745
समूह	-11.1746
ग्रा	-11.1748
▁लौह	-11.1748
▁इलाके	-11.1749
▁ऑपरेशन	-11.1759
आकांक्षाओं	-11.1759
▁प्रायोजित	-11.1761
▁बंदर	-11.1763
ाधिकारी	-11.1764
▁बताई	-11.1766
▁पीछा	-11.1766
मेन्ट	-11.1767
▁मानवाधिकार	-11.1772
▁हरेक	-11.1773
▁वरन	-11.1773
मुझे	-11.1774
संस्कृत	-11.1774
▁तुर्क	-11.1774
हाल	-11.1775
▁मध्यवर्ती	-11.1776
ंतर	-11.1777
▁प्रोग्रामिंग	-11.1778
▁गायब	-11.178
▁इन्द्र	-11.178
▁निवल	-11.1782
▁इनको	-11.1785
▁घिर	-11.1788
भ्	-11.1788
▁प्रतिवाद	-11.179
▁अप्रत्याशित	-11.1792
▁निरर्थक	-11.1792
▁फाउंडेशन	-11.1792
▁वास्तुकला	-11.1793
▁व्यवसायी	-11.1793
▁बंगला	-11.1797
▁अरे	-11.1797
▁विलम्ब	-11.1798
▁बढाने	-11.1801
▁घेरे	-11.1803
▁१८	-11.1803
AP	-11.1809
ाइज़	-11.1812
▁पकड़ने	-11.1816
▁सीमेंट	-11.1819
▁पलट	-11.182
ng	-11.1821
▁वाय	-11.1824
▁शंका	-11.1824
घाट	-11.1825
▁व्यतीत	-11.1826
▁मापदंड	-11.1826
▁घटनाएं	-11.1829
ब्ल	-11.183
▁कार्यकर्ताओं	-11.183
▁आंत्र	-11.1835
प्रेरण	-11.1845
ऊँ	-11.1852
▁सत्	-11.1856
▁खाद्यान्न	-11.1859
▁घंटा	-11.1859
▁श्याम	-11.186
▁बाप	-11.1862
▁कानपुर	-11.1864
▁प्रतिमान	-11.1865
▁जयपुर	-11.1865
ti	-11.1873
खार	-11.1876
▁दिखाना	-11.1877
यह	-11.1888
ढे	-11.1889
▁इंद्र	-11.189
▁सम्प	-11.1891
▁वैधानिक	-11.1893
▁प्रचलन	-11.1893
▁इटली	-11.1893
▁अनुरक्षण	-11.1897
▁समाचारपत्र	-11.1897
▁आवेग	-11.1905
▁स्वर्गीय	-11.1905
▁कटाई	-11.1906
▁निश्	-11.1909
िटर	-11.1917
▁घुल	-11.1919
ag	-11.192
▁फोल्डर	-11.1927
▁मन्दिर	-11.1927
▁व्यतिक्रम	-11.1927
▁क्लास	-11.1927
▁अधिकथित	-11.1928
▁भाइयों	-11.1929
▁तारों	-11.1929
▁डालता	-11.1941
▁पाइ	-11.1948
मीर	-11.1948
▁आलोक	-11.1952
▁कार्यशाला	-11.1959
▁प्रोफाइल	-11.1961
▁माणिक	-11.1961
▁सोलह	-11.1961
▁ख्याति	-11.1961
▁ज़मीन	-11.1962
▁दर्शित	-11.1963
▁दिशानिर्देश	-11.1964
▁उड़ा	-11.1967
▁पासपोर्ट	-11.197
▁पक्का	-11.1978
▁मठ	-11.1978
ञ्ज	-11.1979
▁चतुर	-11.1981
ow	-11.1981
व्यक्ति	-11.1983
▁तीख	-11.1984
▁पैन	-11.1988
▁करनेवाले	-11.1989
▁मतदाता	-11.1991
▁अनुयायियों	-11.1995
▁अरुणाचल	-11.1995
▁आत्मनिर्भर	-11.1995
▁आत्मविश्वास	-11.1995
▁ज़रुरत	-11.1995
▁त्रिपुरा	-11.1995
▁क्रमादेश	-11.1996
▁धोखा	-11.1998
▁जिक्र	-11.1999
▁टोक	-11.2
▁लक्षित	-11.2001
▁खुदरा	-11.2001
▁जोरदार	-11.201
▁बैठकर	-11.2011
राष्ट्र	-11.2012
▁क्रियाशील	-11.2016
▁उलझ	-11.2022
ea	-11.2024
क्षु	-11.2027
▁कलात्मक	-11.2028
▁क्योकि	-11.2029
▁टैंक	-11.2032
▁श्रीकृष्ण	-11.2033
▁संस्थित	-11.2033
षऋ	-11.2034
उस	-11.2041
▁हौ	-11.2043
धारण	-11.2043
▁प्रत्ये	-11.2057
ड्स	-11.2057
▁खुशहाली	-11.2064
▁संपरिवर्तन	-11.2064
▁हालाँकि	-11.2064
▁भृंग	-11.2064
▁छेड़	-11.2068
▁दिशाओं	-11.2078
▁विफलता	-11.208
▁भला	-11.2087
▁तरफ़	-11.209
▁जंगलों	-11.209
चरण	-11.2092
▁अभयारण्य	-11.2098
▁शताब्दियों	-11.2098
▁व्यंग्य	-11.2098
▁पत्तियों	-11.2098
आईएस	-11.2099
▁पंचांग	-11.2101
▁फॉ	-11.2105
फाइ	-11.2106
कोशिका	-11.2106
▁तीर	-11.2108
▁देयता	-11.2114
▁छुटकारा	-11.2133
▁धरोहर	-11.2133
▁यौगिक	-11.2133
▁नाजुक	-11.2133
▁चिन्तन	-11.2133
ist	-11.2133
▁समायोजित	-11.2134
▁चौथे	-11.2134
▁कालावधि	-11.2135
▁सिटी	-11.2137
▁संदर्भित	-11.2138
▁प्रोटो	-11.2138
▁अंकुर	-11.2139
▁जिनको	-11.2155
▁क्रूरता	-11.2155
▁प्रतिबंधित	-11.2158
▁रूसी	-11.2163
आईए	-11.2165
िश्च	-11.2167
▁जुर्माने	-11.2168
▁साफ्टवेयर	-11.2168
▁कब्जे	-11.2168
▁अंचल	-11.2169
▁पंज	-11.217
▁कलाकारों	-11.2173
▁जागरूक	-11.2177
▁गोपनीय	-11.2179
▁निम्नतर	-11.218
▁कपट	-11.2187
ावधि	-11.2193
▁श्रद्धांजलि	-11.2202
▁लगाते	-11.2204
ak	-11.2206
नाशी	-11.2222
ci	-11.2224
▁बांग्ला	-11.2237
बुद्धि	-11.2237
▁नम्बर	-11.2241
▁वृक्षों	-11.2243
त्सा	-11.2246
▁फ़ोन	-11.2246
सीआर	-11.2261
▁लाये	-11.2265
्था	-11.2266
▁प्रकटन	-11.2267
▁अवध	-11.2268
▁दरें	-11.2272
▁दर्जे	-11.2272
▁राजपूत	-11.2272
▁तुलसी	-11.2273
▁अधिनिर्णय	-11.2274
▁बिहारी	-11.2277
▁निर्देशक	-11.2279
▁इस्लामिक	-11.2279
▁रूख	-11.2283
कूल	-11.2285
▁पंचायतों	-11.2285
वारा	-11.2287
और	-11.229
▁व्यवहार्य	-11.2292
▁खाई	-11.2296
ार्म	-11.2299
▁इकाइयां	-11.2308
▁अहसास	-11.2308
▁डेविड	-11.2308
▁मुर्गी	-11.2309
इर	-11.2314
▁लाभप्रद	-11.2315
▁बनावट	-11.2316
▁हथ	-11.2319
▁महानगर	-11.2322
पुरम	-11.2322
▁चतुर्थ	-11.233
▁ट्रि	-11.2335
▁बढ़ना	-11.2336
▁अरविंद	-11.2343
▁पल्लव	-11.2343
▁बैटरी	-11.2344
▁प्रेमचंद	-11.2345
▁बढ़िया	-11.2345
▁चिड़िया	-11.2347
▁चौथाई	-11.2348
ऊं	-11.2349
भूषण	-11.2351
▁क्रेता	-11.2354
▁रोटी	-11.2361
ect	-11.2362
▁ऋस	-11.2364
श्न	-11.2366
▁साहा	-11.2369
▁परिपक्वता	-11.237
पालन	-11.237
डिस	-11.2372
▁एप्लिकेशन	-11.2378
▁स्मार्ट	-11.2378
▁प्रॉक्सी	-11.2378
▁चालीस	-11.238
▁चट	-11.2385
▁अल्लाह	-11.2385
▁डाइ	-11.2385
बोर्ड	-11.2386
▁हार्ड	-11.2389
▁मामल	-11.24
निधि	-11.2405
▁आएगा	-11.2407
मंत्र	-11.2409
▁तद	-11.2411
▁तूफान	-11.2414
सन्धि	-11.2414
▁बस्ती	-11.2414
▁चुनने	-11.2417
▁पर्दा	-11.2419
▁शीघ्रता	-11.242
▁भावनात्मक	-11.2421
▁गाथा	-11.2421
▁सशक्तीकरण	-11.2422
शेखर	-11.2426
▁सादा	-11.2427
एपी	-11.2431
ऐं	-11.2438
▁प्रतिरूप	-11.2439
दन्त	-11.2439
वोल्ट	-11.2439
▁वक्ष	-11.244
▁पैटर्न	-11.245
▁डिज़ाइन	-11.245
▁मेडिकल	-11.245
▁प्रादेशिक	-11.245
▁बूढ़े	-11.245
▁लीजिए	-11.245
▁महाराज	-11.2455
▁आदिवासी	-11.2461
च्युत	-11.2465
ग्रन्थि	-11.2466
गुप्त	-11.2467
art	-11.2472
ल्हा	-11.2474
ग्राफ	-11.2475
▁दुखद	-11.2482
▁धूम्रपान	-11.2486
▁वर्षगांठ	-11.2486
▁उच्छेदन	-11.2486
▁भण्डार	-11.2486
▁पत्ते	-11.2486
टोर	-11.2487
▁कराधान	-11.2488
▁अपहरण	-11.2488
शूल	-11.249
▁शुक्र	-11.2491
▁तलवार	-11.2493
▁झुकाव	-11.2495
▁पहुँचने	-11.2496
▁दादी	-11.2499
क्के	-11.25
ग्ग	-11.2505
▁कथाओं	-11.2509
▁आँक	-11.2511
▁मारा	-11.2513
CT	-11.2513
▁पीले	-11.2518
केन्द्र	-11.2519
▁तान	-11.2519
▁राजनयिक	-11.2522
▁नामंजूर	-11.2522
▁चेष्टा	-11.2522
▁रोबोट	-11.2522
▁जरिये	-11.2522
hi	-11.2523
▁लोहे	-11.2525
▁करवाया	-11.2534
▁चार्ट	-11.2537
▁कुष्ठ	-11.2538
ोचित	-11.254
▁सीखना	-11.2541
▁डालें	-11.2557
▁कट्टरपंथी	-11.2558
▁संक्रामक	-11.2558
▁सहिष्णुता	-11.2558
▁अनुयायी	-11.2558
▁पसन्द	-11.2558
▁खिंच	-11.2558
▁दाँत	-11.2558
▁वैद्य	-11.2561
▁ढूंढ़	-11.2562
▁ऊँचाई	-11.2563
▁पाएंगे	-11.2565
सूचना	-11.2565
▁बढावा	-11.2565
▁राष्ट्रवाद	-11.2566
▁परिशि	-11.257
▁नासा	-11.2574
▁सुलझा	-11.2581
▁अप्रति	-11.2582
क्रमण	-11.2587
▁पडता	-11.2591
▁अत्यावश्यक	-11.2594
▁तिमाही	-11.2594
▁भयभीत	-11.2594
▁मेगावाट	-11.2594
भाषा	-11.2594
▁सिद्धदोष	-11.2595
▁पैदल	-11.2596
▁उक	-11.2596
▁वेदों	-11.2596
▁उच	-11.2597
▁चाचा	-11.2598
▁ज़ोर	-11.2599
▁ऑफिस	-11.2605
मति	-11.2608
▁निष्पा	-11.2609
लेटर	-11.2609
ai	-11.2612
▁दूत	-11.2615
▁कैर	-11.2616
▁कार्यकर्ता	-11.2616
▁बताये	-11.2616
स्को	-11.2622
▁मेला	-11.2626
▁हमास	-11.2626
▁फुल	-11.263
▁ड्रग्स	-11.263
▁सब्जियों	-11.263
▁समकक्ष	-11.263
▁गिनती	-11.2631
▁पतली	-11.2631
▁जोड़ना	-11.2632
▁अवलंब	-11.2635
▁फायर	-11.2635
▁वास्तु	-11.2641
▁साधु	-11.2644
▁ठंडा	-11.2649
▁प्रतिबिम्ब	-11.2667
▁लेनदेन	-11.2667
▁कार्यपालक	-11.2667
▁एकाग्र	-11.2667
▁कराते	-11.267
▁सेकंड	-11.2674
▁कविताएं	-11.2679
▁पहने	-11.268
▁आँखें	-11.2683
▁रूट	-11.2684
▁गायक	-11.2685
गांव	-11.2685
▁अखबारों	-11.2685
वेग	-11.2687
▁पराग	-11.2693
▁ग्रेट	-11.2697
▁प्रोत्सा	-11.2703
▁PRO	-11.2703
▁परिष्कृत	-11.2703
इए	-11.2704
▁बेचैन	-11.2705
▁विलक्षण	-11.2706
▁पेरिस	-11.2708
▁वर्गमूल	-11.2708
संघ	-11.2708
▁प्रभारित	-11.2716
▁फ़ाइलें	-11.2721
▁अधो	-11.2724
▁नाभिक	-11.274
▁त्योहार	-11.274
▁तामील	-11.274
द्योग	-11.2742
▁शीश	-11.2742
▁नवीकरण	-11.2748
▁फीड	-11.2751
विच	-11.2756
▁पहुँचे	-11.2758
▁घिरा	-11.2764
▁दब	-11.2768
▁कटु	-11.2773
▁गुप्ता	-11.2776
स्क्रिप्ट	-11.2777
▁ग्रीष्म	-11.2777
▁तथाकथित	-11.2777
▁पाश्चात्य	-11.2777
▁विकिपीडिया	-11.2777
▁खरगोश	-11.2777
▁संक्रमित	-11.2777
▁निर्वचन	-11.2778
▁नीलामी	-11.2779
▁न्यायोचित	-11.2779
▁अवज्ञा	-11.278
▁सेवानिवृत्ति	-11.278
▁वचनबद्ध	-11.2781
▁तत्पश्चात्	-11.2783
▁रंगीन	-11.2795
▁ब्रो	-11.2798
▁पौध	-11.2798
;	-11.2798
▁पाय	-11.2806
▁अनधिक	-11.2807
द्रोह	-11.2812
▁कहानियां	-11.2818
▁भूमिगत	-11.2818
रोज	-11.2818
sp	-11.2819
▁प्रबन्धन	-11.2826
▁बनारस	-11.2828
▁ग्रेड	-11.283
▁किताबें	-11.2833
▁प्रवृति	-11.2834
▁मुखिया	-11.2834
पुष्प	-11.2835
▁चांद	-11.2837
mp	-11.2841
ाक्षर	-11.2848
▁टाइम	-11.285
▁मिट	-11.2851
▁अकादमिक	-11.2851
इफ	-11.2853
▁वायदा	-11.2854
▁सडक	-11.2854
▁नोकिया	-11.2854
स्टिक	-11.2856
▁पेंट	-11.2857
▁वर्गाकार	-11.2861
▁स्वराज	-11.2863
पादित	-11.2867
▁ताक	-11.2871
▁पहाड़ियों	-11.2872
चय	-11.2882
▁तत्	-11.2882
राना	-11.2883
▁चतुर्	-11.2884
▁बदलती	-11.2885
▁हज	-11.2885
▁सब्सिडी	-11.2889
▁लाद	-11.2889
▁कच्चा	-11.2889
▁संतोषजनक	-11.289
▁दुहरा	-11.2892
▁फर्श	-11.2892
▁नियति	-11.2898
▁सुलझाने	-11.2902
▁साधक	-11.2903
क्ष्य	-11.2906
▁मेरु	-11.2917
▁जार्ज	-11.2917
▁Chrome	-11.2926
▁इजाजत	-11.2926
▁उपराष्ट्रपति	-11.2926
▁एवोल्यूशन	-11.2926
▁मैथुन	-11.2926
▁यूनानी	-11.2926
▁स्थगन	-11.2926
▁पराजित	-11.2927
▁स्कैन	-11.2928
वस्तु	-11.2931
शंस	-11.2932
▁छात्रवृत्ति	-11.2933
ख्त	-11.2933
▁बारिश	-11.2935
सभा	-11.2938
▁सपना	-11.294
िंक	-11.2942
▁बनवाय	-11.2943
▁पैदावार	-11.2944
▁भो	-11.295
निर्धारण	-11.2954
▁योद्धा	-11.2964
▁ह्रास	-11.2964
▁अमान्य	-11.2964
▁कूटनीति	-11.2964
▁मानसून	-11.2964
पीड	-11.2965
▁चार्टर	-11.2966
▁अपराधियों	-11.297
▁मश	-11.2976
▁फीट	-11.2979
▁आसन	-11.298
▁उदास	-11.2983
oc	-11.2985
फील्ड	-11.2986
▁तुम्हे	-11.2991
पर्य	-11.2994
▁कैबिनेट	-11.3001
▁निस्संदेह	-11.3001
▁कार्टून	-11.3001
▁ग्रीवा	-11.3002
▁तालमेल	-11.3002
योंकि	-11.3003
▁कॉपी	-11.3009
▁अभिकर्ता	-11.301
▁हालात	-11.301
▁सृजनात्मक	-11.3014
मण्डल	-11.3017
▁कोशिकाएं	-11.3021
▁गली	-11.3022
▁संकेतक	-11.3024
युद्ध	-11.3034
▁चौथा	-11.3037
▁कौर	-11.3038
▁हिम्मत	-11.3039
▁पसंदीदा	-11.3039
▁महासभा	-11.3041
▁पुण्य	-11.3041
▁अनुरुप	-11.3046
▁ट्रैकिंग	-11.3048
ID	-11.3052
▁सैं	-11.3053
▁जातियां	-11.3054
सीपी	-11.3055
▁अधिमान	-11.3064
▁मंत्रिपरिषद	-11.3077
▁बाँट	-11.3078
▁उद्गम	-11.3081
▁टकराव	-11.3085
▁इन्कार	-11.3091
▁उन्मुख	-11.3094
▁अक्षमता	-11.3094
▁मानदंडों	-11.3099
▁उपगत	-11.3102
▁गुहा	-11.3103
IN	-11.3104
▁पात्रता	-11.3108
नारायण	-11.3111
▁बैठने	-11.3113
▁यहूदियों	-11.3116
▁द्रुत	-11.3116
▁क्षीण	-11.3116
▁विराट्	-11.312
▁प्रक्षेपण	-11.3122
्जे	-11.3123
कार्ड	-11.3123
वुड	-11.313
▁बालिका	-11.3136
ear	-11.3145
▁चीज़ें	-11.3147
▁अपनाए	-11.315
वहन	-11.3153
सागर	-11.3153
▁निमंत्रण	-11.3154
▁विरचित	-11.3154
▁अशुद्ध	-11.3154
▁ज्वार	-11.3155
▁श्रव्य	-11.3156
▁संभवतया	-11.3161
▁कतार	-11.3169
ैंट	-11.317
▁प्रताप	-11.3177
क्तियों	-11.3181
प्राप्ति	-11.3182
▁दाब	-11.3189
मुद्र	-11.319
▁कम्युनिस्ट	-11.3192
▁त्यौहार	-11.3192
▁भूगोल	-11.3192
▁ग़लत	-11.3193
▁बतला	-11.3194
▁जमाराशि	-11.3194
मैट	-11.3195
एमपी	-11.32
▁तुलनात्मक	-11.32
आईआर	-11.3202
ाइटिस	-11.321
▁टॉम	-11.321
▁लीटर	-11.3212
▁कलाम	-11.3219
▁खिड़की	-11.3231
▁ड्राफ्ट	-11.3231
▁तीक्ष्ण	-11.3231
▁भाँति	-11.3231
▁जानकार	-11.3231
▁सतर्क	-11.3231
बन्धु	-11.3232
▁क्रियान्वित	-11.3232
▁भ्रष्ट	-11.3233
▁ठरोग	-11.3233
ाइयों	-11.3233
मंत्री	-11.3236
▁कटि	-11.3237
▁चंद्रमा	-11.3241
▁राज्यसभा	-11.3241
▁दोहराया	-11.3243
▁कुचल	-11.3244
▁पंक्तियों	-11.3245
▁अत्य	-11.3263
▁कतर	-11.3266
▁अफ्रीकी	-11.327
▁प्रोजेक्ट	-11.327
▁पेशकश	-11.327
▁माधव	-11.327
विस	-11.3271
▁जागृत	-11.3271
▁लुप्त	-11.3272
▁यूरोपियन	-11.3274
रियो	-11.3275
विज	-11.3277
▁रामलिंग	-11.3277
शिर	-11.3279
▁भलाई	-11.328
▁समाधि	-11.3283
▁मरण	-11.3287
▁छाती	-11.3292
टीन	-11.3303
▁नीले	-11.3306
▁अठारह	-11.3308
▁पूर्वानुमान	-11.3308
▁जनगणना	-11.3308
▁असंतोष	-11.3309
▁अमूर्त	-11.331
▁नवजात	-11.331
▁माडल	-11.3311
▁दैवी	-11.3315
▁हें	-11.3323
▁बढे	-11.3327
डेन	-11.3336
▁निकलना	-11.3336
▁आभास	-11.3336
▁Re	-11.3337
▁छिप	-11.3341
बीएस	-11.3342
RE	-11.3343
▁सुनते	-11.3345
▁इंटरनेशनल	-11.3348
▁हिंसक	-11.3348
▁हनुमान	-11.3348
▁शब्दकोश	-11.3351
▁विश्वयुद्ध	-11.3352
▁पट्टा	-11.3354
▁संरचनात्मक	-11.3354
▁सुविधाजनक	-11.3356
नोडल	-11.3356
▁साहसिक	-11.3361
लाभ	-11.3367
▁असा	-11.3376
डियम	-11.338
▁उदारता	-11.3381
▁शिशुओं	-11.3386
▁डिवाइस	-11.3387
▁मुसीबत	-11.3387
▁इरादा	-11.3387
▁मलेरिया	-11.3387
▁डेल्टा	-11.3387
▁जिहाद	-11.3387
▁नक़ल	-11.3387
वृति	-11.3389
▁कैश	-11.3391
▁आप्रवास	-11.3391
▁जेब	-11.3395
ant	-11.3396
दराज	-11.3403
▁तेज़	-11.3405
▁मंग	-11.3405
शाही	-11.3406
▁सूरत	-11.3407
▁कलम	-11.3407
▁कराती	-11.3418
दाह	-11.3421
▁निकासी	-11.3422
▁अनुष्ठान	-11.3426
▁डिजीटल	-11.3426
▁सम्प्रदाय	-11.3426
▁रघु	-11.3426
▁रोमांच	-11.3426
▁भत्ते	-11.3426
▁संकोच	-11.3426
▁परीक्षक	-11.3427
▁आर्द्र	-11.3429
▁समतल	-11.3432
▁कफ	-11.3434
▁औषधीय	-11.3435
▁रोमन	-11.3438
▁fa	-11.3438
▁बल्ल	-11.3438
चंद	-11.3447
▁वास्त	-11.3447
▁पहना	-11.3452
▁दर्शाती	-11.3452
▁मनाने	-11.3459
चन्द	-11.3463
▁कॉन्फ़िगर	-11.3466
▁हस्तशिल्प	-11.3466
▁चौधरी	-11.3466
▁अलमस्त	-11.3466
▁करोड	-11.347
▁नवाब	-11.3471
▁थोक	-11.3471
▁पारसी	-11.3473
▁संगणित	-11.3474
▁पुनर्वि	-11.348
▁प्रातः	-11.3481
▁प्रहार	-11.3481
▁आहरण	-11.3481
▁अतिमानसि	-11.3486
▁अतिमानस	-11.3486
▁जैक	-11.3487
▁प्रबंधित	-11.3487
▁दिखने	-11.3488
▁शॉ	-11.349
ियॉँ	-11.349
▁दुष्ट	-11.3497
निक्स	-11.3499
▁कटा	-11.35
▁शल्यक्रिया	-11.35
▁पत्रिकाओं	-11.3503
▁बाधाओं	-11.3505
▁अमेरिकन	-11.3505
▁प्रायोगिक	-11.3505
▁शिष्टमंडल	-11.3505
▁सहकारिता	-11.3505
▁राक्षस	-11.3505
▁प्रायद्वीप	-11.3505
▁LIN	-11.3506
▁आरेख	-11.3506
▁निराश	-11.3507
▁वायुमंडल	-11.3507
▁गाल	-11.3509
चक्र	-11.3513
▁मचा	-11.3516
▁टकरा	-11.3517
ide	-11.3521
वृद्धि	-11.3522
▁कार्यकरण	-11.3524
▁पुनरा	-11.3533
RL	-11.3537
▁कार्यभार	-11.3544
▁कमिश्नर	-11.3545
▁निवेदिता	-11.3545
▁वामपंथी	-11.3545
▁गर्भावस्था	-11.3546
▁सेकेंड	-11.3546
प्रकाश	-11.3546
▁प्रतिज्ञा	-11.3549
▁पेट्रो	-11.355
▁मानद	-11.355
▁बैर	-11.355
वर्धक	-11.3551
▁अरुण	-11.3557
▁आसमान	-11.3558
ुअल	-11.3561
▁प्रतियां	-11.3564
▁चैक	-11.3572
▁उठाये	-11.3574
▁मात	-11.3579
▁प्लग	-11.358
▁शिला	-11.358
▁सरोजिनी	-11.3585
▁जवाबदेही	-11.3585
▁फिनलैंड	-11.3585
▁शुक्राणु	-11.3585
▁सम्पादित	-11.3586
दौलत	-11.3588
▁बहती	-11.3591
▁रखेगा	-11.3606
रंजन	-11.3607
सीएल	-11.3607
▁गला	-11.3609
▁मध्यस्थता	-11.3613
▁इंस्टीट्यूट	-11.3625
▁वल्लभ	-11.3625
▁साहिब	-11.3625
▁कचरा	-11.3626
▁कृतज्ञ	-11.3626
▁नानालाल	-11.3626
▁विषाणु	-11.3626
▁परमात्मा	-11.3626
दंड	-11.3626
▁परिवाद	-11.3636
▁निपट	-11.3636
▁चांदी	-11.3638
▁ज्यों	-11.3639
निर्णय	-11.3646
▁हरिजन	-11.3646
▁लटक	-11.3652
▁वाच	-11.3657
▁घंटों	-11.3666
▁अंगीकार	-11.3666
▁लॉर्ड	-11.3669
▁पिछला	-11.3672
▁तुच्छ	-11.3676
▁दर्शाने	-11.3676
न्ग	-11.3678
▁भरती	-11.368
िस्म	-11.3681
▁नमून	-11.3685
शासन	-11.3688
▁सींग	-11.3693
▁केशव	-11.3698
भाष्	-11.3699
▁बैंड	-11.3702
▁सभ्य	-11.3704
▁युसुफ़	-11.3706
▁शिथिल	-11.3706
ट्ठा	-11.3709
▁लॉगिन	-11.3711
▁खट	-11.3711
▁रिश्तेदार	-11.3712
ेट्स	-11.3718
▁खोद	-11.3719
▁राख	-11.3722
तत्त्व	-11.3725
▁सार्व	-11.3726
▁अचल	-11.373
ga	-11.3736
▁साझे	-11.3744
▁चंडीगढ़	-11.3747
▁यूनिकोड	-11.3747
▁साप्ताहिक	-11.3747
▁आरोग्य	-11.3747
▁लसीका	-11.3747
▁उपद्रव	-11.3747
ुद्दीन	-11.3747
▁जवाहर	-11.3747
▁वायरस	-11.3748
▁रामकृष्ण	-11.3748
▁गौतम	-11.3749
▁राष्ट्रवादी	-11.375
▁अध्या	-11.3751
▁बरसात	-11.3752
▁उद्यमिता	-11.3755
▁पाचन	-11.376
▁प्रस्थान	-11.3761
ातीत	-11.3764
सीएस	-11.3773
▁कैसी	-11.3774
एनएस	-11.3775
▁लडक	-11.3786
▁बहिष्कार	-11.3788
▁भवभूति	-11.3788
▁सम्पादक	-11.3788
▁भरण	-11.3788
▁पुरातन	-11.3789
▁मान्यताप्राप्त	-11.3789
▁पिताजी	-11.3789
▁अमृतसर	-11.3789
▁दीर्घकालीन	-11.379
▁आबद्ध	-11.3792
▁नरेश	-11.3793
पूर्ति	-11.3794
▁निर्मल	-11.3795
▁टेबल	-11.3797
▁रौ	-11.38
द्धि	-11.3803
▁अकाल	-11.3803
धिकार	-11.3811
पात्र	-11.3812
▁एड्स	-11.3812
▁जमाव	-11.3826
▁प्राणिक	-11.3828
▁चलाई	-11.3828
▁कुटुंब	-11.3829
▁कुर्सी	-11.3829
▁सचेतन	-11.3832
▁लवण	-11.3832
▁लपेट	-11.3832
▁टाटा	-11.3837
ञ्	-11.3838
▁बेहतरीन	-11.3839
▁मायने	-11.3839
टिस	-11.3842
टिकल	-11.3843
▁सीमांत	-11.3853
▁चढ़ाव	-11.386
▁वांछनीय	-11.387
▁इजराइल	-11.387
▁ऊष्मा	-11.387
▁अनुपूरक	-11.387
▁प्रशंसक	-11.387
▁विवेकानंद	-11.387
▁चौथी	-11.3871
▁सजावट	-11.3871
▁तात्या	-11.3871
▁साम्य	-11.3874
up	-11.3875
▁विहार	-11.3886
▁तोड़ने	-11.3886
▁सौंपे	-11.3895
▁समझाने	-11.3897
▁अधिवक्ताओं	-11.3897
▁चिपका	-11.3903
IC	-11.3908
▁सांसारिक	-11.3911
▁गोदाम	-11.3913
▁परोक्ष	-11.3917
औ	-11.3919
▁पीला	-11.3925
▁पालि	-11.3925
आरआई	-11.393
क्रांत	-11.3933
चर्म	-11.3934
▁कॉन्	-11.3936
▁सैर	-11.3946
▁निरीक्षक	-11.3953
▁यदुनाथ	-11.3953
▁उच्चारण	-11.3953
▁भोपाल	-11.3954
▁चैत्य	-11.3956
▁मुकदम	-11.396
▁बैच	-11.3963
▁झुंड	-11.3964
▁मोक्ष	-11.3967
▁वोट	-11.3968
▁शिकायतें	-11.3971
▁बाय	-11.3973
▁छिड़	-11.3981
▁हिन्दु	-11.3985
▁विक्रम	-11.3988
मूलक	-11.399
▁अवहेलना	-11.3994
▁सन्दर्भ	-11.3994
▁गोविंद	-11.3994
▁स्टील	-11.3996
पीएम	-11.4014
गम्य	-11.4017
▁विशेषतः	-11.4018
▁रुग्ण	-11.4018
▁कैदी	-11.4021
▁सर्वत्र	-11.4023
▁तकलीफ	-11.4023
▁इतिहासकार	-11.4029
▁कारखाने	-11.4036
▁नामनिर्देशित	-11.4036
▁कुत्ते	-11.4036
▁लख	-11.4037
▁पर्वतमाला	-11.4037
▁कॉफी	-11.4038
▁पैकेट	-11.4041
▁बैंककारी	-11.4042
वर्म	-11.4043
▁कार्ल	-11.4046
▁आइस	-11.4047
▁शाक	-11.4054
आईपी	-11.4058
▁विफलः	-11.4063
▁फैलाने	-11.4063
▁लगीं	-11.4064
▁उर्	-11.4067
श्लेष्म	-11.4071
▁चिप	-11.4073
▁छीन	-11.4077
▁पच्चीस	-11.4078
▁पारम्परिक	-11.4078
▁माउंट	-11.4078
निकेतन	-11.4078
▁प्राप्य	-11.4078
▁आभासी	-11.4079
▁CO	-11.4095
▁विश्वसनीयता	-11.4098
▁डैक	-11.4099
वाहिनी	-11.4101
कृतियां	-11.4101
गढ	-11.4113
▁मौलाना	-11.412
▁महावीर	-11.412
▁निर्वाचक	-11.4121
▁आज़ाद	-11.4121
▁चलचित्र	-11.4124
▁रखनी	-11.4124
▁तराश	-11.4125
निवेश	-11.4131
▁प्रकरण	-11.415
▁पाश	-11.4155
▁अयोध्या	-11.4163
▁मछलियों	-11.4163
▁संप्रेषण	-11.4163
▁निजाम	-11.4163
ग्रंथ	-11.4164
▁प्रतिपादन	-11.4164
▁आयातित	-11.4165
▁जाएँगे	-11.4166
▁व्ह	-11.417
▁पौंड	-11.4171
▁बाव	-11.4172
▁अयोग्य	-11.4179
▁प्रयोगशालाओं	-11.4184
pp	-11.4185
▁भोल	-11.4186
▁पडे	-11.419
▁सम्यक्	-11.4195
स्वरूप	-11.4196
▁ताड़	-11.42
▁रिश्ते	-11.4203
▁बचना	-11.4204
▁कैमरा	-11.4205
▁बर्ताव	-11.4205
▁बाधित	-11.4205
▁देसाई	-11.4205
▁तंतु	-11.4205
▁पीठासी	-11.4205
▁मिथक	-11.4206
▁राममोहन	-11.4209
जहां	-11.4211
▁सावधि	-11.4212
▁लड़कों	-11.4212
▁राजीव	-11.4217
OR	-11.4221
▁बूंद	-11.4222
एसआई	-11.4238
▁कपिल	-11.4243
▁अनौपचारिक	-11.4248
▁बेलारूस	-11.4248
▁तर्कसंगत	-11.4248
▁फेफड़ों	-11.4248
▁रेखांकित	-11.4248
घोष	-11.4249
▁आत्मसात	-11.425
▁वायुयान	-11.4251
▁निकलती	-11.4251
▁वाट	-11.4259
▁स्वतन्त्रता	-11.4261
साइड	-11.4263
▁चाप	-11.4266
▁मद्य	-11.4266
यॉ	-11.4272
▁सद्भाव	-11.4276
▁दरअसल	-11.4291
▁द्विआधारी	-11.4291
▁शॉर्टकट	-11.4291
▁संकलित	-11.4291
▁टुकड़ा	-11.4291
▁कम्पनियों	-11.4291
▁जेम्स	-11.4293
डेंट	-11.4295
ld	-11.4299
▁उपयोगकर्ताओं	-11.43
▁औषधियों	-11.4315
शायर	-11.4318
▁रचित	-11.4329
▁क्षैतिज	-11.4334
▁अदायगी	-11.4334
▁महादेवी	-11.4334
▁डेयरी	-11.4334
▁अविश्वास	-11.4335
निर्मित	-11.4339
▁निकलते	-11.4355
▁हठ	-11.4356
▁सड़	-11.4358
▁राइ	-11.4358
▁फ्लोर	-11.436
ब्रि	-11.4364
▁बरतन	-11.4368
इंग	-11.4374
▁साम्प्रदायिक	-11.4377
▁सर्वोपरि	-11.4377
▁तेरह	-11.4377
▁पत्तों	-11.4377
▁तानाशाह	-11.4378
▁मातृभूमि	-11.4378
▁मेघालय	-11.4378
▁पोतन्ना	-11.4378
▁मनु	-11.438
▁घनत्व	-11.4382
▁देखती	-11.4382
▁प्रवृत्तियों	-11.4387
▁गाइड	-11.4395
▁श्रा	-11.4408
▁साँस	-11.4409
मापी	-11.441
http	-11.4421
▁अद्वैत	-11.4421
▁बढ़ोतरी	-11.4421
▁कप्तान	-11.4421
▁अत्याधिक	-11.4421
▁ब्यौरे	-11.4422
▁महोदय	-11.4422
▁अध्यापन	-11.4423
▁विषयवस्तु	-11.4424
▁वेश्या	-11.4431
▁इलेक्ट्रॉनिक्स	-11.4431
ज्जा	-11.4431
▁स्वराज्य	-11.4432
▁बापू	-11.4433
▁मृग	-11.4441
▁रखेंगे	-11.4443
▁संस्कृतियों	-11.4456
▁शीतल	-11.446
▁अनुज्ञप्ति	-11.4464
▁पाउंड	-11.4464
▁वार्मिंग	-11.4464
▁अखंडता	-11.4464
▁फ्रांसीसी	-11.4464
au	-11.4465
▁त्यागपत्र	-11.4468
▁टोकन	-11.4469
▁यंग	-11.4474
▁अभिप्राप्त	-11.4477
▁रमण	-11.4481
▁इज	-11.4482
प्ति	-11.4487
▁प्रतिबन्ध	-11.4491
▁लौ	-11.4501
▁नातेदार	-11.4503
▁अतिरिक़्त	-11.4508
▁झारखंड	-11.4508
▁प्रतिषेध	-11.4508
▁रजिस्ट्रार	-11.4508
▁अपडेट	-11.4509
▁वार्तालाप	-11.4509
▁कब्र	-11.4509
▁वेंकट	-11.451
▁द्रीय	-11.451
र्फ	-11.4511
▁निपटारा	-11.4517
ार्ध	-11.452
▁नोक	-11.4521
▁तेज़ी	-11.4521
▁सीमाएं	-11.4524
▁क्रे	-11.4524
▁समझाया	-11.4528
▁भुला	-11.4533
▁समूच	-11.4535
स्वर	-11.4537
▁ब्रांड	-11.454
▁विनिर्दि	-11.4551
▁जनसाधारण	-11.4552
▁सुल्तान	-11.4552
aI	-11.4553
▁विधायक	-11.4553
▁पत्रकारिता	-11.4554
▁यन्त्र	-11.4557
▁परम्परागत	-11.456
▁पूछने	-11.456
▁यकृत	-11.4568
▁रास	-11.4569
▁नवान्वेषक	-11.4581
▁न्यूज	-11.4592
संख्य	-11.4593
▁ईंट	-11.4596
▁परित्याग	-11.4597
▁सुसज्जित	-11.4597
▁सुस्पष्ट	-11.4597
▁रुझान	-11.4597
▁वफादार	-11.4597
▁गांठ	-11.4601
▁फोरम	-11.4604
▁विलेख	-11.4609
श्रम	-11.461
▁वक़्त	-11.4612
▁बर्मा	-11.4613
▁उपवास	-11.4614
▁बहाल	-11.4626
▁पिच	-11.4626
▁www	-11.4641
▁फुफ्फुस	-11.4641
▁वृंदावन	-11.4641
▁पाषाण	-11.4641
▁समावेदन	-11.4641
▁साइकिल	-11.4641
▁अछूत	-11.4641
▁सिडबी	-11.4641
▁ब्लैक	-11.4642
▁दूषित	-11.4642
पाठ	-11.4643
▁मल्टी	-11.4644
ग्ल	-11.4648
चिंत	-11.465
▁प्रौद्योगिक	-11.4651
▁जनमत	-11.4654
▁वाहिका	-11.466
▁गिरवी	-11.4661
फिन	-11.4663
▁ट्रीय	-11.4664
▁खेद	-11.4667
टीपी	-11.467
▁कमाने	-11.4678
ख़्त	-11.468
▁अदृश्य	-11.4686
▁औपनिवेशिक	-11.4686
▁प्रोफ़ाइल	-11.4686
▁लापरवाह	-11.4686
▁समतुल्य	-11.4686
आक्साइड	-11.4686
न्ज	-11.4686
▁भित्ति	-11.4688
▁वेदना	-11.4691
▁प्रत्यक्षतः	-11.4699
▁साँ	-11.4711
भोज	-11.4728
▁अड्डा	-11.4731
▁क्रिस्टल	-11.4731
▁चाँद	-11.4731
▁पारिस्थितिकी	-11.4732
▁झुका	-11.4736
▁संभोग	-11.4739
▁भावुक	-11.4741
▁डिम्ब	-11.4759
▁समानांतर	-11.4761
▁बचाया	-11.4762
▁कार्रवाइय	-11.4776
▁आवधिक	-11.4776
▁पिघल	-11.4777
▁क्षतिग्रस्त	-11.4778
▁राष्ट्रमंडल	-11.4781
▁उपस्कर	-11.4782
▁छपाई	-11.4784
▁सारवान	-11.4784
▁मुहर	-11.4791
▁दिलाया	-11.4797
▁कवक	-11.4798
▁क्रू	-11.4804
▁शौ	-11.4805
▁फिट	-11.4819
▁परिचर्चा	-11.4821
▁सॉफ़्टवेयर	-11.4821
▁कदाचार	-11.4821
▁कच्ची	-11.4821
इट	-11.4822
▁सामरिक	-11.4823
पीओ	-11.4832
▁श्रोत	-11.4841
▁गध	-11.4841
▁कार्यक्षेत्र	-11.4844
ल्लाह	-11.4846
▁तुलन	-11.4855
▁अनुपस्थित	-11.4857
िष्णु	-11.4861
क्रियात्मक	-11.4861
▁विधिवत	-11.4864
▁संकुचन	-11.4866
▁कोल्हटकर	-11.4866
▁मर्यादा	-11.4866
▁वैवाहिक	-11.4866
▁सर्वांगीण	-11.4866
▁अभिकथन	-11.4866
▁रिश्वत	-11.4866
▁नर्मदाशंकर	-11.4866
▁रस्सी	-11.4866
▁कुंजीपटल	-11.4867
▁धमनी	-11.4868
▁चौड़ा	-11.4869
▁नागपुर	-11.4872
पुंज	-11.4874
▁प्रस्ता	-11.4881
▁निधियां	-11.4883
च्छिक	-11.4902
▁पड़ोस	-11.4905
▁मर्द	-11.4905
▁गुंजाइश	-11.4912
▁फ़ारसी	-11.4912
▁फिल्टर	-11.4912
▁मुंशी	-11.4912
▁वसीयत	-11.4912
▁सपनों	-11.4913
▁मुद्रास्फीति	-11.4913
SS	-11.4914
▁उद्भव	-11.4914
ana	-11.4918
▁दूंगा	-11.492
▁पढ़ते	-11.4922
▁सैल	-11.493
▁प्रतिस्थापन	-11.4936
स्पेस	-11.494
▁अंतररा	-11.4953
▁इन्फ	-11.4954
▁सुगंध	-11.4958
▁अवरुद्ध	-11.4961
▁ख़ान	-11.4963
▁ऑक्स	-11.4968
▁सन्देश	-11.497
कॉन	-11.4973
▁समयावधि	-11.4975
▁करवाना	-11.4978
ME	-11.4991
प्रधान	-11.4996
▁मर्म	-11.5002
▁अनुज्ञेय	-11.5004
▁ठेकेदार	-11.5004
▁नाइट्रोजन	-11.5004
▁स्वंय	-11.5004
▁फकीर	-11.5004
▁पूज	-11.5004
▁रोज़गार	-11.5005
▁कहानियाँ	-11.5007
▁गुज़र	-11.5008
▁नियमावली	-11.501
▁सलाम	-11.5013
▁आलू	-11.5015
TT	-11.5015
▁लिखकर	-11.5016
▁रोज़	-11.5022
नाशक	-11.5031
चिकित्सा	-11.5035
▁इलेक्ट्रानिक	-11.5035
इये	-11.504
▁उद्घोषणा	-11.505
▁हुकूमत	-11.505
▁आवंटन	-11.505
▁ड्यूटी	-11.505
▁निपुण	-11.505
▁सैयद	-11.505
▁पूंछ	-11.505
▁रिसर्च	-11.505
▁कचरे	-11.505
▁पितृ	-11.5051
▁कपड़ों	-11.5051
संधान	-11.5051
▁वीणा	-11.5057
गिरी	-11.5059
▁आर्ट	-11.5061
▁गुड़	-11.5069
पीड़	-11.5069
▁एसिड	-11.5071
▁चलेगा	-11.5074
इंड	-11.5075
▁मुर्ग	-11.5076
डिट	-11.5084
▁जड़ें	-11.5087
▁अविभक्त	-11.5097
▁विरोधाभास	-11.5097
▁षड्यंत्र	-11.5097
▁आधारशिला	-11.5097
▁संरक्षा	-11.5097
▁पूर्वाग्रह	-11.5097
▁थोडा	-11.5097
▁फ्रेंच	-11.5097
▁वाकई	-11.5097
▁भिक्षु	-11.5097
▁कठिनाइया	-11.5098
▁संभालने	-11.5098
▁संघटक	-11.5107
डीसी	-11.5113
▁गोपनीयता	-11.513
▁शत्रुओं	-11.5136
▁उठती	-11.5141
▁अभियांत्रिकी	-11.5143
▁अमिताभ	-11.5143
▁मार्जिन	-11.5144
▁विद्यासागर	-11.5144
▁श्रवण	-11.5144
▁बरामद	-11.5144
▁लंका	-11.5145
▁निद्रा	-11.5145
▁दर्पण	-11.5148
▁घटनाक्रम	-11.5149
▁स्थाय	-11.515
▁निबन्ध	-11.5154
▁आवेदनपत्र	-11.5155
▁इंद्रिय	-11.5162
▁पनप	-11.5165
▁आकड	-11.5174
▁घिस	-11.5175
▁वंशज	-11.5183
▁दर्शाते	-11.5187
▁पकड	-11.5188
▁स्वयंसेवक	-11.519
▁ऊर्ध्व	-11.519
▁थलग	-11.519
▁नदियां	-11.5191
▁विवेकाधिकार	-11.5192
▁मैग	-11.5195
▁दोहरी	-11.5196
▁प्रांतीय	-11.5215
मार्क	-11.5215
▁उद्ध	-11.5228
▁मार्केट	-11.5235
▁अभूतपूर्व	-11.5238
▁मज़दूर	-11.5238
▁यूनिवर्सिटी	-11.5238
▁आकृष्ट	-11.5238
▁नियामक	-11.5238
▁मजाक	-11.5238
▁जर्नल	-11.5238
▁अड्डे	-11.5239
▁vii	-11.524
▁कामयाब	-11.5241
▁महिमा	-11.5243
▁सेनापति	-11.5247
▁उदासीनता	-11.5259
ard	-11.527
▁स्वतन्त्र	-11.5273
▁ट्व	-11.5275
▁द्रोण	-11.5285
▁प्रवर्तक	-11.5285
▁दुर्भाग्यवश	-11.5286
cl	-11.5288
▁परमेश्वर	-11.5289
शाल	-11.5291
▁राजनेता	-11.5291
▁मोती	-11.5294
ांजलि	-11.5294
जन्म	-11.5306
▁हटकर	-11.5312
मग्न	-11.5319
फोन	-11.5321
▁दिखाए	-11.5322
एससी	-11.5323
▁दूतावास	-11.5333
▁देशीराज्य	-11.5333
▁मेहता	-11.5334
▁hO	-11.5335
▁स्थानापन्	-11.5342
our	-11.5344
▁जिम	-11.5346
फिर	-11.5352
▁अटक	-11.5353
▁लटका	-11.5362
▁किराये	-11.5362
वर्तित	-11.5379
▁चुनौतियां	-11.538
▁मक्खी	-11.538
▁हड्डियों	-11.538
▁दरवाजा	-11.538
▁लॉन्च	-11.5381
▁टिड्ड	-11.5382
▁उल्टी	-11.5382
▁व्यंजन	-11.5382
▁क्रूर	-11.5382
▁मैट्रिक	-11.5382
▁गिर्द	-11.5387
▁संबधित	-11.5391
▁बहाना	-11.5392
▁निकटतम	-11.5395
ud	-11.5401
▁लोकहित	-11.5404
िलक्षित	-11.5407
श्वास	-11.5418
▁सार्वभौम	-11.5418
▁जुडे	-11.5425
▁क्लाइंट	-11.5428
▁नोबेल	-11.5428
▁फर्नीचर	-11.5428
▁स्वीडन	-11.5428
▁रेड्डी	-11.5428
▁मच्छर	-11.5429
▁स्तम्भ	-11.5429
▁उदात्त	-11.5429
▁स्त्रियां	-11.5429
▁पार्टियों	-11.5429
▁वर्जित	-11.543
▁ब्यौरा	-11.543
▁जिंदा	-11.5434
▁दिखाएं	-11.5435
▁अहंकार	-11.5437
NT	-11.545
कृष्ण	-11.5469
▁ज्ह	-11.5472
▁ह्रदय	-11.5477
▁पुनरावृत्ति	-11.5477
▁बिछा	-11.5482
▁सस्ता	-11.5497
▁मुकदमेबाज	-11.5499
▁बाइट	-11.55
र्घ	-11.551
▁लेनदार	-11.5512
▁इंडोनेशिया	-11.5525
▁कांफ्रेंस	-11.5525
▁रुकावट	-11.5525
▁भाजपा	-11.5525
▁उपेक्षित	-11.5525
▁मौर्य	-11.5526
▁नरेंद्र	-11.5528
▁रहस्यमय	-11.553
▁मराठ	-11.553
▁वारिस	-11.5532
▁संयोजक	-11.5534
▁अंधकार	-11.5536
▁सल्ल	-11.5541
▁गाजा	-11.5546
▁जुड़ने	-11.555
▁सप्त	-11.5561
▁अध्यधीन	-11.5574
▁पदोन्नति	-11.5574
▁महासचिव	-11.5574
▁स्तूप	-11.5574
▁दुसरे	-11.5574
▁असहमति	-11.5575
▁वृद्धावस्था	-11.5575
▁कायदा	-11.5576
सन्निकट	-11.5576
▁उलझन	-11.5577
▁धक्का	-11.5578
▁मोचन	-11.558
किसी	-11.5584
▁सर्जन	-11.5594
▁उन्न	-11.5602
▁बाएं	-11.5604
▁ललित	-11.5605
▁मुनि	-11.5621
▁बनेगा	-11.5621
▁फसलें	-11.5621
▁घोड़ा	-11.5623
▁पराजय	-11.5624
▁उथल	-11.5626
▁परिसंघ	-11.5626
▁बोतल	-11.5626
▁रैंक	-11.5627
▁मिर्च	-11.5628
▁प्रजातियां	-11.5629
▁बाड़	-11.5633
▁विचाराधीन	-11.5633
▁सिखाया	-11.5636
▁ढोल	-11.5648
▁पावन	-11.5648
▁प्रदर्शक	-11.5648
▁पर्यवेक्ष	-11.566
▁क्रोमियम	-11.5672
▁निलंबित	-11.5672
▁स्ट्रीम	-11.5672
▁प्रत्यर्थियो	-11.5673
▁चेतन	-11.5674
▁उधारकर्ता	-11.5676
▁राजनीतिज्ञ	-11.5677
▁बिठा	-11.568
▁देशभक्ति	-11.5681
▁हिरण	-11.5681
ind	-11.5687
टीआई	-11.5688
▁वाक्	-11.5692
▁अमे	-11.5692
▁जूते	-11.5694
▁प्रमाणीकरण	-11.5694
▁अकेल	-11.5698
▁संतुष्टि	-11.5701
ik	-11.5712
▁दीक्षा	-11.5717
▁प्रोसेस	-11.5719
▁संबध	-11.5721
▁देनदार	-11.5721
▁मौद्रिक	-11.5722
▁नागालैंड	-11.5722
▁प्रवीण	-11.5722
▁अकसर	-11.5725
▁ब्रह्मांड	-11.5727
▁कोष्ठक	-11.5728
गुआ	-11.5729
▁अलगाव	-11.5729
▁पक्क	-11.5732
▁सपाट	-11.5733
आउट	-11.5733
प्रमाण	-11.5734
▁हिज	-11.5739
▁ko	-11.5746
▁दावेदार	-11.5759
▁आरम्भिक	-11.5759
▁इंग्लिश	-11.5772
▁जिज्ञासा	-11.5772
▁मकसद	-11.5772
▁नक्षत्र	-11.5772
▁निवारक	-11.5772
▁तुल्य	-11.5773
▁अधिरोपण	-11.5776
▁धनुष	-11.5779
▁देहात	-11.5783
▁खिसका	-11.5791
▁मीरा	-11.5798
▁खडे	-11.581
ly	-11.5811
▁नौजवान	-11.5822
▁बंगलौर	-11.5822
▁सैद्धांतिक	-11.5822
▁डाटाबेस	-11.5822
▁गुर्दे	-11.5822
▁org	-11.5822
▁एटीएम	-11.5822
▁सजग	-11.5822
▁सदृश	-11.5822
▁कथानक	-11.5823
▁कैरियर	-11.5823
▁अपमानजनक	-11.5823
▁शोभा	-11.5824
▁राजशाही	-11.5824
▁वरदान	-11.5825
▁गुजार	-11.5825
▁पत्ती	-11.5828
▁मिटाएँ	-11.5829
▁पड़ोसियों	-11.5831
ae	-11.5834
प्रवाह	-11.5835
▁चोल	-11.5837
▁दूरभाष	-11.5838
▁गोल्ड	-11.5838
▁फंच	-11.5844
RI	-11.5846
त्त्व	-11.5856
▁पीटर	-11.5869
▁प्रकोष्ठ	-11.5872
▁बेजबरु	-11.5872
▁उन्नीसवी	-11.5872
▁असुविधा	-11.5872
▁उभरते	-11.5873
▁सस्ती	-11.5873
▁सिक्के	-11.5874
▁खासतौ	-11.5875
▁ऑयल	-11.5875
ोत्सव	-11.5876
▁जन्मजात	-11.5877
म्फ	-11.5887
फॉर्म	-11.589
फोड़	-11.5921
▁उत्कीर्ण	-11.5922
▁कॉपीराइट	-11.5922
▁साँचाः	-11.5922
▁पुनर्निर्माण	-11.5923
LE	-11.5924
▁प्रदाय	-11.5925
फेस	-11.5926
▁लम्बाई	-11.5931
▁स्याय	-11.5932
निर्माण	-11.5936
▁आदर्शवाद	-11.5943
ावधान	-11.5946
▁छन्द	-11.5954
▁समझौत	-11.5956
▁लिहाज	-11.5967
▁परिवीक्षाधीन	-11.5973
▁अभिभावक	-11.5973
▁राहुल	-11.5975
▁बुनियाद	-11.5976
▁जाग्रत	-11.5977
▁पेशाब	-11.5979
▁रीढ़	-11.598
▁राजेन्द्र	-11.598
व्रण	-11.5982
▁तटस्थ	-11.5984
निर्दिष्ट	-11.599
▁असीमित	-11.5992
अनु	-11.5996
▁ब्राह्म	-11.6016
▁दलाल	-11.6016
RA	-11.6018
▁बहिर्	-11.602
▁छानबीन	-11.6024
▁देवेन्द्रनाथ	-11.6024
▁वैचारिक	-11.6024
▁अंतर्वलित	-11.6024
▁उत्तराखंड	-11.6024
▁माइनस	-11.6024
▁पठार	-11.6024
▁प्रतिभाशाली	-11.6026
▁बछड़	-11.6026
▁एकरूपता	-11.6027
▁उकसा	-11.603
▁आनन्दमय	-11.6034
▁मनोहर	-11.6034
▁सिद्व	-11.6035
▁कर्मकार	-11.604
▁पड़ेगी	-11.6042
प्रतिशत	-11.6048
▁घाना	-11.6053
mm	-11.6056
▁आवेश	-11.6061
▁माध्यस्थम	-11.6066
▁अधिनिर्णी	-11.6075
▁एहसास	-11.6075
▁रिपब्लिक	-11.6075
▁न्यायसंगत	-11.6075
▁बस्तियों	-11.6076
▁रूपांतरित	-11.6076
▁जोधपुर	-11.6076
▁रिटर्न	-11.6078
▁जूझ	-11.6079
▁साइंस	-11.6081
▁Ch	-11.6084
▁जूरी	-11.6089
फार्म	-11.6089
▁बहाव	-11.6091
▁प्रत्याशा	-11.6091
भ्रम	-11.6102
▁थोप	-11.6103
▁पिछड़	-11.6108
▁घोल	-11.6111
व्यू	-11.6124
▁अनुषंगी	-11.6127
▁लाइब्रेरी	-11.6127
▁सुप्रसिद्ध	-11.6127
▁विषाक्त	-11.6127
▁सिन्धु	-11.6127
▁ब्राजील	-11.6127
▁कवच	-11.6128
▁gui	-11.613
▁सिक्का	-11.6131
▁उग्रवादी	-11.6131
▁for	-11.6132
▁दूरदर्शन	-11.6134
▁फ़ोटो	-11.6134
ध्वनि	-11.6147
eg	-11.6147
▁कपूर	-11.6149
▁छिपे	-11.6153
▁बकरिय	-11.6171
▁आनुपातिक	-11.6179
▁डिबेंचर	-11.6179
▁लेबनान	-11.6179
▁नर्सिंग	-11.6179
▁मार्टिन	-11.6179
▁दीर्घावधि	-11.6179
▁प्रणालियां	-11.6181
▁मंगोल	-11.6182
▁सन्देह	-11.6183
▁परिचालित	-11.6183
▁बहू	-11.6183
▁सुशासन	-11.6183
▁सामंत	-11.6185
▁आफिस	-11.6188
▁गड्ढ	-11.6188
▁देखिये	-11.6189
▁कैम्प	-11.6189
▁सम्यक	-11.6194
▁मंज	-11.6199
▁आएगी	-11.6205
▁भूरे	-11.6212
▁गुवाहाटी	-11.6231
▁तत्संबंधी	-11.6231
▁सिगरेट	-11.6231
▁कार्यकारिणी	-11.6231
▁स्ट्रीट	-11.6231
▁कमज़ोर	-11.6231
▁चार्ल्स	-11.6231
▁संवेदी	-11.6231
▁शारदा	-11.6231
▁आँकड़ा	-11.6233
▁वृहद	-11.6235
▁असहाय	-11.6257
▁कार्यप्रणाली	-11.6283
▁बुद्धिमत्ता	-11.6283
▁कीमियागर	-11.6283
▁हल्की	-11.6283
▁सामग्रिय	-11.6284
▁हाइड्रोजन	-11.6284
▁प्यास	-11.6285
▁चीख	-11.6289
▁ऐक्ट	-11.63
▁हृद	-11.6305
▁पुनरीक्ष	-11.6328
▁मृदु	-11.6333
▁माय	-11.6333
▁सिपाही	-11.6336
▁आवंटित	-11.6336
▁धब्बे	-11.6336
▁उदारीकरण	-11.6346
▁वर्तनी	-11.6346
▁कच्छ	-11.6347
▁रजिस्ट	-11.6349
▁गणितीय	-11.6359
▁प्रतिभागियो	-11.638
▁अनदेखी	-11.6389
▁बुजुर्ग	-11.6389
▁पन्द्रह	-11.6389
▁फिलहाल	-11.6389
▁साउथ	-11.6389
▁संबोधन	-11.6389
▁फोकस	-11.6389
▁सोपान	-11.6389
▁अर्हता	-11.6389
▁खयाल	-11.6389
▁नर्तक	-11.6391
भ्रंश	-11.6391
▁तख्त	-11.6394
▁खोखल	-11.6394
▁थैली	-11.6395
िनद्	-11.6398
▁छुप	-11.6404
▁इकट्ठ	-11.6411
▁डबल	-11.6413
▁चीफ	-11.6416
▁यूएस	-11.6429
IT	-11.6437
▁आदमियों	-11.6442
▁गठबंधन	-11.6442
▁डब्लू	-11.6442
▁तालिबान	-11.6442
▁पांडुलिपि	-11.6442
▁शर्करा	-11.6442
▁निरूपण	-11.6442
▁अपलोड	-11.6442
▁गुरबख्श	-11.6442
▁पहुच	-11.6442
▁घोंसल	-11.6442
▁अलंकार	-11.6442
▁मीनार	-11.6444
▁डाउन	-11.6445
रूद्ध	-11.6445
ill	-11.645
▁बैग	-11.6456
▁मिलेंगे	-11.6466
▁संकुल	-11.6471
▁यूरेनियम	-11.6495
▁संश्लेषण	-11.6495
▁सांविधानिक	-11.6495
▁सिलसिले	-11.6495
▁सिकंदर	-11.6495
▁पोशाक	-11.6496
▁संचलन	-11.6496
▁मनोरम	-11.6502
राशि	-11.6502
▁साझेदार	-11.6504
▁निकास	-11.6505
▁प्रत्यय	-11.6519
आरसी	-11.6523
▁ख़रीद	-11.6531
▁गुदा	-11.6537
▁हिट	-11.654
▁चुकौती	-11.6549
▁ट्रिब्यूनल	-11.6549
▁प्रतिस्पर्धी	-11.6549
▁विचलित	-11.6549
▁इशारा	-11.6549
▁आइटम	-11.6549
▁अनेकानेक	-11.6549
स्फूर्त	-11.6549
▁सब्जी	-11.6549
▁एकाएक	-11.655
▁पीडित	-11.655
▁शुक्ल	-11.6551
▁पोषित	-11.6553
▁विपत्ति	-11.6561
▁शहद	-11.6561
कण्ठ	-11.6561
▁सेटिंग्स	-11.6565
▁शशि	-11.6567
▁चिपक	-11.6568
▁डायरी	-11.6569
▁मॉँ	-11.6574
▁उदासीन	-11.658
▁कार्यान्व	-11.6591
ib	-11.6602
▁एजेन्सी	-11.6603
▁वाराणसी	-11.6603
▁सुव्यवस्थित	-11.6603
▁सूत्रकृमि	-11.6603
▁उत्तीर्ण	-11.6603
▁परिपाटी	-11.6603
▁वायुसेना	-11.6603
▁द्रविड़	-11.6603
▁कुर्की	-11.6603
▁छठे	-11.6604
▁रोगाणु	-11.6608
बीआई	-11.6609
▁पुर्न	-11.6618
▁प्रक्रमण	-11.6629
▁सफर	-11.6633
▁सुधर	-11.6647
▁तत्पश्चात	-11.6648
डब्ल्यू	-11.6652
▁चालुक्य	-11.6658
▁महाभियोग	-11.6658
▁पुरोहित	-11.6658
▁अवशिष्ट	-11.6658
▁मुनाफा	-11.6658
▁सहभागी	-11.6658
▁क्षुद्र	-11.6658
▁मोर्चे	-11.6658
▁खजाने	-11.6658
▁चुम्बक	-11.6658
▁बोनस	-11.6658
▁भगवती	-11.6659
▁त्रिकोण	-11.666
▁अनुपम	-11.666
▁छठी	-11.6664
▁जनशक्ति	-11.6667
▁वार्ड	-11.667
▁मतदाताओं	-11.6677
▁सादे	-11.6679
▁कहेंगे	-11.668
युक्	-11.6681
▁नाटककार	-11.6687
▁लोहा	-11.6697
▁घुड़सवार	-11.6712
▁नैसर्गिक	-11.6712
▁संकुचित	-11.6712
▁ज्येष्ठ	-11.6712
▁भ्रामक	-11.6712
▁अंकुश	-11.6712
▁कबील	-11.6713
▁जागरण	-11.6716
▁बर्बर	-11.6718
▁निगाह	-11.6719
ting	-11.672
सीबी	-11.6725
प्रसाद	-11.6725
▁इस्ते	-11.6733
कंटक	-11.6742
▁बंधे	-11.6755
मिक्स	-11.6763
▁अनदेखा	-11.6767
▁अनवरत	-11.6767
▁यत्न	-11.6767
▁नैगम	-11.6769
▁मनोमय	-11.6773
▁रेटिंग	-11.6773
▁अविलय	-11.6774
▁रक़्त	-11.6774
▁पतंग	-11.6797
▁शिकायतकर्ता	-11.6805
▁दिखायें	-11.6809
▁नीड़	-11.6816
▁गंधर्व	-11.6822
▁समनुदेशन	-11.6822
▁समीक्षक	-11.6822
▁शिवाजी	-11.6823
▁मातृभाषा	-11.6823
▁धुंधल	-11.6823
▁अन्तरराष्ट्रीय	-11.6824
▁ब्यू	-11.6825
लोचन	-11.6827
▁भूभाग	-11.6828
▁पर्याय	-11.683
▁अंग्रेज़	-11.6841
फेर	-11.6852
ग्राह	-11.6852
▁मुर्गिय	-11.686
▁विनिधानकर्ता	-11.6862
▁विभक्त	-11.6868
▁मोनो	-11.6869
▁घटिया	-11.6875
▁वैश्व	-11.6877
▁अवक्षयण	-11.6878
▁आशीर्वाद	-11.6878
▁कारपोरेट	-11.6878
▁सराहनीय	-11.6878
▁नायडू	-11.6878
▁मलेशिया	-11.6878
▁सूरदास	-11.6879
▁आत्मकथा	-11.688
प्रेरित	-11.6882
▁प्रारुप	-11.6882
▁तेजाब	-11.6882
लब्ध	-11.6883
▁मज्जा	-11.6883
नियोजित	-11.6884
▁नवीकरणीय	-11.6888
▁उपनिवेशवाद	-11.6889
▁पदधारी	-11.6891
वैज्ञानिक	-11.6891
गर्त	-11.6893
▁झूल	-11.6894
वाचक	-11.6898
▁विलीन	-11.6899
▁चुरा	-11.6909
▁क्षार	-11.6913
▁हफ्त	-11.6916
▁ह्यू	-11.6921
▁लतीफ	-11.6921
▁दफ्तर	-11.6934
▁शुभारंभ	-11.6934
▁इंस्टॉल	-11.6934
▁खाण्डे	-11.6934
▁संचालक	-11.6934
ेटेड	-11.6934
▁अल्पावधि	-11.6935
▁निषिद्ध	-11.6936
▁स्केल	-11.6946
▁समवर्ती	-11.6953
▁फाल	-11.6959
▁भुजा	-11.6959
छेदन	-11.699
▁क़ुरआन	-11.699
▁सांकेतिक	-11.699
▁हथकरघा	-11.699
▁तात्विक	-11.699
▁विस्मय	-11.699
▁सेमिनार	-11.699
▁अपरिचित	-11.6991
▁कन्नड़	-11.6992
▁अभिनव	-11.6992
▁बदनाम	-11.6994
▁स्कंध	-11.6996
▁पूर्त	-11.7004
▁नाभि	-11.7005
▁राशन	-11.7005
▁कलंक	-11.7017
▁हसन	-11.7024
▁खरीदार	-11.7027
मूर्तियों	-11.7042
▁एचपीसीएल	-11.7047
▁स्थापत्य	-11.7047
▁काउंटर	-11.7047
▁जीवाश्म	-11.7047
▁सम्मिश्रण	-11.7047
▁बृहत्	-11.7047
▁हिटलर	-11.7047
▁वसंत	-11.7048
▁हलचल	-11.7051
▁ईमानदार	-11.7055
all	-11.7055
▁बनर्जी	-11.7056
▁चौंक	-11.7058
मिजाज	-11.7065
▁नाड़ी	-11.7074
टेक्स	-11.7081
▁एक्सप्रेस	-11.7103
▁महमूद	-11.7103
▁अव्यवस्था	-11.7103
▁रिचर्ड	-11.7103
▁फौरन	-11.7103
▁अवार्ड	-11.7103
▁व्यवधान	-11.7104
▁नायिका	-11.7104
▁मुस्करा	-11.7105
▁सौम्य	-11.7108
▁सम्पदा	-11.711
द्दाम	-11.7118
▁सूच	-11.7119
▁कभार	-11.7121
िजनों	-11.7135
▁अशक्त	-11.7138
▁कैट	-11.7148
▁खुफिया	-11.7161
▁अनगिनत	-11.7161
▁रक्तचाप	-11.7161
▁शौचालय	-11.7161
▁इण्डिया	-11.7161
▁उल्टा	-11.7161
▁व्यथित	-11.7161
▁उछाल	-11.7161
▁समज्ह	-11.7161
▁तदर्थ	-11.7161
▁बैकअप	-11.7161
▁पुनर्विचार	-11.7162
▁जहॉँ	-11.7162
▁सौदों	-11.7164
▁ex	-11.7164
▁संतति	-11.7176
प्रसू	-11.7209
▁बहुआयाम	-11.7218
▁बहुपक्षीय	-11.7218
▁हरिश्चन्द्र	-11.7218
▁अब्बास	-11.7218
▁निबटा	-11.7218
▁दोहरे	-11.7218
▁अल्पकालिक	-11.722
▁सम्भवतः	-11.7223
▁धागे	-11.7227
aw	-11.7246
ies	-11.7256
age	-11.7259
▁समेट	-11.7261
▁साम्राज़्यवाद	-11.7266
▁जुग	-11.727
▁राइट	-11.7272
▁प्रदूषित	-11.7276
▁मिजोरम	-11.7276
▁गुम्बद	-11.7276
▁अस्थाई	-11.7276
▁प्रसूति	-11.7276
▁सतीश	-11.7276
▁स्पर्धा	-11.7277
▁बर्बाद	-11.7277
▁प्लगिन	-11.7279
▁पडेगा	-11.7281
▁चादर	-11.7284
▁पण्य	-11.7285
▁बन्धन	-11.7289
▁विवेकपूर्ण	-11.7291
दोष	-11.7299
सूचक	-11.7302
▁महाजन	-11.7321
▁महिल	-11.7323
▁देशभक्त	-11.7324
▁प्रज्ञा	-11.7325
चेंज	-11.7329
▁निःसंदेह	-11.7334
▁पूर्वावलोकन	-11.7334
▁विनिर्माता	-11.7334
▁स्तुति	-11.7334
▁पौष्टिक	-11.7334
▁मुलायम	-11.7334
▁आरोहण	-11.7334
▁टेक्स्ट	-11.7334
▁तितली	-11.7334
▁शिलालेख	-11.7334
▁गर्भपात	-11.7335
▁मानदण्ड	-11.7337
▁टुकड	-11.7342
▁पुर्ज	-11.7347
▁गोबर	-11.7348
पीआर	-11.7349
वार्षिक	-11.7357
शंकाओं	-11.739
▁ग्रीनहाउस	-11.7392
▁चेन्नम्मा	-11.7392
▁विश्लेषक	-11.7392
▁शाब्दिक	-11.7392
▁भयावह	-11.7392
▁उमीद	-11.7393
▁मिसाल	-11.7393
▁सस्ते	-11.7393
▁प्रक्षेप	-11.7395
▁उर्जा	-11.7395
▁सर्दी	-11.7398
▁बंदूक	-11.7401
▁डंड	-11.7404
▁फ्रांसिस	-11.7406
▁ख़ास	-11.7413
▁स्वै	-11.7416
▁अधिवास	-11.7419
▁नर्मदा	-11.7451
▁कारखानों	-11.7451
▁पुरातत्व	-11.7451
▁संप्रभु	-11.7451
▁अस्वस्थ	-11.7451
▁अयस्क	-11.7455
▁चूर्ण	-11.7456
▁प्रवर्तित	-11.7457
▁समांतर	-11.7459
▁उर्वर	-11.7487
▁सियारामशरण	-11.751
▁दुरूपयोग	-11.751
▁यादृच्छिक	-11.751
▁रिफाइनरी	-11.751
▁वायसराय	-11.751
▁श्रोणि	-11.751
▁सेंट्रल	-11.751
▁तारामंडल	-11.7511
▁पलायन	-11.7512
▁पतला	-11.7512
▁सर्जनात्मक	-11.7513
▁पशुधन	-11.7514
▁संवेदन	-11.7514
▁बत्ती	-11.7518
▁ज्योतिष	-11.7523
▁पूति	-11.7524
परीक्षित	-11.7531
रेंस	-11.7541
ET	-11.7559
स्फीति	-11.7569
▁अफगान	-11.757
युकत	-11.757
▁आईएफसीआई	-11.757
▁उबुन्ट	-11.757
▁मसौदा	-11.757
▁विज्ञप्ति	-11.757
▁अनोखा	-11.757
▁मोर्चा	-11.757
▁परिधीय	-11.757
भाऊ	-11.757
▁मनमाने	-11.757
▁फोटोग्राफ	-11.7571
▁मेहराब	-11.7571
ाइजेशन	-11.7573
▁उदयपुर	-11.7574
▁कीर्तन	-11.7574
▁अहिंस	-11.7575
▁कैंप	-11.7576
▁प्रतिभावान	-11.7577
▁खांसी	-11.7577
▁सुझाया	-11.7578
▁निन्दा	-11.7582
▁खिलफ	-11.7583
▁ब्लाक	-11.7597
▁नॉर	-11.7603
▁स्टॉ	-11.7605
▁आच्छादित	-11.763
▁इक्विटी	-11.763
▁बहुसंख्यक	-11.763
▁वॉल्यूम	-11.763
▁अधीक्षक	-11.763
▁सिक्कों	-11.763
▁घोड़ों	-11.763
▁ग्रसनी	-11.763
▁इंटरफेस	-11.763
▁टनभार	-11.7632
▁जयदेव	-11.7634
▁वैभव	-11.7634
▁निम्नानुसार	-11.7634
▁प्लेयर	-11.7635
▁सूफी	-11.7635
▁सज्जा	-11.7637
tic	-11.7641
▁अध्यात्म	-11.7662
▁फैसल	-11.7664
रत्न	-11.7666
▁फेडरल	-11.769
▁बायोगैस	-11.769
▁पहाडिय	-11.769
▁पॉलि	-11.769
▁श्रोताओं	-11.769
▁शुक्रवार	-11.7692
▁हिस्सेदारी	-11.7692
यात्रा	-11.7694
▁सावधानीपूर्वक	-11.7694
▁दुगुन	-11.7696
▁एक्सेस	-11.7705
▁हताश	-11.7705
▁ग्रीक	-11.7705
भक्षी	-11.7708
▁टिप्पणिय	-11.7712
▁स्क्व	-11.7716
▁उद्धार	-11.774
ओगे	-11.7751
▁ईर्ष्या	-11.7751
▁उत्पीड़न	-11.7751
▁चुनिंदा	-11.7751
▁त्रासदी	-11.7751
▁द्वेष	-11.7751
▁खलीफा	-11.7751
▁डेनमार्क	-11.7751
▁मृत्युदण्ड	-11.7751
▁सावरकर	-11.7751
▁सामयिक	-11.7751
▁खजाना	-11.7751
▁चटर्जी	-11.7751
▁प्रखर	-11.7751
▁व्हाइट	-11.7751
▁ग्राफिक्स	-11.7752
▁बंजर	-11.7752
▁रिव्यू	-11.7752
▁गंवा	-11.7756
▁रेशे	-11.7759
▁ट्रेडिंग	-11.7761
चिह्न	-11.7791
▁अंतरराष्ट्री	-11.7804
▁रहस्यवाद	-11.7808
▁असुरक्षित	-11.7812
▁उज्ज्वल	-11.7812
▁अभिकथित	-11.7812
▁आक्सीजन	-11.7812
▁प्रशंसनीय	-11.7812
▁मजहब	-11.7812
▁वगैरह	-11.7812
▁अग्रेषित	-11.7812
▁अवयस्क	-11.7812
▁बंकिम	-11.7812
▁समीचीन	-11.7812
▁मद्देनज	-11.7812
▁जन्मदिन	-11.7812
▁अधूरा	-11.7812
▁खामोश	-11.7812
▁पत्तियां	-11.7812
▁शंख	-11.7812
▁प्रयाग	-11.7812
▁कावेरी	-11.7813
▁गुरुदेव	-11.7818
yaa	-11.7818
▁आखिरकार	-11.7819
मस्तिष्क	-11.7855
▁ढाँचा	-11.7873
▁उत्प्रेरक	-11.7873
▁न्यूयॉर्क	-11.7873
▁वाल्मीकि	-11.7873
▁शाहजहाँ	-11.7873
▁उपजाऊ	-11.7873
▁ऑक्सीजन	-11.7873
▁लाभान्वित	-11.7873
▁उछल	-11.7873
▁पत्निय	-11.7873
▁उपधारणा	-11.7874
▁ख़त्म	-11.7875
▁पूर्वजों	-11.7877
▁इत्या	-11.788
▁बेगम	-11.7887
▁पोलियो	-11.7903
पायर	-11.7909
द्वीप	-11.7916
एसटी	-11.7917
▁END	-11.7935
▁ग्रामोद्योग	-11.7935
▁पैतृक	-11.7935
▁फायदों	-11.7935
▁सर्वसाधारण	-11.7935
▁जिलाधीश	-11.7935
▁संगमर्मर	-11.7935
▁निरक्षर	-11.7935
▁सर्जरी	-11.7935
▁अँधेर	-11.7935
▁शिमला	-11.7935
▁अनुशंसा	-11.7935
▁मलाशय	-11.7938
▁अभिवृद्धि	-11.7939
▁पारेषण	-11.794
▁जकड़	-11.7957
▁अनुक्रिया	-11.7995
▁दृढ	-11.7995
▁स्कोर	-11.7996
▁आयुर्विज्ञान	-11.7997
▁न्यायात्रय	-11.7997
▁गुस्सा	-11.7997
▁गोविन्द	-11.7997
▁टिकाऊ	-11.7997
▁अलंकृत	-11.7997
▁प्रिंस	-11.7997
log	-11.7998
▁चंचल	-11.7998
▁परिकलित	-11.7999
▁रविवार	-11.7999
▁किनारा	-11.8003
▁पागलपन	-11.8008
▁झोंक	-11.8028
पाणि	-11.8029
शून्य	-11.8049
▁चाहूंगी	-11.8059
▁जेरूसलम	-11.8059
▁प्रबुद्ध	-11.8059
▁मॉनिटर	-11.8059
▁स्क्रॉल	-11.8059
▁अनोखी	-11.8059
▁केंद्रशास	-11.8059
▁मुयमंत्र	-11.806
▁गर्भगृह	-11.806
▁ट्रान्स	-11.8061
▁महारानी	-11.8063
▁फिलिप	-11.8067
▁बिंब	-11.8071
विवेक	-11.8091
▁प्रस्तु	-11.81
पार्श्व	-11.8122
▁इंग़्लै	-11.8122
▁तपस्या	-11.8122
▁सम्पादन	-11.8122
▁The	-11.8122
▁बैंकनोट	-11.8122
▁चरितार्थ	-11.8122
▁नगण्य	-11.8122
▁शहीद	-11.8123
▁दूरबीन	-11.8123
▁दखल	-11.8123
▁जुलूस	-11.8123
▁स्वरयंत्र	-11.8124
▁बरबाद	-11.8125
▁पाठशाला	-11.8127
▁परिभान	-11.8128
▁रिलीज	-11.8141
▁सत्कार	-11.8165
▁अपवर्जित	-11.8186
▁जस्टिस	-11.8186
▁अलंकरण	-11.8186
▁मेन्यू	-11.8186
▁अजमेर	-11.8187
able	-11.8187
▁माइकल	-11.8187
▁विनिश्चित	-11.8189
▁संशय	-11.8189
▁pro	-11.819
▁प्रोसेसिंग	-11.8191
▁उष्ण	-11.8192
est	-11.8197
▁आसाम	-11.8213
▁ब्राउज़	-11.8219
▁चाइल्ड	-11.8249
▁उपनिषदों	-11.8249
▁फेडरेशन	-11.8249
▁मनपसंद	-11.8249
▁सल्फर	-11.8249
▁समेकन	-11.8249
▁जन्तु	-11.8249
▁असहयोग	-11.8251
कार्बनिक	-11.8251
▁बाईं	-11.8252
▁ख़ुद	-11.8252
▁फ़ॉर	-11.8259
ED	-11.8287
शब्द	-11.8313
▁धर्मनिरपेक्ष	-11.8313
▁उपमहाद्वीप	-11.8313
▁कॉर्पोरेट	-11.8313
▁तंबाकू	-11.8313
▁दृष्टिगोचर	-11.8313
▁प्रियव्रत	-11.8313
▁प्रोद्भूत	-11.8313
▁बुराइयों	-11.8313
▁मशहूर	-11.8313
▁शपथपत्र	-11.8316
▁वृषण	-11.8316
▁लज्जा	-11.8317
▁प्रास्थिति	-11.8317
▁ब्लॉग	-11.8318
▁गोलाकार	-11.8323
▁परामर्शदाता	-11.8344
▁बृहत	-11.8377
▁जिन्होने	-11.8378
▁स्थायित्व	-11.8378
▁गुस्से	-11.8378
▁मथुरा	-11.8378
▁असफ़ल	-11.8378
▁विलुप्त	-11.8378
▁ढाका	-11.8379
▁मूत्राशय	-11.8379
▁कारखाना	-11.838
▁वैश्वीकरण	-11.838
ोलॉजी	-11.8382
▁बाजू	-11.8385
▁स्ट्रे	-11.8387
▁मास्को	-11.8389
▁जिम्मेवार	-11.8397
दीप्ति	-11.8413
▁बिजनेस	-11.8443
▁बृहद	-11.8443
▁अराजकता	-11.8443
▁पालतू	-11.8443
▁बेहोश	-11.8443
▁उपादान	-11.8443
▁गद्दी	-11.8443
▁ध्वस्त	-11.8443
▁पैराग्राफ	-11.8444
▁महोत्सव	-11.8444
▁बंगलादेश	-11.8444
▁साइबर	-11.8446
▁पैलेस	-11.8446
▁बन्धक	-11.8448
▁टोल	-11.845
▁घारा	-11.8451
▁प्रणाल	-11.8452
▁हारान	-11.8457
रूपेण	-11.8479
साहेब	-11.848
▁अंधविश्वास	-11.8508
▁ओडिशा	-11.8508
▁क़ुरान	-11.8508
▁मांसपेशी	-11.8508
▁डीवीडी	-11.8508
▁बुकमार्क	-11.8508
▁हेनरी	-11.8508
▁सूडान	-11.8509
▁कस्टम	-11.8509
▁परिशिष्ट	-11.851
port	-11.8511
▁मनोविज्ञान	-11.8511
▁कर्सर	-11.8512
▁चालान	-11.8516
▁फ़्ल	-11.8516
न्वित	-11.8522
▁तौल	-11.8523
▁कूल्ह	-11.8528
ath	-11.8538
ome	-11.8553
▁सकूं	-11.8553
▁पांडिच	-11.8574
▁अमानवीय	-11.8574
▁आधिपत्य	-11.8574
▁एनालॉग	-11.8574
▁चयापचय	-11.8574
▁न्यूजीलैंड	-11.8574
▁कंट्रोल	-11.8574
▁फाइबर	-11.8574
ऊँगा	-11.8578
▁मसीह	-11.8578
▁लिप्त	-11.8583
▁दलदल	-11.8583
वृक्ष	-11.8592
पुच्छ	-11.8596
▁भूतकाल	-11.86
▁शलभ	-11.8606
▁इस्तीफा	-11.864
▁कॉर्पोरेशन	-11.864
▁ज़िम्मेदार	-11.864
▁जॉर्डन	-11.864
▁बर्खास्त	-11.864
▁छिड़काव	-11.864
▁पक्षाघात	-11.864
▁वानिकी	-11.864
▁विवाद्यक	-11.8641
▁रेखाचित्र	-11.8643
▁दयालु	-11.8643
▁चमड़े	-11.8644
▁पुनर्वित्त	-11.8644
सामान्य	-11.8644
▁स्टार्ट	-11.8649
स्पर्श	-11.8656
ज्जत	-11.8686
▁द्योतक	-11.8707
▁न्यायाधिकरण	-11.8707
▁सिलसिला	-11.8707
▁प्रकीर्ण	-11.8707
▁बैरिस्टर	-11.8707
▁संसाधित	-11.8707
▁निर्बाध	-11.8707
▁बतौर	-11.8707
▁अफवाह	-11.8707
▁भरोसे	-11.8707
▁प्रत्याशित	-11.8707
▁सिकुड़	-11.8707
▁अतिशय	-11.8708
▁तरक्की	-11.8708
▁मनोनीत	-11.8708
▁संग्रहीत	-11.8708
▁कारागार	-11.871
परायण	-11.8712
▁स्टीव	-11.8743
▁तीर्थयात्र	-11.8747
▁शीट	-11.8762
ोपाध्याय	-11.8774
▁उत्सर्जित	-11.8774
▁गोखले	-11.8774
▁अनुपयुक्त	-11.8774
▁सम्मिलन	-11.8774
▁परात्पर	-11.8774
▁पाण्डव	-11.8774
▁धड़कन	-11.8774
▁रबड़	-11.8774
▁खातिर	-11.8774
छिन्न	-11.8774
▁सहनशीलता	-11.8775
▁उद्यमशीलता	-11.8777
▁मातृत्व	-11.8778
▁ईराक	-11.878
▁परोपकार	-11.8788
▁दुविधा	-11.8792
ug	-11.8841
▁अत्याधुनिक	-11.8841
▁अफसोस	-11.8841
▁इंग्लैण्ड	-11.8841
▁डेमोक्रेट	-11.8841
▁तम्बाकू	-11.8841
▁इरादे	-11.8841
▁अभिवचन	-11.8841
▁हकीकत	-11.8841
▁किंगडम	-11.8842
▁क्रान्ति	-11.8842
▁फ्लैट	-11.8843
▁हिचक	-11.8847
परिभाषित	-11.8863
दयाल	-11.89
▁कलकत्ते	-11.891
▁गवर्नमेंट	-11.891
▁मेधावी	-11.891
▁क्रॉस	-11.891
▁मैनुअल	-11.891
▁पहेली	-11.891
▁बाधक	-11.891
▁भाजक	-11.891
▁पर्दे	-11.8916
▁चिट्ठी	-11.8978
▁दुर्योधन	-11.8978
▁दुर्व्यवहार	-11.8978
▁पाउडर	-11.8978
▁पिक्सेल	-11.8978
▁विवादास्पद	-11.8978
▁जबर्दस्त	-11.8978
▁सिन्हा	-11.8978
▁उपदर्शित	-11.8978
▁पुजारी	-11.8978
▁कर्मकांड	-11.8978
ोपरांत	-11.8978
द्रष्टा	-11.8978
▁हवेली	-11.8978
▁क्षितिज	-11.8978
▁उन्माद	-11.8978
▁पसीना	-11.8978
▁स्टार्टअप	-11.8978
▁मुजरा	-11.8978
▁प्लेटफार्म	-11.8978
▁मुहावर	-11.8978
▁मार्शल	-11.8979
▁पेयजल	-11.8979
▁हितलाभ	-11.898
▁चूँक	-11.8981
▁नीरस	-11.8982
▁एकमेव	-11.8983
शोष	-11.9018
▁अविश्वसनीय	-11.9047
▁उपनिषद्	-11.9047
▁ओड़िसा	-11.9047
▁कंप्यूटिंग	-11.9047
▁वेशभूषा	-11.9047
▁गणमान्य	-11.9047
▁हज़रत	-11.9047
▁जादुई	-11.9047
▁डायरेक्ट	-11.9047
▁गूंज	-11.9047
▁आयताकार	-11.9047
▁निश्चल	-11.9048
▁फॉन्ट	-11.9048
▁अन्तरात्मा	-11.9048
▁जहरील	-11.9049
▁ग्राह्य	-11.9049
जिसपर	-11.9049
▁परिसंपत्तियां	-11.905
▁फैशन	-11.9059
▁विभूति	-11.9096
▁उद्देशिका	-11.9116
▁दशरथ	-11.9116
▁भर्त्सना	-11.9116
▁वर्चुअल	-11.9116
▁विध्वंस	-11.9116
▁हस्तांतरित	-11.9116
▁आमंत्रण	-11.9116
▁निराश्रित	-11.9116
▁बगीचे	-11.9116
▁इलैक्ट्रानिक	-11.9116
▁पार्वती	-11.9116
▁उखाड़	-11.9117
▁गन्ने	-11.9117
▁लालटेन	-11.9117
▁बूढ़ा	-11.9117
▁शंकराचार्य	-11.9117
निर्धारित	-11.9147
प्रतिस्पर्धात्मक	-11.9167
▁हाइड्रो	-11.9185
▁अभ्यावेदन	-11.9186
▁कैल्शियम	-11.9186
▁फ़िल्टर	-11.9186
▁महत्वाकांक्षी	-11.9186
▁मुमकिन	-11.9186
▁ईसाइयों	-11.9186
▁धरातल	-11.9186
▁चौबीस	-11.9186
▁फाइनल	-11.9186
▁ब्लेयर	-11.9186
▁प्रांगण	-11.9186
▁ओजोन	-11.9186
▁कालिदास	-11.9186
▁बक्से	-11.9187
link	-11.9187
▁बुनकर	-11.9187
▁चतुष्	-11.9187
▁जठर	-11.9188
▁जघन	-11.9189
“	-11.9223
▁रजिस्ट्री	-11.9255
▁इन्टरनेट	-11.9257
▁काउंटी	-11.9257
▁थोरियम	-11.9257
▁बेवकूफ	-11.9257
▁समसामयिक	-11.9257
▁हस्पताल	-11.9257
▁बलात्कार	-11.9257
▁शिकागो	-11.9257
▁संवीक्षा	-11.9257
▁मालदीव	-11.9257
▁बंधपत्र	-11.9257
▁स्टेडियम	-11.9257
▁तिलहन	-11.9259
▁सूत्रपात	-11.9259
▁कागजात	-11.9263
▁सीढ़िय	-11.9265
▁परिकलन	-11.9282
ust	-11.9285
▁प्रशिक्षक	-11.9328
▁परिक्रमा	-11.9328
▁अभिशाप	-11.9328
▁फ़रीद	-11.9328
▁कड़ियाँ	-11.9328
▁झटके	-11.9328
▁सादगी	-11.9328
▁सरोकार	-11.9328
▁सीढ़ी	-11.9328
▁वेदान्त	-11.9332
▁रीडर	-11.9332
कल्चर	-11.9333
ace	-11.9336
लंघन	-11.9347
पयोगी	-11.9372
▁ऋणदाता	-11.9384
▁आक्रोश	-11.9399
▁गवर्नेंस	-11.9399
▁ढाँचे	-11.9399
▁मॉरिशस	-11.9399
▁हार्मोन	-11.9399
▁डिब्बे	-11.9399
▁दरवाज़े	-11.9399
▁साबुन	-11.9399
▁अडिग	-11.94
▁प्रकोप	-11.94
▁भीष्म	-11.94
▁अंतर्वस्तु	-11.94
▁टाउन	-11.9401
डऋए	-11.9437
▁विक्टोरिया	-11.9471
▁यौवन	-11.9471
▁सब्जियां	-11.9471
▁क्षोभ	-11.9471
▁नक्काशी	-11.9471
▁विसंगति	-11.9471
▁आईएसओ	-11.9471
▁गर्भधारण	-11.9472
▁मदिरा	-11.9472
▁स्वादिष्ट	-11.9472
▁तालीम	-11.9472
▁पशुपालन	-11.9472
▁विद्यापीठ	-11.9472
▁शरियत	-11.9472
▁स्लाइड	-11.9473
▁समाशोधन	-11.9473
▁मनीष	-11.9483
▁अंगुलि	-11.9499
▁नवयुवक	-11.9544
▁निःस्वार्थ	-11.9544
▁सल्तनत	-11.9544
▁मसालों	-11.9544
▁प्यूपा	-11.9544
▁दीपावली	-11.9544
▁नदियाँ	-11.9544
▁विपुल	-11.9544
▁चन्दु	-11.9544
▁नरेन्द्र	-11.9547
▁भतीज	-11.9551
मिज़ाज	-11.956
▁इंजेक्शन	-11.9617
▁उत्खनन	-11.9617
▁बीकानेर	-11.9617
▁मधुमक्खी	-11.9617
▁आवागमन	-11.9617
▁डिब्बा	-11.9617
▁निरहता	-11.9617
▁लन्दन	-11.9617
ईजीपी	-11.9617
▁विखंडन	-11.9617
▁बिगाड़	-11.9617
▁नेहरु	-11.9617
▁अंगूठ	-11.9617
▁ऐंठन	-11.9618
▁नौवहन	-11.9618
▁लैटिन	-11.9618
▁अनंतिम	-11.9619
▁हैल्थ	-11.9619
ग्रन्थ	-11.9638
ानुभूति	-11.9689
▁इंसुलिन	-11.969
▁द्रौपदी	-11.969
▁संवितरण	-11.969
▁अनूदित	-11.969
▁परिकल्पित	-11.969
▁निलंबन	-11.969
▁अजनबी	-11.969
▁पुतली	-11.969
▁बॉम्बे	-11.969
▁मेहमान	-11.969
▁उपायुक्त	-11.969
▁ख़राब	-11.969
▁प्रतियोगी	-11.969
▁नालंदा	-11.9691
▁कीजिये	-11.9691
▁आज्ञापक	-11.9692
▁मनोवृत्ति	-11.9693
▁अर्हक	-11.9712
विधाओं	-11.9718
▁ऑप्टिकल	-11.9764
▁क़ानून	-11.9764
▁देहरादून	-11.9764
▁संस्मरण	-11.9764
▁फ़रवरी	-11.9764
▁पायलट	-11.9764
▁हुक्म	-11.9764
▁संबन्धी	-11.9764
▁मक़्ख	-11.9764
▁रमेश	-11.9764
▁मोतीलाल	-11.9765
▁शौर्य	-11.9765
▁क्षत्रिय	-11.9765
▁वज़न	-11.9765
▁रूढि	-11.9767
▁निर्धारक	-11.9786
बन्दी	-11.9823
डऋई	-11.9825
▁असंतुलन	-11.9839
▁कैलेंडर	-11.9839
▁नैदानिक	-11.9839
▁पुनर्जागरण	-11.9839
▁रूकावट	-11.9839
▁सेंटीमीटर	-11.9839
ोत्पादक	-11.9839
▁खुजली	-11.9839
▁प्रच्छन्न	-11.9839
▁अय्यर	-11.9839
▁थोडी	-11.9839
संतृप्त	-11.9839
▁चौहान	-11.984
▁कांस्य	-11.9841
▁आईपीसी	-11.986
दंश	-11.9861
▁ठिकान	-11.9862
▁कमोडिटी	-11.9914
▁गोदावरी	-11.9914
▁तादात्म्य	-11.9914
▁राजकोषीय	-11.9914
▁सज्जित	-11.9914
▁फेफड़े	-11.9914
▁बीबीसी	-11.9914
▁संगमरमर	-11.9914
▁पुथल	-11.9914
▁नब्बे	-11.9914
▁दण्डादेश	-11.9915
▁द्वास	-11.9915
▁key	-11.999
▁अनभिज्ञ	-11.999
▁निरंकुश	-11.999
▁यथोचित	-11.999
▁स्टांप	-11.999
स्फुट	-11.999
▁उष्म	-11.9991
▁श्रृंगार	-11.9991
▁फँस	-11.9991
▁इलेक्ट्रॉ	-12.0065
▁आनुषंगिक	-12.0066
▁एजेंसियां	-12.0066
▁कॉरपोरेट	-12.0066
▁टैरिफ	-12.0066
▁मुस्कुरा	-12.0066
▁अंतरफलक	-12.0066
▁शिक्षार्थियों	-12.0066
▁पीढी	-12.0066
▁चक्रवात	-12.0066
▁नितांत	-12.0067
▁पुनर्जीवि	-12.0073
लहरी	-12.0081
▁स्वशास	-12.0109
▁जिम्मे	-12.0118
▁कन्नड	-12.0141
▁अन्तर्विष्ट	-12.0143
▁पुरःस्थापित	-12.0143
▁प्रफुल्ल	-12.0143
▁प्राक्कलन	-12.0143
▁माइक्रोसॉफ्ट	-12.0143
▁कदाचित	-12.0143
▁खिड़किय	-12.0143
▁सविनय	-12.0143
▁बारंबार	-12.0143
▁छद्म	-12.0143
▁तंबू	-12.0143
▁ज्वालामुखी	-12.0143
▁क्षयरोग	-12.0144
▁शरणार्थी	-12.0144
▁ख़ुश	-12.0144
▁सिंहासन	-12.0145
▁नेटाल	-12.0146
▁ईसवी	-12.0148
▁प्याज	-12.0151
▁उंगलिय	-12.0151
▁शकुन	-12.0152
▁प्रेत	-12.0157
out	-12.016
बीजाणु	-12.0212
▁परहेज	-12.0216
▁सुपुर्द	-12.0218
▁ऋग्वेद	-12.022
▁कुक्कुट	-12.022
▁डेवलपमेंट	-12.022
▁मूंगफली	-12.022
▁उत्तेजक	-12.022
▁अभिनंदन	-12.022
▁कुलाध्यक्ष	-12.022
▁मुग़ल	-12.022
▁स्टाम्प	-12.0221
▁कुवैत	-12.0221
▁नफरत	-12.0221
जिह्वा	-12.0221
▁वज्र	-12.0222
▁एप्पल	-12.0224
▁श्रृंग	-12.0297
पुराण	-12.0298
बख्श	-12.0299
▁सॉल्वैंट	-12.0299
▁आगंतुक	-12.0299
▁मुट्ठी	-12.0299
▁मीयादी	-12.0299
▁मिठाई	-12.0299
▁मसाले	-12.0299
▁अस्सी	-12.0299
▁जोसेफ	-12.0303
▁संकलक	-12.032
गंगाधर	-12.0375
▁अंकगणितीय	-12.0377
▁अथारिटी	-12.0377
▁औरंगज़ेब	-12.0377
▁चिरस्थायी	-12.0377
▁टेक्नोलॉजी	-12.0377
▁बहरहाल	-12.0377
▁यूट्यूब	-12.0377
▁सिपाहिय	-12.0377
▁नक्शे	-12.0377
▁बरकरार	-12.0377
▁मह्त्व	-12.0377
▁डाँट	-12.0377
▁उत्परिवर्त	-12.0377
▁हिचकिचा	-12.0377
▁धकेल	-12.0379
डब्यू	-12.0379
▁परिपाटिय	-12.038
▁तारीफ	-12.0392
▁ऑंकड	-12.0403
▁अन्तर्निहित	-12.0457
▁अव्यवस्थित	-12.0457
▁दुष्प्रभाव	-12.0457
▁सप्लाई	-12.0457
▁प्रशासित	-12.0457
▁शनिवार	-12.0457
▁लड़कियां	-12.0457
▁लम्बित	-12.0457
▁धारावाहिक	-12.0457
▁स्वातंत्र्य	-12.0457
▁पठान	-12.0457
▁कोलंबिया	-12.0457
▁तब्दील	-12.0458
▁सहस्र	-12.0458
▁पूरब	-12.0466
ाश्रय	-12.0473
▁विराट	-12.0527
▁एडवोकेट	-12.0537
▁असंतुष्ट	-12.0537
▁आत्मघाती	-12.0537
▁उपसर्ग	-12.0537
▁धूसर	-12.0537
▁शंकु	-12.0537
▁अध्यपेक्ष	-12.0537
▁रेखांकन	-12.0538
▁कतई	-12.0539
बिंदु	-12.0553
▁रवीन्द्र	-12.0616
_	-16.4146
[	-16.4147
]	-16.4148
<	-16.4149
!	-16.415
#	-16.4151
&	-16.4152
"	-16.4153
>	-16.4154
%	-16.4155
?	-16.4156
:	-16.4157
'	-16.4158
(	-16.4159
)	-16.416
-	-16.4161
.	-16.4162
,	-16.4163
/	-16.4164
।	-16.4164
