<unk>	0
<s>	0
</s>	0
UuRrLl	0
DdAaTtEe	0
NnUuMm	0
▁क	-0
▁स	-1
▁ह	-2
▁प	-3
▁म	-4
▁के	-5
या	-6
ार	-7
्र	-8
▁न	-9
▁अ	-10
▁है	-11
ें	-12
▁,	-13
▁व	-14
▁ज	-15
▁।	-16
र्	-17
▁द	-18
ता	-19
▁कि	-20
▁में	-21
ों	-22
▁उ	-23
▁ब	-24
▁ल	-25
्य	-26
ने	-27
िक	-28
▁को	-29
▁की	-30
▁र	-31
▁प्र	-32
▁ग	-33
▁औ	-34
▁और	-35
▁आ	-36
्त	-37
ित	-38
ान	-39
▁कर	-40
▁त	-41
▁से	-42
▁इ	-43
▁का	-44
▁भ	-45
िए	-46
ना	-47
▁ए	-48
्व	-49
▁पर	-50
▁य	-51
ही	-52
िय	-53
▁थ	-54
▁इस	-55
▁वि	-56
▁सं	-57
▁लिए	-58
▁श	-59
▁जा	-60
्या	-61
्ष	-62
▁.	-63
ाल	-64
▁हो	-65
▁एक	-66
हीं	-67
वा	-68
ाम	-69
▁च	-70
▁नहीं	-71
▁किया	-72
▁नि	-73
ति	-74
▁या	-75
▁यह	-76
्ट	-77
▁-	-78
▁अप	-79
ारा	-80
▁सम	-81
क्ष	-82
▁अन	-83
के	-84
▁ने	-85
▁हैं	-86
▁गया	-87
क्त	-88
िया	-89
सी	-90
▁अध	-91
स्	-92
▁करने	-93
▁था	-94
ेश	-95
▁भी	-96
न्	-97
ले	-98
ती	-99
ला	-100
हा	-101
▁उस	-102
ते	-103
▁द्व	-104
▁सा	-105
▁ख	-106
रा	-107
िस	-108
▁द्वारा	-109
त्र	-110
िका	-111
कार	-112
▁रा	-113
ड़	-114
री	-115
नी	-116
▁बा	-117
िन	-118
▁कार	-119
ूप	-120
▁जो	-121
▁स्	-122
▁)	-123
▁अनु	-124
ोग	-125
▁सक	-126
▁(	-127
गा	-128
▁दे	-129
कर्	-130
ियों	-131
▁निर्	-132
था	-133
ष्ट	-134
▁रूप	-135
स्त	-136
ां	-137
देश	-138
▁उप	-139
सा	-140
ारी	-141
ंध	-142
त्	-143
कर्ता	-144
▁फ	-145
द्	-146
▁न्या	-147
ील	-148
ाव	-149
्री	-150
िल	-151
ाय	-152
▁प्रति	-153
से	-154
ओं	-155
दी	-156
मा	-157
ंग	-158
▁अधिक	-159
धार	-160
▁मु	-161
▁हु	-162
▁सु	-163
▁उन	-164
▁ले	-165
का	-166
बंध	-167
ाह	-168
रण	-169
ियम	-170
▁माम	-171
लय	-172
▁पू	-173
▁याच	-174
▁याचिका	-175
रो	-176
▁किसी	-177
न्ह	-178
▁साथ	-179
▁ड	-180
▁दिया	-181
त्त	-182
▁न्याया	-183
कि	-184
▁हम	-185
▁जिस	-186
्च	-187
▁पह	-188
▁कोई	-189
ास	-190
▁ध	-191
▁सी	-192
ोज	-193
खा	-194
ल्	-195
▁व्य	-196
की	-197
ाग	-198
हत	-199
▁वह	-200
▁ही	-201
▁स्व	-202
▁थी	-203
▁गए	-204
▁गई	-205
ाप	-206
▁'	-207
▁कु	-208
▁सकता	-209
▁घ	-210
▁राज	-211
ब्	-212
▁उन्ह	-213
▁तो	-214
▁ट	-215
ंड	-216
ाना	-217
ंद	-218
िव	-219
▁अभ	-220
ृत	-221
▁पु	-222
▁/	-223
▁विश	-224
▁ऐ	-225
▁आव	-226
क्ति	-227
वि	-228
▁न्यायालय	-229
▁जाता	-230
▁चाह	-231
▁वर्	-232
▁अपने	-233
स्थ	-234
्यों	-235
ंच	-236
▁संबंध	-237
▁तक	-238
▁याचिकाकर्ता	-239
ली	-240
ंत	-241
चार	-242
▁पी	-243
दा	-244
▁अपील	-245
रे	-246
ेद	-247
ष्	-248
द्ध	-249
र्व	-250
▁मामले	-251
म्	-252
▁वाल	-253
▁बाद	-254
▁कहा	-255
▁जब	-256
▁दो	-257
▁थे	-258
▁भार	-259
ुत	-260
ीन	-261
रह	-262
भी	-263
कर	-264
▁आप	-265
▁स्थ	-266
पी	-267
▁रह	-268
धान	-269
▁कार्य	-270
▁सि	-271
▁अव	-272
दि	-273
▁छ	-274
▁वे	-275
मान	-276
जी	-277
योग	-278
▁तहत	-279
ून	-280
▁साम	-281
ंब	-282
में	-283
▁वा	-284
ंक	-285
ार्	-286
▁तरह	-287
िला	-288
गे	-289
ूल	-290
च्च	-291
▁क्ष	-292
▁तथा	-293
▁परि	-294
▁करना	-295
▁बना	-296
▁चाहिए	-297
▁आदेश	-298
▁हुए	-299
▁किए	-300
▁अन्य	-301
िट	-302
▁सर	-303
ोंने	-304
ुक्त	-305
ुर	-306
र्ट	-307
िर	-308
▁दी	-309
▁अधिन	-310
ारे	-311
ाप्त	-312
गी	-313
▁अधिनियम	-314
क्र	-315
▁समय	-316
धिक	-317
ोट	-318
जा	-319
▁सू	-320
श्य	-321
सार	-322
▁बी	-323
पा	-324
▁0	-325
▁उन्होंने	-326
िश	-327
▁कुछ	-328
ढ़	-329
▁उसके	-330
ंत्र	-331
वादी	-332
▁कारण	-333
लिए	-334
▁आरो	-335
▁पहले	-336
▁इसलिए	-337
नों	-338
▁करता	-339
िप	-340
▁मान	-341
्रे	-342
▁होने	-343
▁अधिकार	-344
र्ण	-345
स्ता	-346
▁जै	-347
▁राज्य	-348
▁सरकार	-349
▁जाए	-350
▁मै	-351
▁पा	-352
▁दू	-353
्ञ	-354
▁करते	-355
िति	-356
▁ला	-357
▁उनके	-358
▁इन	-359
ेष	-360
ेत्र	-361
र्थ	-362
चित	-363
▁:	-364
न्न	-365
▁बह	-366
▁प्रतिवादी	-367
▁आधार	-368
श्यक	-369
▁क्षेत्र	-370
▁मे	-371
▁श्री	-372
ोक	-373
▁रख	-374
▁कान	-375
▁मा	-376
▁होता	-377
▁पक्ष	-378
▁भारत	-379
▁अभिय	-380
▁ओ	-381
भाव	-382
▁कम	-383
▁आवश्यक	-384
र्म	-385
क्षा	-386
किन	-387
▁प्रा	-388
▁पार	-389
▁सभी	-390
▁व्यक्ति	-391
▁सब	-392
▁लेकिन	-393
▁इसके	-394
▁होगा	-395
▁विचार	-396
ध्य	-397
वल	-398
दान	-399
▁उत्त	-400
्छ	-401
ीय	-402
धि	-403
पू	-404
जन	-405
▁अपनी	-406
▁प्राप्त	-407
▁नियम	-408
▁निर्ण	-409
▁रहा	-410
िना	-411
▁आय	-412
▁वाले	-413
द्य	-414
वाह	-415
ंप	-416
ंबर	-417
दर्	-418
▁केवल	-419
▁सह	-420
वाद	-421
▁विभ	-422
▁स्प	-423
▁निर्णय	-424
▁मृत	-425
▁लगा	-426
िम	-427
▁उसे	-428
▁यदि	-429
टी	-430
्स	-431
च्छ	-432
ौर	-433
▁जांच	-434
▁निय	-435
▁जी	-436
▁अपीलकर्ता	-437
दे	-438
▁अंत	-439
ालत	-440
▁चु	-441
▁अद	-442
▁अनुसार	-443
▁उत्	-444
▁प्रकार	-445
▁प्रस्त	-446
▁बै	-447
▁उक्त	-448
वे	-449
्रा	-450
र्ड	-451
र्त	-452
▁विशेष	-453
करण	-454
▁जाना	-455
▁राष्ट	-456
▁वर्ष	-457
शन	-458
▁मैं	-459
ूम	-460
▁हि	-461
▁मूल	-462
▁उन्हें	-463
▁;	-464
▁पूर्व	-465
कों	-466
▁दर्	-467
▁उत्तर	-468
ज्ञ	-469
▁अदालत	-470
▁क्यों	-471
▁रहे	-472
▁प्रस्तुत	-473
▁स्पष्ट	-474
▁निर्धार	-475
चना	-476
गर	-477
▁जाने	-478
त्य	-479
▁गु	-480
हां	-481
▁तथ	-482
लू	-483
लग	-484
▁दूस	-485
ोजन	-486
▁पै	-487
▁कानून	-488
िख	-489
▁उच्च	-490
माण	-491
▁धारा	-492
▁आवेद	-493
िज	-494
▁नंबर	-495
ाई	-496
▁दाय	-497
▁आगे	-498
धी	-499
▁मह	-500
ग्र	-501
▁बात	-502
▁जान	-503
▁प्रश	-504
पाद	-505
रिक	-506
िता	-507
ख्या	-508
▁अस	-509
्म	-510
त्म	-511
▁विश्व	-512
स्था	-513
ंट	-514
▁समझ	-515
▁व्या	-516
▁स्वी	-517
▁जारी	-518
त्ति	-519
▁देने	-520
▁ऐसे	-521
▁क्योंकि	-522
ेल	-523
▁लाग	-524
ये	-525
▁सेवा	-526
पूर्ण	-527
▁संप	-528
▁मौ	-529
र्क	-530
▁वक	-531
▁संबंधित	-532
▁क्या	-533
वन	-534
ड़ी	-535
क्षण	-536
▁बे	-537
टना	-538
लों	-539
▁हुआ	-540
तर	-541
▁बहुत	-542
▁हाल	-543
ष्ठ	-544
जे	-545
▁बारे	-546
▁लोग	-547
▁एस	-548
▁देख	-549
▁बो	-550
▁अपरा	-551
ताओं	-552
▁स्था	-553
ड़ा	-554
▁वै	-555
▁पास	-556
▁काम	-557
नि	-558
ुल	-559
▁ओर	-560
िक्ष	-561
▁लिया	-562
डब्	-563
▁स्थान	-564
ूत	-565
▁कह	-566
▁नाम	-567
▁ट्र	-568
▁रु	-569
▁खिला	-570
▁दु	-571
▁कंप	-572
ज़	-573
▁निष्	-574
▁प्रदान	-575
▁ऐसा	-576
▁करें	-577
ोर्ट	-578
▁वकील	-579
ेक	-580
▁ऊ	-581
▁उल्	-582
▁जिसमें	-583
्ल	-584
▁बता	-585
▁जि	-586
▁नी	-587
दार	-588
यत	-589
▁न्याय	-590
▁लग	-591
▁खिलाफ	-592
टा	-593
ार्थ	-594
▁होती	-595
हर	-596
▁भूम	-597
▁सकती	-598
िंग	-599
▁निर्धारित	-600
▁जाती	-601
▁क्र	-602
▁अलग	-603
क्रिया	-604
▁सकते	-605
▁उसने	-606
ोर	-607
भा	-608
▁प्रभाव	-609
▁अपराध	-610
न्द	-611
्न	-612
्रीय	-613
▁आरोप	-614
▁पत्र	-615
ड़े	-616
▁बीच	-617
▁आरोपी	-618
ोष	-619
▁भाग	-620
▁मिल	-621
स्ट	-622
▁ठ	-623
ोजना	-624
कृत	-625
तीय	-626
▁ता	-627
▁पीडब्	-628
▁गवाह	-629
ुग	-630
्यू	-631
मति	-632
▁रिक	-633
▁पद	-634
▁कोर्ट	-635
▁स्वीकार	-636
्यान	-637
▁प्रक्रिया	-638
जू	-639
वी	-640
मी	-641
▁शाम	-642
▁देश	-643
▁लागू	-644
लिस	-645
▁परिव	-646
▁जन	-647
▁मुख	-648
मे	-649
ाज	-650
आर	-651
▁उनकी	-652
ूं	-653
▁बढ़	-654
▁सद	-655
▁प्राव	-656
▁जहां	-657
▁राष्ट्र	-658
तिक	-659
▁आर	-660
स्थित	-661
▁प्रावधान	-662
▁फिर	-663
वाही	-664
▁हुई	-665
ोध	-666
एं	-667
▁अधिकारी	-668
श्च	-669
▁मृतक	-670
▁दा	-671
▁उपयोग	-672
▁ऐसी	-673
क्	-674
ानी	-675
▁पुलिस	-676
▁आवेदन	-677
पित	-678
▁जाएगा	-679
कारी	-680
▁भारतीय	-681
▁इसे	-682
ांत	-683
कृ	-684
▁योग	-685
▁वादी	-686
▁रिप	-687
हित	-688
▁शामिल	-689
▁बार	-690
▁दर्ज	-691
एस	-692
धा	-693
▁साक्ष	-694
नीय	-695
पर	-696
ाइ	-697
▁जैसा	-698
▁पीडब्लू	-699
आई	-700
▁स्ट	-701
▁स्थिति	-702
गत	-703
▁दिन	-704
शि	-705
▁ऑ	-706
▁खु	-707
▁रिपोर्ट	-708
डी	-709
▁उद्	-710
▁दोनों	-711
ंह	-712
▁सर्व	-713
▁दायर	-714
ची	-715
▁अभियोजन	-716
▁अब	-717
▁उसकी	-718
तान	-719
▁उठ	-720
▁व्यक्त	-721
▁उचित	-722
▁ग्र	-723
िकास	-724
को	-725
▁निर्देश	-726
फल	-727
िन्न	-728
ब्द	-729
▁?	-730
▁शिका	-731
▁मन	-732
▁सीखा	-733
▁परी	-734
▁दौर	-735
▁माना	-736
▁व्यव	-737
पति	-738
▁विकास	-739
▁बिना	-740
▁पर्	-741
▁मां	-742
▁शिकायत	-743
▁करे	-744
रों	-745
▁घटना	-746
▁ध्यान	-747
युक्त	-748
यन	-749
लेख	-750
ॉर्ड	-751
▁शिक्ष	-752
िस्ट	-753
्यालय	-754
वाई	-755
▁भूमि	-756
▁कंपनी	-757
द्योग	-758
दर्भ	-759
▁आवश्यकता	-760
▁फै	-761
▁ई	-762
ाली	-763
▁संख्या	-764
यी	-765
ित्व	-766
▁संदर्भ	-767
ोल	-768
▁प्राधिक	-769
▁शुर	-770
▁विक	-771
▁दौरान	-772
▁वर्त	-773
चा	-774
िखा	-775
त्मक	-776
ालन	-777
क्रम	-778
ल्प	-779
▁भुग	-780
▁रिट	-781
▁वर्तमान	-782
चे	-783
▁रिकॉर्ड	-784
हाय	-785
▁सामान	-786
ाँ	-787
▁पारित	-788
▁जैसे	-789
▁रखा	-790
ुक	-791
▁अपना	-792
मार	-793
▁दृ	-794
▁वास्त	-795
▁प्रत्य	-796
▁भुगतान	-797
▁स्त	-798
▁दिए	-799
▁कै	-800
▁निक	-801
बा	-802
▁कर्म	-803
▁पूरी	-804
▁लाभ	-805
शा	-806
▁सहाय	-807
▁अनुमति	-808
बी	-809
▁सिद्ध	-810
▁उत्पाद	-811
कृति	-812
णा	-813
▁होना	-814
▁रही	-815
▁सदस	-816
▁उद्देश	-817
ांकि	-818
वं	-819
▁हालांकि	-820
िखित	-821
▁विवाद	-822
कर्ष	-823
▁हमारे	-824
▁सिंह	-825
क्ट	-826
ियां	-827
▁जिन	-828
▁राशि	-829
▁शक्ति	-830
▁पता	-831
▁अधीन	-832
▁बया	-833
▁जिसके	-834
ैया	-835
▁उत्तरदा	-836
▁सुन	-837
▁शब्द	-838
▁वास्तव	-839
▁जिसे	-840
्यता	-841
▁लोगों	-842
▁बन	-843
▁तथ्य	-844
▁कार्यवाही	-845
▁आई	-846
प्त	-847
▁पहु	-848
हार	-849
▁बु	-850
▁साक्ष्य	-851
▁अं	-852
ध्यम	-853
ोड़	-854
लब्	-855
सर	-856
शोध	-857
▁प्रव	-858
▁मामलों	-859
▁राष्ट्रपति	-860
ेट	-861
▁योजना	-862
स्व	-863
सू	-864
ेड	-865
▁वाली	-866
वाल	-867
▁खा	-868
▁अवधि	-869
▁झ	-870
▁सो	-871
तन	-872
▁मामला	-873
▁उपलब्	-874
▁खंड	-875
▁पुन	-876
▁अभियुक्त	-877
▁पं	-878
र्ष	-879
▁संपत्ति	-880
▁सम्	-881
▁घर	-882
▁ये	-883
▁सबूत	-884
▁तब	-885
▁दस्ता	-886
▁याचिकाकर्ताओं	-887
▁बैंक	-888
▁अर्	-889
▁चल	-890
▁पुर	-891
▁नोट	-892
▁एवं	-893
▁प्रयोग	-894
धीश	-895
▁दस्तावे	-896
▁जु	-897
ग्री	-898
▁संशोध	-899
ेज	-900
▁मुझ	-901
▁अति	-902
्ड	-903
▁माध्यम	-904
थम	-905
▁अला	-906
भव	-907
▁होते	-908
▁अंतर	-909
कद	-910
▁मज	-911
▁सामान्य	-912
▁उपलब्ध	-913
▁मध्य	-914
ष्टि	-915
▁कृ	-916
▁कॉ	-917
तु	-918
▁जीवन	-919
▁सुर	-920
▁महत	-921
▁देखा	-922
स्प	-923
▁परिण	-924
▁विभाग	-925
▁हों	-926
▁दूसरे	-927
▁उद्देश्य	-928
▁न्यायाधीश	-929
▁समक्ष	-930
▁शुरू	-931
ासन	-932
▁भा	-933
▁सुप	-934
▁समान	-935
रूप	-936
▁तैया	-937
्टी	-938
▁मुख्य	-939
▁अलावा	-940
▁माल	-941
त्या	-942
बर	-943
▁यहां	-944
षा	-945
▁परिणाम	-946
ूर	-947
▁विभिन्न	-948
▁डी	-949
ेशन	-950
▁बयान	-951
तम	-952
▁महत्व	-953
▁करती	-954
▁पर्या	-955
▁दिखा	-956
िये	-957
ंस	-958
▁अच्छ	-959
▁मुझे	-960
▁अर्थ	-961
काल	-962
द्र	-963
▁संवि	-964
▁उठा	-965
्यु	-966
▁उसी	-967
▁लोक	-968
रि	-969
▁दावा	-970
ंद्र	-971
▁बद	-972
▁शु	-973
▁व्याप	-974
▁वित	-975
णी	-976
रोध	-977
वार	-978
▁भीतर	-979
▁मुकद	-980
ायल	-981
जर	-982
▁दिना	-983
▁तीन	-984
▁दिनांक	-985
ज्ञान	-986
▁अगर	-987
गम	-988
टर	-989
▁सके	-990
▁तैयार	-991
मत	-992
▁तरी	-993
ंभ	-994
▁तर्क	-995
▁फैस	-996
मु	-997
▁सूचना	-998
काश	-999
▁ढ	-1000
▁निर्माण	-1001
तंत्र	-1002
दाय	-1003
▁गल	-1004
ग्रह	-1005
ामी	-1006
▁पहुंच	-1007
▁सार	-1008
▁%	-1009
▁स्थापित	-1010
▁ना	-1011
▁व्यक्तियों	-1012
िक्री	-1013
▁समाप्त	-1014
▁शी	-1015
▁मो	-1016
▁कई	-1017
हरा	-1018
▁सीख	-1019
▁सिद्धांत	-1020
▁विष	-1021
▁परिस्थित	-1022
जूद	-1023
▁गै	-1024
▁सामग्री	-1025
िल्	-1026
वरण	-1027
प्र	-1028
▁प्रमाण	-1029
क्षित	-1030
▁होगी	-1031
▁खार	-1032
तिम	-1033
▁तारी	-1034
▁निम्	-1035
▁खारिज	-1036
▁समझौ	-1037
▁तारीख	-1038
▁हा	-1039
वास	-1040
▁तु	-1041
▁बच्च	-1042
▁घोष	-1043
▁ज्ञ	-1044
▁प्रस्ता	-1045
हन	-1046
▁उल्लेख	-1047
▁निम्न	-1048
्ता	-1049
▁वस्त	-1050
त्रा	-1051
▁जिला	-1052
▁प्रस्ताव	-1053
स्थान	-1054
▁सबसे	-1055
व्य	-1056
▁कभी	-1057
▁गो	-1058
▁प्रत्येक	-1059
▁राम	-1060
▁सीमा	-1061
▁दस्तावेज	-1062
ेय	-1063
▁लेने	-1064
▁निप	-1065
त्ता	-1066
▁पूरा	-1067
फ़	-1068
▁मांग	-1069
▁हिस्	-1070
बित	-1071
ेप	-1072
श्व	-1073
▁विन	-1074
▁संविधान	-1075
▁विषय	-1076
▁तथ्यों	-1077
्रम	-1078
तः	-1079
▁हमें	-1080
न्त	-1081
▁करके	-1082
▁शिक्षा	-1083
▁हर	-1084
स्थिति	-1085
▁बाहर	-1086
ूनी	-1087
ोजित	-1088
▁दर	-1089
▁समर्थ	-1090
▁विध	-1091
▁इसका	-1092
ेम	-1093
भग	-1094
ुट	-1095
▁रखने	-1096
ित्र	-1097
▁साल	-1098
▁एम	-1099
▁उल्ल	-1100
▁परिस्थितियों	-1101
▁सर्वो	-1102
▁सही	-1103
▁विद	-1104
▁साबित	-1105
▁निष्कर्ष	-1106
वान	-1107
द्दे	-1108
ेदार	-1109
ाला	-1110
▁रुप	-1111
▁पूर्ण	-1112
ौती	-1113
▁उसका	-1114
▁बि	-1115
▁उत्तरदाताओं	-1116
▁लगभग	-1117
▁जाते	-1118
क्षम	-1119
▁समिति	-1120
दन	-1121
शी	-1122
▁अग	-1123
▁करेगा	-1124
▁चला	-1125
▁वी	-1126
▁दोष	-1127
▁मृत्यु	-1128
ात	-1129
▁चुन	-1130
▁अंतिम	-1131
▁अतिरिक	-1132
▁अथ	-1133
▁वाप	-1134
द्योगिक	-1135
▁पर्याप्त	-1136
▁बताया	-1137
राधिक	-1138
▁हूं	-1139
▁शा	-1140
द्द	-1141
▁चि	-1142
▁उपरो	-1143
ुक्ति	-1144
▁उपरोक्त	-1145
▁आदि	-1146
▁स्क	-1147
पुर	-1148
यं	-1149
▁ऋ	-1150
▁अतिरिक्त	-1151
▁सौ	-1152
▁डि	-1153
▁कब्	-1154
र्स	-1155
निक	-1156
▁राष्ट्रीय	-1157
▁कार्र	-1158
▁प्रबंध	-1159
▁जिन्ह	-1160
▁विस्त	-1161
▁आया	-1162
▁ली	-1163
▁सहायता	-1164
▁प्रावधानों	-1165
▁बनाम	-1166
▁पाया	-1167
▁उनका	-1168
▁सार्व	-1169
▁सामने	-1170
▁एन	-1171
मित	-1172
▁गलत	-1173
▁बच	-1174
▁ऊपर	-1175
र्ति	-1176
▁स्वतंत्र	-1177
▁राय	-1178
▁अवसर	-1179
▁अंग	-1180
▁देता	-1181
▁कार्रवाई	-1182
ुद्ध	-1183
फी	-1184
▁संशोधन	-1185
▁बढ़ा	-1186
▁ट्रायल	-1187
▁शर्त	-1188
▁नोटिस	-1189
▁छोड़	-1190
▁पेश	-1191
▁वृ	-1192
▁डॉ	-1193
▁सीखे	-1194
वर	-1195
▁नियमों	-1196
▁विप	-1197
▁प्रश्न	-1198
▁धार	-1199
▁बल्	-1200
इट	-1201
▁ब्र	-1202
▁नीचे	-1203
र्ती	-1204
▁महत्वपूर्ण	-1205
▁प्रवेश	-1206
▁तरीके	-1207
ीस	-1208
▁प्रकृति	-1209
▁वस्तु	-1210
▁वाला	-1211
▁मूल्य	-1212
▁छोट	-1213
▁प्रदर्	-1214
▁सूची	-1215
▁तय	-1216
मुख	-1217
▁प्रो	-1218
▁प्रण	-1219
▁अथवा	-1220
▁चार	-1221
▁अध्य	-1222
▁बनाने	-1223
▁जर	-1224
िष्ट	-1225
▁संस्थान	-1226
▁मत	-1227
▁कानूनी	-1228
▁पढ़	-1229
ेंस	-1230
▁संघ	-1231
▁स्तर	-1232
जार	-1233
ंघ	-1234
पाल	-1235
▁पिता	-1236
ुसार	-1237
▁पि	-1238
▁न्यायिक	-1239
▁गैर	-1240
▁अधिकारियों	-1241
▁पृ	-1242
▁हस्ता	-1243
▁कुमार	-1244
▁प्रया	-1245
्यून	-1246
▁प्रकाश	-1247
▁सर्वोच्च	-1248
विद	-1249
▁चोट	-1250
ेंट	-1251
म्म	-1252
जनिक	-1253
▁सजा	-1254
▁दंड	-1255
▁बैठ	-1256
▁कथ	-1257
▁मध्यस्थ	-1258
▁लंब	-1259
▁सार्वजनिक	-1260
▁उद	-1261
▁मंत्र	-1262
▁पश्च	-1263
▁एक्स	-1264
▁स्वयं	-1265
▁एफ	-1266
▁दाव	-1267
▁लगाया	-1268
▁अनुबंध	-1269
ूट	-1270
▁नियंत्र	-1271
चान	-1272
धन	-1273
▁रो	-1274
▁वित्त	-1275
▁प्राधिकरण	-1276
षण	-1277
ठन	-1278
▁इसमें	-1279
▁रोक	-1280
▁हे	-1281
▁पंजी	-1282
▁प्रयास	-1283
िब	-1284
▁नियुक्ति	-1285
▁मार	-1286
एल	-1287
▁सक्षम	-1288
▁आज	-1289
▁नाग	-1290
▁गवाहों	-1291
▁फ़	-1292
▁गं	-1293
▁बोर्ड	-1294
▁स्वा	-1295
▁प्रार	-1296
ीकरण	-1297
▁बनाए	-1298
मो	-1299
क्षेप	-1300
▁जमा	-1301
भर	-1302
र्श	-1303
▁परिवार	-1304
सान	-1305
▁महा	-1306
▁समर्थन	-1307
▁परीक्षा	-1308
्वी	-1309
नाव	-1310
द्धि	-1311
▁संग	-1312
कट	-1313
▁इसी	-1314
▁कल	-1315
र्तन	-1316
▁गां	-1317
▁संर	-1318
तों	-1319
▁सरकारी	-1320
स्कार	-1321
▁वापस	-1322
▁बिक्री	-1323
साय	-1324
▁आम	-1325
न्द्र	-1326
▁दूसरी	-1327
▁गिर	-1328
▁सवाल	-1329
▁परीक्षण	-1330
▁सूट	-1331
ूह	-1332
▁श्रे	-1333
विद्यालय	-1334
▁दूर	-1335
▁जबकि	-1336
▁विशिष्ट	-1337
▁नीति	-1338
▁समाज	-1339
▁देना	-1340
ंज	-1341
▁जानकारी	-1342
▁वरि	-1343
▁खोज	-1344
▁भाषा	-1345
▁“	-1346
▁दुर्	-1347
▁हाथ	-1348
▁आयोग	-1349
ाइल	-1350
▁शीर्ष	-1351
▁निर	-1352
▁s	-1353
▁फैसले	-1354
▁बल्कि	-1355
▁पैरा	-1356
▁वरिष्ठ	-1357
▁पड़	-1358
▁दल	-1359
पन	-1360
एम	-1361
तना	-1362
▁यू	-1363
▁अपीलकर्ताओं	-1364
▁विधि	-1365
▁बनाया	-1366
▁लेख	-1367
▁सदस्य	-1368
▁माननीय	-1369
क्स	-1370
▁चिक	-1371
▁आपराधिक	-1372
▁केंद्र	-1373
ेर	-1374
▁बर	-1375
िश्च	-1376
पन्न	-1377
▁आयोजित	-1378
▁देते	-1379
▁प्रमुख	-1380
▁इससे	-1381
दिष्ट	-1382
ण्ड	-1383
▁संदे	-1384
▁गति	-1385
बद्ध	-1386
▁टी	-1387
ंतु	-1388
▁नियुक्त	-1389
▁मार्	-1390
ंश	-1391
▁ताकि	-1392
▁विश्वास	-1393
ंगिक	-1394
ंकन	-1395
▁पत्	-1396
▁विश्वविद्यालय	-1397
▁सुप्रा	-1398
▁विफल	-1399
ालय	-1400
म्मी	-1401
▁प्रती	-1402
▁प्रतिनि	-1403
▁निपट	-1404
धिकार	-1405
ेंगे	-1406
▁जल	-1407
▁सच	-1408
▁मि	-1409
▁उत्पादन	-1410
विधा	-1411
▁संस्	-1412
▁सुरक्षा	-1413
इन	-1414
▁गुण	-1415
ोन	-1416
▁तत्	-1417
▁उम्मी	-1418
▁ची	-1419
चारी	-1420
▁भाव	-1421
▁उम्मीद	-1422
ंघन	-1423
▁पुरस्कार	-1424
▁निष्पाद	-1425
हरी	-1426
▁मही	-1427
▁पां	-1428
▁निदेश	-1429
▁निहित	-1430
▁संभाव	-1431
▁निश्च	-1432
▁उल्लंघन	-1433
पीसी	-1434
▁संच	-1435
्यांकन	-1436
▁कार्यालय	-1437
बल	-1438
▁वर्ग	-1439
▁योग्य	-1440
▁चुनौती	-1441
▁अधि	-1442
ष्य	-1443
▁चौ	-1444
▁खरी	-1445
सत	-1446
▁पालन	-1447
▁कुल	-1448
▁नई	-1449
▁त्र	-1450
▁पहली	-1451
▁चिकित	-1452
▁ऋण	-1453
▁लिख	-1454
▁अनुप	-1455
ल्क	-1456
▁प्रय	-1457
्ले	-1458
ार्थी	-1459
हाँ	-1460
▁पिछ	-1461
▁संस्था	-1462
▁वहां	-1463
ासंगिक	-1464
▁जग	-1465
▁रे	-1466
▁विवरण	-1467
धानिक	-1468
▁समु	-1469
▁बंद	-1470
▁पहचान	-1471
्रेट	-1472
▁स्थित	-1473
षि	-1474
▁थीं	-1475
▁संदेह	-1476
▁पूछ	-1477
▁ऑफ	-1478
▁इसकी	-1479
▁धर्म	-1480
▁मानव	-1481
टक	-1482
ापन	-1483
क्षर	-1484
▁चे	-1485
▁जम	-1486
▁करा	-1487
ूँ	-1488
िल्ली	-1489
▁मेरे	-1490
▁व्यापार	-1491
▁वेतन	-1492
▁चर्	-1493
▁ज्ञान	-1494
पत्र	-1495
▁भे	-1496
▁सुविधा	-1497
क्टर	-1498
▁कठ	-1499
्रो	-1500
रीत	-1501
▁हक	-1502
▁हमारी	-1503
▁पो	-1504
▁धन	-1505
▁सदस्यों	-1506
▁कर्मचारी	-1507
▁प्रशासन	-1508
ॉल	-1509
च्छेद	-1510
▁लिये	-1511
िवार	-1512
▁अप्र	-1513
▁विदेश	-1514
▁भर	-1515
▁हित	-1516
▁विपरीत	-1517
▁जिससे	-1518
▁गण	-1519
ट्ट	-1520
▁उद्योग	-1521
▁मूल्यांकन	-1522
▁पीड़	-1523
ीक	-1524
▁जनता	-1525
▁शिकायतकर्ता	-1526
▁मं	-1527
▁अधिस	-1528
▁अस्प	-1529
▁समझौते	-1530
▁दृष्ट	-1531
▁पार्ट	-1532
▁मौजूद	-1533
कान	-1534
▁अंतर्	-1535
▁दिश	-1536
ंख	-1537
▁हस्त	-1538
वरी	-1539
भीर	-1540
शत	-1541
निया	-1542
▁संयुक्त	-1543
▁कब्जे	-1544
▁शरी	-1545
▁अधिसू	-1546
▁अर्था	-1547
▁जवा	-1548
िश्चित	-1549
▁प्रभावित	-1550
▁प्रासंगिक	-1551
रल	-1552
▁निगम	-1553
▁आर्थ	-1554
▁कमी	-1555
▁कोश	-1556
सल	-1557
▁चयन	-1558
▁संह	-1559
▁उत्पन्न	-1560
थमिक	-1561
▁महिला	-1562
▁पंच	-1563
▁योग्यता	-1564
▁प्रथम	-1565
▁स्कूल	-1566
▁प्राथमिक	-1567
▁संहिता	-1568
मता	-1569
▁काफी	-1570
म्ब	-1571
▁लिम	-1572
▁निर्धारण	-1573
▁लगाए	-1574
▁जिसका	-1575
पना	-1576
▁अने	-1577
▁ठीक	-1578
▁सुधार	-1579
▁आर्थिक	-1580
▁मी	-1581
▁मैंने	-1582
▁ज़	-1583
▁संव	-1584
लिखित	-1585
कृतिक	-1586
▁मद	-1587
▁प्रतिशत	-1588
▁>	-1589
▁प्रदेश	-1590
▁किरा	-1591
▁नागरिक	-1592
▁आने	-1593
▁बदल	-1594
ेन	-1595
▁समूह	-1596
▁अभि	-1597
्यास	-1598
लो	-1599
ाक	-1600
▁होंगे	-1601
▁भरो	-1602
्वान	-1603
▁निर्भर	-1604
ूर्ति	-1605
▁निव	-1606
▁अभी	-1607
▁शरीर	-1608
▁शै	-1609
▁कार्यक्रम	-1610
▁लिमिट	-1611
▁इनकार	-1612
▁अच्छी	-1613
▁प्रारंभ	-1614
▁व्यवस्था	-1615
ूंकि	-1616
▁क्षेत्रों	-1617
▁चूंकि	-1618
▁गंभीर	-1619
▁दिल्ली	-1620
▁कथित	-1621
सि	-1622
▁बल	-1623
▁सफल	-1624
▁रज	-1625
ंदर	-1626
▁वास्तविक	-1627
िस्ट्रेट	-1628
▁रद्द	-1629
इस	-1630
▁लड़	-1631
▁मुकदमे	-1632
▁चुनाव	-1633
▁खुद	-1634
▁लिमिटेड	-1635
▁"	-1636
धारण	-1637
▁बड़ी	-1638
▁&	-1639
▁हल	-1640
▁अपीलार्थी	-1641
▁ठहरा	-1642
ाजिक	-1643
▁अपे	-1644
▁पाठ	-1645
▁हकदार	-1646
न्म	-1647
▁विस्तार	-1648
ँच	-1649
▁पार्टी	-1650
गार	-1651
विध	-1652
▁चर्चा	-1653
▁पराम	-1654
▁एससी	-1655
▁प्रौ	-1656
▁तौर	-1657
स्या	-1658
▁मजिस्ट्रेट	-1659
▁जाएगी	-1660
▁महीने	-1661
▁गये	-1662
▁उपाय	-1663
▁सिव	-1664
▁दोषी	-1665
▁घोषणा	-1666
▁जवाब	-1667
▁सामाजिक	-1668
▁मिला	-1669
िको	-1670
▁अनेक	-1671
▁संभव	-1672
▁सहित	-1673
▁भवन	-1674
▁शुल्क	-1675
▁नए	-1676
▁शब्दों	-1677
र्य	-1678
▁हस्ताक्षर	-1679
▁निम्नलिखित	-1680
▁आधारित	-1681
▁रोग	-1682
पि	-1683
कल	-1684
▁परिय	-1685
▁सिविल	-1686
▁वर्षों	-1687
ियन	-1688
▁सुना	-1689
ोस	-1690
▁पत्नी	-1691
▁रखते	-1692
▁छा	-1693
▁कृषि	-1694
ुप	-1695
▁परियोजना	-1696
धारा	-1697
▁समा	-1698
▁निश्चित	-1699
▁दिनों	-1700
दम	-1701
▁डाल	-1702
▁लिखित	-1703
▁मालिक	-1704
▁आध	-1705
▁परामर्श	-1706
▁अम	-1707
▁गर्	-1708
ाहरण	-1709
शील	-1710
▁आपको	-1711
▁अवै	-1712
म्प	-1713
ंदु	-1714
▁पृष्ठ	-1715
▁भरोसा	-1716
▁प्राधिकारी	-1717
▁उदाहरण	-1718
ल्यू	-1719
▁क्षमता	-1720
ष्ण	-1721
▁पूर्वो	-1722
्सा	-1723
▁रुपये	-1724
▁प्रणाली	-1725
▁प्रबंधन	-1726
हास	-1727
▁हटा	-1728
▁समस्या	-1729
▁ट्रिब	-1730
क्ता	-1731
▁व्याख्या	-1732
▁ट्रिब्यून	-1733
▁सम्म	-1734
▁अनुच्छेद	-1735
▁डे	-1736
▁पार्टियों	-1737
▁प्रभ	-1738
▁मुकदमा	-1739
▁करेंगे	-1740
▁नियमित	-1741
▁बजे	-1742
▁प्रतिक	-1743
▁निजी	-1744
▁वाह	-1745
▁वर्ण	-1746
न्तु	-1747
चारियों	-1748
▁खुला	-1749
▁अवैध	-1750
▁रहने	-1751
ताल	-1752
▁हस्तक्षेप	-1753
▁तीस	-1754
▁परिस	-1755
▁ट्रिब्यूनल	-1756
▁अधिव	-1757
▁सबूतों	-1758
▁सहायक	-1759
▁हमने	-1760
▁कर्त	-1761
▁बड़े	-1762
राज	-1763
▁मद्दे	-1764
▁संस	-1765
▁कर्मचारियों	-1766
चन	-1767
▁प्रौद्योगिक	-1768
▁जे	-1769
▁नगर	-1770
▁निर्दिष्ट	-1771
▁विर	-1772
चल	-1773
▁इंड	-1774
▁आत्म	-1775
▁ति	-1776
▁मद्देन	-1777
▁जमीन	-1778
▁अनुस	-1779
्प	-1780
▁मद्देनजर	-1781
▁आश	-1782
▁पीछ	-1783
▁लगाने	-1784
▁वैध	-1785
▁उपबंध	-1786
▁शर्तों	-1787
स्वरूप	-1788
ियो	-1789
ूक	-1790
▁नियंत्रण	-1791
▁सुनवाई	-1792
▁सै	-1793
▁ब्या	-1794
वासी	-1795
▁अनिवार	-1796
तियों	-1797
▁आन	-1798
▁वार	-1799
▁सुनिश्चित	-1800
यों	-1801
▁कहते	-1802
▁दिशा	-1803
▁वित्तीय	-1804
फ्त	-1805
▁पति	-1806
▁आवेदक	-1807
▁श्रेणी	-1808
ंजी	-1809
▁पुस्त	-1810
कल्प	-1811
लाह	-1812
▁पूरे	-1813
▁याद	-1814
▁राहत	-1815
▁रंग	-1816
▁कौ	-1817
▁प्रतिनिध	-1818
स्थ्य	-1819
एँ	-1820
▁दस्तावेजों	-1821
ंडल	-1822
▁न्यायालयों	-1823
ाँकि	-1824
▁हालाँकि	-1825
▁अनुसू	-1826
▁‘	-1827
▁कट	-1828
▁अत्य	-1829
डर	-1830
मेंट	-1831
▁स्थापना	-1832
▁रजिस्ट	-1833
▁पूर्वोक्त	-1834
▁प्रार्थ	-1835
▁नव	-1836
▁अग्र	-1837
तिहास	-1838
▁प्रार्थना	-1839
▁शक्त	-1840
▁हेतु	-1841
▁परिवर्तन	-1842
▁लक्ष	-1843
▁अनिवार्य	-1844
▁बाजार	-1845
▁एल	-1846
▁बाल	-1847
▁उससे	-1848
सित	-1849
्रीम	-1850
▁पीड़ित	-1851
▁इरा	-1852
▁#	-1853
बन्	-1854
▁इस्त	-1855
▁आस	-1856
▁ब्याज	-1857
यर	-1858
▁दक्ष	-1859
▁जानी	-1860
आईआर	-1861
ंसा	-1862
▁उम्मीदवार	-1863
▁बाव	-1864
▁प्रदर्शन	-1865
▁क्रम	-1866
▁संभावना	-1867
▁स्वास्थ्य	-1868
▁आपके	-1869
▁उपस्थित	-1870
▁पैदा	-1871
▁समी	-1872
▁क्ल	-1873
▁हिस्सा	-1874
▁यहाँ	-1875
▁अन्त	-1876
▁अनुरोध	-1877
▁तुल	-1878
▁सहयोग	-1879
िकोण	-1880
ंटर	-1881
▁अधिसूचना	-1882
▁तर	-1883
त्व	-1884
▁इच्छ	-1885
▁तुम	-1886
▁चिकित्सा	-1887
श्म	-1888
पात	-1889
▁तदन	-1890
▁हत्या	-1891
र्न	-1892
▁जगह	-1893
जरा	-1894
▁कारणों	-1895
▁सीमित	-1896
▁मात्रा	-1897
▁एज	-1898
▁आयु	-1899
▁लगता	-1900
▁क़	-1901
▁स्टेशन	-1902
▁सुझ	-1903
▁देखते	-1904
जों	-1905
्यादा	-1906
▁आयुक्त	-1907
▁तकनी	-1908
क्षक	-1909
▁पे	-1910
▁”	-1911
ियर	-1912
▁निदेशक	-1913
▁लेन	-1914
▁बावजूद	-1915
▁तदनुसार	-1916
▁विज्ञान	-1917
थि	-1918
▁जिन्हें	-1919
▁बस	-1920
▁मार्ग	-1921
▁अर	-1922
िव्य	-1923
▁दर्शा	-1924
टे	-1925
▁स्वतंत्रता	-1926
▁इं	-1927
प्ता	-1928
▁प्रौद्योगिकी	-1929
ैंड	-1930
वादियों	-1931
पूर्व	-1932
ूरी	-1933
▁जिसने	-1934
▁निर्धारिती	-1935
▁गयी	-1936
ांक	-1937
▁अपीलीय	-1938
सं	-1939
ानि	-1940
▁मंजू	-1941
▁बचाव	-1942
▁प्रतीत	-1943
▁भेज	-1944
▁लाल	-1945
▁व्यवहार	-1946
▁कैसे	-1947
▁मंद	-1948
▁सीआर	-1949
▁लाख	-1950
▁व्यक्तिगत	-1951
▁परिभा	-1952
▁व्यापक	-1953
्ला	-1954
▁अधिकारों	-1955
▁विवे	-1956
▁दृष्टिकोण	-1957
▁संके	-1958
▁विनियम	-1959
बाद	-1960
डा	-1961
निर्	-1962
▁दलील	-1963
्यिक	-1964
▁सभा	-1965
▁पांच	-1966
▁अमे	-1967
▁चाहते	-1968
▁पुष्टि	-1969
ांति	-1970
▁हिस्से	-1971
▁कवि	-1972
▁उत्तरदाता	-1973
▁भू	-1974
▁बच्चों	-1975
▁दायित्व	-1976
▁पुनर्	-1977
▁आए	-1978
▁विद्वान	-1979
▁बच्चे	-1980
संग	-1981
▁अल	-1982
▁चलता	-1983
▁जीव	-1984
तार	-1985
▁पें	-1986
बू	-1987
▁मुआ	-1988
▁रोज	-1989
▁समझा	-1990
बार	-1991
▁व्यवसाय	-1992
▁मुद्दे	-1993
▁संत	-1994
▁क्रिया	-1995
▁उपधारा	-1996
▁मेरी	-1997
▁रक्षा	-1998
▁बिल	-1999
▁जोड़	-2000
▁निवेश	-2001
▁विधान	-2002
▁अंक	-2003
▁मुआव	-2004
▁जन्म	-2005
▁तत्काल	-2006
▁यात्रा	-2007
ोक्ता	-2008
▁अनुमान	-2009
▁अनुभव	-2010
▁पानी	-2011
▁निकाल	-2012
▁विवाह	-2013
▁बें	-2014
▁प्रधान	-2015
र्च	-2016
▁बीमा	-2017
▁हूँ	-2018
्रेड	-2019
▁जब्त	-2020
▁सुप्रीम	-2021
फार	-2022
▁नं	-2023
▁भाई	-2024
ोह	-2025
▁अध्यक्ष	-2026
मती	-2027
ीर	-2028
▁वृद्धि	-2029
▁खो	-2030
▁मदद	-2031
ुओं	-2032
▁उपयुक्त	-2033
▁भौ	-2034
▁जरूर	-2035
ग्	-2036
▁शेय	-2037
▁सेवाओं	-2038
▁स्थानीय	-2039
▁केंद	-2040
▁वही	-2041
▁पिछले	-2042
▁विदेशी	-2043
▁अंग्रे	-2044
▁अन्यथा	-2045
नाथ	-2046
▁अस्पताल	-2047
▁श्र	-2048
▁उपस्थिति	-2049
▁परिणामस्वरूप	-2050
मन	-2051
टन	-2052
▁एच	-2053
▁पश्चिम	-2054
▁जिन्होंने	-2055
िकल	-2056
▁देशों	-2057
▁स्थायी	-2058
▁कोशिश	-2059
▁प्रतिनिधित्व	-2060
स्तान	-2061
ुष	-2062
▁खरीद	-2063
▁आकर्ष	-2064
▁प्रशिक्ष	-2065
डे	-2066
जित	-2067
▁रखना	-2068
▁सहमति	-2069
ैन	-2070
रासत	-2071
▁सम्मान	-2072
ेमाल	-2073
फारिश	-2074
▁अंतर्गत	-2075
▁नौ	-2076
▁सुझाव	-2077
▁i	-2078
धीन	-2079
खिल	-2080
ान्त	-2081
▁इस्तेमाल	-2082
▁संतु	-2083
▁लाइस	-2084
कु	-2085
▁सिफारिश	-2086
▁मंदिर	-2087
▁जमान	-2088
▁अधिवक्ता	-2089
ग्रहण	-2090
▁सलाह	-2091
▁उत्तरदाय	-2092
▁अस्वी	-2093
▁अह	-2094
▁घोषित	-2095
▁कप	-2096
▁भूमिका	-2097
▁यु	-2098
लाई	-2099
▁प्राकृतिक	-2100
▁स्पष्टीकरण	-2101
▁बहु	-2102
भाग	-2103
▁भर्ती	-2104
्टर	-2105
▁विकसित	-2106
▁औद्योगिक	-2107
▁केंद्रीय	-2108
ंतर	-2109
▁आरोपों	-2110
▁लाइसेंस	-2111
▁बाध्य	-2112
▁चरण	-2113
▁एकल	-2114
▁संकेत	-2115
ार्ड	-2116
ृत्ति	-2117
▁पीछे	-2118
सन	-2119
▁राजनी	-2120
▁उच्चतम	-2121
▁सूचित	-2122
▁संबंधी	-2123
▁अभियुक्तों	-2124
णिज	-2125
▁बंग	-2126
▁छोटे	-2127
▁देरी	-2128
यां	-2129
स्त्र	-2130
वर्ती	-2131
ष्ट्रीय	-2132
▁श्रम	-2133
▁असम	-2134
▁बैठक	-2135
▁नुक	-2136
▁काल	-2137
▁सेट	-2138
▁ज्यादा	-2139
दारी	-2140
षित	-2141
▁वेब	-2142
▁वाणिज	-2143
▁दृष्टि	-2144
▁काउ	-2145
त्मा	-2146
ियाँ	-2147
▁मिश	-2148
▁पक्षों	-2149
फना	-2150
र्जी	-2151
▁पोस्ट	-2152
▁समीक्षा	-2153
▁सत्र	-2154
ज्ञा	-2155
▁देव	-2156
▁लेकर	-2157
▁गिरफ्त	-2158
▁परिष	-2159
▁सुरक्षित	-2160
ूठ	-2161
▁टे	-2162
▁इंग	-2163
्राफ	-2164
▁दावे	-2165
ण्	-2166
▁पंजीकृत	-2167
▁सचिव	-2168
्याय	-2169
▁दूसरा	-2170
▁!	-2171
▁कदम	-2172
▁पदार्थ	-2173
▁दक्षि	-2174
ंडों	-2175
▁इला	-2176
ंगे	-2177
▁रेल	-2178
▁तुलना	-2179
्रेस	-2180
▁लौ	-2181
▁भवि	-2182
▁जिम्म	-2183
यात	-2184
▁चर	-2185
▁मध्यस्थता	-2186
▁सिद्धांतों	-2187
▁समझौता	-2188
▁रहते	-2189
▁रि	-2190
▁विरोध	-2191
▁कॉले	-2192
राह	-2193
▁त्रुट	-2194
र्इ	-2195
ेंद्र	-2196
▁भविष्य	-2197
ुआ	-2198
ंधान	-2199
तनी	-2200
▁मंजूरी	-2201
जनक	-2202
ेंसी	-2203
▁मोट	-2204
▁जाये	-2205
▁बज	-2206
▁देय	-2207
▁धो	-2208
▁किस	-2209
▁बड़ा	-2210
▁लागत	-2211
▁मजब	-2212
▁एफआईआर	-2213
▁आदेशों	-2214
▁सत	-2215
▁बिंदु	-2216
▁जमानत	-2217
▁वैधानिक	-2218
▁नुकसान	-2219
▁पंजीकरण	-2220
▁अच्छा	-2221
▁राजस्व	-2222
एफ	-2223
▁प्रभावी	-2224
कुल	-2225
सिक	-2226
▁मंत्रालय	-2227
▁रहता	-2228
▁वाहन	-2229
▁अभिव्य	-2230
▁हलफना	-2231
▁आद	-2232
▁]	-2233
▁प्रदर्श	-2234
ेशा	-2235
▁<	-2236
▁गांव	-2237
पूर्वक	-2238
▁चाल	-2239
मात्र	-2240
▁संशोधित	-2241
▁अनुमो	-2242
▁अनुचित	-2243
▁सत्य	-2244
ोड	-2245
ैल	-2246
▁जहाँ	-2247
▁मर	-2248
▁अनुसंधान	-2249
▁भले	-2250
▁निर्णयों	-2251
शल	-2252
▁छात्र	-2253
▁यही	-2254
लग्न	-2255
▁श्रीमती	-2256
▁संसा	-2257
ामीण	-2258
▁ते	-2259
▁उसमें	-2260
▁आईपीसी	-2261
▁इतिहास	-2262
ड़क	-2263
▁ग्राम	-2264
▁ग्रामीण	-2265
▁प्रतिवादियों	-2266
▁अपेक्षा	-2267
▁हमेशा	-2268
▁ठहराया	-2269
▁एससीसी	-2270
▁अस्त	-2271
र्फ	-2272
▁उपकरण	-2273
▁प्रकट	-2274
▁चाहे	-2275
▁जोर	-2276
र्मा	-2277
िटी	-2278
साद	-2279
▁दिखाई	-2280
▁बाहरी	-2281
▁कला	-2282
▁करोड़	-2283
▁संसद	-2284
लब	-2285
धे	-2286
▁उनमें	-2287
▁बेंच	-2288
▁विकल्प	-2289
▁संपर्क	-2290
▁युद्ध	-2291
▁बरा	-2292
एन	-2293
▁भेजा	-2294
▁चित्र	-2295
▁कर्तव्य	-2296
ाधिकार	-2297
दाता	-2298
ंटी	-2299
▁राज्यों	-2300
▁विद्य	-2301
संद	-2302
र्ग	-2303
▁देखने	-2304
▁डिक्री	-2305
▁भावना	-2306
▁अध्ययन	-2307
▁संदर्भित	-2308
▁उत्तरदायी	-2309
▁तिथि	-2310
▁पीठ	-2311
▁आपत्ति	-2312
▁इका	-2313
▁साहित	-2314
ांतर	-2315
▁रचना	-2316
▁भिन्न	-2317
▁निपटान	-2318
▁प्रेम	-2319
▁प्रकाशित	-2320
▁रखी	-2321
▁[	-2322
लोक	-2323
▁यानी	-2324
▁ढंग	-2325
ह्न	-2326
ड़ों	-2327
▁पेट	-2328
▁अनुश	-2329
िवी	-2330
▁आरंभ	-2331
खी	-2332
त्तियों	-2333
ताछ	-2334
▁विल	-2335
▁कर्	-2336
▁शासन	-2337
▁प्रारंभिक	-2338
दर्श	-2339
▁महान	-2340
खंड	-2341
▁शक्तियों	-2342
▁निरी	-2343
्वर	-2344
▁गठन	-2345
तने	-2346
चरण	-2347
▁चुका	-2348
▁मिली	-2349
▁खाते	-2350
▁जाति	-2351
▁उठाया	-2352
▁संगठन	-2353
▁विज्ञ	-2354
▁टिप	-2355
▁लगे	-2356
00	-2357
▁कार्यों	-2358
▁बोल	-2359
▁प्रग	-2360
▁यद्य	-2361
ायद	-2362
▁फर	-2363
▁पक	-2364
▁वन	-2365
▁अनुपालन	-2366
▁अर्थात्	-2367
▁डा	-2368
▁संचालन	-2369
▁पूछताछ	-2370
▁परंतु	-2371
▁यद्यपि	-2372
▁नम	-2373
▁आपूर्ति	-2374
▁लेखा	-2375
▁खेल	-2376
बन्ध	-2377
▁तुर	-2378
▁भौतिक	-2379
▁मिले	-2380
▁खर्च	-2381
▁उठाए	-2382
▁साव	-2383
▁निष्पादित	-2384
सम	-2385
▁लंबित	-2386
▁बोली	-2387
▁एंड	-2388
भूत	-2389
म्ह	-2390
▁आता	-2391
▁माता	-2392
▁रक्त	-2393
▁चाहता	-2394
▁वाय	-2395
▁निष्पादन	-2396
▁निका	-2397
▁रोजगार	-2398
▁लॉ	-2399
▁शहर	-2400
▁देवी	-2401
▁छूट	-2402
▁अधिग्रहण	-2403
▁देती	-2404
▁फिल	-2405
▁खे	-2406
धानी	-2407
▁तकनीकी	-2408
▁मार्च	-2409
दू	-2410
क़	-2411
▁विधाय	-2412
▁शीर्षक	-2413
▁जिनके	-2414
जय	-2415
▁यून	-2416
▁निकल	-2417
▁होकर	-2418
र्वा	-2419
▁हमारा	-2420
▁मश	-2421
▁पात्र	-2422
▁परे	-2423
▁एड	-2424
▁बुला	-2425
▁होनी	-2426
▁प्रे	-2427
्मिक	-2428
र्प	-2429
▁टिप्प	-2430
विदा	-2431
फा	-2432
▁लिखा	-2433
▁निर्वा	-2434
▁दाखिल	-2435
राब	-2436
▁साह	-2437
लिक	-2438
▁एकमात्र	-2439
वीं	-2440
▁जिनमें	-2441
▁विस्तृत	-2442
▁अस्तित्व	-2443
▁इस्ल	-2444
▁गुर	-2445
▁कोर्इ	-2446
टल	-2447
▁गांधी	-2448
▁मास	-2449
▁शेष	-2450
▁वसू	-2451
▁बेहत	-2452
बे	-2453
▁पहलू	-2454
▁मान्यता	-2455
▁लाया	-2456
▁सत्ता	-2457
▁जिरह	-2458
▁परिषद	-2459
▁कांग	-2460
▁आकर्षित	-2461
▁तंत्र	-2462
त्सा	-2463
▁हिरासत	-2464
▁मौत	-2465
किल	-2466
▁कहीं	-2467
▁पुत्र	-2468
षे	-2469
स्क	-2470
▁संस्थानों	-2471
▁कहना	-2472
▁लि	-2473
▁व्याव	-2474
ैतिक	-2475
▁संदेश	-2476
ोप	-2477
▁संय	-2478
ंता	-2479
िवीजन	-2480
▁बराबर	-2481
▁परन्तु	-2482
▁तुम्ह	-2483
स्म	-2484
▁प्रगति	-2485
▁त्रुटि	-2486
▁आकार	-2487
▁गवाही	-2488
साइट	-2489
▁पेंशन	-2490
ज्ञानिक	-2491
▁राजा	-2492
▁विनिर्	-2493
▁पौ	-2494
▁रू	-2495
▁अश	-2496
▁जरूरत	-2497
टों	-2498
▁प्रशिक्षण	-2499
भू	-2500
▁विरो	-2501
▁बिज	-2502
▁पाठ्य	-2503
▁वसूली	-2504
▁तरफ	-2505
▁पुनः	-2506
▁चिह्न	-2507
▁नही	-2508
▁विरुद्ध	-2509
▁करनी	-2510
ानुसार	-2511
▁संरक्षण	-2512
▁सां	-2513
रेट	-2514
▁डिवीजन	-2515
▁अंतरिम	-2516
▁आचरण	-2517
▁उपर्	-2518
▁उम	-2519
▁नया	-2520
कारों	-2521
▁अनुक	-2522
▁दें	-2523
▁दक्षिण	-2524
्रिय	-2525
ेदारी	-2526
▁उपर्युक्त	-2527
▁सोच	-2528
▁आरोपियों	-2529
▁निविदा	-2530
ल्पना	-2531
▁टै	-2532
▁आवंट	-2533
▁साझ	-2534
▁सराह	-2535
▁पूंजी	-2536
▁अभ्यास	-2537
▁जल्	-2538
▁संकल्प	-2539
▁कॉलेज	-2540
ेदन	-2541
▁गाँ	-2542
▁पंचाय	-2543
▁प्रत्यक्ष	-2544
▁खुलासा	-2545
▁वाद	-2546
▁अधिका	-2547
ंदी	-2548
भाल	-2549
▁विश्ले	-2550
▁परिसर	-2551
पक	-2552
्ष्	-2553
▁पहल	-2554
▁अभिव्यक्ति	-2555
ोन्न	-2556
▁रात	-2557
▁पुरुष	-2558
श्छ	-2559
ज्	-2560
▁पुरा	-2561
▁पट्ट	-2562
रिका	-2563
▁उद्य	-2564
▁झूठ	-2565
▁शायद	-2566
र्जा	-2567
▁पदोन्न	-2568
प्ताह	-2569
▁हथ	-2570
▁लगी	-2571
▁सिर	-2572
▁निर्यात	-2573
ून्य	-2574
लाव	-2575
▁जिसकी	-2576
▁दि	-2577
▁ऊण्	-2578
श्छ्ष्	-2579
▁ऊण्श्छ्ष्	-2580
▁निर्देशित	-2581
▁फैसला	-2582
▁भग	-2583
▁सेवान	-2584
▁वाणिज्यिक	-2585
▁याचिकाओं	-2586
▁थो	-2587
श्वर	-2588
ठित	-2589
▁सेवानिव	-2590
▁आत	-2591
स्ति	-2592
▁साधारण	-2593
▁मुक्त	-2594
▁हिन्द	-2595
▁तत्व	-2596
कम	-2597
▁क्षति	-2598
▁जून	-2599
▁इतना	-2600
केट	-2601
▁दुनिया	-2602
्राम	-2603
▁निषे	-2604
▁पीसी	-2605
▁तेल	-2606
▁मेरा	-2607
▁राजनीतिक	-2608
न्व	-2609
▁बेहतर	-2610
▁शव	-2611
▁स्रो	-2612
चर	-2613
▁शिव	-2614
▁संरचना	-2615
▁जाय	-2616
▁पड़ा	-2617
▁प्रशासनिक	-2618
ालित	-2619
▁अमेरिका	-2620
ार्ज	-2621
त्कार	-2622
▁विद्या	-2623
▁केस	-2624
गढ़	-2625
▁गार	-2626
▁जाँच	-2627
▁विवेक	-2628
▁अप्रैल	-2629
हीन	-2630
▁किये	-2631
▁प्रोत्सा	-2632
ंजन	-2633
▁धी	-2634
घु	-2635
कलन	-2636
▁इच्छा	-2637
▁भागी	-2638
▁पहला	-2639
▁रिक्त	-2640
▁शून्य	-2641
▁संतुष्ट	-2642
नात्मक	-2643
▁दिल	-2644
▁तुरंत	-2645
ुनिक	-2646
▁कृत	-2647
▁बराम	-2648
▁मुआवजे	-2649
यल	-2650
ृत्त	-2651
▁मिट	-2652
▁किंतु	-2653
▁ब्रिट	-2654
▁बचा	-2655
▁दावेदार	-2656
▁सामना	-2657
▁अभाव	-2658
▁बॉ	-2659
▁बने	-2660
▁सेना	-2661
▁इंडिया	-2662
▁दिव	-2663
▁पहुंचा	-2664
▁अस्वीकार	-2665
▁पड़ता	-2666
▁सित	-2667
▁लेना	-2668
▁प्रतिबंध	-2669
▁सन्	-2670
्यो	-2671
▁सराहना	-2672
▁वेबसाइट	-2673
द्व	-2674
▁मतलब	-2675
ंगल	-2676
ांतरित	-2677
▁संस्करण	-2678
दर	-2679
▁बढ़ाने	-2680
▁री	-2681
▁वहाँ	-2682
सनीय	-2683
▁रखे	-2684
▁संचार	-2685
▁पाए	-2686
▁उनसे	-2687
▁पीएस	-2688
▁सक्रिय	-2689
▁निरंतर	-2690
▁विशेषज्ञ	-2691
▁महारा	-2692
गल	-2693
▁मशीन	-2694
▁कांग्रेस	-2695
▁पुस्तक	-2696
▁क़ान	-2697
▁गतिविध	-2698
▁उपचार	-2699
▁अर्थात	-2700
▁पर्य	-2701
▁छह	-2702
▁अफ	-2703
द्रा	-2704
▁कीमत	-2705
▁सप्ताह	-2706
▁साहित्य	-2707
▁सहमत	-2708
▁अवि	-2709
▁उल्लिखित	-2710
▁प्रयोज	-2711
ांड	-2712
चि	-2713
▁उपभ	-2714
मारी	-2715
▁फाइल	-2716
राव	-2717
▁पाल	-2718
ैधानिक	-2719
▁लक्ष्य	-2720
ार्क	-2721
▁नजर	-2722
▁अनुरूप	-2723
▁क़ानून	-2724
प्	-2725
भार	-2726
▁छोड़कर	-2727
▁शेयर	-2728
▁आग	-2729
पालिका	-2730
कता	-2731
▁प्रतिष्ठ	-2732
▁पाठ्यक्रम	-2733
▁अगस्त	-2734
▁सौंप	-2735
्यूटर	-2736
भाई	-2737
▁दुर	-2738
▁मानते	-2739
ॉक	-2740
▁नर	-2741
▁आधुनिक	-2742
▁केन्द्र	-2743
भूम	-2744
▁प्रवि	-2745
▁गुजरा	-2746
णियों	-2747
ायक	-2748
▁सत्या	-2749
▁शांति	-2750
▁विलेख	-2751
▁अनुदान	-2752
पे	-2753
दय	-2754
किंग	-2755
▁गा	-2756
▁भारी	-2757
▁शाखा	-2758
▁मंत्री	-2759
त्त्व	-2760
ठी	-2761
▁सड़क	-2762
▁बरामद	-2763
▁शादी	-2764
मंत्र	-2765
▁योगदान	-2766
▁आतंक	-2767
▁मिलता	-2768
▁मेड	-2769
ंगा	-2770
▁यथा	-2771
ैक	-2772
▁उद्ध	-2773
▁समुदाय	-2774
▁चेक	-2775
▁सुब	-2776
▁बरी	-2777
▁नदी	-2778
▁अनुसूची	-2779
▁मुद्द	-2780
▁लाने	-2781
▁उम्मीदवारों	-2782
▁मॉ	-2783
▁दुकान	-2784
▁संपूर्ण	-2785
्राइ	-2786
धिकरण	-2787
ृह	-2788
▁जनवरी	-2789
▁वसी	-2790
▁फल	-2791
▁मुसल	-2792
▁पदों	-2793
▁वैज्ञानिक	-2794
▁प्राय	-2795
▁विज्ञापन	-2796
▁दिखाने	-2797
▁नक	-2798
▁खुल	-2799
ियार	-2800
▁विभा	-2801
▁पट	-2802
साइ	-2803
डियो	-2804
घटना	-2805
▁बंध	-2806
▁समाधान	-2807
▁मुद्दों	-2808
▁उद्यम	-2809
▁दस	-2810
ल्स	-2811
ात्	-2812
▁अंदर	-2813
▁न्यून	-2814
भूमि	-2815
▁अपराधों	-2816
▁धोखा	-2817
▁दिखाया	-2818
▁ती	-2819
▁खोल	-2820
▁दिस	-2821
▁देगा	-2822
िप्त	-2823
▁हिंद	-2824
▁00	-2825
▁आते	-2826
▁मुसलमान	-2827
▁प्रस	-2828
▁स्थग	-2829
▁दश	-2830
▁समाप्ति	-2831
शु	-2832
▁गाँव	-2833
ृति	-2834
▁कार्यकारी	-2835
▁बिजली	-2836
ारात्मक	-2837
माने	-2838
▁आग्रह	-2839
▁अगले	-2840
▁स्थानांतरित	-2841
▁अधिकांश	-2842
▁धार्मिक	-2843
▁कल्या	-2844
▁निम्नानुसार	-2845
▁वस्तुओं	-2846
▁प्रदर्शित	-2847
▁निपटा	-2848
▁मू	-2849
क्रमण	-2850
वत्ता	-2851
▁वसीयत	-2852
पथ	-2853
▁कारा	-2854
ोलन	-2855
▁दुर्घटना	-2856
चक	-2857
स्ल	-2858
संगत	-2859
▁रिश	-2860
▁प्रतिकूल	-2861
▁कहानी	-2862
▁सात	-2863
▁विश्लेषण	-2864
▁बजाय	-2865
▁गुणवत्ता	-2866
कीय	-2867
पक्ष	-2868
▁विभाजन	-2869
▁दायरे	-2870
▁ऊर्जा	-2871
ंथ	-2872
▁न्यायाधिकरण	-2873
▁जेल	-2874
▁जित	-2875
▁पाने	-2876
▁सफलता	-2877
▁अवस्था	-2878
▁शर्मा	-2879
ृत्व	-2880
ोषण	-2881
▁हमला	-2882
▁शास	-2883
▁मानसिक	-2884
▁विविध	-2885
▁छोटी	-2886
जूदा	-2887
▁पृथ	-2888
▁अंग्रेजी	-2889
▁घंट	-2890
▁एकत्र	-2891
वाय	-2892
▁न्यूनतम	-2893
▁निर्व	-2894
▁बेटी	-2895
▁कंपन	-2896
▁निकाला	-2897
ंपा	-2898
▁नेट	-2899
▁ग्राह	-2900
▁प्रेर	-2901
▁गी	-2902
▁मौजूदा	-2903
▁रेलवे	-2904
▁मित्र	-2905
▁इस्लाम	-2906
ॉस	-2907
▁किराय	-2908
▁दृश्य	-2909
er	-2910
▁ट्रस्ट	-2911
▁पर्यावरण	-2912
▁स्म	-2913
▁बंगाल	-2914
▁कल्याण	-2915
▁वितरण	-2916
▁मनु	-2917
▁पद्ध	-2918
▁कब्जा	-2919
▁भोजन	-2920
ंकर	-2921
▁तला	-2922
▁तीसरे	-2923
▁परिभाषित	-2924
▁परिस्थिति	-2925
▁सिर्फ	-2926
श्	-2927
▁जुलाई	-2928
▁दिख	-2929
▁फॉ	-2930
▁सश	-2931
▁मई	-2932
▁स्थल	-2933
बिर	-2934
▁करेगी	-2935
▁पंजा	-2936
▁मुद्रा	-2937
▁कटौती	-2938
नेट	-2939
▁उम्र	-2940
तक	-2941
▁चाहिये	-2942
व्यव	-2943
▁संवैधानिक	-2944
▁विचारों	-2945
▁पसंद	-2946
▁ध्व	-2947
▁देन	-2948
्रिया	-2949
▁पंचायत	-2950
▁रोकने	-2951
▁मुखर्जी	-2952
ंचित	-2953
तृत्व	-2954
▁हास	-2955
▁गारंटी	-2956
▁जैसी	-2957
▁इनमें	-2958
▁जिम्मेदार	-2959
▁खत	-2960
▁वें	-2961
ुपयोग	-2962
▁बेच	-2963
▁छुट	-2964
▁निर्मित	-2965
▁मौके	-2966
▁मना	-2967
▁मोह	-2968
▁स्वामी	-2969
रत	-2970
▁सका	-2971
▁अल्प	-2972
▁निधि	-2973
▁मुखबिर	-2974
▁सीधे	-2975
▁वो	-2976
चीन	-2977
▁पदोन्नति	-2978
रक	-2979
▁दौ	-2980
▁उपन	-2981
▁शारी	-2982
▁संलग्न	-2983
▁पीडब्ल्यू	-2984
▁माँ	-2985
▁तम	-2986
▁आक	-2987
कालिक	-2988
▁इंगित	-2989
▁अके	-2990
▁मेडिकल	-2991
▁मनोर	-2992
▁घायल	-2993
बोध	-2994
▁निश	-2995
ंदा	-2996
ंव	-2997
▁उन्न	-2998
▁पढ़ा	-2999
ल्ड	-3000
▁क्षेत्रीय	-3001
रीय	-3002
▁फ्र	-3003
▁चलाने	-3004
▁दुरुपयोग	-3005
▁शारीरिक	-3006
चारिक	-3007
ारण	-3008
हरे	-3009
▁कोड	-3010
▁आनंद	-3011
▁रखता	-3012
▁इंटर	-3013
▁निवास	-3014
वक	-3015
खिक	-3016
▁अच्छे	-3017
न्स	-3018
▁गि	-3019
द्दा	-3020
▁ब्ल	-3021
▁क्षेत्राधिकार	-3022
▁इंज	-3023
▁सावधानी	-3024
▁युवा	-3025
▁पड़े	-3026
▁लेते	-3027
िकार	-3028
्वेष	-3029
▁वालों	-3030
▁खाली	-3031
ितीय	-3032
▁मजबूत	-3033
ंका	-3034
▁शुद्ध	-3035
▁केन्द	-3036
▁मात्र	-3037
ल्ल	-3038
घा	-3039
▁मानद	-3040
▁अनुपात	-3041
ूबर	-3042
▁सकें	-3043
▁पढ़ने	-3044
▁बर्	-3045
▁परिवहन	-3046
▁कारावास	-3047
▁आंद	-3048
▁करी	-3049
▁प्रसाद	-3050
▁विश्वसनीय	-3051
ांस	-3052
म्भ	-3053
▁पाते	-3054
धु	-3055
▁आकलन	-3056
एच	-3057
▁रहती	-3058
▁निकट	-3059
▁युग	-3060
▁फरवरी	-3061
वाला	-3062
▁इरादा	-3063
▁मंडल	-3064
▁खाता	-3065
फे	-3066
▁चुके	-3067
on	-3068
▁आत्मा	-3069
▁निष्पक्ष	-3070
ंबई	-3071
▁बनाई	-3072
▁निवासी	-3073
्षिक	-3074
सूस	-3075
▁भ्र	-3076
▁अनुमोदन	-3077
▁असा	-3078
▁चार्ज	-3079
▁अहम	-3080
▁नील	-3081
▁मनुष्य	-3082
▁पश्चात्	-3083
▁सम्बन्ध	-3084
▁गणना	-3085
▁अनुसूचित	-3086
▁सृ	-3087
▁कठोर	-3088
▁डेटा	-3089
▁सच्च	-3090
▁औसत	-3091
▁स्रोत	-3092
▁जरूरी	-3093
लंब	-3094
▁रकम	-3095
▁व्यय	-3096
पीठ	-3097
ेलन	-3098
▁मौखिक	-3099
▁किसान	-3100
▁छात्रों	-3101
▁प्रस्तावित	-3102
ुन	-3103
म्बर	-3104
फ्ट	-3105
▁जज	-3106
▁चीज	-3107
▁आयात	-3108
मल	-3109
मंत्री	-3110
▁निष्कर्षों	-3111
▁वंचित	-3112
▁ईश्वर	-3113
धनों	-3114
▁लघु	-3115
▁उठाने	-3116
▁निकाय	-3117
क्शन	-3118
▁सुबह	-3119
▁खून	-3120
▁गतिविधियों	-3121
ुति	-3122
▁नेतृत्व	-3123
▁लगातार	-3124
▁हिंदू	-3125
▁प्राप्ति	-3126
▁अत्यधिक	-3127
▁परिवर्त	-3128
▁क्रॉस	-3129
न्दी	-3130
उस	-3131
▁विच	-3132
▁वर्णन	-3133
▁अस्था	-3134
▁ज्ञापन	-3135
▁जानते	-3136
▁ग्रह	-3137
भूति	-3138
▁अंश	-3139
१०	-3140
▁गुजरात	-3141
▁कंप्यूटर	-3142
▁संघर्ष	-3143
▁सुल	-3144
▁भेद	-3145
ुता	-3146
▁शुरुआ	-3147
▁कले	-3148
▁पकड़	-3149
िशन	-3150
▁फर्म	-3151
स्य	-3152
▁निरीक्षण	-3153
▁धीरे	-3154
▁कॉल	-3155
▁रेड	-3156
▁दोहरा	-3157
▁माप	-3158
▁कम्प	-3159
ंगी	-3160
▁इकाई	-3161
▁समार	-3162
ग्ध	-3163
▁कृष्ण	-3164
▁डॉक्टर	-3165
िज़	-3166
▁चा	-3167
▁बढ	-3168
▁जुड़े	-3169
ष्ट्र	-3170
▁शि	-3171
त्तर	-3172
यण	-3173
▁कौन	-3174
शिया	-3175
▁एक्ट	-3176
▁महसूस	-3177
▁तभी	-3178
▁माह	-3179
वर्क	-3180
▁दूरी	-3181
डिया	-3182
स्ती	-3183
▁समाचार	-3184
▁प्रमाणित	-3185
▁प्रेरित	-3186
▁उल	-3187
▁समारोह	-3188
▁गिरफ्तार	-3189
▁संगी	-3190
▁भगवान	-3191
पचारिक	-3192
दृ	-3193
▁ऊंच	-3194
▁असमर्थ	-3195
▁बिल्	-3196
▁मिलने	-3197
▁वार्षिक	-3198
्यात्मक	-3199
राष्ट्रीय	-3200
▁आधिकार	-3201
▁न्यू	-3202
▁निर्देशों	-3203
▁नियंत्रित	-3204
▁संग्रह	-3205
▁प्रतिक्रिया	-3206
बि	-3207
टिल	-3208
▁प्रयोजन	-3209
▁मुद्दा	-3210
दित	-3211
▁आधिकारिक	-3212
ियल	-3213
▁मोटर	-3214
ियोग	-3215
▁देखभाल	-3216
▁आवा	-3217
तया	-3218
▁पूर्वव	-3219
ृंख	-3220
▁आंत	-3221
▁सहकारी	-3222
▁प्रयोजनों	-3223
▁इंजीन	-3224
▁प्रसार	-3225
▁वर्णित	-3226
▁परिभाषा	-3227
▁स्वीकृति	-3228
▁हलफनामे	-3229
▁दै	-3230
▁सुश	-3231
त्री	-3232
▁पद्धति	-3233
▁आशा	-3234
▁विचारा	-3235
▁वायु	-3236
▁उत्तराधिक	-3237
याँ	-3238
▁नियोक्ता	-3239
▁लै	-3240
▁यूरो	-3241
▁परम	-3242
▁निच	-3243
गो	-3244
▁कविता	-3245
▁स्वाम	-3246
▁घट	-3247
▁सारे	-3248
▁निर्वहन	-3249
▁सम्मिल	-3250
▁प्राथमिकता	-3251
▁भंड	-3252
▁कल्पना	-3253
▁आंदोलन	-3254
▁निषेधा	-3255
गु	-3256
शाला	-3257
▁रहना	-3258
न्ट	-3259
ग्राफ	-3260
▁सर्वे	-3261
▁स्वीकार्य	-3262
▁देकर	-3263
▁सितंबर	-3264
▁खान	-3265
▁नमू	-3266
▁विशाल	-3267
▁ताल	-3268
काया	-3269
रिया	-3270
▁विचाराधीन	-3271
▁खास	-3272
▁कहता	-3273
▁केन्द्रीय	-3274
▁दास	-3275
▁हटाने	-3276
▁बिल्कुल	-3277
▁इसने	-3278
▁हजार	-3279
▁हृ	-3280
िक्स	-3281
▁दरवा	-3282
▁सरल	-3283
▁परिच	-3284
▁बिहार	-3285
▁फोन	-3286
▁बनाना	-3287
▁दिसंबर	-3288
ूपी	-3289
चार्य	-3290
▁कार्यान	-3291
इयों	-3292
ृंखला	-3293
▁ब्रिटिश	-3294
▁कवर	-3295
दारों	-3296
▁संस्कृत	-3297
▁प्ल	-3298
▁खाद्य	-3299
▁अधिकतम	-3300
an	-3301
▁रजिस्ट्र	-3302
▁आमत	-3303
▁पृष्ठभूमि	-3304
िड	-3305
▁घरे	-3306
▁अपेक्षित	-3307
▁अनुप्र	-3308
▁इतनी	-3309
▁कलेक्टर	-3310
▁कार्यान्व	-3311
▁गरी	-3312
▁जनरल	-3313
▁मानक	-3314
▁अत्यंत	-3315
▁आदमी	-3316
▁अस्थायी	-3317
▁महिलाओं	-3318
▁न्यायाधीशों	-3319
▁अनुशास	-3320
▁उद्धृत	-3321
ोग्राम	-3322
▁ख़	-3323
ांतरण	-3324
▁आमतौर	-3325
▁संसाधन	-3326
▁प्रभार	-3327
▁कंपनियों	-3328
▁कहने	-3329
▁नारा	-3330
▁सकेगा	-3331
घ्र	-3332
▁लो	-3333
▁बेटे	-3334
जीव	-3335
▁किन	-3336
▁एजेंसी	-3337
नाटक	-3338
▁प्रतिनिधि	-3339
▁हद	-3340
▁हासिल	-3341
र्द	-3342
▁घरेलू	-3343
▁परेश	-3344
▁अना	-3345
▁कठिना	-3346
▁सभ	-3347
▁प्रणब	-3348
▁निषेधाज्ञा	-3349
बाजी	-3350
बाइल	-3351
▁मनोरंजन	-3352
ायर	-3353
ंत्रित	-3354
▁अग्रिम	-3355
▁बुनिया	-3356
▁संस्कृति	-3357
▁दशा	-3358
मक	-3359
▁शत्र	-3360
ोजक	-3361
▁कठिन	-3362
▁असफल	-3363
स्लिम	-3364
▁वर्गी	-3365
▁इरादे	-3366
▁अभियोग	-3367
▁नेटवर्क	-3368
▁अवधार	-3369
▁विधिव	-3370
▁कर्नाटक	-3371
▁निर्वाचन	-3372
▁आती	-3373
▁प्राइ	-3374
▁काग	-3375
▁आपकी	-3376
▁मुस्लिम	-3377
सों	-3378
धर	-3379
▁लौट	-3380
▁रजिस्ट्रार	-3381
वेयर	-3382
▁चंद्र	-3383
िक्	-3384
▁विद्यार्थ	-3385
▁पंजाब	-3386
▁आह	-3387
▁किन्तु	-3388
▁शाह	-3389
▁धोखाध	-3390
दत्त	-3391
▁किरायेदार	-3392
िफ	-3393
▁हिन्दी	-3394
▁पेज	-3395
▁मंच	-3396
▁छोटा	-3397
▁डिजा	-3398
▁वैधता	-3399
▁दस्तावेज़	-3400
▁कराने	-3401
▁शिक्षक	-3402
▁काउंस	-3403
▁तेजी	-3404
क्ष्म	-3405
▁मीटर	-3406
▁आंक	-3407
िनी	-3408
▁संतोष	-3409
▁धोखाधड़ी	-3410
पु	-3411
▁अध्याय	-3412
▁मिन	-3413
मंडल	-3414
▁संबद्ध	-3415
▁ब्रह	-3416
▁विधेय	-3417
उट	-3418
सु	-3419
देन	-3420
▁ढां	-3421
चीत	-3422
डल	-3423
▁प्रका	-3424
▁कथन	-3425
▁चले	-3426
▁सम्मिलित	-3427
▁फ़ाइल	-3428
▁संगीत	-3429
▁जैन	-3430
सायिक	-3431
▁अध्या	-3432
▁ठे	-3433
▁मल	-3434
▁बातचीत	-3435
▁अनुपस्थिति	-3436
सभा	-3437
िकेट	-3438
▁पैराग्राफ	-3439
शाली	-3440
▁शपथ	-3441
▁टाइ	-3442
▁चूक	-3443
▁निशान	-3444
▁प्रसन्न	-3445
यम	-3446
▁अवलोक	-3447
▁चोटों	-3448
▁बनी	-3449
▁चिंत	-3450
▁आदर्श	-3451
▁चरित्र	-3452
देव	-3453
▁बध	-3454
▁साधन	-3455
▁लंबे	-3456
▁कमीशन	-3457
राज्य	-3458
▁विवादित	-3459
म्मू	-3460
र्या	-3461
▁काट	-3462
व्यों	-3463
▁प्रकाशन	-3464
▁स्थानों	-3465
ांकन	-3466
▁आशय	-3467
▁बदलाव	-3468
▁उपक्रम	-3469
▁जिले	-3470
▁अनुशासनात्मक	-3471
▁जम्मू	-3472
▁टेली	-3473
सिद्ध	-3474
▁नेता	-3475
▁दर्शाता	-3476
र्ज	-3477
भाष	-3478
▁मौलिक	-3479
▁पुराने	-3480
▁खंडन	-3481
▁छुट्टी	-3482
▁गृह	-3483
▁मोबाइल	-3484
करार	-3485
▁खुलती	-3486
▁प्राचीन	-3487
ठा	-3488
जाम	-3489
▁स्वरूप	-3490
▁शता	-3491
▁बौ	-3492
▁चंद	-3493
▁उपा	-3494
▁औपचारिक	-3495
उन	-3496
▁कार्ड	-3497
क्ट्र	-3498
▁प्रमाणपत्र	-3499
रित	-3500
▁पाव	-3501
▁स्वामित्व	-3502
▁विंडों	-3503
▁घटनाओं	-3504
▁संक्षेप	-3505
ti	-3506
श्किल	-3507
▁बताए	-3508
्राष्ट्रीय	-3509
्यूट	-3510
▁घंटे	-3511
▁विजय	-3512
▁बाई	-3513
▁घु	-3514
▁जुर्म	-3515
▁पहुंचे	-3516
▁दिवस	-3517
▁बुनियादी	-3518
▁बरकरार	-3519
ार्म	-3520
▁कमरे	-3521
▁प्रचार	-3522
▁तरीका	-3523
▁महत्त्व	-3524
▁सॉ	-3525
▁मजद	-3526
▁जोख	-3527
▁तट	-3528
्वा	-3529
▁साइ	-3530
▁बधाई	-3531
कल्पिक	-3532
▁समग्र	-3533
▁नती	-3534
▁कराया	-3535
▁मुश्किल	-3536
▁वैकल्पिक	-3537
चलित	-3538
▁उधार	-3539
न्ना	-3540
▁स्थिर	-3541
▁पीओ	-3542
▁तेज	-3543
▁शुरुआत	-3544
नु	-3545
▁पूर्वा	-3546
▁व्यावसायिक	-3547
▁इले	-3548
▁अपराधी	-3549
▁मनो	-3550
▁हैः	-3551
▁सुश्री	-3552
▁खड़ा	-3553
ंपरा	-3554
▁टिक	-3555
▁गाय	-3556
्डी	-3557
कर्ताओं	-3558
नो	-3559
▁दबा	-3560
▁विधिवत	-3561
झा	-3562
डु	-3563
▁अतः	-3564
▁डाय	-3565
▁किराए	-3566
▁शीघ्र	-3567
▁अवलोकन	-3568
ोरी	-3569
्याग	-3570
ंडी	-3571
▁लाप	-3572
▁मेल	-3573
डब्ल्यू	-3574
▁जुर्माना	-3575
▁दब	-3576
▁अदालतों	-3577
▁पाई	-3578
न्य	-3579
व्यवस्था	-3580
▁प्रि	-3581
▁डिजाइन	-3582
▁सर्वेक्षण	-3583
सर्स	-3584
▁संक्ष	-3585
राम	-3586
▁संबोध	-3587
▁इजरा	-3588
▁अधिकृत	-3589
▁बुलाया	-3590
▁चुना	-3591
▁जोखिम	-3592
▁आवश्यकताओं	-3593
▁बकाया	-3594
▁अंतरराष्ट्रीय	-3595
▁विद्युत	-3596
पास	-3597
न्हीं	-3598
▁हथियार	-3599
्रेता	-3600
▁बातों	-3601
ंतरण	-3602
▁कृप	-3603
द्दी	-3604
▁उत्पादों	-3605
▁श्रृंखला	-3606
श्मीर	-3607
▁गिरफ्तारी	-3608
▁खन	-3609
▁C	-3610
क्सर	-3611
▁सुनी	-3612
▁परंपरा	-3613
▁संज्ञान	-3614
▁पर्व	-3615
ॉप	-3616
▁खी	-3617
क्षिक	-3618
▁धारणा	-3619
▁हाई	-3620
▁पहलुओं	-3621
▁चै	-3622
▁अक	-3623
▁मकान	-3624
▁अनुप्रयोग	-3625
▁अंड	-3626
▁सदन	-3627
▁गुना	-3628
ष्क	-3629
▁तमिल	-3630
त्न	-3631
मों	-3632
▁वज	-3633
▁बोझ	-3634
▁तात्	-3635
▁इन्ह	-3636
▁पक्षकारों	-3637
▁उद्देश्यों	-3638
en	-3639
▁सम्मेलन	-3640
▁अट	-3641
▁एक्	-3642
ॉज	-3643
्रमण	-3644
▁नष्ट	-3645
▁हाथों	-3646
▁आठ	-3647
▁अकेले	-3648
▁बढ़ावा	-3649
▁समानता	-3650
▁दर्शन	-3651
▁सिस्ट	-3652
ज़ा	-3653
ामा	-3654
▁यादव	-3655
▁अभिलेख	-3656
ेंड	-3657
▁कोल	-3658
▁भागीदारी	-3659
तल	-3660
▁अनुकूल	-3661
▁कमज	-3662
▁विभागीय	-3663
▁जीवित	-3664
▁द्वार	-3665
▁अर्थव्यवस्था	-3666
▁डाक	-3667
मार्	-3668
▁पश्चिमी	-3669
▁मुंबई	-3670
खे	-3671
▁अली	-3672
▁लेखक	-3673
▁S	-3674
शनल	-3675
▁डाला	-3676
यू	-3677
▁अभिप	-3678
▁निरा	-3679
▁रिश्त	-3680
▁नये	-3681
वें	-3682
पूर्ति	-3683
▁आंतरिक	-3684
ाये	-3685
ाजित	-3686
▁समृ	-3687
▁गलती	-3688
मानी	-3689
▁इलाज	-3690
काम	-3691
▁पैसे	-3692
▁टुक	-3693
▁सेवाएं	-3694
▁तह	-3695
▁हानि	-3696
▁विधेयक	-3697
▁वाक	-3698
▁अन्	-3699
▁पहुंचने	-3700
▁लेता	-3701
▁दह	-3702
▁जाएंगे	-3703
▁आवास	-3704
▁गठित	-3705
▁अधिकरण	-3706
सायन	-3707
ज्ञात	-3708
करी	-3709
▁गौ	-3710
िग	-3711
▁जटिल	-3712
ेक्ट	-3713
स्थापित	-3714
▁तै	-3715
र्ते	-3716
▁A	-3717
िकाओं	-3718
▁चिह्नित	-3719
▁घा	-3720
▁सील	-3721
धित	-3722
▁स्टेट	-3723
▁कर्तव्यों	-3724
▁विरोधा	-3725
ेश्वर	-3726
ंत्रिक	-3727
व्र	-3728
बाल	-3729
▁साइट	-3730
रु	-3731
▁आंध	-3732
▁चिंता	-3733
ौल	-3734
ॉट	-3735
▁अपवाद	-3736
▁निपटने	-3737
णु	-3738
बत	-3739
िद	-3740
▁हृदय	-3741
▁उपबंधों	-3742
▁समन्व	-3743
▁संचालित	-3744
▁पहा	-3745
▁बला	-3746
िकरण	-3747
▁बनने	-3748
▁मिलती	-3749
▁सफ	-3750
▁चुकी	-3751
ांग	-3752
लाइन	-3753
▁ट्रेड	-3754
▁दृढ़	-3755
▁एशिया	-3756
▁निवार	-3757
ाइन	-3758
▁अवमान	-3759
नाम	-3760
▁बश	-3761
▁मिस	-3762
▁करार	-3763
▁राजन	-3764
▁कृपया	-3765
▁हिन्दू	-3766
▁स्थगित	-3767
ख्त	-3768
▁बैंकों	-3769
▁लेनदेन	-3770
▁हस्तांतरण	-3771
▁ग्रहण	-3772
स्ते	-3773
▁शुभ	-3774
▁छि	-3775
▁बयानों	-3776
भास	-3777
▁गुरु	-3778
▁प्री	-3779
▁तथापि	-3780
▁महाराष्ट्र	-3781
लांग	-3782
▁विनिर्दिष्ट	-3783
▁हिम	-3784
क्षणिक	-3785
▁I	-3786
कला	-3787
▁रिया	-3788
▁संतुल	-3789
▁जय	-3790
परी	-3791
ट्र	-3792
▁हाउस	-3793
रख	-3794
▁कलक	-3795
▁संक्षिप्त	-3796
▁नाटक	-3797
▁वाता	-3798
▁अवधारणा	-3799
▁नवंबर	-3800
▁विधायिका	-3801
▁सुंदर	-3802
▁काउंटर	-3803
▁आख	-3804
▁कथा	-3805
▁फिल्म	-3806
▁शे	-3807
▁ईसा	-3808
▁भाषण	-3809
▁प्रयासों	-3810
▁नाते	-3811
ब्दी	-3812
ar	-3813
▁संविदा	-3814
११	-3815
जाति	-3816
विधि	-3817
▁गुजर	-3818
▁ड्राइ	-3819
▁निर्भरता	-3820
▁संबोधित	-3821
▁विनियमन	-3822
कत	-3823
चित्र	-3824
▁प्रत्या	-3825
in	-3826
▁प्राथमिकी	-3827
▁सूक्ष्म	-3828
▁आमंत्रित	-3829
▁स्ना	-3830
ंगत	-3831
माग	-3832
▁वजह	-3833
▁क्रूर	-3834
्वेषण	-3835
▁आश्व	-3836
▁गर्इ	-3837
▁जिनका	-3838
▁ii	-3839
ंशिक	-3840
ंख्य	-3841
▁बाधा	-3842
▁उत्स	-3843
▁प्रस्तुति	-3844
▁सबम	-3845
▁आसपास	-3846
▁द्वितीय	-3847
कृष्ट	-3848
शय	-3849
▁नैतिक	-3850
▁गहरा	-3851
▁आपका	-3852
▁बशर्ते	-3853
▁आंध्र	-3854
▁असाधारण	-3855
▁आँ	-3856
▁समुद्र	-3857
ीप	-3858
रान	-3859
▁संभावित	-3860
▁परिक	-3861
▁जाया	-3862
▁समित	-3863
▁जानता	-3864
▁हिंदी	-3865
▁करीब	-3866
▁अंततः	-3867
▁अक्सर	-3868
▁वातावरण	-3869
▁कां	-3870
रखाव	-3871
▁टन	-3872
▁अक्ट	-3873
▁समाव	-3874
▁इच्छुक	-3875
▁साफ	-3876
कालीन	-3877
▁अस्थ	-3878
▁दैनिक	-3879
▁सम्प	-3880
▁सांस्	-3881
▁रखरखाव	-3882
▁राव	-3883
▁प्रयुक्त	-3884
▁रेखा	-3885
▁नागरिकों	-3886
▁शैक्षणिक	-3887
▁अरब	-3888
▁संपत्तियों	-3889
पश्च	-3890
▁बहन	-3891
▁पाकि	-3892
भाविक	-3893
▁अक्टूबर	-3894
▁आर्	-3895
▁समस्याओं	-3896
▁विमान	-3897
▁विशेषता	-3898
▁इत्या	-3899
▁इलेक्ट्र	-3900
▁सेवानिवृत्ति	-3901
▁फ्ल	-3902
▁देखें	-3903
▁संस्थाओं	-3904
दिक	-3905
▁गुप्ता	-3906
▁d	-3907
▁धम	-3908
ॉन	-3909
म्बे	-3910
▁केरल	-3911
▁निलंब	-3912
▁रोड	-3913
▁ठेके	-3914
▁विद्यमान	-3915
▁शिक्षकों	-3916
ियान	-3917
▁खींच	-3918
▁बौद्ध	-3919
म्मद	-3920
▁पूछा	-3921
▁दिमाग	-3922
▁मिलकर	-3923
▁शैली	-3924
म्स	-3925
▁दंडनीय	-3926
▁नामक	-3927
▁युक्त	-3928
मूर्ति	-3929
▁अनुवाद	-3930
▁शताब्दी	-3931
▁विद्यालय	-3932
▁आरक्षण	-3933
▁तार	-3934
▁उपयोगी	-3935
दिग्ध	-3936
▁सिस्टम	-3937
▁शैक्षिक	-3938
ोसिए	-3939
▁विषयों	-3940
▁गौर	-3941
▁बहा	-3942
▁भागों	-3943
▁सुविधाओं	-3944
ानु	-3945
▁मक	-3946
्रय	-3947
▁अपमान	-3948
▁जोड़ा	-3949
▁कब	-3950
ाकू	-3951
▁डिग्री	-3952
ाचार	-3953
▁जल्द	-3954
▁किश	-3955
▁दवा	-3956
झकर	-3957
▁सुनाई	-3958
रन	-3959
▁तथ्यात्मक	-3960
▁डब्	-3961
▁अपनाया	-3962
ागत	-3963
▁संदिग्ध	-3964
▁गोली	-3965
ड़न	-3966
▁इक	-3967
▁जहा	-3968
▁ज्ञात	-3969
ानों	-3970
स्मिक	-3971
▁दीवार	-3972
▁लक्ष्म	-3973
▁सांस्कृतिक	-3974
▁अधी	-3975
▁आकस्मिक	-3976
▁टिप्पणियों	-3977
▁यूपी	-3978
्रित	-3979
▁उपन्यास	-3980
▁सुख	-3981
▁गंगा	-3982
▁आवंटित	-3983
▁c	-3984
▁महाम	-3985
▁वीडियो	-3986
▁साक्षी	-3987
▁दर्शाया	-3988
▁त्याग	-3989
िपि	-3990
श्विक	-3991
्वे	-3992
▁ऑन	-3993
▁अस्पष्ट	-3994
▁आयकर	-3995
▁प्रोत्साहन	-3996
र्गी	-3997
वाले	-3998
▁बढ़ने	-3999
▁पूर्ववर्ती	-4000
ख़	-4001
▁आंख	-4002
▁हितों	-4003
▁कलकत्ता	-4004
▁जब्ती	-4005
▁प्रसिद्ध	-4006
▁पैमाने	-4007
▁पटना	-4008
▁धारण	-4009
▁अयोग	-4010
▁बताता	-4011
▁इजरायल	-4012
्नों	-4013
्राज	-4014
▁लापर	-4015
▁बढ़ाया	-4016
▁उपभोक्ता	-4017
▁अंतर्राष्ट्रीय	-4018
▁हिंदु	-4019
▁निर्मा	-4020
▁डर	-4021
▁बुद्धि	-4022
▁पूजा	-4023
▁आरक्षित	-4024
र्धन	-4025
▁फूल	-4026
▁शराब	-4027
▁बदले	-4028
▁देखना	-4029
▁ऑप	-4030
▁चश्म	-4031
मार्ग	-4032
▁तत्पश्च	-4033
बीआई	-4034
▁द्र	-4035
▁कपड़े	-4036
ज़ी	-4037
▁जल्दी	-4038
वो	-4039
▁स्वीकृत	-4040
▁बलात्कार	-4041
थित	-4042
▁कुशल	-4043
▁आंशिक	-4044
▁मस	-4045
उंड	-4046
▁जानबू	-4047
▁दबाव	-4048
र्पण	-4049
▁कारक	-4050
▁आब	-4051
▁कश्मीर	-4052
▁प्रविष्टि	-4053
ताब	-4054
ताव	-4055
▁कमजोर	-4056
▁सारा	-4057
▁संबंधों	-4058
मीटर	-4059
▁फसल	-4060
▁विकलांग	-4061
▁तस्व	-4062
▁बनाता	-4063
▁प्रधानमंत्री	-4064
▁तल	-4065
▁शिक्षण	-4066
▁प्रतिबद्ध	-4067
आरएस	-4068
▁सबमिशन	-4069
▁काव्य	-4070
▁एपी	-4071
▁रहेगा	-4072
▁विफलता	-4073
खन	-4074
्फ	-4075
or	-4076
निष्ठ	-4077
▁000	-4078
जल	-4079
▁पार्	-4080
▁लक्षण	-4081
शः	-4082
▁पैर	-4083
▁मिट्टी	-4084
▁विरोधी	-4085
प्रिय	-4086
▁प्रदू	-4087
▁फीस	-4088
▁रुपए	-4089
▁एसोसिए	-4090
▁इत्यादि	-4091
▁पथ	-4092
▁दूसरों	-4093
▁मंड	-4094
▁दिये	-4095
ड्ड	-4096
बन	-4097
▁डिप	-4098
▁अभिन	-4099
▁अवमानना	-4100
दरा	-4101
▁यौ	-4102
▁समाय	-4103
दु	-4104
शीट	-4105
▁प्ले	-4106
▁जिनकी	-4107
▁वर्गों	-4108
च्छा	-4109
▁नवान	-4110
▁जिम्मेदारी	-4111
ढ़ी	-4112
▁नारायण	-4113
सीन	-4114
▁संगठ	-4115
▁इतने	-4116
▁असर	-4117
▁किलो	-4118
▁मैदान	-4119
▁अमेरिक	-4120
▁चोटें	-4121
▁आपने	-4122
▁अन्तर्	-4123
▁बदलने	-4124
▁a	-4125
▁प्रत	-4126
▁रजिस्टर	-4127
▁अधिसूचित	-4128
थर	-4129
▁आवंटन	-4130
▁गर्म	-4131
▁कानूनों	-4132
▁अर्जित	-4133
▁लोकतंत्र	-4134
धारी	-4135
▁सारी	-4136
दीद	-4137
पान	-4138
▁चक्र	-4139
▁अनुमोदित	-4140
▁अंध	-4141
▁परिवर्तित	-4142
▁धारक	-4143
▁रोगी	-4144
▁हलफनामा	-4145
▁रुचि	-4146
▁लाइन	-4147
नल	-4148
्रोल	-4149
▁जैव	-4150
▁खराब	-4151
▁बाकी	-4152
ैट	-4153
▁पत्रों	-4154
▁बीमारी	-4155
▁पहुँच	-4156
▁चश्मदीद	-4157
▁सेवानिवृत्त	-4158
त्तम	-4159
▁भ्रष्ट	-4160
▁गणराज्य	-4161
▁चिकित्स	-4162
ित्त	-4163
▁गैस	-4164
▁बताने	-4165
▁ग्राहक	-4166
सील	-4167
ियत	-4168
▁प्राण	-4169
▁राज्यपाल	-4170
▁खुशी	-4171
▁सुनने	-4172
▁मुआवजा	-4173
▁पाकिस्तान	-4174
▁स्वाभाविक	-4175
▁एक्सट	-4176
▁जानबूझकर	-4177
ेयर	-4178
▁मुसलमानों	-4179
ज़र	-4180
निंग	-4181
▁वेद	-4182
▁दहेज	-4183
भाग्य	-4184
िसी	-4185
स्तिष्क	-4186
▁नियत	-4187
▁इन्हें	-4188
र्घ	-4189
दर्शन	-4190
▁प्या	-4191
मार्ट	-4192
▁खुले	-4193
▁साक्ष्यों	-4194
ियमित	-4195
▁आतंकवाद	-4196
▁हवा	-4197
▁कंट	-4198
▁जोड़ने	-4199
ेह	-4200
▁श्रमिक	-4201
▁भु	-4202
वित्र	-4203
▁नामित	-4204
▁खातों	-4205
▁लगाना	-4206
्यापी	-4207
▁सलाहकार	-4208
▁आउट	-4209
शास्त्र	-4210
प्पा	-4211
▁ड्यू	-4212
▁आये	-4213
ूब	-4214
▁कक्षा	-4215
▁वापसी	-4216
▁इनके	-4217
▁आसानी	-4218
▁परेशान	-4219
▁मधु	-4220
▁सर्वा	-4221
▁वेतनमान	-4222
ल्ला	-4223
▁मिनट	-4224
आईसी	-4225
नाएं	-4226
ूंगा	-4227
दीय	-4228
▁टीम	-4229
▁तीव्र	-4230
▁अनियमित	-4231
थी	-4232
▁पूर्वी	-4233
▁वारंट	-4234
▁चारों	-4235
▁वर्मा	-4236
▁भेदभाव	-4237
▁अर्ध	-4238
▁उन्नत	-4239
▁विवादों	-4240
▁अचान	-4241
▁फंसा	-4242
▁प्रोग्राम	-4243
श्वास	-4244
▁समझने	-4245
▁वरिष्ठता	-4246
▁पट्टे	-4247
▁अचानक	-4248
िस्त	-4249
▁प्रचलित	-4250
▁भेजे	-4251
▁लें	-4252
इड	-4253
▁बाग	-4254
▁बीज	-4255
▁छत्त	-4256
▁खंडपीठ	-4257
स्पर्	-4258
ूर्ण	-4259
▁ठाक	-4260
▁ठोस	-4261
▁कोय	-4262
▁गुणों	-4263
▁टा	-4264
▁मजबूर	-4265
च्छिक	-4266
▁सुभाष	-4267
▁प्रवाह	-4268
▁संसाधनों	-4269
▁निरोध	-4270
▁रजिस्ट्री	-4271
त्मिक	-4272
▁प्रायः	-4273
▁लंबी	-4274
▁शहरी	-4275
गण	-4276
यान	-4277
मान्य	-4278
▁स्थानांतरण	-4279
ुण	-4280
दोष	-4281
वेट	-4282
▁अफ्री	-4283
▁आवाज	-4284
▁प्ला	-4285
▁स्कूलों	-4286
▁कने	-4287
▁खेती	-4288
▁अनुसरण	-4289
दास	-4290
▁आश्च	-4291
▁कौशल	-4292
▁चीज़	-4293
▁कुंजी	-4294
▁इमार	-4295
▁सशक्त	-4296
▁कार्यान्वयन	-4297
▁आलोक	-4298
▁तुम्हें	-4299
▁विम	-4300
▁खड़े	-4301
▁प्रश्नों	-4302
सीसी	-4303
▁रास्ते	-4304
▁सरकारों	-4305
भावना	-4306
▁गतिविधि	-4307
▁सहारा	-4308
▁कॉर्प	-4309
▁पृथ्वी	-4310
▁गुप्त	-4311
▁किराया	-4312
▁वीर	-4313
▁जाएं	-4314
▁स्टैंड	-4315
▁बताते	-4316
▁इंजीनियर	-4317
▁यूनिट	-4318
▁अब्द	-4319
▁हिंसा	-4320
ॉल्ट	-4321
▁अमरी	-4322
▁शंकर	-4323
▁विधायी	-4324
▁परामर्शदाता	-4325
ोम	-4326
▁आध्या	-4327
तिहासिक	-4328
▁आश्चर्य	-4329
▁नवी	-4330
▁लापरवाही	-4331
हारिक	-4332
▁चेतना	-4333
▁शिकार	-4334
es	-4335
▁ज्यो	-4336
▁सीपीसी	-4337
▁प्रभारी	-4338
▁आजा	-4339
नामा	-4340
▁मौसम	-4341
▁अवकाश	-4342
▁शुभकाम	-4343
ायी	-4344
ध्या	-4345
चित्य	-4346
▁आक्रमण	-4347
ंडा	-4348
▁स्की	-4349
▁यथ	-4350
▁चार्जशीट	-4351
▁प्रवर्तन	-4352
वानी	-4353
▁फी	-4354
स्पर	-4355
▁क्रमशः	-4356
▁उत्कृष्ट	-4357
क्षेत्र	-4358
लर	-4359
▁शिश	-4360
▁बीमार	-4361
▁कठिनाई	-4362
▁शेयरों	-4363
▁सेवक	-4364
▁स्वच्छ	-4365
▁प्रोट	-4366
▁मस्तिष्क	-4367
▁दूध	-4368
▁आसान	-4369
▁अजी	-4370
▁अक्षम	-4371
▁काउंसिल	-4372
ाब	-4373
ेंज	-4374
▁नेहर	-4375
▁मीडिया	-4376
▁स्मृति	-4377
▁किसानों	-4378
▁आयोजन	-4379
▁प्रबंधक	-4380
ॉर्ट	-4381
▁कार्यकाल	-4382
जु	-4383
▁बू	-4384
▁सामग्र	-4385
ोबार	-4386
▁p	-4387
▁तत्पश्चात	-4388
▁देयता	-4389
▁स्वागत	-4390
▁देंगे	-4391
▁प्रतिद्व	-4392
▁अतिक	-4393
▁खत्म	-4394
▁छो	-4395
▁दिला	-4396
▁कार्यक्रमों	-4397
▁तिर	-4398
▁आईटी	-4399
▁पेटेंट	-4400
▁तात्कालिक	-4401
स्टर	-4402
▁प्रसन्नता	-4403
्रण	-4404
▁तहसील	-4405
▁तमिलना	-4406
▁प्रशंसा	-4407
३०	-4408
▁रस	-4409
▁सैनिक	-4410
▁वीं	-4411
▁अका	-4412
▁समस्त	-4413
▁मिशन	-4414
संख्या	-4415
▁शो	-4416
▁प्रेष	-4417
▁आह्वान	-4418
▁ठेकेदार	-4419
▁फें	-4420
ेबल	-4421
्रीन	-4422
▁दृष्टया	-4423
लाल	-4424
▁सें	-4425
▁छत्तीस	-4426
लेट	-4427
▁सूचीबद्ध	-4428
म्मत	-4429
▁रै	-4430
▁जाह	-4431
▁अंतरण	-4432
▁ट्रांस	-4433
▁संगठनों	-4434
▁न्यायमूर्ति	-4435
▁दर्श	-4436
al	-4437
पों	-4438
▁पवित्र	-4439
▁सेल	-4440
▁तोड़	-4441
▁ग्रे	-4442
▁सख्त	-4443
▁कारबार	-4444
▁देर	-4445
▁मानने	-4446
▁संतुष्टि	-4447
▁आध्यात्मिक	-4448
जात	-4449
▁पल	-4450
▁वस	-4451
▁गईं	-4452
▁क्रूरता	-4453
▁महत्त्वपूर्ण	-4454
सरों	-4455
▁ब्लॉक	-4456
▁मांगी	-4457
▁आइ	-4458
▁उठता	-4459
ोरेट	-4460
▁उद्योगों	-4461
ाइड	-4462
▁झग	-4463
▁विभाजित	-4464
मय	-4465
▁बाह	-4466
▁अभियोजक	-4467
▁प्रतिस्पर्	-4468
ूली	-4469
▁विंड	-4470
▁पूर्वाग्रह	-4471
▁परस्पर	-4472
▁अधीनस्थ	-4473
▁सिल	-4474
▁साज	-4475
पेक्ष	-4476
▁निकालने	-4477
साह	-4478
▁संगण	-4479
▁नीलामी	-4480
▁बचने	-4481
▁सत्यापन	-4482
▁सामग्रियों	-4483
नाश	-4484
आईटी	-4485
ड़ियों	-4486
▁विरोधाभास	-4487
फ्टवेयर	-4488
▁ऐतिहासिक	-4489
▁नवीन	-4490
▁दीर्घ	-4491
▁आलो	-4492
▁प्रतीक	-4493
हत्या	-4494
▁संकट	-4495
▁उत्पी	-4496
▁पॉल	-4497
▁भेजने	-4498
त्ते	-4499
▁प्रच	-4500
▁पावर	-4501
▁जायेगा	-4502
▁मजदूरी	-4503
िनल	-4504
▁विद्यार्थियों	-4505
श्त	-4506
▁बुरा	-4507
▁स्वै	-4508
▁यूरोप	-4509
सिंह	-4510
▁असं	-4511
▁भूल	-4512
▁राजनैतिक	-4513
▁माइ	-4514
▁औचित्य	-4515
िन्	-4516
▁अपर	-4517
▁एप	-4518
▁जाल	-4519
▁परिपत्र	-4520
▁शुभकामनाएं	-4521
▁दावों	-4522
ूद	-4523
▁छत्तीसगढ़	-4524
माना	-4525
▁करवा	-4526
▁ज्योति	-4527
▁औष	-4528
▁सकारात्मक	-4529
तीत	-4530
▁फे	-4531
संख्य	-4532
▁प्रथा	-4533
▁सतर्क	-4534
वाली	-4535
▁इन्	-4536
▁त्व	-4537
▁विशेषकर	-4538
▁बेचने	-4539
▁कार्यवाह	-4540
गाह	-4541
▁टिप्पणी	-4542
धरी	-4543
▁बनता	-4544
▁प्रतिद्वंद	-4545
▁रण	-4546
▁घाव	-4547
ात्मक	-4548
▁परियोजनाओं	-4549
फर	-4550
िने	-4551
प्रे	-4552
▁सम्मानित	-4553
▁जनसंख्या	-4554
णों	-4555
ंतिम	-4556
▁बेह	-4557
दर्शी	-4558
▁अनि	-4559
बिट	-4560
▁क्रेड	-4561
हिम	-4562
िली	-4563
दंड	-4564
▁फॉर्म	-4565
▁तमिलनाडु	-4566
शीलता	-4567
▁काले	-4568
▁व्यावहारिक	-4569
▁ट्रै	-4570
▁लड़की	-4571
▁आत्महत्या	-4572
▁अल्	-4573
▁अनंतिम	-4574
▁शर्तें	-4575
दों	-4576
▁अहमद	-4577
▁गरीब	-4578
▁संप्र	-4579
डेंसी	-4580
▁अनुकंपा	-4581
▁आवेदकों	-4582
▁प्रतियोग	-4583
▁क्व	-4584
▁अगली	-4585
▁पश्चात	-4586
ड़ाई	-4587
▁चेहरे	-4588
▁आरोपित	-4589
▁अधिकारिता	-4590
▁उनको	-4591
पोर्ट	-4592
▁श्रेणीः	-4593
▁असंगत	-4594
्राज्य	-4595
▁खोलने	-4596
▁प्रोत्साहित	-4597
▁अशोक	-4598
▁लोकप्रिय	-4599
▁गोल	-4600
▁चैन	-4601
▁अनुलग्न	-4602
क्का	-4603
▁बाबू	-4604
तृ	-4605
िष्	-4606
स्थल	-4607
बाज	-4608
▁गर्भ	-4609
▁कायम	-4610
▁अभियान	-4611
ेंडर	-4612
▁इंग्ल	-4613
▁वर्गीकरण	-4614
▁तत्कालीन	-4615
ंदन	-4616
▁चीन	-4617
र्देश	-4618
▁क्लॉज	-4619
र्नी	-4620
▁बताओ	-4621
▁अमेरिकी	-4622
▁प्राइवेट	-4623
▁फोट	-4624
▁मगर	-4625
▁सब्	-4626
▁लिखने	-4627
▁ब्रह्म	-4628
▁तलाश	-4629
▁देखे	-4630
▁ड्र	-4631
▁t	-4632
रणा	-4633
ारों	-4634
▁उदार	-4635
▁नेहरू	-4636
जतन	-4637
▁पुनरी	-4638
्चर	-4639
▁नकारात्मक	-4640
▁नतीजतन	-4641
▁रव	-4642
▁भरा	-4643
▁क्रेडिट	-4644
जीवन	-4645
क्रिय	-4646
▁रिहा	-4647
▁ड्यूटी	-4648
▁हट	-4649
र्कों	-4650
▁फिट	-4651
▁चढ़	-4652
▁लेखन	-4653
▁खतरा	-4654
ूद्ध	-4655
▁धमकी	-4656
▁भरने	-4657
▁दोहराया	-4658
▁राजस्थान	-4659
▁लक	-4660
▁बातें	-4661
▁सुसंगत	-4662
▁फाय	-4663
▁डिफ़	-4664
▁लगाई	-4665
ंकिंग	-4666
▁लेखों	-4667
▁अतिक्रमण	-4668
▁वैश्विक	-4669
कश	-4670
क्षी	-4671
घात	-4672
▁उपायों	-4673
वां	-4674
▁पेशे	-4675
▁हवाई	-4676
यें	-4677
वोकेट	-4678
▁सूत्र	-4679
▁सूर्य	-4680
र्डर	-4681
▁रवी	-4682
▁अवश्य	-4683
▁संतुलन	-4684
▁समन्वय	-4685
▁चौधरी	-4686
सद	-4687
▁वर	-4688
दाताओं	-4689
▁एडवोकेट	-4690
▁एकता	-4691
▁स्त्री	-4692
▁धा	-4693
▁नौकरी	-4694
▁लाभों	-4695
▁संयंत्र	-4696
द्दीन	-4697
▁आल	-4698
▁शक्तियां	-4699
▁चलने	-4700
▁पर्यवे	-4701
▁विमर्श	-4702
▁वैसे	-4703
▁आनन्द	-4704
पत	-4705
▁चलते	-4706
▁पेड़	-4707
▁बचाने	-4708
▁कक्ष	-4709
▁लिखी	-4710
▁डिफ़ॉल्ट	-4711
ेक्टर	-4712
▁शासित	-4713
▁शत्रुता	-4714
ोने	-4715
्यव	-4716
▁मछ	-4717
▁उभर	-4718
▁बहस	-4719
िकेशन	-4720
पुट	-4721
▁कूट	-4722
▁दशक	-4723
▁उत्तराधिकार	-4724
▁शोध	-4725
▁मोहन	-4726
▁विश्वविद्यालयों	-4727
▁पात्रता	-4728
▁कार्	-4729
छा	-4730
ैव	-4731
▁उड़	-4732
▁वंश	-4733
▁अक्ष	-4734
▁होटल	-4735
शिष्ट	-4736
▁बाबत	-4737
▁b	-4738
▁छु	-4739
▁घात	-4740
▁द्वीप	-4741
▁मेमो	-4742
▁प्रदत्त	-4743
▁महामहिम	-4744
▁पशु	-4745
▁वां	-4746
▁निचली	-4747
▁गव	-4748
्लो	-4749
▁नाथ	-4750
▁रसी	-4751
▁जुड़ा	-4752
▁नाट	-4753
▁ठाकुर	-4754
▁प्रविष्ट	-4755
ॉँ	-4756
▁देखकर	-4757
वीर	-4758
▁रीति	-4759
स्फ	-4760
▁पहुँ	-4761
▁वक्त	-4762
▁संसार	-4763
▁समितियों	-4764
▁वहीं	-4765
▁निवारण	-4766
▁साम्राज्य	-4767
ड़ीसा	-4768
▁थोड़ा	-4769
▁अनुलग्नक	-4770
▁रिश्तेदार	-4771
ॉय	-4772
▁राजी	-4773
▁योजनाओं	-4774
पीट	-4775
▁निभा	-4776
▁अत	-4777
शे	-4778
▁सृजन	-4779
▁तीनों	-4780
णिक	-4781
▁सीट	-4782
▁अपीलों	-4783
▁लु	-4784
▁छाप	-4785
▁ज़र	-4786
भोग	-4787
▁पिछली	-4788
▁होम	-4789
▁खतरे	-4790
▁एसोसिएशन	-4791
णन	-4792
गोल	-4793
▁जितना	-4794
▁हल्	-4795
▁अवश	-4796
▁पैके	-4797
▁हार्	-4798
▁सीमाओं	-4799
▁विसंग	-4800
▁लीज	-4801
▁प्रारूप	-4802
▁उत्पीड़न	-4803
▁लिखे	-4804
▁उत्पादित	-4805
▁लाइ	-4806
▁दिशानि	-4807
▁पक्षकार	-4808
▁प्राधिकार	-4809
वत	-4810
नाक	-4811
क़्त	-4812
▁संसदीय	-4813
दायिक	-4814
▁जर्म	-4815
▁गोद	-4816
▁रखें	-4817
▁स्वर	-4818
▁जाकर	-4819
▁हालत	-4820
▁दिशानिर्देश	-4821
▁सन	-4822
▁प्रेस	-4823
▁दलीलों	-4824
▁साक्षा	-4825
▁जानने	-4826
▁खाना	-4827
▁विचारण	-4828
▁किनारे	-4829
▁अनुभाग	-4830
ावली	-4831
▁विधिक	-4832
▁निगर	-4833
ीकृत	-4834
▁किशोर	-4835
▁निरीक्षक	-4836
▁मानना	-4837
▁प्रतिद्वंद्वी	-4838
▁मानवीय	-4839
▁निगरानी	-4840
▁मूल्यों	-4841
▁बांध	-4842
▁जाहिर	-4843
▁उड़ीसा	-4844
▁रास्ता	-4845
१२	-4846
▁निपटाया	-4847
ेंद	-4848
▁पत्थर	-4849
ाले	-4850
▁हरि	-4851
वश	-4852
▁दर्द	-4853
न्ड	-4854
▁खतर	-4855
▁टेक	-4856
▁भ्रम	-4857
▁हवाला	-4858
खों	-4859
ूहिक	-4860
▁अभिप्रे	-4861
▁मरने	-4862
▁निर्दोष	-4863
▁मारपीट	-4864
▁इंस्प	-4865
▁राजनीति	-4866
▁चलाया	-4867
▁डिस्क	-4868
▁निरस्त	-4869
▁दिलच	-4870
▁सामूहिक	-4871
िरा	-4872
▁छोड़ने	-4873
▁ताप	-4874
▁नमूना	-4875
▁प्रयत्न	-4876
▁मोहम्मद	-4877
▁पौध	-4878
कुमार	-4879
मार्टम	-4880
▁चीजों	-4881
▁मान्य	-4882
▁तस्वीर	-4883
▁इकट	-4884
▁मानता	-4885
▁नो	-4886
▁वजन	-4887
खास्त	-4888
▁अवैधता	-4889
▁कॉपी	-4890
▁फोर	-4891
▁ध्वनि	-4892
▁शंक	-4893
▁तीसरा	-4894
▁सौंपा	-4895
▁पोर्ट	-4896
▁अन्याय	-4897
▁खुश	-4898
र्गीय	-4899
ग्रहित	-4900
▁आवासी	-4901
▁दुर्बल	-4902
फोन	-4903
रोज	-4904
र्जन	-4905
▁विलंब	-4906
▁क्षतिपूर्ति	-4907
▁पोस्टमार्टम	-4908
ूस	-4909
साइटी	-4910
▁मिटा	-4911
▁अफ्रीका	-4912
▁रिक्तियों	-4913
बन्धी	-4914
▁दलों	-4915
▁भय	-4916
▁एजेंट	-4917
▁यंत्र	-4918
▁हैदरा	-4919
▁ओआरएस	-4920
▁बाध्यकारी	-4921
दिन	-4922
स्टेबल	-4923
▁सोसाइटी	-4924
▁कच्च	-4925
▁ढांचे	-4926
जीत	-4927
▁पुरानी	-4928
▁करो	-4929
▁कव	-4930
कृष्ण	-4931
▁बहुमत	-4932
▁श्रेष्ठ	-4933
▁रम	-4934
▁दया	-4935
▁अयोग्य	-4936
▁प्रतिष्ठा	-4937
▁जला	-4938
▁मुह	-4939
▁दरवाजा	-4940
▁अनदे	-4941
▁आरम्भ	-4942
▁संपाद	-4943
▁जंग	-4944
▁समुचित	-4945
न्द्रनाथ	-4946
▁फा	-4947
▁यो	-4948
▁पंड	-4949
▁इकट्	-4950
▁विनियमों	-4951
▁सर्वाधिक	-4952
▁विहित	-4953
▁तीसरी	-4954
▁चुने	-4955
▁आफ	-4956
▁धर	-4957
▁साजिश	-4958
▁घटक	-4959
हता	-4960
भारत	-4961
▁प्रोफे	-4962
▁अधीक्षक	-4963
▁घटा	-4964
▁उत्तरी	-4965
▁प्रस्तुतियाँ	-4966
बो	-4967
▁हैदराबाद	-4968
▁विरूद्ध	-4969
▁कीट	-4970
▁मकसद	-4971
▁नामांकन	-4972
▁ट्रे	-4973
▁डील	-4974
▁अत्या	-4975
▁चयनित	-4976
▁कृत्य	-4977
▁पत	-4978
पीय	-4979
▁कारकों	-4980
▁उन्	-4981
▁गीत	-4982
▁पूर्ति	-4983
▁प्रवृत्ति	-4984
▁खाने	-4985
▁कृत्यों	-4986
▁तकनीक	-4987
▁विकृत	-4988
ल्य	-4989
▁पूर्ववर्ष	-4990
▁छत	-4991
▁सहज	-4992
▁बढ़ती	-4993
▁विधानमंडल	-4994
▁सीधी	-4995
▁सीबीआई	-4996
it	-4997
▁राजेश	-4998
▁अनुशासन	-4999
▁मानदंड	-5000
र्पित	-5001
▁मुद्र	-5002
▁कदा	-5003
▁भंग	-5004
▁चम	-5005
▁बर्खास्त	-5006
▁स्वैच्छिक	-5007
क्सी	-5008
▁झूठे	-5009
▁ग्रंथ	-5010
▁सेक	-5011
▁पुनरीक्षण	-5012
▁प्रतिभा	-5013
थे	-5014
▁सिरे	-5015
कानूनी	-5016
▁स्थितियों	-5017
▁आकाश	-5018
▁आधारों	-5019
▁प्रेरणा	-5020
▁अगला	-5021
▁इमारत	-5022
लाब	-5023
▁विभागों	-5024
▁कितना	-5025
▁सॉफ्टवेयर	-5026
▁ऑनलाइन	-5027
▁मिश्रा	-5028
▁निः	-5029
▁गैरकानूनी	-5030
वारी	-5031
▁कारोबार	-5032
▁अय	-5033
▁चीनी	-5034
▁बुद्ध	-5035
▁सागर	-5036
▁ब्राह	-5037
▁चाकू	-5038
▁चेन्न	-5039
▁हार	-5040
▁मॉडल	-5041
▁विक्रेता	-5042
▁पाता	-5043
▁चालक	-5044
▁बताई	-5045
▁सिक्	-5046
▁मेन	-5047
▁देखी	-5048
ल्डर	-5049
वंश	-5050
▁जड़	-5051
तावनी	-5052
▁सदा	-5053
▁कराई	-5054
▁पाँच	-5055
▁विपणन	-5056
▁पीड़िता	-5057
▁प्रतिबंधित	-5058
▁मांस	-5059
▁v	-5060
श्रम	-5061
▁खण्ड	-5062
▁चालू	-5063
▁स्कीम	-5064
▁बुक	-5065
▁बच्चा	-5066
ल्ली	-5067
▁घातक	-5068
▁अन्दर	-5069
▁चेतावनी	-5070
▁विधियों	-5071
▁कोशिका	-5072
सीय	-5073
▁सोसाय	-5074
▁प्रदूषण	-5075
▁न्यायपालिका	-5076
▁आकर	-5077
▁निधन	-5078
ोद	-5079
दीप	-5080
▁स्तंभ	-5081
▁मेसर्स	-5082
▁अपरि	-5083
▁परमाण	-5084
▁अवसरों	-5085
▁भाषाओं	-5086
▁उपयोगकर्ता	-5087
▁प्रयोगशाला	-5088
केश	-5089
▁उज	-5090
▁अकबर	-5091
▁साझा	-5092
▁अभियंता	-5093
▁आपत्तियों	-5094
डीए	-5095
संख्यक	-5096
▁इंस्पेक्टर	-5097
▁नयी	-5098
▁वर्षा	-5099
▁मुकदमेबाजी	-5100
▁सावधानीपूर्वक	-5101
▁सर्वर	-5102
ॉनिक	-5103
▁पेपर	-5104
▁प्रतिव	-5105
टो	-5106
िमय	-5107
▁मोड	-5108
▁सोने	-5109
वाहिक	-5110
▁साक्षात्कार	-5111
ंठ	-5112
▁रसीद	-5113
▁सेंट	-5114
▁राजमार्ग	-5115
▁शिख	-5116
▁तैना	-5117
▁चतु	-5118
▁इंस्ट	-5119
▁तरीकों	-5120
▁पेंडेंसी	-5121
▁आवासीय	-5122
▁आश्वासन	-5123
▁प्रिय	-5124
▁समापन	-5125
▁राजपत्र	-5126
▁त्वर	-5127
▁रहित	-5128
▁पक्षपात	-5129
▁सर्वोत्तम	-5130
▁बजा	-5131
▁अभिप्रेत	-5132
पट	-5133
्त्र	-5134
▁वचन	-5135
▁ताकत	-5136
▁पटेल	-5137
▁नवान्वेषण	-5138
▁नाबाल	-5139
▁खरीदने	-5140
▁कार्यरत	-5141
▁गंभीरता	-5142
▁असाम	-5143
▁समर्पित	-5144
▁सत्यापित	-5145
le	-5146
▁ग्रेड	-5147
▁फैसलों	-5148
▁उपकरणों	-5149
▁नाबालिग	-5150
▁नै	-5151
▁ओवर	-5152
▁भंडारण	-5153
▁निर्णायक	-5154
▁सोसायटी	-5155
▁निष्क्रिय	-5156
▁M	-5157
▁धु	-5158
शक्ति	-5159
जन्य	-5160
काब	-5161
▁रुख	-5162
▁मासिक	-5163
विंद	-5164
▁आनु	-5165
▁पेशकश	-5166
▁मशीनरी	-5167
घर	-5168
▁नमूने	-5169
▁सुविधाएं	-5170
निहित	-5171
▁दोस्त	-5172
▁इंटरनेट	-5173
▁स्वर्गीय	-5174
▁मौका	-5175
▁सांस	-5176
▁ऑर्डर	-5177
▁विरासत	-5178
▁m	-5179
▁अन्तर	-5180
▁दाह	-5181
▁दौरा	-5182
▁टेस्ट	-5183
▁समावेश	-5184
▁बैंकिंग	-5185
▁फार्म	-5186
▁प्राधिकृत	-5187
भि	-5188
द्री	-5189
▁जता	-5190
वासियों	-5191
▁उच्चतर	-5192
▁उल्लेखनीय	-5193
▁जमी	-5194
▁ऑफिस	-5195
▁डालने	-5196
रू	-5197
द्रास	-5198
▁आदान	-5199
▁सुलझा	-5200
▁चिप	-5201
▁सतह	-5202
▁लड़के	-5203
गमन	-5204
▁रोका	-5205
सुर	-5206
▁फ़िल	-5207
▁अंतराल	-5208
▁अचल	-5209
▁इकाइयों	-5210
घाटन	-5211
ांकित	-5212
▁पड़ी	-5213
▁यथास्थिति	-5214
लिंग	-5215
▁ईमान	-5216
ंजा	-5217
दियों	-5218
सायनिक	-5219
▁नार	-5220
▁पोषण	-5221
▁बनाते	-5222
▁सरदार	-5223
▁डो	-5224
विचार	-5225
▁पांडे	-5226
▁अजीब	-5227
▁मिलाकर	-5228
▁सम्बन्धी	-5229
re	-5230
पय	-5231
यक	-5232
▁h	-5233
ष्णु	-5234
▁आना	-5235
▁मद्रास	-5236
्वत	-5237
▁कितनी	-5238
▁नेशनल	-5239
▁झा	-5240
▁इंद	-5241
▁संगम	-5242
▁अस्वीकृति	-5243
भाषा	-5244
ोचित	-5245
▁किताब	-5246
िकी	-5247
▁दुख	-5248
▁अज्ञात	-5249
पीएस	-5250
म्मा	-5251
वों	-5252
▁जागर	-5253
▁निश्चय	-5254
▁दान	-5255
▁समूहों	-5256
▁यौन	-5257
ोजी	-5258
▁प्रक्रियाओं	-5259
याम	-5260
▁फेंक	-5261
▁गोप	-5262
▁सटी	-5263
▁हमले	-5264
र्की	-5265
्राव	-5266
ोरेशन	-5267
त्तियां	-5268
धियों	-5269
▁सिंध	-5270
▁हैंः	-5271
▁नीतियों	-5272
लीय	-5273
▁मण	-5274
▁बढ़े	-5275
▁गवर्न	-5276
▁क्यू	-5277
▁परिकल्पना	-5278
at	-5279
पहर	-5280
ंदाज	-5281
▁किलोमीटर	-5282
▁ग्राहकों	-5283
▁कांस्टेबल	-5284
बीर	-5285
▁भावी	-5286
▁वितरित	-5287
बु	-5288
▁आखिर	-5289
▁विंडो	-5290
▁दुर्भाग्य	-5291
▁नगरपालिका	-5292
वरों	-5293
▁उपे	-5294
is	-5295
▁बॉम्बे	-5296
▁आवेदनों	-5297
▁बैठे	-5298
▁महीनों	-5299
▁प्रोफेसर	-5300
▁पार्क	-5301
▁स्थगन	-5302
▁वाणिज्य	-5303
▁उत्तराधिकारी	-5304
्यूल	-5305
▁होंगी	-5306
▁अब्दुल	-5307
▁मानकों	-5308
अल	-5309
ख्यात	-5310
▁अंकित	-5311
▁एआईआर	-5312
▁लड़ाई	-5313
▁आलोचना	-5314
▁डब्ल्यू	-5315
▁दस्तावेजी	-5316
िरी	-5317
▁स्वभाव	-5318
▁समर्थित	-5319
▁पैनल	-5320
▁दंडित	-5321
▁नेताओं	-5322
▁n	-5323
मर	-5324
लोड	-5325
▁खि	-5326
खल	-5327
ic	-5328
▁सचे	-5329
▁बंधक	-5330
▁चाहती	-5331
▁त्वचा	-5332
▁कुमारी	-5333
▁सोचा	-5334
▁इनका	-5335
▁डायरी	-5336
▁विनिमय	-5337
ro	-5338
हल	-5339
▁g	-5340
▁छवि	-5341
▁असंभव	-5342
▁निर्माता	-5343
मिक	-5344
गामी	-5345
ार्ट	-5346
▁रिटर्न	-5347
▁शत्रुतापूर्ण	-5348
▁अनाव	-5349
▁परमाणु	-5350
▁दिनांकित	-5351
▁रहें	-5352
▁लंबाई	-5353
▁मुला	-5354
▁त्वरित	-5355
▁मनमाना	-5356
▁१	-5357
▁लल	-5358
ड्डी	-5359
▁नोड	-5360
▁चिंतन	-5361
▁शेख	-5362
▁आराम	-5363
▁पुष्	-5364
▁चाय	-5365
▁जुड़	-5366
▁व्यवस्थित	-5367
▁जरिए	-5368
▁बाह्य	-5369
▁अधिकतर	-5370
रप	-5371
▁इश	-5372
▁वांछ	-5373
ग्रस्त	-5374
ोश	-5375
▁पैसा	-5376
▁वार्	-5377
राय	-5378
▁अवगत	-5379
▁दोपहर	-5380
▁कागज	-5381
▁जानें	-5382
▁माध्य	-5383
▁जनजाति	-5384
बादी	-5385
▁कति	-5386
▁गहन	-5387
▁आस्ति	-5388
▁फैला	-5389
▁मानदंडों	-5390
▁असमान	-5391
▁चलो	-5392
हाबाद	-5393
▁जहाज	-5394
▁निपटारा	-5395
▁स्थिरता	-5396
▁उपलब्धता	-5397
▁भेजी	-5398
▁रानी	-5399
▁शास्त	-5400
▁अपनाने	-5401
▁वृक्ष	-5402
▁विनिर्माण	-5403
काय	-5404
ब्र	-5405
▁अख	-5406
▁नग	-5407
▁दावेदारों	-5408
▁नियमितीकरण	-5409
▁संवाद	-5410
काता	-5411
▁मध्यम	-5412
▁पैकेज	-5413
ान्य	-5414
▁अनिश्चित	-5415
▁संरक्षित	-5416
खाने	-5417
क्षीय	-5418
▁क्ला	-5419
▁गांवों	-5420
अर	-5421
▁चली	-5422
▁बोस	-5423
▁डीडब्ल्यू	-5424
▁टक	-5425
▁मैने	-5426
▁निर्वि	-5427
▁अग्रणी	-5428
▁महात्मा	-5429
▁सौर	-5430
▁रासायनिक	-5431
एगा	-5432
▁खनिज	-5433
▁वस्तुत	-5434
▁सभ्यता	-5435
▁स्वस्थ	-5436
ध्यक्ष	-5437
▁शंकरा	-5438
▁असह	-5439
▁टू	-5440
▁नकदी	-5441
▁मामूली	-5442
हान	-5443
▁एक्ज़	-5444
▁बारी	-5445
▁मंज	-5446
▁चिंतित	-5447
▁समृद्ध	-5448
▁प्रक	-5449
▁आहार	-5450
षक	-5451
ंचाई	-5452
▁कतिपय	-5453
▁इलेक्ट्रॉनिक	-5454
▁विशेषाधिकार	-5455
लिया	-5456
▁फंसाया	-5457
▁संक्रमण	-5458
▁भूत	-5459
▁कितने	-5460
▁ग्रस्त	-5461
▁तत्वों	-5462
▁ब्राह्म	-5463
ब्लिक	-5464
विज्ञान	-5465
▁तैयारी	-5466
▁नियोजित	-5467
द्धा	-5468
कीर्ण	-5469
▁बारह	-5470
▁लिंक	-5471
▁सफेद	-5472
▁पड़ेगा	-5473
▁निलंबन	-5474
▁चुप	-5475
▁सिवाय	-5476
▁समझाया	-5477
▁हरिया	-5478
▁चू	-5479
ैर	-5480
▁अंतः	-5481
▁गेंद	-5482
▁पुस्तकों	-5483
▁फैल	-5484
▁प्रतिवाद	-5485
▁शेयरधार	-5486
ेटी	-5487
ोक्	-5488
▁काली	-5489
▁लिंग	-5490
▁इंकार	-5491
क्क	-5492
▁सदैव	-5493
▁रियायत	-5494
िबिट	-5495
▁एस्ट	-5496
▁ट्यू	-5497
▁मुंह	-5498
▁पुनर्वास	-5499
त्स	-5500
▁विनय	-5501
▁ऑपरेट	-5502
▁परिणामों	-5503
▁ऊपरी	-5504
▁पर्यटन	-5505
▁एयर	-5506
▁चाव	-5507
पण	-5508
▁उक	-5509
▁नान	-5510
▁..	-5511
▁...	-5512
▁किस्म	-5513
मेल	-5514
▁शौ	-5515
ोषित	-5516
▁रुक	-5517
▁अद्य	-5518
▁साझेदारी	-5519
▁सेन	-5520
▁प्रभाग	-5521
▁इलाहाबाद	-5522
धक	-5523
ज्ञेय	-5524
▁एजेंस	-5525
▁आस्त	-5526
▁व्यक्तित्व	-5527
▁गहरी	-5528
▁शुरु	-5529
▁तैनात	-5530
एसएल	-5531
▁उन्म	-5532
▁एकड़	-5533
▁विक्रय	-5534
▁अधिनियमित	-5535
▁मेर	-5536
▁कमेटी	-5537
▁एका	-5538
▁निस्	-5539
▁उपहार	-5540
▁प्यार	-5541
▁स्वतः	-5542
▁परिसमा	-5543
▁टेलीफोन	-5544
▁सम्पूर्ण	-5545
▁भ्रष्टाचार	-5546
लभ	-5547
ावट	-5548
▁सिक	-5549
▁फिली	-5550
▁अपनाई	-5551
▁मिलियन	-5552
▁तर्कों	-5553
▁दुश्म	-5554
दुर	-5555
▁भरे	-5556
▁पौधों	-5557
▁जुड़ी	-5558
▁विद्र	-5559
▁चन्द्र	-5560
▁दुः	-5561
▁बजट	-5562
▁गर्दन	-5563
▁मालूम	-5564
▁मालिकों	-5565
▁रिज	-5566
▁लेती	-5567
▁राजधानी	-5568
हरण	-5569
▁अमर	-5570
▁चैनल	-5571
▁सिंचाई	-5572
▁माध्यमिक	-5573
▁सिफारिशों	-5574
▁मार्गदर्शन	-5575
▁बचत	-5576
▁समेक	-5577
▁पेट्रोल	-5578
▁व्यायाम	-5579
एमसी	-5580
ॉर्नी	-5581
▁टो	-5582
▁पॉ	-5583
▁पदार्थों	-5584
▁संतोषजनक	-5585
▁क्रिकेट	-5586
▁मुकाब	-5587
▁परिणामी	-5588
▁हिंदुस्तान	-5589
▁झार	-5590
▁लखन	-5591
ोल्डर	-5592
▁लकड़ी	-5593
▁कोलकाता	-5594
ड़ब	-5595
▁डीड	-5596
ंतरित	-5597
▁उतना	-5598
▁सुदृ	-5599
▁प्रतियोगिता	-5600
रेख	-5601
़्त	-5602
▁दायित्वों	-5603
्यूम	-5604
▁सच्चाई	-5605
▁अटॉर्नी	-5606
▁सतर्कता	-5607
संस्	-5608
▁प्रतीक्षा	-5609
ट्	-5610
▁वसूल	-5611
▁आशंका	-5612
▁अन्तर्गत	-5613
मूल	-5614
▁विनियमित	-5615
▁सुनील	-5616
▁कदाचार	-5617
▁निर्विवाद	-5618
चालित	-5619
धिकृत	-5620
▁धातु	-5621
▁सर्विस	-5622
▁शंकराचार्य	-5623
ज़ार	-5624
ल्हा	-5625
▁बहाल	-5626
▁संभाल	-5627
▁अभियोगी	-5628
▁संवर्धन	-5629
कोश	-5630
राशि	-5631
▁दमन	-5632
▁प्रजा	-5633
▁स्टॉक	-5634
▁छे	-5635
म्बा	-5636
संदेह	-5637
▁पंडित	-5638
▁कहान	-5639
▁जवाह	-5640
▁मिलते	-5641
▁इंडियन	-5642
्रल	-5643
▁प्रतिभूति	-5644
शो	-5645
▁नकद	-5646
▁अभिक	-5647
▁मारने	-5648
▁पोत	-5649
▁अधिरो	-5650
▁मिलेगा	-5651
ेरे	-5652
▁क्	-5653
▁ऑफ़	-5654
दाबाद	-5655
वायु	-5656
ांतिक	-5657
▁समुद्री	-5658
▁साथी	-5659
▁प्रता	-5660
▁अंतर्निहित	-5661
बाई	-5662
ैक्ट	-5663
▁अमान्य	-5664
▁मास्टर	-5665
▁प्रतिबि	-5666
िवेश	-5667
▁घूम	-5668
▁उत्तेज	-5669
▁सद्	-5670
▁खुली	-5671
▁हार्दिक	-5672
▁टिकट	-5673
▁वास्तविकता	-5674
▁पूरक	-5675
▁पश	-5676
▁ससुर	-5677
▁उद्घाटन	-5678
िटल	-5679
सागर	-5680
▁वक्फ	-5681
▁व्	-5682
दायक	-5683
▁आजीवन	-5684
़्य	-5685
▁फु	-5686
▁वैवाहिक	-5687
्याम	-5688
▁उतर	-5689
तियां	-5690
१३	-5691
▁अखिल	-5692
▁नवा	-5693
▁यूनियन	-5694
भेद	-5695
▁बंदूक	-5696
▁सूर	-5697
▁अर्जी	-5698
▁अधिग्रहित	-5699
▁तद	-5700
▁भंडार	-5701
▁अग्रवाल	-5702
▁पंक्ति	-5703
▁विस्तारित	-5704
▁खेत	-5705
▁जाग	-5706
▁रवि	-5707
▁देवता	-5708
▁परिचित	-5709
▁प्रतिनिधियों	-5710
▁टूट	-5711
पत्ति	-5712
मार्क	-5713
गोर	-5714
▁एओ	-5715
▁असली	-5716
▁क्लब	-5717
िर्	-5718
▁याचिकाएं	-5719
▁इकट्ठा	-5720
▁एक्ज़िबिट	-5721
मेन	-5722
▁हान	-5723
▁पीड़ा	-5724
▁रहेंगे	-5725
▁विकलांगता	-5726
▁रिकॉर्डिंग	-5727
▁इंजीनियरिंग	-5728
एसआई	-5729
ेलना	-5730
▁तुम्हारे	-5731
दल	-5732
▁गुल	-5733
▁हिमा	-5734
▁लिप	-5735
▁हेड	-5736
▁सदस्यता	-5737
ुका	-5738
▁गज	-5739
▁जागरूक	-5740
▁मरम्मत	-5741
▁मूलभूत	-5742
▁हस्तांतरित	-5743
▁बौद्धिक	-5744
▁मृत्युदंड	-5745
▁लगने	-5746
▁दिव्य	-5747
▁प्रोवि	-5748
▁न्यायसंगत	-5749
▁शिखर	-5750
▁खड़ी	-5751
▁विष्णु	-5752
▁वहन	-5753
▁निष्का	-5754
▁संवेदन	-5755
▁पूर्वव्यापी	-5756
▁सकल	-5757
▁पीडी	-5758
▁कार्यवाहियों	-5759
सीटी	-5760
▁डाटा	-5761
▁स्वर्ण	-5762
▁बनाये	-5763
▁फ़िल्म	-5764
▁प्रतिदिन	-5765
ूर्त	-5766
▁पाइ	-5767
िलों	-5768
▁स्वे	-5769
▁प्रतिल	-5770
▁रेड्डी	-5771
▁जातियों	-5772
▁अल्पसंख्यक	-5773
▁शान	-5774
न्दर	-5775
▁कोट	-5776
ोक्ति	-5777
▁नौकर	-5778
पूर	-5779
▁दत्त	-5780
▁आजादी	-5781
तांत्रिक	-5782
इश	-5783
▁बेश	-5784
▁नजरअ	-5785
▁खतरनाक	-5786
▁संभवतः	-5787
▁अनावश्यक	-5788
▁निर्वाचित	-5789
उंट	-5790
िसाब	-5791
धारित	-5792
▁गरीबी	-5793
▁स्त्र	-5794
▁सल	-5795
▁श्रेणियों	-5796
▁कं	-5797
▁कड़ी	-5798
▁चुनौ	-5799
▁परिचय	-5800
▁प्रणाल	-5801
▁शोर	-5802
र्याप्त	-5803
▁आर्बिट	-5804
▁खनन	-5805
▁बेद	-5806
▁निवेदन	-5807
▁ब्रिटेन	-5808
▁लोड	-5809
▁प्रशास	-5810
▁सहन	-5811
▁टिका	-5812
▁निरसन	-5813
▁इंग्लैंड	-5814
▁चिकित्सक	-5815
लम	-5816
▁सांप	-5817
▁महानि	-5818
▁समझते	-5819
▁नृत	-5820
रिक्ष	-5821
▁उत्साह	-5822
वै	-5823
जनन	-5824
▁पच	-5825
क्राम	-5826
▁उतार	-5827
▁पत्त	-5828
▁पांड	-5829
▁चोरी	-5830
▁बनाकर	-5831
▁घटनास्थल	-5832
▁अद्यतन	-5833
▁हरियाणा	-5834
▁इंत	-5835
▁नेत्र	-5836
▁नजरअंदाज	-5837
▁निहितार्थ	-5838
्यवाद	-5839
▁शहरों	-5840
▁लक्ष्मी	-5841
भु	-5842
▁भो	-5843
्याव	-5844
▁नियंत्रक	-5845
▁निषेध	-5846
▁व्यापारी	-5847
ot	-5848
▁रिस	-5849
ंपरिक	-5850
▁पौधे	-5851
tion	-5852
▁पीछा	-5853
▁बेटा	-5854
▁रहेगी	-5855
रम	-5856
ेंशन	-5857
▁सुपर	-5858
ष्ठा	-5859
▁सुदृढ़	-5860
▁कष्ट	-5861
▁नेपाल	-5862
▁मूर्ति	-5863
▁हेम	-5864
▁इनकी	-5865
▁हिमाचल	-5866
▁विविधता	-5867
▁मृ	-5868
कोर्ट	-5869
▁इक्व	-5870
▁मतदान	-5871
▁हिस्सों	-5872
शिप	-5873
▁चेन्नई	-5874
▁दुर्बलता	-5875
▁अपर्याप्त	-5876
▁इसील	-5877
▁ब्रा	-5878
▁झारखंड	-5879
▁केंद्रित	-5880
िपल	-5881
▁खट	-5882
▁जनहित	-5883
ब्बे	-5884
▁शिशु	-5885
वती	-5886
▁मस्	-5887
▁दरों	-5888
ांश	-5889
▁द्विप	-5890
▁परिवारों	-5891
▁प्रतिस्थापित	-5892
गन	-5893
▁कमा	-5894
▁घरों	-5895
▁बताना	-5896
▁जलवायु	-5897
▁बल्ले	-5898
कात	-5899
▁क्षण	-5900
▁परमिट	-5901
▁नीतिगत	-5902
▁प्रतिस्पर्धा	-5903
क्ष्य	-5904
िष्कार	-5905
▁मनी	-5906
▁छाया	-5907
▁देशी	-5908
▁अंजाम	-5909
▁वार्ता	-5910
ॉम	-5911
▁मिथ	-5912
▁सटीक	-5913
▁विनाश	-5914
▁धनराशि	-5915
▁ग़	-5916
▁कहला	-5917
कोट	-5918
▁कम्पनी	-5919
▁सुनाया	-5920
▁इंजीनिय	-5921
▁तंत्रिका	-5922
म्परा	-5923
▁शांत	-5924
▁क्लिक	-5925
▁ठहराने	-5926
▁साधनों	-5927
▁श्रमिकों	-5928
न्दु	-5929
▁विवेका	-5930
▁फलस्वरूप	-5931
▁कैडर	-5932
ोक्ताओं	-5933
▁शिकायतों	-5934
▁स्वचालित	-5935
▁कहां	-5936
▁झूठा	-5937
▁पारंपरिक	-5938
▁कोयला	-5939
ागर	-5940
▁मारा	-5941
चलन	-5942
चंद्र	-5943
▁सिन्	-5944
▁पड	-5945
र्थी	-5946
▁दुखी	-5947
ुत्	-5948
▁लॉग	-5949
▁न्यास	-5950
▁संदाय	-5951
▁प्रेषित	-5952
▁o	-5953
▁’	-5954
चंद	-5955
▁लौटा	-5956
▁भक्ति	-5957
▁रहस्य	-5958
▁सेटिंग	-5959
▁तहसीलदार	-5960
चेंज	-5961
▁भेंट	-5962
▁खूब	-5963
०क	-5964
▁ताजा	-5965
▁प्रतिपाद	-5966
▁पाद	-5967
रता	-5968
▁श्व	-5969
जिद	-5970
मैन	-5971
▁उसको	-5972
▁जिनसे	-5973
▁दक्षता	-5974
▁प्रान्त	-5975
▁परिस्थितिजन्य	-5976
फो	-5977
▁संजय	-5978
▁बताती	-5979
ुरा	-5980
▁उत	-5981
▁सर्ट	-5982
▁वाक्य	-5983
▁बेल	-5984
▁वस्तुतः	-5985
▁अभिलेखों	-5986
इल	-5987
▁हॉ	-5988
्लिकेशन	-5989
▁समृद्धि	-5990
▁प्रतिष्ठित	-5991
▁तिल	-5992
▁शुद्धता	-5993
▁प्रबल	-5994
▁कामगार	-5995
▁दक्षिणी	-5996
नीति	-5997
रेखा	-5998
▁कोटा	-5999
▁आबादी	-6000
▁उपखंड	-6001
▁भत्ता	-6002
▁कॉलेजों	-6003
▁असामान्य	-6004
रद	-6005
▁तृ	-6006
▁संग्र	-6007
▁भारतीयों	-6008
▁पुनर्विचार	-6009
▁प्रस्तावों	-6010
डिंग	-6011
अप	-6012
कियों	-6013
▁गोपनीय	-6014
▁प्रारम्भ	-6015
विक	-6016
▁भरी	-6017
ड़िया	-6018
ौदा	-6019
▁संध्या	-6020
▁शक्तिशाली	-6021
▁सीम	-6022
▁जंगल	-6023
▁अनियमितता	-6024
▁उदा	-6025
▁कनेक्शन	-6026
▁प्रस्तुतिकरण	-6027
धिव	-6028
▁एव	-6029
▁प्	-6030
▁डाउन	-6031
▁प्रवृत्त	-6032
▁आबंट	-6033
▁गुफा	-6034
▁बढ़ते	-6035
▁बॉक्स	-6036
▁पब्लिक	-6037
▁ज़्यादा	-6038
▁परम्परा	-6039
▁अज	-6040
▁अभिला	-6041
▁समझता	-6042
▁सप	-6043
▁अदा	-6044
क्टरों	-6045
▁सर्क	-6046
▁बीस	-6047
फ़ी	-6048
▁बुरी	-6049
▁थोड़ी	-6050
▁मैसर्स	-6051
▁बैक	-6052
▁सड़	-6053
मि	-6054
▁ष	-6055
▁बाँ	-6056
▁राह	-6057
▁मंदिरों	-6058
▁हाईकोर्ट	-6059
िमा	-6060
▁चां	-6061
▁सना	-6062
▁सोन	-6063
▁सीधा	-6064
सिद्धि	-6065
स्थापन	-6066
▁एक्सप	-6067
▁ज्व	-6068
दृश्य	-6069
▁अप्रत्य	-6070
बारी	-6071
िल्प	-6072
स्वती	-6073
▁बोलने	-6074
▁हथिया	-6075
न्थ	-6076
्रु	-6077
▁फोटो	-6078
▁जू	-6079
ापति	-6080
▁एमओ	-6081
▁सिटी	-6082
▁जितनी	-6083
नगर	-6084
पाई	-6085
बारा	-6086
▁टर्म	-6087
▁सीता	-6088
▁स्नातक	-6089
▁सामान्यतः	-6090
▁चालान	-6091
▁मुक्ति	-6092
▁समायोजित	-6093
▁दम	-6094
▁डिफ	-6095
▁मेट	-6096
▁बालक	-6097
▁ब्यू	-6098
▁अध्यक्षता	-6099
हार्य	-6100
▁तनाव	-6101
▁सीडी	-6102
▁निचले	-6103
ाट	-6104
▁फायदा	-6105
▁विश्वसनीयता	-6106
▁कही	-6107
▁पट्टी	-6108
▁बिलकुल	-6109
▁क्रांति	-6110
▁लोकतांत्रिक	-6111
▁वय	-6112
▁फुट	-6113
▁एसटी	-6114
▁भूखंड	-6115
▁रूपों	-6116
▁हड़	-6117
▁देगी	-6118
िवारिक	-6119
▁रायपुर	-6120
▁वस्त्र	-6121
▁भव	-6122
द्वी	-6123
▁जीन	-6124
▁तिव	-6125
▁डीलर	-6126
▁मानी	-6127
▁देखता	-6128
०वीं	-6129
▁रखकर	-6130
▁लगती	-6131
▁अवय	-6132
▁स्तरों	-6133
▁पारिवारिक	-6134
▁बैग	-6135
▁अक्त	-6136
▁उर्व	-6137
▁बंदर	-6138
▁बांग	-6139
्ज	-6140
डिट	-6141
▁उपज	-6142
▁उर्	-6143
▁कोष	-6144
▁कामका	-6145
▁हिन्दु	-6146
▁सिद्धान्त	-6147
▁बढा	-6148
▁सर्टिफ	-6149
ीली	-6150
▁अपहरण	-6151
▁मिलेगी	-6152
िश्न	-6153
▁हिसाब	-6154
▁निरंतरता	-6155
न्या	-6156
िमांड	-6157
▁गोपाल	-6158
▁इसीलिए	-6159
▁मनमानी	-6160
▁बर्खास्तगी	-6161
▁जीवा	-6162
▁चार्ट	-6163
▁परिश्रम	-6164
काने	-6165
▁मरा	-6166
▁घृ	-6167
▁इस्	-6168
▁नामों	-6169
▁तिवारी	-6170
▁विधानसभा	-6171
ुश	-6172
▁सोम	-6173
▁बहादुर	-6174
▁क्रमांक	-6175
▁परिवी	-6176
▁स्क्रीन	-6177
▁पहुंचाने	-6178
▁फॉर	-6179
▁मैत्री	-6180
▁सरस्वती	-6181
▁उपायुक्त	-6182
▁अंकों	-6183
गाव	-6184
▁एसी	-6185
▁सूचक	-6186
▁ऊंचाई	-6187
▁माइक्र	-6188
▁नाइ	-6189
▁रखती	-6190
▁वृद्ध	-6191
▁महाधिव	-6192
▁डिज	-6193
ल्पित	-6194
▁खासकर	-6195
▁यूरोपीय	-6196
▁दरवाजे	-6197
▁झील	-6198
▁गड़ब	-6199
▁पीढ़ी	-6200
▁अप्रत्यक्ष	-6201
टु	-6202
डीसी	-6203
▁अतीत	-6204
्राफ्ट	-6205
▁उन्हीं	-6206
▁गहराई	-6207
▁जोड़े	-6208
▁क्रेता	-6209
▁अविश्वास	-6210
▁एप्लिकेशन	-6211
▁रवीन्द्रनाथ	-6212
▁पते	-6213
▁रेख	-6214
▁आपसी	-6215
▁अनधिकृत	-6216
▁इस्लामी	-6217
▁मूल्यवान	-6218
▁बीमाकर्ता	-6219
▁साहित्यिक	-6220
▁उकसा	-6221
▁सचेत	-6222
▁गाड़ी	-6223
▁चीजें	-6224
▁प्रदर्शनी	-6225
▁इंट	-6226
▁कैप	-6227
▁लाए	-6228
▁विघ	-6229
▁झगड़ा	-6230
▁नृत्य	-6231
प्ति	-6232
▁वास	-6233
▁इक्विटी	-6234
▁अंतरिक्ष	-6235
▁एजेंसियों	-6236
▁क्रियान्व	-6237
▁परिस्थितियां	-6238
▁नर्स	-6239
▁शास्त्र	-6240
भौ	-6241
रस	-6242
▁खोला	-6243
▁मुलाकात	-6244
▁अधिनियमों	-6245
ुरु	-6246
▁दुर्लभ	-6247
▁प्रतिर	-6248
▁संपन्न	-6249
ज्ज	-6250
▁उपर	-6251
▁किल	-6252
▁पुनर्ग	-6253
▁सफलतापूर्वक	-6254
▁कस	-6255
▁आइट	-6256
▁जनजा	-6257
▁प्रसंस्	-6258
▁परिवीक्षा	-6259
डो	-6260
ट्टा	-6261
▁अनुर	-6262
▁बुलाने	-6263
साई	-6264
▁कू	-6265
रचना	-6266
▁व्युत्	-6267
यिक	-6268
▁पुण	-6269
▁ग्री	-6270
▁रसायन	-6271
▁अक्तूबर	-6272
इयां	-6273
▁इंस	-6274
यंस	-6275
▁जगत	-6276
▁भूख	-6277
▁तदर्थ	-6278
▁स्तरीय	-6279
▁लेनदार	-6280
▁महाधिवक्ता	-6281
बेट	-6282
ाइयों	-6283
▁साझी	-6284
▁पत्रिका	-6285
▁विवरणों	-6286
▁प्रतिलिपि	-6287
▁सुनकर	-6288
▁पॉलिसी	-6289
▁मस्जिद	-6290
▁परिल	-6291
▁भीड़	-6292
▁प्रिंट	-6293
▁एक्सचेंज	-6294
▁नज	-6295
▁छिपा	-6296
ांक्षा	-6297
▁प्लान	-6298
▁यथार्थ	-6299
सेना	-6300
▁रेश	-6301
▁उठाई	-6302
▁मनाया	-6303
▁संपदा	-6304
▁रेडियो	-6305
▁उपलब्धि	-6306
▁द्विपक्षीय	-6307
▁औस	-6308
▁रोम	-6309
▁निदेशकों	-6310
▁परिषद्	-6311
▁पहुंची	-6312
ोसी	-6313
▁सदी	-6314
▁सीन	-6315
▁लॉर्ड	-6316
▁आत्मसम	-6317
स्परिक	-6318
▁मतभेद	-6319
सेस	-6320
▁शोक	-6321
▁त्रि	-6322
▁मछली	-6323
▁आरंभिक	-6324
▁महाराजा	-6325
▁सीआरपीसी	-6326
▁निस्संदेह	-6327
ूलन	-6328
▁बैठा	-6329
▁याता	-6330
▁समझे	-6331
नर	-6332
्टा	-6333
▁बैल	-6334
▁कमिश्न	-6335
▁वाहनों	-6336
ूष	-6337
ंधन	-6338
ल्ह	-6339
▁विलय	-6340
▁प्रांत	-6341
क्कर	-6342
▁पंचनामा	-6343
▁रचनात्मक	-6344
▁रॉ	-6345
▁लखनऊ	-6346
▁अध्यादेश	-6347
▁आतंकवादी	-6348
ao	-6349
▁लोह	-6350
▁गौरव	-6351
▁भाग्य	-6352
▁पहाड़ी	-6353
▁प्रिंस	-6354
ेदी	-6355
▁कीटना	-6356
▁मतदाता	-6357
▁कामना	-6358
▁जना	-6359
▁उपेक्षा	-6360
ॉर्टम	-6361
▁ईसाई	-6362
▁युक्ति	-6363
▁अवर	-6364
▁बिता	-6365
▁अवह	-6366
▁सकी	-6367
ज्जित	-6368
▁अखबार	-6369
▁मनमाने	-6370
टने	-6371
वाहा	-6372
▁जाली	-6373
▁प्रीम	-6374
▁सर्टिफिकेट	-6375
▁‘‘	-6376
▁जीत	-6377
▁गीता	-6378
▁सीटों	-6379
▁यातायात	-6380
वास्त	-6381
▁अभ्य	-6382
▁पारस्परिक	-6383
िवर्त	-6384
▁एमएस	-6385
▁लाना	-6386
▁निकलने	-6387
▁रिक्ति	-6388
▁पुस्तिका	-6389
et	-6390
ंसक	-6391
कथित	-6392
िकारक	-6393
▁टाइप	-6394
▁ग्राफ	-6395
▁आत्मसमर्पण	-6396
▁काला	-6397
▁लंबा	-6398
▁पुष्ट	-6399
निय	-6400
▁धरती	-6401
▁पढ़े	-6402
▁अपमानजनक	-6403
हारी	-6404
▁हाइ	-6405
▁कर्ण	-6406
▁डीएन	-6407
▁खोजने	-6408
▁गुंजा	-6409
▁विभिन्	-6410
स्वामी	-6411
▁खरीदी	-6412
▁जायें	-6413
▁मंजूर	-6414
▁अनदेखी	-6415
मै	-6416
ोई	-6417
▁साहस	-6418
ेन्द्र	-6419
ोकन	-6420
्यौ	-6421
▁आइटम	-6422
▁तलाक	-6423
▁बेशक	-6424
कारिता	-6425
▁टुकड़े	-6426
▁निर्देशिका	-6427
ंथी	-6428
न्ध	-6429
ंदगी	-6430
▁पाप	-6431
▁हां	-6432
▁औसतन	-6433
मॉर्टम	-6434
▁सहयोगी	-6435
▁चौथा	-6436
▁रिश्वत	-6437
▁विद्यार्थी	-6438
▁निस्त	-6439
▁हिमालय	-6440
जिए	-6441
नेश	-6442
▁आपात	-6443
▁बनाती	-6444
▁पुनराव	-6445
▁पहन	-6446
▁द्वि	-6447
▁सेवन	-6448
▁संगठित	-6449
▁विनिश्च	-6450
▁वर्गीकृत	-6451
▁तरल	-6452
▁तारा	-6453
▁विधवा	-6454
ांसी	-6455
टीकरण	-6456
▁सीखी	-6457
स्ट्रे	-6458
▁उठाना	-6459
▁कराना	-6460
▁व्यापारिक	-6461
▁शरण	-6462
▁जिलों	-6463
▁निकाले	-6464
▁हथियारों	-6465
▁गू	-6466
िक्र	-6467
▁गिन	-6468
▁शीट	-6469
▁युवाओं	-6470
▁शक	-6471
त्रिम	-6472
▁उजागर	-6473
▁सीखने	-6474
▁पोस्टमॉर्टम	-6475
लन	-6476
▁सकेगी	-6477
त्रियों	-6478
▁संयोजन	-6479
▁बग	-6480
▁आधे	-6481
▁पाठक	-6482
▁मार्क	-6483
▁घो	-6484
▁लायक	-6485
▁तापमान	-6486
▁अनुज्ञात	-6487
▁कच	-6488
वाणी	-6489
▁पेशेवर	-6490
▁झट	-6491
▁शत्रु	-6492
▁मानो	-6493
▁रिज़	-6494
▁संधि	-6495
▁निलंबित	-6496
▁प्लस	-6497
▁अनन्य	-6498
▁हड्डी	-6499
ंपी	-6500
रेटर	-6501
▁मोटे	-6502
▁कोशिकाओं	-6503
जाने	-6504
नाइट	-6505
▁केश	-6506
▁नाय	-6507
▁कहती	-6508
▁रमेश	-6509
▁अमरीका	-6510
▁एकीकृत	-6511
▁कार्यपालिका	-6512
▁नियुक्तियों	-6513
१४	-6514
ुणा	-6515
कै	-6516
ढ़े	-6517
बीन	-6518
▁हाँ	-6519
▁भागीदार	-6520
▁सम्पत्ति	-6521
▁अनुपस्थित	-6522
▁नींव	-6523
▁अवहेलना	-6524
▁गुंजाइश	-6525
ाफ	-6526
फ्र	-6527
आईएल	-6528
▁कंध	-6529
▁ऑडिट	-6530
▁उभ	-6531
देशक	-6532
▁रिव	-6533
▁विशेषज्ञों	-6534
▁कृत्रिम	-6535
ुत्व	-6536
▁कॉन्	-6537
▁हेक्ट	-6538
दर्शिता	-6539
ानुभूति	-6540
▁निदेशालय	-6541
▁स्वेच्छा	-6542
▁ढूं	-6543
▁स्रोतों	-6544
▁अपरिहार्य	-6545
▁प्रकटीकरण	-6546
▁अंगों	-6547
▁कुल्हा	-6548
▁निकायों	-6549
▁लाठी	-6550
▁कमिश्नर	-6551
▁तथाकथित	-6552
▁माध्यस्थ	-6553
स्टिक	-6554
▁उपभोग	-6555
▁नवीनी	-6556
▁पर्वत	-6557
ंसर	-6558
थान	-6559
शाह	-6560
▁शुक्र	-6561
▁यात्री	-6562
ठे	-6563
हीत	-6564
▁अहमदाबाद	-6565
▁चरम	-6566
्राफी	-6567
▁मोड़	-6568
▁प्रजनन	-6569
▁रघु	-6570
▁लाई	-6571
▁छेड़	-6572
▁पृथक	-6573
▁परिसंप	-6574
la	-6575
▁मोटरसाइ	-6576
तन्य	-6577
स्फोट	-6578
▁जानकर	-6579
▁आधारभूत	-6580
▁टाउन	-6581
▁माने	-6582
लक	-6583
▁घास	-6584
▁जाओ	-6585
▁भांति	-6586
▁परिवेश	-6587
▁कार्मिक	-6588
वकों	-6589
▁एंट	-6590
▁मातृ	-6591
▁सार्थ	-6592
्शन	-6593
स्कर	-6594
्रेम	-6595
▁अनाज	-6596
▁असंत	-6597
ेक्स	-6598
▁फार	-6599
▁फ्लैट	-6600
▁e	-6601
▁समायोजन	-6602
लि	-6603
संच	-6604
▁झुक	-6605
▁लड़ने	-6606
▁चित्रण	-6607
▁अंग्रेज	-6608
▁विद्रोह	-6609
लै	-6610
▁हुस	-6611
▁उर्दू	-6612
▁दुश्मनी	-6613
स्को	-6614
▁इंद्र	-6615
▁वार्ड	-6616
▁कीटनाश	-6617
ंकी	-6618
केशन	-6619
ing	-6620
ंची	-6621
▁आपस	-6622
▁लार	-6623
▁हरे	-6624
प्राप्त	-6625
▁अस्थिर	-6626
▁सीनियर	-6627
ॉर	-6628
टीसी	-6629
रलाल	-6630
वर्ड	-6631
▁उपय	-6632
▁टैक्स	-6633
▁अत्यन्त	-6634
▁राजभाषा	-6635
▁मोटरसाइकिल	-6636
ुरी	-6637
जीसी	-6638
▁पोजी	-6639
▁योनि	-6640
▁लेंगे	-6641
प्प	-6642
▁उग्र	-6643
▁गणित	-6644
▁गायब	-6645
▁लेबल	-6646
▁चिन्ह	-6647
▁स्ट्र	-6648
▁चैतन्य	-6649
▁दुःख	-6650
तापूर्वक	-6651
▁प्रसंस्करण	-6652
ायें	-6653
▁उत्तम	-6654
▁पंचाट	-6655
कीन	-6656
ल्फ	-6657
्नि	-6658
▁निष्कासन	-6659
ित्य	-6660
▁टेन	-6661
▁पोल	-6662
▁बांग्ला	-6663
▁ड़	-6664
▁बेई	-6665
स्पति	-6666
▁एचसी	-6667
परक	-6668
मास	-6669
▁जताई	-6670
▁बन्द	-6671
▁सांख	-6672
▁चिकित्	-6673
ज़ो	-6674
▁वोट	-6675
▁डाले	-6676
▁चरणों	-6677
..	-6678
▁ट्यूब	-6679
▁सकेंगे	-6680
▁प्रतिबिंब	-6681
▁खटख	-6682
▁पेर	-6683
▁राजीव	-6684
▁व्यस्त	-6685
▁कॉर्पोरेट	-6686
पीए	-6687
िशा	-6688
भासी	-6689
स्पी	-6690
▁परा	-6691
▁विज	-6692
▁वरीय	-6693
▁पड़ती	-6694
▁उद्यान	-6695
▁ओम	-6696
र्ता	-6697
स्पद	-6698
▁कहे	-6699
▁श्वे	-6700
▁ढांचा	-6701
▁रोकना	-6702
कारियों	-6703
▁देनदार	-6704
▁फंड	-6705
▁अर्ज	-6706
स्तानी	-6707
▁प्लेट	-6708
▁खरीदार	-6709
ार्थियों	-6710
▁अधिरोपित	-6711
▁हस्ताक्षरित	-6712
▁बोध	-6713
▁पट्टा	-6714
▁भत्ते	-6715
▁उन्मूलन	-6716
▁खर्	-6717
▁रोश	-6718
ंद्रह	-6719
क्तिक	-6720
▁कट्ट	-6721
▁समझना	-6722
▁सैन्य	-6723
▁बिंदुओं	-6724
बरी	-6725
वर्	-6726
▁कना	-6727
ार्किक	-6728
▁मुझसे	-6729
▁सौंपी	-6730
गि	-6731
▁कुल्हाड़ी	-6732
म्बई	-6733
▁पंद्रह	-6734
▁समझौतों	-6735
▁जॉ	-6736
▁खाद	-6737
▁धूम	-6738
▁मंगल	-6739
▁बहाली	-6740
▁शस्त्र	-6741
▁विद्वानों	-6742
▁सहानुभूति	-6743
om	-6744
ब्ब	-6745
िटर	-6746
▁सुस	-6747
▁शोषण	-6748
्रेषित	-6749
▁संकाय	-6750
▁बाय	-6751
▁समाम	-6752
▁अभिगम	-6753
▁प्रतियां	-6754
दनी	-6755
ुलर	-6756
डेंट	-6757
▁तत्त्व	-6758
▁पुनर्म	-6759
▁पोजीशन	-6760
हाई	-6761
▁गिरवी	-6762
▁दशकों	-6763
▁प्रक्रियात्मक	-6764
एसए	-6765
तरी	-6766
भूषण	-6767
▁साध	-6768
▁बाएं	-6769
▁इनपुट	-6770
▁स्टील	-6771
▁शानदार	-6772
णि	-6773
▁तंब	-6774
▁ईंधन	-6775
▁गुणा	-6776
▁साहब	-6777
▁स्मरण	-6778
▁अनुक्रम	-6779
▁परिप्रे	-6780
▁सार्वभौ	-6781
▁कार्यालयों	-6782
ॉजी	-6783
गोलिक	-6784
▁अनिल	-6785
▁टीवी	-6786
▁सेक्टर	-6787
▁संज्ञेय	-6788
▁दिशानिर्देशों	-6789
िर्ण	-6790
▁ज़ि	-6791
▁फ़ोल्डर	-6792
कन	-6793
्रोप	-6794
▁लगते	-6795
▁जापान	-6796
▁निंदा	-6797
▁प्रीमियम	-6798
इज	-6799
▁एग्	-6800
िपत्य	-6801
▁उतनी	-6802
▁पड़ोसी	-6803
▁वस्तुएं	-6804
▁राश	-6805
▁थाने	-6806
▁नज़र	-6807
▁ब्यूरो	-6808
▁केंद्रों	-6809
▁रिफ	-6810
▁तलवार	-6811
▁प्रोफ	-6812
▁एफएसएल	-6813
▁मानवता	-6814
▁चिकित्सीय	-6815
रेज	-6816
वेल	-6817
▁छू	-6818
▁मंग	-6819
▁विनि	-6820
▁उपाधि	-6821
▁हार्ड	-6822
▁आंकड़े	-6823
▁प्रतिसाद	-6824
गंज	-6825
गाई	-6826
राइट	-6827
▁छुपा	-6828
विश्वास	-6829
▁कामकाज	-6830
▁समर्पण	-6831
▁बरामदगी	-6832
▁भौगोलिक	-6833
लास	-6834
▁बम	-6835
▁अमी	-6836
▁सतत	-6837
▁पीने	-6838
▁मुहर	-6839
▁अभिव्यक्त	-6840
मीन	-6841
्यूशन	-6842
▁एनआई	-6843
▁फायर	-6844
▁पुराना	-6845
▁सांख्यिक	-6846
▁कच्चे	-6847
वण	-6848
्मा	-6849
साइड	-6850
▁किमी	-6851
▁महाभारत	-6852
ोज़	-6853
▁पैट	-6854
▁कैंसर	-6855
▁हुसैन	-6856
▁नंद	-6857
▁अड्ड	-6858
▁दोनो	-6859
▁भक्त	-6860
▁खरीदा	-6861
▁शिक्षित	-6862
▁संभावनाओं	-6863
▁गेट	-6864
▁भाष	-6865
▁जाएँ	-6866
▁ड्राफ्ट	-6867
▁प्रसारण	-6868
परि	-6869
▁सोल	-6870
▁कड़ाई	-6871
▁पशुओं	-6872
▁उन्होने	-6873
▁औषध	-6874
▁खिल	-6875
▁दुर्व	-6876
▁संदेय	-6877
▁y	-6878
नेस	-6879
सास	-6880
▁डॉलर	-6881
▁बेहद	-6882
▁अभिलाभ	-6883
सूर	-6884
िणी	-6885
▁गुरू	-6886
▁विकि	-6887
▁बोलते	-6888
▁घनिष्ठ	-6889
▁अधिनिर्ण	-6890
ंती	-6891
▁अमरीकी	-6892
▁पुनर्गठन	-6893
▁लैस	-6894
▁स्ने	-6895
र्माने	-6896
▁जर्मनी	-6897
▁सम्बंध	-6898
▁भावनाओं	-6899
▁जुर्माने	-6900
▁आधा	-6901
▁गर्व	-6902
▁डिज़	-6903
▁ड्रग	-6904
▁चुनें	-6905
▁उत्पादक	-6906
ँग	-6907
▁बडी	-6908
▁सुधारने	-6909
ुड	-6910
पक्व	-6911
▁कीं	-6912
▁नाल	-6913
प्रद	-6914
▁ईरान	-6915
▁विजे	-6916
▁ईमानदारी	-6917
▁उत्तरदायित्व	-6918
सलों	-6919
▁चावल	-6920
▁बदला	-6921
▁सारांश	-6922
▁धन्यवाद	-6923
देह	-6924
शोथ	-6925
▁माला	-6926
▁प्रशिक्षित	-6927
यु	-6928
▁एनडी	-6929
▁हटाया	-6930
▁भगवान्	-6931
▁पुनर्व	-6932
▁दोषपूर्ण	-6933
ent	-6934
▁राधा	-6935
▁कोर्स	-6936
▁बढ़ता	-6937
▁मिश्रण	-6938
▁मुख्या	-6939
▁किन्हीं	-6940
▁परिप्रेक्ष्य	-6941
वंत	-6942
▁कमल	-6943
कलापों	-6944
▁वाद्य	-6945
▁सख्ती	-6946
▁संकीर्ण	-6947
ईसी	-6948
▁उर्फ	-6949
▁बनना	-6950
▁हेक्टेयर	-6951
म्र	-6952
▁आयी	-6953
▁नाक	-6954
▁दांत	-6955
▁गर्मी	-6956
▁मंजिल	-6957
▁जनादेश	-6958
▁परिपक्व	-6959
ार्द	-6960
▁याची	-6961
▁विस्फोट	-6962
▁किलोग्राम	-6963
िथ	-6964
पेश	-6965
▁फीट	-6966
▁अभिर	-6967
▁चर्च	-6968
▁जायेगी	-6969
▁दुर्गा	-6970
▁जवाहरलाल	-6971
जीवी	-6972
स्ट्र	-6973
▁पूर्णता	-6974
▁ब्राह्मण	-6975
दूरों	-6976
▁डेवल	-6977
▁दौड़	-6978
▁हाथी	-6979
▁आंखों	-6980
▁अनुमानित	-6981
▁हानिकारक	-6982
▁प्रयोज्यता	-6983
▁इलाके	-6984
▁इंतजार	-6985
▁रिजर्व	-6986
स्ट्रेलिया	-6987
तो	-6988
▁घाट	-6989
▁बाबा	-6990
▁ट्रैक	-6991
▁फ्रांस	-6992
▁समवर्ती	-6993
▁प्रतिष्ठान	-6994
▁डोमेन	-6995
▁पदोन्नत	-6996
▁प्रतिभूत	-6997
▁अच	-6998
बंदी	-6999
वायद	-7000
▁मरी	-7001
▁लेट	-7002
▁एकदम	-7003
▁हजारों	-7004
us	-7005
तें	-7006
▁वादों	-7007
▁सुरेश	-7008
▁दूरस्थ	-7009
ed	-7010
▁खपत	-7011
▁सिग	-7012
▁मुगल	-7013
▁जमींद	-7014
▁रिकार्ड	-7015
ेडकर	-7016
▁मेघ	-7017
▁हरी	-7018
ेंसिक	-7019
▁पुरूष	-7020
▁फोरम	-7021
▁कवायद	-7022
▁चुनौतियों	-7023
▁अजय	-7024
क्षकों	-7025
▁खटखटा	-7026
▁संभोग	-7027
▁माय	-7028
▁दण्ड	-7029
▁देनी	-7030
▁ऑफिसर	-7031
▁पड़ोस	-7032
▁विवरणी	-7033
▁राजेंद्र	-7034
थन	-7035
ायण	-7036
▁एल्	-7037
▁भोग	-7038
▁अंगूठ	-7039
▁iii	-7040
▁आपसे	-7041
▁लंदन	-7042
▁छोड़ा	-7043
▁शान्त	-7044
▁सम्भव	-7045
▁परीक्षक	-7046
▁प्रभार्य	-7047
जो	-7048
▁धान	-7049
▁सड़कों	-7050
▁यात्रियों	-7051
▁रजिस्ट्रीकरण	-7052
▁स्वीकारोक्ति	-7053
परा	-7054
▁कैल	-7055
▁कहाँ	-7056
▁रोगों	-7057
▁सांवि	-7058
▁समेकित	-7059
▁निर्वाह	-7060
▁पेट्रोलियम	-7061
▁रोशनी	-7062
▁होल्ड	-7063
▁पासपोर्ट	-7064
ष्म	-7065
▁तू	-7066
▁कंस	-7067
▁मॉड	-7068
▁सर्	-7069
▁राजू	-7070
▁बिल्ड	-7071
▁मुकदमों	-7072
el	-7073
▁फाइ	-7074
▁वरीयता	-7075
▁ज्यादातर	-7076
ज़े	-7077
सेट	-7078
▁नोस	-7079
संचार	-7080
▁पचास	-7081
खर	-7082
फ़र	-7083
▁चक	-7084
▁समन	-7085
▁बिस्त	-7086
▁मैट्र	-7087
▁एकत्रित	-7088
▁समुदायों	-7089
केल	-7090
▁रोट	-7091
▁मजदूर	-7092
▁पिट	-7093
▁आबकारी	-7094
▁आधिपत्य	-7095
▁विनिश्चय	-7096
▁नायक	-7097
▁पीपी	-7098
▁रिला	-7099
संरचना	-7100
▁डीएनए	-7101
▁कपड़ों	-7102
▁सार्थक	-7103
▁मिश्रित	-7104
▁खर्चों	-7105
▁गड़बड़ी	-7106
▁परिदृश्य	-7107
▁नक्	-7108
▁स्क्र	-7109
▁सवालों	-7110
गांव	-7111
▁ऑपर	-7112
▁नवीकरण	-7113
▁कॉर्पोरेशन	-7114
ढ़ा	-7115
जनों	-7116
▁घोर	-7117
▁लाह	-7118
▁जबरन	-7119
▁पीठा	-7120
▁बांड	-7121
▁चुकता	-7122
▁अभिप्र	-7123
▁यांत्रिक	-7124
▁परिवर्तनों	-7125
▁पढ	-7126
श्रे	-7127
▁महल	-7128
▁वकालत	-7129
▁स्वाय	-7130
▁प्रतिफल	-7131
▁पवन	-7132
▁काटने	-7133
▁सशस्त्र	-7134
as	-7135
िल्ला	-7136
▁एसपी	-7137
▁शल्य	-7138
▁निभाई	-7139
▁स्टाफ	-7140
सो	-7141
ूण	-7142
▁नल	-7143
खाना	-7144
▁अंब	-7145
▁चाचा	-7146
▁मिसाल	-7147
▁प्रिंसिपल	-7148
▁प्रोविज़ो	-7149
▁रिलायंस	-7150
▁प्रभावशाली	-7151
▁एजी	-7152
▁तलाशी	-7153
▁तुर्की	-7154
▁उपयोगिता	-7155
▁किरायेदारी	-7156
मोहन	-7157
▁दार्	-7158
▁विनोद	-7159
▁जरूरतों	-7160
▁गद्य	-7161
▁तालाब	-7162
▁जानवरों	-7163
▁परिलक्षित	-7164
ur	-7165
चाना	-7166
▁कहकर	-7167
▁खंडों	-7168
▁निष्ठा	-7169
ंटा	-7170
राने	-7171
सीआई	-7172
▁गहरे	-7173
▁संयम	-7174
▁राकेश	-7175
▁अन्वेषण	-7176
ol	-7177
विंग	-7178
व्यापी	-7179
▁इशारा	-7180
▁काल्प	-7181
▁जूनियर	-7182
▁डाउनलोड	-7183
ुम	-7184
चाप	-7185
▁सौह	-7186
स्राव	-7187
▁प्रभु	-7188
▁दीवानी	-7189
▁काल्पनिक	-7190
ोब	-7191
▁मौजूदगी	-7192
▁सम्पर्क	-7193
देवी	-7194
▁मुर	-7195
▁एसआई	-7196
▁यातना	-7197
▁लगाते	-7198
▁निस्तारण	-7199
ुख	-7200
▁घाटी	-7201
▁सेंटर	-7202
▁पुरुषों	-7203
▁पुनरावृत्ति	-7204
क्की	-7205
▁ड्राइवर	-7206
मंद	-7207
▁इस्ती	-7208
▁अंग्रेजों	-7209
्टे	-7210
▁शर	-7211
▁प्रजाति	-7212
▁प्रविष्टियों	-7213
▁घुस	-7214
▁बलि	-7215
▁बिट	-7216
▁चौहान	-7217
▁स्नात	-7218
▁लोकसभा	-7219
▁संस्कार	-7220
▁कार्यान्वित	-7221
▁बंबई	-7222
▁समता	-7223
▁ऑडियो	-7224
▁अज्ञान	-7225
▁कर्मियों	-7226
▁फौ	-7227
ीर्ण	-7228
▁अपन	-7229
▁चमक	-7230
क्ताओं	-7231
▁ग्रुप	-7232
▁समझाने	-7233
▁गांधीजी	-7234
▁गरि	-7235
▁बिग	-7236
वास्तव	-7237
▁दिखाए	-7238
▁दिलचस्पी	-7239
▁अफग	-7240
▁गुम	-7241
▁ख्या	-7242
▁सोचते	-7243
▁सौंपने	-7244
▁निष्पक्षता	-7245
कलाप	-7246
▁कागजात	-7247
▁दार्शन	-7248
▁पहुँचा	-7249
▁क्रांतिक	-7250
▁अवरोध	-7251
▁टिकाऊ	-7252
▁भारती	-7253
▁अदालतें	-7254
▁निर्माताओं	-7255
कर्म	-7256
▁ऑटो	-7257
▁साहू	-7258
▁तार्किक	-7259
▁प्रपत्र	-7260
▁वक्तव्य	-7261
द्वीप	-7262
▁जुटा	-7263
▁बढ़कर	-7264
▁अंतर्वि	-7265
▁निकालना	-7266
वाना	-7267
▁मेज	-7268
▁विवा	-7269
▁सूजन	-7270
▁कीटों	-7271
▁पूर्णतः	-7272
च्यु	-7273
▁अम्	-7274
▁शासक	-7275
▁गवर्नर	-7276
कू	-7277
▁जीवों	-7278
▁संशोधनों	-7279
▁श्रीवास्तव	-7280
डन	-7281
▁वैदिक	-7282
▁रिमांड	-7283
▁आंकड़ों	-7284
▁आएगा	-7285
▁निरूप	-7286
▁प्रणालियों	-7287
मुच	-7288
स्सी	-7289
▁अहि	-7290
▁गणेश	-7291
▁मंशा	-7292
▁सुलह	-7293
▁अस्थि	-7294
▁टिप्पण	-7295
▁पिछड़े	-7296
▁शाखाओं	-7297
▁स्वाधीन	-7298
▁घन	-7299
▁कौर	-7300
▁वीड	-7301
▁लड़कियों	-7302
ड़ना	-7303
▁दाग	-7304
▁समू	-7305
▁आरटी	-7306
▁उपरा	-7307
▁लेबर	-7308
▁निवेशकों	-7309
▁भाष्	-7310
▁मसौदा	-7311
▁सौहार्द	-7312
▁दार्शनिक	-7313
द्म	-7314
▁फो	-7315
▁बुल	-7316
▁भरत	-7317
ंगलोर	-7318
▁बाधित	-7319
▁अविश्व	-7320
▁ग्रामीणों	-7321
▁सम्बन्धित	-7322
▁स्त्रियों	-7323
▁उद्धरण	-7324
▁बंदरगाह	-7325
▁वैज्ञानिकों	-7326
ांप	-7327
▁मध	-7328
▁अहं	-7329
▁तीर्थ	-7330
▁पीड़ितों	-7331
▁लेनदारों	-7332
जान	-7333
मंड	-7334
र्वेद	-7335
▁स्तन	-7336
▁लेखकों	-7337
▁विचारधारा	-7338
▁विशेषताओं	-7339
▁आईओ	-7340
▁बडे	-7341
▁अमृत	-7342
▁पाये	-7343
▁गरिमा	-7344
▁पैटर्न	-7345
▁प्रतिरोध	-7346
▁प्रतिबद्धता	-7347
एसई	-7348
▁पन	-7349
▁रूस	-7350
▁मित्रों	-7351
प्न	-7352
▁बेस	-7353
▁सुशील	-7354
▁सत्यता	-7355
▁अपेक्षाकृत	-7356
शित	-7357
▁हमे	-7358
▁पाइप	-7359
▁अनुया	-7360
▁पैकेट	-7361
▁प्रवर्त	-7362
▁अधिवक्ताओं	-7363
किट	-7364
▁ओं	-7365
मारक	-7366
▁कोमल	-7367
▁आस्था	-7368
▁गर्भा	-7369
▁तर्कसंगत	-7370
▁राष्ट्रों	-7371
▁उपभोक्ताओं	-7372
▁ग्या	-7373
यक्तिक	-7374
▁बिस्तर	-7375
▁योजनाएं	-7376
▁प्रतिनिय	-7377
ीट	-7378
याव	-7379
▁बोतल	-7380
▁फसलों	-7381
▁मांगा	-7382
▁निराशा	-7383
▁मजदूरों	-7384
▁निरपेक्ष	-7385
वर्ष	-7386
▁पारि	-7387
▁सेशन	-7388
▁अग्नि	-7389
▁नियोजन	-7390
▁दूरसंचार	-7391
▁आँख	-7392
द्रिक	-7393
▁ध्वज	-7394
▁सर्ज	-7395
▁विपक्ष	-7396
ec	-7397
म्बी	-7398
▁चौक	-7399
▁ग्रा	-7400
▁मारे	-7401
▁ऑपरेशन	-7402
▁कुशलता	-7403
ac	-7404
बरा	-7405
कारा	-7406
▁उदय	-7407
▁गुट	-7408
▁अरुण	-7409
▁एसडी	-7410
बंद	-7411
▁छोड	-7412
▁हसन	-7413
वाहाटी	-7414
्यवहार	-7415
▁दिलचस्प	-7416
▁उत्पत्ति	-7417
▁अमल	-7418
▁ऊतक	-7419
▁अद्व	-7420
▁परिचालन	-7421
यंती	-7422
्रीट	-7423
▁संगत	-7424
▁वर्जित	-7425
▁मील	-7426
▁ब्रे	-7427
▁डिज़ाइन	-7428
▁गुवाहाटी	-7429
▁सामान्यतया	-7430
झे	-7431
▁पेय	-7432
▁जबरद	-7433
▁लिपि	-7434
▁उद्यमों	-7435
▁विशुद्ध	-7436
वीय	-7437
िप्ट	-7438
▁विधा	-7439
▁सामु	-7440
▁लक्ष्मण	-7441
एमई	-7442
ओएस	-7443
शाही	-7444
्रीज	-7445
▁पुल	-7446
न्त्र	-7447
▁फ्रेम	-7448
▁लिखना	-7449
▁सच्चे	-7450
▁आश्रित	-7451
▁सिन्हा	-7452
▁प्रतिरक्षा	-7453
मिन	-7454
रेन	-7455
ील्ड	-7456
▁पड़ने	-7457
▁सौंपे	-7458
▁अवसंरचना	-7459
्यांश	-7460
▁अश्व	-7461
▁चौथे	-7462
▁हाइड	-7463
▁गार्ड	-7464
▁पालिसी	-7465
▁उधारकर्ता	-7466
▁ओड	-7467
▁कृति	-7468
▁देखो	-7469
▁गोविंद	-7470
▁भाइयों	-7471
▁सभापति	-7472
▁व्युत्पन्न	-7473
जाल	-7474
▁आर्य	-7475
▁रिवा	-7476
▁पढ़ना	-7477
▁आकांक्षा	-7478
▁पुनर्मूल	-7479
▁किरण	-7480
▁परेड	-7481
▁शुरूआ	-7482
ष्णा	-7483
▁वाम	-7484
▁कुटु	-7485
▁दोषसिद्धि	-7486
ध्व	-7487
लीन	-7488
▁मठ	-7489
▁जवाबी	-7490
▁प्रोज	-7491
▁संवेद	-7492
▁सचमुच	-7493
▁चाहूंगा	-7494
▁महानिदेशक	-7495
▁एंटी	-7496
क्रामक	-7497
तन्त्र	-7498
▁लगाकर	-7499
▁घृणा	-7500
▁मूर्	-7501
▁पट्टेदार	-7502
▁मुख्यालय	-7503
▁पाठ्यक्रमों	-7504
▁मैच	-7505
▁नदियों	-7506
▁बैंगलोर	-7507
▁सुसज्जित	-7508
▁अविश्वसनीय	-7509
मिया	-7510
ास्ट	-7511
▁दाम	-7512
▁ताज	-7513
▁सीए	-7514
▁विवश	-7515
▁अर्जन	-7516
▁सहभाग	-7517
▁पार्श्व	-7518
▁सचिवालय	-7519
डू	-7520
▁असी	-7521
▁खबर	-7522
▁लीग	-7523
▁समकालीन	-7524
▁अपराधियों	-7525
▁दुर्व्यवहार	-7526
▁आजीव	-7527
▁लौटने	-7528
▁प्रताप	-7529
▁विन्यास	-7530
▁दुर्भावना	-7531
▁रिश्तेदारों	-7532
▁एह	-7533
▁तप	-7534
▁बैच	-7535
▁सती	-7536
िवर्तन	-7537
▁पढ़ाई	-7538
▁नस्ल	-7539
▁कुलपति	-7540
▁जायेंगे	-7541
िच	-7542
ोनें	-7543
▁गोरा	-7544
▁वन्य	-7545
▁ब्राउ	-7546
▁डिजिटल	-7547
▁धारकों	-7548
▁विच्छेद	-7549
▁आस्तियों	-7550
▁लक्ष्यों	-7551
▁पर्यवेक्षण	-7552
सरा	-7553
▁वेश	-7554
▁स्न	-7555
▁बेचा	-7556
▁मादा	-7557
ायुक्त	-7558
बेस	-7559
वेश	-7560
▁एटी	-7561
▁अंडे	-7562
▁कार्बन	-7563
दूर	-7564
विड	-7565
▁झु	-7566
▁ज़रूर	-7567
▁मिलना	-7568
▁सम्रा	-7569
▁लाभांश	-7570
▁प्रोटोक	-7571
▁ओपन	-7572
▁अक्षर	-7573
▁निराश	-7574
▁बढ़ाना	-7575
▁आखिरकार	-7576
▁प्रासंगिकता	-7577
▁मुख्यमंत्री	-7578
▁in	-7579
छाड़	-7580
दर्शक	-7581
▁कारखाने	-7582
ेस	-7583
ावी	-7584
▁बसव	-7585
▁चट्ट	-7586
▁जानना	-7587
▁लाभकारी	-7588
▁संरक्षक	-7589
▁राजकुमार	-7590
▁प्लास्टिक	-7591
il	-7592
▁गोर	-7593
▁सिम	-7594
▁नर्म	-7595
▁महतो	-7596
▁सफाई	-7597
▁कालेज	-7598
▁फैक्ट	-7599
▁अभिनिर्	-7600
▁पारदर्शिता	-7601
ावन	-7602
सूत्र	-7603
▁गिराव	-7604
▁पंजाबी	-7605
▁पीठासीन	-7606
▁पुनर्मूल्यांकन	-7607
▁सौंद	-7608
▁स्पर्श	-7609
▁मुकाबले	-7610
▁उपक्रमों	-7611
ार्इ	-7612
▁बड़	-7613
▁विषा	-7614
▁सिने	-7615
▁जयंती	-7616
▁पक्षी	-7617
▁चौड़ाई	-7618
▁संवेदनशील	-7619
▁अप्रासंगिक	-7620
कक्ष	-7621
▁वैष्ण	-7622
▁मार्केट	-7623
▁चलाई	-7624
▁टाटा	-7625
▁मुना	-7626
श्रेष्ठ	-7627
▁रिज़र्व	-7628
ँस	-7629
्ग	-7630
नीत	-7631
▁माँग	-7632
▁श्वेत	-7633
▁इस्पात	-7634
▁दिसम्बर	-7635
ंचल	-7636
▁परत	-7637
▁एसएल	-7638
▁वादा	-7639
▁परिसी	-7640
▁लड़ा	-7641
▁हर्ष	-7642
▁मेरिट	-7643
▁नवम्बर	-7644
▁मुख्यतः	-7645
▁वनस्पति	-7646
▁पुस्तकाल	-7647
▁शास्त्री	-7648
▁सीएस	-7649
धिकारी	-7650
▁दृढ़ता	-7651
▁परिसमापक	-7652
▁बल्लेबाज	-7653
पेट	-7654
काना	-7655
▁स्नेह	-7656
▁दलीलें	-7657
▁गर्भपात	-7658
▁संस्थागत	-7659
un	-7660
▁पाग	-7661
क़्ति	-7662
▁चंडी	-7663
▁मानस	-7664
▁मुफ्त	-7665
▁रामायण	-7666
▁सम्पाद	-7667
▁विकासशील	-7668
▁ट्रेडमार्क	-7669
ितु	-7670
▁वैसा	-7671
▁गिरावट	-7672
▁रिकवरी	-7673
▁l	-7674
▁उलट	-7675
▁चूँ	-7676
▁सकने	-7677
▁तृतीय	-7678
▁वेंकट	-7679
▁अनुदेश	-7680
▁जागरूकता	-7681
राग	-7682
वाँ	-7683
ंजस्य	-7684
▁प्रॉ	-7685
▁श्रो	-7686
जेक्शन	-7687
▁पुष्प	-7688
▁स्वायत्त	-7689
▁विवेकाधीन	-7690
्लू	-7691
▁गौतम	-7692
▁आभूषण	-7693
▁आकर्षक	-7694
▁आजीविका	-7695
▁देवताओं	-7696
▁सूचनाओं	-7697
दमी	-7698
▁रन	-7699
▁टीका	-7700
▁तत्पर	-7701
▁विघटन	-7702
▁विनिया	-7703
▁ससुराल	-7704
ानिस्तान	-7705
▁पुस्तकें	-7706
am	-7707
पोषण	-7708
रणीय	-7709
ल्लू	-7710
▁ढेर	-7711
▁आजाद	-7712
▁झूठी	-7713
गरी	-7714
टिक	-7715
▁रोल	-7716
▁निया	-7717
▁अनन्त	-7718
▁माहौल	-7719
▁लिखते	-7720
राई	-7721
▁हॉल	-7722
▁निबंध	-7723
▁परिधि	-7724
▁पारिश	-7725
▁कनेक्ट	-7726
▁कठिनाइयों	-7727
वृ	-7728
▁ढल	-7729
▁सैक	-7730
▁बाईं	-7731
▁लोहे	-7732
▁कुरान	-7733
▁बैठकों	-7734
▁माध्यस्थम्	-7735
▁मित	-7736
▁पीएम	-7737
▁रैंक	-7738
▁अलगाव	-7739
▁टाइम्स	-7740
१५	-7741
पार	-7742
बान	-7743
▁ऊँ	-7744
▁सज	-7745
▁घुट	-7746
▁अवार्ड	-7747
▁इंडस्ट	-7748
▁संग्रहालय	-7749
पर्य	-7750
▁गले	-7751
▁दंत	-7752
▁मत्	-7753
▁हिल	-7754
▁थोड़े	-7755
▁दुकानों	-7756
▁विसंगति	-7757
कोष	-7758
बिल	-7759
▁जिसको	-7760
▁स्टार	-7761
▁खर	-7762
▁अरो	-7763
▁शेर	-7764
लिस्ट	-7765
्रमिक	-7766
▁कबीर	-7767
▁सम्मन	-7768
▁हल्के	-7769
▁अपूर्ण	-7770
▁प्रचालन	-7771
▁चट	-7772
▁मक्	-7773
▁क्रय	-7774
▁सृजित	-7775
▁इम	-7776
▁चिट	-7777
िनेशन	-7778
▁बंदी	-7779
▁जानती	-7780
▁लम्बे	-7781
▁तंबाकू	-7782
▁बढ़ाकर	-7783
▁सुन्दर	-7784
▁सेक्शन	-7785
▁असल	-7786
▁मैन	-7787
क्तता	-7788
▁बाढ़	-7789
▁इंदिरा	-7790
▁आपत्तियां	-7791
▁शेयरधारकों	-7792
कना	-7793
बली	-7794
▁गंध	-7795
▁पान	-7796
▁सूरज	-7797
▁सर्वश्रेष्ठ	-7798
ैस	-7799
जिन	-7800
▁षड	-7801
▁डिट	-7802
▁एमपी	-7803
चिक	-7804
पुरा	-7805
ष्टा	-7806
▁ओपी	-7807
▁घाय	-7808
▁विट	-7809
षिद्ध	-7810
▁डिस्	-7811
▁संकलन	-7812
ुस	-7813
दीश	-7814
▁पीटा	-7815
▁मनोज	-7816
▁चूँकि	-7817
▁अर्जुन	-7818
▁टर्मिनल	-7819
▁गह	-7820
शंकर	-7821
▁वॉल	-7822
हीनता	-7823
▁तिरु	-7824
▁गिनती	-7825
▁डिस्ट	-7826
▁सारणी	-7827
▁प्राणी	-7828
▁शुरूआत	-7829
▁सैनिकों	-7830
▁सामंजस्य	-7831
▁होल्डिंग	-7832
नस	-7833
दूत	-7834
रण्य	-7835
ापित	-7836
▁क्ले	-7837
च्युटी	-7838
िक्षेप	-7839
▁ज़मीन	-7840
▁वृत्त	-7841
▁निकलता	-7842
▁लाभार्थी	-7843
▁संबद्धता	-7844
ेग	-7845
▁बटन	-7846
▁ग्यारह	-7847
▁टुकड़ा	-7848
▁पारिश्रमिक	-7849
▁प्रतिपूर्ति	-7850
▁ठहर	-7851
ारायण	-7852
▁अनुकरण	-7853
▁घायलों	-7854
▁दाहिने	-7855
▁पहचाना	-7856
▁टैंक	-7857
▁बढ़ी	-7858
▁अभिभाव	-7859
▁सीमेंट	-7860
▁उत्तीर्ण	-7861
▁r	-7862
▁बिन	-7863
▁कोने	-7864
▁पाना	-7865
▁संको	-7866
▁कमांड	-7867
▁तुच्छ	-7868
▁इन्द्र	-7869
▁उत्सुक	-7870
▁महाप्र	-7871
▁प्रोटीन	-7872
▁विदेशों	-7873
▁तुम्हारी	-7874
▁न्	-7875
स्तु	-7876
▁अपू	-7877
▁एन्	-7878
▁घों	-7879
▁छिप	-7880
▁संचित	-7881
▁दिखाता	-7882
▁संगणना	-7883
▁माइक्रो	-7884
▁निवासियों	-7885
▁उत्कृष्टता	-7886
▁बिर	-7887
चन्द्र	-7888
▁श्याम	-7889
▁मौद्रिक	-7890
पो	-7891
भाषण	-7892
▁फेफ	-7893
▁संगणक	-7894
▁संयोग	-7895
▁संग्राम	-7896
▁संतुलित	-7897
▁परंपरागत	-7898
▁उपाध्यक्ष	-7899
रियर	-7900
▁संब	-7901
▁जाएंगी	-7902
दाई	-7903
ूदी	-7904
▁कोण	-7905
▁हुईं	-7906
▁फर्जी	-7907
▁अभिन्न	-7908
▁आशी	-7909
▁किंग	-7910
▁पागल	-7911
▁सांप्र	-7912
▁आश्वस्त	-7913
▁ग्रेच्युटी	-7914
शुदा	-7915
ूनों	-7916
▁प्रद	-7917
▁मेहन	-7918
▁निकले	-7919
▁प्रभा	-7920
▁मूर्त	-7921
▁छेड़छाड़	-7922
न्तर	-7923
▁दीप	-7924
मूल्य	-7925
▁ऊंची	-7926
▁एसआर	-7927
▁वांछित	-7928
रीब	-7929
पूरक	-7930
▁चिर	-7931
▁रेट	-7932
▁कराधान	-7933
▁गुजरने	-7934
▁समस्याएं	-7935
▁भागीदारों	-7936
▁अनुप्रयोगों	-7937
▁व्यास	-7938
▁क़्यों	-7939
▁अपशिष्ट	-7940
घन	-7941
▁चिन	-7942
▁निकला	-7943
▁नोटों	-7944
▁यूजीसी	-7945
▁पारदर्शी	-7946
▁एक्सप्रेस	-7947
he	-7948
ख्	-7949
हाल	-7950
▁लेगा	-7951
▁सुझा	-7952
▁ग्रीन	-7953
▁वैयक्तिक	-7954
▁अभिनिर्धारित	-7955
▁मज़	-7956
▁इसको	-7957
▁जोशी	-7958
▁उठाते	-7959
▁उपग्रह	-7960
▁कवियों	-7961
▁प्रतिमा	-7962
▁आयुर्वेद	-7963
▁विनियामक	-7964
▁संकल्पना	-7965
▁इंजीनियरी	-7966
▁वासी	-7967
▁दायरा	-7968
▁दिखाते	-7969
▁प्रशंस	-7970
▁नरेंद्र	-7971
▁सौंदर्य	-7972
ट्स	-7973
जारी	-7974
▁चित	-7975
▁आईडी	-7976
▁वरन्	-7977
▁अकादम	-7978
▁आबंटन	-7979
▁दिनेश	-7980
▁बढ़ना	-7981
▁लाखों	-7982
▁एस्टेट	-7983
▁स्वप्न	-7984
▁टेप	-7985
▁नंगे	-7986
▁उन्नयन	-7987
▁निपटाने	-7988
▁संग्रहण	-7989
त्रि	-7990
न्ने	-7991
▁कोर	-7992
▁नरेश	-7993
▁जगदीश	-7994
▁अकादमी	-7995
▁रूपरेखा	-7996
▁नामांकित	-7997
ंगों	-7998
▁कन्न	-7999
▁उत्पा	-8000
परीक्षा	-8001
▁दिखाना	-8002
▁बाध्यता	-8003
▁सांविधिक	-8004
गांठ	-8005
▁आदर	-8006
ॉरिटी	-8007
▁शिल्प	-8008
▁रचनाओं	-8009
▁चित्रित	-8010
▁उत्तेजित	-8011
रीन	-8012
▁चरस	-8013
न्नाथ	-8014
▁ईमेल	-8015
▁पहने	-8016
▁मोदी	-8017
▁मेहता	-8018
▁निरर्थ	-8019
▁सांप्रदायिक	-8020
▁ह्र	-8021
ोरिया	-8022
▁आगामी	-8023
▁डाक्टर	-8024
▁अधिवेशन	-8025
ाराम	-8026
▁लोप	-8027
नेशनल	-8028
▁आश्रय	-8029
▁सितम्बर	-8030
वैज्ञानिक	-8031
▁रूपांतरण	-8032
▁व्याख्याता	-8033
ुरत	-8034
▁आपदा	-8035
▁एसएच	-8036
▁छाती	-8037
कोत्तर	-8038
▁पैरों	-8039
▁प्रामा	-8040
▁संप्रदाय	-8041
▁रिपोर्टों	-8042
्थ	-8043
▁घटित	-8044
▁प्रक्रम	-8045
दक	-8046
क्ला	-8047
स्तीन	-8048
▁यहूदी	-8049
▁वांछनीय	-8050
इंड	-8051
▁गला	-8052
िस्टर	-8053
▁डीआर	-8054
▁वध	-8055
▁जंगली	-8056
▁बेकार	-8057
og	-8058
▁बं	-8059
▁बडा	-8060
▁ध्रु	-8061
▁टेंडर	-8062
▁ध्वस्त	-8063
▁अपरिवर्त	-8064
▁वाक्यांश	-8065
▁उत्पादकता	-8066
▁न्यायशास्त्र	-8067
▁टॉ	-8068
▁प्रसंग	-8069
▁मुहम्मद	-8070
▁अत्याचार	-8071
▁आइए	-8072
▁कराए	-8073
▁सहेज	-8074
▁अपनाए	-8075
▁दर्जा	-8076
▁उन्नति	-8077
▁सहयोगियों	-8078
टरी	-8079
▁फू	-8080
ूँगा	-8081
▁आदत	-8082
▁छीन	-8083
▁नमक	-8084
▁बचे	-8085
▁सन्न	-8086
▁दिखाएँ	-8087
▁प्रतिस्थापन	-8088
▁सास	-8089
▁सिख	-8090
▁फाइन	-8091
▁अथॉरिटी	-8092
▁राज्यक्षेत्र	-8093
▁ऊंचे	-8094
▁पुरी	-8095
्रेताओं	-8096
▁उदासीन	-8097
याल	-8098
▁वसा	-8099
▁कॉरप	-8100
▁दुर्ग	-8101
▁विडियो	-8102
▁स्टांप	-8103
▁जगन्नाथ	-8104
▁प्राइमा	-8105
एक	-8106
न्नी	-8107
▁ग्व	-8108
▁अखंड	-8109
▁आगरा	-8110
स्तीनी	-8111
▁अनुमत	-8112
▁आकृति	-8113
▁कलाकार	-8114
▁सामुदायिक	-8115
▁आत्मविश्वास	-8116
▁स्नातकोत्तर	-8117
▁नु	-8118
बीसी	-8119
▁जीओ	-8120
▁पठन	-8121
▁हरा	-8122
र्निंग	-8123
▁कनाडा	-8124
▁व्यथित	-8125
▁चुनावों	-8126
ण्डल	-8127
ुर्द	-8128
▁गेह	-8129
▁हंस	-8130
▁हेर	-8131
▁टेक्न	-8132
▁तुमने	-8133
▁लिप्त	-8134
▁इलाकों	-8135
▁कार्यकर्ता	-8136
▁बेट	-8137
▁सबके	-8138
▁अर्थों	-8139
▁सावधान	-8140
▁कविताओं	-8141
▁विनिधान	-8142
ेत	-8143
किम	-8144
विन	-8145
रहित	-8146
ोलॉजी	-8147
▁रहीं	-8148
▁जटिलता	-8149
▁परिकल्पित	-8150
▁सार्वभौमिक	-8151
uot	-8152
तृक	-8153
▁डाली	-8154
▁जैविक	-8155
▁भरोसे	-8156
▁अंतरित	-8157
▁पराजित	-8158
▁अधिनियमन	-8159
चु	-8160
▁नाब	-8161
▁सेंट्रल	-8162
▁वसीयतकर्ता	-8163
▁संविदात्मक	-8164
▁मदन	-8165
▁पढ़ता	-8166
▁संकोच	-8167
▁अन्तिम	-8168
▁यथोचित	-8169
▁रोगियों	-8170
▁कॉपीराइट	-8171
▁बोलीदाता	-8172
ेब	-8173
मेह	-8174
▁वाई	-8175
▁हनु	-8176
शुल्क	-8177
▁जलने	-8178
▁कानपुर	-8179
▁सम्पन्न	-8180
▁बट	-8181
▁भै	-8182
▁श्ल	-8183
▁पुणे	-8184
▁बर्फ	-8185
▁दवाओं	-8186
▁अंग्रेज़ी	-8187
▁प्रतिवर्ष	-8188
▁एए	-8189
▁कम्	-8190
▁कों	-8191
▁आगमन	-8192
▁ऋणों	-8193
▁डिली	-8194
▁नकार	-8195
▁प्रमो	-8196
▁क्रिस्ट	-8197
▁विचित्र	-8198
वट	-8199
▁ढूंढ	-8200
▁अकेला	-8201
▁देखरेख	-8202
▁असु	-8203
▁आश्रम	-8204
▁वारिस	-8205
▁अभ्याव	-8206
▁आनुवंश	-8207
▁नवीनतम	-8208
▁पहुँचे	-8209
▁सम्राट	-8210
▁अभिभाषण	-8211
▁उन्होनें	-8212
▁कंपनियां	-8213
▁मंत्रियों	-8214
▁क्रांतिकारी	-8215
▁वाज	-8216
द्धार	-8217
▁ट्रस्टी	-8218
▁तारीखों	-8219
▁सुविधाजनक	-8220
▁स्वाधीनता	-8221
ंडे	-8222
▁आईं	-8223
▁नाव	-8224
नीतिक	-8225
▁बंगल	-8226
▁असाइन	-8227
▁आकर्षण	-8228
१क	-8229
थिल	-8230
▁अफ़	-8231
▁बीत	-8232
▁गिना	-8233
▁दरबार	-8234
▁सोचने	-8235
▁पकड़ने	-8236
▁भिन्नता	-8237
▁पूर्णतया	-8238
▁क्रियान्वयन	-8239
दह	-8240
▁बेगम	-8241
▁मंडप	-8242
▁समाह	-8243
▁सूरत	-8244
▁आमदनी	-8245
▁इन्हीं	-8246
▁इंस्टीट	-8247
▁महासागर	-8248
▁प्रोजेक्ट	-8249
झी	-8250
पै	-8251
▁पंख	-8252
▁कृपा	-8253
▁मापद	-8254
▁अव्यव	-8255
▁शांतिपूर्ण	-8256
▁किरायेदारों	-8257
एटी	-8258
थाम	-8259
ोषक	-8260
्रू	-8261
▁vi	-8262
▁नोक	-8263
▁पाउ	-8264
▁साई	-8265
ुक़्त	-8266
▁धाराओं	-8267
▁वृत्ति	-8268
▁स्वदेश	-8269
▁पूर्वगामी	-8270
रानी	-8271
▁छेद	-8272
▁कस्ट	-8273
▁भागने	-8274
▁प्रामाणिक	-8275
▁फिलीस्तीनी	-8276
ँव	-8277
मेय	-8278
▁देह	-8279
▁अंडर	-8280
▁जानवर	-8281
▁धब्बे	-8282
▁गणतंत्र	-8283
▁विवेकपूर्ण	-8284
पल	-8285
विट	-8286
▁चलती	-8287
▁बहुल	-8288
▁पैतृक	-8289
▁संघीय	-8290
▁निवारक	-8291
▁हड़ताल	-8292
▁कन्व	-8293
▁आवाज़	-8294
▁प्राप	-8295
▁स्थूल	-8296
क्तियों	-8297
▁कंट्रोल	-8298
▁नाबार्ड	-8299
▁प्रतियों	-8300
गीर	-8301
▁लड	-8302
्वरी	-8303
▁आधी	-8304
▁छान	-8305
▁गिरा	-8306
▁थाना	-8307
▁उत्सव	-8308
▁उपदेश	-8309
▁असफलता	-8310
▁एक्स्ट	-8311
▁सौभाग्य	-8312
▁उगा	-8313
▁फ़ॉ	-8314
▁शेड	-8315
▁कामों	-8316
▁सुधारों	-8317
▁पुनर्निर्	-8318
र्फ़	-8319
ामिन	-8320
▁बसे	-8321
्रामक	-8322
▁रूपये	-8323
▁समावेशी	-8324
▁विशेषज्ञता	-8325
▁कन	-8326
ैक्चर	-8327
्रेटर	-8328
▁आघात	-8329
▁कपड़ा	-8330
▁पठ	-8331
▁भीम	-8332
▁परित	-8333
▁सिंगा	-8334
▁कीमतों	-8335
▁मांसपेश	-8336
▁पर्यावरणीय	-8337
▁हिन्दुस्तान	-8338
▁असुर	-8339
▁आवरण	-8340
▁यहीं	-8341
▁एपीपी	-8342
▁सांख्यिकी	-8343
हो	-8344
ृंग	-8345
▁कैदी	-8346
▁मोती	-8347
▁अभिनय	-8348
▁दबाया	-8349
▁बलराम	-8350
▁ढाल	-8351
▁करों	-8352
▁फांसी	-8353
▁रवाना	-8354
▁सदनों	-8355
▁अकादमिक	-8356
▁व्याख्यान	-8357
▁बृ	-8358
▁ट्रक	-8359
▁अपितु	-8360
▁चिल्ला	-8361
▁नवान्वेष	-8362
▁आखिरी	-8363
▁आचार्य	-8364
▁विनम्र	-8365
ियोग्राफी	-8366
▁कम्प्यूटर	-8367
▁पुस्तकालय	-8368
मुखी	-8369
ैण्ड	-8370
▁जन्	-8371
▁दीपक	-8372
▁मराठी	-8373
ब्ध	-8374
▁अरबी	-8375
▁कर्ज	-8376
▁कॉलम	-8377
▁महाक	-8378
▁वयस्क	-8379
▁श्रद्धा	-8380
▁तात्पर्य	-8381
▁स्वच्छता	-8382
AM	-8383
▁बत	-8384
टकों	-8385
रेशन	-8386
रोधी	-8387
▁कैम	-8388
र्थियों	-8389
▁अधीनता	-8390
▁पेड़ों	-8391
▁संदत्त	-8392
▁अग्रेषित	-8393
▁पदा	-8394
▁माध	-8395
▁वान	-8396
लियों	-8397
▁अभिव	-8398
▁बेची	-8399
▁भरपूर	-8400
▁नियामक	-8401
▁अनिवासी	-8402
िडे	-8403
▁गठ	-8404
लेखन	-8405
ृश्य	-8406
▁खदान	-8407
▁ठहराए	-8408
▁शिकायतें	-8409
▁ग्ल	-8410
▁घड़ी	-8411
▁कर्ता	-8412
▁कारगर	-8413
▁कृष्णा	-8414
▁घोषणाओं	-8415
tr	-8416
बाबू	-8417
ीलाल	-8418
्रेषण	-8419
▁आचार	-8420
▁औषधि	-8421
▁फायदे	-8422
▁मूत्र	-8423
▁लाहौर	-8424
▁एशियाई	-8425
▁निकासी	-8426
▁नवीनीकरण	-8427
▁प्राधिकारियों	-8428
इंट	-8429
राक	-8430
ation	-8431
▁आन्द	-8432
▁मनुष	-8433
▁प्रां	-8434
▁अभ्यावेदन	-8435
▁प्रयोक्ता	-8436
तिया	-8437
िंदर	-8438
▁लूट	-8439
▁आजकल	-8440
▁नजदी	-8441
▁फर्क	-8442
▁शर्म	-8443
▁उपनिवेश	-8444
▁आश्चर्यजनक	-8445
▁जुल	-8446
▁नाज	-8447
▁विड	-8448
▁गोवा	-8449
▁सरोज	-8450
▁श्रेय	-8451
▁उत्तरा	-8452
▁समीकरण	-8453
▁सर्वप्र	-8454
गोश	-8455
ियस	-8456
खण्ड	-8457
न्दा	-8458
शब्द	-8459
▁प्लग	-8460
▁सवार	-8461
▁विचलन	-8462
ंकित	-8463
▁बचपन	-8464
▁कराता	-8465
▁सिरों	-8466
▁दोबारा	-8467
▁उत्सर्जन	-8468
ंगन	-8469
गें	-8470
▁थै	-8471
ड़की	-8472
पंथी	-8473
▁छोर	-8474
▁इराक	-8475
▁द्रव	-8476
▁सीपी	-8477
▁ब्लैक	-8478
▁एग्जाम	-8479
▁विशेषताएं	-8480
▁बांग्लादेश	-8481
एफसी	-8482
▁जॉन	-8483
▁एसएस	-8484
▁भट्ट	-8485
व्यवहार	-8486
▁रणनीति	-8487
▁रक्तस्राव	-8488
▁अफगानिस्तान	-8489
▁प्रतिनियुक्ति	-8490
क्चर	-8491
▁एण्ड	-8492
▁दादा	-8493
▁उन्हे	-8494
▁जिक्र	-8495
▁अभिकरण	-8496
▁जोड़ें	-8497
▁नियमावली	-8498
ोदय	-8499
बर्ट	-8500
▁भगत	-8501
▁प्रम	-8502
▁तुलसी	-8503
▁रखेगा	-8504
▁वैष्णव	-8505
▁शुक्ला	-8506
▁सैय	-8507
▁तेलंग	-8508
▁बिलों	-8509
▁प्रेषण	-8510
▁रोकथाम	-8511
▁समकक्ष	-8512
▁व्याकरण	-8513
▁सिंगापुर	-8514
िपुर	-8515
▁तंग	-8516
▁माफ	-8517
▁अनंत	-8518
ियुक्त	-8519
▁क्षमा	-8520
▁शिष्ट	-8521
▁मिथ्या	-8522
▁संवर्ग	-8523
▁निरर्थक	-8524
▁साथियों	-8525
▁अधिनिर्णय	-8526
▁एजु	-8527
नाइटेड	-8528
▁करीबी	-8529
▁मिस्र	-8530
▁लगाता	-8531
▁लम्बी	-8532
▁ड्राइविंग	-8533
▁इसल	-8534
▁यान	-8535
▁उपलब्धियों	-8536
ल्यूपी	-8537
▁नियमन	-8538
▁लड़का	-8539
▁मंत्रिम	-8540
▁सिफारिशें	-8541
▁नहर	-8542
चरिता	-8543
▁ऊंचा	-8544
▁बांस	-8545
▁अभिने	-8546
▁उठाकर	-8547
▁डिप्टी	-8548
▁अक्षमता	-8549
▁डिलीवरी	-8550
▁व्यष्टि	-8551
नम	-8552
डीएस	-8553
▁दुबे	-8554
▁बोला	-8555
▁अंतरा	-8556
▁कोयले	-8557
▁युग्म	-8558
▁स्नान	-8559
▁अतिमान	-8560
▁आउटपुट	-8561
▁अध्यापक	-8562
▁प्रसारित	-8563
▁हिस्सेदारी	-8564
▁प्रतिबिंबित	-8565
म्य	-8566
▁उठे	-8567
▁नास	-8568
▁उपनि	-8569
▁सबको	-8570
क्साइड	-8571
▁उच्चारण	-8572
▁निषिद्ध	-8573
▁राष्ट्री	-8574
▁प्रतिभूतियों	-8575
ाणु	-8576
णुओं	-8577
वाड़	-8578
▁टेल	-8579
▁रेत	-8580
▁फार्	-8581
▁हिला	-8582
▁चुनने	-8583
▁ड्राइव	-8584
▁भ्रामक	-8585
▁गर्भाशय	-8586
▁परिस्थितियाँ	-8587
ad	-8588
षेक	-8589
शिंग	-8590
सायी	-8591
िकता	-8592
▁यों	-8593
▁श्लोक	-8594
▁तालिका	-8595
▁नेताजी	-8596
▁स्वर्ग	-8597
▁चंडीगढ़	-8598
▁सुचरिता	-8599
▁जनजातियों	-8600
▁महाविद्यालय	-8601
लेस	-8602
▁शाल	-8603
चार्ज	-8604
▁बंधन	-8605
▁लोगो	-8606
▁फूलों	-8607
▁व्यर्थ	-8608
▁समाहित	-8609
▁दंडात्मक	-8610
राइड	-8611
▁दार	-8612
प्रति	-8613
▁डालर	-8614
▁बांट	-8615
▁मांगे	-8616
▁अवशोषण	-8617
▁क्लर्क	-8618
▁सीआईटी	-8619
▁उदाहरणों	-8620
▁पक्षियों	-8621
ण्ट	-8622
▁रोज़	-8623
▁सुदूर	-8624
▁ड्रग्स	-8625
्द	-8626
▁रथ	-8627
▁नकल	-8628
▁सुग	-8629
िवेदी	-8630
▁असंतोष	-8631
▁अधिश	-8632
▁केबल	-8633
▁मेहर	-8634
▁सौदे	-8635
▁स्पी	-8636
▁कीजिए	-8637
▁ग्रन्थ	-8638
▁अयोग्यता	-8639
खार	-8640
ेंच	-8641
▁बक	-8642
▁घुम	-8643
▁फर्	-8644
▁सज्	-8645
▁अमान	-8646
▁टेनिस	-8647
▁मैसूर	-8648
▁विक्रेताओं	-8649
ॉग	-8650
▁हुक	-8651
▁आयाम	-8652
▁टैगोर	-8653
▁प्लॉट	-8654
▁बहिष्कार	-8655
▁आर्बिट्रेटर	-8656
▁शिम	-8657
ख़्या	-8658
ध्याय	-8659
▁कृषक	-8660
▁देहा	-8661
▁अवलंब	-8662
▁जर्मन	-8663
▁असमानता	-8664
ग़	-8665
हि	-8666
ैत	-8667
▁एने	-8668
▁आवश्य	-8669
▁राशियों	-8670
▁सद्भावना	-8671
▁साक्षरता	-8672
▁न्यायोचित	-8673
्ति	-8674
्वित	-8675
▁टैब	-8676
▁गोला	-8677
▁बहाने	-8678
▁कनिष्ठ	-8679
▁स्मारक	-8680
पाट	-8681
ुतोष	-8682
मित्त	-8683
ांडिक	-8684
▁अरोड़ा	-8685
▁निधियों	-8686
▁विवाहित	-8687
र्सी	-8688
▁मैथ	-8689
▁ओडिशा	-8690
▁सच्ची	-8691
▁साइकिल	-8692
▁समामेलन	-8693
▁तेलंगाना	-8694
ड्	-8695
ज़न	-8696
टीए	-8697
▁ईस्ट	-8698
▁चौकी	-8699
▁चेहरा	-8700
▁स्थलों	-8701
▁अनुज्ञा	-8702
▁प्रशांत	-8703
▁शुरुआती	-8704
id	-8705
भुत	-8706
लाश	-8707
िकस	-8708
लैंड	-8709
▁पतन	-8710
▁बही	-8711
▁जस्ट	-8712
▁बैठने	-8713
▁भ्रूण	-8714
▁बाज़ार	-8715
▁कीटनाशक	-8716
▁विधियां	-8717
क़्	-8718
▁रसोई	-8719
▁डेवलप	-8720
▁अहिंसा	-8721
▁आंकड़ा	-8722
▁मुहैया	-8723
▁आदिवासी	-8724
▁पत्राचार	-8725
▁गतिविधियां	-8726
▁विरोधाभासी	-8727
डि	-8728
महल	-8729
मेर	-8730
हानि	-8731
▁उमा	-8732
▁पाय	-8733
▁किस्त	-8734
▁शिष्य	-8735
▁अपनाना	-8736
ओसी	-8737
ोला	-8738
▁घंटों	-8739
▁चाहेंगे	-8740
▁इंटरनेशनल	-8741
▁सर्वप्रथम	-8742
▁मार्गदर्शक	-8743
षद	-8744
▁संभ	-8745
▁लौटे	-8746
▁पिस्त	-8747
▁श्रद्ध	-8748
पद	-8749
ंशी	-8750
ाग्र	-8751
▁टाल	-8752
▁कौंस	-8753
▁सादे	-8754
▁सिखा	-8755
▁बेदखल	-8756
▁ब्रांड	-8757
▁नैतिकता	-8758
▁एग्जामिनेशन	-8759
गुण	-8760
रोग	-8761
स्वी	-8762
▁जगा	-8763
पातिक	-8764
▁स्कोर	-8765
▁कर्मों	-8766
▁धर्मों	-8767
▁अभिप्राय	-8768
▁इस्लामवादी	-8769
है	-8770
▁यश	-8771
▁सब्सि	-8772
िरपेक्ष	-8773
▁पालिका	-8774
▁व्यापारियों	-8775
बेन	-8776
रोल	-8777
▁साख	-8778
▁अपार	-8779
▁एमसी	-8780
▁झटका	-8781
▁पेशी	-8782
▁नोटरी	-8783
▁सालों	-8784
▁अर्हता	-8785
▁महेंद्र	-8786
▁क़्योंकि	-8787
▁समाजवादी	-8788
▁छः	-8789
▁एमएम	-8790
ढ़ियों	-8791
▁अवतार	-8792
▁सिंगल	-8793
▁विकृति	-8794
वाट	-8795
▁रूम	-8796
▁कबूल	-8797
▁अनदेखा	-8798
▁आशुतोष	-8799
▁प्रकरण	-8800
▁दर्शाती	-8801
िवि	-8802
ेरा	-8803
पीएल	-8804
▁इंच	-8805
बुद्ध	-8806
यंत्र	-8807
▁तिहाई	-8808
▁दिखता	-8809
ँह	-8810
▁१६	-8811
मुना	-8812
▁कूद	-8813
▁दुग्ध	-8814
▁सोचता	-8815
णता	-8816
लाइ	-8817
ांट	-8818
▁गर	-8819
पाठी	-8820
▁साठ	-8821
▁एनआईसी	-8822
▁ऑपरेटर	-8823
▁दांडिक	-8824
▁इस्तीफा	-8825
▁कहानियों	-8826
▁वीडियोग्राफी	-8827
जलि	-8828
फ्फ	-8829
▁वॉ	-8830
माला	-8831
माही	-8832
▁डाइ	-8833
▁हफ्त	-8834
ोग्राफ	-8835
▁खरीदे	-8836
▁फाउंड	-8837
▁शॉर्ट	-8838
▁तालुका	-8839
▁पूंजीगत	-8840
▁लाभदायक	-8841
▁प्रख्यात	-8842
▁भती	-8843
▁मोर	-8844
▁सोना	-8845
▁पृथक्	-8846
▁महान्	-8847
ोगे	-8848
▁ओब	-8849
गणना	-8850
दायी	-8851
▁बन्	-8852
▁नकली	-8853
▁बाला	-8854
▁साइन	-8855
▁अवशेष	-8856
▁गर्भव	-8857
▁तस्वी	-8858
▁प्रसव	-8859
▁बिन्दु	-8860
जुट	-8861
पटल	-8862
पड़ी	-8863
▁उधर	-8864
▁एडी	-8865
▁शार	-8866
कृष्णन	-8867
▁उड़ान	-8868
▁पुराण	-8869
▁दीवारों	-8870
तकों	-8871
्वाइ	-8872
▁ऋतु	-8873
मताओं	-8874
▁एनसी	-8875
▁लेवी	-8876
▁स्टै	-8877
▁गाँधी	-8878
▁जोड़ी	-8879
▁देखिए	-8880
▁स्टोर	-8881
▁सिनेमा	-8882
▁पिस्तौल	-8883
हृ	-8884
सेन	-8885
धारक	-8886
▁पूछे	-8887
▁कब्ज़ा	-8888
▁प्रभुत्व	-8889
▁मानचित्र	-8890
▁प्रोटोकॉल	-8891
▁उत्तराधिकारियों	-8892
्टन	-8893
▁परो	-8894
▁अनिय	-8895
▁प्रवी	-8896
▁अवज्ञा	-8897
▁निर्गम	-8898
बूती	-8899
ष्ठान	-8900
▁जीआर	-8901
▁पद्म	-8902
िपूर्ण	-8903
▁गीतों	-8904
▁जिंदगी	-8905
▁टेलीवि	-8906
▁अनुभूति	-8907
▁प्रशासक	-8908
▁इंजेक्शन	-8909
लत	-8910
ालों	-8911
क्सीजन	-8912
▁निदान	-8913
▁पकड़ा	-8914
▁नमूनों	-8915
▁प्रदाता	-8916
▁आविष्कार	-8917
▁एनडीपीएस	-8918
▁फ्रैक्चर	-8919
▁मध्यस्थों	-8920
▁काय	-8921
▁बोले	-8922
▁विटामिन	-8923
▁उल्लेखित	-8924
चेरी	-8925
▁डीए	-8926
▁महास	-8927
▁सब्ज	-8928
▁समझी	-8929
▁सोनी	-8930
▁हुये	-8931
▁मानती	-8932
▁सच्चा	-8933
▁प्रचुर	-8934
▁राजाओं	-8935
▁फोरेंसिक	-8936
▁तुलनात्मक	-8937
▁पार्टियां	-8938
▁भव्य	-8939
▁सीएम	-8940
िडेविट	-8941
▁काफ़ी	-8942
▁ललिता	-8943
▁इसलिये	-8944
▁अवस्थित	-8945
▁त्रुटिः	-8946
▁हिंदुओं	-8947
▁मधुमेह	-8948
▁रिश्ते	-8949
▁स्त्रो	-8950
▁दर्शाने	-8951
▁वॉल्यूम	-8952
▁तस्वीरें	-8953
ंतव्य	-8954
▁उपास	-8955
▁पादप	-8956
▁फरार	-8957
▁बचना	-8958
▁अविभा	-8959
▁गिरने	-8960
▁संजीव	-8961
▁नाटकों	-8962
▁बंगाली	-8963
▁फिल्मों	-8964
▁अनुबंधों	-8965
▁प्रतिपादन	-8966
▁प्रशंसनीय	-8967
िवर्स	-8968
▁असंव	-8969
▁फर्द	-8970
▁रेगि	-8971
▁त्रिप	-8972
▁एफिडेविट	-8973
▁डॉक्टरों	-8974
▁मनुष्यों	-8975
▁संव्यवहार	-8976
▁चिकित्सकीय	-8977
▁परियोजनाएं	-8978
▁मंत्रालयों	-8979
रुप	-8980
▁एकजुट	-8981
▁एमिकस	-8982
▁अरविंद	-8983
▁सिगरेट	-8984
▁सिर्फ़	-8985
▁गोपनीयता	-8986
▁नियुक्तियां	-8987
बंधक	-8988
बिनेट	-8989
▁सुगम	-8990
▁आपूर्त	-8991
▁जोरदार	-8992
▁गुजराती	-8993
▁प्रोबेट	-8994
हे	-8995
▁इट	-8996
त्ती	-8997
र्षि	-8998
नेश्वर	-8999
▁खेतों	-9000
▁न्यूज	-9001
▁मूर्ख	-9002
ार्टमेंट	-9003
▁कामगारों	-9004
▁प्रदेशों	-9005
▁लोकायुक्त	-9006
▁कंधे	-9007
▁लेनी	-9008
▁आज्ञा	-9009
▁परवाह	-9010
▁बंगला	-9011
▁तुम्हारा	-9012
▁दीन	-9013
▁बुध	-9014
संबंध	-9015
▁चलना	-9016
▁करूंगा	-9017
▁इंस्टीट्यूट	-9018
▁इल	-9019
िल्ल	-9020
▁अभेद	-9021
▁चलकर	-9022
▁लीला	-9023
▁पूछने	-9024
▁बीडीए	-9025
▁मेहनत	-9026
▁प्रहार	-9027
▁प्लांट	-9028
▁बादशाह	-9029
▁फिलीस्तीन	-9030
iv	-9031
▁कैद	-9032
▁कॉम	-9033
▁पित	-9034
▁दीक्ष	-9035
▁झिल्ली	-9036
▁पार्सल	-9037
▁पुत्री	-9038
▁पूर्वोत्तर	-9039
लोनी	-9040
▁अलंक	-9041
▁कमाई	-9042
▁बदलना	-9043
▁बम्बई	-9044
▁केन्द्रों	-9045
गिक	-9046
ौली	-9047
बिया	-9048
▁कैन	-9049
▁नरम	-9050
▁सोव	-9051
ल्लाह	-9052
▁इंजन	-9053
▁दुष्	-9054
▁रंगम	-9055
▁सभ्य	-9056
▁जीओएम	-9057
▁रांची	-9058
▁गुजरना	-9059
▁यूनाइटेड	-9060
aa	-9061
घट	-9062
घोष	-9063
ग्रा	-9064
लपुर	-9065
सर्ग	-9066
▁आरसी	-9067
▁सीरिया	-9068
▁गर्भवती	-9069
▁प्रबन्ध	-9070
▁सब्सिडी	-9071
िटन	-9072
भक्त	-9073
र्टी	-9074
बन्धन	-9075
▁बालों	-9076
▁साकार	-9077
▁निमित्त	-9078
▁मार्जिन	-9079
▁प्रस्तावना	-9080
▁मैत्रीपूर्ण	-9081
▁अँ	-9082
ृहीत	-9083
▁धूल	-9084
▁मत्स्य	-9085
▁विकिरण	-9086
▁वादियों	-9087
फु	-9088
्युन	-9089
▁खाम	-9090
▁भोज	-9091
ंताओं	-9092
वर्तन	-9093
▁पीछला	-9094
▁क्रमिक	-9095
▁मेमोरी	-9096
▁आन्दोलन	-9097
▁मित्रता	-9098
ंसी	-9099
▁बिख	-9100
▁रहकर	-9101
▁एग्री	-9102
▁ज़रूरत	-9103
▁जीवाणु	-9104
▁जैसाकि	-9105
▁असुविधा	-9106
▁बेईमानी	-9107
ce	-9108
me	-9109
बाग	-9110
ुगु	-9111
्यक	-9112
▁चुंब	-9113
▁वाहक	-9114
▁सादा	-9115
▁सौदा	-9116
▁हटाए	-9117
▁अधीक्षण	-9118
▁निक्षेप	-9119
▁प्रत्यर्थी	-9120
ter	-9121
फ़ा	-9122
वत्	-9123
▁कंक	-9124
▁जरा	-9125
मुक्त	-9126
▁मेगा	-9127
▁रोचक	-9128
▁विरा	-9129
▁बहुमूल्य	-9130
सात	-9131
यालय	-9132
ानंद	-9133
▁धोखे	-9134
▁मैनु	-9135
ेश्वरी	-9136
▁मानवा	-9137
▁तस्वीरों	-9138
▁अन्यायपूर्ण	-9139
▁रतन	-9140
▁आवेग	-9141
▁क्षै	-9142
▁सतीश	-9143
▁महाराज	-9144
▁परेशानी	-9145
▁मुद्रित	-9146
▁मापदंडों	-9147
▁प्राधिकरणों	-9148
फेर	-9149
धाना	-9150
रियल	-9151
▁ऋषि	-9152
▁गढ़	-9153
▁चुक	-9154
▁ब्यौ	-9155
▁संकल	-9156
▁संकु	-9157
▁डालना	-9158
▁परिष्	-9159
▁मानकर	-9160
▁संतान	-9161
▁इंडिका	-9162
▁संवेदना	-9163
▁गंग	-9164
▁गम्	-9165
▁अल्ट	-9166
▁चलाए	-9167
▁ऊतकों	-9168
▁ग्वाल	-9169
▁पुनरु	-9170
िएट	-9171
▁एजे	-9172
▁जहर	-9173
▁फेड	-9174
▁बोर	-9175
▁कहें	-9176
▁कारी	-9177
▁गूगल	-9178
▁दौरे	-9179
▁मुँह	-9180
▁षड्य	-9181
▁भेजें	-9182
▁स्विच	-9183
▁उर्वरक	-9184
▁मशीनों	-9185
▁विवादा	-9186
▁सामानों	-9187
▁पर्यटकों	-9188
आउट	-9189
नाई	-9190
श्र	-9191
▁बृह	-9192
▁बस्ती	-9193
▁अखंडता	-9194
▁अवधारण	-9195
▁संभालने	-9196
▁दीक्षांत	-9197
▁पंचायतों	-9198
▁हिन्दुओं	-9199
▁दीर्घकालिक	-9200
्क	-9201
▁Ch	-9202
▁रॉय	-9203
▁अन्न	-9204
▁एमबी	-9205
च्छेदन	-9206
▁इकबाल	-9207
▁बदनाम	-9208
▁मायने	-9209
▁संपादक	-9210
▁क्षमताओं	-9211
▁प्रक्षेप	-9212
दिर	-9213
रिफ	-9214
▁अद्	-9215
▁बगल	-9216
ब्दिक	-9217
▁बनती	-9218
▁शिविर	-9219
▁फाउंडेशन	-9220
आईए	-9221
▁बंट	-9222
▁मेह	-9223
▁भिन्	-9224
▁घटकों	-9225
▁खिलाड़ी	-9226
िसा	-9227
पेयी	-9228
▁वाइ	-9229
▁नानक	-9230
▁इंदौर	-9231
▁बच्चन	-9232
▁श्रील	-9233
▁सेवकों	-9234
▁विख्यात	-9235
▁सम्बद्ध	-9236
▁अधिकाधिक	-9237
२क	-9238
▁ः	-9239
डों	-9240
▁भि	-9241
▁कड़	-9242
▁यकीन	-9243
▁पुकार	-9244
▁उद्भूत	-9245
▁सामर्थ	-9246
▁कैबिनेट	-9247
लाप	-9248
बीएस	-9249
▁सरा	-9250
▁पहाड़	-9251
▁बचाया	-9252
▁परिमाण	-9253
▁कंप्यूट	-9254
▁खटखटाया	-9255
▁साझीदारी	-9256
भिक	-9257
सेल	-9258
▁मेम	-9259
▁जीने	-9260
▁असंतु	-9261
▁बेंगल	-9262
▁चर्चाओं	-9263
▁उछ	-9264
▁गुज	-9265
▁चौदह	-9266
▁जादू	-9267
लावरों	-9268
▁प्रगा	-9269
▁अनुभवों	-9270
▁मुकाबला	-9271
▁शाब्दिक	-9272
os	-9273
फॉ	-9274
खली	-9275
▁डंप	-9276
▁दीं	-9277
▁नाप	-9278
▁शीत	-9279
ेशनों	-9280
्लेक्स	-9281
▁दिलाने	-9282
▁प्रेरक	-9283
▁सुपुर्द	-9284
▁संस्थाएं	-9285
▁हमलावरों	-9286
हण	-9287
जाज	-9288
वाया	-9289
षकों	-9290
ादेश	-9291
▁वेस्ट	-9292
▁सत्याग्रह	-9293
▁शम	-9294
▁शह	-9295
१वीं	-9296
▁जुट	-9297
▁भूक	-9298
▁सीसी	-9299
▁क्रोध	-9300
▁डालते	-9301
▁बुराई	-9302
▁जमानती	-9303
▁पाठकों	-9304
▁प्रदाह	-9305
▁शब्दकोश	-9306
▁उपयोक्ता	-9307
▁संस्थापित	-9308
▁विवादास्पद	-9309
▁लेखापरीक्षा	-9310
▁कण	-9311
▁कसौ	-9312
▁ग्लो	-9313
▁तिलक	-9314
▁रेशम	-9315
▁हड्ड	-9316
▁क्षेत्रफल	-9317
तिज	-9318
टिंग	-9319
▁पिन	-9320
▁माया	-9321
्रिक्स	-9322
▁ओबामा	-9323
▁खुदरा	-9324
▁सनातन	-9325
▁स्पॉट	-9326
▁अनजाने	-9327
▁बिहारी	-9328
▁भेदभावपूर्ण	-9329
▁iv	-9330
एससी	-9331
▁भूट	-9332
▁नारी	-9333
▁फर्श	-9334
▁एएसआई	-9335
▁गेहूं	-9336
▁शिथिल	-9337
▁प्रवास	-9338
▁रंगमंच	-9339
▁वकीलों	-9340
▁हमलावर	-9341
▁ईमानदार	-9342
▁अभिरक्षा	-9343
and	-9344
▁इंक	-9345
▁रेस	-9346
▁आरआई	-9347
▁भोपाल	-9348
▁रोकता	-9349
▁एल्गोर	-9350
▁गंतव्य	-9351
▁त्रिपाठी	-9352
▁प्रबंधित	-9353
▁परीक्षणों	-9354
▁प्रगतिशील	-9355
▁प्रजातियों	-9356
नाल	-9357
▁नॉ	-9358
भावी	-9359
▁जेब	-9360
▁भड़	-9361
िक्शन	-9362
▁किले	-9363
▁तमाम	-9364
▁क्रिम	-9365
▁निगमों	-9366
▁अठ	-9367
▁औरत	-9368
▁बान	-9369
▁चिपका	-9370
▁बेहोश	-9371
▁मर्या	-9372
▁विलियम	-9373
तरफा	-9374
पुरम	-9375
▁इधर	-9376
▁थोक	-9377
▁लहर	-9378
▁गोदाम	-9379
▁स्थाई	-9380
▁छानबीन	-9381
▁निरूपित	-9382
▁असंतुष्ट	-9383
▁श्रीलंका	-9384
▁प्रतिवेदन	-9385
लु	-9386
टीई	-9387
▁तन	-9388
सारी	-9389
वर्धन	-9390
▁क्षु	-9391
▁गोयल	-9392
▁जगत्	-9393
▁बनकर	-9394
▁बैंड	-9395
वृत्ति	-9396
▁नियन्त	-9397
▁मैनुअल	-9398
▁संस्थापक	-9399
क्य	-9400
▁हैस	-9401
▁डेस्	-9402
▁चलाना	-9403
▁जीवंत	-9404
▁झगड़े	-9405
▁मजबूती	-9406
▁आपूर्तिक	-9407
▁निर्देशन	-9408
▁डिस्चार्ज	-9409
▁प्राणियों	-9410
▁लाइसेंसधारी	-9411
मलव	-9412
▁आईए	-9413
▁डूब	-9414
▁ह्य	-9415
पीसीएल	-9416
▁नतीजा	-9417
▁बैंकर	-9418
▁निर्धन	-9419
डऋ	-9420
▁अनौ	-9421
ोरेंस	-9422
▁बुरे	-9423
▁नाराज	-9424
▁विकार	-9425
▁संचयी	-9426
▁कमियों	-9427
▁गतिशील	-9428
▁केन्द्रित	-9429
▁प्रायोजित	-9430
▁देशवासियों	-9431
साम	-9432
ालक	-9433
ोंग	-9434
ंतुक	-9435
प्रण	-9436
त्पाद	-9437
पत्रों	-9438
▁बेरोज	-9439
▁विशिष्टता	-9440
▁मानवाधिकार	-9441
▁ऑल	-9442
▁जस	-9443
▁आड़	-9444
▁पटल	-9445
▁एमएल	-9446
▁पाती	-9447
▁भयान	-9448
▁अतिथि	-9449
▁निगमित	-9450
▁पीडीएफ	-9451
▁महिलाएं	-9452
▁प्रतिशोध	-9453
▁शेयरधारक	-9454
▁षड्यंत्र	-9455
▁बीमारियों	-9456
▁इंडस्ट्रीज	-9457
धर्म	-9458
ावधि	-9459
▁ताम	-9460
▁नित	-9461
ुल्ला	-9462
▁उज्ज	-9463
▁यज्ञ	-9464
▁मास्ट	-9465
▁लगेगा	-9466
▁गम्भीर	-9467
▁जस्टिस	-9468
▁महर्षि	-9469
▁सृष्टि	-9470
▁प्रगाढ़	-9471
▁सुझावों	-9472
▁अनुरक्षण	-9473
▁वित्तपोषण	-9474
ढे	-9475
▁आओ	-9476
र्नल	-9477
▁गुलाम	-9478
▁दशमलव	-9479
▁अधिशेष	-9480
▁गरीबों	-9481
▁निपटारे	-9482
▁व्यवसायी	-9483
दाद	-9484
▁आं	-9485
▁धीमी	-9486
▁मांगों	-9487
▁ऑपरेटिव	-9488
▁कर्मकार	-9489
▁कैदियों	-9490
ab	-9491
डम	-9492
ूला	-9493
शियन	-9494
िलास	-9495
▁अर्क	-9496
▁जितने	-9497
▁हटाना	-9498
र्चा	-9499
▁चीफ	-9500
▁श्वसन	-9501
▁बलिदान	-9502
▁समर्थक	-9503
▁गोलीबारी	-9504
▁स्वतन्त्र	-9505
ंचन	-9506
तुल	-9507
बंधन	-9508
शिला	-9509
▁पंक	-9510
▁लची	-9511
▁किशन	-9512
▁खोलें	-9513
▁दत्ता	-9514
▁भागवत	-9515
▁सभाओं	-9516
▁करवाने	-9517
▁निरसित	-9518
▁पहुंचाई	-9519
▁बाजारों	-9520
▁असाइनमेंट	-9521
ँजी	-9522
संदी	-9523
ताबिक	-9524
▁अमीर	-9525
▁रॉयल	-9526
▁खेलने	-9527
▁चित्त	-9528
▁अर्पित	-9529
▁छात्रा	-9530
▁संचिका	-9531
▁परिसमापन	-9532
वर्ग	-9533
तीकरण	-9534
▁अण्ड	-9535
▁बादल	-9536
▁उत्सा	-9537
▁तालुक	-9538
▁भेजना	-9539
▁विध्व	-9540
▁विभेद	-9541
▁अभिदाय	-9542
▁आनुपातिक	-9543
▁अर्थशास्त्र	-9544
लित	-9545
िंट	-9546
▁पण	-9547
न्ता	-9548
बयान	-9549
▁एके	-9550
▁घेर	-9551
▁विय	-9552
रूपता	-9553
▁पीएच	-9554
▁दबाने	-9555
▁निमंत्र	-9556
▁मेट्रोप	-9557
▁प्रवाहित	-9558
▁अनियंत्रित	-9559
▁विद्यालयों	-9560
ावर	-9561
▁फौज	-9562
▁हिट	-9563
▁दरें	-9564
▁ब्ला	-9565
▁कॉन्ट	-9566
▁जॉर्ज	-9567
▁सिंधु	-9568
▁अजीबोग	-9569
▁चतुर्थ	-9570
▁मांगने	-9571
▁उपबंधित	-9572
▁क्षैतिज	-9573
▁मुताबिक	-9574
▁प्रभावों	-9575
▁शास्त्रीय	-9576
▁विसंगतियों	-9577
▁अनो	-9578
▁मधुर	-9579
▁कॉम्प	-9580
▁मुंशी	-9581
▁डेस्कट	-9582
▁धर्मार्थ	-9583
▁सर्वोपरि	-9584
▁रच	-9585
ब्बा	-9586
▁डेट	-9587
▁डेल	-9588
▁फेर	-9589
▁क्री	-9590
▁दिलीप	-9591
▁अंगूठे	-9592
▁अभेद्य	-9593
▁कहलाता	-9594
▁हार्डवेयर	-9595
▁कार्यकलापों	-9596
बुल	-9597
ांच	-9598
गुना	-9599
▁मिलन	-9600
▁वारा	-9601
▁समीप	-9602
▁आँखों	-9603
▁उत्पर	-9604
रूद्दीन	-9605
रेन्द्र	-9606
▁चार्टर	-9607
▁नर्मदा	-9608
▁प्रवर्ग	-9609
▁असमर्थता	-9610
च्य	-9611
ोन्	-9612
देशिक	-9613
▁इनसे	-9614
▁मनीष	-9615
▁लिखत	-9616
प्रदेश	-9617
▁कार्ट	-9618
▁शिमला	-9619
▁जोड़ना	-9620
▁मणिपुर	-9621
▁अल्ट्रा	-9622
▁रूपान्त	-9623
▁यूनिवर्स	-9624
▁त्रुटियों	-9625
नद	-9626
जूर	-9627
यित	-9628
▁कंड	-9629
▁खात	-9630
▁मौन	-9631
▁ट्रा	-9632
▁नाना	-9633
▁स्या	-9634
▁अरुणा	-9635
▁खींचा	-9636
▁म्यूट	-9637
▁सूचकांक	-9638
▁सुरेंद्र	-9639
ंबा	-9640
टकर	-9641
▁गत	-9642
▁खाल	-9643
▁शिप	-9644
▁बनते	-9645
▁डालता	-9646
▁भयानक	-9647
▁साधना	-9648
▁तुरन्त	-9649
▁शासकों	-9650
▁अपूरणीय	-9651
▁स्ट्रीट	-9652
▁पवित्रता	-9653
▁अजीबोगरीब	-9654
ीत	-9655
सम्	-9656
▁अघ	-9657
▁जह	-9658
ड़ित	-9659
पकों	-9660
▁खरा	-9661
▁गिरी	-9662
▁व्याप्त	-9663
▁डेस्कटॉप	-9664
एव	-9665
शेर	-9666
य्या	-9667
▁आंब	-9668
▁एसई	-9669
▁कपास	-9670
▁चारा	-9671
▁कैलाश	-9672
▁अनुमेय	-9673
▁कॉलोनी	-9674
▁शासकीय	-9675
▁विवेकान	-9676
▁प्रस्थान	-9677
▁उद्यमियों	-9678
ेली	-9679
कर्स	-9680
ितरण	-9681
▁आँक	-9682
▁ईंट	-9683
▁आलेख	-9684
▁रेंज	-9685
▁विराम	-9686
▁विषयक	-9687
▁प्रौढ़	-9688
▁साझेदार	-9689
▁सहभागिता	-9690
▁महाप्रबंधक	-9691
▁अपरिवर्तनीय	-9692
समय	-9693
संभव	-9694
▁छंद	-9695
▁डकै	-9696
▁तित	-9697
▁शौच	-9698
▁डीडी	-9699
संदीदा	-9700
▁दर्शक	-9701
▁एकीकरण	-9702
▁विजेता	-9703
▁अन्तर्राष्ट्रीय	-9704
ुरू	-9705
चन्द	-9706
ापुर	-9707
▁ऑब्	-9708
▁महेश	-9709
▁रूचि	-9710
▁शाही	-9711
▁क्राइ	-9712
▁खर्चे	-9713
▁देसाई	-9714
▁मिश्र	-9715
▁रिहाई	-9716
▁अंतर्व	-9717
▁डिप्लो	-9718
▁निकाली	-9719
नक	-9720
खान	-9721
संह	-9722
▁अजन	-9723
▁गर्ग	-9724
▁दादी	-9725
▁राइट	-9726
▁जिसमे	-9727
▁मुकेश	-9728
तापूर्ण	-9729
▁पूर्वक	-9730
▁चित्रों	-9731
▁जमींदार	-9732
▁अद्वितीय	-9733
▁प्रांतीय	-9734
▁सामर्थ्य	-9735
▁मैट्रिक्स	-9736
▁नद	-9737
▁कुश	-9738
▁गली	-9739
▁दां	-9740
प्राइ	-9741
▁उड़ा	-9742
▁कमरा	-9743
▁बलों	-9744
▁बहिष्	-9745
▁उपनियम	-9746
▁मुद्रण	-9747
▁शास्ति	-9748
▁अप्रत्या	-9749
▁आनुवंशिक	-9750
▁टेलीविजन	-9751
▁मंत्रिमंडल	-9752
ैम	-9753
ॉड	-9754
आरसी	-9755
स्थि	-9756
ॉल्व	-9757
▁धूप	-9758
▁लॉज	-9759
तालों	-9760
▁उतने	-9761
▁गयीं	-9762
▁पिटी	-9763
▁लाइट	-9764
साधारण	-9765
▁मानों	-9766
▁संवर्	-9767
▁आक्षेप	-9768
▁कौंसिल	-9769
▁दिशाओं	-9770
▁नर्सिंग	-9771
▁पसंदीदा	-9772
▁असुरक्षित	-9773
▁एक्सटेंशन	-9774
▁सौहार्दपूर्ण	-9775
ंथि	-9776
▁फि	-9777
▁मला	-9778
▁मौल	-9779
▁एहसास	-9780
▁कसौटी	-9781
▁दोषों	-9782
▁प्रको	-9783
▁बदलें	-9784
▁स्वाद	-9785
▁हैसियत	-9786
ंय	-9787
सनी	-9788
▁एसएचओ	-9789
▁ट्रेन	-9790
▁पिटाई	-9791
▁बदलते	-9792
▁संपादित	-9793
▁फर्दबयान	-9794
ुलन	-9795
▁एंव	-9796
▁धनी	-9797
▁आईसी	-9798
▁मलया	-9799
▁अभिया	-9800
▁छिद्र	-9801
▁बेटों	-9802
▁राहुल	-9803
▁कठोरता	-9804
▁खिड़की	-9805
▁संक्रिया	-9806
एसएस	-9807
कार्	-9808
▁कुं	-9809
▁घूं	-9810
▁चौथी	-9811
▁अन्तः	-9812
▁जगहों	-9813
▁सोचना	-9814
▁स्पेश	-9815
▁करेंगी	-9816
▁अवधारित	-9817
▁सापेक्ष	-9818
ग्न	-9819
▁कमर	-9820
▁वर्क	-9821
▁किसने	-9822
धीर	-9823
फीति	-9824
▁बस्त	-9825
▁सगाई	-9826
▁सन्त	-9827
णात्मक	-9828
दृष्टि	-9829
धारकों	-9830
▁क्लेम	-9831
▁लार्ड	-9832
▁समन्वित	-9833
▁पारिस्थित	-9834
किक	-9835
पने	-9836
▁जौ	-9837
▁किस्	-9838
▁रत्न	-9839
▁पाण्ड	-9840
▁याचिकाएँ	-9841
▁डब्ल्यूपी	-9842
▁वादकारियों	-9843
▁ऑस्ट्रेलिया	-9844
प्ट	-9845
▁शिक	-9846
रेस्ट	-9847
▁औजार	-9848
▁गुस्	-9849
▁पत्थ	-9850
▁तत्परता	-9851
▁विवेचना	-9852
▁एसिड	-9853
▁सेमी	-9854
▁पकड़े	-9855
▁वापिस	-9856
▁समझती	-9857
▁घटनाएं	-9858
▁निरोधक	-9859
▁पासवर्ड	-9860
▁लक्षणों	-9861
▁परिपूर्ण	-9862
▁पद्धतियों	-9863
्तन	-9864
▁II	-9865
ैर्य	-9866
▁आलम	-9867
▁फूट	-9868
▁कारत	-9869
▁बीएस	-9870
▁सैंट	-9871
▁दीवान	-9872
▁परजीवी	-9873
▁बंगलौर	-9874
▁महावीर	-9875
▁डेटाबेस	-9876
▁क्रिमिनल	-9877
▁लट	-9878
▁१७	-9879
पुरी	-9880
▁ढाँ	-9881
▁मरीज	-9882
मेंट्स	-9883
▁दत्तक	-9884
▁वर्षो	-9885
▁नारियल	-9886
▁सेकेंड	-9887
▁प्रवासी	-9888
▁सरकारें	-9889
▁बदरूद्दीन	-9890
डोर	-9891
▁व्ह	-9892
▁साँ	-9893
▁अभिल	-9894
▁बीबी	-9895
▁विषम	-9896
▁ग्वालियर	-9897
▁डिप्लोमा	-9898
▁मनोवैज्ञानिक	-9899
णित	-9900
लापन	-9901
▁रंजन	-9902
▁शर्ट	-9903
▁तिमाही	-9904
▁विश्राम	-9905
▁संभावनाएं	-9906
▁अप्रत्याशित	-9907
नियों	-9908
▁अस्व	-9909
▁मिनटों	-9910
▁पृष्ठों	-9911
▁कन्वेंशन	-9912
▁मतदाताओं	-9913
▁In	-9914
▁पेन	-9915
▁बसा	-9916
▁बुश	-9917
▁सरो	-9918
▁हाज	-9919
थियों	-9920
बोर्ड	-9921
युद्ध	-9922
ापनों	-9923
▁अय्य	-9924
▁नींद	-9925
▁भवनों	-9926
▁अद्भुत	-9927
▁नाटकीय	-9928
▁लिखावट	-9929
▁बेंगलुरु	-9930
▁भाज	-9931
▁भूप	-9932
▁मीन	-9933
▁अवयव	-9934
▁एचपी	-9935
▁एमडी	-9936
▁कटाई	-9937
▁कपूर	-9938
▁टांग	-9939
▁फलों	-9940
▁मेनन	-9941
▁घोड़े	-9942
▁टकराव	-9943
▁तेलुगु	-9944
▁प्रदीप	-9945
▁हनुमान	-9946
▁भरोसेमंद	-9947
▁रेखांकित	-9948
ल्ले	-9949
स्कृत	-9950
▁विगत	-9951
▁छोड़ना	-9952
▁बनर्जी	-9953
▁प्रतियोगी	-9954
बिन	-9955
▁खेप	-9956
▁चंप	-9957
▁फ्री	-9958
▁उपद्र	-9959
▁हिंसक	-9960
▁प्रेमी	-9961
▁महाकाव	-9962
▁निराधार	-9963
▁अस्वीकृत	-9964
▁बोलीदाताओं	-9965
िमी	-9966
▁ओह	-9967
▁ऑयल	-9968
▁गों	-9969
डियों	-9970
▁काशी	-9971
▁खसरा	-9972
▁बायो	-9973
▁मादक	-9974
▁दीक्षा	-9975
▁प्रवीण	-9976
▁दर्शाते	-9977
▁स्वदेशी	-9978
▁निर्देशक	-9979
▁प्रत्यक्षदर्शी	-9980
ंगर	-9981
चिव	-9982
▁ढी	-9983
वाड़ा	-9984
ांजलि	-9985
्रेशन	-9986
▁मंडी	-9987
▁वर्न	-9988
▁लड़कों	-9989
▁अभिभावक	-9990
▁आंबेडकर	-9991
▁कुटुम्ब	-9992
▁द्वारकाना	-9993
▁कछ	-9994
▁अतएव	-9995
▁एसके	-9996
▁गुर्	-9997
▁सूखे	-9998
▁क्राल	-9999
▁गर्भाव	-10000
▁दर्शकों	-10001
▁ट्रेडिंग	-10002
▁उदाहरणार्थ	-10003
न्च	-10004
भगत	-10005
्राब	-10006
▁नाश	-10007
▁पच्च	-10008
▁धूम्र	-10009
▁मनोहर	-10010
▁अंशदान	-10011
▁सोवियत	-10012
▁राजपत्रित	-10013
▁द्वारकानाथ	-10014
▁प्रतिस्पर्धी	-10015
प्ली	-10016
▁तरा	-10017
▁वैट	-10018
▁फैली	-10019
▁भयाव	-10020
▁वनों	-10021
▁गन्ने	-10022
▁नाट्य	-10023
निर्देश	-10024
▁अशुद्ध	-10025
▁फंसाने	-10026
▁राज़्य	-10027
▁एमएसएमई	-10028
▁निरन्तर	-10029
▁सुलझाने	-10030
▁बुद्धिमान	-10031
▁असंवैधानिक	-10032
▁पुरस्कारों	-10033
्रत	-10034
▁पग	-10035
▁मथ	-10036
▁ऊंट	-10037
▁पीए	-10038
▁शैल	-10039
स्पों	-10040
▁चढ़ा	-10041
▁आंखें	-10042
▁ठहराव	-10043
▁भूटान	-10044
▁असंख्य	-10045
▁रघुनाथ	-10046
▁कलात्मक	-10047
▁विसंगतियां	-10048
बों	-10049
मेट	-10050
लेन	-10051
▁अटल	-10052
▁रूक	-10053
▁शुक	-10054
▁चुपचाप	-10055
▁समीचीन	-10056
ir	-10057
▁u	-10058
ity	-10059
कीर	-10060
▁एएस	-10061
▁तौल	-10062
▁पढ़ी	-10063
▁पैदल	-10064
▁माफी	-10065
▁सेटल	-10066
▁एमओयू	-10067
▁बर्तन	-10068
▁रस्सी	-10069
▁उद्यमी	-10070
▁उत्तरार्	-10071
ल्थ	-10072
ोरा	-10073
्शा	-10074
िंगर	-10075
▁ऋणी	-10076
▁कटक	-10077
▁नली	-10078
▁आरपी	-10079
प्रकाश	-10080
▁तम्बा	-10081
▁भित्त	-10082
▁सीटें	-10083
▁द्रव्य	-10084
▁स्वयंसे	-10085
▁स्वार्थ	-10086
▁प्रतिपादित	-10087
ढा	-10088
्रिक	-10089
▁अड़	-10090
▁कुर	-10091
▁खैर	-10092
▁जूट	-10093
▁सैयद	-10094
▁चक्कर	-10095
▁साइंस	-10096
▁असहमति	-10097
स्पोंडेंट	-10098
▁क्रियाओं	-10099
▁प्रमुखों	-10100
▁विनिर्देश	-10101
रथ	-10102
रोस	-10103
शेष	-10104
वर्त	-10105
शोधन	-10106
▁कोह	-10107
▁भली	-10108
जीवित	-10109
वस्था	-10110
वाड़ी	-10111
शास्त	-10112
▁डीवी	-10113
▁आरपीसी	-10114
▁निकटता	-10115
▁फ़ॉन्ट	-10116
▁कार्यात्मक	-10117
▁सऋ	-10118
वर्ण	-10119
▁वेग	-10120
वृत्त	-10121
▁असंग	-10122
▁बनायी	-10123
▁मल्टी	-10124
▁खोपड़ी	-10125
▁वाशिंग	-10126
▁कूटशब्द	-10127
▁क्रियाकलाप	-10128
▁निष्क्रियता	-10129
क्व	-10130
िगर	-10131
देही	-10132
िप्र	-10133
▁झलक	-10134
▁पडे	-10135
▁बिस	-10136
▁साहा	-10137
धारियों	-10138
▁अर्द्ध	-10139
▁चुकाने	-10140
▁तीव्रता	-10141
▁पहुँचने	-10142
▁ट्रांसफर	-10143
▁मास्टर्स	-10144
कांत	-10145
फ़्ट	-10146
▁पंथ	-10147
▁पदक	-10148
▁होश	-10149
▁कैंट	-10150
▁स्के	-10151
▁अप्रा	-10152
▁एकतरफा	-10153
▁संख़्या	-10154
▁समितियां	-10155
oc	-10156
पंच	-10157
▁भुव	-10158
चियों	-10159
▁दिल्	-10160
▁फैले	-10161
▁एनसीटी	-10162
▁पोर्टल	-10163
▁बेदखली	-10164
▁जनजातीय	-10165
▁शीघ्रता	-10166
▁जबरदस्ती	-10167
ंटू	-10168
जाक	-10169
बुक	-10170
▁गौण	-10171
▁फुल	-10172
▁संश	-10173
घोषणा	-10174
▁गुहा	-10175
▁मवेश	-10176
▁रोटी	-10177
▁सुलभ	-10178
▁हमसे	-10179
ष्णुता	-10180
▁राजपू	-10181
▁संचरण	-10182
▁सेकंड	-10183
▁विचलित	-10184
▁सर्किट	-10185
▁स्वराज	-10186
ष्ट्रपति	-10187
▁दोस्तों	-10188
▁गुणसूत्र	-10189
पानी	-10190
लब्ध	-10191
▁बूट	-10192
निवास	-10193
ालैंड	-10194
▁पांव	-10195
▁भलाई	-10196
▁वादे	-10197
▁सीबी	-10198
▁कमाने	-10199
▁चौथाई	-10200
▁सांसद	-10201
▁प्रचलन	-10202
▁भौतिकी	-10203
▁रात्रि	-10204
▁रवींद्र	-10205
▁पुनर्निर्माण	-10206
▁प्रौद्योगिकियों	-10207
एलए	-10208
शंस	-10209
हाद	-10210
्मी	-10211
न्दन	-10212
विता	-10213
▁अधू	-10214
▁चोर	-10215
▁वक्र	-10216
▁करुणा	-10217
▁सर्जन	-10218
▁डिक्शन	-10219
▁पिटीशन	-10220
▁विचारक	-10221
▁शान्ति	-10222
▁संपादन	-10223
▁अनुपूरक	-10224
▁संप्रभु	-10225
बेल	-10226
▁आरा	-10227
▁स्टी	-10228
र्निया	-10229
िष्णुता	-10230
▁असिस्ट	-10231
श्योरेंस	-10232
▁प्रमाणन	-10233
▁एकाधिकार	-10234
▁चार्टर्ड	-10235
▁व्यक्तिपरक	-10236
थल	-10237
डेट	-10238
ियॉँ	-10239
▁जनक	-10240
▁पैक	-10241
▁बगी	-10242
▁वृह	-10243
द्वार	-10244
▁बंधे	-10245
▁ललित	-10246
▁जमाने	-10247
▁मापने	-10248
▁सरलता	-10249
▁जोड़कर	-10250
▁किनारों	-10251
▁नीतियां	-10252
▁कार्यपाल	-10253
▁नागरिकता	-10254
▁अस्पष्टता	-10255
▁लू	-10256
▁ऊर्	-10257
▁मैक	-10258
ोजकों	-10259
▁मैक्स	-10260
▁विहार	-10261
▁मुखिया	-10262
▁रामचंद्र	-10263
▁औपचारिकता	-10264
▁कार्यकर्ताओं	-10265
ोरम	-10266
वाने	-10267
▁मदर	-10268
▁कोटि	-10269
▁क्षे	-10270
▁रिसी	-10271
ावस्था	-10272
▁उत्थान	-10273
▁मिलीभगत	-10274
▁निःशुल्क	-10275
▁परंपराओं	-10276
▁बिल्डिंग	-10277
▁अनौपचारिक	-10278
▁सीडब्ल्यू	-10279
▁स्वीकार्यता	-10280
ंड़	-10281
ईटी	-10282
ड़ने	-10283
▁अवध	-10284
चिकित	-10285
मानंद	-10286
मानों	-10287
▁चाहा	-10288
▁लीटर	-10289
▁बारिश	-10290
▁संजाल	-10291
▁एनआईटी	-10292
▁एससीआर	-10293
▁निवेशक	-10294
▁प्रमोद	-10295
▁बिलियन	-10296
▁हेरफेर	-10297
▁काश्मीर	-10298
▁लाभप्रद	-10299
▁हाउसिंग	-10300
▁डिक्शनरी	-10301
▁परिशिष्ट	-10302
्ह	-10303
▁मन्	-10304
▁बजाए	-10305
▁रूसी	-10306
्वाइंट	-10307
▁धूम्रपान	-10308
ुखी	-10309
फ़्त	-10310
ब्रे	-10311
यंकर	-10312
▁गिल	-10313
▁नॉन	-10314
▁पायी	-10315
▁वाणी	-10316
क्रमित	-10317
▁चाहें	-10318
▁धारित	-10319
▁ब्रह्	-10320
▁शुष्क	-10321
▁मुख़्य	-10322
▁अवशोषित	-10323
▁ट्रांसपोर्ट	-10324
माल	-10325
ोटो	-10326
▁पस	-10327
▁गाल	-10328
▁आर्ट	-10329
▁किला	-10330
▁क्ली	-10331
▁पोषक	-10332
▁सुने	-10333
▁अवसाद	-10334
▁कोष्ठ	-10335
▁गन्ना	-10336
▁स्टाक	-10337
▁हालात	-10338
▁निभाने	-10339
▁पहचानने	-10340
▁यथासंभव	-10341
▁संकेतों	-10342
▁शब्दावली	-10343
तीक	-10344
▁हू	-10345
▁रेज	-10346
▁सूखा	-10347
▁समेकन	-10348
ोर्टियम	-10349
▁तयशुदा	-10350
▁लक्षित	-10351
▁सर्वथा	-10352
▁विलक्षण	-10353
▁विचारणीय	-10354
▁सहकारिता	-10355
▁मध्यवर्ती	-10356
णसी	-10357
ंगली	-10358
क्के	-10359
क्यू	-10360
ोत्स	-10361
▁करण	-10362
▁टैग	-10363
▁अम्ल	-10364
▁एनएसई	-10365
▁घूंघट	-10366
▁अवयवों	-10367
▁पीडीडी	-10368
▁प्रोफ़	-10369
▁राजकीय	-10370
▁भूखंडों	-10371
▁सिक्किम	-10372
▁ज्योतिर्म	-10373
▁प्रादेशिक	-10374
▁परिसंपत्तियों	-10375
फोर्ड	-10376
श्यों	-10377
▁टाइम	-10378
▁स्राव	-10379
▁कैलेंडर	-10380
▁तम्बाकू	-10381
▁मानहानि	-10382
▁गर्भावस्था	-10383
दो	-10384
कने	-10385
नीस	-10386
▁डू	-10387
▁सउ	-10388
ाम्प	-10389
▁धीर	-10390
▁जूते	-10391
▁टीआई	-10392
▁लाता	-10393
▁लिपिक	-10394
▁सैंट्रो	-10395
▁प्रत्यारो	-10396
ंकि	-10397
टिया	-10398
▁कैश	-10399
▁निब	-10400
▁राइ	-10401
▁आरके	-10402
▁खिंच	-10403
▁पारे	-10404
्रीकरण	-10405
▁यमुना	-10406
▁तोड़ने	-10407
▁बाधाओं	-10408
असल	-10409
▁नट	-10410
आईडी	-10411
▁ढूँ	-10412
▁आशीष	-10413
▁त्यो	-10414
▁मोटी	-10415
▁सर्प	-10416
▁सीटी	-10417
ज्ञानी	-10418
▁खाड़ी	-10419
▁तुर्क	-10420
▁पर्चे	-10421
▁फ्रां	-10422
▁भयंकर	-10423
▁वीर्य	-10424
▁सुप्र	-10425
▁अग्रसर	-10426
▁अनुयाय	-10427
▁आयातित	-10428
▁कैरियर	-10429
▁ग्लोबल	-10430
▁टुकड़ों	-10431
▁समयबद्ध	-10432
▁समानांतर	-10433
▁सेटलमेंट	-10434
ers	-10435
▁कस्	-10436
▁बेज	-10437
▁अनभि	-10438
▁आन्त	-10439
▁पुर्त	-10440
▁मूलतः	-10441
▁रंगों	-10442
▁लापता	-10443
▁सर्कल	-10444
▁कट्टरप	-10445
▁पर्यटक	-10446
▁पांचवें	-10447
▁परीक्षाओं	-10448
▁प्रस्तावक	-10449
▁रेगिस्तान	-10450
ारह	-10451
ॉक्स	-10452
▁डेम	-10453
लिप्त	-10454
▁खोले	-10455
▁जुटाने	-10456
▁पक्षीय	-10457
▁चुंबकीय	-10458
▁मॉड्यूल	-10459
▁वाराणसी	-10460
▁परिवीक्षाधीन	-10461
आइ	-10462
०ख	-10463
रात	-10464
रीद	-10465
ुवा	-10466
दर्य	-10467
ालाल	-10468
ेयरी	-10469
तानों	-10470
▁अर्ह	-10471
▁बगैर	-10472
▁मदों	-10473
▁वाष्	-10474
▁सुल्	-10475
▁सोलह	-10476
▁कदमों	-10477
▁जरुरी	-10478
▁नजदीक	-10479
▁आबंटित	-10480
▁व्यतीत	-10481
▁कंट्राब	-10482
▁प्रिंटर	-10483
▁कंसोर्टियम	-10484
ँगा	-10485
ंदे	-10486
र्षण	-10487
सिले	-10488
क्रेट	-10489
▁जीडी	-10490
▁पहना	-10491
▁डालकर	-10492
▁ध्रुव	-10493
▁पिछला	-10494
▁भीतरी	-10495
▁यौगिक	-10496
▁कुर्की	-10497
▁नागपुर	-10498
▁सेवाएँ	-10499
▁एजुकेशन	-10500
टेन	-10501
ारस	-10502
एफआर	-10503
▁किर	-10504
योजित	-10505
▁ज्या	-10506
▁संपर	-10507
▁सीएल	-10508
▁जरुरत	-10509
▁दरअसल	-10510
▁श्रवण	-10511
▁हल्का	-10512
▁उपरांत	-10513
▁लार्वा	-10514
▁सम्भावना	-10515
▁भावनात्मक	-10516
दीन	-10517
▁अनी	-10518
▁जोन	-10519
▁दाल	-10520
म्बित	-10521
▁आईएस	-10522
▁दुरा	-10523
▁राशन	-10524
▁सांठ	-10525
▁हरित	-10526
▁डेयरी	-10527
▁आक्रामक	-10528
▁राधाकृष्णन	-10529
घाट	-10530
लीम	-10531
ोटा	-10532
शेखर	-10533
▁अनुभ	-10534
▁असम्	-10535
▁एंटर	-10536
▁केवी	-10537
▁मुहा	-10538
▁शासी	-10539
▁खतरों	-10540
▁रक्षक	-10541
▁विकेट	-10542
ार्श्विक	-10543
▁त्योहार	-10544
▁अस्पतालों	-10545
▁भविष्यवाणी	-10546
ड्स	-10547
▁अछ	-10548
ment	-10549
एनएल	-10550
एमएस	-10551
ियाई	-10552
▁मता	-10553
वालों	-10554
▁जंतु	-10555
▁बढ़ो	-10556
▁छोड़े	-10557
▁जजमेंट	-10558
▁मंत्रि	-10559
▁प्वाइंट	-10560
▁वाजपेयी	-10561
ut	-10562
गाल	-10563
दरी	-10564
चाने	-10565
▁पडा	-10566
▁रबर	-10567
▁सत्	-10568
▁कैसा	-10569
▁नोडल	-10570
ुतीकरण	-10571
ुद्दीन	-10572
▁खुलने	-10573
▁निवेद	-10574
▁कारतूस	-10575
▁ठहराते	-10576
▁कॉन्ट्र	-10577
▁प्रतिकर	-10578
▁निमंत्रण	-10579
▁पर्यवेक्षी	-10580
शास	-10581
ावि	-10582
ालीस	-10583
▁जोड	-10584
▁फ्लै	-10585
▁मोनो	-10586
निर्भर	-10587
▁निर्म	-10588
▁बनाएँ	-10589
प्रणाली	-10590
▁अंडमान	-10591
▁अनैतिक	-10592
▁क्राइम	-10593
▁सीमाएं	-10594
▁स्मार्ट	-10595
▁कार्यभार	-10596
▁विनाशकारी	-10597
▁ध्य	-10598
िश्रण	-10599
ेंट्स	-10600
▁क्षय	-10601
▁अतिशय	-10602
▁एआईसी	-10603
▁डेविड	-10604
▁खाद्या	-10605
▁चंद्रा	-10606
▁दिलाया	-10607
▁समुच्च	-10608
▁छुटकारा	-10609
▁देखेंगे	-10610
थु	-10611
फान	-10612
▁खाई	-10613
लीकरण	-10614
▁अनवर	-10615
▁चांदी	-10616
▁धैर्य	-10617
▁बुलाई	-10618
▁स्थानाप	-10619
▁परिचालित	-10620
▁भूतपूर्व	-10621
वात	-10622
ण्डी	-10623
िज्म	-10624
▁घटी	-10625
▁रिए	-10626
▁गहने	-10627
▁परमा	-10628
▁मतों	-10629
▁रोने	-10630
▁अजनबी	-10631
▁एकांत	-10632
▁बहाना	-10633
▁स्कैन	-10634
▁ग्रंथों	-10635
▁प्रतिरूप	-10636
▁नियन्त्रण	-10637
नन	-10638
भीत	-10639
वेद	-10640
ारत	-10641
▁उलझ	-10642
▁महज	-10643
▁लौह	-10644
▁इण्ड	-10645
▁शवों	-10646
▁सत्त	-10647
▁असहाय	-10648
▁नाजुक	-10649
▁वैद्य	-10650
▁अलार्म	-10651
▁एंट्री	-10652
▁बागवानी	-10653
▁पहुंचाया	-10654
▁भुवनेश्वर	-10655
घाती	-10656
▁मंदी	-10657
▁युवक	-10658
▁अपलोड	-10659
▁ख्याल	-10660
▁ग्रिड	-10661
▁साम्य	-10662
▁नामकरण	-10663
▁रिफाइन	-10664
▁स्त्रोत	-10665
▁विकल्पों	-10666
▁टिप्पणियां	-10667
ौला	-10668
ावार	-10669
▁कलम	-10670
▁निभ	-10671
▁बेचे	-10672
▁इशारे	-10673
▁कन्या	-10674
▁पूँजी	-10675
▁रखेंगे	-10676
▁लैंगिक	-10677
▁बोलियों	-10678
▁अनुयायियों	-10679
▁दुर्भावनापूर्ण	-10680
ंसे	-10681
▁शत	-10682
बर्ग	-10683
ार्टर	-10684
▁इनाम	-10685
▁एमआर	-10686
▁कुंज	-10687
▁तटीय	-10688
▁नीला	-10689
▁परिन	-10690
▁राणा	-10691
ान्वित	-10692
▁इंसान	-10693
▁कोरिया	-10694
▁निर्मल	-10695
▁इमारतों	-10696
▁चमत्कार	-10697
▁स्पष्टता	-10698
▁क्षतिग्रस्त	-10699
▁विवेकाधिकार	-10700
गै	-10701
▁ओल	-10702
▁भटक	-10703
▁शशि	-10704
द्रता	-10705
▁धुंध	-10706
▁नागर	-10707
▁बीयर	-10708
▁मापन	-10709
▁शंका	-10710
▁शिरा	-10711
▁मिलान	-10712
▁मुल्क	-10713
▁अविभाजित	-10714
▁अंतर्विष्ट	-10715
▁यूनिवर्सिटी	-10716
ज्य	-10717
वेन	-10718
▁पंप	-10719
▁पैन	-10720
▁अंतत	-10721
▁आएगी	-10722
▁एलपी	-10723
▁क्यो	-10724
▁खादी	-10725
▁गुला	-10726
▁स्टो	-10727
▁कम्पन	-10728
▁जीतने	-10729
▁फिंगर	-10730
▁बैठकर	-10731
▁अंसारी	-10732
▁दिखायी	-10733
▁अब्दुल्ला	-10734
▁आधुनिकीकरण	-10735
▁पर्यवेक्षक	-10736
ंडर	-10737
चनों	-10738
र्वक	-10739
०वें	-10740
▁मोल	-10741
▁ब्ले	-10742
▁लगीं	-10743
▁लैंड	-10744
▁समेत	-10745
▁महंगा	-10746
▁करवाया	-10747
▁पंजीयक	-10748
▁ग्राउंड	-10749
ंजक	-10750
विस	-10751
ानिक	-10752
िथ्म	-10753
त्तूर	-10754
▁एफटी	-10755
▁आँखें	-10756
▁खजाने	-10757
▁झुकाव	-10758
▁दोहरे	-10759
▁महाले	-10760
▁सिंधी	-10761
▁सीमांत	-10762
▁सेनाओं	-10763
▁एनएसईएल	-10764
▁पत्थरों	-10765
▁प्रत्यु	-10766
▁श्रीनिवास	-10767
▁सुभाषबाबू	-10768
ig	-10769
▁दखल	-10770
▁अम्ब	-10771
▁तरंग	-10772
▁मीना	-10773
▁यूएस	-10774
▁लाला	-10775
▁जयपुर	-10776
▁पड़ते	-10777
▁परिपथ	-10778
▁वैश्व	-10779
▁प्रमोट	-10780
▁सदियों	-10781
▁प्रोफाइल	-10782
▁युक्तियुक्त	-10783
पृ	-10784
डित	-10785
ाम्	-10786
▁re	-10787
▁खुर	-10788
देशीय	-10789
▁अभया	-10790
▁एम्ब	-10791
▁कचरे	-10792
▁मेनू	-10793
▁युसु	-10794
▁साधु	-10795
▁सिया	-10796
संबंधी	-10797
▁घुमाव	-10798
ब्दियों	-10799
▁बालकों	-10800
▁मलयालम	-10801
▁दंडादेश	-10802
▁बेटियों	-10803
▁जवाबदेही	-10804
▁प्रतिभाग	-10805
▁प्रमाणीकरण	-10806
ch	-10807
गर्	-10808
ायन	-10809
▁इर	-10810
ंकार	-10811
र्धा	-10812
▁परव	-10813
▁शिवा	-10814
▁भ्रमण	-10815
▁बराबरी	-10816
▁मेगावाट	-10817
▁प्रभारित	-10818
▁उत्पादकों	-10819
▁कार्यशाला	-10820
▁डेवलपमेंट	-10821
▁आस्ट्रेलिया	-10822
लूर	-10823
▁एट	-10824
▁बाघ	-10825
▁घेरे	-10826
▁सिवा	-10827
लेरिया	-10828
▁फारसी	-10829
▁चटर्जी	-10830
▁प्रथाओं	-10831
▁मर्यादा	-10832
▁सिलसिले	-10833
▁देनदारियों	-10834
्ठ	-10835
एचसी	-10836
ष्मा	-10837
▁सघन	-10838
▁स्ल	-10839
भावित	-10840
▁अमित	-10841
▁केशव	-10842
▁भूषण	-10843
▁पर्दा	-10844
▁सेक्स	-10845
▁वर्ल्ड	-10846
▁संसाधित	-10847
हम	-10848
काई	-10849
ऊंगा	-10850
लेखा	-10851
▁एनआर	-10852
▁टर्न	-10853
▁ताना	-10854
▁भाभी	-10855
▁बुखार	-10856
▁सशर्त	-10857
▁काउंसल	-10858
▁चट्टान	-10859
▁अखबारों	-10860
▁आदर्शों	-10861
▁हलफनामों	-10862
▁व्यवहार्य	-10863
▁संपार्श्विक	-10864
▁सान	-10865
▁वल्ल	-10866
▁पढ़ते	-10867
▁बेसिक	-10868
▁व्यंग	-10869
▁सुधीर	-10870
▁अपीलें	-10871
▁परिसीमा	-10872
▁कल्याणकारी	-10873
▁प्रारम्भिक	-10874
▁गे	-10875
▁ढा	-10876
रकों	-10877
▁जीप	-10878
▁पलट	-10879
▁सीई	-10880
ट्रिक	-10881
▁दस्त	-10882
▁दुखद	-10883
▁वैसी	-10884
पतियों	-10885
▁ट्रां	-10886
▁बैटरी	-10887
▁जहाजों	-10888
▁अनभिज्ञ	-10889
बै	-10890
▁आभ	-10891
न्सी	-10892
िपरि	-10893
▁उदर	-10894
▁एमए	-10895
▁दाँ	-10896
▁कुला	-10897
▁सुखद	-10898
▁हीरा	-10899
▁बोलना	-10900
▁हास्य	-10901
ोल्यूशन	-10902
▁ताजमहल	-10903
▁उत्प्रे	-10904
▁पूर्वजों	-10905
im	-10906
दगी	-10907
िसे	-10908
▁डु	-10909
▁ऊँच	-10910
▁मुज	-10911
▁रोब	-10912
ंक्शन	-10913
ितानी	-10914
▁गाने	-10915
▁दायी	-10916
▁लगाव	-10917
▁बनाएं	-10918
▁कमजोरी	-10919
▁आतंकवादियों	-10920
फिया	-10921
▁अमीन	-10922
▁ज्वर	-10923
▁भेड़	-10924
▁असत्य	-10925
▁भूकंप	-10926
▁रंगीन	-10927
▁सहारे	-10928
▁किराये	-10929
▁खुलासे	-10930
▁शृंखला	-10931
▁सातवीं	-10932
▁प्रैक्ट	-10933
▁अज्ञानता	-10934
▁ऑपरेटरों	-10935
▁काउंसलिंग	-10936
▁प्रतिष्ठानों	-10937
जुए	-10938
▁लय	-10939
वेली	-10940
हाली	-10941
▁नूर	-10942
▁पों	-10943
▁खोजा	-10944
▁बैठी	-10945
▁सउदी	-10946
▁नवाचार	-10947
▁मृतकों	-10948
▁आवृत्ति	-10949
▁एआईसीटीई	-10950
▁पूर्वानु	-10951
▁अप्राकृतिक	-10952
ंछ	-10953
नामे	-10954
्योर	-10955
▁मेध	-10956
ग्राम	-10957
र्मित	-10958
ाइलों	-10959
▁पीले	-10960
▁रिली	-10961
▁रूढ़	-10962
▁स्टे	-10963
▁खुराक	-10964
▁दिखने	-10965
▁बोलता	-10966
▁लिखें	-10967
▁सुचार	-10968
▁मणीलाल	-10969
▁रिसीवर	-10970
▁इकाइयां	-10971
▁द्वितीयक	-10972
▁मंत्रिपरि	-10973
ताई	-10974
पीएफ	-10975
▁ताक	-10976
नागरी	-10977
वश्यक	-10978
वस्तु	-10979
ृद्धि	-10980
▁नौका	-10981
▁तारों	-10982
▁पत्तन	-10983
▁निकटतम	-10984
▁तकनीकों	-10985
▁ट्रैक्टर	-10986
▁पोस्टिंग	-10987
▁आकांक्षाओं	-10988
▁संरचनात्मक	-10989
जि	-10990
▁उग	-10991
▁झेल	-10992
▁निध	-10993
▁आरएफ	-10994
▁चार्	-10995
▁डिवा	-10996
▁डेढ़	-10997
▁नीले	-10998
▁शाहज	-10999
कुमारी	-11000
▁चालीस	-11001
▁भयभीत	-11002
▁भयावह	-11003
▁जापानी	-11004
▁पासवान	-11005
▁बेईमान	-11006
▁विक्रम	-11007
▁पहुंचना	-11008
▁परिष्कृत	-11009
क्ल	-11010
सिया	-11011
▁एस्	-11012
मुश्त	-11013
▁अभिम	-11014
▁क़ुर	-11015
▁बाँध	-11016
▁मामा	-11017
फ्रेंस	-11018
▁एरिया	-11019
▁जमीनी	-11020
▁पढ़ें	-11021
▁समूचे	-11022
▁खींचने	-11023
▁निपटना	-11024
▁उत्तेजना	-11025
▁परिपक्वता	-11026
▁साक्षियों	-11027
▁आत्मनिर्भर	-11028
▁क्रियाकलापों	-11029
ap	-11030
इम	-11031
ख्ता	-11032
र्मी	-11033
▁अनर	-11034
▁करन	-11035
▁तंज	-11036
▁विस	-11037
▁हज़	-11038
ंत्रण	-11039
▁सौन्	-11040
▁उंगली	-11041
▁गोल्ड	-11042
▁टैरिफ	-11043
▁मंचों	-11044
▁लम्बा	-11045
▁कम्युन	-11046
▁क्यूरी	-11047
▁हिम्मत	-11048
▁ब्रह्मा	-11049
▁इस्लामिक	-11050
ैड	-11051
oog	-11052
द्घ	-11053
लीफ	-11054
▁छल	-11055
▁मग	-11056
सूरत	-11057
▁मुक	-11058
oogle	-11059
▁जवान	-11060
▁पल्ल	-11061
▁बहने	-11062
▁विका	-11063
▁क्षेञ	-11064
▁हफ्ते	-11065
▁दांतों	-11066
▁पाएंगे	-11067
ेट्रिक्स	-11068
▁अरुणाचल	-11069
▁किताबें	-11070
▁आकाशवाणी	-11071
▁इन्होंने	-11072
▁जल्दबाजी	-11073
▁देवनागरी	-11074
▁ब्रितानी	-11075
▁आपत्तिजनक	-11076
▁सम्बन्धों	-11077
um	-11078
खने	-11079
डियम	-11080
वांछ	-11081
▁अड्डे	-11082
▁ध्येय	-11083
▁मक्का	-11084
▁मण्डल	-11085
▁मनाने	-11086
▁निकलते	-11087
▁वास्तु	-11088
▁निकोबार	-11089
▁स्टाम्प	-11090
अली	-11091
बड़	-11092
बुद	-11093
▁the	-11094
▁पला	-11095
▁अंधा	-11096
▁अंकुश	-11097
▁दीजिए	-11098
▁श्वास	-11099
▁अंतरंग	-11100
▁नौसेना	-11101
▁गोस्वामी	-11102
▁व्यापकता	-11103
▁एल्गोरिथ्म	-11104
▁मांसपेशियों	-11105
▁दुर्भाग्यपूर्ण	-11106
बुन	-11107
नामी	-11108
र्शी	-11109
▁खिस	-11110
▁शिल	-11111
▁हता	-11112
▁अदाय	-11113
▁अनार	-11114
▁कुंद	-11115
▁घिरा	-11116
▁बिछा	-11117
▁भण्ड	-11118
▁लेटर	-11119
▁खेलों	-11120
▁हेमंत	-11121
▁बैलेंस	-11122
▁वर्षीय	-11123
▁विद्वत	-11124
▁सर्जरी	-11125
▁अपवादों	-11126
▁द्वीपों	-11127
▁विलंबित	-11128
▁शक्तियाँ	-11129
▁प्रतिबंधों	-11130
▁रिपोर्टिंग	-11131
फलक	-11132
▁ढ़	-11133
ुकला	-11134
▁डेन	-11135
▁थलग	-11136
▁स्फ	-11137
▁असीम	-11138
▁ज़ोर	-11139
▁तेज़	-11140
▁फीसदी	-11141
▁सैद्ध	-11142
▁प्रिवी	-11143
▁महानगर	-11144
▁सहेजें	-11145
▁कृतियों	-11146
▁पुनर्जीवित	-11147
चों	-11148
लता	-11149
लेज	-11150
▁टि	-11151
▁फट	-11152
▁डबल	-11153
▁सदर	-11154
ष्पीठ	-11155
ालिया	-11156
▁मृदा	-11157
▁आच्छा	-11158
▁मनगढ़	-11159
▁संदीप	-11160
▁राजदूत	-11161
▁लाइनों	-11162
▁नागालैंड	-11163
▁कार्मिकों	-11164
उथ	-11165
▁बछ	-11166
पाती	-11167
▁रत्	-11168
ुलेशन	-11169
▁गुणक	-11170
▁सतत्	-11171
लिसिटर	-11172
स्फीति	-11173
▁चौड़ी	-11174
▁मंडली	-11175
▁मेधावी	-11176
▁दीक्षित	-11177
▁विध्वंस	-11178
▁उद्घोषणा	-11179
▁संक्रमित	-11180
▁उपन्यासों	-11181
▁जनस	-11182
▁लॉक	-11183
▁आंगन	-11184
▁कमला	-11185
पीडिया	-11186
वर्षीय	-11187
▁चलेगा	-11188
▁पक्का	-11189
▁लेआउट	-11190
▁संघों	-11191
▁साहिब	-11192
▁उपासना	-11193
▁राजवंश	-11194
▁शौचालय	-11195
▁कलाकारों	-11196
▁वाशिंगटन	-11197
▁संपूर्णता	-11198
मरी	-11199
यता	-11200
ैनी	-11201
श्री	-11202
▁रूट	-11203
▁हीन	-11204
▁अराज	-11205
▁रुग्	-11206
▁बदलती	-11207
▁अंतररा	-11208
▁पर्वतीय	-11209
▁स्ट्रिंग	-11210
▁आर्बिट्रल	-11211
▁घोल	-11212
▁टोक	-11213
▁मरण	-11214
▁वैन	-11215
▁कपिल	-11216
▁डीपी	-11217
▁रावण	-11218
▁फैलाव	-11219
▁बढ़ाते	-11220
▁ऑक्सीजन	-11221
▁अनुमानों	-11222
▁अभयारण्य	-11223
▁समाविष्ट	-11224
▁सुपुर्दगी	-11225
▁आवश्यकताएं	-11226
चाल	-11227
एक्स	-11228
राहट	-11229
यार्क	-11230
▁उठने	-11231
▁एचएल	-11232
▁सुमन	-11233
▁परिकल	-11234
▁प्रॉप	-11235
▁हममें	-11236
तानुसार	-11237
▁टिकटों	-11238
▁सुनीता	-11239
▁संवितरण	-11240
▁सैकड़ों	-11241
▁हड्डियों	-11242
▁पड़ोसियों	-11243
रणी	-11244
म्मे	-11245
▁लिट	-11246
▁पैंट	-11247
▁खातून	-11248
▁दर्जे	-11249
▁नायडू	-11250
▁बहनों	-11251
▁ब्रेक	-11252
▁स्केल	-11253
▁जांचने	-11254
▁मापदंड	-11255
▁मुम्बई	-11256
▁लागतों	-11257
▁मनगढ़ंत	-11258
▁इंस्ट्रू	-11259
▁त्रिपुरा	-11260
▁उपराष्ट्रपति	-11261
▁टेस्टेट्रिक्स	-11262
तरा	-11263
विल	-11264
▁भट	-11265
ोग्य	-11266
पल्ली	-11267
▁निजाम	-11268
▁नोड्स	-11269
▁सावधि	-11270
िफिकेशन	-11271
▁अंधेरे	-11272
▁अभिषेक	-11273
▁ग्रंथि	-11274
▁चिन्ता	-11275
▁रोस्टर	-11276
▁कित्तूर	-11277
▁शेड्यूल	-11278
▁कार्यपालक	-11279
दशा	-11280
ाहट	-11281
▁जघ	-11282
▁धरा	-11283
▁पौधा	-11284
▁मेला	-11285
▁रोशन	-11286
▁सिंघ	-11287
▁हरीश	-11288
▁गुलाब	-11289
▁भिक्ष	-11290
▁अप्रति	-11291
▁ज़रूरी	-11292
▁महालेखा	-11293
▁महाकाव्य	-11294
▁नवान्वेषी	-11295
ैप	-11296
क्ष्	-11297
▁नशे	-11298
▁कोटे	-11299
▁पारस	-11300
▁पौरा	-11301
र्नीचर	-11302
▁ईरानी	-11303
▁जायगा	-11304
▁डिस्प	-11305
▁अस्वीकार्य	-11306
▁राष्ट्रीयता	-11307
यो	-11308
000	-11309
जना	-11310
िनो	-11311
ेंग	-11312
ॉपी	-11313
कुशल	-11314
हाउस	-11315
▁अनूप	-11316
▁भैंस	-11317
▁पच्चीस	-11318
▁मिस्टर	-11319
▁सम्प्र	-11320
▁सुधारा	-11321
▁संप्रेषण	-11322
▁स्टेशनों	-11323
▁अतिमानसिक	-11324
ंर	-11325
नेल	-11326
बैक	-11327
लाभ	-11328
ुगत	-11329
्ली	-11330
▁रौ	-11331
▁डिब	-11332
▁शिष	-11333
रलैंड	-11334
▁पेंट	-11335
▁भद्र	-11336
▁साफ़	-11337
ंगाबाद	-11338
▁पुण्य	-11339
▁आईसीटी	-11340
▁जंगलों	-11341
▁एकरूपता	-11342
▁कंस्ट्र	-11343
▁परिसरों	-11344
▁प्रधाना	-11345
▁सांठगांठ	-11346
▁सॉलिसिटर	-11347
▁कार्यकलाप	-11348
▁अंतःस्थापित	-11349
ub	-11350
▁बिश	-11351
ूर्वक	-11352
▁उपनिष	-11353
▁कच्चा	-11354
▁क़्या	-11355
▁क्लास	-11356
▁शाश्व	-11357
▁अपमानित	-11358
▁पहुंचता	-11359
▁कॉरपोरेट	-11360
▁विरोधाभासों	-11361
हमी	-11362
....	-11363
▁सेठ	-11364
▁हकी	-11365
रेक्ट	-11366
▁अभिश	-11367
▁अविल	-11368
▁बहुप	-11369
▁बोनस	-11370
▁मुड़	-11371
▁डकैती	-11372
▁बैठता	-11373
▁लगाये	-11374
▁साइटों	-11375
▁पंचायती	-11376
▁क्वार्टर	-11377
▁प्रविष्टियां	-11378
इयाँ	-11379
▁बाज	-11380
▁अनूठ	-11381
▁अभिस	-11382
▁निवल	-11383
▁पायल	-11384
▁पीके	-11385
▁माइन	-11386
▁लिफा	-11387
▁विज़	-11388
▁सीने	-11389
▁अवांछ	-11390
▁क्रमा	-11391
▁मोहित	-11392
▁सम्मुख	-11393
▁अनुयायी	-11394
▁एकमुश्त	-11395
▁समुच्चय	-11396
▁सुंदरता	-11397
▁उदासीनता	-11398
▁पत्तियों	-11399
▁निर्दोषता	-11400
हू	-11401
ख्श	-11402
भंग	-11403
ेन्ट	-11404
▁आगम	-11405
▁चेन	-11406
▁छठे	-11407
▁मुव	-11408
त्थान	-11409
▁कलाम	-11410
▁छड़ी	-11411
▁लोकल	-11412
▁विलो	-11413
▁अठारह	-11414
▁जिंदा	-11415
▁ज़िम्म	-11416
▁डंपिंग	-11417
▁फ्रेंच	-11418
▁वसूलने	-11419
▁वायर्स	-11420
▁रिवाजों	-11421
▁क्षेत्रक	-11422
ay	-11423
aoM	-11424
वित	-11425
▁लख	-11426
्लाई	-11427
▁धरो	-11428
▁लाज	-11429
▁घंटा	-11430
▁चाबी	-11431
▁सदमे	-11432
▁लीजिए	-11433
▁बैठकें	-11434
▁सीमांकन	-11435
▁अनुपलब्ध	-11436
▁आस्तियां	-11437
▁देवेंद्र	-11438
▁शुक्राणु	-11439
▁उत्परिवर्तन	-11440
▁ज्योतिष्पीठ	-11441
साजी	-11442
ोगिक	-11443
▁बक्	-11444
▁राठ	-11445
▁सपने	-11446
िस्तान	-11447
▁घुटने	-11448
▁चौड़ा	-11449
▁अनुज्ञ	-11450
▁डिवाइस	-11451
▁प्ररूप	-11452
▁स्थावर	-11453
▁वास्तुकला	-11454
▁प्रत्युत्तर	-11455
गेट	-11456
▁१८	-11457
गाँव	-11458
▁एफए	-11459
▁भाँ	-11460
▁मोन	-11461
▁हेल	-11462
▁अंडा	-11463
▁माधव	-11464
▁केलिए	-11465
▁निकली	-11466
▁पावती	-11467
▁वेदों	-11468
▁अनुभवी	-11469
▁अमूर्त	-11470
▁कुर्सी	-11471
▁जनगणना	-11472
▁भ्रमित	-11473
▁कक्षाओं	-11474
▁घटनाक्रम	-11475
▁संक्रामक	-11476
रिज	-11477
लाइट	-11478
▁घसी	-11479
▁मैप	-11480
▁संक	-11481
▁इनको	-11482
▁कड़े	-11483
▁गाली	-11484
▁भावा	-11485
▁धक्का	-11486
▁पाटिल	-11487
▁हिमनद	-11488
▁अदायगी	-11489
▁बुद्धिम	-11490
▁महत्वाक	-11491
▁पहाड़ियों	-11492
▁सशक्तीकरण	-11493
ion	-11494
तुर	-11495
▁अड	-11496
▁थक	-11497
प्पी	-11498
▁ओएस	-11499
▁कपट	-11500
▁नीर	-11501
▁बेन	-11502
योग्य	-11503
▁अग्न	-11504
▁ढलान	-11505
▁बापू	-11506
▁बीजी	-11507
▁ऊँचाई	-11508
▁धरोहर	-11509
▁माणिक	-11510
▁गुमराह	-11511
▁मुनाफे	-11512
▁प्रॉक्सी	-11513
▁प्लानिंग	-11514
▁पंक्तियों	-11515
▁विस्थापित	-11516
▁विमानक्षेत्र	-11517
आन	-11518
िती	-11519
▁हौ	-11520
▁उठी	-11521
▁वेट	-11522
विन्द	-11523
▁आहरण	-11524
▁कब्र	-11525
▁कारप	-11526
▁लाते	-11527
▁हर्ड	-11528
▁कामया	-11529
▁कार्प	-11530
▁घटिया	-11531
▁बीजों	-11532
▁जमीनों	-11533
▁प्रक्ष	-11534
▁मार्शल	-11535
▁राजकोष	-11536
▁वियतना	-11537
▁चिंताओं	-11538
▁पौराणिक	-11539
गृह	-11540
▁थाः	-11541
▁दाई	-11542
▁अन्ध	-11543
▁अष्ट	-11544
▁उभरा	-11545
▁कॉफी	-11546
▁ठंडा	-11547
▁पतली	-11548
▁भूतल	-11549
▁खुदाई	-11550
▁ख्याति	-11551
▁नियोजक	-11552
▁आन्तरिक	-11553
▁बोर्डों	-11554
▁संरचनाओं	-11555
▁पुनर्प्राप्त	-11556
्ध	-11557
तौर	-11558
िनस	-11559
ेरी	-11560
ारसी	-11561
▁गरम	-11562
▁नवल	-11563
▁नां	-11564
▁बाप	-11565
▁राख	-11566
ेट्टी	-11567
▁पराग	-11568
▁लगों	-11569
▁श्ले	-11570
▁सपना	-11571
▁बूढ़े	-11572
▁सवारी	-11573
▁व्यतिक	-11574
▁शाश्वत	-11575
▁स्पेशल	-11576
ृत्तियों	-11577
▁करोड़ों	-11578
▁न्यूयार्क	-11579
▁विज्ञापित	-11580
▁श्रीकृष्ण	-11581
▁कार्यवाहियां	-11582
ग्व	-11583
जेड	-11584
मेज	-11585
▁कोच	-11586
▁बाइ	-11587
▁कलंक	-11588
▁जघन्य	-11589
▁पत्रक	-11590
▁पाश्च	-11591
▁मेहरा	-11592
▁यार्ड	-11593
▁यूएसए	-11594
▁मूल्या	-11595
▁हाइड्र	-11596
▁फर्नीचर	-11597
▁महासचिव	-11598
▁ब्राउज़र	-11599
▁सौन्दर्य	-11600
▁सहिष्णुता	-11601
▁प्रोग्रामिंग	-11602
डक	-11603
एंगे	-11604
▁ख़ु	-11605
▁तीर	-11606
▁सने	-11607
▁कच्छ	-11608
▁थैली	-11609
▁माउस	-11610
▁रेंट	-11611
▁समनु	-11612
▁घटाकर	-11613
▁दोहरी	-11614
▁बहुधा	-11615
▁मेमोर	-11616
▁मुद्रक	-11617
▁पात्रों	-11618
▁सुल्तान	-11619
▁मालिकाना	-11620
▁पत्रिकाओं	-11621
▁रजिस्ट्रीकृत	-11622
ोभ	-11623
’’	-11624
सेफ	-11625
गरीय	-11626
बानी	-11627
▁एएम	-11628
▁खां	-11629
▁जले	-11630
▁वेल	-11631
जेक्ट	-11632
▁तेरह	-11633
▁दागी	-11634
▁नवाब	-11635
▁बीआई	-11636
▁बुझा	-11637
▁मेले	-11638
▁अंशों	-11639
▁एलपीए	-11640
▁नाभिक	-11641
▁सज्जन	-11642
▁अकाउंट	-11643
▁अस्त्र	-11644
▁भूमिगत	-11645
▁एनआईओएस	-11646
▁विश्वव्यापी	-11647
ध्द	-11648
िकर	-11649
ज्जा	-11650
▁तैर	-11651
संहार	-11652
▁गिरि	-11653
▁जजों	-11654
▁जीता	-11655
▁भरना	-11656
▁व्रत	-11657
▁सजीव	-11658
▁सोनू	-11659
ड़ियां	-11660
▁क्लिन	-11661
▁गांजा	-11662
▁चालुक	-11663
▁जिन्ना	-11664
▁साम्रा	-11665
▁नवीनीकृत	-11666
▁परित्याग	-11667
▁रामकृष्ण	-11668
▁पंचवर्षीय	-11669
▁वसीयतनामा	-11670
▁इलेक्ट्रॉनिक्स	-11671
od	-11672
फन	-11673
शर	-11674
ठों	-11675
ड़ो	-11676
नरी	-11677
बाज़	-11678
वारे	-11679
▁com	-11680
▁आरएस	-11681
▁खेला	-11682
▁खोली	-11683
▁जीएम	-11684
▁ताला	-11685
▁दलित	-11686
▁लेगी	-11687
रीक्षक	-11688
ापूर्ण	-11689
▁किसके	-11690
▁बयानी	-11691
▁शारदा	-11692
स्थापना	-11693
▁उकसाने	-11694
▁कर्त्त	-11695
▁दुबारा	-11696
▁स्नायु	-11697
▁अभिनेता	-11698
▁जीवनकाल	-11699
▁दोषियों	-11700
▁संलिप्त	-11701
▁प्रेमचन्द	-11702
▁शताब्दियों	-11703
िओ	-11704
पीओ	-11705
ंजित	-11706
चकों	-11707
ट्टे	-11708
मपुर	-11709
स्तर	-11710
▁एसए	-11711
▁भला	-11712
▁राध	-11713
▁इटली	-11714
▁रखाव	-11715
▁समतल	-11716
▁पीड़क	-11717
▁खनिजों	-11718
▁ग्रीवा	-11719
▁परंतुक	-11720
▁समग्रता	-11721
▁स्तंभों	-11722
▁सब्जियों	-11723
▁संभाव्यता	-11724
▁स्थानापन्न	-11725
▁उपयोगकर्ताओं	-11726
जेज	-11727
गारी	-11728
▁डीआई	-11729
▁दाता	-11730
▁वृंद	-11731
▁फास्ट	-11732
▁बनारस	-11733
▁विशेन	-11734
▁स्पेन	-11735
▁एकाग्र	-11736
▁पुनर्भ	-11737
▁सद्भाव	-11738
▁समाजों	-11739
▁प्रशस्त	-11740
▁प्रॉपर्टी	-11741
िष	-11742
नोई	-11743
▁अनप	-11744
▁आदम	-11745
गाड़ी	-11746
ोत्सव	-11747
▁आभास	-11748
▁उभार	-11749
▁दशरथ	-11750
▁पद्य	-11751
▁मोटा	-11752
▁म्यू	-11753
▁आसन्न	-11754
▁उल्टी	-11755
▁क्रिस	-11756
▁पाउडर	-11757
▁बदलता	-11758
▁अलंकरण	-11759
▁तालमेल	-11760
▁संकलित	-11761
▁समाजवाद	-11762
▁निर्वाचक	-11763
▁न्यायपीठ	-11764
▁कॉम्प्लेक्स	-11765
▁कार्यक्षेत्र	-11766
▁पक्षपातपूर्ण	-11767
ul	-11768
रोह	-11769
ूढ़	-11770
▁छी	-11771
भोगी	-11772
कार्य	-11773
नीयता	-11774
भक्ति	-11775
▁डिपो	-11776
▁बीघा	-11777
▁मैरी	-11778
▁वाटर	-11779
▁शेखर	-11780
▁हरेक	-11781
▁टेक्स	-11782
▁बीतने	-11783
▁उन्मुख	-11784
▁गुलाबी	-11785
▁बढ़ाता	-11786
▁पहुंचती	-11787
▁गवर्नमेंट	-11788
▁राजेन्द्र	-11789
▁कार्यप्रणाली	-11790
ॉं	-11791
बूल	-11792
सूची	-11793
▁अरे	-11794
▁छठी	-11795
▁फंस	-11796
▁मों	-11797
कर्मी	-11798
क्किल	-11799
▁आक्र	-11800
▁इष्ट	-11801
▁पंकज	-11802
▁औषधीय	-11803
▁कीमती	-11804
▁पेरिस	-11805
▁फील्ड	-11806
▁मुर्ग	-11807
▁चंपारण	-11808
▁दाहिनी	-11809
▁प्रातः	-11810
▁यूनानी	-11811
▁औरंगाबाद	-11812
▁खरीदारों	-11813
▁अपेक्षाओं	-11814
▁इंश्योरेंस	-11815
ण्य	-11816
देय	-11817
मयी	-11818
▁झोप	-11819
▁वजी	-11820
▁सिड	-11821
▁कचरा	-11822
▁गोरख	-11823
▁निशा	-11824
▁लम्ब	-11825
▁संवे	-11826
▁निष्ठ	-11827
▁पहलों	-11828
▁शिश्न	-11829
▁सत्तार	-11830
▁सीरियल	-11831
▁अक्षरों	-11832
▁प्रोसेस	-11833
▁करनेवाले	-11834
▁महाद्वीप	-11835
▁प्रतिज्ञा	-11836
▁श्रद्धांजलि	-11837
धना	-11838
लूस	-11839
मस्त	-11840
दाश्त	-11841
▁शोधन	-11842
मुक्ति	-11843
▁विस्म	-11844
▁सश्रम	-11845
▁पंचांग	-11846
▁रुकावट	-11847
धिकारियों	-11848
▁एंटरप्राइ	-11849
्वल	-11850
▁साओ	-11851
त्रिक	-11852
▁ईश्व	-11853
▁टेबल	-11854
▁त्यौ	-11855
▁बदली	-11856
▁उदारी	-11857
▁रिवाज	-11858
▁कैंटीन	-11859
▁निकलती	-11860
▁नोकिया	-11861
▁मुर्गी	-11862
▁प्रेमचंद	-11863
▁चक्रवर्ती	-11864
▁अत्यावश्यक	-11865
▁प्राप्तकर्ता	-11866
▁उद्देश्यपूर्ण	-11867
ुए	-11868
▁or	-11869
▁नसी	-11870
▁बाण	-11871
▁मिठ	-11872
ष्टिक	-11873
▁त्या	-11874
▁मोचन	-11875
▁स्कू	-11876
▁छिड़क	-11877
▁दशाओं	-11878
▁बढाने	-11879
▁सेंटी	-11880
▁होस्ट	-11881
क्रिप्ट	-11882
▁नरसिंह	-11883
▁किस्मों	-11884
▁जबरदस्त	-11885
▁वचनबद्ध	-11886
▁वृक्षों	-11887
▁समझदारी	-11888
▁अंतरात्मा	-11889
▁जिम्मेदारियों	-11890
फू	-11891
ोधन	-11892
,000	-11893
▁टूल	-11894
रोहित	-11895
▁एनएच	-11896
▁एमटी	-11897
▁कांच	-11898
▁क्रू	-11899
▁डिजी	-11900
▁फ़िर	-11901
▁ममता	-11902
▁आंत्र	-11903
▁आठवीं	-11904
▁कराते	-11905
▁तटस्थ	-11906
▁नम्बर	-11907
▁रवैया	-11908
▁सियार	-11909
▁वीरेंद्र	-11910
▁परिसंपत्ति	-11911
▁मंत्रिपरिषद	-11912
माद	-11913
ेटर	-11914
ोगी	-11915
सीएल	-11916
▁पैद	-11917
ग्रही	-11918
ार्मा	-11919
▁गलतफ	-11920
▁मारी	-11921
न्यासी	-11922
▁अहसास	-11923
▁खानों	-11924
▁पदनाम	-11925
▁भगवती	-11926
▁सरपंच	-11927
▁उपद्रव	-11928
▁डीलरों	-11929
▁स्वरुप	-11930
▁पत्रकार	-11931
▁लाभार्थियों	-11932
▁साम्राज्यवाद	-11933
तत्व	-11934
ब्बी	-11935
▁निम	-11936
▁लिस	-11937
खानों	-11938
▁डीएस	-11939
▁तरफ़	-11940
स्तरीय	-11941
▁कथाओं	-11942
▁डालें	-11943
▁अमृतसर	-11944
▁उदारता	-11945
▁रिसर्च	-11946
▁खुशहाली	-11947
▁मार्क्स	-11948
व्यवस्थित	-11949
▁उपेक्षित	-11950
▁लाभान्वित	-11951
▁अभ्यर्थियों	-11952
ढी	-11953
गिन	-11954
▁रची	-11955
▁सृज	-11956
▁Chro	-11957
▁सिंड	-11958
▁मैनेज	-11959
▁समतुल	-11960
▁हैंडल	-11961
त्साहित	-11962
▁अल्लाह	-11963
▁उन्नीस	-11964
▁फाइलों	-11965
▁रियासत	-11966
▁कार्रवा	-11967
▁अवस्थाओं	-11968
▁निर्यातक	-11969
फिक	-11970
स्स	-11971
ोपै	-11972
१वें	-11973
▁नक़	-11974
▁नेप	-11975
▁पीट	-11976
▁सक्	-11977
▁उपजा	-11978
▁टोकन	-11979
▁मुस्	-11980
▁कुष्ठ	-11981
▁जीवनी	-11982
▁पिल्ल	-11983
▁क्योकि	-11984
▁निकलना	-11985
▁फर्मों	-11986
▁फैलाने	-11987
▁मित्रा	-11988
▁निम्नतर	-11989
▁संस्थापन	-11990
▁ठेकेदारों	-11991
▁साधारणतया	-11992
ेनर	-11993
ैंट	-11994
मुझे	-11995
▁फ़र	-11996
▁राघ	-11997
निर्ण	-11998
▁अतुल	-11999
▁गोपी	-12000
▁मुर्	-12001
▁कट्टर	-12002
▁जरिये	-12003
▁पाउंड	-12004
▁मथुरा	-12005
▁हाजिर	-12006
▁संकेतक	-12007
▁फेफड़ों	-12008
▁मार्गों	-12009
▁राजनयिक	-12010
▁स्टार्ट	-12011
▁निष्पादक	-12012
ड्र	-12013
भवन	-12014
ेतन	-12015
ोली	-12016
▁ओज	-12017
▁फेश	-12018
▁मिड	-12019
▁सफ़	-12020
ेक्शन	-12021
▁उठते	-12022
▁कतार	-12023
▁गाइड	-12024
▁गाथा	-12025
▁ग्ला	-12026
▁सबका	-12027
▁भावों	-12028
▁सुनते	-12029
▁बढ़िया	-12030
▁संभाला	-12031
▁सांसार	-12032
▁पुत्रों	-12033
▁संन्यासी	-12034
▁खाद्यान्न	-12035
▁विज्ञापनों	-12036
एनओ	-12037
झान	-12038
कुलर	-12039
ोसिस	-12040
▁एमई	-12041
▁गाज	-12042
▁चाँ	-12043
▁पिर	-12044
▁बंस	-12045
▁भरण	-12046
▁अमूल	-12047
▁कशेर	-12048
▁मुंस	-12049
▁वीणा	-12050
र्ताओं	-12051
▁आलिया	-12052
▁एप्ली	-12053
▁पत्ते	-12054
▁मुवक्किल	-12055
▁ज्योतिर्मठ	-12056
▁औपचारिकताओं	-12057
▁प्रतिनिधिमंडल	-12058
▁हस्ताक्षरकर्ता	-12059
ट्ठी	-12060
नायक	-12061
▁दुब	-12062
▁बकर	-12063
▁लती	-12064
ॉलिटन	-12065
▁डीसी	-12066
▁निःश	-12067
▁कालाव	-12068
▁मित्त	-12069
▁वर्गा	-12070
▁स्टेज	-12071
▁अनुरुप	-12072
▁कॉन्फ़	-12073
▁बारीकी	-12074
▁मैनेजर	-12075
▁संज्ञा	-12076
▁त्यौहार	-12077
▁मैट्रिक	-12078
▁रिफाइनरी	-12079
▁कीटनाशकों	-12080
▁अनिश्चितता	-12081
कोण	-12082
ॉर्क	-12083
▁इंप	-12084
▁खेद	-12085
▁चीख	-12086
▁रवै	-12087
▁बसंत	-12088
▁माउंट	-12089
▁लुप्त	-12090
▁एमबीबीएस	-12091
▁द्विवेदी	-12092
▁निविदाओं	-12093
▁कट्टरपंथी	-12094
▁प्रक्रियाएं	-12095
▁बीर	-12096
बंधित	-12097
स्करी	-12098
▁एजीए	-12099
▁एमवी	-12100
▁क्षी	-12101
▁ज़ोन	-12102
ब्रेरी	-12103
▁द्वेष	-12104
▁सीखना	-12105
▁चीज़ों	-12106
▁फोल्डर	-12107
▁महासभा	-12108
▁राजपूत	-12109
▁प्राप्य	-12110
▁वर्षगांठ	-12111
▁विवेकानंद	-12112
▁क्रियान्वित	-12113
षी	-12114
सस	-12115
बाध	-12116
▁डै	-12117
▁नाख	-12118
▁क्रा	-12119
▁टीएस	-12120
▁बहती	-12121
▁महार	-12122
▁एनओसी	-12123
▁कोल्ह	-12124
▁भूगोल	-12125
▁वर्गम	-12126
▁गणितीय	-12127
▁स्कूली	-12128
▁पैदावार	-12129
▁क्रमादेश	-12130
▁प्रमाणों	-12131
▁सैद्धांतिक	-12132
षाण	-12133
्ये	-12134
▁खज	-12135
ात्य	-12136
▁गान	-12137
▁डिक	-12138
▁राग	-12139
▁वफा	-12140
▁कन्ह	-12141
▁हैंड	-12142
▁उपवास	-12143
▁नतीजे	-12144
▁नवजात	-12145
▁पित्त	-12146
▁विद्व	-12147
▁अवशिष्ट	-12148
▁जालसाजी	-12149
▁सुव्यवस्थित	-12150
यती	-12151
यास	-12152
ोही	-12153
▁नाच	-12154
▁मामल	-12155
▁किश्त	-12156
▁कोनों	-12157
▁चावला	-12158
▁जवाहर	-12159
▁जिनको	-12160
▁नगरों	-12161
▁बिलास	-12162
▁फर्स्ट	-12163
▁मेट्रो	-12164
▁विलम्ब	-12165
▁आच्छादित	-12166
▁अव्यवस्था	-12167
▁साफ्टवेयर	-12168
▁मेट्रोपॉलिटन	-12169
गिर	-12170
▁मय	-12171
ोल्ट	-12172
▁कैथ	-12173
▁बहू	-12174
▁लैब	-12175
कर्षण	-12176
त्विक	-12177
पृष्ठ	-12178
▁नायर	-12179
▁बॉडी	-12180
▁ग्रीष्म	-12181
▁दुकानें	-12182
▁साप्ताह	-12183
▁अभ्यर्थी	-12184
▁धर्मशाला	-12185
▁व्यक़्ति	-12186
▁सांसारिक	-12187
▁अनियमितताओं	-12188
ve	-12189
टित	-12190
पंथ	-12191
मोन	-12192
▁नोए	-12193
स्टोन	-12194
▁कुएं	-12195
▁छत्र	-12196
▁भीषण	-12197
▁यानि	-12198
▁रखनी	-12199
▁सोशल	-12200
▁घर्षण	-12201
▁डेबिट	-12202
▁बढावा	-12203
▁वायदा	-12204
▁संसद्	-12205
▁सेवार	-12206
▁कारीगर	-12207
▁उच्छेदन	-12208
▁तर्कहीन	-12209
▁रॉयल्टी	-12210
▁ऑपरेटिंग	-12211
▁घुमावदार	-12212
▁तत्संबंधी	-12213
▁प्रक्षेपण	-12214
▁न्यायपूर्ण	-12215
इंग	-12216
कूट	-12217
जनल	-12218
वेज	-12219
ोंक	-12220
तमंद	-12221
ेपित	-12222
▁खली	-12223
▁चाइ	-12224
▁पूल	-12225
▁राउ	-12226
▁लसी	-12227
ित्री	-12228
ियनों	-12229
▁इजाज	-12230
▁चेतन	-12231
▁मदुर	-12232
▁अमिता	-12233
▁राक्ष	-12234
▁लिस्ट	-12235
▁अधिमान	-12236
▁उल्लास	-12237
▁चेष्टा	-12238
निरपेक्ष	-12239
▁अवरुद्ध	-12240
▁गेंदबाज	-12241
▁निर्वास	-12242
▁स्ट्रीम	-12243
▁अभिलिखित	-12244
▁केन्द्री	-12245
▁पीढ़ियों	-12246
▁साप्ताहिक	-12247
▁प्रयोगशालाओं	-12248
ag	-12249
ob	-12250
चड़	-12251
▁कद	-12252
ुकता	-12253
▁छंट	-12254
▁जनन	-12255
पात्र	-12256
ोलनों	-12257
▁करोड	-12258
▁फ़ोन	-12259
▁कालीन	-12260
▁मियां	-12261
▁रहमान	-12262
▁विक्ष	-12263
▁शिफ्ट	-12264
▁स्थाय	-12265
▁असीमित	-12266
▁खुफिया	-12267
▁तत्समय	-12268
▁तस्करी	-12269
▁रिक्शा	-12270
▁श्रव्य	-12271
▁निर्बाध	-12272
▁अनुबंधित	-12273
▁आत्मघाती	-12274
▁वर्गाकार	-12275
सऋ	-12276
tin	-12277
महा	-12278
देड़	-12279
िपति	-12280
▁पिक	-12281
चर्या	-12282
ामीटर	-12283
▁दयाल	-12284
▁मधुम	-12285
▁उभरती	-12286
▁चढ़ाव	-12287
▁बनेगा	-12288
▁महाजन	-12289
▁रोबोट	-12290
▁लिखकर	-12291
▁हस्तश	-12292
र्तियों	-12293
▁जोड़ता	-12294
▁तीक्ष्	-12295
▁प्रकटन	-12296
▁प्रलेख	-12297
▁फेंकने	-12298
▁बहुलता	-12299
▁विधायक	-12300
▁कविताएं	-12301
▁वियतनाम	-12302
▁प्रबन्धन	-12303
▁विकिपीडिया	-12304
ोगा	-12305
ेंटल	-12306
▁एबी	-12307
▁फास	-12308
▁फोक	-12309
▁वरन	-12310
ल्कों	-12311
▁अन्र	-12312
▁कैंप	-12313
▁टिकी	-12314
▁पतला	-12315
▁यहूद	-12316
▁लाये	-12317
▁हमास	-12318
▁क्रोम	-12319
▁देखती	-12320
▁उकसाया	-12321
▁समामेल	-12322
▁साहसिक	-12323
▁वर्गमूल	-12324
▁ट्रैकिंग	-12325
▁संख्याओं	-12326
▁एप्लीकेशन	-12327
▁प्रोफ़ाइल	-12328
▁प्रोफार्मा	-12329
मस	-12330
मैं	-12331
ंसित	-12332
किया	-12333
▁ईआर	-12334
तावास	-12335
▁जमाव	-12336
▁देसी	-12337
▁जड़ें	-12338
▁नियति	-12339
▁ह्रास	-12340
▁मानसून	-12341
▁रामलिंग	-12342
▁रोज़गार	-12343
▁कम्प्यूट	-12344
ph	-12345
गौ	-12346
सक	-12347
माश	-12348
स्ड	-12349
डीआर	-12350
तदार	-12351
ीयों	-12352
▁जेन	-12353
▁धर्	-12354
सूचना	-12355
▁आरेख	-12356
▁मेजर	-12357
▁विशा	-12358
▁शीतल	-12359
ानियों	-12360
ेंडेंट	-12361
▁कंकाल	-12362
▁मिलें	-12363
▁मिलों	-12364
▁बर्बाद	-12365
▁इंग्लिश	-12366
▁किताबों	-12367
▁शिष्यों	-12368
▁उत्तराखंड	-12369
▁संवेदनशीलता	-12370
▁प्रत्यायोजित	-12371
सरी	-12372
एलटी	-12373
ावती	-12374
▁ईएम	-12375
▁निज	-12376
▁वरु	-12377
शासित	-12378
▁ऑर्स	-12379
▁घुड़	-12380
▁धनुष	-12381
▁यूके	-12382
▁वसंत	-12383
▁अनजान	-12384
▁अय्यर	-12385
▁इजाजत	-12386
▁छोड़ी	-12387
▁बहनोई	-12388
▁महोदय	-12389
ोनेशिया	-12390
▁दिवसीय	-12391
▁परिजनों	-12392
▁मैदानों	-12393
▁कहानियां	-12394
▁समारोहों	-12395
▁नामनिर्देश	-12396
▁मान्यताप्राप्त	-12397
मिल	-12398
▁इलै	-12399
▁एंथ	-12400
▁जलन	-12401
▁शां	-12402
ंबद्ध	-12403
▁अंदा	-12404
▁इसमे	-12405
▁फिनल	-12406
▁आवधिक	-12407
▁खरगोश	-12408
▁जार्ज	-12409
▁एक्सपी	-12410
▁संभवतया	-12411
▁राज्यसभा	-12412
▁अनुपयुक्त	-12413
१९	-12414
ate	-12415
रिश	-12416
▁शन	-12417
जीपी	-12418
वारा	-12419
▁चचे	-12420
▁फलक	-12421
▁बहि	-12422
िंग्स	-12423
▁क्रे	-12424
▁घुमा	-12425
▁चरित	-12426
▁अस्वा	-12427
▁गायों	-12428
▁पसन्द	-12429
▁जुड़ने	-12430
▁निपटाए	-12431
▁योद्धा	-12432
▁जातियां	-12433
▁फ़ाइलें	-12434
▁पाश्चात्य	-12435
▁प्रशिक्षु	-12436
समी	-12437
सरे	-12438
▁’’	-12439
खोरी	-12440
▁उषा	-12441
▁जुड	-12442
▁नज़	-12443
▁सला	-12444
भागीय	-12445
भाषित	-12446
▁काटा	-12447
▁तेजा	-12448
▁फकीर	-12449
▁मप्र	-12450
▁अधूरा	-12451
▁अभ्या	-12452
▁नोएडा	-12453
▁महिमा	-12454
▁एनेक्स	-12455
▁कुत्ते	-12456
▁पत्तों	-12457
▁परोक्ष	-12458
▁गलतफहमी	-12459
▁कोशिकाएं	-12460
▁कॉन्फ़िगर	-12461
▁टेक्नोलॉजी	-12462
▁आपूर्तिकर्ता	-12463
ईस	-12464
एफए	-12465
ोकर	-12466
ूंगी	-12467
▁खोद	-12468
▁रेग	-12469
गृहीत	-12470
फॉर्म	-12471
ुलेंस	-12472
▁अभूत	-12473
▁दराज	-12474
▁भूरे	-12475
▁मुसी	-12476
मास्टर	-12477
▁अंकगण	-12478
▁उठाता	-12479
▁परिणत	-12480
▁मैथुन	-12481
▁समयाव	-12482
▁एलपीजी	-12483
▁तुम्हे	-12484
▁एजेंटों	-12485
▁पीएमएलए	-12486
▁समनुदेश	-12487
▁परमात्मा	-12488
▁अध्यापकों	-12489
pp	-12490
प्पू	-12491
समूह	-12492
▁बेर	-12493
▁मसू	-12494
ंद्रा	-12495
त्तों	-12496
▁अंगी	-12497
▁कड़ा	-12498
▁चंदर	-12499
▁जीएस	-12500
▁बुजु	-12501
▁वक्ष	-12502
▁स्का	-12503
ान्तरण	-12504
▁जागरण	-12505
▁डालती	-12506
▁रेडिय	-12507
▁Chrome	-12508
▁एसोसिएट	-12509
▁सरोजिनी	-12510
▁झाड़ियों	-12511
▁कॉरपोरेशन	-12512
▁प्रायोगिक	-12513
▁संलिप्तता	-12514
▁सृजनात्मक	-12515
और	-12516
ॉयस	-12517
िएबल	-12518
▁अशु	-12519
▁उपच	-12520
▁औपन	-12521
▁पसी	-12522
▁यदु	-12523
▁उत्प	-12524
▁घाटे	-12525
▁चुनी	-12526
▁मच्छ	-12527
▁साम्	-12528
नारायण	-12529
▁आभासी	-12530
▁कानूनन	-12531
▁पारम्प	-12532
▁मुनाफा	-12533
▁मौलाना	-12534
▁अनुशंसा	-12535
▁अफ्रीकी	-12536
▁दोहराते	-12537
▁मलेरिया	-12538
▁सर्विसेज	-12539
▁स्टेटमेंट	-12540
▁उत्तरार्द्ध	-12541
तव	-12542
संक	-12543
▁खल	-12544
ंजलि	-12545
▁अपा	-12546
▁वगै	-12547
▁अंचल	-12548
▁आज़ा	-12549
▁उष्ण	-12550
▁एलसी	-12551
▁ज्यू	-12552
▁बेलग	-12553
▁लाकर	-12554
विद्या	-12555
▁अकेली	-12556
▁अपडेट	-12557
▁कराती	-12558
▁समरूप	-12559
▁एकाउंट	-12560
▁दिवंगत	-12561
▁सेवारत	-12562
▁प्रमोटर	-12563
▁अनुष्ठान	-12564
▁एवोल्यूशन	-12565
▁रिक्तियां	-12566
▁उम्मीदवारी	-12567
लिन	-12568
ेकर	-12569
▁ऋष	-12570
▁नृ	-12571
प्रो	-12572
▁धाग	-12573
▁नबी	-12574
▁हनी	-12575
्लेषण	-12576
▁एलडी	-12577
▁बेतु	-12578
▁वाइस	-12579
▁सुनाए	-12580
▁दिखाती	-12581
संख्यकों	-12582
▁ग्रेजुए	-12583
▁महादेवी	-12584
▁समतुल्य	-12585
▁साझीदार	-12586
▁उपाध्याय	-12587
▁बिलासपुर	-12588
▁यहूदियों	-12589
▁विजेताओं	-12590
▁धर्मनिरपेक्ष	-12591
हु	-12592
सना	-12593
िकों	-12594
▁भाल	-12595
फार्म	-12596
▁एड्स	-12597
▁घोड़	-12598
▁मल्ल	-12599
▁रेणु	-12600
▁अभिनव	-12601
▁कच्ची	-12602
▁खर्चा	-12603
▁जमारा	-12604
▁पैकेजिंग	-12605
▁फॉरेंसिक	-12606
▁विधेयकों	-12607
▁उपयुक्तता	-12608
▁प्रामाणिकता	-12609
फीक	-12610
गण्य	-12611
र्चे	-12612
स्की	-12613
▁एनई	-12614
ोध्या	-12615
▁टायर	-12616
▁युगल	-12617
▁श्या	-12618
▁उद्गम	-12619
▁करेंः	-12620
▁बागान	-12621
▁रियास	-12622
▁वायरस	-12623
▁जिम्मे	-12624
▁पर्याय	-12625
▁विराट्	-12626
▁कालावधि	-12627
▁रिश्तों	-12628
▁फैक्ट्री	-12629
▁इंजीनियरों	-12630
▁कम्युनिस्ट	-12631
▁राष्ट्रवादी	-12632
रां	-12633
शाक	-12634
ागार	-12635
▁हें	-12636
▁क्लॉ	-12637
▁दाएं	-12638
▁नामं	-12639
▁रीढ़	-12640
▁रोना	-12641
▁स्लम	-12642
क्ष्मी	-12643
▁कारित	-12644
▁भाँति	-12645
▁चिन्तन	-12646
▁चीज़ें	-12647
▁शिवाजी	-12648
▁शिशुओं	-12649
▁दुराचार	-12650
▁समयावधि	-12651
▁सूचनाएं	-12652
▁अंशकालिक	-12653
▁पार्किंग	-12654
▁पुरस्कृत	-12655
▁प्रवर्तक	-12656
ंधा	-12657
ुला	-12658
्तिक	-12659
▁कन्	-12660
▁गड्	-12661
▁पीर	-12662
▁क्रो	-12663
▁गायक	-12664
▁चुनि	-12665
▁विंग	-12666
ांक्षी	-12667
▁कथनों	-12668
▁त्रास	-12669
▁द्रुत	-12670
▁बेलार	-12671
▁मानकी	-12672
▁मुंडा	-12673
▁फिरौती	-12674
▁रिव्यू	-12675
▁अनुकूलन	-12676
▁बुजुर्ग	-12677
▁विधिज्ञ	-12678
▁सन्दर्भ	-12679
▁कार्यशील	-12680
▁निवेदिता	-12681
▁विश्लेषक	-12682
ia	-12683
काए	-12684
थिक	-12685
मेव	-12686
लीस	-12687
▁sa	-12688
प्शन	-12689
▁एलए	-12690
▁कटि	-12691
▁झाँ	-12692
▁पिच	-12693
▁बिछ	-12694
▁बृज	-12695
ेशिया	-12696
▁एनबी	-12697
▁खगोल	-12698
▁गुड़	-12699
▁द्रो	-12700
▁प्रज	-12701
▁बालू	-12702
▁बोना	-12703
▁व्हा	-12704
▁सचिन	-12705
▁नक्शे	-12706
▁पार्व	-12707
▁मुरली	-12708
▁लॉन्च	-12709
▁विलास	-12710
▁एकान्त	-12711
▁कृषकों	-12712
▁चैनलों	-12713
▁डिजीटल	-12714
▁पुरातन	-12715
▁समझदार	-12716
▁कन्हैया	-12717
▁श्लोकों	-12718
▁बस्तियों	-12719
▁अपार्टमेंट	-12720
धाम	-12721
ौना	-12722
्ती	-12723
चरित	-12724
▁असे	-12725
▁कटे	-12726
▁चलन	-12727
▁वाउ	-12728
न्दगी	-12729
▁आईपी	-12730
▁पाचन	-12731
▁भुला	-12732
▁जातीय	-12733
▁राजने	-12734
गोशिएबल	-12735
▁अदृश्य	-12736
▁कन्नड़	-12737
▁कृतज्ञ	-12738
▁सॉफ़्ट	-12739
प्रदायिक	-12740
▁अयोध्या	-12741
▁परवर्ती	-12742
▁मेहरअली	-12743
▁सिद्धार	-12744
▁साम्राज़	-12745
▁प्रत्याशा	-12746
▁संयंत्रों	-12747
▁उत्तरवर्ती	-12748
▁विश्वयुद्ध	-12749
em	-12750
तेह	-12751
बनी	-12752
▁एर	-12753
व्रत	-12754
▁काठ	-12755
▁चैक	-12756
▁ढोल	-12757
▁मूक	-12758
्रियल	-12759
▁एजें	-12760
▁गुरब	-12761
▁टकरा	-12762
▁ट्रॉ	-12763
▁सेतु	-12764
ायद्वी	-12765
▁इन्टर	-12766
▁कुप्र	-12767
▁कैमरा	-12768
▁जेम्स	-12769
▁पर्ची	-12770
▁मध्या	-12771
▁स्क्री	-12772
▁दिखाएगा	-12773
▁वैचारिक	-12774
▁ट्रांसफ़	-12775
▁म्यूटेशन	-12776
▁सक्रियता	-12777
▁अंतर्विरोध	-12778
क्ख	-12779
ंजना	-12780
शियम	-12781
्यूप	-12782
▁आरओ	-12783
▁एकक	-12784
▁कौश	-12785
▁जेर	-12786
्यूलर	-12787
▁चिट्	-12788
▁पाकर	-12789
▁खोलना	-12790
▁गिर्द	-12791
▁बदलकर	-12792
▁रेस्त	-12793
▁शालीन	-12794
▁समाधि	-12795
▁डेल्टा	-12796
▁वीआरएस	-12797
▁परिषदों	-12798
▁प्रयोगों	-12799
▁असिस्टेंट	-12800
▁प्रायद्वी	-12801
▁शल्यक्रिया	-12802
भन	-12803
्टू	-12804
▁लव	-12805
फाइड	-12806
▁अँग	-12807
▁चाप	-12808
▁दूत	-12809
शियों	-12810
िलोकन	-12811
▁धमनी	-12812
▁बरती	-12813
▁मेरठ	-12814
▁हाथा	-12815
इंडिंग	-12816
प्रसाद	-12817
▁दूंगा	-12818
▁पोषित	-12819
▁सुझाए	-12820
▁अधिकरणों	-12821
▁उद्यमिता	-12822
▁बहिष्करण	-12823
▁कॉन्ट्रैक्ट	-12824
▁पूर्वानुमान	-12825
कुम	-12826
▁झर	-12827
▁पेड	-12828
▁फीड	-12829
▁बिक	-12830
▁रमन	-12831
▁शेल	-12832
र्वाद	-12833
▁उंगल	-12834
▁दांव	-12835
▁पर्ण	-12836
▁मर्म	-12837
▁मीरा	-12838
यात्रा	-12839
▁कवरेज	-12840
▁जर्नल	-12841
▁निकास	-12842
▁पढ़कर	-12843
▁मदुरै	-12844
▁सविता	-12845
▁अलमस्त	-12846
▁जबलपुर	-12847
▁वैल्यू	-12848
▁सर्किल	-12849
▁सिद्धि	-12850
▁खूबसूरत	-12851
▁फ़ाइलों	-12852
▁राममोहन	-12853
▁स्पेक्ट	-12854
▁अनुशंसित	-12855
▁प्रशासित	-12856
▁यात्राओं	-12857
▁छात्रावास	-12858
▁इच्छाशक्ति	-12859
▁कंट्राबेंड	-12860
▁दुर्भाग्यवश	-12861
▁वृद्धावस्था	-12862
ऑफ	-12863
सला	-12864
िट्	-12865
स्मा	-12866
▁काव	-12867
▁जुग	-12868
▁जोश	-12869
▁सीओ	-12870
वलोकन	-12871
▁कॉमन	-12872
▁ड्रा	-12873
▁गिरीश	-12874
▁ज्वार	-12875
▁दसवीं	-12876
▁दूषित	-12877
▁पहनने	-12878
▁मारना	-12879
▁सन्नि	-12880
▁परिवाद	-12881
▁रसीदें	-12882
▁इच्छाओं	-12883
▁गोलियां	-12884
▁नानालाल	-12885
▁बेहतरीन	-12886
▁प्राचार्य	-12887
▁सम्प्रदाय	-12888
▁सिद्धार्थ	-12889
▁त्रुटिपूर्ण	-12890
चेतन	-12891
ब्बत	-12892
यनों	-12893
सराय	-12894
स्टन	-12895
ुप्त	-12896
▁जीभ	-12897
▁शकु	-12898
▁शोथ	-12899
▁उमेश	-12900
▁कांट	-12901
▁गौरी	-12902
▁छपाई	-12903
▁जेएन	-12904
▁फ्रै	-12905
▁सूअर	-12906
▁होली	-12907
ास्ट्र	-12908
▁ज्यों	-12909
▁निपुण	-12910
▁मार्ट	-12911
▁फेफड़े	-12912
▁संगणित	-12913
▁सिद्धदोष	-12914
▁क्रियाशील	-12915
▁वार्तालाप	-12916
▁लोकप्रियता	-12917
हट	-12918
कोड	-12919
फिट	-12920
शरण	-12921
कारक	-12922
ान्स	-12923
ुलिप	-12924
▁अपव	-12925
▁केन	-12926
▁अजीत	-12927
▁आदिम	-12928
▁नासा	-12929
सम्मति	-12930
▁कर्मी	-12931
▁शरारत	-12932
▁सब्जी	-12933
▁सुस्प	-12934
▁हुर्इ	-12935
▁कैपिटल	-12936
▁भाषणों	-12937
▁मुंसिफ	-12938
▁युसुफ़	-12939
▁सुचारू	-12940
▁आमंत्रण	-12941
▁एचएलईसी	-12942
▁मतभेदों	-12943
▁सराहनीय	-12944
▁उर्वरकों	-12945
▁अभूतपूर्व	-12946
▁तत्पश्चात्	-12947
▁मार्केटिंग	-12948
▁पिघ	-12949
ान्ति	-12950
▁आप्र	-12951
▁देवे	-12952
▁मुक़	-12953
▁सरमा	-12954
▁अंकुर	-12955
▁अड्डा	-12956
▁एकत्व	-12957
▁चलाते	-12958
▁बंदोब	-12959
▁भागते	-12960
▁बढ़ेगा	-12961
▁मन्त्र	-12962
▁अमेरिकन	-12963
▁आत्मसात	-12964
▁दूतावास	-12965
▁वामपंथी	-12966
▁सावित्री	-12967
▁फ्रांसीसी	-12968
▁बहुसंख्यक	-12969
०ग	-12970
सिस	-12971
ौड़	-12972
▁बोत	-12973
▁मोक	-12974
▁शिर	-12975
▁हिच	-12976
▁इर्द	-12977
▁केएस	-12978
▁नंदा	-12979
▁महंत	-12980
▁साधक	-12981
▁पारसी	-12982
▁योगेश	-12983
▁विखंड	-12984
▁स्क्व	-12985
▁अद्वैत	-12986
▁दर्शित	-12987
▁पिताजी	-12988
▁फिटनेस	-12989
▁भवभूति	-12990
▁मेघालय	-12991
▁फिनलैंड	-12992
▁परमेश्वर	-12993
▁व्यवहार्यता	-12994
th	-12995
ीयर	-12996
कांड	-12997
टीएस	-12998
▁एआर	-12999
▁फेल	-13000
▁यंग	-13001
▁सता	-13002
▁हृद	-13003
नीकरण	-13004
िचेरी	-13005
ेलनों	-13006
▁एओआर	-13007
▁कमोड	-13008
▁यकृत	-13009
▁रोमन	-13010
▁स्वत	-13011
▁्याय	-13012
क्षरों	-13013
िक्षित	-13014
▁घनत्व	-13015
▁नलिका	-13016
▁फोटोक	-13017
▁मिल्स	-13018
▁मौर्य	-13019
▁साढ़े	-13020
ानात्मक	-13021
▁आरबीआई	-13022
▁एमएलसी	-13023
▁गुर्दे	-13024
▁दुश्मन	-13025
▁लेक्चर	-13026
▁अस्वस्थ	-13027
▁चंद्रमा	-13028
▁परक्राम	-13029
▁प्राणिक	-13030
फ्रास्ट्र	-13031
▁अनुकरणीय	-13032
▁त्यागपत्र	-13033
▁रिटर्निंग	-13034
▁दीर्घकालीन	-13035
▁स्वायत्तता	-13036
▁अल्पसंख्यकों	-13037
यह	-13038
▁सँ	-13039
▁शरद	-13040
ोत्तर	-13041
▁अंकन	-13042
▁कम्ब	-13043
▁गांठ	-13044
▁वेंक	-13045
क्षमता	-13046
▁अयस्क	-13047
▁कस्टम	-13048
▁गलिया	-13049
▁चिंटू	-13050
▁ढूंढ़	-13051
▁परिशि	-13052
▁लॉगिन	-13053
▁अधिभोग	-13054
▁डेवलपर	-13055
▁निभाता	-13056
▁वर्तनी	-13057
कर्मियों	-13058
▁औपनिवेश	-13059
▁मिलेंगे	-13060
▁बेरोजगार	-13061
▁संप्रतीक	-13062
मह	-13063
्सी	-13064
▁con	-13065
▁कंब	-13066
▁कुद	-13067
▁बेव	-13068
▁बैर	-13069
▁रोह	-13070
मेन्ट	-13071
र्जित	-13072
ीलैंड	-13073
▁आर्क	-13074
▁इन्स	-13075
▁कुंड	-13076
▁विदा	-13077
स्वरुप	-13078
▁ओबीसी	-13079
▁चलाता	-13080
▁डाकघर	-13081
▁नित्य	-13082
▁नोट्स	-13083
▁रद्दी	-13084
▁रूढ़ि	-13085
▁विक्ट	-13086
▁वृक्क	-13087
▁इन्कार	-13088
▁उत्तरः	-13089
▁छुपाया	-13090
▁न्यासी	-13091
▁पड़ताल	-13092
▁मारुति	-13093
▁राज्या	-13094
▁शपथपत्र	-13095
▁हाइड्रो	-13096
▁कार्यकार	-13097
▁प्रतिमान	-13098
▁इस्लामवादियों	-13099
▁न्यायाधिकरणों	-13100
ुना	-13101
▁घी	-13102
▁शू	-13103
वाहक	-13104
▁घने	-13105
▁तान	-13106
▁बुन	-13107
▁शरा	-13108
▁सहस	-13109
▁सैर	-13110
तमाला	-13111
ेरिया	-13112
▁उपगत	-13113
▁चतुर	-13114
▁जांघ	-13115
▁डीजल	-13116
▁प्ली	-13117
▁भृंग	-13118
▁पार्थ	-13119
▁फुफ्फ	-13120
▁व्हिप	-13121
▁इलेक्ट	-13122
▁तात्या	-13123
▁पुनर्ज	-13124
▁बालिका	-13125
▁यूनिको	-13126
▁अध्यापन	-13127
▁पार्टनर	-13128
▁फेडरेशन	-13129
▁बढ़ोतरी	-13130
▁लेखांकन	-13131
▁मुद्रास्फीति	-13132
ंझ	-13133
रोन	-13134
दण्ड	-13135
▁आति	-13136
▁डिस	-13137
▁मकर	-13138
ेंबली	-13139
्रेसी	-13140
▁एसबी	-13141
▁केके	-13142
▁घबरा	-13143
▁तारे	-13144
▁अंडों	-13145
▁पप्पू	-13146
▁रवैये	-13147
▁रूल्स	-13148
▁सचेतन	-13149
▁सुगंध	-13150
▁अहंकार	-13151
▁आरोग्य	-13152
▁पुजारी	-13153
▁पुनर्न	-13154
▁विवेचन	-13155
▁आभूषणों	-13156
▁हाथापाई	-13157
▁अनुज्ञेय	-13158
▁आधारशिला	-13159
ऊं	-13160
भुज	-13161
भ्र	-13162
मणि	-13163
षेध	-13164
िनि	-13165
ोपण	-13166
ौरी	-13167
▁टच	-13168
एलआर	-13169
०में	-13170
▁एसओ	-13171
▁कोठ	-13172
▁कोत	-13173
▁वात	-13174
आधारी	-13175
वाहित	-13176
▁उठती	-13177
▁कैसी	-13178
▁झुका	-13179
▁बाली	-13180
▁एटीएम	-13181
▁पड़ना	-13182
▁रिफंड	-13183
▁वार्म	-13184
▁अपनाते	-13185
▁एक्सेस	-13186
▁डिमांड	-13187
▁मित्तल	-13188
▁मेजबान	-13189
▁अधिकथित	-13190
▁पार्वती	-13191
▁संदेशों	-13192
▁ग्लोरिया	-13193
▁निगोशिएबल	-13194
▁हस्तशिल्प	-13195
tt	-13196
गना	-13197
घ्न	-13198
फेस	-13199
ुली	-13200
▁ऋस	-13201
▁ढु	-13202
स्वा	-13203
▁फाल	-13204
▁बची	-13205
▁एलजे	-13206
▁पीला	-13207
▁प्रह	-13208
▁माथे	-13209
्वेस्ट	-13210
▁अंगुल	-13211
▁उत्खन	-13212
▁तामील	-13213
▁रणजीत	-13214
▁आयोजना	-13215
▁कीमतें	-13216
▁महादेव	-13217
▁यदुनाथ	-13218
▁मछलियों	-13219
▁मातृभूमि	-13220
▁सम्मेलनों	-13221
़्	-13222
ंपल	-13223
कथा	-13224
ष्ठी	-13225
सवाल	-13226
िप्स	-13227
▁टॉम	-13228
▁मर्	-13229
▁रिच	-13230
▁शॉप	-13231
▁हाव	-13232
विंदर	-13233
▁अनुष	-13234
▁कस्त	-13235
▁खाती	-13236
▁पारी	-13237
▁शिला	-13238
▁साझे	-13239
▁सीजे	-13240
▁आएंगे	-13241
▁कमरों	-13242
▁ग्रेट	-13243
▁त्रिव	-13244
▁मोक्ष	-13245
▁श्रेण	-13246
▁हरिजन	-13247
▁अधिनयम	-13248
▁नाइट्र	-13249
▁पागलपन	-13250
▁फिल्टर	-13251
▁सूर्या	-13252
▁अंबेडकर	-13253
▁क्रीड़ा	-13254
▁नजरबंदी	-13255
▁नामंजूर	-13256
▁डिस्ट्रिक	-13257
ोव	-13258
टिन	-13259
ताप	-13260
धीय	-13261
काशी	-13262
रपुर	-13263
▁एनी	-13264
▁बेग	-13265
▁सहे	-13266
▁साय	-13267
कार्ड	-13268
पुत्र	-13269
स्कों	-13270
ापत्र	-13271
▁इन्फ	-13272
▁छापा	-13273
▁छूने	-13274
▁जनमत	-13275
कात्मक	-13276
सात्मक	-13277
▁पॉइंट	-13278
▁स्थाप	-13279
▁कुटुंब	-13280
▁सीलबंद	-13281
▁सुझाया	-13282
▁विशेषतः	-13283
▁उपनियमों	-13284
▁कर्त्तव्य	-13285
▁पर्वतमाला	-13286
▁कंस्ट्रक्शन	-13287
▁पुनर्विलोकन	-13288
▁प्रवृत्तियों	-13289
ज़्	-13290
फाय	-13291
िले	-13292
ेषण	-13293
ंगनी	-13294
ालतू	-13295
ेंदर	-13296
▁कैट	-13297
▁दाब	-13298
न्नों	-13299
ियाना	-13300
ोत्तम	-13301
▁कमान	-13302
▁नक़ल	-13303
▁फरसा	-13304
▁रिंग	-13305
▁रीडर	-13306
▁वरुण	-13307
▁शाला	-13308
▁अनीता	-13309
▁आसमान	-13310
▁बिगड़	-13311
▁लसीका	-13312
▁वंशान	-13313
▁जोड़ों	-13314
▁नालंदा	-13315
▁मन्दिर	-13316
▁क्लाइंट	-13317
▁चुनिंदा	-13318
▁जवाबदेह	-13319
▁शॉर्टकट	-13320
▁आंदोलनों	-13321
▁प्रदूषित	-13322
▁एग्रीमेंट	-13323
▁निश्चितता	-13324
▁दुर्घटनाओं	-13325
▁प्रतिभागियों	-13326
इटिस	-13327
िएटर	-13328
▁उखा	-13329
▁टां	-13330
▁तले	-13331
▁सिं	-13332
ोरियम	-13333
▁पेटी	-13334
▁बारा	-13335
▁वॉयस	-13336
▁सूखी	-13337
▁कमलेश	-13338
▁गुच्छ	-13339
▁डीटीए	-13340
▁नब्बे	-13341
▁सेल्स	-13342
▁कंटेनर	-13343
▁करवाना	-13344
▁नर्सरी	-13345
▁पहचाने	-13346
▁बिजनेस	-13347
▁स्याही	-13348
शास्त्री	-13349
▁क्लिनिक	-13350
▁वंशानुगत	-13351
▁वार्षिकी	-13352
▁शिष्टमंडल	-13353
▁सेंटीमीटर	-13354
▁बुद्धिमत्ता	-13355
▁राष्ट्रमंडल	-13356
फ्रास्ट्रक्चर	-13357
▁प्रतिक्रियाओं	-13358
ist	-13359
इटर	-13360
िंक	-13361
पत्त	-13362
▁भजन	-13363
▁मोज	-13364
▁लटक	-13365
▁हतो	-13366
खेड़ा	-13367
िकाने	-13368
▁आवेश	-13369
▁छिपे	-13370
▁जीते	-13371
▁पडता	-13372
▁पार्ष	-13373
▁सॉल्व	-13374
▁जाएँगे	-13375
▁बेलगाम	-13376
▁मुन्ना	-13377
▁ड्राइंग	-13378
▁यूनिटों	-13379
▁आश्रितों	-13380
▁कारखानों	-13381
▁बैंककारी	-13382
▁सर्वांगी	-13383
▁एक्सट्रीम	-13384
▁पारम्परिक	-13385
▁पत्रकारिता	-13386
▁स्क्रीनिंग	-13387
▁व्याख्याताओं	-13388
ओवर	-13389
जरी	-13390
जिक	-13391
वुड	-13392
सन्	-13393
ानक	-13394
ापक	-13395
▁लघ	-13396
पाही	-13397
ॉजिट	-13398
▁ईडी	-13399
▁ऑर्	-13400
▁डैक	-13401
▁दोग	-13402
▁महम	-13403
▁रमण	-13404
पट्टी	-13405
ियाला	-13406
▁एनएस	-13407
▁जोकि	-13408
▁धीमा	-13409
▁पौंड	-13410
▁मजाक	-13411
▁मण्ड	-13412
▁मस्त	-13413
▁रचित	-13414
▁लड़क	-13415
▁सोया	-13416
ष्ट्री	-13417
▁चाहने	-13418
▁दुष्ट	-13419
▁बेजबर	-13420
▁विफलः	-13421
▁सीतार	-13422
▁स्टेड	-13423
▁एसएलपी	-13424
▁फ़ारसी	-13425
▁औषधियों	-13426
▁कार्टून	-13427
▁स्टैम्प	-13428
▁त्रिवेदी	-13429
▁प्रताड़ित	-13430
▁सॉफ़्टवेयर	-13431
▁डिस्ट्रिक्ट	-13432
थ्य	-13433
शान	-13434
भाजन	-13435
▁थॉम	-13436
▁मॉन	-13437
▁लेब	-13438
ख्यान	-13439
▁अफसर	-13440
▁चपरा	-13441
▁बंसल	-13442
▁बर्न	-13443
▁बगीचे	-13444
▁बर्बर	-13445
▁बर्मा	-13446
▁बुलेट	-13447
▁स्केच	-13448
▁पिछड़ा	-13449
▁प्रीति	-13450
▁बुकिंग	-13451
विज्ञानी	-13452
▁अराजकता	-13453
▁पुरोहित	-13454
▁रक्तचाप	-13455
▁कार्यकरण	-13456
▁निष्कासित	-13457
▁प्रकाशनों	-13458
ri	-13459
णक	-13460
सै	-13461
तिर	-13462
नाद	-13463
सोस	-13464
▁मट	-13465
ल्लम	-13466
ावान	-13467
▁बेड	-13468
▁मरु	-13469
▁मुय	-13470
▁सटे	-13471
द्दाम	-13472
फील्ड	-13473
लीकृत	-13474
▁काबू	-13475
▁कुसु	-13476
▁जूरी	-13477
▁पीना	-13478
▁बार्	-13479
▁मद्य	-13480
▁घटाने	-13481
▁दर्पण	-13482
▁प्राग	-13483
▁बढ़ाई	-13484
▁भाजपा	-13485
▁हटाकर	-13486
राष्ट्र	-13487
▁अनुराग	-13488
▁गार्डन	-13489
▁पूर्वज	-13490
▁सर्कुलर	-13491
▁अस्पृश्य	-13492
▁प्रकोष्ठ	-13493
▁फोटोकॉपी	-13494
▁द्विआधारी	-13495
▁अभियांत्रिक	-13496
खले	-13497
शेद	-13498
ोहन	-13499
▁ईओ	-13500
▁ओएम	-13501
▁चैर	-13502
▁पुत	-13503
▁यूट	-13504
▁रहस	-13505
िक्षा	-13506
▁एलएल	-13507
▁एसएन	-13508
▁कणों	-13509
▁टोपी	-13510
▁दोहन	-13511
▁पीयू	-13512
▁बतला	-13513
▁विकट	-13514
▁विभू	-13515
▁सुधा	-13516
▁नैदान	-13517
▁पेशाब	-13518
▁सुनना	-13519
▁अनिच्छ	-13520
▁उत्तरो	-13521
▁रीडिंग	-13522
▁सोमनाथ	-13523
▁फार्मास	-13524
▁सर्वत्र	-13525
▁जरूरतमंद	-13526
▁स्थितियां	-13527
▁पर्याप्तता	-13528
▁सर्वसम्मति	-13529
▁संस्कृतियों	-13530
ूफ	-13531
मनी	-13532
रीज	-13533
ोरो	-13534
▁ऐल	-13535
दानु	-13536
ाप्य	-13537
ोलिक	-13538
ौकिक	-13539
▁खाट	-13540
▁्या	-13541
गुप्त	-13542
देश्य	-13543
▁तिरू	-13544
▁पिंज	-13545
▁मैके	-13546
▁रियल	-13547
▁संकर	-13548
▁स्ला	-13549
च्छन्न	-13550
▁छुट्ट	-13551
▁जमशेद	-13552
▁तेज़ी	-13553
▁लगाती	-13554
▁एसबीआई	-13555
▁निशाना	-13556
▁पुख्ता	-13557
▁बर्ताव	-13558
▁सिखाया	-13559
▁असंगतता	-13560
▁पहुंचते	-13561
▁पोतन्ना	-13562
▁बताएंगे	-13563
▁बेलारूस	-13564
▁प्रदर्शक	-13565
▁स्वराज्य	-13566
▁ट्रस्टियों	-13567
▁साम्प्रदायिक	-13568
ज्ह	-13569
बिक	-13570
िकट	-13571
कर्ण	-13572
श्मी	-13573
ुराम	-13574
ृष्ट	-13575
ेंडम	-13576
▁आलू	-13577
▁केक	-13578
▁गैल	-13579
▁गोबर	-13580
▁डेमो	-13581
▁थर्म	-13582
▁परोप	-13583
▁फायद	-13584
▁यूसु	-13585
▁लड़ी	-13586
क्षत्र	-13587
▁तकलीफ	-13588
▁सिडबी	-13589
▁होम्य	-13590
▁अन्तरा	-13591
▁चपरासी	-13592
▁चाहिएं	-13593
▁चुनावी	-13594
▁लेटर्स	-13595
▁हालिया	-13596
▁निवृत्त	-13597
▁परिसीमन	-13598
▁फायरिंग	-13599
▁आशीर्वाद	-13600
▁वार्मिंग	-13601
▁संग्रहीत	-13602
▁औपनिवेशिक	-13603
▁सांख्यिकीय	-13604
▁प्रतीकात्मक	-13605
▁प्रौद्योगिकीय	-13606
२०	-13607
चुअल	-13608
पालन	-13609
हरित	-13610
▁लां	-13611
क्कड़	-13612
त्नों	-13613
▁घोषण	-13614
▁दफ्त	-13615
▁निंद	-13616
▁बंजर	-13617
▁मुखर	-13618
▁वायर	-13619
▁वासु	-13620
ियाबाद	-13621
▁उभरते	-13622
▁उल्टा	-13623
▁कीड़े	-13624
▁चैत्य	-13625
▁फसलें	-13626
▁बताये	-13627
▁मौसमी	-13628
▁वाउचर	-13629
▁अप्रिय	-13630
▁ऋणदाता	-13631
▁कहेंगे	-13632
▁क्लॉज़	-13633
▁विरचित	-13634
▁सामरिक	-13635
▁खूबियों	-13636
▁फाइनेंस	-13637
▁अत्याधिक	-13638
▁निविदाएं	-13639
▁संप्रेषित	-13640
▁कार्यकारिणी	-13641
▁पदाधिकारियों	-13642
िआ	-13643
बूत	-13644
ासु	-13645
▁बँ	-13646
बिंद	-13647
रेली	-13648
▁कैव	-13649
▁बसु	-13650
▁शॉट	-13651
▁सबक	-13652
यॉर्क	-13653
ुपालन	-13654
▁कंपा	-13655
▁तंतु	-13656
▁धोने	-13657
▁फैशन	-13658
▁बनें	-13659
▁ब्यो	-13660
▁लिहा	-13661
▁वाचा	-13662
▁सींग	-13663
▁जानकी	-13664
पेक्षित	-13665
ोग्राफी	-13666
▁किस्तों	-13667
▁सक्सेना	-13668
▁ऑब्जेक्ट	-13669
▁दिवालिया	-13670
▁आपातकालीन	-13671
▁परम्परागत	-13672
षऋ	-13673
खला	-13674
जनी	-13675
नें	-13676
रिस	-13677
ायु	-13678
▁St	-13679
ग्ने	-13680
्तान	-13681
▁घिन	-13682
▁जोध	-13683
▁ठिक	-13684
▁बिम	-13685
धिपति	-13686
बाज़ी	-13687
विष्ट	-13688
▁चादर	-13689
▁चोटी	-13690
▁रोपण	-13691
▁विला	-13692
▁हावी	-13693
▁डेंटल	-13694
▁हज़ार	-13695
ापूर्वक	-13696
▁छिपाने	-13697
▁जानकार	-13698
▁पुष्पा	-13699
▁रविवार	-13700
▁सिक्के	-13701
▁सिपाही	-13702
▁प्रभाकर	-13703
▁समावेशन	-13704
▁उदारीकरण	-13705
▁परिचर्चा	-13706
▁पैरामीटर	-13707
▁अनिवार्यता	-13708
▁गतिविधियाँ	-13709
▁महानिरीक्षक	-13710
ज़ोर	-13711
मोचन	-13712
ल्हे	-13713
▁लाश	-13714
▁सल्	-13715
▁हंग	-13716
सत्ता	-13717
▁दाने	-13718
▁फतेह	-13719
▁रंगा	-13720
▁सम्य	-13721
▁हटकर	-13722
▁आबद्ध	-13723
▁दुहरा	-13724
▁नाकाम	-13725
▁पलायन	-13726
▁प्रसू	-13727
▁फैक्स	-13728
▁सस्ता	-13729
▁हवाले	-13730
कर्त्ता	-13731
▁अन्वेष	-13732
▁इकट्ठे	-13733
▁कुलदीप	-13734
▁नैदानिक	-13735
▁युग्मित	-13736
▁मवेशियों	-13737
▁रियासतों	-13738
ial	-13739
युग	-13740
ल्म	-13741
गंगा	-13742
जिये	-13743
▁बढे	-13744
▁मुल	-13745
▁अतिर	-13746
▁उपकर	-13747
▁ढूँढ	-13748
▁पारा	-13749
▁पावन	-13750
▁बुढ़	-13751
▁भरती	-13752
▁लगना	-13753
▁वैभव	-13754
▁सलाम	-13755
जीरिया	-13756
▁अक्षय	-13757
▁कहावत	-13758
▁काबुल	-13759
▁जोसेफ	-13760
▁डिटेन	-13761
▁राउंड	-13762
▁ठिकाने	-13763
▁फेशियल	-13764
▁मुट्ठी	-13765
▁वृत्ता	-13766
▁संकुचन	-13767
▁चलचित्र	-13768
▁रणनीतिक	-13769
▁रियायती	-13770
▁व्यंग्य	-13771
▁एफटीआईएल	-13772
▁रेस्तरां	-13773
▁संदर्भों	-13774
▁गारंटीकृत	-13775
▁चुनौतियां	-13776
▁प्रतिबन्ध	-13777
▁व्यवसायों	-13778
▁लाइसेंसिंग	-13779
▁स्वतन्त्रता	-13780
ene	-13781
tic	-13782
फिल	-13783
कृमि	-13784
यनगर	-13785
▁काँ	-13786
▁ठंड	-13787
स्वाम	-13788
▁एलआर	-13789
▁कांत	-13790
▁काया	-13791
▁डीजी	-13792
▁पीजी	-13793
▁ब्लू	-13794
▁मोहर	-13795
▁साँस	-13796
ज्ञासा	-13797
▁उठाये	-13798
▁बनावट	-13799
▁बलवंत	-13800
▁बैकअप	-13801
▁माइनस	-13802
▁सस्ती	-13803
▁अधिप्र	-13804
▁चुकौती	-13805
▁पकड़ना	-13806
▁महंगाई	-13807
▁मिटाने	-13808
▁सद्दाम	-13809
▁अनुग्रह	-13810
▁अन्यत्र	-13811
▁अमानवीय	-13812
▁अशक्तता	-13813
▁जनशक्ति	-13814
▁अभिकर्ता	-13815
▁सुस्पष्ट	-13816
▁अतिरिक़्त	-13817
▁विधिमान्य	-13818
▁अधिसूचनाओं	-13819
▁प्राप्तियों	-13820
ँघ	-13821
अन	-13822
ञ्	-13823
भान	-13824
न्थि	-13825
भाष्	-13826
▁डाई	-13827
▁डिम	-13828
▁नस्	-13829
▁ईर्ष	-13830
▁उभरे	-13831
▁खोजे	-13832
▁दाईं	-13833
▁दामा	-13834
▁ब्रज	-13835
▁अनपढ़	-13836
▁क्षीण	-13837
▁ज़मान	-13838
▁डब्लू	-13839
▁अस्थाई	-13840
▁आकृष्ट	-13841
▁कप्तान	-13842
▁चिड़िया	-13843
▁ज्योतिष	-13844
▁निर्वचन	-13845
▁लापरवाह	-13846
▁इलैक्ट्र	-13847
▁स्टेडियम	-13848
▁कम्पनियों	-13849
▁न्यूयॉर्क	-13850
▁विषयवस्तु	-13851
▁सर्वांगीण	-13852
▁निर्यातकों	-13853
ौज	-13854
आया	-13855
हेज	-13856
ोनी	-13857
▁ऊन	-13858
▁ठा	-13859
दानी	-13860
पुष्	-13861
प्पल	-13862
▁अपद	-13863
▁मिर	-13864
▁सरी	-13865
▁पितृ	-13866
▁पुरः	-13867
ियोजित	-13868
▁घोड़ा	-13869
▁पोशाक	-13870
▁फरमान	-13871
▁मर्जी	-13872
▁कामयाब	-13873
▁कार्बो	-13874
▁ज़रुरत	-13875
▁निरूपण	-13876
▁अंगीकार	-13877
▁निधियां	-13878
▁वृंदावन	-13879
▁जिज्ञासा	-13880
▁नाममात्र	-13881
▁अल्पकालिक	-13882
▁विद्यासागर	-13883
op	-13884
कस	-13885
ामस	-13886
ौनी	-13887
्पल	-13888
पट्ट	-13889
योगी	-13890
्रमा	-13891
▁अणु	-13892
▁ईसी	-13893
▁दुम	-13894
▁नीम	-13895
▁युव	-13896
▁रजत	-13897
रियों	-13898
▁कोरम	-13899
▁हर्ज	-13900
ग्राही	-13901
▁टेम्प	-13902
▁पाषाण	-13903
▁पूछना	-13904
▁बुलाए	-13905
▁रोमां	-13906
▁शुक्ल	-13907
▁सपनों	-13908
▁हुक्म	-13909
▁घुटनों	-13910
▁डीआरटी	-13911
▁डीपीसी	-13912
▁नवीनता	-13913
चिकित्सा	-13914
▁गोरखपुर	-13915
▁निकालकर	-13916
▁मोहल्ला	-13917
▁विपक्षी	-13918
▁संकुचित	-13919
▁सियाराम	-13920
▁अप्रभावी	-13921
▁तत्त्वों	-13922
▁प्रतिषेध	-13923
▁बलपूर्वक	-13924
▁विस्फोटक	-13925
▁सम्पादित	-13926
▁नर्मदाशंकर	-13927
▁इंस्ट्रूमेंट्स	-13928
छी	-13929
झक	-13930
शै	-13931
ोथ	-13932
ूमत	-13933
ेला	-13934
ौने	-13935
▁हज	-13936
र्मन	-13937
्राण	-13938
▁भाप	-13939
इजेशन	-13940
▁औरंग	-13941
▁कुचल	-13942
▁चाची	-13943
▁झुंड	-13944
▁धड़क	-13945
▁बंडल	-13946
▁रजनी	-13947
▁जांचा	-13948
▁रुग्ण	-13949
▁संचलन	-13950
▁सत्रह	-13951
▁हजारी	-13952
▁हल्की	-13953
पाध्याय	-13954
▁अमिताभ	-13955
▁मोर्चे	-13956
▁हरिश्च	-13957
▁चौकीदार	-13958
▁मातृत्व	-13959
▁आवंटियों	-13960
▁गतिशीलता	-13961
डीह	-13962
ोदर	-13963
▁कफ	-13964
द्वि	-13965
वेरी	-13966
▁खरे	-13967
▁थिर	-13968
▁दुल	-13969
▁धुन	-13970
▁पिप	-13971
▁शैव	-13972
▁कृमि	-13973
▁जिया	-13974
▁तर्ज	-13975
▁महाभ	-13976
▁रंजी	-13977
▁लगान	-13978
▁लर्न	-13979
▁शिल्	-13980
तत्त्व	-13981
▁अस्सी	-13982
▁उभरने	-13983
▁कार्ब	-13984
▁गुजरे	-13985
▁निपटते	-13986
▁सीलिंग	-13987
▁रिएक्टर	-13988
▁वाक्यों	-13989
▁विमानों	-13990
▁श्रीराम	-13991
▁कोल्हटकर	-13992
▁होम्योपै	-13993
▁कांग्रेसी	-13994
▁प्रबंधकों	-13995
▁लाइब्रेरी	-13996
▁प्रभावकारी	-13997
▁प्रधानाचार्य	-13998
्यम	-13999
▁उच	-14000
चक्र	-14001
▁कवक	-14002
▁मिज	-14003
ज्ञों	-14004
▁जेएम	-14005
▁ठरोग	-14006
▁मिनी	-14007
▁विरल	-14008
▁साउथ	-14009
ोत्पाद	-14010
▁घुड़स	-14011
▁घुसपै	-14012
▁फेंका	-14013
▁मौकों	-14014
▁रुपया	-14015
▁वेदना	-14016
▁अनेकों	-14017
▁दिखाएं	-14018
▁फिलहाल	-14019
▁वर्क्स	-14020
▁विशाखा	-14021
▁कमोडिटी	-14022
▁प्रवृति	-14023
▁लेखाकार	-14024
▁कहानियाँ	-14025
▁जनसाधारण	-14026
▁पांडिचेरी	-14027
▁मैनेजमेंट	-14028
▁पारिस्थितिकी	-14029
इए	-14030
मू	-14031
िनम	-14032
▁आड	-14033
धुंध	-14034
शियल	-14035
▁चेर	-14036
▁पोट	-14037
▁सुष	-14038
च्युत	-14039
▁किसे	-14040
▁टूटी	-14041
▁दिवा	-14042
▁दैवी	-14043
▁द्यो	-14044
▁नारे	-14045
▁बकरी	-14046
▁माडल	-14047
▁वहॉँ	-14048
▁शोभा	-14049
▁सज़ा	-14050
▁घूमने	-14051
▁नगण्य	-14052
▁पीठों	-14053
▁भतीजे	-14054
▁मधुकर	-14055
▁रिलीज	-14056
▁विनती	-14057
▁अपनाकर	-14058
▁करेंसी	-14059
▁दिलाता	-14060
▁परीक्ष	-14061
▁पैकिंग	-14062
▁बनवाया	-14063
▁बोतलों	-14064
▁ब्यौरा	-14065
▁सन्देश	-14066
▁ओवरराइड	-14067
▁जन्मजात	-14068
▁पुराणों	-14069
▁व्यवधान	-14070
▁संभाव्य	-14071
▁उत्कीर्ण	-14072
▁राजकोषीय	-14073
▁अवधारणाओं	-14074
▁विकासात्मक	-14075
▁हिन्दुस्तानी	-14076
रोड	-14077
िफ़	-14078
एमएल	-14079
क्रो	-14080
दिरा	-14081
नाथन	-14082
िताब	-14083
▁अरा	-14084
▁अरु	-14085
▁आहत	-14086
▁केर	-14087
▁डोम	-14088
▁मणि	-14089
▁माउ	-14090
▁शूट	-14091
किनार	-14092
डोदरा	-14093
लियां	-14094
▁अनाथ	-14095
▁इंसो	-14096
▁कांड	-14097
▁गायन	-14098
▁चंदन	-14099
▁पराज	-14100
▁मापा	-14101
▁हथकर	-14102
▁अपीली	-14103
▁उभरता	-14104
▁दबाकर	-14105
▁वीरता	-14106
▁सीढ़ी	-14107
▁मिलाया	-14108
▁रेटिंग	-14109
▁श्रृंग	-14110
▁असेंबली	-14111
▁कंडक्टर	-14112
▁दरकिनार	-14113
▁प्रत्यय	-14114
▁भागलपुर	-14115
▁कुंजीपटल	-14116
▁सम्बंधित	-14117
▁प्रैक्टिस	-14118
▁सम्मानजनक	-14119
▁वस्तुनिष्ठ	-14120
▁रेस्पोंडेंट	-14121
▁शिकायतकर्ताओं	-14122
चय	-14123
दून	-14124
्रह	-14125
▁टु	-14126
▁तस	-14127
िकीय	-14128
▁एडम	-14129
▁डॉक	-14130
▁पैग	-14131
▁बीओ	-14132
▁लवण	-14133
जीभाई	-14134
▁बाइट	-14135
▁बिगा	-14136
▁मजूम	-14137
▁लेखे	-14138
▁वृहत	-14139
▁सूरी	-14140
▁स्कै	-14141
▁असहमत	-14142
▁खोजें	-14143
▁तूफान	-14144
▁पाएगा	-14145
▁बढ़ें	-14146
▁वक़्त	-14147
▁वरदान	-14148
▁आदित्य	-14149
▁एक्सटी	-14150
▁करूँगा	-14151
▁मोहंती	-14152
▁यन्त्र	-14153
▁विमानन	-14154
▁अपरिचित	-14155
▁इस्तीफे	-14156
▁कारखाना	-14157
▁मानसिकता	-14158
▁गाजियाबाद	-14159
▁प्रतिकृति	-14160
▁प्रयत्नों	-14161
▁मूर्तियों	-14162
▁पूर्णकालिक	-14163
▁अभियांत्रिकी	-14164
फली	-14165
ुग्	-14166
▁छव	-14167
गिरि	-14168
ध्वा	-14169
पिंग	-14170
ल्पी	-14171
▁आंका	-14172
▁परिर	-14173
▁पीबी	-14174
▁रोके	-14175
▁सौते	-14176
▁क्वाल	-14177
▁जैकेट	-14178
▁पदानु	-14179
▁परहेज	-14180
▁भरपाई	-14181
▁सिक्ख	-14182
▁उपस्कर	-14183
▁गठबंधन	-14184
▁देहाती	-14185
▁निकालते	-14186
▁पांचवीं	-14187
▁तानाशाही	-14188
▁रूपान्तर	-14189
▁नाइट्रोजन	-14190
▁पाकिस्तानी	-14191
▁हस्ताक्षरों	-14192
▁प्रस्तुतीकरण	-14193
ंन	-14194
गम्य	-14195
ावटी	-14196
ुकूल	-14197
▁आरई	-14198
▁एम्	-14199
▁गजट	-14200
▁डुप	-14201
▁मोम	-14202
▁रेम	-14203
न्दरी	-14204
वाड़े	-14205
शीघ्र	-14206
▁ईसाइ	-14207
▁एचयू	-14208
▁पूंछ	-14209
▁म्या	-14210
कोशिका	-14211
ारियों	-14212
▁ईएसआई	-14213
▁उद्भव	-14214
▁काटना	-14215
▁गैसों	-14216
▁सहदेव	-14217
▁ग्रामो	-14218
▁नदियां	-14219
▁महत्तर	-14220
▁वडोदरा	-14221
▁असंबद्ध	-14222
▁नांदेड़	-14223
▁मजूमदार	-14224
▁वारिसों	-14225
▁शत्रुओं	-14226
▁अंधाधुंध	-14227
▁पदाधिकारी	-14228
▁स्क्रिप्ट	-14229
▁उत्तरोत्तर	-14230
जै	-14231
नित	-14232
ब्स	-14233
य्य	-14234
जवान	-14235
▁अटक	-14236
▁कास	-14237
▁जूझ	-14238
▁टिड	-14239
▁युन	-14240
▁सजग	-14241
ानिया	-14242
▁उलझा	-14243
▁जलीय	-14244
▁बीसी	-14245
▁ब्रॉड	-14246
▁आरएफपी	-14247
▁उदात्त	-14248
▁ज्ञानी	-14249
▁निभाते	-14250
▁मकानों	-14251
▁विषाणु	-14252
▁सेलुलर	-14253
▁अधिरोपण	-14254
▁अविभक्त	-14255
▁महाद्वी	-14256
▁ब्रह्मांड	-14257
▁वार्ताकार	-14258
▁प्रदर्शनों	-14259
▁ब्रह्मानंद	-14260
बस	-14261
कंठ	-14262
त्थ	-14263
▁कत	-14264
▁शश	-14265
गिरी	-14266
जीएस	-14267
रांत	-14268
ोपेल	-14269
▁छुआ	-14270
▁छुप	-14271
▁तने	-14272
▁रेफ	-14273
▁हँस	-14274
ॉजिकल	-14275
▁ऑप्ट	-14276
▁जुडी	-14277
▁थोडा	-14278
▁मेरु	-14279
▁वाकई	-14280
▁सेमे	-14281
ंजीकृत	-14282
यात्मक	-14283
वेन्यू	-14284
▁खन्ना	-14285
▁सांके	-14286
▁सीनेट	-14287
▁सुमित	-14288
▁स्वंय	-14289
▁ह्रदय	-14290
▁निबन्ध	-14291
▁पड़ेगी	-14292
▁परिणति	-14293
▁दृश्यों	-14294
▁पौष्टिक	-14295
▁लेक्चरर	-14296
▁सीताराम	-14297
▁किराएदार	-14298
▁प्रायोजन	-14299
▁फोटोग्राफ	-14300
▁रूपांतरित	-14301
▁हतोत्साहित	-14302
▁ट्रांसफ़ेरे	-14303
कुर	-14304
प्स	-14305
लयन	-14306
वली	-14307
▁हठ	-14308
भुता	-14309
शासन	-14310
ाधीन	-14311
ावरी	-14312
ोपाय	-14313
▁फिज	-14314
ब्बों	-14315
▁आभार	-14316
▁आयरन	-14317
▁जहरी	-14318
▁रेफर	-14319
▁संगो	-14320
▁कुछेक	-14321
▁तालिब	-14322
▁परवीन	-14323
▁मक्खी	-14324
▁शुभार	-14325
▁अपदस्थ	-14326
▁एसआईटी	-14327
▁खासतौर	-14328
▁चुप्पी	-14329
▁जोखिमों	-14330
▁सिक्योर	-14331
▁सामान्यत	-14332
▁निर्माणों	-14333
▁परक्राम्य	-14334
▁इंडोनेशिया	-14335
▁प्रत्यक्षतः	-14336
ind	-14337
रेक	-14338
ल्ट	-14339
▁इज	-14340
कोहल	-14341
नुमा	-14342
पाटी	-14343
लेटर	-14344
ारित	-14345
ियरी	-14346
▁उपस	-14347
▁कवच	-14348
▁डोग	-14349
▁पाश	-14350
▁सडक	-14351
▁सेब	-14352
ान्तर	-14353
्मीकि	-14354
▁उदास	-14355
▁काटे	-14356
▁काना	-14357
▁टीएम	-14358
▁टीपी	-14359
▁व्यप	-14360
▁उतरने	-14361
▁गुटों	-14362
▁वेटेज	-14363
▁हैरान	-14364
▁अधिवास	-14365
▁परिसंघ	-14366
▁ब्यौरे	-14367
▁रिश्ता	-14368
▁सिक्का	-14369
▁ईश्वरीय	-14370
▁विधानों	-14371
▁अनुवर्ती	-14372
▁उग्रवादी	-14373
▁दोषमुक्त	-14374
▁पुरातत्व	-14375
▁वायुसेना	-14376
▁सांकेतिक	-14377
▁प्रजातियां	-14378
▁छात्रवृत्ति	-14379
▁सिद्धान्तों	-14380
ण्ण	-14381
ापा	-14382
▁gu	-14383
▁डब	-14384
▁बब	-14385
ंदरा	-14386
▁चिल	-14387
▁थोप	-14388
▁दीव	-14389
▁पीस	-14390
▁मचा	-14391
▁हिर	-14392
ुगतान	-14393
▁एनाल	-14394
▁केपी	-14395
▁जरुर	-14396
▁पीटर	-14397
▁यादृ	-14398
▁राजग	-14399
▁लोहा	-14400
▁संचय	-14401
▁सतही	-14402
▁ब्राज	-14403
▁महमूद	-14404
▁यूसुफ	-14405
▁अंधकार	-14406
▁अनुष्ठ	-14407
▁घोड़ों	-14408
▁हुकूमत	-14409
▁मोतीलाल	-14410
▁सम्मिलन	-14411
▁पूर्णांक	-14412
▁रामेश्वर	-14413
▁शुक्रवार	-14414
▁सन्निहित	-14415
▁एजेंसियां	-14416
▁बल्लेबाजी	-14417
▁अभिप्राप्त	-14418
▁कार्यनीतिक	-14419
▁व्यवस्थाओं	-14420
▁सर्वव्यापी	-14421
lo	-14422
णे	-14423
▁ं	-14424
नोट	-14425
माता	-14426
ाप्र	-14427
▁अवन	-14428
▁काफ	-14429
▁जीए	-14430
▁डाँ	-14431
▁धाम	-14432
▁रहो	-14433
▁लिक	-14434
आयामी	-14435
▁उठकर	-14436
▁टीके	-14437
▁दरार	-14438
▁लाती	-14439
▁करियर	-14440
▁द्रवि	-14441
▁पराजय	-14442
▁बरसात	-14443
▁विभाज	-14444
▁सोचकर	-14445
णाधिकार	-14446
▁एसआरआई	-14447
▁चतुर्व	-14448
▁स्वीडन	-14449
▁कार्तिक	-14450
▁प्रत्ये	-14451
▁विवाहों	-14452
▁अप्राप्य	-14453
▁पहुंचाना	-14454
▁बीआईएफआर	-14455
▁जमींदारों	-14456
ोच	-14457
टेक	-14458
रहाल	-14459
▁एनए	-14460
▁कतर	-14461
▁जुन	-14462
▁लता	-14463
न्तुक	-14464
▁अकाल	-14465
▁अब्ब	-14466
▁इब्र	-14467
▁लपेट	-14468
▁सरला	-14469
▁सूती	-14470
▁अवक्ष	-14471
▁चचेरे	-14472
▁चुम्ब	-14473
▁जलाने	-14474
▁नोबेल	-14475
▁वेल्स	-14476
▁साँचा	-14477
▁एकाधिक	-14478
▁तिब्बत	-14479
▁भक्तों	-14480
▁मददगार	-14481
▁सुशासन	-14482
▁सेनापति	-14483
▁करनेवाला	-14484
▁परामर्शी	-14485
▁यूरोपियन	-14486
▁यादृच्छिक	-14487
▁राजकुमारी	-14488
▁विरोधियों	-14489
▁ब्राह्मणों	-14490
st	-14491
इक	-14492
गाली	-14493
ावनी	-14494
▁ढाई	-14495
▁दंप	-14496
▁पुट	-14497
▁कभार	-14498
▁गाजा	-14499
▁नर्इ	-14500
▁भड़क	-14501
▁मूवी	-14502
▁वंशज	-14503
द्वारा	-14504
▁कायदा	-14505
▁गुरुत	-14506
▁जुलूस	-14507
▁ठहरने	-14508
▁निगाह	-14509
▁पत्ती	-14510
▁बांटा	-14511
▁अधिकता	-14512
▁कीर्ति	-14513
▁अपराह्न	-14514
▁तीक्ष्ण	-14515
▁नक्षत्र	-14516
▁भंडारित	-14517
▁अपंजीकृत	-14518
▁उत्सुकता	-14519
▁देशभक्ति	-14520
गति	-14521
गान	-14522
मोह	-14523
▁ऑट	-14524
▁वश	-14525
दिया	-14526
भंगा	-14527
साना	-14528
ाविद	-14529
▁vii	-14530
▁कोक	-14531
▁रज्	-14532
धारणा	-14533
ोत्रा	-14534
▁आईएफ	-14535
▁आरती	-14536
▁ऑक्स	-14537
▁चंचल	-14538
▁धकेल	-14539
▁फोकस	-14540
▁बाड़	-14541
रेनियम	-14542
▁घावों	-14543
▁निगमन	-14544
▁बैठते	-14545
▁रोकते	-14546
▁संगति	-14547
▁अधिष्ठ	-14548
▁कार्यो	-14549
▁जोड़ते	-14550
▁प्रयाग	-14551
▁बनाएगा	-14552
▁बोलचाल	-14553
▁संबधित	-14554
▁संवेदी	-14555
▁सटीकता	-14556
▁इमारतें	-14557
▁चार्ल्स	-14558
▁त्रिकोण	-14559
▁विलुप्त	-14560
▁दूरदर्शन	-14561
▁बेरोजगारी	-14562
▁स्त्रियां	-14563
▁तात्कालिकता	-14564
डिश	-14565
चर्य	-14566
प्पन	-14567
वियर	-14568
▁अवा	-14569
▁ओड़	-14570
▁गेल	-14571
▁जेट	-14572
▁पीई	-14573
▁पूर	-14574
▁मसल	-14575
केशनल	-14576
ारिटी	-14577
▁जनना	-14578
▁जीपी	-14579
▁जुडे	-14580
▁देवर	-14581
▁सरणी	-14582
▁सल्ल	-14583
▁साइड	-14584
▁कलाओं	-14585
▁चौंका	-14586
▁दुसरे	-14587
▁पकाने	-14588
▁फोर्ट	-14589
▁विपुल	-14590
▁साड़ी	-14591
▁इजराइल	-14592
▁उकसावे	-14593
▁गाँवों	-14594
▁नेपाली	-14595
▁भेड़ों	-14596
▁शिकारी	-14597
▁स्थापन	-14598
▁बंटवारे	-14599
▁श्रीनगर	-14600
▁अनिच्छुक	-14601
▁अभिलाभों	-14602
▁क्रोमियम	-14603
▁प्रांतों	-14604
▁धारावाहिक	-14605
खोर	-14606
रोप	-14607
▁ch	-14608
▁जक	-14609
चारे	-14610
▁गें	-14611
▁टोप	-14612
▁भगा	-14613
▁मसौ	-14614
▁माई	-14615
विदित	-14616
ुलिपि	-14617
▁एनजी	-14618
▁फिल्	-14619
▁औरतों	-14620
▁किफाय	-14621
▁कीचड़	-14622
▁कैम्प	-14623
▁ट्रैप	-14624
▁बक्से	-14625
▁बहुता	-14626
▁रोकती	-14627
▁लौटते	-14628
▁गुस्से	-14629
▁ग्रेटर	-14630
▁छोड़ते	-14631
▁टीआईपी	-14632
▁नौजवान	-14633
▁संचालक	-14634
▁सम्पदा	-14635
▁आदमियों	-14636
▁पुरूषों	-14637
▁प्रोन्न	-14638
▁सूचियों	-14639
▁असंतोषजनक	-14640
▁मुकदमेबाज	-14641
▁प्रतिभाशाली	-14642
ib	-14643
ess	-14644
ंबे	-14645
फ़ॉ	-14646
ोत्त	-14647
▁चूह	-14648
▁टंक	-14649
र्करा	-14650
▁अकसर	-14651
▁चौबी	-14652
▁छिपी	-14653
▁मूंग	-14654
▁रेज़	-14655
बुद्धि	-14656
▁कथानक	-14657
▁कानों	-14658
▁जाग्र	-14659
▁दामाद	-14660
▁बदमाश	-14661
▁सौदों	-14662
▁एनालॉग	-14663
▁कहलाती	-14664
▁कुल्लू	-14665
▁घुसपैठ	-14666
▁दरभंगा	-14667
▁मुसीबत	-14668
▁डिपॉजिट	-14669
▁तिथियों	-14670
▁राजशाही	-14671
▁एस्टोपेल	-14672
▁कठिनाइयां	-14673
▁कांफ्रेंस	-14674
▁उपलब्धियां	-14675
▁प्रोसेसिंग	-14676
▁एंटरप्राइजेज	-14677
ud	-14678
ंए	-14679
आप	-14680
ंके	-14681
आरए	-14682
थुर	-14683
बाइ	-14684
▁गम	-14685
ting	-14686
ण्डा	-14687
त्रय	-14688
्राह	-14689
▁and	-14690
▁अगु	-14691
▁आरए	-14692
▁मेस	-14693
▁रास	-14694
स्कोप	-14695
▁जनित	-14696
▁थॉमस	-14697
▁माली	-14698
▁समेट	-14699
▁आलोचक	-14700
▁जिहाद	-14701
▁दुर्य	-14702
ॉल्यूशन	-14703
▁आरटीआई	-14704
▁ऊर्ध्व	-14705
▁ज़मानत	-14706
▁परिधीय	-14707
▁लम्बाई	-14708
▁व्हाइट	-14709
▁आरम्भिक	-14710
▁गोवर्धन	-14711
▁नकदीकरण	-14712
▁प्रसूति	-14713
▁संस्थित	-14714
▁अंकगणितीय	-14715
▁एम्बुलेंस	-14716
▁अतिशयोक्ति	-14717
ण्ठ	-14718
सलम	-14719
ोशी	-14720
ौरन	-14721
मिली	-14722
▁अप्	-14723
▁काक	-14724
▁घुल	-14725
▁जिम	-14726
▁टोल	-14727
▁परभ	-14728
▁मात	-14729
▁अधिर	-14730
▁कमां	-14731
▁कांस	-14732
▁खाया	-14733
▁झाड़	-14734
▁टीटी	-14735
▁तरुण	-14736
▁सेबी	-14737
मिकल्स	-14738
▁ट्रीय	-14739
▁उत्खनन	-14740
▁क्षत्र	-14741
▁भावनगर	-14742
▁रचनाएं	-14743
▁लोकहित	-14744
▁सुपारी	-14745
▁स्तम्भ	-14746
▁अनुषंगी	-14747
▁व्यक़्त	-14748
▁संतोषों	-14749
▁गुणात्मक	-14750
▁परिवर्धन	-14751
▁उन्नीसवीं	-14752
▁प्रदाताओं	-14753
▁व्यवसायिक	-14754
▁हितधारकों	-14755
ah	-14756
कां	-14757
▁घण	-14758
▁झी	-14759
आईएस	-14760
▁कंठ	-14761
▁गोध	-14762
▁चबा	-14763
▁चिह	-14764
▁जोग	-14765
▁बख्	-14766
▁रमा	-14767
मान्त	-14768
▁ठंडे	-14769
▁फेरी	-14770
▁सीवी	-14771
▁क्लाज	-14772
▁खाण्ड	-14773
▁पेयजल	-14774
▁रुझान	-14775
▁सज्जा	-14776
▁अघोषित	-14777
▁अब्बास	-14778
▁जोधपुर	-14779
▁पन्द्र	-14780
▁भाषाएँ	-14781
▁शिलाले	-14782
▁कारागार	-14783
▁गलतियों	-14784
▁गुरबख्श	-14785
▁अनापत्ति	-14786
▁नवीकरणीय	-14787
▁प्रमुखता	-14788
▁चतुर्वेदी	-14789
▁संपत्तियां	-14790
▁सुप्रसिद्ध	-14791
ey	-14792
लाट	-14793
ुमा	-14794
गर्भ	-14795
▁उमर	-14796
▁खडे	-14797
▁ठुक	-14798
▁दाख	-14799
▁पाम	-14800
▁लीं	-14801
▁शही	-14802
▁घाना	-14803
▁छन्द	-14804
▁झटके	-14805
▁टूटे	-14806
▁भूरा	-14807
ंटियों	-14808
▁क्लिप	-14809
▁छावनी	-14810
▁पंखों	-14811
▁पक्षा	-14812
▁बच्ची	-14813
▁स्टोन	-14814
▁अंगूठी	-14815
▁प्राक्	-14816
▁मिटाएँ	-14817
▁सातवें	-14818
▁ईर्ष्या	-14819
▁पर्वतों	-14820
▁संरक्षा	-14821
▁हाथियों	-14822
▁संवैधानिकता	-14823
▁देवेन्द्रनाथ	-14824
तट	-14825
वहन	-14826
िगे	-14827
▁उध	-14828
▁चढ	-14829
▁गूं	-14830
▁ट्व	-14831
▁फलन	-14832
▁शाप	-14833
▁सूख	-14834
ोजनों	-14835
▁अशुभ	-14836
▁तुलन	-14837
▁ध्या	-14838
▁नग्न	-14839
▁नर्त	-14840
▁नुस्	-14841
▁पूरन	-14842
▁रुके	-14843
▁लटका	-14844
्रीकृत	-14845
▁खोजना	-14846
▁गुज़र	-14847
▁चुनना	-14848
▁दिखती	-14849
▁एचयूएफ	-14850
▁कमज़ोर	-14851
▁जांचना	-14852
▁दोहराने	-14853
▁पशुपालन	-14854
▁उत्साहित	-14855
▁करनेवाली	-14856
▁जितेंद्र	-14857
▁पेशेवरों	-14858
▁बेजबरुवा	-14859
▁मताधिकार	-14860
▁चिकित्सकों	-14861
▁राष्ट्रवाद	-14862
▁पुनर्भुगतान	-14863
▁अभिव्यक्तियों	-14864
ऊँ	-14865
टू	-14866
बम	-14867
ant	-14868
our	-14869
ंकू	-14870
ेष्ट	-14871
▁आइस	-14872
▁जगम	-14873
▁निल	-14874
▁परख	-14875
▁रूख	-14876
▁सुथ	-14877
फुल्ल	-14878
रीकरण	-14879
विवाह	-14880
ामंडल	-14881
्समैन	-14882
▁डंडा	-14883
▁दलाल	-14884
▁लाइफ	-14885
▁लेबन	-14886
▁सनकी	-14887
▁अनुपम	-14888
▁आत्मक	-14889
▁आहरित	-14890
▁कुंवर	-14891
▁पैलेस	-14892
▁बन्धन	-14893
ऑक्साइड	-14894
▁अतिचार	-14895
▁बिल्ली	-14896
▁शक़्ति	-14897
▁उत्तरों	-14898
▁फैक्टरी	-14899
▁शाहजहाँ	-14900
▁श्रेष्ठता	-14901
▁संस्करणों	-14902
▁हाइड्रोजन	-14903
▁प्रणालियां	-14904
▁अस्पष्टीकृत	-14905
▁डिपार्टमेंट	-14906
ep	-14907
ंगम	-14908
्जा	-14909
आरएल	-14910
तराम	-14911
निधि	-14912
लेपन	-14913
शीली	-14914
▁अथक	-14915
▁लिब	-14916
िलिंग	-14917
▁खोने	-14918
▁चारे	-14919
▁पीएल	-14920
▁बचता	-14921
▁लतीफ	-14922
त्राशय	-14923
▁अनगिन	-14924
▁जीर्ण	-14925
▁नाड़ी	-14926
▁पायलट	-14927
▁प्लेस	-14928
▁बरतने	-14929
▁सेमिन	-14930
स्वार्थ	-14931
▁अंधेरा	-14932
▁अलीगढ़	-14933
▁असंगति	-14934
▁आयोगों	-14935
▁एयरलाइ	-14936
▁क्षिति	-14937
▁गुस्सा	-14938
▁दूरभाष	-14939
▁बरामदे	-14940
▁रिटायर	-14941
▁सोडियम	-14942
▁डाटाबेस	-14943
▁निराकरण	-14944
▁सादृश्य	-14945
▁सुविचार	-14946
▁स्ट्रेट	-14947
▁अल्पावधि	-14948
▁विज्ञानी	-14949
▁सार्वभौम	-14950
▁चंद्रशेखर	-14951
▁प्रायद्वीप	-14952
▁राजमार्गों	-14953
▁विश्वासघात	-14954
▁कार्रवाइयों	-14955
▁केंद्रशासित	-14956
िलन	-14957
▁गड	-14958
▁घि	-14959
गणित	-14960
टीपी	-14961
ब्रू	-14962
▁कॉज	-14963
▁खड़	-14964
▁टाई	-14965
▁दरा	-14966
ग्रेड	-14967
न्यास	-14968
▁अपंग	-14969
▁एलटी	-14970
▁जबतक	-14971
▁फ़्र	-14972
▁फ्ला	-14973
▁भाषी	-14974
ध्वाधर	-14975
निकेतन	-14976
▁प्रोड	-14977
▁रंजीत	-14978
▁असहयोग	-14979
▁कीमिया	-14980
▁दोस्ती	-14981
▁वर्धित	-14982
▁शाखाएं	-14983
▁हथकरघा	-14984
▁धारणाओं	-14985
▁ब्राजील	-14986
▁प्रतिध्व	-14987
▁संग्रहित	-14988
▁स्थायित्व	-14989
▁अपर्याप्तता	-14990
ंगु	-14991
मीम	-14992
ेड़	-14993
▁झक	-14994
▁झि	-14995
iver	-14996
ल्सन	-14997
शीला	-14998
ावुर	-14999
▁अबा	-15000
▁छड़	-15001
▁बाउ	-15002
▁हनन	-15003
विदों	-15004
स्टेट	-15005
ूरिया	-15006
▁आफिस	-15007
▁ऊँची	-15008
▁एनके	-15009
▁एफसी	-15010
▁कगार	-15011
▁कोला	-15012
▁धागे	-15013
▁मलिक	-15014
▁राज़	-15015
▁अशक्त	-15016
▁जसवंत	-15017
▁संभवत	-15018
▁हमलों	-15019
▁गुच्छा	-15020
▁सुनाने	-15021
▁जायसवाल	-15022
▁त्रासदी	-15023
▁पन्द्रह	-15024
▁हर्जाना	-15025
▁अध्ययनों	-15026
▁पत्तियां	-15027
▁प्रतिभाव	-15028
▁यूरेनियम	-15029
▁कार्यनीति	-15030
▁निराशाजनक	-15031
▁सम्मिश्रण	-15032
▁इलेक्ट्रिक	-15033
▁स्थानान्तरण	-15034
२ख	-15035
ttp	-15036
एगी	-15037
मैट	-15038
हनी	-15039
ोबा	-15040
▁खं	-15041
▁छप	-15042
▁हँ	-15043
दिता	-15044
स्टल	-15045
ेंदु	-15046
▁गुड	-15047
▁घोट	-15048
▁सनी	-15049
▁उड़न	-15050
▁उद्व	-15051
▁बिठा	-15052
▁मुकु	-15053
▁रबड़	-15054
▁सप्त	-15055
▁स्वि	-15056
▁कंधों	-15057
▁तुमसे	-15058
▁फ्लोर	-15059
▁मलखान	-15060
▁मसौदे	-15061
▁महीना	-15062
▁रत्ना	-15063
▁सेंसर	-15064
जीवियों	-15065
▁क्लबों	-15066
▁पीआईएल	-15067
▁बहियों	-15068
▁बेगुना	-15069
▁सड़कें	-15070
▁सहभागी	-15071
▁साँचाः	-15072
▁उन्मुक्त	-15073
▁भुगतानों	-15074
▁मातृभाषा	-15075
▁रिपब्लिक	-15076
▁नोटिफिकेशन	-15077
▁सिक्योरिटी	-15078
▁प्रविष्टियाँ	-15079
वाड	-15080
्को	-15081
र्ना	-15082
ाहिम	-15083
्लूक	-15084
▁एंग	-15085
▁एचए	-15086
▁कोऋ	-15087
▁चंग	-15088
▁टूर	-15089
▁थिय	-15090
▁पाक	-15091
▁बास	-15092
▁शहद	-15093
आईएडी	-15094
▁आर्म	-15095
▁कोले	-15096
▁दीदी	-15097
▁दौलत	-15098
▁पॉली	-15099
▁मल्ह	-15100
▁मिज़	-15101
▁रूपए	-15102
▁सपाट	-15103
▁सोचे	-15104
दर्शित	-15105
▁अनादर	-15106
▁अफवाह	-15107
▁उपार्	-15108
▁कश्मी	-15109
▁कोलंब	-15110
▁खींची	-15111
▁ग्लास	-15112
▁घूमते	-15113
▁फैलने	-15114
▁बीमित	-15115
▁विचरण	-15116
▁स्टेन	-15117
▁आँकड़ा	-15118
▁आउटलेट	-15119
▁एमसीआई	-15120
▁कार्गो	-15121
▁गंधर्व	-15122
▁डिब्बे	-15123
▁दिलाना	-15124
▁देखिये	-15125
▁मीटिंग	-15126
▁रामपुर	-15127
▁इंस्टॉल	-15128
▁ऋणात्मक	-15129
▁पहाड़ों	-15130
▁प्रदूषक	-15131
▁संलग्नक	-15132
▁सक्षमता	-15133
▁इकबालिया	-15134
▁वर्णनात्मक	-15135
▁प्रत्यर्थियों	-15136
aI	-15137
ैच	-15138
ard	-15139
सरत	-15140
▁जख	-15141
तांत	-15142
र्सन	-15143
▁अनू	-15144
▁खडा	-15145
▁तड़	-15146
▁नों	-15147
▁बुझ	-15148
▁धीरज	-15149
▁नाली	-15150
▁सीएफ	-15151
स्टिंग	-15152
▁आभारी	-15153
▁क्रॉल	-15154
▁चालित	-15155
▁ढाँचे	-15156
▁नक्शा	-15157
▁नशीली	-15158
▁लिफ्ट	-15159
▁वनस्प	-15160
▁वल्लभ	-15161
▁झोपड़ी	-15162
▁नैसर्ग	-15163
▁पीसीआर	-15164
▁सुधारक	-15165
▁निवेशों	-15166
▁एचपीसीएल	-15167
▁क्रिस्टल	-15168
▁विनिर्दि	-15169
▁सेटिंग्स	-15170
ज्ञानात्मक	-15171
▁प्रतिधारण	-15172
▁संप्रभुता	-15173
▁प्रत्याशित	-15174
गित	-15175
गों	-15176
्नल	-15177
▁नस	-15178
▁रत	-15179
क़्स	-15180
गोचर	-15181
ोक्त	-15182
▁देब	-15183
▁भान	-15184
▁मल्	-15185
▁यहा	-15186
कानेक	-15187
▁एकाएक	-15188
▁ट्राइ	-15189
▁भाषाई	-15190
▁विजयी	-15191
▁हिचकि	-15192
▁तपस्या	-15193
▁बड़ौदा	-15194
▁संबोधन	-15195
▁सोनवीर	-15196
▁मैकेनिक	-15197
▁क्रमबद्ध	-15198
▁ग्रेजुएट	-15199
▁प्रबुद्ध	-15200
▁महाभियोग	-15201
▁सुविधाएँ	-15202
▁कार्यवाहक	-15203
▁ग्रहणाधिकार	-15204
▁प्रतिभूतिकरण	-15205
▁मानवाधिकारों	-15206
ev	-15207
ंचे	-15208
जीर	-15209
यीं	-15210
सलर	-15211
ुनी	-15212
्ना	-15213
▁कऋ	-15214
प्सा	-15215
सेसर	-15216
▁कौम	-15217
▁गुन	-15218
याधीश	-15219
िविटी	-15220
▁आंसू	-15221
▁गुदा	-15222
▁पाली	-15223
▁भुजा	-15224
▁लेंस	-15225
▁ओकुलर	-15226
▁कांति	-15227
▁जोज़े	-15228
▁तकिया	-15229
▁द्रीय	-15230
▁पल्लव	-15231
▁भट्टा	-15232
▁मुस्क	-15233
▁रोहित	-15234
▁वगैरह	-15235
क्षोपाय	-15236
▁कहलाते	-15237
▁टैक्सी	-15238
▁धारदार	-15239
▁शेयर्स	-15240
▁सचिवों	-15241
▁एजेन्सी	-15242
▁वाद्यों	-15243
▁संचारित	-15244
▁अनेकानेक	-15245
▁मानकीकरण	-15246
▁संश्लेषण	-15247
▁स्वरयंत्र	-15248
▁मध्यप्रदेश	-15249
▁संपरिवर्तन	-15250
▁प्रत्यक्षीकरण	-15251
लीज	-15252
शिव	-15253
ारक	-15254
ालो	-15255
स्का	-15256
स्टी	-15257
ांशु	-15258
▁आज़	-15259
▁आसन	-15260
▁चोप	-15261
▁पटा	-15262
▁बिच	-15263
▁भगव	-15264
▁मुस	-15265
▁सैल	-15266
▁हमी	-15267
साध्य	-15268
ारोपण	-15269
िकाएं	-15270
्लैंड	-15271
▁पिला	-15272
स्थायी	-15273
▁ऊष्मा	-15274
▁घटाना	-15275
▁थिएटर	-15276
▁परोसा	-15277
▁माइकल	-15278
▁वीरेन	-15279
किस्तान	-15280
▁इंट्रा	-15281
▁टीडीएस	-15282
▁फैमिली	-15283
▁बहरहाल	-15284
▁वित्तप	-15285
▁संयोजक	-15286
▁क्षुद्र	-15287
▁तंजावुर	-15288
▁मीट्रिक	-15289
▁इब्राहिम	-15290
▁निर्धनता	-15291
▁बर्दाश्त	-15292
▁पुर्तगाली	-15293
▁यथार्थवादी	-15294
▁प्रार्थनाओं	-15295
खलन	-15296
जोर	-15297
डान	-15298
नार	-15299
लेम	-15300
हाट	-15301
ूले	-15302
▁ओप	-15303
▁सई	-15304
रांव	-15305
▁III	-15306
▁किट	-15307
▁गोग	-15308
▁टिन	-15309
▁पाट	-15310
▁संध	-15311
तानंद	-15312
रेटिव	-15313
्यस्त	-15314
▁आज्ञ	-15315
▁कल्प	-15316
▁कैल्	-15317
▁क्वे	-15318
▁गंदी	-15319
▁बंधा	-15320
▁लंका	-15321
▁समीर	-15322
▁स्वय	-15323
▁खिताब	-15324
▁चतुर्	-15325
▁जीनों	-15326
▁देहरा	-15327
▁किनारा	-15328
▁चाइल्ड	-15329
▁पक्षधर	-15330
▁बिताया	-15331
▁रिचर्ड	-15332
▁वानिकी	-15333
▁सन्देह	-15334
▁समस्ती	-15335
▁केआईएडी	-15336
▁दमनकारी	-15337
▁नक्काशी	-15338
▁निरक्षर	-15339
▁प्रशंसक	-15340
▁बुनियाद	-15341
▁जमशेदपुर	-15342
▁प्रक्रमण	-15343
▁वृत्तचित्र	-15344
▁प्रमाणपत्रों	-15345
जिट	-15346
डि़	-15347
ेगा	-15348
वेदन	-15349
ैक्स	-15350
▁कुच	-15351
▁गड़	-15352
▁जेड	-15353
▁डेक	-15354
▁थाई	-15355
▁पोष	-15356
▁फिस	-15357
▁बॉल	-15358
▁लिय	-15359
नियाँ	-15360
▁उतरे	-15361
▁ख़ान	-15362
▁दफना	-15363
▁बीपी	-15364
▁स्पा	-15365
▁हटने	-15366
उद्दीन	-15367
ार्जुन	-15368
▁खिड़क	-15369
▁टिकला	-15370
▁बनानी	-15371
▁मनोमय	-15372
▁मिर्च	-15373
▁सीखते	-15374
▁हेल्थ	-15375
प्रतिशत	-15376
▁एनसीसी	-15377
▁गुजरते	-15378
▁प्रदाय	-15379
▁गोदावरी	-15380
▁टर्नओवर	-15381
▁बकरियों	-15382
▁शुभारंभ	-15383
▁नैसर्गिक	-15384
▁मूत्राशय	-15385
▁कुलाधिपति	-15386
▁मुर्गियों	-15387
▁प्रस्तुतियों	-15388
शाद	-15389
ंचना	-15390
ुलिन	-15391
▁आदी	-15392
▁जैक	-15393
▁तलब	-15394
▁लंग	-15395
▁आरडी	-15396
▁कुरु	-15397
▁जेपी	-15398
▁नैगम	-15399
▁पिंड	-15400
▁बहाव	-15401
▁बानो	-15402
▁यत्न	-15403
वर्जित	-15404
▁आवाजा	-15405
▁उद्दी	-15406
▁उपजाऊ	-15407
▁छंटनी	-15408
▁पीडित	-15409
▁बद्री	-15410
▁भूभाग	-15411
▁सैंपल	-15412
कृतियों	-15413
▁केएमसी	-15414
▁गारंटर	-15415
▁बिछाने	-15416
▁विघटित	-15417
▁गोलियों	-15418
▁जीवाश्म	-15419
▁वायुयान	-15420
▁विजयनगर	-15421
▁अस्थिरता	-15422
▁चट्टानों	-15423
▁निराश्रित	-15424
▁विज्ञप्ति	-15425
▁हेडमास्टर	-15426
ोत	-15427
ंघा	-15428
▁IS	-15429
▁to	-15430
▁धू	-15431
▁र्	-15432
इंडर	-15433
मूलक	-15434
रोइन	-15435
िएंट	-15436
▁काज	-15437
▁कुट	-15438
▁अव्य	-15439
▁पीवी	-15440
▁वीजा	-15441
पराइटर	-15442
▁अन्ना	-15443
▁नासिक	-15444
▁पांडा	-15445
▁बायोग	-15446
▁भेजकर	-15447
▁रिस्प	-15448
▁लैटिन	-15449
▁समझकर	-15450
पंथियों	-15451
▁उदयपुर	-15452
▁किंगडम	-15453
▁कीर्तन	-15454
▁क्षणों	-15455
▁ब्रांच	-15456
▁मनोनीत	-15457
▁मिलाने	-15458
▁सोनिया	-15459
▁स्कूटर	-15460
▁टेक्स्ट	-15461
▁दुष्प्र	-15462
▁बहुतायत	-15463
▁रहस्यमय	-15464
▁अविवाहित	-15465
▁बहुआयामी	-15466
▁होनेवाली	-15467
▁समस्तीपुर	-15468
▁प्रतिभावान	-15469
▁प्राथमिकताओं	-15470
२१	-15471
जीन	-15472
ञ्च	-15473
म्ड	-15474
वचन	-15475
विष	-15476
▁चप	-15477
▁चह	-15478
जियम	-15479
द्धन	-15480
पारा	-15481
ेंटी	-15482
▁कोइ	-15483
▁दीख	-15484
▁पेप	-15485
▁रिब	-15486
धुनिक	-15487
ॉप्टर	-15488
ॉर्डन	-15489
▁कुदर	-15490
▁खेले	-15491
▁पुर्	-15492
▁यहॉँ	-15493
▁यूएन	-15494
ग्रन्थ	-15495
मंडलों	-15496
▁अनवरत	-15497
▁उपमहा	-15498
▁काटकर	-15499
▁घूमता	-15500
▁ढाँचा	-15501
▁पशुधन	-15502
▁पीयूष	-15503
▁ब्रिज	-15504
▁मिलीं	-15505
▁योंकि	-15506
▁अब्राह	-15507
▁आयामों	-15508
▁कावेरी	-15509
▁मिजोरम	-15510
▁सामयिक	-15511
▁आलोचकों	-15512
▁गोलाकार	-15513
▁पदच्युत	-15514
▁परिपाटी	-15515
▁प्रकाशक	-15516
▁मलेशिया	-15517
▁अनुदेशों	-15518
▁इन्द्रिय	-15519
▁नागेंद्र	-15520
▁प्रतिवेद	-15521
▁विनम्रता	-15522
गीत	-15523
म्बल	-15524
रोधक	-15525
ागरण	-15526
्याल	-15527
्रमी	-15528
▁मीर	-15529
▁लोन	-15530
▁शमन	-15531
भिषेक	-15532
▁गोंड	-15533
▁टोला	-15534
[...]
