<unk>	0
<s>	0
</s>	0
UuRrLl	0
DdAaTtEe	0
NnUuMm	0
▁	-3.25372
▁के	-3.43381
▁।	-3.78431
▁है	-3.80258
▁,	-3.86102
▁में	-3.88918
▁की	-4.07074
▁और	-4.23222
▁से	-4.40695
▁का	-4.43283
▁को	-4.44684
▁.	-4.55012
▁-	-4.77093
▁हैं	-4.9231
ों	-4.9699
▁पर	-5.01425
▁एक	-5.0193
▁लिए	-5.06128
०	-5.08369
▁कि	-5.11525
ी	-5.33212
▁यह	-5.35307
▁)	-5.39122
▁नहीं	-5.39409
▁(	-5.40312
▁भी	-5.44251
▁किया	-5.48713
▁इस	-5.48946
▁या	-5.50167
▁करने	-5.50928
▁जो	-5.59567
▁हो	-5.59676
▁ने	-5.6588
▁कर	-5.66298
१	-5.72537
ा	-5.79071
▁था	-5.80989
▁तथा	-5.82905
▁ही	-5.83152
न	-5.90052
▁गया	-5.93802
ता	-5.99138
▁किसी	-6.0361
▁द्वारा	-6.05428
▁तो	-6.05708
क	-6.09148
▁रूप	-6.10125
▁वह	-6.12448
▁अपने	-6.17358
े	-6.25437
▁साथ	-6.26856
▁भारत	-6.30483
२	-6.3151
▁जा	-6.34883
▁न	-6.37212
▁जाता	-6.40252
▁तक	-6.41437
▁करना	-6.43088
▁थे	-6.44984
▁वे	-6.45249
र	-6.45735
▁कुछ	-6.46971
▁'	-6.47128
ना	-6.48582
▁कोई	-6.49317
▁होता	-6.54718
▁दिया	-6.5495
ं	-6.55938
▁सकता	-6.59251
▁/	-6.59327
▁हम	-6.60365
▁;	-6.61992
स	-6.62404
म	-6.63258
▁थी	-6.64045
ने	-6.64748
ल	-6.65623
▁समय	-6.66289
▁करते	-6.69351
▁हुए	-6.706
▁अधिक	-6.70975
▁मैं	-6.72342
▁करता	-6.7327
▁आप	-6.73281
त	-6.75896
▁जब	-6.75927
▁अपनी	-6.79387
▁अन्य	-6.79389
ित	-6.7975
▁चाहिए	-6.80908
▁उस	-6.81432
ो	-6.84284
▁उनके	-6.86151
▁रहा	-6.8666
▁बहुत	-6.8739
▁:	-6.8808
▁?	-6.88276
▁वाले	-6.8914
▁होने	-6.90013
▁कार्य	-6.90141
▁गई	-6.92528
▁रहे	-6.92905
३	-6.93878
ि	-6.93991
ओं	-6.94283
▁राज्य	-6.94381
▁सभी	-6.94431
▁बाद	-6.9457
▁जाने	-6.94754
▁कहा	-6.95114
▁प्रकार	-6.9547
▁उसके	-6.95921
▁ऐसे	-6.99639
▁होती	-6.99893
्	-7.00447
▁प्राप्त	-7.00899
▁आ	-7.01066
▁कम	-7.01739
▁इन	-7.02784
▁सरकार	-7.03216
कर	-7.03629
ियों	-7.04203
व	-7.04661
▁तरह	-7.06191
▁क्षेत्र	-7.06617
▁होगा	-7.06713
▁हुआ	-7.06843
▁गए	-7.07805
▁भारतीय	-7.08434
▁इसके	-7.08861
▁प्रति	-7.09303
▁सकते	-7.09533
▁एवं	-7.09638
▁कारण	-7.09819
▁उसे	-7.09821
▁राष्ट्रपति	-7.10565
▁किए	-7.10715
ते	-7.1085
▁उन्हें	-7.11885
▁उन्होंने	-7.12627
▁बात	-7.12903
▁विकास	-7.12983
▁यदि	-7.13836
▁क्या	-7.14098
▁व्यक्ति	-7.14267
▁करें	-7.14332
▁दो	-7.14449
▁अ	-7.146
▁अधिनियम	-7.14668
▁देश	-7.15433
▁धारा	-7.15647
▁पहले	-7.15709
य	-7.18274
प	-7.18424
▁न्यायालय	-7.18983
▁लेकिन	-7.19911
▁ऐसा	-7.20763
▁दी	-7.21375
▁वर्ष	-7.22263
ट	-7.23458
▁जाती	-7.25412
▁ऐसी	-7.26459
▁लोगों	-7.28405
▁जीवन	-7.28857
▁अब	-7.2946
▁बारे	-7.298
ज	-7.30142
▁हमारे	-7.30493
▁ये	-7.3091
ग	-7.31692
ः	-7.32724
▁उनकी	-7.32896
▁काम	-7.34484
▁जैसे	-7.34558
ें	-7.34586
ीय	-7.34647
ब	-7.36649
▁होते	-7.37204
▁नाम	-7.37824
द	-7.38376
▁अधीन	-7.39072
▁ओर	-7.39552
▁मुझे	-7.40027
▁सी	-7.40468
श	-7.40524
▁फिर	-7.40667
▁केवल	-7.40822
▁पूर्व	-7.41063
ह	-7.4108
▁हुई	-7.41552
ती	-7.42308
▁जाना	-7.4255
▁रही	-7.42666
▁क	-7.4361
िक	-7.44154
▁बीच	-7.45614
▁प्रदान	-7.46041
▁बार	-7.46747
▁भाग	-7.46967
ड	-7.48198
४	-7.48386
▁उन	-7.49088
▁अथवा	-7.51466
▁देने	-7.51638
▁विचार	-7.51895
▁प्रयोग	-7.5214
▁व	-7.52733
▁ए	-7.53158
▁“	-7.53316
▁वाली	-7.53955
▁सं	-7.54709
▁जिसमें	-7.55664
ण	-7.56428
▁जहां	-7.57346
री	-7.57542
▁ले	-7.57968
▁दोनों	-7.57993
▁सकती	-7.58421
▁पास	-7.58546
▁श्री	-7.58571
▁मे	-7.58792
ई	-7.59509
▁वि	-7.6069
▁करती	-7.60782
▁इसे	-7.60846
▁तब	-7.60965
▁राष्ट्रीय	-7.61045
▁संबंध	-7.61497
का	-7.62669
▁होना	-7.62698
▁प्र	-7.62717
▁उसकी	-7.62821
ला	-7.63442
▁उपयोग	-7.63541
▁%	-7.63605
▁विधि	-7.63737
▁प्रक्रिया	-7.63899
▁उच्च	-7.63909
रा	-7.65589
▁स्थान	-7.65635
्य	-7.66197
▁विशेष	-7.66623
▁स	-7.67183
▁सबसे	-7.67844
▁लिया	-7.6815
▁शिक्षा	-7.68537
▁दिन	-7.6878
▁क्योंकि	-7.68997
एं	-7.69435
▁आधार	-7.70255
▁s	-7.71194
▁जाते	-7.71532
▁हमें	-7.71589
या	-7.71615
▁हूं	-7.7206
▁अपना	-7.72065
▁संबंधित	-7.72141
▁स्थिति	-7.72328
▁लोग	-7.72374
▁सूचना	-7.72598
▁कभी	-7.74544
ू	-7.75458
ख	-7.75678
▁उपलब्ध	-7.75706
▁सेवा	-7.75872
▁विश्व	-7.76485
▁अनुसार	-7.77054
वा	-7.77669
▁ग	-7.77899
▁सहायता	-7.78848
▁सब	-7.7916
ु	-7.79413
▁कई	-7.79634
▁लिये	-7.80062
▁विभिन्न	-7.80199
▁आय	-7.8039
ड़	-7.8111
▁ख	-7.81301
▁मामले	-7.81443
▁जाएगा	-7.81613
▁अगर	-7.82137
▁दूसरे	-7.82295
नी	-7.83351
▁योजना	-7.83372
▁आज	-7.83685
ए	-7.84288
▁मुख्य	-7.84437
▁इसलिए	-7.84997
▁दौरान	-7.85025
▁उसका	-7.8504
▁अलग	-7.85208
▁उनका	-7.85296
्स	-7.85657
▁>	-7.86229
▁जी	-7.86398
▁अधिकार	-7.8715
▁इसका	-7.87197
के	-7.87517
▁जाए	-7.88167
▁हर	-7.8827
▁वाला	-7.88276
▁शक्ति	-7.88334
▁शामिल	-7.88481
▁"	-7.88629
▁आदि	-7.89284
▁अनेक	-7.89446
▁&	-7.90311
५	-7.90403
▁उसने	-7.90708
▁संख्या	-7.90965
िंग	-7.91276
सी	-7.9165
▁गये	-7.92354
▁दे	-7.93074
▁भाषा	-7.95131
▁म	-7.95879
▁जिसे	-7.95954
च	-7.95999
▁प्रत्येक	-7.96413
▁अर्थ	-7.96482
मा	-7.96895
▁जल	-7.97528
▁निर्माण	-7.97676
▁उत्तर	-7.97839
▁पत्र	-7.98127
▁यहां	-7.98303
▁उप	-7.98331
▁ध्यान	-7.99334
▁सु	-7.99421
ली	-7.99463
▁बनाने	-8.00109
▁आपको	-8.00274
▁होगी	-8.0102
▁महत्वपूर्ण	-8.01107
▁प्रयास	-8.0115
▁बना	-8.01158
▁प्रभाव	-8.01314
▁पी	-8.01439
▁तैयार	-8.01446
▁स्तर	-8.01483
▁नई	-8.01629
फ	-8.01652
▁तीन	-8.02006
▁जिसके	-8.0222
▁अवसर	-8.03077
▁हेतु	-8.03424
▁बिना	-8.0351
▁बाहर	-8.03543
यों	-8.03752
▁प्रतिशत	-8.04152
▁हमारी	-8.04467
▁पता	-8.04476
”	-8.04512
ज़	-8.04587
▁देता	-8.04819
▁आर्थिक	-8.0483
▁सामान्य	-8.05043
▁जनता	-8.05541
की	-8.05591
▁विषय	-8.05928
▁लोक	-8.06112
▁#	-8.06231
▁कु	-8.06398
▁आवश्यक	-8.06485
▁धर्म	-8.06516
▁बैंक	-8.06771
▁0	-8.07135
▁इससे	-8.07863
पूर्ण	-8.07918
▁आगे	-8.0853
▁सके	-8.09246
▁करके	-8.0989
▁आवश्यकता	-8.10132
▁समाज	-8.10199
▁मूल	-8.10349
से	-8.10597
▁बन	-8.10726
थ	-8.10868
िया	-8.10975
▁देना	-8.11203
▁प	-8.1122
▁”	-8.11363
▁नि	-8.11587
▁एस	-8.11592
▁वहां	-8.11802
▁शुरू	-8.12042
जी	-8.12043
ियां	-8.12162
▁इसमें	-8.12217
▁प्रमुख	-8.12253
▁खंड	-8.12664
▁मन	-8.12749
▁जिस	-8.12978
▁विश्वास	-8.13271
▁लागू	-8.13291
▁चार	-8.1376
▁हों	-8.13819
ंग	-8.14408
▁क्षेत्रों	-8.14516
▁पूरी	-8.14988
▁जारी	-8.15191
▁आपके	-8.15252
▁प्रौद्योगिकी	-8.15323
▁लाभ	-8.1544
▁ब	-8.15646
▁सामाजिक	-8.15744
▁मेरे	-8.15922
▁काफी	-8.16342
▁दर	-8.16357
▁प्रणाली	-8.16428
▁आदेश	-8.1647
▁ज्ञान	-8.16486
▁लगा	-8.16592
ऋ	-8.17001
▁इसी	-8.17379
▁स्वयं	-8.17558
▁इ	-8.17712
▁पूरा	-8.17899
▁आई	-8.18034
▁घर	-8.1848
▁‘	-8.18774
ाई	-8.19001
▁पूर्ण	-8.19195
▁नीति	-8.19654
▁ऋण	-8.20027
▁तुम	-8.20439
▁माध्यम	-8.2065
▁भवन	-8.20707
▁व्यवस्था	-8.2073
▁स्थापित	-8.20761
ले	-8.20927
▁गयी	-8.20934
▁अभि	-8.21026
र्इ	-8.21126
▁उद्योग	-8.21285
▁लगभग	-8.21353
▁दूर	-8.2139
▁सदस्य	-8.21626
▁कंपनी	-8.21876
▁मामलों	-8.22168
▁निर्णय	-8.22481
▁अवधि	-8.22575
’	-8.22709
▁आयोग	-8.23229
▁मूल्य	-8.23241
▁हूँ	-8.2347
▁रिपोर्ट	-8.23803
▁जानकारी	-8.24026
▁समान	-8.24045
▁मैंने	-8.24426
▁बड़ी	-8.24994
▁अनु	-8.2522
▁सुरक्षा	-8.25409
▁कार्यक्रम	-8.25508
गी	-8.25601
▁मिल	-8.25685
▁!	-8.25714
▁पद	-8.25872
▁कृषि	-8.26003
▁परिवर्तन	-8.26351
▁ई	-8.26556
▁स्पष्ट	-8.26804
▁मानव	-8.2696
▁संविधान	-8.2704
▁विज्ञान	-8.27119
▁द	-8.27724
▁सा	-8.28095
▁सभा	-8.28234
▁कुल	-8.28351
▁राशि	-8.28672
▁विभाग	-8.28779
▁शब्द	-8.28952
▁अभी	-8.28968
िका	-8.29158
▁जिससे	-8.29333
▁ऊ	-8.29425
▁इसकी	-8.29469
▁देशों	-8.29504
▁जिसका	-8.29505
▁स्वीकार	-8.29706
▁अधिकारी	-8.29856
सा	-8.3004
▁ठीक	-8.30332
▁देते	-8.30375
▁प्रस्तुत	-8.30448
ति	-8.30448
▁संबंधी	-8.30652
▁रखने	-8.30796
▁उत्पादन	-8.31294
ै	-8.31386
▁अंतर्गत	-8.31879
▁रखा	-8.32221
▁एन	-8.32397
▁सूची	-8.32412
▁त	-8.32453
▁जैसा	-8.32483
▁उद्देश्य	-8.32687
▁सुधार	-8.32936
▁बड़े	-8.32996
▁<	-8.33031
▁उपधारा	-8.33132
रे	-8.33525
▁ऊपर	-8.33758
▁संघ	-8.33779
▁राष्ट्र	-8.3388
▁शरीर	-8.34973
▁सीमा	-8.35013
▁पा	-8.35208
▁बल्कि	-8.35767
स्त	-8.35825
६	-8.35934
▁मध्य	-8.36076
▁ओ	-8.36425
ध	-8.36712
▁चाहते	-8.36765
वि	-8.37399
▁मेरी	-8.37436
▁रह	-8.37681
▁समूह	-8.37855
▁ली	-8.38535
▁बे	-8.38581
▁उ	-8.38653
▁समिति	-8.38802
▁विशिष्ट	-8.39103
▁दृष्टि	-8.39111
▁क्षमता	-8.39267
को	-8.39459
▁ला	-8.39483
▁उपबंध	-8.39585
▁सही	-8.39588
ात्मक	-8.40325
▁अतिरिक्त	-8.40612
▁प्रश्न	-8.40678
▁देखा	-8.40731
▁अनुच्छेद	-8.40802
▁ज	-8.41098
़	-8.41105
▁सामने	-8.41234
▁आने	-8.4138
▁रंग	-8.41599
▁नीचे	-8.41641
▁यहाँ	-8.41663
ंड	-8.41933
कार	-8.41989
▁न्याय	-8.42036
▁युद्ध	-8.42241
▁कहते	-8.42316
▁नियम	-8.42362
दा	-8.42468
▁मांग	-8.42655
▁स्वास्थ्य	-8.42815
▁च	-8.42913
▁वर्ग	-8.42941
ीकरण	-8.4299
्र	-8.43201
गत	-8.43242
▁यात्रा	-8.439
▁भर	-8.44188
▁बी	-8.44293
▁परंतु	-8.44297
▁सहयोग	-8.4439
▁लेने	-8.44447
▁अनुसंधान	-8.445
मान	-8.44797
▁स्थित	-8.44913
▁वस्तु	-8.45375
▁वर्तमान	-8.45461
▁पानी	-8.45786
▁परन्तु	-8.46212
▁दिए	-8.46243
ॉ	-8.46247
▁वर्षों	-8.46473
▁प्रयोजन	-8.46553
▁यू	-8.46701
e	-8.46712
▁व्यापार	-8.46719
▁साल	-8.46773
▁आर	-8.46787
▁छोटे	-8.46856
▁विवाह	-8.47148
▁विदेशी	-8.47214
▁अनुभव	-8.47242
▁संयुक्त	-8.47349
दार	-8.47671
टी	-8.48006
▁निर्धारण	-8.48027
▁ह	-8.48079
▁करेगा	-8.48367
▁बल	-8.48403
▁परि	-8.48435
▁आम	-8.48654
▁अंत	-8.48769
▁डी	-8.48809
▁उससे	-8.49114
▁जमा	-8.49231
▁होंगे	-8.4936
▁व्यक्तियों	-8.49462
▁भीतर	-8.4966
▁थीं	-8.49702
▁वास्तव	-8.49811
▁मृत्यु	-8.50027
▁बच्चों	-8.5005
▁बड़ा	-8.50235
▁राज	-8.50371
▁तौर	-8.50425
▁अव	-8.50567
▁आधारित	-8.50744
▁नियंत्रण	-8.50766
▁सिंह	-8.50858
▁उसी	-8.50874
▁प्रथम	-8.50882
▁उच्चतम	-8.51054
स्ट	-8.51111
▁अध्ययन	-8.51675
▁रहने	-8.51709
ष	-8.51788
ओ	-8.51929
प्र	-8.52002
s	-8.52137
वी	-8.52261
▁वृद्धि	-8.52452
▁उदाहरण	-8.52513
▁नही	-8.52648
▁विश्वविद्यालय	-8.52678
▁रहते	-8.52781
▁प्रदेश	-8.52984
▁माल	-8.5323
▁ज्यादा	-8.53432
▁मत	-8.53616
एँ	-8.53677
न्	-8.53713
▁संस्थान	-8.53758
ँ	-8.53806
डी	-8.53852
गा	-8.54033
▁अप	-8.54206
▁सरकारी	-8.5429
▁समाप्त	-8.54356
▁लगता	-8.54381
ौ	-8.54433
▁दूसरी	-8.54642
▁विकसित	-8.54811
▁परिणाम	-8.55305
▁काल	-8.55369
▁करेंगे	-8.55531
▁अंतिम	-8.55765
▁बाजार	-8.55807
▁नए	-8.5586
▁न्यायाधीश	-8.55918
▁जन्म	-8.5609
▁वित्तीय	-8.56163
▁मदद	-8.56246
भ	-8.56336
▁प्रकृति	-8.56399
▁जांच	-8.56529
छ्ष	-8.56545
ण्श्	-8.56589
▁पैदा	-8.56736
▁प्रस्ताव	-8.56954
▁भूमि	-8.57139
▁अन	-8.57165
▁उत्पन्न	-8.5738
▁धन	-8.57478
▁अपील	-8.57517
▁स्थापना	-8.57674
▁पहचान	-8.57751
▁निर्धारित	-8.57779
▁दिल्ली	-8.58106
▁लेकर	-8.5822
▁कैसे	-8.5841
▁केंद्र	-8.58458
▁बस	-8.58549
▁इतिहास	-8.58605
▁किंतु	-8.58625
▁भूमिका	-8.58725
▁जन	-8.58823
▁रुप	-8.59165
नि	-8.59247
फ़	-8.59508
▁संदेश	-8.59653
▁हाथ	-8.59733
▁रोग	-8.59762
▁स्वतंत्रता	-8.59942
▁किये	-8.60306
▁समस्या	-8.6033
▁सदस्यों	-8.6037
▁पुनः	-8.60563
▁संगठन	-8.60623
▁करे	-8.60766
▁हमने	-8.60895
▁घ	-8.61143
▁शासन	-8.61259
▁संसद	-8.61418
▁मात्रा	-8.61424
▁खोज	-8.61438
▁संशोधन	-8.61506
▁अच्छा	-8.61514
0	-8.61557
▁माना	-8.61592
▁पहुंच	-8.61865
▁आवेदन	-8.61984
टा	-8.6205
▁परिवार	-8.62194
पुर	-8.62252
ठ	-8.62949
▁कानून	-8.62961
▁आरंभ	-8.63006
▁समझ	-8.63031
▁भिन्न	-8.63281
▁पक्ष	-8.63328
▁राज्यों	-8.63448
▁सत्ता	-8.63516
▁मु	-8.63686
▁कांग्रेस	-8.63797
▁ल	-8.64012
▁सहित	-8.64057
▁बनाया	-8.64291
बी	-8.64446
▁बाहरी	-8.64552
▁छोड़	-8.64946
▁सन्	-8.6534
▁यही	-8.65468
▁बराबर	-8.65474
▁मिला	-8.65542
▁भुगतान	-8.65609
▁अच्छी	-8.65797
▁निवेश	-8.65803
▁सुनिश्चित	-8.65852
▁ताकि	-8.65898
▁उचित	-8.65947
७	-8.65973
▁साहित्य	-8.66298
▁छ	-8.66305
▁राय	-8.66341
▁दक्षिण	-8.6647
इ	-8.66471
▁लाख	-8.66472
▁व्यापक	-8.66721
▁विस्तार	-8.66956
▁भ	-8.66973
▁राम	-8.66985
हा	-8.67016
▁प्रशिक्षण	-8.67126
▁सह	-8.67279
में	-8.67554
ण्ड	-8.67614
▁दुनिया	-8.67705
▁बनाए	-8.67775
▁खेल	-8.67847
▁प्रेम	-8.67861
ास	-8.67923
▁अपराध	-8.67959
रो	-8.67979
ड़ा	-8.68112
▁जबकि	-8.68199
▁जाएगी	-8.68366
▁रहता	-8.68451
o	-8.68462
घ	-8.68472
▁एम	-8.68561
▁स्थानीय	-8.68603
▁जिन	-8.68706
▁विरुद्ध	-8.69311
▁लक्ष्य	-8.6937
▁पश्चात्	-8.69412
▁उसमें	-8.69615
कारी	-8.69838
▁अपेक्षा	-8.69873
▁तहत	-8.7009
▁देख	-8.70385
▁अमेरिका	-8.70542
▁जगह	-8.70781
▁जरूरत	-8.70847
▁दिशा	-8.70879
▁निर्दिष्ट	-8.70983
▁चल	-8.71019
▁मार्ग	-8.71354
▁कल	-8.715
वाद	-8.71612
▁चला	-8.7162
▁बच्चे	-8.71622
▁उनमें	-8.71824
▁होकर	-8.72101
▁बंद	-8.72332
▁प्रभावित	-8.72336
▁पीछे	-8.72425
त्र	-8.72698
अ	-8.73005
वर	-8.73018
▁चाहिये	-8.73148
▁पर्याप्त	-8.73292
करण	-8.73348
▁क्रिया	-8.73401
▁आकार	-8.73461
ंस	-8.73476
▁सत्य	-8.73486
▁वेबसाइट	-8.73554
▁प्रबंधन	-8.73759
▁बाल	-8.73772
▁पिता	-8.74047
▁सार्वजनिक	-8.74226
स्	-8.74331
a	-8.74677
▁पूंजी	-8.74991
▁हे	-8.75051
▁कमी	-8.75123
▁ट	-8.75156
▁पिछले	-8.75497
▁निम्नलिखित	-8.75525
▁परियोजना	-8.75798
▁पुलिस	-8.76004
मी	-8.76034
▁दिनों	-8.76268
▁गांधी	-8.76269
त्व	-8.76372
आ	-8.76478
तः	-8.7664
▁प्रवेश	-8.76645
सं	-8.76718
▁आया	-8.76772
▁मंदिर	-8.76779
▁केंद्रीय	-8.77159
▁A	-8.77282
जा	-8.77378
▁पहली	-8.77398
पन	-8.77643
पी	-8.77653
▁गैर	-8.77655
▁वो	-8.77907
▁क्यों	-8.78333
बा	-8.78489
▁सक्रिय	-8.78549
▁र	-8.78591
▁मान	-8.78666
▁कहीं	-8.78794
▁कह	-8.78799
▁दंड	-8.78828
▁सम	-8.78871
▁प्रगति	-8.78879
▁सर	-8.78937
ंक	-8.79278
ंट	-8.79363
पर	-8.79413
▁संभव	-8.79484
▁अलावा	-8.79801
▁निश्चित	-8.80002
तर	-8.80111
▁फाइल	-8.80151
▁फ	-8.80171
▁विवरण	-8.80284
▁ऊर्जा	-8.80298
▁शब्दों	-8.80367
▁ग्रामीण	-8.80392
▁चाहे	-8.80485
िन	-8.80488
▁मंत्रालय	-8.80543
▁अनुमति	-8.80575
ार	-8.80704
र्स	-8.80757
▁राजा	-8.80888
▁बीमा	-8.8108
▁औद्योगिक	-8.81111
ंद	-8.8121
▁व्यक्त	-8.81219
▁बदल	-8.81321
▁बा	-8.81349
▁पार	-8.81512
▁बोर्ड	-8.81613
वादी	-8.81669
▁याद	-8.81731
▁लगे	-8.81818
▁अध्यक्ष	-8.81854
▁व्यवहार	-8.81859
▁झ	-8.81906
▁ढंग	-8.81913
▁समर्थन	-8.81935
▁लिखा	-8.81938
▁गति	-8.82013
▁रचना	-8.8229
▁नदी	-8.82533
▁पांच	-8.82554
▁करोड़	-8.82555
▁महा	-8.82686
▁अंग	-8.82869
▁महत्व	-8.82898
▁जिन्हें	-8.83014
▁स्व	-8.83208
वे	-8.83451
▁संस्था	-8.83599
▁शायद	-8.8372
▁इस्तेमाल	-8.83849
▁सक्षम	-8.84081
▁सुविधा	-8.84186
▁देती	-8.84225
▁लेखा	-8.84271
▁समाधान	-8.84303
▁राजनीतिक	-8.84306
मे	-8.84387
▁कला	-8.84438
▁आधुनिक	-8.8454
▁महान	-8.84822
दी	-8.84895
▁केन्द्र	-8.85035
ड़ी	-8.85238
▁खर्च	-8.85352
▁अल	-8.85354
▁चुका	-8.85529
▁प्रकाश	-8.85604
▁प्रकट	-8.85661
▁जिनमें	-8.85693
▁पाया	-8.85727
▁चिकित्सा	-8.85782
म्ब	-8.85918
▁इतना	-8.86002
▁मुखर्जी	-8.86898
▁एक्स	-8.87085
▁ईश्वर	-8.871
▁एल	-8.87264
▁सहायक	-8.87531
▁भा	-8.87565
▁भविष्य	-8.87598
▁योग्य	-8.87706
▁स्कूल	-8.87949
▁मेरा	-8.8795
▁टी	-8.88039
▁मनुष्य	-8.88252
▁सामग्री	-8.88473
यां	-8.88638
▁न्यायिक	-8.88643
▁जैसी	-8.88648
▁हमारा	-8.88704
▁मुक्त	-8.88712
▁श	-8.88785
▁भाव	-8.88787
▁मि	-8.88918
म्	-8.88949
▁चाहता	-8.88957
▁बंगाल	-8.88977
▁पालन	-8.89123
छ	-8.89128
▁पूरे	-8.89194
▁तारीख	-8.89288
▁वास्तविक	-8.8939
▁वापस	-8.8942
▁निर्यात	-8.8949
ाव	-8.89595
▁य	-8.89664
▁हाल	-8.89781
▁पुस्तक	-8.89793
▁संरक्षण	-8.89807
▁रक्षा	-8.8981
▁निजी	-8.90118
तम	-8.9038
▁कविता	-8.90513
क्स	-8.9053
▁संपत्ति	-8.90564
▁प्रकाशित	-8.90572
क्ष	-8.90716
्या	-8.90849
▁बनाम	-8.90856
▁यद्यपि	-8.90867
▁विधान	-8.9095
▁दल	-8.91126
्म	-8.91136
▁पुरस्कार	-8.91144
र्	-8.91264
▁नया	-8.91301
▁किस	-8.91308
हार	-8.91338
▁अति	-8.91519
्त	-8.91532
▁लग	-8.91588
▁सो	-8.91595
▁पे	-8.91662
▁जीव	-8.91765
▁आत्मा	-8.91818
▁अवस्था	-8.91827
▁प्रारंभ	-8.91887
▁इनमें	-8.91991
▁सोच	-8.91991
▁न्यायालयों	-8.92034
▁रक्त	-8.92045
▁रकम	-8.92165
कर्ता	-8.92411
▁दशा	-8.92433
▁चर्चा	-8.92445
i	-8.92495
▁भावना	-8.92498
▁समक्ष	-8.92544
t	-8.92644
▁रखना	-8.9279
▁निर्देश	-8.92885
▁हमेशा	-8.9304
▁शहर	-8.93104
▁कंप्यूटर	-8.93108
▁कवि	-8.93112
▁जे	-8.9312
▁उल्लेख	-8.9317
▁युवा	-8.93237
▁पृष्ठ	-8.93243
▁सिर्फ	-8.93369
ढ़	-8.93507
▁संदर्भ	-8.93529
रण	-8.93535
▁रखते	-8.93575
▁अधिकांश	-8.93743
▁युग	-8.93763
▁लाल	-8.93773
▁उत्पाद	-8.93775
▁बेहतर	-8.9381
िल	-8.94182
▁सकेगा	-8.94331
▁बने	-8.94431
▁सेवाओं	-8.94496
झ	-8.945
ये	-8.94512
▁मंत्री	-8.94577
▁जाये	-8.94599
▁देखने	-8.94628
▁संपर्क	-8.94642
▁दें	-8.94718
रू	-8.94775
▁रे	-8.94908
▁a	-8.94943
▁सेना	-8.95092
▁अधि	-8.95099
▁लागत	-8.95187
▁महिला	-8.95207
▁केन्द्रीय	-8.95617
▁संरचना	-8.95759
नाथ	-8.95915
ान	-8.96027
▁कदम	-8.96096
▁धीरे	-8.96127
▁भू	-8.96246
▁बताया	-8.96275
▁बहु	-8.96306
▁सि	-8.96381
▁सदन	-8.96435
▁परीक्षा	-8.96855
▁पि	-8.96914
▁योगदान	-8.96939
▁चित्र	-8.96968
▁किन्तु	-8.97044
▁लघु	-8.9708
▁जिसकी	-8.97083
▁निधि	-8.97165
▁छोटी	-8.97301
▁पुरुष	-8.97833
▁संकेत	-8.97946
▁रि	-8.97955
▁उपचार	-8.97963
उ	-8.97988
▁पद्धति	-8.98009
▁पश्चिम	-8.98228
▁दिवस	-8.98267
▁दिखाई	-8.98268
त्त	-8.98332
▁प्रशासन	-8.98398
शी	-8.98518
▁दूसरा	-8.98565
▁गो	-8.98685
▁सिद्धांत	-8.98742
▁ध	-8.98861
▁अंतर	-8.98866
▁धार्मिक	-8.98902
▁उठा	-8.99003
जन	-8.99014
▁रु	-8.9907
▁कोशिश	-8.99279
▁वहाँ	-8.9947
▁रख	-8.99508
▁सीमित	-8.99613
▁नेटवर्क	-8.99655
▁तरीके	-8.99844
▁सम्मान	-9.00056
▁तंत्र	-9.00178
▁प्रणब	-9.0032
▁प्रदर्शन	-9.00423
८	-9.00439
▁ब्रिटिश	-9.01063
▁व्य	-9.01073
टे	-9.01093
शा	-9.01289
▁साधारण	-9.01291
▁सारे	-9.01447
▁आयु	-9.01473
▁आशा	-9.01515
▁जाति	-9.01608
▁अध्याय	-9.01752
ाल	-9.01802
y	-9.01858
ाय	-9.01924
▁प्रभावी	-9.02011
▁रहती	-9.02062
▁अनिवार्य	-9.02065
▁आंदोलन	-9.02065
ंच	-9.02164
▁समझा	-9.02172
▁मुद्रा	-9.02229
न्द	-9.02337
▁हिन्दी	-9.02546
वीं	-9.02634
▁उनसे	-9.02635
िए	-9.02647
ाना	-9.02715
▁अंग्रेजी	-9.03005
▁सफल	-9.03397
ंज	-9.03438
▁हित	-9.03441
▁गा	-9.03522
▁संस्कृति	-9.03603
▁प्राकृतिक	-9.03744
▁ऑफ	-9.03825
▁दस	-9.03837
ूर	-9.04041
▁वाद	-9.04066
स्थ	-9.04236
▁गुणवत्ता	-9.04257
▁विशाल	-9.04288
बल	-9.04327
▁स्प	-9.04572
▁मै	-9.04647
▁सम्मिलित	-9.04654
▁जहाँ	-9.04695
▁बढ़	-9.04858
▁देखते	-9.04889
▁शांति	-9.05038
▁S	-9.05039
▁आता	-9.05208
▁वित्त	-9.05235
▁विवाद	-9.05343
▁विधेयक	-9.05372
▁जिला	-9.05509
▁भोजन	-9.05877
रु	-9.06079
▁लि	-9.06178
▁अधिकारियों	-9.06222
▁संगीत	-9.06225
S	-9.06239
▁आत्म	-9.06286
▁बि	-9.06499
▁उपकरण	-9.065
▁कार्यालय	-9.06604
▁मा	-9.06738
▁हिस्सा	-9.06742
▁नाटक	-9.06784
▁वर्णन	-9.06835
▁खुलती	-9.06922
डा	-9.07035
मय	-9.07072
▁आपकी	-9.07126
▁व्यक्तिगत	-9.07464
er	-9.07706
▁विंडों	-9.07893
▁वही	-9.08088
्व	-9.08123
▁मी	-9.08132
▁अत्यंत	-9.08173
▁इच्छा	-9.08181
पा	-9.08187
▁मिलता	-9.08207
▁सकें	-9.08286
▁पड़ा	-9.08307
▁शुल्क	-9.08378
▁समारोह	-9.08463
▁शेयर	-9.08486
▁पेश	-9.08533
▁उपयुक्त	-9.08654
मन	-9.08706
▁मुस्लिम	-9.08833
▁गुण	-9.08844
▁संहिता	-9.09082
▁अतः	-9.0913
ंत	-9.09186
शील	-9.09224
▁संघर्ष	-9.09255
काल	-9.09318
▁पड़ता	-9.09483
▁घोषणा	-9.095
▁सिद्ध	-9.09504
▁करनी	-9.09531
▁व्यय	-9.0955
▁लेना	-9.09622
ृ	-9.09646
▁विरोध	-9.0966
▁तुलना	-9.09814
▁प्रा	-9.09832
▁विकल्प	-9.09857
▁जिनके	-9.09896
▁निर्धारिती	-9.10017
▁विचारों	-9.10137
▁बधाई	-9.10168
ां	-9.10257
▁दा	-9.10296
▁घटना	-9.10469
▁गु	-9.10573
▁रा	-9.10576
ड़े	-9.10577
▁दृष्टिकोण	-9.1072
▁प्राचीन	-9.10843
▁सफलता	-9.11014
▁वैज्ञानिक	-9.11067
▁चि	-9.11369
▁संभावना	-9.1139
▁बता	-9.11408
▁निर्भर	-9.11626
▁भारी	-9.1172
▁सम्मेलन	-9.11904
▁रो	-9.12201
म्प	-9.1221
▁बिल	-9.12264
▁उपबंधों	-9.12351
▁कर्म	-9.1251
क्	-9.12647
रि	-9.12652
बद्ध	-9.12655
▁सिविल	-9.12722
▁गलत	-9.1282
▁नियमों	-9.12836
▁सिफारिश	-9.12868
▁खुद	-9.12882
▁सुन	-9.12961
▁खरीद	-9.12995
९	-9.13108
▁नये	-9.13286
ेशन	-9.13293
▁फ़	-9.13296
▁निम्न	-9.13306
▁i	-9.13311
▁तथापि	-9.13368
▁आयोजित	-9.13562
▁ऐ	-9.13577
▁नगर	-9.13726
▁इं	-9.13776
▁प्रधान	-9.13792
▁व्यवसाय	-9.13979
शन	-9.1411
▁हिन्दू	-9.14157
▁संस्थानों	-9.14164
▁गंभीर	-9.14165
▁विनिर्दिष्ट	-9.14245
▁पाने	-9.14292
कों	-9.14337
▁हृदय	-9.14365
▁अर्थात्	-9.14421
▁हा	-9.14495
▁आते	-9.1454
▁संसाधन	-9.14642
▁पर्यावरण	-9.14656
▁कार्यवाही	-9.14765
l	-9.15137
▁फ़ाइल	-9.15191
वर्ती	-9.15423
▁सुझाव	-9.15439
ाम	-9.15453
▁दु	-9.15542
▁खाते	-9.15545
▁जानते	-9.15555
▁बोल	-9.15772
यो	-9.15889
▁सिर	-9.15998
▁दर्शन	-9.16026
▁जानी	-9.1606
▁अच्छे	-9.16062
▁माता	-9.16107
▁कार्रवाई	-9.16137
▁फल	-9.1623
▁जिसने	-9.16321
▁संस्कृत	-9.16372
▁शिकायत	-9.16422
▁कठिन	-9.1651
▁ठ	-9.16511
▁सुरक्षित	-9.16546
▁जरूरी	-9.16614
▁लेते	-9.16727
▁परिषद	-9.16849
िस	-9.16859
▁–	-9.16904
▁अंतरराष्ट्रीय	-9.16995
वार	-9.17151
▁मह	-9.1724
▁स्वरूप	-9.17318
▁ड	-9.17482
यें	-9.17522
ेट	-9.17545
▁ब्याज	-9.17574
▁पारित	-9.17618
ष्ट	-9.17657
▁बनाना	-9.17736
▁वी	-9.17884
u	-9.17935
वाह	-9.17974
00	-9.18022
k	-9.18052
▁सर्व	-9.18074
▁निकट	-9.18209
▁कहना	-9.1848
f	-9.18786
यी	-9.18796
▁जान	-9.18852
त्	-9.18863
▁मात्र	-9.18959
▁सू	-9.18967
▁सलाह	-9.19076
▁डॉ	-9.19158
▁डि	-9.19304
▁खाद्य	-9.19441
▁आदमी	-9.19445
▁रोक	-9.19638
▁छोटा	-9.19676
▁काव्य	-9.19687
▁डेटा	-9.19878
लि	-9.20019
▁अर्थव्यवस्था	-9.20046
▁उपाय	-9.20195
▁कौन	-9.20584
▁डा	-9.20614
▁उपस्थित	-9.20677
▁गर्इ	-9.20723
▁तकनीकी	-9.20849
▁उद्यम	-9.20948
▁मिली	-9.2123
▁सका	-9.21236
▁अंदर	-9.21275
कृत	-9.21382
▁पदार्थ	-9.21383
▁तरफ	-9.21466
▁आदर्श	-9.21504
▁मित्र	-9.21563
मो	-9.21592
▁संपूर्ण	-9.21612
▁लगाया	-9.21678
व्य	-9.21815
ांत	-9.2192
▁इजरायल	-9.22012
▁हैः	-9.22127
▁मर	-9.22152
▁होनी	-9.22179
वल	-9.22194
▁मौजूद	-9.22273
▁कार्यों	-9.22326
▁तेल	-9.22388
▁अधिकारों	-9.22416
▁स्वतंत्र	-9.22435
चर	-9.22441
्यु	-9.22566
▁सौ	-9.22633
र्क	-9.22633
▁नियुक्त	-9.22635
▁समुदाय	-9.22744
▁कहानी	-9.2275
▁वाणिज्यिक	-9.22843
▁सात	-9.22861
्यू	-9.22936
▁दृश्य	-9.22962
▁पहला	-9.23
▁अप्रैल	-9.2325
▁तर्क	-9.23356
यर	-9.23463
▁पश्चिमी	-9.23474
पूर्वक	-9.23475
▁मार्च	-9.23551
▁तेजी	-9.23552
▁तथ्य	-9.2366
▁स्थायी	-9.23687
▁विद्यमान	-9.23872
▁हानि	-9.24113
▁परीक्षण	-9.24115
▁महिलाओं	-9.24146
िश	-9.24307
▁शेष	-9.24356
हर	-9.24377
▁अरब	-9.24606
▁भाई	-9.24625
▁रात	-9.24769
▁पार्टी	-9.24849
▁खाता	-9.24945
▁चुके	-9.25106
▁वार्षिक	-9.25113
ियाँ	-9.25213
▁कीमत	-9.2525
▁नागरिक	-9.25277
▁क्रम	-9.25494
राम	-9.25504
यन	-9.25513
▁रहना	-9.25545
▁निर्वाचन	-9.25621
▁निगम	-9.25717
▁डे	-9.25753
▁विद्युत	-9.25916
▁कृपया	-9.26113
▁पाकिस्तान	-9.26113
▁समुद्र	-9.26179
रूप	-9.26213
कु	-9.2637
▁मानसिक	-9.26439
▁मजबूत	-9.26471
सर	-9.26473
टर	-9.26488
▁शताब्दी	-9.26606
▁बनी	-9.26608
A	-9.26693
▁परामर्श	-9.26835
खा	-9.26842
▁बैठक	-9.26948
ल्ल	-9.27028
▁आपका	-9.27034
▁सम्बन्ध	-9.27048
रिया	-9.27088
▁महसूस	-9.27102
▁विस्तृत	-9.27152
▁गुना	-9.27188
▁बु	-9.27296
युक्त	-9.27368
▁योग	-9.27435
हीन	-9.27582
▁वातावरण	-9.27651
▁संचार	-9.27703
▁अंश	-9.27748
▁शून्य	-9.27761
३०	-9.27803
▁वेतन	-9.27896
▁कर्मचारियों	-9.27901
▁प्रमाण	-9.27955
▁निर्	-9.28096
▁लाने	-9.28112
▁इस्लाम	-9.28128
▁निकाल	-9.28253
▁प्राप्ति	-9.2835
▁गांव	-9.28387
ेन	-9.28388
▁विदेश	-9.28453
▁वस्तुओं	-9.28475
▁रोजगार	-9.28507
▁सूक्ष्म	-9.28656
▁ग्रहण	-9.28698
▁निर्मित	-9.28709
▁दायित्व	-9.28722
▁खो	-9.28764
▁स्रोत	-9.28789
▁गिर	-9.28861
▁ब्र	-9.28877
▁बीज	-9.28897
▁जिन्होंने	-9.28909
ेज	-9.28912
n	-9.28941
▁अत्यधिक	-9.29011
▁जोड़	-9.29101
▁दोष	-9.29262
वान	-9.29325
▁परिस्थितियों	-9.29328
्न	-9.29358
▁ग्राम	-9.29432
▁कल्पना	-9.29473
▁वायु	-9.29633
बे	-9.29669
▁प्रसिद्ध	-9.29686
▁मार	-9.29712
▁मो	-9.29712
▁दिये	-9.29717
वें	-9.29743
▁संकल्प	-9.2978
न्त	-9.29932
r	-9.30034
▁चयन	-9.30047
▁नियमित	-9.30197
▁अगले	-9.30419
▁सरल	-9.30454
▁खा	-9.30491
▁उपन्यास	-9.30761
दर	-9.30833
▁त्रुटि	-9.30838
▁आए	-9.30953
▁एफ	-9.3096
▁हल	-9.30967
▁प्रधानमंत्री	-9.31009
▁यथा	-9.31078
▁करार	-9.31228
▁हवा	-9.31337
E	-9.3135
▁सामना	-9.31353
ेल	-9.31374
▁बह	-9.31446
▁आयुक्त	-9.31486
▁आरोप	-9.31496
▁समस्याओं	-9.31515
▁इतनी	-9.31526
▁भाषण	-9.31534
तु	-9.31586
▁मिलने	-9.31735
▁चुनाव	-9.31828
▁श्रेणी	-9.31929
▁कानूनी	-9.31963
▁शुद्ध	-9.32145
▁प्रत्यक्ष	-9.32202
▁पत्नी	-9.32204
▁ना	-9.32214
▁आती	-9.32442
▁छात्र	-9.32571
▁सांस्कृतिक	-9.32677
▁बढ़ाने	-9.32731
▁तत्व	-9.32757
▁लेखक	-9.32924
▁कराने	-9.33043
▁दावा	-9.33195
ेश	-9.33385
▁जोर	-9.3342
▁हालांकि	-9.33468
क्त	-9.33471
ोन	-9.33611
▁अनुवाद	-9.3369
▁क्षेत्रीय	-9.33833
द्र	-9.33916
राज	-9.33947
▁अंक	-9.33986
▁निरंतर	-9.34
▁अस	-9.34072
p	-9.34178
ज़ा	-9.3435
▁अनुकूल	-9.34592
ही	-9.34713
▁पड़	-9.34738
▁अधिकरण	-9.3485
▁गणराज्य	-9.34857
▁व्या	-9.34997
▁मौसम	-9.35019
▁पु	-9.35062
▁प्राधिकरण	-9.35125
▁स्थल	-9.35153
▁देव	-9.35186
▁बावजूद	-9.35233
▁मेल	-9.35347
▁हिंदू	-9.35405
▁नामक	-9.35571
सु	-9.3564
▁लगी	-9.35689
ंध	-9.35735
पो	-9.35829
▁सच	-9.35837
▁मामला	-9.35899
▁कै	-9.35904
▁आतंकवाद	-9.35915
▁d	-9.35917
▁अदालत	-9.35992
▁कल्याण	-9.361
ाने	-9.36138
याँ	-9.36209
▁मुसलमानों	-9.36342
▁पाठ	-9.36417
ar	-9.36494
▁बढ़ा	-9.36518
आर	-9.36576
▁पेज	-9.36604
ियन	-9.3661
▁इनके	-9.36611
▁आयात	-9.36613
कि	-9.36613
▁हिंदी	-9.36684
▁इंडिया	-9.3687
▁भेज	-9.36964
▁प्रायः	-9.37157
▁शीघ्र	-9.37233
▁महीने	-9.3731
▁लेख	-9.37369
▁आये	-9.37383
▁पुत्र	-9.37467
M	-9.37522
▁कर्मचारी	-9.37528
ाँ	-9.3775
भाव	-9.378
▁उक्त	-9.37815
▁अधिकतम	-9.37945
▁शा	-9.37964
▁निदेशक	-9.38129
▁पुनर्	-9.38166
▁अधिकारिता	-9.38232
▁रुपये	-9.38273
▁मानक	-9.383
सन	-9.38312
▁विजय	-9.38419
▁डाल	-9.385
▁गठन	-9.38524
▁शाखा	-9.38662
▁संस्थाओं	-9.38692
▁भार	-9.38695
▁तट	-9.38748
▁खास	-9.38804
▁प्रतिक्रिया	-9.38811
▁P	-9.38962
▁सीधे	-9.38971
▁इत्यादि	-9.38972
ेड	-9.39083
▁निकल	-9.39175
▁सारी	-9.39211
न्न	-9.39238
स्प	-9.39334
▁पै	-9.39372
▁बिजली	-9.3942
▁गृह	-9.39558
▁शैली	-9.3966
▁सिस्टम	-9.39718
ोप	-9.39728
▁साफ	-9.39764
▁तुम्हें	-9.39779
▁एच	-9.39797
▁मां	-9.39961
लो	-9.3999
▁लो	-9.40019
▁मूल्यांकन	-9.40051
▁प्रो	-9.4006
▁डाक	-9.40209
रत	-9.40244
▁जवाब	-9.40381
▁साक्ष्य	-9.40442
▁स्वामी	-9.40582
▁प्रतीक	-9.4062
▁संग्रह	-9.40829
▁प्रचार	-9.40879
वन	-9.40887
गो	-9.40958
नीय	-9.40979
▁आनंद	-9.41019
▁मिलती	-9.41026
▁अंतरण	-9.41038
▁मान्यता	-9.41068
▁उपभोक्ता	-9.41122
िता	-9.41176
▁साधन	-9.41285
▁आक्रमण	-9.41308
निक	-9.41392
▁लगाने	-9.41398
▁कारबार	-9.41413
▁प्रावधान	-9.41472
▁जल्दी	-9.41694
▁तभी	-9.41709
▁रखे	-9.41839
ोर	-9.41872
डे	-9.41997
र्ड	-9.41997
▁मुख	-9.42145
▁हजार	-9.42227
▁पुराने	-9.42268
र्न	-9.42317
▁नोट	-9.42611
▁कृष्ण	-9.42683
▁समस्त	-9.42729
चा	-9.42789
▁प्रयुक्त	-9.42795
I	-9.42812
▁पात्र	-9.42822
▁जून	-9.42848
▁T	-9.42882
▁अस्तित्व	-9.42912
▁सवाल	-9.43069
स्क	-9.4308
▁जाय	-9.43119
बर	-9.4312
▁रुपए	-9.4312
▁पहल	-9.43212
▁गैस	-9.43219
▁नेता	-9.43317
▁वै	-9.43346
▁देखभाल	-9.43496
▁नव	-9.43613
▁मशीन	-9.43635
▁समाचार	-9.43853
▁लोकतंत्र	-9.43985
▁आपने	-9.44011
▁प्रयत्न	-9.44025
▁कं	-9.44126
▁जनवरी	-9.44384
▁शीर्ष	-9.44524
▁कथा	-9.44662
▁तेज	-9.44662
▁C	-9.44679
▁प्रतीत	-9.4468
रों	-9.44723
ियो	-9.44748
एल	-9.44817
▁मानते	-9.44843
च्छ	-9.44979
▁राजनैतिक	-9.45032
▁शिव	-9.45062
▁इन्हें	-9.45153
▁जायेगा	-9.4525
▁पथ	-9.45252
▁महत्त्वपूर्ण	-9.45343
दान	-9.45465
▁बढ़ावा	-9.45496
▁कटौती	-9.45628
▁दिल	-9.45715
▁पंजाब	-9.45807
▁न्यायाधीशों	-9.45891
▁नजर	-9.45926
स्ट्र	-9.45952
▁नेतृत्व	-9.46048
▁गतिविधियों	-9.46185
al	-9.46317
द्	-9.46334
▁प्रेरित	-9.46344
▁वितरण	-9.4635
P	-9.46386
पति	-9.46411
▁विषयों	-9.46411
▁रोगी	-9.46442
▁बिक्री	-9.4653
▁तय	-9.46683
▁चेतना	-9.46715
▁रखी	-9.46766
▁जमीन	-9.46786
र्ट	-9.46793
▁प्रोत्साहन	-9.46834
▁स्मृति	-9.46834
▁मुसलमान	-9.46867
▁विद्यार्थियों	-9.46894
मु	-9.46902
▁द्वार	-9.47014
▁प्राधिकारी	-9.47152
▁घरेलू	-9.47258
▁हु	-9.47353
िट	-9.47358
शि	-9.47411
▁प्रकाशन	-9.47577
ुक	-9.47592
▁शुभकामनाएं	-9.47687
▁चलता	-9.47801
▁प्रदर्शित	-9.47807
▁प्राण	-9.47871
▁स्वागत	-9.47888
d	-9.47962
▁टन	-9.48004
▁मिशन	-9.48018
▁एशिया	-9.48023
▁उनको	-9.48025
ंगी	-9.48029
ल्	-9.48069
▁बर	-9.48091
ची	-9.48109
्क	-9.48162
▁जि	-9.48163
an	-9.48167
ज्	-9.48191
▁थ	-9.48419
▁बनाई	-9.48511
एम	-9.48555
▁भौतिक	-9.48568
▁जोखिम	-9.48729
▁असम	-9.48746
गर	-9.48771
▁खुशी	-9.48857
▁आपूर्ति	-9.48866
re	-9.48884
▁प्राथमिक	-9.48928
▁आध्यात्मिक	-9.48976
▁शारीरिक	-9.48976
▁स्थानों	-9.49115
ाया	-9.49131
पाल	-9.49136
▁दस्तावेज	-9.4919
▁मगर	-9.49265
▁मद	-9.49307
जे	-9.49331
मि	-9.4943
▁अभिव्यक्ति	-9.49502
एस	-9.4953
त्य	-9.49627
▁पहुंचा	-9.49634
▁स्पष्टीकरण	-9.49672
▁विमान	-9.49677
▁तरीका	-9.49722
ीन	-9.49727
▁घोषित	-9.49764
▁न्यू	-9.4985
▁लौट	-9.49869
▁बाबत	-9.4991
▁अपेक्षित	-9.49972
▁लिखित	-9.50025
▁उठ	-9.50039
▁प्रसन्नता	-9.50148
▁अवश्य	-9.50171
▁बैंकों	-9.50183
▁भागों	-9.50188
▁सामान	-9.50191
▁सुना	-9.50196
▁शक्तियों	-9.50266
▁भूल	-9.50294
▁छूट	-9.50324
ज्ञ	-9.50412
गु	-9.50416
▁मंच	-9.50454
▁नष्ट	-9.50475
▁तु	-9.50533
▁चीज	-9.5056
क्ति	-9.50669
▁हस्ताक्षर	-9.50725
▁गुरु	-9.50831
▁चरण	-9.50872
▁मिले	-9.50963
▁देखें	-9.50973
▁तकनीक	-9.51094
▁वा	-9.51103
▁कार्यक्रमों	-9.51323
▁अंतर्राष्ट्रीय	-9.51422
▁पश्चात	-9.5144
▁B	-9.51493
▁मिलकर	-9.51541
ुल	-9.51643
▁सुंदर	-9.5171
▁दिखा	-9.51768
▁सर्वोच्च	-9.51801
▁इकाई	-9.51882
▁अभियान	-9.51974
▁छह	-9.51992
▁ऑ	-9.52013
ग्	-9.52048
▁श्रेणीः	-9.52201
ार्थ	-9.52228
िम	-9.52305
▁औसत	-9.52312
▁चीन	-9.52336
दि	-9.52463
▁आयोजन	-9.5249
फा	-9.52587
▁वीडियो	-9.52594
▁स्त्री	-9.52594
▁चुकी	-9.52721
चार	-9.5274
हित	-9.52891
▁निहित	-9.52985
▁मतलब	-9.53019
▁गीत	-9.53069
ोल	-9.53181
▁लें	-9.53191
▁अनुमान	-9.53308
▁मुंबई	-9.53341
वाली	-9.53377
▁सेवाएं	-9.53484
▁लेता	-9.53516
कल	-9.53592
▁बातों	-9.5369
▁करेगी	-9.53734
▁चले	-9.5375
▁कठोर	-9.5386
▁वजह	-9.5386
▁सेट	-9.53902
▁ऐतिहासिक	-9.5399
▁वालों	-9.53996
▁विंडो	-9.54043
▁खोल	-9.54078
▁प्रमाणपत्र	-9.54129
▁जनसंख्या	-9.54185
▁विरोधी	-9.54234
▁गंगा	-9.54253
▁परिणामस्वरूप	-9.54319
▁लगातार	-9.5433
▁नियुक्ति	-9.54347
▁पाए	-9.54485
नों	-9.54525
ढ	-9.54539
▁अगस्त	-9.54585
ल्स	-9.54608
द्व	-9.54622
▁अभिलेख	-9.54717
▁फिल्म	-9.54737
▁हत्या	-9.54781
▁आंतरिक	-9.54841
▁बढ	-9.54884
▁त्रि	-9.54976
▁पसंद	-9.55037
▁संसाधनों	-9.55088
▁खिलाफ	-9.5522
▁अर	-9.55259
▁पति	-9.55318
▁विधिक	-9.55319
▁जाँच	-9.55367
▁रीति	-9.55404
▁रखता	-9.55471
▁विश्लेषण	-9.55492
लर	-9.55561
▁सप्ताह	-9.55631
▁सत्र	-9.5569
▁प्रशासनिक	-9.55735
देश	-9.55853
ाइ	-9.55945
▁सड़क	-9.55963
▁डर	-9.55991
▁संचालन	-9.56028
र्ज	-9.56042
हन	-9.56048
▁वैश्विक	-9.56102
▁बजाय	-9.56129
▁अग्र	-9.56172
▁पो	-9.562
▁बातें	-9.56226
▁सार	-9.56253
▁बैठ	-9.56257
▁निष्कर्ष	-9.56295
▁चिंता	-9.56368
▁क्र	-9.56423
▁न्यूनतम	-9.56428
▁नेहरू	-9.56562
▁रेल	-9.566
▁पकड़	-9.56609
▁हासिल	-9.56632
▁आठ	-9.56662
पक	-9.56746
▁मस्तिष्क	-9.56847
▁अल्प	-9.56858
▁श्रम	-9.56914
▁संसार	-9.56932
▁फसल	-9.56953
▁कौशल	-9.56964
▁नियत	-9.57122
▁नागरिकों	-9.57244
on	-9.57361
बंध	-9.57392
▁कथन	-9.57446
▁मई	-9.57509
▁वन	-9.5762
ात	-9.5776
▁मल	-9.57816
नो	-9.57886
▁विचारण	-9.57906
▁आसान	-9.57961
ुआ	-9.58062
▁विहित	-9.58162
स्व	-9.58181
▁कलकत्ता	-9.58245
िर	-9.58278
▁पृथ्वी	-9.58313
▁कमजोर	-9.58314
ाक	-9.58373
न्ड	-9.58443
▁उपयोगी	-9.58473
ांग	-9.58509
▁अफ्रीका	-9.58517
▁जाएं	-9.58528
▁पढ़	-9.58554
▁महामहिम	-9.58585
▁उम्र	-9.58593
▁सुख	-9.58598
▁जुड़े	-9.58618
गल	-9.58679
▁बनने	-9.58786
▁ढ	-9.58819
▁प्रोग्राम	-9.58891
▁कश्मीर	-9.59063
▁सुभाष	-9.59081
▁संबंधों	-9.5912
▁लोकप्रिय	-9.59142
▁बीमारी	-9.59167
▁अस्पताल	-9.592
▁सहकारी	-9.59242
▁शुरुआत	-9.59269
ष्ठ	-9.59297
▁सूर्य	-9.59393
▁छोड़कर	-9.59426
▁कुंजी	-9.59473
▁ii	-9.59538
m	-9.59613
▁वैसे	-9.59649
▁सर्वाधिक	-9.59694
▁लक्षण	-9.59695
c	-9.59789
▁संबद्ध	-9.59836
▁जेल	-9.59918
▁सृजन	-9.59935
▁संविदा	-9.60029
द्द	-9.60035
भा	-9.60292
▁मीडिया	-9.60309
▁आस	-9.60355
▁विशेषकर	-9.6036
था	-9.60364
जि	-9.60437
▁रस	-9.6047
▁अस्थि	-9.60493
द्ध	-9.60591
▁चलते	-9.60645
ियम	-9.60773
▁स्वा	-9.60786
▁पूजा	-9.60793
O	-9.60808
ियर	-9.6091
▁अनुरूप	-9.60966
पट	-9.6101
▁संगठनों	-9.61074
▁शिकार	-9.61151
▁करीब	-9.6128
▁डिस्क	-9.61312
▁यूरोप	-9.61344
▁पीड़ित	-9.61419
▁बदलाव	-9.6142
▁दर्ज	-9.61435
चे	-9.61577
▁लिख	-9.61582
▁b	-9.61615
▁शि	-9.61617
▁हटा	-9.61681
▁विपरीत	-9.61699
▁न्यायमूर्ति	-9.61706
न्ध	-9.6172
▁चक्र	-9.61725
▁मास	-9.61816
▁बातचीत	-9.6191
धार	-9.61917
िनी	-9.62163
▁त्याग	-9.6219
▁विविध	-9.62226
▁समुचित	-9.62263
▁बुनियादी	-9.6233
जनक	-9.62337
▁परस्पर	-9.62549
▁दशक	-9.62557
▁प्रतिनिधित्व	-9.62702
दन	-9.62718
▁उद्योगों	-9.62767
▁विभाजन	-9.62817
▁बुद्धि	-9.62865
▁चू	-9.62898
▁संकट	-9.62932
▁असफल	-9.63017
पत	-9.63049
▁दूध	-9.63056
▁समझौता	-9.63159
▁तार	-9.63416
▁पूर्ववर्ष	-9.63492
▁किसानों	-9.63524
▁क्षति	-9.63555
ाह	-9.63564
▁चा	-9.63571
न्स	-9.63665
ान्त	-9.63907
▁अनुरोध	-9.63994
▁कुमार	-9.64006
्रा	-9.64161
इस	-9.64254
ङ	-9.64322
भि	-9.64349
▁उद्	-9.64386
▁तल	-9.64433
▁किस्म	-9.64549
▁स्कीम	-9.64652
तक	-9.64664
▁रू	-9.64677
▁प्रबंध	-9.6474
क्र	-9.64745
▁परिवहन	-9.64773
▁सरकारों	-9.64793
सि	-9.6491
▁वीर	-9.64934
गार	-9.64936
▁भगवान	-9.6507
▁एंड	-9.6507
▁कर्तव्य	-9.65093
▁प्रस्तावित	-9.65097
▁गुप्त	-9.65198
ऊ	-9.65214
िय	-9.65246
▁लाइन	-9.65271
एफ	-9.65276
देव	-9.65332
▁बो	-9.65385
▁जाएंगे	-9.65386
▁वकील	-9.65424
▁p	-9.65524
मित	-9.6568
▁नौ	-9.65743
▁क्	-9.65753
▁पड़े	-9.65796
▁मंडल	-9.65829
▁अन्त	-9.65839
▁मीटर	-9.65863
▁बचा	-9.65871
विक	-9.6597
▁पहुँच	-9.65972
▁व्याख्या	-9.66004
▁जहाज	-9.66326
▁आस्ति	-9.66361
▁पूर्वी	-9.66392
▁हिंसा	-9.66452
▁इतने	-9.66525
▁रेखा	-9.66571
▁टीम	-9.66591
▁आफ	-9.6661
C	-9.66615
▁भेजा	-9.66641
▁अक्सर	-9.66672
▁उत्पादों	-9.66704
▁कार्ड	-9.66772
▁मू	-9.6684
▁सचिव	-9.66897
▁धारण	-9.66912
▁खान	-9.66921
▁आनन्द	-9.66963
▁अन्दर	-9.66972
त्मक	-9.66993
▁जिले	-9.67004
▁कक्ष	-9.67025
लय	-9.67029
▁अमेरिकी	-9.67041
▁प्रेरणा	-9.67149
▁फूल	-9.67198
ेंगे	-9.67236
धा	-9.67256
पत्र	-9.67268
▁नयी	-9.67273
भूत	-9.67284
▁चुनौती	-9.67339
▁अर्थात	-9.67388
▁निकाय	-9.67402
ाइट	-9.67545
नु	-9.67631
ंब	-9.67687
T	-9.67699
▁देवी	-9.67815
▁निदेश	-9.67824
▁पत्थर	-9.67861
ेस	-9.67874
▁M	-9.67961
▁संसदीय	-9.67974
▁सर्वेक्षण	-9.6801
धि	-9.6802
▁निभा	-9.68039
▁महाराष्ट्र	-9.68042
▁राज्यपाल	-9.68053
ल्ड	-9.68056
▁ईसा	-9.68065
▁उत्साह	-9.68085
▁वेब	-9.6813
▁घटा	-9.68301
▁तीव्र	-9.6839
▁x	-9.68423
▁अवि	-9.68474
▁अभियुक्त	-9.68501
▁साबित	-9.68536
or	-9.68622
▁अभाव	-9.68647
▁ज़	-9.68661
▁अभिप्रेत	-9.68686
▁भागीदारी	-9.68784
x	-9.68795
र्म	-9.68804
▁निश्चय	-9.68838
डर	-9.68876
र्ग	-9.68886
▁अनुपात	-9.68928
▁लड़	-9.69047
▁देगा	-9.69057
N	-9.69085
▁मूल्यों	-9.69179
▁लिखी	-9.69211
▁अकबर	-9.69224
▁यंत्र	-9.6923
▁माह	-9.69244
▁नवान्वेषण	-9.69305
▁दूरी	-9.69307
▁अम	-9.69326
▁वहीं	-9.69446
▁सर्वर	-9.6961
्ट	-9.69613
▁छवि	-9.69655
▁परिवर्तित	-9.69675
दे	-9.69773
▁प्रारंभिक	-9.698
▁अनुप्रयोग	-9.69816
▁संस्करण	-9.69976
R	-9.7009
▁गठित	-9.70129
▁मौजूदा	-9.70243
ीकृत	-9.70348
▁अन्यथा	-9.70408
▁समन्वय	-9.70512
–	-9.70578
▁समीक्षा	-9.70589
▁सभ्यता	-9.70608
चन	-9.70636
▁स्था	-9.70739
▁स्क	-9.70786
िज	-9.70856
▁शाह	-9.70874
ुर	-9.71013
▁आवाज	-9.71263
▁कॉ	-9.71276
ंगे	-9.7129
▁समग्र	-9.71299
प्	-9.71535
क़	-9.71544
▁उतर	-9.71617
▁सुविधाओं	-9.71751
▁नैतिक	-9.71756
▁भाषाओं	-9.71771
▁समाप्ति	-9.71821
▁सुसंगत	-9.71826
▁मैदान	-9.7192
▁उम्मीद	-9.71931
▁वर्षा	-9.7196
▁सम्बन्धी	-9.71978
▁पवित्र	-9.7206
▁अंतर्	-9.72152
▁परमाणु	-9.72218
▁लिखने	-9.72248
▁आचरण	-9.72315
ेगा	-9.72335
▁सतह	-9.72432
▁नुकसान	-9.7245
▁द्वितीय	-9.72451
ृत	-9.72456
▁चीज़	-9.72488
▁आवास	-9.72624
र्द	-9.72642
▁परियोजनाओं	-9.72705
मेंट	-9.72708
en	-9.72727
▁प्रोत्साहित	-9.72765
▁आमतौर	-9.72921
▁सॉफ्टवेयर	-9.72921
▁नर	-9.72974
▁रोकने	-9.73001
▁G	-9.73034
न्ट	-9.73186
▁कतिपय	-9.73236
▁उपक्रम	-9.73283
▁प्रतिनिधि	-9.73285
▁देखकर	-9.73325
▁आकर्षित	-9.73394
▁खाने	-9.73419
▁पाई	-9.73424
▁जुलाई	-9.73492
▁बै	-9.7357
▁कोड	-9.73582
▁फीस	-9.73627
▁आशय	-9.73633
ेय	-9.73811
िड	-9.73849
वाल	-9.73855
▁शैक्षिक	-9.73869
▁कीट	-9.73919
▁ज्ञात	-9.73935
▁आरम्भ	-9.74061
D	-9.74101
▁कम्प	-9.74232
▁रखें	-9.74287
▁बाह्य	-9.74303
▁पशु	-9.74345
योग	-9.74366
▁करो	-9.74654
ॉँ	-9.74693
क़्	-9.74798
स्टर	-9.74801
▁निवास	-9.74816
यू	-9.7488
ेश्वर	-9.74893
्ल	-9.74929
वां	-9.75007
▁बिल्कुल	-9.75067
▁हवाई	-9.75088
ेक	-9.75127
बू	-9.75162
▁अधिवक्ता	-9.75216
b	-9.75317
▁जानता	-9.75369
▁चूंक	-9.75426
▁परंपरा	-9.75432
ताओं	-9.75464
▁संलग्न	-9.7547
▁आग्रह	-9.75529
▁जीवित	-9.75535
▁सहज	-9.75545
▁नियंत्रित	-9.75631
गे	-9.75634
▁उभर	-9.75747
▁व्यावसायिक	-9.75793
▁पाठ्यक्रम	-9.75795
▁ख़	-9.75798
▁देकर	-9.75859
▁देर	-9.75989
▁दि	-9.76021
▁अधिकतर	-9.76033
ic	-9.76045
▁प्रसार	-9.76074
वत	-9.76092
▁जिनक	-9.76194
▁केरल	-9.76213
▁ग्राहक	-9.76237
▁रहेगा	-9.7624
▁जितना	-9.76249
▁चरित्र	-9.76364
▁द्वि	-9.76371
शास्त्र	-9.76476
▁लिमिटेड	-9.76606
▁स्तंभ	-9.76607
▁उत्	-9.76652
▁खुले	-9.7667
▁मुद्दों	-9.76688
▁कितना	-9.7671
▁मानवीय	-9.76815
▁तुरंत	-9.76933
▁मिट्टी	-9.7702
▁जड़	-9.77024
▁सहमत	-9.77088
▁मुश्किल	-9.77097
▁लेखन	-9.77111
▁शोध	-9.77118
▁g	-9.77207
▁चलो	-9.7725
▁निष्पादन	-9.77262
▁गुजरात	-9.77361
ाद	-9.77391
्ज	-9.77394
▁फार्म	-9.77399
▁खाना	-9.77629
▁धु	-9.77637
▁भंडार	-9.77703
मत	-9.77703
▁प्रारूप	-9.77856
L	-9.77863
▁दबाव	-9.77937
▁लाया	-9.77976
▁टे	-9.77993
▁घंटे	-9.78003
▁आसानी	-9.78102
टन	-9.78157
▁सरदार	-9.78315
▁शिखर	-9.78335
▁थोड़ा	-9.78335
▁आग	-9.78344
पे	-9.78352
्ले	-9.78377
▁समझौते	-9.78394
तया	-9.78492
▁प्यार	-9.78503
▁युक्त	-9.78513
▁प्रतिभा	-9.78516
▁गोल	-9.78527
कालीन	-9.78563
▁सदा	-9.78571
▁जटिल	-9.78591
▁याचिका	-9.78643
▁आसपास	-9.78667
▁प्रभार	-9.78734
▁लंबे	-9.78761
ूँ	-9.78808
▁मकान	-9.78836
▁विरूद्ध	-9.78841
▁D	-9.7886
▁अन्तर्गत	-9.78933
▁सहमति	-9.78951
आई	-9.78972
▁एकमात्र	-9.79021
▁घटनाओं	-9.79026
▁प्राथमिकता	-9.79066
▁अन्तर	-9.79068
▁फोन	-9.79112
▁अनुदान	-9.79205
▁नेपाल	-9.79216
▁इंटरनेट	-9.79253
▁कारणों	-9.79353
▁बढ़ती	-9.79461
▁बिंदु	-9.79482
▁इनका	-9.79541
▁चे	-9.79555
वाई	-9.79599
▁समा	-9.79604
कल्प	-9.79611
B	-9.79659
▁महात्मा	-9.79675
▁साक्षी	-9.79683
▁क्ल	-9.79693
▁फा	-9.79708
▁विमर्श	-9.7984
▁पेड़	-9.79947
▁पैरा	-9.79974
्ड	-9.80007
▁जिनकी	-9.8002
त्ता	-9.80087
▁दूसरों	-9.80093
▁प्रार्थना	-9.80093
▁श्रृंखला	-9.80093
डो	-9.80139
जर	-9.80142
▁यु	-9.80275
▁उत्तरी	-9.80339
▁बोस	-9.8065
▁वर्ण	-9.80661
▁सदैव	-9.80686
▁प्रथा	-9.80751
▁मं	-9.80755
▁नेताओं	-9.80786
▁बच	-9.80817
▁खेती	-9.80924
▁लिखे	-9.80934
णी	-9.81039
शोथ	-9.81066
▁आहार	-9.81078
लिंग	-9.8118
▁जाकर	-9.81195
▁एकल	-9.81228
▁हैंः	-9.81308
▁c	-9.81409
▁चुन	-9.81434
▁कितनी	-9.81549
▁राजस्थान	-9.81552
▁प्रतिकूल	-9.81561
▁रास्ता	-9.81635
▁प्रचलित	-9.81712
▁पंजीकरण	-9.81722
▁असमर्थ	-9.81805
▁आपराधिक	-9.81884
्ति	-9.8189
▁I	-9.81903
सो	-9.81941
▁अप्र	-9.81955
▁खतरा	-9.82143
▁अग्रिम	-9.82152
▁रद्द	-9.82169
▁ताकत	-9.82194
▁कार्यान्वयन	-9.8223
▁कंपनियों	-9.82315
▁मालिक	-9.82348
क्षण	-9.82444
ंगा	-9.82464
▁अनुसूचित	-9.82487
लेट	-9.82588
it	-9.82617
▁शहरी	-9.82679
▁समझने	-9.82688
िये	-9.82706
▁मोबाइल	-9.82834
▁चौ	-9.82869
▁मालूम	-9.82921
▁चोट	-9.83066
▁बनाये	-9.83128
र्व	-9.83147
▁संयंत्र	-9.83202
एन	-9.83204
et	-9.83237
▁जनरल	-9.83271
▁दुख	-9.83301
h	-9.83309
▁संदेह	-9.83464
▁यूनिट	-9.83532
क्षा	-9.8363
▁उठाने	-9.83655
▁शीर्षक	-9.83667
▁भावी	-9.8374
▁जरिए	-9.83795
▁f	-9.83842
चि	-9.83858
▁प्रेस	-9.84087
▁खींच	-9.84146
▁स्थिर	-9.84158
▁दान	-9.84341
▁दवा	-9.84376
▁मॉडल	-9.84412
▁राजनीति	-9.8448
▁फैल	-9.84488
▁वरिष्ठ	-9.84501
▁किनारे	-9.84502
▁विश्वविद्यालयों	-9.84526
▁विधियों	-9.84537
▁प्रवाह	-9.84549
र्ण	-9.84662
▁हि	-9.84672
▁पूर्ति	-9.8469
▁जैव	-9.84794
▁अर्	-9.84864
▁साम्राज्य	-9.84904
▁हिस्से	-9.84937
▁शर्तों	-9.84939
वास	-9.85001
▁परिषद्	-9.85038
▁अर्ध	-9.85056
▁रेलवे	-9.8507
मिन	-9.85164
र्थ	-9.85216
जो	-9.85228
▁देंगे	-9.8528
टो	-9.85351
v	-9.85422
▁एकता	-9.8556
▁रास्ते	-9.85564
es	-9.85618
▁ग्र	-9.85625
▁फ़िल्म	-9.85653
▁दिव्य	-9.85676
▁चलाने	-9.85778
ब्	-9.85787
▁पोषण	-9.85838
▁प्रविष्टि	-9.85885
▁अनुसूची	-9.85929
▁फरवरी	-9.86012
▁हितों	-9.86119
विज्ञान	-9.86123
ष्	-9.86192
▁तंत्रिका	-9.8622
▁सै	-9.86313
डि	-9.86403
नाम	-9.86449
▁दर्शा	-9.86493
▁राजस्व	-9.86494
▁धारणा	-9.86517
ाकार	-9.86534
▁प्रतिभूति	-9.86544
▁स्वस्थ	-9.86617
▁किसान	-9.86622
▁निरीक्षण	-9.8664
▁पूछा	-9.86652
▁समर्पित	-9.8673
▁विद्यालय	-9.86735
▁स्वीकृति	-9.86837
णा	-9.86843
लैंड	-9.86889
▁सर्वोत्तम	-9.86911
▁पुरान	-9.86933
▁परम	-9.86958
▁भंडारण	-9.87149
▁अनुसरण	-9.87183
▁तिथि	-9.87191
▁लंबी	-9.87193
▁करा	-9.87204
मैन	-9.8724
▁चु	-9.87376
▁पाते	-9.87392
▁स्वर	-9.87401
लु	-9.87417
गन	-9.87442
▁गहन	-9.87443
चक	-9.87458
▁समृद्ध	-9.87473
▁हाथों	-9.8748
▁वर्गों	-9.87598
▁दीवार	-9.87598
▁उपस्थिति	-9.87611
▁n	-9.87753
▁फर्म	-9.87758
▁ध्वनि	-9.87862
▁सौर	-9.87986
घात	-9.88076
▁मृत्युदंड	-9.88099
▁विनय	-9.88111
श्त	-9.88213
▁दबा	-9.88231
▁क्रिकेट	-9.88278
▁सम्पूर्ण	-9.88303
▁संदाय	-9.88303
तन	-9.88346
▁दुर्घटना	-9.88369
▁चालू	-9.8841
▁उपर	-9.88454
▁तुम्हारे	-9.88504
▁विनिमय	-9.88557
▁न्यास	-9.88579
▁हिंदुस्तान	-9.88646
▁सागर	-9.88688
▁युक्ति	-9.88695
▁निपटान	-9.88735
▁...	-9.88829
▁संक्षिप्त	-9.88829
▁खड़ा	-9.88882
▁उधार	-9.88899
▁पंक्ति	-9.88917
▁परिभाषित	-9.88983
▁एड	-9.88992
▁आकर	-9.89036
▁प्रवृत्ति	-9.89084
▁L	-9.89184
चित	-9.89248
ट्ट	-9.89295
▁अना	-9.89299
▁संक्रमण	-9.89305
दास	-9.89363
हि	-9.89371
▁नीतियों	-9.8938
▁पर्यटन	-9.89384
▁कोशिका	-9.89434
यु	-9.89531
▁प्रदूषण	-9.89569
▁श्रेष्ठ	-9.89569
ंभ	-9.89657
लिन	-9.8966
ून	-9.897
▁तत्काल	-9.8987
रिक	-9.89875
▁संवर्धन	-9.8988
नगर	-9.89894
▁पर्वत	-9.89896
▁बाकी	-9.89947
▁फि	-9.89975
▁आवश्यकताओं	-9.90004
पित	-9.90014
g	-9.90024
▁योजनाओं	-9.90053
▁कब	-9.90186
▁त्वचा	-9.90223
▁असर	-9.90355
टिक	-9.90426
▁भय	-9.9043
ेर	-9.90462
▁अचानक	-9.90503
्वा	-9.90591
▁समर्थ	-9.90596
▁आलोचना	-9.90602
▁द्वीप	-9.90671
▁अद्यतन	-9.90784
▁ऑनलाइन	-9.90786
▁मिलियन	-9.90835
▁दर्द	-9.90849
▁हद	-9.90865
▁ढांचे	-9.90878
▁R	-9.90902
▁घट	-9.91024
▁शुरु	-9.91074
▁सुनवाई	-9.91079
▁बदलने	-9.91141
▁संवाद	-9.91175
▁बदले	-9.91183
▁पढ़ने	-9.91188
▁विल	-9.91193
▁काट	-9.91209
▁स्वतः	-9.91302
▁विभाजित	-9.9135
▁हार्दिक	-9.9135
▁इन्	-9.91362
▁प्राधिकार	-9.91388
▁मध्यम	-9.91396
▁जु	-9.91401
▁सारा	-9.91412
▁प्रिय	-9.91451
▁उड़	-9.91564
प्त	-9.91632
▁मिनट	-9.91736
▁प्रशंसा	-9.91825
▁N	-9.91877
निया	-9.91928
ांक	-9.9194
▁इसने	-9.91963
▁रेडियो	-9.91979
▁श्र	-9.92
▁यथास्थिति	-9.92018
▁लु	-9.92075
▁पक्षकार	-9.92269
▁चलने	-9.9233
▁कितने	-9.92418
▁बिहार	-9.92418
▁गुजर	-9.92499
▁आजादी	-9.92582
▁खराब	-9.92589
ंप	-9.92678
▁जाल	-9.92695
at	-9.92773
वर्तन	-9.92817
▁सिद्धांतों	-9.92827
▁दास	-9.92866
▁खुश	-9.92986
▁सुविधाएं	-9.93202
▁टूट	-9.93256
▁अवैध	-9.9326
▁कम्पनी	-9.93309
▁संशोधित	-9.93356
▁उल्लेखनीय	-9.93475
▁समानता	-9.93486
▁धा	-9.935
▁विशेषता	-9.93579
कता	-9.93643
▁अनुमोदन	-9.93646
ौर	-9.93704
▁अध	-9.93928
१०	-9.93933
▁सुदृढ़	-9.93936
▁स्वाभाविक	-9.94033
▁क्षण	-9.94039
▁देखना	-9.9407
▁औ	-9.9411
▁बाबू	-9.94113
▁सशक्त	-9.942
ाइल	-9.94241
▁पैर	-9.94262
▁कागज	-9.94427
▁निवारण	-9.9452
▁गहरा	-9.94559
क्रम	-9.94593
▁उसको	-9.94624
▁इनकी	-9.94648
in	-9.94652
▁राजधानी	-9.94814
श्	-9.94851
▁नृत्य	-9.94912
▁चन्द्र	-9.94916
▁नंबर	-9.94922
▁साहस	-9.94982
▁पौधों	-9.94996
▁उत्कृष्ट	-9.95045
▁विनिश्चय	-9.95108
▁स्वच्छ	-9.95148
▁प्रान्त	-9.95155
▁औपचारिक	-9.95206
▁बालक	-9.95258
▁शिशु	-9.95311
▁ड्र	-9.95371
्री	-9.9538
दत्त	-9.95422
▁पाल	-9.95424
▁m	-9.95445
▁दुकान	-9.95504
▁धातु	-9.95511
वाला	-9.95602
▁चिकित्सक	-9.95621
▁बाधा	-9.95628
▁वर्णित	-9.95632
ोस	-9.95651
▁जिम्मेदारी	-9.95696
▁दुःख	-9.95699
▁शिक्षक	-9.95699
▁ठोस	-9.9571
▁फ्ल	-9.9572
भर	-9.95723
▁पेट	-9.95818
▁बजट	-9.95832
▁जलवायु	-9.95896
▁कौ	-9.95914
घर	-9.95914
▁संगम	-9.95916
▁हालत	-9.95939
▁भक्ति	-9.95944
पि	-9.96086
▁सुर	-9.96167
▁सीख	-9.96204
▁विभिन्	-9.96213
▁शर्त	-9.96265
▁क्रांति	-9.96288
▁बौद्धिक	-9.96296
हे	-9.96332
▁उद्घाटन	-9.96392
▁समूहों	-9.96395
र्ब	-9.9641
▁क़	-9.96436
▁सैनिक	-9.96605
▁समुद्री	-9.96669
▁हिमालय	-9.96693
▁जैन	-9.96703
▁सूत्र	-9.96705
▁फैला	-9.96754
▁ब्रिटेन	-9.96791
▁हस्तक्षेप	-9.96793
▁सफेद	-9.96891
▁ज़्यादा	-9.96891
▁खत्म	-9.96916
▁कार	-9.96941
▁बांध	-9.96958
▁प्राधिकृत	-9.96991
▁योग्यता	-9.97052
▁क्लिक	-9.97073
प्प	-9.97117
▁प्रवृत्त	-9.9716
ंडा	-9.97171
ाधिकार	-9.97202
खे	-9.97282
▁पंच	-9.97302
▁चुने	-9.97337
▁समृद्धि	-9.97372
तंत्र	-9.97406
▁सां	-9.97434
ग्न	-9.9754
▁गुफा	-9.97611
्रे	-9.97629
ूल	-9.97684
ानी	-9.9771
च्च	-9.97734
▁विविधता	-9.97757
▁दैनिक	-9.97798
▁ब्रह्म	-9.97851
ज्य	-9.97889
▁पीठ	-9.97898
▁खाली	-9.97945
▁लिपि	-9.97949
सार	-9.97975
▁गहरी	-9.97997
▁भले	-9.98002
०वीं	-9.98019
▁कष्ट	-9.98046
▁गरीबी	-9.9805
▁देय	-9.98085
ाउ	-9.98103
▁गाय	-9.98254
▁नौकरी	-9.98269
वेद	-9.98282
▁विपणन	-9.98401
▁कारोबार	-9.98402
मुख	-9.98617
ब्ब	-9.9863
षण	-9.98713
▁चिह्न	-9.98728
▁सामूहिक	-9.98808
▁रसायन	-9.98812
▁जय	-9.98855
कुल	-9.98883
▁गणना	-9.9889
▁गि	-9.989
िटी	-9.98917
▁दिख	-9.98929
फल	-9.98951
▁चैनल	-9.99013
▁मिलाकर	-9.99043
ँग	-9.99055
लों	-9.99128
▁उत्तरदायी	-9.99138
▁बचत	-9.99175
▁मना	-9.99179
▁मिलते	-9.99277
्ता	-9.99289
▁सिद्धान्त	-9.99335
▁सोचा	-9.99347
▁अली	-9.99359
▁लै	-9.99375
▁E	-9.9938
▁बचाव	-9.99388
▁सितंबर	-9.99421
▁सामान्यतः	-9.99428
▁दौर	-9.99438
▁तत्वों	-9.9944
▁बौद्ध	-9.99529
▁कमरे	-9.99552
▁विफल	-9.99559
पद	-9.99627
▁भेंट	-9.99644
▁फै	-9.99674
▁ग्रंथ	-9.99703
▁आदान	-9.99784
▁लेन	-9.99894
▁सकेगी	-9.99906
जु	-10.0004
▁डिजाइन	-10.0014
▁असाधारण	-10.0014
▁अक्ष	-10.0015
▁अग्रणी	-10.0027
▁वैध	-10.0029
▁जम्मू	-10.0035
▁माप	-10.0039
बो	-10.0039
ठा	-10.0041
लन	-10.0049
ीर	-10.0052
▁राहत	-10.0054
▁पार्क	-10.0057
▁कहने	-10.0057
▁वस्त्र	-10.0061
जल	-10.0064
▁अमर	-10.0083
▁माँ	-10.0085
▁उतार	-10.0086
▁स्टेशन	-10.0088
▁विनियम	-10.009
▁कर्नाटक	-10.0097
िस्ट	-10.0098
▁यूरोपीय	-10.0117
▁परिसर	-10.0123
जीव	-10.0124
▁गांवों	-10.0127
▁हार	-10.0127
▁घूम	-10.0129
▁कराया	-10.013
कृति	-10.0137
श्र	-10.0142
▁उच्चतर	-10.0145
ग़	-10.0145
▁स्वर्ण	-10.0151
▁अज	-10.0154
▁प्रवर्तन	-10.0155
▁वंश	-10.0156
सिंह	-10.0167
▁घटक	-10.0176
▁पू	-10.0184
▁डाला	-10.0188
▁भंग	-10.0192
▁प्रत्या	-10.0193
▁लिंग	-10.0198
▁अक्तूबर	-10.0202
▁निगरानी	-10.0202
▁कार्यवाहियों	-10.0202
्टे	-10.0209
रक	-10.021
▁पृथक	-10.0212
▁लड़के	-10.0218
▁आना	-10.0218
▁कठिनाई	-10.0219
बार	-10.0222
▁परिभाषा	-10.0223
िव	-10.0237
▁रवीन्द्रनाथ	-10.0244
▁रुचि	-10.0259
धान	-10.026
▁नेत्र	-10.0264
क्टर	-10.0267
ीज	-10.0268
ग्र	-10.0269
▁सुबह	-10.0276
▁लड़ाई	-10.0279
▁व्यक्तित्व	-10.0283
▁पुर	-10.0299
▁चाय	-10.0303
▁गरीब	-10.0307
▁संवैधानिक	-10.0308
▁कारावास	-10.0308
▁इक	-10.0315
ाधिक	-10.032
▁ताल	-10.0323
▁लाइसेंस	-10.0329
▁कॉलेज	-10.033
▁पौधे	-10.0338
▁निचल	-10.0346
▁विद्रोह	-10.0352
▁चमक	-10.0354
▁सजा	-10.0365
▁छा	-10.0368
११	-10.037
▁दृढ़	-10.0378
▁खण्ड	-10.0379
▁पड़ी	-10.0381
▁चाह	-10.0384
▁बैंकिंग	-10.0398
शक्ति	-10.04
▁आंध्र	-10.0404
▁खतरे	-10.0404
▁उन्नत	-10.0404
ब्र	-10.041
▁मुक्ति	-10.0412
▁नेशनल	-10.0425
▁आरंभिक	-10.0428
▁विरासत	-10.0436
▁मुद्दे	-10.0436
▁मोड	-10.0438
ख़	-10.0441
▁पाँच	-10.0447
षा	-10.0453
▁खड़े	-10.0458
▁तथ्यों	-10.0462
श्य	-10.0476
स्त्र	-10.0481
▁पदार्थों	-10.0487
▁जातियों	-10.0489
अर	-10.0489
▁पक्षों	-10.0495
▁लगाना	-10.0497
फी	-10.0499
▁अपनाया	-10.0504
▁पैसे	-10.0507
▁कामना	-10.0509
▁पल	-10.0511
▁चीजों	-10.0512
▁परिचय	-10.0512
▁वाहन	-10.052
बि	-10.0522
ेंट	-10.0523
▁शोक	-10.0523
ूं	-10.0525
▁मैने	-10.0526
्थ	-10.0528
▁शहरों	-10.0529
▁सीमाओं	-10.0532
▁अं	-10.054
▁कहता	-10.0546
▁अश	-10.055
शाला	-10.0551
▁दोस्त	-10.0554
▁पूछ	-10.0559
ed	-10.0559
विध	-10.0562
▁न्यायपालिका	-10.0578
▁शिक्षण	-10.0578
▁उपखंड	-10.058
▁देन	-10.058
▁पं	-10.0584
धन	-10.0588
▁चीनी	-10.0588
▁वंचित	-10.0588
▁स्वभाव	-10.0591
▁आश्चर्य	-10.0609
▁देवता	-10.0612
▁मूलभूत	-10.0614
▁अनुज्ञात	-10.0619
क्क	-10.0624
▁विक्रय	-10.0632
▁सम्पत्ति	-10.0632
विद	-10.0637
▁भेद	-10.0657
▁लेती	-10.0661
▁अधिसूचना	-10.0665
श्म	-10.0671
▁कोर्ट	-10.0678
▁साहित्यिक	-10.0692
▁रहें	-10.0698
▁तीसरे	-10.0699
▁जानने	-10.07
उतना	-10.0701
▁अंतरिक्ष	-10.0709
▁पेंशन	-10.0709
▁बल्लेबाज	-10.0709
गम	-10.0712
▁अदा	-10.0715
▁दायर	-10.0718
▁अंड	-10.0719
ing	-10.0721
▁‘‘	-10.0721
▁शक्तिशाली	-10.0722
▁इल	-10.0725
▁प्रक्रियाओं	-10.073
▁तलाश	-10.0732
▁बद	-10.0739
ग्रस्त	-10.074
▁बिलकुल	-10.0743
▁इस्लामी	-10.0745
द्य	-10.0757
▁संधि	-10.0758
्ज़	-10.0761
▁ब्राह्मण	-10.0766
▁मानना	-10.0767
▁मोह	-10.0775
▁अर्जित	-10.0787
▁संध्या	-10.079
▁जीत	-10.0792
▁कक्षा	-10.0803
▁कूट	-10.0805
▁लिंक	-10.0814
▁वाद्य	-10.0814
▁मौलिक	-10.082
▁w	-10.0822
▁उठाया	-10.0824
▁हस्त	-10.0829
▁पढ़ा	-10.0836
▁उद	-10.0836
is	-10.0837
पार	-10.084
▁उपलब्धि	-10.0845
▁भागीदार	-10.0851
फर	-10.0851
▁पैमाने	-10.0854
▁उपकरणों	-10.0855
▁बजे	-10.087
▁अक्षर	-10.0883
▁कुशल	-10.0888
जीवन	-10.089
ेंद्र	-10.0895
▁टिप्पणी	-10.0896
ाइड	-10.09
▁पुष्टि	-10.09
गुण	-10.09
▁सम्	-10.0901
▁गुरू	-10.0908
▁दीर्घ	-10.092
ॉन	-10.0927
ोट	-10.0927
ॉल	-10.093
▁डाटा	-10.0933
सल	-10.0938
▁बीस	-10.0948
▁चाहती	-10.095
▁उपायों	-10.0955
▁ची	-10.0958
▁बहस	-10.0959
▁वृक्ष	-10.0964
ल्ला	-10.0964
▁आकाश	-10.0967
▁नस्ल	-10.0968
▁अनुचित	-10.097
▁बनाता	-10.0974
▁मनो	-10.0976
राव	-10.0985
र्त	-10.099
▁संत	-10.0995
▁ऋ	-10.0997
मर	-10.1001
▁मंदिरों	-10.1001
ेक्ट	-10.1003
कन	-10.1009
▁अमरीका	-10.1012
▁प्रश्नों	-10.1013
मक	-10.1015
▁भारतीयों	-10.102
हत	-10.1028
▁प्रतियोगिता	-10.1035
ra	-10.1054
▁स्क्रीन	-10.1058
▁संचालित	-10.106
▁वेद	-10.1065
▁आराम	-10.1072
▁पहुंचने	-10.1072
▁मूर्ति	-10.1075
कर्ताओं	-10.1079
मल	-10.1082
▁अपराधों	-10.1083
िष्ट	-10.1085
▁प्रबंधक	-10.1087
दु	-10.1093
▁नवीन	-10.1093
▁आइ	-10.1095
▁अगला	-10.1096
▁गर्म	-10.1102
▁स्वामित्व	-10.1104
▁शक्तियां	-10.1105
▁अन्वेषण	-10.1115
▁द्विपक्षीय	-10.1115
धी	-10.1126
ञ	-10.1128
▁मुगल	-10.113
▁छत	-10.1135
▁टा	-10.1137
डु	-10.1137
▁पीढ़ी	-10.1139
▁सद	-10.114
रस	-10.114
▁आउट	-10.1147
▁अंग्रेज	-10.1149
▁उद्यान	-10.1162
▁सकेंगे	-10.1163
▁सदी	-10.1172
▁अस्थायी	-10.1173
▁पंडित	-10.1173
▁शत्रु	-10.1175
तल	-10.1179
▁बेच	-10.1184
▁सराहना	-10.1185
ाब	-10.1192
▁वचन	-10.1194
▁पहलू	-10.1194
▁जीन	-10.1196
▁संबोधित	-10.1196
▁दिमाग	-10.1197
▁पत्रिका	-10.1197
▁पंख	-10.1201
▁मजिस्ट्रेट	-10.1208
▁विद्यार्थी	-10.1208
▁उदार	-10.1209
▁शाम	-10.1214
स्य	-10.1219
▁बच्चा	-10.122
▁भांति	-10.122
▁पृष्ठभूमि	-10.1221
▁विनिर्माण	-10.1221
▁तर	-10.1224
▁अवसरों	-10.1232
▁भरा	-10.1234
▁विद्वान	-10.1237
▁होम	-10.1242
▁रिक्त	-10.1243
▁यथार्थ	-10.1244
▁तापमान	-10.1245
▁निकाला	-10.1256
▁मानो	-10.1259
ज़ी	-10.1262
▁वृ	-10.1263
गामी	-10.1264
कला	-10.1287
▁फ़ोल्डर	-10.1302
गण	-10.1302
वश	-10.1304
▁डो	-10.1308
▁विशेषज्ञ	-10.1311
▁चाल	-10.1312
▁इंडियन	-10.1313
▁उत्पा	-10.1318
▁महाराजा	-10.1319
▁कू	-10.1323
▁कायम	-10.1346
▁अत्यन्त	-10.1349
▁जिनसे	-10.135
▁फेंक	-10.1352
▁संतुलन	-10.1361
धारी	-10.1361
▁जुड़ा	-10.1363
▁दिसंबर	-10.1384
▁प्रतिदिन	-10.1384
िप	-10.1385
वर्त	-10.1389
ro	-10.1391
लू	-10.1395
▁हकदार	-10.14
▁आपात	-10.1401
वाले	-10.1403
▁कोशिकाओं	-10.1409
▁धो	-10.1409
ैल	-10.1411
▁ईसाई	-10.1418
▁श्रीमती	-10.142
ड़ियों	-10.142
▁सिल	-10.1423
▁वसूली	-10.1424
w	-10.1432
वासी	-10.1438
▁आर्	-10.144
▁बन्द	-10.1449
▁रजिस्ट्रीकरण	-10.1456
▁समझते	-10.1457
▁बनाकर	-10.1459
▁भेजे	-10.1465
भव	-10.1466
▁तस्वीर	-10.1467
▁बहन	-10.1472
भारत	-10.1475
▁तरीकों	-10.1479
▁साइट	-10.148
कर्म	-10.1483
▁अल्	-10.1485
st	-10.1487
▁सौंप	-10.1491
aa	-10.1499
▁समझे	-10.1508
▁उत्पादक	-10.1511
▁जितन	-10.1511
ग्रा	-10.1515
▁ढांचा	-10.1515
▁मोटर	-10.1518
▁उद्देश्यों	-10.1525
▁बर्	-10.1531
▁छाप	-10.1534
▁भाष्	-10.1541
▁हटाने	-10.1543
▁वाणिज्य	-10.1545
▁परे	-10.1546
▁समितियों	-10.1559
▁चै	-10.1562
नेट	-10.1564
थे	-10.1565
▁पट	-10.1567
▁तोड़	-10.157
योजन	-10.158
▁मांस	-10.1591
रोध	-10.1597
वासियों	-10.1603
▁ति	-10.1604
▁अवधारणा	-10.1606
▁उपर्युक्त	-10.1612
▁नील	-10.1612
सू	-10.1617
▁समावेश	-10.162
▁विवेक	-10.1622
▁अभिगम	-10.1624
▁गिरफ्तार	-10.1624
▁झील	-10.1625
्रो	-10.1632
वृत्त	-10.1634
▁पारंपरिक	-10.1648
▁लंबित	-10.1648
▁आल	-10.1656
ाइन	-10.1657
▁पोजीशन	-10.166
▁जिम्मेदार	-10.1661
▁मार्गदर्शन	-10.1661
▁इलाज	-10.1662
ष्टि	-10.1663
▁रानी	-10.1664
▁उपयोगकर्ता	-10.1667
▁चर	-10.1668
▁संदेय	-10.1673
▁राजभाषा	-10.1673
▁मिलेगी	-10.1678
▁रहेंगे	-10.1681
▁चैतन्य	-10.1685
el	-10.1686
▁दक्षिणी	-10.1689
▁बाग	-10.1699
▁आपस	-10.17
▁हाँ	-10.17
▁प्रभाग	-10.1702
▁अत	-10.1707
▁चेक	-10.1709
▁आबादी	-10.1709
ग्रह	-10.1711
▁लगती	-10.1718
▁रिकार्ड	-10.1722
▁डाक्टर	-10.1723
▁पुन	-10.173
▁दिखाया	-10.1731
▁प्रतीक्षा	-10.1734
▁शास्त्र	-10.1741
▁जायें	-10.1745
▁प्रतिष्ठा	-10.1745
▁विभागों	-10.1748
▁कॉल	-10.1751
▁पह	-10.1752
ण्ट	-10.1755
▁अंतः	-10.1758
▁व्यावहारिक	-10.177
▁iii	-10.1773
▁अकेले	-10.1775
कड़	-10.1778
यल	-10.1782
▁गतिविधि	-10.1782
▁परिवेश	-10.1784
हल	-10.179
▁तत्त्व	-10.1792
▁निष्क्रिय	-10.1808
ंठ	-10.1808
▁मिलेगा	-10.1816
▁महाभारत	-10.1821
▁बुद्ध	-10.1824
लाइन	-10.1826
▁होंगी	-10.183
▁गै	-10.1831
ानु	-10.1831
▁सकारात्मक	-10.1832
▁कट	-10.1835
▁किताब	-10.1838
्ब	-10.1841
▁इसीलिए	-10.1845
▁संभावित	-10.1845
क्शन	-10.1858
▁भि	-10.1867
▁आतंकवादी	-10.1869
▁महीनों	-10.1871
▁कारक	-10.1873
▁भरे	-10.1874
रम	-10.1874
▁पक्षकारों	-10.1874
शु	-10.1878
▁कराना	-10.1886
पूर्व	-10.1887
▁लड़की	-10.1887
▁छोड	-10.1891
▁दोनो	-10.1895
▁अन्तर्	-10.1898
ाप	-10.1906
▁e	-10.1906
शे	-10.1909
▁भूख	-10.1914
▁हरि	-10.1914
▁बारह	-10.1914
▁उल्लंघन	-10.1919
ंघ	-10.1921
▁बोली	-10.1923
▁मानी	-10.1923
▁हैदराबाद	-10.1932
ड्	-10.1932
ंडी	-10.195
मार्ग	-10.1951
▁उन्होने	-10.1955
▁सम्बंध	-10.1958
▁पुष्प	-10.1962
▁गारंटी	-10.1969
▁बडी	-10.1973
▁केंद्रित	-10.1975
▁जम	-10.1976
▁कर्ण	-10.1978
▁बिता	-10.1985
▁विष	-10.1987
लिया	-10.1995
▁प्रांत	-10.1995
▁देखे	-10.2001
▁पाये	-10.2004
▁बनाते	-10.2005
भाष	-10.2015
▁जानकर	-10.202
▁अभिलाभ	-10.2021
▁भगवान्	-10.2031
▁खनिज	-10.2032
▁एकत्र	-10.2035
▁धरती	-10.2035
▁भर्ती	-10.2045
ाध	-10.2045
▁जोड़ने	-10.2052
ैन	-10.2053
▁हां	-10.2054
▁दाखिल	-10.2058
▁इमारत	-10.2058
▁पंजीकृत	-10.2058
▁पालिसी	-10.2059
▁पड़ती	-10.2059
▁ऊंचाई	-10.2061
▁घाट	-10.2063
▁डालने	-10.2063
▁दिला	-10.2064
▁आधारभूत	-10.2078
्द	-10.208
ापन	-10.2083
▁स्मरण	-10.2084
▁अनुपालन	-10.2084
▁गेंद	-10.2088
फ़ा	-10.209
▁सिंचाई	-10.2096
रोह	-10.2098
▁बढ़ने	-10.2099
▁वस्तुतः	-10.2105
▁मद्रास	-10.2108
▁दौड़	-10.2109
▁साम	-10.2119
▁प्रेषित	-10.2121
▁हिन्दुस्तान	-10.2121
▁पशुओं	-10.2124
▁टो	-10.2125
▁गद्य	-10.2126
▁महल	-10.2136
▁खून	-10.214
▁चुनें	-10.2143
▁जायेगी	-10.2143
▁उत्तरदायित्व	-10.2147
▁आकलन	-10.2147
भी	-10.2152
भाग	-10.2152
ह्	-10.2154
▁पाता	-10.2158
▁फ्र	-10.2161
सम	-10.2164
▁ईरान	-10.2165
▁ग्राहकों	-10.2166
▁आंशिक	-10.2172
▁सम्पर्क	-10.2173
धर	-10.2176
▁क्रियाकलाप	-10.2185
१२	-10.2185
▁भु	-10.2188
▁याची	-10.2195
▁टि	-10.2198
▁छाया	-10.2202
▁पट्टी	-10.2204
▁अद	-10.2204
ांतर	-10.2208
▁बहुमत	-10.2213
▁सन	-10.2215
वर्ग	-10.2215
मंड	-10.2217
▁कपड़े	-10.2225
▁प्लस	-10.2228
▁अनाज	-10.2234
▁बुला	-10.2235
टिंग	-10.224
▁पुरूष	-10.2249
▁अमरीकी	-10.2249
▁मिटा	-10.2251
पल	-10.2251
▁पहाड़ी	-10.2262
ुत	-10.2265
▁निकालने	-10.2266
▁बीमार	-10.2267
▁वक्त	-10.2267
चल	-10.2271
▁परिस्थिति	-10.2273
▁फैसला	-10.2275
▁प्रजनन	-10.2275
▁मुंह	-10.2288
▁जापान	-10.2288
▁एकदम	-10.229
िकी	-10.2294
सान	-10.2311
पात	-10.2314
▁स्वीकृत	-10.2317
▁बॉ	-10.232
▁खुला	-10.232
▁गर्व	-10.2321
▁बोध	-10.2322
्ह	-10.2323
▁संपदा	-10.2327
▁वर्मा	-10.2332
▁धन्यवाद	-10.234
▁अनुशासन	-10.2341
▁साझा	-10.2343
▁चावल	-10.2343
ग्रे	-10.2353
ेंस	-10.2354
▁रहस्य	-10.2356
▁मौत	-10.2359
▁मानता	-10.236
▁मुकदमा	-10.2363
वेल	-10.2365
▁सेक्टर	-10.2367
ट्स	-10.2369
▁शांत	-10.2369
मार	-10.2385
▁सिवाय	-10.2386
▁पहन	-10.2388
▁पहुंचे	-10.2391
▁t	-10.2392
▁शिल्प	-10.2393
हो	-10.2397
▁कोष	-10.2398
▁पोत	-10.2399
षित	-10.2401
▁कप	-10.2402
ज्ञान	-10.2404
▁थोड़ी	-10.2406
▁भरी	-10.241
▁स्टे	-10.2419
▁चली	-10.242
▁h	-10.2421
▁निष्ठा	-10.2421
▁मृत	-10.2421
्टर	-10.2422
▁जर्मनी	-10.2422
▁गण	-10.2425
▁शु	-10.2428
▁वैकल्पिक	-10.2432
▁फे	-10.2432
▁जोड़ा	-10.2438
▁v	-10.244
▁विनियमन	-10.2441
ेरी	-10.2442
▁फो	-10.2442
▁परम्परा	-10.2443
▁कार्यकलाप	-10.2445
▁शिक्षकों	-10.2445
▁जुल	-10.2447
▁कड़ी	-10.2448
▁कहां	-10.2455
▁बैठे	-10.2456
▁मॉ	-10.2459
०क	-10.2461
▁कालेज	-10.2463
▁परिवारों	-10.2467
लोक	-10.2472
्रि	-10.2475
▁गुणा	-10.2475
▁लगते	-10.2476
श्व	-10.248
▁पड	-10.2485
▁किन्हीं	-10.2485
▁ग्राफ	-10.2485
▁लकड़ी	-10.2486
▁पूर्णतः	-10.2497
▁रहित	-10.2499
▁ऊपरी	-10.2506
▁श्वेत	-10.2511
▁स्तरों	-10.2511
क्ल	-10.2512
▁देखता	-10.2522
स्ता	-10.2525
▁गौरव	-10.2529
▁दक्षता	-10.253
रन	-10.2543
▁गहराई	-10.2545
▁वाक्य	-10.2548
▁लॉ	-10.2561
▁जला	-10.2564
▁चेतावनी	-10.2564
▁जवाहरलाल	-10.2564
▁दस्तावेजों	-10.2567
▁मानवता	-10.2573
▁शोर	-10.2578
ट्र	-10.2581
▁माने	-10.2589
दू	-10.2589
▁उल्लिखित	-10.2591
▁डॉलर	-10.2593
▁सूचित	-10.2595
▁सावधानी	-10.2603
▁उपज	-10.2604
▁धनराशि	-10.2604
▁संगठित	-10.2604
▁विवरणी	-10.261
खंड	-10.2611
फ्	-10.2612
▁पहलुओं	-10.2618
▁उन्हीं	-10.2618
▁चिन्ह	-10.2629
एच	-10.2629
▁फोटो	-10.2632
▁विनाश	-10.2636
▁खड़ी	-10.2636
▁समझता	-10.2637
▁प्रतिवादी	-10.2646
▁y	-10.2652
ल्फ	-10.2654
▁तमिलनाडु	-10.2658
▁ट्यूब	-10.2658
▁व्यापारी	-10.2659
▁हाथी	-10.266
▁ब्ल	-10.2666
▁तुर्की	-10.2668
हृ	-10.267
▁गाड़ी	-10.2676
▁संभवतः	-10.2678
▁रोज	-10.2682
▁भेजने	-10.2683
▁प्रतिष्ठित	-10.2685
▁उर्दू	-10.2685
कट	-10.2704
▁मछली	-10.2712
▁पुस्तकों	-10.2715
▁जमानत	-10.2715
दारी	-10.2719
▁अभिनिर्धारित	-10.2726
▁वापसी	-10.2727
म्म	-10.273
▁नकारात्मक	-10.2739
▁जाओ	-10.2745
▁पदों	-10.2748
▁इंग्लैंड	-10.2753
▁कनेक्शन	-10.2753
▁कुशलता	-10.2754
▁उत्तम	-10.2766
▁अग्नि	-10.2767
▁साधनों	-10.2768
▁शत	-10.2779
▁पड़ेगा	-10.2785
▁करवा	-10.2787
▁सीधा	-10.2792
▁किलोमीटर	-10.2794
▁फलस्वरूप	-10.2794
▁चुकता	-10.2794
▁चयनित	-10.2796
▁प्रसाद	-10.2796
▁चुना	-10.2796
त्रिक	-10.2796
▁लीग	-10.2801
▁साहब	-10.2807
▁सभापति	-10.281
▁कृति	-10.2813
▁टिकट	-10.2813
र्च	-10.2818
निष्ठ	-10.2818
▁पाप	-10.282
▁पढ	-10.282
▁प्रचालन	-10.2821
ियत	-10.2822
रित	-10.2823
दाता	-10.2831
▁आदत	-10.2832
▁सतत	-10.2837
▁प्रबल	-10.2838
▁निवासी	-10.2843
▁स्त्रियों	-10.2862
▁निरसन	-10.2863
थि	-10.2873
▁दण्ड	-10.2875
▁अंग्रेजों	-10.2875
▁राजकुमार	-10.2877
▁असामान्य	-10.2877
▁कही	-10.288
ोक	-10.2887
▁महत्त्व	-10.2887
▁रजिस्टर	-10.2889
▁गांधीजी	-10.2889
▁व्यवस्थित	-10.289
र्जन	-10.289
▁उतनी	-10.2892
ांश	-10.2895
le	-10.2897
रहित	-10.2899
▁अपवाद	-10.29
रिस	-10.2906
▁अंतराल	-10.2908
दर्श	-10.2914
▁बयान	-10.292
▁आयी	-10.292
▁खुल	-10.2933
▁रखकर	-10.2935
पु	-10.2936
दृ	-10.2943
▁शानदार	-10.2944
▁आन	-10.2946
मिल	-10.2946
▁सहन	-10.2948
▁स्तन	-10.2949
▁गईं	-10.2958
ol	-10.2968
पू	-10.2973
बन्ध	-10.2979
परि	-10.2989
▁रोगों	-10.2992
▁पुस्तिका	-10.3
▁चीजें	-10.3
▁लोड	-10.3001
िफ	-10.3002
▁पुराण	-10.3005
गढ़	-10.3006
ीस	-10.3007
्च	-10.3007
▁अक्षम	-10.3013
▁गवर्नर	-10.3014
▁निशान	-10.3015
▁बाध्य	-10.3019
▁सेटिंग	-10.3023
▁विद्या	-10.3027
▁यातायात	-10.3028
▁सैन्य	-10.3029
▁एयर	-10.3029
▁सम्बन्धित	-10.3031
▁संपन्न	-10.3032
▁पैकेज	-10.3042
▁नवंबर	-10.3042
▁ध्वज	-10.3042
▁मुझसे	-10.3044
ूँगा	-10.3048
▁बुरा	-10.3054
▁हिसाब	-10.3056
▁कोलकाता	-10.3056
▁बक	-10.306
▁हमला	-10.3068
▁इराक	-10.3071
▁हिंदु	-10.3072
▁अनि	-10.3079
▁स्टेट	-10.3079
ॉट	-10.3087
▁आरक्षित	-10.309
▁देखी	-10.3092
▁बेल	-10.3092
▁पुल	-10.3093
ोड	-10.3097
्टन	-10.31
▁माध्यस्थम्	-10.31
▁कानूनों	-10.3104
न्य	-10.3106
▁बडे	-10.3106
▁मिश्रण	-10.311
▁शंकर	-10.3111
▁अखिल	-10.3112
सिक	-10.3116
▁मुकदमे	-10.3119
▁चुनौतियों	-10.3126
▁भ्रम	-10.3128
▁कार्यान्वित	-10.3129
्ला	-10.3131
▁संगणक	-10.314
▁उल	-10.314
▁नाक	-10.3141
▁गुट	-10.3146
▁वृत्ति	-10.3147
▁डाय	-10.3153
▁प्रोफेसर	-10.3154
ch	-10.3154
▁बांट	-10.3159
▁पैसा	-10.3161
▁एकीकृत	-10.3164
▁संग	-10.3166
▁रुक	-10.3169
▁घनिष्ठ	-10.317
म्भ	-10.3172
▁खोलने	-10.3174
▁चिकित्सीय	-10.3183
▁डाउनलोड	-10.3183
▁प्रयोक्ता	-10.3183
▁देह	-10.3183
ाधीन	-10.3184
▁O	-10.3193
▁अनुक्रम	-10.3197
▁हंस	-10.3197
▁रहेगी	-10.3204
प्रद	-10.3205
थी	-10.3206
▁अंततः	-10.3207
ंगल	-10.3207
▁अपनाने	-10.3211
मिक	-10.3214
▁पीड़ा	-10.3215
▁घास	-10.3222
▁मशीनरी	-10.3223
कारों	-10.3231
लिये	-10.3233
▁मंजूर	-10.3234
▁क्रमशः	-10.3239
▁दावे	-10.3249
ुद	-10.3253
▁उठाए	-10.3254
न्ना	-10.3255
ेन्द्र	-10.3257
▁प्रतिफल	-10.3266
▁सकल	-10.3274
▁प्रदत्त	-10.3275
▁छु	-10.3282
टक	-10.3285
▁कीटों	-10.3291
▁रज	-10.3293
▁परिचित	-10.33
▁पोस्ट	-10.3304
▁फ्रांस	-10.3308
्दी	-10.3309
▁मार्क	-10.331
इन	-10.3317
as	-10.332
▁चंद्र	-10.3325
▁लोकतांत्रिक	-10.3325
▁गुणों	-10.3326
वादियों	-10.3327
▁लोकसभा	-10.3327
▁बम	-10.3327
▁सुन्दर	-10.3331
▁आस्था	-10.3333
▁वर्	-10.3336
प्ट	-10.3336
▁ईंधन	-10.334
▁रचनात्मक	-10.3343
▁कार्यपालिका	-10.3344
्ठ	-10.3347
▁अस्वीकार	-10.3354
▁एजेंसी	-10.3354
यक	-10.3357
▁लाना	-10.336
ल्ली	-10.3363
▁देखो	-10.3364
दायी	-10.3365
▁बढ़ते	-10.3369
▁नकद	-10.338
▁निर्देशिका	-10.3391
▁दिनांक	-10.3393
▁बहादुर	-10.3397
▁झूठ	-10.3398
्टी	-10.3399
स्थान	-10.3401
▁असं	-10.3401
धर्म	-10.3403
▁दार्शनिक	-10.3412
वती	-10.3412
▁प्रमाणित	-10.3415
ad	-10.3417
▁विलंब	-10.3417
१३	-10.3422
▁मौ	-10.3426
हम	-10.3426
▁चेहरे	-10.3426
▁स्थितियों	-10.3428
ुम	-10.3431
▁शासक	-10.3438
िकल	-10.3439
क्षित	-10.344
िस्तान	-10.3442
▁तैयारी	-10.3442
▁विवादों	-10.3446
वत्	-10.3451
▁रिकॉर्ड	-10.3456
▁सहारा	-10.3457
▁व्यापारिक	-10.3458
▁प्ला	-10.3463
▁रूस	-10.3467
▁क्षतिपूर्ति	-10.347
▁सलाहकार	-10.3471
▁दोहरा	-10.3474
▁दू	-10.3477
▁मित्रों	-10.3481
▁पृ	-10.3488
खी	-10.3494
रक्षक	-10.3498
▁फायदा	-10.3499
▁शैक्षणिक	-10.3499
▁स्वप्न	-10.3499
▁डिग्री	-10.35
▁माननीय	-10.3504
▁सीता	-10.3504
▁वैज्ञानिकों	-10.3506
▁यानी	-10.3506
▁दोषी	-10.3507
G	-10.3508
▁जंगल	-10.3509
यम	-10.3511
▁जायेंगे	-10.3513
▁अगल	-10.3528
se	-10.3532
▁o	-10.3533
▁आह्वान	-10.3543
▁सचमुच	-10.3543
▁ट्र	-10.3544
▁अभ्यास	-10.3545
तार	-10.3548
▁आदर	-10.3555
▁अधिरोपित	-10.3558
▁उपेक्षा	-10.3558
▁ड्राइव	-10.3558
▁जुड़ी	-10.356
▁शेख	-10.3561
दीन	-10.3566
▁ऊतक	-10.3568
▁भग	-10.357
▁कार्यरत	-10.3572
चन्द्र	-10.3574
▁निष्	-10.3576
ख्या	-10.358
डिया	-10.358
▁प्रारम्भ	-10.3581
▁न्	-10.3585
▁घाटी	-10.3586
ुन	-10.3602
▁हजारों	-10.3617
▁कम्प्यूटर	-10.3617
वाँ	-10.3619
▁बढ़कर	-10.362
▁शिक्षित	-10.3633
▁श्रद्धा	-10.3634
स्टी	-10.3634
नेवाले	-10.3641
विधि	-10.3643
▁नै	-10.3652
▁नं	-10.366
▁कृत्रिम	-10.3662
▁दिसम्बर	-10.3662
कत	-10.3662
▁वस्तुएं	-10.3663
▁कस	-10.3663
▁विचारधारा	-10.3666
नियम	-10.3669
▁आँख	-10.3671
▁झा	-10.3674
्लो	-10.3674
बोध	-10.3676
र्द्ध	-10.3677
▁तीनों	-10.3686
▁तन	-10.3689
▁मानकों	-10.3689
▁प्रासंगिक	-10.3691
ालय	-10.3692
ao	-10.3694
▁खिल	-10.3697
फ्ट	-10.3699
विन	-10.37
▁असली	-10.3702
▁रणनीति	-10.3706
▁वनस्पति	-10.3706
▁नवम्बर	-10.3707
▁कथित	-10.3736
हु	-10.3745
▁सिख	-10.3746
▁भौगोलिक	-10.3751
▁मतदान	-10.3756
ानुसार	-10.376
▁प्रतिरोध	-10.3761
▁मादा	-10.3762
▁कण	-10.3765
न्यास	-10.3766
वंश	-10.3766
▁विष्णु	-10.3768
पना	-10.3781
▁प्रभावशाली	-10.3784
ेम	-10.3793
▁प्रजा	-10.3793
बु	-10.3797
झा	-10.3797
▁संक्षेप	-10.38
▁अनन्त	-10.3802
▁जिसको	-10.3805
▁अंडे	-10.381
▁जुटा	-10.3811
▁सामान्यतया	-10.3817
▁लेंगे	-10.3818
▁संकल्पना	-10.382
▁अर्जन	-10.3822
la	-10.3823
▁वादी	-10.3826
▁ऑडियो	-10.3827
▁पत्रों	-10.3839
▁प्रक्रम	-10.3844
िमा	-10.3861
▁संवेदनशील	-10.3864
▁समुदायों	-10.3865
छा	-10.3868
▁भावनाओं	-10.3868
▁दया	-10.387
▁विद्वानों	-10.3871
▁अध्यापक	-10.3872
▁मंडप	-10.3872
ंडर	-10.3885
ाशय	-10.3885
शेष	-10.3894
ुष	-10.3902
▁खतरनाक	-10.3902
▁उड़ीसा	-10.3902
▁मासिक	-10.3917
ल्ट	-10.3918
र्ष	-10.3931
▁ताप	-10.3932
▁अवरोध	-10.3933
▁अनुदेश	-10.3939
▁संयोजन	-10.394
बिल	-10.3943
▁बेस	-10.3953
▁संगत	-10.3961
▁स्तरीय	-10.3963
▁आवेदक	-10.3964
▁अतीत	-10.3964
▁हाउस	-10.3964
▁परिश्रम	-10.3964
वस्था	-10.3965
ांकन	-10.3966
▁सहयोगी	-10.3967
▁चढ़	-10.3968
▁हमे	-10.3972
▁गोरा	-10.3974
▁दम	-10.3974
▁व्युत्पन्न	-10.3979
▁वाल	-10.3986
▁इकाइयों	-10.3994
▁फर	-10.3995
▁आपसी	-10.3999
▁छिपा	-10.4
वर्धन	-10.4001
▁अपेक्षाकृत	-10.4006
▁घृणा	-10.401
▁अज्ञात	-10.401
▁पौ	-10.4011
श्च	-10.4013
▁राष्ट्रों	-10.4016
▁होटल	-10.4017
रोपण	-10.4022
ac	-10.4023
▁हिमाचल	-10.4025
▁वैदिक	-10.404
▁लंबाई	-10.4046
▁सेवक	-10.4048
▁कुरान	-10.4049
▁मान्य	-10.4054
▁लंदन	-10.4056
▁गहरे	-10.4056
▁पैनल	-10.4058
▁व्यष्टि	-10.4058
▁बजा	-10.4059
▁तीसरा	-10.406
▁वार	-10.4062
▁प्रतिबंध	-10.4064
▁लंबा	-10.4066
▁भक्त	-10.4073
▁कहाँ	-10.4076
▁पूर्ववर्ती	-10.4077
▁धीम	-10.4082
यत	-10.4087
▁लेखकों	-10.4093
▁अंकित	-10.4095
▁ज़ि	-10.4102
▁प्रसंस्करण	-10.4102
▁नदियों	-10.4103
▁रॉ	-10.4106
▁आंकड़े	-10.4107
▁मुख्यतः	-10.4107
टि	-10.4112
▁सोसाइटी	-10.4118
नर	-10.412
स्म	-10.4132
▁कार्मिक	-10.4134
▁प्रसन्न	-10.4136
▁ढेर	-10.414
कना	-10.4141
ोज	-10.4144
▁बैठा	-10.4146
▁कैंसर	-10.4149
▁बुरी	-10.4149
▁देशी	-10.4152
वेश	-10.4152
ोड़	-10.4155
ाबाद	-10.4158
▁त्वरित	-10.4165
▁संग्रहालय	-10.4166
▁बनता	-10.4166
▁मतभेद	-10.4166
▁उपलब्धता	-10.4171
▁उर्वरक	-10.4172
▁तुम्हार	-10.4174
मात्र	-10.4174
▁गणित	-10.4178
▁प्रणालियों	-10.4183
▁नमक	-10.4188
▁प्रसारण	-10.4191
▁पक्षी	-10.4192
▁सांस	-10.4194
▁घरों	-10.4195
▁असल	-10.4198
▁नाग	-10.4202
▁सुनने	-10.4203
▁मोटे	-10.4204
▁योजनाएं	-10.4209
▁पिछली	-10.4213
▁तनाव	-10.4214
रुप	-10.4216
ूत	-10.4217
▁रन	-10.4218
▁अच	-10.4225
▁विश	-10.4226
▁परेशान	-10.4226
▁अभिकरण	-10.4226
▁रामायण	-10.4228
▁संभाल	-10.4228
▁निधन	-10.4232
▁अक	-10.4236
▁राज्यक्षेत्र	-10.4236
बंदी	-10.4237
▁ग्रा	-10.4241
▁अट	-10.4244
▁दिखाने	-10.4249
ाओं	-10.4257
▁जीवाणु	-10.426
▁पॉ	-10.4261
ri	-10.4261
▁शेर	-10.4262
▁सीखने	-10.4265
▁रखती	-10.4268
▁अधिवेशन	-10.4275
▁प्ले	-10.4277
▁अपराधी	-10.4287
▁लगाए	-10.4288
▁खबर	-10.4289
▁अनुमोदित	-10.4291
▁शासित	-10.4291
▁अवस्थित	-10.4296
▁बू	-10.4296
▁पादप	-10.4297
▁मध्यस्थ	-10.4301
▁इलाक	-10.4305
▁सोने	-10.4306
▁तमिल	-10.431
▁मौका	-10.4312
▁अनुज्ञा	-10.4314
▁जग	-10.4315
शिया	-10.4315
▁ऑफ़	-10.4321
▁बंबई	-10.4322
▁परिवर्तनों	-10.4323
▁निरा	-10.4328
▁वास्तविकता	-10.4335
▁आधा	-10.4337
▁दांत	-10.4337
▁उगा	-10.434
ce	-10.434
प्स	-10.4341
▁निर	-10.4344
▁वजन	-10.4348
▁मोहन	-10.4349
▁आमंत्रित	-10.4354
▁समर्पण	-10.4355
▁बट	-10.436
ायत	-10.4361
▁हथियार	-10.4365
▁पंचायत	-10.4365
▁पारस्परिक	-10.437
▁तदनुसार	-10.437
▁शिष्य	-10.4371
थर	-10.4375
▁बर्फ	-10.4375
▁तंग	-10.4378
स्थापन	-10.4382
▁लिखते	-10.4388
▁अन्तिम	-10.4388
▁खिला	-10.4388
▁अमल	-10.4389
▁अभियोजन	-10.439
▁विन्यास	-10.4391
स्फ	-10.4392
▁आयकर	-10.4397
ावली	-10.4401
▁सौंदर्य	-10.4402
▁भाग्य	-10.441
▁रोम	-10.4411
▁मंजूरी	-10.4424
न्त्र	-10.4425
▁पहाड़	-10.4426
▁वृत्त	-10.4429
▁बचने	-10.4429
▁क्यू	-10.443
▁टीका	-10.443
▁in	-10.4432
कालिक	-10.4432
▁क्रेडिट	-10.4434
▁बचाने	-10.4441
▁वैयक्तिक	-10.4442
▁व्यस्त	-10.4444
ूक	-10.4444
▁जुड़	-10.4445
▁बटन	-10.4445
रचना	-10.4448
▁अध्यक्षता	-10.4448
▁हट	-10.4449
▁सितम्बर	-10.445
▁ज्ञापन	-10.445
▁लोप	-10.4452
ैक	-10.4453
▁हिम	-10.4457
▁पश्च	-10.4457
▁लॉग	-10.4462
▁बिन्दु	-10.4466
▁आदेशों	-10.4467
▁बड़	-10.4469
▁सबूत	-10.4472
▁बिट	-10.4475
▁दशकों	-10.4479
स्तर	-10.4484
▁व्याख्यान	-10.4484
वक	-10.4486
▁दांडिक	-10.4499
▁संगणना	-10.4499
▁आर्य	-10.4504
ेन्ट	-10.4513
▁नियंत्रक	-10.4515
▁विनियामक	-10.4515
▁पाठक	-10.4517
त्स	-10.4518
▁वरन्	-10.4523
स्थापित	-10.4524
जित	-10.4524
un	-10.4525
▁उत्सव	-10.4531
▁विकासशील	-10.4533
▁पाना	-10.4541
▁गर्मी	-10.4544
▁वसा	-10.4546
टल	-10.4564
▁शस्त्र	-10.4566
▁संचित	-10.4567
▁शाखाओं	-10.4575
▁बनना	-10.4577
▁चलाया	-10.4577
▁अवसंरचना	-10.458
▁टेलीफोन	-10.458
▁रिजर्व	-10.458
▁चाहूंगा	-10.458
▁इंजीनियरी	-10.4581
▁डॉक्टर	-10.4581
▁निः	-10.4584
▁शे	-10.4593
ायी	-10.4596
▁घन	-10.4598
▁परंपरागत	-10.4601
▁आईटी	-10.4602
▁कमीशन	-10.4602
▁कवियों	-10.4612
▁उपरोक्त	-10.4612
▁शराब	-10.4613
▁संग्रहण	-10.4625
▁पुराना	-10.4629
▁आजाद	-10.463
▁अंतरित	-10.4632
▁केंद्रों	-10.4641
▁नारायण	-10.4644
▁r	-10.4645
▁गर्भ	-10.4645
▁ऊंची	-10.4645
▁पचास	-10.4646
▁अधीनस्थ	-10.4656
पाद	-10.4658
▁महासागर	-10.4662
▁उड़ान	-10.4664
जू	-10.4674
थन	-10.4676
▁मुलाकात	-10.4678
▁विजेता	-10.4678
▁प्रोटीन	-10.4679
▁माँग	-10.4686
दर्शी	-10.4694
▁देवताओं	-10.4695
▁कहानिय	-10.4703
▁प्रव	-10.4709
▁सृजित	-10.4711
च्छा	-10.4716
वित	-10.4717
▁गलती	-10.4717
▁मोड़	-10.4722
▁पुस्तकालय	-10.4729
▁अम्ल	-10.473
बाई	-10.4732
यं	-10.4742
▁सम्राट	-10.4744
▁विधानमंडल	-10.4745
दल	-10.4747
▁नकदी	-10.4748
हट	-10.4754
▁छप	-10.4755
▁बडा	-10.4757
me	-10.476
▁वन्य	-10.4768
▁उपग्रह	-10.4771
▁औषधि	-10.4773
▁ग्ल	-10.4773
▁तीस	-10.4777
▁प्रशिक्षित	-10.4777
▁दरबार	-10.4782
▁गतिशील	-10.4789
▁पहुँचा	-10.479
▁कृत्य	-10.4794
लंब	-10.48
क्व	-10.4801
मुखी	-10.4802
▁सम्मानित	-10.481
▁हाइ	-10.4813
▁दिखाएँ	-10.4817
ड़िया	-10.4819
तो	-10.4827
▁रासायनिक	-10.4827
वाड़	-10.4833
▁बीत	-10.4835
▁कमांड	-10.4835
▁सिं	-10.4836
▁लक्ष्यों	-10.4841
ोद	-10.485
▁घोष	-10.485
द्वार	-10.4852
ौल	-10.4855
▁जानवरों	-10.4855
▁पुस्तकें	-10.4859
▁लिखना	-10.4863
▁जगत	-10.4865
▁तीसरी	-10.4866
▁सूजन	-10.4866
त्तर	-10.4868
पितु	-10.4869
▁पंजाबी	-10.4878
तुल	-10.4882
▁निकलने	-10.4887
फ़ी	-10.489
▁निर्णयों	-10.4906
ध्या	-10.491
▁कनाडा	-10.4911
▁परत	-10.4913
▁बैक	-10.4913
▁शो	-10.4917
▁शीत	-10.4922
▁ब्रा	-10.4923
▁इसको	-10.4926
▁मरम्मत	-10.4928
▁लम्बे	-10.4928
डीए	-10.4929
▁of	-10.493
ैक्ट	-10.493
मुक्त	-10.4943
▁तरल	-10.4944
▁छुट्टी	-10.4945
ter	-10.4949
▁नकल	-10.4951
▁टिप्पण	-10.4956
मंद	-10.4957
▁नाते	-10.4959
▁धान	-10.4961
▁ऊंचे	-10.4962
▁सम्पन्न	-10.4963
▁मैक	-10.4972
▁सम्भव	-10.4978
▁स्वाधीनता	-10.4979
▁एण्ड	-10.4979
uot	-10.498
▁स्पर्श	-10.4993
▁नार	-10.4994
▁दंत	-10.501
▁अंग्रेज़ी	-10.5011
▁आकर्षण	-10.5013
▁परिकल्पना	-10.5013
▁विकलांग	-10.5013
▁निष्पक्ष	-10.5013
▁सहानुभूति	-10.5013
क्षेत्र	-10.5017
र्प	-10.502
▁प्रभार्य	-10.5024
म्य	-10.503
▁फौज	-10.503
▁पूर्णतया	-10.5036
्टि	-10.5039
▁दुर्	-10.504
▁नम	-10.504
ाज	-10.5041
▁प्रसंग	-10.5047
▁विधायी	-10.5048
ation	-10.5049
लाई	-10.5054
▁प्लेट	-10.5055
▁चित्रण	-10.5055
▁तुमने	-10.5056
▁जरा	-10.5059
मूल	-10.5063
यान	-10.5069
▁कलाकार	-10.507
लिक	-10.507
▁क्रि	-10.5072
ऐ	-10.5077
▁विज्ञापन	-10.5081
▁उन्होनें	-10.5084
▁द्रव	-10.5085
माल	-10.5087
▁उपाधि	-10.5088
▁वर्न	-10.5091
▁आस्तिय	-10.5094
▁दस्त	-10.5095
शाली	-10.5108
त्म	-10.5111
ित्र	-10.5114
न्द्र	-10.5116
ध्व	-10.5117
▁इम	-10.5122
▁फिलीस्तीनी	-10.5122
वाहक	-10.5123
जात	-10.5126
▁अह	-10.5131
▁विस्फोट	-10.5133
▁वैष्णव	-10.5133
▁अनुभूति	-10.5135
▁सबके	-10.514
लाल	-10.514
▁बसव	-10.5141
▁कैल	-10.5146
▁सैनिकों	-10.5149
▁स्नातक	-10.515
बाजी	-10.5152
▁क्रांतिकारी	-10.5153
▁समर्थित	-10.5153
▁फसलों	-10.5156
वै	-10.5161
▁अभिभाषण	-10.5167
▁चट्टान	-10.5167
▁यहूदी	-10.5168
▁आखिर	-10.5186
▁दिल्	-10.519
▁विधियां	-10.5192
बाज	-10.5195
▁शर्तें	-10.5196
▁वासी	-10.5197
१४	-10.5206
रंग	-10.5209
▁संतुष्ट	-10.5209
▁पूर्णता	-10.5214
▁मंगल	-10.5218
रान	-10.522
▁ठहरा	-10.5222
क़्त	-10.5227
▁क्रय	-10.5233
▁पर्व	-10.5235
▁सफलतापूर्वक	-10.5242
▁ट्रैक	-10.5243
▁लगने	-10.5244
िग	-10.5246
▁मिस्र	-10.5254
ोत्तर	-10.5257
▁खेत	-10.5258
▁मील	-10.5262
ज़े	-10.5265
वस	-10.5269
कू	-10.527
दायक	-10.5271
▁मुकाबले	-10.5272
▁आधे	-10.5272
▁अंध	-10.5281
ाचार	-10.5288
▁इन्हीं	-10.5289
▁उग्र	-10.5293
तिक	-10.5295
युक़्त	-10.53
▁माइक्रो	-10.5307
▁पेशेवर	-10.5307
▁बनाती	-10.5311
▁स्कूलों	-10.5317
लम	-10.5319
क्का	-10.5323
▁शपथ	-10.5325
▁प्राणी	-10.5327
▁शादी	-10.5329
▁उम	-10.5334
▁चरम	-10.5335
▁कार्यालयों	-10.5343
▁दत्त	-10.5346
▁निपटने	-10.5347
▁सकने	-10.535
’’	-10.5351
िज़	-10.5354
us	-10.5359
भूमि	-10.5364
चित्र	-10.5376
▁री	-10.5387
▁हॉ	-10.5388
▁घु	-10.5394
▁वितरित	-10.5395
▁कार्बन	-10.5396
▁सोचते	-10.5401
▁दलों	-10.5402
▁जाया	-10.5402
इंड	-10.5406
▁दाम	-10.5407
ंदा	-10.5408
▁इलेक्ट्रॉनिक	-10.5408
▁भरने	-10.5408
▁साइ	-10.5411
▁किशोर	-10.5412
▁सोम	-10.5418
th	-10.5419
▁जानना	-10.5421
▁कराई	-10.5422
▁जल्द	-10.5422
रोग	-10.5424
▁जागरूकता	-10.5425
▁समस्याएं	-10.5426
सिद्ध	-10.5427
▁यौन	-10.543
▁शास्ति	-10.5433
▁मजदूर	-10.5437
▁गवाह	-10.5447
▁आमदनी	-10.5448
▁स्वचालित	-10.5449
क्ट	-10.545
पन्न	-10.5453
▁तारा	-10.5455
▁विदेशों	-10.5461
▁आपदा	-10.5463
▁फु	-10.5463
ैस	-10.5464
▁थोड़े	-10.5466
▁भत्ता	-10.5469
▁शक	-10.5476
ेषण	-10.5479
ारा	-10.5482
▁मुहम्मद	-10.5483
नुसार	-10.5486
ज़र	-10.5487
ur	-10.549
▁नोड	-10.5492
▁एजेंसियों	-10.5501
अप	-10.5504
▁उत्पादकता	-10.5505
▁वैसा	-10.5509
▁इनपुट	-10.5509
▁पीने	-10.551
▁नमूने	-10.5516
▁वर	-10.5517
▁रूपरेखा	-10.5518
रचनाओं	-10.5518
परक	-10.5519
▁000	-10.5521
▁मिश्रित	-10.5527
▁रिज़र्व	-10.5537
▁ग्रस्त	-10.5537
▁भरपूर	-10.5539
▁उन्हे	-10.5541
▁चौक	-10.5543
▁विद्वत	-10.5543
▁लाभों	-10.5547
वृत्ति	-10.5552
प्रभा	-10.5553
ठी	-10.5555
▁गाँव	-10.5555
▁भरोसा	-10.5555
▁वयस्क	-10.5555
▁अवयव	-10.5555
▁नायक	-10.5557
▁कारगर	-10.5557
▁विभेद	-10.5559
▁बाढ़	-10.5564
▁नौकर	-10.5566
▁आंकड़	-10.5568
िं	-10.557
▁स्थूल	-10.5573
▁विपक्ष	-10.5577
▁बढ़ता	-10.5577
▁कार्यकारी	-10.5584
▁रूपये	-10.5585
लिस	-10.5589
▁अभिव्यक्त	-10.5602
▁बंधन	-10.5603
▁ठहर	-10.5607
▁आंक	-10.5608
▁जरूर	-10.5612
▁देखिए	-10.5617
घा	-10.5617
▁विशेषाधिकार	-10.5618
▁आवश्य	-10.5622
▁गिरफ्तारी	-10.5627
▁रेशम	-10.5628
▁राव	-10.5629
सेट	-10.5641
▁अवकाश	-10.5645
▁शैल	-10.565
▁उत्कृष्टता	-10.5657
▁आह	-10.5659
▁बोझ	-10.5662
▁सर्विस	-10.5668
▁नियोजन	-10.5668
रंज	-10.5672
▁स्मारक	-10.5682
▁डिजिटल	-10.5684
▁आपत्ति	-10.5686
▁खुली	-10.5693
टु	-10.5699
अधिसूचित	-10.57
▁रै	-10.5701
▁चिंतन	-10.5701
▁उपभोग	-10.5702
▁अधिकृत	-10.5712
▁हक	-10.5714
▁क्ष	-10.5717
▁बदला	-10.5718
▁सार्थक	-10.5718
▁काले	-10.5718
▁जिलों	-10.572
त्री	-10.572
▁निर्गम	-10.5727
र्श	-10.5731
▁क्लब	-10.5732
▁मैच	-10.5734
▁नाबार्ड	-10.5736
▁यूनियन	-10.5736
▁आव	-10.5736
▁शोषण	-10.5737
ध्य	-10.5738
▁वक्तव्य	-10.5738
ay	-10.5739
▁ग़	-10.574
▁संतान	-10.5744
बाल	-10.5746
▁आजकल	-10.5748
प्रा	-10.5752
▁सकी	-10.5752
▁गौर	-10.5754
▁अफगानिस्तान	-10.5755
▁नज़र	-10.5758
चाल	-10.5759
▁न्या	-10.576
▁जाएँ	-10.5764
लक	-10.5769
▁शुरूआत	-10.5773
गान	-10.5776
▁गीता	-10.5778
ेन्स	-10.5778
▁जंगली	-10.5781
▁मजदूरी	-10.5786
▁निर्धन	-10.5793
म्बर	-10.5795
▁संवेदना	-10.5799
फ्रे	-10.5803
▁नो	-10.5804
▁अरबी	-10.5805
▁वर्गीकरण	-10.581
िक्स	-10.5818
व्	-10.582
▁जयंती	-10.5828
▁बाज़ार	-10.5828
▁बढ़ाना	-10.583
▁सबको	-10.5834
वर्षीय	-10.5837
▁उपदेश	-10.5838
ट्री	-10.584
▁दूरस्थ	-10.5844
▁भिन्	-10.5845
▁मानने	-10.5846
▁मराठी	-10.5846
योजित	-10.5853
▁फुट	-10.5859
▁कहे	-10.586
ंबर	-10.5862
▁आयाम	-10.5863
▁मिलना	-10.5864
▁निराशा	-10.5866
▁यहीं	-10.5868
चु	-10.5869
te	-10.5869
▁उठाना	-10.587
ङ्	-10.5878
▁सफाई	-10.5884
▁विडियो	-10.5884
▁गणतंत्र	-10.5884
आईसी	-10.5886
▁ऊँच	-10.5887
▁राजमार्ग	-10.5887
ढा	-10.5888
▁पड़ने	-10.5895
▁रच	-10.5895
▁ओपन	-10.5901
▁आनुवंशिक	-10.5902
▁सौभाग्य	-10.5902
▁कीजिए	-10.5905
▁समता	-10.5905
▁दाव	-10.5909
▁नी	-10.5911
▁उज	-10.5914
▁इंकार	-10.5914
▁अन्याय	-10.5915
स्टो	-10.5919
▁एकत्रित	-10.5919
▁सुचरिता	-10.5921
▁किलो	-10.5921
▁संग्राम	-10.5925
▁शर	-10.5925
▁अधिनियमित	-10.5926
▁डूब	-10.5927
▁शास्त्री	-10.5935
▁लाइ	-10.5937
▁पेशी	-10.5939
▁खूब	-10.594
ग्रहण	-10.5945
▁विधा	-10.5946
▁पार्श्व	-10.5958
▁परिचालन	-10.5958
▁कराता	-10.5963
स्थल	-10.5964
▁गज	-10.5965
▁निर्वाचित	-10.5977
▁बांग्लादेश	-10.5977
▁फूट	-10.598
▁पहुंचाने	-10.598
ट्रो	-10.5982
चना	-10.5984
▁यात्री	-10.5984
▁अवमानना	-10.5987
लेख	-10.5989
ीला	-10.5989
▁दुर्लभ	-10.5996
▁नोटिस	-10.5999
▁सीधी	-10.6007
▁गोली	-10.6007
▁ज्यादातर	-10.6008
▁प्ल	-10.6008
▁समझना	-10.601
प्पा	-10.6014
▁सत्याग्रह	-10.6015
▁ज़रूरत	-10.6019
il	-10.602
▁अज्ञान	-10.6026
मंडल	-10.6039
▁थक	-10.6042
सऋ	-10.6046
▁जानवर	-10.6047
▁बताने	-10.6049
▁खरीदने	-10.6052
▁असफलता	-10.6061
▁भव्य	-10.6063
▁तत्काली	-10.6064
▁हिल	-10.6069
▁अपमान	-10.6069
▁लहर	-10.6071
▁रियासत	-10.6071
ee	-10.6073
AT	-10.6076
▁प्रतिमा	-10.6081
ैं	-10.6083
▁आंखों	-10.6084
▁पढ़ाई	-10.6087
पोर्ट	-10.6089
▁प्रयोगशाला	-10.609
▁सर्वप्रथम	-10.609
▁इस्पात	-10.609
▁स्नेह	-10.609
▁टाइप	-10.609
▁मुल्क	-10.6091
दाय	-10.6094
लिप	-10.6095
▁दस्तावेज़	-10.6097
▁बचपन	-10.6098
▁अमीर	-10.6105
▁बुक	-10.6106
▁संकलन	-10.6109
▁किराया	-10.611
▁आंख	-10.6112
▁ग्रन्थ	-10.6115
▁क़्योंक	-10.6121
ूंगा	-10.6122
डल	-10.6123
▁व्याप्त	-10.6128
▁कृषक	-10.6128
▁निवेशकों	-10.6138
लिखित	-10.6139
▁फी	-10.6141
नुमा	-10.6145
▁जोड़ें	-10.6146
▁आकर्षक	-10.6147
पंथ	-10.6152
▁काली	-10.6152
स्वरुप	-10.6155
▁वृद्ध	-10.6155
▁कर्ज	-10.6156
▁रेड	-10.6157
र्जी	-10.6157
सिल	-10.6158
क्षी	-10.6162
▁स्वर्ग	-10.6164
▁ग्रह	-10.6168
▁ऋषि	-10.6169
▁जरूरतों	-10.6174
▁लाखों	-10.6177
▁प्रतिबद्धता	-10.6184
▁प्रशासक	-10.6185
▁टेनिस	-10.6185
ट्टा	-10.6188
▁विभ	-10.6193
▁परिणामों	-10.6196
▁विलय	-10.6197
▁आकस्मिक	-10.6205
▁आश्वासन	-10.6205
▁मेहनत	-10.6205
▁सिफारिशों	-10.6206
▁इस्लामवादी	-10.6207
▁लिखत	-10.6213
ल्प	-10.6216
▁विकृत	-10.6218
उन	-10.6218
▁ऊंचा	-10.6218
▁मस्जिद	-10.6224
▁गरिमा	-10.6224
▁लम्बी	-10.6224
▁सिरे	-10.6224
am	-10.6238
▁स्रोतों	-10.6238
▁अप्रत्यक्ष	-10.6243
▁सशस्त्र	-10.6243
▁टैगोर	-10.6243
▁मसल	-10.6246
▁टैब	-10.6246
▁छू	-10.6249
▁हर्ष	-10.6249
▁प्रतिनिधियों	-10.6251
▁जैसाकि	-10.6251
साई	-10.6253
▁जै	-10.6256
मीटर	-10.6257
▁एशियाई	-10.6259
▁डालर	-10.6261
▁अकादमी	-10.6262
▁नजदीक	-10.6262
▁तालाब	-10.6263
मेन	-10.6271
▁अतिथि	-10.6273
्यता	-10.6278
▁आन्दोलन	-10.6282
EE	-10.6282
▁बुलाया	-10.6289
▁दमन	-10.629
शल	-10.629
मिया	-10.6292
▁सच्चे	-10.6301
▁सुदूर	-10.6301
▁प्रभु	-10.6304
▁l	-10.6311
▁मजबूर	-10.632
▁घायल	-10.632
▁कराए	-10.6321
▁संतोष	-10.6324
▁ढक	-10.6325
▁स्वीकार्य	-10.6326
▁संस्थागत	-10.6334
▁तरंग	-10.6335
ेरे	-10.6337
▁समर्थक	-10.6337
▁टिक	-10.6337
▁ढूंढ	-10.6337
▁विक्रेता	-10.634
▁जुड	-10.634
▁कमेटी	-10.634
▁युवक	-10.6341
▁किमी	-10.6342
to	-10.6344
▁पृथक्	-10.6347
▁समीकरण	-10.6354
▁अनुकरण	-10.6358
▁इंदिरा	-10.6359
▁उत्सुक	-10.6359
▁असंभव	-10.636
कर्ष	-10.6364
लीन	-10.6365
हरा	-10.6367
ाहट	-10.6367
▁खासकर	-10.6371
▁अपर	-10.6376
▁अपीलार्थी	-10.638
▁महान्	-10.6381
▁समकालीन	-10.6382
▁एससीसी	-10.6385
▁प्रतिवर्ष	-10.6386
▁बां	-10.6388
▁जाहिर	-10.6398
▁स्विच	-10.6408
▁लक	-10.6416
ैर	-10.6422
▁राजपत्र	-10.6423
▁भरत	-10.6425
ाणु	-10.6435
र्य	-10.6435
▁संपादक	-10.6437
▁वरीयता	-10.6437
▁आकृति	-10.6437
▁अन्	-10.644
दो	-10.6448
▁एक्सचेंज	-10.6457
▁स्ल	-10.6466
▁कंध	-10.6466
▁डाले	-10.6472
चंद्र	-10.6472
▁राष्ट्री	-10.6476
▁अहमद	-10.6479
▁कर्तव्यों	-10.6487
▁सुधारने	-10.6487
▁पते	-10.6496
▁कच्चे	-10.6496
▁प्रत्य	-10.6497
▁पूर्वोक्त	-10.6497
▁हुये	-10.6501
▁जॉन	-10.6502
ate	-10.6514
▁संव्यवहार	-10.6516
दृष्टि	-10.6517
▁कृत्यों	-10.6519
▁ढाल	-10.652
▁इनकार	-10.6521
ैया	-10.6521
▁संघीय	-10.6523
▁नमूना	-10.6531
▁सांप्रदायिक	-10.6536
▁माहौल	-10.6537
▁अपूर्ण	-10.6539
▁त्रुटिः	-10.6541
पीठ	-10.6545
▁छल	-10.6549
वृत	-10.655
▁समापन	-10.655
▁रिट	-10.6553
बर्ट	-10.6554
▁अभ्य	-10.6554
▁प्रतिरक्षा	-10.6556
▁भ्रष्टाचार	-10.6556
▁उन्नयन	-10.6556
▁अंगों	-10.6571
▁मोर	-10.6571
▁फॉर	-10.6572
▁निमित्त	-10.6576
ाभ	-10.6581
▁मृतक	-10.6582
▁मूत्र	-10.6583
▁पुकार	-10.6588
प्रिय	-10.6593
▁ठाकुर	-10.6596
▁दुर्ग	-10.6597
▁खाद	-10.6598
फो	-10.66
▁घुस	-10.6601
▁फूलों	-10.6602
▁अवधारण	-10.6606
▁घाव	-10.6607
▁प्रत्यर्थी	-10.6616
▁आवरण	-10.6617
▁विनिधान	-10.6622
शिप	-10.6626
▁उत्तराधिकार	-10.6634
▁बम्बई	-10.6636
▁साक्षात्कार	-10.6636
रेशन	-10.6636
em	-10.6646
लैण्ड	-10.6647
▁राह	-10.6648
सीसी	-10.6651
▁गाँधी	-10.6656
▁संचिका	-10.6656
ंर	-10.666
▁झु	-10.6667
▁मिथ्या	-10.6676
▁समेकित	-10.6676
▁अनिवासी	-10.6676
▁कनेक्ट	-10.6676
▁अजीब	-10.6677
▁we	-10.6679
▁अपार	-10.6682
बान	-10.6686
ड्र	-10.6686
▁देनी	-10.6688
म्मा	-10.6688
▁टू	-10.669
▁चढ़ा	-10.6693
▁श्लोक	-10.6696
▁अहम	-10.6712
क्यू	-10.6713
▁अध्य	-10.6714
▁कौंसिल	-10.6716
▁हरियाणा	-10.6716
▁पुनरीक्षण	-10.6719
▁प्रण	-10.6722
▁उन्	-10.6725
▁भ्र	-10.6728
बिया	-10.6729
▁तै	-10.6732
१५	-10.6732
ेक्स	-10.6735
▁अग	-10.6736
▁रियायत	-10.6736
▁ऋतु	-10.6738
▁सोचने	-10.674
▁छः	-10.6746
▁नेताजी	-10.6748
कृतियों	-10.6751
▁बैल	-10.6752
▁ठंड	-10.6752
▁स्त्रोत	-10.6756
▁पांव	-10.6757
▁विधवा	-10.6757
ांकित	-10.676
▁शल्य	-10.676
▁लाभांश	-10.6761
त्ति	-10.6763
बन	-10.6765
▁सिर्फ़	-10.6769
▁अहिंसा	-10.6773
▁दूरसंचार	-10.6777
ण्य	-10.6786
▁सड़कों	-10.6786
ूद	-10.6788
▁सत	-10.6795
िला	-10.6796
▁आउटपुट	-10.6797
▁पेटेंट	-10.6798
▁जू	-10.6798
▁कबीर	-10.6798
▁प्रसव	-10.6798
▁रोचक	-10.68
▁जोड़े	-10.68
▁मारे	-10.6803
▁फिलीस्तीन	-10.6809
▁क्रियान्वयन	-10.6817
▁विटामिन	-10.6817
▁भेदभाव	-10.6819
▁एक्ट	-10.6824
▁वॉ	-10.6828
्ली	-10.6833
▁सच्चाई	-10.6842
गें	-10.6847
▁समाजवादी	-10.6849
शीलता	-10.6853
▁मोटा	-10.6854
▁हमले	-10.6858
▁टर्मिनल	-10.6858
▁परिदृश्य	-10.6858
▁पुनर्वास	-10.686
▁सारणी	-10.686
▁सत्यापन	-10.6861
▁कोमल	-10.6868
AR	-10.687
▁बेटे	-10.6871
▁बुल	-10.6871
and	-10.6873
NAME	-10.6879
पुट	-10.6883
▁प्राय	-10.6885
▁सदस्यता	-10.6885
▁अभिदाय	-10.6888
▁सेशन	-10.6895
▁हड्डी	-10.6899
▁सुश्री	-10.6899
▁महाद्वीप	-10.69
▁उद्भूत	-10.6901
▁बॉक्स	-10.6904
▁रूचि	-10.6907
▁सीट	-10.6908
▁जरुरत	-10.6912
वर्ड	-10.6912
▁झुक	-10.6913
▁भेजी	-10.6917
▁पेट्रोलियम	-10.692
▁साक्षरता	-10.692
▁समायोजन	-10.6921
ादि	-10.6921
▁प्रबन्ध	-10.6921
▁टाइम्स	-10.6922
▁काफ़ी	-10.6925
▁असंगत	-10.6927
चरित	-10.6927
▁रत्न	-10.6928
▁किरायेदार	-10.6928
▁लौटा	-10.6928
▁रिहा	-10.6935
▁सिखा	-10.6937
▁राज़्य	-10.694
▁वर्क	-10.6943
▁पीछल	-10.6944
▁उधर	-10.6944
▁पान	-10.6945
मू	-10.6945
▁तू	-10.6948
ाली	-10.6952
▁अपनाई	-10.6959
▁तुम्हारा	-10.696
▁हिस्सों	-10.6961
बुल	-10.6967
कोण	-10.697
▁विकार	-10.6971
१वीं	-10.6975
बाद	-10.6979
▁मजदूरों	-10.698
▁उन्मूलन	-10.6982
▁पब्लिक	-10.6982
▁चूक	-10.6983
ियल	-10.6984
▁जिंदगी	-10.7003
▁सृष्टि	-10.7003
ma	-10.7005
▁इंजन	-10.7011
▁चम	-10.7011
▁प्रवर्ग	-10.7011
▁ओवर	-10.7021
▁मधुमेह	-10.7023
▁मुझ	-10.7024
▁राजाओं	-10.7028
ायिक	-10.704
▁पोर्ट	-10.7048
▁हिन्दुओं	-10.7049
▁पक्षियों	-10.7051
▁पूर्वोत्तर	-10.7051
▁टांग	-10.7055
लै	-10.706
▁आगमन	-10.7063
निर्देश	-10.7063
▁फट	-10.7065
▁नींव	-10.7065
माला	-10.7067
▁पतन	-10.7068
▁कृ	-10.7074
ड़ों	-10.7083
▁किरण	-10.7083
▁गे	-10.7086
▁वार्ता	-10.7087
▁ह्य	-10.7087
▁चो	-10.7092
tr	-10.7095
om	-10.7096
▁मंत्रियों	-10.7097
▁बताना	-10.7098
्ट्र	-10.7105
▁टॉ	-10.7106
▁निक्षेप	-10.711
▁विच्छेद	-10.711
मेट	-10.7113
▁रोगियों	-10.7117
गमन	-10.7127
▁शू	-10.7128
ियाई	-10.7128
▁गर्भाशय	-10.7128
▁दै	-10.7136
ंकि	-10.7136
एगा	-10.714
▁बोला	-10.7142
स्वामी	-10.7143
स्थिति	-10.7147
▁उपयोक्ता	-10.7149
▁चलती	-10.7152
▁महत्त	-10.7152
▁रहीं	-10.7154
▁तीर्थ	-10.7159
▁सॉ	-10.7159
ाट	-10.716
▁तह	-10.7161
▁निपटा	-10.7161
▁मंत्रि	-10.7165
▁मनोरंजन	-10.717
▁सर्वश्रेष्ठ	-10.717
▁अनिश्चित	-10.7172
पूर	-10.7173
▁विस्तारित	-10.7176
▁निकायों	-10.7177
▁भीड़	-10.7179
▁खोजने	-10.7186
▁पीड़क	-10.7186
▁फंस	-10.7187
ख्	-10.7188
▁चर्च	-10.7191
▁मामूली	-10.7191
▁बच्चन	-10.7191
▁मैत्रीपूर्ण	-10.7194
▁घुटन	-10.7196
▁विश्वसनीय	-10.7202
▁कैन	-10.7203
डिंग	-10.7206
दर्शन	-10.7208
▁बताता	-10.7209
▁स्टॉक	-10.7211
▁अक्टूबर	-10.7212
▁मुहैया	-10.7213
▁कब्जा	-10.7213
▁देगी	-10.7213
▁सम्बद्ध	-10.7215
▁इकट्ठा	-10.7225
▁निभाई	-10.723
रेट	-10.723
शोध	-10.7232
▁विकिरण	-10.7234
▁किलोग्राम	-10.7234
▁गुलाम	-10.7235
▁संकाय	-10.7239
एक	-10.724
ूस	-10.7248
▁जर्मन	-10.7249
ER	-10.725
▁मैत्री	-10.7253
▁उठता	-10.7253
▁कामगार	-10.7254
▁पुनर्गठन	-10.7255
▁पोल	-10.7256
▁बकाया	-10.7256
▁निर्देशित	-10.7259
▁वसूल	-10.7268
हीनता	-10.727
▁मित्रता	-10.727
▁आतंक	-10.7273
▁आयुर्वेद	-10.7276
भु	-10.7279
कै	-10.7281
▁भेड़	-10.7282
▁निर्देशों	-10.7293
भार	-10.7296
▁फेर	-10.7297
▁ओबामा	-10.7298
▁बेहद	-10.7298
▁मुख्यालय	-10.7304
▁लार्ड	-10.7307
है	-10.731
पर्ण	-10.7313
▁स्थिरता	-10.7317
▁उत्सर्जन	-10.7319
▁मोहम्मद	-10.7319
▁रखरखाव	-10.7319
▁निर्वहन	-10.732
ार्थियों	-10.7323
▁आश्रम	-10.7323
▁शान्ति	-10.7325
▁श्रमिक	-10.7334
▁गोवा	-10.7337
▁निरसित	-10.7341
▁सल	-10.7341
▁केन्द्रों	-10.7347
▁निंदा	-10.7348
▁शम	-10.7351
मारी	-10.7359
ेस्ट	-10.7361
‘	-10.7361
▁प्रोटोकॉल	-10.7362
▁गूगल	-10.7362
▁टेक	-10.7366
▁संचय	-10.7367
आईडी	-10.7372
ent	-10.7373
▁दौरा	-10.7374
▁निर्माता	-10.7374
▁सौंपा	-10.7374
▁बाध्यता	-10.7382
▁काउंसिल	-10.7384
▁सुधारों	-10.7396
▁फार	-10.7405
▁इलाहाबाद	-10.7405
▁रेगिस्तान	-10.7405
▁सामर्थ्य	-10.7405
▁रोशनी	-10.7405
▁जगा	-10.7405
▁इंगित	-10.7405
▁कठिनाइयों	-10.7406
▁कैद	-10.7406
▁प्रदाह	-10.7408
▁जज	-10.741
गीर	-10.741
▁बादशाह	-10.7412
▁जरुर	-10.7415
▁उलट	-10.7416
▁हाई	-10.7417
▁रूपों	-10.7422
▁नाल	-10.7426
क्रा	-10.7427
▁मौखिक	-10.7427
▁मुद्दा	-10.7427
▁कोयला	-10.7429
▁अभियोग	-10.7434
▁उपबंधित	-10.7435
▁संस्थापित	-10.7437
▁शिकायतों	-10.7438
▁साझीदारी	-10.7438
वसाय	-10.744
▁घेर	-10.7443
ागार	-10.7448
▁गम्भीर	-10.7449
▁स्टार	-10.7453
▁कामकाज	-10.7453
▁प्रीत	-10.7461
दुर	-10.7461
▁iv	-10.7462
ध्द	-10.7463
मोहन	-10.7464
पथ	-10.7467
▁मनाया	-10.7469
दों	-10.7469
▁स्या	-10.7469
▁आधिकारिक	-10.747
▁झिल्ली	-10.747
ॉप	-10.7472
▁अहं	-10.7475
▁कार्यनीति	-10.7476
▁यान	-10.7485
▁आश्रय	-10.7492
▁जैविक	-10.7493
ात्	-10.7507
▁काला	-10.7507
▁रेख	-10.751
▁तिहाई	-10.7514
शोधन	-10.7515
बाबू	-10.7526
▁अनंत	-10.7528
१क	-10.7531
▁स्टै	-10.7532
▁दुर्भाग्य	-10.7535
▁संकीर्ण	-10.7536
▁दुग्ध	-10.7537
ियार	-10.7539
▁पका	-10.754
बाज़	-10.7542
▁दीवान	-10.7544
▁असह	-10.7547
िच	-10.7548
▁बढा	-10.7553
▁कन	-10.7556
▁विख्यात	-10.7558
▁तमाम	-10.7558
▁खारिज	-10.7558
▁खर्चे	-10.7559
▁स्वी	-10.7564
▁साकार	-10.7567
ङ्ग	-10.7568
▁बायो	-10.7569
विद्	-10.7572
▁संस्थापन	-10.7575
मणि	-10.7576
▁गीतों	-10.7576
▁वास	-10.7578
▁फायदे	-10.758
▁दीक्षांत	-10.758
▁पत्तन	-10.7581
▁अन्न	-10.7583
▁आधी	-10.7584
▁प्रजाति	-10.7588
▁ताज	-10.7594
▁उपयोगिता	-10.7601
▁आघात	-10.7601
▁मुँह	-10.7602
▁आशंका	-10.7603
▁बही	-10.761
वर्ष	-10.7611
▁जगत्	-10.7612
▁सम्म	-10.7613
ाचार्य	-10.7615
▁आगामी	-10.7619
▁जनन	-10.7621
▁ज्या	-10.7623
ृष्ट	-10.7624
▁तृतीय	-10.7624
▁अशोक	-10.7625
▁योनि	-10.7625
▁शरण	-10.7626
विष	-10.7633
▁अब्दुल	-10.7646
▁निरन्तर	-10.7646
▁चौड़ाई	-10.7648
▁इंजीनियरिंग	-10.7649
▁सूचीबद्ध	-10.7658
▁ट्रा	-10.7659
▁सूख	-10.7661
▁कन्	-10.7661
▁बेचने	-10.7662
▁गेंदबाज	-10.7665
▁हू	-10.7667
▁जाग	-10.7667
बंद	-10.7669
ावस्था	-10.767
▁बेटी	-10.767
▁स्नान	-10.7671
▁रहकर	-10.7672
▁झेल	-10.7678
▁उन्नति	-10.7679
थो	-10.7681
▁पुरुषों	-10.7683
▁मेहर	-10.7686
▁साथी	-10.7686
▁स्वच्छता	-10.7687
भद्र	-10.7688
▁गले	-10.769
▁ध्रुव	-10.769
▁लड़कियों	-10.769
काय	-10.7695
▁अस्त	-10.7696
▁गंद	-10.7701
▁देशवासियों	-10.7705
▁लाई	-10.771
▁निधियों	-10.771
▁प्रगाढ़	-10.7713
▁स्टाफ	-10.7715
▁घटित	-10.7718
im	-10.7724
▁एससी	-10.7726
▁लू	-10.7733
▁रंगमंच	-10.7735
▁पीडीएफ	-10.7735
▁अवधारित	-10.7736
▁मुर	-10.7738
कृ	-10.7739
▁पर्यटकों	-10.7745
▁नारी	-10.775
▁ज्योति	-10.775
तापूर्वक	-10.7756
▁पाद	-10.7757
▁सहभागिता	-10.7757
▁अवलोकन	-10.7757
▁विनियमित	-10.7764
▁हटाए	-10.7764
बर्ग	-10.7764
केट	-10.7775
कोट	-10.7776
▁प्रजातिय	-10.7776
▁कवर	-10.7777
ंगर	-10.7777
▁तुरन्त	-10.778
सुर	-10.7782
▁किराए	-10.7783
▁लाए	-10.7784
सिन	-10.7785
ार्थी	-10.7786
▁कंप	-10.779
▁गंभीरता	-10.7795
▁विशेषज्ञों	-10.78
▁आचार	-10.7804
▁धूल	-10.7805
▁छोड़ने	-10.781
कुर	-10.7814
▁निदान	-10.7814
▁मनुष्यों	-10.7814
▁लौटने	-10.7817
ायन	-10.7819
▁आशुतोष	-10.7825
id	-10.7825
▁सूचक	-10.7826
क़ा	-10.7826
धारा	-10.7832
▁समझी	-10.7832
▁इंटर	-10.7833
▁उम्मीदवार	-10.7839
रिंग	-10.7845
▁कहती	-10.7846
▁नियोक्ता	-10.7847
▁श्रीलंका	-10.7847
▁संस्कार	-10.7847
▁निकले	-10.7852
▁सुगम	-10.7856
▁बीमाकर्ता	-10.7856
▁आलेख	-10.7865
▁प्रस्तावों	-10.7869
नीत	-10.7871
▁मुह	-10.7878
▁पुत्री	-10.788
▁वात	-10.7885
राय	-10.7887
▁धार	-10.7899
ल्यू	-10.79
क्रिया	-10.7901
▁मिलन	-10.7906
▁अफ़	-10.7908
▁हटाया	-10.7908
निर्	-10.7908
▁ढो	-10.7912
▁विषयक	-10.7914
▁ग्यारह	-10.7915
▁स्वैच्छिक	-10.7915
▁प्रगतिशील	-10.7917
▁प्रतिलिपि	-10.7918
▁कपड़ा	-10.7918
▁विनि	-10.792
▁प्रतिस्पर्धा	-10.7921
▁ट्रै	-10.7923
योग्य	-10.793
▁अण्ड	-10.7935
सिस	-10.7938
▁चमत्कार	-10.7938
▁दशमलव	-10.7938
जनों	-10.7938
▁अन्तर्राष्ट्रीय	-10.7938
▁्याय	-10.7939
दश	-10.7941
रना	-10.7947
▁केन्द्रित	-10.7952
▁झाड़	-10.7953
▁कुटुम्ब	-10.7961
▁दुरुपयोग	-10.7961
▁निर्दोष	-10.7961
▁अँ	-10.7962
र्ध	-10.7962
▁सक	-10.7966
▁गरम	-10.7969
▁नानक	-10.7986
▁ब्यूरो	-10.7993
▁नाव	-10.7993
▁परियोजनाएं	-10.7996
▁रोड	-10.8002
▁at	-10.8004
▁प्रतिबिंब	-10.8007
▁रसीद	-10.8007
▁कट्टर	-10.8007
▁लेखापरीक्षा	-10.8008
▁बेकार	-10.8009
ैट	-10.801
▁प्रस्तुति	-10.801
▁मधुर	-10.8013
▁मापन	-10.8014
▁बचे	-10.8023
टेल	-10.8024
रानी	-10.8025
▁अय	-10.8027
▁एकजुट	-10.803
▁चिर	-10.8032
▁एज	-10.8035
तन्त्र	-10.8039
▁बूट	-10.8041
▁मूल्यवान	-10.8042
लियन	-10.8043
▁छेद	-10.8051
▁मूर्ख	-10.8053
▁हड़ताल	-10.8053
▁डब्ल्यू	-10.8055
▁खिलाड़ी	-10.8055
नू	-10.806
▁घोर	-10.806
▁सवार	-10.8062
▁पटल	-10.8062
▁उदर	-10.8062
ेयर	-10.8065
▁भगत	-10.8066
शाह	-10.8066
▁बनकर	-10.8069
▁इंजीनियर	-10.807
ॉक्स	-10.8073
▁सांप	-10.8074
▁उपहार	-10.8075
न्दा	-10.8075
ानंद	-10.8077
▁लोगो	-10.8081
▁जिसमे	-10.8082
▁धारित	-10.8083
रियल	-10.809
▁सहेज	-10.8099
▁स्वायत्त	-10.8099
▁बदरूद्	-10.8099
▁रिवाज	-10.8101
▁ट्रांस	-10.8103
▁शर्मा	-10.8105
▁विचित्र	-10.8106
▁रोका	-10.8108
▁कार्यकाल	-10.8109
▁जीवंत	-10.8111
▁आइए	-10.8116
▁ईमानदारी	-10.8119
ne	-10.8121
▁एसोसिएशन	-10.8122
▁मेमोरी	-10.8122
्नी	-10.8122
▁प्रचुर	-10.8122
▁गिरा	-10.8122
▁प्रतिकर	-10.8127
▁घुमा	-10.813
▁व्यास	-10.8133
दीप	-10.8134
▁घड़ी	-10.8136
▁पद्धतियों	-10.8143
तोष	-10.8144
▁सेल	-10.8145
▁सामुदायिक	-10.8145
▁स्थलों	-10.8146
▁विधानसभा	-10.8146
गृहीत	-10.8154
▁अभिन्न	-10.8161
▁आज्ञा	-10.8164
▁इनसे	-10.8164
▁प्रतिवेदन	-10.8169
▁खातों	-10.8169
▁डोमेन	-10.8169
▁ब्रह्मा	-10.8171
▁भागवत	-10.8174
▁दृढ़ता	-10.8179
▁दुर्गा	-10.8179
▁बिन	-10.8179
▁धर्मों	-10.8182
▁दीवारों	-10.8183
▁खपत	-10.8183
▁क्रोध	-10.8184
▁दायित्वों	-10.8185
स्टा	-10.8186
▁संतुलित	-10.8192
▁सटीक	-10.8192
्तर	-10.8193
▁लचील	-10.8193
टिल	-10.8204
▁धारक	-10.8209
▁कोटि	-10.8213
▁लाहौर	-10.8216
▁समामेल	-10.8216
▁सचिवालय	-10.8217
▁निर्वाह	-10.8221
▁आवाज़	-10.8223
▁विषम	-10.8223
वट	-10.8232
▁अस्पष्ट	-10.8239
▁डेस्कटॉप	-10.8239
▁हैसियत	-10.8239
▁अतिक्रमण	-10.824
शियन	-10.8241
▁सालों	-10.8248
▁अनन्य	-10.8249
▁औषध	-10.825
ir	-10.8259
▁अन्तः	-10.8262
▁अंतरिम	-10.8267
खड़	-10.8272
▁निर्माताओं	-10.8273
त्या	-10.828
▁बहुल	-10.8281
▁अनुभवों	-10.8284
▁वापिस	-10.8286
▁समाहित	-10.8288
▁कहलाता	-10.8292
▁क्षमा	-10.8299
▁मुड़	-10.8302
▁बढ़े	-10.8305
देह	-10.8307
▁कूद	-10.8307
▁निविदा	-10.831
▁गतिविधियां	-10.8312
▁पॉल	-10.8313
यंत्र	-10.8313
ानन्द	-10.8314
▁सेवन	-10.8322
लस	-10.8323
▁मंद	-10.8323
co	-10.8326
▁परजीवी	-10.8327
विल	-10.8331
▁स्थानांतरित	-10.8333
▁यात्रियों	-10.8334
▁लक्ष्मी	-10.8334
▁संरक्षित	-10.8338
▁सभाओं	-10.8339
▁याचिकाकर्ता	-10.8342
▁१६	-10.8348
▁de	-10.8351
▁प्रवास	-10.8353
▁बिर	-10.8356
▁सोवियत	-10.8357
▁विधायिका	-10.8357
▁श्रेय	-10.8359
▁प्रभुत्व	-10.8359
▁बरस	-10.836
▁जंग	-10.8363
ha	-10.8363
साध्य	-10.8364
▁बादल	-10.8367
▁निकालना	-10.8381
▁हार्डवेयर	-10.8381
▁सतर्कता	-10.8383
▁गौण	-10.8386
▁गयीं	-10.8388
▁एंव	-10.8391
▁बदलें	-10.8392
▁लड़का	-10.8397
▁सिंधु	-10.8399
पीएस	-10.84
▁मार्	-10.8401
▁बोलने	-10.8405
▁प्राइवेट	-10.8405
▁निष्पादित	-10.8405
▁हिमनद	-10.8406
▁हानिकारक	-10.8406
▁मंत्र	-10.8412
▁जनजाति	-10.8415
▁प्रश	-10.8418
भू	-10.842
खण्ड	-10.8423
▁प्रौढ़	-10.8429
▁विलियम	-10.8431
▁पाठ्य	-10.8433
▁गुल	-10.8436
▁व्याकरण	-10.8436
आँ	-10.8442
▁माध्य	-10.8446
लिय	-10.8449
▁सेंट	-10.8453
▁पंद्रह	-10.8453
▁प्रख्यात	-10.8453
एंगे	-10.8453
▁घातक	-10.8457
▁बजाए	-10.8458
ख़ा	-10.8462
▁पाठकों	-10.8465
▁यज्ञ	-10.847
▁पद्म	-10.8473
▁ट्रे	-10.8476
▁आंकड़ा	-10.8477
▁बढ़ाया	-10.8477
▁छंद	-10.8478
स्कर	-10.8482
▁चलना	-10.8487
▁दक्ष	-10.8491
▁जितने	-10.8493
▁नाट्य	-10.8501
▁भूटान	-10.8501
▁बंदरगाह	-10.8501
▁व्यक़्ति	-10.8502
ज्ञा	-10.8508
▁टै	-10.8509
ोगे	-10.8518
▁अन्ध	-10.8518
पत्ति	-10.8519
रक्त	-10.8522
वक्ता	-10.8522
▁दौरे	-10.8522
▁आस्ट्रेलिया	-10.8525
▁दोबारा	-10.8525
▁यकीन	-10.8525
▁चंद	-10.8527
▁मंत्रालयों	-10.8529
▁उदाहरणार्थ	-10.8533
ान्तर	-10.8533
▁मुल	-10.8534
ाइम	-10.8541
भाई	-10.8546
▁चं	-10.8546
▁आंत	-10.8548
▁भ्रूण	-10.8549
▁धूप	-10.8549
▁संभाव्य	-10.8549
▁निःशुल्क	-10.8549
▁चुप	-10.8554
▁उत	-10.8556
▁द्रव्य	-10.8558
▁संज्ञा	-10.8558
कीय	-10.8565
▁In	-10.8565
राष्ट्रीय	-10.8569
▁हरी	-10.8573
▁दिलचस्प	-10.8573
▁वांछित	-10.8574
▁मणिपुर	-10.8574
▁दीर्घकालिक	-10.8574
राज्य	-10.8578
▁गढ़	-10.8581
२क	-10.8582
िणी	-10.8582
▁संस्थाएं	-10.8584
▁निर्णायक	-10.8585
▁छोर	-10.8585
▁पाइप	-10.8586
स्था	-10.859
▁संयोग	-10.859
▁शास्त्रीय	-10.8597
▁अपर्याप्त	-10.8598
▁निषेध	-10.8598
▁मत्स्य	-10.8598
▁औजार	-10.8598
▁अध्यादेश	-10.8598
कर्त्ता	-10.8599
नेवाला	-10.8602
ैम	-10.8607
▁प्राणियों	-10.8608
▁शुभ	-10.8609
गृह	-10.861
पाट	-10.8611
वंत	-10.8616
▁क्वा	-10.8618
▁गोपाल	-10.8618
▁संप्रदाय	-10.8622
▁पड़ोसी	-10.8624
▁भूत	-10.8624
▁चिह्नित	-10.8625
▁खोलें	-10.8627
▁सुनी	-10.8631
▁आक्षेप	-10.8631
ैश	-10.8631
ंगो	-10.8633
रोधी	-10.8635
रेखा	-10.8642
▁हिला	-10.8645
▁परिसीमा	-10.8647
▁सच्ची	-10.8647
▁सख्त	-10.8647
▁पोषक	-10.8647
▁दंडादेश	-10.8648
▁सेंटर	-10.865
▁जादू	-10.8656
▁गौ	-10.8657
िकता	-10.8662
os	-10.8664
▁अद्भुत	-10.8671
▁अल्पसंख्यक	-10.8671
▁निर्व	-10.8674
▁मिश्र	-10.8682
्यूट	-10.8687
▁तिर	-10.8688
ष्ण	-10.8691
▁उद्यमियों	-10.8693
▁जगन्नाथ	-10.8696
▁सनातन	-10.8696
▁जाएंगी	-10.8696
ढ़ा	-10.8697
▁युक्तियुक्त	-10.8698
▁इधर	-10.8701
्हे	-10.8702
सम्मत	-10.8712
▁फॉर्म	-10.8713
पक्ष	-10.8714
▁अतएव	-10.872
▁श्वसन	-10.872
▁तप	-10.8721
▁सावधान	-10.8724
▁ओह	-10.8725
जीत	-10.8729
▁साम्राज्यवाद	-10.8731
वारी	-10.8733
कारक	-10.8737
▁अकेला	-10.8739
वर्धित	-10.8741
▁अनावश्यक	-10.8745
▁डिफ़ॉल्ट	-10.8745
▁उद्धृत	-10.8745
▁अर्पित	-10.8747
▁दादा	-10.8747
▁आगरा	-10.876
िद	-10.8765
▁सूर	-10.8767
ैत	-10.8768
▁कारकों	-10.8769
▁अर्जुन	-10.877
▁डेटाबेस	-10.877
डम	-10.8771
▁साथियों	-10.8775
na	-10.8779
ंजन	-10.8785
▁आंबेडकर	-10.8795
▁महाकाव्य	-10.8795
▁आओ	-10.8797
▁ट्रेड	-10.8798
मूल्य	-10.8801
क्षेप	-10.8803
फू	-10.8806
बै	-10.8812
▁बारी	-10.8813
▁ऊंट	-10.8815
▁मुख़्य	-10.882
ाइज	-10.8838
▁सांसद	-10.884
▁अटल	-10.8847
▁एआईआर	-10.8848
पुष्ट	-10.8859
▁संक्रिया	-10.8862
्को	-10.8865
▁पुणे	-10.887
▁सूअर	-10.8872
▁संख़्या	-10.8872
प्रदेश	-10.8873
▁टुकड़े	-10.8874
▁पाती	-10.8874
▁पासवर्ड	-10.8876
▁मानों	-10.8881
▁हरे	-10.8882
▁शासकों	-10.8889
▁तैर	-10.8889
▁कहकर	-10.8892
▁कूटशब्द	-10.8895
▁यांत्रिक	-10.8895
▁चेहरा	-10.8895
▁किले	-10.89
▁वर्षो	-10.8901
▁शिरा	-10.8902
▁हरा	-10.8902
▁पैरों	-10.8903
▁विगत	-10.8903
▁कृपा	-10.8906
▁रवि	-10.8907
▁पवन	-10.8911
▁क्षमताओं	-10.8912
▁हेम	-10.8912
▁सौहार्द	-10.892
▁निवेदन	-10.892
▁गुणसूत्र	-10.8921
▁अभिनेता	-10.8923
▁खैर	-10.8926
▁जानती	-10.8929
हू	-10.8931
▁ऑन	-10.8933
▁जनजातिय	-10.8934
▁आचार्य	-10.8937
▁साख	-10.8938
▁प्रदाता	-10.8941
▁द्वारकानाथ	-10.8945
▁साक्षियों	-10.8945
▁भयानक	-10.8945
▁नवीनतम	-10.8948
▁संजाल	-10.8949
गिन	-10.8956
भेद	-10.8956
▁बुश	-10.8957
▁टीवी	-10.8961
▁गुजराती	-10.8967
▁बनायी	-10.8969
▁निरपेक्ष	-10.897
ात्मा	-10.8971
▁मास्टर	-10.8971
ुस	-10.8975
▁लायक	-10.8976
▁पट्ट	-10.8981
▁नाना	-10.8985
▁अर्द्ध	-10.8985
▁पिछड़े	-10.899
▁अपशिष्ट	-10.8995
▁काश्मीर	-10.8995
▁स्वदेशी	-10.8996
▁दुर्बल	-10.8997
▁संपादित	-10.8999
▁दाल	-10.9003
▁स्वार्थ	-10.9004
▁भेजें	-10.9007
स्राव	-10.9008
▁माध्यमिक	-10.9009
पिंग	-10.901
डू	-10.9011
क्रिय	-10.902
▁औचित्य	-10.9021
▁कार्यवाहियां	-10.9021
▁परेशानी	-10.9023
▁सुपर	-10.9024
▁संस्थापक	-10.9026
▁अफ	-10.9031
वय	-10.9035
▁टर्	-10.9045
▁पारदर्शिता	-10.9046
▁एजेंट	-10.9047
▁सूचकांक	-10.905
युग	-10.9051
▁प्रविष्ट	-10.9057
▁झलक	-10.9058
वर्ण	-10.9058
▁प्रपत्र	-10.9063
▁अंधेर	-10.9065
▁शव	-10.9067
▁अश्व	-10.907
▁संदिग्ध	-10.9072
▁सांख्यिकी	-10.9072
सिया	-10.9074
▁पर्यवेक्षण	-10.9078
▁लेबल	-10.9081
▁कमर	-10.9082
▁परिधि	-10.9084
ोला	-10.9084
ers	-10.9089
तुर	-10.9089
▁लड़ने	-10.909
कोष	-10.9091
▁अभिप्राय	-10.9097
▁ऑपरेट	-10.9098
▁दिलचस्पी	-10.9098
▁तत्पर	-10.9099
▁चलकर	-10.9101
▁बालकों	-10.911
षक	-10.9115
▁मेज	-10.9115
रक्षण	-10.912
▁शुष्क	-10.9123
▁कंपनियां	-10.9123
▁प्रशांत	-10.9124
▁कीमतों	-10.913
▁विवश	-10.9135
▁ऊतकों	-10.9141
▁चित्त	-10.9143
▁एमएसएमई	-10.9149
▁मार्गदर्शक	-10.9149
▁रूपान्तर	-10.9149
प्रति	-10.9154
▁वाम	-10.9157
▁लगाकर	-10.9158
▁काटने	-10.9167
▁बदलना	-10.917
ंद्र	-10.9171
▁आविष्कार	-10.9174
▁पारिवारिक	-10.9174
▁सत्यापित	-10.9174
▁पूरक	-10.9177
▁पावर	-10.9179
▁तत्सम	-10.918
▁अवतार	-10.9181
▁परिपूर्ण	-10.9185
▁बेचा	-10.9194
आइ	-10.9197
▁महर्षि	-10.92
▁स्टाक	-10.9202
▁भट्ट	-10.9205
न्या	-10.9208
▁समावेशी	-10.9209
▁उत्प	-10.921
va	-10.9213
▁the	-10.9214
ावरण	-10.9225
▁अंतर्विष्ट	-10.9226
▁आलोचक	-10.9226
▁गंतव्य	-10.9226
▁वित्तपोषण	-10.9226
▁टेप	-10.923
▁गोप	-10.9238
▁गरीबों	-10.924
गुल	-10.9245
▁अनुमानित	-10.9245
ंति	-10.9246
ऑ	-10.9247
▁चोरी	-10.9247
िंद	-10.9248
लोम	-10.9251
▁मुताबिक	-10.9252
▁अभिनय	-10.9252
▁निर्द	-10.9255
▁कहलात	-10.9257
▁नीर	-10.9257
▁मंजिल	-10.9259
▁पग	-10.9266
are	-10.9267
▁वृक्क	-10.9268
▁फांसी	-10.9278
▁निकला	-10.9278
▁पंचाट	-10.9279
▁प्रवासी	-10.9279
▁बर्तन	-10.928
▁प्रतिष्ठान	-10.928
दाताओं	-10.9281
▁यातना	-10.9283
ैड	-10.9283
डोर	-10.9291
ण्	-10.9293
▁माइ	-10.9299
लिका	-10.9302
▁इच्छुक	-10.9304
▁आश्चर्यजनक	-10.9306
▁भोग	-10.9308
आईटी	-10.931
▁श्रमिकों	-10.9311
▁चलाए	-10.9311
▁सच्चा	-10.9311
▁परिणत	-10.9311
गणित	-10.9315
▁सम्भावना	-10.9316
▁साधना	-10.932
▁गुर	-10.9321
▁आबंटन	-10.9331
▁चालक	-10.9343
▁दर्शक	-10.9354
▁सोना	-10.9355
▁दरवाजे	-10.9357
▁पायी	-10.9358
क्षक	-10.9359
▁ईमेल	-10.936
व्यापी	-10.9366
▁प्रतिभूतियों	-10.9366
▁खु	-10.9367
ेप	-10.9372
▁जमाने	-10.9376
sh	-10.9377
▁पदक	-10.9378
▁पडा	-10.9378
▁गोद	-10.9379
▁गिरावट	-10.9383
▁छिद्र	-10.9384
▁बेशक	-10.9384
▁उग	-10.9385
नायक	-10.9385
▁सर्वथा	-10.9387
कार्य	-10.9388
▁वृहत	-10.9388
रिट	-10.939
▁क्रियाओं	-10.9392
▁प्रेमी	-10.9396
▁क्लो	-10.9407
▁बताए	-10.9407
▁इस्लामवाद	-10.9408
▁वेग	-10.9409
▁तात्पर्य	-10.9409
▁लक्ष्मण	-10.9409
▁अभिरक्षा	-10.9409
▁अभियोजक	-10.9412
▁रिश्त	-10.9412
य्या	-10.9413
लेखन	-10.9419
पेट	-10.942
जीवी	-10.9421
▁आरक्षण	-10.9425
▁अपीलीय	-10.9426
▁मजबूती	-10.9429
▁लड	-10.9429
▁शौक	-10.943
श्रु	-10.9433
▁तात्कालिक	-10.9436
▁ग्रुप	-10.9436
▁पठन	-10.9437
▁प्रौद्योगिकियों	-10.9441
▁दर्जा	-10.9448
▁मधु	-10.9459
▁निरूपित	-10.9462
▁मस्त	-10.9464
▁पट्टे	-10.9464
▁संचरण	-10.9467
चारी	-10.947
▁चुनावों	-10.947
▁ae	-10.9475
▁स्पेन	-10.9479
▁रात्रि	-10.948
▁ईस्ट	-10.9481
▁स्थाई	-10.9481
▁पद्य	-10.9488
▁जबरदस्त	-10.9489
लाइट	-10.949
▁बहुमूल्य	-10.949
▁लक्षणों	-10.9491
▁व्यर्थ	-10.9493
▁सिंध	-10.9494
ia	-10.95
सेन	-10.9501
▁विशेषताओं	-10.9505
▁अवगत	-10.951
गाह	-10.9513
ोरा	-10.9514
▁आत्महत्या	-10.9516
▁सर्प	-10.9521
▁टेस्ट	-10.9526
▁चारा	-10.953
▁लेगा	-10.9531
▁सिनेमा	-10.9542
▁हँस	-10.9543
▁वक्र	-10.9544
यालय	-10.9548
▁दंडनीय	-10.955
रेटर	-10.955
आरए	-10.9551
▁निकाले	-10.9561
▁मानस	-10.9562
ट्रा	-10.9566
▁प्रतिबद्ध	-10.9569
▁जमींदार	-10.9569
▁जटिलता	-10.957
▁मूलतः	-10.957
▁अब्दुल्ला	-10.957
▁सीखा	-10.9573
▁पटेल	-10.9576
धारकों	-10.9578
▁सऋ	-10.9583
▁सुनाई	-10.9585
मेल	-10.9593
▁वनों	-10.9594
▁फलों	-10.9595
▁घोड़े	-10.9596
▁समीप	-10.9597
▁स्वाद	-10.9598
▁बाबा	-10.9607
▁उतने	-10.9611
▁मानदंड	-10.9613
टिव	-10.9614
िआ	-10.9617
▁कीटनाशक	-10.9624
▁मारने	-10.9625
▁तालिका	-10.9626
▁मास्टर्स	-10.9627
▁आरोपों	-10.9629
▁आभूषण	-10.963
पेक्ष	-10.9633
▁सौदा	-10.9636
▁ललिता	-10.9643
▁संकर	-10.9648
▁गेहूं	-10.965
▁लार्वा	-10.9651
▁गुलाब	-10.9652
▁अधिग्रहण	-10.9652
▁तिरु	-10.9654
वेयर	-10.9654
▁स्थानांतरण	-10.9655
▁बिलियन	-10.9657
▁खनन	-10.9658
डीपी	-10.966
गुन	-10.9671
कुमार	-10.9674
▁नरम	-10.9674
▁मुफ्त	-10.9677
▁बलिदान	-10.9678
▁विकेट	-10.9684
▁चाहेंगे	-10.9688
▁आर्क	-10.969
▁बोले	-10.9691
लाप	-10.9691
ैप	-10.9697
▁जंतु	-10.9704
त्ती	-10.9705
▁ढूँढ	-10.9706
▁चरणों	-10.9706
▁मानचित्र	-10.9707
▁लाभदायक	-10.9709
▁अनुभाग	-10.971
pe	-10.9711
▁सीडी	-10.9712
स्तान	-10.9713
रवाना	-10.9713
▁बुराई	-10.9714
▁सोचना	-10.9716
▁पूछे	-10.9717
थ्र	-10.972
▁नाटकीय	-10.9721
▁नियन्त्रण	-10.9732
▁आजीविका	-10.9732
▁मस	-10.9733
▁दवाओं	-10.9735
दित	-10.9738
▁मौके	-10.9739
▁सूरज	-10.974
ho	-10.9743
नाई	-10.9744
▁बढ़ाकर	-10.9749
▁ट्रेन	-10.9753
▁उपरांत	-10.9762
▁वाणी	-10.9762
▁सार्वभौमिक	-10.9765
श्वर	-10.9778
▁मातृ	-10.9785
▁अनियमित	-10.9786
▁बगैर	-10.9787
▁बिस्तर	-10.9788
▁नींद	-10.9791
▁महिलाएं	-10.9793
▁बौ	-10.9794
▁दिवा	-10.9801
भुज	-10.9802
पटल	-10.9807
धु	-10.9808
▁खेतों	-10.9813
▁चुंबकीय	-10.9814
▁फ़ॉन्ट	-10.9814
▁विघटन	-10.9814
पार्ट	-10.9815
▁अवमान	-10.9825
▁शाही	-10.983
▁ट्रस्ट	-10.984
▁गोर	-10.984
▁लूट	-10.9841
▁बशर्ते	-10.9841
▁करवाने	-10.9842
▁अवसाद	-10.9843
्सन	-10.9847
▁नली	-10.9847
▁खाड़ी	-10.9849
▁ठहराया	-10.985
▁चिल्ला	-10.9854
▁पर्यावरणीय	-10.9855
▁अखबार	-10.9855
▁छोड़ा	-10.9855
▁उदय	-10.9858
▁vi	-10.9861
ot	-10.9863
▁लगाई	-10.9865
▁स्टोर	-10.987
▁समेत	-10.987
ta	-10.9873
▁अग्रसर	-10.9873
▁बंगाली	-10.9874
▁बनाएँ	-10.9875
▁जूट	-10.9884
ph	-10.9884
▁प्लग	-10.9888
▁क्रमांक	-10.9889
▁अद्वितीय	-10.9897
▁सोसायटी	-10.9897
़ी	-10.99
▁नियोजित	-10.9901
▁ढल	-10.9902
तऋ	-10.9905
▁अनुबंध	-10.9907
▁भोज	-10.991
▁उद्यमी	-10.9912
▁रूपांतरण	-10.9919
▁लगेगा	-10.9919
▁पुरा	-10.992
्यायालय	-10.9922
▁भूकंप	-10.9924
▁विधिमान्य	-10.9925
▁ज्वर	-10.9925
▁आभार	-10.9925
मेर	-10.9926
मूर्ति	-10.9928
▁मण्डल	-10.9928
▁सिवा	-10.993
▁विशेषज्ञता	-10.993
▁प्रवाहित	-10.9934
वृ	-10.9938
ांतरण	-10.9941
▁संपादन	-10.9952
▁भयंकर	-10.9952
▁बंट	-10.9953
धारियों	-10.9955
चालित	-10.9956
▁अंडमान	-10.9958
्ष	-10.9963
▁विशिष्टता	-10.9969
▁भड़क	-10.9978
▁माया	-10.9978
▁ऑस्ट्रेलिया	-10.998
▁निकोबार	-10.998
▁लखनऊ	-10.998
▁स्नायु	-10.998
▁छुपा	-10.9988
▁प्रलेख	-10.9991
▁बोर	-10.9993
▁रेत	-10.9993
▁बीमारियों	-10.9999
▁ब्रे	-11.0001
▁वाइ	-11.0004
▁पंजी	-11.0005
▁चिन्ता	-11.0009
ग्राम	-11.001
▁सिम	-11.0011
हड़	-11.0011
▁दिखायी	-11.0014
धारित	-11.0014
▁उठे	-11.0015
▁ढलान	-11.0015
▁साइन	-11.0016
▁१७	-11.0021
▁सिफारिशें	-11.0022
▁साम्यवाद	-11.0023
▁डिवीजन	-11.0036
▁मुद्रण	-11.0037
▁विशेन	-11.0038
▁हास्य	-11.0039
ul	-11.0042
▁गार्ड	-11.0043
▁कारित	-11.0044
▁प्रदेशों	-11.0046
▁प्रारम्भिक	-11.0048
▁कैसा	-11.0049
▁पंथ	-11.0052
▁बदलते	-11.0054
ab	-11.0057
▁चित्रों	-11.0062
▁वाजपेयी	-11.0065
येंगे	-11.0065
▁अधिष्ठा	-11.0065
▁मुद्रित	-11.0065
▁उद्धरण	-11.0065
▁उत्पत्ति	-11.0065
द्घ	-11.0066
दक	-11.0067
▁उत्पादित	-11.0076
▁बेन	-11.0087
जार	-11.0087
▁आवासीय	-11.0088
▁निरोध	-11.0089
मैं	-11.0094
▁ऑटो	-11.0096
▁चित्रित	-11.0099
हान	-11.01
▁नाश	-11.01
जातीय	-11.0101
▁साठ	-11.0101
▁अपरि	-11.0101
▁पर्यटक	-11.0108
श्क	-11.0114
▁अर्जी	-11.0114
▁बनती	-11.0117
▁अंदाज	-11.0118
▁अंतःस्थापित	-11.0122
▁सेनाओं	-11.0124
▁रूढ़	-11.0127
▁हिंद	-11.0127
भोग	-11.0129
▁मेनन	-11.013
▁टाल	-11.0133
▁सरलता	-11.0134
टिन	-11.014
▁आवृत्ति	-11.0143
▁sa	-11.0144
▁नीतियां	-11.0144
▁तेलुगु	-11.015
▁सर्किट	-11.015
▁पेय	-11.0151
▁राजकीय	-11.0152
▁सौदे	-11.0153
▁नीला	-11.0154
▁मेनू	-11.0157
▁पेड़ों	-11.0158
रक्षित	-11.0162
▁बलराम	-11.0162
स्थित	-11.0174
▁सूखे	-11.0175
▁हल्के	-11.0178
▁व्यायाम	-11.0178
▁क्रो	-11.0179
▁परिपथ	-11.0181
▁टूल	-11.0182
▁प्रतिस्थापित	-11.0193
▁टेली	-11.0193
▁नहर	-11.0194
हीं	-11.0197
▁उपनिवेश	-11.0204
▁पुर्तगाल	-11.0207
▁मॉड्यूल	-11.0207
▁सरस्वती	-11.0207
▁तार्किक	-11.0207
जिक	-11.0208
▁इंसान	-11.0209
▁हटाना	-11.0213
▁क्षय	-11.0218
वरी	-11.0221
▁फिल्मों	-11.0223
▁लेखों	-11.0223
▁com	-11.0228
▁पत्रकार	-11.0228
▁अभ	-11.0233
▁परिसंपत्ति	-11.0234
▁पारिश्रमिक	-11.0235
▁समुच्चय	-11.0235
▁सिक्किम	-11.0235
▁पूँजी	-11.0235
▁विवेचन	-11.0235
▁चिंतित	-11.0236
▁बुखार	-11.0236
▁स्म	-11.0237
▁फर्क	-11.0247
▁डाली	-11.0251
जिन	-11.0256
क्षम	-11.0259
जान	-11.0263
▁सामंजस्य	-11.0264
▁पूछताछ	-11.0264
▁अणु	-11.0264
▁झगड़	-11.0267
शियल	-11.0287
णीय	-11.0287
कूट	-11.0289
▁तीव्रता	-11.0291
▁अंतर्निहित	-11.0293
▁उपाध्यक्ष	-11.0293
▁सरकारें	-11.0294
व्या	-11.0295
▁संभावनाएं	-11.0296
▁दिलाने	-11.0298
▁भौ	-11.0304
हरण	-11.0306
▁बज	-11.0314
▁शांतिपूर्ण	-11.0315
▁स्राव	-11.0316
▁यश	-11.0316
▁क्षेत्रफल	-11.0317
▁जीने	-11.0319
▁विरल	-11.0319
▁प्रीमियम	-11.0322
▁स्थगित	-11.0322
▁सउदी	-11.0322
▁हस्तांतरण	-11.0322
▁अवशेष	-11.0326
▁अनुपस्थिति	-11.0328
▁भटक	-11.0328
▁रथ	-11.033
फिल	-11.033
▁वर्गीकृत	-11.033
▁नीच	-11.0331
▁आंखें	-11.0331
▁विशेषताएं	-11.0336
▁दर्शाया	-11.0336
▁सितार	-11.0345
um	-11.0348
▁समाविष्ट	-11.0351
▁धमकी	-11.0351
▁विनोद	-11.0351
▁अत्याचार	-11.0351
▁धनी	-11.0352
▁नवाचार	-11.0352
▁बैठकों	-11.0353
▁प्रिंटर	-11.0355
▁धर	-11.0357
▁संरक्षक	-11.0361
▁मरीज	-11.0362
▁उभार	-11.0365
▁भ्रमण	-11.0365
ट्टी	-11.0374
▁दिनांकित	-11.038
▁राधाकृष्णन	-11.038
▁शृंखला	-11.038
▁दोपहर	-11.038
▁बाह	-11.0384
खाना	-11.0387
र्र	-11.0387
▁निरस्त	-11.0388
▁डालना	-11.0393
▁पड़ते	-11.0395
▁जवान	-11.0395
साद	-11.0404
▁बंधक	-11.0405
▁साध	-11.0406
▁फैले	-11.0408
▁चुपचाप	-11.0409
शुल्क	-11.0409
▁करुणा	-11.0409
▁स्नातकोत्तर	-11.0409
▁ग्रीन	-11.0414
▁सतत्	-11.0415
एसएस	-11.0419
▁बाइ	-11.0419
पिंड	-11.0424
▁खादी	-11.0431
▁मेघ	-11.0432
▁लैंगिक	-11.0438
▁सघन	-11.0438
▁उत्त	-11.044
▁सारांश	-11.044
सूची	-11.0442
▁हॉल	-11.0445
▁बुरे	-11.0452
▁इन्द्रिय	-11.0454
▁निस्	-11.0455
▁जोड़ी	-11.0462
▁नैतिकता	-11.0465
▁राधा	-11.0467
▁ताजमहल	-11.0467
▁समन्वित	-11.0468
▁जनजातीय	-11.0469
▁नियोजक	-11.047
▁मणील	-11.047
▁कैप	-11.0472
मीन	-11.0474
▁बुद्धिमान	-11.0477
▁सीरिया	-11.0479
▁समूचे	-11.048
▁तिल	-11.0484
बैक	-11.0486
ोसिस	-11.049
▁डै	-11.049
▁सूखा	-11.0494
आईए	-11.0494
▁आबंटित	-11.0497
▁धैर्य	-11.0497
▁महानिदेशक	-11.0497
▁वकालत	-11.0497
▁उन्मुक्त	-11.0497
▁नारियल	-11.0499
▁न्यायपीठ	-11.05
▁शिविर	-11.0501
▁अंशदान	-11.0502
▁अर्थशास्त्र	-11.0509
▁ताजा	-11.051
▁पेपर	-11.0511
▁चाहें	-11.0513
▁गुम	-11.0514
▁बं	-11.0515
च्य	-11.0516
▁असीम	-11.0517
▁माला	-11.0521
▁इन्होंने	-11.0526
▁हेक्टेयर	-11.0526
▁हज़ार	-11.0527
▁अष्ट	-11.0529
रुण	-11.053
▁नवान्वेष	-11.0531
▁लगाये	-11.0533
▁हथियारों	-11.0537
कोश	-11.0541
▁खोला	-11.0541
ss	-11.0544
▁शै	-11.0544
भ्य	-11.0547
▁ग्रंथों	-11.055
▁करूंगा	-11.0551
▁मुकाबला	-11.0556
▁चक्कर	-11.0556
▁नतीजा	-11.0556
▁शर्म	-11.0557
▁सैकड़	-11.0558
म्स	-11.0558
▁फारसी	-11.0561
▁प्रसारित	-11.0567
▁मोटी	-11.0569
▁ग्रंथि	-11.0571
▁बांस	-11.0581
▁तयशुदा	-11.0586
▁देवनागरी	-11.0586
▁सिक्ख	-11.0586
▁वाष्प	-11.0586
▁प्लास्टिक	-11.0586
अली	-11.0588
▁पारदर्शी	-11.0588
▁कृमि	-11.0595
di	-11.0597
▁नामांकन	-11.0598
▁अनुमत	-11.0608
▁तिलक	-11.0609
▁आखिरी	-11.0609
▁बाण	-11.061
▁सेवानिवृत्त	-11.0613
▁हमसे	-11.0613
ity	-11.0613
▁ग्लोबल	-11.0615
▁मलयालम	-11.0615
▁तिब्बत	-11.0615
लौकिक	-11.0616
▁सुलह	-11.0616
▁बालों	-11.0617
▁ख्याल	-11.0618
▁परंपराओं	-11.0621
▁पढ़ना	-11.0622
▁नाच	-11.0631
▁मंदी	-11.0634
▁संसद्	-11.0635
▁समितियां	-11.0636
▁मशीनों	-11.064
▁खुर	-11.0644
▁क्षेञ	-11.0645
▁चौदह	-11.0645
▁रोकथाम	-11.0645
▁खगोल	-11.0645
▁दीजिए	-11.0645
▁असमानता	-11.0645
▁सहयोगियों	-11.0646
▁विश्राम	-11.0646
▁विराम	-11.0646
▁मुद्रक	-11.0647
▁असंख्य	-11.0652
▁हरित	-11.0654
▁निवासियों	-11.0656
कथा	-11.0666
ास्थि	-11.0667
▁मानकर	-11.067
गति	-11.067
▁एल्गोरिथ्म	-11.0675
▁ब्रितानी	-11.0675
▁श्रेणियों	-11.0675
▁बाँध	-11.0675
▁ध्येय	-11.0675
▁रजिस्ट्रीकृत	-11.0676
▁नगरपालिका	-11.0676
▁बढ़ी	-11.0678
▁सापेक्ष	-11.0678
गीत	-11.0679
स्का	-11.068
ग्ध	-11.0681
▁समझती	-11.0683
ौं	-11.0684
▁माफ	-11.0695
▁चलाना	-11.0698
▁कौम	-11.07
▁सौन्दर्य	-11.0705
▁पागल	-11.071
ment	-11.0713
▁नामित	-11.0714
▁आधुनिकीकरण	-11.0726
▁सुखद	-11.0733
▁टेलीविजन	-11.0735
▁प्रत्युत्तर	-11.0735
▁उल्लास	-11.0735
▁शह	-11.0737
▁प्रशस्त	-11.0739
पृष्ठ	-11.074
हानि	-11.0741
पतियों	-11.0744
▁लेनी	-11.0751
▁उत्तराधिकारी	-11.0751
▁मोल	-11.0751
ादेश	-11.0752
▁लार	-11.0752
एमएस	-11.0759
▁श्वास	-11.0762
▁राजदूत	-11.0766
▁जापानी	-11.0766
▁खुराक	-11.0766
▁चाहा	-11.078
▁जुट	-11.0782
▁शेयरधारक	-11.0782
▁बग	-11.0789
▁सदियों	-11.0789
▁सहारे	-11.0796
▁निर्यातक	-11.0797
▁अमृत	-11.0798
▁भीतरी	-11.0798
▁इंच	-11.0799
ॉं	-11.0803
ie	-11.0806
▁दिखता	-11.0809
परीक्षा	-11.0811
▁गिल	-11.0829
▁बंधु	-11.083
▁बनते	-11.0837
▁अंज	-11.0841
▁पिट	-11.0844
रात	-11.0846
र्पण	-11.085
ोनिया	-11.0853
▁प्रेरक	-11.0857
od	-11.0857
ग्री	-11.0877
▁पोर्टल	-11.0883
▁खाल	-11.0884
▁विधिज्ञ	-11.0885
▁दुश्मन	-11.0887
▁टुकड़	-11.0887
▁शब्दावली	-11.0892
▁fe	-11.09
राइड	-11.0905
▁निबंधन	-11.0915
जन्य	-11.0916
▁नौका	-11.0931
▁छि	-11.0933
▁लीला	-11.0939
▁रूक	-11.0948
▁साफ़	-11.0948
▁लिखें	-11.0948
▁प्रदूषक	-11.0949
▁Google	-11.0949
▁मुख्यमंत्री	-11.0952
▁राजवंश	-11.0953
▁अम्ब	-11.0956
▁निगमित	-11.0957
▁बंग	-11.0965
▁घटकों	-11.0973
▁विदा	-11.0973
▁फ़िर	-11.0974
ध्यक्ष	-11.0974
▁सिंधी	-11.0975
सूर	-11.0975
▁प्रिंट	-11.0975
ोदय	-11.0976
▁सम्बन्धों	-11.0978
▁तैनात	-11.0981
▁स्थावर	-11.0986
ub	-11.099
▁हुईं	-11.099
▁जह	-11.0992
▁निर्भरता	-11.0998
▁पर्वतीय	-11.1001
ST	-11.1001
▁नलिका	-11.1009
▁फंड	-11.1009
▁आकांक्षा	-11.1009
▁बसे	-11.101
▁वाशिंगटन	-11.1011
▁नौसेना	-11.1011
▁हल्का	-11.1011
▁कारीगर	-11.1011
▁दलील	-11.1012
▁टैक्स	-11.1013
▁चोर	-11.1014
▁क़्या	-11.1016
▁नोड्स	-11.1018
▁समाजवाद	-11.1018
▁जायगा	-11.1022
▁भौतिकी	-11.1022
▁साय	-11.1023
▁निबंध	-11.1028
नामा	-11.1033
धिक	-11.1041
▁न्यूयार्क	-11.1042
▁हुसैन	-11.1042
▁उपासना	-11.1042
▁कित्तूर	-11.1042
▁प्ररूप	-11.1042
▁सुलभ	-11.1042
▁भूतपूर्व	-11.1042
▁कहें	-11.1043
▁वारंट	-11.1045
▁परमिट	-11.1046
▁अभिलिखित	-11.1046
विद्या	-11.105
▁व्यव	-11.1051
स्तरीय	-11.1053
▁ब्राउज़र	-11.1056
▁जुर्माना	-11.1073
▁परिप्रेक्ष्य	-11.1073
▁किनारों	-11.1073
▁चह	-11.1074
▁अफसर	-11.1074
डेल	-11.1077
▁क्रमिक	-11.1085
गिरि	-11.1086
ट्रिक	-11.1086
▁शासकीय	-11.1087
ion	-11.1087
▁फैसले	-11.1089
टरी	-11.1097
▁रिएक्टर	-11.1104
▁मुम्बई	-11.1104
▁मृदा	-11.1104
▁शक़्ति	-11.1106
▁धूम	-11.1107
▁बिखर	-11.1107
▁कपास	-11.1109
▁थै	-11.1115
▁मौन	-11.1117
▁बहुधा	-11.1118
घट	-11.1128
योजक	-11.1131
▁पिछ	-11.1135
▁नाप	-11.1137
चीन	-11.114
▁दाहिन	-11.114
▁फलक	-11.1141
▁फीसदी	-11.1141
▁कड़ा	-11.1142
▁बहि	-11.1143
▁आस्तियां	-11.1144
▁एल्	-11.1149
▁बारीक	-11.115
ob	-11.1151
सूत्र	-11.1152
कॉम	-11.1161
फोर	-11.1162
▁बेरोजगार	-11.1167
▁गर्दन	-11.1167
▁रावण	-11.1177
▁अपनाना	-11.1178
▁नाराज	-11.1186
च्छेद	-11.1191
प्राप्त	-11.1193
▁गणेश	-11.1195
▁अस्वीकृत	-11.1198
▁उत्थान	-11.1198
▁चिकन	-11.1198
▁भैंस	-11.1198
▁दहेज	-11.1199
▁वर्ल्ड	-11.12
िज्म	-11.1211
बेट	-11.1212
▁देखेंगे	-11.1213
▁नागर	-11.1223
▁वध	-11.1224
▁फ्री	-11.1229
▁बेटा	-11.1229
▁प्रामाणिक	-11.123
ोन्मुख	-11.1231
वर्स	-11.1232
िष्ठ	-11.1243
▁साझीदार	-11.1245
▁फैली	-11.1253
जाल	-11.1254
▁जौ	-11.1254
इश	-11.1257
▁जीतने	-11.1258
▁जता	-11.126
▁इंतजार	-11.1262
▁कसौटी	-11.1262
▁स्ट्रिंग	-11.1263
▁अभ्यर्थ	-11.1263
▁डिप	-11.1264
▁सोशल	-11.1264
▁सम्मुख	-11.1265
▁पक्षपात	-11.1267
ve	-11.1269
बुक	-11.1273
▁साज	-11.1281
▁व्यापारियों	-11.1291
▁जॉर्ज	-11.1294
▁विशुद्ध	-11.1294
▁रवैय	-11.1295
▁सुपुर्दगी	-11.1295
गर्भ	-11.1295
▁देरी	-11.1296
ig	-11.1299
वायर	-11.1299
▁परंतुक	-11.1303
▁प्रेषण	-11.1303
▁भली	-11.1303
ग्राही	-11.1304
भंग	-11.1305
▁सद्भावना	-11.1305
▁पच	-11.1305
फोर्ड	-11.1306
▁खां	-11.1313
▁आतंकवादियों	-11.1314
▁दर्शकों	-11.1314
▁दंडित	-11.1314
ेटिव	-11.1317
▁पौधा	-11.1321
▁उत्तेजित	-11.1326
▁यथासंभव	-11.1326
▁आश्रित	-11.1326
▁विमानक्षेत्र	-11.1327
▁केलिए	-11.133
▁तटीय	-11.1331
▁लम्बा	-11.1336
पुत्र	-11.1338
▁द्वीपों	-11.1339
▁निम	-11.1355
क्चर	-11.1356
▁अस्पृश्य	-11.1358
▁एक्सटेंशन	-11.1358
▁हममें	-11.1358
▁मेले	-11.136
▁कोयले	-11.136
▁मदर	-11.136
ऊंगा	-11.1362
▁शैव	-11.1369
स्थि	-11.1373
▁खेलने	-11.1374
▁मुस	-11.1376
▁वैसी	-11.1378
ap	-11.1384
ea	-11.1387
▁वियतनाम	-11.139
▁देखरेख	-11.139
▁रसोई	-11.139
▁बिगड़	-11.139
सिस्ट	-11.1402
▁मूर्त	-11.141
▁गाने	-11.141
▁कन्वेंशन	-11.1422
▁सांविधिक	-11.1422
▁गर्भवती	-11.1423
शंकर	-11.1424
हिन	-11.1424
▁अनुप्रयोगों	-11.1425
▁ग्रिड	-11.1426
▁नित्य	-11.1426
▁पटना	-11.1427
▁निकलता	-11.1436
▁सुझा	-11.1451
▁महाविद्यालय	-11.1454
▁आन्तरिक	-11.1454
▁आश्वस्त	-11.1454
▁स्वेच्छा	-11.1454
▁डिक्री	-11.1454
▁ऐल	-11.1455
▁मक्का	-11.1462
▁ढील	-11.1465
बरी	-11.1468
▁बागान	-11.1471
▁बनाएं	-11.1473
क्की	-11.1474
ियस	-11.1482
बिन	-11.1483
▁अपरिहार्य	-11.1487
▁चेन्नई	-11.1487
▁मकबर	-11.1487
▁मादक	-11.1489
▁साधारणतया	-11.1492
▁सव	-11.1494
कर्ण	-11.1496
▁परिपत्र	-11.1496
▁दुष्	-11.1499
▁पीढ़िय	-11.15
▁खुलने	-11.1514
▁पुनर्विलोकन	-11.1519
▁परिमाण	-11.152
▁मनोवैज्ञानिक	-11.152
▁गोला	-11.1521
▁घबरा	-11.1522
▁नागरिकता	-11.1523
ca	-11.1527
ंए	-11.1531
विहीन	-11.1533
िकाओं	-11.1541
▁सजीव	-11.1541
▁बगल	-11.1543
▁ब्लॉक	-11.1548
टिया	-11.1549
▁साझेदारी	-11.1549
कोड	-11.1549
▁विनम्र	-11.1552
▁सिंगापुर	-11.1552
▁बागवानी	-11.1552
▁दुबारा	-11.1552
▁हाजिर	-11.1552
▁आईसीटी	-11.1552
▁मेजबान	-11.1553
ंदर	-11.1553
▁लाभकारी	-11.1553
▁डीएनए	-11.1556
▁परिपक्व	-11.156
▁लल	-11.1565
▁बाघ	-11.1569
ष्य	-11.157
▁ईरानी	-11.1581
▁स्न	-11.1583
▁खूबसूरत	-11.1585
▁मंडली	-11.1586
▁माउस	-11.1586
▁पॉलिसी	-11.1587
▁जानबूझकर	-11.1588
▁परिस्थितियां	-11.1588
▁तिरू	-11.1588
▁विश्वव्यापी	-11.159
▁प्रतिपूर्ति	-11.1592
▁आगम	-11.1595
▁समरूप	-11.1595
िओ	-11.1596
▁सहेजें	-11.1601
किन	-11.1602
▁सुंदरता	-11.1603
▁अस्त्र	-11.1616
▁एनआईओएस	-11.1618
▁शान्त	-11.1621
▁फ्रेम	-11.1623
दृष्ट	-11.1627
रुद्ध	-11.1628
▁संयम	-11.1634
▁सेवाएँ	-11.1644
▁पित्त	-11.1648
▁महीन	-11.1649
▁कर्त्तव्य	-11.1651
▁भविष्यवाणी	-11.1651
▁मांसपेशिय	-11.1651
▁संप्रतीक	-11.1651
▁यमुना	-11.1651
▁खतरों	-11.1651
▁सपने	-11.1651
▁प्रेमचन्द	-11.1652
▁रोकना	-11.1663
्योर	-11.1664
▁म्यू	-11.1664
▁ज़रूरी	-11.1667
्यूल	-11.1668
▁मरने	-11.1669
▁टैग	-11.167
साइट	-11.1671
▁रुख	-11.1676
कारियों	-11.1677
स्की	-11.1678
▁पैक	-11.1681
िशन	-11.1683
▁उत्तेजना	-11.1684
▁यूनाइटेड	-11.1684
▁उजागर	-11.1684
▁शाश्वत	-11.1684
▁मंत्रिमंडल	-11.1684
▁बांड	-11.1684
▁मैसूर	-11.1685
▁जिन्ना	-11.1686
ण्ण	-11.1692
वेन	-11.1693
▁अनजान	-11.1695
▁डालते	-11.17
▁कन्या	-11.1703
पालिका	-11.1703
▁टोप	-11.1707
खोर	-11.1707
ान्तरण	-11.1708
▁अनाम	-11.1709
▁सचेत	-11.1716
▁आक्रामक	-11.1717
▁गड़बड़	-11.1717
▁पौराणिक	-11.1717
▁सज्जन	-11.1717
▁अहमदाबाद	-11.1718
▁शिश्न	-11.1718
▁व्रत	-11.1718
▁निदेशालय	-11.1719
▁मन्त्र	-11.1726
▁हफ्ते	-11.1729
▁एंटी	-11.1732
ng	-11.1733
▁निवेशक	-11.1738
▁इलाके	-11.1741
▁लौह	-11.1741
▁प्रमाणन	-11.1747
▁ऑपरेशन	-11.175
▁छत्तीसगढ़	-11.175
▁सुप्रीम	-11.175
▁काल्पनिक	-11.175
आकांक्षाओं	-11.1752
▁प्रायोजित	-11.1753
्था	-11.1753
गंज	-11.1756
▁बताई	-11.1757
▁पीछा	-11.1758
▁१८	-11.1762
▁हरेक	-11.1765
▁वाय	-11.1766
मुझे	-11.1767
▁वरन	-11.1767
▁तुर्क	-11.1767
▁मध्यवर्ती	-11.1768
▁प्रोग्रामिंग	-11.1768
▁चार्ज	-11.1771
▁गायब	-11.1771
▁इनको	-11.1773
▁टोक	-11.1774
मेन्ट	-11.1776
▁घिर	-11.1779
▁प्रतिवाद	-11.178
▁निरर्थक	-11.1784
▁फाउंडेशन	-11.1784
▁व्यवसायी	-11.1784
▁मापदंड	-11.1784
▁वास्तुकला	-11.1784
ाधिकारी	-11.1787
▁बंगला	-11.1789
▁विलम्ब	-11.179
ब्ल	-11.1791
▁बढाने	-11.1793
▁घेरे	-11.1795
▁अरे	-11.1796
हाल	-11.1797
संस्कृत	-11.1802
सीआई	-11.1805
▁निवल	-11.1806
▁पकड़ने	-11.1808
▁इन्द्र	-11.1809
घाट	-11.1811
▁बंदर	-11.1815
▁शंका	-11.1815
▁अप्रत्याशित	-11.1817
▁व्यतीत	-11.1818
▁श्याम	-11.1818
▁घटनाएं	-11.182
ंतर	-11.1821
▁कार्यकर्ताओं	-11.1822
▁बाप	-11.1827
भ्	-11.1827
▁मानवाधिकार	-11.1831
▁पलट	-11.1843
▁सीमेंट	-11.1845
▁खाद्यान्न	-11.1851
▁घंटा	-11.1851
▁सम्प	-11.1852
▁प्रतिमान	-11.1856
▁निश्	-11.186
ढे	-11.1861
▁दिखाना	-11.1869
प्रेरण	-11.187
▁सत्	-11.1877
ऊँ	-11.1877
यह	-11.1881
▁वैधानिक	-11.1885
▁प्रचलन	-11.1885
ाइज़	-11.1888
▁अनुरक्षण	-11.1888
▁समाचारपत्र	-11.1889
खार	-11.1891
▁आंत्र	-11.1894
▁आवेग	-11.1896
▁कटाई	-11.1897
ag	-11.1912
▁घुल	-11.1915
▁फोल्डर	-11.1919
▁व्यतिक्रम	-11.1919
▁इटली	-11.1919
▁क्लास	-11.1919
▁अधिकथित	-11.1919
▁तारों	-11.192
▁कानपुर	-11.1923
▁डालता	-11.1934
ti	-11.1937
▁उड़ा	-11.1941
्यान	-11.1942
मीर	-11.1949
▁कार्यशाला	-11.1951
▁मन्दिर	-11.1953
▁भाइयों	-11.1954
▁दर्शित	-11.1955
▁दिशानिर्देश	-11.1956
ञ्ज	-11.197
▁पक्का	-11.197
▁चतुर	-11.1973
▁पैन	-11.1981
▁करनेवाले	-11.1981
▁मतदाता	-11.1982
▁ज़रुरत	-11.1987
▁अनुयायियों	-11.1987
▁आत्मनिर्भर	-11.1987
▁प्रोफाइल	-11.1987
▁माणिक	-11.1987
▁सोलह	-11.1987
▁ख्याति	-11.1987
▁ज़मीन	-11.1988
▁क्रमादेश	-11.1988
▁धोखा	-11.199
िटर	-11.1991
▁इंद्र	-11.1991
▁जिक्र	-11.1991
▁लक्षित	-11.1992
▁पासपोर्ट	-11.1996
▁जोरदार	-11.2002
▁अवध	-11.2002
▁बैठकर	-11.2002
राष्ट्र	-11.2005
AP	-11.2005
▁तीख	-11.2008
उस	-11.201
▁उलझ	-11.2013
ड्स	-11.2018
▁आत्मविश्वास	-11.2021
▁क्योकि	-11.2021
▁त्रिपुरा	-11.2021
▁कलात्मक	-11.2021
▁श्रीकृष्ण	-11.2025
▁संस्थित	-11.2027
▁जयपुर	-11.2027
षऋ	-11.2028
▁हौ	-11.2029
▁खुदरा	-11.203
▁पाइ	-11.2034
ow	-11.2034
धारण	-11.2038
▁क्रियाशील	-11.204
क्षु	-11.2044
▁आलोक	-11.2046
▁प्रत्ये	-11.205
▁अरुणाचल	-11.2056
▁खुशहाली	-11.2056
▁संपरिवर्तन	-11.2056
▁हालाँकि	-11.2056
▁भृंग	-11.2056
▁टैंक	-11.2059
▁छेड़	-11.206
▁दिशाओं	-11.207
▁भला	-11.2079
▁जंगलों	-11.2082
चरण	-11.2083
▁अभयारण्य	-11.209
▁शताब्दियों	-11.209
▁व्यंग्य	-11.209
▁पत्तियों	-11.209
आईएस	-11.2092
कोशिका	-11.2097
▁अंकुर	-11.2097
▁देयता	-11.2101
याधीश	-11.2102
मोन	-11.2103
▁विफलता	-11.2108
धीश	-11.2115
▁छुटकारा	-11.2125
▁नाजुक	-11.2125
▁चिन्तन	-11.2125
▁समायोजित	-11.2126
▁चौथे	-11.2126
tion	-11.2128
त्सा	-11.2133
▁जिनको	-11.2147
▁प्रतिबंधित	-11.215
▁मठ	-11.215
▁तरफ़	-11.2151
शेखर	-11.2154
व्यक्ति	-11.2159
▁जुर्माने	-11.2159
▁यौगिक	-11.2159
▁साफ्टवेयर	-11.2159
▁धरोहर	-11.2159
▁राजपूत	-11.2159
▁कब्जे	-11.216
▁कालावधि	-11.2162
▁सिटी	-11.2163
▁संदर्भित	-11.2164
▁प्रोटो	-11.2164
▁कलाकारों	-11.2165
▁जागरूक	-11.2168
कूल	-11.2169
▁कपट	-11.2179
▁क्रूरता	-11.2182
▁रूसी	-11.2189
ावधि	-11.2191
▁लगाते	-11.2195
▁पंचांग	-11.2197
▁तीर	-11.2205
▁पंज	-11.2206
▁निम्नतर	-11.2207
नाशी	-11.2216
फाइ	-11.2216
बुद्धि	-11.223
▁पल्लव	-11.223
▁नम्बर	-11.223
▁अंचल	-11.2231
ect	-11.2232
▁वृक्षों	-11.2235
▁गोपनीय	-11.2241
वारा	-11.2245
ak	-11.2259
▁दरें	-11.2263
▁बांग्ला	-11.2264
▁तुलसी	-11.2265
▁अधिनिर्णय	-11.2265
▁लाये	-11.2268
▁रूख	-11.2275
▁पंचायतों	-11.2277
▁खाई	-11.228
ist	-11.2281
hi	-11.2282
और	-11.2283
सीआर	-11.2284
इर	-11.2292
▁दर्जे	-11.2299
▁अहसास	-11.23
▁बिहारी	-11.2302
▁इस्लामिक	-11.2306
▁लाभप्रद	-11.2307
▁बनावट	-11.2308
▁फ़ोन	-11.2308
▁फॉ	-11.231
िश्च	-11.2311
ऊं	-11.232
डिस	-11.2326
▁बढ़ना	-11.2328
▁हथ	-11.2333
▁डाइ	-11.2335
▁इकाइयां	-11.2335
▁श्रद्धांजलि	-11.2335
▁मुर्गी	-11.2336
▁प्रेमचंद	-11.2336
ार्म	-11.2337
▁बढ़िया	-11.2337
▁चौथाई	-11.234
▁निर्देशक	-11.2342
▁व्यवहार्य	-11.2346
▁क्रेता	-11.2347
▁ट्रि	-11.2349
▁महानगर	-11.2349
▁ऋस	-11.2353
▁रोटी	-11.2353
▁चतुर्थ	-11.2358
पालन	-11.2361
▁प्रकटन	-11.2362
▁परिपक्वता	-11.2362
सन्धि	-11.237
▁अरविंद	-11.237
▁डेविड	-11.237
▁चिड़िया	-11.2375
▁स्वर्गीय	-11.2382
▁मामल	-11.2393
▁तद	-11.2395
▁साहा	-11.2396
▁आएगा	-11.2399
ऐं	-11.2402
▁प्रॉक्सी	-11.2406
▁तूफान	-11.2406
मंत्र	-11.2406
▁चालीस	-11.2408
▁चुनने	-11.2409
▁गाथा	-11.2413
▁चट	-11.2413
भूषण	-11.2414
▁सशक्तीकरण	-11.2414
iv	-11.2414
बोर्ड	-11.2416
▁हार्ड	-11.2417
▁शीघ्रता	-11.2417
▁प्रतिरूप	-11.2431
निधि	-11.2436
▁डिज़ाइन	-11.2442
▁स्मार्ट	-11.2442
▁बूढ़े	-11.2442
▁लीजिए	-11.2442
▁बैटरी	-11.2442
▁भावनात्मक	-11.2448
▁आदिवासी	-11.2453
च्युत	-11.2458
गुप्त	-11.246
दन्त	-11.2462
वोल्ट	-11.2466
▁वक्ष	-11.2468
▁दुखद	-11.2474
▁धूम्रपान	-11.2477
▁पैटर्न	-11.2477
▁भण्डार	-11.2477
▁प्रादेशिक	-11.2477
▁बस्ती	-11.2478
▁कराधान	-11.248
▁अपहरण	-11.248
▁वैद्य	-11.248
▁पत्ते	-11.248
टोर	-11.2481
▁पर्दा	-11.2483
▁अल्लाह	-11.2484
▁तलवार	-11.2485
▁पहुँचने	-11.2488
▁दादी	-11.2491
▁सादा	-11.2491
▁कथाओं	-11.2501
श्न	-11.2501
▁आँक	-11.2503
शूल	-11.2505
CT	-11.2507
▁उक	-11.251
▁मारा	-11.2512
▁पीले	-11.2513
▁उच्छेदन	-11.2513
▁नामंजूर	-11.2513
▁मेडिकल	-11.2513
▁चेष्टा	-11.2513
▁रोबोट	-11.2513
▁जरिये	-11.2514
केन्द्र	-11.2515
▁लोहे	-11.2517
ोचित	-11.2518
▁महाराज	-11.2519
▁शुक्र	-11.252
ग्रन्थि	-11.2524
पुरम	-11.2526
▁करवाया	-11.2526
राना	-11.2531
▁सीखना	-11.2533
▁तान	-11.2535
ल्हा	-11.2543
▁डालें	-11.2549
▁एप्लिकेशन	-11.255
▁कट्टरपंथी	-11.255
▁वर्षगांठ	-11.255
▁संक्रामक	-11.255
▁सहिष्णुता	-11.255
▁अनुयायी	-11.255
▁पसन्द	-11.255
▁खिंच	-11.255
▁ढूंढ़	-11.2554
▁पाएंगे	-11.2557
▁बढावा	-11.2557
क्के	-11.2559
▁झुकाव	-11.2559
▁परिशि	-11.2563
एपी	-11.257
▁अप्रति	-11.2573
▁सुलझा	-11.2573
ci	-11.2577
▁उच	-11.2581
▁पडता	-11.2583
▁भयभीत	-11.2586
▁मेगावाट	-11.2586
▁दाँत	-11.2586
▁सिद्धदोष	-11.2586
▁पैदल	-11.2588
▁वेदों	-11.2588
ग्ग	-11.2588
▁ज़ोर	-11.2591
▁निष्पा	-11.2593
▁राष्ट्रवाद	-11.2595
▁ऑफिस	-11.2596
▁कुष्ठ	-11.2603
▁कार्यकर्ता	-11.2607
▁बताये	-11.2608
▁हमास	-11.2617
▁चार्ट	-11.2622
▁तिमाही	-11.2622
▁राजनयिक	-11.2622
▁सब्जियों	-11.2622
▁समकक्ष	-11.2622
▁पतली	-11.2623
▁जोड़ना	-11.2624
▁चाचा	-11.2627
▁अवलंब	-11.2627
▁फायर	-11.2627
▁ऊँचाई	-11.2627
लेटर	-11.2628
भाषा	-11.2629
▁नासा	-11.2635
▁साधु	-11.2637
▁दूत	-11.2644
स्को	-11.2644
वेग	-11.2654
▁मेला	-11.2656
मति	-11.2657
▁अत्यावश्यक	-11.2659
▁प्रतिबिम्ब	-11.2659
▁ड्रग्स	-11.2659
▁कार्यपालक	-11.2659
▁गिनती	-11.2659
▁एकाग्र	-11.2659
▁कराते	-11.2662
रोज	-11.2668
क्रमण	-11.2668
▁फुल	-11.267
▁कविताएं	-11.267
▁पहने	-11.2671
सूचना	-11.2671
▁आँखें	-11.2674
▁ठंडा	-11.2677
▁गायक	-11.2677
▁अखबारों	-11.2677
▁प्रोत्सा	-11.2695
▁PRO	-11.2695
▁परिष्कृत	-11.2695
▁लेनदेन	-11.2695
▁बेचैन	-11.2697
▁विलक्षण	-11.2697
▁पेरिस	-11.2699
▁वर्गमूल	-11.27
art	-11.2705
▁वास्तु	-11.2707
संघ	-11.2707
▁प्रभारित	-11.2708
▁दब	-11.2714
▁रूट	-11.2714
गांव	-11.2716
इए	-11.2719
▁कैर	-11.2723
▁पराग	-11.2724
▁नाभिक	-11.2731
▁त्योहार	-11.2732
▁तामील	-11.2732
▁मिट	-11.2735
▁सेकंड	-11.2739
▁पहुँचे	-11.2749
▁अधो	-11.2751
▁घिरा	-11.2756
sp	-11.2758
▁ग्रेट	-11.2761
▁कटु	-11.2766
▁खरगोश	-11.2769
▁ग्रीष्म	-11.2769
▁तथाकथित	-11.2769
▁पाश्चात्य	-11.2769
▁संक्रमित	-11.2769
▁निर्वचन	-11.277
द्योग	-11.2771
▁नीलामी	-11.2771
▁न्यायोचित	-11.2771
▁शीश	-11.2771
▁अवज्ञा	-11.2772
▁सेवानिवृत्ति	-11.2772
▁वचनबद्ध	-11.2772
▁तत्पश्चात्	-11.2775
▁नवीकरण	-11.2777
▁ब्रो	-11.2783
▁रंगीन	-11.2787
विच	-11.2788
;	-11.2791
द्रोह	-11.2805
▁विकिपीडिया	-11.2806
▁गुप्ता	-11.2807
▁भूमिगत	-11.281
▁चांद	-11.2812
▁प्रबन्धन	-11.2817
oc	-11.2818
▁फीड	-11.2821
▁ग्रेड	-11.2823
▁प्रवृति	-11.2825
▁मुखिया	-11.2826
▁पौध	-11.2827
पुष्प	-11.2827
▁अनधिक	-11.2831
ai	-11.2833
▁चतुर्	-11.2838
▁हज	-11.2843
▁अकादमिक	-11.2843
स्टिक	-11.2845
▁वायदा	-11.2846
▁सडक	-11.2846
▁नोकिया	-11.2846
▁कहानियां	-11.2847
▁पेंट	-11.2848
▁पाय	-11.2851
▁नियति	-11.2852
▁वर्गाकार	-11.2853
▁स्वराज	-11.2855
म्बा	-11.2857
▁बनारस	-11.2857
▁किताबें	-11.2862
▁चार्टर	-11.2863
▁पहाड़ियों	-11.2863
्जे	-11.2876
▁बदलती	-11.2877
▁भो	-11.2877
▁टाइम	-11.2879
स्क्रिप्ट	-11.288
▁संतोषजनक	-11.2882
▁ताक	-11.2882
▁दुहरा	-11.2884
▁फर्श	-11.2884
▁सुलझाने	-11.2894
▁साधक	-11.2895
क्ष्य	-11.2896
▁तत्	-11.2913
ाक्षर	-11.2915
चय	-11.2917
▁Chrome	-11.2918
▁इजाजत	-11.2918
▁सब्सिडी	-11.2918
▁यूनानी	-11.2918
▁स्थगन	-11.2918
▁पराजित	-11.2919
वस्तु	-11.2923
▁छात्रवृत्ति	-11.2924
▁बारिश	-11.2926
शंस	-11.2928
सभा	-11.2931
▁सपना	-11.2932
िस्म	-11.2932
▁लाद	-11.2934
▁बनवाय	-11.2935
▁पैदावार	-11.2936
▁जार्ज	-11.2943
इफ	-11.2946
▁एवोल्यूशन	-11.2955
▁योद्धा	-11.2955
▁ह्रास	-11.2956
▁अमान्य	-11.2956
▁कच्चा	-11.2956
▁मानसून	-11.2956
▁अपराधियों	-11.2962
▁फीट	-11.2971
पर्य	-11.2971
▁फ़ाइलें	-11.2973
फील्ड	-11.2979
▁तुम्हे	-11.2983
निर्धारण	-11.2986
▁मेरु	-11.2986
▁मश	-11.2987
▁wa	-11.2989
पीड	-11.2992
▁उपराष्ट्रपति	-11.2993
▁कैबिनेट	-11.2993
▁निस्संदेह	-11.2993
▁मैथुन	-11.2993
▁कूटनीति	-11.2993
▁तालमेल	-11.2994
योंकि	-11.2994
▁महासभा	-11.2995
▁स्कैन	-11.2996
▁अभिकर्ता	-11.2999
▁हालात	-11.3002
▁सृजनात्मक	-11.3006
पादित	-11.3007
▁कोशिकाएं	-11.3012
▁उदास	-11.3013
▁चौथा	-11.3029
▁हिम्मत	-11.3031
▁ग्रीवा	-11.3031
▁पुण्य	-11.3033
ID	-11.3037
▁अनुरुप	-11.3038
▁ट्रैकिंग	-11.3039
▁हिन्द	-11.304
▁जातियां	-11.3046
▁गली	-11.3051
▁आसन	-11.3052
▁संकेतक	-11.3054
▁अधिमान	-11.3056
▁कार्टून	-11.3069
▁कॉपी	-11.3077
▁टकराव	-11.3077
▁इन्कार	-11.3083
▁अक्षमता	-11.3086
मण्डल	-11.3088
▁मानदंडों	-11.3091
▁उपगत	-11.3094
▁गुहा	-11.3095
▁बैठने	-11.3105
ैंट	-11.3105
▁कौर	-11.3107
▁मंत्रिपरिषद	-11.3107
▁यहूदियों	-11.3107
▁क्षीण	-11.3108
▁बाँट	-11.3108
▁सैं	-11.3111
▁उद्गम	-11.3111
▁विराट्	-11.3112
▁उन्मुख	-11.3124
▁बालिका	-11.3125
IN	-11.3126
▁चीज़ें	-11.3139
वहन	-11.3143
▁अपनाए	-11.3146
▁निमंत्रण	-11.3146
▁विरचित	-11.3146
▁पसंदीदा	-11.3146
▁द्रुत	-11.3146
युद्ध	-11.3147
▁श्रव्य	-11.315
▁प्रक्षेपण	-11.3152
▁संभवतया	-11.3153
टीन	-11.3164
▁एंट	-11.3165
प्राप्ति	-11.3174
क्तियों	-11.3176
▁पात्रता	-11.3178
▁अत्य	-11.318
एमपी	-11.3182
▁कम्युनिस्ट	-11.3184
▁अशुद्ध	-11.3184
▁ग़लत	-11.3185
▁ज्वार	-11.3185
▁बतला	-11.3185
सागर	-11.3186
मुद्र	-11.3189
कार्ड	-11.3189
▁तुलनात्मक	-11.3192
▁टॉम	-11.3195
▁कतार	-11.32
ाइटिस	-11.32
▁लीटर	-11.3203
वुड	-11.3208
▁कलाम	-11.3209
डेन	-11.3215
▁दाब	-11.3217
▁सतर्क	-11.3222
▁जानकार	-11.3223
▁ड्राफ्ट	-11.3223
▁त्यौहार	-11.3223
▁भाँति	-11.3223
▁भूगोल	-11.3223
▁जमाराशि	-11.3223
▁क्रियान्वित	-11.3224
▁भ्रष्ट	-11.3224
▁ठरोग	-11.3225
बन्धु	-11.3228
▁fa	-11.3228
मंत्री	-11.3228
▁कटि	-11.3229
▁बल्ल	-11.3231
▁बैर	-11.3234
▁दोहराया	-11.3235
▁कुचल	-11.3236
▁पंक्तियों	-11.3237
▁प्रताप	-11.3245
ाइयों	-11.3246
▁विश्	-11.3246
सीपी	-11.3254
विज	-11.3256
▁खिड़की	-11.3261
▁पेशकश	-11.3262
▁माधव	-11.3262
▁जागृत	-11.3263
रियो	-11.3263
▁लुप्त	-11.3264
नारायण	-11.3264
▁यूरोपियन	-11.3266
▁नीले	-11.3268
▁रामलिंग	-11.3269
▁भलाई	-11.3271
▁राज्यसभा	-11.3272
▁चंद्रमा	-11.3272
▁अरुण	-11.3272
▁Re	-11.3277
ear	-11.328
▁छाती	-11.3283
आईआर	-11.329
▁अमूर्त	-11.3296
▁अफ्रीकी	-11.33
▁तीक्ष्ण	-11.33
▁प्रोजेक्ट	-11.33
▁असंतोष	-11.3301
▁कतर	-11.3302
▁माडल	-11.3303
▁दैवी	-11.3306
▁हें	-11.3311
▁समाधि	-11.3314
▁बढे	-11.3318
mp	-11.3324
▁निकलना	-11.3328
▁आभास	-11.3329
▁असा	-11.3333
RE	-11.3334
▁सुनते	-11.3336
▁अठारह	-11.3339
▁इंटरनेशनल	-11.3339
▁पूर्वानुमान	-11.3339
▁जनगणना	-11.3339
▁हिंसक	-11.3339
▁नवजात	-11.3341
ga	-11.3343
विस	-11.3345
नोडल	-11.3346
▁सुविधाजनक	-11.3347
▁साहसिक	-11.3352
मैट	-11.3356
▁मरण	-11.3356
चंद	-11.3356
ant	-11.337
बीएस	-11.3373
▁शिशुओं	-11.3378
▁डिवाइस	-11.3379
▁मुसीबत	-11.3379
▁इरादा	-11.3379
▁डेल्टा	-11.3379
वृति	-11.338
▁गौतम	-11.3381
▁विश्वयुद्ध	-11.3383
▁जेब	-11.3383
▁छिप	-11.3383
▁कैश	-11.3384
▁पट्टा	-11.3384
▁संरचनात्मक	-11.3385
शाही	-11.3399
▁कराती	-11.341
▁मंग	-11.3413
▁निकासी	-11.3414
दराज	-11.3417
▁उदारता	-11.3418
▁अनुष्ठान	-11.3418
▁सम्प्रदाय	-11.3418
▁डिजीटल	-11.3418
▁मलेरिया	-11.3418
▁हनुमान	-11.3418
▁जिहाद	-11.3418
▁संकोच	-11.3418
▁भत्ते	-11.342
▁आप्रवास	-11.3423
▁तेज़	-11.3436
▁पहना	-11.3438
▁सूरत	-11.3439
▁वास्त	-11.3441
▁दर्शाती	-11.3444
▁मनाने	-11.3451
▁कलम	-11.3454
▁हस्तशिल्प	-11.3458
▁अलमस्त	-11.3458
▁रोमांच	-11.3458
▁परीक्षक	-11.3458
▁अतिमानसि	-11.346
▁आर्द्र	-11.346
▁करोड	-11.3461
लाभ	-11.3463
▁नवाब	-11.3463
▁थोक	-11.3463
▁पारसी	-11.3465
▁संगणित	-11.3466
▁पुनर्वि	-11.3466
▁औषधीय	-11.3466
▁रोमन	-11.3468
▁प्रहार	-11.3472
▁प्रातः	-11.3473
▁आहरण	-11.3473
डियम	-11.3474
▁गेट	-11.3476
▁दिखने	-11.348
शिर	-11.348
▁दुष्ट	-11.3489
ियॉँ	-11.349
▁शल्यक्रिया	-11.3491
▁पत्रिकाओं	-11.3495
▁अतिमानस	-11.3495
▁बाधाओं	-11.3496
▁अमेरिकन	-11.3497
▁प्रायोगिक	-11.3497
▁सहकारिता	-11.3497
▁कॉन्फ़िगर	-11.3497
▁चौधरी	-11.3497
▁राक्षस	-11.3497
▁नक़ल	-11.3498
▁LIN	-11.3498
▁आरेख	-11.3498
चन्द	-11.3501
निक्स	-11.3502
▁समतल	-11.3503
▁मचा	-11.3507
दाह	-11.3508
▁टकरा	-11.3509
▁जैक	-11.351
▁निराश	-11.3512
▁कटा	-11.3512
वृद्धि	-11.3515
▁कार्यकरण	-11.3516
▁पुनरा	-11.3524
▁कफ	-11.3532
▁कार्यभार	-11.3536
▁कमिश्नर	-11.3537
▁निवेदिता	-11.3537
▁वामपंथी	-11.3537
▁रघु	-11.3537
▁प्रायद्वीप	-11.3537
▁गर्भावस्था	-11.3538
▁वायुमंडल	-11.3539
वर्धक	-11.3544
▁प्रतिज्ञा	-11.3547
▁गाल	-11.355
▁प्रतियां	-11.3555
धीन	-11.3559
▁चैक	-11.3563
▁उठाये	-11.3566
▁शिष्टमंडल	-11.3577
▁जवाबदेही	-11.3577
▁सम्पादित	-11.3578
दौलत	-11.358
▁पेट्रो	-11.3582
▁मानद	-11.3582
▁बहती	-11.3582
प्रकाश	-11.3583
▁आसमान	-11.359
ide	-11.3594
ुअल	-11.3594
▁बलि	-11.3595
▁रखेगा	-11.3597
▁प्रबंधित	-11.3599
चक्र	-11.3604
▁मध्यस्थता	-11.3605
RL	-11.361
▁इंस्टीट्यूट	-11.3617
▁सरोजिनी	-11.3617
▁फिनलैंड	-11.3617
▁साहिब	-11.3617
▁कचरा	-11.3617
▁कृतज्ञ	-11.3618
▁नानालाल	-11.3618
▁परमात्मा	-11.3618
▁सेकेंड	-11.3618
▁परिवाद	-11.3625
▁चांदी	-11.363
▁ज्यों	-11.3631
▁निपट	-11.3631
▁खट	-11.3638
निर्णय	-11.3639
सीएल	-11.3639
▁शॉ	-11.3647
▁लटक	-11.3648
▁मात	-11.3649
▁शिला	-11.3654
▁वल्लभ	-11.3658
▁घंटों	-11.3658
▁शुक्राणु	-11.3658
▁अंगीकार	-11.3658
▁भरती	-11.3658
▁लॉर्ड	-11.366
▁तुच्छ	-11.3668
▁दर्शाने	-11.3668
दंड	-11.3672
▁नमून	-11.3677
▁हरिजन	-11.3678
भाष्	-11.3679
शासन	-11.3682
▁गला	-11.3684
▁सभ्य	-11.3695
▁युसुफ़	-11.3698
▁विषाणु	-11.3699
▁लॉगिन	-11.3702
▁पिछला	-11.3704
▁रिश्तेदार	-11.3704
▁वाच	-11.3708
▁सार्व	-11.3718
तत्त्व	-11.3719
द्धि	-11.372
▁अचल	-11.3723
▁सींग	-11.3727
▁केशव	-11.373
▁खोद	-11.373
▁बैंड	-11.3734
▁साझे	-11.3736
▁शिथिल	-11.3739
▁उपद्रव	-11.3739
▁अध्या	-11.374
▁राष्ट्रवादी	-11.3742
▁बरसात	-11.3744
▁उद्यमिता	-11.3746
▁प्रस्थान	-11.3753
ातीत	-11.3757
ञ्	-11.3766
▁कैसी	-11.3767
▁राख	-11.3771
▁बहिष्कार	-11.3779
▁भवभूति	-11.3779
▁यूनिकोड	-11.3779
▁साप्ताहिक	-11.3779
▁आरोग्य	-11.3779
▁सम्पादक	-11.3779
▁लसीका	-11.378
ुद्दीन	-11.378
▁जवाहर	-11.378
▁पुरातन	-11.378
▁मान्यताप्राप्त	-11.3781
▁पिताजी	-11.3781
▁रामकृष्ण	-11.3781
▁दीर्घकालीन	-11.3781
▁भरण	-11.3784
▁आबद्ध	-11.3784
▁नरेश	-11.3784
▁अकाल	-11.3786
▁निर्मल	-11.3787
▁जमाव	-11.3791
▁राजीव	-11.3791
▁पाचन	-11.3793
▁रौ	-11.3794
न्ग	-11.3795
▁एड्स	-11.3804
पात्र	-11.3807
एनएस	-11.3815
▁चलाई	-11.3816
धिकार	-11.3816
▁प्राणिक	-11.3819
▁कुटुंब	-11.382
▁चंडीगढ़	-11.382
▁मायने	-11.3821
▁वायरस	-11.3822
▁अमृतसर	-11.3822
▁सचेतन	-11.3823
▁लपेट	-11.3824
▁लडक	-11.3827
▁टाटा	-11.3828
पूर्ति	-11.3829
▁बेहतरीन	-11.383
वर्म	-11.3831
ेट्स	-11.3832
▁साम्य	-11.3839
टिकल	-11.3843
▁चढ़ाव	-11.3845
▁वांछनीय	-11.3862
▁ऊष्मा	-11.3862
▁प्रशंसक	-11.3862
▁कुर्सी	-11.3862
▁विवेकानंद	-11.3862
▁सजावट	-11.3863
▁चौथी	-11.3863
▁तात्या	-11.3863
▁शब्दकोश	-11.3865
up	-11.3868
▁विहार	-11.3878
▁तोड़ने	-11.3879
▁St	-11.3881
क्रांत	-11.3882
▁सौंपे	-11.3886
▁सीमांत	-11.3886
▁समझाने	-11.3889
IC	-11.3897
चर्म	-11.3899
▁इजराइल	-11.3903
▁अनुपूरक	-11.3903
▁सांसारिक	-11.3903
▁लवण	-11.3903
▁गोदाम	-11.3905
▁परोक्ष	-11.3908
सीएस	-11.391
▁टेबल	-11.3912
श्लेष्म	-11.3915
▁कॉन्	-11.3918
▁सैर	-11.3938
▁पालि	-11.3938
▁यदुनाथ	-11.3944
▁अधिवक्ताओं	-11.3953
औ	-11.3955
▁मुकदम	-11.3955
▁झुंड	-11.3956
▁शिकायतें	-11.3963
आरआई	-11.3968
▁छिड़	-11.3974
▁आइस	-11.3975
▁विक्रम	-11.398
मूलक	-11.3983
▁अवहेलना	-11.3986
▁उच्चारण	-11.3986
▁भोपाल	-11.3987
▁चैत्य	-11.399
▁हिन्दु	-11.3992
▁बाव	-11.3995
▁मोक्ष	-11.4
▁पीला	-11.4002
▁रुग्ण	-11.4003
डेंट	-11.4009
गम्य	-11.4009
▁विशेषतः	-11.401
▁तकलीफ	-11.4015
आईपी	-11.4015
▁इतिहासकार	-11.4018
▁बाय	-11.4025
▁गोविंद	-11.4028
▁कारखाने	-11.4028
▁नामनिर्देशित	-11.4028
त्ते	-11.4029
▁स्टील	-11.4029
▁कुत्ते	-11.4031
▁पैकेट	-11.4032
▁बैंककारी	-11.4033
▁बैच	-11.4035
▁शाक	-11.4046
▁विफलः	-11.4055
▁कैदी	-11.4055
▁फैलाने	-11.4056
▁लगीं	-11.4056
▁सर्वत्र	-11.4057
▁चिपका	-11.4059
▁पारम्परिक	-11.407
▁निरीक्षक	-11.407
निकेतन	-11.407
▁प्राप्य	-11.407
▁निजाम	-11.407
▁पर्वतमाला	-11.4071
▁कार्ल	-11.4082
कृतियां	-11.4084
▁विश्वसनीयता	-11.409
▁वोट	-11.4091
▁डैक	-11.4091
▁उर्	-11.4095
▁चिप	-11.4106
▁छीन	-11.4107
▁लख	-11.4112
▁पच्चीस	-11.4112
▁मौलाना	-11.4112
▁आभासी	-11.4113
▁निर्वाचक	-11.4113
▁आज़ाद	-11.4113
▁कॉफी	-11.4115
▁रखनी	-11.4116
▁तराश	-11.4117
▁CO	-11.4128
वाहिनी	-11.4135
्जा	-11.4141
▁प्रकरण	-11.4142
▁मछलियों	-11.4155
▁माउंट	-11.4155
▁संप्रेषण	-11.4155
▁सन्दर्भ	-11.4155
▁महावीर	-11.4155
▁कैमरा	-11.4155
▁प्रतिपादन	-11.4156
ग्रंथ	-11.4156
यॉ	-11.4156
▁जाएँगे	-11.4158
गढ	-11.4161
▁पौंड	-11.4163
निवेश	-11.4167
▁अयोग्य	-11.4169
pp	-11.4175
▁प्रयोगशालाओं	-11.4176
टिस	-11.4176
▁प्रतिस्थापन	-11.4177
▁पडे	-11.4181
स्वरूप	-11.4188
▁व्ह	-11.4193
▁रिश्ते	-11.4195
▁बचना	-11.4195
▁भोल	-11.4196
▁अयोध्या	-11.4197
▁बर्ताव	-11.4197
▁बाधित	-11.4197
▁पीठासी	-11.4197
▁मिथक	-11.4197
▁आयातित	-11.4199
▁राममोहन	-11.4201
▁सावधि	-11.4204
जहां	-11.4204
▁लड़कों	-11.4204
▁सम्यक्	-11.4206
▁बूंद	-11.4214
OR	-11.4219
▁वाट	-11.4222
साइड	-11.4224
पीएम	-11.4231
▁कपिल	-11.4234
▁ताड़	-11.4238
▁पाश	-11.4239
▁अनौपचारिक	-11.424
▁बेलारूस	-11.424
▁तर्कसंगत	-11.424
▁फेफड़ों	-11.424
▁तंतु	-11.424
▁आत्मसात	-11.4242
घोष	-11.4242
▁वायुयान	-11.4242
▁निकलती	-11.4243
▁देसाई	-11.4248
▁स्वतन्त्रता	-11.4254
▁सद्भाव	-11.4268
▁दरअसल	-11.4283
▁द्विआधारी	-11.4283
▁संकलित	-11.4283
▁कम्पनियों	-11.4283
▁टुकड़ा	-11.4283
▁जेम्स	-11.4285
▁चलचित्र	-11.4287
▁मद्य	-11.4297
▁सड़	-11.43
▁औषधियों	-11.4307
ive	-11.431
▁रचित	-11.4321
▁अविश्वास	-11.4326
निर्मित	-11.4332
▁उपयोगकर्ताओं	-11.4335
▁हठ	-11.4337
▁चाप	-11.4339
शायर	-11.4344
ld	-11.4344
▁निकलते	-11.4346
ब्रि	-11.4359
▁साम्प्रदायिक	-11.4369
▁सर्वोपरि	-11.4369
▁अदायगी	-11.4369
▁महादेवी	-11.4369
▁डेयरी	-11.4369
▁पत्तों	-11.4369
▁मातृभूमि	-11.437
▁रेखांकित	-11.437
▁पोतन्ना	-11.437
▁देखती	-11.4374
▁प्रवृत्तियों	-11.4379
▁मनु	-11.438
एसआई	-11.439
▁फ्लोर	-11.4395
▁साँस	-11.44
▁बरतन	-11.4403
▁शीतल	-11.4405
http	-11.4413
▁अद्वैत	-11.4413
▁बढ़ोतरी	-11.4413
▁तेरह	-11.4413
▁कप्तान	-11.4413
au	-11.4413
▁तानाशाह	-11.4413
▁अत्याधिक	-11.4413
▁ब्यौरे	-11.4414
▁महोदय	-11.4414
▁राइ	-11.4415
▁अध्यापन	-11.4415
▁घनत्व	-11.4417
▁इलेक्ट्रॉनिक्स	-11.4423
▁स्वराज्य	-11.4423
▁बापू	-11.4425
इंग	-11.4428
▁गाइड	-11.443
▁रखेंगे	-11.4435
▁संस्कृतियों	-11.4448
▁अनुज्ञप्ति	-11.4456
▁शॉर्टकट	-11.4456
▁पाउंड	-11.4456
▁अखंडता	-11.4456
▁फ्रांसीसी	-11.4456
▁विषयवस्तु	-11.446
▁II	-11.4462
▁वेश्या	-11.4466
▁यंग	-11.4466
▁क्रे	-11.4468
▁अभिप्राप्त	-11.4469
▁रमण	-11.4473
▁मृग	-11.4476
मापी	-11.448
▁प्रतिबन्ध	-11.4483
▁इज	-11.449
▁अतिरिक़्त	-11.45
▁क्षैतिज	-11.45
▁प्रतिषेध	-11.45
▁कब्र	-11.45
aI	-11.4501
▁द्रीय	-11.4502
▁टोकन	-11.4503
▁नोक	-11.4506
स्वर	-11.4508
प्ति	-11.451
▁क्रिस	-11.4512
▁तेज़ी	-11.4513
▁सीमाएं	-11.4513
▁समझाया	-11.452
▁भुला	-11.4525
▁समूच	-11.4526
▁ब्रांड	-11.4532
▁नातेदार	-11.4539
▁विनिर्दि	-11.4542
▁जनसाधारण	-11.4544
▁रजिस्ट्रार	-11.4544
▁वार्मिंग	-11.4544
▁अपडेट	-11.4544
▁वार्तालाप	-11.4545
▁मेघालय	-11.4545
▁विधायक	-11.4545
▁पत्रकारिता	-11.4546
▁यन्त्र	-11.4549
▁परम्परागत	-11.4552
▁पूछने	-11.4552
▁निपटारा	-11.4554
▁यकृत	-11.456
▁नवान्वेषक	-11.4573
▁लौ	-11.4583
▁ईंट	-11.4584
▁फोरम	-11.4585
▁परित्याग	-11.4588
▁सुसज्जित	-11.4588
▁सुस्पष्ट	-11.4588
▁रुझान	-11.4588
▁वफादार	-11.4589
▁वेंकट	-11.459
ार्ध	-11.459
▁विलेख	-11.4601
▁वक़्त	-11.4604
▁उपवास	-11.4606
▁रास	-11.4612
श्रम	-11.4613
▁पिच	-11.4617
पाठ	-11.4619
ज्जा	-11.4621
▁वृंदावन	-11.4633
▁सुल्तान	-11.4633
▁पाषाण	-11.4633
▁समावेदन	-11.4633
▁ब्लैक	-11.4634
▁दूषित	-11.4634
▁न्यूज	-11.4637
▁बर्मा	-11.4648
टीपी	-11.4651
▁गिरवी	-11.4653
▁वाहिका	-11.4653
▁ट्रीय	-11.4655
चिंत	-11.4656
▁खेद	-11.4658
▁प्रौद्योगिक	-11.4659
▁बहाल	-11.4664
संख्य	-11.4665
▁कमाने	-11.467
▁औपनिवेशिक	-11.4678
▁फुफ्फुस	-11.4678
▁समतुल्य	-11.4678
▁सिडबी	-11.4678
आक्साइड	-11.4678
▁भित्ति	-11.468
▁मल्टी	-11.468
र्फ	-11.4682
▁गांठ	-11.4682
▁वेदना	-11.4683
▁जनमत	-11.469
▁प्रत्यक्षतः	-11.4691
फिन	-11.4694
▁www	-11.4722
▁अछूत	-11.4722
▁साइकिल	-11.4722
▁क्रिस्टल	-11.4722
▁झुका	-11.4724
▁संभोग	-11.4731
ग्ल	-11.4731
▁भावुक	-11.4733
▁पारिस्थितिकी	-11.4742
▁अड्डा	-11.4745
▁डिम्ब	-11.4747
▁समानांतर	-11.4752
▁बचाया	-11.4754
ख़्त	-11.4764
▁कार्रवाइय	-11.4767
▁अदृश्य	-11.4767
▁झारखंड	-11.4767
▁प्रोफ़ाइल	-11.4767
▁आवधिक	-11.4768
▁पिघल	-11.4769
भोज	-11.477
▁राष्ट्रमंडल	-11.4773
▁उपस्कर	-11.4774
▁छपाई	-11.4775
▁सारवान	-11.4776
▁साँ	-11.4783
▁मुहर	-11.4784
ल्लाह	-11.4785
▁दिलाया	-11.4789
▁कवक	-11.479
▁क्रू	-11.4794
▁गध	-11.4795
▁शौ	-11.4796
वर्तित	-11.4803
िष्णु	-11.4807
▁परिचर्चा	-11.4813
▁कदाचार	-11.4813
▁चाँद	-11.4813
▁सामरिक	-11.4815
▁क्षतिग्रस्त	-11.4815
▁त्यागपत्र	-11.4817
पीओ	-11.4822
▁विधिवत	-11.4836
▁फिट	-11.4841
▁लॉक	-11.4845
▁कोल्हटकर	-11.4858
▁मर्यादा	-11.4858
▁संकुचन	-11.4858
▁सर्वांगीण	-11.4858
▁अभिकथन	-11.4858
▁रिश्वत	-11.4858
▁सैयद	-11.4858
▁नर्मदाशंकर	-11.4858
▁रस्सी	-11.4858
▁कच्ची	-11.4858
▁चौड़ा	-11.4862
क्रियात्मक	-11.4868
▁प्रस्ता	-11.4873
▁निधियां	-11.4875
▁कार्यक्षेत्र	-11.4885
ind	-11.4886
▁तुलन	-11.4893
▁अनुपस्थित	-11.4894
▁पड़ोस	-11.4897
▁गुंजाइश	-11.4904
▁वैवाहिक	-11.4904
▁सॉफ़्टवेयर	-11.4904
▁फ़ारसी	-11.4904
▁वसीयत	-11.4904
▁फिल्टर	-11.4904
▁मुंशी	-11.4904
▁सपनों	-11.4904
▁मुद्रास्फीति	-11.4905
▁सैल	-11.4905
▁धमनी	-11.4905
▁उद्भव	-11.4906
▁दूंगा	-11.4912
▁पढ़ते	-11.4913
च्छिक	-11.4939
SS	-11.494
▁मर्द	-11.4943
▁अंतररा	-11.495
▁ख़ान	-11.4951
▁ऑक्स	-11.496
▁सन्देश	-11.4962
्नो	-11.4965
▁रोज़	-11.4966
▁समयावधि	-11.4967
▁करवाना	-11.497
ME	-11.4983
▁मर्म	-11.4987
▁पूज	-11.4994
▁ठेकेदार	-11.4996
▁अनुज्ञेय	-11.4996
▁सुगंध	-11.4996
▁स्वंय	-11.4996
▁कहानियाँ	-11.4998
कॉन	-11.4999
▁नागपुर	-11.5001
▁नियमावली	-11.5002
▁सलाम	-11.5005
▁लिखकर	-11.5007
TT	-11.5009
नाशक	-11.5022
▁इलेक्ट्रानिक	-11.5027
चिकित्सा	-11.5027
इये	-11.5033
ana	-11.5038
▁इन्फ	-11.5042
▁नाइट्रोजन	-11.5042
▁हुकूमत	-11.5042
▁आवंटन	-11.5042
▁ड्यूटी	-11.5042
▁निपुण	-11.5042
▁रिसर्च	-11.5042
▁कचरे	-11.5042
संधान	-11.5042
▁फकीर	-11.5042
▁रोज़गार	-11.5043
▁पितृ	-11.5043
▁कपड़ों	-11.5043
▁कुंजीपटल	-11.5043
▁अवरुद्ध	-11.5045
डिट	-11.5046
▁वीणा	-11.5049
▁आर्ट	-11.5053
प्रधान	-11.5053
पीड़	-11.5065
▁चलेगा	-11.5066
▁जड़ें	-11.5079
गिरी	-11.5081
▁अविभक्त	-11.5089
▁उद्घोषणा	-11.5089
▁विरोधाभास	-11.5089
▁षड्यंत्र	-11.5089
▁आधारशिला	-11.5089
▁पूंछ	-11.5089
▁संरक्षा	-11.5089
▁श्रवण	-11.5089
▁थोडा	-11.5089
▁वाकई	-11.5089
▁भिक्षु	-11.5089
▁कठिनाइया	-11.5089
▁संभालने	-11.509
▁गुज़र	-11.5092
डीसी	-11.5095
▁संघटक	-11.5099
▁एसिड	-11.511
▁गुड़	-11.5111
▁शत्रुओं	-11.5128
▁उठती	-11.5133
▁मुर्ग	-11.5133
▁फ्रेंच	-11.5135
▁मार्जिन	-11.5136
▁विद्यासागर	-11.5136
▁बरामद	-11.5136
▁निद्रा	-11.5137
▁लंका	-11.5137
▁घटनाक्रम	-11.5141
▁इंद्रिय	-11.5145
▁आलू	-11.5147
▁आवेदनपत्र	-11.5147
▁पनप	-11.5153
पुंज	-11.5159
स्पेस	-11.5165
▁घिस	-11.5168
▁आकड	-11.5169
▁मैग	-11.5171
▁वंशज	-11.5175
▁दर्शाते	-11.5178
▁पकड	-11.5182
▁अभियांत्रिकी	-11.5182
▁अमिताभ	-11.5182
▁स्वयंसेवक	-11.5182
▁ऊर्ध्व	-11.5182
▁पूर्वाग्रह	-11.5182
▁थलग	-11.5182
▁नदियां	-11.5183
▁विवेकाधिकार	-11.5184
मार्क	-11.5184
बूल	-11.5187
▁दोहरी	-11.5188
एससी	-11.5191
▁निबन्ध	-11.5193
▁प्रांतीय	-11.5207
▁ट्व	-11.5207
▁गोपनीयता	-11.5216
▁उद्ध	-11.5216
▁मार्केट	-11.5226
▁अभूतपूर्व	-11.5229
▁मज़दूर	-11.5229
▁यूनिवर्सिटी	-11.5229
▁आकृष्ट	-11.5229
▁नियामक	-11.523
▁मजाक	-11.523
जन्म	-11.5231
▁vii	-11.5232
▁कामयाब	-11.5233
▁दर्पण	-11.5234
▁सेनापति	-11.5238
▁स्थानापन्	-11.5239
ty	-11.5246
▁उदासीनता	-11.5251
ard	-11.5253
▁स्वतन्त्र	-11.5264
▁द्रोण	-11.5277
▁प्रवर्तक	-11.5277
▁जर्नल	-11.5277
▁दुर्भाग्यवश	-11.5278
▁परमेश्वर	-11.528
▁महिमा	-11.5283
▁राजनेता	-11.5283
cl	-11.5285
▁हटकर	-11.5304
▁दिखाए	-11.5314
▁दूतावास	-11.5324
▁पार्टियों	-11.5325
▁देशीराज्य	-11.5325
▁hO	-11.5327
फिर	-11.5343
our	-11.5346
▁लटका	-11.5349
शाल	-11.5353
▁किराये	-11.5354
▁चुनौतियां	-11.5372
▁हड्डियों	-11.5372
▁दरवाजा	-11.5372
▁लॉन्च	-11.5373
▁क्रूर	-11.5373
▁मेहता	-11.5373
▁मैट्रिक	-11.5374
श्वास	-11.5375
▁व्यंजन	-11.5376
▁गिर्द	-11.5379
ांजलि	-11.5381
▁मोती	-11.5381
▁संबधित	-11.5383
▁बहाना	-11.5384
▁निकटतम	-11.5387
▁लोकहित	-11.5396
िलक्षित	-11.5399
▁फ़ि	-11.5405
▁सार्वभौम	-11.541
कृष्ण	-11.5411
▁जुडे	-11.5416
▁क्लाइंट	-11.542
▁फर्नीचर	-11.542
▁मक्खी	-11.542
▁टिड्ड	-11.542
▁स्वीडन	-11.542
▁उदात्त	-11.542
▁स्त्रियां	-11.5421
▁ब्यौरा	-11.5422
▁जिंदा	-11.5426
▁अहंकार	-11.5429
▁अड्डे	-11.5432
न्च	-11.5434
ud	-11.5435
▁जिम	-11.5446
म्फ	-11.5451
▁ज्ह	-11.5462
▁नोबेल	-11.5469
▁ह्रदय	-11.5469
▁मच्छर	-11.5469
▁वर्जित	-11.547
▁नरेंद्र	-11.5471
▁बाड़	-11.548
▁सस्ता	-11.5489
▁मुकदमेबाज	-11.5491
▁लेनदार	-11.5504
▁कांफ्रेंस	-11.5517
▁रुकावट	-11.5517
▁भाजपा	-11.5517
▁स्तम्भ	-11.5517
▁पुनरावृत्ति	-11.5518
▁मौर्य	-11.5518
▁रहस्यमय	-11.5522
▁अंधकार	-11.5528
▁सल्ल	-11.553
▁गाजा	-11.5537
▁बाइट	-11.554
▁जुड़ने	-11.5541
NT	-11.555
▁महासचिव	-11.5566
▁उपेक्षित	-11.5566
▁दुसरे	-11.5566
▁अध्यधीन	-11.5566
▁असहमति	-11.5566
▁वृद्धावस्था	-11.5566
▁उल्टी	-11.5567
सन्निकट	-11.5568
▁उलझन	-11.5569
▁धक्का	-11.557
▁मराठ	-11.5571
▁मोचन	-11.5572
▁वारिस	-11.5573
▁संयोजक	-11.5574
किसी	-11.5575
गुआ	-11.5578
▁सर्जन	-11.5585
▁बाएं	-11.5588
▁मुनि	-11.5594
▁ललित	-11.5597
▁बनेगा	-11.5613
▁फसलें	-11.5613
▁इंडोनेशिया	-11.5615
▁पदोन्नति	-11.5615
▁रेड्डी	-11.5615
▁स्तूप	-11.5615
▁पराजय	-11.5616
▁चेतन	-11.5616
▁विचाराधीन	-11.5617
▁उथल	-11.5618
▁बोतल	-11.5618
▁रैंक	-11.5619
▁प्रजातियां	-11.5621
▁सिखाया	-11.5628
▁प्रमाणीकरण	-11.5637
▁प्रदर्शक	-11.5639
▁ढोल	-11.5639
▁पावन	-11.564
eg	-11.5662
▁उन्न	-11.5663
▁निलंबित	-11.5664
▁स्ट्रीम	-11.5664
▁उधारकर्ता	-11.5665
▁प्रत्यर्थियो	-11.5665
▁परिसंघ	-11.5667
ly	-11.5668
▁राजनीतिज्ञ	-11.5668
▁बिठा	-11.5671
▁देशभक्ति	-11.5672
▁हिरण	-11.5673
▁वाक्	-11.5683
▁अकेल	-11.5685
▁जूते	-11.5686
▁संतुष्टि	-11.5692
टीआई	-11.5696
▁सप्त	-11.5699
▁पर्यवेक्ष	-11.5701
▁दीक्षा	-11.5709
▁हिज	-11.571
▁प्रोसेस	-11.5711
▁संबध	-11.5712
▁पक्क	-11.5713
▁देनदार	-11.5713
▁मौद्रिक	-11.5714
▁घोड़ा	-11.5714
▁प्रवीण	-11.5714
▁अकसर	-11.5717
▁कोष्ठक	-11.572
▁अलगाव	-11.5723
प्रमाण	-11.5727
▁ko	-11.5739
▁आरम्भिक	-11.5751
▁क्रोमियम	-11.5763
▁जिज्ञासा	-11.5763
▁मकसद	-11.5763
▁नक्षत्र	-11.5764
▁तुल्य	-11.5765
▁अधिरोपण	-11.5768
▁ब्रह्मांड	-11.5768
▁मिर्च	-11.5768
▁दिखाएं	-11.5771
▁सपाट	-11.5774
आउट	-11.5778
मग्न	-11.5789
▁मीरा	-11.5794
▁दावेदार	-11.5801
▁खडे	-11.5803
▁इंग्लिश	-11.5813
▁नौजवान	-11.5813
▁सैद्धांतिक	-11.5813
▁डाटाबेस	-11.5813
▁गुर्दे	-11.5814
▁निवारक	-11.5814
▁एटीएम	-11.5814
▁सजग	-11.5814
▁सदृश	-11.5814
▁कथानक	-11.5814
▁अपमानजनक	-11.5815
▁राहुल	-11.5815
▁शोभा	-11.5816
▁वरदान	-11.5816
▁गुजार	-11.5817
ik	-11.5819
▁पत्ती	-11.582
RI	-11.5821
▁धनुष	-11.5821
▁चोल	-11.5822
▁पड़ोसियों	-11.5823
▁देहात	-11.5825
▁खिसका	-11.5829
▁गोल्ड	-11.5831
▁फंच	-11.5837
▁पीटर	-11.586
प्रवाह	-11.5863
▁बेजबरु	-11.5864
▁नागालैंड	-11.5864
▁प्रकोष्ठ	-11.5864
▁उन्नीसवी	-11.5864
▁असुविधा	-11.5864
त्त्व	-11.5864
▁उभरते	-11.5865
▁सस्ती	-11.5865
▁सिक्के	-11.5866
▁राजशाही	-11.5866
▁खासतौ	-11.5867
▁ऑयल	-11.5867
ोत्सव	-11.5868
▁जन्मजात	-11.5869
▁दूरभाष	-11.588
फेस	-11.5912
▁उत्कीर्ण	-11.5914
▁कॉपीराइट	-11.5914
▁बंगलौर	-11.5914
▁साँचाः	-11.5914
▁org	-11.5914
▁प्रदाय	-11.5914
LE	-11.5916
▁मिटाएँ	-11.5922
▁लम्बाई	-11.5922
निर्माण	-11.5929
फॉर्म	-11.5935
ावधान	-11.5938
▁छन्द	-11.5946
▁समझौत	-11.5948
▁दलाल	-11.5957
▁लिहाज	-11.5958
▁अभिभावक	-11.5965
▁पुनर्निर्माण	-11.5966
▁कैरियर	-11.5966
▁बुनियाद	-11.5968
▁जाग्रत	-11.5969
▁पेशाब	-11.597
▁राजेन्द्र	-11.5972
व्रण	-11.5974
▁तटस्थ	-11.5976
निर्दिष्ट	-11.5983
▁आदर्शवाद	-11.5986
अनु	-11.5988
▁बहिर्	-11.6007
▁ब्राह्म	-11.6008
▁एहसास	-11.6016
▁छानबीन	-11.6016
▁देवेन्द्रनाथ	-11.6016
▁वैचारिक	-11.6016
▁अंतर्वलित	-11.6016
▁उत्तराखंड	-11.6016
▁माइनस	-11.6016
ोत्पाद	-11.6017
▁बछड़	-11.6018
▁एकरूपता	-11.6019
RA	-11.6025
▁आनन्दमय	-11.6026
▁सिद्व	-11.6027
▁कर्मकार	-11.6031
▁पड़ेगी	-11.6034
▁असीमित	-11.6035
फोड़	-11.6036
प्रतिशत	-11.6041
▁घाना	-11.6045
▁उकसा	-11.605
▁आवेश	-11.6053
▁माध्यस्थम	-11.6058
▁अधिनिर्णी	-11.6067
▁रिपब्लिक	-11.6067
▁न्यायसंगत	-11.6067
▁बस्तियों	-11.6067
▁रूपांतरित	-11.6067
▁पठार	-11.6068
▁प्रतिभाशाली	-11.6069
▁रिटर्न	-11.607
▁जूझ	-11.6071
▁साइंस	-11.6073
▁रीढ़	-11.6074
▁जूरी	-11.6081
▁बहाव	-11.6083
▁प्रत्याशा	-11.6083
▁बिछा	-11.6089
▁थोप	-11.6094
▁पिछड़	-11.6097
▁परिवीक्षाधीन	-11.6119
▁सुप्रसिद्ध	-11.6119
▁अनुषंगी	-11.6119
▁विषाक्त	-11.6119
▁सिन्धु	-11.6119
▁जोधपुर	-11.6119
▁gui	-11.6119
▁कवच	-11.612
▁शुक्ल	-11.6121
▁सिक्का	-11.6123
▁उग्रवादी	-11.6123
▁मनोहर	-11.6129
फार्म	-11.6138
▁छिपे	-11.6145
भ्रम	-11.6149
व्यू	-11.6149
▁घोल	-11.6153
▁बकरिय	-11.6158
▁बहू	-11.6159
▁सम्यक	-11.6163
▁आनुपातिक	-11.6171
▁डिबेंचर	-11.6171
▁लाइब्रेरी	-11.6171
▁आइटम	-11.6171
▁ब्राजील	-11.6171
▁नर्सिंग	-11.6171
▁मार्टिन	-11.6171
▁दीर्घावधि	-11.6171
▁प्रणालियां	-11.6173
▁मंगोल	-11.6174
▁सन्देह	-11.6174
▁परिचालित	-11.6175
▁सुशासन	-11.6175
▁दूरदर्शन	-11.6177
▁आफिस	-11.618
▁देखिये	-11.6181
▁कैम्प	-11.6181
▁गड्ढ	-11.6187
ध्वनि	-11.6193
▁आएगी	-11.6197
▁भूरे	-11.6205
▁तत्संबंधी	-11.6223
▁कार्यकारिणी	-11.6223
▁स्ट्रीट	-11.6223
▁चार्ल्स	-11.6223
▁लेबनान	-11.6223
▁कमज़ोर	-11.6223
▁शारदा	-11.6223
▁फ़ोटो	-11.6223
▁वृहद	-11.6227
आरसी	-11.6229
▁सामंत	-11.6229
▁कपूर	-11.6245
▁असहाय	-11.6249
▁कार्यप्रणाली	-11.6275
▁सिगरेट	-11.6275
▁बुद्धिमत्ता	-11.6275
▁कीमियागर	-11.6275
▁हल्की	-11.6275
▁संवेदी	-11.6275
▁सामग्रिय	-11.6276
▁प्यास	-11.6276
▁चीख	-11.6281
mm	-11.6289
▁ऐक्ट	-11.6292
▁Ch	-11.6308
▁पुनरीक्ष	-11.632
▁सिपाही	-11.6328
▁धब्बे	-11.6328
▁हाइड्रोजन	-11.6329
▁आँकड़ा	-11.633
▁उदारीकरण	-11.6338
▁कच्छ	-11.634
▁हृद	-11.6349
▁गणितीय	-11.635
▁छुप	-11.6365
▁मृदु	-11.6375
▁अनदेखी	-11.6381
▁बुजुर्ग	-11.6381
▁आवंटित	-11.6381
▁फिलहाल	-11.6381
▁संबोधन	-11.6381
▁फोकस	-11.6381
▁खयाल	-11.6381
▁नर्तक	-11.6382
भ्रंश	-11.6383
▁तख्त	-11.6384
▁खोखल	-11.6386
▁थैली	-11.6386
▁मंज	-11.6394
▁इकट्ठ	-11.6403
▁चीफ	-11.6408
▁प्रतिभागियो	-11.6426
िनद्	-11.6431
▁आदमियों	-11.6434
▁गठबंधन	-11.6434
▁तालिबान	-11.6434
▁पांडुलिपि	-11.6434
▁पन्द्रह	-11.6434
▁निरूपण	-11.6434
▁साउथ	-11.6434
▁अपलोड	-11.6434
▁गुरबख्श	-11.6434
▁पहुच	-11.6434
▁घोंसल	-11.6434
▁सोपान	-11.6434
▁अलंकार	-11.6434
▁अर्हता	-11.6434
▁बैग	-11.6435
▁डाउन	-11.6437
▁रजिस्ट	-11.6441
ill	-11.6441
रूद्ध	-11.6445
▁डायरी	-11.6453
▁मिलेंगे	-11.6458
▁ख़रीद	-11.6472
IT	-11.6479
▁डब्लू	-11.6487
▁संश्लेषण	-11.6487
▁सांविधानिक	-11.6487
▁सिलसिले	-11.6487
▁शर्करा	-11.6487
▁सिकंदर	-11.6487
▁पोशाक	-11.6487
▁संचलन	-11.6487
▁मीनार	-11.6489
▁मनोरम	-11.6494
▁साझेदार	-11.6495
▁प्रत्यय	-11.6512
▁संकुल	-11.6516
▁हिट	-11.6528
▁गुदा	-11.653
▁चुकौती	-11.6541
▁ट्रिब्यूनल	-11.6541
▁प्रतिस्पर्धी	-11.6541
▁यूरेनियम	-11.6541
▁पुरोहित	-11.6541
▁विचलित	-11.6541
▁इशारा	-11.6541
▁अनेकानेक	-11.6541
स्फूर्त	-11.6541
▁एकाएक	-11.6542
▁पीडित	-11.6542
▁पोषित	-11.6544
▁निकास	-11.6551
▁विपत्ति	-11.6553
▁मॉँ	-11.6554
▁चिपक	-11.6556
▁सेटिंग्स	-11.6557
▁शशि	-11.656
▁उदासीन	-11.6571
▁यूएस	-11.6583
▁कार्यान्व	-11.6583
▁एजेन्सी	-11.6595
▁गुवाहाटी	-11.6595
▁सुव्यवस्थित	-11.6595
▁सूत्रकृमि	-11.6595
▁उत्तीर्ण	-11.6595
▁परिपाटी	-11.6595
▁द्रविड़	-11.6595
▁कुर्की	-11.6595
▁सब्जी	-11.6595
▁छठे	-11.6596
▁वर्तनी	-11.6607
▁शहद	-11.6607
▁पुर्न	-11.661
कण्ठ	-11.6615
▁प्रक्रमण	-11.6621
ib	-11.6623
▁सफर	-11.6623
बीआई	-11.6626
▁तत्पश्चात	-11.664
डब्ल्यू	-11.6645
▁चालुक्य	-11.6649
▁वाराणसी	-11.6649
▁मुनाफा	-11.6649
▁सहभागी	-11.665
▁क्षुद्र	-11.665
▁मोर्चे	-11.665
▁खजाने	-11.665
▁भगवती	-11.6651
युक्	-11.6651
▁रोगाणु	-11.6655
▁छठी	-11.6655
▁मतदाताओं	-11.6669
▁कहेंगे	-11.6672
▁नाटककार	-11.6678
एमसी	-11.669
▁कबील	-11.6703
▁नैसर्गिक	-11.6704
▁महाभियोग	-11.6704
▁ज्येष्ठ	-11.6704
▁भ्रामक	-11.6704
▁अंकुश	-11.6704
▁वायुसेना	-11.6704
▁चुम्बक	-11.6704
▁त्रिकोण	-11.6706
▁अनुपम	-11.6706
▁बर्बर	-11.671
▁निगाह	-11.6711
▁जनशक्ति	-11.6714
प्रसाद	-11.6719
▁सादे	-11.6725
▁इस्ते	-11.6726
सीबी	-11.6741
▁बंधे	-11.6746
ting	-11.6752
▁घुड़सवार	-11.6759
▁संकुचित	-11.6759
▁अवशिष्ट	-11.6759
▁अनवरत	-11.6759
▁यत्न	-11.6759
▁बोनस	-11.676
▁नैगम	-11.6761
▁जागरण	-11.6763
▁मनोमय	-11.6765
▁रेटिंग	-11.6765
▁अविलय	-11.6766
▁रक़्त	-11.6766
▁वार्ड	-11.6772
▁सुधर	-11.6789
▁नीड़	-11.6802
▁ब्यू	-11.6811
▁बिछ	-11.6813
▁अनदेखा	-11.6814
▁गंधर्व	-11.6814
▁समनुदेशन	-11.6814
▁समीक्षक	-11.6814
▁शिवाजी	-11.6814
▁मातृभाषा	-11.6815
▁अन्तरराष्ट्रीय	-11.6816
▁भूभाग	-11.682
▁पर्याय	-11.6821
▁मुर्गिय	-11.6831
▁अंग्रेज़	-11.6832
▁लोहा	-11.6835
कंटक	-11.6839
▁विनिधानकर्ता	-11.6852
▁शिकायतकर्ता	-11.6852
मिक्स	-11.6858
▁विभक्त	-11.6861
▁घटिया	-11.6867
▁वैश्व	-11.6868
▁अवक्षयण	-11.687
▁आशीर्वाद	-11.687
▁कारपोरेट	-11.687
▁धुंधल	-11.687
▁प्रारुप	-11.6874
▁तेजाब	-11.6874
लब्ध	-11.6875
प्रेरित	-11.6875
▁नवीकरणीय	-11.688
▁उपनिवेशवाद	-11.688
लोचन	-11.6882
▁पदधारी	-11.6882
वैज्ञानिक	-11.6883
नियोजित	-11.6883
गर्त	-11.6887
वाचक	-11.6889
▁विलीन	-11.6891
▁पतंग	-11.6899
▁चुरा	-11.6903
▁हफ्त	-11.6908
फेर	-11.6912
ेटेड	-11.6912
▁ह्यू	-11.6912
▁लतीफ	-11.6913
▁दफ्तर	-11.6926
▁शुभारंभ	-11.6926
▁नायडू	-11.6926
▁खाण्डे	-11.6926
▁मलेशिया	-11.6926
▁संचालक	-11.6926
▁अल्पावधि	-11.6927
▁सूरदास	-11.6927
▁अभिनव	-11.6928
▁आत्मकथा	-11.6928
▁मज्जा	-11.6931
▁झूल	-11.694
▁कैट	-11.6943
▁समवर्ती	-11.6945
▁फाल	-11.6949
▁डबल	-11.695
▁मोनो	-11.697
▁for	-11.6975
छेदन	-11.6978
▁इंस्टॉल	-11.6982
▁क़ुरआन	-11.6982
▁निषिद्ध	-11.6982
▁तात्विक	-11.6982
▁विस्मय	-11.6982
▁सेमिनार	-11.6982
▁अपरिचित	-11.6983
▁बदनाम	-11.6986
▁स्केल	-11.6994
▁पूर्त	-11.6996
▁भुजा	-11.7007
rat	-11.7008
▁क्षार	-11.7017
मूर्तियों	-11.7033
▁एचपीसीएल	-11.7038
▁काउंटर	-11.7038
▁सराहनीय	-11.7038
▁सांकेतिक	-11.7038
▁हथकरघा	-11.7038
▁सम्मिश्रण	-11.7039
▁हिटलर	-11.7039
▁वसंत	-11.704
▁ex	-11.7042
▁हलचल	-11.7043
▁स्कंध	-11.7045
▁ईमानदार	-11.7047
▁चौंक	-11.7052
▁बृहत्	-11.7053
मिजाज	-11.7057
▁नाड़ी	-11.7065
रेंस	-11.7084
all	-11.7088
▁एक्सप्रेस	-11.7095
▁अव्यवस्था	-11.7095
▁रिचर्ड	-11.7095
▁जीवाश्म	-11.7095
▁फौरन	-11.7095
▁अवार्ड	-11.7095
▁व्यवधान	-11.7096
▁नायिका	-11.7096
▁सौम्य	-11.71
▁मुस्करा	-11.7107
▁नाभि	-11.7112
▁कभार	-11.7114
▁सूच	-11.7123
टेक्स	-11.7123
िजनों	-11.7124
▁अशक्त	-11.7125
▁स्थापत्य	-11.7152
▁अनगिनत	-11.7152
▁व्यथित	-11.7152
▁उछाल	-11.7153
▁समज्ह	-11.7153
▁पुनर्विचार	-11.7153
▁जहॉँ	-11.7153
▁सौदों	-11.7156
▁सम्पदा	-11.7159
द्दाम	-11.7167
▁राशन	-11.717
▁खरीदार	-11.7191
प्रसू	-11.7193
▁बहुआयाम	-11.721
▁बहुपक्षीय	-11.721
▁हरिश्चन्द्र	-11.721
▁रक्तचाप	-11.721
▁अब्बास	-11.721
▁उल्टा	-11.721
▁निबटा	-11.721
▁दोहरे	-11.721
▁तदर्थ	-11.7211
▁कन्नड़	-11.7212
▁अल्पकालिक	-11.7212
▁सम्भवतः	-11.7215
▁धागे	-11.7219
▁राइट	-11.7222
▁जुग	-11.7238
▁हसन	-11.7244
▁समेट	-11.7252
▁साम्राज़्यवाद	-11.7257
▁दिखायें	-11.7258
▁खुफिया	-11.7268
▁शौचालय	-11.7268
▁इण्डिया	-11.7268
▁अस्थाई	-11.7268
▁प्रसूति	-11.7268
▁शिलालेख	-11.7268
▁स्पर्धा	-11.7269
▁बैकअप	-11.7269
▁बर्बाद	-11.7269
▁पडेगा	-11.7273
▁पण्य	-11.7277
▁बन्धन	-11.7281
▁विवेकपूर्ण	-11.7283
ies	-11.7291
दोष	-11.7292
aw	-11.7294
▁महाजन	-11.7312
▁महिल	-11.7314
▁निःसंदेह	-11.7326
▁प्रदूषित	-11.7326
▁मिजोरम	-11.7326
▁विनिर्माता	-11.7326
▁स्तुति	-11.7326
▁मुलायम	-11.7326
▁आरोहण	-11.7326
▁गुम्बद	-11.7326
▁तितली	-11.7326
▁सतीश	-11.7326
▁गर्भपात	-11.7327
▁मानदण्ड	-11.7328
▁प्लगिन	-11.733
▁टुकड	-11.7334
▁चादर	-11.7334
▁बनर्जी	-11.7335
पीआर	-11.7339
▁गोबर	-11.734
▁संतति	-11.7342
समूह	-11.7349
वार्षिक	-11.735
सूचक	-11.7355
▁स्वै	-11.7364
▁देशभक्त	-11.7375
▁प्रज्ञा	-11.7376
शंकाओं	-11.7384
▁चेन्नम्मा	-11.7384
▁पूर्वावलोकन	-11.7384
▁महमूद	-11.7384
▁विश्लेषक	-11.7384
▁शाब्दिक	-11.7384
▁भयावह	-11.7384
▁उमीद	-11.7384
▁मिसाल	-11.7384
▁सस्ते	-11.7385
▁प्रक्षेप	-11.7386
▁उर्जा	-11.7387
▁सर्दी	-11.7391
▁डंड	-11.7392
▁पुर्ज	-11.7397
age	-11.74
▁ख़ास	-11.7405
चेंज	-11.7422
▁नर्मदा	-11.7443
▁कारखानों	-11.7443
▁ग्रीनहाउस	-11.7443
▁संप्रभु	-11.7443
▁पुरातत्व	-11.7443
▁पौष्टिक	-11.7443
▁टेक्स्ट	-11.7443
tic	-11.7447
▁अयस्क	-11.7447
▁प्रवर्तित	-11.745
▁बंदूक	-11.7451
▁समांतर	-11.7451
▁फ्रांसिस	-11.7456
▁pr	-11.7468
▁अधिवास	-11.7471
▁उर्वर	-11.7479
▁दुरूपयोग	-11.7502
▁यादृच्छिक	-11.7502
▁रिफाइनरी	-11.7502
▁वायसराय	-11.7502
▁श्रोणि	-11.7502
▁सियारामशरण	-11.7502
▁सेंट्रल	-11.7502
▁सर्जनात्मक	-11.7505
▁पशुधन	-11.7505
▁वैभव	-11.7506
▁बत्ती	-11.751
▁स्क्व	-11.7514
▁ज्योतिष	-11.752
▁पूति	-11.7521
ET	-11.7551
▁नॉर	-11.7554
युकत	-11.7558
स्फीति	-11.7561
▁आईएफसीआई	-11.7562
▁उबुन्ट	-11.7562
▁अनोखा	-11.7562
▁अस्वस्थ	-11.7562
▁मोर्चा	-11.7562
▁परिधीय	-11.7562
▁फोटोग्राफ	-11.7562
भाऊ	-11.7562
▁मनमाने	-11.7562
▁पलायन	-11.7563
▁पतला	-11.7564
ाइजेशन	-11.7565
▁उदयपुर	-11.7566
▁कीर्तन	-11.7566
▁निम्नानुसार	-11.7566
▁चूर्ण	-11.7566
▁प्रतिभावान	-11.7569
▁सुझाया	-11.757
▁संवेदन	-11.757
▁अहिंस	-11.7571
▁निन्दा	-11.7574
▁खिलफ	-11.7575
परीक्षित	-11.7582
▁ब्लाक	-11.7589
▁आच्छादित	-11.7622
▁इक्विटी	-11.7622
▁बहुसंख्यक	-11.7622
▁मसौदा	-11.7622
▁वॉल्यूम	-11.7622
▁अधीक्षक	-11.7622
▁सिक्कों	-11.7622
▁घोड़ों	-11.7622
▁ग्रसनी	-11.7622
▁तारामंडल	-11.7623
▁मेहराब	-11.7623
▁टनभार	-11.7624
▁जयदेव	-11.7626
▁सूफी	-11.7628
▁कैंप	-11.7628
▁सज्जा	-11.7629
▁अध्यात्म	-11.7653
▁फैसल	-11.7657
▁फेडरल	-11.7682
▁बायोगैस	-11.7682
▁विज्ञप्ति	-11.7682
▁श्रोताओं	-11.7682
▁पहाडिय	-11.7682
▁इंटरफेस	-11.7682
▁अफगान	-11.7682
▁हिस्सेदारी	-11.7684
▁सावधानीपूर्वक	-11.7686
यात्रा	-11.7687
▁दुगुन	-11.7688
▁एक्सेस	-11.7696
▁हताश	-11.7697
भक्षी	-11.7699
▁टिप्पणिय	-11.7715
▁पॉलि	-11.7723
▁स्टॉ	-11.7727
ओगे	-11.7739
▁ईर्ष्या	-11.7743
▁चुनिंदा	-11.7743
▁त्रासदी	-11.7743
▁द्वेष	-11.7743
▁खलीफा	-11.7743
▁मृत्युदण्ड	-11.7743
▁सावरकर	-11.7743
▁सामयिक	-11.7743
▁खजाना	-11.7743
▁चटर्जी	-11.7743
▁प्रखर	-11.7743
▁ग्राफिक्स	-11.7744
▁बंजर	-11.7744
▁रिव्यू	-11.7744
▁प्लेयर	-11.7748
▁गंवा	-11.7748
▁खांसी	-11.775
रत्न	-11.7751
▁ट्रेडिंग	-11.7752
▁ग्रीक	-11.7757
चिह्न	-11.7784
▁उद्धार	-11.779
▁अंतरराष्ट्री	-11.7796
▁रहस्यवाद	-11.7798
▁असुरक्षित	-11.7803
▁मजहब	-11.7803
▁अभिकथित	-11.7803
▁उत्पीड़न	-11.7803
▁प्रशंसनीय	-11.7803
▁वगैरह	-11.7803
▁डेनमार्क	-11.7803
▁अवयस्क	-11.7804
▁बंकिम	-11.7804
▁समीचीन	-11.7804
▁मद्देनज	-11.7804
▁खामोश	-11.7804
▁पत्तियां	-11.7804
▁शंख	-11.7804
▁प्रयाग	-11.7804
▁व्हाइट	-11.7804
▁शुक्रवार	-11.7805
▁आखिरकार	-11.7811
▁रेशे	-11.7812
yaa	-11.7825
मस्तिष्क	-11.7848
▁आक्सीजन	-11.7865
▁उज्ज्वल	-11.7865
▁ढाँचा	-11.7865
▁न्यूयॉर्क	-11.7865
▁वाल्मीकि	-11.7865
▁शाहजहाँ	-11.7865
▁अग्रेषित	-11.7865
▁ऑक्सीजन	-11.7865
▁लाभान्वित	-11.7865
▁जन्मदिन	-11.7865
▁अधूरा	-11.7865
▁पत्निय	-11.7865
▁उपधारणा	-11.7866
▁कावेरी	-11.7866
▁ख़त्म	-11.7867
▁पूर्वजों	-11.7869
▁गुरुदेव	-11.7871
▁इत्या	-11.7872
▁वधू	-11.7877
▁बेगम	-11.788
ions	-11.7895
पायर	-11.7899
द्वीप	-11.7911
▁END	-11.7927
▁ग्रामोद्योग	-11.7927
▁पैतृक	-11.7927
▁फायदों	-11.7927
▁सर्वसाधारण	-11.7927
▁उपजाऊ	-11.7927
▁संगमर्मर	-11.7927
▁सर्जरी	-11.7927
▁अँधेर	-11.7927
▁अनुशंसा	-11.7927
▁उछल	-11.7927
एसटी	-11.7927
▁जिलाधीश	-11.7929
▁पारेषण	-11.7932
▁जकड़	-11.7948
▁pro	-11.7976
▁टोल	-11.7983
▁अनुक्रिया	-11.7986
▁दृढ	-11.7987
▁स्कोर	-11.7988
▁आयुर्विज्ञान	-11.7989
▁उत्प्रेरक	-11.7989
▁न्यायात्रय	-11.7989
▁गोविन्द	-11.7989
▁टिकाऊ	-11.7989
▁गुस्सा	-11.7989
▁निरक्षर	-11.7989
▁शिमला	-11.7989
▁अलंकृत	-11.7989
▁प्रिंस	-11.7989
▁चंचल	-11.799
▁परिकलित	-11.7991
▁रविवार	-11.7991
▁मलाशय	-11.7992
▁अभिवृद्धि	-11.7993
▁पागलपन	-11.8
▁झोंक	-11.802
पाणि	-11.8024
शून्य	-11.8042
▁चाहूंगी	-11.8051
▁जेरूसलम	-11.8051
▁प्रबुद्ध	-11.8051
▁स्क्रॉल	-11.8051
▁अनोखी	-11.8051
▁केंद्रशास	-11.8051
▁मुयमंत्र	-11.8052
▁गर्भगृह	-11.8052
log	-11.8052
▁महारानी	-11.8055
▁फिलिप	-11.8059
▁बिंब	-11.8062
विवेक	-11.8079
▁प्रस्तु	-11.8091
▁तपस्या	-11.8114
▁मॉनिटर	-11.8114
▁इंग़्लै	-11.8114
▁बैंकनोट	-11.8114
▁चरितार्थ	-11.8114
▁नगण्य	-11.8114
▁दूरबीन	-11.8115
पार्श्व	-11.8115
▁दखल	-11.8115
▁स्वरयंत्र	-11.8115
▁बरबाद	-11.8117
▁पाठशाला	-11.8119
▁परिभान	-11.812
▁रिलीज	-11.8133
▁पोलियो	-11.8148
▁सत्कार	-11.8157
▁अपवर्जित	-11.8177
▁सम्पादन	-11.8177
▁अलंकरण	-11.8177
▁शहीद	-11.8178
▁जुलूस	-11.8178
▁विनिश्चित	-11.8181
▁संशय	-11.8181
▁उष्ण	-11.8183
▁किनारा	-11.8184
▁आसाम	-11.8205
कार्बनिक	-11.824
▁चाइल्ड	-11.8241
▁उपनिषदों	-11.8241
▁समेकन	-11.8241
▁अजमेर	-11.8242
able	-11.8242
▁असहयोग	-11.8243
▁माइकल	-11.8243
▁बाईं	-11.8244
▁ख़ुद	-11.8244
▁प्रोसेसिंग	-11.8246
▁फ़ॉर	-11.825
▁धर्मनिरपेक्ष	-11.8305
▁फेडरेशन	-11.8305
▁तंबाकू	-11.8305
▁प्रियव्रत	-11.8305
▁प्रोद्भूत	-11.8305
▁बुराइयों	-11.8305
▁मनपसंद	-11.8305
▁मशहूर	-11.8305
▁सल्फर	-11.8305
▁जन्तु	-11.8305
शब्द	-11.8306
▁ट्रान्स	-11.8307
▁वृषण	-11.8308
▁लज्जा	-11.8309
▁प्रास्थिति	-11.8309
▁गोलाकार	-11.8314
ED	-11.8345
▁बृहत	-11.8353
ोलॉजी	-11.8368
▁उपमहाद्वीप	-11.837
▁कॉर्पोरेट	-11.837
▁जिन्होने	-11.837
▁दृष्टिगोचर	-11.837
▁गुस्से	-11.837
▁असफ़ल	-11.837
▁विलुप्त	-11.837
▁The	-11.837
▁मेन्यू	-11.837
▁शपथपत्र	-11.8372
▁वैश्वीकरण	-11.8372
▁ब्लॉग	-11.8374
▁बाजू	-11.8377
▁मास्को	-11.8382
▁स्ट्रे	-11.8387
▁जिम्मेवार	-11.8389
▁परामर्शदाता	-11.8394
दीप्ति	-11.8405
▁बृहद	-11.8435
▁ओडिशा	-11.8435
▁बिजनेस	-11.8435
▁स्थायित्व	-11.8435
▁पालतू	-11.8435
▁पैराग्राफ	-11.8435
▁उपादान	-11.8435
▁बेहोश	-11.8435
▁गद्दी	-11.8435
▁ध्वस्त	-11.8435
▁मूत्राशय	-11.8436
▁कारखाना	-11.8436
▁साइबर	-11.8438
▁पैलेस	-11.8438
▁घारा	-11.8443
▁हारान	-11.8449
▁ब्राउज़	-11.847
साहेब	-11.8472
रूपेण	-11.8472
▁फ़्ल	-11.8482
▁अंधविश्वास	-11.85
▁क़ुरान	-11.85
▁मथुरा	-11.85
▁अराजकता	-11.85
▁हेनरी	-11.85
▁सूडान	-11.85
▁ढाका	-11.8501
▁महोत्सव	-11.8501
▁बंगलादेश	-11.8501
port	-11.8503
▁बन्धक	-11.8505
▁चालान	-11.8508
▁प्रणाल	-11.851
▁तौल	-11.8515
ath	-11.8517
न्वित	-11.8541
▁सकूं	-11.8547
▁अमानवीय	-11.8566
▁एनालॉग	-11.8566
▁जस्टिस	-11.8566
▁डीवीडी	-11.8566
▁न्यूजीलैंड	-11.8566
▁पांडिच	-11.8566
▁मांसपेशी	-11.8566
▁फाइबर	-11.8566
▁परिशिष्ट	-11.8568
ऊँगा	-11.857
▁लिप्त	-11.8574
▁कूल्ह	-11.8584
वृक्ष	-11.8585
▁भूतकाल	-11.8595
▁शलभ	-11.8597
▁बर्खास्त	-11.8632
▁आधिपत्य	-11.8632
▁कॉर्पोरेशन	-11.8632
▁चयापचय	-11.8632
▁ज़िम्मेदार	-11.8632
▁छिड़काव	-11.8632
▁कंट्रोल	-11.8632
▁पक्षाघात	-11.8632
▁विवाद्यक	-11.8633
▁कस्टम	-11.8633
▁रेखाचित्र	-11.8634
▁दयालु	-11.8634
▁मनोविज्ञान	-11.8635
▁चमड़े	-11.8636
▁पुनर्वित्त	-11.8637
सामान्य	-11.8638
▁दलदल	-11.8641
▁स्टार्ट	-11.8649
स्पर्श	-11.8649
ज्जत	-11.868
▁इस्तीफा	-11.8699
▁जॉर्डन	-11.8699
▁द्योतक	-11.8699
▁बैरिस्टर	-11.8699
▁सिलसिला	-11.8699
▁संसाधित	-11.8699
▁निर्बाध	-11.8699
▁भरोसे	-11.8699
▁प्रत्याशित	-11.8699
▁सिकुड़	-11.8699
▁वानिकी	-11.8699
▁अतिशय	-11.8699
▁मनोनीत	-11.87
▁संग्रहीत	-11.87
परायण	-11.8704
छिन्न	-11.8717
पुच्छ	-11.8719
▁स्टीव	-11.8746
▁शीट	-11.8755
ोपाध्याय	-11.8766
▁उत्सर्जित	-11.8766
▁प्रकीर्ण	-11.8766
▁सिन्हा	-11.8766
▁गोखले	-11.8766
▁सम्मिलन	-11.8766
▁अनुपयुक्त	-11.8766
▁परात्पर	-11.8766
▁बतौर	-11.8766
▁पाण्डव	-11.8766
▁धड़कन	-11.8766
▁खातिर	-11.8766
▁तरक्की	-11.8767
▁अफवाह	-11.8768
▁कारागार	-11.8769
▁उद्यमशीलता	-11.8769
▁कर्सर	-11.877
▁मातृत्व	-11.877
▁ईराक	-11.8772
▁मसीह	-11.8772
▁परोपकार	-11.878
▁दुविधा	-11.8784
▁तीर्थयात्र	-11.8806
▁अत्याधुनिक	-11.8833
▁अफसोस	-11.8833
▁इंग्लैण्ड	-11.8833
▁डेमोक्रेट	-11.8833
ug	-11.8833
▁इरादे	-11.8833
▁अभिवचन	-11.8833
▁हकीकत	-11.8833
▁रबड़	-11.8833
▁क्रान्ति	-11.8833
▁सहनशीलता	-11.8835
▁फ्लैट	-11.8835
परिभाषित	-11.8856
▁तम्बाकू	-11.8901
▁कलकत्ते	-11.8901
▁मेधावी	-11.8901
▁क्रॉस	-11.8901
▁मैनुअल	-11.8901
▁किंगडम	-11.8901
▁बाधक	-11.8902
▁हिचक	-11.8906
▁पर्दे	-11.8908
दयाल	-11.8957
▁गवर्नमेंट	-11.897
▁चिट्ठी	-11.897
▁दुर्योधन	-11.897
▁दुर्व्यवहार	-11.897
▁विवादास्पद	-11.897
▁उपदर्शित	-11.897
▁पुजारी	-11.897
▁जबर्दस्त	-11.897
▁कर्मकांड	-11.897
द्रष्टा	-11.897
▁पहेली	-11.897
▁हवेली	-11.897
▁उन्माद	-11.897
▁स्टार्टअप	-11.897
▁मुजरा	-11.897
▁प्लेटफार्म	-11.897
▁मुहावर	-11.897
▁भाजक	-11.8971
▁मार्शल	-11.8971
▁हितलाभ	-11.8972
▁चूँक	-11.8973
▁एकमेव	-11.8975
शोष	-11.8997
▁अविश्वसनीय	-11.9039
▁उपनिषद्	-11.9039
▁ओड़िसा	-11.9039
▁कंप्यूटिंग	-11.9039
▁पाउडर	-11.9039
▁वेशभूषा	-11.9039
▁गणमान्य	-11.9039
▁हज़रत	-11.9039
ोपरांत	-11.9039
▁जादुई	-11.9039
▁डायरेक्ट	-11.9039
▁क्षितिज	-11.9039
▁ग्राह्य	-11.9039
▁गूंज	-11.9039
▁पसीना	-11.9039
▁पेयजल	-11.904
▁निश्चल	-11.904
▁अन्तरात्मा	-11.904
▁जहरील	-11.904
▁परिसंपत्तियां	-11.9042
▁फैशन	-11.9051
▁विभूति	-11.9088
▁उद्देशिका	-11.9108
▁दशरथ	-11.9108
▁न्यायाधिकरण	-11.9108
▁भर्त्सना	-11.9108
▁विध्वंस	-11.9108
▁हस्तांतरित	-11.9108
▁निराश्रित	-11.9108
▁बगीचे	-11.9108
▁इलैक्ट्रानिक	-11.9108
▁पार्वती	-11.9108
▁उखाड़	-11.9108
▁आयताकार	-11.9109
▁गन्ने	-11.9109
▁बूढ़ा	-11.9109
▁शंकराचार्य	-11.9109
▁फॉन्ट	-11.9109
जिसपर	-11.9124
निर्धारित	-11.914
प्रतिस्पर्धात्मक	-11.9159
▁अभ्यावेदन	-11.9178
▁कैल्शियम	-11.9178
▁पिक्सेल	-11.9178
▁महत्वाकांक्षी	-11.9178
▁वर्चुअल	-11.9178
▁आमंत्रण	-11.9178
▁मुमकिन	-11.9178
▁ईसाइयों	-11.9178
▁धरातल	-11.9178
▁फाइनल	-11.9178
▁प्रांगण	-11.9178
▁ओजोन	-11.9178
▁कालिदास	-11.9178
▁बक्से	-11.9178
link	-11.9178
▁बुनकर	-11.9179
▁चतुष्	-11.9179
▁ब्लेयर	-11.9179
▁जघन	-11.918
“	-11.9215
▁रजिस्ट्री	-11.9247
▁हाइड्रो	-11.9247
▁इन्टरनेट	-11.9249
▁काउंटी	-11.9249
▁बेवकूफ	-11.9249
▁समसामयिक	-11.9249
▁हस्पताल	-11.9249
▁संवीक्षा	-11.9249
▁फ़िल्टर	-11.9249
▁चौबीस	-11.9249
▁मालदीव	-11.9249
▁बंधपत्र	-11.9249
▁स्टेडियम	-11.9249
▁लालटेन	-11.9249
▁जठर	-11.925
▁III	-11.925
▁सूत्रपात	-11.9251
▁कागजात	-11.9254
▁सीढ़िय	-11.9257
▁परिकलन	-11.9274
ust	-11.9275
ace	-11.9302
▁थोरियम	-11.932
▁प्रशिक्षक	-11.932
▁शिकागो	-11.932
▁परिक्रमा	-11.932
▁अभिशाप	-11.932
▁फ़रीद	-11.932
▁झटके	-11.932
▁सादगी	-11.932
▁सरोकार	-11.932
▁तिलहन	-11.9321
▁वेदान्त	-11.9324
कल्चर	-11.9324
▁रीडर	-11.9324
लंघन	-11.9344
▁ऋणदाता	-11.9345
पयोगी	-11.9363
▁आक्रोश	-11.9391
▁ढाँचे	-11.9391
▁मॉरिशस	-11.9391
▁हार्मोन	-11.9391
▁डिब्बे	-11.9391
▁दरवाज़े	-11.9391
▁बलात्कार	-11.9391
▁अडिग	-11.9392
▁सीढ़ी	-11.9392
▁प्रकोप	-11.9392
▁भीष्म	-11.9392
▁अंतर्वस्तु	-11.9392
▁गेटवे	-11.9394
डऋए	-11.9435
▁यौवन	-11.9463
▁विक्टोरिया	-11.9463
▁सब्जियां	-11.9463
▁नक्काशी	-11.9463
▁विसंगति	-11.9463
▁साबुन	-11.9463
▁आईएसओ	-11.9463
▁गर्भधारण	-11.9464
▁मदिरा	-11.9464
▁तालीम	-11.9464
▁विद्यापीठ	-11.9464
▁शरियत	-11.9464
▁समाशोधन	-11.9465
▁मनीष	-11.9475
▁अंगुलि	-11.9492
▁गवर्नेंस	-11.9535
▁नवयुवक	-11.9535
▁क्षोभ	-11.9535
▁प्यूपा	-11.9535
▁मसालों	-11.9535
▁विपुल	-11.9536
▁चन्दु	-11.9536
▁स्वादिष्ट	-11.9536
▁पशुपालन	-11.9537
▁स्लाइड	-11.9537
▁टाउन	-11.9537
▁नरेन्द्र	-11.9539
▁भतीज	-11.9543
मिज़ाज	-11.9552
▁उत्खनन	-11.9608
▁इंजेक्शन	-11.9608
▁निःस्वार्थ	-11.9608
▁सल्तनत	-11.9608
▁आवागमन	-11.9608
▁डिब्बा	-11.9608
▁दीपावली	-11.9608
▁निरहता	-11.9608
▁लन्दन	-11.9608
ईजीपी	-11.9609
▁बिगाड़	-11.9609
▁विखंडन	-11.9609
▁नेहरु	-11.9609
▁ऐंठन	-11.9609
▁नौवहन	-11.961
▁लैटिन	-11.961
▁अनंतिम	-11.9611
▁हैल्थ	-11.9611
ानुभूति	-11.968
▁द्रौपदी	-11.9682
▁बीकानेर	-11.9682
▁अनूदित	-11.9682
▁परिकल्पित	-11.9682
▁निलंबन	-11.9682
▁अजनबी	-11.9682
▁पुतली	-11.9682
▁मेहमान	-11.9682
▁उपायुक्त	-11.9682
▁नदियाँ	-11.9682
▁ख़राब	-11.9682
▁अंगूठ	-11.9683
▁कीजिये	-11.9683
▁चौहान	-11.9683
▁आज्ञापक	-11.9684
▁मनोवृत्ति	-11.9684
▁अर्हक	-11.9703
विधाओं	-11.9715
▁इंसुलिन	-11.9756
▁ऑप्टिकल	-11.9756
▁क़ानून	-11.9756
▁संवितरण	-11.9756
▁संस्मरण	-11.9756
▁मक़्ख	-11.9756
▁संबन्धी	-11.9756
▁प्रतियोगी	-11.9756
▁मोतीलाल	-11.9756
▁शौर्य	-11.9756
▁क्षत्रिय	-11.9757
▁नालंदा	-11.9757
▁वज़न	-11.9757
▁बैंगन	-11.9758
▁रूढि	-11.9759
▁निर्धारक	-11.9777
ग्रन्थ	-11.9786
डऋई	-11.9816
▁नैदानिक	-11.9831
▁पुनर्जागरण	-11.9831
▁मधुमक्खी	-11.9831
▁रूकावट	-11.9831
▁सेंटीमीटर	-11.9831
▁प्रच्छन्न	-11.9831
▁अय्यर	-11.9831
▁हुक्म	-11.9831
▁पायलट	-11.9831
▁बॉम्बे	-11.9831
▁थोडी	-11.9831
▁बुकमार्क	-11.9831
संतृप्त	-11.9831
दंश	-11.9854
▁ठिकान	-11.9854
▁असंतुलन	-11.9906
▁कमोडिटी	-11.9906
▁कैलेंडर	-11.9906
▁तादात्म्य	-11.9906
▁राजकोषीय	-11.9906
▁सज्जित	-11.9906
▁फ़रवरी	-11.9906
▁फेफड़े	-11.9906
▁खुजली	-11.9906
▁पुथल	-11.9906
▁रमेश	-11.9906
▁दण्डादेश	-11.9907
▁द्वास	-11.9907
▁कांस्य	-11.9908
बन्दी	-11.9911
▁आईपीसी	-11.9926
▁अड्ड	-11.9932
▁key	-11.9982
▁अनभिज्ञ	-11.9982
▁गोदावरी	-11.9982
▁देहरादून	-11.9982
▁निरंकुश	-11.9982
▁यथोचित	-11.9982
▁बीबीसी	-11.9982
▁संगमरमर	-11.9982
▁स्टांप	-11.9982
स्फुट	-11.9982
▁नब्बे	-11.9982
▁कड़ियाँ	-11.9982
▁उष्म	-11.9983
▁श्रृंगार	-11.9983
▁फँस	-11.9983
▁इलेक्ट्रॉ	-12.0057
▁आनुषंगिक	-12.0058
▁एजेंसियां	-12.0058
▁कॉरपोरेट	-12.0058
▁टैरिफ	-12.0058
▁मुस्कुरा	-12.0058
▁अंतरफलक	-12.0058
▁शिक्षार्थियों	-12.0058
▁पीढी	-12.0058
▁नितांत	-12.0058
▁पुनर्जीवि	-12.0065
लहरी	-12.0072
▁स्वशास	-12.0101
▁जिम्मे	-12.011
▁कन्नड	-12.0132
▁खिड़किय	-12.0135
▁अन्तर्विष्ट	-12.0135
▁पुरःस्थापित	-12.0135
▁प्रफुल्ल	-12.0135
▁प्राक्कलन	-12.0135
▁कदाचित	-12.0135
▁सविनय	-12.0135
▁छद्म	-12.0135
▁बारंबार	-12.0135
▁तंबू	-12.0135
▁चक्रवात	-12.0135
▁ख़ुश	-12.0136
▁सिंहासन	-12.0137
▁नेटाल	-12.0138
▁ईसवी	-12.014
▁उंगलिय	-12.0143
▁शकुन	-12.0143
out	-12.0153
▁सुपुर्द	-12.021
▁परहेज	-12.021
▁अभिनंदन	-12.0212
▁ऋग्वेद	-12.0212
▁कुक्कुट	-12.0212
▁उत्तेजक	-12.0212
▁कुलाध्यक्ष	-12.0212
▁मुग़ल	-12.0212
▁कुवैत	-12.0212
▁नफरत	-12.0213
▁ज्वालामुखी	-12.0213
▁क्षयरोग	-12.0213
▁शरणार्थी	-12.0213
▁वज्र	-12.0214
▁एप्पल	-12.0216
▁प्याज	-12.0219
▁प्रेत	-12.0228
बीजाणु	-12.0282
▁श्रृंग	-12.0289
▁आगंतुक	-12.029
▁डेवलपमेंट	-12.029
▁मुट्ठी	-12.029
▁मूंगफली	-12.029
▁सॉल्वैंट	-12.029
▁मीयादी	-12.029
▁मसाले	-12.0291
▁स्टाम्प	-12.0291
पुराण	-12.0291
जिह्वा	-12.0291
बख्श	-12.0299
▁संकलक	-12.0312
गंगाधर	-12.0368
▁सिपाहिय	-12.0369
▁अंकगणितीय	-12.0369
▁अथारिटी	-12.0369
▁चिरस्थायी	-12.0369
▁टेक्नोलॉजी	-12.0369
▁बहरहाल	-12.0369
▁माइक्रोसॉफ्ट	-12.0369
▁नक्शे	-12.0369
▁बरकरार	-12.0369
▁मह्त्व	-12.0369
▁डाँट	-12.0369
▁हिचकिचा	-12.0369
▁अस्सी	-12.037
▁धकेल	-12.037
डब्यू	-12.037
▁परिपाटिय	-12.0372
▁तारीफ	-12.0384
▁ऑंकड	-12.0415
ाश्रय	-12.0426
▁अन्तर्निहित	-12.0449
▁अव्यवस्थित	-12.0449
▁औरंगज़ेब	-12.0449
▁दुष्प्रभाव	-12.0449
▁सप्लाई	-12.0449
▁प्रशासित	-12.0449
▁शनिवार	-12.0449
▁मिठाई	-12.0449
▁लम्बित	-12.0449
▁लड़कियां	-12.0449
▁स्वातंत्र्य	-12.0449
▁पठान	-12.0449
▁तब्दील	-12.045
▁जोसेफ	-12.0455
▁पूरब	-12.0458
▁विराट	-12.0519
▁यूट्यूब	-12.0529
▁असंतुष्ट	-12.0529
▁आत्मघाती	-12.0529
▁धारावाहिक	-12.0529
▁कोलंबिया	-12.0529
▁अध्यपेक्ष	-12.0529
▁कतई	-12.053
▁एडवोकेट	-12.0609
▁कारपोरेशन	-12.0609
▁गठबन्धन	-12.0609
_	-16.4139
[	-16.414
]	-16.4141
<	-16.4142
!	-16.4143
#	-16.4144
&	-16.4145
"	-16.4146
>	-16.4147
%	-16.4148
?	-16.4149
:	-16.415
'	-16.4151
(	-16.4152
)	-16.4153
-	-16.4154
.	-16.4155
,	-16.4156
/	-16.4157
।	-16.4157
