<unk>	0
<s>	0
</s>	0
UuRrLl	0
DdAaTtEe	0
NnUuMm	0
▁क	-0
▁स	-1
▁ह	-2
▁प	-3
▁म	-4
▁के	-5
या	-6
ार	-7
्र	-8
▁न	-9
▁अ	-10
▁है	-11
▁,	-12
ें	-13
▁ज	-14
▁।	-15
▁व	-16
र्	-17
▁द	-18
▁कि	-19
ता	-20
▁में	-21
ों	-22
▁उ	-23
▁ब	-24
▁ल	-25
्य	-26
▁को	-27
ने	-28
िक	-29
▁की	-30
▁र	-31
▁प्र	-32
▁औ	-33
▁ग	-34
▁और	-35
▁आ	-36
ित	-37
्त	-38
ान	-39
▁कर	-40
▁त	-41
▁से	-42
▁का	-43
▁इ	-44
▁भ	-45
िए	-46
▁ए	-47
ना	-48
्व	-49
▁पर	-50
▁य	-51
▁.	-52
▁थ	-53
िय	-54
ही	-55
▁सं	-56
▁इस	-57
▁वि	-58
▁लिए	-59
▁श	-60
्या	-61
▁जा	-62
्ष	-63
ाल	-64
▁हो	-65
▁एक	-66
▁किया	-67
वा	-68
▁-	-69
हीं	-70
ाम	-71
▁नि	-72
▁च	-73
▁नहीं	-74
ति	-75
▁या	-76
्ट	-77
▁यह	-78
ारा	-79
▁अप	-80
▁गया	-81
▁अन	-82
क्ष	-83
▁ने	-84
▁सम	-85
के	-86
क्त	-87
▁अध	-88
सी	-89
▁था	-90
▁हैं	-91
िया	-92
िस	-93
ेश	-94
▁करने	-95
्थ	-96
ले	-97
▁भी	-98
न्	-99
ला	-100
ती	-101
ाय	-102
▁द्व	-103
▁उस	-104
ते	-105
▁सा	-106
▁द्वारा	-107
▁ख	-108
रा	-109
▁)	-110
हा	-111
त्र	-112
▁(	-113
कार	-114
ड़	-115
नी	-116
री	-117
▁रा	-118
ूप	-119
िन	-120
ाद	-121
▁अनु	-122
▁कार	-123
▁जो	-124
िका	-125
गा	-126
्प	-127
▁सक	-128
ोग	-129
▁दे	-130
▁निर्	-131
कर्	-132
ियों	-133
▁रूप	-134
देश	-135
ां	-136
ष्ट	-137
ास	-138
▁न्या	-139
▁उप	-140
ाव	-141
ारी	-142
ंध	-143
ाह	-144
▁फ	-145
द्	-146
कर्ता	-147
्री	-148
ाप	-149
िल	-150
▁प्रति	-151
▁/	-152
ियम	-153
▁अधिक	-154
से	-155
बंध	-156
धार	-157
ंग	-158
ओं	-159
मा	-160
▁हु	-161
▁सु	-162
▁मु	-163
▁ले	-164
▁उन	-165
लय	-166
ील	-167
▁माम	-168
स्त	-169
▁न्याया	-170
रण	-171
सा	-172
का	-173
▁साथ	-174
रो	-175
▁याच	-176
▁ड	-177
▁पू	-178
न्ह	-179
▁दिया	-180
▁याचिका	-181
हत	-182
▁जिस	-183
▁किसी	-184
्च	-185
▁पह	-186
्म	-187
कि	-188
ाग	-189
त्त	-190
▁ध	-191
ोज	-192
▁'	-193
▁कोई	-194
▁हम	-195
▁व्य	-196
▁गई	-197
▁स्थ	-198
▁थी	-199
की	-200
्ल	-201
वाद	-202
▁वह	-203
▁घ	-204
▁स्व	-205
ंद	-206
▁ही	-207
▁राज	-208
▁गए	-209
▁उन्ह	-210
▁सकता	-211
▁तथ	-212
▁ट	-213
ंड	-214
▁कु	-215
िव	-216
ाना	-217
ृत	-218
▁न्यायालय	-219
▁अभ	-220
▁पु	-221
खा	-222
्ता	-223
▁आव	-224
▁तो	-225
▁सी	-226
▁विश	-227
क्ति	-228
वि	-229
▁ऐ	-230
स्थ	-231
▁वर्	-232
▁जाता	-233
ंच	-234
▁संबंध	-235
▁चाह	-236
▁अपने	-237
ात	-238
्यों	-239
▁तक	-240
ेद	-241
चार	-242
▁याचिकाकर्ता	-243
▁पी	-244
▁मामले	-245
ंत	-246
▁बाद	-247
▁अपील	-248
र्व	-249
ीन	-250
▁तहत	-251
▁कहा	-252
▁जब	-253
रे	-254
्क	-255
ंक	-256
▁थे	-257
द्ध	-258
▁दो	-259
▁वाल	-260
रह	-261
ूल	-262
धान	-263
▁भार	-264
दा	-265
ंब	-266
भी	-267
ुत	-268
▁0	-269
▁सि	-270
▁कार्य	-271
पी	-272
▁अव	-273
▁आप	-274
ून	-275
में	-276
▁आदेश	-277
▁रह	-278
दि	-279
▁छ	-280
जी	-281
िला	-282
र्ट	-283
▁वे	-284
योग	-285
च्च	-286
▁साम	-287
▁बना	-288
▁तरह	-289
▁किए	-290
कर	-291
गे	-292
▁क्ष	-293
िट	-294
▁अधिन	-295
▁अन्य	-296
▁:	-297
ोंने	-298
▁अधिनियम	-299
िप	-300
ुक्त	-301
▁चाहिए	-302
ब्	-303
▁सर	-304
▁हुए	-305
▁दी	-306
मान	-307
▁करना	-308
ाध	-309
ली	-310
्स	-311
ुर	-312
▁सह	-313
िर	-314
ाप्त	-315
सार	-316
ारे	-317
▁सू	-318
▁तथा	-319
ोट	-320
गी	-321
िश	-322
र्थ	-323
▁समय	-324
▁उन्होंने	-325
श्य	-326
वादी	-327
▁आरो	-328
ष्	-329
▁बी	-330
क्र	-331
▁उसके	-332
▁पहले	-333
लिए	-334
्रे	-335
ढ़	-336
▁कारण	-337
▁मान	-338
▁इसलिए	-339
ंत्र	-340
▁अधिकार	-341
▁कुछ	-342
▁करता	-343
▁राज्य	-344
▁होने	-345
▁सरकार	-346
▁जै	-347
नों	-348
▁जाए	-349
जा	-350
र्ण	-351
िति	-352
्ञ	-353
▁पार	-354
ेष	-355
▁करते	-356
▁उनके	-357
▁पा	-358
▁प्रतिवादी	-359
स्ता	-360
▁ला	-361
▁कम	-362
चित	-363
▁दू	-364
ेत्र	-365
िम	-366
▁मै	-367
▁इन	-368
▁आधार	-369
▁अभिय	-370
्न	-371
श्यक	-372
न्न	-373
▁कान	-374
ोक	-375
▁क्षेत्र	-376
िना	-377
▁पक्ष	-378
र्म	-379
▁रख	-380
▁आवश्यक	-381
▁नियम	-382
▁ओ	-383
▁मे	-384
भाव	-385
▁बह	-386
▁शिक	-387
▁भारत	-388
किन	-389
▁इसके	-390
ंबर	-391
▁व्यक्ति	-392
वल	-393
▁होता	-394
ंप	-395
▁सभी	-396
▁प्रद	-397
ीय	-398
▁लेकिन	-399
▁विचार	-400
ाज	-401
क्षा	-402
राध	-403
▁होगा	-404
ल्	-405
▁उत्त	-406
▁सब	-407
▁निर्ण	-408
▁श्री	-409
▁उत	-410
▁स्प	-411
्छ	-412
▁प्राप्त	-413
▁आय	-414
वाह	-415
▁निर्णय	-416
धि	-417
▁मृत	-418
▁केवल	-419
▁रहा	-420
▁अपनी	-421
▁जांच	-422
▁अस	-423
▁P	-424
▁अनुसार	-425
ेज	-426
▁विभ	-427
▁उक्त	-428
टी	-429
▁वाले	-430
▁;	-431
▁निय	-432
▁अद	-433
▁लगा	-434
▁यदि	-435
▁उसे	-436
ुल	-437
ौर	-438
ालत	-439
▁बै	-440
ाई	-441
शन	-442
च्छ	-443
▁चु	-444
र्त	-445
पू	-446
▁अंत	-447
▁विशेष	-448
▁दर्	-449
र्ड	-450
▁प्रकार	-451
दे	-452
ूम	-453
▁परि	-454
▁वर्ष	-455
▁जाना	-456
जन	-457
▁जी	-458
▁मूल	-459
▁अपीलकर्ता	-460
▁अल	-461
▁स्पष्ट	-462
▁पूर्व	-463
▁नंबर	-464
▁अदालत	-465
▁उन्हें	-466
▁दाय	-467
▁धारा	-468
▁उत्तर	-469
▁निर्धार	-470
▁प्रस्त	-471
▁अग	-472
िज	-473
▁क्यों	-474
्रा	-475
▁राष्ट	-476
चना	-477
द्य	-478
▁पै	-479
▁उच्च	-480
▁रहे	-481
▁आवेद	-482
▁मैं	-483
▁जाने	-484
माण	-485
कों	-486
हां	-487
ोजन	-488
ेक	-489
िख	-490
त्य	-491
ख्या	-492
▁जारी	-493
▁कानून	-494
▁प्रस्तुत	-495
िता	-496
▁दूस	-497
▁आगे	-498
करण	-499
स्ताव	-500
ेल	-501
रिक	-502
▁प्रश	-503
▁गु	-504
▁संप	-505
दार	-506
▁लाग	-507
▁S	-508
ज्ञ	-509
ंट	-510
ब्ल	-511
▁स्वी	-512
▁उत्प	-513
▁एस	-514
त्ति	-515
ोर्ट	-516
▁बात	-517
ष्ठ	-518
ादी	-519
▁संबंधित	-520
▁जान	-521
▁देने	-522
▁समझ	-523
▁सेवा	-524
ाइ	-525
धी	-526
▁व्या	-527
▁क्योंकि	-528
टना	-529
▁अपराध	-530
दर्	-531
▁ऐसे	-532
क्षण	-533
▁हाल	-534
▁विश्व	-535
▁बारे	-536
▁मौ	-537
▁बो	-538
▁जिसमें	-539
▁रु	-540
▁खिला	-541
िंग	-542
लों	-543
▁ट्र	-544
ांत	-545
ेट	-546
▁लिया	-547
ड़ी	-548
▁क्या	-549
▁पास	-550
▁हुआ	-551
▁कंप	-552
▁वै	-553
वन	-554
▁मह	-555
▁देख	-556
▁नाम	-557
ये	-558
▁काम	-559
▁बता	-560
▁खिलाफ	-561
ूत	-562
र्क	-563
ड़ा	-564
▁प्रदान	-565
▁स्थान	-566
▁न्याय	-567
▁बहुत	-568
डब्ल	-569
▁ओर	-570
▁आरोपी	-571
▁कोर्ट	-572
▁निर्धारित	-573
▁भूम	-574
▁लोग	-575
पूर्ण	-576
ुग	-577
▁पत्र	-578
न्द	-579
क्रिया	-580
▁क्र	-581
▁कह	-582
▁अलग	-583
▁ऐसा	-584
लिस	-585
जे	-586
▁लग	-587
ायत	-588
▁उसने	-589
स्ट	-590
▁आरोप	-591
ोर	-592
▁भाग	-593
▁गवाह	-594
▁नी	-595
▁अनुम	-596
▁करें	-597
▁प्रभाव	-598
ावधान	-599
त्म	-600
▁दु	-601
▁रिप	-602
▁ऊ	-603
ोष	-604
ाधिक	-605
▁लागू	-606
▁प्रावधान	-607
▁बीच	-608
ताओं	-609
▁सकती	-610
▁प्रक्रिया	-611
▁शाम	-612
ोजना	-613
▁जाती	-614
जू	-615
्यू	-616
▁रिपोर्ट	-617
ास्त	-618
▁स्वीकार	-619
▁साक्ष	-620
▁ठ	-621
▁मृतक	-622
ड़े	-623
्रीय	-624
आर	-625
ार्	-626
▁सकते	-627
▁होती	-628
▁सद	-629
वाही	-630
▁दायर	-631
▁अधिकारी	-632
▁पुलिस	-633
नि	-634
▁पीडब्ल	-635
▁रिक	-636
तीय	-637
ोध	-638
▁ता	-639
▁मिल	-640
्यान	-641
▁आवेदन	-642
▁मुख	-643
ग्र	-644
वी	-645
▁आर	-646
▁दर्ज	-647
ाध्य	-648
आई	-649
▁जहां	-650
नीय	-651
▁परिव	-652
भा	-653
▁वादी	-654
▁जन	-655
▁परिस	-656
ाँ	-657
▁उनकी	-658
▁ऑ	-659
▁बढ़	-660
▁अर्थ	-661
▁फिर	-662
म्	-663
▁स्ट	-664
▁हुई	-665
रों	-666
▁जाएगा	-667
▁उपयोग	-668
ूं	-669
▁शामिल	-670
दी	-671
श्च	-672
▁देश	-673
ची	-674
▁बे	-675
एं	-676
▁जैसा	-677
कारी	-678
▁सर्व	-679
▁ऐसी	-680
▁इसे	-681
▁निर्देश	-682
▁निक	-683
▁योग	-684
एस	-685
▁परी	-686
ानी	-687
▁राष्ट्र	-688
▁A	-689
शि	-690
ाने	-691
मे	-692
▁भारतीय	-693
ृति	-694
डी	-695
▁उद्	-696
▁बार	-697
तिक	-698
▁माना	-699
▁खु	-700
ंह	-701
▁शिकायत	-702
▁अभियोजन	-703
तर	-704
▁स्थिति	-705
▁दा	-706
तान	-707
▁पीडब्लू	-708
दर्भ	-709
▁व्यक्त	-710
▁दिन	-711
▁भूमि	-712
▁दोनों	-713
गत	-714
▁संदर्भ	-715
▁पद	-716
▁संख्या	-717
ंस	-718
▁उचित	-719
▁उसकी	-720
▁जि	-721
लेख	-722
▁घटना	-723
िस्ट	-724
▁N	-725
▁मां	-726
ब्द	-727
▁दौर	-728
▁हि	-729
▁ग्र	-730
▁कंपनी	-731
▁बिना	-732
▁उठ	-733
▁अब	-734
▁स्थाप	-735
▁पारित	-736
▁C	-737
▁करे	-738
ज़	-739
फल	-740
युक्त	-741
▁पर्	-742
▁फै	-743
िन्न	-744
▁ध्यान	-745
▁व्यव	-746
हित	-747
स्था	-748
वाई	-749
िकास	-750
्यालय	-751
ार्थ	-752
▁भुग	-753
▁आवश्यकता	-754
▁प्राधिक	-755
▁I	-756
ाया	-757
ाथ	-758
ुक	-759
ॉर्ड	-760
▁मन	-761
ालन	-762
▁विकास	-763
▁रिट	-764
▁दौरान	-765
▁शिक्ष	-766
ोल	-767
▁रखा	-768
कृत	-769
▁शुर	-770
▁मध	-771
िखा	-772
▁भुगतान	-773
▁वर्त	-774
▁विक	-775
ित्व	-776
▁दिना	-777
▁निष	-778
▁दिनांक	-779
▁ई	-780
द्योग	-781
▁दिए	-782
ाली	-783
▁अनुमति	-784
▁?	-785
▁वर्तमान	-786
मार	-787
▁कर्म	-788
िखित	-789
▁बया	-790
▁राशि	-791
▁सामान	-792
चे	-793
क्रम	-794
पर	-795
▁जिसे	-796
▁प्रत्य	-797
▁विवाद	-798
▁रिकॉर्ड	-799
▁सिद्ध	-800
▁साक्ष्य	-801
▁जिसके	-802
▁उत्पाद	-803
ांकि	-804
▁वास्त	-805
▁हालांकि	-806
▁उद्देश	-807
▁पूरी	-808
पति	-809
▁सदस	-810
▁लाभ	-811
ेड	-812
क्ट	-813
▁जैसे	-814
▁कार्यवाही	-815
▁अपना	-816
▁दृ	-817
▁कै	-818
▁अधीन	-819
▁सहाय	-820
▁सिंह	-821
शोध	-822
▁तै	-823
▁बाह	-824
बी	-825
▁पता	-826
▁महत	-827
▁तथ्य	-828
यन	-829
धीश	-830
▁माध्य	-831
्यता	-832
▁खंड	-833
कर्ष	-834
▁होना	-835
▁प्रव	-836
▁शक्ति	-837
को	-838
▁स्त	-839
ोड़	-840
▁शब्द	-841
▁मामलों	-842
▁आई	-843
▁जिन	-844
▁अभियुक्त	-845
▁रही	-846
स्व	-847
▁संपत्ति	-848
गर	-849
▁अवधि	-850
▁वास्तव	-851
▁उत्तरदा	-852
ल्ल	-853
ियां	-854
▁मामला	-855
▁पं	-856
▁नोट	-857
▁न्यायाधीश	-858
▁दस्ताव	-859
▁बैंक	-860
तन	-861
▁संशोध	-862
▁घर	-863
▁अं	-864
▁योजना	-865
णा	-866
▁पहु	-867
▁सुन	-868
प्त	-869
हार	-870
ायी	-871
ल्प	-872
▁कॉ	-873
र्ष	-874
▁मध्य	-875
▁वाली	-876
लब्	-877
▁जु	-878
▁हमारे	-879
▁सबूत	-880
▁पुन	-881
▁बु	-882
▁बन	-883
वाल	-884
▁सुप	-885
रोध	-886
▁माध्यम	-887
वं	-888
▁अला	-889
▁परिस्थ	-890
▁समक्ष	-891
▁लोगों	-892
ायल	-893
▁सो	-894
ar	-895
ूर	-896
धिक	-897
▁झ	-898
त्	-899
ष्टि	-900
चा	-901
जर	-902
▁तब	-903
▁उपलब्	-904
▁देखा	-905
▁प्रक	-906
▁अति	-907
ेशन	-908
ेय	-909
्ड	-910
ासन	-911
▁विभाग	-912
▁अंतर	-913
सर	-914
कद	-915
▁मा	-916
▁मज	-917
ग्री	-918
▁चल	-919
▁बयान	-920
▁परिण	-921
म्म	-922
▁दस्तावेज	-923
▁अलावा	-924
▁पुर	-925
▁राष्ट्रपति	-926
▁याचिकाकर्ताओं	-927
▁संस	-928
▁उद्देश्य	-929
▁तैया	-930
▁ये	-931
▁समान	-932
▁सुर	-933
▁सामान्य	-934
▁प्रयोग	-935
▁शुरू	-936
▁उपलब्ध	-937
विध	-938
▁मुख्य	-939
▁परिणाम	-940
्टी	-941
ंभ	-942
रूप	-943
तम	-944
▁संवि	-945
▁दूसरे	-946
▁डी	-947
▁PW	-948
▁उसी	-949
मी	-950
▁हों	-951
त्या	-952
बर	-953
▁माल	-954
▁दिखा	-955
▁होते	-956
पट	-957
▁मुझ	-958
▁एवं	-959
त्मक	-960
रि	-961
▁दावा	-962
▁यहां	-963
▁विव	-964
वार	-965
▁पर्या	-966
रित	-967
िक्री	-968
▁विभिन्न	-969
ितियों	-970
▁निम	-971
▁भीतर	-972
▁जीवन	-973
▁फैस	-974
▁मुकद	-975
▁कृ	-976
ंद्र	-977
▁तैयार	-978
▁महत्व	-979
्यु	-980
द्र	-981
▁सूचना	-982
▁वित	-983
▁करती	-984
णी	-985
▁तीन	-986
टर	-987
▁लोक	-988
▁व्याप	-989
▁शी	-990
षा	-991
▁बद	-992
▁अच्छ	-993
▁भा	-994
▁वक	-995
▁निर्माण	-996
गम	-997
an	-998
▁प्रमाण	-999
▁सके	-1000
▁सार	-1001
▁%	-1002
▁खार	-1003
▁व्यक्तियों	-1004
▁उल्	-1005
काश	-1006
▁गल	-1007
▁तरी	-1008
▁सिद्धांत	-1009
▁खारिज	-1010
हरा	-1011
तिम	-1012
िये	-1013
▁मुझे	-1014
तु	-1015
▁अनुप	-1016
्सा	-1017
▁समाप्त	-1018
भव	-1019
▁मो	-1020
▁स्थापित	-1021
▁अगर	-1022
▁पहुंच	-1023
▁तारी	-1024
▁D	-1025
ग्रह	-1026
जूद	-1027
▁हिस	-1028
दान	-1029
▁विष	-1030
▁तारीख	-1031
क्षित	-1032
ामी	-1033
ज्ञान	-1034
▁समझौ	-1035
▁गै	-1036
मु	-1037
▁निम्न	-1038
▁अनुस	-1039
स्	-1040
▁उल्लेख	-1041
तंत्र	-1042
ुद्ध	-1043
▁घोष	-1044
वास	-1045
▁जिला	-1046
▁सामग्री	-1047
▁ढ	-1048
▁कई	-1049
▁होगी	-1050
▁प्रस्ताव	-1051
द्द	-1052
ोजित	-1053
▁R	-1054
▁सर्वो	-1055
▁संविधान	-1056
▁विध	-1057
▁ज्ञ	-1058
ेप	-1059
▁मांग	-1060
ाक	-1061
▁सीमा	-1062
▁विन	-1063
▁तर्क	-1064
मिक	-1065
▁एन	-1066
▁उल्ल	-1067
▁प्रत्येक	-1068
ौती	-1069
टा	-1070
बित	-1071
▁राम	-1072
▁लेने	-1073
▁करके	-1074
शा	-1075
▁पूरा	-1076
▁निपट	-1077
▁बच	-1078
ेम	-1079
स्थान	-1080
▁वस्त	-1081
▁M	-1082
▁साल	-1083
▁स्क	-1084
▁विषय	-1085
▁गो	-1086
▁सीखा	-1087
▁बच्च	-1088
भग	-1089
▁निष्	-1090
▁बताया	-1091
द्दे	-1092
▁कथ	-1093
ूनी	-1094
▁रुप	-1095
▁सबसे	-1096
▁साबित	-1097
▁तथ्यों	-1098
ेदार	-1099
त्रा	-1100
▁चुन	-1101
फ़	-1102
▁चि	-1103
▁बाहर	-1104
▁समिति	-1105
▁निष्कर्ष	-1106
श्व	-1107
▁एम	-1108
▁तत	-1109
▁लगभग	-1110
व्य	-1111
▁अतिरिक	-1112
▁दर	-1113
▁प्रावधानों	-1114
▁रखने	-1115
▁तु	-1116
▁कभी	-1117
▁निष्प	-1118
▁वी	-1119
▁अंतिम	-1120
▁बनाम	-1121
मत	-1122
▁समर्थ	-1123
दन	-1124
▁शिक्षा	-1125
राधिक	-1126
▁परिस्थितियों	-1127
▁पृ	-1128
▁दोष	-1129
▁करेगा	-1130
▁उपरो	-1131
▁वकील	-1132
ुट	-1133
ाला	-1134
▁उपरोक्त	-1135
वान	-1136
▁No	-1137
▁वाप	-1138
र्स	-1139
▁अतिरिक्त	-1140
ीद	-1141
निक	-1142
▁सही	-1143
क्षम	-1144
▁इसका	-1145
▁चला	-1146
▁पूर्ण	-1147
▁s	-1148
▁उसका	-1149
तः	-1150
▁मृत्यु	-1151
▁जिन्ह	-1152
▁हमें	-1153
साय	-1154
▁पाया	-1155
ुक्ति	-1156
▁मार	-1157
▁कब्	-1158
▁हर	-1159
▁बि	-1160
न्त	-1161
▁पर्याप्त	-1162
▁नियमों	-1163
▁सम्म	-1164
▁कार्र	-1165
शी	-1166
▁जाते	-1167
त्ता	-1168
▁प्रबंध	-1169
▁उत्तरदाताओं	-1170
▁सौ	-1171
▁नोटिस	-1172
पुर	-1173
▁बनाया	-1174
▁संशोधन	-1175
र्ति	-1176
▁शर्त	-1177
▁सर्वोच्च	-1178
▁आदि	-1179
▁B	-1180
▁प्रवेश	-1181
▁आया	-1182
िब	-1183
▁दिल	-1184
हर	-1185
▁डॉ	-1186
▁सूची	-1187
▁विस्त	-1188
▁सार्व	-1189
▁ऋ	-1190
▁प्रा	-1191
▁कार्रवाई	-1192
द्योगिक	-1193
हन	-1194
र्ती	-1195
▁ली	-1196
▁दंड	-1197
▁हस्ता	-1198
▁ऊपर	-1199
िष्ट	-1200
द्यालय	-1201
▁सामने	-1202
▁प्रश्न	-1203
▁अनुबंध	-1204
▁छोड़	-1205
ुसार	-1206
▁राय	-1207
▁गलत	-1208
▁न्यायिक	-1209
ेंस	-1210
▁हूं	-1211
▁ट्रायल	-1212
▁अथ	-1213
▁प्रदर्	-1214
▁E	-1215
मित	-1216
▁स्वतंत्र	-1217
ीस	-1218
▁उपस्थ	-1219
▁पढ़	-1220
ेंट	-1221
वर	-1222
▁विप	-1223
▁राष्ट्रीय	-1224
▁देता	-1225
▁मूल्य	-1226
यं	-1227
▁मत	-1228
▁उनका	-1229
्यून	-1230
▁चोट	-1231
▁तय	-1232
ंघ	-1233
▁पंजी	-1234
▁आज	-1235
▁नीचे	-1236
▁माननीय	-1237
▁सहायता	-1238
▁प्रकृति	-1239
▁धार	-1240
▁कुमार	-1241
▁परीक्षा	-1242
▁चार	-1243
▁वा	-1244
▁ब्र	-1245
▁प्रो	-1246
▁अधिकारियों	-1247
▁अंग	-1248
▁पैरा	-1249
▁अवसर	-1250
▁तरीके	-1251
▁सजा	-1252
इट	-1253
▁कानूनी	-1254
▁वस्तु	-1255
▁महत्वपूर्ण	-1256
▁गैर	-1257
फी	-1258
▁पेश	-1259
▁पिता	-1260
▁अध्य	-1261
▁संघ	-1262
▁एफ	-1263
▁लगाया	-1264
ापन	-1265
▁एक्स	-1266
▁वाला	-1267
▁दाव	-1268
जनिक	-1269
▁रो	-1270
▁i	-1271
▁मध्यस्थ	-1272
चान	-1273
▁सार्वजनिक	-1274
▁ना	-1275
▁लंब	-1276
▁प्राधिकरण	-1277
▁बनाने	-1278
▁संस्थान	-1279
मुख	-1280
▁प्रकाश	-1281
ाइल	-1282
▁श्र	-1283
क्षेप	-1284
▁बनाए	-1285
▁बिक्री	-1286
पाल	-1287
▁नियुक्ति	-1288
▁रोक	-1289
▁नियंत्र	-1290
▁बोर्ड	-1291
ूट	-1292
ंज	-1293
▁स्तर	-1294
▁बैठ	-1295
▁वृ	-1296
एल	-1297
▁छोट	-1298
▁बल्	-1299
▁सूट	-1300
▁उद	-1301
▁पि	-1302
▁प्रण	-1303
ठन	-1304
ीकरण	-1305
▁मंत्र	-1306
▁पश्च	-1307
▁वित्त	-1308
▁प्रया	-1309
था	-1310
▁सक्षम	-1311
▁स्वयं	-1312
▁जर	-1313
▁नाग	-1314
▁गवाहों	-1315
▁जबकि	-1316
▁आयोजित	-1317
षण	-1318
▁जमा	-1319
्ली	-1320
▁परीक्षण	-1321
▁विधि	-1322
▁अथवा	-1323
▁वापस	-1324
▁शीर्ष	-1325
▁इसमें	-1326
▁फैसले	-1327
▁प्रार	-1328
नाव	-1329
▁गिर	-1330
▁वरि	-1331
▁बा	-1332
▁“	-1333
▁इसी	-1334
▁प्रस	-1335
▁प्रयास	-1336
▁सरकारी	-1337
▁वरिष्ठ	-1338
प्र	-1339
▁आयोग	-1340
▁लेख	-1341
यी	-1342
▁श्रे	-1343
धन	-1344
▁समर्थन	-1345
▁महा	-1346
▁परिवार	-1347
▁आम	-1348
▁सवाल	-1349
्वी	-1350
▁संर	-1351
▁आपराधिक	-1352
र्तन	-1353
सान	-1354
▁खा	-1355
▁कल	-1356
ालय	-1357
▁हाथ	-1358
क्	-1359
ूह	-1360
at	-1361
भर	-1362
▁विशिष्ट	-1363
▁फ़	-1364
▁गां	-1365
ित्र	-1366
▁गं	-1367
▁नियुक्त	-1368
▁जानकारी	-1369
▁चिक	-1370
▁संग	-1371
▁दूसरी	-1372
▁सदस्य	-1373
एम	-1374
ंकन	-1375
▁चुनौती	-1376
▁बर	-1377
▁खोज	-1378
विद्यालय	-1379
▁हे	-1380
▁निर	-1381
▁नीति	-1382
▁सुप्रा	-1383
ंगिक	-1384
▁निदेश	-1385
ात्	-1386
द्धि	-1387
ोन	-1388
▁दुर्	-1389
▁केंद्र	-1390
▁दूर	-1391
▁निष्पाद	-1392
▁समाज	-1393
▁उम्म	-1394
पीसी	-1395
▁देना	-1396
▁यू	-1397
▁बल्कि	-1398
िश्च	-1399
▁उल्लंघ	-1400
▁निहित	-1401
न्द्र	-1402
▁सच	-1403
▁देते	-1404
बल	-1405
दिष्ट	-1406
▁विफल	-1407
▁उम्मीद	-1408
▁टी	-1409
बद्ध	-1410
▁उल्लंघन	-1411
▁ऑफ	-1412
▁प्रती	-1413
▁कार्यालय	-1414
▁ताकि	-1415
्यांकन	-1416
▁संदे	-1417
▁पड़	-1418
▁बंद	-1419
स्कार	-1420
▁भाषा	-1421
▁मही	-1422
▁संच	-1423
▁उत्पादन	-1424
▁प्रमुख	-1425
ंश	-1426
चारी	-1427
▁कुल	-1428
्रेट	-1429
▁खरी	-1430
क्स	-1431
▁प्रतिनि	-1432
▁वेतन	-1433
्ले	-1434
▁गति	-1435
▁पालन	-1436
▁विश्वविद्यालय	-1437
▁अधि	-1438
▁पहली	-1439
▁दल	-1440
ण्ड	-1441
▁इससे	-1442
▁SC	-1443
▁चिकित	-1444
▁पां	-1445
▁गुण	-1446
▁पुरस्कार	-1447
ासंगिक	-1448
▁पृष्ठ	-1449
▁विश्वास	-1450
▁अर्	-1451
ेन	-1452
▁विद	-1453
सत	-1454
▁योग्य	-1455
▁जल	-1456
▁अधिस	-1457
▁&	-1458
▁ऋण	-1459
▁पहचान	-1460
▁संह	-1461
▁वर्ग	-1462
बा	-1463
धानिक	-1464
दाय	-1465
▁संभाव	-1466
▁संहिता	-1467
▁सुरक्षा	-1468
▁विवरण	-1469
▁पो	-1470
▁लाइ	-1471
▁मि	-1472
▁लिम	-1473
च्छेद	-1474
▁संस्क	-1475
ुष	-1476
ंतु	-1477
▁डि	-1478
▁W	-1479
ेंगे	-1480
▁अधिसू	-1481
▁प्रय	-1482
हाँ	-1483
▁पंच	-1484
थम	-1485
▁निश्च	-1486
▁नई	-1487
क्टर	-1488
▁ची	-1489
वरी	-1490
ॉल	-1491
▁चौ	-1492
▁बिल	-1493
ुप	-1494
▁पूछ	-1495
▁अप्र	-1496
▁हक	-1497
▁पिछ	-1498
▁अस्प	-1499
▁मूल्यांकन	-1500
ुल्क	-1501
▁स्कूल	-1502
▁शिकायतकर्ता	-1503
▁त्र	-1504
▁भाव	-1505
▁समझौते	-1506
ार्थी	-1507
▁कर्मचारी	-1508
▁जम	-1509
स्प	-1510
▁लिख	-1511
▁अपीलकर्ताओं	-1512
▁चर्	-1513
▁पीड़	-1514
तना	-1515
▁प्रशासन	-1516
is	-1517
टक	-1518
▁सुविध	-1519
▁संदेह	-1520
▁वहां	-1521
▁लिमिट	-1522
▁सिव	-1523
रीत	-1524
▁K	-1525
▁दिश	-1526
▁प्रासंगिक	-1527
▁थीं	-1528
▁कब्जे	-1529
िवार	-1530
▁इसकी	-1531
▁एससी	-1532
▁विपरीत	-1533
▁सदस्यों	-1534
▁O	-1535
रल	-1536
▁चे	-1537
▁मौजूद	-1538
▁लिमिटेड	-1539
▁संक	-1540
▁जिससे	-1541
▁निगम	-1542
▁व्यापार	-1543
▁रे	-1544
▁सिविल	-1545
ास्थ	-1546
▁मानव	-1547
▁चयन	-1548
▁संयुक्त	-1549
▁o	-1550
▁प्राथ	-1551
▁हित	-1552
▁प्राथमिक	-1553
▁हस्ताक्ष	-1554
▁समु	-1555
▁योग्यता	-1556
िस्ट्रेट	-1557
▁गण	-1558
▁जग	-1559
ीक	-1560
▁कठ	-1561
▁धन	-1562
वे	-1563
ूर्ति	-1564
▁जवा	-1565
▁दृष्ट	-1566
▁पहल	-1567
▁वार	-1568
ंख	-1569
▁विदेश	-1570
▁मं	-1571
▁हस्त	-1572
लिखित	-1573
▁ज्ञान	-1574
▁उत्पन्न	-1575
▁अंतर्	-1576
▁मेरे	-1577
▁प्रभावित	-1578
▁धर्म	-1579
ार्ग	-1580
▁उठा	-1581
▁मजिस्ट्रेट	-1582
ेयर	-1583
▁भर	-1584
ोस	-1585
भीर	-1586
▁कमी	-1587
िश्चित	-1588
ट्ट	-1589
▁कृष	-1590
▁उद्योग	-1591
▁प्रथम	-1592
▁शरी	-1593
▁रद्द	-1594
▁भेज	-1595
▁शुल्क	-1596
▁संव	-1597
ूँ	-1598
▁जिसका	-1599
▁लगाए	-1600
▁बजे	-1601
▁दिल्ली	-1602
मता	-1603
▁जनता	-1604
▁हमारी	-1605
▁प्रदेश	-1606
▁निर्धारण	-1607
▁सीख	-1608
▁इनकार	-1609
▁Ex	-1610
ँच	-1611
▁महिला	-1612
▁ठहरा	-1613
▁दोषी	-1614
▁रज	-1615
▁हल	-1616
▁लिये	-1617
▁हकदार	-1618
ूंकि	-1619
▁सुविधा	-1620
▁कथित	-1621
▁चूंकि	-1622
▁कोश	-1623
▁अम	-1624
▁समूह	-1625
म्ब	-1626
▁नागरिक	-1627
शत	-1628
्ला	-1629
▁सुधार	-1630
न्म	-1631
▁महीने	-1632
▁मी	-1633
कान	-1634
▁मुकदमे	-1635
▁बाज	-1636
▁होंगे	-1637
▁आध	-1638
▁निम्नलिखित	-1639
▁खुद	-1640
▁प्रारंभ	-1641
▁आर्थ	-1642
▁रुपये	-1643
▁चुनाव	-1644
्रो	-1645
▁ठीक	-1646
▁भरो	-1647
▁घोषणा	-1648
▁अनुसू	-1649
धारण	-1650
▁शै	-1651
▁काफी	-1652
▁चर्चा	-1653
▁मद	-1654
▁आने	-1655
्काल	-1656
▁सहित	-1657
▁बदल	-1658
▁शरीर	-1659
▁अनुच्छेद	-1660
▁पार्टी	-1661
क्ता	-1662
्यास	-1663
▁बल	-1664
▁ज़	-1665
▁गंभीर	-1666
▁पाठ	-1667
▁उपाय	-1668
▁वास्तविक	-1669
▁पार्ट	-1670
▁लिखित	-1671
त्नी	-1672
▁निव	-1673
▁ट्रिब	-1674
▁विस्तार	-1675
▁आर्थिक	-1676
्रीम	-1677
▁ट्रिब्यून	-1678
▁जवाब	-1679
ंदर	-1680
▁अभी	-1681
▁निर्भर	-1682
▁जाएगी	-1683
▁पत्नी	-1684
मेंट	-1685
▁नए	-1686
▁शब्दों	-1687
▁अच्छी	-1688
▁अपे	-1689
▁रखते	-1690
▁लड़	-1691
▁प्रतिशत	-1692
▁मालिक	-1693
▁एच	-1694
निया	-1695
▁ट्रिब्यूनल	-1696
▁अने	-1697
▁स्थित	-1698
▁क्षेत्रों	-1699
तों	-1700
▁कर्मचार	-1701
▁अपीलार्थी	-1702
▁परिय	-1703
▁मिला	-1704
ताल	-1705
▁सहायक	-1706
▁परियोजना	-1707
▁तौर	-1708
▁कार्यक्रम	-1709
▁प्राधिकारी	-1710
▁वर्षों	-1711
▁सफल	-1712
▁>	-1713
गार	-1714
▁कर्मचारियों	-1715
▁प्रे	-1716
ोड	-1717
▁"	-1718
▁खुला	-1719
ियन	-1720
▁भवन	-1721
▁आधारित	-1722
▁प्रभ	-1723
▁संभव	-1724
ाजिक	-1725
▁मुकदमा	-1726
▁बड़ी	-1727
काल	-1728
▁वाह	-1729
▁पूर्वो	-1730
▁व्याख्या	-1731
▁क्ल	-1732
▁आक	-1733
▁दिनों	-1734
▁अवै	-1735
▁मद्दे	-1736
▁हस्ताक्षर	-1737
▁कृषि	-1738
्से	-1739
र्य	-1740
▁निश्चित	-1741
ाँकि	-1742
▁हालाँकि	-1743
▁सामाजिक	-1744
ाहरण	-1745
्रम	-1746
▁प्रबंधन	-1747
▁मैंने	-1748
धारा	-1749
▁व्यवस्था	-1750
▁मद्देन	-1751
▁शर्तों	-1752
▁हिंद	-1753
▁नियमित	-1754
▁वैध	-1755
▁निर्दिष्ट	-1756
▁डाल	-1757
▁स्टेशन	-1758
▁a	-1759
▁तीस	-1760
▁अभि	-1761
्ब	-1762
िवक्ता	-1763
▁भरोसा	-1764
▁प्रतिक	-1765
▁कर्त	-1766
▁उदाहरण	-1767
▁सबूतों	-1768
▁मद्देनजर	-1769
▁इंड	-1770
सल	-1771
स्या	-1772
ri	-1773
▁ति	-1774
▁विर	-1775
▁लगाने	-1776
▁क्षमता	-1777
स्वरूप	-1778
▁अवैध	-1779
▁प्रौ	-1780
on	-1781
▁गर्	-1782
▁आश	-1783
▁उपबंध	-1784
्रेड	-1785
▁निजी	-1786
ूक	-1787
ष्ण	-1788
फ्त	-1789
र्न	-1790
▁दस्तावेजों	-1791
▁हस्तक्षेप	-1792
▁भे	-1793
▁गये	-1794
▁जब्त	-1795
▁एल	-1796
▁वर्ण	-1797
▁जमीन	-1798
▁नियंत्रण	-1799
िको	-1800
▁पे	-1801
▁नगर	-1802
▁अधिसूचना	-1803
▁अनेक	-1804
▁जे	-1805
▁श्रेणी	-1806
राज	-1807
▁ब्या	-1808
चल	-1809
▁क्रम	-1810
शील	-1811
▁राहत	-1812
▁विरोध	-1813
इन	-1814
▁अनिवार	-1815
▁प्रणाली	-1816
▁उम्मीदवार	-1817
▁पति	-1818
▁रहने	-1819
▁रजिस्ट	-1820
ुओं	-1821
▁दिशा	-1822
पन	-1823
पत्र	-1824
▁प्रतिनिध	-1825
▁रोग	-1826
▁स्	-1827
▁शक्त	-1828
▁प्रदर्शन	-1829
▁आत्म	-1830
▁निदेशक	-1831
वासी	-1832
चन	-1833
▁करेंगे	-1834
▁वित्तीय	-1835
ंडल	-1836
आईआर	-1837
▁सुनवाई	-1838
▁पीछ	-1839
▁पीड़ित	-1840
▁समस्या	-1841
▁न्यायालयों	-1842
र्श	-1843
▁अनुरोध	-1844
▁कट	-1845
ोक्ता	-1846
▁पूर्वोक्त	-1847
▁सुना	-1848
▁सुनिश्चित	-1849
▁आपको	-1850
हास	-1851
ST	-1852
▁बड़े	-1853
▁अनिवार्य	-1854
▁सुप्रीम	-1855
▁ब्याज	-1856
▁बाल	-1857
▁बाव	-1858
▁आस	-1859
▁सै	-1860
डर	-1861
न्तु	-1862
▁तदन	-1863
▁प्रार्थ	-1864
▁नव	-1865
क्षक	-1866
▁प्रार्थना	-1867
ग्न	-1868
ंटर	-1869
▁समी	-1870
ियर	-1871
▁पूरे	-1872
en	-1873
▁स्थापना	-1874
▁इरा	-1875
्याय	-1876
▁समा	-1877
▁आवेदक	-1878
▁विनियम	-1879
▁बें	-1880
▁रंग	-1881
▁जिसने	-1882
▁हिस्सा	-1883
▁पुष्टि	-1884
राब	-1885
▁अग्र	-1886
ियो	-1887
▁आन	-1888
▁छा	-1889
फार	-1890
िक्ष	-1891
▁स्वास्थ	-1892
al	-1893
▁जानी	-1894
▁तदनुसार	-1895
▁प्रौद्योगिक	-1896
▁बाजार	-1897
▁संस्था	-1898
दम	-1899
▁कहते	-1900
▁सुझ	-1901
▁चिकित्सा	-1902
er	-1903
▁मंजू	-1904
ंजी	-1905
▁वस	-1906
▁याद	-1907
▁परिभा	-1908
ur	-1909
▁इस्त	-1910
▁उससे	-1911
▁लेन	-1912
ांक	-1913
▁कौ	-1914
▁हत्या	-1915
▁आयुक्त	-1916
लेज	-1917
▁संभावना	-1918
▁पुस्त	-1919
▁एज	-1920
▁तुल	-1921
▁स्वास्थ्य	-1922
▁लक्ष	-1923
▁हमने	-1924
▁कारणों	-1925
एँ	-1926
▁पें	-1927
१०	-1928
▁परिवर्तन	-1929
्वान	-1930
▁बावजूद	-1931
▁पार्टियों	-1932
लाह	-1933
श्म	-1934
्मिक	-1935
▁उत्तरदाता	-1936
▁किस	-1937
▁प्रतीत	-1938
▁जिन्हें	-1939
▁तकनी	-1940
▁हिस्से	-1941
▁सीमित	-1942
▁निर्धारिती	-1943
िकोण	-1944
▁देखते	-1945
▁अत्य	-1946
▁अपीलीय	-1947
es	-1948
▁दक्ष	-1949
▁यहाँ	-1950
मति	-1951
ैंड	-1952
▁अधिवक्ता	-1953
▁‘	-1954
िव्य	-1955
वादियों	-1956
▁जगह	-1957
▁तर	-1958
▁V	-1959
थि	-1960
▁G	-1961
▁आयु	-1962
▁अधिकारों	-1963
तिहास	-1964
▁पैदा	-1965
▁चलता	-1966
▁बस	-1967
▁मंद	-1968
▁क़	-1969
▁लाख	-1970
्यिक	-1971
▁अन्त	-1972
▁हेतु	-1973
▁इच्छ	-1974
▁लाल	-1975
सित	-1976
▁नं	-1977
िम्म	-1978
▁संसद	-1979
प्ता	-1980
▁अस्पताल	-1981
▁L	-1982
▁बचाव	-1983
▁व्यक्तिगत	-1984
▁आपके	-1985
▁संके	-1986
ूरी	-1987
▁मुआ	-1988
▁जिन्होंने	-1989
▁स्वतंत्रता	-1990
▁T	-1991
फारिश	-1992
▁मुद्दे	-1993
▁पांच	-1994
▁मात्रा	-1995
ंसा	-1996
▁मार्ग	-1997
▁हिन्द	-1998
ंगत	-1999
▁आए	-2000
▁सीआर	-2001
▁सिफारिश	-2002
▁बढ़ा	-2003
▁”	-2004
▁व्यवसाय	-2005
्टर	-2006
▁पुनर्	-2007
▁दायित्व	-2008
▁लगता	-2009
▁मुआव	-2010
▁अंक	-2011
▁व्यापक	-2012
▁व्यवहार	-2013
ोह	-2014
▁उपस्थिति	-2015
न्ध	-2016
िकल	-2017
▁सहयोग	-2018
निर्	-2019
▁दृष्टिकोण	-2020
▁तत्काल	-2021
▁विज्ञान	-2022
▁H	-2023
▁विधान	-2024
▁अर	-2025
▁भाई	-2026
▁तुम	-2027
▁वाद	-2028
▁विवाह	-2029
▁परिणामस्वरूप	-2030
▁कैसे	-2031
▁पोस्ट	-2032
ग्रहण	-2033
▁भर्ती	-2034
ूली	-2035
र्प	-2036
▁भू	-2037
▁अध्यक्ष	-2038
ाउ	-2039
▁अनुमान	-2040
▁शा	-2041
▁उच्चतम	-2042
▁केंद	-2043
▁रोज	-2044
ष्य	-2045
▁जन्म	-2046
▁उपधारा	-2047
ह्न	-2048
▁घोषित	-2049
▁पंजीकृत	-2050
▁सुझाव	-2051
▁लाइस	-2052
▁अन्यथा	-2053
▁उपस्थित	-2054
र्च	-2055
▁संत	-2056
ैन	-2057
▁बीमा	-2058
▁सेवाओं	-2059
▁निकाल	-2060
▁सूचित	-2061
▁प्रौद्योगिकी	-2062
in	-2063
▁बच्चों	-2064
▁निवेश	-2065
पूर्व	-2066
▁J	-2067
▁खरीद	-2068
कृतिक	-2069
▁उपयुक्त	-2070
ha	-2071
ांति	-2072
▁जोड़	-2073
ीर	-2074
खिल	-2075
लग्न	-2076
▁सभा	-2077
▁एकल	-2078
▁गयी	-2079
▁बच्चे	-2080
बू	-2081
्राफ	-2082
▁सत्र	-2083
▁जीव	-2084
▁लाइसेंस	-2085
▁वही	-2086
▁रक्षा	-2087
▁चाहते	-2088
▁अभियुक्तों	-2089
टन	-2090
ोप	-2091
▁संतु	-2092
▁भौ	-2093
▁अस्वी	-2094
लाई	-2095
मती	-2096
▁स्थायी	-2097
▁सहमति	-2098
▁परिष	-2099
▁स्थानीय	-2100
▁अनुभव	-2101
ानि	-2102
▁अमे	-2103
▁प्रधान	-2104
बार	-2105
▁दलील	-2106
यों	-2107
णिज	-2108
ूस	-2109
▁जमान	-2110
▁स्पष्टीकरण	-2111
▁पिछले	-2112
ोद	-2113
▁क्रिया	-2114
षित	-2115
▁विदेशी	-2116
▁कवि	-2117
▁अगस्त	-2118
▁यात्रा	-2119
▁केंद्रीय	-2120
वरण	-2121
फना	-2122
▁मेरी	-2123
▁सचिव	-2124
▁पानी	-2125
रासत	-2126
▁वृद्धि	-2127
▁बाध्य	-2128
▁चरण	-2129
▁स्थानांत	-2130
▁वाणिज	-2131
▁अंतर्गत	-2132
ेमाल	-2133
▁गिरफ्त	-2134
▁कोशिश	-2135
▁प्रशिक्ष	-2136
नाथ	-2137
▁काल	-2138
▁सम्मान	-2139
▁इस्तेमाल	-2140
▁विल	-2141
▁बैठक	-2142
▁प्रतिनिधित्व	-2143
ृत्ति	-2144
लन	-2145
▁रखना	-2146
▁नुक	-2147
▁संकेत	-2148
▁मदद	-2149
▁संशोधित	-2150
▁असम	-2151
▁अह	-2152
▁मंजूरी	-2153
▁औद्योगिक	-2154
▁पश्चिम	-2155
▁कॉलेज	-2156
मन	-2157
▁अंग्रे	-2158
▁सेट	-2159
▁बेंच	-2160
▁यानी	-2161
ार्ड	-2162
▁जिम्म	-2163
▁सौंप	-2164
▁आकर्ष	-2165
▁हूँ	-2166
▁देरी	-2167
▁जरूर	-2168
वर्ती	-2169
▁IST	-2170
▁समीक्षा	-2171
▁ज्या	-2172
भाग	-2173
▁आरोपों	-2174
▁सीखे	-2175
▁मध्यस्थता	-2176
▁सुरक्षित	-2177
▁नौ	-2178
▁दावे	-2179
▁राजस्व	-2180
▁देय	-2181
▁मंदिर	-2182
▁इंग	-2183
▁देशों	-2184
िवी	-2185
▁पीछे	-2186
▁प्राकृतिक	-2187
▁आदेशों	-2188
▁हलफना	-2189
ेंसी	-2190
दायी	-2191
▁भूमिका	-2192
ार्ज	-2193
No	-2194
▁करोड़	-2195
▁चिह्न	-2196
्रिय	-2197
डे	-2198
▁एफआईआर	-2199
▁संबंधी	-2200
▁मोट	-2201
▁विकसित	-2202
ूठ	-2203
▁कप	-2204
▁संदर्भित	-2205
▁बंग	-2206
▁समझौता	-2207
ान्त	-2208
▁वाहन	-2209
ुआ	-2210
▁WP	-2211
▁सलाह	-2212
ैल	-2213
▁विभाज	-2214
▁सत	-2215
▁पंजीकरण	-2216
▁सिद्धांतों	-2217
▁बिंद	-2218
▁आल	-2219
00	-2220
▁काउ	-2221
तियों	-2222
▁तुलना	-2223
ष्ट्रीय	-2224
खंड	-2225
ियाँ	-2226
ेंद्र	-2227
▁हट	-2228
डा	-2229
▁रेल	-2230
▁डिक्री	-2231
▁इला	-2232
▁दूसरा	-2233
▁वैधानिक	-2234
ग्	-2235
▁एससीसी	-2236
▁प्रभावी	-2237
▁नुकसान	-2238
▁ठहराया	-2239
▁अभिव्य	-2240
▁छात्र	-2241
ra	-2242
▁बज	-2243
▁राजनी	-2244
्साह	-2245
यां	-2246
▁टे	-2247
▁कदम	-2248
ंगे	-2249
▁निपटान	-2250
ाधिकार	-2251
▁लागत	-2252
▁जमानत	-2253
▁देव	-2254
▁छोटे	-2255
▁चाल	-2256
▁भेजा	-2257
दार्थ	-2258
ंटी	-2259
▁मिश	-2260
▁धो	-2261
▁यु	-2262
▁लौ	-2263
▁अस्त	-2264
▁वेब	-2265
▁मंत्रालय	-2266
▁जहाँ	-2267
▁प्रतिवादियों	-2268
यात	-2269
जों	-2270
▁प्रदर्श	-2271
▁तिथि	-2272
▁बहु	-2273
िटी	-2274
पि	-2275
एफ	-2276
ड़क	-2277
▁ग्राम	-2278
▁पीठ	-2279
▁भवि	-2280
▁लेकर	-2281
दंड	-2282
र्जी	-2283
सीय	-2284
▁अनुचित	-2285
▁आईपीसी	-2286
▁पदार्थ	-2287
सि	-2288
▁दृष्टि	-2289
▁अस्थ	-2290
▁बां	-2291
▁भले	-2292
▁d	-2293
्रेस	-2294
ताछ	-2295
▁बोली	-2296
▁भविष्य	-2297
▁त्रुट	-2298
एन	-2299
ist	-2300
▁00	-2301
▁दक्षि	-2302
▁बेट	-2303
▁निरी	-2304
राह	-2305
मात्र	-2306
▁एंड	-2307
▁श्रीमती	-2308
▁of	-2309
▁मजब	-2310
▁रहते	-2311
▁लंबित	-2312
▁खो	-2313
▁अर्थात्	-2314
▁गांव	-2315
जित	-2316
▁विकल्प	-2317
▁उत्तरदायी	-2318
ंधान	-2319
▁निष्पादित	-2320
▁पेट	-2321
▁शक्तियों	-2322
▁मर	-2323
तार	-2324
ct	-2325
र्मा	-2326
▁फर	-2327
त्तियों	-2328
▁विज्ञ	-2329
िवीजन	-2330
▁रहता	-2331
▁इका	-2332
▁अच्छा	-2333
▁पूछताछ	-2334
त्मा	-2335
ण्	-2336
▁संपर्क	-2337
▁अनुश	-2338
▁अनुपालन	-2339
▁बड़ा	-2340
▁प्रारंभिक	-2341
ेर	-2342
ेशा	-2343
▁उसमें	-2344
▁प्रकाशित	-2345
िफ	-2346
▁आपूर्ति	-2347
▁संचालन	-2348
▁सत्य	-2349
ामीण	-2350
▁कर्तव्य	-2351
▁ग्रामीण	-2352
▁चाहे	-2353
११	-2354
▁निर्णयों	-2355
▁टिप	-2356
▁जाये	-2357
▁आपत्ति	-2358
▁गठन	-2359
▁अधिग्रहण	-2360
▁उपकरण	-2361
▁दिखाई	-2362
▁संसा	-2363
▁आद	-2364
चरण	-2365
▁डिवीजन	-2366
▁खाते	-2367
▁पक्षों	-2368
▁नम	-2369
▁अनुसंधान	-2370
र्इ	-2371
▁मार्च	-2372
▁अपेक्षा	-2373
पूर्वक	-2374
शल	-2375
सिक	-2376
▁रखी	-2377
धे	-2378
▁सम्प	-2379
खी	-2380
▁राज्यों	-2381
कृति	-2382
र्ग	-2383
▁चित्र	-2384
▁हमेशा	-2385
▁जोर	-2386
▁कर्	-2387
▁विद्य	-2388
▁बोल	-2389
▁देखने	-2390
▁उनमें	-2391
विदा	-2392
ानुसार	-2393
▁छूट	-2394
▁मिली	-2395
▁बाहरी	-2396
र्फ	-2397
▁यही	-2398
बाद	-2399
▁लॉ	-2400
▁वन	-2401
▁तुर	-2402
▁अध्ययन	-2403
▁इतिहास	-2404
▁निष्पादन	-2405
धिकार	-2406
ड़ों	-2407
▁उठाया	-2408
▁पात्र	-2409
▁कार्यों	-2410
▁पक	-2411
ल्पना	-2412
▁अनुसूची	-2413
▁दाखिल	-2414
▁गवाही	-2415
▁पेंशन	-2416
▁तकनीकी	-2417
▁अंतरिम	-2418
▁कला	-2419
▁चुका	-2420
▁शीर्षक	-2421
▁टिप्प	-2422
जार	-2423
▁प्रकट	-2424
▁यून	-2425
▁मास	-2426
▁ढंग	-2427
लब	-2428
▁आता	-2429
▁जाति	-2430
▁एड	-2431
ेध	-2432
▁नक	-2433
▁इत	-2434
▁खर्च	-2435
▁माता	-2436
▁रचना	-2437
▁दर्श	-2438
▁भौतिक	-2439
▁जिनके	-2440
स्क	-2441
▁रक्त	-2442
▁आवंट	-2443
▁प्रेम	-2444
▁विद्वान	-2445
▁भिन्न	-2446
▁संगठन	-2447
▁परिप	-2448
▁भावना	-2449
▁वसूली	-2450
▁यद्य	-2451
▁लाया	-2452
▁युद्ध	-2453
▁यद्यपि	-2454
▁मान्यता	-2455
हरी	-2456
▁आरंभ	-2457
दर्श	-2458
▁देवी	-2459
▁रोजगार	-2460
▁शासन	-2461
▁उठाए	-2462
ंता	-2463
रेट	-2464
▁शेष	-2465
▁बुला	-2466
▁विस्तृत	-2467
▁लगे	-2468
▁महान	-2469
संद	-2470
▁पहलू	-2471
▁फिल	-2472
▁जिरह	-2473
▁लिखा	-2474
▁साहित	-2475
▁निविदा	-2476
▁Dist	-2477
कु	-2478
जरा	-2479
▁खेल	-2480
▁पाठ्य	-2481
ंजन	-2482
▁होनी	-2483
जय	-2484
वीं	-2485
▁किरा	-2486
▁विरुद्ध	-2487
ायद	-2488
ोन्न	-2489
▁एकमात्र	-2490
▁मिले	-2491
▁खुलासा	-2492
▁जिनमें	-2493
▁पेज	-2494
▁आरोपियों	-2495
ात्म	-2496
▁मौत	-2497
▁अस्तित्व	-2498
▁साव	-2499
▁केस	-2500
▁पदोन्न	-2501
▁होकर	-2502
▁निर्वा	-2503
▁हिरासत	-2504
ंतर	-2505
▁उम	-2506
भूत	-2507
▁प्रग	-2508
▁प्रवि	-2509
▁शव	-2510
▁चाहता	-2511
▁निकल	-2512
▁देती	-2513
▁आकार	-2514
▁जून	-2515
▁वाय	-2516
▁बरा	-2517
▁परे	-2518
▁स्म	-2519
▁सम्ब	-2520
▁उपर्	-2521
▁व्याव	-2522
▁बिंदु	-2523
धीन	-2524
▁सेवान	-2525
▁बिज	-2526
▁सेवानिव	-2527
▁आचरण	-2528
▁पुत्र	-2529
▁संस्थानों	-2530
▁मश	-2531
▁साह	-2532
▁खे	-2533
▁ज्यादा	-2534
▁उपर्युक्त	-2535
▁विवेक	-2536
केट	-2537
र्वा	-2538
▁परंतु	-2539
▁तरफ	-2540
▁परिषद	-2541
धा	-2542
▁गाँ	-2543
▁निर्देशित	-2544
▁हमारा	-2545
म्प	-2546
▁वाणिज्यिक	-2547
▁संय	-2548
ायक	-2549
▁टै	-2550
▁किर	-2551
▁संरक्षण	-2552
▁आकर्षित	-2553
▁निषेध	-2554
▁अभिव्यक्ति	-2555
▁कहना	-2556
▁विनिर्	-2557
▁अप्रैल	-2558
▁बेहत	-2559
▁अर्थात	-2560
▁ते	-2561
सन	-2562
▁पुस्तक	-2563
▁फाइल	-2564
▁अभ्यास	-2565
▁गार	-2566
▁अश	-2567
▁बराम	-2568
▁सत्ता	-2569
म्ह	-2570
▁II	-2571
▁विश्ले	-2572
▁ii	-2573
धानी	-2574
▁गुर	-2575
▁जाँच	-2576
मो	-2577
रक	-2578
▁डे	-2579
▁बराबर	-2580
▁फैसला	-2581
▁त्रुटि	-2582
▁पट्ट	-2583
▁परिसर	-2584
ैतिक	-2585
▁प्रशिक्षण	-2586
ंगल	-2587
▁हथ	-2588
▁गांधी	-2589
▁कहीं	-2590
ज्ञानिक	-2591
▁प्रत्यक्ष	-2592
▁दें	-2593
▁रात	-2594
▁प्रतिबंध	-2595
▁प्रशासनिक	-2596
▁भ्र	-2597
▁संस्करण	-2598
ेदारी	-2599
▁तंत्र	-2600
▁इस्ल	-2601
▁याचिकाओं	-2602
ून्य	-2603
▁कांग	-2604
ॉस	-2605
▁t	-2606
साइट	-2607
जनक	-2608
▁जिसकी	-2609
▁सित	-2610
▁शु	-2611
▁साधारण	-2612
▁करनी	-2613
▁नया	-2614
▁पट	-2615
▁पीसी	-2616
ठित	-2617
ालित	-2618
ात्मक	-2619
भाई	-2620
ेदन	-2621
▁पुनः	-2622
भू	-2623
▁साझ	-2624
▁कोर्इ	-2625
▁अनुक	-2626
▁संदेश	-2627
▁प्रगति	-2628
▁झूठ	-2629
▁दावेदार	-2630
▁रिक्त	-2631
▁सिर	-2632
▁परन्तु	-2633
▁इंडिया	-2634
प्प	-2635
▁तुरंत	-2636
▁पौ	-2637
▁समझा	-2638
सम	-2639
▁मेड	-2640
स्थाप	-2641
▁बॉ	-2642
▁यथ	-2643
▁उल्लिखित	-2644
▁संतुष्ट	-2645
▁दर्शा	-2646
गढ़	-2647
न्व	-2648
▁क्षति	-2649
▁पूंजी	-2650
▁पंचायत	-2651
▁मुआवजे	-2652
▁सराह	-2653
▁राजा	-2654
▁निकाय	-2655
▁जरूरत	-2656
ृत्त	-2657
▁दक्षिण	-2658
▁अध्याय	-2659
दाता	-2660
▁लगी	-2661
▁जल्	-2662
▁तुम्ह	-2663
भाल	-2664
▁शेयर	-2665
il	-2666
कारों	-2667
▁शून्य	-2668
▁निर्यात	-2669
▁बरामद	-2670
ॉक	-2671
▁दि	-2672
श्वर	-2673
▁विलेख	-2674
▁अस्वीकार	-2675
▁अक	-2676
▁SCC	-2677
▁कारा	-2678
▁निम्नानुसार	-2679
▁गुजरा	-2680
▁तेल	-2681
▁c	-2682
लाव	-2683
▁नही	-2684
▁पाठ्यक्रम	-2685
▁पुरुष	-2686
▁दिस	-2687
ांड	-2688
▁उद्य	-2689
▁पुरा	-2690
▁रि	-2691
संगत	-2692
▁कृत	-2693
▁पराम	-2694
▁छोड़कर	-2695
ैक	-2696
▁सोच	-2697
▁उम्मीदवारों	-2698
गल	-2699
▁अधिका	-2700
सनीय	-2701
्राइ	-2702
िस्ता	-2703
ैधानिक	-2704
▁हटा	-2705
▁पाए	-2706
▁संचार	-2707
▁पहला	-2708
▁स्रो	-2709
▁विंड	-2710
▁सुब	-2711
▁क़ान	-2712
▁सड़क	-2713
▁शायद	-2714
▁मुक्त	-2715
▁शिव	-2716
▁पदों	-2717
▁विशेषज्ञ	-2718
▁छह	-2719
▁उपचार	-2720
▁पड़ा	-2721
▁महारा	-2722
▁पसंद	-2723
▁अपराधों	-2724
▁तत्व	-2725
णियों	-2726
▁अनुरूप	-2727
▁भग	-2728
रिका	-2729
त्साह	-2730
पालिका	-2731
▁बेहतर	-2732
▁चेक	-2733
▁अभाव	-2734
आईसी	-2735
▁सामना	-2736
यर	-2737
र्जा	-2738
धिकरण	-2739
▁संरचना	-2740
▁रखे	-2741
▁विज्ञापन	-2742
नात्मक	-2743
▁क़ानून	-2744
as	-2745
▁इतना	-2746
▁बढ़ाने	-2747
▁जनवरी	-2748
▁राजनीतिक	-2749
प्ताह	-2750
घु	-2751
▁मिट	-2752
▁निरंतर	-2753
▁सहमत	-2754
हीन	-2755
▁प्रयोज	-2756
्ष्	-2757
▁कार्यकारी	-2758
▁मई	-2759
▁लेना	-2760
▁दुकान	-2761
▁दिखाया	-2762
▁पाल	-2763
▁री	-2764
श्छ	-2765
▁कॉल	-2766
▁लेखा	-2767
▁इंज	-2768
▁सत्या	-2769
▁अवि	-2770
▁गतिविध	-2771
▁किराय	-2772
▁आत	-2773
ज्	-2774
▁बने	-2775
▁कीमत	-2776
▁अनुदान	-2777
▁मतलब	-2778
▁स्थानांतरित	-2779
▁मेरा	-2780
बे	-2781
▁अमेरिका	-2782
▁इच्छा	-2783
▁वहाँ	-2784
▁दुनिया	-2785
▁इं	-2786
▁ऊण्	-2787
श्छ्ष्	-2788
▁ऊण्श्छ्ष्	-2789
▁शाखा	-2790
ag	-2791
▁पड़ता	-2792
▁उनसे	-2793
▁इक	-2794
▁वेबसाइट	-2795
▁उपभ	-2796
▁पीएस	-2797
▁किंतु	-2798
and	-2799
टों	-2800
▁दिव	-2801
▁सराहना	-2802
IR	-2803
▁गाँव	-2804
▁दिखाने	-2805
▁धी	-2806
▁जाय	-2807
▁विद्या	-2808
▁न्यून	-2809
▁शादी	-2810
राव	-2811
▁बरी	-2812
▁मानते	-2813
▁न्यायाधिकरण	-2814
▁पर्य	-2815
भूम	-2816
▁उद्ध	-2817
▁आग	-2818
▁किये	-2819
ुनिक	-2820
किंग	-2821
▁मशीन	-2822
▁दायरे	-2823
▁फॉ	-2824
▁संकल्प	-2825
▁ब्रिट	-2826
घटना	-2827
▁प्रतिष्ठ	-2828
ियार	-2829
▁विश्लेषण	-2830
▁सेना	-2831
ंगा	-2832
▁करा	-2833
▁श्रम	-2834
्यो	-2835
▁नजर	-2836
मारी	-2837
▁परिभाषित	-2838
▁सात	-2839
▁परामर्श	-2840
▁पत	-2841
िप्त	-2842
ोकन	-2843
▁सक्रिय	-2844
AR	-2845
▁मुद्द	-2846
ूबर	-2847
▁प्ल	-2848
▁समाप्ति	-2849
▁खत	-2850
▁धोखा	-2851
ad	-2852
▁जज	-2853
▁ब्ल	-2854
▁क्रॉस	-2855
▁लि	-2856
ठी	-2857
▁प्रोत्साह	-2858
▁खाद	-2859
▁कांग्रेस	-2860
▁कारावास	-2861
▁कल्या	-2862
▁लाने	-2863
चर	-2864
्यूटर	-2865
▁अफ	-2866
▁जुलाई	-2867
▁देगा	-2868
▁मेडिकल	-2869
▁दुर्घटना	-2870
▁भारी	-2871
▁वें	-2872
▁बेटी	-2873
▁संपूर्ण	-2874
▁मंत्री	-2875
कम	-2876
▁निकाला	-2877
▁योगदान	-2878
▁w	-2879
द्व	-2880
▁बिजली	-2881
▁मुद्दों	-2882
▁शांति	-2883
जूदा	-2884
भार	-2885
भूमि	-2886
▁वस्तुओं	-2887
▁निश	-2888
▁समुदाय	-2889
▁मौजूदा	-2890
▁बंध	-2891
▁न्यूनतम	-2892
ारात्मक	-2893
▁सप्ताह	-2894
नियों	-2895
र्द	-2896
▁दृश्य	-2897
फा	-2898
▁बजाय	-2899
▁दस	-2900
▁सन्	-2901
ent	-2902
पा	-2903
▁समाधान	-2904
स्थित	-2905
▁ट्रस्ट	-2906
पित	-2907
टल	-2908
▁मिलता	-2909
▁निर्व	-2910
▁लक्ष्य	-2911
▁रिश	-2912
▁साहित्य	-2913
माने	-2914
▁हस्तांत	-2915
डियो	-2916
am	-2917
▁एकत्र	-2918
▁अंदर	-2919
▁वैज्ञानिक	-2920
बिर	-2921
▁प्रतिकूल	-2922
ूर्ण	-2923
चि	-2924
▁दुर	-2925
▁प्रदर्शित	-2926
▁मॉ	-2927
वक	-2928
▁अवल	-2929
▁वसीय	-2930
▁आते	-2931
▁स्थग	-2932
▁आधुनिक	-2933
▁गारंटी	-2934
▁डा	-2935
स्ल	-2936
ंव	-2937
pur	-2938
▁अगले	-2939
▁ज्ञापन	-2940
▁उद्यम	-2941
▁संलग्न	-2942
▁पदोन्नति	-2943
▁नर	-2944
▁केन्द्र	-2945
▁कल्याण	-2946
▁हमला	-2947
▁प्राय	-2948
▁निर्मित	-2949
टे	-2950
द्रा	-2951
▁कोड	-2952
▁विभाजन	-2953
▁खोल	-2954
▁रेलवे	-2955
▁घायल	-2956
it	-2957
▁पंजा	-2958
▁तीसरे	-2959
▁डेट	-2960
▁वितरण	-2961
▁पर्यावरण	-2962
▁आतंक	-2963
rict	-2964
▁संवैधानिक	-2965
▁मुखबिर	-2966
▁बेच	-2967
▁कब्जा	-2968
१२	-2969
▁शर्मा	-2970
▁सुल	-2971
▁खुल	-2972
▁शास	-2973
▁कटौती	-2974
▁District	-2975
▁नदी	-2976
▁इंगित	-2977
▁देन	-2978
वाय	-2979
▁तला	-2980
▁सश	-2981
ोदन	-2982
▁F	-2983
▁मुसल	-2984
▁घंट	-2985
▁फरवरी	-2986
चक	-2987
▁Nos	-2988
▁मनुष	-2989
▁जिम्मेदार	-2990
ंथ	-2991
▁पाने	-2992
▁चिह्नित	-2993
▁रोकने	-2994
▁तम	-2995
ृह	-2996
▁शहर	-2997
or	-2998
▁अल्प	-2999
▁धार्मिक	-3000
▁जेल	-3001
▁दश	-3002
▁ती	-3003
▁दब	-3004
▁स्थल	-3005
▁अधिकांश	-3006
िस्तान	-3007
ोषण	-3008
▁थो	-3009
▁विविध	-3010
▁परिस्थिति	-3011
▁उम्र	-3012
वत्ता	-3013
▁अंग्रेजी	-3014
▁क्षेत्रीय	-3015
▁मौके	-3016
▁पृथ	-3017
▁परिवहन	-3018
▁अनुमोदन	-3019
ृत्व	-3020
ांस	-3021
▁मानसिक	-3022
▁एक्ट	-3023
ोलन	-3024
▁फल	-3025
▁भोजन	-3026
्राम	-3027
▁छुट	-3028
ंचित	-3029
▁करेगी	-3030
▁चार्ज	-3031
कीय	-3032
▁ग्राह	-3033
▁गुणवत्ता	-3034
कता	-3035
▁मना	-3036
▁गुजरात	-3037
▁कहानी	-3038
▁मुसलमान	-3039
िष	-3040
▁संब	-3041
नेट	-3042
▁फ्र	-3043
ल्ड	-3044
▁दौ	-3045
▁जित	-3046
क्रमण	-3047
▁सांस	-3048
▁इंटर	-3049
▁कम्प	-3050
▁पढ़ने	-3051
ारण	-3052
▁मोह	-3053
्रिया	-3054
▁खून	-3055
▁आग्रह	-3056
▁क्षेत्राधिकार	-3057
▁ऊर्जा	-3058
▁नेट	-3059
खिक	-3060
▁हास	-3061
▁चलाने	-3062
▁बंगाल	-3063
▁गणना	-3064
▁सफलता	-3065
▁शारी	-3066
▁छोटी	-3067
▁प्रस्तावित	-3068
▁छात्रों	-3069
▁जुड़े	-3070
▁पद्ध	-3071
▁सीधे	-3072
्वर	-3073
▁शुद्ध	-3074
▁पीडब्ल्यू	-3075
▁कले	-3076
▁मंडल	-3077
▁शंक	-3078
▁खाली	-3079
▁सुबह	-3080
▁निवास	-3081
▁आकलन	-3082
पथ	-3083
▁मू	-3084
▁मनोर	-3085
▁आयात	-3086
द्दा	-3087
▁विश्वसनीय	-3088
नल	-3089
▁माप	-3090
AN	-3091
▁माँ	-3092
▁प्रसाद	-3093
▁शारीरिक	-3094
▁विचारों	-3095
▁विच	-3096
ितीय	-3097
▁बनाई	-3098
▁अके	-3099
चारिक	-3100
▁ध्व	-3101
सं	-3102
▁अनुपात	-3103
ग्राफ	-3104
एच	-3105
▁मित्र	-3106
▁दिसंबर	-3107
▁p	-3108
क़	-3109
▁पश्चात्	-3110
नात	-3111
्वेष	-3112
▁अहम	-3113
▁इस्लाम	-3114
▁अवस्था	-3115
▁अनुसूचित	-3116
▁सका	-3117
▁गी	-3118
▁निधि	-3119
▁पढ़ा	-3120
▁मात्र	-3121
रत	-3122
▁दिख	-3123
▁चाहिये	-3124
हरे	-3125
▁रखता	-3126
फे	-3127
▁रू	-3128
▁इरादा	-3129
▁सिर्फ	-3130
▁स्वामी	-3131
▁आनंद	-3132
▁जैसी	-3133
▁प्रमाणित	-3134
▁नील	-3135
ुन	-3136
ed	-3137
रीय	-3138
▁मजद	-3139
▁मोटर	-3140
▁मौखिक	-3141
▁निवासी	-3142
▁इनमें	-3143
लिक	-3144
न्स	-3145
व्यव	-3146
▁कवर	-3147
ंबई	-3148
ाज्ञ	-3149
साइ	-3150
▁आब	-3151
चीन	-3152
▁नियोक्ता	-3153
▁औसत	-3154
स्थिति	-3155
▁v	-3156
▁वालों	-3157
▁निष्पक्ष	-3158
▁खाता	-3159
▁हलफनामे	-3160
▁सर्वे	-3161
▁उपन	-3162
▁निर्देशों	-3163
ियल	-3164
▁घट	-3165
▁सितंबर	-3166
▁निरीक्षण	-3167
▁करी	-3168
▁कठोर	-3169
▁वसीयत	-3170
▁लेते	-3171
मंत्र	-3172
ुता	-3173
▁मुखर्जी	-3174
ष्ट्र	-3175
▁उठाने	-3176
har	-3177
▁डॉक्टर	-3178
▁पाते	-3179
घा	-3180
▁बाध	-3181
▁दोहरा	-3182
▁गिरफ्तार	-3183
▁पड़े	-3184
EN	-3185
▁अच्छे	-3186
▁वंचित	-3187
id	-3188
ुपयोग	-3189
▁सावधानी	-3190
्षिक	-3191
सूस	-3192
▁बर्	-3193
▁विचारा	-3194
▁परिभाषा	-3195
▁नमू	-3196
ाज्ञा	-3197
▁इंजीन	-3198
▁शुरुआ	-3199
▁कलेक्टर	-3200
▁इकाई	-3201
▁गतिविधियों	-3202
▁न्यायाधीशों	-3203
▁चुके	-3204
▁गि	-3205
▁प्राप्ति	-3206
▁फर्म	-3207
दर	-3208
वाला	-3209
▁केन्द	-3210
▁निषेधाज्ञा	-3211
▁मजबूत	-3212
▁स्रोत	-3213
▁प्राथमिकता	-3214
▁व्यय	-3215
▁लगातार	-3216
▁परिवर्त	-3217
▁सकें	-3218
▁निष्कर्षों	-3219
▁मुद्रा	-3220
ियोग	-3221
लू	-3222
▁दूरी	-3223
▁AIR	-3224
▁पकड़	-3225
▁भेद	-3226
▁विचाराधीन	-3227
लो	-3228
▁निकट	-3229
▁आधिकार	-3230
बाइल	-3231
▁युवा	-3232
▁नियंत्रित	-3233
▁युग	-3234
▁वर्णित	-3235
मल	-3236
ंका	-3237
▁आंद	-3238
▁रेड	-3239
▁आधिकारिक	-3240
▁वो	-3241
▁नेत	-3242
▁दुरुपयोग	-3243
▁सम्	-3244
पीठ	-3245
काया	-3246
ृद	-3247
▁हिंदू	-3248
▁अंश	-3249
िज़	-3250
▁मुद्दा	-3251
▁स्वीकृति	-3252
▁तेज	-3253
▁प्राइ	-3254
ायर	-3255
▁न्यू	-3256
▁डेटा	-3257
▁सच्च	-3258
▁पैराग्राफ	-3259
▁रहती	-3260
▁कृष्ण	-3261
ेलन	-3262
▁अत्यधिक	-3263
▁असा	-3264
पचारिक	-3265
▁वर्णन	-3266
▁नेतृत्व	-3267
▁उन्न	-3268
म्भ	-3269
▁सृ	-3270
▁जरूरी	-3271
▁त्व	-3272
▁फोन	-3273
▁आत्मा	-3274
्यात्मक	-3275
▁हटाने	-3276
ंगी	-3277
▁ताल	-3278
▁रजिस्ट्र	-3279
▁दस्तावेज़	-3280
ास्त्र	-3281
▁प्रयोजन	-3282
▁निर्वहन	-3283
मंत्री	-3284
▁स्वाम	-3285
▁चीज	-3286
▁माह	-3287
▁असमर्थ	-3288
▁लघु	-3289
▁ग्रह	-3290
▁संघर्ष	-3291
▁वैधता	-3292
▁सहकारी	-3293
▁उत्तराधिक	-3294
▁रकम	-3295
▁बिहार	-3296
नाटक	-3297
▁प्रेरित	-3298
▁दरवा	-3299
▁किसान	-3300
▁महसूस	-3301
▁तभी	-3302
▁मानदंड	-3303
▁आह	-3304
म्बर	-3305
▁सम्बन्ध	-3306
▁कथन	-3307
धनों	-3308
▁वार्षिक	-3309
यण	-3310
▁जानते	-3311
▁समाचार	-3312
ृंख	-3313
▁कंपनियों	-3314
▁मिलने	-3315
▁सम्मिल	-3316
IC	-3317
▁मनुष्य	-3318
▁कंप्यूटर	-3319
ाकू	-3320
पे	-3321
▁उल	-3322
▁संक्षेप	-3323
he	-3324
▁खान	-3325
िड	-3326
▁लै	-3327
ाइन	-3328
भूति	-3329
▁जुर्म	-3330
▁प्रयोजनों	-3331
स्ती	-3332
▁वर्गी	-3333
▁१	-3334
▁लौट	-3335
▁कौन	-3336
▁ईश्वर	-3337
ंदा	-3338
▁इसने	-3339
▁कर्नाटक	-3340
▁संग्रह	-3341
▁बेटे	-3342
▁प्रतिक्रिया	-3343
▁परम	-3344
▁तत्प	-3345
्कृत	-3346
▁निच	-3347
टिल	-3348
▁पूर्वव	-3349
▁दै	-3350
ंत्रित	-3351
um	-3352
▁अस्थायी	-3353
िक्स	-3354
▁अपेक्षित	-3355
ूपी	-3356
ुति	-3357
▁स्वीकार्य	-3358
▁भगवान	-3359
▁विधिव	-3360
▁समार	-3361
▁दास	-3362
▁मानक	-3363
दारों	-3364
राष्ट्रीय	-3365
▁प्रसार	-3366
▁पंजाब	-3367
▁x	-3368
डिया	-3369
▁आवा	-3370
▁मोबाइल	-3371
▁देकर	-3372
वर्क	-3373
▁कहता	-3374
▁अभियोग	-3375
▁इंस	-3376
▁रजिस्ट्रार	-3377
▁देखभाल	-3378
▁धीरे	-3379
▁चरित	-3380
▁उद्धृत	-3381
स्थापित	-3382
▁U	-3383
शाला	-3384
▁जनरल	-3385
▁पृष्ठभूमि	-3386
ेक्ट	-3387
▁जुर्माना	-3388
▁हद	-3389
ृंखला	-3390
▁एजेंसी	-3391
ुम	-3392
▁शत्र	-3393
▁आंत	-3394
्कुल	-3395
▁ऊंच	-3396
▁आशय	-3397
ीदारी	-3398
ुण	-3399
▁r	-3400
▁खास	-3401
▁अधिकतम	-3402
▁समारोह	-3403
शिया	-3404
▁कार्यान	-3405
ion	-3406
▁अग्रिम	-3407
तया	-3408
▁सकेगा	-3409
▁बढ	-3410
▁इरादे	-3411
▁पद्धति	-3412
AT	-3413
▁घरे	-3414
त्री	-3415
▁संगी	-3416
ॉज	-3417
▁नारा	-3418
रिया	-3419
▁निशान	-3420
िद्ध	-3421
▁हाई	-3422
▁अनुशास	-3423
दृ	-3424
▁कार्यान्व	-3425
▁चंद्र	-3426
▁चोटों	-3427
ोजक	-3428
▁तार	-3429
▁बिल्कुल	-3430
न्ट	-3431
▁कहने	-3432
▁हजार	-3433
▁बाई	-3434
श्क	-3435
▁डिस	-3436
▁दर्शाता	-3437
▁परिच	-3438
शु	-3439
▁एचसी	-3440
▁खाद्य	-3441
▁कमीशन	-3442
▁घरेलू	-3443
िनी	-3444
▁मनोरंजन	-3445
िकेट	-3446
▁भंड	-3447
ाये	-3448
▁अनुप्र	-3449
▁ठे	-3450
▁उपभोक्ता	-3451
बाजी	-3452
▁शपथ	-3453
▁संबद्ध	-3454
इयों	-3455
चार्य	-3456
ic	-3457
▁काग	-3458
▁जम्म	-3459
▁मीटर	-3460
▁केन्द्रीय	-3461
ागत	-3462
▁रहना	-3463
▁अवलोकन	-3464
▁कल्पना	-3465
जात	-3466
▁यूरो	-3467
▁प्रभार	-3468
▁हासिल	-3469
▁शिक्षक	-3470
ोम	-3471
▁आमत	-3472
▁अक्ट	-3473
▁सरल	-3474
▁जम्मू	-3475
▁धोखाध	-3476
▁आंदोलन	-3477
▁जिले	-3478
▁चूक	-3479
्डी	-3480
▁किरायेदार	-3481
▁अक्टूबर	-3482
▁बनाना	-3483
▁परेश	-3484
िशन	-3485
जाम	-3486
▁अवधार	-3487
▁धोखाधड़ी	-3488
▁n	-3489
▁आमतौर	-3490
▁सारे	-3491
घ्र	-3492
▁कविता	-3493
िग	-3494
▁असफल	-3495
▁दशा	-3496
▁संसाधन	-3497
▁मिन	-3498
डल	-3499
▁संस्कृत	-3500
▁टेली	-3501
▁विशाल	-3502
▁गा	-3503
▁किन	-3504
▁महिलाओं	-3505
जीव	-3506
▁फार	-3507
▁कठिना	-3508
▁सम्मिलित	-3509
उट	-3510
व्यों	-3511
▁इतनी	-3512
▁निर्वाचन	-3513
कल्प	-3514
▁निष्क	-3515
१३	-3516
ोग्राम	-3517
▁विधेय	-3518
▁अनुपस्थिति	-3519
▁पाव	-3520
ांकन	-3521
मक	-3522
सायिक	-3523
ट्	-3524
काशन	-3525
सर्स	-3526
▁ट्रेड	-3527
▁खंडन	-3528
▁महत्त	-3529
करार	-3530
डु	-3531
▁सर्वेक्षण	-3532
▁छुट्टी	-3533
त्कार	-3534
▁ब्रिटिश	-3535
▁f	-3536
▁पटना	-3537
ing	-3538
्यूट	-3539
चीत	-3540
▁आशा	-3541
▁गरी	-3542
▁जब्ती	-3543
▁मौलिक	-3544
देन	-3545
▁बताए	-3546
▁अंड	-3547
▁कोल	-3548
▁प्रि	-3549
▁सुश	-3550
▁शाह	-3551
▁संतोष	-3552
▁स्वामित्व	-3553
▁प्रमाणपत्र	-3554
▁बुनिया	-3555
▁प्रकाशन	-3556
▁आती	-3557
▁बातचीत	-3558
▁प्रविष्टि	-3559
३०	-3560
ॉट	-3561
▁साइ	-3562
▁डिजा	-3563
▁बकाया	-3564
▁विधिवत	-3565
▁गिरफ्तारी	-3566
▁अना	-3567
▁चिंत	-3568
▁कराने	-3569
▁कार्ड	-3570
ीप	-3571
▁स्टेट	-3572
▁आदमी	-3573
▁ख़	-3574
▁विवादित	-3575
यम	-3576
▁सील	-3577
▁टाइ	-3578
▁चा	-3579
▁उपक्रम	-3580
▁बरकरार	-3581
▁सभ	-3582
▁अधिकृत	-3583
▁किन्तु	-3584
▁अत्यंत	-3585
न्य	-3586
▁मल	-3587
▁चंद	-3588
▁मंच	-3589
स्लिम	-3590
▁पहुंचा	-3591
क्शन	-3592
▁बहन	-3593
▁कठिन	-3594
▁दंडनीय	-3595
▁अनुशासनात्मक	-3596
▁आंक	-3597
क्ष्म	-3598
▁नेटवर्क	-3599
▁तमिल	-3600
▁सिक	-3601
▁खात	-3602
▁कमरे	-3603
ॉप	-3604
र्या	-3605
▁मुस्लिम	-3606
▁लाप	-3607
▁उधार	-3608
याँ	-3609
ोधित	-3610
▁जैन	-3611
सभा	-3612
▁विजय	-3613
्रमण	-3614
▁रोड	-3615
▁औपचारिक	-3616
▁किराए	-3617
▁चरित्र	-3618
▁फ़ाइल	-3619
▁डाय	-3620
र्ज	-3621
▁एनआईसी	-3622
▁संज्ञान	-3623
ारक	-3624
▁काट	-3625
▁पहुंचे	-3626
AL	-3627
▁साइट	-3628
▁टिक	-3629
डब्ल्यू	-3630
▁ब्रह	-3631
▁नती	-3632
▁वाक	-3633
▁कराया	-3634
▁संस्कृति	-3635
▁000	-3636
▁बदलाव	-3637
ायिका	-3638
▁छोटा	-3639
▁तात	-3640
्शन	-3641
▁प्रणब	-3642
गो	-3643
▁ढां	-3644
पात	-3645
▁घंटे	-3646
कल्पिक	-3647
▁गृह	-3648
▁स्थानों	-3649
▁आपकी	-3650
▁चले	-3651
वेयर	-3652
▁वैकल्पिक	-3653
देव	-3654
▁हथियार	-3655
▁व्यावसायिक	-3656
▁प्रसन्न	-3657
▁उत्पादों	-3658
▁लंबे	-3659
लेक्ट	-3660
▁तेजी	-3661
▁नवंबर	-3662
▁पुराने	-3663
▁शुरुआत	-3664
▁बनी	-3665
▁हाउ	-3666
▁साधन	-3667
▁तह	-3668
्रेता	-3669
्राष्ट्रीय	-3670
▁विद्यार्थ	-3671
कर्ताओं	-3672
▁बुलाया	-3673
▁समग्र	-3674
▁संक्ष	-3675
ग्ध	-3676
▁खड़ा	-3677
▁चुना	-3678
▁खन	-3679
▁निल	-3680
▁अध्या	-3681
▁घटनाओं	-3682
शाली	-3683
▁अधिकरण	-3684
PC	-3685
न्ना	-3686
रोधी	-3687
▁अपराधी	-3688
ेंड	-3689
क्क	-3690
राज्य	-3691
▁काउंस	-3692
▁संगीत	-3693
ER	-3694
▁प्रतिनिधि	-3695
▁आवश्यकताओं	-3696
ोरी	-3697
राम	-3698
▁विनियमन	-3699
चलित	-3700
रम	-3701
▁मेल	-3702
▁दर्शाया	-3703
▁श्रृंखला	-3704
▁कित	-3705
श्किल	-3706
▁गठित	-3707
भाष	-3708
▁हिन्दी	-3709
▁उद्देश्यों	-3710
▁दिवस	-3711
▁प्रचार	-3712
शनल	-3713
ित्त	-3714
▁पीओ	-3715
▁संचालित	-3716
दारी	-3717
▁आदर्श	-3718
▁बातों	-3719
▁पूर्वा	-3720
▁विद्युत	-3721
▁अपवाद	-3722
▁डिजाइन	-3723
▁आंध	-3724
▁बध	-3725
mp	-3726
▁जोख	-3727
▁मुंबई	-3728
▁अदालतों	-3729
मूर्ति	-3730
▁पहलुओं	-3731
▁पाई	-3732
▁कां	-3733
▁नेता	-3734
▁तरीका	-3735
बि	-3736
▁स्वरूप	-3737
▁बुनियादी	-3738
▁महाराष्ट्र	-3739
ंडी	-3740
क्षणिक	-3741
▁स्थिर	-3742
▁विभागीय	-3743
un	-3744
▁डाला	-3745
नक	-3746
▁हाउस	-3747
▁निपटने	-3748
▁b	-3749
▁बौ	-3750
▁मुश्किल	-3751
्फ	-3752
▁क्रमश	-3753
पास	-3754
▁कर्तव्यों	-3755
▁बोझ	-3756
▁अतः	-3757
▁ग्रहण	-3758
मों	-3759
श्मीर	-3760
ाट	-3761
▁हृद	-3762
▁प्राचीन	-3763
▁इलेक्ट	-3764
स्य	-3765
▁सुनी	-3766
▁चै	-3767
ज्ञा	-3768
▁अभिलेख	-3769
त्तर	-3770
▁खी	-3771
▁पैसे	-3772
पूर्ति	-3773
▁अवमान	-3774
▁शीघ्र	-3775
▁काउंटर	-3776
रख	-3777
▁अकेले	-3778
ैया	-3779
बाल	-3780
ोसिए	-3781
▁शता	-3782
▁गौ	-3783
▁इलाज	-3784
▁जोखिम	-3785
▁सॉ	-3786
▁हाथों	-3787
फ्ट	-3788
▁लेनदेन	-3789
▁दह	-3790
▁खुलती	-3791
▁विधेयक	-3792
्याग	-3793
▁लो	-3794
र्ते	-3795
▁टुक	-3796
▁निवार	-3797
ठा	-3798
▁वायु	-3799
▁तट	-3800
यू	-3801
▁मस	-3802
▁समानता	-3803
▁अनुप्रयोग	-3804
▁केरल	-3805
▁गलती	-3806
▁बयानों	-3807
▁भागीदारी	-3808
▁फ्ल	-3809
▁स्वा	-3810
▁रिश्त	-3811
▁हस्तांतरण	-3812
लाइन	-3813
▁जाएंगे	-3814
ol	-3815
▁संपत्तियों	-3816
▁संक्षिप्त	-3817
▁बला	-3818
▁विंडों	-3819
▁आठ	-3820
क्षिक	-3821
▁मकान	-3822
ापि	-3823
▁ड्राइ	-3824
▁पहुंचने	-3825
▁जीवित	-3826
िद	-3827
▁अट	-3828
▁गुजर	-3829
▁अभिप	-3830
ृष्ट	-3831
▁आस्त	-3832
▁अंतरराष्ट्रीय	-3833
▁बश	-3834
▁धारणा	-3835
UD	-3836
▁नाते	-3837
▁महत्त्व	-3838
▁वेतनमान	-3839
▁अनुलग्न	-3840
▁सिस्ट	-3841
▁सफ	-3842
क्सर	-3843
▁शैक्षणिक	-3844
ya	-3845
▁कृप	-3846
▁आंध्र	-3847
ेश्वर	-3848
ंशिक	-3849
मानी	-3850
▁नष्ट	-3851
▁बधाई	-3852
▁यादव	-3853
▁आवंटित	-3854
▁उपबंधों	-3855
et	-3856
▁अली	-3857
▁जय	-3858
▁सीपीसी	-3859
oc	-3860
न्हीं	-3861
ंपरा	-3862
▁आवास	-3863
▁परिश	-3864
▁सेवाएं	-3865
▁हैः	-3866
▁साक्षी	-3867
▁आंतरिक	-3868
▁विधायिका	-3869
▁निरा	-3870
▁आमंत्रित	-3871
▁सदन	-3872
▁बढ़ावा	-3873
▁प्राथमिकी	-3874
▁सेवानिवृत्ति	-3875
वें	-3876
▁शेय	-3877
ुस	-3878
▁अधी	-3879
▁कमज	-3880
▁गाय	-3881
▁हानि	-3882
्यक	-3883
▁द्वितीय	-3884
व्यवस्था	-3885
▁अनुकूल	-3886
▁संबोधित	-3887
जह	-3888
▁इन्ह	-3889
▁मिस	-3890
▁फिल्म	-3891
▁लेता	-3892
▁ठेके	-3893
लांग	-3894
ज्ञात	-3895
▁सम्मेलन	-3896
खे	-3897
▁लेखक	-3898
रन	-3899
▁जटिल	-3900
ौल	-3901
▁गुना	-3902
▁समन्व	-3903
▁एसोसिए	-3904
▁विरोधा	-3905
▁पश्चिमी	-3906
▁डाक	-3907
▁परंपरा	-3908
ानु	-3909
भास	-3910
▁निलंब	-3911
म्बे	-3912
▁निर्भरता	-3913
▁रिया	-3914
▁पर्व	-3915
▁चिंता	-3916
▁बैंकों	-3917
▁अवधारणा	-3918
▁पाक	-3919
▁आयकर	-3920
▁अंततः	-3921
नाम	-3922
▁तथापि	-3923
त्न	-3924
▁प्री	-3925
▁दर्शन	-3926
▁बशर्ते	-3927
▁परिक	-3928
▁राव	-3929
ंत्रिक	-3930
जाति	-3931
▁सुनाई	-3932
▁बनने	-3933
▁किश	-3934
▁संतुल	-3935
▁अनुलग्नक	-3936
▁प्रत्या	-3937
▁जाया	-3938
▁सुश्री	-3939
▁शि	-3940
▁कलक	-3941
ुरा	-3942
▁स्थगित	-3943
्वेषण	-3944
▁क्रमशः	-3945
▁अर्थव्यवस्था	-3946
इड	-3947
▁शे	-3948
स्ते	-3949
▁घाव	-3950
ष्प	-3951
ांग	-3952
▁कब	-3953
रखाव	-3954
▁डिप	-3955
तल	-3956
▁ऑप	-3957
विधि	-3958
▁जोड़ा	-3959
धर	-3960
▁रखरखाव	-3961
▁क्रूर	-3962
▁करार	-3963
ाचार	-3964
▁नये	-3965
▁देखें	-3966
कस	-3967
▁अक्ष	-3968
▁टिप्पणियों	-3969
श्चात	-3970
मंडल	-3971
▁आश्व	-3972
ट्र	-3973
▁समृ	-3974
▁विनिर्दिष्ट	-3975
▁अन्	-3976
▁संभावित	-3977
▁आसपास	-3978
▁लक्ष्म	-3979
▁चुकी	-3980
▁डब्ल	-3981
▁मिलती	-3982
▁कोय	-3983
िष्क	-3984
बूझ	-3985
▁दृढ़	-3986
▁बाधा	-3987
▁दैनिक	-3988
▁डिग्री	-3989
▁हिन्दू	-3990
णु	-3991
ख्त	-3992
▁Cr	-3993
▁आरक्षण	-3994
िकरण	-3995
▁राजन	-3996
व्र	-3997
नु	-3998
▁जिनका	-3999
▁सेल	-4000
▁उत्स	-4001
▁कृपया	-4002
▁गहरा	-4003
िकाओं	-4004
▁शराब	-4005
▁असाधारण	-4006
▁कपड़े	-4007
▁पक्षकारों	-4008
▁जानता	-4009
कला	-4010
▁धम	-4011
▁हृदय	-4012
▁सुंदर	-4013
बत	-4014
▁पहा	-4015
▁समाव	-4016
▁शिक्षकों	-4017
ोदित	-4018
▁गुप्ता	-4019
मीटर	-4020
▁तस्व	-4021
▁गैस	-4022
▁एशिया	-4023
स्त्र	-4024
▁पहुँच	-4025
चित्र	-4026
▁आंशिक	-4027
▁चश्म	-4028
▁बताता	-4029
▁युक्त	-4030
▁पूर्ववर्ती	-4031
▁आख	-4032
▁एपी	-4033
▁अयोग	-4034
ेबल	-4035
▁ग्रेड	-4036
माग	-4037
▁लापर	-4038
▁इलेक्ट्र	-4039
▁सुविधाओं	-4040
दिग्ध	-4041
ॉन	-4042
el	-4043
▁हिम	-4044
▁भाषण	-4045
▁Ch	-4046
▁खींच	-4047
म्मद	-4048
▁जल्द	-4049
▁विफलता	-4050
▁प्रयुक्त	-4051
▁शुभ	-4052
▁ऑन	-4053
▁प्रयासों	-4054
▁आकस	-4055
शीट	-4056
▁इच्छुक	-4057
्रय	-4058
▁अपमान	-4059
▁गोली	-4060
▁वाता	-4061
▁नैतिक	-4062
▁मिलकर	-4063
▁संस्थाओं	-4064
▁तथ्यात्मक	-4065
थित	-4066
▁सिस्टम	-4067
▁आकस्मिक	-4068
▁रजिस्टर	-4069
▁संदिग्ध	-4070
▁करीब	-4071
▁अधिसूचित	-4072
रता	-4073
▁वजह	-4074
ुस्ता	-4075
कत	-4076
बाज	-4077
▁स्वीकृत	-4078
▁न्यायमूर्ति	-4079
ब्दी	-4080
भाविक	-4081
▁नाटक	-4082
▁जानबूझ	-4083
▁कक्षा	-4084
ानों	-4085
▁पूछा	-4086
▁एक्सट	-4087
ियान	-4088
▁सूक्ष्म	-4089
▁विद्यमान	-4090
▁साक्ष्यों	-4091
शय	-4092
िपि	-4093
▁आवंटन	-4094
▁समर्प	-4095
▁विद्यालय	-4096
▁खंडपीठ	-4097
▁अक्सर	-4098
▁आरक्षित	-4099
▁बलात्कार	-4100
प्पा	-4101
▁अपनाया	-4102
▁बढ़ाया	-4103
▁रस	-4104
आरएस	-4105
▁सेवानिवृत्त	-4106
्नों	-4107
▁उत्क	-4108
▁यूपी	-4109
▁चोटें	-4110
्रोल	-4111
▁बनाता	-4112
▁बहा	-4113
▁धारण	-4114
बीआई	-4115
▁कॉर्प	-4116
▁विषयों	-4117
▁विशेषता	-4118
सील	-4119
▁गुरु	-4120
▁पैमाने	-4121
▁निर्मा	-4122
▁असर	-4123
▁अनुमोदित	-4124
ड़न	-4125
▁उपयोगी	-4126
▁टन	-4127
▁Ext	-4128
▁एक्	-4129
▁फीस	-4130
▁शैक्षिक	-4131
▁आपका	-4132
ॉय	-4133
▁ज्ञात	-4134
▁नागरिकों	-4135
▁साफ	-4136
ill	-4137
▁आँ	-4138
▁बदले	-4139
▁हिंदी	-4140
▁सां	-4141
करी	-4142
▁समुद्र	-4143
▁वीं	-4144
▁बढ़ने	-4145
▁वीडियो	-4146
▁इत्या	-4147
▁ईसा	-4148
▁क्व	-4149
▁समस्याओं	-4150
▁गर्इ	-4151
ENT	-4152
▁दिमाग	-4153
१४	-4154
▁गौर	-4155
▁तल	-4156
▁रेखा	-4157
▁विमान	-4158
वो	-4159
ामा	-4160
▁दवा	-4161
▁मनो	-4162
▁मस्त	-4163
▁वातावरण	-4164
▁भागों	-4165
▁अंतर्राष्ट्रीय	-4166
दीद	-4167
ॉर्ट	-4168
▁अस्पष्ट	-4169
त्व	-4170
रान	-4171
▁नामक	-4172
▁दीवार	-4173
र्डर	-4174
age	-4175
▁रुपए	-4176
▁हितों	-4177
▁कश्मीर	-4178
▁शैली	-4179
▁अनुवाद	-4180
▁कलकत्ता	-4181
▁विकलांग	-4182
▁ड्यू	-4183
▁अवमानना	-4184
ॉल्ट	-4185
▁जहा	-4186
▁पैर	-4187
सु	-4188
▁इजर	-4189
▁जिनकी	-4190
▁चश्मदीद	-4191
GM	-4192
▁एप	-4193
्रित	-4194
▁हलफनामा	-4195
▁नारायण	-4196
▁खातों	-4197
▁अरब	-4198
▁m	-4199
दिक	-4200
वेट	-4201
▁बौद्ध	-4202
▁इंजीनियर	-4203
र्गी	-4204
▁समाय	-4205
▁सुख	-4206
▁धारक	-4207
▁वरिष्ठता	-4208
▁प्रोत्साहन	-4209
▁आंख	-4210
▁जानबूझकर	-4211
▁शिक्षण	-4212
▁नामित	-4213
▁त्याग	-4214
ड्ड	-4215
िने	-4216
ैट	-4217
▁मुआवजा	-4218
▁अभिन	-4219
कालीन	-4220
▁कंट	-4221
िसी	-4222
▁प्रतिबद्ध	-4223
ताव	-4224
▁कारक	-4225
▁भ्रष्ट	-4226
▁मिट्टी	-4227
▁शताब्दी	-4228
▁गंगा	-4229
▁फॉर्म	-4230
र्धन	-4231
निष्ठ	-4232
▁सारा	-4233
्राज	-4234
us	-4235
▁यौ	-4236
▁वेद	-4237
▁विधायी	-4238
▁बाग	-4239
▁दबाव	-4240
▁वापसी	-4241
▁तमिलना	-4242
्रीन	-4243
▁देखना	-4244
▁दूसरों	-4245
▁कानूनों	-4246
▁प्रस्तुति	-4247
तक	-4248
▁परिवर्तित	-4249
▁आर्	-4250
▁प्ले	-4251
श्विक	-4252
▁वारंट	-4253
▁विवादों	-4254
खन	-4255
▁सांस्कृत	-4256
▁स्टैंड	-4257
▁सांस्कृतिक	-4258
▁बदलने	-4259
▁महाम	-4260
▁पट्टे	-4261
सीसी	-4262
▁दहेज	-4263
ताब	-4264
ेक्टर	-4265
▁अर्जित	-4266
▁कुशल	-4267
▁कमजोर	-4268
▁रहेगा	-4269
▁पत्रों	-4270
▁शेयरों	-4271
▁बुद्धि	-4272
▁स्कूलों	-4273
▁द्र	-4274
▁प्ला	-4275
▁प्रसिद्ध	-4276
वाले	-4277
▁बताते	-4278
▁चार्जशीट	-4279
गु	-4280
▁प्रबंधक	-4281
han	-4282
काम	-4283
▁अनुसरण	-4284
▁पूजा	-4285
▁JUD	-4286
▁लाइन	-4287
ूद	-4288
▁ट्रांस	-4289
▁चिकित्स	-4290
▁प्रवर्तन	-4291
▁बताने	-4292
▁उपन्यास	-4293
जल	-4294
▁फूल	-4295
मार्ग	-4296
▁आलोक	-4297
▁रोगी	-4298
▁प्रभारी	-4299
्यापी	-4300
▁अवस	-4301
▁क्लॉज	-4302
▁सें	-4303
▁विरोधी	-4304
कुल	-4305
सीन	-4306
▁संबंधों	-4307
ोरेट	-4308
ज़ा	-4309
▁मंड	-4310
▁भेजे	-4311
▁फसल	-4312
▁कथा	-4313
▁किलो	-4314
umar	-4315
▁जल्दी	-4316
▁वर्गों	-4317
▁निरोध	-4318
च्छिक	-4319
▁प्रदू	-4320
▁तत्पश्चात	-4321
hi	-4322
ियमित	-4323
▁’	-4324
▁तहसील	-4325
▁खराब	-4326
▁नियत	-4327
▁स्थानांतरण	-4328
श्वास	-4329
ख़	-4330
्यव	-4331
▁यूनिट	-4332
ai	-4333
▁विस	-4334
▁ब्लॉक	-4335
ाइड	-4336
▁श्व	-4337
▁अंध	-4338
▁लापरवाही	-4339
▁डर	-4340
▁संगठ	-4341
▁इजरायल	-4342
▁जिम्मेदारी	-4343
▁पत्थ	-4344
▁क्रेड	-4345
▁द्वार	-4346
▁इत्यादि	-4347
▁g	-4348
▁भेदभाव	-4349
▁कार्यवाह	-4350
▁श्रमिक	-4351
os	-4352
▁मिनट	-4353
राबाद	-4354
▁अधीनस्थ	-4355
▁विवे	-4356
ot	-4357
▁पथ	-4358
▁अतिक	-4359
▁रुचि	-4360
▁अनियमित	-4361
▁सलाहकार	-4362
▁अन्तर्	-4363
▁परेशान	-4364
▁आउट	-4365
▁आपने	-4366
▁HC	-4367
▁इतने	-4368
▁तमिलनाडु	-4369
GMENT	-4370
▁JUDGMENT	-4371
▁प्रधानमंत्री	-4372
▁टीम	-4373
▁रजिस्ट्री	-4374
▁नवी	-4375
▁मजबूर	-4376
ec	-4377
िस्त	-4378
▁फी	-4379
▁अमेरिक	-4380
ंतिम	-4381
▁सबम	-4382
▁लक्षण	-4383
▁लगाना	-4384
▁जोड़ने	-4385
▁बचा	-4386
▁इमार	-4387
ढ़ी	-4388
िन्	-4389
▁तिर	-4390
▁गुणों	-4391
▁छत्त	-4392
ेह	-4393
प्रिय	-4394
▁ग्राहक	-4395
▁स्वाभाविक	-4396
▁पेटेंट	-4397
▁कार्यान्वयन	-4398
▁आईटी	-4399
धारी	-4400
▁दिये	-4401
्टम	-4402
▁बाकी	-4403
▁देयता	-4404
▁गर्म	-4405
▁ग्रे	-4406
▁सेवक	-4407
▁ठेकेदार	-4408
नामा	-4409
▁इंस्प	-4410
▁जैव	-4411
▁अर्ध	-4412
▁अनंतिम	-4413
ाब	-4414
ल्ला	-4415
मान्य	-4416
▁ब्रह्म	-4417
▁प्राण	-4418
▁राज्यपाल	-4419
▁खुले	-4420
▁चक्र	-4421
▁स्की	-4422
▁काव्य	-4423
▁किराया	-4424
▁क्रेडिट	-4425
▁पावर	-4426
▁आइ	-4427
▁Rs	-4428
▁विम	-4429
त्तम	-4430
▁अवकाश	-4431
संख	-4432
पान	-4433
▁शहरी	-4434
▁Kumar	-4435
▁प्रचलित	-4436
▁बीमारी	-4437
▁कार्यकाल	-4438
▁प्या	-4439
▁आसानी	-4440
▁अब्द	-4441
▁काउंसिल	-4442
▁गतिविधि	-4443
▁परिपत्र	-4444
▁भु	-4445
▁इन्हें	-4446
▁लोकतंत्र	-4447
▁रै	-4448
▁नवान	-4449
▁सिल	-4450
▁मांगी	-4451
▁सत्यापन	-4452
▁प्रतिस्प	-4453
▁ठोस	-4454
शास्त्र	-4455
▁पूर्वी	-4456
ियत	-4457
्चर	-4458
पोर्ट	-4459
▁सारी	-4460
कल	-4461
यत	-4462
▁कने	-4463
ज़र	-4464
▁अपर	-4465
▁खड़े	-4466
▁समझने	-4467
▁आह्वान	-4468
चित्य	-4469
▁अचान	-4470
स्टेबल	-4471
▁गणराज्य	-4472
ूब	-4473
▁आवाज	-4474
वित्र	-4475
▁फार्म	-4476
▁डिफ़	-4477
▁नीलामी	-4478
▁सशक्त	-4479
▁प्रश्नों	-4480
ूंगा	-4481
र्देश	-4482
▁अचानक	-4483
सीद	-4484
▁पल	-4485
ेंज	-4486
दर्शन	-4487
भावना	-4488
▁फंसा	-4489
दोष	-4490
▁हवा	-4491
▁पाकिस्तान	-4492
▁ठाक	-4493
▁प्राइवेट	-4494
र्घ	-4495
▁स्वै	-4496
▁अभियोजक	-4497
िनल	-4498
▁रास्ते	-4499
▁बेचने	-4500
▁सहारा	-4501
्लो	-4502
वानी	-4503
▁ड्र	-4504
हारिक	-4505
ेंडर	-4506
▁बीज	-4507
▁खुशी	-4508
▁सूचीबद्ध	-4509
पक	-4510
▁आश्च	-4511
▁मुसलमानों	-4512
▁गईं	-4513
▁वर्मा	-4514
▁डिफ़ॉल्ट	-4515
रस	-4516
▁पृथ्वी	-4517
▁दृष्टया	-4518
डेंसी	-4519
▁प्रत	-4520
▁चारों	-4521
▁जाएं	-4522
▁स्नात	-4523
▁संतुष्टि	-4524
▁आतंकवाद	-4525
▁साम्राज	-4526
▁e	-4527
▁ऑर्डर	-4528
▁ड्यूटी	-4529
▁सरकारों	-4530
▁संसाधनों	-4531
II	-4532
▁लंबी	-4533
▁आश्चर्य	-4534
▁छत्तीस	-4535
▁प्रवाह	-4536
▁भय	-4537
▁खेती	-4538
▁अधिकारिता	-4539
▁तीव्र	-4540
▁सुभाष	-4541
आईटी	-4542
▁अक्षम	-4543
गण	-4544
ोबार	-4545
▁लें	-4546
▁पॉल	-4547
मय	-4548
▁दोहराया	-4549
▁इनके	-4550
ार्ट	-4551
▁तत्कालीन	-4552
▁अजी	-4553
▁कठिनाई	-4554
▁मेमो	-4555
▁शिकार	-4556
▁सर्वा	-4557
▁प्रोग्राम	-4558
▁तात्काल	-4559
▁आये	-4560
▁जाह	-4561
▁अफ्री	-4562
▁गुप्त	-4563
▁दावों	-4564
लाल	-4565
ुरी	-4566
हत्या	-4567
▁भेजने	-4568
▁बचने	-4569
▁आयोजन	-4570
▁पात्रता	-4571
▁प्रेष	-4572
▁मानने	-4573
▁झग	-4574
▁तात्कालिक	-4575
िली	-4576
▁आक्रमण	-4577
▁निकालने	-4578
▁मस्तिष्क	-4579
▁सम्मानित	-4580
▁साज	-4581
▁असंगत	-4582
नो	-4583
▁प्रायः	-4584
esid	-4585
▁खत्म	-4586
▁विचारण	-4587
▁वर	-4588
▁चीज़	-4589
▁आरोपित	-4590
▁फें	-4591
▁कुंजी	-4592
▁मैदान	-4593
▁क्रूरता	-4594
om	-4595
▁कौशल	-4596
▁ज्यो	-4597
▁इंस्पेक्टर	-4598
▁हिंसा	-4599
▁प्रोट	-4600
▁शर्तें	-4601
▁बीमार	-4602
▁सुनने	-4603
क्षेत्र	-4604
ड़ीसा	-4605
▁विभाजित	-4606
▁शत्रुता	-4607
▁अतिक्रमण	-4608
▁फोट	-4609
▁अमरी	-4610
▁उत्पी	-4611
▁लेखों	-4612
▁निरीक्षक	-4613
▁शंकर	-4614
▁उठता	-4615
▁एसोसिएशन	-4616
▁बू	-4617
▁औचित्य	-4618
द्रास	-4619
▁अंतरण	-4620
जीवन	-4621
सिंह	-4622
मार्टम	-4623
बिट	-4624
नाएं	-4625
ादन	-4626
त्मिक	-4627
▁मजदूरी	-4628
▁पूर्वाग्रह	-4629
▁छत्तीसगढ़	-4630
्वा	-4631
▁सतर्क	-4632
ंडा	-4633
▁तुम्हें	-4634
▁पोस्टमार्टम	-4635
▁प्रतिस्पर्	-4636
स्थल	-4637
▁पुनरी	-4638
तिहासिक	-4639
▁मीडिया	-4640
▁दिला	-4641
▁वर्गीकरण	-4642
▁आत्महत्या	-4643
जतन	-4644
ेंद	-4645
्रदाय	-4646
▁शिश	-4647
▁सकारात्मक	-4648
▁नतीजतन	-4649
▁विरोधाभास	-4650
लर	-4651
▁चेतना	-4652
▁उत्कृष्ट	-4653
ANo	-4654
▁आध्या	-4655
▁दिशानि	-4656
लेट	-4657
क्षी	-4658
▁अशोक	-4659
▁देंगे	-4660
esident	-4661
▁संगठनों	-4662
▁होम	-4663
▁आसान	-4664
र्नी	-4665
▁चेन्न	-4666
▁स्वच्छ	-4667
▁दिशानिर्देश	-4668
▁हैद	-4669
▁टिप्पणी	-4670
ंभव	-4671
▁अहमद	-4672
▁नवीन	-4673
▁उड़ीसा	-4674
▁दूध	-4675
▁भरने	-4676
▁उद्योगों	-4677
▁तोड़	-4678
नाश	-4679
थी	-4680
त्ते	-4681
फर	-4682
▁मौसम	-4683
स्पर	-4684
▁किसानों	-4685
▁परियोजनाओं	-4686
▁शो	-4687
▁नेहर	-4688
▁बताओ	-4689
▁शुभकाम	-4690
▁ट्रै	-4691
▁शासित	-4692
▁सामग्र	-4693
्रण	-4694
▁CR	-4695
▁देर	-4696
▁इन्	-4697
ड़ियों	-4698
▁पवित्र	-4699
▁सबमिशन	-4700
▁कार्यक्रमों	-4701
AM	-4702
श्त	-4703
▁स्मृति	-4704
ानिक	-4705
दाताओं	-4706
▁प्रसन्नता	-4707
▁फिट	-4708
▁सख्त	-4709
▁पश्चात	-4710
ंपा	-4711
▁लगाई	-4712
▁सुलझ	-4713
▁चेहरे	-4714
▁मिशन	-4715
▁छो	-4716
▁जाल	-4717
▁प्रदत्त	-4718
जु	-4719
संख्या	-4720
▁खोलने	-4721
▁स्वागत	-4722
▁शास्त	-4723
▁NIC	-4724
▁प्रविष्ट	-4725
▁रण	-4726
▁Pra	-4727
▁गोल	-4728
▁नमूना	-4729
▁नकारात्मक	-4730
ड़ाई	-4731
▁सीट	-4732
▁लड़की	-4733
िकेशन	-4734
▁धमकी	-4735
▁रिटर्न	-4736
दर्शी	-4737
▁होटल	-4738
▁फे	-4739
▁उपायों	-4740
▁सुसंगत	-4741
▁व्यावहारिक	-4742
▁कारबार	-4743
▁निवारण	-4744
▁इंग्ल	-4745
सू	-4746
▁साध	-4747
▁बुरा	-4748
गाह	-4749
▁सैनिक	-4750
▁शक्तियां	-4751
▁समस्त	-4752
▁निपटाया	-4753
▁परिस्थित	-4754
▁रम	-4755
▁देखे	-4756
▁हैदराबाद	-4757
▁बनता	-4758
▁अधीक्षक	-4759
धरी	-4760
▁परस्पर	-4761
▁रव	-4762
▁प्रतियोग	-4763
▁करवा	-4764
▁रसीद	-4765
▁राजस्थान	-4766
रप	-4767
▁एडवो	-4768
▁तलाश	-4769
▁सूर्य	-4770
▁चैन	-4771
▁कायम	-4772
le	-4773
▁लाभों	-4774
▁आलो	-4775
▁उन्नत	-4776
पेक्ष	-4777
▁उत्तराधिकार	-4778
▁अभियंता	-4779
▁एडवोकेट	-4780
▁पक्षकार	-4781
कश	-4782
ंदन	-4783
दास	-4784
▁भूल	-4785
फ्टवेयर	-4786
▁ज्योति	-4787
▁राजनैतिक	-4788
▁चाकू	-4789
▁प्रतिद्व	-4790
▁बेह	-4791
▁SCA	-4792
▁आध्यात्मिक	-4793
▁दीर्घ	-4794
▁पर्यवे	-4795
▁सामग्रियों	-4796
▁नाथ	-4797
तीत	-4798
▁प्रतीक	-4799
▁विनियमों	-4800
▁रिहा	-4801
▁महत्त्वपूर्ण	-4802
ंकिंग	-4803
▁उत्पादित	-4804
ंदी	-4805
ूद्ध	-4806
▁ऐतिहासिक	-4807
▁भागी	-4808
▁विशेषकर	-4809
hat	-4810
▁औष	-4811
▁संगण	-4812
IN	-4813
▁प्रच	-4814
▁संविदा	-4815
ारों	-4816
▁गर्भ	-4817
▁विधिक	-4818
▁अपीलों	-4819
▁भरा	-4820
▁यूरोप	-4821
▁अगली	-4822
वाली	-4823
▁iii	-4824
▁खतरा	-4825
illage	-4826
▁अनुभाग	-4827
▁लिखने	-4828
▁जायेगा	-4829
माना	-4830
इस	-4831
किल	-4832
▁अनि	-4833
शीलता	-4834
▁संतुलन	-4835
▁अनुकंपा	-4836
▁समितियों	-4837
ादित	-4838
▁आवेदकों	-4839
▁विद्यार्थियों	-4840
▁कॉपी	-4841
▁सेंट	-4842
▁हवाई	-4843
▁बाबू	-4844
▁समन्वय	-4845
▁रिश्तेदार	-4846
▁असह	-4847
▁छाप	-4848
ोत	-4849
▁जुड़ा	-4850
▁बचाने	-4851
▁जनसंख्या	-4852
▁छिप	-4853
▁लेखन	-4854
▁सब्	-4855
▁दिनांकित	-4856
▁दाह	-4857
▁गरीब	-4858
▁in	-4859
▁अवश	-4860
▁शुभकामनाएं	-4861
▁विमर्श	-4862
▁लक	-4863
▁फाय	-4864
भोग	-4865
▁मोहन	-4866
▁दरवाजा	-4867
▁स्त्री	-4868
▁प्रोत्साहित	-4869
▁किशोर	-4870
▁रिक्तियों	-4871
पुट	-4872
▁वां	-4873
▁पेशे	-4874
▁अभियान	-4875
▁तस्वीर	-4876
▁माइ	-4877
द्दीन	-4878
▁चौधरी	-4879
▁अमेरिकी	-4880
हिम	-4881
▁प्रथा	-4882
▁उभर	-4883
▁गोद	-4884
▁प्रोफे	-4885
पीट	-4886
▁फोर	-4887
▁निरस्त	-4888
▁कांस्टेबल	-4889
▁गव	-4890
▁चीन	-4891
▁पिछली	-4892
▁डील	-4893
▁उनको	-4894
▁अयोग्य	-4895
▁संयंत्र	-4896
▁हार	-4897
▁निपटा	-4898
वीर	-4899
क्का	-4900
▁लोकप्रिय	-4901
▁प्रारूप	-4902
▁विश्वविद्यालयों	-4903
▁कक्ष	-4904
▁अवश्य	-4905
▁तीसरी	-4906
▁उत्पीड़न	-4907
भाग्य	-4908
▁तीनों	-4909
१५	-4910
परी	-4911
▁दया	-4912
खास्त	-4913
▁आवासी	-4914
▁बेल	-4915
▁प्रशंसा	-4916
▁उदार	-4917
▁चलने	-4918
▁सूत्र	-4919
▁एक्ज़	-4920
▁प्रतिद्वंद	-4921
▁मरने	-4922
▁प्राधिकार	-4923
▁प्रतिबंधित	-4924
रु	-4925
▁राजी	-4926
▁श्रेणीः	-4927
▁निगर	-4928
▁नेहरू	-4929
▁बाध्यकारी	-4930
▁निचली	-4931
▁ऑफिस	-4932
ग्रहित	-4933
▁खतरे	-4934
▁निगरानी	-4935
साइटी	-4936
▁सौंपा	-4937
▁प्रेस	-4938
ृष्ण	-4939
▁घात	-4940
▁मेसर्स	-4941
▁विधानमंडल	-4942
▁चढ़	-4943
▁ज़र	-4944
▁रीति	-4945
▁संकट	-4946
▁सोसाइटी	-4947
घात	-4948
िबिट	-4949
स्टर	-4950
▁पेड़	-4951
▁बाबत	-4952
▁लिखी	-4953
वां	-4954
▁आफ	-4955
AD	-4956
शे	-4957
▁शोध	-4958
ुस्तान	-4959
▁वैश्विक	-4960
▁रिस	-4961
▁नौकरी	-4962
▁वंश	-4963
ोरेशन	-4964
▁मोहम्मद	-4965
▁योजनाओं	-4966
ावली	-4967
▁मगर	-4968
▁ओआरएस	-4969
फोन	-4970
▁सीधी	-4971
▁हवाला	-4972
नाक	-4973
▁रवी	-4974
पों	-4975
▁सीमाओं	-4976
च्छा	-4977
▁विलंब	-4978
ास्थिति	-4979
▁बातें	-4980
कट	-4981
णिक	-4982
▁मछ	-4983
ation	-4984
▁एजेंट	-4985
▁नामांकन	-4986
▁पेंडेंसी	-4987
▁ठाकुर	-4988
▁मारपीट	-4989
▁पशु	-4990
ाधीन	-4991
▁छोड़ने	-4992
ादा	-4993
▁लिखे	-4994
▁वैसे	-4995
▁आनन्द	-4996
▁चलाया	-4997
▁टेक	-4998
▁भूखंड	-4999
▁वजन	-5000
▁एकता	-5001
▁कृत्य	-5002
▁मांस	-5003
▁स्वैच्छिक	-5004
कुमार	-5005
▁साक्षात्	-5006
ाले	-5007
ोने	-5008
णन	-5009
ैव	-5010
▁डिस्क	-5011
▁संसदीय	-5012
▁पुनरीक्षण	-5013
▁दशक	-5014
▁बुक	-5015
▁वहीं	-5016
▁पोर्ट	-5017
▁मान्य	-5018
▁लीज	-5019
▁शह	-5020
ीकृत	-5021
▁देखकर	-5022
▁राजेश	-5023
दों	-5024
▁चलते	-5025
▁निभा	-5026
▁वक्त	-5027
▁पेपर	-5028
▁मानना	-5029
ंदाज	-5030
▁जाहिर	-5031
▁बर्खास्त	-5032
▁बहुमत	-5033
▁साजिश	-5034
▁किनारे	-5035
▁जाकर	-5036
▁तीसरा	-5037
न्ड	-5038
िरा	-5039
▁Bi	-5040
कालिक	-5041
▁चालक	-5042
▁सोने	-5043
▁छत	-5044
▁यो	-5045
▁हरि	-5046
▁पत्थर	-5047
▁सन	-5048
▁DW	-5049
▁अनदे	-5050
▁अनुशासन	-5051
▁वीर	-5052
▁क्षतिपूर्ति	-5053
▁कदा	-5054
▁सिरे	-5055
जीत	-5056
न्धी	-5057
ूहिक	-5058
▁सृजन	-5059
▁उड़	-5060
▁हालत	-5061
▁कृत्यों	-5062
▁द्वीप	-5063
▁मार्क	-5064
▁राजमार्ग	-5065
▁अभिप्रे	-5066
▁अल्पसंख	-5067
▁कूट	-5068
▁थोड़ा	-5069
▁सामूहिक	-5070
हता	-5071
▁बताई	-5072
▁नो	-5073
▁स्कीम	-5074
पहर	-5075
▁समुचित	-5076
▁जर्म	-5077
▁सप	-5078
▁अन्याय	-5079
ul	-5080
▁रखें	-5081
▁बॉम्बे	-5082
▁हल्	-5083
▁महामहिम	-5084
▁चयनित	-5085
ैक्ट	-5086
▁संसार	-5087
▁मुह	-5088
कानूनी	-5089
चस्प	-5090
▁विहित	-5091
▁जितना	-5092
्ह	-5093
▁नाट	-5094
▁दौरा	-5095
▁प्रेरण	-5096
▁सेक	-5097
र्गीय	-5098
वाहिक	-5099
▁राजपत्र	-5100
▁मकस	-5101
▁खाना	-5102
▁दर्द	-5103
▁पार्क	-5104
▁मानता	-5105
▁मद्रास	-5106
▁विक्रेता	-5107
▁गैरकानूनी	-5108
णों	-5109
ड्डी	-5110
र्जन	-5111
▁पटेल	-5112
▁कारकों	-5113
ॉँ	-5114
▁जला	-5115
▁निर्दोष	-5116
▁न्यायपालिका	-5117
▁रास्ता	-5118
▁मात	-5119
▁सोसाय	-5120
ंकर	-5121
▁विरूद्ध	-5122
▁साम्राज्य	-5123
पत	-5124
ादेश	-5125
▁आवासीय	-5126
▁चीजों	-5127
▁कच्च	-5128
▁टेस्ट	-5129
▁डब्ल्यू	-5130
▁अत	-5131
्राउ	-5132
▁दबा	-5133
▁सीबीआई	-5134
▁मूल्यों	-5135
रोज	-5136
▁एकड़	-5137
▁कराई	-5138
▁जानने	-5139
▁ऑनलाइन	-5140
▁मानवीय	-5141
▁घटक	-5142
▁पीड़िता	-5143
▁घा	-5144
▁दिलचस्प	-5145
▁पेशकश	-5146
▁III	-5147
▁भंग	-5148
गोल	-5149
▁इंद	-5150
▁झूठे	-5151
▁अत्या	-5152
▁विधियों	-5153
ाउन	-5154
▁इकट्	-5155
▁ढांचे	-5156
▁दोपहर	-5157
▁ट्रे	-5158
▁पैके	-5159
▁मिश्रा	-5160
▁खुश	-5161
बालिग	-5162
▁गवर्न	-5163
▁इमारत	-5164
केश	-5165
र्ध	-5166
▁उन्म	-5167
▁खण्ड	-5168
▁ध्वनि	-5169
▁नाबालिग	-5170
▁ओवर	-5171
▁मकसद	-5172
खों	-5173
वारी	-5174
्यूल	-5175
▁अवैधता	-5176
▁प्रतिष्ठा	-5177
▁शत्रुतापूर्ण	-5178
▁चुने	-5179
▁सेमी	-5180
▁खरीदने	-5181
▁एक्ज़िबिट	-5182
▁बहस	-5183
▁नमूने	-5184
▁प्रयोगशाला	-5185
▁अय	-5186
वत	-5187
स्स	-5188
▁इंस्ट	-5189
▁प्रयत्न	-5190
▁हा	-5191
▁दलीलों	-5192
▁कारोबार	-5193
▁सोसायटी	-5194
तावनी	-5195
▁दुर्बल	-5196
ेजी	-5197
▁किस्म	-5198
▁आपत्तियों	-5199
▁मुकदमेबाजी	-5200
▁पौध	-5201
ांकित	-5202
▁दलों	-5203
▁उत्तरी	-5204
▁पूर्ति	-5205
▁स्वर	-5206
▁विकृत	-5207
▁लु	-5208
▁कव	-5209
▁चेतावनी	-5210
▁पाँच	-5211
▁पुरानी	-5212
▁अस्वीकृति	-5213
▁ताप	-5214
▁आकाश	-5215
▁राजनीति	-5216
▁विभागों	-5217
▁प्रवृत्ति	-5218
▁आधारों	-5219
▁साक्षात्कार	-5220
▁प्रोफेसर	-5221
▁स्थितियों	-5222
▁अचल	-5223
▁पंड	-5224
▁पांडे	-5225
ोचित	-5226
▁अफ्रीका	-5227
▁श्रेष्ठ	-5228
▁सत्यापित	-5229
स्थापन	-5230
▁गुल	-5231
▁मॉडल	-5232
▁उज	-5233
▁मेन	-5234
सायनिक	-5235
▁मुद्र	-5236
▁प्राधिकृत	-5237
बन्ध	-5238
▁चेन्नई	-5239
दिन	-5240
▁मोड	-5241
▁देखी	-5242
▁समापन	-5243
▁आरम्भ	-5244
▁यंत्र	-5245
▁प्रतिद्वंद्वी	-5246
▁आवेदनों	-5247
▁नगरपालिका	-5248
ामक	-5249
▁डायरी	-5250
▁कार्यरत	-5251
लाब	-5252
▁जंग	-5253
▁तकनीक	-5254
▁इकाइयों	-5255
▁पक्षपात	-5256
रू	-5257
▁जता	-5258
▁निः	-5259
निहित	-5260
क़्त	-5261
म्मत	-5262
▁मासिक	-5263
▁मानकों	-5264
ir	-5265
साद	-5266
्वत	-5267
▁करो	-5268
▁व्याया	-5269
▁जगत	-5270
डीए	-5271
▁आश्वासन	-5272
▁मानदंडों	-5273
▁खाने	-5274
▁निर्णायक	-5275
▁पाता	-5276
▁मार्	-5277
▁एआईआर	-5278
▁घातक	-5279
▁बढ़ती	-5280
▁फैसलों	-5281
▁सर्वाधिक	-5282
▁कं	-5283
▁कीट	-5284
▁रुख	-5285
न्द्रनाथ	-5286
▁उच्चतर	-5287
अल	-5288
▁हरिया	-5289
ादक	-5290
भारत	-5291
▁साझा	-5292
▁प्रदूषण	-5293
▁यथा	-5294
▁IPC	-5295
▁चालू	-5296
विंद	-5297
▁उपयोगकर्ता	-5298
▁सहज	-5299
▁क्ला	-5300
▁दंडित	-5301
▁प्रतिव	-5302
▁k	-5303
▁डालने	-5304
▁उपकरणों	-5305
ंगति	-5306
▁चीनी	-5307
▁बंधक	-5308
▁रोका	-5309
▁नग	-5310
▁अनाव	-5311
▁दोस्त	-5312
▁विपणन	-5313
र्कों	-5314
▁कितना	-5315
▁यथास्थिति	-5316
▁यौन	-5317
▁ग्रंथ	-5318
▁अभिप्रेत	-5319
▁नेशनल	-5320
▁स्वर्गीय	-5321
▁मिलाकर	-5322
▁मधु	-5323
▁अपरि	-5324
▁अब्दुल	-5325
▁सॉफ्टवेयर	-5326
िमय	-5327
विचार	-5328
▁संवाद	-5329
▁मशीनरी	-5330
ut	-5331
घर	-5332
▁आकर	-5333
▁अकाद	-5334
▁अगला	-5335
▁गीत	-5336
▁दस्तावेजी	-5337
ari	-5338
कोर्ट	-5339
▁बुद्ध	-5340
▁अवसरों	-5341
▁बैंकिंग	-5342
▁अज्ञात	-5343
▁प्रतिभा	-5344
ॉनिक	-5345
लिंग	-5346
ल्डर	-5347
▁चिप	-5348
▁जड़	-5349
▁पूर्ववर्ष	-5350
▁बढ़े	-5351
▁वितरित	-5352
जन्य	-5353
▁हमले	-5354
▁OS	-5355
▁संध	-5356
▁पैनल	-5357
▁ताकत	-5358
▁निर्माता	-5359
ोई	-5360
क्सी	-5361
▁असाम	-5362
▁तरीकों	-5363
▁जनजाति	-5364
▁मौका	-5365
▁निपटारा	-5366
वंश	-5367
▁नार	-5368
▁वचन	-5369
▁स्तंभ	-5370
▁गोप	-5371
मार्क	-5372
त्तियां	-5373
ेदी	-5374
▁मंज	-5375
▁सटी	-5376
▁सदा	-5377
▁अजीब	-5378
▁रहित	-5379
पीय	-5380
▁चतु	-5381
सुर	-5382
▁सर्वोत्तम	-5383
UR	-5384
▁सागर	-5385
▁बच्चा	-5386
▁निष्क्रिय	-5387
ज़ी	-5388
▁अंकित	-5389
टो	-5390
▁ब्राह	-5391
पय	-5392
▁PO	-5393
▁भेजी	-5394
़्य	-5395
▁रासायनिक	-5396
क्षीय	-5397
▁गंभीरता	-5398
▁सुविधाएं	-5399
▁प्रिय	-5400
▁अवगत	-5401
▁ईमान	-5402
▁अंतराल	-5403
▁प्रक्रियाओं	-5404
▁निलंबन	-5405
▁भंडारण	-5406
▁बनाते	-5407
▁स्थगन	-5408
▁वाणिज्य	-5409
यक	-5410
एगा	-5411
ah	-5412
हाबाद	-5413
▁परिकल्पना	-5414
लित	-5415
▁the	-5416
▁अकबर	-5417
▁चिंतन	-5418
▁बजा	-5419
▁पैकेज	-5420
▁समावेश	-5421
▁सावधानीपूर्वक	-5422
▁l	-5423
▁मैने	-5424
▁निर्वि	-5425
▁विरासत	-5426
▁उत्तराधिकारी	-5427
शक्ति	-5428
▁इंटरनेट	-5429
▁परमाण	-5430
▁सर्वर	-5431
▁प्रतिप	-5432
▁नियोजित	-5433
▁उल्लेखनीय	-5434
ंजा	-5435
गमन	-5436
बीर	-5437
▁चम	-5438
▁पोषण	-5439
▁फेंक	-5440
▁अन्तर	-5441
▁निधन	-5442
▁ऑपरेट	-5443
▁नै	-5444
्राव	-5445
▁कुमारी	-5446
▁सिफारिशों	-5447
▁भाषाओं	-5448
ay	-5449
्रल	-5450
▁परिसम	-5451
ab	-5452
▁तैनात	-5453
▁मनमाना	-5454
काब	-5455
▁अन्दर	-5456
▁समझाया	-5457
छा	-5458
▁शेयरधार	-5459
▁समर्पित	-5460
▁इश	-5461
▁समर्थित	-5462
▁झा	-5463
▁शेख	-5464
▁आदान	-5465
▁किलोमीटर	-5466
▁मेर	-5467
▁लड़के	-5468
▁पंचनामा	-5469
ोश	-5470
▁बालक	-5471
▁दान	-5472
▁नयी	-5473
▁शिख	-5474
ेटी	-5475
▁हेड	-5476
ष्णु	-5477
▁ग्राहकों	-5478
▁सतह	-5479
▁कागज	-5480
▁नियमितीकरण	-5481
▁हाईकोर्ट	-5482
गामी	-5483
्मा	-5484
ब्लिक	-5485
▁क्यू	-5486
▁संरक्षित	-5487
IL	-5488
ेत	-5489
एसएल	-5490
▁होंगी	-5491
▁दावेदारों	-5492
पीएस	-5493
▁उपे	-5494
▁पड़ी	-5495
▁फ़िल	-5496
मेल	-5497
▁मण	-5498
▁amp	-5499
▁भावी	-5500
▁जमी	-5501
काता	-5502
▁आना	-5503
▁संगम	-5504
ak	-5505
▁ऑफ़	-5506
▁सिवाय	-5507
▁महीनों	-5508
▁किताब	-5509
▁गर्दन	-5510
▁अभियोगी	-5511
▁विनिर्माण	-5512
▁सचे	-5513
▁उपाध	-5514
▁ऊपरी	-5515
▁परिणामी	-5516
िरी	-5517
म्मा	-5518
▁बहाल	-5519
▁शुक्र	-5520
▁तद	-5521
ोषित	-5522
▁नवान्वेषण	-5523
▁कति	-5524
दाबाद	-5525
▁खि	-5526
▁डो	-5527
घाटन	-5528
▁सरदार	-5529
वासियों	-5530
▁समूहों	-5531
▁सर्विस	-5532
▁h	-5533
▁आजीवन	-5534
र्की	-5535
▁कमेटी	-5536
▁उपलब्धता	-5537
▁कोशिका	-5538
▁नकदी	-5539
▁वर्षा	-5540
▁अपनाने	-5541
ावट	-5542
्त्र	-5543
▁बैठे	-5544
▁नीतियों	-5545
वों	-5546
▁गहरी	-5547
▁लंबाई	-5548
▁त्वरित	-5549
▁विनियमित	-5550
▁भ्रष्टाचार	-5551
▁खनिज	-5552
▁Village	-5553
IT	-5554
▁पहुँ	-5555
▁तैयारी	-5556
मेन	-5557
▁वसूल	-5558
▁इलाहाबाद	-5559
▁भूत	-5560
▁रवि	-5561
▁जागर	-5562
▁NO	-5563
▁असंभव	-5564
▁असमान	-5565
▁कार्यवाहियों	-5566
ज्ञेय	-5567
▁प्रभाग	-5568
यान	-5569
द्री	-5570
▁आखिर	-5571
▁लड़ाई	-5572
▁त्वचा	-5573
▁चाय	-5574
ग्रस्त	-5575
▁कितनी	-5576
▁माध्यमिक	-5577
▁एस्ट	-5578
▁मुला	-5579
▁वांछ	-5580
▁पुनर्वास	-5581
▁छि	-5582
▁पेट्रोल	-5583
वरों	-5584
▁निश्चय	-5585
▁टेलीफोन	-5586
▁व्यवस्थित	-5587
▁इंजीनियरिंग	-5588
▁दुख	-5589
ॉर्नी	-5590
▁इंकार	-5591
▁आलोचना	-5592
ख्यात	-5593
▁पैसा	-5594
▁लिंग	-5595
▁मामूली	-5596
भाषा	-5597
िल्प	-5598
▁सिंध	-5599
▁विनिमय	-5600
▁हस्तांतरित	-5601
ोजी	-5602
▁स्थिरता	-5603
▁सम्बन्धी	-5604
▁झार	-5605
▁धात	-5606
दियों	-5607
▁चिंतित	-5608
▁हरियाणा	-5609
▁जीत	-5610
▁जुड़	-5611
▁स्वभाव	-5612
▁एयर	-5613
▁कदाचार	-5614
▁स्वस्थ	-5615
िष्	-5616
▁अख	-5617
▁सोचा	-5618
▁कतिपय	-5619
▁अनिश्चित	-5620
खाने	-5621
ान्य	-5622
▁and	-5623
▁यूनियन	-5624
क्व	-5625
िपल	-5626
▁अटॉर्नी	-5627
▁क्रमांक	-5628
▁लिंक	-5629
▁सुनील	-5630
▁प्रस्तुतियाँ	-5631
▁दायित्वों	-5632
▁बोस	-5633
▁जहाज	-5634
▁चाहती	-5635
▁अधिनियमित	-5636
ल्ली	-5637
▁मृत्युदंड	-5638
▁नोड	-5639
▁सतर्कता	-5640
▁रानी	-5641
▁हैंः	-5642
▁अधिरो	-5643
▁साझेदारी	-5644
▁डीडब्ल्यू	-5645
▁आराम	-5646
▁स्टॉक	-5647
▁निर्विवाद	-5648
▁प्रोवि	-5649
▁प्रतिवाद	-5650
▁विशेषाधिकार	-5651
स्फ	-5652
▁प्रेरणा	-5653
ंचाई	-5654
▁बांध	-5655
▁नेताओं	-5656
▁परिणामों	-5657
्याव	-5658
▁गेंद	-5659
▁विंडो	-5660
▁छवि	-5661
▁डीड	-5662
▁WPNo	-5663
▁अग्रणी	-5664
▁प्रतिल	-5665
्यूम	-5666
▁गहन	-5667
▁मालिकों	-5668
▁सफेद	-5669
▁चली	-5670
▁उत्साह	-5671
▁धर	-5672
▁मुंह	-5673
▁पड़ेगा	-5674
▁व्यायाम	-5675
▁स्क्रीन	-5676
▁अधिग्रहित	-5677
▁पार्	-5678
▁फैला	-5679
▁इनका	-5680
▁अपनाई	-5681
▁वस्तुत	-5682
र्पण	-5683
िज्ञ	-5684
▁शंकरा	-5685
▁विक्रय	-5686
▁अभिक	-5687
▁रहें	-5688
▁अपह	-5689
▁घटनास्थल	-5690
ेरे	-5691
▁कैडर	-5692
▁बारह	-5693
▁चाव	-5694
▁परमाणु	-5695
▁कोलकाता	-5696
▁इलेक्ट्रॉनिक	-5697
▁सिटी	-5698
▁बारी	-5699
▁टू	-5700
▁रुक	-5701
▁गांवों	-5702
कीर्ण	-5703
शिष्ट	-5704
▁जरिए	-5705
▁हेम	-5706
▁जुड़ी	-5707
▁वैवाहिक	-5708
हान	-5709
िटल	-5710
ुका	-5711
ेंशन	-5712
▁हार्	-5713
▁अर्जी	-5714
▁उपहार	-5715
▁बाह्य	-5716
धारित	-5717
▁अंतः	-5718
▁वृक्ष	-5719
▁श्रेणियों	-5720
▁नकद	-5721
▁पूरक	-5722
▁अल्पसंख्यक	-5723
मैन	-5724
▁फैल	-5725
▁सर्ट	-5726
▁पूर्वव्यापी	-5727
▁अधिकतर	-5728
अर	-5729
ड़ब	-5730
▁ग्रस्त	-5731
▁पुस्तकों	-5732
िर्	-5733
अंदाज	-5734
▁समेक	-5735
▁क्लब	-5736
▁ट्यू	-5737
▁मध्यम	-5738
▁मास्टर	-5739
▁१६	-5740
▁आस्ति	-5741
▁बंदूक	-5742
▁अंतर्निहित	-5743
▁संक्रमण	-5744
▁संतोषजनक	-5745
▁चलो	-5746
▁कोयला	-5747
▁तत्वों	-5748
▁पाइ	-5749
▁रिज	-5750
ोक्ति	-5751
▁दुश्म	-5752
▁गज	-5753
▁पॉ	-5754
▁चुप	-5755
▁रिकॉर्डिंग	-5756
▁टक	-5757
▁अमान्य	-5758
▁इंडियन	-5759
▁कार्ब	-5760
▁याचिकाएं	-5761
एमसी	-5762
चालित	-5763
▁दुखी	-5764
▁एजेंस	-5765
▁रेड्डी	-5766
▁तहसीलदार	-5767
यल	-5768
▁नान	-5769
ायें	-5770
▁दमन	-5771
▁चैनल	-5772
▁मारने	-5773
▁सिंचाई	-5774
शिप	-5775
▁भ्रम	-5776
▁ससुर	-5777
▁अग्रवाल	-5778
▁महात्मा	-5779
विज्ञान	-5780
▁पश	-5781
ाजित	-5782
▁प्रता	-5783
▁खट	-5784
▁खनन	-5785
ate	-5786
रेख	-5787
▁महानि	-5788
▁समृद्ध	-5789
यें	-5790
▁कितने	-5791
▁फंसाया	-5792
▁रियायत	-5793
▁सदस्यता	-5794
iv	-5795
▁पोत	-5796
▁लोड	-5797
▁सिक्	-5798
▁सभ्यता	-5799
▁कॉलेजों	-5800
▁सौर	-5801
ch	-5802
▁सोम	-5803
बाई	-5804
राशि	-5805
▁टिकट	-5806
▁वक्फ	-5807
▁विकलांगता	-5808
िलों	-5809
▁विस्तारित	-5810
▁चन्द्र	-5811
▁In	-5812
▁उन्	-5813
▁खुली	-5814
▁मिलियन	-5815
ingh	-5816
▁कैप	-5817
▁सेन	-5818
त्त्व	-5819
ंठ	-5820
▁शौ	-5821
▁बेद	-5822
▁आहार	-5823
▁भरे	-5824
▁लखन	-5825
ॉर्टम	-5826
▁अखिल	-5827
▁अनधिक	-5828
▁आशंका	-5829
▁पर्यटन	-5830
▁ब्राह्म	-5831
▁अन्तर्गत	-5832
लिया	-5833
▁सर्क	-5834
▁स्वे	-5835
▁अद्य	-5836
ल्हा	-5837
▁प्रतिनिधियों	-5838
▁प्यार	-5839
▁पोस्टम	-5840
ुरु	-5841
▁बचत	-5842
▁संभाल	-5843
▁विनय	-5844
▁सदैव	-5845
़्त	-5846
एसआई	-5847
▁प्रतियोगिता	-5848
डिट	-5849
▁..	-5850
▁...	-5851
▁Bihar	-5852
▁पदार्थों	-5853
▁एओ	-5854
▁व्यक्तित्व	-5855
▁लकड़ी	-5856
▁स्वतः	-5857
▁नजरअंदाज	-5858
दुर	-5859
▁खेत	-5860
▁बेटा	-5861
िवेश	-5862
तरनाक	-5863
▁क्रिकेट	-5864
▁सल	-5865
▁तिल	-5866
▁सर्टिफ	-5867
▁मार्गदर्शन	-5868
▁पौधों	-5869
▁सम्पूर्ण	-5870
▁प्रतीक्षा	-5871
सूर	-5872
▁संवर्धन	-5873
ud	-5874
ैर	-5875
पण	-5876
िश्न	-5877
▁परिचित	-5878
▁वार्ता	-5879
▁सच्चाई	-5880
ug	-5881
▁मेट	-5882
▁इक्व	-5883
ES	-5884
▁शंकराचार्य	-5885
▁IT	-5886
▁बजट	-5887
र्याप्त	-5888
▁प्रतिभूति	-5889
▁सीम	-5890
▁साथी	-5891
▁हिमा	-5892
▁राजधानी	-5893
▁प्रतिस्थापित	-5894
द्धा	-5895
▁सद्	-5896
लक	-5897
ूर्त	-5898
सीटी	-5899
▁उपखंड	-5900
▁आर्बिट	-5901
▁झारखंड	-5902
▁घु	-5903
▁न्यायसंगत	-5904
▁हिंदुस्तान	-5905
▁छे	-5906
▁लेती	-5907
▁परमिट	-5908
▁एव	-5909
▁शुरु	-5910
▁पोस्टमॉर्टम	-5911
▁लगने	-5912
▁इकट्ठा	-5913
▁सुनाया	-5914
▁वास्तविकता	-5915
्याम	-5916
▁दत्त	-5917
▁फिली	-5918
▁मुकाब	-5919
▁पच	-5920
▁निस्स	-5921
ोब	-5922
▁चौथ	-5923
▁दुः	-5924
▁वहन	-5925
▁सुदृ	-5926
▁विद्र	-5927
▁दरों	-5928
▁पीछा	-5929
OR	-5930
शो	-5931
▁निर्वाचित	-5932
भेद	-5933
▁उतना	-5934
▁अंजाम	-5935
▁उत्तेज	-5936
ौदा	-5937
▁आइट	-5938
▁कोटा	-5939
▁पंडित	-5940
▁Singh	-5941
▁निहितार्थ	-5942
▁मरम्मत	-5943
▁असली	-5944
▁मिटा	-5945
▁सुपर	-5946
्राफ्ट	-5947
▁अनावश्यक	-5948
▁अपर्याप्त	-5949
डिंग	-5950
▁मालूम	-5951
ब्बे	-5952
▁घूम	-5953
▁चोरी	-5954
▁जनहित	-5955
▁मिलते	-5956
▁मिलेगा	-5957
▁सकल	-5958
▁निरसन	-5959
इश	-5960
लभ	-5961
ल्स	-5962
▁खड़ी	-5963
▁समुद्री	-5964
▁इंग्लैंड	-5965
ॉम	-5966
मूल	-5967
▁कोट	-5968
▁विसंगति	-5969
▁शिकायतों	-5970
▁कोष	-5971
▁जवाह	-5972
▁पंक्ति	-5973
▁लक्ष्मी	-5974
ant	-5975
ोल्डर	-5976
▁रसाय	-5977
्सों	-5978
▁टाइम	-5979
▁नौकर	-5980
बु	-5981
ांतिक	-5982
▁प्लान	-5983
▁बताती	-5984
▁हिमाचल	-5985
ध्य	-5986
▁चालान	-5987
▁ब्यू	-5988
▁मारा	-5989
▁बैग	-5990
▁खतरनाक	-5991
▁विष्णु	-5992
▁उद्घाटन	-5993
नगर	-5994
▁टूट	-5995
▁सना	-5996
▁पांड	-5997
▁मैसर्स	-5998
▁नियंत्रक	-5999
ांश	-6000
धियों	-6001
▁बॉक्स	-6002
▁प्रशास	-6003
▁संभवतः	-6004
▁सहन	-6005
वती	-6006
▁पुष्प	-6007
ब्र	-6008
वायु	-6009
▁पीडी	-6010
▁लिप	-6011
▁रहेंगे	-6012
ानंद	-6013
▁कहान	-6014
▁मूलभूत	-6015
▁विवेका	-6016
तांत्रिक	-6017
यंस	-6018
▁डिफ	-6019
▁निवेदन	-6020
▁श्रमिकों	-6021
▁सटीक	-6022
▁परिषद्	-6023
कोश	-6024
▁चू	-6025
▁जाग	-6026
▁कमिश्न	-6027
▁शुद्धता	-6028
▁धु	-6029
▁इंत	-6030
▁मिथ	-6031
▁चार्ट	-6032
▁भंडार	-6033
▁ठहराने	-6034
र्थी	-6035
▁देवता	-6036
▁पब्लिक	-6037
▁संवेदन	-6038
▁कड़ी	-6039
▁हार्दिक	-6040
ET	-6041
चलन	-6042
▁बेश	-6043
चंद्र	-6044
▁प्रस्तावों	-6045
▁CO	-6046
▁डीलर	-6047
▁जागरूक	-6048
▁स्वर्ण	-6049
▁स्वचालित	-6050
▁आइटम	-6051
▁एक्सप	-6052
▁प्रतिदिन	-6053
ro	-6054
▁पाद	-6055
क्ष्य	-6056
▁ताजा	-6057
▁धनराशि	-6058
▁बौद्धिक	-6059
गन	-6060
▁प्रिंट	-6061
▁कमा	-6062
▁बनाकर	-6063
RI	-6064
▁घटा	-6065
▁शोर	-6066
▁फ़िल्म	-6067
▁चिकित्सक	-6068
▁फलस्वरूप	-6069
▁अंकों	-6070
▁अमर	-6071
gar	-6072
िष्कार	-6073
्लिकेशन	-6074
▁पुनर्विचार	-6075
न्थ	-6076
▁सूर	-6077
▁हड्डी	-6078
▁नीतिगत	-6079
▁नाक	-6080
िमांड	-6081
▁प्रम	-6082
▁तदर्थ	-6083
▁फॉर	-6084
▁बाएं	-6085
▁समायोजित	-6086
▁विश्वसनीयता	-6087
▁न्यास	-6088
▁बताना	-6089
▁जातियों	-6090
▁शान	-6091
▁विनाश	-6092
▁प्रतिलिपि	-6093
AS	-6094
▁उतार	-6095
▁प्रिंस	-6096
▁सर्टिफिकेट	-6097
पु	-6098
▁डाटा	-6099
▁शांत	-6100
▁दिव्य	-6101
▁रहेगी	-6102
▁हिस्सों	-6103
ागर	-6104
▁हॉ	-6105
ेलना	-6106
▁एमओ	-6107
▁पढ़े	-6108
▁तुम्हारे	-6109
av	-6110
बो	-6111
गोर	-6112
▁निचले	-6113
▁परिचय	-6114
▁इंजीनिय	-6115
कात	-6116
▁छुप	-6117
चंद	-6118
▁बनाये	-6119
क्टरों	-6120
▁प्रणाल	-6121
▁मनी	-6122
▁शिखर	-6123
▁संजय	-6124
ंपरिक	-6125
▁चुनौ	-6126
▁विभिन्	-6127
▁व्यापारी	-6128
▁कामगार	-6129
▁अप्रत्य	-6130
▁प्रदर्शनी	-6131
▁सीन	-6132
▁सुस	-6133
▁इंट	-6134
▁घरों	-6135
▁एक्सच	-6136
▁गरीबी	-6137
▁संदाय	-6138
▁गोपनीय	-6139
▁ब्रिटेन	-6140
▁केंद्रित	-6141
▁वर्गीकृत	-6142
re	-6143
िकी	-6144
▁शहरों	-6145
▁समझते	-6146
▁स्नातक	-6147
▁रायपुर	-6148
▁निरंतरता	-6149
▁बर्खास्तगी	-6150
▁ऑडिट	-6151
▁टर्म	-6152
▁लेनदार	-6153
▁प्रेषित	-6154
टने	-6155
▁बन्द	-6156
▁सांप	-6157
▁सीडी	-6158
▁आजादी	-6159
▁टो	-6160
▁doc	-6161
▁कष्ट	-6162
▁पीड़ा	-6163
▁परिस्थितिजन्य	-6164
बन	-6165
▁पहच	-6166
▁बाय	-6167
▁नेत्र	-6168
▁मतदान	-6169
▁तृ	-6170
▁सीटों	-6171
▁हथिया	-6172
पूर	-6173
रिव	-6174
▁रेख	-6175
▁अद्यतन	-6176
रद	-6177
▁उतर	-6178
▁लॉग	-6179
▁स्त्र	-6180
▁झूठा	-6181
नीति	-6182
जनन	-6183
▁अल्	-6184
▁बैक	-6185
▁टिका	-6186
▁पौधे	-6187
▁resident	-6188
ापति	-6189
दल	-6190
हल	-6191
▁शीट	-6192
▁टाउन	-6193
िवारिक	-6194
▁दम	-6195
▁ज्व	-6196
▁बोलने	-6197
खल	-6198
ष्ठा	-6199
▁एसटी	-6200
▁दक्षता	-6201
▁सुदृढ़	-6202
भु	-6203
▁संप्र	-6204
▁अविश्वास	-6205
▁उपायुक्त	-6206
▁सोन	-6207
▁पत्त	-6208
▁मूर्ति	-6209
▁दुर्बलता	-6210
▁कनेक्शन	-6211
▁दुर्भाग्य	-6212
▁फोटो	-6213
▁लॉर्ड	-6214
▁वाक्य	-6215
▁विधानसभा	-6216
रिक्ष	-6217
▁इसील	-6218
▁कहां	-6219
▁महाध	-6220
▁पारिवारिक	-6221
▁इनकी	-6222
▁शिशु	-6223
▁प्रवृत्त	-6224
▁अनियमितता	-6225
▁वास	-6226
▁क्षण	-6227
▁जिनसे	-6228
ज्ज	-6229
दात	-6230
▁कमिश्नर	-6231
अप	-6232
विक	-6233
▁नृत	-6234
▁जंगल	-6235
▁मनमानी	-6236
▁विविधता	-6237
▁पारंपरिक	-6238
AG	-6239
▁भत्ता	-6240
▁ष	-6241
▁छाया	-6242
▁प्रबल	-6243
▁साधनों	-6244
दीप	-6245
▁नामों	-6246
▁असामान्य	-6247
०क	-6248
▁आबंट	-6249
▁द्विप	-6250
वै	-6251
▁अपहरण	-6252
▁इक्विटी	-6253
▁दक्षिणी	-6254
▁परिवारों	-6255
ाइयों	-6256
▁नेपाल	-6257
▁भरी	-6258
▁मनाया	-6259
▁समझता	-6260
▁रूपांत	-6261
▁वस्तुतः	-6262
दत्त	-6263
▁परिल	-6264
▁अध्यादेश	-6265
pp	-6266
▁एसी	-6267
स्वती	-6268
▁देशी	-6269
जातियों	-6270
▁एग्	-6271
▁अप्रत्यक्ष	-6272
▁डीएन	-6273
▁जू	-6274
▁अदा	-6275
▁क्लिक	-6276
▁जलवायु	-6277
▁अध्यक्षता	-6278
▁कम्पनी	-6279
▁कही	-6280
▁पड	-6281
ास्ट	-6282
▁परम्प	-6283
रेखा	-6284
्राफी	-6285
▁उसको	-6286
▁पुनर्ग	-6287
▁dt	-6288
ंस्क	-6289
▁रमेश	-6290
▁गाड़ी	-6291
▁क्रेता	-6292
▁एप्लिकेशन	-6293
▁St	-6294
▁नर्स	-6295
▁खरीदी	-6296
▁बल्ले	-6297
▁ग़	-6298
सागर	-6299
▁आबादी	-6300
▁विवरणों	-6301
▁प्रतिष्ठित	-6302
▁भव	-6303
▁चां	-6304
▁सेटिंग	-6305
▁विनिश्च	-6306
▁अभिलेखों	-6307
▁अहमदाबाद	-6308
esh	-6309
▁फुट	-6310
▁बंदर	-6311
▁रहस्य	-6312
ment	-6313
▁बैल	-6314
▁लोह	-6315
दृश्य	-6316
▁कहला	-6317
▁कीटना	-6318
▁अधिनियमों	-6319
▁सड़	-6320
हार्य	-6321
▁अनधिकृत	-6322
गाव	-6323
▁लम्	-6324
▁CW	-6325
▁हड़	-6326
▁कामका	-6327
▁संग्र	-6328
▁रिश्वत	-6329
▁बीस	-6330
▁अग्न	-6331
▁झगड़ा	-6332
▁बढ़ते	-6333
▁पहुंचाने	-6334
ोसी	-6335
▁उपज	-6336
▁पते	-6337
▁त्रिप	-6338
▁प्रारम्भ	-6339
लीय	-6340
▁एंट	-6341
▁खोला	-6342
ुत्प	-6343
्रेम	-6344
ेन्द्र	-6345
▁वाहनों	-6346
▁मूल्यवान	-6347
▁बीमाकर्ता	-6348
▁आपात	-6349
▁हिसाब	-6350
▁दरवाजे	-6351
▁निदेशकों	-6352
्सीय	-6353
▁son	-6354
▁तंत्रिका	-6355
▁अज	-6356
▁भो	-6357
▁किल	-6358
▁शुक	-6359
कियों	-6360
टीकरण	-6361
ड़िया	-6362
न्दु	-6363
ाजनक	-6364
▁खूब	-6365
▁सरस्वती	-6366
▁अभ्य	-6367
▁पुष्ट	-6368
▁प्रतिर	-6369
▁कस	-6370
▁चिल	-6371
▁भक्ति	-6372
▁लोकतांत्रिक	-6373
ापक	-6374
केशन	-6375
▁जना	-6376
▁बुरी	-6377
▁भेंट	-6378
▁गोपाल	-6379
▁फायदा	-6380
▁तिव	-6381
्रेषित	-6382
▁निस्त	-6383
▁प्रान्त	-6384
▁देगी	-6385
▁सचेत	-6386
▁संध्या	-6387
▁अवय	-6388
▁ग्रुप	-6389
▁कुल्हा	-6390
▁पॉलिसी	-6391
▁शक्तिशाली	-6392
▁रखकर	-6393
▁बहादुर	-6394
▁बुलाने	-6395
▁समृद्धि	-6396
▁कॉर्पोरेट	-6397
ाफ	-6398
ीली	-6399
▁गड़ब	-6400
▁सीधा	-6401
▁ज़्या	-6402
▁भारतीयों	-6403
ुश	-6404
▁मानी	-6405
▁टैक्स	-6406
▁थोड़ी	-6407
ंपी	-6408
न्या	-6409
▁जाली	-6410
kh	-6411
िकता	-6412
▁फंड	-6413
▁धातु	-6414
▁सीता	-6415
▁रूपों	-6416
धित	-6417
▁उदा	-6418
फ़ी	-6419
▁PS	-6420
प्ति	-6421
▁रिव	-6422
▁गहराई	-6423
▁परिस्थितियां	-6424
▁१७	-6425
▁टाइप	-6426
▁तिवारी	-6427
▁मतदाता	-6428
मर	-6429
▁SH	-6430
ेक्स	-6431
▁जीन	-6432
▁फाइ	-6433
▁परम्परा	-6434
ंदेह	-6435
▁राह	-6436
▁स्तरों	-6437
▁सीआरपीसी	-6438
▁सिद्धान्त	-6439
निय	-6440
▁तनाव	-6441
▁अभिला	-6442
▁पहुंची	-6443
▁प्रकटीकरण	-6444
फो	-6445
काने	-6446
▁रॉय	-6447
▁वय	-6448
▁बाँ	-6449
▁अनुर	-6450
▁औस	-6451
▁विघ	-6452
▁आत्मसम	-6453
▁सीनियर	-6454
पीए	-6455
▁घृ	-6456
बारा	-6457
▁नवा	-6458
ल्पित	-6459
▁परिश्रम	-6460
०वीं	-6461
▁मस्	-6462
▁लाए	-6463
▁गुफा	-6464
▁जानें	-6465
▁फ्लैट	-6466
▁पैकेट	-6467
▁निकाले	-6468
▁सामान्यतः	-6469
▁उर्व	-6470
▁रखती	-6471
▁रिज़	-6472
र्माने	-6473
▁प्रीम	-6474
▁बिलकुल	-6475
▁स्तरीय	-6476
▁मंदिरों	-6477
▁जुर्माने	-6478
▁क्रियान्व	-6479
▁चिकित्सीय	-6480
नाइट	-6481
▁अक्त	-6482
▁जोड़े	-6483
▁महाधिवक्ता	-6484
▁ऊंचाई	-6485
▁जितनी	-6486
▁पट्टी	-6487
्रु	-6488
रेटर	-6489
▁मंजूर	-6490
▁AP	-6491
▁ड्राफ्ट	-6492
▁देखता	-6493
▁परिवी	-6494
▁सकेगी	-6495
▁टुकड़े	-6496
▁दिशानिर्देशों	-6497
वेल	-6498
ूलन	-6499
▁याता	-6500
▁मुक्ति	-6501
▁डिज	-6502
▁खासकर	-6503
िमा	-6504
स्ट्रे	-6505
▁उन्हीं	-6506
▁मुलाकात	-6507
▁कुट	-6508
▁समझे	-6509
▁नवीनी	-6510
▁पुनराव	-6511
▁क्रांति	-6512
▁एक्सचेंज	-6513
▁अवर	-6514
▁वस्त्र	-6515
▁पुण	-6516
▁लगती	-6517
▁माइक्र	-6518
▁अवह	-6519
ंगलोर	-6520
▁अनदेखी	-6521
▁मिलेगी	-6522
▁नियुक्तियों	-6523
वाहा	-6524
▁औसतन	-6525
▁वृद्ध	-6526
▁इसीलिए	-6527
▁अपमानजनक	-6528
▁निस्संदेह	-6529
▁अतीत	-6530
▁विलय	-6531
ूष	-6532
नेश	-6533
▁सूचक	-6534
▁मनमाने	-6535
जिद	-6536
याल	-6537
▁MO	-6538
डीसी	-6539
िपत्य	-6540
▁OSNo	-6541
▁लाठी	-6542
▁निलंबित	-6543
▁एजेंसियों	-6544
▁झील	-6545
▁डिक	-6546
▁यूरोपीय	-6547
▁निदेशालय	-6548
im	-6549
▁भीड़	-6550
▁स्के	-6551
▁हथियारों	-6552
▁आत्मसमर्पण	-6553
▁सफलतापूर्वक	-6554
गान	-6555
्रोप	-6556
▁नाइ	-6557
▁उठाई	-6558
▁तर्कों	-6559
▁विज	-6560
ज्जित	-6561
▁लखनऊ	-6562
▁प्रतिसाद	-6563
साई	-6564
▁तलाक	-6565
▁अनुपस्थित	-6566
PA	-6567
▁रिक्ति	-6568
▁यातायात	-6569
▁प्रतियां	-6570
द्वी	-6571
▁खटख	-6572
▁मरा	-6573
▁जीवा	-6574
▁पंचाट	-6575
▁कीटनाश	-6576
▁निकलने	-6577
▁एमएस	-6578
▁सुनकर	-6579
▁कुल्हाड़ी	-6580
▁ब्यूरो	-6581
देशक	-6582
▁वाइ	-6583
स्टिक	-6584
▁आरंभिक	-6585
▁दुर्लभ	-6586
▁संपन्न	-6587
रचना	-6588
वाणी	-6589
▁कैल	-6590
दु	-6591
▁पीढ़ी	-6592
▁प्रशंस	-6593
▁हस्ताक्षरित	-6594
डिश	-6595
▁हुस	-6596
▁वार्ड	-6597
▁मैत्री	-6598
भौ	-6599
सों	-6600
डेंट	-6601
दायक	-6602
▁ऑफिसर	-6603
▁गुंजा	-6604
▁भाग्य	-6605
▁हानिक	-6606
▁उपेक्षा	-6607
▁ओम	-6608
▁बोध	-6609
▁कॉन्	-6610
▁रसायन	-6611
ंधन	-6612
्टा	-6613
▁अनन्य	-6614
▁चीजें	-6615
▁देनदार	-6616
garh	-6617
ेक्शन	-6618
▁मतभेद	-6619
▁विधवा	-6620
▁आपसी	-6621
▁रघु	-6622
▁अंगूठ	-6623
▁हेक्ट	-6624
▁सहयोगी	-6625
▁सांख	-6626
▁सेवन	-6627
▁जिलों	-6628
▁संपदा	-6629
▁निकायों	-6630
▁रचनात्मक	-6631
ट्टा	-6632
▁बांग	-6633
▁पारस्प	-6634
▁अक्तूबर	-6635
ers	-6636
ेंसिक	-6637
▁प्रांत	-6638
▁शास्त्र	-6639
▁फीट	-6640
▁खरीदा	-6641
ांक्षा	-6642
▁तरल	-6643
▁सकी	-6644
▁हां	-6645
▁उपभोग	-6646
▁पदोन्नत	-6647
▁विशेषज्ञों	-6648
▁कना	-6649
▁पाउ	-6650
▁भया	-6651
▁मस्जिद	-6652
▁मोटरसाइ	-6653
ॉर	-6654
hatt	-6655
कथित	-6656
▁कॉर्पोरेशन	-6657
▁स्टील	-6658
▁यथार्थ	-6659
▁हाइ	-6660
▁साहित्यिक	-6661
▁झट	-6662
्यूशन	-6663
ुलर	-6664
्वे	-6665
▁नज	-6666
टीसी	-6667
▁मछली	-6668
▁अवहेलना	-6669
▁कार्मिक	-6670
▁स्वेच्छा	-6671
▁रवीन्द्रनाथ	-6672
▁माध्यस्थ	-6673
आईएल	-6674
जाने	-6675
ित्य	-6676
▁उपर	-6677
▁सौंपी	-6678
▁रेडियो	-6679
▁इस्लामी	-6680
▁अंतरिक्ष	-6681
▁आधे	-6682
्यवाद	-6683
▁कंध	-6684
त्रियों	-6685
▁बरामदगी	-6686
▁पारस्परिक	-6687
ष्म	-6688
▁कहती	-6689
स्वामी	-6690
▁अखबार	-6691
▁खोजने	-6692
▁प्रसंस्क	-6693
..	-6694
ंची	-6695
▁ग्री	-6696
▁जूनियर	-6697
हीत	-6698
▁उक	-6699
▁कंस	-6700
▁संस्थ	-6701
ांसी	-6702
▁छेड़	-6703
ुग्	-6704
▁vi	-6705
▁लंबा	-6706
▁बैंगलोर	-6707
▁पुस्तिका	-6708
▁प्रिंसिपल	-6709
▁कार्यपालिका	-6710
ish	-6711
▁उजागर	-6712
▁गुंजाइश	-6713
▁मोटरसाइकिल	-6714
▁शल	-6715
▁टा	-6716
▁गीता	-6717
▁बहाली	-6718
▁निष्कासन	-6719
▁गिन	-6720
▁तंब	-6721
▁गिरवी	-6722
▁संयोजन	-6723
▁द्विपक्षीय	-6724
ज़ो	-6725
▁शक	-6726
▁रेश	-6727
▁काली	-6728
कारिता	-6729
▁रोकना	-6730
▁पहाड़ी	-6731
▁अधिरोपित	-6732
AK	-6733
मि	-6734
▁नृत्य	-6735
▁बनाती	-6736
▁तथाकथित	-6737
▁प्रतिबि	-6738
▁केश	-6739
▁तारा	-6740
▁बेशक	-6741
▁काले	-6742
▁लाना	-6743
▁भागीदार	-6744
▁बेई	-6745
▁मोटे	-6746
▁रिला	-6747
▁इंद्र	-6748
▁सदी	-6749
▁पत्रिका	-6750
▁काला	-6751
▁बिता	-6752
▁परिसंप	-6753
▁आतंकवादी	-6754
्यौ	-6755
▁दाम	-6756
▁उपलब्धि	-6757
फ्र	-6758
▁जताई	-6759
▁थाने	-6760
▁ट्रैक	-6761
▁यात्री	-6762
कै	-6763
यिक	-6764
वास्त	-6765
▁विनि	-6766
▁मंजिल	-6767
रेज	-6768
▁पृथक	-6769
▁प्रोफ	-6770
▁समझौतों	-6771
▁कच	-6772
▁आधिपत्य	-6773
ल्फ	-6774
▁रोम	-6775
▁ईसाई	-6776
▁लायक	-6777
दर्शिता	-6778
▁स्रोतों	-6779
▁शरण	-6780
▁एफएसएल	-6781
▁रिलायंस	-6782
▁संज्ञेय	-6783
▁समायोजन	-6784
▁व्यापारिक	-6785
▁इल	-6786
जीसी	-6787
र्ता	-6788
त्रिम	-6789
▁संधि	-6790
▁संगठित	-6791
up	-6792
▁कर्ण	-6793
▁गायब	-6794
▁प्लस	-6795
▁उठाना	-6796
▁चित्रण	-6797
▁प्रतिबिंब	-6798
ायण	-6799
ाध्यक्ष	-6800
▁खरीदार	-6801
▁प्रयोज्यता	-6802
▁Ad	-6803
▁पड़ोसी	-6804
▁अपरिहार्य	-6805
▁निर्देशिका	-6806
▁बीत	-6807
ल्डिंग	-6808
▁कामना	-6809
▁एकीकृत	-6810
▁महाराजा	-6811
संच	-6812
▁लार	-6813
▁बाईं	-6814
▁मोड़	-6815
▁पेशेवर	-6816
▁युक्ति	-6817
▁जुट	-6818
▁पहन	-6819
▁शोक	-6820
▁निराश	-6821
▁दुश्मनी	-6822
▁अनुज्ञात	-6823
ोनी	-6824
▁MA	-6825
इयां	-6826
कारियों	-6827
ानुभूति	-6828
FA	-6829
▁भत्ते	-6830
▁अन्वेषण	-6831
▁धरती	-6832
▁राजीव	-6833
od	-6834
og	-6835
गाई	-6836
▁उर्फ	-6837
▁साहस	-6838
▁ग्राफ	-6839
ठे	-6840
ुणा	-6841
▁चरम	-6842
▁नींव	-6843
▁प्लेट	-6844
▁सम्पत्ति	-6845
ंदगी	-6846
▁पाप	-6847
▁डेवल	-6848
▁मंगल	-6849
▁लेबल	-6850
सिद्धि	-6851
▁मापदंड	-6852
▁प्रतिस्पर्धा	-6853
▁स्वीकारोक्ति	-6854
ॉजी	-6855
दातर	-6856
▁लाई	-6857
▁चरणों	-6858
▁शत्रु	-6859
▁नंद	-6860
▁अंगों	-6861
▁बिल्ड	-6862
▁सारांश	-6863
मै	-6864
ंथी	-6865
िणी	-6866
▁बग	-6867
▁‘‘	-6868
▁राश	-6869
▁असंत	-6870
▁मानो	-6871
▁पुनर्म	-6872
▁कृत्रिम	-6873
ce	-6874
▁लड़ने	-6875
▁हिमालय	-6876
▁वीड	-6877
▁गौरव	-6878
▁कराना	-6879
▁डीएनए	-6880
▁उन्मूलन	-6881
▁वरीय	-6882
▁ट्रेडमार्क	-6883
RD	-6884
पेट	-6885
▁राध	-6886
▁तलवार	-6887
ढ़े	-6888
बीन	-6889
▁IV	-6890
▁उभ	-6891
▁गू	-6892
▁कमल	-6893
▁रिफ	-6894
▁योनि	-6895
▁विद्यार्थी	-6896
वकों	-6897
▁टेन	-6898
▁जायें	-6899
▁आबकारी	-6900
▁जनादेश	-6901
▁पुनर्व	-6902
▁अनुक्रम	-6903
इज	-6904
क्कर	-6905
न्हा	-6906
रलाल	-6907
▁टीवी	-6908
▁प्रीमियम	-6909
ाउंड	-6910
▁पैट	-6911
▁डाले	-6912
▁माने	-6913
▁पुनर्गठन	-6914
एसए	-6915
▁An	-6916
च्यु	-6917
▁इनपुट	-6918
▁पोल	-6919
▁डोमेन	-6920
▁प्रसंस्करण	-6921
शाह	-6922
स्फोट	-6923
▁कोर्स	-6924
ुत्व	-6925
▁अनिल	-6926
▁अमरीका	-6927
जिए	-6928
▁स्ल	-6929
गंज	-6930
▁सांवि	-6931
▁शस्त्र	-6932
▁ज़्यादा	-6933
▁IA	-6934
वर्ड	-6935
▁गेट	-6936
▁हाँ	-6937
▁Chhatt	-6938
▁लेट	-6939
▁युवाओं	-6940
ंद्रह	-6941
▁पाठक	-6942
▁समाम	-6943
▁हुसैन	-6944
▁आधारभूत	-6945
ON	-6946
नेस	-6947
▁आनु	-6948
▁कीं	-6949
▁तापमान	-6950
▁y	-6951
कीन	-6952
मीन	-6953
▁ढूं	-6954
▁कपड़ों	-6955
▁प्रक्रियात्मक	-6956
न्दर	-6957
▁स्ट्र	-6958
▁पंद्रह	-6959
▁फु	-6960
▁खर्	-6961
▁खिल	-6962
▁सुरेश	-6963
▁विनिश्चय	-6964
ig	-6965
▁सेशन	-6966
▁दुर्व	-6967
▁सार्थ	-6968
िर्ण	-6969
▁घास	-6970
▁मुल	-6971
▁कड़ाई	-6972
प्राप्त	-6973
▁Chhattis	-6974
भासी	-6975
▁अड्ड	-6976
▁फायर	-6977
▁रजिस्ट्रीकरण	-6978
wan	-6979
ंसर	-6980
▁iv	-6981
▁वनस्प	-6982
▁सांख्यिक	-6983
AV	-6984
कोट	-6985
▁हरे	-6986
▁पीपी	-6987
▁राजू	-6988
▁चिन्ह	-6989
▁हटाया	-6990
▁लैस	-6991
▁वोट	-6992
▁लेंगे	-6993
▁खर्चों	-6994
▁सेक्टर	-6995
▁परिप्रे	-6996
▁प्रस्तुतिकरण	-6997
▁गणित	-6998
▁अस्थिर	-6999
बेट	-7000
▁Cha	-7001
▁दण्ड	-7002
▁Chhattisgarh	-7003
▁कहे	-7004
▁रोश	-7005
परक	-7006
▁अनाज	-7007
▁प्रजनन	-7008
▁कोशिकाओं	-7009
end	-7010
र्दू	-7011
▁हेक्टेयर	-7012
ia	-7013
नर	-7014
ुड	-7015
▁आपस	-7016
▁जुल	-7017
▁मातृ	-7018
▁भांति	-7019
पेश	-7020
िटर	-7021
▁AS	-7022
▁जाओ	-7023
▁रेग	-7024
▁बांड	-7025
▁बैठा	-7026
▁अनुमानित	-7027
▁राजेंद्र	-7028
ub	-7029
दू	-7030
तन्य	-7031
▁झुक	-7032
स्ट्र	-7033
▁अर्ज	-7034
▁आंकड़े	-7035
▁रिकवरी	-7036
▁ड्राइवर	-7037
णि	-7038
▁कामकाज	-7039
▁सकेंगे	-7040
▁परीक्षक	-7041
▁परिलक्षित	-7042
▁प्रोविज़ो	-7043
ब्ब	-7044
भूषण	-7045
▁माउ	-7046
▁पर्वत	-7047
▁संकाय	-7048
▁व्युत्प	-7049
ंकी	-7050
▁शोषण	-7051
▁जानकर	-7052
▁अभिव्यक्त	-7053
बारी	-7054
▁समन	-7055
▁अभिर	-7056
▁ड्रग	-7057
▁कार्यालयों	-7058
▁उर्दू	-7059
विश्वास	-7060
▁व्यस्त	-7061
▁सौंपने	-7062
▁प्रसारण	-7063
▁अधिनिर्ण	-7064
राइट	-7065
▁उपय	-7066
▁ईंधन	-7067
▁कच्चे	-7068
▁प्रविष्टियों	-7069
्द	-7070
▁धूम	-7071
▁उग्र	-7072
▁फ्रांस	-7073
स्ट्रेलिया	-7074
इल	-7075
कृष्ण	-7076
▁किमी	-7077
▁परिवेश	-7078
▁चर्च	-7079
▁प्रोज	-7080
▁परामर्शदाता	-7081
▁पीने	-7082
▁जॉ	-7083
▁डिज़	-7084
▁निस्तारण	-7085
़ी	-7086
रणीय	-7087
विंग	-7088
ao	-7089
th	-7090
वायद	-7091
िनेशन	-7092
▁उत्तम	-7093
दायित्व	-7094
▁दाहिने	-7095
▁विद्रोह	-7096
म्बई	-7097
▁लेबर	-7098
▁सैन्य	-7099
▁चैतन्य	-7100
ंती	-7101
▁अंग्रेज	-7102
▁समवर्ती	-7103
AP	-7104
क्षकों	-7105
▁जापान	-7106
▁ढांचा	-7107
▁समझना	-7108
▁पुराना	-7109
िथ	-7110
▁ड़	-7111
▁एनआई	-7112
▁कवायद	-7113
▁तलाशी	-7114
▁सुशील	-7115
▁स्टाफ	-7116
▁अत्यन्त	-7117
▁मुकदमों	-7118
▁बिंदुओं	-7119
▁प्रतिभूत	-7120
▁किलोग्राम	-7121
फ़र	-7122
▁नल	-7123
▁सोल	-7124
▁नज़र	-7125
▁लौटा	-7126
▁उपाधि	-7127
▁राजभाषा	-7128
▁केंद्रों	-7129
▁दोषपूर्ण	-7130
▁पासपोर्ट	-7131
▁इलाके	-7132
▁सेंटर	-7133
▁बांग्ला	-7134
झा	-7135
▁बम	-7136
▁दुःख	-7137
▁परिप्रेक्ष्य	-7138
ीर्ण	-7139
▁दाग	-7140
▁नास	-7141
▁चावल	-7142
▁सीखी	-7143
▁सहानुभूति	-7144
▁प्रतिष्ठान	-7145
▁घो	-7146
▁बैच	-7147
▁कट्ट	-7148
▁पाइप	-7149
▁पट्टा	-7150
ice	-7151
वंत	-7152
▁अमी	-7153
▁पोजी	-7154
▁उद्यान	-7155
▁कागजात	-7156
▁सार्वभौ	-7157
▁फोरम	-7158
▁मसौदा	-7159
▁प्रशिक्षित	-7160
्रू	-7161
▁खपत	-7162
▁नाल	-7163
▁पड़ती	-7164
▁मुझसे	-7165
▁लगाते	-7166
▁हार्ड	-7167
▁इंतजार	-7168
▁हानिकारक	-7169
गोलिक	-7170
▁साहब	-7171
▁ट्यूब	-7172
▁ऑपर	-7173
ार्थियों	-7174
▁चाचा	-7175
▁सुलह	-7176
▁दशकों	-7177
▁वादों	-7178
▁संभोग	-7179
▁संभावनाओं	-7180
▁नस्ल	-7181
▁शिल्प	-7182
▁समर्पण	-7183
▁दिखाए	-7184
▁बोलते	-7185
तापूर्वक	-7186
▁वस्तुएं	-7187
▁एसआई	-7188
▁पशुओं	-7189
▁मुख्या	-7190
ईसी	-7191
गांव	-7192
▁एसपी	-7193
▁सीखने	-7194
▁संकीर्ण	-7195
हाई	-7196
▁आधा	-7197
▁नायक	-7198
▁मुहर	-7199
▁मेरिट	-7200
▁शानदार	-7201
▁भौगोलिक	-7202
▁विस्फोट	-7203
▁भाष	-7204
▁द्वि	-7205
▁माला	-7206
▁सुधारने	-7207
▁प्रतिनिय	-7208
वण	-7209
▁नोस	-7210
संचार	-7211
▁छोड़ा	-7212
▁पेट्रोलियम	-7213
ev	-7214
बंदी	-7215
्किक	-7216
▁धान	-7217
▁अधिव	-7218
▁निंदा	-7219
▁मौजूदगी	-7220
लास	-7221
▁क्	-7222
▁छू	-7223
▁आरटी	-7224
▁स्वप	-7225
▁प्रपत्र	-7226
▁पाठ्यक्रमों	-7227
देह	-7228
▁विनोद	-7229
▁वरीयता	-7230
▁ईमानदारी	-7231
▁कर्मियों	-7232
▁पुनरावृत्ति	-7233
aya	-7234
ार्द	-7235
िक्र	-7236
▁औषध	-7237
▁लगते	-7238
▁मैट्र	-7239
▁टिप्पण	-7240
ोज़	-7241
▁समेकित	-7242
▁संशोधनों	-7243
ID	-7244
थन	-7245
▁फस	-7246
▁बदला	-7247
▁भक्त	-7248
▁लंदन	-7249
▁संदेय	-7250
▁दीवानी	-7251
▁गड़बड़ी	-7252
▁यात्रियों	-7253
बली	-7254
▁उतनी	-7255
▁कैंसर	-7256
▁रिमांड	-7257
▁निर्वाह	-7258
िच	-7259
▁Exh	-7260
▁घोर	-7261
▁डॉलर	-7262
▁अभिगम	-7263
▁घनिष्ठ	-7264
▁नवीकरण	-7265
▁सेक्शन	-7266
प्रद	-7267
▁पोजीशन	-7268
▁उत्तरदायित्व	-7269
शोथ	-7270
▁काल्प	-7271
▁अमरीकी	-7272
▁तत्त्व	-7273
्रीज	-7274
▁ऑटो	-7275
▁खंडों	-7276
▁मानवता	-7277
ेब	-7278
▁मरी	-7279
▁पड़ोस	-7280
▁जर्मनी	-7281
▁रिजर्व	-7282
हारी	-7283
▁शिक्षित	-7284
्रीट	-7285
▁नक्	-7286
▁बढ़ता	-7287
▁मिसाल	-7288
▁वकालत	-7289
▁पार्श्व	-7290
▁फ़ोल्डर	-7291
▁Ram	-7292
▁स्ने	-7293
सास	-7294
द्दी	-7295
▁Sec	-7296
▁गुम	-7297
▁जबरन	-7298
▁बिस्त	-7299
▁पूर्णता	-7300
▁ar	-7301
▁सतत	-7302
▁स्न	-7303
▁दूरस्थ	-7304
▁सड़कों	-7305
ावर	-7306
▁बृ	-7307
▁जाएँ	-7308
▁बेहद	-7309
▁आंखों	-7310
▁यातना	-7311
रीश	-7312
▁VII	-7313
▁दांत	-7314
▁दोनो	-7315
▁बोतल	-7316
▁काटने	-7317
▁अभिप्र	-7318
ीट	-7319
दनी	-7320
▁मंग	-7321
स्राव	-7322
▁परिपक्व	-7323
▁भावनाओं	-7324
▁महाभारत	-7325
ep	-7326
▁दौड़	-7327
▁गर्मी	-7328
▁एनडी	-7329
▁कहकर	-7330
▁बनना	-7331
▁सुलझा	-7332
▁उत्पादक	-7333
▁गर्व	-7334
▁रोशनी	-7335
▁किरायेदारी	-7336
मोहन	-7337
▁माय	-7338
▁लाह	-7339
▁साहू	-7340
कलापों	-7341
र्तनीय	-7342
▁प्रभार्य	-7343
▁उधारकर्ता	-7344
▁न्	-7345
िश्र	-7346
▁मेघ	-7347
▁इस्ती	-7348
ेस	-7349
ेडकर	-7350
▁बडी	-7351
▁आएगा	-7352
▁विकि	-7353
सेट	-7354
▁ग्ल	-7355
▁पवन	-7356
▁पुल	-7357
▁माध	-7358
▁उकसा	-7359
▁पचास	-7360
▁उन्होने	-7361
▁किन्हीं	-7362
▁सशस्त्र	-7363
▁अंब	-7364
▁नाज	-7365
▁पिट	-7366
▁सर्	-7367
▁कृति	-7368
▁सवालों	-7369
▁संस्	-7370
▁फैक्ट	-7371
st	-7372
ांप	-7373
▁खटखट	-7374
▁गहरे	-7375
▁देनी	-7376
▁मिश्रण	-7377
▁रिकार्ड	-7378
सीआई	-7379
▁भोग	-7380
▁अभिलाभ	-7381
▁पैटर्न	-7382
▁घाट	-7383
▁डाउ	-7384
▁हेल	-7385
▁एकत्रित	-7386
▁धन्यवाद	-7387
क्तिक	-7388
संरचना	-7389
▁चुनें	-7390
▁दुर्गा	-7391
▁पालिसी	-7392
▁पीड़ितों	-7393
मंद	-7394
नलोड	-7395
▁जमींद	-7396
▁निभाई	-7397
▁राकेश	-7398
▁सम्बंध	-7399
▁लेनदारों	-7400
ap	-7401
ूण	-7402
जीवी	-7403
▁चौहान	-7404
▁भगवान्	-7405
▁जवाहरलाल	-7406
ho	-7407
्सल	-7408
▁रोट	-7409
▁याची	-7410
▁मजदूर	-7411
ँग	-7412
▁मुर	-7413
▁ब्राउ	-7414
▁काल्पनिक	-7415
▁परिवर्तनों	-7416
▁ईरान	-7417
▁बेंगल	-7418
▁जायेगी	-7419
▁परिदृश्य	-7420
▁चुनौतियों	-7421
▁महानिदेशक	-7422
▁निष्पक्षता	-7423
CC	-7424
▁उपयोगिता	-7425
▁१८	-7426
▁आयी	-7427
िमंडल	-7428
▁हजारों	-7429
▁मिश्रित	-7430
श्रे	-7431
ष्णा	-7432
▁छोड	-7433
▁संयम	-7434
किट	-7435
▁हसन	-7436
▁आपसे	-7437
▁भारती	-7438
▁सख्ती	-7439
▁लक्ष्मण	-7440
▁ब्राह्मण	-7441
▁समुदायों	-7442
▁अजय	-7443
▁कहाँ	-7444
▁गणेश	-7445
▁सूजन	-7446
▁विच्छेद	-7447
▁इम	-7448
▁भरत	-7449
▁तिरु	-7450
▁सार्थक	-7451
▁पुरुषों	-7452
ED	-7453
▁अविभ	-7454
▁मंशा	-7455
▁बंदरगाह	-7456
▁at	-7457
▁अच	-7458
▁कौर	-7459
▁सौह	-7460
▁मुगल	-7461
▁वर्जित	-7462
▁सत्यता	-7463
▁समझाने	-7464
▁यांत्रिक	-7465
म्र	-7466
▁नोटों	-7467
▁अधिवक्ताओं	-7468
जनों	-7469
नियां	-7470
्यवहार	-7471
▁ज्यादातर	-7472
▁तर्कसंगत	-7473
▁एजी	-7474
▁बुल	-7475
▁मॉड	-7476
▁रोगों	-7477
▁एकदम	-7478
वाहाटी	-7479
▁वाद्य	-7480
▁अविश्व	-7481
▁विवरणी	-7482
▁अंतर्वि	-7483
▁अभिनिर्	-7484
▁जरूरतों	-7485
▁प्रभावशाली	-7486
द्म	-7487
▁बेस	-7488
▁सिम	-7489
▁एंटी	-7490
▁परेड	-7491
▁बेचा	-7492
▁शान्त	-7493
▁ग्रामीणों	-7494
भि	-7495
▁पुरूष	-7496
▁ऑपरेशन	-7497
▁तू	-7498
खाना	-7499
▁हरा	-7500
▁आक्र	-7501
▁अज्ञान	-7502
▁गुवाहाटी	-7503
▁विद्वानों	-7504
▁निःश	-7505
▁समता	-7506
▁कुलपति	-7507
खर	-7508
यु	-7509
्टे	-7510
▁PR	-7511
ापित	-7512
▁इशारा	-7513
▁दूरसंचार	-7514
▁निवेशकों	-7515
▁पुनर्मूल	-7516
▁सम्भव	-7517
▁वक्तव्य	-7518
▁चक	-7519
▁रोल	-7520
▁स्वाय	-7521
▁पूर्णतः	-7522
▁निर्माताओं	-7523
▁प्रतिरक्षा	-7524
एसई	-7525
सेस	-7526
▁or	-7527
ील्ड	-7528
▁टाटा	-7529
▁आंकड़ों	-7530
ef	-7531
ुख	-7532
ेज़	-7533
▁अपन	-7534
ंत्रण	-7535
व्यापी	-7536
▁गार्ड	-7537
▁डिस्ट	-7538
▁सौंपे	-7539
▁अपराधियों	-7540
▁बाइ	-7541
्यांश	-7542
▁कालेज	-7543
▁निष्ठा	-7544
▁दिलचस्पी	-7545
▁उपभोक्ताओं	-7546
▁Go	-7547
▁पेय	-7548
▁अवरोध	-7549
▁जानवरों	-7550
▁निकालना	-7551
्को	-7552
ूरों	-7553
▁घुस	-7554
▁बंगल	-7555
▁इंडस्ट	-7556
▁उद्धरण	-7557
▁धारकों	-7558
▁मार्केट	-7559
छाड़	-7560
द्रिक	-7561
▁चुकता	-7562
▁तालाब	-7563
▁विशेषताओं	-7564
▁पढ	-7565
▁शेड	-7566
▁डिज़ाइन	-7567
▁कार्यान्वित	-7568
कर्म	-7569
र्वेद	-7570
ायुक्त	-7571
▁बाधित	-7572
▁प्रतिफल	-7573
▁गह	-7574
▁Bha	-7575
▁अरुण	-7576
▁डाउनलोड	-7577
▁होल्डिंग	-7578
▁बढ़कर	-7579
▁अदालतें	-7580
▁परिचालन	-7581
चाप	-7582
▁बिग	-7583
▁बिट	-7584
▁निया	-7585
▁लोहे	-7586
▁ऋष	-7587
कलाप	-7588
▁कॉरप	-7589
▁जवाबी	-7590
▁नियोजन	-7591
▁सौहार्द	-7592
▁महल	-7593
▁गिरा	-7594
▁पीएम	-7595
▁फ्रेम	-7596
▁महाप्र	-7597
▁दोषसिद्धि	-7598
▁दुर्व्यवहार	-7599
▁to	-7600
▁शर	-7601
ापरी	-7602
▁गुरू	-7603
▁सुसज्जित	-7604
▁ओपी	-7605
▁ब्रे	-7606
▁तंबाकू	-7607
▁प्लास्टिक	-7608
▁सीए	-7609
▁परिसी	-7610
▁बिस्तर	-7611
डू	-7612
ोरा	-7613
▁तप	-7614
▁एसडी	-7615
▁रैंक	-7616
च्युटी	-7617
▁आश्रित	-7618
तृ	-7619
ढ़ा	-7620
▁Rai	-7621
▁ख्या	-7622
▁घाटी	-7623
▁तुर्की	-7624
▁पिछड़े	-7625
▁दार्	-7626
▁विवश	-7627
▁शल्य	-7628
▁निरूप	-7629
▁पुनर्मूल्यांकन	-7630
ast	-7631
▁आईओ	-7632
▁मेज	-7633
▁गद्य	-7634
▁गवर्नर	-7635
ैम	-7636
▁CC	-7637
कक्ष	-7638
▁कोमल	-7639
▁सामु	-7640
▁शाखाओं	-7641
▁डिब	-7642
▁सोचते	-7643
▁गोविंद	-7644
्सी	-7645
khand	-7646
▁बंबई	-7647
वास्तव	-7648
▁टिकाऊ	-7649
▁दुकानों	-7650
▁लड़कियों	-7651
ौज	-7652
▁कू	-7653
▁अमल	-7654
▁चौथे	-7655
▁तृतीय	-7656
▁प्रताप	-7657
▁पट्टेदार	-7658
▁अविश्वसनीय	-7659
▁हाथी	-7660
▁ऑडियो	-7661
▁प्रजाति	-7662
▁विशुद्ध	-7663
▁सम्पर्क	-7664
▁बोलीदाता	-7665
▁चमक	-7666
▁तीर्थ	-7667
▁एग्जाम	-7668
▁उत्तीर्ण	-7669
▁एमपी	-7670
▁पीठा	-7671
▁समू	-7672
▁सर्ज	-7673
▁पर्यवेक्षण	-7674
विधा	-7675
्थान	-7676
▁सती	-7677
▁ग्या	-7678
▁मजदूरों	-7679
▁ग्रेच्युटी	-7680
ंसक	-7681
▁मठ	-7682
▁मृ	-7683
वाना	-7684
▁बढ़ाकर	-7685
▁प्रतिरोध	-7686
पुरा	-7687
ैण्ड	-7688
▁असल	-7689
▁उदय	-7690
▁बलि	-7691
नेशनल	-7692
▁वयस्क	-7693
▁भाइयों	-7694
▁सिन्हा	-7695
▁श्रीवास्तव	-7696
▁मुख्यमंत्री	-7697
▁IO	-7698
▁नाय	-7699
▁उपरा	-7700
▁पड़ने	-7701
▁पढ़ना	-7702
▁लोकसभा	-7703
▁अंग्रेजों	-7704
▁प्रणालियों	-7705
▁प्रतिबद्धता	-7706
शित	-7707
ावी	-7708
▁गुट	-7709
▁चूँ	-7710
▁गौतम	-7711
▁मुख्यालय	-7712
विड	-7713
▁कीटों	-7714
▁दार्शन	-7715
▁पीठासीन	-7716
रेन	-7717
क्की	-7718
▁घाय	-7719
▁गांधीजी	-7720
▁प्रोजेक्ट	-7721
▁Ka	-7722
agar	-7723
▁एटी	-7724
र्तित	-7725
▁मुना	-7726
▁विजे	-7727
्रदायिक	-7728
ियोग्राफी	-7729
▁रिश्तेदारों	-7730
▁अभिनिर्धारित	-7731
बंद	-7732
िप्ट	-7733
ोपड़ी	-7734
▁मारे	-7735
▁अनुया	-7736
▁संरक्षक	-7737
▁बुध	-7738
▁मील	-7739
▁वॉल	-7740
▁अमृत	-7741
▁मांगा	-7742
▁सम्मन	-7743
▁विनिया	-7744
▁क्रांतिक	-7745
▁ST	-7746
▁घन	-7747
▁छाती	-7748
▁जबरद	-7749
▁शासक	-7750
▁अवसंरचना	-7751
▁उपक्रमों	-7752
▁स्त्रियों	-7753
तें	-7754
ोधन	-7755
▁संगत	-7756
▁अक्षर	-7757
▁टेंडर	-7758
▁अवार्ड	-7759
▁विपक्ष	-7760
▁योजनाएं	-7761
▁उत्पत्ति	-7762
्कर	-7763
▁लल	-7764
▁रूस	-7765
▁जीवों	-7766
▁परिधि	-7767
▁गुजरने	-7768
▁तार्किक	-7769
▁निरपेक्ष	-7770
यंती	-7771
▁निप	-7772
▁कन्व	-7773
▁निका	-7774
▁फसलों	-7775
▁शुरूआ	-7776
▁कराधान	-7777
न्धन	-7778
▁रिवा	-7779
▁घायलों	-7780
▁Prakhand	-7781
▁अप्रासंगिक	-7782
▁प्रतिपूर्ति	-7783
मुच	-7784
▁MP	-7785
▁Ra	-7786
द्वीप	-7787
▁एसएल	-7788
▁वैदिक	-7789
▁सेंट्रल	-7790
▁स्वाधीन	-7791
▁फो	-7792
▁ग्व	-7793
▁कुटु	-7794
▁टैंक	-7795
▁महतो	-7796
▁वादा	-7797
▁दुर्भावना	-7798
▁वैज्ञानिकों	-7799
ड़ना	-7800
ोलॉजी	-7801
▁चलाई	-7802
▁सीएस	-7803
▁हाइड	-7804
▁सभापति	-7805
▁कारखाने	-7806
▁परिसमापक	-7807
वेश	-7808
▁एह	-7809
▁ओपन	-7810
▁स्तन	-7811
▁दिनेश	-7812
▁स्वायत्त	-7813
ांतर	-7814
▁अरो	-7815
▁अपरिव	-7816
▁अस्थि	-7817
▁गर्भा	-7818
▁लगाकर	-7819
▁सम्बन्धित	-7820
▁पारदर्शिता	-7821
सीम	-7822
▁ओं	-7823
▁आँख	-7824
▁चर	-7825
िंदर	-7826
▁अहि	-7827
▁हॉल	-7828
▁इस्प	-7829
▁सचिवालय	-7830
▁नामांकित	-7831
▁माध्यस्थम्	-7832
वीय	-7833
▁अहं	-7834
▁गोर	-7835
▁सहभाग	-7836
▁लेखकों	-7837
▁अपेक्षाकृत	-7838
ma	-7839
तो	-7840
न्त्र	-7841
▁तत्स	-7842
▁चूँकि	-7843
▁स्मरण	-7844
▁रिज़र्व	-7845
▁विचारधारा	-7846
डन	-7847
▁ORD	-7848
▁बाप	-7849
▁गिराव	-7850
▁पहचाना	-7851
▁सीमेंट	-7852
▁संस्थाप	-7853
▁रन	-7854
▁अश्व	-7855
▁विवेकाधीन	-7856
▁प्रासंगिकता	-7857
ंगों	-7858
▁डिट	-7859
▁कॉलम	-7860
▁पाये	-7861
▁फर्जी	-7862
▁व्याख्याता	-7863
JC	-7864
वर्ष	-7865
▁बडे	-7866
▁खदान	-7867
▁पीटा	-7868
▁मित्रों	-7869
▁शेयरधारकों	-7870
राग	-7871
▁चिर	-7872
▁अद्व	-7873
▁झूठी	-7874
▁लिखना	-7875
▁दिखाता	-7876
▁व्यथित	-7877
▁आखिरकार	-7878
▁उद्यमों	-7879
▁क्ले	-7880
▁चंडी	-7881
▁ORDER	-7882
▁उपाध्यक्ष	-7883
▁राष्ट्रों	-7884
▁व्युत्पन्न	-7885
▁पन	-7886
▁मैन	-7887
▁वन्य	-7888
▁अग्नि	-7889
▁स्क्र	-7890
▁कार्बन	-7891
▁कुशलता	-7892
▁CH	-7893
▁प्रॉ	-7894
▁भाष्	-7895
▁चौड़ाई	-7896
▁दार्शनिक	-7897
▁सामान्यतया	-7898
त्स	-7899
▁AG	-7900
▁उलट	-7901
▁ऊतक	-7902
▁जगदी	-7903
▁लाभांश	-7904
▁एग्जामिनेशन	-7905
ओएस	-7906
पाई	-7907
सेना	-7908
▁हमे	-7909
▁आर्य	-7910
▁प्लॉट	-7911
▁सच्चे	-7912
▁लाभकारी	-7913
लिस्ट	-7914
▁ध्वज	-7915
▁लौटने	-7916
▁अग्रेषित	-7917
▁राजकुमार	-7918
CT	-7919
सरा	-7920
▁गरि	-7921
▁मैच	-7922
ैक्चर	-7923
▁एस्टेट	-7924
▁गिरावट	-7925
▁गर्भपात	-7926
▁ज़मीन	-7927
▁श्याम	-7928
▁प्रयोक्ता	-7929
शाही	-7930
▁nos	-7931
ंजस्य	-7932
▁आईडी	-7933
▁एसआर	-7934
▁आभूषण	-7935
▁टाइम्स	-7936
▁डिजिटल	-7937
▁टर्मिनल	-7938
▁प्रोटोक	-7939
▁वाम	-7940
ारायण	-7941
▁आकांक्षा	-7942
▁आस्तियों	-7943
▁आपत्तियां	-7944
दर्शक	-7945
▁आजीव	-7946
▁लिपि	-7947
▁पढ़ाई	-7948
▁संविद	-7949
▁स्टार	-7950
▁संबद्धता	-7951
▁सांविधिक	-7952
ंचल	-7953
▁Sh	-7954
▁किरण	-7955
▁पहने	-7956
▁सारणी	-7957
▁छेड़छाड़	-7958
▁घुट	-7959
ॉरिटी	-7960
▁कमांड	-7961
▁टुकड़ा	-7962
▁ससुराल	-7963
▁सूचनाओं	-7964
▁संस्थागत	-7965
ूनों	-7966
▁वेश	-7967
▁शास्त्री	-7968
ितु	-7969
▁Ma	-7970
▁एल्	-7971
▁ब्लैक	-7972
▁अपशिष्ट	-7973
▁अर्जन	-7974
▁बैठकों	-7975
▁चाहूंगा	-7976
ाए	-7977
ेग	-7978
▁चट	-7979
▁बंदी	-7980
▁मूर्	-7981
▁अलगाव	-7982
▁उठाते	-7983
▁मुफ्त	-7984
िश्रमिक	-7985
▁इस्पात	-7986
▁कनेक्ट	-7987
िफ्ट	-7988
▁जीओ	-7989
▁जयंती	-7990
▁विघटन	-7991
▁वेंकट	-7992
▁लक्ष्यों	-7993
▁लाभार्थी	-7994
▁विनियामक	-7995
नम	-7996
▁लीग	-7997
▁गिना	-7998
▁संवेद	-7999
▁नदियों	-8000
▁मुकाबले	-8001
▁समकालीन	-8002
▁परिकल्पित	-8003
▁पारिश्रमिक	-8004
परा	-8005
▁DI	-8006
▁चिट	-8007
▁देखो	-8008
▁सिने	-8009
▁आस्था	-8010
▁सचमुच	-8011
ैस	-8012
मिन	-8013
▁बक	-8014
▁एन्	-8015
▁खबर	-8016
▁वैय	-8017
▁अंडर	-8018
▁सफाई	-8019
▁अफगान	-8020
▁कंट्रोल	-8021
▁बल्लेबाज	-8022
▁अधिश	-8023
▁पढ़ता	-8024
▁मिलना	-8025
▁आश्वस्त	-8026
▁संवेदनशील	-8027
▁अनुप्रयोगों	-8028
ानाथ	-8029
▁कोर	-8030
▁चरस	-8031
▁ताज	-8032
▁चट्ट	-8033
▁मानस	-8034
▁जगदीश	-8035
▁दायरा	-8036
▁संकलन	-8037
जान	-8038
▁पेर	-8039
▁हिल	-8040
▁दिखाते	-8041
▁नरेंद्र	-8042
ँस	-8043
▁मौद्रिक	-8044
DD	-8045
कारा	-8046
▁गोरा	-8047
▁सूरत	-8048
▁गरिमा	-8049
▁वित्तप	-8050
▁दिसम्बर	-8051
▁निपटाने	-8052
▁विनिधान	-8053
▁विन्यास	-8054
war	-8055
एमई	-8056
जाल	-8057
▁षड	-8058
ाराम	-8059
▁सहेज	-8060
श्रेष्ठ	-8061
▁पार्सल	-8062
▁बढ़ाना	-8063
▁अथॉरिटी	-8064
▁अत्याचार	-8065
OM	-8066
▁परत	-8067
▁बड़	-8068
▁बसव	-8069
▁बिस	-8070
▁किंग	-8071
▁Raipur	-8072
▁सामंजस्य	-8073
बेस	-8074
▁गले	-8075
▁ढेर	-8076
▁ईमेल	-8077
▁बढ़ी	-8078
▁जानना	-8079
▁सम्रा	-8080
▁जाएंगी	-8081
चिक	-8082
▁आईं	-8083
▁मज़	-8084
▁शेर	-8085
▁सुद	-8086
▁बाज़	-8087
▁गिनती	-8088
▁पक्षी	-8089
▁हल्के	-8090
▁कठिनाइयों	-8091
▁निवासियों	-8092
ुगु	-8093
ूला	-8094
पूरक	-8095
▁ठहर	-8096
ोरिया	-8097
▁अंडे	-8098
▁नंगे	-8099
▁माँग	-8100
▁ज़रूर	-8101
रिवर्तन	-8102
▁निकलता	-8103
जो	-8104
est	-8105
बरा	-8106
▁बट	-8107
▁यूजीसी	-8108
▁वनस्पति	-8109
कोष	-8110
▁घों	-8111
▁डीआर	-8112
▁वैसा	-8113
▁मैसूर	-8114
ोनें	-8115
▁नर्म	-8116
▁सौंद	-8117
▁जायेंगे	-8118
सो	-8119
▁झु	-8120
न्ने	-8121
दायिक	-8122
▁तुच्छ	-8123
▁सृजित	-8124
▁ग्रन्थ	-8125
▁नवम्बर	-8126
एटी	-8127
रीब	-8128
▁डिली	-8129
▁सकने	-8130
▁सूरज	-8131
▁श्वेत	-8132
▁पंजाबी	-8133
लि	-8134
▁पाग	-8135
▁क्रय	-8136
▁मादा	-8137
▁विधा	-8138
▁वृत्त	-8139
▁वैष्ण	-8140
▁आजीविका	-8141
▁एक्सप्रेस	-8142
▁मित	-8143
▁रेट	-8144
क्तता	-8145
▁आजाद	-8146
▁टीका	-8147
▁हुईं	-8148
▁स्पर्श	-8149
BI	-8150
▁सज	-8151
▁उत्	-8152
▁गंध	-8153
▁मदन	-8154
▁दुर्ग	-8155
▁स्नेह	-8156
▁अभिभाव	-8157
▁इंदिरा	-8158
▁शुरूआत	-8159
▁वीडियोग्राफी	-8160
तृक	-8161
नीत	-8162
▁MD	-8163
▁वाज	-8164
▁मोदी	-8165
▁जिसको	-8166
▁निबंध	-8167
▁अपूर्ण	-8168
▁मांसपेश	-8169
▁वाक्यांश	-8170
▁संकल्पना	-8171
रियर	-8172
▁मुख्यतः	-8173
▁पुस्तकालय	-8174
▁कार्यकर्ता	-8175
▁वध	-8176
हीनता	-8177
▁लेगा	-8178
▁अनुदेश	-8179
▁स्टांप	-8180
ावन	-8181
ूर्व	-8182
▁मक्	-8183
▁बाबा	-8184
तन्त्र	-8185
▁कनाडा	-8186
▁एससीआर	-8187
▁ब्रांड	-8188
नस	-8189
▁कोण	-8190
▁टेप	-8191
▁दंत	-8192
▁सैक	-8193
▁बेची	-8194
▁स्पॉट	-8195
▁अर्जुन	-8196
▁ग्यारह	-8197
▁प्रतियों	-8198
la	-8199
ार्इ	-8200
▁मनोज	-8201
▁दृढ़ता	-8202
▁प्रक्रम	-8203
▁आयुर्वेद	-8204
ff	-8205
▁संको	-8206
▁आबंटन	-8207
▁ध्वस्त	-8208
▁रामायण	-8209
▁ट्रस्टी	-8210
▁अधिनियमन	-8211
▁रिपोर्टों	-8212
ga	-8213
गांठ	-8214
▁बाध्यता	-8215
▁भागीदारों	-8216
▁संविदात्मक	-8217
विट	-8218
्षेप	-8219
▁विड	-8220
EL	-8221
▁दीप	-8222
▁थाना	-8223
▁हर्ष	-8224
▁ग्रीन	-8225
▁निकला	-8226
▁निरर्थ	-8227
▁पुस्तकें	-8228
ख्	-8229
शुदा	-8230
▁Exs	-8231
▁गला	-8232
▁पान	-8233
▁असाइन	-8234
▁जागरूकता	-8235
वाँ	-8236
▁केबल	-8237
▁कोने	-8238
▁माहौल	-8239
▁चित्रित	-8240
▁प्राइमा	-8241
ock	-8242
aran	-8243
ास्प	-8244
▁सास	-8245
▁बाढ़	-8246
▁जानती	-8247
▁प्रभु	-8248
▁चिल्ला	-8249
▁संतुलित	-8250
▁Resident	-8251
▁विकासशील	-8252
ath	-8253
ल्लू	-8254
▁पठन	-8255
▁लिखते	-8256
▁आकर्षक	-8257
▁इंस्टीट	-8258
▁देवताओं	-8259
▁प्रतिस्थापन	-8260
SH	-8261
मूल्य	-8262
सूत्र	-8263
▁बढ़ना	-8264
▁संयोग	-8265
▁अभ्याव	-8266
▁रूपांतरण	-8267
▁सर्वश्रेष्ठ	-8268
sad	-8269
गरी	-8270
मिया	-8271
▁वारिस	-8272
▁अभिन्न	-8273
▁क्लर्क	-8274
बिल	-8275
▁बिर	-8276
▁सिग	-8277
▁नरेश	-8278
▁अनन्त	-8279
▁कुरान	-8280
▁पैतृक	-8281
▁लिप्त	-8282
▁टेल	-8283
▁थोड़े	-8284
▁न्यायशास्त्र	-8285
ht	-8286
१९	-8287
▁चौक	-8288
▁बिन	-8289
क़्ति	-8290
▁अपनाए	-8291
▁निकले	-8292
▁यथोचित	-8293
▁वांछित	-8294
▁संस्कार	-8295
▁पारदर्शी	-8296
▁संग्रहालय	-8297
▁पर्यावरणीय	-8298
▁हिस्सेदारी	-8299
हो	-8300
▁छीन	-8301
▁बटन	-8302
▁कन्न	-8303
▁घृणा	-8304
कोत्तर	-8305
▁सहयोगियों	-8306
▁ऊँ	-8307
▁ढल	-8308
स्तु	-8309
▁आगामी	-8310
▁अकादमी	-8311
▁रूपरेखा	-8312
दाई	-8313
त्रि	-8314
▁लोप	-8315
▁शार	-8316
▁अनुकरण	-8317
▁कृष्णा	-8318
▁प्रचालन	-8319
▁समस्याएं	-8320
▁आत्मविश्वास	-8321
ट्स	-8322
बान	-8323
▁तारीखों	-8324
▁उत्कृष्टता	-8325
▁कराए	-8326
▁सामुदायिक	-8327
राई	-8328
क्चर	-8329
▁फेफ	-8330
▁एसएच	-8331
▁उत्सुक	-8332
▁डिप्टी	-8333
▁दिखाना	-8334
▁विदेशों	-8335
▁प्रक्षेप	-8336
▁ड्राइविंग	-8337
▁पूर्वगामी	-8338
िडे	-8339
▁एजु	-8340
▁पुरी	-8341
▁एक्स्ट	-8342
▁प्रोटीन	-8343
बेन	-8344
▁आशी	-8345
▁कृपा	-8346
▁जलने	-8347
▁सिफारिशें	-8348
ाग्र	-8349
▁हेर	-8350
न्नाथ	-8351
▁एसएस	-8352
▁ट्रक	-8353
्रेताओं	-8354
▁उन्नयन	-8355
▁प्राणी	-8356
▁सैनिकों	-8357
▁इंटरनेशनल	-8358
▁एए	-8359
बीसी	-8360
▁चिन	-8361
्यूपी	-8362
▁ऋणों	-8363
▁सन्न	-8364
▁मूर्त	-8365
▁पकड़ने	-8366
▁संग्रहण	-8367
वैज्ञानिक	-8368
PS	-8369
▁यान	-8370
ांडिक	-8371
▁भरोसे	-8372
▁जटिलता	-8373
▁प्रतिनियुक्ति	-8374
ंडर	-8375
▁बचे	-8376
▁नकार	-8377
▁बेगम	-8378
▁दर्जा	-8379
▁पैरों	-8380
▁लम्बे	-8381
▁मक	-8382
▁यहू	-8383
▁पागल	-8384
▁पाना	-8385
ोग्राफ	-8386
▁धब्बे	-8387
▁स्नातकोत्तर	-8388
▁कबीर	-8389
▁आश्रय	-8390
▁वांछनीय	-8391
न्नी	-8392
▁टेक्न	-8393
▁सिंगा	-8394
▁अभिकरण	-8395
▁अर्थों	-8396
▁नवीनीकरण	-8397
▁राज्यक्षेत्र	-8398
▁संगणना	-8399
▁सौंदर्य	-8400
▁संप्रदाय	-8401
▁कस्ट	-8402
▁सीपी	-8403
▁भ्रामक	-8404
▁तंग	-8405
नाइटेड	-8406
ियुक्त	-8407
▁व्यास	-8408
▁निकासी	-8409
▁पराजित	-8410
घन	-8411
्ग	-8412
▁घटित	-8413
▁इन्द्र	-8414
▁डाक्टर	-8415
▁नवीनतम	-8416
▁चुनावों	-8417
डो	-8418
▁लाखों	-8419
▁देखरेख	-8420
▁प्रामा	-8421
na	-8422
ोडा	-8423
▁विट	-8424
▁पुणे	-8425
▁तेलंग	-8426
▁धाराओं	-8427
▁विडियो	-8428
्रेषण	-8429
▁ठहराए	-8430
▁संग्राम	-8431
▁किरायेदारों	-8432
जारी	-8433
भाषण	-8434
ॉर्म	-8435
▁हंस	-8436
▁ऊंची	-8437
▁मेहन	-8438
▁संचित	-8439
▁जगन्नाथ	-8440
▁तुम्हारी	-8441
परि	-8442
▁पठ	-8443
▁भीम	-8444
▁ओडिश	-8445
▁घोषणाओं	-8446
▁लेखापरी	-8447
▁सितम्बर	-8448
▁नियमावली	-8449
▁परंपरागत	-8450
ास्पद	-8451
▁करों	-8452
▁नियमन	-8453
▁संगणक	-8454
र्थियों	-8455
▁अन्तिम	-8456
▁उन्नति	-8457
▁शांतिपूर्ण	-8458
रीन	-8459
▁असु	-8460
▁साई	-8461
▁दवाओं	-8462
▁नियामक	-8463
▁उत्तेजित	-8464
थाम	-8465
दूत	-8466
▁टॉ	-8467
सायी	-8468
▁अखंड	-8469
▁बेकार	-8470
▁डिलीवरी	-8471
▁भिन्नता	-8472
▁वसीयतकर्ता	-8473
थिल	-8474
▁शिम	-8475
▁ध्रु	-8476
▁समकक्ष	-8477
▁कंपनियां	-8478
▁अभ्यावेदन	-8479
षक	-8480
ंगन	-8481
▁इंच	-8482
▁आपदा	-8483
▁क़्यों	-8484
▁कानपुर	-8485
▁कॉपीराइट	-8486
▁फ्रैक्चर	-8487
▁पुनर्निर्	-8488
▁सुविधाजनक	-8489
▁इसको	-8490
▁डेवलप	-8491
▁Prasad	-8492
▁दांडिक	-8493
▁कीटनाशक	-8494
▁बेंगलुरु	-8495
▁पदा	-8496
▁तालुका	-8497
▁पहुँचे	-8498
▁रक्तस्राव	-8499
शंकर	-8500
्वरी	-8501
▁छेद	-8502
▁सिख	-8503
▁ओडिशा	-8504
▁मेहता	-8505
▁संकोच	-8506
▁पालिका	-8507
▁संवर्ग	-8508
▁सार्वभौमिक	-8509
art	-8510
ंटा	-8511
निष	-8512
▁Bl	-8513
▁भै	-8514
▁कों	-8515
▁वाई	-8516
▁कोयले	-8517
▁ट्रेन	-8518
▁कनिष्ठ	-8519
▁अकादमिक	-8520
▁इंजीनियरी	-8521
ांट	-8522
▁बं	-8523
न्तर	-8524
▁असुर	-8525
▁आगमन	-8526
▁वासी	-8527
▁उपग्रह	-8528
▁रोगियों	-8529
हाल	-8530
▁गुणा	-8531
▁डाली	-8532
▁दीपक	-8533
▁स्वप्न	-8534
MC	-8535
१क	-8536
वाड़	-8537
▁एने	-8538
▁जस्ट	-8539
▁उदासीन	-8540
▁कवियों	-8541
▁उच्चारण	-8542
▁तस्वीरें	-8543
▁शिकायतें	-8544
▁u	-8545
बोध	-8546
िटन	-8547
▁वरन्	-8548
▁तस्वी	-8549
▁मार्ज	-8550
▁असफलता	-8551
▁अधिवेशन	-8552
▁चंडीगढ़	-8553
रेशन	-8554
ासित	-8555
▁समाह	-8556
▁सावधान	-8557
ंडे	-8558
ार्म	-8559
्रेटर	-8560
▁आगरा	-8561
▁कामों	-8562
▁भागने	-8563
▁विचलन	-8564
▁सिरों	-8565
▁ऑपरेटर	-8566
▁सिंगापुर	-8567
रोल	-8568
डीएस	-8569
बंधक	-8570
▁आदर	-8571
द्धार	-8572
▁अम्ल	-8573
▁अंतरित	-8574
▁रचनाओं	-8575
▁प्रतिबिंबित	-8576
किम	-8577
गीर	-8578
▁Co	-8579
ापुर	-8580
ूँगा	-8581
चन्द्र	-8582
▁जंगली	-8583
▁जिक्र	-8584
▁प्रां	-8585
▁क्रिस्ट	-8586
▁विवेकपूर्ण	-8587
चु	-8588
ुरत	-8589
र्टी	-8590
▁आदत	-8591
▁ह्र	-8592
▁ऊंचे	-8593
▁युग्म	-8594
▁रवाना	-8595
▁तेलंगाना	-8596
▁उत्पादकता	-8597
वट	-8598
▁आइए	-8599
▁बसे	-8600
▁रेत	-8601
▁जैविक	-8602
▁दबाया	-8603
▁फांसी	-8604
▁यहूदी	-8605
▁अर्हता	-8606
▁सम्राट	-8607
▁राशियों	-8608
▁प्रतिवर्ष	-8609
LA	-8610
ॉड	-8611
▁नमक	-8612
▁पिल	-8613
▁हटाए	-8614
▁शुक्ला	-8615
▁फोरेंसिक	-8616
▁सैय	-8617
▁लगाता	-8618
▁क्रियान्वयन	-8619
्हा	-8620
ुपात	-8621
▁बहुल	-8622
▁अकेला	-8623
▁आकृति	-8624
▁रोकथाम	-8625
▁हड़ताल	-8626
▁तात्प	-8627
▁मुहम्मद	-8628
ुर्द	-8629
▁नाव	-8630
स्तीन	-8631
▁कैदी	-8632
▁रहीं	-8633
▁सवार	-8634
▁बिलों	-8635
▁संघीय	-8636
▁सिंगल	-8637
▁कीमतों	-8638
▁नोक	-8639
▁बडा	-8640
▁जीआर	-8641
▁ढूंढ	-8642
▁मोती	-8643
▁तालिका	-8644
▁विचित्र	-8645
▁पूर्णतया	-8646
कन	-8647
रहित	-8648
▁गेह	-8649
▁मण्ड	-8650
▁रसोई	-8651
▁अव्यव	-8652
क्तियों	-8653
▁निवारक	-8654
▁अनुज्ञा	-8655
▁मंत्रियों	-8656
▁प्राधिकारियों	-8657
▁अनंत	-8658
▁अवलंब	-8659
▁कर्ता	-8660
▁सुधारों	-8661
▁प्रामाणिक	-8662
म्य	-8663
रिफ	-8664
▁श्ल	-8665
▁कबूल	-8666
▁आवाज़	-8667
▁स्वाद	-8668
▁प्लांट	-8669
▁घड़ी	-8670
▁रखेगा	-8671
▁अरोड़ा	-8672
▁इलाकों	-8673
▁दिखाएँ	-8674
▁समावेशी	-8675
दह	-8676
गोश	-8677
ोदय	-8678
शब्द	-8679
ुग्ध	-8680
▁नाब	-8681
▁बर्फ	-8682
▁कपड़ा	-8683
▁दलीलें	-8684
▁निषिद्ध	-8685
ज़ार	-8686
सीएल	-8687
स्तीनी	-8688
▁अपितु	-8689
▁श्रेय	-8690
▁परिशिष्ट	-8691
TC	-8692
विद	-8693
ियस	-8694
र्फ़	-8695
▁अभिनय	-8696
▁करीबी	-8697
▁प्रेषण	-8698
▁शुरुआती	-8699
▁वैयक्तिक	-8700
uot	-8701
▁जोशी	-8702
▁तुमने	-8703
ाश	-8704
ब्ध	-8705
ोषक	-8706
रानी	-8707
▁देह	-8708
▁आघात	-8709
▁अनुमत	-8710
▁आश्रम	-8711
▁कलाकार	-8712
▁निरर्थक	-8713
IM	-8714
विन	-8715
ायती	-8716
▁घुम	-8717
▁छान	-8718
नीतिक	-8719
▁अनिवासी	-8720
▁कविताओं	-8721
आउट	-8722
▁MC	-8723
ंकित	-8724
▁आधी	-8725
▁चुक	-8726
▁सबके	-8727
▁समित	-8728
▁प्राप	-8729
▁आनुवंश	-8730
▁रणनीति	-8731
इंट	-8732
▁रूम	-8733
▁एण्ड	-8734
▁एपीपी	-8735
▁आकर्षण	-8736
▁पत्राचार	-8737
▁झिल	-8738
▁असंव	-8739
▁आचार	-8740
▁दरबार	-8741
▁मांगे	-8742
▁सोचने	-8743
▁दंडात्मक	-8744
▁प्रसारित	-8745
▁अधिनिर्णय	-8746
▁विशेषज्ञता	-8747
▁महाविद्यालय	-8748
▁लड़ा	-8749
▁पिस्त	-8750
▁बहाने	-8751
▁लाहौर	-8752
▁सम्पन्न	-8753
वर्	-8754
▁अभिव	-8755
▁कर्ज	-8756
▁अवशोषण	-8757
▁विनम्र	-8758
▁आदिवासी	-8759
▁उल्लेखित	-8760
▁न्यायोचित	-8761
▁ढाल	-8762
▁भगत	-8763
▁सरोज	-8764
्रिक्स	-8765
▁वृत्ति	-8766
▁साइकिल	-8767
▁विधियां	-8768
▁अंग्रेज़ी	-8769
▁परिवीक्षा	-8770
मेह	-8771
▁रथ	-8772
ष्टा	-8773
▁अफ़	-8774
▁डंप	-8775
▁चलती	-8776
▁मापने	-8777
▁महेंद्र	-8778
▁तस्वीरों	-8779
कना	-8780
▁महाक	-8781
▁श्रो	-8782
▁सादे	-8783
▁क्रिम	-8784
▁मिथ्या	-8785
▁अभिभाषण	-8786
▁अनुबंधों	-8787
▁सांख्यिकी	-8788
▁स्वाधीनता	-8789
▁आश्चर्यजनक	-8790
काउ	-8791
▁जानवर	-8792
▁शॉर्ट	-8793
▁स्थूल	-8794
▁उन्होनें	-8795
▁क्रांतिकारी	-8796
लाश	-8797
्टन	-8798
▁Ba	-8799
देशी	-8800
▁फर्	-8801
▁यों	-8802
▁परित	-8803
▁मंडप	-8804
▁फायदे	-8805
▁सीआईटी	-8806
▁गणतंत्र	-8807
ायन	-8808
▁आवरण	-8809
▁आखिरी	-8810
▁इन्हीं	-8811
▁गुजरना	-8812
▁सुन्दर	-8813
ara	-8814
ंशी	-8815
▁पंख	-8816
▁पेड़ों	-8817
▁उदाहरणों	-8818
▁तात्पर्य	-8819
वृ	-8820
▁लूट	-8821
▁उत्सव	-8822
▁सदनों	-8823
▁ड्रग्स	-8824
▁प्रकरण	-8825
ेरा	-8826
ुक़्त	-8827
▁गोवा	-8828
▁आमदनी	-8829
▁किस्त	-8830
▁स्कोर	-8831
▁नाबार्ड	-8832
लेखन	-8833
▁छोर	-8834
▁चौकी	-8835
▁देहा	-8836
▁भट्ट	-8837
िडेविट	-8838
▁बलराम	-8839
▁बेदखल	-8840
▁रांची	-8841
▁खटखटाया	-8842
▁वॉल्यूम	-8843
▁स्वच्छता	-8844
▁फिलीस्तीनी	-8845
खण्ड	-8846
▁अल्ट	-8847
▁एग्री	-8848
▁चुनने	-8849
▁विशेषताएं	-8850
▁लड	-8851
ड़की	-8852
▁शाल	-8853
▁विक्रेताओं	-8854
झी	-8855
झे	-8856
ect	-8857
ज़े	-8858
टरी	-8859
▁सीएम	-8860
▁Block	-8861
▁खरीदे	-8862
▁रूपये	-8863
▁अक्षमता	-8864
▁दर्शाती	-8865
▁पिस्तौल	-8866
▁अयोग्यता	-8867
▁एफिडेविट	-8868
▁गठ	-8869
▁यहीं	-8870
▁लेवी	-8871
▁संदत्त	-8872
ार्टमेंट	-8873
ग़	-8874
▁माथ	-8875
▁आरआई	-8876
▁नकली	-8877
▁स्टै	-8878
▁स्या	-8879
▁उपदेश	-8880
▁समामेलन	-8881
▁यूनाइटेड	-8882
▁व्याख्यान	-8883
टीए	-8884
▁जॉन	-8885
▁माफ	-8886
▁कब्ज़ा	-8887
पार	-8888
मुखी	-8889
▁संभ	-8890
▁स्था	-8891
▁समाहित	-8892
▁डॉक्टरों	-8893
▁सद्भावना	-8894
▁आर्बिट्रेटर	-8895
रोग	-8896
▁बत	-8897
जातीय	-8898
▁असंतोष	-8899
▁उत्तरा	-8900
▁मेट्रोप	-8901
लेस	-8902
▁VI	-8903
तिया	-8904
ृश्य	-8905
▁डीए	-8906
लियों	-8907
▁IANo	-8908
▁ईस्ट	-8909
▁कराता	-8910
ेरी	-8911
बाबू	-8912
लैंड	-8913
्वित	-8914
▁कैम	-8915
▁शर्म	-8916
्ज	-8917
ओसी	-8918
एफसी	-8919
ामिन	-8920
▁गोला	-8921
▁शर्ट	-8922
▁बैठने	-8923
▁स्टोर	-8924
▁आचार्य	-8925
▁विवाहित	-8926
ृंग	-8927
▁झटका	-8928
▁लोगो	-8929
धिकारी	-8930
▁इस्तीफा	-8931
▁बहिष्कार	-8932
▁कम्प्यूटर	-8933
▁विरोधाभासी	-8934
▁परिस्थितियाँ	-8935
▁थै	-8936
तियां	-8937
▁औषधि	-8938
▁फरार	-8939
▁बोला	-8940
▁भिन्	-8941
▁महास	-8942
▁स्पी	-8943
▁कारगर	-8944
▁मराठी	-8945
▁अवधारण	-8946
▁एशियाई	-8947
▁नमूनों	-8948
▁अध्यापक	-8949
▁उपनिवेश	-8950
▁नवान्वेष	-8951
▁मध्यस्थों	-8952
▁प्रतिभूतियों	-8953
चेरी	-8954
िस्टर	-8955
▁तिलक	-8956
▁दोबारा	-8957
्साइड	-8958
▁फर्क	-8959
▁देखिए	-8960
▁टेलीवि	-8961
▁पक्षियों	-8962
▁लोकायुक्त	-8963
▁नियुक्तियां	-8964
ani	-8965
und	-8966
रण्य	-8967
▁उगा	-8968
▁एमएम	-8969
▁मत्स	-8970
▁प्रवी	-8971
व्यवहार	-8972
▁पूंजीगत	-8973
▁व्याकरण	-8974
▁जनजातियों	-8975
गें	-8976
मिल	-8977
▁सौदे	-8978
▁क्राइ	-8979
▁मूत्र	-8980
▁सिगरेट	-8981
▁माइक्रो	-8982
▁परिसमापन	-8983
तूस	-8984
िवेदी	-8985
▁आन्द	-8986
▁उठाकर	-8987
▁ग्वाल	-8988
▁भरपूर	-8989
▁शिष्ट	-8990
▁अंगूठे	-8991
▁निधियों	-8992
▁साथियों	-8993
ow	-8994
▁फेड	-8995
▁अरबी	-8996
▁बचपन	-8997
▁पकड़ा	-8998
▁लड़का	-8999
ेंच	-9000
▁गर	-9001
▁फा	-9002
▁अंस	-9003
▁मैथ	-9004
▁आजकल	-9005
▁द्रव	-9006
नेश्वर	-9007
▁जीओएम	-9008
▁नोटरी	-9009
▁सर्वप्र	-9010
मंड	-9011
▁नु	-9012
र्सी	-9013
▁कॉम	-9014
▁भती	-9015
▁अमान	-9016
▁कंधे	-9017
▁क्षम	-9018
▁हिला	-9019
▁मार्जिन	-9020
▁उत्तराधिकारियों	-9021
दय	-9022
▁उठे	-9023
▁बाब	-9024
▁नजदी	-9025
▁फाउंड	-9026
▁समीकरण	-9027
▁मापदंडों	-9028
▁कृषक	-9029
▁प्रब	-9030
▁उन्हे	-9031
▁कारतूस	-9032
TH	-9033
▁हुक	-9034
▁विषा	-9035
▁घंटों	-9036
▁आउटपुट	-9037
▁कर्मों	-9038
▁उत्सर्जन	-9039
▁प्रस्तावना	-9040
▁मार्गदर्शक	-9041
क्ल	-9042
▁Aug	-9043
▁रतन	-9044
▁राउ	-9045
▁वसा	-9046
▁व्ह	-9047
▁इराक	-9048
▁डालर	-9049
▁दादा	-9050
▁मणिप	-9051
िपूर्ण	-9052
▁भ्रूण	-9053
▁लम्बी	-9054
▁सच्ची	-9055
▁स्नान	-9056
▁अनदेखा	-9057
▁ड्राइव	-9058
▁श्रद्धा	-9059
▁ट्रांसपोर्ट	-9060
पीएल	-9061
िस्थ	-9062
▁बढा	-9063
▁आपूर्त	-9064
▁प्रशांत	-9065
▁प्रतिपादन	-9066
िएट	-9067
▁PC	-9068
▁st	-9069
देवी	-9070
▁ऊंचा	-9071
▁लौटे	-9072
२०	-9073
टकों	-9074
बर्ट	-9075
▁दिल्	-9076
▁बंधन	-9077
▁मैनु	-9078
▁व्यर्थ	-9079
ैप	-9080
वाट	-9081
▁इसल	-9082
▁सुग	-9083
▁आयाम	-9084
▁पद्म	-9085
▁चेहरा	-9086
▁मिस्र	-9087
▁जोड़ें	-9088
▁वैष्णव	-9089
▁असमानता	-9090
▁अफगानिस्तान	-9091
राक	-9092
न्दा	-9093
शिंग	-9094
▁उपस	-9095
▁नकल	-9096
▁दुबे	-9097
▁अभिने	-9098
▁जर्मन	-9099
▁न्यूज	-9100
▁अपनाना	-9101
▁स्मारक	-9102
▁गर्भाशय	-9103
▁दर्शाने	-9104
▁प्रदाता	-9105
▁अभिप्राय	-9106
▁मानचित्र	-9107
▁महाप्रबंधक	-9108
▁इंस्टीट्यूट	-9109
णुओं	-9110
माही	-9111
लपुर	-9112
्तान	-9113
▁Son	-9114
▁एमसी	-9115
▁प्लग	-9116
▁अवशेष	-9117
▁निर्ब	-9118
▁वादियों	-9119
▁व्यष्टि	-9120
▁उपलब्धियों	-9121
ind	-9122
्लेक्स	-9123
▁इंदौर	-9124
▁श्लोक	-9125
▁चाहेंगे	-9126
▁राष्ट्री	-9127
पल	-9128
लोड	-9129
▁यश	-9130
िवर्स	-9131
▁अनिय	-9132
▁आंकड़ा	-9133
▁बंगाली	-9134
सराय	-9135
▁प्रवीण	-9136
▁बाज़ार	-9137
ee	-9138
ॉग	-9139
▁टाल	-9140
▁दार	-9141
▁बही	-9142
▁भूख	-9143
▁पिटी	-9144
▁जोड़ी	-9145
▁स्वर्ग	-9146
▁प्रोबेट	-9147
▁बेईमानी	-9148
ोला	-9149
पंथी	-9150
▁कैन	-9151
▁साख	-9152
चरिता	-9153
▁यथास	-9154
ढ़ियों	-9155
▁कॉन्ट	-9156
▁फूलों	-9157
▁स्थलों	-9158
▁चिकित्सकीय	-9159
▁व्यापारियों	-9160
GAL	-9161
ीलाल	-9162
सिद्ध	-9163
▁सबको	-9164
▁संजीव	-9165
▁नेताजी	-9166
▁नैतिकता	-9167
ND	-9168
ँव	-9169
खार	-9170
▁Pol	-9171
▁बंट	-9172
▁गिरने	-9173
▁प्राधिकरणों	-9174
गणना	-9175
माला	-9176
▁मेम	-9177
▁साठ	-9178
▁फर्द	-9179
▁अतिमान	-9180
▁आक्षेप	-9181
▁अधीक्षण	-9182
▁कन्वेंशन	-9183
▁पार्टियां	-9184
बिनेट	-9185
▁अस्व	-9186
▁टेनिस	-9187
▁विभेद	-9188
▁सुदूर	-9189
▁अवज्ञा	-9190
▁निगमों	-9191
▁सामानों	-9192
▁सुचरिता	-9193
▁आविष्कार	-9194
▁फू	-9195
धारक	-9196
हानि	-9197
▁एडी	-9198
▁चौथा	-9199
▁मानती	-9200
▁म्यूट	-9201
▁सब्सि	-9202
▁जस्टिस	-9203
▁पंचायतों	-9204
▁साक्षरता	-9205
▁गतिविधियां	-9206
PL	-9207
▁CWJC	-9208
▁तालुक	-9209
op	-9210
ैत	-9211
स्सी	-9212
▁टैब	-9213
▁दीन	-9214
▁मोर	-9215
▁आर्म	-9216
▁तिहाई	-9217
▁विकृति	-9218
▁व्यवसायी	-9219
रियल	-9220
्रिक	-9221
▁एमबी	-9222
▁कॉलोनी	-9223
▁तुलनात्मक	-9224
▁बांग्लादेश	-9225
ुतोष	-9226
▁पतन	-9227
▁परो	-9228
▁आवश्य	-9229
▁कीजिए	-9230
▁डिस्च	-9231
▁अधीनता	-9232
▁सौभाग्य	-9233
▁कूद	-9234
▁चित	-9235
▁बिछ	-9236
▁कौंस	-9237
▁मेहर	-9238
▁रोज़	-9239
▁सतीश	-9240
▁टैगोर	-9241
▁डेस्क	-9242
▁अरविंद	-9243
▁लाभदायक	-9244
▁अभिरक्षा	-9245
anc	-9246
मेर	-9247
ख़्या	-9248
ोरेंस	-9249
▁इंजन	-9250
▁कमाई	-9251
▁Champ	-9252
▁इकबाल	-9253
▁एससीए	-9254
▁कॉम्प	-9255
▁भोपाल	-9256
▁स्विच	-9257
▁प्रशासक	-9258
▁डिस्चार्ज	-9259
▁इंडस्ट्रीज	-9260
ड्	-9261
▁खर	-9262
ंताओं	-9263
प्रति	-9264
▁तम्ब	-9265
▁सोना	-9266
महल	-9267
▁चीफ	-9268
endra	-9269
▁आरसी	-9270
▁पूछे	-9271
▁अंतरा	-9272
▁शिष्य	-9273
▁मुहैया	-9274
▁श्रद्ध	-9275
▁गोपनीयता	-9276
▁प्रभुत्व	-9277
▁ः	-9278
▁छः	-9279
▁जेब	-9280
▁हाज	-9281
▁अभेद	-9282
▁साइन	-9283
▁चतुर्थ	-9284
▁पुत्री	-9285
▁असमर्थता	-9286
घट	-9287
पटल	-9288
▁छिपा	-9289
▁धोखे	-9290
▁समाजवादी	-9291
ION	-9292
भुत	-9293
्वाइ	-9294
▁पुनर	-9295
▁बचना	-9296
▁सालों	-9297
▁बंगलौर	-9298
▁मैनुअल	-9299
▁क्रिमिनल	-9300
▁प्रख्यात	-9301
स्म	-9302
ृहीत	-9303
यंत्र	-9304
▁अर्क	-9305
▁दुग्ध	-9306
▁इंडिका	-9307
▁निराशा	-9308
▁आपूर्तिक	-9309
▁कामगारों	-9310
▁सर्वप्रथम	-9311
ey	-9312
आईए	-9313
ण्ट	-9314
्ति	-9315
▁कैद	-9316
क्सीजन	-9317
▁दिखता	-9318
▁बदनाम	-9319
▁कर्मकार	-9320
▁वॉ	-9321
▁सब्ज	-9322
▁प्रसंग	-9323
▁ऑपरेटिव	-9324
बीएस	-9325
▁हनु	-9326
▁बैंड	-9327
▁हफ्त	-9328
▁गर्भव	-9329
▁ललिता	-9330
▁वेस्ट	-9331
▁प्रोटोकॉल	-9332
फ्फ	-9333
बाग	-9334
रुप	-9335
लाइ	-9336
िवि	-9337
▁ओब	-9338
बूती	-9339
मुना	-9340
▁बोले	-9341
ंतुष्ट	-9342
▁अवतार	-9343
▁प्रजा	-9344
▁खोपड़ी	-9345
▁दीवारों	-9346
EC	-9347
ham	-9348
▁सिखा	-9349
▁सौदा	-9350
▁प्रसव	-9351
▁अहिंसा	-9352
▁जैसाकि	-9353
▁मंत्रालयों	-9354
ौली	-9355
▁as	-9356
यालय	-9357
▁पेशी	-9358
▁परवाह	-9359
▁बीडीए	-9360
▁आशुतोष	-9361
▁जजमेंट	-9362
▁प्रहार	-9363
▁परीक्षणों	-9364
िंगर	-9365
▁अपार	-9366
▁मेगा	-9367
▁मानवा	-9368
▁सोचता	-9369
▁स्ट्रीट	-9370
है	-9371
खली	-9372
ुरू	-9373
▁Ro	-9374
्युन	-9375
▁डिम	-9376
▁DIST	-9377
▁पुराण	-9378
▁पूछने	-9379
▁धर्मों	-9380
▁क़्योंकि	-9381
जुट	-9382
तकों	-9383
पुरम	-9384
ल्लाह	-9385
▁बिन्दु	-9386
▁फाउंडेशन	-9387
▁इस्लामवादी	-9388
ter	-9389
र्तक	-9390
र्षण	-9391
ालों	-9392
▁उधर	-9393
िरपेक्ष	-9394
▁रियासत	-9395
▁मुद्रित	-9396
▁परियोजनाएं	-9397
ँह	-9398
AME	-9399
मिकस	-9400
▁निदान	-9401
▁जमानती	-9402
▁रिश्ते	-9403
▁विवादास्पद	-9404
ac	-9405
ear	-9406
gan	-9407
▁ऑल	-9408
▁जगा	-9409
▁एमडी	-9410
▁डीडी	-9411
▁उड़ान	-9412
▁सच्चा	-9413
▁क्रमिक	-9414
▁लिखावट	-9415
▁गुजराती	-9416
▁निर्देशन	-9417
ीदा	-9418
ोगे	-9419
▁काय	-9420
▁गढ़	-9421
▁पित	-9422
▁सोनी	-9423
▁बंगला	-9424
▁शिमला	-9425
▁कैबिनेट	-9426
AI	-9427
पद	-9428
सात	-9429
टिंग	-9430
▁रॉयल	-9431
▁षड्य	-9432
▁समझी	-9433
ेश्वरी	-9434
▁उत्पा	-9435
▁एएसआई	-9436
▁क्षमा	-9437
▁सिनेमा	-9438
▁असंतुष्ट	-9439
▁लाइसेंसधारी	-9440
डम	-9441
दण्ड	-9442
▁गंग	-9443
▁क्षै	-9444
▁फर्श	-9445
▁बालों	-9446
▁अनजाने	-9447
▁कहानियों	-9448
▁शेयरधारक	-9449
▁प्रशंसनीय	-9450
▁सांप्रदायिक	-9451
▁एएस	-9452
▁पिन	-9453
ब्दिक	-9454
▁भव्य	-9455
▁आज्ञा	-9456
▁एमिकस	-9457
▁गाँधी	-9458
▁चिपका	-9459
▁निर्गम	-9460
▁सेवकों	-9461
▁प्रतिमा	-9462
▁प्रदेशों	-9463
▁अन्यायपूर्ण	-9464
ज़न	-9465
नाई	-9466
▁जहर	-9467
▁गीतों	-9468
▁डालते	-9469
▁महान्	-9470
▁स्कैन	-9471
▁हिंदुओं	-9472
▁इट	-9473
▁Crl	-9474
▁शीत	-9475
▁चलाए	-9476
▁प्रचुर	-9477
▁सीरिया	-9478
▁हमलावर	-9479
▁प्रत्यर्थी	-9480
▁लीला	-9481
▁लेनी	-9482
▁बस्ती	-9483
▁भेजें	-9484
▁संभालने	-9485
▁डब्ल्यूपी	-9486
▁संव्यवहार	-9487
▁इंक	-9488
▁ऋतु	-9489
▁कंक	-9490
▁चलकर	-9491
▁फाइन	-9492
▁खेतों	-9493
▁जिंदगी	-9494
▁महाराज	-9495
▁मांगने	-9496
▁खाम	-9497
▁डाइ	-9498
▁चलना	-9499
▁हुये	-9500
▁एकजुट	-9501
▁मायने	-9502
▁इसलिये	-9503
▁करूंगा	-9504
▁पिटीशन	-9505
▁Station	-9506
▁अनुभूति	-9507
▁सब्सिडी	-9508
000	-9509
ary	-9510
घोष	-9511
जलि	-9512
adav	-9513
तरफा	-9514
त्ती	-9515
िलास	-9516
▁धूल	-9517
्रेशन	-9518
▁अवस्थित	-9519
▁शाब्दिक	-9520
▁असाइनमेंट	-9521
ंय	-9522
गिक	-9523
तने	-9524
नाल	-9525
▁जस	-9526
▁गंत	-9527
▁शिप	-9528
▁वाहक	-9529
▁मुंशी	-9530
▁उर्वरक	-9531
▁चर्चाओं	-9532
▁एनडीपीएस	-9533
▁थोक	-9534
▁वैट	-9535
▁राइट	-9536
▁बम्बई	-9537
▁मानकर	-9538
▁मूर्ख	-9539
▁संचयी	-9540
▁शब्दकोश	-9541
▁सुझावों	-9542
▁मनुष्यों	-9543
पना	-9544
▁पाय	-9545
▁ब्यौ	-9546
▁सेटल	-9547
▁बदलना	-9548
▁संतान	-9549
▁स्पेश	-9550
▁मत्स्य	-9551
▁मधुमेह	-9552
▁ईमानदार	-9553
▁गर्भवती	-9554
▁निमित्त	-9555
▁Pat	-9556
▁कंड	-9557
▁रेस	-9558
▁सोव	-9559
लावरों	-9560
▁राजाओं	-9561
▁स्त्रो	-9562
▁त्रुटिः	-9563
▁निपटारे	-9564
▁फिल्मों	-9565
▁तुम्हारा	-9566
▁राजपत्रित	-9567
▁बोलीदाताओं	-9568
▁भेदभावपूर्ण	-9569
ैड	-9570
ंसी	-9571
सेन	-9572
▁उपास	-9573
▁पादप	-9574
▁सादा	-9575
▁सुगम	-9576
▁डालना	-9577
▁मुकेश	-9578
▁अनुष्ठ	-9579
▁हमलावरों	-9580
em	-9581
▁बिख	-9582
▁कारी	-9583
▁काफ़ी	-9584
▁बचाया	-9585
▁शिथिल	-9586
▁Police	-9587
२क	-9588
फेर	-9589
▁WA	-9590
▁छु	-9591
ुल्ला	-9592
▁आवेग	-9593
▁गोयल	-9594
▁घटकों	-9595
▁शिविर	-9596
▁अखंडता	-9597
▁छात्रा	-9598
▁नाटकों	-9599
▁निगमित	-9600
▁सिर्फ़	-9601
▁प्रबन्ध	-9602
▁विटामिन	-9603
▁प्रबंधित	-9604
ta	-9605
टिक	-9606
▁शम	-9607
र्षि	-9608
स्कर	-9609
▁कटक	-9610
▁लॉज	-9611
▁सभ्य	-9612
▁दीक्ष	-9613
▁रोकता	-9614
▁अधिशेष	-9615
▁मशीनों	-9616
▁मेमोरी	-9617
▁वकीलों	-9618
▁पूर्वोत्तर	-9619
ity	-9620
गुण	-9621
▁नहर	-9622
▁नाप	-9623
▁बान	-9624
वर्तन	-9625
▁अन्न	-9626
▁नानक	-9627
▁रोचक	-9628
▁मुल्क	-9629
▁साकार	-9630
▁असिस्ट	-9631
▁निक्षेप	-9632
▁महासागर	-9633
ूल्स	-9634
वाड़ा	-9635
▁एमएल	-9636
▁खुदरा	-9637
▁उपनियम	-9638
खान	-9639
तिज	-9640
ब्ज	-9641
ोंग	-9642
▁अघ	-9643
▁बगल	-9644
▁बनती	-9645
▁हड्ड	-9646
ावस्था	-9647
ोर्टियम	-9648
▁कमियों	-9649
▁डिप्लो	-9650
▁बादशाह	-9651
▁बिहारी	-9652
▁गोलीबारी	-9653
▁बहुमूल्य	-9654
▁फिलीस्तीन	-9655
rom	-9656
लाप	-9657
▁AR	-9658
▁गम्	-9659
▁नरम	-9660
▁कहें	-9661
▁सातवीं	-9662
▁परेशानी	-9663
▁क्षेत्रफल	-9664
▁मैत्रीपूर्ण	-9665
ांच	-9666
▁आड़	-9667
▁कसौ	-9668
▁परा	-9669
▁फुल	-9670
▁चौदह	-9671
▁दौरे	-9672
▁क्लेम	-9673
▁झगड़े	-9674
▁मेहनत	-9675
▁सामर्थ	-9676
▁उपबंधित	-9677
▁अनुरक्षण	-9678
ेयी	-9679
▁रेंज	-9680
▁विकिरण	-9681
▁केन्द्रों	-9682
टीई	-9683
शियन	-9684
१वीं	-9685
▁एजे	-9686
▁अलंक	-9687
▁क्षु	-9688
▁रहकर	-9689
▁कैलाश	-9690
▁झिल्ली	-9691
▁धर्मार्थ	-9692
▁दीर्घकालिक	-9693
▁मानवाधिकार	-9694
वह	-9695
तुल	-9696
भावी	-9697
▁भोज	-9698
मुक्त	-9699
▁गर्ग	-9700
▁बाला	-9701
▁माया	-9702
▁गोदाम	-9703
▁उद्भूत	-9704
▁जोरदार	-9705
▁आन्दोलन	-9706
▁विवेचना	-9707
▁ग्वालियर	-9708
कृ	-9709
च्य	-9710
▁अँ	-9711
▁थल	-9712
▁चित्त	-9713
▁पुकार	-9714
▁अंतर्व	-9715
▁अनुमेय	-9716
▁आनुपात	-9717
▁डिप्लोमा	-9718
▁षड्यंत्र	-9719
ंसे	-9720
बरी	-9721
▁भड़	-9722
▁रंगम	-9723
▁ऊतकों	-9724
▁बुराई	-9725
▁क्षमताओं	-9726
▁असंवैधानिक	-9727
र्नल	-9728
▁पीएच	-9729
▁महेश	-9730
▁अभिदाय	-9731
▁जीवाणु	-9732
▁दिलाने	-9733
▁सेकेंड	-9734
▁पहुंचाई	-9735
▁यूनिवर्स	-9736
हट	-9737
कर्स	-9738
ॉल्व	-9739
▁अनौ	-9740
▁पीछला	-9741
▁बेहोश	-9742
▁ज़रूरत	-9743
▁निरोधक	-9744
▁विसंगत	-9745
▁कंसोर्टियम	-9746
IV	-9747
प्रण	-9748
बंधन	-9749
वाया	-9750
▁कैंट	-9751
▁खसरा	-9752
▁चुंब	-9753
▁यकीन	-9754
पीसीएल	-9755
▁खींचा	-9756
▁परिमाण	-9757
▁पहुँचा	-9758
▁विख्यात	-9759
▁याचिकाएँ	-9760
लत	-9761
▁परव	-9762
▁संक्र	-9763
▁पारिस्थ	-9764
▁प्रत्यक्षदर्शी	-9765
ालक	-9766
िंट	-9767
▁on	-9768
▁बोर	-9769
मेंट्स	-9770
▁क्राइम	-9771
▁नर्सिंग	-9772
▁साझेदार	-9773
▁संस्थाएं	-9774
▁विशिष्टता	-9775
▁जरा	-9776
▁उज्ज	-9777
▁वर्न	-9778
▁सगाई	-9779
▁निरसित	-9780
▁निर्धन	-9781
▁मित्रता	-9782
▁बिल्डिंग	-9783
▁हिन्दुओं	-9784
▁अनियंत्रित	-9785
▁लेखापरीक्षा	-9786
ंबा	-9787
भिक	-9788
▁ऋषि	-9789
▁फ़ॉ	-9790
▁मेह	-9791
धारकों	-9792
▁दबाने	-9793
▁श्रील	-9794
▁द्वारक	-9795
▁संपादक	-9796
▁दीक्षांत	-9797
▁पर्यटकों	-9798
▁प्रायोजित	-9799
▁अपरिवर्तनीय	-9800
उस	-9801
▁रच	-9802
बयान	-9803
▁मुँह	-9804
▁एंट्री	-9805
▁चार्टर	-9806
▁कैदियों	-9807
▁सुरेंद्र	-9808
ंर	-9809
वर्ग	-9810
▁अपू	-9811
प्राइ	-9812
▁जीने	-9813
▁रिहाई	-9814
▁साइंस	-9815
▁अजीबोग	-9816
▁अभेद्य	-9817
▁संवेदना	-9818
▁सम्बद्ध	-9819
▁वित्तपोषण	-9820
▁विद्यालयों	-9821
▁कण	-9822
ंतुक	-9823
ब्बा	-9824
रेस्ट	-9825
▁ग्लो	-9826
▁जादू	-9827
▁दरें	-9828
च्छेदन	-9829
▁चलाना	-9830
▁नाराज	-9831
▁खिलाड़ी	-9832
▁शेड्यूल	-9833
▁विनिर्देश	-9834
▁वादकारियों	-9835
if	-9836
जाज	-9837
▁Ar	-9838
ितरण	-9839
▁गूगल	-9840
▁स्थाई	-9841
▁त्रिपा	-9842
▁विलियम	-9843
▁टेलीविजन	-9844
▁प्रांतीय	-9845
▁असुरक्षित	-9846
▁प्रगतिशील	-9847
जूर	-9848
्तर	-9849
▁हैस	-9850
▁टर्न	-9851
▁नारी	-9852
▁पहाड़	-9853
▁प्रवर्ग	-9854
▁आईए	-9855
▁आज़	-9856
ेशनों	-9857
▁ITAT	-9858
▁आरपी	-9859
▁रंजन	-9860
ोंडेंट	-9861
▁छानबीन	-9862
▁प्रेरक	-9863
▁अधिकाधिक	-9864
▁सेटलमेंट	-9865
ड़ित	-9866
▁अद्	-9867
▁कड़	-9868
▁भुव	-9869
▁ब्ला	-9870
्राउंड	-9871
▁प्रवास	-9872
▁समर्थक	-9873
▁कंप्यूट	-9874
▁सुपुर्द	-9875
▁प्रतिशोध	-9876
▁संस्थापक	-9877
▁प्रतिवेदन	-9878
▁अठ	-9879
▁तन	-9880
आरसी	-9881
तालों	-9882
▁कमरा	-9883
▁किशन	-9884
▁फिंगर	-9885
▁बेरोज	-9886
▁भेजना	-9887
▁सर्कल	-9888
▁क्षैतिज	-9889
▁त्रिपाठी	-9890
▁अजीबोगरीब	-9891
▁डकै	-9892
▁डेल	-9893
▁भूट	-9894
▁गुलाम	-9895
▁बच्चन	-9896
▁मजबूती	-9897
▁मांगों	-9898
▁अनुभवों	-9899
ंचन	-9900
मलव	-9901
्शा	-9902
▁ha	-9903
▁उछ	-9904
पेयी	-9905
बंधी	-9906
▁पेन	-9907
▁भूक	-9908
▁सज्	-9909
र्ध्व	-9910
▁अमीर	-9911
▁कपास	-9912
▁लिखत	-9913
▁मर्या	-9914
▁विध्व	-9915
▁सीटें	-9916
▁चुकाने	-9917
▁निरूपित	-9918
▁उपयोक्ता	-9919
वश	-9920
गाम	-9921
ादर	-9922
▁कन	-9923
ॉक्स	-9924
▁दीं	-9925
▁हिट	-9926
▁गेहूं	-9927
▁प्रगा	-9928
▁सर्वोपरि	-9929
▁साझीदारी	-9930
▁त्रुटियों	-9931
ढे	-9932
पो	-9933
्मी	-9934
▁पाती	-9935
▁रेशम	-9936
▁देसाई	-9937
▁कौंसिल	-9938
▁सीडब्ल्यू	-9939
▁एसई	-9940
▁बास	-9941
▁आईसी	-9942
▁बुरे	-9943
▁साझी	-9944
▁खर्चे	-9945
▁लार्ड	-9946
▁सनातन	-9947
▁पाठकों	-9948
▁संस्थापित	-9949
िमी	-9950
ेली	-9951
राइड	-9952
▁अभिल	-9953
▁चौथी	-9954
वृत्ति	-9955
▁नतीजा	-9956
▁प्रदाह	-9957
श्योरेंस	-9958
▁सत्याग्रह	-9959
eg	-9960
PNo	-9961
केल	-9962
▁एसिड	-9963
▁क्री	-9964
▁दशमलव	-9965
▁पकड़े	-9966
▁बेटों	-9967
▁कॉन्ट्र	-9968
▁पवित्रता	-9969
▁प्रस्थान	-9970
▁प्रजातियों	-9971
▁आओ	-9972
य्या	-9973
▁Mad	-9974
▁Mah	-9975
▁बादल	-9976
▁लाइट	-9977
▁विषम	-9978
▁संकु	-9979
▁ओबामा	-9980
▁दत्तक	-9981
▁विकार	-9982
▁गंतव्य	-9983
▁गम्भीर	-9984
▁पसंदीदा	-9985
▁मुकाबला	-9986
▁एक्सटेंशन	-9987
▁विसंगतियों	-9988
ाम्प	-9989
▁Sat	-9990
▁इधर	-9991
▁कोह	-9992
▁वारा	-9993
रेन्द्र	-9994
▁नियन्त	-9995
▁श्रीलंका	-9996
२१	-9997
ावधि	-9998
ियाई	-9999
▁PDD	-10000
▁डूब	-10001
काउंट	-10002
▁तमाम	-10003
▁जीवंत	-10004
▁दिलीप	-10005
▁लगेगा	-10006
▁हटाना	-10007
▁गतिशील	-10008
▁गरीबों	-10009
▁महिलाएं	-10010
नद	-10011
भगत	-10012
ंख्य	-10013
एसएस	-10014
▁खेप	-10015
चियों	-10016
▁किले	-10017
▁अतिथि	-10018
▁कार्ट	-10019
▁खेलने	-10020
▁डालता	-10021
▁पिटाई	-10022
▁मिनटों	-10023
▁रंगमंच	-10024
▁तत्परता	-10025
▁चार्टर्ड	-10026
▁ट्रेडिंग	-10027
▁निर्देशक	-10028
ik	-10029
चिव	-10030
▁Ws	-10031
▁मथ	-10032
ग्रा	-10033
▁चंप	-10034
▁सरा	-10035
रूपता	-10036
▁परिन	-10037
▁वर्क	-10038
▁विषयक	-10039
▁शासकीय	-10040
▁फर्दबयान	-10041
▁रेखांकित	-10042
हि	-10043
गरों	-10044
▁con	-10045
▁नित	-10046
▁एहसास	-10047
▁दत्ता	-10048
▁एल्गोर	-10049
▁शास्ति	-10050
▁सूचकांक	-10051
▁भरोसेमंद	-10052
र्चा	-10053
▁औरत	-10054
▁गुज	-10055
▁घूं	-10056
▁लची	-10057
▁शौच	-10058
▁ह्य	-10059
निवास	-10060
▁धीमी	-10061
▁समीप	-10062
▁जितने	-10063
▁मास्ट	-10064
▁सभाओं	-10065
▁केन्द्रित	-10066
▁प्राणियों	-10067
▁सौहार्दपूर्ण	-10068
डि	-10069
टॉप	-10070
▁पंक	-10071
▁पिक	-10072
▁फौज	-10073
▁शाक	-10074
▁दादी	-10075
▁पढ़ी	-10076
▁बनकर	-10077
▁यज्ञ	-10078
▁भागवत	-10079
▁श्वसन	-10080
▁स्केल	-10081
▁जोड़ना	-10082
▁रघुनाथ	-10083
▁बाजारों	-10084
▁सहभागिता	-10085
ea	-10086
क्यू	-10087
▁BAN	-10088
▁अजन	-10089
▁कुर	-10090
▁हरी	-10091
▁मिलन	-10092
▁एसएचओ	-10093
▁किसने	-10094
▁टैरिफ	-10095
▁निकाली	-10096
▁सृष्टि	-10097
▁अपूरणीय	-10098
▁अल्ट्रा	-10099
▁प्रभावों	-10100
▁देशवासियों	-10101
ीत	-10102
ाहट	-10103
शिला	-10104
▁गली	-10105
ताबिक	-10106
▁बीएस	-10107
▁सैंट	-10108
▁अरुणा	-10109
▁सर्जन	-10110
▁सेंटी	-10111
▁दिशाओं	-10112
▁शास्त्रीय	-10113
▁मंत्रिमंडल	-10114
शेर	-10115
▁कत	-10116
▁AGE	-10117
▁फेर	-10118
स्कृत	-10119
▁एचपी	-10120
▁विरा	-10121
प्रदेश	-10122
▁करवाने	-10123
▁मणिपुर	-10124
▁प्रतियोगी	-10125
▁बीमारियों	-10126
▁अर्थशास्त्र	-10127
डऋ	-10128
न्च	-10129
▁जह	-10130
▁नॉ	-10131
चन्द	-10132
धर्म	-10133
ोत्स	-10134
▁कसौटी	-10135
▁विहार	-10136
▁महर्षि	-10137
▁प्रवाहित	-10138
▁मैट्रिक्स	-10139
णित	-10140
ुलन	-10141
न्ता	-10142
▁अय्य	-10143
▁नाना	-10144
पत्रों	-10145
▁विराम	-10146
▁करेंगी	-10147
▁तिमाही	-10148
▁प्रगाढ़	-10149
▁हाउसिंग	-10150
OD	-10151
ीठ	-10152
डों	-10153
▁ऑयल	-10154
▁विय	-10155
▁गन्ने	-10156
▁जॉर्ज	-10157
▁पीडीएफ	-10158
▁प्रमोट	-10159
▁तम्बाकू	-10160
▁दर्शाते	-10161
▁भूखंडों	-10162
▁मुताबिक	-10163
▁पारिस्थित	-10164
▁लट	-10165
राने	-10166
▁मैप	-10167
▁फ्री	-10168
▁खोलें	-10169
▁सिंधु	-10170
▁अवधारित	-10171
▁प्रशस्त	-10172
▁सामर्थ्य	-10173
धीर	-10174
विता	-10175
▁Ind	-10176
▁com	-10177
▁कुश	-10178
▁खरा	-10179
▁खाल	-10180
वर्धन	-10181
▁जगत्	-10182
▁दयाल	-10183
▁बलों	-10184
▁मंडी	-10185
ुद्दीन	-10186
शंस	-10187
▁Mo	-10188
▁जौ	-10189
▁कमर	-10190
▁घेर	-10191
▁ज़ि	-10192
▁दां	-10193
▁मौन	-10194
▁अण्ड	-10195
▁सीएल	-10196
▁भवनों	-10197
▁खिड़की	-10198
▁विजेता	-10199
▁एजुकेशन	-10200
▁ट्रांसफर	-10201
EV	-10202
LI	-10203
▁हन	-10204
ल्ले	-10205
▁ताम	-10206
▁पीए	-10207
▁राइ	-10208
वाड़ी	-10209
▁बीबी	-10210
▁बेदखली	-10211
▁संचिका	-10212
▁इंजेक्शन	-10213
रथ	-10214
▁नद	-10215
▁अवध	-10216
▁ईंट	-10217
▁कुं	-10218
▁सरो	-10219
▁मादक	-10220
▁एमओयू	-10221
▁प्रॉप	-10222
▁मुस्क	-10223
▁नर्मदा	-10224
▁अनुपूरक	-10225
▁कैलेंडर	-10226
▁हार्डवेयर	-10227
थल	-10228
तरी	-10229
विस	-10230
साम	-10231
▁AD	-10232
▁गत	-10233
स्वी	-10234
तीकरण	-10235
▁इनसे	-10236
▁कटाई	-10237
▁कपूर	-10238
▁मल्ल	-10239
▁सीटी	-10240
▁आँखों	-10241
▁दर्शक	-10242
निर्देश	-10243
▁अर्पित	-10244
▁तुरन्त	-10245
▁बलिदान	-10246
▁मुद्रण	-10247
▁मतदाताओं	-10248
▁स्वतन्त्र	-10249
UM	-10250
ँजी	-10251
रोस	-10252
▁IS	-10253
▁आलम	-10254
▁उलझ	-10255
▁भूप	-10256
्रपान	-10257
▁बनते	-10258
▁मरीज	-10259
▁एकीकरण	-10260
▁प्रदीप	-10261
▁प्रिवी	-10262
▁फंसाने	-10263
▁निराधार	-10264
▁सापेक्ष	-10265
ess	-10266
▁अनो	-10267
▁मधुर	-10268
▁स्ना	-10269
▁छिद्र	-10270
▁राधाक	-10271
▁एकतरफा	-10272
▁कठोरता	-10273
▁समीचीन	-10274
▁हैसियत	-10275
▁जमींदार	-10276
▁मिलीभगत	-10277
▁व्याप्त	-10278
▁समन्वित	-10279
▁कार्यकलापों	-10280
▁पुनर्निर्माण	-10281
▁अन्तर्राष्ट्रीय	-10282
यित	-10283
पुरी	-10284
▁पटल	-10285
ापनों	-10286
▁काशी	-10287
▁चारा	-10288
▁भयानक	-10289
रूद्दीन	-10290
▁कुटुम्ब	-10291
▁उद्यमियों	-10292
▁प्रतिपादित	-10293
▁मनोवैज्ञानिक	-10294
▁wp	-10295
▁गिल	-10296
▁गौण	-10297
▁शुष	-10298
▁बस्त	-10299
▁माफी	-10300
▁मैक्स	-10301
▁कहलाता	-10302
▁महावीर	-10303
▁सर्किट	-10304
▁अस्वीकृत	-10305
▁रामचंद्र	-10306
her	-10307
पंच	-10308
ीयर	-10309
▁The	-10310
▁आँक	-10311
▁संल	-10312
ुलेशन	-10313
▁साधना	-10314
▁अशुद्ध	-10315
▁घटनाएं	-10316
▁चित्रों	-10317
▁सरकारें	-10318
▁अप्रत्या	-10319
▁भुवनेश्वर	-10320
td	-10321
पने	-10322
▁एके	-10323
▁दाई	-10324
▁गुहा	-10325
▁रत्न	-10326
प्रकाश	-10327
▁हनुमान	-10328
▁Champaran	-10329
▁कार्यात्मक	-10330
▁ऑस्ट्रेलिया	-10331
ोव	-10332
कांत	-10333
▁छंद	-10334
▁शवों	-10335
▁बनर्जी	-10336
▁डेस्कटॉप	-10337
▁डेवलपमेंट	-10338
▁स्वीकार्यता	-10339
SA	-10340
एव	-10341
जाक	-10342
ासा	-10343
्योर	-10344
▁तित	-10345
▁साउ	-10346
▁उतने	-10347
साधारण	-10348
▁क्राल	-10349
▁अवशोषित	-10350
▁अद्वितीय	-10351
▁पद्धतियों	-10352
▁प्रतिस्पर्धी	-10353
ैश	-10354
डेट	-10355
▁ओह	-10356
▁पण	-10357
देही	-10358
▁बेज	-10359
▁भाज	-10360
▁रेज	-10361
▁सीई	-10362
▁एमआर	-10363
▁माइन	-10364
▁दोषों	-10365
▁प्रको	-10366
▁प्रभा	-10367
▁ठहराते	-10368
▁नारियल	-10369
▁लड़कों	-10370
▁शासकों	-10371
▁पृष्ठों	-10372
▁रूपान्त	-10373
▁आनुवंशिक	-10374
▁परिसंपत्तियों	-10375
▁आंब	-10376
▁गों	-10377
ृष्णन	-10378
▁आलेख	-10379
▁उड़ा	-10380
▁रिसी	-10381
▁शाही	-10382
▁मनोहर	-10383
धारियों	-10384
▁असुविधा	-10385
▁मैक	-10386
▁रूचि	-10387
क्साइड	-10388
▁मिश्र	-10389
▁लापता	-10390
▁हिंसक	-10391
▁एनसीटी	-10392
▁प्रौढ़	-10393
▁पुरस्कारों	-10394
्राब	-10395
▁धनी	-10396
▁मौल	-10397
▁मवेश	-10398
▁अभिया	-10399
▁जिसमे	-10400
▁दीवान	-10401
▁रस्सी	-10402
▁लेआउट	-10403
▁संप्रभु	-10404
▁परीक्षाओं	-10405
णता	-10406
▁DR	-10407
▁co	-10408
▁ढाँ	-10409
▁तौल	-10410
▁नॉन	-10411
थियों	-10412
▁लैंड	-10413
▁ठहराव	-10414
▁तुलसी	-10415
▁राहुल	-10416
▁असहमति	-10417
▁डिक्शन	-10418
▁प्रादेश	-10419
▁विश्राम	-10420
▁कार्यपाल	-10421
ang	-10422
बिन	-10423
▁As	-10424
एमएस	-10425
▁जोन	-10426
▁वात	-10427
▁संक्रिया	-10428
▁Vs	-10429
▁ओल	-10430
ंगली	-10431
▁एसके	-10432
▁औजार	-10433
▁लीटर	-10434
▁अन्तः	-10435
▁उपद्र	-10436
▁मानों	-10437
▁पूर्वक	-10438
▁ग्राउंड	-10439
▁उत्तरार्	-10440
▁अनभ	-10441
▁धूप	-10442
▁गयीं	-10443
▁सेकंड	-10444
▁विचलित	-10445
ERA	-10446
ंथि	-10447
्की	-10448
,000	-10449
▁पैक	-10450
▁डीवी	-10451
▁पच्च	-10452
▁सन्त	-10453
▁सीबी	-10454
▁जगहों	-10455
▁बदलते	-10456
▁अंशदान	-10457
▁पहुँचने	-10458
▁संपादित	-10459
▁बुद्धिमान	-10460
eal	-10461
ंगर	-10462
सनी	-10463
फीति	-10464
▁अधू	-10465
▁ऋणी	-10466
जीवित	-10467
ोजकों	-10468
▁मनीष	-10469
▁टकराव	-10470
▁पढ़ें	-10471
▁समझती	-10472
▁साहिब	-10473
▁छोड़ना	-10474
▁तेलुगु	-10475
▁पक्षीय	-10476
▁लक्षणों	-10477
▁डिक्शनरी	-10478
थु	-10479
बुक	-10480
▁कछ	-10481
लब्ध	-10482
ालैंड	-10483
▁गहने	-10484
▁पैदल	-10485
▁बदलें	-10486
▁मल्टी	-10487
▁सोचना	-10488
्तन	-10489
▁MR	-10490
लापन	-10491
वेली	-10492
▁जनक	-10493
▁मला	-10494
▁फैली	-10495
▁सांठ	-10496
▁क्लास	-10497
▁पाण्ड	-10498
▁प्रचलन	-10499
▁अभिभावक	-10500
▁शीघ्रता	-10501
▁अप्रत्याशित	-10502
जुए	-10503
िगर	-10504
▁नट	-10505
ड़ने	-10506
▁CPC	-10507
▁एंव	-10508
▁शैल	-10509
बोर्ड	-10510
▁बांस	-10511
▁बर्तन	-10512
▁रिस्प	-10513
▁आरपीसी	-10514
▁निकटता	-10515
▁बैलेंस	-10516
▁विचारणीय	-10517
▁साक्षियों	-10518
▁क्रियाकलाप	-10519
▁व्यक्तिपरक	-10520
ew	-10521
प्ट	-10522
बेल	-10523
▁पस	-10524
▁मीन	-10525
▁आर्ट	-10526
▁सीसी	-10527
ेंडेंट	-10528
▁गन्ना	-10529
▁शुष्क	-10530
▁जोड़कर	-10531
▁डेटाबेस	-10532
▁पांचवें	-10533
▁प्रवासी	-10534
▁अविभाजित	-10535
▁निष्क्रियता	-10536
ip	-10537
uri	-10538
ार्क	-10539
▁एनएसई	-10540
▁श्वास	-10541
▁पासवर्ड	-10542
ंटू	-10543
डोर	-10544
ध्व	-10545
ैर्य	-10546
▁संश	-10547
▁एम्ब	-10548
ापूर्ण	-10549
▁विक्रम	-10550
▁सुलझाने	-10551
▁श्रीनिवास	-10552
▁संभावनाएं	-10553
▁Sa	-10554
▁डेन	-10555
▁तरा	-10556
▁फूट	-10557
▁वेल	-10558
मानों	-10559
राबरी	-10560
▁गुर्	-10561
▁विगत	-10562
▁घोड़े	-10563
▁एनआईटी	-10564
▁गर्भाव	-10565
▁स्मार्ट	-10566
▁जबरदस्ती	-10567
▁परिपूर्ण	-10568
EE	-10569
गाल	-10570
▁SAR	-10571
▁एनसी	-10572
▁सूखे	-10573
▁घर्षण	-10574
▁वर्षो	-10575
▁परजीवी	-10576
▁कलात्मक	-10577
▁बदरूद्दीन	-10578
किक	-10579
▁पग	-10580
▁गाल	-10581
▁जूट	-10582
▁साँ	-10583
▁सुने	-10584
▁Distt	-10585
▁वापिस	-10586
▁नाटकीय	-10587
▁इमारतों	-10588
▁प्रस्तावक	-10589
▁प्रादेशिक	-10590
▁प्रॉपर्टी	-10591
▁उदाहरणार्थ	-10592
▁आस्ट्रेलिया	-10593
कने	-10594
▁कैश	-10595
▁नरस	-10596
▁बुश	-10597
▁वादे	-10598
▁सैयद	-10599
▁वीर्य	-10600
▁स्वराज	-10601
▁मानहानि	-10602
▁प्रत्यारो	-10603
▁युक्तियुक्त	-10604
ायगी	-10605
▁Ltd	-10606
▁जीप	-10607
▁अवयव	-10608
▁टांग	-10609
▁नींद	-10610
▁पैंट	-10611
▁मेनन	-10612
▁घूंघट	-10613
▁दर्शकों	-10614
▁प्रतिकर	-10615
▁प्रमाणन	-10616
▁बोलियों	-10617
▁एकाधिकार	-10618
▁प्रमुखों	-10619
▁देनदारियों	-10620
OC	-10621
dl	-10622
AND	-10623
धाना	-10624
ब्रे	-10625
▁अड़	-10626
▁बगी	-10627
▁होश	-10628
▁फलों	-10629
▁उपनिष	-10630
▁असंख्य	-10631
▁मृतकों	-10632
▁रिफाइन	-10633
▁वायर्स	-10634
▁विचारक	-10635
▁सोवियत	-10636
▁हेरफेर	-10637
▁नागरिकता	-10638
▁विसंगतियां	-10639
घाट	-10640
ोपै	-10641
्रत	-10642
्विक	-10643
युद्ध	-10644
▁बंधे	-10645
▁बेचे	-10646
▁राशन	-10647
▁संचरण	-10648
▁अवयवों	-10649
▁शुक्रा	-10650
▁दोस्तों	-10651
▁संकेतों	-10652
▁सैंट्रो	-10653
▁स्वदेशी	-10654
▁आकाशवाणी	-10655
ATE	-10656
लेन	-10657
ूति	-10658
▁तंज	-10659
क्रेट	-10660
▁लाता	-10661
ध्यक्ष	-10662
▁अद्भुत	-10663
▁उद्यमी	-10664
▁पोर्टल	-10665
▁प्रमोद	-10666
ष्ट्रपति	-10667
▁टुकड़ों	-10668
▁दंडादेश	-10669
▁निरन्तर	-10670
▁अस्पतालों	-10671
▁अस्पष्टता	-10672
▁पर्यवेक्षी	-10673
दाद	-10674
दिर	-10675
▁नाश	-10676
पल्ली	-10677
▁साहा	-10678
▁सुलभ	-10679
▁पर्चे	-10680
▁लिपिक	-10681
▁सांसद	-10682
▁कुर्की	-10683
▁दीक्षा	-10684
▁प्रेमी	-10685
▁परिसीमा	-10686
▁स्वार्थ	-10687
▁निःशुल्क	-10688
▁समितियां	-10689
▁फास	-10690
▁रूसी	-10691
▁समेकन	-10692
▁भूतपूर्व	-10693
▁अनौपचारिक	-10694
▁औपचारिकता	-10695
हे	-10696
एलए	-10697
क्य	-10698
ौला	-10699
वृत्त	-10700
्वाइंट	-10701
▁सशर्त	-10702
ुस्तानी	-10703
▁निभाने	-10704
▁प्रोफ़	-10705
▁फ़ॉन्ट	-10706
▁महाकाव	-10707
▁स्वयंसे	-10708
▁कार्यभार	-10709
▁धूम्रपान	-10710
आईडी	-10711
डियों	-10712
▁देशभ	-10713
▁ललित	-10714
▁इशारे	-10715
▁डंपिंग	-10716
▁निवेशक	-10717
▁पहचानने	-10718
▁ओएस	-10719
▁वान	-10720
घोषणा	-10721
ांजलि	-10722
ार्मा	-10723
▁अतएव	-10724
▁कोटि	-10725
▁भलाई	-10726
▁वनों	-10727
▁जांचा	-10728
▁भूटान	-10729
्राकृतिक	-10730
▁आंबेडकर	-10731
▁एमएसएमई	-10732
SL	-10733
rs	-10734
ड्स	-10735
ोरम	-10736
क्के	-10737
▁vii	-10738
▁ऊंट	-10739
▁डेम	-10740
▁एंटर	-10741
▁दुरा	-10742
▁क्रोध	-10743
क्षाधीन	-10744
तापूर्ण	-10745
▁अपीलें	-10746
▁अर्द्ध	-10747
▁द्रव्य	-10748
▁मुखिया	-10749
▁रवींद्र	-10750
▁ऑपरेटरों	-10751
▁प्रोफाइल	-10752
▁मध्यवर्ती	-10753
▁विवेकाधिकार	-10754
णसी	-10755
्पर	-10756
सम्म	-10757
▁रूक	-10758
ंक्शन	-10759
▁आरके	-10760
▁आंखें	-10761
▁ट्रां	-10762
ुद	-10763
िसा	-10764
▁SCR	-10765
▁चोर	-10766
▁धीर	-10767
▁बूट	-10768
फोर्ड	-10769
▁भर्त	-10770
▁रोने	-10771
क्रमित	-10772
▁अपलोड	-10773
▁कदमों	-10774
▁कमाने	-10775
▁पंजीयक	-10776
▁रात्रि	-10777
▁स्थानाप	-10778
▁द्वारकानाथ	-10779
▁हिन्दुस्तान	-10780
NA	-10781
टेन	-10782
▁अटल	-10783
▁करण	-10784
▁झलक	-10785
▁भली	-10786
चिकित	-10787
▁इनाम	-10788
▁फैले	-10789
▁रोटी	-10790
▁धारित	-10791
▁अनैतिक	-10792
▁कैरियर	-10793
▁चुपचाप	-10794
▁क्रियाओं	-10795
▁कार्यकर्ताओं	-10796
▁कार्यवाहियां	-10797
▁फि	-10798
एनएल	-10799
िप्र	-10800
▁दाँ	-10801
योजित	-10802
▁जीडी	-10803
▁जूते	-10804
▁भाभी	-10805
▁राणा	-10806
▁लेटर	-10807
▁बालकों	-10808
▁भौतिकी	-10809
▁राज़्य	-10810
▁किनारों	-10811
▁विनाशकारी	-10812
▁क्षतिग्रस्त	-10813
▁टैग	-10814
▁पंथ	-10815
▁पदक	-10816
▁अर्ह	-10817
▁आच्छ	-10818
▁त्रि	-10819
▁सर्प	-10820
▁स्टी	-10821
ंगाबाद	-10822
र्निया	-10823
▁एक्से	-10824
▁चक्कर	-10825
▁आयातित	-10826
▁काउंसलिंग	-10827
एक	-10828
कीर	-10829
बों	-10830
हाद	-10831
ोगा	-10832
▁AT	-10833
फ़्ट	-10834
ालाल	-10835
▁पडे	-10836
▁एफटी	-10837
▁खिंच	-10838
▁त्यो	-10839
▁बनायी	-10840
▁भित्त	-10841
▁नागपुर	-10842
▁लक्षित	-10843
CL	-10844
aw	-10845
प्पल	-10846
▁चेन	-10847
▁वेग	-10848
▁नोडल	-10849
▁बीयर	-10850
▁हमसे	-10851
ष्णुता	-10852
▁राजपू	-10853
▁खुलासे	-10854
▁वाशिंग	-10855
▁तीव्रता	-10856
▁पहुंचाया	-10857
▁ज्योतिर्म	-10858
▁प्रतिष्ठानों	-10859
eri	-10860
माल	-10861
ारत	-10862
▁पंप	-10863
▁बजाए	-10864
▁चाहें	-10865
▁चौथाई	-10866
▁डालकर	-10867
▁उत्थान	-10868
▁जनजातीय	-10869
▁यथासंभव	-10870
▁वाराणसी	-10871
▁संख़्या	-10872
▁मास्टर्स	-10873
SS	-10874
ty	-10875
ायु	-10876
ारह	-10877
▁रबर	-10878
▁लौह	-10879
▁डेविड	-10880
▁समयबद्ध	-10881
▁स्टाम्प	-10882
▁निमंत्रण	-10883
▁सहकारिता	-10884
नेल	-10885
मास	-10886
ारस	-10887
▁NE	-10888
▁लू	-10889
▁सऋ	-10890
न्दन	-10891
ेयरी	-10892
▁जुड	-10893
▁शासी	-10894
्रीकरण	-10895
▁बारिश	-10896
▁सरलता	-10897
िफिकेशन	-10898
िष्णुता	-10899
▁कूटशब्द	-10900
▁लाभप्रद	-10901
▁सिक्किम	-10902
▁गुणसूत्र	-10903
▁सेंटीमीटर	-10904
असल	-10905
तीक	-10906
ुवा	-10907
▁app	-10908
ापत्र	-10909
▁एलपी	-10910
▁पांव	-10911
▁पारे	-10912
▁यूएस	-10913
▁चांदी	-10914
▁निर्म	-10915
▁फास्ट	-10916
▁बुलाई	-10917
▁महंगा	-10918
प्रणाली	-10919
▁अलार्म	-10920
▁संपादन	-10921
ार्श्विक	-10922
पै	-10923
▁खैर	-10924
▁बसा	-10925
▁आईएस	-10926
▁तोड़ने	-10927
▁बिलियन	-10928
▁सेवाएँ	-10929
▁कंट्राब	-10930
▁वसीयतना	-10931
▁पोस्टिंग	-10932
▁हलफनामों	-10933
▁मांसपेशियों	-10934
▁यूनिवर्सिटी	-10935
२२	-10936
▁हू	-10937
▁सने	-10938
ार्टर	-10939
▁अंतत	-10940
▁पोषक	-10941
▁सत्त	-10942
▁एआईसी	-10943
▁घुमाव	-10944
▁डेयरी	-10945
▁हेमंत	-10946
▁टिकटों	-10947
▁पीडीडी	-10948
ेट्रिक्स	-10949
▁परिचालित	-10950
▁प्रौद्योगिकियों	-10951
ोटो	-10952
ोली	-10953
▁SA	-10954
पानी	-10955
सिले	-10956
▁निब	-10957
▁महज	-10958
▁चाहा	-10959
▁मदों	-10960
▁वक्र	-10961
▁खतरों	-10962
▁छोड़े	-10963
▁शान्ति	-10964
▁त्योहार	-10965
▁प्वाइंट	-10966
▁परंपराओं	-10967
▁सम्भावना	-10968
▁अंतर्विष्ट	-10969
▁प्रमाणीकरण	-10970
ंड़	-10971
ईटी	-10972
मरी	-10973
ल्यू	-10974
▁अनर	-10975
▁क्षे	-10976
▁अवसाद	-10977
▁तुर्क	-10978
▁ध्रुव	-10979
िस्तानी	-10980
▁बाधाओं	-10981
▁वसूलने	-10982
▁एनएसईएल	-10983
▁नीतियां	-10984
▁संसाधित	-10985
▁स्पष्टता	-10986
वत्	-10987
▁डू	-10988
एफआर	-10989
वाने	-10990
▁एफए	-10991
▁थोप	-10992
▁आएगी	-10993
▁खोले	-10994
▁मदुर	-10995
▁टेक्स	-10996
▁दरअसल	-10997
▁हालात	-10998
▁ग्लोबल	-10999
▁जुटाने	-11000
▁तयशुदा	-11001
▁प्रतिष	-11002
▁विलक्षण	-11003
▁इंस्ट्रू	-11004
III	-11005
रोह	-11006
▁GO	-11007
पीएफ	-11008
▁नली	-11009
arpur	-11010
द्वार	-11011
▁WANo	-11012
▁अभिष	-11013
▁वाणी	-11014
▁जमाने	-11015
▁पिछला	-11016
▁महाले	-11017
▁मिलान	-11018
▁श्रवण	-11019
▁अग्रसर	-11020
▁अनुयाय	-11021
▁रिसीवर	-11022
▁सीमाएं	-11023
▁शब्दावली	-11024
▁समानांतर	-11025
▁अप्राकृतिक	-11026
▁गर्भावस्था	-11027
▁टिप्पणियां	-11028
hay	-11029
ंदे	-11030
वेन	-11031
ुखी	-11032
▁एट	-11033
एचसी	-11034
बर्ग	-11035
ियॉँ	-11036
▁उमा	-11037
देशीय	-11038
▁अनुभ	-11039
▁पायी	-11040
▁रक्षक	-11041
▁संजाल	-11042
▁सुप्र	-11043
▁पर्यटक	-11044
▁प्रिंटर	-11045
▁AN	-11046
▁Al	-11047
▁जिम	-11048
▁आशीष	-11049
▁उंगली	-11050
▁एरिया	-11051
▁अंसारी	-11052
▁काश्मीर	-11053
▁मॉड्यूल	-11054
हम	-11055
फुल	-11056
क्षर	-11057
▁केवी	-11058
▁टीआई	-11059
▁नागर	-11060
▁मतों	-11061
▁मुंस	-11062
▁करुणा	-11063
▁कोष्ठ	-11064
▁बोलता	-11065
▁यौगिक	-11066
▁मुख़्य	-11067
▁व्यतीत	-11068
▁बेटियों	-11069
▁प्लानिंग	-11070
▁पर्यवेक्षक	-11071
बुल	-11072
▁दखल	-11073
▁दाल	-11074
▁नूर	-11075
▁मता	-11076
शास्त	-11077
▁कुंद	-11078
▁प्रात	-11079
▁सश्रम	-11080
▁जहाजों	-11081
▁राजकीय	-11082
▁साइटों	-11083
▁जवाबदेही	-11084
▁परिवीक्षाधीन	-11085
hu	-11086
▁भि	-11087
▁छुपा	-11088
▁ब्ले	-11089
▁मोनो	-11090
▁सोलह	-11091
ान्वित	-11092
▁जिज्ञ	-11093
▁आबंटित	-11094
▁वर्ल्ड	-11095
फ़ा	-11096
रीद	-11097
शेखर	-11098
▁Sun	-11099
▁कस्	-11100
▁भटक	-11101
▁अम्ब	-11102
▁एनआर	-11103
▁कचरे	-11104
▁जजों	-11105
▁शिवा	-11106
▁हीरा	-11107
▁अजनबी	-11108
▁यमुना	-11109
▁नामकरण	-11110
▁रखेंगे	-11111
▁सर्वथा	-11112
▁आक्रामक	-11113
▁व्यवहार्य	-11114
ort	-11115
ालीस	-11116
▁पैन	-11117
▁Addl	-11118
▁क्लॉ	-11119
▁नीला	-11120
▁खातून	-11121
▁दोहरे	-11122
▁स्राव	-11123
▁हिम्म	-11124
▁स्पेशल	-11125
▁विकल्पों	-11126
०ख	-11127
ank	-11128
नीस	-11129
रात	-11130
▁is	-11131
▁ढी	-11132
▁अनी	-11133
▁बेक	-11134
िश्रण	-11135
▁गुला	-11136
▁आलिया	-11137
▁किराये	-11138
▁बागवानी	-11139
▁मेगावाट	-11140
हृ	-11141
ंकि	-11142
यता	-11143
▁आभ	-11144
▁सउ	-11145
वर्ण	-11146
▁ढूँ	-11147
तानों	-11148
श्यों	-11149
▁मोटी	-11150
▁भीतरी	-11151
▁मूलतः	-11152
▁रंगों	-11153
▁स्टाक	-11154
▁ऊर्ध्व	-11155
▁कल्याणकारी	-11156
▁भविष्यवाणी	-11157
▁राधाकृष्णन	-11158
▁दुर्भावनापूर्ण	-11159
ुए	-11160
विल	-11161
▁उग	-11162
▁एमए	-11163
▁घटी	-11164
ट्रिक	-11165
▁किला	-11166
▁बगैर	-11167
▁बेसिक	-11168
▁हल्का	-11169
्लीकेशन	-11170
▁उपरांत	-11171
▁भावनात्मक	-11172
हू	-11173
लीम	-11174
वात	-11175
▁AB	-11176
ोदरा	-11177
ग्राम	-11178
▁अनवर	-11179
▁आन्त	-11180
▁नीले	-11181
▁असहाय	-11182
▁खजाने	-11183
▁वाष्प	-11184
▁दाहिनी	-11185
▁कंस्ट्र	-11186
▁छुटकारा	-11187
आइ	-11188
ati	-11189
ावार	-11190
▁खाई	-11191
▁पलट	-11192
▁वेट	-11193
दृष्टि	-11194
▁एकांत	-11195
▁एलपीए	-11196
▁खाड़ी	-11197
▁पढ़ते	-11198
▁पुर्त	-11199
▁बहाना	-11200
▁दिलाया	-11201
▁सीमांत	-11202
▁प्रथाओं	-11203
▁रेगिस्तान	-11204
▁टेस्टेट्रिक्स	-11205
ॉपी	-11206
▁CM	-11207
▁अछ	-11208
चनों	-11209
दर्य	-11210
▁निभ	-11211
वालों	-11212
▁अपरा	-11213
▁ऑब्ज	-11214
▁कोटे	-11215
▁क्षय	-11216
▁खोजा	-11217
▁राधा	-11218
▁खुलने	-11219
▁लिस्ट	-11220
▁कट्टरप	-11221
▁चुंबकीय	-11222
▁सिलसिले	-11223
▁अनुमानों	-11224
▁औरंगाबाद	-11225
▁प्रतिबंधों	-11226
▁संपार्श्विक	-11227
▁At	-11228
घाती	-11229
िज्म	-11230
ोतरी	-11231
▁जन्	-11232
▁लहर	-11233
▁सान	-11234
▁स्फ	-11235
▁कुंज	-11236
▁पारस	-11237
▁समेत	-11238
▁हरित	-11239
▁अतिशय	-11240
▁चंद्रा	-11241
▁कॉरपोरेट	-11242
डक	-11243
ढा	-11244
ram	-11245
एनओ	-11246
र्शी	-11247
▁जोड	-11248
▁वैन	-11249
▁अमीन	-11250
▁धुंध	-11251
▁लगीं	-11252
▁वृहत	-11253
▁जरुरी	-11254
▁नाट्य	-11255
▁मेमोर	-11256
▁खाद्या	-11257
▁निर्मल	-11258
▁पत्थरों	-11259
▁प्रैक्ट	-11260
▁अज्ञानता	-11261
▁कॉरपोरेशन	-11262
WP	-11263
aul	-11264
▁वड	-11265
▁शत	-11266
रकों	-11267
ेम्प	-11268
▁खुर	-11269
▁मेध	-11270
▁दायी	-11271
▁मीना	-11272
▁अड्डे	-11273
▁गोल्ड	-11274
▁नजदीक	-11275
▁संदीप	-11276
▁लागतों	-11277
▁लार्वा	-11278
▁समुच्च	-11279
▁ट्रैक्टर	-11280
▁सांठगांठ	-11281
▁अनुयायियों	-11282
OL	-11283
ard	-11284
▁OA	-11285
▁भट	-11286
्लाई	-11287
▁नां	-11288
▁आंगन	-11289
▁रिली	-11290
▁ख्याल	-11291
▁जयपुर	-11292
▁जरुरत	-11293
▁वैद्य	-11294
▁सेक्स	-11295
▁अंडमान	-11296
▁बेईमान	-11297
▁देखेंगे	-11298
▁विलंबित	-11299
▁कार्यशाला	-11300
▁ww	-11301
▁डबल	-11302
▁निध	-11303
▁बाघ	-11304
▁लिफ	-11305
▁पहना	-11306
▁भयावह	-11307
▁करवाया	-11308
▁मंत्रि	-11309
aa	-11310
▁SHO	-11311
▁गाज	-11312
▁जनस	-11313
▁ध्य	-11314
▁पडा	-11315
▁बुझ	-11316
ाइलों	-11317
▁इण्ड	-11318
▁जंतु	-11319
▁तटीय	-11320
निर्भर	-11321
▁गांजा	-11322
▁नाजुक	-11323
▁भयंकर	-11324
▁रूल्स	-11325
▁विकेट	-11326
▁कैंटीन	-11327
▁अपवादों	-11328
▁एआईसीटीई	-11329
ंजक	-11330
ावे	-11331
▁कलम	-11332
▁अभया	-11333
▁कैसा	-11334
▁छड़ी	-11335
▁भूतल	-11336
रीक्षक	-11337
ुतीकरण	-11338
▁कन्या	-11339
▁पिल्ल	-11340
▁अंतरंग	-11341
▁अकाउंट	-11342
▁चटर्जी	-11343
▁प्रतिरूप	-11344
▁आधुनिकीकरण	-11345
ali	-11346
भीत	-11347
ogle	-11348
एससी	-11349
▁नवल	-11350
▁मोल	-11351
र्मित	-11352
▁बन्ध	-11353
▁बीघा	-11354
▁मामा	-11355
▁मुहा	-11356
▁सिया	-11357
▁धैर्य	-11358
▁निवेद	-11359
▁अनुज्ञ	-11360
▁मुनाफे	-11361
▁ग्रंथों	-11362
▁वाजपेयी	-11363
▁नियन्त्रण	-11364
ase	-11365
गर्	-11366
रिष	-11367
वधि	-11368
ण्डी	-11369
फिया	-11370
ेस्ट	-11371
▁पों	-11372
▁शशि	-11373
▁दागी	-11374
▁बनाएँ	-11375
▁साम्य	-11376
▁कोरिया	-11377
▁अनभिज्ञ	-11378
▁प्रतिभाग	-11379
all	-11380
काई	-11381
फान	-11382
▁IC	-11383
▁रिए	-11384
▁खादी	-11385
▁मंदी	-11386
▁ग्रिड	-11387
▁मलयाल	-11388
▁लैंगिक	-11389
▁सुधारा	-11390
▁village	-11391
▁प्रधाना	-11392
▁प्रभारित	-11393
▁व्यापकता	-11394
▁प्रविष्टियां	-11395
SR	-11396
ue	-11397
और	-11398
द्रता	-11399
ालिया	-11400
▁ज़ोन	-11401
▁झुकाव	-11402
▁संघों	-11403
▁सुधीर	-11404
▁अंतररा	-11405
▁बराबरी	-11406
▁उत्पादकों	-11407
▁संरचनात्मक	-11408
शेष	-11409
....	-11410
बिया	-11411
त्तूर	-11412
भावित	-11413
▁Panc	-11414
▁आरएफ	-11415
▁केशव	-11416
▁गुणक	-11417
▁बहने	-11418
▁मापन	-11419
▁युवक	-11420
▁Nagar	-11421
▁बैठकर	-11422
▁मैनेज	-11423
▁निकटतम	-11424
▁चमत्कार	-11425
▁उत्परिवर्तन	-11426
▁कॉम्प्लेक्स	-11427
नामी	-11428
▁SRI	-11429
▁www	-11430
▁धरा	-11431
▁रेंट	-11432
▁लाला	-11433
▁सदमे	-11434
▁सिवा	-11435
▁असत्य	-11436
▁इंसान	-11437
▁जीतने	-11438
▁मदुरै	-11439
▁रंगीन	-11440
▁निपटना	-11441
▁सीमांकन	-11442
▁शक्तियाँ	-11443
▁एप्लीकेशन	-11444
गै	-11445
ash	-11446
▁इर	-11447
गुना	-11448
▁CBI	-11449
ॉलिटन	-11450
▁रोशन	-11451
▁वल्ल	-11452
▁सिंघ	-11453
▁सूखा	-11454
▁स्टे	-11455
ज्ञानी	-11456
फ्रेंस	-11457
▁आँखें	-11458
▁निकलते	-11459
▁प्रत्यु	-11460
▁रिपोर्टिंग	-11461
ँगा	-11462
▁मग	-11463
ंकार	-11464
न्सी	-11465
बिंद	-11466
▁ऊँच	-11467
▁रूट	-11468
▁शिल	-11469
▁डिवा	-11470
▁भूषण	-11471
▁पूँजी	-11472
▁एनेक्स	-11473
▁सीरियल	-11474
▁एसोसिएट	-11475
▁मंत्रिप	-11476
▁स्त्रोत	-11477
▁द्वितीयक	-11478
▁नागालैंड	-11479
▁विज्ञापित	-11480
▁संपूर्णता	-11481
▁दुर्भाग्यपूर्ण	-11482
सस	-11483
ोच	-11484
लोक	-11485
▁असी	-11486
▁बिम	-11487
▁मदर	-11488
ंडिंग	-11489
मुश्त	-11490
लीकरण	-11491
▁कमला	-11492
▁युसु	-11493
▁लगाव	-11494
▁घुटने	-11495
▁पर्दा	-11496
▁ब्रेक	-11497
▁दिखायी	-11498
▁Panchay	-11499
▁अखबारों	-11500
▁इकाइयां	-11501
▁संवितरण	-11502
▁जल्दबाजी	-11503
▁पूर्वजों	-11504
▁अब्दुल्ला	-11505
▁पुनर्जीवित	-11506
▁LW	-11507
▁CRL	-11508
▁मन्	-11509
▁सदर	-11510
▁क्यो	-11511
▁घेरे	-11512
▁पल्ल	-11513
▁नायडू	-11514
▁पाटिल	-11515
▁बोलना	-11516
▁विस्म	-11517
▁सुचार	-11518
स्थापना	-11519
▁कमजोरी	-11520
▁पासवान	-11521
▁पुनर्भ	-11522
▁मेधावी	-11523
▁मैनेजर	-11524
▁लाइनों	-11525
▁सदियों	-11526
▁सर्जरी	-11527
▁मर्यादा	-11528
CR	-11529
सक	-11530
ICT	-11531
खने	-11532
ख्ता	-11533
न्दी	-11534
फ़्त	-11535
ागार	-11536
्यवश	-11537
▁घोल	-11538
▁तरंग	-11539
▁ताना	-11540
▁दस्त	-11541
▁रूढ़	-11542
▁घटाकर	-11543
▁डिस्प	-11544
▁पावती	-11545
▁बैटरी	-11546
▁मनगढ़	-11547
▁वैश्व	-11548
▁जांचने	-11549
▁सेनाओं	-11550
▁Panchayat	-11551
▁स्टेटमेंट	-11552
श्र	-11553
ुगत	-11554
ऊंगा	-11555
०वें	-11556
▁उदर	-11557
▁कोच	-11558
▁दुस	-11559
▁RERA	-11560
लेरिया	-11561
▁तारों	-11562
▁सैद्ध	-11563
▁स्केच	-11564
▁सुनीता	-11565
▁आवश्यकताएं	-11566
▁इंश्योरेंस	-11567
▁क्रियाकलापों	-11568
▁मेट्रोपॉलिटन	-11569
दगी	-11570
▁बिश	-11571
▁लॉक	-11572
रोहित	-11573
▁टेबल	-11574
▁चालीस	-11575
▁पड़ते	-11576
▁मंचों	-11577
▁Google	-11578
▁खींचने	-11579
▁आवृत्ति	-11580
▁पहुंचना	-11581
▁रामकृष्ण	-11582
▁संक्रमित	-11583
▁स्टेशनों	-11584
▁गवर्नमेंट	-11585
▁पला	-11586
▁डिपो	-11587
▁डेढ़	-11588
▁परिपथ	-11589
▁भ्रमण	-11590
▁सिंधी	-11591
▁अप्रति	-11592
▁हिम्मत	-11593
▁पंचायती	-11594
▁आर्बिट्रल	-11595
▁कार्यपालक	-11596
▁सुभाषबाबू	-11597
▁प्रारम्भिक	-11598
▁मंत्रिपरिष	-11599
▁अंतःस्थापित	-11600
िथ्म	-11601
▁वजी	-11602
रेक्ट	-11603
वस्था	-11604
▁अंडा	-11605
▁कार्	-11606
▁दुखद	-11607
▁पायल	-11608
▁बैठी	-11609
▁शाहज	-11610
▁खानों	-11611
▁यार्ड	-11612
▁रियाय	-11613
▁दांतों	-11614
▁मलयालम	-11615
▁विध्वंस	-11616
▁अनुपलब्ध	-11617
TA	-11618
ti	-11619
िओ	-11620
२३	-11621
वांछ	-11622
▁Man	-11623
▁मुक	-11624
▁मुज	-11625
ृद्धि	-11626
ेट्टी	-11627
▁तेजा	-11628
▁मेनू	-11629
▁शिरा	-11630
▁दर्जे	-11631
▁निजाम	-11632
▁बैंकर	-11633
▁सावधि	-11634
ब्दियों	-11635
ोल्यूशन	-11636
▁क्लॉज़	-11637
▁जमीनों	-11638
▁आदर्शों	-11639
▁कक्षाओं	-11640
▁पूर्वानु	-11641
ंछ	-11642
▁छठे	-11643
ष्टिक	-11644
ापूर्व	-11645
▁जमीनी	-11646
▁फारसी	-11647
▁बुखार	-11648
▁क्यूरी	-11649
▁चट्टान	-11650
▁डीलरों	-11651
▁मनगढ़ंत	-11652
▁ठेकेदारों	-11653
एक्स	-11654
▁सघन	-11655
▁हता	-11656
ष्पीठ	-11657
्समैन	-11658
▁अभिम	-11659
▁चाबी	-11660
▁जवान	-11661
▁पेंट	-11662
▁वैसी	-11663
▁डकैती	-11664
▁बनाएं	-11665
▁व्यंग	-11666
▁नवाचार	-11667
▁पाएंगे	-11668
▁रोस्टर	-11669
▁शौचालय	-11670
▁अरुणाचल	-11671
▁ऑक्सीजन	-11672
▁तकनीकों	-11673
▁क्वार्टर	-11674
▁नवीनीकृत	-11675
▁पड़ोसियों	-11676
रणी	-11677
▁फट	-11678
▁लय	-11679
हाली	-11680
▁मोन	-11681
रलैंड	-11682
्यकों	-11683
▁घिरा	-11684
▁तेज़	-11685
▁दाईं	-11686
▁पीले	-11687
▁भेड़	-11688
▁सुमन	-11689
▁स्टेज	-11690
▁इस्लामिक	-11691
▁न्यायपीठ	-11692
▁हड्डियों	-11693
मस	-11694
▁MAN	-11695
▁हज़	-11696
▁अष्ट	-11697
▁एमवी	-11698
▁अंकुश	-11699
▁फैलाव	-11700
▁मनाने	-11701
▁स्थाय	-11702
▁हास्य	-11703
▁गुमराह	-11704
▁ज़िम्म	-11705
▁ताजमहल	-11706
▁पहुंचता	-11707
▁आतंकवादियों	-11708
hak	-11709
बड़	-11710
▁Am	-11711
▁रॉ	-11712
डियम	-11713
पकों	-11714
ृष्ठ	-11715
▁कूल	-11716
▁नक़	-11717
▁Shri	-11718
▁अमित	-11719
▁आरएस	-11720
▁गाने	-11721
▁त्या	-11722
▁लोकल	-11723
▁वेंक	-11724
▁सुखद	-11725
पतियों	-11726
▁बढ़ाते	-11727
▁असिस्टेंट	-11728
▁आपत्तिजनक	-11729
ust	-11730
पीओ	-11731
रिज	-11732
▁अड	-11733
▁डु	-11734
श्री	-11735
▁झेल	-11736
▁रोब	-11737
▁भद्र	-11738
▁मृदा	-11739
▁कारित	-11740
▁क्रोम	-11741
▁खुराक	-11742
▁बहनों	-11743
▁हफ्ते	-11744
▁वर्षीय	-11745
▁दीक्षित	-11746
▁महासचिव	-11747
▁आकांक्षाओं	-11748
▁हस्ताक्षरकर्ता	-11749
RA	-11750
arb	-11751
िती	-11752
▁ae	-11753
इयाँ	-11754
▁अफस	-11755
▁थलग	-11756
▁पीट	-11757
▁मरण	-11758
▁विज़	-11759
कुमारी	-11760
लिसिटर	-11761
▁प्राक	-11762
▁अपमानित	-11763
▁उद्घोषणा	-11764
▁परिष्कृत	-11765
गाँव	-11766
ष्मा	-11767
स्से	-11768
ोसिस	-11769
▁for	-11770
▁ताक	-11771
▁क़ुर	-11772
▁कारप	-11773
▁कुला	-11774
▁ज्वर	-11775
▁नौका	-11776
▁बाँध	-11777
▁विका	-11778
▁हरीश	-11779
ानियों	-11780
▁चलेगा	-11781
▁चौड़ी	-11782
▁पाउडर	-11783
▁पृथक्	-11784
▁भूकंप	-11785
▁वायुम	-11786
▁सहारे	-11787
▁ब्रिता	-11788
▁किताबें	-11789
▁देवेंद्र	-11790
▁सर्विसेज	-11791
▁कॉन्ट्रैक्ट	-11792
फू	-11793
मेट	-11794
▁ढा	-11795
ोग्य	-11796
नागरी	-11797
▁चिट्	-11798
▁बीजी	-11799
▁सउदी	-11800
▁भयभीत	-11801
▁मक्का	-11802
▁लिखें	-11803
▁नौसेना	-11804
▁पच्चीस	-11805
▁शृंखला	-11806
▁परिसरों	-11807
▁परिपक्वता	-11808
▁आत्मनिर्भर	-11809
▁पुनर्प्राप्त	-11810
ताई	-11811
▁Mr	-11812
ुकला	-11813
▁Nar	-11814
▁करन	-11815
▁जले	-11816
▁टोक	-11817
▁परमा	-11818
▁समनु	-11819
▁साधु	-11820
▁सीने	-11821
▁कम्युन	-11822
▁जापानी	-11823
▁मणीलाल	-11824
▁वास्तु	-11825
▁अभयारण्य	-11826
▁उत्तेजना	-11827
▁निविदाओं	-11828
▁कार्मिकों	-11829
▁विस्थापित	-11830
HI	-11831
्वल	-11832
▁छल	-11833
▁उकस	-11834
▁लिस	-11835
▁हीन	-11836
बंधित	-11837
▁Bhag	-11838
▁अनूप	-11839
▁अन्ध	-11840
▁एचएल	-11841
▁कपिल	-11842
▁बोनस	-11843
▁मुम्बई	-11844
▁निकोबार	-11845
▁प्रमोटर	-11846
▁समाविष्ट	-11847
ेंग	-11848
सूरत	-11849
▁कपट	-11850
▁नशे	-11851
▁लिट	-11852
▁बहुप	-11853
▁बैठता	-11854
▁लम्बा	-11855
▁समूचे	-11856
▁दोषियों	-11857
▁प्रोसेस	-11858
▁सुल्तान	-11859
▁मालिकाना	-11860
▁सम्बन्धों	-11861
▁अस्वीकार्य	-11862
▁अभ्यर्थियों	-11863
ive	-11864
▁जघ	-11865
हाउस	-11866
यार्क	-11867
▁दाएं	-11868
▁सतत्	-11869
क्ष्मी	-11870
पीडिया	-11871
▁खेलों	-11872
▁दिखने	-11873
▁अंधेरे	-11874
▁उकसाने	-11875
▁उत्प्रे	-11876
▁बोर्डों	-11877
▁इन्होंने	-11878
▁देवनागरी	-11879
rd	-11880
लीफ	-11881
▁बछ	-11882
▁घसी	-11883
फार्म	-11884
वश्यक	-11885
▁गाली	-11886
▁मुड़	-11887
▁कच्चा	-11888
▁क्लिन	-11889
▁पत्तन	-11890
▁बदलती	-11891
▁फ्रेंच	-11892
▁राजकोष	-11893
▁एकमुश्त	-11894
वित	-11895
ैनी	-11896
▁SL	-11897
▁उब	-11898
▁मृद	-11899
▁रत्	-11900
▁सौन्	-11901
▁क्षेञ	-11902
▁ध्येय	-11903
▁फील्ड	-11904
▁फीसदी	-11905
▁मण्डल	-11906
▁संसद्	-11907
▁फर्मों	-11908
▁खरीदारों	-11909
▁संरचनाओं	-11910
▁उपराष्ट्रपति	-11911
TP	-11912
द्घ	-11913
्ये	-11914
▁RO	-11915
▁ढ़	-11916
साजी	-11917
▁खिस	-11918
▁अराज	-11919
▁एमटी	-11920
▁कच्छ	-11921
▁गोरख	-11922
▁टायर	-11923
▁पत्न	-11924
▁भैंस	-11925
▁लिफा	-11926
▁समया	-11927
▁विद्वत	-11928
▁सहेजें	-11929
▁ग्रेजुए	-11930
▁महत्वाक	-11931
▁त्रिपुरा	-11932
▁ब्रितानी	-11933
ING	-11934
अली	-11935
जेड	-11936
ट्ठ	-11937
ेन्ट	-11938
▁अनार	-11939
▁ताला	-11940
वर्षीय	-11941
▁गुलाब	-11942
▁दीजिए	-11943
▁मित्त	-11944
▁विशेन	-11945
▁हैंडल	-11946
▁मेट्रो	-11947
▁फॉरेंसिक	-11948
▁सॉलिसिटर	-11949
▁विरोधाभासों	-11950
ala	-11951
गेट	-11952
वेद	-11953
िनो	-11954
िसे	-11955
ेंटल	-11956
▁गरम	-11957
▁लाज	-11958
▁असीम	-11959
▁बृहत	-11960
▁अठारह	-11961
▁अवांछ	-11962
▁धक्का	-11963
▁मंडली	-11964
▁राजदूत	-11965
▁पुनर्विल	-11966
▁निर्दोषता	-11967
ोन्	-11968
▁ex	-11969
▁लख	-11970
▁एएम	-11971
▁रची	-11972
▁राठ	-11973
र्धित	-11974
ृत्ता	-11975
▁उठने	-11976
▁सिंड	-11977
▁किसके	-11978
▁खनिजों	-11979
▁नियोजक	-11980
▁एकरूपता	-11981
▁संलिप्त	-11982
▁एल्गोरिथ्म	-11983
▁ज्योतिष्पीठ	-11984
▁रजिस्ट्रीकृत	-11985
sa	-11986
ost	-11987
ोटा	-11988
▁धा	-11989
▁उभरा	-11990
▁तस्क	-11991
▁भण्ड	-11992
▁शंका	-11993
▁निकली	-11994
▁बिलास	-11995
▁सरपंच	-11996
▁चिन्ता	-11997
▁डिवाइस	-11998
▁प्रतिब	-11999
▁मुंसिफ	-12000
▁चिंताओं	-12001
▁संप्रेषण	-12002
▁उपन्यासों	-12003
▁सुपुर्दगी	-12004
चाल	-12005
फलक	-12006
ेटर	-12007
टिया	-12008
▁अनप	-12009
▁अभिस	-12010
▁एनएच	-12011
▁कॉफी	-12012
▁डीएस	-12013
▁रुग्	-12014
र्नीचर	-12015
▁शिफ्ट	-12016
▁हममें	-12017
▁उपासना	-12018
▁कुर्सी	-12019
▁फाइलों	-12020
▁रिवाजों	-12021
▁कलाकारों	-12022
▁स्ट्रिंग	-12023
ARA	-12024
हमी	-12025
नामे	-12026
भोगी	-12027
राहट	-12028
र्धा	-12029
ेम्स	-12030
▁जोग	-12031
▁मानद	-12032
▁लीजिए	-12033
▁अदायगी	-12034
▁भ्रमित	-12035
▁राजवंश	-12036
▁कृतियों	-12037
▁द्वीपों	-12038
▁गोस्वामी	-12039
▁वाशिंगटन	-12040
लाभ	-12041
लाइट	-12042
वारे	-12043
हरों	-12044
ाउंट	-12045
▁Cri	-12046
▁छठी	-12047
▁सेठ	-12048
▁हकी	-12049
▁मेला	-12050
▁समाध	-12051
▁साफ़	-12052
▁हैंड	-12053
▁खुदाई	-12054
▁पक्का	-12055
▁परिकल	-12056
▁मोहित	-12057
▁हिमनद	-12058
▁रुकावट	-12059
▁रॉयल्टी	-12060
▁सैकड़ों	-12061
▁एमबीबीएस	-12062
▁एंटरप्राइ	-12063
▁पंक्तियों	-12064
▁जिम्मेदारियों	-12065
ESI	-12066
इंग	-12067
▁अपव	-12068
▁लाते	-12069
▁पदनाम	-12070
▁फ्रां	-12071
▁भिक्ष	-12072
▁अधिष्ठ	-12073
▁अमूर्त	-12074
▁बैठकें	-12075
▁अनुयायी	-12076
▁पर्वतीय	-12077
▁विधिज्ञ	-12078
▁घटनाक्रम	-12079
▁संभाव्यता	-12080
▁उपयोगकर्ताओं	-12081
श्	-12082
ेनर	-12083
देड़	-12084
▁Sar	-12085
▁कांच	-12086
▁डीपी	-12087
▁रावण	-12088
▁ऊँचाई	-12089
▁घटिया	-12090
▁चौड़ा	-12091
▁यूएसए	-12092
▁ज़रूरी	-12093
▁समग्रता	-12094
धिकारियों	-12095
▁अभ्यर्थी	-12096
▁शुक्राणु	-12097
▁कार्यप्रणाली	-12098
भंग	-12099
कुशल	-12100
सिया	-12101
▁अविल	-12102
▁पौधा	-12103
▁मैरी	-12104
▁शोधन	-12105
▁डेबिट	-12106
▁बहनोई	-12107
▁जंगलों	-12108
▁निपटाए	-12109
▁कित्तूर	-12110
▁उदासीनता	-12111
EG	-12112
ana	-12113
▁खल	-12114
ited	-12115
प्पी	-12116
मस्त	-12117
श्रम	-12118
▁CAV	-12119
▁एसए	-12120
▁राख	-12121
▁शिष	-12122
बुद्ध	-12123
▁खोली	-12124
▁डीआई	-12125
▁तेरह	-12126
▁निवल	-12127
▁माधव	-12128
▁वाटर	-12129
▁जिंदा	-12130
▁नोड्स	-12131
▁पत्रक	-12132
▁पुण्य	-12133
▁समतुल	-12134
▁अनुभवी	-12135
▁जनगणना	-12136
▁स्थावर	-12137
▁समुच्चय	-12138
▁नवान्वेषी	-12139
▁वसीयतनामा	-12140
▁राष्ट्रीयता	-12141
CO	-12142
RL	-12143
गौ	-12144
ख्श	-12145
ाजन	-12146
▁al	-12147
▁ज़ोर	-12148
▁बीआई	-12149
▁अयस्क	-12150
▁आसन्न	-12151
▁जायगा	-12152
▁बयानी	-12153
▁शाश्व	-12154
▁हाजिर	-12155
▁आईसीटी	-12156
▁ग्रंथि	-12157
▁मूल्या	-12158
▁महाकाव्य	-12159
▁अतिमानसिक	-12160
▁वास्तुकला	-12161
ob	-12162
फन	-12163
जनल	-12164
▁Un	-12165
▁अनूठ	-12166
▁पौरा	-12167
▁ममता	-12168
▁ईरानी	-12169
▁जघन्य	-12170
▁प्ररूप	-12171
▁रिक्शा	-12172
▁हाइड्र	-12173
▁करोड़ों	-12174
▁बुद्धिम	-12175
▁सुंदरता	-12176
▁अभिलिखित	-12177
▁निष्पादक	-12178
िनस	-12179
▁रौ	-12180
ॉर्क	-12181
▁उठी	-12182
▁अभिश	-12183
▁आहरण	-12184
▁कलाम	-12185
▁लेगी	-12186
▁किश्त	-12187
▁फर्स्ट	-12188
▁मार्शल	-12189
▁रिसर्च	-12190
▁सत्तार	-12191
▁गेंदबाज	-12192
▁संक्रामक	-12193
▁कार्यकलाप	-12194
▁अनियमितताओं	-12195
▁पक्षपातपूर्ण	-12196
ोभ	-12197
ोत्त	-12198
▁छंट	-12199
▁बेन	-12200
ुलेंस	-12201
▁घंटा	-12202
▁भरना	-12203
▁्याय	-12204
▁कार्प	-12205
▁क्रिस	-12206
▁लगाये	-12207
▁अभिषेक	-12208
▁बढ़ाता	-12209
▁पत्तियों	-12210
▁वीरेंद्र	-12211
▁न्यूयार्क	-12212
▁श्रीकृष्ण	-12213
▁सशक्तीकरण	-12214
iya	-12215
गृह	-12216
सेफ	-12217
ूढ़	-12218
▁थक	-12219
▁आगम	-12220
▁नीर	-12221
शिल्प	-12222
ोत्सव	-12223
▁मोटा	-12224
र्ताओं	-12225
▁कामया	-12226
▁दोहरी	-12227
▁माणिक	-12228
▁परंतुक	-12229
▁रिव्यू	-12230
▁ब्रह्मा	-12231
▁आस्तियां	-12232
▁क्षेत्रक	-12233
▁निर्वाचक	-12234
▁प्राप्तकर्ता	-12235
चों	-12236
तुर	-12237
िकार	-12238
फॉर्म	-12239
▁कलंक	-12240
▁सोनू	-12241
▁क़्या	-12242
▁वीआरएस	-12243
▁संभाला	-12244
▁म्यूटेशन	-12245
▁प्रत्युत्तर	-12246
नरी	-12247
फिक	-12248
शों	-12249
ोही	-12250
▁PM	-12251
▁छी	-12252
ंसित	-12253
क्ष्	-12254
ोगिक	-12255
▁कुद	-12256
▁तैर	-12257
▁ग्रा	-12258
िज्ञान	-12259
▁कस्टम	-12260
▁बीजों	-12261
▁मेहरा	-12262
▁गुलाबी	-12263
▁चंपारण	-12264
▁जीवनकाल	-12265
▁प्रमाणों	-12266
GA	-12267
्का	-12268
▁RA	-12269
गरीय	-12270
मपुर	-12271
▁इंप	-12272
▁फेश	-12273
▁लैब	-12274
▁इनको	-12275
▁ग्ला	-12276
▁मारी	-12277
▁अंशों	-12278
▁तत्सं	-12279
▁भगवती	-12280
▁वृक्क	-12281
▁शारदा	-12282
▁ख्याति	-12283
▁कार्रवा	-12284
▁घुमावदार	-12285
▁पहाड़ियों	-12286
▁इलेक्ट्रॉनिक्स	-12287
URU	-12288
ग्व	-12289
जना	-12290
ुला	-12291
गारी	-12292
ावती	-12293
ोर्स	-12294
▁नोए	-12295
▁भरण	-12296
▁भाँ	-12297
▁्या	-12298
FAESI	-12299
कर्मी	-12300
▁टीएस	-12301
▁म्यू	-12302
▁लर्न	-12303
▁नतीजे	-12304
▁संकलित	-12305
▁समाजों	-12306
▁सम्मुख	-12307
▁फर्नीचर	-12308
▁अनुबंधित	-12309
▁बिलासपुर	-12310
▁प्रतिज्ञा	-12311
▁राजेन्द्र	-12312
शर	-12313
has	-12314
बैक	-12315
ंजित	-12316
▁एंथ	-12317
▁तीर	-12318
▁निज	-12319
▁मिड	-12320
▁राघ	-12321
▁कड़े	-12322
▁जुटा	-12323
▁डीसी	-12324
▁दशरथ	-12325
▁भावा	-12326
▁रखाव	-12327
▁शेखर	-12328
▁सपने	-12329
▁औषधीय	-12330
▁केलिए	-12331
▁रिवाज	-12332
▁वेदों	-12333
▁व्यतिक	-12334
▁अंतरात्मा	-12335
▁अपेक्षाओं	-12336
▁लाभान्वित	-12337
▁उद्देश्यपूर्ण	-12338
to	-12339
आन	-12340
लता	-12341
▁Dr	-12342
▁व्	-12343
▁Sam	-12344
▁असं	-12345
निर्ण	-12346
▁दाता	-12347
▁पराग	-12348
▁केमिक	-12349
▁बनारस	-12350
▁अक्षरों	-12351
▁दुर्भाग	-12352
▁मैट्रिक	-12353
▁आनुपातिक	-12354
▁प्रॉक्सी	-12355
▁कीटनाशकों	-12356
▁औपचारिकताओं	-12357
ंसल	-12358
ादे	-12359
▁मच	-12360
बानी	-12361
ाप्र	-12362
▁खां	-12363
▁साओ	-12364
▁गाइड	-12365
▁पतली	-12366
ड़ियां	-12367
▁आठवीं	-12368
▁बीतने	-12369
▁सवारी	-12370
ानुक्रम	-12371
▁भूमिगत	-12372
▁सद्भाव	-12373
क्षात्मक	-12374
▁आन्तरिक	-12375
▁तर्कहीन	-12376
▁डिस्ट्रिक	-12377
▁प्रोफार्मा	-12378
▁स्थानापन्न	-12379
▁कार्यक्षेत्र	-12380
दरी	-12381
तदार	-12382
नायक	-12383
▁Bal	-12384
▁चचे	-12385
▁थाः	-12386
▁पूल	-12387
▁Page	-12388
▁कब्र	-12389
▁ज्यू	-12390
▁ढलान	-12391
▁मप्र	-12392
▁सपना	-12393
▁मारुति	-12394
ृत्तियों	-12395
▁संस्थापन	-12396
▁आपूर्तिकर्ता	-12397
▁प्रोग्रामिंग	-12398
▁विमानक्षेत्र	-12399
SE	-12400
kar	-12401
ण्य	-12402
िएबल	-12403
ोत्प	-12404
्तिक	-12405
▁नाख	-12406
▁बेग	-12407
गाड़ी	-12408
योग्य	-12409
▁ठंडा	-12410
▁मोचन	-12411
▁उदारी	-12412
▁बहुधा	-12413
▁सविता	-12414
▁सेवार	-12415
▁कर्त्त	-12416
▁परिवाद	-12417
▁वियतना	-12418
▁संकेतक	-12419
▁जालसाजी	-12420
▁पौराणिक	-12421
▁सौन्दर्य	-12422
▁व्याख्याताओं	-12423
▁प्रतिनिधिमंडल	-12424
ge	-12425
्ध	-12426
ond	-12427
तौर	-12428
ोगी	-12429
विन्द	-12430
ामीटर	-12431
ोनिया	-12432
▁आभास	-12433
▁कॉमन	-12434
▁नवाब	-12435
▁उपद्रव	-12436
▁नरसिंह	-12437
▁परित्याग	-12438
▁पंचवर्षीय	-12439
▁पत्रिकाओं	-12440
▁रिक्तियां	-12441
▁सहिष्णुता	-12442
▁साधारणतया	-12443
▁अत्यावश्यक	-12444
▁उत्तरवर्ती	-12445
ool	-12446
ंपल	-12447
ोकर	-12448
▁Mu	-12449
▁एआर	-12450
▁बाउ	-12451
▁अतुल	-12452
▁कन्ह	-12453
▁बदली	-12454
▁लगों	-12455
▁विशा	-12456
▁श्ले	-12457
▁स्ला	-12458
▁चालुक	-12459
▁बूढ़े	-12460
▁तस्करी	-12461
▁तालमेल	-12462
▁निकलती	-12463
▁विलम्ब	-12464
▁शाश्वत	-12465
▁अभिनेता	-12466
▁दिखाएगा	-12467
▁निर्यातक	-12468
▁अनिश्चितता	-12469
▁विज्ञापनों	-12470
▁cr	-12471
▁मिठ	-12472
▁रोह	-12473
ांतरण	-12474
ियनों	-12475
▁अमूल	-12476
▁इटली	-12477
▁कुएं	-12478
▁क्रू	-12479
▁गलतफ	-12480
▁मेले	-12481
▁बदलता	-12482
▁रवैया	-12483
तानुसार	-12484
▁ग्रीवा	-12485
▁प्रातः	-12486
▁बहुसंख	-12487
▁अवशिष्ट	-12488
▁मार्गों	-12489
▁स्तंभों	-12490
▁ब्राउज़र	-12491
▁प्रशिक्षु	-12492
▁डिस्ट्रिक्ट	-12493
▁मंत्रिपरिषद	-12494
ध्द	-12495
पाट	-12496
▁Ac	-12497
▁खज	-12498
▁आदम	-12499
▁एमई	-12500
▁बृह	-12501
कार्ब	-12502
▁इष्ट	-12503
▁जीता	-12504
▁पतला	-12505
▁बॉडी	-12506
श्चात्	-12507
▁उल्टी	-12508
▁तटस्थ	-12509
▁मिल्स	-12510
▁उकसाया	-12511
▁एनआईओएस	-12512
▁पहुंचती	-12513
▁पात्रों	-12514
▁विश्वव्यापी	-12515
’’	-12516
मयी	-12517
रां	-12518
ैंट	-12519
▁RF	-12520
▁दाद	-12521
▁फंस	-12522
▁बृज	-12523
▁भला	-12524
त्रिक	-12525
▁कचरा	-12526
▁दलित	-12527
▁माउस	-12528
▁व्रत	-12529
▁समतल	-12530
मुक्ति	-12531
▁अय्यर	-12532
▁ओसीसी	-12533
▁नोएडा	-12534
▁पेरिस	-12535
▁मुर्ग	-12536
▁उन्मुख	-12537
▁एकाग्र	-12538
▁मुद्रक	-12539
▁रसीदें	-12540
▁मार्क्स	-12541
▁लाइब्रे	-12542
▁समझदारी	-12543
▁तत्संबंधी	-12544
▁ज्योतिर्मठ	-12545
▁क्रियान्वित	-12546
२४	-12547
▁कद	-12548
ipur	-12549
डीआर	-12550
▁आरओ	-12551
▁मों	-12552
▁शॉप	-12553
▁खेला	-12554
▁गिरि	-12555
▁पंकज	-12556
▁एनओसी	-12557
▁कीमती	-12558
▁नाभिक	-12559
▁पीड़क	-12560
▁सज्जन	-12561
▁स्पेन	-12562
▁अन्वेष	-12563
▁अस्त्र	-12564
▁जिन्ना	-12565
▁दुबारा	-12566
▁नोकिया	-12567
▁सब्जियों	-12568
▁परिसंपत्ति	-12569
त्थ	-12570
ेषण	-12571
▁लघ	-12572
एंगे	-12573
▁चीख	-12574
▁बहू	-12575
▁कोल्	-12576
▁मुर्	-12577
▁लम्ब	-12578
▁दशाओं	-12579
▁नवजात	-12580
▁रेस्प	-12581
▁व्हिप	-12582
▁यूनानी	-12583
व्यवस्थित	-12584
▁द्विवेदी	-12585
▁प्रेमचन्द	-12586
▁नामनिर्देश	-12587
▁पुनर्विलोकन	-12588
ide	-12589
ावि	-12590
प्पू	-12591
वारा	-12592
शियल	-12593
ॉजिट	-12594
▁Dev	-12595
▁दुब	-12596
खानों	-12597
दाश्त	-12598
▁घोषण	-12599
▁चंदर	-12600
▁पद्य	-12601
▁पीके	-12602
▁मामल	-12603
▁वृंद	-12604
▁सजीव	-12605
▁कालीन	-12606
▁फोटोक	-12607
▁सर्किल	-12608
▁एजेंटों	-12609
▁किस्मों	-12610
▁जबरदस्त	-12611
▁SARFAESI	-12612
▁शताब्दियों	-12613
▁प्रक्रियाएं	-12614
▁प्रत्यायोजित	-12615
tp	-12616
ाथा	-12617
▁चब	-12618
ब्बी	-12619
▁एबी	-12620
कार्य	-12621
गृहीत	-12622
▁ईश्व	-12623
▁उभार	-12624
▁कैंप	-12625
गोशिएबल	-12626
▁अधिमान	-12627
▁एक्सपी	-12628
▁बहिष्क	-12629
▁मित्रा	-12630
▁मुर्गी	-12631
▁दुकानें	-12632
▁समाजवाद	-12633
▁एग्रीमेंट	-12634
▁सैद्धांतिक	-12635
▁लाभार्थियों	-12636
शोधन	-12637
स्तर	-12638
ारसी	-12639
▁अरे	-12640
▁उषा	-12641
▁पैद	-12642
▁रवै	-12643
▁सिड	-12644
र्द्ध	-12645
▁कशेर	-12646
▁गायक	-12647
▁थैली	-12648
▁स्लम	-12649
▁हरेक	-12650
▁कराते	-12651
▁चावला	-12652
▁निष्ठ	-12653
▁मथुरा	-12654
▁होस्ट	-12655
▁खुफिया	-12656
▁पत्रकार	-12657
▁समनुदेश	-12658
▁संख्याओं	-12659
EM	-12660
बुद	-12661
तत्व	-12662
▁ईआर	-12663
▁पोट	-12664
▁वाउ	-12665
▁टोकन	-12666
▁डिजी	-12667
▁मच्छ	-12668
▁यूके	-12669
न्यासी	-12670
▁अहसास	-12671
▁कथनों	-12672
▁पहलों	-12673
▁बंदोब	-12674
▁मियां	-12675
▁पीएमएलए	-12676
▁वचनबद्ध	-12677
▁उपेक्षित	-12678
▁अनुपयुक्त	-12679
गिर	-12680
देय	-12681
ुंध	-12682
▁लिक	-12683
▁सफ़	-12684
क्राम	-12685
स्टोन	-12686
ेंट्स	-12687
▁चपरा	-12688
▁जीएस	-12689
▁त्यौ	-12690
▁बल्ल	-12691
▁विंग	-12692
▁भावों	-12693
▁लिखकर	-12694
▁लॉन्च	-12695
▁शिश्न	-12696
▁वडोदरा	-12697
▁वैल्यू	-12698
▁संज्ञा	-12699
▁इंग्लिश	-12700
▁दोहराते	-12701
▁करनेवाले	-12702
▁प्रेमचंद	-12703
▁चक्रवर्ती	-12704
ov	-12705
एफए	-12706
सर्ग	-12707
▁जेन	-12708
▁धरो	-12709
▁शां	-12710
ग्रही	-12711
▁ट्रा	-12712
▁माथे	-12713
▁वसंत	-12714
▁स्कू	-12715
▁कालाव	-12716
▁छिड़क	-12717
▁डालें	-12718
▁नम्बर	-12719
▁सियार	-12720
▁स्क्व	-12721
▁अलंकरण	-12722
▁पंचांग	-12723
▁फैलाने	-12724
▁बहुलता	-12725
▁पुत्रों	-12726
▁प्राप्य	-12727
▁आच्छादित	-12728
▁महाद्वीप	-12729
▁उपयुक्तता	-12730
ुली	-12731
▁मय	-12732
▁वफ	-12733
▁एका	-12734
ित्री	-12735
▁अन्र	-12736
▁उठते	-12737
▁ऑर्स	-12738
▁छत्र	-12739
▁जमाव	-12740
▁भूरे	-12741
्यूटरी	-12742
▁बढाने	-12743
▁अनुरुप	-12744
▁उन्नीस	-12745
▁सेवारत	-12746
▁फैक्ट्री	-12747
▁अपार्टमेंट	-12748
▁उम्मीदवारी	-12749
▁श्रद्धांजलि	-12750
UN	-12751
ढी	-12752
ॉं	-12753
ore	-12754
ेतन	-12755
ॉयस	-12756
▁GA	-12757
ट्ठी	-12758
१वें	-12759
▁टूल	-12760
▁पिर	-12761
▁बाण	-12762
▁कतार	-12763
▁गोपी	-12764
▁ट्रॉ	-12765
▁नायर	-12766
▁बसंत	-12767
▁धरोहर	-12768
▁मुंडा	-12769
▁रहमान	-12770
कर्त्ता	-12771
▁अमृतसर	-12772
▁एलपीजी	-12773
▁दिखाती	-12774
▁पार्किंग	-12775
▁बहिष्करण	-12776
▁न्यायपूर्ण	-12777
DA	-12778
हण	-12779
▁राग	-12780
भागीय	-12781
▁वीणा	-12782
▁सोशल	-12783
ास्ट्र	-12784
▁आंत्र	-12785
▁कट्टर	-12786
▁प्रसि	-12787
▁वर्गा	-12788
▁कैपिटल	-12789
▁निकलना	-12790
▁बारीकी	-12791
▁स्वरुप	-12792
▁पुरोहित	-12793
▁फेफड़ों	-12794
▁वृक्षों	-12795
▁संन्यासी	-12796
▁अव्यवस्था	-12797
▁प्रोफ़ाइल	-12798
▁विवेकानंद	-12799
चड़	-12800
फीक	-12801
महा	-12802
▁ओज	-12803
किया	-12804
ावरी	-12805
▁MFA	-12806
▁नेप	-12807
▁लती	-12808
▁सला	-12809
alpur	-12810
▁काटा	-12811
▁जेएन	-12812
▁कथाओं	-12813
▁जिनको	-12814
▁द्वेष	-12815
▁नक्शे	-12816
▁पत्ते	-12817
▁चपरासी	-12818
▁फिटनेस	-12819
▁अधिकथित	-12820
▁खुशहाली	-12821
▁पार्टनर	-12822
▁अधिकरणों	-12823
▁अनुशंसित	-12824
▁धर्मशाला	-12825
▁पैकेजिंग	-12826
▁रिफाइनरी	-12827
▁एक्सट्रीम	-12828
▁खाद्यान्न	-12829
▁सुव्यवस्थित	-12830
ड्र	-12831
भवन	-12832
ेता	-12833
▁LJ	-12834
▁बकर	-12835
िंग्स	-12836
्रियल	-12837
▁एलएल	-12838
▁डीजल	-12839
▁माउंट	-12840
▁मिलों	-12841
▁क्योकि	-12842
▁फेंकने	-12843
▁महासभा	-12844
▁निम्नतर	-12845
▁निर्वास	-12846
▁युग्मित	-12847
▁समतुल्य	-12848
▁संलिप्तता	-12849
ORE	-12850
mis	-12851
झान	-12852
▁Sch	-12853
▁ईएम	-12854
▁क्षी	-12855
▁गांठ	-12856
▁मेजर	-12857
▁रेणु	-12858
▁सुनते	-12859
▁अल्लाह	-12860
▁विधायक	-12861
▁समामेल	-12862
▁दुराचार	-12863
▁साप्ताह	-12864
▁अवस्थाओं	-12865
▁साम्राज्यवाद	-12866
wa	-12867
िंक	-12868
चकों	-12869
ज्जा	-12870
तमंद	-12871
▁खेद	-12872
▁बोत	-12873
▁सृज	-12874
▁अंगी	-12875
▁एलसी	-12876
▁तरफ़	-12877
▁फ़िर	-12878
▁महार	-12879
▁सबका	-12880
स्तरीय	-12881
▁उठाता	-12882
▁कुष्ठ	-12883
▁कोनों	-12884
▁बनेगा	-12885
▁वायरस	-12886
▁तत्समय	-12887
▁मित्तल	-12888
▁लेक्चर	-12889
▁अवरुद्ध	-12890
▁राजनयिक	-12891
▁एंटरप्राइज	-12892
▁टेक्नोलॉजी	-12893
थिक	-12894
पाती	-12895
मुझे	-12896
▁गान	-12897
▁चाइ	-12898
▁बीर	-12899
▁लेब	-12900
▁यानि	-12901
▁साउथ	-12902
▁Chrom	-12903
▁जवाहर	-12904
▁जीवनी	-12905
▁महाजन	-12906
▁महोदय	-12907
▁रेस्त	-12908
▁सक्से	-12909
▁हुबली	-12910
▁आरबीआई	-12911
▁उदारता	-12912
▁एकाउंट	-12913
▁दिवंगत	-12914
▁प्रकटन	-12915
▁बढ़िया	-12916
▁राजपूत	-12917
▁स्कूली	-12918
▁स्नायु	-12919
▁पैदावार	-12920
▁कट्टरपंथी	-12921
▁साप्ताहिक	-12922
▁इंजीनियरों	-12923
▁प्रयोगशालाओं	-12924
ng	-12925
ैब	-12926
ine	-12927
काए	-12928
्ती	-12929
खोरी	-12930
िकोड	-12931
ीयों	-12932
▁उपच	-12933
▁चाँ	-12934
▁गुड़	-12935
▁जरिये	-12936
▁दुष्प	-12937
▁लुप्त	-12938
▁विद्व	-12939
▁महाजार	-12940
▁अनुशंसा	-12941
▁त्यौहार	-12942
▁निर्बाध	-12943
▁स्ट्रीम	-12944
फ्रास्ट्र	-12945
▁आत्मघाती	-12946
▁ऑपरेटिंग	-12947
▁प्रक्षेपण	-12948
टित	-12949
फिट	-12950
▁कटे	-12951
▁केन	-12952
ंबद्ध	-12953
▁इजाज	-12954
▁एजें	-12955
▁जीएम	-12956
▁बरती	-12957
▁बहती	-12958
▁बोना	-12959
ान्तरण	-12960
▁अधूरा	-12961
▁उभरती	-12962
▁कवरेज	-12963
▁असीमित	-12964
▁कॉन्फ़	-12965
▁दर्शित	-12966
▁पाश्चात	-12967
▁स्टार्ट	-12968
▁राज्यसभा	-12969
▁शुक्रवार	-12970
▁उत्तरार्द्ध	-12971
▁कंस्ट्रक्शन	-12972
ans	-12973
▁sa	-12974
ूलाल	-12975
▁संसू	-12976
▁भूगोल	-12977
▁मैथुन	-12978
▁समरूप	-12979
▁चीज़ों	-12980
▁डिमांड	-12981
▁बर्बाद	-12982
▁श्रव्य	-12983
▁सांसार	-12984
▁फोटोकॉपी	-12985
ok	-12986
aoM	-12987
यास	-12988
रिश	-12989
▁शन	-12990
दानी	-12991
िकों	-12992
ोल्ट	-12993
▁कैथ	-12994
▁नबी	-12995
र्जित	-12996
ानिया	-12997
▁उंगल	-12998
▁बापू	-12999
▁उपवास	-13000
▁गणितीय	-13001
▁फोल्डर	-13002
▁रीडिंग	-13003
▁सीलबंद	-13004
▁किताबों	-13005
▁सर्कुलर	-13006
▁वर्गाकार	-13007
▁उत्तराखंड	-13008
▁सांख्यिकीय	-13009
▁संवेदनशीलता	-13010
धक	-13011
तनी	-13012
वक्क	-13013
▁हनी	-13014
▁पेटी	-13015
▁रखनी	-13016
नारायण	-13017
▁रेडिय	-13018
▁हालिया	-13019
▁कन्हैया	-13020
▁परिजनों	-13021
▁पीढ़ियों	-13022
AB	-13023
▁pr	-13024
ेंडम	-13025
▁खोद	-13026
▁लाद	-13027
चर्या	-13028
तावास	-13029
▁दराज	-13030
▁फ़ोन	-13031
▁मधुम	-13032
▁कंकाल	-13033
▁डालती	-13034
▁फिरौती	-13035
▁स्टैम्प	-13036
▁अंशकालिक	-13037
▁वर्षगांठ	-13038
▁निगोशिएबल	-13039
बै	-13040
चरित	-13041
ट्टे	-13042
▁बिक	-13043
▁सीओ	-13044
वस्तु	-13045
▁East	-13046
▁आईपी	-13047
▁इन्स	-13048
▁उमेश	-13049
▁एलडी	-13050
▁चढ़ा	-13051
▁जांघ	-13052
▁प्रज	-13053
▁बर्न	-13054
▁लपेट	-13055
▁वफाद	-13056
▁अनजान	-13057
▁अभ्या	-13058
▁अमिता	-13059
▁आवधिक	-13060
▁कुप्र	-13061
▁मुरली	-13062
▁राक्ष	-13063
▁वर्गम	-13064
▁सीखना	-13065
▁अधिनयम	-13066
▁चैनलों	-13067
▁पारम्प	-13068
▁गलतफहमी	-13069
▁रामलिंग	-13070
▁रोज़गार	-13071
▁छात्रावास	-13072
▁डिफेंडेंट	-13073
▁त्रुटिपूर्ण	-13074
डित	-13075
षाण	-13076
ुना	-13077
▁’’	-13078
्रास	-13079
▁नज़	-13080
कर्षण	-13081
त्तों	-13082
्लेषण	-13083
▁उपजा	-13084
▁टिकी	-13085
▁बेतु	-13086
▁भीषण	-13087
▁इजाजत	-13088
▁नगरों	-13089
▁पित्त	-13090
▁अधिभोग	-13091
▁एकान्त	-13092
निरपेक्ष	-13093
▁संस्थित	-13094
▁साफ्टवेयर	-13095
LR	-13096
टूर	-13097
ामस	-13098
ेकर	-13099
▁ऐल	-13100
सूची	-13101
ुकता	-13102
ूंगी	-13103
▁खली	-13104
▁गड्	-13105
▁नाच	-13106
▁फोक	-13107
ोलनों	-13108
▁केएस	-13109
▁चेतन	-13110
▁नामं	-13111
▁मीरा	-13112
▁रियल	-13113
▁पप्पू	-13114
▁ब्राज	-13115
▁वायदा	-13116
▁सुनाए	-13117
▁जबलपुर	-13118
▁जोड़ता	-13119
▁बेलगाम	-13120
▁साहसिक	-13121
▁ग्रीष्म	-13122
▁संभवतया	-13123
▁प्रशासित	-13124
▁मान्यताप्राप्त	-13125
ापी	-13126
िफ़	-13127
ions	-13128
ंजलि	-13129
एलआर	-13130
फाइड	-13131
▁एलए	-13132
▁जलन	-13133
▁अंचल	-13134
▁आरेख	-13135
▁पसन्द	-13136
▁बदलकर	-13137
▁कुत्ते	-13138
▁तीक्ष्	-13139
▁न्यासी	-13140
▁प्रलेख	-13141
▁उच्छेदन	-13142
▁शपथपत्र	-13143
▁केन्द्री	-13144
▁पुरस्कृत	-13145
▁विश्लेषक	-13146
▁रिटर्निंग	-13147
फ्रास्ट्रक्चर	-13148
IA	-13149
ौड़	-13150
▁गन	-13151
hara	-13152
ादान	-13153
िपति	-13154
▁KAR	-13155
▁कैट	-13156
▁ढोल	-13157
▁मनु	-13158
▁करोड	-13159
▁घाटे	-13160
▁चुनि	-13161
▁गायों	-13162
▁भागते	-13163
▁सुझाए	-13164
▁कानूनन	-13165
▁जुड़ने	-13166
▁डेवलपर	-13167
▁शिवाजी	-13168
▁उपनियमों	-13169
▁ग्लोरिया	-13170
▁व्यक़्ति	-13171
▁सांसारिक	-13172
PP	-13173
SC	-13174
कुम	-13175
कोड	-13176
ावत	-13177
टीएस	-13178
्कोह	-13179
▁Anr	-13180
विंदर	-13181
▁अनाप	-13182
▁घुड़	-13183
▁दाने	-13184
▁देसी	-13185
▁फ्रै	-13186
▁यकृत	-13187
▁खर्चा	-13188
▁डेंटल	-13189
▁बढावा	-13190
▁विक्ष	-13191
▁उल्लास	-13192
▁फाइनेंस	-13193
▁ट्रैकिंग	-13194
▁समारोहों	-13195
▁सिद्धदोष	-13196
▁स्वायत्तता	-13197
ऑफ	-13198
HAR	-13199
कूट	-13200
तेह	-13201
पंथ	-13202
ाइट	-13203
िनम	-13204
ौना	-13205
▁नस	-13206
abad	-13207
गण्य	-13208
ोन्म	-13209
▁खाट	-13210
▁पीर	-13211
▁रमन	-13212
▁लसी	-13213
पट्टी	-13214
पृष्ठ	-13215
▁एनबी	-13216
▁गाथा	-13217
▁टकरा	-13218
▁धनुष	-13219
▁बालू	-13220
▁बुजु	-13221
▁रीढ़	-13222
▁वक्ष	-13223
▁अपडेट	-13224
▁जड़ें	-13225
▁परिणत	-13226
▁रिफंड	-13227
▁रोबोट	-13228
▁वीरता	-13229
▁चेष्टा	-13230
▁मानसून	-13231
▁शिष्यों	-13232
▁झाड़ियों	-13233
▁प्रतिबिम	-13234
▁प्रत्याशा	-13235
▁फोटोग्राफ	-13236
▁प्रामाणिकता	-13237
्ना	-13238
▁असे	-13239
▁एडम	-13240
▁जनन	-13241
▁शिर	-13242
िचेरी	-13243
▁क्रे	-13244
▁डीजी	-13245
▁प्रथ	-13246
▁लाये	-13247
▁स्वत	-13248
▁WPNos	-13249
▁छोड़ी	-13250
▁जार्ज	-13251
▁नियति	-13252
▁विक्ट	-13253
ानात्मक	-13254
▁परोक्ष	-13255
▁मुन्ना	-13256
▁मैदानों	-13257
▁सरोजिनी	-13258
▁कार्यशील	-13259
▁प्राचार्य	-13260
▁हस्तशिल्प	-13261
▁विकिपीडिया	-13262
▁व्यवहार्यता	-13263
▁न्यायाधिकरणों	-13264
थर	-13265
our	-13266
▁we	-13267
साइड	-13268
▁FIR	-13269
▁Lal	-13270
▁REV	-13271
▁अशु	-13272
▁पेड	-13273
▁फलक	-13274
भाषित	-13275
▁घुमा	-13276
▁यहूद	-13277
▁रोना	-13278
▁श्या	-13279
▁हमास	-13280
▁DISTR	-13281
▁पर्ची	-13282
▁पोषित	-13283
▁मिलें	-13284
▁योगेश	-13285
▁महानगर	-13286
▁मुनाफा	-13287
▁कविताएं	-13288
▁परक्राम	-13289
▁फेडरेशन	-13290
▁वर्गमूल	-13291
▁वियतनाम	-13292
▁आवंटियों	-13293
ell	-13294
ere	-13295
घ्न	-13296
मैं	-13297
▁नृ	-13298
कुलर	-13299
▁कंब	-13300
▁वरन	-13301
ार्जन	-13302
▁इसमे	-13303
▁परिम	-13304
▁प्रह	-13305
▁मैके	-13306
▁रंगा	-13307
▁रिंग	-13308
▁ओबीसी	-13309
▁खरगोश	-13310
▁जर्नल	-13311
▁देखती	-13312
ॉल्यूशन	-13313
ोनेशिया	-13314
▁एमएलसी	-13315
▁मिस्टर	-13316
▁अफ्रीकी	-13317
▁समयावधि	-13318
▁सराहनीय	-13319
▁प्रबन्धन	-13320
भ्र	-13321
ोंक	-13322
▁लव	-13323
समूह	-13324
▁Lim	-13325
▁भाल	-13326
▁सैल	-13327
शासित	-13328
ोत्तम	-13329
▁NAME	-13330
▁कमोड	-13331
▁चुनी	-13332
▁फिनल	-13333
▁फ्लै	-13334
▁अकेली	-13335
▁कैमरा	-13336
▁नर्सरी	-13337
▁मुवक्क	-13338
▁कालावधि	-13339
▁कहानियां	-13340
▁अध्यापकों	-13341
रिस	-13342
शिक	-13343
ोहक	-13344
▁AC	-13345
बाज़	-13346
स्को	-13347
ुलिप	-13348
▁एनई	-13349
▁जुग	-13350
▁बेर	-13351
▁अभूत	-13352
▁कांट	-13353
▁निंद	-13354
eshwar	-13355
ांक्षी	-13356
▁गिर्द	-13357
▁जागरण	-13358
▁सेल्स	-13359
▁कन्नड़	-13360
▁पत्तों	-13361
▁बढ़ेगा	-13362
▁योद्धा	-13363
▁समझदार	-13364
▁जातियां	-13365
▁फ़ाइलें	-13366
▁अनुज्ञेय	-13367
▁ट्रांसफ़	-13368
▁विधेयकों	-13369
▁गारंटीकृत	-13370
▁महानिरीक्षक	-13371
ड़ो	-13372
दित	-13373
ावल	-13374
िंद	-13375
ौरी	-13376
▁aa	-13377
▁ht	-13378
ated	-13379
ेंदर	-13380
▁कटि	-13381
▁जमश	-13382
▁धर्	-13383
▁धाग	-13384
▁पिप	-13385
▁बहि	-13386
▁बेड	-13387
▁हें	-13388
्यूलर	-13389
▁जूरी	-13390
▁डाउन	-13391
▁मुक़	-13392
ोरेटरी	-13393
▁अंकगण	-13394
▁आभासी	-13395
▁कमरों	-13396
▁गलिया	-13397
▁मानकी	-13398
▁वंशान	-13399
▁एक्सेस	-13400
▁दिवसीय	-13401
▁बस्तियों	-13402
▁कॉन्फ़िगर	-13403
▁पाश्चात्य	-13404
▁तत्पश्चात्	-13405
ESH	-13406
लिन	-13407
ोरो	-13408
ाप्य	-13409
▁कड़ा	-13410
▁फकीर	-13411
▁व्हा	-13412
▁सचिन	-13413
▁सीजे	-13414
ियाबाद	-13415
▁कच्ची	-13416
▁कराती	-13417
▁निकास	-13418
▁पहनने	-13419
▁पार्व	-13420
▁पार्ष	-13421
▁बागान	-13422
▁कृषकों	-13423
▁पहचाने	-13424
▁अनुकूलन	-13425
▁आत्मसात	-13426
▁आमंत्रण	-13427
▁बुजुर्ग	-13428
▁साझीदार	-13429
▁वंशानुगत	-13430
▁कॉन्स्टेबल	-13431
▁मार्केटिंग	-13432
▁स्क्रीनिंग	-13433
इटर	-13434
▁ID	-13435
ुष्प	-13436
▁Ors	-13437
▁फेल	-13438
▁मूक	-13439
▁यदु	-13440
खेड़ा	-13441
▁असम्	-13442
▁बाली	-13443
▁युगल	-13444
▁लाकर	-13445
▁क्लाज	-13446
▁जमशेद	-13447
▁जेम्स	-13448
▁महिमा	-13449
▁विलास	-13450
▁शरारत	-13451
▁ऋणदाता	-13452
▁निपटते	-13453
▁बिजनेस	-13454
▁मौलाना	-13455
▁आभूषणों	-13456
▁परिषदों	-13457
▁मलेरिया	-13458
▁कोशिकाएं	-13459
▁परमात्मा	-13460
▁प्रवर्तक	-13461
▁यात्राओं	-13462
▁संयंत्रों	-13463
▁गतिविधियाँ	-13464
LJ	-13465
लीस	-13466
पाही	-13467
▁Sri	-13468
▁ओएम	-13469
▁औपन	-13470
▁कोठ	-13471
▁कोत	-13472
▁चलन	-13473
▁चैर	-13474
▁पसी	-13475
▁मुसी	-13476
▁क्लीन	-13477
▁गिरीश	-13478
▁पढ़कर	-13479
▁विशाख	-13480
▁सिन्ध	-13481
▁तुम्हे	-13482
▁पुजारी	-13483
▁सुचारू	-13484
▁महादेवी	-13485
▁सन्दर्भ	-13486
▁सूचनाएं	-13487
▁स्पेक्ट	-13488
▁उपाध्याय	-13489
▁प्रायोगिक	-13490
▁अंतर्विरोध	-13491
▁ट्रस्टियों	-13492
ईस	-13493
जनी	-13494
भान	-13495
▁US	-13496
िप्स	-13497
शियों	-13498
ेशिया	-13499
▁इंसो	-13500
▁एलजे	-13501
▁मेरठ	-13502
▁चिंटू	-13503
▁हाथाप	-13504
▁माइक्रोस	-13505
▁विजेताओं	-13506
▁सावित्री	-13507
▁निश्चितता	-13508
▁ड्राफ्ट्समैन	-13509
भन	-13510
समी	-13511
▁by	-13512
लेखा	-13513
▁Shi	-13514
▁झाँ	-13515
▁फाल	-13516
▁शकु	-13517
वल्ली	-13518
ेंबली	-13519
▁अजीत	-13520
▁आदिम	-13521
▁कुंड	-13522
▁स्का	-13523
▁अड्डा	-13524
▁खोलना	-13525
▁चढ़ाव	-13526
▁त्रास	-13527
▁परिशि	-13528
▁विखंड	-13529
▁शालीन	-13530
▁श्रेण	-13531
▁हजारी	-13532
▁ह्रास	-13533
▁Chrome	-13534
▁इलैक्ट	-13535
▁डीआरटी	-13536
▁पर्याय	-13537
▁वर्क्स	-13538
▁शिशुओं	-13539
▁इच्छाओं	-13540
▁लेखांकन	-13541
▁हाथापाई	-13542
▁सृजनात्मक	-13543
मणि	-13544
मेव	-13545
▁हौ	-13546
र्चे	-13547
▁शरद	-13548
▁सरस	-13549
र्वाद	-13550
▁अंकन	-13551
▁एचटी	-13552
▁कस्त	-13553
▁घोड़	-13554
▁तर्ज	-13555
▁वाचा	-13556
▁विकट	-13557
▁अंदाज	-13558
▁इन्टर	-13559
▁पॉइंट	-13560
▁हवाले	-13561
▁अपनाते	-13562
▁इन्कार	-13563
▁मेघालय	-13564
▁असंगतता	-13565
▁गोलियां	-13566
▁नांदेड़	-13567
▁फार्मास	-13568
▁मतभेदों	-13569
▁DISTRICT	-13570
▁मैनेजमेंट	-13571
▁धर्मनिरपेक्ष	-13572
ोफ	-13573
िले	-13574
्टू	-13575
▁SR	-13576
▁मट	-13577
ुप्त	-13578
ोष्ठ	-13579
▁वगै	-13580
▁सहस	-13581
▁इर्द	-13582
▁उष्ण	-13583
▁एड्स	-13584
▁थर्म	-13585
▁पीजी	-13586
▁वॉयस	-13587
िक्षित	-13588
▁डाकघर	-13589
▁पारसी	-13590
द्धार्थ	-13591
▁अदृश्य	-13592
▁डिजीटल	-13593
▁फेफड़े	-13594
▁सॉफ़्ट	-13595
▁क्लिनिक	-13596
▁रिश्तों	-13597
▁वैचारिक	-13598
▁यहूदियों	-13599
▁एवोल्यूशन	-13600
▁अधिसूचनाओं	-13601
▁कंट्राबेंड	-13602
▁पूर्वानुमान	-13603
▁रेस्पोंडेंट	-13604
दीन	-13605
ौजी	-13606
्ज़	-13607
▁ईओ	-13608
▁टच	-13609
▁थॉम	-13610
▁भास	-13611
िकाने	-13612
ीलैंड	-13613
ोध्या	-13614
▁इजरा	-13615
▁कोरम	-13616
▁पाचन	-13617
▁Chand	-13618
▁जमारा	-13619
▁भाँति	-13620
▁सुस्प	-13621
▁पुनर्न	-13622
▁पुरातन	-13623
▁महादेव	-13624
▁लेटर्स	-13625
▁क्रमादेश	-13626
▁वार्तालाप	-13627
▁कम्युनिस्ट	-13628
▁हस्ताक्षरों	-13629
२५	-13630
ओवर	-13631
ंगनी	-13632
व्रत	-13633
स्पद	-13634
▁डॉक	-13635
▁परह	-13636
▁सटे	-13637
ोत्तर	-13638
्फीति	-13639
▁इन्फ	-13640
▁ठरोग	-13641
प्रसाद	-13642
्वेस्ट	-13643
▁अभिनव	-13644
▁उद्गम	-13645
▁कप्ता	-13646
▁करेंः	-13647
▁जातीय	-13648
▁द्रुत	-13649
▁रणजीत	-13650
▁वाउचर	-13651
▁एसएलपी	-13652
▁एसबीआई	-13653
▁कंटेनर	-13654
▁विराट्	-13655
▁सिपाही	-13656
▁सीलिंग	-13657
▁जवाबदेह	-13658
▁ड्राइंग	-13659
▁रियायती	-13660
▁पैरामीटर	-13661
▁निष्कासित	-13662
▁बहुसंख्यक	-13663
▁दुर्भाग्यवश	-13664
▁राष्ट्रवादी	-13665
▁इंस्ट्रूमेंट्स	-13666
IF	-13667
णक	-13668
दो	-13669
यह	-13670
ंजना	-13671
चेतन	-13672
यनों	-13673
▁जीभ	-13674
▁दूत	-13675
▁बेव	-13676
▁मल्	-13677
▁महम	-13678
च्युत	-13679
विष्ट	-13680
▁उपगत	-13681
▁दांव	-13682
▁भुला	-13683
▁रोमन	-13684
▁कर्मी	-13685
▁दसवीं	-13686
▁रूढ़ि	-13687
▁हटाकर	-13688
▁होम्य	-13689
▁करेंसी	-13690
▁चिन्तन	-13691
▁छुपाया	-13692
▁विरचित	-13693
▁सूर्या	-13694
▁अमेरिकन	-13695
▁किस्तों	-13696
▁डिपॉजिट	-13697
▁नजरबंदी	-13698
▁नामंजूर	-13699
▁मुद्रास	-13700
▁श्लोकों	-13701
▁अनुकरणीय	-13702
▁सर्वसम्म	-13703
▁प्रताड़ित	-13704
▁इच्छाशक्ति	-13705
▁इलेक्ट्रिकल	-13706
de	-13707
TPA	-13708
ोपण	-13709
▁NH	-13710
यनगर	-13711
▁एसओ	-13712
▁काठ	-13713
▁काव	-13714
▁कास	-13715
▁चाप	-13716
▁चैक	-13717
▁लात	-13718
पात्र	-13719
वलोकन	-13720
ॉजिकल	-13721
ोपैथी	-13722
▁खगोल	-13723
▁गुरब	-13724
▁द्रो	-13725
▁साधक	-13726
▁सेतु	-13727
▁चलाते	-13728
▁दूंगा	-13729
▁दूषित	-13730
▁बेलार	-13731
▁रवैये	-13732
▁एक्सटी	-13733
▁चीज़ें	-13734
▁देहाती	-13735
▁स्याही	-13736
▁एचएलईसी	-13737
▁दूतावास	-13738
▁रेस्तरां	-13739
▁वृद्धावस्था	-13740
अन	-13741
शरण	-13742
सवाल	-13743
्यूप	-13744
▁Par	-13745
▁पेप	-13746
▁शेल	-13747
▁हिज	-13748
नीकरण	-13749
न्दगी	-13750
यॉर्क	-13751
▁एचयू	-13752
▁धमनी	-13753
▁महाभ	-13754
▁होली	-13755
▁आएंगे	-13756
▁उत्खन	-13757
▁चलाता	-13758
▁बुलेट	-13759
▁राजने	-13760
▁साम्प	-13761
▁गार्डन	-13762
▁महंगाई	-13763
▁अयोध्या	-13764
▁पार्वती	-13765
▁निवेदिता	-13766
▁दुर्घटनाओं	-13767
▁अल्पसंख्यकों	-13768
UT	-13769
ii	-13770
रोन	-13771
शाक	-13772
ासु	-13773
▁CS	-13774
▁MM	-13775
▁एर	-13776
ावुर	-13777
▁LIN	-13778
▁दोग	-13779
▁पिच	-13780
▁फीड	-13781
▁बूझ	-13782
▁निम्	-13783
▁पाकर	-13784
▁फरसा	-13785
▁वरुण	-13786
▁पार्थ	-13787
▁बगीचे	-13788
▁मारना	-13789
▁सन्नि	-13790
▁कृतज्ञ	-13791
▁बालिका	-13792
▁अंबेडकर	-13793
▁अन्वेषक	-13794
▁अस्वस्थ	-13795
▁ज्योतिष	-13796
▁परवर्ती	-13797
▁मेहरअली	-13798
▁उद्यमिता	-13799
▁उर्वरकों	-13800
▁दिवालिया	-13801
▁प्रदर्शक	-13802
▁प्रयोगों	-13803
▁संप्रेषित	-13804
▁सिद्धार्थ	-13805
lo	-13806
िआ	-13807
ंगम	-13808
माइ	-13809
लयन	-13810
ाता	-13811
▁घी	-13812
ंडों	-13813
क्से	-13814
▁BEN	-13815
▁अँग	-13816
▁बची	-13817
▁भजन	-13818
फील्ड	-13819
रियों	-13820
वाहित	-13821
ुपालन	-13822
ेलनों	-13823
▁एओआर	-13824
▁एसबी	-13825
▁छापा	-13826
ायद्वी	-13827
▁कमलेश	-13828
▁ज्वार	-13829
▁ट्रैप	-13830
▁निपुण	-13831
▁साढ़े	-13832
▁कुलदीप	-13833
▁निभाता	-13834
▁वर्तनी	-13835
▁सिद्धि	-13836
▁गोरखपुर	-13837
▁सिक्योर	-13838
▁प्रतिषेध	-13839
▁बेरोजगार	-13840
▁सक्रियता	-13841
▁पदाधिकारियों	-13842
hal	-13843
धाम	-13844
पाद	-13845
ूले	-13846
ुदेव	-13847
▁टां	-13848
▁सता	-13849
ग्रेड	-13850
स्तान	-13851
▁मर्म	-13852
ंस्कृत	-13853
यात्रा	-13854
▁घनत्व	-13855
▁टेम्प	-13856
▁वेटेज	-13857
▁वेल्स	-13858
▁सब्जी	-13859
▁School	-13860
▁एन्क्र	-13861
▁वृत्ता	-13862
▁फ़ाइलों	-13863
▁अनुष्ठान	-13864
▁कार्यकरण	-13865
▁प्रायद्वी	-13866
▁सम्प्रदाय	-13867
▁विश्वयुद्ध	-13868
▁शल्यक्रिया	-13869
▁सर्वसम्मति	-13870
ठों	-13871
्यम	-13872
▁झर	-13873
ब्बत	-13874
रपुर	-13875
▁एकक	-13876
▁छपाई	-13877
▁पर्ण	-13878
▁रजनी	-13879
▁वायर	-13880
▁ज़मान	-13881
▁मार्ट	-13882
▁मौर्य	-13883
▁सीतार	-13884
▁00,000	-13885
▁डेल्टा	-13886
▁बुकिंग	-13887
कर्मियों	-13888
▁चुनिंदा	-13889
▁पौष्टिक	-13890
▁बेहतरीन	-13891
▁प्रतिमान	-13892
▁अभूतपूर्व	-13893
▁गाजियाबाद	-13894
▁धारावाहिक	-13895
ंधा	-13896
बनी	-13897
कारक	-13898
काशी	-13899
ग्ने	-13900
ण्डल	-13901
रेली	-13902
▁अपद	-13903
▁एनी	-13904
▁जोश	-13905
▁डुप	-13906
▁शरा	-13907
▁साय	-13908
जीभाई	-13909
▁कम्ब	-13910
▁प्ली	-13911
क्षमता	-13912
▁एकत्व	-13913
▁चाहने	-13914
▁डीटीए	-13915
▁तामील	-13916
▁नोट्स	-13917
▁पाउंड	-13918
▁गुर्दे	-13919
▁पिछड़ा	-13920
▁राज्या	-13921
▁सोमनाथ	-13922
▁नानालाल	-13923
▁निर्वचन	-13924
▁मिलेंगे	-13925
▁राममोहन	-13926
▁हाइड्रो	-13927
▁नाममात्र	-13928
▁न्यूयॉर्क	-13929
▁लाइसेंसिंग	-13930
▁साम्राज़्य	-13931
ाधर	-13932
▁he	-13933
ावान	-13934
▁पिघ	-13935
▁फ़र	-13936
ियाला	-13937
्यापक	-13938
▁आप्र	-13939
▁कमान	-13940
▁चतुर	-13941
▁बांट	-13942
▁बारा	-13943
▁रेफर	-13944
▁सूअर	-13945
▁सोया	-13946
कात्मक	-13947
▁अंगुल	-13948
▁दुष्ट	-13949
▁फरमान	-13950
▁फैक्स	-13951
▁लगाती	-13952
▁स्टेड	-13953
▁अद्वैत	-13954
▁अलमस्त	-13955
▁पड़ताल	-13956
▁भाषणों	-13957
▁युसुफ़	-13958
▁खूबसूरत	-13959
▁चंद्रमा	-13960
▁परिसीमन	-13961
▁लेक्चरर	-13962
▁कार्यकार	-13963
▁परमेश्वर	-13964
▁आपातकालीन	-13965
▁क्रियाशील	-13966
▁फ्रांसीसी	-13967
▁लोकप्रियता	-13968
PF	-13969
ेला	-13970
▁मोक	-13971
▁शोथ	-13972
ुगतान	-13973
▁ROAD	-13974
▁आर्क	-13975
▁केके	-13976
▁चाची	-13977
▁चादर	-13978
▁झुका	-13979
▁बंसल	-13980
▁विदा	-13981
▁हर्ज	-13982
▁अनीता	-13983
▁नैदान	-13984
▁रद्दी	-13985
▁हुर्इ	-13986
▁कीमतें	-13987
▁ठिकाने	-13988
▁दुश्मन	-13989
▁मन्त्र	-13990
▁संगणित	-13991
▁फायरिंग	-13992
▁निविदाएं	-13993
▁संग्रहीत	-13994
▁एम्बुलेंस	-13995
०ग	-13996
ुमा	-13997
्हे	-13998
aria	-13999
कांड	-14000
र्धक	-14001
ोटिक	-14002
▁ईडी	-14003
▁तान	-14004
▁थिर	-14005
▁West	-14006
▁नंदा	-14007
▁त्रिव	-14008
▁बढ़ाई	-14009
▁अहंकार	-14010
▁आयोजना	-14011
▁जोड़ों	-14012
▁प्रीति	-14013
▁बोतलों	-14014
▁अध्यापन	-14015
▁फिनलैंड	-14016
▁वामपंथी	-14017
▁सम्मेलनों	-14018
▁मुद्रास्फीति	-14019
गिन	-14020
फेस	-14021
▁ऋस	-14022
ोलिक	-14023
्रमी	-14024
▁दुल	-14025
▁पुत	-14026
▁मकर	-14027
द्दाम	-14028
लीकृत	-14029
▁उपकर	-14030
▁एनएस	-14031
▁खोजे	-14032
▁टोपी	-14033
▁डेमो	-14034
▁तारे	-14035
▁देवे	-14036
▁लड़क	-14037
▁शिला	-14038
स्वरुप	-14039
ाध्याय	-14040
ियोजित	-14041
▁ग्रेट	-14042
▁ज्यों	-14043
▁अनिच्छ	-14044
▁पुख्ता	-14045
▁पुनर्ज	-14046
▁औपनिवेश	-14047
▁बढ़ोतरी	-14048
▁पूर्णकालिक	-14049
▁प्राप्तियों	-14050
uk	-14051
sil	-14052
▁Pr	-14053
▁ऑट	-14054
त्रय	-14055
▁Col	-14056
▁आति	-14057
▁नीम	-14058
▁बुन	-14059
▁हतो	-14060
ियाना	-14061
ेरिया	-14062
▁आवेश	-14063
▁उठती	-14064
▁खाती	-14065
▁जीपी	-14066
▁परिर	-14067
▁साइड	-14068
▁सूखी	-14069
▁आबद्ध	-14070
▁क्वाल	-14071
▁नलिका	-14072
▁पुनरु	-14073
▁राइफल	-14074
▁समाधि	-14075
▁सुमित	-14076
▁हेल्थ	-14077
▁अघोषित	-14078
▁पिताजी	-14079
▁फेशियल	-14080
▁भवभूति	-14081
▁अंगीकार	-14082
▁तंजावुर	-14083
▁प्राणिक	-14084
▁श्रीराम	-14085
▁आश्रितों	-14086
▁संप्रतीक	-14087
▁त्यागपत्र	-14088
▁विधिमान्य	-14089
▁दीर्घकालीन	-14090
▁पर्याप्तता	-14091
ूफ	-14092
VAT	-14093
एमए	-14094
रूम	-14095
▁शू	-14096
िएटर	-14097
▁टाव	-14098
▁यंग	-14099
▁रिच	-14100
किनार	-14101
▁अनुष	-14102
▁एसएन	-14103
▁पारा	-14104
ग्रन्थ	-14105
▁अंकुर	-14106
▁नब्बे	-14107
▁पड़ना	-14108
▁फुफ्फ	-14109
▁लॉगिन	-14110
ोग्राफी	-14111
▁उत्तरो	-14112
▁चाहिएं	-14113
▁मेजबान	-14114
▁कंडक्टर	-14115
▁चौकीदार	-14116
▁दरकिनार	-14117
▁एफटीआईएल	-14118
▁ऑब्जेक्ट	-14119
▁स्थितियां	-14120
▁प्रतिक्रियाओं	-14121
नाद	-14122
रोड	-14123
ंहार	-14124
▁ors	-14125
▁ईसी	-14126
▁बैर	-14127
▁मर्	-14128
▁हिच	-14129
नीयता	-14130
न्नों	-14131
▁घबरा	-14132
▁पीला	-14133
▁सम्य	-14134
▁घटाने	-14135
▁ढूंढ़	-14136
▁नित्य	-14137
▁वार्म	-14138
▁सैंपल	-14139
त्साहित	-14140
▁पागलपन	-14141
▁रक्तचाप	-14142
▁वारिसों	-14143
▁सूचियों	-14144
▁आधारशिला	-14145
▁कारखानों	-14146
▁प्रतिबन्ध	-14147
▁प्रधानाचार्य	-14148
▁शिकायतकर्ताओं	-14149
ib	-14150
ly	-14151
ंसू	-14152
जिक	-14153
टाइ	-14154
▁an	-14155
▁ढु	-14156
ANAG	-14157
pura	-14158
वाहक	-14159
ाहार	-14160
▁आरई	-14161
▁कैव	-14162
▁घिन	-14163
▁टॉम	-14164
▁शॉट	-14165
स्वाम	-14166
ान्ति	-14167
▁OANo	-14168
▁छिपे	-14169
▁फतेह	-14170
▁बंडल	-14171
▁भृंग	-14172
▁रीडर	-14173
▁आरोग्य	-14174
▁उत्तरः	-14175
▁सुझाया	-14176
▁ओवरराइड	-14177
▁नैदानिक	-14178
▁पांचवीं	-14179
▁मवेशियों	-14180
▁संदर्भों	-14181
▁प्रकाशनों	-14182
▁प्रतिभागियों	-14183
हु	-14184
भुज	-14185
ानक	-14186
▁Sy	-14187
▁सँ	-14188
गिरी	-14189
चुअल	-14190
स्टन	-14191
ुराम	-14192
▁OCC	-14193
▁घने	-14194
▁लटक	-14195
▁सैर	-14196
▁हाव	-14197
ुक्ता	-14198
्रेसी	-14199
▁अप्प	-14200
▁दफ्त	-14201
▁रंजी	-14202
▁रेज़	-14203
▁अस्सी	-14204
▁एटीएम	-14205
▁प्राग	-14206
▁बर्बर	-14207
▁सचेतन	-14208
▁सीआरए	-14209
▁सुगंध	-14210
▁हरिजन	-14211
▁अपदस्थ	-14212
▁पैकिंग	-14213
▁अशक्तता	-14214
▁क्लाइंट	-14215
▁संदेशों	-14216
▁जरूरतमंद	-14217
▁प्रकोष्ठ	-14218
▁इस्लामवादियों	-14219
शान	-14220
▁LA	-14221
▁उच	-14222
ालतू	-14223
▁Bar	-14224
▁उपा	-14225
▁गजट	-14226
▁छाव	-14227
▁पीस	-14228
कार्ड	-14229
ख्यान	-14230
तमाला	-14231
ानन्द	-14232
▁छूने	-14233
▁अंडों	-14234
▁जानकी	-14235
▁सॉल्व	-14236
ोगात्मक	-14237
▁कुटुंब	-14238
▁चुनावी	-14239
▁तात्या	-14240
▁पूर्वज	-14241
▁रविवार	-14242
▁विवेचन	-14243
▁एससीआरए	-14244
▁मछलियों	-14245
▁यूनिकोड	-14246
▁लापरवाह	-14247
▁लेखाकार	-14248
▁मातृभूमि	-14249
▁वार्षिकी	-14250
▁प्रदाताओं	-14251
▁व्यवसायों	-14252
▁बुद्धिमत्ता	-14253
खला	-14254
ाधी	-14255
▁th	-14256
▁xx	-14257
िस्म	-14258
०में	-14259
▁dtd	-14260
आधारी	-14261
वाड़े	-14262
▁Naya	-14263
▁कैसी	-14264
▁फायद	-14265
▁मापा	-14266
▁मोक्ष	-14267
▁एसआईटी	-14268
▁डीपीसी	-14269
▁नाइट्र	-14270
▁बर्ताव	-14271
▁मोहल्ला	-14272
▁विशेषतः	-14273
▁आंदोलनों	-14274
▁त्रिवेदी	-14275
▁प्रतीकात्मक	-14276
HA	-14277
tr	-14278
सै	-14279
आरए	-14280
लाट	-14281
▁RFA	-14282
▁रमण	-14283
▁रेम	-14284
देश्य	-14285
ाधुंध	-14286
ाहारी	-14287
▁काबू	-14288
▁पिंज	-14289
▁बायो	-14290
▁ब्यो	-14291
▁भरती	-14292
▁शाला	-14293
▁साझे	-14294
▁हावी	-14295
GALURU	-14296
मास्टर	-14297
सात्मक	-14298
▁डिटेन	-14299
▁बिगड़	-14300
▁रिलीज	-14301
▁स्टेन	-14302
▁हुक्म	-14303
▁अस्थाई	-14304
▁पिल्लई	-14305
▁यदुनाथ	-14306
▁जनशक्ति	-14307
▁शॉर्टकट	-14308
▁अभिकर्ता	-14309
▁कर्त्तव्य	-14310
▁प्रदर्शनों	-14311
▁संपत्तियां	-14312
▁सॉफ़्टवेयर	-14313
▁प्रवृत्तियों	-14314
िण	-14315
टिन	-14316
ल्ट	-14317
ान्स	-14318
▁मॉन	-14319
▁यूट	-14320
ोरियम	-14321
▁कांत	-14322
▁जनमत	-14323
▁जीते	-14324
▁जेएम	-14325
▁महंत	-14326
▁यूसु	-14327
▁विला	-14328
▁संचलन	-14329
राष्ट्र	-14330
▁अनुराग	-14331
▁एकाधिक	-14332
▁छिपाने	-14333
▁नालंदा	-14334
▁पकड़ना	-14335
▁फिल्टर	-14336
▁अपराह्न	-14337
▁कमोडिटी	-14338
▁यूनिटों	-14339
▁स्टेडियम	-14340
▁पांडिचेरी	-14341
▁पारम्परिक	-14342
▁वार्ताकार	-14343
UL	-14344
adi	-14345
ial	-14346
रणा	-14347
ौनी	-14348
जीएस	-14349
प्पन	-14350
र्मी	-14351
वियर	-14352
पुत्र	-14353
ानिकी	-14354
▁नक़ल	-14355
▁पडता	-14356
▁पारी	-14357
▁पीबी	-14358
▁फैशन	-14359
▁Patna	-14360
▁अपीली	-14361
▁गुच्छ	-14362
▁प्रमो	-14363
▁बर्मा	-14364
▁भाजपा	-14365
▁अप्रिय	-14366
▁करवाना	-14367
▁पुष्पा	-14368
▁अमानवीय	-14369
▁पहुंचते	-14370
▁सर्वत्र	-14371
▁आशीर्वाद	-14372
▁सेकेंडरी	-14373
▁शिष्टमंडल	-14374
▁अभियांत्रिक	-14375
RC	-14376
ऊं	-14377
वुड	-14378
वेज	-14379
▁EE	-14380
भाजन	-14381
मिली	-14382
▁PWs	-14383
▁जिल	-14384
▁डैक	-14385
▁तले	-14386
▁दाब	-14387
▁पीई	-14388
▁सनी	-14389
मेन्ट	-14390
▁अफसर	-14391
▁टूटी	-14392
▁धीमा	-14393
▁पठान	-14394
▁लड़ी	-14395
▁अनपढ़	-14396
▁आसमान	-14397
▁जैकेट	-14398
▁परवीन	-14399
▁भतीजे	-14400
▁विनती	-14401
ापूर्वक	-14402
▁एसआरआई	-14403
▁गारंटर	-14404
▁मधुमक्	-14405
▁सद्दाम	-14406
▁असेंबली	-14407
▁औषधियों	-14408
▁मातृत्व	-14409
▁अंधाधुंध	-14410
▁अनुवर्ती	-14411
▁अप्राप्य	-14412
▁पूर्णांक	-14413
▁प्रायोजन	-14414
▁बैंककारी	-14415
▁पर्वतमाला	-14416
▁निर्यातकों	-14417
▁पत्रकारिता	-14418
▁पुनर्भुगतान	-14419
DS	-14420
ex	-14421
xx	-14422
ज्य	-14423
ोपाय	-14424
▁केक	-14425
▁गैल	-14426
▁बसु	-14427
▁मुय	-14428
▁सिं	-14429
▁इम्प	-14430
▁एजीए	-14431
▁जुडी	-14432
▁धोने	-14433
▁रोपण	-14434
▁शीतल	-14435
▁संकर	-14436
▁उभरता	-14437
▁उल्टा	-14438
▁छुट्ट	-14439
▁जोसेफ	-14440
▁तकलीफ	-14441
▁दबाकर	-14442
▁बेजबर	-14443
▁माइनस	-14444
▁साड़ी	-14445
▁सुनना	-14446
▁अधिवास	-14447
▁कार्बो	-14448
▁ग्रेटर	-14449
▁जाएँगे	-14450
▁क्रीड़ा	-14451
▁अस्पृश्य	-14452
▁प्रदूषित	-14453
▁राजकोषीय	-14454
▁सर्वांगी	-14455
▁परक्राम्य	-14456
▁विरोधियों	-14457
MP	-14458
UK	-14459
▁NI	-14460
कर्ण	-14461
▁खरे	-14462
▁ठंड	-14463
▁रेफ	-14464
▁जोकि	-14465
▁बंजर	-14466
▁मजाक	-14467
▁माडल	-14468
▁मुखर	-14469
▁मोहर	-14470
ष्ट्री	-14471
▁ईएसआई	-14472
▁चचेरे	-14473
▁डब्लू	-14474
▁विफलः	-14475
▁मन्दिर	-14476
▁कार्टून	-14477
▁निकालते	-14478
▁महालेखा	-14479
▁विपक्षी	-14480
▁अप्रभावी	-14481
▁किराएदार	-14482
▁विस्फोटक	-14483
▁BENGALURU	-14484
▁डिपार्टमेंट	-14485
▁राष्ट्रमंडल	-14486
तिर	-14487
ोदर	-14488
ोमा	-14489
▁et	-14490
▁हज	-14491
शासन	-14492
▁उखा	-14493
▁केर	-14494
▁मरु	-14495
▁सबक	-14496
त्नों	-14497
▁काना	-14498
▁टीपी	-14499
▁दोहन	-14500
▁पौंड	-14501
▁रचित	-14502
▁जुलूस	-14503
▁पलायन	-14504
▁पेशाब	-14505
▁फ्लोर	-14506
▁अंगूठी	-14507
▁अनापत्ति	-14508
▁उदारीकरण	-14509
▁हितधारकों	-14510
▁कार्यकारिणी	-14511
▁प्रौद्योगिकीय	-14512
are	-14513
डीह	-14514
ापा	-14515
गिरि	-14516
ौकिक	-14517
▁आरए	-14518
▁थिय	-14519
▁धुन	-14520
▁बीओ	-14521
▁मिर	-14522
▁आरडी	-14523
▁गौरी	-14524
▁परोप	-14525
▁पीयू	-14526
▁बाड़	-14527
▁मद्य	-14528
▁व्यप	-14529
जीरिया	-14530
▁कहावत	-14531
▁दर्पण	-14532
▁फसलें	-14533
▁कहेंगे	-14534
▁निरूपण	-14535
▁परीक्ष	-14536
▁मिटाने	-14537
▁सिखाया	-14538
विज्ञानी	-14539
▁अराजकता	-14540
▁निवृत्त	-14541
▁भागलपुर	-14542
▁रणनीतिक	-14543
▁विवाहों	-14544
▁समावेशन	-14545
▁राष्ट्रवाद	-14546
▁प्रविष्टियाँ	-14547
छी	-14548
ज्ह	-14549
तरा	-14550
्जा	-14551
्रह	-14552
ayan	-14553
एमएल	-14554
र्ना	-14555
▁गेल	-14556
▁जोध	-14557
िलिंग	-14558
▁VIII	-14559
▁एनजी	-14560
▁गोबर	-14561
▁चंदन	-14562
▁सुधा	-14563
▁हटकर	-14564
ंजीकृत	-14565
▁उभरते	-14566
▁भरपाई	-14567
▁रोकते	-14568
▁सीढ़ी	-14569
पेक्षित	-14570
▁जिम्मे	-14571
▁मुट्ठी	-14572
▁Limited	-14573
▁प्रभाकर	-14574
▁अत्याधिक	-14575
▁रामेश्वर	-14576
▁वर्गमीटर	-14577
▁औपनिवेशिक	-14578
▁कम्पनियों	-14579
▁द्विआधारी	-14580
▁प्रैक्टिस	-14581
▁सम्मानजनक	-14582
▁अभिप्राप्त	-14583
▁संस्कृतियों	-14584
२६	-14585
ODU	-14586
खले	-14587
ब्स	-14588
मनी	-14589
▁NC	-14590
नाथन	-14591
श्मी	-14592
▁ठिक	-14593
▁लां	-14594
▁वृह	-14595
गुप्त	-14596
▁एडवा	-14597
▁एनाल	-14598
▁पीना	-14599
▁बतला	-14600
▁बनें	-14601
▁लगान	-14602
▁हायर	-14603
क्षत्र	-14604
▁परहेज	-14605
▁बलवंत	-14606
▁मौकों	-14607
▁मौसमी	-14608
▁इकट्ठे	-14609
▁चुकौती	-14610
▁निशाना	-14611
▁फ़ारसी	-14612
▁ब्यौरे	-14613
▁सामरिक	-14614
शास्त्री	-14615
▁तिथियों	-14616
▁विधानों	-14617
▁सक्सेना	-14618
▁सुस्पष्ट	-14619
▁स्वराज्य	-14620
▁पदाधिकारी	-14621
▁सिक्योरिटी	-14622
गों	-14623
ुक्	-14624
ोडे	-14625
ोहन	-14626
▁ठा	-14627
▁तस	-14628
▁बँ	-14629
वेरी	-14630
▁मोज	-14631
शीघ्र	-14632
▁एलआर	-14633
▁कणों	-14634
▁काया	-14635
▁तंतु	-14636
▁पुरः	-14637
▁ब्रज	-14638
▁लिहा	-14639
▁COTPA	-14640
▁असहमत	-14641
▁कीड़े	-14642
▁तेज़ी	-14643
▁नगण्य	-14644
▁नाकाम	-14645
▁पीठों	-14646
▁पोशाक	-14647
▁बताये	-14648
▁बुलाए	-14649
▁बैकअप	-14650
▁वजीफा	-14651
▁सस्ता	-14652
▁सिडबी	-14653
▁हज़ार	-14654
▁अपनाकर	-14655
▁एपेक्स	-14656
▁कप्तान	-14657
▁सिक्के	-14658
▁अधिरोपण	-14659
▁पोतन्ना	-14660
▁बेलारूस	-14661
▁व्यवधान	-14662
▁भुगतानों	-14663
▁वार्मिंग	-14664
▁प्रबंधकों	-14665
▁अनिवार्यता	-14666
़ा	-14667
थ्य	-14668
युग	-14669
संव	-14670
▁SE	-14671
▁इज	-14672
▁वल	-14673
▁छड़	-14674
▁डाई	-14675
▁सुष	-14676
धारणा	-14677
ब्बों	-14678
▁Madh	-14679
▁आयरन	-14680
▁आरती	-14681
▁एफसी	-14682
▁सलाम	-14683
▁साँस	-14684
▁सींग	-14685
▁उभरने	-14686
▁घावों	-14687
▁दामाद	-14688
▁प्रोड	-14689
▁फेंका	-14690
▁मलखान	-14691
▁राउंड	-14692
▁आउटलेट	-14693
▁रिटायर	-14694
▁अन्यत्र	-14695
▁कारखाना	-14696
▁इकबालिया	-14697
▁परिचर्चा	-14698
▁विषयवस्तु	-14699
▁संक्षिप्तता	-14700
▁संवैधानिकता	-14701
▁प्रतिभूतिकरण	-14702
UB	-14703
▁it	-14704
गंगा	-14705
जीपी	-14706
भंगा	-14707
्कों	-14708
्याल	-14709
्राण	-14710
▁मणि	-14711
▁मिज	-14712
▁हंग	-14713
▁अनुत	-14714
▁कुचल	-14715
▁चोटी	-14716
▁बदमा	-14717
▁बुढ़	-14718
▁सज़ा	-14719
▁अक्षय	-14720
▁महमूद	-14721
▁विल्स	-14722
▁सस्ती	-14723
▁आकृष्ट	-14724
▁आरएफपी	-14725
▁कामयाब	-14726
▁कुल्लू	-14727
▁कारागार	-14728
▁खूबियों	-14729
▁प्रत्यय	-14730
▁मीट्रिक	-14731
▁वाक्यों	-14732
▁विशाखाप	-14733
▁सीताराम	-14734
▁नोटिफिकेशन	-14735
▁पारिस्थितिकी	-14736
OS	-14737
ax	-14738
ret	-14739
टेक	-14740
ादि	-14741
▁MS	-14742
▁उध	-14743
द्वि	-14744
ाम्ब	-14745
ासाह	-14746
िकीय	-14747
▁काक	-14748
▁फिस	-14749
▁रहस	-14750
▁अतिर	-14751
▁जिया	-14752
▁ढूँढ	-14753
▁दिवा	-14754
▁नारे	-14755
▁पावन	-14756
▁पितृ	-14757
▁बीसी	-14758
▁लगना	-14759
▁सरमा	-14760
▁खन्ना	-14761
▁चैत्य	-14762
▁तकिया	-14763
▁द्रवि	-14764
▁द्रीय	-14765
▁बढ़ें	-14766
▁अन्तरा	-14767
▁जानकार	-14768
▁नवीनता	-14769
▁अनुग्रह	-14770
▁असंबद्ध	-14771
▁सम्मिलन	-14772
▁चुनौतियां	-14773
▁परम्परागत	-14774
▁राजमार्गों	-14775
▁हतोत्साहित	-14776
▁अभिव्यक्तियों	-14777
CS	-14778
ँघ	-14779
जै	-14780
झक	-14781
▁कफ	-14782
▁चढ	-14783
▁जुन	-14784
▁डोम	-14785
▁शूट	-14786
केशनल	-14787
ास्थि	-14788
्कोहल	-14789
▁इब्र	-14790
▁पीटर	-14791
▁मिनी	-14792
▁रोके	-14793
▁विरल	-14794
▁समेट	-14795
▁क्षीण	-14796
▁घुसपै	-14797
▁तत्पर	-14798
▁दुर्य	-14799
▁निगमन	-14800
▁पूछना	-14801
▁मर्जी	-14802
▁कार्गो	-14803
▁सेलुलर	-14804
▁संभाव्य	-14805
▁अपंजीकृत	-14806
▁ग्रेजुएट	-14807
▁उत्तरोत्तर	-14808
PW	-14809
शै	-14810
षी	-14811
ERE	-14812
ेगा	-14813
ज़ोर	-14814
जिये	-14815
टीपी	-14816
ारित	-14817
▁Off	-14818
▁आहत	-14819
▁दुम	-14820
इजेशन	-14821
▁अनाथ	-14822
▁उभरे	-14823
▁किसे	-14824
▁जहरी	-14825
ग्राही	-14826
▁घोड़ा	-14827
▁चार्ल	-14828
▁पाएगा	-14829
▁बनावट	-14830
▁सत्रह	-14831
▁सहदेव	-14832
▁सीनेट	-14833
▁दिलाता	-14834
▁मिलाया	-14835
▁संकुचन	-14836
▁इस्तीफे	-14837
▁व्यंग्य	-14838
▁जनसाधारण	-14839
▁मुवक्किल	-14840
VC	-14841
यो	-14842
संक	-14843
ौने	-14844
▁AO	-14845
▁ऊन	-14846
▁Pur	-14847
▁आलू	-14848
▁कवक	-14849
▁काँ	-14850
▁टोल	-14851
▁बरस	-14852
▁ऑक्स	-14853
▁कुंभ	-14854
▁गायन	-14855
▁धकेल	-14856
ुत्थान	-14857
▁उठाये	-14858
▁काबुल	-14859
▁ट्रीय	-14860
▁फिक्स	-14861
▁हल्की	-14862
▁फैमिली	-14863
▁संचालक	-14864
ोपाध्याय	-14865
▁चलचित्र	-14866
▁चिड़िया	-14867
▁निकालकर	-14868
▁मैकेनिक	-14869
▁सियाराम	-14870
▁इलैक्ट्र	-14871
▁एनेक्सचर	-14872
▁रियासतों	-14873
▁अल्पकालिक	-14874
▁अवधारणाओं	-14875
▁स्वतन्त्रता	-14876
ैच	-14877
ugh	-14878
▁आड	-14879
यामी	-14880
स्टल	-14881
िताब	-14882
▁कुच	-14883
▁रजत	-14884
▁सेब	-14885
ODUCT	-14886
गमेंट	-14887
▁थॉमस	-14888
▁माली	-14889
▁हथकर	-14890
▁घूमने	-14891
▁अधिप्र	-14892
▁आदित्य	-14893
▁घुटनों	-14894
▁दरभंगा	-14895
▁मोर्चे	-14896
▁रेटिंग	-14897
▁हरिश्च	-14898
▁हेमराज	-14899
▁PRODUCT	-14900
▁निधियां	-14901
▁पदच्युत	-14902
▁संकुचित	-14903
▁परिवर्धन	-14904
▁अतिरिक़्त	-14905
▁निर्माणों	-14906
▁लाइब्रेरी	-14907
▁सर्वांगीण	-14908
▁प्रभावकारी	-14909
▁वस्तुनिष्ठ	-14910
ith	-14911
▁SS	-14912
▁गे	-14913
RISH	-14914
भाष्	-14915
योगी	-14916
ास्व	-14917
ियरी	-14918
▁एनए	-14919
▁कॉज	-14920
▁जीए	-14921
▁ममल	-14922
▁मसल	-14923
▁सूख	-14924
खियों	-14925
▁आंका	-14926
▁ईर्ष	-14927
▁जुडे	-14928
▁तिरू	-14929
▁धड़क	-14930
▁शोभा	-14931
▁घुड़स	-14932
▁ठहरने	-14933
▁मधुकर	-14934
▁रुग्ण	-14935
▁शुक्ल	-14936
▁अनेकों	-14937
▁एनालॉग	-14938
▁ज़रुरत	-14939
▁समस्ती	-14940
▁सोनवीर	-14941
▁समावेदन	-14942
▁बलपूर्वक	-14943
▁सम्पादित	-14944
▁विद्यासागर	-14945
▁ट्रांसफ़ेरे	-14946
da	-14947
ua	-14948
ोइ	-14949
ोथ	-14950
दून	-14951
नें	-14952
य्य	-14953
ासी	-14954
िकट	-14955
्राह	-14956
▁ADV	-14957
▁घोट	-14958
▁छुआ	-14959
▁युन	-14960
्मीकि	-14961
▁औरंग	-14962
▁काटे	-14963
▁द्यो	-14964
▁बिगा	-14965
▁सीएफ	-14966
▁सुशी	-14967
ाहियों	-14968
▁रुपया	-14969
▁ज़मानत	-14970
▁लोकहित	-14971
▁सारवान	-14972
चिकित्सा	-14973
▁उत्तरों	-14974
▁विमानों	-14975
▁वृंदावन	-14976
▁हर्जाना	-14977
▁गतिशीलता	-14978
▁एजेंसियां	-14979
▁प्रतिधारण	-14980
▁विकासात्मक	-14981
▁प्रत्यक्षतः	-14982
MS	-14983
sh	-14984
कंठ	-14985
फली	-14986
▁sp	-14987
▁कोक	-14988
▁जूझ	-14989
▁टोप	-14990
▁शैव	-14991
धीनगर	-14992
▁LINK	-14993
▁कलाई	-14994
▁कांड	-14995
▁कृमि	-14996
▁देवर	-14997
▁सतही	-14998
GALORE	-14999
ंटियों	-15000
ारियों	-15001
▁पंचों	-15002
▁पाषाण	-15003
▁वेदना	-15004
▁सपनों	-15005
▁कीर्ति	-15006
▁टीडीएस	-15007
▁बनाएगा	-15008
▁सटीकता	-15009
▁अपरिचित	-15010
▁जोखिमों	-15011
▁बंटवारे	-15012
▁श्रीनगर	-15013
▁पहुंचाना	-15014
▁पाइपलाइन	-15015
▁बीआईएफआर	-15016
▁भर्तियों	-15017
▁मानसिकता	-15018
▁सन्निहित	-15019
▁अभियांत्रिकी	-15020
ATH	-15021
ुलु	-15022
ूमत	-15023
ंदरी	-15024
हटकर	-15025
ोपेल	-15026
▁Dep	-15027
▁अटक	-15028
▁गोध	-15029
▁युव	-15030
▁लता	-15031
▁लीं	-15032
▁सरी	-15033
संदेह	-15034
ादेवी	-15035
▁गुंट	-15036
▁परिध	-15037
▁पूंछ	-15038
▁फ्ला	-15039
▁मूवी	-15040
▁रोगा	-15041
▁सूरी	-15042
▁सौते	-15043
द्वारा	-15044
▁नक्शा	-15045
▁ब्रॉड	-15046
▁सिक्ख	-15047
▁जोड़ते	-15048
▁निभाते	-15049
▁पीसीआर	-15050
▁विमानन	-15051
▁नकदीकरण	-15052
▁पशुपालन	-15053
▁मोतीलाल	-15054
▁रिएक्टर	-15055
▁उत्कीर्ण	-15056
▁तत्त्वों	-15057
▁तानाशाही	-15058
▁महाभियोग	-15059
▁विनिर्दि	-15060
▁असंतोषजनक	-15061
▁कांग्रेसी	-15062
▁मूर्तियों	-15063
▁समस्तीपुर	-15064
▁नर्मदाशंकर	-15065
ंकू	-15066
तलब	-15067
▁ईस	-15068
भुता	-15069
▁अणु	-15070
▁मोम	-15071
ज्ञों	-15072
न्तुक	-15073
▁आभार	-15074
▁आराध	-15075
▁बकरी	-15076
▁मजूम	-15077
तत्त्व	-15078
▁क्रॉल	-15079
▁जलाने	-15080
▁प्लेस	-15081
▁वरदान	-15082
▁अतिचार	-15083
▁अमिताभ	-15084
▁गठबंधन	-15085
▁चुप्पी	-15086
▁छोड़ते	-15087
▁दिखाएं	-15088
▁ब्रांच	-15089
▁भक्तों	-15090
▁जन्मजात	-15091
▁अनिच्छुक	-15092
▁कोल्हटकर	-15093
▁परामर्शी	-15094
▁सिद्धान्तों	-15095
ञ्	-15096
मह	-15097
PSC	-15098
ुनी	-15099
्बा	-15100
▁Si	-15101
तिथि	-15102
ासिक	-15103
ुकूल	-15104
▁दरा	-15105
▁दीव	-15106
▁सल्	-15107
▁ईसाइ	-15108
▁जनना	-15109
▁टीटी	-15110
▁दैवी	-15111
▁पराज	-15112
▁लोकस	-15113
▁वहॉँ	-15114
▁वैभव	-15115
▁उतरने	-15116
▁खोजें	-15117
▁ग्लास	-15118
▁पकाने	-15119
▁यूसुफ	-15120
▁रंजीत	-15121
▁स्टोन	-15122
▁Bhawan	-15123
▁फिलहाल	-15124
▁बनवाया	-15125
▁सातवें	-15126
▁पुराणों	-15127
▁प्रवृति	-15128
▁कहानियाँ	-15129
▁पुरातत्व	-15130
▁प्रतिकृति	-15131
▁संस्करणों	-15132
▁पाकिस्तानी	-15133
▁छात्रवृत्ति	-15134
लेम	-15135
हॉक	-15136
रियन	-15137
▁चिह	-15138
▁बाथ	-15139
▁मसौ	-15140
▁लवण	-15141
▁लोन	-15142
▁अब्ब	-15143
▁उदास	-15144
▁झुंड	-15145
▁लेखे	-15146
▁स्वय	-15147
च्छन्न	-15148
दर्शित	-15149
▁चौंका	-15150
artment	-15151
▁अधिकता	-15152
▁असंगति	-15153
▁एचयूएफ	-15154
▁परिसंघ	-15155
▁ब्यौरा	-15156
▁स्थापन	-15157
▁मजूमदार	-15158
▁गांधीनगर	-15159
▁यूरोपियन	-15160
▁BANGALORE	-15161
▁लेबोरेटरी	-15162
▁स्क्रिप्ट	-15163
▁एंटरप्राइजेज	-15164
▁हिन्दुस्तानी	-15165
LC	-15166
VI	-15167
काय	-15168
ण्ण	-15169
रेक	-15170
वली	-15171
▁ee	-15172
▁ko	-15173
▁डब	-15174
मनगर	-15175
▁Hig	-15176
▁जेट	-15177
▁टूर	-15178
▁डोर	-15179
▁पीप	-15180
▁पुट	-15181
▁पैग	-15182
▁फिज	-15183
▁CCNo	-15184
▁Gaya	-15185
▁दरार	-15186
▁पीएल	-15187
▁वंशज	-15188
▁कल्लू	-15189
▁गैसों	-15190
▁तूफान	-15191
▁रोकती	-15192
▁संगति	-15193
▁आयोगों	-15194
▁इंट्रा	-15195
▁उत्खनन	-15196
▁जेएनयू	-15197
▁मकानों	-15198
▁यन्त्र	-15199
▁सन्देश	-15200
▁कार्तिक	-15201
▁त्रिकोण	-15202
▁कुंजीपटल	-15203
▁जमशेदपुर	-15204
▁प्रतिवेद	-15205
▁प्रयत्नों	-15206
▁रूपांतरित	-15207
▁ब्रह्मानंद	-15208
पच	-15209
▁gu	-15210
पालन	-15211
रहाल	-15212
रांत	-15213
स्टी	-15214
ावटी	-15215
िषेक	-15216
▁URL	-15217
▁काफ	-15218
▁खंभ	-15219
ान्तर	-15220
▁अधिर	-15221
▁नाज़	-15222
▁पॉली	-15223
▁म्या	-15224
▁यादृ	-15225
▁रुके	-15226
▁लाइफ	-15227
▁लाती	-15228
▁सेबी	-15229
▁करियर	-15230
▁काटना	-15231
▁छंटनी	-15232
▁तालिब	-15233
▁परमार	-15234
▁बयाना	-15235
▁वक़्त	-15236
▁गाँवों	-15237
▁पड़ेगी	-15238
▁रिश्ता	-15239
▁सोडियम	-15240
▁महाद्वी	-15241
▁शत्रुओं	-15242
▁सम्बंधित	-15243
▁कार्यनीति	-15244
▁मुकदमेबाज	-15245
▁संपरिवर्तन	-15246
▁सर्वव्यापी	-15247
ARS	-15248
कथा	-15249
नित	-15250
▁CA	-15251
▁Th	-15252
▁गम	-15253
▁छव	-15254
आरएल	-15255
माता	-15256
ाहिम	-15257
्टिव	-15258
▁कुस	-15259
▁चंग	-15260
▁डीन	-15261
▁तने	-15262
▁बख्	-15263
▁मेस	-15264
▁शुग	-15265
▁हिर	-15266
▁ऑप्ट	-15267
▁झटके	-15268
▁डंडा	-15269
▁सरणी	-15270
▁सरला	-15271
▁सूती	-15272
पराइटर	-15273
▁उद्भव	-15274
▁खींची	-15275
▁जसवंत	-15276
▁लौटते	-15277
▁सांके	-15278
▁स्वात	-15279
▁Kumari	-15280
▁उदात्त	-15281
▁करूँगा	-15282
▁भावनगर	-15283
▁महत्तर	-15284
▁श्रृंग	-15285
▁सुशासन	-15286
▁इकाइयाँ	-15287
▁प्रोन्न	-15288
▁फैक्टरी	-15289
▁स्ट्रेट	-15290
▁जितेंद्र	-15291
▁दोषमुक्त	-15292
▁नाइट्रोजन	-15293
▁होल्डिंग्स	-15294
▁तात्कालिकता	-15295
ंन	-15296
ुज	-15297
UDA	-15298
ord	-15299
गना	-15300
फिल	-15301
ाइप	-15302
िगे	-15303
▁टि	-15304
निधि	-15305
▁Adv	-15306
▁कतर	-15307
▁कुक	-15308
▁टिड	-15309
▁परभ	-15310
▁लाश	-15311
▁सजग	-15312
▁हँस	-15313
आईएडी	-15314
▁एम्प	-15315
▁केपी	-15316
▁कोले	-15317
▁चौबी	-15318
▁लॉरी	-15319
▁चालित	-15320
▁ट्राइ	-15321
▁फोर्ट	-15322
▁स्वंय	-15323
▁हैरान	-15324
क्षोपाय	-15325
▁उकसावे	-15326
▁एनसीसी	-15327
▁किंगडम	-15328
▁क्षत्र	-15329
▁ज्ञानी	-15330
▁नदियां	-15331
▁निबन्ध	-15332
▁बिछाने	-15333
▁निराकरण	-15334
▁सादृश्य	-15335
▁सुब्रमण	-15336
▁नागेंद्र	-15337
▁प्रमुखता	-15338
▁रूपान्तर	-15339
▁बेरोजगारी	-15340
▁ब्रह्मांड	-15341
▁यादृच्छिक	-15342
▁आर्बिट्रेशन	-15343
▁प्रमाणपत्रों	-15344
बस	-15345
ोशी	-15346
▁cl	-15347
▁टु	-15348
▁हठ	-15349
शीली	-15350
ैक्स	-15351
▁कवच	-15352
▁टिन	-15353
▁भाप	-15354
धिपति	-15355
न्दरी	-15356
▁जलीय	-15357
▁शिका	-15358
▁सीवी	-15359
िष्कृत	-15360
▁Mahto	-15361
▁कुंवर	-15362
▁कुछेक	-15363
▁दुहरा	-15364
▁बक्से	-15365
▁बरसात	-15366
▁मक्खन	-15367
▁लेफ्ट	-15368
▁सोचकर	-15369
▁एमसीआई	-15370
▁परिणति	-15371
▁अविभक्त	-15372
▁इमारतें	-15373
▁प्रसूति	-15374
▁सांकेतिक	-15375
▁सामान्यत	-15376
▁इंडोनेशिया	-15377
▁प्रस्तुतीकरण	-15378
MI	-15379
कां	-15380
खोर	-15381
डि़	-15382
रीज	-15383
वाड	-15384
सेल	-15385
▁Na	-15386
जवान	-15387
▁कोऑ	-15388
▁दंप	-15389
▁धाम	-15390
▁रास	-15391
▁टीके	-15392
▁थोडा	-15393
▁नुस्	-15394
▁वाकई	-15395
्रीकृत	-15396
▁कीचड़	-15397
▁गुटों	-15398
▁बांटा	-15399
▁मक्खी	-15400
▁विपुल	-15401
▁शुभार	-15402
▁ग्रामो	-15403
▁भुगतने	-15404
▁सुपारी	-15405
ॉल्वेंसी	-15406
▁ईश्वरीय	-15407
▁दृश्यों	-15408
▁विलुप्त	-15409
▁प्राइमरी	-15410
▁वायुसेना	-15411
▁कांफ्रेंस	-15412
▁अपर्याप्तता	-15413
▁प्रतिस्पर्ध	-15414
▁साम्प्रदायिक	-15415
णे	-15416
VII	-15417
use	-15418
मीम	-15419
▁CE	-15420
▁ND	-15421
▁गड	-15422
▁वश	-15423
ance	-15424
म्बा	-15425
िश्व	-15426
▁LPA	-15427
▁भान	-15428
▁हैल	-15429
रेटिव	-15430
▁चंचल	-15431
▁जरुर	-15432
▁ज्ये	-15433
▁फेरी	-15434
▁लोहा	-15435
▁संचय	-15436
यात्मक	-15437
▁अशक्त	-15438
▁गुरुत	-15439
▁बरतने	-15440
नेलवेली	-15441
▁घुसपैठ	-15442
▁विषाणु	-15443
▁सिक्का	-15444
▁स्वीडन	-15445
▁सक्षमता	-15446
▁सेनापति	-15447
▁प्रतिध्व	-15448
▁जमींदारों	-15449
▁बल्लेबाजी	-15450
▁प्रार्थनाओं	-15451
▁स्थानान्तरण	-15452
KA	-15453
सिस	-15454
ोबा	-15455
▁IN	-15456
▁fa	-15457
कृमि	-15458
गुरु	-15459
चर्य	-15460
त्सा	-15461
र्मन	-15462
▁San	-15463
▁किफ	-15464
▁ढाई	-15465
▁दिक	-15466
ंगठित	-15467
विदित	-15468
▁फोकस	-15469
▁भड़क	-15470
▁एडहॉक	-15471
▁पत्ती	-15472
▁परमान	-15473
▁पायलट	-15474
▁योंकि	-15475
▁वर्सस	-15476
▁सौदों	-15477
▁ह्रदय	-15478
▁अंधकार	-15479
▁अलीगढ़	-15480
▁खासतौर	-15481
▁चतुर्व	-15482
▁बरामदे	-15483
▁चार्ल्स	-15484
▁तीक्ष्ण	-15485
▁इब्राहिम	-15486
▁उग्रवादी	-15487
▁एस्टोपेल	-15488
▁विज्ञप्ति	-15489
▁स्टैंडर्ड	-15490
▁स्त्रियां	-15491
▁अतिशयोक्ति	-15492
▁प्रजातियां	-15493
▁प्रोपराइटर	-15494
▁वर्णनात्मक	-15495
▁प्रत्यक्षीकरण	-15496
DC	-15497
▁ं	-15498
कोण	-15499
नोट	-15500
रोप	-15501
ेसी	-15502
ोजर	-15503
▁जख	-15504
▁झं	-15505
▁नख	-15506
ायीं	-15507
▁अवन	-15508
▁अवा	-15509
▁किट	-15510
▁डोग	-15511
▁दाख	-15512
▁पाम	-15513
▁सडक	-15514
▁http	-15515
▁आज्ञ	-15516
▁उठकर	-15517
▁मलिक	-15518
▁मुकु	-15519
▁मूंग	-15520
▁मेरु	-15521
▁सल्ल	-15522
▁हिरण	-15523
▁अनादर	-15524
▁तेजाब	-15525
▁दुसरे	-15526
▁बढ़ाए	-15527
▁संभवत	-15528
▁कार्यो	-15529
▁तिब्बत	-15530
▁व्हाइट	-15531
▁हुकूमत	-15532
▁केआईएडी	-15533
▁फुफ्फुस	-15534
▁संरक्षा	-15535
▁जिज्ञासा	-15536
▁प्रांतों	-15537
▁मताधिकार	-15538
▁शत्रुघ्न	-15539
▁कार्यनीतिक	-15540
▁व्यवस्थाओं	-15541
▁कार्रवाइयों	-15542
MA	-15543
षऋ	-15544
र्ब	-15545
ुचि	-15546
▁pp	-15547
▁हृ	-15548
ical	-15549
आईएस	-15550
दिरा	-15551
िएंट	-15552
▁CRA	-15553
▁Sah	-15554
▁अगु	-15555
▁टंक	-15556
▁डाँ	-15557
▁पाश	-15558
▁माई	-15559
▁रहो	-15560
▁रूख	-15561
▁साब	-15562
▁NEET	-15563
▁Roht	-15564
▁छिपी	-15565
▁पूरन	-15566
▁लटका	-15567
कोशिका	-15568
▁चुम्ब	-15569
▁नशीली	-15570
▁बच्ची	-15571
▁बहुता	-15572
▁बीमित	-15573
▁बैठते	-15574
▁साँचा	-15575
▁आरटीआई	-15576
▁घोड़ों	-15577
▁बड़ौदा	-15578
▁शिलाले	-15579
▁संबधित	-15580
▁आदमियों	-15581
▁कंपाउंड	-15582
▁गुणात्मक	-15583
▁डायरेक्ट	-15584
▁दूरदर्शन	-15585
▁सिंडिकेट	-15586
▁पुरुषोत्तम	-15587
▁प्रोसेसिंग	-15588
▁सामंजस्यपूर्ण	-15589
aff	-15590
गति	-15591
दशा	-15592
प्स	-15593
ातु	-15594
गाली	-15595
लेपन	-15596
षकों	-15597
्लेट	-15598
▁उमर	-15599
▁गुस	-15600
ोलिटन	-15601
▁आईएफ	-15602
▁करीम	-15603
▁खाया	-15604
▁छुरा	-15605
▁नग्न	-15606
▁मिमी	-15607
▁रूपए	-15608
विद्या	-15609
▁अवक्ष	-15610
▁आहरित	-15611
▁कानों	-15612
▁कायदा	-15613
▁क्लिप	-15614
▁जीर्ण	-15615
▁डिटेल	-15616
▁नोबेल	-15617
▁पराजय	-15618
▁फ्रंट	-15619
▁बन्धन	-15620
▁इजराइल	-15621
▁क्लबों	-15622
▁गुस्से	-15623
▁त्यागी	-15624
▁दर्शाए	-15625
▁नेपाली	-15626
▁पटवारी	-15627
▁बोलचाल	-15628
▁मददगार	-15629
▁मीटिंग	-15630
▁वर्धित	-15631
▁नक्षत्र	-15632
▁प्रमोशन	-15633
▁बताएंगे	-15634
▁शाहजहाँ	-15635
▁उत्सुकता	-15636
▁करनेवाला	-15637
▁रिपब्लिक	-15638
▁राजकुमारी	-15639
▁विजयवाड़ा	-15640
▁ब्राह्मणों	-15641
[...]
