<unk>	0
<s>	0
</s>	0
UuRrLl	0
DdAaTtEe	0
NnUuMm	0
▁क	-0
▁स	-1
▁ह	-2
▁प	-3
▁के	-4
▁म	-5
या	-6
ार	-7
्र	-8
▁अ	-9
▁न	-10
▁है	-11
ें	-12
▁,	-13
▁व	-14
▁ज	-15
▁।	-16
र्	-17
▁द	-18
▁में	-19
ों	-20
ता	-21
▁कि	-22
्य	-23
▁ल	-24
▁उ	-25
▁ब	-26
ान	-27
▁की	-28
▁प्र	-29
▁को	-30
िक	-31
▁र	-32
▁औ	-33
▁और	-34
ित	-35
्त	-36
ने	-37
▁ग	-38
▁आ	-39
▁कर	-40
▁त	-41
▁से	-42
▁इ	-43
▁का	-44
▁भ	-45
िए	-46
▁ए	-47
्व	-48
ना	-49
▁पर	-50
▁सं	-51
▁य	-52
्या	-53
िय	-54
▁वि	-55
▁इस	-56
▁.	-57
▁लिए	-58
▁थ	-59
ही	-60
ाल	-61
▁हो	-62
▁श	-63
▁एक	-64
्ष	-65
▁नि	-66
▁-	-67
ाम	-68
▁जा	-69
▁च	-70
्ट	-71
ति	-72
▁किया	-73
▁अप	-74
हीं	-75
▁यह	-76
वा	-77
ारा	-78
▁नहीं	-79
▁अध	-80
▁सम	-81
▁)	-82
▁या	-83
▁अन	-84
सी	-85
▁हैं	-86
▁(	-87
क्त	-88
क्ष	-89
िया	-90
्थ	-91
के	-92
▁करने	-93
ेश	-94
▁ने	-95
िस	-96
िन	-97
▁गया	-98
▁था	-99
ते	-100
▁भी	-101
ले	-102
ती	-103
▁द्व	-104
ाय	-105
त्र	-106
▁द्वारा	-107
ां	-108
▁ख	-109
▁रा	-110
ला	-111
कार	-112
रा	-113
▁न्या	-114
▁उन	-115
▁उस	-116
▁सा	-117
ड़	-118
▁जो	-119
ास	-120
ूप	-121
री	-122
ोग	-123
▁कार	-124
▁निर्	-125
▁अनु	-126
▁सक	-127
▁;	-128
नी	-129
ष्ट	-130
▁दे	-131
▁बा	-132
्प	-133
ियों	-134
गा	-135
▁उप	-136
▁रूप	-137
▁न्याया	-138
ील	-139
देश	-140
ाव	-141
ंध	-142
द्	-143
िल	-144
लय	-145
▁फ	-146
ियम	-147
धार	-148
्च	-149
▁अधिक	-150
▁हम	-151
से	-152
ाह	-153
ाप	-154
्म	-155
बंध	-156
हा	-157
ंग	-158
▁मु	-159
्री	-160
ओं	-161
▁किसी	-162
ारी	-163
रण	-164
▁&	-165
▁न्यायालय	-166
सा	-167
▁सु	-168
स्त	-169
▁हु	-170
का	-171
▁ले	-172
▁जिस	-173
हत	-174
ूर्	-175
▁राज	-176
ाने	-177
▁व्य	-178
▁प्रति	-179
ाग	-180
धान	-181
▁साथ	-182
▁ड	-183
▁ध	-184
्क	-185
▁माम	-186
्न	-187
वि	-188
मा	-189
▁पह	-190
ंड	-191
▁स्थ	-192
▁दिया	-193
क्ति	-194
ंद	-195
ोज	-196
▁अपील	-197
▁स्व	-198
त्त	-199
▁ही	-200
ाना	-201
▁सी	-202
▁सकता	-203
▁ऐ	-204
▁विश	-205
्ह	-206
▁ट	-207
▁तथ	-208
िव	-209
▁कोई	-210
▁चाह	-211
्ल	-212
▁कु	-213
▁वह	-214
कर्	-215
की	-216
दी	-217
▁गए	-218
च्च	-219
▁संबंध	-220
स्थ	-221
कि	-222
▁थी	-223
▁तो	-224
▁गई	-225
रो	-226
▁आव	-227
▁/	-228
्ता	-229
्यों	-230
ंत	-231
▁वर्	-232
▁भार	-233
खा	-234
▁पु	-235
चार	-236
▁अभ	-237
कर्ता	-238
▁जाता	-239
ीन	-240
द्ध	-241
▁तक	-242
▁वाल	-243
िका	-244
▁:	-245
▁घ	-246
▁तहत	-247
▁अपने	-248
ून	-249
रे	-250
▁अधिन	-251
▁दो	-252
▁अधिनियम	-253
योग	-254
ot	-255
ृत	-256
qu	-257
▁qu	-258
▁quot	-259
ूल	-260
ेद	-261
में	-262
्यक	-263
भी	-264
▁आप	-265
दि	-266
▁तर	-267
दा	-268
▁उन्ह	-269
▁अव	-270
▁क्ष	-271
▁सि	-272
▁बाद	-273
ुत	-274
कर	-275
▁राज्य	-276
▁साम	-277
▁जब	-278
ंत्र	-279
▁चाहिए	-280
▁सर	-281
▁छ	-282
▁करना	-283
्स	-284
▁मामले	-285
▁थे	-286
▁रह	-287
जी	-288
▁अन्य	-289
ंच	-290
▁वे	-291
▁तरह	-292
▁उच्च	-293
ंक	-294
▁सह	-295
िश	-296
▁तथा	-297
▁हुए	-298
र्थ	-299
▁किए	-300
▁अधिकार	-301
ब्	-302
▁कार्य	-303
▁बी	-304
▁पी	-305
ारे	-306
ुक्त	-307
गी	-308
जा	-309
ेष	-310
गे	-311
ाप्त	-312
▁करता	-313
▁सरकार	-314
धिक	-315
िर	-316
ढ़	-317
िप	-318
मान	-319
▁कुछ	-320
▁कहा	-321
ंब	-322
▁जाए	-323
िट	-324
▁दी	-325
▁आदेश	-326
▁कान	-327
▁पू	-328
ूच	-329
▁पूर्	-330
▁करते	-331
▁जै	-332
▁कम	-333
▁भारत	-334
ली	-335
▁समय	-336
▁इन	-337
सार	-338
भाव	-339
िला	-340
▁होने	-341
श्यक	-342
ेत्र	-343
पी	-344
▁0	-345
ुर	-346
▁पहले	-347
नों	-348
ाद	-349
▁व्यक्ति	-350
िम	-351
▁आवश्यक	-352
ोट	-353
▁मान	-354
र्ट	-355
▁कारण	-356
▁क्षेत्र	-357
िति	-358
्रे	-359
▁बना	-360
ोक	-361
दान	-362
▁दू	-363
▁मै	-364
▁#	-365
▁ला	-366
▁बह	-367
▁रख	-368
▁आधार	-369
▁होगा	-370
्ञ	-371
▁अपीलकर्ता	-372
▁प्रक	-373
▁विचार	-374
दर्	-375
▁निर्ण	-376
्छ	-377
र्म	-378
धि	-379
▁मे	-380
ीय	-381
▁पार	-382
▁सभी	-383
क्षा	-384
▁होता	-385
▁विक	-386
▁इसके	-387
▁निर्णय	-388
ध्य	-389
▁उसके	-390
वल	-391
▁उत	-392
ुल	-393
ात	-394
▁नियम	-395
▁पा	-396
जन	-397
▁वाले	-398
धी	-399
▁आय	-400
▁उनके	-401
्रम	-402
▁राष्ट	-403
▁ओ	-404
च्छ	-405
▁विशेष	-406
▁अंत	-407
▁प्राप्त	-408
▁कानून	-409
▁परि	-410
न्	-411
स्ता	-412
▁मा	-413
िना	-414
▁प्रा	-415
ष्	-416
ंप	-417
▁जी	-418
▁स्प	-419
▁अल	-420
ोंने	-421
▁अस	-422
▁केवल	-423
▁निय	-424
▁जाना	-425
▁याच	-426
▁मूल	-427
लिए	-428
ग्र	-429
▁प्रकार	-430
र्त	-431
िख	-432
किन	-433
▁निर्धार	-434
▁सब	-435
▁इसलिए	-436
द्य	-437
▁यदि	-438
▁याचिका	-439
▁लेकिन	-440
भा	-441
▁उत्त	-442
्रिया	-443
चित	-444
▁एस	-445
▁अपनी	-446
▁शिक	-447
पूर्	-448
▁लाग	-449
शन	-450
▁धारा	-451
▁चु	-452
वादी	-453
कों	-454
ूम	-455
ौर	-456
िज	-457
टी	-458
त्य	-459
▁वर्ष	-460
▁व्या	-461
वाद	-462
▁पूर्व	-463
्रा	-464
▁रहा	-465
▁जाने	-466
▁अनुसार	-467
▁बै	-468
लों	-469
▁क्या	-470
▁प्रश	-471
▁अद	-472
▁जन	-473
▁मैं	-474
वे	-475
▁मह	-476
▁उन्होंने	-477
ालत	-478
▁न्याय	-479
▁स्पष्ट	-480
दे	-481
▁श्री	-482
ख्या	-483
ांत	-484
▁ऐसे	-485
▁संबंधित	-486
रिक	-487
ावधान	-488
ज्ञ	-489
▁समझ	-490
वन	-491
▁प्रावधान	-492
▁क्यों	-493
▁उल	-494
▁आरो	-495
▁दूस	-496
दार	-497
▁जिन	-498
▁पै	-499
त्म	-500
▁प्रदान	-501
माण	-502
▁विभ	-503
गर	-504
▁पक्ष	-505
▁प्रस्त	-506
करण	-507
▁दाय	-508
क्षण	-509
▁अदालत	-510
▁जान	-511
▁उसे	-512
▁प्रभाव	-513
▁अभिय	-514
िंग	-515
▁सूच	-516
▁उत्प	-517
▁रहे	-518
▁बन	-519
▁उन्हें	-520
▁'	-521
▁सेवा	-522
▁लग	-523
्ड	-524
▁लागू	-525
ंबर	-526
▁अपरा	-527
्रीय	-528
▁निष	-529
▁बात	-530
▁वै	-531
▁उत्तर	-532
▁जिसमें	-533
▁लोग	-534
र्ड	-535
▁गु	-536
▁देने	-537
▁संप	-538
ष्ठ	-539
ुग	-540
ेल	-541
▁विश्व	-542
ये	-543
ड़ा	-544
▁संवि	-545
पूर्ण	-546
▁शाम	-547
▁करें	-548
▁निर्धारित	-549
ोध	-550
ोजना	-551
ेक	-552
▁रु	-553
▁प्रस्तुत	-554
▁देख	-555
▁प्रतिवादी	-556
▁क्योंकि	-557
▁सकते	-558
▁दर्	-559
▁स्थान	-560
त्ति	-561
▁अलग	-562
हां	-563
▁भाग	-564
▁लगा	-565
▁|	-566
▁बहुत	-567
हर	-568
ंट	-569
▁शामिल	-570
▁सद	-571
र्क	-572
▁वा	-573
ोल	-574
र्ष	-575
▁अर्थ	-576
▁अपराध	-577
▁बीच	-578
िता	-579
ड़ी	-580
्यान	-581
▁मौ	-582
▁संविधान	-583
▁ओर	-584
▁उक्त	-585
▁ऐसा	-586
▁काम	-587
▁स्वी	-588
▁जहां	-589
▁जांच	-590
ाज	-591
▁हुआ	-592
तीय	-593
▁जारी	-594
▁होती	-595
धीश	-596
ेट	-597
▁राष्ट्र	-598
दर्भ	-599
▁प्रक्रिया	-600
मति	-601
▁नाम	-602
ोष	-603
▁सकती	-604
▁उपयोग	-605
ूट	-606
▁भूम	-607
▁जाएगा	-608
▁ऊ	-609
▁कंप	-610
▁मुख	-611
▁देश	-612
▁संदर्भ	-613
हित	-614
्ले	-615
▁उद्	-616
ास्त	-617
▁न्यायाधीश	-618
ाई	-619
▁?	-620
ड़े	-621
▁बढ़	-622
ोर्ट	-623
ज़	-624
▁जाती	-625
▁नी	-626
ोर	-627
▁]	-628
▁आवश्यकता	-629
▁ता	-630
▁कह	-631
▁हाल	-632
▁ऑ	-633
कारी	-634
▁बारे	-635
एं	-636
▁लिया	-637
तिक	-638
▁पास	-639
▁ट्र	-640
▁मिल	-641
▁[	-642
नि	-643
▁फै	-644
▁दु	-645
जू	-646
वाह	-647
▁ठ	-648
▁जैसा	-649
तर	-650
▁व्यक्त	-651
▁आवेद	-652
▁निक	-653
िन्न	-654
▁आगे	-655
▁पर्	-656
ाइ	-657
जे	-658
▁ऐसी	-659
गत	-660
▁स्थिति	-661
▁इसे	-662
श्च	-663
▁भारतीय	-664
स्ट	-665
▁खिला	-666
ब्द	-667
▁परिव	-668
ानी	-669
ोजन	-670
तान	-671
▁वक	-672
द्र	-673
▁हमारे	-674
रों	-675
युक्त	-676
▁फिर	-677
्ब	-678
▁बार	-679
ृति	-680
▁मृत	-681
स्था	-682
िखित	-683
मे	-684
▁खिलाफ	-685
▁उद्देश	-686
न्न	-687
▁पत्र	-688
▁विकास	-689
▁आर	-690
शि	-691
▁निर्देश	-692
▁भुग	-693
▁करे	-694
ार्थ	-695
▁ध्यान	-696
▁बता	-697
▁निम	-698
▁व्यव	-699
पति	-700
वी	-701
पाल	-702
▁मामलों	-703
▁A	-704
▁अधीन	-705
शोध	-706
▁शक्ति	-707
▁माना	-708
आई	-709
ूत	-710
..	-711
ूं	-712
▁खंड	-713
णा	-714
▁प्रत्य	-715
▁दिन	-716
▁भुगतान	-717
▁स्वीकार	-718
▁महत	-719
▁सामान	-720
▁उनकी	-721
द्योग	-722
▁संस	-723
आर	-724
▁बे	-725
रि	-726
▁परिस	-727
ताओं	-728
▁हुई	-729
▁योग	-730
ुक	-731
▁S	-732
ाली	-733
▁स्थाप	-734
▁केंद	-735
ूर	-736
▁नंबर	-737
▁उचित	-738
▁दोनों	-739
▁सदस	-740
▁दृ	-741
▁संशोध	-742
▁ई	-743
▁वकील	-744
▁सर्	-745
ित्व	-746
▁लाभ	-747
▁अब	-748
▁दायर	-749
▁सिद्ध	-750
धा	-751
▁निम्न	-752
▁होना	-753
▁योजना	-754
▁शब्द	-755
▁उठ	-756
▁रिप	-757
▁भूमि	-758
▁खु	-759
▁राष्ट्रपति	-760
वाही	-761
▁जैसे	-762
▁कै	-763
▁संख्या	-764
तंत्र	-765
फल	-766
▁ग्र	-767
▁मन	-768
▁लोगों	-769
▁मुख्य	-770
▁अनुमति	-771
▁रखा	-772
▁जिसके	-773
▁आवेदन	-774
▁शुर	-775
को	-776
▁वास्त	-777
▁बो	-778
िस्ट	-779
▁रिपोर्ट	-780
▁उद्देश्य	-781
▁दा	-782
▁वाली	-783
▁जीवन	-784
▁दौर	-785
▁राशि	-786
▁बिना	-787
बी	-788
▁स्त	-789
▁सुन	-790
▁फैस	-791
वाई	-792
▁स्ट	-793
▁शिक्ष	-794
▁पुर	-795
एस	-796
▁मार	-797
्यता	-798
ोड़	-799
▁जिसे	-800
टना	-801
▁i	-802
▁अवधि	-803
▁मध्य	-804
हार	-805
ुम	-806
ायी	-807
कृत	-808
▁महत्व	-809
▁पुन	-810
▁अंतर	-811
ुद्ध	-812
ल्प	-813
▁व्याप	-814
ायत	-815
▁सुर	-816
▁वास्तव	-817
नीय	-818
यन	-819
▁कोर्ट	-820
▁आरोप	-821
ियां	-822
वं	-823
ासन	-824
▁समान	-825
▁विध	-826
▁सहाय	-827
▁चल	-828
▁परी	-829
ेड	-830
▁पारित	-831
▁विभिन्न	-832
ंस	-833
▁कंपनी	-834
▁जु	-835
▁दौरान	-836
▁प्राधिक	-837
चा	-838
ांग	-839
▁प्रव	-840
▁बल	-841
पर	-842
▁पद	-843
क्ट	-844
▁पूरी	-845
वाल	-846
चे	-847
ष्टि	-848
▁सार	-849
▁हों	-850
▁तब	-851
भव	-852
▁उत्पाद	-853
▁माल	-854
▁आई	-855
▁लोक	-856
ग्रह	-857
▁उसकी	-858
▁दिए	-859
▁I	-860
▁ये	-861
▁अधिकारी	-862
▁परिण	-863
▁वित	-864
्यालय	-865
▁सामान्य	-866
▁सिद्धांत	-867
टा	-868
ंह	-869
▁P	-870
▁माध्य	-871
ाँ	-872
स्व	-873
▁एससी	-874
रूप	-875
ब्ल	-876
▁प्रयोग	-877
▁विवाद	-878
▁होते	-879
▁अपना	-880
प्त	-881
▁अला	-882
लब्	-883
्यू	-884
रित	-885
▁रिक	-886
▁कॉ	-887
▁याचिकाकर्ता	-888
▁संपत्ति	-889
▁परिणाम	-890
डी	-891
▁करती	-892
षा	-893
▁रही	-894
▁एवं	-895
▁%	-896
ालन	-897
▁पहु	-898
णी	-899
लिस	-900
▁अं	-901
त्मक	-902
▁उपलब्	-903
वास	-904
तम	-905
▁तीन	-906
म्म	-907
▁वर्त	-908
▁भा	-909
▁अलावा	-910
▁अति	-911
▁दर्ज	-912
▁तै	-913
▁विन	-914
▁पर्या	-915
▁दिना	-916
▁हमें	-917
▁हि	-918
▁सो	-919
▁दिनांक	-920
▁दूसरे	-921
क्ष्य	-922
▁कर्म	-923
▁“	-924
▁वर्तमान	-925
▁स्वतंत्र	-926
▁अनुस	-927
▁विष	-928
▁माध्यम	-929
▁कार्यवाही	-930
धानिक	-931
्सा	-932
▁भीतर	-933
▁दिल	-934
▁पं	-935
▁निष्क	-936
▁समक्ष	-937
ेज	-938
▁प्रावधानों	-939
▁बद	-940
▁शिकायत	-941
िक्री	-942
▁उपलब्ध	-943
िये	-944
▁मज	-945
▁मुझ	-946
वरण	-947
▁कई	-948
सर	-949
तन	-950
मी	-951
क्षित	-952
▁निर्माण	-953
▁उसने	-954
▁देखा	-955
▁C	-956
▁ढ	-957
▁तरी	-958
▁प्रत्येक	-959
ेय	-960
▁होगी	-961
▁शुरू	-962
काश	-963
▁सजा	-964
▁सीमा	-965
▁प्रस्ता	-966
▁सके	-967
▁उल्ले	-968
ज्ञान	-969
ांकि	-970
▁अच्छ	-971
▁हालांकि	-972
▁पुलिस	-973
ेशन	-974
▁उल्लेख	-975
▁वस्त	-976
▁प्रस्ताव	-977
▁बैंक	-978
जर	-979
▁झ	-980
्ली	-981
▁व्यक्तियों	-982
▁गै	-983
शा	-984
▁मामला	-985
▁नोट	-986
फ़	-987
थम	-988
▁समझौ	-989
ोजित	-990
▁संघ	-991
▁डी	-992
ट्ट	-993
▁हिस	-994
त्या	-995
▁तथ्य	-996
▁घोष	-997
▁सिंह	-998
चना	-999
▁पता	-1000
▁निप	-1001
▁अगर	-1002
स्थान	-1003
▁अभियुक्त	-1004
▁संव	-1005
▁तैया	-1006
कद	-1007
तु	-1008
▁कृ	-1009
▁सार्व	-1010
▁विषय	-1011
स्	-1012
▁केंद्र	-1013
वर	-1014
▁मुझे	-1015
▁उल्ल	-1016
ितियों	-1017
▁संशोधन	-1018
▁यहां	-1019
▁परिस्थ	-1020
डब्ल	-1021
तिम	-1022
▁गो	-1023
▁सूचना	-1024
▁हर	-1025
िखा	-1026
▁प्रश्न	-1027
गम	-1028
ारों	-1029
ंभ	-1030
▁समाप्त	-1031
▁सबसे	-1032
▁समिति	-1033
था	-1034
▁सम्म	-1035
ग्री	-1036
्यु	-1037
▁सुप	-1038
ॉर्ड	-1039
हरा	-1040
▁आरोपी	-1041
▁मूल्य	-1042
▁जल	-1043
व्य	-1044
ामी	-1045
▁राष्ट्रीय	-1046
▁स्थापित	-1047
मत	-1048
▁रुप	-1049
▁संर	-1050
▁तर्क	-1051
▁मंत्र	-1052
रोध	-1053
ेप	-1054
▁बच्च	-1055
ूनी	-1056
▁उसी	-1057
▁उत्तरदा	-1058
▁पूर्ण	-1059
जनिक	-1060
▁तैयार	-1061
▁सीखा	-1062
▁रिट	-1063
▁सार्वजनिक	-1064
▁पहुंच	-1065
तः	-1066
▁फैसले	-1067
ेंट	-1068
मु	-1069
▁न्यायिक	-1070
▁बाहर	-1071
▁पूरा	-1072
त्ता	-1073
▁इसका	-1074
▁मुद्	-1075
▁पढ़	-1076
▁महत्वपूर्ण	-1077
▁अध्य	-1078
▁साल	-1079
▁करेगा	-1080
प्र	-1081
▁निष्कर्ष	-1082
क्षम	-1083
▁मो	-1084
▁पार्ट	-1085
मार	-1086
निक	-1087
त्रा	-1088
▁मुकद	-1089
बर	-1090
▁ना	-1091
▁एम	-1092
न्त	-1093
▁स्क	-1094
▁धार	-1095
▁सही	-1096
▁लेने	-1097
र्स	-1098
▁एससीसी	-1099
▁पीडब्ल	-1100
▁दर	-1101
ेम	-1102
द्योगिक	-1103
जूद	-1104
▁विस्त	-1105
▁बु	-1106
ौती	-1107
▁बनाने	-1108
▁वस्तु	-1109
▁खार	-1110
ाला	-1111
▁उपरो	-1112
▁हा	-1113
ाया	-1114
▁उपरोक्त	-1115
राधिक	-1116
▁घटना	-1117
▁शर्त	-1118
▁करके	-1119
▁खारिज	-1120
लिखित	-1121
▁रखने	-1122
▁आयोग	-1123
षण	-1124
▁तारी	-1125
▁देता	-1126
▁एन	-1127
▁शिक्षा	-1128
▁क्र	-1129
▁नियंत्र	-1130
ायल	-1131
मित	-1132
▁प्रमाण	-1133
म्ब	-1134
▁दावा	-1135
▁आदि	-1136
▁तारीख	-1137
▁चुन	-1138
▁ऋ	-1139
▁जाते	-1140
▁कभी	-1141
वान	-1142
▁वी	-1143
▁निम्नलिखित	-1144
▁सर्व	-1145
▁पृ	-1146
▁वित्त	-1147
▁प्रण	-1148
ंघ	-1149
▁तत	-1150
▁अभियोजन	-1151
▁गल	-1152
ोत	-1153
▁ज्ञ	-1154
ीद	-1155
▁अथ	-1156
▁सहायता	-1157
▁पेश	-1158
साय	-1159
▁निहित	-1160
दिष्ट	-1161
▁रिकॉर्ड	-1162
▁बया	-1163
▁अंतिम	-1164
▁मत	-1165
इट	-1166
्द	-1167
▁अतिरिक	-1168
्यक्रम	-1169
▁दोष	-1170
▁अपीलकर्ताओं	-1171
श्व	-1172
▁s	-1173
फी	-1174
ूह	-1175
▁चार	-1176
ठन	-1177
▁वरि	-1178
▁वाप	-1179
▁जिन्ह	-1180
▁N	-1181
▁सूची	-1182
▁नियमों	-1183
▁उद	-1184
यं	-1185
▁विभाग	-1186
▁समर्थ	-1187
▁वृ	-1188
यास	-1189
▁वरिष्ठ	-1190
▁जर	-1191
▁मध्यस्थ	-1192
हन	-1193
▁अतिरिक्त	-1194
▁इसमें	-1195
▁यू	-1196
▁अधि	-1197
▁आया	-1198
▁प्रकृति	-1199
▁ली	-1200
▁सुरक्षा	-1201
▁दिल्ली	-1202
▁दंड	-1203
▁विधि	-1204
▁सौ	-1205
िश्च	-1206
▁पर्याप्त	-1207
▁मांग	-1208
▁ब्र	-1209
▁अग	-1210
▁बिक्री	-1211
▁कानूनी	-1212
ेंस	-1213
▁पीडब्लू	-1214
▁साक्ष्य	-1215
िष्ट	-1216
▁सामग्री	-1217
▁वाला	-1218
ुक्ति	-1219
▁घर	-1220
▁गैर	-1221
▁प्रयास	-1222
ार्थी	-1223
▁अंग	-1224
च्छेद	-1225
▁छोड़	-1226
▁बनाए	-1227
▁पश्च	-1228
▁तरीके	-1229
ुसार	-1230
▁संस्थान	-1231
▁समाज	-1232
▁आयोजित	-1233
▁सदस्य	-1234
▁नाग	-1235
▁हूं	-1236
्यून	-1237
▁निर	-1238
र्तन	-1239
▁विद	-1240
▁ऊपर	-1241
ॉल	-1242
ुल्क	-1243
▁रोक	-1244
▁अथवा	-1245
▁नई	-1246
▁संक	-1247
▁शी	-1248
▁छोट	-1249
▁उसका	-1250
ालय	-1251
▁निष्प	-1252
▁सक्षम	-1253
▁जानकारी	-1254
▁राय	-1255
▁स्तर	-1256
िब	-1257
क्षेप	-1258
दाय	-1259
ित्र	-1260
▁वर्ग	-1261
▁गवाह	-1262
▁बच	-1263
वार	-1264
▁अनुबंध	-1265
ंगिक	-1266
▁मृत्यु	-1267
चान	-1268
▁उनका	-1269
▁दस्ता	-1270
र्ती	-1271
▁आक	-1272
ाइल	-1273
▁सवाल	-1274
▁प्रवेश	-1275
जों	-1276
▁लेख	-1277
▁कल	-1278
न्द	-1279
▁तथ्यों	-1280
▁जे	-1281
▁नीति	-1282
▁आम	-1283
▁परिस्थितियों	-1284
भग	-1285
▁पि	-1286
▁देते	-1287
▁दस्तावे	-1288
▁संग	-1289
▁गति	-1290
▁सामने	-1291
▁स्वयं	-1292
▁कार्र	-1293
ीकरण	-1294
▁दूर	-1295
▁प्रकाश	-1296
भर	-1297
यी	-1298
▁लंब	-1299
▁आपराधिक	-1300
टर	-1301
▁फ़	-1302
धन	-1303
▁निपट	-1304
ुट	-1305
▁बि	-1306
▁अधिस	-1307
▁पैरा	-1308
ीस	-1309
▁देना	-1310
▁प्रदर्	-1311
▁स्वतंत्रता	-1312
▁सुप्रा	-1313
▁शुल्क	-1314
्ग	-1315
मुख	-1316
▁प्रबंध	-1317
▁अवसर	-1318
▁दिखा	-1319
शी	-1320
▁हस्ता	-1321
▁चि	-1322
सान	-1323
▁लगभग	-1324
▁तुम	-1325
▁भाषा	-1326
▁हमारी	-1327
▁अपीलार्थी	-1328
▁संच	-1329
ैधानिक	-1330
▁तय	-1331
▁उल्लंघ	-1332
▁आज	-1333
ण्ड	-1334
▁इसी	-1335
▁सबूत	-1336
▁अधिसूच	-1337
त्	-1338
एल	-1339
▁कार्रवाई	-1340
ुष	-1341
▁बयान	-1342
▁बोर्ड	-1343
ूर्ति	-1344
▁कुल	-1345
▁प्रय	-1346
▁चिक	-1347
....	-1348
ेदार	-1349
▁धर्म	-1350
▁मृतक	-1351
क्स	-1352
▁गं	-1353
▁हित	-1354
▁अधिकारियों	-1355
▁हे	-1356
▁उत्पन्न	-1357
▁उल्लंघन	-1358
दन	-1359
िश्चित	-1360
▁प्रदेश	-1361
▁परीक्षण	-1362
षित	-1363
▁प्रार	-1364
नाव	-1365
▁अनुच्छेद	-1366
▁समु	-1367
▁ताकि	-1368
▁दृष्ट	-1369
र्श	-1370
▁विधान	-1371
▁अप्र	-1372
▁बताया	-1373
जार	-1374
टक	-1375
▁विशिष्ट	-1376
▁बैठ	-1377
धिकार	-1378
▁ऑफ	-1379
रल	-1380
▁a	-1381
▁नियुक्ति	-1382
▁मानव	-1383
▁इससे	-1384
▁खरी	-1385
ेंगे	-1386
▁भाव	-1387
▁व्यापार	-1388
विधा	-1389
▁अर्थात	-1390
ोन	-1391
▁पड़	-1392
ंतु	-1393
ांस	-1394
▁गुण	-1395
▁आत्म	-1396
▁लगाया	-1397
▁प्रमुख	-1398
▁वादी	-1399
▁बनाया	-1400
ापन	-1401
▁प्राधिकरण	-1402
ासंगिक	-1403
्कि	-1404
▁नीचे	-1405
▁खा	-1406
▁रो	-1407
ंज	-1408
▁सीख	-1409
▁दुर्	-1410
िको	-1411
विद	-1412
्ला	-1413
▁जबकि	-1414
्वी	-1415
▁पाया	-1416
ाजिक	-1417
▁विश्वास	-1418
▁कब्	-1419
▁चिकित	-1420
▁वापस	-1421
▁महिला	-1422
▁निर्दिष्ट	-1423
▁टी	-1424
्यास	-1425
▁गलत	-1426
▁गिर	-1427
▁जमा	-1428
▁ऋण	-1429
▁SC	-1430
▁सामाजिक	-1431
▁बल्कि	-1432
बा	-1433
▁नियुक्त	-1434
▁श्रे	-1435
िले	-1436
▁दूसरी	-1437
▁हमने	-1438
▁पालन	-1439
▁समझौते	-1440
▁सू	-1441
शत	-1442
▁विप	-1443
▁निर्धारण	-1444
▁निश्च	-1445
▁व्याख्या	-1446
▁राम	-1447
▁पहचान	-1448
▁अंतर्	-1449
▁संवैधानिक	-1450
▁दिश	-1451
▁सिव	-1452
▁गण	-1453
▁बनाम	-1454
▁विदेश	-1455
मता	-1456
▁संभाव	-1457
▁प्रभावित	-1458
िवार	-1459
▁आर्थ	-1460
▁समूह	-1461
हरी	-1462
▁अर्	-1463
▁धन	-1464
▁त्र	-1465
▁विनियम	-1466
स्प	-1467
▁डॉ	-1468
▁हाथ	-1469
▁इसकी	-1470
▁संसद	-1471
▁लाइ	-1472
▁उपस्थ	-1473
▁सिविल	-1474
▁बिल	-1475
▁समर्थन	-1476
निया	-1477
▁क्षेत्रों	-1478
▁प्रासंगिक	-1479
▁अधिकारों	-1480
▁अनुसूच	-1481
▁मही	-1482
▁आर्थिक	-1483
▁उत्तरदाताओं	-1484
▁ची	-1485
▁खोज	-1486
एम	-1487
▁उम्म	-1488
▁प्रतिनि	-1489
▁पिछ	-1490
स्कार	-1491
▁सुविधा	-1492
▁शब्दों	-1493
ेंच	-1494
▁डि	-1495
▁चुनौती	-1496
▁रे	-1497
मो	-1498
▁सदस्यों	-1499
क्	-1500
द्धि	-1501
▁विवरण	-1502
▁कठ	-1503
ुप	-1504
▁होंगे	-1505
▁नोटिस	-1506
▁प्रतिशत	-1507
▁नागरिक	-1508
▁गां	-1509
तना	-1510
▁योग्य	-1511
▁परिभा	-1512
हाँ	-1513
बद्ध	-1514
▁कमी	-1515
▁उम्मीद	-1516
वरी	-1517
▁अध्या	-1518
▁सहित	-1519
▁सच	-1520
▁पहल	-1521
▁सुधार	-1522
▁उद्योग	-1523
▁शा	-1524
▁वार	-1525
पीसी	-1526
विद्यालय	-1527
िकोण	-1528
▁पुरस्कार	-1529
▁सुनिश्चित	-1530
▁संस्क	-1531
▁प्रशासन	-1532
ियन	-1533
▁बंद	-1534
▁विश्वविद्यालय	-1535
िव्य	-1536
▁जनता	-1537
ूँ	-1538
ास्थ	-1539
▁लिख	-1540
▁लिये	-1541
▁मं	-1542
▁चर्	-1543
▁सरकारी	-1544
भीर	-1545
वक	-1546
▁रोग	-1547
▁दाव	-1548
▁PW	-1549
▁क्षमता	-1550
▁परिय	-1551
फार	-1552
▁काफी	-1553
▁संयुक्त	-1554
▁जिसका	-1555
▁विस्तार	-1556
▁परियोजना	-1557
▁न्यायालयों	-1558
▁जाएगी	-1559
▁जिससे	-1560
▁पंजी	-1561
▁उत्पादन	-1562
्ज	-1563
▁भर	-1564
ोस	-1565
▁प्रणाली	-1566
▁बर	-1567
▁लिम	-1568
▁बड़ी	-1569
▁दृष्टिकोण	-1570
्रेट	-1571
▁पृष्ठ	-1572
▁ii	-1573
ंकन	-1574
ेन	-1575
▁बदल	-1576
▁रखते	-1577
▁वित्तीय	-1578
ीक	-1579
▁दल	-1580
▁कथ	-1581
▁पाठ	-1582
▁शक्त	-1583
▁पुनर्	-1584
▁अधिसूचना	-1585
▁हक	-1586
▁वैध	-1587
▁पां	-1588
▁कार्यक्रम	-1589
विध	-1590
▁निव	-1591
▁लिमिट	-1592
▁संह	-1593
▁ट्रायल	-1594
स्या	-1595
▁साब	-1596
▁मी	-1597
ाहरण	-1598
सत	-1599
▁व्यवस्था	-1600
▁संहिता	-1601
▁थीं	-1602
▁ज्ञान	-1603
▁रुपये	-1604
▁राज्यों	-1605
▁उपाय	-1606
्मिक	-1607
धारा	-1608
देन	-1609
▁लिमिटेड	-1610
▁एफ	-1611
▁उदाहरण	-1612
▁निर्भर	-1613
ैन	-1614
▁नियंत्रण	-1615
▁>	-1616
▁घोषणा	-1617
▁विफल	-1618
▁अने	-1619
▁चौ	-1620
▁चला	-1621
ँच	-1622
▁पहली	-1623
▁पट्ट	-1624
▁भू	-1625
▁गंभीर	-1626
्यांकन	-1627
▁शै	-1628
ोप	-1629
▁प्रस	-1630
▁अभी	-1631
▁अनिवार	-1632
▁ब्या	-1633
▁उठा	-1634
▁ज़	-1635
▁लेन	-1636
▁मेरे	-1637
▁प्रे	-1638
▁"	-1639
▁जवा	-1640
चल	-1641
▁व्यक्तिगत	-1642
ुओं	-1643
▁निष्पाद	-1644
▁संभव	-1645
▁साबित	-1646
▁वास्तविक	-1647
न्द्र	-1648
▁हल	-1649
शील	-1650
▁एक्स	-1651
▁प्रौ	-1652
▁अपे	-1653
▁क्ल	-1654
▁समस्या	-1655
▁भवन	-1656
धारण	-1657
देह	-1658
▁अनुप	-1659
▁पूर्वो	-1660
▁एल	-1661
▁सूट	-1662
ोड	-1663
▁आपको	-1664
▁ठीक	-1665
▁हिंद	-1666
▁इंड	-1667
सल	-1668
ग्रहण	-1669
▁बेंच	-1670
द्द	-1671
तियों	-1672
▁अम	-1673
▁अनेक	-1674
▁उपबंध	-1675
▁निजी	-1676
▁प्रती	-1677
▁आने	-1678
▁शर्तों	-1679
फारिश	-1680
श्य	-1681
▁नए	-1682
▁वहां	-1683
▁तौर	-1684
▁सभा	-1685
▁सिफारिश	-1686
▁आन	-1687
▁जिला	-1688
पुर	-1689
▁M	-1690
▁व्यापक	-1691
बल	-1692
▁चर्चा	-1693
▁मद	-1694
▁परीक्षा	-1695
▁ब्याज	-1696
▁निश्चित	-1697
▁हस्त	-1698
हास	-1699
▁पीठ	-1700
▁जग	-1701
▁बड़े	-1702
▁सीमित	-1703
▁गये	-1704
▁पिता	-1705
▁गर्	-1706
▁परिवार	-1707
▁अनिवार्य	-1708
▁डाल	-1709
▁कर्त	-1710
दम	-1711
▁आधारित	-1712
चारी	-1713
स्वरूप	-1714
▁कृष	-1715
▁निदेश	-1716
थमिक	-1717
▁मूल्यांकन	-1718
▁मालिक	-1719
▁श्र	-1720
▁प्राथमिक	-1721
▁समा	-1722
▁कोश	-1723
िक्ष	-1724
▁उपयुक्त	-1725
▁जम	-1726
▁विर	-1727
▁महीने	-1728
▁प्रो	-1729
▁वर्षों	-1730
ंदर	-1731
कान	-1732
▁दोषी	-1733
▁आध	-1734
एँ	-1735
▁अभिव्य	-1736
▁परिवर्तन	-1737
ैंड	-1738
▁वेतन	-1739
▁हकदार	-1740
▁दिनों	-1741
▁कार्यालय	-1742
▁सफल	-1743
ांक	-1744
▁सुना	-1745
▁करेंगे	-1746
▁शरी	-1747
▁समी	-1748
▁चयन	-1749
▁सीखे	-1750
▁अध्यक्ष	-1751
▁दिशा	-1752
▁चुनाव	-1753
▁स्थापना	-1754
ियो	-1755
▁हिस्सा	-1756
▁चे	-1757
तों	-1758
▁भे	-1759
▁भरो	-1760
▁प्रारंभ	-1761
हराया	-1762
▁प्रौद्योगिक	-1763
लाह	-1764
▁ट्रिब	-1765
▁पूर्वोक्त	-1766
▁अमे	-1767
तिहास	-1768
▁अच्छी	-1769
राज	-1770
▁ट्रिब्यून	-1771
▁प्रतिक	-1772
र्न	-1773
▁श्रेणी	-1774
न्तु	-1775
▁निगम	-1776
▁संस्था	-1777
▁बाव	-1778
▁मंद	-1779
▁लाख	-1780
▁प्रथम	-1781
▁न्यायाधीशों	-1782
▁पीड़	-1783
ंख	-1784
पन	-1785
▁वर्ण	-1786
▁संदर्भित	-1787
▁ट्रिब्यूनल	-1788
▁मुआ	-1789
मेंट	-1790
्काल	-1791
▁पराम	-1792
मन	-1793
ंजी	-1794
▁अस्प	-1795
▁नव	-1796
▁जानी	-1797
▁बाल	-1798
▁इच्छ	-1799
सित	-1800
िथ	-1801
ंडल	-1802
▁मुआव	-1803
डा	-1804
▁स्थित	-1805
▁अत्य	-1806
▁आश	-1807
ोक्ता	-1808
▁मैंने	-1809
पत्र	-1810
▁सेवाओं	-1811
▁संदेह	-1812
▁बावजूद	-1813
▁क्रम	-1814
यर	-1815
▁R	-1816
▁कारणों	-1817
▁मार्ग	-1818
निर्	-1819
ंश	-1820
्से	-1821
▁खन	-1822
▁कौ	-1823
▁अग्र	-1824
चन	-1825
▁बढ़ा	-1826
िस्ट्रेट	-1827
▁लगाने	-1828
▁मंजू	-1829
▁केंद्रीय	-1830
▁सलाह	-1831
▁योग्यता	-1832
भाग	-1833
▁क़	-1834
्वान	-1835
▁खुद	-1836
▁कृषि	-1837
क्टर	-1838
▁भरोसा	-1839
▁‘	-1840
ष्ण	-1841
▁जिन्हें	-1842
▁कहते	-1843
▁रहने	-1844
▁शरीर	-1845
▁कर्मचारी	-1846
▁चिकित्सा	-1847
▁परामर्श	-1848
▁मध्यस्थता	-1849
▁अनुभव	-1850
▁एज	-1851
▁मुद्दे	-1852
फ्त	-1853
इन	-1854
▁मुकदमे	-1855
▁सहमति	-1856
▁आस	-1857
▁मजिस्ट्रेट	-1858
▁तीस	-1859
▁पानी	-1860
▁इस्त	-1861
▁पुस्त	-1862
▁हिन	-1863
▁सहयोग	-1864
▁दक्ष	-1865
िम्म	-1866
▁हेतु	-1867
▁यहाँ	-1868
▁अन्त	-1869
▁स्वास्थ	-1870
▁तुल	-1871
▁जोर	-1872
भार	-1873
▁डा	-1874
▁रंग	-1875
▁तकनी	-1876
दू	-1877
▁प्रतिबंध	-1878
दों	-1879
▁पूछ	-1880
▁व्यवहार	-1881
जित	-1882
▁D	-1883
▁सुनवाई	-1884
▁आपके	-1885
▁पूरे	-1886
▁”	-1887
ष्ट्रीय	-1888
▁शीर्ष	-1889
▁दायित्व	-1890
▁अधिग्रहण	-1891
▁कट	-1892
▁वाह	-1893
▁चोट	-1894
्रिय	-1895
यों	-1896
▁राजनी	-1897
▁उपधारा	-1898
▁हस्तक्षेप	-1899
ेर	-1900
▁देय	-1901
▁मौजूद	-1902
▁निवेश	-1903
पालिका	-1904
▁पीछ	-1905
रीत	-1906
ar	-1907
▁स्वास्थ्य	-1908
▁वृद्धि	-1909
▁कर्मचार	-1910
▁रद्द	-1911
ूक	-1912
▁उससे	-1913
▁विपरीत	-1914
▁जवाब	-1915
er	-1916
▁प्रदर्शन	-1917
▁सम्मान	-1918
ष्य	-1919
▁विदेशी	-1920
ची	-1921
▁मात्रा	-1922
▁पुष्टि	-1923
▁प्रौद्योगिकी	-1924
▁इरा	-1925
▁प्रतिनिध	-1926
▁जन्म	-1927
▁संभावना	-1928
▁परिणामस्वरूप	-1929
▁प्रशिक्ष	-1930
गार	-1931
▁कर्मचारियों	-1932
▁भूमिका	-1933
▁लगता	-1934
टन	-1935
▁कर्	-1936
▁अभिव्यक्ति	-1937
▁मिला	-1938
▁किस	-1939
काल	-1940
▁पैदा	-1941
▁शेय	-1942
▁प्रबंधन	-1943
▁पंच	-1944
▁सर्वो	-1945
▁प्रभावी	-1946
▁स्थानीय	-1947
म्	-1948
▁अर	-1949
▁बीमा	-1950
▁संके	-1951
an	-1952
ैल	-1953
▁विवे	-1954
▁मंदिर	-1955
▁वस	-1956
▁सहायक	-1957
्यादा	-1958
▁छूट	-1959
▁चाहते	-1960
▁लगाए	-1961
▁प्राधिकारी	-1962
बार	-1963
्यूट	-1964
▁बच्चों	-1965
▁रज	-1966
ाँकि	-1967
▁हालाँकि	-1968
▁पांच	-1969
▁SCC	-1970
▁जीव	-1971
▁प्रधान	-1972
स्क	-1973
र्प	-1974
▁लड़	-1975
▁निर्णयों	-1976
▁गयी	-1977
ांति	-1978
▁खुला	-1979
ोह	-1980
ूंकि	-1981
▁विवाह	-1982
▁मंत्रालय	-1983
▁हस्ताक्ष	-1984
ूस	-1985
▁देशों	-1986
▁बाजार	-1987
▁कब्जे	-1988
▁पीड़ित	-1989
ंगत	-1990
▁क्रिया	-1991
▁करोड़	-1992
▁रक्षा	-1993
▁बस	-1994
▁लागत	-1995
▁जिसने	-1996
ानि	-1997
िकल	-1998
▁स्कूल	-1999
▁जरूर	-2000
वर्ती	-2001
▁घोषित	-2002
▁रखना	-2003
▁औद्योगिक	-2004
णिज	-2005
▁विकसित	-2006
▁पें	-2007
ंसा	-2008
▁लिखित	-2009
▁पार्टियों	-2010
▁चूंकि	-2011
ानुसार	-2012
▁समीक्षा	-2013
▁वैधानिक	-2014
▁कैसे	-2015
▁देखते	-2016
▁पार्टी	-2017
▁मुकदमा	-2018
▁महा	-2019
▁निकाल	-2020
▁कवि	-2021
▁वाणिज	-2022
िवी	-2023
00	-2024
खंड	-2025
▁अर्थात्	-2026
▁निर्धारिती	-2027
▁विज्ञान	-2028
▁अंतर्गत	-2029
▁No	-2030
▁आयु	-2031
▁हिस्से	-2032
र्च	-2033
न्ध	-2034
▁कारा	-2035
▁जोड़	-2036
▁अंग्रे	-2037
्रमण	-2038
▁जिम्म	-2039
▁संशोधित	-2040
▁वाणिज्य	-2041
▁अपीलीय	-2042
दंड	-2043
▁शक्तियों	-2044
ीर	-2045
▁कार्यों	-2046
▁खरीद	-2047
▁व्यवसाय	-2048
▁बच्चे	-2049
▁पश्चिम	-2050
▁मंजूरी	-2051
ंटर	-2052
▁हमारा	-2053
▁टिप	-2054
▁टै	-2055
▁नुक	-2056
ेटा	-2057
▁इंग	-2058
ियर	-2059
▁बाध्य	-2060
▁यात्रा	-2061
▁हूँ	-2062
ताल	-2063
▁संबंधी	-2064
ियाँ	-2065
▁कुमार	-2066
▁चाहे	-2067
▁लाइस	-2068
▁गठन	-2069
▁एकल	-2070
▁सुझ	-2071
ृत्ति	-2072
लाई	-2073
▁परिष	-2074
▁शासन	-2075
▁जगह	-2076
▁काल	-2077
▁संरक्षण	-2078
▁भवि	-2079
▁संतु	-2080
▁नौ	-2081
शल	-2082
वासी	-2083
▁टिप्प	-2084
▁संत	-2085
▁अन्यथा	-2086
▁लाइसेंस	-2087
▁सुरक्षित	-2088
१०	-2089
▁संकेत	-2090
▁मजब	-2091
राब	-2092
्रेड	-2093
▁कारावास	-2094
▁मेरी	-2095
ैतिक	-2096
▁भविष्य	-2097
्साह	-2098
▁छोटे	-2099
लन	-2100
▁दिख	-2101
कृतिक	-2102
▁आकर्	-2103
▁सत्र	-2104
▁चरण	-2105
दार्थ	-2106
संद	-2107
▁अभ्यास	-2108
िटी	-2109
▁नियमित	-2110
खी	-2111
▁अस्त	-2112
on	-2113
र्य	-2114
▁यु	-2115
▁पिछले	-2116
▁मद्	-2117
ेमाल	-2118
▁दृष्टि	-2119
▁संसा	-2120
▁विकल्प	-2121
▁रोज	-2122
▁इस्तेमाल	-2123
▁बंग	-2124
▁इका	-2125
▁कप	-2126
▁पदार्थ	-2127
▁नुकसान	-2128
▁स्थानांत	-2129
ूली	-2130
▁श्रम	-2131
▁बज	-2132
्ठ	-2133
▁मदद	-2134
▁v	-2135
▁उपस्थित	-2136
्रेस	-2137
▁अधिव	-2138
▁छा	-2139
त्नी	-2140
▁किर	-2141
▁मुक्त	-2142
▁रजिस्ट	-2143
▁मान्यता	-2144
▁ठहराया	-2145
▁मद्देन	-2146
▁सिद्धांतों	-2147
ुआ	-2148
▁कदम	-2149
▁जाति	-2150
र्जी	-2151
लो	-2152
▁भेज	-2153
▁अध्ययन	-2154
▁उच्चतम	-2155
▁अध्याय	-2156
▁मद्देनजर	-2157
▁E	-2158
▁एंड	-2159
▁अभि	-2160
पालन	-2161
▁B	-2162
▁सप	-2163
▁तत्काल	-2164
ांड	-2165
▁राहत	-2166
▁निम्नानुसार	-2167
▁जमीन	-2168
▁पत्नी	-2169
▁II	-2170
▁संचालन	-2171
▁अनुरोध	-2172
क्ता	-2173
▁आपूर्ति	-2174
▁तुलना	-2175
यात	-2176
लिक	-2177
▁अनुमान	-2178
िशन	-2179
धे	-2180
▁भावना	-2181
at	-2182
▁अह	-2183
▁उपकरण	-2184
▁संरचना	-2185
▁पे	-2186
▁वेब	-2187
▁अंक	-2188
िवीजन	-2189
▁बॉ	-2190
▁दूसरा	-2191
र्ण	-2192
ल्पना	-2193
▁ज्यादा	-2194
▁अनुसूची	-2195
ंधान	-2196
▁अच्छा	-2197
▁त्रुट	-2198
▁याद	-2199
▁भौ	-2200
▁बड़ा	-2201
वीं	-2202
्टर	-2203
▁आयुक्त	-2204
▁विद्य	-2205
▁अवै	-2206
▁याचिकाकर्ताओं	-2207
in	-2208
▁डिवीजन	-2209
▁जिन्होंने	-2210
▁मोट	-2211
▁उनमें	-2212
▁जहाँ	-2213
ाधिकार	-2214
यां	-2215
▁गवाहों	-2216
▁पीछे	-2217
▁दक्षि	-2218
▁रहते	-2219
▁वाय	-2220
▁विद्वान	-2221
▁सत	-2222
▁इतिहास	-2223
▁प्राकृतिक	-2224
▁सम्ब	-2225
▁जाये	-2226
▁स्थायी	-2227
▁अनुमो	-2228
▁कर्तव्य	-2229
▁मार्च	-2230
▁उसमें	-2231
▁जिनके	-2232
▁रहता	-2233
▁नगर	-2234
▁शिकायतकर्ता	-2235
दायी	-2236
▁सम्प	-2237
▁पश्चात	-2238
धीन	-2239
सं	-2240
▁सचिव	-2241
▁प्रशिक्षण	-2242
नाथ	-2243
ंगे	-2244
र्इ	-2245
दर्श	-2246
▁अनुसंधान	-2247
▁आदेशों	-2248
सिक	-2249
▁समझौता	-2250
▁जिनमें	-2251
क्षक	-2252
▁वही	-2253
▁शास	-2254
▁अस्वी	-2255
▁आवंट	-2256
ेंसी	-2257
▁अपेक्षा	-2258
ंद्र	-2259
▁पति	-2260
ेशा	-2261
ांश	-2262
्श	-2263
▁कथित	-2264
▁पसंद	-2265
▁आद	-2266
रासत	-2267
ंटी	-2268
लब	-2269
▁ढंग	-2270
▁अनुचित	-2271
▁आए	-2272
▁परिभाषित	-2273
▁युद्ध	-2274
्टी	-2275
▁पो	-2276
▁उत्तरदाता	-2277
श्म	-2278
▁रचना	-2279
रेट	-2280
▁सेट	-2281
▁मां	-2282
▁किराय	-2283
▁सै	-2284
▁चित्र	-2285
▁तदन	-2286
▁लेकर	-2287
तार	-2288
▁भिन्न	-2289
▁राजनीतिक	-2290
▁गिरफ्त	-2291
▁विल	-2292
ग्न	-2293
▁विधाय	-2294
▁आईपीसी	-2295
र्ग	-2296
▁स्	-2297
भूत	-2298
▁होकर	-2299
▁अपराधों	-2300
▁रि	-2301
▁संय	-2302
▁कॉले	-2303
्दी	-2304
्राम	-2305
▁यही	-2306
▁अभियुक्तों	-2307
पि	-2308
▁आत	-2309
▁यून	-2310
▁अवैध	-2311
▁कोशिश	-2312
▁प्रार्थ	-2313
▁डेटा	-2314
▁साहित	-2315
▁वाद	-2316
▁प्रार्थना	-2317
▁हमेशा	-2318
▁कला	-2319
▁विभा	-2320
▁अप्रैल	-2321
एफ	-2322
खिल	-2323
्तान	-2324
▁बरा	-2325
▁हत्या	-2326
▁फिल	-2327
▁वस्तुओं	-2328
▁प्रग	-2329
▁बजे	-2330
▁संस्थानों	-2331
▁उपचार	-2332
जनक	-2333
राह	-2334
▁पेट	-2335
▁दर्शा	-2336
▁विरोध	-2337
▁तदनुसार	-2338
▁पर्यावरण	-2339
▁अनुपालन	-2340
▁इक	-2341
▁गार	-2342
▁स्पष्टीकरण	-2343
▁संगठन	-2344
▁समझा	-2345
▁प्रवि	-2346
▁निदेशक	-2347
▁इनकार	-2348
▁विस्तृत	-2349
▁बोल	-2350
▁खर्च	-2351
▁वन	-2352
▁T	-2353
धिकरण	-2354
▁कंपन	-2355
▁मौलिक	-2356
▁सां	-2357
▁लौ	-2358
▁ते	-2359
▁प्रतिनिधित्व	-2360
▁साहित्य	-2361
न्व	-2362
▁जमान	-2363
▁अस्तित्व	-2364
▁प्रकट	-2365
क्रम	-2366
▁आरंभ	-2367
▁प्रकाशित	-2368
▁सत्ता	-2369
▁प्रयोज	-2370
▁इत	-2371
▁होनी	-2372
▁इला	-2373
▁सौंप	-2374
▁मास	-2375
▁इंडिया	-2376
▁खो	-2377
▁महान	-2378
्रोत	-2379
एन	-2380
▁लाल	-2381
▁देती	-2382
▁पुरुष	-2383
णियों	-2384
▁किरा	-2385
▁सुझाव	-2386
▁व्याव	-2387
आईआर	-2388
बू	-2389
▁मौत	-2390
▁एच	-2391
टल	-2392
ूरी	-2393
▁बाहरी	-2394
▁मर	-2395
▁मंत्री	-2396
▁बैठक	-2397
ड़क	-2398
▁भले	-2399
ठित	-2400
▁तंत्र	-2401
▁विश्ले	-2402
▁धार्मिक	-2403
भाल	-2404
▁बराबर	-2405
ायद	-2406
भू	-2407
ालित	-2408
▁अस्थ	-2409
कृति	-2410
फ्ट	-2411
▁उत्तरदायी	-2412
▁निकाय	-2413
डर	-2414
▁स्म	-2415
▁हट	-2416
▁सर्वोच्च	-2417
▁उपर्	-2418
▁न्यायाधिकरण	-2419
लोक	-2420
▁जनरल	-2421
▁असम	-2422
▁फर	-2423
रिका	-2424
▁विज्ञ	-2425
▁परिप	-2426
▁विरुद्ध	-2427
▁परंतु	-2428
▁आता	-2429
▁उपर्युक्त	-2430
मात्र	-2431
▁अधिवक्ता	-2432
▁x	-2433
▁काउ	-2434
▁डिक्री	-2435
▁उपभ	-2436
▁पुस्तक	-2437
▁हटा	-2438
स्थाप	-2439
▁तिथ	-2440
▁तकनीकी	-2441
▁मुआवजे	-2442
▁टे	-2443
ान्त	-2444
▁देव	-2445
▁शहर	-2446
▁संदेश	-2447
ड़ों	-2448
▁रखी	-2449
▁लॉ	-2450
पूर्वक	-2451
▁समुदाय	-2452
ाफ	-2453
▁प्रेम	-2454
र्फ	-2455
▁सत्य	-2456
▁देखने	-2457
▁गांधी	-2458
▁प्रगति	-2459
▁भेद	-2460
▁आतंक	-2461
▁कीमत	-2462
▁हस्ताक्षर	-2463
▁आयात	-2464
ज्ञानिक	-2465
▁शेष	-2466
▁दावे	-2467
▁बिज	-2468
▁सेना	-2469
........	-2470
▁फैसला	-2471
▁अमेरिका	-2472
▁दस्तावेज	-2473
▁बेहत	-2474
▁इस्ल	-2475
▁पेंशन	-2476
ृत्त	-2477
▁डे	-2478
▁सीआर	-2479
▁जमानत	-2480
▁गतिविध	-2481
▁नक	-2482
ंता	-2483
▁करा	-2484
▁पूंजी	-2485
▁लंबित	-2486
▁सोच	-2487
▁आग्रह	-2488
▁प्रत्यक्ष	-2489
▁चाल	-2490
▁पहलू	-2491
▁विनिर्	-2492
रीक्षण	-2493
▁चलता	-2494
▁यानी	-2495
▁हस्तांत	-2496
▁जरूरत	-2497
▁कांग	-2498
चरण	-2499
▁निर्वा	-2500
▁देन	-2501
▁महारा	-2502
▁सित	-2503
▁यद्य	-2504
▁प्रतीत	-2505
▁उद्य	-2506
ंतर	-2507
▁पात्र	-2508
▁अश	-2509
▁सात	-2510
▁सहमत	-2511
▁राजस्व	-2512
▁चाहता	-2513
▁यद्यपि	-2514
▁ब्रिट	-2515
११	-2516
ाक	-2517
▁मश	-2518
साइट	-2519
▁कोर्इ	-2520
▁ऊर्	-2521
▁प्रदर्श	-2522
▁रेल	-2523
▁लगे	-2524
▁दिव	-2525
▁अनुरूप	-2526
▁प्ल	-2527
▁पंजा	-2528
▁जुर्म	-2529
▁भर्ती	-2530
सन	-2531
मक	-2532
▁सश	-2533
▁खेल	-2534
▁दुनिया	-2535
▁L	-2536
ात्म	-2537
▁क़ान	-2538
▁परन्तु	-2539
▁दिखाई	-2540
en	-2541
▁गुर	-2542
▁तिथि	-2543
▁पक	-2544
▁शून	-2545
▁बिंद	-2546
▁दें	-2547
▁शायद	-2548
्फ	-2549
▁त्रुटि	-2550
▁संपर्क	-2551
▁तत्व	-2552
▁पुनः	-2553
▁निकल	-2554
▁तुम्ह	-2555
▁जून	-2556
▁राज्यपाल	-2557
▁भाई	-2558
कारों	-2559
▁उल्लिखित	-2560
▁वाहन	-2561
▁जनवरी	-2562
▁क़ानून	-2563
▁बढ़ाने	-2564
▁परिसर	-2565
▁छह	-2566
िड	-2567
▁निर्यात	-2568
सम	-2569
धानी	-2570
▁नही	-2571
▁हथ	-2572
▁सक्रिय	-2573
▁मिले	-2574
▁लिखा	-2575
▁सूचित	-2576
▁प्रोत	-2577
▁छात्र	-2578
▁अस्पताल	-2579
▁आकर्षित	-2580
▁दक्षिण	-2581
ेदारी	-2582
▁शून्य	-2583
मंत्र	-2584
▁करनी	-2585
▁मतलब	-2586
▁उठाया	-2587
▁विधेय	-2588
▁सबूतों	-2589
▁विश्लेषण	-2590
स्ल	-2591
▁क्षति	-2592
al	-2593
ुनिक	-2594
जूदा	-2595
▁संतुष्ट	-2596
क्ष्म	-2597
▁कोड	-2598
▁शेयर	-2599
▁मौजूदा	-2600
▁गणना	-2601
्ष्	-2602
▁लक्ष्य	-2603
▁यथ	-2604
▁मुद्दों	-2605
▁दलील	-2606
बाद	-2607
▁इच्छा	-2608
▁वसूली	-2609
राव	-2610
▁अगस्त	-2611
ेदन	-2612
▁G	-2613
▁खे	-2614
▁स्रोत	-2615
▁विचारों	-2616
▁पाठ्यक्रम	-2617
▁विंड	-2618
▁शीर्षक	-2619
▁मानते	-2620
▁पौ	-2621
▁निष्पादन	-2622
▁आकार	-2623
▁लि	-2624
▁खनन	-2625
म्प	-2626
▁चुका	-2627
▁मॉ	-2628
लेख	-2629
▁उम	-2630
▁इतना	-2631
▁विवेक	-2632
▁उठाए	-2633
▁बेहतर	-2634
▁दायरे	-2635
वानिव	-2636
▁हिन्द	-2637
▁लाया	-2638
ामीण	-2639
ण्श	-2640
▁खाते	-2641
ण्श्छ	-2642
▁भौतिक	-2643
▁ऊण्श्छ	-2644
▁ऊण्श्छ्ष्	-2645
▁कहीं	-2646
▁दस्तावेजों	-2647
▁सेवानिव	-2648
▁विधायी	-2649
िस्तान	-2650
▁दिस	-2651
▁ग्रामीण	-2652
मिल	-2653
▁नया	-2654
▁पंजीकृत	-2655
es	-2656
दाता	-2657
▁परिभाषा	-2658
▁निपटान	-2659
▁प्रतिष्ठ	-2660
▁तुर	-2661
▁V	-2662
▁समाधान	-2663
▁साधारण	-2664
▁एकमात्र	-2665
▁देरी	-2666
▁इं	-2667
▁कंपनियों	-2668
▁दस	-2669
▁भग	-2670
▁कृत	-2671
▁राजा	-2672
▁कल्या	-2673
▁o	-2674
▁भेजा	-2675
ात्मक	-2676
▁साझ	-2677
▁किंतु	-2678
▁बंध	-2679
लाव	-2680
▁आचरण	-2681
▁पड़ता	-2682
▁पंजीकरण	-2683
▁धो	-2684
▁पहला	-2685
▁लेना	-2686
▁सराह	-2687
▁साव	-2688
▁विधायिका	-2689
▁विशेषज्ञ	-2690
जरा	-2691
▁सामना	-2692
▁गांव	-2693
▁बिजली	-2694
▁जिसकी	-2695
▁छोड़कर	-2696
▁c	-2697
▁रोजगार	-2698
मूर्ति	-2699
▁पक्षों	-2700
▁आधुनिक	-2701
▁नं	-2702
ज्ञा	-2703
▁किये	-2704
ोम	-2705
▁साक्ष	-2706
▁न्यून	-2707
▁d	-2708
▁अवधार	-2709
▁कॉलेज	-2710
▁धी	-2711
▁अनुदान	-2712
ंथ	-2713
िद्ध	-2714
▁कहना	-2715
लग्न	-2716
मंत्री	-2717
▁कांग्रेस	-2718
▁बने	-2719
▁..	-2720
▁निकाला	-2721
▁उद्यम	-2722
▁प्रोत्साह	-2723
डियो	-2724
▁इंज	-2725
▁सत्या	-2726
▁परिषद	-2727
▁कटौती	-2728
ोषण	-2729
▁जाय	-2730
▁हार	-2731
सभा	-2732
▁शुद्ध	-2733
▁अनुश	-2734
▁उपस्थिति	-2735
क्र	-2736
▁योगदान	-2737
▁मुसल	-2738
▁मनुष	-2739
▁मिली	-2740
▁रक्त	-2741
▁मशीन	-2742
▁कार्यकारी	-2743
▁पृथ	-2744
▁महिलाओं	-2745
▁भ्र	-2746
▁नेट	-2747
▁ऊर्जा	-2748
▁वाणिज्यिक	-2749
▁वेबसाइट	-2750
▁निरंतर	-2751
ुति	-2752
▁हाई	-2753
म्बे	-2754
ारात्मक	-2755
पित	-2756
▁खाद	-2757
किंग	-2758
▁कल्याण	-2759
संगत	-2760
▁वैधता	-2761
▁अनुसूचित	-2762
ायक	-2763
▁फाइल	-2764
▁विधेयक	-2765
▁पढ़ने	-2766
▁लेखा	-2767
▁संचार	-2768
▁मई	-2769
ूर्ण	-2770
▁खत	-2771
▁विद्या	-2772
▁वितरण	-2773
द्रा	-2774
▁नदी	-2775
हीन	-2776
▁बंगाल	-2777
▁पर्य	-2778
▁प्रयोजनों	-2779
▁बचाव	-2780
▁नियंत्रित	-2781
▁न्यूनतम	-2782
▁करेगी	-2783
▁निर्देशित	-2784
▁ती	-2785
ेषण	-2786
▁फॉ	-2787
▁प्रसार	-2788
▁आते	-2789
▁तरफ	-2790
क़	-2791
▁रखे	-2792
नीयता	-2793
▁अफ	-2794
▁वैज्ञानिक	-2795
▁न्यायपालिका	-2796
▁t	-2797
▁सीधे	-2798
त्तियों	-2799
▁मुसलमान	-2800
▁परिच	-2801
चीन	-2802
कम	-2803
वाय	-2804
▁निपटा	-2805
▁संकल्प	-2806
धनों	-2807
▁पड़ा	-2808
▁शांति	-2809
▁हिरासत	-2810
▁केन्द्र	-2811
▁मिट	-2812
▁एड	-2813
३०	-2814
▁प्रशासनिक	-2815
▁माता	-2816
दारों	-2817
▁मुखर्जी	-2818
िप्त	-2819
▁एक्ट	-2820
▁तेल	-2821
▁पढ़ा	-2822
▁अनुक	-2823
वत्ता	-2824
▁समाप्ति	-2825
पीठ	-2826
वारों	-2827
▁पंजाब	-2828
ृह	-2829
▁पत	-2830
▁इंटर	-2831
▁दश	-2832
▁विरो	-2833
▁प्रस्तावित	-2834
कता	-2835
▁अस्वीकार	-2836
▁मानसिक	-2837
घु	-2838
▁सन्	-2839
▁परे	-2840
▁निष्पादित	-2841
र्व	-2842
्षिक	-2843
▁मेड	-2844
▁प्रारंभिक	-2845
▁स्थानांतरित	-2846
दय	-2847
▁सांस	-2848
▁अधिकांश	-2849
▁गुणवत्ता	-2850
▁री	-2851
▁खुल	-2852
▁जाँच	-2853
▁सराहना	-2854
ंबई	-2855
▁ग्राह	-2856
टों	-2857
्यूटर	-2858
▁न्यायमूर्ति	-2859
▁दाखिल	-2860
▁अंग्रेजी	-2861
▁साह	-2862
व्यव	-2863
▁पट्टे	-2864
सूस	-2865
▁रखता	-2866
▁अदालतों	-2867
ष्ट्र	-2868
नेट	-2869
श्वर	-2870
▁भारी	-2871
▁संपूर्ण	-2872
▁संक्षेप	-2873
▁विज्ञापन	-2874
भूम	-2875
▁जुलाई	-2876
▁मिलता	-2877
ोलन	-2878
▁गतिविधियों	-2879
फा	-2880
ंचित	-2881
नाटक	-2882
▁निर्मित	-2883
▁पद्ध	-2884
▁बजाय	-2885
▁मित्र	-2886
डे	-2887
▁टाइ	-2888
फना	-2889
▁आवेदक	-2890
▁वहाँ	-2891
▁पोस्ट	-2892
▁व्यय	-2893
▁निर्व	-2894
▁मेरा	-2895
ैक	-2896
िष	-2897
▁तभी	-2898
▁लाने	-2899
▁कर्नाटक	-2900
▁कम्प	-2901
▁अपीलों	-2902
▁00	-2903
▁जब्त	-2904
▁हथिया	-2905
▁अभाव	-2906
▁थो	-2907
▁सदन	-2908
ूबर	-2909
▁ट्रस्ट	-2910
▁महसूस	-2911
स्थित	-2912
▁संघर्ष	-2913
▁उनसे	-2914
▁देगा	-2915
▁निधि	-2916
्राइ	-2917
▁अवधारणा	-2918
▁W	-2919
▁आरोपों	-2920
▁संब	-2921
▁वार्षिक	-2922
▁बरी	-2923
िज़	-2924
▁आनंद	-2925
भूमि	-2926
▁इनमें	-2927
▁जैसी	-2928
▁बिंदु	-2929
▁निर्देशों	-2930
▁कवर	-2931
▁माननीय	-2932
▁इस्लाम	-2933
▁संस्करण	-2934
▁नैतिक	-2935
▁हास	-2936
▁iii	-2937
ंगल	-2938
▁उपभोक्ता	-2939
▁फल	-2940
▁देखें	-2941
▁p	-2942
▁रोकने	-2943
▁इकाई	-2944
▁प्राय	-2945
▁विनियमन	-2946
▁एकत्र	-2947
ूठ	-2948
▁बहु	-2949
गल	-2950
यत	-2951
्ध	-2952
▁सफलता	-2953
बे	-2954
▁अवि	-2955
▁पाते	-2956
▁अल्प	-2957
▁वर्गी	-2958
▁जिम्मेदार	-2959
ॉक	-2960
ेलन	-2961
▁इसने	-2962
▁पदों	-2963
▁पश्चात्	-2964
▁गुजरा	-2965
▁चाहिये	-2966
▁तुरंत	-2967
▁बुद्ध	-2968
राष्ट्रीय	-2969
वर्क	-2970
▁उन्न	-2971
▁हलफना	-2972
राज्य	-2973
वेक्षण	-2974
्यान्व	-2975
▁निपटने	-2976
▁शाखा	-2977
▁स्टेशन	-2978
▁माप	-2979
▁देखभाल	-2980
ुन	-2981
▁इंगित	-2982
क्क	-2983
▁युग	-2984
▁कार्यान्व	-2985
रीय	-2986
▁मजबूत	-2987
▁आग	-2988
ग्राफ	-2989
▁F	-2990
▁शुरुआ	-2991
▁पूर्वव	-2992
▁युवा	-2993
्ताह	-2994
उस	-2995
िनी	-2996
▁ढां	-2997
▁निवास	-2998
साद	-2999
▁दृश्य	-3000
▁बुनिया	-3001
▁फरवरी	-3002
टे	-3003
▁ब्ल	-3004
▁दिसंबर	-3005
▁जुड़े	-3006
▁छोटी	-3007
▁परिवहन	-3008
▁पीसी	-3009
▁पाए	-3010
▁स्वाम	-3011
▁लेते	-3012
▁बां	-3013
मंडल	-3014
▁मात्र	-3015
▁उद्देश्यों	-3016
▁सिर्फ	-3017
▁परिवर्त	-3018
it	-3019
▁सॉ	-3020
ोन्न	-3021
▁गोप	-3022
▁सितंबर	-3023
ारण	-3024
▁रिक्त	-3025
▁सम्मिल	-3026
or	-3027
घटना	-3028
▁केस	-3029
डु	-3030
▁अच्छे	-3031
IR	-3032
▁उपन	-3033
्कृत	-3034
भूति	-3035
▁गारंटी	-3036
▁हद	-3037
▁रात	-3038
▁आंद	-3039
ह्न	-3040
▁जित	-3041
▁उम्मीदवार	-3042
वादियों	-3043
▁अगले	-3044
▁पदोन्न	-3045
▁जरूरी	-3046
ंगा	-3047
इयों	-3048
ीम	-3049
▁शारी	-3050
र्ते	-3051
द्व	-3052
▁सड़क	-3053
▁छु	-3054
▁आकलन	-3055
▁भंड	-3056
▁मोह	-3057
▁O	-3058
▁केरल	-3059
▁मल	-3060
▁उम्र	-3061
▁कठोर	-3062
▁हिंदू	-3063
▁दुर	-3064
▁सकें	-3065
▁खान	-3066
▁चीज	-3067
▁मनुष्य	-3068
याँ	-3069
▁नर	-3070
▁अनुपात	-3071
िग	-3072
्राष्ट्रीय	-3073
वाला	-3074
▁प्रयोजन	-3075
पे	-3076
▁लघु	-3077
▁प्रतिकूल	-3078
▁अंतरिम	-3079
▁वंचित	-3080
्रीम	-3081
▁लगी	-3082
ाये	-3083
ियोग	-3084
▁विविध	-3085
▁शारीरिक	-3086
▁भेदभाव	-3087
▁चुके	-3088
▁केन्द	-3089
१२	-3090
▁बश	-3091
▁यूरो	-3092
स्थापित	-3093
▁दुर्घटना	-3094
▁पाने	-3095
ागत	-3096
▁अके	-3097
▁क्षेत्राधिकार	-3098
▁तमिल	-3099
▁मानक	-3100
▁इरादा	-3101
ॉन	-3102
▁अत्यधिक	-3103
लू	-3104
्शन	-3105
▁ग्राम	-3106
▁यौ	-3107
▁वो	-3108
▁प्राप्ति	-3109
▁आरोपियों	-3110
▁जज	-3111
▁चरित	-3112
▁निष्पक्ष	-3113
इड	-3114
▁प्राथमिकता	-3115
▁पूछता	-3116
▁अधिकतम	-3117
▁रेड	-3118
▁निकट	-3119
▁वाक	-3120
त्री	-3121
▁खोल	-3122
▁चेक	-3123
▁बनाई	-3124
▁फ्र	-3125
▁अवस्था	-3126
▁सृ	-3127
▁चलाने	-3128
▁अनुमोदन	-3129
▁मेडिकल	-3130
▁मुद्रा	-3131
▁सिर	-3132
जय	-3133
▁पड़े	-3134
▁ग्रह	-3135
ियल	-3136
▁नील	-3137
▁H	-3138
कीय	-3139
▁चिंत	-3140
▁भोजन	-3141
▁बॉम्बे	-3142
▁मना	-3143
▁स्वीकृति	-3144
▁बशर्ते	-3145
्वर	-3146
▁बुनियादी	-3147
▁नेटवर्क	-3148
ितीय	-3149
▁ब्रिटिश	-3150
िन्	-3151
▁बर्	-3152
▁स्वा	-3153
▁तु	-3154
्रिक	-3155
▁आंत	-3156
▁नान	-3157
▁निषे	-3158
▁संग्रह	-3159
▁घट	-3160
▁ध्व	-3161
▁मिश	-3162
▁दब	-3163
▁शासित	-3164
ीदारी	-3165
▁प्रभ	-3166
▁गा	-3167
▁लगातार	-3168
ॉज	-3169
▁खुलासा	-3170
▁बेच	-3171
पा	-3172
▁जुर्माना	-3173
▁पैराग्राफ	-3174
माने	-3175
दृ	-3176
▁बोली	-3177
▁गी	-3178
▁आत्मा	-3179
▁आपत्ति	-3180
▁नजर	-3181
▁इंजीन	-3182
▁सम्बन्ध	-3183
शिया	-3184
▁आंक	-3185
▁कल्पना	-3186
▁प्रतिक्रिया	-3187
ंजन	-3188
▁रकम	-3189
▁पूछताछ	-3190
▁अंश	-3191
▁धीरे	-3192
▁रहती	-3193
▁समानता	-3194
लांग	-3195
▁गरी	-3196
▁माह	-3197
▁फार	-3198
म्भ	-3199
बाजी	-3200
▁निरीक्षण	-3201
▁पाल	-3202
ास्त्र	-3203
▁क्षेत्रीय	-3204
▁प्रविष्टि	-3205
ृत्व	-3206
▁संज्ञान	-3207
▁अंदर	-3208
▁रिश	-3209
▁बहुम	-3210
बाल	-3211
▁पद्धति	-3212
▁मुद्दा	-3213
▁सुल	-3214
स्लिम	-3215
▁दौ	-3216
ंसिल	-3217
▁प्रदर्शित	-3218
▁वर्णन	-3219
▁f	-3220
▁वें	-3221
▁हटाने	-3222
▁कब्जा	-3223
▁उद्ध	-3224
▁सप्ताह	-3225
▁मुस्लिम	-3226
▁कार्यक	-3227
▁बनाना	-3228
▁संलग्न	-3229
▁स्थग	-3230
चारिक	-3231
▁नम	-3232
▁उम्मीदवारों	-3233
▁शु	-3234
्यात्मक	-3235
▁सम्मिलित	-3236
▁१	-3237
ंव	-3238
टिल	-3239
▁त्व	-3240
▁मोटर	-3241
▁स्वामित्व	-3242
ांकन	-3243
ड्ड	-3244
▁किरायेदार	-3245
▁कोल	-3246
▁सकेगा	-3247
▁नागरिकों	-3248
▁बढ	-3249
▁प्रेरित	-3250
▁हस्तांतरण	-3251
▁संप्र	-3252
▁धारणा	-3253
त्कार	-3254
▁मानदंड	-3255
डिया	-3256
िद	-3257
▁ईश्वर	-3258
▁वालों	-3259
▁अवकाश	-3260
▁चिंता	-3261
▁अक	-3262
▁कौन	-3263
▁उपक्रम	-3264
▁कंप्यूटर	-3265
दीय	-3266
ड़ाई	-3267
▁खाता	-3268
▁वर्णित	-3269
स्थिति	-3270
▁आशा	-3271
▁ऊंच	-3272
श्क	-3273
हरे	-3274
▁आंदोलन	-3275
ट्टी	-3276
▁पश	-3277
▁पाक	-3278
कर्ताओं	-3279
▁विकलांग	-3280
▁महाराष्ट्र	-3281
दत्त	-3282
तया	-3283
स्य	-3284
मिशन	-3285
▁आजी	-3286
▁खास	-3287
चि	-3288
▁न्यू	-3289
▁एफआईआर	-3290
▁चरित्र	-3291
▁कठिना	-3292
▁आमत	-3293
▁निर्वहन	-3294
▁निष्कर्षों	-3295
▁सहकारी	-3296
▁तला	-3297
▁कानूनों	-3298
▁समार	-3299
▁बढ़ावा	-3300
▁आवश्यकताओं	-3301
वेयर	-3302
▁तीसरे	-3303
▁प्रथा	-3304
▁घंट	-3305
▁नवंबर	-3306
▁वायु	-3307
▁अपराधी	-3308
मारी	-3309
ेक्ट	-3310
▁रहना	-3311
▁आमतौर	-3312
▁केन्द्रीय	-3313
▁सभ	-3314
▁AIR	-3315
स्फ	-3316
घ्र	-3317
▁खनिज	-3318
▁सुब	-3319
▁वर्गों	-3320
डल	-3321
ंगी	-3322
ुपयोग	-3323
सायिक	-3324
▁विधानमंडल	-3325
▁अत्यंत	-3326
▁दशा	-3327
लेक्ट	-3328
▁संगी	-3329
्याय	-3330
▁गुजरात	-3331
▁शादी	-3332
▁पहलुओं	-3333
▁संसाधन	-3334
▁हासिल	-3335
▁साधन	-3336
▁अनुप्र	-3337
मती	-3338
▁बातों	-3339
▁किसान	-3340
▁आधिकार	-3341
करार	-3342
िकेट	-3343
▁जेल	-3344
▁तरीका	-3345
▁समारोह	-3346
घा	-3347
ic	-3348
▁सरल	-3349
▁आदमी	-3350
▁बदलाव	-3351
▁हितों	-3352
▁शुरुआत	-3353
ंका	-3354
▁समग्र	-3355
▁बुला	-3356
▁विशाल	-3357
▁विच	-3358
▁आधिकारिक	-3359
▁मस	-3360
▁कठिन	-3361
म्बर	-3362
▁खाद्य	-3363
▁महत्त	-3364
▁अपेक्षित	-3365
▁अहम	-3366
▁किराए	-3367
▁अंतरराष्ट्रीय	-3368
▁डिस	-3369
is	-3370
ंत्रिक	-3371
▁विद्युत	-3372
▁संचालित	-3373
▁सका	-3374
▁साज	-3375
विधि	-3376
▁गि	-3377
▁हृ	-3378
नात्मक	-3379
▁उठाने	-3380
▁कॉल	-3381
▁स्थानों	-3382
▁इतनी	-3383
▁कहानी	-3384
▁बरकरार	-3385
▁चिह्न	-3386
बीआई	-3387
क्शन	-3388
▁सच्च	-3389
▁देकर	-3390
▁धोखा	-3391
▁संस्कृति	-3392
▁आदर्श	-3393
▁कविता	-3394
▁अंड	-3395
▁ताल	-3396
▁असा	-3397
▁दंडनीय	-3398
▁प्राचीन	-3399
▁अंतर्राष्ट्रीय	-3400
▁जानते	-3401
▁आती	-3402
▁दुरुपयोग	-3403
▁सारे	-3404
फे	-3405
नल	-3406
▁घरे	-3407
▁नेत	-3408
▁अट	-3409
▁संतुल	-3410
▁टिप्पणियों	-3411
▁प्रचार	-3412
▁याचिकाओं	-3413
▁चार्ज	-3414
▁अना	-3415
▁गृह	-3416
▁किन्तु	-3417
रक	-3418
▁पेज	-3419
▁रू	-3420
▁नेता	-3421
▁रोगी	-3422
▁b	-3423
▁चै	-3424
▁खंडपीठ	-3425
क्षणिक	-3426
ंकर	-3427
चलित	-3428
▁उधार	-3429
▁भगवान	-3430
▁विभाजन	-3431
▁सम्मेलन	-3432
▁तेजी	-3433
▁बैंकों	-3434
▁गठित	-3435
▁ख़	-3436
▁स्थल	-3437
▁लो	-3438
चर	-3439
द्रास	-3440
▁मकान	-3441
▁मंच	-3442
▁सुश	-3443
▁नेतृत्व	-3444
तक	-3445
व्यों	-3446
▁व्यावसायिक	-3447
ारक	-3448
▁मिलने	-3449
▁घरेलू	-3450
ंशिक	-3451
ed	-3452
▁कोय	-3453
▁जय	-3454
▁सिक	-3455
त्तर	-3456
▁अग्रिम	-3457
▁दवा	-3458
▁फिल्म	-3459
वें	-3460
▁पल	-3461
▁बौ	-3462
▁बनी	-3463
▁सरकारों	-3464
म्मद	-3465
▁फ्ल	-3466
▁मनोर	-3467
▁प्रणब	-3468
▁आशय	-3469
▁फर्म	-3470
▁भाषण	-3471
प्प	-3472
ृंख	-3473
▁बनाता	-3474
▁समाचार	-3475
▁स्वीकार्य	-3476
▁सावधानी	-3477
ोग्राम	-3478
्कुल	-3479
▁पेशे	-3480
▁असमर्थ	-3481
▁पृष्ठभूमि	-3482
▁अनुकूल	-3483
▁परम	-3484
▁हिन्दी	-3485
ुता	-3486
काया	-3487
▁प्रभार	-3488
▁शैक्षणिक	-3489
ित्त	-3490
ेष्ठ	-3491
▁चूक	-3492
▁रेलवे	-3493
व्यवस्था	-3494
ुण	-3495
▁दै	-3496
त्न	-3497
साइ	-3498
ोधित	-3499
पचारिक	-3500
▁विशेषता	-3501
▁भागीदारी	-3502
गढ़	-3503
सि	-3504
स्ती	-3505
▁कहने	-3506
▁घटनाओं	-3507
▁दिखाया	-3508
ंदा	-3509
▁विलेख	-3510
▁अमेरिक	-3511
▁संस्कृत	-3512
▁टा	-3513
▁बेट	-3514
दित	-3515
▁कलक	-3516
▁शता	-3517
▁आवंटन	-3518
▁अधिकृत	-3519
▁आवा	-3520
▁असफल	-3521
▁आंतरिक	-3522
▁पदोन्नति	-3523
▁बाधा	-3524
▁छात्रों	-3525
शाली	-3526
ोरेट	-3527
▁गिरफ्तार	-3528
▁लै	-3529
▁अवलोक	-3530
▁लोकतंत्र	-3531
▁आपकी	-3532
▁टेली	-3533
▁नष्ट	-3534
▁मुंबई	-3535
▁सिस्ट	-3536
▁संगीत	-3537
▁बिल्कुल	-3538
▁दर्शन	-3539
▁कथन	-3540
▁इलेक्ट	-3541
▁उत्क	-3542
श्किल	-3543
काशन	-3544
▁अपवाद	-3545
▁स्वामी	-3546
▁हरिया	-3547
▁विचारा	-3548
▁विद्यार्थ	-3549
▁पकड़	-3550
न्ट	-3551
▁बिहार	-3552
▁बचा	-3553
▁तट	-3554
पथ	-3555
▁आरक्षण	-3556
▁दिवस	-3557
▁मजदू	-3558
▁प्रतिनिधि	-3559
▁सर्वेक्षण	-3560
▁डाला	-3561
▁तमिलना	-3562
▁प्रस्तुति	-3563
उट	-3564
क्षिप्त	-3565
ॉल्ट	-3566
▁कृष्ण	-3567
▁राजस्थान	-3568
▁छोटा	-3569
मल	-3570
▁फ़ाइल	-3571
▁पुत्र	-3572
▁एजेंसी	-3573
▁सम्	-3574
▁कार्ड	-3575
▁बध	-3576
▁प्रकाशन	-3577
ोजक	-3578
ृंखला	-3579
ेंद्र	-3580
▁कमीशन	-3581
▁तात	-3582
▁शीघ्र	-3583
र्या	-3584
▁मुश्किल	-3585
▁जनजा	-3586
▁शे	-3587
▁जाएंगे	-3588
सीआई	-3589
▁अर्थव्यवस्था	-3590
▁झूठ	-3591
▁निर्भरता	-3592
▁विचाराधीन	-3593
▁शि	-3594
▁मीटर	-3595
▁लेनदेन	-3596
▁आवास	-3597
▁मनो	-3598
ra	-3599
▁किन	-3600
▁खाली	-3601
▁बराम	-3602
ानों	-3603
▁जोख	-3604
▁लंबे	-3605
▁रव	-3606
ंपरा	-3607
▁शिव	-3608
▁निर्मा	-3609
▁करी	-3610
▁कित	-3611
स्त्र	-3612
▁निवार	-3613
िफ	-3614
केट	-3615
रम	-3616
बाइल	-3617
▁नामित	-3618
▁साजिश	-3619
▁सेवाएं	-3620
▁स्वरूप	-3621
PC	-3622
ion	-3623
▁औसत	-3624
▁खुलती	-3625
ृष्ट	-3626
▁उपबंधों	-3627
▁आंशिक	-3628
▁अतः	-3629
▁जहा	-3630
▁देवी	-3631
▁अपनाया	-3632
▁अक्ट	-3633
▁तमिलनाडु	-3634
▁किश	-3635
▁सबमिशन	-3636
▁आरक्षित	-3637
▁निर्वाचन	-3638
्रेता	-3639
▁समाव	-3640
▁हाउस	-3641
▁समन्व	-3642
्यो	-3643
▁लेता	-3644
▁गुना	-3645
▁दिखाने	-3646
▁जोखिम	-3647
▁सुनाई	-3648
१३	-3649
▁संसदीय	-3650
▁अक्टूबर	-3651
▁दुकान	-3652
ापि	-3653
्याग	-3654
▁विंडों	-3655
▁परिस्थिति	-3656
▁रिया	-3657
पूर्ति	-3658
▁स्टेट	-3659
कोर्ट	-3660
स्फोट	-3661
▁महत्त्व	-3662
▁आस्त	-3663
इस	-3664
▁पुराने	-3665
▁शाह	-3666
▁परंपरा	-3667
▁उत्तराधिक	-3668
क्सर	-3669
▁कॉर्प	-3670
▁काउंसिल	-3671
▁अधिकरण	-3672
▁सुप्रीम	-3673
▁मध	-3674
▁विश्वस	-3675
▁संक्षिप्त	-3676
▁कृप	-3677
▁अभिप	-3678
▁हैः	-3679
ाचार	-3680
▁परेश	-3681
िकरण	-3682
▁जीवित	-3683
िष्क	-3684
▁ईसा	-3685
▁फाय	-3686
▁संस्थाओं	-3687
▁हानि	-3688
▁अयोग	-3689
▁नवी	-3690
▁अय	-3691
▁स्थिर	-3692
▁कराने	-3693
▁हरियाणा	-3694
▁प्रयासों	-3695
स्मिक	-3696
▁परिक	-3697
▁प्रसन्न	-3698
▁बधाई	-3699
ोसिए	-3700
▁आह	-3701
▁n	-3702
▁संभावित	-3703
ाट	-3704
चीत	-3705
▁इन्ह	-3706
▁प्रदू	-3707
▁अंततः	-3708
▁अवलोकन	-3709
भाई	-3710
▁सिस्टम	-3711
दारी	-3712
▁विवादों	-3713
▁आकस्मिक	-3714
▁अनुप्रयोग	-3715
ूद	-3716
▁लौट	-3717
▁ठे	-3718
▁पाकिस्तान	-3719
नाम	-3720
▁e	-3721
लाइन	-3722
▁कलकत्ता	-3723
▁हाईकोर्ट	-3724
शाला	-3725
▁मद्रास	-3726
▁अकेले	-3727
▁बातचीत	-3728
एच	-3729
▁जटिल	-3730
ुस	-3731
र्मा	-3732
▁कर्तव्यों	-3733
▁विस्फोट	-3734
▁अनुपस्थिति	-3735
शः	-3736
▁आठ	-3737
्रीन	-3738
▁पर्व	-3739
▁आयकर	-3740
ार्ड	-3741
▁पंचायत	-3742
▁कार्यान्वयन	-3743
re	-3744
II	-3745
▁गैस	-3746
▁नियोक्ता	-3747
धर	-3748
▁चले	-3749
▁माँ	-3750
िकाओं	-3751
▁गतिविधि	-3752
▁कब	-3753
▁बनने	-3754
▁छुट्टी	-3755
▁गिरफ्तारी	-3756
▁सेल	-3757
ियान	-3758
ोरी	-3759
त्व	-3760
भाष	-3761
▁उपयोगी	-3762
ज्य	-3763
▁इरादे	-3764
▁समस्याओं	-3765
धित	-3766
▁हाथों	-3767
ॉर्	-3768
▁समृ	-3769
▁निरस्त	-3770
▁पहुंचा	-3771
पात	-3772
▁बहुमत	-3773
▁भ्रष्ट	-3774
▁मुआवजा	-3775
▁प्रमाणपत्र	-3776
▁इलेक्ट्र	-3777
्वेषण	-3778
▁यौन	-3779
▁लाप	-3780
▁जिले	-3781
▁लेखक	-3782
▁अक्सर	-3783
▁पूर्वा	-3784
▁तथापि	-3785
▁ट्रांस	-3786
▁वाता	-3787
लंब	-3788
▁बरामद	-3789
▁काट	-3790
▁जिनका	-3791
िकता	-3792
▁निश	-3793
▁दृढ़	-3794
▁नये	-3795
▁प्राइ	-3796
▁दूसरों	-3797
▁संबोधित	-3798
▁सुविधाओं	-3799
वित्र	-3800
खों	-3801
▁सुंदर	-3802
व्र	-3803
ॉट	-3804
▁संबद्ध	-3805
▁गोपनीयता	-3806
▁संसाधनों	-3807
▁विनिर्दिष्ट	-3808
▁हजार	-3809
ब्दी	-3810
▁मिलती	-3811
▁अस्थायी	-3812
▁टन	-3813
▁सफ	-3814
▁नाते	-3815
▁पश्चिमी	-3816
ॉय	-3817
ख्त	-3818
▁कमज	-3819
▁द्र	-3820
्रय	-3821
गरानी	-3822
▁ग्रहण	-3823
▁निगरानी	-3824
▁आंध	-3825
ॉप	-3826
▁हिन्दू	-3827
्वे	-3828
▁दर्श	-3829
रत	-3830
▁राजन	-3831
शय	-3832
ंत्रित	-3833
▁एसोसिए	-3834
▁समुद्र	-3835
ैट	-3836
▁कृपया	-3837
▁बीमारी	-3838
▁हृदय	-3839
्यापी	-3840
▁मेल	-3841
▁प्रयुक्त	-3842
▁उपायों	-3843
ंतिम	-3844
▁पहुँच	-3845
▁मिन	-3846
▁बकाया	-3847
▁अपन	-3848
चक	-3849
ेंड	-3850
▁डिफ़	-3851
मों	-3852
▁पूजा	-3853
लिया	-3854
राम	-3855
▁बौद्ध	-3856
AR	-3857
सर्स	-3858
▁पाई	-3859
▁परिश	-3860
▁विषयों	-3861
▁खड़ा	-3862
▁उत्स	-3863
▁रुपए	-3864
▁युक्त	-3865
▁वातावरण	-3866
▁अनंतिम	-3867
▁Ex	-3868
▁तार	-3869
▁वीडियो	-3870
रिया	-3871
पास	-3872
▁क्लॉज	-3873
▁भागों	-3874
▁मंड	-3875
▁पहुंचने	-3876
▁जिम्मेदारी	-3877
श्मीर	-3878
▁सेंट	-3879
▁आख	-3880
▁एशिया	-3881
▁गौर	-3882
▁श्रीमती	-3883
▁अधिसूचित	-3884
▁गुजर	-3885
कालीन	-3886
▁डिफ़ॉल्ट	-3887
्सी	-3888
▁’	-3889
त्मा	-3890
▁अक्ष	-3891
विक	-3892
ेदारों	-3893
as	-3894
▁असर	-3895
बत	-3896
▁कुशल	-3897
्कृतिक	-3898
जह	-3899
▁हिंसा	-3900
▁दर्शाता	-3901
▁सूक्ष्म	-3902
▁सुश्री	-3903
▁अवमान	-3904
िकों	-3905
▁कारक	-3906
▁जोड़ा	-3907
▁प्रत्या	-3908
▁अभिन	-3909
▁निरा	-3910
▁अमेरिकी	-3911
▁अनुसरण	-3912
▁प्रतिस्प	-3913
खे	-3914
ोल्ड	-3915
ह्म	-3916
▁नाटक	-3917
ठी	-3918
▁प्रतिबद्ध	-3919
ing	-3920
काम	-3921
कल्प	-3922
द्दी	-3923
▁गरि	-3924
▁पहा	-3925
▁औपचारिक	-3926
▁जि	-3927
▁III	-3928
▁गहरा	-3929
▁सांस्कृतिक	-3930
▁उज	-3931
▁ऑन	-3932
▁चुना	-3933
▁विरोधी	-3934
▁विद्यमान	-3935
▁संबंधों	-3936
▁विधानसभा	-3937
▁आश्व	-3938
▁करार	-3939
▁क्रमशः	-3940
▁प्रमाणित	-3941
▁अरब	-3942
▁गरिमा	-3943
▁मिलकर	-3944
▁पैमाने	-3945
▁सारा	-3946
▁शताब्दी	-3947
▁खी	-3948
▁शुभ	-3949
बाज	-3950
भोग	-3951
▁तेज	-3952
▁आंध्र	-3953
िर्	-3954
उंड	-3955
स्ते	-3956
▁कले	-3957
▁नामक	-3958
▁प्रसिद्ध	-3959
▁अमान	-3960
▁सलाहकार	-3961
▁गवाही	-3962
▁समर्प	-3963
▁श्रृंखला	-3964
▁शपथ	-3965
▁तत्प	-3966
▁आर्	-3967
▁उन्म	-3968
▁m	-3969
ावर	-3970
च्छिक	-3971
ेह	-3972
▁आपका	-3973
▁आजीवन	-3974
्रित	-3975
बि	-3976
▁g	-3977
▁गर्इ	-3978
▁अनुवाद	-3979
▁दूरी	-3980
▁संयंत्र	-3981
▁धारण	-3982
▁ग्रे	-3983
▁पवित्र	-3984
he	-3985
▁इजर	-3986
▁नियत	-3987
तिहासिक	-3988
▁इत्या	-3989
▁तथ्यात्मक	-3990
▁विमान	-3991
▁रहेगा	-3992
▁महाम	-3993
रान	-3994
▁काग	-3995
र्देश	-3996
▁आसपास	-3997
लाप	-3998
▁गाँ	-3999
▁चुकी	-4000
▁फीस	-4001
▁000	-4002
▁हिम	-4003
▁उद्धृत	-4004
▁गौ	-4005
▁कथा	-4006
▁अपमान	-4007
▁पक्षकारों	-4008
िसी	-4009
▁डिग्री	-4010
▁सीबीआई	-4011
ख़	-4012
रता	-4013
ाइन	-4014
▁सशक्त	-4015
▁फसल	-4016
▁कहता	-4017
▁पैसे	-4018
नु	-4019
देव	-4020
ुस्ता	-4021
▁बुद्धि	-4022
▁संगठ	-4023
▁पेटेंट	-4024
▁सामूह	-4025
कत	-4026
▁विधिव	-4027
▁सुबह	-4028
▁आवंटित	-4029
▁ज्ञापन	-4030
▁परिवर्तित	-4031
▁प्रधानमंत्री	-4032
कुल	-4033
▁साइ	-4034
▁प्ले	-4035
▁सेवानिवृत्ति	-4036
▁मनोरंजन	-4037
्रोल	-4038
▁फोन	-4039
▁प्रतिस्पर्	-4040
▁साफ	-4041
ीप	-4042
▁समाय	-4043
▁मिस	-4044
कृ	-4045
▁परियोजनाओं	-4046
▁इंग्ल	-4047
▁अन्तर्	-4048
▁पट	-4049
▁कराया	-4050
▁द्वितीय	-4051
▁प्रचलित	-4052
ामा	-4053
▁सामूहिक	-4054
▁विफलता	-4055
▁नारा	-4056
▁बदले	-4057
▁शर्मा	-4058
▁वापसी	-4059
▁प्रवर्तन	-4060
▁संरक्षित	-4061
▁चंद्र	-4062
▁रिश्त	-4063
▁मुसलमानों	-4064
गो	-4065
▁वैकल्प	-4066
▁लिंग	-4067
क्षिक	-4068
▁अभिले	-4069
करी	-4070
▁काय	-4071
यण	-4072
▁अर्जित	-4073
लाल	-4074
▁दरवा	-4075
▁उपन्यास	-4076
▁वरिष्ठता	-4077
▁वैकल्पिक	-4078
▁वैश्व	-4079
▁नती	-4080
▁त्याग	-4081
▁डाक	-4082
▁विनियमों	-4083
▁हमला	-4084
▁शेयरों	-4085
ौल	-4086
खिक	-4087
▁कलेक्टर	-4088
▁डाय	-4089
▁प्रतिबंधित	-4090
▁धोखाध	-4091
ज्ञात	-4092
▁जल्द	-4093
▁ढांचे	-4094
▁प्रश्नों	-4095
LP	-4096
▁ऐतिहासिक	-4097
ेश्वर	-4098
कल	-4099
▁ड्राइ	-4100
्रण	-4101
▁मीडिया	-4102
▁आँ	-4103
▁बढ़ाया	-4104
▁गणराज्य	-4105
▁रजिस्ट्र	-4106
▁अधिनियमित	-4107
▁प्रोत्साहन	-4108
र्धन	-4109
▁शर्तें	-4110
चित्य	-4111
खाव	-4112
▁बोझ	-4113
ताब	-4114
▁समझने	-4115
▁आतंकवाद	-4116
▁वर्गीकरण	-4117
प्रिय	-4118
▁मंडल	-4119
▁धोखाधड़ी	-4120
▁इमार	-4121
▁मोबाइल	-4122
▁मोहम्मद	-4123
▁प्रजा	-4124
▁दिशानि	-4125
▁बहस	-4126
▁हथियार	-4127
▁उन्नत	-4128
विदा	-4129
ंदन	-4130
▁दिशानिर्देश	-4131
▁स्ना	-4132
▁फॉर्म	-4133
▁टिप्पणी	-4134
▁सहारा	-4135
धारी	-4136
िकी	-4137
▁लीज	-4138
▁इजरायल	-4139
▁आलो	-4140
▁कार्यवाह	-4141
रन	-4142
▁निच	-4143
▁अनुमोदित	-4144
▁रुचि	-4145
▁असाधारण	-4146
त्तम	-4147
▁इंस	-4148
▁होम	-4149
▁एकड़	-4150
▁आक्रमण	-4151
▁बाय	-4152
ूब	-4153
णु	-4154
▁अली	-4155
▁चिकित्स	-4156
त्ते	-4157
▁कमजोर	-4158
▁लापर	-4159
▁पूर्ववर्ती	-4160
▁योजनाओं	-4161
▁वजह	-4162
▁जल्दी	-4163
दर्शन	-4164
ंडी	-4165
मानी	-4166
le	-4167
ज़ा	-4168
जीव	-4169
वाले	-4170
्यार	-4171
▁प्रतिप	-4172
▁डर	-4173
िक्स	-4174
▁बताए	-4175
▁ऑप	-4176
▁लक्षण	-4177
▁अध्यादेश	-4178
▁ग्राहक	-4179
▁अक्षम	-4180
▁अधीनस्थ	-4181
पेक्ष	-4182
▁धारक	-4183
ढ़ी	-4184
▁इत्यादि	-4185
▁शैली	-4186
▁हिंदी	-4187
▁विनियमित	-4188
▁घंटे	-4189
▁vi	-4190
भाग्य	-4191
▁राव	-4192
▁कारकों	-4193
▁शहरी	-4194
▁आपने	-4195
्वा	-4196
▁मानकों	-4197
▁प्रदत्त	-4198
▁दिये	-4199
▁SLP	-4200
▁प्रत	-4201
▁उर्	-4202
▁उत्पादों	-4203
▁स्वै	-4204
▁दीर्	-4205
▁प्रि	-4206
▁सेवानिवृत्त	-4207
▁रेखा	-4208
▁दह	-4209
रखाव	-4210
▁टुक	-4211
▁काव्य	-4212
▁गाय	-4213
▁औचित्य	-4214
मीटर	-4215
▁तस्व	-4216
▁शिक्षक	-4217
▁संविदा	-4218
▁रखरखाव	-4219
▁सीमाओं	-4220
▁इच्छुक	-4221
▁कार्यक्रमों	-4222
▁असंगत	-4223
▁जिनकी	-4224
१४	-4225
▁घटक	-4226
AN	-4227
▁मूल्यों	-4228
▁खींच	-4229
▁मस्त	-4230
ाब	-4231
▁ठेके	-4232
▁लाइन	-4233
▁ट्रेड	-4234
सीटी	-4235
▁विस	-4236
▁साम्रा	-4237
▁इलाज	-4238
▁इन्हें	-4239
थित	-4240
▁घायल	-4241
▁गर्म	-4242
▁विजय	-4243
▁अंध	-4244
▁दास	-4245
वाधिक	-4246
शास्त्र	-4247
▁मौखिक	-4248
▁Cr	-4249
▁गलती	-4250
▁बदलने	-4251
▁फार्म	-4252
स्पर	-4253
▁उपा	-4254
ेषित	-4255
▁चिन	-4256
om	-4257
वेट	-4258
▁लें	-4259
▁पत्थ	-4260
▁साइट	-4261
▁अफ्री	-4262
▁किराया	-4263
▁नवान	-4264
▁वां	-4265
nd	-4266
▁फूल	-4267
▁प्राण	-4268
▁विधिवत	-4269
ur	-4270
▁हवा	-4271
▁खुशी	-4272
▁नीलामी	-4273
▁स्थितियों	-4274
▁जाएं	-4275
▁विम	-4276
▁रजिस्ट्रार	-4277
▁मजदूरी	-4278
▁रस	-4279
▁ज्ञात	-4280
▁संतुलन	-4281
▁स्थगित	-4282
▁तीव्र	-4283
सीन	-4284
ियत	-4285
▁समितियों	-4286
▁शैक्षिक	-4287
िनल	-4288
▁अस्पष्ट	-4289
▁नामांकन	-4290
्रो	-4291
▁उड़	-4292
▁इतने	-4293
▁सुख	-4294
▁सारी	-4295
▁दैनिक	-4296
▁सेवक	-4297
▁जनसं	-4298
▁दिम	-4299
जल	-4300
▁शिकार	-4301
▁मू	-4302
▁बला	-4303
▁किशोर	-4304
▁परस्पर	-4305
दर	-4306
▁अधिकारिता	-4307
ूंगा	-4308
▁खुले	-4309
▁शव	-4310
▁आउट	-4311
▁अब्द	-4312
एलपी	-4313
▁Nos	-4314
▁संगठनों	-4315
वां	-4316
▁एजेंट	-4317
ैया	-4318
भाविक	-4319
▁कने	-4320
शीलता	-4321
्लो	-4322
िटल	-4323
▁इनके	-4324
▁लगाना	-4325
▁विभाजित	-4326
▁आये	-4327
▁गुरु	-4328
▁कश्मीर	-4329
▁स्थानांतरण	-4330
्यात्म	-4331
क्षेत्र	-4332
▁स्वीकृत	-4333
▁सूत्र	-4334
▁ठोस	-4335
▁बुलाया	-4336
▁शक्तियां	-4337
................	-4338
न्स	-4339
▁अवमानना	-4340
▁क्रूर	-4341
▁पथ	-4342
▁नमू	-4343
▁संतोष	-4344
▁प्रोग्राम	-4345
लेट	-4346
▁दिमाग	-4347
बूझ	-4348
▁शत्र	-4349
▁विश्वविद्यालयों	-4350
▁ब्रह्म	-4351
र्द	-4352
▁बढ़ने	-4353
▁उद्योगों	-4354
▁प्रोट	-4355
▁प्रायः	-4356
नाश	-4357
▁दबाव	-4358
ट्ठ	-4359
ोबार	-4360
ानु	-4361
▁अंतरण	-4362
▁सकारात्मक	-4363
चित्र	-4364
▁देखना	-4365
नाएं	-4366
▁पशु	-4367
▁परमाण	-4368
▁इंजीनियर	-4369
पीय	-4370
ाइड	-4371
ागर	-4372
ेशनल	-4373
▁आध्यात्म	-4374
▁कुंजी	-4375
▁बुल	-4376
▁चक्र	-4377
▁ठहरा	-4378
▁चैन	-4379
ंकिंग	-4380
▁चारों	-4381
▁आजा	-4382
▁करीब	-4383
▁दोहराया	-4384
▁उत्कृष्ट	-4385
▁प्रतिवादियों	-4386
▁गंगा	-4387
▁कठिनाई	-4388
पान	-4389
▁एसोसिएशन	-4390
ार्	-4391
▁आसान	-4392
▁आयोजन	-4393
ha	-4394
▁ति	-4395
श्चात	-4396
▁बीमार	-4397
▁मान्य	-4398
▁खतरा	-4399
▁मानवीय	-4400
रिफ	-4401
ल्ड	-4402
▁गोल	-4403
▁शिश	-4404
हारिक	-4405
▁गरीब	-4406
▁ग्रंथ	-4407
▁आंख	-4408
▁खतरे	-4409
▁टीम	-4410
▁पॉल	-4411
▁पहुंचे	-4412
▁शिक्षकों	-4413
प्ता	-4414
▁जानता	-4415
▁पृथ्वी	-4416
▁आब	-4417
▁iv	-4418
▁कौशल	-4419
▁आसानी	-4420
▁मैदान	-4421
▁मौसम	-4422
▁तल	-4423
्द्र	-4424
▁तुम्हें	-4425
▁हवाई	-4426
▁प्रशास	-4427
▁हलफनामे	-4428
▁बताता	-4429
ुख	-4430
ांकित	-4431
▁अमरी	-4432
▁किलो	-4433
▁शिक्षण	-4434
▁चीज़	-4435
▁सख्त	-4436
संख	-4437
▁असह	-4438
▁द्वार	-4439
▁दस्तावेज़	-4440
ष्प	-4441
▁लापरवाही	-4442
िटर	-4443
मय	-4444
▁दया	-4445
▁लंबी	-4446
निष्ठ	-4447
▁बेटी	-4448
▁दीर्घ	-4449
▁अब्दुल	-4450
▁प्रदूषण	-4451
▁प्रतियोग	-4452
वाली	-4453
ूपी	-4454
▁चेतना	-4455
▁अनुभाग	-4456
▁यूनिट	-4457
▁जानबूझ	-4458
▁बाकी	-4459
▁लिप	-4460
▁गव	-4461
▁वेद	-4462
▁स्वच्छ	-4463
▁बचने	-4464
फ्टवेयर	-4465
▁गुप्ता	-4466
ॉस	-4467
▁ओवर	-4468
▁कंट	-4469
us	-4470
▁k	-4471
▁अर्ध	-4472
▁जहाज	-4473
▁प्रोत्साहित	-4474
▁नेहर	-4475
▁आमंत्रित	-4476
▁भूखंड	-4477
▁पीडब्ल्यू	-4478
ैक्ट	-4479
▁निविदा	-4480
तीत	-4481
▁नो	-4482
▁जैन	-4483
▁जोड़ने	-4484
▁शुभकाम	-4485
▁निज	-4486
▁प्रेस	-4487
▁बताने	-4488
सरों	-4489
▁गईं	-4490
▁विचारण	-4491
▁जनसंख्या	-4492
▁कमरे	-4493
▁सैनिक	-4494
ुरी	-4495
▁पैर	-4496
▁यूरोप	-4497
▁देनदार	-4498
▁डिज	-4499
तल	-4500
पुट	-4501
हिम	-4502
▁अका	-4503
▁डॉक्टर	-4504
▁खत्म	-4505
▁सम्मानित	-4506
▁भूल	-4507
▁एकता	-4508
▁निवारण	-4509
▁पूर्वी	-4510
ार्ट	-4511
▁मिशन	-4512
डीए	-4513
ेयर	-4514
साइटी	-4515
ोने	-4516
▁दूध	-4517
▁साझा	-4518
▁क्रेड	-4519
▁अभियोग	-4520
▁ड्यू	-4521
▁रिस	-4522
▁कारबार	-4523
▁प्रस्तुतियाँ	-4524
▁दशक	-4525
▁होटल	-4526
▁समस्त	-4527
▁गुप्त	-4528
▁प्रतीक	-4529
▁समन्वय	-4530
▁सोसाइटी	-4531
▁स्वागत	-4532
▁बेटे	-4533
▁सिफारिशों	-4534
गण	-4535
▁परमाणु	-4536
▁तत्कालीन	-4537
▁राजनैतिक	-4538
ेंज	-4539
नो	-4540
ादन	-4541
▁सूर्	-4542
▁वीं	-4543
▁ड्र	-4544
▁पुरा	-4545
▁प्रच	-4546
▁मॉडल	-4547
▁देयता	-4548
▁विशेषकर	-4549
▁of	-4550
▁खराब	-4551
▁मृत्युदंड	-4552
▁उदार	-4553
▁संगण	-4554
▁मस्तिष्क	-4555
▁मिट्टी	-4556
▁महत्त्वपूर्ण	-4557
गाह	-4558
▁मि	-4559
फर	-4560
▁काले	-4561
▁दावों	-4562
▁शास्त	-4563
▁अयोग्य	-4564
▁प्रयत्न	-4565
▁रजिस्ट्री	-4566
▁खात	-4567
कस	-4568
▁...	-4569
▁मजबूर	-4570
▁स्कीम	-4571
▁कार्यकाल	-4572
▁स्वैच्छिक	-4573
▁सिल	-4574
▁वारंट	-4575
▁अभियोजक	-4576
दोष	-4577
▁डिप	-4578
उन	-4579
क्षी	-4580
▁रिहा	-4581
▁गुणों	-4582
द्री	-4583
▁प्रसाद	-4584
▁वैश्विक	-4585
▁देंगे	-4586
▁खण्ड	-4587
▁भंडारण	-4588
▁रै	-4589
▁विधिक	-4590
▁जायेगा	-4591
▁दर्द	-4592
▁औष	-4593
▁खतर	-4594
▁विमर्श	-4595
ुस्तान	-4596
▁सत्यापन	-4597
▁पत्रों	-4598
तांत्रिक	-4599
र्डर	-4600
▁असं	-4601
▁छिप	-4602
▁तात्काल	-4603
▁परिपत्र	-4604
िस्त	-4605
▁फैसलों	-4606
▁रखें	-4607
▁विवादित	-4608
▁l	-4609
▁अजी	-4610
▁बुरा	-4611
▁सुभाष	-4612
▁फें	-4613
▁जुड़ा	-4614
▁एसएलपी	-4615
▁जानबूझकर	-4616
▁लोकप्रिय	-4617
अल	-4618
▁व्यावहारिक	-4619
▁विद्यार्थियों	-4620
▁मुह	-4621
▁आध्यात्मिक	-4622
▁आइ	-4623
▁वर	-4624
▁प्रवाह	-4625
▁सुनने	-4626
रप	-4627
▁टैरिफ	-4628
संख्यक	-4629
▁रास्ते	-4630
▁एयर	-4631
ोक्ति	-4632
▁चीन	-4633
▁प्रसन्नता	-4634
थी	-4635
...	-4636
ज़र	-4637
▁निवासी	-4638
▁स्मृति	-4639
ताव	-4640
▁परेशान	-4641
▁उन्	-4642
▁बीज	-4643
▁अपर	-4644
▁शुभकामनाएं	-4645
▁उठता	-4646
▁क्रेडिट	-4647
▁प्राइवेट	-4648
▁प्रारूप	-4649
▁प्रविष्ट	-4650
ॉनिक	-4651
▁कृत्यों	-4652
ड़न	-4653
ुरा	-4654
▁फी	-4655
पक	-4656
▁कक्ष	-4657
बिट	-4658
▁बंधक	-4659
ग्रहित	-4660
▁मानने	-4661
▁कार्यपालिका	-4662
▁महामहिम	-4663
▁श्रेणीः	-4664
▁अभियान	-4665
▁लेनदार	-4666
▁द्वीप	-4667
▁ग्रा	-4668
▁स्वाभाविक	-4669
▁ऑफ़	-4670
▁आश्च	-4671
▁डब्ल	-4672
ड़ियों	-4673
▁ज़र	-4674
▁डिजा	-4675
▁सल	-4676
▁टिक	-4677
▁बलात्कार	-4678
कुम	-4679
स्स	-4680
▁देर	-4681
▁पार्क	-4682
▁प्रेरण	-4683
▁खड़े	-4684
▁बताते	-4685
ादित	-4686
▁जाह	-4687
▁उनको	-4688
▁भेजे	-4689
▁बाध्यकारी	-4690
हाद	-4691
▁अनुशास	-4692
▁लेखों	-4693
▁सुसंगत	-4694
▁आलोक	-4695
▁दावेदार	-4696
▁गवर्न	-4697
▁साक्षी	-4698
ूद्ध	-4699
▁चिंतित	-4700
▁स्त्री	-4701
am	-4702
विचार	-4703
▁बेल	-4704
▁चुने	-4705
▁अवश्य	-4706
्यूम	-4707
▁संकट	-4708
ायर	-4709
▁पूछा	-4710
▁राजनीति	-4711
▁क्व	-4712
▁निलंब	-4713
टो	-4714
न्य	-4715
▁लॉर्ड	-4716
▁प्रशंसा	-4717
▁प्रवृत्ति	-4718
मार्ग	-4719
▁नेहरू	-4720
▁छो	-4721
▁महास	-4722
▁आवासी	-4723
▁तरीकों	-4724
▁निकालने	-4725
▁आफ	-4726
▁रिज़	-4727
▁तीसरा	-4728
हता	-4729
▁जितना	-4730
▁बातें	-4731
घात	-4732
▁चढ़	-4733
▁बाग	-4734
▁दुखी	-4735
▁बाबत	-4736
▁विधियों	-4737
▁रण	-4738
▁तिर	-4739
▁माइ	-4740
▁गर्भ	-4741
▁रीति	-4742
▁एआईआर	-4743
▁नियोजित	-4744
▁पूर्वाग्रह	-4745
▁मगर	-4746
▁आवाज	-4747
AL	-4748
नाक	-4749
▁कूट	-4750
▁नकारात्मक	-4751
सु	-4752
आरएस	-4753
▁खेती	-4754
▁तोड़	-4755
▁लक	-4756
▁बाह	-4757
ीकृत	-4758
कालिक	-4759
▁पोर्ट	-4760
्यूशन	-4761
▁निषेध	-4762
▁आश्चर्य	-4763
▁जम्म	-4764
ॉर्नी	-4765
▁फैल	-4766
कृष्ण	-4767
भास	-4768
वानी	-4769
▁डील	-4770
▁तस्वीर	-4771
▁हस्ताक्षरित	-4772
▁बू	-4773
▁शोध	-4774
▁लाभों	-4775
▁आलोचना	-4776
▁फे	-4777
श्त	-4778
▁मानना	-4779
▁किसानों	-4780
▁जाल	-4781
▁जम्मू	-4782
▁बेचने	-4783
et	-4784
▁रास्ता	-4785
▁बैंकिंग	-4786
ज़ी	-4787
▁चलते	-4788
▁स्वर	-4789
▁अपरि	-4790
िली	-4791
▁अटॉर्नी	-4792
▁धम	-4793
▁संतुष्टि	-4794
▁सर्वोत्तम	-4795
▁xx	-4796
▁जाया	-4797
▁मशीनरी	-4798
▁समुचित	-4799
▁खून	-4800
▁तकनीक	-4801
▁मानदंडों	-4802
दियों	-4803
▁थोड़ा	-4804
▁समावेश	-4805
▁क्षतिपूर्ति	-4806
▁कॉर्पोरेट	-4807
▁प्रक्रियाओं	-4808
▁विकलांगता	-4809
▁बांध	-4810
▁संपत्तियों	-4811
ent	-4812
्चर	-4813
निहित	-4814
▁सृजन	-4815
▁जर्म	-4816
▁भय	-4817
गामी	-4818
▁दिनांकित	-4819
ेंद	-4820
ेटी	-4821
▁सत्यापित	-4822
▁वाक्य	-4823
▁बनता	-4824
यू	-4825
ड्य	-4826
▁वैसे	-4827
▁टेक	-4828
▁निपटाया	-4829
▁प्राधिकार	-4830
▁राजपत्र	-4831
▁डिस्क	-4832
▁निरोध	-4833
▁ठहर	-4834
▁परिस्थित	-4835
▁ट्रै	-4836
▁विहित	-4837
▁साम्राज्य	-4838
▁समूहों	-4839
▁अभिप्रे	-4840
१५	-4841
▁शेख	-4842
▁लोकतांत्रिक	-4843
▁मुल	-4844
▁पक्षकार	-4845
▁सीए	-4846
▁कमेटी	-4847
▁आह्वान	-4848
▁ष	-4849
िन्द	-4850
▁अत्या	-4851
▁दंडित	-4852
▁श्रेष्ठ	-4853
▁दार	-4854
▁सटी	-4855
ज्ज	-4856
▁मण	-4857
▁शराब	-4858
स्थापन	-4859
▁आनन्द	-4860
▁लिखने	-4861
▁डिजाइन	-4862
कानूनी	-4863
▁नै	-4864
▁सूर	-4865
▁बढ़ती	-4866
न्धी	-4867
▁उभर	-4868
लभ	-4869
णों	-4870
▁भंग	-4871
▁वंश	-4872
▁चोटों	-4873
▁गाँव	-4874
▁दहेज	-4875
▁लेखन	-4876
▁राजधानी	-4877
▁भरने	-4878
▁अफ्रीका	-4879
▁गैरकानूनी	-4880
ॉँ	-4881
▁मांस	-4882
दास	-4883
राबाद	-4884
▁ठेकेदार	-4885
▁इंग्लैंड	-4886
▁संध	-4887
ष्कार	-4888
िने	-4889
▁उपकरणों	-4890
▁विशेषाधिकार	-4891
न्ना	-4892
▁सीट	-4893
▁कक्षा	-4894
▁हवाला	-4895
▁पूर्ति	-4896
▁बयानों	-4897
▁क्रिकेट	-4898
il	-4899
▁वहीं	-4900
ेंशन	-4901
▁चलाया	-4902
▁संसार	-4903
▁आवासीय	-4904
▁रजिस्टर	-4905
▁आतंकवादी	-4906
▁निर्माता	-4907
ad	-4908
▁इलेक्ट्रॉनिक	-4909
गु	-4910
▁चीजों	-4911
▁तात्कालिक	-4912
▁ताप	-4913
▁लिखे	-4914
▁इकाइयों	-4915
▁वांछ	-4916
▁ड्यूटी	-4917
▁विद्यालय	-4918
ाले	-4919
▁मछ	-4920
▁पेंड	-4921
▁पोषण	-4922
▁मानता	-4923
खन	-4924
णन	-4925
▁निष्क्रिय	-4926
▁पत्थर	-4927
▁फिट	-4928
▁कच्च	-4929
गमन	-4930
लिंग	-4931
▁लक्ष्म	-4932
▁चा	-4933
▁किस्म	-4934
जु	-4935
ादक	-4936
▁वक्त	-4937
▁सौंपा	-4938
▁विश्वसनीय	-4939
वश	-4940
▁मिनट	-4941
▁सुविधाएं	-4942
▁हस्तांतरित	-4943
रु	-4944
▁वसी	-4945
दायिक	-4946
▁लिखी	-4947
▁उत्पी	-4948
▁पेशेवर	-4949
▁करो	-4950
▁समवर्ती	-4951
▁तत्पश्चात	-4952
AT	-4953
▁नाट	-4954
▁सिवाय	-4955
▁परिकल्पना	-4956
▁जंग	-4957
▁लड़की	-4958
▁सतर्क	-4959
ानिक	-4960
▁बनाते	-4961
▁स्क्रीन	-4962
▁कपड़े	-4963
गोल	-4964
ास्थिति	-4965
▁प्रोवि	-4966
जात	-4967
▁पिछली	-4968
िमय	-4969
▁अपनाने	-4970
▁पूर्वव्यापी	-4971
द्दीन	-4972
▁पाँच	-4973
▁अत	-4974
श्वास	-4975
▁बम	-4976
▁वर्षा	-4977
el	-4978
न्ड	-4979
▁सूचीबद्ध	-4980
क़्त	-4981
▁संवेदन	-4982
हत्या	-4983
▁WP	-4984
▁अवश	-4985
▁प्रतिभूति	-4986
ोरम	-4987
▁अधी	-4988
▁अचान	-4989
▁सॉफ्टवेयर	-4990
▁सीपीसी	-4991
▁गंभीरता	-4992
चस्प	-4993
▁भरा	-4994
▁खातों	-4995
▁एससीआर	-4996
▁कव	-4997
बंद	-4998
▁एजेंस	-4999
▁मांगी	-5000
▁विरोधा	-5001
▁शुद्धता	-5002
▁मुख्यमंत्री	-5003
ैव	-5004
▁जमी	-5005
▁अचानक	-5006
▁आरम्भ	-5007
▁कारख	-5008
▁नौकरी	-5009
▁निः	-5010
▁आपात	-5011
दाताओं	-5012
▁विरूद्ध	-5013
िरा	-5014
▁सन	-5015
▁अनि	-5016
▁इमारत	-5017
▁सर्वाधिक	-5018
ांट	-5019
भावना	-5020
हाबाद	-5021
▁सूर्य	-5022
▁अहमद	-5023
भारत	-5024
▁कोयला	-5025
ोथ	-5026
ोचित	-5027
▁मूर्	-5028
बादी	-5029
▁आईटी	-5030
▁इंद	-5031
▁चालू	-5032
▁असमान	-5033
▁अमान्य	-5034
▁अनुशासनात्मक	-5035
▁h	-5036
▁बहाल	-5037
▁अवसरों	-5038
ग्ध	-5039
दिन	-5040
वरों	-5041
▁मोहन	-5042
▁पदार्थों	-5043
ख्यात	-5044
▁दरों	-5045
▁सुलझ	-5046
▁यंत्र	-5047
पत	-5048
स्टर	-5049
स्ट्रे	-5050
▁निरसन	-5051
▁श्रेणियों	-5052
▁दिलचस्प	-5053
बन्ध	-5054
▁घा	-5055
ंचाई	-5056
▁अतिक	-5057
▁भागी	-5058
्कार	-5059
क्षीय	-5060
▁बिल्ड	-5061
mp	-5062
ावली	-5063
दर्शी	-5064
▁मासिक	-5065
▁पात्रता	-5066
▁सहज	-5067
▁भावी	-5068
▁भेजने	-5069
▁अभिप्रेत	-5070
▁गीत	-5071
▁फोट	-5072
▁मोड	-5073
▁गुल	-5074
▁यथा	-5075
ec	-5076
▁नृत	-5077
▁रेख	-5078
▁गोली	-5079
▁पुरानी	-5080
▁मुकदमेबाजी	-5081
▁रुख	-5082
▁प्रतिभा	-5083
▁ऑर्डर	-5084
▁उच्चतर	-5085
▁दायित्वों	-5086
▁देखे	-5087
र्ज	-5088
▁दुख	-5089
▁नवीन	-5090
▁ध्वनि	-5091
▁यूपी	-5092
▁जाहिर	-5093
्रल	-5094
▁सदा	-5095
▁चिंतन	-5096
▁इंटरनेट	-5097
▁आत्महत्या	-5098
▁ग्राहकों	-5099
▁प्रतिष्ठित	-5100
▁चलने	-5101
बीर	-5102
▁कारोबार	-5103
▁वर्मा	-5104
▁कस	-5105
▁गोद	-5106
▁पौध	-5107
▁जागर	-5108
▁दलों	-5109
▁उपखंड	-5110
▁खाने	-5111
▁अन्याय	-5112
गां	-5113
▁in	-5114
▁फा	-5115
वासियों	-5116
▁पूर्ववर्ष	-5117
मेन	-5118
▁जानने	-5119
▁नेशनल	-5120
▁मात	-5121
▁आश्वासन	-5122
षक	-5123
▁अचल	-5124
▁नीतियों	-5125
▁हथियारों	-5126
▁अनाव	-5127
▁निशान	-5128
▁उत्तराधिकार	-5129
▁लु	-5130
▁कितना	-5131
▁डालने	-5132
▁विलंब	-5133
▁परिणामों	-5134
▁खुश	-5135
▁दान	-5136
▁जाकर	-5137
▁Rs	-5138
कश	-5139
वर्	-5140
▁हैद	-5141
दूर	-5142
▁बेह	-5143
▁खाना	-5144
▁उत्तरी	-5145
▁समर्पित	-5146
▁शिख	-5147
▁संगम	-5148
▁देखकर	-5149
▁अन्द	-5150
▁समझते	-5151
▁आकाश	-5152
▁कायम	-5153
माना	-5154
▁सतह	-5155
▁पीएस	-5156
▁ताकत	-5157
▁पीड़ा	-5158
▁निर्णायक	-5159
▁कार्यवाहियों	-5160
▁सिंचाई	-5161
वंश	-5162
▁वय	-5163
▁सदस्यता	-5164
▁उत्पादित	-5165
▁स्वीकारोक्ति	-5166
▁मिलियन	-5167
क्का	-5168
▁पावर	-5169
▁IPC	-5170
▁प्रतिस्थापित	-5171
▁कीट	-5172
▁डेवल	-5173
▁स्तंभ	-5174
▁होंगी	-5175
र्याप्त	-5176
▁वितरित	-5177
▁समुद्री	-5178
शीट	-5179
▁अन्तर	-5180
▁ट्रे	-5181
▁नैतिकता	-5182
▁प्रेरणा	-5183
▁फ़िल	-5184
▁ब्राह	-5185
▁किनारे	-5186
▁जनजाति	-5187
▁स्टैंड	-5188
▁व्यक्तित्व	-5189
▁स्वस्थ	-5190
जारों	-5191
▁निषेधा	-5192
▁इलाहाबाद	-5193
पोर्ट	-5194
▁सामग्र	-5195
▁दर्शाया	-5196
▁धात	-5197
ड़ीसा	-5198
▁लगाई	-5199
ग्रस्त	-5200
▁प्रिय	-5201
▁लम्ब	-5202
▁अधिनियमों	-5203
▁मालिकों	-5204
▁पेड़	-5205
पय	-5206
▁केंद्रित	-5207
▁निस्स	-5208
▁असाम	-5209
▁रोड	-5210
▁जातियों	-5211
▁नयी	-5212
▁टाइगर	-5213
▁विनिमय	-5214
▁पुनर्वास	-5215
▁सर्वर	-5216
▁आखिर	-5217
▁निषेधाज्ञा	-5218
▁अनदे	-5219
▁खंडन	-5220
▁किताब	-5221
▁अनिश्चित	-5222
▁उल्लेखनीय	-5223
▁अपर्याप्त	-5224
▁अंतर्निहित	-5225
काब	-5226
▁गहन	-5227
▁तीनों	-5228
▁बचाने	-5229
▁घटा	-5230
ियमित	-5231
▁दुर्भाग्य	-5232
▁अन्दर	-5233
▁संभोग	-5234
▁त्वरित	-5235
▁दुर्लभ	-5236
कट	-5237
ol	-5238
ैर	-5239
च्छा	-5240
▁सीधी	-5241
▁परिचालन	-5242
वाहित	-5243
▁दीवार	-5244
▁मुद्र	-5245
▁ऑनलाइन	-5246
▁हैदराबाद	-5247
वर्ष	-5248
▁घाव	-5249
शक्ति	-5250
▁अगला	-5251
▁मेन	-5252
▁भाषाओं	-5253
▁उपर	-5254
▁वसूल	-5255
▁नारायण	-5256
ट्र	-5257
▁प्रतिनिधियों	-5258
▁बाबू	-5259
▁कोशिका	-5260
▁घात	-5261
▁ग्रेड	-5262
ri	-5263
ज्	-5264
▁सेक	-5265
▁एप	-5266
▁पच	-5267
▁तलाश	-5268
▁भ्रष्टाचार	-5269
▁दोहरा	-5270
सीसी	-5271
▁अप्रत्य	-5272
धरी	-5273
▁मसौ	-5274
▁चेहरे	-5275
▁रूपांत	-5276
▁श्रमिकों	-5277
स्ट्रेलिया	-5278
▁कैडर	-5279
▁अनियमित	-5280
▁विभागों	-5281
कु	-5282
▁जड़	-5283
▁अकबर	-5284
▁मरने	-5285
▁मेसर्स	-5286
▁अनुशासन	-5287
▁निश्चय	-5288
▁नवान्वेषण	-5289
▁टैक्स	-5290
▁मतदान	-5291
▁विरासत	-5292
ेंडर	-5293
▁कति	-5294
्रास	-5295
▁नोड	-5296
क्टरों	-5297
▁विपणन	-5298
▁प्रबंधक	-5299
▁एनआई	-5300
▁उड़ीसा	-5301
▁निर्दोष	-5302
▁चिह्नित	-5303
▁नार	-5304
▁चयनित	-5305
▁रिटर्न	-5306
▁प्रवृत्त	-5307
भेद	-5308
▁छवि	-5309
▁रॉय	-5310
▁जुड़	-5311
▁अधिग्रहित	-5312
▁NO	-5313
▁यूनियन	-5314
ोषित	-5315
▁पोत	-5316
▁बजट	-5317
▁वजन	-5318
▁पुनर्विचार	-5319
र्पण	-5320
▁रहें	-5321
▁स्वाय	-5322
▁कितनी	-5323
▁पर्यटन	-5324
▁बारह	-5325
▁इकट्ठ	-5326
▁टाडा	-5327
ोजी	-5328
▁उपे	-5329
▁सोचा	-5330
▁ब्रा	-5331
▁इंस्ट	-5332
▁नेताओं	-5333
▁कामका	-5334
▁सरदार	-5335
▁मूलभूत	-5336
▁यथास्थिति	-5337
▁अल्पसंख्यक	-5338
▁सामग्रियों	-5339
▁सुनी	-5340
▁रिज	-5341
▁गहरी	-5342
▁समेक	-5343
▁सिद्	-5344
▁इकबाल	-5345
खास्त	-5346
वाहिक	-5347
▁क्रूरता	-5348
▁महात्मा	-5349
▁चार्जशीट	-5350
▁शुक	-5351
▁आराम	-5352
▁अप्रत्यक्ष	-5353
▁झील	-5354
▁ब्लॉक	-5355
▁संघीय	-5356
नाइट	-5357
▁छाप	-5358
▁सोसाय	-5359
▁उत्साह	-5360
▁सम्बन्धी	-5361
ुव	-5362
▁कोष	-5363
विज्ञान	-5364
▁पंड	-5365
परी	-5366
घाटन	-5367
▁प्राधिकृत	-5368
▁इक्व	-5369
▁हालत	-5370
▁उत्पीड़न	-5371
▁शिल	-5372
▁साध	-5373
बालिग	-5374
▁विद्र	-5375
्यूब	-5376
▁कतिपय	-5377
▁वेतनमान	-5378
▁लिंक	-5379
▁जीत	-5380
▁मध्यम	-5381
▁नाबालिग	-5382
▁हलफनामा	-5383
एगा	-5384
िवेश	-5385
▁हड्ड	-5386
▁कृत्य	-5387
▁विंडो	-5388
▁नकद	-5389
▁सकल	-5390
डब्ल्यू	-5391
▁पुनरीक्षण	-5392
्रामक	-5393
▁अभिलेख	-5394
▁पड़ेगा	-5395
▁प्रस्तुतिकरण	-5396
वारी	-5397
शिष्ट	-5398
▁अजीब	-5399
▁साधनों	-5400
▁हैंः	-5401
▁सुनाया	-5402
▁अतिक्रमण	-5403
म्मत	-5404
▁xxx	-5405
▁आरोपित	-5406
दिग्ध	-5407
▁व्याया	-5408
▁एस्ट	-5409
▁निजता	-5410
▁नृत्य	-5411
▁संभवतः	-5412
ंजा	-5413
▁लल	-5414
धियों	-5415
▁जस्ट	-5416
▁दिला	-5417
▁सिरे	-5418
सूर	-5419
▁सचे	-5420
▁जुड़ी	-5421
▁ईमान	-5422
▁अभिक	-5423
▁तत्वों	-5424
▁पैसा	-5425
सू	-5426
फोन	-5427
▁सोसायटी	-5428
▁विस्तारित	-5429
▁यो	-5430
▁लोड	-5431
ट्रिक	-5432
▁मिलाकर	-5433
▁असंभव	-5434
रू	-5435
▁सेबी	-5436
▁स्वायत्त	-5437
▁अधिरो	-5438
▁इंजीनियरिंग	-5439
भाषा	-5440
▁बहन	-5441
▁वचन	-5442
▁सैन	-5443
▁इनका	-5444
▁प्रभारी	-5445
▁मार्गदर्शन	-5446
▁दमन	-5447
▁डिजिटल	-5448
▁पक्षपात	-5449
▁अद्य	-5450
▁आदान	-5451
▁वसीयत	-5452
▁उपयोगकर्ता	-5453
▁बचत	-5454
▁व्यवस्थित	-5455
▁भूत	-5456
▁क्रॉस	-5457
▁विनाश	-5458
ST	-5459
नामा	-5460
▁खोलने	-5461
▁समृद्ध	-5462
▁प्राथमिकी	-5463
यान	-5464
▁नेपाल	-5465
▁अधिकतर	-5466
▁छोड़ने	-5467
अर	-5468
राशि	-5469
▁यूरोपीय	-5470
ायें	-5471
▁जला	-5472
▁अंतराल	-5473
धारित	-5474
▁संदिग्ध	-5475
IN	-5476
▁प्रसारण	-5477
▁क्ला	-5478
▁अंतः	-5479
▁सर्विस	-5480
▁बोस	-5481
तियां	-5482
▁उतना	-5483
▁निया	-5484
▁दोस्त	-5485
▁परिचय	-5486
▁अग्रणी	-5487
▁टूट	-5488
▁बच्चा	-5489
▁आना	-5490
ंपरिक	-5491
▁राजी	-5492
▁संक्रमण	-5493
जीत	-5494
्के	-5495
▁डब्ल्यू	-5496
▁संवाद	-5497
▁तैयारी	-5498
▁लड़के	-5499
ान्य	-5500
र्कों	-5501
रीक्षक	-5502
▁स्टॉक	-5503
▁बर्खास्त	-5504
▁रसाय	-5505
श्र	-5506
▁कैप	-5507
▁बढ़े	-5508
▁भ्रम	-5509
▁बाह्य	-5510
▁अध्यक्षता	-5511
▁आधारों	-5512
▁सभ्यता	-5513
▁रिक्तियों	-5514
पीए	-5515
पूर्व	-5516
्यव	-5517
ंदाज	-5518
▁यूएस	-5519
▁जुर्माने	-5520
शे	-5521
▁नतीज	-5522
▁आस्ति	-5523
▁परिसंप	-5524
ांतिक	-5525
▁जनहित	-5526
▁नतीजतन	-5527
os	-5528
ायुक्त	-5529
▁ओआरएस	-5530
▁लड़ाई	-5531
▁इंडियन	-5532
▁प्रतियोगिता	-5533
▁पट्टा	-5534
भि	-5535
▁इश	-5536
▁शंकर	-5537
ाधिक	-5538
▁चलो	-5539
▁पैके	-5540
▁सुदृ	-5541
▁साक्षा	-5542
▁विघ	-5543
▁वृक्ष	-5544
▁जरिए	-5545
▁मार्क	-5546
▁अनावश्यक	-5547
▁तह	-5548
्त्र	-5549
▁चैनल	-5550
▁ऑपरेट	-5551
▁संभाल	-5552
▁उपलब्धता	-5553
▁सागर	-5554
▁आबादी	-5555
▁गरीबी	-5556
▁समापन	-5557
▁विनय	-5558
▁सटीक	-5559
▁मनाया	-5560
▁महीनों	-5561
▁जैव	-5562
▁बुक	-5563
▁वस्तुत	-5564
▁नवीकरण	-5565
▁फेंक	-5566
▁जागरूक	-5567
▁इंजीनिय	-5568
▁विक्रेता	-5569
▁निर्वाचित	-5570
णिक	-5571
▁छत	-5572
▁डो	-5573
ोर्ड	-5574
▁बीस	-5575
▁पत्त	-5576
▁लेती	-5577
िकेशन	-5578
▁स्वभाव	-5579
▁संवर्धन	-5580
़्त	-5581
▁डीड	-5582
▁न्यायसंगत	-5583
id	-5584
▁बताना	-5585
▁गोवा	-5586
▁१६	-5587
धारक	-5588
▁मुकाब	-5589
▁गेंद	-5590
▁प्रांत	-5591
▁ब्रिटेन	-5592
▁वर्गीकृत	-5593
हरण	-5594
▁कना	-5595
▁सौर	-5596
▁पारंपरिक	-5597
सिंह	-5598
त्त्व	-5599
▁तीसरी	-5600
▁अन्तर्गत	-5601
▁लेनदारों	-5602
धारकों	-5603
▁त्वचा	-5604
▁प्रणाल	-5605
▁प्रोफे	-5606
▁निहितार्थ	-5607
ंदेह	-5608
र्की	-5609
▁चाय	-5610
▁चौधरी	-5611
ष्म	-5612
▁दुब	-5613
▁आहार	-5614
▁सिंध	-5615
iv	-5616
▁इल	-5617
▁पाइ	-5618
▁हिमा	-5619
▁अख	-5620
▁भंडार	-5621
▁महानि	-5622
▁कराधान	-5623
▁उजागर	-5624
▁गांवों	-5625
ॉम	-5626
द्धा	-5627
▁रसी	-5628
▁अपनाई	-5629
▁कार्यरत	-5630
किल	-5631
▁पड़ी	-5632
▁प्रतिद्व	-5633
▁अवगत	-5634
▁जस्टिस	-5635
▁निकायों	-5636
▁ब्राह्म	-5637
▁साक्ष्यों	-5638
▁चाहती	-5639
▁क्रेता	-5640
▁समझाया	-5641
▁सदैव	-5642
▁एजेंसियों	-5643
ापति	-5644
▁रूपों	-5645
▁भव	-5646
ोद	-5647
गाव	-5648
ोल्डर	-5649
लीय	-5650
▁डीलर	-5651
▁सफेद	-5652
▁खरीदने	-5653
▁प्रदेशों	-5654
▁चुनौ	-5655
▁सोने	-5656
▁शान	-5657
कीर्ण	-5658
थे	-5659
दु	-5660
िरी	-5661
▁धर	-5662
▁आकर	-5663
ोरेशन	-5664
▁ड्रा	-5665
▁दुः	-5666
▁निस्संदेह	-5667
▁परामर्शदाता	-5668
क्व	-5669
▁असंव	-5670
▁निकाले	-5671
▁पंक्ति	-5672
▁रियायत	-5673
▁घृ	-5674
हार्य	-5675
▁मिटा	-5676
▁शुरु	-5677
▁लंबाई	-5678
ॉर्ट	-5679
▁कैल	-5680
▁वहन	-5681
▁बताई	-5682
▁कं	-5683
▁उपहार	-5684
▁बौद्धिक	-5685
▁चिकित्सक	-5686
▁विविधता	-5687
▁शो	-5688
ध्यक्ष	-5689
▁पेट्रोल	-5690
▁संस्थ	-5691
▁स्वतः	-5692
▁पहुँ	-5693
ज़ो	-5694
▁ठाक	-5695
▁बारी	-5696
▁ऊपरी	-5697
▁पढ़ता	-5698
▁आर्बिट	-5699
▁शिकायतों	-5700
▁सम्पूर्ण	-5701
प्पा	-5702
वायु	-5703
▁बाई	-5704
▁डाटा	-5705
▁उत्तेज	-5706
षद	-5707
्सों	-5708
▁अगली	-5709
▁पीड़ितों	-5710
▁विनिर्माण	-5711
ंस्क	-5712
▁एसी	-5713
▁दक्षता	-5714
▁रम	-5715
ज़ार	-5716
▁एंट	-5717
ER	-5718
ंसक	-5719
▁प्यार	-5720
▁प्रमाणीकरण	-5721
▁मेमन	-5722
▁चंद	-5723
▁हिमाचल	-5724
▁परिणामी	-5725
मेल	-5726
▁अखिल	-5727
▁मालूम	-5728
▁कां	-5729
▁वीर	-5730
▁धनराशि	-5731
▁संगठित	-5732
▁विभागीय	-5733
ुणा	-5734
▁देखी	-5735
▁कार्ब	-5736
▁रहेंगे	-5737
▁चेन्न	-5738
▁खतरनाक	-5739
▁सामानों	-5740
वों	-5741
▁संग्र	-5742
▁जिल	-5743
▁इक्विटी	-5744
ंधन	-5745
शिप	-5746
▁मैने	-5747
▁उतर	-5748
▁जीन	-5749
▁प्रबल	-5750
▁प्रतिर	-5751
▁पेशकश	-5752
▁रिल	-5753
▁घातक	-5754
हेल	-5755
▁सील	-5756
कुमार	-5757
ME	-5758
ार्ज	-5759
ावल	-5760
▁अशोक	-5761
▁बालक	-5762
▁समर्थित	-5763
रेख	-5764
▁शिखर	-5765
ीन्द्र	-5766
▁खरीदार	-5767
▁संधि	-5768
▁अद्यतन	-5769
▁मामूली	-5770
ंडा	-5771
▁भरे	-5772
▁करवा	-5773
▁कहान	-5774
▁बढ़ते	-5775
IL	-5776
▁नकदी	-5777
▁विक्रय	-5778
▁स्कूलों	-5779
▁प्रयोगशाला	-5780
ुपात	-5781
▁करों	-5782
▁धमकी	-5783
▁फिली	-5784
▁काउंटर	-5785
▁फ़िल्म	-5786
▁एक्सप	-5787
▁कितने	-5788
▁सशस्त्र	-5789
▁किलोमीटर	-5790
▁सीआरपीसी	-5791
▁बेस	-5792
▁सें	-5793
▁आजादी	-5794
▁निभा	-5795
▁कामकाज	-5796
▁परिषद्	-5797
▁चीनी	-5798
▁देवता	-5799
▁मापदंड	-5800
शनल	-5801
▁जिर	-5802
▁प्रतिद्वंद	-5803
▁जगत	-5804
▁स्तरों	-5805
▁u	-5806
रेज	-5807
रिक्ष	-5808
▁दिशानिर्देशों	-5809
▁रानी	-5810
▁कमांड	-5811
▁पौधों	-5812
▁रहित	-5813
ुत्प	-5814
▁मिलते	-5815
▁रहस्य	-5816
▁वोट	-5817
ac	-5818
न्थ	-5819
▁घरों	-5820
▁नियामक	-5821
वै	-5822
हीत	-5823
िज्ञ	-5824
▁कराई	-5825
▁विशेषताओं	-5826
▁पीढ़ी	-5827
▁फ्लैट	-5828
▁परिवारों	-5829
्ना	-5830
्वीप	-5831
▁मिलेगा	-5832
्वत	-5833
▁पेंडेंसी	-5834
पण	-5835
वो	-5836
▁संशोधनों	-5837
जनन	-5838
▁आबंट	-5839
▁बनाकर	-5840
▁वयस्क	-5841
▁परिचित	-5842
▁उद्घाटन	-5843
चलन	-5844
▁चश्म	-5845
▁विसंग	-5846
▁स्थिरता	-5847
्ण	-5848
▁बैठे	-5849
▁स्वर्ण	-5850
▁बनाये	-5851
ोब	-5852
▁लक्ष	-5853
▁निपटारा	-5854
▁the	-5855
▁कोट	-5856
▁कष्ट	-5857
▁रोका	-5858
सायनिक	-5859
▁प्रस्तावों	-5860
रस	-5861
़्य	-5862
्का	-5863
▁सूचक	-5864
▁सुदृढ़	-5865
▁तुम्हारे	-5866
▁व्यायाम	-5867
▁प्रतिदिन	-5868
ेरे	-5869
देय	-5870
▁सेन	-5871
▁चालक	-5872
▁जना	-5873
▁जब्ती	-5874
यक	-5875
एमसी	-5876
▁पुण	-5877
▁फंड	-5878
▁विलय	-5879
▁हिस्सों	-5880
▁खड़ी	-5881
▁आशंका	-5882
▁निष्ठ	-5883
▁मतभेद	-5884
▁मास्टर	-5885
▁असंवैधानिक	-5886
▁उतार	-5887
▁संदाय	-5888
▁चन्द्र	-5889
▁वाहनों	-5890
भौ	-5891
्यवाद	-5892
▁मौका	-5893
▁साथी	-5894
▁शहरों	-5895
▁रवीन्द्र	-5896
▁भत्ते	-5897
▁प्रोफेसर	-5898
क्सी	-5899
रेखा	-5900
िकीय	-5901
▁पाद	-5902
चालित	-5903
▁ग्रुप	-5904
▁हिंदुस्तान	-5905
▁कॉपी	-5906
ांक्षा	-5907
ुश	-5908
▁सद्	-5909
▁अदा	-5910
▁कदा	-5911
▁बैल	-5912
▁जलवायु	-5913
▁शक्तिशाली	-5914
उंट	-5915
ूलन	-5916
▁बजा	-5917
▁कन्व	-5918
▁रासायनिक	-5919
िपरि	-5920
▁जिरह	-5921
▁रखती	-5922
ाकू	-5923
▁ऑपर	-5924
▁इसील	-5925
▁चली	-5926
▁नवीनी	-5927
जन्य	-5928
▁मिथ	-5929
▁सैन्य	-5930
▁मुक्ति	-5931
▁दिव्य	-5932
▁साक्षात्कार	-5933
काता	-5934
▁नैन	-5935
छा	-5936
▁बेद	-5937
धान्त	-5938
▁मंदिरों	-5939
▁इकबालिया	-5940
▁पैनल	-5941
▁लकड़ी	-5942
▁हार्द	-5943
▁मंत्रिपरि	-5944
इश	-5945
▁रुक	-5946
▁आचार	-5947
CI	-5948
▁प्ला	-5949
▁रहेगी	-5950
यें	-5951
▁फुट	-5952
▁ऑफिस	-5953
▁y	-5954
▁सुस	-5955
तावनी	-5956
▁शिशु	-5957
▁निर्वि	-5958
लै	-5959
फ़र	-5960
टीकरण	-5961
▁द्विप	-5962
▁बोलते	-5963
▁खि	-5964
▁घूम	-5965
▁चुप	-5966
▁प्री	-5967
▁मेमो	-5968
▁एक्सच	-5969
▁विभिन्	-5970
▁प्रतिष्ठा	-5971
एसी	-5972
▁बैग	-5973
▁गोपाल	-5974
०क	-5975
▁शौ	-5976
▁सहन	-5977
ब्लिक	-5978
▁तनाव	-5979
▁बल्ले	-5980
▁सेटिंग	-5981
▁संप्रदाय	-5982
▁एकीकृत	-5983
▁खुली	-5984
▁मार्	-5985
▁सहयोगी	-5986
▁चेतावनी	-5987
▁पुस्तकों	-5988
▁प्रोविज़ो	-5989
टने	-5990
▁अग्न	-5991
▁अज्ञात	-5992
▁प्रशासक	-5993
लाब	-5994
▁इनकी	-5995
▁लंदन	-5996
भु	-5997
दाबाद	-5998
▁पुरुषों	-5999
▁हार्दिक	-6000
▁उदा	-6001
▁टाइम	-6002
▁मूल्यवान	-6003
ल्स	-6004
▁वास	-6005
िपि	-6006
र्गी	-6007
▁हां	-6008
▁ईंधन	-6009
▁पाता	-6010
▁इनपुट	-6011
▁वास्तविकता	-6012
▁पूरक	-6013
▁जिनसे	-6014
▁प्रतीक्षा	-6015
▁क्लब	-6016
▁सेमी	-6017
▁दृष्टया	-6018
▁सावधानीपूर्वक	-6019
▁जजों	-6020
▁शोषण	-6021
कारिता	-6022
▁भत्ता	-6023
▁ग्रस्त	-6024
▁इंत	-6025
▁हरि	-6026
▁अतीत	-6027
▁हमले	-6028
▁फॉर	-6029
▁मेर	-6030
▁ईसाई	-6031
▁रसीद	-6032
▁समझे	-6033
▁अपरिहार्य	-6034
▁क्रियान्व	-6035
ख्य	-6036
लिसिटर	-6037
▁स्थगन	-6038
▁चतु	-6039
▁सड़	-6040
▁कड़ी	-6041
▁कागज	-6042
▁प्रकटीकरण	-6043
ag	-6044
▁आवेदनों	-6045
▁r	-6046
▁विनिश्च	-6047
▁भारतीयों	-6048
▁उसको	-6049
▁कम्पनी	-6050
▁प्रसंस्क	-6051
कोश	-6052
ायंस	-6053
्राव	-6054
▁पैकेज	-6055
▁समझौतों	-6056
नीति	-6057
▁दबा	-6058
▁समेकित	-6059
▁नियंत्रक	-6060
ut	-6061
्डी	-6062
▁मरी	-6063
▁धातु	-6064
▁इकट्ठा	-6065
▁मेघ	-6066
▁नेत्र	-6067
▁असामान्य	-6068
ेड़	-6069
▁ग़	-6070
▁पटना	-6071
▁सॉलिसिटर	-6072
▁परिसम	-6073
▁कन	-6074
▁घु	-6075
वेदन	-6076
▁न्यास	-6077
▁विकृत	-6078
▁पारस्प	-6079
▁IV	-6080
▁परम्प	-6081
▁वैवाहिक	-6082
▁प्रारम्भ	-6083
▁उत्तराधिकारी	-6084
▁मृ	-6085
एसआई	-6086
्सीय	-6087
▁मनमाना	-6088
जाम	-6089
ूरक	-6090
▁गहराई	-6091
▁प्रतिस्पर्धा	-6092
▁भक्ति	-6093
▁व्यापारी	-6094
▁बनाती	-6095
ज्ञेय	-6096
▁विरोधाभास	-6097
▁पौधे	-6098
▁जवाहर	-6099
▁पुनर्ग	-6100
▁नगरपालिका	-6101
ay	-6102
ुत्व	-6103
कियों	-6104
▁नीतिगत	-6105
▁सीम	-6106
धिकृत	-6107
▁बोलने	-6108
गान	-6109
ation	-6110
▁प्रभाग	-6111
▁मंत्रिपरिषद	-6112
▁बंबई	-6113
हल	-6114
▁पढ़े	-6115
▁बंदर	-6116
▁दरवाजा	-6117
▁कनेक्शन	-6118
▁टेलीफोन	-6119
▁आपत्तियों	-6120
वती	-6121
दृश्य	-6122
▁प्रान्त	-6123
▁पॉ	-6124
▁श्व	-6125
▁गोला	-6126
▁वरीय	-6127
ॉलर	-6128
▁सारांश	-6129
▁समायोजन	-6130
▁पारस्परिक	-6131
▁लैंड	-6132
▁गवर्नर	-6133
▁भेंट	-6134
▁अपहरण	-6135
▁रचनात्मक	-6136
▁डिफ	-6137
▁मौके	-6138
▁समृद्धि	-6139
▁तृ	-6140
▁क्रांति	-6141
▁महाराजा	-6142
▁आइट	-6143
▁आल	-6144
त्रिम	-6145
▁दाह	-6146
▁चोरी	-6147
▁मसौदा	-6148
▁परिश्रम	-6149
▁दि	-6150
▁पड	-6151
वाणी	-6152
▁सीधा	-6153
▁क्लिक	-6154
▁फलस्वरूप	-6155
यल	-6156
र्थी	-6157
▁ब्यू	-6158
▁चार्ट	-6159
▁निचले	-6160
▁फ्रांस	-6161
▁ज़्यादा	-6162
▁बाँ	-6163
ंजस्य	-6164
दर्शिता	-6165
▁लोकसभा	-6166
▁प्रेषित	-6167
▁सकेगी	-6168
▁समझता	-6169
ावट	-6170
▁लॉग	-6171
▁हरे	-6172
देशक	-6173
▁and	-6174
▁क्षण	-6175
▁शांत	-6176
▁राजमार्ग	-6177
▁उपभोक्ताओं	-6178
्टम	-6179
▁चिप	-6180
▁सिने	-6181
▁मंज	-6182
▁हड़	-6183
▁इब	-6184
▁खंडों	-6185
▁बायोम	-6186
▁वार्ता	-6187
▁वस्तुतः	-6188
▁अभिव्यक्त	-6189
▁पंचाट	-6190
▁फाइ	-6191
▁सदी	-6192
▁बताओ	-6193
▁मोटे	-6194
०वीं	-6195
▁मानी	-6196
▁गाड़ी	-6197
▁पहच	-6198
▁मुंह	-6199
▁मुला	-6200
▁खूब	-6201
▁कृत्रिम	-6202
▁पत्रिका	-6203
▁अंतरिक्ष	-6204
▁छि	-6205
▁फोरम	-6206
▁सामान्यतः	-6207
▁खिल	-6208
▁कोलकाता	-6209
▁प्रथाओं	-6210
वत	-6211
▁दौरा	-6212
▁नस्ल	-6213
▁परमिट	-6214
▁इसीलिए	-6215
▁संयोजन	-6216
▁सिद्धान्त	-6217
▁amp	-6218
▁जता	-6219
▁गुफा	-6220
▁नौकर	-6221
▁अवहेल	-6222
▁उपभोग	-6223
▁आंकड़े	-6224
▁मैत्री	-6225
▁पर्यावरणीय	-6226
फ़ी	-6227
▁कमा	-6228
▁अक्त	-6229
▁विवेका	-6230
▁सेक्टर	-6231
ार्थियों	-6232
▁प्रसंस्करण	-6233
कात	-6234
▁कॉलेजों	-6235
▁परम्परा	-6236
एनए	-6237
रचना	-6238
▁संपदा	-6239
▁अभिन्न	-6240
▁मूर्ति	-6241
▁अखंड	-6242
▁अभिव	-6243
▁रेडियो	-6244
▁सामंजस्य	-6245
अप	-6246
▁रखकर	-6247
▁संपन्न	-6248
▁सतर्कता	-6249
▁उन्मूलन	-6250
▁लोकायुक्त	-6251
▁लाभकारी	-6252
▁विशेषज्ञों	-6253
हाई	-6254
▁धु	-6255
▁चीजें	-6256
▁जितनी	-6257
ोकन	-6258
▁पॉलिसी	-6259
▁टू	-6260
▁बांग	-6261
▁अवहेलना	-6262
▁निर्माताओं	-6263
▁मनी	-6264
ल्पित	-6265
▁टर्म	-6266
▁पचास	-6267
▁संकीर्ण	-6268
पट	-6269
▁अभिला	-6270
▁इंकार	-6271
▁बिलकुल	-6272
▁स्वचालित	-6273
▁एपी	-6274
▁लाए	-6275
▁इस्लामी	-6276
गन	-6277
▁आवि	-6278
▁कही	-6279
्योति	-6280
▁जीवा	-6281
▁स्वे	-6282
▁जनादेश	-6283
▁संवेदनशील	-6284
म्मा	-6285
▁नाथ	-6286
▁टक	-6287
▁टिकट	-6288
▁चरणों	-6289
▁हिमालय	-6290
▁रिलायंस	-6291
▁समायोजित	-6292
▁देगी	-6293
▁सब्स	-6294
▁फायदा	-6295
▁सार्थ	-6296
▁उन्हीं	-6297
▁मिलेगी	-6298
▁आइटम	-6299
▁रिफ	-6300
▁मोड़	-6301
▁थोड़ी	-6302
▁दूरस्थ	-6303
III	-6304
▁१७	-6305
▁द्वि	-6306
▁संध्या	-6307
▁स्रोतों	-6308
▁एक्सचेंज	-6309
लक	-6310
▁विधवा	-6311
केल	-6312
▁देशी	-6313
▁ठाकुर	-6314
▁रोकना	-6315
▁वस्त्र	-6316
▁चिकित्सीय	-6317
▁गज	-6318
▁तापमान	-6319
▁निष्कासन	-6320
मिक	-6321
▁जू	-6322
▁रसायन	-6323
पु	-6324
िणी	-6325
▁भु	-6326
▁अधीक्षक	-6327
▁सार्वभौ	-6328
▁प्रक्रियात्मक	-6329
▁मस्	-6330
▁मरम्मत	-6331
▁ऑटो	-6332
▁जाग	-6333
▁नमूने	-6334
han	-6335
▁दक्षिणी	-6336
▁निर्विवाद	-6337
वेल	-6338
DA	-6339
▁रेग	-6340
▁आनुपात	-6341
▁अभियंता	-6342
ब्ज	-6343
▁शल	-6344
▁छाया	-6345
ीली	-6346
▁लार	-6347
▁पांड	-6348
▁फंसा	-6349
▁नियमन	-6350
▁प्रीम	-6351
भूतियों	-6352
▁तंत्रिका	-6353
IT	-6354
ेक्टर	-6355
▁कट्ट	-6356
▁उपेक्षा	-6357
▁साहित्यिक	-6358
्रेम	-6359
▁माने	-6360
▁समझना	-6361
▁आरंभिक	-6362
ेडकर	-6363
▁दत्त	-6364
▁ज्व	-6365
▁भरी	-6366
िवर्त	-6367
▁उग्र	-6368
▁अक्तूबर	-6369
▁ड्राफ्ट	-6370
▁अस्वीकृति	-6371
घर	-6372
▁बन्द	-6373
ूण	-6374
▁बग	-6375
▁उपज	-6376
▁निधन	-6377
▁नवा	-6378
▁क्रमांक	-6379
चंद	-6380
ब्बे	-6381
चंद्र	-6382
▁निवासियों	-6383
्ज़	-6384
िक्र	-6385
▁ऑपरेशन	-6386
▁दुर्बल	-6387
▁रवीन्द्रनाथ	-6388
▁प्रतिद्वंद्वी	-6389
्को	-6390
▁AP	-6391
र्ता	-6392
▁लगती	-6393
▁जोड़े	-6394
▁पट्टी	-6395
▁हिसाब	-6396
▁कार्मिक	-6397
▁विद्रोह	-6398
▁अधिनियमन	-6399
▁यथार्थ	-6400
▁खट	-6401
▁इंट	-6402
▁हानिक	-6403
विंद	-6404
▁बहि	-6405
▁कहां	-6406
▁बेदख	-6407
▁लड़ने	-6408
▁तिल	-6409
▁बोध	-6410
ब्ब	-6411
▁एव	-6412
▁रिव	-6413
▁आपसी	-6414
▁सचेत	-6415
मार्टम	-6416
▁सच्चाई	-6417
▁व्युत्प	-6418
▁पहुंचाने	-6419
▁माध्यस्थ	-6420
▁मंत्रियों	-6421
▁अमर	-6422
िमांड	-6423
▁गौरव	-6424
जीसी	-6425
▁चुक	-6426
▁लोह	-6427
अंदाज	-6428
▁बीमाकर्ता	-6429
▁पोस्टमार्टम	-6430
▁अज	-6431
वकों	-6432
▁गड़	-6433
▁जरूरतों	-6434
▁टैग	-6435
▁मस्ज	-6436
▁ऊंचाई	-6437
▁विश्वसनीयता	-6438
इज	-6439
दायक	-6440
▁सोल	-6441
▁लगने	-6442
▁द्विपक्षीय	-6443
्हा	-6444
स्वामी	-6445
▁पिछड़े	-6446
वर्ड	-6447
िवारिक	-6448
▁कोयले	-6449
ro	-6450
▁तैना	-6451
▁अर्जी	-6452
▁नामों	-6453
दीप	-6454
▁उदय	-6455
▁इस्ती	-6456
▁निदेशकों	-6457
्पद	-6458
▁अड्ड	-6459
▁खासकर	-6460
ूष	-6461
▁शक	-6462
▁उत्तम	-6463
्की	-6464
▁असंत	-6465
▁भेजी	-6466
▁लाना	-6467
▁चोटें	-6468
▁विघटन	-6469
▁विवरणों	-6470
▁अपमानजनक	-6471
▁संस्थागत	-6472
▁कुट	-6473
▁झुक	-6474
▁महाव	-6475
▁उपलब्धि	-6476
▁पारिवारिक	-6477
ष्णु	-6478
▁साहस	-6479
▁जिलों	-6480
▁निरंतरता	-6481
▁रेश	-6482
▁पृथक	-6483
▁प्लेट	-6484
▁युक्ति	-6485
▁सिफारिशें	-6486
▁रिकॉर्डिंग	-6487
▁किल	-6488
▁सतत	-6489
▁माइक्र	-6490
▁बीत	-6491
▁स्टील	-6492
▁अन्वेषण	-6493
▁निर्देशिका	-6494
▁नियुक्तियों	-6495
दिक	-6496
्टा	-6497
▁असली	-6498
▁कराना	-6499
▁टिप्पण	-6500
▁पट्टेदार	-6501
ंथी	-6502
▁दण्ड	-6503
▁मारा	-6504
▁लंबा	-6505
▁दशकों	-6506
▁पुनराव	-6507
▁वरीयता	-6508
▁स्तरीय	-6509
▁सांवि	-6510
▁टो	-6511
ूल्य	-6512
▁ढांचा	-6513
▁भारती	-6514
ोज़	-6515
्यौ	-6516
▁कामना	-6517
▁पंडित	-6518
िडी	-6519
▁पेर	-6520
बिर	-6521
▁अंकों	-6522
▁पहाड़ी	-6523
▁निष्पक्षता	-6524
्लाह	-6525
▁कहला	-6526
▁वक्फ	-6527
▁याता	-6528
ठा	-6529
▁अवय	-6530
▁देखता	-6531
▁आंकड़ों	-6532
▁अनुज्ञात	-6533
सों	-6534
▁उभ	-6535
▁बेश	-6536
थाम	-6537
▁केंद्रों	-6538
▁प्रतिसाद	-6539
िपल	-6540
ंदगी	-6541
▁रवि	-6542
▁हिल	-6543
▁ग्री	-6544
▁फैला	-6545
र्जन	-6546
▁षड्य	-6547
▁जायें	-6548
▁रूपांतरण	-6549
um	-6550
दल	-6551
▁शोक	-6552
▁चित्रण	-6553
▁जानवरों	-6554
▁सम्पत्ति	-6555
▁आधारभूत	-6556
जिए	-6557
▁नाक	-6558
▁मंजूर	-6559
▁निषिद्ध	-6560
▁‘‘	-6561
▁चश्मदी	-6562
▁अभ्य	-6563
▁प्रशिक्षित	-6564
्वेष	-6565
▁अवर	-6566
▁शोर	-6567
ंद्रह	-6568
▁प्रजनन	-6569
▁रिजर्व	-6570
▁झा	-6571
▁पाप	-6572
ज्जित	-6573
▁विनि	-6574
त्रियों	-6575
▁ठहराने	-6576
▁परिवेश	-6577
▁मानवता	-6578
रद	-6579
▁नग	-6580
▁चां	-6581
▁बिता	-6582
▁ग्राफ	-6583
▁ट्यूब	-6584
▁पुष्प	-6585
▁तर्कों	-6586
आईटी	-6587
▁आनु	-6588
▁कबूल	-6589
▁नींव	-6590
▁सुपर	-6591
▁कच्चे	-6592
▁टेस्ट	-6593
▁पंद्रह	-6594
▁महल	-6595
▁मिश्रण	-6596
▁यातायात	-6597
CT	-6598
▁अनन्य	-6599
▁तीर्थ	-6600
▁ऑस्ट्रेलिया	-6601
ायण	-6602
▁कौर	-6603
▁बैच	-6604
▁रेड्डी	-6605
im	-6606
▁हाँ	-6607
▁महाप	-6608
▁कोशिकाओं	-6609
▁तर्कसंगत	-6610
िश्न	-6611
▁मरा	-6612
▁नजरअंदाज	-6613
डन	-6614
▁नेन	-6615
▁शास्त्र	-6616
▁केश	-6617
▁रोम	-6618
्राफी	-6619
▁जंगल	-6620
▁खोजने	-6621
▁मुफ्त	-6622
▁ज्योति	-6623
▁मनमानी	-6624
बन	-6625
इयां	-6626
▁संकाय	-6627
▁एमसीआई	-6628
▁निकलने	-6629
▁प्रतिरक्षा	-6630
▁भक्त	-6631
▁अस्थिर	-6632
▁युवाओं	-6633
▁डॉक्टरों	-6634
मैन	-6635
▁ढूं	-6636
▁क्यू	-6637
▁डीएनए	-6638
▁रोकथाम	-6639
▁अदालतें	-6640
▁समुदायों	-6641
पल	-6642
▁बदला	-6643
▁बहाली	-6644
▁लेवी	-6645
▁शासक	-6646
▁आत्मसम	-6647
ेट्रिक	-6648
▁......	-6649
▁अमरीका	-6650
▁दलीलों	-6651
▁विनिश्चय	-6652
शाह	-6653
ेबल	-6654
▁किन्	-6655
▁भीड़	-6656
▁मैसर्स	-6657
▁सफलतापूर्वक	-6658
याल	-6659
▁बैक	-6660
▁निवेदन	-6661
▁षड्यंत्र	-6662
▁झग	-6663
▁झु	-6664
संचार	-6665
▁मानो	-6666
▁कार्यालयों	-6667
मि	-6668
सास	-6669
जाने	-6670
▁उलट	-6671
▁हुस	-6672
▁हेड	-6673
▁चरम	-6674
क्षकों	-6675
▁रिज़र्व	-6676
सेना	-6677
▁बेर	-6678
▁सिख	-6679
▁कस्ट	-6680
▁ताजा	-6681
▁सेक्शन	-6682
▁प्रतिवाद	-6683
▁खर्	-6684
▁तलाक	-6685
▁प्लस	-6686
▁मुलाकात	-6687
▁व्यापारिक	-6688
▁नमूना	-6689
प्राप्त	-6690
▁प्रतिल	-6691
▁गिराव	-6692
▁वनस्प	-6693
▁कन्वेंशन	-6694
▁प्रयोज्यता	-6695
कै	-6696
▁फोटो	-6697
▁उठाना	-6698
▁जुट	-6699
▁रॉयल	-6700
▁भाग्य	-6701
▁अधिरोपित	-6702
▁पीछा	-6703
▁लेंगे	-6704
▁उपय	-6705
▁दोप	-6706
▁हार्ड	-6707
▁उधारकर्ता	-6708
राइट	-6709
▁अनुर	-6710
▁तस्क	-6711
▁अवरोध	-6712
▁निंदा	-6713
▁स्ट्र	-6714
इल	-6715
▁सकेंगे	-6716
▁प्रस्तावना	-6717
▁ऑड	-6718
पीएस	-6719
बिंब	-6720
▁मधु	-6721
▁गुंजा	-6722
▁ब्यूरो	-6723
▁बांग्ला	-6724
ाए	-6725
▁चू	-6726
▁तम	-6727
ांतर	-6728
▁धान	-6729
▁अलगाव	-6730
▁गिरावट	-6731
ावन	-6732
▁डॉलर	-6733
▁मुना	-6734
▁भांति	-6735
ानुभूति	-6736
▁खनिजों	-6737
▁लाभांश	-6738
ao	-6739
▁राधा	-6740
▁प्लान	-6741
▁सवालों	-6742
▁सार्थक	-6743
▁प्रतिबिंब	-6744
▁आत्मसमर्पण	-6745
▁प्रतिभूतियों	-6746
▁इंस्प	-6747
त्तियां	-6748
▁शस्त्र	-6749
▁जुल	-6750
▁एक्सट	-6751
▁परिस्थितियां	-6752
▁दौड़	-6753
▁अंकित	-6754
दायित्व	-6755
▁अखंडता	-6756
▁विनिया	-6757
▁मुकदमों	-6758
▁दूरसंचार	-6759
▁ड़	-6760
म्बई	-6761
▁कनाडा	-6762
▁चिन्ह	-6763
▁पर्वत	-6764
▁वृद्ध	-6765
▁अंग्रेज	-6766
▁प्रीमियम	-6767
▁पाइप	-6768
▁समकालीन	-6769
मै	-6770
▁गू	-6771
▁प्रोफ	-6772
▁उत्पादक	-6773
▁अनुमानित	-6774
ir	-6775
▁निलंबित	-6776
▁अपराधियों	-6777
्किक	-6778
▁vii	-6779
▁बहाद	-6780
▁खरीदारों	-6781
▁पुनर्गठन	-6782
▁प्रतिष्ठान	-6783
▁दुःख	-6784
▁जर्मनी	-6785
▁ड्रग	-6786
▁उर्वर	-6787
▁शत्रुता	-6788
▁नाइ	-6789
▁शरण	-6790
▁स्त्र	-6791
▁अनदेखी	-6792
▁भागीदार	-6793
▁वस्तुएं	-6794
ापक	-6795
▁कीं	-6796
▁जाओ	-6797
▁नाज	-6798
▁माय	-6799
▁सुधारने	-6800
ab	-6801
र्टिफ	-6802
▁उद्यान	-6803
ांसी	-6804
्याम	-6805
▁चंडी	-6806
▁चुनौतियों	-6807
OR	-6808
जीवी	-6809
▁अत्यन्त	-6810
▁परिप्रे	-6811
ढ़े	-6812
्रीज	-6813
▁लाई	-6814
▁आईडी	-6815
▁कारखाने	-6816
▁बर्खास्तगी	-6817
▁विद्यार्थी	-6818
आरसी	-6819
ड़िया	-6820
शियों	-6821
▁यादव	-6822
▁माध्यमिक	-6823
▁बायोमेट्रिक	-6824
बु	-6825
केश	-6826
▁समाम	-6827
▁डेवलप	-6828
ैम	-6829
▁टेन	-6830
▁डिब	-6831
▁भावनाओं	-6832
▁तद	-6833
लापों	-6834
▁नर्स	-6835
▁मातृ	-6836
बेस	-6837
बंदी	-6838
ोपाल	-6839
▁पोल	-6840
▁गार्ड	-6841
▁परिदृश्य	-6842
▁संभावनाओं	-6843
▁किरायेदारी	-6844
स्थल	-6845
्यांश	-6846
▁पोजी	-6847
▁बुरी	-6848
रीक्षा	-6849
▁जानकर	-6850
▁जापान	-6851
▁शानदार	-6852
▁गुंजाइश	-6853
▁प्रणालियों	-6854
▁छुप	-6855
▁मस्जिद	-6856
▁मुखबिर	-6857
▁रजिस्ट्रीकरण	-6858
ल्ल	-6859
ित्य	-6860
▁धरती	-6861
▁दवाओं	-6862
▁दोपहर	-6863
▁स्नात	-6864
▁हड्डी	-6865
▁सातवीं	-6866
▁अनुक्रम	-6867
प्ति	-6868
▁मुझसे	-6869
▁हटाया	-6870
▁प्रवर्त	-6871
▁किरायेदारों	-6872
▁नाल	-6873
▁नास	-6874
▁पहन	-6875
▁परिल	-6876
▁मुख्या	-6877
▁संरक्षक	-6878
ोश	-6879
ुलर	-6880
▁आपस	-6881
▁पशुओं	-6882
▁शिल्प	-6883
▁चेन्नई	-6884
▁पूर्वगामी	-6885
▁घुस	-6886
▁विज	-6887
ON	-6888
▁आधे	-6889
▁चैतन	-6890
▁सर्ज	-6891
▁सिटी	-6892
▁पड़ती	-6893
▁प्रविष्टियों	-6894
un	-6895
▁झार	-6896
▁मकस	-6897
▁चावल	-6898
▁सड़कों	-6899
ेस	-6900
▁बनना	-6901
▁उपयोगिता	-6902
ियार	-6903
▁इन्	-6904
▁अभिर	-6905
▁उतनी	-6906
▁बाधित	-6907
▁मापदंडों	-6908
सेट	-6909
▁हाइ	-6910
▁पेपर	-6911
▁पब्लिक	-6912
▁प्रतिबद्धता	-6913
िमा	-6914
डिंग	-6915
नेशनल	-6916
▁अंगों	-6917
▁प्रपत्र	-6918
▁विनियामक	-6919
BI	-6920
ART	-6921
साई	-6922
विंग	-6923
▁जॉन	-6924
▁वॉल	-6925
▁बैठकों	-6926
▁एसटी	-6927
▁डोमेन	-6928
▁सदनों	-6929
▁सिनेमा	-6930
▁राजभाषा	-6931
▁तरल	-6932
ास्पद	-6933
▁जमींद	-6934
▁अनुलग्न	-6935
▁फ़ोल्डर	-6936
▁फस	-6937
▁जाएँ	-6938
▁कदाचार	-6939
▁पूर्णता	-6940
▁उत्तरदायित्व	-6941
▁खपत	-6942
▁महानिदेशक	-6943
ायन	-6944
▁भाष	-6945
▁संदेय	-6946
▁किंग	-6947
▁बेचा	-6948
▁स्मरण	-6949
▁इंडस्ट	-6950
िर्धारित	-6951
▁संतुलित	-6952
▁साहब	-6953
▁कड़ाई	-6954
▁निवेशकों	-6955
▁हानिकारक	-6956
▁चमक	-6957
▁मकसद	-6958
▁नियोजन	-6959
▁अनधिकृत	-6960
▁आकांक्षा	-6961
▁चैतन्य	-6962
▁तत्त्व	-6963
▁दार्शन	-6964
▁पोजीशन	-6965
▁परिवर्तनों	-6966
▁चम	-6967
▁हॉ	-6968
िम्ब	-6969
▁बिट	-6970
▁राह	-6971
▁मछली	-6972
▁धारकों	-6973
▁रिकार्ड	-6974
▁परिप्रेक्ष्य	-6975
ाइयों	-6976
▁अभिगम	-6977
▁चुनें	-6978
▁निर्वाह	-6979
▁पेट्रोलियम	-6980
▁नोस	-6981
▁पराज	-6982
▁सीमेंट	-6983
▁योजनाएं	-6984
▁फु	-6985
ीर्ण	-6986
▁भरप	-6987
▁सीई	-6988
▁त्रिप	-6989
जनों	-6990
वाने	-6991
▁फास	-6992
▁स्ल	-6993
▁स्वप	-6994
▁फैक्ट	-6995
▁महाभारत	-6996
कीन	-6997
गोलिक	-6998
▁होल्ड	-6999
श्रेष्ठ	-7000
▁दृढ़ता	-7001
▁ईमानदारी	-7002
▁अधिवक्ताओं	-7003
▁भेदभावपूर्ण	-7004
IV	-7005
प्रद	-7006
▁नदियों	-7007
▁अयस्क	-7008
▁धन्यवाद	-7009
▁मिश्रित	-7010
▁निरीक्षक	-7011
▁at	-7012
▁वीड	-7013
▁मंशा	-7014
▁व्युत्पन्न	-7015
▁लगते	-7016
▁चश्मदीद	-7017
▁इम	-7018
▁लखन	-7019
▁निका	-7020
▁समता	-7021
▁खर्चों	-7022
नेस	-7023
▁नज	-7024
▁पते	-7025
▁बेहद	-7026
▁अनाज	-7027
▁दोनो	-7028
▁कुशलता	-7029
▁भौगोलिक	-7030
हान	-7031
▁कर्ण	-7032
▁श्वे	-7033
वेद	-7034
▁दुग	-7035
▁अल्ट	-7036
▁गिरवी	-7037
▁हजारों	-7038
▁सहानुभूति	-7039
▁औषध	-7040
ँग	-7041
थन	-7042
▁दाम	-7043
▁पीने	-7044
▁स्ने	-7045
▁मैसूर	-7046
▁सम्बंध	-7047
▁सूचनाओं	-7048
▁बडी	-7049
▁बढ़ता	-7050
▁सम्रा	-7051
▁सर्टिफ	-7052
लेस	-7053
ोरेंस	-7054
▁उन्होने	-7055
▁परिपक्व	-7056
▁पारदर्शिता	-7057
कोष	-7058
पेश	-7059
▁मारने	-7060
▁संतोषजनक	-7061
▁पुल	-7062
▁पैट	-7063
ेक्शन	-7064
कृष्णन	-7065
▁निस्त	-7066
▁अमरीकी	-7067
▁पर्यवेक्षण	-7068
शित	-7069
▁पुस्तिका	-7070
ोई	-7071
व्यापी	-7072
संरचना	-7073
▁अभिलाभ	-7074
▁रेखांकित	-7075
▁पन	-7076
▁अमी	-7077
▁कुरान	-7078
▁जूनियर	-7079
विजन	-7080
▁चालान	-7081
▁आयातित	-7082
▁पालिसी	-7083
▁लक्ष्यों	-7084
▁स्क्र	-7085
▁अभिप्र	-7086
▁एकत्रित	-7087
दनी	-7088
निय	-7089
▁निभ	-7090
▁स्वायत्तता	-7091
▁क्	-7092
▁डाउ	-7093
▁ईरान	-7094
▁याची	-7095
ंबेडकर	-7096
▁भगवान्	-7097
ul	-7098
▁छोड	-7099
क्तिक	-7100
▁निःश	-7101
▁सोचते	-7102
▁निष्ठा	-7103
▁क्रियाक	-7104
▁रोगियों	-7105
▁शिक्षित	-7106
▁प्रभार्य	-7107
▁दम	-7108
▁दांत	-7109
▁पीपी	-7110
▁पड़ने	-7111
▁घनिष्ठ	-7112
▁शाखाओं	-7113
▁जागरूकता	-7114
▁याचिकाएं	-7115
ak	-7116
▁कहे	-7117
▁बिग	-7118
▁सोम	-7119
▁ट्रैक	-7120
▁जायेगी	-7121
▁लेखकों	-7122
▁सर्वश्रेष्ठ	-7123
शोथ	-7124
▁आयी	-7125
▁PART	-7126
▁घाटी	-7127
▁डाले	-7128
▁गोपनीय	-7129
▁किन्हीं	-7130
ंपी	-7131
वंत	-7132
▁कच	-7133
▁एमएस	-7134
▁कृति	-7135
▁देनी	-7136
▁सिन्	-7137
▁ऑडियो	-7138
▁सीखने	-7139
▁कहाँ	-7140
▁चंडीगढ़	-7141
▁जवाहरलाल	-7142
कारियों	-7143
▁कमियों	-7144
▁दस्तावेजी	-7145
▁चिल	-7146
▁इस्प	-7147
▁एकदम	-7148
▁पुष्ट	-7149
▁यात्री	-7150
▁मुगल	-7151
▁काल्प	-7152
▁रोगों	-7153
▁प्रिंट	-7154
▁रिपोर्टों	-7155
▁कार्यान्वित	-7156
▁१८	-7157
▁हरी	-7158
▁सेवन	-7159
▁सब्सिडी	-7160
▁ज्यादातर	-7161
▁विद्वानों	-7162
IC	-7163
विल	-7164
▁छेड़	-7165
▁पुराना	-7166
▁फंसाया	-7167
ज़े	-7168
▁गिन	-7169
▁पाठ्यक्रमों	-7170
नर	-7171
▁गायब	-7172
ंगों	-7173
वायद	-7174
▁बड़	-7175
▁सकी	-7176
▁बढ़कर	-7177
▁शान्त	-7178
यिक	-7179
▁आपसे	-7180
▁पुरूष	-7181
▁साझेदारी	-7182
▁इंस्पेक्टर	-7183
▁नल	-7184
पाली	-7185
▁काला	-7186
▁कॉरप	-7187
▁कवायद	-7188
▁निकासी	-7189
ोसी	-7190
▁सीता	-7191
▁जानें	-7192
▁समर्पण	-7193
▁बंदरगाह	-7194
ET	-7195
ंसर	-7196
▁सौंपे	-7197
▁पूर्णतः	-7198
वण	-7199
वाँ	-7200
नलोड	-7201
▁फीट	-7202
▁लौटा	-7203
▁विवरणी	-7204
▁एक्सप्रेस	-7205
स्म	-7206
▁टाइप	-7207
▁उर्दू	-7208
▁पट्टों	-7209
▁उपक्रमों	-7210
तें	-7211
▁आपदा	-7212
▁गहरे	-7213
▁मंडप	-7214
▁इंतजार	-7215
▁अपेक्षाकृत	-7216
▁वैज्ञानिकों	-7217
ापित	-7218
ेक्स	-7219
▁अंजाम	-7220
▁वाद्य	-7221
▁सम्भव	-7222
▁सीटों	-7223
▁नवीनीकरण	-7224
▁चर	-7225
केशन	-7226
▁गड़ब	-7227
▁प्रभावशाली	-7228
xx	-7229
विका	-7230
▁पढ़ना	-7231
▁श्रमिक	-7232
बीन	-7233
▁न्	-7234
▁जयपुर	-7235
▁मिसाल	-7236
▁पुनरावृत्ति	-7237
ce	-7238
याव	-7239
▁खेत	-7240
मार्क	-7241
▁कोटा	-7242
▁क्रांतिक	-7243
स्टिक	-7244
ृत्यु	-7245
▁अधिश	-7246
▁प्रम	-7247
▁पढ	-7248
▁कठिनाइयों	-7249
▁प्रतिबंधों	-7250
▁ध्वज	-7251
▁तुर्की	-7252
▁अंग्रेजों	-7253
ढ़ा	-7254
▁अच	-7255
र्नल	-7256
▁हाथी	-7257
▁गर्भा	-7258
▁ग्रीन	-7259
▁कीमतों	-7260
▁तार्किक	-7261
▁बुलाने	-7262
▁एह	-7263
▁पटेल	-7264
▁चुकता	-7265
▁जीवों	-7266
▁स्वेच्छा	-7267
ॉल्व	-7268
▁आज़	-7269
▁जैविक	-7270
▁प्रोज	-7271
िपत्य	-7272
िरपेक्ष	-7273
▁इस्पात	-7274
▁विष्णु	-7275
▁अनुपस्थित	-7276
ES	-7277
▁समन	-7278
▁रिवा	-7279
▁निरूप	-7280
▁शुरूआ	-7281
▁उद्यमों	-7282
न्दर	-7283
नाइटेड	-7284
▁अभिनय	-7285
▁सेंटर	-7286
▁हेक्ट	-7287
▁विचारधारा	-7288
विन	-7289
▁तू	-7290
रेटर	-7291
िमंडल	-7292
▁हाइड	-7293
▁काल्पनिक	-7294
शु	-7295
्टन	-7296
▁निभाई	-7297
▁प्रां	-7298
▁अभिभाव	-7299
▁वित्तप	-7300
ोधन	-7301
▁छू	-7302
▁स्न	-7303
▁पुणे	-7304
▁तैनात	-7305
▁आखिरकार	-7306
ॉर	-7307
ावी	-7308
▁बृ	-7309
▁गुरू	-7310
▁स्पी	-7311
ॉल्यूशन	-7312
▁क्रिस्ट	-7313
▁लक्ष्मी	-7314
▁संस्थाप	-7315
▁अनुलग्नक	-7316
किट	-7317
मेय	-7318
▁असी	-7319
▁सिन्हा	-7320
▁बिंदुओं	-7321
▁सम्पर्क	-7322
सेस	-7323
आईएल	-7324
▁नाय	-7325
▁बीएस	-7326
▁विस्फोटक	-7327
क्सा	-7328
गारों	-7329
▁पिटी	-7330
▁गर्मी	-7331
डम	-7332
दह	-7333
▁घो	-7334
▁घास	-7335
▁पाठक	-7336
▁लगाते	-7337
▁सभापति	-7338
ासित	-7339
▁एआई	-7340
▁बेशक	-7341
▁सहभाग	-7342
▁मैट्रिक	-7343
▁वाक्यांश	-7344
og	-7345
धक	-7346
▁खटख	-7347
▁सीडी	-7348
▁विच्छेद	-7349
▁मुख्यालय	-7350
▁प्रदर्शनी	-7351
▁राष्ट्रों	-7352
लर	-7353
ter	-7354
▁ऋष	-7355
स्तर	-7356
▁तत्स	-7357
▁लोहे	-7358
▁फसलों	-7359
▁सर्टिफिकेट	-7360
▁पार्	-7361
▁कर्मियों	-7362
भूषण	-7363
मिया	-7364
▁गद्य	-7365
सिद्धि	-7366
▁छोड़ा	-7367
विश्वास	-7368
▁तस्करी	-7369
▁निलंबन	-7370
▁सांप्र	-7371
पू	-7372
मीन	-7373
▁हेल	-7374
▁भूषण	-7375
▁मानस	-7376
▁एंट्री	-7377
▁मिश्रा	-7378
▁व्यथित	-7379
▁डाउनलोड	-7380
▁प्रतिफल	-7381
िवे	-7382
▁झट	-7383
▁अद्व	-7384
▁गांधीजी	-7385
्थान	-7386
▁काली	-7387
▁अरुणा	-7388
▁फाउंड	-7389
▁व्यस्त	-7390
▁हिंदुओं	-7391
वाना	-7392
शाही	-7393
त्तीस	-7394
्यारह	-7395
▁आरआई	-7396
▁जानवर	-7397
▁प्रोटोक	-7398
्टे	-7399
▁संजय	-7400
▁डायरी	-7401
▁सौंपी	-7402
▁कमिश्न	-7403
▁निकालना	-7404
णि	-7405
ॉड	-7406
▁रन	-7407
्रीट	-7408
्रमिक	-7409
▁लायक	-7410
▁अनुया	-7411
▁गर्दन	-7412
▁लगाता	-7413
▁अवसंरचना	-7414
oc	-7415
har	-7416
▁फर्	-7417
▁बीसी	-7418
▁सामु	-7419
▁सेशन	-7420
▁स्टाफ	-7421
▁इंटरनेशनल	-7422
▁जनजातियों	-7423
▁अभिनिर्धारित	-7424
EL	-7425
डिश	-7426
सील	-7427
▁फौ	-7428
▁दुबई	-7429
▁भाष्	-7430
▁आवेदकों	-7431
▁ब्राह्मण	-7432
▁सांविधिक	-7433
▁स्त्रियों	-7434
ate	-7435
्यूल	-7436
▁मेज	-7437
▁झूठे	-7438
▁बंदी	-7439
▁सख्ती	-7440
▁निरपेक्ष	-7441
▁आधा	-7442
▁बलि	-7443
▁अर्थों	-7444
▁टुकड़े	-7445
▁मनमाने	-7446
▁नामांकित	-7447
चाप	-7448
▁IA	-7449
▁अमल	-7450
▁घृणा	-7451
▁चट्ट	-7452
▁मारे	-7453
▁संगत	-7454
▁कैंसर	-7455
▁खरीदी	-7456
शनी	-7457
िवर्स	-7458
▁ऑडिट	-7459
▁बलों	-7460
▁परिस्थितिजन्य	-7461
pp	-7462
▁ख्या	-7463
▁टिका	-7464
क्कर	-7465
▁हेम	-7466
स्ट्र	-7467
▁माला	-7468
▁झारखंड	-7469
▁रिश्वत	-7470
जो	-7471
ृश	-7472
▁वाई	-7473
▁सती	-7474
▁किमी	-7475
▁लखनऊ	-7476
▁प्लॉट	-7477
▁बहादुर	-7478
▁स्नातक	-7479
िस्थ	-7480
▁वन्य	-7481
▁निबंध	-7482
▁आकर्षक	-7483
▁निराशा	-7484
▁मतदाता	-7485
परक	-7486
▁कैम	-7487
▁अधीनता	-7488
▁सम्बन्धित	-7489
hi	-7490
ुड	-7491
ड़ना	-7492
▁दर्जा	-7493
▁मजदूर	-7494
▁मित्रों	-7495
▁प्रतिलिपि	-7496
▁आस्था	-7497
▁स्वाधीन	-7498
▁एए	-7499
▁चक	-7500
भासी	-7501
▁गीता	-7502
▁स्तन	-7503
▁स्टार	-7504
▁वाइ	-7505
▁निचली	-7506
▁वैदिक	-7507
▁शत्रु	-7508
िच	-7509
▁आम्र	-7510
▁अय्य	-7511
▁नज़र	-7512
▁कीटों	-7513
▁चौड़ाई	-7514
▁पुनर्निर्	-7515
ोला	-7516
गांठ	-7517
▁चाहेंगे	-7518
▁समावेशी	-7519
▁बहिष्कार	-7520
▁अहि	-7521
▁परत	-7522
▁बेई	-7523
▁वैन	-7524
▁बताती	-7525
▁इंदिरा	-7526
▁वांछित	-7527
▁माध्यस्थम्	-7528
ध्व	-7529
मुच	-7530
िर्ण	-7531
्यूर	-7532
्रता	-7533
▁घोर	-7534
▁जीने	-7535
▁पाये	-7536
वैज्ञानिक	-7537
▁आस्तियों	-7538
▁फाउंडेशन	-7539
▁न्यायशास्त्र	-7540
्लील	-7541
▁पेय	-7542
▁गर्व	-7543
▁ब्ला	-7544
▁ऊतक	-7545
▁ताज	-7546
▁तारा	-7547
▁आश्रित	-7548
▁पार्श्व	-7549
▁रूपरेखा	-7550
RA	-7551
दर्शक	-7552
▁विशेषताएं	-7553
▁सामान्यतया	-7554
▁अपनाए	-7555
▁बारूद	-7556
ंकी	-7557
ोटा	-7558
▁कोर	-7559
▁वाम	-7560
▁हमे	-7561
▁गणित	-7562
▁संवेद	-7563
▁पिटीशन	-7564
▁सार्वभौमिक	-7565
ीट	-7566
द्म	-7567
▁अहं	-7568
▁रूस	-7569
▁परिसी	-7570
▁प्रतिरोध	-7571
▁ऋणों	-7572
▁धाराओं	-7573
▁आम्रपाली	-7574
▁In	-7575
▁आएगा	-7576
▁संयम	-7577
कोत्तर	-7578
▁प्रयोक्ता	-7579
▁बडे	-7580
विष्ट	-7581
▁वादा	-7582
▁सोचने	-7583
▁ग्यारह	-7584
▁अत्याचार	-7585
ूला	-7586
सीएल	-7587
ील्ड	-7588
▁अभ्या	-7589
▁दुश्म	-7590
▁लेखाप	-7591
▁बढ़ाकर	-7592
▁वर्जित	-7593
▁सम्राट	-7594
▁तप	-7595
▁कंध	-7596
▁मिलना	-7597
▁अपशिष्ट	-7598
ज़न	-7599
▁घन	-7600
▁एके	-7601
▁देह	-7602
मान्य	-7603
▁बैठा	-7604
▁क्रिम	-7605
▁बंदूक	-7606
▁अश्लील	-7607
▁बढ़ाना	-7608
▁बल्लेबाज	-7609
▁प्रतिस्थापन	-7610
झा	-7611
▁बॉक्स	-7612
▁मंजिल	-7613
▁कुलपति	-7614
▁प्रतिमा	-7615
चेरी	-7616
▁मैन	-7617
▁बाढ़	-7618
▁सर्क	-7619
▁सृजित	-7620
▁शुरूआत	-7621
▁दार्शनिक	-7622
▁असल	-7623
▁वेश	-7624
▁वैय	-7625
्ति	-7626
▁कण	-7627
▁चर्च	-7628
▁सौंद	-7629
टरी	-7630
▁शर	-7631
बीएस	-7632
सायी	-7633
▁अफगान	-7634
▁उठाते	-7635
▁जानना	-7636
न्धन	-7637
▁नमक	-7638
▁अंडे	-7639
▁मारुति	-7640
▁किलोग्राम	-7641
▁रिश्तेदार	-7642
ia	-7643
▁अस्थि	-7644
▁यातना	-7645
▁चाहूंगा	-7646
▁अधिनिर्ण	-7647
▁यात्रियों	-7648
सीटीई	-7649
▁सचमुच	-7650
▁मुकाबले	-7651
▁सचिवालय	-7652
▁यूनाइटेड	-7653
▁स्नातकोत्तर	-7654
▁लीग	-7655
▁शीट	-7656
द्रिक	-7657
▁अग्नि	-7658
▁यूजीसी	-7659
▁स्मारक	-7660
▁अयोग्यता	-7661
▁अहमदाबाद	-7662
▁विकासशील	-7663
कक्ष	-7664
द्वीप	-7665
▁चौथे	-7666
▁अभिलेखों	-7667
▁ढल	-7668
▁डिक	-7669
▁रोल	-7670
▁हैंड	-7671
▁आबंटन	-7672
▁ज़रूर	-7673
▁तृतीय	-7674
▁प्रता	-7675
▁लिखते	-7676
▁कनेक्ट	-7677
▁विशुद्ध	-7678
ँस	-7679
नन	-7680
एमई	-7681
लित	-7682
▁ओं	-7683
डू	-7684
▁आश्रय	-7685
ुखी	-7686
▁संचित	-7687
▁उत्पत्ति	-7688
▁कंपनियां	-7689
▁हेक्टेयर	-7690
▁परिकल्पित	-7691
ud	-7692
▁दंत	-7693
▁अर्ज	-7694
▁देखो	-7695
▁सकने	-7696
▁अर्जन	-7697
▁उपाधि	-7698
▁प्रासंगिकता	-7699
पै	-7700
▁कोर्स	-7701
▁उत्कृष्टता	-7702
बली	-7703
▁जायेंगे	-7704
▁विनिधान	-7705
जाल	-7706
▁पठ	-7707
▁धूम	-7708
▁उठाई	-7709
▁खरीदा	-7710
▁भ्रूण	-7711
▁शाब्द	-7712
▁संकल्पना	-7713
ct	-7714
ers	-7715
▁अंडर	-7716
▁टीका	-7717
▁स्नेह	-7718
▁प्राणी	-7719
▁चित्रित	-7720
▁दिसम्बर	-7721
▁वक्तव्य	-7722
▁मील	-7723
▁कालेज	-7724
▁समस्याएं	-7725
▁सुसज्जित	-7726
ोनें	-7727
▁भोग	-7728
ेन्द्र	-7729
▁अपीलें	-7730
▁अपरिवर्त	-7731
▁नाव	-7732
▁मैच	-7733
▁सना	-7734
▁टीवी	-7735
▁पीडी	-7736
▁सन्न	-7737
▁आंखों	-7738
▁स्पर्श	-7739
▁आजीविका	-7740
▁आधिपत्य	-7741
्कर	-7742
▁जबरद	-7743
▁बेटा	-7744
ॉर्म	-7745
▁फेड	-7746
▁साठ	-7747
▁खोला	-7748
▁इच्छाम	-7749
▁ग्रन्थ	-7750
▁प्रोटीन	-7751
▁सुधारों	-7752
थि	-7753
ामिन	-7754
▁सूजन	-7755
▁लाखों	-7756
▁छत्तीस	-7757
▁वॉल्यूम	-7758
▁स्वर्गी	-7759
बिल	-7760
▁एडवो	-7761
▁सारणी	-7762
▁नवम्बर	-7763
▁कमिश्नर	-7764
▁कंस	-7765
▁एसपी	-7766
▁ब्राउ	-7767
▁दरवाजे	-7768
▁स्वप्न	-7769
▁सैनिकों	-7770
मोहन	-7771
▁माँग	-7772
तन्त्र	-7773
▁शाब्दिक	-7774
▁प्रख्यात	-7775
▁लड़कियों	-7776
▁स्वर्गीय	-7777
SC	-7778
▁टॉ	-7779
सूत्र	-7780
ुकता	-7781
ंताओं	-7782
▁एंटी	-7783
▁पक्षी	-7784
▁पढ़ाई	-7785
▁प्रिंस	-7786
▁सुविधाजनक	-7787
▁माध	-7788
▁किरण	-7789
▁बढ़ी	-7790
▁तदर्थ	-7791
▁रोशनी	-7792
▁संवर्ग	-7793
▁इच्छामृत्यु	-7794
वाट	-7795
्षेप	-7796
▁लाह	-7797
▁लेगा	-7798
▁समित	-7799
▁क्षमा	-7800
▁फ्रेम	-7801
▁श्वेत	-7802
▁संग्रहालय	-7803
सुर	-7804
ोरा	-7805
देशों	-7806
▁नर्म	-7807
▁हर्ष	-7808
▁जिसको	-7809
▁तालिका	-7810
▁मुख्यतः	-7811
PA	-7812
वेरी	-7813
▁आजाद	-7814
▁विजे	-7815
▁लिखना	-7816
▁सेक्स	-7817
▁एडवोकेट	-7818
▁संज्ञेय	-7819
▁सहयोगियों	-7820
कारा	-7821
▁गोरा	-7822
▁आविष्कार	-7823
▁कराए	-7824
▁देवताओं	-7825
▁लैंडिंग	-7826
रीब	-7827
▁मादा	-7828
▁सीएस	-7829
▁अधिवेशन	-7830
▁प्रक्रम	-7831
▁अविश्वास	-7832
▁पवित्रता	-7833
▁यांत्रिक	-7834
▁यूनिवर्स	-7835
▁ओपन	-7836
▁अनिल	-7837
▁आयाम	-7838
▁खदान	-7839
▁विदेशों	-7840
▁उत्तेजित	-7841
▁मणिप	-7842
▁राइट	-7843
▁वैसा	-7844
▁पारिश	-7845
▁प्रसारित	-7846
▁क्रियान्वयन	-7847
आईसी	-7848
ोपरि	-7849
▁चौदह	-7850
▁गेट	-7851
▁नक्	-7852
▁दादा	-7853
▁मेहता	-7854
राज्यपाल	-7855
▁ड्राइवर	-7856
▁पासपोर्ट	-7857
RI	-7858
बाई	-7859
▁एमओ	-7860
▁कॉन्	-7861
▁प्लांट	-7862
▁विपक्ष	-7863
▁स्वदेश	-7864
▁इस्तीफा	-7865
▁प्रचालन	-7866
▁मजदूरों	-7867
▁निस्तारण	-7868
न्तर	-7869
स्तु	-7870
▁कैदी	-7871
▁अनुमत	-7872
▁रॉयल्टी	-7873
१९	-7874
▁टेल	-7875
▁योनि	-7876
▁सफाई	-7877
▁थोड़े	-7878
▁पड़ोसी	-7879
▁अल्ट्रा	-7880
▁चुनावों	-7881
▁सौंदर्य	-7882
▁बसव	-7883
▁जाएंगी	-7884
▁संस्कार	-7885
▁प्रोजेक्ट	-7886
खर	-7887
दूत	-7888
नीत	-7889
▁विवश	-7890
▁संगणना	-7891
▁पुस्तकालय	-7892
▁उपराज्यपाल	-7893
▁आँख	-7894
▁राइ	-7895
▁कहती	-7896
▁गुजरना	-7897
ितु	-7898
▁उपकर	-7899
▁बांड	-7900
▁प्राप	-7901
▁माहौल	-7902
▁आकर्षण	-7903
▁पहुंची	-7904
▁रिक्ति	-7905
▁पंचनामा	-7906
मंद	-7907
▁re	-7908
ंगलोर	-7909
▁दांड	-7910
▁पंजाबी	-7911
▁रामायण	-7912
ाध	-7913
▁ब्लैक	-7914
▁संग्रहण	-7915
▁अनुबंधों	-7916
▁दिलचस्पी	-7917
▁प्रतिपूर्ति	-7918
▁लेट	-7919
▁बढ़ना	-7920
▁अवैधता	-7921
▁पर्यवे	-7922
▁पारिस्थ	-7923
▁मैथ	-7924
▁यान	-7925
▁अमृत	-7926
▁पाना	-7927
▁अक्षर	-7928
▁अपूर्ण	-7929
▁परंपरागत	-7930
कथित	-7931
▁चाकू	-7932
▁अनुकरण	-7933
▁निरर्थ	-7934
▁भिन्नता	-7935
▁शास्त्री	-7936
▁कॉर्पोरेशन	-7937
▁रिज़ॉल्यूशन	-7938
ओएस	-7939
चिक	-7940
माला	-7941
▁रेट	-7942
▁अभिने	-7943
▁वनस्पति	-7944
▁सेंट्रल	-7945
▁डीम	-7946
▁आपूर्	-7947
▁वैष्ण	-7948
ार्टमेंट	-7949
▁दोषपूर्ण	-7950
▁प्राधिकारियों	-7951
▁सज	-7952
▁तात्प	-7953
▁बिन्द	-7954
▁हिंसक	-7955
▁उपग्रह	-7956
ॉजी	-7957
▁पदा	-7958
▁लोप	-7959
▁एमबी	-7960
▁प्रदाता	-7961
ग्	-7962
डो	-7963
ैस	-7964
▁कुर	-7965
▁इन्स	-7966
▁समाह	-7967
▁काटने	-7968
▁तहसील	-7969
▁प्रिवी	-7970
▁विन्यास	-7971
▁पुस्तकें	-7972
▁नियमितीकरण	-7973
▁पारिश्रमिक	-7974
फ्र	-7975
भाषण	-7976
▁चूँ	-7977
▁डिज़	-7978
▁सिक्क	-7979
▁अभिकरण	-7980
▁कलाकार	-7981
गरी	-7982
▁तंग	-7983
▁सच्चे	-7984
▁उद्धरण	-7985
▁सितम्बर	-7986
▁राज्यक्षेत्र	-7987
मंड	-7988
▁खबर	-7989
▁नहर	-7990
▁परा	-7991
▁एमसी	-7992
▁विधा	-7993
tr	-7994
▁बक	-7995
पीएल	-7996
▁गले	-7997
▁खुदरा	-7998
▁देखरेख	-7999
▁पारदर्शी	-8000
▁प्रतियां	-8001
दमी	-8002
ोर्स	-8003
क़्ति	-8004
▁उन्नति	-8005
▁बाध्यता	-8006
ity	-8007
राक	-8008
िकस	-8009
ष्णा	-8010
▁चलती	-8011
▁मेगा	-8012
▁दीवान	-8013
▁संयोग	-8014
▁डाक्टर	-8015
▁परिलक्षित	-8016
▁सामुदायिक	-8017
बान	-8018
्याया	-8019
▁पादप	-8020
▁बहुल	-8021
▁लौटने	-8022
▁उदासीन	-8023
▁दोषसिद्धि	-8024
रेशन	-8025
▁यहू	-8026
▁विट	-8027
र्वेद	-8028
▁अनन्त	-8029
▁अवार्ड	-8030
घन	-8031
त्रि	-8032
बारी	-8033
▁बाएं	-8034
▁असंतु	-8035
▁वकालत	-8036
▁कार्बन	-8037
▁वकीलों	-8038
▁टर्मिनल	-8039
लीम	-8040
▁चिर	-8041
▁ऊंची	-8042
▁संको	-8043
िपूर्ण	-8044
▁अन्तिम	-8045
▁क़्यों	-8046
▁कंट्रोल	-8047
ेत	-8048
हाल	-8049
▁Ad	-8050
र्मी	-8051
▁इसको	-8052
ियुक्त	-8053
▁चुनने	-8054
▁लम्बे	-8055
▁संगणक	-8056
▁वांछनीय	-8057
▁क्रिमिनल	-8058
▁लूट	-8059
▁एस्टेट	-8060
▁ट्रस्टी	-8061
▁शत्रुतापूर्ण	-8062
दाई	-8063
▁घाट	-8064
फार्म	-8065
▁अम्ल	-8066
▁पैटर्न	-8067
▁तुम्हारी	-8068
▁दावेदारों	-8069
▁VI	-8070
▁औस	-8071
ालों	-8072
कोर	-8073
▁आगमन	-8074
▁रमेश	-8075
▁लिपि	-8076
▁संकलन	-8077
▁दीवानी	-8078
▁उच्चारण	-8079
▁गठ	-8080
▁घुट	-8081
▁बटन	-8082
▁गुणा	-8083
▁विकि	-8084
▁सहेज	-8085
▁तिहाई	-8086
▁उत्तरा	-8087
▁प्रक्षेप	-8088
▁प्रभुत्व	-8089
कर्म	-8090
लैंड	-8091
ासीन	-8092
▁कहकर	-8093
▁मरीज	-8094
▁प्रतिवर्ष	-8095
▁शेयरधारकों	-8096
▁मैनु	-8097
▁रैंक	-8098
▁कॉन्ट	-8099
▁घटकों	-8100
▁दायरा	-8101
▁दांडिक	-8102
▁विडियो	-8103
▁पवन	-8104
▁आघात	-8105
▁कवियों	-8106
▁चार्टर	-8107
▁उपनिवेश	-8108
▁परिसंपत्तियों	-8109
▁प्रद	-8110
▁चूँकि	-8111
▁निराश	-8112
▁अनुमेय	-8113
▁पहुँचा	-8114
▁तथाकथित	-8115
गाई	-8116
▁बट	-8117
▁ढेर	-8118
नीतिक	-8119
▁वासी	-8120
▁अक्षमता	-8121
▁असंतुष्ट	-8122
कन	-8123
ागल	-8124
टीसी	-8125
▁जयं	-8126
हीनता	-8127
▁वरन्	-8128
▁अज्ञान	-8129
▁रचनाओं	-8130
▁तात्पर्य	-8131
▁अनियमितता	-8132
▁इंजीनियरी	-8133
▁अप्रासंगिक	-8134
ियस	-8135
ोदय	-8136
भावी	-8137
र्टी	-8138
ैण्ड	-8139
▁आइए	-8140
वृत्ति	-8141
▁अंतरित	-8142
▁अधिशेष	-8143
▁यथोचित	-8144
▁पीठासीन	-8145
▁मौद्रिक	-8146
▁अनुप्रयोगों	-8147
१क	-8148
▁आदर	-8149
▁कैद	-8150
▁लौह	-8151
्लिकेशन	-8152
▁सर्वोपरि	-8153
ुरत	-8154
ेंचर	-8155
ालिया	-8156
▁नोटों	-8157
▁वृत्त	-8158
▁हड़ताल	-8159
▁पदोन्नत	-8160
▁अधिनिर्णय	-8161
▁उपाध्यक्ष	-8162
▁पारिस्थित	-8163
▁विशेषज्ञता	-8164
रफ	-8165
▁ऊंचे	-8166
▁स्था	-8167
▁अकादम	-8168
▁सौहार	-8169
▁हल्के	-8170
▁आश्वस्त	-8171
▁मांसपेश	-8172
हम	-8173
रिव	-8174
िप्ट	-8175
▁प्रब	-8176
▁ऑफिसर	-8177
▁पूंजीगत	-8178
▁विवेकाधीन	-8179
▁क्रांतिकारी	-8180
▁एनडी	-8181
▁फर्क	-8182
▁हटाए	-8183
▁वारिस	-8184
▁निवारक	-8185
▁गर्भपात	-8186
जील	-8187
ब्र	-8188
्वित	-8189
▁औसतन	-8190
लैंगिक	-8191
▁अवधारण	-8192
▁प्रशंस	-8193
▁छत्तीसगढ़	-8194
▁रेस	-8195
ंत्रण	-8196
बिनेट	-8197
▁प्या	-8198
▁हुईं	-8199
चन्द्र	-8200
▁अनुज्ञा	-8201
th	-8202
ूँगा	-8203
ef	-8204
िंदर	-8205
▁गेह	-8206
िस्टर	-8207
▁ढूंढ	-8208
▁सौंपने	-8209
▁प्रशांत	-8210
▁दुर्बलता	-8211
▁पूर्णतया	-8212
▁मज़	-8213
▁चौथा	-8214
▁ट्रक	-8215
▁राजीव	-8216
▁रिहाई	-8217
▁सुनकर	-8218
▁गणतंत्र	-8219
▁दुकानों	-8220
▁विवाहित	-8221
▁लाइसेंसधारी	-8222
िटन	-8223
▁लेबल	-8224
▁लगाकर	-8225
▁आंकड़ा	-8226
▁दिखाएँ	-8227
▁स्थलों	-8228
▁मुहम्मद	-8229
▁उत्पादकता	-8230
ूर्त	-8231
क्तता	-8232
बार्ड	-8233
िस्ता	-8234
▁टाउन	-8235
▁परेड	-8236
▁प्रधानता	-8237
▁शांतिपूर्ण	-8238
▁फायदे	-8239
▁आनुवंश	-8240
▁समलैंगिक	-8241
te	-8242
यु	-8243
देही	-8244
▁गुम	-8245
स्तीन	-8246
▁यहूदी	-8247
▁अग्रवाल	-8248
ठे	-8249
ॉग	-8250
▁CO	-8251
▁आधी	-8252
▁अविभा	-8253
▁आभूषण	-8254
▁जिक्र	-8255
▁विचलन	-8256
▁प्रमोट	-8257
मिन	-8258
रीन	-8259
▁अनंत	-8260
स्तीनी	-8261
▁इलाकों	-8262
गांव	-8263
ादेश	-8264
▁कोण	-8265
▁लिप्त	-8266
वाधिकार	-8267
▁निधियों	-8268
जान	-8269
▁पठन	-8270
▁बिन	-8271
वर्तन	-8272
▁नैनो	-8273
▁एमिकस	-8274
▁रोकता	-8275
▁समाहित	-8276
▁कविताओं	-8277
▁अंग्रेज़ी	-8278
▁प्रतिस्पर्धी	-8279
विड	-8280
ग्रा	-8281
ष्टा	-8282
▁अंस	-8283
▁मुर	-8284
▁रवाना	-8285
▁वादों	-8286
▁मैनुअल	-8287
▁वैयक्तिक	-8288
▁न्यायोचित	-8289
एसएल	-8290
ण्डल	-8291
▁बडा	-8292
▁क्रय	-8293
▁मेहन	-8294
▁पराजित	-8295
▁अपितु	-8296
▁तुमने	-8297
▁पड़ोस	-8298
▁अकादमी	-8299
▁असमानता	-8300
▁सम्पन्न	-8301
▁सौभाग्य	-8302
▁विवादास्पद	-8303
ढ़ियों	-8304
▁इंद्र	-8305
ियोग्राफी	-8306
▁दंडात्मक	-8307
▁VII	-8308
क्तियों	-8309
▁सरकारें	-8310
बो	-8311
कना	-8312
देवी	-8313
▁ट्रा	-8314
▁इलाके	-8315
▁उत्सव	-8316
व्यवहार	-8317
▁नागपुर	-8318
▁अनिवासी	-8319
▁आपूर्तिक	-8320
SH	-8321
ig	-8322
▁असुर	-8323
▁पुनर्म	-8324
▁मध्यस्थों	-8325
▁Crl	-8326
▁असु	-8327
▁छीन	-8328
▁ध्र	-8329
ोग्रा	-8330
▁एण्ड	-8331
▁परित	-8332
▁रेंट	-8333
▁स्थूल	-8334
▁हुसैन	-8335
▁असंतोष	-8336
▁सावधान	-8337
▁अभिभाषण	-8338
▁गड़बड़ी	-8339
▁विधियां	-8340
▁सांप्रदायिक	-8341
ग़	-8342
▁CA	-8343
▁ओब	-8344
▁अफ़	-8345
▁नोक	-8346
ुक़्त	-8347
▁कर्ज	-8348
▁सूखे	-8349
▁विकिरण	-8350
▁समकक्ष	-8351
▁सौहार्द	-8352
and	-8353
िंट	-8354
▁अठ	-8355
▁थोक	-8356
▁नायक	-8357
▁सबके	-8358
▁निकले	-8359
▁परवाह	-8360
▁पहचाना	-8361
▁सिंघ	-8362
▁खटखटा	-8363
▁डिस्ट	-8364
▁व्यभि	-8365
▁वृत्ति	-8366
▁प्रभावों	-8367
▁व्याख्यान	-8368
झे	-8369
आईए	-8370
प्रति	-8371
▁सौदे	-8372
▁निदान	-8373
▁मेघालय	-8374
▁रिमांड	-8375
▁स्वाधीनता	-8376
▁खाल	-8377
▁नोए	-8378
▁बेकार	-8379
राष्ट्र	-8380
▁गुजरने	-8381
▁उन्होनें	-8382
▁तुलनात्मक	-8383
▁एओ	-8384
▁बर्फ	-8385
▁कैबिनेट	-8386
▁घोषणाओं	-8387
▁बैंगलोर	-8388
▁स्वच्छता	-8389
▁मंग	-8390
ट्रोप	-8391
▁ब्रे	-8392
▁टकराव	-8393
▁बिस्त	-8394
▁संकोच	-8395
▁असफलता	-8396
▁उन्नयन	-8397
▁ड्रग्स	-8398
▁गंध	-8399
▁सुलह	-8400
▁इन्हीं	-8401
▁मणिपुर	-8402
▁उत्सर्जन	-8403
मेर	-8404
▁एएस	-8405
▁घटित	-8406
▁जंगली	-8407
▁दरबार	-8408
▁अपनाना	-8409
▁धर्मों	-8410
▁सेवकों	-8411
▁प्रांतीय	-8412
▁फिलीस्तीनी	-8413
नस	-8414
वीय	-8415
▁गुट	-8416
▁बंट	-8417
▁मंगल	-8418
▁सुन्दर	-8419
▁प्रजाति	-8420
▁राधाकृष्णन	-8421
▁Ch	-8422
शंकर	-8423
▁पंख	-8424
▁भूख	-8425
▁रहीं	-8426
▁दिखाए	-8427
▁परीक्षणों	-8428
▁गतिविधियां	-8429
ub	-8430
छाड़	-8431
ोपड़ी	-8432
▁पागल	-8433
▁आगामी	-8434
▁आमदनी	-8435
▁प्रसव	-8436
▁समीकरण	-8437
▁इंस्टीट	-8438
▁बांग्लादेश	-8439
रोग	-8440
▁मक	-8441
रियर	-8442
ालीन	-8443
ोन्म	-8444
▁IST	-8445
▁अरबी	-8446
▁महाक	-8447
▁सभ्य	-8448
▁मराठी	-8449
▁रखेगा	-8450
▁रणनीति	-8451
▁डेटाबेस	-8452
ुर्द	-8453
▁पान	-8454
▁औषधि	-8455
▁नकार	-8456
▁कांस्ट	-8457
▁परीक्षक	-8458
▁सूचकांक	-8459
ब्ध	-8460
शब्द	-8461
ुम्ब	-8462
▁जनस	-8463
▁हंस	-8464
▁यहीं	-8465
▁सौदा	-8466
▁ज़मीन	-8467
▁मूत्र	-8468
▁वार्ड	-8469
▁क्रमिक	-8470
नामे	-8471
▁ट्रेन	-8472
▁नोएडा	-8473
▁समझाने	-8474
▁डिज़ाइन	-8475
ेग	-8476
ोषक	-8477
▁जयंती	-8478
▁कावेरी	-8479
▁जोड़ें	-8480
▁संदत्त	-8481
▁नाबार्ड	-8482
▁संभालने	-8483
खार	-8484
ोंग	-8485
रानी	-8486
२०	-8487
▁एका	-8488
▁ढाल	-8489
चार्य	-8490
▁क्षम	-8491
▁गिना	-8492
▁भिन्	-8493
▁अव्यव	-8494
▁रूपये	-8495
▁टाइम्स	-8496
ंचल	-8497
ट्स	-8498
▁विड	-8499
▁कन्न	-8500
▁बरामदगी	-8501
▁राशियों	-8502
▁कार्यकर्ता	-8503
ीदा	-8504
▁डेल	-8505
▁वाज	-8506
▁आकृति	-8507
▁कारगर	-8508
▁निरर्थक	-8509
▁होल्डिंग	-8510
सात	-8511
▁नु	-8512
▁छेद	-8513
▁हरा	-8514
▁हॉल	-8515
▁समूच	-8516
▁तुलसी	-8517
▁व्यवसायी	-8518
▁हिन्दुस्तान	-8519
ंकित	-8520
बारा	-8521
रणीय	-8522
▁घों	-8523
▁गिरा	-8524
▁देखिए	-8525
▁शिष्ट	-8526
▁महिलाएं	-8527
▁मार्गदर्शक	-8528
ंडे	-8529
यंत्र	-8530
▁एआईसीटीई	-8531
गीर	-8532
▁Go	-8533
▁यों	-8534
▁श्ल	-8535
▁घड़ी	-8536
▁उड़ान	-8537
▁तालाब	-8538
▁नवान्वेष	-8539
▁प्रोफाइल	-8540
▁कम्प्यूटर	-8541
SA	-8542
बरी	-8543
▁लड	-8544
डेंट	-8545
▁टैब	-8546
▁भरत	-8547
न्त्र	-8548
▁बचपन	-8549
▁दीवारों	-8550
▁भूखंडों	-8551
▁श्रद्धा	-8552
▁प्रतिनिय	-8553
▁प्रतिष्ठानों	-8554
▁or	-8555
▁सिम	-8556
▁आजकल	-8557
▁ऊंचा	-8558
▁एमपी	-8559
▁मोती	-8560
▁निकलता	-8561
▁मोटरसाइ	-8562
▁निदेशालय	-8563
▁आन्द	-8564
▁श्रो	-8565
▁पढ़ें	-8566
▁भरपूर	-8567
णित	-8568
ृंग	-8569
ार्क	-8570
▁कसौ	-8571
▁ग्लो	-8572
▁जवाबदेही	-8573
▁शिकायतें	-8574
गें	-8575
पेट	-8576
ingh	-8577
▁शीत	-8578
▁आर्य	-8579
▁डाली	-8580
▁उत्पा	-8581
▁कपड़ा	-8582
▁कराता	-8583
▁फर्मों	-8584
▁मार्शल	-8585
▁व्याकरण	-8586
▁संग्राम	-8587
▁IN	-8588
▁कोने	-8589
▁जताई	-8590
▁किस्त	-8591
▁डालते	-8592
▁मांगा	-8593
▁एशियाई	-8594
▁रियासत	-8595
▁प्रगतिशील	-8596
▁मानवाधिकार	-8597
मेह	-8598
▁झिल	-8599
िवेदी	-8600
▁इराक	-8601
▁बंधन	-8602
▁ठहराए	-8603
▁सुलझा	-8604
▁राजकुमार	-8605
▁साक्षरता	-8606
▁एप्लिकेशन	-8607
लेखन	-8608
▁यौग	-8609
▁अभेद	-8610
▁शिवि	-8611
▁इशारा	-8612
▁पृथक्क	-8613
▁मेट्रोप	-8614
▁प्रोटोकॉल	-8615
तृ	-8616
▁इसल	-8617
प्रथम	-8618
फोर्ड	-8619
▁अपार	-8620
▁उपास	-8621
▁गणेश	-8622
▁उन्हे	-8623
▁निकला	-8624
▁इन्द्र	-8625
▁ड्राइविंग	-8626
▁प्रतिपादन	-8627
शक	-8628
रण्य	-8629
▁ऊँच	-8630
▁छान	-8631
▁छोर	-8632
▁नकल	-8633
▁सीन	-8634
▁अनवर	-8635
▁केबल	-8636
▁जर्मन	-8637
▁तुच्छ	-8638
▁उदाहरणों	-8639
ment	-8640
▁मिथ्या	-8641
▁निपटाने	-8642
▁अफगानिस्तान	-8643
ID	-8644
तिया	-8645
हारी	-8646
▁सैक	-8647
▁वाहक	-8648
▁फर्जी	-8649
र्थियों	-8650
▁ऑपरेटिव	-8651
▁समाजवादी	-8652
av	-8653
ूनों	-8654
▁जीप	-8655
▁पतन	-8656
▁पिक	-8657
▁बिर	-8658
ृद्धि	-8659
▁गर्भव	-8660
▁सच्ची	-8661
▁समीचीन	-8662
▁व्यष्टि	-8663
▁इंडस्ट्रीज	-8664
▁उपलब्धियों	-8665
▁दीर्घकालिक	-8666
▁मोटरसाइकिल	-8667
▁Sh	-8668
डीसी	-8669
▁बढा	-8670
▁सूरज	-8671
▁आश्रम	-8672
▁टेनिस	-8673
▁बदलना	-8674
▁भाइयों	-8675
▁अग्रेषित	-8676
▁बिल्डिंग	-8677
ंदी	-8678
जुट	-8679
नगर	-8680
रोल	-8681
राइड	-8682
▁शेर	-8683
▁चाचा	-8684
▁दिल्	-8685
▁नजदी	-8686
▁बेची	-8687
▁आवाज़	-8688
▁मिस्र	-8689
▁टेलीविजन	-8690
▁वध	-8691
्राह	-8692
▁पाय	-8693
▁दीपक	-8694
▁बचना	-8695
▁कर्ता	-8696
▁सर्किट	-8697
▁परिसमापक	-8698
बीसी	-8699
▁अंतरा	-8700
▁भवनों	-8701
▁श्रेय	-8702
▁नवीनतम	-8703
▁स्वर्ग	-8704
▁कामगारों	-8705
जाज	-8706
▁खर	-8707
▁यश	-8708
▁फेफ	-8709
तालों	-8710
▁आखिरी	-8711
▁मेरिट	-8712
▁आयुर्वेद	-8713
MA	-8714
▁ऋणी	-8715
▁अश्व	-8716
▁पुनर	-8717
▁कामों	-8718
▁मनुष्यों	-8719
ch	-8720
▁कॉलम	-8721
▁चलना	-8722
▁विषम	-8723
▁सादे	-8724
▁कीजिए	-8725
▁युग्म	-8726
▁विनोद	-8727
▁वेस्ट	-8728
▁उपायुक्त	-8729
बरा	-8730
▁अटल	-8731
▁पिट	-8732
▁भट्ट	-8733
▁शॉर्ट	-8734
▁सोचता	-8735
▁वैष्णव	-8736
ap	-8737
्स्ट	-8738
▁बचे	-8739
चरिता	-8740
जीवित	-8741
▁आवरण	-8742
▁प्लग	-8743
▁आज्ञा	-8744
▁पिस्त	-8745
ंती	-8746
ूती	-8747
ैनी	-8748
▁फायर	-8749
▁Singh	-8750
▁प्रामा	-8751
र्फ़	-8752
▁रूच	-8753
▁टैगोर	-8754
िद्यालय	-8755
▁अर्हता	-8756
▁बाज़ार	-8757
▁कॉन्ट्र	-8758
▁पसंदीदा	-8759
▁पलट	-8760
▁सिन	-8761
्रेशन	-8762
▁एनजे	-8763
▁अवशेष	-8764
▁महंगा	-8765
▁सुदूर	-8766
▁जटिलता	-8767
▁राष्ट्री	-8768
▁लाभार्थी	-8769
▁यूनिवर्सिटी	-8770
OC	-8771
ुरु	-8772
प्रण	-8773
▁जाली	-8774
▁ससुर	-8775
▁वायर्स	-8776
▁सुचरिता	-8777
घोष	-8778
्सन	-8779
एलआर	-8780
णुओं	-8781
▁बिछ	-8782
▁वसा	-8783
▁वेल	-8784
▁अकेला	-8785
▁स्केल	-8786
▁अतिमान	-8787
▁दुर्गा	-8788
▁सांख्य	-8789
▁लक्ष्मण	-8790
बुल	-8791
भुत	-8792
ोटी	-8793
▁IT	-8794
▁उग	-8795
▁छः	-8796
▁उठे	-8797
▁लैस	-8798
▁ईस्ट	-8799
▁समझी	-8800
▁गर्भाशय	-8801
▁प्रस्थान	-8802
म्य	-8803
सीय	-8804
ख़्या	-8805
▁फांसी	-8806
▁बें	-8807
▁इन्फ	-8808
▁ईमेल	-8809
▁यथास	-8810
▁सबको	-8811
▁एकजुट	-8812
▁डेस्क	-8813
▁लम्बी	-8814
▁नागरिकता	-8815
▁मंत्रालयों	-8816
▁दुर्व्यवहार	-8817
▁ः	-8818
टकों	-8819
पंथी	-8820
ानाथ	-8821
ालीस	-8822
▁नरी	-8823
▁पैन	-8824
▁संभ	-8825
▁क्री	-8826
▁लड़ा	-8827
ामियों	-8828
धारियों	-8829
▁अनुष्ठ	-8830
▁बहिष्क	-8831
▁शुरुआती	-8832
▁अभिप्राय	-8833
ee	-8834
्लास	-8835
▁फूलों	-8836
▁जोड़ना	-8837
▁अरुणाचल	-8838
▁साथियों	-8839
शिंग	-8840
▁ताम	-8841
▁कोमल	-8842
▁डिली	-8843
▁चांदी	-8844
▁कैदियों	-8845
▁सर्वप्रथम	-8846
▁प्राधिकरणों	-8847
्स्य	-8848
▁एमएम	-8849
▁डालर	-8850
▁खरीदे	-8851
▁राजेश	-8852
▁आउटपुट	-8853
▁दिखाता	-8854
▁बीसीसीआई	-8855
▁परियोजनाएं	-8856
▁परिस्थितियाँ	-8857
▁वीडियोग्राफी	-8858
▁गड	-8859
सागर	-8860
▁भूक	-8861
▁मोर	-8862
▁सज्	-8863
▁हुक	-8864
▁अरुण	-8865
▁परिधि	-8866
▁गरीबों	-8867
▁गर्भवती	-8868
▁विचित्र	-8869
ोष्ठ	-8870
▁कॉम	-8871
▁घुम	-8872
▁पाठ्य	-8873
▁सुरेश	-8874
▁नारियल	-8875
▁पिस्तौल	-8876
▁फिल्मों	-8877
▁भगत	-8878
▁डालता	-8879
▁विभेद	-8880
▁रिकवरी	-8881
▁रिश्ते	-8882
▁सुझावों	-8883
▁पृथक्करण	-8884
▁प्लास्टिक	-8885
▁कल्याणकारी	-8886
▁पुनर्निर्माण	-8887
▁ओम	-8888
▁बोर	-8889
ुलेशन	-8890
▁गुणक	-8891
▁सिखा	-8892
्यवहार	-8893
▁बिस्तर	-8894
▁विलियम	-8895
▁छप	-8896
दण्ड	-8897
▁सीएम	-8898
▁नरीमन	-8899
▁अकादमिक	-8900
▁मैट्रिक्स	-8901
हाटी	-8902
▁पित	-8903
▁पैरों	-8904
▁समामेलन	-8905
▁इस्लामवादी	-8906
▁रोहत	-8907
▁शर्म	-8908
▁रिश्तेदारों	-8909
aa	-8910
सो	-8911
▁CC	-8912
▁गला	-8913
स्राव	-8914
▁झूठा	-8915
▁बाईं	-8916
▁रोज़	-8917
▁एकीकरण	-8918
▁डेवलपर	-8919
▁दोबारा	-8920
▁प्रसंग	-8921
▁व्यर्थ	-8922
▁क़्योंकि	-8923
वेश	-8924
न्नाथ	-8925
▁द्रव	-8926
▁विषा	-8927
▁पुराण	-8928
▁विकार	-8929
▁गतिशील	-8930
▁संस्थाएं	-8931
▁गर	-8932
▁थै	-8933
ृहीत	-8934
▁सिलस	-8935
▁सीजे	-8936
▁जैसाकि	-8937
▁प्रचुर	-8938
▁समर्थक	-8939
▁क्षमताओं	-8940
▁इट	-8941
▁तन	-8942
ूल्स	-8943
▁बही	-8944
▁मक्	-8945
▁आरटी	-8946
▁बचाया	-8947
▁मनोवैज्ञानिक	-8948
गुण	-8949
▁बत	-8950
जारी	-8951
▁इंजन	-8952
▁माइन	-8953
▁अखबार	-8954
▁गिरने	-8955
▁गोदाम	-8956
▁बुराई	-8957
रिवर्तन	-8958
्रेताओं	-8959
▁दिखाना	-8960
निरपेक्ष	-8961
▁छेड़छाड़	-8962
▁बहिष्करण	-8963
▁मैत्रीपूर्ण	-8964
AME	-8965
ोत्स	-8966
▁केन	-8967
वास्त	-8968
ोलॉजी	-8969
▁गिनती	-8970
▁अहिंसा	-8971
▁इमारतों	-8972
▁वित्तपोषण	-8973
▁मैक	-8974
▁प्रॉ	-8975
▁पंचायतों	-8976
▁विकल्पों	-8977
▁प्रतिपूरक	-8978
टिक	-8979
वेज	-8980
▁भै	-8981
बिया	-8982
▁छुट	-8983
▁डाइ	-8984
▁बसे	-8985
द्रता	-8986
▁सुगम	-8987
▁ध्रुव	-8988
▁अंतरंग	-8989
▁ड्राइव	-8990
ॉल्वेंसी	-8991
▁पूर्वोत्तर	-8992
▁जिम्मेदारियों	-8993
रेन	-8994
▁फंस	-8995
▁जिंदगी	-8996
▁निर्गम	-8997
▁कहानियों	-8998
गंध	-8999
त्स	-9000
फ्फ	-9001
▁उक	-9002
▁अथॉर	-9003
▁श्रद्ध	-9004
तने	-9005
महल	-9006
▁टेप	-9007
▁अस्व	-9008
▁किशन	-9009
▁आवश्य	-9010
▁टेक्न	-9011
▁मूर्ख	-9012
▁श्लोक	-9013
▁सिंगा	-9014
▁दिखाते	-9015
▁लची	-9016
▁एल्ग	-9017
▁बोला	-9018
▁गाँधी	-9019
▁अभियोगी	-9020
▁जगन्नाथ	-9021
▁पाउ	-9022
▁फूट	-9023
▁पेशी	-9024
▁दिखता	-9025
▁IC	-9026
ेम्प	-9027
▁नाप	-9028
▁मादक	-9029
▁अवज्ञा	-9030
▁आक्षेप	-9031
▁प्रोफ़	-9032
▁मेमोरी	-9033
▁तारीखों	-9034
▁परिशिष्ट	-9035
▁प्रजातियों	-9036
शेर	-9037
बाज़	-9038
▁शेड	-9039
▁सोव	-9040
▁कबीर	-9041
▁लाइट	-9042
▁एहसास	-9043
▁कीटना	-9044
▁अभेद्य	-9045
▁कृष्णा	-9046
▁नेताजी	-9047
▁अभिभावक	-9048
▁त्रुटिः	-9049
▁विलक्षण	-9050
▁व्यभिचार	-9051
आरआई	-9052
बंधन	-9053
▁उधर	-9054
▁दरें	-9055
▁फ्लै	-9056
▁मेहर	-9057
▁हुये	-9058
▁चालीस	-9059
▁महान्	-9060
▁मायने	-9061
▁इसलिये	-9062
▁बिन्दु	-9063
▁अनुभूति	-9064
▁संव्यवहार	-9065
▁धूल	-9066
वस्था	-9067
▁टैंक	-9068
▁ब्यौ	-9069
▁खतरों	-9070
▁सिरों	-9071
▁प्रेषण	-9072
▁लक्षित	-9073
▁पक्षियों	-9074
▁महाविद्यालय	-9075
ुलन	-9076
र्सी	-9077
▁गर्भाव	-9078
▁अनुभवों	-9079
▁दर्शाती	-9080
▁निमित्त	-9081
▁महासागर	-9082
▁प्रत्यर्थी	-9083
▁An	-9084
▁बादशाह	-9085
▁अवस्थित	-9086
▁निक्षेप	-9087
▁स्पेक्ट	-9088
▁उत्तीर्ण	-9089
कला	-9090
▁टाल	-9091
▁अवलंब	-9092
▁स्वाद	-9093
▁दाहिने	-9094
▁पेड़ों	-9095
▁मेगावाट	-9096
▁कॉपीराइट	-9097
ँह	-9098
ant	-9099
इंट	-9100
राई	-9101
माही	-9102
▁कॉमन	-9103
▁चलाई	-9104
▁बम्बई	-9105
▁मैक्स	-9106
▁लड़का	-9107
▁सशर्त	-9108
▁सिंगल	-9109
▁अवशोषण	-9110
क्ल	-9111
ण्ट	-9112
▁आदत	-9113
ारायण	-9114
▁फ्री	-9115
धिकारी	-9116
▁असाइन	-9117
▁कसौटी	-9118
▁कस्टम	-9119
▁बैठने	-9120
▁साइकिल	-9121
▁निर्देशक	-9122
▁आनुपातिकता	-9123
▁पुरस्कारों	-9124
▁विवेकपूर्ण	-9125
▁थल	-9126
ायती	-9127
▁उर्फ	-9128
▁बनती	-9129
▁नाटकों	-9130
▁संपादक	-9131
▁अथॉरिटी	-9132
▁धर्मनिरपेक्ष	-9133
PE	-9134
फुल	-9135
शासित	-9136
▁जबरन	-9137
▁सीसी	-9138
▁राकेश	-9139
▁बेदखली	-9140
▁मुकाबला	-9141
हृ	-9142
▁ऋतु	-9143
▁सैय	-9144
▁भलाई	-9145
▁एक्ज़	-9146
▁असहमति	-9147
▁कौंसिल	-9148
▁मुहैया	-9149
▁राजकोष	-9150
▁सीनियर	-9151
▁पीड़िता	-9152
▁विटामिन	-9153
▁उपयुक्तता	-9154
▁प्रतिबिंबित	-9155
ंपा	-9156
ओसी	-9157
▁बं	-9158
रोधी	-9159
्युन	-9160
▁दाग	-9161
▁माफ	-9162
▁असें	-9163
▁कपास	-9164
▁चलकर	-9165
▁बांस	-9166
▁मुहर	-9167
▁अय्यर	-9168
▁बंगला	-9169
▁साकार	-9170
▁महाप्र	-9171
▁एनजेएसी	-9172
▁माइक्रो	-9173
▁हार्डवेयर	-9174
पटल	-9175
▁चट	-9176
▁चित	-9177
ेशनों	-9178
▁उज्ज	-9179
▁काफ़ी	-9180
▁जीवंत	-9181
▁ज़रूरत	-9182
▁टुकड़ा	-9183
▁सिर्फ़	-9184
▁संस्थापक	-9185
▁आत्मविश्वास	-9186
२क	-9187
ंसे	-9188
▁Exh	-9189
▁किले	-9190
▁हफ्त	-9191
▁बैंकर	-9192
▁कागजात	-9193
▁पुत्री	-9194
▁उपबंधित	-9195
▁प्रमुखों	-9196
▁हिस्सेदारी	-9197
ढे	-9198
▁जरा	-9199
▁पाव	-9200
लियों	-9201
▁कृपा	-9202
▁टर्न	-9203
▁रंगम	-9204
▁मुल्क	-9205
▁श्याम	-9206
▁प्रवास	-9207
▁आत्मनिर्	-9208
▁तुम्हारा	-9209
▁अस्पष्टता	-9210
▁प्रिंसिपल	-9211
चु	-9212
वट	-9213
▁आईसी	-9214
▁टाटा	-9215
▁स्नान	-9216
▁बाधाओं	-9217
▁मधुमेह	-9218
▁राजाओं	-9219
▁संवेदना	-9220
▁स्त्रोत	-9221
ुद	-9222
▁अघ	-9223
▁ओल	-9224
वर्त	-9225
स्सी	-9226
▁क्लॉ	-9227
▁सब्ज	-9228
▁दीक्ष	-9229
▁व्यास	-9230
▁स्कैन	-9231
▁खिलाड़ी	-9232
▁अद्वितीय	-9233
▁इंजेक्शन	-9234
▁विधायकों	-9235
रूपता	-9236
▁विनम	-9237
ावस्था	-9238
▁सर्वस	-9239
▁सुनील	-9240
▁स्कोर	-9241
▁to	-9242
आरटी	-9243
१वीं	-9244
▁कों	-9245
ड्यूल	-9246
▁कपूर	-9247
▁वर्न	-9248
▁विरा	-9249
▁खानों	-9250
▁मनोहर	-9251
▁सम्मन	-9252
▁एनसीटी	-9253
▁सिंगापुर	-9254
ंठ	-9255
लाइ	-9256
ासा	-9257
भक्त	-9258
शुदा	-9259
▁ग्ल	-9260
▁परो	-9261
▁मदन	-9262
वल्ली	-9263
▁दुग्ध	-9264
▁सामर्थ	-9265
▁असुविधा	-9266
▁एमबीबीएस	-9267
▁फिलीस्तीन	-9268
▁ऊत	-9269
▁चमत	-9270
▁चिट	-9271
▁बाइ	-9272
▁नारी	-9273
▁डालना	-9274
▁मेहनत	-9275
▁सालों	-9276
▁अधिभार	-9277
▁उद्भूत	-9278
▁करूंगा	-9279
▁डिलीवरी	-9280
▁मुद्रित	-9281
▁केन्द्रों	-9282
▁गारंटीकृत	-9283
▁भागीदारों	-9284
कोट	-9285
तुल	-9286
पना	-9287
लास	-9288
ड़की	-9289
ब्बा	-9290
र्षि	-9291
▁हाज	-9292
च्छेदन	-9293
▁भरोसे	-9294
▁नौसेना	-9295
▁अध्यापक	-9296
▁आक्रामक	-9297
▁आन्दोलन	-9298
▁प्रबन्ध	-9299
▁ट्रेडिंग	-9300
मलव	-9301
्रू	-9302
▁भूट	-9303
्टर्स	-9304
▁कमाई	-9305
▁एग्री	-9306
▁पकड़ने	-9307
▁कॉरपोरेट	-9308
▁अस्पतालों	-9309
▁भावनात्मक	-9310
▁बिख	-9311
▁क्ले	-9312
▁गूगल	-9313
▁तलाशी	-9314
▁श्रील	-9315
पार	-9316
▁अँ	-9317
▁आईए	-9318
▁खरा	-9319
▁एसिड	-9320
▁लेनी	-9321
▁वनों	-9322
▁मित्त	-9323
▁संघों	-9324
▁अभिदाय	-9325
▁जोरदार	-9326
rom	-9327
▁कड़	-9328
▁संकु	-9329
▁अनदेखा	-9330
▁अर्जुन	-9331
▁शासकों	-9332
▁कंप्यूट	-9333
RL	-9334
नेड	-9335
▁गोर	-9336
▁बिस	-9337
▁आरपी	-9338
▁चुंब	-9339
▁त्रि	-9340
▁पद्म	-9341
▁चेहरा	-9342
▁पीछला	-9343
▁मित्रता	-9344
▁सम्बद्ध	-9345
▁स्वदेशी	-9346
▁हिन्दुओं	-9347
▁प्रतिपादित	-9348
▁इंस्टीट्यूट	-9349
AC	-9350
हे	-9351
सेन	-9352
बंधी	-9353
ुतोष	-9354
▁नरम	-9355
▁शिप	-9356
मुक्त	-9357
▁रोचक	-9358
▁दशमलव	-9359
RT	-9360
up	-9361
उथ	-9362
२१	-9363
वाया	-9364
▁छाती	-9365
▁शल्य	-9366
▁प्रभु	-9367
▁अभिरक्षा	-9368
ोगे	-9369
्तर	-9370
▁यकीन	-9371
▁रत्न	-9372
▁साइन	-9373
▁बच्चन	-9374
▁उपयोक्ता	-9375
▁दीक्षांत	-9376
▁पार्टियां	-9377
वीर	-9378
गणना	-9379
ह्रास	-9380
▁पढ़ी	-9381
▁परिमाण	-9382
▁निरूपित	-9383
▁एएम	-9384
▁रूम	-9385
▁बदलते	-9386
▁मानकर	-9387
▁अविश्व	-9388
▁जीवाणु	-9389
▁दर्शाने	-9390
▁बीमारियों	-9391
▁शास्त्रीय	-9392
EN	-9393
मूल	-9394
ारह	-9395
▁अद्	-9396
▁जोन	-9397
▁भव्य	-9398
▁दबाया	-9399
▁राइफल	-9400
▁एल्गोर	-9401
▁बहुमूल्य	-9402
▁शक्तियाँ	-9403
▁गर्भावस्था	-9404
▁अन्यायपूर्ण	-9405
▁संवैधानिकता	-9406
विस	-9407
ट्टा	-9408
वाड़	-9409
▁डंप	-9410
वर्धन	-9411
▁अनिय	-9412
▁रहकर	-9413
▁सवार	-9414
▁सांठ	-9415
▁सच्चा	-9416
▁निरसित	-9417
▁प्रवाहित	-9418
▁आर्बिट्रल	-9419
▁टिप्पणियां	-9420
ैत	-9421
्ख	-9422
आरए	-9423
तृक	-9424
टिंग	-9425
▁रेत	-9426
▁लहर	-9427
▁आगरा	-9428
▁एनजी	-9429
▁नानक	-9430
▁जानती	-9431
▁दिशाओं	-9432
▁विकृति	-9433
▁परेशानी	-9434
▁विधानसभाओं	-9435
लि	-9436
ावत	-9437
एनएल	-9438
▁गम्	-9439
▁हैस	-9440
्रमित	-9441
▁फैली	-9442
▁सतीश	-9443
▁गेहूं	-9444
▁अनुदेश	-9445
▁निर्धन	-9446
▁लैंगिक	-9447
▁विवेचना	-9448
▁नियमावली	-9449
▁शेयरधारक	-9450
▁अपरिवर्तनीय	-9451
रुप	-9452
त्ती	-9453
▁चलाए	-9454
▁उठाकर	-9455
▁प्रवर्ग	-9456
▁हाउसिंग	-9457
▁धर्मार्थ	-9458
▁संस्थापित	-9459
▁पुनर्जीवित	-9460
एक	-9461
्रत	-9462
तरफा	-9463
▁पटल	-9464
▁कार्ट	-9465
▁खटखटाया	-9466
फ़ा	-9467
र्चा	-9468
▁ओएस	-9469
▁गंत	-9470
▁गीतों	-9471
पद	-9472
▁ऑल	-9473
▁दीं	-9474
वृत्त	-9475
▁लोगो	-9476
▁सूखा	-9477
▁लार्ड	-9478
▁कब्ज़ा	-9479
▁निकाली	-9480
▁खाद्यान	-9481
▁अधिकाधिक	-9482
▁मानवाधिक	-9483
▁प्रतिनियुक्ति	-9484
od	-9485
बेट	-9486
▁कूद	-9487
फ्रेंस	-9488
▁ओबामा	-9489
▁लाहौर	-9490
▁समन्वित	-9491
▁सापेक्ष	-9492
▁दिवालिया	-9493
▁आश्चर्यजनक	-9494
ंर	-9495
▁उपस	-9496
▁विय	-9497
▁बालों	-9498
▁हटाना	-9499
▁आशुतोष	-9500
▁रंगमंच	-9501
▁ट्रांसफर	-9502
▁पर्यटकों	-9503
▁कॉन्ट्रैक्ट	-9504
गोश	-9505
्गी	-9506
▁Mr	-9507
ंतुक	-9508
क्चर	-9509
▁मेम	-9510
▁चारा	-9511
▁छिपा	-9512
▁डिवा	-9513
▁बेसिन	-9514
▁विख्यात	-9515
▁व्याप्त	-9516
▁प्रतिभाग	-9517
▁मानवाधिकारों	-9518
जलि	-9519
वित	-9520
▁ओपी	-9521
▁वान	-9522
▁अड्डे	-9523
▁प्रगा	-9524
▁मांगे	-9525
▁रेडिय	-9526
▁मजबूती	-9527
▁प्रशस्त	-9528
▁लाभदायक	-9529
निष	-9530
सूच	-9531
▁एग	-9532
▁दौरे	-9533
▁पच्च	-9534
▁मुँह	-9535
▁खर्चे	-9536
▁चलाना	-9537
▁स्थाई	-9538
▁अजीबोग	-9539
▁चैनलों	-9540
▁चिंताओं	-9541
▁सहभागिता	-9542
▁साझीदारी	-9543
▁सत्याग्रह	-9544
राग	-9545
▁आओ	-9546
▁औरत	-9547
▁भाज	-9548
▁अण्ड	-9549
▁बनकर	-9550
▁सश्रम	-9551
▁गम्भीर	-9552
▁प्रदाह	-9553
▁दर्शकों	-9554
▁श्रीलंका	-9555
ंय	-9556
▁नद	-9557
▁अभिल	-9558
▁असंख	-9559
▁कठोरता	-9560
▁सुपुर्द	-9561
▁आपत्तियां	-9562
▁मूल्यह्रास	-9563
▁लेखापरीक्षा	-9564
▁व्यापारियों	-9565
िगर	-9566
▁ईआर	-9567
▁जोशी	-9568
▁तमाम	-9569
ापूर्ण	-9570
▁छोड़ना	-9571
▁शीघ्रता	-9572
▁प्रबंधित	-9573
प्ट	-9574
▁आँक	-9575
▁ह्य	-9576
▁विषयक	-9577
▁संतान	-9578
▁उर्वरक	-9579
▁नियन्त	-9580
▁प्रतियोगी	-9581
st	-9582
▁आति	-9583
नियों	-9584
क्साइड	-9585
▁अभिया	-9586
▁ऊतकों	-9587
▁घंटों	-9588
▁बेरोज	-9589
रेन्द्र	-9590
▁करेंगी	-9591
▁झिल्ली	-9592
▁ब्रांड	-9593
▁उद्यमियों	-9594
▁केन्द्रित	-9595
्हो	-9596
▁NE	-9597
▁TA	-9598
▁ऊँ	-9599
ावधि	-9600
▁डेट	-9601
▁पैतृक	-9602
▁ललिता	-9603
▁पहुँचे	-9604
▁बलिदान	-9605
▁अजीबोगरीब	-9606
तूस	-9607
▁कत	-9608
▁अम्ब	-9609
▁जॉर्	-9610
▁परिन	-9611
▁निपटना	-9612
▁शास्ति	-9613
▁जमींदार	-9614
▁प्राणियों	-9615
▁मंत्रिमंडल	-9616
▁ओह	-9617
▁गिल	-9618
▁डेम	-9619
▁ढाँ	-9620
▁नकली	-9621
▁पाती	-9622
▁भयान	-9623
▁आचार्य	-9624
▁दिलाने	-9625
▁मित्तल	-9626
▁आनुपातिक	-9627
ालक	-9628
▁उछ	-9629
च्यु	-9630
ाग्र	-9631
्रेटर	-9632
▁असंग	-9633
▁बुरे	-9634
▁लेबर	-9635
्चार्ज	-9636
▁अवतार	-9637
▁दर्शक	-9638
▁निगमों	-9639
▁सत्यता	-9640
▁प्रवासी	-9641
▁अप्रत्या	-9642
▁प्रतिशोध	-9643
▁देशवासियों	-9644
▁स्क्रीनिंग	-9645
▁लाभार्थियों	-9646
td	-9647
ोव	-9648
ुना	-9649
एमएस	-9650
बर्ग	-9651
िथिल	-9652
▁उकस	-9653
▁जाम	-9654
▁फरार	-9655
▁ललित	-9656
▁सूरत	-9657
▁देसाई	-9658
▁प्रभा	-9659
▁स्पेश	-9660
▁पत्राचार	-9661
▁डिस्चार्ज	-9662
बेल	-9663
▁इंक	-9664
▁कैन	-9665
▁शुष	-9666
▁खोलें	-9667
▁मापने	-9668
▁मार्ज	-9669
▁सभाओं	-9670
▁कारतूस	-9671
▁पाठकों	-9672
▁सीमाएं	-9673
▁क्षेत्रफल	-9674
▁बुद्धिमान	-9675
जाक	-9676
▁एनएस	-9677
▁भेजें	-9678
▁संवर्	-9679
▁कांस्टेबल	-9680
▁विक्रेताओं	-9681
हद	-9682
ावि	-9683
ुगु	-9684
्योर	-9685
स्वती	-9686
मोबाइल	-9687
▁जॉर्ज	-9688
▁ग्लोबल	-9689
▁विधायक	-9690
▁बाजारों	-9691
000	-9692
टॉप	-9693
्विक	-9694
देशिक	-9695
▁इनसे	-9696
▁बनते	-9697
▁खेतों	-9698
▁स्विच	-9699
प्रणाली	-9700
▁उदारता	-9701
▁कपड़ों	-9702
▁सिक्किम	-9703
▁खाद्यान्न	-9704
▁प्रतिवेदन	-9705
ev	-9706
ओवर	-9707
▁गौण	-9708
सिद्ध	-9709
प्रदेश	-9710
▁जितने	-9711
▁असेंबली	-9712
▁प्रगाढ़	-9713
▁निर्देशन	-9714
थल	-9715
मर	-9716
ूटर	-9717
▁रच	-9718
▁वॉ	-9719
ापुर	-9720
▁डेन	-9721
▁पारस	-9722
▁राजू	-9723
▁रेशम	-9724
▁सोना	-9725
ष्णुता	-9726
▁पीडीएफ	-9727
▁भ्रामक	-9728
▁आतंकवादियों	-9729
आउट	-9730
कने	-9731
▁फौज	-9732
▁बाबा	-9733
▁शिथिल	-9734
▁आनुवंशिक	-9735
▁सामर्थ्य	-9736
ंडर	-9737
ईटी	-9738
बोध	-9739
▁AR	-9740
▁ar	-9741
▁गत	-9742
▁जस	-9743
बाबू	-9744
शिला	-9745
ीदार	-9746
ॉर्क	-9747
▁इंच	-9748
▁पेन	-9749
▁मुज	-9750
▁एन्क	-9751
▁पूछे	-9752
▁सादा	-9753
▁डीम्ड	-9754
▁बिलों	-9755
▁मानती	-9756
▁अवधारित	-9757
▁अविश्वस	-9758
▁कबूलनामे	-9759
▁समितियां	-9760
▁संभावनाएं	-9761
डऋ	-9762
ँजी	-9763
▁सिया	-9764
▁आज़मा	-9765
▁तुर्क	-9766
िष्णुता	-9767
▁घटनाएं	-9768
▁महर्षि	-9769
▁स्वतन्त्र	-9770
▁हिला	-9771
▁मिलान	-9772
▁मुस्क	-9773
▁संचयी	-9774
▁असुरक्षित	-9775
▁उत्तराखंड	-9776
▁विशेषाधिक	-9777
बिन	-9778
वांछ	-9779
ॉक्स	-9780
▁अनौ	-9781
तीकरण	-9782
▁कहें	-9783
▁फाइन	-9784
▁बाला	-9785
▁भयाव	-9786
▁माया	-9787
▁हमसे	-9788
▁जोड़ी	-9789
▁परिवी	-9790
▁रियाय	-9791
▁स्टेन	-9792
▁प्रकरण	-9793
▁प्रेरक	-9794
▁कुटुम्ब	-9795
▁दर्शाते	-9796
▁लक्षणों	-9797
▁मध्यवर्ती	-9798
फीति	-9799
िबिट	-9800
▁उलझ	-9801
▁कमल	-9802
▁नॉन	-9803
घोषणा	-9804
▁बादल	-9805
▁बैंड	-9806
▁लाता	-9807
दृष्टि	-9808
▁निपटारे	-9809
▁संप्रभु	-9810
▁मौन	-9811
▁साँ	-9812
ताबिक	-9813
▁बोले	-9814
▁लौटे	-9815
▁भोपाल	-9816
▁अंडमान	-9817
▁तुरन्त	-9818
▁संचिका	-9819
▁मौजूदगी	-9820
▁परिसमापन	-9821
रीद	-9822
िसा	-9823
▁धा	-9824
▁पण	-9825
▁एनसी	-9826
▁कारी	-9827
▁जगत्	-9828
▁डीडीए	-9829
▁नतीजा	-9830
▁भयानक	-9831
▁समझती	-9832
रूद्दीन	-9833
▁कहलाता	-9834
▁नमूनों	-9835
▁मत्स्य	-9836
▁सृष्टि	-9837
▁अप्रत्याशित	-9838
▁कार्यकलापों	-9839
▁अन्तर्राष्ट्रीय	-9840
ंदे	-9841
िमी	-9842
▁एजे	-9843
▁साख	-9844
ान्तर	-9845
▁अंकुश	-9846
▁अप्रा	-9847
▁अरविंद	-9848
▁हैसियत	-9849
▁तकनीकों	-9850
▁शब्दकोश	-9851
▁अस्वीकृत	-9852
न्दा	-9853
भुता	-9854
ार्इ	-9855
िल्प	-9856
▁ईसी	-9857
▁पिल	-9858
ेलनों	-9859
▁समीप	-9860
▁बेदखल	-9861
▁उत्सुक	-9862
▁क्लर्क	-9863
▁अनुकंपा	-9864
▁मुताबिक	-9865
▁विसंगति	-9866
▁अस्वीकार्य	-9867
ind	-9868
शेष	-9869
ाहट	-9870
▁इधर	-9871
▁फेर	-9872
▁विंग	-9873
▁अनजाने	-9874
▁नरेंद्र	-9875
▁देनदारियों	-9876
tt	-9877
्सल	-9878
▁शम	-9879
रलैंड	-9880
र्निया	-9881
▁बदलें	-9882
▁शुष्क	-9883
▁डिवाइस	-9884
▁आदिवासी	-9885
RO	-9886
नद	-9887
्मा	-9888
▁आवेग	-9889
▁जगहों	-9890
▁तलवार	-9891
▁बलराम	-9892
▁लिफ्ट	-9893
▁क्लॉज़	-9894
▁ध्वस्त	-9895
▁असमर्थता	-9896
▁संग्रहीत	-9897
दाद	-9898
दिर	-9899
खाना	-9900
वर्ग	-9901
▁छंद	-9902
▁दीप	-9903
▁यूआई	-9904
साधारण	-9905
▁टिकाऊ	-9906
▁मल्टी	-9907
▁मानों	-9908
▁संपादित	-9909
▁विशिष्टता	-9910
▁अनो	-9911
ेंट्स	-9912
ोजकों	-9913
▁यज्ञ	-9914
▁सरोज	-9915
▁सांप	-9916
▁कदमों	-9917
▁जिसमे	-9918
▁नर्मदा	-9919
▁निवेशक	-9920
▁न्यायाधिकरणों	-9921
▁विशेषाधिकारों	-9922
ॉन्ट	-9923
▁ऑयल	-9924
▁दां	-9925
▁रूचि	-9926
▁अंगूठ	-9927
▁जवाबी	-9928
▁मर्या	-9929
▁निकटता	-9930
▁पासवर्ड	-9931
▁डेस्कटॉप	-9932
▁पद्धतियों	-9933
▁सम्मेलनों	-9934
ंगर	-9935
▁मेह	-9936
चिकित	-9937
▁गयीं	-9938
▁मधुर	-9939
▁नाराज	-9940
▁बैटरी	-9941
श्योरेंस	-9942
▁आवश्यकताएं	-9943
EE	-9944
▁गह	-9945
चन्द	-9946
▁धूप	-9947
▁शंक	-9948
▁अलंक	-9949
▁सोशल	-9950
▁सरलता	-9951
▁दलीलें	-9952
▁सद्भावना	-9953
▁एक्सटेंशन	-9954
▁अपार्टमेंट	-9955
▁th	-9956
▁छल	-9957
डीआर	-9958
्लाई	-9959
▁con	-9960
▁गढ़	-9961
▁जूट	-9962
▁झेल	-9963
▁डीएस	-9964
िन्यास	-9965
िस्तानी	-9966
▁कामगार	-9967
▁मशीनों	-9968
▁मुनाफे	-9969
▁सेवाएँ	-9970
▁स्वयंसे	-9971
▁द्विवेदी	-9972
▁मास्टर्स	-9973
▁परिवीक्षा	-9974
▁अविश्वसनीय	-9975
एव	-9976
ैप	-9977
ावण	-9978
▁मोन	-9979
▁राजप	-9980
▁खाड़ी	-9981
▁भूटान	-9982
▁संरचनाओं	-9983
▁डेवलपमेंट	-9984
ंसी	-9985
यित	-9986
लोड	-9987
स्वी	-9988
▁CIV	-9989
▁com	-9990
▁अधू	-9991
▁नोडल	-9992
▁यथासं	-9993
▁संचरण	-9994
▁सांसद	-9995
▁सोचना	-9996
▁प्रहार	-9997
▁प्रौढ़	-9998
▁संक्रिया	-9999
▁प्रशंसनीय	-10000
ii	-10001
खल	-10002
▁OS	-10003
▁दीन	-10004
▁शार	-10005
बोर्ड	-10006
▁गौतम	-10007
▁अन्तः	-10008
▁मिल्स	-10009
▁लगेगा	-10010
▁परजीवी	-10011
▁मार्केट	-10012
▁रामचंद्र	-10013
▁कार्यात्मक	-10014
ma	-10015
▁एट	-10016
▁मठ	-10017
▁अवांछ	-10018
▁सांठगांठ	-10019
▁प्रायोजित	-10020
▁क्रियाकलाप	-10021
▁उत्तराधिकारियों	-10022
ेब	-10023
▁अड़	-10024
▁पंथ	-10025
ांजलि	-10026
▁उतने	-10027
▁सुलभ	-10028
▁खेलने	-10029
▁छिद्र	-10030
▁दोषों	-10031
▁पदनाम	-10032
▁रिस्प	-10033
▁शुक्र	-10034
▁सुप्र	-10035
▁अशुद्ध	-10036
▁गंतव्य	-10037
▁बंगाली	-10038
▁वाशिंग	-10039
▁गुजराती	-10040
▁पहचानने	-10041
▁प्रैक्ट	-10042
▁सरस्वती	-10043
▁मानचित्र	-10044
▁दुर्भावना	-10045
▁आकांक्षाओं	-10046
▁भविष्यवाणी	-10047
लापन	-10048
ीलाल	-10049
ृश्य	-10050
▁क्षु	-10051
▁नींद	-10052
▁निगमित	-10053
▁निःशुल्क	-10054
▁साक्षियों	-10055
▁नियुक्तियां	-10056
तरी	-10057
साम	-10058
▁कू	-10059
लाना	-10060
ाव्य	-10061
▁फुल	-10062
▁रिए	-10063
▁कैंट	-10064
▁यूके	-10065
▁नाजुक	-10066
▁उल्लेखित	-10067
▁त्रुटियों	-10068
▁केंद्रशासित	-10069
जूर	-10070
डों	-10071
▁अछ	-10072
न्ने	-10073
▁आच्छ	-10074
ान्वित	-10075
▁उपदेश	-10076
▁द्वारक	-10077
▁निपटते	-10078
▁पूर्वक	-10079
▁बिलियन	-10080
▁पहुँचने	-10081
▁संरचनात्मक	-10082
सनी	-10083
▁DW	-10084
जीवन	-10085
▁वात	-10086
राबरी	-10087
▁अर्ह	-10088
▁पहने	-10089
▁फलों	-10090
▁मेनन	-10091
▁अर्पित	-10092
▁चित्रों	-10093
▁प्रमोटर	-10094
किक	-10095
नाई	-10096
▁लू	-10097
पानी	-10098
ैर्य	-10099
▁आड़	-10100
मानों	-10101
▁अमीर	-10102
▁झूठी	-10103
▁धीमी	-10104
▁सुझाए	-10105
निर्देश	-10106
▁सोवियत	-10107
▁परिपूर्ण	-10108
▁आस्ट्रेलिया	-10109
कास	-10110
ुका	-10111
▁एंव	-10112
▁संश	-10113
युद्ध	-10114
▁अन्न	-10115
▁मेजर	-10116
ोग्राफ	-10117
▁पूछने	-10118
▁वापिस	-10119
▁ऑपरेटर	-10120
▁कर्मों	-10121
▁डिक्शन	-10122
▁प्रचलन	-10123
▁बदरूद्दीन	-10124
ks	-10125
▁St	-10126
▁फो	-10127
▁भीम	-10128
▁ग्रिड	-10129
▁प्रेमी	-10130
ूल्यांकन	-10131
▁सुलझाने	-10132
▁संप्रभुता	-10133
लत	-10134
लु	-10135
ेली	-10136
मुना	-10137
▁गंग	-10138
ैक्चर	-10139
▁केएस	-10140
▁अठारह	-10141
▁वर्षो	-10142
▁साधना	-10143
▁असंख्य	-10144
▁छानबीन	-10145
▁द्रव्य	-10146
▁सदियों	-10147
▁परंपराओं	-10148
▁स्पेक्ट्रम	-10149
है	-10150
२२	-10151
टकर	-10152
ांच	-10153
▁जौ	-10154
स्कृत	-10155
▁क्रा	-10156
▁जादू	-10157
▁CIVIL	-10158
▁खुराक	-10159
▁गुलाम	-10160
▁सेकंड	-10161
▁क्रियाओं	-10162
▁जल्दबाजी	-10163
▁उदाहरणार्थ	-10164
दरी	-10165
लेन	-10166
▁जह	-10167
ड़ने	-10168
▁डीसी	-10169
▁सन्त	-10170
▁पहाड़	-10171
▁पैकेट	-10172
▁प्रमो	-10173
▁लेफ्ट	-10174
▁सनातन	-10175
▁तिमाही	-10176
▁मांगों	-10177
▁विवेकान	-10178
▁राज्यसभा	-10179
▁एक्ज़िबिट	-10180
▁ऑटोमोबाइल	-10181
▁MP	-10182
▁फू	-10183
िंगर	-10184
िप्स	-10185
▁एजु	-10186
▁क्रोध	-10187
▁सर्वे	-10188
▁अद्भुत	-10189
▁आयोगों	-10190
▁सर्जरी	-10191
▁आपातकाल	-10192
▁आकाशवाणी	-10193
▁डिक्शनरी	-10194
▁अनियंत्रित	-10195
ईएल	-10196
शियन	-10197
▁ऊंट	-10198
▁ग्व	-10199
▁वेग	-10200
ग्राम	-10201
▁अभया	-10202
▁बस्ती	-10203
▁निरन्तर	-10204
▁प्रतिकर	-10205
▁ब्रह्मा	-10206
▁स्ट्रीट	-10207
▁दुर्भाग्यपूर्ण	-10208
▁प्रौद्योगिकियों	-10209
ड्स	-10210
▁CW	-10211
▁जघ	-10212
▁अवयव	-10213
▁कोटि	-10214
▁उद्यमी	-10215
▁एकतरफा	-10216
▁कानपुर	-10217
▁परिसीमा	-10218
▁गुणसूत्र	-10219
▁भूतपूर्व	-10220
▁व्यापकता	-10221
esh	-10222
्तन	-10223
▁दुखद	-10224
▁घुसपै	-10225
▁कट्टरप	-10226
▁नाटकीय	-10227
▁तीव्रता	-10228
▁पुनर्मूल्यांकन	-10229
▁Co	-10230
▁डू	-10231
क्की	-10232
बर्ट	-10233
बारों	-10234
▁एसआई	-10235
▁किला	-10236
▁करीबी	-10237
▁कुष्ठ	-10238
▁पुकार	-10239
▁करवाने	-10240
▁निभाने	-10241
▁जनजातीय	-10242
end	-10243
ंचन	-10244
चिव	-10245
▁फर्श	-10246
▁फैले	-10247
▁लिखत	-10248
▁फास्ट	-10249
▁ईमानदार	-10250
▁नीतियां	-10251
▁एकाधिकार	-10252
▁ट्रैक्टर	-10253
▁अभिविन्यास	-10254
▁ऋषि	-10255
▁कंक	-10256
▁चीफ	-10257
▁बुश	-10258
▁रूक	-10259
▁सीर	-10260
▁जगदी	-10261
▁विगत	-10262
▁सोलह	-10263
ुस्तानी	-10264
▁अस्पृश	-10265
▁ग्रेटर	-10266
▁जोड़कर	-10267
▁संपादन	-10268
▁युक्तियुक्त	-10269
▁कार्यकर्ताओं	-10270
MS	-10271
ey	-10272
शास्त	-10273
▁भागने	-10274
▁भेजना	-10275
▁श्वसन	-10276
▁सिंधु	-10277
▁निकोबार	-10278
ईएस	-10279
ुली	-10280
्मी	-10281
▁an	-10282
न्नी	-10283
ुकला	-10284
▁तित	-10285
▁मोल	-10286
▁टांग	-10287
▁वादे	-10288
▁पढ़ते	-10289
▁विराम	-10290
▁महंगाई	-10291
▁रेस्तर	-10292
ारत	-10293
▁MA	-10294
▁डूब	-10295
▁आर्ट	-10296
▁दादी	-10297
▁काउंस	-10298
▁रेस्तरां	-10299
▁समानांतर	-10300
▁स्पष्टता	-10301
▁परिसंपत्ति	-10302
▁स्वीकार्यता	-10303
CO	-10304
रात	-10305
▁रथ	-10306
फ़्ट	-10307
▁मित	-10308
▁तिरु	-10309
▁रूढ़	-10310
▁लेटर	-10311
▁शाही	-10312
ार्द्ध	-10313
▁आंखें	-10314
▁बनायी	-10315
▁रक्षक	-10316
▁सुशील	-10317
▁आंबेडकर	-10318
▁पृष्ठों	-10319
▁बेईमानी	-10320
▁रघु	-10321
▁xxxx	-10322
▁अतएव	-10323
पतियों	-10324
▁राज़्य	-10325
▁कूटशब्द	-10326
▁स्वार्थ	-10327
▁मतदाताओं	-10328
▁प्रस्तावक	-10329
▁विनाशकारी	-10330
▁द्वारकानाथ	-10331
▁कार्यवाहियां	-10332
रोस	-10333
नाथन	-10334
▁निब	-10335
▁वेण	-10336
▁तटीय	-10337
▁मिलन	-10338
▁मोचन	-10339
▁सल्फ	-10340
▁आलिया	-10341
▁गोविंद	-10342
▁जुटाने	-10343
▁मार्जिन	-10344
▁आवंटियों	-10345
▁आर्बिट्रेटर	-10346
ph	-10347
थाई	-10348
▁AA	-10349
्ट्र	-10350
▁इशारे	-10351
▁कन्या	-10352
▁खींचा	-10353
▁दबाने	-10354
▁अर्द्ध	-10355
▁पैकिंग	-10356
▁बालकों	-10357
▁विचलित	-10358
▁तत्परता	-10359
▁प्रोफ़ाइल	-10360
▁उद्देश्यपूर्ण	-10361
▁पग	-10362
▁पस	-10363
▁गों	-10364
▁वेट	-10365
▁सोन	-10366
वस्तु	-10367
▁क्षय	-10368
▁पुरी	-10369
▁बजाए	-10370
▁बेचे	-10371
▁उन्नी	-10372
▁कुमारी	-10373
▁पुनर्भ	-10374
▁रात्रि	-10375
रोन	-10376
ेम्स	-10377
▁कैथ	-10378
▁भली	-10379
▁रेज	-10380
िनेंट	-10381
▁क्षे	-10382
▁लाइव	-10383
▁कमाने	-10384
▁दसवीं	-10385
HA	-10386
SE	-10387
असल	-10388
टित	-10389
ियाई	-10390
रेक्ट	-10391
▁नाना	-10392
ुगोपाल	-10393
▁भागवत	-10394
▁विध्व	-10395
▁शिष्य	-10396
▁सम्यक	-10397
▁कनिष्ठ	-10398
▁संख़्या	-10399
▁महाद्वीप	-10400
▁अब्दुल्ला	-10401
िपी	-10402
▁PC	-10403
▁सऋ	-10404
▁पडे	-10405
र्मित	-10406
▁कोष्ठ	-10407
▁चित्त	-10408
▁धारित	-10409
▁पुर्त	-10410
▁भित्त	-10411
▁अर्थशास्त्र	-10412
वीण	-10413
ेरा	-10414
▁हू	-10415
ागार	-10416
▁एटी	-10417
▁कंड	-10418
▁तंब	-10419
▁गुर्	-10420
▁झटका	-10421
▁चाहें	-10422
▁जघन्य	-10423
▁लीजिए	-10424
▁आबंटित	-10425
▁एमएसएमई	-10426
No	-10427
ION	-10428
लाश	-10429
▁CE	-10430
▁खैर	-10431
▁पदक	-10432
▁ओडिश	-10433
▁धोखे	-10434
▁नीले	-10435
▁मिर्	-10436
▁हर्ज	-10437
▁आँखों	-10438
▁जमाने	-10439
▁वाष्प	-10440
▁शान्ति	-10441
▁समुच्च	-10442
▁प्रमाणन	-10443
▁त्रिपुरा	-10444
▁अप्राकृतिक	-10445
▁संविदात्मक	-10446
ंड़	-10447
ोकर	-10448
ंसित	-10449
खण्ड	-10450
▁कमर	-10451
▁कैश	-10452
▁गुज	-10453
▁नंद	-10454
डियों	-10455
▁अतिथि	-10456
▁घोड़े	-10457
▁ठहराव	-10458
▁पाण्ड	-10459
▁पार्थ	-10460
▁यौगिक	-10461
▁वेंकट	-10462
▁विधानों	-10463
▁शब्दावली	-10464
▁प्रादेशिक	-10465
िओ	-10466
▁जेब	-10467
▁दाँ	-10468
▁भोज	-10469
▁रोह	-10470
▁कृषक	-10471
▁पीएम	-10472
▁झुकाव	-10473
▁दरअसल	-10474
▁संजाल	-10475
▁एनआईटी	-10476
▁घुसपैठ	-10477
▁विरोधाभासी	-10478
▁आईं	-10479
▁बेज	-10480
▁दोहर	-10481
▁घटाकर	-10482
▁सम्प्र	-10483
▁परिसरों	-10484
▁कार्यपाल	-10485
▁प्रशासित	-10486
▁कार्यप्रणाली	-10487
▁हज	-10488
्वाइ	-10489
▁बूट	-10490
▁मॉड	-10491
▁घोषण	-10492
▁बस्त	-10493
▁मुद्रण	-10494
▁ग्रंथों	-10495
▁यथासंभव	-10496
▁वास्तुकला	-10497
▁आधुनिकीकरण	-10498
▁विसंगतियों	-10499
est	-10500
ेयी	-10501
▁NC	-10502
,000	-10503
कर्स	-10504
भावित	-10505
▁डीवी	-10506
▁शिवा	-10507
▁आरबीआई	-10508
▁उत्थान	-10509
▁अनुपूरक	-10510
▁अभ्यावेदन	-10511
▁व्यवहार्य	-10512
............	-10513
▁रॉ	-10514
िज्म	-10515
▁उपच	-10516
▁साई	-10517
▁नंगे	-10518
▁महाध	-10519
▁एक्से	-10520
▁श्वास	-10521
▁प्रवीण	-10522
▁मुख़्य	-10523
▁स्थानाप	-10524
▁वेणुगोपाल	-10525
ोफ	-10526
्शा	-10527
▁छठी	-10528
द्वार	-10529
▁मंचों	-10530
▁अनैतिक	-10531
▁अनौपचारिक	-10532
▁अंतर्विष्ट	-10533
ादर	-10534
्ने	-10535
्पर	-10536
ियॉँ	-10537
▁Ltd	-10538
▁गाइड	-10539
▁ओडिशा	-10540
▁बारिश	-10541
▁आदर्शों	-10542
▁नर्सिंग	-10543
▁Mo	-10544
▁on	-10545
▁तरा	-10546
▁सीओ	-10547
ंक्शन	-10548
▁पांव	-10549
▁बंगल	-10550
▁उपद्र	-10551
▁त्रास	-10552
▁अनुयाय	-10553
▁चुपचाप	-10554
▁सर्वथा	-10555
▁काश्मीर	-10556
▁देखेंगे	-10557
▁वाक्यों	-10558
▁विश्राम	-10559
▁संकेतों	-10560
गेट	-10561
▁लिस	-10562
िश्रण	-10563
▁कुला	-10564
▁जीतने	-10565
▁बर्तन	-10566
▁पुर्तग	-10567
▁दंडादेश	-10568
▁क्षतिग्रस्त	-10569
ess	-10570
ुवा	-10571
ोनी	-10572
ogle	-10573
▁झुग	-10574
▁खोले	-10575
▁पायी	-10576
▁पारे	-10577
▁रिली	-10578
▁साम्य	-10579
▁आबकारी	-10580
▁किंगडम	-10581
▁प्रतिष	-10582
▁विजेता	-10583
▁न्यायपीठ	-10584
ोडा	-10585
न्दन	-10586
पुरम	-10587
ाप्र	-10588
िनेश	-10589
▁आरा	-10590
▁खाई	-10591
▁तेर	-10592
▁मन्	-10593
▁रोब	-10594
▁कोल्ह	-10595
▁मिश्र	-10596
▁लम्बा	-10597
▁विराट	-10598
▁शिविर	-10599
▁अग्रसर	-10600
▁पच्चीस	-10601
▁अंबेडकर	-10602
▁राजकोषीय	-10603
MC	-10604
▁आभ	-10605
▁ढी	-10606
▁सउ	-10607
▁भटक	-10608
▁चाहा	-10609
▁रूल्स	-10610
▁अंशदान	-10611
▁प्रताप	-10612
▁स्पेशल	-10613
▁महत्वाक	-10614
▁सूचियों	-10615
▁चार्टर्ड	-10616
▁असाइनमेंट	-10617
ND	-10618
RE	-10619
डेट	-10620
यंकर	-10621
▁अजन	-10622
▁जनक	-10623
▁जगदीश	-10624
▁रिवाज	-10625
▁स्टाक	-10626
▁अधिष्ठ	-10627
▁नामकरण	-10628
▁सीमांत	-10629
▁सीरिया	-10630
▁अधीक्षण	-10631
▁घटनाक्रम	-10632
चू	-10633
▁मंदी	-10634
मेंट्स	-10635
▁असहाय	-10636
▁निवेद	-10637
▁फारसी	-10638
▁मनाने	-10639
▁व्यंग	-10640
▁फ़ॉन्ट	-10641
▁रोस्टर	-10642
▁समाजों	-10643
▁सेकेंड	-10644
▁चुंबकीय	-10645
▁दोहराते	-10646
▁उद्घोषणा	-10647
▁डेवलपर्स	-10648
एट	-10649
०ख	-10650
ईसी	-10651
वात	-10652
फिया	-10653
र्शी	-10654
्रोप	-10655
▁झलक	-10656
▁पंप	-10657
▁साउथ	-10658
▁सुने	-10659
▁खजाने	-10660
▁बनाएँ	-10661
▁रिव्यू	-10662
▁परिपक्वता	-10663
ायु	-10664
चनों	-10665
▁अंब	-10666
▁चौक	-10667
▁ढूँ	-10668
▁कमरा	-10669
▁क्षै	-10670
▁धुंध	-10671
▁विज़	-10672
▁जिज्ञ	-10673
▁रंगों	-10674
▁विस्म	-10675
▁रिसर्च	-10676
▁स्कूटर	-10677
▁इकाइयां	-10678
▁कलात्मक	-10679
▁वादियों	-10680
▁समयबद्ध	-10681
▁रिपोर्टिंग	-10682
if	-10683
▁कटाई	-10684
▁कैसा	-10685
▁नोट्स	-10686
▁अमूर्त	-10687
▁खोपड़ी	-10688
▁सिंघवी	-10689
▁मॉड्यूल	-10690
२३	-10691
नाल	-10692
▁उब	-10693
इयाँ	-10694
दर्य	-10695
ॉफ़र	-10696
▁आरसी	-10697
▁उठने	-10698
▁गिरी	-10699
▁जमीनी	-10700
▁नाट्य	-10701
▁बदलती	-10702
▁मूलतः	-10703
▁नवाचार	-10704
▁रिफाइन	-10705
ैड	-10706
▁हत	-10707
धर्म	-10708
▁ताक	-10709
▁धनी	-10710
▁नली	-10711
▁मला	-10712
ापूर्	-10713
▁अर्क	-10714
▁आन्त	-10715
▁भर्त	-10716
▁रसोई	-10717
▁वर्क	-10718
▁वाणी	-10719
ुतीकरण	-10720
▁भूकंप	-10721
▁विकेट	-10722
▁ऋणदाता	-10723
▁रखेंगे	-10724
▁अपवादों	-10725
▁किनारों	-10726
▁कार्यभार	-10727
▁सम्भावना	-10728
पेयी	-10729
▁नित	-10730
▁इस्म	-10731
▁जमाव	-10732
▁छोड़े	-10733
▁जरुरत	-10734
▁हल्का	-10735
▁उपरांत	-10736
▁तयशुदा	-10737
▁तेलुगु	-10738
▁बढ़ाता	-10739
▁मंत्रि	-10740
▁आपूर्तिकर्ता	-10741
ँगा	-10742
ब्रे	-10743
र्ति	-10744
ार्म	-10745
▁शौच	-10746
▁हकी	-10747
▁आईएस	-10748
▁चौथी	-10749
▁जलने	-10750
▁बगैर	-10751
▁वृहत	-10752
▁सलीम	-10753
च्युटी	-10754
पत्रों	-10755
▁कर्नल	-10756
▁जरुरी	-10757
▁पूँजी	-10758
▁भयंकर	-10759
▁महाले	-10760
▁जापानी	-10761
▁बैठकें	-10762
▁अनुशंसित	-10763
▁परिष्कृत	-10764
▁पूर्वानु	-10765
▁विवेकाधिकार	-10766
लीफ	-10767
▁Ma	-10768
क्से	-10769
▁मता	-10770
▁मोटी	-10771
▁दोहरे	-10772
▁पड़ते	-10773
▁स्राव	-10774
▁राजकीय	-10775
▁वर्ल्ड	-10776
▁लाभप्रद	-10777
▁अनुरक्षण	-10778
▁बास	-10779
▁सरो	-10780
▁पेंट	-10781
▁हरित	-10782
▁कॉम्प	-10783
▁महोदय	-10784
▁सैद्ध	-10785
▁Google	-10786
▁चट्टान	-10787
▁डिप्टी	-10788
▁एकरूपता	-10789
▁पत्थरों	-10790
▁ग्रेच्युटी	-10791
▁मांसपेशियों	-10792
op	-10793
सेफ	-10794
▁खस	-10795
▁शत	-10796
पुरा	-10797
ावार	-10798
ोतरी	-10799
▁ध्य	-10800
▁पडा	-10801
▁बगल	-10802
▁स्फ	-10803
▁इण्ड	-10804
▁पल्ल	-10805
▁पोषक	-10806
▁धैर्य	-10807
▁तोड़ने	-10808
▁पर्यटक	-10809
▁पोर्टल	-10810
▁कार्रवा	-10811
▁दुश्मनी	-10812
▁लॉर्ड्स	-10813
▁कार्यशाला	-10814
▁अनुयायियों	-10815
▁निष्क्रियता	-10816
पीट	-10817
▁0.	-10818
▁गे	-10819
▁दात	-10820
▁हता	-10821
▁सिंड	-10822
▁चौहान	-10823
▁नजदीक	-10824
▁सर्वा	-10825
▁अनुज्ञ	-10826
▁छुटकारा	-10827
▁राजेंद्र	-10828
▁नियन्त्रण	-10829
आइ	-10830
थर	-10831
गर्	-10832
जेज	-10833
मेज	-10834
ीयर	-10835
▁as	-10836
बंधक	-10837
▁एसए	-10838
रेस्ट	-10839
ांख्य	-10840
▁तिलक	-10841
▁दायी	-10842
▁मापन	-10843
▁युवक	-10844
▁करुणा	-10845
▁तारों	-10846
▁तेलंग	-10847
▁दिनेश	-10848
▁पिछला	-10849
▁पीपीए	-10850
▁निपटाए	-10851
▁राष्ट्रम	-10852
▁संबद्धता	-10853
▁विज्ञापित	-10854
ंजक	-10855
िंद	-10856
हानि	-10857
▁जोड	-10858
▁इनाम	-10859
▁एओआर	-10860
▁जंतु	-10861
▁तस्वी	-10862
▁पर्चे	-10863
▁चतुर्थ	-10864
▁सेनाओं	-10865
▁कर्मकार	-10866
▁वाशिंगटन	-10867
डोर	-10868
य्या	-10869
ुग्ण	-10870
यॉर्क	-10871
▁अंतत	-10872
▁थाने	-10873
▁बंधे	-10874
▁मदों	-10875
▁समेत	-10876
▁आसन्न	-10877
▁इंसान	-10878
▁चक्कर	-10879
▁निकटतम	-10880
▁परिचालित	-10881
और	-10882
दशा	-10883
ैंट	-10884
ऊंगा	-10885
▁गली	-10886
▁आर्म	-10887
▁इनफ़	-10888
▁ज्या	-10889
▁तरंग	-10890
▁भीतरी	-10891
▁मलयाल	-10892
▁मांगने	-10893
▁लार्वा	-10894
TA	-10895
एक्स	-10896
स्कर	-10897
▁फेल	-10898
▁भती	-10899
▁शैल	-10900
ॉलिटन	-10901
▁तेरह	-10902
▁बहुप	-10903
▁लीटर	-10904
▁ट्राई	-10905
▁बनाएं	-10906
▁जनगणना	-10907
▁बराबरी	-10908
▁व्यतीत	-10909
▁ब्लास्ट	-10910
▁परीक्षाओं	-10911
▁रेगिस्तान	-10912
▁विद्यालयों	-10913
ुए	-10914
बुक	-10915
वर्ण	-10916
िप्र	-10917
▁Cri	-10918
बंधित	-10919
▁टेम्प	-10920
▁रस्सी	-10921
▁खिड़की	-10922
▁भूमिगत	-10923
▁पीढ़ियों	-10924
राष्ट्रपति	-10925
▁आत्मनिर्भर	-10926
वाक	-10927
ायम	-10928
ुशल	-10929
ष्मा	-10930
▁CBI	-10931
▁घेर	-10932
▁कंधे	-10933
▁खादी	-10934
▁खिंच	-10935
▁माफी	-10936
▁अंतररा	-10937
▁बढ़ाते	-10938
▁अभयारण्य	-10939
▁उदासीनता	-10940
▁याचिकाएँ	-10941
▁अनिश्चितता	-10942
▁लट	-10943
▁दुस	-10944
▁सघन	-10945
▁त्यो	-10946
▁भूजल	-10947
▁मेनू	-10948
▁प्रॉप	-10949
▁बहाने	-10950
▁भगवती	-10951
▁अप्रति	-10952
▁कोरिया	-10953
▁सद्भाव	-10954
▁डिबेंचर	-10955
▁प्रत्यु	-10956
▁प्रिंटर	-10957
▁वाजपेयी	-10958
▁इस्लामिक	-10959
▁न्यूयॉर्क	-10960
▁लेफ्टिनेंट	-10961
▁सैद्धांतिक	-10962
ूति	-10963
▁IO	-10964
लब्ध	-10965
हाउस	-10966
▁उगा	-10967
▁रूट	-10968
▁ऑक्स	-10969
▁वैसी	-10970
▁विहार	-10971
ब्दियों	-10972
▁चिन्ता	-10973
▁जहाजों	-10974
▁अवधारणाओं	-10975
च्य	-10976
▁छठे	-10977
▁डकै	-10978
▁निध	-10979
▁बेक	-10980
▁नरेश	-10981
▁फ्रां	-10982
▁दिखायी	-10983
▁विक्रम	-10984
▁प्रोसेस	-10985
▁अनुबंधित	-10986
▁प्रतिज्ञा	-10987
▁अनिवार्यता	-10988
▁प्रत्यर्पण	-10989
डित	-10990
तिज	-10991
ुले	-10992
खोरी	-10993
▁बचन	-10994
द्धार	-10995
वश्यक	-10996
स्थापना	-10997
▁मारपीट	-10998
▁मुखिया	-10999
▁वसूलने	-11000
▁चमत्कार	-11001
▁दोस्तों	-11002
▁प्राप्य	-11003
ik	-11004
भगत	-11005
्वल	-11006
नामी	-11007
िथ्म	-11008
०वें	-11009
▁आगम	-11010
▁मीन	-11011
▁उंगल	-11012
▁एसडी	-11013
▁शोधन	-11014
▁जर्नल	-11015
▁प्रात	-11016
तापूर्ण	-11017
▁जंगलों	-11018
▁ताजमहल	-11019
▁अखबारों	-11020
▁संसाधित	-11021
▁प्रारम्भिक	-11022
▁क्रियाकलापों	-11023
ts	-11024
टेन	-11025
लाभ	-11026
हमी	-11027
लाइट	-11028
▁आएगी	-11029
▁स्टी	-11030
▁स्थाय	-11031
ोल्यूशन	-11032
▁उपनियम	-11033
▁ज़िम्म	-11034
▁रोहतगी	-11035
▁सहेजें	-11036
▁एजेंटों	-11037
▁लाभान्वित	-11038
▁सुभाषबाबू	-11039
▁अंतःस्थापित	-11040
भीत	-11041
ांप	-11042
▁आंग	-11043
▁तालक	-11044
▁दुरा	-11045
▁अवसाद	-11046
▁झगड़ा	-11047
▁फीसदी	-11048
▁उपासना	-11049
▁किराये	-11050
▁संकेतक	-11051
▁जनसांख्य	-11052
▁प्रभावकारिता	-11053
EM	-11054
वेदी	-11055
▁गरम	-11056
▁सिवा	-11057
▁ख्याल	-11058
▁चौथाई	-11059
▁परिपथ	-11060
▁हममें	-11061
▁हास्य	-11062
▁डिमांड	-11063
▁मलयालम	-11064
▁आवृत्ति	-11065
▁टुकड़ों	-11066
▁जबरदस्ती	-11067
▁तहसीलदार	-11068
▁विचारणीय	-11069
▁त्रुटिपूर्ण	-11070
▁मेट्रोपॉलिटन	-11071
फन	-11072
ैश	-11073
धना	-11074
माल	-11075
▁दखल	-11076
▁दृश	-11077
▁पिन	-11078
▁बुझ	-11079
▁अराज	-11080
▁ऑब्ज	-11081
▁कस्ब	-11082
▁जवान	-11083
▁टीएम	-11084
▁खुलने	-11085
▁डालती	-11086
▁वैद्य	-11087
िफिकेशन	-11088
▁त्योहार	-11089
काए	-11090
स्को	-11091
ृष्ठ	-11092
▁संल	-11093
▁इष्ट	-11094
▁कारप	-11095
▁उठाता	-11096
▁वायुम	-11097
▁समतुल	-11098
▁हालात	-11099
▁अकाउंट	-11100
▁मुम्बई	-11101
▁ओवरराइड	-11102
▁तेलंगाना	-11103
la	-11104
डि	-11105
▁थॉम	-11106
▁पैक	-11107
▁हीन	-11108
िकल्स	-11109
▁केवी	-11110
▁डीजी	-11111
▁ब्ले	-11112
▁लीला	-11113
▁दर्जे	-11114
▁देवना	-11115
▁नब्बे	-11116
▁सेंटी	-11117
▁कार्मिकों	-11118
▁पत्रिकाओं	-11119
▁प्रॉपर्टी	-11120
ंशी	-11121
टिया	-11122
फ़्त	-11123
▁थलग	-11124
▁नाश	-11125
▁साप	-11126
▁एंटर	-11127
▁क्यो	-11128
▁ज्वर	-11129
▁दस्त	-11130
▁भेड़	-11131
▁वेंक	-11132
▁जातीय	-11133
▁पर्दा	-11134
▁साल्वे	-11135
▁प्राइमा	-11136
▁कलाकारों	-11137
▁ऑस्ट्रेलियाई	-11138
ear	-11139
▁जॉ	-11140
ंकार	-11141
ोलिक	-11142
▁सिग	-11143
▁असीम	-11144
▁आरके	-11145
▁कपिल	-11146
▁काशी	-11147
▁शिरा	-11148
▁तटस्थ	-11149
▁भ्रमण	-11150
▁महाधिव	-11151
▁मानसून	-11152
▁वर्क्स	-11153
▁वर्षीय	-11154
▁स्ट्रीम	-11155
बिंद	-11156
▁ज्य	-11157
▁नक़	-11158
▁कचरे	-11159
▁मतों	-11160
▁सउदी	-11161
▁सर्प	-11162
▁सीपी	-11163
▁ब्रॉड	-11164
▁एनजीटी	-11165
▁कैरियर	-11166
▁आपातकालीन	-11167
ावे	-11168
▁GO	-11169
▁भि	-11170
शोधन	-11171
▁ईंट	-11172
▁गड्	-11173
▁डोम	-11174
ंबंधी	-11175
▁गुहा	-11176
▁स्के	-11177
▁क्रिस	-11178
▁गोल्ड	-11179
▁नैदान	-11180
▁पाएंगे	-11181
▁पुरातन	-11182
▁अनुशंसा	-11183
▁समुच्चय	-11184
▁सहिष्णुता	-11185
ep	-11186
मेट	-11187
▁ae	-11188
▁तौ	-11189
एफसी	-11190
ोल्ट	-11191
▁थोप	-11192
▁सरा	-11193
ापत्र	-11194
िम्मत	-11195
्रियल	-11196
▁अनुभ	-11197
▁जूते	-11198
▁ढलान	-11199
▁भड़क	-11200
▁सीखी	-11201
▁फिंगर	-11202
▁वृक्क	-11203
▁स्टोर	-11204
▁शासकीय	-11205
▁बागवानी	-11206
▁प्रतिरूप	-11207
▁पुनर्प्राप्त	-11208
▁इलेक्ट्रॉनिक्स	-11209
मस	-11210
ere	-11211
▁सास	-11212
र्जित	-11213
▁क़ुर	-11214
▁ठंडा	-11215
▁बन्ध	-11216
▁वल्ल	-11217
▁स्वय	-11218
▁एकांत	-11219
▁कारित	-11220
▁बैठकर	-11221
▁सेल्स	-11222
▁राजदूत	-11223
▁लागतों	-11224
▁आपत्तिजनक	-11225
ish	-11226
▁आशी	-11227
▁हनु	-11228
त्तूर	-11229
लीकरण	-11230
▁अष्ट	-11231
वर्षीय	-11232
▁कॉन्स	-11233
▁पृथक्	-11234
▁बुखार	-11235
▁सुधारा	-11236
▁अभिनेता	-11237
▁सुंदरता	-11238
▁समाविष्ट	-11239
▁स्टेशनों	-11240
▁बहुसंख्यक	-11241
▁राष्ट्रीयता	-11242
ुब	-11243
ध्द	-11244
▁लय	-11245
▁उदर	-11246
▁जहर	-11247
▁दाल	-11248
यार्क	-11249
विवाह	-11250
स्टोन	-11251
▁अभिस	-11252
▁एड्स	-11253
▁लेगी	-11254
▁साफ़	-11255
वास्तव	-11256
्लेक्स	-11257
▁कैलाश	-11258
▁पोषित	-11259
▁बदनाम	-11260
▁भयावह	-11261
▁ब्रिता	-11262
▁किताबें	-11263
▁द्वीपों	-11264
▁वैचारिक	-11265
▁देवनागरी	-11266
▁पहाड़ियों	-11267
रफेर	-11268
ेन्ट	-11269
▁खिस	-11270
▁चोर	-11271
▁धरा	-11272
ोलनों	-11273
▁अदाय	-11274
▁अन्ध	-11275
▁युसु	-11276
▁ईरानी	-11277
▁चैंबर	-11278
▁जेम्स	-11279
▁वेदों	-11280
▁निकलते	-11281
▁राजवंश	-11282
▁हेरफेर	-11283
▁विस्थापित	-11284
▁Ind	-11285
▁एलए	-11286
▁कुं	-11287
▁कोह	-11288
▁फकी	-11289
तानों	-11290
▁अंडा	-11291
▁उठते	-11292
▁जेजे	-11293
▁मल्ल	-11294
▁मुड़	-11295
▁रोटी	-11296
▁हरीश	-11297
▁आवधिक	-11298
▁डेविड	-11299
▁पत्तन	-11300
▁समूचे	-11301
▁भौतिकी	-11302
▁मणीलाल	-11303
▁महासभा	-11304
▁लड़कों	-11305
▁उत्प्रे	-11306
▁नैदानिक	-11307
धिकारियों	-11308
▁रक्तस्राव	-11309
▁अल्पसंख्यकों	-11310
ोच	-11311
ोभ	-11312
२४	-11313
रोह	-11314
▁MC	-11315
▁एर	-11316
▁शेल	-11317
म्मति	-11318
्रपान	-11319
▁अनूठ	-11320
▁उपजा	-11321
▁गाने	-11322
▁महार	-11323
▁रंजी	-11324
▁शंका	-11325
▁समनु	-11326
▁सैयद	-11327
▁बोलना	-11328
▁ठहराते	-11329
▁शृंखला	-11330
▁सुब्रमण	-11331
▁सैकड़ों	-11332
▁इन्होंने	-11333
टीओ	-11334
मस्त	-11335
▁गुड़	-11336
▁दीजिए	-11337
▁बेंगल	-11338
▁सहारे	-11339
▁चिल्ला	-11340
▁डेल्टा	-11341
▁हिम्मत	-11342
▁मिलीभगत	-11343
▁विलंबित	-11344
▁सिलसिले	-11345
▁स्मार्ट	-11346
▁श्रीकृष्ण	-11347
▁सम्बन्धों	-11348
SS	-11349
umar	-11350
ड़ित	-11351
▁औपन	-11352
▁करण	-11353
ेक्षण	-11354
▁कड़े	-11355
▁डीपी	-11356
▁सतत्	-11357
▁सुखद	-11358
▁पेरिस	-11359
▁वेल्स	-11360
▁कम्युन	-11361
▁झुग्गी	-11362
▁बिल्डर	-11363
▁ग्राउंड	-11364
▁तत्संबंधी	-11365
िसे	-11366
ोलॉज	-11367
्वरी	-11368
▁केशव	-11369
लेरिया	-11370
▁ध्येय	-11371
▁भयभीत	-11372
▁यमुना	-11373
▁संसद्	-11374
▁सर्जन	-11375
▁डिप्लो	-11376
▁तस्वीरों	-11377
▁अंतरात्मा	-11378
▁अनुपयुक्त	-11379
▁एल्गोरिथ्म	-11380
फलक	-11381
ेटर	-11382
▁टोक	-11383
▁पूल	-11384
▁एम्ब	-11385
▁भण्ड	-11386
▁आयातक	-11387
▁क्षेञ	-11388
▁दुर्ग	-11389
▁नोड्स	-11390
▁लिखें	-11391
▁साहिब	-11392
▁उन्नीस	-11393
▁मुल्ला	-11394
▁क्षैतिज	-11395
▁निमंत्रण	-11396
▁पारिस्थितिकी	-11397
वत्	-11398
ुनी	-11399
भोगी	-11400
र्षण	-11401
▁जेन	-11402
▁मिड	-11403
ेट्टी	-11404
▁निवल	-11405
▁सीबी	-11406
▁सौन्	-11407
▁कवरेज	-11408
▁डिस्प	-11409
▁पकड़ा	-11410
▁विशेन	-11411
▁ज़रूरी	-11412
▁तालमेल	-11413
▁मुनाफा	-11414
▁पुनर्विल	-11415
▁ब्रितानी	-11416
▁ठेकेदारों	-11417
▁इंश्योरेंस	-11418
ta	-11419
आन	-11420
ोटो	-11421
▁ढ़	-11422
पुरी	-11423
सूरत	-11424
▁क्य	-11425
▁धवन	-11426
▁नाभ	-11427
▁बाघ	-11428
▁लॉन	-11429
▁इंसो	-11430
▁केसी	-11431
▁कॉलो	-11432
▁नवाब	-11433
▁रुग्ण	-11434
▁सन्नि	-11435
▁सिंधी	-11436
▁नोकिया	-11437
▁वास्तु	-11438
▁हालिया	-11439
▁अवशिष्ट	-11440
▁आत्मसात	-11441
▁कारखानों	-11442
▁संवेदनशीलता	-11443
▁रजिस्ट्रीकृत	-11444
अली	-11445
बड़	-11446
▁थक	-11447
न्सी	-11448
ोग्य	-11449
▁आइड	-11450
▁कपट	-11451
▁डिट	-11452
▁शमन	-11453
त्तों	-11454
योजित	-11455
▁उकसा	-11456
▁ताना	-11457
▁दाता	-11458
▁बदली	-11459
▁साहा	-11460
▁परिकल	-11461
▁सुनाए	-11462
▁करोड़ों	-11463
▁पांचवें	-11464
▁प्रतियों	-11465
▁विधेयकों	-11466
डक	-11467
▁ऐल	-11468
▁नट	-11469
क्के	-11470
तनाम	-11471
देशन	-11472
▁पैदल	-11473
▁फ़िर	-11474
ानियों	-11475
▁रंगीन	-11476
▁स्टेज	-11477
▁अल्लाह	-11478
▁चुकाने	-11479
▁फैलाने	-11480
▁महाराज	-11481
▁अनुयायी	-11482
▁पर्वतीय	-11483
▁बुद्धिम	-11484
▁सशक्तीकरण	-11485
ip	-11486
ंबा	-11487
चों	-11488
हाली	-11489
▁for	-11490
▁खुर	-11491
▁गाल	-11492
▁हज़	-11493
ोत्सव	-11494
▁औजार	-11495
▁पराग	-11496
▁बृहत	-11497
▁अपवर्	-11498
▁खुदाई	-11499
▁मण्डल	-11500
▁स्पेन	-11501
▁पार्सल	-11502
▁कृतियों	-11503
▁डिप्लोमा	-11504
▁पूर्वजों	-11505
▁अपेक्षाओं	-11506
▁स्टेटमेंट	-11507
▁प्राप्तकर्ता	-11508
ाता	-11509
▁SH	-11510
तत्व	-11511
न्दी	-11512
▁इंप	-11513
▁बान	-11514
धार्थ	-11515
वालों	-11516
▁डेंट	-11517
▁प्रया	-11518
▁दांतों	-11519
▁रुकावट	-11520
▁साप्ताह	-11521
▁इनफ़ॉफ़र	-11522
▁ऑपरेटिंग	-11523
▁उपन्यासों	-11524
▁चिकित्सकीय	-11525
▁उपराष्ट्रपति	-11526
IA	-11527
PS	-11528
em	-11529
▁हौ	-11530
गारी	-11531
ोगिक	-11532
▁जोग	-11533
▁लाज	-11534
ांतरण	-11535
ृत्ता	-11536
▁इटली	-11537
▁कांच	-11538
▁वारा	-11539
▁सीजी	-11540
▁स्का	-11541
्राहिम	-11542
▁अतिशय	-11543
▁डिजिट	-11544
▁शाश्व	-11545
▁हैंडल	-11546
▁कैंटीन	-11547
▁बनर्जी	-11548
▁जवाबदेह	-11549
▁विधिज्ञ	-11550
▁पहुंचाया	-11551
▁स्ट्रिंग	-11552
▁सुपुर्दगी	-11553
lo	-11554
सस	-11555
ारस	-11556
▁एसएस	-11557
▁रावण	-11558
▁रूसी	-11559
्साहित	-11560
▁आँखें	-11561
▁चलेगा	-11562
▁बीतने	-11563
▁रंजीत	-11564
▁उन्मुख	-11565
▁बिहारी	-11566
▁अनुकूलन	-11567
▁वयस्कों	-11568
▁इब्राहिम	-11569
▁पूर्वेक्षण	-11570
▁उत्तरार्द्ध	-11571
▁राष्ट्रमंडल	-11572
▁व्	-11573
▁बेन	-11574
▁महज	-11575
▁कांट	-11576
▁घेरे	-11577
▁पौरा	-11578
▁लाठी	-11579
▁खेलों	-11580
▁खुफिया	-11581
▁महाकाव्य	-11582
▁चिकित्सकों	-11583
्हे	-11584
▁एमए	-11585
▁मेट	-11586
ोरिया	-11587
▁घंटा	-11588
▁मृदा	-11589
▁श्रेण	-11590
▁चुनावी	-11591
▁निरोधक	-11592
▁विद्वत	-11593
▁उत्तेजना	-11594
▁प्रेमचंद	-11595
▁साप्ताहिक	-11596
NT	-11597
ोही	-11598
यनों	-11599
िपति	-11600
▁Sec	-11601
▁लाद	-11602
डीएआई	-11603
▁APPE	-11604
▁परमा	-11605
▁पौधा	-11606
▁रियल	-11607
्रीकरण	-11608
▁दिलाया	-11609
▁प्रतिब	-11610
▁प्ररूप	-11611
▁स्थावर	-11612
▁न्यूयार्क	-11613
▁श्रीवास्तव	-11614
PL	-11615
ीण	-11616
ial	-11617
xxxx	-11618
▁इंफ	-11619
▁उत्	-11620
▁मदर	-11621
▁राख	-11622
▁ह्र	-11623
वाड़ा	-11624
▁अभिम	-11625
▁तेजा	-11626
▁हावी	-11627
▁क़्या	-11628
▁जायगा	-11629
▁निर्म	-11630
▁बालिका	-11631
▁विलम्ब	-11632
▁तीर्थया	-11633
▁समतुल्य	-11634
▁पत्तियों	-11635
▁नवान्वेषी	-11636
▁पंक्तियों	-11637
लीस	-11638
▁AN	-11639
▁फट	-11640
सराय	-11641
ालाल	-11642
▁बाब	-11643
▁अभिश	-11644
▁कैंप	-11645
▁दराज	-11646
▁मीना	-11647
▁वाटर	-11648
▁डालकर	-11649
▁बेटों	-11650
▁लुप्त	-11651
▁कित्तूर	-11652
▁पहुंचना	-11653
▁बोर्डों	-11654
▁मर्यादा	-11655
▁स्तंभों	-11656
▁अप्रभावी	-11657
▁अभिलिखित	-11658
▁कार्यकलाप	-11659
▁स्थितियां	-11660
▁अत्यावश्यक	-11661
▁अधिसूचनाओं	-11662
▁प्रक्रियाएं	-11663
▁उपयोगकर्ताओं	-11664
▁नस	-11665
ब्बी	-11666
▁दाई	-11667
▁बाँध	-11668
▁औषधीय	-11669
▁सुचार	-11670
▁बैलेंस	-11671
▁स्टेट्स	-11672
स्वामियों	-11673
▁आच्छादित	-11674
▁आयुक्तों	-11675
▁यूआईडीएआई	-11676
▁संपूर्णता	-11677
▁शिम	-11678
▁पीले	-11679
▁्याय	-11680
ावणकोर	-11681
▁अहसास	-11682
▁फैलाव	-11683
▁हफ्ते	-11684
▁अदायगी	-11685
▁कॉलोनी	-11686
▁दीक्षा	-11687
▁पिछड़ा	-11688
▁अवरुद्ध	-11689
▁निराधार	-11690
▁अतिमानसिक	-11691
▁महाधिवक्ता	-11692
ib	-11693
ya	-11694
ाइट	-11695
▁अड	-11696
▁अनभ	-11697
▁सान	-11698
▁TADA	-11699
▁जुटा	-11700
▁डिजी	-11701
▁सपने	-11702
▁दिखने	-11703
▁पकड़े	-11704
▁बक्से	-11705
▁रिफंड	-11706
▁लगाये	-11707
▁कैप्टन	-11708
▁परंतुक	-11709
▁विचारक	-11710
▁संकलित	-11711
▁औपनिवेश	-11712
▁समझदारी	-11713
▁आस्तियां	-11714
▁संप्रेषण	-11715
▁कट्टरपंथी	-11716
ढा	-11717
ara	-11718
भंग	-11719
डीएस	-11720
रहित	-11721
▁दाद	-11722
▁बाप	-11723
▁अविल	-11724
▁एमएल	-11725
▁एसबी	-11726
▁टॉवर	-11727
▁बहने	-11728
▁लगीं	-11729
▁एरिया	-11730
▁पुण्य	-11731
▁माणिक	-11732
▁दिवाला	-11733
▁व्यतिक	-11734
▁प्रत्युत्तर	-11735
गाम	-11736
ोली	-11737
▁बख	-11738
▁अन्	-11739
▁उठी	-11740
▁ठिक	-11741
▁तूफ	-11742
▁मरण	-11743
ंबद्ध	-11744
प्राइ	-11745
▁चंदर	-11746
▁श्ले	-11747
▁सीटी	-11748
▁चौड़ा	-11749
▁यार्ड	-11750
▁ग्रंथि	-11751
▁संज्ञा	-11752
▁अवशोषित	-11753
▁एजुकेशन	-11754
▁टर्नओवर	-11755
▁मतभेदों	-11756
▁महासचिव	-11757
व्यवस्थित	-11758
▁क्षेत्रक	-11759
▁अस्पृश्यता	-11760
▁विश्वव्यापी	-11761
▁प्रोग्रामिंग	-11762
यह	-11763
▁खल	-11764
्तिक	-11765
्प्र	-11766
▁बगी	-11767
▁सूख	-11768
▁इनको	-11769
▁उड़ा	-11770
▁केके	-11771
▁वाचा	-11772
▁दुष्प	-11773
▁नायडू	-11774
▁पहचाने	-11775
▁हाइड्र	-11776
▁रिवाजों	-11777
▁कार्यकार	-11778
▁त्रावणकोर	-11779
जक	-11780
यम	-11781
यो	-11782
बैक	-11783
ूढ़	-11784
▁ha	-11785
गरों	-11786
▁भड़	-11787
▁लिट	-11788
▁बेगम	-11789
▁लापता	-11790
▁करवाया	-11791
▁कर्त्त	-11792
▁जजमेंट	-11793
▁निकलती	-11794
▁नियोजक	-11795
▁फेंकने	-11796
▁सम्मुख	-11797
▁स्पीकर	-11798
▁कैलेंडर	-11799
एटी	-11800
िती	-11801
चकों	-11802
▁तिव	-11803
▁भाँ	-11804
िलिंग	-11805
▁दलित	-11806
▁पीएच	-11807
▁बहती	-11808
▁लगों	-11809
▁शासी	-11810
▁शाहज	-11811
ोंडेंट	-11812
▁मंडली	-11813
▁होस्ट	-11814
▁शाश्वत	-11815
▁अमेरिकन	-11816
▁इच्छाओं	-11817
▁जबरदस्त	-11818
▁रियायती	-11819
▁वचनबद्ध	-11820
▁तस्वीरें	-11821
▁प्रक्षेपण	-11822
भन	-11823
▁TN	-11824
ance	-11825
शियल	-11826
ुप्त	-11827
ोत्त	-11828
▁छंट	-11829
▁धरो	-11830
दाश्त	-11831
नुसार	-11832
▁इन्द	-11833
▁डेढ़	-11834
▁लगाव	-11835
▁वक्र	-11836
र्ताओं	-11837
ान्तरण	-11838
▁ऊँचाई	-11839
▁केलिए	-11840
▁हिमनद	-11841
▁अंधेरे	-11842
▁महेंद्र	-11843
▁घटनास्थल	-11844
▁प्रैक्टिस	-11845
▁फ्रांसीसी	-11846
▁विस्फोटकों	-11847
▁विमानक्षेत्र	-11848
HI	-11849
सक	-11850
ईएफ	-11851
रणी	-11852
▁OA	-11853
ंगनी	-11854
ाराम	-11855
▁कन्	-11856
मुश्त	-11857
▁viii	-11858
▁एग्ज	-11859
▁थॉमस	-11860
्रियां	-11861
▁उभरती	-11862
▁क्रोम	-11863
▁समरूप	-11864
▁आईसीटी	-11865
▁कुर्की	-11866
▁महावीर	-11867
▁यूनानी	-11868
▁हनुमान	-11869
▁अपमानित	-11870
▁दोषियों	-11871
▁नवीनीकृत	-11872
▁परित्याग	-11873
▁ब्राउज़र	-11874
▁संस्थापन	-11875
▁इंजीनियर्स	-11876
▁दुर्घटनाओं	-11877
ine	-11878
ोंक	-11879
शेखर	-11880
्याव	-11881
▁CAN	-11882
▁पतला	-11883
▁भावा	-11884
▁माउस	-11885
▁धरोहर	-11886
▁बहुधा	-11887
▁भिक्ष	-11888
▁मक्का	-11889
▁मुकुल	-11890
▁अवयवों	-11891
▁त्रासदी	-11892
▁परिजनों	-11893
▁पात्रों	-11894
▁मार्गों	-11895
▁हड्डियों	-11896
▁कार्यपालक	-11897
▁ST	-11898
▁लघ	-11899
▁The	-11900
▁आदम	-11901
▁थाः	-11902
▁सब्	-11903
योग्य	-11904
▁अनार	-11905
▁गुवा	-11906
▁तेज़	-11907
▁उदारी	-11908
▁कंटेन	-11909
▁डालें	-11910
▁दत्तक	-11911
▁कमांडर	-11912
▁सहकारिता	-11913
▁रिटर्निंग	-11914
▁शताब्दियों	-11915
ly	-11916
ेध	-11917
art	-11918
▁मथ	-11919
ाउंड	-11920
▁इनस	-11921
▁पहलों	-11922
▁मेमोर	-11923
▁सीटें	-11924
▁ख्याति	-11925
▁भाषणों	-11926
▁आन्तरिक	-11927
▁पौराणिक	-11928
▁बेटियों	-11929
▁प्रभारित	-11930
▁सौन्दर्य	-11931
▁प्रत्यारो	-11932
ard	-11933
ापी	-11934
ोपै	-11935
आईपी	-11936
ोसिस	-11937
▁मेध	-11938
देशीय	-11939
▁लिस्ट	-11940
▁विद्व	-11941
▁शिश्न	-11942
▁असीमित	-11943
▁भ्रमित	-11944
▁साहसिक	-11945
▁कंस्ट्र	-11946
▁अविभाज्य	-11947
▁उंगलियों	-11948
▁द्वितीयक	-11949
▁संयंत्रों	-11950
▁साधारणतया	-11951
▁अभिव्यक्तियों	-11952
BC	-11953
द्घ	-11954
▁बछ	-11955
राहट	-11956
वेली	-11957
▁गान	-11958
▁रची	-11959
ापनों	-11960
▁घिरा	-11961
▁प्रज	-11962
▁महाभ	-11963
▁सरला	-11964
ार्श्व	-11965
▁क्राइ	-11966
▁जावेद	-11967
▁रूढ़ि	-11968
▁APPEAL	-11969
▁दुबारा	-11970
▁पत्रकार	-11971
▁वृक्षों	-11972
▁दुर्लभतम	-11973
▁फ्रैक्चर	-11974
णय	-11975
ॉं	-11976
्इ	-11977
बाग	-11978
िफ़	-11979
▁SA	-11980
ल्यू	-11981
भक्ति	-11982
▁अंशों	-11983
▁उतरने	-11984
▁एक्सा	-11985
▁टेंडर	-11986
▁बूढ़े	-11987
▁मैथुन	-11988
▁असंगतता	-11989
▁सम्मिलन	-11990
▁प्रॉक्सी	-11991
▁संक्रामक	-11992
▁पंचवर्षीय	-11993
▁अपर्याप्तता	-11994
▁ट्रांसपोर्ट	-11995
ho	-11996
’’	-11997
ड्र	-11998
नरी	-11999
नें	-12000
रिट	-12001
▁Ra	-12002
्मान	-12003
▁उमा	-12004
▁खेप	-12005
▁जोध	-12006
विन्द	-12007
शिल्प	-12008
▁उपनिष	-12009
▁क्रमा	-12010
▁धब्बे	-12011
▁पाउडर	-12012
▁बर्बर	-12013
▁जिन्ना	-12014
▁मुद्रक	-12015
▁एनआईओएस	-12016
▁पहुंचता	-12017
▁धूम्रपान	-12018
▁डीडब्ल्यू	-12019
ैब	-12020
झान	-12021
तौर	-12022
▁कछ	-12023
तमंद	-12024
▁कटक	-12025
▁जगा	-12026
▁पैद	-12027
▁बृज	-12028
▁भास	-12029
ालैंड	-12030
▁जेपी	-12031
▁ताला	-12032
▁दोहन	-12033
▁कथाओं	-12034
▁चालुक	-12035
▁दशाओं	-12036
▁मसौदे	-12037
▁क्राउन	-12038
▁पंचांग	-12039
▁पुनर्विलोकन	-12040
हू	-12041
ist	-12042
टीए	-12043
▁PRO	-12044
▁कूल	-12045
▁घाय	-12046
▁ज़ोर	-12047
▁व्रत	-12048
▁घुटने	-12049
▁शालीन	-12050
▁संजीव	-12051
ोरेंसिक	-12052
्यायालय	-12053
▁तिवारी	-12054
▁निकलना	-12055
▁संप्रती	-12056
▁समग्रता	-12057
▁औपचारिकता	-12058
▁प्रेमचन्द	-12059
▁नामनिर्देश	-12060
▁सर्वसम्मति	-12061
▁प्रयोगशालाओं	-12062
FA	-12063
चाल	-12064
्फ़	-12065
▁CR	-12066
ions	-12067
▁आईओ	-12068
▁तैर	-12069
▁पटा	-12070
▁बसा	-12071
▁ईआईए	-12072
▁कशेर	-12073
▁पितृ	-12074
▁हरेक	-12075
कुमारी	-12076
▁जीवनी	-12077
▁पीड़क	-12078
▁बैठता	-12079
▁राइट्स	-12080
▁गुवाहाटी	-12081
▁सर्विसेज	-12082
▁औपनिवेशिक	-12083
▁पूर्णकालिक	-12084
▁महाप्रबंधक	-12085
▁क्रियान्वित	-12086
▁सौहार्दपूर्ण	-12087
ूले	-12088
▁AC	-12089
एससी	-12090
स्से	-12091
ोत्प	-12092
▁अजय	-12093
▁अरे	-12094
▁भला	-12095
▁चौकी	-12096
▁पतली	-12097
▁भरना	-12098
▁लाते	-12099
▁लोया	-12100
▁सजीव	-12101
ांक्षी	-12102
▁अमिता	-12103
▁क्यूर	-12104
▁चिट्ठ	-12105
▁पक्का	-12106
▁रवैया	-12107
▁वायदा	-12108
ोनेशिया	-12109
▁अधिमान	-12110
▁बहुलता	-12111
▁इस्माइल	-12112
▁फैक्ट्री	-12113
▁भरोसेमंद	-12114
▁संक्रमित	-12115
▁.........	-12116
▁प्रदाताओं	-12117
ov	-12118
ँव	-12119
▁वफ	-12120
ंजित	-12121
नायक	-12122
विता	-12123
्रेन	-12124
▁कम्ब	-12125
▁भीषण	-12126
▁मेले	-12127
▁क्लेम	-12128
▁पत्रक	-12129
▁पर्सन	-12130
▁बहाना	-12131
▁मुर्ग	-12132
▁मोहित	-12133
▁कमजोरी	-12134
▁अंतर्वि	-12135
▁फेडरेशन	-12136
▁आंदोलनों	-12137
▁कार्यकारिणी	-12138
▁जनसांख्यिकीय	-12139
age	-12140
मरी	-12141
ज्जा	-12142
▁टूल	-12143
▁नीर	-12144
▁शाक	-12145
गृहीत	-12146
विंदर	-12147
▁लोकल	-12148
▁सपना	-12149
ज्ञानी	-12150
▁कराते	-12151
▁लेआउट	-12152
▁सज्जन	-12153
▁अस्त्र	-12154
▁परोक्ष	-12155
▁लाइनों	-12156
▁समझदार	-12157
▁समामेल	-12158
▁समारोहों	-12159
▁उपचारात्मक	-12160
▁स्थानापन्न	-12161
नक	-12162
यता	-12163
लिन	-12164
एफआर	-12165
▁पीप	-12166
▁बुजु	-12167
▁स्या	-12168
ड़ियां	-12169
▁कालाव	-12170
▁निकास	-12171
▁पाटिल	-12172
▁ग्रेजु	-12173
▁समाजवाद	-12174
▁अधिकरणों	-12175
▁करनेवाले	-12176
▁फोरेंसिक	-12177
▁प्रामाणिक	-12178
▁गतिविधियाँ	-12179
FT	-12180
लपुर	-12181
िकार	-12182
▁Pra	-12183
▁डेय	-12184
▁आलेख	-12185
▁नौका	-12186
▁पत्न	-12187
▁मानद	-12188
ेंडेंट	-12189
▁आंत्र	-12190
▁बढाने	-12191
▁वर्गा	-12192
▁मिस्टर	-12193
▁मेधावी	-12194
▁अमानवीय	-12195
▁धारणाओं	-12196
▁ट्रांसमिशन	-12197
▁प्रतिभागियों	-12198
तो	-12199
२५	-12200
ill	-12201
ive	-12202
ोहन	-12203
▁st	-12204
▁ढा	-12205
▁कैट	-12206
▁राग	-12207
▁हनन	-12208
बुद्ध	-12209
रियों	-12210
▁एनएच	-12211
▁कब्र	-12212
▁कमान	-12213
▁जीता	-12214
▁पद्य	-12215
▁पायल	-12216
स्तरीय	-12217
▁मूर्त	-12218
▁राजने	-12219
▁अंसारी	-12220
EC	-12221
ताई	-12222
▁गन	-12223
्यूज	-12224
१वें	-12225
▁मॉन	-12226
िनेशन	-12227
▁आहरण	-12228
▁कोले	-12229
▁टेबल	-12230
▁मामल	-12231
▁वसंत	-12232
▁उपवास	-12233
▁क्षीण	-12234
▁दोहरी	-12235
▁माउंट	-12236
▁अधिभोग	-12237
▁अमृतसर	-12238
▁घायलों	-12239
▁मुर्गी	-12240
▁सटीकता	-12241
▁अक्षरों	-12242
▁डालमिया	-12243
▁प्रवर्तक	-12244
▁हलफनामों	-12245
▁सेंटीमीटर	-12246
▁सामंजस्यपूर्ण	-12247
टिन	-12248
▁कद	-12249
चूड़	-12250
▁डीए	-12251
▁दवे	-12252
▁बृह	-12253
▁भरण	-12254
▁रिच	-12255
ियाना	-12256
▁आभास	-12257
▁छुपा	-12258
▁लगान	-12259
▁सगाई	-12260
▁भावों	-12261
▁सीखना	-12262
▁अध्याप	-12263
▁मूल्या	-12264
▁चर्चाओं	-12265
▁न्यूजील	-12266
▁बुजुर्ग	-12267
▁स्टार्ट	-12268
▁अवस्थाओं	-12269
▁उत्पादकों	-12270
गंज	-12271
गित	-12272
ोमा	-12273
ौदा	-12274
्ती	-12275
▁sa	-12276
▁केम	-12277
▁मर्	-12278
▁महम	-12279
ुक्रम	-12280
ोध्या	-12281
▁अभिष	-12282
▁आईपी	-12283
▁भैंस	-12284
▁यानि	-12285
▁राशन	-12286
▁विलोप	-12287
▁अनुरुप	-12288
▁उदयपुर	-12289
▁निर्मल	-12290
▁सुशासन	-12291
▁स्वरुप	-12292
▁किस्मों	-12293
▁पैदावार	-12294
▁फ्लैटों	-12295
▁ट्रैकिंग	-12296
▁वार्षिकी	-12297
नम	-12298
सिस	-12299
▁Or	-12300
▁ओज	-12301
मुझे	-12302
कर्मी	-12303
ियनों	-12304
▁इजाज	-12305
▁चढ़ा	-12306
▁मदुर	-12307
▁मैके	-12308
▁विकट	-12309
ब्रेरी	-12310
▁Chrom	-12311
▁जिनको	-12312
▁डेयरी	-12313
▁बुलेट	-12314
▁संवित	-12315
▁क्योकि	-12316
▁बेईमान	-12317
▁अधिकथित	-12318
▁एकमुश्त	-12319
▁रिश्तों	-12320
▁कार्यक्षेत्र	-12321
WC	-12322
ंछ	-12323
षी	-12324
ice	-12325
रिश	-12326
ूंघ	-12327
प्पन	-12328
समूह	-12329
▁खाम	-12330
▁घोट	-12331
▁अभूत	-12332
▁एलजी	-12333
▁गुला	-12334
▁वृंद	-12335
▁जोसेफ	-12336
▁द्रुत	-12337
▁मानकी	-12338
▁लिखकर	-12339
▁खींचने	-12340
▁शुक्रा	-12341
▁स्वराज	-12342
▁खुशहाली	-12343
▁जीवनकाल	-12344
▁पर्याप्तता	-12345
▁श्रद्धांजलि	-12346
ase	-12347
ect	-12348
खाप	-12349
मैं	-12350
शिक	-12351
▁टच	-12352
▁छड़	-12353
▁फीड	-12354
▁अतुल	-12355
▁आरएस	-12356
▁उभार	-12357
▁एनटी	-12358
▁तरफ़	-12359
▁देवे	-12360
▁फ़ाइ	-12361
▁सबका	-12362
▁सीवी	-12363
▁डेमोक	-12364
▁पढ़कर	-12365
▁ह्रास	-12366
▁अपनाते	-12367
▁अप्रिय	-12368
▁खुलासे	-12369
▁तत्समय	-12370
▁कम्प्यूट	-12371
▁पड़ोसियों	-12372
▁व्यतिक्रम	-12373
▁पर्यवेक्षी	-12374
▁साम्राज्यवाद	-12375
ttp	-12376
णीत	-12377
मयी	-12378
▁AS	-12379
चेतन	-12380
नीचर	-12381
ानंद	-12382
▁पिर	-12383
लिस्ट	-12384
्फीति	-12385
▁अंगी	-12386
▁कलाम	-12387
▁मेला	-12388
िज्ञान	-12389
▁जिंदा	-12390
▁पाउंड	-12391
▁पारसी	-12392
▁बदलता	-12393
▁राहुल	-12394
▁सुझाया	-12395
▁स्नायु	-12396
▁अयोध्या	-12397
▁गोलियां	-12398
▁निम्नतर	-12399
▁हाइड्रो	-12400
▁निर्यातक	-12401
▁वर्गाकार	-12402
▁सब्जियों	-12403
▁व्याख्यात्मक	-12404
्भ	-12405
ath	-12406
जना	-12407
▁खेद	-12408
▁नाच	-12409
▁पंक	-12410
▁मिठ	-12411
▁मैग	-12412
कर्षण	-12413
▁चुनी	-12414
▁ब्लॉ	-12415
▁चौड़ी	-12416
▁मुंशी	-12417
कर्त्ता	-12418
▁ग्रीवा	-12419
▁चीज़ों	-12420
▁फोल्डर	-12421
▁रीडिंग	-12422
▁अनुपलब्ध	-12423
▁ग्रामीणों	-12424
▁प्रायोगिक	-12425
रथ	-12426
हण	-12427
ट्टे	-12428
सिया	-12429
▁कोच	-12430
▁दोग	-12431
▁सफ़	-12432
▁सिड	-12433
▁आतिश	-12434
▁नर्त	-12435
▁बैठी	-12436
▁सीएल	-12437
ाचार्य	-12438
▁इजाजत	-12439
▁कार्प	-12440
▁नम्बर	-12441
▁प्रसि	-12442
▁दर्शित	-12443
▁स्कूली	-12444
न्द्रनाथ	-12445
▁मुद्रास	-12446
▁मैदानों	-12447
▁सूचनाएं	-12448
▁बस्तियों	-12449
▁बोलीदाता	-12450
▁रेगुलेशन	-12451
▁मान्यताप्राप्त	-12452
aoM	-12453
रिस	-12454
ुला	-12455
ेतन	-12456
व्या	-12457
ास्व	-12458
्यूप	-12459
▁दाऊ	-12460
▁बकर	-12461
िचेरी	-12462
▁ईश्व	-12463
▁फेडरल	-12464
▁हाजिर	-12465
▁अफ्रीकी	-12466
▁पाश्चात	-12467
▁ऑब्जेक्ट	-12468
▁ट्रांसफ़	-12469
▁वर्षगांठ	-12470
▁सन्निहित	-12471
ढी	-12472
ana	-12473
ेंग	-12474
ैंक	-12475
▁RA	-12476
▁छी	-12477
क्यू	-12478
सर्ग	-12479
▁जीओ	-12480
▁द्य	-12481
▁मुक	-12482
ंडिंग	-12483
गाड़ी	-12484
्लेषण	-12485
▁कमोड	-12486
▁गोयल	-12487
▁नागर	-12488
▁पठान	-12489
▁वफाद	-12490
▁अधूरा	-12491
▁अपलोड	-12492
▁मैनेज	-12493
▁लगाती	-12494
▁समयाव	-12495
▁अनुभवी	-12496
▁पंजीयक	-12497
▁प्रकटन	-12498
▁बढ़िया	-12499
▁राजपूत	-12500
▁प्रतिभू	-12501
▁निर्वाचक	-12502
▁सुव्यवस्थित	-12503
गण्य	-12504
▁कुद	-12505
▁तीर	-12506
▁बाण	-12507
▁राध	-12508
▁लॉक	-12509
त्रिक	-12510
ोनिया	-12511
▁गाथा	-12512
▁त्यौ	-12513
ुद्दीन	-12514
▁आभासी	-12515
▁कट्टर	-12516
▁नियति	-12517
▁संसूच	-12518
▁साइंस	-12519
▁सावधि	-12520
िपीडिया	-12521
▁एफएसएल	-12522
▁जोड़ता	-12523
▁ग्रीष्म	-12524
▁मार्क्स	-12525
▁अभ्यर्थी	-12526
▁प्रांतों	-12527
▁व्यक़्ति	-12528
▁पूर्वानुमान	-12529
▁भूस्वामियों	-12530
भवन	-12531
▁ढु	-12532
▁अवध	-12533
▁अमित	-12534
▁एस्क	-12535
▁पहना	-12536
▁बोनस	-12537
▁कच्चा	-12538
▁पित्त	-12539
▁कॉन्फ़	-12540
▁सचिवों	-12541
▁स्टांप	-12542
▁गेंदबाज	-12543
हि	-12544
तुर	-12545
िवि	-12546
▁is	-12547
▁चप	-12548
▁Ext	-12549
▁खां	-12550
▁फोक	-12551
▁लिब	-12552
तावास	-12553
ामीटर	-12554
▁कॉफी	-12555
▁खेला	-12556
▁नामं	-12557
▁मोदी	-12558
▁अक्षय	-12559
▁उत्सा	-12560
▁क्लास	-12561
▁जरिये	-12562
▁निजाम	-12563
▁बनेगा	-12564
▁कीमतें	-12565
▁संभाला	-12566
▁सराहनीय	-12567
▁अनुमानों	-12568
▁उपेक्षित	-12569
▁पार्किंग	-12570
▁साफ्टवेयर	-12571
अन	-12572
पो	-12573
▁IS	-12574
सूची	-12575
ालती	-12576
पृष्ठ	-12577
▁कतार	-12578
▁मुर्	-12579
कात्मक	-12580
▁अनुमन	-12581
▁आठवीं	-12582
▁रोबोट	-12583
▁वर्गम	-12584
ानात्मक	-12585
▁डंपिंग	-12586
▁पक्षीय	-12587
▁प्रातः	-12588
▁संभवतया	-12589
▁संस्थित	-12590
▁अविभाजित	-12591
FC	-12592
गृह	-12593
डेल	-12594
्लू	-12595
▁’’	-12596
बानी	-12597
ारसी	-12598
▁खली	-12599
ुगतान	-12600
▁रोमन	-12601
▁समतल	-12602
▁हमास	-12603
पीसीएल	-12604
▁असत्य	-12605
▁कैमरा	-12606
▁नगरों	-12607
▁बदलकर	-12608
णाधिकार	-12609
▁उल्लास	-12610
▁कुत्ते	-12611
▁पारम्प	-12612
▁शिशुओं	-12613
्यक्रिया	-12614
▁जातियां	-12615
▁निकालते	-12616
▁गतिशीलता	-12617
▁संदर्भों	-12618
▁एंटरप्राइ	-12619
▁निश्चितता	-12620
कूट	-12621
ुंब	-12622
▁As	-12623
वारे	-12624
▁संन	-12625
कार्य	-12626
क्ष्ण	-12627
▁अपडेट	-12628
▁कुप्र	-12629
▁शरारत	-12630
▁सुनते	-12631
▁आईसीसी	-12632
▁बुकिंग	-12633
▁इंग्लिश	-12634
▁कविताएं	-12635
▁किताबों	-12636
▁रामलिंग	-12637
▁वियतनाम	-12638
▁समयावधि	-12639
▁एनडीपीएस	-12640
▁हस्ताक्षरकर्ता	-12641
ण्य	-12642
हेज	-12643
▁BC	-12644
ाम्प	-12645
▁वेज	-12646
▁एजें	-12647
▁करोड	-12648
▁जूरी	-12649
▁डिपो	-12650
▁तम्ब	-12651
▁फ़ोन	-12652
▁भूतल	-12653
▁राणा	-12654
▁लाये	-12655
▁वक्ष	-12656
▁सीआई	-12657
▁ऑक्सी	-12658
▁खर्चा	-12659
▁राक्ष	-12660
▁कुर्सी	-12661
▁उच्छेदन	-12662
▁त्यौहार	-12663
▁अनुष्ठान	-12664
ort	-12665
िजा	-12666
ेकर	-12667
▁aa	-12668
▁ex	-12669
चरित	-12670
ूंगी	-12671
ॉजिट	-12672
▁नूर	-12673
नीकरण	-12674
रोहित	-12675
▁NAME	-12676
▁आस्थ	-12677
▁नीला	-12678
▁बोतल	-12679
▁मोटा	-12680
▁किसके	-12681
▁कीमती	-12682
▁चार्ल	-12683
▁परिणत	-12684
▁बढावा	-12685
▁महिमा	-12686
▁मार्ट	-12687
▁मेहरा	-12688
▁वेटेज	-12689
▁शेड्यूल	-12690
▁कॉरपोरेशन	-12691
▁इंजीनियरों	-12692
थरा	-12693
षाण	-12694
क्षर	-12695
▁चेन	-12696
विदों	-12697
ियाला	-12698
▁यहूद	-12699
▁वायर	-12700
▁क्लिन	-12701
▁दूषित	-12702
▁नतीजे	-12703
▁उपद्रव	-12704
▁चेष्टा	-12705
▁फ्रेंच	-12706
▁शौचालय	-12707
▁सुल्तान	-12708
▁केन्द्री	-12709
▁सिद्धदोष	-12710
▁कम्युनिस्ट	-12711
▁मुद्रास्फीति	-12712
ob	-12713
▁टि	-12714
▁रौ	-12715
ध्या	-12716
▁रवै	-12717
कार्ब	-12718
धिपति	-12719
ष्टिक	-12720
िनियम	-12721
्यकाल	-12722
▁निंद	-12723
▁मधुम	-12724
▁स्ला	-12725
▁अस्सी	-12726
▁उत्खन	-12727
▁बनारस	-12728
▁सवारी	-12729
▁हज़ार	-12730
▁एक्साइज	-12731
▁फ़ाइलें	-12732
▁सन्दर्भ	-12733
▁सरोजिनी	-12734
▁कहानियां	-12735
PT	-12736
ge	-12737
ari	-12738
नेल	-12739
नोट	-12740
पने	-12741
पिंग	-12742
▁जेड	-12743
▁व्ह	-12744
्रिंग	-12745
▁चांस	-12746
▁तर्ज	-12747
▁दलाल	-12748
▁रखनी	-12749
▁रखाव	-12750
▁सिंक	-12751
▁खोलना	-12752
▁निकली	-12753
▁अदृश्य	-12754
▁उत्तरो	-12755
▁जोधपुर	-12756
▁अनुमन्य	-12757
▁अभूतपूर्व	-12758
▁प्रतिबिम्ब	-12759
फिक	-12760
समी	-12761
▁वल	-12762
ार्ध	-12763
▁CPC	-12764
▁Con	-12765
▁एआर	-12766
▁जनन	-12767
▁लसी	-12768
▁शिष	-12769
▁इसमे	-12770
▁एचएस	-12771
▁पुडु	-12772
▁सूरी	-12773
्वेस्ट	-12774
▁अजनबी	-12775
▁ग्रेट	-12776
▁जलाशय	-12777
▁बयाना	-12778
▁भाजपा	-12779
▁सुस्प	-12780
▁एक्सेस	-12781
▁दिवसीय	-12782
▁मिनटों	-12783
▁अराजकता	-12784
▁वर्गमूल	-12785
▁अध्ययनों	-12786
▁कोशिकाएं	-12787
▁विजेताओं	-12788
▁अव्यवस्था	-12789
▁विकिपीडिया	-12790
▁व्यक्तिपरक	-12791
▁प्रतिनिधिमंडल	-12792
वृ	-12793
▁नॉ	-12794
श्री	-12795
ीयों	-12796
▁कोठ	-12797
▁थिय	-12798
▁धाग	-12799
▁मुत	-12800
▁वरन	-12801
▁हिज	-12802
्रेसी	-12803
▁फिनल	-12804
▁बाली	-12805
▁कालीन	-12806
▁किश्त	-12807
▁खरगोश	-12808
▁विक्ट	-12809
▁छात्रा	-12810
▁जमानती	-12811
▁नरसिंह	-12812
▁श्रव्य	-12813
▁साइटों	-12814
▁कालावधि	-12815
▁परिषदों	-12816
▁लेखांकन	-12817
▁आधारशिला	-12818
▁क्रिस्टल	-12819
▁सम्मानजनक	-12820
णसी	-12821
सिम	-12822
्लम	-12823
प्पी	-12824
▁कलम	-12825
▁परक	-12826
▁मनु	-12827
निंदा	-12828
▁अंचल	-12829
▁घुड़	-12830
▁मुसी	-12831
▁स्टै	-12832
▁छिड़क	-12833
▁जार्ज	-12834
▁असिस्ट	-12835
▁कृतज्ञ	-12836
▁पुजारी	-12837
▁योद्धा	-12838
▁सांसार	-12839
▁क्लाइंट	-12840
▁फर्नीचर	-12841
▁प्रबन्धन	-12842
▁ऑक्सफोर्ड	-12843
▁न्यायपूर्ण	-12844
▁विसंगतियां	-12845
▁प्रतीकात्मक	-12846
▁व्यवहार्यता	-12847
ust	-12848
▁AD	-12849
▁al	-12850
शीली	-12851
▁एडम	-12852
▁पसी	-12853
▁हिच	-12854
▁एसएच	-12855
▁चन्द	-12856
▁कराती	-12857
▁जड़ें	-12858
▁डेंटल	-12859
▁पसन्द	-12860
▁बेहोश	-12861
▁कानूनन	-12862
▁हुसैनी	-12863
्रास्ट्र	-12864
▁निवेदिता	-12865
▁विनम्रता	-12866
▁तत्पश्चात्	-12867
इज़	-12868
विट	-12869
▁Al	-12870
▁SCR	-12871
▁अरो	-12872
▁घटी	-12873
▁पिघ	-12874
▁भाल	-12875
▁राश	-12876
▁हें	-12877
फील्ड	-12878
▁थैली	-12879
▁दाऊद	-12880
▁वंशज	-12881
▁कोनों	-12882
▁जेलों	-12883
▁परहेज	-12884
▁पांडे	-12885
▁वीरता	-12886
▁जोड़ों	-12887
▁सॉफ़्ट	-12888
▁तीक्ष्ण	-12889
▁मलेरिया	-12890
▁इंस्ट्रू	-12891
▁ग्रेनाइट	-12892
▁पुरस्कृत	-12893
▁महाभियोग	-12894
▁यात्राओं	-12895
▁प्रविष्टियां	-12896
२६	-12897
पों	-12898
बाध	-12899
िएट	-12900
काने	-12901
ाम्ब	-12902
ुष्प	-12903
▁चाँ	-12904
▁सैल	-12905
▁Shri	-12906
▁उठती	-12907
▁कचरा	-12908
▁गुदा	-12909
▁गौरी	-12910
ग्राही	-12911
्वाइंट	-12912
▁नवजात	-12913
▁अदालती	-12914
▁अंशकालिक	-12915
▁प्रयोगों	-12916
▁एवोल्यूशन	-12917
▁पाश्चात्य	-12918
▁पदाधिकारियों	-12919
्जी	-12920
घाती	-12921
▁कुश	-12922
▁पेड	-12923
▁सता	-12924
▁सृज	-12925
▁आप्र	-12926
▁टोकन	-12927
िक्षित	-12928
▁गुलाब	-12929
▁झगड़े	-12930
▁पत्ते	-12931
▁बोलता	-12932
▁भूगोल	-12933
▁श्रवण	-12934
▁Chrome	-12935
▁डिजीटल	-12936
▁पारगमन	-12937
▁ग्रेजुएट	-12938
▁मालिकाना	-12939
▁चंद्रचूड़	-12940
▁पाकिस्तानी	-12941
MT	-12942
दगी	-12943
वाप	-12944
िडे	-12945
एंगे	-12946
िएटर	-12947
▁डबल	-12948
▁दुल	-12949
▁पिच	-12950
▁फलक	-12951
▁मों	-12952
▁सरस	-12953
▁उभरा	-12954
▁उष्ण	-12955
▁एमवी	-12956
▁चाबी	-12957
▁परिम	-12958
▁प्रथ	-12959
▁मेरठ	-12960
▁शर्ट	-12961
नारायण	-12962
▁अड्डा	-12963
▁इन्टर	-12964
▁देखती	-12965
▁नशीली	-12966
▁रोकती	-12967
ोर्टियम	-12968
▁इलैक्ट	-12969
▁गठबंधन	-12970
▁परिवाद	-12971
▁पर्याय	-12972
▁इस्तीफे	-12973
▁प्रतिमान	-12974
▁सक्रियता	-12975
▁कॉन्फ़िगर	-12976
▁सांख्यिकी	-12977
▁नियोक्ताओं	-12978
▁अभ्यर्थियों	-12979
our	-12980
▁वग	-12981
▁वश	-12982
▁भूप	-12983
▁हसन	-12984
▁गांठ	-12985
▁घुमा	-12986
▁दांव	-12987
▁देहा	-12988
▁रीढ़	-12989
▁लाकर	-12990
▁असहमत	-12991
▁दूंगा	-12992
▁परिशि	-12993
▁भवानी	-12994
▁तुम्हे	-12995
▁दुश्मन	-12996
▁चुनिंदा	-12997
▁विनियोग	-12998
▁यहूदियों	-12999
▁साम्राज़	-13000
▁प्रत्याशा	-13001
बख	-13002
जीर	-13003
ौली	-13004
भाजन	-13005
वलित	-13006
वासन	-13007
ावनी	-13008
▁डिम	-13009
▁सुष	-13010
▁ज्यू	-13011
▁मैरी	-13012
▁सिन्ध	-13013
▁गणितीय	-13014
▁सीलिंग	-13015
▁पहुंचते	-13016
▁संभाव्यता	-13017
▁सृजनात्मक	-13018
्रास्ट्रक्चर	-13019
▁पुनर्भुगतान	-13020
▁प्रतिक्रियाओं	-13021
गिर	-13022
ेरी	-13023
डीपी	-13024
▁फ़र	-13025
▁अनुष	-13026
▁आरेख	-13027
▁निरी	-13028
▁उद्गम	-13029
▁गिर्द	-13030
▁सुनना	-13031
ोग्राफी	-13032
▁चीज़ें	-13033
▁ग्रेनेड	-13034
▁राज्यीय	-13035
▁वाराणसी	-13036
▁सांसारिक	-13037
्बर	-13038
▁अपू	-13039
▁बुध	-13040
▁साहू	-13041
▁स्की	-13042
▁करेंः	-13043
▁कहावत	-13044
▁घुमाव	-13045
▁जमारा	-13046
▁विक्ष	-13047
▁इन्कार	-13048
▁गार्डन	-13049
▁प्रफुल	-13050
▁ससुराल	-13051
▁कैथोलिक	-13052
▁निर्बाध	-13053
▁प्रख्या	-13054
▁व्यवसायों	-13055
▁हस्तशिल्प	-13056
AG	-13057
बरे	-13058
▁खज	-13059
कांत	-13060
▁दीव	-13061
▁रवी	-13062
▁सला	-13063
पल्ली	-13064
▁आरएफ	-13065
▁एसके	-13066
▁कड़ा	-13067
▁कोटे	-13068
▁खोजा	-13069
▁सूअर	-13070
▁कच्ची	-13071
▁गौड़ा	-13072
▁धक्का	-13073
▁निपुण	-13074
▁फील्ड	-13075
▁मदुरै	-13076
▁वायरस	-13077
▁जांचने	-13078
▁जुड़ने	-13079
▁विरचित	-13080
▁विराट्	-13081
▁नामंजूर	-13082
▁पांडिचेरी	-13083
▁रिक्तियां	-13084
▁पत्रकारिता	-13085
▁प्रत्यावर्तन	-13086
ary	-13087
ड़ो	-13088
शंस	-13089
िकट	-13090
खाने	-13091
▁टॉम	-13092
▁नज़	-13093
ोत्तर	-13094
▁आंका	-13095
▁इजरा	-13096
▁उपगत	-13097
▁छत्र	-13098
▁टकरा	-13099
▁हतोत	-13100
▁आएंगे	-13101
▁डकैती	-13102
▁डेबिट	-13103
▁दंगों	-13104
▁फरमान	-13105
▁प्रायद	-13106
▁वेश्या	-13107
▁चार्ल्स	-13108
▁पहुंचाई	-13109
▁बेहतरीन	-13110
▁विलुप्त	-13111
▁माइक्रोस	-13112
▁खिलाड़ियों	-13113
▁संस्कृतियों	-13114
िआ	-13115
इंग	-13116
मेव	-13117
ुलिप	-13118
▁AOR	-13119
▁मुठ	-13120
▁शब्	-13121
▁खसरा	-13122
▁गायक	-13123
▁टिकी	-13124
▁ठरोग	-13125
▁रिसी	-13126
▁रोके	-13127
▁छोड़ी	-13128
▁ज्वार	-13129
▁बिगड़	-13130
▁भाँति	-13131
▁संचलन	-13132
▁स्पर्	-13133
्लीकेशन	-13134
▁अघोषित	-13135
▁एनसीएल	-13136
▁बारीकी	-13137
▁रिएक्टर	-13138
▁रामकृष्ण	-13139
ईस	-13140
काई	-13141
गिन	-13142
ज्ह	-13143
वेन	-13144
▁EE	-13145
▁झर	-13146
▁शन	-13147
गम्य	-13148
चर्य	-13149
्कोह	-13150
▁अनी	-13151
▁खगोल	-13152
▁बर्न	-13153
▁मनोज	-13154
ग्रन्थ	-13155
▁घटिया	-13156
▁चढ़ाव	-13157
▁बीजों	-13158
▁शिमला	-13159
▁साढ़े	-13160
▁चिन्तन	-13161
▁बंगलौर	-13162
▁बड़ौदा	-13163
▁असंबद्ध	-13164
▁पुडुचेरी	-13165
▁प्रदूषित	-13166
▁हितधारकों	-13167
▁कंसोर्टियम	-13168
▁इनसॉल्वेंसी	-13169
eg	-13170
▁एकक	-13171
▁एफए	-13172
▁दिग	-13173
▁पदान	-13174
▁बापू	-13175
▁बीआई	-13176
▁भूरे	-13177
▁महेश	-13178
▁साइड	-13179
▁स्टे	-13180
▁घृणित	-13181
▁डोमिन	-13182
▁बेलार	-13183
▁हवाले	-13184
▁पोस्टम	-13185
▁सम्पदा	-13186
▁पहुंचती	-13187
▁फेफड़ों	-13188
▁मेहरअली	-13189
▁रणनीतिक	-13190
▁विध्वंस	-13191
▁कॉलेजियम	-13192
▁जरूरतमंद	-13193
▁दूरदर्शन	-13194
▁प्रकोष्ठ	-13195
▁विचारकों	-13196
▁त्यागपत्र	-13197
मह	-13198
▁ण	-13199
ोहक	-13200
गरीय	-13201
ैनिक	-13202
▁Anr	-13203
▁एनई	-13204
▁कोक	-13205
▁चैक	-13206
▁यंग	-13207
ग्रही	-13208
▁गलतफ	-13209
ंस्कृत	-13210
मंडलों	-13211
▁उभरते	-13212
▁कामया	-13213
▁क्लीन	-13214
▁बीमित	-13215
▁निभाता	-13216
▁पकड़ना	-13217
▁अनभिज्ञ	-13218
▁आज़माएं	-13219
▁दूतावास	-13220
▁साझीदार	-13221
▁पाइपलाइन	-13222
▁क्रियाशील	-13223
▁भूविज्ञान	-13224
▁विवेकानंद	-13225
▁विश्वयुद्ध	-13226
▁शल्यक्रिया	-13227
ओपी	-13228
िलास	-13229
▁अँग	-13230
▁बेव	-13231
▁मिज	-13232
▁यूट	-13233
ेरिया	-13234
▁इर्द	-13235
▁एचआई	-13236
▁काटा	-13237
▁थर्म	-13238
▁बीबी	-13239
▁व्यप	-13240
▁अनजान	-13241
▁मोक्ष	-13242
▁लिपिक	-13243
▁सस्ती	-13244
ापूर्वक	-13245
▁प्रदीप	-13246
▁वेंकटर	-13247
▁कारखाना	-13248
▁सिद्धार्थ	-13249
▁उत्तरोत्तर	-13250
▁ग्रहणाधिकार	-13251
▁दुर्भाग्यवश	-13252
ans	-13253
are	-13254
फेस	-13255
▁AT	-13256
▁lt	-13257
▁LIN	-13258
▁फाल	-13259
▁सहस	-13260
▁सैर	-13261
दुनाथ	-13262
▁कलंक	-13263
▁सुधा	-13264
▁घनत्व	-13265
▁महमूद	-13266
▁मिलें	-13267
▁अधिवास	-13268
▁मौलाना	-13269
▁खूबसूरत	-13270
▁निर्वचन	-13271
▁वामपंथी	-13272
▁व्यंग्य	-13273
▁श्लोकों	-13274
▁सम्मोहक	-13275
▁परीक्षकों	-13276
▁मूर्तियों	-13277
▁सम्प्रदाय	-13278
▁आर्बिट्रेशन	-13279
०ग	-13280
▁ऋस	-13281
कारक	-13282
ट्ठी	-13283
द्दा	-13284
ावरी	-13285
▁उमर	-13286
▁कंब	-13287
▁तौल	-13288
▁नशे	-13289
▁परख	-13290
कार्ड	-13291
गार्ड	-13292
चर्या	-13293
▁कमला	-13294
▁पाकर	-13295
▁पाचन	-13296
▁लाती	-13297
▁कोचीन	-13298
▁चलाता	-13299
▁मल्हो	-13300
▁लॉगिन	-13301
▁हटाकर	-13302
▁चटर्जी	-13303
▁बर्बाद	-13304
▁मेजबान	-13305
▁संगणित	-13306
▁अन्यत्र	-13307
▁फ़ाइलों	-13308
▁परमात्मा	-13309
▁मल्होत्रा	-13310
▁प्रतिभूतिक	-13311
▁राजमार्गों	-13312
▁बुद्धिमत्ता	-13313
▁राष्ट्रवादी	-13314
▁प्रविष्टियाँ	-13315
▁प्रवृत्तियों	-13316
लता	-13317
ोपाय	-13318
▁अनर	-13319
▁चाप	-13320
▁दाब	-13321
▁धीर	-13322
▁बूझ	-13323
▁मकर	-13324
▁शोथ	-13325
▁आवेश	-13326
▁एसआर	-13327
▁काबू	-13328
▁चेतन	-13329
▁छिपे	-13330
▁सज़ा	-13331
रिवर्त	-13332
▁नित्य	-13333
▁न्यूज	-13334
▁रिलीज	-13335
▁अलमस्त	-13336
▁प्रलेख	-13337
▁परवर्ती	-13338
▁संलिप्त	-13339
▁अनुज्ञेय	-13340
▁कार्यशील	-13341
▁न्यायिकता	-13342
मणि	-13343
ेगा	-13344
▁ऑब	-13345
ब्बत	-13346
▁जेठ	-13347
▁मूक	-13348
नेटिक	-13349
▁एमएच	-13350
▁झुंड	-13351
▁टोपी	-13352
▁पुर्	-13353
▁आबद्ध	-13354
▁चिकना	-13355
▁छावनी	-13356
▁तामील	-13357
▁तात्या	-13358
▁फाइलों	-13359
▁वृत्ता	-13360
▁कमोडिटी	-13361
▁साम्प्र	-13362
▁उद्यमिता	-13363
▁इस्लामवादियों	-13364
DC	-13365
ख्ता	-13366
▁लटक	-13367
▁हृद	-13368
ेशिया	-13369
▁आरडी	-13370
▁आर्क	-13371
▁परिर	-13372
▁सीने	-13373
▁ज्यों	-13374
▁वीर्य	-13375
▁हुर्इ	-13376
▁आयोजना	-13377
चिकित्सा	-13378
▁नानालाल	-13379
▁फिनलैंड	-13380
▁कार्यकरण	-13381
▁रिफाइनरी	-13382
▁रियासतों	-13383
▁संख्याओं	-13384
झी	-13385
ाश	-13386
▁DG	-13387
▁नह	-13388
पीजी	-13389
ावान	-13390
▁एनी	-13391
▁मको	-13392
▁लवण	-13393
▁साय	-13394
भाषित	-13395
▁कुएं	-13396
▁कुचल	-13397
▁मुखर	-13398
▁विदा	-13399
▁समेट	-13400
▁सूखी	-13401
▁सेतु	-13402
▁एकत्व	-13403
▁कप्तान	-13404
▁युसुफ़	-13405
▁सिद्धि	-13406
▁सीरियल	-13407
▁अपरिचित	-13408
▁प्वाइंट	-13409
▁पुरातत्व	-13410
▁मातृभूमि	-13411
थिक	-13412
कांड	-13413
▁काठ	-13414
▁जोश	-13415
▁दूत	-13416
▁याक	-13417
▁हेग	-13418
ुल्ला	-13419
▁कैसी	-13420
▁जनमत	-13421
▁बरती	-13422
▁बिगा	-13423
▁माधव	-13424
▁यूटी	-13425
▁अंकुर	-13426
▁दुष्ट	-13427
▁वार्म	-13428
▁आईटीआर	-13429
▁नाइट्र	-13430
▁पिताजी	-13431
▁रोज़गार	-13432
▁विवाहों	-13433
▁संकुचित	-13434
▁सिक्योर	-13435
▁आश्रितों	-13436
▁उर्वरकों	-13437
▁पेशेवरों	-13438
▁अपराधीकरण	-13439
▁निर्दोषता	-13440
▁प्रतिबन्ध	-13441
▁दीर्घकालीन	-13442
uk	-13443
तनी	-13444
तलब	-13445
भुज	-13446
गुना	-13447
▁एडी	-13448
▁घने	-13449
▁फली	-13450
▁बुन	-13451
▁रतन	-13452
▁शाल	-13453
आधारी	-13454
▁अनुत	-13455
▁खाती	-13456
▁मर्म	-13457
▁लिहा	-13458
िष्कृत	-13459
▁एएसआई	-13460
▁सचेतन	-13461
▁समेकन	-13462
▁अलंकरण	-13463
▁पड़ताल	-13464
▁बढ़ेगा	-13465
▁यूनिको	-13466
▁शिपिंग	-13467
▁बढ़ोतरी	-13468
▁चुनौतियां	-13469
▁लोकप्रियता	-13470
▁सॉफ़्टवेयर	-13471
▁कंस्ट्रक्शन	-13472
▁पक्षपातपूर्ण	-13473
RC	-13474
ऊं	-13475
तिर	-13476
दून	-13477
सोस	-13478
ुंध	-13479
▁SI	-13480
स्टन	-13481
▁जलन	-13482
▁भान	-13483
▁सहे	-13484
▁जांघ	-13485
▁धमनी	-13486
▁मुक़	-13487
▁मोर्	-13488
▁रचित	-13489
▁विशा	-13490
▁शेखर	-13491
▁स्लम	-13492
▁ढूंढ़	-13493
▁पड़ना	-13494
▁फसलें	-13495
▁बेजबर	-13496
▁रोकते	-13497
ोर्निया	-13498
▁चाहिएं	-13499
▁चुकौती	-13500
▁प्राणिक	-13501
▁मछलियों	-13502
▁यूनिटों	-13503
▁संभाव्य	-13504
▁अनुकरणीय	-13505
▁डायरेक्ट	-13506
▁कर्त्तव्य	-13507
▁छात्रवृत्ति	-13508
▁वृद्धावस्था	-13509
ug	-13510
MAR	-13511
▁ऊन	-13512
ालतू	-13513
▁एसई	-13514
▁निल	-13515
▁पीई	-13516
▁मुद	-13517
▁एचपी	-13518
▁जलीय	-13519
▁पूंछ	-13520
▁मण्ड	-13521
▁मुठभ	-13522
▁शाला	-13523
ारियों	-13524
▁फुफ्फ	-13525
▁उत्तरः	-13526
▁भवभूति	-13527
▁मिटाने	-13528
▁अंगीकार	-13529
▁नजरबंदी	-13530
▁प्रतिषेध	-13531
▁संप्रतीक	-13532
▁विकासात्मक	-13533
IDA	-13534
und	-13535
भ्र	-13536
▁भट	-13537
पाही	-13538
ान्स	-13539
०में	-13540
▁चलन	-13541
▁पीए	-13542
ान्ति	-13543
▁जीते	-13544
▁जोकि	-13545
▁बीपी	-13546
▁भृंग	-13547
▁संचय	-13548
प्रकाश	-13549
▁जलाने	-13550
▁न्यूट	-13551
▁ब्रेक	-13552
▁हमलाव	-13553
▁अहंकार	-13554
▁कुटुंब	-13555
▁पर्वतम	-13556
▁बिछाने	-13557
▁मिलेंगे	-13558
▁गोलीबारी	-13559
▁निर्धारक	-13560
▁पैरामीटर	-13561
▁प्लानिंग	-13562
▁एग्रीमेंट	-13563
▁राजपत्रित	-13564
▁वार्तालाप	-13565
▁ID	-13566
▁आड	-13567
▁सँ	-13568
द्दत	-13569
व्रत	-13570
ुकूल	-13571
▁खोद	-13572
▁गुड	-13573
▁चोप	-13574
▁लॉज	-13575
ोजनों	-13576
▁अपंग	-13577
▁उभरे	-13578
▁छपाई	-13579
▁रंजन	-13580
▁लड़क	-13581
▁स्वत	-13582
▁हटने	-13583
्रिप्ट	-13584
▁अंडों	-13585
▁अंदाज	-13586
▁छुट्ट	-13587
▁द्वेष	-13588
▁बढ़ाई	-13589
▁बढ़ें	-13590
▁मौकों	-13591
▁लॉन्च	-13592
▁विवेचन	-13593
▁जनशक्ति	-13594
▁पुत्रों	-13595
▁उदारीकरण	-13596
▁सुस्पष्ट	-13597
▁अल्पकालिक	-13598
▁प्रतिभूतिकरण	-13599
पाद	-13600
▁मग	-13601
ास्थि	-13602
▁पडता	-13603
स्वरुप	-13604
▁इंदौर	-13605
▁क्लाज	-13606
▁बेसिक	-13607
▁मौसमी	-13608
▁जाएँगे	-13609
▁अधिरोपण	-13610
▁मैकेनिक	-13611
▁विमानों	-13612
▁संदेशों	-13613
▁सर्कुलर	-13614
▁अभिकर्ता	-13615
▁आतिशबाजी	-13616
▁बहिष्कृत	-13617
▁विश्वासों	-13618
▁व्यवस्थाओं	-13619
ies	-13620
ानक	-13621
ात्र	-13622
ाधीन	-13623
िश्व	-13624
्राण	-13625
▁मुय	-13626
ाइल्ड	-13627
ोरियम	-13628
▁अकाल	-13629
▁एडवा	-13630
▁कुंज	-13631
▁कुरु	-13632
▁बदतर	-13633
▁युगल	-13634
▁सबरी	-13635
▁बहनों	-13636
▁मियां	-13637
▁विखंड	-13638
▁यदुनाथ	-13639
▁सुनाते	-13640
▁कीटनाशक	-13641
▁बोलियों	-13642
▁विशेषतः	-13643
▁सक्षमता	-13644
▁गुणात्मक	-13645
▁मानसिकता	-13646
▁हमलावरों	-13647
▁ब्रह्मांड	-13648
▁मान्यताओं	-13649
▁श्रेणियां	-13650
▁इच्छाशक्ति	-13651
▁कार्रवाइयों	-13652
ॉपी	-13653
्जा	-13654
बड़ा	-13655
्लेट	-13656
▁गाज	-13657
▁झाँ	-13658
▁बीर	-13659
देश्य	-13660
लीकृत	-13661
ानिया	-13662
▁असगर	-13663
▁आयरन	-13664
▁किसे	-13665
▁छूने	-13666
▁मवेश	-13667
▁यकृत	-13668
▁साझे	-13669
▁सींग	-13670
▁नगण्य	-13671
▁सीईसी	-13672
▁स्पॉट	-13673
▁कृषकों	-13674
▁क्यूरी	-13675
▁टीएमसी	-13676
▁नक्काश	-13677
▁श्रीनि	-13678
▁अध्यापन	-13679
▁एसोसिएट	-13680
▁प्रोन्न	-13681
▁रेडियोध	-13682
▁सर्वत्र	-13683
▁प्रफुल्ल	-13684
▁बैंककारी	-13685
▁जमींदारों	-13686
▁पदाधिकारी	-13687
▁ब्राह्मणों	-13688
▁हतोत्साहित	-13689
ँघ	-13690
जाग	-13691
त्थ	-13692
ाप्य	-13693
▁उपम	-13694
▁बैर	-13695
वलोकन	-13696
▁अजीत	-13697
▁कच्छ	-13698
▁घाटे	-13699
▁तारे	-13700
▁नक़ल	-13701
▁सैंड	-13702
विद्या	-13703
▁उल्टा	-13704
▁डब्लू	-13705
▁तेज़ी	-13706
▁पुनरु	-13707
▁विफलः	-13708
▁पर्सनल	-13709
▁बर्ताव	-13710
▁अपूरणीय	-13711
▁कार्टून	-13712
▁चंद्रमा	-13713
▁जन्मजात	-13714
▁दुराचार	-13715
▁पटियाला	-13716
▁शॉर्टकट	-13717
▁पर्वतमाला	-13718
▁बेरोजगारी	-13719
▁सम्मिश्रण	-13720
▁इंडोनेशिया	-13721
ie	-13722
गौ	-13723
य्य	-13724
सीड	-13725
्गो	-13726
▁FO	-13727
▁शह	-13728
कर्ण	-13729
ासिक	-13730
ियरी	-13731
ेटिक	-13732
▁अनप	-13733
▁काव	-13734
▁कुस	-13735
▁ठंड	-13736
▁मेस	-13737
ॉर्टम	-13738
▁भरती	-13739
▁गैसों	-13740
▁सेवार	-13741
▁स्टेड	-13742
▁हुक्म	-13743
▁चांसलर	-13744
▁ब्यौरे	-13745
▁सिपाही	-13746
▁औषधियों	-13747
▁रवींद्र	-13748
▁संधियों	-13749
▁डेमोक्रेट	-13750
▁द्विआधारी	-13751
▁पारम्परिक	-13752
▁शिष्टमंडल	-13753
▁ट्रेडमार्क	-13754
▁औपचारिकताओं	-13755
▁प्रौद्योगिकीय	-13756
▁दुर्भावनापूर्ण	-13757
ांज	-13758
िनि	-13759
▁डु	-13760
त्रय	-13761
ुमार	-13762
▁किफ	-13763
▁नाख	-13764
▁पुत	-13765
किनार	-13766
▁ओवरट	-13767
▁चौबी	-13768
▁दाईं	-13769
▁भुला	-13770
▁संकर	-13771
▁सीएफ	-13772
▁अभिनव	-13773
▁बर्मा	-13774
▁मारना	-13775
▁विलास	-13776
▁समाधि	-13777
▁एकाउंट	-13778
▁एकाधिक	-13779
▁पत्तों	-13780
▁भुगतने	-13781
▁मन्त्र	-13782
▁सिखाया	-13783
▁क्रीड़ा	-13784
▁दरकिनार	-13785
▁संवितरण	-13786
▁प्रतिधारण	-13787
▁अध्यादेशों	-13788
▁अभियांत्रिक	-13789
▁ट्रांसफ़ेरे	-13790
चय	-13791
ग्व	-13792
तिन	-13793
धीर	-13794
पेर	-13795
वुड	-13796
िगे	-13797
ुगत	-13798
्जर	-13799
▁En	-13800
▁चह	-13801
गणित	-13802
तनिक	-13803
▁pro	-13804
▁जूझ	-13805
▁पाम	-13806
▁शिर	-13807
▁सबक	-13808
▁हंग	-13809
▁हिट	-13810
वाड़ी	-13811
▁इबिड	-13812
▁टीपी	-13813
▁पौंड	-13814
▁मजाक	-13815
▁माडल	-13816
▁मापा	-13817
ष्ट्री	-13818
▁उल्टी	-13819
▁कथनों	-13820
▁गुच्छ	-13821
▁चिपका	-13822
▁ट्राइ	-13823
▁आरोग्य	-13824
▁गुमराह	-13825
▁फिरौती	-13826
▁सिक्के	-13827
शास्त्री	-13828
▁अस्वस्थ	-13829
▁जोखिमों	-13830
▁फाइनेंस	-13831
▁राममोहन	-13832
▁नागालैंड	-13833
▁यूरोपियन	-13834
▁सर्वांगी	-13835
▁पत्रकारों	-13836
▁प्रत्याशित	-13837
▁स्वतन्त्रता	-13838
eb	-13839
दो	-13840
खान	-13841
ुअल	-13842
ोपर	-13843
▁PS	-13844
▁रश	-13845
▁कटि	-13846
▁पूर	-13847
▁बिक	-13848
▁इम्प	-13849
▁चिली	-13850
▁दयाल	-13851
▁नुस्	-13852
▁बनें	-13853
▁बसंत	-13854
▁रोपण	-13855
▁लाला	-13856
▁व्हा	-13857
िर्णीत	-13858
ेश्वरी	-13859
▁एनपीए	-13860
▁घर्षण	-13861
▁फोर्ट	-13862
▁हरिजन	-13863
▁कहेंगे	-13864
▁मन्दिर	-13865
▁शिवाजी	-13866
▁गोलियों	-13867
▁पेंडेंट	-13868
▁अत्याधिक	-13869
▁परामर्शी	-13870
▁एजेंसियां	-13871
शर	-13872
़ी	-13873
२७	-13874
केस	-13875
▁org	-13876
▁अणु	-13877
▁चाव	-13878
▁डैक	-13879
▁बरस	-13880
▁लैब	-13881
धारणा	-13882
फॉर्म	-13883
▁अम्म	-13884
▁साधु	-13885
▁चाहने	-13886
▁रवैये	-13887
पेक्षित	-13888
ोलॉजिकल	-13889
▁एचआईवी	-13890
▁करवाना	-13891
▁गुर्दे	-13892
▁पालिका	-13893
▁फिल्टर	-13894
▁मृतकों	-13895
▁रिचर्ड	-13896
▁सूर्या	-13897
▁ब्लॉकों	-13898
▁अवांछनीय	-13899
▁अध्यापकों	-13900
▁वादकारियों	-13901
खला	-13902
खले	-13903
नित	-13904
▁NI	-13905
▁कफ	-13906
ोनिक	-13907
▁केक	-13908
▁जिम	-13909
▁ऑप्ट	-13910
▁ऑर्स	-13911
▁चौंक	-13912
▁दाने	-13913
▁पारि	-13914
▁पारी	-13915
▁बांट	-13916
▁मच्छ	-13917
▁हटकर	-13918
▁होली	-13919
क्षत्र	-13920
ियोजित	-13921
ुत्थान	-13922
▁प्रोड	-13923
▁फ्लोर	-13924
▁बागान	-13925
▁क्राइम	-13926
▁दिलाता	-13927
▁नेटवर्	-13928
कर्मियों	-13929
ार्श्विक	-13930
▁आस्थगित	-13931
▁दृष्टांत	-13932
▁परमेश्वर	-13933
▁कम्पनियों	-13934
▁कुलाधिपति	-13935
ML	-13936
सऋ	-13937
शरण	-13938
ोगी	-13939
▁नब	-13940
▁षड	-13941
किसी	-13942
▁Ram	-13943
▁तने	-13944
▁तान	-13945
▁धमा	-13946
स्तान	-13947
▁VIII	-13948
▁आईबी	-13949
▁आभार	-13950
▁कृमि	-13951
▁पीटा	-13952
▁मद्य	-13953
▁सत्त	-13954
▁आसमान	-13955
▁उद्भव	-13956
▁बताये	-13957
▁बनावट	-13958
▁भरपाई	-13959
▁महाजन	-13960
▁माइनस	-13961
▁विजयन	-13962
▁सब्जी	-13963
▁स्मार	-13964
▁हमलों	-13965
▁अपनाकर	-13966
▁उत्खनन	-13967
▁उस्मान	-13968
▁कुल्हा	-13969
▁निभाते	-13970
▁निरूपण	-13971
▁सामरिक	-13972
▁गलतफहमी	-13973
▁महादेवी	-13974
▁वारिसों	-13975
▁व्यवधान	-13976
▁समावेशन	-13977
▁अनुवर्ती	-13978
▁वार्मिंग	-13979
▁सबरीमाला	-13980
▁सिंडिकेट	-13981
▁राजेन्द्र	-13982
▁पोस्टमॉर्टम	-13983
▁प्रत्यक्षीकरण	-13984
ईद	-13985
ठों	-13986
दीन	-13987
ाइप	-13988
ोले	-13989
▁MO	-13990
▁pr	-13991
श्मी	-13992
▁डुप	-13993
ख्यान	-13994
▁एलजे	-13995
▁कणों	-13996
▁पीना	-13997
▁पुरः	-13998
▁यूसु	-13999
▁बंदोब	-14000
▁सुगंध	-14001
▁जिम्मे	-14002
▁डिब्बे	-14003
▁दाहिनी	-14004
▁पोतन्ना	-14005
▁बेलारूस	-14006
▁महालेखा	-14007
▁स्टाम्प	-14008
▁परम्परागत	-14009
▁प्रजातियां	-14010
क्ख	-14011
वचन	-14012
्यम	-14013
▁बँ	-14014
ited	-14015
ोटिक	-14016
▁NCT	-14017
▁RBI	-14018
▁घोल	-14019
बाज़ी	-14020
ब्बों	-14021
संहार	-14022
▁आदिम	-14023
▁बारा	-14024
▁वीणा	-14025
▁एटीएम	-14026
▁गलिया	-14027
▁थिएटर	-14028
▁वेंचर	-14029
▁सांके	-14030
▁डीलरों	-14031
▁भक्तों	-14032
▁भुगतना	-14033
▁कक्षाओं	-14034
▁मैनेजमेंट	-14035
▁अभिप्राप्त	-14036
▁परिवीक्षाधीन	-14037
VI	-14038
छी	-14039
पंथ	-14040
शों	-14041
ोडे	-14042
ोपण	-14043
▁ko	-14044
▁घी	-14045
▁चढ	-14046
ौकिक	-14047
▁अफी	-14048
▁गजट	-14049
▁भाप	-14050
▁युव	-14051
वित्त	-14052
शीघ्र	-14053
▁डाउन	-14054
▁नायर	-14055
▁परास	-14056
▁पोशा	-14057
▁स्वि	-14058
▁चलाते	-14059
▁तकलीफ	-14060
▁तत्पर	-14061
▁नलिका	-14062
▁पैलेस	-14063
▁मुकेश	-14064
▁अभिषेक	-14065
▁इलैक्ट्र	-14066
▁क़ानूनों	-14067
▁स्वराज्य	-14068
▁गवर्नमेंट	-14069
▁विधानमंडलों	-14070
़ा	-14071
पंच	-14072
युग	-14073
यामी	-14074
▁जगम	-14075
▁लीव	-14076
▁हनी	-14077
▁अनाप	-14078
▁डीडी	-14079
▁बेतु	-14080
▁मामा	-14081
▁रेंज	-14082
▁लाइफ	-14083
▁साधक	-14084
▁आरडीए	-14085
▁एएसजी	-14086
▁द्रीय	-14087
▁निर्ब	-14088
▁हल्की	-14089
ान्तरित	-14090
▁उकसाने	-14091
▁निशाना	-14092
▁लोकहित	-14093
▁युग्मित	-14094
▁शालीनता	-14095
▁अश्लीलता	-14096
▁किराएदार	-14097
▁सांकेतिक	-14098
▁सार्वभौम	-14099
▁अतिरिक़्त	-14100
▁लाइब्रेरी	-14101
SL	-14102
थ्य	-14103
ुकी	-14104
जिये	-14105
▁DEL	-14106
▁डाई	-14107
▁लिफ	-14108
कास्ट	-14109
्यासी	-14110
▁जहरी	-14111
▁बालू	-14112
▁बीघा	-14113
▁लड़ी	-14114
▁विरल	-14115
▁साँस	-14116
क्रिया	-14117
▁कारों	-14118
▁गर्भग	-14119
▁घटाने	-14120
▁जमीनों	-14121
▁परिणति	-14122
▁लोकपाल	-14123
▁वर्तनी	-14124
▁सप्लाई	-14125
▁सुचारू	-14126
▁एनएसईएल	-14127
▁निकालकर	-14128
▁निराकरण	-14129
▁ऑपरेटरों	-14130
▁जनसाधारण	-14131
▁महान्याय	-14132
▁विषयवस्तु	-14133
▁प्रदर्शनों	-14134
▁इन्सॉल्वेंसी	-14135
▁प्रस्तुतीकरण	-14136
▁प्रतिबंधात्मक	-14137
ING	-14138
माह	-14139
ुमा	-14140
▁SE	-14141
▁ee	-14142
▁उच	-14143
▁ठा	-14144
एलटी	-14145
कुलम	-14146
गंगा	-14147
ब्बल	-14148
▁कौल	-14149
▁धंध	-14150
▁पीट	-14151
गुप्त	-14152
▁PROD	-14153
▁गायन	-14154
▁ढूँढ	-14155
▁लगना	-14156
▁गन्ने	-14157
▁डिम्ब	-14158
▁पीपुल	-14159
▁रुपया	-14160
▁सिडबी	-14161
▁सेमिन	-14162
▁असंगति	-14163
▁एकान्त	-14164
▁कमियां	-14165
▁डीआरटी	-14166
▁फ़ारसी	-14167
▁रिसीवर	-14168
▁निवृत्त	-14169
▁रिपब्लिक	-14170
▁सर्वांगीण	-14171
FE	-14172
eh	-14173
all	-14174
ल्ट	-14175
मिली	-14176
▁ढोल	-14177
▁नसी	-14178
▁युन	-14179
▁रिम	-14180
मेन्ट	-14181
▁क्रू	-14182
▁परिध	-14183
▁मारी	-14184
▁ट्रीय	-14185
▁अधिप्र	-14186
▁एमओईएफ	-14187
▁चाइल्ड	-14188
▁जानकार	-14189
▁नागराज	-14190
▁संवेदी	-14191
▁सोनिया	-14192
▁इकाइयाँ	-14193
▁किस्तों	-14194
▁गर्भगृह	-14195
▁प्रोफेशनल	-14196
LR	-14197
SO	-14198
एफटी	-14199
द्वि	-14200
शासन	-14201
िस्म	-14202
▁कॉज	-14203
▁ट्व	-14204
▁मोक	-14205
▁शफी	-14206
▁शैव	-14207
होल्ड	-14208
ार्जन	-14209
▁अन्र	-14210
▁एमआर	-14211
▁फकीर	-14212
रेनियम	-14213
▁उठाये	-14214
▁एमओयू	-14215
▁खन्ना	-14216
▁टीईटी	-14217
▁अमिताभ	-14218
▁ज़रुरत	-14219
▁बनाएगा	-14220
▁महानगर	-14221
▁रोहिणी	-14222
▁संकुचन	-14223
▁सिगरेट	-14224
▁पार्टनर	-14225
▁मीट्रिक	-14226
▁विपक्षी	-14227
▁प्रतिध्व	-14228
▁प्रमाणों	-14229
▁बिल्डर्स	-14230
▁समर्थकों	-14231
▁स्टेडियम	-14232
▁प्रत्यक्षतः	-14233
ff	-14234
घाट	-14235
जरी	-14236
प्स	-14237
माइ	-14238
▁लव	-14239
भाष्	-14240
▁Adv	-14241
▁Com	-14242
▁टिड	-14243
▁नवल	-14244
▁पेप	-14245
▁बेड	-14246
ज्ञों	-14247
र्वाद	-14248
ाहारी	-14249
▁घबरा	-14250
▁पिंड	-14251
प्रिंट	-14252
▁क्वाल	-14253
▁क्षरण	-14254
▁गुरुत	-14255
▁घोड़ा	-14256
▁जानकी	-14257
▁पहनने	-14258
▁पूछना	-14259
▁भाड़े	-14260
▁याकूब	-14261
▁राउंड	-14262
▁सपनों	-14263
▁स्वात	-14264
▁अनेकों	-14265
▁फंसाने	-14266
▁रविवार	-14267
▁चलचित्र	-14268
▁डिजिटली	-14269
▁त्रिकोण	-14270
▁पुराणों	-14271
▁शिष्यों	-14272
▁समावेदन	-14273
▁तानाशाही	-14274
▁देशभक्ति	-14275
▁परिचर्चा	-14276
▁धारावाहिक	-14277
िकर	-14278
▁छव	-14279
डियम	-14280
बख्श	-14281
▁अटक	-14282
▁फरी	-14283
▁फिज	-14284
▁बची	-14285
▁सिप	-14286
▁ऑस्ट	-14287
▁औरंग	-14288
▁पिंज	-14289
▁मंडी	-14290
▁महिल	-14291
▁मीरा	-14292
▁वर्च	-14293
▁सूती	-14294
▁किसने	-14295
▁गन्ना	-14296
▁रद्दी	-14297
▁सत्रह	-14298
▁सस्ता	-14299
▁आकृष्ट	-14300
▁गुलाबी	-14301
▁चोपड़ा	-14302
▁तंबाकू	-14303
▁दिलाना	-14304
▁बिजनेस	-14305
▁सारवान	-14306
▁सीआईटी	-14307
▁अनुग्रह	-14308
▁अज्ञानता	-14309
▁प्रचारित	-14310
▁सम्पादित	-14311
▁मुकदमेबाज	-14312
▁संप्रेषित	-14313
▁परिवर्तनीय	-14314
▁पारिस्थितिक	-14315
▁प्रत्यायोजित	-14316
णीय	-14317
नाद	-14318
र्ब	-14319
ामस	-14320
ुरू	-14321
ूमत	-14322
▁gu	-14323
▁जक	-14324
▁हठ	-14325
MENT	-14326
ज़ोर	-14327
यालय	-14328
वाहक	-14329
ाहार	-14330
▁xii	-14331
▁गैल	-14332
▁अफीम	-14333
▁इन्ड	-14334
▁उपाध	-14335
▁घोड़	-14336
▁चतुर	-14337
▁पीला	-14338
▁लपेट	-14339
धात्मक	-14340
ाहियों	-14341
▁ग्वाल	-14342
▁देहरा	-14343
▁मथुरा	-14344
▁अधिकता	-14345
▁मोर्चे	-14346
▁वैल्यू	-14347
▁सीमाएँ	-14348
▁दिखाएगा	-14349
▁शपथपत्र	-14350
▁आरडीएक्स	-14351
▁कहानियाँ	-14352
ज्ञानात्मक	-14353
▁प्रबंधकों	-14354
▁महान्यायवादी	-14355
ok	-14356
kar	-14357
जीन	-14358
▁इर	-14359
▁ईस	-14360
मुखी	-14361
लेखी	-14362
्नाव	-14363
▁nos	-14364
▁फते	-14365
▁लती	-14366
▁लां	-14367
▁सरी	-14368
णिकता	-14369
वापसी	-14370
ांटिक	-14371
▁FOWC	-14372
▁अनाथ	-14373
▁देसी	-14374
▁धड़क	-14375
▁अकेली	-14376
▁पलायन	-14377
▁बीडीए	-14378
▁लिफाफ	-14379
▁वक़्त	-14380
▁सिक्ख	-14381
▁मैनेजर	-14382
▁राज्या	-14383
▁निधियां	-14384
▁मानहानि	-14385
▁कोल्हटकर	-14386
▁तत्त्वों	-14387
▁पूर्णांक	-14388
▁रूपांतरित	-14389
▁श्रेष्ठता	-14390
▁नर्मदाशंकर	-14391
NG	-14392
झक	-14393
संक	-14394
ुचि	-14395
ोदर	-14396
▁AB	-14397
ंगली	-14398
जवान	-14399
▁उखा	-14400
▁जीभ	-14401
▁हिद	-14402
न्तुक	-14403
रेटिव	-14404
▁कलाई	-14405
▁टूटी	-14406
▁दाएं	-14407
▁व्ही	-14408
▁सोया	-14409
तत्त्व	-14410
▁चैत्य	-14411
▁सप्ली	-14412
▁सौदों	-14413
ास्वामी	-14414
▁अद्वैत	-14415
▁अनिच्छ	-14416
▁अन्तरा	-14417
▁उदात्त	-14418
▁ब्यौरा	-14419
▁यन्त्र	-14420
▁विनम्र	-14421
▁सेवारत	-14422
▁स्वीडन	-14423
▁कार्तिक	-14424
▁चिड़िया	-14425
▁बंटवारे	-14426
▁वर्चस्व	-14427
▁कुंजीपटल	-14428
▁बीएसएनएल	-14429
▁वायुसेना	-14430
▁विनिर्दि	-14431
▁असिस्टेंट	-14432
▁कांग्रेसी	-14433
▁विकलांगों	-14434
▁संलिप्तता	-14435
▁राज्यपालों	-14436
▁अभियांत्रिकी	-14437
लल	-14438
षकों	-14439
ेंडम	-14440
्रमा	-14441
▁आलू	-14442
▁काँ	-14443
▁चीख	-14444
▁मिर	-14445
▁रिब	-14446
टलैंड	-14447
विदित	-14448
▁BCCI	-14449
▁कुंड	-14450
▁यूएन	-14451
▁उभरने	-14452
▁ओबीसी	-14453
▁कीड़े	-14454
▁चतुर्	-14455
▁जिहाद	-14456
▁वेदना	-14457
▁शुभार	-14458
▁एलपीजी	-14459
▁काउंटी	-14460
▁सपोर्ट	-14461
▁अनुषंगी	-14462
▁आभूषणों	-14463
▁संरक्षा	-14464
▁उत्सुकता	-14465
▁माध्यमों	-14466
▁नाइट्रोजन	-14467
▁प्रकाशनों	-14468
▁उत्तरवर्ती	-14469
▁संपरिवर्तन	-14470
▁सांख्यिकीय	-14471
ea	-14472
ide	-14473
▁ag	-14474
प्पल	-14475
योगी	-14476
ोपेल	-14477
▁आलम	-14478
▁माउ	-14479
▁विव	-14480
▁वैट	-14481
▁काया	-14482
▁ज़मी	-14483
▁ठंडे	-14484
▁दीदी	-14485
▁बाइट	-14486
▁रोना	-14487
▁वहॉँ	-14488
▁वाकई	-14489
▁सतही	-14490
▁टेक्स	-14491
▁दर्पण	-14492
▁रिसाव	-14493
▁सॉल्व	-14494
▁लम्बाई	-14495
तापूर्वक	-14496
▁दमनकारी	-14497
▁पंचायती	-14498
▁पुरोहित	-14499
▁प्रवृति	-14500
▁देहरादून	-14501
▁नवीकरणीय	-14502
▁प्रमुखता	-14503
▁सम्बंधित	-14504
▁आकस्मिकता	-14505
▁सीडब्ल्यू	-14506
▁हिन्दुस्तानी	-14507
PO	-14508
ंझ	-14509
जै	-14510
काय	-14511
मनी	-14512
सरत	-14513
िंक	-14514
्सर	-14515
▁मच	-14516
दिरा	-14517
बीटी	-14518
स्टी	-14519
▁आहत	-14520
▁पीर	-14521
▁बाज	-14522
संदेह	-14523
ार्टर	-14524
▁अंसल	-14525
▁ईर्ष	-14526
▁द्रो	-14527
दर्शित	-14528
ियरिंग	-14529
▁मौर्य	-14530
▁रुझान	-14531
▁सीनेट	-14532
क्षोपाय	-14533
▁उतारने	-14534
▁क्लिनिक	-14535
▁मार्टिन	-14536
▁शत्रुओं	-14537
▁मुतवल्ली	-14538
▁वरिष्ठतम	-14539
▁कांफ्रेंस	-14540
▁सिक्योरिटी	-14541
बूत	-14542
सेल	-14543
ोरो	-14544
कृमि	-14545
ष्ठा	-14546
साइड	-14547
िएंट	-14548
▁उपश	-14549
▁एने	-14550
▁जया	-14551
▁ज़ब	-14552
▁हँस	-14553
▁अप्प	-14554
▁कन्फ	-14555
▁दैवी	-14556
▁शीतल	-14557
नेश्वर	-14558
ाग्रता	-14559
▁आत्मक	-14560
▁जीर्ण	-14561
▁पाषाण	-14562
▁वोल्ट	-14563
ऑक्साइड	-14564
▁पारेषण	-14565
▁मिजोरम	-14566
▁स्थापन	-14567
▁अविभक्त	-14568
▁आदमियों	-14569
▁उत्तरों	-14570
▁डिफॉल्ट	-14571
▁वृंदावन	-14572
▁प्रदर्शक	-14573
▁उन्नीसवीं	-14574
▁प्रयत्नों	-14575
▁प्राथमिकताओं	-14576
ED	-14577
ht	-14578
HAN	-14579
ंगम	-14580
मास	-14581
ाणु	-14582
▁ओस	-14583
्राब	-14584
▁इको	-14585
▁डोल	-14586
▁रहो	-14587
ग्रंथ	-14588
▁अतिर	-14589
▁गहने	-14590
▁थोडा	-14591
▁पर्ण	-14592
▁पीटर	-14593
▁बकाए	-14594
▁रोशन	-14595
▁लेखे	-14596
▁ईएसआई	-14597
▁कोलंब	-14598
▁खोजें	-14599
▁चुनना	-14600
▁ब्रिज	-14601
▁शारदा	-14602
▁स्टीम	-14603
▁अंधकार	-14604
▁टैक्सी	-14605
▁दिवंगत	-14606
▁नदियां	-14607
▁फर्स्ट	-14608
▁सिक्का	-14609
▁रक्तचाप	-14610
▁सुविचार	-14611
▁एस्ट्रोप	-14612
▁रूपान्तर	-14613
▁अभियोजकों	-14614
▁अनुज्ञप्ति	-14615
▁विद्यासागर	-14616
▁संपार्श्विक	-14617
ंकि	-14618
टेल	-14619
लेपन	-14620
▁अशु	-14621
▁कुच	-14622
▁नमी	-14623
▁पंत	-14624
▁पों	-14625
▁बेग	-14626
▁वजी	-14627
▁सडक	-14628
▁0.00	-14629
▁आज्ञ	-14630
▁एमडी	-14631
▁टीएस	-14632
▁धकेल	-14633
▁फोकस	-14634
▁रुके	-14635
यात्मक	-14636
िस्टिक	-14637
ेंशियल	-14638
▁अजमेर	-14639
▁जुलूस	-14640
▁पंखों	-14641
▁सीढ़ी	-14642
▁न्यासी	-14643
▁महत्तर	-14644
▁मिलाया	-14645
▁रेटिंग	-14646
▁सहभागी	-14647
▁अवैतनिक	-14648
▁दृश्यों	-14649
▁साझेदार	-14650
▁उन्मुक्त	-14651
▁पहुंचाता	-14652
▁सामान्यत	-14653
▁एप्लीकेशन	-14654
▁साम्प्रदायिक	-14655
▁महत्वाकांक्षी	-14656
ai	-14657
इए	-14658
ंके	-14659
मिट	-14660
रेक	-14661
ैली	-14662
ोना	-14663
▁Ac	-14664
▁ऑट	-14665
एमपी	-14666
पोषण	-14667
▁नों	-14668
▁पीस	-14669
▁सजग	-14670
▁कभार	-14671
▁खोने	-14672
▁जीपी	-14673
▁डांस	-14674
▁डीजल	-14675
▁अपीली	-14676
▁केनरा	-14677
▁तूफान	-14678
▁पेशाब	-14679
▁बहुता	-14680
▁मकोका	-14681
▁योंकि	-14682
▁साँचा	-14683
▁अंगूठे	-14684
▁करेंसी	-14685
▁घुटनों	-14686
▁दिखाएं	-14687
▁दिखाती	-14688
▁परिसंघ	-14689
▁भाटिया	-14690
▁भेड़ों	-14691
▁श्रृंग	-14692
▁सातवें	-14693
▁ऑक्सीजन	-14694
▁तर्कहीन	-14695
▁दीक्षित	-14696
▁महारानी	-14697
▁लापरवाह	-14698
▁क्रमादेश	-14699
▁क्रोमियम	-14700
▁डोमिनियन	-14701
▁यूरेनियम	-14702
▁बल्लेबाजी	-14703
▁प्राप्तियों	-14704
▁सिद्धान्तों	-14705
▁एंटरप्राइजेज	-14706
DR	-14707
भान	-14708
फेयर	-14709
▁SAR	-14710
▁चेल	-14711
▁दाख	-14712
▁एमटी	-14713
▁जुडी	-14714
▁पेटी	-14715
▁रोने	-14716
ंगाबाद	-14717
च्छन्न	-14718
ार्जित	-14719
▁DELHI	-14720
▁कुछेक	-14721
▁क्लॉस	-14722
▁घुड़स	-14723
▁बनेगी	-14724
▁मक्खी	-14725
▁यूसुफ	-14726
▁स्वंय	-14727
▁कीर्ति	-14728
▁क्षिति	-14729
▁फिलहाल	-14730
▁व्हाइट	-14731
▁दुर्दशा	-14732
▁धनवापसी	-14733
▁शुक्राणु	-14734
▁बहुपक्षीय	-14735
▁विद्यापीठ	-14736
▁उम्मीदवारी	-14737
df	-14738
na	-14739
२८	-14740
▁ं	-14741
▁OR	-14742
▁hO	-14743
▁रग	-14744
ड्डी	-14745
तांत	-14746
ासाह	-14747
्किल	-14748
▁कतर	-14749
▁कवच	-14750
▁पाश	-14751
▁पोट	-14752
▁सदर	-14753
न्दरी	-14754
ोनियम	-14755
▁गोपी	-14756
▁सीईओ	-14757
▁गड्ढे	-14758
▁ढाँचे	-14759
▁पाएगा	-14760
▁पावती	-14761
▁वक्ता	-14762
▁समसाम	-14763
▁जोड़ते	-14764
▁परिधीय	-14765
▁संचालक	-14766
▁सन्देश	-14767
▁कंपाउंड	-14768
▁टचस्टोन	-14769
▁दूरगामी	-14770
▁प्रोबेट	-14771
▁ब्राजील	-14772
▁उग्रवादी	-14773
▁उत्कीर्ण	-14774
▁बेंगलुरु	-14775
▁सुविधाएँ	-14776
▁कठिनाइयां	-14777
▁कुल्हाड़ी	-14778
▁तर्कशीलता	-14779
▁राजकुमारी	-14780
▁प्रस्तुतियों	-14781
रणा	-14782
रीज	-14783
रोड	-14784
▁मय	-14785
ंजना	-14786
िताब	-14787
▁Ors	-14788
▁अथक	-14789
▁चूह	-14790
▁दिक	-14791
▁मुस	-14792
▁यूर	-14793
▁हाव	-14794
्कोहल	-14795
▁अधिर	-14796
▁एलआर	-14797
▁जुडे	-14798
▁भूरा	-14799
▁मलिक	-14800
▁लेंस	-14801
▁वीएस	-14802
डिशियल	-14803
▁कंकाल	-14804
▁कैम्प	-14805
▁दत्ता	-14806
▁फिक्स	-14807
▁स्क्व	-14808
▁अशांति	-14809
▁तिब्बत	-14810
▁निबन्ध	-14811
▁विषाणु	-14812
▁संबधित	-14813
▁हुकूमत	-14814
▁पांचवीं	-14815
▁राजशाही	-14816
▁शुल्कों	-14817
▁अप्राप्य	-14818
▁आशीर्वाद	-14819
▁प्रामाणिकता	-14820
आप	-14821
जद	-14822
हो	-14823
किम	-14824
फिर	-14825
लेम	-14826
ष्क	-14827
हिक	-14828
िनो	-14829
▁HT	-14830
▁LI	-14831
▁एथ	-14832
▁लख	-14833
चारे	-14834
दिता	-14835
र्सन	-14836
▁ITR	-14837
▁कटे	-14838
▁फिस	-14839
▁बीआर	-14840
▁मेरु	-14841
▁आलोचक	-14842
▁ठहरने	-14843
▁द्योत	-14844
▁निगाह	-14845
▁नोबेल	-14846
▁फैक्स	-14847
▁बुलाए	-14848
▁माइकल	-14849
▁वरदान	-14850
▁सत्तर	-14851
▁सेंसर	-14852
▁करूँगा	-14853
▁ज्ञानी	-14854
▁नौजवान	-14855
▁बनवाया	-14856
▁	-14857
ा	-14858
क	-14859
र	-14860
्	-14861
े	-14862
ि	-14863
न	-14864
स	-14865
त	-14866
ं	-14867
य	-14868
ी	-14869
ह	-14870
म	-14871
प	-14872
ो	-14873
ल	-14874
व	-14875
द	-14876
ज	-14877
ग	-14878
ै	-14879
ब	-14880
अ	-14881
ए	-14882
ु	-14883
ध	-14884
,	-14885
श	-14886
।	-14887
च	-14888
थ	-14889
भ	-14890
ू	-14891
ट	-14892
उ	-14893
ष	-14894
आ	-14895
औ	-14896
इ	-14897
ण	-14898
ड	-14899
ख	-14900
.	-14901
०	-14902
ई	-14903
-	-14904
़	-14905
फ	-14906
१	-14907
)	-14908
(	-14909
छ	-14910
ृ	-14911
ओ	-14912
ौ	-14913
२	-14914
;	-14915
ठ	-14916
घ	-14917
&	-14918
ॉ	-14919
o	-14920
t	-14921
३	-14922
ऐ	-14923
u	-14924
झ	-14925
/	-14926
ढ	-14927
ँ	-14928
:	-14929
0	-14930
q	-14931
i	-14932
a	-14933
४	-14934
I	-14935
ञ	-14936
#	-14937
e	-14938
C	-14939
ः	-14940
A	-14941
५	-14942
s	-14943
r	-14944
S	-14945
'	-14946
n	-14947
ऊ	-14948
P	-14949
|	-14950
ऑ	-14951
?	-14952
]	-14953
[	-14954
६	-14955
R	-14956
N	-14957
ऋ	-14958
d	-14959
l	-14960
E	-14961
h	-14962
T	-14963
%	-14964
“	-14965
७	-14966
c	-14967
M	-14968
W	-14969
L	-14970
m	-14971
D	-14972
x	-14973
O	-14974
”	-14975
p	-14976
v	-14977
८	-14978
B	-14979
g	-14980
f	-14981
९	-14982
’	-14983
y	-14984
‘	-14985
>	-14986
V	-14987
"	-14988
H	-14989
G	-14990
k	-14991
b	-14992
F	-14993
