<unk>	0
<s>	0
</s>	0
UuRrLl	0
DdAaTtEe	0
NnUuMm	0
▁क	-0
▁स	-1
▁ह	-2
▁प	-3
▁म	-4
▁के	-5
या	-6
ार	-7
्र	-8
▁न	-9
▁अ	-10
▁है	-11
▁,	-12
ें	-13
▁ज	-14
▁।	-15
▁व	-16
▁द	-17
र्	-18
ता	-19
▁कि	-20
▁में	-21
ों	-22
▁उ	-23
▁ब	-24
▁ल	-25
्य	-26
ने	-27
िक	-28
▁को	-29
▁की	-30
▁र	-31
▁प्र	-32
▁औ	-33
▁ग	-34
▁और	-35
▁आ	-36
ित	-37
्त	-38
ान	-39
▁कर	-40
▁त	-41
▁से	-42
▁का	-43
▁इ	-44
▁भ	-45
िए	-46
ना	-47
▁ए	-48
्व	-49
▁पर	-50
▁.	-51
▁य	-52
▁सं	-53
▁थ	-54
▁नि	-55
ही	-56
▁वि	-57
▁इस	-58
▁लिए	-59
▁श	-60
क्	-61
ाल	-62
▁जा	-63
्या	-64
▁हो	-65
िय	-66
▁किया	-67
वा	-68
▁-	-69
हीं	-70
ाम	-71
▁एक	-72
▁च	-73
▁नहीं	-74
ति	-75
▁या	-76
▁यह	-77
स्	-78
ारा	-79
▁अप	-80
▁अन	-81
▁गया	-82
क्ष	-83
▁अध	-84
▁सम	-85
▁ने	-86
के	-87
सी	-88
क्त	-89
▁हैं	-90
▁था	-91
िया	-92
ेश	-93
▁करने	-94
ले	-95
न्	-96
▁भी	-97
ष्	-98
ला	-99
ती	-100
▁द्व	-101
हा	-102
▁उस	-103
ते	-104
▁सा	-105
▁द्वारा	-106
रा	-107
▁ख	-108
▁)	-109
त्र	-110
िका	-111
▁(	-112
कार	-113
▁स्	-114
▁रा	-115
िस	-116
ड़	-117
नी	-118
री	-119
ूप	-120
िन	-121
ाद	-122
▁अनु	-123
▁कार	-124
▁जो	-125
गा	-126
▁निर्	-127
▁सक	-128
ोग	-129
▁दे	-130
▁न्या	-131
कर्	-132
ियों	-133
▁रूप	-134
देश	-135
ां	-136
ष्ट	-137
था	-138
▁उप	-139
ाव	-140
ारी	-141
स्त	-142
ंध	-143
ाह	-144
▁फ	-145
द्	-146
त्	-147
कर्ता	-148
ाय	-149
ल्	-150
▁न्याया	-151
▁प्रति	-152
▁/	-153
मा	-154
लय	-155
से	-156
▁अधिक	-157
बंध	-158
धार	-159
रण	-160
ंग	-161
ओं	-162
्री	-163
▁हु	-164
▁मु	-165
▁ले	-166
▁उन	-167
▁माम	-168
सा	-169
का	-170
▁सु	-171
▁साथ	-172
कि	-173
च्	-174
रो	-175
▁पू	-176
▁याच	-177
ली	-178
न्ह	-179
▁दिया	-180
▁याचिका	-181
▁जिस	-182
हत	-183
▁किसी	-184
▁पह	-185
▁ड	-186
त्त	-187
▁ध	-188
ाग	-189
ोज	-190
▁'	-191
▁कोई	-192
ास	-193
▁हम	-194
▁व्य	-195
▁गई	-196
ाप	-197
▁न्यायालय	-198
िव	-199
▁थी	-200
की	-201
वाद	-202
▁वह	-203
्ष	-204
▁घ	-205
ंद	-206
▁स्व	-207
▁ही	-208
▁राज	-209
▁उन्ह	-210
▁सकता	-211
▁कु	-212
▁गए	-213
ंड	-214
ाना	-215
ृत	-216
▁पु	-217
▁अभ	-218
ार्	-219
खा	-220
▁आव	-221
▁तो	-222
ील	-223
वि	-224
▁विश	-225
क्ति	-226
िल	-227
▁ऐ	-228
▁निय	-229
▁सी	-230
▁वर्	-231
▁जाता	-232
ंच	-233
▁संबंध	-234
▁चाह	-235
▁अपने	-236
र्व	-237
टी	-238
स्थ	-239
्यों	-240
▁तक	-241
ेद	-242
चार	-243
▁याचिकाकर्ता	-244
▁मामले	-245
ंत	-246
▁बाद	-247
ियम	-248
▁कहा	-249
▁तहत	-250
▁जब	-251
रे	-252
म्	-253
▁थे	-254
द्ध	-255
▁दो	-256
▁वाल	-257
ंक	-258
ीन	-259
दा	-260
पी	-261
रह	-262
▁सि	-263
▁भार	-264
च्च	-265
धान	-266
ंब	-267
भी	-268
▁स्थ	-269
ब्	-270
▁0	-271
▁अपील	-272
▁कार्य	-273
▁दी	-274
ुत	-275
▁अव	-276
▁आप	-277
▁आदेश	-278
में	-279
▁रह	-280
दि	-281
मान	-282
▁छ	-283
जी	-284
िला	-285
▁वे	-286
योग	-287
कर	-288
▁बना	-289
▁साम	-290
ूल	-291
▁ट	-292
▁तरह	-293
▁अन्य	-294
धिक	-295
▁P	-296
चित	-297
▁किए	-298
गे	-299
श्	-300
▁क्ष	-301
▁बा	-302
▁अधिन	-303
▁:	-304
▁परि	-305
ोंने	-306
▁अधिनियम	-307
ुक्त	-308
▁चाहिए	-309
▁सर	-310
▁हुए	-311
▁दि	-312
▁करना	-313
ून	-314
ुर	-315
▁रि	-316
▁तथा	-317
िर	-318
ाप्त	-319
सार	-320
क्र	-321
ारे	-322
▁सू	-323
गी	-324
▁समय	-325
▁उन्होंने	-326
श्य	-327
वादी	-328
▁आरो	-329
▁बी	-330
▁उसके	-331
▁पी	-332
▁पहले	-333
लिए	-334
ढ़	-335
्रे	-336
▁कारण	-337
▁मान	-338
स्ता	-339
▁इसलिए	-340
ंत्र	-341
▁कुछ	-342
▁अधिकार	-343
▁राज्य	-344
▁करता	-345
स्ट	-346
जा	-347
ोट	-348
▁होने	-349
▁सरकार	-350
▁जै	-351
नों	-352
▁जाए	-353
र्ण	-354
िति	-355
▁अद	-356
्ञ	-357
▁करते	-358
▁पा	-359
ेष	-360
▁उनके	-361
▁ला	-362
▁प्रतिवादी	-363
ालत	-364
▁दू	-365
ेत्र	-366
र्ट	-367
▁मै	-368
▁निर्ण	-369
▁आधार	-370
▁अभिय	-371
र्थ	-372
श्यक	-373
▁इन	-374
▁मा	-375
▁निर्णय	-376
न्न	-377
▁कान	-378
▁क्षेत्र	-379
▁अदालत	-380
क्षा	-381
▁रख	-382
▁पक्ष	-383
▁आवश्यक	-384
▁मे	-385
▁नियम	-386
र्म	-387
भाव	-388
▁बह	-389
▁कम	-390
▁भारत	-391
किन	-392
▁इसके	-393
ंबर	-394
▁व्यक्ति	-395
▁बि	-396
▁प्रा	-397
ंप	-398
▁होता	-399
▁सभी	-400
धि	-401
▁ओ	-402
ध्य	-403
वल	-404
▁प्रद	-405
▁लेकिन	-406
▁विचार	-407
▁होगा	-408
▁श्री	-409
▁उत्त	-410
ानी	-411
▁सब	-412
शन	-413
मि	-414
▁प्राप्त	-415
▁आय	-416
वाह	-417
जन	-418
▁मृत	-419
▁केवल	-420
▁रहा	-421
▁अपनी	-422
▁स्प	-423
▁जांच	-424
पू	-425
▁अनुसार	-426
नि	-427
▁विभ	-428
ेज	-429
▁उक्त	-430
▁वाले	-431
▁सह	-432
ोक	-433
▁लगा	-434
▁उसे	-435
▁यदि	-436
टर	-437
▁हि	-438
▁PW	-439
ौर	-440
्रा	-441
▁बै	-442
च्छ	-443
▁चु	-444
▁;	-445
▁अंत	-446
▁विशेष	-447
र्त	-448
र्ड	-449
▁दर्	-450
▁उत्	-451
▁प्रकार	-452
करण	-453
दे	-454
▁वर्ष	-455
▁जाना	-456
▁लि	-457
▁जी	-458
▁अपीलकर्ता	-459
▁मूल	-460
▁पूर्व	-461
▁उन्हें	-462
▁नंबर	-463
▁स्पष्ट	-464
▁दाय	-465
▁धारा	-466
▁उत्तर	-467
▁वा	-468
▁निर्धार	-469
▁भू	-470
ज्ञ	-471
टा	-472
▁अग	-473
▁प्रस्त	-474
▁क्यों	-475
▁राष्ट	-476
चना	-477
कों	-478
द्य	-479
लग	-480
▁पै	-481
▁रहे	-482
▁मैं	-483
▁आवेद	-484
▁जाने	-485
धी	-486
माण	-487
पो	-488
▁उच्च	-489
▁तथ	-490
हां	-491
त्य	-492
ोजन	-493
टे	-494
▁गु	-495
मी	-496
▁जारी	-497
▁कानून	-498
▁प्रस्तुत	-499
▁दूस	-500
पाद	-501
▁आगे	-502
शि	-503
ाई	-504
स्ताव	-505
रिक	-506
▁अस	-507
▁S	-508
▁लाग	-509
लों	-510
▁स्वी	-511
ष्ठ	-512
त्ति	-513
▁बात	-514
▁संबंधित	-515
▁देने	-516
▁समझ	-517
▁अपरा	-518
▁पार	-519
▁सेवा	-520
▁व्या	-521
टना	-522
▁क्योंकि	-523
▁संप	-524
दर्	-525
▁ऐसे	-526
ीय	-527
क्षण	-528
स्था	-529
त्म	-530
िता	-531
▁बे	-532
▁विश्व	-533
▁हाल	-534
▁वाद	-535
▁मौ	-536
▁बारे	-537
▁बो	-538
यत	-539
पूर्ण	-540
▁सर्व	-541
तर	-542
▁रु	-543
▁जिसमें	-544
▁खिला	-545
ये	-546
▁लिया	-547
रि	-548
▁क्या	-549
▁एस	-550
▁हुआ	-551
▁उल्	-552
ड़ी	-553
▁पास	-554
मे	-555
▁स्था	-556
▁कंप	-557
▁मह	-558
▁वै	-559
लि	-560
▁देख	-561
वन	-562
▁निष्	-563
▁नाम	-564
ड़ा	-565
▁जि	-566
जे	-567
ताओं	-568
▁काम	-569
ज़	-570
▁खिलाफ	-571
▁बता	-572
▁अपराध	-573
▁बहुत	-574
▁प्रदान	-575
▁न्याय	-576
र्क	-577
िक्ष	-578
ुल	-579
▁ओर	-580
▁आरोपी	-581
▁लोग	-582
▁निर्धारित	-583
ुग	-584
पोर्ट	-585
▁पत्र	-586
न्द	-587
क्रिया	-588
चा	-589
▁कह	-590
▁क्र	-591
▁अलग	-592
▁ऐसा	-593
▁उसने	-594
्यू	-595
दार	-596
▁पद	-597
▁भाग	-598
▁आरोप	-599
▁गवाह	-600
▁नी	-601
मति	-602
ूत	-603
▁करें	-604
शा	-605
▁लग	-606
▁प्रभाव	-607
▁दु	-608
▁ऊ	-609
लिस	-610
क्ता	-611
ावधान	-612
जू	-613
▁बीच	-614
▁लागू	-615
▁सकती	-616
ार्थ	-617
▁प्रक्रिया	-618
▁प्रावधान	-619
▁शाम	-620
कृत	-621
ोजना	-622
▁जाती	-623
▁मुख	-624
्यान	-625
ड़े	-626
भा	-627
▁स्वीकार	-628
▁ठ	-629
▁मृतक	-630
्रीय	-631
▁रिपोर्ट	-632
▁सकते	-633
▁होती	-634
▁सद	-635
्ल	-636
▁पुलिस	-637
वाही	-638
▁अधिकारी	-639
▁दायर	-640
तीय	-641
▁ता	-642
ोष	-643
▁रिक	-644
ोध	-645
▁आवेदन	-646
वी	-647
ग्र	-648
▁जहां	-649
ेक	-650
नीय	-651
▁दर्ज	-652
▁जान	-653
▁परिव	-654
आई	-655
▁जन	-656
▁आर	-657
ांत	-658
▁ऑ	-659
ोर	-660
▁साक्ष	-661
▁उनकी	-662
आर	-663
ाज	-664
▁बढ़	-665
▁फिर	-666
ूं	-667
▁हुई	-668
▁उपयोग	-669
दी	-670
▁जाएगा	-671
ची	-672
▁शामिल	-673
▁देश	-674
▁दा	-675
एं	-676
स्थित	-677
▁सम्	-678
▁जैसा	-679
िज	-680
पित	-681
कारी	-682
▁ऐसी	-683
▁इसे	-684
ट्	-685
▁निर्देश	-686
▁योग	-687
▁मि	-688
▁A	-689
▁राष्ट्र	-690
ाइ	-691
▁परी	-692
तिक	-693
तान	-694
कृ	-695
▁वादी	-696
▁भारतीय	-697
धा	-698
प्	-699
▁शिका	-700
▁स्थान	-701
▁उद्	-702
डी	-703
▁माना	-704
ंह	-705
▁खु	-706
▁बार	-707
▁स्थिति	-708
▁अभियोजन	-709
▁शिकायत	-710
▁दिन	-711
दर्भ	-712
▁व्यक्त	-713
ेल	-714
गत	-715
एस	-716
▁भूमि	-717
को	-718
▁दोनों	-719
▁संदर्भ	-720
▁उसकी	-721
पर	-722
▁उचित	-723
लेख	-724
▁घटना	-725
▁मां	-726
ब्द	-727
▁दौर	-728
धिकरण	-729
्यालय	-730
▁ग्र	-731
▁कंपनी	-732
▁C	-733
▁बिना	-734
▁अब	-735
▁उठ	-736
प्त	-737
फल	-738
▁करे	-739
रों	-740
▁पारित	-741
युक्त	-742
▁पर्	-743
क्स	-744
▁I	-745
▁फै	-746
▁ध्यान	-747
िन्न	-748
▁व्यव	-749
हित	-750
िकास	-751
वाई	-752
मिक	-753
▁भुग	-754
▁आवश्यकता	-755
ाली	-756
ल्प	-757
ालन	-758
▁मन	-759
▁विकास	-760
▁शिक्ष	-761
ॉर्ड	-762
▁दौरान	-763
▁अधिव	-764
▁रखा	-765
पति	-766
▁शुर	-767
जि	-768
▁रिट	-769
▁भुगतान	-770
▁वर्त	-771
ित्व	-772
नांक	-773
▁मिल	-774
▁सर्वो	-775
▁ई	-776
▁दिनांक	-777
द्योग	-778
▁?	-779
▁अनुमति	-780
▁विक	-781
ाँ	-782
▁वर्तमान	-783
▁दिए	-784
खित	-785
▁कर्म	-786
ंट	-787
चे	-788
▁राशि	-789
त्मक	-790
हाय	-791
▁सामान	-792
▁बया	-793
क्रम	-794
▁जिसे	-795
▁प्रत्य	-796
▁सिद्ध	-797
▁विवाद	-798
▁उत्पाद	-799
▁साक्ष्य	-800
▁जिसके	-801
▁रिकॉर्ड	-802
ांकि	-803
▁उद्देश	-804
▁वास्त	-805
▁हालांकि	-806
▁सदस	-807
▁पूरी	-808
णा	-809
▁लाभ	-810
▁जैसे	-811
सू	-812
यी	-813
▁बु	-814
▁अपना	-815
▁कार्यवाही	-816
शोध	-817
▁दृ	-818
▁कै	-819
▁अधिवक्ता	-820
▁अधीन	-821
▁सहाय	-822
▁सिंह	-823
▁तै	-824
▁बाह	-825
ात	-826
▁निक	-827
बी	-828
धीश	-829
कृति	-830
िंग	-831
ोल	-832
▁तथ्य	-833
यन	-834
▁माध्य	-835
▁महत	-836
▁प्रव	-837
्यता	-838
▁होना	-839
▁शक्ति	-840
▁स्त	-841
▁शब्द	-842
ोड़	-843
कर्ष	-844
▁स्ट	-845
▁पता	-846
▁प्रश	-847
▁अं	-848
स्व	-849
▁जिन	-850
▁मामलों	-851
▁रही	-852
▁अभियुक्त	-853
गर	-854
▁अवधि	-855
▁संपत्ति	-856
▁पं	-857
▁वास्तव	-858
▁सर्वोच्च	-859
ियां	-860
▁उत्तरदा	-861
▁पार्	-862
▁आई	-863
तन	-864
▁मामला	-865
▁बैंक	-866
▁न्यायाधीश	-867
▁नोट	-868
▁संशोध	-869
▁खंड	-870
▁घर	-871
▁योजना	-872
▁दस्ताव	-873
मार	-874
▁पहु	-875
▁जु	-876
▁कॉ	-877
र्ष	-878
हार	-879
▁मध्य	-880
▁अर्	-881
▁वाली	-882
▁हमारे	-883
लब्	-884
▁पुन	-885
▁सबूत	-886
वाल	-887
सर	-888
ष्टि	-889
वं	-890
▁बन	-891
ुक	-892
▁सो	-893
ar	-894
▁लोगों	-895
▁अला	-896
▁समक्ष	-897
▁झ	-898
▁तब	-899
▁देखा	-900
▁उपलब्	-901
▁अति	-902
▁डि	-903
ेशन	-904
▁विभाग	-905
▁विद	-906
कद	-907
स्प	-908
निक	-909
ग्री	-910
▁परिण	-911
▁राष्ट्रपति	-912
▁बयान	-913
▁पुर	-914
▁अलावा	-915
▁दस्तावेज	-916
▁याचिकाकर्ताओं	-917
▁ये	-918
▁उद्देश्य	-919
▁तैया	-920
▁समान	-921
▁प्रयोग	-922
▁सामान्य	-923
▁चल	-924
▁शुरू	-925
▁सुर	-926
▁मुख्य	-927
▁उपलब्ध	-928
▁माध्यम	-929
▁परिणाम	-930
▁संवि	-931
रूप	-932
▁कृ	-933
तम	-934
ंभ	-935
▁दूसरे	-936
▁डी	-937
▁उसी	-938
त्या	-939
▁हों	-940
▁माल	-941
ेट	-942
▁शु	-943
बर	-944
▁होते	-945
ूर	-946
▁चि	-947
▁दिखा	-948
▁मुझ	-949
▁एवं	-950
▁दावा	-951
▁यहां	-952
▁विव	-953
▁पर्या	-954
▁विभिन्न	-955
वार	-956
▁जीवन	-957
▁भीतर	-958
▁मुकद	-959
▁फैस	-960
ंद्र	-961
मत	-962
▁तैयार	-963
्यु	-964
▁महत्व	-965
्ड	-966
जर	-967
▁सूचना	-968
▁वित	-969
▁करती	-970
णी	-971
▁अर्थ	-972
प्र	-973
ेय	-974
काल	-975
▁भा	-976
▁उठा	-977
▁तीन	-978
मु	-979
षा	-980
रोध	-981
जिस्ट	-982
▁मो	-983
श्चित	-984
▁शी	-985
▁लोक	-986
▁व्याप	-987
ंस	-988
▁बद	-989
▁अच्छ	-990
▁निर्माण	-991
an	-992
▁सके	-993
▁प्रमाण	-994
गम	-995
▁%	-996
िम	-997
िये	-998
▁व्यक्तियों	-999
▁खार	-1000
तु	-1001
▁सार	-1002
हरा	-1003
▁सिद्धांत	-1004
काश	-1005
▁तरी	-1006
िट	-1007
▁खारिज	-1008
ज्ञान	-1009
▁मुझे	-1010
तिम	-1011
▁निम्	-1012
भव	-1013
▁समाप्त	-1014
▁गल	-1015
▁अगर	-1016
▁D	-1017
▁स्थापित	-1018
▁पहुंच	-1019
जूद	-1020
▁तारी	-1021
दान	-1022
▁विष	-1023
ामी	-1024
ग्रह	-1025
क्षित	-1026
▁तारीख	-1027
▁गै	-1028
▁समझौ	-1029
तंत्र	-1030
▁निम्न	-1031
▁उल्लेख	-1032
▁घोष	-1033
▁R	-1034
▁परिस्थित	-1035
वास	-1036
▁जिला	-1037
दाय	-1038
▁ढ	-1039
द्र	-1040
▁सामग्री	-1041
▁कई	-1042
▁मार्	-1043
▁होगी	-1044
▁प्रस्ताव	-1045
▁निप	-1046
श्व	-1047
▁ना	-1048
ोजित	-1049
द्द	-1050
▁संविधान	-1051
▁ज्ञ	-1052
▁हा	-1053
▁सीमा	-1054
▁मांग	-1055
्न	-1056
क्ट	-1057
▁तर्क	-1058
▁हिस्	-1059
▁प्रत्येक	-1060
ौती	-1061
▁प्रश्	-1062
▁राम	-1063
▁लेने	-1064
▁करके	-1065
▁हे	-1066
बित	-1067
▁पूरा	-1068
स्थान	-1069
िश	-1070
▁बनाम	-1071
▁वस्त	-1072
स्थिति	-1073
▁साल	-1074
▁गो	-1075
▁बच्च	-1076
▁विषय	-1077
भग	-1078
▁एन	-1079
द्दे	-1080
त्रा	-1081
▁बताया	-1082
▁विध	-1083
▁निच	-1084
▁M	-1085
▁रुप	-1086
ूनी	-1087
▁सबसे	-1088
▁इं	-1089
फ़	-1090
▁साबित	-1091
ेदार	-1092
▁तथ्यों	-1093
▁बाहर	-1094
▁चुन	-1095
साय	-1096
▁समिति	-1097
व्य	-1098
▁लगभग	-1099
▁दर	-1100
▁तु	-1101
ेप	-1102
▁अतिरिक	-1103
▁कभी	-1104
▁निष्कर्ष	-1105
▁रखने	-1106
राधिक	-1107
▁वी	-1108
पुर	-1109
▁शिक्षा	-1110
▁अंतिम	-1111
▁प्रावधानों	-1112
▁समर्थ	-1113
दन	-1114
ाला	-1115
▁पृ	-1116
▁परिस्थितियों	-1117
▁करेगा	-1118
▁s	-1119
▁दोष	-1120
वान	-1121
तः	-1122
त्ता	-1123
▁उपरो	-1124
▁वाप	-1125
शी	-1126
▁अंतर	-1127
▁अतिरिक्त	-1128
▁पि	-1129
▁उपरोक्त	-1130
र्स	-1131
मित	-1132
▁इसका	-1133
क्षम	-1134
▁सही	-1135
▁पूर्ण	-1136
▁चला	-1137
▁उसका	-1138
▁हमें	-1139
▁जिन्ह	-1140
▁मृत्यु	-1141
▁स्क	-1142
ुक्ति	-1143
▁पाया	-1144
▁कब्	-1145
न्त	-1146
ासन	-1147
▁पर्याप्त	-1148
ित्र	-1149
▁कार्र	-1150
▁अनुप	-1151
▁नियमों	-1152
▁हर	-1153
▁जाते	-1154
▁एम	-1155
▁प्रबंध	-1156
▁सौ	-1157
▁बनाया	-1158
हर	-1159
▁नोटिस	-1160
▁उत्तरदाताओं	-1161
र्ति	-1162
▁संशोधन	-1163
▁शर्त	-1164
▁आदि	-1165
ल्क	-1166
▁B	-1167
▁आया	-1168
▁प्रवेश	-1169
लिखित	-1170
▁सूची	-1171
▁डॉ	-1172
▁सार्व	-1173
▁विस्त	-1174
ाने	-1175
▁ऋ	-1176
▁प्रो	-1177
▁निचली	-1178
द्योगिक	-1179
▁कार्रवाई	-1180
हन	-1181
▁ली	-1182
र्ती	-1183
▁रे	-1184
▁राय	-1185
मो	-1186
▁दंड	-1187
▁ऊपर	-1188
▁हस्ता	-1189
▁सामने	-1190
▁अनुबंध	-1191
▁प्रश्न	-1192
ुसार	-1193
▁छोड़	-1194
▁हूं	-1195
▁प्रे	-1196
ेंस	-1197
▁अथ	-1198
▁न्यायिक	-1199
▁गलत	-1200
▁E	-1201
क्टर	-1202
यं	-1203
▁पढ़	-1204
▁स्वतंत्र	-1205
▁प्रदर्	-1206
मुख	-1207
▁बच	-1208
ीस	-1209
▁रो	-1210
▁राष्ट्रीय	-1211
▁विप	-1212
▁देता	-1213
▁मूल्य	-1214
▁उनका	-1215
फी	-1216
▁सीखा	-1217
▁माननीय	-1218
▁तय	-1219
▁आज	-1220
▁पंजी	-1221
ुद्ध	-1222
वर	-1223
▁सहायता	-1224
▁प्रकृति	-1225
▁धार	-1226
▁सुन	-1227
▁विन	-1228
▁कुमार	-1229
▁परीक्षा	-1230
▁नीचे	-1231
▁अंग	-1232
▁अधिकारियों	-1233
ंघ	-1234
▁तरीके	-1235
▁अवसर	-1236
▁सुप	-1237
▁पैरा	-1238
▁सजा	-1239
▁चोट	-1240
▁महत्वपूर्ण	-1241
▁कथ	-1242
▁वस्तु	-1243
▁कानूनी	-1244
▁गैर	-1245
▁पिता	-1246
▁अध्य	-1247
▁बिक	-1248
▁संघ	-1249
्स	-1250
▁पेश	-1251
▁कोर्ट	-1252
▁लगाया	-1253
▁वाला	-1254
बा	-1255
▁ब्र	-1256
श्च	-1257
▁एफ	-1258
िष्ट	-1259
▁वृ	-1260
▁बल्	-1261
▁दाव	-1262
षण	-1263
जनिक	-1264
चान	-1265
▁मध्यस्थ	-1266
▁i	-1267
▁सार्वजनिक	-1268
पाल	-1269
▁संस्थान	-1270
जार	-1271
▁लंब	-1272
▁बनाने	-1273
▁प्राधिकरण	-1274
▁संर	-1275
▁श्र	-1276
▁प्रकाश	-1277
धिकार	-1278
▁बनाए	-1279
म्म	-1280
▁न्यायाधिकरण	-1281
▁बिक्री	-1282
▁मत	-1283
▁नियुक्ति	-1284
▁बोर्ड	-1285
ेंट	-1286
▁नियंत्र	-1287
▁रोक	-1288
▁स्तर	-1289
▁बैठ	-1290
इट	-1291
▁प्रण	-1292
▁उद	-1293
▁पो	-1294
ठन	-1295
▁ट्र	-1296
▁मंत्र	-1297
विद	-1298
▁स्वयं	-1299
क्षेप	-1300
▁विधि	-1301
▁प्रया	-1302
▁सूट	-1303
▁वित्त	-1304
▁सक्षम	-1305
▁नाग	-1306
▁आयोजित	-1307
▁जबकि	-1308
▁जर	-1309
▁जमा	-1310
▁गवाहों	-1311
▁वरि	-1312
▁अथवा	-1313
▁परीक्षण	-1314
▁खा	-1315
▁एक्स	-1316
▁वापस	-1317
▁इसमें	-1318
नाव	-1319
▁शीर्ष	-1320
▁प्रार	-1321
▁वरिष्ठ	-1322
▁गिर	-1323
▁फैसले	-1324
टेड	-1325
▁“	-1326
एल	-1327
▁प्रयास	-1328
▁इसी	-1329
ीकरण	-1330
▁लेख	-1331
▁गं	-1332
धन	-1333
▁आयोग	-1334
पत्र	-1335
ल्ली	-1336
▁विद्व	-1337
पा	-1338
▁सरकारी	-1339
▁श्रे	-1340
▁महा	-1341
▁आपराधिक	-1342
▁समर्थन	-1343
▁परिवार	-1344
ाइल	-1345
▁सवाल	-1346
र्तन	-1347
▁प्रस	-1348
स्कार	-1349
सान	-1350
्वी	-1351
वानी	-1352
ूह	-1353
भर	-1354
at	-1355
▁फ़	-1356
▁गां	-1357
▁अभि	-1358
▁आम	-1359
▁विशिष्ट	-1360
ूट	-1361
▁अधि	-1362
द्धि	-1363
▁नियुक्त	-1364
▁निपट	-1365
▁संग	-1366
▁जानकारी	-1367
▁चिक	-1368
▁दूसरी	-1369
▁सदस्य	-1370
▁बर	-1371
▁खोज	-1372
▁चुनौती	-1373
▁नीति	-1374
एम	-1375
ंकन	-1376
▁निर	-1377
विद्यालय	-1378
▁सुप्रा	-1379
ुट	-1380
▁कल	-1381
ंगिक	-1382
▁हाथ	-1383
▁निदेश	-1384
ण्ड	-1385
▁टी	-1386
म्मी	-1387
▁दुर्	-1388
पन	-1389
▁उल्ल	-1390
▁चार	-1391
▁केंद्र	-1392
▁दूर	-1393
▁यू	-1394
▁समाज	-1395
▁देना	-1396
▁निष्पाद	-1397
▁उत्प	-1398
बद्ध	-1399
न्द्र	-1400
▁बल्कि	-1401
पीसी	-1402
▁मं	-1403
▁पत्	-1404
पि	-1405
▁निहित	-1406
▁सच	-1407
▁देते	-1408
दिष्ट	-1409
▁उम्मी	-1410
▁विफल	-1411
▁उम्मीद	-1412
▁स्वा	-1413
लन	-1414
▁ताकि	-1415
▁ऑफ	-1416
▁कार्यालय	-1417
▁उल्लंघ	-1418
▁बंद	-1419
▁पड़	-1420
▁भाषा	-1421
्यांकन	-1422
▁संदे	-1423
▁संच	-1424
ालय	-1425
▁मही	-1426
▁तत्	-1427
▁उत्पादन	-1428
▁प्रमुख	-1429
▁प्रती	-1430
▁उल्लंघन	-1431
चारी	-1432
▁प्रतिनि	-1433
▁खरी	-1434
बल	-1435
▁गति	-1436
▁वेतन	-1437
ंश	-1438
▁पालन	-1439
▁विश्वविद्यालय	-1440
▁इससे	-1441
▁SC	-1442
ापन	-1443
क्षर	-1444
▁पहली	-1445
विधा	-1446
्रेट	-1447
▁चिकित	-1448
▁सुरक्षा	-1449
▁पां	-1450
▁संस्	-1451
▁विश्वास	-1452
▁कुल	-1453
▁पृष्ठ	-1454
ासंगिक	-1455
▁पुरस्कार	-1456
▁योग्य	-1457
सत	-1458
▁दीवानी	-1459
▁पहचान	-1460
इन	-1461
▁वर्ग	-1462
▁संह	-1463
▁W	-1464
तना	-1465
धानिक	-1466
▁संभाव	-1467
▁संहिता	-1468
▁अधिस	-1469
▁विवरण	-1470
ोन	-1471
▁चे	-1472
ंतु	-1473
▁गुण	-1474
च्छेद	-1475
▁N	-1476
वे	-1477
ेंगे	-1478
▁ऋण	-1479
▁अर्था	-1480
▁अधिसू	-1481
लू	-1482
हाँ	-1483
थम	-1484
▁मज	-1485
▁प्रय	-1486
▁नई	-1487
▁पंच	-1488
▁ची	-1489
वरी	-1490
▁चौ	-1491
▁पूछ	-1492
▁पिछ	-1493
▁अस्प	-1494
▁प्राधिक	-1495
कट	-1496
▁हक	-1497
▁त्र	-1498
▁स्थित	-1499
▁अप्र	-1500
▁मूल्यांकन	-1501
▁भाव	-1502
▁जल	-1503
ार्थी	-1504
▁जग	-1505
▁समझौते	-1506
▁शिकायतकर्ता	-1507
▁लिख	-1508
▁जम	-1509
▁कर्मचारी	-1510
▁शा	-1511
▁अपीलकर्ताओं	-1512
▁चर्	-1513
is	-1514
▁&	-1515
टक	-1516
▁पीड़	-1517
▁संस्था	-1518
▁लिमि	-1519
▁वहां	-1520
ष्य	-1521
्रो	-1522
षि	-1523
▁K	-1524
▁संदेह	-1525
रीत	-1526
▁इसकी	-1527
▁प्रासंगिक	-1528
ब्ल	-1529
▁थीं	-1530
▁एससी	-1531
▁सदस्यों	-1532
▁कब्जे	-1533
▁विपरीत	-1534
▁मौजूद	-1535
▁स्कूल	-1536
▁लिमिटेड	-1537
▁जिससे	-1538
▁निगम	-1539
िवार	-1540
▁व्यापार	-1541
▁समु	-1542
▁सुविधा	-1543
ख्या	-1544
▁मानव	-1545
▁संयुक्त	-1546
थमिक	-1547
▁चयन	-1548
▁हित	-1549
▁प्राथमिक	-1550
▁गण	-1551
▁योग्यता	-1552
▁डे	-1553
ाया	-1554
मता	-1555
▁कठ	-1556
▁जवा	-1557
▁धन	-1558
ूर्ति	-1559
जिस्ट्रेट	-1560
▁विदेश	-1561
ंख	-1562
▁ज्ञान	-1563
▁मेरे	-1564
▁उत्पन्न	-1565
▁धर्म	-1566
▁प्रभावित	-1567
▁o	-1568
▁हस्त	-1569
▁अंतर्	-1570
रल	-1571
▁भर	-1572
▁कमी	-1573
भीर	-1574
▁मजिस्ट्रेट	-1575
▁उद्योग	-1576
▁दृष्ट	-1577
▁शरी	-1578
रित	-1579
म्ब	-1580
▁हस्ताक्षर	-1581
▁रद्द	-1582
▁भेज	-1583
▁संव	-1584
ीक	-1585
▁प्रथम	-1586
ूँ	-1587
▁जिसका	-1588
▁दिल्ली	-1589
▁आर्थ	-1590
▁बजे	-1591
▁जनता	-1592
▁हमारी	-1593
▁प्रदेश	-1594
तों	-1595
▁पे	-1596
्म	-1597
▁निर्धारण	-1598
▁जे	-1599
कान	-1600
पना	-1601
▁महिला	-1602
इस	-1603
लो	-1604
▁लगाए	-1605
▁शुल्क	-1606
▁ठहरा	-1607
▁दोषी	-1608
▁Ex	-1609
▁लिये	-1610
▁किरा	-1611
▁"	-1612
▁हकदार	-1613
ूंकि	-1614
▁समूह	-1615
▁चूंकि	-1616
निया	-1617
▁नागरिक	-1618
▁मी	-1619
▁सुधार	-1620
▁कथित	-1621
शत	-1622
▁आर्थिक	-1623
▁महीने	-1624
▁हल	-1625
▁होंगे	-1626
▁मुकदमे	-1627
्ले	-1628
▁घोषणा	-1629
▁खुद	-1630
▁ठीक	-1631
▁प्रारंभ	-1632
▁चुनाव	-1633
▁निम्नलिखित	-1634
▁रुपये	-1635
▁छोट	-1636
▁भरो	-1637
▁अनुसू	-1638
▁शै	-1639
▁काफी	-1640
सद	-1641
▁मद	-1642
धारण	-1643
ँच	-1644
▁चर्चा	-1645
▁आने	-1646
▁इनकार	-1647
▁शरीर	-1648
▁O	-1649
▁अनुच्छेद	-1650
▁सहित	-1651
कृतिक	-1652
▁बदल	-1653
▁पार्टी	-1654
्यास	-1655
▁पाठ	-1656
▁ज़	-1657
▁गंभीर	-1658
▁उपाय	-1659
लीय	-1660
▁वास्तविक	-1661
▁निव	-1662
▁लिखित	-1663
▁विस्तार	-1664
न्म	-1665
ंदर	-1666
▁जवाब	-1667
भू	-1668
▁अभी	-1669
सल	-1670
▁निर्भर	-1671
▁अपे	-1672
▁नए	-1673
ाक	-1674
▁जाएगी	-1675
▁शब्दों	-1676
▁अच्छी	-1677
बाद	-1678
क्षि	-1679
▁पत्नी	-1680
▁टे	-1681
▁पार्ट	-1682
▁रखते	-1683
▁व्यवस्था	-1684
▁अने	-1685
क्षक	-1686
▁क्षेत्रों	-1687
▁मालिक	-1688
▁प्रतिशत	-1689
▁विनि	-1690
ताल	-1691
▁एच	-1692
▁कर्मचार	-1693
▁मिला	-1694
▁परिय	-1695
▁अपीलार्थी	-1696
विध	-1697
ोस	-1698
▁चिकित्	-1699
▁सहायक	-1700
▁हटा	-1701
▁तौर	-1702
▁परियोजना	-1703
▁कार्यक्रम	-1704
▁>	-1705
▁वर्षों	-1706
▁लड़	-1707
▁सफल	-1708
▁कर्मचारियों	-1709
मन	-1710
▁प्राधिकारी	-1711
गार	-1712
ाजिक	-1713
ियन	-1714
▁भवन	-1715
▁आधारित	-1716
िको	-1717
▁संभव	-1718
▁ति	-1719
▁बड़ी	-1720
▁मुकदमा	-1721
ेयर	-1722
▁वाह	-1723
▁दिनों	-1724
▁मद्दे	-1725
▁खुला	-1726
▁कृषि	-1727
▁अवै	-1728
▁पूर्वो	-1729
र्य	-1730
▁सामाजिक	-1731
ाहरण	-1732
▁निश्चित	-1733
धारा	-1734
▁मैंने	-1735
डर	-1736
▁प्रबंधन	-1737
ाँकि	-1738
▁मद्देन	-1739
▁हालाँकि	-1740
▁हिंद	-1741
▁नियमित	-1742
▁वैध	-1743
▁तीस	-1744
▁निर्दिष्ट	-1745
स्या	-1746
▁उदाहरण	-1747
▁स्टेशन	-1748
▁प्रभ	-1749
▁मद्देनजर	-1750
▁डाल	-1751
▁इंड	-1752
▁शर्तों	-1753
श्चा	-1754
▁भरोसा	-1755
ri	-1756
▁परिस	-1757
▁विर	-1758
▁क्षमता	-1759
▁प्रौ	-1760
स्वरूप	-1761
▁लगाने	-1762
▁सबूतों	-1763
▁गर्	-1764
▁भे	-1765
▁अवैध	-1766
ष्ण	-1767
मेंट	-1768
▁उपबंध	-1769
▁कर्त	-1770
▁निजी	-1771
्ट	-1772
्रेड	-1773
▁प्रतिक	-1774
फ्त	-1775
▁गये	-1776
्रम	-1777
▁अनेक	-1778
▁जमीन	-1779
▁जब्त	-1780
▁वर्ण	-1781
▁हस्तक्षेप	-1782
▁नगर	-1783
on	-1784
▁श्रेणी	-1785
▁अधिसूचना	-1786
▁ब्या	-1787
▁आश	-1788
▁सीख	-1789
ुप	-1790
राज	-1791
▁क्रम	-1792
▁दस्तावेजों	-1793
▁संक	-1794
▁प्रणाली	-1795
▁समा	-1796
▁राहत	-1797
▁पति	-1798
▁दिशा	-1799
▁अनिवार	-1800
▁नियंत्रण	-1801
▁वार	-1802
▁उम्मीदवार	-1803
▁सुनि	-1804
▁रहने	-1805
ुओं	-1806
▁रोग	-1807
al	-1808
▁रजिस्ट	-1809
चन	-1810
▁शक्त	-1811
वासी	-1812
▁निदेशक	-1813
▁करेंगे	-1814
डे	-1815
▁अनुस	-1816
▁पीछ	-1817
▁वित्तीय	-1818
▁समस्या	-1819
शील	-1820
यों	-1821
ंडल	-1822
▁आपको	-1823
▁सुनवाई	-1824
▁नव	-1825
▁पीड़ित	-1826
▁सुना	-1827
▁अनुरोध	-1828
आईआर	-1829
▁सुनिश्चित	-1830
▁न्यायालयों	-1831
▁प्रदर्शन	-1832
हास	-1833
▁व्याख्या	-1834
ब्ल्यू	-1835
ST	-1836
▁बड़े	-1837
▁बल	-1838
▁अनिवार्य	-1839
▁सै	-1840
▁ब्याज	-1841
न्तु	-1842
▁बाव	-1843
ियो	-1844
▁तदन	-1845
▁पूर्वोक्त	-1846
▁बाल	-1847
▁प्रार्थ	-1848
धु	-1849
▁प्रार्थना	-1850
▁पुष्टि	-1851
▁आत्म	-1852
▁समी	-1853
स्थ्य	-1854
▁स्थापना	-1855
▁पूरे	-1856
▁दर्शा	-1857
▁इरा	-1858
▁रंग	-1859
en	-1860
▁अपी	-1861
▁बें	-1862
▁हिस्सा	-1863
जों	-1864
▁छा	-1865
▁पुनर्	-1866
▁आवेदक	-1867
थि	-1868
टन	-1869
▁विनियम	-1870
▁जिसने	-1871
▁प्रतिनिध	-1872
▁आन	-1873
▁अग्र	-1874
▁आस	-1875
▁तदनुसार	-1876
▁प्रौद्योगिक	-1877
▁क्ल	-1878
्याय	-1879
▁बाजार	-1880
तियों	-1881
▁जानी	-1882
ूक	-1883
▁कहते	-1884
र्श	-1885
▁अम	-1886
▁चिकित्सा	-1887
▁याद	-1888
ंजी	-1889
ur	-1890
▁व्यवसाय	-1891
दम	-1892
▁इस्त	-1893
▁मंजू	-1894
▁सुझ	-1895
▁उससे	-1896
▁परिभा	-1897
ट्टी	-1898
▁कौ	-1899
▁हत्या	-1900
ांक	-1901
▁पुस्त	-1902
जरा	-1903
▁संभावना	-1904
▁आयुक्त	-1905
▁लेन	-1906
er	-1907
▁लक्ष	-1908
▁तुल	-1909
▁स्वास्थ्य	-1910
सित	-1911
▁हमने	-1912
▁एज	-1913
▁कारणों	-1914
▁पें	-1915
▁आयु	-1916
▁परिवर्तन	-1917
▁एल	-1918
▁आक	-1919
▁बावजूद	-1920
१०	-1921
एँ	-1922
▁जिन्हें	-1923
▁उत्तरदाता	-1924
▁पार्टियों	-1925
▁तकनी	-1926
िकोण	-1927
▁निर्धारिती	-1928
▁देखते	-1929
▁अत्य	-1930
▁सीमित	-1931
ेम	-1932
पण	-1933
▁हिस्से	-1934
▁यहाँ	-1935
▁‘	-1936
त्व	-1937
es	-1938
िव्य	-1939
ैंड	-1940
ानि	-1941
▁अपीलीय	-1942
▁जगह	-1943
▁तर	-1944
फार	-1945
▁G	-1946
▁अधिकारों	-1947
तिहास	-1948
म्प	-1949
▁प्रतीत	-1950
▁पैदा	-1951
▁मंद	-1952
वादियों	-1953
▁क़	-1954
▁हेतु	-1955
▁लाख	-1956
▁बस	-1957
ग्	-1958
▁अन्त	-1959
▁L	-1960
्यिक	-1961
▁इच्छ	-1962
▁लाल	-1963
▁मात्रा	-1964
बन्	-1965
ंसा	-1966
▁संसद	-1967
▁अस्पताल	-1968
▁मार	-1969
▁बचाव	-1970
▁T	-1971
सि	-1972
▁आपके	-1973
प्ता	-1974
▁व्यक्तिगत	-1975
▁जिन्होंने	-1976
▁स्वतंत्रता	-1977
▁मुआ	-1978
फारिश	-1979
▁पांच	-1980
▁हिन्द	-1981
▁मुद्दे	-1982
बू	-1983
▁मार्ग	-1984
▁आए	-1985
लाई	-1986
▁”	-1987
▁पश्च	-1988
▁बढ़ा	-1989
▁दायित्व	-1990
▁सिफारिश	-1991
▁संके	-1992
▁सीआर	-1993
डा	-1994
▁अंक	-1995
▁व्यापक	-1996
▁लगता	-1997
▁सहयोग	-1998
▁मुआव	-1999
▁उपस्थिति	-2000
लोक	-2001
▁दृष्टिकोण	-2002
▁विज्ञान	-2003
▁व्यवहार	-2004
▁कट	-2005
चल	-2006
मिल	-2007
▁अर	-2008
▁विधान	-2009
▁भाई	-2010
र्न	-2011
▁तुम	-2012
▁तत्काल	-2013
▁विवाह	-2014
जित	-2015
▁कैसे	-2016
▁परिणामस्वरूप	-2017
▁H	-2018
▁पोस्ट	-2019
बार	-2020
▁भर्ती	-2021
▁अध्यक्ष	-2022
▁विद्वत	-2023
मती	-2024
्यादा	-2025
पूर्व	-2026
▁चलता	-2027
▁उच्चतम	-2028
▁रोज	-2029
▁केंद	-2030
▁उपधारा	-2031
तार	-2032
▁अनुमान	-2033
लाह	-2034
▁घोषित	-2035
ह्न	-2036
▁सेवाओं	-2037
▁पंजीकृत	-2038
▁प्रौद्योगिकी	-2039
षित	-2040
▁लाइस	-2041
▁बच्चों	-2042
in	-2043
ोक्ता	-2044
▁निकाल	-2045
▁शि	-2046
▁बीमा	-2047
▁सूचित	-2048
मार्	-2049
▁उपस्थित	-2050
▁अन्यथा	-2051
▁सुझाव	-2052
▁संत	-2053
▁निवेश	-2054
र्च	-2055
▁रक्षा	-2056
▁J	-2057
▁V	-2058
▁सभा	-2059
▁खरीद	-2060
ha	-2061
▁उपयुक्त	-2062
ांति	-2063
ग्रहण	-2064
ादी	-2065
▁जोड़	-2066
▁गयी	-2067
ूरी	-2068
▁बच्चे	-2069
धीन	-2070
खिल	-2071
ानीय	-2072
▁खो	-2073
▁जीव	-2074
▁एकल	-2075
्राफ	-2076
▁दली	-2077
▁अमे	-2078
▁सत्र	-2079
▁लाइसेंस	-2080
▁वही	-2081
▁चाहते	-2082
धे	-2083
▁a	-2084
लग्न	-2085
▁प्रधान	-2086
▁भौ	-2087
▁संतु	-2088
▁स्थायी	-2089
▁स्थानीय	-2090
▁अनुभव	-2091
▁जन्म	-2092
▁अभियुक्तों	-2093
▁सहमति	-2094
ंगत	-2095
▁उत्तरदाय	-2096
▁अस्वी	-2097
▁भूम	-2098
त्स	-2099
▁क्रिया	-2100
▁स्पष्टीकरण	-2101
▁कवि	-2102
▁पिछले	-2103
▁यात्रा	-2104
▁विदेशी	-2105
वरण	-2106
णिज	-2107
▁अगस्त	-2108
नामा	-2109
▁केंद्रीय	-2110
▁मेरी	-2111
नाथ	-2112
▁पानी	-2113
शिश	-2114
▁जमान	-2115
▁सचिव	-2116
▁वृद्धि	-2117
ैन	-2118
रासत	-2119
िप्	-2120
▁चरण	-2121
▁बाध्य	-2122
ेमाल	-2123
▁गिरफ्त	-2124
▁कोशिश	-2125
▁अंतर्गत	-2126
▁छो	-2127
▁प्रशिक्ष	-2128
▁वाणिज	-2129
िकल	-2130
▁सम्मान	-2131
▁इस्तेमाल	-2132
▁रखना	-2133
▁प्रतिनिधित्व	-2134
▁मदद	-2135
ज्ञा	-2136
▁बैठक	-2137
ृत्ति	-2138
▁कॉले	-2139
▁अह	-2140
▁औद्योगिक	-2141
▁संशोधित	-2142
▁अंग्रे	-2143
▁समीक्षा	-2144
▁मंजूरी	-2145
▁बेंच	-2146
▁यानी	-2147
डब्ल्यू	-2148
▁हूँ	-2149
▁असम	-2150
▁सौंप	-2151
▁आकर्ष	-2152
▁जरूर	-2153
▁देरी	-2154
ार्ड	-2155
▁संकेत	-2156
वर्ती	-2157
भाग	-2158
▁IST	-2159
▁WP	-2160
बे	-2161
▁नौ	-2162
▁मध्यस्थता	-2163
▁सेट	-2164
▁राजस्व	-2165
ंटी	-2166
▁देशों	-2167
▁दावे	-2168
सन	-2169
▁मंदिर	-2170
ुष	-2171
▁आरोपों	-2172
▁सुरक्षित	-2173
▁प्राकृतिक	-2174
▁पीछे	-2175
▁भूमिका	-2176
▁देय	-2177
ेंसी	-2178
ान्त	-2179
▁करोड़	-2180
▁चिह्न	-2181
No	-2182
संद	-2183
▁इंग	-2184
स्तान	-2185
▁हलफ	-2186
▁विकसित	-2187
▁आदेशों	-2188
खंड	-2189
▁बंग	-2190
▁कप	-2191
▁अनुमो	-2192
िवी	-2193
ूठ	-2194
▁बहु	-2195
▁परिष	-2196
▁संदर्भित	-2197
▁संबंधी	-2198
ियर	-2199
ंज	-2200
▁नुक	-2201
▁समझौता	-2202
▁वाहन	-2203
▁एफआईआर	-2204
चर	-2205
▁सिद्धांतों	-2206
ायल	-2207
▁पंजीकरण	-2208
▁बिंद	-2209
00	-2210
▁तुलना	-2211
यां	-2212
ष्ट्रीय	-2213
▁यु	-2214
िप	-2215
ियाँ	-2216
ेंद्र	-2217
ण्	-2218
▁लो	-2219
▁दूसरा	-2220
▁इला	-2221
ra	-2222
▁एससीसी	-2223
▁वैधानिक	-2224
▁जिम्म	-2225
स्त्र	-2226
▁ठहराया	-2227
▁राजनी	-2228
▁काउ	-2229
▁अभिव्य	-2230
▁प्रभावी	-2231
▁दृष्टि	-2232
▁छात्र	-2233
▁लागत	-2234
▁छोटे	-2235
▁कदम	-2236
▁नुकसान	-2237
▁बज	-2238
▁निपटान	-2239
▁सत	-2240
▁रेल	-2241
▁वसी	-2242
▁लौ	-2243
▁प्रशास	-2244
▁देव	-2245
▁धो	-2246
▁भेजा	-2247
▁वेब	-2248
▁मंत्रालय	-2249
▁अल	-2250
▁जहाँ	-2251
ैल	-2252
▁जमानत	-2253
यात	-2254
र्मा	-2255
दारी	-2256
▁तिथि	-2257
ुआ	-2258
▁प्रदर्श	-2259
एफ	-2260
▁ग्राम	-2261
र्जी	-2262
▁लेकर	-2263
▁प्रतिवादियों	-2264
ॉल	-2265
दंड	-2266
▁भवि	-2267
ड़क	-2268
▁पदार्थ	-2269
▁चाल	-2270
▁पीठ	-2271
▁अनुचित	-2272
▁चार्	-2273
▁बां	-2274
▁परे	-2275
▁d	-2276
▁आईपीसी	-2277
▁वसीयत	-2278
ताछ	-2279
जनक	-2280
▁भले	-2281
▁त्रुट	-2282
▁ज्यादा	-2283
त्मा	-2284
▁दक्षि	-2285
▁भविष्य	-2286
ist	-2287
▁बोली	-2288
▁श्रीमती	-2289
▁बिल	-2290
्रेस	-2291
▁मोट	-2292
▁of	-2293
▁एंड	-2294
कु	-2295
एन	-2296
▁00	-2297
▁किस	-2298
▁निरी	-2299
▁प्रकट	-2300
ंगे	-2301
मात्र	-2302
ांतर	-2303
राह	-2304
▁रहते	-2305
▁लंबित	-2306
▁अर्थात्	-2307
▁गांव	-2308
▁उत्तरदायी	-2309
सिक	-2310
ंधान	-2311
ct	-2312
▁शक्तियों	-2313
▁मर	-2314
▁निष्पादित	-2315
ल्ड	-2316
▁रहता	-2317
▁विकल्प	-2318
त्तियों	-2319
▁इका	-2320
▁फर	-2321
▁पश्चा	-2322
▁विज्ञ	-2323
▁अच्छा	-2324
तनी	-2325
▁पूछताछ	-2326
▁बड़ा	-2327
ाधिकार	-2328
लब	-2329
▁संपर्क	-2330
▁अस्त	-2331
ेशा	-2332
▁विरोध	-2333
▁अनुपालन	-2334
▁उसमें	-2335
▁कर्	-2336
यर	-2337
ामीण	-2338
▁प्रारंभिक	-2339
िवीजन	-2340
ट्स	-2341
▁प्रकाशित	-2342
▁चर	-2343
▁सत्य	-2344
▁संचालन	-2345
रिम	-2346
▁ग्रामीण	-2347
▁पेट	-2348
▁कर्तव्य	-2349
▁चाहे	-2350
▁आपूर्ति	-2351
▁मजब	-2352
▁आद	-2353
▁जाये	-2354
▁आपत्ति	-2355
्ला	-2356
▁गठन	-2357
▁अधिग्रहण	-2358
▁दिखाई	-2359
११	-2360
▁उपकरण	-2361
▁संसा	-2362
▁अपेक्षा	-2363
चरण	-2364
र्इ	-2365
▁अनुसंधान	-2366
राब	-2367
▁रू	-2368
▁निर्णयों	-2369
▁अनुश	-2370
▁खाते	-2371
▁मार्च	-2372
▁प्रशासन	-2373
▁मिली	-2374
▁राज्यों	-2375
र्ग	-2376
▁रखी	-2377
▁विद्य	-2378
पूर्वक	-2379
▁हमेशा	-2380
▁जोर	-2381
▁खे	-2382
खी	-2383
▁पक्षों	-2384
▁डिवीजन	-2385
▁नम	-2386
शल	-2387
▁उनमें	-2388
लंब	-2389
▁एड	-2390
षे	-2391
▁देखने	-2392
▁वसू	-2393
विदा	-2394
▁सलाह	-2395
▁बाहरी	-2396
▁यही	-2397
र्फ	-2398
▁चित्र	-2399
▁निका	-2400
ल्पना	-2401
▁इतिहास	-2402
▁तुर	-2403
▁लॉ	-2404
▁अध्ययन	-2405
▁छूट	-2406
▁काल	-2407
ड़ों	-2408
▁निष्पादन	-2409
▁वन	-2410
▁टिप्	-2411
▁कार्यों	-2412
पे	-2413
▁पात्र	-2414
टों	-2415
▁तकनीकी	-2416
▁कला	-2417
▁उठाया	-2418
▁विधाय	-2419
▁अनुसूची	-2420
▁पक	-2421
▁चुका	-2422
▁अंतरिम	-2423
▁पेंशन	-2424
▁यून	-2425
▁दाखिल	-2426
▁ढंग	-2427
▁गवाही	-2428
▁शीर्षक	-2429
▁आता	-2430
▁जाति	-2431
▁रचना	-2432
▁माता	-2433
▁रक्त	-2434
▁जिनके	-2435
▁भौतिक	-2436
▁भिन्न	-2437
▁संगठन	-2438
▁भावना	-2439
▁प्रेम	-2440
▁आवंट	-2441
▁खर्च	-2442
▁युद्ध	-2443
▁वसूली	-2444
▁नक	-2445
ानुसार	-2446
▁यद्य	-2447
हरी	-2448
▁मान्यता	-2449
▁लाया	-2450
▁बोल	-2451
▁आरंभ	-2452
▁यद्यपि	-2453
म्र	-2454
▁देवी	-2455
▁शासन	-2456
▁रोजगार	-2457
▁डा	-2458
ंता	-2459
जय	-2460
▁शेष	-2461
किल	-2462
▁लगे	-2463
तने	-2464
▁बुला	-2465
▁उठाए	-2466
▁विस्तृत	-2467
▁साहित	-2468
▁महान	-2469
▁Dist	-2470
▁पहलू	-2471
▁लिखा	-2472
▁जिरह	-2473
▁पाठ्य	-2474
▁निविदा	-2475
▁सर्	-2476
▁होनी	-2477
▁ते	-2478
▁त्रुटि	-2479
वीं	-2480
▁विरुद्ध	-2481
टल	-2482
▁मिले	-2483
ायद	-2484
डियो	-2485
▁पदो	-2486
▁एकमात्र	-2487
▁पेज	-2488
▁कॉलेज	-2489
▁मौत	-2490
▁निर्वा	-2491
▁अस्तित्व	-2492
▁आरोपियों	-2493
▁जिनमें	-2494
▁होकर	-2495
▁प्रवि	-2496
▁पदोन्न	-2497
▁शव	-2498
भूत	-2499
▁फि	-2500
▁प्रग	-2501
▁हिरासत	-2502
▁सीखे	-2503
▁चाहता	-2504
▁वाय	-2505
▁आकार	-2506
▁देती	-2507
▁निषे	-2508
▁बरा	-2509
▁केस	-2510
▁निकल	-2511
▁व्याव	-2512
▁पंचाय	-2513
▁दलील	-2514
▁बिंदु	-2515
ंतर	-2516
पक	-2517
▁खुलासा	-2518
स्क	-2519
वानिव	-2520
▁आचरण	-2521
▁पुत्र	-2522
▁संस्थानों	-2523
▁जून	-2524
▁सेवानिव	-2525
श्त	-2526
▁परंतु	-2527
▁साह	-2528
▁मश	-2529
्मिक	-2530
▁उपर्	-2531
▁हमारा	-2532
▁विवेक	-2533
▁परिषद	-2534
▁तरफ	-2535
मों	-2536
▁गाँ	-2537
▁निर्देशित	-2538
▁टै	-2539
्यून	-2540
ल्स	-2541
▁विद्वान	-2542
▁संरक्षण	-2543
▁वाणिज्यिक	-2544
▁उपर्युक्त	-2545
ज्	-2546
▁आकर्षित	-2547
▁कहना	-2548
▁अभिव्यक्ति	-2549
▁अप्रैल	-2550
▁बेहत	-2551
म्ह	-2552
्यो	-2553
▁अभ्यास	-2554
▁बराम	-2555
▁साव	-2556
केट	-2557
▁संय	-2558
▁अर्थात	-2559
▁गुर	-2560
▁II	-2561
▁विश्ले	-2562
▁ii	-2563
▁छु	-2564
सम	-2565
▁जाँच	-2566
▁बराबर	-2567
बन्ध	-2568
▁गार	-2569
▁पट्	-2570
▁फैसला	-2571
▁परिसर	-2572
ैतिक	-2573
▁गांधी	-2574
▁प्रशिक्षण	-2575
▁हथ	-2576
▁विरो	-2577
ज्ञानिक	-2578
▁प्रत्यक्ष	-2579
▁तंत्र	-2580
▁दें	-2581
▁सत्ता	-2582
साइट	-2583
▁इस्ल	-2584
▁रात	-2585
▁संस्करण	-2586
▁प्रशासनिक	-2587
ेदारी	-2588
▁कहीं	-2589
ून्य	-2590
▁सां	-2591
▁कांग	-2592
▁विनिर्	-2593
▁याचिकाओं	-2594
▁बॉ	-2595
▁साधारण	-2596
▁t	-2597
▁प्रतिबंध	-2598
▁सित	-2599
ंगल	-2600
▁जिसकी	-2601
▁खेल	-2602
▁करनी	-2603
क़	-2604
▁धी	-2605
▁नया	-2606
ांतरित	-2607
ालित	-2608
ठित	-2609
भाई	-2610
▁अवि	-2611
▁पुनः	-2612
▁कोर्इ	-2613
▁पीसी	-2614
▁संदेश	-2615
▁साझ	-2616
ेदन	-2617
▁बिज	-2618
▁अनुक	-2619
▁प्रगति	-2620
▁सिर	-2621
▁झूठ	-2622
▁भ्र	-2623
▁परन्तु	-2624
▁इंडिया	-2625
सं	-2626
▁थो	-2627
▁पौ	-2628
▁रिक्त	-2629
▁दावेदार	-2630
▁समझा	-2631
▁राजा	-2632
▁तुरंत	-2633
धानी	-2634
▁जल्	-2635
▁पहल	-2636
त्कार	-2637
▁अश	-2638
▁पूंजी	-2639
न्व	-2640
▁मेड	-2641
▁दक्षिण	-2642
▁फाइल	-2643
▁जरूरत	-2644
▁उल्लिखित	-2645
▁भागी	-2646
गढ़	-2647
▁लगी	-2648
▁मुआवजे	-2649
▁संतुष्ट	-2650
ॉस	-2651
भाल	-2652
▁सराह	-2653
▁क्षति	-2654
▁तुम्ह	-2655
il	-2656
▁बरामद	-2657
▁शून्य	-2658
▁निर्यात	-2659
क्शन	-2660
ृत्त	-2661
्रिय	-2662
लाव	-2663
फा	-2664
▁SCC	-2665
▁गुजरा	-2666
▁कारा	-2667
रक	-2668
▁नही	-2669
▁अस्वीकार	-2670
▁c	-2671
▁शेयर	-2672
▁निम्नानुसार	-2673
त्साह	-2674
▁विलेख	-2675
▁शे	-2676
▁उद्य	-2677
ॉक	-2678
ंजन	-2679
रेट	-2680
▁पाठ्यक्रम	-2681
ज़ा	-2682
▁पुरुष	-2683
▁सोच	-2684
▁पुरा	-2685
▁दिस	-2686
▁कृत	-2687
▁अधिका	-2688
▁छोड़कर	-2689
▁उम्मीदवारों	-2690
▁गि	-2691
सनीय	-2692
ैधानिक	-2693
फे	-2694
▁पाए	-2695
▁भग	-2696
▁शिव	-2697
▁क़ान	-2698
▁स्रो	-2699
▁पहला	-2700
▁विंड	-2701
▁पड़ा	-2702
▁संचार	-2703
रिका	-2704
▁मुक्त	-2705
घु	-2706
▁शायद	-2707
▁सड़क	-2708
▁महारा	-2709
▁उपचार	-2710
ांड	-2711
श्वर	-2712
▁तत्व	-2713
▁अनुरूप	-2714
साइ	-2715
▁सुब	-2716
▁विशेषज्ञ	-2717
▁पसंद	-2718
▁छह	-2719
▁तेल	-2720
▁पदों	-2721
▁बेहतर	-2722
▁अध्याय	-2723
▁अपराधों	-2724
ल्ल	-2725
▁अभाव	-2726
गल	-2727
▁चेक	-2728
दाता	-2729
▁सामना	-2730
आईसी	-2731
▁संरचना	-2732
▁बचा	-2733
पालिका	-2734
ायक	-2735
र्जा	-2736
्राइ	-2737
▁विज्ञापन	-2738
▁क़ानून	-2739
▁रखे	-2740
▁इतना	-2741
कारों	-2742
as	-2743
प्ताह	-2744
▁सहमत	-2745
▁जनवरी	-2746
▁राजनीतिक	-2747
स्ति	-2748
▁बढ़ाने	-2749
▁री	-2750
हीन	-2751
चि	-2752
▁निरंतर	-2753
नात्मक	-2754
▁इच्छा	-2755
▁प्रयोज	-2756
▁मई	-2757
▁कार्यकारी	-2758
▁पाल	-2759
श्छ	-2760
▁दुकान	-2761
▁निपटा	-2762
▁दिखाया	-2763
्ष्	-2764
▁गतिविध	-2765
▁लेना	-2766
▁लेखा	-2767
▁बने	-2768
▁आत	-2769
▁सत्या	-2770
ंगा	-2771
▁पराम	-2772
▁मतलब	-2773
▁कीमत	-2774
▁अमेरिका	-2775
्यूटर	-2776
▁ऊण्	-2777
श्छ्ष्	-2778
▁ऊण्श्छ्ष्	-2779
▁मेरा	-2780
▁दुनिया	-2781
▁अनुदान	-2782
▁स्थानांतरित	-2783
▁वहाँ	-2784
▁दल	-2785
ag	-2786
▁पड़ता	-2787
▁शाखा	-2788
▁उनसे	-2789
▁किंतु	-2790
and	-2791
▁दिव	-2792
▁उपभ	-2793
▁विच	-2794
▁जाय	-2795
▁वेबसाइट	-2796
IR	-2797
द्रा	-2798
▁पीएस	-2799
▁गाँव	-2800
▁विद्या	-2801
▁ती	-2802
▁न्यून	-2803
▁फॉ	-2804
▁करा	-2805
▁मानते	-2806
▁सराहना	-2807
राव	-2808
▁पर्य	-2809
▁आग	-2810
▁शादी	-2811
▁किये	-2812
▁बरी	-2813
▁दिखाने	-2814
▁मशीन	-2815
मारी	-2816
▁प्रतिष्ठ	-2817
▁दायरे	-2818
किंग	-2819
▁उद्ध	-2820
ियार	-2821
▁सेना	-2822
धुनिक	-2823
▁श्रम	-2824
ल्ट	-2825
घटना	-2826
दर्श	-2827
▁नजर	-2828
▁परिभाषित	-2829
▁यथा	-2830
▁पुस्तक	-2831
▁अक	-2832
ad	-2833
▁सक्रिय	-2834
AR	-2835
▁सन्	-2836
द्व	-2837
▁मुद्द	-2838
ठी	-2839
▁संकल्प	-2840
पथ	-2841
▁धोखा	-2842
▁कल्या	-2843
ंटर	-2844
▁सात	-2845
▁विभा	-2846
▁प्रोत्साह	-2847
▁खाद	-2848
▁समाप्ति	-2849
▁अफ	-2850
ूबर	-2851
▁कांग्रेस	-2852
▁कारावास	-2853
▁इक	-2854
▁w	-2855
▁क्रॉस	-2856
▁लाने	-2857
▁भारी	-2858
▁डॉक्टर	-2859
ोह	-2860
▁योगदान	-2861
▁मंत्री	-2862
▁जुलाई	-2863
▁बजाय	-2864
▁वें	-2865
▁देगा	-2866
▁बिजली	-2867
▁शांति	-2868
भार	-2869
▁दुर्घटना	-2870
भूमि	-2871
▁ब्ल	-2872
▁बेटी	-2873
▁जज	-2874
जूदा	-2875
▁बंध	-2876
▁मेडिकल	-2877
▁संपूर्ण	-2878
▁विश्लेषण	-2879
▁मुद्दों	-2880
▁सप्ताह	-2881
▁निकाला	-2882
▁समुदाय	-2883
▁वस्तुओं	-2884
▁न्यूनतम	-2885
▁मौजूदा	-2886
स्टर	-2887
▁दृश्य	-2888
ारात्मक	-2889
▁दस	-2890
▁समाधान	-2891
कम	-2892
▁कंपन	-2893
▁स्टे	-2894
▁साहित्य	-2895
लोकन	-2896
▁मॉ	-2897
▁लक्ष्य	-2898
मंत्र	-2899
संगत	-2900
▁अंदर	-2901
माने	-2902
am	-2903
▁एकत्र	-2904
▁निर्व	-2905
▁हस्तांत	-2906
ent	-2907
▁प्रतिकूल	-2908
▁वैज्ञानिक	-2909
बिर	-2910
▁आधुनिक	-2911
▁मिलता	-2912
pur	-2913
▁नर	-2914
▁मिश	-2915
▁पंचायत	-2916
ृह	-2917
▁गारंटी	-2918
▁प्रदर्शित	-2919
▁स्थग	-2920
▁अगले	-2921
▁केन्द्र	-2922
▁आते	-2923
▁कल्याण	-2924
शु	-2925
श्म	-2926
▁परामर्श	-2927
नामे	-2928
▁पदोन्नति	-2929
▁प्राय	-2930
▁ज्ञापन	-2931
▁हमला	-2932
▁निर्मित	-2933
पक्ष	-2934
▁विभाजन	-2935
▁रेलवे	-2936
▁खोल	-2937
▁पर्यावरण	-2938
▁तीसरे	-2939
▁घायल	-2940
▁पंजा	-2941
दय	-2942
कता	-2943
▁वितरण	-2944
rict	-2945
▁आतंक	-2946
▁संलग्न	-2947
यल	-2948
▁कब्जा	-2949
it	-2950
▁संवैधानिक	-2951
▁मुखबिर	-2952
▁मू	-2953
▁बेच	-2954
▁शास	-2955
▁शर्मा	-2956
▁कटौती	-2957
▁District	-2958
१२	-2959
▁देन	-2960
▁नदी	-2961
▁कोड	-2962
▁किराय	-2963
▁F	-2964
▁तला	-2965
▁इंटर	-2966
वाय	-2967
▁फरवरी	-2968
or	-2969
▁सश	-2970
▁चिह्नित	-2971
ांस	-2972
▁शहर	-2973
ड्	-2974
▁पाने	-2975
▁रोकने	-2976
▁जिम्मेदार	-2977
र्द	-2978
ध्या	-2979
टव	-2980
▁खुल	-2981
▁इंगित	-2982
रत	-2983
क्रमण	-2984
▁अधिकांश	-2985
▁एक्	-2986
▁धार्मिक	-2987
▁दश	-2988
▁स्थल	-2989
गो	-2990
▁परिस्थिति	-2991
वत्ता	-2992
▁दुर	-2993
▁मुसल	-2994
▁विविध	-2995
▁पृथ	-2996
▁उम्र	-2997
▁अंग्रेजी	-2998
▁पश्चिम	-2999
▁इंज	-3000
▁मौके	-3001
चक	-3002
▁परिवहन	-3003
ृति	-3004
▁मानसिक	-3005
▁क्षेत्रीय	-3006
▁निश	-3007
्वर	-3008
▁अनुमोदन	-3009
▁वो	-3010
▁ग्राह	-3011
▁गी	-3012
ृत्व	-3013
्राम	-3014
कीय	-3015
ोलन	-3016
▁उत्स	-3017
▁करेगी	-3018
▁भोजन	-3019
▁गुजरात	-3020
▁गुणवत्ता	-3021
ंचित	-3022
▁मुसलमान	-3023
▁कहानी	-3024
ूम	-3025
ंथ	-3026
▁दौ	-3027
▁एक्ट	-3028
पीठ	-3029
▁जित	-3030
▁मना	-3031
▁दिल	-3032
▁खून	-3033
▁फल	-3034
▁मोह	-3035
▁पढ़ने	-3036
▁आग्रह	-3037
▁अल्प	-3038
▁ऊर्जा	-3039
ंटे	-3040
खिक	-3041
▁छोटी	-3042
▁बंगाल	-3043
▁खत	-3044
▁अवस्था	-3045
▁पद्ध	-3046
▁प्रस्तावित	-3047
▁फ्र	-3048
▁शारी	-3049
▁सफलता	-3050
▁चलाने	-3051
▁जुड़े	-3052
▁गणना	-3053
▁सीधे	-3054
▁छात्रों	-3055
दर	-3056
▁खाली	-3057
▁मंडल	-3058
▁निवास	-3059
▁क्षेत्राधिकार	-3060
▁मुद्रा	-3061
बोध	-3062
▁सुबह	-3063
तक	-3064
▁कले	-3065
▁हास	-3066
▁आकलन	-3067
ंव	-3068
िकार	-3069
▁मनोर	-3070
मल	-3071
द्दा	-3072
▁ध्व	-3073
न्ट	-3074
AN	-3075
नेट	-3076
▁जेल	-3077
▁माप	-3078
▁विश्वसनीय	-3079
बि	-3080
▁शंक	-3081
▁माँ	-3082
रिया	-3083
▁विचारों	-3084
पात	-3085
्रिया	-3086
▁अवलोकन	-3087
▁प्रसाद	-3088
▁अके	-3089
▁शारीरिक	-3090
चारिक	-3091
▁मित्र	-3092
तृत्व	-3093
▁पश्चात्	-3094
▁इस्लाम	-3095
▁बनाई	-3096
लिक	-3097
ितीय	-3098
▁सका	-3099
▁दिसंबर	-3100
ैक	-3101
▁p	-3102
एच	-3103
▁अहम	-3104
ग्राफ	-3105
▁अनुसूचित	-3106
▁चाहिये	-3107
▁निधि	-3108
कालिक	-3109
▁चार्ज	-3110
▁अनुपात	-3111
वक	-3112
हरे	-3113
▁रखता	-3114
▁मनु	-3115
▁सिर्फ	-3116
▁पढ़ा	-3117
िना	-3118
▁आनंद	-3119
▁स्वामी	-3120
▁प्रमाणित	-3121
▁इरादा	-3122
▁जैसी	-3123
▁निवासी	-3124
▁कॉल	-3125
▁मजद	-3126
▁निकाय	-3127
ed	-3128
▁मोटर	-3129
उस	-3130
रीय	-3131
ंगी	-3132
▁इनमें	-3133
▁दिख	-3134
व्यव	-3135
▁शुद्ध	-3136
ंबई	-3137
▁मौखिक	-3138
▁निषेधा	-3139
मय	-3140
चीन	-3141
▁खाता	-3142
▁उपन	-3143
▁बर्	-3144
▁निष्पक्ष	-3145
▁सर्वे	-3146
▁कठोर	-3147
▁निर्देशों	-3148
▁करी	-3149
▁वालों	-3150
▁सितंबर	-3151
ष्ट्र	-3152
▁औसत	-3153
▁लेते	-3154
▁अस्था	-3155
▁मुखर्जी	-3156
▁प्ल	-3157
्वेष	-3158
घा	-3159
▁हलफनामे	-3160
▁निरीक्षण	-3161
▁दोहरा	-3162
har	-3163
न्स	-3164
▁उठाने	-3165
बिट	-3166
▁कलेक्टर	-3167
▁आयात	-3168
id	-3169
▁गा	-3170
▁मात्र	-3171
▁कवर	-3172
▁पीडब्ल्यू	-3173
ुता	-3174
▁पड़े	-3175
EN	-3176
▁अच्छे	-3177
▁गिरफ्तार	-3178
▁v	-3179
▁वंचित	-3180
्षिक	-3181
सूस	-3182
डिया	-3183
▁पाते	-3184
▁न्यू	-3185
▁इंजीन	-3186
पु	-3187
वाला	-3188
▁न्यायाधीशों	-3189
ंदा	-3190
▁शुरुआ	-3191
▁गतिविधियों	-3192
▁इकाई	-3193
▁नमू	-3194
▁विचारा	-3195
▁परिभाषा	-3196
▁प्राप्ति	-3197
▁चुके	-3198
मीर	-3199
▁केन्द	-3200
▁परिवर्त	-3201
▁प्राथमिकता	-3202
ंका	-3203
▁स्रोत	-3204
▁लगातार	-3205
▁फर्म	-3206
▁पकड़	-3207
▁मजबूत	-3208
▁भेद	-3209
▁निषेधाज्ञा	-3210
▁AIR	-3211
▁व्यय	-3212
▁सकें	-3213
▁कंप्यूटर	-3214
▁दूरी	-3215
▁नियंत्रित	-3216
यण	-3217
▁युवा	-3218
िटी	-3219
▁नील	-3220
▁निकट	-3221
▁युग	-3222
▁निष्कर्षों	-3223
▁आधिकार	-3224
▁सुल	-3225
▁वर्णित	-3226
▁आंद	-3227
▁विचाराधीन	-3228
▁टिप्पण	-3229
बाइल	-3230
▁स्म	-3231
म्भ	-3232
▁हिंदू	-3233
▁लघु	-3234
फ्ट	-3235
काया	-3236
▁मुद्दा	-3237
▁आधिकारिक	-3238
▁तेज	-3239
▁स्वीकृति	-3240
▁डेटा	-3241
▁रहती	-3242
ियल	-3243
▁सच्च	-3244
▁नियोक्ता	-3245
▁असा	-3246
▁कृष्ण	-3247
▁अत्यधिक	-3248
▁अनि	-3249
पचारिक	-3250
▁आत्मा	-3251
▁वर्णन	-3252
▁पैराग्राफ	-3253
▁सृ	-3254
▁उन्न	-3255
लिंग	-3256
▁नेतृत्व	-3257
▁जरूरी	-3258
ियोग	-3259
▁त्व	-3260
▁फोन	-3261
धनों	-3262
म्बर	-3263
मंत्री	-3264
▁हटाने	-3265
▁माह	-3266
▁प्रयोजन	-3267
▁चीज	-3268
▁निर्वहन	-3269
▁बिहार	-3270
्यात्मक	-3271
▁दस्तावेज़	-3272
ुपयोग	-3273
▁संघर्ष	-3274
▁वैधता	-3275
▁असमर्थ	-3276
▁स्वाम	-3277
▁ग्रह	-3278
▁सावधानी	-3279
▁उत्तराधिक	-3280
▁लै	-3281
▁रजिस्ट्र	-3282
▁दरवा	-3283
▁प्रेरित	-3284
▁तभी	-3285
▁किसान	-3286
▁महसूस	-3287
▁सहकारी	-3288
ृंख	-3289
नाटक	-3290
▁जानते	-3291
▁प्राइ	-3292
▁वार्षिक	-3293
▁मनुष्य	-3294
▁कंपनियों	-3295
▁मानदंड	-3296
स्ती	-3297
▁मिलने	-3298
▁अनुशास	-3299
IC	-3300
▁अंश	-3301
▁समाचार	-3302
▁सम्मिल	-3303
▁खान	-3304
▁सम्बन्ध	-3305
डु	-3306
▁ईश्वर	-3307
भूति	-3308
▁कथन	-3309
ल्म	-3310
▁जुर्म	-3311
he	-3312
टिल	-3313
▁वर्गी	-3314
▁प्रयोजनों	-3315
गु	-3316
um	-3317
टने	-3318
▁पूर्वव	-3319
▁संग्रह	-3320
▁कर्नाटक	-3321
▁बेटे	-3322
▁प्रतिक्रिया	-3323
▁इसने	-3324
▁मास	-3325
▁दै	-3326
▁स्वीकार्य	-3327
▁१	-3328
▁अस्थायी	-3329
प्रे	-3330
▁मुस्	-3331
▁विधिव	-3332
▁भगवान	-3333
▁अपेक्षित	-3334
ोड	-3335
्रिक	-3336
▁कौन	-3337
▁दुरुपयोग	-3338
राष्ट्रीय	-3339
▁कहता	-3340
▁मानक	-3341
▁देकर	-3342
▁समार	-3343
दारों	-3344
▁आवा	-3345
▁आंत	-3346
▁धीरे	-3347
▁पंजाब	-3348
िक्	-3349
ुति	-3350
▁दब	-3351
▁प्रसार	-3352
▁नेटव	-3353
▁x	-3354
▁मोबाइल	-3355
शाला	-3356
▁U	-3357
▁देखभाल	-3358
▁रकम	-3359
ांतरण	-3360
ृंखला	-3361
शिया	-3362
▁पृष्ठभूमि	-3363
▁अभियोग	-3364
▁जुर्माना	-3365
▁संक्षेप	-3366
▁एजेंसी	-3367
▁जनरल	-3368
▁ऊंच	-3369
▁शत्र	-3370
▁उद्धृत	-3371
इयों	-3372
▁समारोह	-3373
▁रजिस्ट्रार	-3374
▁फे	-3375
ंत्रित	-3376
▁अधिकतम	-3377
▁दास	-3378
▁r	-3379
▁बढ	-3380
▁आशय	-3381
▁सकेगा	-3382
▁कार्यान	-3383
▁पद्धति	-3384
▁पॉ	-3385
▁संगी	-3386
▁प्रतिनिधि	-3387
AT	-3388
▁हद	-3389
▁अग्रिम	-3390
▁इरादे	-3391
त्री	-3392
ल्कुल	-3393
मक	-3394
ion	-3395
तया	-3396
▁घरे	-3397
▁नारा	-3398
▁निशान	-3399
जु	-3400
▁हाई	-3401
दृ	-3402
नो	-3403
▁चंद्र	-3404
▁चोटों	-3405
▁कार्यान्व	-3406
▁हजार	-3407
ोजक	-3408
▁बिल्कुल	-3409
▁कहने	-3410
▁परिच	-3411
▁ठे	-3412
▁बाई	-3413
जाम	-3414
▁खाद्य	-3415
▁प्रि	-3416
▁एचसी	-3417
ोषण	-3418
▁मनोरंजन	-3419
▁भंड	-3420
▁कमीशन	-3421
▁अनुप्र	-3422
▁घरेलू	-3423
▁संबद्ध	-3424
▁मीटर	-3425
▁अवधार	-3426
ट्ट	-3427
▁ताल	-3428
बाजी	-3429
▁कल्पना	-3430
▁केन्द्रीय	-3431
▁यूरो	-3432
▁शपथ	-3433
▁प्रभार	-3434
▁कम्प	-3435
चार्य	-3436
▁आमत	-3437
▁हासिल	-3438
▁वायु	-3439
ic	-3440
▁रहना	-3441
ूपी	-3442
▁आह	-3443
▁सरल	-3444
▁जिले	-3445
▁चूक	-3446
▁ब्रिट	-3447
▁आंदोलन	-3448
▁डाय	-3449
म्मू	-3450
▁शिक्षक	-3451
▁ट्रस्ट	-3452
▁काग	-3453
▁धोखाध	-3454
▁अक्ट	-3455
▁बनाना	-3456
▁जम्मू	-3457
▁परेश	-3458
▁आशा	-3459
कल्प	-3460
▁किरायेदार	-3461
▁आमतौर	-3462
▁दशा	-3463
▁सारे	-3464
▁असफल	-3465
▁अक्टूबर	-3466
▁कविता	-3467
मंडल	-3468
घ्र	-3469
▁संसाधन	-3470
▁किन	-3471
▁धोखाधड़ी	-3472
ल्ला	-3473
▁महिलाओं	-3474
स्वी	-3475
▁विशाल	-3476
जीव	-3477
▁सुश	-3478
▁खास	-3479
▁कठिना	-3480
▁टेली	-3481
▁सम्मिलित	-3482
▁प्रका	-3483
▁निर्वाचन	-3484
ड्डी	-3485
▁इतनी	-3486
तल	-3487
▁विधेय	-3488
व्यों	-3489
उट	-3490
ारण	-3491
ोग्राम	-3492
▁मिन	-3493
र्वा	-3494
ांकन	-3495
▁महत्त	-3496
सायिक	-3497
सु	-3498
१३	-3499
याँ	-3500
सर्स	-3501
▁अंड	-3502
▁साइ	-3503
▁संस्कृत	-3504
लिम	-3505
उन	-3506
ing	-3507
▁हृ	-3508
करार	-3509
▁छुट्टी	-3510
▁f	-3511
▁पाव	-3512
▁ब्रिटिश	-3513
▁सर्वेक्षण	-3514
▁अनुपस्थिति	-3515
▁अना	-3516
▁पटना	-3517
▁मौलिक	-3518
चीत	-3519
▁अध्या	-3520
▁गरी	-3521
▁बताए	-3522
देन	-3523
▁चा	-3524
▁प्रमाणपत्र	-3525
▁ट्रेड	-3526
▁टाइ	-3527
▁शाह	-3528
यम	-3529
▁उद्यम	-3530
▁आती	-3531
▁बुनिया	-3532
▁जब्ती	-3533
▁कराने	-3534
नु	-3535
▁कार्ड	-3536
▁प्रकाशन	-3537
▁आदमी	-3538
▁बातचीत	-3539
▁विधिवत	-3540
▁प्रविष्टि	-3541
▁स्वामित्व	-3542
▁डिजा	-3543
▁बकाया	-3544
▁गिरफ्तारी	-3545
रु	-3546
िकेट	-3547
▁दर्शाता	-3548
▁चिंत	-3549
▁संतोष	-3550
३०	-3551
▁ख़	-3552
▁विवादित	-3553
धर	-3554
▁उपक्रम	-3555
▁बरकरार	-3556
सों	-3557
▁किन्तु	-3558
▁अत्यंत	-3559
सभा	-3560
▁सभ	-3561
▁कठिन	-3562
▁चंद	-3563
▁आंक	-3564
▁मंच	-3565
शनल	-3566
▁अधिकृत	-3567
▁सील	-3568
▁पहुंचा	-3569
▁नेटवर्क	-3570
दित	-3571
▁तमिल	-3572
र्या	-3573
▁दंडनीय	-3574
▁खात	-3575
▁कमरे	-3576
▁चरित्र	-3577
▁उधार	-3578
▁जैन	-3579
▁औपचारिक	-3580
▁रोड	-3581
▁अनुशासनात्मक	-3582
▁सम्मे	-3583
▁सम्प	-3584
▁फ़ाइल	-3585
▁विजय	-3586
AL	-3587
▁घट	-3588
▁छोटा	-3589
▁ब्रह	-3590
▁लाप	-3591
▁एनआईसी	-3592
▁नती	-3593
▁पहुंचे	-3594
▁संस्कृति	-3595
नर	-3596
▁किराए	-3597
▁प्रणब	-3598
खे	-3599
▁कराया	-3600
▁घंटे	-3601
▁बदलाव	-3602
▁संज्ञान	-3603
▁ढां	-3604
▁गृह	-3605
देव	-3606
▁000	-3607
▁स्थानों	-3608
▁प्रसन्न	-3609
ायर	-3610
▁आपकी	-3611
▁हथियार	-3612
▁उत्पादों	-3613
▁कोश	-3614
▁नं	-3615
कल्पिक	-3616
▁अपराधी	-3617
▁नवंबर	-3618
▁इन्	-3619
▁व्यावसायिक	-3620
यू	-3621
ेंड	-3622
▁चले	-3623
▁लंबे	-3624
▁साइट	-3625
▁वैकल्पिक	-3626
लेक्ट	-3627
▁तेजी	-3628
▁पुराने	-3629
▁शुरुआत	-3630
▁साधन	-3631
▁कां	-3632
▁बनी	-3633
▁तह	-3634
कर्ताओं	-3635
▁विद्यार्थ	-3636
▁टिक	-3637
▁घु	-3638
म्बे	-3639
्राष्ट्रीय	-3640
▁समग्र	-3641
्रमण	-3642
्रेता	-3643
मूर्ति	-3644
▁खड़ा	-3645
▁संबोध	-3646
शाली	-3647
▁अधिकरण	-3648
▁बुलाया	-3649
▁चुना	-3650
▁घटनाओं	-3651
PC	-3652
ग्ध	-3653
पास	-3654
राज्य	-3655
▁संगीत	-3656
▁सॉ	-3657
वेयर	-3658
न्ना	-3659
क्षिप्त	-3660
▁मुस्लिम	-3661
▁श्रृंखला	-3662
▁खी	-3663
चलित	-3664
▁दर्शाया	-3665
▁आवश्यकताओं	-3666
▁मुश्	-3667
▁हिन्दी	-3668
ाकू	-3669
ंडी	-3670
▁प्रचार	-3671
▁विनियमन	-3672
▁गठित	-3673
भाष	-3674
▁संचालित	-3675
▁आदर्श	-3676
▁पूर्वा	-3677
▁अपवाद	-3678
▁उद्देश्यों	-3679
▁पीओ	-3680
▁बातों	-3681
नाम	-3682
▁मुंबई	-3683
▁आंध	-3684
▁बध	-3685
रिंग	-3686
स्टम	-3687
▁पाई	-3688
▁पहलुओं	-3689
▁स्वरूप	-3690
▁अदालतों	-3691
▁महाराष्ट्र	-3692
▁नेता	-3693
▁तरीका	-3694
न्य	-3695
▁गाय	-3696
▁बुनियादी	-3697
▁जोख	-3698
▁स्थिर	-3699
राम	-3700
▁डाला	-3701
▁बौ	-3702
un	-3703
ठा	-3704
▁हाउस	-3705
क्षणिक	-3706
▁निपटने	-3707
वो	-3708
▁बोझ	-3709
▁काउंस	-3710
▁विद्युत	-3711
शः	-3712
ोरी	-3713
▁इलेक्ट	-3714
डल	-3715
स्य	-3716
▁चै	-3717
▁अतः	-3718
▁स्टेट	-3719
▁अधी	-3720
▁विभागीय	-3721
▁प्राचीन	-3722
▁डिजाइन	-3723
▁कर्तव्यों	-3724
स्थापित	-3725
बाल	-3726
श्मीर	-3727
पूर्ति	-3728
▁सुनी	-3729
▁मनो	-3730
ैया	-3731
त्तर	-3732
▁गौ	-3733
ॉट	-3734
▁धारणा	-3735
▁शीघ्र	-3736
▁अकेले	-3737
्याग	-3738
▁शता	-3739
▁इलाज	-3740
▁काउंटर	-3741
▁पैसे	-3742
▁अवमान	-3743
िफ	-3744
▁विधेयक	-3745
▁हाथों	-3746
▁कोल	-3747
नल	-3748
ोसिए	-3749
▁मेल	-3750
नन	-3751
▁टुक	-3752
▁जोखिम	-3753
स्टे	-3754
▁लेनदेन	-3755
▁अन्	-3756
▁खुलती	-3757
▁केरल	-3758
▁दह	-3759
र्ते	-3760
▁निवार	-3761
▁समानता	-3762
लाइन	-3763
मानी	-3764
▁अनुप्रयोग	-3765
िमी	-3766
क्षिक	-3767
▁भागीदारी	-3768
ol	-3769
▁उपा	-3770
▁गलती	-3771
▁रिश्त	-3772
▁जाएंगे	-3773
▁मुश्किल	-3774
▁अभिलेख	-3775
▁संक्षिप्त	-3776
▁ऑन	-3777
ाजित	-3778
▁द्वार	-3779
▁जीवित	-3780
▁संपत्तियों	-3781
▁दिवस	-3782
▁आठ	-3783
▁परिक	-3784
▁तात्	-3785
▁विंडों	-3786
▁पहुंचने	-3787
▁हस्तांतरण	-3788
▁बला	-3789
▁अली	-3790
▁ड्राइ	-3791
खर	-3792
▁मकान	-3793
▁गुजर	-3794
▁अंतरराष्ट्रीय	-3795
▁b	-3796
▁महत्त्व	-3797
ेश्वर	-3798
▁शेय	-3799
▁वेतनमान	-3800
▁नाते	-3801
UD	-3802
▁सफ	-3803
क्सर	-3804
ya	-3805
▁नष्ट	-3806
▁आंध्र	-3807
ंशिक	-3808
▁हानि	-3809
▁बयानों	-3810
▁बश	-3811
▁बधाई	-3812
▁शैक्षणिक	-3813
काम	-3814
वें	-3815
ंपरा	-3816
ज्ञात	-3817
▁उपबंधों	-3818
▁यादव	-3819
oc	-3820
▁हैः	-3821
▁निरा	-3822
▁फ्ल	-3823
▁प्री	-3824
▁आवंटित	-3825
▁साक्षी	-3826
▁अट	-3827
▁आवास	-3828
▁क्लॉ	-3829
खाव	-3830
▁बढ़ावा	-3831
▁विधायिका	-3832
▁आंतरिक	-3833
▁सेवाएं	-3834
et	-3835
▁आमंत्रित	-3836
्यूट	-3837
ष्क	-3838
▁सेवानिवृत्ति	-3839
▁सदन	-3840
▁कमज	-3841
व्यवस्था	-3842
▁द्वितीय	-3843
धित	-3844
▁अनुलग्न	-3845
▁सीपीसी	-3846
त्न	-3847
▁अनुकूल	-3848
▁कृप	-3849
▁इंजीनिय	-3850
▁संबोधित	-3851
▁प्राथमिकी	-3852
▁इन्ह	-3853
▁अवधारणा	-3854
▁विरोधा	-3855
्यक	-3856
जह	-3857
▁इजरा	-3858
▁ठेके	-3859
िड	-3860
▁सम्मेलन	-3861
्वा	-3862
र्देश	-3863
▁लेता	-3864
▁सुश्री	-3865
▁बहन	-3866
▁लेखक	-3867
▁पश्चिमी	-3868
▁जटिल	-3869
▁गुना	-3870
▁परंपरा	-3871
ौल	-3872
लांग	-3873
▁समन्व	-3874
▁प्राण	-3875
टम	-3876
िग	-3877
▁निर्भरता	-3878
▁बैंकों	-3879
स्पे	-3880
▁निलंब	-3881
▁जनजा	-3882
▁एसोसिए	-3883
▁फी	-3884
▁संविदा	-3885
▁रिया	-3886
▁दर्शन	-3887
▁कॉर्	-3888
▁अयोग	-3889
▁पर्व	-3890
▁चिंता	-3891
▁मिस	-3892
▁अंततः	-3893
ाये	-3894
▁डाक	-3895
▁आयकर	-3896
्वे	-3897
▁तथापि	-3898
ंत्रिक	-3899
▁राव	-3900
▁बनने	-3901
▁जय	-3902
▁जाया	-3903
▁प्रत्या	-3904
ानु	-3905
▁प्रसि	-3906
▁सुनाई	-3907
▁बशर्ते	-3908
▁कलक	-3909
विधि	-3910
स्ते	-3911
▁संतुल	-3912
▁घाव	-3913
▁क्रमशः	-3914
▁अर्थव्यवस्था	-3915
▁आख	-3916
▁स्थगित	-3917
▁करार	-3918
बत	-3919
▁जोड़ा	-3920
रखाव	-3921
भास	-3922
▁रखरखाव	-3923
श्चय	-3924
▁देखें	-3925
▁स्ना	-3926
▁टिप्पणियों	-3927
▁विनिर्दिष्ट	-3928
▁नये	-3929
्वेषण	-3930
▁समृ	-3931
▁क्रूर	-3932
▁आर्	-3933
▁घा	-3934
▁चुकी	-3935
▁तत्प	-3936
▁आसपास	-3937
▁ग्रहण	-3938
▁अनुलग्नक	-3939
रन	-3940
▁खंडन	-3941
णु	-3942
▁आश्व	-3943
▁समित	-3944
िकाओं	-3945
▁संभावित	-3946
▁गहरा	-3947
▁उन्	-3948
▁गुरु	-3949
▁मिलती	-3950
▁दृढ़	-3951
▁बाधा	-3952
▁डिग्री	-3953
▁हिन्दू	-3954
बूझ	-3955
मार्ग	-3956
▁कपड़े	-3957
▁तत्पश्चा	-3958
▁दैनिक	-3959
▁आरक्षण	-3960
व्र	-3961
प्पा	-3962
▁जिनका	-3963
मीटर	-3964
▁कृपया	-3965
कला	-3966
ख्त	-3967
▁असाधारण	-3968
ांग	-3969
शे	-3970
म्स	-3971
▁राजन	-3972
ब्दी	-3973
कत	-3974
करी	-3975
▁जानता	-3976
▁सुंदर	-3977
▁पहा	-3978
िकरण	-3979
▁हृदय	-3980
▁शिक्षकों	-3981
थित	-3982
▁पक्षकारों	-3983
▁समाव	-3984
▁एशिया	-3985
चित्र	-3986
▁आंशिक	-3987
▁मस	-3988
▁गुप्ता	-3989
▁धम	-3990
▁शराब	-3991
▁पूर्ववर्ती	-3992
दरा	-3993
▁मल	-3994
▁युक्त	-3995
el	-3996
▁तस्वी	-3997
▁सुविधाओं	-3998
माग	-3999
▁Ch	-4000
▁एपी	-4001
▁भाषण	-4002
दिग्ध	-4003
▁ग्रेड	-4004
▁सूक्ष	-4005
▁खींच	-4006
▁शुभ	-4007
म्मद	-4008
▁इच्छुक	-4009
▁प्रयुक्त	-4010
ॉन	-4011
▁जल्द	-4012
ोप	-4013
्रोल	-4014
▁कोय	-4015
▁लापर	-4016
▁विफलता	-4017
▁वाता	-4018
▁प्रयासों	-4019
▁संस्थाओं	-4020
▁करीब	-4021
▁उल	-4022
▁नैतिक	-4023
▁अपमान	-4024
▁एक्सट	-4025
▁न्यायमूर्ति	-4026
▁आरक्षित	-4027
▁कथा	-4028
▁गोली	-4029
▁मिलकर	-4030
स्मिक	-4031
▁समर्	-4032
▁संदिग्ध	-4033
▁वजह	-4034
▁रजिस्टर	-4035
▁स्वीकृत	-4036
▁अधिसूचित	-4037
▁विद्यमान	-4038
▁तथ्यात्मक	-4039
ानों	-4040
▁नाटक	-4041
▁ईसा	-4042
▁पूछा	-4043
उंड	-4044
▁कक्षा	-4045
भाविक	-4046
▁टा	-4047
शय	-4048
▁जानबूझ	-4049
▁आकस्मिक	-4050
टेल	-4051
▁विद्यालय	-4052
▁खंडपीठ	-4053
▁अपनाया	-4054
▁अक्सर	-4055
▁यूपी	-4056
▁आवंटन	-4057
शीट	-4058
्रय	-4059
▁कब	-4060
ताव	-4061
▁टन	-4062
▁निर्मा	-4063
▁बलात्कार	-4064
▁शैक्षिक	-4065
▁चोटें	-4066
▁बढ़ाया	-4067
▁साफ	-4068
▁बनाता	-4069
▁सेवानिवृत्त	-4070
ड़न	-4071
▁विशेषता	-4072
▁आपका	-4073
▁विषयों	-4074
बीआई	-4075
कालीन	-4076
कृष्ट	-4077
▁उपयोगी	-4078
▁साक्ष्यों	-4079
▁असर	-4080
▁फीस	-4081
▁अनुमोदित	-4082
ार्म	-4083
▁ज्ञात	-4084
▁पैमाने	-4085
धारी	-4086
▁सिस्टम	-4087
▁नागरिकों	-4088
ill	-4089
▁बताता	-4090
▁ट्रांस	-4091
ामा	-4092
▁मक	-4093
सील	-4094
▁Ext	-4095
ियान	-4096
▁बदले	-4097
▁वीडियो	-4098
▁आँ	-4099
▁भु	-4100
▁हिंदी	-4101
▁इत्या	-4102
▁गर्इ	-4103
▁समुद्र	-4104
रान	-4105
▁दिमाग	-4106
▁दवा	-4107
▁समस्याओं	-4108
▁आब	-4109
▁अस्थ	-4110
▁गौर	-4111
▁वीं	-4112
▁बढ़ने	-4113
▁विमान	-4114
▁m	-4115
ENT	-4116
▁वातावरण	-4117
फ़ॉ	-4118
▁तार	-4119
▁रेखा	-4120
▁भागों	-4121
▁सांस्	-4122
▁नामक	-4123
१४	-4124
▁n	-4125
age	-4126
▁बहा	-4127
▁ड्यू	-4128
▁पाकि	-4129
▁रुपए	-4130
▁कलकत्ता	-4131
टो	-4132
▁तल	-4133
▁अनुवाद	-4134
▁अंतर्राष्ट्रीय	-4135
दीद	-4136
ॉर्ट	-4137
▁कार्	-4138
▁दीवार	-4139
▁जहा	-4140
निष्ठ	-4141
▁अस्पष्ट	-4142
▁मुआवज़ा	-4143
▁विकलांग	-4144
om	-4145
र्डर	-4146
▁धारण	-4147
▁कश्मीर	-4148
ड्ड	-4149
्रित	-4150
▁चश्म	-4151
▁हितों	-4152
▁अवमानना	-4153
▁शैली	-4154
▁बौद्ध	-4155
▁अरब	-4156
▁दबा	-4157
▁समाय	-4158
▁जिनकी	-4159
▁नारायण	-4160
GM	-4161
ाचार	-4162
▁चश्मदीद	-4163
▁प्रच	-4164
▁खातों	-4165
ाइन	-4166
र्गी	-4167
▁हरि	-4168
▁हलफनामा	-4169
▁प्रोत्साहन	-4170
▁आंख	-4171
▁तट	-4172
▁शिक्षण	-4173
▁जानबूझकर	-4174
▁त्याग	-4175
▁धारक	-4176
▁नामित	-4177
▁वरिष्ठता	-4178
▁उपभोक्ता	-4179
दिक	-4180
▁पैर	-4181
▁अभिन	-4182
वेट	-4183
पों	-4184
▁सुख	-4185
▁कारक	-4186
▁मिट्टी	-4187
▁छि	-4188
▁बुद्धि	-4189
▁शताब्दी	-4190
र्धन	-4191
▁प्रतिबद्ध	-4192
▁वेद	-4193
▁गंगा	-4194
▁सारा	-4195
ॉप	-4196
ज्य	-4197
▁दबाव	-4198
कल	-4199
▁दूसरों	-4200
▁सूक्ष्म	-4201
▁देखना	-4202
▁वापसी	-4203
▁परिवर्तित	-4204
▁तमिलना	-4205
us	-4206
▁बाग	-4207
▁विधायी	-4208
▁यौ	-4209
▁विस	-4210
▁सें	-4211
ागत	-4212
▁भ्रष्ट	-4213
▁वसीयतनामा	-4214
▁सांस्कृतिक	-4215
श्विक	-4216
▁फॉर्म	-4217
▁डर	-4218
▁प्ले	-4219
▁कानूनों	-4220
▁प्रस्तुति	-4221
सीसी	-4222
▁विवादों	-4223
▁महाम	-4224
▁बदलने	-4225
▁स्टैंड	-4226
▁रहेगा	-4227
बन	-4228
▁वारंट	-4229
ोबार	-4230
▁द्र	-4231
मिशन	-4232
ख़	-4233
्मी	-4234
▁पूजा	-4235
▁अर्जित	-4236
▁कुशल	-4237
▁कमजोर	-4238
▁शेयरों	-4239
▁प्रसिद्ध	-4240
वाले	-4241
▁दहेज	-4242
▁स्कूलों	-4243
▁पट्टे	-4244
han	-4245
कुल	-4246
▁बताते	-4247
▁प्रबंधक	-4248
▁पत्रों	-4249
▁लौट	-4250
▁अनुसरण	-4251
▁ऑप	-4252
▁लाइन	-4253
▁प्रवर्तन	-4254
▁गैस	-4255
▁रोगी	-4256
▁उपन्यास	-4257
▁JUD	-4258
▁किलो	-4259
▁इलेक्ट्र	-4260
्यापी	-4261
▁प्रत	-4262
ायी	-4263
थर	-4264
्वान	-4265
▁जल्दी	-4266
▁विरोधी	-4267
निंग	-4268
▁संबंधों	-4269
▁फूल	-4270
▁मंड	-4271
▁आलोक	-4272
▁बताने	-4273
▁भेजे	-4274
ॉर्	-4275
umar	-4276
▁क्लॉज	-4277
▁चार्जशीट	-4278
▁अवस	-4279
▁वर्गों	-4280
▁चिकित्स	-4281
▁प्रभारी	-4282
दास	-4283
▁प्रदू	-4284
▁’	-4285
सीन	-4286
▁नियत	-4287
थी	-4288
ियमित	-4289
hi	-4290
▁तत्पश्चात	-4291
च्छिक	-4292
थे	-4293
▁फसल	-4294
श्वास	-4295
▁अंध	-4296
▁इजरायल	-4297
ai	-4298
▁संगठ	-4299
▁स्थानांतरण	-4300
▁तहसील	-4301
▁कॉर्पो	-4302
▁ब्लॉक	-4303
▁क्रेड	-4304
▁इत्यादि	-4305
▁रुचि	-4306
▁भेदभाव	-4307
▁जिम्मेदारी	-4308
▁विवे	-4309
▁प्ला	-4310
▁श्रमिक	-4311
▁कार्यवाह	-4312
शास्त्र	-4313
▁खराब	-4314
प्रिय	-4315
ताब	-4316
▁परेशान	-4317
िने	-4318
▁अनियमित	-4319
▁प्रधानमंत्री	-4320
▁g	-4321
▁अधीनस्थ	-4322
्मण	-4323
▁लापरवाही	-4324
्यव	-4325
ित्त	-4326
▁टीम	-4327
▁इतने	-4328
▁अन्तर्	-4329
▁आपने	-4330
▁रजिस्ट्री	-4331
▁HC	-4332
GMENT	-4333
▁लक्षण	-4334
▁अमेरिक	-4335
▁JUDGMENT	-4336
▁तमिलनाडु	-4337
▁एडवो	-4338
प्ल	-4339
िस्त	-4340
▁अतिक	-4341
ec	-4342
ढ़ी	-4343
▁आउट	-4344
▁नवी	-4345
▁मजबूर	-4346
इड	-4347
▁गुणों	-4348
▁लगाना	-4349
ंतिम	-4350
▁जोड़ने	-4351
▁इमार	-4352
▁पथ	-4353
▁तिर	-4354
▁आईटी	-4355
▁छत्त	-4356
▁ग्राहक	-4357
ॉय	-4358
▁किश	-4359
▁पहुँच	-4360
▁स्वाभाविक	-4361
▁ठेकेदार	-4362
▁कार्यान्वयन	-4363
रू	-4364
▁ग्रे	-4365
▁बाकी	-4366
▁दिये	-4367
क्ताओं	-4368
▁जैव	-4369
मान्य	-4370
▁गर्म	-4371
▁राज्यपाल	-4372
▁अनंतिम	-4373
▁काव्य	-4374
ज़र	-4375
लाल	-4376
फर	-4377
पान	-4378
टेन	-4379
िनी	-4380
▁पावर	-4381
▁चक्र	-4382
▁स्की	-4383
▁खुले	-4384
▁अर्ध	-4385
▁देयता	-4386
िन्	-4387
ेह	-4388
▁पेटेंट	-4389
िस्ट	-4390
▁क्रेडिट	-4391
▁सेवक	-4392
▁मिनट	-4393
▁Kumar	-4394
▁अवकाश	-4395
▁शहरी	-4396
▁प्रचलित	-4397
▁रै	-4398
▁मधु	-4399
▁Rs	-4400
संख	-4401
▁नवान	-4402
▁लोकतंत्र	-4403
ज़ी	-4404
▁इन्हें	-4405
▁गतिविधि	-4406
त्तम	-4407
▁अब्द	-4408
▁किराया	-4409
▁पूर्वी	-4410
▁प्या	-4411
▁बीमारी	-4412
▁सारी	-4413
▁आसानी	-4414
▁समझने	-4415
▁परिपत्र	-4416
▁कार्यकाल	-4417
स्पर्	-4418
ियत	-4419
▁मांगी	-4420
▁ठोस	-4421
▁सेल	-4422
▁खड़े	-4423
स्तिष्क	-4424
▁गणराज्य	-4425
▁सत्यापन	-4426
▁आवाज	-4427
▁प्रजा	-4428
▁कने	-4429
▁आह्वान	-4430
▁नीलामी	-4431
चित्य	-4432
भावना	-4433
▁सशक्त	-4434
▁इंस्पे	-4435
ैट	-4436
▁एडवोकेट	-4437
ूंगा	-4438
वित्र	-4439
▁निरोध	-4440
दर्शन	-4441
▁साम्रा	-4442
▁पाकिस्तान	-4443
▁अचान	-4444
▁प्रश्नों	-4445
ुण	-4446
▁विम	-4447
▁फाय	-4448
ूस	-4449
क्य	-4450
बो	-4451
दोष	-4452
▁वस	-4453
हारिक	-4454
▁अचानक	-4455
यान	-4456
▁ठाक	-4457
▁फंसा	-4458
र्घ	-4459
▁हवा	-4460
▁खुशी	-4461
▁प्राइवेट	-4462
स्टेबल	-4463
▁सहारा	-4464
▁रास्ते	-4465
▁बू	-4466
▁स्वै	-4467
▁मुसलमानों	-4468
▁डिफ़ॉ	-4469
▁पृथ्वी	-4470
▁गईं	-4471
▁अभियोजक	-4472
▁काउंसिल	-4473
▁डिफ़ॉल्ट	-4474
▁सूचीबद्ध	-4475
ेंज	-4476
▁Cr	-4477
रेशन	-4478
▁वर्मा	-4479
▁जाएं	-4480
▁बेचने	-4481
▁चारों	-4482
▁संतुष्टि	-4483
RA	-4484
डेंसी	-4485
▁आतंकवाद	-4486
▁सरकारों	-4487
▁आश्च	-4488
▁e	-4489
▁लें	-4490
▁संसाधनों	-4491
▁लंबी	-4492
▁भय	-4493
िनल	-4494
शिष्ट	-4495
▁तीव्र	-4496
▁प्रवाह	-4497
II	-4498
▁शो	-4499
आईटी	-4500
▁दिश	-4501
▁बीज	-4502
▁वीर	-4503
▁खेती	-4504
▁ऑर्डर	-4505
▁ड्यूटी	-4506
▁इनके	-4507
▁सुभाष	-4508
हे	-4509
▁छत्तीस	-4510
▁दृष्टया	-4511
▁नग	-4512
▁आश्चर्य	-4513
▁अक्षम	-4514
▁सर्वा	-4515
▁आये	-4516
▁शिकार	-4517
▁कठिनाई	-4518
▁दोहराया	-4519
▁अफ्री	-4520
▁इंस्पेक्टर	-4521
▁मेमो	-4522
▁भेजने	-4523
▁गुप्त	-4524
▁प्रोग्राम	-4525
▁आयोजन	-4526
▁अधिकारिता	-4527
▁बचने	-4528
दों	-4529
माना	-4530
▁झग	-4531
esid	-4532
हत्या	-4533
▁हिंसा	-4534
▁आक्रमण	-4535
▁जाह	-4536
▁दावों	-4537
▁प्रायः	-4538
▁तत्कालीन	-4539
▁पात्रता	-4540
मर	-4541
▁प्रेष	-4542
ाब	-4543
▁काट	-4544
▁फें	-4545
▁खत्म	-4546
▁चीज़	-4547
▁निकालने	-4548
▁सम्मानित	-4549
▁जाल	-4550
▁कुंजी	-4551
क्षेत्र	-4552
म्मत	-4553
▁ज्यो	-4554
▁मैदान	-4555
▁तात्कालिक	-4556
ूब	-4557
सिंह	-4558
▁अमरी	-4559
▁कौशल	-4560
▁मानने	-4561
खन	-4562
▁बीमार	-4563
▁क्रूरता	-4564
▁विभाजित	-4565
ड़ीसा	-4566
▁शर्तें	-4567
▁शंकर	-4568
त्मिक	-4569
जीत	-4570
▁फा	-4571
▁आरोपित	-4572
▁शत्रुता	-4573
▁अतिक्रमण	-4574
ंडा	-4575
▁उठता	-4576
▁निरीक्षक	-4577
स्थल	-4578
▁अंतरण	-4579
▁उत्पी	-4580
▁सुनने	-4581
ेंडर	-4582
▁असंगत	-4583
डि	-4584
जीवन	-4585
▁औचित्य	-4586
▁मजदूरी	-4587
▁फोट	-4588
▁विचारण	-4589
▁परम	-4590
▁एसोसिएशन	-4591
▁लेखों	-4592
▁पूर्वाग्रह	-4593
नाएं	-4594
स्पर	-4595
्रीन	-4596
मार्टम	-4597
▁सतर्क	-4598
▁मीडिया	-4599
▁तुम्हें	-4600
लिया	-4601
▁छत्तीसगढ़	-4602
▁प्रतिस्पर्	-4603
▁मस्तिष्क	-4604
▁क्व	-4605
ुस्तान	-4606
▁टिप्प	-4607
तिहासिक	-4608
▁वर्गीकरण	-4609
जतन	-4610
▁दिला	-4611
▁दर्श	-4612
▁रसी	-4613
▁नतीजतन	-4614
▁पुनरी	-4615
▁पोस्टमार्टम	-4616
लेट	-4617
▁सकारात्मक	-4618
esident	-4619
▁आत्महत्या	-4620
▁अशोक	-4621
▁आध्या	-4622
▁चेतना	-4623
त्ते	-4624
▁संगठनों	-4625
ाइड	-4626
जात	-4627
▁देंगे	-4628
▁उत्कृष्ट	-4629
▁यूनिट	-4630
▁विरोधाभास	-4631
▁नवीन	-4632
▁दिशानि	-4633
▁टिप्पणी	-4634
▁IA	-4635
▁दूध	-4636
▁आसान	-4637
▁स्वच्छ	-4638
▁भरने	-4639
ूली	-4640
▁उड़ीसा	-4641
▁दिशानिर्देश	-4642
ंभव	-4643
▁उद्योगों	-4644
▁तोड़	-4645
▁चेन्न	-4646
▁नेहर	-4647
▁प्रशंसा	-4648
▁रस	-4649
▁अहमद	-4650
▁शुभकाम	-4651
कश	-4652
▁देर	-4653
▁ट्रै	-4654
▁परियोजनाओं	-4655
▁किसानों	-4656
▁बताओ	-4657
▁स्मृति	-4658
▁कार्यक्रमों	-4659
ड़ियों	-4660
▁शासित	-4661
▁ड्र	-4662
▁माइ	-4663
ंपा	-4664
▁वार्	-4665
▁प्रसन्नता	-4666
▁क्	-4667
▁Pra	-4668
दाताओं	-4669
▁चेहरे	-4670
▁पवित्र	-4671
दराबाद	-4672
▁लगाई	-4673
▁मिशन	-4674
ीप	-4675
▁रण	-4676
▁सुलझ	-4677
▁स्वागत	-4678
▁सख्त	-4679
▁सबमिशन	-4680
▁प्रदत्त	-4681
▁पल	-4682
्रण	-4683
▁हैदराबाद	-4684
▁व्यावहारिक	-4685
िष्	-4686
▁प्रविष्ट	-4687
▁NIC	-4688
दर्शी	-4689
▁खोलने	-4690
▁अयोग्य	-4691
▁नकारात्मक	-4692
▁लड़की	-4693
▁सुसंगत	-4694
▁सामग्र	-4695
▁गोल	-4696
पेक्ष	-4697
▁उपायों	-4698
▁परस्पर	-4699
ड़ाई	-4700
▁फिट	-4701
▁नमूना	-4702
▁सैनिक	-4703
▁धमकी	-4704
▁कारबार	-4705
▁बुरा	-4706
▁हिम	-4707
▁समस्त	-4708
▁शक्तियां	-4709
▁यथ	-4710
▁देखे	-4711
तृ	-4712
▁संकट	-4713
▁सन	-4714
▁निवारण	-4715
▁वादपत्र	-4716
▁प्रतियोग	-4717
▁सीट	-4718
धरी	-4719
▁लु	-4720
बु	-4721
▁आलो	-4722
▁करवा	-4723
ेंद	-4724
▁लाभों	-4725
▁निपटाया	-4726
▁रव	-4727
▁सूर्य	-4728
▁विल	-4729
▁मौसम	-4730
▁राजस्थान	-4731
िकेशन	-4732
▁बनता	-4733
▁संप्र	-4734
गाह	-4735
▁कायम	-4736
▁चैन	-4737
क़्त	-4738
फ्टवेयर	-4739
▁अधीक्षक	-4740
ंदन	-4741
▁तलाश	-4742
▁उन्नत	-4743
क्षी	-4744
▁भूल	-4745
▁चाकू	-4746
▁ज्योति	-4747
▁प्रथा	-4748
क्का	-4749
▁काले	-4750
▁अभियंता	-4751
▁पक्षकार	-4752
▁आध्यात्मिक	-4753
▁उत्तराधिकार	-4754
▁महत्त्वपूर्ण	-4755
▁पर्यवे	-4756
▁राजनैतिक	-4757
▁दीर्घ	-4758
▁प्रतीक	-4759
ज़ि	-4760
▁SCA	-4761
तीत	-4762
▁डो	-4763
पत	-4764
ंदी	-4765
▁ऐतिहासिक	-4766
▁विनियमों	-4767
hat	-4768
▁सब्	-4769
ंकिंग	-4770
▁संगण	-4771
IN	-4772
फोन	-4773
▁सिल	-4774
▁विधिक	-4775
▁औष	-4776
▁अपीलों	-4777
▁कारोबार	-4778
▁प्रतिद्व	-4779
दियों	-4780
▁अगली	-4781
▁रिहा	-4782
▁विशेषकर	-4783
▁गर्भ	-4784
▁उत्पादित	-4785
ेन	-4786
▁भरा	-4787
▁खतरा	-4788
illage	-4789
▁यूरोप	-4790
वाली	-4791
▁अनुभाग	-4792
▁जायेगा	-4793
▁iii	-4794
▁सामग्रियों	-4795
शीलता	-4796
▁होटल	-4797
▁लिखने	-4798
▁पैके	-4799
▁हवाई	-4800
ात्मक	-4801
▁जनसं	-4802
क्रिय	-4803
बाज	-4804
▁संरक्षक	-4805
▁अल्	-4806
▁विद्यार्थियों	-4807
लम	-4808
परी	-4809
▁अपर	-4810
▁वां	-4811
▁बाबू	-4812
▁आवेदकों	-4813
▁समितियों	-4814
▁संतुलन	-4815
▁छाप	-4816
▁नाथ	-4817
▁जुड़ा	-4818
▁दाह	-4819
▁बेह	-4820
▁अनुकंपा	-4821
▁फिल्म	-4822
▁बचाने	-4823
▁रिश्तेदार	-4824
▁लेखन	-4825
▁समन्वय	-4826
▁शुभकामनाएं	-4827
▁कॉपी	-4828
▁किशोर	-4829
▁रम	-4830
▁लक	-4831
णि	-4832
नाश	-4833
▁in	-4834
स्ट्र	-4835
▁विमर्श	-4836
वीर	-4837
▁आइ	-4838
▁लाइ	-4839
▁गरीब	-4840
▁दरवाजा	-4841
▁दिनांकित	-4842
▁प्रोत्साहित	-4843
▁स्त्री	-4844
भोग	-4845
वां	-4846
▁प्राधिकार	-4847
▁अमेरिकी	-4848
▁पेशे	-4849
▁अभियान	-4850
▁धु	-4851
▁टू	-4852
▁रिक्तियों	-4853
ेर	-4854
▁अपरि	-4855
▁मोहन	-4856
लर	-4857
▁अवश	-4858
▁तस्वीर	-4859
▁प्रोफे	-4860
द्दीन	-4861
▁निरस्त	-4862
हिम	-4863
▁चौधरी	-4864
▁कांस्टेबल	-4865
▁चीन	-4866
▁विरू	-4867
भाग्य	-4868
▁उनको	-4869
▁पिछली	-4870
▁गव	-4871
▁लोकप्रिय	-4872
▁संयंत्र	-4873
▁अवश्य	-4874
▁फोर	-4875
▁किस्	-4876
▁प्रारूप	-4877
▁कंट	-4878
▁गोद	-4879
▁कक्ष	-4880
▁तीनों	-4881
▁विश्वविद्यालयों	-4882
िक्स	-4883
▁सेंट	-4884
▁तीसरी	-4885
▁उभर	-4886
▁डील	-4887
पुट	-4888
▁उत्पीड़न	-4889
खास्त	-4890
▁चलने	-4891
▁उदार	-4892
▁सूत्र	-4893
▁साक्षा	-4894
▁आवासी	-4895
▁ब्रह्म	-4896
▁नेहरू	-4897
१५	-4898
ारों	-4899
▁बाध्यकारी	-4900
▁नो	-4901
▁निगर	-4902
▁श्रेणीः	-4903
पीट	-4904
च्छा	-4905
▁ऑफिस	-4906
ग्रहित	-4907
▁मरने	-4908
le	-4909
▁घात	-4910
▁राजी	-4911
▁साजि	-4912
▁निगरानी	-4913
ड्य	-4914
▁हार्	-4915
साइटी	-4916
▁खतरे	-4917
▁पेपर	-4918
▁प्रतिबंधित	-4919
▁पहुँ	-4920
▁विसंग	-4921
गण	-4922
▁चढ़	-4923
▁रीति	-4924
▁सौंपा	-4925
नाक	-4926
▁लिखी	-4927
▁पुनर्वि	-4928
घात	-4929
▁मेसर्स	-4930
▁सोसाइटी	-4931
▁विधानमंडल	-4932
▁प्रतिद्वंद	-4933
AM	-4934
▁बाबत	-4935
▁पेड़	-4936
▁योजनाओं	-4937
▁वंश	-4938
▁नौकरी	-4939
▁वैश्विक	-4940
▁यो	-4941
▁पशु	-4942
▁मोहम्मद	-4943
▁आफ	-4944
▁बातें	-4945
सीय	-4946
▁रवी	-4947
▁रसीद	-4948
▁मछ	-4949
▁मगर	-4950
▁प्रेस	-4951
▁हवाला	-4952
ation	-4953
▁सीधी	-4954
▁विलंब	-4955
▁मारपीट	-4956
ावली	-4957
कुमार	-4958
▁सीमाओं	-4959
▁वैसे	-4960
▁नामांकन	-4961
▁एकता	-4962
▁आनन्द	-4963
▁पेंडेंसी	-4964
▁लिखे	-4965
▁ठाकुर	-4966
▁शोध	-4967
▁होम	-4968
▁अत	-4969
▁चलाया	-4970
▁छोड़ने	-4971
▁कृत्य	-4972
▁निभा	-4973
▁वहीं	-4974
▁मांस	-4975
▁भूखंड	-4976
▁एजेंट	-4977
▁पोर्ट	-4978
स्फ	-4979
▁दशक	-4980
▁राजेश	-4981
▁मान्य	-4982
▁वजन	-4983
कृष्ण	-4984
▁चलते	-4985
▁संसदीय	-4986
▁घटा	-4987
ाले	-4988
▁जाकर	-4989
▁वक्त	-4990
▁स्वैच्छिक	-4991
▁Bi	-4992
▁शह	-4993
▁जाहिर	-4994
▁मानना	-4995
▁पुनरीक्षण	-4996
▁DW	-4997
▁बहुमत	-4998
वत	-4999
▁देखकर	-5000
▁किनारे	-5001
▁बर्खास्त	-5002
▁वर	-5003
दायिक	-5004
▁तीसरा	-5005
▁सोने	-5006
ैव	-5007
▁पत्थर	-5008
▁चालक	-5009
▁साजिश	-5010
▁खतर	-5011
णिक	-5012
▁अनदे	-5013
▁सृजन	-5014
▁थोड़ा	-5015
▁छत	-5016
ूहिक	-5017
▁सिरे	-5018
▁अभिप्रे	-5019
▁क्षतिपूर्ति	-5020
ादा	-5021
▁हालत	-5022
▁हल्	-5023
▁बताई	-5024
▁कृत्यों	-5025
▁जर्म	-5026
▁सामूहिक	-5027
द्रास	-5028
हता	-5029
▁अल्पसंख	-5030
IL	-5031
▁बॉम्बे	-5032
पहर	-5033
▁कदा	-5034
▁कूट	-5035
▁तैना	-5036
▁राजमार्ग	-5037
▁संसार	-5038
▁महामहिम	-5039
▁कव	-5040
▁लीज	-5041
▁रखें	-5042
▁स्कीम	-5043
▁समुचित	-5044
▁प्रेरण	-5045
ul	-5046
▁चयनित	-5047
▁उड़	-5048
▁दौरा	-5049
▁विहित	-5050
▁जितना	-5051
कानूनी	-5052
र्गीय	-5053
वाहिक	-5054
▁स्टा	-5055
▁कारकों	-5056
भि	-5057
▁मुह	-5058
▁खाना	-5059
▁दिलच	-5060
▁पटेल	-5061
▁मद्रास	-5062
▁राजपत्र	-5063
▁दर्द	-5064
▁मानता	-5065
▁सोसाय	-5066
▁अन्याय	-5067
मिट	-5068
▁गैरकानूनी	-5069
णन	-5070
▁जला	-5071
▁रास्ता	-5072
▁विक्रेता	-5073
▁साम्राज्य	-5074
▁निर्दोष	-5075
ल्डर	-5076
ादेश	-5077
▁कच्च	-5078
▁चीजों	-5079
▁विरूद्ध	-5080
▁ज़र	-5081
▁पीड़िता	-5082
▁एकड़	-5083
▁मिटा	-5084
▁ध्वनि	-5085
▁ऑनलाइन	-5086
▁पश्चात	-5087
▁मानवीय	-5088
▁आवासीय	-5089
▁मूल्यों	-5090
▁घटक	-5091
▁श्रेण	-5092
ीकृत	-5093
▁भंग	-5094
ोने	-5095
▁इंद	-5096
▁टेस्ट	-5097
ंकर	-5098
गोल	-5099
डिंग	-5100
▁दया	-5101
▁दक्ष	-5102
▁जानने	-5103
▁सीबीआई	-5104
▁प्रतिष्ठा	-5105
▁III	-5106
▁अक्ष	-5107
▁अत्या	-5108
▁पेशकश	-5109
▁कू	-5110
▁झूठे	-5111
▁विधियों	-5112
▁इकट्	-5113
▁डब्ल्यू	-5114
ॉँ	-5115
केश	-5116
▁कराई	-5117
खों	-5118
▁ढांचे	-5119
▁स्वर	-5120
ho	-5121
बालिग	-5122
▁दोपहर	-5123
धों	-5124
▁चुने	-5125
▁मकसद	-5126
▁खण्ड	-5127
▁सेमी	-5128
ज़िबिट	-5129
▁नाबालिग	-5130
▁साक्षात्कार	-5131
▁मिश्रा	-5132
▁इमारत	-5133
▁ट्रे	-5134
▁प्रयोगशाला	-5135
▁न्यायपालिका	-5136
▁खरीदने	-5137
क्क	-5138
▁अय	-5139
बन्धी	-5140
▁शत्रुतापूर्ण	-5141
निर्	-5142
▁सोसायटी	-5143
▁प्रयत्न	-5144
▁अवैधता	-5145
तावनी	-5146
▁डिस्क	-5147
▁मुकदमेबाजी	-5148
▁नमूने	-5149
▁खुश	-5150
ांकित	-5151
▁उत्तरी	-5152
▁पूर्ति	-5153
▁शिश	-5154
▁दलों	-5155
िरा	-5156
▁पुरानी	-5157
▁पाँच	-5158
▁दुर्बल	-5159
▁चेतावनी	-5160
▁आपत्तियों	-5161
▁विभागों	-5162
▁प्रवृत्ति	-5163
म्मा	-5164
▁नाट	-5165
▁विकृत	-5166
▁अफ्रीका	-5167
▁ताप	-5168
▁आकाश	-5169
न्ड	-5170
▁राजनीति	-5171
▁स्थितियों	-5172
▁चू	-5173
▁श्रेष्ठ	-5174
▁धर	-5175
▁प्रोफेसर	-5176
▁पंड	-5177
▁पांडे	-5178
▁पत	-5179
▁दलीलों	-5180
सायनिक	-5181
क्सी	-5182
▁खि	-5183
दिन	-5184
▁आधारों	-5185
▁प्राधिकृत	-5186
▁अचल	-5187
साद	-5188
ेजी	-5189
▁संपाद	-5190
▁सत्यापित	-5191
▁एक्ज़िबिट	-5192
▁बुक	-5193
दु	-5194
▁जंग	-5195
▁यंत्र	-5196
▁मुद्र	-5197
यें	-5198
▁बहस	-5199
▁अस्वीकृति	-5200
▁देखी	-5201
▁आरम्भ	-5202
▁रिटर्न	-5203
पीय	-5204
▁कं	-5205
▁करो	-5206
▁चेन्नई	-5207
▁समापन	-5208
▁इकाइयों	-5209
लिपि	-5210
▁आवेदनों	-5211
▁नगरपालिका	-5212
ोद	-5213
▁तकनीक	-5214
▁मानकों	-5215
▁कार्यरत	-5216
▁पक्षपात	-5217
▁जता	-5218
▁निः	-5219
ir	-5220
▁मासिक	-5221
▁खाने	-5222
▁व्याया	-5223
▁घातक	-5224
▁मानदंडों	-5225
▁प्रतिद्वंद्वी	-5226
डीए	-5227
▁सर्वाधिक	-5228
▁उपयोगकर्ता	-5229
▁बढ़ती	-5230
▁आश्वासन	-5231
▁सेक	-5232
▁एआईआर	-5233
▁फैसलों	-5234
▁निर्णायक	-5235
जल	-5236
टाई	-5237
▁चालू	-5238
▁उच्चतर	-5239
न्द्रनाथ	-5240
▁फ़ि	-5241
क्चर	-5242
▁प्रदूषण	-5243
भारत	-5244
▁साझा	-5245
ामक	-5246
रेटर	-5247
▁सहज	-5248
▁हरिया	-5249
▁अजी	-5250
▁चीनी	-5251
▁पाता	-5252
▁रुख	-5253
▁डायरी	-5254
विंद	-5255
▁बंधक	-5256
▁IPC	-5257
सुर	-5258
▁चम	-5259
▁इंग्ल	-5260
▁दंडित	-5261
▁उपकरणों	-5262
ार्क	-5263
▁रोका	-5264
▁विपणन	-5265
▁k	-5266
ोचित	-5267
▁क्ला	-5268
▁दोस्त	-5269
▁यथास्थिति	-5270
▁अनाव	-5271
घर	-5272
ैक्ट	-5273
▁अभिप्रेत	-5274
▁सॉफ्टवेयर	-5275
निहित	-5276
▁अगला	-5277
▁उन्म	-5278
▁प्रतिव	-5279
▁स्वर्गीय	-5280
ut	-5281
▁आकर	-5282
▁डालने	-5283
▁नेशनल	-5284
ari	-5285
▁कितना	-5286
▁संवाद	-5287
▁प्रतिभा	-5288
जन्य	-5289
कोर्ट	-5290
र्कों	-5291
▁उज	-5292
▁गीत	-5293
▁अकाद	-5294
▁सिक्	-5295
▁मशीनरी	-5296
▁मिलाकर	-5297
ंदाज	-5298
ॉनिक	-5299
▁अज्ञात	-5300
▁अवसरों	-5301
▁पूर्ववर्ष	-5302
पय	-5303
▁यौन	-5304
ल्डिंग	-5305
▁अब्दुल	-5306
ER	-5307
▁प्रक	-5308
तियां	-5309
▁हमले	-5310
▁ग्रंथ	-5311
▁बैंकिंग	-5312
▁निर्माता	-5313
श्रम	-5314
▁कमि	-5315
▁जड़	-5316
▁दस्तावेजी	-5317
▁ताकत	-5318
▁OS	-5319
▁बढ़े	-5320
▁मौका	-5321
▁हट	-5322
▁वितरित	-5323
▁मोड	-5324
▁नै	-5325
▁सदा	-5326
यक	-5327
▁नार	-5328
▁पार्क	-5329
▁वचन	-5330
▁सटी	-5331
▁असाम	-5332
▁पैनल	-5333
▁तरीकों	-5334
▁निपटारा	-5335
▁रहित	-5336
▁मॉडल	-5337
हाबाद	-5338
ेदी	-5339
▁आनु	-5340
त्तियां	-5341
▁निष्क्रिय	-5342
वंश	-5343
▁चतु	-5344
▁सागर	-5345
▁बच्चा	-5346
▁टो	-5347
▁स्तंभ	-5348
▁सर्वोत्तम	-5349
▁ब्राह	-5350
मार्क	-5351
▁अधिनियमित	-5352
▁रासायनिक	-5353
णों	-5354
▁PO	-5355
▁अंकित	-5356
▁अनुशासन	-5357
▁सुविधाएं	-5358
बीर	-5359
लाब	-5360
▁भंडारण	-5361
▁ईमान	-5362
▁निर्वि	-5363
▁प्रिय	-5364
▁अंतराल	-5365
▁भेजी	-5366
▁प्रक्रियाओं	-5367
छा	-5368
▁वाणिज्य	-5369
▁मैने	-5370
▁बनाते	-5371
▁बुद्ध	-5372
▁निलंबन	-5373
▁गंभीरता	-5374
▁उल्लेखनीय	-5375
▁बजा	-5376
शक्ति	-5377
▁गोप	-5378
▁विरासत	-5379
▁अकबर	-5380
▁अवगत	-5381
▁चिंतन	-5382
▁स्थगन	-5383
▁परिकल्पना	-5384
▁l	-5385
▁सांस	-5386
र्ज	-5387
▁the	-5388
▁पोषण	-5389
▁उत्तराधिकारी	-5390
▁परमाण	-5391
्रल	-5392
स्टी	-5393
▁कीट	-5394
▁निधन	-5395
▁फेंक	-5396
▁गवर्न	-5397
▁सर्वर	-5398
▁समावेश	-5399
▁कोशिका	-5400
ab	-5401
▁अन्दर	-5402
▁तैनात	-5403
▁कुमारी	-5404
▁परिसमा	-5405
▁इंटरनेट	-5406
▁किलोमीटर	-5407
▁सिफारिशों	-5408
ay	-5409
▁भाषाओं	-5410
गमन	-5411
्राव	-5412
▁क्यू	-5413
▁नियोजित	-5414
ro	-5415
▁झा	-5416
▁प्रभाग	-5417
▁मनमाना	-5418
▁समर्पित	-5419
ष्णु	-5420
ट्रिक	-5421
▁अभिक	-5422
▁ट्यू	-5423
काब	-5424
द्री	-5425
▁नयी	-5426
▁शेयरधार	-5427
अल	-5428
श्वत	-5429
▁लड़के	-5430
▁पंचनामा	-5431
▁ग्राहकों	-5432
ंजा	-5433
▁वर्षा	-5434
▁समझाया	-5435
▁समर्थित	-5436
▁संरक्षित	-5437
▁दान	-5438
मेल	-5439
धियों	-5440
▁सतह	-5441
▁हार	-5442
▁आदान	-5443
फो	-5444
एसएल	-5445
गामी	-5446
▁पड़ी	-5447
षक	-5448
▁होंगी	-5449
▁नियमितीकरण	-5450
▁आना	-5451
AD	-5452
एगा	-5453
ेटी	-5454
▁खनि	-5455
▁उपे	-5456
ब्लिक	-5457
▁जनजाति	-5458
ak	-5459
▁कागज	-5460
▁दावेदारों	-5461
पीएस	-5462
▁संगम	-5463
▁हाईकोर्ट	-5464
▁ऑफ़	-5465
▁भावी	-5466
ध्यक्ष	-5467
▁विनिर्माण	-5468
काता	-5469
▁ऊपरी	-5470
▁सिवाय	-5471
▁महीनों	-5472
दाबाद	-5473
▁अन्तर	-5474
▁किताब	-5475
ah	-5476
▁फो	-5477
▁गर्दन	-5478
वासियों	-5479
▁समूहों	-5480
▁नवान्वेषण	-5481
▁बहाल	-5482
▁शुक्र	-5483
▁सचे	-5484
▁सरदार	-5485
▁अभियोगी	-5486
घाटन	-5487
▁अपू	-5488
▁कति	-5489
▁ओवर	-5490
▁बैठे	-5491
ल्हा	-5492
▁परिणामी	-5493
▁अपनाने	-5494
▁सर्विस	-5495
र्की	-5496
▁उपलब्धता	-5497
▁सलाहकार	-5498
▁आजीवन	-5499
▁कमेटी	-5500
▁नकदी	-5501
▁इलाहाबाद	-5502
वों	-5503
▁नीतियों	-5504
▁पॉलि	-5505
▁Village	-5506
▁तैयारी	-5507
▁विनियमित	-5508
▁त्वचा	-5509
▁लंबाई	-5510
▁लड़ाई	-5511
▁गहरी	-5512
▁इश	-5513
▁आखिर	-5514
▁त्वरित	-5515
ावट	-5516
▁कार्यवाहियों	-5517
▁जागर	-5518
▁पट्ट	-5519
▁पुष्	-5520
हल	-5521
▁जमी	-5522
▁असंभव	-5523
▁एयर	-5524
▁टक	-5525
▁कितनी	-5526
▁माध्यमिक	-5527
▁निश्चय	-5528
राय	-5529
▁भ्रष्टाचार	-5530
▁वांछ	-5531
▁पुनर्वास	-5532
▁चाय	-5533
▁मुला	-5534
▁सम्बन्धी	-5535
▁इंजीनियरिंग	-5536
लित	-5537
वरों	-5538
▁असमान	-5539
IT	-5540
ग्रस्त	-5541
▁आलोचना	-5542
▁मामूली	-5543
▁पेट्रोल	-5544
ार्ज	-5545
ज्ञेय	-5546
▁सिंध	-5547
▁रियायत	-5548
▁विनिमय	-5549
ोम	-5550
▁झार	-5551
▁ब्रा	-5552
▁प्रेरणा	-5553
▁व्यवस्थित	-5554
ख्यात	-5555
▁पैसा	-5556
ोजी	-5557
▁धात	-5558
▁इंकार	-5559
▁अनिश्चित	-5560
भाषा	-5561
▁टेलीफोन	-5562
▁स्थिरता	-5563
▁ब्रि	-5564
▁वसूल	-5565
▁शास्त	-5566
खाने	-5567
▁स्वभाव	-5568
▁हस्तांतरित	-5569
थु	-5570
▁सिक	-5571
▁सोचा	-5572
▁हरियाणा	-5573
▁and	-5574
▁जुड़	-5575
▁चिंतित	-5576
▁तद	-5577
▁कतिपय	-5578
ॉर्नी	-5579
▁चाहती	-5580
▁असह	-5581
▁दायित्वों	-5582
▁जहाज	-5583
▁क्रमांक	-5584
वारी	-5585
▁सुनील	-5586
▁वार्ता	-5587
▁दुख	-5588
हान	-5589
▁नोड	-5590
▁मृत्युदंड	-5591
िरी	-5592
▁यूनियन	-5593
▁उक	-5594
▁व्	-5595
▁मंज	-5596
ान्य	-5597
▁सतर्कता	-5598
▁कदाचार	-5599
▁हैंः	-5600
▁विंडो	-5601
▁अटॉर्नी	-5602
▁नेताओं	-5603
▁साझेदारी	-5604
▁विशेषाधिकार	-5605
▁प्रस्तुतियाँ	-5606
ंचाई	-5607
▁आराम	-5608
▁उत्साह	-5609
▁मालिकों	-5610
▁फार्म	-5611
▁परिणामों	-5612
▁WPNo	-5613
▁अधिरो	-5614
▁वस्तुत	-5615
▁गहन	-5616
▁रानी	-5617
▁डीडब्ल्यू	-5618
▁स्वे	-5619
▁फैला	-5620
▁अग्रणी	-5621
▁प्रोवि	-5622
▁निर्विवाद	-5623
▁चली	-5624
▁वक्	-5625
▁मुंह	-5626
बाई	-5627
▁छवि	-5628
▁डीड	-5629
▁सफेद	-5630
▁पड़ेगा	-5631
▁इनका	-5632
▁अख	-5633
▁ट्रायल	-5634
▁व्यायाम	-5635
▁अधिग्रहित	-5636
▁रहें	-5637
▁अपनाई	-5638
▁शंकरा	-5639
▁इलेक्ट्रॉनिक	-5640
▁चाव	-5641
▁घटनास्थल	-5642
र्पण	-5643
▁विक्रय	-5644
मैन	-5645
िर्	-5646
▁परमाणु	-5647
▁बारह	-5648
हरण	-5649
कीर्ण	-5650
▁स्टॉक	-5651
▁गांवों	-5652
▁कोलकाता	-5653
▁वृक्ष	-5654
ेंशन	-5655
▁सिटी	-5656
▁बाह्य	-5657
▁CR	-5658
▁बोस	-5659
▁बारी	-5660
▁जुड़ी	-5661
▁वैवाहिक	-5662
िकी	-5663
धारित	-5664
▁कैडर	-5665
▁जरिए	-5666
▁उपहार	-5667
प्राप्त	-5668
▁श्रेणियों	-5669
शिप	-5670
▁पूरक	-5671
▁अर्जी	-5672
▁पूर्वव्यापी	-5673
मेन	-5674
क्षीय	-5675
▁पुस्तकों	-5676
▁अल्पसंख्यक	-5677
पल	-5678
▁हेड	-5679
धिकृत	-5680
▁ग्रस्त	-5681
▁नकद	-5682
▁पाइ	-5683
▁अधिकतर	-5684
ब्र	-5685
लोड	-5686
रज	-5687
▁अंतः	-5688
▁समेक	-5689
▁निस्	-5690
▁मास्टर	-5691
▁छे	-5692
▁क्लब	-5693
अर	-5694
▁काली	-5695
▁पाद	-5696
▁संक्रमण	-5697
पंथ	-5698
▁चलो	-5699
▁सर्ट	-5700
▁कोयला	-5701
▁मध्यम	-5702
▁रवि	-5703
▁बांध	-5704
▁आस्ति	-5705
▁तत्वों	-5706
मांड	-5707
रिटी	-5708
▁लिंग	-5709
▁नान	-5710
चालित	-5711
मॉर्ट	-5712
ोक्ति	-5713
▁एजेंस	-5714
▁इंडियन	-5715
▁स्वस्थ	-5716
▁अंतर्निहित	-5717
बादी	-5718
▁दुखी	-5719
▁मारने	-5720
▁याचिकाएं	-5721
▁अमान्य	-5722
▁१६	-5723
▁चुप	-5724
▁फैल	-5725
▁महानि	-5726
▁रेड्डी	-5727
्याम	-5728
▁ग्ल	-5729
▁दमन	-5730
▁लक्ष्मी	-5731
▁संतोषजनक	-5732
▁सावधानीपूर्वक	-5733
िपल	-5734
एमसी	-5735
▁बाय	-5736
▁बंदूक	-5737
▁सिंचाई	-5738
▁महात्मा	-5739
▁सदस्यता	-5740
UR	-5741
ट्टा	-5742
▁सभ्यता	-5743
▁रिकॉर्डिंग	-5744
रोज	-5745
ot	-5746
▁प्रता	-5747
▁अग्रवाल	-5748
▁तहसीलदार	-5749
▁अजीब	-5750
▁कितने	-5751
ate	-5752
पत्य	-5753
▁पोत	-5754
▁फाइ	-5755
▁द्वीप	-5756
विज्ञान	-5757
▁चन्द्र	-5758
▁कॉलेजों	-5759
दुर	-5760
राशि	-5761
▁सौर	-5762
▁वक्फ	-5763
▁फंसाया	-5764
iv	-5765
▁चैनल	-5766
▁टिकट	-5767
▁मिलियन	-5768
▁विकलांगता	-5769
▁विस्तारित	-5770
▁भरे	-5771
▁आस्त	-5772
▁ससुर	-5773
▁समृद्ध	-5774
लभ	-5775
▁In	-5776
ingh	-5777
क्रो	-5778
म्बा	-5779
त्त्व	-5780
▁खुली	-5781
्त्र	-5782
▁खनन	-5783
धक	-5784
▁अखिल	-5785
▁नजरअ	-5786
▁लिंक	-5787
▁आहार	-5788
▁निष्का	-5789
▁शौ	-5790
ार्ट	-5791
▁लखन	-5792
संदेह	-5793
मॉर्टम	-5794
▁प्यार	-5795
ंठ	-5796
▁..	-5797
▁...	-5798
▁बचत	-5799
▁आशंका	-5800
▁प्रतिबि	-5801
▁अन्तर्गत	-5802
▁गेंद	-5803
िटल	-5804
ुरु	-5805
▁विनय	-5806
ैर	-5807
▁भ्रम	-5808
▁संभाल	-5809
▁प्रतिनिधियों	-5810
एसआई	-5811
द्धा	-5812
▁बेद	-5813
▁अद्य	-5814
▁फिली	-5815
मूल	-5816
▁पर्यटन	-5817
▁पदार्थों	-5818
▁हिंदुस्तान	-5819
ANo	-5820
▁Bihar	-5821
▁लकड़ी	-5822
▁प्रतियोगिता	-5823
▁h	-5824
्रीम	-5825
▁सदैव	-5826
▁निषेध	-5827
▁व्यक्तित्व	-5828
▁रिज	-5829
▁स्वतः	-5830
्ता	-5831
▁अमर	-5832
▁बेटा	-5833
▁नजरअंदाज	-5834
▁प्रतिवाद	-5835
▁मार्गदर्शन	-5836
▁खेत	-5837
AG	-5838
▁पौधों	-5839
▁परिचित	-5840
▁सम्पूर्ण	-5841
इल	-5842
▁संवर्धन	-5843
▁सच्चाई	-5844
▁गज	-5845
▁सर्टिफ	-5846
▁प्रतीक्षा	-5847
पट	-5848
▁सद्	-5849
डो	-5850
्याव	-5851
▁पश	-5852
▁हिमा	-5853
ud	-5854
▁साथी	-5855
▁राजधानी	-5856
ug	-5857
र्याप्त	-5858
▁शंकराचार्य	-5859
▁प्रतिस्थापित	-5860
शो	-5861
▁IT	-5862
▁हॉ	-5863
▁प्रतिभूति	-5864
ES	-5865
ज़ार	-5866
▁सोम	-5867
st	-5868
▁लेती	-5869
▁उपखंड	-5870
▁झारखंड	-5871
कोश	-5872
▁लगने	-5873
▁शुरु	-5874
सीटी	-5875
▁वहन	-5876
▁न्यायसंगत	-5877
▁मुकाब	-5878
▁पोस्टमॉर्टम	-5879
▁दुः	-5880
▁निर्वाचित	-5881
▁दत्त	-5882
▁ब्यू	-5883
▁सुदृ	-5884
▁सुनाया	-5885
▁वास्तविकता	-5886
ूर्त	-5887
▁असली	-5888
▁दरों	-5889
▁पीछा	-5890
▁प्रसं	-5891
▁इकट्ठा	-5892
▁क्रिकेट	-5893
▁सना	-5894
▁मरम्मत	-5895
▁फु	-5896
▁इक्व	-5897
▁मालूम	-5898
▁खट	-5899
ुका	-5900
कू	-5901
▁उतना	-5902
▁Singh	-5903
▁अंजाम	-5904
▁अनावश्यक	-5905
▁कोटा	-5906
▁निहितार्थ	-5907
ौदा	-5908
▁आर्बिट	-5909
▁पंडित	-5910
▁मिलते	-5911
गन	-5912
ब्बे	-5913
▁खड़ी	-5914
▁अपर्याप्त	-5915
िसाब	-5916
▁जनहित	-5917
▁निरसन	-5918
▁समुद्री	-5919
भेद	-5920
िवेश	-5921
▁चोरी	-5922
▁जवाह	-5923
▁पंक्ति	-5924
ेड	-5925
▁प्रोट	-5926
RI	-5927
▁आइट	-5928
▁उतर	-5929
▁एका	-5930
▁प्रतिपाद	-5931
लक	-5932
ant	-5933
▁रसाय	-5934
▁विष्णु	-5935
▁CO	-5936
▁सकल	-5937
▁मिलेगा	-5938
नगर	-5939
स्टिक	-5940
▁इंग्लैंड	-5941
▁शिकायतों	-5942
िलों	-5943
▁हिमाचल	-5944
▁खतरनाक	-5945
▁रिस	-5946
▁नौकर	-5947
▁हान	-5948
▁त्रि	-5949
▁मारा	-5950
▁मृ	-5951
▁उत्तेज	-5952
▁उद्घाटन	-5953
परा	-5954
▁प्लान	-5955
▁विवेका	-5956
▁बताती	-5957
इश	-5958
वायु	-5959
▁संभवतः	-5960
▁इस्	-5961
▁परमिट	-5962
ac	-5963
▁मैसर्स	-5964
तांत्रिक	-5965
ांश	-5966
▁सहन	-5967
▁कहान	-5968
▁भंडार	-5969
▁परिषद्	-5970
▁श्व	-5971
वती	-5972
▁फॉर	-5973
▁पीडी	-5974
▁शांत	-5975
▁सटीक	-5976
▁बॉक्स	-5977
▁मूलभूत	-5978
▁रहेंगे	-5979
▁जाग	-5980
▁चालान	-5981
▁श्रमिकों	-5982
भु	-5983
▁इंत	-5984
▁बेश	-5985
▁कड़ी	-5986
▁संवेदन	-5987
▁नियंत्रक	-5988
▁मेट	-5989
▁बालक	-5990
▁शुद्धता	-5991
▁प्रतिदिन	-5992
▁प्रस्तावों	-5993
र्थी	-5994
▁देवता	-5995
▁ठहराने	-5996
▁बौद्धिक	-5997
▁हार्दिक	-5998
▁सल	-5999
▁कमिश्	-6000
▁निवेदन	-6001
▁पब्लिक	-6002
▁स्वचालित	-6003
रेख	-6004
ोषित	-6005
▁लौटा	-6006
▁जागरूक	-6007
▁धनराशि	-6008
चंद्र	-6009
▁स्वर्ण	-6010
▁चिकित्सक	-6011
▁बैग	-6012
▁बनाकर	-6013
▁कमा	-6014
▁डीलर	-6015
▁ताजा	-6016
▁फलस्वरूप	-6017
▁तिल	-6018
▁अंकों	-6019
gar	-6020
▁पच	-6021
▁कोट	-6022
▁पुनर्विचार	-6023
▁प्रतिस्पर्धा	-6024
▁उतार	-6025
िष्कार	-6026
दल	-6027
निय	-6028
▁आइटम	-6029
▁नीतिगत	-6030
▁हड्डी	-6031
▁डिफ	-6032
▁बजट	-6033
▁रहेगी	-6034
ET	-6035
▁पीड़ा	-6036
▁बताना	-6037
▁समायोजित	-6038
न्दर	-6039
▁जातियों	-6040
▁विश्वसनीयता	-6041
ham	-6042
▁रुक	-6043
▁हड़	-6044
▁पढ़े	-6045
▁दिव्य	-6046
▁निचले	-6047
ोक्ताओं	-6048
हेल	-6049
▁गुल	-6050
▁शान	-6051
▁सीम	-6052
▁डाटा	-6053
▁बाएं	-6054
▁शोर	-6055
av	-6056
यंस	-6057
▁परिचय	-6058
▁हिस्सों	-6059
वै	-6060
ागर	-6061
▁चुनौ	-6062
▁तदर्थ	-6063
चंद	-6064
टीसी	-6065
▁एमओ	-6066
ंपरिक	-6067
▁शिखर	-6068
▁बनाये	-6069
▁प्रणाल	-6070
▁प्रिंस	-6071
▁विभिन्	-6072
प्लिकेशन	-6073
▁तुम्हारे	-6074
▁घरों	-6075
▁टिका	-6076
कात	-6077
चेंज	-6078
▁प्रतिलिपि	-6079
▁मनी	-6080
▁संदाय	-6081
▁समझते	-6082
पूर	-6083
▁भो	-6084
▁कामगार	-6085
▁ब्रिटेन	-6086
▁केंद्रित	-6087
▁प्रदर्शनी	-6088
़्य	-6089
ेरे	-6090
▁चिप	-6091
▁व्यापारी	-6092
▁कष्ट	-6093
▁संजय	-6094
▁शहरों	-6095
▁गोपनीय	-6096
▁निरंतरता	-6097
▁बर्खास्तगी	-6098
▁रायपुर	-6099
▁स्नातक	-6100
प्ति	-6101
▁सीडी	-6102
ाट	-6103
▁तृ	-6104
क्ष्य	-6105
▁आजादी	-6106
▁प्रेषित	-6107
▁वर्गीकृत	-6108
re	-6109
जनन	-6110
▁बैक	-6111
▁गरीबी	-6112
▁अप्रत्य	-6113
▁परिस्थितिजन्य	-6114
▁नेत्र	-6115
उंट	-6116
▁doc	-6117
▁हथिया	-6118
▁मस्	-6119
▁टर्म	-6120
▁सांप	-6121
▁स्त्र	-6122
रद	-6123
डिट	-6124
▁मतदान	-6125
▁सीटों	-6126
▁फोटो	-6127
▁लेनदार	-6128
▁resident	-6129
कोट	-6130
▁सेन	-6131
▁अद्यतन	-6132
ष्ठा	-6133
िवारिक	-6134
▁झूठा	-6135
▁पौधे	-6136
▁दक्षता	-6137
दत्त	-6138
▁टाउन	-6139
▁सिन्	-6140
▁शिशु	-6141
स्थापन	-6142
▁सुदृढ़	-6143
▁दुर्भाग्य	-6144
▁सर्टिफिकेट	-6145
OR	-6146
▁लॉग	-6147
▁पत्त	-6148
▁वाक्य	-6149
▁उपायुक्त	-6150
खल	-6151
▁जू	-6152
▁सोन	-6153
रिक्ष	-6154
▁बोलने	-6155
रम	-6156
्यवाद	-6157
▁लॉर्ड	-6158
▁पारिवारिक	-6159
▁क्षण	-6160
▁मूर्ति	-6161
▁कहां	-6162
▁जिनसे	-6163
▁पैकेज	-6164
▁अविश्वास	-6165
▁प्रवृत्त	-6166
ज्ज	-6167
सागर	-6168
▁नृत	-6169
ल्पित	-6170
▁पारंपरिक	-6171
▁उत	-6172
▁इसील	-6173
▁विविधता	-6174
▁विधानसभा	-6175
▁दुर्बलता	-6176
ुत्	-6177
▁छाया	-6178
▁वस्तुतः	-6179
▁अनियमितता	-6180
▁इनकी	-6181
▁नेपाल	-6182
▁साधनों	-6183
▁मनमानी	-6184
▁इक्विटी	-6185
०क	-6186
धिव	-6187
▁आबंट	-6188
▁मनाया	-6189
▁मार्क	-6190
▁कनेक्शन	-6191
▁रेख	-6192
▁भत्ता	-6193
▁कमिश्नर	-6194
▁परिवारों	-6195
रिट	-6196
▁एग्	-6197
स्वती	-6198
▁न्यास	-6199
▁दक्षिणी	-6200
▁असामान्य	-6201
▁देशी	-6202
▁अपहरण	-6203
pp	-6204
▁एव	-6205
▁एसी	-6206
▁जंगल	-6207
▁परिल	-6208
▁नामों	-6209
▁समझता	-6210
▁अध्यादेश	-6211
▁अदा	-6212
▁जलवायु	-6213
PA	-6214
▁भरी	-6215
▁डीएन	-6216
▁चार्ट	-6217
▁कम्पनी	-6218
▁पुनर्ग	-6219
▁प्रिंट	-6220
फ़ी	-6221
कियों	-6222
बारी	-6223
▁एप्लिकेशन	-6224
▁भव	-6225
आरएस	-6226
▁ज्व	-6227
▁क्लिक	-6228
र्जन	-6229
▁फ़िल्म	-6230
▁अध्यक्षता	-6231
▁ष	-6232
▁CA	-6233
▁dt	-6234
▁कही	-6235
▁St	-6236
▁ग़	-6237
▁चां	-6238
▁नर्स	-6239
▁गाड़ी	-6240
▁अप्रत्यक्ष	-6241
▁अहमदाबाद	-6242
रेखा	-6243
▁उसको	-6244
▁कीटना	-6245
▁द्विप	-6246
▁विवरणों	-6247
्राफी	-6248
▁बल्ले	-6249
▁प्रतिष्ठित	-6250
दीप	-6251
▁क्रेता	-6252
ment	-6253
म्परा	-6254
▁रमेश	-6255
▁आबादी	-6256
न्दु	-6257
हार्य	-6258
▁डाउन	-6259
▁सेटिंग	-6260
esh	-6261
▁अधिनियमों	-6262
ल्टी	-6263
▁कहला	-6264
▁बंदर	-6265
▁खरीदी	-6266
▁संग्र	-6267
गाव	-6268
टु	-6269
्नि	-6270
ापति	-6271
▁फुट	-6272
▁झगड़ा	-6273
▁CW	-6274
▁प्	-6275
दृश्य	-6276
▁तंत्रिका	-6277
क्टे	-6278
▁हेम	-6279
▁खोला	-6280
▁कामका	-6281
▁हिसाब	-6282
▁पहुंचाने	-6283
▁प्रारम्भ	-6284
▁बीस	-6285
▁बढ़ते	-6286
▁रिश्वत	-6287
▁वाहनों	-6288
▁अनधिकृत	-6289
▁son	-6290
नीति	-6291
▁रहस्य	-6292
▁दरवाजे	-6293
▁उपज	-6294
▁धातु	-6295
▁ओं	-6296
▁सरस्वती	-6297
▁नाइ	-6298
टीकरण	-6299
▁बीमाकर्ता	-6300
▁प्रबल	-6301
▁मूल्यवान	-6302
▁लोकतांत्रिक	-6303
नेश	-6304
▁उदा	-6305
▁फिल्	-6306
▁भेंट	-6307
▁पते	-6308
▁बैल	-6309
▁शीट	-6310
▁भक्ति	-6311
▁प्रतिर	-6312
▁प्रान्त	-6313
▁समृद्धि	-6314
▁खूब	-6315
▁मेन	-6316
ड़िया	-6317
▁संध्या	-6318
अप	-6319
सेस	-6320
▁तिव	-6321
▁देगी	-6322
▁बुरी	-6323
▁निदेशकों	-6324
▁अवय	-6325
▁गोपाल	-6326
▁शक्तिशाली	-6327
▁PS	-6328
▁सीधा	-6329
▁रखकर	-6330
▁निस्त	-6331
▁कुल्हा	-6332
▁सीन	-6333
▁द्वि	-6334
▁विद्रो	-6335
▁सेक्टर	-6336
▁भारतीयों	-6337
▁फंड	-6338
▁मानी	-6339
▁सीता	-6340
▁पॉलिसी	-6341
केशन	-6342
▁सचेत	-6343
स्ट्रे	-6344
▁थोड़ी	-6345
▁फायदा	-6346
▁इंस	-6347
▁रूपों	-6348
▁ऑपरेटर	-6349
▁बहादुर	-6350
▁शेख	-6351
▁ग्रुप	-6352
▁कॉर्पोरेट	-6353
▁अज	-6354
न्या	-6355
▁ऑटो	-6356
▁कोष	-6357
▁रिव	-6358
▁आपात	-6359
▁बुलाने	-6360
im	-6361
प्ट	-6362
▁कस	-6363
बंधन	-6364
▁अभ्य	-6365
▁मतदाता	-6366
▁पहुंची	-6367
▁जीन	-6368
िवर्त	-6369
▁गहराई	-6370
▁तिवारी	-6371
▁महाधिव	-6372
▁परम्परा	-6373
बेट	-6374
▁SH	-6375
▁घृ	-6376
काने	-6377
बारा	-6378
▁जाली	-6379
▁तनाव	-6380
▁सिद्धान्त	-6381
ंपी	-6382
▁वय	-6383
▁जना	-6384
▁स्तरों	-6385
▁परिस्थितियां	-6386
▁सड़	-6387
▁अनुर	-6388
▁अभिला	-6389
▁नवा	-6390
▁विघ	-6391
▁ड्राफ	-6392
▁लाए	-6393
▁गुफा	-6394
▁आत्मसम	-6395
▁सीआरपीसी	-6396
▁औस	-6397
०वीं	-6398
▁उर्व	-6399
▁१७	-6400
▁जानें	-6401
▁स्तरीय	-6402
▁क्रियान्व	-6403
kh	-6404
▁बिलकुल	-6405
▁परिश्रम	-6406
▁मंदिरों	-6407
▁चिकित्सीय	-6408
▁प्रकटीकरण	-6409
रता	-6410
▁पैट	-6411
▁अक्त	-6412
र्माने	-6413
▁जितनी	-6414
पीए	-6415
्रु	-6416
▁पट्टी	-6417
▁ज़्यादा	-6418
▁जुर्माने	-6419
▁बाँ	-6420
▁ऊंचाई	-6421
▁सकेगी	-6422
▁मुक्ति	-6423
▁सामान्यतः	-6424
▁रखती	-6425
▁निकाले	-6426
▁प्रसंस्	-6427
▁डिज	-6428
▁राह	-6429
▁जोड़े	-6430
▁देखता	-6431
▁स्क्रीन	-6432
▁अभिलेखों	-6433
▁ब्राह्मण	-6434
रस	-6435
ूलन	-6436
ांतिक	-6437
▁मुलाकात	-6438
▁रिज़	-6439
▁टुकड़े	-6440
▁याता	-6441
▁टैक्स	-6442
▁परिवी	-6443
▁मंजूर	-6444
▁दिशानिर्देशों	-6445
िब	-6446
पाई	-6447
साई	-6448
▁किल	-6449
▁क्रांति	-6450
▁एक्सचेंज	-6451
▁लोड	-6452
▁समझे	-6453
्रेषित	-6454
▁प्रीम	-6455
▁वृद्ध	-6456
▁उन्हीं	-6457
▁मिलेगी	-6458
▁पुण	-6459
▁खासकर	-6460
▁यूरोपीय	-6461
par	-6462
▁AP	-6463
▁MO	-6464
वाहा	-6465
▁वास	-6466
▁अतीत	-6467
▁लगती	-6468
▁विलय	-6469
▁नवीनी	-6470
▁वस्त्र	-6471
द्वी	-6472
▁मिथ	-6473
▁सूचक	-6474
▁अनदेखी	-6475
डीसी	-6476
▁सुस	-6477
▁इसीलिए	-6478
▁पुनराव	-6479
ोई	-6480
▁औसतन	-6481
▁मनमाने	-6482
▁एजेंसियों	-6483
▁नियुक्तियों	-6484
▁मरा	-6485
ंगलोर	-6486
▁OSNo	-6487
▁लाठी	-6488
▁झील	-6489
विक	-6490
▁पड	-6491
जिंग	-6492
ज्जित	-6493
▁कीटनाश	-6494
▁हथियारों	-6495
▁निस्संदेह	-6496
▁महाधिवक्ता	-6497
ोसी	-6498
रचना	-6499
▁खटख	-6500
▁जगत	-6501
▁गीता	-6502
▁भीड़	-6503
▁एक्सप	-6504
▁निलंबित	-6505
▁अपमानजनक	-6506
▁निदेशालय	-6507
▁प्रतियां	-6508
▁आत्मसमर्पण	-6509
▁खनिज	-6510
▁प्रतिसाद	-6511
ित्य	-6512
िकारक	-6513
▁एसटी	-6514
▁रिक्ति	-6515
▁उठाई	-6516
▁लखनऊ	-6517
▁अनुपस्थित	-6518
न्थ	-6519
▁जीवा	-6520
▁विनाश	-6521
▁सफलतापूर्वक	-6522
शिता	-6523
▁ऑडिट	-6524
▁कॉन्	-6525
▁यातायात	-6526
यिक	-6527
▁दुश्म	-6528
▁तर्कों	-6529
▁निकलने	-6530
▁कुल्हाड़ी	-6531
वाणी	-6532
▁तलाक	-6533
▁स्के	-6534
▁संपन्न	-6535
ड्यूल	-6536
▁पट	-6537
▁परा	-6538
▁दुर्लभ	-6539
▁ब्यूरो	-6540
▁परिवीक्षा	-6541
▁दम	-6542
दायक	-6543
भौ	-6544
▁एमएस	-6545
▁वार्ड	-6546
निस	-6547
कथित	-6548
▁पंचाट	-6549
▁पीढ़ी	-6550
▁रसायन	-6551
▁आरंभिक	-6552
▁मैत्री	-6553
▁अवहेल	-6554
▁हस्ताक्षरित	-6555
जिद	-6556
मिन	-6557
िसी	-6558
▁सुनकर	-6559
▁देनदार	-6560
▁रेडियो	-6561
ुग्	-6562
garh	-6563
▁विधवा	-6564
▁उपेक्षा	-6565
▁अनन्य	-6566
▁ऑफिसर	-6567
▁स्वेच्छा	-6568
ंधन	-6569
ज़ो	-6570
इयां	-6571
ाइयों	-6572
▁आपसी	-6573
स्परिक	-6574
ॉम	-6575
▁फ्लैट	-6576
▁मतभेद	-6577
मीन	-6578
ोजे	-6579
ेंसिक	-6580
▁चीजें	-6581
▁संपदा	-6582
▁निकायों	-6583
▁मोटरसाइ	-6584
ाम्	-6585
देशक	-6586
▁उपभोग	-6587
▁सहयोगी	-6588
▁अक्तूबर	-6589
▁पुष्ट	-6590
▁कना	-6591
▁सकी	-6592
▁सांख	-6593
▁सेवन	-6594
▁जिलों	-6595
▁तरल	-6596
▁रघु	-6597
▁लिप	-6598
▁काला	-6599
▁खरीदा	-6600
▁यथार्थ	-6601
▁हाइ	-6602
▁टेक्	-6603
▁अंगूठ	-6604
▁कामना	-6605
▁व्युत्	-6606
▁शास्त्र	-6607
▁आधि	-6608
▁हां	-6609
ांक्षा	-6610
▁गुंजा	-6611
▁भाग्य	-6612
▁प्रांत	-6613
▁पदोन्नत	-6614
▁रचनात्मक	-6615
▁कॉर्पोरेशन	-6616
hatt	-6617
▁संधि	-6618
▁फीट	-6619
▁साहित्यिक	-6620
▁विशेषज्ञों	-6621
पै	-6622
▁ग्री	-6623
स्वामी	-6624
्यूशन	-6625
▁ऑपरेट	-6626
▁अवहेलना	-6627
▁रवीन्द्रनाथ	-6628
▁झट	-6629
मिता	-6630
सेना	-6631
▁कंध	-6632
▁मछली	-6633
नाइ	-6634
जाने	-6635
▁आधे	-6636
ेन्द्र	-6637
त्रियों	-6638
▁इस्लामी	-6639
▁अंतरिक्ष	-6640
ंची	-6641
▁बरामदगी	-6642
कै	-6643
यु	-6644
ोश	-6645
▁कहती	-6646
▁अखबार	-6647
▁खोजने	-6648
▁कार्मिक	-6649
▁पुस्तिका	-6650
▁माध्यस्थ	-6651
▁पारस्परिक	-6652
..	-6653
हीत	-6654
ers	-6655
▁फ्रै	-6656
▁पत्रिका	-6657
▁कार्यपालिका	-6658
▁चौथा	-6659
पक्व	-6660
▁फ़ो	-6661
▁छेड़	-6662
हि	-6663
▁लंबा	-6664
▁उजागर	-6665
▁सौंपी	-6666
▁संयोजन	-6667
जो	-6668
क्कर	-6669
ांसी	-6670
anc	-6671
▁vi	-6672
▁हुस	-6673
▁नृत्य	-6674
▁MA	-6675
▁एंट	-6676
▁गिन	-6677
▁साझी	-6678
▁गिरवी	-6679
▁बहाली	-6680
िक्र	-6681
▁पहाड़ी	-6682
▁सीनियर	-6683
▁बैंगलोर	-6684
ुलर	-6685
▁एओ	-6686
▁टैग	-6687
▁बन्द	-6688
▁लाना	-6689
▁बनाती	-6690
▁उपलब्धि	-6691
▁द्विपक्षीय	-6692
▁कंस	-6693
▁तारा	-6694
▁बेशक	-6695
कारिता	-6696
FA	-6697
▁खर्	-6698
स्ट्री	-6699
▁तथाकथित	-6700
▁भागीदार	-6701
▁निष्कासन	-6702
▁व्यापारिक	-6703
ish	-6704
▁नाय	-6705
▁रेश	-6706
▁तंब	-6707
▁बिता	-6708
▁ग्राफ	-6709
▁रोकना	-6710
▁हेक्टे	-6711
▁अधिरोपित	-6712
▁टूट	-6713
▁मोटे	-6714
▁रिला	-6715
परक	-6716
़्त	-6717
▁सदी	-6718
ूष	-6719
्यौ	-6720
▁गड़	-6721
▁आतंकवादी	-6722
▁गू	-6723
▁जीत	-6724
▁जताई	-6725
▁इंद्र	-6726
▁मंजिल	-6727
▁परिसंप	-6728
▁गुंजाइश	-6729
टीन	-6730
▁बेई	-6731
▁महाराजा	-6732
ल्फ	-6733
दर्शिता	-6734
▁उपर	-6735
▁केश	-6736
▁शरण	-6737
वास्त	-6738
▁थाने	-6739
▁प्लस	-6740
▁उठाना	-6741
▁यात्री	-6742
▁समायोजन	-6743
▁प्रिंसिपल	-6744
गि	-6745
संच	-6746
▁फर्	-6747
▁ट्रैक	-6748
▁एफएसएल	-6749
▁आधिपत्य	-6750
▁शोक	-6751
▁कर्ण	-6752
▁पृथक	-6753
▁संगठित	-6754
▁समझौतों	-6755
▁कच	-6756
र्ता	-6757
▁ईसाई	-6758
▁रिलायंस	-6759
▁गायब	-6760
▁प्रोफ	-6761
▁अपरिहार्य	-6762
ंसक	-6763
▁एकीकृत	-6764
▁चित्रण	-6765
▁प्रयोज्यता	-6766
सास	-6767
▁रिफ	-6768
▁पड़ोसी	-6769
▁निर्देशिका	-6770
▁मोटरसाइकिल	-6771
▁नस्	-6772
▁रेड	-6773
त्रिम	-6774
▁शत्रु	-6775
▁पेशेवर	-6776
▁स्रोतों	-6777
▁पहन	-6778
▁बाईं	-6779
▁खरीदार	-6780
▁अनुज्ञात	-6781
जीसी	-6782
▁यहू	-6783
▁युक्ति	-6784
रेज	-6785
▁पाप	-6786
▁योनि	-6787
ठे	-6788
मै	-6789
जिए	-6790
▁छिप	-6791
▁उर्फ	-6792
सिद्धि	-6793
▁खटखटा	-6794
▁राजीव	-6795
कारियों	-6796
▁संज्ञेय	-6797
▁प्रतिबिंब	-6798
▁धरती	-6799
▁मोड़	-6800
▁साहस	-6801
▁मापदंड	-6802
▁दुश्मनी	-6803
▁सम्पत्ति	-6804
▁घो	-6805
ंदगी	-6806
▁लायक	-6807
▁चरणों	-6808
up	-6809
▁डेवल	-6810
▁नींव	-6811
▁अंगों	-6812
▁भत्ते	-6813
▁स्वीकारोक्ति	-6814
▁बग	-6815
▁‘‘	-6816
गाई	-6817
नेस	-6818
▁असंत	-6819
▁एसआई	-6820
▁सारांश	-6821
दू	-6822
बीन	-6823
ॉजी	-6824
▁नंद	-6825
▁वाक्	-6826
▁कराना	-6827
▁पुनर्म	-6828
▁हिमालय	-6829
▁अग्नि	-6830
▁गौरव	-6831
▁मानो	-6832
▁डीएनए	-6833
▁लाई	-6834
▁किन्	-6835
▁जायें	-6836
▁मेट्रो	-6837
▁पुनर्गठन	-6838
ढ़े	-6839
▁सुपर	-6840
▁ट्रेडमार्क	-6841
▁उभ	-6842
स्फोट	-6843
▁तिरु	-6844
▁लड़ने	-6845
▁विद्यार्थी	-6846
पेश	-6847
ापू	-6848
▁IV	-6849
▁कृत्रिम	-6850
रलाल	-6851
▁वरीय	-6852
वकों	-6853
▁चरम	-6854
▁बेल	-6855
▁जनादेश	-6856
▁उन्मूलन	-6857
▁प्रीमियम	-6858
ुणा	-6859
▁नज	-6860
स्पद	-6861
▁तलवार	-6862
▁अमरीका	-6863
▁प्रसंस्करण	-6864
▁हाँ	-6865
▁टीवी	-6866
▁माने	-6867
▁स्टील	-6868
▁डोमेन	-6869
▁प्लेट	-6870
▁आबकारी	-6871
og	-6872
▁फ्रे	-6873
▁तापमान	-6874
एसए	-6875
ानंद	-6876
▁फिल	-6877
▁राश	-6878
▁पाठक	-6879
▁अन्वेषण	-6880
ुत्व	-6881
▁दाम	-6882
▁सर्क	-6883
▁सांवि	-6884
ानुभूति	-6885
▁Chhatt	-6886
ग्ला	-6887
▁अनिल	-6888
▁कोर्स	-6889
▁जूनियर	-6890
ig	-6891
थान	-6892
च्यु	-6893
वर्ड	-6894
▁वीड	-6895
ंद्रह	-6896
▁युवाओं	-6897
▁विनिश्चय	-6898
▁कीं	-6899
▁आधारभूत	-6900
शाह	-6901
फ्	-6902
▁हुसैन	-6903
▁पंद्रह	-6904
▁प्रक्रियात्मक	-6905
▁y	-6906
गंज	-6907
▁ढूं	-6908
▁अड्ड	-6909
▁पट्टा	-6910
▁कपड़ों	-6911
पन्न	-6912
▁सुरेश	-6913
SH	-6914
od	-6915
िर्ण	-6916
▁सेशन	-6917
▁Chhattis	-6918
भासी	-6919
▁घास	-6920
▁लैस	-6921
▁हरे	-6922
स्टेट	-6923
▁दुर्व	-6924
▁रजिस्ट्रीकरण	-6925
os	-6926
सीआई	-6927
▁संस	-6928
▁डाले	-6929
ंसर	-6930
▁ओम	-6931
स्कर	-6932
▁अवर	-6933
▁रोम	-6934
▁वोट	-6935
▁राजू	-6936
▁समाम	-6937
▁सार्थ	-6938
▁उम	-6939
▁फार	-6940
▁मातृ	-6941
▁चिन्ह	-6942
▁हटाया	-6943
▁खर्चों	-6944
▁भूत	-6945
▁कड़ाई	-6946
end	-6947
▁iv	-6948
मोहन	-6949
▁ज़ि	-6950
▁दण्ड	-6951
▁स्वि	-6952
▁लेंगे	-6953
▁कोशिकाओं	-6954
▁Chhattisgarh	-6955
ुस	-6956
र्दू	-6957
▁डिस्	-6958
▁पीपी	-6959
▁सेंटर	-6960
▁प्रजनन	-6961
▁सांख्यिक	-6962
▁कहे	-6963
▁गणित	-6964
ार्किक	-6965
▁इनपुट	-6966
▁अस्थिर	-6967
जुन	-6968
ब्ब	-6969
▁किस्म	-6970
▁RE	-6971
▁जाओ	-6972
▁भांति	-6973
▁स्ट्र	-6974
तन्य	-6975
▁बैठा	-6976
▁ड्राइवर	-6977
सूर	-6978
▁छू	-6979
▁मंगल	-6980
▁समामेल	-6981
AK	-6982
▁झुक	-6983
▁अनाज	-6984
▁जानकर	-6985
▁पर्वत	-6986
▁मस्जिद	-6987
स्पी	-6988
▁ड्रग	-6989
▁आंकड़े	-6990
▁व्यस्त	-6991
▁सकेंगे	-6992
▁प्रस्तुतिकरण	-6993
▁बांड	-6994
▁रिकवरी	-6995
▁राजेंद्र	-6996
ub	-6997
सो	-6998
भूषण	-6999
ायें	-7000
▁आपस	-7001
▁उर्दू	-7002
▁कामकाज	-7003
▁शस्त्र	-7004
तापूर्वक	-7005
▁अनुमानित	-7006
▁हेक्टेयर	-7007
▁परिलक्षित	-7008
स्पति	-7009
▁अभिर	-7010
▁चर्च	-7011
स्ट्रेलिया	-7012
ंकी	-7013
शनी	-7014
ोमा	-7015
▁उग्र	-7016
▁टाइप	-7017
▁कच्चे	-7018
▁संकाय	-7019
डू	-7020
▁परिवेश	-7021
▁परीक्षक	-7022
▁प्रसारण	-7023
▁कार्यालयों	-7024
▁प्रविष्टियों	-7025
स्को	-7026
▁किमी	-7027
▁अधिनिर्ण	-7028
▁ईंधन	-7029
▁शोषण	-7030
विश्वास	-7031
▁सौंपने	-7032
▁अभिव्यक्त	-7033
▁वक	-7034
ंटों	-7035
▁दाहिने	-7036
▁प्रोविज़ो	-7037
पंथी	-7038
▁एनआई	-7039
▁परिप्रे	-7040
ia	-7041
हाई	-7042
वायद	-7043
▁लार	-7044
वंत	-7045
जनों	-7046
▁पीने	-7047
▁उत्तम	-7048
▁समझना	-7049
▁चैतन्य	-7050
ON	-7051
ao	-7052
ुश	-7053
▁समन	-7054
▁निस्तारण	-7055
▁न्	-7056
साइड	-7057
▁नाक	-7058
झा	-7059
ोंड	-7060
▁उपाधि	-7061
▁कवायद	-7062
▁अत्यन्त	-7063
फ़र	-7064
▁ड़	-7065
म्बई	-7066
▁कमल	-7067
▁पारि	-7068
क्षकों	-7069
▁जापान	-7070
▁तलाशी	-7071
▁निंदा	-7072
▁मुकदमों	-7073
ल्य	-7074
▁धू	-7075
विंग	-7076
▁आधा	-7077
▁लेबर	-7078
▁ढांचा	-7079
▁सुशील	-7080
▁सैन्य	-7081
▁स्टाफ	-7082
▁पुराना	-7083
▁पासपोर्ट	-7084
▁किलोग्राम	-7085
▁श्वे	-7086
▁बांग्ला	-7087
प्रद	-7088
▁डिज़	-7089
▁नज़र	-7090
▁राजभाषा	-7091
▁केंद्रों	-7092
▁प्रतिभूत	-7093
▁हानिकारक	-7094
▁सिग	-7095
▁चावल	-7096
▁विद्रोह	-7097
▁दोषपूर्ण	-7098
ीर्ण	-7099
▁दाग	-7100
▁शुक्	-7101
▁इलाके	-7102
▁बिंदुओं	-7103
▁समवर्ती	-7104
लिप	-7105
▁बम	-7106
स्तानी	-7107
▁सार्वभौ	-7108
▁प्रतिष्ठान	-7109
▁मंग	-7110
▁ट्यूब	-7111
▁स्मरण	-7112
▁बैच	-7113
क्तिक	-7114
▁पोजी	-7115
▁मुझसे	-7116
▁हार्ड	-7117
ice	-7118
गोलिक	-7119
▁इंतजार	-7120
▁उद्यान	-7121
▁सहानुभूति	-7122
बेन	-7123
▁माला	-7124
थन	-7125
▁खपत	-7126
▁नाल	-7127
▁साध	-7128
▁दुःख	-7129
▁दशकों	-7130
▁मसौदा	-7131
▁प्रशिक्षित	-7132
तरी	-7133
हारी	-7134
▁गुरू	-7135
▁लेबल	-7136
▁साहब	-7137
▁पड़ती	-7138
ार्थियों	-7139
ईसी	-7140
▁ऑपर	-7141
▁वस्तुएं	-7142
▁संभावनाओं	-7143
बान	-7144
गांव	-7145
▁एन्	-7146
संचार	-7147
▁सीखी	-7148
▁लगाते	-7149
▁सीखने	-7150
▁समर्पण	-7151
हार्	-7152
▁नक्	-7153
▁संभोग	-7154
▁AS	-7155
राइट	-7156
▁एसपी	-7157
▁गुणा	-7158
▁फोरम	-7159
▁भौगोलिक	-7160
th	-7161
▁लेट	-7162
▁दिखाए	-7163
▁पशुओं	-7164
▁बोलते	-7165
▁संकीर्ण	-7166
बली	-7167
ोज़	-7168
▁सोल	-7169
▁चाचा	-7170
▁सुलह	-7171
▁शानदार	-7172
▁पेट्रोलियम	-7173
ंती	-7174
ट्र	-7175
▁Ad	-7176
▁सुधारने	-7177
कीन	-7178
▁नु	-7179
▁मौजूदगी	-7180
चाना	-7181
▁कर्मियों	-7182
परि	-7183
▁रज	-7184
▁कट्	-7185
▁बोध	-7186
▁आरटी	-7187
▁मुहर	-7188
▁विस्फोट	-7189
▁ईमानदारी	-7190
ev	-7191
वण	-7192
लास	-7193
▁धान	-7194
▁मेरिट	-7195
▁वादों	-7196
aya	-7197
▁उपय	-7198
▁उतनी	-7199
▁वरीयता	-7200
▁परिप्रेक्ष्य	-7201
▁लगते	-7202
▁समेकित	-7203
▁प्रतिनिय	-7204
▁यात्रियों	-7205
▁उत्तरदायित्व	-7206
देह	-7207
▁भक्त	-7208
▁प्रपत्र	-7209
▁लक्ष्मण	-7210
▁पाठ्यक्रमों	-7211
पने	-7212
िमा	-7213
बंदी	-7214
▁लंदन	-7215
▁अभिगम	-7216
▁छोड़ा	-7217
▁संदेय	-7218
▁अमरीकी	-7219
▁पुनरावृत्ति	-7220
शोथ	-7221
▁Exh	-7222
▁रॉय	-7223
▁डॉलर	-7224
▁नायक	-7225
▁पैकेट	-7226
▁विनोद	-7227
▁अनुक्रम	-7228
▁बदला	-7229
▁विकि	-7230
▁स्वाय	-7231
▁घनिष्ठ	-7232
▁इंजीनियर	-7233
ोब	-7234
दनी	-7235
लीन	-7236
पुरा	-7237
▁घूम	-7238
▁घोर	-7239
▁नोस	-7240
▁कैंसर	-7241
▁पड़ोस	-7242
▁तत्त्व	-7243
▁पोजीशन	-7244
▁निर्वाह	-7245
▁संशोधनों	-7246
ID	-7247
▁राधा	-7248
▁जर्मनी	-7249
▁नवीकरण	-7250
▁फ़ोल्डर	-7251
▁जुल	-7252
▁मानवता	-7253
▁रिजर्व	-7254
▁सेक्शन	-7255
हो	-7256
▁Ram	-7257
▁मरी	-7258
▁पार्श्व	-7259
▁भाष	-7260
▁पीठा	-7261
ेज़	-7262
▁Sec	-7263
▁स्ने	-7264
▁खंडों	-7265
▁फस	-7266
द्दी	-7267
▁काटने	-7268
▁बढ़ता	-7269
▁यातना	-7270
▁रिमांड	-7271
▁सतत	-7272
▁विजे	-7273
▁बिस्त	-7274
▁दूरस्थ	-7275
▁जाएँ	-7276
▁बेहद	-7277
▁मिसाल	-7278
▁वकालत	-7279
▁पूर्णता	-7280
स्राव	-7281
▁जबरन	-7282
▁बोतल	-7283
▁सड़कों	-7284
▁शिक्षित	-7285
वेल	-7286
▁फ्रांस	-7287
▁ar	-7288
▁दौड़	-7289
▁बनना	-7290
▁आंखों	-7291
▁प्रोजे	-7292
▁परिपक्व	-7293
▁महाभारत	-7294
▁गर्व	-7295
▁दांत	-7296
▁दोनो	-7297
रीश	-7298
कलापों	-7299
▁इस्ती	-7300
▁कागजात	-7301
▁भावनाओं	-7302
▁गुम	-7303
▁मेघ	-7304
▁रोशनी	-7305
▁सुलझा	-7306
▁उत्पादक	-7307
▁खिल	-7308
▁साहू	-7309
▁प्रभार्य	-7310
▁बडी	-7311
▁माय	-7312
▁गर्मी	-7313
▁पवन	-7314
▁एनडी	-7315
▁कहकर	-7316
▁उन्होने	-7317
▁किन्हीं	-7318
▁VII	-7319
▁पैटर्न	-7320
नक	-7321
▁लाह	-7322
▁उकसा	-7323
▁सवालों	-7324
▁उधारकर्ता	-7325
जीवी	-7326
▁अंब	-7327
▁भोग	-7328
▁आएगा	-7329
▁पचास	-7330
▁किरायेदारी	-7331
िनेशन	-7332
▁गहरे	-7333
▁ग्रा	-7334
▁देनी	-7335
▁एकत्रित	-7336
▁अभिलाभ	-7337
▁मिश्रण	-7338
▁अंग्रेज	-7339
▁धन्यवाद	-7340
▁सशस्त्र	-7341
wan	-7342
मंड	-7343
▁इल	-7344
संरचना	-7345
▁स्क्र	-7346
▁दुर्गा	-7347
▁सम्बंध	-7348
▁रिकार्ड	-7349
ज़े	-7350
▁विज	-7351
▁महानिदेशक	-7352
ँग	-7353
▁चुनें	-7354
▁जमींद	-7355
▁पालिसी	-7356
▁अभिनिर्	-7357
▁राकेश	-7358
▁पीड़ितों	-7359
▁मुर	-7360
▁निभाई	-7361
▁मजदूर	-7362
▁जवाहरलाल	-7363
AP	-7364
▁ईरान	-7365
▁काल्प	-7366
▁भगवान्	-7367
▁निष्पक्षता	-7368
▁परिवर्तनों	-7369
CC	-7370
▁शर	-7371
▁आयी	-7372
▁गेट	-7373
▁हाथी	-7374
▁उपयोगिता	-7375
▁काल्पनिक	-7376
मंद	-7377
ष्णा	-7378
▁याची	-7379
▁परिदृश्य	-7380
▁लेनदारों	-7381
तो	-7382
स्सी	-7383
▁हजारों	-7384
▁समुदायों	-7385
▁चुनौतियों	-7386
▁एल्	-7387
▁भारती	-7388
▁जायेगी	-7389
▁मिश्रित	-7390
▁बं	-7391
▁अजय	-7392
▁हसन	-7393
▁आपसे	-7394
▁कहाँ	-7395
▁ब्रह्	-7396
खाना	-7397
▁लिपि	-7398
▁संयम	-7399
▁सूजन	-7400
▁बेंगल	-7401
▁विच्छेद	-7402
▁तू	-7403
▁१८	-7404
▁नोटों	-7405
▁फैक्ट	-7406
▁पुरुषों	-7407
▁यांत्रिक	-7408
▁कौर	-7409
▁भरत	-7410
▁गणेश	-7411
▁स्नात	-7412
▁सार्थक	-7413
चु	-7414
▁at	-7415
्यूम	-7416
▁सख्ती	-7417
▁वर्जित	-7418
▁बंदरगाह	-7419
राने	-7420
▁परेड	-7421
▁चौहान	-7422
▁सौहार्	-7423
▁कॉर	-7424
▁बड़	-7425
वाहाटी	-7426
्यवहार	-7427
▁रोगों	-7428
▁शान्त	-7429
▁तर्कसंगत	-7430
ूण	-7431
श्रे	-7432
▁एकदम	-7433
▁मंशा	-7434
▁मुगल	-7435
▁पुरूष	-7436
▁विवरणी	-7437
▁सत्यता	-7438
▁समझाने	-7439
▁ज्यादातर	-7440
▁दूरसंचार	-7441
▁ग्रामीणों	-7442
ायण	-7443
▁एजी	-7444
▁वाद्य	-7445
▁जरूरतों	-7446
▁विद्वानों	-7447
ef	-7448
▁बेचा	-7449
▁समता	-7450
▁अधिवक्ताओं	-7451
▁प्रतिरक्षा	-7452
▁कुलपति	-7453
▁पूर्णतः	-7454
▁गुवाहाटी	-7455
▁एंटी	-7456
▁अविश्व	-7457
▁ऑपरेशन	-7458
▁निर्माताओं	-7459
प्स	-7460
▁सम्भव	-7461
▁पहुँचा	-7462
▁अंतर्वि	-7463
▁निवेशकों	-7464
▁प्रभावशाली	-7465
▁चक	-7466
्रीट	-7467
▁अज्ञान	-7468
▁गरि	-7469
▁इशारा	-7470
तें	-7471
▁टाटा	-7472
व्यापी	-7473
▁आंकड़ों	-7474
▁दिलचस्पी	-7475
▁पुनर्मूल	-7476
कन	-7477
नस	-7478
▁इम	-7479
▁ब्रे	-7480
▁निष्ठा	-7481
▁मैट्रिक	-7482
▁वक्तव्य	-7483
▁संस्कार	-7484
▁सौंपे	-7485
▁जानवरों	-7486
▁उपभोक्ताओं	-7487
बंद	-7488
ूरों	-7489
▁अपन	-7490
▁बंगल	-7491
▁निकालना	-7492
▁अपराधियों	-7493
▁विशेषताओं	-7494
रिफ	-7495
▁तार्किक	-7496
एसई	-7497
क्की	-7498
छाड़	-7499
▁घाट	-7500
र्वेद	-7501
▁तालाब	-7502
▁उद्धरण	-7503
▁Go	-7504
▁झु	-7505
▁पढ	-7506
िवर्तन	-7507
▁अवरोध	-7508
र्ध	-7509
▁Bha	-7510
▁महल	-7511
▁चुकता	-7512
▁शिल्प	-7513
▁होल्डिंग	-7514
▁बिग	-7515
▁बाधित	-7516
▁धारकों	-7517
▁नियोजन	-7518
▁कार्यान्वित	-7519
चाप	-7520
ढ़ा	-7521
द्रिक	-7522
▁निया	-7523
▁परिचालन	-7524
मिया	-7525
▁बलि	-7526
▁बढ़कर	-7527
ापरी	-7528
▁जुटा	-7529
▁लोकसभा	-7530
▁मणि	-7531
▁अरुण	-7532
▁दार्	-7533
▁सामु	-7534
▁महाप्र	-7535
▁to	-7536
कर्म	-7537
▁ओपी	-7538
स्टीट	-7539
▁कॉरपो	-7540
▁जवाबी	-7541
▁निरूप	-7542
▁अदालतें	-7543
▁सुसज्जित	-7544
▁प्लास्टिक	-7545
▁दुर्व्यवहार	-7546
▁Rai	-7547
▁पीएम	-7548
▁कट्टर	-7549
▁तुर्की	-7550
▁सौहार्द	-7551
कलाप	-7552
▁बिस्तर	-7553
▁डाउनलोड	-7554
▁दोषसिद्धि	-7555
▁गह	-7556
▁घाटी	-7557
▁रैंक	-7558
▁लोहे	-7559
ायुक्त	-7560
▁पिछड़े	-7561
याव	-7562
▁CC	-7563
▁लल	-7564
ण्डिक	-7565
▁एसडी	-7566
▁वेंकट	-7567
▁आश्रित	-7568
▁लड़कियों	-7569
जरी	-7570
न्ध	-7571
▁तंबाकू	-7572
ast	-7573
▁तम	-7574
▁ख्या	-7575
▁गार्ड	-7576
▁परिसी	-7577
▁गवर्नर	-7578
▁घुस	-7579
▁विवश	-7580
▁डाक्टर	-7581
▁शाखाओं	-7582
khand	-7583
▁गद्य	-7584
च्युटी	-7585
▁सोचते	-7586
▁विशुद्ध	-7587
▁पुनर्मूल्यांकन	-7588
▁समू	-7589
▁अस्थि	-7590
▁ऑडियो	-7591
▁सम्पर्क	-7592
मारक	-7593
▁आईओ	-7594
▁उपरा	-7595
▁कोमल	-7596
▁बंबई	-7597
▁गोविंद	-7598
पॉ	-7599
कक्ष	-7600
वास्तव	-7601
▁टिकाऊ	-7602
DD	-7603
▁चौथे	-7604
▁फार्	-7605
▁प्रताप	-7606
▁उत्तीर्ण	-7607
ुगु	-7608
▁बुल	-7609
▁एमपी	-7610
▁अक्षर	-7611
▁दुकानों	-7612
▁पर्यवेक्षण	-7613
पेट	-7614
▁Ka	-7615
▁गरिमा	-7616
▁बढ़ाकर	-7617
▁मजदूरों	-7618
▁पट्टेदार	-7619
▁अविश्वसनीय	-7620
सेट	-7621
▁फौ	-7622
▁बेस	-7623
नेशनल	-7624
▁शल्य	-7625
▁सम्रा	-7626
▁सिन्हा	-7627
▁उत्पत्ति	-7628
▁बोलीदाता	-7629
▁प्रणालियों	-7630
▁उदय	-7631
▁सती	-7632
▁पढ़ना	-7633
▁डिज़ाइन	-7634
▁मार्केट	-7635
▁अंग्रेजों	-7636
शित	-7637
ल्लू	-7638
ख्यान	-7639
▁ग्या	-7640
▁चंडी	-7641
▁छिपा	-7642
▁एग्जाम	-7643
▁दिलचस्प	-7644
बरा	-7645
ावी	-7646
▁कम्	-7647
▁पेय	-7648
▁सिम	-7649
▁रिवा	-7650
▁भाइयों	-7651
▁मुख्यालय	-7652
▁प्रतिबद्धता	-7653
▁चूँ	-7654
▁पड़ने	-7655
▁श्रीवास्तव	-7656
agar	-7657
▁एटी	-7658
▁घाय	-7659
▁अमृत	-7660
▁दार्शन	-7661
▁गांधीजी	-7662
▁प्रतिफल	-7663
▁प्रवर्त	-7664
▁ग्रेच्युटी	-7665
▁मुख्यमंत्री	-7666
▁IO	-7667
▁झि	-7668
ोर्ट	-7669
▁अफग	-7670
▁चौक	-7671
▁गड़ब	-7672
▁अनुया	-7673
▁कीटों	-7674
▁तृतीय	-7675
▁प्रतिरोध	-7676
जिन	-7677
▁मील	-7678
द्वीप	-7679
▁मुना	-7680
▁शासक	-7681
ियोग्राफी	-7682
▁उपक्रमों	-7683
▁रिश्तेदारों	-7684
▁अभिनिर्धारित	-7685
डन	-7686
लाइ	-7687
ैण्ड	-7688
▁अहि	-7689
▁उच्	-7690
▁जबरद	-7691
▁मारे	-7692
▁निराशा	-7693
▁ड्राफ्ट	-7694
▁ST	-7695
▁अच	-7696
▁मध	-7697
वाना	-7698
▁विनिया	-7699
▁अवसंरचना	-7700
▁विपक्ष	-7701
▁पीठासीन	-7702
▁संगत	-7703
▁कराधान	-7704
▁योजनाएं	-7705
▁छाती	-7706
▁जीवों	-7707
▁स्त्रियों	-7708
रेन	-7709
▁कुटु	-7710
▁चलाई	-7711
▁तीर्थ	-7712
▁Prakhand	-7713
▁निरपेक्ष	-7714
यंती	-7715
▁कन्व	-7716
▁प्रॉ	-7717
▁फसलों	-7718
▁मांगा	-7719
▁वैदिक	-7720
▁शुरूआ	-7721
▁सभापति	-7722
▁विसंगति	-7723
▁दुर्भावना	-7724
▁सम्मन	-7725
▁घायलों	-7726
▁कारखाने	-7727
▁सेंट्रल	-7728
▁परिसमापक	-7729
▁अप्रासंगिक	-7730
िद	-7731
▁Ra	-7732
▁मेज	-7733
▁महतो	-7734
▁वादा	-7735
▁गुजरने	-7736
▁स्वाधीन	-7737
▁पारदर्शिता	-7738
▁प्रतिपूर्ति	-7739
मुच	-7740
ांप	-7741
▁गुट	-7742
▁टैंक	-7743
▁सीएस	-7744
▁हाइड	-7745
▁गर्भा	-7746
▁परिधि	-7747
▁फ्रेम	-7748
▁दार्शनिक	-7749
▁अपेक्षाकृत	-7750
▁वैज्ञानिकों	-7751
वेश	-7752
▁घन	-7753
म्बी	-7754
▁पद्	-7755
▁रूस	-7756
▁गौतम	-7757
▁आस्था	-7758
▁दिनेश	-7759
▁सम्बन्धित	-7760
ED	-7761
▁MP	-7762
▁अमल	-7763
▁सरो	-7764
▁माइक्रो	-7765
▁सचिवालय	-7766
▁विचारधारा	-7767
प्न	-7768
▁अम्	-7769
▁अरो	-7770
▁स्तन	-7771
▁लेखकों	-7772
▁नामांकित	-7773
▁An	-7774
प्ले	-7775
▁अहं	-7776
्रमिक	-7777
▁भाष्	-7778
▁लगाकर	-7779
▁एह	-7780
▁आँख	-7781
▁वॉल	-7782
▁निराश	-7783
▁सहभाग	-7784
▁माध्यस्थम्	-7785
▁पुल	-7786
▁चूँकि	-7787
▁फर्जी	-7788
ंगों	-7789
पोषण	-7790
षिद्ध	-7791
▁पाये	-7792
▁गिराव	-7793
▁अवार्ड	-7794
▁पहचाना	-7795
▁स्वायत्त	-7796
▁विवेकाधीन	-7797
राई	-7798
वर्ष	-7799
यक्तिक	-7800
▁आखिरकार	-7801
▁रिज़र्व	-7802
फ्र	-7803
वीय	-7804
▁मठ	-7805
▁बडे	-7806
▁अश्व	-7807
▁प्रासंगिकता	-7808
जान	-7809
▁ऊतक	-7810
धिकारी	-7811
▁राष्ट्रों	-7812
▁शेयरधारकों	-7813
JC	-7814
ड़ना	-7815
▁व्यथित	-7816
▁मित्रों	-7817
▁अंडर	-7818
▁अद्व	-7819
▁पीटा	-7820
▁वन्य	-7821
▁उद्यमों	-7822
▁उपाध्यक्ष	-7823
▁व्युत्पन्न	-7824
▁AG	-7825
▁CH	-7826
▁चमक	-7827
▁मैच	-7828
▁झूठी	-7829
▁लिखना	-7830
ंजस्य	-7831
▁खदान	-7832
▁कार्बन	-7833
▁कुशलता	-7834
▁लाभांश	-7835
▁व्याख्याता	-7836
▁सामान्यतया	-7837
▁एजु	-7838
▁जगदी	-7839
▁ध्वज	-7840
▁लौटने	-7841
जारी	-7842
▁हमे	-7843
▁आर्य	-7844
▁राजकुमार	-7845
ओएस	-7846
रणीय	-7847
▁सच्चे	-7848
▁चौड़ाई	-7849
शाही	-7850
▁कॉलम	-7851
▁पारिश	-7852
▁प्लॉट	-7853
▁गिरावट	-7854
▁टाइम्स	-7855
▁डिजिटल	-7856
▁लाभकारी	-7857
▁अग्रेषित	-7858
▁वाम	-7859
▁आईडी	-7860
▁घृणा	-7861
▁गर्भपात	-7862
CT	-7863
ारायण	-7864
▁क्ले	-7865
राग	-7866
िडे	-7867
ापित	-7868
दर्शक	-7869
▁आजीव	-7870
▁एसआर	-7871
▁विधा	-7872
▁आभूषण	-7873
▁ज़मीन	-7874
▁टुकड़ा	-7875
▁दिखाता	-7876
▁संबद्धता	-7877
▁संस्थागत	-7878
▁आपत्तियां	-7879
▁एग्जामिनेशन	-7880
नान	-7881
▁वेश	-7882
▁कमांड	-7883
▁श्याम	-7884
▁आकांक्षा	-7885
▁आस्तियों	-7886
▁बुध	-7887
▁पढ़ाई	-7888
▁अपशिष्ट	-7889
▁प्रोटोक	-7890
▁छेड़छाड़	-7891
▁शास्त्री	-7892
▁सांविधिक	-7893
ितु	-7894
ॉरिटी	-7895
▁किरण	-7896
▁ओपन	-7897
▁मूर्	-7898
▁लड़ा	-7899
▁सारणी	-7900
▁बैठकों	-7901
▁लक्ष्यों	-7902
ma	-7903
टिक	-7904
▁शक	-7905
▁पहने	-7906
▁बंदी	-7907
▁चाहूंगा	-7908
ंचल	-7909
जाल	-7910
मेय	-7911
ूनों	-7912
▁सूचनाओं	-7913
मोट	-7914
▁Sh	-7915
▁बृ	-7916
▁कृति	-7917
▁देखो	-7918
▁पाइप	-7919
▁अर्जन	-7920
▁अलगाव	-7921
▁ब्लैक	-7922
▁इस्पात	-7923
▁लाभार्थी	-7924
ँस	-7925
सरा	-7926
ावन	-7927
कारा	-7928
▁असी	-7929
▁खबर	-7930
▁गोर	-7931
▁मुफ्त	-7932
▁विघटन	-7933
▁समकालीन	-7934
▁विनियामक	-7935
▁DI	-7936
मुखी	-7937
▁सफाई	-7938
▁सिने	-7939
▁जयंती	-7940
▁टेंडर	-7941
▁मिलना	-7942
▁संवेद	-7943
▁मुकाबले	-7944
▁लीग	-7945
▁दायरा	-7946
▁सचमुच	-7947
▁वाक्या	-7948
▁ससुराल	-7949
▁पारिश्रमिक	-7950
▁उठाते	-7951
▁प्रभु	-7952
▁नदियों	-7953
▁दाण्डिक	-7954
▁संवेदनशील	-7955
ख्	-7956
▁दिखाते	-7957
▁निपटाने	-7958
▁सामंजस्य	-7959
war	-7960
▁रॉ	-7961
▁हॉल	-7962
▁गिना	-7963
क्रामक	-7964
▁जगदीश	-7965
▁टर्मिनल	-7966
▁परिकल्पित	-7967
पूरक	-7968
▁जीओ	-7969
▁ताज	-7970
▁तत्पर	-7971
श्रेष्ठ	-7972
▁बढ़ाना	-7973
▁कैल	-7974
▁छोड	-7975
▁पढ़ता	-7976
▁Raipur	-7977
▁अनुप्रयोगों	-7978
प्टी	-7979
रियर	-7980
▁गले	-7981
▁चरस	-7982
▁बसव	-7983
▁किंग	-7984
▁सूरत	-7985
▁विनिधान	-7986
▁विन्यास	-7987
▁निवासियों	-7988
OM	-7989
▁घुट	-7990
▁जानना	-7991
▁अथॉरिटी	-7992
▁दिसम्बर	-7993
ूद	-7994
▁छुपा	-7995
▁पक्षी	-7996
▁संकलन	-7997
▁नरेंद्र	-7998
▁मौद्रिक	-7999
एटी	-8000
▁सहेज	-8001
▁पार्सल	-8002
ोनें	-8003
ोरिया	-8004
▁बढ़ी	-8005
▁गिनती	-8006
▁जाएंगी	-8007
▁अत्याचार	-8008
▁पुस्तकाल	-8009
▁मक्	-8010
▁सुद	-8011
प्राय	-8012
▁अंडे	-8013
▁कालेज	-8014
▁अपरिवर्त	-8015
एमई	-8016
बेस	-8017
▁टॉ	-8018
▁ढेर	-8019
▁माँग	-8020
▁हल्के	-8021
▁उच्चार	-8022
▁जायेंगे	-8023
▁कठिनाइयों	-8024
est	-8025
▁ऊँ	-8026
ाराम	-8027
ार्इ	-8028
▁परत	-8029
सूत्र	-8030
▁मादा	-8031
▁वैसा	-8032
▁सौंद	-8033
▁ब्राउ	-8034
▁निकलता	-8035
▁तप	-8036
▁पन	-8037
▁इंट	-8038
▁उलट	-8039
▁डिली	-8040
▁सूरज	-8041
▁तुच्छ	-8042
▁वनस्पति	-8043
▁परामर्शदाता	-8044
AS	-8045
नीत	-8046
▁घों	-8047
▁नर्म	-8048
▁मानस	-8049
▁हुईं	-8050
▁ज़रूर	-8051
▁सृजित	-8052
चिक	-8053
▁आईं	-8054
▁ग्व	-8055
▁मित	-8056
▁आजाद	-8057
▁ईमेल	-8058
▁गोरा	-8059
▁सकने	-8060
▁इंदिरा	-8061
▁नवम्बर	-8062
▁पंजाबी	-8063
▁आजीविका	-8064
▁खर	-8065
शिंग	-8066
▁पाग	-8067
क्तता	-8068
▁डीआर	-8069
▁वैष्ण	-8070
▁श्वेत	-8071
▁नॉ	-8072
▁ओडि	-8073
▁गंध	-8074
▁क्रय	-8075
▁टीका	-8076
▁अपूर्ण	-8077
▁सीमेंट	-8078
▁कंट्रोल	-8079
▁मुख्यतः	-8080
गरी	-8081
ुरी	-8082
▁MD	-8083
न्ने	-8084
▁कोर	-8085
▁अभिभाव	-8086
▁आश्वस्त	-8087
▁संकल्पना	-8088
▁वीडियोग्राफी	-8089
BI	-8090
तृक	-8091
पार	-8092
▁मदन	-8093
▁चट्ट	-8094
▁लेगा	-8095
▁शुरूआत	-8096
▁स्पर्श	-8097
▁मांसपेश	-8098
▁वाक्यांश	-8099
▁एक्सप्रेस	-8100
पर्य	-8101
▁कनाडा	-8102
▁जिसको	-8103
▁स्नेह	-8104
▁यूजीसी	-8105
टरी	-8106
▁रन	-8107
▁कोण	-8108
▁ठहर	-8109
▁अनुदेश	-8110
▁नस्ल	-8111
▁कनिष्ठ	-8112
▁कार्यकर्ता	-8113
कोष	-8114
▁नल	-8115
ेडकर	-8116
हीनता	-8117
▁वृत्त	-8118
्ति	-8119
▁दंत	-8120
▁बाबा	-8121
▁आबंटन	-8122
▁आयुर्वेद	-8123
▁पान	-8124
▁बेची	-8125
▁मनोज	-8126
▁ग्यारह	-8127
▁दृढ़ता	-8128
▁निरर्थ	-8129
▁रामायण	-8130
▁सम्पाद	-8131
▁स्टांप	-8132
▁बल्लेबाज	-8133
ff	-8134
क़्	-8135
वाँ	-8136
▁मैन	-8137
▁कोने	-8138
▁ग्रीन	-8139
▁एस्टेट	-8140
▁ध्वस्त	-8141
▁प्रक्रम	-8142
▁पुस्तकें	-8143
गांठ	-8144
स्तु	-8145
▁टेप	-8146
▁अर्जुन	-8147
▁एससीआर	-8148
▁बाध्यता	-8149
स्म	-8150
▁SL	-8151
त्रि	-8152
▁संको	-8153
▁हर्ष	-8154
तन्त्र	-8155
▁निकला	-8156
▁प्रमो	-8157
▁विकासशील	-8158
▁भागीदारों	-8159
▁संविदात्मक	-8160
ंटा	-8161
▁गला	-8162
▁शेर	-8163
क़्ति	-8164
▁माहौल	-8165
▁रिपोर्टों	-8166
ock	-8167
sad	-8168
▁थाना	-8169
▁इंस्टीट	-8170
▁संतुलित	-8171
▁Resident	-8172
▁जागरूकता	-8173
▁प्रतियों	-8174
▁सर्वश्रेष्ठ	-8175
मूल्य	-8176
▁मोदी	-8177
▁अकादमी	-8178
▁चित्रित	-8179
▁देवताओं	-8180
▁अधिनियमन	-8181
शुदा	-8182
▁सास	-8183
▁सैक	-8184
▁बढ़ना	-8185
▁लिखते	-8186
▁वारिस	-8187
▁रूपांतरण	-8188
▁प्रतिस्थापन	-8189
ath	-8190
▁पठन	-8191
▁बिन	-8192
▁अनन्त	-8193
▁जानती	-8194
▁दुर्ग	-8195
▁प्रभा	-8196
▁आकर्षक	-8197
ोकन	-8198
▁असु	-8199
▁बिर	-8200
▁कुरान	-8201
▁प्रां	-8202
▁संयोग	-8203
▁पर्यावरणीय	-8204
▁पाउ	-8205
▁नरेश	-8206
▁बाढ़	-8207
▁पैतृक	-8208
▁लिप्त	-8209
▁अभिन्न	-8210
ानिस्तान	-8211
▁सहयोगियों	-8212
इंड	-8213
िवि	-8214
▁फू	-8215
▁Exs	-8216
▁बटन	-8217
▁कन्न	-8218
▁कबीर	-8219
▁वांछित	-8220
▁संग्रहालय	-8221
▁न्यायशास्त्र	-8222
ht	-8223
▁कृपा	-8224
कोत्तर	-8225
▁थोड़े	-8226
▁निकले	-8227
▁कृष्णा	-8228
▁क्लर्क	-8229
वर्	-8230
▁चिर	-8231
▁आगामी	-8232
▁स्पॉट	-8233
▁अभ्याव	-8234
▁पारदर्शी	-8235
ee	-8236
१९	-8237
▁फ़ॉ	-8238
▁संब	-8239
▁असाइन	-8240
▁यथोचित	-8241
▁प्रचालन	-8242
▁प्राइमा	-8243
▁समस्याएं	-8244
▁सामुदायिक	-8245
मास	-8246
▁छीन	-8247
▁श्रो	-8248
▁अपनाए	-8249
▁दीप	-8250
▁दिखाना	-8251
▁तारीखों	-8252
▁रूपरेखा	-8253
ga	-8254
दाई	-8255
▁ढल	-8256
▁अनुकरण	-8257
▁विदेशों	-8258
▁इंटरनेशनल	-8259
▁सिफारिशें	-8260
▁हिस्सेदारी	-8261
▁आशी	-8262
▁हनु	-8263
▁कराए	-8264
▁संग्रहण	-8265
▁पूर्वगामी	-8266
▁आत्मविश्वास	-8267
प्प	-8268
बिल	-8269
▁फेफ	-8270
न्नाथ	-8271
▁एसएच	-8272
▁जलने	-8273
▁अनुमत	-8274
▁सिंगा	-8275
▁उत्कृष्टता	-8276
▁Bl	-8277
बीसी	-8278
शंकर	-8279
▁मजबू	-8280
▁पुष्प	-8281
▁मूर्त	-8282
▁लम्बे	-8283
्रेताओं	-8284
▁डिप्टी	-8285
▁पकड़ने	-8286
▁सुन्दर	-8287
▁पुरी	-8288
▁सन्न	-8289
▁प्राणी	-8290
▁सैनिकों	-8291
काना	-8292
▁बेट	-8293
▁ट्रक	-8294
▁आश्रय	-8295
▁भरोसे	-8296
▁उत्सुक	-8297
▁सांप्र	-8298
PS	-8299
ैस	-8300
टीय	-8301
दूत	-8302
▁वध	-8303
▁चिन	-8304
▁पाना	-8305
िक्षेप	-8306
▁अभिकरण	-8307
▁उन्नयन	-8308
ow	-8309
ुड	-8310
ोग्राफ	-8311
▁दर्जा	-8312
▁धब्बे	-8313
▁पैरों	-8314
▁जटिलता	-8315
वैज्ञानिक	-8316
▁ड्राइविंग	-8317
▁स्नातकोत्तर	-8318
ंडे	-8319
▁यान	-8320
▁एसएस	-8321
▁नकार	-8322
na	-8323
विट	-8324
पड़ी	-8325
▁बचे	-8326
▁ऋणों	-8327
▁बेगम	-8328
▁व्यास	-8329
▁वांछनीय	-8330
▁राज्यक्षेत्र	-8331
वृ	-8332
▁पागल	-8333
▁सीपी	-8334
चन्द्र	-8335
▁अर्थों	-8336
▁पराजित	-8337
▁नवीनीकरण	-8338
घन	-8339
विड	-8340
माला	-8341
ांडिक	-8342
▁निकासी	-8343
▁चुनावों	-8344
▁वॉ	-8345
न्नी	-8346
▁तंग	-8347
▁घटित	-8348
नाइटेड	-8349
▁संप्रदाय	-8350
▁प्रतिनियुक्ति	-8351
▁एक्स्ट	-8352
▁संगणना	-8353
▁पठ	-8354
▁असल	-8355
▁देखरेख	-8356
▁प्रशंस	-8357
▁विडियो	-8358
थाम	-8359
▁केबल	-8360
▁पुणे	-8361
▁मेहन	-8362
▁स्पे	-8363
▁तेलंग	-8364
▁लाखों	-8365
▁संचित	-8366
▁इन्द्र	-8367
▁नवीनतम	-8368
▁प्रामा	-8369
▁तुम्हारी	-8370
▁किरायेदारों	-8371
याल	-8372
▁Ma	-8373
▁ऊंची	-8374
▁फायर	-8375
▁संगणक	-8376
▁जगन्नाथ	-8377
EL	-8378
भाषण	-8379
▁वाक	-8380
शुल्क	-8381
▁लेखापरी	-8382
▁संग्राम	-8383
▁वैयक्तिक	-8384
रियल	-8385
▁हंस	-8386
▁दवाओं	-8387
▁धाराओं	-8388
▁भ्रामक	-8389
▁नियमावली	-8390
▁परंपरागत	-8391
ंगन	-8392
▁भीम	-8393
▁सितम्बर	-8394
▁वसीयतकर्ता	-8395
हाल	-8396
▁चट	-8397
▁सज	-8398
▁मज़	-8399
▁साई	-8400
▁अखंड	-8401
▁कीटनाशक	-8402
▁डिलीवरी	-8403
▁शांतिपूर्ण	-8404
ुरा	-8405
ष्टा	-8406
▁माद	-8407
▁लोप	-8408
▁ठहराए	-8409
▁नियमन	-8410
र्थियों	-8411
▁Prasad	-8412
▁उन्नति	-8413
▁कानपुर	-8414
▁सौंदर्य	-8415
▁उत्तेजित	-8416
र्टी	-8417
र्निंग	-8418
▁अन्तिम	-8419
▁समकक्ष	-8420
▁सांप्रदायिक	-8421
▁भि	-8422
प्ली	-8423
शब्द	-8424
▁तालुका	-8425
▁नियामक	-8426
▁घोषणाओं	-8427
▁भिन्नता	-8428
किट	-8429
▁भै	-8430
▁सिख	-8431
▁इसको	-8432
▁पहुँचे	-8433
▁कंपनियां	-8434
▁कॉपीराइट	-8435
म्य	-8436
ाग्र	-8437
▁पोल	-8438
▁विट	-8439
▁हरा	-8440
▁आपदा	-8441
▁ध्रु	-8442
जेक्शन	-8443
▁बेकार	-8444
▁रोगियों	-8445
▁सिंगापुर	-8446
▁रक्तस्राव	-8447
▁सार्वभौमिक	-8448
▁आदर	-8449
▁इंच	-8450
▁छेद	-8451
▁पदा	-8452
▁क़्यों	-8453
▁संवर्ग	-8454
▁फ्रैक्चर	-8455
▁सुविधाजनक	-8456
▁करों	-8457
▁मेहता	-8458
▁उदासीन	-8459
▁उपग्रह	-8460
▁पालिका	-8461
▁बेंगलुरु	-8462
▁अभ्यावेदन	-8463
▁इंजीनियरी	-8464
ष्म	-8465
▁आल	-8466
पमेंट	-8467
▁आगमन	-8468
▁डाली	-8469
▁दीपक	-8470
▁ओडिशा	-8471
▁कवियों	-8472
▁संकोच	-8473
▁दांडिक	-8474
▁स्वप्न	-8475
▁अधिवेशन	-8476
▁शिकायतें	-8477
▁इंडस्ट्री	-8478
ेग	-8479
लैंड	-8480
▁वरन्	-8481
▁भागने	-8482
▁असफलता	-8483
▁अकादमिक	-8484
गीर	-8485
न्तर	-8486
वाड़	-8487
▁ह्र	-8488
▁असुर	-8489
▁वासी	-8490
▁कोयले	-8491
बंधक	-8492
्रेटर	-8493
▁आगरा	-8494
▁कामों	-8495
▁विचलन	-8496
▁रचनाओं	-8497
MC	-8498
१क	-8499
▁u	-8500
डीएस	-8501
▁विड	-8502
▁समाह	-8503
▁रवाना	-8504
▁चंडीगढ़	-8505
▁तस्वीरें	-8506
किम	-8507
▁राइ	-8508
▁रोल	-8509
▁वाई	-8510
▁जंगली	-8511
▁अंतरित	-8512
्वरी	-8513
▁ऊंचे	-8514
▁जिक्र	-8515
▁राशियों	-8516
▁क्रांतिक	-8517
▁तेलंगाना	-8518
एक	-8519
रीन	-8520
यालय	-8521
▁आदत	-8522
▁उच्चारण	-8523
▁फोरेंसिक	-8524
दह	-8525
वट	-8526
▁बसे	-8527
▁पांड	-8528
▁जैविक	-8529
▁शुक्ला	-8530
▁उत्पादकता	-8531
▁आइए	-8532
▁एने	-8533
▁गिरा	-8534
▁कर्ता	-8535
▁दबाया	-8536
▁अर्हता	-8537
▁चिल्ला	-8538
▁सम्राट	-8539
▁क्रियान्वयन	-8540
ुरत	-8541
▁गेह	-8542
▁नमक	-8543
▁नाव	-8544
▁शिम	-8545
▁सैय	-8546
ियुक्त	-8547
▁अकेला	-8548
▁फांसी	-8549
▁यहूदी	-8550
▁ब्रांड	-8551
▁हड़ताल	-8552
▁कम्प्यूटर	-8553
▁विवेकपूर्ण	-8554
मिंग	-8555
▁बडा	-8556
चार्ज	-8557
▁प्राप	-8558
▁सिरों	-8559
ँव	-8560
रहित	-8561
▁रेत	-8562
स्तीन	-8563
▁आकृति	-8564
▁तालिका	-8565
▁मुहम्मद	-8566
▁प्रतिवर्ष	-8567
▁मंत्रियों	-8568
द्धार	-8569
▁मण्ड	-8570
▁रोकथाम	-8571
▁विचित्र	-8572
▁पूर्णतया	-8573
▁पुनर्निर्	-8574
ज़न	-8575
विन	-8576
ूँगा	-8577
▁अनंत	-8578
▁बहुल	-8579
▁रहीं	-8580
▁सवार	-8581
▁अव्यव	-8582
▁बिलों	-8583
▁संघीय	-8584
▁अनुज्ञा	-8585
▁प्रतिबिंबित	-8586
पटल	-8587
▁बक	-8588
▁बीत	-8589
▁जीआर	-8590
▁ढूंढ	-8591
▁रसोई	-8592
क्तियों	-8593
▁कीमतों	-8594
▁सुधारों	-8595
▁प्राधिकारियों	-8596
ुर्द	-8597
▁कबूल	-8598
▁मोती	-8599
▁हटाए	-8600
▁रखेगा	-8601
▁लगाता	-8602
▁दिखाएँ	-8603
▁निवारक	-8604
▁प्रामाणिक	-8605
▁कैदी	-8606
▁घड़ी	-8607
▁जस्ट	-8608
▁अवलंब	-8609
▁सिंगल	-8610
रिस	-8611
▁उगा	-8612
▁नाब	-8613
▁आवाज़	-8614
▁कपड़ा	-8615
TC	-8616
▁गे	-8617
लोनी	-8618
सीएल	-8619
स्तीनी	-8620
▁स्वाद	-8621
▁अरोड़ा	-8622
▁इलाकों	-8623
▁कलाकार	-8624
▁निषिद्ध	-8625
देशी	-8626
▁रेट	-8627
▁अनिवासी	-8628
▁निरर्थक	-8629
▁समावेशी	-8630
पद	-8631
▁नोक	-8632
▁अपितु	-8633
▁शुरुआती	-8634
IM	-8635
थिल	-8636
▁वान	-8637
▁जोशी	-8638
▁अभिनय	-8639
▁श्रेय	-8640
▁सावधान	-8641
खार	-8642
गोश	-8643
▁आधी	-8644
▁माध	-8645
▁तुमने	-8646
▁स्टार	-8647
▁कविताओं	-8648
मेह	-8649
▁PR	-8650
ुग्ध	-8651
नीतिक	-8652
▁सबके	-8653
▁करीबी	-8654
▁दरबार	-8655
▁प्रेषण	-8656
ियस	-8657
▁MC	-8658
▁चो	-8659
▁छान	-8660
▁पिस्त	-8661
▁वृत्ति	-8662
▁असंव	-8663
▁आघात	-8664
▁एण्ड	-8665
▁आश्रम	-8666
▁आकर्षण	-8667
▁विशेषज्ञता	-8668
▁यों	-8669
▁कर्ज	-8670
▁मैसूर	-8671
▁सोचने	-8672
▁आदिवासी	-8673
▁सम्पन्न	-8674
▁दंडात्मक	-8675
ap	-8676
खण्ड	-8677
▁चित	-8678
▁जन्	-8679
▁चलती	-8680
▁मांगे	-8681
▁आनुवंश	-8682
▁प्रोटीन	-8683
▁क्रांतिकारी	-8684
▁महाविद्यालय	-8685
आउट	-8686
राक	-8687
टिंग	-8688
ड़की	-8689
▁ढाल	-8690
▁देह	-8691
▁एपीपी	-8692
▁अवशोषण	-8693
▁विनम्र	-8694
▁विधियां	-8695
▁परिशिष्ट	-8696
▁प्रसारित	-8697
▁अंग्रेज़ी	-8698
ावि	-8699
लिस्ट	-8700
▁आचार	-8701
▁वयस्क	-8702
▁पत्राचार	-8703
▁थै	-8704
▁नास	-8705
▁श्ल	-8706
▁परित	-8707
▁मापने	-8708
▁लाहौर	-8709
▁अभिभाषण	-8710
▁उल्लेखित	-8711
▁न्यायोचित	-8712
लाश	-8713
रानी	-8714
▁अफ़	-8715
▁दलीलें	-8716
▁पेड़ों	-8717
▁गणतंत्र	-8718
▁महेंद्र	-8719
▁अनुबंधों	-8720
▁उन्होनें	-8721
▁सांख्यिकी	-8722
▁स्वाधीनता	-8723
ब्ध	-8724
▁भगत	-8725
▁आखिरी	-8726
▁उत्तरा	-8727
▁सीआईटी	-8728
नम	-8729
रोल	-8730
▁मण	-8731
▁अभिव	-8732
▁देहा	-8733
▁महाक	-8734
▁सादे	-8735
▁उत्सव	-8736
▁फायदे	-8737
▁स्थूल	-8738
▁ड्रग्स	-8739
▁मिथ्या	-8740
▁उदाहरणों	-8741
▁तात्पर्य	-8742
▁अधिनिर्णय	-8743
▁प्रोजेक्ट	-8744
प्रति	-8745
▁जानवर	-8746
▁सदनों	-8747
▁इन्हीं	-8748
▁गुजरना	-8749
▁व्याख्यान	-8750
जपे	-8751
▁डंप	-8752
▁पंख	-8753
▁गोवा	-8754
▁तेज़	-8755
▁बर्फ	-8756
▁मंडप	-8757
▁आमदनी	-8758
▁नाबार्ड	-8759
झी	-8760
▁घू	-8761
▁छोर	-8762
▁आवरण	-8763
▁बोला	-8764
▁शॉर्ट	-8765
▁खटखटाया	-8766
ंशी	-8767
िणी	-8768
ोलॉजी	-8769
▁बलराम	-8770
▁कनेक्ट	-8771
▁फिलीस्तीनी	-8772
▁स्टै	-8773
▁डिस्ट	-8774
▁प्रकरण	-8775
▁पिस्तौल	-8776
▁अयोग्यता	-8777
▁पुस्तकालय	-8778
झे	-8779
मिश	-8780
राइड	-8781
लियों	-8782
ुक़्त	-8783
▁अधिश	-8784
▁उपनि	-8785
▁एग्री	-8786
▁चुनने	-8787
▁रांची	-8788
▁साइकिल	-8789
▁विक्रेताओं	-8790
लेखन	-8791
▁आरआई	-8792
▁Block	-8793
▁किस्त	-8794
▁रूपये	-8795
▁संदत्त	-8796
▁समामेलन	-8797
▁तस्वीरों	-8798
▁स्वच्छता	-8799
▁विशेषताएं	-8800
▁आश्चर्यजनक	-8801
▁ः	-8802
ect	-8803
रोधी	-8804
▁शाल	-8805
▁चौकी	-8806
▁यहीं	-8807
▁अक्षमता	-8808
▁गठ	-8809
▁अल्ट	-8810
▁लेवी	-8811
▁सीएम	-8812
▁स्पी	-8813
▁बेदखल	-8814
▁यूनाइटेड	-8815
ेत	-8816
▁RP	-8817
▁जॉन	-8818
▁पोष	-8819
▁वसा	-8820
▁नकली	-8821
टीए	-8822
▁टि	-8823
कार्	-8824
▁उपदेश	-8825
▁असंतोष	-8826
▁मंत्रिम	-8827
▁आर्बिट्रेटर	-8828
ch	-8829
लेस	-8830
ृश्य	-8831
▁घुम	-8832
▁औषधि	-8833
▁शर्म	-8834
▁खरीदे	-8835
▁डॉक्टरों	-8836
ani	-8837
▁बत	-8838
आईएल	-8839
तिया	-8840
बर्ट	-8841
न्त्र	-8842
▁कब्ज़ा	-8843
▁समाहित	-8844
▁सद्भावना	-8845
▁हिन्दुस्तान	-8846
▁रथ	-8847
बाबू	-8848
र्फ़	-8849
ामिन	-8850
▁बढा	-8851
▁एशियाई	-8852
▁रणनीति	-8853
▁इस्तीफा	-8854
एफसी	-8855
पुरम	-8856
लिटन	-8857
▁झटका	-8858
▁लोगो	-8859
▁कारगर	-8860
▁स्टोर	-8861
कना	-8862
टकों	-8863
▁माफ	-8864
स्कृत	-8865
▁IANo	-8866
▁भिन्	-8867
▁स्या	-8868
▁अविभा	-8869
▁कराता	-8870
▁आचार्य	-8871
▁नवान्वेष	-8872
▁बहिष्कार	-8873
ओसी	-8874
▁VI	-8875
▁लड	-8876
हानि	-8877
▁कों	-8878
▁गोला	-8879
▁फ्री	-8880
▁शर्ट	-8881
▁प्लांट	-8882
▁उपनिवेश	-8883
▁परिस्थितियाँ	-8884
em	-8885
und	-8886
ृंग	-8887
ोदय	-8888
रण्य	-8889
▁क्री	-8890
▁उत्पा	-8891
▁तुलसी	-8892
▁बैठने	-8893
▁टेलीवि	-8894
▁अध्यापक	-8895
▁दर्शाती	-8896
▁पक्षियों	-8897
▁प्रक्षेप	-8898
▁डीए	-8899
▁लची	-8900
▁फरार	-8901
▁बचपन	-8902
▁अंतरा	-8903
व्यवहार	-8904
▁विवाहित	-8905
▁व्याकरण	-8906
▁लोकायुक्त	-8907
▁विरोधाभासी	-8908
▁प्रतिभूतियों	-8909
रोग	-8910
चेरी	-8911
▁संभ	-8912
▁तिलक	-8913
▁फर्क	-8914
▁हिला	-8915
▁मराठी	-8916
▁स्कोर	-8917
▁दोबारा	-8918
▁नमूनों	-8919
▁जनजातियों	-8920
▁नियुक्तियां	-8921
ुम	-8922
▁नाज	-8923
▁देखिए	-8924
▁प्रवी	-8925
▁भरपूर	-8926
▁मूत्र	-8927
all	-8928
ग्रा	-8929
्रेषण	-8930
▁कारत	-8931
▁द्रव	-8932
▁मनुष	-8933
▁महास	-8934
▁ग्वाल	-8935
▁पुनर्व	-8936
▁पूंजीगत	-8937
▁परिसमापन	-8938
धीय	-8939
▁अरबी	-8940
▁आजकल	-8941
िडेविट	-8942
्रिक्स	-8943
▁उठाकर	-8944
▁उन्हे	-8945
▁लड़का	-8946
▁शिष्ट	-8947
▁साथियों	-8948
गें	-8949
▁Ba	-8950
िवेदी	-8951
▁कंधे	-8952
▁सौदे	-8953
▁सर्वप्र	-8954
▁प्रयोक्ता	-8955
▁मध्यस्थों	-8956
र्सी	-8957
▁बाब	-8958
▁फाउंड	-8959
▁श्रद्धा	-8960
न्दा	-8961
▁आन्द	-8962
▁डालर	-8963
नेश्वर	-8964
▁घंटों	-8965
▁लम्बी	-8966
▁निधियों	-8967
▁उत्सर्जन	-8968
▁एफिडेविट	-8969
ॉग	-8970
▁कैम	-8971
▁अमान	-8972
▁दिल्	-8973
▁नजदी	-8974
क्साइड	-8975
▁पकड़ा	-8976
▁अंगूठे	-8977
▁मापदंडों	-8978
▁प्रस्तावना	-8979
ण्य	-8980
▁उठे	-8981
▁रतन	-8982
ल्लाह	-8983
▁एमएम	-8984
▁कृषक	-8985
▁बंधन	-8986
▁समीकरण	-8987
▁मार्जिन	-8988
इंट	-8989
▁इराक	-8990
▁स्नान	-8991
▁कर्मों	-8992
▁मार्गदर्शक	-8993
देवी	-8994
▁इसल	-8995
सिद्ध	-8996
▁Cham	-8997
▁रोज़	-8998
▁लौटे	-8999
▁विषा	-9000
▁जीओएम	-9001
▁नोटरी	-9002
▁ड्राइव	-9003
▁प्रशांत	-9004
▁उत्तराधिकारियों	-9005
▁Aug	-9006
▁भती	-9007
▁ऊंचा	-9008
▁प्लग	-9009
▁भ्रूण	-9010
▁आउटपुट	-9011
ार्टमेंट	-9012
▁ट्रांसपोर्ट	-9013
LA	-9014
▁आयाम	-9015
▁पृथक्	-9016
▁सच्ची	-9017
▁जोड़ें	-9018
▁व्यष्टि	-9019
▁मानचित्र	-9020
▁प्रतिपादन	-9021
पीएल	-9022
मित्त	-9023
▁दादा	-9024
▁अभिने	-9025
▁अनदेखा	-9026
▁वैष्णव	-9027
▁अफगानिस्तान	-9028
है	-9029
▁मैनु	-9030
▁जर्मन	-9031
▁मिस्र	-9032
▁आपूर्त	-9033
▁प्रदाता	-9034
२०	-9035
▁st	-9036
▁नकल	-9037
▁दुबे	-9038
▁अवशेष	-9039
▁आवश्य	-9040
▁चेहरा	-9041
▁व्यर्थ	-9042
▁सिगरेट	-9043
▁वादियों	-9044
▁उपलब्धियों	-9045
ind	-9046
वाट	-9047
णुओं	-9048
▁Son	-9049
▁हिल	-9050
ध्याय	-9051
▁एमसी	-9052
▁श्लोक	-9053
▁अपनाना	-9054
▁बंगाली	-9055
▁स्मारक	-9056
▁गर्भाशय	-9057
▁अभिप्राय	-9058
▁राष्ट्री	-9059
▁महाप्रबंधक	-9060
लीप	-9061
माही	-9062
▁com	-9063
▁दार	-9064
▁मत्स	-9065
▁इंदौर	-9066
▁असमानता	-9067
ग़	-9068
▁PC	-9069
▁हेर	-9070
चरिता	-9071
पातिक	-9072
▁क्षम	-9073
▁डिप्ल	-9074
▁आंकड़ा	-9075
▁चाहेंगे	-9076
▁व्यापारियों	-9077
णित	-9078
▁भूख	-9079
िवर्स	-9080
▁जोड़ी	-9081
▁नेताजी	-9082
TH	-9083
षद	-9084
GAL	-9085
▁ढी	-9086
▁पाय	-9087
▁अनिय	-9088
▁पिटी	-9089
▁गिरने	-9090
▁स्वर्ग	-9091
▁वॉल्यूम	-9092
्द	-9093
षेक	-9094
▁बट	-9095
लपुर	-9096
▁बही	-9097
ढ़ियों	-9098
▁क्रिम	-9099
▁बहाने	-9100
▁संजीव	-9101
▁दर्शाने	-9102
▁नैतिकता	-9103
▁यश	-9104
▁टाल	-9105
▁फूलों	-9106
▁प्रवीण	-9107
▁बाज़ार	-9108
▁बेईमानी	-9109
▁सुचरिता	-9110
ञ्	-9111
ल्ले	-9112
▁परव	-9113
▁साख	-9114
▁स्थलों	-9115
▁चिकित्सकीय	-9116
▁इंस्टीट्यूट	-9117
▁Pol	-9118
▁दीन	-9119
▁सबको	-9120
▁मानती	-9121
▁प्रोबेट	-9122
▁कन्वेंशन	-9123
नाई	-9124
ीलाल	-9125
▁क्राइ	-9126
▁टेनिस	-9127
▁सब्सि	-9128
▁सुदूर	-9129
▁अवज्ञा	-9130
▁जस्टिस	-9131
▁अधीक्षण	-9132
▁गड़बड़ी	-9133
▁सामानों	-9134
▁आविष्कार	-9135
▁गतिविधियां	-9136
ND	-9137
▁शार	-9138
▁साठ	-9139
▁स्टी	-9140
▁विभेद	-9141
▁अतिमान	-9142
▁कॉलोनी	-9143
▁निगमों	-9144
▁साक्षरता	-9145
▁प्राधिकरणों	-9146
ैत	-9147
▁परो	-9148
मेंट्स	-9149
▁कीजिए	-9150
▁अल्ट्रा	-9151
▁बांग्लादेश	-9152
▁टैब	-9153
▁मेम	-9154
▁CWJC	-9155
▁फर्द	-9156
▁तालुक	-9157
▁तिहाई	-9158
▁सौभाग्य	-9159
▁पंचायतों	-9160
PL	-9161
ुतोष	-9162
्वित	-9163
▁डाइ	-9164
▁पतन	-9165
▁बिछ	-9166
▁आरसी	-9167
▁कौंस	-9168
▁अधीनता	-9169
▁अवधारण	-9170
▁ग्रन्थ	-9171
▁तुलनात्मक	-9172
▁पार्टियां	-9173
लै	-9174
्वाइ	-9175
endra	-9176
ोरेंस	-9177
▁दुष्	-9178
▁मेहर	-9179
▁टैगोर	-9180
▁आनुवंशिक	-9181
op	-9182
मेर	-9183
▁इंजन	-9184
▁ईस्ट	-9185
▁एमबी	-9186
▁सतीश	-9187
▁विकृति	-9188
▁क्रिस्ट	-9189
▁प्रजाति	-9190
▁लाभदायक	-9191
▁अभिरक्षा	-9192
▁लू	-9193
गणना	-9194
बिनेट	-9195
▁धोखे	-9196
▁पूछे	-9197
▁लीला	-9198
▁स्विच	-9199
▁प्रशासक	-9200
▁गोपनीयता	-9201
▁इंडस्ट्रीज	-9202
यो	-9203
बाग	-9204
महल	-9205
धाना	-9206
धारक	-9207
िंगर	-9208
▁कूद	-9209
▁बचना	-9210
कृष्णन	-9211
▁इकबाल	-9212
▁एससीए	-9213
▁अरविंद	-9214
आईए	-9215
▁जगा	-9216
▁बन्	-9217
▁डिस्चार्ज	-9218
ter	-9219
▁छः	-9220
▁जेब	-9221
ंताओं	-9222
ख़्या	-9223
यंत्र	-9224
▁कमाई	-9225
ear	-9226
▁कैद	-9227
▁रूम	-9228
▁पेशी	-9229
▁भोपाल	-9230
▁शिष्य	-9231
▁सालों	-9232
▁पुत्री	-9233
▁बंगलौर	-9234
▁मुहैया	-9235
▁प्रभुत्व	-9236
खली	-9237
पाठी	-9238
ृहीत	-9239
▁सोना	-9240
▁क्षमा	-9241
▁कामगारों	-9242
▁प्रख्यात	-9243
▁समाजवादी	-9244
▁सर्वप्रथम	-9245
भुत	-9246
▁चीफ	-9247
▁अभेद	-9248
▁ललिता	-9249
▁अहिंसा	-9250
▁इंडिका	-9251
▁मैनुअल	-9252
▁श्रद्ध	-9253
▁असमर्थता	-9254
हक	-9255
रीब	-9256
मुना	-9257
बुद्ध	-9258
▁बैंड	-9259
▁खोपड़ी	-9260
AV	-9261
ey	-9262
▁दिखता	-9263
▁क्रिमिनल	-9264
गिक	-9265
घोष	-9266
ुरू	-9267
▁अर्क	-9268
▁साइन	-9269
▁गर्भव	-9270
▁प्रसंग	-9271
▁प्रोटोकॉल	-9272
लु	-9273
▁बाला	-9274
▁सादा	-9275
▁सिखा	-9276
▁हफ्त	-9277
▁अवतार	-9278
▁दुग्ध	-9279
▁चतुर्थ	-9280
▁बिन्दु	-9281
▁ऑपरेटिव	-9282
ोगे	-9283
ास्पद	-9284
▁बोले	-9285
▁मेगा	-9286
▁सौदा	-9287
क्सीजन	-9288
▁बदनाम	-9289
▁बीडीए	-9290
▁सोचता	-9291
िरपेक्ष	-9292
▁आशुतोष	-9293
EC	-9294
ौली	-9295
▁Ro	-9296
▁DIST	-9297
▁म्यूट	-9298
▁दीवारों	-9299
▁मंत्रालयों	-9300
सेन	-9301
बीएस	-9302
▁छुट	-9303
ंतुष्ट	-9304
▁कॉन्ट	-9305
▁निबंध	-9306
▁धर्मों	-9307
▁कर्मकार	-9308
▁फाउंडेशन	-9309
▁इस्लामवादी	-9310
घट	-9311
िएट	-9312
तकों	-9313
दण्ड	-9314
र्षण	-9315
▁निदान	-9316
▁परवाह	-9317
▁प्रसव	-9318
▁मानवा	-9319
▁जजमेंट	-9320
▁जैसाकि	-9321
▁प्रहार	-9322
▁असुविधा	-9323
▁स्ट्रीट	-9324
▁परीक्षणों	-9325
▁परियोजनाएं	-9326
▁or	-9327
▁वाइ	-9328
ep	-9329
जुट	-9330
मिकस	-9331
▁अपार	-9332
▁डीडी	-9333
▁पूछने	-9334
▁रियासत	-9335
▁मुद्रित	-9336
▁क़्योंकि	-9337
लत	-9338
ीदा	-9339
ालों	-9340
▁गढ़	-9341
▁पुराण	-9342
▁बंगला	-9343
▁रिश्ते	-9344
▁निर्देशन	-9345
ँह	-9346
ल्ह	-9347
त्ती	-9348
▁पित	-9349
िक्शन	-9350
▁एमडी	-9351
▁भव्य	-9352
▁सोनी	-9353
▁आज्ञा	-9354
▁उड़ान	-9355
▁सिनेमा	-9356
▁प्रतिमा	-9357
▁व्यवसायी	-9358
gan	-9359
▁उधर	-9360
▁काय	-9361
▁जहर	-9362
▁नेट	-9363
▁मोर	-9364
▁फर्श	-9365
▁गाँधी	-9366
▁सच्चा	-9367
▁अनजाने	-9368
▁क्रमिक	-9369
▁कहानियों	-9370
▁प्रशंसनीय	-9371
▁विवादास्पद	-9372
▁लाइसेंसधारी	-9373
रुप	-9374
▁शीत	-9375
▁सब्ज	-9376
▁समझी	-9377
▁हैंड	-9378
ेश्वरी	-9379
▁महान्	-9380
▁शेयरधारक	-9381
ta	-9382
डम	-9383
ION	-9384
जलि	-9385
टान	-9386
बरी	-9387
ब्दिक	-9388
▁ओआरएस	-9389
▁डालते	-9390
▁बालों	-9391
▁लिखावट	-9392
▁हमलावर	-9393
▁गुजराती	-9394
▁प्रदेशों	-9395
▁ऋतु	-9396
▁एएस	-9397
▁क्षै	-9398
▁लेनी	-9399
▁एमिकस	-9400
▁न्यूज	-9401
▁वेस्ट	-9402
▁जमानती	-9403
▁प्रचुर	-9404
▁अवस्थित	-9405
▁हिंदुओं	-9406
▁आपूर्तिक	-9407
बिया	-9408
▁कैप	-9409
▁कॉम	-9410
ष्ठान	-9411
▁षड्य	-9412
▁एएसआई	-9413
▁गीतों	-9414
▁मायने	-9415
▁निर्गम	-9416
▁संव्यवहार	-9417
▁कंक	-9418
▁गंग	-9419
▁इसलिये	-9420
▁संभालने	-9421
▁असंतुष्ट	-9422
adav	-9423
▁पिन	-9424
▁खेतों	-9425
▁चिपका	-9426
▁पुनरु	-9427
▁शिमला	-9428
▁चार्टर	-9429
▁जिंदगी	-9430
▁सीरिया	-9431
▁सेवकों	-9432
▁कैबिनेट	-9433
AME	-9434
सेल	-9435
िलास	-9436
ेंट्स	-9437
ेशनों	-9438
▁कारी	-9439
▁फाइन	-9440
▁भेजें	-9441
▁करूंगा	-9442
▁अनुभूति	-9443
▁सब्सिडी	-9444
▁प्रत्यर्थी	-9445
तरफा	-9446
▁चलकर	-9447
▁चलाए	-9448
▁हुये	-9449
▁मानकर	-9450
▁मांगने	-9451
▁Station	-9452
▁शाब्दिक	-9453
▁अन्यायपूर्ण	-9454
000	-9455
ary	-9456
▁Pat	-9457
▁एडी	-9458
▁चलना	-9459
▁मूर्ख	-9460
▁संतान	-9461
▁उर्वरक	-9462
▁राजाओं	-9463
▁चर्चाओं	-9464
फु	-9465
▁घूं	-9466
▁थोक	-9467
▁धूल	-9468
▁उपास	-9469
▁वाहक	-9470
▁एकजुट	-9471
▁बदलना	-9472
▁बस्ती	-9473
▁मुकेश	-9474
▁पिटीशन	-9475
▁मधुमेह	-9476
ड्स	-9477
▁खाम	-9478
▁गंत	-9479
▁बिट	-9480
▁स्त्रो	-9481
▁त्रुटिः	-9482
▁निमित्त	-9483
▁सुझावों	-9484
▁मनुष्यों	-9485
हण	-9486
हृ	-9487
सात	-9488
▁आड़	-9489
▁सुग	-9490
▁सोव	-9491
▁पादप	-9492
▁ब्यौ	-9493
▁सुगम	-9494
▁सेटल	-9495
▁बम्बई	-9496
▁मुंशी	-9497
▁गर्भवती	-9498
▁भेदभावपूर्ण	-9499
ंय	-9500
ंसी	-9501
लीज	-9502
▁WA	-9503
▁as	-9504
▁एए	-9505
▁चुक	-9506
▁काफ़ी	-9507
▁डालना	-9508
▁संचयी	-9509
▁कारतूस	-9510
▁झिल्ली	-9511
▁मत्स्य	-9512
▁ईमानदार	-9513
▁निपटारे	-9514
▁फिल्मों	-9515
▁प्रबंधित	-9516
▁राजपत्रित	-9517
फॉ	-9518
डों	-9519
पाट	-9520
▁जस	-9521
ापुर	-9522
▁उत्पर	-9523
▁शिविर	-9524
▁स्पेश	-9525
▁अखंडता	-9526
▁एनडीपीएस	-9527
▁असाइनमेंट	-9528
श्र	-9529
▁वैट	-9530
नामों	-9531
▁रेगि	-9532
▁नाटकों	-9533
▁मेमोरी	-9534
▁विटामिन	-9535
▁शब्दकोश	-9536
ity	-9537
rom	-9538
िटर	-9539
▁कण	-9540
र्षि	-9541
शियन	-9542
▁नहर	-9543
बन्धन	-9544
▁सभ्य	-9545
लावरों	-9546
ावस्था	-9547
▁घटकों	-9548
▁Police	-9549
▁छात्रा	-9550
▁निगमित	-9551
▁मशीनों	-9552
▁सिर्फ़	-9553
▁महासागर	-9554
▁पूर्वोत्तर	-9555
२क	-9556
▁औषध	-9557
▁दीक्ष	-9558
▁बचाया	-9559
▁साकार	-9560
▁महाराज	-9561
▁प्रबन्ध	-9562
▁हमलावरों	-9563
खान	-9564
▁एजे	-9565
▁जुड	-9566
▁नाप	-9567
▁गोयल	-9568
▁खुदरा	-9569
▁मेहनत	-9570
ोर्टियम	-9571
▁विकिरण	-9572
▁गोलीबारी	-9573
▁तुम्हारा	-9574
▁बोलीदाताओं	-9575
ुन	-9576
टीई	-9577
▁ओब	-9578
▁ऋषि	-9579
▁गम्	-9580
▁मेर	-9581
▁लूट	-9582
वर्तन	-9583
वाड़ा	-9584
▁अधिशेष	-9585
▁उपनियम	-9586
▁बादशाह	-9587
▁सामर्थ	-9588
मुक्त	-9589
्यूपी	-9590
▁अन्न	-9591
▁अलंक	-9592
▁बनती	-9593
▁अभिदाय	-9594
▁कमियों	-9595
▁बिहारी	-9596
▁बहुमूल्य	-9597
▁क्षेत्रफल	-9598
तिज	-9599
▁कटक	-9600
▁नरम	-9601
▁आवेग	-9602
▁एमएल	-9603
▁कहें	-9604
▁झगड़े	-9605
▁रोकता	-9606
▁सातवीं	-9607
▁परेशानी	-9608
▁फिलीस्तीन	-9609
श्न	-9610
▁अघ	-9611
भक्त	-9612
▁बान	-9613
▁हड्ड	-9614
▁कैलाश	-9615
▁अनुरक्षण	-9616
▁धर्मार्थ	-9617
▁केन्द्रों	-9618
▁मैत्रीपूर्ण	-9619
डेड	-9620
▁अँ	-9621
गोरि	-9622
सर्ग	-9623
▁कंड	-9624
▁जरा	-9625
▁भोज	-9626
▁चौदह	-9627
▁दौरे	-9628
तापूर्ण	-9629
ब्ल्यूपी	-9630
IV	-9631
च्य	-9632
लाप	-9633
▁कसौ	-9634
▁सरा	-9635
▁नानक	-9636
▁रहकर	-9637
▁रेंज	-9638
▁गोदाम	-9639
▁चित्त	-9640
▁त्रिप	-9641
▁पीछला	-9642
▁पुकार	-9643
▁उपबंधित	-9644
▁ग्वालियर	-9645
▁डिप्लोमा	-9646
▁दीर्घकालिक	-9647
भावी	-9648
▁क्षु	-9649
▁असिस्ट	-9650
▁उद्भूत	-9651
▁जीवाणु	-9652
▁संपादक	-9653
▁असंवैधानिक	-9654
भिक	-9655
वत्	-9656
सारी	-9657
१वीं	-9658
▁बगल	-9659
▁बोर	-9660
▁रंगम	-9661
▁संकु	-9662
▁निक्षेप	-9663
▁पहुंचाई	-9664
▁कंसोर्टियम	-9665
▁मानवाधिकार	-9666
▁AR	-9667
ंकित	-9668
▁गर्ग	-9669
▁ऊतकों	-9670
▁परिष्	-9671
▁अनुमेय	-9672
▁जोरदार	-9673
▁दिलाने	-9674
▁सेकेंड	-9675
ांच	-9676
कांत	-9677
दायी	-9678
प्रण	-9679
ॉल्व	-9680
▁शिक	-9681
▁बुराई	-9682
▁एंट्री	-9683
▁आन्दोलन	-9684
▁विवेचना	-9685
ल्थ	-9686
▁इट	-9687
कर्स	-9688
▁अनौ	-9689
▁आईसी	-9690
▁चुंब	-9691
▁फिंगर	-9692
▁ज़रूरत	-9693
▁विख्यात	-9694
▁आनुपातिक	-9695
▁याचिकाएँ	-9696
▁यूनिवर्स	-9697
▁षड्यंत्र	-9698
▁प्रत्यक्षदर्शी	-9699
तुल	-9700
रिज	-9701
संबंध	-9702
▁विरा	-9703
▁बहिष्	-9704
▁बेहोश	-9705
▁क्षमताओं	-9706
▁संस्थाएं	-9707
ंबा	-9708
▁on	-9709
एचसी	-9710
▁खसरा	-9711
▁भट्ट	-9712
▁महेश	-9713
▁विषम	-9714
धारकों	-9715
पीसीएल	-9716
▁खींचा	-9717
▁शिथिल	-9718
▁परिमाण	-9719
▁पर्यटकों	-9720
ालक	-9721
र्नल	-9722
वाया	-9723
▁रोचक	-9724
▁निरसित	-9725
▁निर्धन	-9726
▁नर्सिंग	-9727
▁दीक्षांत	-9728
▁विशिष्टता	-9729
▁अपरिवर्तनीय	-9730
▁लेखापरीक्षा	-9731
ंर	-9732
जाज	-9733
जूर	-9734
फेर	-9735
लिश	-9736
ट्ठी	-9737
▁कुं	-9738
प्राइ	-9739
▁उज्ज	-9740
▁माया	-9741
▁निरोधक	-9742
वर्ग	-9743
▁बिस	-9744
▁जीने	-9745
▁ट्रा	-9746
▁श्रील	-9747
▁कैदियों	-9748
▁बिल्डिंग	-9749
▁विनिर्देश	-9750
▁अनियंत्रित	-9751
रथ	-9752
षकों	-9753
▁अद्	-9754
▁इंक	-9755
▁अमीर	-9756
▁नारी	-9757
▁मुँह	-9758
▁वर्न	-9759
▁क्लेम	-9760
▁संवेदना	-9761
▁साझेदार	-9762
▁हिन्दुओं	-9763
नाल	-9764
्तर	-9765
▁Ar	-9766
ब्बा	-9767
ितरण	-9768
▁पॉल	-9769
▁चलाना	-9770
▁दबाने	-9771
▁साइंस	-9772
▁वास्तु	-9773
▁सम्बद्ध	-9774
▁टेलीविजन	-9775
▁सुरेंद्र	-9776
▁वित्तपोषण	-9777
▁विद्यालयों	-9778
kar	-9779
▁जादू	-9780
▁सगाई	-9781
च्छेदन	-9782
▁स्थाई	-9783
▁विलियम	-9784
▁प्रवर्ग	-9785
▁प्रायोजित	-9786
if	-9787
बयान	-9788
▁आज़	-9789
▁कड़	-9790
▁हैस	-9791
▁गूगल	-9792
▁दरें	-9793
स्पोंड	-9794
▁नाराज	-9795
▁अभेद्य	-9796
▁प्रेरक	-9797
▁खिलाड़ी	-9798
▁सेटलमेंट	-9799
▁प्रगतिशील	-9800
ढे	-9801
ण्ट	-9802
▁सज्	-9803
▁कमरा	-9804
▁गेहूं	-9805
▁प्रतिशोध	-9806
▁संस्थापक	-9807
▁वादकारियों	-9808
टकर	-9809
▁भड़	-9810
▁भुव	-9811
तालों	-9812
थियों	-9813
▁ब्ला	-9814
▁वारा	-9815
▁कार्ट	-9816
▁निश्च	-9817
▁बेरोज	-9818
▁रिहाई	-9819
▁सर्कल	-9820
▁समर्थक	-9821
▁निमंत्र	-9822
▁अधिकाधिक	-9823
▁प्रांतीय	-9824
त्पाद	-9825
▁छानबीन	-9826
▁प्रवास	-9827
▁निरूपित	-9828
▁त्रिपाठी	-9829
▁असुरक्षित	-9830
ंचन	-9831
ावर	-9832
ंतुक	-9833
एलआर	-9834
ड़ित	-9835
िंदर	-9836
▁डकै	-9837
ार्टर	-9838
▁ITAT	-9839
▁क्रोध	-9840
▁गुलाम	-9841
▁तम्बा	-9842
▁पहाड़	-9843
▁बच्चन	-9844
▁भेजना	-9845
▁लार्ड	-9846
▁मजबूती	-9847
▁सुपुर्द	-9848
eg	-9849
ang	-9850
मलव	-9851
्शा	-9852
▁ha	-9853
▁Mad	-9854
▁दीं	-9855
▁बुरे	-9856
▁मर्या	-9857
▁क्राइम	-9858
▁अनुभवों	-9859
▁क्षैतिज	-9860
▁साझीदारी	-9861
our	-9862
ेरा	-9863
▁अठ	-9864
▁उछ	-9865
▁कन	-9866
▁अका	-9867
▁ऑब्	-9868
▁टेक	-9869
▁भूक	-9870
▁मेह	-9871
▁किशन	-9872
निर्देश	-9873
▁त्रुटियों	-9874
▁प्रतिवेदन	-9875
▁wp	-9876
▁चौथी	-9877
▁प्रगा	-9878
▁सनातन	-9879
▁चुकाने	-9880
▁पाठकों	-9881
▁मांगों	-9882
ोंग	-9883
आरसी	-9884
य्या	-9885
▁SLP	-9886
जपेयी	-9887
▁कपास	-9888
▁खर्चे	-9889
श्योरेंस	-9890
▁सर्वोपरि	-9891
▁संस्थापित	-9892
▁सत्याग्रह	-9893
टिन	-9894
डोर	-9895
▁एसई	-9896
▁नित	-9897
▁पाती	-9898
▁रंजन	-9899
क्रिप्	-9900
वृत्ति	-9901
▁सीटें	-9902
▁मुकाबला	-9903
एलए	-9904
▁खरा	-9905
ुल्ला	-9906
▁एसिड	-9907
▁रेशम	-9908
▁लिखत	-9909
पत्रों	-9910
▁दत्तक	-9911
▁पकड़े	-9912
ाल्	-9913
▁ओबामा	-9914
▁दशमलव	-9915
▁देसाई	-9916
▁विकार	-9917
▁विध्व	-9918
▁कौंसिल	-9919
▁गंतव्य	-9920
▁गम्भीर	-9921
▁पसंदीदा	-9922
▁उपयोक्ता	-9923
▁प्रजातियों	-9924
डऋ	-9925
▁खेलने	-9926
▁दिलीप	-9927
▁नतीजा	-9928
▁लगेगा	-9929
▁हटाना	-9930
▁प्रदाह	-9931
▁शास्ति	-9932
▁एक्सटेंशन	-9933
▁विसंगतियों	-9934
▁Sat	-9935
▁किले	-9936
▁बादल	-9937
▁बेटों	-9938
▁प्रस्थान	-9939
▁श्रीलंका	-9940
▁सीडब्ल्यू	-9941
वश	-9942
धर्म	-9943
▁PDD	-9944
▁इधर	-9945
▁दां	-9946
▁हरी	-9947
▁अभिल	-9948
▁असंख	-9949
▁आरएस	-9950
▁डेस्	-9951
▁तमाम	-9952
▁परिन	-9953
▁जीवंत	-9954
रेन्द्र	-9955
▁गरीबों	-9956
▁रंगमंच	-9957
▁शासकीय	-9958
▁एल्गोरि	-9959
▁महिलाएं	-9960
▁पवित्रता	-9961
चिव	-9962
▁डूब	-9963
▁जगत्	-9964
▁वर्क	-9965
▁डालता	-9966
▁अंतर्व	-9967
▁गतिशील	-9968
▁शेड्यूल	-9969
▁ट्रेडिंग	-9970
्ग	-9971
२१	-9972
▁आओ	-9973
गरों	-9974
ावधि	-9975
▁खेप	-9976
▁शौच	-9977
चियों	-9978
▁धीमी	-9979
▁समीप	-9980
▁पिटाई	-9981
▁सभाओं	-9982
▁निर्देशक	-9983
▁भरोसेमंद	-9984
▁प्राणियों	-9985
भगत	-9986
ादर	-9987
र्चा	-9988
रूपता	-9989
▁भयान	-9990
▁यज्ञ	-9991
प्रदेश	-9992
▁अतिथि	-9993
▁अरुणा	-9994
▁दत्ता	-9995
▁विषयक	-9996
▁नियन्त	-9997
▁मिनटों	-9998
▁बाजारों	-9999
▁सूचकांक	-10000
▁रेखांकित	-10001
▁केन्द्रित	-10002
साम	-10003
▁Ws	-10004
▁con	-10005
▁औरत	-10006
▁चंप	-10007
रेस्ट	-10008
▁जॉर्	-10009
▁बनकर	-10010
▁मिलन	-10011
▁एहसास	-10012
▁किसने	-10013
▁मास्ट	-10014
▁प्रभावों	-10015
ुलन	-10016
▁धा	-10017
विता	-10018
शिला	-10019
▁AGE	-10020
▁BAN	-10021
▁गली	-10022
▁ह्य	-10023
▁अस्व	-10024
▁दादी	-10025
▁पढ़ी	-10026
▁बीएस	-10027
▁जितने	-10028
▁टैरिफ	-10029
▁जोड़ना	-10030
▁निकाली	-10031
▁सृष्टि	-10032
▁अपूरणीय	-10033
▁कॉन्ट्र	-10034
▁फर्दबयान	-10035
▁सहभागिता	-10036
▁अर्थशास्त्र	-10037
ाहट	-10038
▁डु	-10039
▁एके	-10040
▁घेर	-10041
▁श्वसन	-10042
▁सर्जन	-10043
▁दिशाओं	-10044
▁देशवासियों	-10045
EE	-10046
जिट	-10047
▁Mah	-10048
निवास	-10049
▁एसएचओ	-10050
▁भागवत	-10051
▁आक्षेप	-10052
▁चार्टर्ड	-10053
▁प्रतियोगी	-10054
▁बीमारियों	-10055
▁मंत्रिमंडल	-10056
▁सौहार्दपूर्ण	-10057
SA	-10058
षी	-10059
ट्ठ	-10060
ध्व	-10061
▁हाज	-10062
ताबिक	-10063
पत्ति	-10064
▁अय्य	-10065
▁क्रि	-10066
▁नाना	-10067
▁विहार	-10068
▁सेंटी	-10069
▁करवाने	-10070
▁मणिपुर	-10071
▁महर्षि	-10072
▁रघुनाथ	-10073
▁शास्त्रीय	-10074
OD	-10075
चन्द	-10076
▁अजन	-10077
▁खाल	-10078
मार्ट	-10079
प्लेक्स	-10080
▁अवधारित	-10081
▁प्रवाहित	-10082
▁सामर्थ्य	-10083
▁मैट्रिक्स	-10084
▁रच	-10085
न्ता	-10086
▁रेस	-10087
▁एचपी	-10088
▁कसौटी	-10089
▁सिंधु	-10090
▁तम्बाकू	-10091
▁प्रगाढ़	-10092
▁भूखंडों	-10093
▁हाउसिंग	-10094
पीएफ	-10095
पुरी	-10096
▁सीटी	-10097
▁खोलें	-10098
▁करेंगी	-10099
▁तिमाही	-10100
▁मुताबिक	-10101
▁पारिस्थित	-10102
▁Mo	-10103
▁जौ	-10104
क्यू	-10105
टिया	-10106
▁ऑयल	-10107
▁पटल	-10108
▁सैंट	-10109
▁गन्ने	-10110
▁भवनों	-10111
▁पीडीएफ	-10112
▁दर्शाते	-10113
फ़ा	-10114
शंस	-10115
▁ऑल	-10116
▁गत	-10117
▁तन	-10118
▁नद	-10119
▁Ind	-10120
▁फुल	-10121
▁अण्ड	-10122
▁यथास	-10123
▁स्केल	-10124
▁शान्ति	-10125
▁तत्परता	-10126
धीर	-10127
ूला	-10128
▁अनो	-10129
▁कमर	-10130
▁विजेता	-10131
▁कैलेंडर	-10132
▁इंजेक्शन	-10133
▁मतदाताओं	-10134
ीत	-10135
her	-10136
ँजी	-10137
प्पल	-10138
▁पीए	-10139
वाड़ी	-10140
▁बलों	-10141
▁मंडी	-10142
▁मादक	-10143
▁विराम	-10144
▁खिड़की	-10145
▁तुरन्त	-10146
AI	-10147
LI	-10148
td	-10149
समय	-10150
स्थि	-10151
▁फौज	-10152
▁इनसे	-10153
▁बनते	-10154
▁दर्शक	-10155
▁अर्पित	-10156
▁नर्मदा	-10157
▁एजुकेशन	-10158
▁हार्डवेयर	-10159
पंच	-10160
िशन	-10161
▁जह	-10162
▁शम	-10163
▁Sar	-10164
▁डेट	-10165
▁बंट	-10166
▁सूर	-10167
▁साधना	-10168
▁बलिदान	-10169
▁संचिका	-10170
▁निराधार	-10171
▁स्वतन्त्र	-10172
▁कार्यकलापों	-10173
UM	-10174
किक	-10175
टेक	-10176
▁लट	-10177
पकों	-10178
पिंग	-10179
ब्रे	-10180
▁आलम	-10181
▁उलझ	-10182
▁कुश	-10183
▁गौण	-10184
तीकरण	-10185
▁कटाई	-10186
▁काशी	-10187
▁बीबी	-10188
▁मरीज	-10189
▁आँखों	-10190
▁छिद्र	-10191
▁जॉर्ज	-10192
▁एकतरफा	-10193
▁एकीकरण	-10194
▁कठोरता	-10195
▁प्रदीप	-10196
▁बेदखली	-10197
▁हैसियत	-10198
▁समन्वित	-10199
▁ट्रांसफर	-10200
▁अन्तर्राष्ट्रीय	-10201
ess	-10202
थुन	-10203
मेट	-10204
क्ष्	-10205
▁चारा	-10206
म्रपान	-10207
▁भयानक	-10208
▁फंसाने	-10209
▁महावीर	-10210
▁मुद्रण	-10211
▁अनुपूरक	-10212
▁जमींदार	-10213
▁व्याप्त	-10214
▁सरकारें	-10215
▁सापेक्ष	-10216
▁उद्यमियों	-10217
▁पुनर्निर्माण	-10218
▁मनोवैज्ञानिक	-10219
▁IS	-10220
▁मैक	-10221
▁मधुर	-10222
▁अप्रा	-10223
▁अवसाद	-10224
▁कम्यु	-10225
▁कहलाता	-10226
▁डेस्कट	-10227
▁प्रिवी	-10228
▁कुटुम्ब	-10229
▁चित्रों	-10230
▁प्रतिपादित	-10231
▁डै	-10232
▁The	-10233
▁आँक	-10234
▁भूप	-10235
paran	-10236
ापनों	-10237
▁नंगे	-10238
▁एमओयू	-10239
▁ट्रेन	-10240
▁सर्किट	-10241
▁हनुमान	-10242
▁मिलीभगत	-10243
▁अस्वीकृत	-10244
▁कार्यात्मक	-10245
िसा	-10246
▁कुर	-10247
▁उड़ा	-10248
▁रूचि	-10249
फ्रेंस	-10250
▁प्रको	-10251
▁प्रॉप	-10252
▁मैक्स	-10253
जनात्मक	-10254
▁घटनाएं	-10255
▁समीचीन	-10256
▁मित्रता	-10257
▁अप्रत्या	-10258
▁Champaran	-10259
▁भुवनेश्वर	-10260
▁ऑस्ट्रेलिया	-10261
▁स्वीकार्यता	-10262
▁दाई	-10263
▁मौन	-10264
▁कपूर	-10265
▁गुहा	-10266
▁माफी	-10267
▁शवों	-10268
प्रकाश	-10269
साधारण	-10270
धारियों	-10271
▁पूर्वक	-10272
▁डेवलपमेंट	-10273
OC	-10274
ik	-10275
▁कैन	-10276
▁बेज	-10277
पल्ली	-10278
ुलेशन	-10279
▁बस्त	-10280
▁रिसी	-10281
▁दोषों	-10282
रूद्दीन	-10283
▁अशुद्ध	-10284
▁कंट्रा	-10285
▁शासकों	-10286
▁इंस्ट्र	-10287
▁रामचंद्र	-10288
संह	-10289
▁तित	-10290
▁नॉन	-10291
▁उतने	-10292
▁भयाव	-10293
▁शाही	-10294
▁प्रमोट	-10295
▁लड़कों	-10296
▁रूपान्त	-10297
स्पोंडेंट	-10298
▁पद्धतियों	-10299
▁आंब	-10300
▁क्राल	-10301
▁दीवान	-10302
▁मनोहर	-10303
▁ठहराते	-10304
▁बनर्जी	-10305
▁अद्वितीय	-10306
▁डेस्कटॉप	-10307
▁प्रतिस्पर्धी	-10308
केल	-10309
देही	-10310
▁छंद	-10311
▁सीई	-10312
▁पत्थ	-10313
▁ठहराव	-10314
▁अवशोषित	-10315
▁पृष्ठों	-10316
▁संप्रभु	-10317
▁परीक्षाओं	-10318
एव	-10319
ंगली	-10320
मानों	-10321
▁आलेख	-10322
▁लाइट	-10323
▁लैंड	-10324
▁जिसमे	-10325
▁रस्सी	-10326
▁नारियल	-10327
▁प्रौढ़	-10328
▁पुरस्कारों	-10329
▁As	-10330
▁ढाँ	-10331
▁धनी	-10332
▁पंक	-10333
▁एसके	-10334
▁मवेश	-10335
▁यकीन	-10336
▁लापता	-10337
▁एनसीटी	-10338
▁डिक्शन	-10339
▁कार्यपाल	-10340
▁तौल	-10341
▁गयीं	-10342
▁रत्न	-10343
▁अभिया	-10344
▁जगहों	-10345
▁मानों	-10346
▁राहुल	-10347
▁हिंसक	-10348
▁प्रादेश	-10349
▁परिसंपत्तियों	-10350
जुए	-10351
बुक	-10352
सनी	-10353
एमएस	-10354
लब्ध	-10355
▁बाप	-10356
▁औजार	-10357
▁गुस्	-10358
▁पद्म	-10359
णात्मक	-10360
▁उपद्र	-10361
▁बदलते	-10362
▁विश्राम	-10363
▁संपादित	-10364
▁उत्तरार्	-10365
▁संक्रिया	-10366
ंथि	-10367
ल्टर	-10368
▁जोन	-10369
▁मौल	-10370
च्छाद	-10371
▁लीटर	-10372
▁सीबी	-10373
▁अन्तः	-10374
▁टकराव	-10375
▁मिश्र	-10376
▁असहमति	-10377
▁ग्राउंड	-10378
णता	-10379
फीति	-10380
शोधन	-10381
▁धूप	-10382
▁मला	-10383
जीवित	-10384
लिप्त	-10385
▁पच्च	-10386
▁फ्लै	-10387
▁लेआउट	-10388
▁समझती	-10389
▁सेकंड	-10390
▁विचलित	-10391
▁लक्षणों	-10392
ंगर	-10393
मरी	-10394
ोटा	-10395
,000	-10396
▁ऋणी	-10397
▁झेल	-10398
▁बृह	-10399
▁बदलें	-10400
▁तेलुगु	-10401
▁अभिभावक	-10402
▁डिक्शनरी	-10403
eal	-10404
▁DR	-10405
▁कछ	-10406
▁डीवी	-10407
▁पैदल	-10408
▁सन्त	-10409
▁हिमन	-10410
▁टेक्न	-10411
▁पाण्ड	-10412
▁सोचना	-10413
▁छोड़ना	-10414
ty	-10415
दो	-10416
लापन	-10417
श्ले	-10418
ोजकों	-10419
▁अंशदान	-10420
ंटू	-10421
▁अधू	-10422
▁एस्	-10423
ालैंड	-10424
▁कंटे	-10425
▁मलया	-10426
▁सांठ	-10427
▁बर्तन	-10428
▁पहुँचने	-10429
▁प्रवासी	-10430
▁साक्षियों	-10431
▁अप्रत्याशित	-10432
aw	-10433
ew	-10434
ह्	-10435
uri	-10436
▁मग	-10437
▁CPC	-10438
▁एंव	-10439
▁जनक	-10440
▁रेज	-10441
बोर्ड	-10442
▁इन्फ	-10443
▁गहने	-10444
▁फैली	-10445
▁पढ़ें	-10446
▁मल्टी	-10447
▁पक्षीय	-10448
▁प्रचलन	-10449
▁पांचवें	-10450
▁प्रत्याय	-10451
▁व्यक्तिपरक	-10452
▁निष्क्रियता	-10453
्तन	-10454
वेली	-10455
▁Ltd	-10456
नियों	-10457
▁गुर्	-10458
▁विगत	-10459
▁जोड़कर	-10460
▁निकटता	-10461
▁पासवर्ड	-10462
▁अविभाजित	-10463
▁प्रादेशिक	-10464
▁वार्ताकार	-10465
शेष	-10466
ेली	-10467
राबरी	-10468
▁मल्ल	-10469
▁सीसी	-10470
▁Distt	-10471
▁क्लास	-10472
▁घोड़े	-10473
▁वर्षो	-10474
▁श्वास	-10475
▁शीघ्रता	-10476
▁परिपूर्ण	-10477
▁बुद्धिमान	-10478
OP	-10479
ड़ने	-10480
नायक	-10481
ैर्य	-10482
▁मीन	-10483
तानों	-10484
▁एनसी	-10485
▁बांस	-10486
▁गन्ना	-10487
▁बैंकर	-10488
▁गर्भाव	-10489
▁परजीवी	-10490
▁बैलेंस	-10491
▁विक्रम	-10492
▁डेटाबेस	-10493
▁सुलझाने	-10494
▁जबरदस्ती	-10495
▁संभावनाएं	-10496
▁क्रियाकलाप	-10497
दाद	-10498
बों	-10499
▁तरा	-10500
▁घर्षण	-10501
▁विचारणीय	-10502
▁उदाहरणार्थ	-10503
श्ता	-10504
▁आर्ट	-10505
▁ग्लो	-10506
▁सुने	-10507
▁वापिस	-10508
▁एनआईटी	-10509
ष्ट्रपति	-10510
▁इमारतों	-10511
▁स्मार्ट	-10512
▁बदरूद्दीन	-10513
▁आस्ट्रेलिया	-10514
न्च	-10515
शेखर	-10516
▁गाल	-10517
▁पैक	-10518
▁भाज	-10519
▁साँ	-10520
शास्त	-10521
▁फलों	-10522
▁एनएसई	-10523
▁फ्रें	-10524
▁संचरण	-10525
▁वायर्स	-10526
▁नागरिकता	-10527
▁प्रत्यारो	-10528
▁प्रस्तावक	-10529
▁प्रॉपर्टी	-10530
▁श्रीनिवास	-10531
▁ओह	-10532
▁असंग	-10533
▁कालि	-10534
▁टांग	-10535
▁नींद	-10536
▁सूखे	-10537
▁सैयद	-10538
▁वीर्य	-10539
▁अवयवों	-10540
▁उद्यमी	-10541
▁नाटकीय	-10542
▁कलात्मक	-10543
▁दर्शकों	-10544
▁बोलियों	-10545
▁प्रमुखों	-10546
गाल	-10547
रोस	-10548
वेन	-10549
ाणु	-10550
▁कैश	-10551
युद्ध	-10552
▁वादे	-10553
▁घूंघट	-10554
▁असंख्य	-10555
▁दीक्षा	-10556
▁सोवियत	-10557
▁हेरफेर	-10558
▁दोस्तों	-10559
▁प्रतिकर	-10560
▁स्वदेशी	-10561
▁एकाधिकार	-10562
▁देनदारियों	-10563
▁युक्तियुक्त	-10564
dl	-10565
ATE	-10566
माल	-10567
प्टर	-10568
▁SAR	-10569
▁अड़	-10570
▁गुज	-10571
▁जीप	-10572
▁जूट	-10573
▁तंज	-10574
▁बुश	-10575
▁होश	-10576
डियों	-10577
फोर्ड	-10578
▁अवयव	-10579
▁मेनन	-10580
▁सुलभ	-10581
▁निरन्तर	-10582
▁आकाशवाणी	-10583
▁निःशुल्क	-10584
▁अस्पतालों	-10585
ेब	-10586
AND	-10587
िगर	-10588
▁पग	-10589
ायगी	-10590
▁शैल	-10591
▁बेचे	-10592
▁राशन	-10593
▁आरपीसी	-10594
▁प्रमोद	-10595
▁प्रमाणन	-10596
▁मानहानि	-10597
▁सैंट्रो	-10598
ce	-10599
▁छुप	-10600
▁बगी	-10601
्रेशन	-10602
▁बंधे	-10603
▁साहा	-10604
▁पर्चे	-10605
▁पोर्टल	-10606
▁मृतकों	-10607
▁विचारक	-10608
▁स्वराज	-10609
▁दंडादेश	-10610
▁स्वयंसे	-10611
▁पर्यवेक्षी	-10612
SR	-10613
घाट	-10614
टाइ	-10615
ावे	-10616
्रत	-10617
चिकित	-10618
▁लाता	-10619
▁जांचा	-10620
▁सांसद	-10621
▁अद्भुत	-10622
▁महाकाव	-10623
▁संकेतों	-10624
▁कार्यभार	-10625
▁भूतपूर्व	-10626
▁समितियां	-10627
▁विसंगतियां	-10628
▁ताम	-10629
▁कुर्की	-10630
▁प्रेमी	-10631
▁प्रोफ़	-10632
▁परिसीमा	-10633
▁धूम्रपान	-10634
▁अनौपचारिक	-10635
क्के	-10636
▁किर	-10637
शिल्प	-10638
▁भलाई	-10639
▁सुल्	-10640
▁धारित	-10641
▁समेकन	-10642
▁निभाने	-10643
▁निवेशक	-10644
▁टुकड़ों	-10645
▁स्वार्थ	-10646
NA	-10647
णसी	-10648
्लो	-10649
जिकल	-10650
▁शशि	-10651
▁एंटर	-10652
▁यूएस	-10653
▁वनों	-10654
▁संपर	-10655
क्रमित	-10656
▁इशारे	-10657
▁द्रव्य	-10658
▁रात्रि	-10659
▁आंबेडकर	-10660
▁पहचानने	-10661
▁अस्पष्टता	-10662
▁औपचारिकता	-10663
्थ	-10664
लता	-10665
▁vii	-10666
▁खैर	-10667
घोषणा	-10668
ांजलि	-10669
▁कोटि	-10670
▁पैंट	-10671
▁रूसी	-10672
▁ललित	-10673
▁चक्कर	-10674
▁प्वाइ	-10675
▁अपीलें	-10676
▁अर्द्ध	-10677
▁स्थानाप	-10678
▁विवेकाधिकार	-10679
SL	-10680
▁चोर	-10681
▁फेर	-10682
▁फैले	-10683
▁मुखिया	-10684
▁राज़्य	-10685
उथ	-10686
डब	-10687
क्ल	-10688
आईडी	-10689
मानंद	-10690
▁अतएव	-10691
▁रोटी	-10692
▁आंखें	-10693
▁कमाने	-10694
▁भूटान	-10695
▁सशर्त	-10696
▁रवींद्र	-10697
▁ऑपरेटरों	-10698
▁क्रियाओं	-10699
▁कार्यकर्ताओं	-10700
ip	-10701
कीर	-10702
गुण	-10703
जाक	-10704
एससी	-10705
▁पंथ	-10706
ंक्शन	-10707
कानाथ	-10708
क्राम	-10709
▁क्षे	-10710
▁त्यो	-10711
▁दुरा	-10712
▁रोने	-10713
▁लेटर	-10714
ंगाबाद	-10715
▁अनैतिक	-10716
▁डंपिंग	-10717
▁किनारों	-10718
▁मध्यवर्ती	-10719
हाद	-10720
डेंट	-10721
▁SCR	-10722
वृत्त	-10723
▁आरके	-10724
▁कदमों	-10725
▁चुपचाप	-10726
▁पंजीयक	-10727
▁एमएसएमई	-10728
▁कार्यवाहियां	-10729
la	-10730
चाने	-10731
▁अटल	-10732
▁भली	-10733
▁वेग	-10734
वर्धन	-10735
▁खिंच	-10736
▁जूते	-10737
▁राणा	-10738
▁भित्त	-10739
ुस्तानी	-10740
▁आयातित	-10741
▁बालकों	-10742
▁भौतिकी	-10743
▁क्वार्टर	-10744
▁द्वारकानाथ	-10745
थल	-10746
▁Sa	-10747
▁डू	-10748
एनएल	-10749
सिया	-10750
▁पडे	-10751
वस्था	-10752
▁जीडी	-10753
▁नोडल	-10754
ष्णुता	-10755
▁स्कैन	-10756
▁नागपुर	-10757
▁वाशिंग	-10758
▁वाराणसी	-10759
▁मास्टर्स	-10760
eri	-10761
ोरम	-10762
पानी	-10763
▁आरा	-10764
▁डेय	-10765
▁पदक	-10766
▁मिट	-10767
▁भाभी	-10768
▁स्टो	-10769
ुद्दीन	-10770
▁चाहें	-10771
▁राजपू	-10772
▁तीव्रता	-10773
▁प्रिंटर	-10774
▁काउंसलिंग	-10775
▁ज्योतिर्म	-10776
▁क्षतिग्रस्त	-10777
ea	-10778
▁AT	-10779
नामी	-10780
प्शन	-10781
फ़्ट	-10782
▁झलक	-10783
▁पंप	-10784
▁लौह	-10785
लीकरण	-10786
▁हमसे	-10787
▁चौथाई	-10788
▁डालकर	-10789
▁बनायी	-10790
▁उत्थान	-10791
▁कैरियर	-10792
▁जनजातीय	-10793
▁निमंत्रण	-10794
▁प्रतिष्ठानों	-10795
CL	-10796
रिश	-10797
लेन	-10798
ायन	-10799
▁NE	-10800
▁हू	-10801
▁PIL	-10802
▁अवध	-10803
▁नली	-10804
▁रूक	-10805
▁सने	-10806
▁टाइम	-10807
▁पारे	-10808
▁बजाए	-10809
▁एआईसी	-10810
▁डेविड	-10811
िष्णुता	-10812
▁लक्षित	-10813
▁कूटशब्द	-10814
▁यथासंभव	-10815
▁सिक्किम	-10816
▁सहकारिता	-10817
मस	-10818
बेल	-10819
लीम	-10820
▁सऋ	-10821
▁app	-10822
▁मदर	-10823
▁मैप	-10824
▁एफटी	-10825
▁मोनो	-10826
▁शासी	-10827
प्रणाली	-10828
▁लाभप्रद	-10829
▁गुणसूत्र	-10830
hak	-10831
असल	-10832
सम्	-10833
▁जॉ	-10834
ल्यू	-10835
वर्ण	-10836
▁व्ह	-10837
म्बित	-10838
▁अनभि	-10839
▁आईएस	-10840
▁एलपी	-10841
▁चांदी	-10842
▁बारिश	-10843
▁बुलाई	-10844
▁सरलता	-10845
▁टिकटों	-10846
▁संपादन	-10847
ार्श्विक	-10848
▁चमत्कार	-10849
▁पहुंचाया	-10850
▁मांसपेशियों	-10851
ंदे	-10852
न्दन	-10853
सिले	-10854
▁बसा	-10855
▁रबर	-10856
▁चाहा	-10857
▁डेयरी	-10858
▁शुष्क	-10859
▁खुलासे	-10860
▁संख़्या	-10861
तीक	-10862
बड़	-10863
स्स	-10864
▁SA	-10865
ालाल	-10866
▁करण	-10867
▁फूट	-10868
▁अंतत	-10869
▁इनाम	-10870
▁पांव	-10871
▁खतरों	-10872
▁घुमाव	-10873
▁महंगा	-10874
▁लिपिक	-10875
▁पीडीडी	-10876
▁सेवाएँ	-10877
▁स्टाम्	-10878
▁विलक्षण	-10879
▁परिचालित	-10880
▁सम्भावना	-10881
▁सेंटीमीटर	-10882
▁प्रमाणीकरण	-10883
▁प्रौद्योगिकियों	-10884
ारह	-10885
िकता	-10886
▁अनर	-10887
▁Panc	-10888
▁ऊर्ध	-10889
▁नागर	-10890
▁मदों	-10891
▁वक्र	-10892
▁फास्ट	-10893
▁बिलियन	-10894
▁वसूलने	-10895
▁समयबद्ध	-10896
▁यूनिवर्सिटी	-10897
ali	-10898
ंसे	-10899
यता	-10900
▁नट	-10901
▁पस	-10902
▁कस्	-10903
▁बाइ	-10904
क्रेट	-10905
▁कॉम्	-10906
▁पोषक	-10907
ज्ञानी	-10908
▁तोड़ने	-10909
▁बाधाओं	-10910
▁त्योहार	-10911
▁नीतियां	-10912
▁संसाधित	-10913
▁ट्रैक्टर	-10914
▁परंपराओं	-10915
▁टिप्पणियां	-10916
III	-10917
रात	-10918
शास	-10919
ारस	-10920
वाने	-10921
▁महज	-10922
द्वार	-10923
▁ज्या	-10924
▁टीआई	-10925
▁सत्त	-10926
▁ध्रुव	-10927
▁रक्षक	-10928
▁हेमंत	-10929
▁अलार्म	-10930
▁पर्यटक	-10931
▁पोस्टिंग	-10932
▁गर्भावस्था	-10933
SS	-10934
२२	-10935
hay	-10936
ईटी	-10937
विस	-10938
ौला	-10939
▁Al	-10940
एफआर	-10941
ियॉँ	-10942
▁अनी	-10943
▁आएगी	-10944
▁पायी	-10945
▁बीयर	-10946
▁शरार	-10947
▁करुणा	-10948
▁दरअसल	-10949
▁पिछला	-10950
▁अनुयाय	-10951
▁तयशुदा	-10952
▁रिसीवर	-10953
▁सीमाएं	-10954
▁कंट्राब	-10955
▁शब्दावली	-10956
▁अंतर्विष्ट	-10957
लेज	-10958
ॉक्स	-10959
▁उमा	-10960
▁निब	-10961
▁खोले	-10962
▁द्वी	-10963
▁मदुर	-10964
▁वाणी	-10965
▁एरिया	-10966
▁छोड़े	-10967
▁जमाने	-10968
▁मिलान	-10969
▁संजाल	-10970
▁हालात	-10971
▁अग्रसर	-10972
▁ग्लोबल	-10973
▁जुटाने	-10974
▁स्पष्टता	-10975
ti	-10976
बुल	-10977
मिनी	-10978
▁पैन	-10979
▁उंगली	-10980
▁श्रवण	-10981
ेट्रिक्स	-10982
▁अप्राकृतिक	-10983
लीफ	-10984
ोटो	-10985
▁डिक	-10986
▁मता	-10987
▁आशीष	-10988
▁केवी	-10989
दृष्टि	-10990
▁निर्म	-10991
▁फ्रां	-10992
▁बोलता	-10993
▁आबंटित	-10994
▁एनएसईएल	-10995
▁काश्मीर	-10996
▁प्लानिंग	-10997
▁समानांतर	-10998
▁पर्यवेक्षक	-10999
hu	-11000
aul	-11001
▁अप्	-11002
▁दाल	-11003
श्यों	-11004
▁अनुभ	-11005
▁पीएच	-11006
▁कोष्ठ	-11007
▁महाले	-11008
▁सश्रम	-11009
▁अंसारी	-11010
▁मुख़्य	-11011
▁राजकीय	-11012
▁प्वाइंट	-11013
▁हलफनामों	-11014
ंड़	-11015
▁कुंद	-11016
▁गुला	-11017
▁नीला	-11018
▁ब्ले	-11019
▁व्यतीत	-11020
▁इंस्ट्रू	-11021
डेट	-11022
नीस	-11023
नेल	-11024
▁मुंस	-11025
▁शिवा	-11026
▁यमुना	-11027
▁जहाजों	-11028
▁फ़ॉन्ट	-11029
▁सर्वथा	-11030
▁साइटों	-11031
▁जवाबदेही	-11032
▁परिवीक्षाधीन	-11033
▁सप	-11034
▁दखल	-11035
▁WANo	-11036
▁मतों	-11037
▁सीएल	-11038
▁सोलह	-11039
ान्वित	-11040
▁अजनबी	-11041
▁यौगिक	-11042
▁स्राव	-11043
▁नामकरण	-11044
▁आक्रामक	-11045
▁बेटियों	-11046
▁मेगावाट	-11047
▁विकल्पों	-11048
▁व्यवहार्य	-11049
▁भविष्यवाणी	-11050
०ख	-11051
रीद	-11052
ुवा	-11053
▁AD	-11054
▁is	-11055
ालीस	-11056
▁एनआर	-11057
▁किला	-11058
▁जजों	-11059
▁हीरा	-11060
▁पुर्त	-11061
▁स्टाक	-11062
▁हल्का	-11063
▁उपरांत	-11064
▁रखेंगे	-11065
▁वर्ल्ड	-11066
▁कल्याणकारी	-11067
▁दुर्भावनापूर्ण	-11068
ंकि	-11069
दिर	-11070
▁ढूँ	-11071
▁Addl	-11072
▁आन्त	-11073
▁कचरे	-11074
▁मोटी	-11075
▁खातून	-11076
▁दोहरे	-11077
▁मूलतः	-11078
▁रंगों	-11079
▁विबंधन	-11080
▁सउ	-11081
▁Sun	-11082
▁घटी	-11083
▁नीले	-11084
▁अपलोड	-11085
▁आलिया	-11086
▁पढ़ते	-11087
▁कंस्ट्र	-11088
▁बागवानी	-11089
▁राधाकृष्णन	-11090
aa	-11091
बिन	-11092
▁एफए	-11093
▁डिप	-11094
▁बूट	-11095
क्ट्स	-11096
ग्राम	-11097
▁अनवर	-11098
▁वाष्	-11099
▁खाड़ी	-11100
▁खुलने	-11101
▁भीतरी	-11102
िफिकेशन	-11103
▁किराये	-11104
▁औरंगाबाद	-11105
▁भावनात्मक	-11106
MP	-11107
ढा	-11108
बै	-11109
ati	-11110
ंडर	-11111
फान	-11112
▁AB	-11113
▁अछ	-11114
▁मन्	-11115
वालों	-11116
▁बगैर	-11117
▁असहाय	-11118
▁तुर्क	-11119
▁बेसिक	-11120
▁दाहिनी	-11121
▁प्रथाओं	-11122
घाती	-11123
चनों	-11124
डियम	-11125
ानिक	-11126
▁खाई	-11127
▁कोटे	-11128
▁क्षय	-11129
▁खोजा	-11130
▁बढ़ो	-11131
▁मीना	-11132
▁अतिशय	-11133
▁खजाने	-11134
▁भयंकर	-11135
▁दिलाया	-11136
▁चुंबकीय	-11137
▁कॉरपोरेशन	-11138
▁रेगिस्तान	-11139
▁प्रतिबंधों	-11140
▁संपार्श्विक	-11141
▁टेस्टेट्रिक्स	-11142
▁्	-11143
ort	-11144
िखित	-11145
▁एमए	-11146
▁नवल	-11147
▁हरित	-11148
▁जरुरी	-11149
▁संदीप	-11150
▁निर्मल	-11151
▁लार्वा	-11152
▁छुटकारा	-11153
▁अनुमानों	-11154
OL	-11155
ram	-11156
वात	-11157
▁OA	-11158
ंटीन	-11159
दर्य	-11160
▁खुर	-11161
▁चेन	-11162
▁नसी	-11163
▁नूर	-11164
▁बाघ	-11165
▁मुज	-11166
▁धुंध	-11167
▁समेत	-11168
▁अड्डे	-11169
▁सुप्र	-11170
▁चंद्रा	-11171
▁सीमांत	-11172
▁मॉड्यूल	-11173
▁सिलसिले	-11174
▁एआईसीटीई	-11175
▁निभ	-11176
▁मॉड	-11177
▁लहर	-11178
देशीय	-11179
▁अमीन	-11180
▁दायी	-11181
▁लगीं	-11182
▁नजदीक	-11183
▁बहाना	-11184
▁खाद्या	-11185
▁अज्ञानता	-11186
▁अनुयायियों	-11187
WP	-11188
आइ	-11189
गै	-11190
एनओ	-11191
वेद	-11192
▁भटक	-11193
▁मेध	-11194
▁रेग	-11195
▁सान	-11196
▁एलपीए	-11197
▁जयपुर	-11198
▁नाट्य	-11199
▁करवाया	-11200
▁लागतों	-11201
▁समुच्च	-11202
▁पत्थरों	-11203
▁सांठगांठ	-11204
▁कार्यशाला	-11205
सस	-11206
▁At	-11207
▁टु	-11208
न्दी	-11209
ावार	-11210
▁ध्य	-11211
▁नां	-11212
▁पडा	-11213
▁अभया	-11214
▁असम्	-11215
्रीकरण	-11216
▁एकांत	-11217
▁एप्ली	-11218
▁ख्याल	-11219
▁अंडमान	-11220
▁मंत्रि	-11221
▁देखेंगे	-11222
▁कॉरपोरेट	-11223
▁लख	-11224
▁शत	-11225
रकों	-11226
र्शी	-11227
▁बुझ	-11228
▁रिप	-11229
▁जंतु	-11230
▁तटीय	-11231
▁पहना	-11232
▁मामा	-11233
▁सुवि	-11234
▁जरुरत	-11235
▁भयावह	-11236
▁मेमोर	-11237
▁सेक्स	-11238
हम	-11239
ँगा	-11240
ूलर	-11241
ॉपी	-11242
▁कलम	-11243
▁वैन	-11244
ाइलों	-11245
▁आंगन	-11246
▁कैसा	-11247
▁बीघा	-11248
▁मंदी	-11249
▁मनीष	-11250
▁सिया	-11251
निर्भर	-11252
▁गोल्ड	-11253
▁निवेद	-11254
▁विकेट	-11255
▁वैद्य	-11256
▁साम्य	-11257
र्तियों	-11258
▁बेईमान	-11259
▁अपवादों	-11260
▁विलंबित	-11261
और	-11262
भीत	-11263
इयाँ	-11264
ण्डी	-11265
फिया	-11266
ंत्रण	-11267
▁क्यो	-11268
▁छड़ी	-11269
▁भूतल	-11270
▁मुहा	-11271
▁स्का	-11272
▁कन्या	-11273
▁बनाएँ	-11274
▁लिस्ट	-11275
▁अंतरंग	-11276
▁चटर्जी	-11277
▁लैंगिक	-11278
▁स्टाम्प	-11279
▁प्रतिभाग	-11280
▁प्रतिरूप	-11281
▁आधुनिकीकरण	-11282
DA	-11283
नोई	-11284
▁Sc	-11285
▁ww	-11286
ogle	-11287
▁Nar	-11288
▁अमी	-11289
▁जोड	-11290
▁खादी	-11291
▁लाला	-11292
रीक्षक	-11293
ुतीकरण	-11294
▁गांजा	-11295
▁ग्रिड	-11296
▁धैर्य	-11297
▁नाजुक	-11298
▁अंतररा	-11299
ंजक	-11300
▁IC	-11301
▁ओल	-11302
▁खली	-11303
र्मित	-11304
▁अंधा	-11305
▁दागी	-11306
▁पारस	-11307
▁सुझा	-11308
▁कम्पन	-11309
▁कोरिया	-11310
▁मुनाफे	-11311
▁village	-11312
▁अनभिज्ञ	-11313
▁ग्रंथों	-11314
▁प्रभारित	-11315
▁AN	-11316
ोत्स	-11317
▁रिए	-11318
त्तूर	-11319
ालिया	-11320
ित्री	-11321
▁बहने	-11322
▁शिरा	-11323
▁साधु	-11324
▁Nagar	-11325
▁इंसान	-11326
▁जीतने	-11327
▁बराबरी	-11328
▁सुधारा	-11329
▁वाजपेयी	-11330
▁उत्पादकों	-11331
खने	-11332
लयन	-11333
....	-11334
▁पों	-11335
द्रता	-11336
▁एमआर	-11337
▁शंका	-11338
▁सदमे	-11339
▁बैठकर	-11340
▁अनुज्ञ	-11341
▁पासवान	-11342
▁प्रत्यु	-11343
▁स्त्रोत	-11344
▁द्वितीयक	-11345
▁व्यापकता	-11346
▁शक्तियाँ	-11347
▁संरचनात्मक	-11348
▁कॉम्प्लेक्स	-11349
▁प्रविष्टियां	-11350
ase	-11351
दगी	-11352
▁आभ	-11353
बिंद	-11354
▁SRI	-11355
▁धरा	-11356
भावित	-11357
▁झुकाव	-11358
▁पर्दा	-11359
▁रूल्स	-11360
▁संघों	-11361
▁सुधीर	-11362
▁निकटतम	-11363
▁प्रधाना	-11364
▁नियन्त्रण	-11365
▁रिपोर्टिंग	-11366
ue	-11367
ash	-11368
डित	-11369
िज़	-11370
▁दफ	-11371
स्टल	-11372
िपरि	-11373
▁केशव	-11374
▁डिवा	-11375
▁मापन	-11376
▁युवक	-11377
▁सूखा	-11378
▁असत्य	-11379
▁मुल्क	-11380
▁रंगीन	-11381
▁निपटना	-11382
▁मैनेजर	-11383
▁सीरियल	-11384
▁संवितरण	-11385
▁दुर्भाग्यपूर्ण	-11386
ंकार	-11387
गुना	-11388
▁कटि	-11389
▁ताक	-11390
▁कमला	-11391
▁रोशन	-11392
▁सिवा	-11393
▁पाटिल	-11394
▁ब्रेक	-11395
▁मदुरै	-11396
▁सुचार	-11397
▁निकलते	-11398
▁नागालैंड	-11399
▁पूर्वजों	-11400
▁विज्ञापित	-11401
▁संपूर्णता	-11402
▁पुनर्जीवित	-11403
ट्टे	-11404
▁CBI	-11405
▁आरएफ	-11406
▁गुणक	-11407
▁घेरे	-11408
▁दस्त	-11409
▁भूषण	-11410
▁युसु	-11411
▁सिंघ	-11412
▁घुटने	-11413
▁पूँजी	-11414
▁कमजोरी	-11415
▁कैंटीन	-11416
▁सेनाओं	-11417
▁Panchay	-11418
▁अखबारों	-11419
▁सीमांकन	-11420
▁अब्दुल्ला	-11421
ICT	-11422
न्सी	-11423
०वें	-11424
▁www	-11425
▁उदर	-11426
वश्यक	-11427
▁रूढ़	-11428
▁लगाव	-11429
▁लिफा	-11430
▁आँखें	-11431
▁घटाकर	-11432
▁बोलना	-11433
▁जांचने	-11434
▁लाइनों	-11435
▁सुनीता	-11436
▁इकाइयां	-11437
▁जल्दबाजी	-11438
▁उत्परिवर्तन	-11439
पृ	-11440
गर्	-11441
हनी	-11442
बर्ग	-11443
▁ओएस	-11444
▁घोल	-11445
▁वेट	-11446
arpur	-11447
मुश्त	-11448
▁डिपो	-11449
पॉलिटन	-11450
लेरिया	-11451
▁बैटरी	-11452
▁वैश्व	-11453
▁दिखायी	-11454
▁मेधावी	-11455
▁सदियों	-11456
▁सर्जरी	-11457
▁हिम्मत	-11458
▁मर्यादा	-11459
▁Panchayat	-11460
▁एप्लीकेशन	-11461
▁मंत्रिपरि	-11462
▁इंश्योरेंस	-11463
▁डबल	-11464
▁रत्	-11465
▁लॉक	-11466
▁RERA	-11467
▁डेढ़	-11468
पतियों	-11469
▁चालीस	-11470
▁प्रैक्ट	-11471
▁डब्ल्यूपी	-11472
▁क्रियाकलापों	-11473
फू	-11474
हू	-11475
नरी	-11476
▁लय	-11477
▁पलट	-11478
स्टोन	-11479
▁ताना	-11480
▁रेंट	-11481
▁इंस्ट	-11482
▁नायडू	-11483
▁पड़ते	-11484
▁पावती	-11485
▁कम्युनि	-11486
▁पूर्वानु	-11487
▁सुभाषबाबू	-11488
▁स्टेटमेंट	-11489
▁प्रारम्भिक	-11490
▁गर	-11491
ख्ता	-11492
र्धा	-11493
▁असं	-11494
रोहित	-11495
▁तरंग	-11496
▁तेजा	-11497
▁पिल्ल	-11498
▁भ्रमण	-11499
▁मंचों	-11500
▁मनगढ़	-11501
▁Google	-11502
▁संक्रमित	-11503
▁कार्यपालक	-11504
▁अंतःस्थापित	-11505
TA	-11506
ard	-11507
ज़्	-11508
ुगत	-11509
▁LW	-11510
ऊंगा	-11511
एक्स	-11512
फ़्त	-11513
श्री	-11514
्यवश	-11515
वस्तु	-11516
ृद्धि	-11517
▁अनार	-11518
▁दुखद	-11519
▁बैठी	-11520
लिसिटर	-11521
▁खानों	-11522
▁निजाम	-11523
▁परिपथ	-11524
▁बुखार	-11525
▁सिंधी	-11526
▁सैद्ध	-11527
▁स्केच	-11528
▁खींचने	-11529
▁अरुणाचल	-11530
▁कक्षाओं	-11531
▁पण	-11532
र्मी	-11533
हाली	-11534
▁कोच	-11535
▁पला	-11536
▁बास	-11537
▁मुक	-11538
▁पायल	-11539
▁माइन	-11540
▁मेनू	-11541
▁राइट	-11542
▁विस्	-11543
▁शाहज	-11544
▁तारों	-11545
▁दर्जे	-11546
▁फारसी	-11547
ब्दियों	-11548
ोल्यूशन	-11549
▁जमीनों	-11550
▁दांतों	-11551
▁मलयालम	-11552
▁आवृत्ति	-11553
▁पहुंचना	-11554
▁न्यायपीठ	-11555
▁आर्बिट्रल	-11556
▁ठेकेदारों	-11557
▁आवश्यकताएं	-11558
▁मेट्रोपॉलिटन	-11559
ताई	-11560
रणी	-11561
ष्मा	-11562
▁छठे	-11563
▁मोल	-11564
▁सघन	-11565
▁सत्	-11566
▁सदर	-11567
रेक्ट	-11568
ष्पीठ	-11569
▁जवान	-11570
▁त्या	-11571
▁विका	-11572
्यूटरी	-11573
▁यार्ड	-11574
▁व्यंग	-11575
▁क्यूरी	-11576
▁चट्टान	-11577
▁शौचालय	-11578
▁आदर्शों	-11579
▁अनुपलब्ध	-11580
▁इस्लामिक	-11581
▁स्टेशनों	-11582
▁गवर्नमेंट	-11583
▁पड़ोसियों	-11584
शर	-11585
ग्न	-11586
▁Am	-11587
वांछ	-11588
▁नाश	-11589
▁वजी	-11590
▁शिल	-11591
▁समनु	-11592
▁अंकुश	-11593
▁खुराक	-11594
▁डकैती	-11595
▁बनाएं	-11596
▁साहिब	-11597
▁अप्रति	-11598
▁क्लॉज़	-11599
▁नवाचार	-11600
▁रोस्टर	-11601
२३	-11602
पीओ	-11603
▁GO	-11604
ागार	-11605
▁Par	-11606
▁नशी	-11607
▁हता	-11608
▁चाबी	-11609
▁पीले	-11610
▁भेड़	-11611
▁वैसी	-11612
▁सीने	-11613
मिश्रण	-11614
▁जमीनी	-11615
▁सावधि	-11616
▁स्टेज	-11617
▁हास्य	-11618
▁पाएंगे	-11619
▁तकनीकों	-11620
▁विध्वंस	-11621
ंछ	-11622
▁उग	-11623
प्पी	-11624
▁Man	-11625
रलैंड	-11626
▁गाने	-11627
▁दाईं	-11628
▁वल्ल	-11629
▁सुमन	-11630
▁कारित	-11631
▁फैलाव	-11632
▁मनाने	-11633
▁संवर्	-11634
▁आच्छाद	-11635
▁डीलरों	-11636
▁ताजमहल	-11637
▁मनगढ़ंत	-11638
▁आपत्तिजनक	-11639
▁आतंकवादियों	-11640
थ्म	-11641
▁MAN	-11642
▁दाँ	-11643
▁नक़	-11644
▁रोब	-11645
▁Shri	-11646
▁एमवी	-11647
▁घिरा	-11648
▁सुखद	-11649
▁गुमराह	-11650
▁नवीनीकृत	-11651
▁हड्डियों	-11652
ARA	-11653
जना	-11654
साजी	-11655
हरों	-11656
▁for	-11657
▁करन	-11658
ष्टिक	-11659
्यकों	-11660
▁अमित	-11661
▁मृदा	-11662
▁वर्षीय	-11663
ust	-11664
बुद	-11665
▁ढा	-11666
म्मे	-11667
हाउस	-11668
▁जले	-11669
▁थलग	-11670
▁कस्ट	-11671
▁ज्वर	-11672
▁नौका	-11673
कुमारी	-11674
▁हफ्ते	-11675
▁बढ़ाते	-11676
▁ऑक्सीजन	-11677
▁दीक्षित	-11678
▁पंचायती	-11679
▁पहुंचता	-11680
▁महासचिव	-11681
▁परिष्कृत	-11682
CR	-11683
▁ae	-11684
ुकला	-11685
▁ऊंट	-11686
नागरी	-11687
▁बीजी	-11688
▁बहनों	-11689
▁सहारे	-11690
▁जापानी	-11691
▁नौसेना	-11692
▁अपमानित	-11693
▁किताबें	-11694
▁अभयारण्य	-11695
▁उद्घोषणा	-11696
▁असिस्टेंट	-11697
▁हस्ताक्षरकर्ता	-11698
▁मरण	-11699
▁राध	-11700
डरेशन	-11701
▁परमा	-11702
▁भद्र	-11703
▁सउदी	-11704
▁हरीश	-11705
▁चौड़ी	-11706
▁पाउडर	-11707
▁भयभीत	-11708
▁भूकंप	-11709
▁लिखें	-11710
▁पच्चीस	-11711
▁ब्रिता	-11712
▁शृंखला	-11713
▁परिसरों	-11714
▁आकांक्षाओं	-11715
▁ं	-11716
▁इर	-11717
गाँव	-11718
▁बृज	-11719
▁हज़	-11720
▁अम्ल	-11721
▁एमटी	-11722
▁कपिल	-11723
▁क़ुर	-11724
▁ज़ोन	-11725
▁बोनस	-11726
▁लोकल	-11727
क्ष्मी	-11728
▁मणीलाल	-11729
▁स्पेशल	-11730
▁उत्तेजना	-11731
▁देवेंद्र	-11732
▁मालिकाना	-11733
▁सर्विसेज	-11734
▁परिपक्वता	-11735
▁विस्थापित	-11736
▁पुनर्प्राप्त	-11737
▁बछ	-11738
▁कुंज	-11739
▁कुला	-11740
▁गाली	-11741
▁मक्का	-11742
▁समाविष्ट	-11743
▁आत्मनिर्भर	-11744
िनो	-11745
सरों	-11746
▁उकस	-11747
▁जुट	-11748
▁नशे	-11749
▁हीन	-11750
▁Bhag	-11751
▁पल्ल	-11752
▁मुड़	-11753
▁सतत्	-11754
▁बैठता	-11755
▁समूचे	-11756
▁पुनर्भ	-11757
▁मुम्बई	-11758
▁निकोबार	-11759
▁ब्रह्मा	-11760
▁सुल्तान	-11761
▁देवनागरी	-11762
▁निविदाओं	-11763
▁कार्मिकों	-11764
ala	-11765
ive	-11766
सूरत	-11767
▁कन्	-11768
यार्क	-11769
▁अनूप	-11770
▁एम्ब	-11771
▁दाएं	-11772
पीडिया	-11773
र्निया	-11774
▁कच्चा	-11775
▁दिखने	-11776
▁दीजिए	-11777
▁पत्तन	-11778
▁लम्बा	-11779
▁अंधेरे	-11780
▁दोषियों	-11781
▁अस्वीकार्य	-11782
▁उपराष्ट्रपति	-11783
चाल	-11784
िती	-11785
▁एट	-11786
▁घसी	-11787
▁बाँध	-11788
▁भैंस	-11789
संबंधी	-11790
स्फीति	-11791
▁खेलों	-11792
▁उत्प्रे	-11793
▁बोर्डों	-11794
▁महत्वाक	-11795
▁इन्होंने	-11796
जेड	-11797
ेंग	-11798
▁छल	-11799
▁फट	-11800
▁एचएल	-11801
▁कच्छ	-11802
▁गिरि	-11803
▁गोरख	-11804
▁डीएस	-11805
▁मण्डल	-11806
▁उकसाने	-11807
▁एकमुश्त	-11808
▁प्रमोटर	-11809
▁खरीदारों	-11810
▁त्रिपुरा	-11811
▁सॉलिसिटर	-11812
▁अभ्यर्थियों	-11813
ING	-11814
कोण	-11815
विल	-11816
ोरा	-11817
ल्पी	-11818
▁टायर	-11819
▁ताला	-11820
▁क्षेञ	-11821
▁चलेगा	-11822
▁धक्का	-11823
▁ध्येय	-11824
▁फील्ड	-11825
▁राजकोष	-11826
▁ग्रेजुए	-11827
▁संरचनाओं	-11828
▁निर्दोषता	-11829
▁सम्बन्धों	-11830
ov	-11831
ंटल	-11832
अली	-11833
▁जघ	-11834
▁कपट	-11835
▁निध	-11836
▁भण्ड	-11837
▁म्यू	-11838
▁सौन्	-11839
▁मंडली	-11840
▁विशेन	-11841
▁संसद्	-11842
▁अजीबोग	-11843
▁फॉरेंसिक	-11844
▁ब्रितानी	-11845
TP	-11846
ank	-11847
कने	-11848
तरा	-11849
ोला	-11850
▁ढ़	-11851
नीचर	-11852
▁खिस	-11853
▁असीम	-11854
▁फीसदी	-11855
▁बदलती	-11856
▁मित्त	-11857
▁सरपंच	-11858
▁ज़िम्म	-11859
▁नियोजक	-11860
▁फर्मों	-11861
▁कलाकारों	-11862
▁रजिस्ट्रीकृत	-11863
ैड	-11864
दशा	-11865
▁ऊँच	-11866
▁गरम	-11867
▁हेल	-11868
ार्मा	-11869
▁अराज	-11870
▁उपजा	-11871
▁विलो	-11872
वर्षीय	-11873
▁बिलास	-11874
▁खनिजों	-11875
▁डिवाइस	-11876
▁सहेजें	-11877
धिकारियों	-11878
▁प्रोफाइल	-11879
▁ज्योतिष्पीठ	-11880
गौ	-11881
फलक	-11882
पाती	-11883
▁एएम	-11884
▁टोक	-11885
▁राठ	-11886
▁उभरा	-11887
▁रुग्	-11888
▁अवांछ	-11889
▁किसके	-11890
▁क्लिन	-11891
▁गुलाब	-11892
▁पक्का	-11893
▁उपासना	-11894
▁कुर्सी	-11895
▁चिन्ता	-11896
▁मुंसिफ	-11897
▁राजदूत	-11898
▁एकरूपता	-11899
▁रिवाजों	-11900
sa	-11901
ैप	-11902
▁बक्	-11903
▁रोट	-11904
▁हकी	-11905
▁एनएच	-11906
▁सिंड	-11907
▁अठारह	-11908
▁कृतियों	-11909
▁गोस्वामी	-11910
▁वाशिंगटन	-11911
▁उपन्यासों	-11912
ुए	-11913
इंग	-11914
चों	-11915
▁ex	-11916
राहट	-11917
▁Cri	-11918
▁रची	-11919
▁महार	-11920
▁निकली	-11921
▁बैठकें	-11922
▁भ्रमित	-11923
▁चिंताओं	-11924
▁द्वीपों	-11925
▁विधिज्ञ	-11926
▁स्ट्रिंग	-11927
▁सुपुर्दगी	-11928
▁विरोधाभासों	-11929
HI	-11930
हमी	-11931
▁अड	-11932
देड़	-11933
भोगी	-11934
ेंटल	-11935
▁गाज	-11936
▁डिब	-11937
▁मथु	-11938
▁उठने	-11939
▁मेला	-11940
▁विज़	-11941
▁साफ़	-11942
▁लीजिए	-11943
▁अदायगी	-11944
▁फाइलों	-11945
▁राजवंश	-11946
▁अनुयायी	-11947
▁पर्वतीय	-11948
▁सैकड़ों	-11949
▁शुक्राणु	-11950
▁संप्रेषण	-11951
▁अजीबोगरीब	-11952
▁छी	-11953
ोग्य	-11954
▁कॉफी	-11955
▁टीएस	-11956
▁निवल	-11957
▁मैरी	-11958
▁रावण	-11959
▁शोधन	-11960
▁चौड़ा	-11961
▁जिंदा	-11962
▁नोड्स	-11963
▁भिक्ष	-11964
▁मोहित	-11965
▁हममें	-11966
▁निपटाए	-11967
▁रुकावट	-11968
▁पंक्तियों	-11969
▁जिम्मेदारियों	-11970
ांट	-11971
्ये	-11972
▁De	-11973
नाइट	-11974
▁सेठ	-11975
▁अभिस	-11976
▁डीआई	-11977
▁खुदाई	-11978
▁घटिया	-11979
▁पदनाम	-11980
▁यूएसए	-11981
▁हिमनद	-11982
स्थापना	-11983
▁जनगणना	-11984
▁ज़रूरी	-11985
▁मूल्या	-11986
▁कित्तूर	-11987
▁रॉयल्टी	-11988
▁घटनाक्रम	-11989
▁एंटरप्राइ	-11990
▁संभाव्यता	-11991
RL	-11992
ob	-11993
ana	-11994
फिक	-11995
भंग	-11996
ैनी	-11997
प्रो	-11998
▁छठी	-11999
▁टेल	-12000
▁राख	-12001
▁इण्ड	-12002
▁डीपी	-12003
▁मानद	-12004
▁वाटर	-12005
▁्याय	-12006
▁SARFA	-12007
▁ईरानी	-12008
▁ऊँचाई	-12009
▁कारपो	-12010
▁बहनोई	-12011
▁शिफ्ट	-12012
▁समतुल	-12013
▁अन्वेष	-12014
▁अमूर्त	-12015
▁जंगलों	-12016
▁रिक्शा	-12017
▁संलिप्त	-12018
▁अभ्यर्थी	-12019
▁उदासीनता	-12020
▁नवान्वेषी	-12021
▁उपयोगकर्ताओं	-12022
▁कार्यप्रणाली	-12023
GA	-12024
MA	-12025
rd	-12026
गेट	-12027
लाभ	-12028
कुशल	-12029
▁शिष	-12030
▁अंडा	-12031
▁इंग्	-12032
▁तेरह	-12033
▁लाते	-12034
▁डेबिट	-12035
▁पुण्य	-12036
▁प्रोसेस	-12037
▁समग्रता	-12038
▁एमबीबीएस	-12039
▁वास्तुकला	-12040
ESI	-12041
क्म	-12042
▁RO	-12043
▁Un	-12044
ited	-12045
ियाई	-12046
▁पेंट	-12047
▁पौधा	-12048
▁पौरा	-12049
▁बीआई	-12050
▁माधव	-12051
▁हाजिर	-12052
▁आईसीटी	-12053
▁ग्रंथि	-12054
▁स्थावर	-12055
▁समुच्चय	-12056
▁अभिलिखित	-12057
▁महाकाव्य	-12058
▁राष्ट्रीयता	-12059
जनल	-12060
दरी	-12061
▁रौ	-12062
▁अपव	-12063
▁एसए	-12064
▁गिल	-12065
▁मोन	-12066
▁अनूठ	-12067
▁ज़ोर	-12068
▁बहुप	-12069
▁मोटा	-12070
▁स्कू	-12071
▁आसन्न	-12072
▁किश्त	-12073
▁जायगा	-12074
▁दोहरी	-12075
▁पत्रक	-12076
▁अनुभवी	-12077
▁एनेक्स	-12078
▁प्ररूप	-12079
▁करोड़ों	-12080
to	-12081
तुर	-12082
फुस	-12083
िकर	-12084
▁RA	-12085
▁उठी	-12086
कर्मी	-12087
योग्य	-12088
ामीटर	-12089
▁घंटा	-12090
▁भरना	-12091
▁ममता	-12092
ापूर्ण	-12093
▁सुंदरता	-12094
▁हाइड्रो	-12095
▁निष्पादक	-12096
▁पक्षपातपूर्ण	-12097
CO	-12098
बानी	-12099
▁Com	-12100
▁सक्	-12101
▁्या	-12102
ुलेंस	-12103
▁कलाम	-12104
▁खोली	-12105
▁लेगी	-12106
र्ताओं	-12107
▁बयानी	-12108
▁रिसर्च	-12109
▁सत्तार	-12110
▁सम्प्र	-12111
▁बुद्धिम	-12112
▁पत्तियों	-12113
▁अतिमानसिक	-12114
▁न्यूयार्क	-12115
▁श्रीकृष्ण	-12116
▁सशक्तीकरण	-12117
आन	-12118
गृह	-12119
लाइट	-12120
ॉर्क	-12121
▁आहरण	-12122
▁कांच	-12123
▁सोनू	-12124
▁अभिषेक	-12125
▁गुलाबी	-12126
▁फर्स्ट	-12127
▁वीआरएस	-12128
▁आस्तियां	-12129
▁क्षेत्रक	-12130
▁वीरेंद्र	-12131
▁कार्यकलाप	-12132
▁एल्गोरिथ्म	-12133
▁अनियमितताओं	-12134
▁प्रत्युत्तर	-12135
URU	-12136
arb	-12137
यती	-12138
िरि	-12139
्वल	-12140
गरीय	-12141
फॉर्म	-12142
▁अष्ट	-12143
▁टेबल	-12144
मुक्ति	-12145
▁कामया	-12146
▁जघन्य	-12147
▁मेहरा	-12148
▁लगाये	-12149
▁अकाउंट	-12150
▁परंतुक	-12151
▁बढ़ाता	-12152
▁रिव्यू	-12153
▁निर्वाचक	-12154
▁प्राप्तकर्ता	-12155
▁इलेक्ट्रॉनिक्स	-12156
ग्व	-12157
ोगी	-12158
▁Dr	-12159
▁हौ	-12160
तदार	-12161
▁CAV	-12162
▁ईंट	-12163
▁धरो	-12164
▁भरण	-12165
भक्ति	-12166
स्करी	-12167
▁क्षी	-12168
▁उपनिष	-12169
▁क़्या	-12170
▁नतीजे	-12171
▁वेदों	-12172
▁शारदा	-12173
▁कार्रवा	-12174
▁म्यूटेशन	-12175
▁पहाड़ियों	-12176
▁आं	-12177
ंसित	-12178
जेशन	-12179
हिया	-12180
ोगिक	-12181
▁झोप	-12182
▁तैर	-12183
▁वृह	-12184
▁स्फ	-12185
▁इनको	-12186
▁कड़े	-12187
▁क्रू	-12188
▁भावा	-12189
▁मारी	-12190
▁भगवती	-12191
▁सविता	-12192
▁चंपारण	-12193
▁संभाला	-12194
▁समाजों	-12195
▁जीवनकाल	-12196
▁प्रमाणों	-12197
▁रामकृष्ण	-12198
iya	-12199
ख्श	-12200
स्ड	-12201
ामु	-12202
▁थक	-12203
▁पेन	-12204
▁मिड	-12205
▁कलंक	-12206
▁थैली	-12207
▁दाता	-12208
▁नवाब	-12209
▁बीजों	-12210
▁ख्याति	-12211
▁फर्नीचर	-12212
▁घुमावदार	-12213
▁अपेक्षाओं	-12214
ara	-12215
has	-12216
थिक	-12217
वित	-12218
ादे	-12219
ंजित	-12220
ज्जा	-12221
▁वेल	-12222
▁साओ	-12223
त्थान	-12224
▁ग्ला	-12225
▁दशरथ	-12226
▁शेखर	-12227
▁औषधीय	-12228
▁माणिक	-12229
▁मार्शल	-12230
▁अनुबंधित	-12231
▁कीटनाशकों	-12232
▁प्रतिज्ञा	-12233
▁स्थानापन्न	-12234
▁कार्यक्षेत्र	-12235
ोन्	-12236
▁PM	-12237
गारी	-12238
▁Sam	-12239
▁अनप	-12240
गाड़ी	-12241
नीयता	-12242
▁पतली	-12243
▁अंशों	-12244
▁केलिए	-12245
▁क्रिस	-12246
▁बहुधा	-12247
▁संकलित	-12248
▁सम्मुख	-12249
▁अक्षरों	-12250
▁तर्कहीन	-12251
▁रिएक्टर	-12252
▁बिलासपुर	-12253
▁अंतरात्मा	-12254
▁लाभान्वित	-12255
▁उद्देश्यपूर्ण	-12256
द्घ	-12257
ावती	-12258
▁कुद	-12259
▁चचे	-12260
▁नोए	-12261
▁भाँ	-12262
▁राघ	-12263
जेक्ट	-12264
निर्ण	-12265
बंधित	-12266
▁Page	-12267
▁अभिश	-12268
▁कब्र	-12269
▁डीसी	-12270
▁पराग	-12271
▁बायो	-12272
▁सपने	-12273
ेंडेंट	-12274
▁रिवाज	-12275
▁सवारी	-12276
▁सद्भाव	-12277
ृत्तियों	-12278
▁दुर्भाग	-12279
▁राजेन्द्र	-12280
tt	-12281
मू	-12282
बाज़	-12283
वारे	-12284
स्टन	-12285
▁एंथ	-12286
▁खां	-12287
▁पूल	-12288
▁फेश	-12289
▁बेलग	-12290
▁मेले	-12291
▁रखाव	-12292
▁सपना	-12293
ट्समैन	-12294
ड़ियां	-12295
▁केमिक	-12296
▁बिल्ड	-12297
▁बीतने	-12298
▁युग्म	-12299
त्साहित	-12300
▁भूमिगत	-12301
▁व्यतिक	-12302
▁पौराणिक	-12303
▁प्रॉक्सी	-12304
▁संस्थापन	-12305
▁डिस्ट्रिक	-12306
ंसल	-12307
मपुर	-12308
▁आगम	-12309
▁थाः	-12310
▁नाख	-12311
▁राउ	-12312
▁इटली	-12313
▁डिफॉ	-12314
▁ढलान	-12315
▁मोचन	-12316
▁यूके	-12317
▁लगों	-12318
▁वियत	-12319
▁आठवीं	-12320
▁उदारी	-12321
▁बनारस	-12322
▁तस्करी	-12323
▁मारुति	-12324
▁जालसाजी	-12325
▁परित्याग	-12326
▁पत्रिकाओं	-12327
▁सहिष्णुता	-12328
▁साधारणतया	-12329
▁अत्यावश्यक	-12330
▁उत्तरवर्ती	-12331
▁विमानक्षेत्र	-12332
डक	-12333
ोभ	-12334
तौर	-12335
ल्टा	-12336
ारसी	-12337
▁दाद	-12338
▁पीट	-12339
विन्द	-12340
▁कुएं	-12341
▁ठंडा	-12342
▁बदली	-12343
▁विशा	-12344
▁श्ले	-12345
▁नाभिक	-12346
तानुसार	-12347
▁उपद्रव	-12348
▁नरसिंह	-12349
▁स्नायु	-12350
▁अभिनेता	-12351
▁आन्तरिक	-12352
▁औपचारिकताओं	-12353
▁प्रोग्रामिंग	-12354
▁प्रतिनिधिमंडल	-12355
SE	-12356
ge	-12357
▁Mu	-12358
क्षे	-12359
▁Bal	-12360
▁पतला	-12361
▁मप्र	-12362
▁माथे	-12363
▁चालुक	-12364
▁बदलता	-12365
▁बूढ़े	-12366
▁रवैया	-12367
▁सेवार	-12368
▁स्थाय	-12369
▁कर्त्त	-12370
▁विलम्ब	-12371
▁शाश्वत	-12372
▁फैक्ट्री	-12373
▁अनिश्चितता	-12374
▁प्रोफार्मा	-12375
▁मंत्रिपरिषद	-12376
▁आपूर्तिकर्ता	-12377
▁व्याख्याताओं	-12378
ok	-12379
टि	-12380
सेफ	-12381
चकों	-12382
प्पू	-12383
लनों	-12384
सूची	-12385
स्तर	-12386
▁भला	-12387
▁मिठ	-12388
▁अमूल	-12389
▁इष्ट	-12390
▁कन्ह	-12391
▁कॉमन	-12392
▁क्रा	-12393
▁जीता	-12394
▁ज्यू	-12395
▁निशा	-12396
प्रसाद	-12397
▁उकसाया	-12398
▁ग्रीवा	-12399
▁प्रातः	-12400
▁बहुसंख	-12401
▁संकेतक	-12402
▁अवशिष्ट	-12403
▁समझदारी	-12404
▁निर्यातक	-12405
▁ब्राउज़र	-12406
▁सब्जियों	-12407
▁पंचवर्षीय	-12408
▁विज्ञापनों	-12409
▁विश्वव्यापी	-12410
ध्द	-12411
▁co	-12412
खानों	-12413
ियनों	-12414
▁आभास	-12415
▁कचरा	-12416
▁केएस	-12417
▁गलतफ	-12418
▁बॉडी	-12419
▁ब्रॉ	-12420
▁माउस	-12421
▁सरोज	-12422
▁अय्यर	-12423
▁ओसीसी	-12424
▁मुर्ग	-12425
▁अस्त्र	-12426
▁एकाग्र	-12427
▁दुबारा	-12428
▁निकलती	-12429
▁मुद्रक	-12430
▁एनआईओएस	-12431
▁लाइब्रे	-12432
▁स्तंभों	-12433
▁प्रशिक्षु	-12434
▁परिसंपत्ति	-12435
▁क्रियान्वित	-12436
’’	-12437
ंपल	-12438
रोह	-12439
शों	-12440
▁Ac	-12441
▁RF	-12442
एंगे	-12443
डीआर	-12444
▁अपा	-12445
▁अरे	-12446
▁एमई	-12447
▁फंस	-12448
▁मुव	-12449
गोशिए	-12450
▁गाइड	-12451
▁दलित	-12452
▁मुर्	-12453
▁लम्ब	-12454
▁समतल	-12455
▁तटस्थ	-12456
▁मिल्स	-12457
▁सज्जन	-12458
▁उन्मुख	-12459
▁जिन्ना	-12460
▁पात्रों	-12461
▁मार्गों	-12462
▁सौन्दर्य	-12463
▁रिक्तियां	-12464
▁ज्योतिर्मठ	-12465
▁OP	-12466
ipur	-12467
▁आदम	-12468
▁इंप	-12469
▁चीख	-12470
▁रूट	-12471
त्रिक	-12472
त्विक	-12473
▁अतुल	-12474
▁जीएस	-12475
▁व्रत	-12476
▁उल्टी	-12477
▁एनओसी	-12478
▁पीड़क	-12479
▁पेरिस	-12480
▁मार्क्स	-12481
▁नामनिर्देश	-12482
EG	-12483
ुद	-12484
मयी	-12485
दाश्त	-12486
संहार	-12487
▁खेला	-12488
▁पंकज	-12489
▁मामल	-12490
▁कीमती	-12491
▁दशाओं	-12492
▁तालमेल	-12493
▁नोकिया	-12494
▁परिवाद	-12495
▁यूनानी	-12496
▁रसीदें	-12497
▁जबरदस्त	-12498
▁संक्रामक	-12499
▁तत्संबंधी	-12500
▁प्रेमचन्द	-12501
२४	-12502
ide	-12503
▁कद	-12504
ब्बी	-12505
▁Dev	-12506
▁आरओ	-12507
▁एबी	-12508
▁दुब	-12509
▁उभार	-12510
▁एसएल	-12511
▁पद्य	-12512
▁पीके	-12513
▁वृंद	-12514
▁सजीव	-12515
▁नोएडा	-12516
▁व्हिप	-12517
▁किस्मों	-12518
▁पहुंचती	-12519
▁प्रशस्त	-12520
▁सुप्रीम	-12521
व्यवस्थित	-12522
▁द्विवेदी	-12523
▁शताब्दियों	-12524
▁प्रक्रियाएं	-12525
ेषण	-12526
मिली	-12527
▁पैद	-12528
जमेंट	-12529
डोदरा	-12530
▁गायक	-12531
▁अधिमान	-12532
▁मुर्गी	-12533
▁सर्किल	-12534
▁एजेंटों	-12535
▁दुकानें	-12536
▁पुनर्विलोकन	-12537
▁लाभार्थियों	-12538
ड़ो	-12539
तत्व	-12540
▁अस्	-12541
▁कशे	-12542
▁टेन	-12543
▁बहू	-12544
▁लिस	-12545
कार्य	-12546
गृहीत	-12547
▁चंदर	-12548
▁स्लम	-12549
▁कराते	-12550
▁निष्ठ	-12551
▁पाउंड	-12552
▁मियां	-12553
▁मित्रा	-12554
▁संज्ञा	-12555
▁पत्रकार	-12556
▁वचनबद्ध	-12557
▁समनुदेश	-12558
▁समाजवाद	-12559
स्ट्रक्चर	-12560
▁उपेक्षित	-12561
▁डिस्ट्रिक्ट	-12562
ance	-12563
किया	-12564
लिटी	-12565
▁उषा	-12566
▁एआर	-12567
▁मों	-12568
▁सिड	-12569
▁कैंप	-12570
▁चढ़ा	-12571
▁डिजी	-12572
▁निःश	-12573
▁मच्छ	-12574
▁सर्प	-12575
▁हरेक	-12576
न्यासी	-12577
▁चावला	-12578
▁बंदोब	-12579
▁भावों	-12580
▁मथुरा	-12581
▁लॉन्च	-12582
▁खुफिया	-12583
▁पीएमएलए	-12584
▁अनुपयुक्त	-12585
▁एग्रीमेंट	-12586
▁प्रत्यायोजित	-12587
▁मय	-12588
▁ईआर	-12589
▁बेग	-12590
▁लिम	-12591
▁अन्र	-12592
▁ईश्व	-12593
▁काटा	-12594
▁त्यौ	-12595
▁वसंत	-12596
्वेस्ट	-12597
▁कालाव	-12598
▁पहलों	-12599
▁लिखकर	-12600
▁रिफाइन	-12601
▁पुत्रों	-12602
▁प्राप्य	-12603
▁SARFAESI	-12604
▁चक्रवर्ती	-12605
ॉयस	-12606
मस्त	-12607
▁कटे	-12608
▁मौस	-12609
ग्रही	-12610
▁कतार	-12611
▁चपरा	-12612
▁भूरे	-12613
▁छिड़क	-12614
▁धरोहर	-12615
▁नम्बर	-12616
▁सेल्स	-12617
▁फैलाने	-12618
▁वडोदरा	-12619
▁वैल्यू	-12620
▁इंग्लिश	-12621
▁दोहराते	-12622
▁करनेवाले	-12623
▁प्रेमचंद	-12624
▁उम्मीदवारी	-12625
▁सैद्धांतिक	-12626
▁श्रद्धांजलि	-12627
एफए	-12628
देय	-12629
▁रवै	-12630
▁सप्	-12631
▁ऑर्स	-12632
▁छत्र	-12633
▁ट्रॉ	-12634
▁विंग	-12635
▁सियार	-12636
गोशिएबल	-12637
▁अनुरुप	-12638
▁अमृतसर	-12639
▁अलंकरण	-12640
▁आच्छादित	-12641
▁उपयुक्तता	-12642
▁न्यायपूर्ण	-12643
ore	-12644
ड्र	-12645
रां	-12646
ान्	-12647
▁बाण	-12648
▁बेन	-12649
▁राग	-12650
▁शॉप	-12651
▁सफ़	-12652
alpur	-12653
▁अन्ध	-12654
▁उठते	-12655
▁जमाव	-12656
▁टोकन	-12657
▁डालें	-12658
▁उन्नीस	-12659
▁एलपीजी	-12660
▁पंचांग	-12661
▁बहुलता	-12662
▁कंडक्टर	-12663
▁पार्टनर	-12664
▁पार्किंग	-12665
▁महाद्वीप	-12666
▁रिफाइनरी	-12667
UN	-12668
▁GA	-12669
जिनी	-12670
▁ईएम	-12671
▁लॉज	-12672
▁शां	-12673
▁सला	-12674
▁गोपी	-12675
▁द्रो	-12676
▁नायर	-12677
▁बसंत	-12678
▁अहसास	-12679
▁आंत्र	-12680
▁पत्ते	-12681
▁बढाने	-12682
▁मुंडा	-12683
▁रहमान	-12684
▁सेवारत	-12685
▁अधिकथित	-12686
▁निर्वास	-12687
▁पुरोहित	-12688
▁अवस्थाओं	-12689
▁संन्यासी	-12690
▁अव्यवस्था	-12691
जक	-12692
ढी	-12693
ॉं	-12694
टित	-12695
फीक	-12696
िसे	-12697
ंट्स	-12698
्मित	-12699
१वें	-12700
▁टूल	-12701
▁महि	-12702
भागीय	-12703
▁अंगी	-12704
▁जेएन	-12705
▁दयाल	-12706
▁वीणा	-12707
▁कथाओं	-12708
▁फोटोक	-12709
▁वर्गा	-12710
▁निकलना	-12711
▁बारीकी	-12712
▁वृक्षों	-12713
▁समतुल्य	-12714
▁अधिकरणों	-12715
▁अनुशंसित	-12716
▁धर्मशाला	-12717
▁बहिष्करण	-12718
▁खाद्यान्न	-12719
▁विवेकानंद	-12720
सक	-12721
mis	-12722
चड़	-12723
झान	-12724
▁LJ	-12725
दानी	-12726
ावरी	-12727
ोसिस	-12728
▁बीर	-12729
▁लती	-12730
▁वाउ	-12731
्रियल	-12732
▁डीजल	-12733
क्षरों	-12734
▁महाजन	-12735
▁मिलों	-12736
▁चपरासी	-12737
▁दर्शित	-12738
▁निष्फल	-12739
▁फिटनेस	-12740
▁फेंकने	-12741
▁महासभा	-12742
▁विधायक	-12743
▁स्वरुप	-12744
▁फेफड़ों	-12745
▁साप्ताह	-12746
▁पैकेजिंग	-12747
▁सुव्यवस्थित	-12748
काय	-12749
बाध	-12750
भवन	-12751
मोन	-12752
▁ओज	-12753
तमंद	-12754
▁MFA	-12755
▁आइस	-12756
▁तीर	-12757
पुत्र	-12758
ल्कों	-12759
▁रेणु	-12760
मास्टर	-12761
▁जवाहर	-12762
▁जिनको	-12763
▁द्वेष	-12764
▁सुनते	-12765
▁अल्लाह	-12766
▁कैपिटल	-12767
▁क्योकि	-12768
▁तत्समय	-12769
▁खुशहाली	-12770
▁निम्नतर	-12771
▁प्रोफ़ाइल	-12772
▁साम्राज्यवाद	-12773
हु	-12774
ORE	-12775
▁वफ	-12776
▁खेद	-12777
▁चाइ	-12778
▁एलसी	-12779
▁गांठ	-12780
▁गुड़	-12781
▁फ़िर	-12782
स्तरीय	-12783
▁Chrom	-12784
▁कथनों	-12785
▁कुष्ठ	-12786
▁कोनों	-12787
▁बनेगा	-12788
▁महोदय	-12789
▁शिश्न	-12790
▁एक्सपी	-12791
▁दिखाती	-12792
▁अवरुद्ध	-12793
▁पैदावार	-12794
▁एक्सट्रीम	-12795
▁एंटरप्राइज	-12796
ans	-12797
ine	-12798
प्सी	-12799
मुझे	-12800
▁निम	-12801
▁पिर	-12802
▁बकर	-12803
▁बिख	-12804
र्जित	-12805
▁क्रे	-12806
▁गाथा	-12807
▁तरफ़	-12808
▁वेंक	-12809
▁जीवनी	-12810
▁नक्शे	-12811
▁हुबली	-12812
▁बढ़िया	-12813
▁मित्तल	-12814
▁राजपूत	-12815
▁स्क्री	-12816
▁अनुशंसा	-12817
▁राजनयिक	-12818
▁साप्ताहिक	-12819
▁टेक्नोलॉजी	-12820
▁प्रयोगशालाओं	-12821
wa	-12822
ोधन	-12823
्यम	-12824
पाली	-12825
▁उपच	-12826
▁पौध	-12827
रेटरी	-12828
▁इजाज	-12829
▁यानि	-12830
▁सबका	-12831
▁साउथ	-12832
▁उठाता	-12833
▁नवजात	-12834
▁लुप्त	-12835
▁प्रकटन	-12836
▁लेक्चर	-12837
▁सांसार	-12838
▁स्कूली	-12839
▁त्यौहार	-12840
▁दुराचार	-12841
▁युग्मित	-12842
▁आत्मघाती	-12843
▁कंस्ट्रक्शन	-12844
▁कॉन्ट्रैक्ट	-12845
▁al	-12846
खोरी	-12847
▁जीएम	-12848
▁बापू	-12849
▁मेजर	-12850
▁वृहत	-12851
ान्तरण	-12852
▁उभरती	-12853
▁कस्टम	-12854
▁जरिये	-12855
▁मैथुन	-12856
▁रेस्त	-12857
▁आरबीआई	-12858
▁उदारता	-12859
▁दिवंगत	-12860
▁पाश्चा	-12861
▁बर्बाद	-12862
▁श्रव्य	-12863
▁ऑपरेटिंग	-12864
▁राज्यसभा	-12865
▁शुक्रवार	-12866
▁विनाशकारी	-12867
▁इंजीनियरों	-12868
LR	-12869
▁ा	-12870
मणि	-12871
▁बोत	-12872
▁हनी	-12873
चर्या	-12874
▁संसू	-12875
▁साम्	-12876
नारायण	-12877
▁कालीन	-12878
▁समरूप	-12879
▁कॉन्फ़	-12880
▁चीज़ों	-12881
▁महाजार	-12882
▁कट्टरपंथी	-12883
▁संलिप्तता	-12884
▁उत्तरार्द्ध	-12885
ng	-12886
काए	-12887
टूर	-12888
लिन	-12889
▁sa	-12890
फाइड	-12891
▁चाँ	-12892
▁निज	-12893
ंबद्ध	-12894
▁ड्रा	-12895
▁पेटी	-12896
▁बहती	-12897
▁बेतु	-12898
▁बोना	-12899
▁मीरा	-12900
▁रखनी	-12901
▁अधूरा	-12902
▁अयस्क	-12903
▁भूगोल	-12904
▁असीमित	-12905
▁गणितीय	-12906
▁डिमांड	-12907
▁किताबों	-12908
▁निर्बाध	-12909
▁स्टार्ट	-12910
▁उत्तराखंड	-12911
▁संवेदनशीलता	-12912
aoM	-12913
महा	-12914
ोंक	-12915
▁लव	-12916
▁नबी	-12917
▁मर्	-12918
▁वरु	-12919
तावास	-12920
ोत्सव	-12921
▁दराज	-12922
▁फ़ोन	-12923
▁बरती	-12924
▁वाइस	-12925
▁उपवास	-12926
▁कंकाल	-12927
▁कवरेज	-12928
▁सीखना	-12929
▁अधिनयम	-12930
▁सर्कुलर	-12931
▁वर्गाकार	-12932
▁अपार्टमेंट	-12933
बनी	-12934
▁Co	-12935
▁फ़र	-12936
▁लाद	-12937
▁शाक	-12938
▁कान्	-12939
▁अनजान	-12940
▁चैनलों	-12941
▁फोल्डर	-12942
▁रीडिंग	-12943
▁कन्हैया	-12944
▁रोज़गार	-12945
▁अंशकालिक	-12946
▁पीढ़ियों	-12947
▁छात्रावास	-12948
यास	-12949
▁खज	-12950
चेतन	-12951
प्पन	-12952
ूलाल	-12953
त्तों	-12954
पृष्ठ	-12955
▁East	-12956
▁आईपी	-12957
▁इन्स	-12958
▁उंगल	-12959
▁एजें	-12960
▁जांघ	-12961
▁रिंग	-12962
गात्मक	-12963
▁अभ्या	-12964
▁आवधिक	-12965
▁कुप्र	-12966
▁डालती	-12967
▁पप्पू	-12968
▁पित्त	-12969
▁मुरली	-12970
▁वर्गम	-12971
▁अधिभोग	-12972
▁फिरौती	-12973
▁सीलबंद	-12974
▁हालिया	-12975
▁परिजनों	-12976
▁वर्षगांठ	-12977
▁प्रक्षेपण	-12978
SC	-12979
कुम	-12980
षाण	-12981
ामस	-12982
ेंडम	-12983
▁गड्	-12984
▁जनस	-12985
▁सीओ	-12986
कर्षण	-12987
▁श्या	-12988
▁इजाजत	-12989
▁खर्चा	-12990
▁राक्ष	-12991
▁बेलगाम	-12992
▁गलतफहमी	-12993
▁रामलिंग	-12994
▁साफ्टवेयर	-12995
▁त्रुटिपूर्ण	-12996
▁मान्यताप्राप्त	-12997
भ्र	-12998
्सा	-12999
▁शन	-13000
ंजलि	-13001
ुकता	-13002
▁जलन	-13003
▁नाच	-13004
▁हिट	-13005
ोलनों	-13006
▁उमेश	-13007
▁एलएल	-13008
▁घाटे	-13009
▁चेतन	-13010
▁टकरा	-13011
▁टिकी	-13012
▁नामं	-13013
▁नगरों	-13014
▁पसन्द	-13015
▁पार्व	-13016
▁विक्ष	-13017
▁एकान्त	-13018
▁कानूनन	-13019
▁कुत्ते	-13020
▁जोड़ता	-13021
▁तीक्ष्	-13022
▁दिखाएगा	-13023
▁संस्थित	-13024
▁सांसारिक	-13025
▁सांख्यिकीय	-13026
्रास्ट्रक्चर	-13027
इटर	-13028
मैं	-13029
सिस	-13030
▁’’	-13031
hara	-13032
▁पेर	-13033
▁क्ली	-13034
▁भीषण	-13035
▁परिशि	-13036
▁भागते	-13037
▁माउंट	-13038
▁वायदा	-13039
▁समयाव	-13040
▁सुनाए	-13041
▁डेवलपर	-13042
▁न्यासी	-13043
▁प्रलेख	-13044
▁साहसिक	-13045
निरपेक्ष	-13046
▁संभवतया	-13047
▁फोटोकॉपी	-13048
▁विश्लेषक	-13049
▁व्यक़्ति	-13050
▁निगोशिएबल	-13051
KA	-13052
वाइ	-13053
ions	-13054
सराय	-13055
▁असे	-13056
▁बहि	-13057
▁मल्	-13058
▁हमी	-13059
विंदर	-13060
▁एलडी	-13061
▁कुंड	-13062
▁बालू	-13063
▁वफाद	-13064
▁रोबोट	-13065
▁उल्लास	-13066
▁जबलपुर	-13067
▁उच्छेदन	-13068
▁गेंदबाज	-13069
▁ग्रीष्म	-13070
▁उपनियमों	-13071
▁केन्द्री	-13072
▁ग्लोरिया	-13073
▁पुरस्कृत	-13074
▁प्रशासित	-13075
▁प्रत्याशा	-13076
▁रिटर्निंग	-13077
पस	-13078
धना	-13079
मनी	-13080
ौड़	-13081
▁NI	-13082
▁KAR	-13083
▁एलए	-13084
▁ऑर्	-13085
▁खोद	-13086
▁रमन	-13087
▁देसी	-13088
▁गायों	-13089
▁बढावा	-13090
▁बदलकर	-13091
▁शिवाजी	-13092
▁फाइनेंस	-13093
▁शपथपत्र	-13094
▁समारोहों	-13095
शाक	-13096
▁we	-13097
abad	-13098
टीएस	-13099
ादान	-13100
▁खाट	-13101
▁जनन	-13102
▁ढोल	-13103
▁लसी	-13104
▁करोड	-13105
▁डीजी	-13106
▁लाये	-13107
▁स्वत	-13108
▁हाथा	-13109
▁जड़ें	-13110
▁पोषित	-13111
▁ह्रास	-13112
▁चेष्टा	-13113
▁मानसून	-13114
▁मैदानों	-13115
▁शिष्यों	-13116
▁कार्यशील	-13117
▁झाड़ियों	-13118
▁ट्रैकिंग	-13119
▁सिद्धदोष	-13120
▁फोटोग्राफ	-13121
▁प्रामाणिकता	-13122
्क	-13123
लीस	-13124
ूढ़	-13125
▁cr	-13126
शियल	-13127
▁अशु	-13128
▁पीर	-13129
▁फोक	-13130
▁घुड़	-13131
▁डिपॉ	-13132
▁धनुष	-13133
▁बुजु	-13134
▁मैके	-13135
▁रंगा	-13136
▁रीढ़	-13137
▁DISTR	-13138
▁कर्मी	-13139
▁क्रोम	-13140
▁छोड़ी	-13141
▁परिणत	-13142
▁पर्ची	-13143
▁मिलें	-13144
▁वायरस	-13145
▁सुझाए	-13146
▁मुन्ना	-13147
▁सराहनीय	-13148
▁प्राचार्य	-13149
▁विकिपीडिया	-13150
▁स्वायत्तता	-13151
▁न्यायाधिकरणों	-13152
ऑफ	-13153
तेह	-13154
दीन	-13155
ोली	-13156
▁नृ	-13157
▁Lal	-13158
▁REV	-13159
▁फास	-13160
भाषित	-13161
▁प्रज	-13162
▁रोना	-13163
▁हमास	-13164
▁WPNos	-13165
▁अकेली	-13166
▁जार्ज	-13167
▁जुड़ने	-13168
▁परोक्ष	-13169
▁मुनाफा	-13170
▁फेडरेशन	-13171
▁वर्गमूल	-13172
▁आवंटियों	-13173
▁कहानियां	-13174
ell	-13175
काई	-13176
क्व	-13177
समूह	-13178
▁एनई	-13179
▁मसू	-13180
▁यदु	-13181
शासित	-13182
▁अंचल	-13183
▁अंदा	-13184
▁इसमे	-13185
▁एनबी	-13186
▁घुमा	-13187
▁चुनि	-13188
eshwar	-13189
िक्षित	-13190
▁अमिता	-13191
▁डेंटल	-13192
▁नियति	-13193
▁मुवक्	-13194
▁योगेश	-13195
▁विक्ट	-13196
ोनेशिया	-13197
▁एमएलसी	-13198
▁मिस्टर	-13199
▁अफ्रीकी	-13200
▁कविताएं	-13201
▁कालावधि	-13202
▁वियतनाम	-13203
▁सरोजिनी	-13204
▁प्रबन्धन	-13205
ईस	-13206
ere	-13207
घ्न	-13208
जनी	-13209
सरी	-13210
ौना	-13211
▁AC	-13212
▁NO	-13213
▁US	-13214
पैथी	-13215
ूंगी	-13216
▁कंब	-13217
▁फलक	-13218
▁शरा	-13219
▁शेड	-13220
▁NAME	-13221
▁कमोड	-13222
▁फकीर	-13223
▁फिनल	-13224
▁आभासी	-13225
▁ओबीसी	-13226
▁कोल्ह	-13227
▁विलास	-13228
▁कन्नड़	-13229
▁नर्सरी	-13230
▁पत्तों	-13231
▁महानगर	-13232
▁क्लिनिक	-13233
▁फ़ाइलें	-13234
▁समयावधि	-13235
▁अध्यापकों	-13236
▁तत्पश्चात्	-13237
तव	-13238
ESH	-13239
कूट	-13240
र्वक	-13241
▁Lim	-13242
▁धर्	-13243
▁वरन	-13244
▁यूनि	-13245
▁वक्ष	-13246
▁सोशल	-13247
इंडिंग	-13248
ांक्षी	-13249
ियाबाद	-13250
▁कच्ची	-13251
▁कैमरा	-13252
▁खरगोश	-13253
▁जागरण	-13254
▁देखती	-13255
▁स्पेन	-13256
ॉल्यूशन	-13257
▁बढ़ेगा	-13258
▁जातियां	-13259
▁कोशिकाएं	-13260
▁पैरामीटर	-13261
▁विधेयकों	-13262
▁व्यवहार्यता	-13263
LJ	-13264
शेद	-13265
षेध	-13266
ारो	-13267
िके	-13268
▁चब	-13269
▁FIR	-13270
▁केन	-13271
▁धाग	-13272
▁बेव	-13273
▁भाल	-13274
खेड़ा	-13275
▁अभूत	-13276
▁चरित	-13277
▁चुनी	-13278
▁सचिन	-13279
डिचेरी	-13280
▁कराती	-13281
▁गलिया	-13282
▁पार्ष	-13283
▁वंशान	-13284
▁दिवसीय	-13285
▁समझदार	-13286
▁आमंत्रण	-13287
संक	-13288
hool	-13289
कुलर	-13290
स्की	-13291
ेंदर	-13292
▁ओएम	-13293
▁डिस	-13294
▁मूक	-13295
पात्र	-13296
▁कड़ा	-13297
▁जूरी	-13298
▁व्हा	-13299
▁अंकगण	-13300
▁गिर्द	-13301
▁जमशेद	-13302
▁जर्नल	-13303
▁बागान	-13304
▁महिमा	-13305
▁मानकी	-13306
▁शरारत	-13307
▁होस्ट	-13308
्यूटिंग	-13309
▁कृषकों	-13310
▁योद्धा	-13311
▁परक्राम	-13312
▁परिषदों	-13313
▁साझीदार	-13314
▁यात्राओं	-13315
▁वंशानुगत	-13316
▁कॉन्फ़िगर	-13317
▁पाश्चात्य	-13318
▁मार्केटिंग	-13319
▁महानिरीक्षक	-13320
▁ID	-13321
▁Po	-13322
▁aa	-13323
▁एं	-13324
एसएस	-13325
पाही	-13326
▁कोत	-13327
शियों	-13328
▁लाकर	-13329
वेन्यू	-13330
ानियों	-13331
▁अपडेट	-13332
▁कमरों	-13333
▁निकास	-13334
▁पढ़कर	-13335
▁रूढ़ि	-13336
बोरेटरी	-13337
्ट्समैन	-13338
▁निपटते	-13339
▁पहचाने	-13340
▁पारम्प	-13341
▁बिजनेस	-13342
▁सुचारू	-13343
▁बुजुर्ग	-13344
▁मलेरिया	-13345
▁सन्दर्भ	-13346
▁सूचनाएं	-13347
▁परमात्मा	-13348
▁बस्तियों	-13349
▁गारंटीकृत	-13350
▁स्क्रीनिंग	-13351
गिन	-13352
▁SR	-13353
▁औपन	-13354
▁कोठ	-13355
▁चलन	-13356
▁डॉक	-13357
▁पसी	-13358
▁अजीत	-13359
▁एलजे	-13360
▁बाली	-13361
▁मुक़	-13362
विद्या	-13363
▁क्लाज	-13364
▁गिरीश	-13365
▁चिंटू	-13366
▁पहनने	-13367
▁गारंटर	-13368
▁पुजारी	-13369
▁माइक्र	-13370
▁मौलाना	-13371
▁अनुकूलन	-13372
▁आभूषणों	-13373
▁महादेवी	-13374
▁अनुज्ञेय	-13375
▁अनुष्ठान	-13376
▁उपाध्याय	-13377
▁सावित्री	-13378
▁संयंत्रों	-13379
▁गतिविधियाँ	-13380
ond	-13381
निकल	-13382
मोहक	-13383
ल्हे	-13384
▁एम्	-13385
▁रिच	-13386
▁शकु	-13387
▁शरद	-13388
▁सीए	-13389
▁अंकन	-13390
▁मुसी	-13391
▁युगल	-13392
▁सीजे	-13393
▁त्रास	-13394
▁मध्या	-13395
▁ऋणदाता	-13396
▁तुम्हे	-13397
▁पर्याय	-13398
▁शिशुओं	-13399
▁लेखांकन	-13400
▁प्रायोगिक	-13401
भन	-13402
जिक	-13403
धाम	-13404
▁ज्	-13405
▁Sri	-13406
▁आशु	-13407
▁लैब	-13408
▁वगै	-13409
पट्टी	-13410
र्वाद	-13411
ेंबली	-13412
ेशिया	-13413
▁वॉयस	-13414
▁अड्डा	-13415
▁विखंड	-13416
▁विशाख	-13417
▁शालीन	-13418
▁हजारी	-13419
▁Chrome	-13420
▁इलैक्ट	-13421
▁गोलियां	-13422
▁नांदेड़	-13423
▁हाथापाई	-13424
▁DISTRICT	-13425
▁प्रवर्तक	-13426
▁विजेताओं	-13427
▁ड्राफ्ट्समैन	-13428
▁धर्मनिरपेक्ष	-13429
िनम	-13430
▁रक	-13431
ated	-13432
part	-13433
शियम	-13434
ोन्म	-13435
▁Shi	-13436
▁झाँ	-13437
▁बेड	-13438
ोत्तम	-13439
▁इंसो	-13440
▁उष्ण	-13441
▁कस्त	-13442
▁घोड़	-13443
▁वाचा	-13444
▁सेमे	-13445
श्लेषण	-13446
▁इन्टर	-13447
▁खोलना	-13448
▁चढ़ाव	-13449
▁जेम्स	-13450
▁रिफंड	-13451
▁इन्कार	-13452
▁एकाउंट	-13453
▁मेघालय	-13454
▁वर्क्स	-13455
▁रिश्तों	-13456
▁वैचारिक	-13457
▁सिद्धार	-13458
▁एवोल्यूशन	-13459
▁निश्चितता	-13460
▁सृजनात्मक	-13461
▁हस्तशिल्प	-13462
▁पूर्वानुमान	-13463
tr	-13464
यह	-13465
मेव	-13466
शान	-13467
▁by	-13468
▁कफ	-13469
▁सहस	-13470
▁पाचन	-13471
▁Chand	-13472
▁पारसी	-13473
▁अदृश्य	-13474
▁अपनाते	-13475
▁डिजीटल	-13476
▁फेफड़े	-13477
▁महादेव	-13478
▁असंगतता	-13479
▁यहूदियों	-13480
▁अधिसूचनाओं	-13481
भान	-13482
शरण	-13483
▁ईओ	-13484
▁टच	-13485
लाइड	-13486
लेखा	-13487
ल्लम	-13488
व्रत	-13489
▁काव	-13490
▁चाप	-13491
▁पटव	-13492
▁शिर	-13493
▁हें	-13494
िकाने	-13495
ोध्या	-13496
▁इर्द	-13497
▁एड्स	-13498
▁कोरम	-13499
▁पीजी	-13500
▁मेरठ	-13501
▁विकट	-13502
पराइटर	-13503
▁करेंः	-13504
▁जमारा	-13505
▁हवाले	-13506
मानुसार	-13507
▁विराट्	-13508
▁सॉफ़्ट	-13509
▁इच्छाओं	-13510
▁स्ट्रीम	-13511
▁क्रमादेश	-13512
▁मैनेजमेंट	-13513
▁अंतर्विरोध	-13514
▁कम्युनिस्ट	-13515
▁राष्ट्रवादी	-13516
ंधा	-13517
▁शू	-13518
ंगनी	-13519
ंजना	-13520
ाप्य	-13521
▁टां	-13522
विष्ट	-13523
ीलैंड	-13524
▁आदिम	-13525
▁एचटी	-13526
▁थर्म	-13527
▁अभिनव	-13528
▁उद्गम	-13529
▁डाकघर	-13530
▁दसवीं	-13531
▁रेडिय	-13532
▁एसबीआई	-13533
▁चिन्तन	-13534
▁जिम्मे	-13535
▁डीआरटी	-13536
▁देहाती	-13537
▁विरचित	-13538
▁सिपाही	-13539
▁जवाबदेह	-13540
▁मतभेदों	-13541
▁रियायती	-13542
▁स्टैम्प	-13543
▁बहुसंख्यक	-13544
▁वृद्धावस्था	-13545
HAR	-13546
सरे	-13547
चुअल	-13548
पालन	-13549
▁काठ	-13550
▁थॉम	-13551
▁दूत	-13552
च्युत	-13553
▁दांव	-13554
▁दुश्	-13555
▁साधक	-13556
▁अस्वा	-13557
▁द्रुत	-13558
▁रणजीत	-13559
▁कंटेनर	-13560
▁लेटर्स	-13561
▁हाइड्र	-13562
▁दूतावास	-13563
▁नामंजूर	-13564
▁कंट्राबेंड	-13565
▁हस्ताक्षरों	-13566
२५	-13567
थुर	-13568
बैक	-13569
ेकर	-13570
▁LA	-13571
पारा	-13572
यनगर	-13573
यनों	-13574
▁अँग	-13575
▁एसओ	-13576
▁चैक	-13577
▁जीभ	-13578
▁भजन	-13579
▁उपगत	-13580
▁एचयू	-13581
▁खगोल	-13582
▁गुरब	-13583
▁ठरोग	-13584
▁भुला	-13585
▁सेतु	-13586
▁आएंगे	-13587
▁चलाते	-13588
▁जातीय	-13589
▁भाँति	-13590
▁वाउचर	-13591
▁सन्नि	-13592
▁हटाकर	-13593
▁एक्सटी	-13594
▁करेंसी	-13595
▁चीज़ें	-13596
▁छुपाया	-13597
▁पुरातन	-13598
▁किस्तों	-13599
▁ड्राइंग	-13600
▁श्लोकों	-13601
▁अनुकरणीय	-13602
▁दिवालिया	-13603
▁निवेदिता	-13604
▁निष्कासित	-13605
▁दुर्भाग्यवश	-13606
IF	-13607
ैम	-13608
▁े	-13609
TPA	-13610
सना	-13611
्रू	-13612
▁NH	-13613
वारा	-13614
▁कैथ	-13615
▁गान	-13616
▁पिच	-13617
▁बूझ	-13618
▁सटे	-13619
नीकरण	-13620
न्दगी	-13621
लीकृत	-13622
ान्ति	-13623
▁बार्	-13624
▁मधुम	-13625
▁होली	-13626
▁दूंगा	-13627
▁दूषित	-13628
▁बेलार	-13629
▁राजने	-13630
▁समाधि	-13631
▁सुस्प	-13632
▁कृतज्ञ	-13633
▁सीलिंग	-13634
▁सूर्या	-13635
प्रदायिक	-13636
▁अमेरिकन	-13637
▁अयोध्या	-13638
▁आत्मसात	-13639
▁एसोसिएट	-13640
▁पार्वती	-13641
▁स्पेक्ट	-13642
▁प्रयोगों	-13643
▁प्रताड़ित	-13644
▁वार्तालाप	-13645
▁सिद्धार्थ	-13646
▁इच्छाशक्ति	-13647
UT	-13648
णक	-13649
ंगम	-13650
ुना	-13651
ेतन	-13652
▁CS	-13653
सवाल	-13654
ावुर	-13655
ुप्त	-13656
्यूप	-13657
▁BEN	-13658
▁दोग	-13659
यॉर्क	-13660
वलोकन	-13661
ुपालन	-13662
▁एसबी	-13663
▁फरसा	-13664
क्षमता	-13665
ग्राही	-13666
▁चलाता	-13667
▁भट्टा	-13668
▁मारना	-13669
ानात्मक	-13670
▁गार्डन	-13671
▁अन्वेषक	-13672
▁एचएलईसी	-13673
▁गोरखपुर	-13674
▁नजरबंदी	-13675
▁परवर्ती	-13676
▁मेहरअली	-13677
▁उद्यमिता	-13678
▁उर्वरकों	-13679
▁रेस्तरां	-13680
▁सक्रियता	-13681
▁साम्राज़	-13682
▁संप्रेषित	-13683
▁दुर्घटनाओं	-13684
▁पदाधिकारियों	-13685
▁इंस्ट्रूमेंट्स	-13686
▁घी	-13687
श्मी	-13688
ोलिक	-13689
▁Bar	-13690
▁LIN	-13691
▁अपद	-13692
▁लिक	-13693
वाहित	-13694
▁आप्र	-13695
▁छापा	-13696
▁धमनी	-13697
▁पाकर	-13698
▁मर्म	-13699
यात्रा	-13700
▁ज्वार	-13701
▁ट्रां	-13702
▁महंगाई	-13703
▁लक्ष्म	-13704
▁वर्तनी	-13705
▁सिद्धि	-13706
▁सर्वसम्	-13707
▁गाजियाबाद	-13708
शिक	-13709
ापक	-13710
ुली	-13711
▁MM	-13712
▁ऋष	-13713
ग्ने	-13714
रियन	-13715
िएटर	-13716
िप्ट	-13717
▁इंफ	-13718
▁सता	-13719
फील्ड	-13720
ॉजिकल	-13721
▁झुंड	-13722
▁डेमो	-13723
▁रेज़	-13724
▁संचय	-13725
ायद्वी	-13726
▁कमलेश	-13727
▁निपुण	-13728
▁मौर्य	-13729
▁रवैये	-13730
▁वेल्स	-13731
▁सब्जी	-13732
▁साढ़े	-13733
▁School	-13734
▁निभाता	-13735
▁बालिका	-13736
▁स्याही	-13737
कर्मियों	-13738
▁अंबेडकर	-13739
▁कार्यकरण	-13740
▁ट्रांसफ़	-13741
▁बेरोजगार	-13742
▁विश्वयुद्ध	-13743
▁शल्यक्रिया	-13744
ii	-13745
रोन	-13746
सला	-13747
ब्बत	-13748
्तिक	-13749
▁एकक	-13750
▁महम	-13751
▁छपाई	-13752
▁महाभ	-13753
▁रजनी	-13754
▁घनत्व	-13755
▁चाहने	-13756
▁डीटीए	-13757
▁पांडु	-13758
▁बगीचे	-13759
▁वेटेज	-13760
▁कुलदीप	-13761
▁डेल्टा	-13762
▁बुकिंग	-13763
▁पौष्टिक	-13764
▁नाममात्र	-13765
▁परमेश्वर	-13766
▁प्रतिमान	-13767
▁प्रदर्शक	-13768
▁धारावाहिक	-13769
▁प्रायद्वी	-13770
▁लाइसेंसिंग	-13771
▁सर्वसम्मति	-13772
▁अल्पसंख्यकों	-13773
▁झर	-13774
कारक	-13775
चरित	-13776
मोचन	-13777
रेली	-13778
ौकिक	-13779
▁परह	-13780
▁बची	-13781
▁बसु	-13782
▁साय	-13783
जीभाई	-13784
▁पर्ण	-13785
▁रोमन	-13786
स्टिंग	-13787
▁तामील	-13788
▁नोट्स	-13789
▁अद्वैत	-13790
▁गुर्दे	-13791
▁पिछड़ा	-13792
▁भाषणों	-13793
▁राज्या	-13794
▁सोमनाथ	-13795
▁अस्वस्थ	-13796
▁निर्वचन	-13797
▁फ़ाइलों	-13798
▁राममोहन	-13799
▁अभूतपूर्व	-13800
▁सम्प्रदाय	-13801
▁लोकप्रियता	-13802
क्ख	-13803
▁एप	-13804
काशी	-13805
वर्त	-13806
िकोड	-13807
▁एनी	-13808
▁हतो	-13809
▁चतुर	-13810
▁रेफर	-13811
▁वायर	-13812
▁विदा	-13813
▁सूअर	-13814
▁सोया	-13815
कात्मक	-13816
▁अनीता	-13817
▁त्रिव	-13818
▁सीतार	-13819
क्षेपित	-13820
पेक्षित	-13821
▁अलमस्त	-13822
▁एक्सेस	-13823
▁खूबसूरत	-13824
▁नानालाल	-13825
▁मिलेंगे	-13826
▁संग्रहीत	-13827
ex	-13828
०ग	-13829
VAT	-13830
art	-13831
ठों	-13832
िनि	-13833
ोरो	-13834
▁CM	-13835
▁he	-13836
कांड	-13837
▁एपे	-13838
▁जोश	-13839
▁पिघ	-13840
▁शोथ	-13841
ियाला	-13842
ॉप्टर	-13843
▁ROAD	-13844
▁कमान	-13845
▁कम्ब	-13846
▁चादर	-13847
▁झुका	-13848
▁तर्ज	-13849
▁देवे	-13850
▁बारा	-13851
▁यकृत	-13852
▁नैदान	-13853
▁फरमान	-13854
▁फैक्स	-13855
▁बुलेट	-13856
▁स्टेड	-13857
▁00,000	-13858
▁अहंकार	-13859
▁कार्बो	-13860
▁ठिकाने	-13861
▁पड़ताल	-13862
▁मन्त्र	-13863
▁युसुफ़	-13864
▁संगणित	-13865
▁चुनिंदा	-13866
▁फायरिंग	-13867
▁बेहतरीन	-13868
▁वामपंथी	-13869
▁कार्यकार	-13870
▁आपातकालीन	-13871
▁न्यूयॉर्क	-13872
▁फ्रांसीसी	-13873
▁सम्मेलनों	-13874
▁मुद्रास्फीति	-13875
HA	-13876
sh	-13877
ौरी	-13878
प्सा	-13879
▁ईडी	-13880
▁डेन	-13881
▁तान	-13882
▁थिर	-13883
▁बुन	-13884
▁वात	-13885
▁हिच	-13886
ापत्र	-13887
ुगतान	-13888
▁West	-13889
▁एनएस	-13890
▁केके	-13891
▁चाची	-13892
▁नंदा	-13893
▁बंसल	-13894
▁वरुण	-13895
▁स्कै	-13896
▁एकत्व	-13897
▁बढ़ाई	-13898
▁रद्दी	-13899
▁हुर्इ	-13900
▁आयोजना	-13901
▁कीमतें	-13902
▁चाहिएं	-13903
▁जोड़ों	-13904
▁दुश्मन	-13905
▁प्रीति	-13906
▁भवभूति	-13907
▁फिनलैंड	-13908
▁लेक्चरर	-13909
▁एम्बुलेंस	-13910
▁क्रियाशील	-13911
कोड	-13912
aria	-13913
ंदरा	-13914
र्चे	-13915
लेटर	-13916
ान्स	-13917
▁Col	-13918
▁मकर	-13919
▁उपकर	-13920
▁खोजे	-13921
▁टोपी	-13922
▁तारे	-13923
▁प्रह	-13924
स्वरुप	-13925
▁ज्यों	-13926
▁लगाती	-13927
▁अघोषित	-13928
▁औपनिवेश	-13929
▁चंद्रमा	-13930
▁परिसीमन	-13931
▁बढ़ोतरी	-13932
बस	-13933
एमए	-13934
बिक	-13935
▁ढु	-13936
▁टाव	-13937
▁यंग	-13938
▁हृद	-13939
द्दाम	-13940
स्कों	-13941
▁अम्ब	-13942
▁उठती	-13943
▁पारा	-13944
▁सूखी	-13945
▁आबद्ध	-13946
▁क्वाल	-13947
▁लॉगिन	-13948
▁उत्तरो	-13949
▁पिताजी	-13950
▁अंगीकार	-13951
▁अध्यापन	-13952
▁तंजावुर	-13953
▁श्रीराम	-13954
▁आश्रितों	-13955
▁कारखानों	-13956
▁प्रतिषेध	-13957
▁एन्क्रिप्	-13958
▁त्यागपत्र	-13959
▁पर्याप्तता	-13960
▁पूर्णकालिक	-13961
▁प्राप्तियों	-13962
▁प्रतिक्रियाओं	-13963
RC	-13964
uk	-13965
sil	-13966
थ्य	-13967
▁ऋस	-13968
त्रय	-13969
ष्ठी	-13970
▁आति	-13971
▁आरई	-13972
▁कास	-13973
▁नीम	-13974
▁पुत	-13975
▁मोक	-13976
▁OANo	-13977
▁अनुष	-13978
▁कृमि	-13979
▁खाती	-13980
▁घबरा	-13981
▁फुफ्	-13982
▁शिला	-13983
▁सम्य	-13984
▁अंकुर	-13985
▁नलिका	-13986
▁पड़ना	-13987
▁सुमित	-13988
▁हेल्थ	-13989
▁अनिच्छ	-13990
▁पुख्ता	-13991
▁पुनर्ज	-13992
▁सिक्यो	-13993
▁रक्तचाप	-13994
▁निविदाएं	-13995
▁संप्रतीक	-13996
▁विधिमान्य	-13997
▁स्थितियां	-13998
▁दीर्घकालीन	-13999
ोव	-14000
RAD	-14001
फाय	-14002
्ती	-14003
भाजन	-14004
वर्क	-14005
▁अरु	-14006
▁सिं	-14007
स्वाम	-14008
▁आर्क	-14009
▁एसएन	-14010
▁जीपी	-14011
▁धीमा	-14012
▁निंद	-14013
▁पीला	-14014
ियोजित	-14015
▁ग्रेट	-14016
▁घटाने	-14017
▁ढूंढ़	-14018
▁दर्पण	-14019
▁दुष्ट	-14020
▁नब्बे	-14021
▁पार्थ	-14022
▁पॉइंट	-14023
▁बोतलों	-14024
▁होम्यो	-14025
▁प्राणिक	-14026
▁वारिसों	-14027
▁आधारशिला	-14028
▁मातृभूमि	-14029
VI	-14030
mp	-14031
ेस	-14032
खला	-14033
ताप	-14034
फेस	-14035
सन्	-14036
ायु	-14037
्ली	-14038
▁सँ	-14039
ANAG	-14040
वाहक	-14041
▁घने	-14042
▁सैर	-14043
किनार	-14044
क्कड़	-14045
तमाला	-14046
न्नों	-14047
▁कैसी	-14048
▁रीडर	-14049
सात्मक	-14050
▁नित्य	-14051
▁वृक्क	-14052
▁सैंपल	-14053
▁हरिजन	-14054
ोग्राफी	-14055
▁आरोग्य	-14056
▁पागलपन	-14057
▁पुष्पा	-14058
▁मेजबान	-14059
▁सुझाया	-14060
▁चौकीदार	-14061
▁दरकिनार	-14062
▁नैदानिक	-14063
▁जरूरतमंद	-14064
▁मवेशियों	-14065
▁इस्लामवादियों	-14066
▁प्रौद्योगिकीय	-14067
▁शिकायतकर्ताओं	-14068
ret	-14069
डिश	-14070
भुज	-14071
pura	-14072
इटिस	-14073
ण्डल	-14074
ाहार	-14075
▁OCC	-14076
▁घिन	-14077
▁रमण	-14078
ग्रेड	-14079
▁आवेश	-14080
▁दफ्त	-14081
▁फतेह	-14082
▁फायद	-14083
▁बंडल	-14084
▁भृंग	-14085
▁रंजी	-14086
▁अस्सी	-14087
▁प्राग	-14088
▁सचेतन	-14089
▁अपदस्थ	-14090
▁उत्तरः	-14091
▁पैकिंग	-14092
▁अशक्तता	-14093
▁संदेशों	-14094
▁एफटीआईएल	-14095
▁प्रकोष्ठ	-14096
▁संदर्भों	-14097
▁प्रतिभागियों	-14098
▁प्रधानाचार्य	-14099
ib	-14100
▁LR	-14101
▁Sy	-14102
धुंध	-14103
नाथन	-14104
▁मजू	-14105
▁लटक	-14106
कार्ड	-14107
्रेसी	-14108
▁Naya	-14109
▁छिपे	-14110
▁दाने	-14111
▁नासा	-14112
▁प्ली	-14113
▁विला	-14114
▁शाला	-14115
▁साइड	-14116
▁हर्ज	-14117
▁अंडों	-14118
▁एटीएम	-14119
▁ज़मान	-14120
▁सीआरए	-14121
▁सॉल्व	-14122
राष्ट्र	-14123
▁कुटुंब	-14124
▁चुनावी	-14125
▁तात्या	-14126
▁फेशियल	-14127
▁रविवार	-14128
▁मछलियों	-14129
▁सूचियों	-14130
▁वार्षिकी	-14131
▁प्रदाताओं	-14132
▁व्यवसायों	-14133
▁बुद्धिमत्ता	-14134
ऊं	-14135
षऋ	-14136
रोड	-14137
गिरी	-14138
जीएस	-14139
०में	-14140
▁Cha	-14141
▁अश्	-14142
आधारी	-14143
देश्य	-14144
वाड़े	-14145
▁छूने	-14146
▁तिरू	-14147
▁पारी	-14148
▁भरती	-14149
GALURU	-14150
▁Patna	-14151
▁जानकी	-14152
▁ट्रैप	-14153
▁मोक्ष	-14154
▁राउंड	-14155
ानुक्रम	-14156
▁एसआईटी	-14157
▁पिल्लई	-14158
▁पूर्वज	-14159
▁बर्ताव	-14160
▁यदुनाथ	-14161
▁ओवरराइड	-14162
▁जनशक्ति	-14163
▁पांचवीं	-14164
▁लेखाकार	-14165
▁आंदोलनों	-14166
▁कॉन्स्टेबल	-14167
▁प्रतीकात्मक	-14168
▁रेस्पोंडेंट	-14169
▁प्रवृत्तियों	-14170
ly	-14171
जै	-14172
सै	-14173
ial	-14174
मोह	-14175
▁xx	-14176
▁भट	-14177
वियर	-14178
▁RFA	-14179
▁pro	-14180
▁कैट	-14181
▁अफसर	-14182
▁काबू	-14183
▁बर्न	-14184
▁ब्यो	-14185
▁मस्त	-14186
▁रियल	-14187
▁वासु	-14188
▁विभू	-14189
▁हावी	-14190
▁अपीली	-14191
▁बर्बर	-14192
▁बलवंत	-14193
▁संचलन	-14194
▁सुगंध	-14195
▁अस्थाई	-14196
▁नाइट्र	-14197
▁कमोडिटी	-14198
▁मोहल्ला	-14199
▁यूनिटों	-14200
▁लापरवाह	-14201
▁विशेषतः	-14202
▁आशीर्वाद	-14203
▁त्रिवेदी	-14204
▁प्रकाशनों	-14205
▁सॉफ़्टवेयर	-14206
PP	-14207
ूफ	-14208
नाद	-14209
▁EE	-14210
ालतू	-14211
▁LPA	-14212
▁dtd	-14213
▁टॉम	-14214
▁दुल	-14215
िक्षा	-14216
▁अतिर	-14217
▁जनमत	-14218
▁पठान	-14219
▁फैशन	-14220
▁महंत	-14221
▁मापा	-14222
▁साझे	-14223
▁बिगड़	-14224
▁डीपीसी	-14225
▁नालंदा	-14226
▁फिल्टर	-14227
▁विवेचन	-14228
▁पर्वतमाला	-14229
▁पारम्परिक	-14230
PF	-14231
ासु	-14232
्टर	-14233
प्रा	-14234
रपुर	-14235
हरित	-14236
ृष्ट	-14237
▁गजट	-14238
▁दाब	-14239
ाहारी	-14240
▁कांत	-14241
▁जीते	-14242
▁नक़ल	-14243
▁पडता	-14244
▁पिक्	-14245
▁रोपण	-14246
▁शीतल	-14247
▁गुच्छ	-14248
▁प्रसू	-14249
▁स्क्व	-14250
▁अनुराग	-14251
▁अप्रिय	-14252
▁करवाना	-14253
▁पकड़ना	-14254
▁क्रीड़ा	-14255
▁पहुंचते	-14256
▁अंधाधुंध	-14257
▁अभिकर्ता	-14258
▁स्टेडियम	-14259
▁कर्त्तव्य	-14260
▁पांडिचेरी	-14261
▁शिष्टमंडल	-14262
▁संपत्तियां	-14263
▁अभियांत्रिक	-14264
UL	-14265
्ध	-14266
adi	-14267
ौनी	-14268
िकों	-14269
▁जुग	-14270
▁डैक	-14271
▁तले	-14272
▁रहस	-14273
ोत्तर	-14274
▁एजीए	-14275
▁क्रो	-14276
▁पीबी	-14277
▁यूसु	-14278
▁लड़ी	-14279
▁सुधा	-14280
▁आसमान	-14281
▁परवीन	-14282
▁बेजबर	-14283
▁भाजपा	-14284
▁रिलीज	-14285
▁लसीका	-14286
▁साड़ी	-14287
▁अधिवास	-14288
▁छिपाने	-14289
▁जाएँगे	-14290
शास्त्री	-14291
▁अपराह्न	-14292
▁अमानवीय	-14293
▁असेंबली	-14294
▁एससीआरए	-14295
▁सर्वत्र	-14296
▁अनुवर्ती	-14297
▁पूर्णांक	-14298
▁बैंककारी	-14299
▁सेकेंडरी	-14300
▁पत्रकारिता	-14301
▁प्रदर्शनों	-14302
DS	-14303
MS	-14304
xx	-14305
छी	-14306
वुड	-14307
ेरी	-14308
▁ठा	-14309
▁लघ	-14310
द्वि	-14311
▁PWs	-14312
▁खरे	-14313
▁फेल	-14314
▁बीओ	-14315
▁मरु	-14316
▁सनी	-14317
▁टीपी	-14318
▁टूटी	-14319
▁टेलि	-14320
ष्ट्री	-14321
▁जोसेफ	-14322
▁तकलीफ	-14323
▁दबाकर	-14324
▁बर्मा	-14325
▁सुनना	-14326
▁एसआरआई	-14327
▁मन्दिर	-14328
▁सद्दाम	-14329
▁औषधियों	-14330
▁कार्टून	-14331
▁मातृत्व	-14332
▁शॉर्टकट	-14333
▁अस्पृश्य	-14334
▁किराएदार	-14335
▁प्रदूषित	-14336
▁प्रायोजन	-14337
▁राजकोषीय	-14338
▁सर्वांगी	-14339
▁BENGALURU	-14340
▁विरोधियों	-14341
कथा	-14342
मैट	-14343
सोस	-14344
▁th	-14345
पर्स	-14346
▁ठंड	-14347
▁सैल	-14348
▁कुसु	-14349
▁जुडी	-14350
▁दोहन	-14351
▁धोने	-14352
▁पौंड	-14353
▁फ्लो	-14354
▁बंजर	-14355
▁मजाक	-14356
▁मुखर	-14357
▁मोहर	-14358
▁रचित	-14359
▁लड़क	-14360
▁संकर	-14361
▁अनपढ़	-14362
▁ईएसआई	-14363
▁चचेरे	-14364
▁माइनस	-14365
▁विनती	-14366
▁अंगूठी	-14367
▁ग्रेटर	-14368
▁निरूपण	-14369
▁प्रत्ये	-14370
▁अत्याधिक	-14371
▁हितधारकों	-14372
▁निर्यातकों	-14373
▁पुनर्भुगतान	-14374
▁राष्ट्रमंडल	-14375
IA	-14376
आया	-14377
नें	-14378
वेज	-14379
कर्ण	-14380
▁उखा	-14381
▁कप्	-14382
▁केक	-14383
▁पीई	-14384
▁सबक	-14385
▁स्ल	-14386
गुप्त	-14387
▁Madh	-14388
▁कथान	-14389
▁जोकि	-14390
▁उल्टा	-14391
▁कहावत	-14392
▁डिटेन	-14393
▁पेशाब	-14394
▁मौसमी	-14395
निर्मित	-14396
▁निकालते	-14397
▁प्रभाकर	-14398
▁विपक्षी	-14399
▁अप्रभावी	-14400
▁अप्राप्य	-14401
▁उदारीकरण	-14402
▁विस्फोटक	-14403
▁कार्यकारिणी	-14404
PW	-14405
शै	-14406
डीह	-14407
लाट	-14408
▁et	-14409
▁pr	-14410
ayan	-14411
गिरि	-14412
चक्र	-14413
जीपी	-14414
▁आरए	-14415
▁बेर	-14416
▁रेफ	-14417
िलिंग	-14418
▁गौरी	-14419
▁पीयू	-14420
▁मद्य	-14421
▁हटकर	-14422
▁पलायन	-14423
▁फसलें	-14424
▁भतीजे	-14425
▁विफलः	-14426
▁निशाना	-14427
▁परीक्ष	-14428
▁सिखाया	-14429
विज्ञानी	-14430
▁भागलपुर	-14431
▁रणनीतिक	-14432
▁विवाहों	-14433
▁संस्कृतियों	-14434
UK	-14435
टलर	-14436
तिर	-14437
्रह	-14438
कृमि	-14439
साइज	-14440
ोपाय	-14441
▁माउ	-14442
▁मुय	-14443
▁हाव	-14444
▁आरडी	-14445
▁काया	-14446
▁गोबर	-14447
▁जेएम	-14448
▁परिर	-14449
▁परोप	-14450
▁बतला	-14451
▁ब्रज	-14452
जीरिया	-14453
▁उभरते	-14454
▁डिबें	-14455
▁सीढ़ी	-14456
▁कहेंगे	-14457
▁चुकौती	-14458
▁मिटाने	-14459
▁विधानों	-14460
▁सक्सेना	-14461
▁समावेशन	-14462
▁अनापत्ति	-14463
▁रामेश्वर	-14464
▁वर्गमीटर	-14465
▁औपनिवेशिक	-14466
▁कम्पनियों	-14467
▁द्विआधारी	-14468
▁प्रतिबन्ध	-14469
▁प्रैक्टिस	-14470
▁विषयवस्तु	-14471
ERE	-14472
ODU	-14473
खले	-14474
नित	-14475
ादि	-14476
▁SE	-14477
▁बँ	-14478
▁हज	-14479
एमएल	-14480
कोहल	-14481
क्टी	-14482
चर्स	-14483
ावान	-14484
▁ठिक	-14485
▁पोट	-14486
▁यूट	-14487
फार्म	-14488
▁आरेख	-14489
▁एलआर	-14490
▁घोषण	-14491
▁पीना	-14492
▁बाड़	-14493
▁लगान	-14494
▁शोभा	-14495
ंजीकृत	-14496
क्षत्र	-14497
च्छन्न	-14498
▁असहमत	-14499
▁उभरता	-14500
▁कीड़े	-14501
▁पोशाक	-14502
▁भरपाई	-14503
▁मौकों	-14504
▁फ़ारसी	-14505
▁ब्यौरे	-14506
▁मुट्ठी	-14507
▁सामरिक	-14508
▁Limited	-14509
▁अराजकता	-14510
▁महालेखा	-14511
▁परक्राम्य	-14512
▁सम्मानजनक	-14513
▁राष्ट्रवाद	-14514
▁सिक्योरिटी	-14515
▁प्रविष्टियाँ	-14516
▁साम्प्रदायिक	-14517
ँघ	-14518
झक	-14519
मदार	-14520
▁आलू	-14521
▁मिज	-14522
त्नों	-14523
शीघ्र	-14524
▁कणों	-14525
▁पितृ	-14526
▁पुरः	-14527
▁बनें	-14528
▁बांट	-14529
▁लिहा	-14530
▁तेज़ी	-14531
▁दुहरा	-14532
▁बुलाए	-14533
▁सस्ता	-14534
▁सिडबी	-14535
कर्त्ता	-14536
▁अपनाकर	-14537
▁इकट्ठे	-14538
▁कारखाना	-14539
▁पोतन्ना	-14540
▁बेलारूस	-14541
▁व्यवधान	-14542
▁भुगतानों	-14543
▁वार्मिंग	-14544
▁सुस्पष्ट	-14545
▁पदाधिकारी	-14546
▁अनिवार्यता	-14547
▁संक्षिप्तता	-14548
UB	-14549
२६	-14550
ादन	-14551
वेरी	-14552
ुराम	-14553
्राह	-14554
▁कैव	-14555
▁डाई	-14556
▁हंग	-14557
चारित	-14558
बाज़ी	-14559
ियाना	-14560
▁आरती	-14561
▁कैलि	-14562
▁तंतु	-14563
▁व्यप	-14564
▁सलाम	-14565
▁साँस	-14566
▁COTPA	-14567
▁घावों	-14568
▁नाकाम	-14569
▁फेंका	-14570
▁बताये	-14571
▁बैकअप	-14572
▁रोकते	-14573
▁हज़ार	-14574
पंथियों	-14575
ापूर्वक	-14576
▁एपेक्स	-14577
▁सिक्के	-14578
▁अन्यत्र	-14579
▁तिथियों	-14580
▁विनिर्दि	-14581
▁स्वराज्य	-14582
मुल	-14583
▁NC	-14584
▁an	-14585
न्थि	-14586
र्ना	-14587
▁ईसी	-14588
▁एलि	-14589
▁जोध	-14590
▁फ़ी	-14591
▁लां	-14592
ंद्रा	-14593
धारणा	-14594
नालॉग	-14595
ब्बों	-14596
▁आयरन	-14597
▁काना	-14598
▁कुचल	-14599
▁चोटी	-14600
▁दिवा	-14601
▁लगना	-14602
▁सींग	-14603
ंटियों	-14604
▁क्षीण	-14605
▁खन्ना	-14606
▁छुट्ट	-14607
▁डिस्प	-14608
▁तकिया	-14609
▁दामाद	-14610
▁नगण्य	-14611
▁महमूद	-14612
▁वजीफा	-14613
▁सस्ती	-14614
▁अनुष्ठ	-14615
▁अन्तरा	-14616
▁कप्तान	-14617
▁कामयाब	-14618
▁प्रोत्	-14619
▁रेटिंग	-14620
▁वृत्ता	-14621
▁कारागार	-14622
▁प्रत्यय	-14623
▁मीट्रिक	-14624
▁सम्मिलन	-14625
▁परिचर्चा	-14626
▁चुनौतियां	-14627
▁प्रबंधकों	-14628
▁उत्तरोत्तर	-14629
▁संवैधानिकता	-14630
▁प्रतिभूतिकरण	-14631
ax	-14632
रव	-14633
सऋ	-14634
ith	-14635
ttp	-14636
ंकू	-14637
ंटो	-14638
ोदर	-14639
योगी	-14640
▁केर	-14641
▁गेल	-14642
▁छड़	-14643
▁दुम	-14644
▁मुल	-14645
गमेंट	-14646
▁VIII	-14647
▁एनजी	-14648
▁बुढ़	-14649
▁माडल	-14650
▁अक्षय	-14651
▁चैत्य	-14652
▁जैकेट	-14653
▁दुर्य	-14654
▁द्रीय	-14655
▁पाएगा	-14656
▁पीठों	-14657
▁प्रोड	-14658
▁बढ़ें	-14659
▁आकृष्ट	-14660
▁आरएफपी	-14661
▁कार्गो	-14662
▁जानकार	-14663
▁अधिरोपण	-14664
▁अनुग्रह	-14665
▁वाक्यों	-14666
▁जनसाधारण	-14667
▁अभिप्राप्त	-14668
▁डिपार्टमेंट	-14669
▁पारिस्थितिकी	-14670
ौज	-14671
are	-14672
फली	-14673
ब्स	-14674
ौने	-14675
गंगा	-14676
जिये	-14677
भंगा	-14678
ल्चर	-14679
▁गों	-14680
केशनल	-14681
▁क्वे	-14682
▁गायन	-14683
▁जिया	-14684
▁ढूँढ	-14685
▁नारे	-14686
▁पीटर	-14687
▁सज़ा	-14688
▁सरमा	-14689
िस्तान	-14690
▁घोड़ा	-14691
▁द्रवि	-14692
▁मर्जी	-14693
▁नवीनता	-14694
▁मिलाया	-14695
▁संकुचन	-14696
चिकित्सा	-14697
▁असंबद्ध	-14698
▁खूबियों	-14699
▁निवृत्त	-14700
▁विशाखाप	-14701
▁संभाव्य	-14702
▁सीताराम	-14703
▁इकबालिया	-14704
▁ऑब्जेक्ट	-14705
▁परम्परागत	-14706
▁हतोत्साहित	-14707
CS	-14708
OS	-14709
अन	-14710
ugh	-14711
डेन	-14712
▁MS	-14713
कूमत	-14714
ज़ोर	-14715
ज्जु	-14716
ियरी	-14717
▁Off	-14718
▁कवक	-14719
▁छंट	-14720
▁रजत	-14721
▁सल्	-14722
▁इब्र	-14723
▁ऑक्स	-14724
▁किसे	-14725
▁जहरी	-14726
▁पावन	-14727
▁बदमा	-14728
▁रोके	-14729
▁काबुल	-14730
▁ट्रीय	-14731
▁निगमन	-14732
▁बनावट	-14733
▁आदित्य	-14734
▁कुल्लू	-14735
▁दिलाता	-14736
▁सेलुलर	-14737
▁इस्तीफे	-14738
▁क्लाइंट	-14739
▁व्यंग्य	-14740
▁संकुचित	-14741
▁अपंजीकृत	-14742
इए	-14743
ंबे	-14744
कंठ	-14745
शमन	-14746
▁it	-14747
▁एर	-14748
टीपी	-14749
पेटा	-14750
र्मन	-14751
▁आहत	-14752
▁काँ	-14753
▁बढे	-14754
धिपति	-14755
▁अनाथ	-14756
▁उभरे	-14757
▁कुंभ	-14758
▁जुडे	-14759
▁प्रम	-14760
▁मिनी	-14761
▁हथकर	-14762
▁पूछना	-14763
▁मलखान	-14764
▁सत्रह	-14765
▁फैमिली	-14766
▁संचालक	-14767
▁समस्ती	-14768
▁हेमराज	-14769
▁निकालकर	-14770
▁ग्रेजुएट	-14771
▁मुवक्किल	-14772
▁रियासतों	-14773
▁अतिरिक़्त	-14774
▁लाइब्रेरी	-14775
▁प्रभावकारी	-14776
▁स्वतन्त्रता	-14777
▁अभिव्यक्तियों	-14778
VC	-14779
de	-14780
चय	-14781
कां	-14782
दून	-14783
लील	-14784
िकट	-14785
▁डब	-14786
पुष्	-14787
हिणी	-14788
ODUCT	-14789
ानन्द	-14790
▁तालि	-14791
▁धकेल	-14792
▁बीसी	-14793
▁माली	-14794
▁विरल	-14795
▁उठाये	-14796
▁उभरने	-14797
▁हल्की	-14798
▁हुक्म	-14799
णाधिकार	-14800
पाध्याय	-14801
▁अनेकों	-14802
▁उपस्कर	-14803
▁एनालॉग	-14804
▁घुटनों	-14805
▁पीसीआर	-14806
▁मोर्चे	-14807
▁सारवान	-14808
▁PRODUCT	-14809
▁चलचित्र	-14810
▁चिड़िया	-14811
▁पदच्युत	-14812
▁बंटवारे	-14813
▁इलैक्ट्र	-14814
▁गतिशीलता	-14815
▁परिवर्धन	-14816
▁बलपूर्वक	-14817
▁अल्पकालिक	-14818
▁अवधारणाओं	-14819
▁सर्वांगीण	-14820
▁वस्तुनिष्ठ	-14821
da	-14822
फि	-14823
खनन	-14824
▁ऊन	-14825
RISH	-14826
भाष्	-14827
▁Pur	-14828
▁एनए	-14829
▁जुन	-14830
▁निष	-14831
▁पीस	-14832
▁सूख	-14833
मेन्ट	-14834
▁आंका	-14835
▁ईर्ष	-14836
▁एफसी	-14837
▁थॉमस	-14838
▁द्यो	-14839
▁धड़क	-14840
▁सतही	-14841
▁सुशी	-14842
द्वारा	-14843
▁घूमने	-14844
▁परहेज	-14845
▁मधुकर	-14846
▁सहदेव	-14847
▁सुपरि	-14848
▁लोकहित	-14849
▁विमानन	-14850
▁हरिश्च	-14851
▁वृंदावन	-14852
▁सियाराम	-14853
▁सन्निहित	-14854
▁सम्पादित	-14855
▁निर्माणों	-14856
▁राजमार्गों	-14857
▁विद्यासागर	-14858
ua	-14859
ach	-14860
▁cl	-14861
▁चढ	-14862
ाधीन	-14863
िताब	-14864
ीयों	-14865
▁इम्	-14866
▁जीए	-14867
▁फेड	-14868
▁बख्	-14869
▁मिर	-14870
▁युव	-14871
▁लीं	-14872
▁सरी	-14873
ज्ञों	-14874
▁कांड	-14875
▁काटे	-14876
▁पिंड	-14877
▁सीएफ	-14878
▁हायर	-14879
▁घुड़स	-14880
▁ठहरने	-14881
▁रिस्प	-14882
▁रुग्ण	-14883
▁सपनों	-14884
▁ज़रुरत	-14885
▁दरभंगा	-14886
▁निभाते	-14887
▁ब्रांच	-14888
▁सोनवीर	-14889
▁पशुपालन	-14890
▁विमानों	-14891
▁श्रीनगर	-14892
▁समावेदन	-14893
▁पहुंचाना	-14894
▁एजेंसियां	-14895
▁समस्तीपुर	-14896
▁नोटिफिकेशन	-14897
▁विकासात्मक	-14898
▁प्रत्यक्षतः	-14899
ATH	-14900
मेज	-14901
युग	-14902
वली	-14903
▁AO	-14904
ंदरी	-14905
ब्लू	-14906
▁अणु	-14907
▁कोक	-14908
▁गें	-14909
▁छुआ	-14910
▁शेल	-14911
धीनगर	-14912
्मीकि	-14913
▁औरंग	-14914
▁कलाई	-14915
▁बिगा	-14916
GALORE	-14917
▁नक्शा	-14918
▁पंचों	-14919
▁पाषाण	-14920
▁रुपया	-14921
▁रोमां	-14922
▁वेदना	-14923
▁टीडीएस	-14924
▁सटीकता	-14925
▁अपरिचित	-14926
▁जोखिमों	-14927
▁ज्योतिष	-14928
▁निधियां	-14929
▁परामर्शी	-14930
▁बीआईएफआर	-14931
▁भर्तियों	-14932
▁मानसिकता	-14933
▁असंतोषजनक	-14934
▁मूर्तियों	-14935
▁नर्मदाशंकर	-14936
▁अभियांत्रिकी	-14937
तलब	-14938
▁Si	-14939
ासाह	-14940
िकीय	-14941
▁आत्	-14942
▁गोध	-14943
▁घोट	-14944
▁जूझ	-14945
▁डोर	-14946
▁बिश	-14947
▁लता	-14948
▁शूट	-14949
▁शैव	-14950
्रिंग	-14951
▁LINK	-14952
▁आभार	-14953
▁चंदन	-14954
▁पॉली	-14955
▁फ्ला	-14956
▁मूवी	-14957
▁वैभव	-14958
▁सौते	-14959
▁जलाने	-14960
▁पकाने	-14961
▁शुक्ल	-14962
▁अमिताभ	-14963
▁कीर्ति	-14964
▁गठबंधन	-14965
▁चुप्पी	-14966
▁बनाएगा	-14967
▁भक्तों	-14968
▁उत्तरों	-14969
▁डिपॉजिट	-14970
▁उत्कीर्ण	-14971
▁कोल्हटकर	-14972
▁तत्त्वों	-14973
▁प्रतिधारण	-14974
▁इलेक्ट्रिकल	-14975
▁ट्रांसफ़ेरे	-14976
ैच	-14977
कुर	-14978
जील	-14979
य्य	-14980
भुता	-14981
मनगर	-14982
हारा	-14983
ाप्र	-14984
ुकूल	-14985
▁भाप	-14986
▁मज्	-14987
▁सुष	-14988
▁धीरज	-14989
▁बकरी	-14990
▁सूरी	-14991
तत्त्व	-14992
▁वरदान	-14993
▁सिक्ख	-14994
▁Bhawan	-14995
▁इंट्रा	-14996
▁ज़मानत	-14997
▁पुराणों	-14998
▁मोतीलाल	-14999
▁एनेक्सचर	-15000
▁महाभियोग	-15001
▁कांग्रेसी	-15002
▁संस्करणों	-15003
▁हिन्दुस्तानी	-15004
PSC	-15005
द्म	-15006
लेम	-15007
▁आड	-15008
फ़ोन	-15009
▁PWD	-15010
▁अटक	-15011
▁टोल	-15012
▁दीव	-15013
▁लाज	-15014
▁लिट	-15015
▁लोन	-15016
न्तुक	-15017
याधीश	-15018
विदित	-15019
ादेवी	-15020
▁आर्म	-15021
▁दैवी	-15022
▁पीएल	-15023
▁पूंछ	-15024
▁लेखे	-15025
▁वहॉँ	-15026
ज्ञासा	-15027
दर्शित	-15028
▁उतरने	-15029
▁क्रॉल	-15030
▁ग्लास	-15031
▁रंजीत	-15032
▁रोकती	-15033
▁सीनेट	-15034
▁एचयूएफ	-15035
▁जोड़ते	-15036
▁दिखाएं	-15037
▁परिसंघ	-15038
▁फिलहाल	-15039
▁बनवाया	-15040
▁सातवें	-15041
▁हुकूमत	-15042
partment	-15043
▁जन्मजात	-15044
▁प्रवृति	-15045
▁अनिच्छुक	-15046
▁कहानियाँ	-15047
▁तानाशाही	-15048
▁पाइपलाइन	-15049
▁पाकिस्तानी	-15050
▁छात्रवृत्ति	-15051
▁सिद्धान्तों	-15052
MI	-15053
राइ	-15054
ोकर	-15055
ावटी	-15056
▁Hig	-15057
▁मैथ	-15058
▁लवण	-15059
लियां	-15060
▁CCNo	-15061
▁ईसाइ	-15062
▁टीटी	-15063
▁देवर	-15064
त्पादक	-15065
▁करियर	-15066
▁खोजें	-15067
▁गैसों	-15068
▁जसवंत	-15069
▁स्टोन	-15070
▁अतिचार	-15071
▁आयोगों	-15072
▁छोड़ते	-15073
▁ब्यौरा	-15074
▁रिश्ता	-15075
▁नकदीकरण	-15076
▁गांधीनगर	-15077
▁जमशेदपुर	-15078
▁पुरातत्व	-15079
▁यूरोपियन	-15080
▁BANGALORE	-15081
▁लेबोरेटरी	-15082
▁सर्वव्यापी	-15083
▁एंटरप्राइजेज	-15084
आरए	-15085
ण्ण	-15086
▁Th	-15087
▁छव	-15088
▁URL	-15089
▁अरा	-15090
▁कॉज	-15091
▁दरा	-15092
▁नन्	-15093
▁डिटे	-15094
▁पराज	-15095
▁यादृ	-15096
▁रुके	-15097
▁वंशज	-15098
▁सरणी	-15099
▁चौंका	-15100
▁तूफान	-15101
▁प्लेस	-15102
▁अधिकता	-15103
▁उत्खनन	-15104
▁एकाधिक	-15105
▁ग्रामो	-15106
▁जेएनयू	-15107
▁पड़ेगी	-15108
▁मकानों	-15109
▁स्थापन	-15110
▁मजूमदार	-15111
▁महाद्वी	-15112
▁जिज्ञासा	-15113
▁प्रतिकृति	-15114
▁इलेक्ट्रिक	-15115
▁प्रोपराइटर	-15116
▁ब्रह्मानंद	-15117
▁संपरिवर्तन	-15118
eb	-15119
णे	-15120
▁ee	-15121
▁gu	-15122
▁कत	-15123
▁तस	-15124
न्टी	-15125
रहाल	-15126
▁Kar	-15127
▁काक	-15128
▁फिज	-15129
▁ममल	-15130
▁मसौ	-15131
▁सेब	-15132
आईएडी	-15133
ान्तर	-15134
ोरियम	-15135
▁Gaya	-15136
▁कंपा	-15137
▁जनना	-15138
▁जलीय	-15139
▁दरार	-15140
▁म्या	-15141
▁संगो	-15142
▁कल्लू	-15143
▁चालित	-15144
▁छंटनी	-15145
▁परमार	-15146
▁यूसुफ	-15147
▁वक़्त	-15148
▁संगति	-15149
▁क्षत्र	-15150
▁गाँवों	-15151
▁सन्देश	-15152
▁सोडियम	-15153
▁हर्जाना	-15154
▁प्रतिवेद	-15155
▁प्रमुखता	-15156
▁सम्बंधित	-15157
▁नाइट्रोजन	-15158
▁बेरोजगारी	-15159
▁रूपांतरित	-15160
▁होल्डिंग्स	-15161
ARS	-15162
बाइ	-15163
रणा	-15164
हॉक	-15165
आरएल	-15166
जवान	-15167
▁उस्	-15168
▁एसे	-15169
▁जेट	-15170
▁पैग	-15171
▁शुग	-15172
रियों	-15173
▁अधिर	-15174
▁झटके	-15175
▁नुस्	-15176
▁म्यु	-15177
▁सरला	-15178
▁सूती	-15179
▁सेबी	-15180
ाहियों	-15181
▁उद्भव	-15182
▁बयाना	-15183
▁लौटते	-15184
▁वीरता	-15185
▁सांके	-15186
▁हैरान	-15187
▁Kumari	-15188
▁उदात्त	-15189
▁एनसीसी	-15190
▁भावनगर	-15191
▁महत्तर	-15192
▁सुशासन	-15193
▁इकाइयाँ	-15194
▁प्रोन्न	-15195
▁संरक्षा	-15196
▁सुब्रमण	-15197
▁कुंजीपटल	-15198
▁जितेंद्र	-15199
▁दोषमुक्त	-15200
▁चंद्रशेखर	-15201
▁प्रयत्नों	-15202
▁मुकदमेबाज	-15203
▁यादृच्छिक	-15204
DC	-15205
ord	-15206
डकर	-15207
िनस	-15208
▁ko	-15209
ाहिम	-15210
▁CRA	-15211
▁उमर	-15212
▁चंग	-15213
▁डीन	-15214
▁तने	-15215
▁पिक	-15216
▁लाश	-15217
▁सजग	-15218
▁उदास	-15219
▁चौबी	-15220
▁थोडा	-15221
▁बृहत	-15222
▁लाती	-15223
कोशिका	-15224
यात्मक	-15225
▁काटना	-15226
▁खींची	-15227
▁घुसपै	-15228
▁विभाज	-15229
▁स्वंय	-15230
▁स्वात	-15231
▁उकसावे	-15232
▁नदियां	-15233
▁निबन्ध	-15234
▁परिणति	-15235
▁यन्त्र	-15236
▁श्रृंग	-15237
▁प्रसूति	-15238
▁फैक्टरी	-15239
▁शत्रुओं	-15240
▁रूपान्तर	-15241
▁ब्रह्मांड	-15242
▁आर्बिट्रेशन	-15243
▁तात्कालिकता	-15244
▁प्रमाणपत्रों	-15245
LC	-15246
तुक	-15247
ुलु	-15248
चर्य	-15249
नुमा	-15250
प्ला	-15251
ावनी	-15252
ुलित	-15253
▁उपस	-15254
▁कत्	-15255
▁कवच	-15256
▁नज़	-15257
▁पिट	-15258
▁हँस	-15259
▁हिर	-15260
न्दरी	-15261
▁केपी	-15262
▁ज्ये	-15263
▁डंडा	-15264
▁स्वय	-15265
▁Mahto	-15266
▁अनादर	-15267
▁कार्ब	-15268
▁कीचड़	-15269
▁कुंवर	-15270
▁विपुल	-15271
▁शुभार	-15272
▁सोचकर	-15273
▁एमसीआई	-15274
▁करूँगा	-15275
▁बिछाने	-15276
▁अविभक्त	-15277
▁दृश्यों	-15278
▁नागेंद्र	-15279
▁सांकेतिक	-15280
▁सामान्यत	-15281
▁इंडोनेशिया	-15282
रेक	-15283
▁Na	-15284
पाटी	-15285
▁टिन	-15286
▁ढाई	-15287
▁दंप	-15288
टरिंग	-15289
ानिया	-15290
▁डिवि	-15291
▁फेरी	-15292
▁मेरु	-15293
▁लाइफ	-15294
▁लॉरी	-15295
▁वाकई	-15296
▁कुछेक	-15297
▁जुलूस	-15298
▁बक्से	-15299
▁बरसात	-15300
▁बांटा	-15301
▁मक्खन	-15302
▁मक्खी	-15303
▁किंगडम	-15304
▁भुगतने	-15305
ॉल्वेंसी	-15306
▁त्रिकोण	-15307
▁निराकरण	-15308
▁विलुप्त	-15309
▁वायुसेना	-15310
▁कांफ्रेंस	-15311
▁अपर्याप्तता	-15312
▁प्रस्तुतीकरण	-15313
VII	-15314
मिथ	-15315
ापा	-15316
ोजर	-15317
▁CE	-15318
▁उच	-15319
▁खं	-15320
▁गम	-15321
साही	-15322
▁कतर	-15323
▁परभ	-15324
▁अर्ह	-15325
▁चंचल	-15326
▁टीके	-15327
▁लोहा	-15328
▁गुटों	-15329
▁गुरुत	-15330
क्षोपाय	-15331
▁ज्ञानी	-15332
▁सिक्का	-15333
▁सुपारी	-15334
▁स्वीडन	-15335
▁इमारतें	-15336
▁ईश्वरीय	-15337
▁केआईएडी	-15338
▁तीक्ष्ण	-15339
▁सक्षमता	-15340
▁सादृश्य	-15341
▁प्रतिध्व	-15342
▁प्राइमरी	-15343
▁मेट्रोपो	-15344
▁जमींदारों	-15345
UDA	-15346
खोर	-15347
गति	-15348
रीज	-15349
ूले	-15350
▁घि	-15351
▁वश	-15352
▁कोऑ	-15353
▁जोग	-15354
▁डोग	-15355
▁बाउ	-15356
▁मचा	-15357
▁रहो	-15358
आयामी	-15359
क्रोश	-15360
्वाधर	-15361
▁NEET	-15362
▁अब्ब	-15363
▁छिपी	-15364
▁फोकस	-15365
▁मूंग	-15366
▁सीवी	-15367
बुद्धि	-15368
▁अंगुल	-15369
▁अशक्त	-15370
▁पत्ती	-15371
▁सौदों	-15372
▁अंधकार	-15373
▁अलीगढ़	-15374
▁कार्यो	-15375
▁खासतौर	-15376
▁विषाणु	-15377
▁सेनापति	-15378
▁उग्रवादी	-15379
▁स्टैंडर्ड	-15380
▁अतिशयोक्ति	-15381
▁प्रजातियां	-15382
▁स्थानान्तरण	-15383
▁सामंजस्यपूर्ण	-15384
use	-15385
नोट	-15386
ेला	-15387
▁IN	-15388
▁ND	-15389
▁ऐल	-15390
कुलम	-15391
गुरु	-15392
दिरा	-15393
शासी	-15394
▁टंक	-15395
▁दाख	-15396
▁धाम	-15397
▁पाट	-15398
▁पाश	-15399
▁मोम	-15400
▁सडक	-15401
रेटिव	-15402
ारिटी	-15403
▁http	-15404
▁जरुर	-15405
▁टूटे	-15406
▁पूरन	-15407
▁मुकु	-15408
▁लटका	-15409
▁हिरण	-15410
क्यूलर	-15411
्रीकृत	-15412
▁किफाय	-15413
▁ट्राइ	-15414
▁तेजाब	-15415
▁दुसरे	-15416
▁पायलट	-15417
▁बच्ची	-15418
▁बढ़ाए	-15419
▁योंकि	-15420
▁वर्सस	-15421
▁ह्रदय	-15422
▁तिब्बत	-15423
▁रिटायर	-15424
▁संबधित	-15425
▁आदमियों	-15426
▁चार्ल्स	-15427
▁इब्राहिम	-15428
▁प्रांतों	-15429
▁शत्रुघ्न	-15430
▁विज्ञप्ति	-15431
▁स्त्रियां	-15432
▁कार्यनीतिक	-15433
▁वर्णनात्मक	-15434
▁व्यवस्थाओं	-15435
▁प्रत्यक्षीकरण	-15436
ंन	-15437
ोच	-15438
ंगु	-15439
▁pp	-15440
▁उध	-15441
▁झं	-15442
▁र्	-15443
▁शॉ	-15444
शासन	-15445
▁डाँ	-15446
▁निल	-15447
▁पाम	-15448
▁भगा	-15449
▁मेस	-15450
▁शाप	-15451
स्कोप	-15452
▁Roht	-15453
▁आईएफ	-15454
▁उठकर	-15455
▁एलटी	-15456
▁खाया	-15457
▁चमकी	-15458
▁मिमी	-15459
▁रूपए	-15460
▁चुम्ब	-15461
▁पराजय	-15462
▁परिकल	-15463
▁बैठते	-15464
▁असंगति	-15465
▁आरटीआई	-15466
▁घोड़ों	-15467
▁चतुर्व	-15468
▁त्यागी	-15469
▁नेपाली	-15470
▁प्रयाग	-15471
▁प्रोटे	-15472
▁बड़ौदा	-15473
▁बरामदे	-15474
▁शिलाले	-15475
▁संवेदी	-15476
▁गुणात्मक	-15477
▁मताधिकार	-15478
▁बल्लेबाजी	-15479
▁राजकुमारी	-15480
▁प्रोसेसिंग	-15481
▁कार्रवाइयों	-15482
▁प्रार्थनाओं	-15483
मह	-15484
aff	-15485
ain	-15486
गना	-15487
▁झी	-15488
ical	-15489
आईएस	-15490
गाली	-15491
ोत्त	-15492
▁ठुक	-15493
▁धुन	-15494
▁मात	-15495
िविटी	-15496
ोजनों	-15497
▁अकाल	-15498
▁ऑप्ट	-15499
▁करीम	-15500
▁छुरा	-15501
▁ध्या	-15502
▁नर्इ	-15503
▁भूरा	-15504
▁मलिक	-15505
▁आहरित	-15506
▁एडहॉक	-15507
▁कथानक	-15508
▁कानों	-15509
▁जिहाद	-15510
▁नशीली	-15511
▁नोबेल	-15512
▁बन्धन	-15513
▁भेजकर	-15514
▁संभवत	-15515
▁साँचा	-15516
नेलवेली	-15517
▁अधिष्ठ	-15518
▁इजराइल	-15519
▁क्लबों	-15520
▁गुस्से	-15521
▁गौरतलब	-15522
▁पटवारी	-15523
▁बोलचाल	-15524
▁मीटिंग	-15525
▁वर्धित	-15526
▁कंपाउंड	-15527
▁गोवर्धन	-15528
▁नक्षत्र	-15529
▁प्रमोशन	-15530
▁फुफ्फुस	-15531
▁बताएंगे	-15532
▁ममलतदार	-15533
▁स्ट्रेट	-15534
▁करनेवाला	-15535
▁दूरदर्शन	-15536
▁रिपब्लिक	-15537
▁कठिनाइयां	-15538
▁ब्राह्मणों	-15539
गान	-15540
डेम	-15541
▁On	-15542
▁af	-15543
▁जख	-15544
रांव	-15545
लेपन	-15546
ल्सन	-15547
▁App	-15548
▁अगु	-15549
▁अवा	-15550
▁आईए	-15551
▁नजी	-15552
▁नों	-15553
▁माई	-15554
▁शही	-15555
तान्त	-15556
ल्लोर	-15557
▁अपंग	-15558
▁आज्ञ	-15559
▁कमां	-15560
▁गाजा	-15561
▁जनित	-15562
▁झाड़	-15563
▁नाला	-15564
▁रोगा	-15565
▁अन्ना	-15566
▁कायदा	-15567
▁गुजरे	-15568
▁जीर्ण	-15569
▁निगाह	-15570
▁बीमित	-15571
▁महीना	-15572
▁गुच्छा	-15573
▁झोपड़ी	-15574
▁टीआईपी	-15575
▁दर्शाए	-15576
▁मददगार	-15577
▁लम्बाई	-15578
▁व्हाइट	-15579
▁सुनाते	-15580
▁जायसवाल	-15581
▁टेनेंसी	-15582
▁भंडारित	-15583
▁शाहजहाँ	-15584
▁उत्सुकता	-15585
▁डायरेक्ट	-15586
▁देशभक्ति	-15587
▁विजयवाड़ा	-15588
आप	-15589
श्क	-15590
िवर	-15591
ुकु	-15592
▁गॉ	-15593
क्कन	-15594
चारे	-15595
▁SHO	-15596
▁फीड	-15597
▁रास	-15598
▁हनन	-15599
ारोपण	-15600
▁MANU	-15601
▁कभार	-15602
▁भुजा	-15603
रेनियम	-15604
▁टिकला	-15605
▁पेयजल	-15606
▁मसौदे	-15607
▁रुझान	-15608
▁लेफ्ट	-15609
▁सेंसर	-15610
▁अड्डों	-15611
▁एयरलाइ	-15612
▁जांचना	-15613
▁डिब्बे	-15614
▁भेड़ों	-15615
▁शिकारी	-15616
▁सम्पदा	-15617
▁गलतियों	-15618
▁दोहराने	-15619
▁धारणाओं	-15620
▁बोलियां	-15621
▁उंगलियों	-15622
▁निर्धनता	-15623
▁Bhagalpur	-15624
▁अनुज्ञप्ति	-15625
▁उपलब्धियां	-15626
▁ग्रहणाधिकार	-15627
वाड	-15628
ोबा	-15629
▁जक	-15630
वेदन	-15631
▁Mar	-15632
▁ओड़	-15633
▁चूह	-15634
▁धूम	-15635
▁शमन	-15636
[...]
