<unk>	0
<s>	0
</s>	0
UuRrLl	0
DdAaTtEe	0
NnUuMm	0
▁क	-0
▁स	-1
▁ह	-2
▁प	-3
▁म	-4
्र	-5
ार	-6
▁के	-7
▁अ	-8
▁व	-9
▁है	-10
्य	-11
ें	-12
▁ज	-13
▁न	-14
▁।	-15
ों	-16
▁ब	-17
या	-18
▁द	-19
▁,	-20
र्	-21
▁में	-22
ता	-23
▁उ	-24
ान	-25
▁ल	-26
▁प्र	-27
▁र	-28
िक	-29
▁की	-30
▁आ	-31
▁औ	-32
ने	-33
▁कि	-34
▁कर	-35
▁त	-36
्त	-37
▁और	-38
ित	-39
▁को	-40
▁का	-41
▁भ	-42
▁से	-43
ना	-44
▁ग	-45
▁इ	-46
▁पर	-47
▁वि	-48
▁.	-49
्व	-50
▁ए	-51
▁य	-52
▁हो	-53
▁सं	-54
▁श	-55
ाल	-56
था	-57
िय	-58
▁-	-59
िए	-60
्ष	-61
▁च	-62
▁इस	-63
ति	-64
▁हैं	-65
्ट	-66
▁एक	-67
▁सम	-68
्या	-69
ही	-70
▁जा	-71
न्	-72
ती	-73
▁लिए	-74
ते	-75
ाम	-76
स्	-77
वा	-78
▁नि	-79
के	-80
हा	-81
ड़	-82
त्र	-83
▁अप	-84
िया	-85
क्ष	-86
▁अध	-87
ोग	-88
सी	-89
से	-90
▁अन	-91
▁रा	-92
हीं	-93
ेश	-94
िल	-95
▁या	-96
▁यह	-97
▁भी	-98
▁)	-99
▁नहीं	-100
▁(	-101
▁ख	-102
ारा	-103
ाह	-104
ास	-105
कार	-106
▁किया	-107
नी	-108
▁जो	-109
री	-110
रा	-111
ष्ट	-112
क्त	-113
▁ने	-114
▁करने	-115
त्	-116
ंग	-117
का	-118
▁सा	-119
िन	-120
▁स्	-121
▁कार	-122
▁फ	-123
▁उस	-124
▁दे	-125
▁उप	-126
▁थ	-127
द्	-128
ियों	-129
िस	-130
▁हम	-131
▁बा	-132
कर	-133
ले	-134
▁सक	-135
▁मु	-136
ला	-137
▁तथा	-138
ंध	-139
ाय	-140
▁ध	-141
ंत	-142
▁उन	-143
ूप	-144
▁था	-145
गा	-146
की	-147
▁ही	-148
▁भार	-149
▁अनु	-150
▁हु	-151
ाने	-152
ूर्	-153
भा	-154
मा	-155
्च	-156
▁द्व	-157
्री	-158
▁सु	-159
सा	-160
ओं	-161
▁गया	-162
ंद	-163
▁ले	-164
स्त	-165
▁ऐ	-166
▁अधिक	-167
▁कु	-168
वि	-169
▁स्व	-170
▁आप	-171
द्ध	-172
ंड	-173
▁किसी	-174
▁तो	-175
▁ड	-176
▁रूप	-177
▁व्य	-178
▁राज	-179
▁द्वारा	-180
ल्	-181
▁विश	-182
ारी	-183
▁रह	-184
▁निर्	-185
म्	-186
▁वह	-187
ीन	-188
ोज	-189
द्य	-190
▁कार्य	-191
ैं	-192
ाप	-193
न्ह	-194
बंध	-195
देश	-196
▁अपने	-197
▁प्रति	-198
▁वाल	-199
ली	-200
धार	-201
रे	-202
त्त	-203
▁भा	-204
▁वर्	-205
िव	-206
▁पु	-207
▁वे	-208
▁ट	-209
▁पह	-210
भी	-211
▁घ	-212
योग	-213
▁चाह	-214
▁साथ	-215
▁जिस	-216
▁छ	-217
ार्	-218
ाना	-219
रण	-220
▁तक	-221
▁क्ष	-222
▁भारत	-223
क्ति	-224
▁न्या	-225
ंत्र	-226
में	-227
ारे	-228
▁स्थ	-229
दि	-230
क्र	-231
▁उन्ह	-232
जी	-233
िर	-234
कि	-235
▁राष्ट	-236
दा	-237
▁जाता	-238
गी	-239
दी	-240
▁करना	-241
▁अव	-242
▁मह	-243
▁दो	-244
स्थ	-245
ष्	-246
▁मा	-247
ृत	-248
ूल	-249
▁थे	-250
ुत	-251
ियम	-252
चार	-253
▁मे	-254
▁कुछ	-255
▁'	-256
▁सर	-257
िश	-258
▁बह	-259
ढ़	-260
▁साम	-261
▁कोई	-262
खा	-263
नों	-264
▁थी	-265
ब्	-266
▁पा	-267
ंच	-268
▁ला	-269
▁सी	-270
▁मैं	-271
च्च	-272
मान	-273
▁होता	-274
▁दिया	-275
▁विक	-276
्ञ	-277
▁जी	-278
्यों	-279
ुर	-280
▁/	-281
▁सकता	-282
▁सि	-283
्छ	-284
ूर	-285
▁जब	-286
्रे	-287
ूर्ण	-288
ेत्र	-289
▁;	-290
गे	-291
न्द	-292
जा	-293
पा	-294
ये	-295
न्न	-296
ाप्त	-297
िका	-298
धि	-299
▁इन	-300
▁मान	-301
र्थ	-302
▁बी	-303
▁समय	-304
क्	-305
▁कम	-306
▁अभ	-307
▁संबंध	-308
▁क्षेत्र	-309
▁मिल	-310
ीय	-311
▁करते	-312
▁हुए	-313
वे	-314
▁जै	-315
िप	-316
कों	-317
हां	-318
▁करता	-319
भाव	-320
▁न्याया	-321
▁अंत	-322
▁अन्य	-323
धान	-324
▁सू	-325
गर	-326
च्छ	-327
▁सरकार	-328
वन	-329
▁पू	-330
र्म	-331
▁लोग	-332
क्षा	-333
▁बना	-334
▁जाए	-335
▁राष्ट्र	-336
स्था	-337
ेष	-338
▁अपनी	-339
▁देश	-340
▁उत्	-341
▁चाहिए	-342
▁हि	-343
त्य	-344
▁परि	-345
ोट	-346
्रीय	-347
▁तर	-348
दान	-349
्रा	-350
▁सह	-351
▁राज्य	-352
▁प्रा	-353
▁रहे	-354
ोक	-355
▁उनके	-356
▁वर्ष	-357
▁:	-358
▁रहा	-359
▁रख	-360
ज्ञ	-361
नि	-362
▁विश्व	-363
▁सम्	-364
ूर्व	-365
▁?	-366
▁बहुत	-367
ज़	-368
चना	-369
▁होने	-370
▁वाले	-371
▁गई	-372
गत	-373
को	-374
लय	-375
र्श	-376
▁बाद	-377
▁गु	-378
▁बात	-379
ूस	-380
तीय	-381
▁प्राप्त	-382
▁करें	-383
पति	-384
▁कहा	-385
▁ओ	-386
▁दी	-387
िक्ष	-388
श्य	-389
▁बन	-390
दन	-391
▁सभी	-392
करण	-393
▁जाने	-394
वं	-395
▁प्रकार	-396
▁उसके	-397
ौर	-398
▁सब	-399
ड़ा	-400
▁ऊ	-401
स्ता	-402
ेल	-403
ुक्त	-404
ोंने	-405
ंक	-406
ुल	-407
▁आय	-408
ानी	-409
▁ऐसे	-410
▁होती	-411
िम	-412
िख	-413
ोध	-414
एं	-415
जन	-416
▁व्यक्ति	-417
▁पी	-418
िति	-419
▁न्यायालय	-420
▁देख	-421
ड़ी	-422
▁चु	-423
▁कारण	-424
▁भारतीय	-425
ंप	-426
पूर्ण	-427
धिक	-428
्ल	-429
ालय	-430
▁लग	-431
ोल	-432
श्च	-433
▁तरह	-434
▁होगा	-435
त्म	-436
▁हुआ	-437
▁जि	-438
वर्	-439
▁प्रश	-440
▁अधिन	-441
▁जन	-442
▁गए	-443
▁कह	-444
ध्य	-445
▁व्या	-446
▁इसके	-447
▁राष्ट्रपति	-448
▁विकास	-449
▁उसे	-450
▁एवं	-451
द्योग	-452
▁पूर्व	-453
▁सकते	-454
ग्र	-455
ड़े	-456
बा	-457
▁किए	-458
िट	-459
▁अनुस	-460
▁अधिनियम	-461
▁वा	-462
▁उन्हें	-463
▁माम	-464
▁उन्होंने	-465
▁आव	-466
▁यदि	-467
मी	-468
▁ना	-469
▁क्या	-470
▁मूल	-471
▁धारा	-472
▁नी	-473
िये	-474
▁दूस	-475
बर	-476
र्व	-477
▁नाम	-478
▁पहले	-479
किन	-480
▁अस	-481
तन	-482
▁आर	-483
▁काम	-484
▁दु	-485
वी	-486
▁जान	-487
त्व	-488
वल	-489
▁विचार	-490
▁लेकिन	-491
ोजना	-492
वाद	-493
िता	-494
▁उच्च	-495
▁ऐसा	-496
क्रम	-497
तिक	-498
मे	-499
▁ता	-500
▁विशेष	-501
▁हू	-502
▁समा	-503
▁क्र	-504
▁स्थान	-505
माण	-506
्यू	-507
ुद्ध	-508
▁परिव	-509
▁ई	-510
तर	-511
झे	-512
ाली	-513
चित	-514
▁मुख	-515
▁ग्र	-516
धा	-517
श्यक	-518
▁स्त	-519
▁जाती	-520
▁बि	-521
▁ऐसी	-522
▁आधार	-523
ंट	-524
िला	-525
▁बढ़	-526
कृत	-527
ष्ठ	-528
▁लोगों	-529
्ड	-530
पर	-531
सर	-532
ूम	-533
▁पै	-534
▁निय	-535
▁अब	-536
▁अधिकार	-537
▁स्था	-538
▁बारे	-539
यी	-540
न्त	-541
▁भाग	-542
▁ये	-543
▁हमारे	-544
ां	-545
▁जीवन	-546
ोर	-547
ेट	-548
▁आवश्यक	-549
िंग	-550
▁निक	-551
ील	-552
▁वै	-553
▁उनकी	-554
षण	-555
ियां	-556
▁जैसे	-557
्स	-558
▁अधीन	-559
ास्त	-560
▁प्रभाव	-561
▁सेवा	-562
▁समझ	-563
▁तु	-564
ाइ	-565
ोप	-566
▁उत्त	-567
▁होते	-568
▁शिक्ष	-569
▁श्री	-570
लों	-571
ोर्	-572
क्षण	-573
िन्न	-574
▁उपयोग	-575
▁सद	-576
▁हुई	-577
▁व्यव	-578
▁बार	-579
▁मन	-580
▁दिन	-581
▁क्यों	-582
▁मुझे	-583
▁रु	-584
प्र	-585
▁ओर	-586
▁केवल	-587
निक	-588
ार्थ	-589
▁फिर	-590
षा	-591
कृ	-592
ची	-593
▁जाना	-594
▁बे	-595
▁रही	-596
दार	-597
▁अल	-598
▁कृ	-599
हाय	-600
ंस	-601
ल्प	-602
क्रिया	-603
▁ठ	-604
ख्या	-605
ंभ	-606
ुद	-607
▁जिन	-608
▁बीच	-609
▁प्रयोग	-610
▁बाह	-611
▁अथ	-612
▁प्रदान	-613
ेक	-614
रों	-615
ताओं	-616
रिक	-617
▁सहाय	-618
कारी	-619
▁चल	-620
वाह	-621
▁ढ	-622
ेत	-623
▁उत्पा	-624
चा	-625
िल्	-626
ंब	-627
यन	-628
▁विर	-629
▁दृ	-630
▁प्रत्य	-631
तः	-632
ून	-633
▁हों	-634
▁देने	-635
▁अथवा	-636
▁पुर	-637
▁पार	-638
धी	-639
मु	-640
तम	-641
▁पास	-642
कर्	-643
▁“	-644
▁वाली	-645
टी	-646
ज्ञान	-647
्न	-648
▁लोक	-649
▁प्रक्रिया	-650
▁जिसमें	-651
▁खा	-652
▁विभ	-653
▁सो	-654
▁अपना	-655
फल	-656
▁निर्धार	-657
▁लगा	-658
हार	-659
लब्	-660
▁कै	-661
▁s	-662
▁दोनों	-663
भव	-664
दर्श	-665
▁जहां	-666
▁सकती	-667
▁स्प	-668
▁इसे	-669
ब्द	-670
▁कंप	-671
▁उपलब्	-672
पित	-673
त्ता	-674
▁करती	-675
▁राष्ट्रीय	-676
▁विधि	-677
णी	-678
▁पश्च	-679
▁व्याप	-680
▁न्याय	-681
▁निर	-682
ेद	-683
▁होना	-684
त्मक	-685
▁झ	-686
ित्र	-687
शन	-688
▁महत्व	-689
▁तब	-690
▁पुन	-691
व्य	-692
ेज	-693
▁उसकी	-694
▁पहु	-695
▁%	-696
फ़	-697
▁बद	-698
▁सके	-699
▁सदस	-700
▁प्रण	-701
हाँ	-702
▁संग	-703
▁योजना	-704
मिक	-705
द्योगिक	-706
▁विष	-707
ुक	-708
टर	-709
▁सामान	-710
युक्त	-711
▁करे	-712
▁हा	-713
▁हर	-714
▁बै	-715
▁मौ	-716
ूत	-717
▁अर्थ	-718
त्रा	-719
भाग	-720
▁लिया	-721
ोड़	-722
▁सबसे	-723
▁अच्छ	-724
पी	-725
▁वृ	-726
▁फ़	-727
दे	-728
▁क्योंकि	-729
▁उपलब्ध	-730
▁ऑ	-731
▁प्रे	-732
▁बैं	-733
टा	-734
▁मुख्य	-735
▁स्वा	-736
▁शिक्षा	-737
वेश	-738
▁अर्	-739
▁वित	-740
ण्ड	-741
▁शुर	-742
▁हमें	-743
▁जाते	-744
ंतु	-745
▁अंतर	-746
ात	-747
▁पत्र	-748
▁पद	-749
▁संबंधित	-750
▁उद्	-751
▁हूं	-752
▁सूचना	-753
▁जर	-754
ोह	-755
▁छोट	-756
▁बच्च	-757
ोजन	-758
शा	-759
▁स्थिति	-760
श्व	-761
बी	-762
▁ब्र	-763
▁दौर	-764
तंत्र	-765
▁अंग	-766
▁कभी	-767
ामी	-768
िखा	-769
न्द्र	-770
▁प्रस	-771
▁स्ट	-772
▁लिख	-773
स्ट	-774
▁वस्त	-775
वरण	-776
चे	-777
▁अति	-778
कृति	-779
▁विषय	-780
▁अनुसार	-781
ंज	-782
ाला	-783
▁अध्य	-784
▁नियम	-785
▁तै	-786
▁आज	-787
ष्टि	-788
▁जु	-789
▁केंद	-790
▁शाम	-791
▁योग	-792
ित्व	-793
▁इसल	-794
▁उत्तर	-795
र्क	-796
▁सहायता	-797
▁उठ	-798
तों	-799
▁वास्त	-800
▁कई	-801
▁लिये	-802
▁सुर	-803
▁शब्द	-804
▁दा	-805
▁भाषा	-806
▁शक्ति	-807
▁मै	-808
▁यु	-809
▁व्यक्त	-810
▁सर्व	-811
त्ति	-812
▁विभिन्न	-813
्यान	-814
▁जाएगा	-815
▁भूम	-816
नेक	-817
▁ऋ	-818
▁अगर	-819
▁मामले	-820
▁दूसरे	-821
▁गा	-822
ेय	-823
स्थान	-824
रूप	-825
▁सामान्य	-826
▁बु	-827
▁स्वी	-828
ासन	-829
काश	-830
फी	-831
▁मंत्र	-832
िस्ट	-833
▁इत	-834
▁उसका	-835
▁इसलिए	-836
▁दौरान	-837
हर	-838
▁उनका	-839
▁अलग	-840
▁संघ	-841
मुख	-842
▁आई	-843
धन	-844
▁संप	-845
▁>	-846
▁इसका	-847
▁सुन	-848
ोड	-849
्म	-850
▁पूर्ण	-851
▁वाला	-852
▁ज्ञ	-853
▁शामिल	-854
▁"	-855
ारों	-856
▁जल	-857
इट	-858
▁पक्ष	-859
▁परिवर्	-860
मत	-861
ंजी	-862
▁कान	-863
▁0	-864
काल	-865
वास	-866
नल	-867
▁&	-868
▁एस	-869
▁आदि	-870
▁विद्य	-871
▁वास्तव	-872
▁उसने	-873
▁तैय	-874
वान	-875
प्त	-876
▁अनेक	-877
▁संस	-878
क्ट	-879
▁संख्या	-880
▁लाभ	-881
▁अवसर	-882
डी	-883
िज	-884
ूह	-885
▁गये	-886
▁तीन	-887
ुष	-888
गम	-889
▁दर	-890
निया	-891
▁पहुंच	-892
ुट	-893
▁उपबंध	-894
▁महा	-895
▁माध्य	-896
ोर्ट	-897
▁अं	-898
▁बता	-899
टना	-900
ाज	-901
यं	-902
▁जिसे	-903
ेंगे	-904
▁कल	-905
▁प्रत्येक	-906
▁रुप	-907
नीय	-908
▁पृ	-909
▁सिद्ध	-910
णा	-911
▁दूर	-912
▁साह	-913
ृत्य	-914
शत	-915
▁प्रौ	-916
▁निर्माण	-917
न्तु	-918
स्थित	-919
▁प्रया	-920
▁मानव	-921
स्व	-922
र्इ	-923
शि	-924
▁समाज	-925
द्र	-926
▁प्रय	-927
▁यहां	-928
▁उद्योग	-929
पाल	-930
▁भर	-931
▁बनाने	-932
कट	-933
ूट	-934
▁ध्यान	-935
▁संर	-936
▁कार्यक्रम	-937
▁उद	-938
▁होगी	-939
▁आपको	-940
▁संवि	-941
▁संस्था	-942
▁स्पष्ट	-943
▁संस्	-944
▁महत्वपूर्ण	-945
▁नई	-946
क्षित	-947
▁अंतर्	-948
▁वित्त	-949
▁मध्य	-950
ाई	-951
र्ष	-952
▁अग	-953
▁तैयार	-954
▁विदेश	-955
▁रोग	-956
दाय	-957
▁जिसके	-958
▁स्तर	-959
▁ची	-960
▁आर्थ	-961
▁प्रयास	-962
▁विध	-963
▁धर्म	-964
बन्	-965
▁वस्तु	-966
ांत	-967
▁हेत	-968
ग्रह	-969
सल	-970
▁बिना	-971
▁शुरू	-972
वादी	-973
▁पता	-974
▁बाहर	-975
ोन	-976
पन	-977
णय	-978
▁प्रतिशत	-979
▁खु	-980
▁‘	-981
▁पि	-982
▁हमारी	-983
▁देता	-984
▁मत	-985
▁आर्थिक	-986
▁रे	-987
▁जनता	-988
▁पड़	-989
▁प्रार	-990
▁बैंक	-991
▁हेतु	-992
स्या	-993
▁प्रौद्योगिक	-994
्टी	-995
▁#	-996
▁आदेश	-997
▁विन	-998
▁अन्त	-999
▁ली	-1000
ोष	-1001
▁भाव	-1002
▁शी	-1003
▁”	-1004
▁इससे	-1005
▁समान	-1006
▁परिण	-1007
▁कर्म	-1008
▁सौ	-1009
मित	-1010
▁माल	-1011
▁डा	-1012
गू	-1013
ंह	-1014
▁आगे	-1015
▁शु	-1016
▁डि	-1017
▁लेख	-1018
▁चि	-1019
ठन	-1020
▁प्रो	-1021
▁करके	-1022
▁श्र	-1023
धीश	-1024
▁सार	-1025
▁संस्थान	-1026
▁गति	-1027
▁आवश्यकता	-1028
▁a	-1029
▁मार्	-1030
ूर्ति	-1031
साय	-1032
म्ब	-1033
▁बल्	-1034
▁देना	-1035
धारा	-1036
▁निर्धारित	-1037
▁समस्या	-1038
▁सभा	-1039
▁पर्या	-1040
▁वहां	-1041
हास	-1042
▁इसी	-1043
▁तुम	-1044
▁i	-1045
जार	-1046
▁इसमें	-1047
त्या	-1048
▁प्रमुख	-1049
दिष्ट	-1050
▁क्षेत्रों	-1051
▁विस्त	-1052
▁सीमा	-1053
▁खंड	-1054
▁लागू	-1055
▁निम्	-1056
ाइल	-1057
्यता	-1058
▁उल्	-1059
षि	-1060
▁विश्वास	-1061
▁निर्णय	-1062
▁मज	-1063
िष्ट	-1064
▁गयी	-1065
▁नियंत्र	-1066
▁उद्देश	-1067
▁ती	-1068
▁स्वयं	-1069
▁नीति	-1070
मता	-1071
म्प	-1072
▁रिप	-1073
▁जारी	-1074
ाजिक	-1075
▁ज़	-1076
▁पूरी	-1077
ंख	-1078
द्धि	-1079
▁आपके	-1080
▁प्रकाश	-1081
▁सामाजिक	-1082
▁मेरे	-1083
स्प	-1084
▁काफी	-1085
▁प्रस्त	-1086
▁हाल	-1087
▁प्रणाली	-1088
▁आस	-1089
भग	-1090
िश्च	-1091
▁प्रस्ता	-1092
▁स्क	-1093
▁वी	-1094
▁परिणाम	-1095
▁स्वतंत्र	-1096
▁आध	-1097
ूरी	-1098
विधा	-1099
टक	-1100
ालन	-1101
▁आया	-1102
ेन	-1103
दों	-1104
▁पूरा	-1105
▁सुधार	-1106
्यादा	-1107
▁दिखा	-1108
द्व	-1109
▁अपे	-1110
▁प्रबंध	-1111
▁यू	-1112
वेदन	-1113
▁विभाग	-1114
▁गै	-1115
ियो	-1116
वार	-1117
जू	-1118
▁प्रौद्योगिकी	-1119
▁कर्	-1120
तिहास	-1121
▁कवि	-1122
हत	-1123
▁घर	-1124
▁गुण	-1125
▁समूह	-1126
वर	-1127
पि	-1128
शी	-1129
▁प्रस्ताव	-1130
▁गो	-1131
विद्य	-1132
▁मी	-1133
ंदर	-1134
▁स्थापित	-1135
▁हिंद	-1136
ियन	-1137
▁माध्यम	-1138
तियों	-1139
मार	-1140
▁व्यवस्था	-1141
▁ज्ञान	-1142
एँ	-1143
▁बैठ	-1144
▁मूल्य	-1145
▁न्यायाधीश	-1146
▁लगभग	-1147
▁समुद	-1148
▁स्वीकार	-1149
बद्ध	-1150
▁विनि	-1151
क्ष्य	-1152
▁हाथ	-1153
चन	-1154
रित	-1155
▁कंपनी	-1156
विद्यालय	-1157
▁मामलों	-1158
▁क्रिया	-1159
ॉल	-1160
▁भवन	-1161
▁पुस्त	-1162
▁वर्ग	-1163
▁जैसा	-1164
▁कठ	-1165
▁दक्ष	-1166
▁सदस्य	-1167
▁आयोग	-1168
▁सम्म	-1169
▁आम	-1170
▁हूँ	-1171
▁सर्	-1172
न्म	-1173
▁सूची	-1174
ीक	-1175
▁मृत्य	-1176
▁जानकारी	-1177
▁मैंने	-1178
▁निष्	-1179
▁अवधि	-1180
▁ऋण	-1181
शोध	-1182
▁प्राधिक	-1183
▁बड़ी	-1184
▁सहयोग	-1185
▁रिपोर्ट	-1186
▁श्रे	-1187
हित	-1188
▁सुरक्षा	-1189
▁टी	-1190
▁अपरा	-1191
लेख	-1192
वाई	-1193
इन	-1194
▁!	-1195
ेशन	-1196
ेर	-1197
▁अत्य	-1198
▁गण	-1199
▁मद	-1200
▁फै	-1201
▁कौ	-1202
▁अम	-1203
▁केंद्र	-1204
▁रंग	-1205
▁सुविधा	-1206
▁कृषि	-1207
▁दर्श	-1208
्ले	-1209
▁सफल	-1210
एस	-1211
▁संविधान	-1212
▁किस	-1213
तान	-1214
ान्त	-1215
▁देशों	-1216
▁बदल	-1217
▁समाप्त	-1218
पन्न	-1219
क्ता	-1220
▁अमे	-1221
▁स्थित	-1222
▁जिन्ह	-1223
त्स	-1224
▁व्यापार	-1225
च्छेद	-1226
▁धन	-1227
धारण	-1228
▁अधिकारी	-1229
ित्य	-1230
▁अभी	-1231
▁विश्वविद्यालय	-1232
▁इसकी	-1233
▁शरी	-1234
▁जिससे	-1235
▁जिसका	-1236
▁कुल	-1237
▁विज्ञान	-1238
▁संबंधी	-1239
शील	-1240
▁समर्थ	-1241
▁परिवर्तन	-1242
▁अर	-1243
▁चिक	-1244
▁बाल	-1245
▁परी	-1246
▁ठीक	-1247
स्तान	-1248
▁रखने	-1249
▁कोश	-1250
▁देते	-1251
▁त्र	-1252
▁तरी	-1253
ोस	-1254
▁राम	-1255
र्भ	-1256
पना	-1257
ोषण	-1258
▁उत्पादन	-1259
▁रखा	-1260
▁छोड़	-1261
▁अंतर्गत	-1262
ुग	-1263
▁विशिष्ट	-1264
▁प्रस्तुत	-1265
▁जाये	-1266
▁पिछ	-1267
वृ	-1268
▁महिला	-1269
▁<	-1270
▁आन	-1271
▁बड़े	-1272
▁उपधारा	-1273
▁एन	-1274
भार	-1275
विध	-1276
▁परिय	-1277
▁जग	-1278
▁शै	-1279
▁उद्देश्य	-1280
▁अनुम	-1281
▁शा	-1282
▁अतिरिक	-1283
▁ऊपर	-1284
▁परियोजना	-1285
टन	-1286
आई	-1287
यर	-1288
▁डी	-1289
सित	-1290
▁चार	-1291
▁मंद	-1292
दारी	-1293
▁बल्कि	-1294
▁निश्च	-1295
▁काल	-1296
▁संशोध	-1297
▁राशि	-1298
क्स	-1299
थम	-1300
िखित	-1301
सं	-1302
▁चाहते	-1303
ंगा	-1304
▁अंग्रे	-1305
▁मेरी	-1306
▁साल	-1307
▁शरीर	-1308
ण्	-1309
राज	-1310
क़	-1311
▁अभि	-1312
ष्ण	-1313
हरा	-1314
हन	-1315
स्थ्य	-1316
ष्ट्रीय	-1317
ेड	-1318
ुओं	-1319
जों	-1320
वाल	-1321
▁आने	-1322
▁चिकित	-1323
▁क्षमता	-1324
▁बल	-1325
▁वर्त	-1326
चान	-1327
▁सही	-1328
▁डाल	-1329
ाव	-1330
ाया	-1331
िल्ली	-1332
▁जीव	-1333
▁सै	-1334
ीकरण	-1335
त्मा	-1336
▁वेब	-1337
▁समिति	-1338
▁निर्देश	-1339
ंधान	-1340
▁शिक	-1341
▁देखा	-1342
प्	-1343
▁पश्चिम	-1344
▁अतिरिक्त	-1345
▁अनुच्छेद	-1346
▁दृष्टि	-1347
▁सामने	-1348
ंधी	-1349
▁रो	-1350
▁प्रमाण	-1351
▁अप्र	-1352
▁चला	-1353
▁यहाँ	-1354
दम	-1355
▁ज्यादा	-1356
▁नीचे	-1357
▁मार्ग	-1358
ाहरण	-1359
▁पाठ	-1360
▁आरंभ	-1361
्रो	-1362
▁युद्ध	-1363
▁कहते	-1364
▁मार	-1365
▁स्वास्थ्य	-1366
कृतिक	-1367
▁उदाहरण	-1368
यों	-1369
ेम	-1370
बन्ध	-1371
▁अनुभव	-1372
▁अपराध	-1373
▁बहु	-1374
▁प्रदेश	-1375
▁प्रश्न	-1376
▁लेने	-1377
▁यात्रा	-1378
▁पं	-1379
▁वर्षों	-1380
कल	-1381
▁जरूर	-1382
▁परंतु	-1383
▁अनुसंधान	-1384
▁प्रशिक्ष	-1385
▁साहित्य	-1386
▁प्रदर्श	-1387
▁वर्ण	-1388
▁मांग	-1389
बार	-1390
▁वर्तमान	-1391
▁निवेश	-1392
▁उत्पाद	-1393
▁पानी	-1394
कर्ता	-1395
▁दक्षि	-1396
जे	-1397
▁दिए	-1398
पत्र	-1399
▁पढ़	-1400
▁चौ	-1401
▁छोटे	-1402
▁जमा	-1403
श्	-1404
▁विवाह	-1405
तिम	-1406
▁विदेशी	-1407
▁राजनी	-1408
िश्चित	-1409
लो	-1410
▁संयुक्त	-1411
▁निर्धारण	-1412
▁बंग	-1413
▁सच	-1414
▁उसी	-1415
▁महान	-1416
▁करेगा	-1417
जरा	-1418
▁रचना	-1419
▁थीं	-1420
म्ह	-1421
▁उससे	-1422
जर	-1423
▁सिंह	-1424
ानों	-1425
▁व्यक्तियों	-1426
▁अपील	-1427
▁कोर्इ	-1428
पुर	-1429
▁दंड	-1430
▁होंगे	-1431
▁भीतर	-1432
▁एम	-1433
▁बच्चों	-1434
▁प्रती	-1435
▁बड़ा	-1436
जित	-1437
▁आधारित	-1438
▁पैदा	-1439
▁परन्तु	-1440
▁तौर	-1441
भर	-1442
▁रहने	-1443
▁संच	-1444
▁कला	-1445
▁दिव	-1446
ारण	-1447
▁पीछ	-1448
▁दुर्	-1449
▁हिस्	-1450
▁उच्चतम	-1451
▁चुन	-1452
ंश	-1453
▁उद्य	-1454
▁सरकारी	-1455
▁प्रथम	-1456
ेंट	-1457
र्स	-1458
▁A	-1459
▁भू	-1460
्रेस	-1461
▁प्रधान	-1462
पट	-1463
er	-1464
ँच	-1465
▁संभव	-1466
▁सार्व	-1467
▁मृत्यु	-1468
बल	-1469
▁इतिहास	-1470
कता	-1471
▁अध्या	-1472
▁तुम्ह	-1473
रल	-1474
▁नही	-1475
▁नियंत्रण	-1476
▁खोज	-1477
▁भूमि	-1478
▁रहते	-1479
▁कॉ	-1480
▁लाख	-1481
▁मंदिर	-1482
▁यही	-1483
ेप	-1484
▁अपेक्षा	-1485
्यास	-1486
▁बस	-1487
डा	-1488
▁प्रारंभ	-1489
▁वृद्धि	-1490
▁वाप	-1491
▁लगता	-1492
▁इस्ल	-1493
▁दूसरी	-1494
▁दिश	-1495
▁लड़	-1496
▁प्रेम	-1497
▁विकसित	-1498
▁विरोध	-1499
▁जन्म	-1500
र्जा	-1501
▁नए	-1502
यां	-1503
ट्ट	-1504
्ष्	-1505
▁अंतिम	-1506
▁नागर	-1507
श्छ	-1508
ष्य	-1509
▁कमी	-1510
▁वित्तीय	-1511
नाथ	-1512
▁अध्ययन	-1513
▁आद	-1514
▁घटना	-1515
▁मदद	-1516
▁जांच	-1517
▁करेंगे	-1518
▁आश	-1519
▁कांग	-1520
▁हिन्द	-1521
▁ऊण्	-1522
श्छ्ष्	-1523
▁ऊण्श्छ्ष्	-1524
ग्री	-1525
▁गांधी	-1526
जूद	-1527
▁विंड	-1528
गार	-1529
▁प्रकृति	-1530
▁उत्पन्न	-1531
▁स्थापना	-1532
र्जी	-1533
▁संसा	-1534
▁दिल्ली	-1535
▁विस्तार	-1536
शल	-1537
▁पुस्तक	-1538
▁प्रग	-1539
▁लेकर	-1540
▁कैसे	-1541
▁पेश	-1542
▁किंतु	-1543
▁संभाव	-1544
▁भूमिका	-1545
▁पुल	-1546
▁मिला	-1547
▁विवरण	-1548
▁संदेश	-1549
ार्ड	-1550
ोजित	-1551
▁सदस्यों	-1552
चल	-1553
▁राज्यों	-1554
▁किये	-1555
वीं	-1556
▁ते	-1557
▁बंद	-1558
ात्	-1559
▁आवेदन	-1560
▁विधान	-1561
▁पुनः	-1562
ोर्ड	-1563
▁हमने	-1564
▁बरा	-1565
▁संद	-1566
▁दाय	-1567
▁अग्र	-1568
क्षम	-1569
▁मात्रा	-1570
▁न्यू	-1571
▁रोक	-1572
▁स्वतंत्रता	-1573
भूत	-1574
▁भावना	-1575
▁एक्स	-1576
▁माना	-1577
▁बच	-1578
▁आत्म	-1579
▁उल्लेख	-1580
▁वाय	-1581
▁नागरिक	-1582
स्थिति	-1583
▁संसद	-1584
▁संत	-1585
▁चे	-1586
▁हित	-1587
पूर्व	-1588
▁नौ	-1589
▁प्रतिक	-1590
कल्प	-1591
▁परिवार	-1592
▁पौ	-1593
▁विनिर्	-1594
▁शासन	-1595
र्च	-1596
▁चित्र	-1597
▁बाहरी	-1598
िले	-1599
िना	-1600
ुस	-1601
र्द	-1602
▁पे	-1603
डियो	-1604
▁दिशा	-1605
▁तंत्र	-1606
▁गिर	-1607
आर	-1608
लाह	-1609
▁तकनी	-1610
साइट	-1611
▁भेज	-1612
ल्क	-1613
▁कानून	-1614
▁बनाया	-1615
▁सहित	-1616
तार	-1617
▁भिन्न	-1618
▁आत	-1619
▁भुग	-1620
▁अध्यक्ष	-1621
▁पृष्ठ	-1622
मन	-1623
▁संगठन	-1624
▁अच्छा	-1625
र्य	-1626
▁उचित	-1627
▁सुनिश्चित	-1628
▁अच्छी	-1629
▁सिद्धांत	-1630
षित	-1631
▁ताकि	-1632
▁नव	-1633
▁ब्रिट	-1634
▁चिकित्	-1635
▁बो	-1636
▁प्रगति	-1637
▁बनाए	-1638
▁राय	-1639
▁पिता	-1640
▁बाजार	-1641
▁बढ़ा	-1642
▁जाय	-1643
▁भुगतान	-1644
्रम	-1645
▁केन्द्र	-1646
▁गल	-1647
▁प्रशिक्षण	-1648
▁धी	-1649
▁अर्था	-1650
स्क	-1651
रि	-1652
▁विप	-1653
नाव	-1654
ुनिक	-1655
रिका	-1656
▁जोड़	-1657
▁खेल	-1658
▁सोच	-1659
▁राजा	-1660
▁दक्षिण	-1661
▁स्थानीय	-1662
▁रहता	-1663
▁जबकि	-1664
त्त्व	-1665
▁दुनिया	-1666
▁जाएगी	-1667
▁मंत्रालय	-1668
▁सत्ता	-1669
मय	-1670
ूं	-1671
▁अला	-1672
▁बीमा	-1673
▁इस्त	-1674
▁बिल	-1675
▁खुल	-1676
▁विरुद्ध	-1677
▁अह	-1678
्रिय	-1679
▁टे	-1680
ंसा	-1681
▁उसमें	-1682
▁कित	-1683
भू	-1684
▁कांग्रेस	-1685
▁वास्तविक	-1686
▁तहत	-1687
गल	-1688
▁होकर	-1689
▁पहचान	-1690
ज्ञानिक	-1691
▁मुसल	-1692
र्फ	-1693
लू	-1694
▁अमेरिका	-1695
ैतिक	-1696
▁लक्ष्य	-1697
ैंड	-1698
▁तुल	-1699
▁संशोधन	-1700
▁निर्दिष्ट	-1701
▁जगह	-1702
▁श्रेणी	-1703
कु	-1704
वरी	-1705
▁व्यापक	-1706
▁देव	-1707
▁इंड	-1708
▁बराबर	-1709
▁उनमें	-1710
ेंस	-1711
तक	-1712
▁मुसलमान	-1713
ियाँ	-1714
▁पत्	-1715
▁पीछे	-1716
▁सेना	-1717
▁सत	-1718
जनिक	-1719
▁प्रभावित	-1720
ंथ	-1721
▁व्यवहार	-1722
▁मनुष	-1723
▁आकार	-1724
▁निदेश	-1725
▁बच्चे	-1726
कम	-1727
▁मिश	-1728
र्ण	-1729
▁बेह	-1730
▁वेबसाइट	-1731
▁पर्याप्त	-1732
▁प्रबंधन	-1733
▁चा	-1734
▁मो	-1735
▁सार्वजनिक	-1736
▁अफ	-1737
नलिखित	-1738
▁आधुनिक	-1739
▁दिनों	-1740
▁क्ल	-1741
र्चा	-1742
ज्	-1743
श्वर	-1744
▁लगे	-1745
▁सन्	-1746
फार	-1747
▁पश्चात्	-1748
▁प्रतिनि	-1749
डर	-1750
▁परिष	-1751
▁चाहिये	-1752
दय	-1753
▁निम्नलिखित	-1754
▁उपकरण	-1755
▁आतंक	-1756
▁पूंजी	-1757
▁जरूरत	-1758
▁पुलिस	-1759
क्रमण	-1760
▁पिछले	-1761
हरी	-1762
िवार	-1763
▁प्राय	-1764
▁मि	-1765
▁याद	-1766
▁प्रवेश	-1767
▁रू	-1768
ौती	-1769
▁भवि	-1770
ड़ों	-1771
बू	-1772
▁केंद्रीय	-1773
वस्था	-1774
▁पहली	-1775
भीर	-1776
▁यथा	-1777
▁स्कूल	-1778
ायत	-1779
वासी	-1780
ीप	-1781
▁रोज	-1782
▁सत्य	-1783
▁निकाल	-1784
▁गैर	-1785
▁गां	-1786
on	-1787
▁भविष्य	-1788
▁लंब	-1789
▁निर्या	-1790
ंडल	-1791
▁कहीं	-1792
ुप	-1793
▁शर्	-1794
▁गुर	-1795
▁सक्रिय	-1796
▁शब्दों	-1797
▁छा	-1798
▁सम्मान	-1799
स्ल	-1800
फारिश	-1801
त्साह	-1802
ामीण	-1803
▁अलावा	-1804
वधान	-1805
धे	-1806
▁निश्चित	-1807
▁खरी	-1808
▁पद्ध	-1809
▁वार	-1810
िको	-1811
▁मित्र	-1812
▁तथ	-1813
्यूटर	-1814
▁प्रकट	-1815
▁ग्रामीण	-1816
▁शाय	-1817
▁आयु	-1818
▁ऊर्जा	-1819
▁निकल	-1820
▁चाहे	-1821
▁अनुमति	-1822
▁सिफारिश	-1823
▁औद्योगिक	-1824
▁लौ	-1825
द्रा	-1826
र्ग	-1827
▁]	-1828
▁दिख	-1829
▁सर्वो	-1830
▁उपाय	-1831
च्छा	-1832
▁कट	-1833
स्कार	-1834
ंबर	-1835
▁ढंग	-1836
ानि	-1837
▁नदी	-1838
▁[	-1839
▁लिखा	-1840
▁समर्थन	-1841
मंत्र	-1842
रोध	-1843
▁मर	-1844
▁पांच	-1845
्वी	-1846
▁इस्लाम	-1847
▁पुरुष	-1848
▁विवाद	-1849
▁दल	-1850
▁बोर्ड	-1851
▁सां	-1852
▁अभिय	-1853
स्ति	-1854
म्भ	-1855
▁जिन्हें	-1856
ंकन	-1857
ेमाल	-1858
न्व	-1859
▁संदर्भ	-1860
▁केन्द	-1861
▁दस्ता	-1862
▁लेखा	-1863
▁शायद	-1864
▁देती	-1865
▁इस्तेमाल	-1866
▁राजनीतिक	-1867
डे	-1868
बे	-1869
▁तारी	-1870
▁समाधान	-1871
▁फल	-1872
▁भग	-1873
▁चै	-1874
▁S	-1875
्राम	-1876
वर्ती	-1877
▁उत्स	-1878
▁योग्य	-1879
▁मिले	-1880
▁प्रद	-1881
▁पृथ	-1882
्ला	-1883
ांति	-1884
▁पदार्थ	-1885
▁वैज्ञानिक	-1886
फा	-1887
शु	-1888
ेटा	-1889
▁संके	-1890
▁कार्यालय	-1891
▁पाया	-1892
▁सम्बन्ध	-1893
▁जिनमें	-1894
▁मश	-1895
▁वो	-1896
▁करा	-1897
्वेष	-1898
▁इतना	-1899
▁बर	-1900
▁नेट	-1901
ुआ	-1902
वों	-1903
णिज	-1904
▁फाइल	-1905
कुल	-1906
▁गं	-1907
▁संरचना	-1908
सिक	-1909
▁निर्वा	-1910
▁मुखर्जी	-1911
धिकार	-1912
ंगे	-1913
एम	-1914
▁मही	-1915
▁रज	-1916
▁करोड़	-1917
ेशा	-1918
▁ट्र	-1919
▁संग्रह	-1920
▁दिल	-1921
▁रि	-1922
णिज्य	-1923
▁निर्यात	-1924
▁गी	-1925
न्दी	-1926
ोलन	-1927
▁मेरा	-1928
▁पूछ	-1929
▁कप	-1930
▁यूर	-1931
▁भौ	-1932
▁चिकित्सा	-1933
▁न्यायालयों	-1934
▁दृष्ट	-1935
▁सामग्री	-1936
▁न्यायिक	-1937
सन	-1938
▁जैसी	-1939
▁प्रोत्साह	-1940
▁उठा	-1941
▁हमारा	-1942
▁चाहता	-1943
▁सक्षम	-1944
▁बंगाल	-1945
▁तारीख	-1946
दित	-1947
▁पूरे	-1948
▁मुक्त	-1949
▁मनुष्य	-1950
▁सहायक	-1951
▁बज	-1952
▁बढ	-1953
▁उद्यम	-1954
▁विभा	-1955
▁अधिव	-1956
▁संरक्षण	-1957
▁निजी	-1958
▁नया	-1959
▁वापस	-1960
म्बर	-1961
▁यद्य	-1962
▁सृ	-1963
▁संय	-1964
▁बनाम	-1965
▁रक्षा	-1966
▁दस्तावे	-1967
▁दश	-1968
▁प्रकाशित	-1969
मू	-1970
▁अभिव	-1971
बाद	-1972
▁वाणिज्य	-1973
▁खो	-1974
▁पुरस्कार	-1975
▁मॉ	-1976
▁साधारण	-1977
▁यद्यपि	-1978
▁रक्त	-1979
▁तत्व	-1980
▁बने	-1981
▁सलाह	-1982
ंतर	-1983
चर	-1984
▁सफलता	-1985
सि	-1986
यल	-1987
▁दें	-1988
▁इनमें	-1989
ग्	-1990
सम	-1991
क्षर	-1992
वाही	-1993
थमिक	-1994
▁बुद्ध	-1995
पात	-1996
▁मास	-1997
▁समक्ष	-1998
▁कम्प	-1999
▁रखना	-2000
▁अवस्था	-2001
▁शीर्ष	-2002
ृह	-2003
▁उत	-2004
▁जे	-2005
▁हमेशा	-2006
▁पालन	-2007
खी	-2008
▁लि	-2009
▁दशा	-2010
▁चर्चा	-2011
▁एल	-2012
▁प्राथमिक	-2013
▁जाति	-2014
▁सिर्फ	-2015
▁स्म	-2016
▁युवा	-2017
▁अधिकां	-2018
▁डॉ	-2019
▁ऑफ	-2020
▁रकम	-2021
कीय	-2022
▁शक्त	-2023
▁समझौ	-2024
▁रखते	-2025
▁शांति	-2026
ar	-2027
▁फी	-2028
िल्म	-2029
▁आत्मा	-2030
▁मंत्री	-2031
▁सेवाओं	-2032
▁सकेगा	-2033
चीन	-2034
तया	-2035
घु	-2036
▁मुद्रा	-2037
▁देखने	-2038
▁वन	-2039
शिया	-2040
▁ईश्वर	-2041
▁विल	-2042
▁लागत	-2043
्प	-2044
ड़क	-2045
▁केन्द्रीय	-2046
▁समुदाय	-2047
▁रिक	-2048
▁लाल	-2049
▁शेय	-2050
र्ट	-2051
राष्ट्रीय	-2052
▁सुझ	-2053
at	-2054
ठित	-2055
इस	-2056
▁उपन	-2057
▁री	-2058
▁संपत्ति	-2059
▁चुका	-2060
▁सेट	-2061
▁रेल	-2062
▁बताया	-2063
▁धीरे	-2064
सू	-2065
▁जम	-2066
▁तीस	-2067
▁चाल	-2068
ोक्ता	-2069
ैल	-2070
▁अद	-2071
▁गंभीर	-2072
▁जिसकी	-2073
▁योगदान	-2074
▁दू	-2075
▁अधिकांश	-2076
▁पर्य	-2077
पूर्वक	-2078
▁शहर	-2079
▁किन्तु	-2080
▁छोटी	-2081
मक	-2082
▁कदम	-2083
िकोण	-2084
▁जिला	-2085
en	-2086
▁बेहतर	-2087
▁पंच	-2088
▁कानू	-2089
▁संभावना	-2090
फ्ट	-2091
▁क्रम	-2092
▁परीक्षा	-2093
त्री	-2094
ाये	-2095
ल्ल	-2096
▁मुद्	-2097
▁सम्मिल	-2098
▁दिखाई	-2099
ार्मिक	-2100
▁तत्	-2101
▁दूसरा	-2102
▁पद्धति	-2103
▁दोष	-2104
▁निर्भर	-2105
▁धार्मिक	-2106
▁थो	-2107
ंटर	-2108
▁चयन	-2109
वर्क	-2110
▁धार	-2111
▁पो	-2112
▁वहाँ	-2113
▁भे	-2114
▁आंद	-2115
▁कोशिश	-2116
▁तुलना	-2117
▁क़	-2118
▁वही	-2119
्टर	-2120
फ्त	-2121
▁ऊंच	-2122
कान	-2123
▁सीमित	-2124
▁बोल	-2125
▁पर्यावरण	-2126
in	-2127
ुन	-2128
▁प्रशासन	-2129
मंत्री	-2130
▁यूरोप	-2131
क्टर	-2132
न्दर	-2133
▁प्रणब	-2134
ंद्र	-2135
ल्पना	-2136
▁तरीके	-2137
▁हृ	-2138
भूति	-2139
हीन	-2140
▁कविता	-2141
क्षेप	-2142
▁प्रभावी	-2143
टल	-2144
ृति	-2145
संद	-2146
▁महारा	-2147
▁ब्रिटिश	-2148
▁संकल्प	-2149
▁खर्च	-2150
▁संपर्क	-2151
▁हिन्दी	-2152
▁शिकायत	-2153
▁सारे	-2154
▁मशीन	-2155
लाई	-2156
▁चर	-2157
द्द	-2158
ंगी	-2159
▁व्यवसाय	-2160
▁ति	-2161
कद	-2162
▁अनिवार	-2163
▁रहती	-2164
वर्ष	-2165
ोषणा	-2166
▁निधि	-2167
▁इका	-2168
▁अंग्रेजी	-2169
▁ढा	-2170
▁उपचार	-2171
▁डेटा	-2172
▁जित	-2173
वत्ता	-2174
▁उनसे	-2175
▁संगी	-2176
▁कंप्यूटर	-2177
तु	-2178
▁ख़	-2179
▁वायु	-2180
▁प्रवृ	-2181
▁आता	-2182
▁मजब	-2183
▁प्राकृतिक	-2184
▁सूर	-2185
▁संस्कृति	-2186
▁निम्न	-2187
▁विद्यार्थ	-2188
an	-2189
▁कार्र	-2190
्यो	-2191
नेट	-2192
वेद	-2193
▁C	-2194
▁पक	-2195
▁तेल	-2196
▁कथ	-2197
ारोह	-2198
▁ग्रह	-2199
▁गुणवत्ता	-2200
▁विधेय	-2201
▁विशाल	-2202
क्ष्म	-2203
▁सम्मिलित	-2204
▁जहाँ	-2205
▁सकें	-2206
▁आशा	-2207
▁स्रो	-2208
▁लघु	-2209
▁देखते	-2210
▁युग	-2211
▁असम	-2212
र्ज	-2213
र्ड	-2214
भाल	-2215
▁अंक	-2216
▁मोट	-2217
▁अस्त	-2218
▁मिट	-2219
▁परिस्थित	-2220
▁दस	-2221
घा	-2222
ायी	-2223
▁अधिकारियों	-2224
ेलन	-2225
▁अनिवार्य	-2226
ियर	-2227
ापन	-2228
▁खाद्य	-2229
▁आए	-2230
स्वरूप	-2231
▁संह	-2232
ताल	-2233
▁आपकी	-2234
▁त्रुट	-2235
▁विचारों	-2236
▁हे	-2237
▁खुलती	-2238
ंगत	-2239
▁रजिस्ट	-2240
▁ब्या	-2241
न्स	-2242
▁उपभ	-2243
▁हिस्सा	-2244
▁संस्कृत	-2245
चक	-2246
धनों	-2247
▁पड़ा	-2248
▁अध्याय	-2249
पे	-2250
▁व्यक्तिगत	-2251
▁d	-2252
राज्य	-2253
▁नगर	-2254
चि	-2255
▁मिलता	-2256
वेयर	-2257
▁खिला	-2258
▁विंडों	-2259
▁समारोह	-2260
रीय	-2261
त्तर	-2262
स्लिम	-2263
▁करनी	-2264
▁भोजन	-2265
▁नेटवर्क	-2266
▁सिव	-2267
▁आकर्	-2268
▁अत्यंत	-2269
ैन	-2270
▁हैः	-2271
▁शता	-2272
▁समझा	-2273
▁बधा	-2274
▁इला	-2275
▁दिवस	-2276
▁प्रयोजन	-2277
कारों	-2278
▁संहिता	-2279
▁लेना	-2280
▁I	-2281
▁अतः	-2282
▁पाल	-2283
▁मुस्लिम	-2284
▁निकट	-2285
▁दायित्व	-2286
िकी	-2287
▁महत्त्व	-2288
▁निर्धारिती	-2289
पु	-2290
▁डे	-2291
वै	-2292
▁उपयुक्त	-2293
▁विकल्प	-2294
तित	-2295
चारी	-2296
▁बधाई	-2297
▁संघर्ष	-2298
▁भागी	-2299
▁जिनके	-2300
▁शास्त	-2301
▁बचा	-2302
म्मे	-2303
ार्क	-2304
▁नेता	-2305
▁शाखा	-2306
खंड	-2307
▁इजरा	-2308
▁अनुसू	-2309
▁भंड	-2310
▁दृष्टिकोण	-2311
▁आंदोलन	-2312
▁प्राचीन	-2313
दृ	-2314
▁उपबंधों	-2315
▁प्ल	-2316
ूँ	-2317
▁एज	-2318
▁भारी	-2319
▁खोल	-2320
▁विद्व	-2321
▁c	-2322
▁नर	-2323
▁संगीत	-2324
▁नियमों	-2325
डिया	-2326
▁खास	-2327
▁जल्	-2328
▁बौ	-2329
▁सिविल	-2330
▁अभिव्य	-2331
▁घट	-2332
▁गरी	-2333
ान्व	-2334
▁शुल्क	-2335
ंति	-2336
क्षी	-2337
▁खरीद	-2338
टों	-2339
▁पंजी	-2340
▁पर्व	-2341
किंग	-2342
▁निगम	-2343
▁आदर्श	-2344
▁पहल	-2345
ोग्राम	-2346
▁संस्थानों	-2347
घ्र	-2348
▁नये	-2349
▁आरोप	-2350
▁फ़ाइल	-2351
▁लॉ	-2352
▁पंजा	-2353
▁वर्णन	-2354
▁तथापि	-2355
वाब	-2356
▁आयोजित	-2357
▁पाने	-2358
▁ईसा	-2359
▁_	-2360
▁आते	-2361
▁पेट	-2362
▁अर्थव्य	-2363
▁घोषणा	-2364
▁अस्प	-2365
▁हिन्दू	-2366
▁विनिर्दिष्ट	-2367
कालीन	-2368
▁विविध	-2369
त्न	-2370
▁कार्यवाही	-2371
▁–	-2372
▁जोर	-2373
बत	-2374
▁जानी	-2375
▁नोट	-2376
▁चीज	-2377
▁ii	-2378
▁अर्थात्	-2379
▁संसाधन	-2380
ोम	-2381
▁हस्ता	-2382
▁पराम	-2383
ब्दी	-2384
▁सुझाव	-2385
इयों	-2386
▁पड़े	-2387
▁जानते	-2388
्वेषण	-2389
▁कार्यों	-2390
▁खाते	-2391
▁क्षति	-2392
▁जिसने	-2393
▁कार्रवाई	-2394
▁परिस	-2395
ोजनों	-2396
▁विधेयक	-2397
▁ध्व	-2398
ड्ड	-2399
▁जरूरी	-2400
▁सुरक्षित	-2401
मीर	-2402
ंपरा	-2403
प्ता	-2404
▁व्यय	-2405
▁अंदर	-2406
▁स्वरूप	-2407
▁खुद	-2408
▁प्रशास	-2409
▁अंतरराष्ट्रीय	-2410
▁लेते	-2411
▁अच्छे	-2412
▁प्रसन्न	-2413
िरा	-2414
▁बनाना	-2415
▁अंश	-2416
▁हटा	-2417
▁कठिन	-2418
▁चुनाव	-2419
▁पारित	-2420
इल	-2421
▁ग्राह	-2422
भाषा	-2423
▁निपट	-2424
▁व्याव	-2425
▁प्रदर्शन	-2426
गु	-2427
जनक	-2428
शाली	-2429
▁गतिविध	-2430
त्रों	-2431
or	-2432
ंबई	-2433
▁अक	-2434
▁संकेत	-2435
▁तम	-2436
▁कहना	-2437
▁पड़ता	-2438
▁शास	-2439
▁अना	-2440
▁इच्छा	-2441
▁ब्याज	-2442
न्ट	-2443
▁सदन	-2444
▁मात्र	-2445
ोषित	-2446
ंदा	-2447
▁परंपरा	-2448
▁प्राण	-2449
▁खत	-2450
क्षक	-2451
▁कोशिका	-2452
▁परामर्श	-2453
▁समृ	-2454
कला	-2455
▁आदमी	-2456
▁भगवान	-2457
धीन	-2458
▁आग	-2459
▁त्व	-2460
्रिया	-2461
पालिका	-2462
रो	-2463
▁राजन	-2464
▁अधिकारों	-2465
▁परिप	-2466
वाय	-2467
▁अधि	-2468
▁नियुक्त	-2469
▁अर्थव्यवस्था	-2470
▁कृप	-2471
▁P	-2472
es	-2473
▁इन्ह	-2474
▁मिली	-2475
▁बर्	-2476
▁एशिया	-2477
▁आतंकवाद	-2478
▁होनी	-2479
▁तकनीकी	-2480
▁विनियम	-2481
▁गर्इ	-2482
एल	-2483
▁अभिप	-2484
▁ग्राम	-2485
▁उपस्थित	-2486
▁सिर	-2487
▁माता	-2488
पादन	-2489
▁हृदय	-2490
▁टै	-2491
▁गलत	-2492
▁छोटा	-2493
▁तर्क	-2494
▁सम्प	-2495
▁तट	-2496
▁सम्मेलन	-2497
▁संपूर्ण	-2498
३०	-2499
▁कौन	-2500
न्हीं	-2501
▁लगाया	-2502
▁उल्ल	-2503
िक्	-2504
▁प्रत्यक्ष	-2505
व्र	-2506
▁नाटक	-2507
ख़	-2508
▁इंग	-2509
▁जिम्मे	-2510
स्पर	-2511
▁कहानी	-2512
काम	-2513
▁शुभ	-2514
▁मौजूद	-2515
एफ	-2516
▁प्रसि	-2517
▁पहला	-2518
▁वाणिज्यिक	-2519
▁लगी	-2520
▁पश्चिमी	-2521
▁एच	-2522
▁सश	-2523
▁शेष	-2524
टे	-2525
म्र	-2526
▁तेजी	-2527
▁अप्रैल	-2528
▁बाव	-2529
▁मार्च	-2530
िनी	-2531
▁त्रुटि	-2532
▁स्थायी	-2533
मेंट	-2534
ून्य	-2535
▁भाई	-2536
▁वाता	-2537
▁कर्मचार	-2538
▁तरफ	-2539
▁फिल	-2540
▁परीक्षण	-2541
▁विद्यमान	-2542
मारी	-2543
▁महिलाओं	-2544
िन्	-2545
भाष	-2546
ल्ड	-2547
▁दर्शन	-2548
ग्न	-2549
▁सका	-2550
▁खाता	-2551
▁महस	-2552
▁वार्ष	-2553
ठी	-2554
▁प्रयोजनों	-2555
तें	-2556
लाव	-2557
▁पार्टी	-2558
▁शीघ्र	-2559
्राष्ट्रीय	-2560
▁बनी	-2561
▁कार्यान्व	-2562
स्य	-2563
▁अश	-2564
▁मोह	-2565
▁अरब	-2566
▁रहना	-2567
ुसार	-2568
▁हास	-2569
▁f	-2570
ल्स	-2571
▁प्रवर्	-2572
▁सरल	-2573
▁सात	-2574
▁पाकि	-2575
▁मल	-2576
▁p	-2577
▁चुके	-2578
▁अवि	-2579
▁दौ	-2580
▁परिच	-2581
▁परिषद	-2582
▁क्रा	-2583
▁हस्त	-2584
▁अनुज्ञ	-2585
▁वाद	-2586
▁कृपया	-2587
▁मानसिक	-2588
▁मूल्या	-2589
▁सित	-2590
▁गर्	-2591
ितीय	-2592
▁विज	-2593
▁आपका	-2594
▁t	-2595
▁पुनर्	-2596
▁शताब्दी	-2597
▁आंक	-2598
▁समु	-2599
▁हट	-2600
▁मजबूत	-2601
▁गुना	-2602
▁महसूस	-2603
जली	-2604
▁उन्न	-2605
▁अनुक	-2606
▁समाचार	-2607
▁विस्तृत	-2608
▁वातावरण	-2609
ठा	-2610
सभा	-2611
▁लाने	-2612
ष्क	-2613
▁तय	-2614
िक्री	-2615
▁द्वार	-2616
▁अन्तर्	-2617
▁कर्मचारियों	-2618
▁दबा	-2619
▁अंड	-2620
▁इंटर	-2621
▁इजरायल	-2622
▁बैठक	-2623
▁समुद्र	-2624
्ति	-2625
▁सांस्	-2626
▁वस्तुओं	-2627
ज्य	-2628
▁बंध	-2629
▁अभिक	-2630
▁प्रतिनिध	-2631
▁T	-2632
▁अनुप्र	-2633
ायक	-2634
▁संदे	-2635
▁एफ	-2636
▁रखे	-2637
▁गांव	-2638
▁दि	-2639
▁अत्यधिक	-2640
▁जिन्होंने	-2641
इड	-2642
▁अल्प	-2643
▁प्राप्ति	-2644
▁ढांच	-2645
▁वेतन	-2646
▁बौद्ध	-2647
▁चरण	-2648
▁परिस्थितियों	-2649
▁ग्रहण	-2650
▁काव्य	-2651
▁निर्मित	-2652
▁कल्पना	-2653
रिया	-2654
▁पहा	-2655
▁नियमित	-2656
▁प्रतिष्ठ	-2657
▁जवाब	-2658
▁घंट	-2659
▁दिये	-2660
▁भौतिक	-2661
▁शून्य	-2662
▁कथा	-2663
▁अगले	-2664
स्म	-2665
▁पट	-2666
▁मिलने	-2667
▁सूक्ष्म	-2668
कृष्ट	-2669
▁तथ्य	-2670
▁संचार	-2671
▁विश्ले	-2672
▁कानूनी	-2673
▁प्रधानमंत्री	-2674
▁इत्या	-2675
▁उपन्यास	-2676
ृत्व	-2677
बि	-2678
ष्ट्र	-2679
▁असफल	-2680
▁किन	-2681
लब	-2682
▁सिस्ट	-2683
▁रोजगार	-2684
स्ती	-2685
▁अनुमान	-2686
▁भ्र	-2687
▁कर्त	-2688
▁समस्याओं	-2689
▁वर	-2690
ार्म	-2691
▁सामना	-2692
▁स्रोत	-2693
▁जंग	-2694
▁इतनी	-2695
▁भाषण	-2696
ंघ	-2697
▁रात	-2698
ंव	-2699
▁कल्या	-2700
al	-2701
▁विमान	-2702
▁B	-2703
▁आती	-2704
▁हल	-2705
म्मी	-2706
▁महाम	-2707
▁इंज	-2708
▁शुद्ध	-2709
िटी	-2710
▁सच्च	-2711
▁पत्नी	-2712
▁w	-2713
िर्	-2714
▁द्र	-2715
▁आयुक्त	-2716
▁कराने	-2717
▁आवा	-2718
▁सांस्कृतिक	-2719
्वा	-2720
▁बढ़ाने	-2721
्रेड	-2722
▁नवान	-2723
▁आंत	-2724
▁निर्वाचन	-2725
▁खे	-2726
▁क्षेत्रीय	-2727
ोरी	-2728
ांकि	-2729
टिल	-2730
▁मान्यता	-2731
ूक	-2732
▁हालांकि	-2733
▁वाह	-2734
it	-2735
▁सॉ	-2736
▁दावा	-2737
▁अनुवाद	-2738
▁शेयर	-2739
▁प्रयासों	-2740
▁निरंतर	-2741
्याग	-2742
▁ब्रह	-2743
▁साम्रा	-2744
00	-2745
नाएं	-2746
▁तुर	-2747
तृत्व	-2748
ंका	-2749
▁मंज	-2750
हरे	-2751
▁अधिकरण	-2752
दिक	-2753
शाला	-2754
▁मामला	-2755
रान	-2756
▁सीख	-2757
▁कीमत	-2758
▁लेखक	-2759
▁उल	-2760
▁याच	-2761
▁प्राधिकरण	-2762
▁मध	-2763
▁रेखा	-2764
▁आये	-2765
▁बावजूद	-2766
▁नामक	-2767
शय	-2768
लिक	-2769
▁युक्त	-2770
▁सफ	-2771
▁विवे	-2772
सों	-2773
णु	-2774
थि	-2775
▁मुसलमानों	-2776
धर	-2777
▁अदाल	-2778
▁हिंदू	-2779
▁टिप	-2780
▁वैश्व	-2781
▁आँ	-2782
▁गणराज्य	-2783
्वर	-2784
▁दृश्य	-2785
मल	-2786
▁इनके	-2787
▁अधिवक्ता	-2788
▁पेज	-2789
पक	-2790
▁लक्षण	-2791
ालित	-2792
▁सुना	-2793
▁अभिया	-2794
▁इंडिया	-2795
▁सर्वा	-2796
वाले	-2797
गो	-2798
▁पाकिस्तान	-2799
वक	-2800
▁प्रायः	-2801
▁निकाय	-2802
▁वार्षिक	-2803
▁शि	-2804
▁प्रसिद्ध	-2805
▁लो	-2806
▁सुंदर	-2807
किल	-2808
▁महीने	-2809
▁कर्मचारी	-2810
▁टन	-2811
▁हिंदी	-2812
▁कल्याण	-2813
▁कार्	-2814
▁प्रतिक्रिया	-2815
ज़ी	-2816
▁अधिकतम	-2817
▁अधिकारिता	-2818
▁प्रजा	-2819
▁अनुकूल	-2820
प्रिय	-2821
▁संस्थाओं	-2822
▁रुपये	-2823
यान	-2824
▁सारी	-2825
▁करार	-2826
▁e	-2827
डल	-2828
▁पसंद	-2829
▁गठन	-2830
▁सचिव	-2831
▁इत्यादि	-2832
▁सीधे	-2833
▁प्रभार	-2834
▁शैली	-2835
▁बिजली	-2836
▁माह	-2837
▁गहरा	-2838
▁जिनका	-2839
▁स्वामी	-2840
र्घ	-2841
▁उत्तरदाय	-2842
ज़ा	-2843
वेक्षण	-2844
▁तुम्हें	-2845
▁अफ्री	-2846
▁गृह	-2847
▁हानि	-2848
▁प्रोग्राम	-2849
लि	-2850
▁अभिन	-2851
्रण	-2852
ेतना	-2853
▁विद्युत	-2854
वें	-2855
▁पाए	-2856
ंबा	-2857
दूर	-2858
ियत	-2859
▁साफ	-2860
▁लगाने	-2861
▁लौट	-2862
re	-2863
लाइन	-2864
▁मूल्यांकन	-2865
म्म	-2866
▁मिलती	-2867
ंता	-2868
▁अंतरण	-2869
▁उम्मी	-2870
सत	-2871
▁समर्	-2872
▁मेल	-2873
▁समी	-2874
▁प्रावधान	-2875
▁जल्दी	-2876
▁आक्रमण	-2877
▁सिस्टम	-2878
संगत	-2879
▁शुभकाम	-2880
▁तभी	-2881
▁परम	-2882
क्ट्र	-2883
▁प्रचार	-2884
▁किरा	-2885
विक	-2886
प्ताह	-2887
▁याचिका	-2888
राब	-2889
उट	-2890
▁आपने	-2891
▁पुराने	-2892
▁डाक	-2893
▁E	-2894
▁अमरी	-2895
त्मिक	-2896
▁पत्त	-2897
▁आनंद	-2898
▁उक्त	-2899
▁प्रवि	-2900
सान	-2901
श्मीर	-2902
▁कारबार	-2903
▁अस्तित्व	-2904
▁करी	-2905
▁सवाल	-2906
▁मुकद	-2907
▁स्थल	-2908
▁समस्त	-2909
▁नक	-2910
▁संब	-2911
▁रुपए	-2912
कर्ष	-2913
दीय	-2914
▁सभ	-2915
▁श्व	-2916
रीक्षण	-2917
▁प्रयुक्त	-2918
▁देखभाल	-2919
ंटी	-2920
▁समन्व	-2921
▁विषयों	-2922
ुक्ति	-2923
▁लोकतंत्र	-2924
▁फूल	-2925
न्ध	-2926
▁न्यायाधीशों	-2927
▁वज	-2928
▁जनवरी	-2929
▁पाठ्य	-2930
ारात्मक	-2931
भूम	-2932
्रय	-2933
▁घरे	-2934
▁जनसं	-2935
क्षेत्र	-2936
▁आध्या	-2937
▁गुजरा	-2938
▁दै	-2939
▁मू	-2940
▁पथ	-2941
▁साधन	-2942
▁मानते	-2943
▁अनुमो	-2944
▁बुद्धि	-2945
▁साझ	-2946
▁स्थानों	-2947
▁आयात	-2948
▁कुंजी	-2949
नु	-2950
▁मनो	-2951
▁पात्र	-2952
▁भागों	-2953
▁राजनैतिक	-2954
दर	-2955
▁इन्हें	-2956
▁चले	-2957
ोने	-2958
्याय	-2959
मात्र	-2960
▁जायेगा	-2961
▁महत्त्वपूर्ण	-2962
▁आजा	-2963
▁बढ़ावा	-2964
▁शिश	-2965
▁शारी	-2966
▁न्यून	-2967
▁फिल्म	-2968
रेट	-2969
▁पंजाब	-2970
▁तीव्र	-2971
▁कलक	-2972
▁नजर	-2973
▁कटौती	-2974
▁उम्मीद	-2975
▁प्रेरित	-2976
▁साक्ष्य	-2977
▁रखी	-2978
▁संगण	-2979
▁टिप्प	-2980
▁g	-2981
▁नेतृत्व	-2982
▁गतिविधियों	-2983
▁घा	-2984
▁शिव	-2985
▁वितरण	-2986
लेज	-2987
▁बातों	-2988
रक	-2989
▁o	-2990
▁बिक्री	-2991
र्न	-2992
▁उड़	-2993
▁विशेषज्ञ	-2994
▁एका	-2995
▁जोख	-2996
▁रोगी	-2997
▁प्राधिकारी	-2998
▁विद्यार्थियों	-2999
सीय	-3000
▁चेतना	-3001
▁अमेरिक	-3002
▁जून	-3003
▁फसल	-3004
ृंख	-3005
▁उपा	-3006
▁संगठ	-3007
▁कठिना	-3008
▁घरेलू	-3009
▁मौसम	-3010
▁बैंकों	-3011
लीय	-3012
▁चलता	-3013
▁पुत्र	-3014
▁ग्रंथ	-3015
▁नेहर	-3016
▁शुभकामनाएं	-3017
▁अख	-3018
▁कंपन	-3019
न्य	-3020
▁प्रदर्शित	-3021
मूर्ति	-3022
तिहासिक	-3023
ैक	-3024
▁R	-3025
▁श्रेणीः	-3026
ड़ित	-3027
िकल	-3028
▁बनाई	-3029
▁नैतिक	-3030
▁स्वागत	-3031
▁हजार	-3032
ड़ाई	-3033
▁अनुप्रयोग	-3034
▁G	-3035
▁इं	-3036
▁कुशल	-3037
▁स्पष्टीकरण	-3038
▁खुशी	-3039
▁लिखित	-3040
▁जोखिम	-3041
वासियों	-3042
ॉँ	-3043
▁टाइ	-3044
▁शारीरिक	-3045
▁कार्यक्रमों	-3046
▁उनको	-3047
▁बुनिया	-3048
▁आध्यात्मिक	-3049
▁फाय	-3050
गण	-3051
▁पहुँच	-3052
ानु	-3053
▁देखें	-3054
▁घोषित	-3055
ic	-3056
▁तरीका	-3057
▁मंड	-3058
भूमि	-3059
▁प्रसन्नता	-3060
▁अपेक्षित	-3061
▁हवा	-3062
▁शक्तियों	-3063
▁दीर्घ	-3064
▁मंच	-3065
▁नष्ट	-3066
धानिक	-3067
▁बाबत	-3068
▁प्रतीत	-3069
▁प्रदू	-3070
▁मगर	-3071
▁गर्म	-3072
पों	-3073
मति	-3074
▁मां	-3075
▁मानक	-3076
▁सैनिक	-3077
▁प्रोत्साहन	-3078
▁दिस	-3079
▁प्रच	-3080
धारित	-3081
▁मिलकर	-3082
▁अंतर्राष्ट्रीय	-3083
ह्न	-3084
▁संवर्	-3085
▁सर्वोच्च	-3086
▁v	-3087
ेंशन	-3088
▁इकाई	-3089
▁जटिल	-3090
▁माँ	-3091
▁अधिस	-3092
▁अनुप	-3093
▁लेता	-3094
▁उत्कृष्ट	-3095
्यार	-3096
▁तेज	-3097
▁छह	-3098
▁मिशन	-3099
▁त्याग	-3100
▁चारों	-3101
▁प्रसार	-3102
रत	-3103
िड	-3104
▁अवश्य	-3105
▁कृत	-3106
▁चीन	-3107
नो	-3108
▁b	-3109
हिम	-3110
ृंखला	-3111
राधिक	-3112
▁चुकी	-3113
▁अस्थ	-3114
▁m	-3115
▁सेवाएं	-3116
चरण	-3117
▁इले	-3118
▁निहित	-3119
कत	-3120
▁स्त्री	-3121
▁स्मृति	-3122
ंख्य	-3123
▁वीडियो	-3124
िप्त	-3125
▁फीस	-3126
▁मुंबई	-3127
▁जहा	-3128
▁प्ले	-3129
▁विधिक	-3130
▁विरोधी	-3131
करी	-3132
▁मतलब	-3133
्रेट	-3134
▁पशु	-3135
चलित	-3136
▁लें	-3137
▁अभिव्यक्ति	-3138
रणा	-3139
▁करेगी	-3140
▁प्रोट	-3141
▁वालों	-3142
फ्टवेयर	-3143
वत	-3144
ढ़ी	-3145
▁साब	-3146
▁वजह	-3147
▁चीज़	-3148
▁अक्	-3149
▁ऐतिहासिक	-3150
▁प्रमाणपत्र	-3151
▁अभिले	-3152
▁आफ	-3153
▁ज़र	-3154
▁कठोर	-3155
▁संसाधनों	-3156
ताब	-3157
▁कूट	-3158
▁जनसंख्या	-3159
मर	-3160
▁मस्ति	-3161
▁लगातार	-3162
▁संबंधों	-3163
क्शन	-3164
▁गोप	-3165
कालिक	-3166
▁परिणामस्वरूप	-3167
▁हिम	-3168
▁औष	-3169
ियोग	-3170
▁आंतरिक	-3171
▁अगस्त	-3172
क्षिक	-3173
▁छूट	-3174
कर्ताओं	-3175
पाद	-3176
▁रखता	-3177
▁फर	-3178
शास्त	-3179
▁उपयोगी	-3180
▁हथ	-3181
▁इंजीन	-3182
▁पश्चात	-3183
पान	-3184
ामा	-3185
▁प्रका	-3186
▁विश्लेषण	-3187
▁प्रशासनिक	-3188
्रीन	-3189
▁पति	-3190
▁बातें	-3191
ूंगा	-3192
▁गंगा	-3193
▁मना	-3194
▁सरकारों	-3195
ेंद	-3196
▁वैश्विक	-3197
▁भूल	-3198
▁विफल	-3199
▁कृष्ण	-3200
▁न्यूनतम	-3201
▁द्वीप	-3202
▁नागरिकों	-3203
▁आठ	-3204
▁चक्र	-3205
▁नेहरू	-3206
ूबर	-3207
▁अल्	-3208
▁सुख	-3209
चित्र	-3210
एन	-3211
▁हासिल	-3212
चारिक	-3213
▁जाएं	-3214
▁साम्राज्य	-3215
▁परिश	-3216
▁निदेशक	-3217
ुस्तान	-3218
▁मई	-3219
बन्धी	-3220
▁प्रवाह	-3221
▁संचालन	-3222
▁बीज	-3223
▁स्की	-3224
कलन	-3225
ुम	-3226
दाता	-3227
▁दस्तावेज	-3228
▁अक्ष	-3229
▁संसार	-3230
नाम	-3231
त्तम	-3232
▁शाह	-3233
▁स्वर	-3234
▁स्थिर	-3235
▁बनने	-3236
▁श्रम	-3237
लग्न	-3238
▁सप्ताह	-3239
बन	-3240
जीव	-3241
▁आलो	-3242
▁सत्या	-3243
▁उम्र	-3244
१०	-3245
▁कमज	-3246
▁कलकत्ता	-3247
▁प्रयत्न	-3248
तल	-3249
स्ते	-3250
▁विहित	-3251
▁स्वच्छ	-3252
is	-3253
▁पृथ्वी	-3254
ियल	-3255
▁ब्रा	-3256
▁अन्तर	-3257
▁नियुक्ति	-3258
फे	-3259
▁अदालत	-3260
▁आसान	-3261
णों	-3262
▁अधिसू	-3263
▁निरा	-3264
▁महामहिम	-3265
▁नाट	-3266
▁खिलाफ	-3267
▁प्रकाशन	-3268
▁ऑन	-3269
▁बीमारी	-3270
▁व्याख्या	-3271
▁सहकारी	-3272
▁काट	-3273
▁कोल	-3274
▁लोकप्रिय	-3275
▁खी	-3276
▁अभिलेख	-3277
▁संगठनों	-3278
▁लेन	-3279
▁शुरुआ	-3280
▁छोड़कर	-3281
▁प्रभ	-3282
रीत	-3283
▁कोड	-3284
▁सुभाष	-3285
▁वैसे	-3286
▁आह	-3287
ेह	-3288
▁काय	-3289
▁सड़क	-3290
▁संबद्ध	-3291
▁विशेषकर	-3292
ंकर	-3293
▁प्रतीक	-3294
यें	-3295
▁उद्योगों	-3296
ion	-3297
▁मीडिया	-3298
▁कार्यवाह	-3299
▁M	-3300
वाली	-3301
▁विम	-3302
▁एकता	-3303
▁संविदा	-3304
▁रीति	-3305
▁अके	-3306
▁माप	-3307
▁आरम्भ	-3308
▁एड	-3309
ैव	-3310
▁चलते	-3311
▁सुल	-3312
▁L	-3313
▁अनुरूप	-3314
▁जेल	-3315
▁निष्कर्ष	-3316
▁x	-3317
चीत	-3318
▁सृजन	-3319
▁सर्वाधिक	-3320
le	-3321
▁दवा	-3322
▁जमीन	-3323
▁आख	-3324
▁कौशल	-3325
स्थापित	-3326
▁जुड़े	-3327
▁आपूर्ति	-3328
▁निः	-3329
▁पुरा	-3330
▁विपरीत	-3331
दास	-3332
▁जाँच	-3333
▁पूजा	-3334
▁पूर्वी	-3335
दर्शन	-3336
▁अफ्रीका	-3337
▁वकी	-3338
▁शोध	-3339
▁बू	-3340
▁पीड़ित	-3341
▁बुनियादी	-3342
ज्ञा	-3343
▁बातचीत	-3344
▁प्रतिनिधित्व	-3345
▁h	-3346
▁विचारण	-3347
▁समुचित	-3348
▁ग्रा	-3349
▁सारा	-3350
▁अभियान	-3351
▁N	-3352
▁गिरफ्त	-3353
▁विशेषता	-3354
▁विजय	-3355
न्द्रनाथ	-3356
▁आश्च	-3357
▁परस्पर	-3358
▁दूध	-3359
साधारण	-3360
▁समझौता	-3361
▁किसानों	-3362
▁n	-3363
▁संकट	-3364
▁आंख	-3365
▁ताप	-3366
ॉन	-3367
▁अभिप्रे	-3368
ूद्ध	-3369
्रित	-3370
▁रस	-3371
▁पूर्ववर्ष	-3372
▁न्यायमूर्ति	-3373
▁गैस	-3374
▁छि	-3375
भारत	-3376
ंगिक	-3377
▁एंड	-3378
▁लै	-3379
▁मुह	-3380
▁मस्तिष्क	-3381
षक	-3382
▁अनुरोध	-3383
धित	-3384
ियार	-3385
▁हत्या	-3386
वाला	-3387
वित्र	-3388
▁विभाजन	-3389
▁अंध	-3390
▁इन्	-3391
▁करो	-3392
▁दशक	-3393
▁तमिल	-3394
▁कथन	-3395
▁टेली	-3396
▁प्रस्तावित	-3397
▁स्ना	-3398
▁परिवहन	-3399
▁लिप	-3400
▁मीटर	-3401
▁उत्पादों	-3402
पय	-3403
▁बेच	-3404
्यूट	-3405
▁कीट	-3406
▁बाग	-3407
▁सत्र	-3408
▁कार्ड	-3409
ूब	-3410
सायिक	-3411
▁गुप्त	-3412
▁चढ़	-3413
ोकन	-3414
▁अपर	-3415
▁जाएंगे	-3416
िकेट	-3417
▁ताल	-3418
िसी	-3419
▁इलेक्ट्र	-3420
ोथ	-3421
ँचा	-3422
▁निवार	-3423
▁कर्तव्य	-3424
▁भेजा	-3425
▁मूल्यों	-3426
om	-3427
उस	-3428
▁धर	-3429
▁दृढ़	-3430
▁आश्चर्य	-3431
▁हस्ताक्षर	-3432
▁एकल	-3433
▁नुक	-3434
▁इतने	-3435
▁एकत्र	-3436
▁देवी	-3437
▁अक्सर	-3438
▁पकड़	-3439
▁आनन्द	-3440
ुता	-3441
▁नयी	-3442
वट	-3443
▁दूरी	-3444
▁अन्दर	-3445
▁हिंसा	-3446
▁काग	-3447
▁पत्थ	-3448
दारों	-3449
▁राज्यपाल	-3450
न्ना	-3451
▁टा	-3452
▁कुमार	-3453
▁चुनौती	-3454
▁अमेरिकी	-3455
▁शे	-3456
▁टीम	-3457
▁प्रतिभा	-3458
▁गीत	-3459
मंडल	-3460
▁दर्शा	-3461
▁सर्वेक्षण	-3462
▁औसत	-3463
▁संसदीय	-3464
▁मस	-3465
ंकित	-3466
▁D	-3467
▁आइ	-3468
दियों	-3469
▁यंत्र	-3470
▁कक्ष	-3471
▁करीब	-3472
खे	-3473
▁धारण	-3474
▁महाराष्ट्र	-3475
▁फॉ	-3476
▁आउट	-3477
▁लिम	-3478
▁कश्मीर	-3479
▁भागीदारी	-3480
मती	-3481
▁राजनीति	-3482
▁चम	-3483
▁बॉ	-3484
▁तार	-3485
▁भेद	-3486
▁साबित	-3487
▁लिखी	-3488
म्स	-3489
▁अभियुक्त	-3490
ॉप	-3491
जूदा	-3492
▁परेश	-3493
▁डिस्क	-3494
▁गरीब	-3495
▁डर	-3496
▁फैल	-3497
स्त्र	-3498
▁अभिप्रेत	-3499
▁शह	-3500
▁देगा	-3501
▁वहीं	-3502
▁परमाण	-3503
▁सावधान	-3504
▁उपभोक्ता	-3505
▁मृत्युद	-3506
घात	-3507
▁अर्थात	-3508
▁शिख	-3509
▁नवान्वेषण	-3510
▁अभाव	-3511
▁सशक्त	-3512
▁प्रारंभिक	-3513
पास	-3514
भाषित	-3515
▁जिले	-3516
▁बजाय	-3517
▁समित	-3518
▁कारणों	-3519
▁परिवर्तित	-3520
▁नमू	-3521
▁मौजूदा	-3522
▁संस्करण	-3523
नर	-3524
▁मछ	-3525
▁चिंता	-3526
▁रजिस्ट्री	-3527
▁बदलाव	-3528
ित्त	-3529
▁नियत	-3530
▁माइ	-3531
पादित	-3532
▁गठित	-3533
▁बिल्	-3534
निष्ठ	-3535
▁अन्यथा	-3536
ैर	-3537
▁कति	-3538
ज़र	-3539
निर्	-3540
▁चिह्न	-3541
मार्	-3542
▁आमत	-3543
्रांस	-3544
▁जर्म	-3545
गोल	-3546
▁वर्षा	-3547
▁प्रेरणा	-3548
▁समीक्षा	-3549
▁अहम	-3550
▁भाषाओं	-3551
्लो	-3552
द्या	-3553
▁निभा	-3554
▁मांस	-3555
▁लंबा	-3556
▁हिस्से	-3557
पण	-3558
▁सर्वर	-3559
▁पहुंचा	-3560
▁सुविधाओं	-3561
ंत्रिक	-3562
▁अनुपात	-3563
▁समाप्ति	-3564
▁सम्बन्धी	-3565
सीसी	-3566
▁मिन	-3567
▁सिक्	-3568
▁लिखने	-3569
▁वरि	-3570
▁संतुल	-3571
▁समग्र	-3572
▁आचरण	-3573
वंश	-3574
▁अत	-3575
बाइल	-3576
▁लक्ष	-3577
▁मैदान	-3578
ोजी	-3579
ूंकि	-3580
▁लिमिट	-3581
साद	-3582
▁अकबर	-3583
▁जुलाई	-3584
▁परियोजनाओं	-3585
▁देय	-3586
▁वक्त	-3587
ंदु	-3588
▁गुरु	-3589
वण	-3590
तीत	-3591
▁रोकने	-3592
▁प्रोत्साहित	-3593
▁पवित्र	-3594
▁द्वितीय	-3595
▁हैंः	-3596
पचारिक	-3597
▁आमतौर	-3598
▁पाई	-3599
▁पौध	-3600
▁किलो	-3601
▁देखकर	-3602
▁रखें	-3603
▁चूंकि	-3604
▁सदा	-3605
▁कतिपय	-3606
ध्या	-3607
▁प्रवृत्त	-3608
ताव	-3609
▁शुरुआत	-3610
▁आकर्षित	-3611
▁जय	-3612
▁शैक्षिक	-3613
▁उपक्रम	-3614
▁भय	-3615
▁गौर	-3616
▁गाय	-3617
ाब	-3618
▁सुसंगत	-3619
▁हक	-3620
स्वी	-3621
श्किल	-3622
ुरी	-3623
क्का	-3624
▁इरा	-3625
▁साइ	-3626
▁खाने	-3627
▁अपन	-3628
▁अनुश	-3629
ंडी	-3630
▁खाना	-3631
श्त	-3632
▁प्रत	-3633
डु	-3634
नन	-3635
▁आशय	-3636
▁हवाई	-3637
▁विंडो	-3638
र्त	-3639
▁तल	-3640
▁ब्राह	-3641
थी	-3642
▁खुश	-3643
नात्मक	-3644
▁जानता	-3645
▁तकनीक	-3646
गढ़	-3647
ोल्	-3648
▁शहरी	-3649
▁आयोजन	-3650
▁बिल्कुल	-3651
▁गौ	-3652
▁देकर	-3653
▁अस्पताल	-3654
▁सॉफ्टवेयर	-3655
et	-3656
ार्थी	-3657
▁यूनि	-3658
▁निवास	-3659
▁शिकार	-3660
ंदी	-3661
▁कब	-3662
▁यून	-3663
▁नियंत्रित	-3664
▁ब्ल	-3665
▁बुरा	-3666
▁जीवित	-3667
▁अधिकतर	-3668
▁पाठ्यक्रम	-3669
ष्टा	-3670
▁सुब	-3671
ड़ियों	-3672
▁व्यावसायिक	-3673
▁देर	-3674
▁रहेगा	-3675
▁इंस	-3676
▁बाधा	-3677
भाग्य	-3678
▁हार्	-3679
▁जितना	-3680
▁उधार	-3681
▁संलग्न	-3682
▁लिमिटेड	-3683
क्षीय	-3684
▁यथ	-3685
शीलता	-3686
▁निश्चय	-3687
▁सूर्य	-3688
▁मानवीय	-3689
ot	-3690
द्धा	-3691
▁मुझ	-3692
▁आस्ति	-3693
▁कितना	-3694
▁मुद्दों	-3695
ंछ	-3696
▁तिर	-3697
▁रिश	-3698
▁चरित्र	-3699
▁तुरंत	-3700
▁स्तंभ	-3701
▁मिट्टी	-3702
धारी	-3703
▁खुले	-3704
ंदन	-3705
त्कार	-3706
▁परमाणु	-3707
▁मुश्किल	-3708
▁प्रतिनिधि	-3709
▁चलो	-3710
▁सहज	-3711
▁मंडल	-3712
▁कमजोर	-3713
▁कारा	-3714
▁केरल	-3715
▁इंग्ल	-3716
▁उत्तरी	-3717
▁समावेश	-3718
▁बेट	-3719
▁आग्रह	-3720
▁आसानी	-3721
▁बाह्य	-3722
सु	-3723
देव	-3724
▁लाया	-3725
▁प्रारूप	-3726
राव	-3727
▁आल	-3728
राम	-3729
▁सांस	-3730
▁प्रेष	-3731
यण	-3732
▁घंटे	-3733
बाज	-3734
▁ग्राहक	-3735
पुट	-3736
▁रवी	-3737
▁गुजरात	-3738
नाश	-3739
▁खान	-3740
▁जाकर	-3741
▁स्कीम	-3742
▁थोड़ा	-3743
▁एकमात्र	-3744
ुत्	-3745
▁आसपास	-3746
▁प्रार्थ	-3747
▁सहमति	-3748
▁समझौते	-3749
भाविक	-3750
▁घटनाओं	-3751
▁विरूद्ध	-3752
▁दर्ज	-3753
▁उत्साह	-3754
▁इंटरनेट	-3755
▁अन्तर्गत	-3756
▁निष्पादन	-3757
क्व	-3758
ग्ध	-3759
▁इनका	-3760
▁अनुदान	-3761
▁जिनकी	-3762
▁बढ़ती	-3763
घटना	-3764
▁आवाज	-3765
▁लंबे	-3766
▁लाइन	-3767
विज्ञान	-3768
▁साक्षी	-3769
▁वरिष्ठ	-3770
▁महात्मा	-3771
▁विमर्श	-3772
▁दूसरों	-3773
▁साध	-3774
▁ज्ञात	-3775
▁नेताओं	-3776
▁प्रत्या	-3777
णिक	-3778
मीटर	-3779
▁सहमत	-3780
▁सभ्यता	-3781
ाक	-3782
ौल	-3783
्राइ	-3784
▁नुकसान	-3785
▁छुट	-3786
▁खेती	-3787
▁सदैव	-3788
▁प्रिय	-3789
दिन	-3790
▁बाध्य	-3791
▁आपराधिक	-3792
▁श्रृंखला	-3793
▁कव	-3794
▁टुक	-3795
▁आवास	-3796
▁जनजा	-3797
▁शुरु	-3798
जिए	-3799
▁कू	-3800
घाटन	-3801
▁फैस	-3802
११	-3803
▁रिया	-3804
▁अंतः	-3805
माने	-3806
▁फिली	-3807
▁पंजीकरण	-3808
▁गोल	-3809
▁कितनी	-3810
▁रास्ता	-3811
▁सजा	-3812
▁असमर्थ	-3813
▁गेंद	-3814
पूर्ति	-3815
▁प्रथा	-3816
▁प्रतिकूल	-3817
्ता	-3818
▁प्रार्थना	-3819
▁विश्वविद्यालयों	-3820
ोबार	-3821
णन	-3822
▁इसने	-3823
▁लिखे	-3824
▁प्रचलित	-3825
▁समझने	-3826
केट	-3827
▁स्वाम	-3828
क्षिप्त	-3829
▁अग्रिम	-3830
रू	-3831
ंचित	-3832
▁चोट	-3833
जारों	-3834
▁नवीन	-3835
▁कार्यान्वयन	-3836
र्ती	-3837
▁खतरा	-3838
▁कंपनियों	-3839
स्फ	-3840
ेश्वर	-3841
▁आहार	-3842
▁भावी	-3843
▁वृक्ष	-3844
▁अनुसूचित	-3845
▁मोबाइल	-3846
▁पेड़	-3847
▁मिस	-3848
़्य	-3849
▁मालूम	-3850
ंगल	-3851
▁लक	-3852
▁पैरा	-3853
▁लेखन	-3854
▁संगम	-3855
▁संयंत्र	-3856
▁दुख	-3857
▁फोन	-3858
▁फा	-3859
▁गाँ	-3860
ंजन	-3861
▁छवि	-3862
▁मृत	-3863
▁सूत्र	-3864
हाद	-3865
ेक्ट	-3866
द्वीप	-3867
▁उठाने	-3868
गाह	-3869
िक्स	-3870
▁सतह	-3871
▁जरिए	-3872
▁वीर	-3873
▁वकील	-3874
▁खींच	-3875
सीन	-3876
▁नै	-3877
▁दुः	-3878
▁नोड	-3879
▁धारणा	-3880
▁विधियों	-3881
▁टिक	-3882
▁शर्तों	-3883
▁अवै	-3884
▁चिकित्स	-3885
ोल्डर	-3886
▁हितों	-3887
कां	-3888
▁जनरल	-3889
▁नाग	-3890
▁हार	-3891
▁चलाने	-3892
▁परिषद्	-3893
▁वर्गों	-3894
शास्त्र	-3895
्यु	-3896
▁किनारे	-3897
▁पुरानी	-3898
▁वाक	-3899
▁उद्ध	-3900
▁रेलवे	-3901
▁हाथों	-3902
न्त्र	-3903
▁सरदार	-3904
▁जाल	-3905
विधि	-3906
▁दबाव	-3907
ंडा	-3908
वश	-3909
▁अद्य	-3910
▁किस्म	-3911
पंथ	-3912
▁उन्	-3913
▁पोषण	-3914
▁फरवरी	-3915
▁जैव	-3916
▁मालिक	-3917
▁अनुसूची	-3918
ॉक	-3919
्नों	-3920
▁नारा	-3921
▁समृद्ध	-3922
ोधित	-3923
▁लु	-3924
▁विभिन्	-3925
गन	-3926
जि	-3927
ात्मक	-3928
▁सुदृ	-3929
▁वंश	-3930
िकाओं	-3931
▁पूर्ति	-3932
▁निरीक्षण	-3933
लिया	-3934
▁गार	-3935
▁कहान	-3936
▁राजस्व	-3937
▁विद्यालय	-3938
▁देंगे	-3939
▁स्वीकृति	-3940
▁सर्वोत्तम	-3941
पेक्ष	-3942
शक्ति	-3943
▁सौर	-3944
्यवाद	-3945
▁पूछा	-3946
▁भंडारण	-3947
▁समर्पित	-3948
▁किसान	-3949
▁प्रतिस्प	-3950
▁लंबी	-3951
▁अनुसरण	-3952
▁समन्वय	-3953
▁उपस्थिति	-3954
▁राजस्थान	-3955
▁भु	-3956
▁दिना	-3957
▁परा	-3958
▁ब्य	-3959
▁पाते	-3960
▁क्रिकेट	-3961
▁बीमार	-3962
▁दुर्घटना	-3963
▁जीत	-3964
▁पैर	-3965
▁रास्ते	-3966
▁मुद्र	-3967
दु	-3968
▁आस्त	-3969
▁काउ	-3970
▁पूर्वो	-3971
▁राजधान	-3972
▁आकर	-3973
वायु	-3974
▁मूर्	-3975
▁अका	-3976
▁संदाय	-3977
▁सम्पूर्ण	-3978
न्ड	-3979
▁देन	-3980
▁चालू	-3981
▁शिखर	-3982
▁परिभाषित	-3983
▁अधिर	-3984
म्मत	-3985
▁फ़िल्म	-3986
▁..	-3987
▁...	-3988
▁सराह	-3989
ing	-3990
▁तुम्हारे	-3991
▁खड़ा	-3992
▁डाटा	-3993
▁शत्र	-3994
▁विद्र	-3995
ेंसी	-3996
धियों	-3997
▁पर्यटन	-3998
▁१	-3999
▁सें	-4000
▁सुनवाई	-4001
▁प्रदूषण	-4002
पथ	-4003
हल	-4004
▁हल्	-4005
▁नीतियों	-4006
▁बोस	-4007
▁योजनाओं	-4008
▁सब्	-4009
▁शीर्षक	-4010
▁आवश्यकताओं	-4011
▁प्राथमिकता	-4012
▁सिल	-4013
क्रिय	-4014
▁स्त्र	-4015
▁रण	-4016
▁कमा	-4017
▁सौंप	-4018
▁श्रेष्ठ	-4019
▁संक्रमण	-4020
वली	-4021
ग्रस्त	-4022
▁छात्र	-4023
▁ऑनलाइन	-4024
याल	-4025
▁पल	-4026
▁अचान	-4027
▁उदार	-4028
▁बाकी	-4029
▁दीवार	-4030
ीकृत	-4031
▁मध्यम	-4032
▁बनाये	-4033
गोर	-4034
▁संदेह	-4035
▁विनिमय	-4036
ख्यात	-4037
▁चलने	-4038
▁फर्म	-4039
▁बदले	-4040
तृ	-4041
विष्ट	-4042
▁गवर्	-4043
▁प्री	-4044
▁आलोचना	-4045
फर	-4046
▁असर	-4047
▁प्रि	-4048
▁अचानक	-4049
लन	-4050
▁अस्था	-4051
▁बदलने	-4052
▁होम	-4053
पालन	-4054
▁स्वतः	-4055
▁ढांचे	-4056
▁सिद्धांतों	-4057
▁त्वचा	-4058
▁मृ	-4059
▁यौ	-4060
कृष्ण	-4061
▁पढ़ने	-4062
▁मिलियन	-4063
▁तला	-4064
▁बिंदु	-4065
▁विभाजित	-4066
▁हार्दिक	-4067
र्की	-4068
क़्त	-4069
▁स्वस्थ	-4070
▁बुला	-4071
▁सागर	-4072
▁धो	-4073
▁रहें	-4074
▁प्रशंसा	-4075
दंड	-4076
ासत	-4077
▁यथास्थिति	-4078
याँ	-4079
▁बिहार	-4080
लेट	-4081
ाले	-4082
धारणा	-4083
▁आजादी	-4084
▁जड़	-4085
▁बल्ले	-4086
म्मद	-4087
▁दुर	-4088
▁वचन	-4089
▁हाइ	-4090
▁दर्द	-4091
▁कितने	-4092
▁पत्थर	-4093
वैधानिक	-4094
▁झु	-4095
▁प्रवृत्ति	-4096
यत	-4097
▁पत	-4098
▁दास	-4099
▁मजदूर	-4100
▁प्रतियोग	-4101
काब	-4102
ंध्र	-4103
▁धात	-4104
गमन	-4105
▁विनिश्च	-4106
थित	-4107
▁पक्षकार	-4108
▁समूहों	-4109
▁सुविधाएं	-4110
▁जागर	-4111
▁मॉडल	-4112
▁प्रतिभूति	-4113
मि	-4114
▁परे	-4115
▁लम्	-4116
▁कम्पनी	-4117
▁संशोधित	-4118
▁संक्षिप्त	-4119
▁झा	-4120
▁नेश	-4121
▁अस्वी	-4122
▁देखना	-4123
▁घु	-4124
▁उल्लेखनीय	-4125
अर	-4126
▁तोड़	-4127
▁अली	-4128
▁जम्	-4129
▁डाय	-4130
▁तिथि	-4131
▁पार्	-4132
▁पूर्	-4133
▁किताब	-4134
▁प्रारम्भ	-4135
▁निच	-4136
▁दिव्य	-4137
▁समानता	-4138
▁आनु	-4139
▁इनकी	-4140
▁पट्ट	-4141
▁अत्या	-4142
▁सुदृढ़	-4143
▁अर्ध	-4144
▁उसको	-4145
▁छो	-4146
व्या	-4147
▁बाबू	-4148
▁मकान	-4149
▁विनय	-4150
▁स्वाभाविक	-4151
०क	-4152
ष्ठा	-4153
▁नील	-4154
▁तत्काल	-4155
ानिक	-4156
▁चन्द्र	-4157
▁अवैध	-4158
▁अनुमोदन	-4159
▁राजधानी	-4160
▁ब्राह्म	-4161
ज्ज	-4162
▁निवारण	-4163
▁छात्रों	-4164
▁पौधों	-4165
▁नेपाल	-4166
▁प्रान्त	-4167
▁प्राधिकार	-4168
▁मृत्युदंड	-4169
▁विज्ञ	-4170
वां	-4171
▁औपचारिक	-4172
▁जिम्मेदारी	-4173
▁ठोस	-4174
▁वर्णित	-4175
परी	-4176
▁गहन	-4177
▁संवाद	-4178
▁जलवायु	-4179
▁सन	-4180
▁ट्यू	-4181
▁डिजा	-4182
क्क	-4183
▁निर्व	-4184
as	-4185
खों	-4186
ट्र	-4187
ंसिल	-4188
▁जवाह	-4189
▁संप्र	-4190
▁उद्घाटन	-4191
▁अद्यतन	-4192
▁मण	-4193
▁पीठ	-4194
▁बौद्धिक	-4195
न्दु	-4196
तियां	-4197
ष्प	-4198
▁हिमालय	-4199
नाटक	-4200
▁करवा	-4201
▁हालत	-4202
▁समुद्री	-4203
▁कैं	-4204
▁हस्तक्षेप	-4205
▁प्रतिस्पर्	-4206
ासा	-4207
िरी	-4208
▁लिंग	-4209
▁ज़्यादा	-4210
▁संवर्धन	-4211
▁ग़	-4212
▁कच्च	-4213
▁क्लिक	-4214
▁प्रेस	-4215
▁ब्रिटेन	-4216
ट्	-4217
▁भारतीयों	-4218
ायें	-4219
०वीं	-4220
म्परा	-4221
दरा	-4222
▁बजट	-4223
▁अय	-4224
▁पड	-4225
▁खत्म	-4226
▁चुने	-4227
▁बालक	-4228
▁शिशु	-4229
▁अज	-4230
▁खाली	-4231
▁गरीबी	-4232
▁दैनिक	-4233
▁वस्तुत	-4234
क्सी	-4235
▁सामूह	-4236
▁कष्ट	-4237
▁शिक्षक	-4238
सागर	-4239
▁अक्त	-4240
▁गहरी	-4241
▁चुनौ	-4242
▁नौकरी	-4243
न्थ	-4244
बादी	-4245
▁तत्वों	-4246
बाजी	-4247
फ़ी	-4248
▁भले	-4249
▁रसाय	-4250
▁विपणन	-4251
ेंज	-4252
▁आकाश	-4253
▁गुफा	-4254
▁प्रणाल	-4255
▁दान	-4256
▁मिनट	-4257
जात	-4258
▁गू	-4259
ज़ार	-4260
▁मिलाकर	-4261
मार्ग	-4262
▁द्विप	-4263
▁विद्या	-4264
त्ती	-4265
▁भेंट	-4266
▁सोचा	-4267
▁वर्गी	-4268
▁ब्रह्म	-4269
▁सामूहिक	-4270
▁खतर	-4271
▁समृद्धि	-4272
▁उत्तरदायी	-4273
ेंद्र	-4274
▁भंडार	-4275
▁मिलते	-4276
▁सितंबर	-4277
भावना	-4278
▁भक्ति	-4279
▁परिक	-4280
▁लाइस	-4281
▁सामान्यतः	-4282
▁k	-4283
▁आना	-4284
▁आदान	-4285
▁जम्मू	-4286
▁तंत्रिका	-4287
▁सिद्धान्त	-4288
▁फे	-4289
ंडित	-4290
▁कमरे	-4291
▁सुश	-4292
▁परम्परा	-4293
ूष	-4294
ार्ज	-4295
▁उपर	-4296
▁नंबर	-4297
▁सकेगी	-4298
▁कहने	-4299
▁बचाव	-4300
▁बांध	-4301
क्ताओं	-4302
▁गांवों	-4303
ेंड	-4304
▁रद्द	-4305
▁फ्ल	-4306
▁असाधारण	-4307
पत	-4308
जनन	-4309
▁अनि	-4310
▁गणना	-4311
िवेश	-4312
▁फार्म	-4313
▁विद्वान	-4314
ोटो	-4315
▁कराया	-4316
िल्प	-4317
▁उत्प	-4318
▁अग्रणी	-4319
पो	-4320
▁चिंत	-4321
▁कर्नाटक	-4322
▁यूरोपीय	-4323
▁राहत	-4324
▁प्रविष्टि	-4325
▁हद	-4326
▁बजा	-4327
▁सफेद	-4328
मूल	-4329
▁निश	-4330
चार्य	-4331
▁डाला	-4332
वाना	-4333
▁अभिला	-4334
▁उच्चतर	-4335
ed	-4336
▁पर्	-4337
▁निगर	-4338
▁जैन	-4339
▁सांप	-4340
▁अक्तूबर	-4341
▁क्रांति	-4342
ent	-4343
▁निगरानी	-4344
▁पक्षों	-4345
▁कार्यवाहियों	-4346
▁कठिनाई	-4347
पीठ	-4348
ल्य	-4349
वरों	-4350
▁उभर	-4351
▁कब्	-4352
▁लड़के	-4353
ॉट	-4354
▁परिभाषा	-4355
▁व्यक्तित्व	-4356
रम	-4357
▁खण्ड	-4358
▁रवीन्द्रनाथ	-4359
▁आश्व	-4360
ोब	-4361
▁लाइ	-4362
▁पड़ी	-4363
▁सुबह	-4364
▁लड़ाई	-4365
▁उत्तरा	-4366
वित	-4367
▁चाय	-4368
▁संवैधानिक	-4369
▁पाद	-4370
▁तथ्यों	-4371
्रमण	-4372
▁मोड	-4373
▁मैत्री	-4374
▁इस्लामी	-4375
▁शहरों	-4376
▁माध्यस्थ	-4377
टु	-4378
▁निपटान	-4379
▁पदार्थों	-4380
ंतरण	-4381
▁भंग	-4382
वादियों	-4383
▁घटा	-4384
▁बैंकिंग	-4385
▁प्रतिबंध	-4386
▁बांग	-4387
▁विविधता	-4388
▁बाँ	-4389
▁आंध्र	-4390
▁कोर्ट	-4391
▁चीजों	-4392
▁नेशनल	-4393
▁आरंभिक	-4394
▁आब	-4395
▁नृत्य	-4396
▁मुक्ति	-4397
ग़	-4398
▁भूत	-4399
▁शान	-4400
▁रहस्य	-4401
▁लगाना	-4402
▁कारावास	-4403
▁लाइसेंस	-4404
नाक	-4405
ान्य	-4406
▁देशी	-4407
▁पाँच	-4408
▁अब्द	-4409
▁चीनी	-4410
▁पौधे	-4411
▁सीमाओं	-4412
▁कहता	-4413
▁अपनाया	-4414
▁योग्यता	-4415
ॉर्ड	-4416
▁खड़े	-4417
▁खराब	-4418
▁उतर	-4419
▁स्वर्ण	-4420
▁जातियों	-4421
▁कामना	-4422
▁मुकाब	-4423
ॉनिक	-4424
▁वैध	-4425
दर्शी	-4426
▁कहला	-4427
▁उन्नत	-4428
▁पंक्ति	-4429
▁खतरे	-4430
▁गुणा	-4431
▁न्यास	-4432
▁सेटिंग	-4433
el	-4434
रेखा	-4435
▁प्यार	-4436
▁स्क्रीन	-4437
ोजक	-4438
▁मक	-4439
▁न्यायपालिका	-4440
जल	-4441
ुति	-4442
▁पश	-4443
ंशिक	-4444
▁खेत	-4445
▁देवता	-4446
▁परिचय	-4447
▁निर्मा	-4448
ास्ट	-4449
▁उतना	-4450
▁मुद्दे	-4451
▁वस्त्र	-4452
▁सावधानी	-4453
िब	-4454
▁क्	-4455
▁अवल	-4456
▁उपे	-4457
▁लेती	-4458
▁उपखंड	-4459
▁प्रसं	-4460
▁युक्ति	-4461
▁शिक्षण	-4462
▁आक	-4463
▁जीवा	-4464
वृत्ति	-4465
▁मूलभूत	-4466
▁ताकत	-4467
▁दरवा	-4468
▁वंचित	-4469
िस्त	-4470
▁डाउ	-4471
▁पैसे	-4472
▁अधिसूचना	-4473
▁प्रक्रियाओं	-4474
१२	-4475
▁अनुज्ञात	-4476
ao	-4477
ेदन	-4478
▁जानने	-4479
▁ध्वनि	-4480
▁प्रश्नों	-4481
▁हिंदुस्तान	-4482
▁सप	-4483
▁द्वि	-4484
▁ट्रै	-4485
▁उपकरणों	-4486
▁साहित्यिक	-4487
ङ्	-4488
▁अवसरों	-4489
▁डिजाइन	-4490
▁अंतरिक्ष	-4491
▁यूनिट	-4492
▁मैने	-4493
▁साझी	-4494
▁तीसरे	-4495
▁मानना	-4496
▁‘‘	-4497
▁जायें	-4498
▁विरासत	-4499
दायक	-4500
▁दावे	-4501
▁प्राधिकृत	-4502
▁शक्तिशाली	-4503
▁बिलकुल	-4504
▁मंदिरों	-4505
▁अवमान	-4506
▁विक्रय	-4507
भि	-4508
▁पोर्ट	-4509
▁बनाता	-4510
▁उपायों	-4511
▁प्रतिबद्ध	-4512
▁y	-4513
▁00	-4514
▁कोट	-4515
हारिक	-4516
▁जहाज	-4517
▁वाद्य	-4518
▁अपराधों	-4519
ॉलर	-4520
लैंड	-4521
▁वेद	-4522
▁आवेद	-4523
▁कक्षा	-4524
▁अर्जित	-4525
▁संध्या	-4526
ंघन	-4527
▁बेल	-4528
▁उठाया	-4529
▁टिप्पणी	-4530
▁मौलिक	-4531
▁मजिस्ट	-4532
मेल	-4533
▁कोय	-4534
ब्ल	-4535
ैया	-4536
ल्ला	-4537
▁इसील	-4538
▁स्वभाव	-4539
▁उन्म	-4540
▁अधिरोप	-4541
▁पैमाने	-4542
▁धु	-4543
▁वसू	-4544
▁चू	-4545
ंतिक	-4546
▁चंद्र	-4547
▁विनिश्चय	-4548
मान्य	-4549
▁पृथक	-4550
▁जीन	-4551
स्ट्रे	-4552
▁यहू	-4553
▁चाहती	-4554
ंभव	-4555
सनीय	-4556
▁मिथ	-4557
▁अनुचित	-4558
़्त	-4559
यात	-4560
▁नार	-4561
▁बजे	-4562
▁पेंशन	-4563
▁अमरीका	-4564
▁पहुंचने	-4565
▁सम्पत्ति	-4566
▁शर्त	-4567
▁उपर्य	-4568
ंठ	-4569
श्म	-4570
साइ	-4571
्रोल	-4572
▁भरा	-4573
▁आराम	-4574
▁असाम	-4575
▁संचालित	-4576
▁प्रतियोगिता	-4577
उंड	-4578
▁उपय	-4579
▁अगला	-4580
▁गर्भ	-4581
▁वस	-4582
▁नेत्र	-4583
नीति	-4584
▁घूम	-4585
▁मोटर	-4586
▁स्मार	-4587
▁अदा	-4588
▁शक्तियां	-4589
▁स्वामित्व	-4590
▁उद्देश्यों	-4591
शे	-4592
▁खिल	-4593
▁सदी	-4594
ol	-4595
ंगों	-4596
▁दिला	-4597
▁स्थाना	-4598
▁प्रवर्तन	-4599
▁द्विपक्षीय	-4600
लाब	-4601
▁रेश	-4602
▁श्रीमती	-4603
वधि	-4604
ूली	-4605
▁घटक	-4606
▁दिमा	-4607
▁भेजे	-4608
▁शोक	-4609
▁अस्थायी	-4610
▁मध्यस्थ	-4611
षे	-4612
▁फें	-4613
▁गुजर	-4614
▁उपलब्धि	-4615
वती	-4616
▁यो	-4617
▁लॉग	-4618
▁सराहना	-4619
▁संबोधित	-4620
▁फ्र	-4621
▁निकाला	-4622
▁दण्ड	-4623
▁पहलू	-4624
▁साइट	-4625
▁l	-4626
कोश	-4627
▁साहस	-4628
▁पीढ़ी	-4629
▁फ्रांस	-4630
▁विनिर्माण	-4631
फोन	-4632
▁भांति	-4633
▁जुड़	-4634
▁यथार्थ	-4635
▁रेडियो	-4636
▁परिवर्त	-4637
▁ग्री	-4638
▁बच्चा	-4639
▁तापमान	-4640
▁पृष्ठभूमि	-4641
▁खि	-4642
शः	-4643
ायर	-4644
▁सेल	-4645
ग्रहण	-4646
▁मनोर	-4647
▁ग्राफ	-4648
▁जुड़ा	-4649
▁सकेंगे	-4650
▁कायम	-4651
▁विभागों	-4652
ंपरिक	-4653
▁मानो	-4654
▁पर्वत	-4655
▁अंग्रेज	-4656
▁महाराजा	-4657
क्रो	-4658
▁पोत	-4659
कीर्ण	-4660
▁तस्वी	-4661
अप	-4662
ठे	-4663
▁श्रमिक	-4664
▁उर्व	-4665
▁अत्यन्त	-4666
▁पत्रिका	-4667
ड्डी	-4668
▁मरा	-4669
▁प्रतिदिन	-4670
▁ड्र	-4671
▁ईसाई	-4672
▁मुला	-4673
▁दिसंबर	-4674
▁ड़	-4675
▁कने	-4676
▁जिनसे	-4677
▁बनाकर	-4678
▁तमिलना	-4679
▁कोशिकाओं	-4680
ou	-4681
▁छाप	-4682
▁इंडियन	-4683
▁संतुलन	-4684
il	-4685
ुण	-4686
रचना	-4687
▁बहस	-4688
▁ठहरा	-4689
▁मूर्ति	-4690
▁अन्वेषण	-4691
▁शास्त्र	-4692
▁रानी	-4693
्त्र	-4694
ख्यान	-4695
▁दर्	-4696
▁पोजी	-4697
▁रजिस्ट्रीकरण	-4698
▁पंडित	-4699
ac	-4700
▁तरीकों	-4701
▁दक्षिणी	-4702
▁विद्यार्थी	-4703
▁’	-4704
▁जाग	-4705
▁व्युत्	-4706
ंचाई	-4707
वहार	-4708
▁ढांचा	-4709
ब्र	-4710
▁पच	-4711
▁लल	-4712
सिंह	-4713
▁क्व	-4714
▁अवधारणा	-4715
▁इंजीनिय	-4716
क्तिक	-4717
▁युवाओं	-4718
म्बई	-4719
व्यों	-4720
▁संग्र	-4721
▁हटाने	-4722
▁समितियों	-4723
▁समाय	-4724
यिक	-4725
ाइन	-4726
ुरा	-4727
▁वसूली	-4728
▁समझते	-4729
यक	-4730
म्बे	-4731
▁जितनी	-4732
▁उपयोगकर्ता	-4733
्मी	-4734
▁मुकदमे	-4735
यु	-4736
▁रिट	-4737
घर	-4738
▁दिलच	-4739
हाई	-4740
▁पॉल	-4741
▁देखे	-4742
▁झील	-4743
▁लंबित	-4744
▁राजभाषा	-4745
▁पारंपरिक	-4746
▁उपर्युक्त	-4747
▁क्रियान्व	-4748
तरी	-4749
▁हाँ	-4750
▁क्षण	-4751
▁नाते	-4752
▁गिरफ्तार	-4753
ोद	-4754
▁चैतन	-4755
▁संदेय	-4756
▁तत्त्व	-4757
▁मिलेगी	-4758
▁O	-4759
▁कारक	-4760
▁चैनल	-4761
▁लगती	-4762
▁फ़ोल्डर	-4763
▁चिप	-4764
▁मानी	-4765
▁बांग्ला	-4766
▁जिम्मेदार	-4767
▁न्	-4768
▁वय	-4769
पादक	-4770
▁पंख	-4771
▁बचत	-4772
स्तानी	-4773
▁आबादी	-4774
▁रहेंगे	-4775
▁व्यावहारिक	-4776
शोथ	-4777
▁खनि	-4778
▁दाख	-4779
▁उतार	-4780
▁दिखाया	-4781
क्राम	-4782
▁बोली	-4783
▁होंगी	-4784
▁कारोबार	-4785
दल	-4786
त्ते	-4787
▁जाओ	-4788
▁कराना	-4789
▁प्रभाग	-4790
▁आतंकवादी	-4791
▁iii	-4792
▁गुल	-4793
▁अकेले	-4794
▁परिवेश	-4795
िर्धारित	-4796
▁बीस	-4797
▁चुना	-4798
▁बारह	-4799
▁पक्षकारों	-4800
▁मार्गदर्शन	-4801
▁आर्	-4802
▁धातु	-4803
▁पोजीशन	-4804
ग्रा	-4805
▁नान	-4806
▁दुःख	-4807
▁मिलेगा	-4808
▁रिकार्ड	-4809
▁गुरू	-4810
▁संवेदन	-4811
▁r	-4812
▁खूब	-4813
▁कॉलेज	-4814
▁अज्ञ	-4815
▁इलाज	-4816
▁तात्	-4817
▁इसीलिए	-4818
▁महीनों	-4819
भेद	-4820
▁सद्	-4821
▁रुचि	-4822
▁अभिगम	-4823
▁हैदरा	-4824
▁चैतन्य	-4825
▁सकारात्मक	-4826
पंथी	-4827
▁लड़की	-4828
▁झू	-4829
▁छोड	-4830
▁स्तरों	-4831
ेयर	-4832
▁फैला	-4833
▁बिता	-4834
▁समझे	-4835
▁निष्क्रिय	-4836
दोष	-4837
▁दोनो	-4838
कलापों	-4839
▁हकदार	-4840
ँग	-4841
▁सहन	-4842
▁उद्यान	-4843
▁केंद्रित	-4844
▁दीव	-4845
▁दोहरा	-4846
बारा	-4847
द्रास	-4848
लिंग	-4849
▁फार	-4850
▁बडी	-4851
▁बनाते	-4852
▁जोड़ने	-4853
▁सम्बंध	-4854
तांत्रिक	-4855
▁महाभारत	-4856
▁विद्रोह	-4857
▁तिल	-4858
▁पेशे	-4859
▁चुनें	-4860
▁उन्होने	-4861
▁चतु	-4862
▁ढूं	-4863
▁वादी	-4864
ध्यक्ष	-4865
▁संभावित	-4866
▁रिज	-4867
च्छिक	-4868
▁वार्	-4869
▁गारंटी	-4870
▁पुष्टि	-4871
▁इलेक्ट्रॉनिक	-4872
▁कट्ट	-4873
▁जाएँ	-4874
▁धरती	-4875
▁सिंध	-4876
▁बढ़ने	-4877
▁भर्ती	-4878
काय	-4879
▁इंद	-4880
ंत्रित	-4881
▁डालने	-4882
▁अभिलाभ	-4883
▁आपात	-4884
िली	-4885
▁ऊंचाई	-4886
▁पड़ती	-4887
▁पंजीकृत	-4888
सूर	-4889
▁एयर	-4890
▁इमार	-4891
▁संतु	-4892
▁पालिसी	-4893
▁सिंचाई	-4894
▁ग्राहकों	-4895
▁कोष	-4896
▁अकाद	-4897
▁प्रांत	-4898
▁भगवान्	-4899
रुप	-4900
्मा	-4901
▁भरी	-4902
▁मजिस्ट्रेट	-4903
ड़िया	-4904
▁कहां	-4905
▁पांड	-4906
▁याची	-4907
▁रूपों	-4908
▁स्टेशन	-4909
▁आधारभूत	-4910
▁वस्तुतः	-4911
▁भरे	-4912
▁लार	-4913
▁पशुओं	-4914
्टा	-4915
▁in	-4916
▁हिस	-4917
▁पट्टी	-4918
▁रसायन	-4919
▁संतोष	-4920
▁परिवारों	-4921
पू	-4922
▁फु	-4923
▁उदा	-4924
▁रहित	-4925
▁वर्मा	-4926
▁स्मरण	-4927
▁जायेगी	-4928
▁उत्तरदायित्व	-4929
▁छाया	-4930
▁जानकर	-4931
कांक्षा	-4932
▁प्रेषित	-4933
ंदगी	-4934
▁टूट	-4935
▁बारी	-4936
▁आंशिक	-4937
▁मद्रास	-4938
▁हैदराबाद	-4939
गि	-4940
▁चली	-4941
▁ऊपरी	-4942
स्ट्रेलिया	-4943
काता	-4944
▁ईरान	-4945
▁शांत	-4946
र्थी	-4947
▁उल्लंघन	-4948
▁निकालने	-4949
am	-4950
▁अम्	-4951
▁असह	-4952
▁डिज	-4953
दायिक	-4954
▁ट्रे	-4955
▁पदों	-4956
▁पहाड़ी	-4957
ष्णु	-4958
▁बहुमत	-4959
▁मानता	-4960
▁अमरीकी	-4961
शाह	-4962
▁घृ	-4963
जीवन	-4964
शिष्ट	-4965
▁इच्छ	-4966
▁प्रतीक्षा	-4967
रस	-4968
ायतों	-4969
▁मातृ	-4970
क्षणिक	-4971
▁फैसला	-4972
वर्ड	-4973
▁प्रतिवादी	-4974
ैट	-4975
▁एकदम	-4976
कल्पिक	-4977
कू	-4978
बो	-4979
▁u	-4980
िवृ	-4981
▁तृ	-4982
▁कागज	-4983
▁जमान	-4984
▁प्लस	-4985
▁मुगल	-4986
▁साझा	-4987
▁परिसर	-4988
▁व्यापारी	-4989
जीवी	-4990
ैण्ड	-4991
▁तदन	-4992
▁जापान	-4993
▁धा	-4994
▁आयी	-4995
▁पहुंचे	-4996
▁शौ	-4997
▁आकलन	-4998
▁संपदा	-4999
▁मुकदमा	-5000
▁शिक्षकों	-5001
रलाल	-5002
िवर्	-5003
▁अभ्य	-5004
▁मुंह	-5005
▁पार्क	-5006
मानी	-5007
श्वास	-5008
▁कपड़े	-5009
▁पुरूष	-5010
▁शान्त	-5011
▁जर्मनी	-5012
द्दीन	-5013
▁प्रजनन	-5014
▁दस्तावेजों	-5015
▁सम्भव	-5016
्रु	-5017
▁एल्	-5018
▁पाप	-5019
▁कड़ी	-5020
▁कर्ण	-5021
▁हाथी	-5022
▁जोड़ा	-5023
▁थोड़ी	-5024
▁देखता	-5025
▁विवरणी	-5026
▁प्रयोगशाला	-5027
ंधन	-5028
तावनी	-5029
▁स्वीकृत	-5030
▁वैकल्पिक	-5031
राशि	-5032
ार्ट	-5033
ुत्व	-5034
र्गी	-5035
▁लगते	-5036
▁पुस्तकों	-5037
▁ज्यो	-5038
▁मानवता	-5039
१३	-5040
▁जला	-5041
▁सिवाय	-5042
▁किन्हीं	-5043
▁पूर्णतः	-5044
▁लकड़ी	-5045
बान	-5046
कुमार	-5047
▁समझता	-5048
इयां	-5049
▁पैके	-5050
▁गहराई	-5051
▁वापसी	-5052
▁चेतावनी	-5053
▁धन्यवाद	-5054
▁विनियमन	-5055
ज़े	-5056
र्दू	-5057
▁कॉल	-5058
▁चुप	-5059
▁हां	-5060
▁रिक्त	-5061
कलाप	-5062
▁गईं	-5063
▁चेक	-5064
▁लिंक	-5065
खन	-5066
लभ	-5067
ड्य	-5068
▁गौरव	-5069
▁विवेक	-5070
ासंगिक	-5071
▁जवाहरलाल	-5072
▁तमिलनाडु	-5073
▁बैठे	-5074
▁सूचित	-5075
▁उल्लिखित	-5076
▁जमी	-5077
▁पाता	-5078
▁स्वप	-5079
▁उन्हीं	-5080
▁संगठित	-5081
▁साधनों	-5082
▁बग	-5083
प्ति	-5084
▁खड़ी	-5085
▁रोगों	-5086
▁उत्तेज	-5087
▁पहलुओं	-5088
▁पढ	-5089
▁दार्	-5090
▁ड्राइ	-5091
▁तुर्की	-5092
▁निवासी	-5093
▁सम्पर्क	-5094
▁भेजने	-5095
ूरक	-5096
▁सल	-5097
▁गद्य	-5098
▁उर्दू	-5099
▁मान्य	-5100
कन	-5101
ायल	-5102
▁एव	-5103
▁कही	-5104
▁हरि	-5105
▁संधि	-5106
▁गाड़ी	-5107
▁ब्राउ	-5108
▁संभवतः	-5109
नलोड	-5110
▁मछली	-5111
▁कुशलता	-5112
▁प्रतिष्ठित	-5113
▁प्रसंस्	-5114
गरी	-5115
▁गिरा	-5116
▁चिन्ह	-5117
▁नकारात्मक	-5118
थान	-5119
▁लोड	-5120
▁शोर	-5121
▁आखिर	-5122
▁माने	-5123
▁साझे	-5124
ायण	-5125
▁दक्षता	-5126
▁कानूनों	-5127
शेष	-5128
ेरे	-5129
▁इल	-5130
▁शो	-5131
▁चयनित	-5132
▁टिप्पण	-5133
▁प्रसाद	-5134
▁इंग्लैंड	-5135
्वान	-5136
▁शल्य	-5137
▁चुकता	-5138
▁पड़ेगा	-5139
▁माननीय	-5140
▁बोध	-5141
▁मधु	-5142
▁उग्र	-5143
▁किलोमीटर	-5144
▁फलस्वरूप	-5145
ec	-5146
▁भाष्	-5147
एच	-5148
▁दुकान	-5149
▁अंग्रेजों	-5150
▁अट	-5151
▁अक्षम	-5152
ोहन	-5153
▁शपथ	-5154
▁सीधा	-5155
▁प्रतिबि	-5156
▁अभिनिर्धारित	-5157
▁अवय	-5158
▁नवं	-5159
▁निरसन	-5160
▁स्टेट	-5161
▁स्त्रियों	-5162
▁आपस	-5163
▁देखी	-5164
▁कनेक्शन	-5165
▁गांधीजी	-5166
▁छिप	-5167
▁आबंट	-5168
▁उतनी	-5169
▁डॉलर	-5170
▁याता	-5171
▁साहब	-5172
▁क्रांतिक	-5173
▁जुल	-5174
▁रखकर	-5175
▁रूपांत	-5176
निंग	-5177
▁प्रबल	-5178
▁रिश्त	-5179
▁व्यवस्थित	-5180
धक	-5181
पक्ष	-5182
▁अपमान	-5183
परि	-5184
▁मेन	-5185
▁सतत	-5186
▁तैयारी	-5187
▁शानदार	-5188
▁यानी	-5189
लिप	-5190
फेसर	-5191
▁सेक	-5192
▁हरे	-5193
रेख	-5194
िटल	-5195
▁जू	-5196
▁ज्व	-5197
संरचना	-5198
▁उत्तम	-5199
▁चीजें	-5200
ारक	-5201
▁अंतराल	-5202
▁दिनांक	-5203
▁सम्बन्धित	-5204
जो	-5205
्नि	-5206
▁कन	-5207
▁अफग	-5208
▁भरो	-5209
▁सिख	-5210
▁सेन	-5211
▁पाये	-5212
▁बन्द	-5213
▁तीनों	-5214
▁विनाश	-5215
▁एकीकृत	-5216
▁प्रतिर	-5217
▁मिश्रण	-5218
▁काला	-5219
▁अपनाने	-5220
▁स्वाधीन	-5221
▁ष	-5222
▁कस	-5223
▁शंकर	-5224
▁दोस्त	-5225
▁नवंबर	-5226
▁कोलकाता	-5227
▁सिक	-5228
ष्कार	-5229
▁मुझसे	-5230
▁चिकित्सक	-5231
कना	-5232
▁पहन	-5233
▁रेड	-5234
जु	-5235
▁एजेंस	-5236
▁गुणों	-5237
▁पत्रों	-5238
▁संपन्न	-5239
स्को	-5240
▁पोल	-5241
▁सड़	-5242
▁हिमा	-5243
▁कट्टर	-5244
▁वृद्ध	-5245
▁माध्यस्थम्	-5246
iv	-5247
▁अखिल	-5248
▁खोलने	-5249
▁सैन्य	-5250
▁हिसाब	-5251
▁यातायात	-5252
्रीम	-5253
▁खून	-5254
▁पोस्ट	-5255
▁रहेगी	-5256
▁डाउनलोड	-5257
▁चुनौतियों	-5258
ad	-5259
पल	-5260
सेना	-5261
▁कीटों	-5262
▁निष्ठा	-5263
▁विश्वसनीय	-5264
▁अनुपालन	-5265
▁गर्व	-5266
▁घनिष्ठ	-5267
▁गतिविधि	-5268
ुणा	-5269
▁अहि	-5270
▁औषध	-5271
▁पैसा	-5272
▁जीवों	-5273
▁चिकित्सीय	-5274
गों	-5275
देन	-5276
्वे	-5277
▁नज	-5278
▁वास	-5279
▁काले	-5280
▁अंततः	-5281
▁विवादों	-5282
▁प्रोफेसर	-5283
▁भव	-5284
प्रद	-5285
▁हमे	-5286
▁मशीनरी	-5287
ड़ीसा	-5288
▁कार्यान्वित	-5289
भौ	-5290
लांग	-5291
ापरी	-5292
▁लाना	-5293
▁दाखिल	-5294
▁क्रमशः	-5295
शनिक	-5296
▁सकल	-5297
▁अनाज	-5298
▁ध्वज	-5299
ख्त	-5300
राय	-5301
▁बडे	-5302
▁अपराधी	-5303
▁वैज्ञानिकों	-5304
यक्तिक	-5305
▁मंजूर	-5306
▁घो	-5307
वाने	-5308
▁पुनर्व	-5309
▁प्रदत्त	-5310
▁मित्रों	-5311
▁परिचित	-5312
▁लोकसभा	-5313
ंसक	-5314
न्दा	-5315
▁स्थितियों	-5316
▁लोकतांत्रिक	-5317
id	-5318
गामी	-5319
▁महल	-5320
▁दोषी	-5321
▁एजेंसी	-5322
▁किराये	-5323
▁तस्वीर	-5324
▁कार्यपालिका	-5325
रु	-5326
स्कर	-5327
▁बहाद	-5328
▁प्लेट	-5329
▁बढ़ते	-5330
▁अस्वीकार	-5331
मुच	-5332
ोज़	-5333
▁इकट	-5334
▁घास	-5335
▁उठाए	-5336
▁सभापति	-5337
ाहट	-5338
कियों	-5339
▁आपसे	-5340
▁प्रतिफल	-5341
▁प्रमाणित	-5342
▁पीड़ा	-5343
▁विलंब	-5344
▁आरक्षित	-5345
▁दार्शनिक	-5346
काया	-5347
▁बांट	-5348
▁अस्थि	-5349
▁व्यापारिक	-5350
▁कुटु	-5351
▁रचनात्मक	-5352
▁इस्	-5353
त्रिम	-5354
▁क्रमा	-5355
▁चेहरे	-5356
▁हजारों	-5357
▁पंचा	-5358
▁सहारा	-5359
▁राष्ट्रों	-5360
हे	-5361
ड़ना	-5362
▁वांछ	-5363
▁ज्योति	-5364
वारी	-5365
िलों	-5366
▁आह्वान	-5367
▁शैक्षणिक	-5368
▁क्षतिपूर्ति	-5369
क़्	-5370
▁उभ	-5371
▁मेम	-5372
ब्लिक	-5373
▁भक्त	-5374
▁शत्रु	-5375
▁डिग्री	-5376
▁मानकों	-5377
▁प्रतिष्ठा	-5378
▁छु	-5379
न्तर	-5380
▁जुड़ी	-5381
▁दिमाग	-5382
▁निर्देशिका	-5383
▁फौ	-5384
तन्त्र	-5385
▁आस्था	-5386
▁ट्यूब	-5387
▁जायेंगे	-5388
ME	-5389
▁घाटी	-5390
▁सचमुच	-5391
▁सतर्क	-5392
▁विनिधान	-5393
ण्ट	-5394
मेन	-5395
ोधन	-5396
▁राह	-5397
▁घरों	-5398
▁हमला	-5399
▁अधिरोपित	-5400
लक	-5401
्राव	-5402
he	-5403
▁नस्ल	-5404
▁कालेज	-5405
▁बढ़कर	-5406
ोनें	-5407
▁रूस	-5408
▁देखो	-5409
गोलिक	-5410
▁अपरि	-5411
▁बम	-5412
▁असली	-5413
▁संभाल	-5414
▁वस्तुएं	-5415
▁शिक्षित	-5416
ँस	-5417
क़्ति	-5418
▁गवर्नर	-5419
▁सहयोगी	-5420
▁दिसम्बर	-5421
▁पुस्तिका	-5422
▁ब्राह्मण	-5423
▁समुदायों	-5424
थे	-5425
चालित	-5426
▁बदला	-5427
▁धनराशि	-5428
▁कार्यरत	-5429
▁विचारधारा	-5430
▁तू	-5431
वृत्त	-5432
▁कृत्रिम	-5433
▁इंजीनियर	-5434
▁प्रासंगिक	-5435
▁गि	-5436
▁हार्ड	-5437
▁प्रतिरोध	-5438
og	-5439
▁नवी	-5440
▁पुण	-5441
▁अभिर	-5442
▁कृति	-5443
▁बंदर	-5444
▁सम्रा	-5445
▁नवम्बर	-5446
▁स्तरीय	-5447
यालय	-5448
्रेता	-5449
▁पढ़ा	-5450
▁वाहन	-5451
कात	-5452
▁धम	-5453
र्जन	-5454
▁कथित	-5455
▁जमानत	-5456
▁भौगोलिक	-5457
▁परिवर्तनों	-5458
प्ट	-5459
सलों	-5460
▁इकट्	-5461
थन	-5462
ंजा	-5463
ार्इ	-5464
▁कना	-5465
▁नकद	-5466
ंतरित	-5467
दाताओं	-5468
▁आदेशों	-5469
▁दुर्भाग्य	-5470
▁रिस	-5471
▁ऑडियो	-5472
▁विद्वानों	-5473
▁प्रभावशाली	-5474
▁सामान्यतया	-5475
▁आपसी	-5476
▁ईंधन	-5477
▁चट्ट	-5478
▁मतदान	-5479
ेस	-5480
▁टू	-5481
िकीय	-5482
▁लीग	-5483
▁अंडे	-5484
▁फोटो	-5485
अल	-5486
जाल	-5487
बेस	-5488
▁लिपि	-5489
▁श्वेत	-5490
▁भावनाओं	-5491
▁जिसको	-5492
ोक्ताओं	-5493
▁उपलब्धता	-5494
विदा	-5495
▁अमर	-5496
▁पाइ	-5497
▁समेक	-5498
▁स्तन	-5499
▁प्रक्रम	-5500
ढ़े	-5501
बों	-5502
▁लेंगे	-5503
▁उत्पादक	-5504
दनी	-5505
हीत	-5506
▁फाइ	-5507
▁बुल	-5508
स्पति	-5509
▁सीता	-5510
▁मासिक	-5511
▁पूर्वा	-5512
▁लेखकों	-5513
▁परिस्थिति	-5514
स्फोट	-5515
▁तलाश	-5516
▁शासक	-5517
▁अज्ञात	-5518
▁खतरनाक	-5519
▁असामान्य	-5520
ेटी	-5521
▁बनता	-5522
▁संवेद	-5523
▁अनुदेश	-5524
▁अभ्यास	-5525
▁उड़ीसा	-5526
IN	-5527
▁अच	-5528
▁अपवाद	-5529
▁क्रेड	-5530
ंडिक	-5531
▁अपी	-5532
▁चावल	-5533
▁उपेक्षा	-5534
▁दर्शाता	-5535
पेश	-5536
ाधिकार	-5537
▁अर्जन	-5538
▁अवरोध	-5539
▁सेवान	-5540
ोचित	-5541
▁कीम	-5542
▁गीता	-5543
▁दीक्षा	-5544
▁सुन्दर	-5545
▁ऊतक	-5546
▁हाउस	-5547
▁शेयरों	-5548
▁इकाइयों	-5549
▁चमक	-5550
ation	-5551
▁अतीत	-5552
▁ईमान	-5553
▁उपरा	-5554
▁कहाँ	-5555
▁गणित	-5556
▁निबंध	-5557
▁वैदिक	-5558
▁शुक्र	-5559
▁रिकॉर्ड	-5560
▁प्रसंस्करण	-5561
क्की	-5562
साइटी	-5563
▁जंगल	-5564
▁लंदन	-5565
▁लंबाई	-5566
ानिस्तान	-5567
▁अपेक्षाकृत	-5568
झा	-5569
▁सूच	-5570
वर्तन	-5571
▁संक्षेप	-5572
पूर	-5573
▁नाब	-5574
▁अंकित	-5575
▁तीसरा	-5576
▁हिमाचल	-5577
▁अनुक्रम	-5578
▁रजिस्टर	-5579
▁पूर्ववर्ती	-5580
▁बिट	-5581
▁गहरे	-5582
क्सा	-5583
जनों	-5584
▁अजी	-5585
ानुसार	-5586
▁मुख्यतः	-5587
स्तु	-5588
▁मेघ	-5589
▁पैकेज	-5590
▁अभिप्र	-5591
▁सलाहकार	-5592
ँचे	-5593
▁बेर	-5594
स्परिक	-5595
▁जुर्म	-5596
▁नदियों	-5597
▁वार्ता	-5598
▁सोसाइटी	-5599
ंपा	-5600
▁गोरा	-5601
▁बुरी	-5602
▁सुनने	-5603
▁कार्मिक	-5604
▁योजनाएं	-5605
▁यान	-5606
▁कुरान	-5607
▁कैंसर	-5608
वाँ	-5609
▁टिकट	-5610
▁निधन	-5611
▁संग्रहालय	-5612
▁चुक	-5613
▁आईटी	-5614
▁मतभेद	-5615
▁दिखाने	-5616
▁प्रणालियों	-5617
▁परत	-5618
▁पक्षी	-5619
▁सेक्टर	-5620
▁प्रचालन	-5621
▁प्रसारण	-5622
▁केंद्रों	-5623
्द	-5624
रणों	-5625
▁मादा	-5626
▁पिछली	-5627
▁त्वरित	-5628
▁आस्तियों	-5629
डन	-5630
▁असल	-5631
चन्द्र	-5632
▁सीखने	-5633
▁राज्यक्षेत्र	-5634
▁अगली	-5635
▁आयकर	-5636
▁तनाव	-5637
▁रखती	-5638
▁ज़रूर	-5639
▁फायदा	-5640
ितु	-5641
नेक्ट	-5642
▁साथी	-5643
ब्ल्यू	-5644
▁आयुर्	-5645
▁बोलते	-5646
▁डाक्टर	-5647
▁रामायण	-5648
▁निर्णयों	-5649
▁व्युत्पन्न	-5650
tr	-5651
▁ऑफ़	-5652
▁परेशान	-5653
▁विनिया	-5654
▁कम्	-5655
▁खुला	-5656
▁नकदी	-5657
ानुभूति	-5658
▁विष्णु	-5659
▁अनुमोदित	-5660
▁खर्	-5661
▁मोटे	-5662
▁प्रोटोक	-5663
▁संकल्पना	-5664
▁बंबई	-5665
▁मौका	-5666
▁चेन्न	-5667
▁तदनुसार	-5668
▁अध्यक्षता	-5669
डो	-5670
िमा	-5671
ोपण	-5672
▁डो	-5673
नाइट	-5674
▁ताज	-5675
▁मस्	-5676
▁अर्ज	-5677
▁दशकों	-5678
▁क़्यों	-5679
दूरी	-5680
▁सोने	-5681
▁मंजूरी	-5682
▁आमंत्रित	-5683
▁पारस्परिक	-5684
▁वाम	-5685
▁सहेज	-5686
▁शासित	-5687
▁प्रबंधक	-5688
सेस	-5689
▁अहं	-5690
▁पाना	-5691
▁बचने	-5692
▁बयान	-5693
▁संगणक	-5694
▁अन्तिम	-5695
▁व्याख्यान	-5696
▁पन	-5697
भाषण	-5698
ोसिए	-5699
▁किल	-5700
▁खबर	-5701
▁बचाने	-5702
▁सौंदर	-5703
▁मानदंड	-5704
▁व्यस्त	-5705
▁समर्पण	-5706
▁क्रेडिट	-5707
▁वैयक्तिक	-5708
▁नल	-5709
▁बनना	-5710
▁स्टा	-5711
▁तुम्हारी	-5712
सार	-5713
▁कच	-5714
▁लोप	-5715
▁लिखते	-5716
▁विन्यास	-5717
▁सितम्बर	-5718
▁लक्ष्यों	-5719
ंर	-5720
चाप	-5721
ेंच	-5722
क्कर	-5723
▁वजन	-5724
संख्य	-5725
▁टीका	-5726
▁साक्षा	-5727
छा	-5728
ूण	-5729
एमई	-5730
बीर	-5731
मंड	-5732
▁बलि	-5733
▁काली	-5734
▁दांडिक	-5735
▁सुश्री	-5736
▁हथियार	-5737
खर	-5738
डि	-5739
कीन	-5740
ष्म	-5741
ांसी	-5742
▁खनिज	-5743
▁टॉ	-5744
▁ढल	-5745
▁तारा	-5746
▁अनन्त	-5747
▁गर्मी	-5748
▁विकासशील	-5749
णित	-5750
ुरत	-5751
▁उपरो	-5752
ियुक्त	-5753
▁चलाया	-5754
▁संगणना	-5755
णि	-5756
१४	-5757
आईआर	-5758
▁लगाए	-5759
▁वरन्	-5760
▁शाखाओं	-5761
▁इंजीनियरी	-5762
▁आदर	-5763
▁गलती	-5764
▁भाग्य	-5765
▁उद्यमों	-5766
▁पेर	-5767
▁दौड़	-5768
▁रासाय	-5769
▁अवसंरचना	-5770
▁नर्म	-5771
प्राप्त	-5772
▁पुराना	-5773
▁चाहूंगा	-5774
▁परंपरागत	-5775
दू	-5776
ाधिक	-5777
▁आवि	-5778
▁फुट	-5779
▁मौत	-5780
▁इसको	-5781
▁विजे	-5782
व्यापी	-5783
▁कवियों	-5784
▁रिजर्व	-5785
▁खर	-5786
▁वासी	-5787
▁तीर्थ	-5788
▁स्वप्न	-5789
▁आकांक्षा	-5790
▁अभिव्यक्त	-5791
हता	-5792
▁सबूत	-5793
कारिता	-5794
▁अग्नि	-5795
▁अंतरित	-5796
▁इन्द्र	-5797
▁अधीनस्थ	-5798
▁सेवानिवृ	-5799
ामिन	-5800
▁ऊंची	-5801
▁टर्म	-5802
▁पैनल	-5803
▁पॉ	-5804
▁डिप	-5805
▁आंकड़े	-5806
▁पंजाबी	-5807
▁बल्लेबाज	-5808
▁छत	-5809
▁जॉ	-5810
▁रन	-5811
▁समू	-5812
▁मोहन	-5813
▁निकलने	-5814
▁देवताओं	-5815
▁सृजित	-5816
▁रचनाओं	-5817
१क	-5818
▁अद्व	-5819
▁त्रि	-5820
▁पाठक	-5821
▁स्वै	-5822
▁हरिया	-5823
▁उपरोक्त	-5824
▁मं	-5825
▁विट	-5826
▁संयोजन	-5827
▁पेट्रोल	-5828
▁आभ	-5829
▁आजाद	-5830
▁पारि	-5831
▁वैष्ण	-5832
▁दिखाएँ	-5833
▁अभियोजन	-5834
▁सम्मानित	-5835
aa	-5836
▁अक्षर	-5837
ार्थियों	-5838
▁पचास	-5839
▁रिज़	-5840
▁संचित	-5841
▁संग्रहण	-5842
▁पुस्तकालय	-5843
श्रे	-5844
▁हड़	-5845
स्तीन	-5846
▁टेक्	-5847
▁वन्य	-5848
▁निरूप	-5849
▁जानवरों	-5850
▁प्रशिक्षित	-5851
िथ	-5852
विन	-5853
▁अवर	-5854
▁किश	-5855
स्तीनी	-5856
▁लाभों	-5857
▁नारायण	-5858
▁नियंत्रक	-5859
▁पुस्तकें	-5860
▁रासायनिक	-5861
▁विनियामक	-5862
िनल	-5863
विंद	-5864
्रेम	-5865
▁नती	-5866
शुल्क	-5867
▁लिखना	-5868
▁उपग्रह	-5869
▁प्रोटीन	-5870
▁मेज	-5871
▁दांत	-5872
▁सेंट	-5873
▁अनुया	-5874
▁अधिवेशन	-5875
स्टर	-5876
▁धूम	-5877
▁तीसरी	-5878
ूँगा	-5879
▁कमीशन	-5880
▁प्राइ	-5881
▁बडा	-5882
▁स्पर्श	-5883
्फ	-5884
ध्व	-5885
▁at	-5886
▁दमन	-5887
▁वेश	-5888
▁श्रो	-5889
ानाथ	-5890
▁भिन्	-5891
▁होटल	-5892
▁अपितु	-5893
▁तुमने	-5894
▁संतुष्ट	-5895
▁अंग्रेज़ी	-5896
तो	-5897
▁गर्भा	-5898
▁शिल्प	-5899
▁कविताओं	-5900
पर्य	-5901
▁ऊंचे	-5902
▁लगने	-5903
▁परिश्रम	-5904
▁पूर्णता	-5905
▁स्कूलों	-5906
uot	-5907
▁कहे	-5908
▁एण्ड	-5909
▁क्यू	-5910
▁जाया	-5911
▁तत्स	-5912
▁विषा	-5913
▁फसलों	-5914
▁बताते	-5915
ण्डल	-5916
ेनिस	-5917
▁कृत्य	-5918
▁छुट्टी	-5919
▁परिकल्पना	-5920
वेट	-5921
▁बटन	-5922
▁आकर्षण	-5923
▁निष्पक्ष	-5924
▁पूर्णतया	-5925
ूनी	-5926
र्मी	-5927
▁दलों	-5928
▁निचले	-5929
▁परिपक्व	-5930
▁सैनिकों	-5931
▁सौंदर्य	-5932
▁शर	-5933
ूकता	-5934
▁तंग	-5935
▁विधा	-5936
▁आवेदक	-5937
▁प्रेमच	-5938
▁विधायी	-5939
▁सम्पन्न	-5940
▁कार्यालयों	-5941
im	-5942
सेट	-5943
ैंक	-5944
▁of	-5945
कारा	-5946
पीसी	-5947
▁हिल	-5948
▁कराई	-5949
▁मरम्मत	-5950
▁उन्होनें	-5951
▁स्वाधीनता	-5952
पोषण	-5953
ेडकर	-5954
▁ग्रे	-5955
▁सबके	-5956
▁ग्रस्त	-5957
▁प्रभार्य	-5958
मो	-5959
साई	-5960
िक्र	-5961
▁जगत	-5962
▁लम्बे	-5963
▁शर्तें	-5964
तना	-5965
▁एक्	-5966
▁जुट	-5967
▁संभ	-5968
▁ह्र	-5969
▁विस्फोट	-5970
▁सार्वभौ	-5971
टो	-5972
बाई	-5973
तकों	-5974
▁अमल	-5975
▁ज़ि	-5976
क्षरता	-5977
▁यहूदी	-5978
▁चित्रण	-5979
▁समर्थित	-5980
▁सहानुभूति	-5981
▁फिलीस्तीनी	-5982
एक	-5983
गें	-5984
▁उपज	-5985
▁तरल	-5986
▁सज्	-5987
▁प्रव	-5988
▁कनाडा	-5989
▁क्रांतिकारी	-5990
दूत	-5991
▁आधा	-5992
▁मिटा	-5993
▁अभिभाषण	-5994
▁लेखापरी	-5995
▁असी	-5996
▁विधियां	-5997
चिक	-5998
▁बसव	-5999
▁मील	-6000
▁प्रतिस्पर्धा	-6001
▁सूजन	-6002
▁कमांड	-6003
दर्शिता	-6004
▁विदेशों	-6005
▁वास्तविकता	-6006
शाही	-6007
▁दाम	-6008
▁नर्स	-6009
▁बनाती	-6010
▁विधाय	-6011
ुश	-6012
▁सफलतापूर्वक	-6013
ैस	-6014
खिक	-6015
हाल	-6016
▁सोल	-6017
▁प्राणी	-6018
▁संदत्त	-6019
▁जाह	-6020
▁ठाक	-6021
▁मंडप	-6022
▁इन्हीं	-6023
▁बहादुर	-6024
▁वृत्ति	-6025
▁प्रावधानों	-6026
पश्च	-6027
▁इंत	-6028
▁अव्य	-6029
▁क्रय	-6030
▁भरने	-6031
▁सकने	-6032
▁मुकाबले	-6033
ढ़ा	-6034
▁पीने	-6035
▁शादी	-6036
त्तियों	-6037
क्ल	-6038
शित	-6039
वाणी	-6040
▁आधे	-6041
▁घात	-6042
▁नमक	-6043
▁कारख	-6044
▁कलाकार	-6045
▁बहन	-6046
▁शेर	-6047
▁आपदा	-6048
▁जानना	-6049
▁निपटने	-6050
▁महासागर	-6051
ल्फ	-6052
▁शरण	-6053
▁इनपुट	-6054
▁सार्थ	-6055
▁अनुज्ञा	-6056
▁टेलीफोन	-6057
▁बुक	-6058
▁सोचते	-6059
▁स्ट्र	-6060
▁वितरित	-6061
▁समस्याएं	-6062
ालों	-6063
▁बढा	-6064
▁अवकाश	-6065
▁जागरूकता	-6066
▁हिन्दुस्तान	-6067
▁मुलाकात	-6068
▁तत्कालीन	-6069
▁स्वचालित	-6070
os	-6071
▁इक	-6072
यंती	-6073
▁आमदनी	-6074
▁भत्ता	-6075
व्यवहार	-6076
▁नवान्वेष	-6077
▁उत्पादकता	-6078
▁कम्प्यूटर	-6079
▁बढ़ता	-6080
▁भागीदार	-6081
िट्	-6082
हवीं	-6083
▁अड्ड	-6084
▁संगत	-6085
▁थोड़े	-6086
▁रूपये	-6087
▁अनुशासन	-6088
▁वनस्पति	-6089
किम	-6090
गित	-6091
▁धान	-6092
▁स्न	-6093
ुक़्त	-6094
▁मानस	-6095
▁वैसा	-6096
▁मिश्रित	-6097
▁एजेंसियों	-6098
us	-6099
▁विघ	-6100
नीतिक	-6101
▁जल्द	-6102
▁मोड़	-6103
तापूर्वक	-6104
▁रूपरेखा	-6105
▁कार्यकारी	-6106
ृंग	-6107
▁vi	-6108
▁रॉ	-6109
▁लड	-6110
▁रवि	-6111
▁स्वि	-6112
▁ट्रेड	-6113
▁नमूने	-6114
▁भरपूर	-6115
▁अप्रत्य	-6116
▁मुहम्मद	-6117
▁रिज़र्व	-6118
▁गिरफ्तारी	-6119
र्ता	-6120
▁प्य	-6121
▁आन्द	-6122
▁कारगर	-6123
▁भरोसा	-6124
▁प्रयोक्ता	-6125
▁ढेर	-6126
▁फ़ॉ	-6127
▁नौकर	-6128
▁मानने	-6129
बु	-6130
िफ	-6131
वत्	-6132
▁अरबी	-6133
▁दत्त	-6134
▁उन्हे	-6135
▁देखिए	-6136
▁पड़ने	-6137
घन	-6138
ूलन	-6139
▁एप	-6140
▁बाढ़	-6141
▁सर्वप्र	-6142
▁उत्कृष्टता	-6143
▁घन	-6144
डीएफ	-6145
ादेश	-6146
ायिक	-6147
▁जरा	-6148
दृश्य	-6149
▁खुली	-6150
▁दिल्	-6151
▁पार्ट	-6152
▁ज्ञापन	-6153
ंचल	-6154
▁अफ़	-6155
▁यों	-6156
▁इराक	-6157
▁000	-6158
▁कंट	-6159
▁चित	-6160
▁अतिक	-6161
▁शस्त्र	-6162
▁व्यष्टि	-6163
▁प्रविष्ट	-6164
▁चक	-6165
चेंज	-6166
▁मैच	-6167
▁निर्ण	-6168
▁मिलना	-6169
▁परिणामों	-6170
काव	-6171
▁सकी	-6172
▁बैठा	-6173
▁स्ने	-6174
▁उपभोग	-6175
▁लाखों	-6176
▁मजदूरी	-6177
भु	-6178
▁ठे	-6179
वानी	-6180
▁राधा	-6181
▁जंगली	-6182
▁जिलों	-6183
▁कनेक्ट	-6184
▁जरूरतों	-6185
▁नाबार्ड	-6186
▁रै	-6187
▁सदनों	-6188
▁अधिसूचित	-6189
▁वर्गीकरण	-6190
वीय	-6191
ोरम	-6192
▁बहि	-6193
मित्त	-6194
▁आजकल	-6195
▁यहीं	-6196
▁जयंती	-6197
▁परिसी	-6198
▁कार्बन	-6199
▁पुनर्ग	-6200
मेह	-6201
रोग	-6202
▁नु	-6203
र्फ़	-6204
▁बेस	-6205
▁आवश्य	-6206
▁शुरूआ	-6207
▁स्थूल	-6208
▁बढ़ाना	-6209
▁राष्ट्री	-6210
ay	-6211
टकों	-6212
▁चिर	-6213
▁उठाना	-6214
▁अफगानिस्तान	-6215
ड्र	-6216
▁बर्फ	-6217
▁शोषण	-6218
▁समता	-6219
▁मराठी	-6220
▁हानिक	-6221
▁आँख	-6222
▁बड़	-6223
▁राजी	-6224
▁उपदेश	-6225
▁आनुवंश	-6226
▁पार्श्व	-6227
▁शास्त्री	-6228
▁बत	-6229
ासित	-6230
▁केश	-6231
▁बाय	-6232
▁सोम	-6233
चरिता	-6234
▁चौथा	-6235
▁भ्रम	-6236
▁मोर्	-6237
▁दूरस्थ	-6238
द्दी	-6239
▁जोड़ें	-6240
▁गणतंत्र	-6241
▁तप	-6242
▁एमएस	-6243
▁सफाई	-6244
▁मिस्र	-6245
▁वाक्य	-6246
▁साक्ष	-6247
▁अधिकृत	-6248
▁डिजिटल	-6249
▁सम्राट	-6250
्ह	-6251
राक	-6252
▁गोद	-6253
▁दया	-6254
▁कराता	-6255
▁समझना	-6256
▁एकत्रित	-6257
▁सिफारिशों	-6258
एगा	-6259
▁दंत	-6260
▁गोली	-6261
▁विलय	-6262
▁इंकार	-6263
▁कीजिए	-6264
▁सुचरिता	-6265
▁पहुंचाने	-6266
पद	-6267
▁देह	-6268
▁नाक	-6269
ख़्या	-6270
▁किमी	-6271
▁बताने	-6272
▁इलाकों	-6273
▁यात्री	-6274
▁स्वदेश	-6275
▁अवमानना	-6276
▁ग्ल	-6277
▁नाय	-6278
▁औषधि	-6279
क्रामक	-6280
त्रियों	-6281
▁विडियो	-6282
▁संग्राम	-6283
▁सौभाग्य	-6284
▁राजमार्ग	-6285
▁बांग्लादेश	-6286
मेट	-6287
▁फेंक	-6288
▁सीधी	-6289
▁नोटिस	-6290
▁अतिमान	-6291
▁खरीदने	-6292
▁स्रोतों	-6293
▁निर्वाचित	-6294
▁ः	-6295
▁छू	-6296
▁नो	-6297
▁घुट	-6298
▁घोष	-6299
▁घृणा	-6300
▁चिंतन	-6301
▁ज्यादातर	-6302
▁ओपन	-6303
स्मिक	-6304
▁डाले	-6305
▁सबको	-6306
▁आंखों	-6307
▁पुष्प	-6308
षेध	-6309
सास	-6310
मुखी	-6311
▁भूख	-6312
▁वृत्त	-6313
▁दस्तावेज़	-6314
▁कंध	-6315
▁आकृति	-6316
▁दुर्लभ	-6317
पार	-6318
शब्द	-6319
▁पढ़ाई	-6320
▁मस्जि	-6321
बरा	-6322
रीन	-6323
▁टक	-6324
▁ग्रन्थ	-6325
▁निराशा	-6326
▁निवेशकों	-6327
▁नं	-6328
ताएं	-6329
ल्ली	-6330
्यूशन	-6331
▁टाइप	-6332
▁भव्य	-6333
▁जानवर	-6334
▁किराया	-6335
▁बुलाया	-6336
ur	-6337
मिन	-6338
▁दह	-6339
णुओं	-6340
वकों	-6341
▁वरीय	-6342
क्तियों	-6343
▁अपीलार्थी	-6344
टाई	-6345
▁पान	-6346
▁लाह	-6347
▁प्लग	-6348
च्छेदन	-6349
स्थापन	-6350
▁प्राप	-6351
▁वैष्णव	-6352
▁उपलब्धियों	-6353
ब्बे	-6354
▁आईसी	-6355
▁सिरे	-6356
▁अंगों	-6357
▁टेनिस	-6358
▁इस्लामवादी	-6359
्चर	-6360
त्रि	-6361
▁बोझ	-6362
निहित	-6363
▁मेहन	-6364
▁सर्वप्रथम	-6365
१५	-6366
मों	-6367
▁टैगोर	-6368
्रदायिक	-6369
▁एशियाई	-6370
▁आकस्मिक	-6371
▁उपनिवेश	-6372
▁श्रद्धा	-6373
▁क़्योंकि	-6374
▁an	-6375
▁बैक	-6376
ंबेडकर	-6377
▁तालाब	-6378
▁इस्पात	-6379
ंय	-6380
जक	-6381
ड्	-6382
्यक	-6383
म्मा	-6384
▁नजदी	-6385
▁लम्बी	-6386
▁जैसाकि	-6387
▁प्रतिनिधियों	-6388
ल्ह	-6389
शनी	-6390
▁अँ	-6391
▁निभ	-6392
▁सुदूर	-6393
▁आकर्षक	-6394
▁अप्रत्यक्ष	-6395
▁गुट	-6396
▁बीत	-6397
▁ऊंचा	-6398
ter	-6399
किट	-6400
▁ठहर	-6401
▁पोष	-6402
संचार	-6403
▁लाभा	-6404
▁निक्ष	-6405
▁सच्चे	-6406
▁अकादमी	-6407
▁अन्याय	-6408
▁विकलांग	-6409
▁कर्तव्यों	-6410
पाई	-6411
लील	-6412
िणी	-6413
▁नम	-6414
▁उदय	-6415
▁एक्ट	-6416
▁ढूंढ	-6417
▁बचपन	-6418
▁अभिने	-6419
▁अनुकरण	-6420
▁इंदिरा	-6421
▁नियोजन	-6422
▁प्रतिलिप	-6423
▁विज्ञापन	-6424
ुड	-6425
▁सेशन	-6426
▁कमेटी	-6427
▁खासकर	-6428
▁समीकरण	-6429
▁संस्थागत	-6430
ोहर	-6431
▁जबर	-6432
▁जोड़े	-6433
▁सशस्त्र	-6434
▁प्रतिवर्ष	-6435
मस	-6436
भुत	-6437
▁एससीसी	-6438
▁बिन्दु	-6439
▁समकालीन	-6440
▁सुधारने	-6441
ैक्ट	-6442
▁यौन	-6443
▁डालर	-6444
▁असंभव	-6445
▁यूनियन	-6446
▁भ्रष्टा	-6447
ab	-6448
उन	-6449
लाल	-6450
ंबित	-6451
ृश्य	-6452
▁खार	-6453
▁वसा	-6454
▁नज़र	-6455
▁फूलों	-6456
AME	-6457
िवी	-6458
▁गंध	-6459
▁अपूर्ण	-6460
▁अहिंसा	-6461
▁उत्सुक	-6462
▁कृत्यों	-6463
▁ओब	-6464
▁शेख	-6465
हाबाद	-6466
▁इनकार	-6467
▁उत्सव	-6468
▁संघीय	-6469
▁स्वर्ग	-6470
▁अवस्थित	-6471
▁चरम	-6472
▁मक्	-6473
▁अमृत	-6474
▁विकि	-6475
▁महान्	-6476
▁त्रुटिः	-6477
जाम	-6478
णता	-6479
▁दम	-6480
▁कोने	-6481
▁भीड़	-6482
▁हुये	-6483
▁संकलन	-6484
▁इसलिये	-6485
स्थल	-6486
▁टैब	-6487
▁पते	-6488
▁ह्य	-6489
▁पेशी	-6490
▁सुपु	-6491
ोसिएशन	-6492
▁नमूना	-6493
▁माहौल	-6494
▁संव्यवहार	-6495
फ्र	-6496
बीन	-6497
ूरो	-6498
▁पेय	-6499
▁वें	-6500
ुपयोग	-6501
▁देनी	-6502
▁निस्	-6503
क्साइड	-6504
▁प्रत्यर्थी	-6505
लित	-6506
▁घाव	-6507
▁मंग	-6508
▁सहभाग	-6509
▁सामुद	-6510
▁उन्नयन	-6511
▁प्रतिरक्षा	-6512
▁सांप्रदायिक	-6513
ोगे	-6514
▁सड़कों	-6515
ोश	-6516
ोला	-6517
श्रेष्ठ	-6518
▁निर्गम	-6519
▁निमित्त	-6520
▁सदस्यता	-6521
▁पूर्वोक्त	-6522
▁गठ	-6523
▁चिन	-6524
सिद्ध	-6525
▁बम्बई	-6526
▁गोपनीय	-6527
▁परिसंप	-6528
▁वक्तव्य	-6529
खाव	-6530
हारी	-6531
▁कच्चे	-6532
▁सोचने	-6533
▁प्रसंग	-6534
▁अनुभूति	-6535
▁हरियाणा	-6536
▁फू	-6537
▁कबीर	-6538
▁पुराण	-6539
▁शिष्ट	-6540
▁सांवि	-6541
▁अनिवासी	-6542
▁सुधारों	-6543
ज़न	-6544
▁छः	-6545
िकता	-6546
▁सोव	-6547
▁हर्ष	-6548
▁गाँधी	-6549
▁समेकित	-6550
▁कहानियों	-6551
टित	-6552
द्म	-6553
वीर	-6554
▁रम	-6555
शंकर	-6556
सूत्र	-6557
▁नामा	-6558
▁हमले	-6559
▁क्रूर	-6560
▁ठाकुर	-6561
▁पुनरीक्षण	-6562
▁उत्तराधिकार	-6563
वेल	-6564
ोसी	-6565
रानी	-6566
प्रति	-6567
▁माँग	-6568
▁समापन	-6569
▁आउटपुट	-6570
▁स्त्रो	-6571
ँह	-6572
परक	-6573
▁भेजी	-6574
▁अवधारण	-6575
▁नेताजी	-6576
▁लाभांश	-6577
▁शुरूआत	-6578
▁दूरसंचार	-6579
नीत	-6580
शनल	-6581
▁गेह	-6582
▁मारे	-6583
▁असफलता	-6584
▁नाटकों	-6585
▁सिर्फ़	-6586
▁राजकुमार	-6587
▁प्रतिबद्धता	-6588
२क	-6589
बिल	-6590
▁केस	-6591
▁गिन	-6592
▁मुक	-6593
▁लोह	-6594
▁विच	-6595
दर्शक	-6596
▁कोमल	-6597
▁मेगा	-6598
▁रहीं	-6599
▁काफ़ी	-6600
▁मूत्र	-6601
▁मिथ्या	-6602
पाट	-6603
बन्धन	-6604
▁सन्द	-6605
▁कौंसिल	-6606
▁समाजवादी	-6607
hr	-6608
▁नवा	-6609
▁वहन	-6610
▁प्ला	-6611
▁विधवा	-6612
▁निर्देशों	-6613
हृ	-6614
▁भेदभाव	-6615
▁सच्चाई	-6616
▁सत्यापन	-6617
▁क्रियान्वयन	-6618
कोष	-6619
▁बेश	-6620
गारों	-6621
▁अपार	-6622
▁असंत	-6623
▁अहमद	-6624
▁नायक	-6625
▁बेटे	-6626
▁अपनाई	-6627
▁दरबार	-6628
▁आंकड़ों	-6629
▁माइक्रो	-6630
▁विटामिन	-6631
▁फिलीस्तीन	-6632
्टे	-6633
▁टि	-6634
१वीं	-6635
▁बिर	-6636
▁हंस	-6637
▁छिपा	-6638
▁परित	-6639
विश्वास	-6640
▁अभिदाय	-6641
▁टाइम्स	-6642
▁राजपत्र	-6643
ठार	-6644
▁माउ	-6645
मूल्य	-6646
▁मंगल	-6647
▁जाहिर	-6648
▁न्यूय	-6649
▁सारणी	-6650
▁उद्भूत	-6651
▁पेटेंट	-6652
▁महाद्वीप	-6653
▁साक्षरता	-6654
▁केन्द्रों	-6655
▁साक्षात्कार	-6656
ैंट	-6657
▁खज	-6658
▁अक्ट	-6659
▁तुम्हारा	-6660
▁पुनर्वास	-6661
▁अधिनियमित	-6662
▁पेट्रोलियम	-6663
▁उधर	-6664
▁घुस	-6665
▁विस	-6666
पोरेट	-6667
संदेह	-6668
▁किंग	-6669
▁ब्यौ	-6670
▁पब्लिक	-6671
▁प्रबन्ध	-6672
▁मजदूरों	-6673
गुण	-6674
फ़ा	-6675
▁तह	-6676
▁कोर	-6677
क्रिप	-6678
▁अजीब	-6679
▁आचार	-6680
▁एससी	-6681
▁सेवक	-6682
▁राजाओं	-6683
▁हिस्सों	-6684
▁मंत्रियों	-6685
▁भ्रष्टाचार	-6686
▁ar	-6687
▁आर्य	-6688
▁आवरण	-6689
▁आन्दोलन	-6690
▁निकायों	-6691
▁पक्षियों	-6692
कोट	-6693
▁उग	-6694
▁हॉ	-6695
ेन्ट	-6696
▁गरि	-6697
▁थोड	-6698
▁निल	-6699
▁पीछला	-6700
▁आधिकार	-6701
▁जिंदगी	-6702
▁अधिनिर्	-6703
▁उन्मूलन	-6704
▁iv	-6705
▁राव	-6706
▁क्री	-6707
▁ग्रीन	-6708
▁बताना	-6709
▁हड्डी	-6710
▁विस्तारित	-6711
▁संवेदनशील	-6712
ॉल्ट	-6713
▁नोक	-6714
▁शराब	-6715
▁रोगियों	-6716
▁हिन्दुओं	-6717
महल	-6718
भक्त	-6719
भूषण	-6720
▁गूगल	-6721
▁नींव	-6722
▁पागल	-6723
▁पुनर	-6724
▁रंगम	-6725
▁रोचक	-6726
परिवर्	-6727
▁प्रसव	-6728
▁बताता	-6729
▁श्रद्ध	-6730
▁मोहम्मद	-6731
▁शिकायतों	-6732
शक	-6733
टने	-6734
स्पी	-6735
▁लाई	-6736
▁चलती	-6737
▁पादप	-6738
▁खोजने	-6739
तापूर्ण	-6740
▁अज्ञान	-6741
▁अभिकरण	-6742
▁गज	-6743
▁गड़	-6744
दाबाद	-6745
पोर्ट	-6746
▁पराज	-6747
▁कर्ता	-6748
▁पृथक्	-6749
ce	-6750
पटल	-6751
बूझ	-6752
▁वध	-6753
▁गम्	-6754
▁नक्	-6755
चंद्र	-6756
▁गाँव	-6757
▁धर्मों	-6758
▁ब्रह्मा	-6759
▁सर्वश्रेष्ठ	-6760
गंध	-6761
▁उठता	-6762
▁देगी	-6763
▁वर्न	-6764
▁असमान	-6765
▁सार्थक	-6766
▁पूर्वोत्तर	-6767
यू	-6768
रता	-6769
▁दब	-6770
ोत्तर	-6771
▁मामूली	-6772
▁अक्टूबर	-6773
▁आश्वासन	-6774
▁उपयोक्ता	-6775
▁निर्देशित	-6776
▁मैत्रीपूर्ण	-6777
▁पहच	-6778
▁बृह	-6779
▁रसी	-6780
▁अनाव	-6781
▁निभाई	-6782
▁इकट्ठा	-6783
▁मधुमेह	-6784
▁मुहैया	-6785
▁सामर्थ	-6786
▁सम्बद्ध	-6787
ैत	-6788
रखाव	-6789
▁अद्	-6790
▁कदा	-6791
▁रेगि	-6792
▁सिखा	-6793
▁उपाधि	-6794
▁बकाया	-6795
▁स्वाय	-6796
भूतियों	-6797
▁निर्धन	-6798
▁सर्विस	-6799
▁पुनर्गठन	-6800
▁किलोग्राम	-6801
षी	-6802
खार	-6803
▁टो	-6804
▁शब्	-6805
लियों	-6806
▁अनुर	-6807
▁एनआई	-6808
▁सन्न	-6809
▁कब्जा	-6810
▁निर्वहन	-6811
▁प्रजाति	-6812
▁मनोरंजन	-6813
▁प्रस्तावों	-6814
▁घाट	-6815
▁दाह	-6816
▁कामका	-6817
▁कीटना	-6818
▁स्नेह	-6819
▁समायोजन	-6820
▁अधिकाधिक	-6821
▁अनिश्चित	-6822
▁मुख्यालय	-6823
oc	-6824
चलन	-6825
बरी	-6826
ोन्	-6827
ष्कृत	-6828
▁बेहद	-6829
▁ओबामा	-6830
▁गरिमा	-6831
▁लार्ड	-6832
▁श्रेण	-6833
▁रखरखाव	-6834
▁स्नातक	-6835
▁गर्भाशय	-6836
▁पुरुषों	-6837
▁एक्सचेंज	-6838
ut	-6839
कोर	-6840
चेतन	-6841
▁विभेद	-6842
▁सौंपा	-6843
निर्देश	-6844
▁जीवाणु	-6845
▁पंचायत	-6846
▁रिश्ते	-6847
▁विधानमंडल	-6848
ंकी	-6849
▁सुप	-6850
▁गीतों	-6851
▁निरसित	-6852
▁स्थिरता	-6853
▁मनुष्यों	-6854
▁हाई	-6855
योग्य	-6856
▁समाह	-6857
▁आश्रम	-6858
▁कोयला	-6859
▁डॉक्टर	-6860
▁उपबंधित	-6861
▁काउंसिल	-6862
वैज्ञानिक	-6863
▁निर्माता	-6864
ब्ब	-6865
्याल	-6866
▁पदा	-6867
▁इंगित	-6868
▁प्रगा	-6869
▁बच्चन	-6870
▁मौखिक	-6871
▁रोशनी	-6872
▁स्टार	-6873
▁पहुँचा	-6874
▁साझीदारी	-6875
▁झग	-6876
शिंग	-6877
▁बिग	-6878
▁मरी	-6879
▁कॉपी	-6880
▁दौरा	-6881
▁संवेदना	-6882
▁कठिनाइयों	-6883
▁संस्थापित	-6884
डों	-6885
ुतोष	-6886
▁बिन	-6887
त्स्य	-6888
▁अभिल	-6889
▁समझी	-6890
क्टरों	-6891
▁अभियोग	-6892
▁प्रदाह	-6893
▁आधिकारिक	-6894
▁स्वीकार्य	-6895
मैन	-6896
हरण	-6897
ुद्व	-6898
▁आगमन	-6899
▁गोवा	-6900
▁आशंका	-6901
▁मनाया	-6902
▁गम्भीर	-6903
▁नीतिगत	-6904
▁इलाहाबाद	-6905
▁उत्सर्जन	-6906
▁सत्याग्रह	-6907
ंडे	-6908
▁रोड	-6909
▁हैस	-6910
शियों	-6911
▁क्ला	-6912
▁दरों	-6913
▁आवासी	-6914
▁ज़रूरत	-6915
▁झिल्ली	-6916
▁मांसपेश	-6917
▁आयुर्वेद	-6918
▁बही	-6919
▁चुंब	-6920
▁खर्चे	-6921
▁शर्मा	-6922
▁अब्दुल	-6923
▁चौड़ाई	-6924
▁बाज़ार	-6925
▁मुद्दा	-6926
▁दीक्षांत	-6927
लाइ	-6928
▁पतन	-6929
▁बोला	-6930
▁सुलझ	-6931
▁तिहाई	-6932
▁निंदा	-6933
▁शास्ति	-6934
▁तत्पश्च	-6935
▁हिंदुओं	-6936
नें	-6937
मीन	-6938
िश्र	-6939
▁भूक	-6940
▁सिने	-6941
▁सालों	-6942
▁वरीयता	-6943
▁संकीर्ण	-6944
▁सूचीबद्ध	-6945
▁माध	-6946
▁श्रील	-6947
▁नियन्त	-6948
▁पुत्री	-6949
▁उपयोगिता	-6950
▁प्रक्षेप	-6951
डऋ	-6952
पटा	-6953
▁माय	-6954
क्तता	-6955
▁तमाम	-6956
▁ध्रु	-6957
▁परिन	-6958
▁बेचने	-6959
▁मजबूर	-6960
▁बादशाह	-6961
▁अनुभवों	-6962
▁प्रोटोकॉल	-6963
▁विशेषाधिकार	-6964
ow	-6965
▁बढ़े	-6966
▁रहकर	-6967
▁हफ्त	-6968
▁आगामी	-6969
▁सोचता	-6970
्यात्मक	-6971
▁पेशेवर	-6972
▁स्वच्छता	-6973
्रेषण	-6974
▁द्रव	-6975
▁विरा	-6976
▁विषयक	-6977
▁साकार	-6978
▁एल्गोर	-6979
▁इंजीनियरिंग	-6980
▁बट	-6981
▁अश्व	-6982
▁नारी	-6983
▁बेटी	-6984
ेन्द्र	-6985
▁बंगला	-6986
▁नवीकरण	-6987
▁निरन्तर	-6988
▁नाल	-6989
▁फेफ	-6990
ान्तर	-6991
▁उपास	-6992
▁जगत्	-6993
▁तृतीय	-6994
▁दुग्ध	-6995
▁संकाय	-6996
▁विख्यात	-6997
▁विशेषज्ञों	-6998
िज़	-6999
▁गले	-7000
▁डेस्	-7001
▁मुँह	-7002
▁फायदे	-7003
▁निधियों	-7004
▁पर्यटकों	-7005
▁लड़कियों	-7006
▁देशवासियों	-7007
बाल	-7008
▁आदत	-7009
▁हरी	-7010
▁आघात	-7011
▁घटित	-7012
▁बांस	-7013
्याप्त	-7014
▁आजीवन	-7015
▁आशुतोष	-7016
▁छोड़ने	-7017
ब्ध	-7018
ोरों	-7019
▁भरत	-7020
▁सना	-7021
▁अशोक	-7022
▁आलेख	-7023
▁सब्ज	-7024
▁सुगम	-7025
▁जर्मन	-7026
▁मस्जिद	-7027
▁रंगमंच	-7028
▁डब्ल्यू	-7029
▁प्रगाढ़	-7030
▁सहभागिता	-7031
हि	-7032
जुट	-7033
सन्द	-7034
ापुर	-7035
▁अनू	-7036
▁ऊँचा	-7037
▁रोका	-7038
▁रोज़	-7039
▁उड़ान	-7040
दिता	-7041
▁लौटने	-7042
▁उन्नति	-7043
▁अध्यापक	-7044
▁अवधारित	-7045
▁औरत	-7046
▁धूल	-7047
▁कन्न	-7048
▁कहती	-7049
▁समाम	-7050
▁सेवन	-7051
▁किराए	-7052
▁मेहनत	-7053
▁स्मारक	-7054
मै	-7055
केल	-7056
▁छे	-7057
▁कां	-7058
▁शीत	-7059
▁कर्ज	-7060
▁बॉक्स	-7061
▁शब्दा	-7062
▁सुनकर	-7063
▁पीडीएफ	-7064
▁जॉन	-7065
▁अण्ड	-7066
▁खोलें	-7067
▁जैविक	-7068
▁स्थलों	-7069
▁विनियमित	-7070
▁श्रीलंका	-7071
▁स्वतन्त्र	-7072
▁गत	-7073
देवी	-7074
▁सटी	-7075
▁रोमा	-7076
▁ग्यार	-7077
▁महानि	-7078
▁स्टॉक	-7079
▁सांख्य	-7080
▁सुपुर्द	-7081
▁परिदृश्य	-7082
▁दायित्वों	-7083
मलव	-7084
▁हटाया	-7085
▁संचिका	-7086
▁केन्द्रित	-7087
जाज	-7088
न्ता	-7089
बाबू	-7090
ार्द	-7091
▁कड़	-7092
▁कों	-7093
▁रुक	-7094
ढ़ियों	-7095
रूद्दीन	-7096
▁तुरन्त	-7097
▁विकिरण	-7098
▁सृष्टि	-7099
▁टर्मिनल	-7100
▁स्वैच्छिक	-7101
▁अन्तर्राष्ट्रीय	-7102
मोहन	-7103
▁पटल	-7104
ड्यूल	-7105
▁बनकर	-7106
▁मणिप	-7107
▁रेशम	-7108
▁आश्रय	-7109
▁कपड़ा	-7110
▁त्रिप	-7111
▁साथियों	-7112
▁परियोजनाएं	-7113
▁कार्यकलापों	-7114
▁इट	-7115
▁भूट	-7116
▁डिफ़	-7117
▁खारिज	-7118
▁निकले	-7119
▁आपत्ति	-7120
▁दुरुपयोग	-7121
ीस	-7122
▁रेख	-7123
चित्य	-7124
▁क्षम	-7125
▁योनि	-7126
▁निर्दोष	-7127
ir	-7128
ोटी	-7129
▁चर्च	-7130
▁ज्या	-7131
▁एकजुट	-7132
▁पुनरा	-7133
जनात्मक	-7134
▁अवलोकन	-7135
▁डेस्कट	-7136
▁कुटुम्ब	-7137
▁दीवारों	-7138
▁मंत्रालयों	-7139
▁लेखापरीक्षा	-7140
दक	-7141
ओएस	-7142
हान	-7143
▁In	-7144
▁सैक	-7145
▁किले	-7146
▁रिवा	-7147
▁उपहार	-7148
▁दशमलव	-7149
▁व्याया	-7150
▁परिचालन	-7151
▁मूल्यवान	-7152
हम	-7153
बूती	-7154
▁मेड	-7155
▁स्वे	-7156
▁निदान	-7157
▁कार्यकाल	-7158
▁महानिदेश	-7159
▁घोर	-7160
बुद्ध	-7161
▁जिसमे	-7162
▁भारती	-7163
पेट	-7164
प्पा	-7165
▁इनसे	-7166
▁कॉर्	-7167
▁पूछता	-7168
▁मेमोरी	-7169
▁गंभीरता	-7170
▁प्रगतिशील	-7171
ेंडर	-7172
▁ध्य	-7173
हीनता	-7174
▁ईमानदारी	-7175
▁सामर्थ्य	-7176
▁पद्धतियों	-7177
म्बा	-7178
ूर्त	-7179
▁भगत	-7180
▁मेर	-7181
▁सूचक	-7182
▁प्रचुर	-7183
▁खिलाड़ी	-7184
▁डेस्कटॉप	-7185
▁विधानसभा	-7186
▁सामुदायिक	-7187
▁याचिकाकर्ता	-7188
गिक	-7189
िसा	-7190
मार्क	-7191
▁कॉन्	-7192
▁खातों	-7193
▁सचिवालय	-7194
▁स्थानांतरित	-7195
निष	-7196
न्च	-7197
लेखन	-7198
▁गयीं	-7199
▁लोगो	-7200
▁जीवंत	-7201
▁बोलने	-7202
▁स्नान	-7203
▁अंतरिम	-7204
▁पूर्वक	-7205
▁कंप्यूट	-7206
▁संतुलित	-7207
ंड़	-7208
▁ऋतु	-7209
▁गेट	-7210
▁मला	-7211
▁लची	-7212
▁व्यास	-7213
▁सभाओं	-7214
▁मित्रता	-7215
▁संक्रिया	-7216
ोई	-7217
▁re	-7218
▁आओ	-7219
▁अनंत	-7220
▁अन्तः	-7221
▁अभिन्न	-7222
▁निविदा	-7223
▁समाहित	-7224
▁निर्वाह	-7225
▁ऑप	-7226
▁खपत	-7227
▁प्रोफ	-7228
▁बदलें	-7229
▁मानों	-7230
▁कहलाता	-7231
▁ब्यूरो	-7232
▁अस्पष्ट	-7233
▁विचित्र	-7234
▁नरम	-7235
▁वसूल	-7236
▁हिमन	-7237
▁हैसियत	-7238
▁निर्माताओं	-7239
एव	-7240
ैम	-7241
▁उछ	-7242
▁१६	-7243
ट्टा	-7244
ृहीत	-7245
ोर्स	-7246
▁मुआ	-7247
▁लाए	-7248
▁घड़ी	-7249
▁निकालना	-7250
▁गतिविधियां	-7251
ाइड	-7252
▁आधी	-7253
▁टेल	-7254
▁नामों	-7255
▁यात्रियों	-7256
▁क्रियाकलाप	-7257
ीर	-7258
वर्त	-7259
▁आँक	-7260
▁चलना	-7261
▁पाठकों	-7262
▁प्राइवेट	-7263
▁संरक्षित	-7264
▁हार्डवेयर	-7265
▁थै	-7266
▁न्य	-7267
▁बंट	-7268
▁बाई	-7269
▁मैथ	-7270
▁बंधन	-7271
▁यज्ञ	-7272
▁पंद्र	-7273
▁लड़का	-7274
▁दुर्गा	-7275
▁परजीवी	-7276
▁विच्छेद	-7277
▁व्याकरण	-7278
ख्	-7279
यम	-7280
▁उगा	-7281
▁फॉर	-7282
▁बहुल	-7283
▁स्या	-7284
संख्यक	-7285
▁क्षमा	-7286
▁निराश	-7287
▁प्रौढ़	-7288
▁प्रभुत्व	-7289
▁हानिकारक	-7290
▁निष्पादित	-7291
▁प्रजातियों	-7292
टरी	-7293
▁II	-7294
▁कण	-7295
ment	-7296
किया	-7297
▁अनो	-7298
▁केल	-7299
▁छेद	-7300
न्नाथ	-7301
धारकों	-7302
▁पड़ोस	-7303
▁संतान	-7304
▁आंकड़ा	-7305
▁बदरूद्दीन	-7306
इश	-7307
चु	-7308
ँजी	-7309
बड़	-7310
िने	-7311
▁गर	-7312
▁पण	-7313
▁शक	-7314
रेशन	-7315
स्पद	-7316
▁एंव	-7317
▁गौण	-7318
▁आवाज़	-7319
▁जितने	-7320
▁वापिस	-7321
▁बढ़ाया	-7322
▁सोवियत	-7323
राई	-7324
▁नद	-7325
▁आवं	-7326
▁ड्रा	-7327
▁दौरे	-7328
▁डोमेन	-7329
▁वर्षो	-7330
▁ड्राइव	-7331
▁उपभोक्ताओं	-7332
मेर	-7333
बर्ट	-7334
डियों	-7335
▁इंजन	-7336
▁मानद	-7337
▁बंदरगाह	-7338
▁अतिक्रमण	-7339
▁स्वायत्त	-7340
▁शास्त्रीय	-7341
▁आस्ट्रेलिया	-7342
ॉग	-7343
दिर	-7344
▁फौज	-7345
▁हरा	-7346
▁गवाह	-7347
▁नाइट	-7348
▁मूर्ख	-7349
▁स्टाफ	-7350
▁गतिशील	-7351
▁दोबारा	-7352
▁उदाहरणार्थ	-7353
ताप	-7354
र्षि	-7355
शुदा	-7356
▁चूक	-7357
▁दार	-7358
िकेशन	-7359
▁ड्रग	-7360
▁पड़ोसी	-7361
▁संस्थाएं	-7362
ैड	-7363
टकर	-7364
भाई	-7365
ंतुक	-7366
▁धूप	-7367
▁ग्लो	-7368
▁मधुर	-7369
▁लाहौर	-7370
▁संयोग	-7371
▁वांछित	-7372
▁चिह्नित	-7373
▁प्रतिकर	-7374
▁प्राणियों	-7375
▁दीर्घकालिक	-7376
ियस	-7377
▁सुस	-7378
▁अनन्य	-7379
▁श्रेय	-7380
▁द्वारक	-7381
▁अध्यादेश	-7382
▁डिफ़ॉल्ट	-7383
▁प्रख्यात	-7384
ोरा	-7385
वाया	-7386
ोत्स	-7387
▁छंद	-7388
▁ट्रा	-7389
▁संकु	-7390
▁कारकों	-7391
▁लक्ष्म	-7392
▁सतर्कता	-7393
▁विनियमों	-7394
op	-7395
▁आवृ	-7396
▁बचे	-7397
▁लौटा	-7398
▁सख्त	-7399
▁मास्ट	-7400
▁सच्ची	-7401
▁अर्पित	-7402
▁दंडादेश	-7403
▁दिलचस्प	-7404
▁उद्यमियों	-7405
ig	-7406
सेल	-7407
ाणु	-7408
मियम	-7409
▁रोम	-7410
दिग्ध	-7411
▁संकल	-7412
▁सुनी	-7413
▁अकेला	-7414
▁जाएंगी	-7415
▁रणनीति	-7416
▁जगन्नाथ	-7417
▁परिसीमा	-7418
युद्ध	-7419
▁सन्त	-7420
▁अतिथि	-7421
▁इमारत	-7422
▁फॉर्म	-7423
▁उर्वरक	-7424
▁विपक्ष	-7425
▁क्रिस्ट	-7426
▁निर्णायक	-7427
▁अपर्याप्त	-7428
दाद	-7429
विर	-7430
स्सी	-7431
▁असं	-7432
▁इधर	-7433
▁ढाल	-7434
हत्या	-7435
▁घायल	-7436
▁पैरों	-7437
▁बेकार	-7438
▁महाका	-7439
िरपेक्ष	-7440
▁अद्भुत	-7441
ity	-7442
▁ताक	-7443
▁वान	-7444
िल्ला	-7445
▁नानक	-7446
▁नाट्य	-7447
▁गुजराती	-7448
▁अनावश्यक	-7449
▁अधिनियमों	-7450
साम	-7451
ुगु	-7452
▁नॉ	-7453
ोहित	-7454
▁कैम	-7455
▁क्लब	-7456
▁मेहर	-7457
▁रूचि	-7458
ियारों	-7459
▁उद्धृत	-7460
▁कीमतों	-7461
▁राज़्य	-7462
▁शासकों	-7463
▁एसोसिएशन	-7464
▁निःशुल्क	-7465
िद	-7466
जपे	-7467
नाल	-7468
▁ऊंट	-7469
▁आगरा	-7470
▁पाती	-7471
▁मृतक	-7472
▁सिंग	-7473
▁अंतर्व	-7474
▁आंबेडकर	-7475
▁डेटाबेस	-7476
▁प्रतिमा	-7477
▁प्रवर्ग	-7478
▁संपादित	-7479
▁क्षमताओं	-7480
▁संप्रदाय	-7481
▁युक्तियुक्त	-7482
कस	-7483
ेव	-7484
ुलर	-7485
▁कूद	-7486
▁नकल	-7487
▁फूट	-7488
▁अतएव	-7489
▁कहकर	-7490
▁एआईआर	-7491
▁भ्रूण	-7492
▁अर्जुन	-7493
▁कूटशब्द	-7494
▁पासवर्ड	-7495
▁लक्ष्मी	-7496
ers	-7497
▁बश	-7498
िस्टर	-7499
▁जादू	-7500
▁पुणे	-7501
▁विगत	-7502
ज्ह	-7503
्तन	-7504
▁बिख	-7505
▁रिफ	-7506
ंतव्य	-7507
▁घातक	-7508
▁दायर	-7509
▁चेहरा	-7510
▁मुख़्य	-7511
▁संख़्या	-7512
िपी	-7513
खण्ड	-7514
▁मज़	-7515
▁लखन	-7516
र्देश	-7517
विचार	-7518
▁किस्	-7519
▁जानती	-7520
▁टुकड़े	-7521
▁विधायिका	-7522
ंचन	-7523
▁सौह	-7524
त्तीस	-7525
▁टीवी	-7526
▁भयान	-7527
▁बालकों	-7528
▁आनुवंशिक	-7529
यित	-7530
▁we	-7531
▁बुश	-7532
▁भली	-7533
▁मोर	-7534
▁रिव	-7535
ोरेशन	-7536
▁चारा	-7537
▁धारक	-7538
▁बनायी	-7539
▁भेजें	-7540
▁प्रेमी	-7541
▁माध्यमिक	-7542
▁साक्षियों	-7543
▁प्राधिकारियों	-7544
▁सऋ	-7545
▁अवा	-7546
▁पडे	-7547
▁संश	-7548
िवारिक	-7549
▁भूटान	-7550
▁हेक्ट	-7551
▁जानबूझ	-7552
▁शान्ति	-7553
▁परेशानी	-7554
▁द्वारकानाथ	-7555
तिया	-7556
षकों	-7557
ुलिप	-7558
▁वेग	-7559
ोग्रा	-7560
ुस्तानी	-7561
▁ट्रांस	-7562
▁पिछड़े	-7563
▁मत्स्य	-7564
▁प्रपत्र	-7565
▁ओह	-7566
ियॉँ	-7567
▁डाइ	-7568
▁कोटि	-7569
▁चलकर	-7570
▁ऊतकों	-7571
▁पहाड़	-7572
▁लगाकर	-7573
▁लड़ने	-7574
▁निक्षेप	-7575
▁पारदर्शिता	-7576
▁कार्यवाहियां	-7577
ड़न	-7578
▁भि	-7579
कार्	-7580
▁नाज	-7581
▁क्षे	-7582
▁विवा	-7583
▁एजेंट	-7584
▁बदलना	-7585
▁दिलचस्पी	-7586
डू	-7587
▁तन	-7588
▁आइए	-7589
▁दादा	-7590
कृष्णन	-7591
▁दायरे	-7592
▁संजाल	-7593
▁सनातन	-7594
▁गरीबों	-7595
▁दुर्बल	-7596
▁अपशिष्ट	-7597
▁निरपेक्ष	-7598
▁पर्यवेक्षण	-7599
▁नास	-7600
▁मौल	-7601
▁अवयव	-7602
▁कन्व	-7603
▁सेंटर	-7604
▁समावेशी	-7605
▁अभिप्राय	-7606
डक	-7607
ढे	-7608
▁जर्	-7609
▁बेज	-7610
▁धारित	-7611
▁चुनावों	-7612
▁कंपनियां	-7613
वाट	-7614
शिप	-7615
ोही	-7616
▁नाथ	-7617
ियमित	-7618
क्षकों	-7619
▁निकला	-7620
▁भागवत	-7621
▁उदासीन	-7622
▁औचित्य	-7623
▁एमएसएमई	-7624
▁पारिवारिक	-7625
▁or	-7626
ष्मा	-7627
ैर्य	-7628
▁पदक	-7629
ताबिक	-7630
यंत्र	-7631
▁फलों	-7632
▁तत्पर	-7633
▁पाण्ड	-7634
▁विकृत	-7635
▁अपीलीय	-7636
▁नवीनतम	-7637
▁प्रवास	-7638
▁मजबूती	-7639
▁हड़ताल	-7640
▁परिपूर्ण	-7641
▁सत्यापित	-7642
ag	-7643
ul	-7644
नाई	-7645
▁झुक	-7646
▁पवन	-7647
▁अन्न	-7648
▁चोरी	-7649
▁पावर	-7650
▁मिलन	-7651
▁यथास	-7652
▁काटने	-7653
▁साधना	-7654
▁सोसाय	-7655
▁प्रवासी	-7656
▁विवेकान	-7657
▁अनुमानित	-7658
ँगा	-7659
ंसी	-7660
विजन	-7661
ेलना	-7662
▁वृह	-7663
▁विवश	-7664
्रीकरण	-7665
▁सिंधु	-7666
▁नर्मदा	-7667
▁समर्थक	-7668
▁लक्षणों	-7669
▁श्रमिकों	-7670
▁वित्तपोषण	-7671
▁अंतर्विष्ट	-7672
RO	-7673
गीय	-7674
दाई	-7675
सनी	-7676
▁इम	-7677
स्थि	-7678
▁गिल	-7679
▁फर्	-7680
▁ईमेल	-7681
▁अभिनय	-7682
▁मास्टर	-7683
▁संपादक	-7684
▁काश्मीर	-7685
▁मुताबिक	-7686
▁प्रदेशों	-7687
ap	-7688
ef	-7689
बिया	-7690
▁भोग	-7691
▁वाई	-7692
▁अम्ल	-7693
▁जबरद	-7694
▁धोखा	-7695
▁वनों	-7696
▁क्रोध	-7697
▁जमाने	-7698
▁दावों	-7699
▁अस्थिर	-7700
▁आरोपों	-7701
▁इच्छुक	-7702
शिला	-7703
सीआई	-7704
▁एन्	-7705
▁कैल	-7706
▁पायी	-7707
▁क्रियाओं	-7708
▁आश्चर्यजनक	-7709
बंद	-7710
कक्ष	-7711
न्दन	-7712
ुल्य	-7713
▁खाद	-7714
▁टेप	-7715
र्कों	-7716
ारण्य	-7717
▁पांव	-7718
▁बजाए	-7719
▁दर्जा	-7720
▁प्रभा	-7721
▁फांसी	-7722
▁भयानक	-7723
▁निवेदन	-7724
▁संदिग्ध	-7725
नेस	-7726
लाप	-7727
्वत	-7728
▁व्	-7729
तीकरण	-7730
▁नाना	-7731
▁लेबल	-7732
▁सीडी	-7733
▁श्वसन	-7734
▁आरक्षण	-7735
▁जनजातियों	-7736
▁प्रतिभूतियों	-7737
▁सउ	-7738
डिंग	-7739
▁रेट	-7740
▁अनदे	-7741
▁जमींद	-7742
▁परिधि	-7743
▁मुस्क	-7744
▁गिरावट	-7745
▁महर्षि	-7746
▁सर्वथा	-7747
०ख	-7748
टिक	-7749
▁उलझ	-7750
▁तित	-7751
▁अब्दु	-7752
▁कोष्ठ	-7753
▁चरणों	-7754
▁जनजाति	-7755
▁विक्रेता	-7756
कश	-7757
ालक	-7758
▁अटल	-7759
▁कराए	-7760
वस्थित	-7761
▁आबंटन	-7762
▁शिष्य	-7763
▁मंत्रि	-7764
▁मंत्रिम	-7765
▁सूचनाओं	-7766
▁अभिरक्षा	-7767
▁तात्कालिक	-7768
▁प्रौद्योगिकियों	-7769
लत	-7770
सो	-7771
वर्ग	-7772
▁दाँ	-7773
▁ग्रुप	-7774
▁स्टाक	-7775
▁स्थाई	-7776
▁एकीकरण	-7777
▁जवाबदे	-7778
▁दरवाजे	-7779
▁द्रव्य	-7780
▁फ़ॉन्ट	-7781
▁बंगाली	-7782
▁निरूपित	-7783
▁तात्पर्य	-7784
▁विशेषताओं	-7785
▁संभावनाओं	-7786
ुलन	-7787
कर्म	-7788
▁आजीव	-7789
▁आन्त	-7790
▁शाही	-7791
क्रिप्ट	-7792
▁अर्द्ध	-7793
▁दंडनीय	-7794
▁व्यर्थ	-7795
्रीट	-7796
▁फेड	-7797
▁हेम	-7798
स्वती	-7799
▁पूरक	-7800
▁टेस्ट	-7801
▁वयस्क	-7802
▁संचरण	-7803
▁सूचका	-7804
▁वाशिंग	-7805
▁बहुमूल्य	-7806
▁आत्महत्या	-7807
ॉय	-7808
▁लायक	-7809
▁लेगा	-7810
▁मारने	-7811
▁मूलतः	-7812
▁सुनाई	-7813
▁चित्रों	-7814
▁सौहार्द	-7815
ome	-7816
सर्ग	-7817
▁जरुरत	-7818
र्थियों	-7819
▁अनुष्ठ	-7820
▁संस्कार	-7821
बंदी	-7822
▁ढूँ	-7823
▁बाइ	-7824
वर्धन	-7825
▁उतने	-7826
▁आभूषण	-7827
▁ललिता	-7828
▁सोचना	-7829
▁उद्यमी	-7830
▁कामकाज	-7831
▁स्वदेशी	-7832
रेन	-7833
▁Go	-7834
फ़्ट	-7835
मुना	-7836
▁निब	-7837
▁मुर	-7838
म्बित	-7839
▁अवगत	-7840
▁पटेल	-7841
▁आज्ञा	-7842
▁गेहूं	-7843
▁छोड़ा	-7844
▁पीड़क	-7845
▁मास्टर्स	-7846
un	-7847
ंकि	-7848
श्र	-7849
▁उज	-7850
भावी	-7851
▁घोड़े	-7852
▁जरुरी	-7853
▁बनाएँ	-7854
▁बिस्त	-7855
▁मुफ्त	-7856
▁यातना	-7857
▁बिलियन	-7858
▁मार्गदर्शक	-7859
▁स्थानांतरण	-7860
बुल	-7861
▁पग	-7862
न्या	-7863
माला	-7864
▁एकड़	-7865
▁विकेट	-7866
▁नाटकीय	-7867
▁बलिदान	-7868
▁प्रशांत	-7869
▁पडा	-7870
▁फेर	-7871
▁बहा	-7872
▁गोला	-7873
▁डिवी	-7874
▁प्रॉ	-7875
▁सटीक	-7876
▁सीखा	-7877
▁खेतों	-7878
▁दवाओं	-7879
▁निशान	-7880
▁बुराई	-7881
▁विकार	-7882
▁अनुभाग	-7883
▁पंद्रह	-7884
▁बढ़ाकर	-7885
▁नियोजित	-7886
▁प्रतिवेदन	-7887
तको	-7888
शेर	-7889
िती	-7890
फीति	-7891
▁जंतु	-7892
▁पाइप	-7893
▁माला	-7894
▁मौके	-7895
▁सच्चा	-7896
▁मणिपुर	-7897
▁बाजारों	-7898
▁अधिग्रहण	-7899
सात	-7900
यंकर	-7901
▁उठे	-7902
▁कसौ	-7903
▁धर्	-7904
▁नली	-7905
▁मजा	-7906
▁इण्ड	-7907
▁लगाई	-7908
▁वाणी	-7909
▁असंगत	-7910
▁खंडों	-7911
▁उपरांत	-7912
▁महिलाएं	-7913
▁सार्वभौमिक	-7914
थल	-7915
दह	-7916
पहर	-7917
ड़की	-7918
ायती	-7919
ॉर्ट	-7920
▁पाय	-7921
▁शिरा	-7922
▁समीप	-7923
▁आँखों	-7924
▁एक्सट	-7925
▁फ्रेम	-7926
▁सिनेमा	-7927
▁चुंबकीय	-7928
▁रच	-7929
▁ओवर	-7930
▁जोड	-7931
▁नींद	-7932
▁बोले	-7933
▁लखनऊ	-7934
दृष्टि	-7935
प्रदेश	-7936
▁खाड़ी	-7937
▁छिद्र	-7938
▁मार्क	-7939
▁करवाने	-7940
▁ठहराया	-7941
▁अनियमित	-7942
▁सूचकांक	-7943
▁सम्भावना	-7944
▁नियन्त्रण	-7945
▁प्रतिलिपि	-7946
▁पर्यावरणीय	-7947
आइ	-7948
ताई	-7949
▁जाप	-7950
▁पित	-7951
▁रोब	-7952
▁ईस्ट	-7953
▁घुमा	-7954
▁बशर्	-7955
▁सूरज	-7956
▁नजदीक	-7957
▁गंतव्य	-7958
▁ट्रस्ट	-7959
डब	-7960
ate	-7961
एनए	-7962
चनों	-7963
ापित	-7964
▁बला	-7965
▁लहर	-7966
जपेयी	-7967
बोर्ड	-7968
▁बगैर	-7969
▁स्पी	-7970
▁इंद्र	-7971
▁उठाकर	-7972
▁उपनिष	-7973
▁चाहें	-7974
▁जोड़ी	-7975
▁लेखों	-7976
▁स्विच	-7977
▁अनुबंध	-7978
▁लार्वा	-7979
▁चाहेंगे	-7980
▁बक	-7981
िकरण	-7982
▁जूट	-7983
▁वाइ	-7984
▁साख	-7985
▁लगेगा	-7986
▁अंतररा	-7987
▁प्रत्यु	-7988
▁सोसायटी	-7989
▁अद्वितीय	-7990
वंत	-7991
▁किर	-7992
▁बूट	-7993
श्यों	-7994
▁रसीद	-7995
▁लिखत	-7996
▁वक्र	-7997
ष्णुता	-7998
▁अरुणा	-7999
▁बालों	-8000
▁भूकंप	-8001
▁विघटन	-8002
▁निरस्त	-8003
▁पेड़ों	-8004
▁संपादन	-8005
▁फिल्मों	-8006
▁प्रवाहित	-8007
ज़्	-8008
कावट	-8009
पत्य	-8010
▁खनन	-8011
▁व्र	-8012
स्ट्र	-8013
▁रत्न	-8014
▁समेत	-8015
▁स्टी	-8016
▁भयंकर	-8017
▁बैठकों	-8018
▁सरकारें	-8019
▁स्त्रोत	-8020
▁बीमाकर्ता	-8021
▁झट	-8022
▁१७	-8023
▁भोज	-8024
त्विक	-8025
वाहिक	-8026
▁कारी	-8027
▁किला	-8028
▁जीने	-8029
▁डाली	-8030
▁बेहत	-8031
ास्टिक	-8032
▁बदलते	-8033
▁रात्रि	-8034
▁विलियम	-8035
▁बीमारियों	-8036
▁सिफारिशें	-8037
▁ऑस्ट्रेलिया	-8038
वह	-8039
ुख	-8040
विल	-8041
ेरा	-8042
गरीय	-8043
▁चंद	-8044
▁बैल	-8045
ंजस्य	-8046
▁बनती	-8047
▁गवर्न	-8048
▁पुकार	-8049
▁मुल्क	-8050
▁छत्तीस	-8051
▁दिखायी	-8052
ch	-8053
um	-8054
िग	-8055
धर्म	-8056
ारिक	-8057
०वें	-8058
▁खैर	-8059
▁धनी	-8060
▁रिए	-8061
▁स्फ	-8062
▁किरण	-8063
▁कैसा	-8064
▁देहा	-8065
▁गार्ड	-8066
▁पुर्त	-8067
▁प्रको	-8068
िष्णुता	-8069
▁अग्रसर	-8070
▁समुच्च	-8071
▁सेनाओं	-8072
▁चित्रित	-8073
▁व्याप्त	-8074
▁प्रभावों	-8075
लम	-8076
जरी	-8077
▁सज	-8078
▁दायी	-8079
▁बाबा	-8080
▁हटाए	-8081
नाइटेड	-8082
स्वामी	-8083
▁अर्जी	-8084
▁बलराम	-8085
▁अंडमान	-8086
▁आचार्य	-8087
▁आवासीय	-8088
▁वाजपेयी	-8089
▁सुभाषबाबू	-8090
▁प्रारम्भिक	-8091
▁क्रियाकलापों	-8092
बुद	-8093
लीफ	-8094
लापन	-8095
▁सुपर	-8096
▁सौदा	-8097
क्षमता	-8098
▁चित्त	-8099
▁हटाना	-8100
▁नीतियां	-8101
▁अंतःस्थापित	-8102
AT	-8103
▁चट	-8104
नागरी	-8105
▁कम्पन	-8106
▁ट्रैक	-8107
▁राजकीय	-8108
▁आजीविका	-8109
पृ	-8110
जान	-8111
बेट	-8112
म्पर	-8113
ोतरी	-8114
▁डेल	-8115
▁सती	-8116
▁मेनन	-8117
▁सौदे	-8118
▁गोपाल	-8119
▁परिपथ	-8120
▁भीतरी	-8121
▁शुष्क	-8122
▁सरलता	-8123
▁आत्मनि	-8124
▁तेलुगु	-8125
▁दृढ़ता	-8126
▁उत्पादित	-8127
मिल	-8128
सेन	-8129
▁शत	-8130
िथ्म	-8131
▁अलं	-8132
▁जन्	-8133
▁साठ	-8134
धियां	-8135
▁मेनू	-8136
▁सभ्य	-8137
▁सूखे	-8138
▁तार्क	-8139
▁पट्टे	-8140
▁हल्के	-8141
िश्रमिक	-8142
▁मुद्रित	-8143
▁लाभदायक	-8144
▁विशेषज्ञता	-8145
▁प्रतिस्थापित	-8146
ॉजी	-8147
माही	-8148
▁उजा	-8149
वश्यक	-8150
▁चलाए	-8151
▁माया	-8152
▁इंस्ट	-8153
▁निरोध	-8154
▁स्वाद	-8155
▁तालिका	-8156
▁पुर्तग	-8157
▁सरस्वती	-8158
▁आविष्कार	-8159
ोगी	-8160
▁the	-8161
▁अमीर	-8162
▁क्यो	-8163
▁तरंग	-8164
▁धीमी	-8165
▁सिलस	-8166
▁पूछताछ	-8167
▁चमत्कार	-8168
▁रेगिस्तान	-8169
▁पारिश्रमिक	-8170
ia	-8171
ट्स	-8172
▁मन्	-8173
▁कुर्	-8174
▁ज्वर	-8175
▁चिंतित	-8176
▁मशीनों	-8177
▁विजेता	-8178
▁स्नातको	-8179
▁रूपांतरण	-8180
▁उपाध्यक्ष	-8181
▁क्षेत्रफल	-8182
▁विशेषताएं	-8183
▁संभावनाएं	-8184
ER	-8185
थाम	-8186
लेस	-8187
▁जज	-8188
▁आवे	-8189
▁छोर	-8190
▁पंथ	-8191
▁मोती	-8192
▁डालना	-8193
▁दर्शक	-8194
▁दिलाने	-8195
▁प्रामा	-8196
▁मुद्रण	-8197
▁स्थगित	-8198
▁सिक्किम	-8199
▁प्रस्तुति	-8200
▁अंतर्निहित	-8201
▁शांतिपूर्ण	-8202
रात	-8203
दायी	-8204
ब्बा	-8205
▁कोण	-8206
▁फिन	-8207
नेशनल	-8208
ल्लाह	-8209
▁कीर्	-8210
▁पोषक	-8211
▁फैले	-8212
▁बढ़ी	-8213
▁बलों	-8214
▁सउदी	-8215
▁अवशेष	-8216
▁आंखें	-8217
▁पंचाट	-8218
राधिकारी	-8219
▁तीव्रता	-8220
▁दर्शाया	-8221
▁लक्ष्मण	-8222
▁उत्पत्ति	-8223
▁दिनांकित	-8224
▁प्रीमियम	-8225
▁हस्तांतरण	-8226
▁अनुपस्थिति	-8227
वात	-8228
▁ae	-8229
▁यश	-8230
▁लू	-8231
िल्ल	-8232
ल्पित	-8233
▁खादी	-8234
▁धमकी	-8235
▁फर्क	-8236
▁मुना	-8237
▁पड़ते	-8238
▁मलयाल	-8239
▁ताजमहल	-8240
▁ग्रंथों	-8241
▁व्यायाम	-8242
▁वर्गीकृत	-8243
▁संशोधनों	-8244
िप्र	-8245
ीलाल	-8246
▁लाप	-8247
▁लेट	-8248
▁क्षय	-8249
▁खोला	-8250
▁पटना	-8251
▁पद्य	-8252
▁हमसे	-8253
▁कारित	-8254
▁शृंखला	-8255
▁स्वयंसे	-8256
▁पारिस्थित	-8257
ञ्	-8258
किक	-8259
▁fe	-8260
राइट	-8261
▁अधी	-8262
▁अभय	-8263
▁कीं	-8264
▁मोन	-8265
▁क़ुर	-8266
▁टिका	-8267
▁बेशक	-8268
▁युवक	-8269
▁वकाल	-8270
▁सरोज	-8271
▁सिवा	-8272
▁पूँजी	-8273
▁चुपचाप	-8274
▁सीरिया	-8275
▁हथियारों	-8276
▁राधाकृष्णन	-8277
राग	-8278
ित्	-8279
▁थल	-8280
ोग्य	-8281
▁com	-8282
▁सघन	-8283
▁बुरे	-8284
▁मुआव	-8285
▁हाला	-8286
▁हुईं	-8287
▁व्यंग	-8288
▁डिवीजन	-8289
▁ब्रिता	-8290
▁लैंगिक	-8291
जिन	-8292
बोध	-8293
्टन	-8294
आईटी	-8295
ष्णा	-8296
▁कमर	-8297
▁बंदी	-8298
▁लेनी	-8299
▁तुर्क	-8300
▁दोपहर	-8301
▁भ्रमण	-8302
▁समूचे	-8303
▁अंशदान	-8304
▁जनजातीय	-8305
▁समाविष्ट	-8306
म्य	-8307
▁उब	-8308
न्सी	-8309
बर्ग	-8310
त्तूर	-8311
▁ब्रे	-8312
▁यकीन	-8313
▁अवतार	-8314
▁उत्पी	-8315
▁धैर्य	-8316
▁मानकर	-8317
▁पर्यटक	-8318
▁मणीलाल	-8319
▁माइक्र	-8320
▁न्यायपीठ	-8321
▁नगरपालिका	-8322
▁स्नातकोत्तर	-8323
od	-8324
te	-8325
ायन	-8326
ैंस	-8327
▁नाप	-8328
मुक्त	-8329
▁परमा	-8330
▁बताए	-8331
▁साइन	-8332
▁आखिरी	-8333
▁चलाना	-8334
▁पत्तन	-8335
▁फारसी	-8336
ब्दियों	-8337
▁प्रिंट	-8338
▁इन्होंने	-8339
▁देवनागरी	-8340
▁नियोक्ता	-8341
▁प्रसारित	-8342
▁सहयोगियों	-8343
गीर	-8344
णीत	-8345
▁ढी	-8346
▁लय	-8347
रेटर	-8348
हाली	-8349
▁अखंड	-8350
▁मोटी	-8351
▁समनु	-8352
▁चक्कर	-8353
▁जगहों	-8354
▁नतीजा	-8355
▁पढ़ना	-8356
▁नारियल	-8357
▁निकोबार	-8358
▁मुकाबला	-8359
▁मॉड्यूल	-8360
▁समन्वित	-8361
▁सम्बन्धों	-8362
▁सेवानिवृत्त	-8363
ogle	-8364
प्रण	-8365
▁खाल	-8366
वस्तु	-8367
▁शंका	-8368
▁सतत्	-8369
▁विधिव	-8370
▁करूंगा	-8371
▁तयशुदा	-8372
▁सर्किट	-8373
▁विश्राम	-8374
▁परंपराओं	-8375
▁पारदर्शी	-8376
▁सामंजस्य	-8377
▁हेक्टेयर	-8378
▁रथ	-8379
फ़्त	-8380
▁इंच	-8381
▁ताजा	-8382
▁देरी	-8383
▁पेपर	-8384
▁मंदी	-8385
▁मापन	-8386
▁सुलह	-8387
▁संसद्	-8388
▁समझती	-8389
▁जापानी	-8390
▁रोकथाम	-8391
ष्ट्रपति	-8392
▁उपक्रमों	-8393
▁निवासियों	-8394
▁प्लास्टिक	-8395
जीत	-8396
फलक	-8397
ान्	-8398
बंधन	-8399
▁सीए	-8400
▁हॉल	-8401
स्कृत	-8402
▁अमान	-8403
▁ख्या	-8404
▁हरित	-8405
▁क्षेञ	-8406
▁दीजिए	-8407
▁ध्येय	-8408
▁क्रमांक	-8409
▁निमंत्र	-8410
▁नैतिकता	-8411
▁समितियां	-8412
ंजर	-8413
द्घ	-8414
रेज	-8415
▁इश	-8416
आईसी	-8417
देशिक	-8418
द्वार	-8419
▁निरी	-8420
▁अपवर्	-8421
▁प्रभु	-8422
▁विशेन	-8423
▁मलयालम	-8424
▁परिप्रे	-8425
▁ब्रितानी	-8426
▁श्रेणियों	-8427
▁उत्तराधिकारी	-8428
ड़ने	-8429
पकों	-8430
▁शाल	-8431
हार्य	-8432
▁गुस्	-8433
▁चाहा	-8434
▁रंगों	-8435
ंत्रिकी	-8436
▁अपनाना	-8437
▁आबंटित	-8438
▁ग्लोबल	-8439
▁प्रिंटर	-8440
▁आधुनिकीकरण	-8441
▁रजिस्ट्रीकृत	-8442
ुरु	-8443
्रल	-8444
▁AR	-8445
▁जह	-8446
▁वॉ	-8447
गणना	-8448
▁ऋषि	-8449
▁झलक	-8450
▁पाउ	-8451
क्टरी	-8452
▁कहें	-8453
▁ड्यू	-8454
▁बनते	-8455
▁भण्ड	-8456
क्सीजन	-8457
▁चार्ट	-8458
▁दिखता	-8459
▁दुश्म	-8460
▁निकाले	-8461
ँट	-8462
वो	-8463
शियन	-8464
▁गरम	-8465
▁शंक	-8466
▁हुस	-8467
▁चंडी	-8468
▁पुरी	-8469
पतियों	-8470
▁कार्ट	-8471
▁घटकों	-8472
▁प्रोज	-8473
▁यूनिक	-8474
ोल्यूशन	-8475
▁पोर्टल	-8476
▁सदियों	-8477
▁एल्गोरिथ्म	-8478
ूद	-8479
अली	-8480
विड	-8481
ोटा	-8482
ब्रे	-8483
ियाई	-8484
▁पूर	-8485
▁कामों	-8486
▁हास्य	-8487
▁भौतिकी	-8488
परिवर्तन	-8489
▁pr	-8490
▁खिस	-8491
▁डूब	-8492
▁सूखा	-8493
▁काल्प	-8494
▁विराम	-8495
▁सहारे	-8496
▁आदर्शों	-8497
▁शब्दावली	-8498
se	-8499
ैश	-8500
नीस	-8501
भास	-8502
बारी	-8503
▁मर्	-8504
▁रवै	-8505
▁आयाम	-8506
धारियों	-8507
▁बिस्तर	-8508
▁रिश्वत	-8509
▁कृतियों	-8510
▁विधिज्ञ	-8511
▁महाकाव्य	-8512
▁पुनर्निर्	-8513
लेन	-8514
▁Chr	-8515
▁बसे	-8516
▁मता	-8517
▁भेड़	-8518
▁उपन्यासों	-8519
ठों	-8520
माद	-8521
स्तर	-8522
▁अने	-8523
▁आभा	-8524
▁ज्य	-8525
▁पिट	-8526
▁तिलक	-8527
▁युसु	-8528
▁मण्डल	-8529
▁सिंधी	-8530
▁चट्टान	-8531
▁निगमित	-8532
▁भागीदारों	-8533
परा	-8534
ेली	-8535
▁sa	-8536
▁एर	-8537
जारी	-8538
नामा	-8539
ॉक्स	-8540
ौर्य	-8541
▁पैट	-8542
िलोकन	-8543
▁नौका	-8544
▁बंगल	-8545
▁रुग्	-8546
▁सुखद	-8547
क्रमित	-8548
न्दर्य	-8549
▁पुष्ट	-8550
▁श्वास	-8551
▁हल्का	-8552
▁Google	-8553
▁स्वार्थ	-8554
▁टेलीविजन	-8555
▁महानिदेशक	-8556
▁मुख्यमंत्री	-8557
डम	-8558
िमी	-8559
ुवा	-8560
ज्जा	-8561
ोसिस	-8562
▁उदर	-8563
▁गढ़	-8564
▁सफ़	-8565
दायगी	-8566
ेशनों	-8567
▁तैना	-8568
▁फ्रा	-8569
▁मानवा	-8570
▁लिखें	-8571
▁अधिष्ठ	-8572
▁धाराओं	-8573
▁सारांश	-8574
▁स्थावर	-8575
▁पर्वतीय	-8576
▁कार्यपाल	-8577
▁वाशिंगटन	-8578
कै	-8579
▁तद	-8580
▁कवर	-8581
▁नाभ	-8582
▁कृषक	-8583
▁गर्भव	-8584
▁जायगा	-8585
▁जिज्ञ	-8586
▁नोड्स	-8587
कारियों	-8588
▁प्ररूप	-8589
▁बशर्ते	-8590
▁नामांकन	-8591
▁नवान्वेषी	-8592
जलि	-8593
डिश	-8594
▁डु	-8595
चेरी	-8596
▁गोर	-8597
ापूर्ण	-8598
▁अंतरा	-8599
▁परमिट	-8600
▁रवाना	-8601
▁चिन्ता	-8602
▁नौसेना	-8603
▁शासकीय	-8604
▁कित्तूर	-8605
▁प्रशासक	-8606
▁अभिलिखित	-8607
▁भूतपूर्व	-8608
▁संस्थापक	-8609
▁अब्दुल्ला	-8610
▁न्यूयार्क	-8611
ub	-8612
रीद	-8613
ोदय	-8614
्यौ	-8615
▁एह	-8616
▁कं	-8617
▁परिल	-8618
▁फैली	-8619
▁वाहक	-8620
▁क़्या	-8621
▁क्रोम	-8622
▁वकालत	-8623
▁वादों	-8624
्लिकेशन	-8625
▁असंख्य	-8626
▁क्रमिक	-8627
▁प्रेरक	-8628
▁मुम्बई	-8629
▁सम्प्र	-8630
▁किनारों	-8631
▁प्रदाता	-8632
▁जुर्माना	-8633
▁फो	-8634
▁कैर	-8635
▁फंड	-8636
▁मीन	-8637
कार्य	-8638
▁ऋणों	-8639
▁औजार	-8640
▁चालक	-8641
▁मृदा	-8642
▁्याय	-8643
▁जीतने	-8644
▁युग्म	-8645
▁उपासना	-8646
▁द्वीपों	-8647
▁प्रस्तु	-8648
▁निर्भरता	-8649
▁अतिमानसिक	-8650
है	-8651
प्प	-8652
▁उम	-8653
▁शव	-8654
खाना	-8655
▁घों	-8656
▁अविल	-8657
▁उज्ज	-8658
▁गुर्	-8659
▁पुष्	-8660
▁बादल	-8661
▁खुराक	-8662
▁फीसदी	-8663
▁फैसले	-8664
▁बनाएं	-8665
▁लगाये	-8666
▁राजवंश	-8667
▁विद्वत	-8668
▁आस्तियां	-8669
▁अनुप्रयोगों	-8670
▁व्यापारियों	-8671
लोक	-8672
▁डू	-8673
▁टोप	-8674
▁मदर	-8675
बारों	-8676
▁कृपा	-8677
▁गाने	-8678
▁रावण	-8679
▁श्या	-8680
▁सुलभ	-8681
वर्षीय	-8682
▁एक्सप	-8683
▁किशोर	-8684
▁गर्दन	-8685
▁बेरोज	-8686
▁परंतुक	-8687
▁प्रोफ़	-8688
▁तार्किक	-8689
▁कार्यकलाप	-8690
▁प्रत्युत्तर	-8691
गृह	-8692
▁ओल	-8693
धारक	-8694
▁डेम	-8695
▁भीम	-8696
नियों	-8697
▁अफसर	-8698
▁हिला	-8699
पत्रों	-8700
▁अखबार	-8701
▁खेलने	-8702
▁ख्याल	-8703
▁जॉर्ज	-8704
▁दंडित	-8705
▁साम्य	-8706
▁हममें	-8707
▁हुसैन	-8708
▁उत्थान	-8709
▁सौन्दर्य	-8710
ँकि	-8711
ुखी	-8712
ल्ले	-8713
▁मनी	-8714
धिकरण	-8715
▁तिरु	-8716
▁परिकल	-8717
▁व्यतिक	-8718
▁दर्शकों	-8719
▁देखेंगे	-8720
▁स्ट्रिंग	-8721
▁प्रामाणिक	-8722
aoM	-8723
ोत्	-8724
दत्त	-8725
▁शार	-8726
ज्जित	-8727
▁पच्च	-8728
▁पल्ल	-8729
▁बेटा	-8730
धिकारी	-8731
▁कसौटी	-8732
▁उल्लास	-8733
▁विचारा	-8734
▁समनुदेश	-8735
▁क्षेत्रक	-8736
▁कार्मिकों	-8737
▁आतंकवादियों	-8738
आन	-8739
ुकला	-8740
▁जाऊ	-8741
▁परो	-8742
▁सीट	-8743
▁गणेश	-8744
▁तटीय	-8745
▁लगों	-8746
▁बुखार	-8747
▁आक्षेप	-8748
▁कोरिया	-8749
▁ग्रंथि	-8750
▁चेन्नई	-8751
▁निकलता	-8752
▁उत्प्रे	-8753
▁खाद्यान	-8754
▁विशुद्ध	-8755
▁अप्रत्या	-8756
▁एक्सटेंशन	-8757
▁सुपुर्दगी	-8758
्युन	-8759
▁जगा	-8760
▁मौन	-8761
▁वियत	-8762
▁सोना	-8763
▁सोशल	-8764
▁केलिए	-8765
▁बहुधा	-8766
▁हिमनद	-8767
▁इंतजार	-8768
▁सम्मुख	-8769
▁उत्तेजित	-8770
▁नागरिकता	-8771
▁विमानक्षेत्र	-8772
थिल	-8773
धरी	-8774
क्ष्	-8775
▁इंट	-8776
▁अभिम	-8777
▁अभिश	-8778
▁पौरा	-8779
▁फ़िर	-8780
▁बैंड	-8781
▁भावा	-8782
▁रसोई	-8783
▁वैसी	-8784
▁मंडली	-8785
▁यथासंभव	-8786
ंची	-8787
▁जौ	-8788
्टीट	-8789
▁आगम	-8790
▁एजे	-8791
▁दाल	-8792
परेशन	-8793
▁बंधक	-8794
लेरिया	-8795
▁ईरानी	-8796
▁कोयले	-8797
▁देखरेख	-8798
▁राजदूत	-8799
▁सहेजें	-8800
▁ब्राउज़र	-8801
▁सद्भावना	-8802
ुए	-8803
जिर	-8804
्ली	-8805
▁नह	-8806
सूरत	-8807
▁थाः	-8808
▁पिर	-8809
चर्या	-8810
नीकरण	-8811
▁दहेज	-8812
▁निवे	-8813
▁रिहा	-8814
▁लड़ा	-8815
▁साफ़	-8816
▁खुलने	-8817
▁कर्त्त	-8818
▁प्रेषण	-8819
▁गर्भवती	-8820
▁निदेशकों	-8821
▁सांविधिक	-8822
▁महाविद्यालय	-8823
न्ने	-8824
▁जनक	-8825
▁इनको	-8826
▁करों	-8827
▁बन्ध	-8828
▁मदों	-8829
▁अनुयाय	-8830
▁आश्रित	-8831
▁गुप्ता	-8832
▁डिक्री	-8833
▁आन्तरिक	-8834
▁समुच्चय	-8835
▁संस्थापन	-8836
त्सा	-8837
वाड़	-8838
ालेख	-8839
ोपाल	-8840
▁असीम	-8841
▁डिज़	-8842
▁पौधा	-8843
▁अनुमत	-8844
▁परिमाण	-8845
▁बागवानी	-8846
▁लाभकारी	-8847
▁व्यवसायी	-8848
▁साझेदारी	-8849
▁साधारणतया	-8850
▁मनोवैज्ञानिक	-8851
ोनी	-8852
▁छान	-8853
▁हिर	-8854
▁अन्ध	-8855
▁मरने	-8856
▁फाउंड	-8857
▁समरूप	-8858
▁नवाचार	-8859
▁छत्तीसगढ़	-8860
▁प्रदर्शनी	-8861
ध्द	-8862
िगर	-8863
▁पठ	-8864
बंधी	-8865
▁ऊर्	-8866
▁खरा	-8867
▁मॉड	-8868
▁मोल	-8869
▁लिट	-8870
▁अभिस	-8871
▁फ्री	-8872
▁महार	-8873
▁ग्रिड	-8874
▁नामित	-8875
▁पाश्च	-8876
▁रोकना	-8877
▁लम्बा	-8878
▁आईसीटी	-8879
▁दुबारा	-8880
▁निवेशक	-8881
▁पॉलिसी	-8882
▁वर्षगा	-8883
▁विनम्र	-8884
▁सेवाएँ	-8885
▁सुंदरता	-8886
▁आकांक्षाओं	-8887
th	-8888
’’	-8889
टिंग	-8890
▁भाँ	-8891
▁्या	-8892
क्रेट	-8893
▁बाँध	-8894
▁माउस	-8895
▁तारों	-8896
▁बर्तन	-8897
▁मैसूर	-8898
▁ग्यारह	-8899
▁जानबूझकर	-8900
▁विश्वव्यापी	-8901
▁परिस्थितियां	-8902
ॉस	-8903
ँची	-8904
फ्फ	-8905
क्के	-8906
▁अलम	-8907
▁हड्ड	-8908
▁उर्वर	-8909
▁चालुक	-8910
▁विक्ष	-8911
▁शाश्व	-8912
▁सुप्र	-8913
▁आवृत्ति	-8914
▁एनआईओएस	-8915
▁प्रमाणन	-8916
▁अहमदाबाद	-8917
▁प्रतिमान	-8918
▁नामनिर्देश	-8919
▁पुनर्विलोकन	-8920
ट्रिक	-8921
▁कमिश	-8922
▁संवे	-8923
▁सपने	-8924
▁खतरों	-8925
▁गुलाम	-8926
▁दशाओं	-8927
▁मिश्र	-8928
▁ज़रूरी	-8929
▁मुद्रक	-8930
▁संप्रती	-8931
▁प्रेमचन्द	-8932
▁भविष्यवाणी	-8933
▁परिप्रेक्ष्य	-8934
tt	-8935
ङ्ग	-8936
▁टाल	-8937
▁सत्	-8938
▁सहभा	-8939
▁भिक्ष	-8940
▁स्पेन	-8941
▁उद्धरण	-8942
▁जिन्ना	-8943
▁वर्ल्ड	-8944
▁संरक्षक	-8945
▁निदेशालय	-8946
▁प्रतिपूर्ति	-8947
इंट	-8948
माल	-8949
्वल	-8950
▁ढ़	-8951
▁१८	-8952
य्या	-8953
▁खाम	-8954
▁हनु	-8955
▁बताई	-8956
▁बांड	-8957
▁हरेक	-8958
▁इलाके	-8959
▁हफ्ते	-8960
▁पकड़ने	-8961
▁पात्रों	-8962
▁बाध्यता	-8963
▁काल्पनिक	-8964
▁मानचित्र	-8965
चों	-8966
ोहण	-8967
जिये	-8968
ालीस	-8969
▁अंज	-8970
▁अरे	-8971
▁तरा	-8972
▁शाक	-8973
▁हज़	-8974
▁उद्घ	-8975
▁गायब	-8976
▁निवल	-8977
▁पद्म	-8978
▁पीछा	-8979
▁ब्ला	-8980
▁खेलों	-8981
▁डालते	-8982
▁परवाह	-8983
▁सुप्रीम	-8984
▁सिंगापुर	-8985
▁मध्यवर्ती	-8986
▁प्रोग्रामिंग	-8987
ोभ	-8988
जील	-8989
▁अमी	-8990
▁घेरे	-8991
▁शर्म	-8992
▁सचेत	-8993
पोरेशन	-8994
▁उजागर	-8995
▁डालता	-8996
▁घटनाएं	-8997
▁दिखाना	-8998
▁दिशानि	-8999
▁निरर्थ	-9000
▁सीमेंट	-9001
▁कन्वेंशन	-9002
▁रजिस्ट्र	-9003
▁प्रायोजित	-9004
▁वास्तुकला	-9005
▁अप्रत्याशित	-9006
▁कार्यकर्ताओं	-9007
लाभ	-9008
रणीय	-9009
▁अंडा	-9010
▁ढलान	-9011
▁यमुना	-9012
▁वर्षीय	-9013
▁व्यतीत	-9014
▁पौराणिक	-9015
▁स्वर्गी	-9016
▁अत्याचार	-9017
▁करनेवाले	-9018
▁यूनाइटेड	-9019
कूट	-9020
कथित	-9021
▁अड़	-9022
▁झेल	-9023
▁शिल	-9024
▁समन	-9025
▁कपास	-9026
▁चार्	-9027
▁श्ले	-9028
▁सजीव	-9029
▁डीएनए	-9030
▁धूम्र	-9031
▁बढाने	-9032
▁बैठकर	-9033
▁शिश्न	-9034
▁कानपुर	-9035
▁फाउंडेशन	-9036
ुदेव	-9037
▁असा	-9038
▁नाव	-9039
▁इटली	-9040
▁कटाई	-9041
▁निःश	-9042
▁कन्या	-9043
▁अस्त्र	-9044
▁स्नायु	-9045
▁आश्वस्त	-9046
▁वैधानिक	-9047
▁अनुरक्षण	-9048
गरों	-9049
▁कैप	-9050
▁बाघ	-9051
षिद्ध	-9052
िश्रण	-9053
ोत्सव	-9054
▁दस्त	-9055
▁वल्ल	-9056
▁कालाव	-9057
▁जयपुर	-9058
▁सब्सि	-9059
▁जंगलों	-9060
▁अरुणाचल	-9061
▁स्वर्गीय	-9062
▁राष्ट्रीयता	-9063
ob	-9064
ॉं	-9065
्क	-9066
ंदे	-9067
ाम्	-9068
ूति	-9069
▁छल	-9070
१वें	-9071
▁घंटा	-9072
▁तेजा	-9073
▁ऑपरेट	-9074
▁पक्का	-9075
▁रियास	-9076
▁ख्याति	-9077
▁दिशाओं	-9078
▁भाइयों	-9079
▁अभिनेता	-9080
▁पासपोर्ट	-9081
▁दिशानिर्देश	-9082
दो	-9083
ंगर	-9084
भीत	-9085
▁अछ	-9086
▁उपजा	-9087
▁शाहज	-9088
्रेषित	-9089
▁खुदरा	-9090
▁जिक्र	-9091
▁मुर्ग	-9092
▁जोरदार	-9093
▁मतदाता	-9094
▁कलात्मक	-9095
▁उत्तेजना	-9096
▁क्रमादेश	-9097
▁आत्मनिर्भ	-9098
▁अनुयायियों	-9099
मयी	-9100
▁कत	-9101
▁असु	-9102
▁कस्	-9103
न्नति	-9104
▁निका	-9105
▁रूसी	-9106
▁हाइड	-9107
ानियों	-9108
▁क्योकि	-9109
▁नियोजक	-9110
▁विवेका	-9111
▁स्वरुप	-9112
▁अधिकथित	-9113
▁तकनीकों	-9114
▁वृक्षों	-9115
▁कलाकारों	-9116
▁पूर्वानु	-9117
▁यांत्रिक	-9118
▁संदर्भित	-9119
▁कार्यशाला	-9120
▁पंचवर्षीय	-9121
▁श्रीकृष्ण	-9122
यो	-9123
गोश	-9124
बिट	-9125
माना	-9126
▁दीन	-9127
▁शिर	-9128
▁शैल	-9129
▁श्ल	-9130
▁साई	-9131
▁चढ़ा	-9132
▁दुष्	-9133
▁जीवनी	-9134
▁पहलों	-9135
▁लगाते	-9136
▁लक्षित	-9137
▁खुशहाली	-9138
▁हालाँकि	-9139
▁अर्थशास्त्र	-9140
च्य	-9141
▁हौ	-9142
ोगिक	-9143
▁अन्	-9144
▁झार	-9145
▁बाप	-9146
▁चिट्	-9147
▁मामल	-9148
▁मेले	-9149
▁लीला	-9150
▁सर्प	-9151
▁सिटी	-9152
▁जिनको	-9153
▁निपटा	-9154
▁रक्षक	-9155
▁बिहारी	-9156
▁अवस्थाओं	-9157
▁पत्तियों	-9158
▁शताब्दियों	-9159
ंशी	-9160
ोंग	-9161
ोधी	-9162
▁aa	-9163
▁कछ	-9164
ीयों	-9165
▁डिब	-9166
▁लाज	-9167
बिनेट	-9168
▁अंगी	-9169
▁चौदह	-9170
▁तरफ़	-9171
▁दरें	-9172
▁मादक	-9173
▁रूढ़	-9174
▁नाजुक	-9175
▁निष्क	-9176
▁मक्का	-9177
▁तत्समय	-9178
▁शाश्वत	-9179
▁छुटकारा	-9180
▁समाजवाद	-9181
▁पंचायतों	-9182
▁श्रद्धां	-9183
▁समायोजित	-9184
▁अपरिहार्य	-9185
▁प्रतिबंधित	-9186
ग्व	-9187
डेट	-9188
मुझे	-9189
▁खाई	-9190
▁भला	-9191
▁रेत	-9192
▁बस्त	-9193
▁कब्जे	-9194
▁निषेध	-9195
▁जागरूक	-9196
▁निम्नतर	-9197
▁जुर्माने	-9198
▁पीड़ितों	-9199
ेता	-9200
रहित	-9201
ात्य	-9202
▁एटी	-9203
▁खुर	-9204
▁घेर	-9205
▁नक़	-9206
▁चौथे	-9207
▁मुहा	-9208
▁बढ़ना	-9209
▁माणिक	-9210
▁त्रिपुरा	-9211
▁साम्राज्यवाद	-9212
EE	-9213
जय	-9214
ist	-9215
कने	-9216
▁इलै	-9217
▁कंक	-9218
▁टूल	-9219
▁दुक	-9220
त्रिक	-9221
▁जवान	-9222
▁पूछे	-9223
▁संसू	-9224
▁सबका	-9225
▁स्का	-9226
▁दर्जे	-9227
▁यौगिक	-9228
▁दर्शित	-9229
▁सापेक्ष	-9230
▁स्तंभों	-9231
▁इस्लामिक	-9232
फु	-9233
ीदा	-9234
्यूम	-9235
▁कुर	-9236
▁बिछ	-9237
▁लौह	-9238
भक्ति	-9239
▁आंत्र	-9240
▁क्लास	-9241
▁जातीय	-9242
▁तुलसी	-9243
▁स्क्र	-9244
▁फोल्डर	-9245
▁मुर्गी	-9246
ँव	-9247
ढी	-9248
थर	-9249
ोफ	-9250
सेफ	-9251
▁कैद	-9252
▁गंग	-9253
▁बगी	-9254
त्नों	-9255
विन्द	-9256
▁डिजी	-9257
▁धुंध	-9258
▁फार्	-9259
▁अहसास	-9260
▁करुणा	-9261
▁डेविड	-9262
▁तुल्य	-9263
▁ऑपरेशन	-9264
▁पंचांग	-9265
▁प्रचलन	-9266
▁इकाइयां	-9267
▁लाभप्रद	-9268
▁संकेतों	-9269
▁व्यक़्ति	-9270
▁अपेक्षाओं	-9271
ओआर	-9272
मील	-9273
▁ठेके	-9274
▁रोटी	-9275
▁चुनने	-9276
▁चौथाई	-9277
▁पश्चा	-9278
▁बैटरी	-9279
▁वेदों	-9280
▁पहचाना	-9281
▁बढ़िया	-9282
▁प्रेमचंद	-9283
कोच	-9284
ारस	-9285
▁बकर	-9286
िवर्स	-9287
▁आएगा	-9288
▁आलोक	-9289
▁एंटी	-9290
▁विषम	-9291
▁एकांत	-9292
िपीडिया	-9293
▁महाप्र	-9294
▁पहुँचने	-9295
▁संस्थित	-9296
▁स्मार्ट	-9297
▁प्रतिरूप	-9298
▁प्रॉक्सी	-9299
▁साफ्टवेयर	-9300
ey	-9301
णीय	-9302
तुर	-9303
तौर	-9304
यता	-9305
शोधन	-9306
▁अनौ	-9307
▁तूफ	-9308
▁दलील	-9309
▁व्रत	-9310
▁नामंज	-9311
▁बस्ती	-9312
▁मल्टी	-9313
▁परिपत्र	-9314
▁पूंजीगत	-9315
▁परिपक्वता	-9316
▁भावनात्मक	-9317
▁विशिष्टता	-9318
▁सशक्तीकरण	-9319
नक	-9320
▁ओं	-9321
ंदाज	-9322
▁झूठ	-9323
▁हर्	-9324
▁अस्व	-9325
▁गाथा	-9326
▁पारे	-9327
▁पीले	-9328
▁मारा	-9329
▁राजप	-9330
▁कथाओं	-9331
▁क्रिस	-9332
▁नगरों	-9333
▁मंजिल	-9334
▁लीजिए	-9335
▁वैद्य	-9336
▁अरविंद	-9337
▁आदिवासी	-9338
▁इंस्टीट	-9339
▁स्टार्ट	-9340
▁आत्मविश्वास	-9341
खल	-9342
वटी	-9343
मेन्ट	-9344
▁उभार	-9345
▁दादी	-9346
▁हमास	-9347
स्फीति	-9348
▁अपहरण	-9349
▁बूढ़े	-9350
▁सीखना	-9351
▁कराधान	-9352
▁जुटाने	-9353
▁मेडिकल	-9354
▁सैकड़ों	-9355
▁धूम्रपान	-9356
▁वर्षगांठ	-9357
ँसी	-9358
ुका	-9359
▁ओज	-9360
राइड	-9361
सूची	-9362
ूंगी	-9363
▁आदम	-9364
▁चौक	-9365
▁तैर	-9366
वालों	-9367
▁अनुभ	-9368
▁त्यो	-9369
▁म्यू	-9370
▁समया	-9371
▁नम्बर	-9372
▁रोबोट	-9373
▁करवाया	-9374
▁गर्भाव	-9375
▁जोड़ना	-9376
▁उच्छेदन	-9377
▁राजनयिक	-9378
▁बुद्धिमान	-9379
▁श्रद्धांजलि	-9380
डित	-9381
सीए	-9382
ालाल	-9383
▁अवश	-9384
▁खां	-9385
▁फ़र	-9386
▁भटक	-9387
▁लोहे	-9388
मुक्ति	-9389
▁ऊँचाई	-9390
▁खर्चा	-9391
▁जरिये	-9392
▁पर्दा	-9393
▁बढावा	-9394
▁होस्ट	-9395
▁अल्लाह	-9396
▁चेष्टा	-9397
▁केन्द्री	-9398
▁प्रोफाइल	-9399
▁अधिनिर्णय	-9400
▁कट्टरपंथी	-9401
▁प्रादेशिक	-9402
▁सहिष्णुता	-9403
▁कार्यकर्ता	-9404
ुज	-9405
चकों	-9406
बाज़	-9407
▁मसौ	-9408
▁लूट	-9409
▁ऑफिस	-9410
▁चाचा	-9411
▁विस्	-9412
पक्षीय	-9413
▁झुकाव	-9414
▁दुर्ग	-9415
▁भयभीत	-9416
▁वर्गा	-9417
▁विनोद	-9418
▁तिमाही	-9419
▁पाएंगे	-9420
▁मापदंड	-9421
▁मेगावाट	-9422
▁वियतनाम	-9423
▁अभयारण्य	-9424
▁सिद्धदोष	-9425
ंजक	-9426
मैं	-9427
समूह	-9428
▁दुस	-9429
विदों	-9430
ोरिया	-9431
▁आप्र	-9432
▁निया	-9433
▁पतली	-9434
▁पैदल	-9435
▁उठाते	-9436
▁कराते	-9437
▁गिनती	-9438
▁डालें	-9439
▁पत्ते	-9440
▁ड्रग्स	-9441
▁दिखाता	-9442
▁पहुँचे	-9443
▁प्रकटन	-9444
▁अखबारों	-9445
▁अनुयायी	-9446
▁कविताएं	-9447
▁किस्मों	-9448
▁संक्रामक	-9449
▁सब्जियों	-9450
▁अत्यावश्यक	-9451
षद	-9452
▁जनन	-9453
▁नाच	-9454
▁वीं	-9455
▁सिग	-9456
नीयता	-9457
पृष्ठ	-9458
▁अम्ब	-9459
▁आईडी	-9460
▁उड़ा	-9461
▁करोड	-9462
▁क्षै	-9463
▁परिर	-9464
▁लाये	-9465
▁आँखें	-9466
▁वर्गम	-9467
▁एकाग्र	-9468
▁पृष्ठों	-9469
▁फ़ाइलें	-9470
▁कामगारों	-9471
ंन	-9472
मह	-9473
झान	-9474
ल्थ	-9475
स्स	-9476
गारी	-9477
जन्य	-9478
ुकता	-9479
▁PRO	-9480
▁टेक	-9481
▁टैग	-9482
▁सिम	-9483
▁NAME	-9484
▁इसमे	-9485
▁घिरा	-9486
ड़ियां	-9487
▁धरोहर	-9488
▁वर्गमूल	-9489
▁विलक्षण	-9490
▁प्रभारित	-9491
and	-9492
डोर	-9493
▁चढ	-9494
▁चैन	-9495
▁टोक	-9496
▁लसी	-9497
▁वोट	-9498
▁हें	-9499
▁असुर	-9500
▁इजाज	-9501
▁कलाम	-9502
▁फ़ाइ	-9503
▁अपनाए	-9504
▁इंसान	-9505
▁कुष्ठ	-9506
▁वेस्ट	-9507
▁विलम्ब	-9508
▁समकक्ष	-9509
ct	-9510
ंतक	-9511
▁लह	-9512
वाइस	-9513
▁नहर	-9514
▁नाश	-9515
▁चरित	-9516
▁नोडल	-9517
▁प्रक	-9518
▁फ़ोन	-9519
▁साहा	-9520
णात्मक	-9521
▁कार्प	-9522
▁चालीस	-9523
▁ज़मीन	-9524
▁शॉर्ट	-9525
▁सेकंड	-9526
त्तियां	-9527
▁नीलामी	-9528
▁कालावधि	-9529
▁तथाकथित	-9530
▁वचनबद्ध	-9531
▁प्रबन्धन	-9532
▁संक्रमित	-9533
▁न्यायोचित	-9534
▁विकिपीडिया	-9535
गिन	-9536
▁बाण	-9537
▁हुक	-9538
्लेषण	-9539
▁जोशी	-9540
▁मधुम	-9541
▁मेला	-9542
▁अंकों	-9543
▁अभ्या	-9544
▁खरगोश	-9545
▁छोड़े	-9546
▁बदलती	-9547
▁भूमिगत	-9548
▁मुखिया	-9549
▁किताबें	-9550
▁त्योहार	-9551
▁शीघ्रता	-9552
▁कहानियां	-9553
▁तत्पश्चात्	-9554
▁प्रतिष्ठान	-9555
ंए	-9556
ख्श	-9557
जना	-9558
षाण	-9559
ूपी	-9560
ेषण	-9561
िपरि	-9562
▁कमल	-9563
▁पला	-9564
▁रुख	-9565
▁सिड	-9566
तालों	-9567
ारायण	-9568
▁इष्ट	-9569
▁संकर	-9570
ावस्था	-9571
▁ग्रेड	-9572
▁पसन्द	-9573
▁वायदा	-9574
▁स्थाय	-9575
▁कॉन्फ़	-9576
▁नोकिया	-9577
▁बुद्धिम	-9578
▁अपराधियों	-9579
▁पहाड़ियों	-9580
▁पाश्चात्य	-9581
ip	-9582
खने	-9583
ेतन	-9584
ीर्ण	-9585
▁उठी	-9586
▁कौर	-9587
▁मेह	-9588
▁वरन	-9589
▁सरो	-9590
वारों	-9591
विवाह	-9592
▁छुपा	-9593
▁जीता	-9594
▁पहने	-9595
▁फर्श	-9596
▁वर्क	-9597
▁साम्	-9598
फ्रेंस	-9599
स्तरीय	-9600
▁जार्ज	-9601
▁दुर्व	-9602
▁पेरिस	-9603
▁बारिश	-9604
▁ब्लॉक	-9605
ोनेशिया	-9606
▁अकादमिक	-9607
▁निरर्थक	-9608
▁सब्सिडी	-9609
▁सुलझाने	-9610
▁परिष्कृत	-9611
▁प्रतिवाद	-9612
▁संतोषजनक	-9613
▁रिपोर्टों	-9614
▁सेवानिवृत्ति	-9615
CT	-9616
और	-9617
est	-9618
ंबू	-9619
▁गली	-9620
▁वॉल	-9621
ोलॉजी	-9622
▁ठंडा	-9623
▁फायर	-9624
▁सपना	-9625
▁इजाजत	-9626
▁मैथुन	-9627
▁वृक्क	-9628
▁Chrome	-9629
▁दिवसीय	-9630
▁पराजित	-9631
▁पैटर्न	-9632
▁प्रशंस	-9633
▁महाराज	-9634
▁यूनानी	-9635
▁निर्देशक	-9636
▁वर्गाकार	-9637
▁एवोल्यूशन	-9638
तू	-9639
१९	-9640
क्य	-9641
भवन	-9642
िंट	-9643
▁फीट	-9644
▁अंचल	-9645
▁कशेर	-9646
▁क्षी	-9647
▁दुखद	-9648
▁चार्ज	-9649
▁दीवान	-9650
▁नियति	-9651
▁परिशि	-9652
▁समाना	-9653
▁सेक्स	-9654
▁महासभा	-9655
▁विकल्पों	-9656
▁एप्लिकेशन	-9657
नगर	-9658
▁बछ	-9659
▁’’	-9660
मिया	-9661
▁यहा	-9662
▁रूट	-9663
▁शिष	-9664
ध्याय	-9665
शिल्प	-9666
▁ज़ोर	-9667
▁त्यौ	-9668
▁हालात	-9669
▁अपीलों	-9670
▁तालमेल	-9671
▁तुम्हे	-9672
▁महत्वा	-9673
▁कैबिनेट	-9674
▁दुकानों	-9675
▁कोशिकाएं	-9676
▁मानदंडों	-9677
▁साम्राज़	-9678
▁निस्संदेह	-9679
▁मंत्रिपरि	-9680
ov	-9681
ँघ	-9682
डीए	-9683
▁तीर	-9684
▁फलक	-9685
▁बगल	-9686
▁बेन	-9687
▁असंग	-9688
▁इक्व	-9689
▁ब्ले	-9690
कुमारी	-9691
▁इन्टर	-9692
▁परिवी	-9693
▁अनुरुप	-9694
▁अमान्य	-9695
▁उन्नीस	-9696
▁ग्रीवा	-9697
▁योद्धा	-9698
▁वकीलों	-9699
▁पत्थरों	-9700
▁पात्रता	-9701
▁पैदावार	-9702
▁ट्रैकिंग	-9703
▁विचाराधीन	-9704
दशा	-9705
मेव	-9706
▁आंग	-9707
▁आरा	-9708
▁डेन	-9709
▁पैन	-9710
▁फोट	-9711
▁सैय	-9712
▁सादा	-9713
▁बैठने	-9714
▁सिन्ध	-9715
▁असमानता	-9716
▁पसंदीदा	-9717
▁सृजनात्मक	-9718
ड़ो	-9719
▁दूत	-9720
▁नित	-9721
▁वक्ष	-9722
▁उपांत	-9723
▁करेंः	-9724
▁दिखने	-9725
▁इन्कार	-9726
▁चीज़ें	-9727
▁जातियां	-9728
▁पीढ़ियों	-9729
▁यहूदियों	-9730
▁उपराष्ट्रपति	-9731
ंबन	-9732
मंद	-9733
चालय	-9734
दमों	-9735
पीएस	-9736
ोत्त	-9737
▁अवह	-9738
▁फंस	-9739
▁बें	-9740
▁सॉल	-9741
द्रता	-9742
▁उष्ण	-9743
▁महास	-9744
म्परिक	-9745
▁द्रुत	-9746
▁अशुद्ध	-9747
▁कम्युन	-9748
▁वास्तु	-9749
▁विरचित	-9750
▁विराट्	-9751
▁श्रव्य	-9752
▁स्वराज	-9753
▁हिम्मत	-9754
िवर्सिटी	-9755
▁नामंजूर	-9756
▁संभवतया	-9757
▁निमंत्रण	-9758
▁मंत्रिमंडल	-9759
भ्र	-9760
▁बृ	-9761
▁con	-9762
▁जेर	-9763
▁नाइ	-9764
▁पठन	-9765
▁भया	-9766
▁उपगत	-9767
▁अनधिक	-9768
▁जमारा	-9769
▁रंगीन	-9770
▁आधारों	-9771
▁पक्षपात	-9772
▁विजेताओं	-9773
▁तुलनात्मक	-9774
▁प्रक्षेपण	-9775
▁कम्युनिस्ट	-9776
ण्डे	-9777
▁कैन	-9778
थियों	-9779
वलोकन	-9780
▁अठार	-9781
▁ठरोग	-9782
▁दुखी	-9783
▁मुसी	-9784
▁लीटर	-9785
सिद्धि	-9786
▁तलवार	-9787
▁भाँति	-9788
▁खिड़की	-9789
▁छोड़ना	-9790
▁तीक्ष्	-9791
▁निकलना	-9792
▁विफलता	-9793
▁अक्षरों	-9794
▁ड्राफ्ट	-9795
▁त्यौहार	-9796
▁दोहराया	-9797
▁राज्यसभा	-9798
▁पंक्तियों	-9799
if	-9800
चिव	-9801
बुक	-9802
ेरी	-9803
▁लट	-9804
▁शम	-9805
गांव	-9806
र्पण	-9807
िकों	-9808
▁नेप	-9809
▁छाती	-9810
▁नीले	-9811
▁भलाई	-9812
ब्रेरी	-9813
▁उद्गम	-9814
▁लुप्त	-9815
▁शिविर	-9816
▁सुनते	-9817
▁अफ्रीकी	-9818
▁रामलिंग	-9819
ND	-9820
केश	-9821
महा	-9822
▁वग	-9823
ब्लू	-9824
▁कपट	-9825
▁खली	-9826
ालैंड	-9827
▁केबल	-9828
▁खगोल	-9829
▁चौधरी	-9830
▁बेलार	-9831
▁असंतोष	-9832
▁चीज़ों	-9833
▁जनगणना	-9834
▁साहसिक	-9835
▁ग्रीष्म	-9836
▁मेहरअली	-9837
▁किरायेदार	-9838
▁पूर्वानुमान	-9839
यह	-9840
दगी	-9841
रिश	-9842
▁ठा	-9843
ुद्र	-9844
▁दीं	-9845
▁पसी	-9846
▁समत	-9847
ग्राफ	-9848
▁मोटा	-9849
▁वादा	-9850
▁पित्त	-9851
▁पेशकश	-9852
▁कमजोरी	-9853
▁विकृति	-9854
▁शिशुओं	-9855
▁शब्दकोश	-9856
▁सुविधाजनक	-9857
▁विश्वयुद्ध	-9858
▁शल्यक्रिया	-9859
▁संरचनात्मक	-9860
सक	-9861
बिन	-9862
ोंक	-9863
्ती	-9864
▁निम	-9865
▁फास	-9866
▁मरण	-9867
▁सिं	-9868
देशीय	-9869
ान्ति	-9870
ोजकों	-9871
▁खोले	-9872
▁गौतम	-9873
▁जुटा	-9874
▁इरादा	-9875
▁औषधीय	-9876
▁कराती	-9877
▁मनाने	-9878
▁सांसद	-9879
▁हाजिर	-9880
▁हिंसक	-9881
▁निकासी	-9882
▁हनुमान	-9883
▁कार्यकरण	-9884
▁इंटरनेशनल	-9885
०ग	-9886
गाव	-9887
तिज	-9888
बली	-9889
भंग	-9890
ापक	-9891
तत्व	-9892
ोल्ट	-9893
▁एकक	-9894
▁ग्व	-9895
▁मित	-9896
▁वात	-9897
दुनाथ	-9898
पातिक	-9899
▁अनवर	-9900
▁आईएस	-9901
▁नीला	-9902
ग्राही	-9903
▁पारसी	-9904
▁अवज्ञा	-9905
▁अक्षमता	-9906
▁दर्शाती	-9907
▁एकाधिकार	-9908
▁प्रबंधित	-9909
▁परिवीक्षा	-9910
न्हा	-9911
विद्	-9912
▁औपन	-9913
▁थोक	-9914
▁पदो	-9915
न्दगी	-9916
फार्म	-9917
विज्ञ	-9918
ोलनों	-9919
▁श्लो	-9920
▁भत्ते	-9921
▁राक्ष	-9922
▁सज्जन	-9923
▁सुस्प	-9924
▁स्पर्	-9925
▁डिवाइस	-9926
▁नाइट्र	-9927
▁प्रातः	-9928
▁बाधाओं	-9929
▁संगणित	-9930
▁संज्ञा	-9931
▁खूबसूरत	-9932
▁दर्शाने	-9933
▁निर्वचन	-9934
▁प्रतियां	-9935
▁विधेयकों	-9936
▁पत्रिकाओं	-9937
सद	-9938
िष	-9939
ेदी	-9940
कुशल	-9941
▁LIN	-9942
▁चाँ	-9943
▁क्रे	-9944
▁ह्रास	-9945
▁अलमस्त	-9946
▁कमिश्न	-9947
▁चिन्तन	-9948
▁डिज़ाइन	-9949
▁श्लोकों	-9950
▁गुणसूत्र	-9951
▁सहकारिता	-9952
▁स्वेच्छा	-9953
▁कार्यपालक	-9954
▁कॉन्फ़िगर	-9955
▁प्रायोगिक	-9956
▁कफ	-9957
द्दा	-9958
▁गुम	-9959
▁चोर	-9960
▁शोथ	-9961
▁बहती	-9962
▁सम्ब	-9963
▁सूअर	-9964
▁टकराव	-9965
▁ट्रिब	-9966
▁राजीव	-9967
▁वृंदा	-9968
प्रणाली	-9969
▁भ्रष्ट	-9970
▁अभियोजक	-9971
▁गेंदबाज	-9972
▁वामपंथी	-9973
▁साझीदार	-9974
▁अधिकरणों	-9975
▁निवेदिता	-9976
▁सम्प्रदाय	-9977
▁अल्पसंख्यक	-9978
▁गर्भावस्था	-9979
▁इस्लामवादियों	-9980
ial	-9981
▁मद्	-9982
रलैंड	-9983
▁आभास	-9984
▁बैठी	-9985
▁ब्रॉ	-9986
ारियों	-9987
▁एकत्व	-9988
▁किस्त	-9989
▁चांदी	-9990
▁तामील	-9991
▁पट्टा	-9992
▁बनारस	-9993
▁रखेगा	-9994
▁सैद्ध	-9995
▁हुर्इ	-9996
▁आयोजना	-9997
▁डिजीटल	-9998
▁सेकेंड	-9999
▁प्रशस्त	-10000
▁फिनलैंड	-10001
▁सरोजिनी	-10002
▁अभिलेखों	-10003
▁प्रायद्वीप	-10004
सऋ	-10005
मेज	-10006
लीम	-10007
▁गह	-10008
काने	-10009
कारक	-10010
चरित	-10011
ब्बत	-10012
सीयत	-10013
ान्स	-10014
▁एंट	-10015
▁गान	-10016
▁गों	-10017
▁सता	-10018
▁हीन	-10019
ष्टिक	-10020
▁कचरा	-10021
▁भट्ट	-10022
▁यानि	-10023
▁स्वय	-10024
▁ज्यों	-10025
▁पुण्य	-10026
▁भूगोल	-10027
▁रियाय	-10028
▁स्राव	-10029
▁पहुंची	-10030
▁मानसून	-10031
▁नानालाल	-10032
▁मलेरिया	-10033
▁परमात्मा	-10034
▁प्रयोगों	-10035
▁मध्यस्थता	-10036
▁इंस्टीट्यूट	-10037
▁क्रियान्वित	-10038
▁मांसपेशियों	-10039
ie	-10040
उंट	-10041
फिया	-10042
हाउस	-10043
ारसी	-10044
▁कॉम	-10045
▁तेर	-10046
▁फोक	-10047
▁भरण	-10048
फोर्ड	-10049
मावली	-10050
▁सुने	-10051
▁घंटों	-10052
▁पिछला	-10053
▁सियार	-10054
▁क्रेता	-10055
▁डेल्टा	-10056
▁निकाली	-10057
▁मांगों	-10058
▁परवर्ती	-10059
▁कार्यभार	-10060
▁जवाबदेही	-10061
▁राष्ट्रवादी	-10062
अन	-10063
उथ	-10064
दरी	-10065
ियान	-10066
▁कटि	-10067
▁चलाई	-10068
▁मतों	-10069
▁वारा	-10070
▁सम्य	-10071
▁आबद्ध	-10072
▁उपद्र	-10073
▁एकरूप	-10074
▁तुच्छ	-10075
▁लॉगिन	-10076
▁लॉर्ड	-10077
▁कृतज्ञ	-10078
▁युसुफ़	-10079
▁रियायत	-10080
▁साप्ताह	-10081
िनि	-10082
▁अघ	-10083
▁कैसी	-10084
▁प्रम	-10085
▁ढूंढ़	-10086
▁वारंट	-10087
▁चाहिएं	-10088
▁चिल्ला	-10089
▁तोड़ने	-10090
▁नमूनों	-10091
▁पिताजी	-10092
▁चंडीगढ़	-10093
▁फ़ाइलों	-10094
▁यूनिकोड	-10095
▁उद्यमिता	-10096
▁प्रस्थान	-10097
▁क्रियाशील	-10098
▁विधिमान्य	-10099
pp	-10100
ोत	-10101
चंद	-10102
ैनी	-10103
▁दाब	-10104
▁बूझ	-10105
ंसीसी	-10106
ग्राम	-10107
▁एड्स	-10108
▁तेज़	-10109
▁नरेश	-10110
▁पाचन	-10111
▁आरोपी	-10112
▁कच्चा	-10113
▁बीजों	-10114
▁मिलान	-10115
▁उत्तरः	-10116
▁करेंगी	-10117
▁प्रलेख	-10118
▁भवभूति	-10119
▁वाहनों	-10120
▁वृत्ता	-10121
▁समझाने	-10122
▁अंगीकार	-10123
▁प्राणिक	-10124
▁मैदानों	-10125
▁संप्रतीक	-10126
▁उम्मीदवार	-10127
▁दीर्घकालीन	-10128
▁प्रस्तावना	-10129
▁मान्यताप्राप्त	-10130
RL	-10131
ुमा	-10132
ार्ध	-10133
िश्व	-10134
०में	-10135
▁बोन	-10136
▁हेल	-10137
▁आईपी	-10138
▁भृंग	-10139
▁अतिशय	-10140
▁मायने	-10141
▁श्लोक	-10142
▁अमृतसर	-10143
▁कर्मों	-10144
▁कुटुंब	-10145
▁कुर्सी	-10146
▁प्रहार	-10147
▁अदालतों	-10148
▁बेहतरीन	-10149
▁बहिष्कार	-10150
▁हस्ताक्ष	-10151
▁साप्ताहिक	-10152
ाइट	-10153
▁ऋस	-10154
ंडों	-10155
गणित	-10156
गुना	-10157
पुरी	-10158
व्रत	-10159
▁बान	-10160
▁बोर	-10161
तमाला	-10162
्रेसी	-10163
▁अय्य	-10164
▁कंधे	-10165
▁चौथी	-10166
▁छिड़	-10167
▁नवाब	-10168
▁भ्रा	-10169
▁शोधन	-10170
रीक्षा	-10171
▁नित्य	-10172
▁भवनों	-10173
▁शिथिल	-10174
▁तात्या	-10175
▁पुरातन	-10176
▁राजपूत	-10177
▁विद्यु	-10178
▁हाइड्र	-10179
▁कर्त्तव्य	-10180
▁अधिवक्ताओं	-10181
यास	-10182
▁झर	-10183
न्नी	-10184
हाटी	-10185
▁मुल	-10186
आधारी	-10187
▁कैदी	-10188
▁गुहा	-10189
▁पडता	-10190
▁अंडों	-10191
▁कोल्ह	-10192
▁टेक्न	-10193
▁ध्रुव	-10194
▁संकेतक	-10195
▁सॉफ़्ट	-10196
▁कर्मियों	-10197
▁शिकायतें	-10198
▁प्रोजेक्ट	-10199
▁प्रतिस्थापन	-10200
वहन	-10201
▁खट	-10202
▁चह	-10203
ोपाय	-10204
▁कंस	-10205
▁मुय	-10206
▁मैन	-10207
▁हकी	-10208
ूर्वक	-10209
▁ईश्व	-10210
▁लगीं	-10211
▁शाला	-10212
त्मकता	-10213
▁अमिता	-10214
▁आभासी	-10215
▁गुंजा	-10216
▁नवजात	-10217
▁मांगी	-10218
▁सचेतन	-10219
▁समाधि	-10220
▁फैलाने	-10221
▁यदुनाथ	-10222
प्रदायिक	-10223
▁क्रीड़ा	-10224
▁विशेषतः	-10225
▁प्रतिद्व	-10226
▁CO	-10227
▁लघ	-10228
▁सँ	-10229
्यूल	-10230
▁उलट	-10231
▁कलम	-10232
▁काठ	-10233
▁सैर	-10234
▁टांग	-10235
▁षड्य	-10236
पीसीएल	-10237
▁गोदाम	-10238
▁सौंपे	-10239
▁स्टील	-10240
▁स्थगन	-10241
▁विरोधा	-10242
▁अवहेलना	-10243
▁उच्चारण	-10244
▁सन्दर्भ	-10245
▁बैंककारी	-10246
ृश	-10247
ेब	-10248
▁EE	-10249
▁करण	-10250
▁चाप	-10251
▁जता	-10252
▁अयोध	-10253
▁कॉफी	-10254
▁घुड़	-10255
▁पाकर	-10256
▁पीठा	-10257
▁मोक्ष	-10258
▁वार्म	-10259
▁विफलः	-10260
▁आरोग्य	-10261
▁सिद्धि	-10262
▁अमेरिकन	-10263
▁आक्रामक	-10264
▁रिश्तों	-10265
▁सर्वत्र	-10266
av	-10267
चय	-10268
are	-10269
ttp	-10270
असल	-10271
िशन	-10272
▁उक	-10273
▁एट	-10274
▁चिं	-10275
▁पिन	-10276
स्कों	-10277
▁आहरण	-10278
▁कांट	-10279
▁खिंच	-10280
▁टाटा	-10281
▁पहना	-10282
▁रखनी	-10283
▁कालीन	-10284
▁नाराज	-10285
▁माउंट	-10286
▁आयातित	-10287
▁प्रकरण	-10288
▁मन्त्र	-10289
▁इलैक्ट्र	-10290
▁ट्रिब्यू	-10291
▁पर्वतमाला	-10292
▁विश्वसनीयता	-10293
फेस	-10294
लिन	-10295
ांक	-10296
▁ww	-10297
▁ऐल	-10298
केशन	-10299
▁घुम	-10300
▁चाइ	-10301
▁चैक	-10302
▁रघु	-10303
▁साज	-10304
▁हृद	-10305
भावित	-10306
▁आज़ा	-10307
▁देवे	-10308
▁बचना	-10309
▁भरती	-10310
▁लगाव	-10311
▁लसीका	-10312
▁पच्चीस	-10313
▁मौलाना	-10314
▁सातवीं	-10315
▁कारखाने	-10316
▁शिष्टमंडल	-10317
पै	-10318
षऋ	-10319
ind	-10320
ण्य	-10321
धना	-10322
लोड	-10323
ंतीय	-10324
एससी	-10325
बानी	-10326
ष्ठी	-10327
▁बैर	-10328
र्जित	-10329
▁आर्ट	-10330
▁नक़ल	-10331
ष्ट्री	-10332
▁गुच्छ	-10333
▁पत्रा	-10334
▁बोलना	-10335
रेन्द्र	-10336
▁महावीर	-10337
▁औपनिवेश	-10338
▁मछलियों	-10339
▁व्यंग्य	-10340
▁अभिकर्ता	-10341
▁संप्रेषण	-10342
▁खाद्यान्न	-10343
▁पारम्परिक	-10344
▁प्रयोगशालाओं	-10345
▁प्रौद्योगिकीय	-10346
२०	-10347
art	-10348
गिर	-10349
संग	-10350
▁औस	-10351
ंकृत	-10352
ंजलि	-10353
िज्म	-10354
▁डेय	-10355
▁वफा	-10356
तावास	-10357
र्मित	-10358
शासित	-10359
▁तिरू	-10360
▁निषे	-10361
▁पौंड	-10362
▁समतल	-10363
▁सुल्	-10364
▁देसाई	-10365
▁मिलें	-10366
▁कुत्ते	-10367
▁जाएँगे	-10368
▁निकलती	-10369
▁मन्दिर	-10370
▁रियासत	-10371
▁लड़कों	-10372
▁अयोध्या	-10373
▁चंद्रमा	-10374
▁राममोहन	-10375
▁विवेकानंद	-10376
▁सांख्यिकी	-10377
ib	-10378
▁छप	-10379
ृष्ट	-10380
▁ऑटो	-10381
▁गला	-10382
▁डैक	-10383
▁राग	-10384
▁हेर	-10385
▁कृमि	-10386
▁जोकि	-10387
▁माडल	-10388
▁तलाशी	-10389
▁नलिका	-10390
▁बाधित	-10391
▁टुकड़ा	-10392
▁सीमांत	-10393
▁कार्रवा	-10394
▁पीठासीन	-10395
▁फेफड़ों	-10396
▁रेखांकित	-10397
▁सक्रियता	-10398
▁सांसारिक	-10399
▁अनौपचारिक	-10400
▁उपयोगकर्ताओं	-10401
▁st	-10402
▁कद	-10403
स्की	-10404
▁धरा	-10405
▁टाइम	-10406
▁रोमन	-10407
▁सवार	-10408
जीरिया	-10409
▁दरअसल	-10410
▁निजाम	-10411
▁भोपाल	-10412
▁मैक्स	-10413
▁निकलते	-10414
▁मेघालय	-10415
▁लेनदेन	-10416
▁संकलित	-10417
▁औषधियों	-10418
▁क्रूरता	-10419
▁शुद्धता	-10420
▁शॉर्टकट	-10421
▁कम्पनियों	-10422
▁द्विआधारी	-10423
▁प्रक्रियाएं	-10424
धु	-10425
्रमी	-10426
▁बसा	-10427
▁मिठ	-10428
▁राश	-10429
▁रिच	-10430
▁चुनी	-10431
▁तारे	-10432
▁रचित	-10433
▁सेतु	-10434
वृद्धि	-10435
▁अल्पा	-10436
▁डेयरी	-10437
▁देखती	-10438
▁विहार	-10439
▁अदायगी	-10440
▁परोक्ष	-10441
▁भाषणों	-10442
▁क्षैतिज	-10443
▁महादेवी	-10444
▁संस्कृतियों	-10445
▁प्रवृत्तियों	-10446
▁्	-10447
ंती	-10448
काई	-10449
बैक	-10450
समी	-10451
ीयर	-10452
▁St	-10453
▁अचल	-10454
▁अधू	-10455
▁आशी	-10456
त्तों	-10457
देश्य	-10458
▁एओआर	-10459
▁पढ़े	-10460
▁पुरः	-10461
▁मद्य	-10462
▁सूरत	-10463
▁अंकुर	-10464
▁घनत्व	-10465
▁भित्त	-10466
▁भेजना	-10467
▁पत्तों	-10468
▁बर्ताव	-10469
▁जबरदस्त	-10470
▁पोतन्ना	-10471
▁बेलारूस	-10472
▁ऑपरेटिंग	-10473
▁हस्तशिल्प	-10474
▁साम्प्रदायिक	-10475
िओ	-10476
चाई	-10477
▁ऑट	-10478
बीसी	-10479
▁कैश	-10480
▁विद	-10481
कर्षण	-10482
▁अष्ट	-10483
▁कतार	-10484
▁ढूँढ	-10485
▁पेंट	-10486
िपूर्ण	-10487
▁त्रास	-10488
▁दुष्ट	-10489
▁बताये	-10490
▁बेजबर	-10491
▁मार्ट	-10492
▁जटिलता	-10493
▁सीमाएं	-10494
▁अध्यापन	-10495
▁बढ़ोतरी	-10496
▁अत्याधिक	-10497
▁मातृभूमि	-10498
▁वार्षिकी	-10499
▁सर्वांगी	-10500
▁अभिप्राप्त	-10501
▁लोकप्रियता	-10502
▁इलेक्ट्रॉनिक्स	-10503
ak	-10504
इज	-10505
कथा	-10506
बाध	-10507
िकट	-10508
▁as	-10509
▁फिट	-10510
▁यंग	-10511
गुप्त	-10512
ाइयों	-10513
▁अभूत	-10514
▁खेला	-10515
▁सिया	-10516
स्वरुप	-10517
▁अवलंब	-10518
▁जेम्स	-10519
▁तेज़ी	-10520
▁पाउंड	-10521
▁अखंडता	-10522
▁मधुमक्	-10523
▁समझाया	-10524
▁प्राप्य	-10525
▁यूनिटों	-10526
▁वार्मिंग	-10527
▁त्यागपत्र	-10528
▁फ्रांसीसी	-10529
जिक	-10530
▁छी	-10531
▁बुझ	-10532
पत्ति	-10533
▁अनुष	-10534
▁कब्र	-10535
▁जीते	-10536
▁नासा	-10537
▁लौटे	-10538
▁संयम	-10539
▁सैयद	-10540
▁अपडेट	-10541
▁उदारी	-10542
▁ज्वार	-10543
▁द्रीय	-10544
▁पूछने	-10545
▁फुफ्फ	-10546
▁झारखंड	-10547
▁बराबरी	-10548
▁ब्यौरे	-10549
▁रखेंगे	-10550
▁अनुपूरक	-10551
▁निपटारा	-10552
▁पत्रकार	-10553
▁भिन्नता	-10554
▁तर्कसंगत	-10555
▁स्वराज्य	-10556
▁अतिरिक़्त	-10557
▁विद्यालयों	-10558
सस	-10559
हू	-10560
▁se	-10561
खोरी	-10562
ेदार	-10563
▁पाश	-10564
▁हता	-10565
▁मच्छ	-10566
यात्रा	-10567
ान्वित	-10568
▁आसमान	-10569
▁उत्सा	-10570
▁कैमरा	-10571
▁चैत्य	-10572
▁अन्तरा	-10573
▁अर्थों	-10574
▁कार्टून	-10575
▁जनसाधारण	-10576
▁परम्परागत	-10577
▁पत्रकारिता	-10578
ah	-10579
फिक	-10580
ions	-10581
ल्हा	-10582
▁घने	-10583
▁बढे	-10584
ेशिया	-10585
▁PROD	-10586
▁अधिश	-10587
▁टेलि	-10588
▁डेवल	-10589
▁उपवास	-10590
▁निर्म	-10591
▁विलेख	-10592
▁नरसिंह	-10593
▁नेटवर्	-10594
▁विवेचन	-10595
▁स्कूली	-10596
▁दोस्तों	-10597
▁प्रभारी	-10598
▁रामकृष्ण	-10599
▁सुसज्जित	-10600
▁सुस्पष्ट	-10601
▁रजिस्ट्रार	-10602
ोव	-10603
कोण	-10604
ब्ज	-10605
ोपै	-10606
ोली	-10607
कृमि	-10608
ट्टे	-10609
▁www	-10610
▁धंध	-10611
▁होश	-10612
लीकरण	-10613
▁बापू	-10614
▁माइन	-10615
▁म्या	-10616
▁लापर	-10617
▁कमाने	-10618
▁गिरवी	-10619
▁ट्रीय	-10620
▁दूषित	-10621
▁बर्मा	-10622
▁सिडबी	-10623
ान्तरित	-10624
▁उन्मुख	-10625
▁कृष्णा	-10626
▁साइकिल	-10627
शास्त्री	-10628
▁वृंदावन	-10629
▁उर्वरकों	-10630
▁परित्याग	-10631
▁स्वतन्त्रता	-10632
फॉ	-10633
गति	-10634
गान	-10635
संघ	-10636
▁रौ	-10637
आरआई	-10638
बड़ी	-10639
विंग	-10640
्रिक	-10641
▁डील	-10642
▁बुन	-10643
▁अमूल	-10644
▁पीना	-10645
▁फोरम	-10646
▁अवसाद	-10647
▁उठाये	-10648
▁पत्रक	-10649
▁सर्वस	-10650
▁सुव्य	-10651
▁अनुशास	-10652
▁ज़रुरत	-10653
▁समामेल	-10654
▁सूचनाएं	-10655
▁हाइड्रो	-10656
▁असमर्थता	-10657
▁पवित्रता	-10658
▁रियासतों	-10659
▁प्रत्यक्षतः	-10660
आया	-10661
थ्य	-10662
ब्बी	-10663
भाष्	-10664
लाइट	-10665
शियम	-10666
▁क्य	-10667
▁खेद	-10668
▁छुप	-10669
▁बरस	-10670
▁भाल	-10671
▁लटक	-10672
तानों	-10673
▁आरेख	-10674
▁टोकन	-10675
▁मल्ल	-10676
▁मुड़	-10677
▁बचाया	-10678
▁संभोग	-10679
▁अदृश्य	-10680
▁अनेकों	-10681
▁प्रोसेस	-10682
▁समावेदन	-10683
▁प्रतिबिंबित	-10684
ae	-10685
मुक	-10686
रणी	-10687
नीचर	-10688
्राण	-10689
▁आइट	-10690
▁ईंट	-10691
▁तान	-10692
▁पिघ	-10693
▁खंडन	-10694
▁छपाई	-10695
▁आवधिक	-10696
▁जानें	-10697
▁बदलता	-10698
▁उपस्कर	-10699
▁गोविंद	-10700
▁दिलाया	-10701
▁सारवान	-10702
▁विवाहों	-10703
▁कम्प्यूट	-10704
▁सम्पादित	-10705
▁प्रोफ़ाइल	-10706
िआ	-10707
चाल	-10708
दीप	-10709
▁फि	-10710
न्थि	-10711
दाश्त	-10712
▁कमरा	-10713
▁जनमत	-10714
▁टैंक	-10715
▁अड्डा	-10716
▁गिरने	-10717
▁तकलीफ	-10718
▁मेहरा	-10719
▁अद्वैत	-10720
▁सामरिक	-10721
▁संभाव्य	-10722
▁अस्पृश्य	-10723
▁प्रतिषेध	-10724
▁औपनिवेशिक	-10725
▁क्षतिग्रस्त	-10726
▁कार्यक्षेत्र	-10727
गेट	-10728
लता	-10729
▁de	-10730
▁मठ	-10731
गंगा	-10732
ण्डी	-10733
▁अँग	-10734
▁ऋणी	-10735
▁चांद	-10736
▁द्रो	-10737
▁सर्क	-10738
▁साधक	-10739
▁सींग	-10740
▁चौड़ा	-10741
▁जमीनी	-10742
▁महोदय	-10743
▁रस्सी	-10744
▁वेदना	-10745
▁निधियां	-10746
▁तत्त्वों	-10747
▁परिचर्चा	-10748
▁विनिर्दि	-10749
▁समानांतर	-10750
▁अनुपस्थित	-10751
▁नर्मदाशंकर	-10752
▁सॉफ़्टवेयर	-10753
ect	-10754
ड्स	-10755
ूमत	-10756
▁ऊन	-10757
▁नट	-10758
एसएस	-10759
पुरम	-10760
ग्रंथ	-10761
ाहारी	-10762
▁अंदा	-10763
▁औरंग	-10764
▁कड़ा	-10765
▁दयाल	-10766
▁निपु	-10767
▁फिल्	-10768
▁मुल्	-10769
तत्त्व	-10770
▁दूंगा	-10771
▁पढ़ते	-10772
▁वक़्त	-10773
▁सपनों	-10774
▁सिक्ख	-10775
▁अंधेरे	-10776
▁करवाना	-10777
▁फ़ारसी	-10778
▁चिड़िया	-10779
▁रिएक्टर	-10780
▁वैवाहिक	-10781
▁कुंजीपटल	-10782
▁कोल्हटकर	-10783
▁समारोहों	-10784
▁पाठ्यक्रमों	-10785
शै	-10786
ंडर	-10787
यार	-10788
शरण	-10789
▁बं	-10790
र्डर	-10791
र्मर	-10792
ेष्ठ	-10793
▁अणु	-10794
▁आलू	-10795
गाड़ी	-10796
याधीश	-10797
ारोपण	-10798
▁गाइड	-10799
▁तंतु	-10800
▁महिल	-10801
▁धर्मा	-10802
▁मुंशी	-10803
▁लिखकर	-10804
▁वेल्स	-10805
▁संकोच	-10806
▁उदारता	-10807
▁फिल्टर	-10808
▁रोमांच	-10809
▁सन्देश	-10810
▁अवरुद्ध	-10811
▁आवेदनों	-10812
▁चलचित्र	-10813
▁मुकदमों	-10814
▁सुझावों	-10815
▁स्थानाप	-10816
▁कांग्रेसी	-10817
▁संपरिवर्तन	-10818
रन	-10819
ess	-10820
ोकर	-10821
ोमा	-10822
▁em	-10823
▁and	-10824
▁नोब	-10825
▁फकी	-10826
▁मैक	-10827
न्तुक	-10828
ेलनों	-10829
▁पिंज	-10830
▁महाभ	-10831
▁वहॉँ	-10832
▁आच्छा	-10833
▁आपूर्	-10834
▁निचली	-10835
▁रुग्ण	-10836
▁वायरस	-10837
▁विखंड	-10838
▁अनुभवी	-10839
▁चित्रा	-10840
▁प्रिंस	-10841
▁अन्यत्र	-10842
▁गुंजाइश	-10843
▁संभालने	-10844
▁समतुल्य	-10845
▁समयावधि	-10846
▁अधिनियमन	-10847
▁अनुज्ञेय	-10848
▁अविश्वास	-10849
▁कहानियाँ	-10850
▁नियमावली	-10851
▁सर्वांगीण	-10852
▁मंत्रिपरिषद	-10853
▁हिन्दुस्तानी	-10854
वस	-10855
ुं	-10856
निय	-10857
▁उच	-10858
क्षे	-10859
दिरा	-10860
म्बल	-10861
ाहार	-10862
ॉर्क	-10863
▁मोक	-10864
▁लवण	-10865
▁सोप	-10866
▁कचरे	-10867
▁पूंछ	-10868
▁बराम	-10869
दर्शित	-10870
िक्षित	-10871
▁चलेगा	-10872
▁जड़ें	-10873
▁तैनात	-10874
▁पड़ना	-10875
▁राजने	-10876
▁सवारी	-10877
▁सुगंध	-10878
कांक्षी	-10879
▁कपड़ों	-10880
▁ड्यूटी	-10881
▁रिसर्च	-10882
▁संकुचन	-10883
▁रोज़गार	-10884
▁विमानों	-10885
▁शिष्यों	-10886
▁उद्घोषणा	-10887
▁सम्बंधित	-10888
▁मुद्रास्फीति	-10889
आप	-10890
टलर	-10891
टेन	-10892
धीय	-10893
ानक	-10894
▁भट	-10895
▁जेब	-10896
▁भाष	-10897
▁शैव	-10898
खियों	-10899
स्राव	-10900
ोक्ति	-10901
▁उठती	-10902
▁औसतन	-10903
▁दैवी	-10904
▁पराग	-10905
▁भड़क	-10906
▁लाकर	-10907
▁वाकई	-10908
▁शिवा	-10909
▁आवंटन	-10910
▁कच्ची	-10911
▁अप्रति	-10912
▁कर्मका	-10913
▁अविभक्त	-10914
▁कमिश्नर	-10915
▁पुराणों	-10916
▁शत्रुओं	-10917
▁संरक्षा	-10918
▁आधारशिला	-10919
▁यूरोपियन	-10920
▁रूपान्तर	-10921
▁षड्यंत्र	-10922
▁प्रतिबन्ध	-10923
▁प्रयत्नों	-10924
▁व्यवहार्य	-10925
▁AT	-10926
▁gu	-10927
▁आड	-10928
▁ऋष	-10929
▁थक	-10930
NAME	-10931
त्रय	-10932
हानि	-10933
▁पिच	-10934
▁भाज	-10935
▁मकर	-10936
▁सरी	-10937
▁हँस	-10938
ज्ञों	-10939
लियां	-10940
▁गायक	-10941
▁बाइट	-10942
▁लेखे	-10943
▁वीणा	-10944
ास्त्र	-10945
▁अमिताभ	-10946
▁प्रताप	-10947
▁प्रथाओं	-10948
▁आंदोलनों	-10949
▁गोपनीयता	-10950
▁घटनाक्रम	-10951
▁प्रतिभाग	-10952
▁विषयवस्तु	-10953
▁राष्ट्रमंडल	-10954
▁अभियांत्रिकी	-10955
oun	-10956
थिक	-10957
याब	-10958
्तर	-10959
पाटी	-10960
वेली	-10961
▁एसी	-10962
▁थलग	-10963
▁पंज	-10964
▁फाल	-10965
▁युव	-10966
▁सहस	-10967
ंत्रण	-10968
न्दरी	-10969
विहीन	-10970
▁एसिड	-10971
▁थोडा	-10972
▁साँस	-10973
चिकित्	-10974
▁कीड़े	-10975
▁चढ़ाव	-10976
▁दोहरी	-10977
▁कठोरता	-10978
▁दिखाते	-10979
▁नदियां	-10980
▁नागपुर	-10981
▁महत्तर	-10982
▁यन्त्र	-10983
▁अनुकूलन	-10984
▁दर्शाते	-10985
▁वांछनीय	-10986
▁प्रांतीय	-10987
▁वार्तालाप	-10988
▁संयंत्रों	-10989
▁विद्यासागर	-10990
▁ee	-10991
▁vii	-10992
▁जोश	-10993
▁दां	-10994
▁मिज	-10995
▁सडक	-10996
▁उठते	-10997
▁काशी	-10998
▁बतला	-10999
▁राजग	-11000
▁लोकल	-11001
▁होली	-11002
▁योंकि	-11003
▁साँचा	-11004
▁आकृष्ट	-11005
▁दांतों	-11006
▁उदासीनता	-11007
▁उदाहरणों	-11008
▁द्वितीयक	-11009
▁परामर्शी	-11010
▁अभूतपूर्व	-11011
▁पार्टियों	-11012
▁बल्लेबाजी	-11013
▁यूनिवर्सिटी	-11014
▁ं	-11015
our	-11016
सेज	-11017
▁फं	-11018
▁शन	-11019
जवान	-11020
यनों	-11021
▁पुत	-11022
▁भाप	-11023
▁सप्	-11024
खास्त	-11025
ृद्धि	-11026
ोरियम	-11027
▁आर्क	-11028
▁वृहत	-11029
▁हटकर	-11030
▁कुछेक	-11031
▁नोटों	-11032
▁परिणत	-11033
▁पाषाण	-11034
▁बनावट	-11035
▁मौसमी	-11036
▁विलास	-11037
▁साहिब	-11038
▁कदाचार	-11039
▁परिवाद	-11040
▁श्रृंग	-11041
▁मार्केट	-11042
▁सर्वोपरि	-11043
▁अस्पतालों	-11044
▁सम्मेलनों	-11045
▁पाकिस्तानी	-11046
▁विवेकाधिकार	-11047
ध्	-11048
िटर	-11049
▁hO	-11050
कर्ण	-11051
▁टॉम	-11052
▁दुब	-11053
ांतिक	-11054
िवर्त	-11055
▁कणों	-11056
▁गुरब	-11057
▁चतुर	-11058
▁शीतल	-11059
▁क्षीण	-11060
▁बागान	-11061
▁वैधता	-11062
▁श्रवण	-11063
▁पड़ताल	-11064
▁मेजबान	-11065
▁राजकोष	-11066
▁दूतावास	-11067
▁नरेंद्र	-11068
▁समावेशन	-11069
▁दुर्भाग्यवश	-11070
▁सिद्धान्तों	-11071
इए	-11072
हो	-11073
ाश	-11074
ant	-11075
▁गे	-11076
▁झं	-11077
▁तस	-11078
▁फट	-11079
दांत	-11080
▁कश्	-11081
▁पैग	-11082
▁मदन	-11083
▁साय	-11084
▁चमकी	-11085
▁डेमो	-11086
▁पर्ण	-11087
▁पारी	-11088
▁लाते	-11089
िस्तान	-11090
▁उल्टी	-11091
▁गिर्द	-11092
▁बहाना	-11093
▁मक्खी	-11094
▁चार्टर	-11095
▁दरवाजा	-11096
▁लोकहित	-11097
▁संबधित	-11098
▁कीटनाशक	-11099
▁सामान्यत	-11100
▁हड्डियों	-11101
▁चुनौतियां	-11102
▁शू	-11103
पुरा	-11104
फ़ोन	-11105
▁बाब	-11106
▁संक	-11107
नुसार	-11108
िक्षा	-11109
ोपड़ी	-11110
▁तालि	-11111
▁दलित	-11112
▁धमनी	-11113
▁ललित	-11114
▁लिहा	-11115
ान्तरण	-11116
▁कोर्स	-11117
▁जिंदा	-11118
▁ट्रेन	-11119
▁रुपया	-11120
▁स्वंय	-11121
▁आरोपित	-11122
▁निकटतम	-11123
▁निबन्ध	-11124
▁ब्यौरा	-11125
▁रेड्डी	-11126
▁वर्जित	-11127
▁स्वीडन	-11128
▁क्लाइंट	-11129
▁कार्यकार	-11130
▁निरीक्षक	-11131
▁अध्यापकों	-11132
▁स्त्रियां	-11133
▁कार्यनीतिक	-11134
ऊंगा	-11135
नायक	-11136
▁बैच	-11137
कार्ड	-11138
द्रिक	-11139
▁अराज	-11140
▁आईएफ	-11141
▁भुला	-11142
▁दुहरा	-11143
▁पैकेट	-11144
▁संघों	-11145
▁सस्ता	-11146
▁अमूर्त	-11147
▁कमियों	-11148
▁कार्यो	-11149
▁तिब्बत	-11150
▁हुकूमत	-11151
▁मर्यादा	-11152
▁परमेश्वर	-11153
इम	-11154
her	-11155
नेल	-11156
▁कटा	-11157
▁कप्	-11158
▁जोध	-11159
ेक्टर	-11160
▁असम्	-11161
▁गाजा	-11162
▁चेतन	-11163
▁जरुर	-11164
▁परिभ	-11165
▁पेशा	-11166
▁बाएं	-11167
▁ऊष्मा	-11168
▁ग्रेट	-11169
▁वारिस	-11170
क्षोपाय	-11171
त्साहित	-11172
▁जानकार	-11173
▁दिखाएं	-11174
▁फर्नीचर	-11175
▁अस्वीकृत	-11176
▁कांफ्रेंस	-11177
▁नाइट्रोजन	-11178
▁इंडोनेशिया	-11179
▁प्रतिपादित	-11180
फ्	-11181
खले	-11182
ुली	-11183
ैंप	-11184
▁र्	-11185
▁कण्	-11186
▁कोह	-11187
▁जेन	-11188
▁नस्	-11189
▁रोल	-11190
ार्जन	-11191
▁अग्न	-11192
▁काबू	-11193
▁कुंज	-11194
▁घबरा	-11195
▁नर्इ	-11196
▁बदली	-11197
▁मरीज	-11198
▁लगना	-11199
▁लाला	-11200
▁सल्ल	-11201
प्रभाव	-11202
▁कायदा	-11203
▁टैक्स	-11204
▁दर्पण	-11205
▁नोबेल	-11206
▁फसलें	-11207
▁बनेगा	-11208
▁राहुल	-11209
▁शुभार	-11210
ापूर्वक	-11211
▁अंधकार	-11212
▁उदात्त	-11213
▁निभाने	-11214
▁नियामक	-11215
▁अध्यधीन	-11216
▁तीक्ष्ण	-11217
▁महासचिव	-11218
▁राशियों	-11219
▁उपेक्षित	-11220
▁प्रमाणीकरण	-11221
▁वृद्धावस्था	-11222
सिड	-11223
घाती	-11224
प्सा	-11225
रांत	-11226
▁अमा	-11227
▁अरा	-11228
▁आति	-11229
▁काँ	-11230
▁जलन	-11231
▁राख	-11232
▁शिम	-11233
▁सोन	-11234
ोड़ों	-11235
▁अरुण	-11236
▁जमाव	-11237
▁लाइट	-11238
▁विरल	-11239
▁शिला	-11240
▁औरतों	-11241
▁घोड़ा	-11242
▁चौड़ी	-11243
▁दुसरे	-11244
▁धक्का	-11245
▁प्रवी	-11246
▁भाजपा	-11247
▁रूढ़ि	-11248
▁हज़ार	-11249
स्थापना	-11250
▁इजराइल	-11251
▁खर्चों	-11252
▁जुड़ने	-11253
▁दुश्मन	-11254
▁पर्यवे	-11255
▁बनवाया	-11256
▁सद्भाव	-11257
▁सिखाया	-11258
▁मालिकों	-11259
▁नागालैंड	-11260
▁पूर्वाग्रह	-11261
▁प्रजातियां	-11262
ंचे	-11263
ौली	-11264
वाहक	-11265
ोज्य	-11266
▁गें	-11267
गृहीत	-11268
पुत्र	-11269
र्करा	-11270
▁कुला	-11271
▁चोटी	-11272
▁जलीय	-11273
▁फ़िल	-11274
▁संगो	-11275
▁सूखी	-11276
बुद्धि	-11277
▁पकड़ा	-11278
▁मंचों	-11279
▁रिवाज	-11280
▁अधिप्र	-11281
▁अभिभाव	-11282
▁टुकड़ों	-11283
▁निलंबित	-11284
▁प्रवृति	-11285
▁भंडारित	-11286
▁विभागीय	-11287
▁क्रोमियम	-11288
▁देशभक्ति	-11289
▁प्रतिक्रियाओं	-11290
ST	-11291
ud	-11292
फन	-11293
२ख	-11294
गना	-11295
सोस	-11296
ापा	-11297
▁इर	-11298
प्रे	-11299
▁जोन	-11300
▁लॉक	-11301
▁हेन	-11302
ारिटी	-11303
▁अकसर	-11304
▁कपिल	-11305
▁कांस	-11306
▁काया	-11307
▁गुवा	-11308
▁जुडे	-11309
▁जूते	-11310
▁प्या	-11311
▁भरना	-11312
▁घटाने	-11313
▁चुम्ब	-11314
▁निकली	-11315
▁बताती	-11316
▁आरम्भिक	-11317
▁अभिलाभों	-11318
▁निर्धनता	-11319
▁ब्रह्मांड	-11320
▁ब्राह्मणों	-11321
▁प्रत्यर्थियों	-11322
षेक	-11323
▁ओड़	-11324
▁ढोल	-11325
▁बिक	-11326
▁मज्	-11327
▁लती	-11328
ंबंधी	-11329
पमेंट	-11330
संहार	-11331
▁आवेग	-11332
▁इर्द	-11333
▁गांठ	-11334
▁नक्ष	-11335
▁मकसद	-11336
▁युगल	-11337
▁हथकर	-11338
▁गैसों	-11339
▁कप्तान	-11340
▁करूँगा	-11341
▁कृषकों	-11342
▁घुटनों	-11343
▁परिसंघ	-11344
▁स्तम्भ	-11345
▁इंग्लिश	-11346
▁करोड़ों	-11347
▁पुरूषों	-11348
▁व्यक़्त	-11349
▁निष्कर्षों	-11350
ep	-11351
ard	-11352
तिर	-11353
ल्म	-11354
ोचन	-11355
▁द्	-11356
ज़ोर	-11357
लेखा	-11358
स्टी	-11359
ाप्र	-11360
▁org	-11361
▁गुज	-11362
▁मेट	-11363
▁रूक	-11364
▁सजग	-11365
ंडिंग	-11366
कीकरण	-11367
▁क्ले	-11368
▁जनित	-11369
▁पीला	-11370
▁मोचन	-11371
▁अवक्ष	-11372
▁आलोचक	-11373
▁उभरते	-11374
▁गुलाब	-11375
▁जाग्र	-11376
▁ब्लैक	-11377
▁वरदान	-11378
▁हरिजन	-11379
▁असहमति	-11380
▁नौजवान	-11381
▁बंगलौर	-11382
▁बैठकें	-11383
▁भेड़ों	-11384
▁मिटाएँ	-11385
▁दृश्यों	-11386
▁मौद्रिक	-11387
▁राजशाही	-11388
▁रिवाजों	-11389
▁विवाहित	-11390
▁संदेशों	-11391
▁समामेलन	-11392
▁हाथियों	-11393
▁अपमानजनक	-11394
▁उन्मुक्त	-11395
▁निर्यातक	-11396
▁यात्राओं	-11397
▁पड़ोसियों	-11398
▁परिलक्षित	-11399
▁प्रतिबिंब	-11400
२१	-11401
लीस	-11402
ीयू	-11403
efit	-11404
गण्य	-11405
डीपी	-11406
▁अवन	-11407
▁कें	-11408
▁डाई	-11409
▁सान	-11410
▁साधु	-11411
▁सीबी	-11412
रेनियम	-11413
▁अलगाव	-11414
▁एटीएम	-11415
▁खोजें	-11416
▁जवाहर	-11417
▁दिखाए	-11418
कर्त्ता	-11419
▁जहाजों	-11420
▁दूरभाष	-11421
▁निवारक	-11422
▁रचनाएं	-11423
▁दीर्घाव	-11424
▁शुक्राणु	-11425
▁प्रतिपादन	-11426
झक	-11427
ढा	-11428
ौरन	-11429
▁ko	-11430
▁घि	-11431
▁मथ	-11432
iver	-11433
ज्जु	-11434
पाही	-11435
्ट्र	-11436
▁रहो	-11437
▁अकाल	-11438
▁छेड़	-11439
▁जस्ट	-11440
▁झुंड	-11441
▁पावन	-11442
▁सोया	-11443
▁कलाओं	-11444
▁स्टोर	-11445
▁कहलाती	-11446
▁खासतौर	-11447
▁प्राक्	-11448
▁लम्बाई	-11449
▁शक़्ति	-11450
▁साँचाः	-11451
▁सामग्र	-11452
▁सिक्के	-11453
▁स्थापन	-11454
▁जन्मजात	-11455
▁रणनीतिक	-11456
▁स्ट्रीम	-11457
▁कॉपीराइट	-11458
▁गतिशीलता	-11459
▁उत्तराखंड	-11460
▁उपलब्धियां	-11461
▁पुनर्निर्माण	-11462
लर	-11463
ide	-11464
ive	-11465
ण्डा	-11466
शेखर	-11467
▁खडे	-11468
▁निज	-11469
▁बन्	-11470
▁सुग	-11471
▁ताना	-11472
▁दोहन	-11473
▁मुर्	-11474
▁रीढ़	-11475
▁लपेट	-11476
▁विदा	-11477
▁सोलह	-11478
enefit	-11479
▁अंशों	-11480
▁अठारह	-11481
▁काबुल	-11482
▁कीमती	-11483
▁चाहने	-11484
▁जिहाद	-11485
▁तटस्थ	-11486
▁पत्ती	-11487
▁पराजय	-11488
▁पेशाब	-11489
▁भावों	-11490
▁सस्ती	-11491
▁असीमित	-11492
▁कामगार	-11493
▁कीमिया	-11494
▁सम्यक्	-11495
▁ईश्वरीय	-11496
▁किताबों	-11497
▁डाटाबेस	-11498
▁पर्वतों	-11499
▁प्रत्ये	-11500
▁परिसंपत्ति	-11501
▁शेयरधारकों	-11502
▁परिवीक्षाधीन	-11503
तीस	-11504
नित	-11505
भोग	-11506
माता	-11507
स्तक	-11508
ुन्ट	-11509
▁एपी	-11510
▁कवक	-11511
▁केक	-11512
▁चूह	-11513
▁छीन	-11514
आयामी	-11515
ियाना	-11516
▁अर्ह	-11517
▁उठकर	-11518
▁बुजु	-11519
▁भीषण	-11520
▁रखाव	-11521
▁रिली	-11522
▁अपीली	-11523
▁उद्दी	-11524
▁घुटने	-11525
▁माइनस	-11526
▁सिद्व	-11527
▁ह्रदय	-11528
▁कैरियर	-11529
▁गुर्दे	-11530
▁छानबीन	-11531
▁नामकरण	-11532
▁पड़ेगी	-11533
विज्ञानी	-11534
▁असुविधा	-11535
▁मार्क्स	-11536
▁करनेवाली	-11537
▁प्रकोष्ठ	-11538
▁बेजबरुवा	-11539
▁मानसिकता	-11540
▁कठिनाइयां	-11541
▁राष्ट्रवाद	-11542
▁प्रतिभाशाली	-11543
▁हस्ताक्षरित	-11544
▁देवेन्द्रनाथ	-11545
झी	-11546
टिन	-11547
सील	-11548
▁AP	-11549
▁ऑयल	-11550
▁कुट	-11551
बाज़ी	-11552
▁कमान	-11553
▁जूरी	-11554
▁मुहर	-11555
▁मेधा	-11556
▁यादव	-11557
▁लेबन	-11558
▁वायस	-11559
▁एहसास	-11560
▁एकाधिक	-11561
▁पन्द्र	-11562
▁मुसीबत	-11563
▁हरिश्च	-11564
▁निकालकर	-11565
▁पहुंचना	-11566
▁मार्जिन	-11567
▁वैचारिक	-11568
▁बस्तियों	-11569
▁अंतर्वलित	-11570
▁रूपांतरित	-11571
▁सैद्धांतिक	-11572
aI	-11573
आउट	-11574
कटि	-11575
▁Al	-11576
▁फफ	-11577
▁हठ	-11578
ंटिक	-11579
किसी	-11580
खाने	-11581
ल्लम	-11582
ुप्त	-11583
▁for	-11584
▁कैथ	-11585
▁कोऋ	-11586
▁कोच	-11587
▁ठंड	-11588
▁रहस	-11589
▁रूख	-11590
▁आभार	-11591
▁छिपे	-11592
▁तुलन	-11593
▁बेचा	-11594
▁रोपण	-11595
च्छन्न	-11596
▁अड्डे	-11597
▁पक्षा	-11598
▁ऊर्ध्व	-11599
▁जोड़ता	-11600
▁निर्मल	-11601
▁भाषाएँ	-11602
चिकित्सा	-11603
▁एकरूपता	-11604
▁सेनापति	-11605
▁उग्रवादी	-11606
▁उत्कीर्ण	-11607
▁दूरदर्शन	-11608
▁रिपब्लिक	-11609
▁उन्नीसवीं	-11610
▁न्यायसंगत	-11611
▁लाइब्रेरी	-11612
▁अधिनिर्णीत	-11613
बिक	-11614
लिफ	-11615
वुड	-11616
करों	-11617
श्री	-11618
▁अंब	-11619
▁गड्	-11620
▁जूझ	-11621
▁पैक	-11622
▁फलन	-11623
▁यूट	-11624
▁हेड	-11625
योजित	-11626
िकाएं	-11627
ित्ति	-11628
्रामक	-11629
▁आइटम	-11630
▁आएगी	-11631
▁घाना	-11632
▁जबतक	-11633
▁जाली	-11634
▁पितृ	-11635
▁रोके	-11636
▁लाता	-11637
▁अभिवा	-11638
▁आत्मक	-11639
▁कैम्प	-11640
▁सुचार	-11641
▁फ्रेंच	-11642
▁विषाणु	-11643
▁सिक्का	-11644
▁सुशासन	-11645
▁अनुषंगी	-11646
▁नर्सिंग	-11647
▁परिषदों	-11648
▁आनुपातिक	-11649
▁करनेवाला	-11650
▁जिज्ञासा	-11651
▁पदोन्नति	-11652
▁परिचालित	-11653
▁अनुज्ञप्ति	-11654
▁सुप्रसिद्ध	-11655
..	-11656
▁on	-11657
▁घी	-11658
▁जक	-11659
ंजित	-11660
कर्स	-11661
मिति	-11662
वर्ण	-11663
▁केर	-11664
निर्ण	-11665
्लैंड	-11666
▁आफिस	-11667
▁आवेश	-11668
▁ऑप्ट	-11669
▁कपूर	-11670
▁गायन	-11671
▁छन्द	-11672
▁भागत	-11673
▁भूरे	-11674
▁यकृत	-11675
▁हिरण	-11676
▁डायरी	-11677
▁दबाने	-11678
▁रद्दी	-11679
▁वाष्प	-11680
▁देखिये	-11681
▁विवरणों	-11682
▁स्ट्रीट	-11683
▁गुवाहाटी	-11684
▁तत्संबंधी	-11685
▁प्रत्याशा	-11686
▁राजेन्द्र	-11687
▁प्रणालियां	-11688
▁कार्यकारिणी	-11689
▁पारिस्थितिकी	-11690
हट	-11691
माय	-11692
रीब	-11693
िपल	-11694
ोमो	-11695
एमएस	-11696
करार	-11697
गर्भ	-11698
नाशी	-11699
योगी	-11700
▁अंस	-11701
▁गाल	-11702
▁घटी	-11703
▁घुल	-11704
▁घोल	-11705
▁चर्	-11706
▁जीभ	-11707
▁बरत	-11708
▁बास	-11709
▁सल्	-11710
▁आज्ञ	-11711
▁इन्फ	-11712
▁क्वा	-11713
▁मज़ा	-11714
ग्रन्थ	-11715
निकेतन	-11716
▁उद्भव	-11717
▁बरसात	-11718
▁सम्यक	-11719
▁सुनना	-11720
▁हल्की	-11721
▁चार्ल्स	-11722
▁मार्गों	-11723
▁शुरुआती	-11724
▁निर्देशन	-11725
▁विज्ञानी	-11726
▁कार्यनीति	-11727
▁बुद्धिमत्ता	-11728
▁कार्यप्रणाली	-11729
गरण	-11730
विद	-11731
▁to	-11732
▁कऋ	-11733
▁झी	-11734
▁हज	-11735
विड़	-11736
▁कतर	-11737
▁खोद	-11738
▁परख	-11739
▁बिज	-11740
▁रास	-11741
▁सीप	-11742
▁उद्व	-11743
▁बनें	-11744
▁बहने	-11745
▁बिंद	-11746
▁राज़	-11747
▁लड़क	-11748
न्त्री	-11749
▁अकेली	-11750
▁चालित	-11751
▁धब्बे	-11752
▁आँकड़ा	-11753
▁आवंटित	-11754
▁गणितीय	-11755
▁ज्ञानी	-11756
▁बहियों	-11757
▁वर्तनी	-11758
▁संवेदी	-11759
▁सिपाही	-11760
▁उदारीकरण	-11761
▁प्रतिज्ञा	-11762
AR	-11763
ON	-11764
मूद	-11765
▁ओस	-11766
क्से	-11767
डियम	-11768
नामी	-11769
ाधीन	-11770
ुकूल	-11771
▁कुच	-11772
▁कौम	-11773
▁खडा	-11774
▁नशी	-11775
वर्धक	-11776
ामंडल	-11777
▁आदिम	-11778
▁उभरे	-11779
▁गिरी	-11780
▁द्यो	-11781
▁नकार	-11782
▁पोशा	-11783
▁वायर	-11784
▁सूती	-11785
▁अनगिन	-11786
▁खरीदी	-11787
▁डालती	-11788
▁बिलों	-11789
▁रवैया	-11790
▁विध्व	-11791
▁अनदेखी	-11792
▁फिलहाल	-11793
▁परीक्षक	-11794
▁पहचानने	-11795
▁बुजुर्ग	-11796
▁समझौतों	-11797
▁अनुष्ठान	-11798
▁प्रदर्शक	-11799
बरे	-11800
बूत	-11801
सुर	-11802
्रह	-11803
▁बङ	-11804
▁वश	-11805
ानेक	-11806
▁चीफ	-11807
▁तने	-11808
▁नर्	-11809
▁पूल	-11810
र्वाद	-11811
्मीकि	-11812
▁उठाई	-11813
▁फोकस	-11814
▁अपलोड	-11815
▁असहाय	-11816
▁आठवीं	-11817
▁दसवीं	-11818
▁संकुल	-11819
▁स्कैन	-11820
कृतियों	-11821
▁चतुर्थ	-11822
▁निशाना	-11823
▁सन्देह	-11824
▁आदमियों	-11825
▁पुनरुत्	-11826
▁मिलेंगे	-11827
▁वाद्यों	-11828
▁पांडुलिप	-11829
▁प्रोत्सा	-11830
▁मानवाधिकार	-11831
ैप	-11832
ies	-11833
ine	-11834
णसी	-11835
▁नख	-11836
▁मच	-11837
ंगनी	-11838
वेरी	-11839
सेसर	-11840
िलाई	-11841
ैनिक	-11842
▁किफ	-11843
▁मात	-11844
▁रिल	-11845
▁लोम	-11846
▁ऐक्ट	-11847
▁नकली	-11848
▁निता	-11849
▁मजाक	-11850
▁साउथ	-11851
▁काटना	-11852
▁घुड़स	-11853
▁जोज़े	-11854
▁डालकर	-11855
▁तुमसे	-11856
▁पंखों	-11857
▁पढ़कर	-11858
▁बिगड़	-11859
▁सावधि	-11860
▁सॉल्व	-11861
ोर्निया	-11862
▁चिंताओं	-11863
▁पहाड़ों	-11864
▁वायुयान	-11865
▁यूरेनियम	-11866
▁संश्लेषण	-11867
▁मुर्गियों	-11868
▁हाइड्रोजन	-11869
▁सांविधानिक	-11870
ऋर	-11871
गम्य	-11872
गोचर	-11873
चर्य	-11874
चुअल	-11875
तमंद	-11876
र्शी	-11877
ौकिक	-11878
्यूब	-11879
▁अरु	-11880
▁पाक	-11881
▁पिक	-11882
▁फीड	-11883
▁मिड	-11884
▁राइ	-11885
▁विह	-11886
▁हिच	-11887
मान्त	-11888
▁ईर्ष	-11889
▁झुका	-11890
▁टेबल	-11891
▁डेढ़	-11892
▁बालू	-11893
▁इशारा	-11894
▁एकाएक	-11895
▁खोलना	-11896
▁जर्नल	-11897
▁पीडित	-11898
▁पोषित	-11899
▁बांटा	-11900
▁विक्ट	-11901
▁सब्जी	-11902
जीवियों	-11903
प्रतिशत	-11904
स्वार्थ	-11905
▁काव्या	-11906
▁चुकौती	-11907
▁विचलित	-11908
▁विधिवत	-11909
▁सिगरेट	-11910
▁पुत्रों	-11911
▁प्रदूषक	-11912
▁सिलसिले	-11913
▁अनेकानेक	-11914
▁राजकुमारी	-11915
▁संभाव्यता	-11916
▁प्रतिस्पर्धी	-11917
ख्य	-11918
▁Aa	-11919
लाबी	-11920
▁III	-11921
▁कन्	-11922
▁जात	-11923
▁रेज	-11924
▁शहद	-11925
▁सूख	-11926
ग्रही	-11927
बंधित	-11928
▁उभरा	-11929
▁कच्छ	-11930
▁चुनि	-11931
▁धनुष	-11932
▁बाली	-11933
▁मीरा	-11934
▁यूएस	-11935
▁सुकर	-11936
▁स्टे	-11937
▁इस्ती	-11938
▁डब्लू	-11939
▁मानती	-11940
▁रुझान	-11941
▁सेंटी	-11942
▁कीमतें	-11943
▁कुर्की	-11944
▁एजेन्सी	-11945
▁परिपाटी	-11946
▁पहुंचते	-11947
▁वाराणसी	-11948
▁समयबद्ध	-11949
▁प्रक्रमण	-11950
▁प्रांतों	-11951
▁संतुष्टि	-11952
▁सार्वभौम	-11953
▁सेटिंग्स	-11954
▁विकासात्मक	-11955
▁पुनरावृत्ति	-11956
▁प्रतिभागियों	-11957
ort	-11958
णाम	-11959
▁IS	-11960
▁इज	-11961
▁गन	-11962
एंगे	-11963
पाती	-11964
योजन	-11965
▁छठी	-11966
▁मों	-11967
ालिया	-11968
▁इन्स	-11969
▁उड़न	-11970
▁फ्ला	-11971
▁मुक़	-11972
▁विज़	-11973
▁सादे	-11974
▁गोल्ड	-11975
▁पार्थ	-11976
▁भगवती	-11977
▁मेहता	-11978
▁सेमिन	-11979
ानात्मक	-11980
▁कहलाते	-11981
▁नैसर्ग	-11982
▁बिल्ली	-11983
▁मुनाफा	-11984
▁वेश्या	-11985
▁सहभागी	-11986
▁अवशिष्ट	-11987
▁ऋणात्मक	-11988
▁गुरबख्श	-11989
▁पुरोहित	-11990
▁ब्राजील	-11991
▁अनुदेशों	-11992
▁उत्तीर्ण	-11993
▁निर्वाचक	-11994
▁मतदाताओं	-11995
▁महाभियोग	-11996
▁वायुसेना	-11997
▁तत्पश्चात	-11998
▁त्रुटियों	-11999
▁संवेदनशीलता	-12000
▁सुव्यवस्थित	-12001
रव	-12002
करे	-12003
देह	-12004
्य्	-12005
ंचना	-12006
स्टन	-12007
हाइट	-12008
▁केन	-12009
▁जिम	-12010
▁नवल	-12011
▁मोज	-12012
▁अनाथ	-12013
▁कालि	-12014
▁चारे	-12015
जीलैंड	-12016
स्थायी	-12017
▁खजाने	-12018
▁जागरण	-12019
▁निगाह	-12020
▁मध्या	-12021
राष्ट्र	-12022
▁संकुचित	-12023
▁स्टेशनों	-12024
▁पुर्तगाली	-12025
▁ट्रिब्यूनल	-12026
▁ण	-12027
ink	-12028
ंरभ	-12029
मास	-12030
िनस	-12031
ुरू	-12032
▁भत	-12033
आईएस	-12034
जियम	-12035
लब्ध	-12036
स्का	-12037
▁अथक	-12038
▁कुद	-12039
▁जोग	-12040
▁मनु	-12041
▁मोम	-12042
▁कैल्	-12043
▁ख़ान	-12044
▁जुडी	-12045
▁त्या	-12046
▁बुढ़	-12047
▁यत्न	-12048
▁अंकुश	-12049
▁तूफान	-12050
▁मनोमय	-12051
▁वीरता	-12052
▁संवित	-12053
▁अनदेखा	-12054
▁अफ़्री	-12055
▁निभाता	-12056
▁निरूपण	-12057
▁रुकावट	-12058
▁रेटिंग	-12059
▁सुनाया	-12060
▁जनशक्ति	-12061
▁परिजनों	-12062
▁इन्द्रिय	-12063
▁संख्याओं	-12064
▁उत्पादकों	-12065
▁साम्यवादी	-12066
▁व्यवस्थाओं	-12067
mp	-12068
ंटा	-12069
गीत	-12070
दिव	-12071
रिफ	-12072
सिल	-12073
ुकत	-12074
▁कवच	-12075
▁दीख	-12076
▁फ़ी	-12077
▁भगव	-12078
▁माई	-12079
▁रोह	-12080
▁शाप	-12081
▁कड़े	-12082
▁कुचल	-12083
▁दफ्त	-12084
▁देसी	-12085
▁नैगम	-12086
▁लंका	-12087
▁अनवरत	-12088
▁पकड़े	-12089
▁रक़्त	-12090
▁विजयी	-12091
▁गंधर्व	-12092
▁जोड़कर	-12093
▁भ्रामक	-12094
▁इमारतों	-12095
▁उत्साहित	-12096
▁जानेवाले	-12097
▁होनेवाली	-12098
▁अन्तरराष्ट्रीय	-12099
ma	-12100
ill	-12101
वने	-12102
शों	-12103
ूपा	-12104
▁घू	-12105
श्या	-12106
िकार	-12107
ुलिन	-12108
ोस्ट	-12109
▁कटक	-12110
▁ट्व	-12111
▁मिर	-12112
▁अन्व	-12113
▁एनएस	-12114
▁क्रू	-12115
▁बोनस	-12116
▁मर्म	-12117
▁यहॉँ	-12118
▁अस्वा	-12119
▁गुम्ब	-12120
▁घटिया	-12121
▁जीनों	-12122
▁नायडू	-12123
▁पुर्न	-12124
▁बर्बर	-12125
▁भूभाग	-12126
▁वार्ड	-12127
▁संचलन	-12128
▁सांके	-12129
किस्तान	-12130
▁जोधपुर	-12131
▁नेपाली	-12132
▁पदधारी	-12133
▁भ्रमित	-12134
▁लेखाओं	-12135
▁शाखाएं	-12136
▁सूरदास	-12137
िवर्तनीय	-12138
▁अवक्षयण	-12139
▁आत्मकथा	-12140
▁तालिबान	-12141
▁परन्तुक	-12142
▁बुनियाद	-12143
▁अंग्रेज़	-12144
▁नवीकरणीय	-12145
▁मातृभाषा	-12146
▁साम्यवाद	-12147
▁छात्रवृत्ति	-12148
ra	-12149
ञ्च	-12150
नाद	-12151
ोले	-12152
टीपी	-12153
ार्ग	-12154
▁एनी	-12155
▁छठे	-12156
▁जना	-12157
▁दोन	-12158
▁विव	-12159
▁साँ	-12160
▁हिट	-12161
िक्षण	-12162
▁अंधा	-12163
▁गुदा	-12164
▁घोषण	-12165
▁वाक्	-12166
▁शिल्	-12167
▁संचय	-12168
▁आपमें	-12169
▁उभरती	-12170
▁कदमों	-12171
▁खरीदा	-12172
▁ठहराव	-12173
▁पल्लव	-12174
▁मौर्य	-12175
▁कहेंगे	-12176
▁शिवाजी	-12177
▁सवालों	-12178
▁आलोचकों	-12179
▁क्षुद्र	-12180
▁दिखायें	-12181
▁निषिद्ध	-12182
▁प्रतीका	-12183
▁शुभारंभ	-12184
▁समवर्ती	-12185
▁सराहनीय	-12186
▁नैसर्गिक	-12187
▁पूर्वगामी	-12188
▁बेरोजगारी	-12189
ew	-12190
ैग	-12191
मरी	-12192
श्क	-12193
▁af	-12194
▁ऑल	-12195
ंद्व	-12196
लेटर	-12197
वासन	-12198
शासन	-12199
स्वा	-12200
▁आधि	-12201
▁ज्ह	-12202
▁डबल	-12203
▁दीप	-12204
▁मरु	-12205
ियनों	-12206
▁खयाल	-12207
▁धड़क	-12208
▁राइट	-12209
ण्डेकर	-12210
▁कोलंब	-12211
▁गुज़र	-12212
▁चलाते	-12213
▁देयता	-12214
▁मनोहर	-12215
▁अहंकार	-12216
▁क़ुरआन	-12217
▁कुमारी	-12218
▁मिटाने	-12219
▁विमानन	-12220
▁शिकारी	-12221
▁शेयर्स	-12222
▁हथकरघा	-12223
▁पन्द्रह	-12224
▁विश्वभर	-12225
▁अध्ययनों	-12226
▁खाण्डेकर	-12227
▁निबंधनों	-12228
▁सांकेतिक	-12229
रथ	-12230
फली	-12231
▁ढु	-12232
▁मग	-12233
▁मय	-12234
काशी	-12235
निधि	-12236
यिता	-12237
ुलकर	-12238
ोलिक	-12239
▁आईए	-12240
▁उखा	-12241
▁उनह	-12242
▁थें	-12243
▁पलट	-12244
▁फुल	-12245
रेक्ट	-12246
▁आकडा	-12247
▁घण्ट	-12248
▁लेंस	-12249
▁कथानक	-12250
▁क्लिप	-12251
▁घटाकर	-12252
▁घटाना	-12253
▁घूमने	-12254
▁न्यूज	-12255
▁ब्रह्	-12256
▁महिमा	-12257
▁श्याम	-12258
▁स्कंध	-12259
▁हिटलर	-12260
न्त्रिक	-12261
▁कन्नड़	-12262
▁गठबंधन	-12263
▁ग्रामो	-12264
▁पृष्ठा	-12265
▁बनर्जी	-12266
▁ब्रांड	-12267
▁संबोधन	-12268
▁स्टैंड	-12269
▁प्रशंसक	-12270
▁सियाराम	-12271
▁सुल्तान	-12272
▁आशीर्वाद	-12273
▁एचपीसीएल	-12274
▁चट्टानों	-12275
▁स्थापत्य	-12276
▁सम्मिश्रण	-12277
▁शिकायतकर्ता	-12278
▁हिंदुस्तानी	-12279
st	-12280
इक	-12281
ऐं	-12282
२२	-12283
डिय	-12284
ालु	-12285
▁छव	-12286
वरकर	-12287
▁आसन	-12288
▁आहत	-12289
▁चलन	-12290
▁टंक	-12291
▁फेल	-12292
▁माफ	-12293
▁सुष	-12294
द्रोह	-12295
ब्दिक	-12296
▁ऊँची	-12297
▁कभार	-12298
▁गाते	-12299
▁तेरह	-12300
▁फौरन	-12301
▁बहाव	-12302
▁भाषी	-12303
▁मेजर	-12304
▁वाटर	-12305
▁सकाः	-12306
कोशिका	-12307
▁नाड़ी	-12308
▁भागतः	-12309
▁अविश्व	-12310
▁कैदियों	-12311
▁पुनर्जी	-12312
▁व्यवधान	-12313
▁समन्वयन	-12314
▁व्याप्ति	-12315
▁अव्यवस्था	-12316
▁एक्सप्रेस	-12317
▁प्रस्तुतीकरण	-12318
शर	-12319
मनी	-12320
▁ex	-12321
▁ईस	-12322
विता	-12323
▁कले	-12324
▁सबक	-12325
टरिंग	-12326
त्म्य	-12327
त्सना	-12328
शीघ्र	-12329
ेक्शन	-12330
ेरिया	-12331
▁http	-12332
▁कांच	-12333
▁कोटा	-12334
▁जहॉँ	-12335
▁थैली	-12336
▁पीटर	-12337
▁उल्टा	-12338
▁बैकअप	-12339
▁महमूद	-12340
▁वीर्य	-12341
▁साध्य	-12342
▁सौदों	-12343
▁अनगिनत	-12344
▁खुफिया	-12345
▁छात्रा	-12346
▁जोड़ों	-12347
▁निद्रा	-12348
▁शर्करा	-12349
▁शौचालय	-12350
▁अपरिचित	-12351
▁ईमानदार	-12352
▁तात्विक	-12353
▁दुर्व्य	-12354
▁फैक्टरी	-12355
▁रक्तचाप	-12356
▁तुल्यकाल	-12357
▁प्रतिभाव	-12358
▁समनुदेशन	-12359
▁पुनर्विचार	-12360
yp	-12361
खड़	-12362
तृक	-12363
फ़ल	-12364
विष	-12365
ेंग	-12366
▁जं	-12367
▁त्	-12368
ूकोज	-12369
▁पका	-12370
▁पीस	-12371
▁पॉप	-12372
▁बां	-12373
▁लाय	-12374
▁लिय	-12375
ण्डित	-12376
▁आरटी	-12377
▁खाती	-12378
▁खिलौ	-12379
▁टकरा	-12380
▁दीर्	-12381
▁बंधे	-12382
▁राशन	-12383
▁अक्षय	-12384
▁खुदाई	-12385
▁तदर्थ	-12386
▁दोहरे	-12387
▁मारना	-12388
ऑक्साइड	-12389
▁कमज़ोर	-12390
▁बालिका	-12391
▁मिजोरम	-12392
▁मोर्चे	-12393
▁विक्रम	-12394
▁सम्पदा	-12395
▁इण्डिया	-12396
▁ज्येष्ठ	-12397
▁रहस्यमय	-12398
▁विंडोज़	-12399
▁सम्भवतः	-12400
▁जानेवाली	-12401
▁अल्पकालिक	-12402
▁बहुपक्षीय	-12403
▁विकलांगता	-12404
▁विरोधाभास	-12405
▁हरिश्चन्द्र	-12406
MA	-12407
बम	-12408
ेण	-12409
१ख	-12410
खलन	-12411
माइ	-12412
ुग्	-12413
ैरह	-12414
▁er	-12415
▁टु	-12416
मंडप	-12417
मापी	-12418
ोन्म	-12419
▁पों	-12420
▁भैं	-12421
माण्ड	-12422
ोनिया	-12423
ोरेंस	-12424
▁कस्ट	-12425
▁झूठे	-12426
▁दिक्	-12427
▁धागे	-12428
▁वैभव	-12429
▁सतीश	-12430
मंडलों	-12431
▁कानों	-12432
▁चलाता	-12433
▁त्रिव	-12434
▁पडेगा	-12435
▁बायोग	-12436
▁अयोग्य	-12437
▁अस्थाई	-12438
▁रिचर्ड	-12439
▁लाइनों	-12440
▁व्यथित	-12441
▁सुधारक	-12442
▁अतिमानस	-12443
▁कारपोरेट	-12444
▁प्रदूषित	-12445
▁शक्तियाँ	-12446
▁संग्रहित	-12447
▁श्रेष्ठता	-12448
▁उत्तरोत्तर	-12449
▁विवेकपूर्ण	-12450
▁नवान्वेषकों	-12451
ee	-12452
२३	-12453
कोड	-12454
नोट	-12455
ोपा	-12456
▁cl	-12457
एसआई	-12458
भाषी	-12459
र्दी	-12460
▁इंक	-12461
▁डोम	-12462
▁दुम	-12463
▁नें	-12464
▁भर्	-12465
▁मुज	-12466
▁रूम	-12467
शीर्ष	-12468
ूपयोग	-12469
▁दुरा	-12470
▁मोनो	-12471
▁विशि	-12472
▁सद्द	-12473
▁सलाम	-12474
▁स्पा	-12475
स्थानी	-12476
▁काष्ठ	-12477
▁तितली	-12478
▁तेजाब	-12479
▁दोषों	-12480
▁पहलें	-12481
▁पूछें	-12482
▁प्रता	-12483
▁वसीयत	-12484
▁कीर्ति	-12485
▁गुलाबी	-12486
▁महत्ता	-12487
▁मुलायम	-12488
▁रिफाइन	-12489
▁टेक्स्ट	-12490
▁देशभक्त	-12491
▁निःसंदेह	-12492
▁पुरस्कारों	-12493
▁पूर्वावलोकन	-12494
▁शांतिनिकेतन	-12495
ick	-12496
पदी	-12497
मीद	-12498
य्य	-12499
ेगा	-12500
्रक	-12501
▁दं	-12502
वारा	-12503
्तिक	-12504
२वीं	-12505
▁नज़	-12506
▁पैं	-12507
▁भड़	-12508
▁सफर	-12509
ोबारी	-12510
▁ग़लत	-12511
▁नवयु	-12512
▁यादृ	-12513
▁लाती	-12514
▁शिका	-12515
▁सपाट	-12516
▁सप्त	-12517
▁सीआर	-12518
ृतियों	-12519
▁आरोहण	-12520
▁भागने	-12521
▁शारदा	-12522
▁संतति	-12523
▁सर्दी	-12524
▁सोचकर	-12525
▁अन्तरण	-12526
▁परिक्र	-12527
▁परिनद्	-12528
▁प्लगिन	-12529
▁विभक्त	-12530
▁स्तुति	-12531
▁जीवाश्म	-12532
▁मार्टिन	-12533
▁शाब्दिक	-12534
▁स्पर्धा	-12535
▁आपूर्तिक	-12536
▁प्रवर्तक	-12537
▁बहुआयामी	-12538
▁मूर्तियों	-12539
३क	-12540
ब्स	-12541
युग	-12542
▁अवत	-12543
▁कंद	-12544
▁खड़	-12545
▁मनप	-12546
क्रोश	-12547
धुनिक	-12548
्यस्त	-12549
▁एनाल	-12550
▁गोबर	-12551
▁घोंस	-12552
▁चकित	-12553
▁ठंडे	-12554
▁डीपी	-12555
▁पिंड	-12556
▁भुजा	-12557
▁माधव	-12558
▁मिज़	-12559
▁व्यप	-12560
▁अभिनव	-12561
▁चिपका	-12562
▁चूर्ण	-12563
▁छोड़ी	-12564
▁फैलने	-12565
▁बैठते	-12566
▁मिर्च	-12567
▁सस्ते	-12568
▁खनिजों	-12569
▁प्रोद्	-12570
▁मकानों	-12571
▁साइटों	-12572
▁अधिरोपण	-12573
▁अभिकल्प	-12574
▁ब्राउज़	-12575
▁कारखानों	-12576
▁ग्रीनहाउस	-12577
▁प्रवर्तित	-12578
han	-12579
मेय	-12580
ालो	-12581
▁लव	-12582
चिकर	-12583
ट्ठी	-12584
त्था	-12585
न्नत	-12586
बिंद	-12587
र्षण	-12588
▁आपे	-12589
▁एप्	-12590
▁चोल	-12591
▁टाई	-12592
▁रजत	-12593
▁हसन	-12594
र्भाव	-12595
साध्य	-12596
ुन्टू	-12597
▁दीपक	-12598
▁रूपी	-12599
▁लड़ी	-12600
▁व्यक	-12601
▁सुझा	-12602
न्दराम	-12603
विद्या	-12604
▁उर्जा	-12605
▁कार्ब	-12606
▁खानों	-12607
▁छुट्ट	-12608
▁टिड्ड	-12609
▁तम्बा	-12610
▁पलायन	-12611
▁बदलकर	-12612
▁मिसाल	-12613
▁स्क्व	-12614
▁परिणति	-12615
▁रिटर्न	-12616
▁सेवकों	-12617
निरपेक्ष	-12618
▁कार्यशील	-12619
▁दुरूपयोग	-12620
▁पुरातत्व	-12621
▁फोटोग्रा	-12622
▁रिफाइनरी	-12623
▁आवेदनपत्र	-12624
▁चेन्नम्मा	-12625
▁यादृच्छिक	-12626
▁टिप्पणियों	-12627
▁सर्जनात्मक	-12628
▁सियारामशरण	-12629
▁निम्नानुसार	-12630
नम	-12631
डान	-12632
दून	-12633
जीपी	-12634
शकों	-12635
▁अश्	-12636
▁पिल	-12637
▁सास	-12638
जिस्ट	-12639
▁उठने	-12640
▁खिलफ	-12641
▁डाउन	-12642
▁डीवी	-12643
▁दाता	-12644
▁पुर्	-12645
▁बूंद	-12646
▁मूंग	-12647
▁यूएन	-12648
▁सबकी	-12649
▁सुखा	-12650
यात्मक	-12651
▁अरबों	-12652
▁खांसी	-12653
▁चुनना	-12654
▁छोडकर	-12655
▁निकास	-12656
▁नोट्स	-12657
▁पंक्त	-12658
▁पशुधन	-12659
▁मसौदा	-12660
▁समज्ह	-12661
पेक्षित	-12662
▁अवार्ड	-12663
▁गुलामी	-12664
▁टांगों	-12665
▁पर्याय	-12666
▁मनमाने	-12667
▁विक्रे	-12668
▁सद्दाम	-12669
▁समांतर	-12670
▁सुझाया	-12671
▁डिपार्ट	-12672
▁पहुंचता	-12673
▁प्रसूति	-12674
▁शत्रुता	-12675
▁सेंट्रल	-12676
▁आईएफसीआई	-12677
▁माइक्रोस	-12678
▁अधिकांशतः	-12679
▁इस्लामवाद	-12680
▁मूर्तियां	-12681
▁व्यवसायिक	-12682
▁स्क्रिप्ट	-12683
▁प्रतिभावान	-12684
▁प्रतीकात्मक	-12685
▁हिन्दुस्तानियों	-12686
ऊं	-12687
तट	-12688
भन	-12689
▁रत	-12690
ासाह	-12691
▁अनज	-12692
▁अवध	-12693
▁एम्	-12694
▁चूस	-12695
▁धाम	-12696
▁धीर	-12697
▁पिप	-12698
▁मसू	-12699
▁रहन	-12700
▁स्ल	-12701
ताकार	-12702
स्टेट	-12703
▁किसे	-12704
▁तंबा	-12705
▁नामे	-12706
▁बोतल	-12707
▁रूपए	-12708
▁सूफी	-12709
ोन्मुख	-12710
▁टनभार	-12711
▁रोकता	-12712
▁सज्जा	-12713
▁समझकर	-12714
▁साइंस	-12715
▁उदयपुर	-12716
▁ग्रसनी	-12717
▁घोड़ों	-12718
▁निन्दा	-12719
▁परिधीय	-12720
▁भाषाएं	-12721
▁विश्वा	-12722
▁इक्विटी	-12723
▁परिसरों	-12724
▁मानदण्ड	-12725
▁यंत्रों	-12726
▁सिक्कों	-12727
▁आच्छादित	-12728
▁पुर्तगाल	-12729
▁प्रकाशनों	-12730
▁इंजीनियरों	-12731
▁मुकदमेबाजी	-12732
ंबे	-12733
ग़ल	-12734
▁sp	-12735
वाहन	-12736
▁कंठ	-12737
▁काफ	-12738
▁कॉर	-12739
▁चाव	-12740
▁चिल	-12741
▁नमी	-12742
▁पेन	-12743
▁शरा	-12744
▁आयोड	-12745
▁इंग़	-12746
▁उदास	-12747
▁उमीद	-12748
▁दीदी	-12749
▁विला	-12750
▁आभारी	-12751
▁कम्यू	-12752
▁जिसपर	-12753
▁निर्ब	-12754
▁पकाने	-12755
▁पहनने	-12756
▁पाएगा	-12757
▁फेडरल	-12758
पंथियों	-12759
राज्यों	-12760
▁दिलाता	-12761
▁दिलाना	-12762
▁निकलकर	-12763
▁महानता	-12764
▁मिशनरी	-12765
▁मोर्चा	-12766
▁लेबनान	-12767
▁समाजों	-12768
▁हिन्दु	-12769
संख्यकों	-12770
▁अस्वस्थ	-12771
▁इंटरफेस	-12772
▁जोखिमों	-12773
▁त्रिकोण	-12774
▁निवेशों	-12775
▁बायोगैस	-12776
▁वायसराय	-12777
▁श्रोताओं	-12778
▁हिस्सेदारी	-12779
▁सावधानीपूर्वक	-12780
ik	-12781
व्	-12782
ंगण	-12783
गिरि	-12784
भूषा	-12785
मूलक	-12786
वसाय	-12787
ेष्ट	-12788
ोपित	-12789
▁अजन	-12790
▁नाख	-12791
▁निप	-12792
▁पंक	-12793
▁पुट	-12794
▁पें	-12795
▁पोट	-12796
▁बची	-12797
▁मजह	-12798
▁महज	-12799
▁मुस	-12800
▁शकु	-12801
बंधीय	-12802
रीकरण	-12803
िचेरी	-12804
▁कोले	-12805
▁गिना	-12806
▁टीके	-12807
▁बीते	-12808
▁मिथक	-12809
▁मैनु	-12810
▁वंशज	-12811
▁वसंत	-12812
▁सुवि	-12813
▁सूरी	-12814
ियोजित	-12815
▁अवांछ	-12816
▁कश्मी	-12817
▁खजाना	-12818
▁खलीफा	-12819
▁गुटों	-12820
▁द्वेष	-12821
▁प्रखर	-12822
▁मंगोल	-12823
▁मज्जा	-12824
▁वल्लभ	-12825
▁होतीं	-12826
▁क्षणों	-12827
▁चटर्जी	-12828
▁मूत्रा	-12829
▁रिव्यू	-12830
▁व्हाइट	-12831
▁संकेतन	-12832
▁सामयिक	-12833
▁सावरकर	-12834
▁गड़बड़ी	-12835
▁चुनिंदा	-12836
▁तत्परता	-12837
▁त्रासदी	-12838
▁स्थानिक	-12839
▁अभ्यर्थी	-12840
▁उत्पीड़न	-12841
▁कीमियागर	-12842
▁ट्रेडिंग	-12843
▁शुक्रवार	-12844
▁स्पष्टतः	-12845
▁ग्राफिक्स	-12846
▁स्वातंत्र	-12847
▁राज्यपालों	-12848
▁अर्थव्यवस्थाओं	-12849
ES	-12850
वय	-12851
सरत	-12852
ारू	-12853
▁पङ	-12854
मांड	-12855
ासिक	-12856
ूसलम	-12857
▁जहर	-12858
▁पंप	-12859
▁फंच	-12860
▁बाज	-12861
▁मसल	-12862
▁मूक	-12863
▁शही	-12864
▁सीर	-12865
त्थान	-12866
▁दीपा	-12867
▁प्रह	-12868
▁बिगा	-12869
▁मारी	-12870
▁रूपा	-12871
▁वाइस	-12872
▁सोचे	-12873
▁अधूरा	-12874
▁खर्ची	-12875
▁डिस्प	-12876
▁लगाता	-12877
▁वगैरह	-12878
▁कावेरी	-12879
▁कीर्तन	-12880
▁बादलों	-12881
▁मद्देन	-12882
▁युवकों	-12883
▁अधीक्षक	-12884
▁आक्सीजन	-12885
▁आखिरकार	-12886
▁गर्भपात	-12887
▁गुरुदेव	-12888
▁ज़िम्मे	-12889
▁अग्रेषित	-12890
▁पत्तियां	-12891
▁असुरक्षित	-12892
▁इतिहासकार	-12893
्तु	-12894
▁वं	-12895
जाति	-12896
द्धन	-12897
▁चिह	-12898
▁चूँ	-12899
▁चों	-12900
▁जेट	-12901
▁पेड	-12902
▁बया	-12903
▁मशह	-12904
▁मशी	-12905
▁वलय	-12906
▁विड	-12907
स्कोप	-12908
▁ओडिश	-12909
▁पतला	-12910
▁पायल	-12911
▁मक़्	-12912
▁मुखा	-12913
▁विशा	-12914
▁सीसी	-12915
▁उपजाऊ	-12916
▁ख़त्म	-12917
▁ढाँचा	-12918
▁बंकिम	-12919
▁बैक्ट	-12920
▁विलयन	-12921
त्वर्ती	-12922
▁कुलपति	-12923
▁कोष्ठक	-12924
▁धारकों	-12925
▁समीचीन	-12926
▁उपधारणा	-12927
▁नाभिकीय	-12928
▁शाहजहाँ	-12929
▁समझदारी	-12930
▁अल्पावधि	-12931
▁आक्रमणों	-12932
▁तारामंडल	-12933
▁पूर्वजों	-12934
▁वायुमंडल	-12935
▁न्यूयॉर्क	-12936
▁प्रशंसनीय	-12937
▁संबंधियों	-12938
▁मृत्युदण्ड	-12939
ge	-12940
▁ञ	-12941
याप	-12942
शान	-12943
▁लख	-12944
गीता	-12945
नुमा	-12946
▁END	-12947
▁अबु	-12948
▁एआर	-12949
▁करू	-12950
▁दूं	-12951
▁शिप	-12952
▁सेव	-12953
पल्ली	-12954
▁कुदर	-12955
▁जीना	-12956
▁पम्प	-12957
▁पर्स	-12958
वादिता	-12959
▁कोनों	-12960
▁गर्भग	-12961
▁भारित	-12962
▁मूर्त	-12963
▁शिमला	-12964
▁सुपरि	-12965
▁सौंपी	-12966
▁अर्हता	-12967
▁खींचने	-12968
▁निभाते	-12969
▁पारेषण	-12970
▁फायदों	-12971
▁भित्ति	-12972
▁सर्जरी	-12973
▁अनुशंसा	-12974
▁इच्छाओं	-12975
▁जिलाधीश	-12976
▁वॉल्यूम	-12977
▁संचारित	-12978
▁वाल्मीकि	-12979
▁विशेषतया	-12980
▁संपर्कों	-12981
▁अनुक्रिया	-12982
▁आत्मनिर्भर	-12983
▁सर्वसाधारण	-12984
▁ग्रामोद्योग	-12985
ॉर	-12986
२४	-12987
इटिस	-12988
र्वे	-12989
▁पनप	-12990
▁राध	-12991
ॉर्डन	-12992
्यांश	-12993
▁टोपी	-12994
▁दाने	-12995
▁नीड़	-12996
▁बाला	-12997
▁मॉनि	-12998
▁सदृश	-12999
▁हलचल	-13000
पादकीय	-13001
प्रधान	-13002
▁टिकाऊ	-13003
▁पोशाक	-13004
▁मस्ती	-13005
▁लॉन्च	-13006
▁सिखों	-13007
▁उपद्रव	-13008
▁किनारा	-13009
▁गुम्बद	-13010
महाद्वीप	-13011
▁जन्मदिन	-13012
▁निःशक्त	-13013
▁प्रारुप	-13014
▁आनन्दराम	-13015
▁डेनमार्क	-13016
▁आवश्यकताएं	-13017
▁रूपान्तरित	-13018
▁अंतरराष्ट्री	-13019
▁आयुर्विज्ञान	-13020
▁पश्चात्वर्ती	-13021
ईस	-13022
िं	-13023
ice	-13024
▁BE	-13025
ालाम	-13026
▁एनई	-13027
▁छंट	-13028
▁ऊँचे	-13029
▁जादा	-13030
▁फ़्र	-13031
▁बंजर	-13032
▁बकरी	-13033
चित्रण	-13034
▁अनोखा	-13035
▁अनोखी	-13036
▁घूमते	-13037
▁दिखती	-13038
▁सर्जन	-13039
च्छिन्न	-13040
▁खिलाफत	-13041
▁निकटता	-13042
▁मिलाने	-13043
▁विस्मय	-13044
▁अभिकथित	-13045
▁उबुन्टू	-13046
▁गर्भगृह	-13047
▁चाहूंगी	-13048
▁जीवनकाल	-13049
▁जेरूसलम	-13050
▁महारानी	-13051
▁विवाद्य	-13052
▁सक्षमता	-13053
▁स्क्रॉल	-13054
▁अभिकरणों	-13055
▁क्रिस्टल	-13056
▁प्रबुद्ध	-13057
▁संगमर्मर	-13058
▁सुविधाएँ	-13059
▁कीटनाशकों	-13060
▁लाभान्वित	-13061
▁इलेक्ट्रानिक	-13062
ौज	-13063
ंगम	-13064
खला	-13065
गुल	-13066
डेल	-13067
ुना	-13068
ैरा	-13069
▁रग	-13070
▁्ट	-13071
ance	-13072
ंकार	-13073
्वाइ	-13074
▁आज़	-13075
▁कंड	-13076
▁थोप	-13077
▁पीट	-13078
▁पोप	-13079
▁वधू	-13080
▁सैल	-13081
वार्इ	-13082
▁बनवा	-13083
▁मुखर	-13084
▁जीर्ण	-13085
▁जुलूस	-13086
▁टेम्प	-13087
▁डिम्ब	-13088
▁पूछना	-13089
▁मकबरा	-13090
▁मापने	-13091
▁सर्वे	-13092
▁अलंकृत	-13093
▁काउंटर	-13094
▁कुत्ता	-13095
▁गवाहों	-13096
▁ताकतों	-13097
▁पुनर्भ	-13098
▁रविवार	-13099
▁विवादा	-13100
▁श्रोणि	-13101
▁इंस्टॉल	-13102
▁ऑक्सीजन	-13103
▁पाठशाला	-13104
▁बैंकनोट	-13105
▁संयोजित	-13106
▁सम्पादन	-13107
▁चरितार्थ	-13108
▁अभिवृद्धि	-13109
▁स्वरयंत्र	-13110
▁समाचारपत्र	-13111
▁केंद्रशासित	-13112
ii	-13113
गौ	-13114
ॉम	-13115
ायु	-13116
▁गॉ	-13117
च्छद	-13118
प्रा	-13119
शैली	-13120
सिका	-13121
िव्य	-13122
▁अटक	-13123
▁कुं	-13124
▁तड़	-13125
▁तले	-13126
▁भूप	-13127
▁मत्	-13128
▁मृग	-13129
▁शुक	-13130
दान्त	-13131
वाड़ी	-13132
िनियम	-13133
ोपैथी	-13134
▁अपंग	-13135
▁कल्प	-13136
▁काटा	-13137
▁कैंप	-13138
▁श्रा	-13139
▁समेट	-13140
▁सिकु	-13141
▁सेमी	-13142
ाहियों	-13143
▁कहावत	-13144
▁पैतृक	-13145
▁फील्ड	-13146
▁बैठता	-13147
▁रास्त	-13148
▁वहनीय	-13149
▁संहार	-13150
▁हमलों	-13151
▁अलंकरण	-13152
▁ओड़िया	-13153
▁तपस्या	-13154
▁प्रयाग	-13155
▁मांगने	-13156
▁सत्कार	-13157
▁प्रज्ञा	-13158
▁अपवर्जित	-13159
▁प्रमुखता	-13160
▁मुख्यतया	-13161
▁कार्यसूची	-13162
▁विनिश्चित	-13163
▁प्रोसेसिंग	-13164
▁सांख्यिकीय	-13165
▁सामग्रियों	-13166
▁प्रविष्टियों	-13167
RI	-13168
ase	-13169
ईसी	-13170
कंठ	-13171
ण्व	-13172
▁Pr	-13173
▁al	-13174
▁ढक	-13175
▁मट	-13176
ताना	-13177
▁सिप	-13178
▁सेब	-13179
मर्रा	-13180
वाड़ा	-13181
विवाद	-13182
ोनियम	-13183
▁अनभि	-13184
▁एनसी	-13185
▁पठार	-13186
▁बाईं	-13187
▁बेगम	-13188
▁अंगुल	-13189
▁आदतों	-13190
▁उड़ने	-13191
▁जयदेव	-13192
▁जलाने	-13193
▁जागृत	-13194
▁दत्तक	-13195
▁पार्व	-13196
▁सल्फर	-13197
डब्ल्यू	-13198
राचार्य	-13199
▁कार्बो	-13200
▁गुस्सा	-13201
▁चाइल्ड	-13202
▁चैनलों	-13203
▁पोलियो	-13204
▁बिताने	-13205
▁मनपसंद	-13206
▁विपक्षी	-13207
▁उपनिषदों	-13208
▁जीवाणुओं	-13209
▁लापरवाही	-13210
all	-13211
गंज	-13212
गाम	-13213
धिर	-13214
ोडा	-13215
▁जस	-13216
ंजना	-13217
ल्हे	-13218
सन्न	-13219
ानंद	-13220
▁कोइ	-13221
▁ठिक	-13222
▁धुन	-13223
▁मसी	-13224
स्मार	-13225
▁उलझन	-13226
▁गाना	-13227
▁छत्र	-13228
▁धुरी	-13229
▁धोखे	-13230
▁पथरी	-13231
▁भूरा	-13232
▁वृषण	-13233
▁सुखी	-13234
प्रकाश	-13235
▁अनुपम	-13236
▁कुलीन	-13237
▁ज़िला	-13238
▁फ़ोटो	-13239
▁भयावह	-13240
▁मशहूर	-13241
▁मसलों	-13242
▁माइकल	-13243
▁वोल्ट	-13244
▁शेक्स	-13245
▁सन्नि	-13246
▁समेकन	-13247
▁स्तूप	-13248
क्षेपित	-13249
▁अनामता	-13250
▁तंबाकू	-13251
▁तन्त्र	-13252
▁न्यासी	-13253
▁पुनर्म	-13254
▁मेन्यू	-13255
▁सिन्धु	-13256
▁सिन्हा	-13257
▁जमींदार	-13258
▁द्रविड़	-13259
▁पौष्टिक	-13260
▁गाड़ियों	-13261
▁बुराइयों	-13262
▁संरचनाओं	-13263
▁होनेवाले	-13264
▁अनुशासनिक	-13265
▁प्रबंधकों	-13266
▁प्रियव्रत	-13267
▁प्रोद्भूत	-13268
▁उपमहाद्वीप	-13269
▁दृष्टिगोचर	-13270
▁निष्क्रियता	-13271
▁धर्मनिरपेक्ष	-13272
▁फिलीस्तीनियों	-13273
बै	-13274
वचन	-13275
विस	-13276
▁en	-13277
▁बँ	-13278
दानी	-13279
दिनी	-13280
बंधक	-13281
यरोग	-13282
▁अशु	-13283
▁उपश	-13284
▁जगम	-13285
▁थाई	-13286
▁दृढ	-13287
▁मुम	-13288
▁अंतत	-13289
▁चौकी	-13290
▁ढाका	-13291
▁तादा	-13292
▁पढ़ी	-13293
▁बढती	-13294
▁बढने	-13295
▁मंडी	-13296
स्त्रा	-13297
ायुक्त	-13298
ोत्तरी	-13299
▁ओडिशा	-13300
▁दौरों	-13301
▁नगण्य	-13302
▁नियमन	-13303
▁मलाशय	-13304
▁असमिया	-13305
▁दूरबीन	-13306
▁दोस्ती	-13307
▁पागलपन	-13308
▁राक्षस	-13309
▁कारखाना	-13310
▁गाँधीजी	-13311
▁गोलाकार	-13312
▁ड्राइवर	-13313
▁फुफ्फुस	-13314
▁प्रतिदाय	-13315
▁वैश्वीकरण	-13316
▁स्थायित्व	-13317
▁प्रभावकारी	-13318
▁प्रास्थिति	-13319
▁उम्मीदवारों	-13320
▁प्रयोगकर्ता	-13321
NT	-13322
xx	-13323
क़ा	-13324
चड़	-13325
पोष	-13326
▁यी	-13327
able	-13328
क्कन	-13329
नियम	-13330
र्मन	-13331
लेपन	-13332
िप्स	-13333
ियरी	-13334
▁एडी	-13335
▁झों	-13336
▁दखल	-13337
▁पना	-13338
▁मरे	-13339
▁लंग	-13340
मानों	-13341
▁गुड़	-13342
▁घारा	-13343
▁दवाई	-13344
▁बताओ	-13345
▁बार्	-13346
▁लोहा	-13347
▁उगाने	-13348
▁ग्रीक	-13349
▁पालतू	-13350
▁बहनों	-13351
▁बेतार	-13352
▁भाड़ा	-13353
▁वेंकट	-13354
▁संघटक	-13355
▁साहसी	-13356
▁स्टेड	-13357
▁हारान	-13358
▁अपनाते	-13359
▁उपादान	-13360
▁क्षिति	-13361
▁गुस्से	-13362
▁चुकाने	-13363
▁ध्वस्त	-13364
▁नजदीकी	-13365
▁भण्डार	-13366
▁अराजकता	-13367
▁किस्में	-13368
▁ट्रान्स	-13369
▁परिकलित	-13370
▁मौजूदगी	-13371
▁भारतवर्ष	-13372
▁माध्यमों	-13373
▁बहुसंख्यक	-13374
▁निर्यातकों	-13375
▁न्यायनिर्ण	-13376
▁अल्पसंख्यकों	-13377
▁प्रक्रियात्मक	-13378
गं	-13379
टि	-13380
ace	-13381
ँगी	-13382
क्म	-13383
ट्ठ	-13384
दिश	-13385
संप	-13386
ामय	-13387
ोना	-13388
▁नस	-13389
कांत	-13390
चक्र	-13391
ज्या	-13392
स्लो	-13393
▁The	-13394
▁आड़	-13395
▁काज	-13396
▁छपा	-13397
▁नंद	-13398
▁रखो	-13399
▁लीन	-13400
नियाँ	-13401
न्ध्र	-13402
▁करूँ	-13403
▁खासी	-13404
▁चयाप	-13405
▁मोदी	-13406
▁सज़ा	-13407
▁सरणी	-13408
निष्ठा	-13409
ार्श्व	-13410
▁उतरने	-13411
▁कंधों	-13412
▁कर्सर	-13413
▁जड़ों	-13414
▁महीना	-13415
▁विजयन	-13416
▁साइबर	-13417
▁हेनरी	-13418
▁अन्ततः	-13419
▁कम्बन्	-13420
▁करोड़े	-13421
▁क़ुरान	-13422
▁कार्या	-13423
▁जंतुओं	-13424
▁डीवीडी	-13425
▁संवर्ग	-13426
प्राप्ति	-13427
▁कविताएँ	-13428
▁कूटनीति	-13429
▁दीक्षित	-13430
▁पंचायती	-13431
▁पहुंचती	-13432
▁मलेशिया	-13433
▁वृत्तिक	-13434
▁अनुकरणीय	-13435
▁अनुक्रमण	-13436
▁कारीगरों	-13437
▁परिशिष्ट	-13438
▁उत्प्रेरक	-13439
▁दोषसिद्धि	-13440
of	-13441
सिस	-13442
हिक	-13443
ितल	-13444
ोशी	-13445
▁AB	-13446
▁दन	-13447
एमपी	-13448
लाइड	-13449
▁are	-13450
▁अनप	-13451
▁एंग	-13452
▁कटु	-13453
भक्षी	-13454
म्मति	-13455
▁अँधे	-13456
▁अनुत	-13457
▁आसाम	-13458
▁कॉले	-13459
▁खाया	-13460
▁जादु	-13461
▁बाजू	-13462
▁हंसी	-13463
▁भावुक	-13464
▁समसाम	-13465
▁एनालॉग	-13466
▁करारों	-13467
▁जस्टिस	-13468
▁नर्सरी	-13469
▁पूर्वज	-13470
▁प्लेयर	-13471
▁महानतम	-13472
▁सड़कें	-13473
▁अनुग्रह	-13474
▁अमानवीय	-13475
▁आत्मसात	-13476
▁आधिपत्य	-13477
▁कक्षाओं	-13478
▁ज्वालाम	-13479
▁नाटककार	-13480
▁निकालें	-13481
▁प्रत्यय	-13482
▁अभिदायों	-13483
▁अर्थात्ः	-13484
▁तस्वीरें	-13485
▁बंगलादेश	-13486
▁साधारणतः	-13487
▁चिकित्सकों	-13488
▁न्यूजीलैंड	-13489
up	-13490
भुज	-13491
वना	-13492
्ना	-13493
रोधी	-13494
श्रम	-13495
िन्ट	-13496
▁कत्	-13497
▁गुह	-13498
▁जुड	-13499
▁सूअ	-13500
फ्तार	-13501
लिखित	-13502
ारिका	-13503
ियोजन	-13504
▁अश्म	-13505
▁आसीन	-13506
▁कमाई	-13507
▁कमोड	-13508
▁केले	-13509
▁छिपी	-13510
▁जब्त	-13511
▁दोहर	-13512
▁शोभा	-13513
▁हावी	-13514
▁खेलते	-13515
▁गद्दी	-13516
▁चमड़े	-13517
▁दुर्य	-13518
▁बन्दर	-13519
▁मीनार	-13520
▁रेडिय	-13521
▁लिप्त	-13522
▁संचयन	-13523
▁सन्धि	-13524
▁हार्म	-13525
▁आपरेशन	-13526
▁नायिका	-13527
▁निभानी	-13528
▁वानिकी	-13529
▁सुधारा	-13530
द्योगिकी	-13531
▁इस्तीफा	-13532
▁कंट्रोल	-13533
▁प्रैक्ट	-13534
▁सम्पादक	-13535
▁स्टेट्स	-13536
▁कारोबारी	-13537
▁प्रतिशोध	-13538
▁बर्खास्त	-13539
▁मूत्राशय	-13540
▁पांडिचेरी	-13541
▁पैराग्राफ	-13542
▁पुनर्वित्त	-13543
IC	-13544
ंबी	-13545
▁tr	-13546
▁वऋ	-13547
ंतिम	-13548
कोटा	-13549
पिंग	-13550
बेटन	-13551
▁अपा	-13552
▁उपल	-13553
▁एंज	-13554
▁चीख	-13555
▁पाम	-13556
▁मचा	-13557
▁जहरी	-13558
▁ज़रा	-13559
▁तेंद	-13560
▁परोप	-13561
▁बतौर	-13562
▁बद्ध	-13563
▁यापन	-13564
▁लिफा	-13565
▁संवी	-13566
नेस्को	-13567
▁आज़ाद	-13568
▁गवाही	-13569
▁निर्द	-13570
▁परात्	-13571
▁पैलेस	-13572
▁बेचैन	-13573
▁भरोसे	-13574
▁मथुरा	-13575
▁युगों	-13576
▁अपूर्व	-13577
▁अवयवों	-13578
▁असहयोग	-13579
▁एक्सेस	-13580
▁जीविका	-13581
▁तरक्की	-13582
▁पादपों	-13583
▁मनोनीत	-13584
▁उज्ज्वल	-13585
▁जायेंगी	-13586
▁सिलसिला	-13587
▁प्रकीर्ण	-13588
▁मानकीकरण	-13589
▁कॉर्पोरेट	-13590
▁विनाशकारी	-13591
▁खिलाड़ियों	-13592
▁व्यतिक्रमी	-13593
ai	-13594
ans	-13595
ंसू	-13596
टिफ	-13597
्ते	-13598
▁खू	-13599
▁नृ	-13600
तनगर	-13601
रिंग	-13602
लाने	-13603
वसान	-13604
ेश्व	-13605
▁तना	-13606
▁दाई	-13607
▁पाट	-13608
▁रूढ	-13609
▁शौक	-13610
▁सूझ	-13611
▁सूत	-13612
बन्धु	-13613
▁पिक्	-13614
▁बहाल	-13615
▁भैंस	-13616
▁मिनी	-13617
▁रबड़	-13618
▁अण्डे	-13619
▁अफवाह	-13620
▁गोखले	-13621
▁गोपुर	-13622
▁निष्ठ	-13623
▁पहनते	-13624
▁शालीन	-13625
▁सम्मत	-13626
▁सहदेव	-13627
▁हेतुक	-13628
परीक्षा	-13629
▁अन्वेष	-13630
▁गुजरना	-13631
▁जॉर्डन	-13632
▁बारीकी	-13633
▁बिताया	-13634
▁संचालक	-13635
▁इमारतें	-13636
▁परात्पर	-13637
▁पुनर्जा	-13638
▁मातृत्व	-13639
▁वर्माजी	-13640
▁संग्रहीत	-13641
▁सहनशीलता	-13642
▁अनुपयुक्त	-13643
▁इंग़्लैंड	-13644
▁उत्सर्जित	-13645
▁मध्यकालीन	-13646
▁माइक्रोसॉ	-13647
▁उद्यमशीलता	-13648
▁कार्रवाइयों	-13649
▁परिवीक्षाधीनों	-13650
ear	-13651
खान	-13652
घाट	-13653
फ़र	-13654
ासु	-13655
▁et	-13656
▁ओम	-13657
▁्त	-13658
ल्सन	-13659
सेवक	-13660
ुर्य	-13661
▁दाग	-13662
▁बैग	-13663
▁लुट	-13664
▁वाट	-13665
▁सुभ	-13666
▁हतो	-13667
▁हान	-13668
▁हिज	-13669
फॉर्म	-13670
ब्बों	-13671
▁अनिय	-13672
▁आयतन	-13673
▁कांड	-13674
▁कुंड	-13675
▁दाँत	-13676
▁सचाई	-13677
▁स्के	-13678
र्ताओं	-13679
▁अफसोस	-13680
▁इरादे	-13681
▁चिल्ल	-13682
▁त्यों	-13683
▁देशभर	-13684
▁किंगडम	-13685
▁तरंगों	-13686
▁द्योतक	-13687
▁निबंधन	-13688
▁बिजनेस	-13689
▁भक्तों	-13690
▁तम्बाकू	-13691
▁निपटाने	-13692
▁निर्बाध	-13693
▁बीमाकृत	-13694
▁सम्मिलन	-13695
▁सूत्रों	-13696
▁बुकमार्क	-13697
▁इंग्लैण्ड	-13698
▁डेमोक्रेट	-13699
▁प्रान्तीय	-13700
▁मुयमंत्री	-13701
▁अत्याधुनिक	-13702
▁निर्वाचनों	-13703
▁प्रयोजनार्थ	-13704
▁प्राप्तकर्ता	-13705
देय	-13706
मिट	-13707
▁जठ	-13708
ंगली	-13709
एफसी	-13710
क्षि	-13711
चालन	-13712
ाचार	-13713
▁काक	-13714
▁पीर	-13715
▁फली	-13716
▁बेव	-13717
पुरुष	-13718
ापत्र	-13719
ापनों	-13720
▁गिनी	-13721
▁जावा	-13722
▁मवेश	-13723
▁संबध	-13724
▁सांत	-13725
स्ट्री	-13726
▁अयस्क	-13727
▁क्वाल	-13728
▁गुणसू	-13729
▁जबर्द	-13730
▁झीलों	-13731
▁दफ्तर	-13732
▁पहेली	-13733
▁प्यास	-13734
▁फाइबर	-13735
▁बन्धक	-13736
▁बायोम	-13737
▁लिपिक	-13738
▁सामंत	-13739
▁सीनेट	-13740
▁अंतरंग	-13741
▁अभिभूत	-13742
▁अवयस्क	-13743
▁अहिंसक	-13744
▁माउन्ट	-13745
▁मेधावी	-13746
▁विरचना	-13747
▁छिड़काव	-13748
▁महोत्सव	-13749
▁विलुप्त	-13750
▁पक्षाघात	-13751
▁प्रमुखों	-13752
▁प्रीतनगर	-13753
▁मद्देनजर	-13754
▁वस्त्रों	-13755
▁संवर्धित	-13756
▁स्पष्टता	-13757
▁गवर्नमेंट	-13758
▁दीर्घावधि	-13759
▁परीक्षाओं	-13760
▁चिकित्सकीय	-13761
▁प्रत्याशित	-13762
ूआ	-13763
कित	-13764
यदि	-13765
सीड	-13766
ोदर	-13767
▁En	-13768
तरित	-13769
निष्	-13770
म्बन	-13771
सेवा	-13772
ुरूप	-13773
▁नरक	-13774
▁नीच	-13775
▁शंख	-13776
रेस्ट	-13777
▁कर्क	-13778
▁ख़ास	-13779
▁नीरस	-13780
▁परदा	-13781
▁बाधक	-13782
▁बेवक	-13783
▁मैरी	-13784
▁वाष्	-13785
▁शिया	-13786
▁हस्प	-13787
प्रसाद	-13788
भारतीय	-13789
ोपरांत	-13790
▁अजमेर	-13791
▁एरिया	-13792
▁खातिर	-13793
▁खींचा	-13794
▁खोजना	-13795
▁दर्जन	-13796
▁पसीना	-13797
▁सेन्ट	-13798
▁हवेली	-13799
▁अँग्रे	-13800
▁कनिष्ठ	-13801
▁चमकदार	-13802
▁चिट्ठी	-13803
▁नजरिया	-13804
▁नवलराम	-13805
▁निगमों	-13806
▁पुजारी	-13807
▁मंडलों	-13808
▁मार्शल	-13809
▁हितलाभ	-13810
▁विजयनगर	-13811
▁दुर्बलता	-13812
▁दुर्योधन	-13813
▁प्रश्नगत	-13814
▁राष्ट्रप	-13815
▁व्यवसायों	-13816
▁स्टार्टअप	-13817
▁प्लेटफार्म	-13818
▁रिपोर्टिंग	-13819
▁विवादास्पद	-13820
▁दुर्व्यवहार	-13821
em	-13822
खोर	-13823
जीन	-13824
तेह	-13825
रिस	-13826
ियॉ	-13827
तनों	-13828
▁आइस	-13829
▁किट	-13830
▁कौश	-13831
▁गुड	-13832
▁चश्	-13833
▁छाल	-13834
▁जोत	-13835
▁मनम	-13836
▁लगन	-13837
▁शलभ	-13838
▁सहे	-13839
▁काजी	-13840
▁गोदा	-13841
▁चंचल	-13842
▁पीसी	-13843
▁बिंब	-13844
▁ब्रज	-13845
▁भाजक	-13846
▁मूला	-13847
▁क्रास	-13848
▁जादुई	-13849
▁दुःखी	-13850
▁पूर्त	-13851
▁पेयजल	-13852
▁फॉन्ट	-13853
▁लज्जा	-13854
▁वक्ता	-13855
▁विलीन	-13856
▁स्कोर	-13857
▁हज़रत	-13858
▁हवाला	-13859
▁अधिमान	-13860
▁अम्लीय	-13861
▁अलंकार	-13862
▁ओड़िसा	-13863
▁कामयाब	-13864
▁गलियों	-13865
▁सिखाने	-13866
▁आयताकार	-13867
▁उपनिषद्	-13868
▁कीबोर्ड	-13869
▁दीवारें	-13870
▁बकरियों	-13871
▁वेशभूषा	-13872
▁सम्बंधी	-13873
▁उपदर्शित	-13874
▁जबरदस्ती	-13875
▁उधारकर्ता	-13876
▁अन्तरात्मा	-13877
▁अविश्वसनीय	-13878
▁कंप्यूटिंग	-13879
▁संगठनात्मक	-13880
▁प्रयोक्ताओं	-13881
▁परिसंपत्तियां	-13882
ET	-13883
इंग	-13884
ुनी	-13885
ूसर	-13886
▁अऑ	-13887
चन्द	-13888
हासन	-13889
ुब्ध	-13890
ुलित	-13891
▁आमा	-13892
▁थीम	-13893
▁नीम	-13894
▁फिज	-13895
▁बिठ	-13896
▁यूं	-13897
▁शमन	-13898
▁उछाल	-13899
▁थर्म	-13900
▁धीमा	-13901
▁निशा	-13902
▁मृदु	-13903
▁सचिन	-13904
गणितीय	-13905
▁एकमेव	-13906
▁कंकाल	-13907
▁कार्ल	-13908
▁कुक्क	-13909
▁क्रॉस	-13910
▁चढ़ाई	-13911
▁चूँकि	-13912
▁प्लान	-13913
▁फैलाव	-13914
▁बूढ़ा	-13915
▁महाजन	-13916
▁लौटते	-13917
▁अभिकथन	-13918
▁खुलासा	-13919
▁दाहिने	-13920
▁फाइलों	-13921
▁मास्को	-13922
▁हफ्तों	-13923
▁उष्णकटि	-13924
▁कलकत्ते	-13925
▁कार्यबल	-13926
▁गोविन्द	-13927
▁निदेशों	-13928
▁अस्थिरता	-13929
▁आधुनिकता	-13930
▁उत्सुकता	-13931
▁परिणामतः	-13932
▁संख्यांक	-13933
▁अवधारणाओं	-13934
▁उद्देशिका	-13935
▁प्रसिद्धि	-13936
▁सूत्रकृमि	-13937
▁व्यवस्थापक	-13938
▁हस्तांतरित	-13939
▁न्यायाधिकरण	-13940
▁नामनिर्देशिती	-13941
ID	-13942
दीव	-13943
प्स	-13944
हमी	-13945
▁झि	-13946
विटी	-13947
ाम्प	-13948
ोक्त	-13949
▁उथल	-13950
▁दोग	-13951
▁पद्	-13952
▁रेस	-13953
▁लाओ	-13954
रियों	-13955
ानिया	-13956
▁अंगू	-13957
▁अब्ब	-13958
▁ओजोन	-13959
▁चौबी	-13960
▁ट्री	-13961
▁तकरी	-13962
▁बदतर	-13963
▁बृहत	-13964
▁लटका	-13965
▁लतीफ	-13966
▁सिंड	-13967
▁हारा	-13968
▁कूड़ा	-13969
▁गन्ने	-13970
▁ग्वाल	-13971
▁पाउडर	-13972
▁प्रवण	-13973
▁बक्से	-13974
▁मच्छर	-13975
▁मिलों	-13976
▁मुजरा	-13977
▁विसंग	-13978
▁जोड़ते	-13979
▁ढूंढने	-13980
▁दुविधा	-13981
▁बढ़ाते	-13982
▁ब्लेयर	-13983
▁मुमकिन	-13984
▁मैदानी	-13985
▁रिक्ति	-13986
▁ईर्ष्या	-13987
▁ईसाइयों	-13988
▁कालिदास	-13989
▁पार्वती	-13990
▁आर्द्रता	-13991
▁कैल्शियम	-13992
▁क्रमबद्ध	-13993
▁प्रवक्ता	-13994
▁बलपूर्वक	-13995
▁भर्त्सना	-13996
▁मताधिकार	-13997
▁निराश्रित	-13998
▁विचारार्थ	-13999
▁विस्थापित	-14000
▁निष्पक्षता	-14001
▁महत्वाकांक्षी	-14002
df	-14003
GIN	-14004
तरा	-14005
र्प	-14006
सम्	-14007
▁Ch	-14008
▁cr	-14009
▁भै	-14010
ल्यू	-14011
▁कलन	-14012
▁जुआ	-14013
▁डिस	-14014
▁नौस	-14015
▁बहर	-14016
खियां	-14017
फुल्ल	-14018
मुश्त	-14019
▁अंकन	-14020
▁आद्य	-14021
▁कहाः	-14022
▁कुकी	-14023
▁गिरि	-14024
▁जड़ी	-14025
▁टूटी	-14026
▁ब्यू	-14027
▁यक्ष	-14028
▁विवि	-14029
▁सहसा	-14030
▁साइड	-14031
कार्बन	-14032
▁अंदाज	-14033
▁असफ़ल	-14034
▁पर्दे	-14035
▁फाइनल	-14036
▁बट्टा	-14037
▁बेवकू	-14038
▁ब्लाक	-14039
▁मॉरिश	-14040
▁सीखते	-14041
▁सोपान	-14042
▁अब्बास	-14043
▁काउंटी	-14044
▁थोरियम	-14045
▁दीर्घा	-14046
▁पुकारा	-14047
▁भरतपुर	-14048
▁मैनुअल	-14049
▁शेक्सप	-14050
▁संभाला	-14051
्यावस्था	-14052
▁मतभेदों	-14053
▁सांसदों	-14054
▁अध्यात्म	-14055
▁अवस्थिति	-14056
▁इन्टरनेट	-14057
▁पहुंचाना	-14058
▁संवीक्षा	-14059
▁समसामयिक	-14060
▁सूत्रपात	-14061
▁स्टेडियम	-14062
▁विज्ञप्ति	-14063
▁कल्याणकारी	-14064
▁कॉर्पोरेशन	-14065
२५	-14066
शूल	-14067
ाहे	-14068
▁ER	-14069
▁यम	-14070
स्मा	-14071
हरित	-14072
▁अभा	-14073
▁ख़ु	-14074
▁फिस	-14075
▁सवे	-14076
▁सुथ	-14077
▁अवसा	-14078
▁आईआई	-14079
▁आनुष	-14080
▁चर्म	-14081
▁दन्त	-14082
▁नाभि	-14083
▁प्रध	-14084
▁मीया	-14085
▁विनो	-14086
▁सत्त	-14087
▁आलेखी	-14088
▁गेटवे	-14089
▁चालान	-14090
▁नतीजे	-14091
▁बगीचे	-14092
▁बरसों	-14093
▁बहुता	-14094
▁सादगी	-14095
▁सुविध	-14096
▁स्केल	-14097
▁किरणों	-14098
▁जाग्रत	-14099
▁निष्पा	-14100
▁बिरूनी	-14101
▁महानगर	-14102
▁सज्जनो	-14103
▁समष्टि	-14104
▁अन्तरित	-14105
▁आमंत्रण	-14106
▁कड़ियाँ	-14107
▁बोर्डों	-14108
▁स्वास्थ	-14109
▁परिक्रमा	-14110
▁पद्धतियां	-14111
▁कंप्यूटरों	-14112
▁गुणसूत्रों	-14113
▁परिसंपत्तियों	-14114
eg	-14115
्ग	-14116
कें	-14117
टीर	-14118
भोज	-14119
ोरो	-14120
्पर	-14121
ध्वा	-14122
प्रस	-14123
लाजी	-14124
स्वर	-14125
ाराम	-14126
्वित	-14127
▁अडि	-14128
▁इतर	-14129
▁उमर	-14130
▁कोठ	-14131
▁छुआ	-14132
▁धुआ	-14133
▁भती	-14134
▁शरद	-14135
▁सला	-14136
कर्मी	-14137
्रेशन	-14138
▁अप्प	-14139
▁कगार	-14140
▁घाटे	-14141
▁झाड़	-14142
▁पदेन	-14143
▁पीड़	-14144
▁लड़े	-14145
िवर्तन	-14146
▁आवर्त	-14147
▁खरीदे	-14148
▁चिन्त	-14149
▁पक्की	-14150
▁मैनेज	-14151
ट्रिक्स	-14152
▁डिब्बे	-14153
▁धातुओं	-14154
▁मज़दूर	-14155
▁मीटिंग	-14156
▁मॉरिशस	-14157
▁राज्या	-14158
▁विधाओं	-14159
▁विस्ता	-14160
▁सपोर्ट	-14161
▁आपातकाल	-14162
▁दरवाज़े	-14163
▁निराकरण	-14164
▁प्रांगण	-14165
▁शपथपत्र	-14166
▁संगृहीत	-14167
▁समीक्षक	-14168
▁गवर्नेंस	-14169
▁दृष्टिगत	-14170
▁सेक्टरों	-14171
▁उन्मुक्ति	-14172
▁विरोधियों	-14173
▁अंधविश्वास	-14174
LE	-14175
्ध	-14176
▁ि	-14177
ana	-14178
िलन	-14179
▁गम	-14180
काना	-14181
ारीय	-14182
ेंटी	-14183
्वना	-14184
्विन	-14185
▁डोग	-14186
▁तौल	-14187
▁भोल	-14188
▁लीज	-14189
ानन्द	-14190
ृत्यु	-14191
▁अविक	-14192
▁उसपर	-14193
▁उसमे	-14194
▁काटे	-14195
▁कुवै	-14196
▁खेले	-14197
▁दरार	-14198
▁दिग्	-14199
▁दौलत	-14200
▁नगरी	-14201
▁भाईच	-14202
▁मसले	-14203
▁हत्य	-14204
▁असत्य	-14205
▁आईएसओ	-14206
▁पड़ाव	-14207
▁बन्धन	-14208
▁बैंकर	-14209
▁सेल्स	-14210
▁कुंजीपट	-14211
▁ढांचागत	-14212
▁पशुपालन	-14213
▁समाशोधन	-14214
▁आनन्दमयी	-14215
▁बलात्कार	-14216
▁मांसपेशी	-14217
▁विद्रोही	-14218
▁सब्जियां	-14219
▁विद्यापीठ	-14220
▁सर्वशक्ति	-14221
▁स्वादिष्ट	-14222
▁गुणवत्तापूर्ण	-14223
ax	-14224
जै	-14225
बेल	-14226
लाश	-14227
ुरै	-14228
वायर	-14229
श्ती	-14230
ेंचर	-14231
्यूर	-14232
▁अंट	-14233
▁इज़	-14234
▁घनी	-14235
▁दात	-14236
▁बॉल	-14237
▁मॉँ	-14238
पात्र	-14239
वृक्ष	-14240
ार्कट	-14241
▁इसरो	-14242
▁घिरे	-14243
▁जुडा	-14244
▁टाउन	-14245
▁दशरथ	-14246
▁द्रौ	-14247
▁ध्या	-14248
▁पीपी	-14249
▁भद्र	-14250
▁मीना	-14251
वाहिनी	-14252
सन्देह	-14253
िवार्ष	-14254
▁अनजान	-14255
▁क्षोभ	-14256
▁खुलकर	-14257
▁चन्दु	-14258
▁ढाँचे	-14259
▁निरंक	-14260
▁फ़रीद	-14261
▁बहाने	-14262
▁सल्तन	-14263
▁अभिशाप	-14264
▁कुपोषण	-14265
▁नदियाँ	-14266
▁परिसमा	-14267
▁बीकाने	-14268
▁मसालों	-14269
▁ग्रन्थि	-14270
▁दीपावली	-14271
▁महामारी	-14272
▁राजनेता	-14273
▁रूपांतर	-14274
▁श्रीनगर	-14275
▁संसाधित	-14276
▁गर्भधारण	-14277
▁प्रकार्य	-14278
▁रिक्तियों	-14279
▁व्यतिक्रम	-14280
▁संस्थापना	-14281
▁स्थितियां	-14282
▁कार्यात्मक	-14283
▁विक्रेताओं	-14284
▁दुर्भाग्यपूर्ण	-14285
SA	-14286
ंम	-14287
थक	-14288
पह	-14289
१ग	-14290
ens	-14291
इये	-14292
कवि	-14293
टाइ	-14294
श्न	-14295
घरों	-14296
पर्व	-14297
र्गत	-14298
विनय	-14299
शियल	-14300
▁धमन	-14301
▁बहू	-14302
▁सीन	-14303
चित्त	-14304
रक्षक	-14305
ालनों	-14306
▁करूं	-14307
▁गन्ध	-14308
▁बीजा	-14309
▁स्वत	-14310
▁घुसपै	-14311
▁जातीं	-14312
▁देहरा	-14313
▁नेहरु	-14314
▁नौवहन	-14315
▁प्रीत	-14316
▁फैक्स	-14317
▁श्रीम	-14318
▁संज्ञ	-14319
▁संस्म	-14320
▁सोचती	-14321
▁हैल्थ	-14322
▁अनंतिम	-14323
▁अपनाकर	-14324
▁अमूल्य	-14325
▁आपदाओं	-14326
▁आवागमन	-14327
▁इलेक्ट	-14328
▁एयरलाइ	-14329
▁डिब्बा	-14330
▁भूतकाल	-14331
▁मालदीव	-14332
▁व्यंजन	-14333
▁सन्तोष	-14334
▁सहबद्ध	-14335
▁कश्मीरी	-14336
▁किफायती	-14337
▁पेशियों	-14338
▁वर्चुअल	-14339
▁विनिश्व	-14340
▁पूर्णरूप	-14341
▁मधुमक्खी	-14342
▁प्रदूषकों	-14343
▁टिप्पणियां	-14344
▁दुर्घटनाओं	-14345
▁नेटवर्किंग	-14346
▁प्रतिधारित	-14347
▁मनोविज्ञान	-14348
▁शंकराचार्य	-14349
▁विधानमंडलों	-14350
▁समाचारपत्रों	-14351
▁खल	-14352
आरसी	-14353
एँगे	-14354
ज़ेब	-14355
विया	-14356
सिया	-14357
िताब	-14358
▁अख़	-14359
▁तमा	-14360
▁परव	-14361
▁मृद	-14362
▁सूट	-14363
▁ह्व	-14364
▁उच्छ	-14365
▁खाका	-14366
▁गोपी	-14367
▁चलें	-14368
▁चाला	-14369
▁जलने	-14370
▁ताड़	-14371
▁बायो	-14372
▁लगान	-14373
▁लेगी	-14374
▁संशय	-14375
▁सतही	-14376
▁स्लो	-14377
न्यासी	-14378
ार्द्ध	-14379
▁अनिर्	-14380
▁आयेगा	-14381
▁उपदान	-14382
▁एग्री	-14383
▁कराची	-14384
▁चौहान	-14385
▁नास्त	-14386
▁पुतली	-14387
▁मांगे	-14388
▁लैटिन	-14389
▁वनस्प	-14390
▁शरियत	-14391
▁शुक्ल	-14392
▁साढ़े	-14393
▁अनूदित	-14394
▁उद्धार	-14395
▁कक्षों	-14396
▁कीजिये	-14397
▁ताकतवर	-14398
▁नालंदा	-14399
▁निरहता	-14400
▁निलंबन	-14401
▁मोतिया	-14402
▁रिश्ता	-14403
▁इंसुलिन	-14404
▁ज्योतिष	-14405
▁द्रौपदी	-14406
▁मुल्कों	-14407
▁विपत्ति	-14408
▁आपेक्षिक	-14409
▁उदारवादी	-14410
▁उपायुक्त	-14411
▁दोषपूर्ण	-14412
▁पहुंचाया	-14413
▁पूर्णिमा	-14414
▁याचिकाओं	-14415
▁विस्फोटक	-14416
▁सभ्यतागत	-14417
▁पत्रकारों	-14418
▁उपन्यासकार	-14419
▁निःस्वार्थ	-14420
▁विक्टोरिया	-14421
छी	-14422
बस	-14423
िच	-14424
जनी	-14425
न्ज	-14426
ूचि	-14427
▁pl	-14428
▁नफ	-14429
▁अनल	-14430
▁उनऋ	-14431
▁करन	-14432
▁खडी	-14433
▁फाई	-14434
▁लाद	-14435
▁लेक	-14436
▁अमुक	-14437
▁क़ान	-14438
▁दंगे	-14439
▁पारा	-14440
▁पेटी	-14441
▁रमेश	-14442
▁राणा	-14443
▁रीडर	-14444
▁छोड़ो	-14445
▁जनहित	-14446
▁निपुण	-14447
▁बंदूक	-14448
▁सकतीं	-14449
▁सुलझा	-14450
▁अतिशेष	-14451
▁आक्रोश	-14452
▁ऋषियों	-14453
▁गुणांक	-14454
▁गोलमेज	-14455
▁प्यूपा	-14456
▁फ़रवरी	-14457
▁फेंकने	-14458
▁मददगार	-14459
▁समझदार	-14460
▁आज्ञापक	-14461
▁उत्साही	-14462
▁डिबेंचर	-14463
▁नक्षत्र	-14464
▁फ़िल्टर	-14465
▁मोतीलाल	-14466
▁शासनकाल	-14467
▁संबन्धी	-14468
▁क्रियाएं	-14469
▁देहरादून	-14470
▁वस्तुतया	-14471
▁शेयरधारक	-14472
▁अल्पकालीन	-14473
▁कार्यकुशल	-14474
▁ग्यारहवीं	-14475
▁परिकल्पित	-14476
▁प्रतियोगी	-14477
▁अभियुक्तों	-14478
▁प्रतिस्पर्द्धा	-14479
IT	-14480
गढ	-14481
ढक	-14482
णे	-14483
ise	-14484
भाऊ	-14485
लाय	-14486
डियन	-14487
हाइड	-14488
ेरों	-14489
▁गैल	-14490
▁चेन	-14491
▁वेल	-14492
न्यास	-14493
न्सिल	-14494
मण्डल	-14495
ामीटर	-14496
िंग्स	-14497
▁एचआई	-14498
▁एसटी	-14499
▁थोडी	-14500
▁दराज	-14501
▁दीपू	-14502
▁बाएँ	-14503
▁भूषण	-14504
कोडिंग	-14505
ेश्वरी	-14506
▁अय्यर	-14507
▁काटकर	-14508
▁कान्फ	-14509
▁खुजली	-14510
▁दिखते	-14511
▁नैदान	-14512
▁बत्ती	-14513
▁लन्दन	-14514
▁विपुल	-14515
▁संगमर	-14516
▁संजीव	-14517
▁समझें	-14518
▁हटाएँ	-14519
▁उन्हों	-14520
▁करेंसी	-14521
▁कांस्य	-14522
▁देवियो	-14523
▁बुलाने	-14524
▁सांद्र	-14525
▁कार्तिक	-14526
▁पिक्सेल	-14527
▁बायोमास	-14528
▁रसायनों	-14529
▁इंजेक्शन	-14530
▁एकाग्रता	-14531
▁गेंदबाजी	-14532
▁नरेन्द्र	-14533
▁समर्थकों	-14534
▁प्रच्छन्न	-14535
▁माध्यस्थम	-14536
▁सेंटीमीटर	-14537
▁अस्पृश्यता	-14538
▁काव्यात्मक	-14539
▁परिवर्तनीय	-14540
▁पुनर्जागरण	-14541
▁स्वायत्तता	-14542
▁प्रतिभूतियां	-14543
▁सौहार्दपूर्ण	-14544
ML	-14545
ँा	-14546
तऋ	-14547
बह	-14548
err	-14549
ंगु	-14550
प्ल	-14551
राइ	-14552
▁डै	-14553
प्पी	-14554
ृप्त	-14555
▁बेद	-14556
▁मीर	-14557
▁लेप	-14558
▁शीट	-14559
▁हंग	-14560
ंबद्ध	-14561
म्ब्र	-14562
ासाहब	-14563
ियाला	-14564
िलिंग	-14565
▁कुरु	-14566
▁केशव	-14567
▁गूंज	-14568
▁चादर	-14569
▁झटके	-14570
▁बेंच	-14571
▁बेचे	-14572
▁विषै	-14573
▁सीने	-14574
्लेक्स	-14575
▁अजनबी	-14576
▁इन्दु	-14577
▁करोगे	-14578
▁कागज़	-14579
▁घण्टे	-14580
▁जहाज़	-14581
▁तिब्ब	-14582
▁नब्बे	-14583
▁फैक्ट	-14584
▁बनेगी	-14585
▁लालसा	-14586
▁विशाख	-14587
▁संगति	-14588
▁अधिवास	-14589
▁प्रतिप	-14590
▁बढ़ाता	-14591
▁बीबीसी	-14592
▁मिलाया	-14593
▁श्रोता	-14594
▁सज्जित	-14595
▁अभ्यस्त	-14596
▁ऑप्टिकल	-14597
▁कारागार	-14598
▁गोदावरी	-14599
▁प्रलेखन	-14600
▁वयस्कों	-14601
▁स्ट्राइ	-14602
▁चित्रकला	-14603
▁दण्डादेश	-14604
▁राजकोषीय	-14605
▁विद्वान्	-14606
▁शस्त्रों	-14607
▁पृष्ठांकन	-14608
▁प्रतिकृति	-14609
▁विश्वासों	-14610
▁प्रतिबिम्ब	-14611
▁ब्रह्माण्ड	-14612
▁साम्राज़्य	-14613
▁नवान्वेषणों	-14614
▁विद्युतीकरण	-14615
▁प्राथमिकताओं	-14616
OR	-14617
्ज	-14618
गर्	-14619
गली	-14620
वेन	-14621
ेनी	-14622
▁पछ	-14623
कोहल	-14624
डीसी	-14625
तरफा	-14626
पीजी	-14627
वारे	-14628
▁key	-14629
▁आदी	-14630
▁आसफ	-14631
▁कंब	-14632
▁कुस	-14633
▁कूप	-14634
▁छपी	-14635
▁भेष	-14636
▁मैल	-14637
▁रोट	-14638
▁शती	-14639
▁सीम	-14640
मितीय	-14641
श्चित	-14642
▁उंगल	-14643
▁उतरे	-14644
▁एडवो	-14645
▁गाया	-14646
▁चींट	-14647
▁हामी	-14648
लांटिक	-14649
▁अवसान	-14650
▁आशयित	-14651
▁खेलना	-14652
▁चलाये	-14653
▁निचला	-14654
▁बोलता	-14655
▁विरूप	-14656
▁सुरंग	-14657
▁सौम्य	-14658
▁स्पेश	-14659
तानुसार	-14660
▁अभिमान	-14661
▁फर्मों	-14662
▁फेफड़े	-14663
▁बॉम्बे	-14664
▁यथोचित	-14665
▁विचारक	-14666
▁स्टांप	-14667
▁अनभिज्ञ	-14668
▁अनुलग्न	-14669
▁कमोडिटी	-14670
▁कैलेंडर	-14671
▁चर्चाओं	-14672
▁चात्रिक	-14673
▁परक्राम	-14674
▁पांचवें	-14675
▁व्यापकता	-14676
▁संन्यासी	-14677
▁परिवर्तनशील	-14678
ya	-14679
जब	-14680
०घ	-14681
२ग	-14682
uar	-14683
कुर	-14684
पाक	-14685
विच	-14686
ापे	-14687
▁खस	-14688
ंबार	-14689
एमसी	-14690
नाथन	-14691
न्ती	-14692
ल्लू	-14693
ीलों	-14694
▁तोड	-14695
▁पंर	-14696
▁बफर	-14697
▁मैग	-14698
▁रोप	-14699
▁हक़	-14700
चिह्न	-14701
मियों	-14702
▁ऋग्व	-14703
▁गूढ़	-14704
▁धीमे	-14705
▁पीढी	-14706
▁पुथल	-14707
▁फ्रे	-14708
▁बढ़त	-14709
▁बाज़	-14710
▁बीता	-14711
▁मह्त	-14712
▁मेटा	-14713
▁वज़न	-14714
यालयों	-14715
▁खिड़क	-14716
▁घुमाव	-14717
▁टैरिफ	-14718
▁डिस्ट	-14719
▁तालीम	-14720
▁परमान	-14721
▁पुनरू	-14722
▁ब्लॉग	-14723
▁भीष्म	-14724
▁मांगा	-14725
▁मैनें	-14726
▁शौर्य	-14727
▁हैरान	-14728
आक्साइड	-14729
▁क्लबों	-14730
▁नितांत	-14731
▁बांटने	-14732
▁महादेव	-14733
▁कर्मकार	-14734
▁ठेकेदार	-14735
▁दूरगामी	-14736
▁निरंकुश	-14737
▁राशियां	-14738
▁सुविचार	-14739
▁स्पेक्ट	-14740
▁आनुषंगिक	-14741
▁ग्रन्थों	-14742
▁विश्लेषक	-14743
▁समुद्रों	-14744
▁एजेंसियां	-14745
▁बाध्यताओं	-14746
▁आत्मनिर्भरता	-14747
▁शिक्षार्थियों	-14748
aw	-14749
उप	-14750
गै	-14751
ंटो	-14752
ंधि	-14753
ज्म	-14754
बॉल	-14755
रां	-14756
ौला	-14757
्यय	-14758
क्यू	-14759
दण्ड	-14760
िटरी	-14761
▁उछल	-14762
▁बिच	-14763
▁भान	-14764
▁योर	-14765
▁सरस	-14766
▁होन	-14767
ार्डन	-14768
▁कमला	-14769
▁कॉयर	-14770
▁चमत्	-14771
▁चौंक	-14772
▁जनों	-14773
▁डीजल	-14774
▁दलाल	-14775
▁धोने	-14776
▁रेंज	-14777
▁हीरा	-14778
▁खिसका	-14779
▁टीकरण	-14780
▁त्रिक	-14781
▁धरातल	-14782
▁पत्ता	-14783
▁बजाने	-14784
▁रेस्त	-14785
▁लिप्य	-14786
▁लिहाज	-14787
▁सविनय	-14788
▁साबुन	-14789
▁सीटों	-14790
▁हटाकर	-14791
रीक्षित	-14792
▁कदाचित	-14793
▁प्रकोप	-14794
▁महालेख	-14795
▁सुन्नी	-14796
▁सूर्या	-14797
स्ट्रिया	-14798
▁अंतरफलक	-14799
▁अनुवादक	-14800
▁प्रकाशक	-14801
▁बारंबार	-14802
▁बारहवीं	-14803
▁लेखांकन	-14804
▁अध्यायों	-14805
▁विचारणीय	-14806
▁शरणार्थी	-14807
▁प्रान्तों	-14808
▁व्यवहारिक	-14809
▁संपरीक्षा	-14810
▁स्त्रोतों	-14811
▁पुनर्जीवित	-14812
▁राजनीतिज्ञ	-14813
▁अन्तर्विष्ट	-14814
▁पुरःस्थापित	-14815
▁प्रतिबिम्बित	-14816
▁माइक्रोसॉफ्ट	-14817
oo	-14818
२६	-14819
म्फ	-14820
साह	-14821
िगे	-14822
ितर	-14823
▁ag	-14824
दम्य	-14825
नामे	-14826
भद्र	-14827
भुता	-14828
विभा	-14829
हरों	-14830
ान्ट	-14831
ियें	-14832
▁आलम	-14833
▁उपच	-14834
▁ऑंक	-14835
▁त्त	-14836
▁युन	-14837
▁लिं	-14838
▁लिन	-14839
▁हाव	-14840
क्सीन	-14841
टीकरण	-14842
पुष्प	-14843
मेटिक	-14844
▁इनाम	-14845
▁गतिक	-14846
▁गुणन	-14847
▁जनना	-14848
▁नफरत	-14849
▁निबट	-14850
▁नीचा	-14851
▁ब्यो	-14852
▁शासी	-14853
▁सोचो	-14854
▁अधिगम	-14855
▁अर्हक	-14856
▁अवचार	-14857
▁चौड़े	-14858
▁जायगी	-14859
▁मकबरे	-14860
▁लौकिक	-14861
▁सेटअप	-14862
धिकारों	-14863
संस्कृत	-14864
्वीकृति	-14865
▁ऋग्वेद	-14866
▁जूनियर	-14867
▁परिधान	-14868
▁परिपाट	-14869
▁प्रवीण	-14870
▁बीसवीं	-14871
▁मिस्टर	-14872
▁शिकागो	-14873
▁सुगमता	-14874
▁अंतर्रा	-14875
▁नक्काशी	-14876
▁प्रेसिड	-14877
▁फिल्में	-14878
▁मूंगफली	-14879
▁श्रीमान	-14880
▁हस्पताल	-14881
▁कॉरपोरेट	-14882
▁भावात्मक	-14883
▁तादात्म्य	-14884
▁कुलाध्यक्ष	-14885
▁विनिश्चयों	-14886
▁सर्वव्यापी	-14887
▁अन्यायपूर्ण	-14888
▁परामर्शदाता	-14889
▁क्षेत्राधिकार	-14890
वाइ	-14891
ौजी	-14892
ौरी	-14893
▁नू	-14894
म्बी	-14895
्रोम	-14896
▁अलै	-14897
▁एले	-14898
▁कटौ	-14899
▁कहो	-14900
▁छाव	-14901
▁जैक	-14902
▁नेक	-14903
▁पां	-14904
▁सुई	-14905
डियां	-14906
भिव्य	-14907
▁अलवा	-14908
▁एजें	-14909
▁ख़ुद	-14910
▁गुटन	-14911
▁चालन	-14912
▁निरु	-14913
▁निवृ	-14914
▁नीली	-14915
▁पीएस	-14916
▁पीते	-14917
▁बारा	-14918
▁मण्ड	-14919
▁मसलन	-14920
▁मुखौ	-14921
▁योगी	-14922
▁यौवन	-14923
▁सर्च	-14924
▁सीसा	-14925
▁स्रा	-14926
वर्णित	-14927
▁अस्सी	-14928
▁नेटाल	-14929
▁भाषाई	-14930
▁भेजता	-14931
▁मराठा	-14932
▁मिठाई	-14933
▁सॉफ्ट	-14934
▁हिंदु	-14935
▁हिचकि	-14936
मान्यता	-14937
▁मीयादी	-14938
▁मुट्ठी	-14939
▁मेहराब	-14940
▁सुनाने	-14941
▁स्क्वा	-14942
▁हरिभाऊ	-14943
▁नैदानिक	-14944
▁परिणामी	-14945
▁फेडरेशन	-14946
▁बहुमुखी	-14947
▁संगमरमर	-14948
▁संवितरण	-14949
▁चरित्रों	-14950
▁जरूरतमंद	-14951
▁अभियोजकों	-14952
▁डेवलपमेंट	-14953
▁उपनिवेशवाद	-14954
▁स्थानापन्न	-14955
▁देशीराज्यों	-14956
ED	-14957
ack	-14958
ईएस	-14959
खनन	-14960
गिल	-14961
निर	-14962
पुत	-14963
िनो	-14964
▁th	-14965
न्टी	-14966
भोगी	-14967
ित्स	-14968
्रोत	-14969
▁अनम	-14970
▁आपर	-14971
▁एस्	-14972
▁कैट	-14973
▁झाँ	-14974
▁ताम	-14975
ॉप्टर	-14976
▁कस्त	-14977
▁खोने	-14978
▁खोली	-14979
▁घटकर	-14980
▁ठंडी	-14981
▁पेची	-14982
▁प्रज	-14983
▁फ्लो	-14984
▁बसंत	-14985
▁माँस	-14986
द्वारा	-14987
▁एमसीए	-14988
▁बिल्ड	-14989
▁बुलेट	-14990
▁ब्याह	-14991
▁लचीला	-14992
▁अनजाने	-14993
▁अफसरों	-14994
▁बरकरार	-14995
▁बहरहाल	-14996
▁सजावटी	-14997
▁सल्तनत	-14998
▁सेनानी	-14999
▁अथारिटी	-15000
▁असंतुलन	-15001
▁एडवोकेट	-15002
▁कुक्कुट	-15003
▁क्षितिज	-15004
▁यूट्यूब	-15005
▁विधानों	-15006
▁सेवायें	-15007
▁औरंगज़ेब	-15008
▁प्रफुल्ल	-15009
▁सॉल्वैंट	-15010
▁अंकगणितीय	-15011
▁चिरस्थायी	-15012
▁टेक्नोलॉजी	-15013
▁संपत्तियों	-15014
▁साम्राज़्यवाद	-15015
AN	-15016
OL	-15017
कौ	-15018
टोल	-15019
नीर	-15020
यली	-15021
ुषण	-15022
▁Se	-15023
▁नग	-15024
▁हब	-15025
ंस्ट	-15026
एफपी	-15027
ज़ाम	-15028
र्था	-15029
लाना	-15030
▁आख़	-15031
▁डाँ	-15032
▁धड़	-15033
▁नूर	-15034
▁सिस	-15035
▁हाऊ	-15036
चियों	-15037
▁उनपर	-15038
▁काडर	-15039
▁टूटे	-15040
▁थीटा	-15041
▁नामी	-15042
▁पूति	-15043
▁लदान	-15044
▁लाइफ	-15045
▁विभी	-15046
▁सूँघ	-15047
ंतुष्ट	-15048
ायेंगे	-15049
▁कैप्ट	-15050
▁क्लीन	-15051
▁जगाने	-15052
▁जिब्र	-15053
▁तब्दी	-15054
▁बायें	-15055
▁मसाले	-15056
▁युवती	-15057
▁वर्जन	-15058
▁शूद्र	-15059
▁संतों	-15060
▁सीढ़ी	-15061
▁हुक्म	-15062
▁टांगें	-15063
▁मिटाना	-15064
▁रहेंगी	-15065
▁लम्बित	-15066
▁विखंडन	-15067
▁सप्लाई	-15068
कर्मियों	-15069
▁जमाराशि	-15070
▁भावनाएं	-15071
▁साझेदार	-15072
▁स्मरणीय	-15073
▁अंशकालिक	-15074
▁लड़कियां	-15075
▁विनम्रता	-15076
▁अव्यवस्थित	-15077
▁अन्तर्निहित	-15078
▁ईश्वरचन्द्र	-15079
▁इलैक्ट्रानिक	-15080
बाइ	-15081
ेला	-15082
▁ST	-15083
▁gt	-15084
ड्रन	-15085
िनिक	-15086
▁कतई	-15087
▁कोक	-15088
▁घृण	-15089
▁जया	-15090
▁जिह	-15091
▁तोप	-15092
▁फुस	-15093
▁बाउ	-15094
▁रबर	-15095
ण्डिक	-15096
मीकरण	-15097
योजना	-15098
▁चोंच	-15099
▁धनीय	-15100
▁बर्र	-15101
▁मिया	-15102
▁रेशे	-15103
▁संजय	-15104
▁सिरा	-15105
▁हुयी	-15106
▁उभरने	-15107
▁कथाएं	-15108
▁जागीर	-15109
▁दायें	-15110
▁नजरिए	-15111
▁बिन्द	-15112
▁भुवने	-15113
▁लगाएं	-15114
▁अधिशेष	-15115
▁उपसर्ग	-15116
▁एकान्त	-15117
▁बनेंगे	-15118
▁रायपुर	-15119
▁लालटेन	-15120
▁सर्टिफ	-15121
▁सोनिया	-15122
▁उत्तेजक	-15123
▁उपदेशों	-15124
▁उपरान्त	-15125
▁कॉलेजों	-15126
▁गोवर्धन	-15127
▁दावेदार	-15128
▁निकालते	-15129
▁लेखबद्ध	-15130
▁विवादित	-15131
▁वेदान्त	-15132
▁आत्मघाती	-15133
▁तस्वीरों	-15134
▁प्रशासित	-15135
▁भित्तिस्त	-15136
▁विनिर्देश	-15137
वेज	-15138
सना	-15139
ारत	-15140
ुला	-15141
▁ma	-15142
▁टर	-15143
त्वा	-15144
द्वि	-15145
मर्थ	-15146
हारा	-15147
▁अले	-15148
▁कटे	-15149
▁पंत	-15150
▁पडी	-15151
▁पात	-15152
▁बरी	-15153
▁मौज	-15154
▁रचे	-15155
▁रमण	-15156
▁सेठ	-15157
धीकरण	-15158
नियाई	-15159
न्धान	-15160
▁अवधी	-15161
▁आक्र	-15162
▁औरों	-15163
▁घाटा	-15164
▁जांघ	-15165
▁डायल	-15166
▁बड़ै	-15167
▁रायल	-15168
▁इक्की	-15169
▁किसने	-15170
▁छावनी	-15171
▁द्वास	-15172
▁बचाना	-15173
▁मिलनी	-15174
▁मुग़ल	-15175
▁संस्त	-15176
▁हुमाय	-15177
▁असम्भव	-15178
▁गतिरोध	-15179
▁डिप्लो	-15180
▁दीवानी	-15181
▁पहचाने	-15182
▁युक़्त	-15183
▁शनिवार	-15184
▁अधिरचना	-15185
▁असंगठित	-15186
▁चालुक्य	-15187
▁निपटारे	-15188
▁पायेंगे	-15189
▁संज्ञान	-15190
▁स्वेच्छ	-15191
▁कोलंबिया	-15192
▁ज़िन्दगी	-15193
▁दोषसिद्ध	-15194
▁निवृत्ति	-15195
▁पहुँचाने	-15196
▁प्रतीकों	-15197
▁रवीन्द्र	-15198
▁समामेलित	-15199
▁कारपोरेशन	-15200
▁द्वीपसमूह	-15201
▁धारावाहिक	-15202
▁रिपब्लिकन	-15203
▁लक्षद्वीप	-15204
▁न्यायात्रय	-15205
▁मध्यप्रदेश	-15206
ult	-15207
ust	-15208
फिल	-15209
रेक	-15210
हड़	-15211
▁थॉ	-15212
चनीय	-15213
शनों	-15214
ामें	-15215
्राह	-15216
▁gui	-15217
▁जिल	-15218
▁नशा	-15219
▁पिश	-15220
▁रोष	-15221
▁व्ह	-15222
जातीय	-15223
▁अनाम	-15224
▁एम्ब	-15225
▁कापी	-15226
▁गोरख	-15227
▁चाकू	-15228
▁झूठा	-15229
▁डीलर	-15230
▁पुडु	-15231
▁बराक	-15232
▁माफी	-15233
▁रिंग	-15234
▁लडाई	-15235
▁स्टॉ	-15236
वांशिक	-15237
▁अधिना	-15238
▁इस्ते	-15239
▁करतीं	-15240
▁कीचड़	-15241
▁क्रमश	-15242
▁झाड़ी	-15243
▁प्वाइ	-15244
▁मत्कु	-15245
▁मदिरा	-15246
▁मनोबल	-15247
▁मुज्ह	-15248
▁म्यां	-15249
▁शक़्त	-15250
▁आतिथ्य	-15251
▁आत्मिक	-15252
▁आयामों	-15253
▁एडवर्ड	-15254
▁क्षत्र	-15255
▁खींचना	-15256
▁बंग्ला	-15257
▁बेचैनी	-15258
▁माताओं	-15259
▁विंडोज	-15260
▁अभिनंदन	-15261
▁इजरायली	-15262
▁जवाबदेह	-15263
▁प्रदुषण	-15264
▁बिंदुओं	-15265
▁सिंहासन	-15266
▁नाममात्र	-15267
▁संगीतकार	-15268
▁गांधीवादी	-15269
▁जमींदारों	-15270
▁विदेशियों	-15271
▁वृत्ताकार	-15272
▁आदिवासियों	-15273
▁हतोत्साहित	-15274
▁अभ्यर्थियों	-15275
▁विनिधानकर्ता	-15276
बक	-15277
िएट	-15278
ोहक	-15279
▁le	-15280
▁दय	-15281
▁नऋ	-15282
▁षड	-15283
गिरी	-15284
डीआई	-15285
फ़ज़	-15286
हरान	-15287
▁गंज	-15288
▁डरा	-15289
▁बसु	-15290
▁मूस	-15291
▁संध	-15292
▁सरा	-15293
▁हमद	-15294
क्कड़	-15295
बाजों	-15296
िविटी	-15297
▁maoM	-15298
▁अछूत	-15299
▁आयें	-15300
▁घटती	-15301
▁चन्द	-15302
▁छद्म	-15303
▁तटों	-15304
▁नायर	-15305
▁पीएच	-15306
▁सेबी	-15307
▁अश्रु	-15308
▁आएंगे	-15309
▁उपसभा	-15310
▁गंदगी	-15311
▁ताल्ल	-15312
▁प्रलो	-15313
▁फास्ट	-15314
▁समूची	-15315
मन्त्री	-15316
▁तर्कों	-15317
▁निरोधक	-15318
▁न्यूज़	-15319
▁भव्यता	-15320
▁मशीनें	-15321
▁मुआवजा	-15322
▁मैनेजर	-15323
▁रूकावट	-15324
▁वाहिका	-15325
▁संयोजक	-15326
▁एकमुश्त	-15327
▁ऑफ़लाइन	-15328
▁क्षयरोग	-15329
▁रास्तों	-15330
▁संलग्नक	-15331
▁प्रोसेसर	-15332
▁सभ्यताओं	-15333
▁रिश्तेदार	-15334
▁सिपाहियों	-15335
▁सुस्थापित	-15336
▁अंतर्वस्तु	-15337
ht	-15338
ue	-15339
फात	-15340
हों	-15341
ाता	-15342
▁IP	-15343
▁गध	-15344
▁डच	-15345
▁वु	-15346
इयाँ	-15347
ुकाम	-15348
▁इको	-15349
▁टर्	-15350
▁तुन	-15351
▁नसी	-15352
▁रचा	-15353
▁शशि	-15354
▁अननु	-15355
▁एंजा	-15356
▁ऑब्ज	-15357
▁कुएं	-15358
▁क्रो	-15359
▁खोजा	-15360
▁गर्त	-15361
▁गुणक	-15362
▁जिया	-15363
▁तर्ज	-15364
▁ताला	-15365
▁पाली	-15366
▁बावत	-15367
▁बीपी	-15368
▁भालू	-15369
▁महीन	-15370
▁विकट	-15371
▁शक्ल	-15372
▁सरला	-15373
▁सोची	-15374
▁हँसी	-15375
ध्यापक	-15376
्रीकृत	-15377
▁अणुओं	-15378
▁अफगान	-15379
▁उपनाम	-15380
▁कन्नड	-15381
▁काश्त	-15382
▁कैलाश	-15383
▁जन्मा	-15384
▁जोसेफ	-15385
▁ठहरने	-15386
▁ढूँढ़	-15387
▁दंगों	-15388
▁नशीली	-15389
▁नाकाम	-15390
▁मुकर्	-15391
▁लौटकर	-15392
▁सूफ़ी	-15393
ational	-15394
▁अप्रिय	-15395
▁इक्कीस	-15396
▁परिकलन	-15397
▁बहुलता	-15398
▁विज़ेट	-15399
▁शुद्धि	-15400
▁सेलुलर	-15401
▁स्वत्व	-15402
▁अग्रभाग	-15403
▁धारणाओं	-15404
▁नरसंहार	-15405
▁परिसम्प	-15406
▁बहादुरी	-15407
परिवर्तित	-15408
▁अधिष्ठान	-15409
▁तानाशाही	-15410
▁प्रतिध्व	-15411
▁प्रमाणों	-15412
▁बर्दाश्त	-15413
▁बैरिस्टर	-15414
▁गौरवपूर्ण	-15415
▁प्रशासकों	-15416
▁रेखाचित्र	-15417
▁विशेषताएँ	-15418
▁स्वातंत्र्य	-15419
▁ऑस्ट्रेलियाई	-15420
ऋआ	-15421
२७	-15422
age	-15423
ism	-15424
ुचि	-15425
▁ID	-15426
नाशक	-15427
न्टन	-15428
▁कसम	-15429
▁दरि	-15430
▁नेम	-15431
ख़ाना	-15432
धिकृत	-15433
ोत्तम	-15434
▁करुण	-15435
▁कीटा	-15436
▁घंटी	-15437
▁टंकण	-15438
▁तंबू	-15439
▁थकान	-15440
▁पतले	-15441
▁बेने	-15442
▁माथे	-15443
▁मीठा	-15444
▁वादक	-15445
▁सल्फ	-15446
▁सुर्	-15447
▁हिता	-15448
▁ह्यू	-15449
▁ईस्वी	-15450
▁ऑंकडा	-15451
▁कवरेज	-15452
▁कुवैत	-15453
▁झगड़ा	-15454
▁दूँगा	-15455
▁नर्तक	-15456
▁पायलट	-15457
▁पिक्स	-15458
▁फ्लैट	-15459
▁बूझकर	-15460
▁भाड़े	-15461
▁लिखीं	-15462
▁हकीकत	-15463
▁हाइपर	-15464
न्तुष्ट	-15465
▁उत्खनन	-15466
▁कागजात	-15467
▁कीड़ों	-15468
▁निम्ना	-15469
▁निष्फल	-15470
▁न्यूक्	-15471
▁प्रणाम	-15472
▁बनाएगा	-15473
▁भिक्षु	-15474
▁भूमध्य	-15475
▁रोगाणु	-15476
▁विधायक	-15477
▁सदाचार	-15478
▁इंगलैंड	-15479
▁गठबन्धन	-15480
▁बहुतायत	-15481
▁रेखांकन	-15482
▁कृतज्ञता	-15483
▁निष्कासन	-15484
▁पत्राचार	-15485
▁पहाडियों	-15486
▁बाइंडिंग	-15487
▁यूनेस्को	-15488
▁विन्यस्त	-15489
▁संगोष्ठी	-15490
▁भाग्यशाली	-15491
▁स्वयंसेवी	-15492
▁अनियंत्रित	-15493
▁प्रासंगिकता	-15494
▁प्रतिष्ठानों	-15495
▁सूक्ष्मदर्शी	-15496
ox	-15497
कण	-15498
ire	-15499
lic	-15500
ंचा	-15501
ंठन	-15502
डऋई	-15503
माह	-15504
यना	-15505
सखा	-15506
ेड़	-15507
▁कक	-15508
डीएल	-15509
त्तन	-15510
बूतर	-15511
ारंभ	-15512
▁कलश	-15513
▁जनस	-15514
▁ढाई	-15515
▁नन्	-15516
▁नीद	-15517
▁बुध	-15518
▁भाम	-15519
▁यदा	-15520
▁रिम	-15521
दृष्ट	-15522
्रांत	-15523
▁कपाल	-15524
▁कलंक	-15525
▁खदान	-15526
▁खुदा	-15527
▁चुरा	-15528
▁पठित	-15529
▁पूना	-15530
▁फैशन	-15531
▁बाँट	-15532
▁रोशन	-15533
▁शरीक	-15534
▁स्कै	-15535
▁स्टै	-15536
ार्बुद	-15537
▁तकिया	-15538
▁तिलहन	-15539
▁दिलों	-15540
▁नक्शे	-15541
▁भूलना	-15542
▁रक्ता	-15543
▁आनलाइन	-15544
▁कष्टों	-15545
▁घुसपैठ	-15546
▁पकड़कर	-15547
▁पक्षधर	-15548
▁परास्त	-15549
▁रचयिता	-15550
▁क्यूंकि	-15551
▁प्रकल्प	-15552
▁वादियों	-15553
▁वास्तुश	-15554
▁अफ़्रीका	-15555
▁घुड़सवार	-15556
▁प्रकारों	-15557
▁बाबासाहब	-15558
▁रक्षोपाय	-15559
▁विस्थापन	-15560
▁संवृद्धि	-15561
▁समाधानों	-15562
▁अभ्यावेदन	-15563
▁परम्पराओं	-15564
▁शास्त्रों	-15565
▁कार्यस्थान	-15566
▁क्रियाविधि	-15567
▁पूर्णकालिक	-15568
▁गुटनिरपेक्ष	-15569
▁सर्वशक्तिमान	-15570
TT	-15571
ly	-15572
ाफ	-15573
डोग	-15574
तता	-15575
साल	-15576
िंक	-15577
्र्	-15578
▁ऋन	-15579
गलों	-15580
दिया	-15581
र्नी	-15582
शासी	-15583
िएटर	-15584
▁pdf	-15585
▁अधो	-15586
▁आवक	-15587
▁किं	-15588
▁नशे	-15589
▁पकड	-15590
▁लीं	-15591
णाधीन	-15592
न्नों	-15593
स्फेट	-15594
▁अडिग	-15595
▁अथॉर	-15596
▁ईसवी	-15597
▁खाकर	-15598
▁तेरे	-15599
▁फ़्ल	-15600
▁बरती	-15601
▁मछुआ	-15602
▁मुनि	-15603
▁संजो	-15604
▁परवलय	-15605
▁पूछते	-15606
▁मसाला	-15607
▁राजसी	-15608
▁लिखता	-15609
▁लिफ्ट	-15610
▁सरसों	-15611
▁सेंसर	-15612
▁हिदाय	-15613
▁हिस्ट	-15614
▁हैंडल	-15615
▁अश्लील	-15616
▁एजेन्ट	-15617
▁कस्बों	-15618
▁कारीगर	-15619
▁गुजरते	-15620
▁तेहरान	-15621
▁निर्दि	-15622
▁नॉर्वे	-15623
[...]
