<unk>	0
<s>	0
</s>	0
UuRrLl	0
DdAaTtEe	0
NnUuMm	0
▁क	-0
▁स	-1
▁ह	-2
▁प	-3
▁म	-4
्र	-5
▁के	-6
ार	-7
या	-8
▁अ	-9
▁व	-10
▁है	-11
ें	-12
▁न	-13
▁ज	-14
▁,	-15
▁।	-16
र्	-17
▁द	-18
▁ब	-19
ों	-20
▁में	-21
ता	-22
्य	-23
▁उ	-24
▁र	-25
▁ल	-26
ान	-27
▁प्र	-28
िक	-29
▁की	-30
▁कि	-31
▁औ	-32
▁आ	-33
▁और	-34
ने	-35
▁को	-36
्त	-37
▁त	-38
▁कर	-39
▁ग	-40
ित	-41
▁से	-42
▁का	-43
▁भ	-44
ना	-45
▁इ	-46
▁ए	-47
्व	-48
▁पर	-49
▁.	-50
▁वि	-51
▁श	-52
▁य	-53
▁सं	-54
िए	-55
था	-56
▁हो	-57
िय	-58
ाल	-59
▁-	-60
्ष	-61
▁च	-62
▁इस	-63
्या	-64
्ट	-65
ति	-66
ही	-67
▁एक	-68
ाम	-69
▁हैं	-70
▁लिए	-71
न्	-72
▁जा	-73
▁सम	-74
वा	-75
ती	-76
▁नि	-77
के	-78
हा	-79
स्	-80
ते	-81
▁अप	-82
िया	-83
क्ष	-84
हीं	-85
ड़	-86
▁ने	-87
▁अन	-88
सी	-89
त्र	-90
▁रा	-91
▁या	-92
▁किया	-93
ेश	-94
िल	-95
▁अध	-96
▁यह	-97
ारा	-98
▁नहीं	-99
से	-100
ोग	-101
▁भी	-102
▁ख	-103
▁)	-104
▁(	-105
रा	-106
▁सा	-107
क्त	-108
नी	-109
री	-110
कार	-111
▁करने	-112
ास	-113
▁बा	-114
▁जो	-115
▁थ	-116
▁था	-117
ंग	-118
ले	-119
ष्ट	-120
▁उस	-121
िस	-122
त्	-123
िन	-124
्री	-125
▁दे	-126
▁फ	-127
▁स्	-128
का	-129
▁कार	-130
▁गया	-131
ला	-132
▁उप	-133
▁द्व	-134
ियों	-135
ाय	-136
ूप	-137
द्	-138
▁मु	-139
की	-140
कर	-141
▁हम	-142
▁सु	-143
▁उन	-144
▁सक	-145
▁द्वारा	-146
ंध	-147
▁अनु	-148
मा	-149
सा	-150
गा	-151
▁ध	-152
▁हु	-153
ंद	-154
ंत	-155
▁कु	-156
भा	-157
ूर्	-158
ारी	-159
▁ही	-160
▁ड	-161
ओं	-162
ाने	-163
ाह	-164
▁रूप	-165
▁ले	-166
स्त	-167
▁तथा	-168
्च	-169
▁निर्	-170
ंड	-171
▁अधिक	-172
▁राज	-173
▁भार	-174
न्ह	-175
वि	-176
▁स्व	-177
ल्	-178
देश	-179
▁ऐ	-180
▁प्रति	-181
ली	-182
▁तो	-183
ोज	-184
▁व्य	-185
▁साथ	-186
▁वह	-187
▁विश	-188
ुर	-189
▁किसी	-190
त्त	-191
▁आप	-192
िव	-193
बंध	-194
द्ध	-195
▁घ	-196
म्	-197
▁प्रा	-198
▁रह	-199
▁अपने	-200
▁पह	-201
दी	-202
▁ट	-203
ब्	-204
धार	-205
ीन	-206
▁वर्	-207
▁उन्ह	-208
▁सि	-209
▁जिस	-210
ैं	-211
▁न्या	-212
रे	-213
▁भा	-214
ाना	-215
▁सी	-216
िका	-217
▁वाल	-218
ार्	-219
▁वे	-220
खा	-221
कि	-222
भी	-223
▁छ	-224
ृत	-225
▁थी	-226
जी	-227
▁थे	-228
▁'	-229
▁चाह	-230
ियम	-231
▁कार्य	-232
दा	-233
रण	-234
योग	-235
▁दिया	-236
▁/	-237
ंच	-238
▁तक	-239
लय	-240
ष्	-241
प्त	-242
▁पी	-243
क्ति	-244
▁मा	-245
▁क्ष	-246
में	-247
िर	-248
▁स्थ	-249
स्थ	-250
▁दो	-251
ारे	-252
▁पु	-253
▁जाता	-254
▁श्री	-255
ुत	-256
▁कोई	-257
ंत्र	-258
▁भारत	-259
गी	-260
कर्	-261
▁मह	-262
द्य	-263
दि	-264
▁पा	-265
▁अव	-266
ूल	-267
क्र	-268
▁सर	-269
चार	-270
रो	-271
▁ला	-272
▁मे	-273
िश	-274
▁साम	-275
▁करना	-276
▁जब	-277
ढ़	-278
मान	-279
▁राष्ट	-280
च्च	-281
्यों	-282
▁कुछ	-283
नों	-284
▁न्याया	-285
वे	-286
▁बह	-287
▁सकता	-288
गे	-289
जा	-290
▁अभ	-291
▁कहा	-292
पा	-293
▁गई	-294
▁संबंध	-295
्रे	-296
▁बी	-297
्ञ	-298
▁जी	-299
क्	-300
▁हुए	-301
्रा	-302
▁विक	-303
▁होता	-304
▁माम	-305
▁मैं	-306
▁पूर्	-307
▁बाद	-308
▁दू	-309
▁मान	-310
▁सू	-311
ेत्र	-312
▁बना	-313
न्न	-314
▁अन्य	-315
▁समय	-316
▁गए	-317
कर्ता	-318
िला	-319
▁जै	-320
▁करते	-321
▁इन	-322
▁पू	-323
पी	-324
्छ	-325
र्थ	-326
ोंने	-327
धान	-328
न्द	-329
ील	-330
▁कम	-331
▁क्षेत्र	-332
ोट	-333
▁;	-334
िप	-335
ये	-336
▁उनके	-337
गर	-338
वी	-339
▁सरकार	-340
▁तर	-341
हां	-342
▁ओ	-343
▁दी	-344
▁करता	-345
ंब	-346
धि	-347
▁वा	-348
▁अपनी	-349
कों	-350
▁राज्य	-351
र्म	-352
ेष	-353
क्षा	-354
िट	-355
▁न्यायालय	-356
िम	-357
वन	-358
ानी	-359
▁अंत	-360
▁सह	-361
▁उसके	-362
▁जाए	-363
ुक्त	-364
▁उन्होंने	-365
▁परि	-366
▁चाहिए	-367
च्छ	-368
▁रहे	-369
▁गु	-370
दन	-371
▁रहा	-372
पूर्	-373
ंक	-374
▁होने	-375
ोक	-376
▁उत्	-377
▁लोग	-378
दान	-379
▁:	-380
▁रख	-381
स्था	-382
र्श	-383
▁वर्ष	-384
▁राष्ट्र	-385
स्ता	-386
त्य	-387
भाव	-388
▁मिल	-389
ुल	-390
ौर	-391
ज़	-392
चना	-393
▁देश	-394
▁वाले	-395
▁प्राप्त	-396
▁हि	-397
ज्ञ	-398
▁अनुस	-399
▁सब	-400
▁विश्व	-401
्रीय	-402
श्य	-403
▁शिक	-404
▁सभी	-405
▁तरह	-406
्म	-407
ेल	-408
▁किए	-409
िति	-410
▁बात	-411
ड़ा	-412
धिक	-413
▁कारण	-414
▁समा	-415
जन	-416
▁आय	-417
गत	-418
▁बहुत	-419
करण	-420
ध्य	-421
को	-422
▁जि	-423
▁करें	-424
ंप	-425
तीय	-426
▁बन	-427
▁अधिन	-428
▁जाने	-429
▁?	-430
्ल	-431
▁प्रकार	-432
▁चु	-433
▁पहले	-434
पति	-435
ून	-436
ंह	-437
ड़ी	-438
▁इसके	-439
▁व्यक्ति	-440
िख	-441
▁अधिनियम	-442
▁उसे	-443
▁उन्हें	-444
▁लग	-445
नि	-446
▁ऊ	-447
टी	-448
▁आव	-449
हर	-450
किन	-451
हत	-452
▁देख	-453
▁याच	-454
▁ना	-455
ोल	-456
बा	-457
ग्र	-458
▁लेकिन	-459
▁मामले	-460
▁होगा	-461
पूर्ण	-462
▁हुआ	-463
▁होती	-464
▁नाम	-465
एं	-466
▁कह	-467
वल	-468
▁जन	-469
ीय	-470
▁बि	-471
त्म	-472
▁ऐसे	-473
▁बे	-474
▁भारतीय	-475
▁याचिका	-476
वं	-477
▁प्रश	-478
ूम	-479
▁व्या	-480
र्ट	-481
▁दु	-482
र्त	-483
चित	-484
ड़े	-485
▁मूल	-486
▁पूर्व	-487
वाद	-488
▁उत्त	-489
श्च	-490
▁विकास	-491
▁दूस	-492
ां	-493
▁मुख	-494
▁काम	-495
र्व	-496
▁सकते	-497
▁आधार	-498
▁विचार	-499
▁अस	-500
▁विशेष	-501
िता	-502
ष्ठ	-503
▁सिंह	-504
द्योग	-505
▁यदि	-506
माण	-507
▁क्या	-508
▁राष्ट्रपति	-509
▁अधिकार	-510
▁जान	-511
▁पै	-512
▁0	-513
▁एवं	-514
▁निय	-515
▁ग्र	-516
्स	-517
▁ता	-518
▁उच्च	-519
मे	-520
ोर	-521
▁नी	-522
ोजना	-523
्यू	-524
श्यक	-525
▁धारा	-526
धा	-527
▁क्र	-528
दार	-529
▁अपील	-530
▁परिव	-531
▁बारे	-532
▁ऐसा	-533
िंग	-534
▁उनकी	-535
▁आवश्यक	-536
त्व	-537
▁आर	-538
ख्या	-539
▁ई	-540
ंट	-541
▁स्था	-542
▁ओर	-543
ाली	-544
तिक	-545
िये	-546
ूर	-547
कृत	-548
▁समझ	-549
▁क्यों	-550
मी	-551
धी	-552
▁पार	-553
्ड	-554
क्रम	-555
▁हू	-556
▁मृत	-557
▁केवल	-558
▁सम्	-559
वाह	-560
ार्थ	-561
रिक	-562
▁सेवा	-563
▁निक	-564
मार	-565
▁वै	-566
ंस	-567
▁बढ़	-568
▁रु	-569
▁जाती	-570
▁भाग	-571
लू	-572
वर्	-573
सर	-574
▁अब	-575
ुद्ध	-576
टा	-577
यी	-578
▁स्त	-579
▁लोगों	-580
क्षण	-581
▁ऐसी	-582
ास्त	-583
▁अल	-584
षण	-585
▁मन	-586
▁हुई	-587
लों	-588
झे	-589
▁शिक्ष	-590
▁ठ	-591
▁पास	-592
▁एस	-593
▁फिर	-594
पर	-595
▁दिन	-596
▁सद	-597
▁हमारे	-598
▁जाना	-599
शन	-600
▁ये	-601
▁बीच	-602
▁जैसे	-603
▁नियम	-604
▁जीवन	-605
न्त	-606
▁बार	-607
धन	-608
चा	-609
▁स्प	-610
▁कृ	-611
िन्न	-612
▁सो	-613
▁जिसमें	-614
ियां	-615
▁लगा	-616
▁उपयोग	-617
▁याचिकाकर्ता	-618
दे	-619
ेक	-620
हाय	-621
पित	-622
▁अनुसार	-623
हित	-624
वादी	-625
लिए	-626
▁मौ	-627
▁तु	-628
कृ	-629
▁रही	-630
▁तहत	-631
ाइ	-632
▁व्यव	-633
कारी	-634
▁देने	-635
▁प्रदान	-636
▁आरो	-637
तर	-638
द्र	-639
ची	-640
▁निर्धार	-641
▁होते	-642
▁सहाय	-643
षा	-644
▁दि	-645
्यालय	-646
▁मुझे	-647
▁पक्ष	-648
▁इसलिए	-649
▁अधीन	-650
▁उत्तर	-651
बर	-652
प्र	-653
ताओं	-654
▁पीड	-655
ेत	-656
ोजन	-657
क्रिया	-658
▁कंप	-659
▁चल	-660
▁लिया	-661
▁आदेश	-662
▁जिन	-663
्न	-664
▁पुर	-665
▁दा	-666
निक	-667
▁स्ट	-668
यन	-669
▁उत्पा	-670
टना	-671
▁क्योंकि	-672
ंभ	-673
ाला	-674
▁दृ	-675
▁प्रयोग	-676
▁खा	-677
बी	-678
हार	-679
▁पत्र	-680
▁दोनों	-681
▁मो	-682
ल्प	-683
्यान	-684
एस	-685
▁ऑ	-686
ंबर	-687
स्ट	-688
▁स्थान	-689
▁उसकी	-690
▁जहां	-691
मु	-692
▁ढ	-693
▁राम	-694
ब्द	-695
युक्त	-696
▁झ	-697
फल	-698
▁कै	-699
र्क	-700
▁अथ	-701
भाग	-702
र्ड	-703
ंज	-704
▁प्रत्य	-705
▁अपना	-706
▁कान	-707
ेज	-708
दर्श	-709
▁पीडब्	-710
▁वाली	-711
▁पहु	-712
ज्ञान	-713
▁बो	-714
▁हा	-715
▁हों	-716
▁प्रक्रिया	-717
ूत	-718
▁बता	-719
▁इसे	-720
▁बै	-721
▁विभ	-722
▁प्रभाव	-723
▁सकती	-724
▁संबंधित	-725
टर	-726
▁स्वी	-727
▁भूम	-728
▁लोक	-729
▁पद	-730
तम	-731
त्ति	-732
णी	-733
▁हर	-734
▁न्याय	-735
▁उसने	-736
▁पर्	-737
िस्ट	-738
▁प्रस्त	-739
णय	-740
लब्	-741
तः	-742
▁सदस	-743
▁अथवा	-744
▁अर्	-745
▁संप	-746
▁दौर	-747
▁बैं	-748
▁तब	-749
▁शाम	-750
त्ता	-751
▁योजना	-752
ंद्र	-753
त्मक	-754
हाँ	-755
रों	-756
मिक	-757
ामी	-758
▁उपलब्	-759
ुक	-760
भव	-761
▁शुर	-762
▁सामान	-763
▁आगे	-764
▁बद	-765
▁पुन	-766
वेश	-767
ेट	-768
▁गो	-769
फ़	-770
▁मुख्य	-771
▁होना	-772
▁करती	-773
पन	-774
्वर	-775
ोर्ट	-776
▁योग	-777
▁खु	-778
▁निर्णय	-779
▁महत्व	-780
▁राष्ट्रीय	-781
डी	-782
ित्र	-783
▁सर्व	-784
▁पीडब्लू	-785
▁स्पष्ट	-786
▁अति	-787
ेद	-788
▁तै	-789
▁गा	-790
▁व्यक्त	-791
दाय	-792
▁स्थिति	-793
▁करे	-794
क्ट	-795
व्य	-796
▁शिक्षा	-797
त्रा	-798
▁आई	-799
▁अलग	-800
▁%	-801
▁सुर	-802
ोड़	-803
▁सूचना	-804
▁उद्	-805
▁उठ	-806
गम	-807
द्योगिक	-808
▁दौरान	-809
ेम	-810
▁अर्थ	-811
▁व्याप	-812
▁सके	-813
▁सबसे	-814
▁अच्छ	-815
काश	-816
▁संख्या	-817
ित्व	-818
▁पश्च	-819
▁विष	-820
▁उपलब्ध	-821
▁प्रस्तुत	-822
▁वित	-823
▁स्वा	-824
पाल	-825
नीय	-826
▁जु	-827
िल्	-828
न्द्र	-829
▁बच्च	-830
▁अभिय	-831
शा	-832
चे	-833
▁s	-834
▁लिख	-835
ेड	-836
▁प्रण	-837
आर	-838
▁मै	-839
▁शामिल	-840
▁“	-841
▁ब्र	-842
▁वास्त	-843
▁वृ	-844
▁फ़	-845
▁हमें	-846
▁छोट	-847
▁कुमार	-848
ुग	-849
पुर	-850
कृति	-851
काल	-852
िज	-853
ष्टि	-854
▁हूं	-855
ंजी	-856
▁जाते	-857
▁कभी	-858
▁अंग	-859
वरण	-860
▁जाएगा	-861
▁घर	-862
जे	-863
▁विभिन्न	-864
▁माध्य	-865
ात	-866
तंत्र	-867
▁जर	-868
▁जारी	-869
वान	-870
ण्ड	-871
▁शक्ति	-872
त्या	-873
हन	-874
▁कई	-875
▁जांच	-876
आई	-877
▁शब्द	-878
▁वस्त	-879
स्थित	-880
▁बु	-881
▁पुल	-882
▁अध्य	-883
ंतु	-884
▁सहायता	-885
स्प	-886
▁अंतर	-887
▁सामान्य	-888
▁उल्	-889
▁प्रस	-890
▁दूसरे	-891
▁सुन	-892
ायत	-893
ेय	-894
▁जिसे	-895
स्थान	-896
▁तीन	-897
▁विषय	-898
▁अगर	-899
▁तैय	-900
्यु	-901
▁रिप	-902
▁आज	-903
मत	-904
शि	-905
वास	-906
▁ऋ	-907
▁विन	-908
▁उसका	-909
▁पहुंच	-910
▁विधि	-911
▁ज्ञ	-912
▁संग	-913
▁वास्तव	-914
फी	-915
ासन	-916
र्ज	-917
▁फै	-918
णा	-919
▁उनका	-920
▁आवे	-921
▁ध्यान	-922
▁स्वीकार	-923
▁पता	-924
▁मंत्र	-925
▁अधिकारी	-926
▁मध्य	-927
▁जिसके	-928
▁भाषा	-929
▁लाभ	-930
▁महा	-931
शो	-932
▁आदि	-933
इट	-934
▁निर्धारित	-935
▁संघ	-936
▁पुलिस	-937
▁अपीलकर्ता	-938
्टी	-939
▁रिपोर्ट	-940
▁वी	-941
▁दर	-942
मुख	-943
ारों	-944
ाई	-945
▁नंबर	-946
▁लिये	-947
▁सिद्ध	-948
▁इसका	-949
▁पूर्ण	-950
प्	-951
गू	-952
▁निर्माण	-953
▁उद	-954
▁डी	-955
ेशन	-956
र्ष	-957
▁शुरू	-958
▁जल	-959
जू	-960
▁अं	-961
▁खंड	-962
▁हाल	-963
▁अवसर	-964
▁डॉ	-965
▁जिला	-966
▁यहां	-967
▁वाला	-968
▁कल	-969
▁तैयार	-970
धीश	-971
▁रुप	-972
▁बिना	-973
द्यालय	-974
▁मज	-975
▁अपरा	-976
▁बैंक	-977
र्भ	-978
▁माल	-979
ुट	-980
▁निष्	-981
▁जैसा	-982
▁अने	-983
▁विभाग	-984
तन	-985
ेर	-986
लेख	-987
▁लागू	-988
▁शी	-989
▁अद	-990
ांत	-991
ुष	-992
▁कर्म	-993
▁घटना	-994
यं	-995
▁>	-996
▁वकी	-997
वर	-998
ूह	-999
▁अग	-1000
▁दाय	-1001
ोष	-1002
र्तन	-1003
क्षित	-1004
शी	-1005
▁यू	-1006
▁कंपनी	-1007
▁समु	-1008
▁प्रतिवादी	-1009
▁कॉ	-1010
▁बाहर	-1011
▁रो	-1012
क्ष्य	-1013
▁शु	-1014
क्ता	-1015
ालय	-1016
▁सौ	-1017
▁माध्यम	-1018
▁ली	-1019
▁अनेक	-1020
▁संस	-1021
▁पि	-1022
▁पृ	-1023
▁"	-1024
▁&	-1025
ग्रह	-1026
▁प्रया	-1027
▁प्रत्येक	-1028
▁पूरी	-1029
▁वकील	-1030
▁संवि	-1031
▁संस्	-1032
भग	-1033
ाज	-1034
▁दूर	-1035
▁बनाम	-1036
ेंगे	-1037
हरी	-1038
कट	-1039
▁चि	-1040
▁गये	-1041
▁न्यायाधीश	-1042
▁परी	-1043
▁मृतक	-1044
▁आरोपी	-1045
▁लगभग	-1046
▁प्रकाश	-1047
▁डि	-1048
▁समान	-1049
▁धर्म	-1050
्यता	-1051
▁आवश्यकता	-1052
▁बनाने	-1053
▁होगी	-1054
▁परिण	-1055
▁वित्त	-1056
▁विध	-1057
▁समाज	-1058
सल	-1059
▁महत्वपूर्ण	-1060
▁प्रो	-1061
▁संर	-1062
▁उक्त	-1063
▁प्रयास	-1064
▁प्रौ	-1065
मित	-1066
तान	-1067
▁करके	-1068
▁उद्योग	-1069
शत	-1070
वार	-1071
▁नई	-1072
▁मत	-1073
ूट	-1074
वाल	-1075
ोन	-1076
साय	-1077
▁वस्तु	-1078
▁ची	-1079
▁रखा	-1080
▁वर्त	-1081
▁आया	-1082
▁स्तर	-1083
▁संस्था	-1084
▁भूमि	-1085
▁उद्देश	-1086
▁जिन्ह	-1087
▁देता	-1088
र्इ	-1089
ंदर	-1090
नल	-1091
▁कार्यक्रम	-1092
▁प्रय	-1093
▁सीमा	-1094
▁स्क	-1095
▁पर्या	-1096
▁निर	-1097
▁सार	-1098
▁प्रबंध	-1099
▁संस्थान	-1100
न्तु	-1101
▁श्र	-1102
▁एम	-1103
▁इसी	-1104
▁मार्	-1105
▁अनुम	-1106
रोध	-1107
▁लि	-1108
▁बल्	-1109
▁देखा	-1110
▁अपराध	-1111
▁आर्थ	-1112
▁दिखा	-1113
▁विदेश	-1114
▁आपको	-1115
▁अंतर्	-1116
म्ब	-1117
▁पड़	-1118
▁प्रार	-1119
ालन	-1120
▁वर्तमान	-1121
जार	-1122
वाई	-1123
▁प्राधिक	-1124
ठन	-1125
▁तथ	-1126
▁सुप	-1127
▁निर्देश	-1128
▁गै	-1129
द्व	-1130
▁दिए	-1131
▁रोग	-1132
निया	-1133
▁स्थापित	-1134
▁वहां	-1135
▁हमारी	-1136
▁प्रमुख	-1137
▁चौ	-1138
▁एन	-1139
▁आर्थिक	-1140
▁मृत्यु	-1141
▁प्रतिशत	-1142
▁इससे	-1143
▁जनता	-1144
▁ती	-1145
रि	-1146
▁उपबंध	-1147
▁टी	-1148
▁खिला	-1149
▁हेत	-1150
▁विस्त	-1151
ेन	-1152
▁परिणाम	-1153
तों	-1154
▁विद्य	-1155
▁प्रौद्योगिक	-1156
▁भर	-1157
▁भाव	-1158
टक	-1159
▁बैठ	-1160
▁गति	-1161
▁नियंत्र	-1162
▁प्रस्ता	-1163
▁निम्	-1164
स्या	-1165
विद्यालय	-1166
▁देना	-1167
▁‘	-1168
षि	-1169
▁समर्थ	-1170
▁अवधि	-1171
धु	-1172
ंख	-1173
▁अम	-1174
▁इसमें	-1175
▁हेतु	-1176
▁अतिरिक	-1177
श्व	-1178
बन्	-1179
▁ज़	-1180
▁डा	-1181
▁स्वयं	-1182
िष्ट	-1183
▁पूरा	-1184
▁मामलों	-1185
▁मार	-1186
▁शा	-1187
▁शिकायत	-1188
ष्ण	-1189
▁#	-1190
▁प्रस्ताव	-1191
मता	-1192
▁मी	-1193
▁आस	-1194
▁इत	-1195
हरा	-1196
▁ट्र	-1197
▁सभा	-1198
▁हाथ	-1199
▁विश्वास	-1200
▁संद	-1201
▁मेरे	-1202
▁कानून	-1203
ोड	-1204
हास	-1205
▁नीति	-1206
▁राशि	-1207
रूप	-1208
▁क्षेत्रों	-1209
▁अन्त	-1210
▁स्वतंत्र	-1211
म्प	-1212
▁दर्श	-1213
▁समाप्त	-1214
▁आवेदन	-1215
दिष्ट	-1216
▁तुम	-1217
▁उत्पाद	-1218
ाया	-1219
▁लेख	-1220
▁जग	-1221
▁समस्या	-1222
▁अतिरिक्त	-1223
▁अदाल	-1224
विधा	-1225
▁मद	-1226
▁तरी	-1227
▁”	-1228
▁मांग	-1229
द्धि	-1230
क्षि	-1231
▁समिति	-1232
▁विश्वविद्यालय	-1233
धारा	-1234
▁जानकारी	-1235
▁हिंद	-1236
▁मूल्य	-1237
▁सूची	-1238
▁रिक	-1239
▁काफी	-1240
▁छोड़	-1241
▁संशो	-1242
▁सदस्य	-1243
ाजिक	-1244
▁ज्ञान	-1245
▁साल	-1246
▁श्रे	-1247
ियो	-1248
▁भवन	-1249
▁केंद्र	-1250
▁आम	-1251
ियन	-1252
▁विर	-1253
इन	-1254
ाइल	-1255
▁गयी	-1256
▁गुण	-1257
▁सामाजिक	-1258
▁प्रमाण	-1259
▁गण	-1260
यान	-1261
▁सच	-1262
▁आपके	-1263
र्स	-1264
▁मानव	-1265
▁उसी	-1266
▁समूह	-1267
▁सामने	-1268
▁त्र	-1269
▁स्थित	-1270
▁संविधान	-1271
▁व्यक्तियों	-1272
▁सम्म	-1273
▁रखने	-1274
▁सुधार	-1275
▁वर्ग	-1276
स्व	-1277
िश्च	-1278
राज	-1279
बद्ध	-1280
पि	-1281
चन	-1282
▁रे	-1283
▁उद्देश्य	-1284
▁यु	-1285
▁माना	-1286
▁धन	-1287
▁ऋण	-1288
थम	-1289
▁दर्ज	-1290
▁प्रणाली	-1291
▁कवि	-1292
ंगा	-1293
▁अर	-1294
तिहास	-1295
▁मैंने	-1296
▁शरी	-1297
एँ	-1298
पन्न	-1299
▁बड़ी	-1300
▁चिक	-1301
▁प्रौद्योगिकी	-1302
वधान	-1303
▁व्यवस्था	-1304
तियों	-1305
▁कठ	-1306
▁चार	-1307
न्म	-1308
क्स	-1309
▁कुल	-1310
▁सुरक्षा	-1311
▁सीखा	-1312
▁चला	-1313
चान	-1314
जों	-1315
▁देते	-1316
शील	-1317
▁अदालत	-1318
▁खिलाफ	-1319
पना	-1320
▁पुस्त	-1321
ीक	-1322
▁अपे	-1323
जर	-1324
जूद	-1325
िल्ली	-1326
▁कोश	-1327
▁आयोग	-1328
▁कृषि	-1329
▁सही	-1330
▁कौ	-1331
▁ऊपर	-1332
▁लेने	-1333
▁बल	-1334
▁किस	-1335
▁सुविधा	-1336
▁जिससे	-1337
▁पिता	-1338
▁जिसका	-1339
▁सहयोग	-1340
▁बाल	-1341
▁रंग	-1342
्यादा	-1343
▁उल्लेख	-1344
▁एक्स	-1345
ोषण	-1346
▁संदर्भ	-1347
▁डे	-1348
▁उत्पादन	-1349
्ले	-1350
ाव	-1351
▁पिछ	-1352
र्य	-1353
▁व्यापार	-1354
▁सफल	-1355
▁प्रदेश	-1356
▁बदल	-1357
▁हूँ	-1358
िक्ष	-1359
▁नीचे	-1360
▁क्रिया	-1361
▁विशिष्ट	-1362
▁अभी	-1363
वाही	-1364
▁आन	-1365
▁महिला	-1366
सू	-1367
▁इसकी	-1368
्रो	-1369
ेंट	-1370
▁शै	-1371
ग्री	-1372
बल	-1373
▁पेश	-1374
▁राय	-1375
▁प्रदर्श	-1376
लो	-1377
▁i	-1378
▁विज्ञान	-1379
▁हिस्	-1380
दारी	-1381
▁बल्कि	-1382
▁याद	-1383
▁बताया	-1384
▁शरीर	-1385
ट्ट	-1386
▁मंद	-1387
▁सै	-1388
▁ठीक	-1389
विध	-1390
▁अत्य	-1391
▁सर्	-1392
▁अला	-1393
▁अमे	-1394
▁गिर	-1395
▁आरोप	-1396
यर	-1397
ूरी	-1398
▁बड़े	-1399
▁चिकित	-1400
▁परिय	-1401
धारण	-1402
▁भुग	-1403
▁पढ़	-1404
▁थीं	-1405
तिम	-1406
▁देशों	-1407
▁परियोजना	-1408
स्तान	-1409
▁भीतर	-1410
▁गवाह	-1411
▁चुन	-1412
▁वाप	-1413
ान्त	-1414
धित	-1415
▁परिवर्तन	-1416
वक	-1417
िखित	-1418
▁आने	-1419
▁उचित	-1420
▁भुगतान	-1421
भार	-1422
ोह	-1423
▁जमा	-1424
निर्	-1425
ीकरण	-1426
▁निश्च	-1427
स्थ्य	-1428
▁लाल	-1429
▁पत्	-1430
▁प्रश्न	-1431
नाथ	-1432
च्छेद	-1433
ोजित	-1434
▁सरकारी	-1435
कर्ष	-1436
भर	-1437
पत्र	-1438
▁प्रथम	-1439
ॉल	-1440
▁समक्ष	-1441
▁दुर्	-1442
▁!	-1443
▁लंब	-1444
▁दूसरी	-1445
▁डाल	-1446
सित	-1447
ेप	-1448
▁पाठ	-1449
▁कहते	-1450
▁संपत्ति	-1451
ुस	-1452
वासी	-1453
वृ	-1454
▁जबकि	-1455
▁अंतर्गत	-1456
▁संयुक्त	-1457
स्थिति	-1458
पट	-1459
▁जाये	-1460
▁कोर्ट	-1461
▁मेरी	-1462
▁चाहते	-1463
▁स्वास्थ्य	-1464
▁संबंधी	-1465
▁प्रती	-1466
एम	-1467
▁सर्वो	-1468
▁अभि	-1469
▁अलावा	-1470
▁गल	-1471
लाह	-1472
▁क्षमता	-1473
▁दिल्ली	-1474
▁पं	-1475
▁<	-1476
▁अंग्रे	-1477
▁उपधारा	-1478
▁पश्चिम	-1479
▁विप	-1480
▁अप्र	-1481
▁यहाँ	-1482
▁विवाद	-1483
कल	-1484
▁संत	-1485
▁पंच	-1486
ाहरण	-1487
▁नव	-1488
▁परिवार	-1489
▁काल	-1490
कृतिक	-1491
▁संच	-1492
▁करेगा	-1493
ंधी	-1494
दम	-1495
▁निदेश	-1496
▁मार्ग	-1497
▁जीव	-1498
क़	-1499
▁खोज	-1500
टन	-1501
▁अंतिम	-1502
▁वर्ण	-1503
▁उदाहरण	-1504
ुओं	-1505
▁यात्रा	-1506
▁अह	-1507
▁बस	-1508
▁अर्था	-1509
▁वर्षों	-1510
▁बंद	-1511
ूर्ति	-1512
त्मा	-1513
▁मिला	-1514
▁सार्व	-1515
▁अग्र	-1516
▁पीछ	-1517
▁दंड	-1518
यों	-1519
▁महान	-1520
▁वेब	-1521
▁अधिव	-1522
ण्	-1523
ष्ट्रीय	-1524
जरा	-1525
ंधान	-1526
▁प्रधान	-1527
▁अनुमति	-1528
▁भू	-1529
ेंस	-1530
▁दस्ता	-1531
कु	-1532
▁पानी	-1533
▁ज्यादा	-1534
ँच	-1535
र्जी	-1536
▁पारित	-1537
▁तौर	-1538
बार	-1539
▁दृष्टि	-1540
▁जे	-1541
▁दक्षि	-1542
▁निर्धारण	-1543
▁बयान	-1544
▁युद्ध	-1545
▁मिश	-1546
▁रोक	-1547
▁बंग	-1548
▁रहने	-1549
क्षम	-1550
▁जरूर	-1551
▁अनुभव	-1552
▁होंगे	-1553
▁निवेश	-1554
▁प्रकृति	-1555
▁सदस्यों	-1556
▁साहित	-1557
▁अनुच्छेद	-1558
▁छा	-1559
डा	-1560
▁छोटे	-1561
▁देव	-1562
▁मंदिर	-1563
▁सिद्धांत	-1564
▁चा	-1565
▁अनुसंधान	-1566
▁आधारित	-1567
▁उससे	-1568
िशा	-1569
▁बोर्ड	-1570
▁प्रशिक्ष	-1571
ारण	-1572
िश्चित	-1573
▁बर	-1574
ौती	-1575
ंश	-1576
▁पो	-1577
▁पाया	-1578
▁आरंभ	-1579
्यास	-1580
▁नियमों	-1581
▁दस्तावे	-1582
▁बच्चों	-1583
वरी	-1584
▁साहित्य	-1585
▁कार्यालय	-1586
▁बनाया	-1587
▁पैदा	-1588
▁दिव	-1589
म्म	-1590
▁विवरण	-1591
▁लड़	-1592
▁परंतु	-1593
नाव	-1594
ंतर	-1595
▁आश	-1596
▁सुप्रा	-1597
▁राजनी	-1598
▁प्रारंभ	-1599
ंडल	-1600
▁लाख	-1601
▁करेंगे	-1602
ॉर्ड	-1603
▁प्रेम	-1604
▁नियंत्रण	-1605
▁विदेशी	-1606
ानों	-1607
ूं	-1608
▁कला	-1609
▁नागर	-1610
दों	-1611
▁पे	-1612
्रम	-1613
▁संभव	-1614
ार्ड	-1615
▁समर्थन	-1616
रल	-1617
▁पहचान	-1618
▁तारी	-1619
▁बनाए	-1620
▁कमी	-1621
▁नोट	-1622
▁प्रतिनि	-1623
्रेस	-1624
म्ह	-1625
▁इंड	-1626
▁भेज	-1627
▁रचना	-1628
ोस	-1629
▁बहु	-1630
▁बड़ा	-1631
▁उत्पन्न	-1632
▁विवाह	-1633
▁खुल	-1634
▁मदद	-1635
▁नए	-1636
गार	-1637
▁तत्	-1638
ेंद्र	-1639
▁स्थापना	-1640
▁प्रवेश	-1641
बाद	-1642
▁सहित	-1643
▁लगता	-1644
▁देवी	-1645
▁तथ्य	-1646
▁फैस	-1647
▁संशोधन	-1648
▁वित्तीय	-1649
▁रज	-1650
▁रहते	-1651
दित	-1652
▁जन्म	-1653
चल	-1654
▁ताकि	-1655
▁तर्क	-1656
ष्य	-1657
िले	-1658
▁कोर्इ	-1659
जित	-1660
तार	-1661
▁सम्बन्	-1662
▁तारीख	-1663
यां	-1664
▁इतिहास	-1665
बू	-1666
ीर	-1667
शल	-1668
▁विस्तार	-1669
ल्क	-1670
▁वादी	-1671
▁गां	-1672
▁बच	-1673
▁हमने	-1674
▁टे	-1675
▁विकसित	-1676
▁यही	-1677
▁स्कूल	-1678
▁आत्म	-1679
▁वृद्धि	-1680
▁संभाव	-1681
▁सीख	-1682
र्जा	-1683
▁परन्तु	-1684
कद	-1685
क्षर	-1686
▁समझौ	-1687
▁कैसे	-1688
र्फ	-1689
▁अभियोजन	-1690
▁मामला	-1691
▁तुम्ह	-1692
टे	-1693
▁पहली	-1694
▁क्ल	-1695
▁हित	-1696
▁इस्ल	-1697
▁लेकर	-1698
▁खरी	-1699
▁पूछ	-1700
▁बिल	-1701
▁पर्याप्त	-1702
▁गांधी	-1703
▁प्रावधान	-1704
▁सामग्री	-1705
▁नही	-1706
ांकि	-1707
▁कांग	-1708
▁संसा	-1709
▁नागरिक	-1710
▁रू	-1711
▁अध्यक्ष	-1712
▁हालांकि	-1713
कता	-1714
एल	-1715
▁बाजार	-1716
▁चे	-1717
र्च	-1718
▁ऑफ	-1719
▁भूमिका	-1720
▁अध्ययन	-1721
▁नौ	-1722
▁पृष्ठ	-1723
▁गैर	-1724
र्द	-1725
यात	-1726
▁कर्	-1727
▁मात्रा	-1728
▁जवा	-1729
▁राजा	-1730
▁चिकित्	-1731
▁विधान	-1732
▁प्रतिक	-1733
▁दिशा	-1734
ंसा	-1735
जनिक	-1736
▁वरि	-1737
▁वापस	-1738
▁अध्या	-1739
ंकन	-1740
▁जम	-1741
धिकार	-1742
▁अपेक्षा	-1743
▁मि	-1744
मन	-1745
▁प्रग	-1746
धे	-1747
▁अच्छी	-1748
▁तकनी	-1749
▁इस्त	-1750
्ष्	-1751
स्कार	-1752
▁सार्वजनिक	-1753
▁विंड	-1754
▁प्रबंधन	-1755
▁दावा	-1756
श्छ	-1757
▁शीर्ष	-1758
▁सत	-1759
र्चा	-1760
▁तुल	-1761
ैंड	-1762
▁श्रेणी	-1763
▁संदेश	-1764
▁जगह	-1765
▁आद	-1766
▁गुर	-1767
▁बरा	-1768
▁साह	-1769
▁नगर	-1770
▁ऊण्	-1771
श्छ्ष्	-1772
▁ऊण्श्छ्ष्	-1773
ध्या	-1774
▁कार्यवाही	-1775
प्ता	-1776
क्ष्म	-1777
क्टर	-1778
▁दायर	-1779
▁वरिष्ठ	-1780
▁राज्यों	-1781
▁हिन्द	-1782
▁वाय	-1783
सं	-1784
जय	-1785
▁भावना	-1786
▁ते	-1787
ताल	-1788
▁लेखा	-1789
ोप	-1790
▁केंद	-1791
▁कानू	-1792
▁मंत्रालय	-1793
▁कथ	-1794
▁परीक्षा	-1795
▁वास्तविक	-1796
▁उच्चतम	-1797
▁बाहरी	-1798
कल्प	-1799
▁चित्र	-1800
▁स्वतंत्रता	-1801
श्म	-1802
▁फिल	-1803
ानीय	-1804
वीं	-1805
▁पौ	-1806
▁बढ़ा	-1807
▁वार	-1808
▁एफ	-1809
▁किये	-1810
▁शासन	-1811
▁पुनः	-1812
नांक	-1813
▁अस्प	-1814
▁भाई	-1815
▁दिनों	-1816
▁सुनिश्चित	-1817
▁सलाह	-1818
▁हस्ता	-1819
▁किंतु	-1820
▁अच्छा	-1821
▁प्रभावित	-1822
▁पीछे	-1823
▁स्थानीय	-1824
▁रि	-1825
▁जोड़	-1826
मती	-1827
▁सहायक	-1828
▁संसद	-1829
▁संगठन	-1830
गल	-1831
▁जाएगी	-1832
▁दोष	-1833
भीर	-1834
भाष	-1835
कान	-1836
भूत	-1837
ार्थी	-1838
सि	-1839
▁जाय	-1840
साइट	-1841
▁भिन्न	-1842
▁तंत्र	-1843
▁एल	-1844
▁न्यायिक	-1845
▁मही	-1846
▁पुरस्कार	-1847
▁बच्चे	-1848
▁केंद्रीय	-1849
▁शहर	-1850
▁गांव	-1851
र्ग	-1852
▁पंजी	-1853
ियाँ	-1854
्वी	-1855
▁ग्राम	-1856
▁दृष्ट	-1857
र्मा	-1858
▁दक्षिण	-1859
▁रहता	-1860
▁अभियुक्त	-1861
थमिक	-1862
▁प्रगति	-1863
▁आत	-1864
श्वर	-1865
▁व्यवहार	-1866
▁निर्दिष्ट	-1867
भू	-1868
बे	-1869
सत	-1870
▁भग	-1871
▁विनिर्	-1872
▁सक्षम	-1873
ल्ड	-1874
▁प्राथमिक	-1875
▁दिनांक	-1876
▁साक्ष्य	-1877
▁परिष	-1878
▁सत्य	-1879
िवार	-1880
▁ब्रिट	-1881
ियर	-1882
▁लौ	-1883
▁होकर	-1884
▁खेल	-1885
▁प्रे	-1886
ामीण	-1887
▁सत्ता	-1888
▁प्रशिक्षण	-1889
▁उठा	-1890
▁ग्रामीण	-1891
▁योग्य	-1892
▁केन्द्र	-1893
▁अधिवक्ता	-1894
▁उनमें	-1895
▁दुनिया	-1896
▁कप	-1897
▁पिछले	-1898
▁बीमा	-1899
सन	-1900
▁उसमें	-1901
ुआ	-1902
रिका	-1903
▁व्यापक	-1904
▁सोच	-1905
िक्री	-1906
▁कांग्रेस	-1907
▁विभा	-1908
▁लगाया	-1909
▁तरीके	-1910
ज्ञानिक	-1911
्टर	-1912
त्त्व	-1913
▁उत्तरदा	-1914
कम	-1915
ुप	-1916
ज्ञा	-1917
▁निकाल	-1918
▁रिकॉर्ड	-1919
▁आयु	-1920
▁पुत्र	-1921
बो	-1922
▁मुद्	-1923
ंथ	-1924
▁रोज	-1925
▁जिन्हें	-1926
धुनिक	-1927
▁आए	-1928
िको	-1929
▁कित	-1930
▁लगे	-1931
ैन	-1932
त्सा	-1933
▁दिख	-1934
▁पालन	-1935
साद	-1936
▁पत्नी	-1937
च्छा	-1938
▁बराबर	-1939
▁उपाय	-1940
▁गं	-1941
▁लिखा	-1942
▁भे	-1943
▁धी	-1944
▁पांच	-1945
▁अमेरिका	-1946
▁अफ	-1947
▁शब्दों	-1948
स्क	-1949
ात्	-1950
▁मुसल	-1951
▁लक्ष्य	-1952
ड़ों	-1953
ैतिक	-1954
्रिय	-1955
▁सेना	-1956
▁सम्मान	-1957
▁चिकित्सा	-1958
▁कट	-1959
नलिखित	-1960
▁उपकरण	-1961
मारी	-1962
ज्	-1963
▁अधिकारियों	-1964
फ्त	-1965
ग्	-1966
क्षेप	-1967
▁औद्योगिक	-1968
▁आकार	-1969
▁निश्चित	-1970
स्वर	-1971
दय	-1972
ेमाल	-1973
▁अनुसू	-1974
▁जाति	-1975
▁भवि	-1976
▁निम्नलिखित	-1977
▁उद्य	-1978
▁पुस्तक	-1979
▁मुसलमान	-1980
सम	-1981
▁सर्वोच्च	-1982
्यूटर	-1983
▁वेबसाइट	-1984
▁]	-1985
▁संके	-1986
▁इस्तेमाल	-1987
▁मनुष	-1988
▁निर्भर	-1989
▁परिस्थित	-1990
▁दिल	-1991
डे	-1992
ल्यू	-1993
इस	-1994
▁निगम	-1995
▁जरूरत	-1996
ंटर	-1997
▁आधुनिक	-1998
▁भविष्य	-1999
▁निजी	-2000
▁नियुक्त	-2001
▁आयोजित	-2002
ायल	-2003
▁पूंजी	-2004
▁शर्त	-2005
▁विरुद्ध	-2006
▁दल	-2007
▁निकल	-2008
कुल	-2009
▁मौजूद	-2010
ीप	-2011
▁कहीं	-2012
फार	-2013
▁मिले	-2014
▁[	-2015
▁आतंक	-2016
ोषणा	-2017
▁गलत	-2018
▁पूरे	-2019
▁प्रभा	-2020
▁सन्	-2021
▁जिन्होंने	-2022
▁सिव	-2023
यल	-2024
▁प्राय	-2025
er	-2026
द्रा	-2027
क्षक	-2028
घु	-2029
पात	-2030
▁रजिस्ट	-2031
▁चर्चा	-2032
▁पराम	-2033
▁पट	-2034
फा	-2035
▁नदी	-2036
▁चयन	-2037
▁पाल	-2038
वर्ती	-2039
▁भौ	-2040
ंगे	-2041
▁एच	-2042
▁कार्र	-2043
▁उपस्थित	-2044
▁पुरुष	-2045
ानि	-2046
▁नर	-2047
वस्था	-2048
्यून	-2049
▁मुकद	-2050
▁तीस	-2051
▁विद्व	-2052
्रेट	-2053
▁शाय	-2054
▁चर	-2055
▁प्रकट	-2056
णिज	-2057
▁मश	-2058
क्रमण	-2059
▁खो	-2060
▁सक्रिय	-2061
▁रखते	-2062
ांति	-2063
ीस	-2064
्यिक	-2065
मंत्र	-2066
▁उल्ल	-2067
▁बचा	-2068
▁पदार्थ	-2069
पे	-2070
स्ल	-2071
▁ढंग	-2072
▁रक्षा	-2073
▁चाहिये	-2074
शु	-2075
▁परामर्श	-2076
▁@	-2077
▁गंभीर	-2078
सिक	-2079
▁मित्र	-2080
▁ति	-2081
्ला	-2082
▁यून	-2083
▁गी	-2084
▁करोड़	-2085
▁चोट	-2086
्यो	-2087
▁नया	-2088
▁प्रकाशित	-2089
▁बज	-2090
▁चाहे	-2091
▁कोशिश	-2092
▁इस्लाम	-2093
ठी	-2094
▁ऊर्जा	-2095
▁रिट	-2096
▁निर्वा	-2097
▁सिविल	-2098
▁रेल	-2099
▁वाणिज	-2100
▁वन	-2101
दक	-2102
ैल	-2103
▁सुझ	-2104
फारिश	-2105
न्व	-2106
▁सां	-2107
▁निर्यात	-2108
▁मुखर्जी	-2109
▁धार	-2110
स्ति	-2111
▁शायद	-2112
▁लिम	-2113
▁जिनमें	-2114
▁श्रीमती	-2115
्राम	-2116
ेयर	-2117
▁खुद	-2118
ड़क	-2119
▁सिफारिश	-2120
▁देती	-2121
▁प्रद	-2122
र्ण	-2123
▁यथा	-2124
▁प्रोत्सा	-2125
▁राजनीतिक	-2126
खी	-2127
पूर्वक	-2128
▁री	-2129
चारी	-2130
मो	-2131
▁जहाँ	-2132
▁बेहत	-2133
▁फल	-2134
▁साब	-2135
ंघ	-2136
▁मेरा	-2137
▁इला	-2138
▁शर्मा	-2139
▁पद्ध	-2140
▁हमारा	-2141
▁शक्त	-2142
▁वैज्ञानिक	-2143
ेशा	-2144
▁जिसने	-2145
▁क्रम	-2146
▁सेवाओं	-2147
▁सुना	-2148
▁चाल	-2149
▁नेट	-2150
▁मोट	-2151
▁वही	-2152
▁चाहता	-2153
▁अर्थात्	-2154
लाई	-2155
▁रक्त	-2156
▁यद्य	-2157
▁कानूनी	-2158
्प	-2159
ल्ल	-2160
▁करा	-2161
▁अभिव	-2162
चर	-2163
▁इतना	-2164
▁पृथ	-2165
▁पक	-2166
▁मास	-2167
▁घोषणा	-2168
▁दश	-2169
▁मर	-2170
म्भ	-2171
ोलन	-2172
▁वो	-2173
▁यद्यपि	-2174
▁संरचना	-2175
on	-2176
▁संय	-2177
▁रखना	-2178
▁महारा	-2179
▁केन्द	-2180
▁अंक	-2181
▁लिमिट	-2182
िकोण	-2183
▁निष्पा	-2184
▁मॉ	-2185
▁देखने	-2186
▁दिखाई	-2187
▁पश्चात्	-2188
▁कार्रवाई	-2189
ृह	-2190
डियो	-2191
▁देखते	-2192
स्वरूप	-2193
▁सेट	-2194
▁शांति	-2195
▁परीक्षण	-2196
▁मुक्त	-2197
▁निपट	-2198
▁बंगाल	-2199
▁न्यायालयों	-2200
▁चुनाव	-2201
मेंट	-2202
ोक्ता	-2203
▁बने	-2204
▁कदम	-2205
▁उद्यम	-2206
▁समाधान	-2207
कीय	-2208
▁थो	-2209
▁लिमिटेड	-2210
▁क़	-2211
▁संपर्क	-2212
▁असम	-2213
▁फाइल	-2214
▁घोष	-2215
▁हिस्सा	-2216
▁बजे	-2217
▁दें	-2218
▁संरक्षण	-2219
तु	-2220
ुसार	-2221
▁जैसी	-2222
न्दी	-2223
▁दूसरा	-2224
▁बुद्ध	-2225
▁अवस्था	-2226
म्बर	-2227
▁हमेशा	-2228
▁संभावना	-2229
फ्ट	-2230
▁मोह	-2231
▁अधि	-2232
▁स्म	-2233
▁निम्न	-2234
▁मंत्री	-2235
▁माननीय	-2236
▁व्यवसाय	-2237
▁शिव	-2238
▁सीमित	-2239
▁मनुष्य	-2240
▁तत्व	-2241
्वेष	-2242
▁जित	-2243
▁अनिवार	-2244
▁तेल	-2245
▁उनसे	-2246
▁जिसकी	-2247
▁बोल	-2248
राधिक	-2249
▁साधारण	-2250
▁सफलता	-2251
▁बढ	-2252
▁लागत	-2253
▁शुल्क	-2254
▁ब्या	-2255
▁वहाँ	-2256
▁प्रतिनिध	-2257
▁साबित	-2258
▁परिस	-2259
▁अश	-2260
▁संह	-2261
▁हल	-2262
▁बिक्री	-2263
▁विल	-2264
▁ईश्वर	-2265
▁समुदाय	-2266
▁उत	-2267
संद	-2268
▁मुद्रा	-2269
▁सृ	-2270
▁चुका	-2271
▁संकेत	-2272
▁तय	-2273
▁तुलना	-2274
▁विरोध	-2275
▁परिस्थितियों	-2276
▁जवाब	-2277
▁एज	-2278
ँव	-2279
▁नम	-2280
▁इनमें	-2281
▁चै	-2282
▁मंज	-2283
म्मी	-2284
▁सिर्फ	-2285
▁सचिव	-2286
▁पर्य	-2287
▁अधिकां	-2288
▁पार्टी	-2289
धनों	-2290
▁उपन	-2291
▁पैरा	-2292
▁प्राधिकरण	-2293
▁संहिता	-2294
▁हे	-2295
चीन	-2296
▁युवा	-2297
▁संग्रह	-2298
इल	-2299
खंड	-2300
▁खरीद	-2301
ुक्ति	-2302
▁आत्मा	-2303
▁प्रशासन	-2304
▁मजब	-2305
▁व्यक्तिगत	-2306
ार्मिक	-2307
ठित	-2308
▁रकम	-2309
▁छोटी	-2310
पीसी	-2311
द्द	-2312
▁इका	-2313
▁कम्प	-2314
▁धार्मिक	-2315
▁प्राकृतिक	-2316
ल्पना	-2317
▁अनिवार्य	-2318
▁याचिकाकर्ताओं	-2319
▁वाह	-2320
▁स्टेशन	-2321
▁संदे	-2322
▁प्ल	-2323
▁एड	-2324
▁बेहतर	-2325
ंगल	-2326
म्मे	-2327
▁योगदान	-2328
▁मशीन	-2329
शिया	-2330
▁युग	-2331
ुन	-2332
कालीन	-2333
▁सवाल	-2334
▁प्रभावी	-2335
▁धीरे	-2336
▁कंप्यूटर	-2337
▁निर्धारिती	-2338
▁स्थायी	-2339
▁निदेशक	-2340
▁अधिकांश	-2341
▁शि	-2342
▁पड़ा	-2343
▁रुपये	-2344
हीन	-2345
एफ	-2346
मंत्री	-2347
▁मूल्या	-2348
▁प्रदर्शन	-2349
भाल	-2350
▁वेतन	-2351
▁कविता	-2352
एन	-2353
▁अस्त	-2354
ंगत	-2355
वै	-2356
an	-2357
▁संकल्प	-2358
▁यूरो	-2359
▁विशाल	-2360
▁हस्ताक्षर	-2361
ंदा	-2362
▁मिली	-2363
▁शाखा	-2364
▁व्याख्या	-2365
▁अस्पताल	-2366
▁दृष्टिकोण	-2367
तया	-2368
▁प्रसाद	-2369
▁आयुक्त	-2370
▁आता	-2371
ंगी	-2372
▁खर्च	-2373
▁केन्द्रीय	-2374
▁मिट	-2375
▁उपयुक्त	-2376
▁आंद	-2377
▁पति	-2378
▁सुझाव	-2379
▁ढा	-2380
▁शो	-2381
▁पर्यावरण	-2382
वर्क	-2383
▁हत्या	-2384
ार्क	-2385
▁संगी	-2386
राष्ट्रीय	-2387
▁अंग्रेजी	-2388
▁फैसले	-2389
ाये	-2390
पक	-2391
▁निधि	-2392
▁भगवान	-2393
ृति	-2394
▁ऊंच	-2395
▁हृ	-2396
▁रहती	-2397
▁किरा	-2398
ठा	-2399
वत्ता	-2400
▁स्रो	-2401
▁त्रुट	-2402
▁आशा	-2403
▁जोर	-2404
लेज	-2405
्रेड	-2406
▁जानी	-2407
▁दशा	-2408
▁प्रणब	-2409
नेट	-2410
िब	-2411
▁सिर	-2412
▁डेटा	-2413
भूति	-2414
▁उम्मी	-2415
▁ब्रिटिश	-2416
▁जिनके	-2417
▁बाव	-2418
न्दर	-2419
िकल	-2420
▁इं	-2421
▁भागी	-2422
▁दस	-2423
▁सीआर	-2424
चि	-2425
▁सबूत	-2426
▁ब्याज	-2427
▁गुणवत्ता	-2428
ारोह	-2429
▁सारे	-2430
▁लॉ	-2431
▁तम	-2432
धीन	-2433
▁पद्धति	-2434
▁ग्रह	-2435
▁वायु	-2436
▁लो	-2437
▁खाते	-2438
ग्न	-2439
▁ख़	-2440
▁लघु	-2441
▁पंजा	-2442
▁दायित्व	-2443
▁कृष्ण	-2444
गढ़	-2445
▁किन्तु	-2446
▁हस्त	-2447
घा	-2448
गु	-2449
▁संस्कृत	-2450
▁सकेगा	-2451
▁हिन्दी	-2452
▁परिषद	-2453
ूक	-2454
वर्ष	-2455
▁अधिस	-2456
न्स	-2457
▁लगी	-2458
▁भोजन	-2459
▁नियमित	-2460
िना	-2461
▁पेट	-2462
तक	-2463
▁रात	-2464
▁मिलता	-2465
मल	-2466
▁समारोह	-2467
▁स्वामी	-2468
▁सकें	-2469
▁उपचार	-2470
▁विविध	-2471
▁निष्कर्ष	-2472
िस्ट्रेट	-2473
▁उम	-2474
▁उपभ	-2475
▁मार्च	-2476
▁संस्कृति	-2477
रीय	-2478
श्री	-2479
▁उम्मीद	-2480
यण	-2481
▁सुरक्षित	-2482
▁पीएस	-2483
▁बैठक	-2484
▁महीने	-2485
▁अभिव्य	-2486
ेलन	-2487
▁जल्	-2488
▁विकल्प	-2489
▁कब्	-2490
▁नियुक्ति	-2491
▁सम्मिल	-2492
▁सत्र	-2493
जनक	-2494
▁अंदर	-2495
▁लेना	-2496
त्तर	-2497
लाव	-2498
▁आग	-2499
▁भरो	-2500
▁भारी	-2501
चक	-2502
किंग	-2503
▁कहना	-2504
▁प्रशास	-2505
▁करनी	-2506
▁विचारों	-2507
▁पीड़	-2508
ड्ड	-2509
भाई	-2510
▁अहम	-2511
▁समझा	-2512
पु	-2513
वेयर	-2514
▁खोल	-2515
▁माता	-2516
▁संस्थानों	-2517
चारियों	-2518
▁प्रवृ	-2519
▁कर्मचारी	-2520
ायी	-2521
▁विनियम	-2522
र्न	-2523
▁भंड	-2524
ाक	-2525
▁जमीन	-2526
कारों	-2527
इयों	-2528
स्लिम	-2529
▁अधिसू	-2530
▁फर	-2531
त्री	-2532
▁छात्र	-2533
▁मजिस्ट्रेट	-2534
▁खुलती	-2535
लाल	-2536
▁रेड	-2537
▁आपकी	-2538
क्षी	-2539
▁मूल्यांकन	-2540
डिया	-2541
▁निकट	-2542
▁विधेय	-2543
रीत	-2544
▁कार्यों	-2545
▁दिवस	-2546
▁नेटवर्क	-2547
▁मुस्लिम	-2548
▁सजा	-2549
िनी	-2550
ti	-2551
▁चरण	-2552
▁संघर्ष	-2553
▁तरफ	-2554
स्य	-2555
▁जिम्मे	-2556
▁मल	-2557
▁कर्मचारियों	-2558
▁विंडों	-2559
ूँ	-2560
▁शास्त	-2561
▁कहानी	-2562
किल	-2563
▁चुनौती	-2564
टों	-2565
ल्स	-2566
▁अत्यंत	-2567
डर	-2568
▁बधा	-2569
▁शता	-2570
▁व्याव	-2571
▁विपरीत	-2572
▁आते	-2573
▁नेता	-2574
▁तकनीकी	-2575
▁खास	-2576
▁संसाधन	-2577
▁पहल	-2578
▁चलता	-2579
राज्य	-2580
ंव	-2581
▁विफल	-2582
िटी	-2583
▁इच्छा	-2584
ोग्राम	-2585
ंबई	-2586
▁लिखित	-2587
▁बधाई	-2588
▁शेष	-2589
▁महत्त्व	-2590
▁दौ	-2591
▁हैः	-2592
▁कीमत	-2593
▁आंदोलन	-2594
ंति	-2595
ंकर	-2596
▁ग्राह	-2597
▁प्राचीन	-2598
▁शास	-2599
▁एससी	-2600
▁पाने	-2601
▁पंचायत	-2602
▁बिज	-2603
▁अप्रैल	-2604
टल	-2605
दंड	-2606
▁सित	-2607
▁हटा	-2608
▁जानते	-2609
▁संगीत	-2610
▁न्यू	-2611
▁बावजूद	-2612
दृ	-2613
▁ध्व	-2614
▁अधिकारों	-2615
ष्ठा	-2616
▁वर्णन	-2617
▁मध्यस्थ	-2618
भाषा	-2619
▁गतिविध	-2620
र्प	-2621
न्ट	-2622
▁आकर्ष	-2623
ायक	-2624
▁अवि	-2625
▁घट	-2626
▁इजरा	-2627
▁बौ	-2628
▁सम्मिलित	-2629
▁परिप	-2630
▁गरी	-2631
00	-2632
▁दास	-2633
▁आदर्श	-2634
▁लेते	-2635
▁पड़े	-2636
▁स्वरूप	-2637
▁प्रयोजन	-2638
▁उत्तरदाताओं	-2639
▁कल्या	-2640
▁C	-2641
▁पहला	-2642
▁निवासी	-2643
▁पर्व	-2644
▁निहित	-2645
ंता	-2646
श्	-2647
en	-2648
▁इंज	-2649
▁वाणिज्यिक	-2650
▁ईसा	-2651
्षिक	-2652
▁चीज	-2653
▁सम्बन्ध	-2654
▁प्रत्यक्ष	-2655
▁अतः	-2656
▁ब्रह	-2657
थि	-2658
्रिया	-2659
▁तुर	-2660
▁इंडिया	-2661
▁अच्छे	-2662
▁भरोसा	-2663
▁प्रयोज	-2664
▁टै	-2665
▁फ़ाइल	-2666
▁अर्थव्य	-2667
▁परिवर्त	-2668
▁अना	-2669
केट	-2670
▁S	-2671
ार्थियों	-2672
▁मां	-2673
▁क्षति	-2674
त्न	-2675
▁नये	-2676
▁जरूरी	-2677
▁पड़ता	-2678
▁लगाने	-2679
▁–	-2680
ह्न	-2681
▁विवे	-2682
देव	-2683
घ्र	-2684
िक्	-2685
▁एंड	-2686
▁अंश	-2687
▁प्रसन्न	-2688
ूंकि	-2689
धर	-2690
ंपरा	-2691
▁दबा	-2692
शाली	-2693
▁हट	-2694
▁कर्त	-2695
▁चूंकि	-2696
▁विस्तृत	-2697
▁आपराधिक	-2698
▁व्यय	-2699
ब्दी	-2700
▁भौतिक	-2701
▁आनंद	-2702
▁A	-2703
▁सश	-2704
▁इंग	-2705
▁त्रुटि	-2706
लीय	-2707
▁इंटर	-2708
▁खाता	-2709
▁अध्याय	-2710
▁प्रतिनिधित्व	-2711
गो	-2712
ून्य	-2713
पालिका	-2714
वाय	-2715
▁छोटा	-2716
▁लाने	-2717
▁बनाना	-2718
▁संचार	-2719
▁खाद्य	-2720
▁खान	-2721
बत	-2722
▁शाह	-2723
▁कठिन	-2724
▁पात्र	-2725
▁अनुमान	-2726
▁आदमी	-2727
ंगिक	-2728
▁सुश्री	-2729
▁बंध	-2730
▁सात	-2731
▁सका	-2732
▁चंद्र	-2733
▁नारा	-2734
▁मंडल	-2735
न्ना	-2736
रिया	-2737
▁बें	-2738
▁परंपरा	-2739
▁प्रतीत	-2740
▁संपूर्ण	-2741
▁सामना	-2742
▁हिन्दू	-2743
▁कृत	-2744
▁परिच	-2745
खिल	-2746
▁अगले	-2747
▁अक	-2748
▁खत	-2749
▁गिरफ्त	-2750
ितीय	-2751
▁घोषित	-2752
▁कल्याण	-2753
▁चुके	-2754
शाला	-2755
लब	-2756
▁मात्र	-2757
रत	-2758
▁गाँव	-2759
▁कौन	-2760
▁अंतरराष्ट्रीय	-2761
▁I	-2762
▁समृ	-2763
▁निर्मित	-2764
▁सदन	-2765
▁हास	-2766
▁विजय	-2767
▁प्राण	-2768
▁जून	-2769
▁जैन	-2770
▁रखे	-2771
▁रोजगार	-2772
▁विधेयक	-2773
▁विनिर्दिष्ट	-2774
▁अनुक	-2775
▁उपबंधों	-2776
▁राजन	-2777
▁होनी	-2778
▁दस्तावेज	-2779
ृत्व	-2780
धानिक	-2781
▁अनुरोध	-2782
▁मिलने	-2783
▁दर्शन	-2784
ar	-2785
बि	-2786
▁तथापि	-2787
कला	-2788
मात्र	-2789
▁अली	-2790
्रीम	-2791
ष्ट्र	-2792
▁कोशिका	-2793
▁शुभ	-2794
▁प्रव	-2795
▁अर्थव्यवस्था	-2796
▁क्षेत्रीय	-2797
सूस	-2798
स्ती	-2799
▁यादव	-2800
▁मान्यता	-2801
▁तथ्यों	-2802
ंडे	-2803
दाता	-2804
▁हृदय	-2805
काम	-2806
▁उपरो	-2807
▁क्रा	-2808
दिक	-2809
सभा	-2810
▁एशिया	-2811
▁शेयर	-2812
▁पीठ	-2813
▁उन्न	-2814
▁मानसिक	-2815
नो	-2816
ार्म	-2817
इड	-2818
▁विश्ले	-2819
in	-2820
▁मालिक	-2821
▁समाचार	-2822
▁पश्चिमी	-2823
▁सम्मेलन	-2824
▁खे	-2825
▁स्थल	-2826
▁ब्ल	-2827
▁वस्तुओं	-2828
▁मजबूत	-2829
▁महिलाओं	-2830
वेदन	-2831
राब	-2832
न्त्र	-2833
▁गर्इ	-2834
▁प्रसि	-2835
▁भेजा	-2836
▁ii	-2837
▁टिप	-2838
▁निरी	-2839
▁वार्षिक	-2840
राह	-2841
▁आतंकवाद	-2842
▁कार्यान	-2843
न्हीं	-2844
टिल	-2845
▁इन्ह	-2846
▁नाटक	-2847
दर	-2848
▁रखी	-2849
▁कृप	-2850
▁प्रेर	-2851
▁विरो	-2852
लिक	-2853
▁सीखे	-2854
्वेषण	-2855
▁अपीलार्थी	-2856
▁करी	-2857
▁उपरोक्त	-2858
स्म	-2859
▁तेजी	-2860
▁हिंदू	-2861
▁शून्य	-2862
▁सरल	-2863
तृत्व	-2864
सान	-2865
▁गुजरा	-2866
▁शिकायतकर्ता	-2867
▁कार्यान्व	-2868
▁अपीलकर्ताओं	-2869
▁गठन	-2870
▁बनी	-2871
्राष्ट्रीय	-2872
ख़	-2873
▁रहना	-2874
▁प्राधिकारी	-2875
▁महसूस	-2876
▁ताल	-2877
मक	-2878
▁प्रभ	-2879
र्ती	-2880
व्र	-2881
ंका	-2882
▁आवा	-2883
▁नोटिस	-2884
राव	-2885
▁मनो	-2886
▁सम्प	-2887
▁पाए	-2888
▁प्रयोजनों	-2889
ंटी	-2890
▁d	-2891
द्दी	-2892
▁पीड़ित	-2893
▁रेखा	-2894
▁गुना	-2895
▁प्राप्ति	-2896
▁जय	-2897
▁वाता	-2898
▁कल्पना	-2899
मति	-2900
▁द्वार	-2901
ालित	-2902
▁किन	-2903
▁सुंदर	-2904
▁हथ	-2905
▁बढ़ाने	-2906
सु	-2907
▁लौट	-2908
▁घंट	-2909
▁अनुमो	-2910
यत	-2911
ियार	-2912
▁अल्प	-2913
▁अभिप	-2914
ॉक	-2915
▁पाकि	-2916
▁शुद्ध	-2917
▁अरब	-2918
▁दृश्य	-2919
हरे	-2920
म्मद	-2921
▁पहा	-2922
▁माह	-2923
▁उत्तरदाय	-2924
▁निर्वाचन	-2925
▁निरंतर	-2926
▁समझौते	-2927
▁स्रोत	-2928
▁आंक	-2929
▁अनुप्र	-2930
▁आपका	-2931
▁शीघ्र	-2932
▁कृपया	-2933
▁बॉ	-2934
▁बिजली	-2935
▁खार	-2936
▁परम	-2937
▁अत्यधिक	-2938
णु	-2939
▁कथा	-2940
▁चेत	-2941
▁हिम	-2942
▁प्रावधानों	-2943
▁शताब्दी	-2944
▁समी	-2945
▁पसंद	-2946
▁परिणामस्वरूप	-2947
वाला	-2948
ंडा	-2949
▁सच्च	-2950
्वा	-2951
▁सफ	-2952
▁आयात	-2953
रित	-2954
▁शे	-2955
▁जनवरी	-2956
▁समुद्र	-2957
डल	-2958
▁c	-2959
▁भ्र	-2960
▁आती	-2961
▁उपस्थिति	-2962
▁हक	-2963
▁माँ	-2964
▁सिस्ट	-2965
▁कराने	-2966
▁सांस्	-2967
▁हिस्से	-2968
▁वातावरण	-2969
▁महाम	-2970
▁ढांच	-2971
वेक्षण	-2972
▁पेज	-2973
▁गि	-2974
▁सुब	-2975
▁इतनी	-2976
▁विद्यमान	-2977
ष्क	-2978
▁गर्	-2979
▁इजरायल	-2980
▁लेन	-2981
▁उल	-2982
▁वर	-2983
ंडी	-2984
कृष्ट	-2985
प्ताह	-2986
▁असफल	-2987
▁बौद्ध	-2988
▁गृह	-2989
▁पोस्ट	-2990
▁पाठ्य	-2991
नु	-2992
▁सूक्ष्म	-2993
▁आंत	-2994
▁अनुप	-2995
▁गुरु	-2996
▁ग्रहण	-2997
▁उपन्यास	-2998
ेश्वर	-2999
▁मानते	-3000
▁नक	-3001
▁इत्या	-3002
▁चंद	-3003
▁टिप्प	-3004
रान	-3005
▁स्पष्टीकरण	-3006
▁प्रतिक्रिया	-3007
▁अवै	-3008
▁भाषण	-3009
सों	-3010
▁नामक	-3011
▁समझौता	-3012
▁अस्तित्व	-3013
ज्य	-3014
▁काव्य	-3015
▁आल	-3016
▁उपा	-3017
or	-3018
▁त्या	-3019
ामा	-3020
▁वाद	-3021
▁प्रार्थ	-3022
▁अनुसूचित	-3023
ैक	-3024
▁प्रधानमंत्री	-3025
रेट	-3026
पीठ	-3027
▁निवास	-3028
▁कथित	-3029
▁प्रजा	-3030
लग्न	-3031
▁विमान	-3032
▁सॉ	-3033
▁लेखक	-3034
▁सीधे	-3035
▁पुनर्	-3036
▁गौ	-3037
▁प्रार्थना	-3038
▁प्रदर्शित	-3039
▁दिये	-3040
भूम	-3041
▁दै	-3042
▁जेल	-3043
▁प्रवि	-3044
चार्य	-3045
▁पंजाब	-3046
▁समस्याओं	-3047
वों	-3048
ासा	-3049
▁अनुवाद	-3050
▁कंपन	-3051
▁नवान	-3052
▁प्रयासों	-3053
▁नं	-3054
▁पूर्वो	-3055
▁घा	-3056
▁बिहार	-3057
▁सांस्कृतिक	-3058
▁मू	-3059
▁खारिज	-3060
▁अन्तर्	-3061
▁a	-3062
▁संदेह	-3063
▁नेतृत्व	-3064
▁फूल	-3065
▁निकाय	-3066
▁प्रभार	-3067
▁विद्युत	-3068
▁स्थाना	-3069
उस	-3070
▁डाक	-3071
गीय	-3072
▁नजर	-3073
ेंशन	-3074
श्मीर	-3075
▁चले	-3076
▁एकल	-3077
▁उत्स	-3078
▁शक्तियों	-3079
▁द्र	-3080
▁विद्वान	-3081
शय	-3082
▁जाँच	-3083
आईआर	-3084
वाले	-3085
वत	-3086
▁अभिया	-3087
▁संचालन	-3088
▁विशेषज्ञ	-3089
▁अगस्त	-3090
▁चिह्न	-3091
द्या	-3092
▁तेज	-3093
▁राजस्व	-3094
दास	-3095
क्ट्र	-3096
▁पीओ	-3097
▁साम्रा	-3098
ज़ा	-3099
▁गवाहों	-3100
▁समन्व	-3101
उट	-3102
▁इरा	-3103
▁हिंदी	-3104
▁टन	-3105
▁तट	-3106
वें	-3107
▁लै	-3108
चरण	-3109
▁रद्द	-3110
▁प्रसिद्ध	-3111
▁आँ	-3112
नाएं	-3113
वीय	-3114
▁आये	-3115
▁मेल	-3116
मूर्ति	-3117
▁दिस	-3118
दारों	-3119
▁गहरा	-3120
▁दावे	-3121
▁शैली	-3122
▁न्यून	-3123
▁अधिकतम	-3124
▁देखभाल	-3125
दूर	-3126
▁वितरण	-3127
▁इंजीन	-3128
▁प्रचार	-3129
▁सुख	-3130
▁अवैध	-3131
▁वैश्व	-3132
▁छह	-3133
▁आपूर्ति	-3134
ज़ी	-3135
▁वज	-3136
▁जिनका	-3137
▁मुसलमानों	-3138
लि	-3139
ारात्मक	-3140
▁लक्षण	-3141
▁पुराने	-3142
क्शन	-3143
▁पाकिस्तान	-3144
▁मई	-3145
▁गणराज्य	-3146
▁काउ	-3147
राम	-3148
▁सड़क	-3149
▁कलक	-3150
प्रिय	-3151
▁युक्त	-3152
जीव	-3153
मय	-3154
▁इनके	-3155
▁बनाई	-3156
▁छोड़कर	-3157
▁सर्वा	-3158
▁गतिविधियों	-3159
▁बाई	-3160
ब्ल्यू	-3161
▁अनुकूल	-3162
▁टा	-3163
ज्ञात	-3164
▁गंगा	-3165
्ति	-3166
▁सारी	-3167
भूमि	-3168
▁फाय	-3169
▁कोल	-3170
लाइन	-3171
▁साफ	-3172
▁इत्यादि	-3173
▁पूजा	-3174
▁प्रायः	-3175
▁संस्करण	-3176
▁संस्थाओं	-3177
▁स्थानों	-3178
▁आकर्षित	-3179
▁सिस्टम	-3180
▁मिलती	-3181
▁सत्या	-3182
▁सूट	-3183
▁कटौती	-3184
▁फिल्म	-3185
▁तभी	-3186
▁शारी	-3187
▁टाइ	-3188
फे	-3189
विक	-3190
संगत	-3191
र्घ	-3192
▁लाया	-3193
▁करार	-3194
परी	-3195
▁उम्र	-3196
▁छूट	-3197
▁अधिकरण	-3198
▁तुम्हें	-3199
ूष	-3200
ूबर	-3201
▁फॉ	-3202
▁जल्दी	-3203
▁प्रेरित	-3204
▁योग्यता	-3205
▁प्रशासनिक	-3206
▁प्रोग्राम	-3207
रक	-3208
्राफ	-3209
▁साझ	-3210
▁घरे	-3211
▁मना	-3212
▁श्व	-3213
▁बिंद	-3214
▁पथ	-3215
ड़ाई	-3216
▁हानि	-3217
▁नाग	-3218
▁मधु	-3219
▁आपने	-3220
▁हमला	-3221
▁सूचित	-3222
देन	-3223
es	-3224
कत	-3225
▁बेच	-3226
ियत	-3227
वादियों	-3228
ृंख	-3229
▁सहकारी	-3230
ानु	-3231
▁अफ्री	-3232
▁यानी	-3233
▁तमिल	-3234
ियल	-3235
त्मिक	-3236
▁अभिव्यक्ति	-3237
▁पत्त	-3238
▁फसल	-3239
▁इकाई	-3240
▁न्यायाधीशों	-3241
▁शुभकाम	-3242
▁अर्थात	-3243
ंजन	-3244
▁अमरी	-3245
्रय	-3246
▁कॉलेज	-3247
▁शारीरिक	-3248
▁बातों	-3249
▁बचाव	-3250
▁इले	-3251
▁बढ़ावा	-3252
▁मंच	-3253
▁अधिसूचना	-3254
बाइल	-3255
▁मुंबई	-3256
▁लगातार	-3257
▁प्रयुक्त	-3258
▁अभिन	-3259
▁विश्लेषण	-3260
▁पकड़	-3261
▁p	-3262
▁बैंकों	-3263
चारिक	-3264
▁घरेलू	-3265
▁सप्ताह	-3266
कलन	-3267
▁गुप्ता	-3268
▁आजा	-3269
▁वालों	-3270
▁धो	-3271
▁आध्या	-3272
▁लोकतंत्र	-3273
चित्र	-3274
▁श्रम	-3275
पान	-3276
▁मतलब	-3277
▁पंजीकरण	-3278
तल	-3279
िर्	-3280
रासत	-3281
▁साधन	-3282
▁सभ	-3283
▁अब्द	-3284
नाम	-3285
▁कठोर	-3286
ंघन	-3287
▁अल्	-3288
▁एका	-3289
▁सुभाष	-3290
पों	-3291
▁चक्र	-3292
▁कठिना	-3293
▁भागों	-3294
▁समस्त	-3295
▁बुद्धि	-3296
▁एकमात्र	-3297
दरा	-3298
िकी	-3299
डु	-3300
करी	-3301
al	-3302
ोम	-3303
▁जनरल	-3304
▁दर्शा	-3305
▁शिश	-3306
▁विषयों	-3307
▁कुंजी	-3308
▁मिश्र	-3309
िड	-3310
कालिक	-3311
शास्त	-3312
▁प्रारंभिक	-3313
दु	-3314
▁कारणों	-3315
▁नेहर	-3316
▁हजार	-3317
▁विभाजन	-3318
▁रुपए	-3319
▁देखें	-3320
▁मिलकर	-3321
▁लक्ष्म	-3322
दीय	-3323
▁जोख	-3324
▁ठहरा	-3325
▁दूरी	-3326
▁काट	-3327
▁कारबार	-3328
▁P	-3329
▁उड़	-3330
▁बुनिया	-3331
▁अमेरिक	-3332
▁अनुप्रयोग	-3333
▁महत्त्वपूर्ण	-3334
▁तरीका	-3335
▁जिले	-3336
▁न्यूनतम	-3337
▁नुक	-3338
▁टेली	-3339
▁नष्ट	-3340
▁बेंच	-3341
▁चेतना	-3342
▁तीव्र	-3343
▁मौसम	-3344
▁फोन	-3345
▁शुरुआ	-3346
ियोग	-3347
ृंखला	-3348
▁आक्रमण	-3349
ेंसी	-3350
▁वजह	-3351
▁खुशी	-3352
▁अंतरण	-3353
▁इन्हें	-3354
स्ते	-3355
्यार	-3356
▁कुशल	-3357
बन	-3358
तिहासिक	-3359
▁सुप्रीम	-3360
ताब	-3361
▁संगण	-3362
▁अनुरूप	-3363
▁जायेगा	-3364
▁अभिक	-3365
▁मानक	-3366
▁प्रमाणपत्र	-3367
क्षेत्र	-3368
▁अके	-3369
▁सुनवाई	-3370
▁विद्यार्थियों	-3371
▁दोषी	-3372
चीत	-3373
िन्	-3374
▁चुकी	-3375
▁तुरंत	-3376
▁रखता	-3377
▁नारायण	-3378
क्षिक	-3379
▁सूर्	-3380
▁पहुँच	-3381
▁स्वागत	-3382
▁छि	-3383
▁राव	-3384
▁राजनैतिक	-3385
▁संगठ	-3386
▁हासिल	-3387
▁करेगी	-3388
▁अंतर्राष्ट्रीय	-3389
▁यूरोप	-3390
▁शुभकामनाएं	-3391
ढ़ी	-3392
▁जोखिम	-3393
▁सेवाएं	-3394
▁आध्यात्मिक	-3395
नाटक	-3396
▁अनुपात	-3397
▁बातचीत	-3398
▁अपेक्षित	-3399
गण	-3400
▁तल	-3401
▁शर्तों	-3402
▁नमू	-3403
▁गर्म	-3404
▁प्रका	-3405
▁परिवहन	-3406
▁बाह	-3407
▁प्ले	-3408
न्य	-3409
शनल	-3410
▁आठ	-3411
▁भु	-3412
▁वीर	-3413
▁हवा	-3414
▁कलकत्ता	-3415
▁जुड़े	-3416
▁ग्रंथ	-3417
▁आह	-3418
▁अभिले	-3419
▁त्याग	-3420
▁नैतिक	-3421
▁कोड	-3422
▁प्रसार	-3423
▁केरल	-3424
▁एकत्र	-3425
▁पंजीकृत	-3426
▁उनको	-3427
▁जटिल	-3428
▁संवर्	-3429
ैया	-3430
▁सहमति	-3431
▁वीडियो	-3432
▁प्रसन्नता	-3433
चलित	-3434
▁मिशन	-3435
▁सैनिक	-3436
▁रोगी	-3437
▁बाग	-3438
▁सुनी	-3439
▁मुकदमा	-3440
▁कार्यक्रमों	-3441
▁लेता	-3442
▁अस्थ	-3443
३०	-3444
िक्स	-3445
▁ब्रा	-3446
▁अन्यथा	-3447
▁चारों	-3448
▁दीर्घ	-3449
▁श्रेणीः	-3450
▁समीक्षा	-3451
▁उत्कृष्ट	-3452
िद	-3453
▁आग्रह	-3454
▁बर्	-3455
▁सुबह	-3456
पालन	-3457
▁उल्लंघन	-3458
ॉन	-3459
▁प्रोत्साहन	-3460
▁अक्	-3461
▁मोबाइल	-3462
▁कर्नाटक	-3463
वाली	-3464
ासंगिक	-3465
▁मुकदमे	-3466
▁प्रकाशन	-3467
▁ड्रा	-3468
▁पुष्टि	-3469
▁t	-3470
▁संबंधों	-3471
ेंड	-3472
▁स्मृति	-3473
▁मगर	-3474
संख्या	-3475
▁आंतरिक	-3476
हिम	-3477
▁जहा	-3478
▁पूर्वी	-3479
▁फरवरी	-3480
▁वर्मा	-3481
म्स	-3482
▁प्रच	-3483
▁रिश	-3484
▁अनुश	-3485
यम	-3486
▁आवेदक	-3487
त्तम	-3488
त्कार	-3489
▁कौशल	-3490
▁विरोधी	-3491
▁बनने	-3492
▁सहमत	-3493
▁अभाव	-3494
ुस्तान	-3495
▁कार्ड	-3496
▁गुजरात	-3497
▁वैध	-3498
▁ऐतिहासिक	-3499
▁दवा	-3500
▁पृथ्वी	-3501
▁जनजा	-3502
▁देय	-3503
▁पशु	-3504
▁पट्ट	-3505
▁बजाय	-3506
▁उपयोगी	-3507
▁उद्ध	-3508
▁अधिकारिता	-3509
▁बेटी	-3510
फ्टवेयर	-3511
एच	-3512
ार्ज	-3513
▁चीन	-3514
▁कर्तव्य	-3515
▁प्रोट	-3516
▁लें	-3517
▁मीटर	-3518
▁जुलाई	-3519
▁बेटे	-3520
▁मस्ति	-3521
▁महाराष्ट्र	-3522
वेद	-3523
्रीन	-3524
▁काग	-3525
▁स्थिर	-3526
▁पहुंचा	-3527
▁बुला	-3528
▁औष	-3529
▁बू	-3530
▁सुल	-3531
▁लाइस	-3532
▁निष्पादन	-3533
▁नेहरू	-3534
▁अभिलेख	-3535
▁संसाधनों	-3536
रणा	-3537
ूर्ण	-3538
▁बदलाव	-3539
▁बाध्य	-3540
▁सर्वेक्षण	-3541
▁संबद्ध	-3542
▁ऑन	-3543
▁निरा	-3544
▁हस्तक्षेप	-3545
▁खी	-3546
▁मिस	-3547
▁नागरिकों	-3548
▁करीब	-3549
▁चीज़	-3550
▁न्यायमूर्ति	-3551
१०	-3552
नात्मक	-3553
▁सावधान	-3554
णों	-3555
▁b	-3556
▁झा	-3557
जूदा	-3558
▁ज़र	-3559
▁साइ	-3560
▁औसत	-3561
▁परेश	-3562
▁जनसंख्या	-3563
खे	-3564
▁कूट	-3565
ूंगा	-3566
▁गाय	-3567
सायिक	-3568
▁बाबत	-3569
▁बीमारी	-3570
▁रस	-3571
म्मू	-3572
▁ट्रायल	-3573
▁मौजूदा	-3574
▁नील	-3575
ुण	-3576
ोने	-3577
▁अवश्य	-3578
▁कमज	-3579
▁मिन	-3580
▁प्रवाह	-3581
ल्ला	-3582
▁इनकार	-3583
दर्शन	-3584
▁जम्मू	-3585
ॉप	-3586
▁रेलवे	-3587
▁प्रतीक	-3588
▁पाठ्यक्रम	-3589
▁गौर	-3590
्रांस	-3591
ोकन	-3592
ष्णु	-3593
▁इलेक्ट्र	-3594
पास	-3595
▁मंड	-3596
▁स्त्री	-3597
▁सरकारों	-3598
ेह	-3599
▁बातें	-3600
▁कश्मीर	-3601
ंध्र	-3602
▁वैश्विक	-3603
▁तह	-3604
▁भूल	-3605
▁नुकसान	-3606
▁केस	-3607
▁आचरण	-3608
▁परिश	-3609
▁बिल्	-3610
▁स्वच्छ	-3611
थी	-3612
ौल	-3613
▁स्ना	-3614
▁लगाए	-3615
▁टीम	-3616
्टे	-3617
▁स्की	-3618
कर्ताओं	-3619
▁स्वर	-3620
साधारण	-3621
पचारिक	-3622
ूब	-3623
▁महामहिम	-3624
▁संसार	-3625
ंतरित	-3626
िकेट	-3627
▁अक्ष	-3628
▁गुप्त	-3629
▁लोकप्रिय	-3630
▁जमान	-3631
▁साम्राज्य	-3632
▁दस्तावेजों	-3633
▁राहत	-3634
स्त्र	-3635
▁विद्यालय	-3636
स्पर	-3637
▁आलो	-3638
▁अहमद	-3639
▁ठाक	-3640
भाषित	-3641
▁जाएं	-3642
जीत	-3643
▁नाट	-3644
▁अनुदान	-3645
▁देगा	-3646
▁विशेषता	-3647
पीय	-3648
मंडल	-3649
▁दूध	-3650
▁उत्पादों	-3651
▁बुनियादी	-3652
▁आसान	-3653
▁प्रासंगिक	-3654
▁सारा	-3655
▁प्रस्तावित	-3656
्लो	-3657
▁आंख	-3658
▁कथन	-3659
▁अस्वी	-3660
▁प्रतिनिधि	-3661
▁एकता	-3662
▁सौंप	-3663
▁द्वीप	-3664
▁कारा	-3665
▁हकदार	-3666
▁शीर्षक	-3667
▁समाप्ति	-3668
▁बीज	-3669
▁पत्थ	-3670
▁रोकने	-3671
▁गैस	-3672
▁संशोधित	-3673
धों	-3674
▁पुरा	-3675
▁द्वितीय	-3676
र्या	-3677
▁बहा	-3678
▁भर्ती	-3679
▁भागीदारी	-3680
▁लाइसेंस	-3681
▁उद्योगों	-3682
▁विशेषकर	-3683
ित्त	-3684
▁प्री	-3685
▁अभियान	-3686
▁संलग्न	-3687
ूद	-3688
ंदन	-3689
▁बाबू	-3690
▁संगठनों	-3691
▁त्व	-3692
▁फीस	-3693
▁आश्च	-3694
▁समित	-3695
▁कुमारी	-3696
लर	-3697
▁मीडिया	-3698
▁भले	-3699
धक	-3700
घटना	-3701
▁दृढ़	-3702
▁वैसे	-3703
▁भेद	-3704
▁किलो	-3705
▁देकर	-3706
▁कने	-3707
▁पाई	-3708
▁रवी	-3709
▁तिथि	-3710
ेंद	-3711
नर	-3712
▁अंध	-3713
▁तार	-3714
▁प्रयत्न	-3715
▁किसानों	-3716
▁चलते	-3717
▁संविदा	-3718
▁शंकर	-3719
िपि	-3720
स्थापित	-3721
▁मुह	-3722
▁बिंदु	-3723
ज़र	-3724
▁मौत	-3725
▁स्वाम	-3726
▁पश्चात	-3727
धारी	-3728
ोरी	-3729
▁आश्चर्य	-3730
ंदी	-3731
वित्र	-3732
▁मोहम्मद	-3733
▁सराह	-3734
▁अनुसूची	-3735
▁टिक	-3736
ँचा	-3737
▁तत्काल	-3738
▁00	-3739
्यूट	-3740
▁वाहन	-3741
यें	-3742
सिंह	-3743
▁राज्यपाल	-3744
▁सिद्धांतों	-3745
नन	-3746
▁शुरुआत	-3747
▁ज्यो	-3748
▁दुकान	-3749
▁परस्पर	-3750
पथ	-3751
▁हाला	-3752
▁उत्सा	-3753
▁चिंता	-3754
▁बिल्कुल	-3755
▁तला	-3756
▁सृजन	-3757
▁आरम्भ	-3758
▁सर्वाधिक	-3759
▁इंस	-3760
▁परे	-3761
▁उपभोक्ता	-3762
▁कब्जे	-3763
▁आख	-3764
ैव	-3765
धारित	-3766
▁मस	-3767
▁अनुबंध	-3768
▁मस्तिष्क	-3769
▁आफ	-3770
▁डर	-3771
▁ताप	-3772
▁धारण	-3773
▁रीति	-3774
न्द्रनाथ	-3775
साइ	-3776
▁रण	-3777
▁इतने	-3778
धरी	-3779
▁जाएंगे	-3780
▁अक्सर	-3781
▁एससीसी	-3782
▁कंपनियों	-3783
भारत	-3784
▁ठाकुर	-3785
▁अफ्रीका	-3786
▁माइ	-3787
▁छुट	-3788
▁घंटे	-3789
ुति	-3790
▁आउट	-3791
▁शादी	-3792
ॉँ	-3793
िवी	-3794
▁आमत	-3795
बिर	-3796
▁गार	-3797
▁जानता	-3798
▁विधिक	-3799
▁गोल	-3800
▁आवास	-3801
▁पीडब्ल्यू	-3802
▁चढ़	-3803
▁व्यावसायिक	-3804
गन	-3805
▁आंध्र	-3806
▁मुद्दे	-3807
▁करो	-3808
▁सूर्य	-3809
▁पूर्ववर्ष	-3810
it	-3811
▁आइ	-3812
▁कब	-3813
▁शव	-3814
▁उपक्रम	-3815
▁निरीक्षण	-3816
क्का	-3817
द्दीन	-3818
▁T	-3819
▁पक्षों	-3820
▁प्रतिभा	-3821
ग्ध	-3822
▁दशक	-3823
▁कीट	-3824
▁उठाया	-3825
▁शैक्षिक	-3826
▁पूछा	-3827
▁चलाने	-3828
▁मुद्दों	-3829
▁अमेरिकी	-3830
▁नियंत्रित	-3831
▁लिखी	-3832
ूद्ध	-3833
▁समग्र	-3834
माने	-3835
▁उधार	-3836
▁संकट	-3837
▁सलाहकार	-3838
▁x	-3839
▁आमतौर	-3840
▁निः	-3841
श्त	-3842
▁प्रि	-3843
▁जीवित	-3844
▁विम	-3845
▁अत	-3846
▁इन्	-3847
▁विहित	-3848
▁गिरफ्तार	-3849
▁शहरी	-3850
क्षिप्त	-3851
▁गठित	-3852
मीटर	-3853
▁आशय	-3854
▁मोटर	-3855
▁शत्र	-3856
▁कक्ष	-3857
▁घायल	-3858
▁आनन्द	-3859
▁दुर्घटना	-3860
▁मुश्	-3861
▁आसपास	-3862
▁घु	-3863
▁निवार	-3864
▁v	-3865
▁संसदीय	-3866
▁चरित्र	-3867
▁उठाने	-3868
▁मिट्टी	-3869
▁हिंसा	-3870
▁परिवर्तित	-3871
ग्रहण	-3872
मार्	-3873
ेक्ट	-3874
▁अभिप्रे	-3875
▁गीत	-3876
▁पाते	-3877
फर	-3878
▁अन्दर	-3879
याँ	-3880
▁मछ	-3881
▁जिनकी	-3882
▁सशक्त	-3883
▁मूल्यों	-3884
▁रिया	-3885
▁पहुंचे	-3886
▁राजनीति	-3887
ंचित	-3888
▁खुश	-3889
▁देन	-3890
ैर	-3891
ष्टा	-3892
▁नवीन	-3893
▁वर्षा	-3894
▁नयी	-3895
▁गरीब	-3896
▁निर्णयों	-3897
▁चम	-3898
▁संबो	-3899
घात	-3900
▁फैसला	-3901
▁यंत्र	-3902
▁संतुल	-3903
▁हाथों	-3904
▁ब्राह	-3905
▁सुविधाओं	-3906
▁सितंबर	-3907
▁चौधरी	-3908
▁जमानत	-3909
▁लिखने	-3910
वो	-3911
ोल्ड	-3912
▁तिर	-3913
▁ग्राहक	-3914
▁अकबर	-3915
▁निश	-3916
▁वक्त	-3917
ड़ियों	-3918
le	-3919
ंत्रिक	-3920
▁पूर्वोक्त	-3921
ंतरण	-3922
▁हरि	-3923
▁देखकर	-3924
▁परमाण	-3925
▁सूत्र	-3926
▁नवान्वेषण	-3927
ाब	-3928
▁नियत	-3929
▁लंबे	-3930
▁पढ़ने	-3931
▁L	-3932
▁समुचित	-3933
▁मुश्किल	-3934
▁प्रतिष्ठ	-3935
▁कमरे	-3936
▁डिस्क	-3937
▁असमर्थ	-3938
▁मुखबिर	-3939
▁आयोजन	-3940
▁पवित्र	-3941
▁परियोजनाओं	-3942
▁वहीं	-3943
▁शिक्षक	-3944
▁फैल	-3945
▁घटनाओं	-3946
▁फर्म	-3947
▁आवाज	-3948
▁मोहन	-3949
▁ज्योति	-3950
▁M	-3951
गोल	-3952
तीत	-3953
▁टुक	-3954
िसी	-3955
▁लाइन	-3956
वंश	-3957
▁देर	-3958
▁सदा	-3959
▁m	-3960
वीर	-3961
▁परिसर	-3962
वैधानिक	-3963
▁निपटान	-3964
▁N	-3965
▁धर	-3966
▁अपन	-3967
▁जंग	-3968
▁अन्तर	-3969
▁प्रेरणा	-3970
▁खाना	-3971
नाश	-3972
▁शिख	-3973
▁अग्रिम	-3974
▁संपा	-3975
▁चिकित्स	-3976
▁प्रिय	-3977
त्तियों	-3978
मर	-3979
▁इसने	-3980
ोद	-3981
याल	-3982
▁फा	-3983
ताव	-3984
▁तदन	-3985
▁हवाई	-3986
पय	-3987
▁मैदान	-3988
▁छत्त	-3989
शास्त्र	-3990
▁भाषाओं	-3991
ोजी	-3992
ॉट	-3993
▁सिक्	-3994
▁हार्	-3995
▁यूनिट	-3996
▁सर्वर	-3997
▁दरवा	-3998
▁जाल	-3999
भाग्य	-4000
क्व	-4001
▁झू	-4002
▁रजिस्ट्री	-4003
▁फी	-4004
▁फ़िल	-4005
▁सम्बन्धी	-4006
ंछ	-4007
▁खेती	-4008
re	-4009
▁रखें	-4010
दायिक	-4011
▁जर्म	-4012
▁दिखाया	-4013
▁वें	-4014
▁बुरा	-4015
▁शिकार	-4016
▁श्रृंखला	-4017
▁h	-4018
▁लु	-4019
▁खाने	-4020
▁जाकर	-4021
▁प्रोत्साहित	-4022
▁सांस	-4023
तो	-4024
पत	-4025
द्धा	-4026
भाविक	-4027
▁पूछता	-4028
▁प्रेष	-4029
▁रवि	-4030
▁वसू	-4031
▁खाली	-4032
सीन	-4033
▁डाय	-4034
रु	-4035
▁बाधा	-4036
▁हैदरा	-4037
▁रास्ते	-4038
▁पल	-4039
▁रहेगा	-4040
▁कार्यवाह	-4041
▁खींच	-4042
▁संतोष	-4043
▁वर्णित	-4044
जु	-4045
▁आसानी	-4046
▁उत्तरदायी	-4047
▁हैंः	-4048
लेट	-4049
▁अभिप्रेत	-4050
र्पण	-4051
▁खड़ा	-4052
▁ज्ञात	-4053
▁पेड़	-4054
▁कराया	-4055
▁उत्तरदाता	-4056
▁प्राथमिकता	-4057
वासियों	-4058
▁छात्रों	-4059
at	-4060
वली	-4061
is	-4062
▁खुले	-4063
▁संगम	-4064
▁उत्तरी	-4065
▁स्वीकृति	-4066
कृष्ण	-4067
▁इंग्ल	-4068
ोजक	-4069
▁ब्रह्म	-4070
▁सॉफ्टवेयर	-4071
गाह	-4072
▁D	-4073
▁मुझ	-4074
▁मेड	-4075
▁परिभाषित	-4076
▁पटना	-4077
▁कमजोर	-4078
निष्ठ	-4079
▁अशोक	-4080
▁सरदार	-4081
▁हैदराबाद	-4082
▁प्रत	-4083
▁सागर	-4084
पूर्ति	-4085
▁g	-4086
ंसिल	-4087
▁धारणा	-4088
▁समावेश	-4089
ic	-4090
▁दूसरों	-4091
▁n	-4092
ro	-4093
▁यथ	-4094
▁पंड	-4095
▁सहज	-4096
शीलता	-4097
▁तकनीक	-4098
वती	-4099
▁संतु	-4100
▁जितना	-4101
▁विंडो	-4102
पू	-4103
▁भय	-4104
▁फ्ल	-4105
▁कहने	-4106
▁संक्षिप्त	-4107
खन	-4108
ोबार	-4109
▁अपी	-4110
ूषण	-4111
▁समन्वय	-4112
▁अनुमोदन	-4113
▁सिल	-4114
पुट	-4115
▁प्रतिबंध	-4116
▁प्रतिकूल	-4117
षे	-4118
▁जब्त	-4119
▁दाखिल	-4120
▁कार्यान्वयन	-4121
सीय	-4122
▁कार्	-4123
▁आस्ति	-4124
▁बीमार	-4125
क्षता	-4126
▁ज्ञा	-4127
▁स्तंभ	-4128
▁मानवीय	-4129
णिक	-4130
स्फ	-4131
क्षीय	-4132
▁दबाव	-4133
▁थोड़ा	-4134
▁जीत	-4135
▁बोली	-4136
▁निश्चय	-4137
▁औपचारिक	-4138
▁लक	-4139
▁माप	-4140
▁दैनिक	-4141
तृ	-4142
िरा	-4143
▁अधिकतर	-4144
▁अस्था	-4145
▁साक्षी	-4146
▁वाक	-4147
▁परमाणु	-4148
▁असर	-4149
विंद	-4150
▁कति	-4151
▁चलो	-4152
▁लिखे	-4153
▁कितना	-4154
▁विचारण	-4155
▁प्रचलित	-4156
प्ति	-4157
▁मांस	-4158
्रोल	-4159
▁पैर	-4160
▁सें	-4161
▁डिजा	-4162
▁मौके	-4163
▁डाला	-4164
▁देंगे	-4165
▁लंबित	-4166
▁बाह्य	-4167
▁स्कीम	-4168
▁निकाला	-4169
▁प्रथा	-4170
▁बदले	-4171
विज्ञान	-4172
▁सुसंगत	-4173
▁पार्	-4174
▁वसूली	-4175
▁नै	-4176
णन	-4177
ूस	-4178
▁उपर्	-4179
सनीय	-4180
▁रास्ता	-4181
▁सराहना	-4182
▁महात्मा	-4183
▁पहलू	-4184
▁अका	-4185
▁लेखन	-4186
▁दली	-4187
▁मंजूरी	-4188
▁विश्वविद्यालयों	-4189
▁अय	-4190
▁रम	-4191
▁हार	-4192
▁अब्दुल	-4193
▁संयंत्र	-4194
▁राजस्थान	-4195
दुर	-4196
विधि	-4197
▁बाकी	-4198
बाज	-4199
बीर	-4200
▁उत्तरा	-4201
▁उठाए	-4202
▁अचान	-4203
▁इंटरनेट	-4204
▁तीसरे	-4205
▁बढ़ती	-4206
▁किनारे	-4207
▁पूछताछ	-4208
▁प्रारूप	-4209
दिन	-4210
▁नाथ	-4211
▁निष्पादित	-4212
▁आर्	-4213
▁इनका	-4214
▁छत्तीस	-4215
▁नेताओं	-4216
▁वर्गों	-4217
▁समझने	-4218
▁आकर	-4219
▁खेत	-4220
र्पित	-4221
▁पार्ट	-4222
▁सौर	-4223
▁अचानक	-4224
केश	-4225
िमय	-4226
▁रानी	-4227
▁कतिपय	-4228
▁उपर्युक्त	-4229
जल	-4230
शोर	-4231
▁पेंशन	-4232
▁विरूद्ध	-4233
▁मण	-4234
▁निच	-4235
▁होम	-4236
िवीजन	-4237
म्मत	-4238
▁कव	-4239
▁तोड़	-4240
▁सभ्यता	-4241
▁पत	-4242
▁लल	-4243
िस्त	-4244
घाटन	-4245
ंख्य	-4246
▁कमा	-4247
▁आवश्यकताओं	-4248
ठे	-4249
▁तमिलना	-4250
▁कितनी	-4251
▁प्रत्या	-4252
द्री	-4253
▁हाउस	-4254
▁हितों	-4255
हल	-4256
▁गेंद	-4257
▁संवैधानिक	-4258
कां	-4259
्याय	-4260
११	-4261
▁सदैव	-4262
▁वृक्ष	-4263
जारों	-4264
▁पुष्	-4265
जिए	-4266
▁अट	-4267
▁सन	-4268
्ता	-4269
कुमार	-4270
▁शुरु	-4271
▁विमर्श	-4272
▁तदनुसार	-4273
▁दुख	-4274
▁नोड	-4275
▁ब्राह्म	-4276
▁आहार	-4277
▁फिली	-4278
▁किसान	-4279
▁बोस	-4280
▁वंश	-4281
ाले	-4282
▁कैं	-4283
▁उन्	-4284
▁प्रतिस्प	-4285
▁मकान	-4286
▁पुरानी	-4287
▁कार्यकारी	-4288
▁लंबी	-4289
▁जरिए	-4290
▁मिश्रा	-4291
▁विद्या	-4292
त्स	-4293
पंथ	-4294
▁दुर	-4295
▁सब्	-4296
▁पैसे	-4297
▁डिवीजन	-4298
▁हद	-4299
न्ड	-4300
▁सतह	-4301
▁प्रशंसा	-4302
रू	-4303
दीप	-4304
▁स्टेट	-4305
▁कारावास	-4306
▁गवर्	-4307
▁मालूम	-4308
▁यौ	-4309
▁खतरा	-4310
▁छत्तीसगढ़	-4311
▁दीवार	-4312
वट	-4313
▁खून	-4314
▁चेक	-4315
▁सेल	-4316
▁आकाश	-4317
▁कहता	-4318
▁बदलने	-4319
▁समर्पित	-4320
बु	-4321
▁मद्	-4322
▁बहन	-4323
▁बराम	-4324
▁फार्म	-4325
▁अनुसरण	-4326
शः	-4327
▁जैव	-4328
▁रोड	-4329
▁इलाज	-4330
▁शत्रु	-4331
▁योजनाओं	-4332
िकाओं	-4333
▁मिनट	-4334
▁अपराधों	-4335
हान	-4336
्रमण	-4337
▁चलने	-4338
▁पत्थर	-4339
▁स्वामित्व	-4340
सील	-4341
िवृ	-4342
▁गणना	-4343
▁संबोधित	-4344
▁भावी	-4345
▁भंडारण	-4346
▁अनुपालन	-4347
▁छवि	-4348
▁दुः	-4349
▁हाइ	-4350
शक्ति	-4351
▁समृद्ध	-4352
▁दोहरा	-4353
▁आदेशों	-4354
म्बे	-4355
▁अंतः	-4356
▁विनय	-4357
▁राजधान	-4358
▁अन्तर्गत	-4359
▁मूर्	-4360
▁मुद्र	-4361
▁आब	-4362
▁अवल	-4363
▁आईपीसी	-4364
▁समानता	-4365
▁विभाजित	-4366
▁छो	-4367
▁हालत	-4368
▁एफआईआर	-4369
▁धु	-4370
▁किस्म	-4371
▁प्राइ	-4372
▁R	-4373
क्क	-4374
न्ध	-4375
व्या	-4376
▁सावधानी	-4377
़्य	-4378
▁पूर्ति	-4379
▁चालू	-4380
▁मजदूर	-4381
▁चन्द्र	-4382
▁जिम्मेदारी	-4383
वश	-4384
ोल्डर	-4385
▁कहान	-4386
▁चिंत	-4387
▁श्रेष्ठ	-4388
ँकि	-4389
▁मक	-4390
धारणा	-4391
▁अनुचित	-4392
▁किराये	-4393
▁दिसंबर	-4394
▁आश्व	-4395
▁ट्रिब	-4396
▁प्रतियोग	-4397
बाजी	-4398
▁गोली	-4399
▁संदर्भित	-4400
▁अद्य	-4401
िफ	-4402
▁प्रदूषण	-4403
जात	-4404
▁खत्म	-4405
▁पदों	-4406
▁निर्व	-4407
▁सम्पूर्ण	-4408
▁स्वाभाविक	-4409
▁अंड	-4410
▁हल्	-4411
▁पर्यटन	-4412
ख्यात	-4413
▁सुदृ	-4414
▁देखना	-4415
दियों	-4416
▁उदार	-4417
▁ऑनलाइन	-4418
ायर	-4419
ीकृत	-4420
▁पोषण	-4421
▁फे	-4422
▁राजी	-4423
▁ट्रिब्यून	-4424
घर	-4425
▁विवेक	-4426
वारों	-4427
▁परिभाषा	-4428
वाना	-4429
▁त्वचा	-4430
▁विनिमय	-4431
▁झु	-4432
▁डिजाइन	-4433
वानी	-4434
▁अमर	-4435
वायु	-4436
मार्ग	-4437
▁वंचित	-4438
ट्र	-4439
▁गर्भ	-4440
▁दर्द	-4441
▁विद्र	-4442
बाई	-4443
▁हालाँकि	-4444
▁मृ	-4445
लिया	-4446
्नों	-4447
▁आस्त	-4448
▁क्व	-4449
▁अर्ध	-4450
▁तुम्हारे	-4451
▁सर्वोत्तम	-4452
▁संक्रमण	-4453
▁उल्लिखित	-4454
▁..	-4455
ास्ट	-4456
▁...	-4457
▁मध्यम	-4458
मि	-4459
वित	-4460
क्रिय	-4461
▁मॉडल	-4462
▁हार्दिक	-4463
हता	-4464
▁वचन	-4465
▁खड़े	-4466
▁मनोर	-4467
▁राजेश	-4468
▁संग्र	-4469
▁तमिलनाडु	-4470
गोर	-4471
र्की	-4472
▁किताब	-4473
▁फ़िल्म	-4474
▁E	-4475
▁फ्र	-4476
उंड	-4477
ेंज	-4478
▁नीतियों	-4479
▁साइट	-4480
क्सी	-4481
▁कॉल	-4482
धियों	-4483
िरो	-4484
▁क्रिकेट	-4485
▁ट्रै	-4486
▁शिखर	-4487
▁कक्षा	-4488
▁नौकरी	-4489
▁प्रेस	-4490
▁डाटा	-4491
▁वर्गी	-4492
गमन	-4493
▁इंद	-4494
▁किशोर	-4495
▁आलोचना	-4496
▁नार	-4497
लाब	-4498
▁ठोस	-4499
थित	-4500
▁गुजर	-4501
▁ढांचे	-4502
▁मिलियन	-4503
▁रहें	-4504
▁रॉ	-4505
▁जड़	-4506
ात्मक	-4507
ग्रस्त	-4508
▁अपनाया	-4509
काब	-4510
▁अख	-4511
▁धात	-4512
▁परिक	-4513
▁स्वस्थ	-4514
▁पहुंचने	-4515
▁शेख	-4516
▁दिव्य	-4517
▁असाधारण	-4518
▁संचालित	-4519
▁बेल	-4520
ोटो	-4521
▁बजा	-4522
▁अत्या	-4523
▁बनाये	-4524
▁जागर	-4525
▁कितने	-4526
▁उल्लेखनीय	-4527
▁कच्च	-4528
▁सुविधाएं	-4529
▁प्रतिस्पर्	-4530
▁विज्ञा	-4531
▁समूहों	-4532
▁राजधानी	-4533
▁गवाही	-4534
tion	-4535
▁स्त्र	-4536
शे	-4537
▁लाइ	-4538
▁शोध	-4539
▁स्वर्	-4540
▁चुना	-4541
▁विधियों	-4542
▁जिम्मेदार	-4543
ैट	-4544
▁सेवान	-4545
क़्त	-4546
▁बांध	-4547
ंत्रित	-4548
▁स्वतः	-4549
▁मद्देन	-4550
राय	-4551
वां	-4552
▁कोय	-4553
▁चतु	-4554
▁आजादी	-4555
ot	-4556
▁नृत	-4557
▁काली	-4558
▁लड़के	-4559
▁संप्र	-4560
▁ट्रस्ट	-4561
▁प्रवृत्ति	-4562
कू	-4563
▁ट्रिब्यूनल	-4564
अर	-4565
प्पा	-4566
डब्ल्यू	-4567
▁आपत्ति	-4568
▁उच्चतर	-4569
▁स्थानांतरित	-4570
विदा	-4571
भावना	-4572
▁चुने	-4573
▁गारंटी	-4574
▁पृष्ठभूमि	-4575
▁परा	-4576
▁विपणन	-4577
▁शपथ	-4578
▁सूर	-4579
▁लिंग	-4580
ानुसार	-4581
▁गांवों	-4582
▁सेन	-4583
▁प्रतिभूति	-4584
ज़ार	-4585
▁पटेल	-4586
▁नेपाल	-4587
▁दान	-4588
▁करवा	-4589
▁जवाहर	-4590
▁आनु	-4591
▁ज्ञापन	-4592
खों	-4593
▁आक	-4594
▁पंडित	-4595
ूपी	-4596
सागर	-4597
्यवाद	-4598
▁रसाय	-4599
िनल	-4600
क्ताओं	-4601
▁उन्नत	-4602
▁तहसील	-4603
▁पौधों	-4604
ूहिक	-4605
▁प्रतिबद्ध	-4606
▁फें	-4607
▁खराब	-4608
▁संवाद	-4609
▁प्राधिकार	-4610
▁नेशनल	-4611
▁प्रविष्टि	-4612
िरी	-4613
बादी	-4614
▁गुल	-4615
▁निर्मा	-4616
▁वेद	-4617
यक	-4618
दर्शी	-4619
▁इनकी	-4620
▁हटाने	-4621
▁सामूहिक	-4622
पूर्व	-4623
रिक्ष	-4624
▁तस्व	-4625
▁पड़ी	-4626
▁मद्देनजर	-4627
▁बल्ले	-4628
▁गहन	-4629
तियां	-4630
▁मुला	-4631
▁संदाय	-4632
▁उभर	-4633
▁आदान	-4634
▁रिक्त	-4635
▁जज	-4636
बन्ध	-4637
▁निगर	-4638
▁सफेद	-4639
▁सुदृढ़	-4640
▁प्रमाणित	-4641
▁यो	-4642
म्परा	-4643
▁भेजे	-4644
▁पोर्ट	-4645
▁कम्पनी	-4646
▁शिक्षण	-4647
▁लम्	-4648
▁गहरी	-4649
▁अस्थायी	-4650
▁मृत्युदंड	-4651
▁o	-4652
न्दु	-4653
▁शिशु	-4654
▁निगरानी	-4655
▁समुद्री	-4656
नाक	-4657
▁नो	-4658
▁ठहराया	-4659
▁अस्वीकार	-4660
▁यथास्थिति	-4661
द्वीप	-4662
▁अपर	-4663
▁ड्राइ	-4664
▁सेवानिवृ	-4665
▁एक्	-4666
▁शेय	-4667
▁जलवायु	-4668
▁उद्घाटन	-4669
पो	-4670
ाइन	-4671
▁डिप	-4672
▁उत्साह	-4673
▁प्रान्त	-4674
्मा	-4675
▁बौद्धिक	-4676
▁ग़	-4677
▁अनि	-4678
▁मिलाकर	-4679
▁चीनी	-4680
▁सोचा	-4681
▁ब्लॉक	-4682
▁मौलिक	-4683
▁मिलते	-4684
▁रिश्त	-4685
▁पॉल	-4686
▁निवारण	-4687
फ़ी	-4688
▁प्रारम्भ	-4689
म्मा	-4690
▁कपड़े	-4691
▁पैमाने	-4692
▁नवा	-4693
▁नाते	-4694
▁अर्जित	-4695
▁संवर्धन	-4696
▁ताकत	-4697
▁दिखाने	-4698
▁ब्रिटेन	-4699
ंशिक	-4700
क्ष्यों	-4701
▁अद्यतन	-4702
▁वस्तुत	-4703
▁पड	-4704
▁शान	-4705
▁क्लिक	-4706
▁भंडार	-4707
▁अग्रणी	-4708
▁सौं	-4709
वोकेट	-4710
▁तत्वों	-4711
ंकित	-4712
▁चुनौ	-4713
उन	-4714
न्थ	-4715
ल्ली	-4716
▁चाय	-4717
▁उसको	-4718
▁बरामद	-4719
▁अभ्यास	-4720
मूल	-4721
ानिक	-4722
▁तंत्रिका	-4723
▁स्वर्गीय	-4724
▁भारतीयों	-4725
वहार	-4726
▁उत्प	-4727
▁भेंट	-4728
▁भक्ति	-4729
▁विरासत	-4730
▁एडवोकेट	-4731
ंटन	-4732
▁शौ	-4733
▁गरीबी	-4734
▁ज़्यादा	-4735
▁हिंदुस्तान	-4736
ंठ	-4737
▁गू	-4738
▁कठिनाई	-4739
▁खतर	-4740
▁गुफा	-4741
▁परम्परा	-4742
▁बैंकिंग	-4743
विष्ट	-4744
▁लड़ाई	-4745
▁मेडिकल	-4746
▁रेडियो	-4747
▁समृद्धि	-4748
▁तत्कालीन	-4749
▁खण्ड	-4750
▁जाया	-4751
▁लगाना	-4752
▁अपीलीय	-4753
क्रो	-4754
▁वस	-4755
ायें	-4756
▁पाँच	-4757
▁संक्षेप	-4758
फोन	-4759
▁नवंबर	-4760
▁प्रणाल	-4761
षित	-4762
०क	-4763
▁हथियार	-4764
जनन	-4765
िवेश	-4766
▁द्विप	-4767
▁कोट	-4768
▁क्रमशः	-4769
वरों	-4770
▁मानना	-4771
▁स्वर्ण	-4772
▁अकेले	-4773
▁जातियों	-4774
ॉनिक	-4775
▁आकलन	-4776
▁एक्ट	-4777
▁सांप	-4778
▁जानने	-4779
▁चू	-4780
▁शंक	-4781
▁अभिला	-4782
▁कांस	-4783
▁ध्वनि	-4784
▁बजट	-4785
▁प्यार	-4786
०वीं	-4787
▁कष्ट	-4788
▁सीमाओं	-4789
▁टिप्पणी	-4790
▁प्रवृत्त	-4791
▁तात्	-4792
ाधिकार	-4793
लन	-4794
▁सामान्यतः	-4795
▁आना	-4796
▁दिमा	-4797
▁पाद	-4798
▁मैने	-4799
▁विष्णु	-4800
▁पक्षकार	-4801
▁विश्वसनीय	-4802
▁k	-4803
▁अज	-4804
्यूब	-4805
▁देवता	-4806
▁खुलासा	-4807
▁श्रमिक	-4808
व्यों	-4809
▁अक्त	-4810
▁चीजों	-4811
▁न्यास	-4812
▁पढ़ा	-4813
▁क्रांति	-4814
▁रिज	-4815
▁अवमान	-4816
▁उद्देश्यों	-4817
▁घटा	-4818
▁व्यक्तित्व	-4819
ब्र	-4820
▁प्रबंधक	-4821
▁ड्र	-4822
▁नेत्र	-4823
▁आरोपों	-4824
वण	-4825
▁बच्चा	-4826
▁मूर्ति	-4827
▁इंजीनियर	-4828
टो	-4829
ट्	-4830
▁पदार्थों	-4831
▁भंग	-4832
मान्य	-4833
▁बांग	-4834
▁अवसरों	-4835
▁संध्या	-4836
▁उतर	-4837
णियों	-4838
नू	-4839
▁मिथ	-4840
▁बेह	-4841
प्रा	-4842
ड़िया	-4843
▁परिचय	-4844
▁शहरों	-4845
▁उपकरणों	-4846
फना	-4847
▁बाँ	-4848
द्रास	-4849
▁समाय	-4850
भि	-4851
▁घूम	-4852
▁एसोस	-4853
टु	-4854
ुरा	-4855
्याम	-4856
▁भरा	-4857
▁जुड़ा	-4858
मेल	-4859
▁बहस	-4860
▁देशी	-4861
▁प्रवर्तन	-4862
▁पौधे	-4863
▁विविधता	-4864
▁रवीन्द्रनाथ	-4865
तें	-4866
▁उन्म	-4867
▁चाहती	-4868
▁मुकाब	-4869
▁सिद्धान्त	-4870
वृत्ति	-4871
▁बनाता	-4872
पेक्ष	-4873
▁हिमा	-4874
▁रहस्य	-4875
▁मैत्री	-4876
▁राह	-4877
ूली	-4878
ामान	-4879
▁भूत	-4880
▁पंक्ति	-4881
▁प्रश्नों	-4882
फो	-4883
िली	-4884
▁इंडियन	-4885
▁धम	-4886
निंग	-4887
▁उपर	-4888
▁जीवा	-4889
▁कामना	-4890
बाल	-4891
▁स्वभाव	-4892
मानी	-4893
कल्पिक	-4894
▁बुलाया	-4895
ल्य	-4896
न्या	-4897
▁बैठे	-4898
▁आधिकार	-4899
▁मुक्ति	-4900
▁विक्रय	-4901
ुत्	-4902
रेखा	-4903
▁बालक	-4904
▁लेती	-4905
▁नृत्य	-4906
▁बहादुर	-4907
▁मद्रास	-4908
▁इस्लामी	-4909
▁शिक्षकों	-4910
▁दोस्त	-4911
▁रजिस्टर	-4912
▁टो	-4913
▁जाग	-4914
▁खुला	-4915
▁गुणा	-4916
क्षणिक	-4917
ॉस	-4918
्रेता	-4919
▁लड़की	-4920
ग़	-4921
ुरी	-4922
▁मुआ	-4923
श्वास	-4924
▁अगला	-4925
▁क्	-4926
लिंग	-4927
▁दिला	-4928
▁सेटिंग	-4929
▁दर्शाता	-4930
▁तिल	-4931
▁नान	-4932
▁देखे	-4933
▁एजेंसी	-4934
▁डिग्री	-4935
▁वस्त्र	-4936
▁अक्तूबर	-4937
▁हेम	-4938
▁डॉक्टर	-4939
▁वैकल्पिक	-4940
▁खतरे	-4941
▁जहाज	-4942
▁अवधारणा	-4943
िरह	-4944
जीवन	-4945
▁मस्	-4946
▁रेश	-4947
▁समितियों	-4948
▁विभागों	-4949
▁उपे	-4950
यू	-4951
लांग	-4952
▁हाई	-4953
▁प्रसं	-4954
▁स्मार	-4955
▁परिषद्	-4956
▁मंदिरों	-4957
▁दिलच	-4958
ंभव	-4959
ेदन	-4960
ंचाई	-4961
िल्प	-4962
▁तीनों	-4963
▁निषे	-4964
▁विनियमन	-4965
▁आधिकारिक	-4966
▁प्रतियोगिता	-4967
▁होटल	-4968
▁मूलभूत	-4969
▁आराम	-4970
▁कायम	-4971
दायक	-4972
▁मोड	-4973
▁उतना	-4974
▁कहला	-4975
▁रुचि	-4976
▁पत्रों	-4977
▁निकालने	-4978
आरएस	-4979
▁गईं	-4980
▁मरा	-4981
▁यूरोपीय	-4982
▁स्क्रीन	-4983
कोश	-4984
▁बिलकुल	-4985
▁साहित्यिक	-4986
▁अंतरिक्ष	-4987
ao	-4988
▁जोड़ने	-4989
▁शक्तिशाली	-4990
वेट	-4991
▁घटक	-4992
▁‘‘	-4993
▁जमी	-4994
▁पांड	-4995
▁ट्रे	-4996
▁सीता	-4997
▁युक्ति	-4998
▁साझी	-4999
▁ट्रेड	-5000
▁पार्क	-5001
▁प्राधिकृत	-5002
▁जीन	-5003
▁सेक	-5004
▁इमार	-5005
▁अग्रवाल	-5006
▁अभियुक्तों	-5007
दल	-5008
ध्यक्ष	-5009
▁उपायों	-5010
▁विनिर्माण	-5011
▁विच	-5012
▁संतुष्ट	-5013
▁प्रयोगशाला	-5014
▁प्रक्रियाओं	-5015
ार्ट	-5016
▁जुर्म	-5017
▁बढ़ने	-5018
▁वाद्य	-5019
▁खंडपीठ	-5020
काया	-5021
▁चिप	-5022
▁द्वि	-5023
▁कारोबार	-5024
▁न्यायपालिका	-5025
▁खनि	-5026
▁इसील	-5027
▁विभिन्	-5028
▁स्वीकृत	-5029
et	-5030
्रु	-5031
हारी	-5032
▁सिक	-5033
▁सप	-5034
र्जन	-5035
▁साझे	-5036
▁संभावित	-5037
सीसी	-5038
▁किलोमीटर	-5039
▁उपखंड	-5040
▁निर्देशित	-5041
▁गौरव	-5042
▁आरंभिक	-5043
वधि	-5044
▁अखिल	-5045
▁उर्व	-5046
▁संतुलन	-5047
▁रजिस्ट्र	-5048
▁अदा	-5049
▁जायें	-5050
▁विज्ञापन	-5051
ख्त	-5052
▁दक्षिणी	-5053
रम	-5054
▁खि	-5055
हारिक	-5056
▁कारक	-5057
▁हिमालय	-5058
फेसर	-5059
▁पच	-5060
पश्च	-5061
▁जोड़ा	-5062
▁महाराजा	-5063
▁विनिश्च	-5064
▁पांडे	-5065
▁दलील	-5066
▁धातु	-5067
खिक	-5068
▁सल	-5069
वारी	-5070
िएशन	-5071
िकों	-5072
▁जिरह	-5073
▁जुड़	-5074
▁त्रि	-5075
▁इच्छ	-5076
▁कब्जा	-5077
रन	-5078
▁ऑप	-5079
▁आईटी	-5080
▁शक्तियां	-5081
▁पश	-5082
काता	-5083
▁आयकर	-5084
चंद्र	-5085
▁विलेख	-5086
▁चली	-5087
▁लॉग	-5088
ड़ीसा	-5089
▁दत्त	-5090
▁परिस्थिति	-5091
▁अंज	-5092
▁शोक	-5093
▁चेन्न	-5094
▁अनुज्ञात	-5095
ंतिक	-5096
▁उपयोगकर्ता	-5097
▁तरीकों	-5098
▁आरक्षित	-5099
▁’	-5100
▁खिल	-5101
▁जगत	-5102
कीर्ण	-5103
▁उपलब्धि	-5104
▁शास्त्र	-5105
▁विद्यार्थी	-5106
▁सदी	-5107
▁गीता	-5108
▁ग्री	-5109
▁सबूतों	-5110
▁सिंचाई	-5111
▁प्रोफेसर	-5112
▁बारी	-5113
▁अंततः	-5114
▁इंजीनिय	-5115
▁सकारात्मक	-5116
अप	-5117
▁भेजने	-5118
▁लक्ष्मी	-5119
▁उतार	-5120
▁द्विपक्षीय	-5121
▁f	-5122
नीति	-5123
▁आंशिक	-5124
▁पीढ़ी	-5125
▁व्यावहारिक	-5126
▁पोत	-5127
▁हां	-5128
ेन्द्र	-5129
▁फ्रांस	-5130
सूर	-5131
▁जिनसे	-5132
थे	-5133
्यौ	-5134
▁अपमान	-5135
▁बनाकर	-5136
▁वापसी	-5137
▁सकेगी	-5138
ंपरिक	-5139
▁क्रमा	-5140
▁ग्राफ	-5141
▁प्रभाग	-5142
▁महीनों	-5143
▁प्रतिदिन	-5144
▁पूर्ववर्ती	-5145
▁तृ	-5146
▁बुल	-5147
▁माध्यस्थ	-5148
▁बचत	-5149
▁संजय	-5150
▁साझा	-5151
▁हड्ड	-5152
▁साहस	-5153
▁अमरीका	-5154
▁अधिग्रहण	-5155
▁प्रतिष्ठा	-5156
काय	-5157
▁जला	-5158
▁राजपत्र	-5159
ंजा	-5160
▁सुनील	-5161
▁यथार्थ	-5162
ट्टा	-5163
▁ईसाई	-5164
हाई	-5165
▁फु	-5166
▁पत्रिका	-5167
as	-5168
जो	-5169
ुणा	-5170
िश्र	-5171
▁सेंट	-5172
्टा	-5173
▁अधी	-5174
▁अंकित	-5175
▁e	-5176
्वान	-5177
▁पेशे	-5178
▁सतर्क	-5179
पल	-5180
़्त	-5181
▁बारह	-5182
▁तापमान	-5183
▁सम्पत्ति	-5184
च्छिक	-5185
▁ग्राहकों	-5186
डो	-5187
▁पैके	-5188
इयां	-5189
▁गुणों	-5190
▁इलेक्ट्रॉनिक	-5191
▁चैतन	-5192
▁मुआव	-5193
▁कार्यरत	-5194
सेना	-5195
▁निभा	-5196
▁ढांचा	-5197
▁पर्वत	-5198
▁बनाते	-5199
▁आमंत्रित	-5200
ing	-5201
बारा	-5202
क्राम	-5203
▁समझते	-5204
▁रहेंगे	-5205
रचना	-5206
▁वास	-5207
▁मानो	-5208
▁भांति	-5209
▁कोशिकाओं	-5210
▁गुरू	-5211
▁शैक्षणिक	-5212
▁पक्षकारों	-5213
▁मार्गदर्शन	-5214
▁छत	-5215
▁उपय	-5216
▁देखी	-5217
कात	-5218
▁अकाद	-5219
▁क्षण	-5220
▁जितनी	-5221
भेद	-5222
▁चैनल	-5223
▁सिंध	-5224
▁आबादी	-5225
▁बचाने	-5226
▁युवाओं	-5227
▁व्युत्	-5228
▁अत्यन्त	-5229
▁१	-5230
वर्ग	-5231
▁वाणिज्य	-5232
१२	-5233
जिद	-5234
▁ड़	-5235
त्ते	-5236
▁फार	-5237
▁डालने	-5238
▁भरे	-5239
▁पोजी	-5240
▁पारंपरिक	-5241
्डी	-5242
▁झील	-5243
▁क्यू	-5244
▁लकड़ी	-5245
▁मिलेगा	-5246
▁प्रतिवादियों	-5247
्यूम	-5248
▁कागज	-5249
▁पृथक	-5250
▁दर्शाया	-5251
▁इकट	-5252
▁वार्	-5253
▁रसायन	-5254
▁होंगी	-5255
▁चैतन्य	-5256
▁पंख	-5257
▁लगती	-5258
▁शांत	-5259
▁पट्टी	-5260
▁बहुमत	-5261
▁उड़ीसा	-5262
▁संवेदन	-5263
▁कू	-5264
▁वय	-5265
▁एयर	-5266
▁कले	-5267
▁शोर	-5268
▁बताते	-5269
▁छाया	-5270
हि	-5271
स्ट्रे	-5272
▁गोपाल	-5273
▁निष्क्रिय	-5274
रस	-5275
▁जाओ	-5276
▁प्रता	-5277
▁बांग्ला	-5278
▁कार्यवाहियों	-5279
▁डो	-5280
ंगों	-5281
▁हाँ	-5282
कर्षण	-5283
▁मानदंड	-5284
▁राजभाषा	-5285
▁आतंकवादी	-5286
om	-5287
शाह	-5288
▁नवी	-5289
▁बीस	-5290
▁अज्ञात	-5291
साई	-5292
▁मानता	-5293
▁सकेंगे	-5294
▁ग्रे	-5295
▁रहित	-5296
ामान्य	-5297
▁तस्वीर	-5298
▁मिलेगी	-5299
दोष	-5300
प्रद	-5301
▁खूब	-5302
▁ऊपरी	-5303
▁मानी	-5304
स्तानी	-5305
▁कानूनों	-5306
▁परिवेश	-5307
▁पुस्तकों	-5308
शोथ	-5309
▁ठे	-5310
▁कंट	-5311
▁ग्ल	-5312
▁सहन	-5313
शिष्ट	-5314
▁पीडी	-5315
▁अपराधी	-5316
▁चिह्नित	-5317
▁अच	-5318
▁केश	-5319
▁सद्	-5320
▁खड़ी	-5321
▁धरती	-5322
▁इसीलिए	-5323
▁पहलुओं	-5324
▁क्रियान्व	-5325
▁झग	-5326
पंथी	-5327
▁कोष	-5328
▁कौर	-5329
क्तिक	-5330
▁तत्त्व	-5331
भास	-5332
▁गज	-5333
म्बई	-5334
▁टूट	-5335
▁निविदा	-5336
▁केंद्रित	-5337
▁मुंह	-5338
▁हलफना	-5339
▁कोलकाता	-5340
अल	-5341
▁चुप	-5342
▁फैला	-5343
▁कराना	-5344
▁परिवारों	-5345
झा	-5346
ल्ह	-5347
▁डिज	-5348
▁मातृ	-5349
▁खोलने	-5350
जाम	-5351
राशि	-5352
▁नकारात्मक	-5353
▁प्रतिष्ठित	-5354
▁ऊंचाई	-5355
्यूल	-5356
▁कहां	-5357
▁सिन्	-5358
▁संपदा	-5359
▁गिरफ्तारी	-5360
▁तारा	-5361
▁उद्यान	-5362
▁प्रांत	-5363
▁प्रेषित	-5364
तावनी	-5365
साइटी	-5366
▁दुःख	-5367
▁अभिगम	-5368
▁फ़ोल्डर	-5369
▁रजिस्ट्रार	-5370
स्थल	-5371
▁भरी	-5372
▁कड़ी	-5373
▁बिता	-5374
▁स्तरों	-5375
▁गतिविधि	-5376
ँग	-5377
▁हिस	-5378
▁पोजीशन	-5379
▁प्रतीक्षा	-5380
चंद	-5381
▁इकट्	-5382
▁पहाड़ी	-5383
▁लोड	-5384
तांत्रिक	-5385
▁विद्रोह	-5386
िटल	-5387
▁जू	-5388
वर्ड	-5389
▁आखिर	-5390
▁सुनने	-5391
▁आह्वान	-5392
▁सोसाइटी	-5393
ैंक	-5394
▁सोने	-5395
▁उन्होने	-5396
▁चेतावनी	-5397
▁वस्तुतः	-5398
▁उत्तम	-5399
▁मान्य	-5400
▁व्यापारी	-5401
▁मध्यस्थता	-5402
ोन्न	-5403
▁निधन	-5404
▁महाभारत	-5405
लभ	-5406
र्दू	-5407
ब्लिक	-5408
▁पैसा	-5409
▁जानकर	-5410
▁थोड़ी	-5411
▁संदेय	-5412
▁l	-5413
▁ढूं	-5414
▁काला	-5415
▁दोनो	-5416
▁रेड्डी	-5417
िग	-5418
ँचे	-5419
▁एव	-5420
▁साहब	-5421
▁चयनित	-5422
▁दिमाग	-5423
▁रूपों	-5424
कांक्षा	-5425
▁परेशान	-5426
स्कर	-5427
▁उदा	-5428
▁पाता	-5429
▁प्लस	-5430
▁क्रेड	-5431
▁y	-5432
ंटित	-5433
▁कही	-5434
▁ज्व	-5435
▁बडी	-5436
▁चेहरे	-5437
▁अनुमोदित	-5438
▁पाठक	-5439
▁अभिलाभ	-5440
▁सोम	-5441
▁कराई	-5442
▁तलाश	-5443
▁देखता	-5444
▁रिकार्ड	-5445
▁अक्ट	-5446
▁शंकरा	-5447
▁उद्धृत	-5448
▁उर्दू	-5449
▁अधिकृत	-5450
▁छुट्टी	-5451
▁सम्बंध	-5452
▁अंग्रेज	-5453
यु	-5454
ंदगी	-5455
▁चुनें	-5456
▁भगवान्	-5457
ent	-5458
▁जॉ	-5459
▁नज	-5460
▁कमीशन	-5461
▁तैयारी	-5462
▁निष्ठा	-5463
▁शेयरों	-5464
▁कांस्टे	-5465
▁इंग्लैंड	-5466
ढ़ा	-5467
ारक	-5468
▁पड़ती	-5469
क्कर	-5470
▁जाएँ	-5471
▁त्वर	-5472
▁याची	-5473
▁बग	-5474
▁लार	-5475
▁स्मरण	-5476
तापूर्ण	-5477
▁जायेगी	-5478
▁संभवतः	-5479
▁कर्ण	-5480
▁दण्ड	-5481
र्थी	-5482
▁सिख	-5483
▁वृद्ध	-5484
ac	-5485
▁पॉ	-5486
ेक्टर	-5487
▁यूपी	-5488
▁विकि	-5489
कलापों	-5490
▁उत्तेज	-5491
▁आधारभूत	-5492
ोज़	-5493
स्टर	-5494
▁अगली	-5495
▁मनी	-5496
▁कट्ट	-5497
▁माने	-5498
▁जिल	-5499
▁सहारा	-5500
▁अक्टूबर	-5501
ol	-5502
रेख	-5503
▁एल्	-5504
▁असली	-5505
▁ईरान	-5506
▁मौखिक	-5507
▁हिमाचल	-5508
गि	-5509
ुत्व	-5510
▁शरण	-5511
▁पदोन्न	-5512
▁प्रजनन	-5513
el	-5514
तरी	-5515
▁छोड	-5516
▁लिंक	-5517
▁अमरीकी	-5518
▁लिप	-5519
▁हाथी	-5520
▁जापान	-5521
▁चिकित्सक	-5522
us	-5523
ंधन	-5524
▁धा	-5525
सीयत	-5526
ुपयोग	-5527
▁संभाल	-5528
▁हरिया	-5529
▁अमी	-5530
▁अर्ज	-5531
▁काले	-5532
▁पशुओं	-5533
▁सम्भव	-5534
▁फलस्वरूप	-5535
▁सीआरपीसी	-5536
ed	-5537
▁घो	-5538
▁गहराई	-5539
▁प्रदत्त	-5540
▁एकदम	-5541
▁मुगल	-5542
▁अंतराल	-5543
▁टेलीफोन	-5544
▁दह	-5545
▁आयी	-5546
▁पुरूष	-5547
▁अंतरिम	-5548
▁तत्पश्च	-5549
▁प्रतिबि	-5550
णि	-5551
▁छु	-5552
जीवी	-5553
ज़े	-5554
▁लगते	-5555
▁समझे	-5556
▁जवाहरलाल	-5557
गरी	-5558
▁iii	-5559
▁तिव	-5560
▁लखन	-5561
▁मछली	-5562
▁एजेंस	-5563
▁संगठित	-5564
▁क्रेडिट	-5565
ंकी	-5566
सार	-5567
▁शान्त	-5568
▁अपनाने	-5569
▁पूर्वा	-5570
▁उग्र	-5571
▁उन्हीं	-5572
▁000	-5573
▁हरे	-5574
▁धन्यवाद	-5575
्वे	-5576
▁घृ	-5577
▁गलती	-5578
▁फेंक	-5579
▁मानवता	-5580
▁प्रसंस्	-5581
▁कांस्टेबल	-5582
▁उत्तरदायित्व	-5583
▁अजी	-5584
▁इंगित	-5585
ड़ना	-5586
▁पिछली	-5587
▁कनेक्शन	-5588
▁पेट्रोल	-5589
▁ष	-5590
▁जंगल	-5591
▁बन्द	-5592
▁स्टा	-5593
▁चिन्ह	-5594
▁विवरणी	-5595
सायनिक	-5596
▁रूपांत	-5597
▁विनिश्चय	-5598
ज्ज	-5599
्नि	-5600
▁अम्	-5601
▁शराब	-5602
▁परिचित	-5603
▁सहयोगी	-5604
▁निर्देशों	-5605
थान	-5606
मैन	-5607
शेष	-5608
▁चलाया	-5609
▁तीसरा	-5610
▁सिवाय	-5611
▁साधनों	-5612
▁स्कूलों	-5613
ायण	-5614
▁सीधा	-5615
▁मशीनरी	-5616
ेतन	-5617
▁कस	-5618
वाने	-5619
ष्कार	-5620
▁रखकर	-5621
▁साथी	-5622
▁तिवारी	-5623
छा	-5624
िमा	-5625
▁नामा	-5626
▁किराए	-5627
▁निष्प	-5628
▁निप	-5629
▁पुण	-5630
▁काउंसिल	-5631
▁इक	-5632
▁नाय	-5633
▁हुस	-5634
▁दार्	-5635
▁राधा	-5636
▁रोगों	-5637
▁विनाश	-5638
▁पड़ेगा	-5639
▁किन्हीं	-5640
▁ब्राह्मण	-5641
▁व्यवस्थित	-5642
परि	-5643
▁नल	-5644
▁एपी	-5645
▁डाउ	-5646
धिकरण	-5647
▁अक्षम	-5648
▁जर्मनी	-5649
स्को	-5650
▁रसी	-5651
▁पीसी	-5652
▁बताने	-5653
▁समझता	-5654
▁रिश्ते	-5655
▁फोटो	-5656
▁मुझसे	-5657
▁सकल	-5658
हाबाद	-5659
▁प्रबल	-5660
▁पार्टियों	-5661
ur	-5662
▁निशान	-5663
नलोड	-5664
▁अनुर	-5665
▁गद्य	-5666
▁स्वप	-5667
▁मासिक	-5668
▁तुर्की	-5669
▁नियंत्रक	-5670
▁अवय	-5671
स्वती	-5672
▁विवादों	-5673
्राव	-5674
▁इस्	-5675
▁मेघ	-5676
▁आपात	-5677
▁निरसन	-5678
▁शासित	-5679
धना	-5680
ूनी	-5681
ंबित	-5682
▁आपस	-5683
▁नकद	-5684
▁डॉलर	-5685
▁मुद्दा	-5686
▁अधिसूचित	-5687
▁रजिस्ट्रीकरण	-5688
ेरे	-5689
▁पहन	-5690
▁सतत	-5691
▁चुकता	-5692
ुख	-5693
यिक	-5694
▁पढ	-5695
▁ऑफ़	-5696
▁बुक	-5697
स्वामी	-5698
▁पुनरी	-5699
▁रहेगी	-5700
▁कुशलता	-5701
▁दक्षता	-5702
▁शानदार	-5703
▁रासायनिक	-5704
▁बनता	-5705
▁चीजें	-5706
▁मुलाकात	-5707
▁सम्पर्क	-5708
▁सम्मानित	-5709
▁अध्यक्षता	-5710
▁दुर्गा	-5711
▁इल	-5712
▁टिकट	-5713
▁दस्तावेज़	-5714
कन	-5715
ब्ब	-5716
▁नती	-5717
▁शल्य	-5718
▁जुड़ी	-5719
▁राजीव	-5720
▁एकीकृत	-5721
▁डब्ल्यू	-5722
▁शंकराचार्य	-5723
▁पंचा	-5724
▁अपवाद	-5725
▁प्राइवेट	-5726
कियों	-5727
▁उतनी	-5728
▁विनि	-5729
▁संपन्न	-5730
▁पोल	-5731
▁भक्त	-5732
▁टू	-5733
▁किमी	-5734
▁गांधीजी	-5735
▁अंग्रेजों	-5736
▁बम	-5737
▁भो	-5738
▁लोकसभा	-5739
▁विचारा	-5740
पूर	-5741
गामी	-5742
ॉर्ट	-5743
▁जुल	-5744
▁लाना	-5745
▁संधि	-5746
▁तीसरी	-5747
्चर	-5748
▁पाइ	-5749
▁धोखा	-5750
▁मंगल	-5751
▁दुर्भाग्य	-5752
▁घात	-5753
▁मंग	-5754
वृत्त	-5755
स्पति	-5756
▁डिक्री	-5757
गित	-5758
▁अनाज	-5759
▁वांछ	-5760
▁गाड़ी	-5761
स्ट्रेलिया	-5762
भु	-5763
▁नकदी	-5764
▁सैन्य	-5765
▁धनराशि	-5766
▁निपटने	-5767
▁क्रांतिक	-5768
▁क्षतिपूर्ति	-5769
▁गोद	-5770
▁कार्म	-5771
▁घनिष्ठ	-5772
▁मस्जिद	-5773
▁स्तरीय	-5774
▁महल	-5775
▁अपरि	-5776
▁समेक	-5777
▁इंद्र	-5778
▁हिसाब	-5779
▁स्वाधीन	-5780
▁निर्भरता	-5781
दूरी	-5782
▁पाये	-5783
▁ओआरएस	-5784
▁रिस	-5785
▁घरों	-5786
▁पैनल	-5787
▁स्थितियों	-5788
am	-5789
ंसक	-5790
▁पावर	-5791
▁याता	-5792
▁सेक्टर	-5793
कलाप	-5794
▁अफग	-5795
▁औषध	-5796
▁घाव	-5797
▁बेर	-5798
▁बंदर	-5799
ंख्यिक	-5800
कोट	-5801
▁उभ	-5802
▁असह	-5803
▁विधिव	-5804
▁रायपुर	-5805
▁अन्वेषण	-5806
▁सरस्वती	-5807
▁बचने	-5808
▁पूर्णतः	-5809
वंत	-5810
▁शर	-5811
▁दौरा	-5812
▁भाष्	-5813
▁चुनौतियों	-5814
▁कीटों	-5815
▁रचनात्मक	-5816
▁सम्बन्धित	-5817
ुश	-5818
िने	-5819
न्दा	-5820
▁जाह	-5821
▁पोष	-5822
▁रघु	-5823
▁सड़	-5824
▁आयुर्	-5825
▁चार्ज	-5826
▁जीवों	-5827
▁बढ़ते	-5828
▁मतदान	-5829
▁मिश्रण	-5830
▁हिरासत	-5831
▁डाउनलोड	-5832
▁विकलांग	-5833
▁व्यापारिक	-5834
▁स्त्रियों	-5835
▁उत्तराधिकार	-5836
▁फौ	-5837
ैण्ड	-5838
▁मौका	-5839
▁कट्टर	-5840
▁फायदा	-5841
▁कमल	-5842
▁वजन	-5843
दाताओं	-5844
il	-5845
ंची	-5846
▁बडे	-5847
दाबाद	-5848
▁अनिल	-5849
▁ट्यूब	-5850
▁पीड़ा	-5851
▁फाइ	-5852
▁उर्फ	-5853
▁दीक्षा	-5854
▁मं	-5855
▁अहि	-5856
▁हुसैन	-5857
ढ़े	-5858
देशों	-5859
स्फोट	-5860
▁पैकेज	-5861
▁यातायात	-5862
▁प्रस्तुति	-5863
▁विद्वानों	-5864
▁लोकतांत्रिक	-5865
▁किल	-5866
▁घास	-5867
▁अवकाश	-5868
▁सुनाई	-5869
मेन	-5870
▁हमे	-5871
▁अभ्य	-5872
▁घाटी	-5873
व्यापी	-5874
▁बताता	-5875
▁मंजूर	-5876
▁वसीयत	-5877
▁किराया	-5878
मुच	-5879
▁बिट	-5880
▁वैज्ञानिकों	-5881
चालित	-5882
▁ईमान	-5883
▁देरी	-5884
▁हार्ड	-5885
▁साक्षा	-5886
िर्धारित	-5887
▁उपलब्धता	-5888
ec	-5889
▁गणित	-5890
▁ध्वज	-5891
▁प्रविष्ट	-5892
▁निर्देशिका	-5893
▁क्रॉस	-5894
बारी	-5895
▁आपसे	-5896
▁जल्द	-5897
▁बुरी	-5898
▁भरने	-5899
▁दार्शन	-5900
▁इकाइयों	-5901
▁मित्रों	-5902
खाव	-5903
▁व्	-5904
▁विज	-5905
▁ब्यू	-5906
पेश	-5907
▁कृष	-5908
▁तैना	-5909
▁अधीनस्थ	-5910
बिट	-5911
▁मॉड	-5912
▁हरी	-5913
▁अस्थि	-5914
▁त्वरित	-5915
▁प्रतिर	-5916
▁हजारों	-5917
▁प्रतिफल	-5918
▁इलाहाबाद	-5919
डन	-5920
भौ	-5921
▁बांट	-5922
▁कार्यान्वित	-5923
क्की	-5924
▁क्लब	-5925
▁प्लेट	-5926
▁लेंगे	-5927
▁मानकों	-5928
ँस	-5929
▁पालिसी	-5930
ुड	-5931
▁बया	-5932
▁चावल	-5933
▁अभियोग	-5934
कीन	-5935
▁अतीत	-5936
▁कलेक्टर	-5937
▁समर्थित	-5938
▁तू	-5939
▁चुक	-5940
▁धान	-5941
▁बोध	-5942
▁सोल	-5943
▁विनोद	-5944
▁सम्रा	-5945
▁दुरुपयोग	-5946
▁लाह	-5947
त्रिम	-5948
▁आपसी	-5949
▁शुक्र	-5950
▁चौहान	-5951
▁पुस्तिका	-5952
खर	-5953
▁कच	-5954
▁अजय	-5955
▁असल	-5956
▁संभ	-5957
▁शुक्	-5958
यक्तिक	-5959
▁वैदिक	-5960
ोक्ताओं	-5961
▁असामान्य	-5962
संच	-5963
हाल	-5964
▁टक	-5965
गोलिक	-5966
▁खनिज	-5967
▁मेमो	-5968
▁आस्था	-5969
▁इंस्प	-5970
▁वस्तुएं	-5971
▁राष्ट्रों	-5972
▁टॉ	-5973
सलों	-5974
वास्त	-5975
▁शासक	-5976
▁भाग्य	-5977
▁लंबाई	-5978
▁सम्पा	-5979
▁गर्व	-5980
▁शिक्षित	-5981
मोहन	-5982
▁कृति	-5983
▁जनजाति	-5984
▁रमेश	-5985
▁स्वै	-5986
▁तनाव	-5987
▁विधाय	-5988
▁समुदायों	-5989
ष्म	-5990
▁दायरे	-5991
▁लाभों	-5992
▁सचमुच	-5993
▁विचाराधीन	-5994
ैंट	-5995
▁दया	-5996
▁नित	-5997
▁समू	-5998
▁कुटु	-5999
▁लगने	-6000
▁मतभेद	-6001
▁आरोपियों	-6002
▁स्वीकार्य	-6003
▁ईंधन	-6004
तन्त्र	-6005
▁बढ़कर	-6006
▁गवर्नर	-6007
▁जायेंगे	-6008
▁भौगोलिक	-6009
नेश	-6010
ोनें	-6011
▁टेक्	-6012
▁देखो	-6013
▁नायक	-6014
कोर	-6015
सेस	-6016
ांसी	-6017
▁लंदन	-6018
▁नमूने	-6019
▁भावनाओं	-6020
▁कार्यपालिका	-6021
▁छाप	-6022
▁ख्या	-6023
▁गोरा	-6024
▁मानने	-6025
▁खतरनाक	-6026
▁खरीदने	-6027
▁वार्ता	-6028
फ्	-6029
▁अवमानना	-6030
श्र	-6031
▁दम	-6032
▁कना	-6033
▁पवन	-6034
▁दलों	-6035
▁ऑडियो	-6036
▁तीर्थ	-6037
▁ब्राउ	-6038
▁उपेक्षा	-6039
▁कृत्रिम	-6040
ोई	-6041
ेदी	-6042
▁नस्ल	-6043
▁नमूना	-6044
▁सीखने	-6045
▁प्रसंस्करण	-6046
▁गोप	-6047
▁रूस	-6048
▁उत्पादक	-6049
▁विचारधारा	-6050
▁in	-6051
परिव	-6052
▁कालेज	-6053
▁बोलते	-6054
रखाव	-6055
▁श्वेत	-6056
▁एसोसिएशन	-6057
िथ	-6058
ार्इ	-6059
▁दमन	-6060
▁पेर	-6061
▁टर्म	-6062
▁लिपि	-6063
▁स्तन	-6064
▁आरक्षण	-6065
▁रिजर्व	-6066
▁सभापति	-6067
▁वैधानिक	-6068
▁केंद्रों	-6069
िशन	-6070
▁दाह	-6071
▁फुट	-6072
▁लीग	-6073
▁वितरित	-6074
नाइट	-6075
न्तर	-6076
▁अंडे	-6077
▁अतिक	-6078
▁रखरखाव	-6079
संरचना	-6080
१३	-6081
दनी	-6082
▁चमक	-6083
स्मिक	-6084
▁कहाँ	-6085
▁व्यस्त	-6086
▁दिसम्बर	-6087
▁प्रभावशाली	-6088
आईसी	-6089
▁चित	-6090
बूझ	-6091
हीत	-6092
क़्ति	-6093
▁उपरा	-6094
▁नर्स	-6095
▁कॉर्प	-6096
▁लेखकों	-6097
▁घन	-6098
▁एमएस	-6099
▁बताए	-6100
▁पट्टे	-6101
▁बेचने	-6102
▁शर्तें	-6103
पीट	-6104
यंती	-6105
▁सूच	-6106
▁कारख	-6107
▁बंबई	-6108
▁राजू	-6109
स्परिक	-6110
▁अवलोकन	-6111
un	-6112
बेस	-6113
▁आर्य	-6114
▁परिवर्तनों	-6115
▁अभिभा	-6116
▁अर्जन	-6117
▁नवम्बर	-6118
▁सामान्यतया	-6119
▁खर	-6120
जनों	-6121
▁अश्व	-6122
▁किरण	-6123
▁गहरे	-6124
▁रखती	-6125
▁हमले	-6126
▁राकेश	-6127
हरण	-6128
▁ऊतक	-6129
▁लंबा	-6130
ME	-6131
ुम	-6132
ानाथ	-6133
िक्र	-6134
कारिता	-6135
▁खातों	-6136
▁भारती	-6137
क्सा	-6138
▁कवर	-6139
▁ताज	-6140
▁अग्नि	-6141
▁बकाया	-6142
▁समर्पण	-6143
▁सुन्दर	-6144
▁आकस्मिक	-6145
▁भव	-6146
▁खबर	-6147
▁चट्ट	-6148
▁एक्सट	-6149
▁पन	-6150
र्फ़	-6151
▁अरुण	-6152
▁अधिरो	-6153
▁हरियाणा	-6154
▁O	-6155
ितु	-6156
▁विस	-6157
▁नदियों	-6158
▁मनोरंजन	-6159
▁कर्तव्यों	-6160
लक	-6161
▁रामायण	-6162
▁योजनाएं	-6163
▁अपेक्षाकृत	-6164
▁नौकर	-6165
▁मादा	-6166
▁कैंसर	-6167
ेडकर	-6168
सूत्र	-6169
▁रिज़	-6170
▁गर्मी	-6171
▁पुराना	-6172
▁माध्यस्थम्	-6173
▁वाम	-6174
▁अनुया	-6175
▁पंजाबी	-6176
▁मरम्मत	-6177
वाणी	-6178
▁आवेद	-6179
▁वैष्ण	-6180
▁अधीक्षक	-6181
ल्फ	-6182
र्नी	-6183
▁अहं	-6184
▁हड़	-6185
▁दौड़	-6186
ानिस्तान	-6187
र्चे	-6188
▁कुरान	-6189
▁टेस्ट	-6190
▁निर्वहन	-6191
▁राजकुमार	-6192
▁राजेंद्र	-6193
▁पारस्परिक	-6194
▁संग्रहालय	-6195
जाल	-6196
▁कं	-6197
▁उदय	-6198
▁आजाद	-6199
▁बनना	-6200
▁जिसको	-6201
कारा	-6202
▁अभिर	-6203
▁मिटा	-6204
▁विजे	-6205
ानुभूति	-6206
▁प्रसारण	-6207
▁प्रणालियों	-6208
▁मोटे	-6209
▁सत्यापन	-6210
नामा	-6211
▁धूम	-6212
▁नर्म	-6213
▁बैठा	-6214
▁पक्षी	-6215
▁पुनर्व	-6216
▁मुख्यतः	-6217
ध्व	-6218
वेल	-6219
▁घृणा	-6220
▁सौंद	-6221
▁सौंपा	-6222
▁स्ट्र	-6223
▁निकलने	-6224
▁मजदूरी	-6225
▁परिकल्पना	-6226
ंचल	-6227
सेट	-6228
▁आधे	-6229
▁कंध	-6230
▁निर्ण	-6231
▁यूनियन	-6232
मंड	-6233
▁ओम	-6234
▁ढल	-6235
▁गणेश	-6236
▁अधिरोपित	-6237
चाप	-6238
प्ल	-6239
ेंडर	-6240
▁संब	-6241
▁हिल	-6242
▁सीबी	-6243
▁निबंध	-6244
▁बलि	-6245
▁सज्	-6246
▁अमृत	-6247
▁प्रभु	-6248
▁प्रचालन	-6249
▁लक्ष्मण	-6250
पार	-6251
▁परत	-6252
▁पाना	-6253
▁अनुक्रम	-6254
ेटी	-6255
▁रै	-6256
▁उपज	-6257
▁बरी	-6258
▁आस्तियों	-6259
▁व्युत्पन्न	-6260
ोश	-6261
एमई	-6262
गों	-6263
्रेम	-6264
▁दशकों	-6265
▁संयोजन	-6266
▁r	-6267
चेंज	-6268
▁बला	-6269
▁सना	-6270
ोरेशन	-6271
▁ग्रा	-6272
▁वन्य	-6273
▁जयंती	-6274
▁ज़रूर	-6275
▁लिखते	-6276
▁प्रोटोक	-6277
▁विस्फोट	-6278
रीन	-6279
ाधिक	-6280
ेनिस	-6281
▁नाल	-6282
▁बहि	-6283
▁शेर	-6284
▁राजमार्ग	-6285
▁न्	-6286
चन्द्र	-6287
▁कमांड	-6288
▁दांत	-6289
▁क्रूर	-6290
▁संगणक	-6291
राधिकारी	-6292
▁आकांक्षा	-6293
▁इंस्पेक्टर	-6294
IN	-6295
परा	-6296
▁आवि	-6297
▁बड़	-6298
▁शाखाओं	-6299
ूण	-6300
▁तुम्हारी	-6301
▁माध्यमिक	-6302
▁परामर्शदाता	-6303
▁प्रतिस्पर्धा	-6304
पहर	-6305
▁इंत	-6306
▁दाम	-6307
▁निल	-6308
▁कार्यकाल	-6309
सो	-6310
नीत	-6311
बरा	-6312
िटर	-6313
▁चक	-6314
ोचित	-6315
▁मेज	-6316
▁अद्व	-6317
▁सीधी	-6318
▁मारपीट	-6319
▁उद्यमों	-6320
▁देवताओं	-6321
क़्	-6322
▁लोह	-6323
▁जिलों	-6324
▁भत्ता	-6325
▁अनुशासन	-6326
▁चाहूंगा	-6327
▁विन्यास	-6328
उंट	-6329
टाई	-6330
फ्र	-6331
▁क्रो	-6332
▁सहेज	-6333
▁छोड़ने	-6334
▁इंजीनियरिंग	-6335
▁कोमल	-6336
▁इन्द्र	-6337
▁आधा	-6338
▁मुर	-6339
▁विट	-6340
▁बेटा	-6341
▁अनन्त	-6342
▁डीडब्ल्यू	-6343
▁अभिनिर्धारित	-6344
लीन	-6345
ूदी	-6346
ूलन	-6347
▁मानस	-6348
▁आवासी	-6349
▁चित्रण	-6350
▁शस्त्र	-6351
▁जानवरों	-6352
▁लक्ष्यों	-6353
he	-6354
विन	-6355
▁कॉपी	-6356
▁टीका	-6357
▁निरूप	-6358
▁क़्यों	-6359
▁गोविंद	-6360
▁विकासशील	-6361
▁इंजीनियरी	-6362
▁हॉ	-6363
▁तरल	-6364
▁प्ला	-6365
▁श्रो	-6366
▁वर्गीकरण	-6367
▁अभिव्यक्त	-6368
▁धारक	-6369
▁स्ने	-6370
▁कमेटी	-6371
▁अवसंरचना	-6372
▁संकल्पना	-6373
▁उम्मीदवार	-6374
▁वास्तविकता	-6375
ॉल्ट	-6376
▁खुली	-6377
▁वासी	-6378
▁स्वप्न	-6379
▁पुस्तकें	-6380
▁कार्यालयों	-6381
वाँ	-6382
▁घाट	-6383
▁कबीर	-6384
▁संगणना	-6385
▁प्रतिपा	-6386
▁परंपरागत	-6387
▁उत्तराधिकारी	-6388
पाई	-6389
श्रे	-6390
स्तु	-6391
ation	-6392
▁वरन्	-6393
ुरत	-6394
ोसी	-6395
▁कहे	-6396
▁पते	-6397
▁इसको	-6398
▁पब्लिक	-6399
▁दार्शनिक	-6400
▁सफलतापूर्वक	-6401
थन	-6402
बान	-6403
▁रन	-6404
▁छिप	-6405
▁रसीद	-6406
▁कवियों	-6407
▁पुस्तकाल	-6408
▁प्रतिनिधियों	-6409
आईटी	-6410
▁सकी	-6411
▁पचास	-6412
▁भेजी	-6413
▁संदि	-6414
▁सिरे	-6415
▁सेवक	-6416
▁इंकार	-6417
▁तलवार	-6418
▁ग्रस्त	-6419
पद	-6420
बीन	-6421
शंकर	-6422
ष्णा	-6423
▁ठहर	-6424
▁बोझ	-6425
पोर्ट	-6426
▁ऊंची	-6427
▁गर्भा	-6428
▁सुनकर	-6429
▁आंकड़े	-6430
▁रचनाओं	-6431
▁आश्वासन	-6432
▁परिश्रम	-6433
▁प्रभारी	-6434
▁वैयक्तिक	-6435
▁सांख्यिक	-6436
▁प्रशिक्षित	-6437
▁भरत	-6438
▁लखनऊ	-6439
▁डाक्टर	-6440
▁परिपक्व	-6441
▁सितम्बर	-6442
▁पहुंचाने	-6443
दूत	-6444
ुरु	-6445
▁आदर	-6446
▁आलोक	-6447
▁पूर्णता	-6448
▁प्रक्रम	-6449
▁शास्त्री	-6450
▁पारि	-6451
▁अक्षर	-6452
og	-6453
ब्बे	-6454
र्कों	-6455
▁फसलों	-6456
▁लिखना	-6457
▁इंदिरा	-6458
▁पुनर्ग	-6459
ैक्ट	-6460
▁नंद	-6461
▁वेश	-6462
▁एकड़	-6463
▁पीने	-6464
▁कृत्य	-6465
▁संचित	-6466
▁दंडनीय	-6467
▁निरीक्षक	-6468
▁अड्ड	-6469
▁विधवा	-6470
▁पदोन्नति	-6471
रेन	-6472
▁अमल	-6473
संचार	-6474
स्तीन	-6475
▁निचले	-6476
▁मजबूर	-6477
▁उपग्रह	-6478
कना	-6479
मिन	-6480
▁बडा	-6481
▁निर्वाचित	-6482
▁विषा	-6483
स्तीनी	-6484
▁संवेद	-6485
▁जुट	-6486
तापूर्वक	-6487
▁अधिवेशन	-6488
▁भागीदार	-6489
▁संग्राम	-6490
▁बल्लेबाज	-6491
▁कम्प्यूटर	-6492
▁तालाब	-6493
▁सोसाय	-6494
▁प्रभार्य	-6495
▁गोर	-6496
▁चूक	-6497
▁बाय	-6498
▁लोप	-6499
▁सूजन	-6500
▁हर्ष	-6501
▁यहूदी	-6502
▁सार्थ	-6503
▁दिखाएँ	-6504
▁स्पर्श	-6505
▁वनस्पति	-6506
▁नाक	-6507
▁बेस	-6508
▁मील	-6509
▁दोपहर	-6510
▁प्रोटीन	-6511
▁मुहम्मद	-6512
▁स्वचालित	-6513
▁गाँ	-6514
िस्टर	-6515
▁चौथा	-6516
▁महतो	-6517
▁तुमने	-6518
▁ट्रांस	-6519
▁भ्रष्टा	-6520
▁सौंदर्य	-6521
ड्	-6522
ेस	-6523
गंज	-6524
▁स्न	-6525
▁बाबा	-6526
▁भीड़	-6527
▁नामित	-6528
▁विलंब	-6529
▁एजेंसियों	-6530
▁सहानुभूति	-6531
वाहा	-6532
▁चिर	-6533
▁बसव	-6534
▁बिन	-6535
▁यौन	-6536
▁विधा	-6537
▁सफाई	-6538
▁जाहिर	-6539
▁अंतरित	-6540
▁प्रताप	-6541
▁विधायी	-6542
पण	-6543
शाही	-6544
ूँगा	-6545
ूकता	-6546
▁बदला	-6547
▁चिंतन	-6548
▁सृजित	-6549
▁राज्यक्षेत्र	-6550
ण्डल	-6551
योग्य	-6552
▁अर्जुन	-6553
▁कविताओं	-6554
▁निदेशालय	-6555
uot	-6556
गुण	-6557
ोरम	-6558
▁बटन	-6559
ग्राफ	-6560
▁ड्यू	-6561
दर्शिता	-6562
▁सार्वभौ	-6563
ैस	-6564
चिक	-6565
▁फॉर	-6566
▁सैक	-6567
▁विलय	-6568
▁लम्बे	-6569
▁आकर्षण	-6570
▁माइक्रो	-6571
▁विनिधान	-6572
▁सैनिकों	-6573
शनी	-6574
▁असी	-6575
▁बिर	-6576
▁ह्र	-6577
▁प्रतिल	-6578
▁भेदभाव	-6579
▁चिकित्सीय	-6580
▁सेवानिवृत्त	-6581
धर्म	-6582
पोषण	-6583
र्ता	-6584
▁ऊंचे	-6585
▁इकट्ठा	-6586
▁पेटेंट	-6587
▁अंग्रेज़ी	-6588
ंर	-6589
दू	-6590
शित	-6591
▁अवर	-6592
▁सती	-6593
▁उपहार	-6594
▁बनाती	-6595
भूषण	-6596
▁विघ	-6597
▁खंडन	-6598
▁उन्होनें	-6599
▁मैच	-6600
▁वीं	-6601
▁सबके	-6602
▁वाक्य	-6603
परीक्षा	-6604
▁अन्तिम	-6605
▁जानबूझ	-6606
▁श्रद्धा	-6607
▁संग्रहण	-6608
▁सम्पन्न	-6609
▁स्वाधीनता	-6610
▁मध	-6611
दृश्य	-6612
▁लॉर्ड	-6613
▁प्रतिरोध	-6614
▁नु	-6615
▁सामु	-6616
▁इनपुट	-6617
्यात्मक	-6618
▁विनिया	-6619
नगर	-6620
ेड़	-6621
▁vi	-6622
देशक	-6623
▁गुट	-6624
▁धमकी	-6625
▁भ्रम	-6626
स्थापन	-6627
▁तैनात	-6628
▁फिलीस्तीनी	-6629
▁क्रांतिकारी	-6630
िकेशन	-6631
क्षरता	-6632
एक	-6633
▁मारने	-6634
▁कार्बन	-6635
▁तप	-6636
▁उठता	-6637
▁बढ़ता	-6638
▁समापन	-6639
▁अभिभाषण	-6640
▁मिश्रित	-6641
डू	-6642
▁सकने	-6643
▁प्राणी	-6644
▁विदेशों	-6645
किम	-6646
▁अव्य	-6647
▁बढ़े	-6648
▁हाइड	-6649
▁जानना	-6650
▁फॉर्म	-6651
▁अनुशास	-6652
▁सशस्त्र	-6653
ामिन	-6654
▁गड़	-6655
▁दंत	-6656
▁अजीब	-6657
वास्तव	-6658
▁बताना	-6659
▁मुकाबले	-6660
▁रिज़र्व	-6661
िट्	-6662
▁ज़ि	-6663
▁साहू	-6664
क्टरों	-6665
▁इन्हीं	-6666
▁दुर्लभ	-6667
▁पूर्णतया	-6668
द्म	-6669
बार्ड	-6670
▁मंडप	-6671
▁सुरेश	-6672
▁विधिवत	-6673
▁हिस्सों	-6674
कर्म	-6675
▁नज़र	-6676
▁बढ़ाया	-6677
▁सिन्हा	-6678
▁सोसायटी	-6679
१क	-6680
ुका	-6681
हवीं	-6682
▁सीट	-6683
▁आपदा	-6684
▁क्रय	-6685
▁डाले	-6686
▁बाढ़	-6687
▁स्वि	-6688
▁उठाना	-6689
▁खासकर	-6690
▁सोचते	-6691
त्रियों	-6692
▁जागरूकता	-6693
शुल्क	-6694
▁डिजिटल	-6695
बरी	-6696
▁भगत	-6697
▁यात्री	-6698
▁एकत्रित	-6699
▁चिन	-6700
ोरिया	-6701
▁ध्रु	-6702
▁कलाकार	-6703
▁हिन्दुस्तान	-6704
गें	-6705
न्नाथ	-6706
▁पेपर	-6707
▁महासागर	-6708
▁पुनर्वास	-6709
▁श्रीवास्तव	-6710
घन	-6711
हे	-6712
▁चरम	-6713
▁पहच	-6714
ियुक्त	-6715
▁थोड़े	-6716
▁मिलना	-6717
▁नवान्वेष	-6718
▁सूरज	-6719
▁सुशील	-6720
▁सदस्यता	-6721
▁स्रोतों	-6722
▁उत्पादकता	-6723
▁भ्रष्टाचार	-6724
▁साक्षात्कार	-6725
▁अफ़	-6726
▁ढेर	-6727
▁बढा	-6728
नीतिक	-6729
▁आंखों	-6730
▁वृत्ति	-6731
▁जरूरतों	-6732
णता	-6733
▁फ़ॉ	-6734
ंख्यक	-6735
▁कॉन्	-6736
ंबेडकर	-6737
▁अपितु	-6738
▁अल्पस	-6739
▁सतर्कता	-6740
▁सूचीबद्ध	-6741
▁अनुपस्थिति	-6742
▁न्यायाधिकरण	-6743
एगा	-6744
ताई	-6745
▁नमक	-6746
▁पान	-6747
▁सख्त	-6748
▁निपटा	-6749
▁नाबार्ड	-6750
▁परिणामों	-6751
वत्	-6752
ुर्द	-6753
्यूशन	-6754
▁वैसा	-6755
▁अंगों	-6756
▁मास्टर	-6757
▁अप्रत्य	-6758
▁पार्श्व	-6759
▁पुनरीक्षण	-6760
▁उत्कृष्टता	-6761
मेह	-6762
ृंग	-6763
▁हंस	-6764
▁हसन	-6765
▁आमदनी	-6766
मार्क	-6767
▁संगत	-6768
▁इस्पात	-6769
▁चेन्नई	-6770
▁सम्राट	-6771
▁सचिवालय	-6772
▁गौतम	-6773
▁रोका	-6774
▁असंभव	-6775
▁इरादा	-6776
▁पढ़ाई	-6777
▁समझना	-6778
▁संदत्त	-6779
▁विधानमंडल	-6780
काव	-6781
सास	-6782
▁इश	-6783
▁ओपन	-6784
▁टाइप	-6785
▁ट्रा	-6786
▁भरपूर	-6787
▁कनेक्ट	-6788
▁नियोजन	-6789
▁अनुज्ञा	-6790
▁रूपरेखा	-6791
▁वक्तव्य	-6792
▁निर्माता	-6793
▁प्रयोक्ता	-6794
tr	-6795
टने	-6796
▁मुक	-6797
▁अरबी	-6798
▁आन्द	-6799
▁चोटों	-6800
▁शिल्प	-6801
▁स्थानांतरण	-6802
ंती	-6803
▁घातक	-6804
▁बर्फ	-6805
▁मोड़	-6806
▁अपनाई	-6807
▁कारगर	-6808
▁जंगली	-6809
▁पड़ने	-6810
▁मराठी	-6811
▁रूपये	-6812
▁लाखों	-6813
▁शुरूआ	-6814
▁दूरस्थ	-6815
▁बढ़ाना	-6816
▁स्नातक	-6817
▁जगन्नाथ	-6818
▁सर्वप्र	-6819
▁याचिकाओं	-6820
▁हस्तांतरण	-6821
▁कों	-6822
▁घुस	-6823
▁मक्	-6824
▁आईसी	-6825
▁डिफ़	-6826
क्रामक	-6827
▁पेट्रोलियम	-6828
बिल	-6829
▁फो	-6830
ताएं	-6831
ल्हा	-6832
▁आँख	-6833
▁मित	-6834
▁सोन	-6835
▁चश्म	-6836
▁जोड़े	-6837
▁संदिग्ध	-6838
▁ज्यादातर	-6839
खण्ड	-6840
देवी	-6841
▁निष्पक्ष	-6842
एसआई	-6843
र्ते	-6844
निहित	-6845
▁एण्ड	-6846
व्यवहार	-6847
▁स्थिरता	-6848
▁समस्याएं	-6849
म्र	-6850
▁छू	-6851
▁मठ	-6852
टकों	-6853
िंदर	-6854
▁बैक	-6855
▁उन्हे	-6856
▁आनुवंश	-6857
▁इलाकों	-6858
▁बयानों	-6859
▁किलोग्राम	-6860
▁सिफारिशों	-6861
ad	-6862
त्रि	-6863
ाराम	-6864
▁मत्	-6865
▁वहन	-6866
चरिता	-6867
▁परित	-6868
▁भव्य	-6869
▁शोषण	-6870
▁स्टॉक	-6871
▁निराशा	-6872
▁दूरसंचार	-6873
▁विनियामक	-6874
▁खज	-6875
▁वरीय	-6876
▁चोटें	-6877
▁बॉक्स	-6878
▁अभिकरण	-6879
▁अस्पष्ट	-6880
▁कृत्यों	-6881
▁एक्सचेंज	-6882
▁लड	-6883
ग्रा	-6884
▁इसल	-6885
▁देह	-6886
ारायण	-6887
ुक़्त	-6888
▁आजकल	-6889
▁मारे	-6890
▁निस्	-6891
▁आवश्य	-6892
▁आश्रम	-6893
▁एजेंट	-6894
▁स्थूल	-6895
▁स्वदेश	-6896
▁व्यष्टि	-6897
इज	-6898
▁अरो	-6899
▁इराक	-6900
▁उपभोग	-6901
▁वैष्णव	-6902
▁सुचरिता	-6903
▁विक्रेता	-6904
▁विधानसभा	-6905
ंडिक	-6906
हत्या	-6907
▁यहीं	-6908
▁अवरोध	-6909
▁एआईआर	-6910
्रदायिक	-6911
▁जुर्माना	-6912
▁राष्ट्री	-6913
किट	-6914
▁इम	-6915
▁नक्	-6916
▁पेय	-6917
▁एसआई	-6918
▁छिपा	-6919
▁नरेश	-6920
▁मिस्र	-6921
▁हानिक	-6922
▁गणतंत्र	-6923
▁संस्थागत	-6924
्ग	-6925
्रल	-6926
▁बीत	-6927
▁औषधि	-6928
▁व्याख्यान	-6929
▁अफगानिस्तान	-6930
मीन	-6931
▁बत	-6932
मुखी	-6933
वकों	-6934
▁कदा	-6935
▁जोशी	-6936
▁कनाडा	-6937
▁मेहता	-6938
▁अन्याय	-6939
▁गिन	-6940
▁पाप	-6941
▁स्वे	-6942
▁असमान	-6943
▁आजीवन	-6944
▁कोयला	-6945
▁मनाया	-6946
▁हड्डी	-6947
▁अकादमी	-6948
▁अतिमान	-6949
▁जोड़ें	-6950
▁विडियो	-6951
▁समकालीन	-6952
परक	-6953
▁प्रक	-6954
▁अभियोजक	-6955
▁उन्मूलन	-6956
▁बांग्लादेश	-6957
वर्त	-6958
▁प्य	-6959
▁लाई	-6960
▁मेहन	-6961
▁सदनों	-6962
च्छेदन	-6963
▁महानि	-6964
▁संकलन	-6965
▁ब्यूरो	-6966
▁सौभाग्य	-6967
राक	-6968
िकरण	-6969
▁यान	-6970
▁कच्चे	-6971
▁मामूली	-6972
जपे	-6973
तकों	-6974
बाबू	-6975
▁मेट	-6976
ख़्या	-6977
▁सर्ज	-6978
▁पुष्प	-6979
▁लेखों	-6980
▁परिसंप	-6981
▁निवेशकों	-6982
टिक	-6983
न्नी	-6984
▁सेवन	-6985
▁आज्ञा	-6986
▁बंदूक	-6987
▁एशियाई	-6988
▁नरेंद्र	-6989
▁तात्कालिक	-6990
ड़न	-6991
िल्ल	-6992
▁गंध	-6993
▁गेह	-6994
▁कोने	-6995
▁सबको	-6996
▁सीडी	-6997
▁उत्सव	-6998
▁कामका	-6999
▁उम्मीदवारों	-7000
शब्द	-7001
▁कोर	-7002
▁सेशन	-7003
ियारों	-7004
▁कराता	-7005
▁टेनिस	-7006
▁टैगोर	-7007
▁व्यास	-7008
▁श्याम	-7009
▁सच्चे	-7010
मिया	-7011
▁आकृति	-7012
▁हवाला	-7013
क्तियों	-7014
▁निम्नानुसार	-7015
ध्	-7016
मस	-7017
शक	-7018
१४	-7019
▁निभ	-7020
▁लाभा	-7021
▁रोशनी	-7022
▁अनुकरण	-7023
▁टिप्पण	-7024
▁उपलब्धियों	-7025
ोगी	-7026
▁कन	-7027
▁कीजिए	-7028
▁जानवर	-7029
▁आकर्षक	-7030
▁सर्विस	-7031
▁अनिश्चित	-7032
ॉज	-7033
▁फू	-7034
▁गेट	-7035
▁घुट	-7036
चित्य	-7037
▁चर्च	-7038
▁प्लग	-7039
▁माहौल	-7040
▁इच्छुक	-7041
▁दरवाजे	-7042
▁पड़ोसी	-7043
▁उपनिवेश	-7044
id	-7045
याम	-7046
▁बिग	-7047
▁भीम	-7048
▁कन्न	-7049
▁सच्चाई	-7050
▁डिफ़ॉल्ट	-7051
ुतोष	-7052
▁जॉन	-7053
▁बेश	-7054
▁लगाई	-7055
▁प्रतिमा	-7056
▁सांप्रदायिक	-7057
णुओं	-7058
स्पी	-7059
▁असंत	-7060
▁ऑफिस	-7061
▁नजदी	-7062
▁दरबार	-7063
▁दुश्म	-7064
▁लाहौर	-7065
▁वृत्त	-7066
▁शिकायतों	-7067
▁विस्तारित	-7068
ख्	-7069
ैत	-7070
तना	-7071
मित्त	-7072
ियमित	-7073
▁सिने	-7074
विश्वास	-7075
▁ग्रन्थ	-7076
ण्ट	-7077
▁भूख	-7078
▁गोवा	-7079
▁सरोज	-7080
▁ग्रीन	-7081
▁तुलसी	-7082
▁समेकित	-7083
▁अप्रत्यक्ष	-7084
▁चट	-7085
▁मरी	-7086
▁वसा	-7087
▁निभाई	-7088
▁ब्रह्मा	-7089
▁मुख्यालय	-7090
▁सर्वप्रथम	-7091
▁of	-7092
▁बचपन	-7093
▁प्रतिवर्ष	-7094
▁दिश	-7095
▁वाई	-7096
▁सटी	-7097
▁ऊंचा	-7098
▁ढूंढ	-7099
▁बेगम	-7100
▁मेगा	-7101
▁अभिने	-7102
▁कीटना	-7103
▁खोजने	-7104
▁नामों	-7105
▁मार्क	-7106
▁सुदूर	-7107
▁उन्नयन	-7108
▁विरोधा	-7109
▁दृष्टया	-7110
▁अतिक्रमण	-7111
▁किंग	-7112
▁मोती	-7113
▁उपाधि	-7114
▁विधियां	-7115
▁विभागीय	-7116
▁तत्पश्चात	-7117
▁दब	-7118
▁पठ	-7119
▁असं	-7120
▁कम्	-7121
▁शब्	-7122
▁समता	-7123
▁फूलों	-7124
▁स्क्र	-7125
▁समीकरण	-7126
▁मजदूरों	-7127
▁सुधारने	-7128
▁पुस्तकालय	-7129
▁इस्लामवादी	-7130
▁सेंटर	-7131
▁अज्ञान	-7132
▁सड़कों	-7133
▁स्थगित	-7134
▁पुनर्गठन	-7135
▁डालर	-7136
▁दावों	-7137
▁स्टार	-7138
▁प्रतिबद्धता	-7139
शिप	-7140
प्रति	-7141
▁लम्बी	-7142
▁अहिंसा	-7143
▁आवासीय	-7144
▁उत्सुक	-7145
▁स्वर्ग	-7146
▁गठ	-7147
जारी	-7148
पर्य	-7149
ादेश	-7150
गारों	-7151
▁क्ला	-7152
▁टीवी	-7153
▁वैधता	-7154
▁क़्योंकि	-7155
▁सत्यापित	-7156
गीर	-7157
▁बश	-7158
िप्ट	-7159
▁बचे	-7160
▁चाकू	-7161
▁पीछा	-7162
▁तृतीय	-7163
▁परिसी	-7164
श्रेष्ठ	-7165
▁आशुतोष	-7166
▁दांडिक	-7167
▁हलफनामे	-7168
भुत	-7169
ृश्य	-7170
संदेह	-7171
▁रहीं	-7172
▁लौटने	-7173
▁दोहराया	-7174
हृ	-7175
ॉय	-7176
▁साज	-7177
▁हेड	-7178
▁अवगत	-7179
▁देनी	-7180
▁मेहर	-7181
▁निक्ष	-7182
▁बलराम	-7183
▁महान्	-7184
▁अपूर्ण	-7185
▁प्रस्तावों	-7186
चलन	-7187
ज़न	-7188
▁अँ	-7189
रेटर	-7190
▁यों	-7191
▁शैल	-7192
▁माँग	-7193
क्साइड	-7194
राई	-7195
गांव	-7196
ार्द	-7197
▁कैप	-7198
▁तंग	-7199
मार्ट	-7200
▁चालक	-7201
▁आशंका	-7202
▁गाँधी	-7203
▁शिष्ट	-7204
▁टाइम्स	-7205
▁दरों	-7206
▁पुराण	-7207
▁बिन्दु	-7208
▁लाभांश	-7209
▁क्रमांक	-7210
▁किरायेदार	-7211
मों	-7212
▁ड्रग	-7213
▁नाना	-7214
▁पेशी	-7215
▁गोपनीय	-7216
ab	-7217
लैंड	-7218
▁नोक	-7219
▁मज़	-7220
▁दहेज	-7221
▁देगी	-7222
▁सिटी	-7223
▁इमारत	-7224
▁स्वाय	-7225
▁नेताजी	-7226
▁आंकड़ों	-7227
▁टैब	-7228
▁बेहद	-7229
▁सांवि	-7230
▁सोचने	-7231
▁प्रदूष	-7232
▁अहमदाबाद	-7233
▁कहानियों	-7234
▁विधायिका	-7235
▁टि	-7236
रानी	-7237
▁आवरण	-7238
▁नींव	-7239
▁शुरूआत	-7240
▁सार्थक	-7241
▁समायोजन	-7242
माला	-7243
म्बा	-7244
▁पांव	-7245
▁पूरक	-7246
▁हुये	-7247
▁देखिए	-7248
▁अनियमित	-7249
कोष	-7250
▁छः	-7251
▁लौटा	-7252
▁निर्गम	-7253
▁पहुँचा	-7254
ोगे	-7255
▁बट	-7256
▁रथ	-7257
र्डर	-7258
▁रुक	-7259
▁लाए	-7260
दर्शक	-7261
मूल्य	-7262
▁मनोज	-7263
▁मूत्र	-7264
▁नाटकों	-7265
▁नीतिगत	-7266
▁स्त्रो	-7267
▁अनुभूति	-7268
▁अवस्थित	-7269
ँह	-7270
▁ओब	-7271
विचार	-7272
▁लाठी	-7273
▁संकाय	-7274
▁इसलिये	-7275
AME	-7276
ियस	-7277
▁माय	-7278
▁संघीय	-7279
▁त्रुटिः	-7280
गृह	-7281
▁कहती	-7282
▁पराज	-7283
▁पागल	-7284
▁काफ़ी	-7285
▁स्नेह	-7286
▁तहसीलदार	-7287
▁आत्महत्या	-7288
ोपण	-7289
▁गरि	-7290
ल्पित	-7291
▁गर्दन	-7292
▁मंत्रियों	-7293
ओएस	-7294
राग	-7295
▁उग	-7296
▁काय	-7297
▁मुर्	-7298
▁अर्जी	-7299
▁प्रसंग	-7300
▁पुरुषों	-7301
▁विटामिन	-7302
▁आनुवंशिक	-7303
▁दार	-7304
▁मदन	-7305
▁मेर	-7306
▁अनाव	-7307
▁रिवा	-7308
▁सन्न	-7309
▁सुलझ	-7310
▁आउटपुट	-7311
▁राजाओं	-7312
▁अनिवासी	-7313
▁गंभीरता	-7314
▁संवेदनशील	-7315
▁संव्यवहार	-7316
▁क्रियान्वयन	-7317
इश	-7318
महल	-7319
सर्स	-7320
▁अंस	-7321
▁मैन	-7322
▁योनि	-7323
▁ग्यार	-7324
▁जैविक	-7325
▁ललिता	-7326
▁सिर्फ़	-7327
▁प्राथमिकी	-7328
गंध	-7329
करार	-7330
▁अपार	-7331
▁निर्दोष	-7332
▁जानबूझकर	-7333
iv	-7334
पुरा	-7335
▁माध	-7336
▁बम्बई	-7337
भूतियों	-7338
▁विपक्ष	-7339
▁नियन्त्र	-7340
▁संरक्षित	-7341
टीय	-7342
सुर	-7343
▁उक	-7344
▁पदा	-7345
▁राश	-7346
▁पादप	-7347
▁सन्द	-7348
▁निकायों	-7349
▁तुम्हारा	-7350
▁फिलीस्तीन	-7351
▁स्वैच्छिक	-7352
▁विशेषाधिकार	-7353
जान	-7354
धिप	-7355
▁झार	-7356
वाहिक	-7357
ानिर्	-7358
▁निकले	-7359
▁प्रोफ	-7360
▁नामांकन	-7361
कश	-7362
बिया	-7363
▁सीन	-7364
▁हनु	-7365
▁वसूल	-7366
▁साथियों	-7367
▁समाजवादी	-7368
▁केन्द्रों	-7369
▁सर्वश्रेष्ठ	-7370
aa	-7371
िपुर	-7372
▁कर्ता	-7373
▁पक्षियों	-7374
▁विनियमों	-7375
▁साक्षरता	-7376
▁सामुदायिक	-7377
फ़ा	-7378
▁गर	-7379
▁कहकर	-7380
▁क्री	-7381
▁चलती	-7382
▁पुरी	-7383
▁रंगम	-7384
▁औचित्य	-7385
णित	-7386
मेर	-7387
▁उधर	-7388
▁अनंत	-7389
▁आचार	-7390
▁चाचा	-7391
▁चोरी	-7392
ज्ञानी	-7393
▁निंदा	-7394
▁सहभाग	-7395
▁निरस्त	-7396
▁मुहैया	-7397
▁स्मारक	-7398
▁सुधारों	-7399
▁अधिनियमित	-7400
▁पैराग्राफ	-7401
पाट	-7402
▁शक	-7403
▁ओवर	-7404
▁कर्ज	-7405
▁लीला	-7406
▁विरा	-7407
▁न्यूय	-7408
▁दुर्बल	-7409
▁निमित्त	-7410
▁गले	-7411
▁बोलने	-7412
▁जिंदगी	-7413
▁जैसाकि	-7414
▁बादशाह	-7415
▁मिथ्या	-7416
ॉजी	-7417
बर्ट	-7418
भक्त	-7419
▁व्र	-7420
िल्ला	-7421
▁आगमन	-7422
▁खोला	-7423
▁दीपक	-7424
▁समाम	-7425
▁पीछला	-7426
▁आचार्य	-7427
▁बाज़ार	-7428
▁आन्दोलन	-7429
▁प्रशांत	-7430
▁प्रदर्शनी	-7431
डि	-7432
ुलर	-7433
▁सोव	-7434
▁असंगत	-7435
▁जमींद	-7436
▁कठिनाइयों	-7437
ter	-7438
केल	-7439
▁थै	-7440
▁कैल	-7441
बन्धन	-7442
▁बोला	-7443
▁कृष्णा	-7444
▁संकीर्ण	-7445
▁लड़कियों	-7446
▁प्रत्यर्थी	-7447
तिया	-7448
▁जरा	-7449
▁वान	-7450
▁बांस	-7451
िवारिक	-7452
▁गरिमा	-7453
▁दिनेश	-7454
▁सारणी	-7455
▁रोगियों	-7456
▁नियोक्ता	-7457
▁दायित्वों	-7458
पीएस	-7459
स्सी	-7460
▁कारकों	-7461
▁धर्मों	-7462
▁वरीयता	-7463
▁प्रवर्त	-7464
▁स्वच्छता	-7465
▁नगरपालिका	-7466
▁पूर्वोत्तर	-7467
▁बुर	-7468
ष्कृत	-7469
▁अनदे	-7470
▁ऊँचा	-7471
▁माला	-7472
▁गीतों	-7473
▁मधुमेह	-7474
▁स्टैंड	-7475
▁गर्भाशय	-7476
पटल	-7477
शिंग	-7478
▁सिखा	-7479
▁अरविंद	-7480
▁असफलता	-7481
▁पेशेवर	-7482
▁उपयोगिता	-7483
▁निष्कर्षों	-7484
▁आदत	-7485
▁चौक	-7486
▁बान	-7487
▁आगरा	-7488
▁रोचक	-7489
▁नवीकरण	-7490
▁विकिरण	-7491
▁अध्यापक	-7492
▁पारिवारिक	-7493
फु	-7494
्रेषण	-7495
▁समाह	-7496
▁निर्णायक	-7497
▁विनियमित	-7498
▁ः	-7499
त्ती	-7500
▁रोट	-7501
▁गूगल	-7502
▁बताई	-7503
▁मारा	-7504
▁अपहरण	-7505
▁गार्ड	-7506
▁बंगला	-7507
▁अधिनिर्	-7508
▁हिन्दुओं	-7509
▁मैत्रीपूर्ण	-7510
me	-7511
जक	-7512
ैम	-7513
निष	-7514
▁बृ	-7515
मार्टम	-7516
▁इरादे	-7517
▁झिल्ली	-7518
▁प्रजाति	-7519
▁Ch	-7520
▁फेफ	-7521
▁सैय	-7522
▁घटित	-7523
▁आगामी	-7524
▁कपड़ा	-7525
▁निरोध	-7526
▁स्नान	-7527
▁निवेदन	-7528
▁मूल्यवान	-7529
▁टेल	-7530
▁मैथ	-7531
▁उपास	-7532
▁ग्रेड	-7533
▁पंद्र	-7534
▁पड़ोस	-7535
▁काउंटर	-7536
▁चौड़ाई	-7537
▁पोस्टमार्टम	-7538
नम	-7539
▁इट	-7540
▁गम्	-7541
▁मेन	-7542
▁रुख	-7543
▁ह्य	-7544
▁रेगि	-7545
▁स्टाफ	-7546
▁हिंदुओं	-7547
▁अधिकाधिक	-7548
▁हथियारों	-7549
लाश	-7550
▁वध	-7551
सिद्ध	-7552
▁ग्रुप	-7553
▁उद्भूत	-7554
▁दिनांकित	-7555
▁प्रतिरक्षा	-7556
यालय	-7557
विजन	-7558
▁धूल	-7559
▁पतन	-7560
▁बन्	-7561
▁बैल	-7562
▁रिव	-7563
▁ठेके	-7564
▁प्रगा	-7565
▁टुकड़े	-7566
▁टर्मिनल	-7567
▁परिचालन	-7568
▁उत्पादित	-7569
▁प्रक्षेप	-7570
▁विशेषज्ञों	-7571
षी	-7572
ंशी	-7573
▁अनू	-7574
▁खनन	-7575
▁बही	-7576
▁दुग्ध	-7577
▁बच्चन	-7578
▁श्रील	-7579
वैज्ञानिक	-7580
२क	-7581
▁बंट	-7582
▁बृह	-7583
▁रिफ	-7584
▁प्रवी	-7585
▁शिष्य	-7586
▁सालों	-7587
▁चश्मदी	-7588
▁जीवाणु	-7589
▁शुक्ला	-7590
▁दिलचस्प	-7591
्टन	-7592
▁पिट	-7593
▁ब्यौ	-7594
▁रहकर	-7595
▁उन्नति	-7596
▁शेयरधार	-7597
▁सम्बद्ध	-7598
▁साझीदारी	-7599
os	-7600
रद	-7601
िज़	-7602
ोदय	-7603
सीआई	-7604
१वीं	-7605
▁खपत	-7606
▁सौह	-7607
क्तता	-7608
▁बिस्त	-7609
▁उत्सर्जन	-7610
▁मनुष्यों	-7611
▁सत्याग्रह	-7612
▁चुंब	-7613
▁हफ्त	-7614
ढ़ियों	-7615
▁साकार	-7616
निर्देश	-7617
र्याप्त	-7618
▁प्रदाह	-7619
▁मांसपेश	-7620
▁दीक्षांत	-7621
▁प्रोटोकॉल	-7622
खार	-7623
िणी	-7624
▁iv	-7625
▁झट	-7626
दण्ड	-7627
▁अद्	-7628
▁अन्न	-7629
▁उत्पी	-7630
▁अनुदेश	-7631
▁बंदरगाह	-7632
▁संवेदना	-7633
▁उपयोक्ता	-7634
and	-7635
लेखन	-7636
▁गिल	-7637
बुद्ध	-7638
▁घड़ी	-7639
▁ओबामा	-7640
▁शब्दा	-7641
▁श्रद्ध	-7642
▁व्याकरण	-7643
▁ईमानदारी	-7644
▁परिदृश्य	-7645
▁यात्रियों	-7646
ब्ध	-7647
ल्लू	-7648
▁ऑटो	-7649
▁पुणे	-7650
▁रोज़	-7651
▁समझी	-7652
▁पृथक्	-7653
डों	-7654
िसा	-7655
दिता	-7656
▁कैम	-7657
▁शीत	-7658
▁सुस	-7659
▁भिन्	-7660
▁चार्ट	-7661
▁मंजिल	-7662
▁सामर्थ	-7663
▁निर्वाह	-7664
▁महेंद्र	-7665
▁पर्यटकों	-7666
्यक	-7667
▁आवाज़	-7668
▁जानती	-7669
▁विवादित	-7670
▁संस्थापित	-7671
ce	-7672
जुट	-7673
मुना	-7674
▁साई	-7675
ल्लाह	-7676
▁आघात	-7677
▁तमाम	-7678
▁प्रीम	-7679
▁एल्गोर	-7680
▁संप्रदाय	-7681
हम	-7682
म्य	-7683
सेन	-7684
▁कां	-7685
▁खात	-7686
▁मोर	-7687
▁रोम	-7688
▁शार	-7689
▁जगत्	-7690
▁सब्ज	-7691
▁तिहाई	-7692
▁मांगी	-7693
▁महाराज	-7694
▁रंगमंच	-7695
▁अनुभवों	-7696
▁जनजातियों	-7697
्ली	-7698
▁आशी	-7699
▁द्रव	-7700
▁नारी	-7701
▁मुँह	-7702
▁रेशम	-7703
▁सोनी	-7704
▁अनन्य	-7705
▁मेहनत	-7706
▁लड़ने	-7707
▁संयोग	-7708
▁पिछड़े	-7709
▁अधिनियमों	-7710
चु	-7711
मै	-7712
ंचन	-7713
▁यश	-7714
र्सी	-7715
▁गंग	-7716
▁भूक	-7717
▁नीलामी	-7718
▁गुजराती	-7719
▁ढाल	-7720
▁बंधक	-7721
▁रोमा	-7722
▁उड़ान	-7723
▁कौंसिल	-7724
▁ज़रूरत	-7725
▁श्रीलंका	-7726
ंय	-7727
रोग	-7728
▁शह	-7729
▁आधी	-7730
▁भूट	-7731
▁सुगम	-7732
▁सुपर	-7733
कृष्णन	-7734
▁डोमेन	-7735
▁त्रिप	-7736
▁सोचता	-7737
▁विख्यात	-7738
झी	-7739
पेट	-7740
ौदा	-7741
र्षि	-7742
ेलना	-7743
▁बाब	-7744
ध्याय	-7745
▁दादा	-7746
▁काटने	-7747
▁जर्मन	-7748
▁लगाकर	-7749
▁आवंटित	-7750
▁परिपत्र	-7751
▁प्रगाढ़	-7752
▁देशवासियों	-7753
ंबा	-7754
▁नॉ	-7755
▁भि	-7756
चन्द	-7757
▁एसी	-7758
▁छेद	-7759
▁हैस	-7760
▁नानक	-7761
▁मरने	-7762
▁आश्रय	-7763
▁हेक्ट	-7764
▁गम्भीर	-7765
▁पुत्री	-7766
▁श्रमिकों	-7767
▁स्वायत्त	-7768
ंसी	-7769
▁पैट	-7770
▁सील	-7771
▁विकृत	-7772
▁निर्धन	-7773
▁स्थलों	-7774
ेंच	-7775
▁लहर	-7776
▁प्रॉ	-7777
▁माया	-7778
▁लेबल	-7779
▁सर्क	-7780
▁अनुभाग	-7781
▁परियोजनाएं	-7782
मलव	-7783
न्ता	-7784
ूर्त	-7785
▁एकजुट	-7786
▁सृष्टि	-7787
▁निधियों	-7788
▁सुपुर्द	-7789
डऋ	-7790
पै	-7791
दाई	-7792
सन्द	-7793
▁चंडी	-7794
▁फायदे	-7795
▁संज्ञान	-7796
▁निर्माताओं	-7797
जाज	-7798
स्पद	-7799
▁लैस	-7800
▁एनआई	-7801
▁डेस्	-7802
▁पुनरा	-7803
▁अनुज्ञ	-7804
▁अभिदाय	-7805
▁पीडीएफ	-7806
▁बंगाली	-7807
टरी	-7808
ुगु	-7809
▁औरत	-7810
वर्धन	-7811
▁क़ान	-7812
▁अभिन्न	-7813
▁अवधारण	-7814
▁चिंतित	-7815
▁दीवारों	-7816
▁प्रतिलिपि	-7817
ालों	-7818
्रीट	-7819
▁अभय	-7820
▁फायर	-7821
▁लोगो	-7822
शुदा	-7823
▁ऋषि	-7824
▁पटल	-7825
▁बनकर	-7826
▁दशमलव	-7827
▁निदान	-7828
▁पैरों	-7829
▁लड़का	-7830
▁सनातन	-7831
▁निरसित	-7832
▁निरन्तर	-7833
▁अपर्याप्त	-7834
▁मंत्रालयों	-7835
बूती	-7836
▁दर्	-7837
वर्तन	-7838
▁किले	-7839
▁संचिका	-7840
▁खिलाड़ी	-7841
▁प्रपत्र	-7842
▁स्वतन्त्र	-7843
▁अण्ड	-7844
▁प्रिंट	-7845
▁सौहार्द	-7846
्वत	-7847
▁एजे	-7848
ुल्ला	-7849
ास्टिक	-7850
▁खोलें	-7851
▁निकालना	-7852
▁दिशानिर्	-7853
▁केन्द्रित	-7854
नाल	-7855
विर	-7856
ासित	-7857
हीनता	-7858
▁बंधन	-7859
▁आभूषण	-7860
▁प्रचुर	-7861
▁वांछित	-7862
▁प्रतिवाद	-7863
लत	-7864
ाइड	-7865
▁ईमेल	-7866
▁तिरु	-7867
▁प्रसव	-7868
रूद्दीन	-7869
▁दरवाजा	-7870
▁क्रिस्ट	-7871
▁प्रवर्ग	-7872
▁विचित्र	-7873
▁कार्यकलापों	-7874
▁ऋतु	-7875
▁जाम	-7876
जपेयी	-7877
मताओं	-7878
▁किशन	-7879
▁अकेला	-7880
▁तुरन्त	-7881
▁सीनियर	-7882
▁संतुलित	-7883
▁संस्कार	-7884
▁लेखापरीक्षा	-7885
एनए	-7886
टकर	-7887
विड	-7888
कटॉप	-7889
्राय	-7890
▁घोर	-7891
▁सटीक	-7892
▁भागवत	-7893
▁मेमोरी	-7894
▁दावेदार	-7895
जि	-7896
▁एंट	-7897
िवेदी	-7898
▁लायक	-7899
▁सूचक	-7900
▁पहाड़	-7901
▁संजीव	-7902
▁सभाओं	-7903
▁विफलता	-7904
▁समाहित	-7905
▁मित्रता	-7906
▁दिलचस्पी	-7907
▁प्रख्यात	-7908
नेस	-7909
▁दीन	-7910
▁गोला	-7911
▁नाइट	-7912
▁रिहा	-7913
▁अरोड़ा	-7914
▁सिनेमा	-7915
▁चश्मदीद	-7916
▁प्रभुत्व	-7917
▁मुख्यमंत्री	-7918
िश्न	-7919
▁आलम	-7920
▁कुर	-7921
▁हरा	-7922
▁ग्लो	-7923
▁रूपान्त	-7924
प्प	-7925
▁जस	-7926
▁लची	-7927
▁दौरे	-7928
▁क्षमा	-7929
▁दोबारा	-7930
▁पूर्वक	-7931
▁डेस्कटॉप	-7932
▁प्रगतिशील	-7933
▁उपभोक्ताओं	-7934
बड़	-7935
्वरी	-7936
▁अनो	-7937
▁शाल	-7938
▁इनसे	-7939
▁यज्ञ	-7940
▁सोना	-7941
▁जीवंत	-7942
▁निकला	-7943
▁बशर्ते	-7944
▁गतिविधियां	-7945
▁अन्तर्राष्ट्रीय	-7946
ट्स	-7947
बंद	-7948
▁उछ	-7949
कार्	-7950
▁इंट	-7951
▁उगा	-7952
▁कड़	-7953
▁दीप	-7954
▁सीए	-7955
▁कृपा	-7956
▁जिसमे	-7957
▁विषयक	-7958
▁हटाया	-7959
▁अपीलों	-7960
▁बरकरार	-7961
▁शास्ति	-7962
▁अपशिष्ट	-7963
▁अनावश्यक	-7964
▁सहभागिता	-7965
▁प्रतिबंधित	-7966
भिक	-7967
वाट	-7968
▁गत	-7969
दत्त	-7970
▁नास	-7971
्रोजन	-7972
▁आलेख	-7973
▁चलाई	-7974
▁चरणों	-7975
▁उर्वरक	-7976
▁चुनावों	-7977
१५	-7978
▁आओ	-7979
ायती	-7980
्वित	-7981
▁कूद	-7982
▁ईस्ट	-7983
▁गयीं	-7984
▁मधुर	-7985
▁साधना	-7986
▁अर्पित	-7987
▁ड्राइव	-7988
▁पाठकों	-7989
एव	-7990
दाद	-7991
सेल	-7992
डिंग	-7993
▁नरम	-7994
▁भोग	-7995
▁थाना	-7996
क्षकों	-7997
▁डायरी	-7998
▁बदलें	-7999
▁बेकार	-8000
▁मानों	-8001
▁मास्ट	-8002
▁संतान	-8003
▁कहलाता	-8004
▁साझेदारी	-8005
▁संपत्तियों	-8006
नद	-8007
बोध	-8008
ोडा	-8009
▁उजा	-8010
▁कीं	-8011
▁भोज	-8012
▁विभेद	-8013
▁आर्बिट	-8014
▁कामकाज	-8015
▁नवीनतम	-8016
▁पहुँचे	-8017
▁टिप्पणियों	-8018
ॉग	-8019
कक्ष	-8020
रेशन	-8021
▁फौज	-8022
▁टिका	-8023
▁खर्चे	-8024
▁मूर्ख	-8025
▁लार्ड	-8026
▁सच्ची	-8027
▁आंकड़ा	-8028
▁बिहारी	-8029
▁रियायत	-8030
▁उपबंधित	-8031
▁कंपनियां	-8032
▁हानिकारक	-8033
▁हार्डवेयर	-8034
▁सेवानिवृत्ति	-8035
दो	-8036
लेस	-8037
▁कण	-8038
▁नाज	-8039
▁मला	-8040
▁देहा	-8041
▁वार्ड	-8042
▁सहयोगियों	-8043
▁सांख्यिकी	-8044
शेर	-8045
बंदी	-8046
▁डाइ	-8047
▁जादू	-8048
▁वकाल	-8049
▁अरुणा	-8050
▁प्रौढ़	-8051
▁बलात्कार	-8052
▁हेक्टेयर	-8053
ँजी	-8054
वाया	-8055
▁चलना	-8056
▁पाइप	-8057
▁ट्रैक	-8058
▁प्रोज	-8059
▁द्वारक	-8060
▁संक्रिया	-8061
▁दीर्घकालिक	-8062
▁प्रजातियों	-8063
ोन्	-8064
▁बोर	-8065
▁आश्र	-8066
▁बहुल	-8067
▁गवर्न	-8068
▁श्रेय	-8069
▁परजीवी	-8070
▁अवधारित	-8071
▁नियोजित	-8072
डीए	-8073
नाई	-8074
बली	-8075
▁आँक	-8076
▁एंव	-8077
▁पाण्ड	-8078
▁अनुमानित	-8079
▁शास्त्रीय	-8080
बेट	-8081
ष्प	-8082
ेरा	-8083
▁II	-8084
▁नद	-8085
▁धूप	-8086
▁बाला	-8087
▁रूचि	-8088
▁अन्तः	-8089
▁अवतार	-8090
▁छोड़ा	-8091
▁कीमतों	-8092
▁भाइयों	-8093
▁व्यायाम	-8094
▁सामर्थ्य	-8095
▁उपाध्यक्ष	-8096
▁प्रतिस्थापित	-8097
ब्बा	-8098
स्वी	-8099
▁नकल	-8100
ंतव्य	-8101
डियों	-8102
ोरेंस	-8103
▁अमीर	-8104
▁इंजन	-8105
▁संकल	-8106
▁अतिथि	-8107
▁जितने	-8108
▁वकालत	-8109
▁वापिस	-8110
▁पंद्रह	-8111
▁बिस्तर	-8112
▁प्रबन्ध	-8113
▁प्राणियों	-8114
▁क्षेत्राधिकार	-8115
हो	-8116
▁मौल	-8117
▁अभिल	-8118
▁मन्द	-8119
▁मिलन	-8120
▁खेतों	-8121
▁तत्पर	-8122
▁राहुल	-8123
▁कानपुर	-8124
▁बॉम्बे	-8125
▁रणनीति	-8126
▁हैसियत	-8127
▁प्लास्टिक	-8128
लाइ	-8129
्टीट	-8130
▁छंद	-8131
▁तिलक	-8132
▁बीबी	-8133
▁चेहरा	-8134
▁भेजें	-8135
▁वेंकट	-8136
प्राप्त	-8137
▁नर्मदा	-8138
▁महर्षि	-8139
▁सूचनाओं	-8140
▁पद्धतियों	-8141
▁बदरूद्दीन	-8142
▁महानिदेशक	-8143
ढे	-8144
ौली	-8145
ृहीत	-8146
▁छोर	-8147
▁सिम	-8148
▁वर्षो	-8149
▁ड्यूटी	-8150
▁संपादित	-8151
▁आश्चर्यजनक	-8152
बों	-8153
▁पण	-8154
▁शम	-8155
▁ताम	-8156
▁जबरद	-8157
▁शाही	-8158
▁सौदा	-8159
▁अस्थिर	-8160
▁श्रेणियों	-8161
▁पारदर्शिता	-8162
कै	-8163
▁एन्	-8164
▁कंस	-8165
▁गुम	-8166
▁दक्ष	-8167
▁संकु	-8168
▁सन्त	-8169
▁आबंटन	-8170
▁परमिट	-8171
▁भ्रूण	-8172
▁गतिशील	-8173
सरा	-8174
▁In	-8175
▁नग	-8176
▁इधर	-8177
▁रॉय	-8178
▁चलकर	-8179
▁परिल	-8180
▁विवश	-8181
▁अभिनय	-8182
▁गिराव	-8183
▁शासकों	-8184
▁विवेकान	-8185
▁वर्गीकृत	-8186
▁संस्थाएं	-8187
▁उद्यमियों	-8188
थाम	-8189
ुता	-8190
शिला	-8191
▁खाद	-8192
▁बुश	-8193
▁महाध	-8194
▁आवंटन	-8195
▁इलाके	-8196
▁रवाना	-8197
ंड़	-8198
्रोप	-8199
▁आइए	-8200
▁टेप	-8201
▁वक्	-8202
▁गुलाम	-8203
▁पुष्ट	-8204
▁झारखंड	-8205
▁परेशानी	-8206
▁आवृ	-8207
▁खाल	-8208
▁बिख	-8209
▁रेट	-8210
▁लेट	-8211
▁वर्न	-8212
▁दर्जा	-8213
▁लेनदेन	-8214
▁कुटुम्ब	-8215
▁समावेशी	-8216
ul	-8217
तको	-8218
ंतुक	-8219
लपुर	-8220
ीलाल	-8221
▁धनी	-8222
▁नहर	-8223
▁चारा	-8224
▁भयान	-8225
▁सिंधु	-8226
▁आंबेडकर	-8227
▁उत्पत्ति	-8228
▁क्षमताओं	-8229
▁संभावनाओं	-8230
रेज	-8231
संह	-8232
िपल	-8233
▁नाट्य	-8234
▁पर्यवेक्षण	-8235
ay	-8236
▁उज	-8237
राइट	-8238
वाड़	-8239
युद्ध	-8240
▁पाती	-8241
वाहाटी	-8242
▁पुकार	-8243
▁महाका	-8244
▁रांची	-8245
▁दृढ़ता	-8246
▁डेटाबेस	-8247
▁द्वारकानाथ	-8248
यित	-8249
▁किस्	-8250
▁क्षे	-8251
▁उदाहरणार्थ	-8252
▁प्रतिभूतियों	-8253
माना	-8254
▁फूट	-8255
ारण्य	-8256
▁ताजा	-8257
▁विगत	-8258
▁दत्ता	-8259
▁दवाओं	-8260
▁फांसी	-8261
▁प्रेमी	-8262
▁सोवियत	-8263
है	-8264
ity	-8265
सनी	-8266
▁हॉल	-8267
▁अतएव	-8268
▁गिरा	-8269
▁गेहूं	-8270
▁पंचाट	-8271
▁अद्भुत	-8272
▁जाएंगी	-8273
▁प्रिंस	-8274
▁राज़्य	-8275
▁सीरिया	-8276
▁गुवाहाटी	-8277
्क	-8278
▁तन	-8279
▁वॉल	-8280
▁बोले	-8281
▁ब्रे	-8282
▁इंस्ट	-8283
▁ऊतकों	-8284
▁फैक्ट	-8285
▁गिरावट	-8286
▁संपादक	-8287
▁अदालतों	-8288
▁पासवर्ड	-8289
ir	-8290
▁रच	-8291
्त्र	-8292
▁सॉल	-8293
नेशनल	-8294
▁डाली	-8295
▁रत्न	-8296
▁फ्रेम	-8297
▁बदलना	-8298
▁भूटान	-8299
▁वारंट	-8300
▁उदासीन	-8301
▁निषेधा	-8302
▁मंत्रिम	-8303
▁विशेषताओं	-8304
पाद	-8305
्तन	-8306
▁ओं	-8307
ड़की	-8308
▁मीन	-8309
▁आजीव	-8310
▁भट्ट	-8311
▁खंडों	-8312
▁रोकथाम	-8313
दीश	-8314
वेदी	-8315
▁गढ़	-8316
▁झुक	-8317
ार्किक	-8318
खल	-8319
लाप	-8320
▁षड	-8321
▁एसपी	-8322
▁मेनन	-8323
▁धोखाध	-8324
ुस्तानी	-8325
▁मणिपुर	-8326
▁शान्ति	-8327
▁कूटशब्द	-8328
▁प्रतिवेदन	-8329
विल	-8330
▁ठा	-8331
▁सऋ	-8332
▁अटल	-8333
▁गिरी	-8334
▁लापर	-8335
▁बनायी	-8336
▁मुफ्त	-8337
▁मोटरसाइ	-8338
▁निरपेक्ष	-8339
oc	-8340
ाणु	-8341
▁एह	-8342
▁पडे	-8343
▁भली	-8344
▁मछल	-8345
▁सिलस	-8346
▁ऑपरेट	-8347
▁मैसूर	-8348
▁उद्धरण	-8349
▁प्रवास	-8350
▁समर्थक	-8351
▁हड़ताल	-8352
▁आयुर्वेद	-8353
▁प्रदेशों	-8354
▁अर्थशास्त्र	-8355
▁प्राधिकारियों	-8356
न्च	-8357
ालक	-8358
▁ओह	-8359
ैर्य	-8360
▁ऊंट	-8361
▁वेग	-8362
▁कराए	-8363
▁कारी	-8364
▁लोहे	-8365
▁सतीश	-8366
▁चित्त	-8367
▁जोड़ी	-8368
▁संख़्या	-8369
▁अध्यादेश	-8370
पाठी	-8371
सर्ग	-8372
ियॉँ	-8373
यंत्र	-8374
▁मजबूती	-8375
▁पात्रता	-8376
▁शांतिपूर्ण	-8377
सद	-8378
ष्मा	-8379
▁किर	-8380
▁पाय	-8381
▁लेगा	-8382
▁साहा	-8383
▁गरीबों	-8384
▁बनर्जी	-8385
▁अभियंता	-8386
▁एमएसएमई	-8387
▁निरूपित	-8388
▁गुणसूत्र	-8389
▁तात्पर्य	-8390
ताबिक	-8391
▁दिल्	-8392
▁विवा	-8393
▁साधु	-8394
प्रदेश	-8395
▁उपनिष	-8396
▁रूपांतरण	-8397
▁वित्तपोषण	-8398
▁क्रियाकलाप	-8399
ँगा	-8400
स्थि	-8401
▁उठे	-8402
▁पंक	-8403
▁लीज	-8404
▁गोयल	-8405
▁फलों	-8406
▁महेश	-8407
▁कैलाश	-8408
▁दीवान	-8409
▁श्वसन	-8410
▁एकीकरण	-8411
▁जवाबदे	-8412
▁व्यर्थ	-8413
▁निक्षेप	-8414
▁अभिप्राय	-8415
धीर	-8416
हाद	-8417
कांत	-8418
मिशन	-8419
▁घों	-8420
▁बाइ	-8421
▁एसटी	-8422
▁निष्क	-8423
▁निकाले	-8424
▁बैठकों	-8425
▁मशीनों	-8426
▁मुआवजे	-8427
▁प्रवासी	-8428
▁मुताबिक	-8429
▁परिपूर्ण	-8430
ोब	-8431
ैंस	-8432
▁तद	-8433
कथित	-8434
▁पदक	-8435
▁रेख	-8436
▁अवयव	-8437
▁गर्ग	-8438
▁मोटा	-8439
वस्थित	-8440
▁उपदेश	-8441
▁करवाने	-8442
▁स्नातको	-8443
▁बहुमूल्य	-8444
डक	-8445
ुल्य	-8446
▁सचेत	-8447
▁स्टी	-8448
▁उठाकर	-8449
▁जॉर्ज	-8450
▁वयस्क	-8451
▁मत्स्य	-8452
▁इंस्टीट	-8453
▁अंतर्निहित	-8454
▁मोटरसाइकिल	-8455
दह	-8456
▁तित	-8457
▁बंदी	-8458
▁हुईं	-8459
▁हल्के	-8460
▁बढ़ाकर	-8461
▁सीमेंट	-8462
▁काश्मीर	-8463
▁पर्यावरणीय	-8464
बुल	-8465
परेशन	-8466
▁घुमा	-8467
▁भयानक	-8468
▁यातना	-8469
▁संजाल	-8470
▁स्थाई	-8471
▁लक्षणों	-8472
▁निःशुल्क	-8473
▁मास्टर्स	-8474
केशन	-8475
खाना	-8476
न्दन	-8477
▁नली	-8478
▁कोटि	-8479
▁गायब	-8480
▁बंगल	-8481
▁जगदीश	-8482
▁जानें	-8483
▁द्रव्य	-8484
▁पहुंची	-8485
▁मंत्रि	-8486
▁सीबीआई	-8487
प्लिकेशन	-8488
▁कार्मिक	-8489
▁ड्राफ्ट	-8490
▁परिप्रे	-8491
▁महिलाएं	-8492
▁क्रियाओं	-8493
▁महाविद्यालय	-8494
समय	-8495
ोरा	-8496
▁जह	-8497
▁जौ	-8498
चेरी	-8499
▁खैर	-8500
▁पित	-8501
▁संश	-8502
▁बढ़ी	-8503
रेन्द्र	-8504
▁क़ानून	-8505
▁तेलुगु	-8506
▁पेड़ों	-8507
▁मुख़्य	-8508
▁चित्रित	-8509
▁फिल्मों	-8510
▁प्रीमियम	-8511
इम	-8512
नायक	-8513
पानी	-8514
तीकरण	-8515
द्वार	-8516
नाइटेड	-8517
▁पट्टा	-8518
▁सच्चा	-8519
▁रिश्वत	-8520
▁वाशिंग	-8521
▁पुनर्निर्	-8522
लता	-8523
ुलन	-8524
ोला	-8525
भासी	-8526
▁पाउ	-8527
▁पद्म	-8528
▁पायी	-8529
▁वनों	-8530
▁वाणी	-8531
▁जमाने	-8532
▁परिधि	-8533
▁मुकेश	-8534
▁कमिश्न	-8535
▁स्वेच्छा	-8536
▁पग	-8537
▁मथ	-8538
▁सउ	-8539
▁वृह	-8540
▁अधिर	-8541
▁बेशक	-8542
धिकारी	-8543
▁आखिरी	-8544
▁दुर्व	-8545
▁धारित	-8546
▁पेशकश	-8547
▁मतदाता	-8548
▁सर्वथा	-8549
▁महाद्वीप	-8550
▁निवासियों	-8551
▁स्नातकोत्तर	-8552
▁प्रौद्योगिकियों	-8553
इंट	-8554
कीर	-8555
बाग	-8556
रता	-8557
▁फंड	-8558
▁दुबे	-8559
▁बजाए	-8560
▁शर्म	-8561
▁विकार	-8562
▁गंतव्य	-8563
▁महाप्र	-8564
▁हनुमान	-8565
किक	-8566
सात	-8567
ंदाज	-8568
शासन	-8569
▁कमर	-8570
▁ग्व	-8571
▁रतन	-8572
▁स्पी	-8573
▁कम्यु	-8574
▁जब्ती	-8575
▁बालों	-8576
▁सूचका	-8577
▁स्टाक	-8578
▁चित्रों	-8579
▁बीमाकर्ता	-8580
RO	-8581
ut	-8582
▁बक	-8583
▁वॉ	-8584
ानंद	-8585
▁गौण	-8586
▁हिट	-8587
हार्य	-8588
▁कोष्ठ	-8589
▁घोड़े	-8590
▁प्रको	-8591
▁विघटन	-8592
▁संचरण	-8593
क्षियों	-8594
▁विलियम	-8595
▁धोखाधड़ी	-8596
▁निदेशकों	-8597
▁मार्गदर्शक	-8598
ers	-8599
लेन	-8600
शीट	-8601
▁ढी	-8602
विता	-8603
▁इंच	-8604
▁करण	-8605
▁नाइ	-8606
▁वाइ	-8607
ंजस्य	-8608
▁उतने	-8609
▁लड़ा	-8610
▁आँखों	-8611
▁जरुरी	-8612
▁बुराई	-8613
▁सोचना	-8614
▁स्विच	-8615
िश्रमिक	-8616
▁आरोपित	-8617
▁फ़ॉन्ट	-8618
▁स्वदेशी	-8619
▁मानचित्र	-8620
०ख	-8621
य्या	-8622
▁बेज	-8623
▁ज़मीन	-8624
▁सिंगा	-8625
▁अर्द्ध	-8626
▁उद्यमी	-8627
▁महाधिव	-8628
▁विच्छेद	-8629
▁उपक्रमों	-8630
ंगर	-8631
ंजर	-8632
कावट	-8633
▁डेल	-8634
▁फिट	-8635
▁फेर	-8636
▁राजप	-8637
▁समीप	-8638
▁कामों	-8639
▁छिद्र	-8640
▁मूलतः	-8641
▁बलिदान	-8642
▁शासकीय	-8643
▁आजीविका	-8644
▁पारिश्रमिक	-8645
▁सार्वभौमिक	-8646
डम	-8647
थल	-8648
्ह	-8649
ंकि	-8650
▁अठ	-8651
▁असा	-8652
▁जूट	-8653
▁साख	-8654
▁ससुर	-8655
▁दंडित	-8656
▁देसाई	-8657
▁नाटकीय	-8658
▁मानदंडों	-8659
▁समायोजित	-8660
▁विरोधाभास	-8661
▁एके	-8662
▁ढूँ	-8663
▁दयाल	-8664
नेश्वर	-8665
▁उजागर	-8666
▁पढ़ना	-8667
▁पीड़क	-8668
ंगन	-8669
▁डु	-8670
फ़्ट	-8671
▁एटी	-8672
▁आन्त	-8673
▁पीठा	-8674
र्निया	-8675
▁एक्सप	-8676
▁झगड़ा	-8677
▁दुर्ग	-8678
▁प्रवीण	-8679
▁उपायुक्त	-8680
▁विशेषज्ञता	-8681
प्य	-8682
फीति	-8683
▁पंथ	-8684
▁चलाए	-8685
▁सोनू	-8686
▁सौदे	-8687
कारियों	-8688
▁इंतजार	-8689
▁महावीर	-8690
▁राजकीय	-8691
▁बाजारों	-8692
▁मुद्रित	-8693
▁लू	-8694
माही	-8695
रोधी	-8696
▁ध्य	-8697
▁पडा	-8698
▁जंतु	-8699
▁नींद	-8700
▁मुना	-8701
दृष्टि	-8702
▁जरुरत	-8703
▁बिलियन	-8704
▁विशेषताएं	-8705
षेक	-8706
▁थल	-8707
ment	-8708
ोत्स	-8709
▁गों	-8710
▁निब	-8711
▁फेड	-8712
▁बूट	-8713
▁मजा	-8714
बोर्ड	-8715
▁अय्य	-8716
▁परमा	-8717
▁खाड़ी	-8718
▁प्रामा	-8719
▁समझाया	-8720
▁प्रवाहित	-8721
▁बीमारियों	-8722
▁ऑस्ट्रेलिया	-8723
बेल	-8724
यंकर	-8725
ेन्ट	-8726
ट्रिक	-8727
ष्ठान	-8728
▁डिज़	-8729
▁विकेट	-8730
▁तालिका	-8731
▁चुंबकीय	-8732
▁सूचकांक	-8733
▁संस्थापक	-8734
वह	-8735
क्ल	-8736
▁जोड	-8737
▁मेह	-8738
▁साठ	-8739
▁उपरांत	-8740
▁जूनियर	-8741
▁रात्रि	-8742
▁संपरिव	-8743
▁चाहेंगे	-8744
▁वाजपेयी	-8745
आइ	-8746
रथ	-8747
सेफ	-8748
ारिक	-8749
▁किला	-8750
▁वक्फ	-8751
▁जिक्र	-8752
▁नजदीक	-8753
तू	-8754
▁कोण	-8755
▁तंब	-8756
▁भूप	-8757
ज्जित	-8758
नीकरण	-8759
▁उज्ज	-8760
▁बगैर	-8761
▁निर्म	-8762
▁बदलते	-8763
▁बनाएँ	-8764
▁लगाते	-8765
▁पॉलिसी	-8766
▁लार्वा	-8767
▁विजेता	-8768
▁तार्किक	-8769
▁प्रतिकर	-8770
▁समन्वित	-8771
▁अद्वितीय	-8772
▁अभिलेखों	-8773
▁भागीदारों	-8774
दायी	-8775
लापन	-8776
श्यों	-8777
▁फंसा	-8778
▁वक्र	-8779
प्रकाश	-8780
▁अनधिक	-8781
▁क्लास	-8782
▁संपादन	-8783
▁तथाकथित	-8784
▁स्त्रोत	-8785
थिल	-8786
ुवा	-8787
▁सज	-8788
▁अलं	-8789
▁जीने	-8790
ष्णुता	-8791
्राप्त	-8792
▁अवशेष	-8793
र्थियों	-8794
▁सुनाया	-8795
▁लाभदायक	-8796
▁आविष्कार	-8797
▁प्रसारित	-8798
▁साक्ष्यों	-8799
▁अल्पसंख्यक	-8800
▁इण्ड	-8801
▁क्रोध	-8802
▁खरीदी	-8803
▁निषेध	-8804
▁मानकर	-8805
▁लगेगा	-8806
त्तियां	-8807
▁अनुलग्न	-8808
▁सरकारें	-8809
▁क्षेत्रफल	-8810
रात	-8811
िथ्म	-8812
▁एसएस	-8813
▁फर्क	-8814
▁बताओ	-8815
▁बनती	-8816
▁लिखत	-8817
▁करुणा	-8818
▁भयंकर	-8819
▁मुल्क	-8820
▁हटाना	-8821
▁निकलता	-8822
▁पहचाना	-8823
▁मुद्रण	-8824
▁स्वयंसे	-8825
▁सम्भावना	-8826
जिन	-8827
ोटा	-8828
▁ओल	-8829
ोहित	-8830
०वें	-8831
▁क्यो	-8832
▁परिन	-8833
▁खातून	-8834
▁चाहें	-8835
▁फाउंड	-8836
▁स्वाद	-8837
▁आत्मनि	-8838
▁देखरेख	-8839
▁भौतिकी	-8840
▁सारांश	-8841
▁आदिवासी	-8842
▁निमंत्र	-8843
▁संरक्षक	-8844
▁समितियां	-8845
ेली	-8846
ल्ले	-8847
▁डूब	-8848
▁बलों	-8849
▁यथास	-8850
▁हमसे	-8851
▁कम्पन	-8852
▁डीएनए	-8853
▁बस्ती	-8854
▁मलयाल	-8855
▁शुष्क	-8856
▁जोरदार	-8857
▁दिखायी	-8858
▁प्रत्यु	-8859
▁राधाकृष्णन	-8860
▁रिए	-8861
▁रोब	-8862
▁अखंड	-8863
▁एस्ट	-8864
▁बादल	-8865
▁सूखे	-8866
▁सूरत	-8867
▁वैद्य	-8868
▁साम्य	-8869
▁अंडमान	-8870
▁अग्रसर	-8871
▁सिक्किम	-8872
▁संशोधनों	-8873
▁अंतर्विष्ट	-8874
नस	-8875
मेट	-8876
▁डील	-8877
मावली	-8878
▁अमान	-8879
▁बढ़ो	-8880
▁ललित	-8881
▁साइन	-8882
▁सैयद	-8883
ेश्वरी	-8884
्रेषित	-8885
▁अखबार	-8886
▁डेविड	-8887
▁पुर्त	-8888
▁समुच्च	-8889
▁मुकाबला	-8890
▁व्याप्त	-8891
▁सामंजस्य	-8892
▁सुभाषबाबू	-8893
फॉ	-8894
▁u	-8895
शियन	-8896
▁बसे	-8897
▁रिल	-8898
▁एंटी	-8899
▁कृषक	-8900
▁बांड	-8901
▁कोयले	-8902
▁भीतरी	-8903
▁युग्म	-8904
▁आश्रित	-8905
▁चुपचाप	-8906
▁दिलाने	-8907
▁नारियल	-8908
ch	-8909
ig	-8910
▁re	-8911
प्रण	-8912
▁खली	-8913
▁काशी	-8914
▁कैसा	-8915
▁खादी	-8916
▁जस्ट	-8917
▁फ्रा	-8918
▁यकीन	-8919
▁शिरा	-8920
▁सभ्य	-8921
▁चलाना	-8922
▁जगहों	-8923
▁ऑपरेशन	-8924
▁बालकों	-8925
▁सेनाओं	-8926
▁ग्रंथों	-8927
▁जनजातीय	-8928
▁नीतियां	-8929
▁लाभकारी	-8930
▁विश्राम	-8931
▁प्रतिद्व	-8932
▁सिंगापुर	-8933
▁नियन्त्रण	-8934
ोंग	-8935
ालाल	-8936
▁अंब	-8937
▁छान	-8938
▁जनक	-8939
▁जन्	-8940
देशिक	-8941
▁ज्या	-8942
▁दुखी	-8943
▁बुरे	-8944
▁मेनू	-8945
▁आंखें	-8946
▁परिपथ	-8947
▁फ्लैट	-8948
▁सरलता	-8949
▁करूंगा	-8950
▁प्रभावों	-8951
▁परिप्रेक्ष्य	-8952
▁एओ	-8953
टिया	-8954
न्सी	-8955
पुरम	-8956
▁उलझ	-8957
▁राध	-8958
▁सहि	-8959
▁पोषक	-8960
▁बस्त	-8961
▁बहुस	-8962
▁हरित	-8963
▁दिखता	-8964
▁बताती	-8965
▁स्टील	-8966
▁मॉड्यूल	-8967
▁सांविधिक	-8968
▁महाधिवक्ता	-8969
▁आस्ट्रेलिया	-8970
ढा	-8971
्वल	-8972
▁कछ	-8973
बर्ग	-8974
▁आरा	-8975
▁रवै	-8976
▁वोट	-8977
▁समन	-8978
▁स्फ	-8979
स्कृत	-8980
▁अफसर	-8981
▁धीमी	-8982
▁फैले	-8983
▁काल्प	-8984
▁गर्भव	-8985
▁चक्कर	-8986
▁चमत्कार	-8987
▁अभिरक्षा	-8988
ef	-8989
बंधन	-8990
▁घेर	-8991
▁झूठ	-8992
▁क्षय	-8993
▁गुस्	-8994
▁ज्वर	-8995
▁टाउन	-8996
▁टाटा	-8997
▁मीना	-8998
▁सुलह	-8999
▁निचली	-9000
▁काल्पनिक	-9001
▁पारदर्शी	-9002
▁प्रतियां	-9003
▁संभावनाएं	-9004
▁प्रारम्भिक	-9005
ap	-9006
पृ	-9007
गणना	-9008
श्रम	-9009
ियाई	-9010
▁हाज	-9011
▁झूठे	-9012
क्षमता	-9013
क्सीजन	-9014
▁अंकों	-9015
▁कार्ट	-9016
▁नतीजा	-9017
▁पड़ते	-9018
▁तीव्रता	-9019
▁प्रशासक	-9020
▁परंपराओं	-9021
▁रेगिस्तान	-9022
नीस	-9023
ायन	-9024
िमी	-9025
ियान	-9026
्वाइ	-9027
धियां	-9028
म्बित	-9029
ोलॉजी	-9030
▁निवे	-9031
▁निशा	-9032
▁मल्ल	-9033
▁लेनी	-9034
पत्रों	-9035
ुद्दीन	-9036
▁पूँजी	-9037
▁रोकना	-9038
ब्दियों	-9039
▁परिसीमा	-9040
▁अब्दुल्ला	-9041
▁निषेधाज्ञा	-9042
▁युक्तियुक्त	-9043
चनों	-9044
ब्रे	-9045
▁ताक	-9046
त्तूर	-9047
▁कन्व	-9048
▁कपूर	-9049
▁कहें	-9050
▁चौथे	-9051
▁रसोई	-9052
▁समेत	-9053
▁स्या	-9054
▁ध्रुव	-9055
▁मनोहर	-9056
▁श्वास	-9057
▁अंशदान	-9058
▁अपनाना	-9059
▁ग्लोबल	-9060
▁ड्रग्स	-9061
▁ब्रिता	-9062
▁हस्तांतरित	-9063
न्ने	-9064
भावी	-9065
▁कंक	-9066
▁सघन	-9067
▁चाहा	-9068
▁तरंग	-9069
▁पहने	-9070
▁युवक	-9071
▁वाहक	-9072
▁फारसी	-9073
▁पर्यटक	-9074
▁प्रेरक	-9075
▁मलयालम	-9076
▁क्रूरता	-9077
▁प्रिंटर	-9078
▁त्रिपाठी	-9079
im	-9080
▁शत	-9081
पकों	-9082
▁गली	-9083
▁धीर	-9084
▁युसु	-9085
▁दर्शक	-9086
▁वादों	-9087
▁समझती	-9088
▁पुर्तग	-9089
▁प्रेषण	-9090
▁शृंखला	-9091
▁अविश्वास	-9092
मंद	-9093
▁कसौ	-9094
▁फीट	-9095
▁बैग	-9096
▁मदर	-9097
▁रेत	-9098
▁आयाम	-9099
▁मनीष	-9100
▁घटकों	-9101
▁तुर्क	-9102
▁प्रमो	-9103
▁अनुयाय	-9104
▁क्रेता	-9105
▁ताजमहल	-9106
ष्ट्रपति	-9107
▁कमिश्नर	-9108
▁अम्ल	-9109
▁सउदी	-9110
▁सूखा	-9111
फ्रेंस	-9112
▁धैर्य	-9113
▁मुंशी	-9114
▁व्यंग	-9115
▁अमान्य	-9116
▁कुल्हा	-9117
▁मुखिया	-9118
▁फाउंडेशन	-9119
▁अनुप्रयोगों	-9120
▁इंस्टीट्यूट	-9121
गिक	-9122
ज़्	-9123
फान	-9124
माल	-9125
ोधन	-9126
▁लूट	-9127
ेशनों	-9128
▁राणा	-9129
▁सिवा	-9130
▁भ्रमण	-9131
▁रंगों	-9132
▁सिंधी	-9133
▁मणीलाल	-9134
▁एक्सटेंशन	-9135
▁व्यापारियों	-9136
ञ्	-9137
ुखी	-9138
▁ओड	-9139
रणीय	-9140
▁खुर	-9141
▁दाल	-9142
त्विक	-9143
स्ट्र	-9144
▁मोटी	-9145
▁अंतरा	-9146
▁यमुना	-9147
▁विराम	-9148
▁तयशुदा	-9149
▁धाराओं	-9150
▁नैतिकता	-9151
▁वैवाहिक	-9152
डब	-9153
oog	-9154
प्ट	-9155
पुरी	-9156
हाली	-9157
▁आइट	-9158
oogle	-9159
▁क़ुर	-9160
▁मंदी	-9161
▁शंका	-9162
▁भोपाल	-9163
▁समूचे	-9164
▁पोर्टल	-9165
▁विनम्र	-9166
लीम	-9167
्मी	-9168
फ़्त	-9169
▁झलक	-9170
▁परो	-9171
दायगी	-9172
नागरी	-9173
▁ऋणों	-9174
▁एसडी	-9175
▁केशव	-9176
▁क्षु	-9177
▁मापन	-9178
▁लाला	-9179
▁तलाशी	-9180
▁आबंटित	-9181
▁निगमित	-9182
▁पकड़ने	-9183
▁लैंगिक	-9184
▁प्रदाता	-9185
▁ब्रितानी	-9186
▁संतोषजनक	-9187
▁पारिस्थित	-9188
▁सम्बन्धों	-9189
जलि	-9190
ाम्	-9191
▁लय	-9192
▁१६	-9193
▁डब्	-9194
▁अंडा	-9195
▁फ्री	-9196
▁भण्ड	-9197
्रीकरण	-9198
▁डालना	-9199
▁पत्तन	-9200
▁परिवी	-9201
▁वाहनों	-9202
▁सदियों	-9203
▁पक्षपात	-9204
▁इन्होंने	-9205
▁एप्लिकेशन	-9206
▁एल्गोरिथ्म	-9207
▁क्रियाकलापों	-9208
um	-9209
ूति	-9210
ीर्ण	-9211
▁मोल	-9212
▁बनते	-9213
▁क्षेञ	-9214
▁ध्येय	-9215
▁सुप्र	-9216
▁प्रदीप	-9217
▁राजपूत	-9218
▁उत्तेजित	-9219
▁पासपोर्ट	-9220
▁प्रामाणिक	-9221
▁आधुनिकीकरण	-9222
ैश	-9223
अली	-9224
गाव	-9225
द्घ	-9226
▁जगा	-9227
▁एनएस	-9228
▁छुपा	-9229
▁पल्ल	-9230
▁सुल्	-9231
लेरिया	-9232
ंत्रिकी	-9233
▁जापानी	-9234
ँट	-9235
▁the	-9236
▁बगल	-9237
्रेटर	-9238
▁कुंज	-9239
▁नौका	-9240
▁भेड़	-9241
पतियों	-9242
▁कन्या	-9243
▁भूकंप	-9244
▁सौन्द	-9245
▁क्रमिक	-9246
▁शब्दावली	-9247
▁अपरिहार्य	-9248
▁सिफारिशें	-9249
▁कॉर्पोरेशन	-9250
ेरी	-9251
▁खट	-9252
ाचार	-9253
▁अनी	-9254
▁टेक	-9255
▁आईडी	-9256
▁चौकी	-9257
▁जाली	-9258
▁दायी	-9259
▁दुष्	-9260
▁सोशल	-9261
क्रमित	-9262
▁दीजिए	-9263
▁लिखें	-9264
▁वेस्ट	-9265
▁सौंपी	-9266
▁ग्यारह	-9267
▁दंडादेश	-9268
▁सेंट्रल	-9269
▁स्वार्थ	-9270
षक	-9271
वात	-9272
सेज	-9273
▁उब	-9274
जन्य	-9275
▁चैन	-9276
बारों	-9277
▁छेड़	-9278
▁निया	-9279
▁पद्य	-9280
▁पूछे	-9281
▁अनुमत	-9282
▁सहारे	-9283
▁सेवाएँ	-9284
▁आश्वस्त	-9285
▁निकोबार	-9286
▁देवनागरी	-9287
▁पंचायतों	-9288
▁पीड़ितों	-9289
ंदे	-9290
ंबन	-9291
▁उदर	-9292
▁दुक	-9293
▁सफ़	-9294
चिकित	-9295
वश्यक	-9296
▁अनवर	-9297
▁मण्डल	-9298
▁आधारों	-9299
▁गर्भवती	-9300
▁चंडीगढ़	-9301
▁मालिकों	-9302
▁कर्मियों	-9303
▁टेलीविजन	-9304
▁संतुष्टि	-9305
▁कार्यकर्ता	-9306
फलक	-9307
ूरक	-9308
▁डू	-9309
एमसी	-9310
▁अवह	-9311
▁चोर	-9312
▁डेम	-9313
▁दादी	-9314
▁पढ़े	-9315
▁सतत्	-9316
▁सीएस	-9317
▁हिला	-9318
▁खेलने	-9319
▁बेरोज	-9320
ोल्यूशन	-9321
▁चट्टान	-9322
▁प्रोफ़	-9323
▁फैसलों	-9324
▁सामग्र	-9325
▁अत्याचार	-9326
बुद	-9327
लोनी	-9328
▁अवा	-9329
▁तटीय	-9330
▁मकसद	-9331
▁वारा	-9332
▁सुखद	-9333
▁विक्रम	-9334
▁विशुद्ध	-9335
▁प्रतिष्ठान	-9336
▁आभ	-9337
ोरेट	-9338
िवर्स	-9339
▁फैली	-9340
▁मृदा	-9341
▁मानवा	-9342
▁हास्य	-9343
▁अंतररा	-9344
▁आदर्शों	-9345
▁यांत्रिक	-9346
▁वाशिंगटन	-9347
▁सुरेंद्र	-9348
▁उपन्यासों	-9349
तीक	-9350
ारस	-9351
▁उमा	-9352
▁खिस	-9353
▁गला	-9354
▁सत्	-9355
वस्तु	-9356
▁छाती	-9357
▁बैंड	-9358
▁रावण	-9359
▁जिज्ञ	-9360
▁बर्तन	-9361
▁अंसारी	-9362
▁दिखाता	-9363
▁अरुणाचल	-9364
▁आवेदनों	-9365
▁कृतियों	-9366
▁पर्वतीय	-9367
▁यूनाइटेड	-9368
▁सद्भावना	-9369
▁समाविष्ट	-9370
▁प्रोजेक्ट	-9371
▁अनुयायियों	-9372
रीद	-9373
▁औस	-9374
ोग्य	-9375
▁खरा	-9376
▁परव	-9377
▁मता	-9378
▁हज़	-9379
बिनेट	-9380
▁करों	-9381
▁निका	-9382
▁दिलीप	-9383
▁तर्कों	-9384
▁राजवंश	-9385
▁दर्शकों	-9386
▁अप्रत्या	-9387
▁महाकाव्य	-9388
▁नवान्वेषी	-9389
▁परिवीक्षा	-9390
हट	-9391
गोश	-9392
▁अचल	-9393
▁दाँ	-9394
▁पिन	-9395
▁अभिम	-9396
▁पारे	-9397
▁हल्का	-9398
▁सर्किट	-9399
▁ड्राइवर	-9400
▁परिस्थितियां	-9401
कने	-9402
च्य	-9403
ेता	-9404
बिंद	-9405
▁नूर	-9406
▁सान	-9407
▁कटाई	-9408
▁खुदरा	-9409
▁मर्या	-9410
▁उत्थान	-9411
▁कोरिया	-9412
▁मापदंड	-9413
▁किनारों	-9414
▁गोस्वामी	-9415
▁चार्जशीट	-9416
▁नागरिकता	-9417
▁अतिमानसिक	-9418
ैड	-9419
ीदा	-9420
क्ष्	-9421
गांठ	-9422
ज्जा	-9423
▁कंधे	-9424
▁गाने	-9425
▁मंडी	-9426
▁ख्याल	-9427
▁जीतने	-9428
▁नोड्स	-9429
▁पैकेट	-9430
▁मंडली	-9431
▁चिन्ता	-9432
▁परिमाण	-9433
▁राजदूत	-9434
▁कित्तूर	-9435
▁प्रमाणन	-9436
▁घटनास्थल	-9437
▁जुर्माने	-9438
नक	-9439
▁जोग	-9440
▁टाल	-9441
▁बाघ	-9442
▁बिछ	-9443
▁स्ल	-9444
▁कपास	-9445
▁शाहज	-9446
▁जायगा	-9447
▁उपासना	-9448
▁प्रहार	-9449
▁द्वीपों	-9450
▁बागवानी	-9451
▁शुद्धता	-9452
▁नियमावली	-9453
▁आतंकवादियों	-9454
ेब	-9455
पने	-9456
वटी	-9457
▁फंस	-9458
▁अविल	-9459
▁आएगा	-9460
▁रुग्	-9461
▁वल्ल	-9462
▁क्रोम	-9463
▁खुलने	-9464
▁गुंजा	-9465
▁जयपुर	-9466
▁भत्ते	-9467
▁हममें	-9468
▁आक्षेप	-9469
▁दिखाना	-9470
▁विद्वत	-9471
ub	-9472
▁इर	-9473
एसएल	-9474
किया	-9475
सूरत	-9476
ुकला	-9477
ोषित	-9478
▁करन	-9479
▁खाम	-9480
▁निम	-9481
नियों	-9482
▁इक्व	-9483
▁फ़िर	-9484
▁उठाते	-9485
▁खरीदा	-9486
▁खुराक	-9487
▁गिनती	-9488
▁चटर्जी	-9489
▁पैटर्न	-9490
▁साक्षियों	-9491
ुद	-9492
सीए	-9493
ऊंगा	-9494
▁कैद	-9495
पोरेट	-9496
▁आरएस	-9497
▁एसएच	-9498
▁पच्च	-9499
▁अंकुर	-9500
▁क़्या	-9501
▁ग्रिड	-9502
▁लगाये	-9503
▁निरर्थ	-9504
▁रघुनाथ	-9505
▁देखेंगे	-9506
▁लापरवाही	-9507
▁अंतःस्थापित	-9508
▁प्रतिपूर्ति	-9509
ँची	-9510
दीन	-9511
बिन	-9512
▁कॉम	-9513
▁असीम	-9514
▁ब्ला	-9515
िपूर्ण	-9516
▁इशारा	-9517
▁परवाह	-9518
▁असंख्य	-9519
▁उल्लास	-9520
▁खाद्या	-9521
▁नौसेना	-9522
▁सम्प्र	-9523
▁साइकिल	-9524
णीत	-9525
िकता	-9526
▁कस्	-9527
वर्षीय	-9528
▁फीसदी	-9529
▁बुखार	-9530
▁प्रत्युत्तर	-9531
दरी	-9532
क्के	-9533
टिंग	-9534
▁डेवल	-9535
▁त्यो	-9536
▁केलिए	-9537
▁गिरवी	-9538
▁बढ़ना	-9539
▁ग्रंथि	-9540
▁मुम्बई	-9541
▁कार्यपाल	-9542
▁कार्यकलाप	-9543
▁कुल्हाड़ी	-9544
aoM	-9545
▁मदों	-9546
▁महास	-9547
▁वैसी	-9548
▁सुलभ	-9549
ुतीकरण	-9550
▁श्रवण	-9551
धारियों	-9552
▁मौजूदगी	-9553
▁क्षेत्रक	-9554
▁सुपुर्दगी	-9555
लाभ	-9556
र्ति	-9557
▁ऊर्	-9558
▁तरा	-9559
क्रेट	-9560
▁ममता	-9561
सिद्धि	-9562
▁परिकल	-9563
▁सब्सि	-9564
▁प्रशंस	-9565
▁मिस्टर	-9566
▁समझाने	-9567
▁सम्मुख	-9568
▁मार्केट	-9569
▁आस्तियां	-9570
▁कार्मिकों	-9571
▁आत्मविश्वास	-9572
यो	-9573
ion	-9574
टित	-9575
▁अवध	-9576
▁कैर	-9577
▁मौन	-9578
▁औजार	-9579
▁मुहर	-9580
▁सिया	-9581
पीडिया	-9582
▁सुधीर	-9583
▁कपड़ों	-9584
▁प्ररूप	-9585
▁स्थावर	-9586
▁आवेदकों	-9587
▁इंटरनेशनल	-9588
▁अनुशासनात्मक	-9589
ग्व	-9590
िगर	-9591
्सा	-9592
▁अरे	-9593
▁थाः	-9594
▁शिल	-9595
▁आदित	-9596
कुमारी	-9597
▁तालुक	-9598
▁बनाएं	-9599
▁भिक्ष	-9600
▁मल्टी	-9601
▁हिमनद	-9602
▁निवेशक	-9603
▁प्रकरण	-9604
▁समकक्ष	-9605
▁उत्प्रे	-9606
▁सौन्दर्य	-9607
▁अप्रत्याशित	-9608
षद	-9609
काई	-9610
▁गह	-9611
विंग	-9612
▁बगी	-9613
▁मेम	-9614
▁शशि	-9615
▁शिम	-9616
खास्त	-9617
द्रिक	-9618
राणिक	-9619
▁कपिल	-9620
▁दस्त	-9621
▁पौधा	-9622
▁बाएं	-9623
▁लगों	-9624
▁सपना	-9625
▁सवार	-9626
▁डालते	-9627
▁तारों	-9628
▁बैठकर	-9629
▁आईसीटी	-9630
▁प्रायोजित	-9631
▁आकांक्षाओं	-9632
▁आर्बिट्रेटर	-9633
▁विमानक्षेत्र	-9634
ँसी	-9635
बेन	-9636
िटन	-9637
▁फोट	-9638
▁भुव	-9639
▁सिग	-9640
▁आइटम	-9641
▁कलाम	-9642
▁चार्	-9643
▁महार	-9644
▁वियत	-9645
▁पक्का	-9646
▁बहुधा	-9647
▁विहार	-9648
▁कराधान	-9649
▁पर्यवे	-9650
▁आन्तरिक	-9651
▁कारखाने	-9652
▁दुकानों	-9653
▁स्ट्रिंग	-9654
▁अपराधियों	-9655
▁मध्यवर्ती	-9656
▁सावधानीपूर्वक	-9657
आन	-9658
ल्थ	-9659
▁कुश	-9660
▁गरम	-9661
संबंध	-9662
ोक्ति	-9663
▁मेला	-9664
▁विक्ष	-9665
▁विसंग	-9666
▁घटनाएं	-9667
▁चिल्ला	-9668
▁जागरूक	-9669
▁दिशाओं	-9670
▁व्यतिक	-9671
▁सेकेंड	-9672
▁स्वराज	-9673
▁त्योहार	-9674
▁पीठासीन	-9675
▁त्रिपुरा	-9676
▁न्यूयार्क	-9677
डेट	-9678
▁अलम	-9679
▁आगम	-9680
▁इनको	-9681
▁क्ले	-9682
▁रंजन	-9683
▁ईरानी	-9684
▁पाश्च	-9685
▁मक्का	-9686
▁हफ्ते	-9687
▁नवाचार	-9688
▁निर्मल	-9689
▁पासवान	-9690
▁यथासंभव	-9691
▁समुच्चय	-9692
▁सुंदरता	-9693
ईसी	-9694
डोर	-9695
▁अछ	-9696
फिया	-9697
बड़ी	-9698
▁दीं	-9699
षिद्ध	-9700
▁भावा	-9701
▁लौटे	-9702
▁साफ़	-9703
▁उर्वर	-9704
▁स्थगन	-9705
▁विवेका	-9706
▁सहेजें	-9707
▁रजिस्ट्रीकृत	-9708
ag	-9709
भीत	-9710
▁नट	-9711
ंजलि	-9712
▁श्ल	-9713
▁अभिस	-9714
▁अस्व	-9715
▁घेरे	-9716
▁माउस	-9717
ानियों	-9718
▁अंजाम	-9719
▁कसौटी	-9720
▁चालुक	-9721
▁धूम्र	-9722
▁वर्षीय	-9723
▁स्नायु	-9724
िवर्सिटी	-9725
▁कलात्मक	-9726
▁निपटारा	-9727
▁बाध्यता	-9728
▁ब्राउज़र	-9729
▁भविष्यवाणी	-9730
राइड	-9731
▁भाँ	-9732
द्रता	-9733
▁अधिप	-9734
▁अम्ब	-9735
▁उद्घ	-9736
▁वादा	-9737
▁माणिक	-9738
▁रक्षक	-9739
▁लम्बा	-9740
▁शिविर	-9741
▁एनआईओएस	-9742
▁निस्संदेह	-9743
▁मनोवैज्ञानिक	-9744
’’	-9745
ंडर	-9746
चिव	-9747
▁com	-9748
▁असु	-9749
▁नाव	-9750
▁मुज	-9751
▁रूम	-9752
ांजलि	-9753
▁अमित	-9754
▁असुर	-9755
धिपत्य	-9756
▁अपनाए	-9757
▁ज़रूरी	-9758
▁मुआवजा	-9759
▁मुद्रक	-9760
▁सबमिशन	-9761
▁अवहेलना	-9762
▁प्रेमचन्द	-9763
▁पूर्वाग्रह	-9764
ुज	-9765
ालीस	-9766
▁अड़	-9767
▁खाई	-9768
फोर्ड	-9769
▁औसतन	-9770
▁ऑर्डर	-9771
▁खेलों	-9772
▁नायडू	-9773
▁जस्टिस	-9774
▁जिन्ना	-9775
▁पहुँचने	-9776
▁अनुरक्षण	-9777
▁वास्तुकला	-9778
▁कार्यवाहियां	-9779
od	-9780
ोगिक	-9781
▁फुल	-9782
▁रोल	-9783
ंगलोर	-9784
▁गिरि	-9785
▁भूषण	-9786
▁रूसी	-9787
▁समनु	-9788
▁अभ्या	-9789
▁साजिश	-9790
▁साहिब	-9791
▁कर्त्त	-9792
▁दुबारा	-9793
▁परंतुक	-9794
▁व्यतीत	-9795
▁आवृत्ति	-9796
▁ठेकेदार	-9797
▁शब्दकोश	-9798
▁हलफनामा	-9799
▁भूतपूर्व	-9800
▁कार्यकर्ताओं	-9801
▁प्रोग्रामिंग	-9802
▁नीर	-9803
▁होश	-9804
विन्द	-9805
▁अन्ध	-9806
▁कोटा	-9807
▁गुर्	-9808
▁दरें	-9809
▁निवल	-9810
▁सजीव	-9811
▁सपने	-9812
▁टैक्स	-9813
▁वारिस	-9814
▁विशेन	-9815
▁लक्षित	-9816
▁कैबिनेट	-9817
▁पीड़िता	-9818
▁पौराणिक	-9819
▁अनुलग्नक	-9820
▁उत्तेजना	-9821
▁विश्वव्यापी	-9822
▁हस्ताक्षरित	-9823
लीफ	-9824
ड्डी	-9825
मांड	-9826
▁झेल	-9827
▁भला	-9828
▁आरटी	-9829
▁टैंक	-9830
▁मादक	-9831
▁हरेक	-9832
▁गोदाम	-9833
▁शाश्व	-9834
▁करवाया	-9835
▁वर्ल्ड	-9836
▁पात्रों	-9837
▁प्रतिमान	-9838
▁प्रस्तुतियाँ	-9839
▁ढ़	-9840
▁बकर	-9841
कार्य	-9842
ोत्सव	-9843
▁चिट्	-9844
▁ढलान	-9845
▁शिवा	-9846
▁सहभा	-9847
▁एकांत	-9848
▁खतरों	-9849
▁गुलाब	-9850
▁चौथाई	-9851
▁शिश्न	-9852
▁समरूप	-9853
▁अस्त्र	-9854
▁अकादमिक	-9855
▁करनेवाले	-9856
▁कामगारों	-9857
▁रिपोर्टों	-9858
▁श्रीकृष्ण	-9859
ड़ने	-9860
▁डीड	-9861
▁क्षै	-9862
▁फर्श	-9863
▁श्ले	-9864
▁संको	-9865
▁एएसआई	-9866
▁स्पेन	-9867
▁हेमंत	-9868
▁पत्तियों	-9869
▁रामचंद्र	-9870
▁शताब्दियों	-9871
▁प्रतिस्थापन	-9872
ध्द	-9873
िती	-9874
▁धरो	-9875
▁चौदह	-9876
▁नोडल	-9877
▁मेले	-9878
▁रोटी	-9879
▁सादा	-9880
▁बढाने	-9881
▁शॉर्ट	-9882
▁जंगलों	-9883
▁हिम्मत	-9884
▁इस्लामिक	-9885
▁न्यायपीठ	-9886
हू	-9887
ंटू	-9888
ख्श	-9889
तुर	-9890
▁लख	-9891
▁हौ	-9892
शेखर	-9893
सिया	-9894
▁लाज	-9895
त्थान	-9896
▁केबल	-9897
▁घंटा	-9898
▁नवाब	-9899
▁प्या	-9900
▁क्लॉज	-9901
▁चुनने	-9902
▁टेक्न	-9903
▁पकड़ा	-9904
▁स्टोर	-9905
▁जोड़ना	-9906
▁उत्पीड़न	-9907
▁कलाकारों	-9908
▁कार्यशाला	-9909
ंवर	-9910
तौर	-9911
▁लट	-9912
▁सेठ	-9913
▁जवान	-9914
▁यूएस	-9915
▁धरोहर	-9916
▁बैठने	-9917
▁सेकंड	-9918
▁सौंपे	-9919
▁अयोग्य	-9920
▁उच्चारण	-9921
▁छुटकारा	-9922
▁दर्शाती	-9923
▁प्रतिरूप	-9924
▁आत्मनिर्भ	-9925
मयी	-9926
लोक	-9927
▁or	-9928
▁बछ	-9929
▁नवल	-9930
▁भती	-9931
लेक्स	-9932
▁कमला	-9933
▁वर्क	-9934
▁समाना	-9935
▁निकासी	-9936
▁नियोजक	-9937
▁मन्दिर	-9938
▁गुंजाइश	-9939
▁लाभप्रद	-9940
▁अनुपस्थित	-9941
▁प्रादेशिक	-9942
हण	-9943
कूट	-9944
ैनी	-9945
गरों	-9946
्राफी	-9947
▁इटली	-9948
▁उपजा	-9949
▁चढ़ा	-9950
▁तरफ़	-9951
▁पीले	-9952
▁पैदल	-9953
▁बाँध	-9954
▁दशाओं	-9955
▁बैटरी	-9956
▁ख्याति	-9957
▁चंद्रा	-9958
▁रिटर्न	-9959
▁स्वरुप	-9960
▁खुशहाली	-9961
▁डिज़ाइन	-9962
▁पूंजीगत	-9963
▁रवींद्र	-9964
▁प्रबंधित	-9965
▁राजेन्द्र	-9966
▁राष्ट्रीयता	-9967
थर	-9968
ड़ो	-9969
र्धा	-9970
ारसी	-9971
िकोड	-9972
▁अनौ	-9973
▁पों	-9974
▁पीपी	-9975
▁हटाए	-9976
▁चालान	-9977
▁नाजुक	-9978
▁निजाम	-9979
▁पहलों	-9980
▁संभोग	-9981
▁प्रचलन	-9982
▁तकनीकों	-9983
▁दुर्व्य	-9984
▁मेगावाट	-9985
▁अभयारण्य	-9986
साम	-9987
▁एट	-9988
ॉक्स	-9989
▁जता	-9990
▁बाप	-9991
▁अंगू	-9992
▁दर्जे	-9993
▁मुर्ग	-9994
▁वेदों	-9995
▁क्योकि	-9996
▁तिमाही	-9997
▁प्रमोद	-9998
▁अभिनेता	-9999
▁कंप्यूट	-10000
▁पूर्वानु	-10001
▁पंचवर्षीय	-10002
▁श्रद्धांजलि	-10003
ॉं	-10004
त्पा	-10005
१वें	-10006
▁खां	-10007
▁डिब	-10008
▁फर्	-10009
▁मर्	-10010
ालैंड	-10011
▁उठाई	-10012
▁सांसद	-10013
▁पराजित	-10014
▁भ्रष्ट	-10015
▁अखबारों	-10016
▁अनुयायी	-10017
▁पृष्ठों	-10018
▁वॉल्यूम	-10019
▁प्रेमचंद	-10020
▁विशिष्टता	-10021
िएट	-10022
▁कत	-10023
चालय	-10024
▁ईंट	-10025
▁बैच	-10026
▁लौह	-10027
निवास	-10028
िश्रण	-10029
▁Chro	-10030
▁आंत्र	-10031
▁जीवनी	-10032
▁डालता	-10033
▁पूछने	-10034
▁प्लान	-10035
▁बाधित	-10036
▁कर्मों	-10037
▁जुटाने	-10038
▁नागपुर	-10039
▁महत्वा	-10040
▁लड़कों	-10041
▁शाश्वत	-10042
▁वृक्षों	-10043
▁समाजवाद	-10044
▁सुलझाने	-10045
▁स्मार्ट	-10046
▁साधारणतया	-10047
▁सामग्रियों	-10048
क्य	-10049
खान	-10050
जील	-10051
▁छल	-10052
द्दा	-10053
बाज़	-10054
▁एप्	-10055
▁बेन	-10056
▁भटक	-10057
▁उड़ा	-10058
▁बोतल	-10059
▁ब्ले	-10060
▁रूढ़	-10061
▁व्रत	-10062
▁बारिश	-10063
▁भयभीत	-10064
▁असंतोष	-10065
▁यूनानी	-10066
▁आधिपत्य	-10067
▁दीक्षित	-10068
▁निरर्थक	-10069
▁अवस्थाओं	-10070
▁धूम्रपान	-10071
▁परिपक्वता	-10072
▁परिलक्षित	-10073
मुझे	-10074
सराय	-10075
▁उलट	-10076
▁कैन	-10077
▁नक़	-10078
▁पठन	-10079
▁साध	-10080
▁सृज	-10081
▁हुक	-10082
ेक्शन	-10083
ोनिया	-10084
▁अवशो	-10085
▁झूठा	-10086
▁डिजी	-10087
▁धुंध	-10088
▁कथाओं	-10089
▁कार्प	-10090
▁अल्लाह	-10091
▁मुर्गी	-10092
▁रियासत	-10093
▁संस्थापन	-10094
▁अधिनिर्णय	-10095
▁साम्राज्यवाद	-10096
भवन	-10097
स्तर	-10098
▁आदम	-10099
▁टूल	-10100
ाइलों	-10101
▁सर्प	-10102
▁इस्ती	-10103
▁कालाव	-10104
▁बूढ़े	-10105
▁वृंदा	-10106
▁सज्जन	-10107
▁खिड़की	-10108
▁निम्नतर	-10109
▁पसंदीदा	-10110
▁सब्सिडी	-10111
▁सुविधाजनक	-10112
▁अधिवक्ताओं	-10113
ढी	-10114
तृक	-10115
▁अघ	-10116
▁गे	-10117
वाइस	-10118
▁तैर	-10119
▁पिर	-10120
▁शिष	-10121
▁सरो	-10122
भक्ति	-10123
ोपड़ी	-10124
▁बीएस	-10125
▁सबका	-10126
▁अहसास	-10127
▁झुकाव	-10128
▁नोटों	-10129
▁पश्चा	-10130
▁ब्लैक	-10131
▁गर्भाव	-10132
▁बढ़िया	-10133
▁किताबें	-10134
▁संकेतों	-10135
▁सैकड़ों	-10136
▁सहकारिता	-10137
ोही	-10138
▁कटि	-10139
▁बेट	-10140
ग्राम	-10141
▁ज़ोर	-10142
▁नीला	-10143
▁पीटा	-10144
▁नम्बर	-10145
▁ब्रह्	-10146
▁इकाइयां	-10147
▁निमंत्रण	-10148
▁प्रॉक्सी	-10149
▁सशक्तीकरण	-10150
▁मंत्रिमंडल	-10151
▁मग	-10152
ंतीय	-10153
एमएस	-10154
▁चाव	-10155
▁टैग	-10156
वालों	-10157
▁अनुभ	-10158
▁एनसी	-10159
▁पुनर	-10160
▁मुहा	-10161
▁कोर्स	-10162
▁क्रिस	-10163
▁लीजिए	-10164
▁वर्गम	-10165
▁कम्युन	-10166
▁निकाली	-10167
▁पंचांग	-10168
▁स्तंभों	-10169
▁पहाड़ियों	-10170
कर्स	-10171
▁नेप	-10172
त्नों	-10173
त्रिक	-10174
▁गाथा	-10175
▁निःश	-10176
▁बेचा	-10177
▁मथुरा	-10178
▁सियार	-10179
▁दिखाते	-10180
▁नमूनों	-10181
▁पोस्टम	-10182
▁बैंगलोर	-10183
▁वेतनमान	-10184
▁स्टार्ट	-10185
▁अपमानजनक	-10186
▁वर्षगांठ	-10187
▁बुद्धिमान	-10188
▁साफ्टवेयर	-10189
ंजक	-10190
तिज	-10191
▁ओज	-10192
शोधन	-10193
िपरि	-10194
▁उठी	-10195
▁छीन	-10196
तालों	-10197
विदों	-10198
▁कम्ब	-10199
स्फीति	-10200
▁जरिये	-10201
▁पर्दा	-10202
▁बचाया	-10203
▁निर्वि	-10204
▁पाएंगे	-10205
▁फोल्डर	-10206
▁विश्वसनीयता	-10207
▁१७	-10208
ात्य	-10209
▁टोक	-10210
▁फ़र	-10211
ॉर्नी	-10212
▁जिनको	-10213
▁टकराव	-10214
▁नगरों	-10215
▁संसद्	-10216
▁सीखना	-10217
▁असमानता	-10218
▁सापेक्ष	-10219
▁निर्देशक	-10220
▁सहिष्णुता	-10221
▁पाठ्यक्रमों	-10222
ob	-10223
गिन	-10224
दानी	-10225
▁सिड	-10226
नीयता	-10227
मुक्त	-10228
▁उभार	-10229
▁मुस्	-10230
▁लगीं	-10231
▁कराते	-10232
▁कुष्ठ	-10233
▁देयता	-10234
▁रखेगा	-10235
▁संदीप	-10236
▁एकाग्र	-10237
▁चेष्टा	-10238
▁विलक्षण	-10239
▁केन्द्री	-10240
▁देवेंद्र	-10241
▁भुवनेश्वर	-10242
ंटा	-10243
खने	-10244
गारी	-10245
सूची	-10246
▁पौध	-10247
लीकरण	-10248
▁कस्ट	-10249
▁ठंडा	-10250
▁त्यौ	-10251
▁समया	-10252
ड़ियां	-10253
▁ऊँचाई	-10254
▁जातीय	-10255
▁डालें	-10256
▁तुल्य	-10257
▁पत्ते	-10258
▁भूखंड	-10259
▁नोकिया	-10260
▁उच्छेदन	-10261
▁पत्थरों	-10262
▁रामकृष्ण	-10263
▁व्यक़्ति	-10264
▁संक्रमित	-10265
▁पुनर्विचार	-10266
ve	-10267
माद	-10268
▁रौ	-10269
▁आईं	-10270
▁जनन	-10271
▁नाच	-10272
▁बाण	-10273
▁बैर	-10274
▁भया	-10275
▁गोपी	-10276
▁षड्य	-10277
▁सिंघ	-10278
▁सुमन	-10279
ावस्था	-10280
▁किस्त	-10281
▁चांदी	-10282
▁चालीस	-10283
▁बढावा	-10284
▁शारदा	-10285
▁नरसिंह	-10286
▁भूमिगत	-10287
▁अटॉर्नी	-10288
▁परीक्षक	-10289
▁अभिलिखित	-10290
▁संक्रामक	-10291
▁भावनात्मक	-10292
▁मंत्रिपरि	-10293
▁उपराष्ट्रपति	-10294
चकों	-10295
्ट्र	-10296
▁गान	-10297
▁थोक	-10298
▁नाश	-10299
▁मों	-10300
थियों	-10301
▁जीता	-10302
▁दिखाए	-10303
▁नाराज	-10304
▁निराश	-10305
▁पुण्य	-10306
▁मेहरा	-10307
▁रंगीन	-10308
▁सेक्स	-10309
▁कॉलोनी	-10310
▁वर्गमूल	-10311
▁सब्जियों	-10312
▁कट्टरपंथी	-10313
उथ	-10314
tin	-10315
ड्र	-10316
▁चीफ	-10317
▁लती	-10318
▁करोड	-10319
▁बापू	-10320
▁माधव	-10321
▁मामल	-10322
▁संयम	-10323
▁अमिता	-10324
▁आँखें	-10325
▁घंटों	-10326
▁बदलती	-10327
▁वर्गा	-10328
▁होस्ट	-10329
▁विकृति	-10330
▁सुनीता	-10331
▁अक्षमता	-10332
▁दर्शाने	-10333
▁शिकायतें	-10334
▁सुसज्जित	-10335
▁न्यायसंगत	-10336
थु	-10337
लोड	-10338
षाण	-10339
दमों	-10340
देशन	-10341
रहित	-10342
राहट	-10343
रिटी	-10344
▁अन्	-10345
▁विद	-10346
कोर्ट	-10347
पृष्ठ	-10348
▁एमएम	-10349
▁घिरा	-10350
▁दुखद	-10351
▁पतली	-10352
▁यहूद	-10353
▁लाये	-10354
▁हमास	-10355
णात्मक	-10356
▁मनाने	-10357
▁मोहित	-10358
▁रोबोट	-10359
▁टुकड़ा	-10360
▁तत्समय	-10361
▁प्रातः	-10362
▁वकीलों	-10363
▁वियतनाम	-10364
▁शीघ्रता	-10365
▁प्रभारित	-10366
▁न्यायोचित	-10367
ph	-10368
कोण	-10369
ठों	-10370
दगी	-10371
्ये	-10372
आरआई	-10373
▁PRO	-10374
▁इलै	-10375
▁लसी	-10376
▁सदर	-10377
▁हकी	-10378
▁NAME	-10379
मुक्ति	-10380
▁ट्रेन	-10381
▁दिखने	-10382
▁नाबाल	-10383
▁पेरिस	-10384
▁अवज्ञा	-10385
▁कविताएं	-10386
▁किस्मों	-10387
▁प्रबन्धन	-10388
▁प्रस्तुतिकरण	-10389
गरीय	-10390
▁एजी	-10391
▁चरित	-10392
▁रोशन	-10393
▁वीणा	-10394
▁संकर	-10395
ब्रेरी	-10396
▁इंसान	-10397
▁खरगोश	-10398
▁बनारस	-10399
▁शिथिल	-10400
▁दिवसीय	-10401
▁वचनबद्ध	-10402
▁कार्यभार	-10403
▁परिष्कृत	-10404
▁बहिष्कार	-10405
▁प्रतिबिंबित	-10406
झान	-10407
पता	-10408
बुक	-10409
▁एर	-10410
गुना	-10411
तत्व	-10412
समूह	-10413
▁पैन	-10414
देशीय	-10415
्लेषण	-10416
▁ईश्व	-10417
▁नीले	-10418
▁मधुम	-10419
▁मोदी	-10420
▁विषम	-10421
▁अपवर्	-10422
▁छोड़े	-10423
▁जटिलता	-10424
▁पुष्पा	-10425
▁प्रोफाइल	-10426
▁नामनिर्देश	-10427
▁प्रतिद्वंद	-10428
ak	-10429
हाउस	-10430
ुकता	-10431
▁डेय	-10432
▁बास	-10433
▁वरन	-10434
शिल्प	-10435
▁आर्ट	-10436
▁इसमे	-10437
▁जुटा	-10438
▁देवे	-10439
▁फ़ोन	-10440
▁फिनल	-10441
▁बहाल	-10442
▁बैठी	-10443
▁साम्	-10444
▁डिस्ट	-10445
▁रहमान	-10446
▁वायदा	-10447
▁छोड़ना	-10448
▁त्यौहार	-10449
▁पैदावार	-10450
▁कहानियां	-10451
▁तुलनात्मक	-10452
▁पाश्चात्य	-10453
▁रिक्तियों	-10454
लिन	-10455
▁कलम	-10456
▁चाँ	-10457
▁पप्	-10458
वाड़ा	-10459
▁असंग	-10460
▁इष्ट	-10461
▁चौथी	-10462
पक्षीय	-10463
स्तरीय	-10464
▁उपद्र	-10465
▁ग्वाल	-10466
▁नाभिक	-10467
▁पिल्ल	-10468
▁पैतृक	-10469
▁वृक्क	-10470
▁सर्वस	-10471
▁इंडस्ट	-10472
▁ग्रीवा	-10473
▁फ़ाइलें	-10474
▁अपेक्षाओं	-10475
▁तथ्यात्मक	-10476
ate	-10477
मैं	-10478
संघ	-10479
ुली	-10480
डीसी	-10481
ूंगी	-10482
▁ऑयल	-10483
▁वात	-10484
▁अंचल	-10485
▁कशेर	-10486
▁थाने	-10487
▁भलाई	-10488
▁लीटर	-10489
▁संसू	-10490
▁सत्त	-10491
प्रणाली	-10492
ोनेशिया	-10493
▁उन्नीस	-10494
▁कुलपति	-10495
▁कॉन्फ़	-10496
▁तोड़ने	-10497
▁ब्रांड	-10498
▁माइक्र	-10499
▁प्रस्थान	-10500
▁पंक्तियों	-10501
▁अत्यावश्यक	-10502
▁विकिपीडिया	-10503
▁संरचनात्मक	-10504
ँघ	-10505
णसी	-10506
्तर	-10507
▁अयो	-10508
▁बसा	-10509
▁हेल	-10510
▁चांद	-10511
▁पसन्द	-10512
▁विस्म	-10513
▁तालमेल	-10514
▁पारम्प	-10515
▁महासभा	-10516
▁योद्धा	-10517
▁दोस्तों	-10518
▁रामलिंग	-10519
▁सुल्तान	-10520
▁व्यवसायी	-10521
▁दुर्व्यवहार	-10522
यता	-10523
▁’’	-10524
र्ची	-10525
▁मैक	-10526
▁रूट	-10527
ॉर्टम	-10528
▁अमूल	-10529
▁आप्र	-10530
▁खोले	-10531
▁एक्ज़	-10532
▁डेयरी	-10533
▁तेलंग	-10534
▁नियति	-10535
▁पित्त	-10536
▁हिंसक	-10537
▁अनुरुप	-10538
▁जनगणना	-10539
▁तुम्हे	-10540
▁प्रकटन	-10541
▁बुद्धिम	-10542
▁वाराणसी	-10543
▁वर्गाकार	-10544
▁विकल्पों	-10545
▁प्रक्षेपण	-10546
pp	-10547
ंसल	-10548
मेज	-10549
ट्टे	-10550
▁कैश	-10551
▁जर्	-10552
▁डेन	-10553
▁पला	-10554
▁संक	-10555
पल्ली	-10556
वाड़ी	-10557
▁अंगी	-10558
▁इजाज	-10559
▁गुहा	-10560
▁जार्ज	-10561
▁मायने	-10562
▁मैक्स	-10563
▁Chrome	-10564
▁अशुद्ध	-10565
▁तीक्ष्	-10566
▁कोशिकाएं	-10567
▁ट्रैकिंग	-10568
▁सृजनात्मक	-10569
दशा	-10570
मिल	-10571
एफसी	-10572
▁तीर	-10573
▁तेर	-10574
▁मरण	-10575
▁हें	-10576
टीकरण	-10577
पातिक	-10578
▁एसके	-10579
▁कच्चा	-10580
▁सुनते	-10581
▁बाधाओं	-10582
▁मांगों	-10583
▁परमात्मा	-10584
▁पत्रिकाओं	-10585
▁बाध्यकारी	-10586
ाहट	-10587
डेंट	-10588
नामी	-10589
▁यहा	-10590
▁कमरा	-10591
▁मुसी	-10592
▁मैनु	-10593
▁शिल्	-10594
▁हरीश	-10595
पीसीएल	-10596
▁खर्चा	-10597
▁गिरने	-10598
▁पिछला	-10599
▁बिल्ड	-10600
▁डिवाइस	-10601
▁मित्रा	-10602
▁कालावधि	-10603
▁जातियां	-10604
▁यहूदियों	-10605
▁राज्यसभा	-10606
▁एवोल्यूशन	-10607
CT	-10608
असल	-10609
रिश	-10610
ोंक	-10611
▁बीर	-10612
▁यदु	-10613
▁उष्ण	-10614
▁एचसी	-10615
▁कैदी	-10616
▁क्षी	-10617
▁अतिशय	-10618
▁करेंः	-10619
▁कोल्ह	-10620
▁दाहिने	-10621
▁विराट्	-10622
▁श्रव्य	-10623
ार्टमेंट	-10624
▁अनुपूरक	-10625
▁कंट्रोल	-10626
▁विजेताओं	-10627
▁चक्रवर्ती	-10628
▁रिश्तेदार	-10629
▁विद्यालयों	-10630
और	-10631
ंतक	-10632
गिर	-10633
▁गॉ	-10634
ंजीत	-10635
काने	-10636
वेली	-10637
▁कुद	-10638
▁कोह	-10639
▁हीन	-10640
र्मित	-10641
ष्टिक	-10642
▁अठार	-10643
▁गोरख	-10644
▁फोरम	-10645
▁म्यू	-10646
▁लक्ष	-10647
▁लुप्त	-10648
▁आयातित	-10649
▁वास्तु	-10650
▁संज्ञा	-10651
▁मेट्रोप	-10652
▁ग्रामीणों	-10653
▁विवेकानंद	-10654
▁पोस्टमॉर्टम	-10655
ुए	-10656
भंग	-10657
ूरा	-10658
▁वग	-10659
ण्डे	-10660
▁फलक	-10661
▁फास	-10662
▁बिक	-10663
ोलनों	-10664
▁आहरण	-10665
▁कन्ह	-10666
▁औषधीय	-10667
▁जनहित	-10668
▁जमारा	-10669
▁श्लोक	-10670
▁आत्मसम	-10671
▁निकलना	-10672
▁क्षैतिज	-10673
▁ग्रीष्म	-10674
▁विवरणों	-10675
▁संभालने	-10676
▁समझौतों	-10677
▁एकाधिकार	-10678
▁प्रांतीय	-10679
▁एक्सप्रेस	-10680
▁गर्भावस्था	-10681
..	-10682
गना	-10683
भ्र	-10684
मेव	-10685
सिस	-10686
कुशल	-10687
ब्बी	-10688
स्राव	-10689
▁अमीन	-10690
▁आभास	-10691
▁खसरा	-10692
▁पहना	-10693
▁मीरा	-10694
▁लोका	-10695
▁सुने	-10696
▁हीरा	-10697
▁इजाजत	-10698
▁कारित	-10699
▁द्रुत	-10700
▁नामंज	-10701
▁भाँति	-10702
▁रियास	-10703
▁संकोच	-10704
▁होल्ड	-10705
▁अमृतसर	-10706
▁क्लर्क	-10707
▁मानसून	-10708
▁पीढ़ियों	-10709
▁चिकित्सकीय	-10710
ia	-10711
फन	-10712
डिट	-10713
▁मय	-10714
▁आईए	-10715
▁समत	-10716
मानंद	-10717
शियों	-10718
▁गुरब	-10719
▁उद्गम	-10720
▁तुच्छ	-10721
▁बेलार	-10722
▁मिलान	-10723
▁मैथुन	-10724
▁कमजोरी	-10725
▁डिप्टी	-10726
▁अक्षरों	-10727
▁मेहरअली	-10728
▁निवेदिता	-10729
▁साम्राज़	-10730
▁प्रिंसिपल	-10731
▁कम्युनिस्ट	-10732
▁राष्ट्रवादी	-10733
em	-10734
मह	-10735
पीए	-10736
▁ऑल	-10737
ोल्ट	-10738
▁कटक	-10739
▁सास	-10740
वलोकन	-10741
▁आज़ा	-10742
▁क्रे	-10743
▁खगोल	-10744
▁मतों	-10745
▁शीतल	-10746
▁श्लो	-10747
▁इकबाल	-10748
▁दरअसल	-10749
▁भूगोल	-10750
▁मियां	-10751
▁अनदेखी	-10752
▁कुर्सी	-10753
▁चतुर्थ	-10754
▁चीज़ें	-10755
▁बुलाने	-10756
▁मेसर्स	-10757
▁विधिज्ञ	-10758
▁वरिष्ठता	-10759
ोसिस	-10760
▁एकक	-10761
▁जेर	-10762
ान्ति	-10763
▁कॉफी	-10764
▁नासा	-10765
▁बहती	-10766
▁मानद	-10767
▁यानि	-10768
▁लाइट	-10769
ग्राही	-10770
न्यासी	-10771
वित्री	-10772
▁बीजों	-10773
▁महाले	-10774
▁अर्थों	-10775
▁चीज़ों	-10776
▁साहसिक	-10777
▁अफ्रीकी	-10778
▁दुश्मनी	-10779
▁निलंबित	-10780
▁श्लोकों	-10781
▁जवाबदेही	-10782
▁कार्यपालक	-10783
▁विश्वयुद्ध	-10784
▁शल्यक्रिया	-10785
▁पूर्वानुमान	-10786
▁यूनिवर्सिटी	-10787
मिकस	-10788
व्रत	-10789
▁चंप	-10790
▁पसी	-10791
▁आईएस	-10792
▁तेजा	-10793
▁ब्रॉ	-10794
▁मरीज	-10795
▁फंसाया	-10796
▁आक्रामक	-10797
▁नाबालिग	-10798
▁संभवतया	-10799
▁ज्योतिर्म	-10800
मरी	-10801
महा	-10802
▁भट	-10803
▁फाल	-10804
रेक्ट	-10805
िलोकन	-10806
▁खिंच	-10807
▁छिड़	-10808
▁टाइम	-10809
▁तेज़	-10810
▁मच्छ	-10811
▁वक्ष	-10812
▁एकरूप	-10813
▁कराती	-10814
▁भागने	-10815
▁ह्रास	-10816
▁अलमस्त	-10817
▁चिन्तन	-10818
▁तालुका	-10819
▁नियामक	-10820
▁शिशुओं	-10821
▁नानालाल	-10822
▁कॉपीराइट	-10823
▁प्रायोगिक	-10824
ंए	-10825
चरित	-10826
▁कौश	-10827
▁ढोल	-10828
▁शोथ	-10829
▁सरा	-10830
न्दगी	-10831
विवाह	-10832
▁कचरा	-10833
▁फकीर	-10834
▁स्का	-10835
▁भेजना	-10836
▁निकलते	-10837
▁वृंदावन	-10838
▁सरोजिनी	-10839
▁साझीदार	-10840
▁मांसपेशियों	-10841
▁इलेक्ट्रॉनिक्स	-10842
टीसी	-10843
बानी	-10844
ब्बत	-10845
▁LIN	-10846
▁जेब	-10847
▁धरा	-10848
▁सिं	-10849
▁अनूप	-10850
▁एमडी	-10851
▁कच्छ	-10852
▁कॉले	-10853
▁जताई	-10854
▁दशरथ	-10855
▁पंकज	-10856
▁मोनो	-10857
▁सूअर	-10858
▁डिजीटल	-10859
▁मौलाना	-10860
▁खूबसूरत	-10861
▁प्रशस्त	-10862
▁मलेरिया	-10863
▁हाइड्रो	-10864
▁षड्यंत्र	-10865
▁संप्रेषण	-10866
▁श्रीनिवास	-10867
पच	-10868
आउट	-10869
ंतिम	-10870
इटिस	-10871
पसंद	-10872
बंधक	-10873
िबिट	-10874
▁गुज	-10875
▁दुस	-10876
▁फोक	-10877
▁बुध	-10878
▁मिठ	-10879
नुसार	-10880
पमेंट	-10881
रलैंड	-10882
▁शाला	-10883
▁इन्टर	-10884
▁एकत्व	-10885
▁एमिकस	-10886
▁धब्बे	-10887
▁पकड़े	-10888
▁रस्सी	-10889
▁राक्ष	-10890
▁स्राव	-10891
▁कीटनाशक	-10892
▁उत्तीर्ण	-10893
▁बर्खास्त	-10894
▁संन्यासी	-10895
▁सिद्धदोष	-10896
▁कॉन्फ़िगर	-10897
ND	-10898
िष	-10899
निय	-10900
निर	-10901
▁ऋष	-10902
▁एडी	-10903
▁शिर	-10904
▁साओ	-10905
विंदर	-10906
िक्शन	-10907
▁कड़ा	-10908
▁द्रो	-10909
▁पेंड	-10910
▁जेम्स	-10911
▁तदर्थ	-10912
▁पारसी	-10913
▁सैद्ध	-10914
▁हाजिर	-10915
▁हुर्इ	-10916
▁अभिषेक	-10917
▁कृतज्ञ	-10918
▁विलम्ब	-10919
▁संकेतक	-10920
▁संगणित	-10921
▁सीमांत	-10922
▁भिन्नता	-10923
▁राममोहन	-10924
▁स्ट्रीट	-10925
▁सांसारिक	-10926
▁खाद्यान्न	-10927
▁आत्मसमर्पण	-10928
th	-10929
सक	-10930
बाध	-10931
रणी	-10932
समी	-10933
लेखा	-10934
▁औपन	-10935
फार्म	-10936
▁उपगत	-10937
▁कब्र	-10938
▁शेखर	-10939
▁ज्यों	-10940
▁अवार्ड	-10941
▁डेल्टा	-10942
▁दर्शित	-10943
▁सातवीं	-10944
▁तेलंगाना	-10945
▁अनौपचारिक	-10946
▁सम्प्रदाय	-10947
सऋ	-10948
०ग	-10949
▁झर	-10950
कारक	-10951
विद्	-10952
ीयों	-10953
▁कपट	-10954
▁चाइ	-10955
▁छुप	-10956
र्जित	-10957
▁एड्स	-10958
▁गायक	-10959
▁बाईं	-10960
▁लगाव	-10961
▁श्या	-10962
▁सर्ट	-10963
कानूनी	-10964
▁पिस्त	-10965
▁भवनों	-10966
▁मिसाल	-10967
▁अभिभाव	-10968
▁प्रलेख	-10969
▁भवभूति	-10970
▁युसुफ़	-10971
▁अयोध्या	-10972
▁गेंदबाज	-10973
▁परवर्ती	-10974
▁प्राणिक	-10975
▁फिनलैंड	-10976
▁साप्ताह	-10977
▁धर्मशाला	-10978
▁परमेश्वर	-10979
▁रेखांकित	-10980
▁प्रतिपादित	-10981
▁प्रस्तावना	-10982
▁मुकदमेबाजी	-10983
शरण	-10984
िलाई	-10985
▁बिस	-10986
▁अग्न	-10987
▁पाकर	-10988
▁शिमला	-10989
▁अविश्व	-10990
▁उत्तरः	-10991
▁परिवर्	-10992
▁प्रीति	-10993
▁वृत्ता	-10994
▁सिद्धि	-10995
▁गड़बड़ी	-10996
▁नर्सिंग	-10997
▁कन्वेंशन	-10998
▁प्रयोगों	-10999
▁विधेयकों	-11000
▁समानांतर	-11001
▁तत्पश्चात्	-11002
▁इस्लामवादियों	-11003
▁मान्यताप्राप्त	-11004
ER	-11005
ड्स	-11006
ब्ज	-11007
▁con	-11008
▁काठ	-11009
▁डिफ	-11010
▁दाब	-11011
▁मनु	-11012
▁आशीष	-11013
▁पाचन	-11014
▁मुल्	-11015
यात्रा	-11016
▁नवजात	-11017
▁बोलना	-11018
▁माउंट	-11019
▁सुस्प	-11020
▁करेंगी	-11021
▁खर्चों	-11022
▁दिलाया	-11023
▁निकलती	-11024
▁पिताजी	-11025
▁रिक्ति	-11026
▁वामपंथी	-11027
▁उद्यमिता	-11028
▁क्रियाशील	-11029
▁क्रियान्वित	-11030
गेट	-11031
ड़ित	-11032
यामी	-11033
स्की	-11034
्याग	-11035
ंसीसी	-11036
गाड़ी	-11037
▁गुला	-11038
▁पीएम	-11039
▁भृंग	-11040
ान्वित	-11041
▁अल्पा	-11042
▁ढूंढ़	-11043
▁परिशि	-11044
▁भगवती	-11045
▁अखंडता	-11046
▁चार्टर	-11047
▁मैदानों	-11048
▁संप्रतीक	-11049
▁साप्ताहिक	-11050
▁दीर्घकालीन	-11051
▁दिशानिर्देश	-11052
सना	-11053
िज्म	-11054
▁रिच	-11055
ंताओं	-11056
आधारी	-11057
▁भद्र	-11058
त्मकता	-11059
▁अपरिव	-11060
▁आपूर्	-11061
▁नित्य	-11062
▁बेंगल	-11063
▁तात्या	-11064
▁बंगलौर	-11065
▁तर्कसंगत	-11066
▁प्रकटीकरण	-11067
▁प्रयोगशालाओं	-11068
tt	-11069
यह	-11070
यास	-11071
▁चो	-11072
ान्स	-11073
ार्ध	-11074
▁नसी	-11075
▁शकु	-11076
▁सता	-11077
▁हेर	-11078
तमाला	-11079
मेन्ट	-11080
शासित	-11081
्रेसी	-11082
▁आरके	-11083
▁चेतन	-11084
▁पेंट	-11085
▁बसंत	-11086
▁सीखी	-11087
▁नलिका	-11088
▁पप्पू	-11089
▁लॉगिन	-11090
▁सचेतन	-11091
▁समाधि	-11092
▁आरोग्य	-11093
▁इन्कार	-11094
▁ऑपरेटर	-11095
▁कामगार	-11096
▁क्रीड़ा	-11097
▁फ़ाइलों	-11098
▁बेहतरीन	-11099
▁शुरुआती	-11100
▁वीरेंद्र	-11101
नेल	-11102
िनि	-11103
▁ऋस	-11104
▁शन	-11105
०में	-11106
▁ऋणी	-11107
▁कन्	-11108
▁बूझ	-11109
पात्र	-11110
भावित	-11111
▁जूते	-11112
▁टांग	-11113
▁समतल	-11114
▁सीसी	-11115
र्नीचर	-11116
▁पढ़ते	-11117
▁सर्जन	-11118
▁स्थाय	-11119
▁फैलाने	-11120
▁सॉफ़्ट	-11121
प्रदायिक	-11122
▁यूनिकोड	-11123
▁सन्दर्भ	-11124
▁सुझावों	-11125
वहन	-11126
▁सँ	-11127
▁पंप	-11128
▁भाल	-11129
▁राग	-11130
▁्या	-11131
तावास	-11132
ोजकों	-11133
▁कैसी	-11134
▁खेला	-11135
▁गौरी	-11136
▁धनुष	-11137
▁सेतु	-11138
ोग्राफ	-11139
▁मसौदा	-11140
▁साइंस	-11141
▁हालात	-11142
▁अदायगी	-11143
▁पच्चीस	-11144
▁पत्तों	-11145
▁मन्त्र	-11146
▁यदुनाथ	-11147
▁रिसर्च	-11148
▁फेफड़ों	-11149
▁रिश्तों	-11150
▁द्विवेदी	-11151
▁गैरकानूनी	-11152
▁रिकॉर्डिंग	-11153
RL	-11154
गौ	-11155
ृश	-11156
▁फि	-11157
पनों	-11158
िकीय	-11159
ित्य	-11160
▁बेद	-11161
▁मसू	-11162
▁चंदर	-11163
▁पीके	-11164
▁बचना	-11165
▁मुड़	-11166
▁शोधन	-11167
▁स्टो	-11168
▁अय्यर	-11169
▁कामया	-11170
▁तामील	-11171
▁पत्रक	-11172
▁पुनरु	-11173
▁मंचों	-11174
▁मोक्ष	-11175
▁विलास	-11176
▁अद्वैत	-11177
▁अनंतिम	-11178
▁आयोजना	-11179
▁कुटुंब	-11180
▁मुन्ना	-11181
▁रखेंगे	-11182
▁संकलित	-11183
▁अधिकथित	-11184
▁नामंजूर	-11185
▁महासचिव	-11186
▁प्रतिपादन	-11187
ंपा	-11188
टेन	-11189
फेस	-11190
कांड	-11191
गणित	-11192
▁कुला	-11193
▁झुंड	-11194
▁तारे	-11195
▁माइन	-11196
▁अंडों	-11197
▁अवसाद	-11198
▁आच्छा	-11199
▁त्रास	-11200
▁महाजन	-11201
▁मिलें	-11202
▁वार्म	-11203
▁कुत्ते	-11204
▁छानबीन	-11205
▁पुरातन	-11206
▁मेघालय	-11207
▁मैनुअल	-11208
▁पत्रकार	-11209
▁मुकदमों	-11210
▁विशेषतः	-11211
▁ऑपरेटिंग	-11212
▁कर्त्तव्य	-11213
▁पुनरावृत्ति	-11214
▁पुनर्विलोकन	-11215
ist	-11216
कथा	-11217
गाम	-11218
सोस	-11219
▁नह	-11220
्रिक	-11221
▁एजु	-11222
▁डैक	-11223
▁दूत	-11224
▁वफा	-11225
▁सैर	-11226
▁हृद	-11227
शिक्ष	-11228
▁दीपा	-11229
▁पीएच	-11230
▁बीजा	-11231
▁भ्रा	-11232
▁होली	-11233
▁्याय	-11234
प्रसाद	-11235
स्वरुप	-11236
▁आभासी	-11237
▁बैंकर	-11238
▁बराबरी	-11239
▁कन्हैया	-11240
▁चंद्रमा	-11241
▁उदाहरणों	-11242
▁सक्रियता	-11243
▁पर्वतमाला	-11244
▁पारम्परिक	-11245
▁शिष्टमंडल	-11246
▁हस्तशिल्प	-11247
रीब	-11248
ान्	-11249
▁चह	-11250
ंकृत	-11251
र्मी	-11252
▁गाल	-11253
▁चैक	-11254
▁नज़	-11255
▁सप्	-11256
▁एमपी	-11257
▁घुड़	-11258
▁पडता	-11259
ष्ट्री	-11260
▁अपडेट	-11261
▁कैमरा	-11262
▁चतुर्	-11263
▁अंधेरे	-11264
▁धारकों	-11265
▁भाषणों	-11266
▁वर्जित	-11267
▁प्रोसेस	-11268
▁सावित्री	-11269
नें	-11270
सिल	-11271
▁छी	-11272
द्वि	-11273
▁आईओ	-11274
▁एग्	-11275
▁चूँ	-11276
▁तान	-11277
▁बुझ	-11278
▁भरण	-11279
▁मुय	-11280
▁राघ	-11281
▁राठ	-11282
▁रेज	-11283
▁लिट	-11284
ियाना	-11285
ोत्तर	-11286
▁अंधा	-11287
▁नक़ल	-11288
▁लाते	-11289
▁सचिन	-11290
▁उपवास	-11291
▁देखती	-11292
▁पाटिल	-11293
▁लसीका	-11294
▁वायरस	-11295
▁विफलः	-11296
▁हरिजन	-11297
▁सवालों	-11298
▁जबरदस्त	-11299
▁मछलियों	-11300
▁महादेवी	-11301
▁मौद्रिक	-11302
▁व्यंग्य	-11303
▁शिष्यों	-11304
▁नागालैंड	-11305
▁बैंककारी	-11306
बैक	-11307
ैरा	-11308
▁यंग	-11309
▁कृमि	-11310
▁तिरू	-11311
▁नकली	-11312
▁पौंड	-11313
▁मैरी	-11314
▁रखनी	-11315
वृद्धि	-11316
▁गुच्छ	-11317
▁गोल्ड	-11318
▁घनत्व	-11319
▁जमीनी	-11320
▁दत्तक	-11321
▁बेजबर	-11322
▁भट्टा	-11323
▁मार्ट	-11324
▁छात्रा	-11325
▁जाएँगे	-11326
▁पीडीडी	-11327
▁सीमाएं	-11328
▁विवाहित	-11329
▁द्विआधारी	-11330
▁शेयरधारकों	-11331
चाई	-11332
चों	-11333
▁बब	-11334
▁लघ	-11335
आईडी	-11336
श्मी	-11337
हानि	-11338
▁राइ	-11339
▁शीट	-11340
गुप्त	-11341
डेंसी	-11342
▁कतार	-11343
▁जोकि	-11344
▁जिंदा	-11345
▁पाउंड	-11346
▁बहाना	-11347
▁उन्मुख	-11348
▁चित्रा	-11349
▁पिस्तौल	-11350
▁अधिनियमन	-11351
▁कार्यकरण	-11352
▁ट्रेडिंग	-11353
▁निर्देशन	-11354
▁पवित्रता	-11355
ri	-11356
ब्ल	-11357
▁CO	-11358
कर्ण	-11359
्रमी	-11360
▁कॉर	-11361
▁ठिक	-11362
पत्ति	-11363
▁अधिश	-11364
▁एओआर	-11365
▁चुनी	-11366
▁डीपी	-11367
▁फुफ्	-11368
▁म्या	-11369
▁रोमन	-11370
▁उदारी	-11371
▁उपांत	-11372
▁कमाने	-11373
▁धक्का	-11374
▁धर्मा	-11375
▁रिलाय	-11376
▁अंतर्व	-11377
▁कमियों	-11378
▁कागजात	-11379
▁दांतों	-11380
▁परोक्ष	-11381
▁अमेरिकन	-11382
▁कार्रवा	-11383
▁दर्शाते	-11384
▁यूनिटों	-11385
▁समामेलन	-11386
▁सर्वत्र	-11387
▁द्वितीयक	-11388
▁मातृभूमि	-11389
▁निर्विवाद	-11390
▁प्रोफ़ाइल	-11391
▁कार्यक्षेत्र	-11392
▁प्रवृत्तियों	-11393
▁साम्प्रदायिक	-11394
ऊं	-11395
िआ	-11396
चाल	-11397
संग	-11398
दांत	-11399
ष्ठी	-11400
▁जना	-11401
▁थलग	-11402
▁दां	-11403
▁बुन	-11404
▁मोक	-11405
स्कों	-11406
ारोपण	-11407
▁अनुष	-11408
▁रचित	-11409
▁साधक	-11410
ारियों	-11411
िस्तान	-11412
▁अड्डा	-11413
▁ओडिशा	-11414
▁गिरीश	-11415
▁असहमति	-11416
▁चाहिएं	-11417
▁फ़ारसी	-11418
▁मधुमक्	-11419
▁स्कूली	-11420
▁औषधियों	-11421
▁पोतन्ना	-11422
▁बढ़ोतरी	-11423
▁राशियों	-11424
▁विकलांगता	-11425
▁व्यवहार्य	-11426
▁लोकप्रियता	-11427
▁उपयोगकर्ताओं	-11428
▁पुनर्निर्माण	-11429
ोत	-11430
रोन	-11431
▁थॉ	-11432
▁धंध	-11433
▁धर्	-11434
देश्य	-11435
पुत्र	-11436
र्तित	-11437
▁अभूत	-11438
▁आवधिक	-11439
▁चौड़ी	-11440
▁मौर्य	-11441
▁सर्वे	-11442
▁अन्तरा	-11443
▁कठोरता	-11444
▁सर्टिफ	-11445
▁अध्यापन	-11446
▁औपनिवेश	-11447
▁प्राप्य	-11448
▁घटनाक्रम	-11449
▁क्षतिग्रस्त	-11450
▁प्रविष्टियों	-11451
ज्ह	-11452
तेह	-11453
्टू	-11454
▁फट	-11455
वारा	-11456
स्मा	-11457
ूलाल	-11458
▁सुग	-11459
▁हता	-11460
तानों	-11461
▁पराग	-11462
▁मद्य	-11463
▁कालीन	-11464
▁चौड़ा	-11465
▁ज्वार	-11466
▁महोदय	-11467
▁बेलारूस	-11468
▁सर्वांगी	-11469
▁एक्ज़िबिट	-11470
▁संस्कृतियों	-11471
▁प्रौद्योगिकीय	-11472
▁झं	-11473
्तिक	-11474
▁दुब	-11475
▁पंज	-11476
▁मुल	-11477
▁विड	-11478
▁सहस	-11479
ख्यान	-11480
श्रित	-11481
ेशिया	-11482
▁जीते	-11483
▁नकार	-11484
▁निपु	-11485
▁वसंत	-11486
▁शिला	-11487
▁सरमा	-11488
नारायण	-11489
▁आसमान	-11490
▁चैत्य	-11491
▁दबाने	-11492
▁पार्थ	-11493
▁प्वाइ	-11494
▁भित्त	-11495
▁लिखकर	-11496
▁निवारक	-11497
▁विरचित	-11498
▁आखिरकार	-11499
▁कार्टून	-11500
▁फर्नीचर	-11501
▁रिलायंस	-11502
▁सिलसिले	-11503
▁वार्मिंग	-11504
▁समारोहों	-11505
▁स्वराज्य	-11506
▁फ्रांसीसी	-11507
▁पत्रकारिता	-11508
▁मंत्रिपरिषद	-11509
▁शत्रुतापूर्ण	-11510
अन	-11511
▁St	-11512
▁अड	-11513
▁ऐल	-11514
आईएस	-11515
वेरी	-11516
ृष्ट	-11517
▁घने	-11518
▁पिघ	-11519
▁मकर	-11520
▁लॉक	-11521
▁अष्ट	-11522
▁एसिड	-11523
▁जबरन	-11524
▁ताना	-11525
▁राइट	-11526
▁लोकल	-11527
क्षत्र	-11528
▁अलगाव	-11529
▁कच्ची	-11530
▁बताये	-11531
▁बर्मा	-11532
▁सुव्य	-11533
▁नेटवर्	-11534
▁मनमाने	-11535
▁विवेचन	-11536
▁शिवाजी	-11537
▁समामेल	-11538
▁इक्विटी	-11539
▁रिवाजों	-11540
▁शॉर्टकट	-11541
िओ	-11542
ial	-11543
कुर	-11544
गति	-11545
पंच	-11546
ारू	-11547
ोली	-11548
कृमि	-11549
घाती	-11550
र्शी	-11551
▁एमओ	-11552
▁खेद	-11553
▁मिड	-11554
▁राख	-11555
ंत्रण	-11556
▁आरेख	-11557
▁गाइड	-11558
▁गिना	-11559
▁जीडी	-11560
▁टोकन	-11561
▁नायर	-11562
▁मामा	-11563
▁सद्द	-11564
▁सम्य	-11565
▁स्वय	-11566
▁टिकाऊ	-11567
▁तेज़ी	-11568
▁निकली	-11569
▁अनुभवी	-11570
शास्त्री	-11571
▁महालेखा	-11572
▁उर्वरकों	-11573
▁वार्षिकी	-11574
▁त्यागपत्र	-11575
इक	-11576
षऋ	-11577
धाम	-11578
जिये	-11579
▁शां	-11580
▁सक्	-11581
ंक्शन	-11582
▁डीवी	-11583
▁पायल	-11584
▁पीना	-11585
▁भड़क	-11586
▁आबद्ध	-11587
▁दोहरी	-11588
▁बहाने	-11589
▁बिलों	-11590
▁सवारी	-11591
▁सिडबी	-11592
▁कनिष्ठ	-11593
▁परिणामी	-11594
▁पुत्रों	-11595
▁वांछनीय	-11596
▁सूचनाएं	-11597
▁असमर्थता	-11598
▁परित्याग	-11599
▁अस्पतालों	-11600
▁कम्पनियों	-11601
▁विधिमान्य	-11602
▁प्रक्रियाएं	-11603
इए	-11604
क्म	-11605
बनी	-11606
ॉर्क	-11607
▁राउ	-11608
▁लटक	-11609
▁PROD	-11610
▁अंदा	-11611
▁कचरे	-11612
▁दलित	-11613
▁देसी	-11614
धारकों	-11615
संबंधी	-11616
▁अभिनव	-11617
▁उठाये	-11618
▁घुटने	-11619
▁चलेगा	-11620
▁जड़ें	-11621
▁जागरण	-11622
▁दूंगा	-11623
▁बदलता	-11624
▁मध्या	-11625
▁दलीलों	-11626
▁कॉलेजों	-11627
▁पहुंचाई	-11628
▁अत्याधिक	-11629
▁इलैक्ट्र	-11630
▁परम्परागत	-11631
▁स्वतन्त्रता	-11632
सस	-11633
ैप	-11634
tic	-11635
जिक	-11636
धीय	-11637
ोगा	-11638
क्चर	-11639
क्षे	-11640
गंगा	-11641
▁अणु	-11642
▁एम्	-11643
▁कोच	-11644
▁पिच	-11645
▁पीर	-11646
▁बढे	-11647
▁मणि	-11648
▁रमण	-11649
▁वेल	-11650
▁सरी	-11651
चर्या	-11652
▁ट्रक	-11653
▁विलो	-11654
जीरिया	-11655
▁डिक्शन	-11656
▁मार्शल	-11657
▁सामरिक	-11658
▁अस्वीकृत	-11659
▁रियासतों	-11660
▁सर्वोपरि	-11661
▁अतिरिक़्त	-11662
ंन	-11663
ईस	-11664
ंटे	-11665
ेंग	-11666
भाष्	-11667
▁आति	-11668
▁जहर	-11669
▁जोश	-11670
संहार	-11671
▁कैंप	-11672
▁थैली	-11673
▁बालू	-11674
▁मर्म	-11675
▁रेंज	-11676
▁डालकर	-11677
▁भ्राम	-11678
▁रिवाज	-11679
▁सुगंध	-11680
▁ज़रुरत	-11681
▁निर्वचन	-11682
▁निवृत्त	-11683
▁मर्यादा	-11684
▁अभिकर्ता	-11685
▁अस्पृश्य	-11686
▁उद्घोषणा	-11687
▁डिक्शनरी	-11688
▁परिचर्चा	-11689
▁सुस्पष्ट	-11690
▁उत्तराखंड	-11691
▁पड़ोसियों	-11692
जना	-11693
मास	-11694
ाकू	-11695
्जा	-11696
▁१८	-11697
जिया	-11698
▁कप्	-11699
▁घटी	-11700
▁जेन	-11701
▁मॉन	-11702
▁मोज	-11703
▁सुष	-11704
ग्रंथ	-11705
दाश्त	-11706
्यांश	-11707
▁क्ली	-11708
▁छपाई	-11709
▁जनमत	-11710
▁पिंज	-11711
▁बाली	-11712
▁भरती	-11713
▁मारी	-11714
▁लाकर	-11715
▁पार्व	-11716
▁संघों	-11717
▁सीटों	-11718
▁सद्दाम	-11719
▁चिड़िया	-11720
▁प्रथाओं	-11721
▁आंदोलनों	-11722
▁कोल्हटकर	-11723
op	-11724
ण्य	-11725
फ़र	-11726
ल्लम	-11727
वलित	-11728
▁आलू	-11729
▁पूर	-11730
▁भाज	-11731
▁साय	-11732
▁कान्	-11733
▁युगल	-11734
▁एहसास	-11735
▁भावों	-11736
▁राजने	-11737
कांक्षी	-11738
▁अदृश्य	-11739
▁अप्रति	-11740
▁कदाचार	-11741
▁करवाना	-11742
▁विक्रे	-11743
▁सिगरेट	-11744
▁अंगीकार	-11745
▁चलचित्र	-11746
▁समवर्ती	-11747
▁ग्लोरिया	-11748
▁ग्वालियर	-11749
▁सम्पादित	-11750
▁वार्तालाप	-11751
▁नर्मदाशंकर	-11752
▁परिवीक्षाधीन	-11753
ंचे	-11754
फिक	-11755
भोग	-11756
सिन	-11757
▁ऊन	-11758
▁हज	-11759
ण्डी	-11760
न्थि	-11761
ुलिप	-11762
▁पिक	-11763
▁पुत	-11764
▁महम	-11765
▁किशो	-11766
▁डेढ़	-11767
▁पुरः	-11768
▁प्रह	-11769
▁सींग	-11770
र्तनीय	-11771
▁सपनों	-11772
ट्रिक्स	-11773
▁उदारता	-11774
▁सीपीसी	-11775
▁तत्त्वों	-11776
▁हड्डियों	-11777
▁सॉफ़्टवेयर	-11778
▁राष्ट्रमंडल	-11779
शर	-11780
थ्य	-11781
ूमत	-11782
हाइट	-11783
्रमा	-11784
▁खोद	-11785
▁युव	-11786
▁रत्	-11787
▁वीड	-11788
▁औरंग	-11789
▁ढूँढ	-11790
▁पावन	-11791
▁पूंछ	-11792
▁बंधे	-11793
▁रिली	-11794
▁वहॉँ	-11795
▁सीने	-11796
▁चढ़ाव	-11797
▁दूषित	-11798
▁मौसमी	-11799
▁स्पेश	-11800
▁अमिताभ	-11801
▁निभाने	-11802
▁बर्ताव	-11803
▁निधियां	-11804
▁पहचानने	-11805
▁पुराणों	-11806
▁रिएक्टर	-11807
▁समयावधि	-11808
▁कहानियाँ	-11809
▁जनसाधारण	-11810
▁प्रतिभाग	-11811
▁शुक्राणु	-11812
▁कांग्रेसी	-11813
▁विद्यासागर	-11814
वेज	-11815
षेध	-11816
्ती	-11817
खोरी	-11818
ोलिक	-11819
▁अँग	-11820
▁पाश	-11821
▁मोन	-11822
▁शैव	-11823
ार्जन	-11824
ोरियम	-11825
▁चतुर	-11826
▁तंतु	-11827
▁परिम	-11828
▁भीषण	-11829
तत्त्व	-11830
▁तकलीफ	-11831
▁दुष्ट	-11832
▁बेटों	-11833
▁वेदना	-11834
▁अनेकों	-11835
▁दीवानी	-11836
▁परिसमा	-11837
▁अवरुद्ध	-11838
▁इंग्लिश	-11839
▁मार्जिन	-11840
▁रोज़गार	-11841
▁समतुल्य	-11842
▁प्रतिज्ञा	-11843
खले	-11844
फुस	-11845
ेबल	-11846
ंजना	-11847
▁अरा	-11848
▁इंक	-11849
▁चरस	-11850
▁जोन	-11851
▁माउ	-11852
खियों	-11853
▁परिर	-11854
▁बदली	-11855
▁बीपी	-11856
▁अंशों	-11857
▁अड्डे	-11858
▁गिर्द	-11859
▁चिपका	-11860
▁चूँकि	-11861
▁निकटतम	-11862
▁फिल्टर	-11863
▁रिफाइन	-11864
▁रोमांच	-11865
▁कर्मकार	-11866
▁दूतावास	-11867
▁दुर्बलता	-11868
▁मतदाताओं	-11869
▁हाईकोर्ट	-11870
▁संयंत्रों	-11871
▁सर्वांगीण	-11872
▁मुद्रास्फीति	-11873
▁हिन्दुस्तानी	-11874
ुमा	-11875
ेषण	-11876
▁छे	-11877
▁तस	-11878
▁बं	-11879
दिरा	-11880
▁जोध	-11881
▁शरद	-11882
▁सुभ	-11883
ेलनों	-11884
▁उठती	-11885
▁घोड़	-11886
▁दैवी	-11887
▁पारी	-11888
▁भूरे	-11889
▁मस्त	-11890
▁मेधा	-11891
▁रजनी	-11892
▁रूपा	-11893
▁रैंक	-11894
▁वृहत	-11895
▁उल्टी	-11896
▁कीड़े	-11897
▁बागान	-11898
▁एस्टेट	-11899
▁कन्नड़	-11900
▁कैरियर	-11901
▁पड़ताल	-11902
▁हरिश्च	-11903
▁इस्तीफा	-11904
▁क्लाइंट	-11905
▁प्वाइंट	-11906
▁मार्क्स	-11907
▁अधिकरणों	-11908
▁आधारशिला	-11909
▁कार्यकार	-11910
▁वृद्धावस्था	-11911
ah	-11912
शै	-11913
माय	-11914
ानक	-11915
▁घी	-11916
▁चढ	-11917
▁पूल	-11918
▁पैक	-11919
▁माफ	-11920
▁लवण	-11921
न्दरी	-11922
▁आएगी	-11923
▁उकसा	-11924
▁कणों	-11925
▁कालि	-11926
▁जलने	-11927
▁बहने	-11928
▁माडल	-11929
▁पाषाण	-11930
▁रणजीत	-11931
▁लिपिक	-11932
▁विखंड	-11933
▁स्कैन	-11934
▁स्थाप	-11935
▁आकृष्ट	-11936
▁मेजबान	-11937
▁राजकोष	-11938
▁संकुचन	-11939
▁असुविधा	-11940
▁टुकड़ों	-11941
▁विमानों	-11942
▁समावेशन	-11943
▁उदासीनता	-11944
▁प्रतिसाद	-11945
▁यात्राओं	-11946
▁सम्बंधित	-11947
▁अध्यापकों	-11948
▁इंडस्ट्री	-11949
▁उधारकर्ता	-11950
▁औपनिवेशिक	-11951
▁प्रयत्नों	-11952
▁अविश्वसनीय	-11953
▁अभियांत्रिकी	-11954
य्य	-11955
ोडे	-11956
▁उच	-11957
जवान	-11958
धारक	-11959
स्का	-11960
▁उषा	-11961
▁कैथ	-11962
▁टॉम	-11963
▁नशी	-11964
▁निज	-11965
ान्तर	-11966
▁आर्क	-11967
▁आवेग	-11968
▁कांच	-11969
▁छत्र	-11970
▁तलाक	-11971
▁प्रम	-11972
▁वैभव	-11973
▁हिरण	-11974
▁अंकुश	-11975
▁चावला	-11976
▁पड़ना	-11977
▁परिणत	-11978
▁फसलें	-11979
▁रुग्ण	-11980
▁वक़्त	-11981
▁सविता	-11982
▁उपस्कर	-11983
▁कप्तान	-11984
▁बैठकें	-11985
▁अनुकूलन	-11986
▁अविभक्त	-11987
▁उपेक्षित	-11988
▁कुंजीपटल	-11989
▁तस्वीरें	-11990
▁रिफाइनरी	-11991
▁रूपान्तर	-11992
▁अभूतपूर्व	-11993
▁हिस्सेदारी	-11994
गान	-11995
बरे	-11996
ल्म	-11997
▁दय	-11998
खाने	-11999
बीआई	-12000
ोपाय	-12001
▁अमा	-12002
▁शिप	-12003
▁सीर	-12004
▁हँस	-12005
ज्ञों	-12006
विहीन	-12007
▁अराज	-12008
▁पिंड	-12009
▁फार्	-12010
▁बतला	-12011
▁मेरु	-12012
▁लिहा	-12013
▁लेखे	-12014
▁ग्रेट	-12015
▁मापने	-12016
▁सिक्ख	-12017
▁जुड़ने	-12018
▁ध्वस्त	-12019
▁नदियां	-12020
▁नामकरण	-12021
▁पुनर्म	-12022
▁महत्तर	-12023
▁मैसर्स	-12024
▁यन्त्र	-12025
▁शत्रुओं	-12026
▁इंजेक्शन	-12027
▁परिचालित	-12028
▁चुनौतियां	-12029
▁प्रमाणीकरण	-12030
ुं	-12031
फीक	-12032
िंट	-12033
ैंप	-12034
▁gu	-12035
▁आड	-12036
▁रत	-12037
पाही	-12038
यनों	-12039
र्मन	-12040
▁गड्	-12041
▁जलन	-12042
▁मिज	-12043
िंग्स	-12044
▁उठते	-12045
▁धमनी	-12046
▁पेशा	-12047
▁फाइन	-12048
▁बाइट	-12049
▁वाकई	-12050
कोशिका	-12051
▁अकेली	-12052
▁कुछेक	-12053
▁मुरली	-12054
▁रुपया	-12055
▁बालिका	-12056
▁महादेव	-12057
▁अन्यत्र	-12058
▁जमींदार	-12059
▁क्रमादेश	-12060
▁गोपनीयता	-12061
▁नाइट्रोजन	-12062
घाट	-12063
फिल	-12064
वेन	-12065
▁शू	-12066
NAME	-12067
पाटी	-12068
लाइट	-12069
▁तने	-12070
▁पेन	-12071
▁बक्	-12072
▁भाष	-12073
रेस्ट	-12074
्रेशन	-12075
▁आरती	-12076
▁क्रू	-12077
▁बानो	-12078
▁भुला	-12079
▁महिल	-12080
▁राशन	-12081
▁काबुल	-12082
▁तालिब	-12083
▁भाजपा	-12084
▁यौगिक	-12085
पेक्षता	-12086
▁अमूर्त	-12087
▁अर्हता	-12088
▁श्रृंग	-12089
▁सर्जरी	-12090
▁संभाव्य	-12091
▁सियाराम	-12092
▁स्ट्रीम	-12093
▁प्रकोष्ठ	-12094
▁कॉर्पोरेट	-12095
▁पाकिस्तानी	-12096
▁दुर्भाग्यवश	-12097
मनी	-12098
िनो	-12099
▁hO	-12100
▁कफ	-12101
डियम	-12102
वर्ण	-12103
ौकिक	-12104
्राइ	-12105
▁अरु	-12106
▁डबल	-12107
▁पीट	-12108
▁पैग	-12109
▁यूर	-12110
▁हेन	-12111
ग्रही	-12112
ांतिक	-12113
▁इर्द	-12114
▁कस्त	-12115
▁दफ्त	-12116
▁भरना	-12117
▁मेजर	-12118
▁सलाम	-12119
▁साँस	-12120
▁बनावट	-12121
▁संवित	-12122
▁अनदेखा	-12123
▁अनुराग	-12124
▁जहाजों	-12125
▁जानकार	-12126
▁ब्यौरा	-12127
▁भ्रामक	-12128
▁पंचायती	-12129
▁आपूर्तिक	-12130
▁विषयवस्तु	-12131
▁सम्मेलनों	-12132
▁प्रत्यक्षतः	-12133
av	-12134
lo	-12135
कस	-12136
ind	-12137
शान	-12138
िकट	-12139
ुरू	-12140
फ़ोन	-12141
वाहक	-12142
शियम	-12143
स्टन	-12144
▁कटा	-12145
▁मिर	-12146
त्तों	-12147
ृद्धि	-12148
▁आईएफ	-12149
▁काया	-12150
▁चोटी	-12151
▁ठरोग	-12152
▁थोडा	-12153
▁नंदा	-12154
▁मवेश	-12155
▁अवलंब	-12156
▁क्षीण	-12157
▁तटस्थ	-12158
▁बिलास	-12159
▁मक्खी	-12160
▁मांगा	-12161
▁मानकी	-12162
▁शुक्ल	-12163
क्रिप्ट	-12164
▁दिखाएं	-12165
▁सन्देश	-12166
▁तीक्ष्ण	-12167
▁निषिद्ध	-12168
▁पुरोहित	-12169
▁सामान्यत	-12170
▁राजकुमारी	-12171
कुम	-12172
▁घि	-12173
▁थक	-12174
आरसी	-12175
ल्पी	-12176
विड़	-12177
▁कंड	-12178
▁कोत	-12179
▁घोल	-12180
▁नस्	-12181
▁रजत	-12182
▁शरा	-12183
▁सल्	-12184
न्तुक	-12185
▁गांठ	-12186
▁सूखी	-12187
▁स्टे	-12188
ास्त्र	-12189
▁अनीता	-12190
▁एग्री	-12191
▁घोड़ा	-12192
▁जर्नल	-12193
▁मानती	-12194
▁लिप्त	-12195
▁विध्व	-12196
▁सुचार	-12197
▁स्वंय	-12198
▁करोड़ों	-12199
▁अस्वीकृति	-12200
▁लाइब्रेरी	-12201
▁कार्यनीतिक	-12202
तिर	-12203
ोपा	-12204
ज़ोर	-12205
▁छठे	-12206
▁दीव	-12207
▁बसु	-12208
▁सडक	-12209
▁असम्	-12210
▁घबरा	-12211
▁चमकी	-12212
▁जरुर	-12213
▁लगना	-12214
▁विशा	-12215
▁शोभा	-12216
▁हटकर	-12217
▁ऊष्मा	-12218
▁एटीएम	-12219
▁बेहोश	-12220
▁हज़ार	-12221
स्थापना	-12222
▁क्यूरी	-12223
▁ज्ञानी	-12224
▁दुश्मन	-12225
▁हुकूमत	-12226
▁अनधिकृत	-12227
▁पार्वती	-12228
▁रणनीतिक	-12229
▁गवर्नमेंट	-12230
▁ब्राह्मणों	-12231
AT	-12232
ुनी	-12233
एंगे	-12234
गण्य	-12235
प्रे	-12236
▁केर	-12237
कार्ड	-12238
▁उभरा	-12239
▁कुसु	-12240
▁डेमो	-12241
▁बुजु	-12242
▁रावत	-12243
▁रीढ़	-12244
▁हथकर	-12245
▁अपलोड	-12246
▁कीमती	-12247
▁क्रिम	-12248
▁खरीदे	-12249
▁दर्पण	-12250
▁सस्ता	-12251
▁साँचा	-12252
▁सावधि	-12253
▁कृषकों	-12254
▁खुफिया	-12255
▁तिब्बत	-12256
▁विचलित	-12257
▁संबधित	-12258
▁सद्भाव	-12259
▁स्वीडन	-12260
▁किताबों	-12261
▁पहुंचना	-12262
▁वैचारिक	-12263
▁आनुपातिक	-12264
▁ज्योतिष्	-12265
▁यूरोपियन	-12266
▁प्रतिबिंब	-12267
▁बल्लेबाजी	-12268
▁इंडोनेशिया	-12269
▁रिश्तेदारों	-12270
▁सिद्धान्तों	-12271
▁कार्यप्रणाली	-12272
्ठ	-12273
लीस	-12274
संक	-12275
ह्म	-12276
ांट	-12277
ोहन	-12278
▁द्	-12279
आईपी	-12280
र्टी	-12281
िप्स	-12282
▁vii	-12283
▁कण्	-12284
▁काँ	-12285
▁घाय	-12286
्मीकि	-12287
▁आईपी	-12288
▁कमान	-12289
▁गाजा	-12290
▁जिया	-12291
▁नर्इ	-12292
▁मोचन	-12293
▁कायदा	-12294
▁खुदाई	-12295
▁तस्वी	-12296
▁नोबेल	-12297
▁बहनों	-12298
▁अंधकार	-12299
▁इंडिका	-12300
▁देनदार	-12301
▁ब्यौरे	-12302
▁लेनदार	-12303
▁अधिष्ठा	-12304
▁जन्मजात	-12305
▁परिषदों	-12306
▁प्रवृति	-12307
▁अग्रेषित	-12308
▁करनेवाला	-12309
▁निष्कासन	-12310
▁स्टेशनों	-12311
▁दस्तावेजी	-12312
▁ब्रह्मांड	-12313
दिर	-12314
ंगनी	-12315
▁दुम	-12316
▁बिश	-12317
▁बृज	-12318
र्वाद	-12319
▁बीयर	-12320
▁रखाव	-12321
▁विदा	-12322
द्वारा	-12323
बुद्धि	-12324
▁निस्त	-12325
▁प्लॉट	-12326
▁बनेगा	-12327
▁शुभार	-12328
त्साहित	-12329
▁कीर्ति	-12330
▁घुटनों	-12331
▁निलंबन	-12332
▁नेपाली	-12333
▁परिसंघ	-12334
▁बनवाया	-12335
▁व्यथित	-12336
▁सिक्के	-12337
▁सिखाया	-12338
▁सिपाही	-12339
▁स्टांप	-12340
▁सेनापति	-12341
▁निर्यातक	-12342
▁दावेदारों	-12343
▁सिद्धार्थ	-12344
▁स्त्रियां	-12345
▁प्रजातियां	-12346
ोभ	-12347
▁ं	-12348
करे	-12349
मुक	-12350
▁टु	-12351
सवाल	-12352
▁चीख	-12353
▁छठी	-12354
ारिटी	-12355
ालिया	-12356
▁अकाल	-12357
▁अजीत	-12358
▁अनिय	-12359
▁इन्स	-12360
▁गायन	-12361
▁छिपे	-12362
▁जलीय	-12363
▁जुडे	-12364
▁लाता	-12365
▁संगो	-12366
▁सादे	-12367
प्रभाव	-12368
्रिक्स	-12369
▁आठवीं	-12370
▁औरतों	-12371
▁चुम्ब	-12372
▁दुसरे	-12373
▁भरोसे	-12374
▁महिमा	-12375
▁योगेश	-12376
राष्ट्र	-12377
▁उदात्त	-12378
▁तंबाकू	-12379
▁निशाना	-12380
▁उत्परिव	-12381
▁एकरूपता	-12382
▁चिंताओं	-12383
▁नक्षत्र	-12384
▁मार्गों	-12385
▁मोतीलाल	-12386
▁संदेशों	-12387
▁क्रोमियम	-12388
▁देशभक्ति	-12389
▁बस्तियों	-12390
▁अभिप्राप्त	-12391
▁परिसंपत्ति	-12392
▁प्रायद्वीप	-12393
ib	-12394
व्	-12395
रुप	-12396
िनम	-12397
ुला	-12398
गाँव	-12399
ुप्त	-12400
▁ओपी	-12401
▁केक	-12402
▁डाई	-12403
▁दुल	-12404
▁पलट	-12405
▁रहस	-12406
▁रूक	-12407
▁सजग	-12408
▁हिज	-12409
बाज़ी	-12410
र्करा	-12411
▁अंडर	-12412
▁अकसर	-12413
▁आदिम	-12414
▁जमाव	-12415
▁रेणु	-12416
▁सल्ल	-12417
▁सोया	-12418
▁सोलह	-12419
▁जाग्र	-12420
▁दुहरा	-12421
▁पेशाब	-12422
▁विज्ञ	-12423
▁इजराइल	-12424
▁कार्यो	-12425
▁नौजवान	-12426
▁शौचालय	-12427
▁चार्ल्स	-12428
▁दृश्यों	-12429
▁भंडारित	-12430
▁अभिलाभों	-12431
▁उपाध्याय	-12432
▁प्रशंसनीय	-12433
▁किरायेदारी	-12434
aI	-12435
ud	-12436
भन	-12437
ess	-12438
कंठ	-12439
गुल	-12440
▁ch	-12441
गिरि	-12442
पिंग	-12443
रांत	-12444
▁ओड़	-12445
▁कवक	-12446
▁लता	-12447
ब्दिक	-12448
ाइयों	-12449
▁काबू	-12450
▁अवक्ष	-12451
▁उभरते	-12452
▁पढ़कर	-12453
▁रूढ़ि	-12454
▁हल्की	-12455
▁ह्रदय	-12456
कर्त्ता	-12457
▁करूँगा	-12458
▁गुर्दे	-12459
▁जबलपुर	-12460
चिकित्सा	-12461
▁परिजनों	-12462
▁पुरूषों	-12463
▁अनुज्ञेय	-12464
▁पूर्वगामी	-12465
▁पुरस्कारों	-12466
▁सर्टिफिकेट	-12467
▁प्रतिस्पर्धी	-12468
तीस	-12469
विद	-12470
वुड	-12471
▁एप	-12472
ting	-12473
पाती	-12474
लब्ध	-12475
▁and	-12476
▁कुच	-12477
▁कोठ	-12478
▁रहो	-12479
▁अब्ब	-12480
▁कबूल	-12481
▁घाना	-12482
▁फ्ला	-12483
▁विज़	-12484
▁अक्षय	-12485
▁आलोचक	-12486
▁कलाओं	-12487
▁खोजें	-12488
▁चाहने	-12489
▁जिहाद	-12490
▁जोसेफ	-12491
▁दसवीं	-12492
▁महमूद	-12493
▁संबन्	-12494
▁खासतौर	-12495
▁मांगने	-12496
▁ईश्वरीय	-12497
▁जीवनकाल	-12498
▁विवाहों	-12499
▁कार्यकारिणी	-12500
if	-12501
बै	-12502
तरा	-12503
सला	-12504
ौरन	-12505
▁एए	-12506
▁लव	-12507
आईएल	-12508
जीपी	-12509
ण्डा	-12510
नुमा	-12511
▁अवन	-12512
▁गें	-12513
▁जीभ	-12514
▁भड़	-12515
▁लॉज	-12516
आयामी	-12517
ज्ञेय	-12518
योजित	-12519
िचेरी	-12520
▁आभार	-12521
▁कैल्	-12522
▁टेबल	-12523
▁पीला	-12524
▁सैनी	-12525
▁अठारह	-12526
▁एरिया	-12527
▁गैसों	-12528
▁घटिया	-12529
▁रद्दी	-12530
▁रवैया	-12531
▁वरदान	-12532
▁सब्जी	-12533
▁उत्तरो	-12534
▁घायलों	-12535
▁सोनिया	-12536
▁सोमनाथ	-12537
▁स्तम्भ	-12538
विज्ञानी	-12539
▁आरम्भिक	-12540
▁निकालकर	-12541
▁बुजुर्ग	-12542
▁राजशाही	-12543
▁संस्थित	-12544
▁गतिशीलता	-12545
▁कांफ्रेंस	-12546
▁उत्तराधिकारियों	-12547
आप	-12548
झक	-12549
दून	-12550
सलम	-12551
▁ko	-12552
▁घण	-12553
▁मच	-12554
जीसी	-12555
ट्ठी	-12556
नाशी	-12557
र्गी	-12558
▁बरत	-12559
▁बहू	-12560
ित्ति	-12561
▁इंगल	-12562
▁उठकर	-12563
▁जनित	-12564
▁डीलर	-12565
▁दाता	-12566
च्छन्न	-12567
रेनियम	-12568
▁खजाने	-12569
▁घटाने	-12570
▁ट्रीय	-12571
▁दोहरे	-12572
▁पक्षा	-12573
▁पराजय	-12574
▁माइनस	-12575
▁असीमित	-12576
▁चुकाने	-12577
▁प्राक्	-12578
▁मुसीबत	-12579
▁रचनाएं	-12580
▁गर्भपात	-12581
▁गुरबख्श	-12582
▁दीर्घाव	-12583
▁निपटाने	-12584
▁निर्वास	-12585
▁पर्वतों	-12586
▁व्यक़्त	-12587
▁अनुष्ठान	-12588
▁प्रतिषेध	-12589
our	-12590
कटि	-12591
टिन	-12592
ताप	-12593
थिक	-12594
नाद	-12595
युग	-12596
शाक	-12597
▁झी	-12598
▁हठ	-12599
efit	-12600
चुअल	-12601
धाना	-12602
नाथन	-12603
पारा	-12604
ासाह	-12605
▁अनज	-12606
▁उमर	-12607
▁खडे	-12608
▁पिप	-12609
▁भजन	-12610
▁रास	-12611
गृहीत	-12612
फॉर्म	-12613
ेरिया	-12614
▁कड़े	-12615
▁डीडी	-12616
▁नजरअ	-12617
▁पढ़ी	-12618
▁पितृ	-12619
▁पीटर	-12620
▁मजूम	-12621
▁यकृत	-12622
▁अन्ना	-12623
▁ऑफिसर	-12624
▁डब्लू	-12625
▁नियमन	-12626
▁मुंडा	-12627
▁विक्ट	-12628
▁वीर्य	-12629
▁सस्ती	-12630
▁एकाधिक	-12631
▁कुर्की	-12632
▁मिटाएँ	-12633
▁सिक्का	-12634
▁ईमानदार	-12635
▁करनेवाली	-12636
▁जिज्ञासा	-12637
▁दूरदर्शन	-12638
▁पेंडेंसी	-12639
▁बेजबरुवा	-12640
▁उपलब्धियां	-12641
▁प्रतिभाशाली	-12642
▁देवेन्द्रनाथ	-12643
ey	-12644
फू	-12645
हक	-12646
ोपै	-12647
ौला	-12648
▁चब	-12649
ंजित	-12650
▁चूह	-12651
▁जिम	-12652
▁डोग	-12653
▁पोट	-12654
▁चंचल	-12655
▁यूसु	-12656
▁रोपण	-12657
▁वासु	-12658
▁विरल	-12659
▁कमलेश	-12660
▁कैम्प	-12661
▁तम्बा	-12662
▁पत्ती	-12663
▁परवीन	-12664
▁पन्द्र	-12665
▁भेड़ों	-12666
▁भ्रमित	-12667
▁अनुषंगी	-12668
▁इमारतों	-12669
▁कैदियों	-12670
▁गोरखपुर	-12671
▁प्रत्ये	-12672
▁बोर्डों	-12673
▁शाब्दिक	-12674
▁समयबद्ध	-12675
▁हाथियों	-12676
▁उत्कीर्ण	-12677
▁प्रदर्शक	-12678
▁राष्ट्रवाद	-12679
▁सैद्धांतिक	-12680
ऊँ	-12681
ant	-12682
गरण	-12683
रिफ	-12684
▁वश	-12685
माता	-12686
▁जनस	-12687
▁धाम	-12688
▁भाप	-12689
▁मात	-12690
▁दोहन	-12691
▁पर्ण	-12692
▁बनें	-12693
▁मंजू	-12694
▁मलिक	-12695
▁सुवि	-12696
enefit	-12697
पोरेशन	-12698
▁एसएचओ	-12699
▁कदमों	-12700
▁फील्ड	-12701
▁मुस्क	-12702
▁समेकन	-12703
पंथियों	-12704
▁अधिग्र	-12705
▁अधीनता	-12706
▁अब्बास	-12707
▁जोड़ता	-12708
▁पड़ेगी	-12709
▁भाषाएँ	-12710
▁शक़्ति	-12711
▁ज्योतिष	-12712
▁मजूमदार	-12713
▁उग्रवादी	-12714
▁गोलीबारी	-12715
▁पत्राचार	-12716
▁मानसिकता	-12717
▁उन्नीसवीं	-12718
▁कठिनाइयां	-12719
▁रूपांतरित	-12720
▁सुप्रसिद्ध	-12721
▁विवेकाधिकार	-12722
▁सौहार्दपूर्ण	-12723
▁प्रतिक्रियाओं	-12724
ep	-12725
देह	-12726
ोनी	-12727
▁नख	-12728
▁अजन	-12729
▁एनी	-12730
▁पिल	-12731
ंडिंग	-12732
▁ब्रज	-12733
▁वाटर	-12734
▁वायर	-12735
विद्या	-12736
▁उद्भव	-12737
▁ठहराव	-12738
▁डिस्प	-12739
▁बरसात	-12740
▁मधुकर	-12741
▁लगाता	-12742
▁सेंटी	-12743
▁कहलाती	-12744
▁कीमिया	-12745
▁जोड़कर	-12746
▁निगमों	-12747
▁रुकावट	-12748
▁वेश्या	-12749
▁पुनर्जी	-12750
▁संरक्षा	-12751
▁नामांकित	-12752
▁प्रतिद्वंद्वी	-12753
ंके	-12754
खला	-12755
फली	-12756
फिर	-12757
▁जक	-12758
iver	-12759
ंटिक	-12760
क्यू	-12761
▁एएस	-12762
▁जुड	-12763
▁परख	-12764
▁फलन	-12765
▁रमन	-12766
ोत्तम	-12767
▁आवेश	-12768
▁उभरे	-12769
▁चंदन	-12770
▁तुलन	-12771
▁धीरज	-12772
▁मुक़	-12773
▁राजग	-12774
▁वाइस	-12775
▁सीटी	-12776
▁सूरी	-12777
▁अंगुल	-12778
▁असहाय	-12779
▁अस्वा	-12780
▁आत्मक	-12781
▁झगड़े	-12782
▁डालती	-12783
▁रेस्त	-12784
▁वीरता	-12785
▁सहदेव	-12786
▁काव्या	-12787
▁गणितीय	-12788
▁गुलाबी	-12789
▁दूरभाष	-12790
▁पुजारी	-12791
▁वर्तनी	-12792
▁विषाणु	-12793
▁शिकारी	-12794
▁स्थापन	-12795
▁डाटाबेस	-12796
▁प्रतिशो	-12797
▁निर्वाचक	-12798
▁असुरक्षित	-12799
▁तत्संबंधी	-12800
▁मानवाधिकार	-12801
ttp	-12802
धरा	-12803
नित	-12804
शों	-12805
हमी	-12806
ासु	-12807
िप्	-12808
िवि	-12809
▁वं	-12810
निधि	-12811
प्सा	-12812
र्दी	-12813
स्टी	-12814
▁केन	-12815
▁नोए	-12816
▁मोम	-12817
▁कोले	-12818
▁छन्द	-12819
▁जबतक	-12820
▁डीएस	-12821
▁नर्त	-12822
▁बंसल	-12823
▁बारा	-12824
▁बेची	-12825
▁लड़क	-12826
▁लेबन	-12827
▁काटना	-12828
▁चलाते	-12829
▁मारना	-12830
▁सीतार	-12831
▁ऊर्ध्व	-12832
▁ग्रामो	-12833
▁डिप्लो	-12834
▁फिलहाल	-12835
▁साँचाः	-12836
▁अधिरोपण	-12837
▁आदमियों	-12838
▁पहुंचते	-12839
▁मिलेंगे	-12840
▁सराहनीय	-12841
▁पूर्वजों	-12842
▁बिलासपुर	-12843
▁संख्याओं	-12844
▁उत्पादकों	-12845
▁विक्रेताओं	-12846
▁संवेदनशीलता	-12847
२ख	-12848
ard	-12849
भान	-12850
माइ	-12851
गर्भ	-12852
चर्य	-12853
छाड़	-12854
ीपीय	-12855
▁कतर	-12856
▁काक	-12857
▁कोऋ	-12858
▁घुल	-12859
▁चलन	-12860
▁बरस	-12861
▁माई	-12862
▁अनभि	-12863
▁आरसी	-12864
▁उद्व	-12865
▁ऑप्ट	-12866
▁चुनि	-12867
▁टीके	-12868
▁डिली	-12869
▁दुरा	-12870
▁धोखे	-12871
▁बायो	-12872
▁राज़	-12873
▁सूती	-12874
दर्शित	-12875
निकेतन	-12876
▁अप्रा	-12877
▁कश्मी	-12878
▁खोलना	-12879
▁तूफान	-12880
▁सख्ती	-12881
स्वार्थ	-12882
▁कीमतें	-12883
▁गंधर्व	-12884
▁चुकौती	-12885
▁संवेदी	-12886
▁अवशिष्ट	-12887
▁रक्तचाप	-12888
▁उन्मुक्त	-12889
▁कम्प्यूट	-12890
▁विनिर्दि	-12891
▁कार्यनीति	-12892
▁बुद्धिमत्ता	-12893
▁प्रतिभागियों	-12894
▁प्रत्यर्थियों	-12895
वारे	-12896
ुराम	-12897
▁अथॉ	-12898
▁जूझ	-12899
▁ठंड	-12900
▁रमा	-12901
▁हिच	-12902
ामंडल	-12903
ुलिपि	-12904
▁आफिस	-12905
▁उमेश	-12906
▁कुचल	-12907
▁जजों	-12908
▁झूठी	-12909
▁ध्या	-12910
▁फतेह	-12911
▁फरार	-12912
▁फर्द	-12913
▁माली	-12914
ग्रन्थ	-12915
▁अनगिन	-12916
▁अपीली	-12917
▁डाकघर	-12918
▁तुमसे	-12919
▁दोषों	-12920
▁पिटाई	-12921
▁पोषित	-12922
▁प्राग	-12923
▁बदलकर	-12924
▁मांगे	-12925
▁संकुल	-12926
▁सुनना	-12927
▁गठबंधन	-12928
▁पंजीयक	-12929
▁बहियों	-12930
श्योरेंस	-12931
▁कार्तिक	-12932
▁श्रीराम	-12933
▁उदारीकरण	-12934
▁दोषपूर्ण	-12935
▁प्रांतों	-12936
▁विज्ञानी	-12937
▁शक्तियाँ	-12938
▁त्रुटियों	-12939
▁विवेकपूर्ण	-12940
▁व्याख्याता	-12941
ev	-12942
नोट	-12943
ौरी	-12944
▁कऋ	-12945
सेसर	-12946
ानेक	-12947
ुकूल	-12948
्याल	-12949
▁III	-12950
▁खडा	-12951
▁जेट	-12952
▁पैं	-12953
▁फीड	-12954
▁फेल	-12955
▁महज	-12956
▁उठने	-12957
▁फोकस	-12958
▁मदुर	-12959
▁सुधा	-12960
▁चलाता	-12961
▁बिगड़	-12962
▁सुमित	-12963
▁आँकड़ा	-12964
▁कुलदीप	-12965
▁गुजरना	-12966
▁निभाता	-12967
▁प्रयाग	-12968
▁प्लांट	-12969
▁महानगर	-12970
▁मुनाफा	-12971
▁लम्बाई	-12972
▁सुशासन	-12973
▁बरामदगी	-12974
▁भागलपुर	-12975
▁मोहल्ला	-12976
▁आच्छादित	-12977
▁आशीर्वाद	-12978
▁परामर्शी	-12979
▁पुरातत्व	-12980
▁प्रणालियां	-12981
▁सुव्यवस्थित	-12982
▁पारिस्थितिकी	-12983
विस	-12984
सरत	-12985
्य्	-12986
क़्स	-12987
▁उखा	-12988
▁चाप	-12989
▁मरु	-12990
▁रूख	-12991
न्नों	-12992
ियाला	-12993
▁आंगन	-12994
▁ईर्ष	-12995
▁झुका	-12996
▁द्यो	-12997
▁महंत	-12998
▁महाभ	-12999
▁उभरती	-13000
▁वेल्स	-13001
▁सज्जा	-13002
▁सिद्व	-13003
▁सॉल्व	-13004
▁अहंकार	-13005
▁कहेंगे	-13006
▁जोधपुर	-13007
▁देखिये	-13008
▁एजेन्सी	-13009
▁वाद्यों	-13010
▁निरंतरता	-13011
▁यूरेनियम	-13012
▁वायुसेना	-13013
▁लोकायुक्त	-13014
▁विकासात्मक	-13015
▁संपरिवर्तन	-13016
छी	-13017
बम	-13018
ंबे	-13019
ौड़	-13020
ैनिक	-13021
▁कंठ	-13022
▁किफ	-13023
ियनों	-13024
▁छोड़ी	-13025
▁जोज़े	-13026
▁द्रीय	-13027
▁पंखों	-13028
▁विजयी	-13029
▁विपुल	-13030
ानात्मक	-13031
▁खनिजों	-13032
▁नालंदा	-13033
▁ऋणात्मक	-13034
▁जनशक्ति	-13035
▁तत्परता	-13036
▁पहाड़ों	-13037
▁प्रज्ञा	-13038
▁मातृभाषा	-13039
▁संश्लेषण	-13040
▁सार्वभौम	-13041
▁हाइड्रोजन	-13042
▁महाप्रबंधक	-13043
ौज	-13044
मिट	-13045
त्रय	-13046
र्षण	-13047
▁कौम	-13048
▁खड़	-13049
▁गंज	-13050
▁चेन	-13051
▁डोम	-13052
▁फ़ी	-13053
▁शहद	-13054
कर्मी	-13055
मान्त	-13056
ोत्रा	-13057
्लैंड	-13058
▁अतुल	-13059
▁कुंड	-13060
▁चारे	-13061
▁तेरह	-13062
▁फिल्	-13063
▁भाभी	-13064
▁मजाक	-13065
▁मीणा	-13066
▁लतीफ	-13067
▁एकाएक	-13068
▁खानों	-13069
▁घटाकर	-13070
▁जानकी	-13071
▁बांटा	-13072
▁माइकल	-13073
▁रोहित	-13074
कृतियों	-13075
जीवियों	-13076
▁आदित्य	-13077
▁निरूपण	-13078
▁बिल्ली	-13079
▁लोकहित	-13080
▁शिलाले	-13081
▁संवर्ग	-13082
▁प्रतीका	-13083
▁संकुचित	-13084
▁अनेकानेक	-13085
▁उत्साहित	-13086
▁प्रक्रमण	-13087
गम्य	-13088
गोचर	-13089
त्था	-13090
पट्ट	-13091
▁अथक	-13092
▁कवच	-13093
▁सला	-13094
▁एंटर	-13095
▁एनडी	-13096
▁गोबर	-13097
▁निता	-13098
▁लपेट	-13099
▁घुड़स	-13100
▁सुलझा	-13101
प्रतिशत	-13102
▁आबकारी	-13103
▁नैसर्ग	-13104
▁सन्देह	-13105
▁सौंपने	-13106
▁मुर्गियों	-13107
▁संभाव्यता	-13108
वक्	-13109
्रू	-13110
करों	-13111
काशी	-13112
▁जगम	-13113
▁पाक	-13114
▁शही	-13115
▁एनाल	-13116
▁केवी	-13117
▁खाती	-13118
▁रोके	-13119
▁लंका	-13120
▁वंशज	-13121
▁स्के	-13122
क्ष्मी	-13123
▁अभिवा	-13124
▁उद्दी	-13125
▁एपीपी	-13126
▁कोलंब	-13127
▁घूमने	-13128
▁चालित	-13129
▁मनोमय	-13130
▁कार्या	-13131
▁पालिका	-13132
▁सिन्धु	-13133
▁बुनियाद	-13134
▁वायुयान	-13135
▁निर्धनता	-13136
ON	-13137
▁्	-13138
ुग्	-13139
▁कद	-13140
गिरी	-13141
ोस्ट	-13142
▁कंद	-13143
▁टंक	-13144
▁दखल	-13145
▁दीख	-13146
▁पका	-13147
▁भगव	-13148
क्कड़	-13149
पट्टी	-13150
फुल्ल	-13151
याधीश	-13152
्यस्त	-13153
▁अप्प	-13154
▁उड़न	-13155
▁एम्ब	-13156
▁कांड	-13157
▁बकरी	-13158
▁यत्न	-13159
▁वाष्	-13160
▁स्कू	-13161
▁अनुपम	-13162
▁उल्टा	-13163
▁पल्लव	-13164
▁बर्बर	-13165
▁रुझान	-13166
▁सेमिन	-13167
क्षोपाय	-13168
▁प्रवर्	-13169
▁विमानन	-13170
▁विवादा	-13171
▁ससुराल	-13172
▁हथकरघा	-13173
▁निपटाया	-13174
▁परिपाटी	-13175
▁प्रदूषक	-13176
▁परिशिष्ट	-13177
▁सेटिंग्स	-13178
▁मूर्तियों	-13179
▁व्यवस्थाओं	-13180
▁प्रक्रियात्मक	-13181
ॉम	-13182
नोई	-13183
मेय	-13184
रिस	-13185
ंगली	-13186
तमंद	-13187
ल्सन	-13188
वसाय	-13189
▁अशु	-13190
▁एनई	-13191
▁तले	-13192
▁बिम	-13193
डोदरा	-13194
▁ख़ान	-13195
▁नैगम	-13196
स्थायी	-13197
▁इंदौर	-13198
▁कथानक	-13199
▁खींचा	-13200
▁जीनों	-13201
▁नोएडा	-13202
▁बलवंत	-13203
▁रंजीत	-13204
▁संचलन	-13205
▁सांके	-13206
प्लेक्स	-13207
▁निकटता	-13208
▁रेटिंग	-13209
▁संबोधन	-13210
▁अस्वस्थ	-13211
▁पंचनामा	-13212
▁सक्सेना	-13213
▁अनुदेशों	-13214
▁इन्द्रिय	-13215
▁कार्यशील	-13216
▁होनेवाली	-13217
▁अव्यवस्था	-13218
▁दोषसिद्धि	-13219
▁छात्रवृत्ति	-13220
गीत	-13221
ब्स	-13222
▁IS	-13223
▁to	-13224
जियम	-13225
प्पी	-13226
योगी	-13227
ुलिन	-13228
▁चर्	-13229
▁पीय	-13230
▁सबक	-13231
▁अवरो	-13232
▁इनाम	-13233
▁एचपी	-13234
▁एमएल	-13235
▁गुड़	-13236
▁छड़ी	-13237
▁धड़क	-13238
▁पारा	-13239
▁बोनस	-13240
▁भूरा	-13241
▁वाक्	-13242
▁संचय	-13243
▁सप्त	-13244
▁सुकर	-13245
▁छुट्ट	-13246
▁नाड़ी	-13247
▁निगाह	-13248
▁पीडित	-13249
▁भूभाग	-13250
▁योंकि	-13251
▁रोकता	-13252
किस्तान	-13253
▁कहलाते	-13254
▁खींचने	-13255
▁परिवाद	-13256
▁पुनर्भ	-13257
▁रिचर्ड	-13258
▁लाइनों	-13259
▁सहभागी	-13260
▁अवक्षयण	-13261
▁परिसरों	-13262
▁प्रशंसक	-13263
▁प्रैक्ट	-13264
▁एचपीसीएल	-13265
▁नजरअंदाज	-13266
▁प्रतियों	-13267
▁प्रदूषित	-13268
▁रिपब्लिक	-13269
▁पुर्तगाली	-13270
▁प्रत्याशा	-13271
▁बेरोजगारी	-13272
▁दिशानिर्देशों	-13273
ऋर	-13274
कोड	-13275
ंचना	-13276
मपुर	-13277
▁अमन	-13278
▁एबी	-13279
▁बची	-13280
▁इन्फ	-13281
▁कंवर	-13282
▁यहॉँ	-13283
▁सावर	-13284
▁अनवरत	-13285
▁कानों	-13286
▁क्लिन	-13287
▁मंगोल	-13288
▁रक़्त	-13289
▁उपद्रव	-13290
▁नर्सरी	-13291
▁निद्रा	-13292
▁पूर्वज	-13293
▁बढ़ाते	-13294
▁मिटाने	-13295
▁मोर्चे	-13296
▁शेयर्स	-13297
▁सेवकों	-13298
▁आत्मकथा	-13299
▁कक्षाओं	-13300
▁ज़िम्मे	-13301
▁प्रभाकर	-13302
▁चट्टानों	-13303
▁जानेवाले	-13304
▁नवीकरणीय	-13305
▁नैसर्गिक	-13306
▁सांकेतिक	-13307
▁न्यायनिर्	-13308
▁लाभान्वित	-13309
▁उत्तरोत्तर	-13310
▁सांख्यिकीय	-13311
ंगम	-13312
खड़	-13313
ञ्च	-13314
फ़ल	-13315
▁st	-13316
▁ढु	-13317
▁मट	-13318
प्पन	-13319
यनगर	-13320
ूकोज	-13321
ूर्व	-13322
▁आहत	-13323
▁एंथ	-13324
▁नाख	-13325
त्सना	-13326
▁ऊँची	-13327
▁ऑडिट	-13328
▁कभार	-13329
▁खयाल	-13330
▁धागे	-13331
▁लोहा	-13332
▁श्रा	-13333
▁सीपी	-13334
ण्डेकर	-13335
ान्तरण	-13336
▁आपमें	-13337
▁गुम्ब	-13338
▁घटाना	-13339
▁यूसुफ	-13340
▁हजारी	-13341
▁अफ़्री	-13342
▁रविवार	-13343
▁वडोदरा	-13344
▁शाखाएं	-13345
▁सूरदास	-13346
▁पन्द्रह	-13347
▁फैक्टरी	-13348
▁बिंदुओं	-13349
▁ब्राजील	-13350
▁खाण्डेकर	-13351
▁त्रिवेदी	-13352
▁साम्यवादी	-13353
▁प्रस्तुतीकरण	-13354
खलन	-13355
रोल	-13356
लित	-13357
▁as	-13358
ड्डा	-13359
▁चिल	-13360
▁पें	-13361
▁बाज	-13362
▁शेल	-13363
▁साँ	-13364
क्रोश	-13365
िकाएं	-13366
▁अंतत	-13367
▁अर्क	-13368
▁चाबी	-13369
▁ज्ये	-13370
▁झटका	-13371
▁टकरा	-13372
▁लड़ी	-13373
▁लिफा	-13374
▁लेंस	-13375
▁सिंड	-13376
यात्मक	-13377
▁गुज़र	-13378
▁पलायन	-13379
▁वल्लभ	-13380
▁स्कंध	-13381
▁स्कोर	-13382
▁स्क्व	-13383
▁कमज़ोर	-13384
▁कावेरी	-13385
▁साइटों	-13386
▁सारवान	-13387
▁कैलेंडर	-13388
▁गोवर्धन	-13389
▁विश्वभर	-13390
▁शाहजहाँ	-13391
▁शुभारंभ	-13392
▁अंग्रेज़	-13393
▁कारखानों	-13394
▁संग्रहित	-13395
▁श्रेष्ठता	-13396
▁इंजीनियरों	-13397
▁किरायेदारों	-13398
▁हिंदुस्तानी	-13399
लम	-13400
चड़	-13401
जीन	-13402
▁छप	-13403
यिता	-13404
विभा	-13405
ियरी	-13406
▁org	-13407
▁खरे	-13408
▁पेड	-13409
▁सूख	-13410
ानिया	-13411
▁आकडा	-13412
▁कांत	-13413
▁दीदी	-13414
▁नंगे	-13415
▁फौरन	-13416
▁भाषी	-13417
▁रॉयल	-13418
▁विनो	-13419
▁वेंक	-13420
▁अविभा	-13421
▁जसवंत	-13422
▁पाउडर	-13423
▁सोचकर	-13424
न्त्रिक	-13425
▁अवयवों	-13426
▁उदयपुर	-13427
▁कीर्तन	-13428
▁ठहराने	-13429
▁निरोधक	-13430
▁पूर्णा	-13431
▁संभाला	-13432
▁सम्यक्	-13433
▁आलोचकों	-13434
▁दिखायें	-13435
▁व्यवधान	-13436
▁संप्रभु	-13437
▁समझदारी	-13438
▁सम्भवतः	-13439
▁डिप्लोमा	-13440
▁लाभार्थी	-13441
▁पांडिचेरी	-13442
▁प्रासंगिकता	-13443
ऐं	-13444
ati	-13445
एटी	-13446
णाम	-13447
यार	-13448
रां	-13449
स्स	-13450
ैरह	-13451
▁भत	-13452
ताना	-13453
मापी	-13454
रिंग	-13455
ेंदर	-13456
▁एस्	-13457
▁ट्व	-13458
▁थें	-13459
▁दाग	-13460
▁भान	-13461
▁मजे	-13462
▁मुस	-13463
ंद्रा	-13464
स्कोप	-13465
▁खिलौ	-13466
▁जहॉँ	-13467
▁डाउन	-13468
▁ताला	-13469
▁मूंग	-13470
▁मृदु	-13471
▁लाती	-13472
▁वरुण	-13473
▁विला	-13474
▁शाका	-13475
▁सकाः	-13476
▁सेमी	-13477
ंतुष्ट	-13478
ार्श्व	-13479
▁कंकाल	-13480
▁न्यूज	-13481
▁पहनने	-13482
▁फर्जी	-13483
▁सौदों	-13484
▁जोड़ों	-13485
▁त्यागी	-13486
▁अथॉरिटी	-13487
▁इंस्टॉल	-13488
▁इच्छाओं	-13489
▁ऑक्सीजन	-13490
▁तालिबान	-13491
▁अध्ययनों	-13492
▁तस्वीरों	-13493
▁पहुंचाया	-13494
▁शुक्रवार	-13495
▁स्थापत्य	-13496
▁अल्पकालिक	-13497
ink	-13498
ुना	-13499
लेटर	-13500
शकों	-13501
▁अवत	-13502
▁उनह	-13503
▁भैं	-13504
▁रज्	-13505
▁सेब	-13506
त्म्य	-13507
द्रोह	-13508
▁कैडर	-13509
▁कॉलम	-13510
▁गाते	-13511
▁गुदा	-13512
▁दौलत	-13513
▁नेगी	-13514
▁भैंस	-13515
▁यादृ	-13516
▁रूपी	-13517
▁साउथ	-13518
▁सुझा	-13519
ंगाबाद	-13520
वक्किल	-13521
▁पकाने	-13522
▁बैकअप	-13523
▁बैठते	-13524
▁संतति	-13525
▁अनगिनत	-13526
▁अन्तरण	-13527
▁अवैधता	-13528
▁क़ुरआन	-13529
▁दिवंगत	-13530
▁मकानों	-13531
▁मिजोरम	-13532
▁मुलायम	-13533
▁व्हाइट	-13534
▁सम्पदा	-13535
▁सुझाया	-13536
▁अनुशंसा	-13537
▁तम्बाकू	-13538
▁त्रासदी	-13539
▁मार्टिन	-13540
▁रहस्यमय	-13541
▁डेवलपमेंट	-13542
▁बहुपक्षीय	-13543
▁अधिनिर्णीत	-13544
▁आवश्यकताएं	-13545
▁प्रतीकात्मक	-13546
ov	-13547
pe	-13548
st	-13549
मू	-13550
ालो	-13551
▁छव	-13552
किसी	-13553
िकार	-13554
ुलकर	-13555
▁आड़	-13556
▁काज	-13557
▁नीम	-13558
▁मसल	-13559
िसिटर	-13560
ॉर्डन	-13561
▁गांध	-13562
▁टोपी	-13563
▁बहाव	-13564
▁रीडर	-13565
▁रोने	-13566
▁निकास	-13567
▁पूछें	-13568
▁मित्त	-13569
▁सम्यक	-13570
▁हिटलर	-13571
ऑक्साइड	-13572
▁अस्थाई	-13573
▁लेखाओं	-13574
▁विश्वा	-13575
▁समाजों	-13576
▁सुधारक	-13577
▁अध्यधीन	-13578
▁गुरुदेव	-13579
▁प्रसूति	-13580
▁समन्वयन	-13581
▁जानेवाली	-13582
▁प्रतिभाव	-13583
▁बहुआयामी	-13584
▁परीक्षाओं	-13585
▁स्क्रिप्ट	-13586
▁निष्क्रियता	-13587
णे	-13588
पटा	-13589
पदी	-13590
ाधीन	-13591
▁कोइ	-13592
▁भोल	-13593
▁मूक	-13594
▁विह	-13595
▁सिन	-13596
▁अनार	-13597
▁आरएफ	-13598
▁उदास	-13599
▁कल्प	-13600
▁किसे	-13601
▁केके	-13602
▁ग़लत	-13603
▁जूरी	-13604
▁ढाका	-13605
▁पूरन	-13606
▁मल्ह	-13607
▁लेबर	-13608
▁सुखा	-13609
जीलैंड	-13610
▁कड़ाई	-13611
▁काष्ठ	-13612
▁कोनों	-13613
▁गुटों	-13614
▁तितली	-13615
▁त्रिव	-13616
▁दबाया	-13617
▁पाएगा	-13618
▁बायोग	-13619
▁मिर्च	-13620
्राप्ति	-13621
▁ग्रसनी	-13622
▁परिधीय	-13623
▁पर्याय	-13624
▁महत्ता	-13625
▁शर्करा	-13626
▁स्तुति	-13627
▁अतिमानस	-13628
▁अपरिचित	-13629
▁जीवाश्म	-13630
▁टेक्स्ट	-13631
▁देशभक्त	-13632
▁द्रविड़	-13633
▁पौष्टिक	-13634
▁महारानी	-13635
▁विंडोज़	-13636
▁न्यूयॉर्क	-13637
▁परिकल्पित	-13638
▁यादृच्छिक	-13639
▁विनाशकारी	-13640
▁नवान्वेषकों	-13641
▁हरिश्चन्द्र	-13642
तव	-13643
्शा	-13644
▁लह	-13645
भाषी	-13646
मंडप	-13647
योजन	-13648
▁चोल	-13649
▁ज्ह	-13650
▁टोप	-13651
▁दाई	-13652
▁शुक	-13653
माण्ड	-13654
ोजनों	-13655
▁गोदा	-13656
▁चकित	-13657
▁ठंडे	-13658
▁दिक्	-13659
▁पर्स	-13660
▁पारस	-13661
▁बूंद	-13662
▁भुजा	-13663
▁मुखर	-13664
▁मेरठ	-13665
र्निंग	-13666
▁आरोहण	-13667
▁कहावत	-13668
▁खलीफा	-13669
▁देहरा	-13670
▁नोट्स	-13671
▁पडेगा	-13672
▁पहलें	-13673
▁भयावह	-13674
▁सर्दी	-13675
▁सुपरि	-13676
ोग्राफी	-13677
▁फ्रेंच	-13678
▁विभक्त	-13679
▁एजुकेशन	-13680
▁त्रिकोण	-13681
▁पहुंचता	-13682
▁राजनयिक	-13683
▁आईएफसीआई	-13684
▁प्रमुखों	-13685
▁सम्मिश्रण	-13686
▁शांतिनिकेतन	-13687
▁प्राप्तकर्ता	-13688
तित	-13689
▁ओस	-13690
्रीत	-13691
▁आज़	-13692
▁डिस	-13693
▁परभ	-13694
▁पाम	-13695
▁लिय	-13696
▁सफर	-13697
▁हर्	-13698
शीर्ष	-13699
िनेशन	-13700
ोबारी	-13701
▁अभिश	-13702
▁एलपी	-13703
▁ट्यू	-13704
▁थॉमस	-13705
▁परेड	-13706
▁बंजर	-13707
▁बेचे	-13708
▁स्पा	-13709
▁अधूरा	-13710
▁कांति	-13711
▁जयदेव	-13712
▁लॉन्च	-13713
▁गार्डन	-13714
▁प्लगिन	-13715
▁फोरेंस	-13716
▁मृतकों	-13717
▁सत्यता	-13718
▁इण्डिया	-13719
▁चुनिंदा	-13720
▁पांचवें	-13721
▁सीताराम	-13722
▁अल्पावधि	-13723
▁प्रवर्तक	-13724
▁शेयरधारक	-13725
▁निहितार्थ	-13726
▁टिप्पणियां	-13727
▁प्रतिभावान	-13728
▁विवादास्पद	-13729
▁ग्रामोद्योग	-13730
oun	-13731
टीन	-13732
च्यु	-13733
दिया	-13734
ल्हे	-13735
वाहन	-13736
▁आपे	-13737
▁कास	-13738
▁क्य	-13739
▁चेर	-13740
▁टाई	-13741
▁पॉप	-13742
▁मसी	-13743
ण्डित	-13744
ताकार	-13745
रीकरण	-13746
▁जीना	-13747
▁नवयु	-13748
▁पतला	-13749
▁बर्न	-13750
▁ब्रो	-13751
▁मिज़	-13752
▁रूपए	-13753
▁सबकी	-13754
प्रधान	-13755
▁अनोखा	-13756
▁गन्ने	-13757
▁गांजा	-13758
▁घूमते	-13759
▁टेम्प	-13760
▁फैलने	-13761
▁सर्कल	-13762
ंख्यकों	-13763
▁अलंकरण	-13764
▁इलेक्ट	-13765
▁गुजरने	-13766
▁घोड़ों	-13767
▁पृष्ठा	-13768
▁हमलावर	-13769
▁जन्मदिन	-13770
▁परन्तुक	-13771
▁स्पर्धा	-13772
▁क्रिमिनल	-13773
▁माइक्रोस	-13774
▁रामेश्वर	-13775
▁स्पष्टता	-13776
▁व्यवसायिक	-13777
▁सर्जनात्मक	-13778
ेण	-13779
कें	-13780
ग़ल	-13781
घ्न	-13782
डान	-13783
तिन	-13784
विष	-13785
क्कन	-13786
म्बल	-13787
र्जर	-13788
ार्ग	-13789
▁pro	-13790
▁एने	-13791
▁घुम	-13792
▁मीर	-13793
▁लाय	-13794
त्तरी	-13795
न्यास	-13796
र्भाव	-13797
▁एमबी	-13798
▁काटा	-13799
▁दोहर	-13800
▁शिका	-13801
▁सपाट	-13802
▁सूफी	-13803
न्दराम	-13804
ृतियों	-13805
▁आज़ाद	-13806
▁उतरने	-13807
▁उर्जा	-13808
▁खजाना	-13809
▁पशुधन	-13810
▁पैलेस	-13811
▁बैठता	-13812
▁मूर्त	-13813
▁वीरेन	-13814
▁शालीन	-13815
▁सस्ते	-13816
▁कार्बो	-13817
▁टांगों	-13818
▁दिलाना	-13819
▁दोस्ती	-13820
▁निकलकर	-13821
▁न्यासी	-13822
▁प्रोद्	-13823
▁मोर्चा	-13824
▁अनुग्रह	-13825
▁इंटरफेस	-13826
▁ट्रस्टी	-13827
▁प्रत्यय	-13828
▁यंत्रों	-13829
▁वादियों	-13830
▁तुल्यकाल	-13831
▁पत्तियां	-13832
▁आपत्तियों	-13833
▁ग्रीनहाउस	-13834
▁चेन्नम्मा	-13835
▁प्रकाशनों	-13836
▁टेक्नोलॉजी	-13837
▁सियारामशरण	-13838
▁हिन्दुस्तानियों	-13839
MA	-13840
ip	-13841
up	-13842
art	-13843
ंघा	-13844
गाई	-13845
जुए	-13846
मीत	-13847
ोदर	-13848
ज़ाम	-13849
मूलक	-13850
▁उमी	-13851
▁एसए	-13852
▁कोक	-13853
▁गोग	-13854
▁चचे	-13855
▁मचा	-13856
▁लोम	-13857
▁सेव	-13858
बंधित	-13859
▁कमोड	-13860
▁गाली	-13861
▁नामे	-13862
▁भागत	-13863
▁मुखा	-13864
▁विंग	-13865
मंडलों	-13866
▁अरबों	-13867
▁आभारी	-13868
▁किसने	-13869
▁खांसी	-13870
▁जलाने	-13871
▁जवाबी	-13872
▁टनभार	-13873
▁दिखती	-13874
▁द्वेष	-13875
▁प्यूप	-13876
▁प्रखर	-13877
▁मांझी	-13878
▁लौटते	-13879
▁संपरी	-13880
▁साध्य	-13881
▁सामंत	-13882
▁सिखों	-13883
▁हमलाव	-13884
▁कामयाब	-13885
▁क्षणों	-13886
▁क्षत्र	-13887
▁तपस्या	-13888
▁परिणति	-13889
▁भाषाएं	-13890
▁मूत्रा	-13891
▁समांतर	-13892
▁अभिकल्प	-13893
▁निपटारे	-13894
▁निर्बाध	-13895
▁बेटियों	-13896
▁सिक्कों	-13897
▁जबरदस्ती	-13898
▁प्रफुल्ल	-13899
▁प्रबुद्ध	-13900
▁फोरेंसिक	-13901
▁वाल्मीकि	-13902
▁श्रोताओं	-13903
▁संरचनाओं	-13904
▁अनुपयुक्त	-13905
▁कीटनाशकों	-13906
▁प्रबंधकों	-13907
▁बहुसंख्यक	-13908
▁मूर्तियां	-13909
▁पर्यवेक्षक	-13910
▁पूर्वावलोकन	-13911
बस	-13912
वय	-13913
ंबी	-13914
ोरो	-13915
▁Al	-13916
▁नस	-13917
दिनी	-13918
बयान	-13919
र्मर	-13920
▁कें	-13921
▁जैक	-13922
▁नमी	-13923
▁रहन	-13924
▁रेस	-13925
▁विव	-13926
बंधीय	-13927
शीघ्र	-13928
ॉलिटन	-13929
▁कुरु	-13930
▁ख़ास	-13931
▁खिलफ	-13932
▁डीजल	-13933
▁माधु	-13934
▁मिथक	-13935
▁मोहर	-13936
स्थानी	-13937
▁अवांछ	-13938
▁क्लिप	-13939
▁पंक्त	-13940
▁पोशाक	-13941
▁बंकिम	-13942
▁वगैरह	-13943
▁समझकर	-13944
▁सेल्स	-13945
▁होतीं	-13946
▁किनारा	-13947
▁गुलामी	-13948
▁महानता	-13949
▁वानिकी	-13950
▁समीचीन	-13951
▁हिन्दु	-13952
▁पाठशाला	-13953
▁स्थानिक	-13954
▁निबंधनों	-13955
▁मुवक्किल	-13956
▁अधिकांशतः	-13957
▁रिपोर्टिंग	-13958
eb	-13959
१ख	-13960
ंबू	-13961
खोर	-13962
रोड	-13963
▁an	-13964
▁ईस	-13965
▁उर	-13966
▁र्	-13967
तरफा	-13968
द्धन	-13969
भूषा	-13970
ेंदु	-13971
▁कुट	-13972
▁जात	-13973
▁थिर	-13974
▁धुन	-13975
▁पाट	-13976
▁मजह	-13977
▁हिर	-13978
▁खदान	-13979
▁जहरी	-13980
▁तरुण	-13981
▁धुरी	-13982
▁फरसा	-13983
▁यूएन	-13984
▁स्टै	-13985
▁गद्दी	-13986
▁जिसपर	-13987
▁जुलूस	-13988
▁पूछना	-13989
▁बगीचे	-13990
▁रियाय	-13991
▁लापता	-13992
▁सीखते	-13993
द्वीपीय	-13994
राज्यों	-13995
▁दिलाता	-13996
▁निन्दा	-13997
▁भित्ति	-13998
▁मिशनरी	-13999
▁सावरकर	-14000
▁जोखिमों	-14001
▁निवेशों	-14002
▁बायोगैस	-14003
▁विपक्षी	-14004
▁समावेदन	-14005
▁असंतुष्ट	-14006
▁आकाशवाणी	-14007
▁इतिहासकार	-14008
▁प्रवर्तित	-14009
▁अनुज्ञप्ति	-14010
▁निष्पक्षता	-14011
▁ज्योतिष्पीठ	-14012
▁अर्थव्यवस्थाओं	-14013
ill	-14014
दिव	-14015
बनिक	-14016
सिका	-14017
ोन्म	-14018
▁आसन	-14019
▁घसी	-14020
▁चूस	-14021
▁तड़	-14022
▁नें	-14023
▁पीस	-14024
▁बां	-14025
▁कमाई	-14026
▁डिपो	-14027
▁दीर्	-14028
▁नीलम	-14029
▁पाली	-14030
▁बीते	-14031
▁मुकु	-14032
▁लैंड	-14033
▁सोचे	-14034
▁उपमहा	-14035
▁क्लेम	-14036
▁चिंटू	-14037
▁ढाँचा	-14038
▁मज्जा	-14039
▁मदुरै	-14040
▁मस्ती	-14041
▁मालती	-14042
▁शेक्स	-14043
▁सुब्र	-14044
पेक्षित	-14045
▁अधिमान	-14046
▁चैनलों	-14047
▁बादलों	-14048
▁संकेतन	-14049
▁सामयिक	-14050
▁कारखाना	-14051
▁धर्मनिर	-14052
▁ब्राउज़	-14053
▁वायसराय	-14054
▁संचारित	-14055
▁उपनिषदों	-14056
▁वाक्यांश	-14057
▁हमलावरों	-14058
▁इस्लामवाद	-14059
▁ग्राफिक्स	-14060
▁चंद्रशेखर	-14061
▁कार्यात्मक	-14062
▁ट्रेडमार्क	-14063
▁राज्यपालों	-14064
▁केंद्रशासित	-14065
se	-14066
ंगण	-14067
इंग	-14068
शिव	-14069
ायु	-14070
▁रग	-14071
ंगता	-14072
आरटी	-14073
चिकर	-14074
तदार	-14075
ाम्प	-14076
ेष्ट	-14077
▁जीप	-14078
▁पना	-14079
▁मशी	-14080
▁वलय	-14081
म्मति	-14082
ुन्टू	-14083
▁खोजा	-14084
▁दाने	-14085
▁पम्प	-14086
▁मिनी	-14087
▁व्यप	-14088
▁साइड	-14089
▁हलचल	-14090
▁हैंड	-14091
▁ख़त्म	-14092
▁चुनना	-14093
▁छोडकर	-14094
▁पुर्न	-14095
▁भारित	-14096
▁विलयन	-14097
▁साढ़े	-14098
▁स्टेड	-14099
त्वर्ती	-14100
परीक्षक	-14101
▁अमूल्य	-14102
▁एफएसएल	-14103
▁गुस्से	-14104
▁निभाते	-14105
▁पारेषण	-14106
▁पुनर्प	-14107
▁प्रिया	-14108
▁भक्तों	-14109
▁मैनेजर	-14110
▁युवकों	-14111
▁अनभिज्ञ	-14112
▁चर्चाओं	-14113
▁प्राइमा	-14114
▁मानदण्ड	-14115
▁अनुकरणीय	-14116
▁अभ्यर्थी	-14117
▁नरेन्द्र	-14118
▁प्रमुखता	-14119
▁मल्होत्रा	-14120
▁आत्मनिर्भर	-14121
▁प्रोसेसिंग	-14122
ँध	-14123
२०	-14124
ंसू	-14125
क़ा	-14126
प्स	-14127
▁sa	-14128
▁धू	-14129
लाइड	-14130
▁अटक	-14131
▁अपा	-14132
▁कटु	-14133
▁चों	-14134
▁बढो	-14135
▁बेव	-14136
न्ध्र	-14137
साध्य	-14138
▁आयोड	-14139
▁उमीद	-14140
▁काजी	-14141
▁पथरी	-14142
▁ज़िला	-14143
▁बेसिक	-14144
▁बैक्ट	-14145
▁विरूप	-14146
▁साइबर	-14147
▁हमलों	-14148
क्षेपित	-14149
▁अपनाते	-14150
▁कुत्ता	-14151
▁कोष्ठक	-14152
▁गुस्सा	-14153
▁मिलाने	-14154
▁मुल्ला	-14155
▁लेबनान	-14156
▁आक्सीजन	-14157
▁आत्मसात	-14158
▁गर्भगृह	-14159
▁डिलीवरी	-14160
▁संवितरण	-14161
▁स्क्रॉल	-14162
▁पुर्तगाल	-14163
▁वायुमंडल	-14164
▁सुविधाएँ	-14165
▁आवेदनपत्र	-14166
▁स्वरयंत्र	-14167
▁ज्योतिर्मठ	-14168
▁समाचारपत्र	-14169
▁सर्वसाधारण	-14170
▁आयुर्विज्ञान	-14171
ine	-14172
टीर	-14173
देय	-14174
वचन	-14175
ोशी	-14176
▁झि	-14177
ंदरी	-14178
गीता	-14179
सेवक	-14180
▁END	-14181
▁एंग	-14182
▁करू	-14183
▁किं	-14184
▁ख़ु	-14185
▁दूं	-14186
▁मशह	-14187
धर्मी	-14188
लिखित	-14189
▁इंग़	-14190
▁ऊँचे	-14191
▁ऐक्ट	-14192
▁गोंड	-14193
▁जुडी	-14194
▁दीपू	-14195
▁बनवा	-14196
▁बार्	-14197
▁संवे	-14198
▁सरला	-14199
त्पादक	-14200
वादिता	-14201
▁जीर्ण	-14202
▁दायरा	-14203
▁मैनेज	-14204
च्छिन्न	-14205
▁चाइल्ड	-14206
▁पागलपन	-14207
▁प्यारे	-14208
▁मेधावी	-14209
▁रिव्यू	-14210
▁विस्मय	-14211
▁श्रोणि	-14212
▁जायसवाल	-14213
▁नाभिकीय	-14214
▁प्रधाना	-14215
▁बाबूलाल	-14216
▁कीमियागर	-14217
▁क्रिस्टल	-14218
▁तारामंडल	-14219
▁देहरादून	-14220
▁विचारणीय	-14221
▁संपर्कों	-14222
▁अंतर्वलित	-14223
▁अनुक्रिया	-14224
▁स्थानापन्न	-14225
▁अंतरराष्ट्री	-14226
▁पश्चात्वर्ती	-14227
▁मेट्रोपॉलिटन	-14228
▁परिसंपत्तियों	-14229
फत	-14230
ick	-14231
शेद	-14232
▁em	-14233
▁ex	-14234
जाति	-14235
पत्त	-14236
भद्र	-14237
वंशी	-14238
श्यप	-14239
▁अनप	-14240
▁आंग	-14241
▁खटख	-14242
▁तौल	-14243
▁माड	-14244
▁मृग	-14245
▁लंग	-14246
▁व्ह	-14247
फील्ड	-14248
▁खाया	-14249
▁चादर	-14250
▁डीसी	-14251
▁थर्म	-14252
▁नीड़	-14253
▁बिगा	-14254
▁मिया	-14255
▁व्यक	-14256
▁सदृश	-14257
▁सुखी	-14258
धाश्रम	-14259
र्ताओं	-14260
ायुक्त	-14261
▁अजमेर	-14262
▁अनोखी	-14263
▁उपजाऊ	-14264
▁करीबी	-14265
▁गन्ना	-14266
▁नगण्य	-14267
▁पीयूष	-14268
▁महीना	-14269
▁अनजाने	-14270
▁अलंकृत	-14271
▁ताकतों	-14272
▁परिक्ष	-14273
▁पिछड़ा	-14274
▁पोलियो	-14275
▁बिजनेस	-14276
▁मतभेदों	-14277
▁आनन्दराम	-14278
▁अनियंत्रित	-14279
▁उपमहाद्वीप	-14280
▁रूपान्तरित	-14281
ैग	-14282
ous	-14283
ंटो	-14284
ालु	-14285
िस्	-14286
▁यी	-14287
कोटा	-14288
ख्ता	-14289
नामे	-14290
्राह	-14291
२वीं	-14292
▁झों	-14293
▁फिज	-14294
▁शेड	-14295
तानंद	-14296
मर्रा	-14297
मुश्त	-14298
वार्इ	-14299
▁कुएं	-14300
▁दलाल	-14301
▁पठार	-14302
▁जमशेद	-14303
▁जागृत	-14304
▁सन्नि	-14305
▁स्पॉट	-14306
▁हज़रत	-14307
▁हेनरी	-14308
▁एक्सेस	-14309
▁क्षिति	-14310
▁खिलाफत	-14311
▁गुम्बद	-14312
▁बारीकी	-14313
▁विचारक	-14314
▁विधायक	-14315
▁सड़कें	-14316
▁चाहूंगी	-14317
▁पहुंचती	-14318
▁श्रीनगर	-14319
▁कारपोरेट	-14320
▁फर्दबयान	-14321
▁बलपूर्वक	-14322
▁रवीन्द्र	-14323
▁विशेषतया	-14324
▁संग्रहीत	-14325
▁दुर्भावना	-14326
ST	-14327
ोथ	-14328
पोष	-14329
▁sp	-14330
शीला	-14331
्राण	-14332
▁कटे	-14333
▁चया	-14334
▁चिह	-14335
▁थाई	-14336
▁नन्	-14337
▁नबी	-14338
▁मुम	-14339
▁यूट	-14340
▁सैल	-14341
▁उंगल	-14342
▁डायल	-14343
▁पेटी	-14344
▁रेशे	-14345
▁वृषण	-14346
▁सैंट	-14347
▁असत्य	-14348
▁गोखले	-14349
▁जड़ों	-14350
▁दफ्तर	-14351
▁नतीजे	-14352
▁पांडा	-14353
▁पेयजल	-14354
▁फ़ोटो	-14355
▁फास्ट	-14356
▁वाष्प	-14357
▁वोल्ट	-14358
▁अन्वेष	-14359
▁अपूर्व	-14360
▁ओड़िया	-14361
▁यथोचित	-14362
▁संचालक	-14363
▁सत्कार	-14364
▁सुधारा	-14365
कर्मियों	-14366
▁गोदावरी	-14367
▁पशुपालन	-14368
▁फुफ्फुस	-14369
▁फेडरेशन	-14370
▁बैंकनोट	-14371
▁सम्पादन	-14372
▁चरितार्थ	-14373
▁डॉक्टरों	-14374
▁निःसंदेह	-14375
▁पूर्णिमा	-14376
▁बेंगलुरु	-14377
▁महाभियोग	-14378
▁महेन्द्र	-14379
▁विश्लेषक	-14380
▁व्याप्ति	-14381
▁संगमर्मर	-14382
▁संबंधियों	-14383
▁स्वातंत्र	-14384
ंसे	-14385
डेल	-14386
मीर	-14387
▁इज	-14388
▁भै	-14389
इयाँ	-14390
च्छद	-14391
डीपी	-14392
लेपन	-14393
शैली	-14394
▁अपू	-14395
▁इज़	-14396
▁कत्	-14397
▁किट	-14398
▁गुड	-14399
▁फंच	-14400
▁भर्	-14401
▁सिप	-14402
▁हाव	-14403
दान्त	-14404
नियाँ	-14405
ब्बों	-14406
ोनियम	-14407
▁गाना	-14408
▁जन्त	-14409
▁जादु	-14410
▁नारे	-14411
▁फ़्र	-14412
▁फ्लो	-14413
▁मक़्	-14414
▁रिंग	-14415
▁विशि	-14416
ियोजित	-14417
▁अजनबी	-14418
▁अफवाह	-14419
▁उड़ने	-14420
▁चूर्ण	-14421
▁बदनाम	-14422
▁रास्त	-14423
▁वहनीय	-14424
▁स्तूप	-14425
▁हिमाल	-14426
▁मधुबनी	-14427
▁संयोजित	-14428
▁औरंगाबाद	-14429
▁जीवाणुओं	-14430
▁ट्रैक्टर	-14431
▁विस्फोटक	-14432
▁अधिग्रहित	-14433
▁कार्यसूची	-14434
▁नियमितीकरण	-14435
▁इलेक्ट्रानिक	-14436
एसी	-14437
गली	-14438
धिर	-14439
▁cl	-14440
ंकार	-14441
दकीय	-14442
फ्फर	-14443
▁for	-14444
▁अप्	-14445
▁आइस	-14446
▁उपल	-14447
▁एंज	-14448
▁बहर	-14449
▁रची	-14450
ामीटर	-14451
ारिका	-14452
▁इब्र	-14453
▁जादा	-14454
▁सरणी	-14455
▁सिकु	-14456
ार्जुन	-14457
ार्द्ध	-14458
▁उगाने	-14459
▁खर्ची	-14460
▁ज्वाल	-14461
▁बद्री	-14462
▁भागतः	-14463
▁मकबरा	-14464
▁मसलों	-14465
▁मुमता	-14466
▁संहार	-14467
▁सल्फर	-14468
▁असमिया	-14469
▁तन्त्र	-14470
▁दूरबीन	-14471
▁नजदीकी	-14472
▁बिताने	-14473
▁गोलाकार	-14474
▁मातृत्व	-14475
▁मानकीकरण	-14476
▁मुख्यतया	-14477
▁स्पष्टतः	-14478
▁प्रतियोगी	-14479
▁प्रियव्रत	-14480
▁अल्पसंख्यकों	-14481
ran	-14482
ामय	-14483
▁खल	-14484
▁डब	-14485
▁ढक	-14486
ज्या	-14487
प्रस	-14488
▁खुज	-14489
▁छपा	-14490
▁जोत	-14491
▁पद्	-14492
▁संध	-14493
▁हनी	-14494
वर्धक	-14495
ोपैथी	-14496
▁केले	-14497
▁ग्ले	-14498
▁छिपी	-14499
▁बिंब	-14500
▁माफी	-14501
▁सज़ा	-14502
▁दुर्य	-14503
▁दौरों	-14504
▁फाइबर	-14505
▁फैलाव	-14506
▁मलाशय	-14507
▁समसाम	-14508
▁उपनियम	-14509
▁जॉर्डन	-14510
▁भण्डार	-14511
▁मॉनिटर	-14512
▁विशाखा	-14513
▁अराजकता	-14514
▁गाँधीजी	-14515
▁बकरियों	-14516
▁विजयनगर	-14517
▁संसाधित	-14518
▁गाड़ियों	-14519
▁छेड़छाड़	-14520
▁बुराइयों	-14521
▁होनेवाले	-14522
▁अभ्यावेदन	-14523
▁मध्यस्थों	-14524
▁रक्तस्राव	-14525
▁स्थायित्व	-14526
▁निर्यातकों	-14527
▁फिलीस्तीनियों	-14528
▁दुर्भाग्यपूर्ण	-14529
ूफ	-14530
▁ण	-14531
क्श	-14532
बिक	-14533
▁ऑट	-14534
▁रव	-14535
भंगा	-14536
यरोग	-14537
साना	-14538
ासिक	-14539
िश्व	-14540
ूसलम	-14541
▁कहल	-14542
▁कैट	-14543
▁डकै	-14544
▁नेक	-14545
▁बेई	-14546
▁मरे	-14547
▁सीई	-14548
▁सुथ	-14549
▁हंग	-14550
बन्धु	-14551
▁अश्म	-14552
▁करूँ	-14553
▁तादा	-14554
▁दवाई	-14555
▁दिखे	-14556
▁पराव	-14557
▁बढने	-14558
▁लटका	-14559
▁हावी	-14560
▁अयस्क	-14561
▁आदतों	-14562
▁कंधों	-14563
▁खन्ना	-14564
▁डिम्ब	-14565
▁फैक्स	-14566
▁बेतार	-14567
▁भाड़ा	-14568
▁भावुक	-14569
▁मधुसू	-14570
▁मशहूर	-14571
▁मीनार	-14572
▁हवेली	-14573
▁हारान	-14574
▁अलार्म	-14575
▁असहयोग	-14576
▁करोड़े	-14577
▁कुल्लू	-14578
▁चंपारण	-14579
▁फाइलों	-14580
▁मुट्ठी	-14581
▁स्पेशल	-14582
▁उबुन्टू	-14583
▁किस्में	-14584
▁तात्विक	-14585
▁निःशक्त	-14586
▁महोत्सव	-14587
▁सम्मिलन	-14588
▁साझेदार	-14589
▁स्टेट्स	-14590
▁चार्टर्ड	-14591
▁डेनमार्क	-14592
▁प्रतिशोध	-14593
▁अभिवृद्धि	-14594
▁उत्प्रेरक	-14595
▁ड्राइविंग	-14596
▁प्रोद्भूत	-14597
▁चिकित्सकों	-14598
▁दृष्टिगोचर	-14599
▁न्यायशास्त्र	-14600
टीए	-14601
ीयर	-14602
▁गम	-14603
▁नृ	-14604
एचसी	-14605
गुरु	-14606
चक्र	-14607
स्लो	-14608
▁उपश	-14609
▁ओएस	-14610
▁दृढ	-14611
▁दोग	-14612
▁बॉल	-14613
▁लीन	-14614
▁लुट	-14615
▁वधू	-14616
▁सहे	-14617
पुरुष	-14618
ियोजन	-14619
▁करीम	-14620
▁झाड़	-14621
▁टूटी	-14622
▁धीमा	-14623
▁बेवक	-14624
▁ब्यो	-14625
▁समेट	-14626
▁हंसी	-14627
कार्बन	-14628
▁अनिर्	-14629
▁खेलते	-14630
▁बहनोई	-14631
▁साहेब	-14632
▁एनालॉग	-14633
▁जंतुओं	-14634
▁नायिका	-14635
▁निबन्ध	-14636
▁फायदों	-14637
▁बिताया	-14638
▁ब्लेयर	-14639
▁राक्षस	-14640
फोर्निया	-14641
▁अंबेडकर	-14642
▁कविताएँ	-14643
▁जेरूसलम	-14644
▁पदोन्नत	-14645
▁परिकलित	-14646
▁प्रखण्ड	-14647
▁मलेशिया	-14648
▁विलुप्त	-14649
▁कारीगरों	-14650
▁जितेंद्र	-14651
▁माध्यमों	-14652
▁मूत्राशय	-14653
▁वैश्वीकरण	-14654
ma	-14655
xx	-14656
जै	-14657
ोध	-14658
नार	-14659
वता	-14660
शाद	-14661
ूला	-14662
प्रो	-14663
▁कंब	-14664
▁चिट	-14665
▁नोस	-14666
▁पुट	-14667
▁रखो	-14668
▁सिस	-14669
फ्तार	-14670
▁उलझन	-14671
▁खासी	-14672
▁गिनी	-14673
▁दन्त	-14674
▁दिवा	-14675
▁नीरज	-14676
▁परोप	-14677
▁बढती	-14678
▁माथे	-14679
▁यापन	-14680
▁समीर	-14681
▁सांत	-14682
▁कुलीन	-14683
▁क्रास	-14684
▁ग्रीक	-14685
▁चयापच	-14686
▁पालतू	-14687
▁संचयन	-14688
▁साहसी	-14689
▁सिंगल	-14690
▁स्केल	-14691
▁उपादान	-14692
▁कम्बन्	-14693
▁प्रभात	-14694
▁प्रिवी	-14695
▁मनपसंद	-14696
▁मेन्यू	-14697
▁अनुकंपा	-14698
▁आमंत्रण	-14699
▁कूटनीति	-14700
▁क्षुद्र	-14701
▁ट्रान्स	-14702
▁नाटककार	-14703
▁पुनर्जा	-14704
▁एंटरप्रा	-14705
▁भारतवर्ष	-14706
▁विरोधियों	-14707
▁इंडस्ट्रीज	-14708
▁पुनर्वित्त	-14709
▁नियुक्तियों	-14710
▁प्रयोगकर्ता	-14711
▁अन्तरराष्ट्रीय	-14712
▁ञ	-14713
खली	-14714
दिश	-14715
भुज	-14716
भोज	-14717
▁th	-14718
able	-14719
बेटन	-14720
िन्ट	-14721
▁माथ	-14722
▁युन	-14723
▁रेन	-14724
▁लगन	-14725
▁शंख	-14726
▁सरन	-14727
काण्ड	-14728
▁आसीन	-14729
▁एसएन	-14730
▁तुरी	-14731
▁दाँत	-14732
▁बतौर	-14733
▁बृहत	-14734
▁भुगत	-14735
▁यूके	-14736
▁रबड़	-14737
▁सीएम	-14738
▁अनजान	-14739
▁कस्टम	-14740
▁पहनते	-14741
▁फाइनल	-14742
▁बहाली	-14743
▁बेचैन	-14744
▁भतीजे	-14745
▁मिलों	-14746
▁युगों	-14747
▁लज्जा	-14748
▁श्रीम	-14749
िरपेक्ष	-14750
▁ग्रेटर	-14751
▁जीविका	-14752
▁पादपों	-14753
▁पिल्लई	-14754
▁फर्मों	-14755
▁मनोनीत	-14756
▁महानतम	-14757
▁सिकंदर	-14758
▁वर्माजी	-14759
▁विवेचना	-14760
▁सक्षमता	-14761
▁सिलसिला	-14762
▁अर्थात्ः	-14763
▁स्टेडियम	-14764
ra	-14765
ंकू	-14766
शीर	-14767
ारत	-14768
ोटी	-14769
▁सई	-14770
तनगर	-14771
▁नाप	-14772
▁बिठ	-14773
▁रबर	-14774
▁शौक	-14775
▁हतो	-14776
चियों	-14777
▁खेले	-14778
▁घाटे	-14779
▁दराज	-14780
▁बाजू	-14781
▁बीवी	-14782
▁रोना	-14783
▁शर्ट	-14784
▁हत्य	-14785
नेस्को	-14786
▁कर्मी	-14787
▁काटकर	-14788
▁चमड़े	-14789
▁मेमोर	-14790
▁अकाउंट	-14791
▁एक्सपी	-14792
▁क़ुरान	-14793
▁खोपड़ी	-14794
▁डीवीडी	-14795
▁तरक्की	-14796
▁दरभंगा	-14797
▁प्लेयर	-14798
▁रिश्ता	-14799
▁सुन्नी	-14800
▁इमारतें	-14801
▁कालिदास	-14802
▁ज्वालाम	-14803
▁बीमाकृत	-14804
▁विसंगति	-14805
▁कॉरपोरेट	-14806
▁दुर्योधन	-14807
▁पक्षाघात	-14808
▁याचिकाएं	-14809
▁माइक्रोसॉ	-14810
▁विस्थापित	-14811
▁सांविधानिक	-14812
▁कार्रवाइयों	-14813
इटर	-14814
डीह	-14815
भाऊ	-14816
िगे	-14817
ोत्	-14818
्यम	-14819
ऊँगा	-14820
बीएस	-14821
हासन	-14822
ाहार	-14823
िव्य	-14824
ेंटी	-14825
▁The	-14826
▁फली	-14827
▁मनम	-14828
▁सुम	-14829
▁सूझ	-14830
रक्षक	-14831
श्याम	-14832
ूपयोग	-14833
▁असाम	-14834
▁आयतन	-14835
▁उतरे	-14836
▁एसआर	-14837
▁छापा	-14838
▁जीपी	-14839
▁दंगे	-14840
▁द्वा	-14841
▁बद्ध	-14842
▁योगी	-14843
▁लड़े	-14844
▁शिया	-14845
▁श्रृ	-14846
निष्ठा	-14847
ोन्मुख	-14848
▁कर्सर	-14849
▁क्वाल	-14850
▁जबर्द	-14851
▁नक्शे	-14852
▁पन्ना	-14853
▁परात्	-14854
▁प्रीत	-14855
▁बन्दर	-14856
▁रामजी	-14857
▁सम्बो	-14858
▁सरिता	-14859
▁अधिशेष	-14860
▁अन्ततः	-14861
▁आपरेशन	-14862
▁जोड़ते	-14863
▁तरंगों	-14864
▁निभानी	-14865
▁सिखाने	-14866
▁सेनानी	-14867
द्योगिकी	-14868
▁आयुर्वे	-14869
▁ज्येष्ठ	-14870
▁श्रीमान	-14871
▁सम्पादक	-14872
▁अनुक्रमण	-14873
▁कारोबारी	-14874
▁प्रतिदाय	-14875
▁प्रमाणों	-14876
▁रेस्तरां	-14877
▁एजेंसियां	-14878
▁मध्यकालीन	-14879
▁उद्यमशीलता	-14880
▁पुनर्जीवित	-14881
▁प्रत्याशित	-14882
▁व्यतिक्रमी	-14883
▁परिवीक्षाधीनों	-14884
्ज	-14885
३क	-14886
जतन	-14887
डेन	-14888
चालन	-14889
▁छंट	-14890
▁डिट	-14891
▁नरक	-14892
▁बाउ	-14893
▁रजा	-14894
▁वाट	-14895
द्वाज	-14896
रियों	-14897
▁अँधे	-14898
▁अन्व	-14899
▁उछाल	-14900
▁खोली	-14901
▁नॉर्	-14902
▁रिसी	-14903
▁अफसोस	-14904
▁इन्दु	-14905
▁किश्त	-14906
▁खातिर	-14907
▁घुमाव	-14908
▁जादुई	-14909
▁नैदान	-14910
▁बक्से	-14911
▁बहुता	-14912
▁मुकर्	-14913
▁वनस्प	-14914
▁श्रेण	-14915
▁संघटक	-14916
योग्यता	-14917
▁करारों	-14918
▁चमकदार	-14919
▁दुविधा	-14920
▁द्योतक	-14921
▁नवलराम	-14922
▁माउन्ट	-14923
▁मिर्जा	-14924
▁कारागार	-14925
▁गोविन्द	-14926
▁छिड़काव	-14927
▁दीपावली	-14928
▁निकालें	-14929
▁परात्पर	-14930
▁शत्रुता	-14931
▁सूत्रों	-14932
▁आत्मघाती	-14933
▁समनुदेशन	-14934
▁निराश्रित	-14935
▁अत्याधुनिक	-14936
▁प्रभावकारी	-14937
▁प्लेटफार्म	-14938
▁मध्यप्रदेश	-14939
▁स्वायत्तता	-14940
▁अन्यायपूर्ण	-14941
ct	-14942
्ध	-14943
▁खू	-14944
ध्वा	-14945
सेवा	-14946
िएटर	-14947
्रोम	-14948
▁उपच	-14949
▁छुआ	-14950
▁तना	-14951
▁देब	-14952
▁धरम	-14953
▁नीच	-14954
▁फिस	-14955
▁बचन	-14956
▁वैन	-14957
▁सूअ	-14958
इजेशन	-14959
राबाद	-14960
▁आसाम	-14961
▁दरार	-14962
▁नाज़	-14963
▁नीरस	-14964
▁बीसी	-14965
▁बोरा	-14966
▁भाईच	-14967
▁मुनि	-14968
▁मूला	-14969
▁राघव	-14970
स्त्रा	-14971
▁आवर्त	-14972
▁खोजना	-14973
▁त्यों	-14974
▁दर्जन	-14975
▁देशभर	-14976
▁बन्धक	-14977
▁मच्छर	-14978
▁मुख्त	-14979
▁विलीन	-14980
▁सर्वि	-14981
▁सेन्ट	-14982
▁सोपान	-14983
▁गलियों	-14984
▁चिट्ठी	-14985
▁नतीजतन	-14986
▁बीकाने	-14987
▁मंडलों	-14988
▁मुमकिन	-14989
▁राज्या	-14990
▁सिद्दी	-14991
▁आयताकार	-14992
▁उज्ज्वल	-14993
▁प्रारुप	-14994
▁अभिकरणों	-14995
▁क्रमबद्ध	-14996
▁वस्त्रों	-14997
▁सहनशीलता	-14998
▁साधारणतः	-14999
▁उत्सर्जित	-15000
▁व्यवसायों	-15001
▁सर्वशक्ति	-15002
▁कंप्यूटिंग	-15003
▁कल्याणकारी	-15004
▁परिसंपत्तियां	-15005
ढि	-15006
ईएस	-15007
ण्व	-15008
दना	-15009
नाय	-15010
हिक	-15011
ियॉ	-15012
िलन	-15013
▁जठ	-15014
▁वऋ	-15015
काना	-15016
कोहल	-15017
तराम	-15018
हरित	-15019
हाइड	-15020
िताब	-15021
ुरूप	-15022
्वना	-15023
▁कूप	-15024
▁सूत	-15025
▁हान	-15026
ॉप्टर	-15027
▁एनआर	-15028
▁कगार	-15029
▁कुवै	-15030
▁ज़रा	-15031
▁झटके	-15032
▁नाभि	-15033
▁परदा	-15034
▁भूतल	-15035
▁मण्ड	-15036
▁उपनाम	-15037
▁चढ़ाई	-15038
▁झाड़ी	-15039
▁दंगों	-15040
▁नब्बे	-15041
▁निपुण	-15042
▁प्यास	-15043
▁बट्टा	-15044
▁बत्ती	-15045
▁बायोम	-15046
▁बुलेट	-15047
▁रिहाई	-15048
▁वक्ता	-15049
▁सन्धि	-15050
▁हवाले	-15051
▁हुक्म	-15052
▁अभिभूत	-15053
▁अहिंसक	-15054
▁करेंसी	-15055
▁पार्सल	-15056
▁फेंकने	-15057
▁भास्कर	-15058
▁सूर्या	-15059
ोपाध्याय	-15060
▁कश्मीरी	-15061
▁दुरूपयोग	-15062
▁परिक्रमा	-15063
▁प्रकीर्ण	-15064
▁प्रीतनगर	-15065
▁बंगलादेश	-15066
▁मताधिकार	-15067
▁संवर्धित	-15068
▁अवधारणाओं	-15069
▁जितेन्द्र	-15070
▁प्रान्तीय	-15071
▁स्टार्टअप	-15072
▁पुरुषोत्तम	-15073
▁व्यवस्थापक	-15074
▁संगठनात्मक	-15075
▁महत्वाकांक्षी	-15076
िच	-15077
ूआ	-15078
all	-15079
ंजय	-15080
नीर	-15081
पाक	-15082
फेर	-15083
तरित	-15084
▁आमा	-15085
▁जुआ	-15086
▁धुआ	-15087
▁नमा	-15088
▁मॉँ	-15089
▁सरस	-15090
▁सैं	-15091
▁अंकन	-15092
▁आवर्	-15093
▁एजें	-15094
▁कर्क	-15095
▁चौबी	-15096
▁पिक्	-15097
▁बदतर	-15098
▁रीना	-15099
▁लाइफ	-15100
▁सचाई	-15101
▁सतही	-15102
▁हस्प	-15103
गणितीय	-15104
न्त्री	-15105
▁अण्डे	-15106
▁एकमेव	-15107
▁कुंवर	-15108
▁पहेली	-15109
▁फोर्ट	-15110
▁बोलता	-15111
▁रत्ना	-15112
▁अम्लीय	-15113
▁क्राइम	-15114
▁खरीदार	-15115
▁डिब्बे	-15116
▁नजरिया	-15117
▁मिलाया	-15118
▁मीटिंग	-15119
▁रामपुर	-15120
▁स्याही	-15121
▁हितलाभ	-15122
▁हेमराज	-15123
ेट्रिक्स	-15124
▁उष्णकटि	-15125
▁कलकत्ते	-15126
▁कीबोर्ड	-15127
▁जायेंगी	-15128
▁दरवाज़े	-15129
▁परक्राम	-15130
▁मुजफ्फर	-15131
▁वेशभूषा	-15132
▁अस्थिरता	-15133
▁बुकमार्क	-15134
▁इंग़्लैंड	-15135
▁डेमोक्रेट	-15136
▁दीर्घावधि	-15137
▁प्रसिद्धि	-15138
▁सूत्रकृमि	-15139
▁भट्टाचार्य	-15140
▁प्रयोक्ताओं	-15141
IC	-15142
ii	-15143
ort	-15144
जीर	-15145
सले	-15146
िडे	-15147
▁ठो	-15148
▁डै	-15149
एक्स	-15150
डीएस	-15151
निष्	-15152
सन्न	-15153
िंगर	-15154
्विन	-15155
▁घनी	-15156
▁चां	-15157
▁नाई	-15158
▁लाओ	-15159
▁शलभ	-15160
▁हाम	-15161
मानों	-15162
▁उर्म	-15163
▁एनके	-15164
▁ओजोन	-15165
▁काटे	-15166
▁जांघ	-15167
▁जावा	-15168
▁तकरी	-15169
▁नगरी	-15170
▁बाधक	-15171
▁भाजक	-15172
▁मीया	-15173
▁अंगुर	-15174
▁कर्नल	-15175
▁कार्ल	-15176
▁कुक्क	-15177
▁टैरिफ	-15178
▁तकिया	-15179
▁दुःखी	-15180
▁पक्की	-15181
▁पसीना	-15182
▁बन्धन	-15183
▁बूढ़ा	-15184
▁लैटिन	-15185
▁संगति	-15186
▁सीढ़ी	-15187
▁हटाकर	-15188
▁अपीलें	-15189
▁ओड़िसा	-15190
▁फेफड़े	-15191
▁भरतपुर	-15192
▁हफ्तों	-15193
▁अमानवीय	-15194
▁ईर्ष्या	-15195
▁उपधारणा	-15196
▁कमोडिटी	-15197
▁ढांचागत	-15198
▁द्वारका	-15199
▁प्रकाशक	-15200
▁अपवर्जित	-15201
▁आक्रमणों	-15202
▁आधुनिकता	-15203
▁आर्द्रता	-15204
▁उत्सुकता	-15205
▁पहुंचाना	-15206
▁अनियमितता	-15207
▁छात्रावास	-15208
▁मुयमंत्री	-15209
▁विद्यापीठ	-15210
▁स्थितियां	-15211
▁अन्तरात्मा	-15212
LE	-15213
ug	-15214
िं	-15215
ख्य	-15216
दीव	-15217
बॉल	-15218
मरण	-15219
ुलु	-15220
▁Aa	-15221
▁यम	-15222
ance	-15223
पर्व	-15224
▁अनम	-15225
▁गैल	-15226
▁नशे	-15227
▁लीं	-15228
स्मार	-15229
ीरिया	-15230
▁अनाथ	-15231
▁गोरे	-15232
▁चर्म	-15233
▁धोने	-15234
▁भैया	-15235
▁लगान	-15236
▁सलीम	-15237
ाहियों	-15238
ोपरांत	-15239
▁केदार	-15240
▁घुसपै	-15241
▁झीलों	-15242
▁पर्ची	-15243
▁पीठों	-15244
▁फॉन्ट	-15245
▁मुजरा	-15246
जियाबाद	-15247
▁अँग्रे	-15248
▁अपनाकर	-15249
▁एयरलाइ	-15250
▁ढूंढने	-15251
▁प्रीतम	-15252
▁महानदी	-15253
▁मास्को	-15254
▁अभिभावक	-15255
▁कार्यबल	-15256
▁संन्यास	-15257
▁सम्बंधी	-15258
▁कैल्शियम	-15259
▁दृष्टिगत	-15260
▁राष्ट्रप	-15261
▁गाजियाबाद	-15262
▁चतुर्वेदी	-15263
▁प्रतिबन्ध	-15264
▁खिलाड़ियों	-15265
▁विक्टोरिया	-15266
▁अपरिवर्तनीय	-15267
▁प्रयोजनार्थ	-15268
जब	-15269
ide	-15270
लाज	-15271
विट	-15272
श्क	-15273
साह	-15274
िकर	-15275
▁अऑ	-15276
▁घू	-15277
निकल	-15278
मोचन	-15279
ाहिम	-15280
▁नेम	-15281
▁सुई	-15282
खियां	-15283
▁आद्य	-15284
▁एचएल	-15285
▁एमसी	-15286
▁कहाः	-15287
▁जड़ी	-15288
▁निरु	-15289
▁पठान	-15290
▁लेगी	-15291
▁शासी	-15292
▁अस्सी	-15293
▁आएंगे	-15294
▁कल्लू	-15295
▁कागज़	-15296
▁कूड़ा	-15297
▁निर्द	-15298
▁नोटरी	-15299
▁ब्लाक	-15300
▁सादगी	-15301
▁होम्य	-15302
▁अब्राह	-15303
▁अलंकार	-15304
▁आक्रोश	-15305
▁एकान्त	-15306
▁थोरियम	-15307
▁प्रेसि	-15308
▁बढ़ाता	-15309
▁मज़दूर	-15310
▁मददगार	-15311
▁मैदानी	-15312
▁संगीता	-15313
▁संयोजक	-15314
▁सन्तोष	-15315
▁सेलुलर	-15316
▁सैकिया	-15317
▁आपातकाल	-15318
▁नैदानिक	-15319
▁रूपांतर	-15320
▁अज्ञानता	-15321
▁पैकेजिंग	-15322
▁प्रतिलिप	-15323
▁विद्रोही	-15324
▁सब्जियां	-15325
▁उन्मुक्ति	-15326
▁ग्यारहवीं	-15327
▁मैट्रिक्स	-15328
▁विज्ञप्ति	-15329
▁गुणसूत्रों	-15330
ai	-15331
लु	-15332
ath	-15333
इये	-15334
शूल	-15335
हिणी	-15336
▁उथल	-15337
▁कलन	-15338
▁चंग	-15339
▁छाव	-15340
▁जया	-15341
▁जीओ	-15342
▁ढोर	-15343
▁थीम	-15344
▁फोर	-15345
▁यूं	-15346
▁रति	-15347
▁सवे	-15348
▁सुध	-15349
▁अवसा	-15350
▁कुकी	-15351
▁घिरे	-15352
▁जेपी	-15353
▁सहसा	-15354
▁अंदाज	-15355
▁अभिशा	-15356
▁एमसीए	-15357
▁ढाँचे	-15358
▁बुलाई	-15359
▁मॉरिश	-15360
▁हैरान	-15361
▁किशोरी	-15362
▁गृहस्थ	-15363
▁जाग्रत	-15364
▁प्रेसी	-15365
▁मित्तल	-15366
▁सुशीला	-15367
▁ईसाइयों	-15368
▁उपनिषद्	-15369
▁दीवारें	-15370
▁दुकानें	-15371
▁बाबासाह	-15372
▁बारहवीं	-15373
▁शपथपत्र	-15374
▁सांसदों	-15375
▁स्पेक्ट	-15376
▁अध्यात्म	-15377
▁सीडब्ल्यू	-15378
▁सुरेन्द्र	-15379
▁अंधविश्वास	-15380
▁इंश्योरेंस	-15381
▁उत्तरवर्ती	-15382
▁कंप्यूटरों	-15383
▁न्यूजीलैंड	-15384
▁प्रतिबिम्ब	-15385
खनन	-15386
जनी	-15387
लाय	-15388
्यय	-15389
न्ती	-15390
न्नत	-15391
ेंचर	-15392
▁अख़	-15393
▁अभा	-15394
▁कंज	-15395
▁छाल	-15396
▁तमा	-15397
▁दरा	-15398
▁पंत	-15399
▁रेम	-15400
▁वंद	-15401
ेंट्स	-15402
▁कुंभ	-15403
▁कैलि	-15404
▁जीएस	-15405
▁मंशा	-15406
▁असफ़ल	-15407
▁आलेखी	-15408
▁उभरने	-15409
▁कश्यप	-15410
▁खिड़क	-15411
▁गेटवे	-15412
▁चिल्ल	-15413
▁निर्भ	-15414
▁मुकुल	-15415
▁लेआउट	-15416
▁साइमन	-15417
▁काउंटी	-15418
▁किरणों	-15419
▁मालवीय	-15420
▁मोतिया	-15421
▁रविंदर	-15422
▁सज्जनो	-15423
▁समझदार	-15424
▁प्रांगण	-15425
▁महामारी	-15426
▁राजनेता	-15427
▁समाशोधन	-15428
▁गवर्नेंस	-15429
▁संख्यांक	-15430
▁सूत्रपात	-15431
▁सेक्टरों	-15432
▁उद्देशिका	-15433
▁माहेश्वरी	-15434
▁आयुर्वेदिक	-15435
▁निर्वाचनों	-15436
▁प्राधिकरणों	-15437
RE	-15438
वस	-15439
ice	-15440
uar	-15441
ंगु	-15442
दाम	-15443
स्ड	-15444
ानन	-15445
्ते	-15446
▁उध	-15447
▁दन	-15448
भोगी	-15449
लाजी	-15450
विनय	-15451
हरों	-15452
▁अंट	-15453
▁आदी	-15454
▁जले	-15455
▁धमन	-15456
▁हक़	-15457
ंबद्ध	-15458
िलिंग	-15459
ृत्यु	-15460
▁अविक	-15461
▁उच्छ	-15462
▁ऑब्ज	-15463
▁करूं	-15464
▁खाका	-15465
▁चाला	-15466
▁तंजा	-15467
▁वंशा	-15468
▁स्लो	-15469
वाहिनी	-15470
▁पड़ाव	-15471
▁पर्दे	-15472
▁बरसों	-15473
▁भागते	-15474
▁विचलन	-15475
▁सम्मत	-15476
▁स्टेन	-15477
▁हिदाय	-15478
▁अनैतिक	-15479
▁अलीगढ़	-15480
▁आपदाओं	-15481
▁किंगडम	-15482
▁डिब्बा	-15483
▁धातुओं	-15484
▁पुकारा	-15485
▁मॉरिशस	-15486
▁समष्टि	-15487
▁स्क्वा	-15488
▁अपमानित	-15489
▁एकमुश्त	-15490
▁कड़ियाँ	-15491
▁मुकर्जी	-15492
▁मैट्रिक	-15493
म्प्लेक्स	-15494
▁प्रवक्ता	-15495
▁प्रश्नगत	-15496
▁समसामयिक	-15497
▁सेंटीमीटर	-15498
▁मनोविज्ञान	-15499
▁गुणवत्तापूर्ण	-15500
थक	-15501
बह	-15502
ोच	-15503
िंक	-15504
▁्ट	-15505
रेली	-15506
ारित	-15507
ुलित	-15508
▁मरो	-15509
मण्डल	-15510
वृक्ष	-15511
्यूलर	-15512
▁इसरो	-15513
▁उसपर	-15514
▁जुडा	-15515
▁ट्री	-15516
▁ताड़	-15517
▁दिग्	-15518
▁फ्रे	-15519
▁मसले	-15520
▁यक्ष	-15521
▁विवि	-15522
▁संवी	-15523
▁स्वत	-15524
▁आईएसओ	-15525
▁खुजली	-15526
▁खुलकर	-15527
▁जातीं	-15528
▁मकबरे	-15529
▁रुद्र	-15530
▁लालसा	-15531
▁लिफ्ट	-15532
▁वर्धन	-15533
▁सल्तन	-15534
▁हैंडल	-15535
▁हैल्थ	-15536
▁आवागमन	-15537
▁दाहिनी	-15538
▁दीर्घा	-15539
▁निबंधन	-15540
▁मसालों	-15541
▁विधाओं	-15542
▁विस्ता	-15543
▁गोलियां	-15544
▁डिबेंचर	-15545
▁निकालते	-15546
▁मुस्कान	-15547
▁स्टाम्प	-15548
▁स्वास्थ	-15549
▁आनन्दमयी	-15550
▁इब्राहिम	-15551
▁एकाग्रता	-15552
▁गर्भधारण	-15553
▁नवीनीकरण	-15554
▁मधुमक्खी	-15555
▁पत्रकारों	-15556
▁प्रतिकृति	-15557
▁स्वादिष्ट	-15558
▁नेटवर्किंग	-15559
▁शिक्षार्थियों	-15560
sh	-15561
चौ	-15562
ौन	-15563
ट्ठ	-15564
न्ज	-15565
मणि	-15566
लेम	-15567
ेनर	-15568
बाला	-15569
वसान	-15570
सिंग	-15571
हारा	-15572
▁अनल	-15573
▁अबू	-15574
▁आभा	-15575
▁नॉन	-15576
▁परश	-15577
ार्कट	-15578
▁गाया	-15579
▁तर्ज	-15580
▁देवर	-15581
▁द्रौ	-15582
▁बबलू	-15583
▁मापा	-15584
▁मुंस	-15585
▁मुरा	-15586
▁रीता	-15587
▁सर्च	-15588
▁सेठी	-15589
सन्देह	-15590
▁कीचड़	-15591
▁क्षोभ	-15592
▁चन्दु	-15593
▁चिन्त	-15594
▁निरंक	-15595
▁नेहरु	-15596
▁नौवहन	-15597
▁पूर्त	-15598
▁मसाला	-15599
▁मिठाई	-15600
▁लौकिक	-15601
▁शौर्य	-15602
▁सीटें	-15603
▁सोचती	-15604
▁स्मिथ	-15605
▁हुमाय	-15606
▁अश्वनी	-15607
▁कक्षों	-15608
▁कामरूप	-15609
▁क्लबों	-15610
▁नदियाँ	-15611
▁पहचाने	-15612
▁बिरूनी	-15613
▁मुरारी	-15614
▁सेक्शन	-15615
▁अभियोगी	-15616
[...]
