<unk>	0
<s>	0
</s>	0
UuRrLl	0
DdAaTtEe	0
NnUuMm	0
▁क	-0
▁स	-1
▁ह	-2
▁प	-3
▁के	-4
▁म	-5
या	-6
ार	-7
्र	-8
▁न	-9
▁अ	-10
▁है	-11
▁,	-12
ें	-13
▁ज	-14
▁व	-15
▁।	-16
र्	-17
▁द	-18
▁कि	-19
ता	-20
▁में	-21
ों	-22
▁उ	-23
▁ब	-24
▁ल	-25
्य	-26
▁को	-27
ने	-28
िक	-29
▁की	-30
▁र	-31
▁प्र	-32
▁ग	-33
▁औ	-34
▁और	-35
▁आ	-36
्त	-37
ित	-38
ान	-39
▁कर	-40
▁त	-41
▁से	-42
▁का	-43
▁इ	-44
िए	-45
▁भ	-46
▁ए	-47
ना	-48
्व	-49
▁पर	-50
▁य	-51
▁.	-52
▁थ	-53
ही	-54
िय	-55
▁सं	-56
▁इस	-57
▁वि	-58
▁लिए	-59
▁श	-60
्या	-61
▁जा	-62
्ष	-63
वा	-64
▁एक	-65
▁किया	-66
▁हो	-67
हीं	-68
ाल	-69
ाम	-70
▁-	-71
▁नि	-72
▁नहीं	-73
▁च	-74
ति	-75
▁या	-76
▁यह	-77
्ट	-78
ारा	-79
▁अप	-80
▁गया	-81
▁अन	-82
▁ने	-83
क्ष	-84
▁सम	-85
के	-86
क्त	-87
▁अध	-88
▁था	-89
सी	-90
▁हैं	-91
िया	-92
िस	-93
ेश	-94
▁करने	-95
्थ	-96
ले	-97
▁भी	-98
ला	-99
न्	-100
▁द्व	-101
ती	-102
ाय	-103
▁उस	-104
▁द्वारा	-105
ते	-106
▁सा	-107
▁ख	-108
रा	-109
▁)	-110
हा	-111
त्र	-112
▁(	-113
कार	-114
ड़	-115
नी	-116
री	-117
▁रा	-118
ूप	-119
िका	-120
िन	-121
ाद	-122
▁अनु	-123
▁कार	-124
▁जो	-125
कर्	-126
गा	-127
▁सक	-128
्प	-129
ोग	-130
▁दे	-131
▁निर्	-132
ियों	-133
▁रूप	-134
देश	-135
ां	-136
ष्ट	-137
कर्ता	-138
▁न्या	-139
स्त	-140
▁उप	-141
ाव	-142
ारी	-143
ंध	-144
ील	-145
ाह	-146
▁फ	-147
्री	-148
द्	-149
▁प्रति	-150
ाप	-151
िल	-152
▁/	-153
ओं	-154
ियम	-155
बंध	-156
▁अधिक	-157
धार	-158
से	-159
▁हु	-160
मा	-161
▁सु	-162
ंग	-163
लय	-164
▁याच	-165
▁माम	-166
▁याचिका	-167
▁मु	-168
▁ले	-169
▁उन	-170
सा	-171
▁न्याया	-172
ास	-173
रण	-174
रो	-175
▁;	-176
▁साथ	-177
का	-178
▁दिया	-179
▁ड	-180
▁पू	-181
हत	-182
▁जिस	-183
न्ह	-184
▁किसी	-185
्च	-186
▁पह	-187
▁सी	-188
कि	-189
त्त	-190
्म	-191
▁ध	-192
ाग	-193
▁कोई	-194
ोज	-195
खा	-196
▁गए	-197
▁गई	-198
वाद	-199
▁हम	-200
▁स्थ	-201
▁व्य	-202
▁थी	-203
्ल	-204
की	-205
▁वह	-206
▁स्व	-207
▁घ	-208
ंद	-209
▁राज	-210
▁ही	-211
▁सकता	-212
▁ट	-213
▁न्यायालय	-214
▁उन्ह	-215
ंड	-216
▁तथ	-217
▁कु	-218
ृत	-219
▁अभ	-220
ाना	-221
िव	-222
▁आव	-223
▁पु	-224
्ता	-225
▁तो	-226
▁विश	-227
क्ति	-228
वि	-229
▁ऐ	-230
▁याचिकाकर्ता	-231
स्थ	-232
▁वर्	-233
▁जाता	-234
▁संबंध	-235
ंच	-236
▁चाह	-237
▁अपील	-238
▁अपने	-239
▁&	-240
्यों	-241
ेद	-242
ात	-243
▁तक	-244
▁मामले	-245
चार	-246
▁पी	-247
▁कहा	-248
▁बाद	-249
▁तहत	-250
ंत	-251
र्व	-252
ीन	-253
▁जब	-254
रे	-255
ुत	-256
ंक	-257
▁दो	-258
▁वाल	-259
्क	-260
▁थे	-261
द्ध	-262
दा	-263
रह	-264
धान	-265
ूल	-266
ंब	-267
▁भार	-268
▁0	-269
भी	-270
▁सि	-271
पी	-272
▁कार्य	-273
▁आदेश	-274
▁अव	-275
ून	-276
▁आप	-277
में	-278
र्ट	-279
▁रह	-280
जी	-281
दि	-282
▁छ	-283
िला	-284
च्च	-285
योग	-286
▁वे	-287
▁साम	-288
▁बना	-289
▁किए	-290
▁तरह	-291
गे	-292
िट	-293
▁हुए	-294
▁अधिन	-295
कर	-296
▁अन्य	-297
▁क्ष	-298
▁:	-299
ुक्त	-300
▁अधिनियम	-301
िप	-302
ोंने	-303
▁दी	-304
ली	-305
▁चाहिए	-306
मान	-307
ब्	-308
▁सर	-309
ाध	-310
▁करना	-311
ुर	-312
▁सह	-313
्स	-314
िर	-315
सार	-316
▁प्रतिवाद	-317
ाप्त	-318
▁सू	-319
ारे	-320
िश	-321
र्थ	-322
ोट	-323
गी	-324
▁समय	-325
▁तथा	-326
▁आरो	-327
ष्	-328
श्य	-329
▁उन्होंने	-330
▁बी	-331
▁उसके	-332
क्र	-333
लिए	-334
▁पहले	-335
▁इसलिए	-336
▁कारण	-337
▁मान	-338
ढ़	-339
्रे	-340
▁अधिकार	-341
▁राज्य	-342
ंत्र	-343
▁करता	-344
▁कुछ	-345
▁होने	-346
▁प्रतिवादी	-347
▁सरकार	-348
▁जै	-349
नों	-350
▁पार	-351
जा	-352
▁जाए	-353
▁करते	-354
िति	-355
र्ण	-356
्ञ	-357
ेष	-358
▁उनके	-359
स्ता	-360
▁पा	-361
▁अभिय	-362
चित	-363
▁ला	-364
▁दू	-365
▁कम	-366
▁आधार	-367
ेत्र	-368
▁पक्ष	-369
▁मै	-370
▁इन	-371
िम	-372
्न	-373
श्यक	-374
▁श्री	-375
▁कान	-376
िना	-377
▁ओ	-378
न्न	-379
▁रख	-380
ोक	-381
▁नियम	-382
▁क्षेत्र	-383
▁आवश्यक	-384
ंबर	-385
र्म	-386
▁शिक	-387
▁मे	-388
भाव	-389
ot	-390
किन	-391
▁बह	-392
वल	-393
▁उत्त	-394
ंप	-395
▁इसके	-396
▁विचार	-397
▁भारत	-398
▁निर्ण	-399
▁सभी	-400
▁व्यक्ति	-401
▁प्रद	-402
▁लेकिन	-403
▁होता	-404
ीय	-405
qu	-406
राध	-407
▁सब	-408
▁qu	-409
▁quot	-410
ल्	-411
क्षा	-412
▁होगा	-413
ाज	-414
▁निर्णय	-415
▁उत	-416
▁स्प	-417
वाह	-418
▁प्राप्त	-419
▁मृत	-420
्छ	-421
▁आय	-422
धि	-423
▁केवल	-424
▁जांच	-425
▁अनुसार	-426
▁रहा	-427
▁अपीलकर्ता	-428
▁अस	-429
▁वाले	-430
▁P	-431
▁उक्त	-432
▁अपनी	-433
ेज	-434
▁विभ	-435
र्श	-436
टी	-437
▁अद	-438
▁प्रस्त	-439
▁निय	-440
▁लगा	-441
ालत	-442
र्ड	-443
ुल	-444
▁यदि	-445
▁उसे	-446
ौर	-447
▁बै	-448
▁चु	-449
ाई	-450
च्छ	-451
दे	-452
▁विशेष	-453
पू	-454
र्त	-455
▁अंत	-456
▁जाना	-457
ूम	-458
▁उत्तर	-459
▁प्रकार	-460
▁वर्ष	-461
▁परि	-462
▁प्रस्तुत	-463
जन	-464
▁नंबर	-465
▁मूल	-466
▁अदालत	-467
▁स्पष्ट	-468
▁अल	-469
▁जी	-470
▁दाय	-471
▁पूर्व	-472
▁धारा	-473
▁निर्धार	-474
▁उन्हें	-475
▁क्यों	-476
ग्र	-477
▁आवेद	-478
िज	-479
चना	-480
ाइ	-481
▁पै	-482
▁#	-483
▁राष्ट	-484
▁उच्च	-485
द्य	-486
▁मैं	-487
▁रहे	-488
▁जाने	-489
कों	-490
ोजन	-491
माण	-492
▁कानून	-493
िख	-494
गर	-495
▁जारी	-496
हां	-497
ेक	-498
ख्या	-499
▁आगे	-500
त्य	-501
▁दूस	-502
िता	-503
र्ज	-504
▁वा	-505
स्ताव	-506
करण	-507
रिक	-508
▁प्रश	-509
▁स्वी	-510
दार	-511
ेल	-512
▁संप	-513
▁गु	-514
▁लाग	-515
▁एस	-516
ब्ल	-517
▁वक	-518
▁S	-519
ादी	-520
ंट	-521
त्ति	-522
ोर्ट	-523
▁संबंधित	-524
ष्ठ	-525
▁जान	-526
▁उत्प	-527
▁देने	-528
▁क्योंकि	-529
▁बात	-530
ज्ञ	-531
▁समझ	-532
टना	-533
▁अपराध	-534
▁सेवा	-535
धी	-536
▁व्या	-537
▁हाल	-538
लों	-539
▁ट्र	-540
क्षण	-541
▁ऐसे	-542
▁बारे	-543
▁मौ	-544
र्क	-545
▁विश्व	-546
▁खिला	-547
▁बो	-548
▁जिसमें	-549
▁रु	-550
▁लिया	-551
▁वकील	-552
ांत	-553
िंग	-554
▁'	-555
ेट	-556
▁पास	-557
▁कंप	-558
ड़ी	-559
▁हुआ	-560
▁क्या	-561
▁ओर	-562
▁खिलाफ	-563
▁वै	-564
▁बता	-565
▁कोर्ट	-566
ूत	-567
▁देख	-568
▁मह	-569
वन	-570
▁काम	-571
डब्ल	-572
▁नाम	-573
द्र	-574
▁प्रदान	-575
▁आरोपी	-576
▁न्याय	-577
ये	-578
▁स्थान	-579
ड़ा	-580
▁बहुत	-581
शन	-582
▁क्र	-583
र्भ	-584
▁निर्धारित	-585
▁भूम	-586
▁पत्र	-587
ताओं	-588
पूर्ण	-589
ुग	-590
▁लोग	-591
▁अलग	-592
ायत	-593
क्रिया	-594
▁गवाह	-595
▁आरोप	-596
दी	-597
▁कह	-598
स्ट	-599
लिस	-600
▁ऐसा	-601
ावधान	-602
▁उसने	-603
▁अनुम	-604
ोर	-605
▁लग	-606
▁प्रावधान	-607
▁रिप	-608
▁नी	-609
▁करें	-610
▁भाग	-611
जे	-612
▁स्वीकार	-613
▁लागू	-614
ाधिक	-615
▁रिक	-616
▁प्रभाव	-617
▁दु	-618
त्म	-619
ोष	-620
▁ऊ	-621
▁बीच	-622
▁सकती	-623
▁प्रक्रिया	-624
▁साक्ष	-625
▁शाम	-626
▁रिपोर्ट	-627
▁मृतक	-628
जू	-629
▁दायर	-630
▁ठ	-631
आर	-632
्यू	-633
वाही	-634
्यान	-635
▁जाती	-636
ोजना	-637
ार्	-638
▁पीडब्ल	-639
नि	-640
▁दर्ज	-641
ड़े	-642
▁आवेदन	-643
▁अधिकारी	-644
ोध	-645
▁पुलिस	-646
्रीय	-647
▁सकते	-648
▁होती	-649
नीय	-650
▁मुख	-651
आई	-652
▁ता	-653
तीय	-654
ाध्य	-655
▁आर	-656
▁मिल	-657
वी	-658
▁वादी	-659
▁जहां	-660
▁परिस	-661
▁परिव	-662
▁सद	-663
▁जन	-664
ाँ	-665
▁ऑ	-666
▁उनकी	-667
्रा	-668
▁संद	-669
▁बढ़	-670
▁स्ट	-671
▁फिर	-672
ूं	-673
▁अर्थ	-674
▁हुई	-675
▁जैसा	-676
▁शामिल	-677
म्	-678
▁जाएगा	-679
▁उपयोग	-680
भा	-681
ची	-682
▁सर्व	-683
▁बे	-684
श्च	-685
▁निर्देश	-686
▁योग	-687
कारी	-688
▁देश	-689
एं	-690
एस	-691
▁सीखा	-692
▁दा	-693
▁इसे	-694
▁ऐसी	-695
रों	-696
▁अभियोजन	-697
▁A	-698
▁परी	-699
▁निक	-700
शि	-701
▁शिकायत	-702
ानी	-703
डी	-704
मे	-705
▁माना	-706
ृति	-707
▁राष्ट्र	-708
ंह	-709
▁भारतीय	-710
▁बार	-711
▁पीडब्लू	-712
ाने	-713
▁खु	-714
▁उद्	-715
तिक	-716
▁स्थिति	-717
तान	-718
तर	-719
▁दोनों	-720
▁संदर्भ	-721
▁व्यक्त	-722
ार्थ	-723
लेख	-724
▁उचित	-725
▁भूमि	-726
ंस	-727
▁N	-728
▁संख्या	-729
▁दिन	-730
▁पारित	-731
▁मां	-732
▁पद	-733
▁घटना	-734
▁उठ	-735
▁जि	-736
▁फै	-737
▁दौर	-738
िस्ट	-739
▁कंपनी	-740
▁उसकी	-741
गत	-742
▁ध्यान	-743
ॉर्ड	-744
▁बिना	-745
ब्द	-746
▁C	-747
▁अब	-748
▁हि	-749
▁ग्र	-750
▁स्थाप	-751
▁करे	-752
फल	-753
▁रिट	-754
वाई	-755
युक्त	-756
▁पर्	-757
हित	-758
िन्न	-759
▁प्राधिक	-760
ाया	-761
▁भुग	-762
▁आवश्यकता	-763
्यालय	-764
▁व्यव	-765
▁I	-766
ाथ	-767
स्था	-768
ज़	-769
ुक	-770
िकास	-771
ालन	-772
▁दौरान	-773
▁रखा	-774
▁मन	-775
▁वर्त	-776
▁दिए	-777
ित्व	-778
▁शिक्ष	-779
▁दिना	-780
▁भुगतान	-781
▁दिनांक	-782
िखा	-783
▁रिकॉर्ड	-784
▁शुर	-785
▁विकास	-786
कृत	-787
▁मध	-788
▁वर्तमान	-789
ोल	-790
▁निष	-791
▁अनुमति	-792
मार	-793
▁विक	-794
▁विवाद	-795
िखित	-796
▁उत्तरदा	-797
▁बया	-798
▁ई	-799
द्योग	-800
▁कर्म	-801
▁राशि	-802
▁?	-803
चे	-804
▁साक्ष्य	-805
▁सामान	-806
ांकि	-807
▁हालांकि	-808
▁जिसे	-809
पर	-810
▁पूरी	-811
▁कार्यवाही	-812
▁सिद्ध	-813
▁जिसके	-814
क्रम	-815
स्तव	-816
कर्ष	-817
ेड	-818
▁प्रत्य	-819
▁उत्पाद	-820
▁लाभ	-821
▁सिंह	-822
शोध	-823
▁उद्देश	-824
क्ट	-825
▁सदस	-826
▁सहाय	-827
▁अभियुक्त	-828
▁जैसे	-829
▁तथ्य	-830
▁अपना	-831
▁दृ	-832
पति	-833
▁तै	-834
बी	-835
▁कै	-836
▁अधीन	-837
▁पता	-838
्यता	-839
▁माध्य	-840
▁याचिकाकर्ताओं	-841
धीश	-842
▁बाह	-843
▁खंड	-844
▁महत	-845
यन	-846
▁प्रव	-847
▁शक्ति	-848
▁मामलों	-849
ोड़	-850
▁होना	-851
▁मामला	-852
▁आई	-853
▁स्त	-854
स्व	-855
▁दस्ताव	-856
▁शब्द	-857
▁संपत्ति	-858
को	-859
ल्ल	-860
▁जिन	-861
▁सुन	-862
▁अवधि	-863
▁रही	-864
▁संशोध	-865
▁नोट	-866
ाली	-867
▁वास्तव	-868
▁न्यायाधीश	-869
▁बैंक	-870
▁सबूत	-871
▁पं	-872
▁सुप	-873
तन	-874
ियां	-875
▁अं	-876
रोध	-877
▁कॉ	-878
ायी	-879
णा	-880
प्त	-881
▁योजना	-882
▁घर	-883
र्ष	-884
▁समक्ष	-885
▁मध्य	-886
ायल	-887
ल्प	-888
लब्	-889
▁पहु	-890
हार	-891
▁जु	-892
▁माध्यम	-893
▁परिस्थ	-894
▁वाली	-895
▁पुन	-896
▁हमारे	-897
ग्री	-898
▁अला	-899
▁बु	-900
▁बन	-901
धिक	-902
जर	-903
▁अति	-904
▁उपलब्	-905
▁सो	-906
ar	-907
▁झ	-908
ष्टि	-909
▁देखा	-910
ूर	-911
▁प्रक	-912
त्	-913
वं	-914
▁लोगों	-915
चा	-916
▁तब	-917
ेशन	-918
कद	-919
▁विभाग	-920
▁दस्तावेज	-921
▁बयान	-922
▁अंतर	-923
ेय	-924
ासन	-925
▁मज	-926
सर	-927
्ड	-928
▁मा	-929
▁अलावा	-930
▁चल	-931
म्म	-932
▁पुर	-933
▁परिण	-934
▁तैया	-935
▁उद्देश्य	-936
▁समान	-937
▁राष्ट्रपति	-938
▁संस	-939
▁सुर	-940
▁उपलब्ध	-941
▁शुरू	-942
▁सामान्य	-943
▁फैस	-944
▁मुख्य	-945
▁प्रयोग	-946
▁ये	-947
्टी	-948
▁दावा	-949
विध	-950
▁डी	-951
▁परिणाम	-952
रि	-953
▁संवि	-954
▁उसी	-955
▁PW	-956
रूप	-957
ंभ	-958
▁दूसरे	-959
तम	-960
▁दिखा	-961
▁माल	-962
त्या	-963
पट	-964
मी	-965
▁हों	-966
ितियों	-967
बर	-968
त्मक	-969
▁पर्या	-970
िक्री	-971
▁यहां	-972
▁निम	-973
▁होते	-974
▁विव	-975
▁विभिन्न	-976
वार	-977
▁मुकद	-978
▁मुझ	-979
रित	-980
▁भीतर	-981
▁एवं	-982
न्द	-983
▁तैयार	-984
▁तर्क	-985
ंद्र	-986
▁जीवन	-987
▁कृ	-988
्यु	-989
▁सीख	-990
▁महत्व	-991
▁सूचना	-992
▁वित	-993
णी	-994
▁करती	-995
▁तीन	-996
▁शी	-997
टर	-998
▁खार	-999
▁उल्	-1000
▁लोक	-1001
▁प्रमाण	-1002
गम	-1003
▁गल	-1004
▁खारिज	-1005
▁व्याप	-1006
▁निर्माण	-1007
an	-1008
षा	-1009
▁अच्छ	-1010
हरा	-1011
▁बद	-1012
▁तरी	-1013
▁व्यक्तियों	-1014
▁सके	-1015
ग्रह	-1016
▁भा	-1017
▁सार	-1018
काश	-1019
▁अनुप	-1020
▁सामग्री	-1021
▁%	-1022
▁सिद्धांत	-1023
तिम	-1024
▁तारी	-1025
▁समाप्त	-1026
्सा	-1027
जूद	-1028
▁मो	-1029
▁स्थापित	-1030
▁तारीख	-1031
▁उल्लेख	-1032
तु	-1033
▁हिस	-1034
▁मुझे	-1035
▁पहुंच	-1036
▁समझौ	-1037
▁अगर	-1038
▁निम्न	-1039
▁गै	-1040
▁D	-1041
िये	-1042
दान	-1043
क्षित	-1044
ामी	-1045
▁विष	-1046
स्	-1047
▁घोष	-1048
मु	-1049
▁अनुस	-1050
तंत्र	-1051
▁सर्वो	-1052
ज्ञान	-1053
▁जिला	-1054
▁अग	-1055
ुद्ध	-1056
वास	-1057
द्द	-1058
▁प्रस्ताव	-1059
भव	-1060
▁कई	-1061
▁ढ	-1062
▁होगी	-1063
ोजित	-1064
▁R	-1065
ेप	-1066
▁संविधान	-1067
▁मांग	-1068
▁विध	-1069
▁ज्ञ	-1070
बित	-1071
▁उल्ल	-1072
▁एन	-1073
▁सीमा	-1074
ौती	-1075
▁विन	-1076
▁एम	-1077
▁लेने	-1078
▁समर्थ	-1079
▁निपट	-1080
▁उत्तरदाताओं	-1081
टा	-1082
द्दे	-1083
▁करके	-1084
▁बच	-1085
▁राम	-1086
▁पूरा	-1087
▁M	-1088
▁प्रत्येक	-1089
▁निष्	-1090
▁तथ्यों	-1091
▁कथ	-1092
स्थान	-1093
▁साबित	-1094
▁साल	-1095
ेम	-1096
्रम	-1097
▁बताया	-1098
ेदार	-1099
▁स्क	-1100
▁वस्त	-1101
▁गो	-1102
ूनी	-1103
▁प्रावधानों	-1104
▁निष्कर्ष	-1105
▁चुन	-1106
▁विषय	-1107
▁बच्च	-1108
▁अतिरिक	-1109
▁बनाम	-1110
▁रुप	-1111
▁दोष	-1112
▁सबसे	-1113
▁समिति	-1114
▁रखने	-1115
त्रा	-1116
▁चि	-1117
भग	-1118
▁No	-1119
▁परिस्थितियों	-1120
फ़	-1121
▁बाहर	-1122
▁तत	-1123
▁निष्प	-1124
▁वी	-1125
राधिक	-1126
श्व	-1127
▁अंतिम	-1128
▁करेगा	-1129
▁उपरो	-1130
▁लगभग	-1131
▁दर	-1132
दन	-1133
मत	-1134
▁उपरोक्त	-1135
▁सही	-1136
▁अतिरिक्त	-1137
▁कभी	-1138
व्य	-1139
र्स	-1140
▁पृ	-1141
▁वाप	-1142
ुट	-1143
क्षम	-1144
▁तु	-1145
▁शिक्षा	-1146
वान	-1147
▁विद	-1148
ीद	-1149
ाला	-1150
वाल	-1151
▁उपस्थ	-1152
▁सीखे	-1153
ुक्ति	-1154
▁चला	-1155
निक	-1156
▁इसका	-1157
▁बि	-1158
▁जिन्ह	-1159
▁मृत्यु	-1160
▁कब्	-1161
▁पाया	-1162
▁पूर्ण	-1163
▁सर्वोच्च	-1164
▁पर्याप्त	-1165
▁हमें	-1166
▁उसका	-1167
साय	-1168
▁मार	-1169
▁नोटिस	-1170
▁नियमों	-1171
▁s	-1172
▁संशोधन	-1173
तः	-1174
▁हर	-1175
▁कार्र	-1176
िब	-1177
▁ना	-1178
▁बनाया	-1179
▁शर्त	-1180
▁सम्म	-1181
र्ति	-1182
▁प्रबंध	-1183
त्ता	-1184
▁सौ	-1185
न्त	-1186
▁प्रा	-1187
▁प्रवेश	-1188
पुर	-1189
▁जाते	-1190
▁ट्रायल	-1191
▁डॉ	-1192
▁सूची	-1193
▁आया	-1194
▁आदि	-1195
▁दिल	-1196
▁B	-1197
शा	-1198
▁विस्त	-1199
▁कार्रवाई	-1200
हर	-1201
▁गलत	-1202
हन	-1203
▁ली	-1204
▁सार्व	-1205
▁विप	-1206
▁ऋ	-1207
▁सामने	-1208
र्ती	-1209
▁अनुबंध	-1210
▁प्रश्न	-1211
▁माननीय	-1212
▁दंड	-1213
▁ऊपर	-1214
▁हस्ता	-1215
▁प्रदर्श	-1216
द्योगिक	-1217
िष्ट	-1218
ुसार	-1219
▁पेश	-1220
ेंस	-1221
▁छोड़	-1222
▁राय	-1223
▁न्यायिक	-1224
्यून	-1225
▁पढ़	-1226
▁हूं	-1227
ीस	-1228
▁E	-1229
ेंट	-1230
▁कुमार	-1231
▁स्वतंत्र	-1232
वर	-1233
▁नीचे	-1234
▁सजा	-1235
▁अथ	-1236
ंघ	-1237
▁चोट	-1238
▁तय	-1239
▁मूल्य	-1240
▁पैरा	-1241
▁तरीके	-1242
▁पंजी	-1243
▁सहायता	-1244
▁देता	-1245
यं	-1246
▁अधिकारियों	-1247
▁राष्ट्रीय	-1248
▁प्रकृति	-1249
▁परीक्षा	-1250
▁मत	-1251
▁उनका	-1252
▁दाव	-1253
▁आज	-1254
▁गैर	-1255
▁चार	-1256
▁धार	-1257
▁कानूनी	-1258
▁एफ	-1259
▁अवसर	-1260
▁ब्र	-1261
▁प्रो	-1262
मित	-1263
▁लगाया	-1264
ापन	-1265
▁अंग	-1266
▁पिता	-1267
▁मध्यस्थ	-1268
▁महत्वपूर्ण	-1269
फी	-1270
▁एक्स	-1271
▁फैसले	-1272
▁वस्तु	-1273
▁प्राधिकरण	-1274
▁संघ	-1275
▁लंब	-1276
▁अध्य	-1277
क्षेप	-1278
जनिक	-1279
▁वाला	-1280
▁नियुक्ति	-1281
▁सार्वजनिक	-1282
▁i	-1283
▁बनाए	-1284
चान	-1285
▁रो	-1286
▁प्रकाश	-1287
▁बोर्ड	-1288
▁संस्थान	-1289
▁समर्थन	-1290
▁बिक्री	-1291
ाइल	-1292
▁बनाने	-1293
इट	-1294
मुख	-1295
ंज	-1296
▁रोक	-1297
एल	-1298
▁सूट	-1299
पाल	-1300
▁गवाहों	-1301
मिक	-1302
▁स्तर	-1303
▁नियंत्र	-1304
▁वरि	-1305
▁बैठ	-1306
▁सक्षम	-1307
ीकरण	-1308
ूट	-1309
▁बल्	-1310
▁जबकि	-1311
▁वृ	-1312
▁वरिष्ठ	-1313
विद	-1314
▁छोट	-1315
▁प्रया	-1316
▁उद	-1317
▁पि	-1318
▁वित्त	-1319
▁शीर्ष	-1320
ठन	-1321
था	-1322
▁जमा	-1323
▁नाग	-1324
प्र	-1325
▁मंत्र	-1326
▁आयोजित	-1327
▁स्वयं	-1328
▁प्रण	-1329
▁परीक्षण	-1330
▁पश्च	-1331
▁वापस	-1332
षण	-1333
▁बा	-1334
्ली	-1335
▁जर	-1336
नाव	-1337
▁सरकारी	-1338
▁इसमें	-1339
▁प्रार	-1340
▁दर्श	-1341
▁गिर	-1342
्वी	-1343
शी	-1344
▁विधि	-1345
▁अथवा	-1346
▁प्रयास	-1347
▁प्रस	-1348
▁इसी	-1349
▁अपीलकर्ताओं	-1350
▁आयोग	-1351
भर	-1352
▁लेख	-1353
▁आपराधिक	-1354
▁खा	-1355
▁“	-1356
▁दूसरी	-1357
▁परिवार	-1358
▁श्रे	-1359
▁महा	-1360
▁आम	-1361
धन	-1362
यी	-1363
क्	-1364
सान	-1365
▁सुप्रा	-1366
▁चुनौती	-1367
▁नियुक्त	-1368
▁संर	-1369
▁गं	-1370
▁हाथ	-1371
▁कल	-1372
र्तन	-1373
▁विशिष्ट	-1374
एम	-1375
at	-1376
▁बर	-1377
ंकन	-1378
ूह	-1379
▁फ़	-1380
ंगिक	-1381
▁खोज	-1382
▁गां	-1383
पीसी	-1384
▁चिक	-1385
▁जानकारी	-1386
विद्यालय	-1387
▁सदस्य	-1388
ित्र	-1389
▁निर	-1390
▁दल	-1391
▁निदेश	-1392
▁संग	-1393
▁नीति	-1394
▁निष्पाद	-1395
▁विफल	-1396
▁उल्लंघ	-1397
ात्	-1398
द्धि	-1399
▁हे	-1400
▁प्रतिनि	-1401
▁देते	-1402
▁उम्म	-1403
▁निहित	-1404
▁केंद्र	-1405
ोन	-1406
▁यू	-1407
न्द्र	-1408
▁बल्कि	-1409
▁संदे	-1410
▁उल्लंघन	-1411
▁देना	-1412
ार्थी	-1413
▁दूर	-1414
बा	-1415
▁सच	-1416
▁समाज	-1417
बल	-1418
▁उम्मीद	-1419
िश्च	-1420
▁ऑफ	-1421
▁सवाल	-1422
स्कार	-1423
्यांकन	-1424
▁ताकि	-1425
▁टी	-1426
बद्ध	-1427
▁कार्यालय	-1428
▁प्रती	-1429
दिष्ट	-1430
चारी	-1431
▁SC	-1432
क्स	-1433
▁मही	-1434
▁बंद	-1435
▁उत्पादन	-1436
▁अधि	-1437
▁पहली	-1438
्रेट	-1439
▁पड़	-1440
▁वेतन	-1441
▁खरी	-1442
▁पालन	-1443
▁संच	-1444
▁भाषा	-1445
▁प्रमुख	-1446
ंश	-1447
▁कुल	-1448
ालय	-1449
▁विश्वविद्यालय	-1450
▁पुरस्कार	-1451
ासंगिक	-1452
▁योग्य	-1453
्ले	-1454
▁पां	-1455
सत	-1456
▁गति	-1457
▁अधिस	-1458
▁पृष्ठ	-1459
▁इससे	-1460
▁चिकित	-1461
▁W	-1462
▁गुण	-1463
▁संह	-1464
ेन	-1465
ण्ड	-1466
▁संहिता	-1467
▁विश्वास	-1468
▁ऋण	-1469
धानिक	-1470
▁पहचान	-1471
ाक	-1472
▁लाइ	-1473
▁वर्ग	-1474
▁संभाव	-1475
ुप	-1476
▁विवरण	-1477
▁जल	-1478
▁पो	-1479
▁अधिसू	-1480
▁लिम	-1481
▁मि	-1482
▁शिकायतकर्ता	-1483
च्छेद	-1484
▁सुरक्षा	-1485
रीत	-1486
▁डि	-1487
▁संस्क	-1488
▁चौ	-1489
▁हक	-1490
ेंगे	-1491
▁विपरीत	-1492
▁पंच	-1493
थम	-1494
ुष	-1495
▁प्रय	-1496
हाँ	-1497
क्टर	-1498
ंतु	-1499
▁निश्च	-1500
▁मूल्यांकन	-1501
▁नई	-1502
▁त्र	-1503
वरी	-1504
▁बिल	-1505
ॉल	-1506
▁भरो	-1507
▁संदेह	-1508
▁पूछ	-1509
▁अस्प	-1510
▁समझौते	-1511
▁कर्मचारी	-1512
▁स्कूल	-1513
ुल्क	-1514
▁जम	-1515
▁पीड़	-1516
▁ची	-1517
▁पिछ	-1518
▁अप्र	-1519
▁चर्	-1520
▁भाव	-1521
▁एससी	-1522
▁प्रासंगिक	-1523
स्प	-1524
▁सिव	-1525
▁लिमिट	-1526
▁कब्जे	-1527
▁प्रशासन	-1528
▁लिख	-1529
▁निगम	-1530
टक	-1531
▁K	-1532
िवार	-1533
▁योग्यता	-1534
रल	-1535
▁सुविध	-1536
is	-1537
▁दिश	-1538
तना	-1539
▁मौजूद	-1540
▁दुर्	-1541
▁थीं	-1542
▁वहां	-1543
▁जवा	-1544
▁O	-1545
▁लिमिटेड	-1546
▁चे	-1547
▁सदस्यों	-1548
▁इसकी	-1549
▁सिविल	-1550
▁उठा	-1551
▁जिससे	-1552
▁पार्ट	-1553
▁प्राथ	-1554
▁रे	-1555
▁संक	-1556
▁चयन	-1557
▁प्राथमिक	-1558
▁हस्ताक्ष	-1559
▁व्यापार	-1560
िस्ट्रेट	-1561
लिखित	-1562
▁हस्त	-1563
▁संयुक्त	-1564
▁अपीलार्थी	-1565
्रो	-1566
▁हित	-1567
वे	-1568
ास्थ	-1569
▁पहल	-1570
▁गण	-1571
▁लगाए	-1572
▁मं	-1573
ूर्ति	-1574
ीक	-1575
▁मानव	-1576
▁जग	-1577
▁दृष्ट	-1578
भीर	-1579
▁समु	-1580
▁कठ	-1581
▁धन	-1582
▁रद्द	-1583
▁वार	-1584
▁प्रभावित	-1585
▁मजिस्ट्रेट	-1586
▁उत्पन्न	-1587
▁भरोसा	-1588
▁मेरे	-1589
ंख	-1590
▁निर्भर	-1591
ट्ट	-1592
▁शा	-1593
▁ज्ञान	-1594
▁ठहरा	-1595
▁कमी	-1596
ार्ग	-1597
▁कथित	-1598
▁धर्म	-1599
▁o	-1600
▁विदेश	-1601
ूंकि	-1602
▁प्रथम	-1603
▁भर	-1604
▁चूंकि	-1605
ोस	-1606
▁दोषी	-1607
ेयर	-1608
िश्चित	-1609
▁शुल्क	-1610
▁कृष	-1611
▁भेज	-1612
▁हल	-1613
▁हकदार	-1614
▁शरी	-1615
▁उद्योग	-1616
▁इनकार	-1617
्वान	-1618
▁संव	-1619
▁जिसका	-1620
दाय	-1621
▁दिल्ली	-1622
▁बजे	-1623
▁अंतर्	-1624
▁प्रदेश	-1625
ूँ	-1626
▁Ex	-1627
▁रज	-1628
मता	-1629
▁निर्धारण	-1630
▁निम्नलिखित	-1631
ँच	-1632
▁हमारी	-1633
▁जनता	-1634
▁महिला	-1635
कान	-1636
▁मुकदमे	-1637
▁कोश	-1638
▁महीने	-1639
▁पराम	-1640
▁नागरिक	-1641
▁सुविधा	-1642
▁चुनाव	-1643
▁ट्रिब	-1644
▁खुद	-1645
्ला	-1646
▁ट्रिब्यून	-1647
▁अम	-1648
्रीम	-1649
▁सुधार	-1650
▁प्रारंभ	-1651
▁लिये	-1652
▁समूह	-1653
▁होंगे	-1654
▁घोषणा	-1655
▁रुपये	-1656
▁बल	-1657
▁मी	-1658
्काल	-1659
शत	-1660
▁बाज	-1661
▁ठीक	-1662
▁जवाब	-1663
▁पार्टी	-1664
▁परामर्श	-1665
क्ता	-1666
न्म	-1667
▁अनुसू	-1668
▁गंभीर	-1669
▁लिखित	-1670
▁आध	-1671
▁आने	-1672
▁चर्चा	-1673
▁ट्रिब्यूनल	-1674
▁आर्थ	-1675
▁काफी	-1676
▁सहित	-1677
▁अनुच्छेद	-1678
▁उपाय	-1679
▁शै	-1680
धारण	-1681
▁मद	-1682
्यास	-1683
त्नी	-1684
▁पाठ	-1685
▁वास्तविक	-1686
▁शरीर	-1687
▁बदल	-1688
▁रखते	-1689
▁ज़	-1690
▁सुना	-1691
▁विस्तार	-1692
▁मालिक	-1693
मेंट	-1694
दर्श	-1695
▁पत्नी	-1696
र्य	-1697
▁एच	-1698
▁अभी	-1699
▁मैंने	-1700
▁निव	-1701
ंदर	-1702
▁कर्मचार	-1703
▁प्राधिकारी	-1704
▁मद्दे	-1705
▁नए	-1706
र्न	-1707
▁जाएगी	-1708
▁आर्थिक	-1709
▁अच्छी	-1710
▁शब्दों	-1711
▁अवै	-1712
▁पूर्वो	-1713
▁अपे	-1714
▁लड़	-1715
▁मद्देन	-1716
▁कर्मचारियों	-1717
▁सहायक	-1718
ताल	-1719
▁मुकदमा	-1720
▁मिला	-1721
▁स्थित	-1722
▁प्रतिशत	-1723
▁मद्देनजर	-1724
▁परिय	-1725
म्ब	-1726
तों	-1727
▁तौर	-1728
▁वाह	-1729
▁क्षेत्रों	-1730
▁खुला	-1731
▁आधारित	-1732
गार	-1733
▁अने	-1734
▁सबूतों	-1735
▁वर्षों	-1736
▁परियोजना	-1737
▁सफल	-1738
▁व्याख्या	-1739
▁विरोध	-1740
ियन	-1741
▁प्रे	-1742
ाँकि	-1743
▁हालाँकि	-1744
▁कार्यक्रम	-1745
▁प्रभ	-1746
िको	-1747
्से	-1748
▁संभव	-1749
▁प्रतिनिध	-1750
▁वैध	-1751
▁क्ल	-1752
▁>	-1753
काल	-1754
▁हस्ताक्षर	-1755
▁भवन	-1756
ंदु	-1757
िवक्ता	-1758
▁दिनों	-1759
▁नगर	-1760
▁अवैध	-1761
▁बड़ी	-1762
▁आक	-1763
▁शर्तों	-1764
▁नियमित	-1765
▁दस्तावेजों	-1766
ाजिक	-1767
▁तीस	-1768
▁निश्चित	-1769
▁कृषि	-1770
▁प्रबंधन	-1771
▁अभि	-1772
▁स्टेशन	-1773
▁पार्टियों	-1774
ाहरण	-1775
▁प्रतिक	-1776
▁हस्तक्षेप	-1777
▁आवेदक	-1778
▁इंड	-1779
▁कर्त	-1780
▁डाल	-1781
▁व्यवस्था	-1782
▁लगाने	-1783
धारा	-1784
▁a	-1785
▁सामाजिक	-1786
▁उदाहरण	-1787
▁निर्दिष्ट	-1788
▁प्रार्थ	-1789
▁ति	-1790
सल	-1791
▁प्रार्थना	-1792
▁निजी	-1793
▁सुनवाई	-1794
्ब	-1795
स्वरूप	-1796
▁जे	-1797
▁आश	-1798
▁अधिसूचना	-1799
▁जमीन	-1800
▁क्षमता	-1801
ri	-1802
▁राहत	-1803
्रेड	-1804
▁करेंगे	-1805
निया	-1806
स्या	-1807
▁विर	-1808
ष्ण	-1809
▁जब्त	-1810
▁एल	-1811
on	-1812
फ्त	-1813
▁भे	-1814
▁ब्या	-1815
▁वर्ण	-1816
▁प्रौ	-1817
▁पति	-1818
ूक	-1819
▁उपबंध	-1820
▁अनिवार	-1821
▁पे	-1822
ोड	-1823
▁नियंत्रण	-1824
▁उम्मीदवार	-1825
▁पूर्वोक्त	-1826
आईआर	-1827
▁क्रम	-1828
▁सुप्रीम	-1829
▁श्रेणी	-1830
▁रजिस्ट	-1831
राज	-1832
चल	-1833
▁गये	-1834
शील	-1835
▁अनेक	-1836
▁अनुरोध	-1837
▁शक्त	-1838
▁पीड़ित	-1839
▁रहने	-1840
▁न्यायालयों	-1841
पत्र	-1842
▁दिशा	-1843
इन	-1844
▁निदेशक	-1845
पन	-1846
▁प्रणाली	-1847
▁प्रदर्शन	-1848
▁आत्म	-1849
▁स्	-1850
▁हमने	-1851
ंडल	-1852
▁वित्तीय	-1853
वासी	-1854
▁रोग	-1855
चन	-1856
▁पीछ	-1857
▁अनिवार्य	-1858
ोक्ता	-1859
▁तदन	-1860
▁कट	-1861
▁ब्याज	-1862
▁बाव	-1863
▁उपस्थित	-1864
डर	-1865
ंटर	-1866
ग्न	-1867
ST	-1868
▁समस्या	-1869
१०	-1870
▁सुनिश्चित	-1871
▁बें	-1872
▁समी	-1873
हास	-1874
▁पूरे	-1875
क्षक	-1876
▁आपको	-1877
▁बड़े	-1878
ैन	-1879
▁आस	-1880
▁उत्तरदाता	-1881
ियर	-1882
▁इरा	-1883
▁पुष्टि	-1884
▁अग्र	-1885
▁नव	-1886
र्प	-1887
▁बाल	-1888
▁तदनुसार	-1889
▁विनियम	-1890
▁जिसने	-1891
्याय	-1892
न्तु	-1893
▁स्थापना	-1894
▁जानी	-1895
en	-1896
राब	-1897
▁मंजू	-1898
▁हिस्सा	-1899
लाह	-1900
र्जी	-1901
▁कहते	-1902
▁छा	-1903
▁वस	-1904
▁आन	-1905
फार	-1906
▁सुझ	-1907
▁समा	-1908
र्इ	-1909
al	-1910
▁हत्या	-1911
▁रंग	-1912
ियो	-1913
▁याद	-1914
▁लेन	-1915
▁परिभा	-1916
▁चिकित्सा	-1917
दम	-1918
िक्ष	-1919
▁स्वास्थ	-1920
▁बाजार	-1921
▁संस्था	-1922
▁आयुक्त	-1923
▁अपीलीय	-1924
er	-1925
▁इस्त	-1926
▁पें	-1927
▁प्रौद्योगिक	-1928
लेज	-1929
▁कारणों	-1930
ंजी	-1931
ur	-1932
ांक	-1933
▁देखते	-1934
▁संभावना	-1935
▁कौ	-1936
श्म	-1937
▁उससे	-1938
▁एज	-1939
▁बावजूद	-1940
मति	-1941
▁तुल	-1942
ैंड	-1943
▁पुस्त	-1944
▁स्वास्थ्य	-1945
▁लक्ष	-1946
▁हिस्से	-1947
▁प्रतीत	-1948
एँ	-1949
▁जिन्हें	-1950
प्ता	-1951
▁अधिवक्ता	-1952
▁निर्धारिती	-1953
▁सीमित	-1954
▁परिवर्तन	-1955
िकोण	-1956
्मिक	-1957
▁तकनी	-1958
▁किस	-1959
▁अत्य	-1960
वादी	-1961
▁तर	-1962
▁V	-1963
▁बचाव	-1964
es	-1965
थि	-1966
▁G	-1967
▁यहाँ	-1968
▁आयु	-1969
▁इच्छ	-1970
▁चलता	-1971
▁जगह	-1972
िव्य	-1973
▁दक्ष	-1974
▁मुद्दे	-1975
▁दलील	-1976
▁नं	-1977
▁मुआ	-1978
▁पैदा	-1979
▁अधिकारों	-1980
्यिक	-1981
▁क़	-1982
▁‘	-1983
▁बस	-1984
ंसा	-1985
तिहास	-1986
▁लाल	-1987
▁सीआर	-1988
▁विद्वान	-1989
िम्म	-1990
▁लाख	-1991
▁मंद	-1992
▁जिन्होंने	-1993
▁मुआव	-1994
▁अस्पताल	-1995
▁L	-1996
▁व्यक्तिगत	-1997
▁संके	-1998
▁अन्त	-1999
▁संसद	-2000
▁हेतु	-2001
ंगत	-2002
सित	-2003
र्ग	-2004
▁उपस्थिति	-2005
▁स्वतंत्रता	-2006
▁पांच	-2007
ूरी	-2008
फारिश	-2009
▁T	-2010
▁मात्रा	-2011
▁तत्काल	-2012
▁आए	-2013
▁सिफारिश	-2014
िकल	-2015
▁बढ़ा	-2016
▁व्यवसाय	-2017
▁आपके	-2018
ाउ	-2019
▁अंक	-2020
▁दायित्व	-2021
▁मार्ग	-2022
▁लगता	-2023
▁व्यापक	-2024
▁व्यवहार	-2025
▁दृष्टिकोण	-2026
▁”	-2027
ग्रहण	-2028
▁बीमा	-2029
ोह	-2030
ूली	-2031
▁H	-2032
▁वाद	-2033
▁सहयोग	-2034
▁भाई	-2035
▁भर्ती	-2036
▁अर	-2037
▁पोस्ट	-2038
▁विज्ञान	-2039
न्ध	-2040
खिल	-2041
▁अभियुक्तों	-2042
▁विधान	-2043
▁परिणामस्वरूप	-2044
▁प्रतिनिधित्व	-2045
▁विवाह	-2046
▁लाइस	-2047
▁कैसे	-2048
▁अनुमान	-2049
पूर्व	-2050
▁सूचित	-2051
▁भू	-2052
▁तुम	-2053
र्च	-2054
▁अध्यक्ष	-2055
▁घोषित	-2056
▁उच्चतम	-2057
▁संत	-2058
▁पंजीकृत	-2059
▁एकल	-2060
▁रोज	-2061
▁केंद	-2062
▁सुझाव	-2063
▁अन्यथा	-2064
ह्न	-2065
▁सहमति	-2066
▁सेवाओं	-2067
ष्य	-2068
▁स्थायी	-2069
लग्न	-2070
कृतिक	-2071
▁निकाल	-2072
▁उपधारा	-2073
▁उपयुक्त	-2074
▁अस्वी	-2075
▁जन्म	-2076
in	-2077
▁खरीद	-2078
▁आकर्ष	-2079
्टर	-2080
▁बच्चों	-2081
▁J	-2082
▁लाइसेंस	-2083
फना	-2084
▁जमान	-2085
मती	-2086
▁जोड़	-2087
ha	-2088
▁वही	-2089
▁प्रौद्योगिकी	-2090
▁सत्र	-2091
▁निवेश	-2092
▁बच्चे	-2093
बू	-2094
▁संतु	-2095
ीर	-2096
▁काउ	-2097
▁रक्षा	-2098
ांति	-2099
▁भौ	-2100
लाई	-2101
▁चाहते	-2102
▁सभा	-2103
ुओं	-2104
ानि	-2105
▁जीव	-2106
▁गयी	-2107
▁खो	-2108
▁परिष	-2109
▁स्पष्टीकरण	-2110
▁सै	-2111
रासत	-2112
▁श्र	-2113
णिज	-2114
टन	-2115
▁प्रधान	-2116
▁स्थानीय	-2117
निर्	-2118
▁अगस्त	-2119
▁बाध्य	-2120
▁स्थानांत	-2121
▁अनुभव	-2122
बार	-2123
▁पिछले	-2124
▁अमे	-2125
षित	-2126
▁केंद्रीय	-2127
ूस	-2128
यों	-2129
▁चरण	-2130
लो	-2131
▁यात्रा	-2132
▁देरी	-2133
▁बेंच	-2134
▁विदेशी	-2135
▁वाणिज	-2136
▁क्रिया	-2137
▁वृद्धि	-2138
▁कोशिश	-2139
वरण	-2140
▁गिरफ्त	-2141
▁मंजूरी	-2142
▁कवि	-2143
▁पानी	-2144
▁असम	-2145
▁मेरी	-2146
ेमाल	-2147
▁संशोधित	-2148
▁हलफना	-2149
▁नुक	-2150
▁आरोपों	-2151
लन	-2152
▁इस्तेमाल	-2153
ृत्ति	-2154
▁बैठक	-2155
▁सम्मान	-2156
▁संकेत	-2157
▁आदेशों	-2158
नाथ	-2159
▁यानी	-2160
▁सलाह	-2161
▁WP	-2162
▁अंतर्गत	-2163
▁कॉलेज	-2164
▁मदद	-2165
▁रखना	-2166
▁प्रशिक्ष	-2167
▁संदर्भित	-2168
▁मध्यस्थता	-2169
▁सेट	-2170
No	-2171
▁अह	-2172
▁राजस्व	-2173
▁इंग	-2174
▁जिम्म	-2175
▁समीक्षा	-2176
▁दावे	-2177
िवी	-2178
▁सौंप	-2179
▁श्रम	-2180
मन	-2181
▁औद्योगिक	-2182
वर्ती	-2183
▁एफआईआर	-2184
दायी	-2185
▁काल	-2186
ार्ड	-2187
▁पश्चिम	-2188
▁IST	-2189
▁देय	-2190
▁अंग्रे	-2191
▁सुरक्षित	-2192
▁हिंद	-2193
ार्ज	-2194
▁वाहन	-2195
ोद	-2196
ूठ	-2197
ेंसी	-2198
▁प्राकृतिक	-2199
▁जरूर	-2200
▁समझौता	-2201
डे	-2202
▁हूँ	-2203
▁नौ	-2204
▁प्रतिवादियों	-2205
▁ज्या	-2206
▁पक्षों	-2207
▁भूमिका	-2208
▁करोड़	-2209
▁सिद्धांतों	-2210
▁चिह्न	-2211
▁मंदिर	-2212
▁पीछे	-2213
▁मोट	-2214
▁पंजीकरण	-2215
▁देशों	-2216
▁विभाज	-2217
▁ठहराया	-2218
ुआ	-2219
्रिय	-2220
ेंद्र	-2221
▁जमानत	-2222
▁डिक्री	-2223
खंड	-2224
▁एससीसी	-2225
▁संबंधी	-2226
▁कप	-2227
▁विल	-2228
▁विकसित	-2229
▁निर्णयों	-2230
▁बंग	-2231
▁बिंदु	-2232
ैल	-2233
00	-2234
▁सत	-2235
ान्त	-2236
▁तुलना	-2237
▁रेल	-2238
▁वैधानिक	-2239
तियों	-2240
ग्	-2241
▁दूसरा	-2242
डा	-2243
▁हट	-2244
▁इला	-2245
▁नुकसान	-2246
ंगे	-2247
ियाँ	-2248
ाधिकार	-2249
▁निपटान	-2250
▁मिश	-2251
दार्थ	-2252
ष्ट्रीय	-2253
▁छात्र	-2254
यां	-2255
▁बज	-2256
▁प्रभावी	-2257
ra	-2258
सीय	-2259
▁कदम	-2260
▁धो	-2261
▁अभिव्य	-2262
▁आईपीसी	-2263
ंटी	-2264
लोक	-2265
स्त्र	-2266
पि	-2267
▁भेजा	-2268
र्द	-2269
▁टे	-2270
▁भले	-2271
दाता	-2272
राह	-2273
▁देव	-2274
▁लागत	-2275
िटी	-2276
▁राजनी	-2277
▁तिथि	-2278
▁अनुचित	-2279
्साह	-2280
एफ	-2281
▁पदार्थ	-2282
▁छोटे	-2283
▁जहाँ	-2284
▁लौ	-2285
▁पीठ	-2286
▁मंत्रालय	-2287
र्मा	-2288
सि	-2289
▁बहु	-2290
▁त्रुट	-2291
▁श्रीमती	-2292
▁चाल	-2293
▁ग्राम	-2294
▁यु	-2295
दंड	-2296
▁वेब	-2297
मात्र	-2298
यात	-2299
एन	-2300
ताछ	-2301
ड़क	-2302
▁बोली	-2303
११	-2304
▁d	-2305
▁अस्थ	-2306
▁भवि	-2307
▁लेकर	-2308
▁रखी	-2309
ोप	-2310
▁निरी	-2311
▁उत्तरदायी	-2312
▁दृष्टि	-2313
▁लंबित	-2314
▁एंड	-2315
्रेस	-2316
▁00	-2317
▁बां	-2318
▁भविष्य	-2319
▁सचिव	-2320
▁मजब	-2321
िवीजन	-2322
▁निष्पादित	-2323
▁बेट	-2324
जों	-2325
त्तियों	-2326
▁आपत्ति	-2327
▁अनुपालन	-2328
▁दक्षि	-2329
ist	-2330
▁अर्थात्	-2331
▁of	-2332
▁शक्तियों	-2333
▁विज्ञ	-2334
▁विकल्प	-2335
▁मर	-2336
▁फर	-2337
▁पूछताछ	-2338
▁पेट	-2339
▁प्रारंभिक	-2340
▁रहते	-2341
▁गांव	-2342
सिक	-2343
तार	-2344
ct	-2345
ंधान	-2346
िफ	-2347
▁डिवीजन	-2348
▁इका	-2349
▁अधिग्रहण	-2350
पूर्वक	-2351
ाफ	-2352
▁आपूर्ति	-2353
▁संपर्क	-2354
▁जोर	-2355
▁अच्छा	-2356
▁उठाया	-2357
▁रहता	-2358
▁अनुश	-2359
▁संचालन	-2360
▁सत्य	-2361
▁टिप	-2362
त्मा	-2363
▁कर्तव्य	-2364
▁उसमें	-2365
ण्	-2366
▁प्रकाशित	-2367
▁दाखिल	-2368
▁बड़ा	-2369
ेशा	-2370
▁दिखाई	-2371
ेर	-2372
कृति	-2373
ामीण	-2374
▁अस्त	-2375
▁ग्रामीण	-2376
चरण	-2377
▁गठन	-2378
▁चाहे	-2379
▁खाते	-2380
विदा	-2381
▁उठाए	-2382
▁नम	-2383
▁मार्च	-2384
▁उपकरण	-2385
खी	-2386
ानुसार	-2387
▁आद	-2388
▁गवाही	-2389
▁संसा	-2390
शल	-2391
▁जाये	-2392
धे	-2393
▁छूट	-2394
▁अपेक्षा	-2395
▁अर्	-2396
▁अनुसंधान	-2397
धिकार	-2398
▁राज्यों	-2399
▁सम्प	-2400
▁निष्पादन	-2401
▁अंतरिम	-2402
▁हमेशा	-2403
▁देखने	-2404
▁मिली	-2405
▁लॉ	-2406
▁विद्य	-2407
▁उनमें	-2408
र्फ	-2409
▁चित्र	-2410
▁पेंशन	-2411
▁शीर्षक	-2412
▁तुर	-2413
▁बोल	-2414
बाद	-2415
▁एड	-2416
▁अनुसूची	-2417
▁बाहरी	-2418
▁टिप्प	-2419
▁वन	-2420
▁तकनीकी	-2421
▁पात्र	-2422
▁पक	-2423
▁यही	-2424
▁आकर्षित	-2425
▁इतिहास	-2426
▁ढंग	-2427
▁अध्ययन	-2428
ल्पना	-2429
▁आवंट	-2430
ेध	-2431
▁वसूली	-2432
▁चुका	-2433
▁प्रकट	-2434
▁कार्यों	-2435
▁आता	-2436
जार	-2437
▁भौतिक	-2438
▁यून	-2439
ड़ों	-2440
▁यद्य	-2441
▁लाया	-2442
▁जाति	-2443
लब	-2444
▁मास	-2445
▁यद्यपि	-2446
▁खर्च	-2447
▁कला	-2448
▁नक	-2449
▁जिनके	-2450
▁परिप	-2451
▁माता	-2452
स्क	-2453
जय	-2454
▁पहलू	-2455
▁इत	-2456
▁जिरह	-2457
▁भिन्न	-2458
▁रचना	-2459
▁रक्त	-2460
▁भावना	-2461
▁मुद्र	-2462
▁संगठन	-2463
▁निविदा	-2464
▁प्रेम	-2465
▁मान्यता	-2466
▁विस्तृत	-2467
▁एकमात्र	-2468
▁केस	-2469
ोन्न	-2470
▁देवी	-2471
▁साव	-2472
▁रोजगार	-2473
ंता	-2474
▁बुला	-2475
रेट	-2476
जरा	-2477
ंजन	-2478
हरी	-2479
▁शेष	-2480
▁युद्ध	-2481
कु	-2482
▁पदोन्न	-2483
▁हिरासत	-2484
▁परे	-2485
संद	-2486
▁लगे	-2487
▁शासन	-2488
▁आरंभ	-2489
▁पाठ्य	-2490
▁दि	-2491
▁किरा	-2492
▁उपर्	-2493
▁खुलासा	-2494
▁आरोपियों	-2495
र्जा	-2496
▁फिल	-2497
▁मौत	-2498
▁लिखा	-2499
▁होनी	-2500
▁महान	-2501
▁खेल	-2502
धीन	-2503
▁पेज	-2504
▁साहित	-2505
▁उपर्युक्त	-2506
▁विरुद्ध	-2507
▁Dist	-2508
▁अस्तित्व	-2509
▁उम	-2510
▁चाहता	-2511
वीं	-2512
▁प्रवि	-2513
ंतर	-2514
ात्म	-2515
▁जिनमें	-2516
▁मिले	-2517
▁निर्देशित	-2518
ायद	-2519
▁जून	-2520
▁सेवान	-2521
▁हमारा	-2522
▁निर्वा	-2523
▁शव	-2524
▁सेवानिव	-2525
केट	-2526
▁तरफ	-2527
▁देती	-2528
▁होकर	-2529
कारों	-2530
▁वाय	-2531
▁निकल	-2532
▁प्रग	-2533
▁आचरण	-2534
▁विवेक	-2535
▁बरा	-2536
▁साह	-2537
▁स्म	-2538
▁याचिकाओं	-2539
▁व्याव	-2540
र्वा	-2541
▁किर	-2542
▁वाणिज्यिक	-2543
▁कहना	-2544
▁संस्थानों	-2545
धा	-2546
▁बिज	-2547
▁परिषद	-2548
धानी	-2549
▁खे	-2550
▁सम्ब	-2551
ायक	-2552
▁निषेध	-2553
▁पुत्र	-2554
▁मश	-2555
▁अर्थात	-2556
▁दावेदार	-2557
भूत	-2558
▁अभ्यास	-2559
▁ज्यादा	-2560
▁बराम	-2561
▁गाँ	-2562
▁अश	-2563
▁गार	-2564
म्प	-2565
▁टै	-2566
सन	-2567
▁अप्रैल	-2568
▁अभिव्यक्ति	-2569
▁फैसला	-2570
▁II	-2571
▁संय	-2572
▁परंतु	-2573
▁संरक्षण	-2574
▁त्रुटि	-2575
▁शु	-2576
▁आकार	-2577
▁जाँच	-2578
▁पट्ट	-2579
▁फाइल	-2580
▁परिसर	-2581
▁बेहत	-2582
▁ii	-2583
▁डे	-2584
▁विनिर्	-2585
रक	-2586
▁विश्ले	-2587
▁पुस्तक	-2588
▁ते	-2589
मो	-2590
▁सत्ता	-2591
ाता	-2592
▁सराह	-2593
▁गुर	-2594
▁हथ	-2595
ॉस	-2596
ंगल	-2597
▁प्रत्यक्ष	-2598
▁पुनर्	-2599
भाग	-2600
म्ह	-2601
▁झूठ	-2602
▁बराबर	-2603
जनक	-2604
▁संस्करण	-2605
ेदारी	-2606
▁कहीं	-2607
▁प्रशासनिक	-2608
ैतिक	-2609
▁प्रशिक्षण	-2610
▁दें	-2611
▁प्रतिबंध	-2612
ून्य	-2613
▁अनुक	-2614
▁SCC	-2615
▁गांधी	-2616
▁उल्लिखित	-2617
▁रात	-2618
▁मुआवजे	-2619
▁t	-2620
▁ड्र	-2621
▁पट	-2622
▁रिक्त	-2623
ालित	-2624
ज्ञानिक	-2625
▁करनी	-2626
▁मेड	-2627
▁सित	-2628
▁तंत्र	-2629
ेदन	-2630
▁जिसकी	-2631
▁इस्ल	-2632
▁इंडिया	-2633
▁साधारण	-2634
ात्मक	-2635
▁कांग	-2636
▁पीसी	-2637
▁नया	-2638
▁कर्	-2639
▁संतुष्ट	-2640
ठित	-2641
▁तुरंत	-2642
साइट	-2643
▁अस्वीकार	-2644
▁साझ	-2645
▁बॉ	-2646
▁रि	-2647
▁विलेख	-2648
प्प	-2649
▁सिर	-2650
▁पंचायत	-2651
भाई	-2652
भू	-2653
▁पुनः	-2654
▁बरामद	-2655
गढ़	-2656
सम	-2657
▁प्रगति	-2658
▁कोर्इ	-2659
स्थाप	-2660
▁संदेश	-2661
▁निकाय	-2662
▁गुजरा	-2663
▁क्षति	-2664
▁शून्य	-2665
▁परन्तु	-2666
ृत्त	-2667
▁पौ	-2668
▁निम्नानुसार	-2669
न्व	-2670
▁समझा	-2671
▁जल्	-2672
▁लगी	-2673
▁अध्याय	-2674
भाल	-2675
▁राजा	-2676
▁यथ	-2677
▁जरूरत	-2678
▁पूंजी	-2679
▁शेयर	-2680
ॉक	-2681
संगत	-2682
प्ताह	-2683
▁दक्षिण	-2684
▁c	-2685
▁उम्मीदवारों	-2686
सनीय	-2687
श्वर	-2688
▁पाठ्यक्रम	-2689
il	-2690
▁निर्यात	-2691
▁तेल	-2692
लाव	-2693
ांड	-2694
▁छोड़कर	-2695
▁तुम्ह	-2696
▁दिस	-2697
▁कारा	-2698
▁अक	-2699
धिकरण	-2700
▁कृत	-2701
▁सहमत	-2702
▁पहला	-2703
ैक	-2704
ैधानिक	-2705
▁अभाव	-2706
▁हटा	-2707
▁अपराधों	-2708
▁क़ान	-2709
▁छह	-2710
▁चेक	-2711
▁उद्ध	-2712
▁पुरा	-2713
▁संचार	-2714
▁पाए	-2715
▁उद्य	-2716
▁पुरुष	-2717
णियों	-2718
▁पदों	-2719
▁नही	-2720
▁अधिका	-2721
▁इंज	-2722
▁विज्ञापन	-2723
▁सोच	-2724
▁अनुरूप	-2725
▁सड़क	-2726
नात्मक	-2727
आईसी	-2728
▁पसंद	-2729
▁सुब	-2730
▁पड़ा	-2731
▁सराहना	-2732
▁सामना	-2733
▁विशेषज्ञ	-2734
गल	-2735
िस्ता	-2736
▁रखे	-2737
पालिका	-2738
▁महारा	-2739
▁मुक्त	-2740
▁स्रो	-2741
▁उपचार	-2742
▁मेरा	-2743
▁क़ानून	-2744
▁शायद	-2745
यर	-2746
▁भग	-2747
▁विंड	-2748
as	-2749
रिका	-2750
▁तत्व	-2751
▁बेहतर	-2752
्राम	-2753
▁बढ़ाने	-2754
▁दिखाया	-2755
▁दुकान	-2756
▁कार्यकारी	-2757
▁किराय	-2758
▁मिट	-2759
त्साह	-2760
▁जनवरी	-2761
▁शिव	-2762
▁निरंतर	-2763
▁प्रयोज	-2764
▁दुर	-2765
▁संरचना	-2766
▁पाल	-2767
▁बरी	-2768
▁स्थानांतरित	-2769
▁दिखाने	-2770
▁अनुदान	-2771
घु	-2772
▁सत्या	-2773
▁इतना	-2774
IR	-2775
▁मई	-2776
हीन	-2777
▁राजनीतिक	-2778
▁री	-2779
▁न्यायाधिकरण	-2780
स्ति	-2781
▁लेना	-2782
▁लेखा	-2783
▁गतिविध	-2784
्ष्	-2785
▁इं	-2786
बे	-2787
ज्	-2788
▁हिन्द	-2789
▁मतलब	-2790
▁बने	-2791
श्छ	-2792
▁कीमत	-2793
▁इच्छा	-2794
▁आत	-2795
भूम	-2796
▁मानते	-2797
▁इक	-2798
▁अमेरिका	-2799
▁अवि	-2800
▁वहाँ	-2801
घटना	-2802
▁शाखा	-2803
and	-2804
ag	-2805
▁दायरे	-2806
▁नजर	-2807
▁पीएस	-2808
▁पड़ता	-2809
▁हवा	-2810
टों	-2811
▁ऊण्	-2812
श्छ्ष्	-2813
▁ऊण्श्छ्ष्	-2814
▁दुनिया	-2815
▁उनसे	-2816
▁शादी	-2817
▁सप्ताह	-2818
▁उपभ	-2819
▁जज	-2820
राव	-2821
▁गाँव	-2822
▁फॉ	-2823
▁न्यून	-2824
ियार	-2825
द्व	-2826
▁वेबसाइट	-2827
▁वें	-2828
▁किंतु	-2829
▁जाय	-2830
▁संकल्प	-2831
▁पर्य	-2832
▁प्रतिष्ठ	-2833
▁धी	-2834
▁विश्लेषण	-2835
▁विद्या	-2836
▁आग	-2837
▁मुद्द	-2838
▁प्रदर्शित	-2839
िप्त	-2840
▁क्रॉस	-2841
▁मशीन	-2842
किंग	-2843
▁धोखा	-2844
ठी	-2845
▁सात	-2846
▁किये	-2847
▁परिभाषित	-2848
्यो	-2849
▁दुर्घटना	-2850
ुनिक	-2851
मारी	-2852
▁सेना	-2853
ंगा	-2854
▁ब्रिट	-2855
१२	-2856
▁मेडिकल	-2857
AR	-2858
▁जुलाई	-2859
▁समाप्ति	-2860
ूबर	-2861
▁मुद्दों	-2862
▁वसीय	-2863
▁प्ल	-2864
▁पत	-2865
ad	-2866
▁ब्ल	-2867
बिर	-2868
▁भारी	-2869
भूमि	-2870
▁स्थग	-2871
▁निकाला	-2872
▁संपूर्ण	-2873
▁लाने	-2874
▁सक्रिय	-2875
▁देगा	-2876
▁कल्या	-2877
▁खत	-2878
▁अनुपस्थ	-2879
▁बेटी	-2880
▁शर्मा	-2881
चर	-2882
▁खाद	-2883
▁कारावास	-2884
▁लि	-2885
जूदा	-2886
▁मंत्री	-2887
▁ट्रस्ट	-2888
्यूटर	-2889
▁योगदान	-2890
▁निश	-2891
▁बिजली	-2892
▁मौजूदा	-2893
▁कांग्रेस	-2894
▁प्रोत्साह	-2895
▁अफ	-2896
▁w	-2897
▁बजाय	-2898
▁रिश	-2899
▁बंध	-2900
▁वस्तुओं	-2901
▁पदोन्नति	-2902
▁इंगित	-2903
▁न्यूनतम	-2904
▁आग्रह	-2905
▁शांति	-2906
▁ज्ञापन	-2907
▁हस्तांत	-2908
माने	-2909
कम	-2910
▁दृश्य	-2911
▁निर्व	-2912
▁मिलता	-2913
भार	-2914
▁Nos	-2915
▁मुखबिर	-2916
ारात्मक	-2917
नियों	-2918
▁समुदाय	-2919
▁प्रतिकूल	-2920
पा	-2921
▁एकत्र	-2922
▁दस	-2923
▁तीसरे	-2924
ent	-2925
▁गारंटी	-2926
टल	-2927
वक	-2928
▁विभाजन	-2929
चि	-2930
▁रेलवे	-2931
▁आते	-2932
am	-2933
▁समाधान	-2934
▁अंदर	-2935
▁अगले	-2936
▁संलग्न	-2937
डियो	-2938
▁हमला	-2939
▁नर	-2940
▁कोड	-2941
▁साहित्य	-2942
▁घायल	-2943
▁लक्ष्य	-2944
ूर्ण	-2945
रोप	-2946
ंव	-2947
▁मॉ	-2948
▁वैज्ञानिक	-2949
▁निर्मित	-2950
▁कल्याण	-2951
▁कब्जा	-2952
टे	-2953
▁पंजा	-2954
▁आधुनिक	-2955
pur	-2956
स्ल	-2957
▁खोल	-2958
▁केन्द्र	-2959
▁उद्यम	-2960
ोदन	-2961
▁डा	-2962
it	-2963
▁वितरण	-2964
▁प्राय	-2965
▁संवैधानिक	-2966
▁बेच	-2967
▁डेट	-2968
▁पर्यावरण	-2969
▁तला	-2970
▁देन	-2971
▁जिम्मेदार	-2972
फा	-2973
▁आतंक	-2974
▁शास	-2975
▁परिस्थिति	-2976
▁कटौती	-2977
rict	-2978
▁दब	-2979
वाय	-2980
▁सश	-2981
▁फरवरी	-2982
▁F	-2983
▁परिवहन	-2984
खिक	-2985
▁रोकने	-2986
▁खुल	-2987
▁District	-2988
मिल	-2989
▁चिह्नित	-2990
▁पाने	-2991
▁अनुमोदन	-2992
▁घंट	-2993
or	-2994
▁सुल	-2995
▁जेल	-2996
▁नदी	-2997
▁चार्ज	-2998
ुपयोग	-2999
▁अल्प	-3000
▁उम्र	-3001
▁मुसल	-3002
▁मौके	-3003
▁विविध	-3004
▁फ्र	-3005
▁एक्ट	-3006
चक	-3007
ृह	-3008
ंचित	-3009
▁अधिकांश	-3010
ोषण	-3011
ृत्व	-3012
▁छुट	-3013
ंथ	-3014
▁शहर	-3015
▁संब	-3016
▁मनुष	-3017
▁धार्मिक	-3018
▁थो	-3019
▁क्षेत्रीय	-3020
▁ग्राह	-3021
िशन	-3022
▁स्थल	-3023
▁ती	-3024
▁दश	-3025
वत्ता	-3026
▁मोह	-3027
▁क्षेत्राधिकार	-3028
ांस	-3029
िस्तान	-3030
▁कहानी	-3031
▁गुजरात	-3032
▁मानसिक	-3033
▁अंग्रेजी	-3034
▁करेगी	-3035
द्दा	-3036
▁पृथ	-3037
▁कॉल	-3038
▁पीडब्ल्यू	-3039
ल्ड	-3040
▁मना	-3041
▁भोजन	-3042
▁पढ़ने	-3043
▁गुणवत्ता	-3044
▁इंटर	-3045
ोलन	-3046
▁जित	-3047
कीय	-3048
▁चलाने	-3049
्ञा	-3050
▁दुरुपयोग	-3051
▁गणना	-3052
फ्ट	-3053
▁विच	-3054
ग्राफ	-3055
्रिया	-3056
▁जुड़े	-3057
▁प्रस्तावित	-3058
▁छात्रों	-3059
नेट	-3060
कता	-3061
ारण	-3062
▁प्रसाद	-3063
पथ	-3064
▁फल	-3065
▁मुसलमान	-3066
▁दौ	-3067
▁मनोर	-3068
▁खून	-3069
▁शुद्ध	-3070
▁कम्प	-3071
▁सांस	-3072
▁सन्	-3073
▁मौखिक	-3074
▁दिव	-3075
▁शंक	-3076
▁मंडल	-3077
▁शारी	-3078
क्रमण	-3079
▁आकलन	-3080
▁विश्वसनीय	-3081
▁कले	-3082
▁खाली	-3083
्वर	-3084
▁हास	-3085
▁सीधे	-3086
▁अनुपात	-3087
▁छोटी	-3088
▁निवास	-3089
क़	-3090
▁नेट	-3091
▁ऊर्जा	-3092
▁सफलता	-3093
▁बंगाल	-3094
▁सुबह	-3095
▁मू	-3096
एच	-3097
▁भ्र	-3098
▁माप	-3099
▁प्रमाणित	-3100
▁पद्ध	-3101
चारिक	-3102
▁अके	-3103
AN	-3104
▁बनाई	-3105
▁आयात	-3106
▁माँ	-3107
▁शारीरिक	-3108
लू	-3109
▁अहम	-3110
ितीय	-3111
▁इरादा	-3112
▁दिसंबर	-3113
▁पढ़ा	-3114
▁हलफनामे	-3115
▁अनुसूचित	-3116
▁वसीयत	-3117
▁p	-3118
लंब	-3119
▁ध्व	-3120
नात	-3121
▁रखता	-3122
▁आनंद	-3123
▁विचारों	-3124
▁दिख	-3125
सं	-3126
▁पाते	-3127
▁कवर	-3128
▁नील	-3129
रत	-3130
न्स	-3131
▁सका	-3132
▁निर्देशों	-3133
▁मात्र	-3134
ुति	-3135
▁इस्लाम	-3136
हरे	-3137
्वेष	-3138
▁अवस्था	-3139
ed	-3140
▁मोटर	-3141
ुन	-3142
▁स्वामी	-3143
▁सावधानी	-3144
▁मित्र	-3145
▁निधि	-3146
▁पश्चात्	-3147
▁गी	-3148
▁उन्न	-3149
▁चाहिये	-3150
▁औसत	-3151
▁सिर्फ	-3152
▁रू	-3153
▁मजद	-3154
साइ	-3155
▁नियोक्ता	-3156
लिक	-3157
▁करा	-3158
▁वालों	-3159
▁डॉक्टर	-3160
▁दोहरा	-3161
रीय	-3162
▁निष्पक्ष	-3163
▁निष्कर्षों	-3164
▁विचारा	-3165
▁जैसी	-3166
▁निवासी	-3167
▁निरीक्षण	-3168
ाइन	-3169
▁उठाने	-3170
▁खाता	-3171
ुता	-3172
▁v	-3173
▁आब	-3174
▁कठोर	-3175
ंबई	-3176
व्यव	-3177
▁इनमें	-3178
▁सितंबर	-3179
▁घट	-3180
ियल	-3181
▁सर्वे	-3182
▁लेते	-3183
▁वंचित	-3184
चीन	-3185
har	-3186
▁करी	-3187
▁उपन	-3188
▁विचाराधीन	-3189
▁AIR	-3190
▁आधिकार	-3191
▁मुखर्जी	-3192
▁बाध	-3193
ाज्ञा	-3194
ष्ट्र	-3195
मंत्र	-3196
▁गिरफ्तार	-3197
▁परिभाषा	-3198
घा	-3199
▁बर्	-3200
▁आधिकारिक	-3201
▁शुरुआ	-3202
▁नमू	-3203
▁मुद्दा	-3204
▁निषेधाज्ञा	-3205
EN	-3206
▁पड़े	-3207
id	-3208
▁रेड	-3209
▁अच्छे	-3210
▁पैराग्राफ	-3211
्षिक	-3212
▁कलेक्टर	-3213
▁इंजीन	-3214
▁मजबूत	-3215
पीठ	-3216
सूस	-3217
▁इकाई	-3218
▁वर्णित	-3219
▁प्राथमिकता	-3220
▁फर्म	-3221
▁गि	-3222
▁भेद	-3223
▁चुके	-3224
ियोग	-3225
▁न्यायाधीशों	-3226
▁गतिविधियों	-3227
▁पकड़	-3228
▁लगातार	-3229
▁उद्धृत	-3230
दर	-3231
▁प्राप्ति	-3232
काया	-3233
▁परिवर्त	-3234
▁व्यय	-3235
▁स्रोत	-3236
▁नियंत्रित	-3237
▁नेत	-3238
▁स्वीकृति	-3239
ंका	-3240
▁सकें	-3241
▁कृष्ण	-3242
▁दूरी	-3243
बाइल	-3244
फे	-3245
मल	-3246
▁१	-3247
्यात्मक	-3248
▁प्राइ	-3249
▁असमर्थ	-3250
▁निकट	-3251
▁केन्द	-3252
▁मुद्रा	-3253
ायर	-3254
▁वैधता	-3255
पचारिक	-3256
▁अंश	-3257
▁हिंदू	-3258
▁युवा	-3259
▁आंद	-3260
▁युग	-3261
▁नेतृत्व	-3262
▁तेज	-3263
▁अत्यधिक	-3264
▁सम्	-3265
▁वो	-3266
िज़	-3267
▁स्वीकार्य	-3268
▁न्यू	-3269
▁सच्च	-3270
▁रजिस्ट्र	-3271
▁असा	-3272
▁उत्तराधिक	-3273
▁डेटा	-3274
▁निर्वहन	-3275
ृद	-3276
▁दस्तावेज़	-3277
▁हटाने	-3278
▁गर्भ	-3279
▁निच	-3280
ेलन	-3281
▁रहती	-3282
नाटक	-3283
▁ताल	-3284
▁स्वाम	-3285
▁त्व	-3286
यण	-3287
▁वर्णन	-3288
▁फोन	-3289
▁माह	-3290
▁जरूरी	-3291
▁बिहार	-3292
▁अवलोक	-3293
▁दास	-3294
▁विधिव	-3295
▁सहकारी	-3296
ंत्रित	-3297
म्भ	-3298
▁खान	-3299
▁संक्षेप	-3300
▁सृ	-3301
ूपी	-3302
▁सुश	-3303
▁आत्मा	-3304
ंदा	-3305
▁प्रयोजन	-3306
▁चीज	-3307
▁मानदंड	-3308
▁लघु	-3309
ंगी	-3310
▁जुर्म	-3311
मंत्री	-3312
▁दरवा	-3313
ष्क	-3314
▁आह	-3315
▁कर्नाटक	-3316
▁उल	-3317
▁तभी	-3318
ृंख	-3319
▁प्रेरित	-3320
▁संघर्ष	-3321
▁कथन	-3322
IC	-3323
याँ	-3324
▁महसूस	-3325
▁वार्षिक	-3326
he	-3327
▁ग्रह	-3328
▁कंपनियों	-3329
▁लै	-3330
▁परम	-3331
▁रकम	-3332
स्ती	-3333
▁वर्गी	-3334
▁प्रतिक्रिया	-3335
▁देकर	-3336
▁किसान	-3337
पे	-3338
टिल	-3339
न्दी	-3340
▁मिलने	-3341
िड	-3342
▁काउंस	-3343
धनों	-3344
▁जनरल	-3345
▁पूर्वव	-3346
▁अभियोग	-3347
▁समाचार	-3348
▁कंप्यूटर	-3349
▁जानते	-3350
▁सम्मिल	-3351
▁अस्थायी	-3352
नल	-3353
▁सम्बन्ध	-3354
▁पृष्ठभूमि	-3355
म्बर	-3356
▁तत्प	-3357
▁बेटे	-3358
▁अपेक्षित	-3359
▁प्रयोजनों	-3360
▁लौट	-3361
िक्स	-3362
▁मनुष्य	-3363
▁रजिस्ट्रार	-3364
भूति	-3365
▁अर्ज	-3366
▁कहता	-3367
um	-3368
्कुल	-3369
▁कौन	-3370
▁इसने	-3371
▁ईश्वर	-3372
दारों	-3373
▁दै	-3374
▁पंजाब	-3375
▁संग्रह	-3376
ोजक	-3377
▁जुर्माना	-3378
▁भगवान	-3379
▁इंस	-3380
▁मानक	-3381
▁हद	-3382
▁शत्र	-3383
▁समार	-3384
▁आवा	-3385
▁अग्रिम	-3386
▁मोबाइल	-3387
▁U	-3388
राष्ट्रीय	-3389
▁अनुशास	-3390
▁प्रसार	-3391
डिया	-3392
शाला	-3393
स्थापित	-3394
▁एजेंसी	-3395
▁देखभाल	-3396
▁आशय	-3397
ुण	-3398
ृंखला	-3399
▁बिल्कुल	-3400
▁x	-3401
ॉज	-3402
▁चरित	-3403
ेक्ट	-3404
वर्क	-3405
१३	-3406
▁चंद्र	-3407
▁इरादे	-3408
ुम	-3409
AT	-3410
▁आंत	-3411
▁हाई	-3412
▁धीरे	-3413
ीदारी	-3414
▁नारा	-3415
▁r	-3416
▁अधिकतम	-3417
▁चोटों	-3418
ion	-3419
▁घरे	-3420
▁एचसी	-3421
▁कार्यान	-3422
्डी	-3423
▁निशान	-3424
त्री	-3425
रिया	-3426
▁मनोरंजन	-3427
▁समारोह	-3428
▁शपथ	-3429
▁दर्शाता	-3430
▁ऊंच	-3431
▁अवलोकन	-3432
▁संगी	-3433
▁पद्धति	-3434
तया	-3435
▁बढ	-3436
्किल	-3437
▁सकेगा	-3438
शिया	-3439
दृ	-3440
▁कार्यान्व	-3441
िद्ध	-3442
▁हजार	-3443
▁कहने	-3444
▁कमीशन	-3445
▁तार	-3446
▁बाई	-3447
▁धोखाध	-3448
▁बताए	-3449
▁डिस	-3450
शु	-3451
▁ठे	-3452
कल्प	-3453
▁काग	-3454
▁परिच	-3455
▁n	-3456
िकेट	-3457
चार्य	-3458
▁घरेलू	-3459
▁किरायेदार	-3460
न्ट	-3461
▁शिक्षक	-3462
बाजी	-3463
▁खाद्य	-3464
▁धोखाधड़ी	-3465
▁चूक	-3466
िनी	-3467
▁अनुप्र	-3468
▁खंडन	-3469
▁संबद्ध	-3470
▁अनुपस्थिति	-3471
करार	-3472
▁जम्म	-3473
▁मीटर	-3474
▁अक्ट	-3475
▁उपभोक्ता	-3476
▁विवादित	-3477
इयों	-3478
▁जिले	-3479
▁भंड	-3480
ic	-3481
▁जम्मू	-3482
▁प्रभार	-3483
▁कल्पना	-3484
▁अक्टूबर	-3485
▁रहना	-3486
▁संतोष	-3487
ागत	-3488
जाम	-3489
ाये	-3490
▁हासिल	-3491
गो	-3492
▁सरल	-3493
जित	-3494
▁आमत	-3495
▁विधिवत	-3496
जात	-3497
▁परेश	-3498
▁केन्द्रीय	-3499
मक	-3500
▁आंदोलन	-3501
क्क	-3502
▁छुट्टी	-3503
▁अवधार	-3504
▁असफल	-3505
▁पटना	-3506
्शन	-3507
▁मिन	-3508
व्यों	-3509
▁बनाना	-3510
▁बरकरार	-3511
सर्स	-3512
▁विशाल	-3513
▁चिंत	-3514
▁खास	-3515
▁आमतौर	-3516
▁जैन	-3517
▁पाव	-3518
त्कार	-3519
स्थित	-3520
▁सारे	-3521
डल	-3522
▁स्टेट	-3523
डु	-3524
देन	-3525
▁टेली	-3526
▁कठिना	-3527
▁कविता	-3528
▁निष्क	-3529
घ्र	-3530
▁मुश	-3531
▁दशा	-3532
▁किन	-3533
ांकन	-3534
▁ट्रेड	-3535
▁संसाधन	-3536
▁जब्ती	-3537
▁संस्कृत	-3538
▁शाह	-3539
▁प्रि	-3540
▁निर्वाचन	-3541
ट्	-3542
काशन	-3543
्यूट	-3544
▁निर्भरता	-3545
▁महिलाओं	-3546
▁बकाया	-3547
▁सम्मिलित	-3548
▁शि	-3549
▁इतनी	-3550
▁अनुशासनात्मक	-3551
चीत	-3552
▁f	-3553
▁चंद	-3554
सायिक	-3555
ोग्राम	-3556
▁मौलिक	-3557
▁स्वामित्व	-3558
▁सील	-3559
▁विधेय	-3560
▁संज्ञान	-3561
▁सर्वेक्षण	-3562
▁प्रविष्टि	-3563
▁प्रमाणपत्र	-3564
▁बातचीत	-3565
▁गिरफ्तारी	-3566
ीप	-3567
▁महत्त	-3568
▁प्रकाशन	-3569
यम	-3570
▁उपक्रम	-3571
३०	-3572
ोधित	-3573
▁आशा	-3574
▁कार्ड	-3575
ॉट	-3576
▁अंड	-3577
▁साइ	-3578
ing	-3579
र्या	-3580
▁अधिकृत	-3581
▁आती	-3582
▁डाय	-3583
▁ब्रिटिश	-3584
कल्पिक	-3585
▁गा	-3586
▁टाइ	-3587
▁दंडनीय	-3588
▁बुनिया	-3589
▁डिजा	-3590
▁गरी	-3591
उट	-3592
▁वैकल्पिक	-3593
▁कराने	-3594
▁लाप	-3595
▁अना	-3596
▁तमिल	-3597
▁अत्यंत	-3598
▁खात	-3599
▁आदमी	-3600
▁मंच	-3601
▁औपचारिक	-3602
▁ख़	-3603
▁बहन	-3604
▁लो	-3605
▁विजय	-3606
▁एनआईसी	-3607
▁चा	-3608
क्शन	-3609
▁सभ	-3610
▁उधार	-3611
▁कठिन	-3612
▁मल	-3613
▁किराए	-3614
▁कमरे	-3615
▁आंक	-3616
क्ष्म	-3617
स्लिम	-3618
ॉप	-3619
▁किन्तु	-3620
▁कराया	-3621
डब्ल्यू	-3622
सभा	-3623
▁नेटवर्क	-3624
पात	-3625
्रमण	-3626
▁फ़ाइल	-3627
▁साइट	-3628
AL	-3629
▁रोड	-3630
▁सिक	-3631
▁मुस्लिम	-3632
▁तात	-3633
▁लंबे	-3634
्कृत	-3635
▁चरित्र	-3636
▁पहुंचे	-3637
▁टिक	-3638
ग्ध	-3639
▁हथियार	-3640
▁नती	-3641
▁000	-3642
▁काट	-3643
▁चले	-3644
ायिका	-3645
ारक	-3646
▁बदलाव	-3647
▁सुश्री	-3648
▁ब्रह	-3649
▁स्थानों	-3650
देव	-3651
▁छोटा	-3652
▁घंटे	-3653
िग	-3654
▁शुरुआत	-3655
▁हाउ	-3656
▁संस्कृति	-3657
▁व्यावसायिक	-3658
▁प्रणब	-3659
▁संक्ष	-3660
▁गृह	-3661
▁ढां	-3662
▁नवंबर	-3663
क्ट्र	-3664
▁तह	-3665
▁उत्पादों	-3666
्रेता	-3667
▁विभागीय	-3668
▁सबम	-3669
PC	-3670
▁आपकी	-3671
▁सुनी	-3672
▁प्रसन्न	-3673
कर्ताओं	-3674
▁बुलाया	-3675
ेंड	-3676
▁पुराने	-3677
वेयर	-3678
▁तेजी	-3679
▁साधन	-3680
▁घटनाओं	-3681
▁चुना	-3682
न्ना	-3683
▁बनी	-3684
▁खड़ा	-3685
▁समग्र	-3686
▁दर्शाया	-3687
ER	-3688
ाकू	-3689
▁अध्या	-3690
▁पूर्वा	-3691
▁अपराधी	-3692
▁खन	-3693
▁काउंटर	-3694
▁विनियमन	-3695
▁विद्यार्थ	-3696
्राष्ट्रीय	-3697
▁अधिकरण	-3698
▁इले	-3699
ोरी	-3700
▁आवश्यकताओं	-3701
रोधी	-3702
mp	-3703
राम	-3704
▁पहलुओं	-3705
चलित	-3706
▁श्रृंखला	-3707
▁प्रतिनिधि	-3708
शाली	-3709
▁आंध	-3710
▁संचालित	-3711
▁अदालतों	-3712
▁मेल	-3713
▁संगीत	-3714
दारी	-3715
ित्त	-3716
▁पक्षकारों	-3717
राज्य	-3718
्फ	-3719
शनल	-3720
▁निपटने	-3721
▁गठित	-3722
मूर्ति	-3723
▁अभिलेख	-3724
▁बातों	-3725
▁स्थिर	-3726
▁हिन्दी	-3727
▁अपवाद	-3728
भाष	-3729
िकरण	-3730
▁आदर्श	-3731
▁कोल	-3732
▁प्रचार	-3733
▁बयानों	-3734
▁विद्युत	-3735
▁पाई	-3736
▁उद्देश्यों	-3737
मों	-3738
▁जोख	-3739
▁हाउस	-3740
▁सीपीसी	-3741
▁डिजाइन	-3742
▁कित	-3743
िद	-3744
un	-3745
▁डाला	-3746
▁तरीका	-3747
▁कां	-3748
▁मुंबई	-3749
▁पहुंचा	-3750
रम	-3751
▁दिवस	-3752
ाट	-3753
▁पीओ	-3754
▁कर्तव्यों	-3755
क्षणिक	-3756
बाल	-3757
▁बोझ	-3758
ंडी	-3759
शः	-3760
▁गलती	-3761
▁महाराष्ट्र	-3762
▁दह	-3763
रख	-3764
▁बुनियादी	-3765
नक	-3766
▁बध	-3767
पूर्ति	-3768
▁अकेले	-3769
▁अवमान	-3770
▁नेता	-3771
▁लेनदेन	-3772
▁गौ	-3773
ोसिए	-3774
▁हाथों	-3775
पास	-3776
▁स्वरूप	-3777
▁मुश्किल	-3778
▁खी	-3779
▁फार	-3780
श्मीर	-3781
▁इलाज	-3782
यू	-3783
▁b	-3784
▁संपत्तियों	-3785
▁पैसे	-3786
स्य	-3787
▁बौ	-3788
▁चै	-3789
▁ड्राइ	-3790
बि	-3791
▁यादव	-3792
ैया	-3793
ज्ञा	-3794
▁ग्रहण	-3795
▁केरल	-3796
▁जोखिम	-3797
▁संक्षिप्त	-3798
▁अतः	-3799
▁निवार	-3800
▁विरोधा	-3801
▁अनुलग्न	-3802
त्तर	-3803
▁गुजर	-3804
▁सॉ	-3805
▁हस्तांतरण	-3806
▁बला	-3807
▁रिश्त	-3808
▁हृद	-3809
▁प्राचीन	-3810
▁आमंत्रित	-3811
▁शीघ्र	-3812
्याग	-3813
▁शता	-3814
▁नाते	-3815
▁प्राथमिकी	-3816
▁अनुप्रयोग	-3817
▁वाक	-3818
▁समानता	-3819
ठा	-3820
▁स्वा	-3821
▁टुक	-3822
▁मकान	-3823
▁आवंटित	-3824
▁अट	-3825
▁जीवित	-3826
▁पहुंचने	-3827
लाइन	-3828
▁वायु	-3829
▁भागीदारी	-3830
▁मस	-3831
▁वेतनमान	-3832
▁विधेयक	-3833
र्ते	-3834
▁जाएंगे	-3835
▁फ्ल	-3836
▁आंध्र	-3837
मानी	-3838
क्षिक	-3839
▁खुलती	-3840
ol	-3841
▁तट	-3842
▁संबोधित	-3843
▁आठ	-3844
▁सेवानिवृत्ति	-3845
▁जय	-3846
भास	-3847
जीव	-3848
▁धारणा	-3849
र्पण	-3850
▁शैक्षणिक	-3851
▁प्रस्तुति	-3852
UD	-3853
वें	-3854
▁अंतरराष्ट्रीय	-3855
ेश्वर	-3856
▁अभिप	-3857
oc	-3858
ya	-3859
ृष्ट	-3860
▁विंडों	-3861
▁स्थगित	-3862
ापि	-3863
▁आवास	-3864
▁नष्ट	-3865
▁अली	-3866
▁बश	-3867
क्सर	-3868
्यक	-3869
▁अधी	-3870
▁सफ	-3871
▁राव	-3872
▁सेवाएं	-3873
ंशिक	-3874
▁निरा	-3875
▁महत्त्व	-3876
et	-3877
▁कृप	-3878
▁परिश	-3879
▁विधायिका	-3880
▁सिस्ट	-3881
▁द्वितीय	-3882
▁आंतरिक	-3883
▁उपबंधों	-3884
स्ते	-3885
लांग	-3886
▁शेय	-3887
न्हीं	-3888
रता	-3889
▁गाय	-3890
▁साक्षी	-3891
ख्त	-3892
▁कमज	-3893
▁ठेके	-3894
▁बधाई	-3895
▁बढ़ावा	-3896
जह	-3897
ंपरा	-3898
▁मिस	-3899
▁हैः	-3900
▁हानि	-3901
▁एसोसिए	-3902
म्बे	-3903
खे	-3904
रन	-3905
▁अनुलग्नक	-3906
▁सदन	-3907
▁निलंब	-3908
▁अनुकूल	-3909
ोम	-3910
▁आयकर	-3911
▁रिया	-3912
ज्ञात	-3913
व्यवस्था	-3914
ानु	-3915
▁अंततः	-3916
▁फिल्म	-3917
▁लेता	-3918
ौल	-3919
▁जटिल	-3920
▁किश	-3921
▁समन्व	-3922
ुस	-3923
▁इन्ह	-3924
▁सुनाई	-3925
▁गुना	-3926
▁सम्मेलन	-3927
▁लेखक	-3928
▁टिप्पणियों	-3929
रखाव	-3930
▁बैंकों	-3931
▁प्री	-3932
▁चश्म	-3933
▁चिंता	-3934
▁रखरखाव	-3935
▁अवधारणा	-3936
ट्र	-3937
▁डाक	-3938
▁जाया	-3939
▁प्रत्या	-3940
▁पश्चिमी	-3941
▁गुप्ता	-3942
▁परिक	-3943
कस	-3944
▁परंपरा	-3945
▁क्रूर	-3946
नाम	-3947
▁Cr	-3948
▁शे	-3949
▁कलक	-3950
ंत्रिक	-3951
▁क्रमशः	-3952
ष्प	-3953
▁ऑप	-3954
जाति	-3955
▁बनने	-3956
▁दृढ़	-3957
▁पर्व	-3958
▁जोड़ा	-3959
▁इच्छुक	-3960
ाचार	-3961
▁पाक	-3962
▁दर्शन	-3963
▁डब्ल	-3964
▁बशर्ते	-3965
त्न	-3966
▁डिप	-3967
▁कब	-3968
▁एपी	-3969
▁आश्व	-3970
▁संतुल	-3971
इड	-3972
▁बताता	-3973
▁घाव	-3974
▁तथापि	-3975
तल	-3976
विधि	-3977
▁लक्ष्म	-3978
▁सबमिशन	-3979
ुरा	-3980
दिग्ध	-3981
्वेषण	-3982
▁चुकी	-3983
▁संभावित	-3984
श्चात	-3985
▁अर्थव्यवस्था	-3986
ांग	-3987
▁अक्ष	-3988
▁करार	-3989
धर	-3990
मंडल	-3991
▁देखें	-3992
▁आसपास	-3993
▁कोय	-3994
▁आरक्षण	-3995
▁डिग्री	-3996
▁तथ्यात्मक	-3997
झकर	-3998
▁अन्	-3999
▁नये	-4000
▁संदिग्ध	-4001
▁शिक्षकों	-4002
नु	-4003
▁समृ	-4004
▁बाधा	-4005
▁विनिर्दिष्ट	-4006
▁मिलती	-4007
▁अयोग	-4008
▁दैनिक	-4009
▁शराब	-4010
णु	-4011
▁सेल	-4012
▁राजन	-4013
ोदित	-4014
शीट	-4015
▁असाधारण	-4016
▁उत्स	-4017
▁खंडपीठ	-4018
▁ग्रेड	-4019
▁लापर	-4020
▁जिनका	-4021
▁तस्व	-4022
काम	-4023
१४	-4024
▁आख	-4025
बीआई	-4026
व्र	-4027
▁कृपया	-4028
▁साक्ष्यों	-4029
▁पूर्ववर्ती	-4030
▁कपड़े	-4031
▁हिन्दू	-4032
िकाओं	-4033
▁गहरा	-4034
el	-4035
▁विफलता	-4036
▁पहा	-4037
▁जानता	-4038
ेबल	-4039
▁धम	-4040
▁सुंदर	-4041
मीटर	-4042
दीद	-4043
▁बढ़ाया	-4044
कला	-4045
बत	-4046
माग	-4047
▁आंशिक	-4048
▁अपमान	-4049
▁जल्द	-4050
▁खींच	-4051
▁अपनाया	-4052
▁गैस	-4053
▁समाव	-4054
▁हृदय	-4055
▁हिम	-4056
चित्र	-4057
▁एक्सट	-4058
ॉन	-4059
▁आकस	-4060
▁सुविधाओं	-4061
▁यूपी	-4062
▁युक्त	-4063
▁इलेक्ट्र	-4064
▁चश्मदीद	-4065
म्मद	-4066
ानों	-4067
▁एशिया	-4068
ॉय	-4069
▁पहुँच	-4070
▁आकस्मिक	-4071
▁आवंटन	-4072
▁रजिस्टर	-4073
▁ऑन	-4074
▁अधिसूचित	-4075
थित	-4076
▁गोली	-4077
▁स्वीकृत	-4078
आरएस	-4079
▁भाषण	-4080
▁बलात्कार	-4081
▁जानबू	-4082
▁हलफनामा	-4083
▁Ch	-4084
▁कॉर्प	-4085
▁वजह	-4086
▁पूछा	-4087
िपि	-4088
कत	-4089
▁प्रयुक्त	-4090
्रय	-4091
▁नैतिक	-4092
▁प्रयासों	-4093
▁संस्थाओं	-4094
▁कक्षा	-4095
▁सेवानिवृत्त	-4096
▁आरक्षित	-4097
▁चोटें	-4098
▁मिलकर	-4099
▁शुभ	-4100
्नों	-4101
▁विद्यालय	-4102
▁न्यायमूर्ति	-4103
▁Ext	-4104
प्पा	-4105
▁वाता	-4106
पित	-4107
▁सिस्टम	-4108
बाज	-4109
सील	-4110
भाविक	-4111
वो	-4112
▁करीब	-4113
▁आतंकवाद	-4114
▁अनुमोदित	-4115
ब्दी	-4116
्रोल	-4117
ियान	-4118
शय	-4119
▁विद्यमान	-4120
▁असर	-4121
ड़न	-4122
▁पैमाने	-4123
▁सूक्ष्म	-4124
▁एप	-4125
▁नाटक	-4126
र्डर	-4127
▁बनाता	-4128
▁वीं	-4129
▁धारण	-4130
▁एक्	-4131
▁शैक्षिक	-4132
▁बहा	-4133
▁गुरु	-4134
▁गौर	-4135
▁निर्मा	-4136
▁फीस	-4137
▁अक्सर	-4138
▁ज्ञात	-4139
▁अस्पष्ट	-4140
▁क्व	-4141
▁बढ़ने	-4142
▁दिमाग	-4143
▁बदले	-4144
▁उपयोगी	-4145
▁विशेषता	-4146
▁उत्क	-4147
▁सां	-4148
▁साफ	-4149
करी	-4150
▁विषयों	-4151
▁वरिष्ठता	-4152
▁विकलांग	-4153
▁नागरिकों	-4154
▁टन	-4155
▁अवमानना	-4156
▁नारायण	-4157
▁हिंदी	-4158
▁आपका	-4159
▁ड्यू	-4160
ill	-4161
र्गी	-4162
▁धारक	-4163
सु	-4164
▁वीडियो	-4165
ENT	-4166
▁मनो	-4167
ॉर्ट	-4168
▁खातों	-4169
▁मुआवजा	-4170
▁कलकत्ता	-4171
▁आँ	-4172
▁पैर	-4173
▁इत्या	-4174
▁कंट	-4175
▁तल	-4176
वेट	-4177
ामा	-4178
▁विमान	-4179
▁गर्इ	-4180
▁जिनकी	-4181
▁समुद्र	-4182
▁समस्याओं	-4183
ॉल्ट	-4184
▁ईसा	-4185
▁कश्मीर	-4186
▁रेखा	-4187
▁भागों	-4188
▁रस	-4189
्रित	-4190
▁दवा	-4191
▁दीवार	-4192
▁हितों	-4193
▁इंजीनियर	-4194
▁नामक	-4195
▁रुपए	-4196
रान	-4197
▁नामित	-4198
▁अंतर्राष्ट्रीय	-4199
age	-4200
▁वातावरण	-4201
▁शैली	-4202
▁अनुवाद	-4203
▁परामर्शदाता	-4204
GM	-4205
▁समाय	-4206
▁जानबूझकर	-4207
त्व	-4208
▁शिक्षण	-4209
िने	-4210
▁m	-4211
▁अरब	-4212
▁जहा	-4213
▁बताते	-4214
दिक	-4215
▁वारंट	-4216
▁इजर	-4217
▁सुख	-4218
▁स्टैंड	-4219
ैट	-4220
▁बौद्ध	-4221
्राज	-4222
▁आंख	-4223
▁तमिलना	-4224
▁अभिन	-4225
▁दहेज	-4226
ड्ड	-4227
▁त्याग	-4228
िसी	-4229
▁फॉर्म	-4230
▁प्रतिबद्ध	-4231
▁आलोक	-4232
▁वापसी	-4233
कालीन	-4234
▁चार्जशीट	-4235
▁भ्रष्ट	-4236
▁कानूनों	-4237
▁प्रोत्साहन	-4238
▁कारक	-4239
▁पट्टे	-4240
खन	-4241
▁पत्रों	-4242
र्धन	-4243
▁दबाव	-4244
▁आर्	-4245
▁वेद	-4246
निष्ठ	-4247
▁सारा	-4248
▁मिट्टी	-4249
▁विवादों	-4250
us	-4251
▁गंगा	-4252
ताव	-4253
▁परिवर्तित	-4254
▁देखना	-4255
▁शताब्दी	-4256
▁यौ	-4257
▁विधायी	-4258
्रीन	-4259
सीसी	-4260
▁दूसरों	-4261
ाइड	-4262
▁क्लॉज	-4263
▁काउंसिल	-4264
han	-4265
▁बाग	-4266
▁सुनने	-4267
▁निरोध	-4268
os	-4269
तक	-4270
▁बताने	-4271
▁ट्रांस	-4272
▁बदलने	-4273
▁स्कूलों	-4274
▁अर्जित	-4275
▁प्ले	-4276
▁शेयरों	-4277
▁विस	-4278
श्विक	-4279
ियमित	-4280
ेक्टर	-4281
▁प्रबंधक	-4282
्यापी	-4283
▁प्रभारी	-4284
▁कमजोर	-4285
▁हिंदु	-4286
▁महाम	-4287
▁सांस्कृत	-4288
▁लाइन	-4289
▁सांस्कृतिक	-4290
▁रहेगा	-4291
▁अनुसरण	-4292
▁चिकित्स	-4293
मार्ग	-4294
ोरेट	-4295
▁प्ला	-4296
▁बुद्धि	-4297
साद	-4298
▁स्थानांतरण	-4299
▁द्र	-4300
कुल	-4301
▁प्रवर्तन	-4302
गु	-4303
ताब	-4304
▁पूजा	-4305
▁खराब	-4306
▁कुशल	-4307
▁भेजे	-4308
▁JUD	-4309
▁फंसा	-4310
▁अनियमित	-4311
▁प्रसिद्ध	-4312
▁कथा	-4313
▁तहसील	-4314
जल	-4315
सीन	-4316
▁लापरवाही	-4317
ूद	-4318
▁प्रदू	-4319
▁भेदभाव	-4320
च्छिक	-4321
umar	-4322
hi	-4323
फर	-4324
▁किलो	-4325
▁जोड़ने	-4326
▁तत्पश्चात	-4327
▁फूल	-4328
▁मंड	-4329
▁वर्गों	-4330
्यव	-4331
▁रोगी	-4332
▁सें	-4333
▁उपन्यास	-4334
▁रजिस्ट्री	-4335
▁विरोधी	-4336
▁विवे	-4337
▁’	-4338
▁अधीनस्थ	-4339
▁संबंधों	-4340
▁तमिलनाडु	-4341
▁रुचि	-4342
▁फसल	-4343
राबाद	-4344
▁ब्लॉक	-4345
▁अंध	-4346
श्वास	-4347
▁क्रेड	-4348
ंतिम	-4349
▁नवी	-4350
▁नियत	-4351
ai	-4352
▁जल्दी	-4353
▁यूनिट	-4354
▁श्रमिक	-4355
▁HC	-4356
▁जिम्मेदारी	-4357
▁डर	-4358
▁कार्यवाह	-4359
▁गुणों	-4360
▁मजबूर	-4361
▁परेशान	-4362
▁सलाहकार	-4363
ख़	-4364
▁संगठ	-4365
▁देयता	-4366
▁अतिक	-4367
▁अभियोजक	-4368
▁अनंतिम	-4369
▁पत्थ	-4370
▁मिनट	-4371
▁ग्राहक	-4372
▁श्व	-4373
▁इत्यादि	-4374
▁इमार	-4375
▁इजरायल	-4376
िस्त	-4377
▁पेटेंट	-4378
▁g	-4379
▁पथ	-4380
▁तिर	-4381
▁ग्रे	-4382
▁फी	-4383
GMENT	-4384
▁द्वार	-4385
▁JUDGMENT	-4386
▁छत्त	-4387
्टम	-4388
▁आईटी	-4389
▁इतने	-4390
▁लगाना	-4391
▁ठेकेदार	-4392
▁आउट	-4393
▁टीम	-4394
नामा	-4395
▁बचा	-4396
▁बाकी	-4397
▁कार्यान्वयन	-4398
ec	-4399
▁गर्	-4400
▁मांगी	-4401
▁कार्यकाल	-4402
▁आपने	-4403
▁परिपत्र	-4404
ढ़ी	-4405
ल्ला	-4406
▁सेवक	-4407
▁इंस्प	-4408
स्तिष्क	-4409
▁प्रधानमंत्री	-4410
ेह	-4411
▁भु	-4412
▁चक्र	-4413
▁पावर	-4414
▁लक्षण	-4415
▁अमेरिक	-4416
▁उन्नत	-4417
▁किराया	-4418
▁Rs	-4419
ाब	-4420
▁अर्ध	-4421
िन्	-4422
र्देश	-4423
▁वर्मा	-4424
▁क्रेडिट	-4425
▁स्वाभाविक	-4426
मान्य	-4427
▁राज्यपाल	-4428
धारी	-4429
▁अवकाश	-4430
संख	-4431
▁विम	-4432
प्रिय	-4433
▁खुले	-4434
पोर्ट	-4435
▁ठाक	-4436
चित्य	-4437
▁स्की	-4438
▁जैव	-4439
▁गर्म	-4440
▁दिये	-4441
▁प्रचलित	-4442
▁मार्गदर्श	-4443
ज़ा	-4444
यत	-4445
त्तम	-4446
▁काव्य	-4447
▁आह्वान	-4448
▁ब्रह्म	-4449
▁आइ	-4450
▁अब्द	-4451
▁सत्यापन	-4452
▁खड़े	-4453
्चर	-4454
▁गतिविधि	-4455
▁प्या	-4456
▁प्राण	-4457
सीद	-4458
▁Kumar	-4459
▁नीलामी	-4460
▁अपर	-4461
▁ठोस	-4462
▁बीमारी	-4463
▁रै	-4464
▁सूचीबद्ध	-4465
▁समझने	-4466
▁प्रश्नों	-4467
▁शहरी	-4468
ूब	-4469
पान	-4470
▁सिल	-4471
कल	-4472
ज़र	-4473
▁आसानी	-4474
स्टेबल	-4475
▁प्रतिद्व	-4476
▁प्रतिस्प	-4477
ेंडर	-4478
▁आवाज	-4479
▁ऑर्डर	-4480
▁सशक्त	-4481
▁अचान	-4482
शास्त्र	-4483
▁पल	-4484
भावना	-4485
डेंसी	-4486
▁सामग्र	-4487
▁कने	-4488
▁डिफ़	-4489
▁प्राइवेट	-4490
ेंज	-4491
▁पूर्वी	-4492
दोष	-4493
▁लोकतंत्र	-4494
▁नवान	-4495
वानी	-4496
▁अचानक	-4497
स्टर	-4498
▁इन्हें	-4499
ियत	-4500
वाला	-4501
▁सारी	-4502
▁सहारा	-4503
▁गणराज्य	-4504
▁दोहराया	-4505
▁स्वै	-4506
II	-4507
पक	-4508
िनल	-4509
▁बेचने	-4510
ूंगा	-4511
वित्र	-4512
▁दृष्टया	-4513
▁विरोधाभास	-4514
▁प्रत	-4515
हारिक	-4516
▁संतुष्टि	-4517
▁ड्यूटी	-4518
▁आवेदकों	-4519
▁डिफ़ॉल्ट	-4520
▁रास्ते	-4521
आईटी	-4522
▁सख्त	-4523
र्घ	-4524
▁गईं	-4525
▁साम्राज	-4526
▁पाकिस्तान	-4527
▁अजी	-4528
▁मेमो	-4529
▁स्नात	-4530
्लो	-4531
▁खुशी	-4532
▁आश्च	-4533
▁तात्काल	-4534
▁आरोपित	-4535
र्पित	-4536
▁पॉल	-4537
▁बीज	-4538
▁भेजने	-4539
रस	-4540
▁जाएं	-4541
▁दावों	-4542
▁मुसलमानों	-4543
▁छत्तीस	-4544
हत्या	-4545
▁चारों	-4546
▁पृथ्वी	-4547
▁तात्कालिक	-4548
▁e	-4549
▁लंबी	-4550
▁क्रूरता	-4551
▁झग	-4552
▁खेती	-4553
▁असंगत	-4554
▁सुभाष	-4555
▁तत्कालीन	-4556
▁संसाधनों	-4557
▁सम्मानित	-4558
▁लेखों	-4559
▁शत्रुता	-4560
▁सामग्रियों	-4561
▁साज	-4562
स्तान	-4563
▁अक्षम	-4564
▁हवाला	-4565
▁सरकारों	-4566
बिट	-4567
ार्ट	-4568
▁पात्रता	-4569
▁मानने	-4570
ोबार	-4571
▁आश्चर्य	-4572
▁प्रतिद्वंद	-4573
▁लें	-4574
▁बचने	-4575
▁कठिनाई	-4576
▁एसोसिएशन	-4577
▁भय	-4578
▁प्रवाह	-4579
▁अधिकारिता	-4580
▁वर	-4581
▁तीव्र	-4582
▁निकालने	-4583
▁निरीक्षक	-4584
ANo	-4585
न्य	-4586
▁शिकार	-4587
▁पूर्वाग्रह	-4588
▁जाह	-4589
▁इनके	-4590
ंपा	-4591
धरी	-4592
▁शंकर	-4593
▁औचित्य	-4594
▁अफ्री	-4595
▁शर्तें	-4596
ड़ीसा	-4597
▁आयोजन	-4598
▁विचारण	-4599
▁मस्तिष्क	-4600
▁गुप्त	-4601
▁सर्वा	-4602
▁उत्पी	-4603
▁प्रोग्राम	-4604
ुरी	-4605
सिंह	-4606
▁प्रेष	-4607
▁इंस्पेक्टर	-4608
▁आये	-4609
▁ज्यो	-4610
▁कौशल	-4611
▁खत्म	-4612
मार्टम	-4613
▁फें	-4614
▁बीमार	-4615
्वा	-4616
▁मैदान	-4617
▁उठता	-4618
om	-4619
▁आक्रमण	-4620
लाल	-4621
esid	-4622
▁मजदूरी	-4623
वाले	-4624
▁अतिक्रमण	-4625
मय	-4626
▁अशोक	-4627
▁दिशानि	-4628
▁प्रायः	-4629
गण	-4630
▁हिंसा	-4631
▁पोस्टमार्टम	-4632
▁चीज़	-4633
▁सतर्क	-4634
▁विभाजित	-4635
▁फोट	-4636
▁पुनरी	-4637
▁आत्महत्या	-4638
▁दिशानिर्देश	-4639
ंडा	-4640
▁कुंजी	-4641
▁देंगे	-4642
▁अहमद	-4643
▁छत्तीसगढ़	-4644
▁बताओ	-4645
▁अमरी	-4646
▁प्रोट	-4647
क्षेत्र	-4648
▁बू	-4649
▁फिट	-4650
र्नी	-4651
लर	-4652
▁वर्गीकरण	-4653
जतन	-4654
▁अंतरण	-4655
▁नतीजतन	-4656
नो	-4657
स्थल	-4658
▁हैद	-4659
▁सकारात्मक	-4660
▁प्रतिस्पर्	-4661
त्मिक	-4662
▁निपटाया	-4663
दाताओं	-4664
▁चेन्न	-4665
▁दिला	-4666
▁भरने	-4667
▁उड़ीसा	-4668
नाएं	-4669
▁मीडिया	-4670
थी	-4671
▁टिप्पणी	-4672
लेट	-4673
क्षी	-4674
▁नवीन	-4675
तिहासिक	-4676
▁तुम्हें	-4677
िकेशन	-4678
▁लगाई	-4679
▁उत्पादित	-4680
▁होम	-4681
्रदाय	-4682
त्ते	-4683
▁शिश	-4684
ंभव	-4685
▁सुलझ	-4686
▁दूध	-4687
▁स्वच्छ	-4688
ड़ाई	-4689
माना	-4690
▁ट्रै	-4691
ेंद	-4692
वोकेट	-4693
esident	-4694
▁अपीलों	-4695
नाश	-4696
▁संगठनों	-4697
▁शासित	-4698
ादन	-4699
▁शो	-4700
▁आध्या	-4701
▁चेतना	-4702
▁उत्कृष्ट	-4703
सरों	-4704
▁चेहरे	-4705
▁एडवोकेट	-4706
▁प्रविष्ट	-4707
्रण	-4708
▁आसान	-4709
▁खोलने	-4710
▁तोड़	-4711
▁CR	-4712
▁देर	-4713
ड़ियों	-4714
▁अनुकंपा	-4715
AM	-4716
▁परिस्थित	-4717
▁परियोजनाओं	-4718
▁NIC	-4719
▁इन्	-4720
▁नमूना	-4721
स्पर	-4722
▁रिटर्न	-4723
▁चौधरी	-4724
▁किसानों	-4725
▁उद्योगों	-4726
▁जाल	-4727
▁नेहर	-4728
▁सीट	-4729
▁उत्तराधिकार	-4730
▁कार्यक्रमों	-4731
जीवन	-4732
ानिक	-4733
▁बनता	-4734
▁मौसम	-4735
▁प्रदत्त	-4736
▁रण	-4737
▁अगली	-4738
वाली	-4739
▁रसीद	-4740
▁शुभकाम	-4741
▁होटल	-4742
▁हैदराबाद	-4743
▁छो	-4744
र्कों	-4745
▁लड़की	-4746
▁स्मृति	-4747
▁प्रसन्नता	-4748
▁गोल	-4749
▁पवित्र	-4750
▁निवारण	-4751
संख्या	-4752
▁Pra	-4753
▁पश्चात	-4754
जु	-4755
▁लाभों	-4756
▁व्यावहारिक	-4757
▁कायम	-4758
▁अधीक्षक	-4759
▁अभियंता	-4760
▁नकारात्मक	-4761
▁मिशन	-4762
▁उपायों	-4763
▁स्वागत	-4764
▁चाकू	-4765
▁शक्तियां	-4766
▁देखे	-4767
▁प्रतियोग	-4768
▁तलाश	-4769
▁फे	-4770
▁धमकी	-4771
▁सुसंगत	-4772
▁बेह	-4773
▁बुरा	-4774
सू	-4775
▁राजस्थान	-4776
▁नाथ	-4777
▁विनियमों	-4778
ंदी	-4779
▁पक्षकार	-4780
कश	-4781
▁अनि	-4782
▁साध	-4783
▁इंग्ल	-4784
▁कारबार	-4785
रप	-4786
ंदन	-4787
▁रिहा	-4788
१५	-4789
गाह	-4790
▁अन्तर्	-4791
▁रव	-4792
▁सैनिक	-4793
le	-4794
▁चैन	-4795
▁परस्पर	-4796
▁रम	-4797
▁SCA	-4798
▁सूर्य	-4799
▁समस्त	-4800
▁ज्योति	-4801
▁पर्यवे	-4802
▁आलो	-4803
पेक्ष	-4804
▁प्रतीक	-4805
▁निचली	-4806
▁करवा	-4807
▁ग्रा	-4808
▁आल	-4809
▁iii	-4810
▁भूल	-4811
hat	-4812
श्त	-4813
तीत	-4814
▁भरा	-4815
▁दिनांकित	-4816
फ्टवेयर	-4817
र्जन	-4818
▁बाबू	-4819
▁विशेषकर	-4820
▁आध्यात्मिक	-4821
▁भागी	-4822
▁राजनैतिक	-4823
▁रिश्तेदार	-4824
ाउन	-4825
ारों	-4826
▁महत्त्वपूर्ण	-4827
ूद्ध	-4828
ंकिंग	-4829
IN	-4830
▁मोहन	-4831
▁दीर्घ	-4832
▁संविदा	-4833
▁अनुभाग	-4834
▁ऐतिहासिक	-4835
▁समितियों	-4836
▁बहस	-4837
▁प्रच	-4838
▁रिक्तियों	-4839
▁कॉपी	-4840
किल	-4841
▁संगण	-4842
▁विधिक	-4843
▁औष	-4844
▁सेंट	-4845
▁यूरोप	-4846
▁बचाने	-4847
▁दलीलों	-4848
▁खतरा	-4849
illage	-4850
▁छाप	-4851
▁लिखने	-4852
इस	-4853
▁सब्	-4854
▁जुड़ा	-4855
▁जायेगा	-4856
▁विमर्श	-4857
▁अवश	-4858
▁दाह	-4859
▁किशोर	-4860
▁संतुलन	-4861
शीलता	-4862
▁निरस्त	-4863
▁in	-4864
ग्रहित	-4865
▁समन्वय	-4866
▁राजी	-4867
पीट	-4868
दर्शी	-4869
खास्त	-4870
▁अयोग्य	-4871
▁लक	-4872
▁असह	-4873
▁लेखन	-4874
▁हवाई	-4875
▁दरवाजा	-4876
▁छिप	-4877
▁जनसंख्या	-4878
▁प्रतिद्वंद्वी	-4879
▁विद्यार्थियों	-4880
भोग	-4881
▁गोद	-4882
▁बाध्यकारी	-4883
▁फाय	-4884
द्दीन	-4885
▁पिछली	-4886
▁प्रस्तुतियाँ	-4887
ादित	-4888
▁फोर	-4889
▁गरीब	-4890
▁निपटा	-4891
कृ	-4892
वती	-4893
▁वां	-4894
▁प्रशंसा	-4895
▁डील	-4896
▁मरने	-4897
▁आवासी	-4898
▁पेशे	-4899
▁उत्पीड़न	-4900
▁तस्वीर	-4901
कट	-4902
▁शुभकामनाएं	-4903
▁कांस्टेबल	-4904
▁प्रोत्साहित	-4905
▁गव	-4906
▁उदार	-4907
पुट	-4908
वीर	-4909
▁उभर	-4910
▁घात	-4911
▁माइ	-4912
▁प्रथा	-4913
▁फार्म	-4914
▁दया	-4915
▁तीसरी	-4916
▁अमेरिकी	-4917
▁ऑफिस	-4918
▁अभियान	-4919
हिम	-4920
ोरेशन	-4921
▁तीनों	-4922
▁प्रोफे	-4923
▁विश्वविद्यालयों	-4924
▁प्राधिकार	-4925
परी	-4926
▁एक्ज़	-4927
▁मेसर्स	-4928
▁मिश्रा	-4929
▁संयंत्र	-4930
▁पेंडेंसी	-4931
क्का	-4932
दास	-4933
▁उनको	-4934
▁प्रारूप	-4935
▁हार	-4936
▁ओआरएस	-4937
▁प्रतिबंधित	-4938
रु	-4939
▁चीन	-4940
ावली	-4941
▁बेल	-4942
▁रिस	-4943
▁स्त्री	-4944
साइटी	-4945
▁सौंपा	-4946
▁ठाकुर	-4947
▁लोकप्रिय	-4948
▁राजेश	-4949
कुमार	-4950
▁कक्ष	-4951
▁निगर	-4952
▁भूखंड	-4953
▁अवश्य	-4954
▁सोसाइटी	-4955
▁सूत्र	-4956
▁निगरानी	-4957
शे	-4958
हता	-4959
▁चलने	-4960
▁विलंब	-4961
च्छा	-4962
▁मारपीट	-4963
▁मोहम्मद	-4964
▁श्रेणीः	-4965
▁विधानमंडल	-4966
▁खतरे	-4967
▁नेहरू	-4968
िबिट	-4969
▁एजेंट	-4970
▁प्रेस	-4971
AD	-4972
▁चलाया	-4973
▁नौकरी	-4974
▁बर्खास्त	-4975
▁चढ़	-4976
▁रीति	-4977
▁अवैधता	-4978
घात	-4979
▁लीज	-4980
▁वंश	-4981
▁पेड़	-4982
▁मगर	-4983
▁रवी	-4984
▁लिखी	-4985
▁सीधी	-4986
▁छोड़ने	-4987
नाक	-4988
▁पेपर	-4989
▁ज़र	-4990
▁बुक	-4991
ास्थिति	-4992
▁योजनाओं	-4993
▁पुनरीक्षण	-4994
जीत	-4995
वां	-4996
▁चालक	-4997
ंदाज	-4998
▁बाबत	-4999
▁संकट	-5000
▁मान्य	-5001
▁सीबीआई	-5002
▁नामांकन	-5003
▁शोध	-5004
▁वैश्विक	-5005
▁सीमाओं	-5006
▁स्वैच्छिक	-5007
▁वजन	-5008
▁अनदे	-5009
ोत	-5010
णिक	-5011
▁आफ	-5012
▁बताई	-5013
▁साजिश	-5014
▁DW	-5015
कानूनी	-5016
ation	-5017
िली	-5018
▁बातें	-5019
▁कृत्य	-5020
▁मछ	-5021
▁जानने	-5022
▁तीसरा	-5023
▁पशु	-5024
▁साक्षात्	-5025
ीकृत	-5026
▁वैसे	-5027
▁सिरे	-5028
णन	-5029
▁लिखे	-5030
▁गैरकानूनी	-5031
पों	-5032
ाधीन	-5033
▁हरि	-5034
▁टेक	-5035
▁पोर्ट	-5036
▁बहुमत	-5037
▁नो	-5038
▁एकता	-5039
▁मानना	-5040
▁बॉम्बे	-5041
▁मद्र	-5042
▁मांस	-5043
▁वक्त	-5044
▁क्षतिपूर्ति	-5045
न्ड	-5046
▁आधारों	-5047
▁अल्पसंख	-5048
▁कदा	-5049
कालिक	-5050
▁वहीं	-5051
िरा	-5052
▁सन	-5053
▁वीर	-5054
र्गीय	-5055
▁जाहिर	-5056
▁निभा	-5057
▁भ्रम	-5058
▁सोने	-5059
▁डिस्क	-5060
▁संसदीय	-5061
▁राजमार्ग	-5062
▁जाकर	-5063
▁अनुशासन	-5064
▁मकस	-5065
▁छत	-5066
▁चलते	-5067
▁दशक	-5068
ैव	-5069
▁कृत्यों	-5070
▁आनन्द	-5071
▁देखकर	-5072
▁शह	-5073
▁Bi	-5074
▁यो	-5075
ूहिक	-5076
▁पटेल	-5077
▁पत्थर	-5078
▁किनारे	-5079
▁मद्रास	-5080
▁पीड़िता	-5081
▁आपत्तियों	-5082
पहर	-5083
▁मार्क	-5084
ोने	-5085
▁अन्याय	-5086
▁थोड़ा	-5087
▁निर्दोष	-5088
▁विक्रेता	-5089
▁सामूहिक	-5090
▁दबा	-5091
▁दलों	-5092
▁हालत	-5093
▁स्कीम	-5094
▁फैसलों	-5095
केश	-5096
▁सप	-5097
▁उड़	-5098
▁आवासीय	-5099
न्धी	-5100
▁जर्म	-5101
वाहिक	-5102
▁सृजन	-5103
▁कारकों	-5104
▁दुर्बल	-5105
▁अभिप्रे	-5106
ाले	-5107
▁झूठे	-5108
ेजी	-5109
▁रखें	-5110
▁चयनित	-5111
▁कूट	-5112
बालिग	-5113
▁द्वीप	-5114
▁राजपत्र	-5115
्ह	-5116
▁जितना	-5117
गोल	-5118
▁नाबालिग	-5119
ादा	-5120
▁सोसाय	-5121
चस्प	-5122
▁सेक	-5123
▁हल्	-5124
▁टेस्ट	-5125
▁समुचित	-5126
▁डब्ल्यू	-5127
▁शत्रुतापूर्ण	-5128
▁मानता	-5129
▁III	-5130
▁विहित	-5131
▁महामहिम	-5132
ul	-5133
▁दौरा	-5134
ड्डी	-5135
▁मकसद	-5136
▁ऑनलाइन	-5137
▁पार्क	-5138
▁न्यायपालिका	-5139
ंकर	-5140
▁जला	-5141
▁खाना	-5142
▁दर्द	-5143
▁मुह	-5144
▁एकड़	-5145
रणा	-5146
▁संसार	-5147
पत	-5148
▁रास्ता	-5149
▁नाट	-5150
▁पांडे	-5151
▁कराई	-5152
ॉँ	-5153
▁ओवर	-5154
▁विकृत	-5155
▁अस्वीकृति	-5156
▁चीजों	-5157
▁विरूद्ध	-5158
ादेश	-5159
▁मात	-5160
▁साम्राज्य	-5161
▁घटक	-5162
▁ट्रे	-5163
▁इमारत	-5164
▁पेशकश	-5165
▁खुश	-5166
फोन	-5167
वारी	-5168
▁भंग	-5169
▁दोपहर	-5170
▁दिलचस्प	-5171
▁अत	-5172
▁इकट्	-5173
▁अत्या	-5174
रोज	-5175
▁कच्च	-5176
▁मूल्यों	-5177
▁पैके	-5178
▁गवर्न	-5179
णों	-5180
▁इश	-5181
▁मानवीय	-5182
▁विधियों	-5183
्यूल	-5184
▁इंस्ट	-5185
▁नमूने	-5186
▁मुकदमेबाजी	-5187
▁ध्वनि	-5188
▁प्रयोगशाला	-5189
▁खण्ड	-5190
▁डायरी	-5191
▁ढांचे	-5192
▁सोसायटी	-5193
▁जता	-5194
▁एक्ज़िबिट	-5195
▁खरीदने	-5196
▁चुने	-5197
▁आवेदनों	-5198
▁अय	-5199
▁उज	-5200
▁प्रतिष्ठा	-5201
वत	-5202
▁कारोबार	-5203
खों	-5204
ांकित	-5205
▁उन्म	-5206
स्स	-5207
▁रुख	-5208
तावनी	-5209
▁आकाश	-5210
▁सेमी	-5211
▁सत्यापित	-5212
▁एआईआर	-5213
▁पक्षपात	-5214
▁उत्तरी	-5215
र्ध	-5216
▁चेतावनी	-5217
▁पंड	-5218
▁प्रयत्न	-5219
▁सावधानीपूर्वक	-5220
▁पाँच	-5221
▁साक्षात्कार	-5222
▁चेन्नई	-5223
▁किस्म	-5224
▁नगरपालिका	-5225
▁कव	-5226
▁अचल	-5227
▁ताप	-5228
▁पौध	-5229
▁पूर्ति	-5230
▁लु	-5231
ंगति	-5232
▁स्वर	-5233
डीए	-5234
स्थापन	-5235
▁विभागों	-5236
ोचित	-5237
▁समापन	-5238
▁पुरानी	-5239
▁स्थितियों	-5240
्वत	-5241
▁घातक	-5242
▁अफ्रीका	-5243
▁मार्	-5244
सायनिक	-5245
▁दस्तावेजी	-5246
▁प्रवृत्ति	-5247
▁श्रेष्ठ	-5248
▁प्रोफेसर	-5249
▁प्राधिकृत	-5250
▁कार्यरत	-5251
▁मोड	-5252
▁राजनीति	-5253
▁अगला	-5254
दिन	-5255
म्मत	-5256
▁गुल	-5257
▁मेन	-5258
▁पाता	-5259
▁यंत्र	-5260
▁व्याया	-5261
▁आश्वासन	-5262
▁मानदंडों	-5263
▁दावेदारों	-5264
लाब	-5265
▁मॉडल	-5266
▁इकाइयों	-5267
अल	-5268
▁घा	-5269
▁देखी	-5270
▁IPC	-5271
▁निर्णायक	-5272
निहित	-5273
▁कं	-5274
▁जंग	-5275
▁यथा	-5276
▁दर्शा	-5277
▁प्रदूषण	-5278
ेदी	-5279
जन्य	-5280
▁आरम्भ	-5281
▁मासिक	-5282
बन्ध	-5283
▁गंभीरता	-5284
विचार	-5285
▁दंडित	-5286
रू	-5287
▁क्ला	-5288
क़्त	-5289
▁तकनीक	-5290
▁हरिया	-5291
▁स्वर्गीय	-5292
ir	-5293
▁साझा	-5294
▁दुर्भ	-5295
▁OS	-5296
▁जगत	-5297
▁बंधक	-5298
▁मानकों	-5299
विंद	-5300
▁सागर	-5301
▁निः	-5302
▁डालने	-5303
▁रोका	-5304
▁निपटारा	-5305
▁करो	-5306
▁अनाव	-5307
▁उपयोगकर्ता	-5308
▁पैनल	-5309
▁परिसम	-5310
ादक	-5311
▁खाने	-5312
▁नेशनल	-5313
▁उच्चतर	-5314
कोर्ट	-5315
▁चालू	-5316
▁सर्वाधिक	-5317
ोई	-5318
भारत	-5319
▁बढ़ती	-5320
▁यथास्थिति	-5321
▁कीट	-5322
▁विपणन	-5323
▁प्रतिव	-5324
▁बढ़े	-5325
क्सी	-5326
▁k	-5327
▁सहज	-5328
▁अब्दुल	-5329
न्द्रनाथ	-5330
▁उपकरणों	-5331
▁अपरि	-5332
▁हमले	-5333
ari	-5334
▁इंद	-5335
▁यौन	-5336
▁मौका	-5337
▁अज्ञात	-5338
▁वितरित	-5339
▁जानें	-5340
▁दोस्त	-5341
लिंग	-5342
▁अकाद	-5343
▁समर्थित	-5344
ut	-5345
पीएस	-5346
▁चीनी	-5347
▁मधु	-5348
▁अवसरों	-5349
▁मशीनरी	-5350
▁आकर	-5351
▁चिप	-5352
▁बहि	-5353
▁स्थगन	-5354
▁मिलाकर	-5355
िमय	-5356
▁अभिप्रेत	-5357
▁संवाद	-5358
▁जड़	-5359
▁अजीब	-5360
▁ताकत	-5361
▁मनमाना	-5362
घर	-5363
सुर	-5364
▁चतु	-5365
ॉनिक	-5366
त्तियां	-5367
ल्डर	-5368
▁गीत	-5369
▁कितना	-5370
▁जनजाति	-5371
▁सॉफ्टवेयर	-5372
▁सटी	-5373
मार्क	-5374
▁ग्रंथ	-5375
▁बुद्ध	-5376
▁प्रतिभा	-5377
▁बैंकिंग	-5378
▁निर्माता	-5379
▁निधन	-5380
▁गोप	-5381
▁मंज	-5382
▁रहित	-5383
▁तरीकों	-5384
▁वचन	-5385
▁अंकित	-5386
▁अवगत	-5387
▁बच्चा	-5388
▁नार	-5389
▁पूर्ववर्ष	-5390
▁संध	-5391
हाबाद	-5392
▁निलंबन	-5393
▁दुर्भाग	-5394
▁असाम	-5395
▁नियमितीकरण	-5396
▁उत्तराधिकारी	-5397
ंजा	-5398
▁निष्क्रिय	-5399
▁परिकल्पना	-5400
▁भेजी	-5401
▁स्तंभ	-5402
▁समझाया	-5403
▁ईमान	-5404
▁चिंतन	-5405
▁रासायनिक	-5406
▁सर्वोत्तम	-5407
▁सदा	-5408
एगा	-5409
▁the	-5410
▁क्यू	-5411
▁अंतराल	-5412
▁निर्वि	-5413
▁प्रतिप	-5414
▁प्रक्रियाओं	-5415
UR	-5416
टो	-5417
यक	-5418
पीय	-5419
▁बनाते	-5420
ay	-5421
वंश	-5422
▁नियोजित	-5423
▁amp	-5424
्रल	-5425
▁शेख	-5426
▁ब्राह	-5427
▁अभियोगी	-5428
▁ऑपरेट	-5429
▁सिफारिशों	-5430
▁PO	-5431
क्षीय	-5432
▁कुमारी	-5433
ah	-5434
पय	-5435
लित	-5436
्मा	-5437
एसएल	-5438
▁सुविधाएं	-5439
दों	-5440
▁मेर	-5441
▁लंबाई	-5442
बीर	-5443
▁पैकेज	-5444
▁विरासत	-5445
▁मैने	-5446
▁तैनात	-5447
छा	-5448
काब	-5449
ेटी	-5450
▁हेड	-5451
▁प्रिय	-5452
▁भंडारण	-5453
▁बजा	-5454
▁वाणिज्य	-5455
▁उल्लेखनीय	-5456
▁हाईकोर्ट	-5457
शक्ति	-5458
▁जमी	-5459
▁फेंक	-5460
उंड	-5461
▁ग्राहकों	-5462
▁पोषण	-5463
▁परमाण	-5464
▁l	-5465
़्य	-5466
▁समावेश	-5467
गमन	-5468
▁नै	-5469
▁शेयरधार	-5470
▁चम	-5471
▁झा	-5472
▁आदान	-5473
▁उपाध	-5474
▁भाषाओं	-5475
▁किलोमीटर	-5476
▁पंचनामा	-5477
IL	-5478
ab	-5479
्राव	-5480
▁अकबर	-5481
▁अन्तर	-5482
▁सर्वर	-5483
▁इंटरनेट	-5484
गामी	-5485
▁कागज	-5486
▁परिणामी	-5487
▁ऑफ़	-5488
ोश	-5489
▁अन्दर	-5490
▁लड़के	-5491
▁संरक्षित	-5492
▁सचे	-5493
▁चिंतित	-5494
ष्णु	-5495
ब्लिक	-5496
▁समर्पित	-5497
▁दान	-5498
▁बहाल	-5499
म्मा	-5500
▁WPNo	-5501
▁होंगी	-5502
▁कोशिका	-5503
▁पड़ी	-5504
▁सिवाय	-5505
िरी	-5506
▁तद	-5507
▁शिख	-5508
▁नयी	-5509
▁सर्विस	-5510
मेल	-5511
▁उपे	-5512
▁झार	-5513
▁सतह	-5514
▁मण	-5515
▁फंसाया	-5516
▁उपलब्धता	-5517
ak	-5518
▁शुक्र	-5519
ेत	-5520
▁स्थिरता	-5521
▁आना	-5522
▁फ़िल	-5523
▁महीनों	-5524
▁इलाहाबाद	-5525
▁कमेटी	-5526
▁किताब	-5527
यान	-5528
काता	-5529
▁गर्दन	-5530
▁विनिर्माण	-5531
▁ऊपरी	-5532
▁एस्ट	-5533
▁संगम	-5534
दाबाद	-5535
▁त्वरित	-5536
ोषित	-5537
▁भावी	-5538
▁NO	-5539
▁आखिर	-5540
▁रेड्डी	-5541
▁आजीवन	-5542
▁नकदी	-5543
▁पुनर्वास	-5544
▁विनियमित	-5545
▁डो	-5546
ॉर्नी	-5547
▁बैठे	-5548
▁अपनाने	-5549
▁डीड	-5550
▁तैयारी	-5551
घाटन	-5552
र्की	-5553
▁कति	-5554
▁सरदार	-5555
▁मामूली	-5556
▁वसूल	-5557
▁नवान्वेषण	-5558
IT	-5559
▁h	-5560
▁हा	-5561
ज्ञेय	-5562
▁समूहों	-5563
ावट	-5564
▁खि	-5565
▁भ्रष्टाचार	-5566
वों	-5567
▁असंभव	-5568
वासियों	-5569
मेन	-5570
▁तर्कों	-5571
▁अधिग्रहित	-5572
▁कार्यवाहियों	-5573
▁खनिज	-5574
▁असमान	-5575
▁सुनील	-5576
▁अटॉर्नी	-5577
▁नीतियों	-5578
ज़ी	-5579
्त्र	-5580
▁भूत	-5581
▁वर्षा	-5582
▁हस्तांतरित	-5583
▁वांछ	-5584
▁प्रभाग	-5585
ैक्ट	-5586
▁गहरी	-5587
▁अनिश्चित	-5588
▁माध्यमिक	-5589
▁पहुँ	-5590
▁Village	-5591
▁पेट्रोल	-5592
▁एयर	-5593
▁जागर	-5594
▁लड़ाई	-5595
▁कदाचार	-5596
▁यूनियन	-5597
▁व्यवस्थित	-5598
▁१६	-5599
खाने	-5600
▁प्रोवि	-5601
▁इंकार	-5602
▁हरियाणा	-5603
िपल	-5604
द्री	-5605
▁आलोचना	-5606
▁अग्रवाल	-5607
▁इंजीनियरिंग	-5608
▁क्रमांक	-5609
▁मालिकों	-5610
▁सतर्कता	-5611
▁दुख	-5612
▁पैसा	-5613
▁मुला	-5614
▁कितनी	-5615
▁त्वचा	-5616
ग्रस्त	-5617
▁स्वभाव	-5618
क्व	-5619
वरों	-5620
▁चाय	-5621
▁जीत	-5622
▁विनिमय	-5623
▁डीडब्ल्यू	-5624
▁छि	-5625
दियों	-5626
▁शास्त	-5627
▁निर्विवाद	-5628
▁निश्चय	-5629
▁प्रतिल	-5630
▁टेलीफोन	-5631
▁अधिनियमित	-5632
▁and	-5633
▁लिंग	-5634
▁सिंध	-5635
िल्प	-5636
▁साझेदारी	-5637
हान	-5638
▁अख	-5639
ख्यात	-5640
▁दायित्वों	-5641
▁लिंक	-5642
▁स्वस्थ	-5643
भाषा	-5644
ान्य	-5645
▁बोस	-5646
▁जुड़	-5647
▁सम्बन्धी	-5648
▁धात	-5649
▁कैडर	-5650
▁पूरक	-5651
▁अर्जी	-5652
▁कतिपय	-5653
▁सोचा	-5654
▁स्टॉक	-5655
▁विशेषाधिकार	-5656
ोजी	-5657
▁चाहती	-5658
▁व्यायाम	-5659
▁अपनाई	-5660
▁पूर्वव्यापी	-5661
स्फ	-5662
ल्ली	-5663
▁मृत्युदंड	-5664
्यूम	-5665
▁अपह	-5666
▁रवि	-5667
▁हेम	-5668
▁उपहार	-5669
▁पड़ेगा	-5670
▁प्रेरणा	-5671
▁आराम	-5672
▁नोड	-5673
▁जहाज	-5674
ंचाई	-5675
▁रानी	-5676
▁ग्रस्त	-5677
अंदाज	-5678
एमसी	-5679
▁गहन	-5680
▁वक्फ	-5681
▁सिटी	-5682
▁घटनास्थल	-5683
▁अल्पसंख्यक	-5684
▁हैंः	-5685
▁शंकरा	-5686
▁परिणामों	-5687
▁धर	-5688
्याव	-5689
▁बांध	-5690
▁विंडो	-5691
▁नेताओं	-5692
▁वस्तुत	-5693
ुका	-5694
▁सफेद	-5695
▁विक्रय	-5696
मैन	-5697
▁फैला	-5698
▁सर्ट	-5699
▁दुश्म	-5700
▁अग्रणी	-5701
▁वैवाहिक	-5702
▁चली	-5703
▁स्क्रीन	-5704
▁याचिकाएं	-5705
▁पार्	-5706
▁बारी	-5707
▁रहें	-5708
▁टू	-5709
▁चाव	-5710
▁इनका	-5711
▁उत्साह	-5712
▁छवि	-5713
ोक्ति	-5714
▁मुंह	-5715
▁गेंद	-5716
▁बारह	-5717
ेरे	-5718
कीर्ण	-5719
▁अभिक	-5720
▁संतोषजनक	-5721
▁इलेक्ट्रॉनिक	-5722
यल	-5723
ड़ब	-5724
▁परमाणु	-5725
▁कोलकाता	-5726
▁जुड़ी	-5727
▁गांवों	-5728
िटल	-5729
ेंशन	-5730
▁तहसीलदार	-5731
▁अंतः	-5732
▁श्रेणियों	-5733
▁रुक	-5734
▁समेक	-5735
▁रिकॉर्डिंग	-5736
▁विकलांगता	-5737
▁नकद	-5738
▁ट्यू	-5739
▁हार्	-5740
▁मास्टर	-5741
शिष्ट	-5742
▁जरिए	-5743
▁बाह्य	-5744
▁पुस्तकों	-5745
धारित	-5746
▁वृक्ष	-5747
▁क्लब	-5748
▁प्रता	-5749
▁रियायत	-5750
▁अंतर्निहित	-5751
▁अमान्य	-5752
▁गज	-5753
राशि	-5754
▁चुप	-5755
▁नान	-5756
चालित	-5757
▁कोयला	-5758
अर	-5759
▁दमन	-5760
ष्कार	-5761
▁इंडियन	-5762
▁कॉलेजों	-5763
▁रिज	-5764
▁अधिकतर	-5765
▁चन्द्र	-5766
▁पॉ	-5767
▁पाइ	-5768
▁लखन	-5769
▁बंदूक	-5770
▁मारने	-5771
▁टक	-5772
▁मध्यम	-5773
▁सदस्यता	-5774
▁दुखी	-5775
शिप	-5776
▁ससुर	-5777
▁एजेंस	-5778
एसआई	-5779
▁चैनल	-5780
▁आशंका	-5781
▁कार्ब	-5782
▁खट	-5783
▁चलो	-5784
▁फैल	-5785
▁बेद	-5786
▁विनय	-5787
▁सर्क	-5788
▁आस्ति	-5789
▁संक्रमण	-5790
▁नजरअंदाज	-5791
ate	-5792
▁अनधिक	-5793
▁सिंचाई	-5794
ाजित	-5795
▁सेन	-5796
▁सौर	-5797
▁टिकट	-5798
▁झारखंड	-5799
▁तत्वों	-5800
ायें	-5801
▁खनन	-5802
▁सोम	-5803
▁महानि	-5804
▁आर्बिट	-5805
ch	-5806
iv	-5807
▁अखिल	-5808
▁महात्मा	-5809
▁लोड	-5810
रेख	-5811
▁पश	-5812
▁भरे	-5813
▁विस्तारित	-5814
▁खुली	-5815
विज्ञान	-5816
▁प्रतिनिधियों	-5817
बाई	-5818
▁In	-5819
▁कैप	-5820
▁पोत	-5821
ES	-5822
ंठ	-5823
यें	-5824
ॉर्टम	-5825
▁सिक्	-5826
▁समृद्ध	-5827
▁सर्टिफ	-5828
वालों	-5829
ल्स	-5830
▁कितने	-5831
▁न्यायसंगत	-5832
सीटी	-5833
▁परमिट	-5834
▁सभ्यता	-5835
डिट	-5836
ाइट	-5837
ingh	-5838
ल्हा	-5839
▁बचत	-5840
त्त्व	-5841
▁स्वे	-5842
▁विसंगति	-5843
िश्न	-5844
▁उन्	-5845
▁संभाल	-5846
▁ब्राह्म	-5847
ुरु	-5848
तरनाक	-5849
▁लकड़ी	-5850
▁मिलियन	-5851
▁शौ	-5852
रोपित	-5853
▁प्यार	-5854
▁प्रतियोगिता	-5855
▁आस्त	-5856
▁आहार	-5857
▁एओ	-5858
▁सच्चाई	-5859
लिया	-5860
▁मेट	-5861
▁ठहराने	-5862
▁अन्तर्गत	-5863
ud	-5864
▁अद्य	-5865
▁इक्व	-5866
▁पर्यटन	-5867
▁बेटा	-5868
▁प्रतीक्षा	-5869
▁सुनाया	-5870
▁प्रतिस्थापित	-5871
मॉर्टम	-5872
ug	-5873
▁जिल	-5874
▁स्वतः	-5875
दुर	-5876
सूर	-5877
▁छे	-5878
़्त	-5879
▁Bihar	-5880
▁पदार्थों	-5881
िवेश	-5882
्याम	-5883
▁खेत	-5884
▁चौथ	-5885
▁सदैव	-5886
▁वार्ता	-5887
▁..	-5888
▁...	-5889
▁IT	-5890
▁व्यक्तित्व	-5891
▁सम्पूर्ण	-5892
▁मार्गदर्शन	-5893
▁शंकराचार्य	-5894
ैर	-5895
▁सीम	-5896
▁हिमा	-5897
▁बजट	-5898
▁दत्त	-5899
र्याप्त	-5900
▁परिचित	-5901
▁पौधों	-5902
▁तिल	-5903
▁चोरी	-5904
▁पीछा	-5905
▁मिटा	-5906
▁साथी	-5907
▁मुकाब	-5908
▁क्रिकेट	-5909
▁वास्तविकता	-5910
डिंग	-5911
▁अंजाम	-5912
▁संवर्धन	-5913
▁निहितार्थ	-5914
▁ड्रा	-5915
▁लगने	-5916
इश	-5917
▁सल	-5918
▁पोस्टमॉर्टम	-5919
▁इकट्ठा	-5920
▁राजधानी	-5921
▁एव	-5922
द्धा	-5923
▁लेती	-5924
ूर्त	-5925
▁मरम्मत	-5926
▁प्रतिभूति	-5927
ोब	-5928
▁सद्	-5929
▁कोटा	-5930
▁हिंदुस्तान	-5931
▁सुपर	-5932
▁उपखंड	-5933
▁वहन	-5934
▁दरों	-5935
▁शुरु	-5936
▁अनावश्यक	-5937
▁निर्वाचित	-5938
ौदा	-5939
▁उत्तेज	-5940
लभ	-5941
▁घु	-5942
ध्य	-5943
▁आइट	-5944
▁निरसन	-5945
▁घूम	-5946
▁लक्ष्मी	-5947
▁शुद्धता	-5948
▁निस्स	-5949
▁बताती	-5950
OR	-5951
▁शिकायतों	-5952
ब्र	-5953
▁संजय	-5954
▁प्लान	-5955
▁निवेदन	-5956
ant	-5957
▁दुः	-5958
ॉम	-5959
▁असली	-5960
▁जनहित	-5961
▁मारा	-5962
▁यूरो	-5963
▁सुदृ	-5964
▁अपर्याप्त	-5965
बु	-5966
▁पच	-5967
▁फिली	-5968
▁उतना	-5969
▁विद्र	-5970
लक	-5971
▁बैग	-5972
▁पंडित	-5973
मूल	-5974
▁चालान	-5975
▁मैसर्स	-5976
नगर	-5977
ब्बे	-5978
▁खतरनाक	-5979
शो	-5980
्सों	-5981
▁पंक्ति	-5982
▁मिलेगा	-5983
▁नौकर	-5984
▁ब्यू	-5985
▁प्रस्तुतिकरण	-5986
भेद	-5987
▁कोष	-5988
▁Singh	-5989
▁मालूम	-5990
▁मिलते	-5991
यंस	-5992
▁नग	-5993
▁डिफ	-5994
▁सकल	-5995
चंद्र	-5996
▁समुद्री	-5997
▁जवाह	-5998
▁टाइम	-5999
▁हिमाचल	-6000
िर्	-6001
▁कोट	-6002
▁मनी	-6003
▁खड़ी	-6004
▁कमिश्न	-6005
▁पांड	-6006
्लिकेशन	-6007
▁बॉक्स	-6008
▁रसाय	-6009
▁पुष्प	-6010
▁इंग्लैंड	-6011
▁नियंत्रक	-6012
ोल्डर	-6013
▁पुनर्विचार	-6014
▁सना	-6015
कृष्ण	-6016
▁सटीक	-6017
सागर	-6018
▁प्रशास	-6019
▁विवेका	-6020
▁विष्णु	-6021
ानंद	-6022
▁एमओ	-6023
▁कमा	-6024
ांतिक	-6025
▁प्रिंट	-6026
▁उद्घाटन	-6027
▁श्रमिकों	-6028
▁टूट	-6029
▁प्रतिसाद	-6030
धियों	-6031
▁एक्सप	-6032
▁सहन	-6033
चलन	-6034
ांश	-6035
ागर	-6036
▁लिप	-6037
▁इंत	-6038
क्ष्य	-6039
▁झूठा	-6040
▁चार्ट	-6041
AS	-6042
▁संभवतः	-6043
▁स्वचालित	-6044
स्तु	-6045
▁टिका	-6046
▁ताजा	-6047
▁पीडी	-6048
▁परिस्थितिजन्य	-6049
▁CO	-6050
▁मिथ	-6051
▁पब्लिक	-6052
▁प्रस्तावों	-6053
▁फॉर	-6054
िमांड	-6055
▁कड़ी	-6056
▁नीतिगत	-6057
▁बेश	-6058
▁कहान	-6059
▁डीलर	-6060
▁दुर्बलता	-6061
▁प्रतिलिपि	-6062
वायु	-6063
▁आइटम	-6064
▁पढ़े	-6065
▁बालक	-6066
▁अंकों	-6067
ET	-6068
र्थी	-6069
▁जाग	-6070
▁मूलभूत	-6071
▁रहेंगे	-6072
▁प्रतिदिन	-6073
▁सर्टिफिकेट	-6074
गन	-6075
▁चू	-6076
तांत्रिक	-6077
▁चिकित्सक	-6078
▁प्रम	-6079
▁तदर्थ	-6080
▁देवता	-6081
▁भंडार	-6082
▁संवेदन	-6083
क्राम	-6084
▁बताना	-6085
▁धनराशि	-6086
▁परिषद्	-6087
▁फलस्वरूप	-6088
▁बर्खास्तगी	-6089
▁अमर	-6090
▁घटा	-6091
▁हार्दिक	-6092
ro	-6093
कोश	-6094
RI	-6095
▁धु	-6096
▁जागरूक	-6097
ेलना	-6098
▁इंट	-6099
▁सीन	-6100
av	-6101
▁स्वर्ण	-6102
▁विश्वसनीयता	-6103
gar	-6104
▁महाध	-6105
▁छुप	-6106
▁पाद	-6107
▁बौद्धिक	-6108
पु	-6109
▁सूर	-6110
▁प्रिंस	-6111
▁हिस्सों	-6112
▁अभिलेखों	-6113
▁निरंतरता	-6114
▁समायोजित	-6115
▁कामगार	-6116
▁फ़िल्म	-6117
▁उपायुक्त	-6118
▁doc	-6119
▁न्यास	-6120
▁बनाकर	-6121
▁समझते	-6122
▁तिव	-6123
▁हड्डी	-6124
▁हॉ	-6125
ेक्शन	-6126
▁बाएं	-6127
▁शोर	-6128
▁शांत	-6129
रद	-6130
न्थ	-6131
▁शान	-6132
▁निचले	-6133
▁रहेगी	-6134
बो	-6135
चंद	-6136
▁एक्सच	-6137
▁जातियों	-6138
क्टरों	-6139
▁उतार	-6140
▁ऑडिट	-6141
▁लेनदार	-6142
▁अनियमितता	-6143
▁विनाश	-6144
▁केंद्रित	-6145
▁प्रदर्शनी	-6146
कात	-6147
▁डाटा	-6148
▁सुस	-6149
▁गोपनीय	-6150
▁स्नातक	-6151
▁इंजीनिय	-6152
pp	-6153
गोर	-6154
टीसी	-6155
▁परिचय	-6156
▁अप्रत्य	-6157
▁दिव्य	-6158
▁सीटों	-6159
▁वर्गीकृत	-6160
▁व्यापारी	-6161
▁तिवारी	-6162
िकी	-6163
▁चुनौ	-6164
▁टर्म	-6165
▁सीडी	-6166
▁तुम्हारे	-6167
टने	-6168
▁पीड़ा	-6169
▁बोलने	-6170
▁स्त्र	-6171
▁विभिन्	-6172
बन	-6173
दीप	-6174
▁शिखर	-6175
खल	-6176
▁पहच	-6177
▁शीट	-6178
▁घरों	-6179
▁प्रणाल	-6180
पूर	-6181
ंपरिक	-6182
िवारिक	-6183
▁बनाये	-6184
▁ब्रिटेन	-6185
ापक	-6186
▁मतदान	-6187
▁प्रेषित	-6188
re	-6189
▁टो	-6190
▁रमेश	-6191
▁सांप	-6192
▁वाक्य	-6193
▁हथिया	-6194
▁बीमाकर्ता	-6195
▁तृ	-6196
▁शहरों	-6197
▁रायपुर	-6198
रिव	-6199
▁बाय	-6200
▁टाउन	-6201
▁त्रिप	-6202
▁संदाय	-6203
▁मनमानी	-6204
▁कमिश्नर	-6205
▁एसी	-6206
▁कष्ट	-6207
▁एप्लिकेशन	-6208
▁आजादी	-6209
▁पुनर्ग	-6210
▁मूर्ति	-6211
ापति	-6212
▁गरीबी	-6213
▁नेत्र	-6214
▁पारिवारिक	-6215
▁बैक	-6216
▁सोन	-6217
▁उतर	-6218
▁CW	-6219
ेन्द्र	-6220
▁अद्यतन	-6221
▁resident	-6222
▁अविश्वास	-6223
ज्ज	-6224
▁ज्व	-6225
▁अपहरण	-6226
▁नामों	-6227
▁इक्विटी	-6228
जनन	-6229
▁दम	-6230
▁रेख	-6231
नीति	-6232
▁लॉर्ड	-6233
▁विधानसभा	-6234
▁दुर्भाग्य	-6235
▁dt	-6236
▁अल्	-6237
▁फोटो	-6238
▁भत्ता	-6239
▁दक्षता	-6240
दल	-6241
▁छाया	-6242
▁एग्	-6243
▁इसील	-6244
▁संप्र	-6245
▁परिल	-6246
▁पौधे	-6247
▁अध्यादेश	-6248
▁परिवारों	-6249
▁लॉग	-6250
▁कहां	-6251
▁पत्त	-6252
▁जिनसे	-6253
▁निष्ठ	-6254
▁रिश्वत	-6255
▁सुदृढ़	-6256
▁कनेक्शन	-6257
▁वास	-6258
ाइयों	-6259
▁विवरणों	-6260
AG	-6261
▁खरीदी	-6262
रिक्ष	-6263
▁शिशु	-6264
▁प्रबल	-6265
हल	-6266
गाव	-6267
▁क्षण	-6268
▁ष	-6269
दात	-6270
▁नृत	-6271
▁डीएन	-6272
▁वस्तुतः	-6273
▁विविधता	-6274
▁प्रवृत्त	-6275
▁१७	-6276
स्वती	-6277
▁शुक	-6278
▁आबंट	-6279
▁देशी	-6280
▁पुष्ट	-6281
अप	-6282
जातियों	-6283
▁असामान्य	-6284
▁पारंपरिक	-6285
▁इनकी	-6286
▁द्विप	-6287
▁साधनों	-6288
▁दक्षिणी	-6289
▁अप्रत्यक्ष	-6290
▁जंगल	-6291
▁रूपांत	-6292
▁अनधिकृत	-6293
०क	-6294
▁नेपाल	-6295
▁नर्स	-6296
▁मनाया	-6297
िकता	-6298
▁भरी	-6299
टीकरण	-6300
दृश्य	-6301
▁जाली	-6302
esh	-6303
▁अदा	-6304
▁समझता	-6305
▁गाड़ी	-6306
▁झगड़ा	-6307
▁क्रेता	-6308
▁अध्यक्षता	-6309
▁रॉय	-6310
हार्य	-6311
▁जू	-6312
▁अहमदाबाद	-6313
नेश	-6314
▁कही	-6315
▁चां	-6316
▁जलवायु	-6317
▁अधिनियमों	-6318
▁भव	-6319
्सीय	-6320
केशन	-6321
ास्ट	-6322
▁बैल	-6323
▁क्लिक	-6324
▁निस्त	-6325
▁कम्पनी	-6326
▁उपज	-6327
▁फुट	-6328
▁संग्र	-6329
▁महाधिवक्ता	-6330
▁St	-6331
ment	-6332
रेखा	-6333
▁हड़	-6334
▁प्रतिष्ठित	-6335
▁पड	-6336
▁उसको	-6337
▁कामका	-6338
▁गोपाल	-6339
▁परम्प	-6340
▁वाहनों	-6341
▁स्ट्र	-6342
▁ग़	-6343
डीसी	-6344
▁खूब	-6345
▁कीटना	-6346
वै	-6347
्रेम	-6348
▁एंट	-6349
▁सचेत	-6350
▁पहुंचाने	-6351
ंस्क	-6352
▁बढ़ते	-6353
▁निदेशकों	-6354
म्बा	-6355
▁अग्न	-6356
▁अभ्य	-6357
▁खोला	-6358
▁आबादी	-6359
▁रहस्य	-6360
▁मूल्यवान	-6361
▁अज	-6362
न्दर	-6363
▁लोह	-6364
▁विनिश्च	-6365
▁बुरी	-6366
▁पॉलिसी	-6367
▁सेटिंग	-6368
ोसी	-6369
▁सड़	-6370
▁कहला	-6371
▁भो	-6372
िज्ञ	-6373
ेक्स	-6374
▁जना	-6375
▁राह	-6376
कियों	-6377
▁बंदर	-6378
्रेषित	-6379
▁प्रकटीकरण	-6380
▁पते	-6381
▁बीस	-6382
ड़िया	-6383
▁गड़ब	-6384
▁सरस्वती	-6385
▁कॉर्पोरेट	-6386
▁बल्ले	-6387
▁दरवाजे	-6388
▁तंत्रिका	-6389
ाजनक	-6390
▁आपात	-6391
▁हिसाब	-6392
न्दु	-6393
▁सीखी	-6394
▁बुलाने	-6395
▁देगी	-6396
▁रखकर	-6397
▁सीनियर	-6398
▁लाए	-6399
▁फायदा	-6400
▁प्रारम्भ	-6401
धित	-6402
▁कस	-6403
ुत्प	-6404
▁son	-6405
▁परिस्थितियां	-6406
पीए	-6407
▁औस	-6408
▁किल	-6409
▁फंड	-6410
▁उठाई	-6411
▁अवय	-6412
▁सीधा	-6413
▁कुल्हा	-6414
▁दिशानिर्देशों	-6415
▁मतदाता	-6416
ंपी	-6417
्यवाद	-6418
▁टाइप	-6419
▁भेंट	-6420
▁आत्मसम	-6421
▁कॉन्	-6422
▁भक्ति	-6423
निय	-6424
ीली	-6425
▁AP	-6426
▁प्रतिर	-6427
मि	-6428
▁चिल	-6429
▁पहुंची	-6430
▁प्रान्त	-6431
▁शक्तिशाली	-6432
▁लोकतांत्रिक	-6433
लीय	-6434
िमा	-6435
्रोप	-6436
▁ग्रुप	-6437
▁बहादुर	-6438
▁चिकित्सीय	-6439
kh	-6440
▁सीआरपीसी	-6441
▁OSNo	-6442
▁थोड़ी	-6443
▁नवीनी	-6444
▁SH	-6445
▁तनाव	-6446
▁मनमाने	-6447
▁संध्या	-6448
मर	-6449
▁ज़्या	-6450
▁अनदेखी	-6451
▁परिश्रम	-6452
र्माने	-6453
▁टैक्स	-6454
▁पैकेट	-6455
▁प्रीम	-6456
▁रूपों	-6457
▁ड्राफ्ट	-6458
▁जुर्माने	-6459
फो	-6460
▁PS	-6461
डेंट	-6462
ल्पित	-6463
▁मानी	-6464
▁सीता	-6465
▁खासकर	-6466
▁समृद्धि	-6467
▁भारतीयों	-6468
▁नियुक्तियों	-6469
रेटर	-6470
▁उदा	-6471
▁धातु	-6472
▁गहराई	-6473
▁औसतन	-6474
वास्तव	-6475
▁फ्लैट	-6476
▁निकाले	-6477
ंदेह	-6478
▁जीन	-6479
▁अनुर	-6480
▁अपमानजनक	-6481
प्ति	-6482
▁मस्	-6483
▁सैन	-6484
▁लखनऊ	-6485
▁जोड़े	-6486
▁परिवी	-6487
फ़ी	-6488
वाहा	-6489
▁वय	-6490
▁रिज़	-6491
▁घृ	-6492
काने	-6493
▁अवह	-6494
▁विघ	-6495
▁पुनराव	-6496
▁स्तरों	-6497
▁एक्सचेंज	-6498
न्या	-6499
▁देखता	-6500
▁परम्परा	-6501
▁प्रतियां	-6502
▁सिद्धान्त	-6503
▁तलाक	-6504
▁मंजूर	-6505
▁स्तरीय	-6506
नाइट	-6507
▁क्रियान्व	-6508
▁आत्मसमर्पण	-6509
▁नवा	-6510
▁मंजिल	-6511
▁निलंबित	-6512
वेल	-6513
▁याता	-6514
▁अभिला	-6515
ोकन	-6516
बारा	-6517
▁पुण	-6518
▁उर्व	-6519
▁रखती	-6520
▁पट्टी	-6521
▁बिलकुल	-6522
▁रिक्ति	-6523
▁MO	-6524
०वीं	-6525
्राफी	-6526
▁विलय	-6527
▁जितनी	-6528
▁मंदिरों	-6529
▁गुफा	-6530
▁पंचाट	-6531
▁सकेगी	-6532
▁सुनकर	-6533
▁उन्हीं	-6534
साई	-6535
▁अक्त	-6536
▁गुंजा	-6537
▁टुकड़े	-6538
▁सामान्यतः	-6539
▁सफलतापूर्वक	-6540
्रु	-6541
▁डिज	-6542
▁मुलाकात	-6543
िक्र	-6544
▁अवर	-6545
▁बाँ	-6546
▁खटख	-6547
▁माइक्र	-6548
im	-6549
टु	-6550
ूलन	-6551
िपत्य	-6552
▁मुक्ति	-6553
▁अनुपस्थित	-6554
जिद	-6555
▁विज	-6556
▁लगती	-6557
▁ऊंचाई	-6558
ंगलोर	-6559
▁समझे	-6560
स्ट्रे	-6561
▁दुर्लभ	-6562
▁निकलने	-6563
▁निदेशालय	-6564
PA	-6565
ॉर	-6566
डिश	-6567
▁एमएस	-6568
▁लाठी	-6569
▁वृद्ध	-6570
▁इसीलिए	-6571
▁वस्त्र	-6572
▁क्रांति	-6573
▁एजेंसियों	-6574
▁निस्संदेह	-6575
ेंसिक	-6576
▁अतीत	-6577
▁ऑफिसर	-6578
याल	-6579
ज्जित	-6580
▁भीड़	-6581
▁हथियारों	-6582
▁हस्ताक्षरित	-6583
ूष	-6584
▁स्के	-6585
गान	-6586
▁पदोन्नत	-6587
▁मिलेगी	-6588
▁यातायात	-6589
▁झील	-6590
▁सूचक	-6591
▁ब्यूरो	-6592
कथित	-6593
वाणी	-6594
▁यूरोपीय	-6595
▁कॉर्पोरेशन	-6596
▁हुस	-6597
▁कैल	-6598
▁कीटनाश	-6599
▁देनदार	-6600
▁प्रशंस	-6601
▁कुल्हाड़ी	-6602
दु	-6603
▁एसटी	-6604
स्वामी	-6605
देशक	-6606
▁मरा	-6607
▁उजागर	-6608
▁वार्ड	-6609
भि	-6610
भु	-6611
▁अनन्य	-6612
आईएल	-6613
▁जीवा	-6614
द्वी	-6615
▁जताई	-6616
▁खरीदा	-6617
▁भाग्य	-6618
▁विधवा	-6619
सों	-6620
रचना	-6621
▁बोध	-6622
स्टिक	-6623
▁आपसी	-6624
▁संपन्न	-6625
▁मोटरसाइ	-6626
▁स्वेच्छा	-6627
▁ओम	-6628
दायक	-6629
▁उपेक्षा	-6630
▁गुंजाइश	-6631
्टा	-6632
▁फीट	-6633
▁चीजें	-6634
▁हानिक	-6635
▁जूनियर	-6636
▁अवहेलना	-6637
ट्टा	-6638
▁आरंभिक	-6639
▁रघु	-6640
▁सेवन	-6641
▁अंगूठ	-6642
▁पीढ़ी	-6643
▁रसायन	-6644
▁संस्थ	-6645
▁खोजने	-6646
▁बरामदगी	-6647
garh	-6648
▁हेक्ट	-6649
ंधन	-6650
▁झट	-6651
▁छेड़	-6652
▁मतभेद	-6653
▁मैत्री	-6654
▁निकायों	-6655
▁रचनात्मक	-6656
ुलर	-6657
जाने	-6658
▁सकी	-6659
▁हां	-6660
▁सांख	-6661
▁पारस्प	-6662
▁मस्जिद	-6663
ers	-6664
ज़ो	-6665
▁स्टील	-6666
▁तरल	-6667
▁बांग	-6668
▁सौंपी	-6669
▁हिन्दु	-6670
▁तथाकथित	-6671
▁गिन	-6672
▁उपभोग	-6673
▁प्रांत	-6674
▁नज	-6675
▁कना	-6676
▁बहाली	-6677
▁संपदा	-6678
▁सहयोगी	-6679
▁अक्तूबर	-6680
▁प्रयोज्यता	-6681
ंची	-6682
hatt	-6683
▁भया	-6684
्यूशन	-6685
▁जिलों	-6686
▁विशेषज्ञों	-6687
▁उक	-6688
▁रिला	-6689
सिद्धि	-6690
त्रियों	-6691
▁शास्त्र	-6692
▁अधिरोपित	-6693
▁मोटरसाइकिल	-6694
ित्य	-6695
▁एफएसएल	-6696
▁टा	-6697
▁लायक	-6698
FA	-6699
भौ	-6700
▁कहती	-6701
▁प्रिंसिपल	-6702
जीसी	-6703
▁मछली	-6704
▁यथार्थ	-6705
▁दुश्मनी	-6706
▁आधे	-6707
ांक्षा	-6708
▁कार्मिक	-6709
▁साहित्यिक	-6710
्वे	-6711
▁अखबार	-6712
▁निष्कासन	-6713
ांसी	-6714
▁कंध	-6715
▁रोकना	-6716
▁रेडियो	-6717
▁इस्लामी	-6718
▁पुस्तिका	-6719
▁पारस्परिक	-6720
ish	-6721
ष्म	-6722
▁कंस	-6723
रेज	-6724
▁बेई	-6725
▁लंबा	-6726
▁राजीव	-6727
▁रिलायंस	-6728
▁अंतरिक्ष	-6729
▁IA	-6730
▁गिरवी	-6731
कारियों	-6732
▁रवीन्द्रनाथ	-6733
▁उपर	-6734
▁ग्री	-6735
▁परिसंप	-6736
▁vi	-6737
▁बेशक	-6738
▁इंद्र	-6739
▁कार्यपालिका	-6740
..	-6741
हीत	-6742
▁काली	-6743
कारिता	-6744
▁बैंगलोर	-6745
ुग्	-6746
▁Ad	-6747
▁तंब	-6748
▁थाने	-6749
▁संयोजन	-6750
▁संज्ञेय	-6751
▁माध्यस्थ	-6752
▁शक	-6753
वादियों	-6754
▁प्रतिबि	-6755
▁प्रसंस्क	-6756
फ्र	-6757
▁अनिल	-6758
कै	-6759
▁केश	-6760
▁गीता	-6761
▁ब्रा	-6762
▁मोटे	-6763
▁यात्री	-6764
▁जुट	-6765
▁लाना	-6766
▁समझौतों	-6767
▁द्विपक्षीय	-6768
▁काला	-6769
▁नृत्य	-6770
▁भागीदार	-6771
▁शल	-6772
▁काले	-6773
▁पहाड़ी	-6774
▁आतंकवादी	-6775
up	-6776
न्हा	-6777
▁रेश	-6778
▁प्रोफ	-6779
▁आधिपत्य	-6780
▁स्वीकारोक्ति	-6781
AK	-6782
▁गायब	-6783
▁ट्रैक	-6784
▁बनाती	-6785
▁भत्ते	-6786
दर्शिता	-6787
▁अपरिहार्य	-6788
▁दाम	-6789
▁लाई	-6790
▁तारा	-6791
▁खरीदार	-6792
गाई	-6793
ल्डिंग	-6794
एसए	-6795
▁शरण	-6796
▁गौरव	-6797
▁बिता	-6798
▁निराश	-6799
▁पुनर्म	-6800
▁पत्रिका	-6801
ल्फ	-6802
्यौ	-6803
▁कर्ण	-6804
▁डेवल	-6805
▁समायोजन	-6806
▁व्यापारिक	-6807
ंती	-6808
▁पाठक	-6809
▁मंगल	-6810
▁उठाना	-6811
ाध्यक्ष	-6812
▁पेशेवर	-6813
▁मापदंड	-6814
▁प्रतिबिंब	-6815
र्ता	-6816
▁कमल	-6817
▁सदी	-6818
▁हाइ	-6819
▁लड़ने	-6820
यिक	-6821
▁MA	-6822
▁कच	-6823
▁बीत	-6824
▁उर्फ	-6825
▁चित्रण	-6826
▁उपलब्धि	-6827
▁नंद	-6828
▁प्लस	-6829
▁महाराजा	-6830
▁स्रोतों	-6831
▁विनि	-6832
▁बिल्ड	-6833
▁संगठित	-6834
▁निर्देशिका	-6835
▁लेबल	-6836
▁सारांश	-6837
▁इल	-6838
▁ईसाई	-6839
▁मोड़	-6840
ुणा	-6841
▁संधि	-6842
▁पड़ोसी	-6843
इयां	-6844
▁पहन	-6845
▁चरणों	-6846
od	-6847
▁वीड	-6848
त्रिम	-6849
▁पीपी	-6850
▁राजू	-6851
▁एकीकृत	-6852
▁ट्रेडमार्क	-6853
बीन	-6854
ायण	-6855
क्कर	-6856
▁नींव	-6857
▁बाईं	-6858
▁कामना	-6859
▁सुरेश	-6860
ठे	-6861
़ी	-6862
संच	-6863
▁AS	-6864
▁IV	-6865
▁लार	-6866
▁शोक	-6867
▁सीखने	-6868
▁आबकारी	-6869
▁अन्वेषण	-6870
मै	-6871
▁पृथक	-6872
ानुभूति	-6873
og	-6874
▁कड़ाई	-6875
▁डीएनए	-6876
▁प्लेट	-6877
▁प्रीमियम	-6878
▁प्रतिस्पर्धा	-6879
ॉजी	-6880
▁चरम	-6881
▁रिफ	-6882
▁युक्ति	-6883
▁पाप	-6884
▁वाइ	-6885
▁तलवार	-6886
िणी	-6887
▁सख्ती	-6888
▁जनादेश	-6889
▁बिंदुओं	-6890
▁सम्पत्ति	-6891
इज	-6892
ंदगी	-6893
▁धरती	-6894
▁वरीय	-6895
▁ग्राफ	-6896
▁अनुक्रम	-6897
▁अनुज्ञात	-6898
▁बग	-6899
▁असंत	-6900
▁कोर्स	-6901
▁अस्थिर	-6902
RD	-6903
दातर	-6904
▁डाले	-6905
▁साहस	-6906
▁शत्रु	-6907
फ़र	-6908
▁टीवी	-6909
▁अंगों	-6910
▁An	-6911
रलाल	-6912
▁टेन	-6913
▁राध	-6914
▁राजेंद्र	-6915
ce	-6916
ढ़े	-6917
▁उभ	-6918
▁गू	-6919
भासी	-6920
वकों	-6921
▁कराना	-6922
बेट	-6923
▁‘‘	-6924
च्यु	-6925
स्फोट	-6926
▁मानो	-6927
▁रोम	-6928
▁पुनर्गठन	-6929
ंथी	-6930
▁पैट	-6931
▁इनपुट	-6932
▁हिमालय	-6933
▁उन्मूलन	-6934
▁कृत्रिम	-6935
▁कीं	-6936
▁योनि	-6937
▁हुसैन	-6938
▁परिप्रे	-6939
▁विद्यार्थी	-6940
▁प्रक्रियात्मक	-6941
गंज	-6942
नेस	-6943
▁पोल	-6944
पेट	-6945
िर्ण	-6946
▁माने	-6947
▁जायें	-6948
▁डोमेन	-6949
▁रिव	-6950
▁सांवि	-6951
▁खर्चों	-6952
▁पुनर्व	-6953
कोट	-6954
▁गेट	-6955
▁स्ल	-6956
ON	-6957
जिए	-6958
मीन	-6959
विंग	-6960
▁लेट	-6961
▁अमरीका	-6962
ुत्व	-6963
▁समाम	-6964
▁हटाया	-6965
▁प्रोविज़ो	-6966
शाह	-6967
वर्ड	-6968
ंद्रह	-6969
▁Chhatt	-6970
▁प्रसंस्करण	-6971
िटर	-6972
▁आनु	-6973
▁ज़्यादा	-6974
▁लैस	-6975
▁समन	-6976
▁फायर	-6977
▁रिकवरी	-6978
▁y	-6979
▁हाँ	-6980
▁दुर्व	-6981
▁सार्थ	-6982
▁कपड़ों	-6983
▁पंद्रह	-6984
▁ड्राइवर	-6985
▁वोट	-6986
▁समवर्ती	-6987
ंसर	-6988
▁सेशन	-6989
प्राप्त	-6990
▁आधारभूत	-6991
▁ढूं	-6992
▁तापमान	-6993
▁युवाओं	-6994
▁परीक्षक	-6995
AV	-6996
कीन	-6997
▁खिल	-6998
▁विनिश्चय	-6999
▁प्रविष्टियों	-7000
शियों	-7001
▁Chhattis	-7002
ig	-7003
▁फु	-7004
▁एनआई	-7005
ia	-7006
परक	-7007
▁नोस	-7008
▁मुल	-7009
▁सांख्यिक	-7010
▁परिलक्षित	-7011
▁रजिस्ट्रीकरण	-7012
नर	-7013
▁iv	-7014
▁खर्	-7015
▁रोश	-7016
णि	-7017
wan	-7018
भूषण	-7019
▁हरे	-7020
▁अड्ड	-7021
▁उग्र	-7022
▁दण्ड	-7023
▁बांड	-7024
▁चिन्ह	-7025
▁अधिनिर्ण	-7026
▁अनुमानित	-7027
▁दोषपूर्ण	-7028
end	-7029
▁घास	-7030
▁रेग	-7031
▁लेंगे	-7032
ुश	-7033
वायद	-7034
▁कहे	-7035
स्ट्र	-7036
▁कामकाज	-7037
▁सेक्टर	-7038
▁कोशिकाओं	-7039
▁निस्तारण	-7040
▁Chhattisgarh	-7041
ub	-7042
मास	-7043
र्दू	-7044
▁जुल	-7045
▁गणित	-7046
▁ड्रग	-7047
▁हेक्टेयर	-7048
ंकी	-7049
उंट	-7050
▁संकाय	-7051
▁सौंपने	-7052
्द	-7053
▁जॉ	-7054
▁Cha	-7055
▁कवायद	-7056
▁कागजात	-7057
▁प्रजनन	-7058
ुड	-7059
बारी	-7060
▁अनाज	-7061
▁झुक	-7062
▁चैतन	-7063
▁बैठा	-7064
▁मातृ	-7065
▁पट्टा	-7066
▁वनस्प	-7067
▁लेबर	-7068
▁शोषण	-7069
▁भांति	-7070
▁दाहिने	-7071
▁शस्त्र	-7072
▁पासपोर्ट	-7073
िनेशन	-7074
▁आंकड़े	-7075
▁सकेंगे	-7076
▁प्रसारण	-7077
▁अभिव्यक्त	-7078
▁प्रोज	-7079
▁कार्यालयों	-7080
▁परिप्रेक्ष्य	-7081
पेश	-7082
▁आपस	-7083
▁अभिर	-7084
▁उर्दू	-7085
ब्ब	-7086
राइट	-7087
▁जाओ	-7088
▁वादों	-7089
विश्वास	-7090
▁लौटा	-7091
▁जानकर	-7092
▁सुशील	-7093
▁व्यस्त	-7094
ीर्ण	-7095
▁धूम	-7096
▁किमी	-7097
▁पर्वत	-7098
▁मुकदमों	-7099
▁प्रतिष्ठान	-7100
▁अजय	-7101
▁एसपी	-7102
▁कच्चे	-7103
▁फ्रांस	-7104
▁व्युत्प	-7105
▁ईंधन	-7106
▁बन्द	-7107
क्षकों	-7108
स्ट्रेलिया	-7109
रणीय	-7110
ाउंड	-7111
▁उपय	-7112
▁डिज़	-7113
इल	-7114
ईसी	-7115
वंत	-7116
▁बैच	-7117
▁नज़र	-7118
▁तलाशी	-7119
AP	-7120
वण	-7121
▁उत्तम	-7122
▁परिवेश	-7123
▁प्रतिभूत	-7124
▁इलाके	-7125
झा	-7126
्रू	-7127
▁चर्च	-7128
▁पीने	-7129
▁समझना	-7130
▁पुराना	-7131
▁स्टाफ	-7132
▁चैतन्य	-7133
▁किलोग्राम	-7134
ao	-7135
विक	-7136
▁इंतजार	-7137
▁दाग	-7138
▁नायक	-7139
▁मसौदा	-7140
▁लगाते	-7141
▁एसआई	-7142
▁साहू	-7143
▁मैट्र	-7144
▁सेंटर	-7145
दायित्व	-7146
ार्थियों	-7147
▁अंग्रेज	-7148
▁प्रतिनिय	-7149
▁बम	-7150
म्बई	-7151
▁एजी	-7152
▁नाक	-7153
▁चावल	-7154
▁पाइप	-7155
▁जापान	-7156
▁ट्यूब	-7157
▁फोरम	-7158
▁ढांचा	-7159
▁अत्यन्त	-7160
ID	-7161
▁सोल	-7162
▁उपाधि	-7163
▁दिखाए	-7164
▁विद्रोह	-7165
▁विद्वानों	-7166
▁ड़	-7167
▁एनडी	-7168
▁मुहर	-7169
▁मेरिट	-7170
▁विनोद	-7171
िथ	-7172
▁राजभाषा	-7173
▁नल	-7174
▁समर्पण	-7175
▁बांग्ला	-7176
▁केंद्रों	-7177
ार्द	-7178
▁अमी	-7179
▁दुःख	-7180
▁दीवानी	-7181
▁संकीर्ण	-7182
▁सहानुभूति	-7183
▁छू	-7184
▁ऑपर	-7185
▁सैन्य	-7186
▁उद्यान	-7187
▁सार्वभौ	-7188
▁हानिकारक	-7189
▁संभावनाओं	-7190
बंदी	-7191
▁खपत	-7192
▁घोर	-7193
▁आरटी	-7194
▁संभोग	-7195
▁प्रशिक्षित	-7196
▁पुनरावृत्ति	-7197
ice	-7198
ूरों	-7199
▁हार्ड	-7200
▁गड़बड़ी	-7201
▁मौजूदगी	-7202
▁विस्फोट	-7203
▁घो	-7204
गोलिक	-7205
▁मुझसे	-7206
▁रिमांड	-7207
तापूर्वक	-7208
▁वस्तुएं	-7209
गांव	-7210
▁पड़ती	-7211
▁ईमानदारी	-7212
▁कट्ट	-7213
▁पोजी	-7214
▁सुलह	-7215
▁निंदा	-7216
▁मुख्या	-7217
▁नाल	-7218
▁माला	-7219
▁दशकों	-7220
▁शानदार	-7221
▁समेकित	-7222
सास	-7223
▁चाचा	-7224
▁साहब	-7225
▁कर्मियों	-7226
▁द्वि	-7227
▁शिल्प	-7228
▁प्रपत्र	-7229
▁पेट्रोलियम	-7230
▁आधा	-7231
▁बोलते	-7232
▁संशोधनों	-7233
▁पाठ्यक्रमों	-7234
▁पशुओं	-7235
▁वकालत	-7236
▁नवीकरण	-7237
▁वरीयता	-7238
रीश	-7239
्किक	-7240
▁जबरन	-7241
▁भौगोलिक	-7242
▁यात्रियों	-7243
▁बेहद	-7244
▁स्वप	-7245
▁उधारकर्ता	-7246
▁किरायेदारी	-7247
ev	-7248
aya	-7249
बली	-7250
▁नस्ल	-7251
थन	-7252
लास	-7253
▁१८	-7254
▁बदला	-7255
▁कैंसर	-7256
▁टिप्पण	-7257
▁सुधारने	-7258
▁श्रीवास्तव	-7259
हाई	-7260
▁क्	-7261
▁लंदन	-7262
▁काल्प	-7263
▁चौहान	-7264
▁छोड़ा	-7265
▁यातना	-7266
▁सवालों	-7267
ोज़	-7268
द्दी	-7269
▁धान	-7270
▁भाष	-7271
संचार	-7272
▁लगते	-7273
▁निर्वाह	-7274
देह	-7275
▁VII	-7276
▁मंग	-7277
▁अधिव	-7278
▁मिसाल	-7279
▁फस	-7280
▁बृ	-7281
प्रद	-7282
्रीज	-7283
▁ऑटो	-7284
▁औषध	-7285
▁आएगा	-7286
▁अभिगम	-7287
▁बिस्त	-7288
▁सेक्शन	-7289
st	-7290
▁ar	-7291
▁इस्ती	-7292
िच	-7293
▁मरी	-7294
▁भक्त	-7295
▁घनिष्ठ	-7296
▁उतनी	-7297
▁खंडों	-7298
▁संदेय	-7299
▁तत्त्व	-7300
▁Exh	-7301
सीआई	-7302
▁पवन	-7303
▁मुर	-7304
▁डॉलर	-7305
▁पड़ोस	-7306
ीट	-7307
ेब	-7308
▁Ram	-7309
▁नक्	-7310
▁राकेश	-7311
▁अमरीकी	-7312
▁रिजर्व	-7313
▁शिक्षित	-7314
▁उत्तरदायित्व	-7315
ावर	-7316
▁Sec	-7317
▁खटखट	-7318
▁आंखों	-7319
▁काटने	-7320
▁जर्मनी	-7321
▁पार्श्व	-7322
ांप	-7323
हारी	-7324
▁उकसा	-7325
▁कहकर	-7326
▁पोजीशन	-7327
▁फ़ोल्डर	-7328
ep	-7329
ho	-7330
्रीट	-7331
▁गुम	-7332
▁दांत	-7333
▁स्ने	-7334
▁इशारा	-7335
▁मानवता	-7336
शोथ	-7337
▁माध	-7338
र्तनीय	-7339
▁बढ़ता	-7340
▁पूर्णता	-7341
ेस	-7342
मोहन	-7343
▁सतत	-7344
▁जाएँ	-7345
▁बोतल	-7346
▁जमींद	-7347
▁परिपक्व	-7348
▁लेनदारों	-7349
▁स्न	-7350
▁मांगा	-7351
▁रोशनी	-7352
▁भोग	-7353
▁माय	-7354
स्राव	-7355
▁दौड़	-7356
▁सुलझा	-7357
▁दूरस्थ	-7358
▁सड़कों	-7359
▁महाभारत	-7360
मंद	-7361
सेट	-7362
▁बनना	-7363
दनी	-7364
▁अभिप्र	-7365
▁गर्व	-7366
▁देनी	-7367
▁प्रभार्य	-7368
▁मेघ	-7369
▁लाह	-7370
▁अविश्व	-7371
▁भावनाओं	-7372
▁सशस्त्र	-7373
▁ग्ल	-7374
▁पिट	-7375
▁उत्पादक	-7376
▁एकत्रित	-7377
▁घाट	-7378
▁संस्	-7379
▁सत्यता	-7380
▁समझाने	-7381
▁दोषसिद्धि	-7382
िवा	-7383
▁नाज	-7384
▁दोनो	-7385
कलापों	-7386
▁गर्मी	-7387
▁वर्जित	-7388
▁किन्हीं	-7389
▁परिदृश्य	-7390
ष्णा	-7391
ेडकर	-7392
▁अंब	-7393
▁ओपी	-7394
▁पुल	-7395
▁हसन	-7396
▁हेल	-7397
▁टिकाऊ	-7398
▁भारती	-7399
▁यांत्रिक	-7400
खर	-7401
▁न्	-7402
ायुक्त	-7403
▁पैटर्न	-7404
▁निष्पक्षता	-7405
▁इम	-7406
▁बडी	-7407
▁विकि	-7408
▁दुर्गा	-7409
▁काल्पनिक	-7410
▁मिश्रण	-7411
▁उन्होने	-7412
▁नाइ	-7413
▁तिरु	-7414
▁पचास	-7415
▁निभाई	-7416
▁नोटों	-7417
▁डाउ	-7418
▁कृति	-7419
▁गहरे	-7420
CC	-7421
▁अधिवक्ताओं	-7422
श्रे	-7423
▁भरत	-7424
▁रोट	-7425
संरचना	-7426
▁रिकार्ड	-7427
▁विच्छेद	-7428
ap	-7429
ूण	-7430
▁सौह	-7431
िमंडल	-7432
▁चुनें	-7433
▁अभिलाभ	-7434
▁सम्बंध	-7435
▁जवाहरलाल	-7436
▁पीड़ितों	-7437
▁महानिदेशक	-7438
्सल	-7439
नलोड	-7440
क्तिक	-7441
▁मंशा	-7442
वाहाटी	-7443
▁जवाबी	-7444
▁बेंगल	-7445
▁पालिसी	-7446
▁अंतर्वि	-7447
किट	-7448
जीवी	-7449
▁मजदूर	-7450
▁हजारों	-7451
▁धन्यवाद	-7452
▁लक्ष्मण	-7453
▁डिक	-7454
▁परेड	-7455
▁मिश्रित	-7456
▁परिसमापक	-7457
▁ग्रामीणों	-7458
ED	-7459
▁फाइ	-7460
▁याची	-7461
▁संयम	-7462
▁ब्राउ	-7463
▁सार्थक	-7464
▁चुनौतियों	-7465
▁अविभ	-7466
▁ईरान	-7467
▁गणेश	-7468
▁अभिनिर्	-7469
▁मार्केट	-7470
▁गुवाहाटी	-7471
▁पुनर्मूल	-7472
▁परिवर्तनों	-7473
ँग	-7474
म्र	-7475
▁आयी	-7476
▁एंटी	-7477
▁उपयोगिता	-7478
▁समुदायों	-7479
उस	-7480
▁उद्धरण	-7481
▁भगवान्	-7482
छाड़	-7483
▁कौर	-7484
▁मॉड	-7485
▁आपसे	-7486
जनों	-7487
▁छोड	-7488
▁सर्	-7489
▁एसडी	-7490
▁कहाँ	-7491
▁सूजन	-7492
्यवहार	-7493
▁ब्राह्मण	-7494
एसई	-7495
▁अच	-7496
नियां	-7497
▁कुलपति	-7498
▁जायेगी	-7499
▁तर्कसंगत	-7500
▁at	-7501
▁बेचा	-7502
▁सौंपे	-7503
▁पुरुषों	-7504
ेज़	-7505
▁ऋष	-7506
▁बुल	-7507
▁डिस्ट	-7508
द्म	-7509
▁रोल	-7510
▁धारकों	-7511
खाना	-7512
▁ऑपरेशन	-7513
▁वक्तव्य	-7514
▁अपराधियों	-7515
्यांश	-7516
▁समता	-7517
▁बंदरगाह	-7518
▁ज्यादातर	-7519
यु	-7520
ापित	-7521
▁आईओ	-7522
▁हरा	-7523
▁अरुण	-7524
▁रोगों	-7525
▁प्रभावशाली	-7526
▁PR	-7527
▁ओं	-7528
ील्ड	-7529
▁शेड	-7530
▁मुगल	-7531
▁निर्माताओं	-7532
वित	-7533
ंत्रण	-7534
▁टाटा	-7535
▁पुरूष	-7536
▁बाधित	-7537
▁वाद्य	-7538
▁आश्रित	-7539
▁जरूरतों	-7540
▁निवेशकों	-7541
▁एकदम	-7542
▁विवरणी	-7543
▁सिन्हा	-7544
▁निकालना	-7545
▁or	-7546
▁तम	-7547
▁सिम	-7548
▁कॉरप	-7549
▁स्वाय	-7550
▁अविश्वसनीय	-7551
▁तू	-7552
▁बेस	-7553
▁चौथे	-7554
▁पीएम	-7555
▁शान्त	-7556
▁चक	-7557
▁nos	-7558
▁घुस	-7559
▁एमपी	-7560
▁गार्ड	-7561
▁अज्ञान	-7562
▁अदालतें	-7563
▁पूर्णतः	-7564
▁प्रतिरक्षा	-7565
्टे	-7566
द्रिक	-7567
▁निःश	-7568
▁आंकड़ों	-7569
▁दिलचस्पी	-7570
▁होल्डिंग	-7571
▁Go	-7572
▁बिग	-7573
▁सौहार्द	-7574
▁दूरसंचार	-7575
▁रैंक	-7576
▁फ्रेम	-7577
▁इंडस्ट	-7578
▁विशेषताओं	-7579
ef	-7580
▁अपन	-7581
▁तालाब	-7582
▁सम्भव	-7583
▁गुजरने	-7584
▁निष्ठा	-7585
▁प्रताप	-7586
▁उपभोक्ताओं	-7587
▁पुनर्मूल्यांकन	-7588
▁गह	-7589
▁बंगल	-7590
▁अवरोध	-7591
▁कालेज	-7592
▁महाप्र	-7593
▁परिचालन	-7594
कर्म	-7595
व्यापी	-7596
▁डिज़ाइन	-7597
▁पट्टेदार	-7598
▁निया	-7599
▁बिस्तर	-7600
▁जानवरों	-7601
▁सुसज्जित	-7602
ुख	-7603
▁प्रतिफल	-7604
▁पेय	-7605
▁उत्तीर्ण	-7606
▁CC	-7607
▁to	-7608
र्वेद	-7609
▁दुर्व्यवहार	-7610
तृ	-7611
▁पढ	-7612
▁Bha	-7613
▁सीए	-7614
च्युटी	-7615
▁चुकता	-7616
▁तंबाकू	-7617
▁नियोजन	-7618
▁डाउनलोड	-7619
डू	-7620
▁शर	-7621
▁लोहे	-7622
▁सर्ज	-7623
▁फैक्ट	-7624
▁बढ़कर	-7625
▁कार्यान्वित	-7626
▁महल	-7627
▁दुकानों	-7628
ast	-7629
▁MP	-7630
▁गोविंद	-7631
चाप	-7632
▁फो	-7633
▁सती	-7634
▁एग्जाम	-7635
▁गौतम	-7636
▁IO	-7637
▁लल	-7638
कलाप	-7639
ापरी	-7640
▁घाय	-7641
▁चूँ	-7642
▁गिरा	-7643
▁गुरू	-7644
▁ब्रे	-7645
▁परिसी	-7646
▁अवार्ड	-7647
▁पिछड़े	-7648
▁बोलीदाता	-7649
सेस	-7650
▁विवश	-7651
▁दलीलें	-7652
▁प्लास्टिक	-7653
ढ़ा	-7654
▁Rai	-7655
▁निरूप	-7656
िप्ट	-7657
▁एसएल	-7658
▁गवर्नर	-7659
▁तप	-7660
▁डिब	-7661
▁बिट	-7662
▁घाटी	-7663
▁शल्य	-7664
▁भाइयों	-7665
▁विशुद्ध	-7666
ाइम	-7667
कक्ष	-7668
▁कोमल	-7669
▁दार्	-7670
▁तुर्की	-7671
▁दुर्भावना	-7672
▁ख्या	-7673
▁पीठा	-7674
▁सोचते	-7675
ियोग्राफी	-7676
▁ग्रेच्युटी	-7677
ौज	-7678
▁अमल	-7679
▁बंबई	-7680
▁ऑडियो	-7681
▁लड़कियों	-7682
▁नाय	-7683
▁मेज	-7684
▁गद्य	-7685
▁महतो	-7686
▁सम्मन	-7687
▁घायलों	-7688
▁बढ़ाकर	-7689
ावी	-7690
▁कू	-7691
▁घन	-7692
▁आवि	-7693
▁चमक	-7694
khand	-7695
▁सामु	-7696
▁पढ़ना	-7697
▁शाखाओं	-7698
▁सम्पर्क	-7699
▁उत्पत्ति	-7700
▁प्रतिपूर्ति	-7701
▁मुख्यमंत्री	-7702
▁टेंडर	-7703
▁तृतीय	-7704
▁प्रजाति	-7705
JC	-7706
▁ST	-7707
▁मठ	-7708
▁अरो	-7709
▁डिट	-7710
▁बुध	-7711
▁समू	-7712
▁जबरद	-7713
▁पर्यवेक्षण	-7714
विधा	-7715
▁उदय	-7716
▁हाथी	-7717
▁दिनेश	-7718
▁प्रोजेक्ट	-7719
▁प्रतिबद्धता	-7720
▁प्रासंगिकता	-7721
वाना	-7722
▁एटी	-7723
▁वयस्क	-7724
▁विपक्ष	-7725
▁रिश्तेदारों	-7726
ंसक	-7727
▁निप	-7728
▁बलि	-7729
▁पीठासीन	-7730
▁मजदूरों	-7731
▁प्रतिरोध	-7732
रेन	-7733
पुरा	-7734
▁वॉल	-7735
▁मुख्यालय	-7736
ओएस	-7737
शित	-7738
िंदर	-7739
्थान	-7740
नेशनल	-7741
▁उपरा	-7742
▁ग्या	-7743
▁तीर्थ	-7744
▁पड़ने	-7745
▁आखिरकार	-7746
▁उपक्रमों	-7747
ma	-7748
मिन	-7749
agar	-7750
र्तित	-7751
▁लोकसभा	-7752
▁संरक्षक	-7753
बंद	-7754
विड	-7755
▁गुट	-7756
▁छाती	-7757
्रदायिक	-7758
▁अंग्रेजों	-7759
▁मृ	-7760
▁मारे	-7761
▁विनिया	-7762
▁कारखाने	-7763
▁सेंट्रल	-7764
▁प्रणालियों	-7765
▁असल	-7766
▁सीएस	-7767
▁चूँकि	-7768
▁कराधान	-7769
▁निरपेक्ष	-7770
वीय	-7771
▁Ka	-7772
ैण्ड	-7773
▁अमृत	-7774
▁दार्शन	-7775
सीम	-7776
▁एह	-7777
क्की	-7778
ॉरिटी	-7779
▁विजे	-7780
▁गांधीजी	-7781
▁मुना	-7782
▁अनुया	-7783
▁तार्किक	-7784
▁अप्रासंगिक	-7785
▁झूठी	-7786
▁संगत	-7787
▁अक्षर	-7788
▁कीटों	-7789
▁परिधि	-7790
▁अवसंरचना	-7791
▁नामांकित	-7792
▁स्त्रियों	-7793
▁पारदर्शिता	-7794
▁अभिनिर्धारित	-7795
यंती	-7796
▁मील	-7797
▁निका	-7798
▁अपरिव	-7799
▁सचिवा	-7800
ोधन	-7801
न्धन	-7802
▁कन्व	-7803
▁वादा	-7804
▁शासक	-7805
▁स्तन	-7806
▁लगाकर	-7807
▁क्रांतिक	-7808
परि	-7809
वेश	-7810
ोरा	-7811
▁रूस	-7812
▁क्ले	-7813
▁फसलों	-7814
▁वेंकट	-7815
▁व्याख्याता	-7816
तें	-7817
▁Ra	-7818
▁स्क्र	-7819
▁योजनाएं	-7820
▁सचिवालय	-7821
▁विवेकाधीन	-7822
ांतर	-7823
▁ओपन	-7824
ारायण	-7825
▁चलाई	-7826
▁रिवा	-7827
▁फर्जी	-7828
▁वैदिक	-7829
▁सभापति	-7830
▁Prakhand	-7831
▁स्वायत्त	-7832
कू	-7833
मुच	-7834
राग	-7835
▁गोर	-7836
द्वीप	-7837
ोलॉजी	-7838
▁टैंक	-7839
▁जीवों	-7840
▁शुरूआ	-7841
ड़ना	-7842
▁उलट	-7843
ोग्रा	-7844
▁गिराव	-7845
▁AG	-7846
▁हॉल	-7847
▁कॉलम	-7848
▁हाइड	-7849
▁पहचाना	-7850
▁स्वाधीन	-7851
▁गर्भा	-7852
▁दिखाता	-7853
▁छेड़छाड़	-7854
▁वैज्ञानिकों	-7855
तो	-7856
सो	-7857
▁चर	-7858
▁कुटु	-7859
▁प्लॉट	-7860
▁अपेक्षाकृत	-7861
्सी	-7862
▁आँख	-7863
▁सीमेंट	-7864
▁आपत्तियां	-7865
▁सम्बन्धित	-7866
▁एग्जामिनेशन	-7867
सरा	-7868
▁अहं	-7869
▁अहि	-7870
▁ग्व	-7871
न्त्र	-7872
▁इस्प	-7873
▁खदान	-7874
▁जगदी	-7875
▁अथॉरिटी	-7876
▁रिज़र्व	-7877
▁विचारधारा	-7878
▁MD	-7879
▁ORD	-7880
▁जीओ	-7881
▁बाप	-7882
▁किरण	-7883
▁चौड़ाई	-7884
▁लेखकों	-7885
▁शेयरधारकों	-7886
▁सहभाग	-7887
▁एस्टेट	-7888
डन	-7889
▁तत्स	-7890
▁श्याम	-7891
▁गर्भपात	-7892
▁लाभकारी	-7893
▁संस्थाप	-7894
▁संबद्धता	-7895
▁उपाध्यक्ष	-7896
ाए	-7897
लिस्ट	-7898
ैक्चर	-7899
▁अश्व	-7900
▁एसआर	-7901
▁चंडी	-7902
▁पाये	-7903
▁प्रॉ	-7904
▁अस्थि	-7905
▁लिखना	-7906
▁संविद	-7907
▁अग्रेषित	-7908
▁CH	-7909
▁पन	-7910
▁रन	-7911
ंगों	-7912
▁मैन	-7913
▁कार्बन	-7914
▁व्यथित	-7915
▁ऊतक	-7916
▁चिर	-7917
▁गिना	-7918
क्रामक	-7919
▁ORDER	-7920
▁ज़मीन	-7921
▁लौटने	-7922
▁स्टार	-7923
▁स्मरण	-7924
▁गिरावट	-7925
▁माध्यस्थम्	-7926
CT	-7927
▁आर्य	-7928
▁पीटा	-7929
▁अग्नि	-7930
▁लाभांश	-7931
▁उद्यमों	-7932
▁लाभार्थी	-7933
हो	-7934
परा	-7935
वर्ष	-7936
सेना	-7937
▁गरि	-7938
▁बडे	-7939
▁वन्य	-7940
▁दृढ़ता	-7941
त्स	-7942
पाई	-7943
▁Sh	-7944
म्बी	-7945
▁अद्व	-7946
▁आईडी	-7947
▁मनोज	-7948
▁पारिश	-7949
▁मित्रों	-7950
▁राष्ट्रों	-7951
BI	-7952
▁मित	-7953
ंजस्य	-7954
्रमिक	-7955
▁आजीव	-7956
▁नंगे	-7957
▁भाष्	-7958
▁आभूषण	-7959
▁पढ़ता	-7960
▁ससुराल	-7961
▁शास्त्री	-7962
▁सामान्यतया	-7963
▁अनुप्रयोगों	-7964
िफ्ट	-7965
▁ध्वज	-7966
▁अलगाव	-7967
▁दायरा	-7968
▁पढ़ाई	-7969
▁सच्चे	-7970
▁कुशलता	-7971
▁निपटाने	-7972
▁दार्शनिक	-7973
▁व्युत्पन्न	-7974
ंचल	-7975
▁यूजीसी	-7976
▁टर्मिनल	-7977
▁सांविधिक	-7978
▁मैच	-7979
▁हमे	-7980
▁एन्	-7981
▁वाम	-7982
▁अधिश	-7983
▁डीआर	-7984
▁ब्लैक	-7985
▁डिजिटल	-7986
▁राजकुमार	-7987
▁परिकल्पित	-7988
▁प्रयोक्ता	-7989
शाही	-7990
ूनों	-7991
▁लिपि	-7992
श्रेष्ठ	-7993
▁टुकड़ा	-7994
▁कंट्रोल	-7995
▁सूचनाओं	-7996
▁संस्थागत	-7997
नम	-7998
▁चट	-7999
▁उठाते	-8000
जान	-8001
▁सारणी	-8002
▁टाइम्स	-8003
▁बैठकों	-8004
▁Ma	-8005
▁पहने	-8006
▁कनेक्ट	-8007
विट	-8008
▁घुट	-8009
▁चरस	-8010
▁चिट	-8011
दर्शन	-8012
▁अंडर	-8013
▁कमांड	-8014
▁गिनती	-8015
▁दिखाते	-8016
▁समकालीन	-8017
▁आस्तियों	-8018
▁बंदी	-8019
▁जगदीश	-8020
▁मुफ्त	-8021
▁प्रोटोक	-8022
▁विघटन	-8023
▁अपशिष्ट	-8024
▁चाहूंगा	-8025
▁विनियामक	-8026
ाराम	-8027
▁वेश	-8028
▁मूर्	-8029
▁जयंती	-8030
▁आकांक्षा	-8031
एटी	-8032
▁बक	-8033
▁एल्	-8034
▁फाइन	-8035
▁सिने	-8036
▁अर्जन	-8037
▁संकलन	-8038
▁खबर	-8039
▁मौद्रिक	-8040
▁अत्याचार	-8041
▁बिस	-8042
▁सफाई	-8043
▁संवेद	-8044
▁इस्पात	-8045
▁मुकाबले	-8046
▁लक्ष्यों	-8047
▁संवेदनशील	-8048
▁पारिश्रमिक	-8049
ेग	-8050
पूरक	-8051
▁हिल	-8052
▁मिलना	-8053
▁नरेंद्र	-8054
▁प्रतियों	-8055
ैस	-8056
war	-8057
▁DI	-8058
▁आशी	-8059
▁पेर	-8060
▁लीग	-8061
▁देखो	-8062
▁अफगान	-8063
▁आस्था	-8064
▁तुच्छ	-8065
▁सचमुच	-8066
▁पार्सल	-8067
▁निवासियों	-8068
कारा	-8069
▁ठहर	-8070
▁ईमेल	-8071
▁नदियों	-8072
ितु	-8073
▁ताज	-8074
▁वैय	-8075
▁कर्ज	-8076
▁बढ़ी	-8077
▁गरिमा	-8078
▁सामंजस्य	-8079
OM	-8080
▁षड	-8081
▁आईं	-8082
▁कोर	-8083
▁सहेज	-8084
▁आश्वस्त	-8085
▁एक्सप्रेस	-8086
रीब	-8087
▁सैक	-8088
ोरिया	-8089
▁चट्ट	-8090
▁डिली	-8091
▁मोदी	-8092
▁बढ़ाना	-8093
▁वीडियोग्राफी	-8094
लि	-8095
१९	-8096
▁गले	-8097
▁गोरा	-8098
▁सूरत	-8099
▁हर्ष	-8100
▁हल्के	-8101
▁स्टांप	-8102
▁कठिनाइयों	-8103
▁बड़	-8104
▁बसव	-8105
▁Raipur	-8106
▁निकलता	-8107
▁विन्यास	-8108
जो	-8109
नीत	-8110
ुगु	-8111
▁मानस	-8112
▁जाएंगी	-8113
▁विनिधान	-8114
▁बल्लेबाज	-8115
▁वाक्यांश	-8116
बरा	-8117
▁जानना	-8118
▁मेहता	-8119
रिवर्तन	-8120
▁अभिभाव	-8121
▁वित्तप	-8122
DD	-8123
एमई	-8124
▁चौक	-8125
▁मज़	-8126
क्तता	-8127
▁किंग	-8128
▁अर्जुन	-8129
▁स्पर्श	-8130
▁आजीविका	-8131
▁दिसम्बर	-8132
न्ने	-8133
▁घों	-8134
▁परत	-8135
▁सुद	-8136
▁वैसा	-8137
▁सूरज	-8138
▁सम्रा	-8139
▁जायेंगे	-8140
तृक	-8141
बेस	-8142
▁परा	-8143
▁शेर	-8144
▁आजाद	-8145
▁माँग	-8146
▁हुईं	-8147
▁ड्राइविंग	-8148
िडे	-8149
्को	-8150
▁बाज़	-8151
▁सकने	-8152
▁पक्षी	-8153
▁मैसूर	-8154
चिक	-8155
ूर्व	-8156
▁ढेर	-8157
▁मदन	-8158
्यूपी	-8159
▁अंडे	-8160
▁वृत्त	-8161
▁ब्रांड	-8162
▁संविदात्मक	-8163
est	-8164
रियर	-8165
▁Exs	-8166
्रामक	-8167
▁नर्म	-8168
▁सौंद	-8169
▁ज़रूर	-8170
ath	-8171
कोष	-8172
▁टेप	-8173
▁बेची	-8174
▁सृजित	-8175
▁ग्रन्थ	-8176
▁तारीखों	-8177
▁कार्यकर्ता	-8178
▁झु	-8179
ोनें	-8180
▁दीप	-8181
▁रेट	-8182
▁विड	-8183
▁इंदिरा	-8184
▁एससीआर	-8185
▁ट्रस्टी	-8186
▁प्राइमा	-8187
▁सज	-8188
दायिक	-8189
▁क्रय	-8190
▁थाना	-8191
▁आकर्षक	-8192
▁नवम्बर	-8193
▁पंजाबी	-8194
▁वनस्पति	-8195
▁रिपोर्टों	-8196
▁नरेश	-8197
▁मादा	-8198
▁वैष्ण	-8199
▁श्वेत	-8200
▁स्नेह	-8201
▁ध्वस्त	-8202
▁निरर्थ	-8203
▁प्रतिस्थापन	-8204
▁वध	-8205
▁उत्	-8206
▁पाग	-8207
▁मक्	-8208
▁वाज	-8209
▁टीका	-8210
▁संको	-8211
▁दुर्ग	-8212
▁निबंध	-8213
▁बढ़ना	-8214
▁स्पॉट	-8215
▁गंध	-8216
▁लेगा	-8217
▁जिसको	-8218
▁अपूर्ण	-8219
▁मुख्यतः	-8220
la	-8221
गांठ	-8222
हीनता	-8223
▁केबल	-8224
▁शुरूआत	-8225
▁पुस्तकालय	-8226
th	-8227
ावन	-8228
▁बाध्यता	-8229
▁कोण	-8230
▁गला	-8231
▁दंत	-8232
तन्त्र	-8233
▁अनुदेश	-8234
▁क्लर्क	-8235
▁मांसपेश	-8236
▁अधिनियमन	-8237
▁संकल्पना	-8238
EL	-8239
ff	-8240
नस	-8241
बिल	-8242
वाँ	-8243
▁बाबा	-8244
▁लिप्त	-8245
▁चित्रित	-8246
▁आयुर्वेद	-8247
PS	-8248
ास्प	-8249
▁पठन	-8250
▁साँ	-8251
▁सास	-8252
मूल्य	-8253
▁आबंटन	-8254
▁कनाडा	-8255
▁वारिस	-8256
▁ग्यारह	-8257
ूला	-8258
ार्इ	-8259
्षेप	-8260
▁जोशी	-8261
▁श्रो	-8262
▁भागीदारों	-8263
ख्	-8264
जाल	-8265
शुदा	-8266
▁असाइन	-8267
▁ग्रीन	-8268
▁निकला	-8269
▁पैतृक	-8270
▁प्रभु	-8271
▁अभ्याव	-8272
▁कृष्णा	-8273
▁इंस्टीट	-8274
▁पुस्तकें	-8275
▁न्यायशास्त्र	-8276
SH	-8277
▁पान	-8278
▁कन्न	-8279
▁कोने	-8280
▁माहौल	-8281
▁व्यास	-8282
▁एक्स्ट	-8283
ga	-8284
▁सिग	-8285
▁रामायण	-8286
▁प्रक्रम	-8287
▁जागरूकता	-8288
aran	-8289
▁बिन	-8290
▁जानती	-8291
▁हिस्सेदारी	-8292
न्नी	-8293
ल्लू	-8294
सूत्र	-8295
▁कराए	-8296
▁अपनाए	-8297
▁संयोग	-8298
▁डिप्टी	-8299
▁विकासशील	-8300
ock	-8301
क्चर	-8302
▁टेल	-8303
▁भरोसे	-8304
▁अभिन्न	-8305
▁देवताओं	-8306
▁पारदर्शी	-8307
▁पर्यावरणीय	-8308
▁सर्वश्रेष्ठ	-8309
▁प्रतिनियुक्ति	-8310
ht	-8311
▁एजु	-8312
क़्ति	-8313
▁एसएस	-8314
▁ठहराए	-8315
▁लिखते	-8316
▁चिल्ला	-8317
▁संतुलित	-8318
▁Resident	-8319
▁रूपांतरण	-8320
sad	-8321
गरी	-8322
सीएल	-8323
▁बिर	-8324
▁हेर	-8325
कोत्तर	-8326
▁थोड़े	-8327
▁अधीनता	-8328
▁संस्कार	-8329
▁नवीनीकरण	-8330
▁पूर्वगामी	-8331
▁छीन	-8332
▁जलने	-8333
▁बाढ़	-8334
▁आगामी	-8335
▁निकले	-8336
▁यथोचित	-8337
▁वांछित	-8338
मिया	-8339
▁घृणा	-8340
▁कुरान	-8341
▁तेलंग	-8342
▁दबाया	-8343
्रेताओं	-8344
▁उत्सुक	-8345
दाई	-8346
▁एए	-8347
▁अनन्त	-8348
▁नियमावली	-8349
▁सहयोगियों	-8350
▁ऊँ	-8351
▁लोप	-8352
▁शार	-8353
▁ओडिश	-8354
▁ट्रक	-8355
▁लम्बे	-8356
▁आत्मविश्वास	-8357
▁पाउ	-8358
▁बटन	-8359
न्नाथ	-8360
▁एसएच	-8361
▁प्रक्षेप	-8362
राई	-8363
त्रि	-8364
▁पकड़ने	-8365
▁घोषणाओं	-8366
▁सिफारिशें	-8367
▁एने	-8368
▁कस्ट	-8369
▁कृपा	-8370
▁नकार	-8371
▁सीपी	-8372
▁अकादमी	-8373
▁दिखाना	-8374
▁प्रचालन	-8375
▁रूपरेखा	-8376
▁वांछनीय	-8377
▁समस्याएं	-8378
▁संग्रहालय	-8379
▁ढल	-8380
▁पुरी	-8381
▁अनुकरण	-8382
▁उन्नयन	-8383
बान	-8384
▁ऋणों	-8385
▁किरायेदारों	-8386
ानाथ	-8387
्वरी	-8388
▁शुक्ला	-8389
▁वसीयतकर्ता	-8390
बेन	-8391
▁मक	-8392
▁चिन	-8393
▁सामुदायिक	-8394
्ग	-8395
▁फेफ	-8396
▁ओडिशा	-8397
▁प्राणी	-8398
▁विदेशों	-8399
▁स्नातकोत्तर	-8400
▁बेगम	-8401
▁सन्न	-8402
▁आश्रय	-8403
▁दर्जा	-8404
▁मूर्त	-8405
▁इन्द्र	-8406
▁प्रोटीन	-8407
▁इंटरनेशनल	-8408
▁उत्कृष्टता	-8409
▁घटित	-8410
▁सिंगा	-8411
▁अर्थों	-8412
▁संग्रहण	-8413
ांडिक	-8414
▁दीपक	-8415
नाइटेड	-8416
▁एपीपी	-8417
▁पैरों	-8418
▁जटिलता	-8419
▁पालिका	-8420
▁भ्रामक	-8421
▁वाई	-8422
द्धार	-8423
्रेटर	-8424
▁धब्बे	-8425
▁नवीनतम	-8426
▁सैनिकों	-8427
वैज्ञानिक	-8428
जारी	-8429
▁यान	-8430
▁कबीर	-8431
▁अभिकरण	-8432
▁चुनावों	-8433
घन	-8434
डो	-8435
▁पुणे	-8436
▁टेक्न	-8437
▁धाराओं	-8438
▁निकासी	-8439
▁प्रामा	-8440
थिल	-8441
▁टॉ	-8442
पड़ी	-8443
▁तंग	-8444
▁पागल	-8445
▁पाना	-8446
▁जगन्नाथ	-8447
▁डिलीवरी	-8448
▁संग्राम	-8449
▁उत्तेजित	-8450
▁राज्यक्षेत्र	-8451
na	-8452
ॉर्म	-8453
▁बचे	-8454
▁जिक्र	-8455
▁यहू	-8456
▁नियमन	-8457
▁सौंदर्य	-8458
▁संप्रदाय	-8459
▁भीम	-8460
्रेषण	-8461
▁देखरेख	-8462
▁विडियो	-8463
ास्पद	-8464
ियुक्त	-8465
▁डेवलप	-8466
▁सिंगल	-8467
र्थियों	-8468
▁पराजित	-8469
▁संगणना	-8470
▁तेलंगाना	-8471
MC	-8472
षक	-8473
रीन	-8474
▁असु	-8475
▁विट	-8476
▁हंस	-8477
▁मेहन	-8478
▁कानपुर	-8479
▁डाक्टर	-8480
▁नियामक	-8481
▁भिन्नता	-8482
▁फ्रैक्चर	-8483
ंगन	-8484
सायी	-8485
▁अकादमिक	-8486
▁अभ्यावेदन	-8487
▁सुविधाजनक	-8488
▁शांतिपूर्ण	-8489
▁अखंड	-8490
▁संवर्ग	-8491
▁पुनर्निर्	-8492
थाम	-8493
ांट	-8494
िस्टर	-8495
▁तस्वी	-8496
▁लाखों	-8497
▁संगणक	-8498
▁कनिष्ठ	-8499
▁तुम्हारी	-8500
▁पठ	-8501
भाषण	-8502
▁साई	-8503
▁बेकार	-8504
▁संचित	-8505
▁तालुका	-8506
▁लेखापरी	-8507
▁कंपनियां	-8508
▁परंपरागत	-8509
art	-8510
▁पदा	-8511
▁शिम	-8512
▁करों	-8513
▁कोयले	-8514
▁संकोच	-8515
▁अरोड़ा	-8516
▁ऑपरेटर	-8517
▁समकक्ष	-8518
▁कॉपीराइट	-8519
ाग्र	-8520
▁इंच	-8521
▁ऊंची	-8522
▁डाली	-8523
▁दवाओं	-8524
▁उच्चारण	-8525
▁सितम्बर	-8526
शंकर	-8527
▁सैय	-8528
▁ध्रु	-8529
चन्द्र	-8530
▁अन्तिम	-8531
▁उन्नति	-8532
▁क़्यों	-8533
▁कीटनाशक	-8534
▁तस्वीरें	-8535
▁बेंगलुरु	-8536
दूत	-8537
हाल	-8538
िटन	-8539
▁बट	-8540
डीएस	-8541
▁असुर	-8542
▁भागने	-8543
▁विचलन	-8544
▁शिकायतें	-8545
्हा	-8546
वाड़	-8547
▁कों	-8548
▁इसको	-8549
▁रोगियों	-8550
▁फोरेंसिक	-8551
▁रक्तस्राव	-8552
LA	-8553
रोल	-8554
▁छेद	-8555
▁बंट	-8556
▁Prasad	-8557
▁दांडिक	-8558
▁सार्वभौमिक	-8559
▁बं	-8560
बंधक	-8561
▁आपदा	-8562
▁जस्ट	-8563
▁समाह	-8564
TC	-8565
▁भै	-8566
▁आगमन	-8567
▁कामों	-8568
▁अर्हता	-8569
▁उदासीन	-8570
▁पहुँचे	-8571
▁Co	-8572
रेशन	-8573
▁सिख	-8574
▁सावधान	-8575
▁स्वप्न	-8576
▁प्रतिबिंबित	-8577
गीर	-8578
▁Bl	-8579
ापुर	-8580
▁ट्रेन	-8581
▁सिंगापुर	-8582
▁आदत	-8583
▁आगरा	-8584
▁वरन्	-8585
▁लगाता	-8586
▁उपग्रह	-8587
▁चंडीगढ़	-8588
▁इंजीनियरी	-8589
ॉड	-8590
▁u	-8591
बोध	-8592
ासित	-8593
▁आइए	-8594
▁ह्र	-8595
▁गुणा	-8596
▁सिरों	-8597
▁असफलता	-8598
चु	-8599
१क	-8600
बीसी	-8601
र्टी	-8602
▁आदर	-8603
▁कवियों	-8604
न्तर	-8605
▁मार्ज	-8606
▁हड़ताल	-8607
▁राशियों	-8608
▁भट्ट	-8609
▁वासी	-8610
▁रचनाओं	-8611
▁अधिवेशन	-8612
▁विवेकपूर्ण	-8613
कन	-8614
वट	-8615
किम	-8616
▁पिल	-8617
▁फांसी	-8618
▁रवाना	-8619
▁निवारक	-8620
▁क्रिस्ट	-8621
▁नास	-8622
▁जीआर	-8623
▁अवलंब	-8624
▁करीबी	-8625
▁बिलों	-8626
▁युग्म	-8627
▁सौभाग	-8628
▁सुधारों	-8629
▁क्रियान्वयन	-8630
ंडे	-8631
▁अम्ल	-8632
▁कबूल	-8633
▁सवार	-8634
िडेविट	-8635
▁अकेला	-8636
▁प्रां	-8637
▁अंतरित	-8638
▁प्राधिकारियों	-8639
ुपात	-8640
ूँगा	-8641
▁गेह	-8642
▁रेत	-8643
▁अनंत	-8644
▁जंगली	-8645
▁जैविक	-8646
▁रोकथाम	-8647
दू	-8648
लाश	-8649
▁MC	-8650
▁ऊंचे	-8651
▁रसोई	-8652
▁हटाए	-8653
▁सम्राट	-8654
ियस	-8655
▁छान	-8656
▁बसे	-8657
▁कर्ता	-8658
▁प्लांट	-8659
▁उत्पादकता	-8660
▁प्रामाणिक	-8661
▁नमक	-8662
▁तात्प	-8663
▁यहूदी	-8664
▁संघीय	-8665
▁एफिडेविट	-8666
▁पत्राचार	-8667
▁मंत्रियों	-8668
गोश	-8669
ुरत	-8670
▁कैदी	-8671
▁रहीं	-8672
▁तालिका	-8673
▁अधिनिर्णय	-8674
पार	-8675
▁नोक	-8676
िवेदी	-8677
▁बहुल	-8678
▁मण्ड	-8679
▁मोती	-8680
▁आकृति	-8681
क्तियों	-8682
▁निरर्थक	-8683
▁निषिद्ध	-8684
▁मुहम्मद	-8685
▁प्रतिवर्ष	-8686
ुर्द	-8687
▁बडा	-8688
▁अव्यव	-8689
▁रखेगा	-8690
▁कीमतों	-8691
▁शुरुआती	-8692
▁पूर्णतया	-8693
रिफ	-8694
रहित	-8695
▁नाव	-8696
▁फर्	-8697
▁ढूंढ	-8698
▁आवाज़	-8699
▁विचित्र	-8700
▁न्यायोचित	-8701
▁रथ	-8702
▁नाब	-8703
स्तीन	-8704
▁मांगे	-8705
▁अवशोषण	-8706
▁इलाकों	-8707
▁अनुज्ञा	-8708
▁उल्लेखित	-8709
▁परिशिष्ट	-8710
दह	-8711
ंडर	-8712
मंड	-8713
ार्म	-8714
▁असंव	-8715
▁तस्वीरों	-8716
▁परिवीक्षा	-8717
IM	-8718
टीए	-8719
शब्द	-8720
▁श्ल	-8721
▁घड़ी	-8722
▁कपड़ा	-8723
▁क्रिम	-8724
▁श्रेय	-8725
▁समावेशी	-8726
ोदय	-8727
रानी	-8728
र्फ़	-8729
ायती	-8730
ुग्ध	-8731
▁आधी	-8732
▁अभिनय	-8733
▁दंडात्मक	-8734
▁लोकायुक्त	-8735
▁आर्बिट्रेटर	-8736
ब्ध	-8737
विन	-8738
ंकित	-8739
ज़ार	-8740
▁अपितु	-8741
▁स्वाद	-8742
▁दिखाएँ	-8743
▁प्रेषण	-8744
आउट	-8745
स्तीनी	-8746
▁स्कोर	-8747
▁अनिवासी	-8748
▁प्रसारित	-8749
▁घुम	-8750
▁आघात	-8751
▁बर्फ	-8752
▁अनुमत	-8753
▁पिस्त	-8754
▁महेंद्र	-8755
▁अनुबंधों	-8756
▁वैयक्तिक	-8757
इंट	-8758
▁सबके	-8759
▁तुमने	-8760
▁दरबार	-8761
▁प्राप	-8762
▁बहाने	-8763
▁कलाकार	-8764
▁आदिवासी	-8765
▁आचार	-8766
▁सादे	-8767
▁आखिरी	-8768
▁आश्रम	-8769
▁विनम्र	-8770
लोनी	-8771
▁डंप	-8772
▁देह	-8773
▁रूम	-8774
▁लड़ा	-8775
▁समित	-8776
▁रणनीति	-8777
▁सीआईटी	-8778
ोषक	-8779
▁चुक	-8780
नीतिक	-8781
▁आकर्षण	-8782
▁कविताओं	-8783
▁अयोग्यता	-8784
▁विशेषज्ञता	-8785
▁महाविद्यालय	-8786
▁माथ	-8787
▁रांची	-8788
▁शॉर्ट	-8789
▁सोचने	-8790
▁आनुवंश	-8791
▁गुजरना	-8792
▁विरोधाभासी	-8793
ओसी	-8794
▁झिल	-8795
▁IANo	-8796
▁एण्ड	-8797
▁चलती	-8798
▁बेदखल	-8799
▁मापने	-8800
▁लाहौर	-8801
▁खटखटाया	-8802
▁सम्पन्न	-8803
▁फायदे	-8804
▁साइकिल	-8805
▁विधियां	-8806
▁परिस्थितियाँ	-8807
मेह	-8808
▁लूट	-8809
▁चौकी	-8810
▁परित	-8811
▁प्रवी	-8812
▁ड्रग्स	-8813
▁आश्चर्यजनक	-8814
▁विक्रेताओं	-8815
्कर	-8816
्टन	-8817
ष्टा	-8818
▁ढाल	-8819
▁स्टै	-8820
्रिक्स	-8821
▁वृत्ति	-8822
▁वॉल्यूम	-8823
▁अंग्रेज़ी	-8824
▁सांख्यिकी	-8825
▁VI	-8826
▁अभिव	-8827
▁देहा	-8828
▁एग्री	-8829
▁मिथ्या	-8830
▁Ba	-8831
एफसी	-8832
▁भगत	-8833
▁चुनने	-8834
▁स्वदेश	-8835
▁अभिभाषण	-8836
▁उदाहरणों	-8837
▁स्वाधीनता	-8838
ायन	-8839
िकस	-8840
▁अफ़	-8841
▁अल्ट	-8842
▁आरआई	-8843
▁मंडप	-8844
▁सरोज	-8845
▁उत्सव	-8846
▁अक्षमता	-8847
▁महासागर	-8848
▁मध्यस्थों	-8849
▁क्रांतिकारी	-8850
िएट	-8851
ेरा	-8852
ीलाल	-8853
▁डीए	-8854
▁माफ	-8855
▁गोवा	-8856
▁स्थूल	-8857
▁इन्हीं	-8858
▁कब्ज़ा	-8859
▁पेड़ों	-8860
▁गणतंत्र	-8861
▁नाबार्ड	-8862
▁तात्पर्य	-8863
झी	-8864
वृ	-8865
ंशी	-8866
▁पंख	-8867
▁यों	-8868
▁शाल	-8869
▁आवरण	-8870
▁आमदनी	-8871
▁बलराम	-8872
▁सदनों	-8873
▁प्रकरण	-8874
▁सुन्दर	-8875
▁पिस्तौल	-8876
▁उन्होनें	-8877
▁डॉक्टरों	-8878
टरी	-8879
ेरी	-8880
▁एमएम	-8881
▁झटका	-8882
▁नकली	-8883
▁स्या	-8884
▁खरीदे	-8885
▁जानवर	-8886
ार्टमेंट	-8887
▁यूनाइटेड	-8888
▁स्वच्छता	-8889
ara	-8890
तिया	-8891
लेखन	-8892
▁महाक	-8893
▁स्था	-8894
▁जीओएम	-8895
▁रूपये	-8896
▁इस्तीफा	-8897
▁दर्शाती	-8898
▁मेट्रोप	-8899
▁जॉन	-8900
जातीय	-8901
▁दुबे	-8902
▁लेवी	-8903
▁शर्म	-8904
नेश्वर	-8905
▁किस्त	-8906
▁समाहित	-8907
▁विशेषताएं	-8908
ect	-8909
▁छोर	-8910
▁सीएम	-8911
▁स्टोर	-8912
▁आचार्य	-8913
▁उत्तरा	-8914
▁फिलीस्तीनी	-8915
▁लड	-8916
खण्ड	-8917
ुक़्त	-8918
▁समामेलन	-8919
▁इंजेक्शन	-8920
▁नियुक्तियां	-8921
झे	-8922
कना	-8923
▁संदत्त	-8924
लेस	-8925
चेरी	-8926
ड़की	-8927
्वित	-8928
▁क्षम	-8929
▁फरार	-8930
▁Block	-8931
▁उपदेश	-8932
▁गठ	-8933
▁यहीं	-8934
▁व्याख्यान	-8935
TH	-8936
ग़	-8937
▁मैनु	-8938
धिकारी	-8939
▁असंतोष	-8940
▁बहिष्कार	-8941
▁चित	-8942
▁संभ	-8943
▁पिटी	-8944
▁मापदंडों	-8945
▁प्रतिभूतियों	-8946
२०	-8947
ani	-8948
▁फा	-8949
मुखी	-8950
▁ईस्ट	-8951
▁नमूनों	-8952
▁अध्यापक	-8953
▁प्रोबेट	-8954
▁विवाहित	-8955
▁सद्भावना	-8956
्ज	-8957
लैंड	-8958
ृश्य	-8959
▁कैम	-8960
▁शर्ट	-8961
▁बैठने	-8962
▁प्रवीण	-8963
▁प्रशांत	-8964
▁उत्तराधिकारियों	-8965
रोग	-8966
षेक	-8967
▁थै	-8968
▁बत	-8969
बाबू	-8970
▁अंस	-8971
▁कृषक	-8972
▁अंगूठे	-8973
▁जजमेंट	-8974
▁सिगरेट	-8975
▁परिसमापन	-8976
▁कम्प्यूटर	-8977
तूस	-8978
ोडा	-8979
▁अपव	-8980
लियों	-8981
▁बोला	-8982
▁कराता	-8983
▁माइक्रो	-8984
ॉग	-8985
ामिन	-8986
▁भती	-8987
▁रतन	-8988
तियां	-8989
▁उपनि	-8990
▁उठाकर	-8991
▁फाउंड	-8992
▁एशियाई	-8993
▁टेलीवि	-8994
▁जनजातियों	-8995
ृंग	-8996
▁PC	-8997
र्सी	-8998
▁फेड	-8999
▁व्ह	-9000
▁गोला	-9001
▁फर्क	-9002
▁विधा	-9003
▁स्पी	-9004
▁कारगर	-9005
▁शिष्ट	-9006
▁अवधारण	-9007
▁उपनिवेश	-9008
▁पूंजीगत	-9009
▁नवान्वेष	-9010
्साइड	-9011
▁CWJC	-9012
▁लोगो	-9013
▁कॉन्ट	-9014
▁पकड़ा	-9015
▁ट्रांसपोर्ट	-9016
ज़े	-9017
▁नु	-9018
▁Aug	-9019
▁कॉम	-9020
▁अमान	-9021
▁भिन्	-9022
▁महास	-9023
▁नोटरी	-9024
▁मराठी	-9025
व्यवहार	-9026
▁अनदेखा	-9027
▁कर्मों	-9028
▁दोबारा	-9029
▁निधियों	-9030
ow	-9031
und	-9032
▁यश	-9033
▁औषधि	-9034
▁तिलक	-9035
▁फर्द	-9036
▁मत्स	-9037
▁सौदे	-9038
▁कारतूस	-9039
▁व्याकरण	-9040
▁पक्षियों	-9041
रण्य	-9042
▁हिला	-9043
िपूर्ण	-9044
▁संजीव	-9045
▁प्रतिपादन	-9046
दय	-9047
पीएल	-9048
माही	-9049
▁आजकल	-9050
▁कंधे	-9051
▁देखिए	-9052
▁भरपूर	-9053
▁मूत्र	-9054
ग्रा	-9055
▁बाब	-9056
▁मैथ	-9057
▁अरबी	-9058
▁बचपन	-9059
▁ग्वाल	-9060
▁घंटों	-9061
▁तालुक	-9062
▁लड़का	-9063
▁दर्शाने	-9064
▁वादियों	-9065
▁प्रस्तावना	-9066
▁वसा	-9067
▁व्यर्थ	-9068
▁उत्सर्जन	-9069
▁बांग्लादेश	-9070
▁महाप्रबंधक	-9071
गें	-9072
▁उगा	-9073
▁उठे	-9074
▁टाल	-9075
▁आन्द	-9076
▁एमसी	-9077
▁कौंस	-9078
▁नजदी	-9079
▁बंधन	-9080
▁इंदौर	-9081
▁ड्राइव	-9082
▁असमानता	-9083
▁श्रद्धा	-9084
▁साथियों	-9085
ेंच	-9086
▁लौटे	-9087
▁आपूर्त	-9088
▁मार्जिन	-9089
▁गर	-9090
▁आरसी	-9091
▁प्रब	-9092
▁विषा	-9093
्लेक्स	-9094
▁भ्रूण	-9095
▁सच्ची	-9096
▁सर्वप्र	-9097
▁Crl	-9098
▁इराक	-9099
▁पद्म	-9100
▁जर्मन	-9101
▁आउटपुट	-9102
▁चाहेंगे	-9103
ैप	-9104
वाट	-9105
▁कैन	-9106
▁हुक	-9107
▁दादा	-9108
▁दिल्	-9109
▁समीकरण	-9110
▁मार्गदर्शक	-9111
▁व्यापारियों	-9112
ind	-9113
▁st	-9114
▁उपस	-9115
▁बाइ	-9116
िवर्स	-9117
▁मणिप	-9118
▁उन्हे	-9119
▁एमिकस	-9120
▁लम्बी	-9121
▁स्नान	-9122
▁अधीक्षण	-9123
▁प्रदाता	-9124
▁पार्टियां	-9125
▁इंस्टीट्यूट	-9126
टकों	-9127
देवी	-9128
शिंग	-9129
िस्थ	-9130
▁Son	-9131
▁आयाम	-9132
▁कमाई	-9133
▁डालर	-9134
▁निर्ब	-9135
▁जोड़ें	-9136
▁चिकित्सकीय	-9137
▁प्राधिकरणों	-9138
क्ल	-9139
लपुर	-9140
▁नकल	-9141
▁अनिय	-9142
▁अभिने	-9143
▁अपनाना	-9144
▁आंकड़ा	-9145
▁स्मारक	-9146
▁गर्भाशय	-9147
▁अभिप्राय	-9148
▁अफगानिस्तान	-9149
रोपण	-9150
▁इसल	-9151
▁ऊंचा	-9152
▁मेहर	-9153
▁सतीश	-9154
▁न्यूज	-9155
ेद्य	-9156
▁दार	-9157
▁साख	-9158
▁मिस्र	-9159
▁मैनुअल	-9160
▁व्यष्टि	-9161
▁सामानों	-9162
▁मानचित्र	-9163
म्य	-9164
लोड	-9165
न्दा	-9166
बर्ट	-9167
्तान	-9168
▁एडी	-9169
▁मेम	-9170
▁चेहरा	-9171
▁वैष्णव	-9172
▁नैतिकता	-9173
▁बेईमानी	-9174
धारक	-9175
हानि	-9176
▁प्लग	-9177
▁डिस्च	-9178
▁अवज्ञा	-9179
▁उपलब्धियों	-9180
णुओं	-9181
रियल	-9182
▁अवशेष	-9183
▁म्यूट	-9184
▁श्लोक	-9185
▁बंगाली	-9186
ee	-9187
ंटा	-9188
ोरेंस	-9189
▁एमबी	-9190
▁सोनी	-9191
▁गिरने	-9192
▁जोड़ी	-9193
▁बीडीए	-9194
▁निगमों	-9195
▁डिस्चार्ज	-9196
राक	-9197
▁बही	-9198
▁इकबाल	-9199
▁सब्सि	-9200
▁अरविंद	-9201
▁नेताजी	-9202
▁विकृति	-9203
ND	-9204
खार	-9205
ोला	-9206
▁फू	-9207
चरिता	-9208
▁अस्व	-9209
▁चौथा	-9210
▁बाला	-9211
▁स्वर्ग	-9212
▁राष्ट्री	-9213
▁गतिविधियां	-9214
GAL	-9215
पंथी	-9216
ुतोष	-9217
बिनेट	-9218
▁कॉम्प	-9219
▁आक्षेप	-9220
▁जस्टिस	-9221
सराय	-9222
▁भूख	-9223
▁साठ	-9224
सिद्ध	-9225
▁धोखे	-9226
ढ़ियों	-9227
▁मानती	-9228
▁बाज़ार	-9229
▁क्रिमिनल	-9230
PL	-9231
बाग	-9232
▁Pol	-9233
▁अर्क	-9234
▁कॉलोनी	-9235
▁आविष्कार	-9236
▁कन्वेंशन	-9237
घट	-9238
पल	-9239
िवि	-9240
▁बिछ	-9241
ंताओं	-9242
▁पूछे	-9243
▁एससीए	-9244
▁टेनिस	-9245
▁फूलों	-9246
▁अतिमान	-9247
▁स्थलों	-9248
▁अल्ट्रा	-9249
▁सुचरिता	-9250
▁एनडीपीएस	-9251
▁पंचायतों	-9252
षद	-9253
है	-9254
▁आर्म	-9255
▁रोज़	-9256
▁सबको	-9257
▁विभेद	-9258
▁तुलनात्मक	-9259
स्सी	-9260
▁दीन	-9261
▁परो	-9262
▁इंजन	-9263
▁कीजिए	-9264
▁भोपाल	-9265
▁सुदूर	-9266
▁लाभदायक	-9267
▁व्यवसायी	-9268
▁साक्षरता	-9269
op	-9270
माला	-9271
िंगर	-9272
▁चीफ	-9273
▁टैब	-9274
▁कर्मकार	-9275
▁सौभाग्य	-9276
EC	-9277
्ति	-9278
▁सोना	-9279
▁दिखता	-9280
▁प्रशासक	-9281
▁कामगारों	-9282
▁इंडस्ट्रीज	-9283
ैत	-9284
मेर	-9285
▁कूद	-9286
▁कैद	-9287
▁पतन	-9288
▁हाज	-9289
ेश्वरी	-9290
▁तिहाई	-9291
▁स्विच	-9292
▁अभिरक्षा	-9293
▁गोपनीयता	-9294
▁डब्ल्यूपी	-9295
▁मोर	-9296
▁साइन	-9297
▁टैगोर	-9298
ड्	-9299
anc	-9300
आईए	-9301
▁जेब	-9302
▁डेस्क	-9303
▁पिटीशन	-9304
प्रति	-9305
▁Champ	-9306
▁अंतरा	-9307
▁आवश्य	-9308
▁चतुर्थ	-9309
▁ऑपरेटिव	-9310
▁असमर्थता	-9311
endra	-9312
यंत्र	-9313
▁श्रद्ध	-9314
▁आपूर्तिक	-9315
▁ः	-9316
ION	-9317
महल	-9318
▁खर	-9319
▁बढा	-9320
▁बचना	-9321
▁प्रभुत्व	-9322
ँव	-9323
ham	-9324
▁छः	-9325
मुना	-9326
▁हनु	-9327
ख़्या	-9328
▁बदनाम	-9329
▁आशुतोष	-9330
▁निराशा	-9331
▁पुत्री	-9332
▁बंगलौर	-9333
▁मुहैया	-9334
▁विवादास्पद	-9335
ey	-9336
ट्स	-9337
बीएस	-9338
▁गंग	-9339
▁डीडी	-9340
▁पुनर	-9341
▁शिष्य	-9342
▁इंडिका	-9343
▁प्रख्यात	-9344
भुत	-9345
▁वॉ	-9346
ृहीत	-9347
▁आवेग	-9348
▁गोयल	-9349
▁अवतार	-9350
▁दुग्ध	-9351
▁वेस्ट	-9352
▁सालों	-9353
खली	-9354
ण्ट	-9355
▁बैंड	-9356
▁सब्ज	-9357
▁सिखा	-9358
▁प्रसव	-9359
▁खोपड़ी	-9360
▁प्रसंग	-9361
नाल	-9362
लाइ	-9363
ुरू	-9364
▁हफ्त	-9365
क्सीजन	-9366
▁ललिता	-9367
▁जोरदार	-9368
▁त्रिपा	-9369
▁सर्वप्रथम	-9370
पटल	-9371
फ्फ	-9372
रुप	-9373
ौली	-9374
▁एएस	-9375
▁रॉयल	-9376
▁सौदा	-9377
▁दीवारों	-9378
▁फाउंडेशन	-9379
सात	-9380
▁ओब	-9381
द्रा	-9382
र्तक	-9383
्युन	-9384
▁मेगा	-9385
▁पूछने	-9386
▁प्रजा	-9387
▁रिश्ते	-9388
▁प्रोटोकॉल	-9389
AI	-9390
पुरम	-9391
बूती	-9392
यालय	-9393
ल्लाह	-9394
ंतुष्ट	-9395
▁एएसआई	-9396
▁अनजाने	-9397
▁अहिंसा	-9398
▁जमानती	-9399
▁जैसाकि	-9400
▁मांगने	-9401
▁लिखावट	-9402
▁समाजवादी	-9403
ter	-9404
▁बोले	-9405
▁परवाह	-9406
▁त्रिपाठी	-9407
▁प्रशंसनीय	-9408
▁इंक	-9409
▁डिम	-9410
▁एमडी	-9411
▁फर्श	-9412
▁यथास	-9413
▁संचयी	-9414
▁सोचता	-9415
▁विसंगत	-9416
▁क़्योंकि	-9417
▁मंत्रालयों	-9418
ाश	-9419
▁Ro	-9420
▁DIST	-9421
▁मानवा	-9422
▁मुकेश	-9423
▁प्रहार	-9424
▁निर्देशन	-9425
▁भेदभावपूर्ण	-9426
तकों	-9427
र्षण	-9428
▁पेशी	-9429
▁उड़ान	-9430
▁चिपका	-9431
▁स्कैन	-9432
िरपेक्ष	-9433
▁क्रमिक	-9434
▁मुद्रित	-9435
▁परीक्षणों	-9436
▁इस्लामवादी	-9437
▁परियोजनाएं	-9438
▁अन्यायपूर्ण	-9439
सेन	-9440
▁गढ़	-9441
▁वैट	-9442
▁अपार	-9443
▁निदान	-9444
▁पुराण	-9445
▁धर्मों	-9446
▁बिन्दु	-9447
▁रियासत	-9448
▁सिनेमा	-9449
▁सेवकों	-9450
▁कैबिनेट	-9451
▁प्रतिमा	-9452
▁स्ट्रीट	-9453
▁सांप्रदायिक	-9454
ac	-9455
ँह	-9456
AME	-9457
ear	-9458
जलि	-9459
▁ऑल	-9460
गणना	-9461
्रिक	-9462
▁रेस	-9463
▁लीला	-9464
▁क्षमा	-9465
▁डालते	-9466
▁लाइसेंसधारी	-9467
पद	-9468
gan	-9469
▁जस	-9470
तरफा	-9471
▁पित	-9472
्रेशन	-9473
▁लेनी	-9474
▁षड्य	-9475
▁बंगला	-9476
▁शिमला	-9477
▁सच्चा	-9478
▁महाराज	-9479
जुट	-9480
▁WA	-9481
▁जहर	-9482
▁सुग	-9483
▁क्षै	-9484
ोंडेंट	-9485
▁गुजराती	-9486
▁चर्चाओं	-9487
ोगे	-9488
त्ती	-9489
▁उधर	-9490
▁भव्य	-9491
▁हमलावर	-9492
▁संभालने	-9493
▁सब्सिडी	-9494
▁शेयरधारक	-9495
फेर	-9496
adav	-9497
▁काय	-9498
▁गंत	-9499
▁बोर	-9500
▁शिप	-9501
▁द्रव	-9502
▁आज्ञा	-9503
▁गाँधी	-9504
▁प्रचुर	-9505
▁असंतुष्ट	-9506
▁कहानियों	-9507
▁प्रदेशों	-9508
नाई	-9509
▁कटक	-9510
ब्दिक	-9511
▁चलकर	-9512
▁समझी	-9513
स्थिति	-9514
▁उत्पा	-9515
▁असिस्ट	-9516
▁सीरिया	-9517
▁निपटारे	-9518
तने	-9519
स्म	-9520
▁खाम	-9521
▁थोक	-9522
▁पिन	-9523
▁खेतों	-9524
▁बालों	-9525
▁मुंशी	-9526
▁शिथिल	-9527
▁हिंदुओं	-9528
ीदा	-9529
ालों	-9530
▁कंक	-9531
▁चलाए	-9532
▁महान्	-9533
▁स्पेश	-9534
▁सुझावों	-9535
▁संव्यवहार	-9536
दण्ड	-9537
▁कंड	-9538
▁शीत	-9539
▁हुये	-9540
▁कैलाश	-9541
▁झगड़े	-9542
▁अधिशेष	-9543
▁निर्गम	-9544
▁प्रत्यर्थी	-9545
▁वादकारियों	-9546
000	-9547
ोंग	-9548
▁ऋतु	-9549
▁एमएल	-9550
▁महेश	-9551
▁राइट	-9552
लावरों	-9553
▁गीतों	-9554
▁डालना	-9555
▁मायने	-9556
▁असाइनमेंट	-9557
▁बोलीदाताओं	-9558
पै	-9559
ैम	-9560
घोष	-9561
▁इट	-9562
ुल्ला	-9563
▁गर्ग	-9564
▁चलना	-9565
▁वाहक	-9566
▁सेटल	-9567
▁इसलिये	-9568
▁करूंगा	-9569
▁Station	-9570
▁अनुभूति	-9571
▁हमलावरों	-9572
▁राजपत्रित	-9573
ary	-9574
स्कर	-9575
िलास	-9576
▁छिपा	-9577
▁क्लेम	-9578
▁भेजें	-9579
▁मानकर	-9580
▁मूर्ख	-9581
▁उर्वरक	-9582
▁ईमानदार	-9583
▁शाब्दिक	-9584
▁प्रत्यक्षदर्शी	-9585
▁आड़	-9586
▁पाय	-9587
▁बस्ती	-9588
▁छात्रा	-9589
▁जिंदगी	-9590
▁अवस्थित	-9591
▁प्रबंधित	-9592
ंय	-9593
गिक	-9594
टीई	-9595
▁जगा	-9596
▁धूल	-9597
▁बदलना	-9598
▁अखंडता	-9599
▁मधुमेह	-9600
▁वकीलों	-9601
▁गर्भवती	-9602
▁फिल्मों	-9603
▁विवेचना	-9604
▁बहुमूल्य	-9605
बयान	-9606
ूल्स	-9607
▁ब्यौ	-9608
▁एकजुट	-9609
▁बम्बई	-9610
▁संतान	-9611
▁मनुष्यों	-9612
ंसी	-9613
ब्ज	-9614
▁छु	-9615
▁सादा	-9616
▁सुगम	-9617
▁घटकों	-9618
▁बचाया	-9619
▁राजाओं	-9620
▁निमित्त	-9621
▁गोलीबारी	-9622
▁as	-9623
▁Pat	-9624
▁नहर	-9625
ोर्टियम	-9626
▁मत्स्य	-9627
▁मेमोरी	-9628
▁सातवीं	-9629
▁याचिकाएँ	-9630
▁ऋषि	-9631
▁बगल	-9632
▁बिख	-9633
▁मेह	-9634
▁लॉज	-9635
▁आरपी	-9636
▁कारी	-9637
▁अनुमेय	-9638
▁अनुष्ठ	-9639
▁उपनियम	-9640
▁स्त्रो	-9641
▁विसंगतियों	-9642
पना	-9643
र्षि	-9644
मुक्त	-9645
▁पादप	-9646
▁काफ़ी	-9647
▁शिविर	-9648
▁Police	-9649
▁डिप्लो	-9650
▁नाटकों	-9651
▁त्रुटिः	-9652
▁निक्षेप	-9653
▁शब्दकोश	-9654
▁अनुरक्षण	-9655
▁क्षेत्रफल	-9656
em	-9657
ेयी	-9658
एचसी	-9659
▁हड्ड	-9660
▁दत्ता	-9661
▁निगमित	-9662
▁मशीनों	-9663
▁सिर्फ़	-9664
▁विटामिन	-9665
▁धर्मार्थ	-9666
▁असंवैधानिक	-9667
▁पूर्वोत्तर	-9668
डम	-9669
२क	-9670
ज़न	-9671
तिज	-9672
तुल	-9673
भावी	-9674
▁अनौ	-9675
▁दीं	-9676
▁नाप	-9677
▁अलंक	-9678
▁उपास	-9679
▁चौदह	-9680
▁सभ्य	-9681
ावस्था	-9682
▁दीक्ष	-9683
▁रोकता	-9684
▁अभेद्य	-9685
▁प्रबन्ध	-9686
▁सुरेंद्र	-9687
ta	-9688
खान	-9689
▁अघ	-9690
कर्स	-9691
▁गुज	-9692
▁सोव	-9693
▁खसरा	-9694
▁खुदरा	-9695
▁गोदाम	-9696
▁मुल्क	-9697
▁साकार	-9698
▁कमियों	-9699
▁कौंसिल	-9700
▁बिहारी	-9701
▁तुम्हारा	-9702
ity	-9703
ंसे	-9704
ांच	-9705
▁कसौ	-9706
▁गम्	-9707
▁नरम	-9708
▁परव	-9709
▁फुल	-9710
▁बान	-9711
▁भुव	-9712
निवास	-9713
वाड़ा	-9714
▁नानक	-9715
▁बनती	-9716
▁रोचक	-9717
▁खींचा	-9718
▁मेहनत	-9719
▁पहुंचाई	-9720
▁अन्न	-9721
▁कहें	-9722
▁रेंज	-9723
▁फिंगर	-9724
▁बादशाह	-9725
▁परेशानी	-9726
▁यूनिवर्स	-9727
IV	-9728
वह	-9729
rom	-9730
च्य	-9731
र्नल	-9732
▁आईए	-9733
▁सगाई	-9734
▁दबाने	-9735
▁बेहोश	-9736
▁आनुपात	-9737
▁डिप्लोमा	-9738
▁बिल्डिंग	-9739
▁केन्द्रों	-9740
गृह	-9741
लाप	-9742
▁AR	-9743
▁शम	-9744
ब्बा	-9745
▁कैंट	-9746
▁दौरे	-9747
▁चित्त	-9748
▁क्राइम	-9749
▁बहिष्क	-9750
▁सामर्थ	-9751
▁उपबंधित	-9752
▁कंसोर्टियम	-9753
▁मैत्रीपूर्ण	-9754
टिक	-9755
▁अँ	-9756
▁थल	-9757
▁एके	-9758
▁माया	-9759
▁साइंस	-9760
▁अजीबोग	-9761
▁षड्यंत्र	-9762
▁फिलीस्तीन	-9763
बंधन	-9764
▁एजे	-9765
▁नित	-9766
▁भोज	-9767
▁उज्ज	-9768
मेंट्स	-9769
▁मानवाधिकार	-9770
डि	-9771
ाइज	-9772
१वीं	-9773
▁भड़	-9774
▁पुकार	-9775
▁अंतर्व	-9776
▁उद्भूत	-9777
▁निरोधक	-9778
▁विकिरण	-9779
▁कैदियों	-9780
▁ग्वालियर	-9781
▁दीर्घकालिक	-9782
ॉल्व	-9783
▁रंगम	-9784
▁ऊतकों	-9785
▁रिहाई	-9786
▁अभिदाय	-9787
▁झिल्ली	-9788
▁सेकेंड	-9789
▁on	-9790
▁क्षु	-9791
▁रहकर	-9792
▁छानबीन	-9793
▁जीवाणु	-9794
▁आन्दोलन	-9795
▁नर्सिंग	-9796
▁शेड्यूल	-9797
▁क्षमताओं	-9798
▁अनियंत्रित	-9799
▁अपरिवर्तनीय	-9800
हट	-9801
िंट	-9802
▁आरएस	-9803
पीसीएल	-9804
▁बुराई	-9805
▁दिलाने	-9806
बरी	-9807
▁अठ	-9808
शियन	-9809
▁अपू	-9810
▁चुंब	-9811
▁रंजन	-9812
▁पीछला	-9813
▁पहुँचा	-9814
▁विख्यात	-9815
▁प्रतिशोध	-9816
▁अजीबोगरीब	-9817
गुण	-9818
ृष्ण	-9819
▁पंक	-9820
▁सरा	-9821
▁यकीन	-9822
▁एंट्री	-9823
▁चार्टर	-9824
▁ज़रूरत	-9825
▁फर्दबयान	-9826
▁संस्थाएं	-9827
लत	-9828
प्रण	-9829
▁फ़ॉ	-9830
▁वर्न	-9831
रेन्द्र	-9832
▁परिमाण	-9833
▁प्रेरक	-9834
▁पारिस्थ	-9835
▁असुरक्षित	-9836
▁विशिष्टता	-9837
▁विद्यालयों	-9838
ंबा	-9839
ालक	-9840
▁तन	-9841
▁रच	-9842
वाया	-9843
▁जरा	-9844
रेस्ट	-9845
▁किशन	-9846
▁टर्न	-9847
धारकों	-9848
▁दिलीप	-9849
▁मिनटों	-9850
▁संपादक	-9851
▁मित्रता	-9852
▁मुकाबला	-9853
▁पर्यटकों	-9854
▁हिन्दुओं	-9855
▁प्रतिवेदन	-9856
▁प्रायोजित	-9857
▁लेखापरीक्षा	-9858
PNo	-9859
्शा	-9860
▁ITAT	-9861
▁भेजना	-9862
▁द्वारक	-9863
▁निर्धन	-9864
▁कॉन्ट्र	-9865
▁जीने	-9866
▁मुँह	-9867
▁चलाना	-9868
▁श्रील	-9869
▁सर्कल	-9870
▁निरसित	-9871
श्योरेंस	-9872
▁संवेदना	-9873
▁साझेदार	-9874
▁दीक्षांत	-9875
▁Ws	-9876
▁कण	-9877
ंतुक	-9878
टिंग	-9879
▁एसई	-9880
▁डेल	-9881
तालों	-9882
ेशनों	-9883
▁दत्तक	-9884
▁देसाई	-9885
▁नाराज	-9886
▁वित्तपोषण	-9887
ंर	-9888
वश	-9889
आरसी	-9890
▁हैस	-9891
च्छेदन	-9892
▁गेहूं	-9893
▁स्थाई	-9894
▁विलियम	-9895
▁सम्बद्ध	-9896
▁सेटलमेंट	-9897
▁विनिर्देश	-9898
▁सीडब्ल्यू	-9899
if	-9900
पो	-9901
२१	-9902
▁Ar	-9903
ड़ित	-9904
पेयी	-9905
▁डकै	-9906
▁पेन	-9907
▁कमरा	-9908
▁गूगल	-9909
▁विध्व	-9910
▁वास्तु	-9911
▁टेलीविजन	-9912
▁प्रगतिशील	-9913
गाम	-9914
जाज	-9915
▁ha	-9916
▁जादू	-9917
▁दरें	-9918
▁ब्ला	-9919
▁खिलाड़ी	-9920
▁प्रांतीय	-9921
भगत	-9922
्तर	-9923
▁उछ	-9924
▁आज़	-9925
▁एसिड	-9926
▁ग्लो	-9927
▁मनीष	-9928
▁तम्बा	-9929
▁बेरोज	-9930
▁सीटें	-9931
▁कंप्यूट	-9932
▁क्षैतिज	-9933
▁प्रवर्ग	-9934
▁अधिकाधिक	-9935
धीर	-9936
्मी	-9937
▁कड़	-9938
▁कोह	-9939
▁नारी	-9940
▁लिखत	-9941
▁जॉर्ज	-9942
▁पहाड़	-9943
▁बेटों	-9944
▁मर्या	-9945
▁प्रवास	-9946
भिक	-9947
दत्त	-9948
ितरण	-9949
▁अका	-9950
▁अद्	-9951
▁घूं	-9952
▁भूक	-9953
▁सज्	-9954
▁एसके	-9955
▁गंतव्य	-9956
▁पाठकों	-9957
▁मजबूती	-9958
▁मांगों	-9959
▁समर्थक	-9960
▁निरूपित	-9961
▁सुपुर्द	-9962
▁संस्थापक	-9963
▁सर्वोपरि	-9964
▁त्रुटियों	-9965
eg	-9966
her	-9967
▁कन	-9968
ियाई	-9969
ॉक्स	-9970
▁हिट	-9971
▁पाती	-9972
▁वास्त	-9973
▁चुकाने	-9974
▁भरोसेमंद	-9975
ंचन	-9976
▁डूब	-9977
▁भूट	-9978
▁आईसी	-9979
▁बीएस	-9980
▁गुलाम	-9981
▁बच्चन	-9982
▁मैट्रिक्स	-9983
जूर	-9984
मलव	-9985
ादर	-9986
बंधी	-9987
राइड	-9988
ाम्प	-9989
▁Sat	-9990
र्ध्व	-9991
▁अमीर	-9992
▁प्रगा	-9993
▁अनुभवों	-9994
▁उपयोक्ता	-9995
▁साझीदारी	-9996
▁प्रतियोगी	-9997
▁संस्थापित	-9998
ढे	-9999
य्या	-10000
▁खेप	-10001
▁चौथी	-10002
▁बुरे	-10003
▁वारा	-10004
▁विषम	-10005
▁सीएल	-10006
▁लगेगा	-10007
▁पसंदीदा	-10008
▁हाउसिंग	-10009
▁प्रजातियों	-10010
केल	-10011
िमी	-10012
▁पढ़ी	-10013
▁पकड़े	-10014
▁सनातन	-10015
▁तत्परता	-10016
▁सौहार्दपूर्ण	-10017
▁con	-10018
वर्धन	-10019
▁कपास	-10020
▁लाइट	-10021
▁साझी	-10022
▁एमओयू	-10023
▁एहसास	-10024
▁खर्चे	-10025
▁डालता	-10026
▁नतीजा	-10027
▁भूखंडों	-10028
▁रामचंद्र	-10029
▁एक्सटेंशन	-10030
▁सत्याग्रह	-10031
नद	-10032
▁Mah	-10033
र्जित	-10034
▁अभिल	-10035
वृत्ति	-10036
▁खेलने	-10037
▁विकार	-10038
▁हटाना	-10039
▁गम्भीर	-10040
▁पवित्रता	-10041
▁Mad	-10042
▁पीए	-10043
रूपता	-10044
▁रेशम	-10045
▁संकु	-10046
▁दशमलव	-10047
▁पिटाई	-10048
▁लार्ड	-10049
▁प्रदाह	-10050
क्यू	-10051
ावधि	-10052
चियों	-10053
▁एचपी	-10054
▁क्री	-10055
▁बादल	-10056
▁ओबामा	-10057
▁क्राल	-10058
▁मास्ट	-10059
▁नियन्त	-10060
▁शासकीय	-10061
ik	-10062
▁मथ	-10063
वर्ग	-10064
्वाइ	-10065
▁इधर	-10066
▁चंप	-10067
▁असंख	-10068
▁वर्क	-10069
▁दोषों	-10070
▁राहुल	-10071
▁गरीबों	-10072
▁ट्रेडिंग	-10073
▁प्रस्थान	-10074
▁श्रीलंका	-10075
हि	-10076
ेली	-10077
▁आओ	-10078
▁कुश	-10079
▁बास	-10080
▁किसने	-10081
▁प्रभा	-10082
▁कठोरता	-10083
▁तिमाही	-10084
▁प्रमोट	-10085
▁शास्ति	-10086
▁अपूरणीय	-10087
▁बीमारियों	-10088
चिव	-10089
▁co	-10090
▁कत	-10091
▁ऑयल	-10092
▁कुर	-10093
▁पिक	-10094
▁फौज	-10095
स्कृत	-10096
▁किले	-10097
▁तमाम	-10098
▁अरुणा	-10099
▁कार्ट	-10100
▁सभाओं	-10101
▁स्केल	-10102
▁गतिशील	-10103
▁रंगमंच	-10104
▁महिलाएं	-10105
▁चार्टर्ड	-10106
▁निर्देशक	-10107
▁श्रीनिवास	-10108
▁PDD	-10109
▁अजन	-10110
वर्तन	-10111
▁धीमी	-10112
▁यज्ञ	-10113
ुद्दीन	-10114
▁अतिथि	-10115
▁एसएचओ	-10116
▁जीवंत	-10117
▁भागवत	-10118
▁विषयक	-10119
▁फंसाने	-10120
▁दर्शाते	-10121
▁बाजारों	-10122
▁सूचकांक	-10123
▁रेखांकित	-10124
▁भि	-10125
▁लची	-10126
▁शौच	-10127
▁दादी	-10128
▁परिन	-10129
▁बनकर	-10130
▁समीप	-10131
▁जितने	-10132
▁एल्गोर	-10133
▁प्रभावों	-10134
▁प्राणियों	-10135
▁भुवनेश्वर	-10136
ाहट	-10137
र्चा	-10138
▁औरत	-10139
▁अय्य	-10140
▁टैरिफ	-10141
▁जोड़ना	-10142
▁निकाली	-10143
▁प्रदीप	-10144
▁अनुपूरक	-10145
▁एजुकेशन	-10146
▁ट्रांसफर	-10147
▁मंत्रिमंडल	-10148
▁विसंगतियां	-10149
टॉप	-10150
न्च	-10151
ुलन	-10152
कांत	-10153
धर्म	-10154
शिला	-10155
▁BAN	-10156
▁डाइ	-10157
▁गन्ने	-10158
▁सर्जन	-10159
▁करवाने	-10160
▁कैलेंडर	-10161
▁मिलीभगत	-10162
▁सहभागिता	-10163
▁केन्द्रित	-10164
ea	-10165
ीत	-10166
फिक	-10167
शेर	-10168
साम	-10169
▁नॉ	-10170
▁AGE	-10171
▁गली	-10172
▁दां	-10173
▁ह्य	-10174
▁मिलन	-10175
▁विरा	-10176
▁सैंट	-10177
प्रदेश	-10178
▁कसौटी	-10179
▁दिशाओं	-10180
▁सृष्टि	-10181
▁देशवासियों	-10182
▁प्रतिपादित	-10183
▁अर्थशास्त्र	-10184
▁हरी	-10185
▁बीबी	-10186
▁मनोहर	-10187
▁श्वसन	-10188
▁बेदखली	-10189
▁महर्षि	-10190
▁रघुनाथ	-10191
▁तम्बाकू	-10192
OD	-10193
▁AD	-10194
ोत्स	-10195
▁खरा	-10196
▁फेर	-10197
▁शाक	-10198
ताबिक	-10199
ुलेशन	-10200
▁कपूर	-10201
▁दयाल	-10202
पत्रों	-10203
▁विराम	-10204
▁विहार	-10205
▁एकतरफा	-10206
▁करेंगी	-10207
▁मणिपुर	-10208
▁शास्त्रीय	-10209
LI	-10210
SA	-10211
डऋ	-10212
विस	-10213
शंस	-10214
▁जौ	-10215
राने	-10216
▁Ind	-10217
▁com	-10218
▁ईंट	-10219
▁नाना	-10220
▁भवनों	-10221
▁ठहराते	-10222
▁जमींदार	-10223
▁प्रगाढ़	-10224
ीठ	-10225
णित	-10226
एमएस	-10227
न्ता	-10228
▁खाल	-10229
शिल्प	-10230
▁रिस्प	-10231
▁सेंटी	-10232
▁समन्वित	-10233
▁अस्वीकृत	-10234
▁wp	-10235
▁जह	-10236
▁अवध	-10237
▁घेर	-10238
▁मैप	-10239
ापनों	-10240
▁प्रॉप	-10241
▁सिंधु	-10242
▁प्रवाहित	-10243
▁पुरस्कारों	-10244
रथ	-10245
डों	-10246
▁हन	-10247
विता	-10248
▁कुं	-10249
▁सरो	-10250
वाड़ी	-10251
▁मंडी	-10252
▁मरीज	-10253
▁दर्शक	-10254
▁बनर्जी	-10255
▁विजेता	-10256
▁अवधारित	-10257
▁निराधार	-10258
▁मुताबिक	-10259
▁सामर्थ्य	-10260
▁पारिस्थित	-10261
UM	-10262
▁Mo	-10263
▁लट	-10264
▁भूप	-10265
▁मौन	-10266
▁विय	-10267
तीकरण	-10268
▁एनसीटी	-10269
▁पीडीएफ	-10270
▁मतदाताओं	-10271
▁पुनर्निर्माण	-10272
थल	-10273
ल्ले	-10274
स्वी	-10275
▁कमर	-10276
▁संल	-10277
्रपान	-10278
▁जगत्	-10279
▁बनते	-10280
▁बलों	-10281
▁मल्ल	-10282
▁माफी	-10283
निर्देश	-10284
▁खिड़की	-10285
▁मुद्रण	-10286
▁समीचीन	-10287
▁व्याप्त	-10288
▁सापेक्ष	-10289
▁डेवलपमेंट	-10290
EV	-10291
ँजी	-10292
▁नद	-10293
▁आलम	-10294
▁ज़ि	-10295
▁मादक	-10296
▁खोलें	-10297
▁मिश्र	-10298
▁अर्पित	-10299
▁नर्मदा	-10300
▁प्रिवी	-10301
ुद	-10302
ERA	-10303
पंच	-10304
रोस	-10305
▁DR	-10306
▁गिल	-10307
▁ताम	-10308
▁राइ	-10309
▁अण्ड	-10310
▁एमआर	-10311
▁सीटी	-10312
▁मुस्क	-10313
▁बलिदान	-10314
▁हैसियत	-10315
▁अवशोषित	-10316
▁स्वीकार्यता	-10317
▁परिसंपत्तियों	-10318
▁गत	-10319
▁रेज	-10320
▁इनसे	-10321
▁कटाई	-10322
▁स्ना	-10323
स्तानी	-10324
▁लापता	-10325
▁अशुद्ध	-10326
▁तुरन्त	-10327
▁संचिका	-10328
▁सर्किट	-10329
▁स्वतन्त्र	-10330
td	-10331
ang	-10332
टिया	-10333
पुरी	-10334
▁CPC	-10335
▁काशी	-10336
प्रकाश	-10337
▁आँखों	-10338
▁घटनाएं	-10339
▁महावीर	-10340
▁हनुमान	-10341
▁ग्राउंड	-10342
▁हार्डवेयर	-10343
▁कार्यात्मक	-10344
ess	-10345
तरी	-10346
ीयर	-10347
▁IS	-10348
▁अनो	-10349
▁छिद्र	-10350
▁राधाक	-10351
▁साधना	-10352
▁एकीकरण	-10353
▁लड़कों	-10354
▁कार्यकलापों	-10355
▁ओह	-10356
▁SAR	-10357
▁The	-10358
▁आँक	-10359
▁पटल	-10360
▁चारा	-10361
▁फ्री	-10362
▁मधुर	-10363
▁रत्न	-10364
▁अवसाद	-10365
▁तुलसी	-10366
▁भयानक	-10367
▁मैक्स	-10368
▁कहलाता	-10369
▁पृष्ठों	-10370
▁अप्रत्या	-10371
▁प्रतिस्पर्धी	-10372
▁अन्तर्राष्ट्रीय	-10373
पने	-10374
▁गौण	-10375
▁शुष	-10376
▁रिसी	-10377
▁शवों	-10378
▁सुने	-10379
रूद्दीन	-10380
▁असुविधा	-10381
▁उद्यमियों	-10382
▁मनोवैज्ञानिक	-10383
ंगली	-10384
्योर	-10385
▁उलझ	-10386
▁दाई	-10387
▁उतने	-10388
▁बस्त	-10389
धारियों	-10390
▁डिक्शन	-10391
▁कुटुम्ब	-10392
▁चित्रों	-10393
▁सरकारें	-10394
▁ऑस्ट्रेलिया	-10395
जाक	-10396
▁Vs	-10397
▁तित	-10398
▁नॉन	-10399
▁सीई	-10400
ालैंड	-10401
▁उड़ा	-10402
▁सीबी	-10403
▁विचारणीय	-10404
▁Champaran	-10405
dl	-10406
यित	-10407
देही	-10408
▁गों	-10409
▁छंद	-10410
▁जोन	-10411
▁आरके	-10412
▁गुहा	-10413
▁मवेश	-10414
▁माइन	-10415
▁शाही	-10416
क्साइड	-10417
▁ठहराव	-10418
▁दीवान	-10419
▁प्रको	-10420
▁कार्यपाल	-10421
▁डेस्कटॉप	-10422
ैश	-10423
ोव	-10424
डेट	-10425
▁पण	-10426
्राब	-10427
▁तौल	-10428
▁पैक	-10429
▁डीवी	-10430
▁लेआउट	-10431
▁असहमति	-10432
▁आरपीसी	-10433
▁नारियल	-10434
▁शासकों	-10435
▁रूपान्त	-10436
▁पद्धतियों	-10437
एव	-10438
चन्द	-10439
▁बेज	-10440
▁मैक	-10441
थियों	-10442
▁रूचि	-10443
साधारण	-10444
▁एनआईटी	-10445
▁अद्वितीय	-10446
▁परीक्षाओं	-10447
जुए	-10448
लब्ध	-10449
▁आंब	-10450
▁धनी	-10451
▁नरस	-10452
▁आशीष	-10453
▁लैंड	-10454
▁पढ़ें	-10455
▁रस्सी	-10456
▁पांचवें	-10457
▁प्रादेश	-10458
▁डिक्शनरी	-10459
बुक	-10460
▁मौल	-10461
मानों	-10462
▁सीसी	-10463
▁सैयद	-10464
▁क्लास	-10465
▁जिसमे	-10466
▁हिंसक	-10467
▁प्रौढ़	-10468
▁बैलेंस	-10469
▁विक्रम	-10470
▁विचलित	-10471
▁अभिभावक	-10472
▁संप्रभु	-10473
▁आनुवंशिक	-10474
OC	-10475
ंगर	-10476
बिन	-10477
▁MR	-10478
वेली	-10479
▁भाज	-10480
▁आलेख	-10481
▁लीटर	-10482
▁सांठ	-10483
▁सेकंड	-10484
▁उत्तरार्	-10485
▁प्रस्तावक	-10486
eal	-10487
▁As	-10488
▁ढाँ	-10489
▁तंज	-10490
▁गयीं	-10491
▁उपद्र	-10492
▁जगहों	-10493
▁पक्षीय	-10494
▁व्यक्तिपरक	-10495
थु	-10496
प्ट	-10497
्की	-10498
▁अनभ	-10499
▁ऋणी	-10500
▁वात	-10501
▁औजार	-10502
▁पच्च	-10503
▁अभिया	-10504
▁टकराव	-10505
▁मानों	-10506
▁साहिब	-10507
▁निकटता	-10508
▁प्रचलन	-10509
▁प्रमुखों	-10510
▁संक्रिया	-10511
ंथि	-10512
णता	-10513
ध्व	-10514
,000	-10515
फीति	-10516
ोजकों	-10517
ेंडेंट	-10518
▁अन्तः	-10519
▁एनएसई	-10520
▁घूंघट	-10521
▁तेलुगु	-10522
▁पूर्वक	-10523
▁विश्राम	-10524
▁संपादित	-10525
▁अविभाजित	-10526
▁जबरदस्ती	-10527
▁निष्क्रियता	-10528
▁धूप	-10529
▁वेल	-10530
रोहित	-10531
▁बदलते	-10532
▁समझती	-10533
▁हेरफेर	-10534
▁पुनर्जी	-10535
▁स्मार्ट	-10536
▁कछ	-10537
▁अधू	-10538
▁गहने	-10539
▁सन्त	-10540
▁लक्षणों	-10541
▁आकाशवाणी	-10542
▁अस्पष्टता	-10543
ew	-10544
▁फैली	-10545
▁गन्ना	-10546
▁बदलें	-10547
▁सोचना	-10548
▁छोड़ना	-10549
▁प्रमोद	-10550
▁सुलझाने	-10551
▁अप्रत्याशित	-10552
ATE	-10553
सनी	-10554
▁एनसी	-10555
▁राशन	-10556
▁पाण्ड	-10557
▁मल्टी	-10558
▁अंशदान	-10559
▁जोड़कर	-10560
▁पहुँचने	-10561
▁रवींद्र	-10562
बेल	-10563
्तन	-10564
▁ओल	-10565
आईडी	-10566
लापन	-10567
▁शैल	-10568
▁आर्ट	-10569
▁एम्ब	-10570
▁पैदल	-10571
▁अप्रा	-10572
▁इमारतों	-10573
▁शीघ्रता	-10574
▁प्रतिष्ठानों	-10575
EE	-10576
ाणु	-10577
▁पस	-10578
एससी	-10579
धाना	-10580
▁जनक	-10581
▁मला	-10582
▁होश	-10583
राबरी	-10584
▁शुष्क	-10585
▁आत्मनि	-10586
▁मानहानि	-10587
ip	-10588
ंटू	-10589
कने	-10590
डोर	-10591
िगर	-10592
▁एंव	-10593
▁बुश	-10594
बोर्ड	-10595
▁बर्तन	-10596
▁अवयवों	-10597
▁प्रवासी	-10598
▁संकेतों	-10599
▁प्रॉपर्टी	-10600
▁साक्षियों	-10601
▁क्रियाकलाप	-10602
▁देनदारियों	-10603
एलए	-10604
ड्स	-10605
▁Sa	-10606
ार्क	-10607
▁जीप	-10608
▁मीन	-10609
▁क्षे	-10610
▁बांस	-10611
▁मेनन	-10612
ापूर्ण	-10613
▁श्रवण	-10614
▁सांसद	-10615
▁दीक्षा	-10616
▁वायर्स	-10617
▁डेटाबेस	-10618
▁पासवर्ड	-10619
▁बोलियों	-10620
▁वसीयतना	-10621
▁अनौपचारिक	-10622
▁बुद्धिमान	-10623
▁पर्यवेक्षी	-10624
uri	-10625
ड़ने	-10626
ायगी	-10627
ैर्य	-10628
▁Ltd	-10629
▁गाल	-10630
▁डेन	-10631
▁तरा	-10632
▁संश	-10633
▁वादे	-10634
▁विगत	-10635
▁घर्षण	-10636
▁पर्चे	-10637
▁वर्षो	-10638
▁श्वास	-10639
▁गर्भाव	-10640
▁मृतकों	-10641
▁विचारक	-10642
▁औपचारिकता	-10643
▁प्रादेशिक	-10644
rs	-10645
गाल	-10646
▁कैश	-10647
▁फूट	-10648
ार्मा	-10649
▁पैंट	-10650
▁ललित	-10651
▁Distt	-10652
▁इशारे	-10653
▁परजीवी	-10654
▁अस्पतालों	-10655
▁संभावनाएं	-10656
▁लाता	-10657
▁घोड़े	-10658
▁लिपिक	-10659
▁सशर्त	-10660
▁स्वराज	-10661
▁ऑपरेटरों	-10662
▁नागरिकता	-10663
▁परिपूर्ण	-10664
▁हलफनामों	-10665
▁बदरूद्दीन	-10666
ँस	-10667
AND	-10668
दाद	-10669
दिर	-10670
▁नट	-10671
▁पग	-10672
▁WANo	-10673
▁बेचे	-10674
▁वापिस	-10675
▁वीर्य	-10676
▁कुर्की	-10677
▁रिफाइन	-10678
▁समयबद्ध	-10679
▁उदाहरणार्थ	-10680
▁आस्ट्रेलिया	-10681
किक	-10682
▁नींद	-10683
▁साहा	-10684
▁सूखे	-10685
▁अपीलें	-10686
▁असंख्य	-10687
▁नाटकीय	-10688
▁कंट्राब	-10689
▁कलात्मक	-10690
▁प्रतिकर	-10691
▁एकाधिकार	-10692
▁युक्तियुक्त	-10693
्रत	-10694
▁अड़	-10695
▁जूट	-10696
▁अवयव	-10697
▁बंधे	-10698
▁यूएस	-10699
▁संचरण	-10700
▁उद्यमी	-10701
▁डंपिंग	-10702
▁पोर्टल	-10703
▁दर्शकों	-10704
▁पहचानने	-10705
▁प्रमाणन	-10706
▁भूतपूर्व	-10707
क्य	-10708
्विक	-10709
▁नाश	-10710
ंक्शन	-10711
शास्त	-10712
▁एंटर	-10713
▁फलों	-10714
ध्यक्ष	-10715
्वाइंट	-10716
ष्ट्रपति	-10717
▁टुकड़ों	-10718
▁दोस्तों	-10719
▁सैंट्रो	-10720
▁स्वदेशी	-10721
▁काउंसलिंग	-10722
घाट	-10723
ब्रे	-10724
▁बगी	-10725
पल्ली	-10726
युद्ध	-10727
▁लेटर	-10728
▁जांचा	-10729
▁पंजीयक	-10730
▁दंडादेश	-10731
▁स्थानाप	-10732
▁धूम्रपान	-10733
▁राधाकृष्ण	-10734
मरी	-10735
लेन	-10736
▁करण	-10737
क्रेट	-10738
वृत्त	-10739
▁समेकन	-10740
▁अद्भुत	-10741
▁फ़ॉन्ट	-10742
▁सोवियत	-10743
▁निरन्तर	-10744
▁निःशुल्क	-10745
▁समितियां	-10746
णसी	-10747
ौला	-10748
सम्म	-10749
▁टांग	-10750
▁सुलभ	-10751
▁अनैतिक	-10752
▁स्वयंसे	-10753
NA	-10754
SL	-10755
हे	-10756
िसा	-10757
ूति	-10758
डियों	-10759
▁आच्छ	-10760
▁इनाम	-10761
▁दुरा	-10762
▁स्वार्थ	-10763
२२	-10764
▁फि	-10765
पीएफ	-10766
▁फास	-10767
घोषणा	-10768
▁अमित	-10769
▁कोटि	-10770
▁देशभ	-10771
▁ट्रां	-10772
▁खुलासे	-10773
▁निभाने	-10774
▁निवेशक	-10775
▁प्रेमी	-10776
▁प्रोफ़	-10777
▁परिसीमा	-10778
▁कार्यभार	-10779
▁विवेकाधिकार	-10780
CL	-10781
उथ	-10782
िप्र	-10783
▁app	-10784
▁vii	-10785
▁केवी	-10786
▁भलाई	-10787
▁राणा	-10788
▁वनों	-10789
▁कदमों	-10790
▁राजपू	-10791
क्षाधीन	-10792
िफिकेशन	-10793
▁द्रव्य	-10794
▁महाकाव	-10795
▁पोस्टिंग	-10796
SS	-10797
रोह	-10798
ोरम	-10799
▁SCR	-10800
▁अटल	-10801
▁एफए	-10802
▁वान	-10803
ांजलि	-10804
▁रोने	-10805
ंगाबाद	-10806
▁कमाने	-10807
▁क्रोध	-10808
▁कैरियर	-10809
▁नागपुर	-10810
▁आंबेडकर	-10811
▁मध्यवर्ती	-10812
्पर	-10813
क्के	-10814
प्पल	-10815
▁ऊंट	-10816
▁एमए	-10817
फोर्ड	-10818
▁एलपी	-10819
▁त्रि	-10820
▁रूसी	-10821
▁रोटी	-10822
▁भूटान	-10823
▁अर्द्ध	-10824
▁मुखिया	-10825
▁एमएसएमई	-10826
hu	-10827
नेल	-10828
एनएल	-10829
▁चोर	-10830
▁Addl	-10831
▁अतएव	-10832
▁अर्ह	-10833
▁भर्त	-10834
▁शासी	-10835
क्रमित	-10836
▁अपलोड	-10837
▁आंखें	-10838
▁एआईसी	-10839
▁जनजातीय	-10840
▁प्रोफाइल	-10841
▁द्वारकानाथ	-10842
▁हिन्दुस्तान	-10843
टेन	-10844
▁NE	-10845
▁डेम	-10846
योजित	-10847
▁जीडी	-10848
▁जूते	-10849
▁महाले	-10850
▁किनारों	-10851
▁वाराणसी	-10852
▁इंस्ट्रू	-10853
▁विनाशकारी	-10854
कीर	-10855
▁SA	-10856
▁झलक	-10857
▁टैग	-10858
ापत्र	-10859
▁आईएस	-10860
▁नोडल	-10861
▁फैले	-10862
▁फास्ट	-10863
▁हेमंत	-10864
तापूर्ण	-10865
▁राज़्य	-10866
▁रात्रि	-10867
▁स्टाम्प	-10868
▁क्रियाओं	-10869
▁मास्टर्स	-10870
▁क्षतिग्रस्त	-10871
▁कार्यकर्ताओं	-10872
माल	-10873
ारत	-10874
▁दाँ	-10875
▁पंप	-10876
▁रबर	-10877
▁रूक	-10878
▁हमसे	-10879
▁एक्से	-10880
▁चक्कर	-10881
▁डालकर	-10882
▁धारित	-10883
▁चुपचाप	-10884
▁यूनिवर्सिटी	-10885
ायु	-10886
ारह	-10887
ोगा	-10888
▁GO	-10889
फ़्ट	-10890
शेखर	-10891
ालाल	-10892
▁जुड	-10893
▁धीर	-10894
▁पंथ	-10895
▁बूट	-10896
▁भली	-10897
▁महज	-10898
चिकित	-10899
▁एफटी	-10900
▁त्यो	-10901
▁बीयर	-10902
▁सत्त	-10903
▁स्टी	-10904
▁बुलाई	-10905
▁भित्त	-10906
▁आयातित	-10907
▁बालकों	-10908
▁भौतिकी	-10909
▁वसूलने	-10910
▁तीव्रता	-10911
▁यथासंभव	-10912
▁निमंत्रण	-10913
▁परिचालित	-10914
▁सहकारिता	-10915
▁कार्यवाहियां	-10916
aw	-10917
ty	-10918
एक	-10919
ईटी	-10920
तीक	-10921
हाद	-10922
▁पडे	-10923
▁वेग	-10924
▁खिंच	-10925
▁भाभी	-10926
र्निया	-10927
▁अलार्म	-10928
▁वाशिंग	-10929
ेट्रिक्स	-10930
▁ज्योतिर्म	-10931
▁अप्राकृतिक	-10932
WP	-10933
III	-10934
बों	-10935
वत्	-10936
ोपै	-10937
▁AT	-10938
ार्टर	-10939
▁पारे	-10940
▁सर्प	-10941
ष्णुता	-10942
▁चाहें	-10943
▁निर्म	-10944
▁बारिश	-10945
ार्श्विक	-10946
▁एनएसईएल	-10947
▁लू	-10948
पानी	-10949
ेयरी	-10950
▁थोप	-10951
▁पदक	-10952
ेन्यू	-10953
▁टीआई	-10954
्रीकरण	-10955
▁चौथाई	-10956
▁बनायी	-10957
▁सरलता	-10958
▁उत्थान	-10959
▁लक्षित	-10960
▁सिक्किम	-10961
▁पहुंचाया	-10962
▁दुर्भावनापूर्ण	-10963
eri	-10964
फुल	-10965
ारस	-10966
एफआर	-10967
न्दन	-10968
▁अनर	-10969
▁चेन	-10970
▁बसा	-10971
▁बायो	-10972
▁मदुर	-10973
▁उंगली	-10974
▁डेविड	-10975
▁कूटशब्द	-10976
▁प्वाइंट	-10977
▁लाभप्रद	-10978
▁गुणसूत्र	-10979
▁स्पष्टता	-10980
▁प्रमाणीकरण	-10981
kar	-10982
▁सऋ	-10983
सिले	-10984
▁खैर	-10985
▁लौह	-10986
▁अंतत	-10987
▁बजाए	-10988
▁घुमाव	-10989
प्रणाली	-10990
िष्णुता	-10991
▁तोड़ने	-10992
▁बाधाओं	-10993
▁संपादन	-10994
▁संसाधित	-10995
▁प्लानिंग	-10996
▁टिप्पणियां	-10997
▁अनी	-10998
▁उमा	-10999
▁निब	-11000
▁क्लॉ	-11001
▁चाहा	-11002
▁लर्न	-11003
▁वक्र	-11004
▁शिवा	-11005
▁चांदी	-11006
▁डेयरी	-11007
▁ध्रुव	-11008
▁अंसारी	-11009
▁चंद्रा	-11010
▁टिकटों	-11011
▁प्रिंटर	-11012
▁समानांतर	-11013
असल	-11014
ोटो	-11015
▁हू	-11016
▁सने	-11017
िश्रण	-11018
▁पांव	-11019
▁पीएच	-11020
▁महंगा	-11021
▁हालात	-11022
▁रिसीवर	-11023
▁सेवाएँ	-11024
▁विलक्षण	-11025
▁संख़्या	-11026
▁पर्यवेक्षक	-11027
▁प्रौद्योगिकियों	-11028
वर्	-11029
▁AB	-11030
▁CBI	-11031
▁मुंस	-11032
▁एलपीए	-11033
▁खतरों	-11034
▁पिछला	-11035
▁त्योहार	-11036
▁नीतियां	-11037
▁शब्दावली	-11038
▁सेंटीमीटर	-11039
▁मांसपेशियों	-11040
ुखी	-11041
्का	-11042
▁डू	-11043
▁दखल	-11044
▁आएगी	-11045
▁खोले	-11046
▁मदों	-11047
▁सिंघ	-11048
▁एरिया	-11049
▁करुणा	-11050
▁बोलता	-11051
▁जुटाने	-11052
▁पीडीडी	-11053
▁शान्ति	-11054
▁अनुमानों	-11055
▁परंपराओं	-11056
▁सम्भावना	-11057
ंड़	-11058
▁Al	-11059
क्षर	-11060
▁एनआर	-11061
▁पोषक	-11062
▁छोड़े	-11063
▁तुर्क	-11064
्लीकेशन	-11065
▁काउंसल	-11066
▁तयशुदा	-11067
▁बिलियन	-11068
▁साइटों	-11069
▁कॉरपोरेशन	-11070
एनओ	-11071
ोली	-11072
▁AN	-11073
ल्यू	-11074
वाने	-11075
▁ओएस	-11076
▁नली	-11077
▁अनुभ	-11078
▁जजों	-11079
▁नागर	-11080
▁वाणी	-11081
िस्तानी	-11082
▁अनुयाय	-11083
▁नामकरण	-11084
▁सीमाएं	-11085
▁मॉड्यूल	-11086
▁व्यवहार्य	-11087
▁गर्भावस्था	-11088
▁एट	-11089
ियॉँ	-11090
▁पायी	-11091
▁दरअसल	-11092
▁मिलान	-11093
▁सुधीर	-11094
▁अग्रसर	-11095
▁दिलाया	-11096
▁पर्यटक	-11097
▁प्रतिष	-11098
▁व्यतीत	-11099
▁काश्मीर	-11100
▁बेटियों	-11101
▁अंतर्विष्ट	-11102
hay	-11103
ुवा	-11104
▁दाल	-11105
▁रक्षक	-11106
▁ग्लोबल	-11107
▁स्पेशल	-11108
ंदे	-11109
नीस	-11110
▁जिम	-11111
ग्राम	-11112
▁अम्ब	-11113
▁नीला	-11114
▁मोनो	-11115
ान्वित	-11116
▁जमाने	-11117
▁पाटिल	-11118
▁सुप्र	-11119
▁आबंटित	-11120
▁आक्रामक	-11121
▁कंस्ट्र	-11122
▁जवाबदेही	-11123
▁परिवीक्षाधीन	-11124
हम	-11125
ort	-11126
बुल	-11127
बर्ग	-11128
▁नूर	-11129
▁पलट	-11130
▁पों	-11131
▁कुंज	-11132
▁मतों	-11133
▁अजनबी	-11134
▁आलिया	-11135
▁खातून	-11136
▁प्रात	-11137
▁यमुना	-11138
▁यौगिक	-11139
▁संजाल	-11140
▁संदीप	-11141
▁सश्रम	-11142
▁रखेंगे	-11143
▁राजकीय	-11144
फ़ा	-11145
रीद	-11146
लीम	-11147
विल	-11148
▁CM	-11149
▁मता	-11150
▁वेट	-11151
▁राधा	-11152
▁सोलह	-11153
▁हीरा	-11154
▁अतिशय	-11155
▁कोष्ठ	-11156
▁दोहरे	-11157
▁किराये	-11158
▁जहाजों	-11159
▁मुख़्य	-11160
▁सर्वथा	-11161
▁मेगावाट	-11162
▁विलंबित	-11163
▁कल्याणकारी	-11164
▁is	-11165
ालीस	-11166
▁Sun	-11167
▁घटी	-11168
▁भटक	-11169
▁ऑब्ज	-11170
▁ब्ले	-11171
▁एकांत	-11172
▁खजाने	-11173
▁स्राव	-11174
▁हिम्म	-11175
▁बेईमान	-11176
▁प्रैक्ट	-11177
▁विकल्पों	-11178
▁टेस्टेट्रिक्स	-11179
▁पैन	-11180
▁खोजा	-11181
▁मोटी	-11182
वालिया	-11183
रात	-11184
श्र	-11185
ावे	-11186
▁आभ	-11187
▁बुझ	-11188
तानों	-11189
▁अनवर	-11190
▁कचरे	-11191
▁गुला	-11192
▁मीना	-11193
▁पढ़ते	-11194
▁बेसिक	-11195
▁मेमोर	-11196
▁लिस्ट	-11197
▁वर्ल्ड	-11198
▁एआईसीटीई	-11199
▁भावनात्मक	-11200
०ख	-11201
▁सउ	-11202
▁बेक	-11203
द्वार	-11204
▁अमीन	-11205
▁आंगन	-11206
▁स्टाक	-11207
▁एनेक्स	-11208
▁दाहिनी	-11209
▁लागतों	-11210
▁औरंगाबाद	-11211
▁ट्रैक्टर	-11212
▁सांठगांठ	-11213
▁प्रतिबंधों	-11214
यता	-11215
रिज	-11216
ॉपी	-11217
▁ढी	-11218
घाती	-11219
ोदरा	-11220
▁लिफ	-11221
ट्रिक	-11222
श्यों	-11223
▁अपरा	-11224
▁कोटे	-11225
▁हरित	-11226
▁खाड़ी	-11227
▁बहाना	-11228
▁मनगढ़	-11229
▁मूलतः	-11230
▁रंगों	-11231
▁अधिष्ठ	-11232
▁उपरांत	-11233
▁ऊर्ध्व	-11234
▁निर्मल	-11235
▁बागवानी	-11236
▁सिलसिले	-11237
▁भविष्यवाणी	-11238
▁संपार्श्विक	-11239
SR	-11240
ैड	-11241
iya	-11242
▁उग	-11243
ावार	-11244
ेम्प	-11245
▁कस्	-11246
▁खाई	-11247
▁ढूँ	-11248
▁निभ	-11249
▁मेध	-11250
▁वैन	-11251
▁शशि	-11252
▁किला	-11253
▁कुंद	-11254
▁नीले	-11255
▁बगैर	-11256
▁खुलने	-11257
▁गांजा	-11258
▁सीमांत	-11259
▁प्रथाओं	-11260
▁राधाकृष्णन	-11261
हू	-11262
ंकि	-11263
▁बिश	-11264
▁लहर	-11265
▁लगीं	-11266
▁जयपुर	-11267
▁भीतरी	-11268
▁वाष्प	-11269
▁हल्का	-11270
▁क्यूरी	-11271
▁निपटना	-11272
▁रेगिस्तान	-11273
हृ	-11274
▁अछ	-11275
▁वड	-11276
ख्ता	-11277
▁खुर	-11278
▁सान	-11279
▁आन्त	-11280
दृष्टि	-11281
▁रूल्स	-11282
▁अज्ञानता	-11283
ram	-11284
▁OA	-11285
नामी	-11286
▁गाज	-11287
▁रिली	-11288
▁असहाय	-11289
▁पुर्त	-11290
▁भयावह	-11291
▁अंतरंग	-11292
▁चुंबकीय	-11293
▁छुटकारा	-11294
▁पत्थरों	-11295
▁कॉरपोरेट	-11296
ard	-11297
रकों	-11298
▁स्फ	-11299
▁क्षय	-11300
▁छुपा	-11301
▁पारस	-11302
▁भूषण	-11303
▁समेत	-11304
▁पिल्ल	-11305
▁चटर्जी	-11306
▁सीमांकन	-11307
▁नागालैंड	-11308
▁एप्लीकेशन	-11309
▁संपूर्णता	-11310
sa	-11311
आइ	-11312
चनों	-11313
्लाई	-11314
▁जन्	-11315
▁डबल	-11316
▁छड़ी	-11317
▁दागी	-11318
▁दायी	-11319
▁पहना	-11320
▁वृहत	-11321
रीक्षक	-11322
▁कट्टरप	-11323
▁कैंटीन	-11324
▁लार्वा	-11325
▁मनगढ़ंत	-11326
▁व्यापकता	-11327
▁अनुयायियों	-11328
OL	-11329
▁शत	-11330
▁नां	-11331
▁RERA	-11332
▁तटीय	-11333
▁धुंध	-11334
▁रेंट	-11335
ुतीकरण	-11336
▁अड्डे	-11337
▁जरुरी	-11338
▁नजदीक	-11339
▁नाट्य	-11340
▁वैद्य	-11341
▁अकाउंट	-11342
▁खाद्या	-11343
▁प्रधाना	-11344
▁प्रतिरूप	-11345
▁कार्यशाला	-11346
CR	-11347
डक	-11348
ढा	-11349
ash	-11350
▁At	-11351
मुश्त	-11352
▁गोल्ड	-11353
▁करवाया	-11354
▁कोरिया	-11355
▁समुच्च	-11356
▁सीरियल	-11357
▁देखेंगे	-11358
▁प्रविष्टियां	-11359
ase	-11360
वात	-11361
▁ww	-11362
ोतरी	-11363
▁जनस	-11364
▁बाघ	-11365
ाइलों	-11366
▁भूतल	-11367
▁मामा	-11368
▁नाजुक	-11369
▁अंडमान	-11370
▁मंत्रि	-11371
▁उत्पादकों	-11372
▁स्टेटमेंट	-11373
▁कॉम्प्लेक्स	-11374
ंजक	-11375
फान	-11376
फिया	-11377
ेस्ट	-11378
▁SHO	-11379
▁ध्य	-11380
▁निध	-11381
▁पडा	-11382
ॉलिटन	-11383
▁ज़ोन	-11384
▁ख्याल	-11385
▁सेक्स	-11386
▁पुनर्भ	-11387
▁सुधारा	-11388
▁अपवादों	-11389
▁जल्दबाजी	-11390
▁पूर्वजों	-11391
▁नियन्त्रण	-11392
▁इंश्योरेंस	-11393
भीत	-11394
ogle	-11395
▁कलम	-11396
▁जोड	-11397
▁नवल	-11398
▁मोल	-11399
arpur	-11400
देशीय	-11401
▁अभया	-11402
▁आरएफ	-11403
▁इण्ड	-11404
▁कैसा	-11405
▁जंतु	-11406
▁बन्ध	-11407
▁बीघा	-11408
▁लाला	-11409
▁सिया	-11410
लिसिटर	-11411
▁ग्रिड	-11412
▁जरुरत	-11413
▁भयंकर	-11414
▁मदुरै	-11415
▁मैनेज	-11416
▁लिफाफ	-11417
▁विकेट	-11418
▁village	-11419
▁अनभिज्ञ	-11420
▁संवितरण	-11421
▁प्रभारित	-11422
▁आपत्तिजनक	-11423
▁विज्ञापित	-11424
२३	-11425
all	-11426
▁भद्र	-11427
▁मुहा	-11428
▁कन्या	-11429
▁धैर्य	-11430
▁निवेद	-11431
▁संघों	-11432
▁अनुज्ञ	-11433
▁लाइनों	-11434
▁लैंगिक	-11435
▁वाजपेयी	-11436
▁द्वितीयक	-11437
▁आर्बिट्रल	-11438
▁उत्परिवर्तन	-11439
ुगत	-11440
ण्डी	-11441
वर्ण	-11442
▁गुणक	-11443
▁दिखने	-11444
▁बनाएँ	-11445
▁बैठकर	-11446
▁बढ़ाते	-11447
▁प्रतिभाग	-11448
▁आधुनिकीकरण	-11449
और	-11450
गै	-11451
वधि	-11452
ेन्ट	-11453
▁रिए	-11454
र्मित	-11455
▁खादी	-11456
▁नायडू	-11457
▁मलयाल	-11458
▁क्लॉज़	-11459
▁बराबरी	-11460
▁मुनाफे	-11461
▁पुनर्जीवित	-11462
▁विरोधाभासों	-11463
▁इर	-11464
गुना	-11465
बिया	-11466
▁शिल	-11467
भावित	-11468
▁अनूप	-11469
▁केशव	-11470
▁डिवा	-11471
▁मंदी	-11472
▁सदमे	-11473
▁स्टे	-11474
▁Nagar	-11475
▁असत्य	-11476
▁इंसान	-11477
▁झुकाव	-11478
▁अंतररा	-11479
▁कमजोरी	-11480
▁जांचने	-11481
▁मेधावी	-11482
▁ग्रंथों	-11483
▁चमत्कार	-11484
▁संरचनात्मक	-11485
▁मेट्रोपॉलिटन	-11486
▁दुर्भाग्यपूर्ण	-11487
aa	-11488
शेष	-11489
▁मग	-11490
....	-11491
ंकार	-11492
▁कोच	-11493
▁धरा	-11494
▁सदर	-11495
▁Panc	-11496
▁एमवी	-11497
▁बहने	-11498
▁लगाव	-11499
▁सिवा	-11500
▁स्का	-11501
फ्रेंस	-11502
▁घटाकर	-11503
▁पूँजी	-11504
▁ब्रेक	-11505
▁रंगीन	-11506
▁निकटतम	-11507
▁महानगर	-11508
▁शक्तियाँ	-11509
TA	-11510
सस	-11511
ati	-11512
ँगा	-11513
▁IC	-11514
▁SRI	-11515
▁www	-11516
▁बिम	-11517
त्तूर	-11518
लीकरण	-11519
ेट्टी	-11520
▁युवक	-11521
▁वल्ल	-11522
▁सूखा	-11523
▁जीतने	-11524
▁सुचार	-11525
▁डीलरों	-11526
▁निकलते	-11527
▁पासवान	-11528
▁मैनेजर	-11529
▁अखबारों	-11530
▁प्रत्यु	-11531
▁अनुपलब्ध	-11532
▁अब्दुल्ला	-11533
▁रिपोर्टिंग	-11534
न्सी	-11535
▁असी	-11536
▁कमला	-11537
▁मापन	-11538
▁युसु	-11539
▁रूढ़	-11540
▁रोशन	-11541
▁हरीश	-11542
▁डिस्प	-11543
▁पावती	-11544
▁रोस्टर	-11545
▁सुनीता	-11546
▁मर्यादा	-11547
▁ठेकेदारों	-11548
▁LW	-11549
िपरि	-11550
्यवश	-11551
▁Man	-11552
▁लिस	-11553
▁वजी	-11554
▁ताना	-11555
▁आँखें	-11556
▁घुटने	-11557
स्थापना	-11558
▁सर्जरी	-11559
▁पंचायती	-11560
▁पहुंचना	-11561
▁स्त्रोत	-11562
▁नवीनीकृत	-11563
▁स्टेशनों	-11564
ICT	-11565
▁CRL	-11566
▁for	-11567
▁मदर	-11568
▁मन्	-11569
वस्था	-11570
▁घेरे	-11571
▁दुखद	-11572
▁जमीनी	-11573
▁पर्दा	-11574
▁बैटरी	-11575
▁बोलना	-11576
▁रियाय	-11577
▁विस्म	-11578
▁खींचने	-11579
▁जमीनों	-11580
▁Panchay	-11581
▁इकाइयां	-11582
▁एसोसिएट	-11583
▁विध्वंस	-11584
▁रामकृष्ण	-11585
▁कार्यपालक	-11586
▁गवर्नमेंट	-11587
▁आवश्यकताएं	-11588
सक	-11589
खने	-11590
डित	-11591
एक्स	-11592
▁MAN	-11593
▁राठ	-11594
▁रूट	-11595
▁डिपो	-11596
▁पल्ल	-11597
ज्ञानी	-11598
▁स्केच	-11599
▁सॉलिसिटर	-11600
फ़्त	-11601
ागार	-11602
▁ऊँच	-11603
▁घोल	-11604
▁लॉक	-11605
▁Shri	-11606
▁कुला	-11607
▁क्यो	-11608
▁तरंग	-11609
▁पायल	-11610
▁वैश्व	-11611
▁सावधि	-11612
▁सैद्ध	-11613
▁दांतों	-11614
▁दिखायी	-11615
▁सदियों	-11616
▁सेनाओं	-11617
▁कक्षाओं	-11618
▁Panchayat	-11619
रणी	-11620
०वें	-11621
▁उदर	-11622
▁मुज	-11623
▁सघन	-11624
▁टेबल	-11625
▁डेढ़	-11626
▁सुमन	-11627
लेरिया	-11628
ापूर्व	-11629
▁चालीस	-11630
▁डकैती	-11631
▁डायरे	-11632
▁तारों	-11633
▁बैंकर	-11634
▁मंचों	-11635
▁Google	-11636
▁आवृत्ति	-11637
▁संक्रमित	-11638
▁असिस्टेंट	-11639
▁मंत्रिपरि	-11640
▁क्रियाकलापों	-11641
ुए	-11642
ोच	-11643
▁मोन	-11644
▁शाहज	-11645
▁खानों	-11646
▁पड़ते	-11647
▁बहनों	-11648
▁सिंधी	-11649
▁हिम्मत	-11650
▁क्वार्टर	-11651
▁पूर्वानु	-11652
▁सुभाषबाबू	-11653
▁अंतःस्थापित	-11654
▁कॉन्ट्रैक्ट	-11655
दगी	-11656
ऊंगा	-11657
▁उकस	-11658
▁छठे	-11659
▁घिरा	-11660
▁जवान	-11661
▁दस्त	-11662
▁पीके	-11663
▁वेंक	-11664
▁बनाएं	-11665
▁बुखार	-11666
▁भ्रमण	-11667
▁स्टेज	-11668
▁अप्रति	-11669
▁गुमराह	-11670
▁हड्डियों	-11671
▁प्रारम्भिक	-11672
िथ्म	-11673
▁पला	-11674
▁मुक	-11675
▁अभिम	-11676
▁त्या	-11677
▁बैठी	-11678
▁दर्जे	-11679
▁परिपथ	-11680
▁मलयालम	-11681
▁अरुणाचल	-11682
▁अस्वीकार्य	-11683
▁हस्ताक्षरकर्ता	-11684
ंछ	-11685
ank	-11686
गाँव	-11687
वांछ	-11688
ृष्ठ	-11689
▁हता	-11690
रलैंड	-11691
ष्टिक	-11692
ृद्धि	-11693
▁कार्	-11694
▁चाबी	-11695
▁तेजा	-11696
▁मेनू	-11697
▁शिरा	-11698
▁चलेगा	-11699
▁निजाम	-11700
▁मनाने	-11701
ब्दियों	-11702
▁चट्टान	-11703
▁आदर्शों	-11704
▁दीक्षित	-11705
▁गोस्वामी	-11706
िओ	-11707
▁भट	-11708
पकों	-11709
साजी	-11710
▁एबी	-11711
ष्पीठ	-11712
▁लोकल	-11713
▁यार्ड	-11714
▁व्यंग	-11715
ोल्यूशन	-11716
▁शौचालय	-11717
▁अपमानित	-11718
▁एकमुश्त	-11719
▁तकनीकों	-11720
▁इस्लामिक	-11721
▁देवेंद्र	-11722
▁फॉरेंसिक	-11723
▁पड़ोसियों	-11724
ust	-11725
बड़	-11726
▁डु	-11727
▁दुस	-11728
्समैन	-11729
▁तेज़	-11730
▁दाईं	-11731
▁पीले	-11732
▁विज़	-11733
क्ष्मी	-11734
▁फारसी	-11735
▁स्थाय	-11736
▁हास्य	-11737
▁नवाचार	-11738
▁पाएंगे	-11739
▁मालिकाना	-11740
RA	-11741
मस	-11742
▁Am	-11743
▁लय	-11744
डियम	-11745
िज्म	-11746
▁थलग	-11747
▁हज़	-11748
▁कपिल	-11749
▁जीएम	-11750
▁डीएस	-11751
▁भेड़	-11752
▁वैसी	-11753
▁अंकुश	-11754
▁फैलाव	-11755
▁ज़िम्म	-11756
▁ऑक्सीजन	-11757
▁दोषियों	-11758
▁पहुंचता	-11759
▁न्यायपीठ	-11760
▁सर्विसेज	-11761
▁वसीयतनामा	-11762
फू	-11763
ESI	-11764
ali	-11765
▁SL	-11766
▁अड	-11767
▁फट	-11768
इयाँ	-11769
ष्मा	-11770
▁करन	-11771
▁कूल	-11772
द्रता	-11773
्यकों	-11774
▁अनार	-11775
▁उठने	-11776
▁ज़ोर	-11777
▁बोनस	-11778
▁विका	-11779
पतियों	-11780
▁निविदाओं	-11781
▁परिष्कृत	-11782
▁अभ्यर्थियों	-11783
▁नक़	-11784
▁रोब	-11785
▁सेठ	-11786
ंडिंग	-11787
▁अष्ट	-11788
▁एचएल	-11789
▁गाने	-11790
▁सुखद	-11791
▁हर्ड	-11792
▁कारित	-11793
▁भूकंप	-11794
▁हफ्ते	-11795
▁अभिषेक	-11796
▁उकसाने	-11797
▁ताजमहल	-11798
▁ग्रेजुए	-11799
▁प्रमोटर	-11800
▁महासचिव	-11801
▁उद्घोषणा	-11802
▁विस्थापित	-11803
▁आतंकवादियों	-11804
▁पुनर्प्राप्त	-11805
पीओ	-11806
ेंग	-11807
▁रॉ	-11808
हाली	-11809
ोग्य	-11810
▁जले	-11811
▁झेल	-11812
▁नौका	-11813
▁पेंट	-11814
▁बीजी	-11815
▁क्रोम	-11816
▁खुराक	-11817
▁चौड़ी	-11818
▁बैठता	-11819
▁वर्षीय	-11820
▁परिसरों	-11821
HI	-11822
rd	-11823
िती	-11824
▁Mr	-11825
▁ae	-11826
श्री	-11827
▁घसी	-11828
▁रत्	-11829
▁ज्वर	-11830
▁मृदा	-11831
▁सीने	-11832
कुमारी	-11833
▁पृथक्	-11834
▁वायुम	-11835
▁सहारे	-11836
▁पच्चीस	-11837
▁फर्स्ट	-11838
▁किताबें	-11839
ताई	-11840
स्से	-11841
▁Nar	-11842
▁ताक	-11843
▁नशे	-11844
▁कारप	-11845
▁सउदी	-11846
▁गुलाब	-11847
▁पाउडर	-11848
▁फील्ड	-11849
▁लिखें	-11850
▁नौसेना	-11851
▁उत्तेजना	-11852
▁जघ	-11853
▁ढा	-11854
सिया	-11855
▁लिट	-11856
ितानी	-11857
▁पत्न	-11858
▁परमा	-11859
▁समनु	-11860
ानियों	-11861
▁भयभीत	-11862
▁अंधेरे	-11863
▁कम्युन	-11864
▁जापानी	-11865
▁शृंखला	-11866
▁कार्मिकों	-11867
▁परिपक्वता	-11868
▁पीट	-11869
▁मरण	-11870
नागरी	-11871
▁अन्ध	-11872
▁एनएच	-11873
▁गाली	-11874
▁चिट्	-11875
▁बाँध	-11876
▁साधु	-11877
▁मक्का	-11878
▁उत्प्रे	-11879
▁अभयारण्य	-11880
▁खरीदारों	-11881
▁आकांक्षाओं	-11882
्वल	-11883
▁छल	-11884
ाकार	-11885
ुकला	-11886
▁Cri	-11887
▁एएम	-11888
▁कपट	-11889
▁हीन	-11890
▁Bhag	-11891
▁टीएस	-11892
▁शिफ्ट	-11893
▁समूचे	-11894
▁मणीलाल	-11895
▁निकोबार	-11896
▁सुल्तान	-11897
▁समाविष्ट	-11898
▁आत्मनिर्भ	-11899
aul	-11900
मेट	-11901
ैनी	-11902
▁ex	-11903
सूरत	-11904
ेंटल	-11905
▁टोक	-11906
बंधित	-11907
यार्क	-11908
वश्यक	-11909
▁क़ुर	-11910
▁क्लिन	-11911
▁खेलों	-11912
▁मित्त	-11913
▁यूएसए	-11914
▁लम्बा	-11915
▁मिस्टर	-11916
▁मुम्बई	-11917
▁राजकोष	-11918
▁बोर्डों	-11919
▁रॉयल्टी	-11920
▁संलिप्त	-11921
TP	-11922
ING	-11923
ive	-11924
वेद	-11925
ेटर	-11926
ोन्	-11927
▁उब	-11928
▁बछ	-11929
हाउस	-11930
▁नीर	-11931
▁मृद	-11932
फार्म	-11933
▁दाएं	-11934
▁बहुप	-11935
▁मुड़	-11936
▁सतत्	-11937
पीडिया	-11938
▁पत्तन	-11939
▁मुंसिफ	-11940
▁हाइड्र	-11941
▁एकरूपता	-11942
▁त्रिपुरा	-11943
▁सम्बन्धों	-11944
▁उपराष्ट्रपति	-11945
ue	-11946
लीफ	-11947
ास्	-11948
▁लख	-11949
▁एसए	-11950
▁असीम	-11951
▁एमटी	-11952
▁तस्क	-11953
▁विलो	-11954
▁अठारह	-11955
▁कच्चा	-11956
▁सरपंच	-11957
▁हैंडल	-11958
▁फ्रेंच	-11959
▁सहेजें	-11960
▁महत्वाक	-11961
▁देवनागरी	-11962
▁संरचनाओं	-11963
▁निर्दोषता	-11964
ala	-11965
अली	-11966
ट्ठ	-11967
हमी	-11968
िनो	-11969
्ये	-11970
▁RO	-11971
▁अनप	-11972
▁अराज	-11973
▁कच्छ	-11974
▁गोरख	-11975
▁टायर	-11976
▁ध्येय	-11977
▁मण्डल	-11978
▁संसद्	-11979
▁फर्मों	-11980
▁विद्वत	-11981
▁एंटरप्र	-11982
▁इन्होंने	-11983
ti	-11984
arb	-11985
द्घ	-11986
ेनर	-11987
▁ढ़	-11988
▁धा	-11989
▁उभरा	-11990
▁भैंस	-11991
▁माधव	-11992
▁सिंड	-11993
▁क्षेञ	-11994
▁धक्का	-11995
▁मंडली	-11996
▁विशेन	-11997
▁सौन्द	-11998
▁खनिजों	-11999
▁फाइलों	-12000
▁मेट्रो	-12001
▁घटनाक्रम	-12002
▁संप्रेषण	-12003
CO	-12004
गेट	-12005
चाल	-12006
जेड	-12007
नामे	-12008
▁गरम	-12009
▁छठी	-12010
▁रची	-12011
▁लाज	-12012
▁ताला	-12013
▁शंका	-12014
▁घटिया	-12015
▁दीजिए	-12016
▁निकली	-12017
▁डिवाइस	-12018
▁ब्रितानी	-12019
▁शुक्राणु	-12020
▁जिम्मेदारियों	-12021
भोगी	-12022
र्दे	-12023
वारे	-12024
श्रम	-12025
▁खिस	-12026
FAESI	-12027
ृत्ता	-12028
▁मैरी	-12029
▁समया	-12030
▁हैंड	-12031
▁अवांछ	-12032
▁डेबिट	-12033
▁फीसदी	-12034
▁बदलती	-12035
▁बयानी	-12036
▁अदायगी	-12037
▁रिक्शा	-12038
▁रिवाजों	-12039
▁पंक्तियों	-12040
▁ज्योतिष्पीठ	-12041
बैक	-12042
िसे	-12043
राहट	-12044
र्धित	-12045
▁अभिस	-12046
▁भण्ड	-12047
वर्षीय	-12048
▁मोहित	-12049
▁नियोजक	-12050
▁प्रतिब	-12051
▁मार्शल	-12052
▁राजदूत	-12053
▁समग्रता	-12054
▁सैकड़ों	-12055
▁अभ्यर्थी	-12056
▁एमबीबीएस	-12057
▁स्ट्रिंग	-12058
▁एल्गोरिथ्म	-12059
▁रजिस्ट्रीकृत	-12060
ost	-12061
फलक	-12062
ोटा	-12063
देड़	-12064
र्धा	-12065
▁लैब	-12066
▁कड़े	-12067
▁डीपी	-12068
▁पंकज	-12069
▁बृहत	-12070
र्नीचर	-12071
▁किसके	-12072
▁पक्का	-12073
▁बिलास	-12074
▁रेस्प	-12075
▁उपासना	-12076
▁कुर्सी	-12077
▁चिन्ता	-12078
▁भ्रमित	-12079
▁कृतियों	-12080
▁चिंताओं	-12081
▁ब्रह्मा	-12082
▁कलाकारों	-12083
▁पुनर्विल	-12084
ARA	-12085
hak	-12086
इंग	-12087
जनल	-12088
लाइट	-12089
▁नोए	-12090
▁रेव	-12091
▁रुग्	-12092
▁अंशों	-12093
▁आसन्न	-12094
▁टेक्स	-12095
▁पदनाम	-12096
▁निपटाए	-12097
▁बैठकें	-12098
▁रिव्यू	-12099
▁प्रोसेस	-12100
▁वाशिंगटन	-12101
▁उपन्यासों	-12102
▁सुपुर्दगी	-12103
▁अनियमितताओं	-12104
गौ	-12105
लाभ	-12106
हरों	-12107
▁हकी	-12108
▁कॉफी	-12109
▁डीआई	-12110
▁मेला	-12111
▁लाते	-12112
▁समाध	-12113
▁साफ़	-12114
▁खुदाई	-12115
▁परिकल	-12116
▁बहनोई	-12117
▁हिमनद	-12118
▁सत्तार	-12119
▁करोड़ों	-12120
▁द्वीपों	-12121
धिकारियों	-12122
▁पक्षपातपूर्ण	-12123
िनस	-12124
प्पी	-12125
ेम्स	-12126
ोसिस	-12127
▁Sar	-12128
▁जोग	-12129
▁बीआई	-12130
▁मानद	-12131
▁पत्रक	-12132
▁पुण्य	-12133
▁फ्रां	-12134
▁भिक्ष	-12135
▁समतुल	-12136
▁राजवंश	-12137
▁रुकावट	-12138
▁पर्वतीय	-12139
▁विधिज्ञ	-12140
▁उदासीनता	-12141
▁वीरेंद्र	-12142
EG	-12143
ana	-12144
▁रौ	-12145
ited	-12146
कुशल	-12147
ाउंट	-12148
▁छंट	-12149
▁कलंक	-12150
▁कलाम	-12151
▁पौधा	-12152
▁सन्द	-12153
▁अयस्क	-12154
▁किश्त	-12155
▁चौड़ा	-12156
▁लीजिए	-12157
▁हममें	-12158
▁हाजिर	-12159
▁ज़रूरी	-12160
▁अनुयायी	-12161
▁संभाव्यता	-12162
▁कार्यप्रणाली	-12163
भंग	-12164
िकार	-12165
▁CAV	-12166
▁राउ	-12167
▁रोप	-12168
बुद्ध	-12169
▁कांच	-12170
▁खोली	-12171
▁तेरह	-12172
▁रावण	-12173
▁शेखर	-12174
▁जघन्य	-12175
▁अनुभवी	-12176
▁अमूर्त	-12177
▁बढ़ाता	-12178
▁वीआरएस	-12179
▁निष्पादक	-12180
▁राजेन्द्र	-12181
▁औपचारिकताओं	-12182
▁राष्ट्रीयता	-12183
▁उपयोगकर्ताओं	-12184
RL	-12185
सेफ	-12186
▁निवल	-12187
▁ममता	-12188
▁लेगी	-12189
▁वाटर	-12190
▁शोधन	-12191
▁ईरानी	-12192
▁जिंदा	-12193
▁नोड्स	-12194
▁ग्रंथि	-12195
▁जनगणना	-12196
▁म्यूटेशन	-12197
▁चक्रवर्ती	-12198
▁नवान्वेषी	-12199
ख्श	-12200
ाजन	-12201
ुला	-12202
▁Un	-12203
▁al	-12204
▁खल	-12205
मपुर	-12206
ोर्स	-12207
▁इंप	-12208
▁राख	-12209
▁शिष	-12210
▁भरना	-12211
▁मेहरा	-12212
▁जंगलों	-12213
▁प्ररूप	-12214
▁मूल्या	-12215
▁रिसर्च	-12216
▁स्थावर	-12217
▁कित्तूर	-12218
▁बुद्धिम	-12219
▁संक्रामक	-12220
ड्र	-12221
ुलेंस	-12222
▁अनूठ	-12223
▁ऊँचाई	-12224
▁कस्टम	-12225
▁जायगा	-12226
▁शाश्व	-12227
▁आईसीटी	-12228
▁समाजों	-12229
▁समुच्चय	-12230
ob	-12231
ंसल	-12232
▁PM	-12233
ाप्र	-12234
्तिक	-12235
▁कुद	-12236
▁बेन	-12237
▁अविल	-12238
▁पौरा	-12239
▁मुवक	-12240
▁रखाव	-12241
▁दोहरी	-12242
▁मैट्रिक	-12243
▁अभिलिखित	-12244
▁महाकाव्य	-12245
▁वास्तुकला	-12246
▁प्रोफार्मा	-12247
ूढ़	-12248
ोही	-12249
ोत्त	-12250
▁उठी	-12251
▁फेश	-12252
▁अभिश	-12253
▁आहरण	-12254
▁सोनू	-12255
▁्याय	-12256
र्ताओं	-12257
▁माणिक	-12258
▁दोहराते	-12259
▁सुंदरता	-12260
▁पत्तियों	-12261
▁प्रमाणों	-12262
▁अतिमानसिक	-12263
▁कार्यकलाप	-12264
▁न्यूयार्क	-12265
▁श्रीकृष्ण	-12266
▁स्थानापन्न	-12267
▁प्राप्तकर्ता	-12268
ावती	-12269
▁बृज	-12270
▁मिड	-12271
ोत्सव	-12272
▁मप्र	-12273
▁कार्प	-12274
▁क्रिस	-12275
▁नतीजे	-12276
▁नोएडा	-12277
▁परंतुक	-12278
▁सर्किल	-12279
▁गेंदबाज	-12280
▁जीवनकाल	-12281
▁SARFAESI	-12282
▁प्रतिज्ञा	-12283
▁सशक्तीकरण	-12284
GA	-12285
श्	-12286
चों	-12287
तुर	-12288
शों	-12289
गरीय	-12290
ॉर्क	-12291
▁तैर	-12292
▁राघ	-12293
▁साओ	-12294
▁घंटा	-12295
▁नायर	-12296
▁उपनिष	-12297
▁क़्या	-12298
▁केमिक	-12299
▁भगवती	-12300
▁लगाये	-12301
▁सेवार	-12302
▁संभाला	-12303
▁जालसाजी	-12304
▁अनुबंधित	-12305
▁आस्तियां	-12306
▁घुमावदार	-12307
▁द्विवेदी	-12308
▁निर्वाचक	-12309
▁प्रत्युत्तर	-12310
फन	-12311
ग्व	-12312
ंजित	-12313
ंसित	-12314
गारी	-12315
नायक	-12316
िएबल	-12317
ोगिक	-12318
▁चचे	-12319
फॉर्म	-12320
▁केएस	-12321
▁जुटा	-12322
▁मारी	-12323
िज्ञान	-12324
▁कथनों	-12325
▁कामया	-12326
▁बीतने	-12327
▁शारदा	-12328
▁सवारी	-12329
ानुक्रम	-12330
▁ख्याति	-12331
▁चंपारण	-12332
▁आनुपातिक	-12333
▁पहाड़ियों	-12334
▁रिक्तियां	-12335
ुज	-12336
नरी	-12337
लता	-12338
▁छी	-12339
▁थक	-12340
▁व्	-12341
▁आगम	-12342
▁झोप	-12343
▁पूल	-12344
कर्मी	-12345
▁Page	-12346
▁इनको	-12347
▁ग्ला	-12348
▁डीसी	-12349
▁दशरथ	-12350
▁विशा	-12351
▁आठवीं	-12352
▁गुलाबी	-12353
▁दुकानें	-12354
▁क्षेत्रक	-12355
▁सौन्दर्य	-12356
▁लाभान्वित	-12357
▁इलेक्ट्रॉनिक्स	-12358
SE	-12359
२४	-12360
URU	-12361
▁RA	-12362
▁मच	-12363
▁लाद	-12364
ामीटर	-12365
▁बॉडी	-12366
▁म्यू	-12367
▁एनओसी	-12368
▁तत्सं	-12369
▁वेदों	-12370
▁व्हिप	-12371
▁दिखाएगा	-12372
▁फर्नीचर	-12373
▁अंतरात्मा	-12374
▁कीटनाशकों	-12375
▁उद्देश्यपूर्ण	-12376
to	-12377
क्ष्	-12378
▁Sam	-12379
▁एंथ	-12380
▁तीर	-12381
▁भरण	-12382
▁्या	-12383
ोनिया	-12384
▁कॉमन	-12385
▁ज्यू	-12386
▁भावा	-12387
▁सपना	-12388
▁औषधीय	-12389
▁बीजों	-12390
▁वृक्क	-12391
▁उकसाया	-12392
▁संकलित	-12393
▁अक्षरों	-12394
▁कार्रवा	-12395
▁बिलासपुर	-12396
▁आपूर्तिकर्ता	-12397
▁कार्यक्षेत्र	-12398
▁प्रतिनिधिमंडल	-12399
ोभ	-12400
ण्य	-12401
▁Dr	-12402
तदार	-12403
▁Bal	-12404
▁एआर	-12405
▁निज	-12406
▁बेग	-12407
▁गलतफ	-12408
▁गाइड	-12409
▁दाता	-12410
▁पराग	-12411
▁उदारी	-12412
▁बनारस	-12413
▁तस्करी	-12414
▁सम्मुख	-12415
▁तर्कहीन	-12416
▁पुरोहित	-12417
▁प्रॉक्सी	-12418
▁अपेक्षाओं	-12419
▁डिस्ट्रिक	-12420
▁व्याख्याताओं	-12421
has	-12422
ond	-12423
बानी	-12424
▁खां	-12425
▁नाख	-12426
▁कन्ह	-12427
▁कब्र	-12428
▁जीएस	-12429
▁दलित	-12430
▁केलिए	-12431
▁नरसिंह	-12432
▁परिवाद	-12433
▁व्यतिक	-12434
ृत्तियों	-12435
▁मार्गों	-12436
▁परित्याग	-12437
▁मुवक्किल	-12438
▁विज्ञापनों	-12439
दरी	-12440
▁RF	-12441
एंगे	-12442
ोत्प	-12443
▁असं	-12444
▁भाँ	-12445
▁अतुल	-12446
▁गिरि	-12447
▁ठंडा	-12448
▁पतली	-12449
▁सपने	-12450
▁रिवाज	-12451
▁सक्से	-12452
▁सविता	-12453
▁मारुति	-12454
▁मित्रा	-12455
▁सद्भाव	-12456
▁समझदारी	-12457
▁संस्थापन	-12458
▁अनिश्चितता	-12459
ge	-12460
़ा	-12461
एफए	-12462
ोगी	-12463
▁Ac	-12464
▁खज	-12465
गाड़ी	-12466
योग्य	-12467
विन्द	-12468
▁ऑर्स	-12469
ड़ियां	-12470
▁बहुधा	-12471
▁उपद्रव	-12472
▁कर्त्त	-12473
▁ग्रीवा	-12474
▁भूमिगत	-12475
▁विलम्ब	-12476
क्षात्मक	-12477
▁आन्तरिक	-12478
▁एग्रीमेंट	-12479
▁अत्यावश्यक	-12480
▁प्रोग्रामिंग	-12481
▁विमानक्षेत्र	-12482
DA	-12483
्ध	-12484
ool	-12485
ंपल	-12486
तौर	-12487
▁Mu	-12488
▁cr	-12489
▁अलम	-12490
▁शॉप	-12491
ग्रही	-12492
▁आभास	-12493
▁चपरा	-12494
▁ढलान	-12495
▁नवाब	-12496
▁मोचन	-12497
▁मोटा	-12498
▁यूके	-12499
▁श्ले	-12500
▁मिल्स	-12501
▁बहुसंख	-12502
▁संकेतक	-12503
▁अभिनेता	-12504
▁पौराणिक	-12505
▁प्रशस्त	-12506
▁पत्रिकाओं	-12507
▁साधारणतया	-12508
▁परिसंपत्ति	-12509
आन	-12510
सर्ग	-12511
▁एमई	-12512
▁थाः	-12513
▁अमूल	-12514
▁कुएं	-12515
▁क्रू	-12516
▁खेला	-12517
▁मच्छ	-12518
▁बदलता	-12519
▁बूढ़े	-12520
▁अन्वेष	-12521
▁प्रातः	-12522
▁रसीदें	-12523
▁पहुंचती	-12524
▁ब्राउज़र	-12525
▁सहिष्णुता	-12526
▁उत्तरवर्ती	-12527
▁उम्मीदवारी	-12528
▁डिस्ट्रिक्ट	-12529
▁लाभार्थियों	-12530
ore	-12531
पाट	-12532
रां	-12533
ावि	-12534
ॉयस	-12535
डीआर	-12536
▁मिठ	-12537
▁मों	-12538
▁रोह	-12539
▁सृज	-12540
▁इटली	-12541
▁बदली	-12542
▁मेले	-12543
▁लगों	-12544
श्चात्	-12545
▁अय्यर	-12546
▁चालुक	-12547
▁बंदोब	-12548
गोशिएबल	-12549
तानुसार	-12550
▁निकलती	-12551
▁वियतना	-12552
▁शाश्वत	-12553
▁निर्यातक	-12554
▁प्रशिक्षु	-12555
’’	-12556
▁कद	-12557
स्तर	-12558
▁आरओ	-12559
▁फंस	-12560
कार्ब	-12561
ियनों	-12562
▁कचरा	-12563
▁पतला	-12564
▁स्ला	-12565
ोग्राफ	-12566
्यूटरी	-12567
▁सज्जन	-12568
▁स्क्व	-12569
▁अधिमान	-12570
▁एक्सपी	-12571
▁तालमेल	-12572
▁अवशिष्ट	-12573
▁एनआईओएस	-12574
▁जबरदस्त	-12575
▁पीएमएलए	-12576
▁आच्छादित	-12577
▁धर्मशाला	-12578
▁पंचवर्षीय	-12579
▁प्रक्रियाएं	-12580
▁मंत्रिपरिषद	-12581
ध्द	-12582
ipur	-12583
प्पू	-12584
▁MFA	-12585
▁दाद	-12586
▁दुब	-12587
र्द्ध	-12588
ांतरण	-12589
▁आक्र	-12590
▁इष्ट	-12591
▁कोल्	-12592
▁चंदर	-12593
▁जीता	-12594
▁बल्ल	-12595
▁व्रत	-12596
▁सजीव	-12597
▁समतल	-12598
▁ओसीसी	-12599
▁फोटोक	-12600
▁मुर्ग	-12601
▁रवैया	-12602
▁एकाग्र	-12603
▁मुद्रक	-12604
▁एजेंटों	-12605
▁पात्रों	-12606
▁मार्क्स	-12607
▁स्तंभों	-12608
व्यवस्थित	-12609
▁क्रियान्वित	-12610
▁विश्वव्यापी	-12611
▁आदम	-12612
▁चीख	-12613
▁बहू	-12614
▁बृह	-12615
▁माउस	-12616
▁उल्टी	-12617
▁कीमती	-12618
▁तटस्थ	-12619
▁नाभिक	-12620
▁पेरिस	-12621
▁मुरली	-12622
▁अस्त्र	-12623
▁उन्मुख	-12624
▁जिन्ना	-12625
▁नोकिया	-12626
▁सेवारत	-12627
▁लाइब्रे	-12628
▁समाजवाद	-12629
▁सब्जियों	-12630
▁ज्योतिर्मठ	-12631
▁नामनिर्देश	-12632
LR	-12633
▁भला	-12634
खानों	-12635
त्रिक	-12636
मुक्ति	-12637
▁कालीन	-12638
▁दशाओं	-12639
▁नवजात	-12640
▁मियां	-12641
▁साम्य	-12642
▁अनुपयुक्त	-12643
▁तत्संबंधी	-12644
▁प्रत्यायोजित	-12645
EM	-12646
tp	-12647
ide	-12648
त्थ	-12649
देय	-12650
ेषण	-12651
▁लघ	-12652
वारा	-12653
ॉजिट	-12654
▁Dev	-12655
▁उषा	-12656
▁वाउ	-12657
दाश्त	-12658
ेंट्स	-12659
▁अन्र	-12660
▁ईश्व	-12661
▁लम्ब	-12662
▁चावला	-12663
▁मथुरा	-12664
▁स्पेन	-12665
▁अलंकरण	-12666
▁चपरासी	-12667
▁दुबारा	-12668
▁संख्याओं	-12669
▁प्रेमचन्द	-12670
गिर	-12671
मयी	-12672
ब्बी	-12673
शियल	-12674
▁पोट	-12675
▁रवै	-12676
▁शां	-12677
▁सिड	-12678
गृहीत	-12679
▁उठते	-12680
▁गायक	-12681
▁घोषण	-12682
▁छत्र	-12683
▁थैली	-12684
▁पद्य	-12685
▁मामल	-12686
▁वृंद	-12687
▁पीड़क	-12688
▁रहमान	-12689
▁यूनानी	-12690
▁उपेक्षित	-12691
▁अपार्टमेंट	-12692
▁शताब्दियों	-12693
▁सैद्धांतिक	-12694
चड़	-12695
ैंट	-12696
▁चब	-12697
▁मय	-12698
ारसी	-12699
▁ईआर	-12700
▁उभार	-12701
▁गोपी	-12702
▁वसंत	-12703
न्यासी	-12704
▁लॉन्च	-12705
▁खुफिया	-12706
▁फिटनेस	-12707
▁मुर्गी	-12708
▁किस्मों	-12709
▁पत्रकार	-12710
▁वचनबद्ध	-12711
▁समनुदेश	-12712
▁पुनर्विलोकन	-12713
ुंध	-12714
▁GA	-12715
ीयों	-12716
▁अरे	-12717
▁जेन	-12718
▁पैद	-12719
▁लिक	-12720
▁सफ़	-12721
ित्री	-12722
▁उमेश	-12723
▁एजीए	-12724
▁कशेर	-12725
▁डिजी	-12726
▁स्कू	-12727
▁स्लम	-12728
▁पाउंड	-12729
▁होस्ट	-12730
▁इंग्लिश	-12731
▁प्राप्य	-12732
बुद	-12733
कार्य	-12734
स्टोन	-12735
▁कैंप	-12736
▁जमाव	-12737
▁जेएन	-12738
▁त्यौ	-12739
▁बसंत	-12740
▁हरेक	-12741
ास्ट्र	-12742
▁WPNos	-12743
▁कराते	-12744
▁छिड़क	-12745
▁भावों	-12746
▁मुंडा	-12747
▁शिश्न	-12748
▁कैपिटल	-12749
▁दिखाती	-12750
▁पंचांग	-12751
▁बारीकी	-12752
▁वैल्यू	-12753
▁पुत्रों	-12754
▁फैक्ट्री	-12755
▁न्यायपूर्ण	-12756
mis	-12757
ाथा	-12758
ुली	-12759
किया	-12760
तत्व	-12761
निर्ण	-12762
भागीय	-12763
▁काटा	-12764
▁भूरे	-12765
▁माथे	-12766
▁विंग	-12767
मास्टर	-12768
▁पहलों	-12769
▁महाजन	-12770
▁सियार	-12771
▁अनुरुप	-12772
▁एलपीजी	-12773
▁फैलाने	-12774
▁वडोदरा	-12775
▁करनेवाले	-12776
▁प्रेमचंद	-12777
▁विवेकानंद	-12778
▁एंटरप्राइज	-12779
▁श्रद्धांजलि	-12780
UN	-12781
ेता	-12782
एलआर	-12783
शोधन	-12784
ूलाल	-12785
▁ईएम	-12786
▁धरो	-12787
▁चेतन	-12788
▁सोशल	-12789
▁नम्बर	-12790
▁माउंट	-12791
▁लिखकर	-12792
▁उदारता	-12793
▁दिवंगत	-12794
▁बहुलता	-12795
▁संज्ञा	-12796
▁पार्किंग	-12797
▁बहिष्करण	-12798
▁महाद्वीप	-12799
▁उपयुक्तता	-12800
▁संलिप्तता	-12801
SC	-12802
ov	-12803
फीक	-12804
▁नबी	-12805
▁पिर	-12806
▁लेब	-12807
▁एलसी	-12808
▁टोकन	-12809
▁कालाव	-12810
▁कुष्ठ	-12811
▁डालें	-12812
▁द्वेष	-12813
▁अमृतसर	-12814
▁उन्नीस	-12815
▁निकलना	-12816
▁राजपूत	-12817
▁समतुल्य	-12818
▁उपाध्याय	-12819
▁रिफाइनरी	-12820
▁संन्यासी	-12821
▁अव्यवस्था	-12822
▁एक्सट्रीम	-12823
▁सुव्यवस्थित	-12824
ॉं	-12825
ेतन	-12826
▁ओज	-12827
ट्ठी	-12828
िकों	-12829
▁राग	-12830
alpur	-12831
िंग्स	-12832
नारायण	-12833
▁धरोहर	-12834
▁पत्ते	-12835
▁प्रसि	-12836
▁मिलों	-12837
▁वीरता	-12838
▁मित्तल	-12839
▁लेक्चर	-12840
▁अवरुद्ध	-12841
▁युग्मित	-12842
▁अनुशंसित	-12843
ैब	-12844
महा	-12845
▁LJ	-12846
ेंडम	-12847
१वें	-12848
▁खेद	-12849
▁टूल	-12850
▁बाण	-12851
▁बीर	-12852
▁हनी	-12853
▁ट्रॉ	-12854
▁मेजर	-12855
▁वीणा	-12856
▁साउथ	-12857
▁अहसास	-12858
▁आंत्र	-12859
▁कथाओं	-12860
▁कोनों	-12861
▁बढाने	-12862
▁वर्गा	-12863
▁सुनते	-12864
▁अधिनयम	-12865
▁फेंकने	-12866
▁महासभा	-12867
▁स्वरुप	-12868
▁दुराचार	-12869
▁निर्वास	-12870
▁पार्टनर	-12871
▁शपथपत्र	-12872
▁सर्कुलर	-12873
▁पैकेजिंग	-12874
▁प्रोफ़ाइल	-12875
▁कंस्ट्रक्शन	-12876
झान	-12877
थिक	-12878
ावरी	-12879
▁Sch	-12880
▁लती	-12881
▁सला	-12882
▁कतार	-12883
▁गुड़	-12884
▁प्रज	-12885
▁फ़िर	-12886
▁बोना	-12887
स्तरीय	-12888
▁उठाता	-12889
▁कट्टर	-12890
▁जिनको	-12891
▁नक्शे	-12892
▁बनेगा	-12893
▁सुनाए	-12894
कर्त्ता	-12895
▁समामेल	-12896
▁स्नायु	-12897
▁निर्बाध	-12898
▁फेफड़ों	-12899
▁वृक्षों	-12900
▁स्टैम्प	-12901
फ्रास्ट्र	-12902
▁अधिकरणों	-12903
▁आत्मघाती	-12904
ढी	-12905
ine	-12906
काए	-12907
फिट	-12908
भवन	-12909
ोकर	-12910
▁वफ	-12911
्रियल	-12912
▁डीजल	-12913
▁बरती	-12914
▁रेणु	-12915
▁कवरेज	-12916
▁आरबीआई	-12917
▁एकान्त	-12918
▁डिमांड	-12919
▁फिरौती	-12920
▁विधायक	-12921
▁अधिकथित	-12922
▁साप्ताह	-12923
▁खाद्यान्न	-12924
ORE	-12925
दानी	-12926
पाती	-12927
▁गान	-12928
▁नेप	-12929
▁बकर	-12930
▁अंगी	-12931
▁क्षी	-12932
▁गांठ	-12933
▁उभरती	-12934
▁जवाहर	-12935
▁रेस्त	-12936
▁अल्लाह	-12937
▁क्योकि	-12938
▁सीलबंद	-12939
▁खुशहाली	-12940
▁निम्नतर	-12941
▁स्ट्रीम	-12942
▁अंशकालिक	-12943
▁अवस्थाओं	-12944
▁उत्तराखंड	-12945
▁रिटर्निंग	-12946
▁इंजीनियरों	-12947
▁साम्राज्यवाद	-12948
wa	-12949
िंक	-12950
खोरी	-12951
ज्जा	-12952
तमंद	-12953
िपति	-12954
▁कटे	-12955
▁बोत	-12956
ंबद्ध	-12957
ानिया	-12958
▁महार	-12959
▁सबका	-12960
▁दुष्प	-12961
▁लुप्त	-12962
▁विद्व	-12963
▁सुझाए	-12964
▁हुबली	-12965
▁तत्समय	-12966
▁प्रकटन	-12967
▁स्कूली	-12968
▁हालिया	-12969
▁अनुशंसा	-12970
▁राजनयिक	-12971
▁फोटोकॉपी	-12972
▁शुक्रवार	-12973
▁निगोशिएबल	-12974
▁टेक्नोलॉजी	-12975
▁त्रुटिपूर्ण	-12976
▁प्रयोगशालाओं	-12977
IA	-12978
ans	-12979
टूर	-12980
▁उपच	-12981
▁केन	-12982
▁एजें	-12983
▁तरफ़	-12984
▁Chrom	-12985
▁जीवनी	-12986
▁महोदय	-12987
▁वायरस	-12988
▁असीमित	-12989
▁बढ़िया	-12990
▁बर्बाद	-12991
▁महाजार	-12992
▁रीडिंग	-12993
▁गलतफहमी	-12994
▁त्यौहार	-12995
▁पैदावार	-12996
▁स्टार्ट	-12997
▁साप्ताहिक	-12998
LJ	-12999
बै	-13000
टित	-13001
रिश	-13002
्ती	-13003
▁sa	-13004
मुझे	-13005
▁एलए	-13006
▁यानि	-13007
▁अधूरा	-13008
▁एकाउंट	-13009
▁श्रव्य	-13010
▁सांसार	-13011
▁राज्यसभा	-13012
▁डिफेंडेंट	-13013
▁उत्तरार्द्ध	-13014
ng	-13015
चकों	-13016
ोल्ट	-13017
▁चाइ	-13018
▁आईपी	-13019
▁इजाज	-13020
▁टिकी	-13021
▁दराज	-13022
▁बापू	-13023
▁कुप्र	-13024
▁जरिये	-13025
▁समरूप	-13026
▁डेवलपर	-13027
▁दर्शित	-13028
▁बेलगाम	-13029
▁कन्हैया	-13030
▁किताबों	-13031
▁ऑपरेटिंग	-13032
▁कट्टरपंथी	-13033
▁प्राचार्य	-13034
▁अंतर्विरोध	-13035
▁रेस्पोंडेंट	-13036
ok	-13037
▁शन	-13038
▁कैथ	-13039
▁चाँ	-13040
▁सीओ	-13041
चर्या	-13042
▁अनाप	-13043
▁इन्स	-13044
▁उंगल	-13045
▁घाटे	-13046
▁पेटी	-13047
▁बहती	-13048
▁भीषण	-13049
▁संसू	-13050
ान्तरण	-13051
▁अमिता	-13052
▁भूगोल	-13053
▁योगेश	-13054
▁कॉन्फ़	-13055
▁परिजनों	-13056
▁पाश्चात	-13057
▁छात्रावास	-13058
▁सांख्यिकीय	-13059
धक	-13060
तनी	-13061
ट्टे	-13062
▁KAR	-13063
कर्षण	-13064
पात्र	-13065
▁अजीत	-13066
▁एलएल	-13067
▁तर्ज	-13068
▁बर्न	-13069
▁अभ्या	-13070
▁कंकाल	-13071
▁सीखना	-13072
▁गणितीय	-13073
▁चीज़ों	-13074
▁रोज़गार	-13075
▁वर्गाकार	-13076
▁संवेदनशीलता	-13077
aoM	-13078
कुम	-13079
ावत	-13080
ुना	-13081
कुलर	-13082
फाइड	-13083
▁अशु	-13084
त्तों	-13085
पट्टी	-13086
▁एलडी	-13087
▁फ़ोन	-13088
▁रखनी	-13089
▁अनजान	-13090
▁आवधिक	-13091
▁उपवास	-13092
▁पप्पू	-13093
▁अधिभोग	-13094
▁चैनलों	-13095
▁जबलपुर	-13096
▁पीढ़ियों	-13097
▁पुरस्कृत	-13098
▁मार्केटिंग	-13099
▁स्वायत्तता	-13100
कोड	-13101
शिक	-13102
चरित	-13103
▁असे	-13104
▁खली	-13105
▁नज़	-13106
▁रमन	-13107
तावास	-13108
▁जांघ	-13109
▁बेतु	-13110
▁रियल	-13111
▁डालती	-13112
▁डेंटल	-13113
▁पित्त	-13114
▁मैथुन	-13115
▁राक्ष	-13116
▁रिफंड	-13117
▁रेडिय	-13118
▁जोड़ता	-13119
▁फोल्डर	-13120
▁रामलिंग	-13121
▁आवंटियों	-13122
▁ग्लोरिया	-13123
फ्रास्ट्रक्चर	-13124
ादे	-13125
ामस	-13126
▁pr	-13127
▁एडम	-13128
▁कैट	-13129
▁गड्	-13130
वस्तु	-13131
विंदर	-13132
▁East	-13133
▁लपेट	-13134
▁सचिन	-13135
ार्मास	-13136
▁क्लाज	-13137
▁छोड़ी	-13138
▁नगरों	-13139
▁बदलकर	-13140
द्धार्थ	-13141
▁एमएलसी	-13142
▁कानूनन	-13143
▁डीआरटी	-13144
निरपेक्ष	-13145
▁ग्रीष्म	-13146
▁उपनियमों	-13147
▁प्रशासित	-13148
▁वर्षगांठ	-13149
▁विश्लेषक	-13150
▁प्रक्षेपण	-13151
▁प्रामाणिकता	-13152
AB	-13153
ऑफ	-13154
षाण	-13155
hara	-13156
टीएस	-13157
सूची	-13158
स्को	-13159
▁Anr	-13160
▁जलन	-13161
▁नाच	-13162
▁पीर	-13163
▁मनु	-13164
पृष्ठ	-13165
िचेरी	-13166
ोलनों	-13167
▁उपजा	-13168
▁एनएस	-13169
▁एनबी	-13170
▁प्रह	-13171
▁बालू	-13172
▁इजाजत	-13173
▁वर्गम	-13174
▁इलेक्ट	-13175
▁पारम्प	-13176
▁प्रलेख	-13177
▁फाइनेंस	-13178
▁संस्थित	-13179
▁झाड़ियों	-13180
▁साफ्टवेयर	-13181
▁मान्यताप्राप्त	-13182
यास	-13183
िनम	-13184
ेकर	-13185
ौड़	-13186
▁’’	-13187
ंजलि	-13188
ुकता	-13189
ूंगी	-13190
▁खोद	-13191
्लेषण	-13192
▁अंचल	-13193
▁आरेख	-13194
▁इंसो	-13195
▁कड़ा	-13196
▁केके	-13197
▁धनुष	-13198
▁नामं	-13199
▁मधुम	-13200
▁मीरा	-13201
▁यकृत	-13202
ोरेटरी	-13203
▁जर्नल	-13204
▁पर्ची	-13205
▁ब्राज	-13206
▁भागते	-13207
▁वायदा	-13208
▁एसएलपी	-13209
▁कारीगर	-13210
▁कुत्ते	-13211
▁ट्रांसफ़	-13212
▁सांसारिक	-13213
PP	-13214
HAR	-13215
ell	-13216
तेह	-13217
िफ़	-13218
्ना	-13219
▁गन	-13220
ions	-13221
▁ढोल	-13222
▁फोक	-13223
▁देसी	-13224
▁फ्रै	-13225
▁अभिनव	-13226
▁खर्चा	-13227
▁गायों	-13228
▁बढावा	-13229
▁जुड़ने	-13230
▁निपटते	-13231
▁न्यासी	-13232
▁आत्मसात	-13233
▁उच्छेदन	-13234
▁फेडरेशन	-13235
▁संभवतया	-13236
abad	-13237
जीपी	-13238
साइड	-13239
्कोह	-13240
▁एनई	-13241
▁खाट	-13242
▁शिर	-13243
▁चढ़ा	-13244
▁चुनि	-13245
▁प्रथ	-13246
▁मैके	-13247
▁वफाद	-13248
▁श्या	-13249
▁स्वत	-13250
▁हर्ज	-13251
ग्राही	-13252
▁वंशान	-13253
▁विक्ष	-13254
ानात्मक	-13255
▁तीक्ष्	-13256
▁शिवाजी	-13257
▁साहसिक	-13258
▁परक्राम	-13259
▁व्यक़्ति	-13260
▁समारोहों	-13261
▁प्रत्याशा	-13262
▁कंट्राबेंड	-13263
▁न्यायाधिकरणों	-13264
पंथ	-13265
ापी	-13266
▁नस	-13267
▁वश	-13268
▁घुड़	-13269
▁टकरा	-13270
▁रीढ़	-13271
▁रोना	-13272
▁जड़ें	-13273
▁रोबोट	-13274
▁उल्लास	-13275
▁कन्नड़	-13276
▁मुन्ना	-13277
▁मैदानों	-13278
▁केन्द्री	-13279
▁प्रतिबिम	-13280
▁वंशानुगत	-13281
कूट	-13282
▁AC	-13283
▁ID	-13284
गण्य	-13285
स्पद	-13286
ादान	-13287
ोन्म	-13288
▁जमश	-13289
▁धर्	-13290
▁पेड	-13291
▁बेड	-13292
▁लसी	-13293
▁फ्लै	-13294
▁बुजु	-13295
▁वक्ष	-13296
▁अपडेट	-13297
▁ओबीसी	-13298
▁क्लीन	-13299
▁देखती	-13300
▁परिणत	-13301
ॉल्यूशन	-13302
▁अपनाते	-13303
▁चेष्टा	-13304
▁नर्सरी	-13305
▁मुनाफा	-13306
▁शिष्यों	-13307
▁कार्यशील	-13308
▁ट्रैकिंग	-13309
▁प्रबन्धन	-13310
▁सिद्धदोष	-13311
▁गारंटीकृत	-13312
▁सिद्धार्थ	-13313
▁हस्तशिल्प	-13314
our	-13315
ोहक	-13316
ौना	-13317
▁लव	-13318
समूह	-13319
ावुर	-13320
▁FIR	-13321
▁Lal	-13322
▁Lim	-13323
▁वरन	-13324
▁कमोड	-13325
▁करोड	-13326
▁क्रे	-13327
▁वॉयस	-13328
▁DISTR	-13329
▁जार्ज	-13330
▁पोषित	-13331
▁परोक्ष	-13332
▁मानसून	-13333
▁असंगतता	-13334
▁आमंत्रण	-13335
▁सराहनीय	-13336
▁प्रवर्तक	-13337
▁अध्यापकों	-13338
▁विकिपीडिया	-13339
▁व्यवहार्यता	-13340
थर	-13341
मैं	-13342
रिस	-13343
शाक	-13344
▁नृ	-13345
ेंदर	-13346
▁REV	-13347
▁कंब	-13348
▁कोत	-13349
▁जनन	-13350
▁जुग	-13351
ार्जन	-13352
▁असम्	-13353
▁डाउन	-13354
▁मेरठ	-13355
▁यहूद	-13356
▁लाये	-13357
▁हमास	-13358
▁गिरीश	-13359
▁जमशेद	-13360
▁पार्ष	-13361
▁मिलें	-13362
▁विक्ट	-13363
▁विशाख	-13364
▁बढ़ेगा	-13365
▁अफ्रीकी	-13366
▁आभूषणों	-13367
▁कविताएं	-13368
▁नजरबंदी	-13369
▁महानिरीक्षक	-13370
ere	-13371
घ्न	-13372
ौरी	-13373
▁ht	-13374
▁we	-13375
ाप्य	-13376
ुलिप	-13377
▁अंज	-13378
भाषित	-13379
ेंबली	-13380
▁इसमे	-13381
▁गाथा	-13382
▁घुमा	-13383
▁रंगा	-13384
▁रिंग	-13385
ियाबाद	-13386
▁अंकगण	-13387
▁अकेली	-13388
▁नियति	-13389
▁पढ़कर	-13390
▁पहनने	-13391
▁हजारी	-13392
ोनेशिया	-13393
▁कृषकों	-13394
▁वर्क्स	-13395
▁समझदार	-13396
▁वर्गमूल	-13397
▁वियतनाम	-13398
▁सरोजिनी	-13399
▁कहानियां	-13400
▁विधेयकों	-13401
ated	-13402
▁कोठ	-13403
▁चैर	-13404
▁फलक	-13405
▁बिक	-13406
▁भास	-13407
▁सैल	-13408
▁हें	-13409
शासित	-13410
ोत्तम	-13411
▁NAME	-13412
▁अंकन	-13413
▁अभूत	-13414
▁एचयू	-13415
▁कांट	-13416
▁चुनी	-13417
▁फिनल	-13418
▁कमरों	-13419
▁खरगोश	-13420
▁गलिया	-13421
▁जागरण	-13422
▁शरारत	-13423
▁एसबीआई	-13424
▁पत्तों	-13425
▁पहचाने	-13426
▁कॉन्स्टेबल	-13427
▁तत्पश्चात्	-13428
▁स्क्रीनिंग	-13429
२५	-13430
इटर	-13431
काई	-13432
ड़ो	-13433
बाज़	-13434
▁ओएम	-13435
▁धाग	-13436
खेड़ा	-13437
▁एसबी	-13438
▁परिम	-13439
▁लाकर	-13440
eshwar	-13441
ांक्षी	-13442
▁कैमरा	-13443
▁गिर्द	-13444
▁निकास	-13445
▁पसन्द	-13446
▁वाउचर	-13447
▁शालीन	-13448
▁हाथाप	-13449
▁योद्धा	-13450
▁कालावधि	-13451
▁जातियां	-13452
▁फ़ाइलें	-13453
▁सन्दर्भ	-13454
▁समयावधि	-13455
▁अनुज्ञेय	-13456
▁त्रिवेदी	-13457
▁बस्तियों	-13458
▁अधिसूचनाओं	-13459
भान	-13460
ोंक	-13461
▁कैव	-13462
▁पिप	-13463
▁बेर	-13464
▁भाल	-13465
वल्ली	-13466
▁निंद	-13467
▁व्हा	-13468
▁सरमा	-13469
▁सीजे	-13470
▁आभासी	-13471
▁पार्व	-13472
▁बागान	-13473
▁मानकी	-13474
▁विलास	-13475
▁सेल्स	-13476
▁छुपाया	-13477
▁दिवसीय	-13478
▁नाइट्र	-13479
▁पुजारी	-13480
▁सुचारू	-13481
▁गोलियां	-13482
▁हाथापाई	-13483
▁सावित्री	-13484
▁गतिविधियाँ	-13485
▁ट्रस्टियों	-13486
ईस	-13487
ESH	-13488
▁aa	-13489
ुष्प	-13490
▁Ors	-13491
▁चलन	-13492
▁फेल	-13493
▁मल्	-13494
▁एसएन	-13495
▁जूरी	-13496
▁प्ली	-13497
▁फकीर	-13498
▁बाली	-13499
▁परिशि	-13500
▁रणजीत	-13501
▁विखंड	-13502
▁श्रेण	-13503
▁हवाले	-13504
▁ऋणदाता	-13505
▁एक्सटी	-13506
▁बिजनेस	-13507
▁परिषदों	-13508
▁बुजुर्ग	-13509
▁साझीदार	-13510
▁सूचनाएं	-13511
▁कॉन्फ़िगर	-13512
▁पाश्चात्य	-13513
▁मैनेजमेंट	-13514
▁शिकायतकर्ताओं	-13515
णक	-13516
दीन	-13517
लिन	-13518
लीस	-13519
▁US	-13520
▁टच	-13521
र्गा	-13522
▁औपन	-13523
▁शरद	-13524
▁सरस	-13525
▁मुक़	-13526
▁युगल	-13527
▁कच्ची	-13528
▁कराती	-13529
▁एक्सेस	-13530
▁मौलाना	-13531
▁लेटर्स	-13532
▁अनुकूलन	-13533
▁ड्राइंग	-13534
▁नांदेड़	-13535
▁मलेरिया	-13536
▁लेखांकन	-13537
▁कोशिकाएं	-13538
▁परमात्मा	-13539
▁पैरामीटर	-13540
▁यात्राओं	-13541
▁प्रायोगिक	-13542
▁संयंत्रों	-13543
PF	-13544
हण	-13545
समी	-13546
्टू	-13547
▁SR	-13548
▁by	-13549
▁ऐल	-13550
ंजना	-13551
पाही	-13552
र्चे	-13553
व्रत	-13554
▁Sri	-13555
▁कटि	-13556
▁झाँ	-13557
▁परह	-13558
▁फाल	-13559
▁बेव	-13560
▁यदु	-13561
▁सटे	-13562
▁एचटी	-13563
▁एलजे	-13564
▁कोरम	-13565
▁मुसी	-13566
▁खोलना	-13567
▁चिंटू	-13568
▁जेम्स	-13569
▁महिमा	-13570
▁एन्क्र	-13571
▁देहाती	-13572
▁पर्याय	-13573
▁पुख्ता	-13574
▁मोहंती	-13575
▁महादेवी	-13576
▁स्पेक्ट	-13577
▁निश्चितता	-13578
▁हस्ताक्षरों	-13579
भन	-13580
ओवर	-13581
िंद	-13582
▁CS	-13583
▁MM	-13584
लेखा	-13585
▁Shi	-13586
▁पसी	-13587
▁शेल	-13588
च्युत	-13589
िकाने	-13590
▁कुंड	-13591
▁दांव	-13592
▁विकट	-13593
विद्या	-13594
िक्षित	-13595
▁डीटीए	-13596
▁पॉइंट	-13597
▁हटाकर	-13598
▁ह्रास	-13599
▁तुम्हे	-13600
▁सीलिंग	-13601
▁तंजावुर	-13602
▁बताएंगे	-13603
▁रियायती	-13604
▁माइक्रोस	-13605
▁सर्वसम्म	-13606
▁सृजनात्मक	-13607
▁ड्राफ्ट्समैन	-13608
hal	-13609
▁ईओ	-13610
िप्स	-13611
ुदेव	-13612
▁डॉक	-13613
▁थॉम	-13614
ेशिया	-13615
्यूलर	-13616
▁वाचा	-13617
▁अड्डा	-13618
▁चढ़ाव	-13619
▁ट्रैप	-13620
▁सिन्ध	-13621
▁Chrome	-13622
▁महादेव	-13623
▁मेघालय	-13624
▁स्याही	-13625
▁इच्छाओं	-13626
▁एचएलईसी	-13627
▁क्लिनिक	-13628
▁फार्मास	-13629
▁वैचारिक	-13630
▁DISTRICT	-13631
▁विजेताओं	-13632
▁इलेक्ट्रिकल	-13633
▁धर्मनिरपेक्ष	-13634
▁इंस्ट्रूमेंट्स	-13635
मेव	-13636
िले	-13637
▁हौ	-13638
मिली	-13639
▁अपद	-13640
▁महम	-13641
▁राश	-13642
▁वगै	-13643
▁शकु	-13644
▁सहस	-13645
र्वाद	-13646
ॉजिकल	-13647
▁आदिम	-13648
▁इन्फ	-13649
▁इर्द	-13650
▁एड्स	-13651
▁कस्त	-13652
▁घोड़	-13653
▁Chand	-13654
▁अंदाज	-13655
▁त्रास	-13656
▁रूढ़ि	-13657
▁होम्य	-13658
▁अदृश्य	-13659
▁इन्कार	-13660
▁कंटेनर	-13661
▁डिजीटल	-13662
▁शिशुओं	-13663
▁सॉफ़्ट	-13664
▁निष्कासित	-13665
▁बहुसंख्यक	-13666
▁दुर्भाग्यवश	-13667
▁पूर्वानुमान	-13668
de	-13669
मणि	-13670
रूम	-13671
ंगनी	-13672
ीलैंड	-13673
▁इजरा	-13674
▁उष्ण	-13675
▁इन्टर	-13676
▁कमलेश	-13677
▁कर्मी	-13678
▁डाकघर	-13679
▁पारसी	-13680
▁वेटेज	-13681
▁कुलदीप	-13682
▁पुनर्न	-13683
▁फेफड़े	-13684
▁मतभेदों	-13685
▁क्रमादेश	-13686
▁यहूदियों	-13687
▁एवोल्यूशन	-13688
▁प्रताड़ित	-13689
▁संप्रेषित	-13690
▁इच्छाशक्ति	-13691
▁कम्युनिस्ट	-13692
ोपण	-13693
चेतन	-13694
ुप्त	-13695
ोष्ठ	-13696
▁काव	-13697
रियों	-13698
ोध्या	-13699
▁छापा	-13700
▁थर्म	-13701
▁नंदा	-13702
▁फरसा	-13703
▁भुला	-13704
▁रजनी	-13705
▁वरुण	-13706
प्रसाद	-13707
▁आएंगे	-13708
▁जमारा	-13709
▁दसवीं	-13710
▁सीतार	-13711
▁सुस्प	-13712
▁करेंसी	-13713
▁सूर्या	-13714
▁अन्वेषक	-13715
▁जवाबदेह	-13716
▁रिश्तों	-13717
▁वार्तालाप	-13718
▁राष्ट्रवादी	-13719
▁वृद्धावस्था	-13720
IF	-13721
UT	-13722
यह	-13723
ौजी	-13724
्ज़	-13725
▁NH	-13726
▁मट	-13727
गर्भ	-13728
▁काठ	-13729
▁कास	-13730
▁दूत	-13731
▁पेप	-13732
▁भजन	-13733
▁हिज	-13734
म्बित	-13735
ोत्तर	-13736
▁पाचन	-13737
▁रोमन	-13738
▁अनीता	-13739
▁उद्गम	-13740
▁करेंः	-13741
▁चलाता	-13742
▁चलाते	-13743
▁दूषित	-13744
▁पार्थ	-13745
▁बुलेट	-13746
▁रवैये	-13747
▁स्टेड	-13748
▁चिन्तन	-13749
▁बुकिंग	-13750
▁विराट्	-13751
▁सिपाही	-13752
▁अस्वस्थ	-13753
▁किस्तों	-13754
▁डिपॉजिट	-13755
▁दिवालिया	-13756
▁रेस्तरां	-13757
▁सर्वसम्मति	-13758
षी	-13759
TPA	-13760
्यम	-13761
यनगर	-13762
यनों	-13763
▁Par	-13764
▁अपा	-13765
▁एसओ	-13766
▁चैक	-13767
▁थिर	-13768
▁लात	-13769
विष्ट	-13770
▁गुरब	-13771
▁ठरोग	-13772
▁पीजी	-13773
▁बंसल	-13774
▁मस्त	-13775
▁साधक	-13776
▁जातीय	-13777
▁द्रुत	-13778
▁सन्नि	-13779
▁विरचित	-13780
▁नामंजूर	-13781
▁अनुकरणीय	-13782
▁मुद्रास्	-13783
▁लाइसेंसिंग	-13784
▁पदाधिकारियों	-13785
नाद	-13786
शरण	-13787
ोरो	-13788
ोहन	-13789
सवाल	-13790
्रमी	-13791
▁जीभ	-13792
▁डुप	-13793
नीकरण	-13794
ियाला	-13795
▁उपगत	-13796
▁खगोल	-13797
▁द्रो	-13798
▁रीडर	-13799
्वेस्ट	-13800
▁कप्ता	-13801
▁दूंगा	-13802
▁नोट्स	-13803
▁बेलार	-13804
▁भाँति	-13805
▁राजने	-13806
▁साढ़े	-13807
▁कृतज्ञ	-13808
▁चीज़ें	-13809
▁पुरातन	-13810
▁वर्तनी	-13811
▁अमेरिकन	-13812
▁दूतावास	-13813
▁पार्वती	-13814
▁मेहरअली	-13815
▁श्लोकों	-13816
▁दुर्घटनाओं	-13817
ii	-13818
अन	-13819
ंगम	-13820
ठों	-13821
▁एर	-13822
्यूप	-13823
▁dtd	-13824
▁चाप	-13825
▁दोग	-13826
▁पिच	-13827
▁फीड	-13828
ग्रेड	-13829
फील्ड	-13830
▁एओआर	-13831
▁धमनी	-13832
▁पाकर	-13833
▁महाभ	-13834
▁रंजी	-13835
▁सेतु	-13836
▁होली	-13837
▁उत्खन	-13838
▁टेम्प	-13839
▁निपुण	-13840
▁पुनरु	-13841
▁मौर्य	-13842
▁गार्डन	-13843
कर्मियों	-13844
▁अयोध्या	-13845
▁सिक्योर	-13846
▁निवेदिता	-13847
▁प्रयोगों	-13848
▁गाजियाबाद	-13849
सऋ	-13850
धाम	-13851
रोन	-13852
ूले	-13853
एसएस	-13854
रपुर	-13855
▁BEN	-13856
▁खरे	-13857
▁टां	-13858
▁टाव	-13859
न्दगी	-13860
यॉर्क	-13861
वलोकन	-13862
ुपालन	-13863
ेलनों	-13864
▁बारा	-13865
▁महंत	-13866
▁रेज़	-13867
▁अंगुल	-13868
▁मारना	-13869
▁वेल्स	-13870
▁साम्प	-13871
▁School	-13872
▁निभाता	-13873
▁महंगाई	-13874
▁सिद्धि	-13875
▁गोरखपुर	-13876
▁परवर्ती	-13877
▁परिसीमन	-13878
▁उर्वरकों	-13879
lo	-13880
माइ	-13881
ासु	-13882
रेली	-13883
िएटर	-13884
▁LIN	-13885
▁एकक	-13886
र्ज्ञ	-13887
वाहित	-13888
▁मर्म	-13889
कात्मक	-13890
ग्रन्थ	-13891
यात्रा	-13892
▁घनत्व	-13893
▁ज्वार	-13894
▁बगीचे	-13895
▁सब्जी	-13896
▁एपेक्स	-13897
▁बालिका	-13898
▁वृत्ता	-13899
▁अंबेडकर	-13900
▁चुनिंदा	-13901
▁फ़ाइलों	-13902
▁फायरिंग	-13903
▁लेक्चरर	-13904
▁उद्यमिता	-13905
▁कार्यकरण	-13906
▁प्रतिषेध	-13907
▁बेरोजगार	-13908
▁सक्रियता	-13909
▁धारावाहिक	-13910
▁सम्प्रदाय	-13911
▁शल्यक्रिया	-13912
▁अल्पसंख्यकों	-13913
िआ	-13914
पाद	-13915
बनी	-13916
लयन	-13917
ोनी	-13918
▁घी	-13919
क्से	-13920
▁अँग	-13921
▁ईडी	-13922
▁सता	-13923
▁एनाल	-13924
▁छपाई	-13925
▁जीपी	-13926
▁झुंड	-13927
▁वायर	-13928
ायद्वी	-13929
▁चाहने	-13930
▁फैक्स	-13931
▁00,000	-13932
▁अपदस्थ	-13933
▁ठिकाने	-13934
▁डेल्टा	-13935
▁पड़ताल	-13936
▁पिछड़ा	-13937
▁सोमनाथ	-13938
▁पौष्टिक	-13939
▁सक्सेना	-13940
▁अनुष्ठान	-13941
▁कार्यकार	-13942
▁नाममात्र	-13943
▁प्रतिमान	-13944
▁प्रदर्शक	-13945
▁अभूतपूर्व	-13946
▁आपातकालीन	-13947
▁विश्वयुद्ध	-13948
VAT	-13949
ाधर	-13950
▁he	-13951
काशी	-13952
ग्ने	-13953
ब्बत	-13954
ोटिक	-13955
▁Col	-13956
▁एनी	-13957
▁जोश	-13958
▁बची	-13959
▁मोक	-13960
▁सीव	-13961
किनार	-13962
क्षमता	-13963
ाध्याय	-13964
▁फरमान	-13965
▁रद्दी	-13966
▁सुमित	-13967
▁अलमस्त	-13968
▁भाषणों	-13969
▁राज्या	-13970
▁चंद्रमा	-13971
▁दरकिनार	-13972
▁प्रभाकर	-13973
▁बेहतरीन	-13974
▁हाइड्रो	-13975
▁निविदाएं	-13976
▁परमेश्वर	-13977
▁एम्बुलेंस	-13978
▁प्रायद्वी	-13979
▁प्राप्तियों	-13980
▁झर	-13981
ावान	-13982
िकोड	-13983
▁ors	-13984
▁नीम	-13985
▁फ़र	-13986
▁शरा	-13987
▁साय	-13988
जीभाई	-13989
ुगतान	-13990
्यापक	-13991
▁कमान	-13992
▁कम्ब	-13993
▁खोजे	-13994
▁चतुर	-13995
▁चादर	-13996
▁तारे	-13997
▁निम्	-13998
▁पर्ण	-13999
▁बंडल	-14000
▁रेफर	-14001
▁सोया	-14002
▁ज़मान	-14003
▁तामील	-14004
▁नैदान	-14005
▁मार्ट	-14006
▁सुगंध	-14007
▁हेल्थ	-14008
▁अनुराग	-14009
▁अहंकार	-14010
▁गुर्दे	-14011
▁प्रीति	-14012
▁युसुफ़	-14013
▁कंडक्टर	-14014
▁मिलेंगे	-14015
▁राममोहन	-14016
▁क्रियाशील	-14017
▁फ्रांसीसी	-14018
▁लोकप्रियता	-14019
▁प्रधानाचार्य	-14020
uk	-14021
एमए	-14022
ेला	-14023
ण्डल	-14024
र्धक	-14025
▁पुत	-14026
▁आप्र	-14027
▁छूने	-14028
▁डीजी	-14029
▁देवे	-14030
▁विदा	-14031
ंस्कृत	-14032
▁दुष्ट	-14033
▁बढ़ाई	-14034
▁हुर्इ	-14035
▁अद्वैत	-14036
▁अनिच्छ	-14037
▁जोड़ों	-14038
▁दुश्मन	-14039
▁पुनर्ज	-14040
▁संगणित	-14041
▁खूबसूरत	-14042
▁नानालाल	-14043
▁निर्वचन	-14044
▁न्यूयॉर्क	-14045
▁पूर्णकालिक	-14046
▁साम्राज़्य	-14047
ib	-14048
कांड	-14049
र्दी	-14050
▁पिघ	-14051
▁मकर	-14052
▁शोथ	-14053
लीकृत	-14054
ेरिया	-14055
▁ROAD	-14056
▁उपकर	-14057
▁पारा	-14058
▁ब्यो	-14059
▁साइड	-14060
▁सूअर	-14061
▁कीमतें	-14062
▁पुष्पा	-14063
▁फेशियल	-14064
▁मन्त्र	-14065
▁सुझाया	-14066
▁अशक्तता	-14067
▁चौकीदार	-14068
▁वारिसों	-14069
▁श्रीराम	-14070
▁संग्रहीत	-14071
▁सम्मेलनों	-14072
▁पर्याप्तता	-14073
▁मुद्रास्फीति	-14074
०ग	-14075
ंधा	-14076
काय	-14077
▁Pr	-14078
aria	-14079
ुराम	-14080
ोलिक	-14081
▁तान	-14082
▁दुल	-14083
▁हिच	-14084
द्दाम	-14085
▁OANo	-14086
▁West	-14087
▁आर्क	-14088
▁खाती	-14089
▁चाची	-14090
▁जेएम	-14091
▁झुका	-14092
▁टोपी	-14093
▁बांट	-14094
स्वरुप	-14095
▁अंकुर	-14096
▁अस्सी	-14097
▁ईएसआई	-14098
▁क्वाल	-14099
▁त्रिव	-14100
▁लगाती	-14101
▁अघोषित	-14102
▁आयोजना	-14103
▁ग्रेटर	-14104
▁बोतलों	-14105
▁औपनिवेश	-14106
▁फिनलैंड	-14107
▁लापरवाह	-14108
▁वामपंथी	-14109
▁आश्रितों	-14110
AC	-14111
ूफ	-14112
ंसू	-14113
गिन	-14114
्हे	-14115
▁an	-14116
ंहार	-14117
कारक	-14118
गिरी	-14119
▁आरई	-14120
न्नों	-14121
ुक्ता	-14122
▁अनुष	-14123
▁उठती	-14124
▁ओवरट	-14125
▁डेमो	-14126
▁शिला	-14127
▁सूखी	-14128
▁एकत्व	-14129
▁ज्यों	-14130
▁समाधि	-14131
▁डीपीसी	-14132
▁भवभूति	-14133
▁अंगीकार	-14134
▁अध्यापन	-14135
▁ओवरराइड	-14136
▁महालेखा	-14137
▁ऑब्जेक्ट	-14138
▁संदर्भों	-14139
▁स्टेडियम	-14140
▁त्यागपत्र	-14141
▁वार्ताकार	-14142
▁प्रतिक्रियाओं	-14143
sil	-14144
आरए	-14145
ुमा	-14146
▁Sy	-14147
▁ढु	-14148
▁शू	-14149
त्रय	-14150
▁RFA	-14151
▁उपा	-14152
▁छाव	-14153
▁शॉट	-14154
नीयता	-14155
▁आवेश	-14156
▁दाने	-14157
▁पीयू	-14158
▁फतेह	-14159
▁नब्बे	-14160
▁पड़ना	-14161
▁राइफल	-14162
▁सैंपल	-14163
▁चुनावी	-14164
▁प्रेरण	-14165
▁खूबियों	-14166
▁पांचवीं	-14167
▁रक्तचाप	-14168
▁संप्रतीक	-14169
▁स्थितियां	-14170
▁दीर्घकालीन	-14171
दित	-14172
फेस	-14173
▁ऑट	-14174
वाहक	-14175
▁आति	-14176
▁ईसी	-14177
▁एका	-14178
▁घने	-14179
▁बुन	-14180
▁यंग	-14181
▁हतो	-14182
▁हाव	-14183
स्वाम	-14184
▁परिर	-14185
▁पीला	-14186
▁सम्य	-14187
ंजीकृत	-14188
ियोजित	-14189
▁आबद्ध	-14190
▁ग्रेट	-14191
▁ढूंढ़	-14192
▁प्रमो	-14193
▁लॉगिन	-14194
▁सीआरए	-14195
▁आरोग्य	-14196
▁उत्तरः	-14197
▁पिताजी	-14198
▁पिल्लई	-14199
▁नैदानिक	-14200
▁प्राणिक	-14201
▁बढ़ोतरी	-14202
▁सूचियों	-14203
▁आधारशिला	-14204
▁कारखानों	-14205
▁प्रकोष्ठ	-14206
▁प्रकाशनों	-14207
MP	-14208
रोड	-14209
▁MS	-14210
▁th	-14211
ANAG	-14212
र्गे	-14213
▁गजट	-14214
▁घिन	-14215
▁बैर	-14216
▁रिच	-14217
कार्ड	-14218
ोपैथी	-14219
▁अप्प	-14220
▁घबरा	-14221
▁दिवा	-14222
▁मापा	-14223
ैक्ट्र	-14224
▁एटीएम	-14225
▁घटाने	-14226
▁दर्पण	-14227
▁नित्य	-14228
▁फुफ्फ	-14229
▁उत्तरो	-14230
▁एनालॉग	-14231
▁चाहिएं	-14232
▁पागलपन	-14233
▁असेंबली	-14234
▁एससीआरए	-14235
▁क्लाइंट	-14236
▁एफटीआईएल	-14237
▁मवेशियों	-14238
▁पांडिचेरी	-14239
▁विधिमान्य	-14240
▁बुद्धिमत्ता	-14241
ly	-14242
हु	-14243
जिक	-14244
▁xx	-14245
▁ऋस	-14246
▁सँ	-14247
चुअल	-14248
बिंद	-14249
स्टन	-14250
ाहार	-14251
▁सैर	-14252
तमाला	-14253
्यस्त	-14254
▁Naya	-14255
▁भृंग	-14256
▁हावी	-14257
सात्मक	-14258
▁नलिका	-14259
▁वार्म	-14260
▁सचेतन	-14261
त्साहित	-14262
ोग्राफी	-14263
▁पैकिंग	-14264
▁मेजबान	-14265
▁रविवार	-14266
▁विवेचन	-14267
▁संदेशों	-14268
▁अनापत्ति	-14269
▁जरूरतमंद	-14270
▁प्रतीकात्मक	-14271
DS	-14272
HA	-14273
tr	-14274
xx	-14275
खला	-14276
ाधी	-14277
pura	-14278
०में	-14279
▁OCC	-14280
▁बसु	-14281
▁लटक	-14282
वाड़े	-14283
ान्ति	-14284
▁कांत	-14285
▁टीपी	-14286
▁मुखर	-14287
▁सुधा	-14288
▁अनपढ़	-14289
▁जानकी	-14290
▁प्राग	-14291
▁बिगड़	-14292
▁भतीजे	-14293
▁हरिजन	-14294
▁एसआईटी	-14295
▁तात्या	-14296
▁पूर्वज	-14297
▁अपराह्न	-14298
▁जनशक्ति	-14299
▁प्रतिबन्ध	-14300
▁प्रतिभागियों	-14301
▁इस्लामवादियों	-14302
RC	-14303
सै	-14304
२६	-14305
adi	-14306
फिल	-14307
ानक	-14308
ोदर	-14309
▁Bar	-14310
▁टॉम	-14311
▁पीस	-14312
▁रमण	-14313
ख्यान	-14314
ानन्द	-14315
्रेसी	-14316
▁कैसी	-14317
▁छिपे	-14318
▁दफ्त	-14319
▁मज़द	-14320
▁अंडों	-14321
▁जोसेफ	-14322
▁परवीन	-14323
▁बर्बर	-14324
▁राउंड	-14325
▁स्टेन	-14326
ापूर्वक	-14327
ोगात्मक	-14328
▁अस्थाई	-14329
▁कुटुंब	-14330
▁छिपाने	-14331
▁पकड़ना	-14332
▁बर्ताव	-14333
▁अमानवीय	-14334
▁कमोडिटी	-14335
▁मोहल्ला	-14336
▁लेखाकार	-14337
▁आंदोलनों	-14338
▁मातृभूमि	-14339
▁वार्षिकी	-14340
▁व्यवसायों	-14341
▁संपत्तियां	-14342
ल्ट	-14343
शान	-14344
▁उच	-14345
जीएस	-14346
ालतू	-14347
▁आरए	-14348
आधारी	-14349
ाधुंध	-14350
ानिकी	-14351
ियाना	-14352
▁जनमत	-14353
▁पीबी	-14354
▁फायद	-14355
▁यूसु	-14356
▁शाला	-14357
GALURU	-14358
▁मोक्ष	-14359
▁रिलीज	-14360
▁सॉल्व	-14361
▁हुक्म	-14362
▁अप्रिय	-14363
▁कार्बो	-14364
▁मछलियों	-14365
▁अप्रभावी	-14366
▁अप्राप्य	-14367
▁बैंककारी	-14368
▁कर्त्तव्य	-14369
▁प्रदाताओं	-14370
▁प्रैक्टिस	-14371
▁विरोधियों	-14372
▁प्रदर्शनों	-14373
▁सॉफ़्टवेयर	-14374
▁संक्षिप्तता	-14375
UL	-14376
ex	-14377
लाट	-14378
सोस	-14379
ोमा	-14380
▁EE	-14381
▁NI	-14382
प्पन	-14383
वियर	-14384
िस्म	-14385
▁पीई	-14386
देश्य	-14387
पुत्र	-14388
▁एलआर	-14389
▁काबू	-14390
▁पिंज	-14391
▁भरती	-14392
▁दबाकर	-14393
▁बुलाए	-14394
▁विनती	-14395
▁एकाधिक	-14396
▁फिल्टर	-14397
▁यदुनाथ	-14398
▁मातृत्व	-14399
▁विशेषतः	-14400
▁शॉर्टकट	-14401
▁अपंजीकृत	-14402
▁राजकोषीय	-14403
▁विस्फोटक	-14404
▁परक्राम्य	-14405
▁प्रवृत्तियों	-14406
द्वि	-14407
भाजन	-14408
▁ठिक	-14409
▁तले	-14410
▁मॉन	-14411
▁रेम	-14412
मेन्ट	-14413
ाहारी	-14414
ोरियम	-14415
▁काना	-14416
▁पारी	-14417
▁फैशन	-14418
▁लड़ी	-14419
▁विला	-14420
▁साझे	-14421
▁चचेरे	-14422
▁बलवंत	-14423
▁संचलन	-14424
▁सुनना	-14425
राष्ट्र	-14426
▁गारंटर	-14427
▁नालंदा	-14428
▁परीक्ष	-14429
▁यूनिटों	-14430
▁अनुवर्ती	-14431
▁आशीर्वाद	-14432
▁किराएदार	-14433
▁पर्वतमाला	-14434
▁पत्रकारिता	-14435
▁पुनर्भुगतान	-14436
ial	-14437
टिन	-14438
डीह	-14439
र्मी	-14440
ान्स	-14441
▁गेल	-14442
▁डैक	-14443
▁दाब	-14444
▁निल	-14445
▁मूक	-14446
▁यूट	-14447
▁रेफ	-14448
▁सनी	-14449
▁अफसर	-14450
▁एनजी	-14451
▁जीते	-14452
▁जुडी	-14453
▁धीमा	-14454
▁धोने	-14455
▁पठान	-14456
▁पडता	-14457
▁मोहर	-14458
▁शीतल	-14459
▁Patna	-14460
▁अपीली	-14461
▁उभरता	-14462
▁खन्ना	-14463
▁नाकाम	-14464
▁साड़ी	-14465
▁करवाना	-14466
▁सद्दाम	-14467
शास्त्री	-14468
▁पहुंचते	-14469
▁अंधाधुंध	-14470
▁अभिकर्ता	-14471
▁प्रदूषित	-14472
▁प्रायोजन	-14473
▁पारम्परिक	-14474
▁निर्यातकों	-14475
▁अभियांत्रिक	-14476
ऊं	-14477
क्ख	-14478
ौनी	-14479
▁NC	-14480
र्ना	-14481
शासन	-14482
▁PWs	-14483
▁उखा	-14484
▁केक	-14485
▁गैल	-14486
▁थिय	-14487
▁इम्प	-14488
▁दोहन	-14489
▁नक़ल	-14490
▁ब्रज	-14491
▁मजाक	-14492
▁आसमान	-14493
▁उल्टा	-14494
▁गुच्छ	-14495
▁जैकेट	-14496
▁परहेज	-14497
▁बेजबर	-14498
▁भाजपा	-14499
▁कहेंगे	-14500
▁जाएँगे	-14501
▁सर्वत्र	-14502
▁पूर्णांक	-14503
▁सेकेंडरी	-14504
▁शिष्टमंडल	-14505
▁कार्यकारिणी	-14506
▁राष्ट्रमंडल	-14507
▁प्रविष्टियाँ	-14508
िण	-14509
ापा	-14510
ayan	-14511
गिरि	-14512
▁ठंड	-14513
▁धुन	-14514
▁मरु	-14515
▁मुय	-14516
▁सिं	-14517
▁VIII	-14518
▁एडवा	-14519
▁टूटी	-14520
▁परोप	-14521
▁पौंड	-14522
▁माडल	-14523
▁जुलूस	-14524
▁तकलीफ	-14525
▁बर्मा	-14526
▁वजीफा	-14527
▁अधिवास	-14528
▁निशाना	-14529
▁औषधियों	-14530
▁निकालते	-14531
▁विपक्षी	-14532
▁अस्पृश्य	-14533
▁रामेश्वर	-14534
▁वर्गमीटर	-14535
▁सर्वांगी	-14536
▁BENGALURU	-14537
▁डिपार्टमेंट	-14538
UK	-14539
खले	-14540
तिर	-14541
वुड	-14542
कर्ण	-14543
ारित	-14544
▁बीओ	-14545
▁मोज	-14546
▁सबक	-14547
त्नों	-14548
▁आयरन	-14549
▁आरडी	-14550
▁एफसी	-14551
▁गौरी	-14552
▁चंदन	-14553
▁बंजर	-14554
▁बाड़	-14555
▁रचित	-14556
▁रोपण	-14557
▁लड़क	-14558
▁संकर	-14559
▁डब्लू	-14560
▁फ्लोर	-14561
▁भरपाई	-14562
▁मर्जी	-14563
▁एसआरआई	-14564
▁मन्दिर	-14565
▁Limited	-14566
▁कार्टून	-14567
▁विशाखाप	-14568
▁सीताराम	-14569
▁इकबालिया	-14570
▁उदारीकरण	-14571
▁हितधारकों	-14572
▁प्रौद्योगिकीय	-14573
ब्स	-14574
ाइप	-14575
▁et	-14576
▁हज	-14577
नाथन	-14578
ोपाय	-14579
▁केर	-14580
▁मिर	-14581
▁आरती	-14582
▁काया	-14583
▁जोकि	-14584
▁मद्य	-14585
ष्ट्री	-14586
▁असहमत	-14587
▁छुट्ट	-14588
▁पेशाब	-14589
▁बढ़ें	-14590
▁माइनस	-14591
▁रोकते	-14592
▁विफलः	-14593
▁अंगूठी	-14594
▁इकट्ठे	-14595
▁निरूपण	-14596
विज्ञानी	-14597
▁अराजकता	-14598
▁क्रीड़ा	-14599
▁तिथियों	-14600
▁एनेक्सचर	-14601
▁ग्रेजुएट	-14602
▁अनिवार्यता	-14603
▁नोटिफिकेशन	-14604
छी	-14605
are	-14606
ज्य	-14607
भ्र	-14608
मनी	-14609
▁AO	-14610
▁SS	-14611
एमएल	-14612
टीपी	-14613
▁मणि	-14614
▁गोबर	-14615
▁बीसी	-14616
▁लगान	-14617
▁व्यप	-14618
▁कहावत	-14619
▁गुजरे	-14620
▁घुसपै	-14621
▁पलायन	-14622
▁मौकों	-14623
▁सीढ़ी	-14624
▁रिटायर	-14625
▁सिखाया	-14626
▁अनुग्रह	-14627
▁कारखाना	-14628
▁निवृत्त	-14629
▁भागलपुर	-14630
▁रणनीतिक	-14631
▁वाक्यों	-14632
▁विवाहों	-14633
▁व्यवधान	-14634
▁इलैक्ट्र	-14635
▁औपनिवेशिक	-14636
▁कम्पनियों	-14637
▁सम्मानजनक	-14638
▁सिक्योरिटी	-14639
▁संस्कृतियों	-14640
ोइ	-14641
ुक्	-14642
▁ठा	-14643
श्मी	-14644
ौकिक	-14645
▁जीए	-14646
▁डाई	-14647
▁लां	-14648
▁हंग	-14649
गुप्त	-14650
▁कुंभ	-14651
▁बतला	-14652
▁हटकर	-14653
क्षत्र	-14654
जीरिया	-14655
▁उभरते	-14656
▁फसलें	-14657
▁महमूद	-14658
▁मौसमी	-14659
पेक्षित	-14660
▁आरएफपी	-14661
▁जिम्मे	-14662
▁फ़ारसी	-14663
▁ब्यौरे	-14664
▁मुट्ठी	-14665
▁हेमराज	-14666
▁इस्तीफे	-14667
▁प्रत्यय	-14668
▁समावेशन	-14669
▁अत्याधिक	-14670
▁बलपूर्वक	-14671
▁भुगतानों	-14672
▁द्विआधारी	-14673
▁पदाधिकारी	-14674
▁प्रभावकारी	-14675
▁राष्ट्रवाद	-14676
▁प्रतिभूतिकरण	-14677
ax	-14678
ODU	-14679
सिस	-14680
ोडे	-14681
्जा	-14682
स्टल	-14683
▁वृह	-14684
गमेंट	-14685
शीघ्र	-14686
▁इब्र	-14687
▁पीना	-14688
▁बनें	-14689
▁बुढ़	-14690
▁COTPA	-14691
▁अक्षय	-14692
▁नगण्य	-14693
▁पोशाक	-14694
▁फेंका	-14695
▁विल्स	-14696
▁सिडबी	-14697
▁अपनाकर	-14698
▁चुकौती	-14699
▁जानकार	-14700
▁मिटाने	-14701
▁मिलाया	-14702
▁सामरिक	-14703
▁विधानों	-14704
▁संतोषों	-14705
▁सुस्पष्ट	-14706
▁स्वराज्य	-14707
गों	-14708
ज्ह	-14709
तरा	-14710
संव	-14711
ासी	-14712
ेगा	-14713
▁it	-14714
▁ot	-14715
▁बँ	-14716
ोपेल	-14717
▁जोध	-14718
▁शूट	-14719
केशनल	-14720
ब्बों	-14721
▁अनुत	-14722
▁कणों	-14723
▁तंतु	-14724
▁पुरः	-14725
▁लिहा	-14726
▁वैभव	-14727
▁हायर	-14728
▁कीड़े	-14729
▁तेज़ी	-14730
▁द्रवि	-14731
▁पीठों	-14732
▁मलखान	-14733
▁सस्ता	-14734
▁हज़ार	-14735
▁आउटलेट	-14736
▁नवीनता	-14737
▁अन्यत्र	-14738
▁असंबद्ध	-14739
▁पोतन्ना	-14740
▁बेलारूस	-14741
▁श्रीनगर	-14742
▁सम्मिलन	-14743
▁परिचर्चा	-14744
▁बालकृष्ण	-14745
▁प्रबंधकों	-14746
▁संवैधानिकता	-14747
UB	-14748
ret	-14749
थ्य	-14750
ुनी	-14751
्रह	-14752
▁तस	-14753
▁वल	-14754
वेरी	-14755
्कों	-14756
▁आलू	-14757
▁गोध	-14758
▁मिज	-14759
▁Madh	-14760
▁अतिर	-14761
▁कुचल	-14762
▁समेट	-14763
▁सलाम	-14764
▁साँस	-14765
▁सींग	-14766
▁उभरने	-14767
▁घावों	-14768
▁तकिया	-14769
▁प्रोड	-14770
▁बैकअप	-14771
▁रंजीत	-14772
▁आकृष्ट	-14773
▁एचयूएफ	-14774
▁कुल्लू	-14775
▁फैमिली	-14776
▁सिक्के	-14777
ोपाध्याय	-14778
▁अधिरोपण	-14779
▁पदच्युत	-14780
▁मैकेनिक	-14781
▁संभाव्य	-14782
▁वार्मिंग	-14783
▁चुनौतियां	-14784
▁विषयवस्तु	-14785
▁अभिप्राप्त	-14786
▁प्रार्थनाओं	-14787
▁अभिव्यक्तियों	-14788
VC	-14789
ौने	-14790
▁SE	-14791
▁इज	-14792
▁उध	-14793
ाम्ब	-14794
▁कुस	-14795
▁छड़	-14796
धारणा	-14797
▁ऑक्स	-14798
▁गायन	-14799
▁चोटी	-14800
▁पितृ	-14801
▁सज़ा	-14802
▁क्रॉल	-14803
▁दामाद	-14804
▁पाएगा	-14805
▁फिक्स	-14806
▁बताये	-14807
▁ब्रॉड	-14808
▁सस्ती	-14809
▁सीनेट	-14810
▁आदित्य	-14811
▁कप्तान	-14812
▁कामयाब	-14813
▁ज़मानत	-14814
▁सेलुलर	-14815
▁मीट्रिक	-14816
▁परामर्शी	-14817
▁ट्रांसफ़ेरे	-14818
▁पारिस्थितिकी	-14819
ादि	-14820
▁चढ	-14821
गंगा	-14822
ासाह	-14823
▁एनए	-14824
▁दुम	-14825
▁फिस	-14826
▁सुष	-14827
्कोहल	-14828
▁केपी	-14829
▁जहरी	-14830
▁जिया	-14831
▁नारे	-14832
▁लगना	-14833
▁विरल	-14834
▁सुशी	-14835
▁चैत्य	-14836
▁द्रीय	-14837
▁निगमन	-14838
▁परमार	-14839
▁अन्तरा	-14840
▁कारागार	-14841
▁ज्योतिष	-14842
▁परम्परागत	-14843
MS	-14844
VI	-14845
झक	-14846
ERE	-14847
जना	-14848
फली	-14849
भंगा	-14850
ियरी	-14851
▁Off	-14852
▁आहत	-14853
▁टोल	-14854
▁रजत	-14855
इजेशन	-14856
▁किसे	-14857
▁ढूँढ	-14858
▁थॉमस	-14859
▁पावन	-14860
▁पीटर	-14861
▁बदमा	-14862
▁मिनी	-14863
▁रोके	-14864
▁क्षीण	-14865
▁तत्पर	-14866
▁दुर्य	-14867
▁बनावट	-14868
▁सत्रह	-14869
▁सहदेव	-14870
▁कार्गो	-14871
▁चतुर्व	-14872
▁मोर्चे	-14873
▁निकालकर	-14874
▁व्यंग्य	-14875
▁हर्जाना	-14876
▁जितेंद्र	-14877
▁रियासतों	-14878
▁अल्पकालिक	-14879
▁उत्तरोत्तर	-14880
▁हतोत्साहित	-14881
PW	-14882
ँघ	-14883
यो	-14884
ैच	-14885
ugh	-14886
युग	-14887
ैली	-14888
▁कफ	-14889
▁गे	-14890
RISH	-14891
िकीय	-14892
▁कॉज	-14893
▁जुन	-14894
िज्ञा	-14895
▁अनाथ	-14896
▁आंका	-14897
▁उभरे	-14898
▁देवर	-14899
▁धकेल	-14900
▁माली	-14901
▁शोभा	-14902
▁चार्ल	-14903
▁मधुकर	-14904
▁अधिप्र	-14905
▁दिलाता	-14906
▁संकुचन	-14907
▁संचालक	-14908
▁कार्तिक	-14909
▁चलचित्र	-14910
▁जनसाधारण	-14911
▁अवधारणाओं	-14912
CS	-14913
OS	-14914
ith	-14915
▁आड	-14916
▁ऊन	-14917
▁कवक	-14918
▁काँ	-14919
▁डोम	-14920
▁रहस	-14921
िलिंग	-14922
▁मजूम	-14923
▁हथकर	-14924
ुत्थान	-14925
▁काबुल	-14926
▁घूमने	-14927
▁घोड़ा	-14928
▁नक्शा	-14929
▁पूछना	-14930
▁हल्की	-14931
▁उकसावे	-14932
▁कीर्ति	-14933
▁पीसीआर	-14934
▁रेटिंग	-14935
▁उत्तरों	-14936
▁बंटवारे	-14937
▁संकुचित	-14938
▁गतिशीलता	-14939
▁नागेंद्र	-14940
▁बीआईएफआर	-14941
▁सन्निहित	-14942
▁अतिरिक़्त	-14943
▁निर्माणों	-14944
▁स्वतन्त्रता	-14945
LC	-14946
मह	-14947
षऋ	-14948
कंठ	-14949
ुलु	-14950
्यद	-14951
ज़ोर	-14952
जिये	-14953
योगी	-14954
ष्ठा	-14955
िताब	-14956
्याल	-14957
्राण	-14958
▁Pur	-14959
▁बरस	-14960
ODUCT	-14961
धिपति	-14962
▁अंडा	-14963
▁कांड	-14964
▁जुडे	-14965
▁तिरू	-14966
▁धड़क	-14967
▁पिंड	-14968
▁सीएफ	-14969
▁उठाये	-14970
▁घुड़स	-14971
▁ट्रीय	-14972
▁ठहरने	-14973
▁सिग्न	-14974
▁घुटनों	-14975
▁PRODUCT	-14976
▁चिड़िया	-14977
▁सियाराम	-14978
▁परिवर्धन	-14979
▁लाइब्रेरी	-14980
▁सर्वांगीण	-14981
▁राजमार्गों	-14982
▁वस्तुनिष्ठ	-14983
▁एंटरप्राइजेज	-14984
जै	-14985
ंकू	-14986
भाष्	-14987
यामी	-14988
र्दा	-14989
▁घोट	-14990
▁छुआ	-14991
▁दंप	-14992
▁ममल	-14993
▁मसल	-14994
▁सूख	-14995
▁ईर्ष	-14996
▁काटे	-14997
▁फ्ला	-14998
▁सतही	-14999
▁पंचों	-15000
▁रुग्ण	-15001
▁रुपया	-15002
▁अनेकों	-15003
▁इंट्रा	-15004
▁विमानन	-15005
▁समस्ती	-15006
▁हरिश्च	-15007
▁निधियां	-15008
▁मजूमदार	-15009
▁विमानों	-15010
▁अनिच्छुक	-15011
▁तानाशाही	-15012
▁पहुंचाना	-15013
▁पाइपलाइन	-15014
▁भर्तियों	-15015
▁सम्पादित	-15016
▁प्रतिधारण	-15017
▁विकासात्मक	-15018
▁विद्यासागर	-15019
da	-15020
sh	-15021
ोथ	-15022
PSC	-15023
नें	-15024
िकट	-15025
▁pp	-15026
▁sp	-15027
ंदरी	-15028
्राह	-15029
▁ADV	-15030
▁Dep	-15031
▁कुच	-15032
▁कोक	-15033
▁माउ	-15034
▁लता	-15035
▁लीं	-15036
धीनगर	-15037
न्तुक	-15038
ादेवी	-15039
्मीकि	-15040
▁टीटी	-15041
▁द्यो	-15042
▁परिध	-15043
▁पीएल	-15044
▁बिगा	-15045
▁सौते	-15046
ंटियों	-15047
द्वारा	-15048
▁छंटनी	-15049
▁रोहित	-15050
▁शुक्ल	-15051
▁सपनों	-15052
▁स्टोन	-15053
▁अमिताभ	-15054
▁ज़रुरत	-15055
▁दरभंगा	-15056
▁बनाएगा	-15057
▁ब्रांच	-15058
▁लोकहित	-15059
▁सातवें	-15060
▁सारवान	-15061
▁सोनवीर	-15062
▁जोखिमों	-15063
▁पशुपालन	-15064
▁वृंदावन	-15065
▁समावेदन	-15066
▁जमशेदपुर	-15067
▁दोषमुक्त	-15068
▁एजेंसियां	-15069
▁प्रतिकृति	-15070
▁लेबोरेटरी	-15071
▁तात्कालिकता	-15072
▁प्रत्यक्षतः	-15073
ATH	-15074
डि़	-15075
तलब	-15076
दून	-15077
िशा	-15078
तिथि	-15079
रियन	-15080
ावटी	-15081
▁अटक	-15082
▁काक	-15083
▁टोप	-15084
▁डोर	-15085
▁युन	-15086
▁सरी	-15087
▁अधिर	-15088
▁औरंग	-15089
▁कलाई	-15090
▁कृमि	-15091
▁मूवी	-15092
▁लोकस	-15093
▁सीवी	-15094
▁सूरी	-15095
GALORE	-15096
ारियों	-15097
ाहियों	-15098
▁जलाने	-15099
▁पाषाण	-15100
▁रोकती	-15101
▁वेदना	-15102
▁अतिचार	-15103
▁आयोगों	-15104
▁छोड़ते	-15105
▁जोड़ते	-15106
▁टीडीएस	-15107
▁निभाते	-15108
चिकित्सा	-15109
▁अपरिचित	-15110
▁एस्टोपेल	-15111
▁कहानियाँ	-15112
▁प्रतिवेद	-15113
▁महाभियोग	-15114
▁मानसिकता	-15115
▁मूर्तियों	-15116
▁आर्बिट्रेशन	-15117
▁अभियांत्रिकी	-15118
ूमत	-15119
गम्य	-15120
भुता	-15121
हटकर	-15122
ांशु	-15123
▁कुक	-15124
▁युव	-15125
▁सेब	-15126
▁हिर	-15127
ज्ञों	-15128
▁LINK	-15129
▁आभार	-15130
▁गुंट	-15131
▁नासा	-15132
▁पराज	-15133
▁बकरी	-15134
▁रोगा	-15135
▁स्वय	-15136
▁उतरने	-15137
▁करियर	-15138
▁पकाने	-15139
▁यूसुफ	-15140
▁सिक्ख	-15141
▁असंगति	-15142
▁चुप्पी	-15143
▁फिलहाल	-15144
▁सटीकता	-15145
▁नकदीकरण	-15146
▁रिएक्टर	-15147
▁उत्कीर्ण	-15148
▁तत्त्वों	-15149
▁विनिर्दि	-15150
▁असंतोषजनक	-15151
▁मुकदमेबाज	-15152
▁समस्तीपुर	-15153
▁नर्मदाशंकर	-15154
ञ्	-15155
हॉक	-15156
▁ND	-15157
▁अणु	-15158
▁जूझ	-15159
▁दरा	-15160
▁मेस	-15161
▁शैव	-15162
आईएडी	-15163
▁पूंछ	-15164
▁सरणी	-15165
च्छन्न	-15166
तत्त्व	-15167
▁कल्लू	-15168
▁ग्लास	-15169
▁वरदान	-15170
artment	-15171
नेलवेली	-15172
▁Bhawan	-15173
▁गठबंधन	-15174
▁दिखाएं	-15175
▁भक्तों	-15176
▁वर्धित	-15177
▁कोल्हटकर	-15178
▁कांग्रेसी	-15179
▁छात्रवृत्ति	-15180
UDA	-15181
रेक	-15182
लेम	-15183
संक	-15184
्बा	-15185
▁ईस	-15186
▁छव	-15187
मनगर	-15188
ुकूल	-15189
▁टूर	-15190
▁डीन	-15191
▁मोम	-15192
▁लोन	-15193
▁सल्	-15194
संदेह	-15195
स्टेट	-15196
▁CCNo	-15197
▁अब्ब	-15198
▁आराध	-15199
▁ईसाइ	-15200
▁जनना	-15201
▁डंडा	-15202
▁लाइफ	-15203
▁प्लेस	-15204
▁बयाना	-15205
▁अधिकता	-15206
▁गाँवों	-15207
▁जेएनयू	-15208
▁बनवाया	-15209
▁ब्यौरा	-15210
▁मकानों	-15211
▁यन्त्र	-15212
▁सन्देश	-15213
▁स्थापन	-15214
▁जन्मजात	-15215
▁पुराणों	-15216
▁प्रवृति	-15217
▁मोतीलाल	-15218
▁सादृश्य	-15219
▁सुब्रमण	-15220
▁गांधीनगर	-15221
▁पुरातत्व	-15222
▁प्रतिध्व	-15223
▁यूरोपियन	-15224
▁चतुर्वेदी	-15225
▁जमींदारों	-15226
▁संस्करणों	-15227
▁पाकिस्तानी	-15228
▁ब्रह्मानंद	-15229
▁सिद्धान्तों	-15230
▁हिन्दुस्तानी	-15231
DC	-15232
शर	-15233
ण्ण	-15234
▁LA	-15235
▁Si	-15236
कृमि	-15237
ाहिम	-15238
▁Hig	-15239
▁जेट	-15240
▁दीव	-15241
▁पीप	-15242
▁बख्	-15243
▁लवण	-15244
विदित	-15245
▁उदास	-15246
▁जेपी	-15247
▁दरार	-15248
▁दैवी	-15249
▁नुस्	-15250
▁वहॉँ	-15251
पराइटर	-15252
▁खींची	-15253
▁खोजें	-15254
▁जसवंत	-15255
▁तूफान	-15256
▁फोर्ट	-15257
▁संगति	-15258
▁परिसंघ	-15259
▁इकाइयाँ	-15260
▁BANGALORE	-15261
▁प्रयत्नों	-15262
▁रूपांतरित	-15263
▁स्क्रिप्ट	-15264
▁अतिशयोक्ति	-15265
▁होल्डिंग्स	-15266
▁अपर्याप्तता	-15267
▁प्रमाणपत्रों	-15268
VII	-15269
कथा	-15270
कां	-15271
िगे	-15272
ेसी	-15273
▁Th	-15274
▁ee	-15275
▁gu	-15276
▁गम	-15277
रहाल	-15278
▁San	-15279
▁चिह	-15280
▁पुट	-15281
▁फिज	-15282
▁बाथ	-15283
▁मसौ	-15284
ास्थि	-15285
▁रुके	-15286
▁लेखे	-15287
▁सरला	-15288
▁सेबी	-15289
▁गैसों	-15290
▁चौंका	-15291
▁लौटते	-15292
▁सांके	-15293
▁हैरान	-15294
▁उत्खनन	-15295
▁एनसीसी	-15296
▁घुसपैठ	-15297
▁रिश्ता	-15298
▁सोडियम	-15299
▁निराकरण	-15300
▁प्रोन्न	-15301
▁सेनापति	-15302
▁प्राइमरी	-15303
▁सम्बंधित	-15304
▁बेरोजगारी	-15305
पच	-15306
गना	-15307
नित	-15308
रीज	-15309
वली	-15310
सेल	-15311
ोशी	-15312
▁CA	-15313
▁ko	-15314
▁डब	-15315
पालन	-15316
र्मन	-15317
स्टी	-15318
ुल्स	-15319
▁URL	-15320
▁कोऑ	-15321
▁खंभ	-15322
▁चंग	-15323
▁परभ	-15324
▁पैग	-15325
▁Gaya	-15326
▁NEET	-15327
▁एम्प	-15328
▁कोले	-15329
▁झटके	-15330
▁नाज़	-15331
▁पॉली	-15332
▁बाइट	-15333
▁म्या	-15334
▁यादृ	-15335
▁लाती	-15336
▁लॉरी	-15337
▁सूती	-15338
▁उद्भव	-15339
▁तालिब	-15340
▁बढ़ाए	-15341
▁मक्खन	-15342
▁वक़्त	-15343
▁एमसीआई	-15344
▁ज्ञानी	-15345
▁पड़ेगी	-15346
▁परिणति	-15347
▁भावनगर	-15348
ॉल्वेंसी	-15349
▁त्रिकोण	-15350
▁फैक्टरी	-15351
▁प्रमुखता	-15352
▁संपरिवर्तन	-15353
▁सर्वव्यापी	-15354
▁प्रस्तुतीकरण	-15355
ARS	-15356
ord	-15357
कोण	-15358
ोजर	-15359
▁cl	-15360
▁टि	-15361
आरएल	-15362
िएंट	-15363
▁LPA	-15364
▁कतर	-15365
▁टिन	-15366
▁तने	-15367
▁बाउ	-15368
▁लाश	-15369
▁सजग	-15370
रेटिव	-15371
ान्तर	-15372
▁MANU	-15373
▁ऑप्ट	-15374
▁वंशज	-15375
▁काटना	-15376
▁गुरुत	-15377
▁बरतने	-15378
▁सोचकर	-15379
▁स्वंय	-15380
▁स्वात	-15381
▁उदात्त	-15382
▁क्षत्र	-15383
▁टीआईपी	-15384
▁पृथक्क	-15385
▁बिछाने	-15386
▁श्रृंग	-15387
▁सुपारी	-15388
▁सुशासन	-15389
▁केआईएडी	-15390
▁जायसवाल	-15391
▁प्रमोशन	-15392
▁महाद्वी	-15393
▁शत्रुओं	-15394
▁कुंजीपटल	-15395
▁रिकॉर्डर	-15396
▁रूपान्तर	-15397
▁सांकेतिक	-15398
▁नाइट्रोजन	-15399
▁ब्रह्मांड	-15400
बस	-15401
ILL	-15402
मीम	-15403
▁Na	-15404
माता	-15405
रांत	-15406
्टिव	-15407
▁एडल	-15408
▁कवच	-15409
▁काफ	-15410
▁टिड	-15411
▁दाख	-15412
▁भाप	-15413
न्दरी	-15414
▁अशुभ	-15415
▁चंचल	-15416
▁चौबी	-15417
▁फेरी	-15418
▁संचय	-15419
्रीकृत	-15420
▁कीचड़	-15421
▁कुंवर	-15422
▁बरसात	-15423
▁लेफ्ट	-15424
▁ह्रदय	-15425
िज्ञासा	-15426
ोग्राफर	-15427
▁Kumari	-15428
▁करूँगा	-15429
▁नदियां	-15430
▁महत्तर	-15431
▁स्ट्रेट	-15432
▁वायुसेना	-15433
▁यादृच्छिक	-15434
MI	-15435
ua	-15436
use	-15437
▁fa	-15438
▁जख	-15439
ेट्स	-15440
▁Adv	-15441
▁भान	-15442
▁हँस	-15443
▁जलीय	-15444
▁थोडा	-15445
▁Mahto	-15446
▁अनादर	-15447
▁अशक्त	-15448
▁कुछेक	-15449
▁चालित	-15450
▁डिटेल	-15451
▁दुहरा	-15452
▁पायलट	-15453
▁बांटा	-15454
▁शुभार	-15455
▁आरटीआई	-15456
▁भुगतने	-15457
▁मददगार	-15458
▁अविभक्त	-15459
▁इमारतें	-15460
▁प्रसूति	-15461
▁इब्राहिम	-15462
▁उत्सुकता	-15463
▁इंडोनेशिया	-15464
▁प्रोपराइटर	-15465
▁रिस्पोंडेंट	-15466
ंन	-15467
णे	-15468
र्ब	-15469
▁RC	-15470
▁गड	-15471
▁टु	-15472
▁हठ	-15473
ance	-15474
जवान	-15475
शीली	-15476
ैक्स	-15477
▁Sah	-15478
▁अवा	-15479
▁डोग	-15480
▁धाम	-15481
▁http	-15482
▁टीके	-15483
▁मुकु	-15484
▁वाकई	-15485
▁शिका	-15486
▁एडहॉक	-15487
▁गुटों	-15488
▁बक्से	-15489
▁बीमित	-15490
▁मक्खी	-15491
▁वर्सस	-15492
▁विपुल	-15493
क्षोपाय	-15494
▁किंगडम	-15495
▁ग्रामो	-15496
▁त्यागी	-15497
▁निबन्ध	-15498
▁विषाणु	-15499
▁सिक्का	-15500
▁कंपाउंड	-15501
▁दृश्यों	-15502
▁विलुप्त	-15503
▁जिज्ञासा	-15504
▁सामान्यत	-15505
▁कांफ्रेंस	-15506
▁कार्यनीति	-15507
▁कार्यवाहक	-15508
▁स्टैंडर्ड	-15509
▁अस्पष्टीकृत	-15510
▁प्रतिस्पर्ध	-15511
▁स्थानान्तरण	-15512
▁प्रत्यक्षीकरण	-15513
२७	-15514
नोट	-15515
र्र	-15516
वाड	-15517
िनि	-15518
▁CE	-15519
▁IN	-15520
▁हृ	-15521
▁CRA	-15522
मिलित	-15523
▁करीम	-15524
▁ज्ये	-15525
▁फ़्र	-15526
▁भड़क	-15527
▁मूंग	-15528
▁राजग	-15529
▁वीडी	-15530
▁छावनी	-15531
▁बन्धन	-15532
▁सौदों	-15533
▁अलीगढ़	-15534
▁खासतौर	-15535
▁गुच्छा	-15536
▁पटवारी	-15537
▁बरामदे	-15538
▁बोलचाल	-15539
▁सुनाते	-15540
▁स्वीडन	-15541
▁ईश्वरीय	-15542
▁सक्षमता	-15543
▁गुणात्मक	-15544
▁विज्ञप्ति	-15545
▁प्रजातियां	-15546
▁वर्णनात्मक	-15547
▁साम्प्रदायिक	-15548
KA	-15549
दो	-15550
खोर	-15551
दशा	-15552
नार	-15553
ुचि	-15554
ोबा	-15555
▁On	-15556
▁नख	-15557
रांव	-15558
ायीं	-15559
िश्व	-15560
▁App	-15561
▁अगु	-15562
▁किफ	-15563
▁जेड	-15564
▁टंक	-15565
▁ढाई	-15566
▁साब	-15567
▁हैल	-15568
लियां	-15569
▁पीवी	-15570
▁पूरन	-15571
▁लोहा	-15572
▁हिरण	-15573
▁आहरित	-15574
▁एक्सा	-15575
▁तेजाब	-15576
▁पत्ती	-15577
▁परमान	-15578
▁विचरण	-15579
▁स्टॉप	-15580
▁अंधकार	-15581
▁क्लबों	-15582
▁बड़ौदा	-15583
▁बताएगा	-15584
▁मीटिंग	-15585
▁व्हाइट	-15586
▁संबधित	-15587
▁गलतियों	-15588
▁चार्ल्स	-15589
▁दोहराने	-15590
▁संरक्षा	-15591
▁उग्रवादी	-15592
▁शत्रुघ्न	-15593
▁चंद्रशेखर	-15594
▁विजयवाड़ा	-15595
▁कार्यनीतिक	-15596
▁ग्रहणाधिकार	-15597
GC	-15598
aff	-15599
ain	-15600
आईएस	-15601
चर्य	-15602
त्सा	-15603
▁Res	-15604
▁अवन	-15605
▁एंग	-15606
▁ठुक	-15607
▁दिक	-15608
▁पाम	-15609
▁पाश	-15610
▁शही	-15611
ंगठित	-15612
ोलिटन	-15613
▁Roht	-15614
▁खाया	-15615
▁छुरा	-15616
▁जरुर	-15617
▁तरुण	-15618
▁फोकस	-15619
▁रूपए	-15620
▁लटका	-15621
▁ट्राइ	-15622
▁पराजय	-15623
▁फ्रंट	-15624
▁बच्ची	-15625
▁बहुता	-15626
▁योंकि	-15627
▁जांचना	-15628
▁तिब्बत	-15629
▁शिलाले	-15630
▁सचिवों	-15631
▁हुकूमत	-15632
▁टर्नओवर	-15633
▁तीक्ष्ण	-15634
▁बोलियां	-15635
▁डायरेक्ट	-15636
▁प्रांतों	-15637
▁मताधिकार	-15638
▁सिंडिकेट	-15639
▁राजकुमारी	-15640
▁स्त्रियां	-15641
▁एन्क्रिप्ट	-15642
▁ब्राह्मणों	-15643
[...]
