<unk>	0
<s>	0
</s>	0
UuRrLl	0
DdAaTtEe	0
NnUuMm	0
▁क	-0
▁स	-1
▁ह	-2
▁प	-3
▁म	-4
▁के	-5
या	-6
ार	-7
▁न	-8
्र	-9
▁अ	-10
▁है	-11
▁,	-12
▁।	-13
ें	-14
▁ज	-15
▁द	-16
▁व	-17
र्	-18
▁कि	-19
ता	-20
▁में	-21
▁ब	-22
▁उ	-23
▁ल	-24
ों	-25
▁को	-26
ने	-27
्य	-28
▁की	-29
िक	-30
▁ग	-31
▁र	-32
▁औ	-33
▁और	-34
▁प्र	-35
▁आ	-36
्त	-37
ान	-38
ित	-39
▁त	-40
▁कर	-41
▁से	-42
▁इ	-43
▁का	-44
िए	-45
▁भ	-46
▁ए	-47
ना	-48
▁पर	-49
्व	-50
▁थ	-51
▁य	-52
▁.	-53
ही	-54
▁नि	-55
▁इस	-56
▁सं	-57
▁लिए	-58
▁श	-59
ाल	-60
▁वि	-61
▁जा	-62
क्	-63
हीं	-64
▁नहीं	-65
▁किया	-66
्या	-67
▁एक	-68
▁हो	-69
वा	-70
▁च	-71
ाम	-72
▁-	-73
िय	-74
▁यह	-75
▁या	-76
ति	-77
▁गया	-78
▁अप	-79
स्	-80
▁था	-81
▁ने	-82
ारा	-83
▁अन	-84
के	-85
क्ष	-86
क्त	-87
िया	-88
ले	-89
▁सम	-90
▁हैं	-91
सी	-92
▁भी	-93
▁करने	-94
▁अध	-95
ेश	-96
ला	-97
न्	-98
▁उस	-99
▁द्व	-100
हा	-101
ती	-102
ते	-103
▁सा	-104
▁द्वारा	-105
रा	-106
▁ख	-107
ष्	-108
िका	-109
िस	-110
▁स्	-111
ड़	-112
कार	-113
त्र	-114
नी	-115
ाद	-116
री	-117
ूप	-118
कर्	-119
िन	-120
▁अनु	-121
▁जो	-122
▁सक	-123
▁दे	-124
▁)	-125
▁रा	-126
▁कार	-127
गा	-128
▁निर्	-129
▁(	-130
▁रूप	-131
कर्ता	-132
▁न्या	-133
देश	-134
ां	-135
ियों	-136
ाव	-137
ोग	-138
स्त	-139
ारी	-140
ाय	-141
▁फ	-142
ाह	-143
▁/	-144
ल्	-145
द्	-146
चिका	-147
▁न्याया	-148
▁ले	-149
▁प्रति	-150
ंध	-151
▁याचिका	-152
▁उप	-153
त्	-154
▁माम	-155
ाप	-156
ष्ट	-157
रो	-158
▁उन	-159
मा	-160
▁हु	-161
ंग	-162
लय	-163
कि	-164
▁दिया	-165
▁अधिक	-166
▁मु	-167
न्ह	-168
▁साथ	-169
ली	-170
हत	-171
ओं	-172
धार	-173
से	-174
सा	-175
का	-176
रण	-177
बंध	-178
▁पह	-179
▁जिस	-180
▁कोई	-181
▁थी	-182
▁पू	-183
्री	-184
▁ड	-185
▁सु	-186
च्	-187
वाद	-188
▁गई	-189
त्त	-190
▁'	-191
▁वह	-192
▁किसी	-193
स्थ	-194
▁उन्ह	-195
▁सकता	-196
ास	-197
▁घ	-198
▁ही	-199
▁गए	-200
खा	-201
▁न्यायालय	-202
▁हम	-203
की	-204
ील	-205
ाग	-206
▁तो	-207
▁स्थ	-208
ंद	-209
ोज	-210
▁कु	-211
िव	-212
ाना	-213
▁ध	-214
ृत	-215
ार्	-216
▁पु	-217
▁व्य	-218
▁स्व	-219
▁आव	-220
▁याचिकाकर्ता	-221
▁अभ	-222
▁निय	-223
ंच	-224
▁जाता	-225
क्ति	-226
▁सी	-227
▁तहत	-228
िल	-229
ंड	-230
▁बाद	-231
▁राज	-232
▁अपने	-233
▁मामले	-234
▁थे	-235
▁विश	-236
▁जब	-237
्यों	-238
टी	-239
रह	-240
र्व	-241
▁चाह	-242
▁कहा	-243
ेद	-244
▁वर्	-245
▁तक	-246
▁संबंध	-247
पी	-248
वि	-249
▁अपील	-250
चार	-251
रे	-252
ंब	-253
्ष	-254
▁दो	-255
दा	-256
▁0	-257
▁आदेश	-258
▁ऐ	-259
▁P	-260
▁तथ	-261
▁सि	-262
ंक	-263
▁तरह	-264
▁दी	-265
ुत	-266
धान	-267
िला	-268
भी	-269
म्	-270
▁छ	-271
ब्	-272
▁वाल	-273
ियम	-274
च्च	-275
▁रह	-276
ंत	-277
▁आप	-278
मान	-279
ोंने	-280
में	-281
▁वे	-282
द्ध	-283
▁साम	-284
कर	-285
जी	-286
गे	-287
▁ट	-288
ात	-289
▁अव	-290
िर	-291
ून	-292
▁दि	-293
चित	-294
▁बना	-295
▁प्रतिवाद	-296
▁आरो	-297
धिक	-298
ूल	-299
▁किए	-300
ुर	-301
▁अन्य	-302
▁रि	-303
सार	-304
्यक	-305
▁उन्होंने	-306
दि	-307
लिए	-308
ुक्त	-309
▁हुए	-310
ीन	-311
▁परि	-312
▁इसलिए	-313
▁चाहिए	-314
▁पहले	-315
योग	-316
श्	-317
▁:	-318
▁करना	-319
▁उसके	-320
▁पी	-321
▁अद	-322
▁कारण	-323
▁प्रतिवादी	-324
▁समय	-325
ालत	-326
▁कुछ	-327
▁सर	-328
▁अधिन	-329
ोट	-330
▁सू	-331
▁अधिनियम	-332
ाप्त	-333
ारे	-334
स्ता	-335
▁क्ष	-336
▁कार्य	-337
▁अदालत	-338
स्ट	-339
्रे	-340
▁अभिय	-341
▁अधिकार	-342
गी	-343
▁होने	-344
▁निर्ण	-345
▁मान	-346
▁उनके	-347
▁बी	-348
▁पा	-349
किन	-350
ंबर	-351
▁कान	-352
र्थ	-353
▁जै	-354
▁निर्णय	-355
▁लेकिन	-356
र्ट	-357
ढ़	-358
जा	-359
▁करता	-360
▁पक्ष	-361
▁दू	-362
िति	-363
▁करते	-364
▁नियम	-365
▁मै	-366
▁आधार	-367
▁इन	-368
श्यक	-369
▁बि	-370
▁भार	-371
▁मे	-372
वल	-373
▁ओ	-374
▁सब	-375
मि	-376
▁ला	-377
ेष	-378
▁सरकार	-379
▁आवश्यक	-380
▁होता	-381
▁इसके	-382
्ञ	-383
र्म	-384
▁उत्त	-385
▁जांच	-386
▁रख	-387
▁उक्त	-388
र्ण	-389
▁बह	-390
नों	-391
▁राज्य	-392
▁PW	-393
ंत्र	-394
▁मृत	-395
▁विचार	-396
ंप	-397
▁मा	-398
भाव	-399
▁स्प	-400
दर्	-401
▁केवल	-402
▁प्रक	-403
न्न	-404
▁जाए	-405
▁होगा	-406
वाह	-407
▁अनुसार	-408
▁लगा	-409
▁रहा	-410
ध्य	-411
▁अपीलकर्ता	-412
▁सभी	-413
ेज	-414
▁व्यक्ति	-415
▁प्रा	-416
शन	-417
▁कम	-418
क्षा	-419
▁नंबर	-420
▁उसे	-421
▁श्री	-422
ानी	-423
जन	-424
्रा	-425
▁अपनी	-426
▁दर्	-427
ेत्र	-428
▁चु	-429
दे	-430
र्ड	-431
▁क्षेत्र	-432
▁दाय	-433
▁हि	-434
टर	-435
▁लि	-436
▁प्राप्त	-437
▁स्पष्ट	-438
▁क्यों	-439
▁उत्तर	-440
▁यदि	-441
▁विशेष	-442
▁प्रस्त	-443
लग	-444
▁उन्हें	-445
▁जाना	-446
ोक	-447
ाई	-448
दान	-449
ौर	-450
▁अग	-451
▁वाले	-452
▁प्रकार	-453
▁कानून	-454
▁विभ	-455
पू	-456
र्त	-457
▁S	-458
च्छ	-459
▁बै	-460
▁भू	-461
्रम	-462
▁प्रस्तुत	-463
▁आवेद	-464
▁आगे	-465
▁सह	-466
▁आय	-467
▁पै	-468
▁जारी	-469
▁रहे	-470
▁मूल	-471
टा	-472
▁तथा	-473
▁दूस	-474
▁जी	-475
▁मैं	-476
ाज	-477
धि	-478
टे	-479
ोजन	-480
टना	-481
्रिया	-482
▁गु	-483
▁स्वी	-484
▁निर्धार	-485
▁खिला	-486
▁हाल	-487
मी	-488
▁क्योंकि	-489
▁उत्	-490
▁वा	-491
▁पूर्व	-492
पो	-493
ादी	-494
शि	-495
▁अस	-496
करण	-497
स्ताव	-498
नि	-499
माण	-500
▁खिलाफ	-501
▁संप	-502
▁बात	-503
त्ति	-504
▁आरोपी	-505
▁अपरा	-506
यत	-507
▁मौ	-508
▁वर्ष	-509
▁अपराध	-510
ष्ठ	-511
▁अंत	-512
▁बे	-513
▁लिया	-514
▁बता	-515
▁समझ	-516
▁पार	-517
▁सर्व	-518
▁क्या	-519
▁लाग	-520
रि	-521
▁जाने	-522
▁देने	-523
▁पास	-524
ये	-525
▁गवाह	-526
जे	-527
▁निष्	-528
▁उल्	-529
चना	-530
▁संबंधित	-531
▁बारे	-532
▁बो	-533
र्क	-534
▁हुआ	-535
▁काम	-536
▁कह	-537
ड़ी	-538
त्म	-539
▁आरोप	-540
▁जिसमें	-541
▁उसने	-542
▁मृतक	-543
तर	-544
ड़ा	-545
▁अलग	-546
▁;	-547
हां	-548
लों	-549
रिक	-550
त्य	-551
ावधान	-552
ुग	-553
▁दायर	-554
▁देख	-555
▁ओर	-556
मे	-557
क्षण	-558
▁प्रावधान	-559
ज्ञ	-560
▁रु	-561
मति	-562
दी	-563
लिस	-564
▁पत्र	-565
▁जि	-566
▁नाम	-567
पाद	-568
धी	-569
▁वै	-570
िता	-571
कों	-572
▁उच्च	-573
▁बहुत	-574
▁दर्ज	-575
▁कंप	-576
▁भारत	-577
▁स्वीकार	-578
▁व्या	-579
▁एस	-580
ताओं	-581
▁पुलिस	-582
▁निर्धारित	-583
▁रिक	-584
दार	-585
वाही	-586
▁दु	-587
पोर्ट	-588
▁लग	-589
▁लोग	-590
्ल	-591
ज़	-592
▁सेवा	-593
जू	-594
ूत	-595
▁सकती	-596
▁पद	-597
ार्थ	-598
▁ठ	-599
▁ऊ	-600
▁फिर	-601
्यू	-602
क्ता	-603
▁लागू	-604
ड़े	-605
पूर्ण	-606
▁ऐसा	-607
▁अधिकारी	-608
▁धारा	-609
▁वादी	-610
▁रिपोर्ट	-611
वी	-612
▁सकते	-613
▁आवेदन	-614
ुल	-615
▁बीच	-616
▁जैसा	-617
▁शाम	-618
▁नी	-619
▁दा	-620
▁अभियोजन	-621
लि	-622
▁उनकी	-623
▁मह	-624
▁जाती	-625
▁साक्ष	-626
▁होती	-627
▁ता	-628
आर	-629
▁विश्व	-630
नीय	-631
▁प्रभाव	-632
▁माना	-633
▁करें	-634
ोर	-635
ोष	-636
▁प्रदान	-637
▁घटना	-638
शा	-639
▁हुई	-640
ग्र	-641
दर्भ	-642
्यान	-643
▁न्याय	-644
ांत	-645
▁इसे	-646
ंह	-647
▁A	-648
ट्	-649
▁C	-650
तान	-651
▁निर्देश	-652
▁प्रक्रिया	-653
▁संदर्भ	-654
▁भाग	-655
▁परी	-656
स्थित	-657
कृत	-658
▁शिका	-659
ोध	-660
▁जान	-661
आई	-662
▁शिकायत	-663
▁ऑ	-664
▁भूमि	-665
▁I	-666
▁उचित	-667
द्र	-668
िज	-669
▁ऐसे	-670
ची	-671
ेक	-672
▁स्थिति	-673
▁खु	-674
ाँ	-675
▁मां	-676
▁फै	-677
ृति	-678
▁पारित	-679
▁शामिल	-680
धिकरण	-681
▁परिव	-682
वन	-683
▁योग	-684
प्	-685
▁रिट	-686
ॉर्ड	-687
▁बार	-688
▁उसकी	-689
▁उपयोग	-690
▁अर्थ	-691
▁उठ	-692
▁दिन	-693
▁बिना	-694
ाइ	-695
▁मि	-696
▁अब	-697
ूं	-698
नांक	-699
लेख	-700
▁भुग	-701
▁बया	-702
डी	-703
▁जहां	-704
क्स	-705
पर	-706
▁आर	-707
▁दिनांक	-708
▁मन	-709
ब्द	-710
▁रखा	-711
▁स्थान	-712
▁अनुमति	-713
द्य	-714
▁मुख	-715
▁दोनों	-716
वाई	-717
▁भुगतान	-718
▁जाएगा	-719
▁रिकॉर्ड	-720
ांकि	-721
▁हालांकि	-722
▁सर्वो	-723
ेल	-724
▁ध्यान	-725
▁कंपनी	-726
▁वर्त	-727
▁?	-728
कारी	-729
तिक	-730
भा	-731
प्त	-732
एस	-733
ीय	-734
वाल	-735
▁आवश्यकता	-736
▁साक्ष्य	-737
▁बढ़	-738
▁घर	-739
▁वर्तमान	-740
▁उत्तरदा	-741
▁उद्	-742
▁तथ्य	-743
▁शुर	-744
▁व्यक्त	-745
हित	-746
ुक	-747
िक्ष	-748
फल	-749
चा	-750
▁सद	-751
▁अधिव	-752
▁सिंह	-753
▁दिए	-754
▁पूरी	-755
ल्प	-756
ोजना	-757
ंट	-758
▁कार्यवाही	-759
▁विवाद	-760
▁दौर	-761
▁पता	-762
▁सर्वोच्च	-763
▁पार्	-764
को	-765
▁राशि	-766
ालन	-767
▁अभियुक्त	-768
चे	-769
▁जिसे	-770
जि	-771
▁सबूत	-772
स्तव	-773
▁नोट	-774
▁मिल	-775
▁सम्	-776
कर्ष	-777
▁कर्म	-778
▁सामान	-779
▁जन	-780
▁मामला	-781
▁स्थाप	-782
▁कै	-783
▁व्यव	-784
युक्त	-785
▁स्ट	-786
▁निक	-787
ित्व	-788
तन	-789
रों	-790
▁करे	-791
▁संपत्ति	-792
▁अधिवक्ता	-793
▁ऐसी	-794
▁याचिकाकर्ताओं	-795
▁देखा	-796
▁बयान	-797
▁पर्	-798
▁दस्ताव	-799
▁दौरान	-800
▁जिसके	-801
त्मक	-802
▁वास्तव	-803
ंजी	-804
▁उद्देश	-805
मार	-806
िन्न	-807
▁ग्र	-808
▁शब्द	-809
्यता	-810
बी	-811
▁अपना	-812
▁सो	-813
▁शक्ति	-814
▁सिद्ध	-815
▁दृ	-816
ar	-817
▁अं	-818
▁ई	-819
ोड़	-820
▁अला	-821
स्व	-822
णा	-823
▁तै	-824
▁विक	-825
्यालय	-826
िंग	-827
▁मुक	-828
रोध	-829
▁होना	-830
▁कॉ	-831
▁बा	-832
सू	-833
शोध	-834
▁झ	-835
▁बु	-836
▁समक्ष	-837
एं	-838
तीय	-839
▁अलावा	-840
खित	-841
▁मध्य	-842
ग्री	-843
गर	-844
▁फैस	-845
▁चल	-846
▁दस्तावेज	-847
▁पहु	-848
▁प्रव	-849
स्प	-850
▁जैसे	-851
ोल	-852
▁बाह	-853
▁उसी	-854
ायी	-855
▁रही	-856
▁डि	-857
▁दिखा	-858
▁तब	-859
▁संशोध	-860
▁मामलों	-861
ष्टि	-862
▁जु	-863
ाली	-864
▁लाभ	-865
▁अवधि	-866
▁दावा	-867
▁मुकद	-868
मिक	-869
स्था	-870
हार	-871
▁शुरू	-872
हाय	-873
▁समान	-874
▁माध्य	-875
▁जिन	-876
र्ष	-877
▁दूसरे	-878
▁देश	-879
▁बन	-880
▁खार	-881
an	-882
▁ये	-883
▁D	-884
▁माल	-885
▁उद्देश्य	-886
जर	-887
▁परिण	-888
ेशन	-889
▁सामान्य	-890
▁चि	-891
▁खारिज	-892
गत	-893
▁अगर	-894
▁अति	-895
यन	-896
▁लोगों	-897
▁सहाय	-898
▁वाली	-899
▁प्रत्य	-900
▁स्त	-901
धीश	-902
▁सदस	-903
▁तैया	-904
ंस	-905
▁परिणाम	-906
▁तर्क	-907
▁गल	-908
▁शिक्ष	-909
▁आई	-910
▁उठा	-911
▁पुर	-912
▁खंड	-913
▁उत्पाद	-914
▁भारतीय	-915
▁न्यायाधीश	-916
वार	-917
▁यहां	-918
▁भीतर	-919
द्व	-920
▁R	-921
▁महत	-922
भव	-923
▁विभाग	-924
▁माध्यम	-925
हरा	-926
िये	-927
▁मो	-928
त्या	-929
▁पुन	-930
जूद	-931
▁डी	-932
▁%	-933
रूप	-934
्रीय	-935
▁तरी	-936
▁तीन	-937
▁समझौ	-938
▁सिद्धांत	-939
तिम	-940
▁अच्छ	-941
ूर	-942
▁प्रमाण	-943
ेट	-944
▁शी	-945
मत	-946
निक	-947
णी	-948
▁परिस्थित	-949
बर	-950
▁बैंक	-951
▁जिला	-952
ियां	-953
▁विव	-954
▁बद	-955
▁सामग्री	-956
▁प्रयोग	-957
▁होते	-958
काश	-959
▁तैयार	-960
▁योजना	-961
▁सुर	-962
धा	-963
▁मुझ	-964
जिस्ट	-965
▁अनुप	-966
▁राम	-967
▁M	-968
▁निच	-969
▁उल्लेख	-970
▁प्रश	-971
▁क्र	-972
द्द	-973
िट	-974
▁हा	-975
▁घोष	-976
▁पर्या	-977
▁संवि	-978
▁साल	-979
▁समाप्त	-980
बित	-981
लब्	-982
▁तथ्यों	-983
▁बताया	-984
ंद्र	-985
▁जीवन	-986
द्दे	-987
▁करती	-988
▁तारी	-989
▁भा	-990
▁मुख्य	-991
▁व्यक्तियों	-992
▁निप	-993
ग्रह	-994
▁तु	-995
षा	-996
▁मांग	-997
▁पहुंच	-998
▁गै	-999
▁साबित	-1000
्न	-1001
फ़	-1002
ण्	-1003
▁ना	-1004
▁प्रावधानों	-1005
▁तारीख	-1006
▁हिस्	-1007
▁सार	-1008
ेदार	-1009
▁कई	-1010
▁उपलब्	-1011
▁उपरो	-1012
▁हमारे	-1013
▁स्थापित	-1014
ूनी	-1015
्यु	-1016
▁विभिन्न	-1017
▁लेने	-1018
▁निष्कर्ष	-1019
▁उपरोक्त	-1020
▁निर्माण	-1021
न्द	-1022
▁राष्ट	-1023
▁उत्तरदाताओं	-1024
▁गो	-1025
श्चित	-1026
▁कब्	-1027
▁s	-1028
▁महत्व	-1029
ोजित	-1030
▁हों	-1031
▁परिस्थितियों	-1032
▁दोष	-1033
गम	-1034
▁कभी	-1035
▁बाहर	-1036
▁नोटिस	-1037
▁पाया	-1038
▁मुझे	-1039
▁निचली	-1040
सर	-1041
▁वाप	-1042
▁उपलब्ध	-1043
▁कथ	-1044
▁स्क	-1045
▁ढ	-1046
▁करके	-1047
▁सही	-1048
श्व	-1049
ौती	-1050
क्षित	-1051
स्थिति	-1052
राधिक	-1053
▁प्रस्ताव	-1054
▁सीमा	-1055
ेप	-1056
▁चुन	-1057
वास	-1058
▁बच्च	-1059
▁अनुबंध	-1060
िकास	-1061
भग	-1062
ुक्ति	-1063
▁अंतिम	-1064
▁B	-1065
क्ट	-1066
▁ज्ञ	-1067
▁संविधान	-1068
▁चला	-1069
▁व्याप	-1070
▁पूरा	-1071
मु	-1072
▁सीखा	-1073
▁प्रश्	-1074
श्च	-1075
ेय	-1076
▁वी	-1077
ेम	-1078
पुर	-1079
ाला	-1080
▁लगभग	-1081
▁वस्त	-1082
काल	-1083
▁कार्र	-1084
▁प्रवेश	-1085
▁पृ	-1086
▁गलत	-1087
▁विकास	-1088
▁विष	-1089
क्षम	-1090
▁सुप	-1091
ज्ञान	-1092
ामी	-1093
▁रखने	-1094
▁शु	-1095
दन	-1096
▁निम्	-1097
▁समर्थ	-1098
▁होगी	-1099
तु	-1100
▁मार्	-1101
▁नियमों	-1102
▁बनाम	-1103
ंभ	-1104
▁सामने	-1105
▁कृ	-1106
र्स	-1107
▁पढ़	-1108
▁E	-1109
▁बनाया	-1110
▁निम्न	-1111
▁कार्रवाई	-1112
▁तय	-1113
▁चोट	-1114
▁सजा	-1115
▁ऊपर	-1116
▁कोर्ट	-1117
▁सबसे	-1118
▁अतिरिक	-1119
▁दर	-1120
▁शर्त	-1121
▁हस्ता	-1122
िम	-1123
▁माननीय	-1124
▁आया	-1125
▁पर्याप्त	-1126
▁राय	-1127
तंत्र	-1128
ित्र	-1129
▁इसका	-1130
▁छोड़	-1131
▁जिन्ह	-1132
▁उसका	-1133
▁न्यायाधिकरण	-1134
▁रुप	-1135
तम	-1136
ुसार	-1137
▁अतिरिक्त	-1138
▁कुमार	-1139
शी	-1140
▁सूट	-1141
ंघ	-1142
▁पि	-1143
▁नीचे	-1144
▁पिता	-1145
▁प्रत्येक	-1146
▁लोक	-1147
▁मध्यस्थ	-1148
▁सके	-1149
▁सौ	-1150
▁लगाया	-1151
▁बिक	-1152
▁हमें	-1153
▁गवाहों	-1154
हर	-1155
▁जाते	-1156
▁पैरा	-1157
▁विप	-1158
▁हर	-1159
▁कानूनी	-1160
क्टर	-1161
▁दाव	-1162
▁तरीके	-1163
▁प्रदर्	-1164
▁पूर्ण	-1165
▁डॉ	-1166
▁प्रकृति	-1167
▁बच	-1168
▁करेगा	-1169
बा	-1170
▁फैसले	-1171
▁एन	-1172
त्रा	-1173
▁सुन	-1174
▁समिति	-1175
▁रो	-1176
▁एफ	-1177
▁ली	-1178
▁सार्व	-1179
▁बिक्री	-1180
▁रे	-1181
▁अधिकारियों	-1182
त्ता	-1183
▁सूची	-1184
▁उनका	-1185
▁सूचना	-1186
र्ती	-1187
वर	-1188
▁वित	-1189
▁विषय	-1190
मित	-1191
ल्क	-1192
▁परीक्षा	-1193
▁नियुक्ति	-1194
साय	-1195
▁पेश	-1196
▁संशोधन	-1197
▁सवाल	-1198
▁प्रश्न	-1199
▁पंजी	-1200
▁अंग	-1201
▁खा	-1202
व्य	-1203
▁गैर	-1204
द्योग	-1205
ेंस	-1206
▁ब्र	-1207
▁वापस	-1208
▁रोक	-1209
▁बल्	-1210
फी	-1211
▁ट्र	-1212
▁परीक्षण	-1213
▁एम	-1214
क्षेप	-1215
▁एक्स	-1216
न्त	-1217
▁सुप्रा	-1218
ापन	-1219
िश	-1220
▁लंब	-1221
▁वरि	-1222
▁मृत्यु	-1223
▁शीर्ष	-1224
वान	-1225
यं	-1226
वं	-1227
▁वस्तु	-1228
▁विस्त	-1229
▁वरिष्ठ	-1230
मो	-1231
हन	-1232
▁धार	-1233
यी	-1234
▁फ़	-1235
▁बैठ	-1236
▁प्रकाश	-1237
जनिक	-1238
▁न्यायिक	-1239
▁सार्वजनिक	-1240
▁प्राधिकरण	-1241
नाव	-1242
चान	-1243
▁गिर	-1244
म्म	-1245
▁जबकि	-1246
▁विद्व	-1247
▁हाथ	-1248
▁बर	-1249
▁सक्षम	-1250
्स	-1251
▁पो	-1252
था	-1253
ेंट	-1254
प्र	-1255
▁विध	-1256
▁वाला	-1257
▁चुनौती	-1258
▁आपराधिक	-1259
▁ती	-1260
धिकार	-1261
ासन	-1262
▁स्वयं	-1263
▁ऋ	-1264
▁विफल	-1265
▁उल्ल	-1266
टेड	-1267
▁SC	-1268
▁समर्थन	-1269
▁आयोजित	-1270
▁आदि	-1271
▁खोज	-1272
▁इसी	-1273
▁दंड	-1274
▁दूसरी	-1275
▁जमा	-1276
▁अंतर	-1277
पीसी	-1278
ंगिक	-1279
र्ति	-1280
▁उल्लंघ	-1281
▁स्वतंत्र	-1282
▁देता	-1283
▁गं	-1284
▁मूल्य	-1285
▁बनाए	-1286
▁श्रे	-1287
▁परिवार	-1288
एल	-1289
▁प्रबंध	-1290
ुट	-1291
▁उल्लंघन	-1292
▁मत	-1293
▁निहित	-1294
▁पत्	-1295
म्मी	-1296
्रेट	-1297
▁N	-1298
लिखित	-1299
at	-1300
▁लेख	-1301
▁नियुक्त	-1302
ंकन	-1303
▁बोर्ड	-1304
ूट	-1305
देह	-1306
पा	-1307
▁महत्वपूर्ण	-1308
▁निष्पाद	-1309
is	-1310
▁मही	-1311
▁इं	-1312
▁दुर्	-1313
ासंगिक	-1314
म्मीद	-1315
▁नियंत्र	-1316
▁संस्	-1317
▁उम्मीद	-1318
▁W	-1319
▁वेतन	-1320
▁महा	-1321
स्थान	-1322
▁आम	-1323
▁विन	-1324
▁निपट	-1325
▁बंद	-1326
▁अपीलकर्ताओं	-1327
▁प्रो	-1328
▁हे	-1329
▁चार	-1330
ुद्ध	-1331
िष्ट	-1332
पन्न	-1333
▁उद	-1334
▁अधीन	-1335
ल्ली	-1336
▁इसमें	-1337
▁शिकायतकर्ता	-1338
्वी	-1339
्यांकन	-1340
▁प्रती	-1341
▁K	-1342
▁बल्कि	-1343
▁मं	-1344
▁खरी	-1345
▁बढ़ा	-1346
क्षर	-1347
▁पहली	-1348
बल	-1349
▁पृष्ठ	-1350
ाइल	-1351
षण	-1352
मुख	-1353
▁हूं	-1354
▁सरकारी	-1355
▁एवं	-1356
▁कब्जे	-1357
▁&	-1358
तः	-1359
चारी	-1360
▁लाइ	-1361
▁सच	-1362
रीत	-1363
भर	-1364
▁देते	-1365
▁पूछ	-1366
▁आज	-1367
▁समझौते	-1368
▁बनाने	-1369
▁विपरीत	-1370
▁जग	-1371
▁ताकि	-1372
धानिक	-1373
▁शिक्षा	-1374
द्यालय	-1375
तना	-1376
▁संघ	-1377
▁आक	-1378
हाँ	-1379
▁संदेह	-1380
वानी	-1381
▁पड़	-1382
▁नाग	-1383
▁चे	-1384
▁प्रार	-1385
सत	-1386
▁पालन	-1387
▁जम	-1388
▁अथ	-1389
▁स्तर	-1390
▁गां	-1391
सान	-1392
▁वृ	-1393
▁संक	-1394
▁प्रतिनि	-1395
▁प्रासंगिक	-1396
▁योग्य	-1397
▁अधि	-1398
▁थीं	-1399
▁लिख	-1400
▁हक	-1401
ार्थी	-1402
▁योग्यता	-1403
ोन	-1404
▁ची	-1405
▁त्र	-1406
पाल	-1407
▁ऑफ	-1408
ंश	-1409
ब्ल	-1410
▁Ex	-1411
▁विशिष्ट	-1412
▁चौ	-1413
▁अधिस	-1414
▁दूर	-1415
ंख	-1416
▁तत्	-1417
▁अस्प	-1418
▁पंच	-1419
▁देना	-1420
▁पां	-1421
▁जवा	-1422
▁अधिसू	-1423
▁रद्द	-1424
▁मौजूद	-1425
▁भाषा	-1426
▁मूल्यांकन	-1427
▁लिमि	-1428
्रो	-1429
एम	-1430
ठन	-1431
पत्र	-1432
▁पीड़	-1433
▁अध्य	-1434
जिस्ट्रेट	-1435
▁कर्मचारी	-1436
ीकरण	-1437
▁स्कूल	-1438
▁लिमिटेड	-1439
▁लगाए	-1440
▁टी	-1441
▁बजे	-1442
▁मजिस्ट्रेट	-1443
वे	-1444
▁जानकारी	-1445
▁पहचान	-1446
▁एससी	-1447
▁कल	-1448
स्कार	-1449
ूह	-1450
▁दोषी	-1451
▁कार्यालय	-1452
ख्या	-1453
▁इससे	-1454
▁चर्	-1455
▁संर	-1456
▁हल	-1457
ूँ	-1458
र्तन	-1459
▁चयन	-1460
▁वर्ग	-1461
▁दीवानी	-1462
▁मेरे	-1463
▁संच	-1464
▁ठहरा	-1465
▁यू	-1466
▁शरी	-1467
कान	-1468
▁सहायता	-1469
▁इनकार	-1470
▁संह	-1471
▁मुकदमे	-1472
वरी	-1473
▁O	-1474
ुष	-1475
▁प्रस	-1476
▁हस्त	-1477
टक	-1478
▁हस्ताक्षर	-1479
▁गति	-1480
▁संहिता	-1481
▁उत्पन्न	-1482
ूंकि	-1483
▁पार्टी	-1484
ेर	-1485
▁चूंकि	-1486
▁भरो	-1487
ेंगे	-1488
▁पुरस्कार	-1489
▁मज	-1490
▁महीने	-1491
▁स्थित	-1492
▁जर	-1493
▁चिक	-1494
▁पार्ट	-1495
यास	-1496
लू	-1497
▁कथित	-1498
▁संभाव	-1499
▁चुनाव	-1500
▁पिछ	-1501
▁किरा	-1502
▁निदेश	-1503
▁धर्म	-1504
्यास	-1505
▁समाज	-1506
▁o	-1507
▁हकदार	-1508
लन	-1509
िवार	-1510
▁दृष्ट	-1511
▁खुद	-1512
▁केंद्र	-1513
▁निर	-1514
▁भेज	-1515
▁मालिक	-1516
▁अर्	-1517
▁लिये	-1518
ण्ड	-1519
▁विश्वास	-1520
ँच	-1521
▁उत्पादन	-1522
▁>	-1523
▁विवरण	-1524
▁भाव	-1525
ाक	-1526
ाँकि	-1527
▁हालाँकि	-1528
थमिक	-1529
▁सदस्य	-1530
▁कठ	-1531
▁प्राथमिक	-1532
▁जवाब	-1533
थम	-1534
▁मुकदमा	-1535
▁रुपये	-1536
▁मद्दे	-1537
▁अवसर	-1538
▁मद्देन	-1539
▁खुला	-1540
▁शरीर	-1541
ीक	-1542
▁निगम	-1543
▁प्रयास	-1544
▁मद्देनजर	-1545
▁पत्नी	-1546
भीर	-1547
▁सबूतों	-1548
लीय	-1549
▁अथवा	-1550
▁इसकी	-1551
▁घोषणा	-1552
in	-1553
▁अपीलार्थी	-1554
न्द्र	-1555
▁प्रभावित	-1556
द्धि	-1557
▁अवै	-1558
्म	-1559
▁डे	-1560
▁ज़	-1561
▁नीति	-1562
▁जब्त	-1563
▁स्टेशन	-1564
▁भरोसा	-1565
▁जे	-1566
▁वैध	-1567
▁गुण	-1568
ंदु	-1569
▁लिखित	-1570
▁प्रमुख	-1571
्ले	-1572
▁छोट	-1573
▁ठीक	-1574
बद्ध	-1575
▁अच्छी	-1576
▁अभी	-1577
▁चिकित	-1578
▁वाह	-1579
▁अप्र	-1580
▁प्राधिक	-1581
▁लड़	-1582
▁चर्चा	-1583
▁कुल	-1584
▁अवैध	-1585
▁जमीन	-1586
ur	-1587
▁बदल	-1588
विद्यालय	-1589
▁उम्मीदवार	-1590
▁भर	-1591
▁मैंने	-1592
इट	-1593
ताल	-1594
▁मिला	-1595
ST	-1596
▁सहायक	-1597
लो	-1598
▁संस्थान	-1599
▁निर्भर	-1600
on	-1601
क्षक	-1602
▁जिससे	-1603
▁गंभीर	-1604
▁वास्तविक	-1605
▁दिनों	-1606
▁तर	-1607
▁कमी	-1608
▁लगाने	-1609
ंदर	-1610
▁क्रम	-1611
▁शुल्क	-1612
▁छा	-1613
▁हस्तक्षेप	-1614
▁निश्चित	-1615
▁गये	-1616
▁विरोध	-1617
डर	-1618
▁एच	-1619
▁ज्ञान	-1620
▁शर्तों	-1621
▁व्याख्या	-1622
्यक्रम	-1623
▁ऋण	-1624
▁सुना	-1625
▁काफी	-1626
▁जिसका	-1627
al	-1628
▁भे	-1629
सल	-1630
▁सीख	-1631
मन	-1632
▁पूर्वो	-1633
▁पीछ	-1634
▁टे	-1635
▁स्वा	-1636
धन	-1637
▁गण	-1638
▁हित	-1639
▁प्रथम	-1640
▁दिल्ली	-1641
डे	-1642
▁दस्तावेजों	-1643
बे	-1644
▁पति	-1645
▁शब्दों	-1646
▁इरा	-1647
▁प्रारंभ	-1648
▁सुरक्षा	-1649
▁पुष्टि	-1650
▁नियमित	-1651
▁रखते	-1652
▁बें	-1653
▁पाठ	-1654
▁ति	-1655
▁सदस्यों	-1656
र्य	-1657
▁तौर	-1658
ष्ण	-1659
▁राहत	-1660
▁पे	-1661
▁वित्त	-1662
चारियों	-1663
▁विश्वविद्यालय	-1664
▁बड़ी	-1665
▁प्रार्थ	-1666
ब्ल्यू	-1667
▁प्रार्थना	-1668
▁आने	-1669
▁श्रेणी	-1670
▁संभव	-1671
▁तीस	-1672
निया	-1673
िको	-1674
▁मंत्र	-1675
पि	-1676
▁कर्मचारियों	-1677
ri	-1678
▁अधिसूचना	-1679
क्षि	-1680
न्म	-1681
▁संयुक्त	-1682
तों	-1683
ुप	-1684
▁जल	-1685
▁नगर	-1686
▁उत्तरदाता	-1687
▁धन	-1688
▁वर्ण	-1689
▁पार्टियों	-1690
▁शै	-1691
ंतु	-1692
▁व्यापार	-1693
▁पूर्वोक्त	-1694
ोस	-1695
▁मद	-1696
▁हटा	-1697
आईआर	-1698
▁कहते	-1699
श्य	-1700
▁वहां	-1701
ूर्ति	-1702
▁अनुसू	-1703
भू	-1704
▁शा	-1705
▁रंग	-1706
फ्त	-1707
▁कर्त	-1708
▁तदन	-1709
▁राष्ट्रीय	-1710
ाहरण	-1711
en	-1712
▁अनुरोध	-1713
पन	-1714
▁क़	-1715
▁मी	-1716
▁उदाहरण	-1717
▁अपी	-1718
▁बाज	-1719
मेंट	-1720
▁सुनवाई	-1721
▁आवेदक	-1722
▁आयोग	-1723
▁परिस	-1724
▁उपाय	-1725
▁तदनुसार	-1726
्रेड	-1727
▁प्रदर्शन	-1728
▁बाव	-1729
▁प्राधिकारी	-1730
विधा	-1731
▁संग	-1732
स्वरूप	-1733
कृति	-1734
▁L	-1735
▁डाल	-1736
▁वाद	-1737
▁लेन	-1738
▁#	-1739
▁समूह	-1740
▁हत्या	-1741
थि	-1742
▁रहने	-1743
▁दर्शा	-1744
▁अनिवार	-1745
▁पीड़ित	-1746
▁यहाँ	-1747
▁विस्तार	-1748
▁प्रदेश	-1749
▁जगह	-1750
▁राष्ट्र	-1751
▁क्ल	-1752
▁आत्म	-1753
▁अपीलीय	-1754
▁हिस्सा	-1755
▁जिसने	-1756
▁मुआ	-1757
▁नागरिक	-1758
▁हिस्से	-1759
▁देखते	-1760
▁मार	-1761
ट्टी	-1762
▁बस	-1763
लेज	-1764
▁निदेशक	-1765
▁G	-1766
▁करा	-1767
▁महिला	-1768
▁सीआर	-1769
▁बावजूद	-1770
▁इंड	-1771
राब	-1772
▁निजी	-1773
▁कारणों	-1774
▁आस	-1775
मता	-1776
▁तुम	-1777
▁मुआव	-1778
▁प्रतीत	-1779
▁समी	-1780
इन	-1781
कृतिक	-1782
▁प्रतिनिध	-1783
▁संव	-1784
▁आन	-1785
▁पें	-1786
स्या	-1787
▁बचाव	-1788
▁बड़े	-1789
▁नए	-1790
▁अनिवार्य	-1791
▁पूरे	-1792
▁याद	-1793
▁पश्च	-1794
▁प्रतिक	-1795
es	-1796
▁इस्त	-1797
▁शक्त	-1798
▁सै	-1799
▁मंजू	-1800
च्छेद	-1801
▁लगता	-1802
डा	-1803
▁हमने	-1804
ha	-1805
ूक	-1806
▁अने	-1807
▁भाई	-1808
▁होंगे	-1809
▁J	-1810
ांक	-1811
ियो	-1812
▁हमारी	-1813
दम	-1814
▁पोस्ट	-1815
▁मंद	-1816
▁दिशा	-1817
▁लाल	-1818
▁अभि	-1819
बू	-1820
▁चलता	-1821
▁उपस्थिति	-1822
▁सहित	-1823
एँ	-1824
ेयर	-1825
▁ब्या	-1826
वादी	-1827
रल	-1828
▁V	-1829
▁अभियुक्तों	-1830
▁H	-1831
▁परिभा	-1832
▁सीमित	-1833
▁मुद्दे	-1834
er	-1835
▁बल	-1836
▁दली	-1837
▁तुल	-1838
िव्य	-1839
▁विद्वत	-1840
ालय	-1841
▁व्यवस्था	-1842
▁आश	-1843
▁भर्ती	-1844
▁T	-1845
▁संके	-1846
▁अस्पताल	-1847
बन्	-1848
विध	-1849
जरा	-1850
ह्न	-1851
▁उससे	-1852
▁अम	-1853
फना	-1854
दाय	-1855
▁सुविधा	-1856
▁इच्छ	-1857
हास	-1858
▁अंक	-1859
▁समस्या	-1860
िकोण	-1861
▁समु	-1862
▁सफल	-1863
▁नियंत्रण	-1864
दिष्ट	-1865
ंडल	-1866
▁कवि	-1867
▁आपको	-1868
▁सूचित	-1869
▁तत्काल	-1870
धारण	-1871
▁ब्याज	-1872
धु	-1873
▁अस्वी	-1874
राज	-1875
वासी	-1876
प्ता	-1877
▁जानी	-1878
▁आधारित	-1879
▁कैसे	-1880
शिश	-1881
१०	-1882
▁चिकित्	-1883
▁बेंच	-1884
▁IST	-1885
▁संतु	-1886
द्योगिक	-1887
▁अनुमान	-1888
▁वर्षों	-1889
▁जिन्हें	-1890
▁अनेक	-1891
▁कोशिश	-1892
▁जिन्होंने	-1893
्यादा	-1894
▁WP	-1895
्राफ	-1896
▁पंजीकृत	-1897
▁निम्नलिखित	-1898
▁आए	-1899
▁संभावना	-1900
▁यानी	-1901
▁एकल	-1902
ैंड	-1903
No	-1904
लोक	-1905
गार	-1906
▁गयी	-1907
डब्ल्यू	-1908
▁एज	-1909
▁हलफना	-1910
▁लाइस	-1911
▁करेंगे	-1912
▁देरी	-1913
▁दृष्टिकोण	-1914
▁एफआईआर	-1915
▁पुस्त	-1916
लाई	-1917
शील	-1918
▁व्यक्तिगत	-1919
▁i	-1920
▁मध्यस्थता	-1921
▁बच्चे	-1922
▁सुझ	-1923
▁सुधार	-1924
▁एल	-1925
लग्न	-1926
▁निकाल	-1927
ंज	-1928
▁संदर्भित	-1929
▁रजिस्ट	-1930
▁प्रभ	-1931
▁नव	-1932
▁मात्रा	-1933
▁सत्र	-1934
ियन	-1935
त्व	-1936
▁प्रय	-1937
▁अर	-1938
▁अमे	-1939
मती	-1940
नाथ	-1941
▁चाहते	-1942
▁आर्थ	-1943
▁निर्दिष्ट	-1944
▁सेट	-1945
▁आरोपों	-1946
▁लाइसेंस	-1947
▁अधिकारों	-1948
सि	-1949
▁खरीद	-1950
ंसा	-1951
तार	-1952
▁रोग	-1953
र्न	-1954
▁पैदा	-1955
मार्	-1956
▁खो	-1957
▁सहमति	-1958
▁घोषित	-1959
▁जोड़	-1960
दू	-1961
▁चिह्न	-1962
प्प	-1963
▁परिणामस्वरूप	-1964
▁जमान	-1965
▁वैधानिक	-1966
▁वही	-1967
▁शि	-1968
▁मंजूरी	-1969
▁व्यवहार	-1970
▁हूँ	-1971
्ट	-1972
▁बाजार	-1973
▁व्यवसाय	-1974
▁चिकित्सा	-1975
▁पीछे	-1976
▁पं	-1977
ra	-1978
▁जाएगी	-1979
ूठ	-1980
चल	-1981
▁अगस्त	-1982
▁आर्थिक	-1983
▁क्षमता	-1984
तिहास	-1985
ग्	-1986
▁भौ	-1987
▁दावे	-1988
▁आयु	-1989
रासत	-1990
▁छो	-1991
▁संकेत	-1992
▁वाहन	-1993
ाजिक	-1994
ग्रहण	-1995
यों	-1996
▁बाल	-1997
षि	-1998
▁बाध्य	-1999
▁अन्यथा	-2000
▁विनियम	-2001
▁प्रण	-2002
ायल	-2003
िकल	-2004
ist	-2005
िवी	-2006
▁वसी	-2007
▁पांच	-2008
▁प्रतिवादियों	-2009
▁ठहराया	-2010
▁मानव	-2011
▁कॉलेज	-2012
▁प्रतिनिधित्व	-2013
ेमाल	-2014
खिल	-2015
▁मंदिर	-2016
▁चरण	-2017
▁परिवर्तन	-2018
▁गिरफ्त	-2019
▁आयुक्त	-2020
▁उपस्थित	-2021
▁इस्तेमाल	-2022
▁आईपीसी	-2023
ड्	-2024
▁सौंप	-2025
▁विदेश	-2026
धे	-2027
▁अपे	-2028
▁सामाजिक	-2029
▁संत	-2030
▁प्रबंधन	-2031
ेंद्र	-2032
▁आदेशों	-2033
▁समीक्षा	-2034
▁जीव	-2035
▁संशोधित	-2036
▁बिंदु	-2037
लाह	-2038
▁धो	-2039
▁निर्धारण	-2040
▁वसीयत	-2041
ेंसी	-2042
चन	-2043
ताछ	-2044
▁इंग	-2045
▁नक	-2046
संद	-2047
▁भले	-2048
▁राजस्व	-2049
दायी	-2050
ैन	-2051
▁समझा	-2052
▁भेजा	-2053
▁त्रुट	-2054
▁कौ	-2055
▁अग्र	-2056
▁निव	-2057
▁of	-2058
धीन	-2059
▁सुरक्षित	-2060
पति	-2061
लब	-2062
▁स्थायी	-2063
▁जन्म	-2064
▁बोली	-2065
र्ग	-2066
ct	-2067
पूर्व	-2068
▁अंग्रे	-2069
▁अह	-2070
टन	-2071
ियर	-2072
▁दायित्व	-2073
▁रखना	-2074
▁बच्चों	-2075
▁नुक	-2076
ंटी	-2077
▁स्थापना	-2078
न्तु	-2079
▁देय	-2080
▁काउ	-2081
ोक्ता	-2082
षित	-2083
▁चर	-2084
▁चार्	-2085
▁परे	-2086
▁एससीसी	-2087
▁आकर्ष	-2088
ृत्ति	-2089
▁नई	-2090
ष्य	-2091
▁निष्पादित	-2092
▁सिद्धांतों	-2093
▁लौ	-2094
▁रक्षा	-2095
▁पूछताछ	-2096
▁अनुच्छेद	-2097
▁कप	-2098
▁बैठक	-2099
▁तिथि	-2100
▁देव	-2101
▁नुकसान	-2102
▁अस्थ	-2103
स्तान	-2104
▁उपयुक्त	-2105
्रमण	-2106
▁पीठ	-2107
▁समा	-2108
▁अनुचित	-2109
▁टि	-2110
र्श	-2111
र्च	-2112
▁जमानत	-2113
जों	-2114
▁सुझाव	-2115
▁जहाँ	-2116
मात्र	-2117
▁दूसरा	-2118
सद	-2119
ंगत	-2120
▁आपत्ति	-2121
▁अनुभव	-2122
▁जनता	-2123
▁समझौता	-2124
▁श्रम	-2125
▁d	-2126
▁कट	-2127
▁सुनि	-2128
▁उद्योग	-2129
▁न्यायालयों	-2130
▁लाख	-2131
▁असम	-2132
▁पिछले	-2133
▁पानी	-2134
▁नौ	-2135
▁अल	-2136
▁लक्ष	-2137
▁इला	-2138
▁मार्ग	-2139
▁अत्य	-2140
ांतर	-2141
▁अधिग्रहण	-2142
िवीजन	-2143
▁सुनिश्चित	-2144
▁जिम्म	-2145
00	-2146
▁गवाही	-2147
रिम	-2148
▁तकनी	-2149
क्र	-2150
स्त्र	-2151
▁प्रदर्श	-2152
▁अभिव्य	-2153
▁तुलना	-2154
▁ज्यादा	-2155
ानीय	-2156
ाधिकार	-2157
▁विज्ञ	-2158
▁00	-2159
▁मर	-2160
▁व्यापक	-2161
▁पक्षों	-2162
▁मदद	-2163
ानि	-2164
्रेस	-2165
त्तियों	-2166
▁विर	-2167
▁उत्तरदायी	-2168
ुओं	-2169
▁जाये	-2170
▁सचिव	-2171
▁निपटान	-2172
र्फ	-2173
▁स्थानीय	-2174
▁प्रारंभिक	-2175
ियाँ	-2176
▁बज	-2177
▁किस	-2178
▁परिय	-2179
जनक	-2180
▁डिवीजन	-2181
त्मा	-2182
▁Dist	-2183
▁निरी	-2184
▁छोटे	-2185
▁छात्र	-2186
▁आद	-2187
▁अन्त	-2188
ंतर	-2189
ेशा	-2190
र्मा	-2191
▁परियोजना	-2192
▁सत्य	-2193
ॉल	-2194
▁मोट	-2195
▁मिली	-2196
▁अंतरिम	-2197
▁जिरह	-2198
चर	-2199
▁अच्छा	-2200
▁रोज	-2201
▁पदार्थ	-2202
▁चाल	-2203
▁श्रीमती	-2204
▁पंजीकरण	-2205
सित	-2206
▁शीर्षक	-2207
▁लेकर	-2208
षे	-2209
▁यही	-2210
ांति	-2211
▁वित्तीय	-2212
▁श्र	-2213
▁कदम	-2214
▁आरोपियों	-2215
▁हमेशा	-2216
▁प्राकृतिक	-2217
खी	-2218
▁”	-2219
▁निर्णयों	-2220
▁क्रिया	-2221
▁उठाया	-2222
▁स्पष्टीकरण	-2223
▁सीखे	-2224
▁पेज	-2225
तनी	-2226
▁अनुपालन	-2227
▁आवंट	-2228
▁देखने	-2229
वर्ती	-2230
▁बुला	-2231
शत	-2232
▁आपके	-2233
▁छु	-2234
सन	-2235
▁पक	-2236
▁एंड	-2237
▁त्रुटि	-2238
▁हिरासत	-2239
▁फर	-2240
▁देवी	-2241
कु	-2242
सिक	-2243
ोन्न	-2244
▁बिल	-2245
ल्ड	-2246
▁दिखाई	-2247
▁स्वतंत्रता	-2248
▁अस्त	-2249
ंगल	-2250
▁लो	-2251
▁गांव	-2252
▁लंबित	-2253
▁पदोन्न	-2254
▁मौत	-2255
▁रहता	-2256
▁चित्र	-2257
विदा	-2258
▁शव	-2259
▁लॉ	-2260
▁तुर	-2261
▁खुलासा	-2262
▁क्षेत्रों	-2263
▁सेवाओं	-2264
▁प्रेम	-2265
ानुसार	-2266
राह	-2267
▁नम	-2268
▁शक्तियों	-2269
▁केस	-2270
▁दलील	-2271
▁निषे	-2272
▁लिखा	-2273
▁मेरी	-2274
▁निर्धारिती	-2275
▁हिंद	-2276
▁दाखिल	-2277
▁भौतिक	-2278
▁कर्तव्य	-2279
▁रखी	-2280
टों	-2281
बाद	-2282
▁अनुश	-2283
▁दक्षि	-2284
▁अध्यक्ष	-2285
▁अनुमो	-2286
भाग	-2287
ड़क	-2288
ट्स	-2289
▁राजनी	-2290
▁बड़ा	-2291
▁संपर्क	-2292
किल	-2293
▁बराम	-2294
▁वसू	-2295
म्ह	-2296
▁दृष्टि	-2297
▁प्रकाशित	-2298
▁विकल्प	-2299
▁ग्राम	-2300
स्क	-2301
▁प्रतिशत	-2302
्यिक	-2303
▁अभ्यास	-2304
▁एकमात्र	-2305
▁रक्त	-2306
्याय	-2307
▁जोर	-2308
▁भूम	-2309
▁विज्ञान	-2310
▁निविदा	-2311
▁संचालन	-2312
्ला	-2313
▁सम्मान	-2314
▁काल	-2315
▁एड	-2316
मिल	-2317
▁अनुक	-2318
चरण	-2319
▁आता	-2320
▁लाया	-2321
्राम	-2322
▁तरफ	-2323
▁उठाए	-2324
▁गाँ	-2325
ान्त	-2326
म्ब	-2327
▁आपूर्ति	-2328
▁रचना	-2329
▁पहलू	-2330
▁फैसला	-2331
▁साहित	-2332
▁युद्ध	-2333
▁जाति	-2334
▁करोड़	-2335
जय	-2336
▁गर्	-2337
एन	-2338
▁लगे	-2339
▁छूट	-2340
▁इका	-2341
▁प्रणाली	-2342
षद	-2343
as	-2344
पूर्वक	-2345
▁निर्देशित	-2346
▁पेंशन	-2347
म्र	-2348
▁वसूली	-2349
▁रेल	-2350
िप	-2351
▁निकल	-2352
ंता	-2353
▁कहना	-2354
▁निषेध	-2355
▁निष्पादन	-2356
▁कृषि	-2357
ुआ	-2358
स्थ्य	-2359
▁चुका	-2360
ड़ों	-2361
▁याचिकाओं	-2362
▁प्रकट	-2363
▁संस्था	-2364
▁जाँच	-2365
▁अंतर्	-2366
▁रात	-2367
▁पीसी	-2368
म्प	-2369
▁उनमें	-2370
▁माता	-2371
▁उसमें	-2372
▁SCC	-2373
▁सत्ता	-2374
▁उपकरण	-2375
▁बां	-2376
▁वार्	-2377
डियो	-2378
११	-2379
▁पात्र	-2380
▁भवि	-2381
▁मुआवजे	-2382
▁शेष	-2383
▁सत	-2384
▁कर्	-2385
▁बरामद	-2386
▁रहते	-2387
▁प्रशास	-2388
▁इस्ल	-2389
▁रू	-2390
▁तुम्ह	-2391
▁यात्रा	-2392
तने	-2393
▁अस्तित्व	-2394
▁टिप्प	-2395
▁दावेदार	-2396
▁हथ	-2397
ॉस	-2398
▁चाहता	-2399
ात्	-2400
▁पेट	-2401
▁बहु	-2402
▁बोल	-2403
यां	-2404
▁संस्करण	-2405
▁II	-2406
▁भविष्य	-2407
▁विवेक	-2408
▁विधान	-2409
▁झूठ	-2410
▁ढंग	-2411
▁पुत्र	-2412
▁शाय	-2413
▁प्रतिबंध	-2414
▁इतिहास	-2415
▁स्वास्थ्य	-2416
▁सिर	-2417
▁विद्वान	-2418
▁क़ान	-2419
फार	-2420
▁भूमिका	-2421
▁होकर	-2422
▁उम्मीदवारों	-2423
ून्य	-2424
▁खाते	-2425
il	-2426
▁गठन	-2427
▁हमला	-2428
▁सेवान	-2429
▁वार	-2430
▁पंचाय	-2431
▁विलेख	-2432
▁सेवानिव	-2433
▁प्रधान	-2434
▁संतुष्ट	-2435
▁देती	-2436
▁आकार	-2437
▁अभिव्यक्ति	-2438
▁विस्तृत	-2439
▁पट्	-2440
▁वृद्धि	-2441
त्कार	-2442
▁निम्नानुसार	-2443
▁बरा	-2444
ल्पना	-2445
▁क़ानून	-2446
▁साह	-2447
▁केंद	-2448
▁मार्च	-2449
▁भावना	-2450
▁आकर्षित	-2451
▁राजा	-2452
ांतरित	-2453
जार	-2454
्वर	-2455
ैल	-2456
खंड	-2457
▁औद्योगिक	-2458
ज्	-2459
जित	-2460
श्छ	-2461
भाई	-2462
▁मजब	-2463
▁शायद	-2464
▁मेड	-2465
लंब	-2466
▁चाहे	-2467
्ष्	-2468
▁जल्	-2469
▁लागत	-2470
▁सलाह	-2471
▁विकसित	-2472
▁जरूर	-2473
्यो	-2474
▁थो	-2475
▁लगी	-2476
▁अर्थात	-2477
ag	-2478
▁अनुसूची	-2479
फा	-2480
▁अस्वीकार	-2481
▁कार्	-2482
▁नही	-2483
िल्	-2484
▁परिसर	-2485
▁ऊण्	-2486
श्छ्ष्	-2487
▁ऊण्श्छ्ष्	-2488
श्वर	-2489
▁कला	-2490
▁बॉ	-2491
▁शून्य	-2492
ंजन	-2493
▁विवाह	-2494
केट	-2495
▁उपर्	-2496
▁कांग	-2497
श्त	-2498
▁अर्थात्	-2499
▁उपर्युक्त	-2500
▁प्रवि	-2501
▁सुब	-2502
▁साव	-2503
▁सिफार	-2504
▁तुरंत	-2505
▁गुर	-2506
र्वा	-2507
्राइ	-2508
▁कहीं	-2509
▁यद्य	-2510
▁सिफारिश	-2511
IR	-2512
ायक	-2513
टल	-2514
▁आचरण	-2515
▁पड़ा	-2516
▁दिखाया	-2517
▁यद्यपि	-2518
▁शिव	-2519
▁कार्यों	-2520
▁बराबर	-2521
▁टै	-2522
▁पसंद	-2523
▁खे	-2524
▁मिले	-2525
▁बरी	-2526
ज़ा	-2527
▁मतलब	-2528
▁रिक्त	-2529
▁विज्ञापन	-2530
▁खर्च	-2531
▁इतना	-2532
and	-2533
▁स्थानांतरित	-2534
▁यु	-2535
▁शादी	-2536
▁बंग	-2537
यर	-2538
सनीय	-2539
▁गार	-2540
▁चेक	-2541
▁पीएस	-2542
▁अश	-2543
▁सोच	-2544
▁दिखाने	-2545
क्शन	-2546
▁जाय	-2547
▁जिनके	-2548
▁केंद्रीय	-2549
▁प्रशासन	-2550
▁सम्बन्	-2551
नामा	-2552
रिका	-2553
▁विश्ले	-2554
ंगे	-2555
दंड	-2556
क़	-2557
▁भग	-2558
ेदारी	-2559
▁गाँव	-2560
▁मान्यता	-2561
▁t	-2562
ॉक	-2563
णियों	-2564
ad	-2565
▁प्रभावी	-2566
▁गि	-2567
▁खेल	-2568
▁दुकान	-2569
▁धी	-2570
▁जून	-2571
▁भिन्न	-2572
AR	-2573
ल्स	-2574
am	-2575
▁निपटा	-2576
वरण	-2577
▁कार्यक्रम	-2578
ियार	-2579
▁कार्यकारी	-2580
▁धोखा	-2581
pur	-2582
▁वहाँ	-2583
▁पुरा	-2584
▁नया	-2585
▁क्रॉस	-2586
▁उल्लिखित	-2587
▁पुरुष	-2588
▁अध्ययन	-2589
▁छोड़कर	-2590
▁बेटी	-2591
▁c	-2592
▁पदों	-2593
▁विच	-2594
▁दायरे	-2595
▁मेरा	-2596
ालित	-2597
बिर	-2598
▁वन	-2599
ंटर	-2600
▁बिज	-2601
▁पहला	-2602
▁अमेरिका	-2603
▁जज	-2604
हीन	-2605
▁अभाव	-2606
▁होनी	-2607
बार	-2608
धानी	-2609
▁वाण	-2610
श्म	-2611
▁डॉक्टर	-2612
▁हमारा	-2613
▁वाय	-2614
साह	-2615
▁महान	-2616
▁विधि	-2617
▁मानते	-2618
हरी	-2619
आईसी	-2620
गढ़	-2621
▁सन्	-2622
rict	-2623
▁विदेशी	-2624
▁इच्छा	-2625
ल्ल	-2626
▁वाणिज	-2627
गल	-2628
▁मेडिकल	-2629
▁मुखबिर	-2630
▁District	-2631
्यून	-2632
▁व्याव	-2633
▁बचा	-2634
▁सहमत	-2635
ठी	-2636
▁दें	-2637
एफ	-2638
▁पाए	-2639
▁पदोन्नति	-2640
▁गुजरा	-2641
ैतिक	-2642
▁उद्ध	-2643
▁लेना	-2644
▁प्रे	-2645
▁वें	-2646
▁सित	-2647
प्ताह	-2648
▁उनसे	-2649
▁पड़ता	-2650
▁दक्षिण	-2651
▁किराय	-2652
▁सराह	-2653
ent	-2654
▁करनी	-2655
▁अनुरूप	-2656
ंगा	-2657
▁तंत्र	-2658
▁डा	-2659
▁तत्व	-2660
राव	-2661
नात्मक	-2662
▁मश	-2663
▁जिनमें	-2664
साइ	-2665
▁विभा	-2666
दारी	-2667
तियों	-2668
ैधानिक	-2669
▁कब्जा	-2670
▁निकाला	-2671
▁तकनीकी	-2672
▁सत्या	-2673
चि	-2674
ल्ट	-2675
▁ब्ल	-2676
▁घायल	-2677
▁चिह्नित	-2678
▁सभा	-2679
▁मुसल	-2680
पे	-2681
▁प्रत्यक्ष	-2682
▁पढ़ा	-2683
▁आग	-2684
▁अवि	-2685
it	-2686
▁नजर	-2687
रेट	-2688
▁कारा	-2689
▁छह	-2690
▁मुसलमान	-2691
▁स्थग	-2692
▁ते	-2693
▁पौ	-2694
▁नर	-2695
▁पंचायत	-2696
▁कांग्रेस	-2697
▁इक	-2698
पित	-2699
▁यून	-2700
▁हेतु	-2701
▁मिलता	-2702
▁प्रशासनिक	-2703
▁मौके	-2704
▁बीमा	-2705
▁दृश्य	-2706
▁मई	-2707
▁सामना	-2708
▁निश	-2709
▁रोजगार	-2710
यात	-2711
ेदन	-2712
▁एकत्र	-2713
▁पहुंचा	-2714
▁विभाजन	-2715
भूमि	-2716
▁अपराधों	-2717
▁इंडिया	-2718
▁कहानी	-2719
▁परिषद	-2720
AN	-2721
▁बजाय	-2722
▁तीसरे	-2723
▁मनुष	-2724
▁दल	-2725
▁सड़क	-2726
▁सहयोग	-2727
▁ज्ञापन	-2728
झा	-2729
▁बेच	-2730
▁संसद	-2731
▁शर्मा	-2732
्यूटर	-2733
घटना	-2734
दाता	-2735
▁परिस्थिति	-2736
▁आत	-2737
▁वो	-2738
▁एक्	-2739
▁दिस	-2740
▁कले	-2741
▁पाठ्यक्रम	-2742
स्टर	-2743
▁पुनर्	-2744
▁निवेश	-2745
▁निका	-2746
▁साहित्य	-2747
ारात्मक	-2748
▁सराहना	-2749
▁अवलोक	-2750
▁अपेक्षा	-2751
▁पढ़ने	-2752
or	-2753
ूरी	-2754
▁खून	-2755
सम	-2756
▁हिन्द	-2757
▁इंगित	-2758
▁विश्लेषण	-2759
▁सप्ताह	-2760
▁प्रदर्शित	-2761
मारी	-2762
्रिय	-2763
▁जनवरी	-2764
▁क्षेत्राधिकार	-2765
पक्ष	-2766
▁सुबह	-2767
▁देन	-2768
▁अनुदान	-2769
▁गी	-2770
भाल	-2771
▁खाली	-2772
दर	-2773
▁दुर्घटना	-2774
▁चार्ज	-2775
▁किये	-2776
ार्ड	-2777
▁जिसकी	-2778
▁विशेषज्ञ	-2779
▁कृत	-2780
▁शासन	-2781
▁इरादा	-2782
िष्	-2783
माने	-2784
▁कोड	-2785
▁बिजली	-2786
▁मू	-2787
▁कीमत	-2788
▁नदी	-2789
▁दुनिया	-2790
▁बने	-2791
▁देगा	-2792
▁फॉ	-2793
मल	-2794
▁जेल	-2795
▁मुक्त	-2796
▁परिभाषित	-2797
ांड	-2798
ग्राफ	-2799
▁अनुस	-2800
▁संचार	-2801
▁जिम्मेदार	-2802
खिक	-2803
ंथ	-2804
▁संय	-2805
▁हलफनामे	-2806
▁रखे	-2807
▁इस्लाम	-2808
▁राजनीतिक	-2809
▁अगले	-2810
▁सका	-2811
▁मोह	-2812
▁अंदर	-2813
har	-2814
▁तला	-2815
▁रेलवे	-2816
▁अक	-2817
जूदा	-2818
▁संलग्न	-2819
फे	-2820
▁उम्र	-2821
▁पीडब्ल्यू	-2822
पथ	-2823
▁अप्रैल	-2824
▁मौजूदा	-2825
▁महारा	-2826
▁सात	-2827
▁एक्ट	-2828
▁शेयर	-2829
▁आते	-2830
▁खोल	-2831
▁शे	-2832
▁प्राय	-2833
▁वस्तुओं	-2834
द्दा	-2835
▁कलेक्टर	-2836
▁जुलाई	-2837
▁सिर्फ	-2838
▁शंक	-2839
▁गारंटी	-2840
▁तेल	-2841
EN	-2842
▁देशों	-2843
▁अधिका	-2844
▁अवलोकन	-2845
यल	-2846
ंव	-2847
▁कॉल	-2848
ीस	-2849
▁अवस्था	-2850
ूम	-2851
▁कारावास	-2852
▁माँ	-2853
▁बंध	-2854
id	-2855
▁AIR	-2856
▁दिल	-2857
▁गणना	-2858
द्रा	-2859
ाज्ञ	-2860
▁F	-2861
ाज्ञा	-2862
▁क्षति	-2863
ांस	-2864
▁दुर	-2865
▁प्रतिष्ठ	-2866
▁मनोर	-2867
▁अके	-2868
▁निषेधाज्ञा	-2869
▁बेहत	-2870
▁मिश	-2871
▁गांधी	-2872
▁प्रसाद	-2873
ूबर	-2874
▁रोकने	-2875
▁संकल्प	-2876
▁स्थल	-2877
▁न्यून	-2878
▁ध्व	-2879
▁छोटी	-2880
▁भारी	-2881
▁स्टे	-2882
▁विश्वसनीय	-2883
्मिक	-2884
▁मौखिक	-2885
▁सेना	-2886
▁चलाने	-2887
▁दिख	-2888
▁निर्मित	-2889
▁साधारण	-2890
▁संवैधानिक	-2891
▁प्ल	-2892
हरे	-2893
▁गा	-2894
▁पाल	-2895
▁आनंद	-2896
▁भवन	-2897
▁समाप्ति	-2898
▁स्रो	-2899
▁उपन	-2900
▁बर्	-2901
▁प्रशिक्ष	-2902
ज्ञानिक	-2903
बिट	-2904
▁परन्तु	-2905
▁आतंक	-2906
▁धार्मिक	-2907
▁चाहिये	-2908
▁ग्रामी	-2909
▁पुस्तक	-2910
▁जित	-2911
दय	-2912
▁मानसिक	-2913
वाला	-2914
▁पाते	-2915
▁ग्रामीण	-2916
▁कवर	-2917
▁शाखा	-2918
▁छात्रों	-2919
▁संगठन	-2920
▁पाने	-2921
वक	-2922
▁पैराग्राफ	-2923
िकार	-2924
▁गतिविध	-2925
▁प्रमाणित	-2926
▁फरवरी	-2927
गो	-2928
▁मना	-2929
▁निष्पक्ष	-2930
▁निष्कर्षों	-2931
▁उच्चतम	-2932
▁पकड़	-2933
ed	-2934
▁विचारा	-2935
▁आधिकार	-2936
IC	-2937
पात	-2938
ष्ट्रीय	-2939
▁आकलन	-2940
▁न्यूनतम	-2941
▁दौ	-2942
▁आधिकारिक	-2943
शल	-2944
ंटे	-2945
▁निरंतर	-2946
▁X	-2947
▁करी	-2948
▁दस	-2949
▁निर्देशों	-2950
चक	-2951
गु	-2952
▁मोटर	-2953
▁दोहरा	-2954
▁निवासी	-2955
▁माप	-2956
मों	-2957
▁पंजा	-2958
ंचित	-2959
▁नमू	-2960
▁मशीन	-2961
▁विचाराधीन	-2962
▁मुद्दा	-2963
▁शहर	-2964
▁भोजन	-2965
उस	-2966
▁दिसंबर	-2967
ोलन	-2968
▁मुद्द	-2969
▁सक्रिय	-2970
▁सीधे	-2971
▁वैधता	-2972
▁भेद	-2973
कारों	-2974
▁बेटे	-2975
▁जरूरत	-2976
▁आत्मा	-2977
▁विद्य	-2978
लिक	-2979
िना	-2980
▁दरवा	-2981
▁आग्रह	-2982
▁लेते	-2983
ठित	-2984
um	-2985
▁गुजरात	-2986
▁संरचना	-2987
▁प्रतिकूल	-2988
▁निर्व	-2989
▁फ्र	-2990
▁नियोक्ता	-2991
▁कृष्ण	-2992
स्थाप	-2993
▁गिरफ्तार	-2994
▁रखता	-2995
▁मुद्दों	-2996
१२	-2997
्यात्मक	-2998
▁फोन	-2999
▁हिंदू	-3000
▁p	-3001
शक	-3002
▁अफ	-3003
▁शारी	-3004
▁लाने	-3005
ing	-3006
▁री	-3007
▁अहम	-3008
▁दस्तावेज़	-3009
▁बेहतर	-3010
ृत्त	-3011
▁कठोर	-3012
▁अंग्रेजी	-3013
▁निवास	-3014
▁फल	-3015
▁वर्णन	-3016
▁अनुपात	-3017
▁वालों	-3018
संगत	-3019
▁पड़े	-3020
▁किंतु	-3021
बि	-3022
▁इरादे	-3023
▁चुके	-3024
▁कहता	-3025
▁मनुष्य	-3026
▁इंटर	-3027
ैक	-3028
▁शारीरिक	-3029
▁स्वीकार्य	-3030
▁उठाने	-3031
▁कंप्यूटर	-3032
रत	-3033
▁औसत	-3034
▁संपूर्ण	-3035
किंग	-3036
▁चोटों	-3037
ुता	-3038
▁सां	-3039
▁बढ़ाने	-3040
▁जानते	-3041
▁फाइल	-3042
▁अभियोग	-3043
▁शत्र	-3044
▁जुड़े	-3045
▁पहल	-3046
चारिक	-3047
▁राष्ट्रपति	-3048
he	-3049
▁निशान	-3050
ंबई	-3051
▁परंतु	-3052
काया	-3053
▁जुर्म	-3054
▁अनुशास	-3055
▁नील	-3056
▁सर्वे	-3057
▁चीज	-3058
▁सितंबर	-3059
मय	-3060
▁उपचार	-3061
स्ती	-3062
ृह	-3063
ितीय	-3064
▁एचसी	-3065
▁ईश्वर	-3066
▁नियंत्रित	-3067
▁संक्षेप	-3068
▁युग	-3069
▁राज्यों	-3070
▁दूरी	-3071
▁निर्वा	-3072
▁U	-3073
▁बाई	-3074
वीं	-3075
▁परिभाषा	-3076
▁इकाई	-3077
▁पृथ	-3078
▁स्वीकृति	-3079
तक	-3080
▁डेटा	-3081
एच	-3082
▁शुद्ध	-3083
▁रजिस्ट्र	-3084
▁अस्थायी	-3085
▁कंपन	-3086
▁प्रेर	-3087
▁पश्चिम	-3088
न्ट	-3089
पीठ	-3090
▁स्वामी	-3091
▁अनुमोदन	-3092
▁मोब	-3093
▁भ्र	-3094
▁वाणिज्यिक	-3095
▁अधिकांश	-3096
भूत	-3097
▁वंचित	-3098
जाम	-3099
▁सावधानी	-3100
▁मंडल	-3101
ुति	-3102
▁धोखाध	-3103
AT	-3104
▁जुर्माना	-3105
▁शास	-3106
▁किरायेदार	-3107
कृ	-3108
▁खत	-3109
▁विधिव	-3110
▁कहने	-3111
ुपयोग	-3112
▁मॉ	-3113
कीय	-3114
▁सच्च	-3115
▁पुनः	-3116
▁शांति	-3117
▁धोखाधड़ी	-3118
▁हाई	-3119
▁मात्र	-3120
▁चंद	-3121
▁निरीक्षण	-3122
▁पृष्ठभूमि	-3123
▁उद्धृत	-3124
ाजित	-3125
ल्कुल	-3126
▁दास	-3127
ृत्व	-3128
▁कविता	-3129
▁मिलने	-3130
▁वितरण	-3131
यण	-3132
लाव	-3133
पालिका	-3134
▁भगवान	-3135
▁संदेश	-3136
▁रजिस्ट्रार	-3137
▁रहती	-3138
▁हद	-3139
▁परिवहन	-3140
धुनिक	-3141
▁बनाई	-3142
▁बिल्कुल	-3143
▁अल्प	-3144
▁जब्ती	-3145
▁लगातार	-3146
▁तेज	-3147
▁कल्या	-3148
न्व	-3149
▁आवा	-3150
ूपी	-3151
▁वर्गी	-3152
करार	-3153
लिंग	-3154
▁मनोरंजन	-3155
▁प्राइ	-3156
▁असमर्थ	-3157
▁असा	-3158
▁करेगी	-3159
सूस	-3160
▁निर्वहन	-3161
▁दुरुपयोग	-3162
सर्स	-3163
ion	-3164
▁नारा	-3165
▁हटाने	-3166
पु	-3167
वाय	-3168
्रिक	-3169
▁खाता	-3170
▁परेश	-3171
▁ठे	-3172
रिया	-3173
▁कल्पना	-3174
▁तभी	-3175
▁बरकरार	-3176
▁आंद	-3177
▁आरंभ	-3178
▁मोबाइल	-3179
▁मुद्रा	-3180
▁अक्ट	-3181
▁मुस्	-3182
चार्य	-3183
▁कल्याण	-3184
टने	-3185
▁हास	-3186
▁विचारों	-3187
घु	-3188
▁सारे	-3189
▁आधुनिक	-3190
▁उत्तराधिक	-3191
▁प्राथमिकता	-3192
▁अक्टूबर	-3193
नेट	-3194
▁चूक	-3195
▁मंत्रालय	-3196
AL	-3197
▁विवादित	-3198
▁अनुशासनात्मक	-3199
▁बताए	-3200
▁सील	-3201
▁संघर्ष	-3202
▁r	-3203
▁फ़ाइल	-3204
▁छुट्टी	-3205
बाजी	-3206
▁पटना	-3207
▁वर्णित	-3208
बोध	-3209
▁मानदंड	-3210
▁विधिवत	-3211
ोह	-3212
▁अनुसूचित	-3213
▁आमत	-3214
▁लेखा	-3215
▁निकट	-3216
▁ट्रस्ट	-3217
ic	-3218
धर	-3219
नो	-3220
▁प्रतिक्रिया	-3221
▁लै	-3222
पण	-3223
▁चंद्र	-3224
▁विविध	-3225
▁विरुद्ध	-3226
ृंख	-3227
पक	-3228
▁ख़	-3229
सु	-3230
▁दै	-3231
▁आमतौर	-3232
ंत्रित	-3233
▁स्म	-3234
▁खान	-3235
▁x	-3236
▁देकर	-3237
▁अनुपस्थिति	-3238
▁संसा	-3239
▁प्रि	-3240
▁नं	-3241
▁मित्र	-3242
▁संस्थानों	-3243
▁नती	-3244
▁ग्राह	-3245
▁एनआईसी	-3246
▁संरक्षण	-3247
ट्ट	-3248
▁किन	-3249
▁सम्बन्ध	-3250
ड्डी	-3251
▁बिहार	-3252
PC	-3253
▁भागी	-3254
पचारिक	-3255
ियोग	-3256
▁उपभ	-3257
▁समाचार	-3258
▁आदमी	-3259
▁काग	-3260
▁संस्कृत	-3261
▁सुल	-3262
▁चा	-3263
▁लाप	-3264
▁इतनी	-3265
क्रम	-3266
▁पराम	-3267
याँ	-3268
▁बंगाल	-3269
▁कौन	-3270
▁संज्ञान	-3271
▁हथियार	-3272
▁शाह	-3273
रक	-3274
▁अच्छे	-3275
भार	-3276
▁डाय	-3277
शु	-3278
ंका	-3279
▁ताल	-3280
▁दर्शाता	-3281
▁आयात	-3282
▁मिन	-3283
▁कमीशन	-3284
निय	-3285
▁अधिकृत	-3286
▁पहुंचे	-3287
स्वी	-3288
कालिक	-3289
▁ब्रह	-3290
ृंखला	-3291
▁महसूस	-3292
तल	-3293
▁चिंत	-3294
▁जनरल	-3295
टव	-3296
चीन	-3297
न्स	-3298
मीर	-3299
▁w	-3300
▁पर्य	-3301
▁तह	-3302
ल्ला	-3303
▁बुलाया	-3304
▁इसने	-3305
▁परामर्श	-3306
▁दबा	-3307
कता	-3308
▁वैज्ञानिक	-3309
▁एजेंसी	-3310
देन	-3311
▁धीरे	-3312
▁नेत	-3313
टिल	-3314
ंदा	-3315
▁इनमें	-3316
▁परिवर्त	-3317
▁कमरे	-3318
ांतरण	-3319
▁ब्रिट	-3320
▁बढ	-3321
▁बाहरी	-3322
▁साइट	-3323
▁प्रतिनिधि	-3324
ाकू	-3325
▁स्वाम	-3326
▁निर्यात	-3327
▁चले	-3328
लिम	-3329
▁रोड	-3330
▁बकाया	-3331
▁संगी	-3332
जु	-3333
▁चरित्र	-3334
▁छोटा	-3335
ोग्राम	-3336
ायिका	-3337
▁शुरुआ	-3338
र्द	-3339
▁पीओ	-3340
ोड	-3341
देव	-3342
▁खी	-3343
▁नेतृत्व	-3344
un	-3345
ियल	-3346
▁अंतर्गत	-3347
चीत	-3348
▁प्रग	-3349
▁प्रस्तावित	-3350
स्य	-3351
▁गतिविधियों	-3352
िकेट	-3353
नाटक	-3354
▁स्रोत	-3355
▁कोश	-3356
▁बातचीत	-3357
▁घु	-3358
▁सकें	-3359
▁शिक्षक	-3360
▁ब्रिटिश	-3361
▁पॉ	-3362
म्भ	-3363
राम	-3364
▁रहना	-3365
▁प्रेरित	-3366
ंगी	-3367
दारों	-3368
रीय	-3369
िल्म	-3370
UD	-3371
▁काउंटर	-3372
र्जी	-3373
▁खात	-3374
▁संतोष	-3375
▁सुनी	-3376
▁पूंजी	-3377
▁दर्शाया	-3378
ेंड	-3379
ध्या	-3380
▁खड़ा	-3381
▁समुदाय	-3382
▁कर्नाटक	-3383
▁मौलिक	-3384
▁आती	-3385
ंतरण	-3386
▁बयानों	-3387
▁कां	-3388
▁संग्रह	-3389
▁विभागीय	-3390
▁अदालतों	-3391
▁क्लॉ	-3392
ol	-3393
▁पूर्वा	-3394
▁पाव	-3395
▁दंडनीय	-3396
▁आंत	-3397
ya	-3398
▁कठिना	-3399
▁चुना	-3400
▁विजय	-3401
▁आंदोलन	-3402
▁000	-3403
▁वेतनमान	-3404
▁गिरफ्तारी	-3405
▁अनि	-3406
▁सरल	-3407
व्यों	-3408
▁ट्रेड	-3409
▁किराए	-3410
बाल	-3411
▁प्राथमिकी	-3412
▁अंड	-3413
▁अंश	-3414
टम	-3415
▁मुश्	-3416
▁बोझ	-3417
▁फर्म	-3418
ग्ध	-3419
र्जा	-3420
▁पैसे	-3421
यम	-3422
▁सर्वेक्षण	-3423
▁संपत्तियों	-3424
▁यूरो	-3425
पास	-3426
उट	-3427
ायर	-3428
▁जैसी	-3429
▁सीपीसी	-3430
▁घटनाओं	-3431
ठा	-3432
स्टे	-3433
▁प्राप्ति	-3434
▁वैक	-3435
▁टुक	-3436
▁लेनदेन	-3437
ांकन	-3438
▁विनि	-3439
oc	-3440
▁ग्रह	-3441
▁लंबे	-3442
▁न्यू	-3443
िटी	-3444
▁शपथ	-3445
▁साइ	-3446
नाम	-3447
▁अध्याय	-3448
▁अनुलग्न	-3449
▁आब	-3450
▁मुस्लिम	-3451
▁अधी	-3452
▁खास	-3453
▁नवंबर	-3454
जात	-3455
दित	-3456
▁विरोधा	-3457
फ्ट	-3458
▁जिले	-3459
▁टेली	-3460
उन	-3461
न्दी	-3462
▁a	-3463
धारा	-3464
▁घंटे	-3465
▁हाथों	-3466
न्ना	-3467
▁हृ	-3468
▁यादव	-3469
▁काउंस	-3470
▁आशा	-3471
▁ऊंच	-3472
▁पंजाब	-3473
▁आवंटित	-3474
मानी	-3475
▁सफलता	-3476
▁घट	-3477
म्बे	-3478
▁अकेले	-3479
▁अनुप्र	-3480
ोजक	-3481
▁वेब	-3482
▁अत्यधिक	-3483
▁जरूरी	-3484
▁कंपनियों	-3485
▁हस्तांतरण	-3486
▁मुश्किल	-3487
ारण	-3488
िफ	-3489
▁गलती	-3490
▁मकान	-3491
्रेता	-3492
िक्	-3493
▁लक्ष्य	-3494
▁टाइ	-3495
▁बला	-3496
भाष	-3497
दर्श	-3498
▁सुनाई	-3499
▁गुजर	-3500
▁हाउस	-3501
स्पे	-3502
▁ड्राइ	-3503
▁निकाय	-3504
▁पुराने	-3505
▁v	-3506
▁गाय	-3507
द्या	-3508
▁डाला	-3509
चलित	-3510
▁इलाज	-3511
▁b	-3512
▁धारणा	-3513
▁ii	-3514
▁स्वामित्व	-3515
इयों	-3516
▁अली	-3517
▁बहन	-3518
ल्पिक	-3519
▁पाई	-3520
सों	-3521
▁मजदू	-3522
▁मीटर	-3523
▁औपचारिक	-3524
भास	-3525
रोधी	-3526
यू	-3527
▁धम	-3528
▁अपवाद	-3529
▁माह	-3530
▁अयोग	-3531
▁सश	-3532
▁अनुलग्नक	-3533
▁प्रविष्टि	-3534
▁मंत्री	-3535
▁क्षेत्रीय	-3536
▁इंजी	-3537
▁ठेके	-3538
▁आख	-3539
▁वैकल्पिक	-3540
▁विधायिका	-3541
▁कराया	-3542
▁टिप्पणियों	-3543
▁जैन	-3544
▁खंडन	-3545
▁कठिन	-3546
▁चै	-3547
▁स्थगित	-3548
▁गुना	-3549
▁प्रगति	-3550
म्मू	-3551
▁मंड	-3552
▁सर्	-3553
▁जाया	-3554
▁श्रृंखला	-3555
ॉट	-3556
▁गौ	-3557
स्टम	-3558
▁जम्मू	-3559
तया	-3560
शाला	-3561
▁संबंधी	-3562
▁नष्ट	-3563
▁तरीका	-3564
▁Ch	-3565
▁टिक	-3566
▁दह	-3567
र्ते	-3568
त्साह	-3569
▁अट	-3570
श्चात	-3571
मंत्र	-3572
▁घाव	-3573
▁निर्भरता	-3574
▁कटौती	-3575
शिया	-3576
डु	-3577
डिया	-3578
▁जीवित	-3579
▁मिस	-3580
▁अन्	-3581
िग	-3582
क्सर	-3583
▁आह	-3584
▁कथन	-3585
स्ते	-3586
▁कर्तव्यों	-3587
भूति	-3588
▁दब	-3589
▁स्थानों	-3590
ष्ट्र	-3591
▁तात्	-3592
▁संगीत	-3593
▁एक्सट	-3594
▁सेवानिवृत्ति	-3595
▁मनो	-3596
▁बश	-3597
▁डिजा	-3598
▁स्टेट	-3599
▁अग्रिम	-3600
▁बातों	-3601
शीट	-3602
शाली	-3603
▁अपराधी	-3604
▁कार्यक	-3605
खे	-3606
प्पा	-3607
▁फ्ल	-3608
▁पद्ध	-3609
ोरी	-3610
१३	-3611
▁बनी	-3612
क्षिप्त	-3613
ोसिए	-3614
▁प्रौ	-3615
▁हजार	-3616
▁मजबूत	-3617
▁पहुंचने	-3618
▁देखभाल	-3619
▁निपटने	-3620
नर	-3621
ख्त	-3622
▁शराब	-3623
▁संचालित	-3624
माग	-3625
▁मानक	-3626
▁साधन	-3627
▁आर्	-3628
▁इजरा	-3629
▁१	-3630
▁Ext	-3631
▁कपड़े	-3632
▁विशाल	-3633
▁चोटें	-3634
▁निलंब	-3635
▁तथ्यात्मक	-3636
घा	-3637
▁लापर	-3638
▁आशय	-3639
▁क्रमश	-3640
ill	-3641
जीव	-3642
▁निरा	-3643
▁गोली	-3644
▁तस्वी	-3645
▁हासिल	-3646
▁खंडपीठ	-3647
▁साक्ष्यों	-3648
ाये	-3649
सं	-3650
▁यथ	-3651
▁खींच	-3652
▁नाते	-3653
ENT	-3654
लाल	-3655
▁अंततः	-3656
जह	-3657
▁चश्म	-3658
▁आसपास	-3659
▁रिश्त	-3660
▁एपी	-3661
▁बशर्ते	-3662
ॉर्ट	-3663
▁जानता	-3664
▁बलात्कार	-3665
फ़ॉ	-3666
मिशन	-3667
दीद	-3668
age	-3669
बाज	-3670
क्षणिक	-3671
▁नाटक	-3672
▁मक	-3673
धारणा	-3674
▁तमिल	-3675
▁विफलता	-3676
GM	-3677
्याग	-3678
▁जल्द	-3679
▁भंड	-3680
▁पूछा	-3681
ंशिक	-3682
्राष्ट्रीय	-3683
वो	-3684
▁मेल	-3685
▁वायु	-3686
▁चश्मदीद	-3687
र्या	-3688
▁असफल	-3689
▁मुंबई	-3690
▁लेता	-3691
▁बताता	-3692
▁योगदान	-3693
▁स्थिर	-3694
ोषण	-3695
▁यूपी	-3696
▁राव	-3697
▁नये	-3698
रन	-3699
▁प्रयोज	-3700
▁दिमाग	-3701
▁हलफनामा	-3702
झकर	-3703
▁आमंत्रित	-3704
▁नेता	-3705
▁क्रूर	-3706
रिंग	-3707
▁प्रचार	-3708
▁गुप्ता	-3709
▁आरक्षण	-3710
▁समानता	-3711
▁एसोसिए	-3712
▁वरिष्ठता	-3713
ैया	-3714
रु	-3715
नन	-3716
▁जय	-3717
खाव	-3718
▁उन्न	-3719
सायिक	-3720
▁ग्रेड	-3721
▁वीं	-3722
▁खाद	-3723
ीप	-3724
▁कलक	-3725
▁पहलुओं	-3726
श्री	-3727
णु	-3728
▁कॉर्	-3729
▁अवधारणा	-3730
िमी	-3731
▁अध्या	-3732
▁सफ	-3733
▁आवंटन	-3734
▁आठ	-3735
▁प्री	-3736
त्न	-3737
▁कोशिका	-3738
ड़न	-3739
म्मद	-3740
▁हरि	-3741
▁व्यावसायिक	-3742
▁संक्षिप्त	-3743
व्या	-3744
▁दर्शन	-3745
सील	-3746
▁रिया	-3747
भाविक	-3748
स्मिक	-3749
▁उद्देश्यों	-3750
▁मुआवज़ा	-3751
रित	-3752
बीआई	-3753
▁कमज	-3754
दिग्ध	-3755
▁अस्पष्ट	-3756
▁जोड़ा	-3757
▁संबद्ध	-3758
▁आकस्मिक	-3759
ेश्वर	-3760
▁प्रद	-3761
▁अनुप्रयोग	-3762
▁अपमान	-3763
करी	-3764
म्स	-3765
▁शैक्षणिक	-3766
नु	-3767
ंध्र	-3768
▁अना	-3769
चित्र	-3770
▁असर	-3771
खर	-3772
▁छि	-3773
▁पर्व	-3774
लांग	-3775
▁प्रसार	-3776
▁JUD	-3777
▁बुनिया	-3778
मंडल	-3779
र्देश	-3780
▁फी	-3781
▁फे	-3782
▁उधार	-3783
▁इच्छुक	-3784
▁ट्रांस	-3785
ामा	-3786
▁चुकी	-3787
▁लेखक	-3788
el	-3789
han	-3790
▁तार	-3791
्वा	-3792
▁प्रका	-3793
▁संदिग्ध	-3794
umar	-3795
▁प्रशिक्षण	-3796
▁डिजाइन	-3797
ख़	-3798
▁चार्जशीट	-3799
▁आश्व	-3800
र्डर	-3801
▁जानबू	-3802
▁आंशिक	-3803
▁उपन्यास	-3804
टेल	-3805
▁क्लॉज	-3806
▁दीवार	-3807
ांग	-3808
▁मास	-3809
▁वसीयतनामा	-3810
▁परिच	-3811
ॉर्	-3812
▁प्रसि	-3813
ज्ञा	-3814
▁कब	-3815
▁शुरुआत	-3816
▁स्टैंड	-3817
▁तत्प	-3818
▁क्रमशः	-3819
▁चिंता	-3820
▁पश्चिमी	-3821
सभा	-3822
▁शता	-3823
▁ड्यू	-3824
▁मिलती	-3825
रखाव	-3826
▁दैनिक	-3827
▁विद्या	-3828
▁प्रमाणपत्र	-3829
▁शेय	-3830
▁गुरु	-3831
स्थापित	-3832
▁डिग्री	-3833
▁रखरखाव	-3834
रान	-3835
▁प्रकाशन	-3836
▁नेटव	-3837
▁अक्सर	-3838
▁हिंदु	-3839
▁करीब	-3840
▁आवश्यकताओं	-3841
▁हिन्दी	-3842
us	-3843
दास	-3844
▁वेद	-3845
GMENT	-3846
▁द्वितीय	-3847
▁JUDGMENT	-3848
▁HC	-3849
▁इजरायल	-3850
▁टा	-3851
▁गहरा	-3852
▁कार्ड	-3853
षिक	-3854
▁पैर	-3855
ai	-3856
▁लौट	-3857
▁जटिल	-3858
▁ईसा	-3859
▁वजह	-3860
न्य	-3861
▁उल	-3862
▁घरे	-3863
▁अधिकतम	-3864
hi	-3865
शय	-3866
▁रजिस्टर	-3867
▁कोल	-3868
▁संभावित	-3869
मीटर	-3870
▁शैली	-3871
▁कथा	-3872
▁घा	-3873
▁द्वार	-3874
▁गरी	-3875
▁नारायण	-3876
शनल	-3877
▁तहसील	-3878
▁तल	-3879
▁चम	-3880
▁कक्षा	-3881
▁व्यय	-3882
▁बढ़ाया	-3883
▁तत्पश्चात	-3884
▁जानबूझकर	-3885
▁विनियमन	-3886
विधि	-3887
▁बदले	-3888
▁बौ	-3889
▁पूजा	-3890
▁आदर्श	-3891
▁प्राचीन	-3892
▁सॉ	-3893
▁कोय	-3894
▁इन्ह	-3895
▁डर	-3896
▁Kumar	-3897
▁आंध्र	-3898
▁जहा	-3899
▁साध	-3900
▁पद्धति	-3901
▁लापरवाही	-3902
▁बताने	-3903
▁मस	-3904
श्मीर	-3905
▁आलोक	-3906
▁स्वीकृत	-3907
▁ऑप	-3908
▁पाकि	-3909
▁प्रोत्साह	-3910
▁आँ	-3911
▁भु	-3912
▁स्वरूप	-3913
्मी	-3914
▁सारा	-3915
▁बनाना	-3916
▁रेखा	-3917
▁काव्य	-3918
ॉन	-3919
▁आरक्षित	-3920
▁बुद्धि	-3921
▁हृदय	-3922
▁Rs	-3923
▁घरेलू	-3924
ौल	-3925
▁पर्यावरण	-3926
▁नामित	-3927
▁प्रस्तुति	-3928
▁सेवानिवृत्त	-3929
ंधान	-3930
▁बदलाव	-3931
बोधित	-3932
▁असाधारण	-3933
कत	-3934
om	-3935
▁आंतरिक	-3936
▁ब्लॉक	-3937
ाइन	-3938
▁संस्कृति	-3939
ॉप	-3940
▁गृह	-3941
ियमित	-3942
▁सहकारी	-3943
▁धारक	-3944
▁सिस्टम	-3945
▁ठेकेदार	-3946
▁आंक	-3947
▁इंस्पे	-3948
▁परेशान	-3949
्मण	-3950
▁वारंट	-3951
▁अनियमित	-3952
ताव	-3953
▁गंगा	-3954
▁n	-3955
▁बताते	-3956
▁प्रभारी	-3957
▁मजबूर	-3958
▁पैमाने	-3959
श्वास	-3960
्यूट	-3961
▁बढ़ने	-3962
▁साफ	-3963
उंड	-3964
▁वीडियो	-3965
▁तेजी	-3966
▁Cr	-3967
▁बुनियादी	-3968
▁पूर्ववर्ती	-3969
घ्र	-3970
▁परिक	-3971
▁जल्दी	-3972
▁डिफ़ॉ	-3973
▁पट्टे	-3974
▁कलकत्ता	-3975
व्यापी	-3976
▁खातों	-3977
▁डिफ़ॉल्ट	-3978
ec	-3979
साद	-3980
▁अनं	-3981
▁पहा	-3982
ोप	-3983
▁आंख	-3984
▁नेटवर्क	-3985
▁गुणों	-3986
▁देखें	-3987
स्टेबल	-3988
कर्ताओं	-3989
▁श्व	-3990
▁देखना	-3991
३०	-3992
▁भेदभाव	-3993
▁मुसलमानों	-3994
डेंसी	-3995
▁समाय	-3996
▁अनंतिम	-3997
मार्ग	-3998
▁बनने	-3999
▁निर्मा	-4000
▁बहा	-4001
▁आतंकवाद	-4002
▁देयता	-4003
िने	-4004
▁आयकर	-4005
▁इमार	-4006
याम	-4007
िनी	-4008
▁प्रयुक्त	-4009
जाति	-4010
▁स्वाभाविक	-4011
▁मंच	-4012
▁इतने	-4013
▁फंसा	-4014
व्र	-4015
▁यौ	-4016
▁बाधा	-4017
▁आपकी	-4018
▁मांगी	-4019
▁स्कूलों	-4020
▁अपनाया	-4021
II	-4022
et	-4023
िस्त	-4024
▁प्रबंधक	-4025
▁विकलांग	-4026
▁इंस्पेक्टर	-4027
▁मेमो	-4028
▁समग्र	-4029
RA	-4030
▁निरोध	-4031
▁संतुल	-4032
▁सुख	-4033
▁स्थानांतरण	-4034
वाले	-4035
▁भाषण	-4036
थर	-4037
वेयर	-4038
▁किश	-4039
▁m	-4040
लेक्ट	-4041
▁अचान	-4042
▁नामक	-4043
ॉय	-4044
▁द्र	-4045
▁दृढ़	-4046
▁त्याग	-4047
िड	-4048
▁दवा	-4049
▁दहेज	-4050
धित	-4051
▁मस्त	-4052
▁ऊर्जा	-4053
▁दृष्टया	-4054
नात	-4055
esid	-4056
▁डाक	-4057
▁अचानक	-4058
ताब	-4059
▁दिव	-4060
▁अपेक्षित	-4061
▁सारी	-4062
▁झग	-4063
▁युवा	-4064
म्बर	-4065
▁कृप	-4066
▁दूसरों	-4067
▁अरब	-4068
▁बनाता	-4069
▁संबोधित	-4070
▁केरल	-4071
▁दबाव	-4072
▁आवास	-4073
▁सुंदर	-4074
▁अवमान	-4075
त्री	-4076
▁ठाक	-4077
▁वार्षिक	-4078
▁ग्रे	-4079
▁बाकी	-4080
▁उपक्रम	-4081
▁भ्रष्ट	-4082
ंडी	-4083
प्ल	-4084
▁आये	-4085
▁आवाज	-4086
मार्टम	-4087
▁शत्रुता	-4088
▁विरोधी	-4089
▁सुश्री	-4090
▁उपा	-4091
ानों	-4092
▁पत्रों	-4093
▁ऑर्डर	-4094
▁बदलने	-4095
पूर्ति	-4096
▁फॉर्म	-4097
कुल	-4098
वत्ता	-4099
▁श्रमिक	-4100
ाचार	-4101
▁वर्मा	-4102
▁अमेरिक	-4103
▁समाधान	-4104
▁तुम्हें	-4105
▁पोस्टमार्टम	-4106
्रित	-4107
▁खड़े	-4108
▁पावर	-4109
▁लगाना	-4110
डल	-4111
▁जाह	-4112
▁आश्च	-4113
र्गी	-4114
▁समन्व	-4115
▁रास्ते	-4116
▁केन्द्र	-4117
▁दिये	-4118
ANo	-4119
▁रुचि	-4120
▁अवकाश	-4121
▁न्यायाधीशों	-4122
▁आपने	-4123
▁महाराष्ट्र	-4124
ब्दी	-4125
▁किन्तु	-4126
▁हिन्दू	-4127
जतन	-4128
▁ज्ञात	-4129
esident	-4130
▁काट	-4131
▁तिर	-4132
▁प्ले	-4133
▁नतीजतन	-4134
सिंह	-4135
▁प्या	-4136
माना	-4137
▁मिनट	-4138
▁सहारा	-4139
▁निरीक्षक	-4140
▁अंध	-4141
▁सुभाष	-4142
शास्त्र	-4143
▁अनुसंधान	-4144
▁बेचने	-4145
▁संतुष्टि	-4146
▁भागों	-4147
▁इलेक्ट	-4148
मंत्री	-4149
▁विशेषता	-4150
फर	-4151
▁चीज़	-4152
▁पहुँच	-4153
▁आश्चर्य	-4154
निंग	-4155
▁ज्यो	-4156
▁वापसी	-4157
▁समुद्र	-4158
▁अवमानना	-4159
▁गुणवत्ता	-4160
▁अंतर्राष्ट्रीय	-4161
▁लाइन	-4162
▁Pra	-4163
▁क्व	-4164
▁जोड़ने	-4165
▁कारक	-4166
ंपा	-4167
▁खराब	-4168
▁प्रोग्राम	-4169
ज़र	-4170
▁धारण	-4171
▁ड्यूटी	-4172
▁प्रचलित	-4173
▁सेल	-4174
▁सबमिशन	-4175
ंपरा	-4176
▁इन्	-4177
▁नीलामी	-4178
▁NIC	-4179
▁आपका	-4180
▁गुप्त	-4181
▁विरोधाभास	-4182
▁किसान	-4183
▁नैतिक	-4184
▁गौर	-4185
▁कॉर्पो	-4186
▁पूर्वाग्रह	-4187
▁बताओ	-4188
▁मानने	-4189
णिक	-4190
संख	-4191
▁सदन	-4192
▁कुंजी	-4193
▁पृथ्वी	-4194
▁खत्म	-4195
▁प्रसिद्ध	-4196
▁मल	-4197
▁जिनकी	-4198
▁शिक्षकों	-4199
ूब	-4200
स्थल	-4201
▁लेखों	-4202
▁कमजोर	-4203
▁अधिसूचित	-4204
र्पण	-4205
▁कने	-4206
▁राजन	-4207
▁चारों	-4208
्यव	-4209
▁विवे	-4210
कट	-4211
▁अब्द	-4212
▁उत्पी	-4213
▁फें	-4214
▁जिनका	-4215
▁अभिलेख	-4216
सीसी	-4217
िस्ट	-4218
▁उत्स	-4219
▁दोहराया	-4220
▁तात्कालिक	-4221
▁साम्रा	-4222
इड	-4223
कल	-4224
ोद	-4225
▁आउट	-4226
▁उत्पादों	-4227
▁लघु	-4228
▁आरोपित	-4229
▁हैः	-4230
▁पाकिस्तान	-4231
▁कराने	-4232
सीन	-4233
चित्य	-4234
▁अर्ध	-4235
▁अत्यंत	-4236
▁मिट्टी	-4237
▁प्रौद्योगिक	-4238
बो	-4239
▁फूल	-4240
▁प्ला	-4241
ेंद	-4242
▁मधु	-4243
▁एडवो	-4244
▁शिकार	-4245
▁सुनने	-4246
▁कार्यकाल	-4247
र्वि	-4248
▁गतिविधि	-4249
▁SCA	-4250
▁काउंसिल	-4251
ैट	-4252
▁परंपरा	-4253
ानु	-4254
▁सेवक	-4255
▁मैदान	-4256
▁समझने	-4257
▁कृपया	-4258
▁विमान	-4259
▁सत्यापन	-4260
खन	-4261
▁उन्	-4262
▁जाल	-4263
टेन	-4264
▁अभियंता	-4265
▁उठता	-4266
▁चेतना	-4267
ेंडर	-4268
्रोल	-4269
▁हवा	-4270
▁अनुमोदित	-4271
बन	-4272
वीय	-4273
च्छिक	-4274
illage	-4275
▁चाकू	-4276
मर	-4277
hat	-4278
▁पथ	-4279
▁सख्त	-4280
▁अनुवाद	-4281
▁चेहरे	-4282
नियर	-4283
▁फिट	-4284
▁दश	-4285
▁नग	-4286
▁रै	-4287
वित्र	-4288
▁अयोग्य	-4289
▁निपटाया	-4290
▁भेजने	-4291
▁वादपत्र	-4292
▁देर	-4293
▁वस	-4294
▁परिपत्र	-4295
▁तत्कालीन	-4296
▁परिवर्तित	-4297
▁वाता	-4298
▁शंकर	-4299
▁शीघ्र	-4300
कालीन	-4301
▁उपयोगी	-4302
वेट	-4303
▁बू	-4304
क्ष्म	-4305
▁तोड़	-4306
ज़ि	-4307
▁शो	-4308
▁शेयरों	-4309
▁प्रतिद्व	-4310
ंत्रिक	-4311
▁औचित्य	-4312
▁किराया	-4313
▁अभियोजक	-4314
प्रिय	-4315
▁ग्रहण	-4316
▁लंबी	-4317
▁लगाई	-4318
▁अनुकंपा	-4319
▁पात्रता	-4320
धारी	-4321
▁धमकी	-4322
▁अक्षम	-4323
▁कानूनों	-4324
▁वर्गीकरण	-4325
थी	-4326
१४	-4327
IN	-4328
नल	-4329
▁अजी	-4330
▁ज्योति	-4331
▁छत्त	-4332
▁वीर	-4333
▁विद्यालय	-4334
हे	-4335
▁असंगत	-4336
▁विधायी	-4337
हारिक	-4338
▁गठित	-4339
▁भेजे	-4340
▁लड़की	-4341
िष्क	-4342
▁जोख	-4343
▁अशोक	-4344
▁खुले	-4345
त्तर	-4346
▁अतिक	-4347
▁क्रूरता	-4348
▁नकारात्मक	-4349
▁एडवोकेट	-4350
▁शताब्दी	-4351
▁चिकित्स	-4352
ंडा	-4353
▁सभ	-4354
▁आसानी	-4355
▁सीट	-4356
▁रिहा	-4357
▁नमूना	-4358
ित्त	-4359
ढ़ी	-4360
▁दरवाजा	-4361
▁विभाजित	-4362
▁जिम्मेदारी	-4363
वरों	-4364
ागत	-4365
ड़ाई	-4366
▁बाबू	-4367
▁अनुकूल	-4368
टो	-4369
राबाद	-4370
▁अमान	-4371
▁रिश्तेदार	-4372
यान	-4373
▁पल	-4374
▁बाग	-4375
▁सम्मिल	-4376
▁दाह	-4377
संख्यक	-4378
▁कांस्टेबल	-4379
कश	-4380
▁वातावरण	-4381
▁चक्र	-4382
▁दावों	-4383
▁रस	-4384
▁जोखिम	-4385
▁निकालने	-4386
▁अधीक्षक	-4387
त्मिक	-4388
▁बचने	-4389
▁रहेगा	-4390
भावना	-4391
▁साझ	-4392
▁तमिलना	-4393
▁विद्युत	-4394
▁सेक	-4395
▁गर्म	-4396
▁सें	-4397
▁लिखने	-4398
▁प्रविष्ट	-4399
पीट	-4400
▁ड्र	-4401
▁निधि	-4402
▁उद्य	-4403
▁कठिनाई	-4404
▁प्रतिद्वंद	-4405
▁परम	-4406
्रीन	-4407
िकेशन	-4408
▁महिलाओं	-4409
▁अहमद	-4410
▁श्रेणीः	-4411
ज्य	-4412
▁टीम	-4413
▁ट्रै	-4414
▁आध्या	-4415
▁आवेदकों	-4416
▁गईं	-4417
थित	-4418
▁असं	-4419
▁प्रत	-4420
▁रव	-4421
ग्रियों	-4422
▁देखे	-4423
▁साजि	-4424
▁लक्षण	-4425
▁पेटेंट	-4426
ुण	-4427
धरी	-4428
▁समस्याओं	-4429
▁सामग्रियों	-4430
ड़ीसा	-4431
▁मारपीट	-4432
▁बनता	-4433
▁उत्पादित	-4434
AM	-4435
▁सृ	-4436
▁पेंडेंसी	-4437
▁दिश	-4438
हत्या	-4439
▁प्रौद्योगिकी	-4440
ियत	-4441
खास्त	-4442
▁तस्वीर	-4443
▁मेसर्स	-4444
बु	-4445
द्दीन	-4446
▁देंगे	-4447
▁मजदूरी	-4448
▁रम	-4449
छा	-4450
▁मगर	-4451
▁पूर्वी	-4452
▁छत्तीस	-4453
▁निर्वाचन	-4454
ंदी	-4455
▁एसोसिएशन	-4456
▁ठोस	-4457
ग्रहित	-4458
▁हवाला	-4459
▁अधीनस्थ	-4460
वीर	-4461
▁छाप	-4462
▁जायेगा	-4463
▁बाध्यकारी	-4464
थे	-4465
▁गोल	-4466
▁प्रत्या	-4467
▁उत्पीड़न	-4468
िनल	-4469
▁किशोर	-4470
▁क्रेड	-4471
▁बौद्ध	-4472
रेशन	-4473
▁सन	-4474
शे	-4475
▁DW	-4476
▁फि	-4477
▁प्रवाह	-4478
▁प्रायः	-4479
▁विवादों	-4480
▁अगली	-4481
▁इत्या	-4482
▁निरस्त	-4483
▁खाद्य	-4484
▁मरने	-4485
▁साजिश	-4486
▁लेखन	-4487
▁स्वै	-4488
त्ते	-4489
▁इनके	-4490
पुट	-4491
▁निश्च	-4492
▁उड़ीसा	-4493
▁कश्मीर	-4494
लम	-4495
▁नाथ	-4496
ul	-4497
▁तलाश	-4498
▁आत्महत्या	-4499
▁छत्तीसगढ़	-4500
▁भय	-4501
▁हितों	-4502
▁सूचीबद्ध	-4503
▁सूर्य	-4504
▁अवश	-4505
निष्ठ	-4506
▁पवित्र	-4507
▁प्राइवेट	-4508
ूस	-4509
▁भरने	-4510
▁हानि	-4511
▁तमिलनाडु	-4512
लाइन	-4513
▁रसी	-4514
▁पिछली	-4515
▁मिलकर	-4516
▁इत्यादि	-4517
▁प्रतिबंधित	-4518
ार्म	-4519
▁Bi	-4520
▁मस्तिष्क	-4521
▁लु	-4522
▁आलो	-4523
▁बेह	-4524
▁टिप्पणी	-4525
▁एशिया	-4526
IL	-4527
▁डो	-4528
▁कंट	-4529
पेक्ष	-4530
ेह	-4531
▁राजेश	-4532
▁बर्खास्त	-4533
तीत	-4534
▁सूक्ष्म	-4535
▁आध्यात्मिक	-4536
क्का	-4537
▁डील	-4538
गाह	-4539
ंदन	-4540
कुमार	-4541
▁आक्रमण	-4542
▁ब्रह्म	-4543
च्छा	-4544
▁प्रदू	-4545
ानिर्देश	-4546
▁संरक्षक	-4547
दृ	-4548
कानूनी	-4549
▁चौधरी	-4550
▁क्रेडिट	-4551
ाब	-4552
क़्त	-4553
▁ऑफिस	-4554
▁दिशानिर्देश	-4555
▁खोलने	-4556
▁व्यावहारिक	-4557
▁वंश	-4558
▁वाक	-4559
▁जाहिर	-4560
▁भूखंड	-4561
▁इंजीनिय	-4562
▁रिक्तियों	-4563
▁धु	-4564
▁पीड़िता	-4565
▁अतिक्रमण	-4566
▁गैरकानूनी	-4567
▁इन्हें	-4568
▁ग्राहक	-4569
▁पहुँ	-4570
▁जाएंगे	-4571
वाली	-4572
▁भूल	-4573
▁आसान	-4574
ंदाज	-4575
▁घात	-4576
▁अर्जित	-4577
▁हिम	-4578
▁सम्मानित	-4579
पहर	-4580
▁लें	-4581
्वान	-4582
▁भरा	-4583
▁बुरा	-4584
▁आनन्द	-4585
ॉँ	-4586
▁f	-4587
▁तट	-4588
▁नवी	-4589
▁ढां	-4590
ज़िबिट	-4591
▁तीनों	-4592
लेट	-4593
ूली	-4594
▁ठाकुर	-4595
▁संप्र	-4596
▁अमेरिकी	-4597
▁समित	-4598
▁सीधी	-4599
▁बचाने	-4600
आईटी	-4601
ation	-4602
▁प्रश्नों	-4603
▁लक	-4604
प्रे	-4605
▁कॉपी	-4606
▁इंग्ल	-4607
फोन	-4608
ड़ियों	-4609
▁विस	-4610
▁अज्ञ	-4611
ल्डर	-4612
▁प्रोफे	-4613
▁सीबीआई	-4614
▁स्मृति	-4615
▁शत्रुतापूर्ण	-4616
वें	-4617
▁बॉम्बे	-4618
▁लिखे	-4619
▁वर्गों	-4620
▁साक्षा	-4621
▁बीमार	-4622
▁प्रतियोग	-4623
इस	-4624
▁बताई	-4625
▁फोट	-4626
▁मोहन	-4627
पान	-4628
मिट	-4629
▁लिखी	-4630
▁रसीद	-4631
▁मकसद	-4632
▁पक्षकारों	-4633
▁दूध	-4634
▁चेन्न	-4635
▁शिक्षण	-4636
▁यूरोप	-4637
▁अनुभाग	-4638
व्यव	-4639
▁भागीदारी	-4640
▁पेड़	-4641
▁अपीलों	-4642
▁किनारे	-4643
▁शर्तें	-4644
▁समस्त	-4645
▁छोड़ने	-4646
▁सोने	-4647
म्मत	-4648
ho	-4649
▁गोद	-4650
ात्मक	-4651
▁निर्द	-4652
डि	-4653
▁हैद	-4654
बालिग	-4655
▁चढ़	-4656
▁l	-4657
▁कूट	-4658
▁दोपहर	-4659
▁आह्वान	-4660
▁नाबालिग	-4661
▁g	-4662
शिष्ट	-4663
▁संसार	-4664
ज़ी	-4665
िकरण	-4666
▁एक्ज़िबिट	-4667
▁छत	-4668
▁अनदे	-4669
▁विंड	-4670
▁बीमारी	-4671
▁रवी	-4672
▁अवैधता	-4673
▁मोहम्मद	-4674
▁सिल	-4675
▁अपरि	-4676
▁माइ	-4677
▁चलने	-4678
क्रिय	-4679
ूद	-4680
▁मिटा	-4681
▁तीव्र	-4682
▁ध्वनि	-4683
▁प्रभार	-4684
▁जाकर	-4685
▁थोड़ा	-4686
▁दलीलों	-4687
लिया	-4688
▁फोर	-4689
▁दिलच	-4690
▁बातें	-4691
▁आपत्तियों	-4692
▁चालक	-4693
▁हालत	-4694
▁डिस्क	-4695
▁होम	-4696
▁साक्षी	-4697
▁अल्	-4698
▁लीज	-4699
▁नौकरी	-4700
केश	-4701
ूंगा	-4702
म्मा	-4703
▁उदार	-4704
▁होटल	-4705
▁भ्रम	-4706
▁पटेल	-4707
ड्य	-4708
▁झूठे	-4709
वाहिक	-4710
▁राजी	-4711
परी	-4712
▁शुक	-4713
▁सेमी	-4714
▁त्व	-4715
▁हिंसा	-4716
▁सेंट	-4717
▁चयनित	-4718
▁चलाया	-4719
▁प्रतिद्वंद्वी	-4720
जीवन	-4721
▁तीसरी	-4722
घात	-4723
ियान	-4724
▁गैस	-4725
▁एजेंट	-4726
▁हैदराबाद	-4727
▁रण	-4728
▁पांडे	-4729
▁पर्यवे	-4730
▁चैन	-4731
▁फैसलों	-4732
दर्शी	-4733
▁सुविधाओं	-4734
▁अस्वीकृति	-4735
▁टेस्ट	-4736
▁सतर्क	-4737
▁IPC	-4738
▁दिला	-4739
▁प्रतिबद्ध	-4740
▁सूत्र	-4741
▁रास्ता	-4742
▁फा	-4743
▁रोगी	-4744
▁जुड़ा	-4745
▁नाट	-4746
▁प्रथा	-4747
दीप	-4748
▁इमारत	-4749
▁प्रवर्तन	-4750
ादा	-4751
▁सकारात्मक	-4752
ाइड	-4753
▁पेपर	-4754
▁सैनिक	-4755
▁यो	-4756
▁मिश्रा	-4757
▁गर्भ	-4758
▁स्वर	-4759
▁दुर्बल	-4760
▁विकृत	-4761
नाक	-4762
▁चलते	-4763
▁वैसे	-4764
▁k	-4765
▁उत्तराधिकार	-4766
▁साक्षात्कार	-4767
▁पत्थर	-4768
▁अनुसरण	-4769
पत्ति	-4770
▁स्त्री	-4771
▁सिरे	-4772
▁सम्मिलित	-4773
▁कव	-4774
्रण	-4775
कोर्ट	-4776
▁प्राण	-4777
▁राजनैतिक	-4778
भोग	-4779
▁OS	-4780
ir	-4781
्रय	-4782
▁दोस्त	-4783
▁प्रसन्न	-4784
क्षी	-4785
▁वक्त	-4786
▁सौंपा	-4787
▁अन्याय	-4788
▁देखकर	-4789
ूद्ध	-4790
▁डायरी	-4791
▁युक्त	-4792
ंकर	-4793
दाताओं	-4794
▁पेशकश	-4795
स्ट्र	-4796
▁विषयों	-4797
▁किलो	-4798
▁निवार	-4799
सुर	-4800
▁सर्वा	-4801
▁टू	-4802
तावनी	-4803
▁धर	-4804
▁करो	-4805
क्षिक	-4806
भाग्य	-4807
▁अपर	-4808
▁विल	-4809
▁तीसरा	-4810
▁मानता	-4811
▁चेतावनी	-4812
▁इकट्	-4813
▁फिल्म	-4814
जीत	-4815
▁PO	-4816
▁दौरा	-4817
ेजी	-4818
▁पैके	-4819
▁चीजों	-4820
▁रुख	-4821
▁खाना	-4822
▁अचल	-4823
▁वां	-4824
▁ब्राह	-4825
ारों	-4826
ari	-4827
दर्शन	-4828
▁नियत	-4829
▁इलेक्ट्र	-4830
▁टन	-4831
क्सी	-4832
▁पाँच	-4833
▁नामांकन	-4834
ut	-4835
▁इश	-4836
▁पत	-4837
कृष्ण	-4838
▁कायम	-4839
▁आकाश	-4840
▁घातक	-4841
▁राजस्थान	-4842
▁संतुलन	-4843
▁जितना	-4844
▁III	-4845
▁आईटी	-4846
▁वर	-4847
▁जला	-4848
पत	-4849
▁प्रशंसा	-4850
▁मानना	-4851
▁विक्रेता	-4852
▁वजन	-4853
▁नमूने	-4854
▁पंचनामा	-4855
वत	-4856
▁संकट	-4857
▁विधानमंडल	-4858
AD	-4859
▁हल्	-4860
जन्य	-4861
िक्स	-4862
▁गीत	-4863
ोने	-4864
न्द्रनाथ	-4865
▁साम्राज्य	-4866
▁अल्पसंख्यक	-4867
▁पक्षपात	-4868
र्गीय	-4869
▁अगला	-4870
क्ताओं	-4871
▁नियमितीकरण	-4872
क्क	-4873
स्फ	-4874
▁उड़	-4875
▁लोकप्रिय	-4876
▁मुकदमेबाजी	-4877
▁जता	-4878
भि	-4879
लर	-4880
▁रिटर्न	-4881
प्ट	-4882
▁अख	-4883
▁मान्य	-4884
▁प्रयत्न	-4885
यक	-4886
▁अतः	-4887
▁सेवाएं	-4888
▁हाईकोर्ट	-4889
▁फाय	-4890
ंगति	-4891
▁खेती	-4892
▁प्रतीक	-4893
▁in	-4894
▁मनमाना	-4895
▁दिनांकित	-4896
▁बीज	-4897
▁प्रदत्त	-4898
▁विनियमों	-4899
डिंग	-4900
▁संस	-4901
▁निर्दोष	-4902
▁प्रोफेसर	-4903
विंद	-4904
▁देखी	-4905
स्पर्	-4906
▁सोसाय	-4907
▁उपयोगकर्ता	-4908
▁लड़के	-4909
▁खरीदने	-4910
▁नो	-4911
▁अभियोगी	-4912
RI	-4913
▁Village	-4914
▁संसाधन	-4915
ak	-4916
▁अकबर	-4917
▁खतरे	-4918
▁कुमारी	-4919
▁दस्तावेजी	-4920
▁बुक	-4921
▁शासित	-4922
▁स्वैच्छिक	-4923
▁खि	-4924
▁निष्क्रिय	-4925
साइट	-4926
▁कदा	-4927
ेंज	-4928
▁एकता	-4929
ah	-4930
ab	-4931
हता	-4932
▁कारकों	-4933
मार्क	-4934
▁अज्ञात	-4935
दु	-4936
▁आश्वासन	-4937
ro	-4938
▁ज़र	-4939
▁बहुमत	-4940
▁समझाया	-4941
▁दावेदारों	-4942
▁कक्ष	-4943
सायनिक	-4944
▁अंकित	-4945
ोबार	-4946
▁अक्ष	-4947
ल्डिंग	-4948
नाश	-4949
रेटर	-4950
▁प्रच	-4951
▁अवश्य	-4952
▁अत	-4953
▁निर्वि	-4954
बीर	-4955
ांकित	-4956
त्तियां	-4957
▁प्रयोजन	-4958
▁प्रतिष्ठा	-4959
▁कितना	-4960
▁तैनात	-4961
▁संपाद	-4962
▁चू	-4963
▁खतरा	-4964
▁सोसायटी	-4965
ावली	-4966
▁जर्म	-4967
▁बहाल	-4968
▁शक्तियां	-4969
▁दर्द	-4970
▁पाता	-4971
▁मौका	-4972
▁आखिर	-4973
▁निर्माता	-4974
ेदी	-4975
ल्हा	-4976
▁मोड	-4977
▁खाने	-4978
▁मांस	-4979
्यान्व	-4980
▁निर्णायक	-4981
ाले	-4982
एसएल	-4983
क्चर	-4984
▁बंधक	-4985
▁परिसम	-4986
▁उत्तरी	-4987
मेल	-4988
ॉर्नी	-4989
▁दलों	-4990
न्ड	-4991
▁नयी	-4992
▁नवीन	-4993
▁बैठे	-4994
▁आवासी	-4995
▁सर्वर	-4996
▁सटी	-4997
le	-4998
ष्णु	-4999
ंतरित	-5000
▁the	-5001
▁ग्रंथ	-5002
▁चेन्नई	-5003
▁उत्तराधिकारी	-5004
▁खतर	-5005
▁WPNo	-5006
▁गरीब	-5007
▁फेंक	-5008
▁हवाई	-5009
तिहासिक	-5010
▁निलंबन	-5011
▁अटॉर्नी	-5012
▁क्ला	-5013
▁डीडब्ल्यू	-5014
▁ऑफ़	-5015
▁उन्नत	-5016
ंजा	-5017
बाई	-5018
▁उज	-5019
▁सचे	-5020
▁गेंद	-5021
▁आधारों	-5022
▁पुरानी	-5023
▁रोका	-5024
▁जानने	-5025
▁कार्यान्व	-5026
▁प्रेस	-5027
▁सुलझा	-5028
▁आवासीय	-5029
घर	-5030
▁कमे	-5031
▁समार	-5032
▁प्रस्तुतियाँ	-5033
▁असाम	-5034
▁अन्दर	-5035
▁सांस्	-5036
राज्य	-5037
▁अब्दुल	-5038
▁विरूद्ध	-5039
्राव	-5040
▁मैने	-5041
स्म	-5042
▁गर्दन	-5043
▁पुनरी	-5044
▁सत्यापित	-5045
णों	-5046
▁आकर	-5047
▁उपधारा	-5048
▁अधिग्रहित	-5049
▁राजमार्ग	-5050
▁ऑन	-5051
▁सहज	-5052
▁ट्रे	-5053
▁अन्तर्	-5054
▁शैक्षिक	-5055
ुका	-5056
▁झा	-5057
▁जड़	-5058
▁मानदंडों	-5059
▁प्रोवि	-5060
णि	-5061
▁दया	-5062
▁हमले	-5063
▁सोचा	-5064
▁किताब	-5065
▁घटनास्थल	-5066
▁यौन	-5067
▁सदा	-5068
▁उनको	-5069
▁शंकरा	-5070
▁सुनील	-5071
▁उक	-5072
▁पड़ी	-5073
▁आइ	-5074
▁टक	-5075
▁हट	-5076
▁ट्रायल	-5077
ER	-5078
▁एकड़	-5079
▁बच्चा	-5080
राय	-5081
▁बहस	-5082
▁कमेटी	-5083
▁निर्विवाद	-5084
▁पूर्वव्यापी	-5085
▁चुने	-5086
▁संविदा	-5087
▁डब्ल्यू	-5088
▁सागर	-5089
▁सरदार	-5090
▁भंग	-5091
▁यंत्र	-5092
▁रासायनिक	-5093
▁डीड	-5094
▁अफ्री	-5095
▁आवेदनों	-5096
हाबाद	-5097
▁निपटारा	-5098
▁हस्तांतरित	-5099
▁स्वभाव	-5100
दूर	-5101
▁बढ़े	-5102
▁अय	-5103
▁स्ना	-5104
▁चिंतन	-5105
▁महत्त	-5106
▁समारोह	-5107
▁ऊपरी	-5108
ोजी	-5109
मॉर्ट	-5110
▁मद्र	-5111
▁असंभव	-5112
▁परिणामी	-5113
▁टो	-5114
▁ट्यू	-5115
▁मालिकों	-5116
▁चलो	-5117
▁चिंतित	-5118
▁बढ़ावा	-5119
▁स्वर्गीय	-5120
▁चतु	-5121
▁पैसा	-5122
वों	-5123
▁ओवर	-5124
▁कैडर	-5125
मूर्ति	-5126
▁नगरपालिका	-5127
▁मद्रास	-5128
▁मुद्र	-5129
▁पंड	-5130
▁बंदूक	-5131
▁सम्बन्धी	-5132
ay	-5133
▁वहीं	-5134
▁स्थगन	-5135
▁क्रमांक	-5136
यें	-5137
▁घटक	-5138
ट्रिक	-5139
शीलता	-5140
▁सांस्कृतिक	-5141
▁लाभों	-5142
▁वक्	-5143
रू	-5144
▁and	-5145
▁हेड	-5146
▁दुखी	-5147
्रल	-5148
ingh	-5149
▁तहसीलदार	-5150
▁शोध	-5151
मैन	-5152
▁सीमाओं	-5153
▁प्रवृत्ति	-5154
▁मंज	-5155
▁जहाज	-5156
किक	-5157
▁हार	-5158
मॉर्टम	-5159
▁प्रिय	-5160
▁फंसाया	-5161
▁स्थितियों	-5162
खों	-5163
अंदाज	-5164
▁चुप	-5165
▁अजीब	-5166
▁कागज	-5167
▁पट्ट	-5168
थु	-5169
१५	-5170
▁रिकॉर्डिंग	-5171
वां	-5172
▁चाहती	-5173
▁उपभोक्ता	-5174
▁प्रतिस्पर्	-5175
UR	-5176
▁सिद्	-5177
शो	-5178
▁गव	-5179
▁ससुर	-5180
▁दंडित	-5181
ावट	-5182
▁कमि	-5183
▁चली	-5184
▁Bihar	-5185
▁द्वीप	-5186
▁लड़ाई	-5187
▁मुह	-5188
▁लंबाई	-5189
▁याचिकाएं	-5190
िपल	-5191
खाने	-5192
▁वक्फ	-5193
▁CR	-5194
▁कृत्य	-5195
▁व्यायाम	-5196
▁दशक	-5197
▁कुशल	-5198
डीए	-5199
▁राजनीति	-5200
▁इलाहाबाद	-5201
्रामक	-5202
IT	-5203
▁..	-5204
▁औष	-5205
▁कं	-5206
▁लल	-5207
▁...	-5208
▁अर्जी	-5209
पंथ	-5210
▁मौसम	-5211
दायिक	-5212
▁अमरी	-5213
▁अवगत	-5214
▁बैंकों	-5215
निहित	-5216
▁कम्प	-5217
▁क्यू	-5218
▁समर्थित	-5219
▁ऐतिहासिक	-5220
स्पर	-5221
▁विम	-5222
▁कृत्यों	-5223
▁सिंध	-5224
▁अंतराल	-5225
▁पुनरीक्षण	-5226
▁शह	-5227
▁बजा	-5228
▁रानी	-5229
▁स्तंभ	-5230
▁गंभीरता	-5231
▁बेटा	-5232
रिटी	-5233
रज	-5234
▁खट	-5235
▁कराई	-5236
▁छे	-5237
मांड	-5238
▁निष्का	-5239
▁जंग	-5240
साइटी	-5241
ोक्ति	-5242
▁नान	-5243
▁अमान्य	-5244
▁बनाते	-5245
▁मारने	-5246
▁लोकतंत्र	-5247
▁पोस्टमॉर्टम	-5248
वारी	-5249
श्रम	-5250
सरों	-5251
▁उभर	-5252
▁कितनी	-5253
▁मीडिया	-5254
▁सोसाइटी	-5255
ug	-5256
▁IT	-5257
▁सतह	-5258
▁शंकराचार्य	-5259
▁विद्यमान	-5260
▁हिंदुस्तान	-5261
्त्र	-5262
▁घटा	-5263
▁भेजी	-5264
▁संस्थाओं	-5265
AG	-5266
धों	-5267
र्घ	-5268
▁In	-5269
▁अनुशासन	-5270
▁नजरअंदाज	-5271
▁कीट	-5272
▁ताप	-5273
▁सामूह	-5274
▁निश्चय	-5275
▁लक्ष्मी	-5276
ot	-5277
▁Singh	-5278
▁पोर्ट	-5279
▁सामूहिक	-5280
▁मछ	-5281
▁समन्वय	-5282
▁ताकत	-5283
▁बुद्ध	-5284
▁अनिश्चित	-5285
▁बारी	-5286
▁उपहार	-5287
▁वितरित	-5288
▁वैवाहिक	-5289
हान	-5290
▁आना	-5291
▁नेहर	-5292
▁बेद	-5293
SH	-5294
iv	-5295
हल	-5296
▁सना	-5297
▁मानवीय	-5298
व्यवस्था	-5299
गण	-5300
िरी	-5301
▁आरम्भ	-5302
▁गज	-5303
▁सुनाया	-5304
▁पुनर्वि	-5305
▁करवा	-5306
▁स्वे	-5307
▁विलंब	-5308
▁अग्रवाल	-5309
▁नियोजित	-5310
ud	-5311
▁समापन	-5312
र्ज	-5313
ार्ज	-5314
▁सावधानीपूर्वक	-5315
्याम	-5316
▁बोस	-5317
▁मुंह	-5318
ोल्डर	-5319
▁परमाण	-5320
▁मामूली	-5321
ट्टा	-5322
▁छवि	-5323
▁प्रता	-5324
▁पीछा	-5325
▁व्	-5326
मेलन	-5327
▁उपायों	-5328
ड्ड	-5329
▁अमर	-5330
▁रवि	-5331
▁ईमान	-5332
▁अंजाम	-5333
▁अपू	-5334
▁उद्यम	-5335
▁व्यवस्थित	-5336
▁नागरिकों	-5337
ान्य	-5338
▁शहरी	-5339
▁प्रयोजनों	-5340
कोट	-5341
▁मासिक	-5342
फ्टवेयर	-5343
पीय	-5344
▁आराम	-5345
▁आलोचना	-5346
▁परस्पर	-5347
▁चीनी	-5348
▁ब्रि	-5349
धिकृत	-5350
दुर	-5351
वंश	-5352
▁नार	-5353
▁पेशे	-5354
▁सर्ट	-5355
▁असमान	-5356
▁सर्विस	-5357
▁श्रेष्ठ	-5358
▁संतोषजनक	-5359
▁CO	-5360
▁मात	-5361
▁सिक	-5362
▁किलोमीटर	-5363
दिन	-5364
▁हेम	-5365
▁टेलीफोन	-5366
▁सफेद	-5367
▁प्यार	-5368
▁तैयारी	-5369
▁वार्ता	-5370
os	-5371
दिक	-5372
दाबाद	-5373
लिपि	-5374
▁समितियों	-5375
कम	-5376
▁अपह	-5377
▁सिटी	-5378
▁कोटा	-5379
▁अत्या	-5380
▁विधेय	-5381
▁मास्टर	-5382
▁स्टा	-5383
▁निहितार्थ	-5384
▁प्रोत्साहन	-5385
▁आइट	-5386
▁अर्थव्यवस्था	-5387
़्त	-5388
▁फु	-5389
एमसी	-5390
पीएस	-5391
▁महीनों	-5392
▁साथी	-5393
स्थापन	-5394
▁प्रयोगशाला	-5395
▁बताती	-5396
ोचित	-5397
्रीम	-5398
▁असह	-5399
▁स्वच	-5400
▁कॉलेजों	-5401
▁निस्	-5402
▁अधिकरण	-5403
▁विकलांगता	-5404
विक	-5405
▁असली	-5406
▁कच्च	-5407
▁जनजाति	-5408
पट	-5409
▁मारा	-5410
▁विष्णु	-5411
▁अनाव	-5412
▁मैसर्स	-5413
▁लखन	-5414
▁सम्मेलन	-5415
▁रहित	-5416
▁न्यायसंगत	-5417
▁विद्र	-5418
नगर	-5419
▁उन्म	-5420
ham	-5421
▁मालूम	-5422
▁कारोबार	-5423
▁संरक्षित	-5424
अल	-5425
▁त्वचा	-5426
▁धात	-5427
▁करार	-5428
▁हिंदी	-5429
▁उत्तेज	-5430
▁पूर्ति	-5431
फो	-5432
▁जमी	-5433
gar	-5434
ौदा	-5435
▁चीन	-5436
▁इंकार	-5437
▁क्षतिपूर्ति	-5438
ant	-5439
काब	-5440
र्धन	-5441
▁मुला	-5442
▁बांध	-5443
▁कदाचार	-5444
▁मिलाकर	-5445
▁स्वागत	-5446
▁राजपत्र	-5447
▁विशेषाधिकार	-5448
ंकिंग	-5449
▁चालू	-5450
▁प्रारूप	-5451
गोल	-5452
िकाओं	-5453
▁साझेदारी	-5454
दियों	-5455
▁पूरक	-5456
▁दिव्य	-5457
▁स्थिरता	-5458
▁गहरी	-5459
▁वांछ	-5460
▁रेड्डी	-5461
▁सर्टिफ	-5462
▁वसूल	-5463
▁इकाइयों	-5464
▁विसंगति	-5465
ोम	-5466
▁खुली	-5467
▁देवता	-5468
▁आर्बिट	-5469
▁तरीकों	-5470
▁रखें	-5471
▁चोरी	-5472
ेत	-5473
ैर	-5474
▁दत्त	-5475
▁नकदी	-5476
ac	-5477
▁गोप	-5478
▁जनहित	-5479
कीर्ण	-5480
▁पुष्	-5481
▁पुस्तकों	-5482
▁तद	-5483
▁फसल	-5484
▁परमिट	-5485
▁अंतर्निहित	-5486
मेन	-5487
▁IA	-5488
▁झार	-5489
▁अभिन	-5490
▁आइटम	-5491
▁शुरु	-5492
▁कितने	-5493
▁रियायत	-5494
▁resident	-5495
▁परिस्थितिजन्य	-5496
▁डिफ	-5497
▁बेश	-5498
▁शिश	-5499
▁बाएं	-5500
▁पड़ेगा	-5501
▁भ्रष्टाचार	-5502
▁दान	-5503
▁लेती	-5504
av	-5505
चंद्र	-5506
▁मिलते	-5507
▁तुम्हारे	-5508
▁बर्खास्तगी	-5509
▁बैग	-5510
▁प्रेष	-5511
▁ठहराने	-5512
▁दिखाए	-5513
▁वचन	-5514
▁पढ़े	-5515
▁डालने	-5516
ब्ब	-5517
▁खुश	-5518
▁सोम	-5519
▁प्रेरण	-5520
़्य	-5521
▁प्रधानमंत्री	-5522
▁हड्डी	-5523
खल	-5524
▁लेनदार	-5525
अर	-5526
▁इंद	-5527
▁सर्वाधिक	-5528
लभ	-5529
▁काली	-5530
▁यूनियन	-5531
▁कार्यरत	-5532
गामी	-5533
गमन	-5534
िरा	-5535
▁हॉ	-5536
▁प्लान	-5537
▁इकट्ठा	-5538
▁आशंका	-5539
▁संभाल	-5540
ुरु	-5541
▁आयोजन	-5542
▁संवाद	-5543
▁एमओ	-5544
▁लकड़ी	-5545
▁वृक्ष	-5546
ब्र	-5547
शिप	-5548
▁आफ	-5549
त्त्व	-5550
▁खुशी	-5551
▁doc	-5552
▁खड़ी	-5553
▁श्रेणियों	-5554
▁ब्रा	-5555
▁आजीवन	-5556
▁कोयला	-5557
▁बताना	-5558
इश	-5559
कोश	-5560
त्तम	-5561
र्की	-5562
▁डीलर	-5563
ET	-5564
▁परिचित	-5565
चंद	-5566
▁खण्ड	-5567
▁साझा	-5568
ैक्ट	-5569
▁चिप	-5570
▁कहान	-5571
▁दुख	-5572
▁अपनाई	-5573
हेल	-5574
▁इंत	-5575
▁दमन	-5576
▁स्टॉक	-5577
▁निभा	-5578
▁नौकर	-5579
▁पैनल	-5580
PA	-5581
ेन	-5582
▁जाएं	-5583
प्लिकेशन	-5584
▁इंग्लैंड	-5585
▁प्रतीक्षा	-5586
SI	-5587
▁पॉलि	-5588
▁परमाणु	-5589
▁फ़िल्म	-5590
▁शुद्धता	-5591
म्बा	-5592
स्टी	-5593
▁उतर	-5594
▁वेबसाइट	-5595
ेरे	-5596
▁उपे	-5597
▁त्रि	-5598
▁वर्षा	-5599
▁विंडो	-5600
▁हथिया	-5601
र्माण	-5602
▁प्रिंस	-5603
▁भंडारण	-5604
▁प्रतिपाद	-5605
षक	-5606
▁परिणामों	-5607
▁व्यक्तित्व	-5608
▁dt	-5609
▁सोन	-5610
▁त्वर	-5611
▁अभियान	-5612
▁निवेदन	-5613
▁सटीक	-5614
▁बल्ले	-5615
▁माध्यमिक	-5616
▁e	-5617
एसआई	-5618
▁अविश्वास	-5619
▁प्रतियोगिता	-5620
▁बॉक्स	-5621
▁दुर्बलता	-5622
▁एग्	-5623
▁गुल	-5624
▁झूठा	-5625
▁निरंतरता	-5626
esh	-5627
▁मेट	-5628
▁नेहरू	-5629
pp	-5630
▁अधिकतर	-5631
▁CW	-5632
▁सेटिंग	-5633
▁लगने	-5634
▁पुनर्विचार	-5635
▁फैल	-5636
▁स्वचालित	-5637
यंस	-5638
वती	-5639
▁झगड़ा	-5640
▁उद्योगों	-5641
टीसी	-5642
▁son	-5643
▁कमा	-5644
▁सब्	-5645
▁संज्ञ	-5646
▁मनमानी	-5647
▁सच्चाई	-5648
दीय	-5649
▁एका	-5650
▁चैनल	-5651
लोड	-5652
स्वती	-5653
▁श्रमिकों	-5654
ज्ज	-5655
श्वत	-5656
▁इनका	-5657
▁एआईआर	-5658
▁अनियमितता	-5659
▁परिकल्पना	-5660
▁वास्तविकता	-5661
▁इंजीनियरिंग	-5662
ब्बे	-5663
▁शोर	-5664
▁फिली	-5665
▁पाद	-5666
▁प्रोट	-5667
OR	-5668
▁टाउन	-5669
▁ताजा	-5670
▁उच्चतर	-5671
ate	-5672
▁चालान	-5673
▁सीटों	-5674
▁उपकरणों	-5675
लाप	-5676
लाब	-5677
▁हरिया	-5678
्ता	-5679
संदेह	-5680
परा	-5681
▁जाग	-5682
▁सीम	-5683
▁संजय	-5684
▁बहिष्	-5685
▁प्रतिभा	-5686
▁शेयरधार	-5687
▁चाव	-5688
शक्ति	-5689
▁एप्लिकेशन	-5690
▁स्वतः	-5691
▁कुल्हा	-5692
▁लॉग	-5693
▁विशेषकर	-5694
▁नाक	-5695
ब्लिक	-5696
▁उतार	-5697
▁इसील	-5698
▁h	-5699
▁उतना	-5700
▁जुड़	-5701
▁नेताओं	-5702
दल	-5703
रोज	-5704
▁अंकों	-5705
▁चन्द्र	-5706
▁क्रिकेट	-5707
फ़ी	-5708
▁पाइ	-5709
▁इक्व	-5710
▁जुड़ी	-5711
▁दुर्भाग्य	-5712
▁ष	-5713
दों	-5714
▁निगर	-5715
▁तत्वों	-5716
▁मूर्ति	-5717
रेख	-5718
▁शर	-5719
▁शांत	-5720
▁लॉर्ड	-5721
भु	-5722
▁झारखंड	-5723
▁सर्टिफिकेट	-5724
ायें	-5725
▁रहें	-5726
▁दीर्घ	-5727
▁St	-5728
▁टिका	-5729
▁फैला	-5730
▁लौटा	-5731
▁सरस्वती	-5732
▁नोड	-5733
▁समृ	-5734
▁निगरानी	-5735
▁दायित्वों	-5736
▁सल	-5737
न्दर	-5738
ार्ट	-5739
▁हड़	-5740
▁महाध	-5741
▁लिंग	-5742
ागर	-5743
▁शौ	-5744
▁भरे	-5745
▁अनधिकृत	-5746
kh	-5747
डिट	-5748
्राफी	-5749
▁बारह	-5750
क्षेत्र	-5751
▁समायोजित	-5752
रिट	-5753
▁SH	-5754
▁तदर्थ	-5755
▁ग़	-5756
▁ग्ल	-5757
▁फीस	-5758
▁तकनीक	-5759
▁बोलने	-5760
▁मरम्मत	-5761
▁प्रदूषण	-5762
▁दुः	-5763
भेद	-5764
▁रमेश	-5765
▁निस्त	-5766
▁प्रतिलिपि	-5767
▁संभवतः	-5768
ment	-5769
पत्य	-5770
णक	-5771
▁सीता	-5772
▁रायपुर	-5773
▁प्रतिबि	-5774
ड़िया	-5775
▁कमिश्	-5776
▁आत्मसम	-5777
▁कनेक्शन	-5778
▁सिन्	-5779
▁उत्साह	-5780
▁ब्राह्मण	-5781
▁जंगल	-5782
▁MO	-5783
▁दम	-5784
▁मनी	-5785
▁विधेयक	-5786
▁प्रान्त	-5787
▁बनाये	-5788
▁बुलाने	-5789
▁रुक	-5790
▁OSNo	-5791
▁असामान्य	-5792
par	-5793
स्टिक	-5794
▁दरवाजे	-5795
▁विनिमय	-5796
▁विस्तारित	-5797
▁विनय	-5798
ग्रस्त	-5799
▁बाह्य	-5800
▁ग्रस्त	-5801
▁वस्तुत	-5802
▁विश्वसनीयता	-5803
▁समझते	-5804
▁प्रतिसाद	-5805
▁तिल	-5806
▁लाठी	-5807
▁ऑपरेटर	-5808
नेश	-5809
▁पीड़ा	-5810
▁पंक्ति	-5811
भारत	-5812
▁सतर्कता	-5813
▁तिव	-5814
▁क्लब	-5815
▁अफ्रीका	-5816
▁लिंक	-5817
गन	-5818
▁बैक	-5819
▁सरकारों	-5820
▁एयर	-5821
▁यथा	-5822
▁अपहरण	-5823
▁खरीदी	-5824
▁खतरनाक	-5825
▁जातियों	-5826
▁नामों	-5827
ेड	-5828
▁शास्त	-5829
▁सीआरपीसी	-5830
▁आत्मसमर्पण	-5831
आरएस	-5832
▁खटख	-5833
▁शीट	-5834
▁गवर्न	-5835
टका	-5836
कियों	-5837
▁मस्	-5838
▁पश्चात	-5839
▁कुल्हाड़ी	-5840
▁प्रतिनिधियों	-5841
▁सीडी	-5842
िवारिक	-5843
▁रहस्य	-5844
र्याप्त	-5845
▁तिवारी	-5846
▁पहुंची	-5847
garh	-5848
▁खनन	-5849
वादियों	-5850
▁पारिवारिक	-5851
▁भक्ति	-5852
▁अपनाने	-5853
▁ब्रिटेन	-5854
▁सलाहकार	-5855
▁राज्यपाल	-5856
▁कहां	-5857
▁सचेत	-5858
▁नेत्र	-5859
▁विवरणों	-5860
▁पुनर्वास	-5861
▁उदा	-5862
▁जना	-5863
धनों	-5864
िवक्ता	-5865
▁पार्क	-5866
▁टुकड़े	-5867
▁अनावश्यक	-5868
▁सांप	-5869
▁कमिश्नर	-5870
▁कार्यान्वयन	-5871
▁गोपाल	-5872
▁ग्राहकों	-5873
ंठ	-5874
▁क्षण	-5875
▁द्वि	-5876
▁थोड़ी	-5877
▁बढ़ती	-5878
▁त्वरित	-5879
▁प्रिंट	-5880
▁किसानों	-5881
▁संगठ	-5882
▁बिलकुल	-5883
▁उपायुक्त	-5884
▁अपर्याप्त	-5885
▁पशु	-5886
▁बुरी	-5887
▁तर्कों	-5888
▁संबंधों	-5889
न्थ	-5890
▁एसी	-5891
▁चाय	-5892
▁तंत्रिका	-5893
hatt	-5894
▁इंडियन	-5895
▁हथियारों	-5896
▁लोड	-5897
▁PS	-5898
▁नेशनल	-5899
▁व्यापारी	-5900
▁महाधिवक्ता	-5901
▁जनसं	-5902
राशि	-5903
ज़ो	-5904
▁ऑफिसर	-5905
▁स्वच्छ	-5906
▁मुकाब	-5907
▁इंटरनेट	-5908
ेंसिक	-5909
▁चार्ट	-5910
▁दुश्म	-5911
▁मोटरसाइ	-5912
▁सदस्यता	-5913
▁पड	-5914
क्रो	-5915
▁वर्गीकृत	-5916
▁सॉफ्टवेयर	-5917
▁बैल	-5918
▁अद्य	-5919
▁गीता	-5920
▁अंगूठ	-5921
उंट	-5922
▁भरी	-5923
कृष्ट	-5924
▁जाली	-5925
▁नवीनी	-5926
▁खेत	-5927
▁ज्व	-5928
▁तलाक	-5929
▁कही	-5930
▁ज़्यादा	-5931
▁पदोन्नत	-5932
▁मंदिरों	-5933
▁प्राधिकार	-5934
▁प्रतिस्थापित	-5935
im	-5936
▁जू	-5937
▁नै	-5938
▁मंजिल	-5939
मूल	-5940
▁निचले	-5941
▁विनियमित	-5942
र्पित	-5943
▁मार्क	-5944
▁मिलेगा	-5945
रम	-5946
▁गुफा	-5947
▁समाव	-5948
▁विमर्श	-5949
▁खूब	-5950
▁शेख	-5951
टीकरण	-5952
▁बरामदगी	-5953
▁हरियाणा	-5954
▁एव	-5955
▁नृत	-5956
▁छाया	-5957
▁निधन	-5958
▁देनदार	-5959
▁अवहेल	-5960
▁वहन	-5961
▁भत्ता	-5962
▁सिफारिशों	-5963
▁आधि	-5964
वासियों	-5965
FA	-5966
▁उत	-5967
▁इसीलिए	-5968
▁अधिनियमित	-5969
▁MA	-5970
▁मनाया	-5971
▁बाँ	-5972
▁मेन	-5973
▁अनुपस्थित	-5974
कात	-5975
िवेश	-5976
▁वाक्य	-5977
▁सुनकर	-5978
▁प्रबल	-5979
▁प्रेरणा	-5980
▁आहार	-5981
▁इक्विटी	-5982
▁विद्यार्थ	-5983
▁फुट	-5984
▁बनाकर	-5985
▁उठाई	-5986
▁कड़ी	-5987
▁खरीदा	-5988
▁वाहनों	-5989
िब	-5990
ish	-5991
्रु	-5992
▁सांस	-5993
▁मानकों	-5994
▁फलस्वरूप	-5995
▁औस	-5996
▁पंडित	-5997
▁इस्	-5998
▁ऑडिट	-5999
▁बैठा	-6000
▁भीड़	-6001
▁फ्लैट	-6002
▁अनदेखी	-6003
▁एफएसएल	-6004
▁पुनराव	-6005
▁महत्त्व	-6006
▁एओ	-6007
▁खोला	-6008
▁गांवों	-6009
▁अहमदाबाद	-6010
ोषित	-6011
▁विवेका	-6012
▁निस्संदेह	-6013
▁प्रकटीकरण	-6014
▁भो	-6015
▁सम्पूर्ण	-6016
▁न्यायमूर्ति	-6017
ेंशन	-6018
▁अवहेलना	-6019
िसाब	-6020
कू	-6021
▁उर्	-6022
▁लगती	-6023
▁सीधा	-6024
▁नियुक्तियों	-6025
▁इंस	-6026
▁रघु	-6027
▁फ्रै	-6028
▁भाषाओं	-6029
▁निष्कासन	-6030
▁मध	-6031
▁अखबार	-6032
▁जानें	-6033
▁टिकट	-6034
▁मॉडल	-6035
▁पट्टी	-6036
ूर्त	-6037
▁क्रेता	-6038
▁मनमाने	-6039
▁हिस्सों	-6040
▁प्रदर्शनी	-6041
ंगलोर	-6042
▁कष्ट	-6043
▁सिक्	-6044
▁प्रिंसिपल	-6045
▁सशक्त	-6046
▁प्रयोज्यता	-6047
▁जीन	-6048
▁मरा	-6049
▁सकी	-6050
▁औसतन	-6051
▁घरों	-6052
▁स्क्रीन	-6053
▁पदार्थों	-6054
anc	-6055
बन्ध	-6056
▁दरों	-6057
▁चीजें	-6058
▁पुष्ट	-6059
▁मोटरसाइकिल	-6060
सागर	-6061
▁हान	-6062
म्परा	-6063
▁टैक्स	-6064
▁रिस	-6065
▁खटखटा	-6066
▁आधिपत्य	-6067
▁योजनाओं	-6068
▁स्वेच्छा	-6069
▁पौधे	-6070
▁चिकित्सक	-6071
निस	-6072
▁इनकी	-6073
▁छेड़	-6074
▁ढांचे	-6075
लक	-6076
▁संयंत्र	-6077
▁बाईं	-6078
▁बेशक	-6079
▁होंगी	-6080
ंपी	-6081
▁बंदर	-6082
ers	-6083
बेट	-6084
▁परिल	-6085
▁दक्षिणी	-6086
जल	-6087
जनन	-6088
▁बेई	-6089
▁राह	-6090
▁कहती	-6091
▁सिवाय	-6092
▁AP	-6093
▁१६	-6094
▁वास	-6095
▁गायब	-6096
▁बैंकिंग	-6097
▁स्वीकारोक्ति	-6098
▁दिशानिर्देशों	-6099
▁प्	-6100
कथित	-6101
▁कर्ण	-6102
▁रिला	-6103
▁निकाले	-6104
▁दुश्मनी	-6105
▁अपमानजनक	-6106
▁निर्वाचित	-6107
ीकृत	-6108
▁गड़	-6109
▁उर्फ	-6110
▁कौशल	-6111
▁ऑपरेट	-6112
▁वार्ड	-6113
काता	-6114
▁प्लस	-6115
▁Chhatt	-6116
▁शक्तिशाली	-6117
ॉनिक	-6118
▁स्के	-6119
▁पैकेज	-6120
▁आबकारी	-6121
▁निवारण	-6122
▁उल्लेखनीय	-6123
जाने	-6124
▁कहला	-6125
▁ग्रुप	-6126
▁पौधों	-6127
केशन	-6128
▁आजादी	-6129
▁रिलायंस	-6130
re	-6131
▁नंद	-6132
▁लायक	-6133
▁मस्जि	-6134
जिए	-6135
▁कॉन्	-6136
▁धातु	-6137
▁खरीदार	-6138
▁तथाकथित	-6139
गाव	-6140
▁कू	-6141
▁लाए	-6142
हार्य	-6143
▁तलवार	-6144
▁महाराजा	-6145
▁रवीन्द्रनाथ	-6146
▁RE	-6147
द्धा	-6148
▁ग्राफ	-6149
▁बहाली	-6150
▁संक्रमण	-6151
▁समर्पित	-6152
▁iii	-6153
▁फिल्	-6154
▁रिक्ति	-6155
▁Chhattis	-6156
▁कॉर्पोरेट	-6157
▁साहित्यिक	-6158
ोश	-6159
्नि	-6160
▁CA	-6161
िकारी	-6162
ॉल्यू	-6163
▁जताई	-6164
▁गुंजा	-6165
▁पेट्रोल	-6166
ोंड	-6167
▁एंट	-6168
▁टर्म	-6169
▁ट्रैक	-6170
▁प्रतिदिन	-6171
बारी	-6172
▁अतीत	-6173
▁देगी	-6174
▁विभागों	-6175
ao	-6176
साई	-6177
▁ओं	-6178
▁कंध	-6179
▁अकाद	-6180
▁थाने	-6181
▁प्रतिव	-6182
▁परम्परा	-6183
▁ट्रेडमार्क	-6184
पीए	-6185
▁वीड	-6186
▁प्रस्तावों	-6187
▁जायें	-6188
▁Chhattisgarh	-6189
up	-6190
स्वामी	-6191
▁रूपों	-6192
▁तंब	-6193
▁काले	-6194
▁इस्लामी	-6195
▁शास्त्र	-6196
▁विधानसभा	-6197
अप	-6198
▁शरण	-6199
ूष	-6200
▁पहन	-6201
▁सेन	-6202
▁निलंबित	-6203
डीसी	-6204
वाणी	-6205
ित्य	-6206
▁पते	-6207
▁भाग्य	-6208
ोसी	-6209
▁तनाव	-6210
▁तारा	-6211
▁एक्सप	-6212
▁संगठनों	-6213
▁संज्ञेय	-6214
ंची	-6215
ष्ठा	-6216
▁सीनियर	-6217
▁संसाधनों	-6218
AK	-6219
▁रखकर	-6220
▁मुक्ति	-6221
▁साधनों	-6222
्ड	-6223
▁अवर	-6224
▁कंस	-6225
▁लिप	-6226
▁निकलने	-6227
▁वाणिज्य	-6228
भासी	-6229
▁उन्हीं	-6230
राष्ट्रीय	-6231
वै	-6232
end	-6233
▁मृ	-6234
▁धनराशि	-6235
▁हिन्दु	-6236
▁पट	-6237
क्कर	-6238
्याव	-6239
▁केश	-6240
▁चां	-6241
▁पैट	-6242
▁जनादेश	-6243
ev	-6244
ाइयों	-6245
▁जीवा	-6246
▁बहादुर	-6247
कै	-6248
्रेषित	-6249
▁संवेदन	-6250
ोई	-6251
▁मोड़	-6252
वास्तव	-6253
▁शत्रु	-6254
▁राजधानी	-6255
▁IV	-6256
द्री	-6257
▁सहन	-6258
▁गुंजाइश	-6259
▁अभिलेखों	-6260
▁प्रयासों	-6261
▁खनि	-6262
▁टूट	-6263
▁डीएन	-6264
▁धरती	-6265
▁जोड़े	-6266
▁संसदीय	-6267
▁बैंगलोर	-6268
गि	-6269
▁फॉर	-6270
▁रखती	-6271
▁सौंपी	-6272
▁प्रोविज़ो	-6273
▁परिस्थितियां	-6274
og	-6275
ंसक	-6276
ुत्	-6277
▁हुस	-6278
▁एसटी	-6279
▁यूनिट	-6280
▁चित्रण	-6281
▁जाओ	-6282
▁दाम	-6283
▁फीट	-6284
▁निर्देशिका	-6285
SC	-6286
▁तृ	-6287
न्दु	-6288
▁एसआई	-6289
ध्यक्ष	-6290
▁गहराई	-6291
ुलर	-6292
▁घो	-6293
ंचाई	-6294
▁गहन	-6295
▁जूनियर	-6296
▁न्यायपालिका	-6297
प्स	-6298
स्तु	-6299
▁छुपा	-6300
▁ड्रग	-6301
▁लखनऊ	-6302
▁देखता	-6303
▁रिकवरी	-6304
▁टॉ	-6305
च्यु	-6306
▁परिचय	-6307
▁युक्ति	-6308
▁काला	-6309
▁ग्री	-6310
विज्ञान	-6311
▁गोपनीय	-6312
▁खुल	-6313
▁जगत	-6314
स्ट्री	-6315
▁भंडार	-6316
▁रहेगी	-6317
▁कपड़ों	-6318
ON	-6319
न्या	-6320
वाहा	-6321
ोर्ट	-6322
▁चरम	-6323
▁पुस्तिका	-6324
od	-6325
ंदगी	-6326
▁नाइ	-6327
ल्पित	-6328
▁हस्ताक्षरित	-6329
▁छिपा	-6330
▁पाठक	-6331
▁लंबा	-6332
▁मतभेद	-6333
▁मशीनरी	-6334
▁कस	-6335
▁अद्यतन	-6336
▁यथार्थ	-6337
▁अवय	-6338
▁उजागर	-6339
▁दाहिने	-6340
▁लैस	-6341
ग्राम	-6342
▁हिमा	-6343
ig	-6344
िटल	-6345
ुग्	-6346
तन्य	-6347
▁गिन	-6348
▁रोकना	-6349
▁मूल्यों	-6350
▁उत्कृष्ट	-6351
गंज	-6352
क्ष्य	-6353
▁अंग्रेज	-6354
▁ड्राइवर	-6355
▁ओम	-6356
वायद	-6357
▁योनि	-6358
▁मेट्रो	-6359
▁उपर	-6360
▁ड्राफ	-6361
▁दुर्लभ	-6362
▁परिश्रम	-6363
▁कॉर्पोरेशन	-6364
फ़र	-6365
▁चक	-6366
▁कवायद	-6367
▁स्नातक	-6368
▁प्रतियां	-6369
पूर	-6370
▁हाँ	-6371
▁सर्क	-6372
▁कड़ाई	-6373
▁समझौतों	-6374
▁अज	-6375
जीसी	-6376
▁सुस	-6377
▁शिखर	-6378
णन	-6379
हि	-6380
▁रिव	-6381
ड्यूल	-6382
▁खोजने	-6383
▁सुरेश	-6384
▁कोलकाता	-6385
▁गू	-6386
▁अनिल	-6387
▁लेबर	-6388
▁सेवन	-6389
▁पुनर्म	-6390
▁निस्तारण	-6391
ज्जित	-6392
स्टेट	-6393
▁ईसाई	-6394
▁जितनी	-6395
▁अवसरों	-6396
▁अन्तर	-6397
▁पार्श्व	-6398
▁मुलाकात	-6399
▁XX	-6400
▁दर्श	-6401
▁उम	-6402
▁झील	-6403
▁पोजी	-6404
पंथी	-6405
▁दशा	-6406
िकारक	-6407
▁डिस्	-6408
▁पब्लिक	-6409
▁परियोजनाओं	-6410
..	-6411
▁राजू	-6412
▁कीटना	-6413
▁शुक्र	-6414
▁चैतन्य	-6415
पेश	-6416
▁देशी	-6417
ापू	-6418
▁कामका	-6419
th	-6420
वंत	-6421
▁जवाह	-6422
▁साहब	-6423
▁सीखी	-6424
▁विनाश	-6425
▁इनपुट	-6426
शाह	-6427
त्स	-6428
▁Exh	-6429
▁नकद	-6430
▁फार्म	-6431
ापक	-6432
▁सद्	-6433
▁इंद्र	-6434
▁नृत्य	-6435
▁मूल्यवान	-6436
▁तरल	-6437
▁अंगों	-6438
ानुभूति	-6439
ub	-6440
aya	-6441
ice	-6442
बेन	-6443
स्पद	-6444
▁ज़ि	-6445
▁नोस	-6446
▁मेरिट	-6447
▁विधवा	-6448
▁फ़ोल्डर	-6449
▁बम	-6450
▁दाग	-6451
▁पंख	-6452
▁पोत	-6453
▁मिशन	-6454
▁गिरवी	-6455
▁झुक	-6456
▁एनसी	-6457
▁चाचा	-6458
▁बन्द	-6459
▁स्ट्र	-6460
ल्टी	-6461
▁Ram	-6462
र्ध	-6463
सास	-6464
▁सौंपने	-6465
▁अपरिहार्य	-6466
▁Ad	-6467
▁आधे	-6468
▁सिंचाई	-6469
िक्र	-6470
▁संपन्न	-6471
▁स्वस्थ	-6472
▁अध्यादेश	-6473
▁दोषपूर्ण	-6474
▁Sec	-6475
▁किमी	-6476
▁पोजीशन	-6477
▁विरासत	-6478
▁इलेक्ट्रॉनिक	-6479
▁प्रस्तुतिकरण	-6480
▁कच	-6481
▁रोम	-6482
▁वाक्	-6483
▁सुपर	-6484
▁समूहों	-6485
▁हिमाचल	-6486
▁महात्मा	-6487
▁कोट	-6488
▁स्वि	-6489
▁अस्थिर	-6490
▁सभ्यता	-6491
▁बिंदुओं	-6492
▁वोट	-6493
▁पीपी	-6494
▁रिमांड	-6495
▁वस्तुतः	-6496
ांश	-6497
▁टीवी	-6498
स्तानी	-6499
▁मुझसे	-6500
रस	-6501
ख्यात	-6502
▁रसाय	-6503
▁उर्दू	-6504
▁मस्जिद	-6505
▁फोटो	-6506
▁हुसैन	-6507
▁पत्रिका	-6508
▁विद्रोह	-6509
▁पाप	-6510
▁हाइ	-6511
▁लेबल	-6512
▁इंतजार	-6513
ण्य	-6514
▁कीं	-6515
▁नस्	-6516
▁पॉलिसी	-6517
▁सारांश	-6518
▁पैकेट	-6519
▁महानि	-6520
▁प्रतिस्पर्धा	-6521
ोजे	-6522
▁कहे	-6523
▁फंड	-6524
द्वीप	-6525
▁चरणों	-6526
▁मिसाल	-6527
▁सप	-6528
▁मसौदा	-6529
इल	-6530
स्पी	-6531
▁लगाते	-6532
▁शस्त्र	-6533
ढ़े	-6534
▁जबरन	-6535
▁भक्त	-6536
▁प्रविष्टियों	-6537
ोब	-6538
▁छू	-6539
▁उपबंध	-6540
▁गाड़ी	-6541
▁हिसाब	-6542
▁प्रांत	-6543
▁शिकायतों	-6544
शोथ	-6545
▁ऊंचाई	-6546
▁व्यस्त	-6547
st	-6548
न्ध	-6549
परक	-6550
▁भव	-6551
▁बीस	-6552
▁डोमेन	-6553
गाई	-6554
▁माला	-6555
▁विलय	-6556
बारा	-6557
वर्ड	-6558
▁अदा	-6559
▁बिता	-6560
▁जिनसे	-6561
▁पट्टा	-6562
▁कोशिकाओं	-6563
▁प्रतिनिय	-6564
▁किरायेदारी	-6565
कीन	-6566
▁बग	-6567
▁बोध	-6568
धान्त	-6569
▁रेडियो	-6570
▁उन्होने	-6571
▁राजेंद्र	-6572
फु	-6573
▁दक्ष	-6574
▁कोर्स	-6575
wan	-6576
▁बचत	-6577
▁हां	-6578
त्रिम	-6579
▁मूलभूत	-6580
▁परिलक्षित	-6581
बली	-6582
▁गणित	-6583
▁भगवान्	-6584
▁उपलब्धता	-6585
▁VII	-6586
िवर्त	-6587
▁सवालों	-6588
▁y	-6589
▁उठाना	-6590
▁पूर्णता	-6591
▁समायोजन	-6592
▁अखिल	-6593
ठे	-6594
▁किल	-6595
ेन्द्र	-6596
▁स्टील	-6597
▁यूरोपीय	-6598
▁प्रक्रियाओं	-6599
जुन	-6600
▁साहू	-6601
▁महाभारत	-6602
▁कट्	-6603
▁फाइ	-6604
▁असंत	-6605
▁मतदाता	-6606
▁रहेंगे	-6607
्रेम	-6608
▁लेट	-6609
▁जमींद	-6610
▁सहयोगी	-6611
तापूर्वक	-6612
DD	-6613
▁मंग	-6614
▁कहकर	-6615
▁इस्ती	-6616
▁रॉय	-6617
▁शुक्	-6618
▁कागजात	-6619
ुश	-6620
▁लार	-6621
▁बोतल	-6622
▁पर्वत	-6623
▁सेक्शन	-6624
▁एन्	-6625
▁शहरों	-6626
▁सुशील	-6627
▁नियंत्रक	-6628
▁मुहर	-6629
▁सहानुभूति	-6630
AP	-6631
ल्फ	-6632
▁वक	-6633
▁डेवल	-6634
▁ब्यू	-6635
▁प्रोत्साहित	-6636
▁सिग	-6637
श्विक	-6638
स्फोट	-6639
ार्किक	-6640
▁अभिगम	-6641
▁परिवी	-6642
▁अत्यन्त	-6643
▁कृत्रिम	-6644
ंती	-6645
ंटों	-6646
▁भोग	-6647
▁रेड	-6648
▁उकसा	-6649
▁नायक	-6650
▁स्की	-6651
▁राकेश	-6652
▁उपेक्षा	-6653
साइड	-6654
▁बडी	-6655
▁डाउन	-6656
▁खासकर	-6657
▁विनोद	-6658
▁मापदंड	-6659
▁मार्गदर्शन	-6660
मीन	-6661
चाना	-6662
वायु	-6663
ुत्व	-6664
▁बौद्धिक	-6665
▁पुनरावृत्ति	-6666
रद	-6667
िकी	-6668
▁नु	-6669
▁मंशा	-6670
▁सम्प	-6671
विश्वास	-6672
डू	-6673
टीई	-6674
िलों	-6675
▁घूम	-6676
▁प्रक्रियात्मक	-6677
ाट	-6678
मोहन	-6679
▁अग्नि	-6680
▁भत्ते	-6681
▁वृद्ध	-6682
▁नज़र	-6683
▁विकि	-6684
▁इलाके	-6685
▁संभोग	-6686
▁अप्रत्य	-6687
▁परीक्षक	-6688
सेस	-6689
▁नक्	-6690
▁सड़	-6691
▁मंगल	-6692
▁वाद्य	-6693
▁खर्चों	-6694
लास	-6695
▁एजी	-6696
▁जीत	-6697
▁प्रतिबिंब	-6698
बंदी	-6699
स्राव	-6700
▁दोनो	-6701
▁चुनें	-6702
▁पड़ोसी	-6703
▁हिमालय	-6704
▁सुविधाएं	-6705
िमा	-6706
हारी	-6707
▁बजट	-6708
▁एसपी	-6709
र्माने	-6710
▁दुर्व	-6711
कारियों	-6712
जातियों	-6713
CC	-6714
▁मानी	-6715
▁मौजूदगी	-6716
▁जुर्माने	-6717
▁घास	-6718
▁लाह	-6719
▁इशारा	-6720
▁ब्रह्	-6721
▁सख्ती	-6722
▁कामगार	-6723
पुरा	-6724
▁ट्यूब	-6725
▁सौर	-6726
▁पांड	-6727
▁अध्यक्षता	-6728
▁Bha	-6729
▁उपज	-6730
▁बढ़ते	-6731
▁अविश्व	-6732
▁व्यापारिक	-6733
लेश	-6734
ापि	-6735
▁पच	-6736
▁ओपी	-6737
▁रोश	-6738
▁सांख	-6739
▁बिस्त	-6740
▁समझना	-6741
▁रिश्वत	-6742
▁लक्ष्मण	-6743
पै	-6744
सूर	-6745
▁पोषण	-6746
▁बांड	-6747
▁शान्त	-6748
▁व्युत्	-6749
▁लेनदारों	-6750
यु	-6751
एसए	-6752
▁मोटे	-6753
▁परिसंप	-6754
▁पहाड़ी	-6755
▁गणराज्य	-6756
▁परिवीक्षा	-6757
▁Rai	-6758
▁छोड़ा	-6759
▁आतंकवादी	-6760
▁पहुंचाने	-6761
जरी	-6762
▁भरत	-6763
▁उग्र	-6764
ल्पनिक	-6765
▁प्रभु	-6766
▁समझता	-6767
▁काल्पनिक	-6768
फ्	-6769
▁ऑपर	-6770
▁मिथ	-6771
▁नींव	-6772
▁संयम	-6773
▁जवाबी	-6774
त्रियों	-6775
▁उभ	-6776
गांव	-6777
र्जन	-6778
ीर्ण	-6779
▁समेक	-6780
▁उपभोग	-6781
▁प्रीम	-6782
▁नीतिगत	-6783
▁समझाने	-6784
▁माइक्रो	-6785
▁प्रतिष्ठित	-6786
बान	-6787
▁गुम	-6788
▁रेख	-6789
▁माने	-6790
▁लगते	-6791
▁शिशु	-6792
▁चुकता	-6793
▁अप्रत्यक्ष	-6794
ंकी	-6795
▁बड़	-6796
▁एनडी	-6797
▁प्राधिकृत	-6798
ोज़	-6799
▁आयी	-6800
khand	-6801
ण्डिक	-6802
▁राजीव	-6803
▁लड़ने	-6804
▁Go	-6805
▁लाई	-6806
▁सकेगा	-6807
जिंग	-6808
▁फर्	-6809
▁हसन	-6810
▁पीने	-6811
▁बनाती	-6812
ैव	-6813
▁CC	-6814
▁सिद्धान्त	-6815
▁सफलतापूर्वक	-6816
ढ़ा	-6817
▁मुर	-6818
▁विघ	-6819
▁लंदन	-6820
▁हाथी	-6821
▁अंतः	-6822
▁कहाँ	-6823
▁गिरा	-6824
▁सत्यता	-6825
▁अन्तर्गत	-6826
▁आधा	-6827
▁पुराना	-6828
▁Ka	-6829
दायक	-6830
▁बेहद	-6831
▁सूचक	-6832
▁संकीर्ण	-6833
दनी	-6834
agar	-6835
▁आबादी	-6836
▁मजदूर	-6837
▁मतदान	-6838
▁जायेगी	-6839
धियों	-6840
ोक्ताओं	-6841
▁ग्रामीणों	-6842
ंद्रह	-6843
▁टाइप	-6844
▁काटने	-6845
▁केन्द	-6846
▁फायदा	-6847
रेज	-6848
▁घृ	-6849
▁खिल	-6850
च्युटी	-6851
▁पंद्रह	-6852
ia	-6853
़ी	-6854
▁नाज	-6855
▁एग्जाम	-6856
▁क्रांति	-6857
▁नीतियों	-6858
▁इंजीनियर	-6859
▁बोलीदाता	-6860
▁आपस	-6861
िनेशन	-6862
▁कृति	-6863
▁निदेशकों	-6864
▁IO	-6865
▁पश	-6866
▁एल्	-6867
▁हरे	-6868
्यवाद	-6869
▁गणेश	-6870
▁गद्य	-6871
▁निंदा	-6872
▁पुरूष	-6873
▁ऑनलाइन	-6874
▁अदालतें	-6875
्वे	-6876
▁रिज	-6877
रिक्ष	-6878
▁हैंः	-6879
नक	-6880
वण	-6881
ast	-6882
▁अनन्य	-6883
पेट	-6884
▁अजय	-6885
▁सदी	-6886
▁नेपाल	-6887
ियोग्राफी	-6888
ef	-6889
टीन	-6890
ायण	-6891
▁आनु	-6892
▁चर्च	-6893
▁स्ने	-6894
छाड़	-6895
रेखा	-6896
▁राधा	-6897
वकों	-6898
दृश्य	-6899
▁Prakhand	-6900
▁अविश्वसनीय	-6901
तृ	-6902
तें	-6903
▁तू	-6904
▁धू	-6905
▁मुकदमों	-6906
▁प्रतिष्ठान	-6907
जीवी	-6908
▁पुनर्मूल	-6909
इयां	-6910
काने	-6911
मिता	-6912
▁ढूं	-6913
▁समवर्ती	-6914
▁निदेशालय	-6915
▁ग्रेच्युटी	-6916
▁गुरू	-6917
▁बदला	-6918
▁कामकाज	-6919
▁बिस्तर	-6920
▁स्वर्ण	-6921
▁निष्पक्षता	-6922
▁आईओ	-6923
▁पेर	-6924
▁रकम	-6925
▁एकदम	-6926
▁टेक्	-6927
▁अज्ञान	-6928
▁श्रीवास्तव	-6929
नेस	-6930
बीन	-6931
▁पढ	-6932
▁१७	-6933
क्टे	-6934
▁माय	-6935
▁महतो	-6936
▁सूजन	-6937
▁कालेज	-6938
▁सम्भव	-6939
▁स्त्र	-6940
▁तर्कसंगत	-6941
▁होल्डिंग	-6942
▁MP	-6943
▁वय	-6944
▁विज	-6945
▁एसडी	-6946
▁बंबई	-6947
▁शोषण	-6948
रीश	-6949
▁डीएनए	-6950
▁क्लर्क	-6951
▁संगठित	-6952
▁मैट्रिक	-6953
ॉजी	-6954
▁झु	-6955
ाम्	-6956
▁आंखों	-6957
▁पुनर्ग	-6958
▁पैटर्न	-6959
▁दिलचस्पी	-6960
▁ज्यादातर	-6961
वेल	-6962
▁दौड़	-6963
▁परेड	-6964
▁प्रॉ	-6965
▁भाष्	-6966
▁लिपि	-6967
▁पढ़ना	-6968
▁संयोजन	-6969
▁अहं	-6970
▁कौर	-6971
▁फार	-6972
▁याता	-6973
▁कट्टर	-6974
▁भांति	-6975
▁वकालत	-6976
▁हानिकारक	-6977
▁रिश्तेदारों	-6978
भौ	-6979
मंद	-6980
▁बेचा	-6981
्यवहार	-6982
ँग	-6983
▁रज	-6984
▁चूँ	-6985
▁परिप्रे	-6986
▁अप्रासंगिक	-6987
GE	-6988
ल्लू	-6989
▁ऑटो	-6990
▁घुस	-6991
▁एंटी	-6992
▁गर्मी	-6993
▁पड़ती	-6994
▁चौहान	-6995
▁विपणन	-6996
▁पुनर्मूल्यांकन	-6997
सो	-6998
ज़े	-6999
मुच	-7000
▁हरा	-7001
▁नर्स	-7002
▁प्रोफ	-7003
▁पट्टेदार	-7004
ष्णा	-7005
▁टाटा	-7006
▁रोशनी	-7007
▁सम्मन	-7008
▁अधिनियमों	-7009
ट्र	-7010
▁बैच	-7011
▁वरीय	-7012
▁अस्थि	-7013
▁दिलचस्प	-7014
▁कोमल	-7015
▁सोचते	-7016
▁गुजरने	-7017
▁तंबाकू	-7018
▁यातायात	-7019
JC	-7020
बंद	-7021
बंधन	-7022
विंग	-7023
▁बिग	-7024
▁आखिरकार	-7025
▁रजिस्ट्री	-7026
▁कार्यक्रमों	-7027
▁तम	-7028
पक्व	-7029
▁मांगा	-7030
▁परिसमापक	-7031
▁विशेषज्ञों	-7032
▁मुना	-7033
▁निरूप	-7034
▁यात्री	-7035
▁विस्फोट	-7036
▁शल	-7037
▁नाय	-7038
▁बढा	-7039
▁गहरे	-7040
▁दिनेश	-7041
▁गोविंद	-7042
▁प्रारम्भ	-7043
▁परिप्रेक्ष्य	-7044
▁क्ले	-7045
▁गड़ब	-7046
▁लोहे	-7047
सिद्धि	-7048
▁पीढ़ी	-7049
▁निकालना	-7050
▁पक्षकार	-7051
▁समुद्री	-7052
▁सामान्यतः	-7053
▁एग्जामिनेशन	-7054
च्चार	-7055
▁जबरद	-7056
▁दूरस्थ	-7057
▁दुर्व्यवहार	-7058
▁An	-7059
▁CH	-7060
▁बुल	-7061
▁पीटा	-7062
▁ऑपरेशन	-7063
▁पहुँचा	-7064
▁व्याख्याता	-7065
ौज	-7066
ूलन	-7067
▁अरो	-7068
▁अरुण	-7069
▁आएगा	-7070
▁डाटा	-7071
▁तिरु	-7072
▁खंडों	-7073
▁जानवरों	-7074
▁वस्तुएं	-7075
▁विवेकाधीन	-7076
▁तापमान	-7077
▁स्वाधीन	-7078
▁दुर्भावना	-7079
मै	-7080
िडे	-7081
▁पीठा	-7082
▁टुकड़ा	-7083
▁दुर्गा	-7084
एसई	-7085
▁to	-7086
स्सी	-7087
▁राश	-7088
▁अनुर	-7089
▁एजेंस	-7090
▁अंग्रेजों	-7091
CT	-7092
▁DI	-7093
िकर्	-7094
▁छाती	-7095
▁जगदी	-7096
▁पड़ोस	-7097
▁फर्जी	-7098
▁मजदूरों	-7099
▁रचनात्मक	-7100
ेज़	-7101
खाना	-7102
▁फोरम	-7103
▁चूँकि	-7104
▁बल्लेबाज	-7105
▁Ra	-7106
▁Sh	-7107
▁गुट	-7108
▁शान	-7109
▁बेंगल	-7110
▁भावनाओं	-7111
▁कार्यवाह	-7112
▁आपत्तियां	-7113
▁बीमाकर्ता	-7114
▁ऑडियो	-7115
▁उद्धरण	-7116
▁जलवायु	-7117
▁वर्जित	-7118
पॉ	-7119
▁गुणा	-7120
▁देखो	-7121
▁तलाशी	-7122
▁प्लॉट	-7123
▁प्रजनन	-7124
ंटा	-7125
▁बसव	-7126
▁ईरान	-7127
▁वेंकट	-7128
▁ब्यूरो	-7129
▁हमे	-7130
ॉरिटी	-7131
▁आदान	-7132
▁प्लेट	-7133
▁बाधित	-7134
▁राजकुमार	-7135
▁एह	-7136
▁गह	-7137
▁झूठी	-7138
▁उत्तम	-7139
▁स्क्र	-7140
▁Raipur	-7141
▁दाण्डिक	-7142
▁केन्द्रीय	-7143
पल	-7144
▁अंब	-7145
▁गोरा	-7146
ुरी	-7147
स्को	-7148
▁चरस	-7149
▁जुल	-7150
स्कर	-7151
▁मातृ	-7152
▁वादा	-7153
▁अनुया	-7154
▁निराश	-7155
▁पारंप	-7156
▁कुलपति	-7157
▁विशुद्ध	-7158
▁परिवारों	-7159
OM	-7160
▁उपय	-7161
▁खदान	-7162
▁तत्त्व	-7163
तांत्रिक	-7164
▁अनुक्रम	-7165
ईसी	-7166
▁मरी	-7167
▁कॉलम	-7168
▁प्रताप	-7169
▁समावेश	-7170
▁ससुराल	-7171
राग	-7172
▁आपसे	-7173
▁अनुमानित	-7174
▁केंद्रित	-7175
▁रिवा	-7176
▁कारखाने	-7177
▁टैग	-7178
▁सिम	-7179
▁दुःख	-7180
▁जगदीश	-7181
▁टिकाऊ	-7182
▁पढ़ता	-7183
▁उत्पत्ति	-7184
हो	-7185
सीय	-7186
ड़ना	-7187
नीति	-7188
ादेश	-7189
▁बालक	-7190
▁मछली	-7191
▁प्रतिर	-7192
▁तार्किक	-7193
प्टी	-7194
▁कना	-7195
▁अनाज	-7196
▁ब्रे	-7197
▁सिन्हा	-7198
▁नामांकित	-7199
▁विश्वविद्यालयों	-7200
▁झि	-7201
मिया	-7202
▁एमपी	-7203
▁गौतम	-7204
▁चौथे	-7205
▁पहने	-7206
ूण	-7207
▁अंडर	-7208
▁एक्सच	-7209
▁क्लिक	-7210
▁श्याम	-7211
▁निरपेक्ष	-7212
▁प्रीमियम	-7213
▁अंतरराष्ट्रीय	-7214
संच	-7215
▁इम	-7216
▁बुध	-7217
▁भाइयों	-7218
▁अथॉरिटी	-7219
▁सांख्यिक	-7220
▁गिना	-7221
▁दांत	-7222
▁उपाधि	-7223
▁दिखाता	-7224
▁प्रोजे	-7225
▁अभिव्यक्त	-7226
▁वीडियोग्राफी	-7227
▁खबर	-7228
▁चौक	-7229
▁पवन	-7230
▁मारे	-7231
▁कच्चे	-7232
▁जिलों	-7233
▁MD	-7234
▁जीओ	-7235
▁डिज़	-7236
▁संधि	-7237
▁प्रशंस	-7238
▁निर्वाह	-7239
war	-7240
हाई	-7241
▁अमृत	-7242
▁विधियों	-7243
▁पारंपरिक	-7244
▁यांत्रिक	-7245
▁शक	-7246
▁सती	-7247
▁आर्य	-7248
▁पाये	-7249
▁साहस	-7250
क्षकों	-7251
▁भारती	-7252
▁रसायन	-7253
▁सचमुच	-7254
▁उधारकर्ता	-7255
सरा	-7256
ोकन	-7257
▁घाट	-7258
▁सम्बंध	-7259
BI	-7260
ंसर	-7261
▁नज	-7262
ंगों	-7263
▁नोटों	-7264
▁चौड़ाई	-7265
ँस	-7266
ोनें	-7267
▁घोर	-7268
▁सकल	-7269
▁विवश	-7270
▁वाक्या	-7271
▁छेड़छाड़	-7272
▁सर्वोत्तम	-7273
मेय	-7274
▁ऊतक	-7275
▁तथापि	-7276
▁फैक्ट	-7277
▁बढ़ता	-7278
▁सेंट्रल	-7279
▁लीग	-7280
▁रैंक	-7281
▁कमांड	-7282
▁तुर्की	-7283
▁पार्सल	-7284
▁वरीयता	-7285
▁वाम	-7286
▁पीडी	-7287
च्छेदन	-7288
▁एकत्रित	-7289
▁विन्यास	-7290
▁एजु	-7291
▁घों	-7292
▁सरो	-7293
▁हजारों	-7294
▁किलोग्राम	-7295
मिन	-7296
याव	-7297
सेट	-7298
▁आँख	-7299
▁चमक	-7300
स्पति	-7301
▁उतनी	-7302
▁सम्रा	-7303
▁क्रांत	-7304
▁बंदरगाह	-7305
▁Resident	-7306
ock	-7307
sad	-7308
▁नाल	-7309
▁मैच	-7310
▁उसको	-7311
▁सैन्य	-7312
ाराम	-7313
▁निः	-7314
▁टेंडर	-7315
▁दायरा	-7316
▁पंचाट	-7317
▁मठ	-7318
ारायण	-7319
▁स्टाफ	-7320
▁जर्मनी	-7321
▁दिखाते	-7322
▁उत्तीर्ण	-7323
क़्	-7324
▁ST	-7325
आईए	-7326
रेन	-7327
▁गोर	-7328
▁बाइ	-7329
▁अक्षर	-7330
▁गरीबी	-7331
▁जीवों	-7332
▁ठहराए	-7333
▁लिखना	-7334
▁उच्चार	-7335
▁अपरिवर्त	-7336
बरा	-7337
राइट	-7338
▁Exs	-7339
▁गेट	-7340
▁मूर्	-7341
▁सहेज	-7342
▁अलगाव	-7343
▁ईमानदारी	-7344
नाइ	-7345
भूषण	-7346
▁अम्	-7347
LA	-7348
ter	-7349
चाप	-7350
श्रे	-7351
▁उदय	-7352
▁फिल	-7353
▁रीति	-7354
▁ध्वस्त	-7355
ख्	-7356
▁जापान	-7357
▁पासपोर्ट	-7358
रिफ	-7359
द्रिक	-7360
▁अभ्य	-7361
▁पहचाना	-7362
▁प्राइमा	-7363
ath	-7364
ानंद	-7365
▁पाग	-7366
▁बडे	-7367
▁भावी	-7368
▁गिनती	-7369
▁चिन्ह	-7370
▁वस्त्र	-7371
▁वक्तव्य	-7372
कारा	-7373
▁देनी	-7374
▁सूरत	-7375
▁जानती	-7376
▁कर्मियों	-7377
▁सुसज्जित	-7378
ांप	-7379
शुदा	-7380
▁मील	-7381
▁अश्व	-7382
▁लौटने	-7383
▁वैदिक	-7384
▁यात्रियों	-7385
तृक	-7386
काना	-7387
्रीट	-7388
▁छोड	-7389
▁दार्	-7390
▁हार्ड	-7391
▁गर्भपात	-7392
▁रन	-7393
▁दीप	-7394
▁थाना	-7395
▁एससीआर	-7396
▁जायेंगे	-7397
▁वाक्यांश	-7398
▁संभावनाओं	-7399
ावन	-7400
रलाल	-7401
▁घाय	-7402
▁असाइन	-7403
▁मिश्रित	-7404
▁पाठ्यक्रमों	-7405
तो	-7406
▁तप	-7407
कर्म	-7408
▁पीएम	-7409
वाहाटी	-7410
▁ब्राउ	-7411
▁विपक्ष	-7412
णीय	-7413
▁रॉ	-7414
तन्त्र	-7415
▁किस्म	-7416
▁वैष्ण	-7417
▁गुवाहाटी	-7418
परि	-7419
▁आईं	-7420
▁महल	-7421
▁समू	-7422
▁यूजीसी	-7423
ma	-7424
▁नर्म	-7425
▁मंडप	-7426
▁स्मरण	-7427
▁घायलों	-7428
▁समृद्ध	-7429
▁संबद्धता	-7430
▁कोष	-7431
▁गले	-7432
▁घुट	-7433
▁परा	-7434
▁भूत	-7435
▁प्रम	-7436
▁नरेंद्र	-7437
▁समकालीन	-7438
▁अंतरिक्ष	-7439
▁प्लास्टिक	-7440
▁संविदात्मक	-7441
जिन	-7442
▁ख्या	-7443
▁तीर्थ	-7444
▁लगाकर	-7445
▁विक्रय	-7446
▁प्रमो	-7447
▁श्वेत	-7448
▁डिप्टी	-7449
▁धारकों	-7450
▁पंजाबी	-7451
▁हेक्टे	-7452
▁दुकानों	-7453
▁समन	-7454
▁सैक	-7455
▁अवरोध	-7456
▁निकला	-7457
▁मध्यम	-7458
▁सेंटर	-7459
▁सम्पाद	-7460
▁विज्ञाप	-7461
▁प्रतिरोध	-7462
▁प्रभावशाली	-7463
जो	-7464
▁आपसी	-7465
▁मनोज	-7466
▁सच्चे	-7467
ID	-7468
प्ति	-7469
प्ले	-7470
ांसी	-7471
▁नवा	-7472
▁कुरान	-7473
▁एक्स्ट	-7474
▁ग्व	-7475
कारिता	-7476
▁एस्टेट	-7477
▁प्रभाग	-7478
▁स्तरों	-7479
लीन	-7480
▁बृ	-7481
▁अमल	-7482
▁ईमेल	-7483
▁लिखते	-7484
▁निराशा	-7485
▁मिलेगी	-7486
ff	-7487
जाल	-7488
पड़ी	-7489
िकता	-7490
▁गंध	-7491
▁गला	-7492
▁पिट	-7493
▁सास	-7494
ंजस्य	-7495
ग्रही	-7496
▁अनन्त	-7497
▁स्पॉट	-7498
जान	-7499
▁उलट	-7500
▁कृपा	-7501
▁पैतृक	-7502
▁रामायण	-7503
▁तुम्हारी	-7504
▁लड़कियों	-7505
▁प्रासंगिकता	-7506
▁हनु	-7507
▁सूरज	-7508
▁ब्लैक	-7509
▁विशेषताओं	-7510
na	-7511
▁Bl	-7512
▁फो	-7513
▁बाबा	-7514
▁फ्रेम	-7515
▁संगणक	-7516
▁स्त्रियों	-7517
ED	-7518
▁कॉर	-7519
▁बेट	-7520
▁कबीर	-7521
▁संको	-7522
स्ट्रे	-7523
▁Prasad	-7524
▁स्पर्श	-7525
▁भारतीयों	-7526
एटी	-7527
राई	-7528
वेश	-7529
▁खनिज	-7530
ायुक्त	-7531
▁डाक्टर	-7532
▁दार्शन	-7533
▁उन्मूलन	-7534
रफ	-7535
पाई	-7536
विट	-7537
▁संस्कार	-7538
▁Ma	-7539
▁मक्	-7540
सूत्र	-7541
▁ग्रा	-7542
▁बनना	-7543
▁संगम	-7544
▁उठाते	-7545
▁खपत	-7546
▁मित	-7547
▁शेर	-7548
▁अन्व	-7549
▁डिली	-7550
▁कैंसर	-7551
▁संयोग	-7552
▁निकलता	-7553
▁पेशेवर	-7554
ow	-7555
▁किरण	-7556
▁देवताओं	-7557
ष्म	-7558
शिता	-7559
▁छिप	-7560
▁पठन	-7561
▁चलाई	-7562
▁ट्रक	-7563
▁मुगल	-7564
▁वैसा	-7565
▁शासक	-7566
▁क़्यों	-7567
▁चित्रित	-7568
▁वसीयतकर्ता	-7569
▁किरायेदारों	-7570
▁परामर्शदाता	-7571
डो	-7572
थान	-7573
▁ऊँ	-7574
▁जागर	-7575
▁डीआर	-7576
▁लाना	-7577
▁अत्याचार	-7578
▁फ्रैक्चर	-7579
▁मदन	-7580
▁वेश	-7581
▁भेंट	-7582
▁सौंपे	-7583
▁विडियो	-7584
▁लाभार्थी	-7585
▁विचारधारा	-7586
नान	-7587
▁ड़	-7588
▁मैन	-7589
▁गौरव	-7590
▁पागल	-7591
▁दिखाना	-7592
▁महाप्र	-7593
लेशन	-7594
वाना	-7595
▁डाले	-7596
ांक्षा	-7597
▁टर्मिनल	-7598
▁पुरुषों	-7599
▁प्रतियों	-7600
est	-7601
द्दी	-7602
▁धब्बे	-7603
▁लेंगे	-7604
▁वादों	-7605
▁आश्रित	-7606
▁हेक्टेयर	-7607
▁बेगम	-7608
▁अग्रणी	-7609
▁पीठासीन	-7610
▁स्रोतों	-7611
▁प्रतिनियुक्ति	-7612
▁चट	-7613
शब्द	-7614
▁पुल	-7615
संचार	-7616
प्राप्त	-7617
▁सामंजस्य	-7618
▁छीन	-7619
▁चावल	-7620
▁जलने	-7621
▁कॉरपो	-7622
▁पहुँचे	-7623
▁प्रोटोक	-7624
▁उपयोगिता	-7625
▁संप्रदाय	-7626
▁ताज	-7627
न्नाथ	-7628
हीनता	-7629
▁दोषसिद्धि	-7630
ावी	-7631
म्बी	-7632
▁टेप	-7633
▁मेज	-7634
स्परिक	-7635
▁जानना	-7636
▁लिप्त	-7637
▁तारीखों	-7638
▁मांसपेश	-7639
▁मार्केट	-7640
▁मित्रों	-7641
▁विविधता	-7642
▁सम्पर्क	-7643
▁अपराधियों	-7644
▁लोकतांत्रिक	-7645
MC	-7646
शित	-7647
सेना	-7648
▁असल	-7649
▁फ़ॉ	-7650
ोरिया	-7651
▁हुईं	-7652
▁कंट्रोल	-7653
▁मौद्रिक	-7654
प्रद	-7655
▁अग्रेषित	-7656
▁परत	-7657
▁अद्व	-7658
▁सार्वभौ	-7659
देशक	-7660
▁लड़ा	-7661
▁निपटाने	-7662
▁प्रसारण	-7663
झी	-7664
▁पुरी	-7665
▁मादा	-7666
▁अपूर्ण	-7667
▁एक्सचेंज	-7668
ोमा	-7669
न्नी	-7670
न्ने	-7671
▁चिन	-7672
▁वाज	-7673
▁स्नेह	-7674
▁चिल्ला	-7675
▁प्राणी	-7676
▁पारस्परिक	-7677
▁न्यायशास्त्र	-7678
▁अच	-7679
▁ढल	-7680
▁बलि	-7681
▁भीम	-7682
▁चट्ट	-7683
▁गिराव	-7684
▁स्वाय	-7685
▁कवियों	-7686
▁सुन्दर	-7687
▁उत्तेजित	-7688
▁दार्शनिक	-7689
ुगु	-7690
▁नल	-7691
▁आशी	-7692
▁पान	-7693
▁बेल	-7694
▁जुटा	-7695
▁मिलना	-7696
▁हटाया	-7697
EL	-7698
ga	-7699
▁वासी	-7700
▁दबाया	-7701
▁बटन	-7702
ार्मा	-7703
▁बेची	-7704
▁अर्जुन	-7705
▁अर्थों	-7706
▁फ्रांस	-7707
▁आश्वस्त	-7708
▁फोरेंसिक	-7709
▁मेघ	-7710
▁कबूल	-7711
▁नकार	-7712
▁फाइन	-7713
▁कामों	-7714
▁भागने	-7715
▁सार्थ	-7716
▁तालुका	-7717
ंधन	-7718
▁आजाद	-7719
▁बंगल	-7720
▁व्यथित	-7721
शंकर	-7722
▁हार्	-7723
▁हल्के	-7724
▁जगन्नाथ	-7725
▁परिपक्व	-7726
णे	-7727
कना	-7728
तरी	-7729
चार्ज	-7730
स्टीट	-7731
▁दिखाएँ	-7732
▁नवीनीकरण	-7733
लै	-7734
▁घाटी	-7735
▁श्रो	-7736
चन्द्र	-7737
▁कार्यकर्ता	-7738
▁अंडे	-7739
▁कीटों	-7740
▁संकोच	-7741
▁कनिष्ठ	-7742
▁पराजित	-7743
▁उच्चारण	-7744
TC	-7745
▁घन	-7746
▁चित	-7747
▁धान	-7748
▁जीआर	-7749
▁दुर्ग	-7750
▁निकले	-7751
▁सिरों	-7752
▁अवार्ड	-7753
▁यथोचित	-7754
▁सुसंगत	-7755
▁भिन्नता	-7756
र्टी	-7757
▁दिवस	-7758
▁नस्ल	-7759
▁फायर	-7760
▁गिरावट	-7761
▁सड़कों	-7762
▁गांधीजी	-7763
ँव	-7764
जारी	-7765
▁विड	-7766
▁पाइप	-7767
क्की	-7768
वाड़	-7769
▁ठहर	-7770
्रेटर	-7771
▁तुमने	-7772
रिता	-7773
रियल	-7774
ूनों	-7775
▁थोड़े	-7776
▁बढ़ना	-7777
▁सीखने	-7778
▁अरोड़ा	-7779
▁टाइम्स	-7780
▁विचित्र	-7781
▁एक्सप्रेस	-7782
गरी	-7783
गीर	-7784
▁कैल	-7785
▁फेफ	-7786
क़्ति	-7787
्यूशन	-7788
टिक	-7789
▁ह्र	-7790
▁बंदी	-7791
▁डिज़ाइन	-7792
▁तस्वीरें	-7793
▁बेंगलुरु	-7794
▁परिवर्तनों	-7795
▁SL	-7796
▁हंस	-7797
▁एमसी	-7798
▁ध्रु	-7799
▁कविताओं	-7800
ेडकर	-7801
▁इंट	-7802
▁एसएस	-7803
▁सवार	-7804
▁ज़मीन	-7805
▁ज़रूर	-7806
▁पिस्त	-7807
▁प्रां	-7808
SA	-7809
बीसी	-7810
▁कन्न	-7811
▁आरंभिक	-7812
▁निष्ठा	-7813
▁मिश्रण	-7814
▁स्टांप	-7815
▁घोषणाओं	-7816
▁पुनर्नि	-7817
▁आत्मविश्वास	-7818
पटल	-7819
ूदी	-7820
त्रि	-7821
शिंग	-7822
▁टैंक	-7823
▁माँग	-7824
▁नियमन	-7825
▁सुधारने	-7826
दाई	-7827
▁एसआर	-7828
▁केबल	-7829
▁लेखकों	-7830
▁परिकल्पित	-7831
▁रक्तस्राव	-7832
▁विद्वानों	-7833
मंड	-7834
▁श्ल	-7835
▁आस्था	-7836
▁जिक्र	-7837
▁शिक्षित	-7838
▁अपेक्षाकृत	-7839
कक्ष	-7840
▁आईडी	-7841
▁स्तन	-7842
▁अभिनय	-7843
▁पड़ने	-7844
▁रवाना	-7845
▁कृष्णा	-7846
▁सहयोगियों	-7847
विड	-7848
मिंग	-7849
▁एपीपी	-7850
▁दलीलें	-7851
▁कार्यपालिका	-7852
त्ती	-7853
▁बिर	-7854
ोग्राफ	-7855
▁ड्रग्स	-7856
रता	-7857
ापुर	-7858
ुक़्त	-7859
▁जाएँ	-7860
▁दीपक	-7861
▁स्पे	-7862
▁मूर्त	-7863
▁विचलन	-7864
▁मुहम्मद	-7865
प्न	-7866
▁नोक	-7867
▁हर्ष	-7868
▁Block	-7869
▁पढ़ाई	-7870
▁मुफ्त	-7871
दर्शिता	-7872
▁पकड़ने	-7873
ंडे	-7874
▁घृणा	-7875
▁समता	-7876
▁ग्रीन	-7877
▁पैरों	-7878
▁वांछित	-7879
▁डाउनलोड	-7880
▁डिलीवरी	-7881
▁महेंद्र	-7882
ुड	-7883
▁अहि	-7884
▁बेस	-7885
▁रिफ	-7886
▁आस्त	-7887
▁उदासीन	-7888
▁प्रणाल	-7889
▁खटखटाया	-7890
▁निकायों	-7891
वट	-7892
ुम	-7893
ेग	-7894
ity	-7895
▁सिख	-7896
▁बोला	-7897
▁अवशोषण	-7898
▁कार्बन	-7899
▁सीआईटी	-7900
▁मण्ड	-7901
▁सौंद	-7902
▁गार्ड	-7903
▁तुच्छ	-7904
▁प्रामा	-7905
▁रचनाओं	-7906
▁उन्होनें	-7907
▁पुनर्गठन	-7908
लाइ	-7909
आईएल	-7910
शाही	-7911
▁आपात	-7912
▁सुलह	-7913
▁भ्रामक	-7914
▁ड्राफ्ट	-7915
▁पिस्तौल	-7916
नस	-7917
▁ओपन	-7918
▁डंप	-7919
▁बाय	-7920
▁विधा	-7921
▁नियाम	-7922
▁शुक्ला	-7923
कन	-7924
▁RP	-7925
रियर	-7926
▁बचे	-7927
▁बाब	-7928
▁पालिका	-7929
लोनी	-7930
▁बेदखल	-7931
▁भरोसे	-7932
▁अनुबंधों	-7933
▁संशोधनों	-7934
▁विनिर्माण	-7935
ंटन	-7936
ंशी	-7937
▁पठ	-7938
बाबू	-7939
▁कोण	-7940
▁माध	-7941
▁IANo	-7942
▁महाक	-7943
▁सदैव	-7944
▁सादे	-7945
श्रेष्ठ	-7946
▁अमरीका	-7947
▁दृढ़ता	-7948
▁परिवेश	-7949
▁उल्लेखित	-7950
▁निवासियों	-7951
▁सम्बन्धित	-7952
▁सामान्यतया	-7953
एगा	-7954
▁छेद	-7955
▁नास	-7956
▁आगरा	-7957
▁सीपी	-7958
▁अकेला	-7959
▁कामना	-7960
▁गर्भा	-7961
▁अयोग्यता	-7962
▁इंडस्ट्री	-7963
▁अपन	-7964
▁डिज	-7965
▁रेश	-7966
▁मानस	-7967
▁आकृति	-7968
▁स्थूल	-7969
▁दक्षता	-7970
▁नदियों	-7971
▁दूरसंचार	-7972
याल	-7973
श्चा	-7974
▁सुच	-7975
▁ध्वज	-7976
▁पाना	-7977
▁शर्ट	-7978
▁सीएस	-7979
▁आवाज़	-7980
▁यहूदी	-7981
▁लगाता	-7982
▁उपलब्धि	-7983
▁फू	-7984
▁इंच	-7985
▁पाउ	-7986
▁बडा	-7987
▁निभाई	-7988
▁जटिलता	-7989
▁स्तरीय	-7990
ani	-7991
ंगन	-7992
ष्टा	-7993
▁जैव	-7994
▁पद्	-7995
▁सृजन	-7996
र्निंग	-7997
▁बलराम	-7998
▁अन्वेष	-7999
▁व्युत्पन्न	-8000
▁अनुप्रयोगों	-8001
ृंग	-8002
ज़ार	-8003
▁असी	-8004
▁एने	-8005
▁वाइ	-8006
न्त्र	-8007
▁झटका	-8008
▁लेगा	-8009
▁बेकार	-8010
▁मापने	-8011
▁शॉर्ट	-8012
▁सिंगल	-8013
▁स्कीम	-8014
▁वॉल्यू	-8015
▁पीड़ितों	-8016
▁देह	-8017
िडेविट	-8018
▁प्रतिस्थापन	-8019
▁आल	-8020
▁घुम	-8021
▁बसे	-8022
षिद्ध	-8023
▁करीबी	-8024
▁शिल्प	-8025
▁प्रजाति	-8026
▁स्वाधीनता	-8027
▁निर्माताओं	-8028
▁विरोधाभासी	-8029
ep	-8030
▁VI	-8031
न्दा	-8032
▁डॉलर	-8033
स्तीनी	-8034
▁स्वायत्त	-8035
▁अंग्रेज़ी	-8036
▁लड	-8037
रानी	-8038
▁रोल	-8039
▁गुजरना	-8040
▁सूचनाओं	-8041
▁एफिडेविट	-8042
▁कठिनाइयों	-8043
▁प्रसन्नता	-8044
ap	-8045
▁वध	-8046
यक्त	-8047
▁हॉल	-8048
▁कोने	-8049
▁शास्त्री	-8050
▁AS	-8051
माला	-8052
▁चौकी	-8053
धिकारी	-8054
▁तेलंग	-8055
▁लाहौर	-8056
▁निरर्थ	-8057
▁एजेंसियों	-8058
▁ड्राइविंग	-8059
चिक	-8060
▁कारत	-8061
ंसी	-8062
्यौ	-8063
ापति	-8064
▁आदत	-8065
▁Cham	-8066
▁जीओएम	-8067
▁वारिस	-8068
▁मुकाबले	-8069
▁हिस्सेदारी	-8070
कोष	-8071
ुरत	-8072
जनों	-8073
ूँगा	-8074
▁Aug	-8075
▁असु	-8076
▁छान	-8077
▁ग्या	-8078
▁डाली	-8079
▁सकने	-8080
▁स्कोर	-8081
▁जवाहरलाल	-8082
▁फिलीस्तीनी	-8083
आत	-8084
वाँ	-8085
▁लेवी	-8086
▁दरबार	-8087
▁मानवता	-8088
und	-8089
▁चो	-8090
▁सैय	-8091
लिस्ट	-8092
▁असुर	-8093
▁घटित	-8094
▁पादप	-8095
▁फरार	-8096
▁मोदी	-8097
्रिक्स	-8098
▁जानवर	-8099
▁मांगे	-8100
▁निषिद्ध	-8101
▁डॉक्टरों	-8102
▁आर्बिट्रेटर	-8103
ht	-8104
टीए	-8105
▁पन	-8106
▁बक	-8107
ड़की	-8108
▁छोर	-8109
▁ढेर	-8110
▁शिम	-8111
▁मेहता	-8112
▁अंगूठे	-8113
▁तालिका	-8114
▁सांप्र	-8115
▁पुस्तकें	-8116
थिल	-8117
िणी	-8118
▁बट	-8119
▁रथ	-8120
▁रेत	-8121
▁बढ़ी	-8122
▁संकलन	-8123
▁आंकड़े	-8124
▁कराधान	-8125
▁नियामक	-8126
▁इस्तीफा	-8127
▁तस्वीरों	-8128
स्ट्रेलिया	-8129
चु	-8130
आउट	-8131
▁कैदी	-8132
▁तिलक	-8133
▁कोयले	-8134
▁गवर्नर	-8135
▁देखरेख	-8136
▁प्रकरण	-8137
▁दंडात्मक	-8138
▁अधिवक्ताओं	-8139
मस	-8140
▁Ba	-8141
▁PR	-8142
देवी	-8143
ल्ले	-8144
▁रांची	-8145
▁बहिष्कार	-8146
▁प्रामाणिक	-8147
▁सर्वश्रेष्ठ	-8148
CR	-8149
▁वॉ	-8150
▁Son	-8151
▁स्टै	-8152
▁दशकों	-8153
▁कानपुर	-8154
▁शेयरधारकों	-8155
all	-8156
▁घू	-8157
▁काय	-8158
णियां	-8159
▁देहा	-8160
▁आखिरी	-8161
▁डिस्ट	-8162
▁इन्द्र	-8163
▁पिछड़े	-8164
▁भागीदार	-8165
▁मुख्यमंत्री	-8166
▁परिस्थितियाँ	-8167
हाल	-8168
▁१८	-8169
▁भगत	-8170
▁सोल	-8171
र्वेद	-8172
▁घड़ी	-8173
▁आविष्	-8174
▁सोचने	-8175
▁सकेंगे	-8176
▁समुचित	-8177
▁महत्त्वपूर्ण	-8178
ch	-8179
र्फ़	-8180
▁ढाल	-8181
▁कर्ज	-8182
▁सम्राट	-8183
▁हड़ताल	-8184
▁नाव	-8185
▁भती	-8186
▁प्लग	-8187
▁समर्पण	-8188
▁आदिवासी	-8189
▁परिचालन	-8190
▁ट्रांसपोर्ट	-8191
GAL	-8192
▁भाष	-8193
▁रुपए	-8194
▁पक्षी	-8195
▁सावधान	-8196
▁सशस्त्र	-8197
▁सुचरिता	-8198
TH	-8199
डन	-8200
्वरी	-8201
▁अल्ट	-8202
▁ईंधन	-8203
▁जोशी	-8204
▁रहीं	-8205
▁सिने	-8206
▁हिला	-8207
▁अभिभाव	-8208
िद	-8209
लीप	-8210
▁Pol	-8211
▁अफ़	-8212
▁शुभ	-8213
▁एसएच	-8214
▁नकली	-8215
▁लौटे	-8216
▁खरीदे	-8217
▁उदाहरणों	-8218
प्ली	-8219
लिटन	-8220
▁साई	-8221
▁तालाब	-8222
▁श्लोक	-8223
▁स्वाद	-8224
▁अतिमान	-8225
▁आनुवंश	-8226
▁इस्पात	-8227
▁आधारभूत	-8228
▁विवेकपूर्ण	-8229
म्य	-8230
ीलाल	-8231
िवेदी	-8232
▁जरिए	-8233
▁नोटरी	-8234
▁व्यास	-8235
IM	-8236
▁CWJC	-8237
▁फर्द	-8238
▁रोगों	-8239
▁लड़का	-8240
▁तेलंगाना	-8241
▁सांप्रदायिक	-8242
लाश	-8243
▁कमल	-8244
▁रतन	-8245
▁शाल	-8246
▁चंडी	-8247
▁पिटी	-8248
▁फर्क	-8249
▁अमरीकी	-8250
▁कब्ज़ा	-8251
▁कर्मों	-8252
▁वैष्णव	-8253
PL	-8254
endra	-8255
▁अनंत	-8256
▁अरबी	-8257
▁महाम	-8258
▁अव्यव	-8259
▁तृतीय	-8260
▁व्याकरण	-8261
▁आश्चर्यजनक	-8262
रोल	-8263
▁अधीनता	-8264
▁कंधे	-8265
▁मानो	-8266
▁उठाकर	-8267
▁क्राइ	-8268
▁ग्वाल	-8269
▁तत्पर	-8270
▁अभ्याव	-8271
▁इंस्टीट	-8272
▁कीटनाशक	-8273
▁मुख्यालय	-8274
▁u	-8275
ंकि	-8276
▁भि	-8277
ख़्या	-8278
▁यातना	-8279
▁असंतोष	-8280
▁PC	-8281
▁उठे	-8282
▁माफ	-8283
▁अविभ	-8284
▁दवाओं	-8285
▁पत्राचार	-8286
▁रूपांतरण	-8287
▁उत्तराधिकारियों	-8288
ect	-8289
▁एटी	-8290
▁लोगो	-8291
▁आश्रम	-8292
▁स्टोर	-8293
▁आउटपुट	-8294
▁ड्राइव	-8295
▁सौंदर्य	-8296
▁डिस्चार्ज	-8297
▁पार्टियां	-8298
ND	-8299
▁आवरण	-8300
▁चलती	-8301
▁अनुमत	-8302
▁पकड़ा	-8303
▁बेईमानी	-8304
▁हिन्दुस्तान	-8305
▁मण	-8306
डीएस	-8307
▁जन्	-8308
▁बिन	-8309
▁बीत	-8310
नेशनल	-8311
▁असंव	-8312
▁रिकार्ड	-8313
▁साथियों	-8314
▁प्रतिपादन	-8315
▁क्रांतिकारी	-8316
▁टैब	-8317
▁गोला	-8318
▁बहाने	-8319
्रेताओं	-8320
▁अधिवेशन	-8321
▁वॉल्यूम	-8322
▁प्रतिपूर्ति	-8323
ञ्	-8324
AME	-8325
मारक	-8326
▁AGE	-8327
▁उपनि	-8328
▁लीला	-8329
▁आश्रय	-8330
▁उन्हे	-8331
▁कीजिए	-8332
▁दर्जा	-8333
▁परिधि	-8334
▁अभिन्न	-8335
▁ग्रन्थ	-8336
▁टाल	-8337
▁आघात	-8338
▁संवर्ग	-8339
▁अभ्यावेदन	-8340
रणीय	-8341
▁आदर	-8342
▁आन्द	-8343
▁पृथक	-8344
▁सौदे	-8345
▁आमदनी	-8346
▁लम्बे	-8347
▁ललिता	-8348
▁सिगरेट	-8349
फ्र	-8350
▁EX	-8351
न्तर	-8352
▁बर्फ	-8353
▁सफाई	-8354
▁सबके	-8355
▁सुझा	-8356
▁जोड़ें	-8357
▁गड़बड़ी	-8358
▁आरसी	-8359
▁एससीए	-8360
▁तुलसी	-8361
▁बीडीए	-8362
▁इंडिका	-8363
▁समीकरण	-8364
▁साइकिल	-8365
वैज्ञानिक	-8366
▁परिदृश्य	-8367
▁लोकायुक्त	-8368
पद	-8369
टरी	-8370
▁आधी	-8371
▁इसल	-8372
▁परव	-8373
▁DIST	-8374
▁इकबाल	-8375
▁अनदेखा	-8376
▁पेड़ों	-8377
▁शुरूआत	-8378
▁नकल	-8379
▁आरआई	-8380
▁मोती	-8381
जेक्शन	-8382
▁प्रोबेट	-8383
▁सम्पन्न	-8384
▁थै	-8385
म्बई	-8386
प्राय	-8387
▁गर्व	-8388
▁पेशी	-8389
▁मराठी	-8390
▁म्यूट	-8391
▁प्लांट	-8392
▁चुनावों	-8393
ग़	-8394
▁सज	-8395
▁कोर	-8396
▁ढूंढ	-8397
▁सीएम	-8398
▁सीसी	-8399
▁मंजूर	-8400
▁खोपड़ी	-8401
▁इस्लामवादी	-8402
ुणा	-8403
▁WA	-8404
पर्य	-8405
मिकस	-8406
▁मेहर	-8407
▁कलाकार	-8408
▁कॉलोनी	-8409
▁श्रद्धा	-8410
▁क़्योंकि	-8411
नम	-8412
▁कैम	-8413
▁पचास	-8414
▁बिलों	-8415
▁परिसमापन	-8416
▁प्रतिभूति	-8417
षेक	-8418
स्कृत	-8419
▁दुबे	-8420
▁टेनिस	-8421
▁जजमेंट	-8422
▁जागरूक	-8423
▁सार्थक	-8424
op	-8425
▁नॉ	-8426
क्तता	-8427
ल्लाह	-8428
▁अभिक	-8429
▁यहीं	-8430
▁सबको	-8431
स्थापक	-8432
▁आभूषण	-8433
▁चेहरा	-8434
▁कनेक्ट	-8435
▁व्यर्थ	-8436
▁राशियों	-8437
▁पर्यवेक्षण	-8438
वृ	-8439
रीब	-8440
▁ओडि	-8441
▁ऊंचे	-8442
▁दादा	-8443
▁अभिने	-8444
▁स्टार	-8445
▁वांछनीय	-8446
लु	-8447
▁Ro	-8448
▁बत	-8449
लपुर	-8450
नेश्वर	-8451
▁अंतरा	-8452
▁कर्ता	-8453
▁महान्	-8454
ओसी	-8455
▁क्	-8456
र्सी	-8457
▁डीए	-8458
▁दंत	-8459
▁एमिकस	-8460
▁क्रिम	-8461
▁पश्चा	-8462
▁अर्हता	-8463
ार्टमेंट	-8464
▁अधीक्षण	-8465
▁संवेदनशील	-8466
gan	-8467
राइड	-8468
▁वाई	-8469
▁कमाई	-8470
▁समझे	-8471
▁विनम्र	-8472
▁संग्राम	-8473
▁सामानों	-8474
▁परिशिष्ट	-8475
▁रिपोर्टों	-8476
▁लाइसेंसधारी	-8477
ैत	-8478
विन	-8479
▁अभेद	-8480
▁अर्क	-8481
▁टीका	-8482
▁रसोई	-8483
▁अल्ट्रा	-8484
▁प्रपत्र	-8485
▁इंडस्ट्रीज	-8486
▁प्रतिरक्षा	-8487
घट	-8488
ार्द	-8489
▁बचपन	-8490
▁एएसआई	-8491
▁मैसूर	-8492
▁उपभोक्ताओं	-8493
महल	-8494
▁ढी	-8495
प्शन	-8496
▁धोखे	-8497
▁साइन	-8498
▁दिखता	-8499
▁बदनाम	-8500
▁विघटन	-8501
▁ग्यारह	-8502
em	-8503
adav	-8504
▁मेहन	-8505
▁इंदौर	-8506
▁गिरने	-8507
▁शिष्य	-8508
▁हमलावर	-8509
▁Station	-8510
▁मापदंडों	-8511
ब्ध	-8512
▁नमक	-8513
▁नरेश	-8514
▁बोले	-8515
▁ओआरएस	-8516
▁बढ़ाकर	-8517
ॉग	-8518
ोगे	-8519
▁घूं	-8520
मेंट्स	-8521
▁घंटों	-8522
▁पुष्प	-8523
▁बैठने	-8524
▁कॉपीराइट	-8525
बाग	-8526
▁मज़	-8527
▁राइ	-8528
▁सेशन	-8529
क्साइड	-8530
िवर्तन	-8531
▁श्रेय	-8532
▁अरविंद	-8533
▁संचिका	-8534
▁त्रुटिः	-8535
▁क्रिमिनल	-8536
▁प्रसारित	-8537
▁प्रशिक्षित	-8538
इंट	-8539
ियस	-8540
▁यश	-8541
टिंग	-8542
पीएल	-8543
▁जेब	-8544
▁क्री	-8545
▁अवतार	-8546
▁एग्री	-8547
▁मूत्र	-8548
▁चतुर्थ	-8549
▁पिटीशन	-8550
▁रियासत	-8551
▁लिखावट	-8552
▁शिकायतें	-8553
▁इल	-8554
यंत्र	-8555
▁एकीकृत	-8556
▁नियमावली	-8557
▁पूर्वगामी	-8558
▁महानिदेशक	-8559
बंधक	-8560
मुखी	-8561
▁चिर	-8562
▁बाज़	-8563
▁असंतु	-8564
▁कपड़ा	-8565
▁तालुक	-8566
▁अनजाने	-8567
▁अवज्ञा	-8568
▁स्वर्ग	-8569
▁क्रिस्ट	-8570
▁मध्यस्थों	-8571
लेस	-8572
धाना	-8573
िंगर	-8574
▁माद	-8575
▁शार	-8576
▁संगत	-8577
▁सौदा	-8578
▁हाइड	-8579
▁आंकड़ों	-8580
▁प्रवर्त	-8581
▁भेदभावपूर्ण	-8582
ंचल	-8583
ंडर	-8584
गें	-8585
र्षण	-8586
्वाइ	-8587
▁Pat	-8588
▁अनिय	-8589
▁सादा	-8590
▁चिपका	-8591
▁प्रजा	-8592
▁Police	-8593
▁उत्सुक	-8594
▁कारतूस	-8595
▁ऑपरेटिव	-8596
▁नियुक्तियां	-8597
▁प्रतिबिंबित	-8598
AV	-8599
ल्ह	-8600
ौली	-8601
पाठी	-8602
▁अड्	-8603
ास्पद	-8604
▁प्रोटोकॉल	-8605
ँह	-8606
खार	-8607
▁ओब	-8608
▁इराक	-8609
▁वर्क	-8610
▁अपनाए	-8611
▁कॉन्ट	-8612
▁नाटकों	-8613
▁असाइनमेंट	-8614
नीत	-8615
▁उधर	-8616
▁ऊंची	-8617
▁समाह	-8618
▁उत्पर	-8619
▁प्रसंग	-8620
▁सिर्फ़	-8621
▁हमलावरों	-8622
▁इंटरनेशनल	-8623
▁परीक्षणों	-8624
लत	-8625
हृ	-8626
▁रूम	-8627
▁द्रव	-8628
▁मेमोरी	-8629
▁विकृति	-8630
▁एनडीपीएस	-8631
▁विक्रेताओं	-8632
▁अफग	-8633
▁कूद	-8634
▁हिल	-8635
▁आजकल	-8636
▁विषा	-8637
▁सोनी	-8638
▁पुराण	-8639
▁स्विच	-8640
▁अक्षमता	-8641
▁उपनिवेश	-8642
खली	-8643
▁दार	-8644
▁पाय	-8645
ष्ठान	-8646
▁समाम	-8647
▁कराना	-8648
▁मुकेश	-8649
▁आकर्षक	-8650
▁प्रहार	-8651
▁समकक्ष	-8652
▁सीमेंट	-8653
▁निरर्थक	-8654
▁लाभकारी	-8655
तरफा	-8656
पुरम	-8657
▁आड़	-8658
▁संब	-8659
▁सतीश	-8660
▁प्रवी	-8661
▁लाखों	-8662
▁स्नान	-8663
▁झिल्ली	-8664
▁हिंदुओं	-8665
▁असंतुष्ट	-8666
▁विवादास्पद	-8667
गोलिक	-8668
▁अधिश	-8669
▁षड्य	-8670
▁पीछला	-8671
▁धाराओं	-8672
▁नमूनों	-8673
▁प्रेषण	-8674
▁स्वप्न	-8675
▁जहर	-8676
▁उपास	-8677
▁गीतों	-8678
▁वृत्त	-8679
▁शुरुआती	-8680
▁स्ट्रीट	-8681
▁उपक्रमों	-8682
▁तुम्हारा	-8683
ज़न	-8684
मेह	-8685
मुना	-8686
ॉल्व	-8687
▁कटक	-8688
▁पेय	-8689
▁बिट	-8690
▁एमबी	-8691
▁चुनने	-8692
▁बालों	-8693
▁मानकर	-8694
▁मिस्र	-8695
▁सच्ची	-8696
▁बोलीदाताओं	-8697
▁शांतिपूर्ण	-8698
णुओं	-8699
▁गरि	-8700
▁जोड़ी	-8701
▁डेवलप	-8702
▁भ्रूण	-8703
▁निकासी	-8704
IV	-8705
rom	-8706
भाषा	-8707
्रमिक	-8708
▁उर्व	-8709
▁परित	-8710
▁मानती	-8711
▁सारणी	-8712
▁समामेल	-8713
कला	-8714
▁जस	-8715
▁अवशेष	-8716
▁जमानती	-8717
▁जिंदगी	-8718
▁कंसोर्ट	-8719
▁ऊत	-8720
िक्शन	-8721
▁एमडी	-8722
▁परवाह	-8723
▁सोचता	-8724
▁असिस्ट	-8725
▁पर्यटन	-8726
▁भौगोलिक	-8727
▁वनस्पति	-8728
▁गोलीबारी	-8729
पूरक	-8730
▁पतन	-8731
▁मेम	-8732
▁काफ़ी	-8733
▁उपाध्यक्ष	-8734
ary	-8735
बेस	-8736
▁परो	-8737
▁साख	-8738
ब्ल्य	-8739
▁आवेग	-8740
▁ऋणों	-8741
▁पारि	-8742
▁जर्मन	-8743
▁डेस्क	-8744
▁याचिकाएँ	-8745
▁चिकित्सकीय	-8746
डऋ	-8747
बिल	-8748
▁मणि	-8749
▁संभ	-8750
ब्दिक	-8751
विधिक	-8752
▁झगड़े	-8753
षद्	-8754
▁अघ	-8755
गोरि	-8756
▁अखंड	-8757
▁स्नात	-8758
ब्ल्यूपी	-8759
▁दीवारों	-8760
▁प्रतिमा	-8761
▁राजपत्रित	-8762
िलास	-8763
▁रंगम	-8764
▁आज्ञा	-8765
▁जंगली	-8766
▁सालों	-8767
▁प्रतिभूत	-8768
▁प्रोजेक्ट	-8769
राक	-8770
एचसी	-8771
र्णय	-8772
मूल्य	-8773
▁इसको	-8774
▁मूर्ख	-8775
▁इसलिये	-8776
▁सुविधाजनक	-8777
▁कंसोर्टियम	-8778
ind	-8779
kar	-8780
रोपित	-8781
▁क्षै	-8782
क्सीजन	-8783
▁बैठकों	-8784
▁धन्यवाद	-8785
▁प्रत्यक्षदर्शी	-8786
ुन	-8787
श्र	-8788
बयान	-8789
▁ऋतु	-8790
▁छुट	-8791
▁आगमन	-8792
▁एमएल	-8793
▁आचार्य	-8794
▁ब्रांड	-8795
र्षि	-8796
▁कंक	-8797
▁पदा	-8798
▁गर्ग	-8799
▁सेटल	-8800
▁निरसन	-8801
▁शाब्दिक	-8802
खान	-8803
मेर	-8804
▁चलकर	-8805
▁महेश	-8806
स्पोंड	-8807
▁खींचा	-8808
▁प्रवीण	-8809
▁प्रस्तावना	-8810
▁अन्यायपूर्ण	-8811
लेखन	-8812
▁कों	-8813
▁जस्ट	-8814
यक्तिक	-8815
▁उन्नति	-8816
▁दर्शाती	-8817
▁मानचित्र	-8818
ेरी	-8819
▁अँ	-8820
▁लूट	-8821
▁ITAT	-8822
▁क्षु	-8823
▁बाला	-8824
िकर्ता	-8825
▁उपदेश	-8826
▁अनुमेय	-8827
▁कहानियों	-8828
गिक	-8829
िवि	-8830
▁भै	-8831
▁डाइ	-8832
▁सौह	-8833
▁पंक्त	-8834
▁पशुओं	-8835
▁बस्ती	-8836
▁बंगाली	-8837
▁अपरिवर्तनीय	-8838
▁जरा	-8839
▁दीन	-8840
▁वान	-8841
▁करों	-8842
▁डीडी	-8843
▁फर्श	-8844
▁बचना	-8845
▁मैनु	-8846
▁स्टी	-8847
▁सर्कल	-8848
▁गुजराती	-8849
▁सुरेंद्र	-8850
तिज	-8851
सेन	-8852
▁iv	-8853
▁गठ	-8854
▁Mad	-8855
▁गढ़	-8856
▁जगा	-8857
▁आरटी	-8858
▁सगाई	-8859
▁बादशाह	-8860
▁स्त्रो	-8861
▁अध्यापक	-8862
▁अनुभूति	-8863
▁प्रबंधित	-8864
दह	-8865
पय	-8866
ृश	-8867
मलव	-8868
▁Ar	-8869
▁ऋषि	-8870
▁जॉन	-8871
▁पिन	-8872
▁बगल	-8873
बिनेट	-8874
▁आगामी	-8875
▁गरिमा	-8876
▁बच्चन	-8877
▁विवाहित	-8878
नाई	-8879
▁wp	-8880
▁एएस	-8881
▁सिखा	-8882
▁वेस्ट	-8883
▁लू	-8884
▁नाप	-8885
▁वैट	-8886
▁गाँधी	-8887
▁पूछने	-8888
▁मुंशी	-8889
▁सिंगा	-8890
▁आकर्षण	-8891
▁संतुलित	-8892
▁षड्यंत्र	-8893
लैंड	-8894
▁कहें	-8895
▁किशन	-8896
▁चुंब	-8897
▁ओडिशा	-8898
▁निवारक	-8899
▁चर्चाओं	-8900
▁वादियों	-8901
▁सांख्यिकी	-8902
थन	-8903
गुण	-8904
ोदय	-8905
▁शाखाओं	-8906
▁सीरिया	-8907
▁चाहेंगे	-8908
000	-8909
बिया	-8910
िप्ट	-8911
▁गोयल	-8912
▁मुँह	-8913
▁दशमलव	-8914
▁नाराज	-8915
▁रूपये	-8916
▁सच्चा	-8917
▁विसंगत	-8918
▁असुविधा	-8919
▁समस्याएं	-8920
▁महाप्रबंधक	-8921
लीज	-8922
रहित	-8923
ाग्र	-8924
▁PDD	-8925
▁भड़	-8926
ोलॉजी	-8927
▁फ्री	-8928
▁वरन्	-8929
▁हुये	-8930
▁नियोजन	-8931
▁नेताजी	-8932
▁समाहित	-8933
▁समेकित	-8934
डेड	-8935
बरी	-8936
तिया	-8937
▁चीफ	-8938
▁नरम	-8939
▁विट	-8940
▁एमएस	-8941
▁किंग	-8942
▁विरा	-8943
▁सनातन	-8944
▁एंट्री	-8945
▁महाराज	-8946
▁राजाओं	-8947
टकर	-8948
▁गे	-8949
कांत	-8950
▁भूख	-8951
लियों	-8952
▁किस्	-8953
▁ऊतकों	-8954
▁पुकार	-8955
▁फिंगर	-8956
▁शिमला	-8957
▁ग्वालियर	-8958
▁सेटलमेंट	-8959
AS	-8960
घन	-8961
धीय	-8962
▁ha	-8963
क्ष्	-8964
▁सोव	-8965
▁क्लेम	-8966
▁बढ़कर	-8967
▁रोकता	-8968
▁लम्बी	-8969
▁संजीव	-8970
▁क्राइम	-8971
▁दोबारा	-8972
▁प्रदाह	-8973
▁शब्दकोश	-8974
▁उपयोक्ता	-8975
▁तात्पर्य	-8976
ट्ठी	-8977
▁खसरा	-8978
▁जगत्	-8979
▁अभेद्य	-8980
▁आन्दोलन	-8981
▁प्रेषित	-8982
▁विवेचना	-8983
▁प्रभुत्व	-8984
▁विद्यार्थी	-8985
td	-8986
▁BAN	-8987
▁SLP	-8988
▁ईस्ट	-8989
▁बेटों	-8990
▁उपग्रह	-8991
▁करूंगा	-8992
▁सेकेंड	-8993
▁अपशिष्ट	-8994
▁निरूपित	-8995
▁संभालने	-8996
▁सैनिकों	-8997
▁आविष्कार	-8998
▁धर्मार्थ	-8999
▁फर्दबयान	-9000
झे	-9001
लित	-9002
ेरा	-9003
एफसी	-9004
▁Sat	-9005
▁माया	-9006
▁सामु	-9007
▁संचयी	-9008
▁शानदार	-9009
▁प्रोटीन	-9010
▁शेड्यूल	-9011
▁उत्सर्जन	-9012
▁पेट्रोलियम	-9013
ुरू	-9014
▁चलना	-9015
▁जादू	-9016
▁स्पी	-9017
▁मैनुअल	-9018
▁रंगमंच	-9019
▁एल्गोरि	-9020
▁मंत्रिम	-9021
▁पारदर्शी	-9022
▁वैज्ञानिकों	-9023
थाम	-9024
नाल	-9025
भगत	-9026
▁Ws	-9027
िंदर	-9028
ुपात	-9029
▁Mah	-9030
▁मेर	-9031
▁चौथा	-9032
▁क्रोध	-9033
▁ढांचा	-9034
▁पिटाई	-9035
▁भेजें	-9036
▁संकाय	-9037
▁नियन्त	-9038
▁असमानता	-9039
▁कैबिनेट	-9040
▁कार्यवाहियों	-9041
OD	-9042
एलए	-9043
िएट	-9044
▁औरत	-9045
▁नहर	-9046
▁सतत	-9047
▁ह्य	-9048
ेंट्स	-9049
▁बाढ़	-9050
▁बेहोश	-9051
▁रखेगा	-9052
▁बिहारी	-9053
▁परेशानी	-9054
▁निर्देशन	-9055
▁अधिकारिता	-9056
▁एक्सटेंशन	-9057
च्य	-9058
घाटन	-9059
▁गंग	-9060
▁धूल	-9061
▁नेट	-9062
▁बिस	-9063
▁रूस	-9064
▁अभिर	-9065
▁अलंक	-9066
▁महास	-9067
▁यज्ञ	-9068
▁रहकर	-9069
▁डिप्ल	-9070
▁दर्शाने	-9071
▁पहुंचाई	-9072
▁सौहार्द	-9073
ang	-9074
▁पोल	-9075
▁गूगल	-9076
▁हफ्त	-9077
▁एसएचओ	-9078
▁नतीजा	-9079
▁रिहाई	-9080
▁रणनीति	-9081
ta	-9082
our	-9083
मोह	-9084
ीदा	-9085
▁खाम	-9086
▁घेर	-9087
▁सुग	-9088
▁आयाम	-9089
▁तमाम	-9090
▁दादी	-9091
▁बैंड	-9092
▁दबाने	-9093
▁बोलते	-9094
▁व्यापारियों	-9095
ाप्य	-9096
▁खेप	-9097
ध्याय	-9098
▁औषधि	-9099
▁डिजिटल	-9100
▁आयुर्वेद	-9101
▁विसंगतियों	-9102
▁प्राधिकरणों	-9103
्द	-9104
▁एए	-9105
सर्ग	-9106
▁गाल	-9107
▁बान	-9108
▁सरा	-9109
▁नानक	-9110
▁रेगि	-9111
▁भागवत	-9112
▁मायने	-9113
▁मांगने	-9114
▁रघुनाथ	-9115
▁क्षैतिज	-9116
▁अधिनियमन	-9117
▁हिन्दुओं	-9118
▁सीडब्ल्यू	-9119
ंबा	-9120
रीन	-9121
▁इधर	-9122
▁अन्न	-9123
▁अनुदेश	-9124
रथ	-9125
िटर	-9126
ेयी	-9127
चन्द	-9128
▁पढ़ी	-9129
▁किसने	-9130
▁डालते	-9131
▁दिलीप	-9132
▁शिविर	-9133
▁अन्तिम	-9134
▁संपादक	-9135
▁मनुष्यों	-9136
▁समाजवादी	-9137
▁क्रियान्व	-9138
१९	-9139
दूत	-9140
▁com	-9141
▁कैद	-9142
▁मत्	-9143
वाड़ा	-9144
▁कैलाश	-9145
▁क्रमिक	-9146
▁निगमों	-9147
▁लाभांश	-9148
▁पुस्तकाल	-9149
्ग	-9150
▁आरएस	-9151
▁बचाया	-9152
▁शिथिल	-9153
▁विकिरण	-9154
▁गर्भाशय	-9155
▁उछ	-9156
र्मी	-9157
वाया	-9158
▁फौज	-9159
ख्यान	-9160
▁वाहक	-9161
▁सैंट	-9162
▁पकड़े	-9163
▁उद्यान	-9164
▁नवीनतम	-9165
▁त्रिपाठी	-9166
▁सर्वोपरि	-9167
▁सांविधिक	-9168
▁सिंगापुर	-9169
LE	-9170
UM	-9171
eg	-9172
ey	-9173
ध्व	-9174
रिज	-9175
शियन	-9176
▁एके	-9177
▁कम्	-9178
▁बंधन	-9179
▁छानबीन	-9180
▁पुनर्व	-9181
▁बंगलौर	-9182
▁खिलाड़ी	-9183
▁मुख्यतः	-9184
एक	-9185
टॉप	-9186
भुत	-9187
▁Mo	-9188
▁अजन	-9189
paran	-9190
▁लेनी	-9191
▁नवीकरण	-9192
▁महर्षि	-9193
▁ईमानदार	-9194
▁कॉन्ट्र	-9195
▁जमींदार	-9196
▁सचिवालय	-9197
▁बिल्डिंग	-9198
▁न्यायोचित	-9199
▁अनियंत्रित	-9200
LI	-9201
▁आओ	-9202
▁रेस	-9203
▁सन्न	-9204
▁खेलने	-9205
▁मास्ट	-9206
▁जोरदार	-9207
▁टेलीवि	-9208
▁Champaran	-9209
शेर	-9210
▁MC	-9211
▁ऑब्	-9212
प्राइ	-9213
्रमित	-9214
▁नाना	-9215
▁रंजन	-9216
▁हैंड	-9217
▁क्षमा	-9218
▁साधना	-9219
▁मिनटों	-9220
▁पूर्णतया	-9221
▁त्रुटियों	-9222
बर्ट	-9223
▁नित	-9224
▁मेह	-9225
▁खोलें	-9226
▁चित्त	-9227
▁सीटें	-9228
रूद्दीन	-9229
▁भूखंडों	-9230
▁विद्यार्थियों	-9231
NA	-9232
her	-9233
पंच	-9234
निर्	-9235
▁एडी	-9236
▁अक्त	-9237
▁एहसास	-9238
▁ओबामा	-9239
▁प्रसं	-9240
▁प्रॉप	-9241
▁छात्रा	-9242
▁मिलीभगत	-9243
▁रोगियों	-9244
स्पोंडेंट	-9245
▁प्रक्षेप	-9246
▁प्रयोक्ता	-9247
▁सत्याग्रह	-9248
कर्स	-9249
ड़ित	-9250
▁The	-9251
▁रेंज	-9252
कोत्तर	-9253
▁क्राल	-9254
▁जैविक	-9255
▁निरोधक	-9256
▁शान्ति	-9257
▁सृष्टि	-9258
▁अकादमिक	-9259
▁st	-9260
▁कति	-9261
▁छंद	-9262
▁मजबू	-9263
▁रिज़	-9264
▁शवों	-9265
▁अधिनि	-9266
▁एकतरफा	-9267
▁कंट्रा	-9268
▁प्रवाहित	-9269
▁मैट्रिक्स	-9270
OC	-9271
SS	-9272
ावर	-9273
्शा	-9274
▁चंप	-9275
त्तों	-9276
ार्टर	-9277
▁बादल	-9278
▁संकु	-9279
▁हड्ड	-9280
▁विहार	-9281
सात	-9282
▁vi	-9283
गांठ	-9284
ब्बा	-9285
▁कमर	-9286
▁कुर	-9287
▁खाल	-9288
▁डकै	-9289
▁पित	-9290
ेश्वरी	-9291
▁गुलाम	-9292
▁संघीय	-9293
▁कम्पनी	-9294
▁हनुमान	-9295
ानिस्तान	-9296
▁भरोसेमंद	-9297
▁रामचंद्र	-9298
▁महाविद्यालय	-9299
यिक	-9300
▁फस	-9301
▁con	-9302
दर्शक	-9303
▁ऊंचा	-9304
▁संपदा	-9305
ार्थियों	-9306
पने	-9307
▁NE	-9308
▁खर	-9309
▁गुहा	-9310
▁रोचक	-9311
▁सोना	-9312
ढ़ियों	-9313
ावस्था	-9314
▁ज़रूरत	-9315
▁हाउसिंग	-9316
▁यथास्थिति	-9317
▁स्वतन्त्र	-9318
पेयी	-9319
य्या	-9320
▁इंक	-9321
▁डेट	-9322
▁एमओयू	-9323
▁दिशाओं	-9324
▁रोकथाम	-9325
▁निराधार	-9326
▁फिल्मों	-9327
▁प्रतिशोध	-9328
▁प्रशंसनीय	-9329
▁असंवैधानिक	-9330
टिया	-9331
धारक	-9332
ृष्ट	-9333
▁डूब	-9334
▁मोर	-9335
रेस्ट	-9336
▁आजीव	-9337
▁नंगे	-9338
▁बीबी	-9339
▁अंतरण	-9340
▁प्रमोट	-9341
▁इंस्टीट्यूट	-9342
ali	-9343
भावी	-9344
▁आंब	-9345
▁बोर	-9346
्रेषण	-9347
▁एफसी	-9348
▁दत्ता	-9349
▁बंगला	-9350
▁सर्जन	-9351
वर्ष	-9352
०वीं	-9353
▁आलम	-9354
▁सीटी	-9355
▁कतिपय	-9356
▁अधिशेष	-9357
▁मुखर्जी	-9358
▁रूपान्त	-9359
▁डेस्कटॉप	-9360
▁मंत्रियों	-9361
ढे	-9362
ंटू	-9363
स्थि	-9364
▁Ind	-9365
▁आज़	-9366
▁तित	-9367
▁फुल	-9368
▁बनती	-9369
▁अनुकरण	-9370
▁मार्जिन	-9371
▁संग्रहालय	-9372
ेंच	-9373
▁DR	-9374
▁Sar	-9375
▁शीत	-9376
निवास	-9377
▁डालर	-9378
▁मिलन	-9379
▁दत्तक	-9380
▁वयस्क	-9381
▁आंकड़ा	-9382
▁नर्मदा	-9383
▁प्रदीप	-9384
▁वैश्विक	-9385
▁प्रांतीय	-9386
▁तुलनात्मक	-9387
▁स्नातकोत्तर	-9388
▁ः	-9389
डों	-9390
▁As	-9391
ज्जा	-9392
▁CPC	-9393
▁खर्	-9394
▁भूप	-9395
▁इंजन	-9396
▁एसके	-9397
▁कमरा	-9398
▁बुरे	-9399
▁भयान	-9400
▁हिमन	-9401
कृष्णन	-9402
▁उत्सव	-9403
▁डालना	-9404
▁स्पेश	-9405
▁बाध्यता	-9406
▁समुदायों	-9407
▁कण	-9408
▁विषम	-9409
▁जस्टिस	-9410
▁अवशोषित	-9411
▁प्राणियों	-9412
गोश	-9413
▁Ltd	-9414
▁यकीन	-9415
प्रकाश	-9416
▁Distt	-9417
▁बदलना	-9418
▁कीमतों	-9419
▁चंडीगढ़	-9420
▁निपटारे	-9421
▁पवित्रता	-9422
टीय	-9423
ट्ठ	-9424
▁जह	-9425
पीएफ	-9426
हानि	-9427
ामिन	-9428
▁कॉम	-9429
▁दीं	-9430
▁अक्तूबर	-9431
▁इंस्ट्र	-9432
▁उत्पादक	-9433
▁ग्राउंड	-9434
SR	-9435
ATE	-9436
लता	-9437
ाल्	-9438
ग्ला	-9439
रांत	-9440
विता	-9441
▁कैन	-9442
▁बही	-9443
ुल्ला	-9444
▁अमीर	-9445
▁पाण्ड	-9446
▁सेकंड	-9447
▁असुरक्षित	-9448
ॉक्स	-9449
▁कैप	-9450
▁गली	-9451
▁सूर	-9452
बुद्ध	-9453
▁ट्रा	-9454
▁सांठ	-9455
▁पहाड़	-9456
▁पक्षियों	-9457
▁बदरूद्दीन	-9458
▁पारदर्शिता	-9459
ंर	-9460
जिट	-9461
राने	-9462
▁कुं	-9463
▁दां	-9464
स्करण	-9465
▁उड़ा	-9466
▁जीवाणु	-9467
▁मधुमेह	-9468
▁अभ्यर्थ	-9469
▁विनिर्देश	-9470
▁व्यक्तिपरक	-9471
OP	-9472
ंगली	-9473
ुतोष	-9474
▁कंड	-9475
▁सन्त	-9476
▁कनाडा	-9477
▁छिद्र	-9478
▁आपूर्त	-9479
▁खिड़की	-9480
▁आजीविका	-9481
▁सापेक्ष	-9482
▁गोपनीयता	-9483
धीर	-9484
िशन	-9485
▁डु	-9486
प्पल	-9487
▁बेज	-9488
ोरेंस	-9489
▁वारा	-9490
▁घूंघट	-9491
▁मर्या	-9492
▁लापता	-9493
▁फंसाने	-9494
▁मिलियन	-9495
▁लड़कों	-9496
▁कैदियों	-9497
▁प्रॉपर्टी	-9498
एव	-9499
▁गम्	-9500
▁दाई	-9501
▁मैप	-9502
▁रेट	-9503
▁नारी	-9504
▁आँखों	-9505
▁उड़ान	-9506
▁संवेद	-9507
▁उपनियम	-9508
▁चुकाने	-9509
▁ठहराते	-9510
▁पाठकों	-9511
▁लोकसभा	-9512
▁वायर्स	-9513
▁समर्थक	-9514
▁कर्मकार	-9515
▁डिप्लोमा	-9516
▁वादकारियों	-9517
ूला	-9518
▁as	-9519
▁इट	-9520
खण्ड	-9521
नायक	-9522
बीएस	-9523
▁अका	-9524
▁कुश	-9525
▁जुट	-9526
▁भाज	-9527
▁अण्ड	-9528
▁धीमी	-9529
▁भव्य	-9530
▁पारिश	-9531
▁लगेगा	-9532
▁घनिष्ठ	-9533
▁सैंट्रो	-9534
▁परंपरागत	-9535
▁विशिष्टता	-9536
AND	-9537
िगर	-9538
▁SAR	-9539
▁शाक	-9540
स्तीन	-9541
▁साधु	-9542
▁दोषों	-9543
▁बेदखली	-9544
▁अभिप्राय	-9545
AI	-9546
फ़ा	-9547
एलआर	-9548
▁एमएम	-9549
▁गहने	-9550
▁जॉर्	-9551
▁पूछे	-9552
▁अवलंब	-9553
▁आबंटन	-9554
▁श्वसन	-9555
▁साइंस	-9556
▁हिंसक	-9557
दायित्व	-9558
प्लेक्स	-9559
▁आरपीसी	-9560
▁रिजर्व	-9561
▁पसंदीदा	-9562
▁वैयक्तिक	-9563
सारी	-9564
▁जीप	-9565
▁कठोरता	-9566
▁धर्मों	-9567
▁पारिश्रमिक	-9568
देशी	-9569
▁टेक	-9570
▁साँ	-9571
्यकाल	-9572
▁डीवी	-9573
▁खेतों	-9574
▁दीवान	-9575
▁भयानक	-9576
▁भेजना	-9577
▁दीक्षा	-9578
▁सर्वप्र	-9579
▁ट्रांसफर	-9580
▁ओह	-9581
▁जुड	-9582
▁पंक	-9583
▁फेर	-9584
वाड़ी	-9585
▁भयाव	-9586
▁अवसाद	-9587
▁उपद्र	-9588
▁घर्षण	-9589
▁आशुतोष	-9590
▁चार्टर्ड	-9591
SL	-9592
ितु	-9593
▁मग	-9594
▁रच	-9595
रफेर	-9596
▁कड़	-9597
▁भुव	-9598
▁गयीं	-9599
▁भट्ट	-9600
▁लेआउट	-9601
▁विध्व	-9602
▁डिक्शन	-9603
▁मशीनों	-9604
▁सेवकों	-9605
▁हेरफेर	-9606
▁नैतिकता	-9607
▁संस्थापित	-9608
▁सार्वभौमिक	-9609
है	-9610
दाद	-9611
मरी	-9612
▁Add	-9613
▁मनीष	-9614
▁गोदाम	-9615
▁बदलें	-9616
▁मानों	-9617
▁आंबेडकर	-9618
▁दोस्तों	-9619
▁जबरदस्ती	-9620
▁विशेषताएं	-9621
▁स्वीकार्यता	-9622
मास	-9623
ुर्द	-9624
▁पैंट	-9625
▁माफी	-9626
▁प्रभा	-9627
▁भोपाल	-9628
▁विकार	-9629
▁कार्मिक	-9630
▁इंजेक्शन	-9631
दीक	-9632
सनी	-9633
▁खैर	-9634
▁पीए	-9635
▁काशी	-9636
▁इशारे	-9637
▁बैलेंस	-9638
▁सातवीं	-9639
▁पूंजीगत	-9640
ोंग	-9641
▁SCR	-9642
▁भोज	-9643
कानाथ	-9644
▁एनएसई	-9645
▁चलाना	-9646
▁पढ़ें	-9647
▁अपनाना	-9648
▁परजीवी	-9649
▁प्रोफ़	-9650
▁राज़्य	-9651
▁विचलित	-9652
▁उत्तरार्	-9653
▁डिक्शनरी	-9654
▁प्रदेशों	-9655
▁प्रतिपादित	-9656
हण	-9657
ादर	-9658
ुरा	-9659
▁तन	-9660
▁व्ह	-9661
▁जांचा	-9662
▁देसाई	-9663
▁मांगों	-9664
▁रिश्ते	-9665
▁विसंगतियां	-9666
▁on	-9667
ग्रा	-9668
▁गेह	-9669
▁अतएव	-9670
▁आचार	-9671
▁उज्ज	-9672
▁एसिड	-9673
▁रिसी	-9674
▁रोज़	-9675
▁लैंड	-9676
▁किस्त	-9677
▁जिसमे	-9678
▁प्रमोद	-9679
▁एजुकेशन	-9680
▁आकांक्षा	-9681
▁प्रस्तावक	-9682
▁फिलीस्तीन	-9683
▁देनदारियों	-9684
▁द्वारकानाथ	-9685
if	-9686
र्नल	-9687
राबरी	-9688
▁पाती	-9689
▁पुणे	-9690
▁समीप	-9691
▁पर्चे	-9692
▁महासागर	-9693
▁समामेलन	-9694
▁प्रस्थान	-9695
▁ज्योतिर्म	-9696
्थ	-9697
ंगर	-9698
टिन	-9699
थुन	-9700
▁मैक	-9701
▁होश	-9702
बोर्ड	-9703
लिप्त	-9704
▁गुस्	-9705
▁रोने	-9706
▁फूलों	-9707
▁कंपनियां	-9708
▁वार्ताकार	-9709
▁कछ	-9710
▁पग	-9711
▁एसई	-9712
▁चोर	-9713
▁कालि	-9714
▁टांग	-9715
▁फ्लै	-9716
रीक्षक	-9717
▁कम्यु	-9718
▁गन्ने	-9719
▁जगहों	-9720
▁जॉर्ज	-9721
िरपेक्ष	-9722
▁एनआईटी	-9723
▁नाटकीय	-9724
▁प्रौढ़	-9725
▁बनर्जी	-9726
▁महावीर	-9727
▁कूटशब्द	-9728
▁प्रशांत	-9729
▁अस्वीकृत	-9730
▁काउंसलिंग	-9731
ess	-9732
किट	-9733
▁सऋ	-9734
▁नॉन	-9735
▁मला	-9736
▁वसा	-9737
▁आलेख	-9738
▁किले	-9739
▁पत्थ	-9740
▁बनकर	-9741
▁मेनन	-9742
▁घोड़े	-9743
▁इमारतों	-9744
▁बांग्ला	-9745
▁केंद्रों	-9746
▁पर्यवेक्षी	-9747
श्न	-9748
▁व्र	-9749
▁अय्य	-9750
▁क्रय	-9751
▁भाभी	-9752
▁चिन्त	-9753
▁राहुल	-9754
▁अहिंसा	-9755
▁परिमाण	-9756
▁कैलेंडर	-9757
▁अस्पष्टता	-9758
hak	-9759
न्ता	-9760
▁मौन	-9761
त्पाद	-9762
▁कन्व	-9763
टीमीटर	-9764
नाइटेड	-9765
ुद्दीन	-9766
▁घटकों	-9767
▁परिष्	-9768
▁रस्सी	-9769
▁विराम	-9770
▁संचित	-9771
▁चुपचाप	-9772
▁डंपिंग	-9773
▁पश्चात्	-9774
▁संख़्या	-9775
▁आनुवंशिक	-9776
▁मास्टर्स	-9777
▁सर्वप्रथम	-9778
ik	-9779
arb	-9780
न्च	-9781
वाट	-9782
▁SE	-9783
▁ऑल	-9784
▁बुश	-9785
रोहित	-9786
▁एचपी	-9787
▁नींद	-9788
▁अप्रा	-9789
▁क्लास	-9790
▁पीडीडी	-9791
▁अभिभावक	-9792
▁अविभाजित	-9793
▁विकासशील	-9794
iya	-9795
ांच	-9796
▁GP	-9797
,000	-9798
▁गुज	-9799
▁सने	-9800
▁Panc	-9801
▁साहा	-9802
▁कमियों	-9803
▁बाज़ार	-9804
▁मुद्रित	-9805
▁सामुदायिक	-9806
▁उत्तरदायित्व	-9807
टेक	-9808
▁बंट	-9809
▁मंडी	-9810
▁वादे	-9811
▁मेहनत	-9812
▁स्केल	-9813
▁स्वार्थ	-9814
▁जनजातियों	-9815
▁निष्क्रियता	-9816
▁छः	-9817
▁किर	-9818
▁आरके	-9819
▁ब्ला	-9820
▁मधुर	-9821
▁समझती	-9822
▁सिंधु	-9823
▁इन्हीं	-9824
▁गम्भीर	-9825
▁मानहानि	-9826
▁ऑपरेटरों	-9827
▁चिकित्सीय	-9828
▁श्रीनिवास	-9829
eal	-9830
hay	-9831
जाज	-9832
हाद	-9833
▁PIL	-9834
▁अद्	-9835
▁पॉल	-9836
ंक्शन	-9837
ंताओं	-9838
▁ट्रेन	-9839
▁अवयवों	-9840
▁खुलासे	-9841
▁चार्टर	-9842
▁तयशुदा	-9843
▁महाकाव	-9844
▁सामर्थ	-9845
▁कंट्राब	-9846
▁भागीदारों	-9847
ंथि	-9848
▁Sa	-9849
ियॉँ	-9850
▁तरा	-9851
▁मिट	-9852
▁कराए	-9853
▁रोटी	-9854
▁वर्षो	-9855
▁जाएंगी	-9856
▁दिलाने	-9857
▁पृष्ठों	-9858
▁मित्रता	-9859
▁सुधारों	-9860
▁पोस्टिंग	-9861
▁प्रसंस्करण	-9862
ौटी	-9863
ालाल	-9864
▁अनर	-9865
▁साठ	-9866
मानंद	-9867
▁जितने	-9868
▁टैरिफ	-9869
▁निदान	-9870
▁पाठ्य	-9871
▁विचारक	-9872
▁बोलियों	-9873
▁संपादित	-9874
▁संप्रभु	-9875
▁निवेशकों	-9876
GA	-9877
ip	-9878
III	-9879
ear	-9880
िज़	-9881
क्के	-9882
▁कपूर	-9883
▁खिंच	-9884
▁शल्य	-9885
▁मनोहर	-9886
▁मैक्स	-9887
▁संतान	-9888
▁प्रदाता	-9889
▁सुझावों	-9890
▁शेयरधारक	-9891
▁बुद्धिमान	-9892
▁कार्यालयों	-9893
ुलन	-9894
ुवा	-9895
ब्रे	-9896
▁पडे	-9897
▁कारी	-9898
▁मन्द	-9899
▁घुमाव	-9900
▁प्वाइ	-9901
▁संस्थ	-9902
▁अकादमी	-9903
▁निकाली	-9904
▁मुख़्य	-9905
▁एनएसईएल	-9906
▁पुस्तकालय	-9907
ce	-9908
▁app	-9909
▁बृह	-9910
िवर्स	-9911
▁दुष्	-9912
▁चक्कर	-9913
▁जोड़ना	-9914
▁प्रेमी	-9915
▁वसूलने	-9916
▁वास्तु	-9917
▁किनारों	-9918
▁प्रतियोगी	-9919
▁अर्थशास्त्र	-9920
केल	-9921
▁मोर्	-9922
▁शरार	-9923
▁पृथक्	-9924
▁अलार्म	-9925
▁लाभदायक	-9926
▁क्रियाओं	-9927
▁हलफनामों	-9928
कीर	-9929
▁SA	-9930
▁डै	-9931
मिनी	-9932
ुग्ध	-9933
▁नली	-9934
▁मीन	-9935
▁WANo	-9936
▁अवयव	-9937
▁चढ़ा	-9938
▁राणा	-9939
▁विजे	-9940
▁टकराव	-9941
▁ध्रुव	-9942
▁संचरण	-9943
▁प्रवास	-9944
▁प्रिवी	-9945
ेट्रिक्स	-9946
▁काश्मीर	-9947
▁विश्राम	-9948
hu	-9949
la	-9950
डम	-9951
असल	-9952
एनओ	-9953
ृश्य	-9954
▁कैश	-9955
चियों	-9956
च्छाद	-9957
▁क्षे	-9958
▁जमाने	-9959
▁बोलता	-9960
▁सुदूर	-9961
▁सोचना	-9962
▁हेमंत	-9963
▁छोड़ना	-9964
श्योरेंस	-9965
▁असमर्थता	-9966
▁पंचायतों	-9967
▁ऑस्ट्रेलिया	-9968
ew	-9969
थाई	-9970
रीद	-9971
▁अठ	-9972
लब्ध	-9973
▁Addl	-9974
▁कौंस	-9975
▁पैदल	-9976
ंगाबाद	-9977
▁बेरोज	-9978
▁वापिस	-9979
▁इलाकों	-9980
▁मुकाबला	-9981
मला	-9982
ड़ने	-9983
पुरी	-9984
ार्क	-9985
▁Sun	-9986
▁धनी	-9987
▁एंटर	-9988
▁एफटी	-9989
▁आलिया	-9990
▁उंगली	-9991
▁मिथ्या	-9992
▁विबंधन	-9993
▁तत्परता	-9994
▁पांचवें	-9995
▁महज	-9996
▁रेज	-9997
▁हाज	-9998
▁गर्भव	-9999
▁पुनरु	-10000
▁बुलाई	-10001
▁भरपूर	-10002
▁भित्त	-10003
▁अनैतिक	-10004
▁तुरन्त	-10005
▁प्रशासक	-10006
▁इंस्ट्रू	-10007
▁भुवनेश्वर	-10008
ैस	-10009
ंड़	-10010
भिक	-10011
वत्	-10012
ौला	-10013
▁XV	-10014
▁पस	-10015
▁आइए	-10016
▁मजा	-10017
▁बनते	-10018
▁रूचि	-10019
त्याशित	-10020
▁चमत्कार	-10021
▁प्रिंटर	-10022
▁क्वार्टर	-10023
▁अधिनिर्णय	-10024
मिश	-10025
▁AD	-10026
▁आरा	-10027
▁थोक	-10028
▁चौथी	-10029
▁दर्शक	-10030
▁हटाना	-10031
▁असफलता	-10032
▁संकेतों	-10033
▁टेस्टेट्रिक्स	-10034
ढा	-10035
ड्स	-10036
तीक	-10037
वेन	-10038
▁नट	-10039
न्दन	-10040
स्वर	-10041
▁अप्	-10042
▁बन्	-10043
▁ऊर्ध	-10044
▁कुंद	-10045
▁बहुल	-10046
▁दरअसल	-10047
▁बुराई	-10048
▁आनुपात	-10049
▁शासकों	-10050
▁सोवियत	-10051
▁स्थलों	-10052
▁जरूरतों	-10053
▁पहुँचने	-10054
▁आकाशवाणी	-10055
▁निर्देशक	-10056
▁अप्रत्याशित	-10057
जुए	-10058
ेली	-10059
▁OA	-10060
▁डू	-10061
आरसी	-10062
▁अनी	-10063
▁उमा	-10064
▁अजनबी	-10065
▁आंखें	-10066
▁श्वास	-10067
▁शुक्रा	-10068
▁रूपरेखा	-10069
▁पुनर्निर्माण	-10070
WP	-10071
ईटी	-10072
्लो	-10073
▁CM	-10074
प्रण	-10075
▁खरा	-10076
▁नवल	-10077
▁शशि	-10078
मानों	-10079
▁कृषक	-10080
▁जजों	-10081
▁जूते	-10082
▁पांव	-10083
▁बस्त	-10084
▁मरीज	-10085
▁सभ्य	-10086
▁पक्षीय	-10087
▁कार्यात्मक	-10088
सिले	-10089
▁XXX	-10090
▁जनक	-10091
ताबिक	-10092
▁चौदह	-10093
▁जीडी	-10094
▁बंधे	-10095
▁कार्ट	-10096
▁अशुद्ध	-10097
▁रेखांकित	-10098
बत	-10099
▁झेल	-10100
▁जीने	-10101
▁पुत्री	-10102
▁पूर्वक	-10103
▁कंस्ट्र	-10104
▁सांठगांठ	-10105
ram	-10106
पाट	-10107
श्ता	-10108
▁दखल	-10109
▁अभिव	-10110
▁बीएस	-10111
▁मेगा	-10112
▁लेटर	-10113
▁सैयद	-10114
▁एलपीए	-10115
▁खातून	-10116
▁राजपू	-10117
राष्ट्र	-10118
▁निकटता	-10119
▁मुताबिक	-10120
▁रवींद्र	-10121
▁साझेदार	-10122
▁यूनाइटेड	-10123
ंजर	-10124
ल्थ	-10125
िसा	-10126
वर्ग	-10127
▁लची	-10128
थियों	-10129
युद्ध	-10130
▁बेचे	-10131
▁ललित	-10132
▁एआईसी	-10133
▁बनायी	-10134
▁विकेट	-10135
▁वाशिंग	-10136
▁साइटों	-10137
▁पासवर्ड	-10138
▁पर्यावरणीय	-10139
ल्यू	-10140
▁चुक	-10141
▁अनभि	-10142
▁मामा	-10143
▁लगीं	-10144
▁तम्बा	-10145
िफिकेशन	-10146
▁सर्वथा	-10147
▁सिनेमा	-10148
▁चुंबकीय	-10149
▁विलक्षण	-10150
▁संवर्धन	-10151
▁प्लानिंग	-10152
▁पर्यवेक्षक	-10153
▁दुर्भावनापूर्ण	-10154
CL	-10155
ावि	-10156
ogle	-10157
डेंट	-10158
प्पी	-10159
▁एंव	-10160
▁डॉक	-10161
▁बाप	-10162
▁आशीष	-10163
▁सत्त	-10164
▁अन्तः	-10165
▁गांजा	-10166
▁बेटियों	-10167
▁विचारणीय	-10168
२०	-10169
डोर	-10170
सेल	-10171
▁Nar	-10172
▁फूट	-10173
▁असंख	-10174
▁नीला	-10175
▁डालकर	-10176
▁अखंडता	-10177
▁village	-10178
▁अपूरणीय	-10179
▁पहचानने	-10180
▁प्वाइंट	-10181
▁व्याख्यान	-10182
▁प्रतिबद्धता	-10183
aul	-10184
ालक	-10185
▁Al	-10186
▁भटक	-10187
तानों	-10188
▁अंतत	-10189
▁Nagar	-10190
▁तुर्क	-10191
▁सश्रम	-10192
▁चित्रों	-10193
▁सितम्बर	-10194
▁सद्भावना	-10195
णता	-10196
▁हरी	-10197
ित्री	-10198
▁गुर्	-10199
▁फैली	-10200
▁फसलों	-10201
▁स्कैन	-10202
▁टुकड़ों	-10203
▁शास्त्रीय	-10204
▁Sc	-10205
▁आँक	-10206
▁एजे	-10207
ंतव्य	-10208
▁मल्ल	-10209
▁कसौटी	-10210
▁गन्ना	-10211
▁यौगिक	-10212
▁वीर्य	-10213
▁श्रवण	-10214
▁चंद्रा	-10215
▁टिकटों	-10216
▁मुखिया	-10217
▁गर्भवती	-10218
▁पहुंचाया	-10219
▁औपचारिकता	-10220
▁प्रतिवर्ष	-10221
सम्	-10222
ाहट	-10223
▁or	-10224
जिकल	-10225
सायी	-10226
▁इनाम	-10227
▁दागी	-10228
▁देशभ	-10229
▁मुंस	-10230
▁वक्र	-10231
▁चाहें	-10232
▁डालता	-10233
▁प्रसव	-10234
▁मिश्र	-10235
▁दाहिनी	-10236
वश	-10237
ोटा	-10238
▁उगा	-10239
▁अमीन	-10240
▁टीआई	-10241
▁मवेश	-10242
▁संदीप	-10243
▁अनुयाय	-10244
▁असहमति	-10245
▁एशियाई	-10246
▁कहलाता	-10247
▁प्रचलन	-10248
▁मुनाफे	-10249
▁गुणसूत्र	-10250
▁कॉरपोरेशन	-10251
▁अप्राकृतिक	-10252
▁प्रणालियों	-10253
▁मनोवैज्ञानिक	-10254
SE	-10255
थल	-10256
कार्	-10257
फ़्त	-10258
▁CBI	-10259
▁SRI	-10260
▁अनौ	-10261
▁घटी	-10262
▁मले	-10263
▁रूक	-10264
arpur	-10265
hayat	-10266
▁असम्	-10267
▁कमला	-10268
▁युसु	-10269
▁पढ़ते	-10270
▁संजाल	-10271
▁जोड़कर	-10272
▁विक्रम	-10273
▁व्यतीत	-10274
▁सुलझाने	-10275
म्प्लेक्स	-10276
▁मतदाताओं	-10277
▁समानांतर	-10278
विस	-10279
▁सउ	-10280
▁हू	-10281
घाती	-10282
दर्य	-10283
▁तौल	-10284
▁बगी	-10285
▁चाहा	-10286
▁लाता	-10287
▁खजाने	-10288
▁तिहाई	-10289
▁घटनाएं	-10290
▁तोड़ने	-10291
▁रिसीवर	-10292
▁Panchayat	-10293
▁सिफारिशें	-10294
▁परिसंपत्तियों	-10295
ुरै	-10296
र्मि	-10297
▁ढूँ	-10298
▁नां	-10299
▁मॉड	-10300
शास्त	-10301
▁खोजा	-10302
▁सदमे	-10303
▁हमसे	-10304
▁माहौल	-10305
▁मुल्क	-10306
▁सशर्त	-10307
▁सीरियल	-10308
▁स्वराज	-10309
▁आक्रामक	-10310
▁एआईसीटीई	-10311
▁एकाधिकार	-10312
▁नियन्त्रण	-10313
बुल	-10314
ारस	-10315
▁De	-10316
▁कन	-10317
▁झट	-10318
चेरी	-10319
▁नसी	-10320
▁पडा	-10321
▁RERA	-10322
▁छड़ी	-10323
▁दरें	-10324
▁सीएल	-10325
▁हीरा	-10326
▁रूल्स	-10327
▁फ़ॉन्ट	-10328
▁तम्बाकू	-10329
▁औरंगाबाद	-10330
▁सम्भावना	-10331
▁सामर्थ्य	-10332
▁मंत्रिमंडल	-10333
▁विद्यालयों	-10334
ARA	-10335
ICT	-10336
ash	-10337
णसी	-10338
पना	-10339
बुक	-10340
चालय	-10341
लाना	-10342
श्ले	-10343
▁एमए	-10344
त्तूर	-10345
वालों	-10346
▁गुला	-10347
▁पहना	-10348
▁बीघा	-10349
▁रेंट	-10350
पॉलिटन	-10351
▁पर्दा	-10352
▁बहाना	-10353
▁देखेंगे	-10354
▁विटामिन	-10355
▁सिलसिले	-10356
▁सुभाषबाबू	-10357
लीम	-10358
चाने	-10359
नामी	-10360
▁तंज	-10361
▁पटल	-10362
▁पैक	-10363
फोर्ड	-10364
▁मोनो	-10365
▁राशन	-10366
▁अतिशय	-10367
▁ख्याल	-10368
▁बनाएँ	-10369
▁Google	-10370
▁भौतिकी	-10371
▁सम्बद्ध	-10372
▁उत्परिवर्तन	-10373
OL	-10374
गै	-10375
गाल	-10376
▁LW	-10377
▁वड	-10378
फिया	-10379
फीति	-10380
▁एफए	-10381
▁औषध	-10382
नियों	-10383
▁अपलोड	-10384
▁समुच्च	-10385
▁सीमांकन	-10386
▁टेलीविजन	-10387
▁सेंटीमीटर	-10388
▁मांसपेशियों	-10389
TP	-10390
ue	-10391
ँगा	-10392
गुना	-10393
ैर्य	-10394
ोदरा	-10395
▁डेम	-10396
▁पोष	-10397
▁लहर	-10398
▁केशव	-10399
▁डेविड	-10400
▁बैंकर	-10401
▁स्केच	-10402
▁रात्रि	-10403
▁कलात्मक	-10404
▁स्पष्टता	-10405
▁आर्बिट्रल	-10406
▁मेट्रोपॉलिटन	-10407
चिव	-10408
नेल	-10409
नोई	-10410
▁नद	-10411
नामे	-10412
▁उदर	-10413
▁जोड	-10414
▁डिक	-10415
ष्पीठ	-10416
▁इनसे	-10417
▁नीले	-10418
▁बिछा	-10419
▁बीयर	-10420
▁लाला	-10421
▁कदमों	-10422
▁लिपिक	-10423
▁अंतरंग	-10424
▁बेईमान	-10425
▁विदेशों	-10426
▁विज्ञापित	-10427
▁संपूर्णता	-10428
DA	-10429
ण्ट	-10430
▁At	-10431
▁कलम	-10432
▁ढाँ	-10433
▁धूप	-10434
▁सदर	-10435
▁सिया	-10436
म्रपान	-10437
▁असहाय	-10438
▁यमुना	-10439
▁निर्मल	-10440
▁मुद्रण	-10441
▁परीक्षाओं	-10442
TA	-10443
क्य	-10444
▁IS	-10445
▁is	-10446
सिया	-10447
ितरण	-10448
▁ऋणी	-10449
▁पंप	-10450
पल्ली	-10451
ाइलों	-10452
▁बैठी	-10453
▁भद्र	-10454
▁महंगा	-10455
▁मानवा	-10456
▁सिंधी	-10457
▁क्लॉज़	-10458
▁वाराणसी	-10459
▁जल्दबाजी	-10460
▁परिपूर्ण	-10461
▁डब्ल्यूपी	-10462
ंय	-10463
दगी	-10464
ॉपी	-10465
▁कलंक	-10466
▁आँखें	-10467
▁बर्तन	-10468
▁मनगढ़	-10469
▁विधिक	-10470
▁पासवान	-10471
▁प्रचुर	-10472
▁बढ़ाना	-10473
▁संपादन	-10474
▁सौभाग्य	-10475
▁प्रतिबंधों	-10476
▁सौहार्दपूर्ण	-10477
ati	-10478
घाट	-10479
▁जॉ	-10480
ंटीन	-10481
ऊंगा	-10482
षकों	-10483
▁MAN	-10484
▁Man	-10485
णात्मक	-10486
लिसिटर	-10487
▁छोड़े	-10488
▁सेक्स	-10489
▁क्यूरी	-10490
▁मृतकों	-10491
ार्श्विक	-10492
▁पत्थरों	-10493
▁पूर्णतः	-10494
▁लक्षणों	-10495
▁संसाधित	-10496
▁अनुमानों	-10497
▁भविष्यवाणी	-10498
▁विशेषज्ञता	-10499
▁IC	-10500
▁अधू	-10501
▁ओएस	-10502
▁नूर	-10503
चिकित	-10504
▁एमआर	-10505
▁दुरा	-10506
▁सुल्	-10507
▁फांसी	-10508
▁बैठकर	-10509
▁सुनीता	-10510
▁पूर्वजों	-10511
▁संस्थापक	-10512
सक	-10513
▁GO	-10514
▁जौ	-10515
▁अवध	-10516
▁बसा	-10517
▁वजी	-10518
▁शिप	-10519
जीवित	-10520
▁टीएस	-10521
▁पायी	-10522
▁वाणी	-10523
प्रदेश	-10524
▁असत्य	-10525
▁एकांत	-10526
▁जरुरी	-10527
▁जमीनों	-10528
▁तीव्रता	-10529
▁स्वयंसे	-10530
▁बहुमूल्य	-10531
▁सम्पत्ति	-10532
▁राष्ट्रों	-10533
▁अफगानिस्तान	-10534
aw	-10535
ख्ता	-10536
▁भूक	-10537
द्वार	-10538
▁कुंज	-10539
▁डिवा	-10540
▁शिरा	-10541
▁फ्रां	-10542
▁स्टेज	-10543
▁स्राव	-10544
▁मनगढ़ंत	-10545
▁नवीनीकृत	-10546
▁असिस्टेंट	-10547
▁अनुयायियों	-10548
▁प्रजातियों	-10549
ide	-10550
एनएल	-10551
▁अटल	-10552
▁बूट	-10553
ापत्र	-10554
▁ताना	-10555
▁अपितु	-10556
▁साम्य	-10557
▁जांचने	-10558
▁बराबरी	-10559
▁ब्रिता	-10560
▁अखबारों	-10561
▁रेगिस्तान	-10562
बुद	-10563
मस्त	-10564
शेखर	-10565
▁गाने	-10566
▁माइन	-10567
▁मादक	-10568
▁पिछला	-10569
▁पिल्ल	-10570
▁बम्बई	-10571
▁बोलना	-10572
▁भयंकर	-10573
▁भयावह	-10574
▁प्रेरक	-10575
▁मणीलाल	-10576
▁मैनेजर	-10577
▁लार्वा	-10578
षी	-10579
थ्म	-10580
▁at	-10581
वेली	-10582
▁झलक	-10583
▁औजार	-10584
▁दाईं	-10585
▁धुंध	-10586
▁मीना	-10587
▁एरिया	-10588
▁सुधीर	-10589
▁कैरियर	-10590
▁नामकरण	-10591
▁स्मारक	-10592
▁अनभिज्ञ	-10593
▁प्रबन्ध	-10594
▁स्त्रोत	-10595
▁ट्रैक्टर	-10596
▁कॉम्प्लेक्स	-10597
वेद	-10598
ोटो	-10599
बन्धन	-10600
▁Bhag	-10601
▁Shri	-10602
▁क़ुर	-10603
▁कैसा	-10604
▁मुहा	-10605
▁शाही	-10606
▁करेंगी	-10607
▁द्रव्य	-10608
▁गणतंत्र	-10609
▁व्याप्त	-10610
▁कम्प्यूटर	-10611
▁प्रतिस्पर्धी	-10612
ंछ	-10613
क्ल	-10614
रोस	-10615
ष्प	-10616
ूलर	-10617
▁AN	-10618
▁अछ	-10619
▁अड़	-10620
▁दाँ	-10621
▁वेट	-10622
▁आन्त	-10623
▁बहने	-10624
▁लाइट	-10625
▁सीबी	-10626
▁कैंटीन	-10627
▁कौंसिल	-10628
▁दिखायी	-10629
▁रोस्टर	-10630
▁अपमानित	-10631
▁आवृत्ति	-10632
▁छुटकारा	-10633
▁दर्शाते	-10634
▁ट्रेडिंग	-10635
धक	-10636
ुस	-10637
ेब	-10638
्ह	-10639
रणी	-10640
ावे	-10641
▁क्यो	-10642
▁मोटी	-10643
▁लगाव	-10644
▁सुमन	-10645
▁इंसान	-10646
▁कमाने	-10647
▁कोष्ठ	-10648
▁भीतरी	-10649
▁यार्ड	-10650
▁जहाजों	-10651
▁डेटाबेस	-10652
▁निमंत्र	-10653
▁अद्वितीय	-10654
▁प्रतिष्ठानों	-10655
DC	-10656
ti	-10657
ala	-10658
ana	-10659
स्टल	-10660
रूपता	-10661
▁आर्ट	-10662
▁दण्ड	-10663
▁नाट्य	-10664
▁मंडली	-10665
▁कुशलता	-10666
▁निरन्तर	-10667
▁स्टेटमेंट	-10668
▁दाल	-10669
▁पलट	-10670
▁रत्	-10671
▁रोब	-10672
▁शैल	-10673
▁टाइम	-10674
▁लिफा	-10675
ग्रहीत	-10676
▁मदुरै	-10677
▁मिलान	-10678
▁लिस्ट	-10679
ोल्यूशन	-10680
▁तेलुगु	-10681
▁बिन्दु	-10682
▁अज्ञानता	-10683
▁प्रतिरूप	-10684
▁गतिविधियां	-10685
▁अन्तर्राष्ट्रीय	-10686
ष्क	-10687
इयाँ	-10688
▁उलझ	-10689
▁चेन	-10690
▁घेरे	-10691
▁क्षेञ	-10692
▁फाउंड	-10693
रेन्द्र	-10694
▁निमंत्रण	-10695
▁ब्रितानी	-10696
▁क्षेत्रफल	-10697
▁प्रमाणीकरण	-10698
ँजी	-10699
बों	-10700
▁ऊँच	-10701
▁चीख	-10702
▁पों	-10703
▁वात	-10704
▁क्रि	-10705
▁त्यो	-10706
▁पारस	-10707
▁घुटने	-10708
प्लीकेशन	-10709
▁वित्तपो	-10710
▁देवेंद्र	-10711
▁यूनिवर्स	-10712
ज़्	-10713
भीत	-10714
साजी	-10715
▁घसी	-10716
▁राध	-10717
▁ज़ोन	-10718
▁चौथाई	-10719
▁दीजिए	-10720
स्थापना	-10721
▁सॉलिसिटर	-10722
▁आपत्तिजनक	-10723
▁ज्योतिष्पीठ	-10724
▁पुनर्प्राप्त	-10725
RL	-10726
se	-10727
ING	-10728
नीस	-10729
संह	-10730
▁गर	-10731
गाँव	-10732
वाने	-10733
क्ट्स	-10734
स्टोन	-10735
▁उतने	-10736
▁कोटे	-10737
▁मेनू	-10738
▁निजाम	-10739
▁रंगों	-10740
▁हल्का	-10741
▁अजीबोग	-10742
▁इंदिरा	-10743
▁खींचने	-10744
▁सहेजें	-10745
▁फॉरेंसिक	-10746
अली	-10747
▁उकस	-10748
▁थलग	-10749
▁नक़	-10750
▁परमा	-10751
▁जरुरत	-10752
▁व्यंग	-10753
▁गुमराह	-10754
▁निकलते	-10755
▁नर्सिंग	-10756
▁उपन्यासों	-10757
ुगत	-10758
▁बृज	-10759
▁एचएल	-10760
▁चाबी	-10761
▁दाएं	-10762
▁बीजी	-10763
▁भलाई	-10764
▁लेखाप	-10765
▁गंतव्य	-10766
▁लागतों	-10767
▁दर्शकों	-10768
▁दोषियों	-10769
▁प्रधाना	-10770
▁प्रमोटर	-10771
▁विख्यात	-10772
▁सूचकांक	-10773
▁उत्तेजना	-10774
▁प्रविष्टियां	-10775
ive	-10776
हनी	-10777
▁Cri	-10778
▁खाई	-10779
▁जले	-10780
▁अस्व	-10781
▁रत्न	-10782
▁लोकल	-10783
▁झुकाव	-10784
▁तारों	-10785
▁फास्ट	-10786
▁ब्रेक	-10787
▁सरपंच	-10788
▁अद्भुत	-10789
▁चटर्जी	-10790
▁अंतर्वि	-10791
▁कम्युनि	-10792
▁वाजपेयी	-10793
▁एप्लीकेशन	-10794
▁डेवलपमेंट	-10795
▁हार्डवेयर	-10796
▁संपार्श्विक	-10797
HI	-10798
शर	-10799
PNo	-10800
ासु	-10801
▁यों	-10802
▁हज़	-10803
▁आंगन	-10804
▁गाली	-10805
▁गुणक	-10806
▁वन्य	-10807
▁शिवा	-10808
क्ष्मी	-10809
▁नाजुक	-10810
▁ताजमहल	-10811
▁ब्रह्मा	-10812
▁इस्लामिक	-10813
▁टिप्पणियां	-10814
ESI	-10815
यता	-10816
डियम	-10817
▁बिख	-10818
▁लॉक	-10819
▁अनूप	-10820
▁युवक	-10821
पीडिया	-10822
▁बेसिक	-10823
▁हास्य	-10824
▁अपीलें	-10825
▁निर्गम	-10826
▁निविदाओं	-10827
▁स्ट्रिंग	-10828
▁दुर्भाग्यपूर्ण	-10829
दो	-10830
ase	-10831
फलक	-10832
माल	-10833
लेन	-10834
▁सीई	-10835
न्हीं	-10836
वर्धन	-10837
▁रावण	-10838
▁सउदी	-10839
▁SARFA	-10840
▁नोड्स	-10841
▁सर्जरी	-10842
▁त्योहार	-10843
▁मालिकाना	-10844
▁अजीबोगरीब	-10845
ंसे	-10846
ंकार	-10847
देड़	-10848
मुक्त	-10849
▁अंधा	-10850
▁एमवी	-10851
▁कपास	-10852
▁सीने	-10853
▁स्या	-10854
▁निवेद	-10855
▁बहनोई	-10856
▁रंगीन	-10857
▁अधिमान	-10858
▁अर्द्ध	-10859
▁कित्तूर	-10860
▁मर्यादा	-10861
▁विध्वंस	-10862
फू	-10863
ard	-10864
ort	-10865
डेट	-10866
लीफ	-10867
गरों	-10868
▁वैन	-10869
▁शोक	-10870
▁कंटे	-10871
▁तरंग	-10872
▁ताला	-10873
▁नौका	-10874
▁रोशन	-10875
▁कन्या	-10876
▁नायडू	-10877
▁भवनों	-10878
▁हालात	-10879
▁अनुपलब्ध	-10880
▁प्रभावों	-10881
ॉड	-10882
तरा	-10883
बड़	-10884
▁RO	-10885
आईडी	-10886
िपरि	-10887
▁धरा	-10888
▁अनवर	-10889
▁बाँध	-10890
▁बांस	-10891
▁साफ़	-10892
▁बारिश	-10893
▁मोहित	-10894
▁कामगारों	-10895
▁गोस्वामी	-10896
▁कार्यकर्ताओं	-10897
शंस	-10898
▁गाज	-10899
▁निब	-10900
▁ब्ले	-10901
▁सिंघ	-10902
▁हरीश	-10903
▁गोल्ड	-10904
▁शिफ्ट	-10905
▁सरलता	-10906
▁अंसारी	-10907
▁गेंदबाज	-10908
▁दीक्षित	-10909
▁नागरिकता	-10910
▁मानवाधिकार	-10911
ank	-10912
णित	-10913
रोह	-10914
हमी	-10915
▁IX	-10916
▁फट	-10917
ण्डी	-10918
ैण्ड	-10919
▁Par	-10920
▁सत्	-10921
तालों	-10922
▁अपार	-10923
▁दौरे	-10924
▁यूएस	-10925
▁रूढ़	-10926
▁सौन्	-10927
साधारण	-10928
▁जायगा	-10929
▁जिंदा	-10930
▁ठहराव	-10931
▁बदलते	-10932
▁मण्डल	-10933
र्तियों	-10934
▁असंख्य	-10935
▁उकसाने	-10936
▁अवस्थित	-10937
▁अतिमानसिक	-10938
▁निर्दोषता	-10939
rd	-10940
पृ	-10941
पाती	-10942
▁ताक	-10943
▁नशे	-10944
▁कस्ट	-10945
▁यथास	-10946
▁राइट	-10947
▁विज़	-10948
▁डकैती	-10949
▁धक्का	-10950
▁पड़ते	-10951
▁फारसी	-10952
▁बैठता	-10953
▁सहारे	-10954
तापूर्ण	-10955
▁अंधेरे	-10956
▁किराये	-10957
▁गरीबों	-10958
▁चट्टान	-10959
▁मंत्रि	-10960
▁प्रशस्त	-10961
▁रॉयल्टी	-10962
▁विरोधाभासों	-10963
ob	-10964
मक	-10965
URU	-10966
ंजक	-10967
बिन	-10968
मेट	-10969
ोरा	-10970
▁ऊंट	-10971
▁करण	-10972
▁खुर	-10973
▁भूषण	-10974
▁टेक्न	-10975
▁दुग्ध	-10976
▁लिखें	-10977
▁ग्रंथों	-10978
▁खरीदारों	-10979
▁धूम्रपान	-10980
▁Un	-10981
▁लय	-10982
्वित	-10983
▁CAV	-10984
▁डिप	-10985
▁तंग	-10986
▁रची	-10987
▁हता	-10988
▁हीन	-10989
वृत्त	-10990
▁मुड़	-10991
▁विस्	-10992
▁मेमोर	-10993
▁लीजिए	-10994
▁आयातित	-10995
▁उपासना	-10996
▁विच्छेद	-10997
▁विलंबित	-10998
▁अधिकाधिक	-10999
▁एमबीबीएस	-11000
▁एल्गोरिथ्म	-11001
▁कल्याणकारी	-11002
ुए	-11003
क्म	-11004
टाइ	-11005
▁Dr	-11006
▁एस्	-11007
▁डबल	-11008
▁हकी	-11009
भावित	-11010
▁किला	-11011
▁जवान	-11012
▁ममता	-11013
पत्रों	-11014
▁बयानी	-11015
▁विक्ष	-11016
▁डीलरों	-11017
▁समीचीन	-11018
▁संक्रिया	-11019
▁हड्डियों	-11020
▁मंत्रिपरि	-11021
sa	-11022
साम	-11023
ारह	-11024
▁मथु	-11025
▁मुज	-11026
▁राठ	-11027
▁इन्फ	-11028
▁गिरि	-11029
▁गोरख	-11030
▁रूसी	-11031
▁क़्या	-11032
▁टैगोर	-11033
▁आच्छाद	-11034
▁कमजोरी	-11035
▁अब्दुल्ला	-11036
▁श्रीकृष्ण	-11037
ैप	-11038
गेट	-11039
▁गत	-11040
ited	-11041
▁कस्	-11042
▁मदर	-11043
ेशनों	-11044
▁मलया	-11045
▁शाहज	-11046
▁सोनू	-11047
▁उत्तरा	-11048
▁ग्रंथि	-11049
▁ग्रेजुए	-11050
▁म्यूटेशन	-11051
दरी	-11052
ष्मा	-11053
▁करन	-11054
▁खिस	-11055
डियों	-11056
▁कचरे	-11057
▁कच्छ	-11058
▁सर्प	-11059
▁घटिया	-11060
▁दिखने	-11061
▁निकली	-11062
▁पत्रक	-11063
▁विलियम	-11064
▁अनुभवों	-11065
▁किताबें	-11066
▁तर्कहीन	-11067
▁संलिप्त	-11068
▁अनौपचारिक	-11069
▁राधाकृष्णन	-11070
दत्त	-11071
लापन	-11072
सिडी	-11073
▁Sam	-11074
▁उठी	-11075
▁चौड़ी	-11076
▁बिलास	-11077
▁माणिक	-11078
▁मुंसिफ	-11079
▁लक्ष्यों	-11080
▁अनियमितताओं	-11081
ंचन	-11082
घोष	-11083
▁बध	-11084
ालीस	-11085
▁वेग	-11086
▁शिष	-11087
▁सुध	-11088
▁Page	-11089
▁तेज़	-11090
▁माधव	-11091
▁किसके	-11092
▁पाटिल	-11093
▁फैलाव	-11094
▁निपटना	-11095
▁थक	-11096
....	-11097
▁फेश	-11098
क्षीय	-11099
्रेशन	-11100
▁अनार	-11101
▁दशरथ	-11102
▁पौरा	-11103
▁लगों	-11104
▁स्टो	-11105
्रियां	-11106
▁निभाने	-11107
▁वीआरएस	-11108
▁सत्तार	-11109
▁कार्यभार	-11110
▁गवर्नमेंट	-11111
OU	-11112
to	-11113
यो	-11114
जना	-11115
पानी	-11116
▁राख	-11117
▁स्फ	-11118
▁बुझा	-11119
▁सोलह	-11120
▁पुर्त	-11121
▁भयभीत	-11122
▁हिमनद	-11123
▁एनेक्स	-11124
▁ऑक्सीजन	-11125
▁शीघ्रता	-11126
▁घुमावदार	-11127
▁प्रमाणों	-11128
▁वीरेंद्र	-11129
▁ठेकेदारों	-11130
▁आतंकवादियों	-11131
काम	-11132
ांट	-11133
▁Am	-11134
गणना	-11135
▁गरम	-11136
▁निम	-11137
ालिया	-11138
▁आईसी	-11139
▁डिफॉ	-11140
▁नवाब	-11141
▁मप्र	-11142
वृत्ति	-11143
▁चलेगा	-11144
▁निबंध	-11145
▁सविता	-11146
▁अनुयायी	-11147
▁महाकाव्य	-11148
▁एंटरप्राइ	-11149
▁अस्वीकार्य	-11150
▁मार्गदर्शक	-11151
▁व्याख्याताओं	-11152
हू	-11153
जनल	-11154
तुर	-11155
ैनी	-11156
▁PM	-11157
▁ढा	-11158
फ़्ट	-11159
▁भाँ	-11160
▁रबर	-11161
▁लाद	-11162
▁कन्ह	-11163
▁टायर	-11164
▁चंपारण	-11165
▁वर्षीय	-11166
▁समुच्चय	-11167
▁पक्षपातपूर्ण	-11168
२१	-11169
काय	-11170
ख्श	-11171
▁Mu	-11172
▁छल	-11173
ipur	-11174
ट्टे	-11175
▁Bar	-11176
▁अनप	-11177
▁चचे	-11178
ापन्न	-11179
कुमारी	-11180
▁ओसीसी	-11181
▁उकसाया	-11182
▁ज़िम्म	-11183
▁पंजीयक	-11184
▁परिचालित	-11185
▁प्रॉक्सी	-11186
▁हस्ताक्षरकर्ता	-11187
दशा	-11188
िनो	-11189
▁टु	-11190
लेखा	-11191
▁पला	-11192
▁साओ	-11193
▁अराज	-11194
▁अष्ट	-11195
▁पद्म	-11196
▁भूतल	-11197
▁अड्डे	-11198
▁दर्जे	-11199
▁हफ्ते	-11200
▁उन्नयन	-11201
▁गतिशील	-11202
▁डिवाइस	-11203
▁भ्रमित	-11204
▁इंश्योरेंस	-11205
▁ज्योतिर्मठ	-11206
▁पुनर्जीवित	-11207
डक	-11208
शास	-11209
▁केएस	-11210
▁लेगी	-11211
दृष्टि	-11212
▁ऊँचाई	-11213
▁गेहूं	-11214
▁देवना	-11215
▁पावती	-11216
▁युग्म	-11217
▁गर्भाव	-11218
▁युवाओं	-11219
▁समग्रता	-11220
ॉम	-11221
चाल	-11222
्ति	-11223
टकों	-11224
सूरत	-11225
ारसी	-11226
▁एम्ब	-11227
▁डेढ़	-11228
▁व्रत	-11229
▁श्ले	-11230
▁अंकुश	-11231
▁ईरानी	-11232
▁नतीजे	-11233
▁मित्त	-11234
प्रणाली	-11235
▁मुद्रक	-11236
▁वाशिंगटन	-11237
▁संस्थागत	-11238
▁प्रेमचन्द	-11239
▁क्षतिग्रस्त	-11240
▁प्रोग्रामिंग	-11241
वात	-11242
ोगी	-11243
▁RA	-11244
एमएस	-11245
▁पीट	-11246
▁अम्ल	-11247
▁चलाए	-11248
▁बापू	-11249
▁भेड़	-11250
फ्रेंस	-11251
▁इंस्ट	-11252
▁क्लिन	-11253
▁अभिषेक	-11254
▁नोकिया	-11255
▁सीमाएं	-11256
▁चाहूंगा	-11257
▁पड़ोसियों	-11258
▁ं	-11259
ine	-11260
िरि	-11261
बर्ग	-11262
ियाई	-11263
▁Bal	-11264
▁सेठ	-11265
गोशिए	-11266
▁ग्लो	-11267
ेंडेंट	-11268
▁डायरे	-11269
▁पुण्य	-11270
▁करवाया	-11271
▁पहुंचना	-11272
▁द्वितीयक	-11273
▁प्रायोजित	-11274
▁विमानक्षेत्र	-11275
ugh	-11276
ग्व	-11277
▁ex	-11278
▁Dev	-11279
▁नशी	-11280
▁नागर	-11281
▁पीले	-11282
▁धैर्य	-11283
▁बिल्ड	-11284
▁फर्स्ट	-11285
▁जालसाजी	-11286
▁अनुबंधित	-11287
▁देवनागरी	-11288
▁शब्दावली	-11289
▁स्थानापन्न	-11290
टु	-11291
ंपल	-11292
▁एनआई	-11293
▁खोली	-11294
▁चुनौ	-11295
▁डीएस	-11296
▁पीएच	-11297
▁शर्म	-11298
▁हटाए	-11299
▁चांदी	-11300
▁प्रात	-11301
▁शारदा	-11302
▁श्रील	-11303
▁सृजित	-11304
▁दिलाया	-11305
▁रिक्शा	-11306
▁लाइनों	-11307
▁सम्प्र	-11308
▁अपवादों	-11309
▁पहुंचता	-11310
▁पात्रों	-11311
▁इन्होंने	-11312
▁सर्विसेज	-11313
▁डिस्ट्रिक	-11314
▁प्रतिभूतियों	-11315
ok	-11316
ोंक	-11317
▁Ac	-11318
▁रौ	-11319
▁भला	-11320
▁हैस	-11321
▁गलतफ	-11322
▁पीके	-11323
▁सूखे	-11324
ट्समैन	-11325
▁चौड़ा	-11326
▁जानकर	-11327
▁दोहरे	-11328
▁परिपथ	-11329
▁मिल्स	-11330
▁पौराणिक	-11331
▁मार्क्स	-11332
▁समन्वित	-11333
▁सैकड़ों	-11334
▁SARFAESI	-11335
▁शक्तियाँ	-11336
▁प्रगतिशील	-11337
ह्	-11338
▁जघ	-11339
वांछ	-11340
▁अरे	-11341
▁ख़ु	-11342
▁खां	-11343
▁अन्ध	-11344
▁अमित	-11345
▁कशेर	-11346
▁घिरा	-11347
▁पतला	-11348
▁माउस	-11349
▁अंशों	-11350
▁पक्का	-11351
▁रक्षक	-11352
▁लम्बा	-11353
▁सुप्र	-11354
▁कुर्सी	-11355
▁जिन्ना	-11356
▁दिसम्बर	-11357
▁मॉड्यूल	-11358
▁फाउंडेशन	-11359
▁अंतरात्मा	-11360
ामु	-11361
▁अड	-11362
तदार	-11363
▁आदम	-11364
▁एबी	-11365
▁खली	-11366
▁राघ	-11367
ामीटर	-11368
▁ऑर्स	-11369
▁डेंट	-11370
▁मोटा	-11371
▁विलो	-11372
▁मूलतः	-11373
▁रवैया	-11374
▁सदनों	-11375
▁सियार	-11376
▁अप्रति	-11377
▁बलिदान	-11378
▁रिवाजों	-11379
▁सब्सिडी	-11380
▁समाजवाद	-11381
▁शुक्राणु	-11382
▁कार्यकलाप	-11383
▁विस्थापित	-11384
ORE	-11385
▁BE	-11386
▁RF	-11387
ंजित	-11388
▁for	-11389
▁एएम	-11390
▁झोप	-11391
▁बेग	-11392
▁मिठ	-11393
alpur	-11394
▁लीटर	-11395
न्यासी	-11396
▁कराता	-11397
▁कक्षाओं	-11398
तुल	-11399
▁लख	-11400
प्पू	-11401
मपुर	-11402
▁अनो	-11403
▁अस्	-11404
विन्द	-11405
▁अंडा	-11406
▁अन्र	-11407
▁एलपी	-11408
▁बेलग	-11409
▁सरोज	-11410
▁चावला	-11411
▁न्यूज	-11412
▁पीड़क	-11413
▁मल्टी	-11414
▁रिवाज	-11415
▁व्हिप	-11416
▁गुलाबी	-11417
▁फाइलों	-11418
▁कृतियों	-11419
▁अनुरक्षण	-11420
▁फैक्ट्री	-11421
▁व्यवसायी	-11422
▁पंक्तियों	-11423
▁ईंट	-11424
▁घोल	-11425
▁टेन	-11426
▁चपरा	-11427
▁थैली	-11428
▁पतली	-11429
▁साहिब	-11430
▁उपद्रव	-11431
▁निकलती	-11432
▁पंचांग	-11433
▁सीमांत	-11434
▁योजनाएं	-11435
▁प्रेमचंद	-11436
▁बिलासपुर	-11437
▁व्यापकता	-11438
▁सौन्दर्य	-11439
ंदे	-11440
भंग	-11441
मयी	-11442
▁GA	-11443
धर्म	-11444
▁Com	-11445
▁उषा	-11446
▁दृश	-11447
▁भली	-11448
▁लिस	-11449
▁भावा	-11450
▁स्लम	-11451
▁खुदरा	-11452
▁बंदोब	-11453
▁लॉन्च	-11454
गोशिएबल	-11455
▁मारुति	-11456
▁अभिनेता	-11457
▁पीएमएलए	-11458
▁द्विवेदी	-11459
▁महाद्वीप	-11460
ION	-11461
फीक	-11462
▁धा	-11463
राहट	-11464
्येय	-11465
▁MFA	-11466
▁लती	-11467
▁लिम	-11468
▁खेला	-11469
▁खोले	-11470
▁पद्य	-11471
▁माथे	-11472
▁मारी	-11473
▁वैसी	-11474
▁सिवा	-11475
▁केमिक	-11476
▁केलिए	-11477
▁गुलाब	-11478
▁चालीस	-11479
▁तिब्ब	-11480
▁मियां	-11481
▁संरचनाओं	-11482
▁पहाड़ियों	-11483
▁भावनात्मक	-11484
ेंग	-11485
प्सी	-11486
सराय	-11487
▁गौण	-11488
▁मोल	-11489
▁सान	-11490
▁गोवा	-11491
▁पच्च	-11492
▁रेणु	-11493
▁Chrom	-11494
▁अभिया	-11495
▁उपखंड	-11496
▁बुखार	-11497
▁बैटरी	-11498
▁मुंडा	-11499
▁वेदों	-11500
▁केपीसी	-11501
▁नागपुर	-11502
▁रखेंगे	-11503
▁स्पेशल	-11504
▁लाभप्रद	-11505
▁ब्राउज़र	-11506
▁संन्यासी	-11507
▁एक्सट्रीम	-11508
काई	-11509
िकर	-11510
ूढ़	-11511
ावती	-11512
▁पंथ	-11513
▁मनु	-11514
कर्मी	-11515
जातीय	-11516
स्करी	-11517
▁कपिल	-11518
▁बॉडी	-11519
▁युग्	-11520
▁सुने	-11521
▁आसन्न	-11522
▁खुदाई	-11523
▁शिश्न	-11524
▁खुफिया	-11525
▁अन्वेषण	-11526
▁उदासीनता	-11527
▁बहिष्करण	-11528
▁प्रारम्भिक	-11529
PS	-11530
ंसल	-11531
ताई	-11532
्तर	-11533
ाम्प	-11534
▁दुब	-11535
▁नाख	-11536
योजित	-11537
▁उठने	-11538
▁गायक	-11539
▁ज्वर	-11540
प्रसाद	-11541
▁परिसी	-11542
▁भावों	-11543
▁अल्लाह	-11544
▁चपरासी	-11545
▁नारियल	-11546
▁सुप्रीम	-11547
▁डिस्ट्रिक्ट	-11548
▁जिम्मेदारियों	-11549
ओएस	-11550
डित	-11551
िसी	-11552
ोला	-11553
▁LJ	-11554
हाउस	-11555
सिद्ध	-11556
▁एसएल	-11557
▁जीएस	-11558
▁बगैर	-11559
▁वीणा	-11560
▁वैद्य	-11561
▁पुत्रों	-11562
▁समृद्धि	-11563
▁गर्भावस्था	-11564
▁प्रोफार्मा	-11565
LR	-11566
ग्न	-11567
बेल	-11568
विल	-11569
▁AC	-11570
ंसित	-11571
माही	-11572
रण्य	-11573
र्धा	-11574
▁हर्	-11575
द्रता	-11576
भागीय	-11577
▁एनआर	-11578
▁चंदर	-11579
▁ज़ोर	-11580
▁टोकन	-11581
▁ढलान	-11582
▁पराग	-11583
▁फ़िर	-11584
▁मुर्	-11585
▁लिखत	-11586
मास्टर	-11587
▁कंकाल	-11588
▁पाउंड	-11589
▁मथुरा	-11590
▁हुबली	-11591
ब्दियों	-11592
▁एक्सपी	-11593
▁कॉन्फ़	-11594
▁चिन्ता	-11595
▁मलयालम	-11596
▁महाजार	-11597
▁मित्रा	-11598
▁करोड़ों	-11599
▁जबरदस्त	-11600
▁युग्मित	-11601
▁प्रमुखों	-11602
▁उद्देश्यपूर्ण	-11603
▁लव	-11604
▁अमी	-11605
▁कोच	-11606
▁छठे	-11607
▁तैर	-11608
▁कब्र	-11609
▁ज्या	-11610
▁सुगम	-11611
▁अतिथि	-11612
▁एनओसी	-11613
▁बहनों	-11614
▁यूएसए	-11615
▁शुष्क	-11616
▁समेकन	-11617
▁नरसिंह	-11618
▁संज्ञा	-11619
▁कंडक्टर	-11620
▁श्रीलंका	-11621
▁कट्टरपंथी	-11622
▁संलिप्तता	-11623
▁राष्ट्रीयता	-11624
sh	-11625
aoM	-11626
जूर	-11627
जेड	-11628
एफआर	-11629
▁टेल	-11630
नीतिक	-11631
▁ईश्व	-11632
▁एमटी	-11633
▁केवी	-11634
▁क्षी	-11635
▁दुखद	-11636
▁बदली	-11637
▁शासी	-11638
▁सुदृ	-11639
▁खतरों	-11640
▁खाड़ी	-11641
▁बूढ़े	-11642
▁लिखकर	-11643
▁विभेद	-11644
▁सर्किल	-11645
▁प्रैक्ट	-11646
▁प्रोफ़ाइल	-11647
ॉयस	-11648
▁उग	-11649
▁एलसी	-11650
▁पल्ल	-11651
▁चालुक	-11652
▁जघन्य	-11653
▁फोटोक	-11654
▁अस्त्र	-11655
▁उद्घाटन	-11656
▁कन्हैया	-11657
▁आवश्यकताएं	-11658
उथ	-11659
गौ	-11660
ध्द	-11661
रात	-11662
ापी	-11663
वारे	-11664
▁टोक	-11665
▁तूफ	-11666
▁बहू	-11667
त्रिक	-11668
मुश्त	-11669
संहार	-11670
▁East	-11671
▁गोपी	-11672
▁दस्त	-11673
▁पंकज	-11674
▁पायल	-11675
▁लगाये	-11676
▁वर्गम	-11677
▁वर्गा	-11678
▁समूचे	-11679
▁क्योकि	-11680
▁तस्करी	-11681
▁दिखाती	-11682
▁बढ़ाते	-11683
▁लेक्चर	-11684
▁वडोदरा	-11685
▁महिलाएं	-11686
▁स्टाम्प	-11687
▁पुरस्कारों	-11688
▁कंस्ट्रक्शन	-11689
▁कॉन्ट्रैक्ट	-11690
▁साम्राज्यवाद	-11691
KA	-11692
wa	-11693
फन	-11694
नरी	-11695
▁मय	-11696
ल्टा	-11697
स्टन	-11698
▁कटि	-11699
▁मेध	-11700
▁मोन	-11701
▁राउ	-11702
▁शां	-11703
दाश्त	-11704
रलैंड	-11705
▁घंटा	-11706
▁फैले	-11707
▁बनारस	-11708
▁अकाउंट	-11709
▁एकाग्र	-11710
▁जुटाने	-11711
▁निकलना	-11712
▁सांसार	-11713
▁जीवनकाल	-11714
▁पुरोहित	-11715
▁रामलिंग	-11716
▁सुल्तान	-11717
▁प्रतिज्ञा	-11718
जिनी	-11719
▁बाघ	-11720
जेक्ट	-11721
▁अदाय	-11722
▁उठते	-11723
▁डीसी	-11724
ज्ञानी	-11725
▁देखिए	-11726
▁प्रया	-11727
▁मेहरा	-11728
▁ग्रीवा	-11729
▁दुबारा	-11730
▁सभापति	-11731
▁हिम्मत	-11732
▁परिष्कृत	-11733
▁एग्रीमेंट	-11734
▁प्रशिक्षु	-11735
▁मध्यवर्ती	-11736
▁एंटरप्राइज	-11737
▁संरचनात्मक	-11738
▁औपचारिकताओं	-11739
ty	-11740
दीन	-11741
hara	-11742
किया	-11743
फाइड	-11744
्यवश	-11745
▁एंथ	-11746
▁फंस	-11747
▁रवै	-11748
▁रिए	-11749
▁लौह	-11750
▁शिल	-11751
▁हिट	-11752
संबंध	-11753
▁इनको	-11754
▁डीआई	-11755
▁तरफ़	-11756
▁लाते	-11757
▁शेखर	-11758
▁अवांछ	-11759
▁किश्त	-11760
▁ग्लोबल	-11761
▁दांतों	-11762
▁मत्स्य	-11763
▁किन्हीं	-11764
▁संवेदना	-11765
▁समझदारी	-11766
▁सरकारें	-11767
▁व्यक़्ति	-11768
▁निगोशिएबल	-11769
RE	-11770
ढी	-11771
▁छी	-11772
ुलेंस	-11773
▁असीम	-11774
▁आभास	-11775
▁कोटि	-11776
▁ट्रॉ	-11777
▁पौधा	-11778
▁बसंत	-11779
▁मीरा	-11780
▁समतल	-11781
▁सिंड	-11782
▁करुणा	-11783
▁पदनाम	-11784
▁बीतने	-11785
▁भिक्ष	-11786
▁भ्रमण	-11787
▁मिलों	-11788
▁फिटनेस	-11789
▁फोल्डर	-11790
▁रीडिंग	-11791
▁रुकावट	-11792
▁उच्छेदन	-11793
▁संकल्पना	-11794
▁विज्ञापनों	-11795
▁कार्यान्वित	-11796
टि	-11797
ost	-11798
▁Co	-11799
▁ढ़	-11800
ance	-11801
▁KAR	-11802
▁एमई	-11803
▁ऑयल	-11804
▁नाच	-11805
▁बहि	-11806
▁मिड	-11807
▁वेल	-11808
▁सक्	-11809
ंडिंग	-11810
▁कुएं	-11811
▁कैंप	-11812
▁जांघ	-11813
▁बजाए	-11814
▁भूरे	-11815
▁भैंस	-11816
▁म्यू	-11817
▁द्वेष	-11818
▁पाउडर	-11819
▁बदलता	-11820
▁वंशान	-11821
▁सवारी	-11822
▁कानूनन	-11823
▁स्वरुप	-11824
▁दिखाएगा	-11825
▁ग्लोरिया	-11826
▁परित्याग	-11827
▁अस्पतालों	-11828
MA	-11829
ैड	-11830
ore	-11831
▁NI	-11832
abad	-11833
ूलाल	-11834
ेंडम	-11835
रेटरी	-11836
वर्तन	-11837
▁आएगी	-11838
रीक्षा	-11839
▁लार्ड	-11840
र्दिष्ट	-11841
▁रसीदें	-11842
▁सीलबंद	-11843
▁सेक्टर	-11844
▁किताबों	-11845
▁आत्मघाती	-11846
▁अपार्टमेंट	-11847
ge	-11848
एफए	-11849
कुम	-11850
▁ओल	-11851
ंजीत	-11852
गरीय	-11853
▁इंप	-11854
▁ईआर	-11855
▁खाट	-11856
▁जोन	-11857
▁बाण	-11858
▁वरु	-11859
▁सला	-11860
▁अतुल	-11861
▁टकरा	-11862
▁डिपो	-11863
▁बोना	-11864
▁मुल्	-11865
▁वसंत	-11866
धारकों	-11867
▁खानों	-11868
▁ज़रूरी	-11869
▁मुन्ना	-11870
▁वर्ल्ड	-11871
▁निर्वास	-11872
▁प्रथाओं	-11873
▁सुपुर्द	-11874
▁अवस्थाओं	-11875
▁वर्गाकार	-11876
▁उपयोगकर्ताओं	-11877
tr	-11878
इंग	-11879
▁एट	-11880
हरों	-11881
▁REV	-11882
▁कन्	-11883
▁गिल	-11884
▁बेन	-11885
▁द्रो	-11886
▁फ़ोन	-11887
▁मतों	-11888
स्फीति	-11889
▁WPNos	-11890
▁अधिनयम	-11891
▁डेवलपर	-11892
▁फार्मा	-11893
▁मन्दिर	-11894
▁वैल्यू	-11895
▁श्रद्ध	-11896
▁पाश्चात	-11897
▁वर्गमूल	-11898
▁निष्पादक	-11899
▁चक्रवर्ती	-11900
▁प्रतिनिधिमंडल	-11901
सऋ	-11902
बैक	-11903
RICT	-11904
दानी	-11905
प्पन	-11906
फ्फु	-11907
मिली	-11908
ावरी	-11909
▁Lal	-11910
▁तीर	-11911
▁उभार	-11912
▁कड़े	-11913
▁फेडर	-11914
eshwar	-11915
▁कोनों	-11916
▁त्रिप	-11917
▁पार्व	-11918
▁पेरिस	-11919
▁भागते	-11920
▁राक्ष	-11921
▁सुचार	-11922
▁एमएलसी	-11923
▁जापानी	-11924
▁आन्तरिक	-11925
▁कार्रवा	-11926
▁गलतफहमी	-11927
▁दोहराते	-11928
▁द्वीपों	-11929
▁आच्छादित	-11930
▁आवंटियों	-11931
▁उपनियमों	-11932
▁धर्मशाला	-11933
▁सांसारिक	-11934
ॉर्क	-11935
▁ढोल	-11936
▁यदु	-11937
तियां	-11938
धारित	-11939
ांतिक	-11940
▁NAME	-11941
▁कचरा	-11942
▁बेतु	-11943
▁सुनते	-11944
▁संकेतक	-11945
▁संभाला	-11946
▁हैसियत	-11947
▁प्रादेश	-11948
▁विकिपीडिया	-11949
▁मंत्रिपरिषद	-11950
▁न्यायाधिकरणों	-11951
ऑफ	-11952
ंभव	-11953
खने	-11954
धना	-11955
षाण	-11956
▁NO	-11957
▁वफ	-11958
▁शम	-11959
पकों	-11960
बाज़	-11961
▁मता	-11962
▁रोट	-11963
▁दलित	-11964
▁धनुष	-11965
▁सेल्स	-11966
▁करवाने	-11967
▁निपटाए	-11968
▁स्नायु	-11969
▁फ़ाइलें	-11970
▁फेफड़ों	-11971
▁स्वदेशी	-11972
▁उत्तरार्द्ध	-11973
गर्	-11974
ादे	-11975
▁Lim	-11976
▁धर्	-11977
▁बीर	-11978
खेड़ा	-11979
गाड़ी	-11980
▁अनुभ	-11981
▁कटाई	-11982
▁जेएन	-11983
▁आंत्र	-11984
▁उल्टी	-11985
▁कामया	-11986
▁तटस्थ	-11987
▁पप्पू	-11988
▁चेष्टा	-11989
▁झाड़ियों	-11990
▁प्राप्तकर्ता	-11991
आइ	-11992
hool	-11993
ंजलि	-11994
हिया	-11995
ोग्य	-11996
▁चाँ	-11997
▁मरण	-11998
▁गांठ	-11999
▁चारा	-12000
▁नायर	-12001
क्षरों	-12002
नारायण	-12003
▁अनजान	-12004
▁उठाता	-12005
▁कोल्ह	-12006
▁नक्शे	-12007
्ट्समैन	-12008
▁एकीकरण	-12009
▁जंगलों	-12010
▁अवशिष्ट	-12011
▁एजेंटों	-12012
▁दुकानें	-12013
▁कॉन्फ़िगर	-12014
▁सम्बन्धों	-12015
LJ	-12016
माइ	-12017
कुलर	-12018
▁अशु	-12019
▁कोत	-12020
▁पेन	-12021
▁बोत	-12022
▁सफ़	-12023
▁उंगल	-12024
▁छत्र	-12025
▁वनों	-12026
▁वृंद	-12027
▁हमास	-12028
ड़ियां	-12029
▁ओबीसी	-12030
▁घटाकर	-12031
▁उत्थान	-12032
▁मेधावी	-12033
▁अनुपूरक	-12034
▁पार्किंग	-12035
▁फोटोकॉपी	-12036
▁प्राचार्य	-12037
▁बीमारियों	-12038
▁रिपोर्टिंग	-12039
घ्न	-12040
फिक	-12041
्यम	-12042
यंती	-12043
ूंगी	-12044
▁बकर	-12045
▁महि	-12046
▁राग	-12047
▁रूट	-12048
▁लसी	-12049
▁वाउ	-12050
▁शिक	-12051
▁फार्	-12052
▁मच्छ	-12053
▁रोना	-12054
▁सजीव	-12055
▁चिंटू	-12056
▁निष्ठ	-12057
▁महाजन	-12058
▁सहभाग	-12059
▁फिरौती	-12060
▁विश्लेषक	-12061
▁उम्मीदवारी	-12062
▁क्रियान्वयन	-12063
▁cr	-12064
▁आं	-12065
ions	-12066
ब्बी	-12067
▁FIR	-12068
▁लॉज	-12069
▁शॉप	-12070
ंत्रण	-12071
्रियल	-12072
▁एनएच	-12073
▁क्षम	-12074
▁जीएम	-12075
▁टिकी	-12076
▁मंदी	-12077
▁रिंग	-12078
▁आभासी	-12079
▁ध्येय	-12080
▁पित्त	-12081
▁बेलगाम	-12082
▁मजबूती	-12083
▁शौचालय	-12084
▁हालिया	-12085
▁प्रक्रम	-12086
▁संक्रमित	-12087
▁अव्यवस्था	-12088
ond	-12089
द्घ	-12090
पार	-12091
बनी	-12092
▁कद	-12093
▁लघ	-12094
ादान	-12095
▁पिर	-12096
▁हनी	-12097
▁हमी	-12098
▁इंसो	-12099
▁ग्ला	-12100
▁पेटी	-12101
▁फलों	-12102
▁यहूद	-12103
▁वेंक	-12104
▁साम्	-12105
▁अठारह	-12106
▁कस्टम	-12107
▁क्लाज	-12108
▁नजदीक	-12109
▁पत्ते	-12110
▁Chrome	-12111
▁अमूर्त	-12112
▁दिवंगत	-12113
▁नवम्बर	-12114
▁अक्षरों	-12115
▁पहुंचती	-12116
▁शिष्यों	-12117
▁DISTRICT	-12118
▁ड्राफ्ट्समैन	-12119
ov	-12120
आन	-12121
ोली	-12122
ापाई	-12123
▁Shi	-12124
▁आरओ	-12125
▁छठी	-12126
विंदर	-12127
▁उभरा	-12128
▁कतार	-12129
▁तेरह	-12130
▁वल्ल	-12131
▁वाइस	-12132
ान्वित	-12133
्रीकरण	-12134
▁अंकगण	-12135
▁कथाओं	-12136
▁पसन्द	-12137
▁शरारत	-12138
▁अदायगी	-12139
▁मिस्टर	-12140
▁शृंखला	-12141
▁संकलित	-12142
▁नांदेड़	-12143
▁महादेवी	-12144
▁मेगावाट	-12145
▁हाथापाई	-12146
▁अनुशंसित	-12147
▁करनेवाले	-12148
▁केन्द्रित	-12149
▁बहुसंख्यक	-12150
ans	-12151
चड़	-12152
ोही	-12153
part	-12154
एलटी	-12155
▁शरा	-12156
प्रति	-12157
▁काटा	-12158
▁टेबल	-12159
▁देसी	-12160
▁यूनि	-12161
▁सूखा	-12162
ापूर्व	-12163
▁अमिता	-12164
▁रहमान	-12165
▁अर्पित	-12166
▁गणितीय	-12167
▁निपटते	-12168
▁लाइब्रे	-12169
▁स्वच्छता	-12170
▁उत्पादकों	-12171
▁एवोल्यूशन	-12172
▁प्रामाणिकता	-12173
कूट	-12174
तेह	-12175
▁ओएम	-12176
▁वगै	-12177
▁शकु	-12178
धार्थ	-12179
▁चेतन	-12180
▁ठंडा	-12181
▁दाता	-12182
▁वाचा	-12183
▁कथनों	-12184
▁जीवनी	-12185
▁सुनाए	-12186
बोरेटरी	-12187
▁अलंकरण	-12188
▁कुर्की	-12189
▁चीज़ों	-12190
▁फेंकने	-12191
▁बाधाओं	-12192
▁राजपूत	-12193
▁विराट्	-12194
▁एकमुश्त	-12195
▁निम्नतर	-12196
▁क्रमादेश	-12197
▁घटनाक्रम	-12198
▁अंतर्विरोध	-12199
▁यूनिवर्सिटी	-12200
इटर	-12201
कने	-12202
देय	-12203
ोधन	-12204
▁DE	-12205
▁ईएम	-12206
▁खोद	-12207
▁झाँ	-12208
▁चरित	-12209
▁त्यौ	-12210
▁मुसी	-12211
▁समेत	-12212
▁सीजे	-12213
▁Chand	-12214
▁कीमती	-12215
▁दोहरी	-12216
▁भगवती	-12217
▁योगेश	-12218
▁रोबोट	-12219
▁हवाले	-12220
▁ह्रास	-12221
▁एक्सटी	-12222
▁बर्बाद	-12223
▁शाश्वत	-12224
▁कविताएं	-12225
▁ऑपरेटिंग	-12226
▁कन्वेंशन	-12227
▁पत्तियों	-12228
▁परमात्मा	-12229
▁विकल्पों	-12230
HAR	-12231
भवन	-12232
माश	-12233
शरण	-12234
ौना	-12235
ौरी	-12236
क्रि	-12237
षदों	-12238
ेंदर	-12239
▁नबी	-12240
कर्षण	-12241
▁कांच	-12242
▁ज्यू	-12243
▁टीपी	-12244
▁बालू	-12245
▁सेवार	-12246
▁एकान्त	-12247
▁गारंटर	-12248
▁देहाती	-12249
▁मित्तल	-12250
ृत्तियों	-12251
▁अनिश्चितता	-12252
▁कंट्राबेंड	-12253
▁त्रुटिपूर्ण	-12254
ामस	-12255
▁US	-12256
▁रिप	-12257
खानों	-12258
पृष्ठ	-12259
मार्ट	-12260
▁इसमे	-12261
▁वक्ष	-12262
▁वफाद	-12263
▁सबका	-12264
▁जयपुर	-12265
▁द्विप	-12266
▁भूगोल	-12267
▁मुरली	-12268
▁वास्त	-12269
▁अमृतसर	-12270
▁उन्नीस	-12271
▁डीआरटी	-12272
▁तीक्ष्	-12273
▁स्क्री	-12274
▁महत्वाक	-12275
▁महासचिव	-12276
▁श्लोकों	-12277
▁सरोजिनी	-12278
▁सावित्री	-12279
▁प्रादेशिक	-12280
▁विनाशकारी	-12281
▁लेखापरीक्षा	-12282
▁प्राधिकारियों	-12283
PP	-12284
TPA	-12285
मणि	-12286
लयन	-12287
शेद	-12288
शेष	-12289
▁चाइ	-12290
▁पटव	-12291
▁बक्	-12292
▁मुव	-12293
पट्टी	-12294
▁उमेश	-12295
▁गुड़	-12296
▁प्रज	-12297
▁सचिन	-12298
▁कच्चा	-12299
▁गिरीश	-12300
▁न्यास	-12301
▁रणजीत	-12302
▁निष्फल	-12303
▁समझदार	-12304
▁यथासंभव	-12305
▁स्तंभों	-12306
▁अनुपयुक्त	-12307
▁शताब्दियों	-12308
mis	-12309
स्ड	-12310
▁असे	-12311
▁एलए	-12312
▁खेद	-12313
▁ड्रा	-12314
▁फरसा	-12315
▁लाये	-12316
▁खुराक	-12317
▁गायों	-12318
▁जमशेद	-12319
▁जागरण	-12320
▁जीवंत	-12321
▁देखती	-12322
▁पर्ची	-12323
▁फायदे	-12324
▁बदलती	-12325
▁बारीकी	-12326
▁मुनाफा	-12327
्यक्रिया	-12328
▁एचएलईसी	-12329
▁मेहरअली	-12330
▁निवेदिता	-12331
▁साम्राज़	-12332
▁पाश्चात्य	-12333
▁रिटर्निंग	-12334
▁इंस्ट्रूमेंट्स	-12335
IX	-12336
▁LA	-12337
▁MM	-12338
▁NH	-12339
▁आभ	-12340
▁खज	-12341
चरित	-12342
डीआर	-12343
लाइट	-12344
▁LIN	-12345
▁टां	-12346
▁फलक	-12347
▁गुरब	-12348
▁शंका	-12349
▁अहसास	-12350
▁आठवीं	-12351
▁डेंटल	-12352
▁फ्रेंच	-12353
▁प्रतिफल	-12354
▁रामकृष्ण	-12355
IF	-12356
लिप	-12357
र्मर	-12358
▁इटली	-12359
▁कुंड	-12360
▁जंतु	-12361
▁फकीर	-12362
▁भरना	-12363
▁रंगा	-12364
▁सुखद	-12365
▁पूँजी	-12366
▁फील्ड	-12367
▁महिमा	-12368
▁शिष्ट	-12369
▁संघों	-12370
▁School	-12371
▁उदारता	-12372
▁चीज़ें	-12373
▁छुपाया	-12374
▁भूमिगत	-12375
▁त्यौहार	-12376
▁नजरबंदी	-12377
▁पार्टनर	-12378
▁रिएक्टर	-12379
धिकारियों	-12380
▁अधिरोपित	-12381
▁प्रताड़ित	-12382
▁प्रतिवेदन	-12383
फॉ	-12384
जनी	-12385
जुट	-12386
टूर	-12387
चकों	-12388
चेतन	-12389
स्तर	-12390
▁गड्	-12391
▁बिछ	-12392
लीकरण	-12393
▁एलजे	-12394
▁मैरी	-12395
▁नियति	-12396
▁भाँति	-12397
▁विषयक	-12398
▁वेटेज	-12399
▁वर्तनी	-12400
▁एसोसिएट	-12401
▁अनुष्ठान	-12402
▁ट्रांसफ़	-12403
▁पर्यटकों	-12404
▁यहूदियों	-12405
ईस	-12406
२२	-12407
ell	-12408
शाक	-12409
सना	-12410
सरी	-12411
गारी	-12412
भोगी	-12413
ल्टर	-12414
ावुर	-12415
▁BEN	-12416
▁जेर	-12417
▁नोए	-12418
▁पूल	-12419
▁रमन	-12420
▁सटे	-12421
▁एचटी	-12422
▁एलडी	-12423
▁घुमा	-12424
▁प्रह	-12425
▁बीआई	-12426
▁स्कू	-12427
मिश्रण	-12428
▁अय्यर	-12429
▁चिन्तन	-12430
▁सीलिंग	-12431
▁जातियां	-12432
▁दुराचार	-12433
▁प्रचालन	-12434
▁पैरामीटर	-12435
▁प्रवृत्त	-12436
▁धारावाहिक	-12437
शान	-12438
न्सी	-12439
▁नाश	-12440
▁मों	-12441
यार्क	-12442
िकाने	-12443
▁अंकन	-12444
▁क्षय	-12445
▁त्या	-12446
▁वॉयस	-12447
▁व्हा	-12448
▁सपने	-12449
▁सब्ज	-12450
▁अकेली	-12451
▁कमलेश	-12452
▁डालें	-12453
▁मनाने	-12454
▁लुप्त	-12455
ॉल्यूशन	-12456
▁अलमस्त	-12457
▁उपरांत	-12458
▁जबलपुर	-12459
▁पुजारी	-12460
▁महादेव	-12461
▁वर्क्स	-12462
▁सर्किट	-12463
▁नानालाल	-12464
▁पार्वती	-12465
▁राममोहन	-12466
▁वंशानुगत	-12467
▁समितियां	-12468
▁स्टेशनों	-12469
DS	-12470
षऋ	-12471
्ध	-12472
VAT	-12473
▁co	-12474
ंट्स	-12475
▁ईसी	-12476
▁कोठ	-12477
▁फास	-12478
▁भजन	-12479
जीभाई	-12480
पात्र	-12481
▁ROAD	-12482
▁अजीत	-12483
▁दराज	-12484
▁बहती	-12485
▁सपना	-12486
▁सुलभ	-12487
▁होस्ट	-12488
▁आक्षेप	-12489
▁तुम्हे	-12490
▁युसुफ़	-12491
▁दुर्भाग	-12492
▁उपयुक्तता	-12493
▁मृत्युदंड	-12494
हम	-12495
ंधा	-12496
गृह	-12497
थुर	-12498
रां	-12499
सला	-12500
▁शत	-12501
लाइड	-12502
ल्पी	-12503
व्रत	-12504
▁कटे	-12505
देशीय	-12506
ान्ति	-12507
ेंबली	-12508
▁केके	-12509
▁युगल	-12510
▁लटका	-12511
वेन्यू	-12512
▁कुप्र	-12513
▁नाभिक	-12514
▁रेडिय	-12515
▁सांसद	-12516
▁स्क्व	-12517
▁हममें	-12518
▁निकटतम	-12519
▁परिषद्	-12520
▁भवभूति	-12521
▁लक्ष्म	-12522
▁निधियों	-12523
▁फ़ाइलों	-12524
▁सर्कुलर	-12525
▁स्मार्ट	-12526
▁आनुपातिक	-12527
▁संप्रेषण	-12528
▁वार्तालाप	-12529
▁उपलब्धियों	-12530
▁हस्ताक्षरों	-12531
प्टर	-12532
वर्ण	-12533
▁पिच	-12534
▁वरन	-12535
ोध्या	-12536
ोलनों	-12537
▁कैमरा	-12538
▁नवजात	-12539
जनात्मक	-12540
▁अहंकार	-12541
▁मार्शल	-12542
▁सेवारत	-12543
▁निष्कासित	-12544
sil	-12545
▁CE	-12546
ल्हे	-12547
स्की	-12548
्तिक	-12549
▁Col	-12550
▁फ़र	-12551
▁मूक	-12552
▁शिर	-12553
▁इर्द	-12554
▁छापा	-12555
▁धमनी	-12556
▁पेंट	-12557
▁श्या	-12558
▁एकत्व	-12559
▁कमरों	-12560
▁कर्मी	-12561
▁क्रोम	-12562
▁नम्बर	-12563
▁भूकंप	-12564
▁मैथुन	-12565
▁स्थाई	-12566
▁डिमांड	-12567
▁बढ़िया	-12568
निरपेक्ष	-12569
▁अवरुद्ध	-12570
▁असंगतता	-12571
▁क्लिनिक	-12572
▁फायरिंग	-12573
▁लेक्चरर	-12574
▁समयबद्ध	-12575
▁हार्दिक	-12576
▁स्क्रीनिंग	-12577
aa	-12578
ne	-12579
eri	-12580
यती	-12581
ेकर	-12582
्टर	-12583
▁ओज	-12584
तत्व	-12585
पाही	-12586
▁Sri	-12587
▁पीर	-12588
▁OANo	-12589
▁घबरा	-12590
▁झुंड	-12591
▁झुका	-12592
▁टोपी	-12593
▁दयाल	-12594
▁निशा	-12595
▁रीढ़	-12596
▁पढ़कर	-12597
▁पहनने	-12598
▁फरमान	-12599
▁मक्का	-12600
▁मिलें	-12601
त्साहित	-12602
▁एनसीटी	-12603
▁परवर्ती	-12604
▁मार्गों	-12605
▁मैदानों	-12606
▁संभवतया	-12607
▁कॉरपोरेट	-12608
▁पारिस्थित	-12609
uk	-12610
क्व	-12611
▁हौ	-12612
▁जनन	-12613
▁टाव	-12614
ंत्री	-12615
र्जित	-12616
▁आदिम	-12617
▁चतुर	-12618
▁दांव	-12619
द्वारा	-12620
ियाबाद	-12621
▁अंदाज	-12622
▁एकजुट	-12623
▁रद्दी	-12624
▁कुलदीप	-12625
▁पुनर्भ	-12626
▁बढ़ाता	-12627
▁मन्त्र	-12628
▁यूनानी	-12629
▁राजकोष	-12630
▁सिपाही	-12631
प्रदायिक	-12632
▁अयोध्या	-12633
▁इंग्लिश	-12634
▁प्राणिक	-12635
▁छात्रावास	-12636
▁महानिरीक्षक	-12637
HA	-12638
पस	-12639
ust	-12640
कां	-12641
धाम	-12642
▁by	-12643
ANAG	-12644
सवाल	-12645
▁कुद	-12646
▁चलन	-12647
▁बेव	-12648
▁लैब	-12649
ंबद्ध	-12650
द्दाम	-12651
▁करोड	-12652
▁कस्त	-12653
▁चाची	-12654
▁साधक	-12655
▁सेमे	-12656
▁अनीता	-12657
▁उपवास	-12658
▁गिर्द	-12659
▁रवैये	-12660
▁समाधि	-12661
▁पत्तों	-12662
▁ग्रीष्म	-12663
▁तंजावुर	-12664
▁संस्थाएं	-12665
▁रिक्तियां	-12666
▁आपूर्तिकर्ता	-12667
▁इस्लामवादियों	-12668
जलि	-12669
पों	-12670
▁AB	-12671
▁टच	-12672
aria	-12673
pura	-12674
ंजना	-12675
ौकिक	-12676
▁एपे	-12677
▁एसओ	-12678
▁जूट	-12679
क्राम	-12680
पुत्र	-12681
वाहित	-12682
▁एसएन	-12683
▁खाती	-12684
▁मेला	-12685
पराइटर	-12686
▁ज्यों	-12687
▁नोएडा	-12688
▁लॉगिन	-12689
▁विलास	-12690
▁पिताजी	-12691
▁पुख्ता	-12692
▁रिव्यू	-12693
▁बोर्डों	-12694
▁स्टैम्प	-12695
▁एफटीआईएल	-12696
▁भूतपूर्व	-12697
RAD	-12698
▁शू	-12699
▁OCC	-12700
तमाला	-12701
▁अर्ह	-12702
▁एचयू	-12703
▁घुड़	-12704
▁निंद	-12705
▁पाकर	-12706
▁पीजी	-12707
▁भृंग	-12708
▁रेज़	-12709
▁विकट	-12710
▁हरेक	-12711
▁जयंती	-12712
▁प्राग	-12713
▁फीसदी	-12714
▁बनाएं	-12715
▁अद्वैत	-12716
▁कुत्ते	-12717
▁ठिकाने	-12718
▁फेशियल	-12719
▁संध्या	-12720
▁स्याही	-12721
▁एकरूपता	-12722
▁वैचारिक	-12723
▁स्पेक्ट	-12724
▁ट्रैकिंग	-12725
▁फोटोग्राफ	-12726
▁अधिसूचनाओं	-12727
▁कम्युनिस्ट	-12728
▁राष्ट्रवादी	-12729
▁कार्यप्रणाली	-12730
de	-12731
भन	-12732
तौर	-12733
सेफ	-12734
ेता	-12735
▁SI	-12736
▁ऋस	-12737
पारा	-12738
बानी	-12739
▁जीभ	-12740
▁डिस	-12741
▁भाल	-12742
▁रिच	-12743
च्युत	-12744
▁भीषण	-12745
▁भुला	-12746
▁मापन	-12747
▁मेजर	-12748
GALURU	-12749
▁Patna	-12750
▁उद्गम	-12751
▁जार्ज	-12752
▁परिणत	-12753
▁वाउचर	-12754
▁सीतार	-12755
▁सैंपल	-12756
▁हजारी	-12757
▁प्रातः	-12758
▁प्रीति	-12759
▁यदुनाथ	-12760
▁श्रव्य	-12761
▁ओवरराइड	-12762
▁पत्रकार	-12763
▁संप्रतीक	-12764
▁इच्छाशक्ति	-12765
▁न्यायपूर्ण	-12766
▁रेस्पोंडेंट	-12767
टीएस	-12768
यनगर	-12769
लिटी	-12770
ल्लम	-12771
श्मन	-12772
▁RFA	-12773
▁ऑर्	-12774
▁मल्	-12775
किनार	-12776
र्मित	-12777
र्वाद	-12778
स्वाम	-12779
▁कड़ा	-12780
▁घोड़	-12781
▁डिपॉ	-12782
▁मेरठ	-12783
▁वरुण	-12784
▁अस्वा	-12785
▁महोदय	-12786
▁मारना	-12787
▁रेस्त	-12788
▁सचेतन	-12789
▁उल्लास	-12790
▁पिल्लई	-12791
▁पुष्पा	-12792
▁शिवाजी	-12793
▁सिक्यो	-12794
▁गोरखपुर	-12795
▁ड्राइंग	-12796
▁दरकिनार	-12797
▁संवितरण	-12798
▁सम्प्रदाय	-12799
▁शल्यक्रिया	-12800
ॉं	-12801
ain	-12802
ated	-12803
▁LPA	-12804
▁dtd	-12805
आधारी	-12806
▁Naya	-12807
▁West	-12808
▁जीपी	-12809
▁रखनी	-12810
▁एसबीआई	-12811
▁सोमनाथ	-12812
▁चौकीदार	-12813
▁परमेश्वर	-12814
▁न्यूयार्क	-12815
▁प्रत्यायोजित	-12816
adi	-12817
कलाप	-12818
कांड	-12819
ुप्त	-12820
▁कास	-12821
▁थाः	-12822
▁पिघ	-12823
▁लाश	-12824
्रेसी	-12825
▁छपाई	-12826
▁पारे	-12827
▁बरती	-12828
▁रजनी	-12829
▁रेफर	-12830
▁लम्ब	-12831
▁सुवि	-12832
▁होली	-12833
कात्मक	-12834
▁बलवंत	-12835
▁रिफंड	-12836
▁वृक्क	-12837
▁अघोषित	-12838
▁तात्या	-12839
▁दुश्मन	-12840
▁पर्याय	-12841
▁बढ़ेगा	-12842
▁मोहल्ला	-12843
▁स्ट्रीम	-12844
▁संक्रामक	-12845
▁पर्वतमाला	-12846
▁शिकायतकर्ताओं	-12847
ड़ो	-12848
बाध	-12849
ोरो	-12850
▁ईओ	-12851
शोधन	-12852
▁Cha	-12853
▁अपद	-12854
▁दाद	-12855
▁पसी	-12856
न्दगी	-12857
ष्टिक	-12858
▁उठती	-12859
▁एजीए	-12860
▁घाटे	-12861
▁तारे	-12862
▁नक़ल	-12863
▁हर्ज	-12864
▁बेजबर	-12865
▁हरिजन	-12866
▁अनुभवी	-12867
▁कीटनाश	-12868
▁कोरिया	-12869
▁तिमाही	-12870
▁पाएंगे	-12871
▁लक्षित	-12872
▁लेटर्स	-12873
▁एससीआरए	-12874
▁चंद्रमा	-12875
▁श्रीराम	-12876
▁संप्रेषित	-12877
▁सिद्धार्थ	-12878
xx	-12879
नाद	-12880
रिश	-12881
ुली	-12882
रचना	-12883
▁PWs	-12884
▁बेड	-12885
द्धार	-12886
▁एजें	-12887
▁चुनी	-12888
▁पिक्	-12889
▁यानि	-12890
▁गलिया	-12891
▁ज़मान	-12892
▁डिटेन	-12893
▁दूंगा	-12894
▁भाजपा	-12895
▁सैद्ध	-12896
▁सॉल्व	-12897
▁अदृश्य	-12898
▁अनुरुप	-12899
▁पागलपन	-12900
▁निर्बाध	-12901
▁कहानियां	-12902
▁परंपराओं	-12903
▁BENGALURU	-12904
▁कॉन्स्टेबल	-12905
PW	-12906
ौड़	-12907
▁Pur	-12908
▁थिर	-12909
▁सीओ	-12910
फील्ड	-12911
▁खगोल	-12912
▁नंदा	-12913
▁पर्ण	-12914
▁पोषक	-12915
▁बंडल	-12916
▁अपडेट	-12917
▁डालती	-12918
▁डीटीए	-12919
▁पार्थ	-12920
▁बगीचे	-12921
▁भावुक	-12922
▁माइनस	-12923
▁मोक्ष	-12924
▁पर्यटक	-12925
▁फुफ्फु	-12926
ERE	-12927
ौजी	-12928
्वल	-12929
पाली	-12930
▁शेड	-12931
ुक्रम	-12932
▁एलएल	-12933
▁पाचन	-12934
▁फतेह	-12935
▁यूसु	-12936
▁रीडर	-12937
▁वासु	-12938
▁विदा	-12939
▁जीतने	-12940
▁राउंड	-12941
▁विनती	-12942
मानुसार	-12943
▁अंगूठी	-12944
▁आरबीआई	-12945
▁डेल्टा	-12946
▁पहचाने	-12947
▁पुरातन	-12948
▁पूर्वज	-12949
▁वृक्षों	-12950
▁शॉर्टकट	-12951
▁पूर्णांक	-12952
▁पूर्वानु	-12953
▁प्रदर्शक	-12954
▁विश्वव्यापी	-12955
टित	-12956
▁शन	-12957
ayan	-12958
दीकी	-12959
प्रो	-12960
▁धाग	-12961
▁सहि	-12962
वलोकन	-12963
▁Madh	-12964
▁जेएम	-12965
▁दफ्त	-12966
▁विंग	-12967
▁नित्य	-12968
▁पॉइंट	-12969
▁बदलकर	-12970
▁विफलः	-12971
▁कैपिटल	-12972
▁सद्दाम	-12973
▁असेंबली	-12974
▁इच्छाओं	-12975
▁फाइनेंस	-12976
▁गाजियाबाद	-12977
▁स्वायत्तता	-12978
UK	-12979
ODU	-12980
महा	-12981
लिन	-12982
▁Sy	-12983
▁छंट	-12984
क्कड़	-12985
ियनों	-12986
▁रोमन	-12987
▁जिसको	-12988
▁द्रुत	-12989
▁भट्टा	-12990
▁महाले	-12991
▁लगाती	-12992
▁शालीन	-12993
▁सकेगी	-12994
▁स्टेड	-12995
▁शासकीय	-12996
▁सुदृढ़	-12997
▁गोलियां	-12998
▁परिसंपत्ति	-12999
▁धर्मनिरपेक्ष	-13000
VC	-13001
ly	-13002
डीह	-13003
वाइ	-13004
▁कैथ	-13005
▁कैव	-13006
▁जुग	-13007
▁सता	-13008
▁सनी	-13009
ॉजिकल	-13010
▁अफसर	-13011
▁कथान	-13012
▁बारा	-13013
▁बाली	-13014
▁मैके	-13015
▁यूके	-13016
▁उल्टा	-13017
▁कारगर	-13018
▁त्रास	-13019
▁भतीजे	-13020
▁रूढ़ि	-13021
▁साड़ी	-13022
▁सावधि	-13023
▁कन्नड़	-13024
▁डीपीसी	-13025
▁निगमित	-13026
▁पकड़ना	-13027
▁परोक्ष	-13028
▁फेफड़े	-13029
▁सदियों	-13030
▁सेनाओं	-13031
▁Limited	-13032
▁अप्राप्य	-13033
▁लाइसेंसिंग	-13034
▁प्रतीकात्मक	-13035
सरे	-13036
हीत	-13037
ाप्र	-13038
▁Kar	-13039
▁काठ	-13040
▁चाप	-13041
▁मकर	-13042
▁आप्र	-13043
▁खोजे	-13044
▁तिरू	-13045
▁देवे	-13046
▁बंसल	-13047
▁बोनस	-13048
▁महंत	-13049
▁वायर	-13050
▁अनपढ़	-13051
▁चचेरे	-13052
▁परवीन	-13053
▁मुर्ग	-13054
▁रिलीज	-13055
▁ख्याति	-13056
▁बहुलता	-13057
▁बोतलों	-13058
▁सूर्या	-13059
▁पोतन्ना	-13060
▁संग्रहण	-13061
स्ट्रक्चर	-13062
▁कार्यकार	-13063
▁नाममात्र	-13064
▁द्विआधारी	-13065
▁निश्चितता	-13066
UB	-13067
कोण	-13068
गिन	-13069
ठों	-13070
मुल	-13071
ेतन	-13072
्सा	-13073
▁ww	-13074
ग्ने	-13075
द्वि	-13076
पालक	-13077
साइज	-13078
▁पीई	-13079
▁हिच	-13080
ंद्रा	-13081
▁तटीय	-13082
च्छन्न	-13083
▁COTPA	-13084
▁ईएसआई	-13085
▁चलाते	-13086
▁दुष्ट	-13087
▁मौर्य	-13088
▁हटाकर	-13089
पंथियों	-13090
▁अंडमान	-13091
▁एपेक्स	-13092
▁पच्चीस	-13093
▁विजेता	-13094
▁आदर्शों	-13095
▁मतभेदों	-13096
▁उपेक्षित	-13097
▁त्रिवेदी	-13098
▁प्रख्यात	-13099
ंटल	-13100
खला	-13101
िसे	-13102
▁NC	-13103
▁बछ	-13104
िएटर	-13105
▁www	-13106
▁सघन	-13107
▁सप्	-13108
ालैंड	-13109
ोत्तम	-13110
▁कमान	-13111
▁गौरी	-13112
▁बलों	-13113
▁सूअर	-13114
▁जानकी	-13115
धारियों	-13116
▁एसआईटी	-13117
▁कहेंगे	-13118
▁विवेचन	-13119
▁अस्वस्थ	-13120
▁बुद्धिम	-13121
▁परिपक्वता	-13122
▁सैद्धांतिक	-13123
eb	-13124
और	-13125
सस	-13126
has	-13127
ंकू	-13128
ंगम	-13129
डेन	-13130
ंगनी	-13131
ज्जन	-13132
न्थि	-13133
रोपण	-13134
▁लात	-13135
▁आरती	-13136
▁इन्स	-13137
▁ग्ले	-13138
▁बतला	-13139
▁मामल	-13140
▁मुक़	-13141
▁स्कै	-13142
क्षमता	-13143
ान्तरण	-13144
▁ग्रिड	-13145
▁दुर्य	-13146
▁माउंट	-13147
▁मुवक्	-13148
▁00,000	-13149
▁फ़ारसी	-13150
▁विधायक	-13151
▁बस्तियों	-13152
▁विरोधियों	-13153
▁क्रियाकलाप	-13154
▁प्रदर्शनों	-13155
▁संपत्तियां	-13156
▁सिक्योरिटी	-13157
ऊं	-13158
▁एं	-13159
जिये	-13160
ण्डल	-13161
नाइट	-13162
▁एसए	-13163
▁कंब	-13164
▁केन	-13165
▁घिन	-13166
▁परह	-13167
▁मजू	-13168
▁शोथ	-13169
तावास	-13170
यॉर्क	-13171
▁कैसी	-13172
▁जीता	-13173
▁विशा	-13174
▁शाला	-13175
▁सरमा	-13176
▁सोशल	-13177
▁करेंः	-13178
▁तकिया	-13179
▁दबाकर	-13180
▁दामाद	-13181
▁नलिका	-13182
▁वजीफा	-13183
▁साकार	-13184
▁अनिच्छ	-13185
▁अनुराग	-13186
▁वामपंथी	-13187
▁साप्ताह	-13188
▁प्रभार्य	-13189
▁संग्रहीत	-13190
▁साक्षरता	-13191
▁कार्यक्षेत्र	-13192
CS	-13193
ँघ	-13194
बै	-13195
ुख	-13196
ial	-13197
काए	-13198
मनी	-13199
▁LR	-13200
▁Pr	-13201
▁इर	-13202
धुंध	-13203
ालतू	-13204
▁अरु	-13205
▁जोश	-13206
▁तान	-13207
▁यंग	-13208
नालॉग	-13209
ियाला	-13210
▁चादर	-13211
▁मदों	-13212
▁रखाव	-13213
▁विला	-13214
▁फ़िल्	-13215
▁मौकों	-13216
▁हुक्म	-13217
तानुसार	-13218
▁प्रलेख	-13219
▁महंगाई	-13220
▁रविवार	-13221
▁पंचायती	-13222
▁वार्मिंग	-13223
▁राजेन्द्र	-13224
▁संक्षिप्तता	-13225
▁पदाधिकारियों	-13226
▁प्रधानाचार्य	-13227
मेव	-13228
स्स	-13229
कर्ण	-13230
नीचर	-13231
भाजन	-13232
वियर	-13233
ोष्ठ	-13234
▁ठिक	-13235
▁टूटी	-13236
▁पारी	-13237
▁लाकर	-13238
▁साइड	-13239
▁आसमान	-13240
▁जैकेट	-13241
▁डेबिट	-13242
▁मलखान	-13243
▁अन्तरा	-13244
▁अपदस्थ	-13245
▁ग्रेटर	-13246
▁चुनावी	-13247
▁महासभा	-13248
▁मैत्री	-13249
▁राजवंश	-13250
▁मलेरिया	-13251
▁अतिरिक़्त	-13252
▁एम्बुलेंस	-13253
▁साप्ताहिक	-13254
▁लोकप्रियता	-13255
▁प्रविष्टियाँ	-13256
MP	-13257
२३	-13258
भुज	-13259
रोन	-13260
ल्म	-13261
ौनी	-13262
▁he	-13263
▁एर	-13264
▁घी	-13265
एंगे	-13266
एमएल	-13267
देही	-13268
ान्स	-13269
▁कवक	-13270
▁मरु	-13271
▁शरद	-13272
▁सैर	-13273
ODUCT	-13274
लीकृत	-13275
शिल्प	-13276
्यस्त	-13277
▁एलआर	-13278
▁पठान	-13279
▁कालीन	-13280
▁खन्ना	-13281
▁दुहरा	-13282
▁नोट्स	-13283
▁PRODUCT	-13284
▁अन्वेषक	-13285
▁परिसरों	-13286
▁पर्वतीय	-13287
▁भागलपुर	-13288
▁वाक्यों	-13289
▁वृंदावन	-13290
▁स्टेडियम	-13291
▁स्वराज्य	-13292
▁टेक्नोलॉजी	-13293
LC	-13294
ib	-13295
बस	-13296
ूफ	-13297
यित	-13298
▁ar	-13299
▁बँ	-13300
RISH	-13301
भाष्	-13302
ालों	-13303
ोत्त	-13304
▁दुम	-13305
▁पुत	-13306
▁मर्	-13307
▁आरडी	-13308
▁काना	-13309
▁पौंड	-13310
▁मुखर	-13311
▁बहुधा	-13312
▁उत्तरो	-13313
▁साहसिक	-13314
▁हेमराज	-13315
▁अराजकता	-13316
▁सियाराम	-13317
▁दिवालिया	-13318
▁संदर्भों	-13319
ESH	-13320
क्ख	-13321
ताप	-13322
तिर	-13323
सोस	-13324
▁xx	-13325
गिरि	-13326
गिरी	-13327
▁डिब	-13328
▁बसु	-13329
▁हेल	-13330
▁VIII	-13331
▁आरेख	-13332
▁कॉमन	-13333
▁छूने	-13334
▁तर्ज	-13335
▁तालि	-13336
▁फैशन	-13337
▁महार	-13338
निर्भर	-13339
▁अंगुल	-13340
▁खोलना	-13341
▁बागान	-13342
▁बैकअप	-13343
▁कार्बो	-13344
▁कृतज्ञ	-13345
▁खनिजों	-13346
▁फर्मों	-13347
▁महानगर	-13348
▁सिद्धि	-13349
▁सुचारू	-13350
▁सोनवीर	-13351
विज्ञानी	-13352
▁इस्तीफे	-13353
▁अंधाधुंध	-13354
▁अप्रभावी	-13355
▁उपाध्याय	-13356
▁प्रोफाइल	-13357
▁रेस्तरां	-13358
▁वित्तपोषण	-13359
▁व्यवहार्य	-13360
▁उत्तरवर्ती	-13361
▁गतिविधियाँ	-13362
▁नोटिफिकेशन	-13363
▁पर्याप्तता	-13364
▁साम्प्रदायिक	-13365
चों	-13366
जिक	-13367
एक्स	-13368
▁अँग	-13369
▁मुल	-13370
▁एसबी	-13371
▁क्रे	-13372
▁धीमा	-13373
▁पीबी	-13374
GALORE	-13375
▁छोड़ी	-13376
▁नगरों	-13377
▁पड़ना	-13378
ानात्मक	-13379
▁ऋणदाता	-13380
▁एकाउंट	-13381
▁एनालॉग	-13382
▁खाद्या	-13383
▁निशाना	-13384
▁समस्ती	-13385
▁सम्मुख	-13386
▁प्रभाकर	-13387
▁बाजारों	-13388
▁सीताराम	-13389
▁कोशिकाएं	-13390
▁प्रवर्तक	-13391
▁रियासतों	-13392
▁न्यूयॉर्क	-13393
▁नर्मदाशंकर	-13394
ैम	-13395
ATH	-13396
रोड	-13397
एसएस	-13398
रपुर	-13399
▁अश्	-13400
▁एम्	-13401
▁काव	-13402
▁कुच	-13403
▁गोध	-13404
शासित	-13405
▁LINK	-13406
▁कुंभ	-13407
▁क्रो	-13408
▁तंतु	-13409
▁पीला	-13410
▁मापा	-13411
▁शोधन	-13412
▁जेम्स	-13413
▁पंचों	-13414
▁फेंका	-13415
▁बताये	-13416
▁बनेगा	-13417
▁मधुकर	-13418
▁सन्नि	-13419
▁अप्रिय	-13420
▁एक्सेस	-13421
▁हरिश्च	-13422
▁परक्राम	-13423
▁इकबालिया	-13424
▁कोल्हटकर	-13425
▁पुरस्कृत	-13426
▁भर्तियों	-13427
▁शुक्रवार	-13428
▁निर्माणों	-13429
▁देशवासियों	-13430
▁मार्केटिंग	-13431
MS	-13432
टलर	-13433
सिस	-13434
्रू	-13435
ंकित	-13436
ंदरी	-13437
कूमत	-13438
रेली	-13439
र्धक	-13440
▁pro	-13441
▁निज	-13442
▁निभ	-13443
▁हें	-13444
▁अनूठ	-13445
▁आईपी	-13446
▁कुचल	-13447
▁कुसु	-13448
▁कॉफी	-13449
▁जनमत	-13450
▁दाने	-13451
▁ब्रज	-13452
▁मूवी	-13453
▁मोचन	-13454
▁रिस्प	-13455
▁साढ़े	-13456
ोग्राफी	-13457
▁अधिभोग	-13458
▁अपनाते	-13459
▁अस्थाई	-13460
▁इकट्ठे	-13461
▁चुप्पी	-13462
▁मुट्ठी	-13463
▁लैंगिक	-13464
▁लापरवाह	-13465
▁समावेशी	-13466
▁कीटनाशकों	-13467
▁फ्रांसीसी	-13468
▁समस्तीपुर	-13469
▁अभ्यर्थियों	-13470
▁ट्रांसफ़ेरे	-13471
▁संवेदनशीलता	-13472
MI	-13473
जै	-13474
कंठ	-13475
▁th	-13476
ुकला	-13477
▁PWD	-13478
▁जलन	-13479
▁तले	-13480
▁माउ	-13481
▁आवेश	-13482
▁एण्ड	-13483
▁कांत	-13484
▁पडता	-13485
▁बाड़	-13486
▁बुजु	-13487
▁रियल	-13488
▁वहॉँ	-13489
▁सलाम	-13490
▁घुड़स	-13491
▁चैत्य	-13492
▁बढाने	-13493
▁बुलाए	-13494
▁मर्जी	-13495
▁रोकते	-13496
णाधिकार	-13497
▁आरोग्य	-13498
▁गुर्दे	-13499
▁पिछड़ा	-13500
▁पुनर्न	-13501
▁विचारण	-13502
partment	-13503
▁आत्मसात	-13504
▁चिड़िया	-13505
▁क्रियाशील	-13506
▁संभावनाएं	-13507
mp	-13508
ith	-13509
ायन	-13510
्ती	-13511
▁En	-13512
काशी	-13513
ज्जु	-13514
वारा	-13515
ावार	-13516
▁Off	-13517
▁कपट	-13518
▁गान	-13519
▁ठंड	-13520
▁शैव	-13521
▁साय	-13522
बंधित	-13523
र्द्ध	-13524
ोजकों	-13525
ोत्तर	-13526
▁CCNo	-13527
▁उलझा	-13528
▁काबू	-13529
▁छिपे	-13530
▁प्ली	-13531
ष्णुता	-13532
▁क्रॉल	-13533
▁घोड़ा	-13534
▁सभाओं	-13535
▁स्पेन	-13536
▁ब्रांच	-13537
▁अमेरिकन	-13538
▁खूबसूरत	-13539
▁निकालते	-13540
▁आशीर्वाद	-13541
▁कहानियाँ	-13542
▁BANGALORE	-13543
▁कार्यकारिणी	-13544
▁स्वतन्त्रता	-13545
EX	-13546
मू	-13547
एमए	-13548
ुंद	-13549
▁AO	-13550
SION	-13551
भंगा	-13552
मदार	-13553
मोहक	-13554
ृहीत	-13555
ोतरी	-13556
▁बख्	-13557
▁बची	-13558
▁वृह	-13559
▁सबक	-13560
▁सीव	-13561
▁अतिर	-13562
▁कोरम	-13563
▁जहरी	-13564
▁पितृ	-13565
▁बार्	-13566
▁मोहर	-13567
तत्त्व	-13568
▁अधूरा	-13569
▁सहदेव	-13570
▁सीखना	-13571
▁Bhawan	-13572
▁असीमित	-13573
▁छिपाने	-13574
▁पुनर्ज	-13575
▁पैकिंग	-13576
▁रिसर्च	-13577
▁वृत्ता	-13578
▁आभूषणों	-13579
▁खूबियों	-13580
▁पौष्टिक	-13581
▁मिलेंगे	-13582
▁सन्दर्भ	-13583
▁असंतोषजनक	-13584
▁पत्रिकाओं	-13585
▁मूर्तियों	-13586
▁लाभान्वित	-13587
▁विश्वयुद्ध	-13588
ach	-13589
युग	-13590
रिस	-13591
सन्	-13592
▁sa	-13593
कृमि	-13594
टीवी	-13595
▁URL	-13596
▁लिक	-13597
आईएडी	-13598
कार्य	-13599
कियां	-13600
जमेंट	-13601
वाड़े	-13602
सत्ता	-13603
▁Gaya	-13604
▁दैवी	-13605
▁रचित	-13606
▁हावी	-13607
ंटियों	-13608
▁कल्लू	-13609
▁जड़ें	-13610
▁जरिये	-13611
▁जिनको	-13612
▁ट्रैप	-13613
▁निपुण	-13614
▁वायरस	-13615
▁ज़मानत	-13616
▁ज़रुरत	-13617
▁योद्धा	-13618
▁समाजों	-13619
▁सेवाएँ	-13620
▁व्यंग्य	-13621
▁कलाकारों	-13622
▁तानाशाही	-13623
▁सम्पादित	-13624
▁सेकेंडरी	-13625
्रास्ट्रक्चर	-13626
▁लाभार्थियों	-13627
▁एंटरप्राइजेज	-13628
OT	-13629
्क	-13630
ंटो	-13631
थिक	-13632
ायु	-13633
िनि	-13634
▁cl	-13635
▁ढु	-13636
▁थॉ	-13637
कारक	-13638
हिणी	-13639
ुराम	-13640
्राण	-13641
▁ममल	-13642
▁इण्ड	-13643
▁ईर्ष	-13644
▁कलाम	-13645
▁चोटी	-13646
▁पीयू	-13647
▁पूंछ	-13648
▁पूरन	-13649
▁सुधा	-13650
▁द्रवि	-13651
▁निकास	-13652
▁Kumari	-13653
▁घुटनों	-13654
▁निर्धन	-13655
▁निवेशक	-13656
▁महत्तर	-13657
▁मुर्गी	-13658
▁संश्ले	-13659
▁सेलुलर	-13660
शास्त्री	-13661
▁डिपॉजिट	-13662
▁प्रोसेस	-13663
▁मवेशियों	-13664
▁सहकारिता	-13665
▁गारंटीकृत	-13666
▁लेबोरेटरी	-13667
▁ब्रह्मानंद	-13668
छी	-13669
कोड	-13670
खले	-13671
हॉक	-13672
ौने	-13673
▁AT	-13674
▁ko	-13675
▁pr	-13676
▁CRA	-13677
▁काँ	-13678
▁धुन	-13679
▁फ़ी	-13680
▁रेफ	-13681
▁सरी	-13682
योग्य	-13683
▁उपजा	-13684
▁बर्न	-13685
▁रेगु	-13686
▁वाटर	-13687
▁सज़ा	-13688
▁साँस	-13689
्वेस्ट	-13690
▁ग्रेट	-13691
▁चढ़ाव	-13692
▁पोशाक	-13693
▁सीढ़ी	-13694
▁अस्पृश	-13695
▁जेएनयू	-13696
▁जोड़ता	-13697
▁भक्तों	-13698
▁भाषणों	-13699
▁हाइड्र	-13700
▁इकाइयां	-13701
▁तिथियों	-13702
▁प्रमाणन	-13703
▁सम्मिलन	-13704
▁आंदोलनों	-13705
▁जागरूकता	-13706
▁रूपान्तर	-13707
▁उदाहरणार्थ	-13708
▁विवेकाधिकार	-13709
UN	-13710
ARS	-13711
art	-13712
तलब	-13713
भ्र	-13714
▁Th	-13715
जवान	-13716
फ़ोन	-13717
▁Hig	-13718
▁एलि	-13719
▁यान	-13720
▁यूट	-13721
▁लीं	-13722
धीनगर	-13723
न्दरी	-13724
म्बित	-13725
▁आईएस	-13726
▁आरएफ	-13727
▁आर्क	-13728
▁टेलि	-13729
▁Mahto	-13730
▁जसवंत	-13731
▁परमार	-13732
▁पाषाण	-13733
▁यूसुफ	-13734
▁अमिताभ	-13735
▁कुल्लू	-13736
▁फैलाने	-13737
▁लेखाकार	-13738
व्यवस्थित	-13739
▁उत्कीर्ण	-13740
▁होल्डिंग्स	-13741
ua	-13742
ोभ	-13743
कथा	-13744
खनन	-13745
मोन	-13746
ारो	-13747
▁अटक	-13748
▁कैट	-13749
▁गजट	-13750
▁घोट	-13751
▁रेम	-13752
▁हाव	-13753
▁उद्व	-13754
▁क्रा	-13755
▁बन्ध	-13756
▁यादृ	-13757
▁शीतल	-13758
▁सुशी	-13759
ंजीकृत	-13760
▁अर्जन	-13761
▁उभरता	-13762
▁जैसाकि	-13763
▁दरभंगा	-13764
▁श्रृंग	-13765
▁सद्भाव	-13766
▁हुकूमत	-13767
ॉल्वेंसी	-13768
▁अभिप्रे	-13769
▁बुजुर्ग	-13770
▁हर्जाना	-13771
▁किराएदार	-13772
▁जितेंद्र	-13773
▁नागेंद्र	-13774
▁चुनौतियों	-13775
▁संस्करणों	-13776
▁व्यवहार्यता	-13777
ord	-13778
ंगु	-13779
रोप	-13780
ुना	-13781
्रह	-13782
▁MS	-13783
▁Si	-13784
▁तस	-13785
ावधि	-13786
ासाह	-13787
▁उपच	-13788
▁एनी	-13789
▁काक	-13790
▁कॉज	-13791
▁छड़	-13792
▁डोर	-13793
▁दूत	-13794
▁बिश	-13795
▁रहस	-13796
▁लटक	-13797
ादेवी	-13798
▁कंपा	-13799
▁कणों	-13800
▁कलाई	-13801
▁कांड	-13802
▁डीजल	-13803
▁नारे	-13804
▁नासा	-13805
▁पदान	-13806
▁लगान	-13807
▁सरणी	-13808
▁काबुल	-13809
▁घावों	-13810
▁ज्वार	-13811
▁नक्शा	-13812
▁बदमाश	-13813
▁विक्ट	-13814
▁समयाव	-13815
▁सुझाए	-13816
▁हज़ार	-13817
▁पीसीआर	-13818
▁प्रयत्	-13819
▁मेजबान	-13820
▁संकुचन	-13821
▁अशक्तता	-13822
▁उत्प्रे	-13823
▁केआईएडी	-13824
▁ज्योतिष	-13825
▁फर्नीचर	-13826
▁कारखानों	-13827
UDA	-13828
वुड	-13829
ोन्	-13830
पैथी	-13831
▁छुप	-13832
▁महम	-13833
▁लता	-13834
▁शुग	-13835
▁हँस	-13836
गमेंट	-13837
घोषणा	-13838
तीकरण	-13839
्रिंग	-13840
▁NEET	-13841
▁गाइड	-13842
▁पिंड	-13843
▁पीना	-13844
▁शोभा	-13845
ापूर्ण	-13846
▁असहमत	-13847
▁छुट्ट	-13848
▁बनावट	-13849
▁बिगड़	-13850
▁सुनना	-13851
▁उकसावे	-13852
▁सॉफ़्ट	-13853
▁दूतावास	-13854
▁पदच्युत	-13855
▁परिसीमन	-13856
▁पुराणों	-13857
▁मध्यकाल	-13858
▁संकुचित	-13859
▁गांधीनगर	-13860
▁प्रयोगों	-13861
▁बलपूर्वक	-13862
▁यादृच्छिक	-13863
▁पाकिस्तानी	-13864
FC	-13865
UL	-13866
खाप	-13867
ुलु	-13868
▁ND	-13869
▁gu	-13870
▁गड	-13871
रियन	-13872
वाहक	-13873
▁कण्	-13874
▁दरा	-13875
न्नों	-13876
ुगतान	-13877
▁आपदा	-13878
▁इजाज	-13879
▁क्ली	-13880
▁डंडा	-13881
▁जवाहर	-13882
▁जुलूस	-13883
▁नाकाम	-13884
▁बयाना	-13885
▁बुलेट	-13886
▁हाजिर	-13887
▁अतिचार	-13888
▁एकाधिक	-13889
▁बैठकें	-13890
▁सिखाया	-13891
▁असंबद्ध	-13892
▁रामेश्वर	-13893
▁शत्रुघ्न	-13894
OS	-13895
ax	-13896
िवे	-13897
▁एप	-13898
रहाल	-13899
▁अकु	-13900
▁आरई	-13901
▁पैन	-13902
▁भरण	-13903
▁हिर	-13904
गुप्त	-13905
▁Roht	-13906
▁अधिर	-13907
▁औरंग	-13908
▁चंदन	-13909
▁ढूँढ	-13910
▁देवर	-13911
▁धीरज	-13912
▁पराज	-13913
▁बुढ़	-13914
▁लॉरी	-13915
स्वरुप	-13916
▁अरुणा	-13917
▁दर्पण	-13918
▁पलायन	-13919
▁फैक्स	-13920
▁बच्ची	-13921
▁वेदना	-13922
▁संगति	-13923
▁उत्खनन	-13924
▁उदात्त	-13925
▁वृत्ति	-13926
▁क्रीड़ा	-13927
▁ग्रेजुएट	-13928
▁जमशेदपुर	-13929
▁इलेक्ट्रिकल	-13930
ंबे	-13931
▁हज	-13932
गंगा	-13933
▁XII	-13934
▁अणु	-13935
▁उमर	-13936
▁कत्	-13937
▁टॉम	-13938
▁फेल	-13939
▁सिं	-13940
▁ऑक्स	-13941
▁क्रू	-13942
▁धोने	-13943
▁बधाई	-13944
▁स्वत	-13945
कोशिका	-13946
▁एडहॉक	-13947
▁जर्नल	-13948
▁भरपाई	-13949
▁सोचकर	-13950
▁स्टाक	-13951
▁एचयूएफ	-13952
▁दिखाएं	-13953
▁बनवाया	-13954
▁बरामदे	-13955
▁सन्देश	-13956
कर्मियों	-13957
▁पांचवीं	-13958
▁फेडरेशन	-13959
▁ममलतदार	-13960
▁रियायती	-13961
▁सेनापति	-13962
▁एनेक्सचर	-13963
▁ऑब्जेक्ट	-13964
▁प्राइमरी	-13965
▁वर्गमीटर	-13966
▁आपातकालीन	-13967
▁प्रार्थनाओं	-13968
▁हिन्दुस्तानी	-13969
AC	-13970
ावत	-13971
▁CS	-13972
▁Na	-13973
▁हठ	-13974
क्यू	-13975
निकल	-13976
म्मे	-13977
▁खरे	-13978
▁डीन	-13979
▁बेर	-13980
▁मसू	-13981
▁मसौ	-13982
▁रहो	-13983
▁सीए	-13984
ड्डों	-13985
ारिटी	-13986
ृद्धि	-13987
▁धकेल	-13988
▁सींग	-13989
▁सौते	-13990
िक्षित	-13991
ियोजित	-13992
्यूटरी	-13993
▁क्षीण	-13994
▁जिहाद	-13995
▁तकलीफ	-13996
▁दूषित	-13997
▁परहेज	-13998
▁पूछना	-13999
▁बर्मा	-14000
▁राजने	-14001
▁आदित्य	-14002
▁इंट्रा	-14003
▁उर्वरक	-14004
▁टीआईपी	-14005
▁मीटिंग	-14006
▁यन्त्र	-14007
▁राजकीय	-14008
▁अपरिचित	-14009
▁आदमियों	-14010
▁आमंत्रण	-14011
▁टेनेंसी	-14012
▁प्रत्यु	-14013
▁शाहजहाँ	-14014
▁समयावधि	-14015
▁अपंजीकृत	-14016
▁प्रतिकृति	-14017
▁बल्लेबाजी	-14018
▁अनिवार्यता	-14019
GC	-14020
tt	-14021
▁े	-14022
खोर	-14023
लाट	-14024
लीस	-14025
▁pp	-14026
▁ऐल	-14027
सीएल	-14028
ुलिप	-14029
्राह	-14030
▁App	-14031
▁कप्	-14032
्मीकि	-14033
▁MANU	-14034
▁गाजा	-14035
▁वीडी	-14036
▁खींची	-14037
▁टिकला	-14038
▁बन्धन	-14039
▁साँचा	-14040
▁हैरान	-14041
▁एमसीआई	-14042
▁क्षत्र	-14043
▁परीक्ष	-14044
▁फिल्टर	-14045
▁मानसून	-14046
▁शिकारी	-14047
िकर्ताओं	-14048
▁मजूमदार	-14049
▁प्रतिमान	-14050
▁प्रायोजन	-14051
▁Bhagalpur	-14052
▁वास्तुकला	-14053
▁उत्तरोत्तर	-14054
▁प्रोपराइटर	-14055
▁ब्राह्मणों	-14056
▁अल्पसंख्यकों	-14057
▁प्रवृत्तियों	-14058
aff	-14059
झान	-14060
वाड	-14061
▁वश	-14062
▁सँ	-14063
ical	-14064
चुअल	-14065
ड्डा	-14066
रांव	-14067
ोलिक	-14068
▁कुक	-14069
▁टूल	-14070
▁ठुक	-14071
▁डाँ	-14072
▁परभ	-14073
केशनल	-14074
▁अशुभ	-14075
▁इब्र	-14076
▁इष्ट	-14077
▁उष्ण	-14078
▁टीटी	-14079
▁थोडा	-14080
▁दरार	-14081
▁नाला	-14082
▁निवल	-14083
▁पारा	-14084
▁बिगा	-14085
क्षत्र	-14086
▁कथानक	-14087
▁बर्बर	-14088
▁रोकती	-14089
▁लौटते	-14090
▁वक़्त	-14091
▁वीरेन	-14092
▁सुमित	-14093
▁हल्की	-14094
ापूर्वक	-14095
▁Rohtas	-14096
▁नौजवान	-14097
▁पटवारी	-14098
▁फैमिली	-14099
▁भावनगर	-14100
▁सुझाया	-14101
▁कंपाउंड	-14102
▁बताएंगे	-14103
▁अत्याधिक	-14104
▁कुंजीपटल	-14105
▁कांग्रेसी	-14106
▁जमींदारों	-14107
▁पदाधिकारी	-14108
▁आत्मनिर्भर	-14109
▁वृद्धावस्था	-14110
▁सुव्यवस्थित	-14111
इए	-14112
य्य	-14113
रीज	-14114
ूले	-14115
▁ID	-14116
▁पण	-14117
कुलम	-14118
जेशन	-14119
नुमा	-14120
ापित	-14121
ोत्स	-14122
▁vii	-14123
▁आत्	-14124
▁उखा	-14125
▁दंप	-14126
▁पुछ	-14127
▁पैग	-14128
▁सडक	-14129
▁सैल	-14130
वल्ली	-14131
शुल्क	-14132
्वाधर	-14133
▁अम्ब	-14134
▁आंका	-14135
▁उदास	-14136
▁केपी	-14137
▁गायन	-14138
▁सल्ल	-14139
▁कानों	-14140
▁घूमने	-14141
▁शर्मि	-14142
▁निरूपण	-14143
▁बिछाने	-14144
▁बोलचाल	-14145
▁मोहंती	-14146
▁सटीकता	-14147
▁गोवर्धन	-14148
▁तीक्ष्ण	-14149
▁पहुंचते	-14150
▁यूनिटेक	-14151
▁सर्वत्र	-14152
▁प्रदूषित	-14153
▁अध्यापकों	-14154
▁कार्यपालक	-14155
▁सांख्यिकीय	-14156
▁पुनर्भुगतान	-14157
▁परिवीक्षाधीन	-14158
▁RC	-14159
▁गम	-14160
जेसी	-14161
्यूप	-14162
▁And	-14163
▁SHO	-14164
▁ओड़	-14165
▁गेल	-14166
▁चबा	-14167
▁फीड	-14168
▁मचा	-14169
त्थान	-14170
वस्था	-14171
▁Darb	-14172
▁अभिश	-14173
▁छुरा	-14174
▁जनना	-14175
▁नाज़	-14176
▁फेरी	-14177
▁मजाक	-14178
▁वाकई	-14179
▁आएंगे	-14180
▁इजाजत	-14181
▁उठाये	-14182
▁कुंवर	-14183
▁खोजें	-14184
▁गुजरे	-14185
▁रंजीत	-14186
▁विपुल	-14187
▁सीआरए	-14188
▁कप्तान	-14189
▁गार्डन	-14190
▁जांचना	-14191
▁नवीनता	-14192
▁मिटाने	-14193
▁ईश्वरीय	-14194
▁चिंताओं	-14195
▁तकनीकों	-14196
▁बेरोजगार	-14197
▁लिमखेड़ा	-14198
AGE	-14199
ILL	-14200
संक	-14201
▁कफ	-14202
तराम	-14203
र्मन	-14204
ोगिक	-14205
▁जोग	-14206
▁पाश	-14207
▁मेस	-14208
▁लां	-14209
▁सुष	-14210
alaya	-14211
▁खाया	-14212
▁जेपी	-14213
▁डिटे	-14214
▁लड़ी	-14215
▁सरला	-14216
यात्रा	-14217
▁औरतों	-14218
▁कवरेज	-14219
▁क्रिस	-14220
▁छिड़क	-14221
▁डेमोक	-14222
▁विभाज	-14223
▁अंधेरा	-14224
▁एलपीजी	-14225
▁गौरतलब	-14226
▁रिटायर	-14227
▁सातवें	-14228
▁नकदीकरण	-14229
▁अनिच्छुक	-14230
▁उग्रवादी	-14231
▁क्षमताओं	-14232
▁संभाव्यता	-14233
▁अतिशयोक्ति	-14234
▁दुर्भाग्यवश	-14235
ee	-14236
कस	-14237
had	-14238
ink	-14239
रेक	-14240
िवर	-14241
▁नख	-14242
द्वी	-14243
मनगर	-14244
▁कवच	-14245
▁केर	-14246
▁चंग	-14247
▁डेय	-14248
▁डोग	-14249
▁लिट	-14250
▁लोन	-14251
▁हतो	-14252
hanga	-14253
▁चंचल	-14254
▁माली	-14255
यात्मक	-14256
▁कायदा	-14257
▁कीड़े	-14258
▁परोसा	-14259
▁सत्रह	-14260
▁हेल्थ	-14261
▁असंगति	-14262
▁गुच्छा	-14263
▁छोड़ते	-14264
▁बेगुना	-14265
▁अनुग्रह	-14266
▁इकाइयाँ	-14267
▁गुरबख्श	-14268
▁हेडमास्टर	-14269
▁Department	-14270
▁परियोजनाएं	-14271
▁राष्ट्रवाद	-14272
▁वस्तुनिष्ठ	-14273
▁डिपार्टमेंट	-14274
BH	-14275
use	-14276
शिक	-14277
शीद	-14278
ेंश	-14279
▁no	-14280
▁लथ	-14281
efit	-14282
क्टस	-14283
वेरी	-14284
▁Sur	-14285
▁डाई	-14286
▁शेल	-14287
कार्ड	-14288
ियाना	-14289
▁चूड़	-14290
▁नग्न	-14291
▁नुस्	-14292
▁पीएल	-14293
▁रोगा	-14294
▁हायर	-14295
सम्मति	-14296
▁आग्ने	-14297
▁खाण्ड	-14298
▁डाकघर	-14299
▁निर्म	-14300
▁लसीका	-14301
ोनेशिया	-14302
▁धारदार	-14303
▁मौलाना	-14304
▁शिशुओं	-14305
▁सूचियों	-14306
▁क्रोमियम	-14307
▁भुगतानों	-14308
▁रिकॉर्डर	-14309
▁कार्यवाहक	-14310
▁प्रयत्नों	-14311
▁पूर्वोत्तर	-14312
▁सर्वसम्मति	-14313
▁अस्पष्टीकृत	-14314
▁ग्रहणाधिकार	-14315
▁तात्कालिकता	-14316
▁अभिव्यक्तियों	-14317
ैच	-14318
फिर	-14319
ोगा	-14320
▁ठा	-14321
▁उस्	-14322
▁जीए	-14323
▁जुन	-14324
▁दाब	-14325
▁भगा	-14326
▁मज्	-14327
▁हृद	-14328
▁गाथा	-14329
▁गोंड	-14330
▁छन्द	-14331
▁झटके	-14332
▁दिवा	-14333
▁बकरी	-14334
▁हटकर	-14335
▁अस्सी	-14336
▁कांति	-14337
▁जातीय	-14338
▁जोसेफ	-14339
▁नगण्य	-14340
▁परिधीय	-14341
▁भेड़ों	-14342
▁मिटाएँ	-14343
▁सीडीआर	-14344
▁सुनाते	-14345
▁होम्यो	-14346
▁चलचित्र	-14347
▁त्रिकोण	-14348
▁बंटवारे	-14349
▁विलुप्त	-14350
▁व्यक़्त	-14351
▁सुब्रमण	-14352
▁बेजबरुवा	-14353
▁स्थितियां	-14354
▁संवैधानिकता	-14355
▁ा	-14356
नार	-14357
बूत	-14358
िले	-14359
ुलित	-14360
्यूम	-14361
▁San	-14362
▁Tah	-14363
▁अवा	-14364
▁घने	-14365
▁छुआ	-14366
▁टोल	-14367
▁तलब	-14368
▁नीम	-14369
▁पिक	-14370
▁फलन	-14371
▁सेब	-14372
▁हंग	-14373
देश्य	-14374
मिलित	-14375
लियां	-14376
▁अभूत	-14377
▁आर्म	-14378
▁करीम	-14379
▁मर्म	-14380
▁रेशम	-14381
िस्तान	-14382
▁गुटों	-14383
▁ट्रां	-14384
▁दिखती	-14385
▁पल्लव	-14386
▁ह्रदय	-14387
नेलवेली	-14388
▁प्रमोशन	-14389
▁सक्सेना	-14390
▁अभिरक्षा	-14391
▁मुवक्किल	-14392
▁अंकगणितीय	-14393
▁व्यवसायों	-14394
▁स्क्रिप्ट	-14395
▁देवेन्द्रनाथ	-14396
IA	-14397
ka	-14398
ret	-14399
ापा	-14400
िनस	-14401
ोजर	-14402
ोबा	-14403
ौरन	-14404
▁छव	-14405
▁झं	-14406
▁झर	-14407
एससी	-14408
र्तक	-14409
िकोड	-14410
िताब	-14411
▁Mar	-14412
▁Sah	-14413
▁अरा	-14414
▁आगम	-14415
▁गों	-14416
▁धरो	-14417
▁बाउ	-14418
▁भोल	-14419
rough	-14420
बन्धी	-14421
▁एनबी	-14422
enefit	-14423
ानियों	-14424
▁अनादर	-14425
▁उतरने	-14426
▁निगमन	-14427
▁पराजय	-14428
▁पेशाब	-14429
▁प्रसू	-14430
▁बढ़ें	-14431
▁बरसात	-14432
▁बैठते	-14433
▁मक्खी	-14434
▁अग्रसर	-14435
▁कीमिया	-14436
▁पड़ताल	-14437
▁शक़्ति	-14438
▁कार्तिक	-14439
▁फुफ्फुस	-14440
▁हाइड्रो	-14441
▁आश्रितों	-14442
iy	-14443
ैंट	-14444
ोदर	-14445
▁IN	-14446
▁On	-14447
▁आड	-14448
▁ऊन	-14449
तमंद	-14450
श्मी	-14451
▁आइस	-14452
▁खंभ	-14453
▁लाज	-14454
ब्बों	-14455
▁PMLA	-14456
▁अनाथ	-14457
▁आयरन	-14458
▁उठकर	-14459
▁घोषण	-14460
▁जुडे	-14461
▁लतीफ	-14462
▁चौंका	-14463
▁डेयरी	-14464
▁दुसरे	-14465
▁मंचों	-14466
▁मसौदे	-14467
astipur	-14468
▁ऊर्ध्व	-14469
▁चैनलों	-14470
▁झोपड़ी	-14471
▁ट्यूशन	-14472
▁भुगतने	-14473
▁मणिपुर	-14474
▁मिलाया	-14475
▁सुशीला	-14476
affarpur	-14477
▁जायसवाल	-14478
▁मीट्रिक	-14479
▁बालकृष्ण	-14480
▁Darbhanga	-14481
▁मैनेजमेंट	-14482
▁Samastipur	-14483
डिश	-14484
hari	-14485
त्तन	-14486
नेशन	-14487
भद्र	-14488
रोइन	-14489
र्गा	-14490
▁दोग	-14491
▁बढे	-14492
▁बास	-14493
ivers	-14494
▁Vill	-14495
▁ईसाइ	-14496
▁खादी	-14497
▁जिया	-14498
▁थर्म	-14499
▁धड़क	-14500
▁बीसी	-14501
पतियों	-14502
▁क्लिप	-14503
▁गैसों	-14504
▁चुम्ब	-14505
▁धरोहर	-14506
▁निगाह	-14507
▁मांझी	-14508
▁रोहित	-14509
▁करूँगा	-14510
▁प्रयाग	-14511
▁किस्तों	-14512
▁क्लाइंट	-14513
▁उंगलियों	-14514
▁विजयवाड़ा	-14515
▁सम्मानजनक	-14516
▁सर्वव्यापी	-14517
▁सामंजस्यपूर्ण	-14518
ara	-14519
सलम	-14520
ुला	-14521
▁OF	-14522
▁SR	-14523
मन्य	-14524
ूल्य	-14525
▁आरए	-14526
▁ईडी	-14527
▁खडे	-14528
▁पोट	-14529
▁मिर	-14530
नीयता	-14531
ामंडल	-14532
▁नायब	-14533
▁मेरु	-14534
▁सूती	-14535
त्राशय	-14536
▁ओकुलर	-14537
▁कीचड़	-14538
▁मध्या	-14539
▁शुक्ल	-14540
पाध्याय	-14541
▁कामयाब	-14542
▁चतुर्व	-14543
▁जोड़ते	-14544
▁विड्रा	-14545
▁शिलाले	-14546
▁इमारतें	-14547
▁बाबूलाल	-14548
▁शत्रुओं	-14549
▁संतोषों	-14550
▁बीआईएफआर	-14551
▁स्त्रियां	-14552
▁हितधारकों	-14553
▁पार्श्विका	-14554
▁प्रत्यक्षीकरण	-14555
ऊँ	-14556
नत	-14557
वली	-14558
iver	-14559
ाहिम	-14560
▁इंफ	-14561
▁तड़	-14562
▁पीस	-14563
▁सल्	-14564
ग्रेड	-14565
प्टिव	-14566
▁Shan	-14567
▁एड्स	-14568
▁झाड़	-14569
▁डिवि	-14570
▁मानद	-14571
▁लिहा	-14572
▁वंशज	-14573
▁सूखी	-14574
डिचेरी	-14575
▁गुच्छ	-14576
▁भतीजा	-14577
▁रोमां	-14578
▁विखंड	-14579
क्रिप्ट	-14580
▁कंटेनर	-14581
▁गंधर्व	-14582
▁टैक्सी	-14583
▁पड़ेगी	-14584
▁व्हाइट	-14585
▁मोतीलाल	-14586
▁करनेवाला	-14587
▁निविदाएं	-14588
▁विश्वासघात	-14589
da	-14590
ex	-14591
out	-14592
riv	-14593
ज्ह	-14594
नें	-14595
गाली	-14596
ज़ोर	-14597
रकों	-14598
हारा	-14599
ांशु	-14600
ोसिस	-14601
▁Con	-14602
▁कोऋ	-14603
▁गोग	-14604
▁धूम	-14605
▁रूख	-14606
▁लखी	-14607
तान्त	-14608
दानिक	-14609
ेमारी	-14610
▁अकाल	-14611
▁अब्ब	-14612
▁एविड	-14613
▁कान्	-14614
▁कृमि	-14615
▁गंटा	-14616
▁छिपी	-14617
▁टोला	-14618
▁डीजी	-14619
▁दीदी	-14620
▁बांट	-14621
▁मद्य	-14622
▁रुके	-14623
▁वैभव	-14624
▁कहावत	-14625
▁घुसपै	-14626
▁तूफान	-14627
▁वरदान	-14628
▁आर्म्स	-14629
▁नाइट्र	-14630
▁प्रोटे	-14631
▁रोटेशन	-14632
▁साँचाः	-14633
▁एक्साइज	-14634
▁निकालकर	-14635
▁निकोबार	-14636
▁सूचनाएं	-14637
▁आस्तियों	-14638
▁छापेमारी	-14639
▁राज्यसभा	-14640
▁वर्णनात्मक	-14641
▁सॉफ़्टवेयर	-14642
▁प्रत्यारोपित	-14643
▁मुद्रास्फीति	-14644
२४	-14645
ush	-14646
टकी	-14647
ब्स	-14648
▁MR	-14649
▁चढ	-14650
र्दी	-14651
र्ना	-14652
▁गुन	-14653
चर्या	-14654
▁किसे	-14655
▁गोबि	-14656
▁दफना	-14657
▁पीटर	-14658
▁अभिनव	-14659
▁आलोचक	-14660
▁खर्चे	-14661
▁महीना	-14662
▁विचरण	-14663
▁वैश्व	-14664
▁सस्ता	-14665
▁स्वंय	-14666
▁Madhub	-14667
▁बड़ौदा	-14668
▁मधुबनी	-14669
▁रामपुर	-14670
▁रिश्ता	-14671
▁अधिरचना	-14672
▁अनुमन्य	-14673
▁अन्यत्र	-14674
▁निवृत्त	-14675
▁नैदानिक	-14676
▁पुरूषों	-14677
▁प्राप्य	-14678
▁विमानों	-14679
▁सन्निहित	-14680
▁निराशाजनक	-14681
चय	-14682
ric	-14683
पदी	-14684
विष	-14685
बलों	-14686
▁Kha	-14687
▁एसे	-14688
▁चिट	-14689
▁बरस	-14690
स्कोप	-14691
▁उड़न	-14692
▁कल्प	-14693
▁काटे	-14694
▁काया	-14695
▁कैलि	-14696
▁चमकी	-14697
▁छापे	-14698
▁जोनल	-14699
▁शिला	-14700
▁सनकी	-14701
RISHNA	-14702
स्टिंग	-14703
▁अंडों	-14704
▁उभरती	-14705
▁घटाने	-14706
▁जलाने	-14707
▁बद्री	-14708
▁मक्खन	-14709
▁मिलीं	-14710
▁अंशदान	-14711
▁अधिकता	-14712
▁कामरूप	-14713
▁तालमेल	-14714
▁दोस्ती	-14715
▁बताएगा	-14716
▁मोर्चे	-14717
▁सोडियम	-14718
▁स्कूटर	-14719
▁स्लाइड	-14720
▁अपराह्न	-14721
▁एविडेंस	-14722
▁टचस्टोन	-14723
▁संदेशों	-14724
▁स्ट्रेट	-14725
▁अविवाहित	-14726
▁एक्सपर्ट	-14727
▁परिवर्धन	-14728
▁यात्राओं	-14729
▁विच्छेदन	-14730
▁सेटिंग्स	-14731
▁स्वरयंत्र	-14732
▁पुरुषोत्तम	-14733
▁स्थानान्तरण	-14734
जक	-14735
हु	-14736
मिस	-14737
ोशी	-14738
आरएल	-14739
न्टी	-14740
श्मा	-14741
▁NCT	-14742
▁कौम	-14743
▁जोध	-14744
▁फिज	-14745
ान्तर	-14746
▁एनके	-14747
▁कटऑफ	-14748
▁गुदा	-14749
▁पॉली	-14750
▁फ्लो	-14751
▁बचता	-14752
▁भड़क	-14753
▁लथपथ	-14754
▁अड्डा	-14755
▁एपीआई	-14756
▁जोज़े	-14757
▁संभवत	-14758
▁Tahsil	-14759
▁appeal	-14760
▁असहयोग	-14761
▁आकृष्ट	-14762
▁उपसर्ग	-14763
▁पकड़कर	-14764
▁भाषाएँ	-14765
▁क्षुद्र	-14766
▁दोहराने	-14767
▁प्रवृति	-14768
▁लॉर्ड्स	-14769
▁वाद्यों	-14770
▁वेंडिंग	-14771
▁श्रीनगर	-14772
▁पैकेजिंग	-14773
▁दीर्घकालिक	-14774
▁यथार्थवादी	-14775
VS	-14776
रव	-14777
गना	-14778
संघ	-14779
हाट	-14780
्ये	-14781
▁ठो	-14782
ट्ठा	-14783
पाटी	-14784
रोधक	-14785
▁तने	-14786
▁पटा	-14787
▁लवण	-14788
▁Pand	-14789
▁कुदर	-14790
▁गढ़ा	-14791
▁लगना	-14792
त्पादक	-14793
▁करियर	-14794
▁काटना	-14795
▁पीठों	-14796
▁प्रोड	-14797
▁बढ़ाई	-14798
▁बारूद	-14799
▁लिफ्ट	-14800
▁वगैरह	-14801
▁अंतर्व	-14802
▁उतारने	-14803
▁कार्गो	-14804
▁क्वेरी	-14805
▁छुपाने	-14806
▁टीडीएस	-14807
▁तपस्या	-14808
▁फिलहाल	-14809
चिकित्सा	-14810
▁जन्मजात	-14811
▁नक्षत्र	-14812
▁विजयनगर	-14813
▁अंशकालिक	-14814
▁इब्राहिम	-14815
▁पुरातत्व	-14816
▁परक्राम्य	-14817
▁राजकुमारी	-14818
▁जमाकर्ताओं	-14819
▁विद्यासागर	-14820
▁प्रत्युत्तर	-14821
▁रिज़ॉल्यूशन	-14822
हट	-14823
ेस	-14824
फेस	-14825
शीर	-14826
ालु	-14827
▁सई	-14828
टीपी	-14829
ायीं	-14830
ावान	-14831
ोन्म	-14832
▁DAV	-14833
▁New	-14834
▁जेज	-14835
▁ढाई	-14836
▁बुझ	-14837
▁सजग	-14838
तानंद	-14839
नियाँ	-14840
बाज़ी	-14841
मान्य	-14842
▁एलटी	-14843
▁कोला	-14844
▁गुंट	-14845
▁जमाव	-14846
▁टूटे	-14847
▁तेजा	-14848
▁बहुप	-14849
▁बेरह	-14850
▁भूरा	-14851
उद्दीन	-14852
ाहियों	-14853
▁अयस्क	-14854
▁असेसी	-14855
▁इन्टर	-14856
▁गोधरा	-14857
▁चलाता	-14858
▁नशीली	-14859
▁महमूद	-14860
▁संचलन	-14861
▁स्टॉप	-14862
▁अंधकार	-14863
▁गुस्सा	-14864
▁त्यागी	-14865
▁देखिये	-14866
▁परमजीत	-14867
▁परिणति	-14868
▁बहरहाल	-14869
▁मुल्ला	-14870
▁मुहैया	-14871
▁सुपारी	-14872
▁स्तम्भ	-14873
▁गोदावरी	-14874
▁फैक्टरी	-14875
▁सम्मोहक	-14876
▁निर्वाचक	-14877
▁प्रतिध्व	-14878
▁प्रबन्धन	-14879
▁सामान्यत	-14880
▁सिंडिकेट	-14881
▁उन्नीसवीं	-14882
▁चतुर्वेदी	-14883
▁लाइब्रेरी	-14884
▁इंजीनियरों	-14885
मां	-14886
मिथ	-14887
श्क	-14888
संव	-14889
ालो	-14890
▁जख	-14891
धिपति	-14892
ानन्द	-14893
▁गंदी	-14894
▁जीते	-14895
▁डीपी	-14896
▁फ़्र	-14897
▁मेले	-14898
▁लेबन	-14899
▁औषधीय	-14900
▁डिस्प	-14901
▁प्लेस	-14902
▁मनोमय	-14903
▁अपनाकर	-14904
▁अब्राह	-14905
▁किनारा	-14906
▁गुस्से	-14907
▁घोड़ों	-14908
▁ज्ञानी	-14909
▁टीवीसी	-14910
▁ठहराना	-14911
▁नायिका	-14912
▁रिवर्स	-14913
▁हॉस्टल	-14914
▁ईर्ष्या	-14915
▁चार्ल्स	-14916
▁द्रविड़	-14917
▁बोलियां	-14918
▁सुंदरता	-14919
▁विस्फोटक	-14920
▁इलेक्ट्रान	-14921
BC	-14922
सै	-14923
▁कऋ	-14924
▁शॉ	-14925
▁हँ	-14926
फेयर	-14927
सेसर	-14928
▁END	-14929
▁अपा	-14930
▁आहत	-14931
▁एडल	-14932
▁धाम	-14933
▁नाले	-14934
▁लाती	-14935
▁संचय	-14936
▁सपाट	-14937
▁गुज़र	-14938
▁ग्लास	-14939
▁घनत्व	-14940
▁घूमता	-14941
▁ठहरने	-14942
▁नाड़ी	-14943
▁रक़्त	-14944
▁राइफल	-14945
▁एनसीसी	-14946
▁दिखावा	-14947
▁रिज़र्व	-14948
▁विशेषतः	-14949
▁पीढ़ियों	-14950
▁सार्वभौम	-14951
▁प्रैक्टिस	-14952
▁मंत्रालयों	-14953
eh	-14954
द्म	-14955
पोल	-14956
बाइ	-14957
नाथन	-14958
▁COM	-14959
▁आदी	-14960
▁कोऑ	-14961
▁खडा	-14962
▁गूं	-14963
▁घण्	-14964
▁चूह	-14965
▁जूझ	-14966
▁दीख	-14967
▁नाद	-14968
▁फिस	-14969
▁शमी	-14970
▁शाप	-14971
न्यास	-14972
ल्लोर	-14973
▁that	-14974
▁एचआर	-14975
▁ज़बर	-14976
▁जेवी	-14977
▁तौला	-14978
▁परोप	-14979
▁मशाल	-14980
▁मिमी	-14981
▁सूरी	-14982
रात्रि	-14983
▁आत्मक	-14984
▁उरांव	-14985
▁एकाएक	-14986
▁छंटनी	-14987
▁तेज़ी	-14988
▁नब्बे	-14989
▁पंखों	-14990
▁भेजकर	-14991
▁स्टोन	-14992
▁अब्बास	-14993
▁जन्मति	-14994
▁डीटीएए	-14995
▁नर्सरी	-14996
▁बुधवार	-14997
▁मकानों	-14998
▁रचनाएं	-14999
▁सिक्के	-15000
▁उपबंधों	-15001
▁प्रखण्ड	-15002
▁प्रोविस	-15003
▁विपक्षी	-15004
▁अनुवर्ती	-15005
▁कार्यशील	-15006
▁मूत्राशय	-15007
▁तर्कशीलता	-15008
▁परम्परागत	-15009
▁मेमोरेंडम	-15010
▁अपरिवर्तित	-15011
▁हतोत्साहित	-15012
LT	-15013
ML	-15014
शिव	-15015
▁TO	-15016
ट्टू	-15017
र्सन	-15018
शासन	-15019
▁उबु	-15020
▁कंठ	-15021
▁मोम	-15022
▁अनसु	-15023
▁तुरी	-15024
▁पर्स	-15025
▁बीपी	-15026
▁यकृत	-15027
▁यत्न	-15028
▁लाइव	-15029
▁अशक्त	-15030
▁उपनाम	-15031
▁कराते	-15032
▁खेलों	-15033
▁घूमते	-15034
▁ठुकरा	-15035
▁थिएटर	-15036
▁मारकर	-15037
▁सीवान	-15038
▁सेंसर	-15039
▁अवलंबी	-15040
▁उन्मुख	-15041
▁खासतौर	-15042
▁निरंजन	-15043
▁शेयर्स	-15044
▁सुनाने	-15045
▁दमनकारी	-15046
▁महालेखा	-15047
▁जन्मतिथि	-15048
▁प्रशासित	-15049
▁बेगुनाही	-15050
▁सेमेस्टर	-15051
▁अभियंताओं	-15052
▁निराश्रित	-15053
▁निरीक्षकों	-15054
▁प्राप्तियों	-15055
▁बुद्धिमत्ता	-15056
▁सम्मानपूर्वक	-15057
बम	-15058
टोल	-15059
वचन	-15060
िनम	-15061
▁ईस	-15062
▁कत	-15063
EARS	-15064
चर्य	-15065
जीएस	-15066
ण्डा	-15067
्रास	-15068
▁एआर	-15069
▁घुल	-15070
▁डेन	-15071
▁फंच	-15072
▁मैथ	-15073
▁स्ल	-15074
नीकरण	-15075
श्याम	-15076
स्कों	-15077
▁ऊँची	-15078
▁जबतक	-15079
▁जोकि	-15080
▁ड्रॉ	-15081
▁बंजर	-15082
▁माधु	-15083
▁यहॉँ	-15084
▁सीएफ	-15085
निकेतन	-15086
पोलिटन	-15087
▁अफवाह	-15088
▁कुष्ठ	-15089
▁बीजों	-15090
▁लेफ्ट	-15091
▁सिद्व	-15092
▁आउटलेट	-15093
▁मददगार	-15094
▁क्षुब्ध	-15095
▁पर्वतों	-15096
▁प्रचारक	-15097
▁उत्साहित	-15098
▁पक्षपाती	-15099
▁पूर्णिया	-15100
▁मांसपेशी	-15101
▁अभूतपूर्व	-15102
▁रिस्पोंडेंट	-15103
ks	-15104
ARI	-15105
ama	-15106
म्ड	-15107
लेम	-15108
▁al	-15109
नाशक	-15110
हरित	-15111
िजात	-15112
▁एंग	-15113
▁जगम	-15114
▁दात	-15115
▁नजी	-15116
▁पुट	-15117
▁लेश	-15118
▁Shiv	-15119
▁कुला	-15120
▁गश्त	-15121
▁गाते	-15122
▁दौलत	-15123
▁बीवी	-15124
▁ब्यौ	-15125
▁भुना	-15126
▁म्यु	-15127
▁रावत	-15128
▁रावल	-15129
▁वृषण	-15130
ग्राही	-15131
बुद्धि	-15132
▁ढूंढ़	-15133
▁मुस्क	-15134
▁वोटों	-15135
▁संगीन	-15136
▁कीर्तन	-15137
▁चाइल्ड	-15138
▁जोड़ों	-15139
▁पक्षधर	-15140
▁सूरदास	-15141
▁स्कूली	-15142
▁ऋणात्मक	-15143
▁कारखाना	-15144
▁संलग्नक	-15145
▁अनापत्ति	-15146
▁इन्द्रिय	-15147
▁डिफॉल्टर	-15148
▁विनिर्दिष्ट	-15149
▁प्रतिक्रियावादी	-15150
ES	-15151
राइ	-15152
लील	-15153
़्ल	-15154
▁झक	-15155
साही	-15156
सिंग	-15157
▁SWP	-15158
▁औपन	-15159
▁पाट	-15160
▁रजा	-15161
र्धित	-15162
ाइनरी	-15163
िलिंग	-15164
▁Late	-15165
▁आंसू	-15166
▁कगार	-15167
▁धागे	-15168
▁बंधा	-15169
▁बानो	-15170
▁बायो	-15171
▁बीआर	-15172
▁सप्त	-15173
▁अभिला	-15174
▁कंधों	-15175
▁कराती	-15176
▁गिरोह	-15177
▁गुरुत	-15178
▁टक्कर	-15179
▁तुमसे	-15180
▁नासिक	-15181
▁पक्षा	-15182
▁मिठाई	-15183
▁Secret	-15184
▁खिंचाव	-15185
▁भास्कर	-15186
▁शेट्टी	-15187
▁आरम्भिक	-15188
▁कैप्टिव	-15189
▁कोतवाली	-15190
▁सादृश्य	-15191
▁अनुचितता	-15192
▁क्रिस्टल	-15193
▁खाण्डेकर	-15194
▁दुकानदार	-15195
▁सक्रियता	-15196
▁कठिनाइयां	-15197
▁उत्कृष्टता	-15198
▁राजमार्गों	-15199
▁कार्रवाइयों	-15200
UT	-15201
ऋर	-15202
वॉ	-15203
किम	-15204
▁Bh	-15205
▁No	-15206
ियरी	-15207
▁Moh	-15208
▁एचए	-15209
▁चोप	-15210
▁नमा	-15211
▁पाक	-15212
▁यहा	-15213
▁सहस	-15214
फुल्ल	-15215
▁Post	-15216
▁आकडा	-15217
▁आहरण	-15218
▁खयाल	-15219
▁ख़ास	-15220
▁खेले	-15221
▁गिरी	-15222
▁चुरा	-15223
▁पशुप	-15224
▁बकाए	-15225
▁भरती	-15226
▁भुजा	-15227
▁भोला	-15228
▁मुनि	-15229
▁लोहा	-15230
▁विका	-15231
▁वृहत	-15232
▁साउथ	-15233
▁सावर	-15234
▁बरतने	-15235
▁वायदा	-15236
▁विजयी	-15237
▁सुपरि	-15238
▁हिचकि	-15239
त्तियाँ	-15240
▁अनेकों	-15241
▁अलीगढ़	-15242
▁नंबरों	-15243
▁प्रीतम	-15244
▁मोर्चा	-15245
▁सिक्का	-15246
▁अंबेडकर	-15247
▁लेखांकन	-15248
▁प्रोविसो	-15249
▁बर्दाश्त	-15250
▁न्यायिकता	-15251
▁प्रतिधारण	-15252
▁बेरोजगारी	-15253
▁तिरुनेलवेली	-15254
गीत	-15255
ातु	-15256
ानन	-15257
्मक	-15258
▁NS	-15259
▁PH	-15260
▁sp	-15261
कोहल	-15262
गोचर	-15263
पिंग	-15264
▁was	-15265
▁भान	-15266
▁मदि	-15267
▁मुस	-15268
▁रति	-15269
▁सिन	-15270
भिषेक	-15271
शीर्ष	-15272
▁Shar	-15273
▁ऑक्य	-15274
▁ख़ान	-15275
▁राघव	-15276
▁सोचे	-15277
ENSION	-15278
▁आक्रो	-15279
▁जीनों	-15280
▁दंगों	-15281
▁सामंत	-15282
▁हिटलर	-15283
▁अफ़्री	-15284
▁आँकड़ा	-15285
▁क़ुरआन	-15286
▁तुल्यक	-15287
▁नौसेना	-15288
▁डीलरशिप	-15289
▁प्रशंसक	-15290
▁रणनीतिक	-15291
▁स्टैंडी	-15292
▁हाथियों	-15293
▁अपराधबोध	-15294
▁रिपब्लिक	-15295
▁रेगुलेशन	-15296
▁संस्थापन	-15297
▁साम्यवादी	-15298
▁सृजनात्मक	-15299
▁प्रभावकारी	-15300
▁प्रायद्वीप	-15301
▁ब्लैकलिस्ट	-15302
▁मेट्रोपोलिटन	-15303
PF	-15304
ोव	-15305
AKA	-15306
ंभू	-15307
ोकस	-15308
▁it	-15309
▁उच	-15310
चर्स	-15311
प्ला	-15312
शिला	-15313
िलाई	-15314
्यूब	-15315
▁RAM	-15316
▁छपा	-15317
▁परश	-15318
▁पॉप	-15319
▁रास	-15320
रेटिव	-15321
▁CHIT	-15322
▁Mant	-15323
▁जहॉँ	-15324
▁मोशन	-15325
▁लपेट	-15326
▁वीके	-15327
▁शुगर	-15328
▁सकाः	-15329
▁सतही	-15330
▁सेठी	-15331
ार्जुन	-15332
▁खिड़क	-15333
▁गिरता	-15334
▁ज़बरद	-15335
▁देवघर	-15336
▁पैरवी	-15337
▁रत्ना	-15338
▁वेंडर	-15339
▁अलंकृत	-15340
▁एसआरआई	-15341
▁राठौड़	-15342
▁सन्देह	-15343
▁सप्लाई	-15344
iversity	-15345
▁अफ्रीकी	-15346
▁तालिबान	-15347
▁दिखायें	-15348
▁प्रकाशक	-15349
▁देशभक्ति	-15350
▁प्रधानता	-15351
▁बंदोबस्त	-15352
▁राजकोषीय	-15353
▁अवधारणाओं	-15354
▁डिफेंडेंट	-15355
▁मुकदमेबाज	-15356
▁साफ्टवेयर	-15357
▁पूर्वावलोकन	-15358
▁प्रतिनियुक्त	-15359
▁प्रतिक्रियाओं	-15360
ps	-15361
ere	-15362
नाय	-15363
समी	-15364
▁उध	-15365
AKSH	-15366
▁ADD	-15367
▁अमन	-15368
▁कंद	-15369
▁धरम	-15370
ताकार	-15371
मान्त	-15372
▁Dham	-15373
▁कमां	-15374
▁फौरन	-15375
▁समीर	-15376
ध्यापक	-15377
▁उल्टे	-15378
▁खोजना	-15379
▁गद्दी	-15380
▁रुपया	-15381
▁स्थाय	-15382
ऑक्साइड	-15383
▁डिब्बे	-15384
▁तिब्बत	-15385
▁विषाणु	-15386
▁गलतियों	-15387
▁धारणाओं	-15388
▁रोज़गार	-15389
▁वारिसों	-15390
▁अभ्यर्थी	-15391
▁प्रक्रमण	-15392
▁बहिष्कृत	-15393
▁बिल्डर्स	-15394
▁इलेक्ट्रिक	-15395
▁अपर्याप्तता	-15396
▁पूर्वानुमान	-15397
▁डब्ल्यूपीएनओ	-15398
ऐं	-15399
HAL	-15400
NAT	-15401
ग्ल	-15402
▁AM	-15403
▁घि	-15404
ावटी	-15405
▁ओआर	-15406
▁चैक	-15407
▁थें	-15408
▁नेम	-15409
▁मैड	-15410
▁युव	-15411
▁सुथ	-15412
▁सूख	-15413
हल्ली	-15414
▁उभरे	-15415
▁करूर	-15416
▁चाला	-15417
▁चेयर	-15418
▁बिठा	-15419
रेनियम	-15420
▁अंकुर	-15421
▁फटकार	-15422
▁सरिता	-15423
▁सस्ती	-15424
पेक्षित	-15425
▁क्षिति	-15426
▁घुसपैठ	-15427
▁प्रभात	-15428
▁बुकिंग	-15429
▁बेंगाल	-15430
▁निंदनीय	-15431
▁प्रदूषक	-15432
▁रहस्यमय	-15433
▁अंग्रेज़	-15434
▁कंट्रोलर	-15435
▁करनेवाली	-15436
▁जवाबदेही	-15437
▁प्रांतों	-15438
▁अनुपातहीन	-15439
▁स्टैंडर्ड	-15440
▁दुर्घटनाओं	-15441
▁नियमानुसार	-15442
▁पत्रकारिता	-15443
▁हरिश्चन्द्र	-15444
▁हिंदुस्तानी	-15445
निश	-15446
▁खल	-15447
▁रग	-15448
▁र्	-15449
para	-15450
र्णी	-15451
वंशी	-15452
वर्क	-15453
वांस	-15454
ार्ग	-15455
▁आसन	-15456
▁ऊना	-15457
▁नीच	-15458
▁पंज	-15459
▁भाप	-15460
▁माई	-15461
खियों	-15462
▁चिपक	-15463
▁जलीय	-15464
▁जूरी	-15465
▁टॉवर	-15466
▁तरुण	-15467
▁बाल्	-15468
▁बृहत	-15469
▁भागे	-15470
▁सिकु	-15471
▁स्वय	-15472
▁कुछेक	-15473
▁पीयूष	-15474
▁ब्रिज	-15475
▁विलेज	-15476
▁स्टेन	-15477
▁हर्जा	-15478
▁घोंटने	-15479
▁चिट्ठी	-15480
▁दिलाता	-15481
▁मुरारी	-15482
▁राजदूत	-15483
▁रोहिणी	-15484
▁सौंपना	-15485
▁अतिमानस	-15486
▁गोलियों	-15487
▁जवाबदेह	-15488
▁ट्रैफिक	-15489
▁नक्काशी	-15490
▁पहाड़ों	-15491
▁विशाखाप	-15492
▁उत्सुकता	-15493
▁हजारीबाग	-15494
▁पुर्तगाली	-15495
▁सहिष्णुता	-15496
▁सुपुर्दगी	-15497
यह	-15498
शै	-15499
ोइ	-15500
गान	-15501
डान	-15502
बीस	-15503
मैं	-15504
रोग	-15505
लीक	-15506
▁OP	-15507
▁नस	-15508
aram	-15509
ज़ाम	-15510
मोचन	-15511
समूह	-15512
▁AAG	-15513
▁She	-15514
▁करम	-15515
▁कोइ	-15516
▁ज़ब	-15517
▁ज्ह	-15518
▁तुक	-15519
▁नज़	-15520
▁पेड	-15521
▁मुत	-15522
▁साज	-15523
▁सेव	-15524
रियों	-15525
र्करा	-15526
िकाएं	-15527
▁कुरु	-15528
▁द्यो	-15529
▁नेगी	-15530
▁मलिक	-15531
▁हटने	-15532
स्पष्ट	-15533
▁एनआईए	-15534
▁एसडीओ	-15535
▁गणपति	-15536
▁दफ्तर	-15537
▁पैलेस	-15538
▁मोर्ट	-15539
▁सांके	-15540
▁सुगंध	-15541
कर्त्ता	-15542
च्छिन्न	-15543
▁कार्यो	-15544
▁गुलामी	-15545
▁राजकोट	-15546
्वाकर्षण	-15547
▁अनिच्छा	-15548
▁अनुकूलन	-15549
▁एनसीटीई	-15550
▁गोलाकार	-15551
▁बकरियों	-15552
▁सिलेंडर	-15553
▁हर्जाने	-15554
▁नागालैंड	-15555
▁Secretary	-15556
▁साधारणतया	-15557
▁अनुपलब्धता	-15558
▁प्रतिभूतिकरण	-15559
ife	-15560
ंडन	-15561
नित	-15562
फ़ल	-15563
हिम	-15564
िके	-15565
िपि	-15566
▁SK	-15567
▁UN	-15568
▁जक	-15569
▁नन	-15570
क्कन	-15571
तांत	-15572
योगी	-15573
ुलिन	-15574
ेंगी	-15575
ैक्स	-15576
▁अगु	-15577
▁अनू	-15578
▁केए	-15579
▁टाई	-15580
▁भगव	-15581
▁मीर	-15582
▁रीड	-15583
▁शिख	-15584
▁शूट	-15585
▁सफर	-15586
▁अभिस	-15587
▁कैप्	-15588
▁गुलब	-15589
▁पीएन	-15590
▁लौटी	-15591
▁सुखी	-15592
▁सेतु	-15593
▁हिरण	-15594
स्तरीय	-15595
▁एजीपी	-15596
▁क्वाल	-15597
▁गर्भग	-15598
▁घटाना	-15599
▁चुनना	-15600
▁तितली	-15601
▁दसवीं	-15602
▁पांडा	-15603
▁अलौकिक	-15604
▁कहलाते	-15605
▁छोड़ता	-15606
▁जुड़ने	-15607
▁पार्षद	-15608
▁पुछताछ	-15609
▁रिचर्ड	-15610
▁विभक्त	-15611
▁कार्टून	-15612
▁ट्रांसप	-15613
▁त्रासदी	-15614
▁बेहतरीन	-15615
▁कबूलनामे	-15616
▁क़ानूनों	-15617
▁निर्यातक	-15618
▁सांकेतिक	-15619
▁टेलीग्राफ	-15620
▁प्रच्छन्न	-15621
▁प्रायोगिक	-15622
▁आर्बिट्रेशन	-15623
▁प्रमाणपत्रों	-15624
धव	-15625
ron	-15626
ंजय	-15627
गति	-15628
मीड	-15629
ोनी	-15630
▁Ag	-15631
▁ra	-15632
NAME	-15633
गणित	-15634
दयाल	-15635
रेखण	-15636
ूपुर	-15637
▁अफी	-15638
▁इम्	-15639
▁कोक	-15640
मेन्ट	-15641
वस्तु	-15642
▁अभिल	-15643
▁कनाल	-15644
▁कपाल	-15645
▁ब्यो	-15646
▁संकर	-15647
▁सोया	-15648
▁ह्यू	-15649
स्मारक	-15650
▁India	-15651
▁अनुपम	-15652
▁उदारी	-15653
▁काटकर	-15654
▁ढाँचे	-15655
▁मुजफ्	-15656
▁संतति	-15657
▁उद्यमी	-15658
▁कर्त्त	-15659
▁कीर्ति	-15660
▁केएमसी	-15661
▁गाँवों	-15662
▁जनगणना	-15663
▁डीवीडी	-15664
▁बन्दूक	-15665
▁संबधित	-15666
▁सुन्नी	-15667
▁स्तुति	-15668
▁अनुशंसा	-15669
▁आलोचकों	-15670
▁भंडारित	-15671
▁उपनिषदों	-15672
▁डायरेक्ट	-15673
▁पत्तियां	-15674
▁ऊर्ध्वाधर	-15675
▁खाद्यान्न	-15676
▁पांडिचेरी	-15677
▁अव्यवस्थित	-15678
▁सियारामशरण	-15679
▁निविदाकर्ता	-15680
जद	-15681
लिज	-15682
▁भट	-15683
URGA	-15684
elop	-15685
ourt	-15686
कारो	-15687
जीएम	-15688
न्टू	-15689
ल्सन	-15690
सूची	-15691
हाटी	-15692
[...]
