<unk>	0
<s>	0
</s>	0
UuRrLl	0
DdAaTtEe	0
NnUuMm	0
▁	-3.26791
▁के	-3.40053
▁।	-3.75122
▁है	-3.7702
▁,	-3.82551
▁में	-3.85629
▁की	-4.03797
▁और	-4.20098
▁से	-4.37792
▁का	-4.40793
▁को	-4.41994
▁.	-4.51155
▁-	-4.73711
▁हैं	-4.88958
▁पर	-4.99284
▁एक	-5.00263
▁लिए	-5.02705
०	-5.04975
ों	-5.07063
▁कि	-5.09153
▁यह	-5.32099
▁)	-5.35423
▁नहीं	-5.36108
▁(	-5.36613
▁भी	-5.41451
▁किया	-5.4539
▁इस	-5.46267
▁या	-5.4725
▁करने	-5.47761
▁हो	-5.57625
▁जो	-5.5791
ी	-5.60956
▁ने	-5.6242
▁कर	-5.64122
१	-5.68845
▁था	-5.78354
▁तथा	-5.79626
▁ही	-5.79859
▁गया	-5.90495
ा	-5.97839
▁किसी	-6.00307
▁द्वारा	-6.02085
▁तो	-6.0247
▁रूप	-6.07194
▁वह	-6.10539
▁अपने	-6.14081
▁साथ	-6.23626
ता	-6.25033
न	-6.26765
▁भारत	-6.28066
२	-6.28516
▁जा	-6.33964
▁जाता	-6.36912
▁तक	-6.3808
▁करना	-6.39671
▁न	-6.41203
▁थे	-6.41716
▁कुछ	-6.43711
▁'	-6.43835
▁वे	-6.44543
▁कोई	-6.45941
क	-6.46356
े	-6.48652
▁होता	-6.51312
▁दिया	-6.51681
▁/	-6.54903
▁सकता	-6.55983
▁हम	-6.58181
▁;	-6.58704
▁थी	-6.60779
▁समय	-6.6367
▁करते	-6.66026
▁हुए	-6.67623
▁अधिक	-6.67847
▁मैं	-6.69106
▁करता	-6.6983
▁आप	-6.71098
र	-6.73127
ना	-6.74598
▁जब	-6.74872
▁अपनी	-6.76138
▁अन्य	-6.76867
▁चाहिए	-6.78554
ं	-6.7924
▁उस	-6.7977
▁उनके	-6.82886
▁:	-6.83203
▁रहा	-6.83301
▁बहुत	-6.8468
▁?	-6.84994
▁वाले	-6.85848
▁होने	-6.86805
▁गई	-6.89256
▁रहे	-6.90201
३	-6.90245
▁राज्य	-6.90714
स	-6.91015
▁सभी	-6.91098
▁बाद	-6.91987
▁कार्य	-6.92138
▁उसके	-6.92648
▁कहा	-6.92698
▁जाने	-6.92699
▁प्रकार	-6.93062
▁ऐसे	-6.96353
▁होती	-6.96564
ने	-6.96663
म	-6.97207
▁प्राप्त	-6.98455
▁इन	-6.99805
▁सरकार	-7.00072
▁तरह	-7.02936
▁कम	-7.02947
▁होगा	-7.03416
▁हुआ	-7.03566
ओं	-7.03845
▁गए	-7.04499
▁भारतीय	-7.04998
▁इसके	-7.05552
▁राष्ट्रपति	-7.05574
ो	-7.05844
▁क्षेत्र	-7.05866
्	-7.06202
▁सकते	-7.06301
▁एवं	-7.06324
▁उसे	-7.06502
▁कारण	-7.06502
▁किए	-7.07286
ल	-7.08537
▁उन्हें	-7.08619
▁उन्होंने	-7.09369
▁विकास	-7.09624
▁बात	-7.0967
▁यदि	-7.10605
▁क्या	-7.1082
▁व्यक्ति	-7.1098
▁अधिनियम	-7.114
▁पहले	-7.12416
▁दो	-7.12531
▁देश	-7.12969
▁करें	-7.13091
▁धारा	-7.14171
ित	-7.14269
▁प्रति	-7.14554
त	-7.15336
▁न्यायालय	-7.15426
▁लेकिन	-7.16664
▁ऐसा	-7.17502
कर	-7.1894
▁वर्ष	-7.19714
▁जाती	-7.22856
▁ऐसी	-7.2319
▁आ	-7.23322
ियों	-7.24308
▁लोगों	-7.25096
▁बारे	-7.26496
▁अब	-7.26771
▁हमारे	-7.2722
▁ये	-7.27506
▁दी	-7.29211
▁जीवन	-7.29277
ते	-7.29517
▁उनकी	-7.29618
ि	-7.3076
▁जैसे	-7.31304
▁काम	-7.32876
▁होते	-7.33856
▁अधीन	-7.35807
▁ओर	-7.36621
▁मुझे	-7.36765
▁फिर	-7.37333
▁केवल	-7.37396
▁हुई	-7.38305
▁जाना	-7.39154
▁रही	-7.39371
ः	-7.40096
▁पूर्व	-7.40332
▁नाम	-7.41417
▁बीच	-7.42325
▁प्रदान	-7.42688
▁सी	-7.42803
▁अ	-7.44099
▁बार	-7.44485
▁भाग	-7.44972
४	-7.44997
▁उन	-7.48043
▁अथवा	-7.48182
▁देने	-7.48282
▁विचार	-7.48916
▁“	-7.50083
▁प्रयोग	-7.50249
▁वाली	-7.50622
प	-7.51652
▁जिसमें	-7.52394
▁श्री	-7.52607
▁दोनों	-7.54701
▁जहां	-7.54923
व	-7.5498
▁सकती	-7.55151
▁पास	-7.55615
ें	-7.56898
▁इसे	-7.57223
▁करती	-7.57401
य	-7.57737
▁तब	-7.58353
▁संबंध	-7.58424
ज	-7.58666
ीय	-7.58699
▁होना	-7.59156
▁उसकी	-7.59531
▁ले	-7.59587
▁व	-7.59777
▁%	-7.60123
▁राष्ट्रीय	-7.60284
▁उपयोग	-7.60324
▁क	-7.60797
▁उच्च	-7.60839
▁विधि	-7.61007
▁मे	-7.63576
▁प्रक्रिया	-7.64055
▁ए	-7.64077
▁सबसे	-7.64571
▁लिया	-7.64749
▁स्थान	-7.64814
▁विशेष	-7.64955
▁क्योंकि	-7.65747
ट	-7.66091
▁दिन	-7.66396
▁आधार	-7.66976
▁शिक्षा	-7.6747
िक	-7.67526
▁s	-7.67577
▁जाते	-7.6821
▁हमें	-7.68254
▁हूं	-7.68796
▁संबंधित	-7.68836
▁अपना	-7.68885
▁लोग	-7.69259
▁स्थिति	-7.69612
▁कभी	-7.7125
▁सूचना	-7.71322
ब	-7.71972
ग	-7.72061
▁सेवा	-7.7352
▁अनुसार	-7.73736
▁उपलब्ध	-7.74501
ती	-7.75487
▁सहायता	-7.75513
▁कई	-7.76358
द	-7.76525
▁लिये	-7.76786
▁विश्व	-7.76798
▁विभिन्न	-7.76924
ई	-7.77978
▁मामले	-7.78044
▁जाएगा	-7.78336
▁अगर	-7.78869
▁दूसरे	-7.79024
▁सब	-7.79742
▁आज	-7.79962
▁योजना	-7.79962
ह	-7.80461
का	-7.81079
▁इसलिए	-7.81746
▁दौरान	-7.81749
▁उसका	-7.81756
्स	-7.8179
▁अलग	-7.8193
▁उनका	-7.82023
▁>	-7.82958
▁इसका	-7.83838
▁मुख्य	-7.83916
▁अधिकार	-7.83968
▁आय	-7.84838
▁जाए	-7.84855
▁वाला	-7.8486
▁शामिल	-7.85184
▁"	-7.85295
▁सं	-7.85829
▁अनेक	-7.86185
▁&	-7.86471
▁हर	-7.86892
▁शक्ति	-7.86985
५	-7.87081
▁उसने	-7.87341
ड	-7.88488
▁गये	-7.89071
▁आदि	-7.91216
ण	-7.92083
▁दे	-7.92407
▁जी	-7.92611
या	-7.92641
▁जिसे	-7.9266
री	-7.9292
▁प्रत्येक	-7.93152
ला	-7.93279
▁संख्या	-7.93537
▁निर्माण	-7.9436
के	-7.95076
▁प्र	-7.95116
▁अर्थ	-7.95472
▁यहां	-7.95668
एं	-7.96453
▁बनाने	-7.96749
▁आपको	-7.96977
श	-7.97079
▁ध्यान	-7.97645
▁होगी	-7.97645
▁महत्वपूर्ण	-7.97818
▁प्रयास	-7.97862
▁भाषा	-7.97949
▁नई	-7.98029
▁स्तर	-7.98106
▁बना	-7.98237
▁तैयार	-7.98287
▁तीन	-7.98696
▁जिसके	-7.98958
▁पत्र	-7.99368
▁अवसर	-7.99673
▁हेतु	-8.00134
▁बिना	-8.00219
▁बाहर	-8.00276
▁0	-8.00381
नी	-8.00558
▁प्रतिशत	-8.00862
▁पता	-8.00988
▁उत्तर	-8.01095
▁हमारी	-8.01173
”	-8.01312
▁आर्थिक	-8.01498
▁देता	-8.01534
्य	-8.01564
▁विषय	-8.02757
▁#	-8.02972
▁वि	-8.03023
▁जनता	-8.03209
▁आवश्यक	-8.03245
▁इससे	-8.0455
▁सामान्य	-8.04733
▁प्रभाव	-8.05007
▁आगे	-8.0515
▁स	-8.05291
▁बैंक	-8.05635
▁धर्म	-8.05786
▁करके	-8.06575
▁सके	-8.06753
▁समाज	-8.06911
ू	-8.07197
▁जल	-8.07201
▁ख	-8.07203
▁देना	-8.07828
▁”	-8.08102
▁मूल	-8.08156
▁ग	-8.08469
▁वहां	-8.08603
▁शुरू	-8.08766
▁प्रमुख	-8.08911
▁इसमें	-8.08983
▁लोक	-8.09445
▁जिस	-8.09911
▁लागू	-8.09921
ए	-8.10348
▁एस	-8.10355
वा	-8.10399
▁आवश्यकता	-8.10948
▁क्षेत्रों	-8.11003
▁हों	-8.11181
▁जारी	-8.11708
▁पूरी	-8.11725
▁आपके	-8.11978
▁विश्वास	-8.12185
▁इसी	-8.1243
▁सामाजिक	-8.12452
▁मेरे	-8.12677
▁बन	-8.12803
▁आदेश	-8.12833
▁ज्ञान	-8.12976
▁काफी	-8.13036
▁प्रणाली	-8.13081
▁चार	-8.13431
▁पी	-8.13642
▁लाभ	-8.14011
यों	-8.14176
▁स्वयं	-8.14215
▁पूरा	-8.14568
▁भवन	-8.14812
▁‘	-8.15394
▁मन	-8.15633
▁प्रौद्योगिकी	-8.15695
▁घर	-8.15812
▁नीति	-8.16405
रा	-8.16638
की	-8.16857
▁माध्यम	-8.17126
▁स्थापित	-8.17323
▁तुम	-8.17344
▁उद्योग	-8.17622
▁गयी	-8.17698
▁लगभग	-8.17887
▁आई	-8.17932
पूर्ण	-8.18369
▁सदस्य	-8.18406
ु	-8.18449
▁कंपनी	-8.18505
▁दर	-8.18565
▁लगा	-8.188
▁मामलों	-8.18818
▁निर्णय	-8.18939
र्इ	-8.19017
▁अवधि	-8.19201
से	-8.19255
▁खंड	-8.19437
▁आयोग	-8.19927
▁हूँ	-8.20182
▁जानकारी	-8.20618
▁मैंने	-8.21009
▁दूर	-8.21405
▁समान	-8.21439
▁बड़ी	-8.21678
▁सुरक्षा	-8.22005
▁पूर्ण	-8.22088
▁कार्यक्रम	-8.22183
िंग	-8.22298
▁!	-8.22473
▁मूल्य	-8.22499
▁कृषि	-8.22567
जी	-8.22959
▁व्यवस्था	-8.23283
ख	-8.23526
▁संविधान	-8.23691
▁विज्ञान	-8.24225
▁सभा	-8.2487
▁मानव	-8.2506
▁उप	-8.2541
’	-8.25969
▁देशों	-8.25984
▁जिससे	-8.2607
सी	-8.26075
▁इसकी	-8.26119
▁अधिकारी	-8.26126
▁जिसका	-8.26235
▁स्वीकार	-8.26301
▁ठीक	-8.26997
▁मिल	-8.27039
▁संबंधी	-8.2711
▁देते	-8.27112
▁अभी	-8.27134
▁रिपोर्ट	-8.27384
▁रखने	-8.27456
▁उत्पादन	-8.2788
▁ई	-8.28093
▁स्पष्ट	-8.28489
▁अंतर्गत	-8.28637
▁सूची	-8.28669
▁पद	-8.28754
▁परिवर्तन	-8.28776
▁ऋण	-8.28851
▁जैसा	-8.29231
▁विभाग	-8.2927
▁उद्देश्य	-8.29455
▁बड़े	-8.29696
▁<	-8.29753
▁उपधारा	-8.29852
▁शब्द	-8.30012
च	-8.30229
▁प्रस्तुत	-8.30413
▁ऊपर	-8.30452
▁कुल	-8.30792
▁शरीर	-8.31713
मा	-8.31735
▁राशि	-8.31854
ऋ	-8.32358
▁रखा	-8.32383
▁बल्कि	-8.32489
६	-8.32615
▁संघ	-8.32993
▁राष्ट्र	-8.33236
▁चाहते	-8.33519
▁सुधार	-8.33726
▁सा	-8.33751
▁ऊ	-8.33946
▁सीमा	-8.34053
▁मेरी	-8.34113
ज़	-8.34128
▁समूह	-8.34499
ियां	-8.34587
▁समिति	-8.35529
▁विशिष्ट	-8.35543
▁दृष्टि	-8.35598
▁क्षमता	-8.35954
▁सही	-8.36153
▁उपबंध	-8.36397
▁अतिरिक्त	-8.37122
ली	-8.37303
▁देखा	-8.37425
▁आने	-8.37441
▁अनुच्छेद	-8.37459
▁सामने	-8.37899
▁नीचे	-8.38288
▁यहाँ	-8.38298
फ	-8.38405
▁युद्ध	-8.38955
▁कहते	-8.3902
▁नियम	-8.39055
▁वर्ग	-8.3929
▁स्वास्थ्य	-8.39449
▁यात्रा	-8.40484
▁प्रश्न	-8.40616
▁लेने	-8.41022
▁अनुसंधान	-8.41109
▁परंतु	-8.4113
▁सहयोग	-8.41239
▁वर्तमान	-8.42026
▁पानी	-8.42492
िया	-8.42714
▁वर्षों	-8.42922
▁दिए	-8.42926
▁न्याय	-8.43034
▁स्थित	-8.43094
▁ली	-8.43275
▁व्यापार	-8.43534
को	-8.43535
▁छोटे	-8.43596
▁विदेशी	-8.43886
▁संयुक्त	-8.43901
▁एन	-8.43924
▁आर	-8.44133
▁रंग	-8.44505
▁निर्धारण	-8.44587
▁रह	-8.44837
▁करेगा	-8.4508
▁बी	-8.45091
▁जमा	-8.45693
▁मध्य	-8.4575
▁उससे	-8.45861
▁नि	-8.4597
▁होंगे	-8.46048
▁सिंह	-8.46105
▁व्यक्तियों	-8.46131
▁थीं	-8.46229
▁भीतर	-8.4641
▁साल	-8.46499
▁प्रयोजन	-8.46606
▁वास्तव	-8.46608
▁मृत्यु	-8.46673
▁बच्चों	-8.4677
▁अंत	-8.46788
▁बड़ा	-8.46788
▁सु	-8.46826
▁वस्तु	-8.46908
▁उसी	-8.46917
▁परन्तु	-8.4692
़	-8.46982
▁भर	-8.47164
▁आधारित	-8.47247
▁तौर	-8.47263
▁नियंत्रण	-8.47396
ड़	-8.47533
िका	-8.47562
▁उच्चतम	-8.4769
▁रहने	-8.4819
▁अध्ययन	-8.48369
▁प्रथम	-8.48463
▁प्रदेश	-8.48628
▁अनुभव	-8.48665
▁कु	-8.48666
ंग	-8.4874
▁विवाह	-8.48778
▁ब	-8.48871
▁वृद्धि	-8.49025
▁मांग	-8.49182
▁उदाहरण	-8.49184
▁विश्वविद्यालय	-8.49295
▁नही	-8.49391
▁रहते	-8.49521
▁द	-8.49628
▁आम	-8.49786
▁ज्यादा	-8.502
▁संस्थान	-8.50234
▁सरकारी	-8.50483
▁लगता	-8.50998
▁समाप्त	-8.51004
▁दूसरी	-8.51359
▁अनु	-8.51389
▁माल	-8.51483
▁विकसित	-8.51503
▁न्यायाधीश	-8.51845
▁करेंगे	-8.51954
▁अंतिम	-8.5226
▁काल	-8.52287
▁नए	-8.52345
थ	-8.52406
▁बाजार	-8.52475
▁वित्तीय	-8.52651
▁प्रकृति	-8.53128
▁जांच	-8.53164
छ्ष	-8.53333
ण्श्	-8.53379
▁पैदा	-8.53448
▁भूमि	-8.53683
▁उत्पन्न	-8.53971
▁डी	-8.54244
▁जन्म	-8.54278
▁स्थापना	-8.5436
▁दिल्ली	-8.54421
▁निर्धारित	-8.54633
▁धन	-8.548
▁लेकर	-8.54914
▁ओ	-8.55022
▁कैसे	-8.55068
▁इतिहास	-8.551
▁भूमिका	-8.55357
▁किंतु	-8.55387
▁केंद्र	-8.55563
▁मत	-8.55583
▁संदेश	-8.55927
ले	-8.56399
▁रोग	-8.56432
▁मदद	-8.56461
▁स्वतंत्रता	-8.56569
▁आवेदन	-8.56879
▁सदस्यों	-8.56938
▁किये	-8.56984
▁समस्या	-8.57014
▁पुनः	-8.57046
▁करे	-8.57289
▁हमने	-8.57372
▁संशोधन	-8.58087
▁मात्रा	-8.58121
▁संसद	-8.58132
▁अच्छा	-8.58185
▁माना	-8.58188
▁परिणाम	-8.58376
0	-8.58451
▁परिवार	-8.58707
▁यही	-8.59246
गत	-8.59313
▁आरंभ	-8.59446
▁राज्यों	-8.59851
▁कानून	-8.59883
▁प्रस्ताव	-8.59977
▁सत्ता	-8.6035
▁कांग्रेस	-8.60485
▁बाहरी	-8.60548
▁सहित	-8.60743
▁बनाया	-8.61012
▁संगठन	-8.61059
▁बल	-8.61173
▁शासन	-8.61418
ओ	-8.61533
▁अप	-8.61692
▁हाथ	-8.61761
▁भुगतान	-8.62188
▁निवेश	-8.62432
▁अच्छी	-8.62538
▁उचित	-8.62604
▁ताकि	-8.62608
▁सुनिश्चित	-8.62621
७	-8.62633
ाई	-8.62967
▁बे	-8.62991
▁लाख	-8.63101
▁पक्ष	-8.6316
ात्मक	-8.63206
▁खोज	-8.63207
▁इ	-8.63255
ति	-8.6332
▁व्यापक	-8.63459
▁रुप	-8.63495
▁प्रशिक्षण	-8.63595
▁राम	-8.63692
▁विस्तार	-8.63698
s	-8.64119
▁म	-8.6428
▁अपील	-8.6431
▁दुनिया	-8.64417
▁अपराध	-8.64743
▁प्रेम	-8.64836
▁जबकि	-8.64949
▁स्थानीय	-8.64995
सा	-8.65039
▁जाएगी	-8.6506
▁रहता	-8.65091
▁बस	-8.65493
▁दक्षिण	-8.65523
▁ह	-8.65757
▁राय	-8.66012
▁विरुद्ध	-8.66049
▁लक्ष्य	-8.66065
▁पश्चात्	-8.6609
गी	-8.66323
▁उसमें	-8.66354
▁पहचान	-8.66488
▁तहत	-8.66566
दार	-8.66582
▁अपेक्षा	-8.66594
▁भिन्न	-8.66803
▁एम	-8.66842
▁दिशा	-8.66991
▁साहित्य	-8.67052
▁अमेरिका	-8.67193
▁प	-8.67444
▁देख	-8.67475
▁बनाए	-8.67503
▁निर्दिष्ट	-8.67636
▁बराबर	-8.68109
▁बच्चे	-8.68362
▁होकर	-8.68481
▁उनमें	-8.68564
▁पा	-8.68631
▁जन	-8.6876
दा	-8.68868
▁प्रभावित	-8.68967
▁पीछे	-8.69079
ीकरण	-8.69553
▁आकार	-8.69704
गा	-8.69883
▁चाहिये	-8.69888
▁यू	-8.69967
▁पर्याप्त	-8.70004
▁वेबसाइट	-8.70178
▁प्रबंधन	-8.70233
▁सार्वजनिक	-8.70791
में	-8.70927
▁जरूरत	-8.71366
▁कमी	-8.7147
टी	-8.71597
▁पूंजी	-8.71702
▁निम्नलिखित	-8.72088
ंड	-8.72215
▁जिन	-8.72242
▁पिछले	-8.72266
▁पुलिस	-8.72357
▁परियोजना	-8.72439
बी	-8.72716
▁दिनों	-8.72801
▁प्रवेश	-8.72934
▁पिता	-8.73235
▁आया	-8.73365
▁मंदिर	-8.73373
▁केंद्रीय	-8.73671
▁मार्ग	-8.73884
▁अभि	-8.73886
▁पहली	-8.74045
▁गैर	-8.7415
▁चला	-8.74166
रे	-8.74491
▁क्यों	-8.7504
▁सत्य	-8.75207
▁दंड	-8.75426
▁प्रगति	-8.75494
▁कहीं	-8.75496
▁सन्	-8.75532
▁बंद	-8.75535
▁वो	-8.75845
▁समझ	-8.75986
▁संभव	-8.76203
▁मिला	-8.76281
पन	-8.7637
▁अलावा	-8.7648
▁गांधी	-8.7672
▁निश्चित	-8.76741
▁जगह	-8.76854
▁ग्रामीण	-8.76914
▁शब्दों	-8.76923
▁विवरण	-8.76923
▁ऊर्जा	-8.76945
▁छोड़	-8.76997
▁अनुमति	-8.77101
▁चाहे	-8.77176
▁मंत्रालय	-8.77223
▁राज	-8.77366
▁राजा	-8.77446
▁औद्योगिक	-8.77538
▁व्यक्त	-8.77618
▁]	-8.78072
▁बोर्ड	-8.7813
ँ	-8.78138
▁अध्यक्ष	-8.7852
▁लिखा	-8.78549
▁ढंग	-8.78646
▁समर्थन	-8.78647
▁[	-8.78735
▁सह	-8.78773
▁नदी	-8.78783
▁अंग	-8.79471
▁जिन्हें	-8.79729
▁फाइल	-8.80116
▁लगे	-8.80225
▁शायद	-8.80461
▁च	-8.80478
▁इस्तेमाल	-8.8059
▁क्रिया	-8.80614
▁संस्था	-8.80701
▁देती	-8.80921
▁राजनीतिक	-8.80969
▁समाधान	-8.81011
▁महत्व	-8.81019
▁आधुनिक	-8.81123
ै	-8.81251
▁चल	-8.81391
▁अव	-8.81716
▁व्यवहार	-8.81912
▁A	-8.82153
▁चिकित्सा	-8.82206
▁सक्रिय	-8.82249
▁पहुंच	-8.82263
▁बीमा	-8.82381
▁पाया	-8.82412
▁जिनमें	-8.82436
▁पांच	-8.82449
▁इतना	-8.82776
▁ला	-8.82798
▁मान	-8.83227
▁उ	-8.83292
▁मुखर्जी	-8.83305
▁गति	-8.83542
▁करोड़	-8.8401
▁योग्य	-8.84118
▁सहायक	-8.84122
▁लेखा	-8.84352
▁ज	-8.84571
▁मेरा	-8.84617
▁हे	-8.84828
▁मुक्त	-8.84987
▁मनुष्य	-8.8499
▁सामग्री	-8.85112
o	-8.85188
्र	-8.85228
▁भविष्य	-8.8528
▁न्यायिक	-8.85339
▁सक्षम	-8.8534
▁पालन	-8.85364
▁बंगाल	-8.85389
▁जैसी	-8.854
▁हमारा	-8.85442
▁चाहता	-8.85627
▁तारीख	-8.85858
ॉ	-8.85921
▁पूरे	-8.8593
▁अन	-8.86071
▁खेल	-8.86075
▁एक्स	-8.86077
▁हाल	-8.86081
▁निर्यात	-8.86114
▁सुविधा	-8.86194
ध	-8.86217
▁वास्तविक	-8.86221
▁प्रकट	-8.86294
▁वापस	-8.8631
▁रक्षा	-8.86375
▁संरक्षण	-8.86406
▁पुस्तक	-8.86508
▁निजी	-8.86831
▁कल	-8.86972
▁नया	-8.87021
▁संपत्ति	-8.87196
▁बनाम	-8.87209
▁प्रकाशित	-8.87239
वाद	-8.87289
▁चुका	-8.87366
▁पुरस्कार	-8.874
▁यद्यपि	-8.87608
▁ल	-8.87691
▁किस	-8.87702
▁विधान	-8.87717
▁कला	-8.87746
▁प्रकाश	-8.87803
▁याद	-8.8808
▁प्रारंभ	-8.88292
▁अवस्था	-8.88414
▁न्यायालयों	-8.8842
▁आत्मा	-8.88553
डी	-8.88597
अ	-8.88703
▁इनमें	-8.88727
▁रकम	-8.88869
▁कह	-8.8889
▁समक्ष	-8.89093
▁दशा	-8.89129
▁चर्चा	-8.89179
वि	-8.89263
▁रखना	-8.89452
▁भावना	-8.89471
भ	-8.8967
▁हमेशा	-8.89709
▁कंप्यूटर	-8.89778
▁उल्लेख	-8.89879
▁शहर	-8.89886
▁संदर्भ	-8.90017
▁सिर्फ	-8.90041
▁केन्द्र	-8.90063
▁बाल	-8.90128
▁टी	-8.90243
▁रखते	-8.90296
▁बेहतर	-8.90553
▁ईश्वर	-8.90581
▁भ	-8.90789
▁उत्पाद	-8.90914
▁सकेगा	-8.90992
▁दें	-8.91014
▁मंत्री	-8.91074
▁पार	-8.91085
▁सेवाओं	-8.91204
▁संपर्क	-8.91239
▁देखने	-8.91302
▁भाव	-8.91564
▁लागत	-8.91801
▁महिला	-8.91859
कार	-8.91906
▁कविता	-8.92223
▁स्कूल	-8.9224
▁केन्द्रीय	-8.9227
वी	-8.92543
मान	-8.92648
▁कदम	-8.92903
▁धीरे	-8.92957
▁बताया	-8.93003
▁घ	-8.93088
▁सदन	-8.93121
▁युवा	-8.93278
ष	-8.93286
▁रक्त	-8.93445
▁अल	-8.93635
▁योगदान	-8.9364
एँ	-8.9365
▁जिसकी	-8.93704
▁महान	-8.93708
▁किन्तु	-8.93738
कारी	-8.93749
▁निधि	-8.93756
▁रचना	-8.93825
▁छोटी	-8.94042
▁जाये	-8.94066
▁कवि	-8.94172
▁य	-8.94275
▁दिवस	-8.9445
▁उपचार	-8.9458
▁पश्चिम	-8.94674
▁पुरुष	-8.94678
▁प्रशासन	-8.94889
मी	-8.94909
a	-8.94965
▁दिखाई	-8.95034
▁दूसरा	-8.9523
प्र	-8.9524
▁सिद्धांत	-8.95468
▁लघु	-8.95492
टा	-8.95614
▁धार्मिक	-8.95701
▁एल	-8.95847
▁कोशिश	-8.96057
▁वहाँ	-8.96139
▁सीमित	-8.96263
▁सेना	-8.96483
स्ट	-8.96503
▁तंत्र	-8.9651
▁तरीके	-8.96585
▁त	-8.96588
▁अधिकांश	-8.96597
▁जीव	-8.96633
▁सम्मान	-8.96745
▁प्रणब	-8.96861
▁सर	-8.96943
८	-8.97141
आ	-8.97495
▁ब्रिटिश	-8.97612
▁संरचना	-8.9779
▁हिन्दी	-8.97923
▁सारे	-8.98123
▁जाति	-8.98207
▁दल	-8.98311
घ	-8.98312
▁प्रभावी	-8.98334
▁बदल	-8.98395
▁अध्याय	-8.98443
▁सोच	-8.98547
▁परीक्षा	-8.98571
▁खर्च	-8.98622
ां	-8.98654
▁आशा	-8.9876
▁रहती	-8.98763
▁समझा	-8.98795
▁मुद्रा	-8.98854
▁मु	-8.98931
▁अति	-8.98942
▁लग	-8.98958
रो	-8.99
ठ	-8.99047
फ़	-8.99179
▁अंग्रेजी	-8.992
▁उनसे	-8.99359
▁जिला	-8.99526
▁निर्देश	-8.99906
▁पद्धति	-9.00073
▁सफल	-9.00119
▁संस्कृति	-9.00145
वर	-9.00171
▁प्राकृतिक	-9.0033
▁दस	-9.00358
▁बने	-9.00544
करण	-9.00582
▁गुणवत्ता	-9.008
म्	-9.00874
▁रु	-9.00988
▁आता	-9.01212
▁उठा	-9.01277
▁नेटवर्क	-9.01367
▁छ	-9.01383
▁सम्मिलित	-9.01395
▁जहाँ	-9.01436
▁देखते	-9.0153
▁शांति	-9.01686
▁वित्त	-9.0174
▁हित	-9.01911
▁विवाद	-9.0199
जा	-9.01995
▁a	-9.0209
▁आयु	-9.02222
▁भोजन	-9.02524
▁वही	-9.02627
▁अनिवार्य	-9.02705
▁अधिकारियों	-9.02829
▁उपकरण	-9.0292
▁कार्यालय	-9.02924
▁नाटक	-9.03407
▁परि	-9.03412
▁पृष्ठ	-9.03463
▁वर्णन	-9.03477
▁हिस्सा	-9.03564
▁खुलती	-9.03574
वादी	-9.03619
ौ	-9.03755
▁आपकी	-9.03819
▁विशाल	-9.03945
▁साधारण	-9.0396
पर	-9.04005
▁व्यक्तिगत	-9.04099
▁विंडों	-9.04519
▁शुल्क	-9.04584
▁समारोह	-9.04585
▁ऑफ	-9.04773
▁मिलता	-9.04801
▁अत्यंत	-9.04873
सं	-9.04996
▁उपयुक्त	-9.05302
▁बढ़	-9.05342
▁मुस्लिम	-9.05491
▁संहिता	-9.05532
ये	-9.05626
▁अतः	-9.0581
▁संघर्ष	-9.05994
▁करनी	-9.06033
▁लेना	-9.06096
▁व्यय	-9.06239
पुर	-9.06265
▁बधाई	-9.06281
स्त	-9.06283
▁अंतर	-9.06365
▁तुलना	-9.06425
▁विचारों	-9.06512
▁निर्धारिती	-9.06562
▁चित्र	-9.06596
▁जिनके	-9.06612
▁आंदोलन	-9.06825
बा	-9.07131
▁ट	-9.07147
न्	-9.07202
▁रख	-9.07308
त्व	-9.07442
▁दृष्टिकोण	-9.07459
▁वैज्ञानिक	-9.07581
▁सफलता	-9.07638
▁सकें	-9.07657
▁लाल	-9.07955
▁संभावना	-9.08142
▁भारी	-9.0823
▁निर्भर	-9.0837
▁जे	-9.08496
▁सिविल	-9.08775
▁संगीत	-9.0891
▁उपबंधों	-9.08955
▁नगर	-9.09108
▁सि	-9.09155
▁प्रदर्शन	-9.09259
स्	-9.09335
▁नियमों	-9.09442
▁सिफारिश	-9.09687
▁गलत	-9.09701
जन	-9.09778
▁महा	-9.09855
▁नये	-9.09977
▁तथापि	-9.10071
e	-9.10096
▁आयोजित	-9.10248
▁पड़ा	-9.10577
▁घोषणा	-9.10581
ंस	-9.10689
▁संस्थानों	-9.10698
▁हिन्दू	-9.10722
▁पाने	-9.10794
▁गंभीर	-9.10924
हा	-9.10939
▁विनिर्दिष्ट	-9.1094
▁व्य	-9.10963
▁हृदय	-9.10991
▁घटना	-9.11014
▁आते	-9.1105
▁फ़ाइल	-9.11062
▁संसाधन	-9.11099
्त	-9.11144
▁पर्यावरण	-9.11323
▁कार्यवाही	-9.1134
नि	-9.1136
i	-9.11872
▁फ	-9.11977
▁विधेयक	-9.12114
▁खाते	-9.12149
▁संकेत	-9.12159
▁जानते	-9.12235
▁प्राचीन	-9.12291
▁संस्कृत	-9.12374
▁विरोध	-9.12448
▁दर्शन	-9.12489
▁जानी	-9.12499
▁कठिन	-9.12632
▁अच्छे	-9.12803
▁शेयर	-9.12812
▁कार्रवाई	-9.12833
▁i	-9.12908
▁शिकायत	-9.12932
▁जिसने	-9.12964
▁र	-9.13011
▁सुरक्षित	-9.13194
▁जरूरी	-9.13236
▁परिषद	-9.13409
▁लेते	-9.13422
वीं	-9.13498
▁–	-9.13618
▁अंतरराष्ट्रीय	-9.13689
▁प्रधान	-9.13706
▁स्वरूप	-9.13914
▁S	-9.14069
▁बहु	-9.14159
▁ब्याज	-9.14228
▁बनाना	-9.14309
▁डॉ	-9.14342
ण्ड	-9.14554
वे	-9.14676
▁सिर	-9.14777
र्स	-9.14872
क्ष	-9.14974
▁कहना	-9.15147
t	-9.15248
▁पड़ता	-9.15323
▁वी	-9.15341
▁मात्र	-9.15348
▁सम	-9.15557
▁पारित	-9.15622
▁स्व	-9.15633
▁माता	-9.15688
▁आत्म	-9.15696
▁खाद्य	-9.15774
▁सलाह	-9.15834
▁आदमी	-9.16155
▁गुण	-9.16243
▁छोटा	-9.16325
यां	-9.16423
▁जान	-9.16427
▁युग	-9.16525
▁उपाय	-9.16978
▁तकनीकी	-9.17168
▁विकल्प	-9.17189
▁कौन	-9.1725
▁उपस्थित	-9.17351
▁सम्मेलन	-9.17368
▁गर्इ	-9.17431
▁मिली	-9.17611
▁उद्यम	-9.17724
ाल	-9.17874
▁हैः	-9.17881
▁बिल	-9.17988
▁अर्थात्	-9.17994
▁इच्छा	-9.17996
▁अंदर	-9.1801
▁आदर्श	-9.18045
▁तरफ	-9.18097
▁पे	-9.18106
▁पदार्थ	-9.18137
▁सात	-9.18187
▁संपूर्ण	-9.18246
▁कार्यों	-9.18383
▁लगाया	-9.18386
▁निम्न	-9.18405
▁डेटा	-9.18481
▁मित्र	-9.18499
▁होनी	-9.18543
▁इजरायल	-9.18752
▁खुद	-9.18812
▁अधिकारों	-9.18901
तर	-9.1898
▁स्वतंत्र	-9.19101
▁व्यवसाय	-9.19131
छ	-9.19175
वार	-9.19253
▁नियुक्त	-9.19306
▁दृश्य	-9.19369
▁कहानी	-9.19416
▁वाणिज्यिक	-9.19435
▁समुदाय	-9.19455
▁पहला	-9.19595
▁अप्रैल	-9.19894
▁तर्क	-9.19959
▁पश्चिमी	-9.20028
▁तेजी	-9.20183
▁मार्च	-9.20188
▁तथ्य	-9.2033
▁स्थायी	-9.20435
मय	-9.20465
▁हानि	-9.20589
▁सिद्ध	-9.20608
▁विद्यमान	-9.20613
▁परीक्षण	-9.20614
उ	-9.20701
▁महिलाओं	-9.20827
पी	-9.2086
▁खाता	-9.21048
▁रात	-9.21163
तः	-9.21196
▁पार्टी	-9.21199
त्र	-9.21261
▁फल	-9.21289
▁अरब	-9.213
▁तेल	-9.2157
▁सुझाव	-9.21591
९	-9.21631
▁नागरिक	-9.21646
▁श	-9.21682
▁चुके	-9.21838
▁भा	-9.21851
▁निगम	-9.22169
▁रहना	-9.222
▁निर्वाचन	-9.22362
▁काव्य	-9.22687
▁सो	-9.22727
▁डा	-9.22802
▁कृपया	-9.22853
▁बनी	-9.22864
कर्ता	-9.22894
▁मजबूत	-9.23178
▁शेष	-9.23276
▁शताब्दी	-9.23363
ड़ा	-9.23579
▁आपका	-9.23658
▁गुना	-9.2382
▁महसूस	-9.23843
▁विस्तृत	-9.23849
▁सम्बन्ध	-9.23895
▁वातावरण	-9.24242
▁इस्लाम	-9.24383
▁वेतन	-9.24449
▁शून्य	-9.24497
▁अर्थव्यवस्था	-9.24506
▁प्रमाण	-9.24573
▁प्राप्ति	-9.24604
▁कर्मचारियों	-9.24642
▁लाने	-9.24646
▁बता	-9.24822
▁ग्रहण	-9.24826
▁योग	-9.2484
३०	-9.2498
▁झ	-9.25132
▁पेश	-9.25173
▁वस्तुओं	-9.25186
▁गांव	-9.25198
▁रोजगार	-9.25247
▁स्रोत	-9.25289
▁निर्मित	-9.25448
▁डे	-9.25454
▁दायित्व	-9.25528
▁जिन्होंने	-9.2565
▁अत्यधिक	-9.25701
ाना	-9.25741
▁ग्राम	-9.25867
▁वायु	-9.25912
रू	-9.26017
▁परिस्थितियों	-9.26068
▁सका	-9.26104
▁कल्पना	-9.2616
▁सौ	-9.26263
▁दिये	-9.26397
▁समुद्र	-9.26521
▁मौजूद	-9.2655
वें	-9.26561
▁चयन	-9.26656
▁नियमित	-9.26757
▁अगले	-9.2699
▁भू	-9.27034
00	-9.27161
▁सरल	-9.27187
िल	-9.27345
▁मर	-9.27406
ड़ी	-9.27429
▁प्रधानमंत्री	-9.2744
▁करार	-9.27762
▁मि	-9.27856
हीन	-9.27935
▁निकट	-9.27975
▁सामना	-9.28069
▁आयुक्त	-9.28089
l	-9.28153
▁कानूनी	-9.28162
▁मिलने	-9.28224
▁समस्याओं	-9.28238
▁इतनी	-9.28267
▁भाई	-9.28384
▁श्रेणी	-9.28428
▁चुनाव	-9.28452
दी	-9.28501
▁जोर	-9.28586
▁प्रत्यक्ष	-9.28839
▁आती	-9.28957
▁पत्नी	-9.2896
िस	-9.29183
▁आए	-9.29266
▁छात्र	-9.2931
▁सांस्कृतिक	-9.29405
▁बढ़ाने	-9.29407
▁कराने	-9.29563
▁लेखक	-9.29578
▁तत्व	-9.29741
▁बोल	-9.2982
y	-9.29883
▁दावा	-9.30041
▁क्षेत्रीय	-9.3016
▁हालांकि	-9.30209
▁पि	-9.30347
िन	-9.30427
▁विद्युत	-9.30666
▁निरंतर	-9.30741
▁अंश	-9.30985
er	-9.31091
▁वाद	-9.31191
शी	-9.31257
स्थ	-9.31291
▁गणराज्य	-9.31329
▁मामला	-9.31449
▁ऐ	-9.31499
ंट	-9.31522
▁मेल	-9.3157
▁विदेश	-9.3158
▁प्राधिकरण	-9.31813
▁संकल्प	-9.31843
▁हिंदू	-9.31927
▁बावजूद	-9.31974
▁रोक	-9.31996
▁लगी	-9.32188
मन	-9.32351
▁मार	-9.32446
▁रि	-9.32514
▁आतंकवाद	-9.32569
ाव	-9.32617
▁संचार	-9.32679
▁नामक	-9.32719
हर	-9.32777
इ	-9.32838
▁खरीद	-9.32868
▁हिंदी	-9.32967
▁मुसलमानों	-9.32969
▁मानसिक	-9.33009
▁वार्षिक	-9.33067
▁अधिवक्ता	-9.3308
▁एफ	-9.33134
▁पेज	-9.33151
▁हल	-9.33257
▁इनके	-9.33263
▁इंडिया	-9.33339
▁पाकिस्तान	-9.33348
डा	-9.33351
ार	-9.33373
▁महीने	-9.33853
▁प्रायः	-9.33897
S	-9.33981
▁कर्म	-9.34023
तम	-9.34101
▁उक्त	-9.34116
▁प्रसिद्ध	-9.3415
▁बैठक	-9.34156
▁खास	-9.34187
▁कर्मचारी	-9.34212
▁सुन	-9.34295
▁अधिकतम	-9.34394
▁परामर्श	-9.34431
▁बढ़ा	-9.34607
ास	-9.34737
▁अधिकारिता	-9.34906
▁रुपये	-9.34951
r	-9.34996
▁हवा	-9.35057
ंक	-9.35069
▁क्रम	-9.35172
▁स्थल	-9.35202
▁गठन	-9.35265
▁संस्थाओं	-9.3536
▁पाठ	-9.35518
ियाँ	-9.35646
▁सीधे	-9.35656
▁इत्यादि	-9.35712
▁सारी	-9.358
▁बिजली	-9.35992
▁शीघ्र	-9.35995
▁उपन्यास	-9.36089
बद्ध	-9.36166
▁साफ	-9.36171
▁सिस्टम	-9.36176
▁शैली	-9.36351
▁त्रुटि	-9.36408
▁स्वामी	-9.36436
▁तुम्हें	-9.36516
▁मूल्यांकन	-9.36673
▁लि	-9.36698
र्	-9.36755
▁मां	-9.36773
▁मी	-9.36889
▁आनंद	-9.37022
▁साक्ष्य	-9.37182
रूप	-9.37241
सर	-9.37536
म्ब	-9.37662
▁मान्यता	-9.3767
▁मिलती	-9.37708
▁नेता	-9.37708
▁अंतरण	-9.37733
▁उपभोक्ता	-9.37749
▁लगाने	-9.37899
▁मै	-9.3791
यें	-9.37942
▁आक्रमण	-9.37989
▁प्रावधान	-9.38039
▁कारबार	-9.38153
▁जल्दी	-9.38261
▁साधन	-9.38305
ंत	-9.38479
▁तभी	-9.385
▁खो	-9.38581
▁रखे	-9.38914
▁पुराने	-9.3897
▁यथा	-9.39171
शन	-9.39304
▁फ़	-9.39348
▁प्रयुक्त	-9.39396
▁अनुवाद	-9.39411
▁समस्त	-9.39438
▁पात्र	-9.39579
▁अस्तित्व	-9.39595
▁अधि	-9.39751
▁सवाल	-9.39767
▁रुपए	-9.39835
n	-9.39989
▁जाय	-9.40055
▁समाचार	-9.40059
▁पहल	-9.40109
▁देखभाल	-9.4012
▁आपने	-9.40224
▁सर्व	-9.40312
ड़े	-9.40362
यी	-9.40379
▁भाषण	-9.40492
▁आयात	-9.40603
▁रे	-9.40651
▁लोकतंत्र	-9.40664
▁हजार	-9.40676
▁कल्याण	-9.40732
▁सूक्ष्म	-9.40736
▁जनवरी	-9.40887
मे	-9.4097
▁एच	-9.41004
▁तट	-9.41171
राम	-9.41236
▁शीर्ष	-9.41279
▁प्रतीत	-9.41418
▁P	-9.41458
▁मानते	-9.41542
▁कीमत	-9.41604
▁इन्हें	-9.41654
न्द	-9.41702
▁राजनैतिक	-9.41713
▁जायेगा	-9.41983
ान	-9.42047
▁महत्त्वपूर्ण	-9.42082
▁बढ़ावा	-9.42163
▁प्रो	-9.42177
▁पंजाब	-9.42182
▁गैस	-9.42194
▁न्यायाधीशों	-9.42305
▁कटौती	-9.42369
▁हा	-9.42531
▁चि	-9.426
▁रोगी	-9.4276
▁नेतृत्व	-9.42789
▁विषयों	-9.42878
▁प्रेरित	-9.42918
▁गतिविधियों	-9.42922
▁वितरण	-9.42973
▁गृह	-9.42983
ढ़	-9.43001
िश	-9.43048
▁स्मृति	-9.43072
▁बिक्री	-9.43091
▁तय	-9.4318
▁रखी	-9.43257
▁टन	-9.43294
▁विद्यार्थियों	-9.43392
▁मौसम	-9.43409
▁रो	-9.43418
▁प्रोत्साहन	-9.43514
▁शिव	-9.43586
▁पुत्र	-9.43587
युक्त	-9.43589
▁मुसलमान	-9.43613
▁चेतना	-9.43626
▁प्राधिकारी	-9.43632
▁मानक	-9.4365
▁आये	-9.43876
▁प्रकाशन	-9.43877
▁घरेलू	-9.43877
▁डाक	-9.44014
▁जवाब	-9.44058
▁देव	-9.44102
बल	-9.44173
▁शुभकामनाएं	-9.44305
▁चलता	-9.44429
▁अनुकूल	-9.44456
▁प्रदर्शित	-9.44554
E	-9.44556
▁स्वागत	-9.44621
▁उनको	-9.44696
▁प्राण	-9.44992
▁प्रचार	-9.4506
▁प्राथमिक	-9.45147
▁बनाई	-9.45168
▁d	-9.45214
▁अधिकरण	-9.45276
▁भौतिक	-9.4535
▁स्थानों	-9.4535
▁स्पष्टीकरण	-9.454
▁जोखिम	-9.45408
▁बा	-9.45419
▁खुशी	-9.45505
▁ना	-9.45587
▁शाखा	-9.45598
▁शारीरिक	-9.45655
▁आध्यात्मिक	-9.45721
▁दस्तावेज	-9.45811
▁पड़	-9.45884
▁तेज	-9.45944
▁डाल	-9.46011
▁जोड़	-9.4606
▁अभिव्यक्ति	-9.46111
▁अदालत	-9.46145
▁भूल	-9.46228
शील	-9.46289
▁भागों	-9.4631
▁छूट	-9.46329
▁तरीका	-9.46463
▁घोषित	-9.46493
▁गो	-9.46502
▁देखें	-9.46529
▁बैंकों	-9.46596
▁लिखित	-9.46596
▁अपेक्षित	-9.4665
▁बाबत	-9.46651
सन	-9.46696
▁भार	-9.46763
▁प्रसन्नता	-9.46801
▁प्रतीक	-9.46804
ेल	-9.4683
▁सामान	-9.46872
कों	-9.46921
▁जून	-9.46967
▁शक्तियों	-9.46985
वन	-9.47078
▁मंच	-9.47102
▁नष्ट	-9.47146
▁चरण	-9.47262
▁चीज	-9.4734
यर	-9.47366
▁निकल	-9.47694
▁मशीन	-9.47698
▁गुरु	-9.47748
▁रा	-9.4775
▁संग्रह	-9.47762
▁कार्यक्रमों	-9.47836
▁अंतर्राष्ट्रीय	-9.47972
▁सर्वोच्च	-9.48161
▁मिलकर	-9.48226
▁वीडियो	-9.48276
▁इकाई	-9.48423
▁सुंदर	-9.48441
▁छह	-9.48518
▁मगर	-9.48621
▁बीज	-9.48644
▁नोट	-9.48694
▁चीन	-9.48812
f	-9.48859
▁औसत	-9.48925
▁सच	-9.49105
▁गीत	-9.4916
▁स्त्री	-9.49264
▁भेज	-9.4944
▁चुकी	-9.49516
▁B	-9.49588
▁अवश्य	-9.49637
्या	-9.49696
▁बातों	-9.49718
नाथ	-9.49731
▁मतलब	-9.49761
▁द्वार	-9.49772
▁लेता	-9.49779
▁सेवाएं	-9.49834
▁निहित	-9.49898
▁एशिया	-9.49925
▁मुंबई	-9.49953
▁गिर	-9.49991
रु	-9.50033
▁अनुमान	-9.50039
िए	-9.50282
रि	-9.50284
▁ध	-9.50304
सु	-9.50304
▁प्रमाणपत्र	-9.50349
ियन	-9.50443
▁करेगी	-9.50531
शा	-9.50535
▁जनसंख्या	-9.50536
▁वजह	-9.50601
▁ऐतिहासिक	-9.50666
▁विरोधी	-9.50692
टे	-9.50735
▁गंगा	-9.50805
▁नियुक्ति	-9.5084
पूर्वक	-9.50911
▁लगातार	-9.51001
▁परिणामस्वरूप	-9.5106
▁स्प	-9.51148
▁अभियान	-9.51192
▁आंतरिक	-9.51254
▁अगस्त	-9.51258
▁वालों	-9.5134
▁हत्या	-9.51453
▁प्रतिक्रिया	-9.51483
▁विधिक	-9.51596
▁संसाधनों	-9.51734
▁पसंद	-9.51778
▁जाँच	-9.51844
▁वन	-9.5188
▁पति	-9.51917
▁रखता	-9.52013
▁सप्ताह	-9.52042
▁विश्लेषण	-9.52167
▁प्रशासनिक	-9.52189
▁रीति	-9.52198
▁निदेशक	-9.52361
त्त	-9.5262
▁संचालन	-9.52636
▁बजाय	-9.5265
▁वैश्विक	-9.52708
▁शुद्ध	-9.52769
▁निष्कर्ष	-9.52797
▁बातें	-9.52822
▁न्यूनतम	-9.52904
ृ	-9.52993
वान	-9.53125
▁आठ	-9.53166
▁नेहरू	-9.53169
▁मिले	-9.53235
क्स	-9.53292
▁हासिल	-9.53371
▁कथा	-9.53399
▁श्रम	-9.53437
▁संसार	-9.53527
▁मस्तिष्क	-9.53582
▁फसल	-9.5363
▁प्रयत्न	-9.53678
▁कौशल	-9.53798
▁बि	-9.53827
▁नियत	-9.53857
▁नागरिकों	-9.53898
▁आपूर्ति	-9.53924
▁पथ	-9.53936
▁मई	-9.53957
▁कृष्ण	-9.54027
▁सेट	-9.54257
▁विजय	-9.54354
▁उपयोगी	-9.54412
म्प	-9.54417
▁श्रेणीः	-9.5456
▁उम्र	-9.54649
▁कथन	-9.54656
रत	-9.54689
▁T	-9.54697
▁कलकत्ता	-9.54714
▁पश्चात	-9.54743
▁लेख	-9.54749
▁आसान	-9.54781
▁जाएं	-9.54817
▁आरोप	-9.54824
वाली	-9.54828
▁कश्मीर	-9.5485
वल	-9.54855
▁विहित	-9.54878
ूर	-9.54901
▁पृथ्वी	-9.54918
▁चले	-9.5498
▁दिखा	-9.54981
▁अफ्रीका	-9.55121
्म	-9.55151
▁प्रोग्राम	-9.55232
▁लें	-9.55238
▁बनने	-9.55286
▁जुड़े	-9.55297
▁महामहिम	-9.55325
क्	-9.55368
▁संबंधों	-9.55388
ियो	-9.55452
▁सुभाष	-9.55535
बे	-9.55597
▁सहकारी	-9.55764
▁प्रा	-9.55778
▁बीमारी	-9.55779
▁C	-9.55835
▁सर्वाधिक	-9.56003
▁छोड़कर	-9.56107
▁ii	-9.56273
▁वैसे	-9.56376
त्	-9.56424
▁लक्षण	-9.56426
▁संबद्ध	-9.56539
▁जेल	-9.56541
▁सृजन	-9.56603
ेशन	-9.56692
▁मीडिया	-9.56701
▁संविदा	-9.5677
▁नव	-9.56771
राज	-9.56876
▁विशेषकर	-9.57006
याँ	-9.57036
▁चलते	-9.57329
▁जमीन	-9.57416
▁संगठनों	-9.57575
▁अनुरूप	-9.57624
▁न्यायमूर्ति	-9.57628
▁पूजा	-9.5766
▁ब्र	-9.57802
▁डि	-9.57819
्क	-9.57881
ुल	-9.57975
▁बदलाव	-9.57993
▁करीब	-9.58008
▁यूरोप	-9.58068
र्ड	-9.58086
▁पीड़ित	-9.5816
▁विपरीत	-9.58229
▁विविध	-9.58235
▁पहुंचा	-9.58297
▁गा	-9.58335
▁दिल	-9.58377
▁रेल	-9.58404
झ	-9.58426
▁पु	-9.58574
▁बातचीत	-9.58581
मो	-9.58666
ंद	-9.58853
▁त्याग	-9.58869
▁लिख	-9.58877
▁बुनियादी	-9.58984
▁समुचित	-9.59009
▁प्रतिनिधित्व	-9.59014
▁विभाजन	-9.59153
▁मिशन	-9.59226
▁उद्योगों	-9.59251
▁परस्पर	-9.59288
▁दशक	-9.59377
ाँ	-9.59429
▁लो	-9.59519
▁पुनर्	-9.59714
▁दूध	-9.59718
▁असफल	-9.59747
▁समझौता	-9.5975
रण	-9.5978
ोर	-9.59835
▁हस्ताक्षर	-9.60063
p	-9.60108
ेड	-9.6021
▁किसानों	-9.60213
▁पूर्ववर्ष	-9.60226
▁क्षति	-9.60249
▁मास	-9.60265
▁ड	-9.60394
▁फिल्म	-9.60394
गो	-9.60425
्यु	-9.60557
▁डिस्क	-9.60596
▁सरकारों	-9.60656
भाव	-9.60822
▁अनुरोध	-9.60873
ंच	-9.60887
▁असम	-9.60995
इस	-9.61037
▁परिवहन	-9.61222
▁स्कीम	-9.61316
काल	-9.61334
▁प्रबंध	-9.61542
▁प्रस्तावित	-9.61656
▁भगवान	-9.61777
कल	-9.6186
▁पूर्वी	-9.61876
▁जाएंगे	-9.61888
▁कर्तव्य	-9.61899
▁मंडल	-9.61941
I	-9.61951
▁मीटर	-9.62034
▁विचारण	-9.62036
▁पाए	-9.62064
ल्ल	-9.62071
▁डर	-9.62093
▁रेखा	-9.62107
▁सत्र	-9.62316
चा	-9.62326
▁अंक	-9.6234
▁पड़े	-9.62403
▁बो	-9.62607
▁खिलाफ	-9.62782
▁व्याख्या	-9.62839
ांग	-9.62902
▁आफ	-9.62978
▁पहुँच	-9.63071
▁आस्ति	-9.63081
▁सड़क	-9.6317
▁उत्पादों	-9.63231
▁भेजा	-9.63262
▁इतने	-9.63265
▁सचिव	-9.63265
▁हिंसा	-9.63266
▁मद	-9.63277
▁टीम	-9.63293
▁अक्सर	-9.63412
▁कुमार	-9.63503
▁आनन्द	-9.63528
▁जिले	-9.63563
▁अन्दर	-9.63636
▁कार्ड	-9.63671
▁इं	-9.63698
▁फूल	-9.63767
▁नयी	-9.63781
▁अमेरिकी	-9.63782
▁जि	-9.63786
▁ठ	-9.63916
▁राज्यपाल	-9.63951
▁धारण	-9.63951
▁कक्ष	-9.63993
▁सुना	-9.6401
▁चुनौती	-9.6408
▁महाराष्ट्र	-9.64109
▁अर्थात	-9.64116
▁निकाय	-9.64202
ेन	-9.64227
▁रस	-9.64254
पा	-9.64352
▁देवी	-9.64429
▁सर्वेक्षण	-9.64452
र्ट	-9.64551
्यू	-9.64579
दर	-9.64666
र्क	-9.64719
▁संसदीय	-9.64785
▁एंड	-9.64911
▁दु	-9.64977
गु	-9.64981
▁अभियुक्त	-9.64996
▁तीव्र	-9.65121
▁चक्र	-9.65244
▁दूरी	-9.65259
िनी	-9.65259
आर	-9.6526
▁साबित	-9.65277
रों	-9.6531
▁नौ	-9.65328
▁अभाव	-9.6534
▁भागीदारी	-9.65372
▁अभिप्रेत	-9.65427
▁मह	-9.65438
▁मल	-9.65548
▁मूल्यों	-9.65564
▁निश्चय	-9.65579
▁अनुपात	-9.65589
▁कुंजी	-9.65618
▁कठोर	-9.6564
▁व्या	-9.65698
▁अकबर	-9.65735
▁छवि	-9.65739
▁सर्वर	-9.65792
▁देगा	-9.6584
u	-9.65934
ही	-9.65941
▁नवान्वेषण	-9.66078
▁आयोजन	-9.66102
▁हु	-9.66117
▁वहीं	-9.66128
▁माह	-9.66306
▁चिंता	-9.66328
▁परिवर्तित	-9.66338
▁प्रारंभिक	-9.66361
▁निकाल	-9.66395
▁संस्करण	-9.66412
▁अनुप्रयोग	-9.66469
▁संकट	-9.6665
A	-9.66786
▁मौजूदा	-9.66792
▁गठित	-9.66873
▁x	-9.66994
▁अन्यथा	-9.67121
ेट	-9.67175
▁समीक्षा	-9.67176
▁b	-9.67179
▁नजर	-9.67253
▁मुख	-9.67302
–	-9.67364
▁मा	-9.67507
▁p	-9.6757
▁तकनीक	-9.67847
▁वर्षा	-9.67915
▁आवाज	-9.67998
▁अभिलेख	-9.6801
▁समग्र	-9.68035
▁भाषाओं	-9.68351
▁समाप्ति	-9.68396
▁त्रि	-9.68449
▁सुविधाओं	-9.68536
▁नैतिक	-9.68561
▁सुसंगत	-9.68569
▁उम्मीद	-9.68604
▁सम्बन्धी	-9.68737
ात	-9.68766
▁लिखने	-9.68787
k	-9.68823
▁परमाणु	-9.6888
▁आचरण	-9.68889
▁मो	-9.68948
▁आवास	-9.69095
▁नुकसान	-9.69113
▁सूर्य	-9.6913
▁सतह	-9.69143
▁पै	-9.69181
▁जुलाई	-9.69202
टर	-9.69264
▁परियोजनाओं	-9.69423
▁प्रोत्साहित	-9.69505
▁सॉफ्टवेयर	-9.69583
▁ईसा	-9.69601
▁जिनक	-9.69626
▁रोकने	-9.69652
▁आमतौर	-9.69664
पाल	-9.69666
▁प्रेरणा	-9.69688
▁शुरुआत	-9.69688
पति	-9.69696
िट	-9.69874
▁प्रतिनिधि	-9.69947
▁कतिपय	-9.69977
▁उपक्रम	-9.70014
▁देखकर	-9.7003
▁आकर्षित	-9.70135
▁फीस	-9.70262
िता	-9.70296
▁शिकार	-9.70302
▁खाने	-9.70344
▁शैक्षिक	-9.70451
▁खा	-9.70458
▁बुद्धि	-9.70472
▁M	-9.70511
▁रखें	-9.70604
▁पशु	-9.70606
▁करो	-9.70652
▁आरम्भ	-9.70654
▁ज्ञात	-9.7066
▁चूंक	-9.70675
▁पाई	-9.7068
▁अस्पताल	-9.70696
▁याचिका	-9.70737
▁बाह्य	-9.70781
▁बै	-9.7089
▁विंडो	-9.709
यन	-9.70945
स्क	-9.70987
al	-9.7103
▁निवास	-9.71506
▁बैठ	-9.71546
ची	-9.7167
ाया	-9.7176
▁बिल्कुल	-9.71808
▁बचा	-9.71927
ाय	-9.71933
पत्र	-9.72044
कृत	-9.72072
▁जानता	-9.72075
▁सहज	-9.72087
▁परंपरा	-9.72104
ार्थ	-9.72155
▁जीवित	-9.72174
▁आग्रह	-9.72241
▁जड़	-9.72299
खा	-9.72335
▁नियंत्रित	-9.72372
▁देर	-9.72404
▁गुप्त	-9.72461
▁देकर	-9.72509
▁व्यावसायिक	-9.72538
▁लिमिटेड	-9.72615
▁अधिकतर	-9.7267
▁लोकप्रिय	-9.72756
▁प्रसार	-9.72848
▁ग्राहक	-9.72882
▁रहेगा	-9.72914
▁जितना	-9.72952
▁केरल	-9.73083
▁चरित्र	-9.73104
▁लेखन	-9.73161
न्स	-9.73178
▁लाइन	-9.73211
▁एकल	-9.73218
▁खुले	-9.73275
्व	-9.73321
▁मुद्दों	-9.73428
▁कितना	-9.7344
▁मानवीय	-9.7349
डे	-9.73566
नों	-9.73575
▁विमान	-9.73635
▁तुरंत	-9.73674
▁मिट्टी	-9.73676
▁कमजोर	-9.73716
▁गुजरात	-9.73802
▁चलो	-9.73827
▁मुश्किल	-9.73837
▁सहमत	-9.73873
▁हवाई	-9.73911
▁निष्पादन	-9.7392
▁युक्त	-9.73947
▁निदेश	-9.73979
जे	-9.74006
▁प्रतिभा	-9.74283
▁वेब	-9.74378
▁लौट	-9.74407
▁प्रारूप	-9.74424
▁अग्र	-9.74485
▁बह	-9.74507
▁लाया	-9.74531
▁दबाव	-9.74542
▁खाना	-9.74565
भा	-9.74602
▁सार	-9.74689
▁आसानी	-9.74781
िय	-9.74861
T	-9.74879
▁सरदार	-9.74951
न्न	-9.74956
ाम	-9.74991
▁बु	-9.74994
▁शिखर	-9.75076
▁समझौते	-9.75129
▁कारणों	-9.75149
▁थोड़ा	-9.75158
▁लिखी	-9.75229
▁कोड	-9.75238
▁प्यार	-9.75243
▁दर्ज	-9.75337
▁घंटे	-9.75408
▁आसपास	-9.75408
चर	-9.75471
▁सहमति	-9.75489
▁लंबे	-9.75498
▁शाह	-9.75527
▁एकमात्र	-9.75572
▁विरूद्ध	-9.7558
हार	-9.75596
▁अन्तर्गत	-9.7567
▁प्राथमिकता	-9.75677
M	-9.75682
▁एकता	-9.75728
▁घटनाओं	-9.75742
▁इंटरनेट	-9.75742
निक	-9.75812
▁गु	-9.7584
▁फोन	-9.75902
ीकृत	-9.75923
▁अनुदान	-9.75926
▁बढ़ती	-9.7612
वर्ती	-9.76154
▁इनका	-9.7618
▁उत्तरी	-9.76236
▁जटिल	-9.76311
▁प्रार्थना	-9.76328
▁महात्मा	-9.7633
▁साक्षी	-9.76337
▁कीट	-9.76353
▁वरिष्ठ	-9.76414
▁जिनकी	-9.76467
▁अल्प	-9.76481
▁विमर्श	-9.76583
▁कम्प	-9.76638
▁पेड़	-9.76653
▁बोस	-9.76782
कि	-9.7681
ar	-9.76813
▁दूसरों	-9.76834
▁श्रृंखला	-9.76835
▁सभ्यता	-9.76908
र्न	-9.77101
▁आग	-9.77144
▁नेताओं	-9.77327
O	-9.77328
▁वै	-9.77414
▁सदैव	-9.77427
▁आहार	-9.77436
्न	-9.77447
▁हैंः	-9.77448
▁प्रथा	-9.77473
▁जाकर	-9.77483
▁आपराधिक	-9.77512
ोप	-9.77516
▁खेती	-9.77616
▁राजस्थान	-9.77689
िम	-9.77709
शोथ	-9.77762
▁लिखे	-9.77791
▁निर्	-9.77885
▁पंजीकरण	-9.78116
▁रास्ता	-9.78285
▁कितनी	-9.78285
▁प्रतिकूल	-9.783
▁प्रचलित	-9.78452
▁मोबाइल	-9.78796
▁खतरा	-9.78797
c	-9.78851
▁कार्यान्वयन	-9.78884
▁अग्रिम	-9.78889
ष्ट	-9.78955
▁D	-9.78993
▁कंपनियों	-9.79064
▁शहरी	-9.79145
▁समझने	-9.79154
▁अनुसूचित	-9.79228
▁क्	-9.79232
▁उत्साह	-9.79323
▁शीर्षक	-9.79522
▁दोष	-9.79614
▁वकील	-9.79642
▁मालूम	-9.79662
द्	-9.79715
▁संयंत्र	-9.79759
P	-9.79804
न्त	-9.79855
लि	-9.79867
▁जनरल	-9.79929
▁बनाये	-9.79957
ेज	-9.80065
▁भावी	-9.80079
▁अर	-9.80097
▁अन्त	-9.80135
नीय	-9.80162
ेश्वर	-9.80214
▁उठाने	-9.80258
▁उतर	-9.80304
मु	-9.80495
▁स्थिर	-9.80602
▁मॉडल	-9.80624
▁सुख	-9.8068
▁भंडार	-9.8076
▁जरिए	-9.80789
▁हटा	-9.80824
▁विश्वविद्यालयों	-9.8085
▁प्रेस	-9.80934
▁प्रवाह	-9.81039
भि	-9.81073
▁समन्वय	-9.81138
▁किनारे	-9.81153
▁पूर्ति	-9.81168
▁राजनीति	-9.81172
▁विधियों	-9.81259
▁जैव	-9.81285
▁साम्राज्य	-9.81295
▁दा	-9.81331
▁रेलवे	-9.81543
▁आशय	-9.81563
▁परिषद्	-9.81587
▁शर्तों	-9.8162
▁हिस्से	-9.8168
▁उठ	-9.81779
h	-9.81878
m	-9.81906
▁देंगे	-9.81927
गर	-9.81969
▁फ़िल्म	-9.82215
ाकार	-9.82292
▁चलाने	-9.82294
▁रास्ते	-9.82304
▁दिव्य	-9.82316
▁फरवरी	-9.82573
▁अनुसूची	-9.82575
योग	-9.82617
▁हितों	-9.82657
▁पोषण	-9.8278
▁तंत्रिका	-9.82782
फा	-9.82852
▁यंत्र	-9.82877
▁पकड़	-9.83035
▁तिथि	-9.83079
▁अस	-9.8309
▁किसान	-9.83122
▁राजस्व	-9.83128
▁सौर	-9.83142
▁दि	-9.83171
▁निरीक्षण	-9.832
▁संलग्न	-9.83218
▁स्था	-9.83257
▁पूछा	-9.83258
▁पुरान	-9.83266
▁स्वर	-9.83276
ेक	-9.83293
▁दर्शा	-9.83325
▁स्वस्थ	-9.83335
▁समर्पित	-9.83381
▁स्वीकृति	-9.83552
▁सर्वोत्तम	-9.83562
▁विद्यालय	-9.83645
▁c	-9.83652
▁भंडारण	-9.8378
्ड	-9.83799
▁अनुसरण	-9.83836
▁हाथों	-9.83876
▁लंबी	-9.83929
▁गहन	-9.8405
▁वर्गों	-9.84058
था	-9.84061
▁पाते	-9.84065
▁उपस्थिति	-9.84106
▁ध्वनि	-9.84144
▁समृद्ध	-9.84244
▁बर	-9.84251
ेंगे	-9.84266
▁क्रिकेट	-9.84288
ंज	-9.84307
▁दुर्घटना	-9.84378
▁फर्म	-9.84396
▁विनय	-9.84569
▁G	-9.84654
d	-9.84724
तु	-9.84767
▁मृत्युदंड	-9.84839
▁चालू	-9.8486
▁थ	-9.84942
▁संदेह	-9.85028
▁संदाय	-9.85032
▁सम्पूर्ण	-9.85036
▁आकर	-9.85048
यू	-9.85074
▁विनिमय	-9.85204
▁तुम्हारे	-9.85223
▁पंक्ति	-9.85284
▁संक्षिप्त	-9.85293
▁सागर	-9.85315
▁खड़ा	-9.85448
▁...	-9.85477
▁उधार	-9.85499
▁I	-9.85506
▁कोशिका	-9.85615
ष्ठ	-9.85639
▁पर्यटन	-9.85662
▁तल	-9.85684
▁परिभाषित	-9.85718
▁प्रदूषण	-9.85847
D	-9.85851
▁सुनवाई	-9.85853
▁पत्थर	-9.85865
▁इसने	-9.85916
▁संक्रमण	-9.85949
▁प्रवृत्ति	-9.85954
▁कार	-9.85957
▁नीतियों	-9.86102
ॉँ	-9.86273
▁शोध	-9.86328
▁परम	-9.86371
▁ऑनलाइन	-9.86404
▁f	-9.8648
▁संवर्धन	-9.86511
▁तत्काल	-9.86515
नो	-9.86629
▁बाकी	-9.86634
▁आवश्यकताओं	-9.86659
▁बिंदु	-9.86662
▁द्वितीय	-9.86713
▁योजनाओं	-9.86724
र्म	-9.86816
▁असर	-9.86839
▁त्वचा	-9.86869
▁w	-9.8688
▁दास	-9.86889
▁सदा	-9.86922
▁बढ	-9.86931
▁वर्ण	-9.87003
▁न्यू	-9.87081
▁द्वीप	-9.8711
▁तार	-9.87148
▁अचानक	-9.8715
ढ	-9.87268
▁अद्यतन	-9.87431
▁दर्द	-9.87474
यो	-9.87517
▁हद	-9.87529
जनक	-9.87533
▁सारा	-9.87563
▁पैरा	-9.87563
▁मिलियन	-9.87565
▁पढ़ने	-9.87593
▁ढांचे	-9.87632
▁स्वतः	-9.87648
▁बदलने	-9.87665
on	-9.87732
▁स्वा	-9.87735
▁R	-9.87767
▁बदले	-9.87775
दन	-9.87795
▁शुरु	-9.8781
▁मध्यम	-9.8787
▁पवित्र	-9.8788
▁समर्थ	-9.87897
वां	-9.87929
▁अर्ध	-9.87967
▁विभाजित	-9.88091
▁हार्दिक	-9.88091
▁प्राधिकार	-9.88115
ाह	-9.88162
▁मिनट	-9.88284
▁n	-9.88338
▁चलने	-9.88504
▁प्रशंसा	-9.88565
▁बिहार	-9.88584
▁धारणा	-9.88635
रिया	-9.88681
▁यथास्थिति	-9.88758
रिक	-9.88854
ाक	-9.88935
ीन	-9.88966
द्ध	-9.88988
▁क्षण	-9.89038
▁पक्षकार	-9.8907
▁मैदान	-9.89089
▁कितने	-9.89147
▁खराब	-9.89148
▁आजादी	-9.89255
▁द्वि	-9.89284
▁अंतर्	-9.89293
▁खान	-9.89335
▁सिद्धांतों	-9.894
an	-9.89603
▁सुविधाएं	-9.89905
▁कम्पनी	-9.89943
▁पढ़	-9.89952
▁संशोधित	-9.9
▁तु	-9.90006
ेस	-9.90018
▁नंबर	-9.90046
▁शा	-9.90054
▁मकान	-9.90147
▁अनुमोदन	-9.90196
et	-9.90198
▁उल्लेखनीय	-9.90208
▁कै	-9.90295
▁समानता	-9.90473
ऊ	-9.90516
▁सुदृढ़	-9.90582
▁देखना	-9.90593
▁बाबू	-9.90626
▁स्वाभाविक	-9.90774
देव	-9.90794
क़	-9.90812
ज्ञ	-9.90871
ेंट	-9.90882
▁निवारण	-9.90969
▁जैन	-9.9109
▁अवैध	-9.91115
▁पाठ्यक्रम	-9.91121
▁चीज़	-9.91156
मेंट	-9.9124
▁राजधानी	-9.91261
▁खोल	-9.91269
▁इनकी	-9.91307
▁उसको	-9.91325
ल्ड	-9.91356
▁पेट	-9.91401
▁ताकत	-9.91426
▁नृत्य	-9.91457
▁L	-9.91482
ेश	-9.91576
▁बालक	-9.91597
त्मक	-9.91714
▁पौधों	-9.9172
▁नेपाल	-9.91819
▁उत्कृष्ट	-9.91844
▁विनिश्चय	-9.91848
▁शिशु	-9.91861
पो	-9.91961
लो	-9.91993
▁युक्ति	-9.92018
▁भक्ति	-9.92042
▁पो	-9.9205
दान	-9.92175
्ति	-9.92204
▁क्रांति	-9.92227
▁जिम्मेदारी	-9.92244
▁ठोस	-9.92248
क्त	-9.92262
▁शिक्षक	-9.92265
▁वर्णित	-9.92327
▁बजट	-9.9236
▁मं	-9.92423
▁जलवायु	-9.92439
▁संगम	-9.92471
लु	-9.925
▁हालत	-9.92568
१०	-9.92569
▁उद्घाटन	-9.92736
▁समूहों	-9.92821
▁बौद्धिक	-9.93029
▁समुद्री	-9.93029
▁भय	-9.93083
▁विभिन्	-9.9309
▁गोल	-9.93115
्ल	-9.93119
▁वा	-9.9313
▁हिमालय	-9.93135
▁शर्त	-9.93166
▁सूत्र	-9.93189
ङ	-9.93244
▁ब्रिटेन	-9.93332
▁सैनिक	-9.93414
▁बच	-9.93415
▁हस्तक्षेप	-9.93433
तक	-9.93437
▁सफेद	-9.93532
ान्त	-9.93539
▁खत्म	-9.93548
▁क्लिक	-9.93569
▁पीठ	-9.9359
▁प्राधिकृत	-9.93632
▁बांध	-9.93634
▁प्रवृत्त	-9.9365
निया	-9.93659
र्ग	-9.93665
िर	-9.9368
▁योग्यता	-9.93685
▁दान	-9.93687
▁पंच	-9.93695
▁चुने	-9.93764
ाइ	-9.93846
्रा	-9.9397
▁फार्म	-9.94057
▁समृद्धि	-9.94079
▁दैनिक	-9.94134
or	-9.94151
▁गुफा	-9.9424
▁खाली	-9.9427
▁विविधता	-9.943
▁देय	-9.94439
▁g	-9.94474
▁गरीबी	-9.9458
०वीं	-9.94592
▁भले	-9.94692
▁कष्ट	-9.94715
▁गहरी	-9.94737
▁विपणन	-9.94838
▁बचत	-9.94857
▁चिह्न	-9.94884
बर	-9.94912
▁नौकरी	-9.94914
द्र	-9.9493
▁लड़	-9.94943
▁प्रविष्टि	-9.94973
▁रसायन	-9.95044
▁अस्थि	-9.95221
क्र	-9.95233
▁गणना	-9.95313
ज़ा	-9.9535
▁भेंट	-9.9536
▁चैनल	-9.95378
▁प्रभार	-9.95387
ोल	-9.95478
▁रद्द	-9.95498
▁सामूहिक	-9.95549
▁सशक्त	-9.9566
▁मिलाकर	-9.95697
न्ट	-9.95706
्ट	-9.95736
▁उत्तरदायी	-9.95765
▁सितंबर	-9.95855
▁सोचा	-9.95864
▁मिलते	-9.95918
▁जम्मू	-9.95957
▁बचाव	-9.9597
R	-9.96022
▁N	-9.96045
▁तत्वों	-9.96053
▁बौद्ध	-9.96072
ुआ	-9.96086
▁कमरे	-9.96107
▁प्रतिभूति	-9.96123
▁सामान्यतः	-9.96141
▁निपटान	-9.9616
▁ग्रंथ	-9.96165
▁विफल	-9.96209
▁आदान	-9.96238
▁सकेगी	-9.96587
▁कर्नाटक	-9.96779
▁डिजाइन	-9.96779
▁असाधारण	-9.96779
▁पार्क	-9.96876
▁वंश	-9.96904
▁अग्रणी	-9.96907
▁गहरा	-9.96956
▁कहने	-9.9709
▁राहत	-9.97154
▁खुश	-9.97202
▁शि	-9.97204
▁लिंग	-9.97209
▁वस्त्र	-9.97229
▁रू	-9.9723
टो	-9.9734
ेर	-9.97407
दास	-9.97494
▁किस्म	-9.97512
▁आना	-9.97559
▁माँ	-9.97563
▁आलोचना	-9.97603
▁दौर	-9.97634
▁मालिक	-9.97647
▁यूरोपीय	-9.97684
▁परिसर	-9.97727
▁विनियम	-9.97742
▁स्तंभ	-9.97814
▁न्यास	-9.97842
ेगा	-9.97847
▁गांवों	-9.9787
▁सू	-9.97897
▁कराया	-9.9791
ल्	-9.97929
स्प	-9.97935
▁रेडियो	-9.9798
▁भंग	-9.98037
गे	-9.98146
▁चोट	-9.98164
▁उच्चतर	-9.98174
▁संवाद	-9.98196
▁प्रवर्तन	-9.98252
एल	-9.98317
द्द	-9.9841
ंगा	-9.98438
▁डाला	-9.98441
▁दीवार	-9.98483
▁अक्तूबर	-9.98548
▁चन्द्र	-9.98561
ग्	-9.98605
▁निगरानी	-9.98653
्ज	-9.9867
▁कार्यवाहियों	-9.98758
▁परिभाषा	-9.98762
वास	-9.98796
▁लड़के	-9.989
▁कठिनाई	-9.98906
▁पैर	-9.98986
▁आस	-9.99012
▁वीर	-9.99085
▁प्रिय	-9.99193
▁रुचि	-9.99222
▁रवीन्द्रनाथ	-9.99287
▁व्यक्तित्व	-9.99384
ंगी	-9.9939
▁संवैधानिक	-9.99497
▁सुबह	-9.99498
▁चाय	-9.99507
▁लड़ाई	-9.99516
▁पृथक	-9.99597
▁लाइसेंस	-9.9971
▁कारावास	-9.99713
ोन	-9.99767
ुर	-9.99782
▁खण्ड	-9.99833
▁कॉलेज	-9.9986
▁गरीब	-9.99885
▁पौधे	-10.0001
▁आंध्र	-10.0003
▁पड़ी	-10.0017
▁निचल	-10.0017
गन	-10.002
▁असमर्थ	-10.0021
▁अमर	-10.0024
▁ऑ	-10.0026
▁बैंकिंग	-10.0032
▁मोड	-10.0032
▁सजा	-10.0036
▁उन्नत	-10.0038
▁परिचय	-10.0057
▁नेशनल	-10.0057
दे	-10.0063
न्ड	-10.0064
▁मुक्ति	-10.0065
▁आरंभिक	-10.0076
▁खतरे	-10.0078
िड	-10.0079
▁नर	-10.0084
पित	-10.0088
▁जहाज	-10.0096
▁पाँच	-10.0099
▁विरासत	-10.0099
▁खड़े	-10.0105
▁मुद्दे	-10.011
▁तथ्यों	-10.0111
▁कामना	-10.0123
▁पक्षों	-10.0123
धि	-10.0131
▁लगाना	-10.0132
▁पदार्थों	-10.0146
११	-10.015
▁हार	-10.0154
व्य	-10.0155
▁जातियों	-10.0166
▁सीमाओं	-10.0168
▁अपनाया	-10.0168
▁विशेषता	-10.0172
▁चीजों	-10.0175
▁पैसे	-10.0179
▁शहरों	-10.0183
▁चीनी	-10.0186
▁कहता	-10.0191
▁यूनिट	-10.0194
▁देन	-10.0201
▁न्यायपालिका	-10.0209
▁कागज	-10.0212
ज्	-10.0227
दत्त	-10.0229
▁शिक्षण	-10.023
▁कोर्ट	-10.0231
ल्स	-10.0232
C	-10.0238
▁अली	-10.0248
ाइड	-10.0251
▁वंचित	-10.0251
▁उपखंड	-10.0252
▁देवता	-10.0258
ांत	-10.0266
▁कब	-10.0274
▁मूलभूत	-10.0275
▁m	-10.0278
▁हिंदुस्तान	-10.028
लिंग	-10.0282
▁वाहन	-10.0283
▁आश्चर्य	-10.0283
त्य	-10.0284
▁भेद	-10.0286
▁अनुज्ञात	-10.0288
▁बाधा	-10.0295
▁विक्रय	-10.0295
▁अधिसूचना	-10.0295
उतना	-10.0296
▁सम्पत्ति	-10.0306
▁लेती	-10.0312
▁उपर	-10.0316
डि	-10.0332
ंगे	-10.0332
▁अदा	-10.0333
▁दायर	-10.0339
क्ति	-10.0339
▁दृढ़	-10.0342
जि	-10.0343
ग्र	-10.0346
च्छ	-10.035
▁अंतरिक्ष	-10.035
▁पेंशन	-10.035
▁फैल	-10.0356
मल	-10.0357
▁साहित्यिक	-10.036
▁जानने	-10.0368
▁तीसरे	-10.0373
▁लिंक	-10.0374
हन	-10.0377
चे	-10.038
▁प्रक्रियाओं	-10.0391
ेय	-10.0395
▁इस्लामी	-10.0395
▁कूट	-10.0395
▁‘‘	-10.0396
▁श्रेष्ठ	-10.0398
▁शक्तिशाली	-10.0407
▁समा	-10.041
▁पढ़ा	-10.0414
▁बिलकुल	-10.0417
▁मानना	-10.0424
▁संध्या	-10.0452
▁अर्जित	-10.0463
ाने	-10.0471
डो	-10.0473
▁रहें	-10.0475
▁उद्	-10.0479
▁ज़्यादा	-10.0482
▁ग्र	-10.0488
▁उठाया	-10.0494
▁मौलिक	-10.0494
▁टिप्पणी	-10.0499
नाम	-10.0501
▁कौ	-10.051
▁उपकरणों	-10.0512
ियर	-10.0518
▁जय	-10.0519
▁भागीदार	-10.0525
▁पैमाने	-10.0528
नु	-10.053
▁औ	-10.0533
बंध	-10.0536
ंध	-10.0538
x	-10.0538
▁बजे	-10.0541
र्ज	-10.0542
▁पुष्टि	-10.0556
▁दुख	-10.0562
लैंड	-10.0568
▁गुरू	-10.0568
▁भारतीयों	-10.057
तंत्र	-10.0577
▁स्क्रीन	-10.0581
▁पर्वत	-10.0586
at	-10.0594
▁कुशल	-10.06
▁उपायों	-10.0601
▁डाटा	-10.0603
▁बनाता	-10.0603
▁शोक	-10.0611
▁बहस	-10.0615
▁उपलब्धि	-10.0616
र्थ	-10.0617
▁जीन	-10.0621
▁चाहती	-10.0621
▁नस्ल	-10.063
धा	-10.0631
▁अनुचित	-10.0634
▁प्रश्नों	-10.0641
▁कॉ	-10.0642
▁मंदिरों	-10.0651
B	-10.0656
▁घटक	-10.0661
ुक	-10.0665
डर	-10.0666
▁ति	-10.067
▁बीस	-10.0672
ing	-10.0672
▁फैला	-10.0674
▁अमरीका	-10.0675
सार	-10.0676
▁प्रतियोगिता	-10.0686
▁आउट	-10.0702
▁पहुंचने	-10.071
▁अपराधों	-10.0718
N	-10.072
▁संचालित	-10.0722
▁क्र	-10.0728
▁नवीन	-10.0732
▁धातु	-10.0736
▁दवा	-10.0737
▁प्रान्त	-10.0739
▁पृष्ठभूमि	-10.0744
▁दुःख	-10.0753
▁अगला	-10.0754
▁स्वामित्व	-10.0767
▁साहस	-10.0775
▁शक्तियां	-10.0776
▁चिकित्सक	-10.0778
▁मुगल	-10.0779
▁सीख	-10.078
हित	-10.0788
▁द्विपक्षीय	-10.079
▁फ़ोल्डर	-10.079
▁अन्वेषण	-10.079
▁श्रीमती	-10.0803
▁इल	-10.0804
ताओं	-10.081
▁सदी	-10.0811
▁स्वर्ण	-10.0812
▁पीढ़ी	-10.0813
▁अस्थायी	-10.0824
▁उद्यान	-10.0825
▁संधि	-10.0835
▁मजिस्ट्रेट	-10.0836
▁सकेंगे	-10.0836
▁भरा	-10.0839
▁अवसरों	-10.0843
▁संबोधित	-10.0847
▁पंडित	-10.0847
▁सराहना	-10.0849
▁अंग्रेज	-10.085
▁औपचारिक	-10.0852
मि	-10.0854
क्षा	-10.0855
▁हि	-10.0857
▁परे	-10.0858
िये	-10.0859
es	-10.0862
▁पहलू	-10.0866
▁विद्यार्थी	-10.0871
▁बच्चा	-10.0871
▁लेन	-10.0872
▁शाम	-10.0883
▁विनिर्माण	-10.0883
ूँ	-10.0885
▁भांति	-10.0894
▁निकाला	-10.0898
▁अवि	-10.0902
▁वचन	-10.0908
▁संत	-10.0908
ून	-10.0912
प्प	-10.0917
▁विद्वान	-10.0922
▁मानो	-10.0922
▁फि	-10.0928
it	-10.0928
▁तापमान	-10.093
▁स्वच्छ	-10.0952
ाद	-10.0961
मत	-10.0967
▁इंडियन	-10.0976
▁नेत्र	-10.0983
▁जाल	-10.099
▁महाराजा	-10.0991
▁पत्रिका	-10.0993
▁विशेषज्ञ	-10.0996
▁उतार	-10.0998
दि	-10.1
▁कायम	-10.1
L	-10.1001
▁निभा	-10.1002
पार	-10.1012
जर	-10.1021
▁जिनसे	-10.1023
▁संतुलन	-10.1023
▁अत्यन्त	-10.1023
चार	-10.1028
▁प्रतिदिन	-10.1036
देश	-10.1038
ष्	-10.1042
▁दिसंबर	-10.1046
▁जुड़ा	-10.1049
▁ईसाई	-10.1053
▁बाग	-10.1053
in	-10.1054
▁कोशिकाओं	-10.107
▁हकदार	-10.1073
▁साइट	-10.1075
▁मना	-10.1075
▁कं	-10.1081
▁पाल	-10.1082
▁तोड़	-10.1082
▁वसूली	-10.1088
▁ब्रह्म	-10.11
एम	-10.1104
▁छाप	-10.1105
कु	-10.111
मिन	-10.1117
▁समझते	-10.112
▁बनाकर	-10.1122
▁वृक्ष	-10.1125
▁रजिस्ट्रीकरण	-10.113
एन	-10.1135
▁कारोबार	-10.1141
▁उद्देश्यों	-10.1147
०क	-10.1149
▁तरीकों	-10.1153
▁पल	-10.1169
▁बन्द	-10.1174
वाल	-10.1175
▁ढांचा	-10.118
▁मोटर	-10.1185
वासी	-10.1186
▁माप	-10.1191
▁जितन	-10.1192
▁हटाने	-10.1207
▁वाणिज्य	-10.1209
▁शास्त्र	-10.1211
ियम	-10.1216
▁समितियों	-10.1231
▁पोजीशन	-10.1237
शास्त्र	-10.125
▁झील	-10.1251
▁अर्	-10.1253
▁रानी	-10.1261
▁उपयोगकर्ता	-10.1265
▁अवधारणा	-10.1277
▁होम	-10.1284
▁अभिगम	-10.1285
▁उपर्युक्त	-10.1286
▁गिरफ्तार	-10.1298
▁लंबित	-10.1298
ंप	-10.13
▁नील	-10.1305
रस	-10.1306
▁दक्षिणी	-10.1308
वाले	-10.1309
▁राजभाषा	-10.1311
▁चेक	-10.1314
▁पारंपरिक	-10.1322
▁इलाज	-10.1323
▁जीत	-10.1324
▁प्रभाग	-10.1325
▁जिम्मेदार	-10.1334
▁मार्गदर्शन	-10.1335
▁संदेय	-10.1347
▁रहेंगे	-10.135
▁मिलेगी	-10.1351
▁विभागों	-10.1352
▁चैतन्य	-10.1359
▁चौ	-10.136
▁लगती	-10.1372
▁व्यावहारिक	-10.1383
▁आबादी	-10.1383
▁रिकार्ड	-10.1383
▁प्रतीक्षा	-10.1395
▁डाक्टर	-10.1396
▁लिपि	-10.1398
सि	-10.14
▁दिखाया	-10.1402
▁करा	-10.1403
▁अना	-10.1406
▁हाँ	-10.1407
▁स्वभाव	-10.1409
▁अंतः	-10.1416
सो	-10.1427
▁प्रतिष्ठा	-10.143
▁परिवेश	-10.1445
▁iii	-10.1446
▁आपस	-10.1447
▁अकेले	-10.1448
▁महाभारत	-10.1458
▁बुद्ध	-10.1466
▁होंगी	-10.1466
▁छत	-10.148
▁e	-10.1484
▁मिलेगा	-10.1488
▁कारक	-10.1489
▁भरे	-10.1494
▁उद	-10.1494
▁बोली	-10.1498
कुल	-10.1499
▁सकारात्मक	-10.1506
िटी	-10.1506
▁किताब	-10.151
▁आतंकवादी	-10.1516
▁दाखिल	-10.1519
▁संभावित	-10.1519
▁इसीलिए	-10.1519
▁कराना	-10.1526
पे	-10.1526
चित	-10.153
▁महीनों	-10.1531
▁पक्षकारों	-10.1539
▁हैदराबाद	-10.1544
▁लड़की	-10.1547
वाला	-10.1554
ोस	-10.1556
मैन	-10.1557
घर	-10.1568
▁दोनो	-10.1568
▁एकत्र	-10.1569
▁ढ	-10.1576
ग्रस्त	-10.1578
▁उल्लंघन	-10.1593
▁विद्रोह	-10.1595
क्रम	-10.1598
ंब	-10.1608
िज	-10.1611
▁घटा	-10.1613
▁चुनें	-10.162
▁कर्ण	-10.1622
▁सन	-10.1627
▁गेंद	-10.1631
▁उन्होने	-10.1632
▁केंद्रित	-10.1633
▁बडी	-10.1639
▁गारंटी	-10.1643
▁हां	-10.1643
▁चे	-10.1656
▁बनाते	-10.1667
वाई	-10.1672
कता	-10.1679
▁भर्ती	-10.1682
ानी	-10.1682
▁धरती	-10.1683
चि	-10.1684
▁भगवान्	-10.1686
▁जानकर	-10.169
▁महल	-10.169
टन	-10.169
▁E	-10.1691
▁अभिलाभ	-10.1694
▁स्टेशन	-10.1695
स्य	-10.1699
▁जोड़ने	-10.17
▁देखे	-10.1703
▁पंजीकृत	-10.1707
▁समझे	-10.1707
▁कोष	-10.1718
▁ऊंचाई	-10.1722
▁डालने	-10.1723
ed	-10.1727
▁पड़ती	-10.1728
▁एड	-10.1728
▁सिंचाई	-10.1732
▁अध	-10.1733
▁अनुपालन	-10.1745
▁बढ़ने	-10.1745
▁आधारभूत	-10.1749
▁पाता	-10.1758
▁गद्य	-10.1759
▁मद्रास	-10.177
▁वस्तुतः	-10.1775
▁मू	-10.1779
▁दौड़	-10.1785
▁पशुओं	-10.1797
▁वर्मा	-10.1798
▁पट	-10.1807
▁उत्तरदायित्व	-10.1808
▁घूम	-10.1808
▁आकलन	-10.1808
▁खून	-10.1812
▁जायेगी	-10.1814
▁ग्राहकों	-10.183
▁टूट	-10.1831
▁आंशिक	-10.1834
▁प्लस	-10.1836
ाइल	-10.1836
▁ईरान	-10.1837
▁याची	-10.1838
▁प्रेषित	-10.1845
▁सम्पर्क	-10.1847
▁क्रियाकलाप	-10.1859
▁भेजे	-10.1863
▁पट्टी	-10.1865
▁t	-10.1875
▁अनाज	-10.1876
जो	-10.1877
▁y	-10.1881
▁बहुमत	-10.1886
▁मांस	-10.1891
g	-10.1893
b	-10.1894
▁कपड़े	-10.1898
मुख	-10.1901
▁निकालने	-10.1907
्थ	-10.1908
▁अमरीकी	-10.1911
मार	-10.1911
▁सेक्टर	-10.1912
▁पोत	-10.1923
▁आकाश	-10.1924
▁पहाड़ी	-10.1927
▁क़	-10.1928
बार	-10.1935
▁परिस्थिति	-10.1947
▁फैसला	-10.1948
▁प्रजनन	-10.195
▁अम	-10.1951
▁स्वीकृत	-10.1955
▁मुंह	-10.1962
▁उपज	-10.1963
▁साझा	-10.1964
▁जापान	-10.1965
▁सिद्धान्त	-10.1966
▁बोध	-10.1966
▁भरी	-10.1975
्ज़	-10.1977
▁जोड़ा	-10.1978
्ता	-10.1978
▁एकदम	-10.1989
▁प्रतिवादी	-10.1989
▁मानता	-10.1989
▁गर्व	-10.1992
▁मुकदमा	-10.1997
ानु	-10.1997
▁धन्यवाद	-10.2001
▁संपदा	-10.2001
▁चावल	-10.2003
१२	-10.2003
्वा	-10.2006
▁चली	-10.2007
▁दोस्त	-10.2014
गार	-10.2017
▁मौत	-10.2019
िप	-10.2019
▁शांत	-10.2019
▁रहस्य	-10.2028
लर	-10.2029
वेल	-10.2029
▁पहुंचे	-10.2033
पि	-10.2039
जीवन	-10.2052
▁सिवाय	-10.206
▁दिमाग	-10.206
▁कहां	-10.2063
▁जर्मनी	-10.2063
▁चु	-10.2064
▁थोड़ी	-10.208
ूल	-10.2083
ाब	-10.2088
▁ऊपरी	-10.209
▁विनियमन	-10.2092
▁वैकल्पिक	-10.2093
▁बैठे	-10.2097
▁शिक्षकों	-10.2098
▁आइ	-10.2099
द्व	-10.21
स्ट्र	-10.2104
▁परिवारों	-10.2109
▁गर्म	-10.2112
▁कार्यकलाप	-10.2119
▁आराम	-10.2124
▁स्तरों	-10.2126
▁वैध	-10.2135
▁लकड़ी	-10.2137
▁बारह	-10.214
▁लगते	-10.2142
बू	-10.2151
▁उभर	-10.2158
▁रहित	-10.2159
▁किन्हीं	-10.216
▁कालेज	-10.2161
▁ज़	-10.2162
▁पाये	-10.2163
▁पूर्णतः	-10.2166
▁देखता	-10.2169
▁मूर्ति	-10.2182
▁अत	-10.2183
▁कड़ी	-10.2183
▁दस्तावेजों	-10.2187
▁बेच	-10.2188
▁माने	-10.2189
र्व	-10.2195
▁चेतावनी	-10.2198
▁उत्पा	-10.22
▁दक्षता	-10.2201
▁गहराई	-10.2204
▁सै	-10.2204
▁चर	-10.2209
v	-10.2209
▁कक्षा	-10.2216
▁जमानत	-10.2227
▁विवरणी	-10.2235
आई	-10.2237
▁व्यापारी	-10.2238
▁जवाहरलाल	-10.2238
श्त	-10.2238
हृ	-10.2241
le	-10.2242
▁तमिलनाडु	-10.2252
ालय	-10.2252
▁गाय	-10.2256
▁सावधानी	-10.2257
▁उल्लिखित	-10.2265
▁फोटो	-10.2266
▁डॉलर	-10.2266
शि	-10.2266
▁सूचित	-10.2267
▁समझता	-10.2268
▁संगठित	-10.2278
▁धनराशि	-10.2279
▁उन्हीं	-10.228
▁बॉ	-10.2282
▁पहलुओं	-10.2292
▁काट	-10.2298
▁खड़ी	-10.2301
▁पाप	-10.2304
▁ट्यूब	-10.2319
▁प्रसाद	-10.2319
▁तुर्की	-10.2324
वाह	-10.2328
▁पदों	-10.2331
▁कनेक्शन	-10.2332
▁उर्दू	-10.2332
▁पुन	-10.2335
▁वापसी	-10.2342
▁भेजने	-10.2345
▁संभवतः	-10.235
▁गाड़ी	-10.2353
▁जायें	-10.2357
▁मछली	-10.2359
▁प्रतिष्ठित	-10.236
▁पुस्तकों	-10.2364
▁अप्र	-10.2364
▁अन्तर	-10.2381
▁यथार्थ	-10.2386
▁लीग	-10.2387
▁नकारात्मक	-10.2387
▁लै	-10.239
▁अग्नि	-10.24
▁अभिनिर्धारित	-10.24
▁निवासी	-10.2403
▁आयी	-10.2415
▁चुना	-10.2417
▁कुशलता	-10.2418
र्द	-10.242
▁सहन	-10.2424
▁हस्त	-10.2425
▁साधनों	-10.2426
▁इंग्लैंड	-10.2427
▁किलोमीटर	-10.2427
▁कृति	-10.2427
▁माननीय	-10.2429
▁टिकट	-10.2431
▁जाओ	-10.2434
▁उत्तम	-10.2436
▁वक्त	-10.2437
▁अल्	-10.2441
▁चयनित	-10.2448
भर	-10.2453
▁चुकता	-10.2454
▁पड़ेगा	-10.2458
▁सीधा	-10.2461
ic	-10.2461
पात	-10.2467
▁फलस्वरूप	-10.2468
श्य	-10.2468
▁v	-10.2469
▁कही	-10.2478
▁साहब	-10.2481
▁सभापति	-10.2482
▁चाल	-10.2482
कर्ताओं	-10.2483
▁रजिस्टर	-10.2494
▁प्रचालन	-10.2495
▁सतत	-10.2496
यु	-10.2502
▁प्रबल	-10.2503
▁लॉ	-10.2508
िव	-10.2515
▁प्रबंधक	-10.2525
▁दण्ड	-10.2531
▁महत्त्व	-10.2533
▁गतिविधि	-10.2534
▁स्त्रियों	-10.2536
▁निरसन	-10.2537
▁पुल	-10.2538
ौर	-10.2541
▁गईं	-10.2544
▁सेटिंग	-10.2551
▁असामान्य	-10.2551
▁लोड	-10.2552
▁भाष्	-10.2554
▁अंग्रेजों	-10.2555
▁गांधीजी	-10.2561
▁व्यवस्थित	-10.2564
▁उतनी	-10.2565
▁अंतराल	-10.2567
घात	-10.2571
▁अपवाद	-10.2571
प्	-10.2588
▁शंकर	-10.259
▁बयान	-10.2593
▁रखकर	-10.2602
कन	-10.2605
ज़ी	-10.2607
▁अक्षम	-10.2616
▁शानदार	-10.2619
पट	-10.2625
▁रोगों	-10.2631
▁उदार	-10.2633
▁पुस्तिका	-10.2636
▁एयर	-10.2644
न्ध	-10.2648
▁दिनांक	-10.2655
▁ध्वज	-10.2661
लोक	-10.2666
रक	-10.2666
▁चीजें	-10.2672
विक	-10.2682
▁गवर्नर	-10.2688
▁संपन्न	-10.269
▁आरक्षित	-10.2693
हम	-10.2693
▁विद्या	-10.2694
▁सम्बन्धित	-10.2696
▁सम्	-10.27
▁यातायात	-10.2702
▁सैन्य	-10.2703
▁देखी	-10.2706
▁फेंक	-10.2712
▁कोलकाता	-10.2716
तया	-10.2716
▁नवंबर	-10.2716
ोड	-10.2717
▁मुझसे	-10.2718
▁हिसाब	-10.273
▁कॉल	-10.2734
▁कानूनों	-10.2743
▁इराक	-10.2744
▁घट	-10.2752
▁सलाहकार	-10.2753
▁मार्क	-10.2754
▁मिश्रण	-10.2755
▁अज	-10.2758
▁क्ल	-10.2759
▁पुष्प	-10.2759
▁वाद्य	-10.2762
▁अखिल	-10.2772
▁माध्यस्थम्	-10.2774
▁मोह	-10.2775
▁बडे	-10.2776
▁खींच	-10.2782
▁हाथी	-10.2784
▁डाउनलोड	-10.2786
▁एकीकृत	-10.2787
च्च	-10.2791
▁मृत	-10.2791
स्टर	-10.2796
▁छाया	-10.2797
▁चुनौतियों	-10.28
▁कार्यान्वित	-10.2802
▁मुकदमे	-10.2803
▁खोलने	-10.2805
ञ	-10.281
▁रुक	-10.2813
स्व	-10.2813
पत	-10.2814
▁संगणक	-10.2814
▁बांट	-10.2821
▁प्रोफेसर	-10.2828
▁पैसा	-10.2832
लिये	-10.2835
▁अपनाने	-10.2839
▁प्रयोक्ता	-10.2842
▁घनिष्ठ	-10.2843
▁रहेगी	-10.2852
▁चिकित्सीय	-10.2857
सिंह	-10.2858
▁पोस्ट	-10.286
▁अंततः	-10.2877
पद	-10.2878
▁पीड़ा	-10.288
▁अन्तर्	-10.288
धारी	-10.2886
गल	-10.2886
▁घास	-10.2889
▁मशीनरी	-10.2893
▁ब्राह्मण	-10.2895
▁बुरा	-10.2899
रम	-10.291
भूत	-10.2911
▁दावे	-10.2914
▁क्रमशः	-10.2915
वत	-10.2916
▁मंजूर	-10.292
▁सकल	-10.2926
▁अनुक्रम	-10.2927
मिल	-10.2929
ैन	-10.2935
▁प्रतिफल	-10.2935
▁कीटों	-10.2937
▁अं	-10.2945
▁प्रदत्त	-10.2947
▁आस्था	-10.295
▁गुणों	-10.2951
▁उठाए	-10.2952
▁फ्रांस	-10.2954
▁परिचित	-10.2972
▁लाना	-10.2974
▁वादी	-10.2976
▁शत्रु	-10.2977
योजन	-10.2978
धन	-10.2978
▁तैयारी	-10.2985
▁देखो	-10.2985
▁लोकसभा	-10.2986
वासियों	-10.2987
▁निर्देशिका	-10.2991
▁लोकतांत्रिक	-10.2999
▁सीता	-10.3006
गण	-10.3009
फी	-10.3013
▁एजेंसी	-10.3014
▁ईंधन	-10.3014
▁अस्वीकार	-10.3014
▁रचनात्मक	-10.3016
▁कार्यपालिका	-10.3017
▁साम	-10.3025
▁बल्लेबाज	-10.3039
▁बढ़ते	-10.3042
▁रिकॉर्ड	-10.3043
is	-10.3056
▁दोषी	-10.3061
▁नकद	-10.3064
▁दार्शनिक	-10.3072
▁विलंब	-10.3074
▁बहादुर	-10.3078
▁प्रमाणित	-10.308
▁यानी	-10.3081
▁सुन्दर	-10.3081
▁स्थितियों	-10.3086
▁विवेक	-10.3091
▁मानी	-10.3091
▁तस्वीर	-10.3095
▁विवादों	-10.3096
▁रूस	-10.3099
▁चेहरे	-10.3101
▁दोहरा	-10.3106
▁शासक	-10.3106
▁क्षतिपूर्ति	-10.3115
▁दबा	-10.3116
१३	-10.3121
▁व्यापारिक	-10.3125
▁स्	-10.3129
▁सहारा	-10.3131
▁मित्रों	-10.3135
▁आह्वान	-10.3144
ाधिक	-10.3147
▁शेख	-10.3151
▁वैज्ञानिकों	-10.3157
▁शोर	-10.3157
▁शैक्षणिक	-10.3159
▁अगल	-10.3161
▁जंगल	-10.3165
▁फायदा	-10.3173
▁स्वप्न	-10.3173
▁डिग्री	-10.3174
तन	-10.3181
▁जायेंगे	-10.3184
▁पड	-10.3198
▁संग	-10.3201
▁आदर	-10.3203
▁रन	-10.3206
▁अभ्यास	-10.321
▁सचमुच	-10.3217
▁जुड़ी	-10.3223
▁न्	-10.3229
▁घाटी	-10.3232
▁ऊतक	-10.3232
▁अधिरोपित	-10.3232
▁उपेक्षा	-10.3232
▁कार्यरत	-10.324
पना	-10.3247
▁प्रारम्भ	-10.3257
▁कम्प्यूटर	-10.3262
लिन	-10.3268
▁हजारों	-10.3271
▁बढ़कर	-10.3289
▁श्रद्धा	-10.3291
▁तीनों	-10.3293
▁सौंप	-10.3299
क़्	-10.3304
▁कृत्रिम	-10.3306
▁जुल	-10.3307
▁मनो	-10.3314
▁आँख	-10.3316
्रे	-10.3318
▁दिसम्बर	-10.3321
▁ताप	-10.3325
वाँ	-10.3328
▁वस्तुएं	-10.3328
▁मानकों	-10.333
▁आवेदक	-10.3336
क्षण	-10.3338
▁विचारधारा	-10.3339
▁ताल	-10.334
▁गुजर	-10.3342
▁असली	-10.3343
ल्ला	-10.3347
ापन	-10.3349
ीज	-10.3356
▁शिक्षित	-10.336
बोध	-10.3362
▁बेल	-10.3365
en	-10.337
▁तलाश	-10.3373
▁नवम्बर	-10.3381
▁सुर	-10.3387
▁पत्रों	-10.3397
▁विष्णु	-10.3397
▁इक	-10.34
▁टे	-10.3407
▁ऑडियो	-10.341
▁भौगोलिक	-10.341
▁कथित	-10.3412
▁उत्पादक	-10.3418
्द	-10.3418
▁लेंगे	-10.3428
▁मतदान	-10.3428
स्त्र	-10.343
क्क	-10.344
▁मादा	-10.3441
▁अक्ष	-10.3442
▁आपात	-10.3443
▁प्रतिरोध	-10.3445
▁वेद	-10.3448
▁श्वेत	-10.3456
▁प्रभावशाली	-10.3457
▁संक्षेप	-10.3458
▁जुटा	-10.346
▁सामान्यतया	-10.346
▁अंडे	-10.3463
▁जिसको	-10.3475
▁संकल्पना	-10.3479
▁स्मरण	-10.3481
णा	-10.3482
लेट	-10.3489
▁मैने	-10.3494
▁अनन्त	-10.3494
▁हमे	-10.3495
▁अर्जन	-10.3498
ेक्ट	-10.3502
▁समुदायों	-10.3519
रहित	-10.3526
्री	-10.3529
▁बीमार	-10.3532
▁दया	-10.3532
▁विद्वानों	-10.3537
▁भावनाओं	-10.3538
▁देशी	-10.3545
र्ण	-10.3545
▁मंडप	-10.3546
ीस	-10.3547
▁आल	-10.3547
▁सहयोगी	-10.356
ेरी	-10.3563
ख़	-10.3571
▁मासिक	-10.3572
▁खतरनाक	-10.3576
▁अज्ञात	-10.3576
▁उड़ीसा	-10.3576
रोध	-10.3579
पक	-10.3587
▁अवरोध	-10.359
▁निष्क्रिय	-10.3596
▁राष्ट्रों	-10.3596
▁हाउस	-10.3607
▁संयोजन	-10.3611
▁आपसी	-10.3615
▁गोरा	-10.3619
▁स्तरीय	-10.362
▁हिमाचल	-10.3622
▁परिश्रम	-10.3623
दु	-10.3624
▁पुर	-10.3626
▁ग्राफ	-10.3633
▁होटल	-10.3637
▁अतीत	-10.3638
▁सम्बंध	-10.3641
▁लु	-10.365
वादियों	-10.3653
▁व्युत्पन्न	-10.3653
ेंस	-10.3654
▁लंदन	-10.3654
ठा	-10.3656
▁छिपा	-10.366
▁जम	-10.3661
नगर	-10.3661
▁बम	-10.3662
▁फो	-10.3666
ब्ब	-10.3666
▁बुला	-10.3668
अर	-10.3668
▁वैदिक	-10.3668
▁इकाइयों	-10.3668
ृत	-10.3674
▁अपेक्षाकृत	-10.3675
▁अंकित	-10.3676
विज्ञान	-10.368
▁प्रसंस्करण	-10.3684
▁परत	-10.3691
▁अद	-10.3692
लन	-10.3693
▁मानवता	-10.3696
▁पैनल	-10.3699
▁मान्य	-10.3699
म्भ	-10.3699
▁लंबाई	-10.3703
▁कुरान	-10.3706
▁प्रतिबंध	-10.3717
▁लंबा	-10.3724
▁गहरे	-10.373
▁व्यष्टि	-10.3731
▁तीसरा	-10.3733
▁रोज	-10.3733
▁कहाँ	-10.3736
प्रद	-10.3738
▁पूर्ववर्ती	-10.3741
▁उपलब्धता	-10.3742
▁बैठा	-10.3743
▁लेखकों	-10.3746
▁नाग	-10.3747
एच	-10.3749
ंडा	-10.3759
ंडी	-10.376
▁आंकड़े	-10.3765
्ह	-10.3767
▁बनता	-10.3774
▁मुख्यतः	-10.3774
▁ऋ	-10.3779
▁पक्षी	-10.3782
▁कैंसर	-10.3792
▁सोसाइटी	-10.3792
▁नदियों	-10.3792
श्	-10.3793
▁ढेर	-10.3797
▁घरों	-10.38
▁पू	-10.3801
धार	-10.3801
▁नमक	-10.3802
▁कार्मिक	-10.3808
▁संग्रहालय	-10.3809
▁परम्परा	-10.3813
▁बुरी	-10.3814
▁प्रसन्न	-10.3817
▁उर्वरक	-10.3825
▁निधन	-10.3826
▁दम	-10.3829
हे	-10.383
▁मतभेद	-10.384
▁पह	-10.3843
▁फ्ल	-10.3851
▁सुनने	-10.3851
फल	-10.3852
▁योजनाएं	-10.3853
▁त्वरित	-10.3855
▁रामायण	-10.3855
▁प्रणालियों	-10.3856
▁प्रसारण	-10.3862
एफ	-10.3863
▁तनाव	-10.3872
▁तुम्हार	-10.3873
▁जु	-10.3873
▁मोटे	-10.3874
▁O	-10.3874
▁अक्षर	-10.3875
▁वाक्य	-10.3882
▁अपराधी	-10.3884
▁बर्फ	-10.3885
▁पिछली	-10.3887
▁मध्यस्थ	-10.3887
▁दीर्घ	-10.3888
▁o	-10.389
वत्	-10.389
▁अभिकरण	-10.3892
्रि	-10.3894
▁परेशान	-10.3897
▁जीवाणु	-10.3902
▁छोड	-10.3905
▁दिखाने	-10.3908
▁राज्यक्षेत्र	-10.3908
▁खबर	-10.3909
▁चमक	-10.3913
▁परिवर्तनों	-10.3913
▁पालिसी	-10.3923
▁सीखने	-10.3926
म्म	-10.3933
▁रखती	-10.3933
▁हट	-10.3937
▁लगाए	-10.3943
वेद	-10.3947
▁अधिवेशन	-10.3949
ाइट	-10.3957
▁वास्तविकता	-10.3957
▁इलाक	-10.3961
▁सोने	-10.3963
▁अनुमोदित	-10.3965
▁पादप	-10.3969
गढ़	-10.3972
ाप	-10.3973
▁मौका	-10.3984
▁अमल	-10.3984
▁दांत	-10.3986
▁बटन	-10.3986
▁आधा	-10.3987
ब्र	-10.3989
▁शिल्प	-10.3993
▁अनुज्ञा	-10.3993
▁चिन्ह	-10.3995
▁बंबई	-10.3996
▁तदनुसार	-10.3996
▁खनिज	-10.3997
जित	-10.4008
फ़ा	-10.4009
▁आयकर	-10.4014
▁चाह	-10.4015
▁भूख	-10.4016
▁वजन	-10.4016
▁हरि	-10.4019
▁बेस	-10.4021
भी	-10.4024
्टी	-10.4028
▁आमंत्रित	-10.4028
▁पारस्परिक	-10.4028
▁शासित	-10.4029
▁समर्पण	-10.4029
▁तंग	-10.4029
▁आदेशों	-10.4033
▁खुला	-10.4034
धर	-10.4041
भाग	-10.4041
▁ज्ञापन	-10.4044
▁हथियार	-10.4045
▁चा	-10.405
▁लिखते	-10.4056
▁अन्तिम	-10.4061
▁अभियोजन	-10.4062
▁व्यस्त	-10.4064
▁मंजूरी	-10.4069
▁फा	-10.4072
▁बर्	-10.4075
▁सौंदर्य	-10.4076
▁क्रेडिट	-10.4076
▁बिट	-10.4087
▁बचने	-10.4088
▁अध्यक्षता	-10.4094
▁बचाने	-10.4102
▁मोहन	-10.4102
▁सितम्बर	-10.4108
▁पहाड़	-10.4113
▁भु	-10.4115
▁वैयक्तिक	-10.4115
िकी	-10.4116
▁लोप	-10.4116
▁पाठक	-10.4118
▁जुड़	-10.412
▁व्याख्यान	-10.4121
▁विन्यास	-10.4127
एस	-10.4132
▁टो	-10.4139
▁दांडिक	-10.414
▁मुलाकात	-10.414
▁सुश्री	-10.4141
▁सबूत	-10.4144
▁पाना	-10.4148
▁दशकों	-10.4154
ँग	-10.4163
el	-10.4165
▁हिंदु	-10.4171
▁वसा	-10.4175
▁बिन्दु	-10.4176
▁गर्मी	-10.4179
▁संगणना	-10.4181
▁विकासशील	-10.4182
ग्न	-10.4188
बि	-10.4188
▁विनियामक	-10.4189
▁उत्सव	-10.419
▁नियंत्रक	-10.4194
▁वरन्	-10.4195
▁बनना	-10.4208
▁टा	-10.4208
▁पौ	-10.4209
▁समावेश	-10.421
▁पंख	-10.421
▁चलाया	-10.4211
▁इंजीनियरी	-10.4221
▁धान	-10.4224
▁प्रांत	-10.4228
ॉल	-10.4228
▁शाखाओं	-10.4228
▁फे	-10.423
▁चंद्र	-10.4237
▁टेलीफोन	-10.4238
▁अवसंरचना	-10.4238
▁शस्त्र	-10.4239
▁संचित	-10.4239
राव	-10.4242
▁उड़ान	-10.4247
तल	-10.4249
▁रिजर्व	-10.4254
▁चाहूंगा	-10.4254
▁डॉक्टर	-10.4255
▁परंपरागत	-10.4258
▁कमीशन	-10.4259
▁शराब	-10.4271
▁केंद्रों	-10.4271
▁पुराना	-10.4272
▁संग्रहण	-10.4274
▁फर	-10.4275
▁आईटी	-10.4275
▁अनुशासन	-10.4283
▁कवियों	-10.4283
▁चुन	-10.4284
धी	-10.4286
▁उपरोक्त	-10.4287
▁अंतरित	-10.4288
ट्स	-10.4293
▁निष्ठा	-10.43
▁निर	-10.4301
▁पचास	-10.4303
▁यु	-10.4306
▁अधीनस्थ	-10.4308
कालीन	-10.4312
▁मॉ	-10.4313
▁गलती	-10.4316
▁आजाद	-10.4317
▁नारायण	-10.4319
▁ऊंची	-10.4319
▁महासागर	-10.432
▁मोड़	-10.4331
▁माँग	-10.4336
▁कहानिय	-10.4343
▁इन्	-10.4349
▁विजेता	-10.4352
▁प्रोटीन	-10.4353
▁देवताओं	-10.4367
▁सृजित	-10.4369
▁h	-10.4376
▁बाध्य	-10.4376
▁नकदी	-10.4377
▁करवा	-10.4377
▁चू	-10.4378
▁सम्राट	-10.4385
▁पुस्तकालय	-10.4387
▁सां	-10.4396
▁दिख	-10.4399
ह्	-10.4401
▁तीस	-10.4402
▁ख़	-10.4409
हु	-10.4413
▁पैकेज	-10.4416
जल	-10.4419
▁विधानमंडल	-10.4419
▁उपग्रह	-10.4425
▁बडा	-10.4425
▁दिखाएँ	-10.4426
नेट	-10.443
चन	-10.443
ंगल	-10.4432
ल्ट	-10.4433
लू	-10.4433
▁पंजाबी	-10.4437
▁दरबार	-10.4439
▁घोष	-10.4446
ch	-10.4449
मर	-10.4452
▁प्रशिक्षित	-10.4453
▁सम्मानित	-10.4453
▁वार	-10.4464
▁घन	-10.4466
णी	-10.4469
▁लक्ष्यों	-10.4476
▁दिला	-10.4481
▁रासायनिक	-10.4485
रान	-10.4492
वृत्त	-10.4492
ाउ	-10.4492
▁जगत	-10.4501
▁देह	-10.4504
▁निकलने	-10.4509
▁पुस्तकें	-10.451
▁बहन	-10.4515
पितु	-10.4517
▁चढ़	-10.4518
▁निर्णयों	-10.4519
▁जानवरों	-10.4524
▁लिखना	-10.4529
▁तीसरी	-10.4539
as	-10.4543
▁स्टे	-10.4548
ाधीन	-10.455
ोक	-10.4551
▁छुट्टी	-10.4552
▁सूजन	-10.4553
▁तत्त्व	-10.4562
▁विनाश	-10.4563
▁कनाडा	-10.4569
▁सद	-10.4569
se	-10.4571
▁सांस	-10.4575
▁इसको	-10.4578
▁मरम्मत	-10.4585
▁टि	-10.4587
▁तरल	-10.4587
ाइन	-10.4592
ूं	-10.4593
▁कृत्य	-10.4599
▁लम्बे	-10.4603
▁अंग्रेज़ी	-10.4614
नियम	-10.4614
▁नाते	-10.463
▁ऊंचे	-10.4636
▁स्पर्श	-10.464
▁एण्ड	-10.4643
uot	-10.4653
▁नाक	-10.4653
▁सम्पन्न	-10.4657
▁कप	-10.4658
धान	-10.4661
▁परिकल्पना	-10.467
▁स्वाधीनता	-10.4675
शे	-10.4676
लाल	-10.4685
▁प्रसंग	-10.4687
▁सहानुभूति	-10.4687
▁आकर्षण	-10.4689
▁सम्भव	-10.469
▁पूर्णतया	-10.469
▁प्रभार्य	-10.4694
▁तुमने	-10.4696
▁गर्भ	-10.4698
शक्ति	-10.4699
▁रिक्त	-10.47
यम	-10.4704
दाता	-10.4705
▁आर्य	-10.472
▁विज्ञापन	-10.4721
▁विधायी	-10.4722
ग़	-10.4731
▁कलाकार	-10.4733
▁द्रव	-10.4737
▁वैष्णव	-10.4738
शु	-10.4738
ra	-10.474
▁of	-10.474
यल	-10.4743
▁फौज	-10.4747
▁आस्तिय	-10.4751
▁वर्न	-10.4752
▁उन्होनें	-10.4754
▁उपाधि	-10.476
गामी	-10.476
▁तमिल	-10.4775
▁हमला	-10.4776
▁फिलीस्तीनी	-10.4777
▁शर्तें	-10.4781
ट्ट	-10.4782
▁बसव	-10.4788
▁चित्रण	-10.48
▁मंगल	-10.4801
▁यहूदी	-10.4807
िस्तान	-10.4808
▁अनुभूति	-10.4808
▁सैनिकों	-10.4812
▁फसलों	-10.4813
▁पूर्णता	-10.4815
▁सबके	-10.4815
▁धु	-10.482
▁समर्थित	-10.4821
ad	-10.4823
▁स्नातक	-10.4824
▁वृत्ति	-10.4825
▁क्रांतिकारी	-10.4826
▁वासी	-10.4834
G	-10.4837
▁अभिभाषण	-10.4841
▁चट्टान	-10.4841
चन्द्र	-10.4846
▁तर	-10.4847
▁लगने	-10.4856
गम	-10.486
▁विधियां	-10.4861
▁दिल्	-10.4862
▁आदत	-10.4863
प्त	-10.4864
कला	-10.4866
▁मील	-10.4866
▁स्टेट	-10.4868
▁आखिर	-10.4873
▁दंत	-10.4874
▁उत्	-10.4875
▁कू	-10.4876
▁गुणा	-10.4876
▁पुरूष	-10.4882
▁वृ	-10.4883
▁संतुष्ट	-10.4886
१४	-10.4889
▁क्रय	-10.489
▁राव	-10.4893
▁शपथ	-10.4893
िग	-10.4896
▁गण	-10.4898
लों	-10.4902
▁पर्व	-10.4903
▁डो	-10.491
▁सफलतापूर्वक	-10.4914
▁मिस्र	-10.4931
ोत्तर	-10.4933
▁स्कूलों	-10.4934
▁छा	-10.4942
▁मुकाबले	-10.4946
▁आधे	-10.4952
रोग	-10.4955
क्का	-10.4961
▁इन्हीं	-10.4963
▁बनाती	-10.4965
▁प्राणी	-10.4966
▁कराई	-10.4973
▁कट	-10.4974
▁जाया	-10.4974
▁पेशेवर	-10.4981
▁खेत	-10.4987
▁दलों	-10.499
▁कार्यालयों	-10.499
दीन	-10.4992
▁उज	-10.4995
ay	-10.4995
▁शेर	-10.4999
▁शादी	-10.5
▁सकने	-10.5006
▁निपटने	-10.502
भूमि	-10.5024
▁वनस्पति	-10.503
▁भरने	-10.5031
▁शु	-10.504
मित	-10.5041
▁तारा	-10.5046
ाओं	-10.5049
▁नायक	-10.5049
▁भि	-10.5053
▁कार्बन	-10.5055
ायी	-10.5056
▁इनपुट	-10.5056
▁आपदा	-10.5057
रित	-10.5059
▁सोचते	-10.5064
वर्त	-10.5066
▁काले	-10.5068
▁वितरित	-10.5069
बु	-10.507
न्य	-10.5073
▁जागरूकता	-10.5079
▁जानना	-10.508
▁स्क	-10.508
▁इलेक्ट्रॉनिक	-10.5082
▁अवकाश	-10.5086
▁यौन	-10.5087
▁समस्याएं	-10.5093
▁फु	-10.5093
ाज	-10.5097
▁विदेशों	-10.5098
भारत	-10.5099
▁स्वचालित	-10.5105
▁शास्ति	-10.5105
▁बीत	-10.5119
▁पीने	-10.5119
▁मुहम्मद	-10.5122
▁गाँव	-10.5122
▁आमदनी	-10.5122
▁संगत	-10.5125
▁भत्ता	-10.5128
▁मजदूर	-10.5129
▁गणित	-10.5137
▁लाभों	-10.5138
▁थोड़े	-10.514
▁चौक	-10.514
▁उत्पादकता	-10.5147
▁ग्रस्त	-10.5148
▁धो	-10.515
परक	-10.5154
▁गौरव	-10.5155
▁सिल	-10.5155
▁रूपरेखा	-10.5171
▁एजेंसियों	-10.5175
तो	-10.5179
▁वैसा	-10.5179
▁नमूने	-10.519
▁नं	-10.5201
▁000	-10.5209
▁रिज़र्व	-10.5211
▁वयस्क	-10.5211
▁भरपूर	-10.5212
रुप	-10.5214
▁बाढ़	-10.5214
▁औषधि	-10.5215
ंदा	-10.5216
▁उन्हे	-10.5217
▁आंकड़	-10.522
▁मिश्रित	-10.5224
▁बंधन	-10.5228
▁बढ़ता	-10.5229
▁भरोसा	-10.5229
▁स्थूल	-10.5229
▁कारगर	-10.5231
ाबाद	-10.5231
▁विभेद	-10.5231
▁कार्यकारी	-10.5242
ीर	-10.5243
▁रूपये	-10.5245
ॉन	-10.5248
▁जग	-10.5253
▁नोड	-10.5259
▁r	-10.5263
▁प्रजा	-10.5263
▁रेशम	-10.5265
▁गिरफ्तारी	-10.5266
▁विशेषाधिकार	-10.5269
▁देखिए	-10.527
नर	-10.5282
▁शैल	-10.5285
▁आवश्य	-10.5289
टिंग	-10.5293
रचनाओं	-10.5294
▁अभिव्यक्त	-10.5298
▁प्रासंगिक	-10.53
▁जरूर	-10.5301
▁स्मारक	-10.5301
▁उत्कृष्टता	-10.5302
▁गौर	-10.5306
▁स्तन	-10.5306
▁रै	-10.5307
▁जाएँ	-10.531
▁हंस	-10.5311
▁बोझ	-10.5312
▁खुल	-10.5312
▁अधिकृत	-10.532
▁पश्च	-10.532
▁नियोजन	-10.5322
▁काली	-10.5326
▁आपत्ति	-10.5328
▁बदला	-10.5332
ियत	-10.5337
▁खुली	-10.5339
वश	-10.5343
लेख	-10.5348
टक	-10.5355
▁सार्थक	-10.5356
▁यूनियन	-10.5356
▁डिजिटल	-10.5358
▁मैच	-10.5364
▁ची	-10.5371
अधिसूचित	-10.5374
▁चिंतन	-10.5375
▁उपभोग	-10.5375
▁ड्र	-10.5378
▁क्लब	-10.538
▁अरबी	-10.5383
ऐ	-10.5385
▁सकी	-10.5386
र्त	-10.5388
▁निर्गम	-10.5392
▁नाबार्ड	-10.5392
▁शोषण	-10.5392
▁गुट	-10.5393
▁जिलों	-10.5393
▁गीता	-10.5403
▁संतान	-10.5407
▁अफगानिस्तान	-10.541
▁वक्तव्य	-10.5411
▁मजदूरी	-10.5412
▁डाय	-10.5418
िष्ट	-10.542
▁आजकल	-10.5421
▁श्र	-10.5421
▁नज़र	-10.5422
▁पूछ	-10.5424
▁वर्गीकरण	-10.5425
▁जयंती	-10.5429
डल	-10.5435
▁जंगली	-10.544
लय	-10.5445
▁शुरूआत	-10.5447
क्शन	-10.545
▁शीत	-10.5453
▁चरम	-10.5454
ांतर	-10.5458
▁राजकुमार	-10.5466
▁मानने	-10.5468
ैक्ट	-10.5468
▁जोड़ें	-10.5473
▁समता	-10.5474
▁दूरस्थ	-10.5479
▁संवेदना	-10.548
▁अहमद	-10.5484
▁बाज़ार	-10.5484
▁मिलना	-10.5488
▁मराठी	-10.5489
▁बढ़ाना	-10.549
▁टैब	-10.5493
▁l	-10.5493
▁अधिनियमित	-10.5499
न्ना	-10.5504
▁आयाम	-10.5505
▁पड़ने	-10.5506
▁उपदेश	-10.5506
▁कहे	-10.5517
▁यहीं	-10.5517
▁उठाना	-10.5522
▁भिन्	-10.5527
▁ओपन	-10.5528
▁गणतंत्र	-10.554
▁राजमार्ग	-10.5541
▁वाल	-10.5544
▁आनुवंशिक	-10.5558
▁सफाई	-10.5558
▁विडियो	-10.5558
▁भ्रम	-10.5562
▁पार्श्व	-10.5567
▁घृणा	-10.5574
ट्र	-10.5574
▁प्रक्रम	-10.5575
▁सौभाग्य	-10.5576
▁डूब	-10.5581
सम	-10.5581
▁इंकार	-10.5581
पल	-10.5587
▁एकत्रित	-10.5588
▁यात्री	-10.5594
▁सुचरिता	-10.5595
▁कीजिए	-10.5596
▁संग्राम	-10.5598
▁पेशी	-10.5602
▁हिल	-10.5611
शाला	-10.5612
▁कराता	-10.5613
ri	-10.5614
▁खूब	-10.5614
▁अवमानना	-10.5622
▁जला	-10.5623
▁सबको	-10.5627
▁परिचालन	-10.5632
▁बांग्लादेश	-10.5633
▁पहुंचाने	-10.5634
▁गै	-10.5636
ैक	-10.5641
बिल	-10.5646
▁समझना	-10.5647
▁in	-10.5649
▁दुर्लभ	-10.5651
▁निर्वाचित	-10.5651
▁फूट	-10.5653
▁दुकान	-10.5653
▁नोटिस	-10.5654
ंभ	-10.5656
▁सीधी	-10.5658
ee	-10.5664
▁रोम	-10.5667
▁अज्ञान	-10.5675
▁ज्यादातर	-10.5678
▁असं	-10.568
▁सत्याग्रह	-10.5689
▁ज़रूरत	-10.5692
▁तत्काली	-10.5695
▁बताने	-10.5695
▁दस्तावेज़	-10.5695
▁शास्त्री	-10.5696
▁खरीदने	-10.5698
▁प्रतिमा	-10.57
▁असल	-10.57
्ब	-10.5705
▁कर्ज	-10.5708
▁असफलता	-10.5718
▁जानवर	-10.5726
▁इस्पात	-10.5726
▁हर्ष	-10.5731
▁टीका	-10.5735
िस्ट	-10.5739
▁प्रयोगशाला	-10.5742
▁संकलन	-10.5745
▁स्नेह	-10.5745
▁आंखों	-10.5751
▁बचपन	-10.5753
▁पढ़ाई	-10.5756
▁सर्वप्रथम	-10.5764
▁मुल्क	-10.5765
▁पं	-10.5779
▁किराया	-10.5784
▁अपीलार्थी	-10.5784
▁कस	-10.5785
▁पृ	-10.5787
▁बुलाया	-10.5788
▁जरूरतों	-10.579
▁आंख	-10.5795
▁लहर	-10.5796
▁कृषक	-10.5798
थी	-10.5798
▁स्वर्ग	-10.5799
▁मस्जिद	-10.5802
ारा	-10.5802
▁लाखों	-10.5806
▁निवेशकों	-10.5806
▁परिणामों	-10.5808
▁घाट	-10.5809
िकल	-10.5818
लिखित	-10.5819
▁ग्रन्थ	-10.5821
▁आकर्षक	-10.5821
▁गज	-10.5827
▁लिखत	-10.5832
टि	-10.5834
ल्प	-10.5835
aa	-10.5837
्टन	-10.5838
▁प्रशासक	-10.584
▁टेनिस	-10.584
▁शक	-10.5843
th	-10.5844
▁अश	-10.585
▁सिफारिशों	-10.5851
▁प्रतिबद्धता	-10.5854
▁आश्वासन	-10.5859
▁मेहनत	-10.586
▁अग	-10.5869
▁इस्लामवादी	-10.5871
▁सिरे	-10.5874
▁अकादमी	-10.5879
▁आकस्मिक	-10.5879
▁टैगोर	-10.5879
▁लॉग	-10.5883
▁स्रोतों	-10.5888
▁एशियाई	-10.5891
il	-10.5891
▁ऊंचा	-10.5893
चल	-10.5895
▁गरिमा	-10.5898
▁लम्बी	-10.5898
▁माइक्रो	-10.5898
कड़	-10.5899
▁डालर	-10.5909
▁हिम	-10.591
प्स	-10.5911
▁अच	-10.5912
▁ग्रा	-10.5915
▁इंदिरा	-10.5917
▁सशस्त्र	-10.5917
▁ग्रह	-10.5918
▁समर्थक	-10.5919
▁प्लेट	-10.5919
▁जैसाकि	-10.5923
▁प्रतिनिधियों	-10.5924
▁किमी	-10.5933
▁दमन	-10.5937
▁सुदूर	-10.5937
ोज	-10.5944
▁निष्	-10.5954
▁आन्दोलन	-10.5956
ैल	-10.5961
▁विक्रेता	-10.5975
▁सच्चे	-10.5975
▁तरंग	-10.5976
▁यान	-10.5986
▁क़्योंक	-10.5989
▁आकृति	-10.5991
▁मजबूर	-10.5994
▁घायल	-10.5995
▁स्वीकार्य	-10.6002
▁अह	-10.6002
▁निशान	-10.6004
▁संस्थागत	-10.6006
मार्ग	-10.6008
▁कमेटी	-10.6014
▁युवक	-10.6014
▁समीकरण	-10.6021
सऋ	-10.6022
ज्य	-10.6024
▁असंभव	-10.6034
▁तालाब	-10.6034
▁विधा	-10.6035
ग्रह	-10.6037
▁राष्ट्री	-10.6037
▁वृत्त	-10.6037
▁प्रतिवर्ष	-10.6038
▁खासकर	-10.604
क्ट	-10.6042
▁महान्	-10.6049
ावली	-10.6051
पूर्व	-10.6052
गें	-10.6053
▁समकालीन	-10.6054
मूल	-10.6054
▁एससीसी	-10.6057
▁स्विच	-10.606
la	-10.6066
▁संपादक	-10.6072
▁जाहिर	-10.6079
सू	-10.6082
्ले	-10.6094
▁राजपत्र	-10.6096
ानुसार	-10.6099
द्वार	-10.6104
▁ऑफ़	-10.6105
चंद्र	-10.6105
▁इनकार	-10.6117
▁सुधारने	-10.6121
मक	-10.6126
कना	-10.613
▁एक्सचेंज	-10.6132
▁वन्य	-10.6138
्टि	-10.6143
▁कर्तव्यों	-10.6143
▁ढाल	-10.6144
पाद	-10.6144
▁भाग्य	-10.6147
▁ढक	-10.6148
ल्फ	-10.6149
न्द्र	-10.6153
▁पते	-10.6156
▁भग	-10.616
टल	-10.617
▁पुराण	-10.617
▁कच्चे	-10.6171
▁संव्यवहार	-10.6171
लिस	-10.6171
▁त्रुटिः	-10.6172
▁फॉर	-10.6173
▁हुये	-10.6174
▁अपूर्ण	-10.6179
▁संघीय	-10.6181
▁कृत्यों	-10.6186
▁माहौल	-10.6191
▁घुस	-10.6192
रेट	-10.6193
▁अवस्थित	-10.6196
भव	-10.6196
▁पूर्वोक्त	-10.6198
▁उल	-10.62
▁समापन	-10.6202
▁नमूना	-10.6203
▁अंगों	-10.6203
ाली	-10.6203
▁कन	-10.6207
▁प्रत्यर्थी	-10.621
▁मृतक	-10.6212
▁ट्र	-10.6226
▁काला	-10.623
▁निमित्त	-10.623
▁प्रतिरक्षा	-10.623
▁भ्रष्टाचार	-10.623
षा	-10.623
▁उन्नयन	-10.623
▁राह	-10.6231
▁घाव	-10.6235
र्ष	-10.624
▁फूलों	-10.6259
▁जॉन	-10.626
्टर	-10.6262
श्र	-10.6264
▁संचिका	-10.627
▁ठाकुर	-10.627
▁साक्षात्कार	-10.627
▁कनेक्ट	-10.627
त्म	-10.628
▁अवधारण	-10.6285
▁बम्बई	-10.629
▁सिख	-10.6291
▁आवरण	-10.6293
▁दाम	-10.6295
▁उत्तराधिकार	-10.6295
१क	-10.6296
▁विनिधान	-10.63
▁हरियाणा	-10.631
लैण्ड	-10.6315
फर	-10.6324
▁खाद	-10.6327
▁देनी	-10.6328
▁मिथ्या	-10.633
▁अनिवासी	-10.633
▁कबीर	-10.6332
▁जल्द	-10.6337
▁भक्त	-10.6338
▁समेकित	-10.635
▁फ्र	-10.6363
ाभ	-10.6367
▁किशोर	-10.637
▁श्लोक	-10.637
▁पुनरीक्षण	-10.6373
▁बैल	-10.6373
शिया	-10.6374
ेंद्र	-10.6374
▁छः	-10.6382
▁उड़	-10.6382
▁सोचने	-10.6386
▁कौंसिल	-10.639
▁टाइप	-10.639
▁रियायत	-10.639
▁आउटपुट	-10.639
▁जरा	-10.6397
w	-10.6401
▁शल्य	-10.6402
▁जोड़े	-10.6404
१५	-10.6405
▁डाले	-10.6408
▁दूरसंचार	-10.641
▁स्त्रोत	-10.641
▁ऋतु	-10.6411
▁विधवा	-10.6412
▁लाभांश	-10.6413
▁सेशन	-10.6417
▁संभाल	-10.6418
▁चूक	-10.642
▁नेताजी	-10.6421
▁सड़कों	-10.6421
हो	-10.6422
▁बिता	-10.6427
द्य	-10.6429
▁पेटेंट	-10.6432
▁पांव	-10.6432
▁झुक	-10.6438
लम	-10.6441
▁री	-10.6442
▁सिर्फ़	-10.6443
▁साथी	-10.6447
हत	-10.6447
▁अहिंसा	-10.6448
▁विकार	-10.6449
me	-10.6457
▁प्ला	-10.646
हट	-10.6462
▁मारे	-10.6471
▁विटामिन	-10.6471
▁प्रसव	-10.6472
▁रोचक	-10.6472
▁सत्यापन	-10.6473
▁गोली	-10.6474
जीव	-10.6479
▁लौटा	-10.6481
▁हमले	-10.6482
वित	-10.6482
▁भीड़	-10.6487
▁क्रियान्वयन	-10.6492
▁पान	-10.6492
▁भेदभाव	-10.6493
▁सदस्यता	-10.6508
▁समाजवादी	-10.6511
▁टर्मिनल	-10.6512
▁समायोजन	-10.6512
कल्प	-10.6513
▁सारणी	-10.6513
▁बद	-10.6513
▁कोमल	-10.6513
▁सच्चाई	-10.6515
▁खिला	-10.6517
▁रूपों	-10.6521
▁भेजी	-10.6528
स्टी	-10.6532
▁परिदृश्य	-10.6532
▁पुनर्वास	-10.6534
▁रेड	-10.6537
▁रूचि	-10.6538
▁बेटे	-10.6538
ol	-10.654
▁शो	-10.6542
▁काफ़ी	-10.6548
तार	-10.6549
त्ता	-10.6551
▁हड्डी	-10.6553
▁टाइम्स	-10.6555
▁एक्ट	-10.6559
▁असंगत	-10.656
कर्म	-10.6563
ध्व	-10.6568
▁रणनीति	-10.6571
ारी	-10.6572
▁उद्भूत	-10.6574
विध	-10.6574
▁साक्षरता	-10.6577
▁प्राय	-10.6579
▁रत्न	-10.6579
▁जरुरत	-10.6582
▁पेट्रोलियम	-10.6594
▁वध	-10.6596
प्ट	-10.6598
माल	-10.6598
▁प्रबन्ध	-10.6599
▁पोर्ट	-10.6599
▁किरायेदार	-10.66
वर्तन	-10.6614
▁पब्लिक	-10.6615
▁अपनाई	-10.6615
▁गूगल	-10.6615
▁राज़्य	-10.6615
धर्म	-10.6615
▁पीछल	-10.6616
▁उधर	-10.6616
ाहट	-10.6627
▁तुम्हारा	-10.6627
१वीं	-10.6631
▁हिस्सों	-10.6635
▁इंजन	-10.6638
▁मंत्रियों	-10.6644
सिक	-10.6646
▁मजदूरों	-10.6646
▁कमांड	-10.6647
▁उन्मूलन	-10.6656
▁किलो	-10.666
▁टांग	-10.6665
चरित	-10.6665
ुत	-10.667
▁बॉक्स	-10.6671
▁जिंदगी	-10.6677
▁सृष्टि	-10.6677
▁मधुमेह	-10.6677
▁प्रवर्ग	-10.668
न्त्र	-10.6682
हि	-10.6687
▁सेवक	-10.6692
▁मुझ	-10.6695
▁राजाओं	-10.6696
ro	-10.6698
▁ऋषि	-10.6699
▁पहुँचा	-10.6703
▁याचिकाकर्ता	-10.6707
▁पक्षियों	-10.6711
▁अंड	-10.6715
ब्	-10.6718
▁हिन्दुओं	-10.6723
श्च	-10.6725
▁आगमन	-10.6725
▁पूर्वोत्तर	-10.6726
▁संवेदनशील	-10.6734
▁पाद	-10.6735
▁मोहम्मद	-10.6739
▁नींव	-10.6739
▁विस्तारित	-10.6741
लिया	-10.6742
▁बताना	-10.6746
मिया	-10.6747
▁रहीं	-10.6747
▁विल	-10.6752
▁वृद्ध	-10.6757
▁मिटा	-10.6758
▁बोला	-10.676
▁उपयोक्ता	-10.676
▁वार्ता	-10.6761
▁धा	-10.6762
▁नाल	-10.6763
रंग	-10.6765
▁फै	-10.6766
▁नौकर	-10.677
स्थान	-10.6771
पु	-10.6775
▁रोगियों	-10.6778
▁वर	-10.6779
▁मनोरंजन	-10.6781
▁गर्भाशय	-10.6781
▁विच्छेद	-10.6783
▁पंचायत	-10.6787
▁तीर्थ	-10.6788
लाई	-10.6792
लक	-10.68
कत	-10.6803
चु	-10.6807
▁चलती	-10.6809
र्प	-10.6809
▁धार	-10.6821
▁सर्वश्रेष्ठ	-10.6823
▁निर्देशों	-10.6824
▁स्टॉक	-10.6826
▁अनुदेश	-10.6827
▁निकायों	-10.6832
▁बताता	-10.6841
▁बच्चन	-10.6844
▁मंत्रि	-10.6848
▁पीड़क	-10.6849
▁खोजने	-10.6849
▁विष	-10.6849
▁पतन	-10.6856
▁अक्टूबर	-10.6865
▁मामूली	-10.6865
▁चर्च	-10.6867
▁मैत्रीपूर्ण	-10.6868
▁देगी	-10.6873
ांश	-10.6875
है	-10.6877
▁विश्वसनीय	-10.6882
▁मुहैया	-10.6887
▁विकिरण	-10.6887
▁निर्देशित	-10.6887
▁सम्बद्ध	-10.6888
▁उठता	-10.689
▁कब्जा	-10.6893
▁निभाई	-10.6896
st	-10.6896
▁इकट्ठा	-10.6897
परि	-10.69
कृतियों	-10.6901
▁पुनर्गठन	-10.6908
▁किलोग्राम	-10.6908
▁बकाया	-10.6908
त्तर	-10.691
▁संकाय	-10.6911
ैट	-10.6913
▁जर्मन	-10.6914
▁कामगार	-10.6919
▁मित्रता	-10.6924
▁मैत्री	-10.6927
▁आयुर्वेद	-10.6929
▁निर्वहन	-10.693
त्ति	-10.6932
एक	-10.6937
▁वसूल	-10.6939
▁गोवा	-10.6941
▁रिट	-10.6943
▁केन्द्रों	-10.6948
▁आतंक	-10.6948
खे	-10.695
▁स्थिरता	-10.6956
▁मुख्यालय	-10.6957
नुमा	-10.697
▁ओबामा	-10.6972
▁रखरखाव	-10.6972
▁बेहद	-10.6972
▁उत्सर्जन	-10.6972
▁सुधारों	-10.6972
▁सेल	-10.6973
▁आश्रम	-10.6975
▁उलट	-10.6975
▁लार्ड	-10.6977
्ला	-10.6977
▁तृतीय	-10.6993
खी	-10.6997
▁शान्ति	-10.6998
▁निंदा	-10.6998
▁सर्विस	-10.7004
▁हक	-10.7004
मिक	-10.7005
▁अपर	-10.7007
▁बू	-10.7008
इन	-10.7009
▁iv	-10.701
▁श्रमिक	-10.701
वट	-10.7012
▁अक	-10.7013
▁निरसित	-10.7015
▁निर्माता	-10.7027
▁टेक	-10.7028
▁सौंपा	-10.703
▁आन	-10.7036
▁इलाहाबाद	-10.7036
▁काउंसिल	-10.7036
▁प्रोटोकॉल	-10.7036
▁कोयला	-10.7037
‘	-10.704
▁जाग	-10.7041
▁दौरा	-10.7048
▁जू	-10.7051
▁मौखिक	-10.7058
▁इंगित	-10.7058
▁अजीब	-10.7058
▁शिकायतों	-10.7059
▁रोशनी	-10.7067
लाइन	-10.7075
विन	-10.7075
▁अम्ल	-10.7076
▁इमारत	-10.7076
▁उपबंधित	-10.7077
▁सामर्थ्य	-10.7079
▁रेगिस्तान	-10.7079
▁कठिनाइयों	-10.708
▁प्रदाह	-10.7081
▁साझीदारी	-10.7083
▁संस्थापित	-10.7085
▁बादशाह	-10.7091
▁जरुर	-10.7093
हीनता	-10.7099
▁शर्मा	-10.71
▁आधिकारिक	-10.7101
▁मुद्दा	-10.7101
▁मौ	-10.7101
कू	-10.7104
▁अभियोग	-10.7105
▁लक	-10.7105
चना	-10.7106
▁स्टार	-10.7112
रोपण	-10.7113
ट्री	-10.7119
ेन्ट	-10.7122
▁अब्दुल	-10.7122
▁गम्भीर	-10.7123
▁कामकाज	-10.7126
▁प्रश	-10.7128
डिया	-10.7133
▁न्या	-10.7135
ीला	-10.7135
मू	-10.7136
▁मनाया	-10.7137
▁झिल्ली	-10.7144
▁कार्यनीति	-10.7153
re	-10.7153
▁दाव	-10.7165
▁आश्रय	-10.7166
▁दुग्ध	-10.7166
▁दीक्षांत	-10.7166
ूक	-10.7168
▁चौड़ाई	-10.7168
▁बही	-10.7174
▁जैविक	-10.7182
ध्या	-10.7183
▁खर्चे	-10.7185
▁तिहाई	-10.7188
थि	-10.7189
्यता	-10.7197
▁अनंत	-10.7197
▁रज	-10.7197
बन	-10.7198
बाबू	-10.7203
यत	-10.7206
▁संकीर्ण	-10.721
▁खारिज	-10.721
▁अशोक	-10.721
▁सूचीबद्ध	-10.722
▁साकार	-10.7224
▁गीतों	-10.7229
▁विख्यात	-10.7232
▁तमाम	-10.7232
▁प्रजाति	-10.7235
▁ग्ल	-10.7246
▁उपयोगिता	-10.7247
▁मुँह	-10.7254
▁आशंका	-10.7259
सिल	-10.7259
स्थल	-10.7264
▁आघात	-10.7265
दू	-10.7269
लिक	-10.7272
▁डब्ल्यू	-10.7276
▁पत्तन	-10.7277
▁जगत्	-10.7279
▁अध्यापक	-10.7279
▁लाए	-10.7281
▁मेहर	-10.7281
▁आधी	-10.7283
▁गि	-10.7285
▁आगामी	-10.7285
ांक	-10.7289
पन्न	-10.7295
▁हू	-10.7296
▁दुर्	-10.7296
▁स्वच्छता	-10.7297
▁स्नान	-10.7299
▁इंजीनियरिंग	-10.7299
बो	-10.7312
र्य	-10.7313
िमा	-10.7313
▁बेचने	-10.7315
▁पुरुषों	-10.7318
▁निरन्तर	-10.732
▁शत	-10.7322
स्तर	-10.7322
▁रहकर	-10.7324
▁अंध	-10.7328
ोट	-10.7332
▁बेटी	-10.7335
▁पुत्री	-10.7335
▁आर्	-10.7336
▁अपार	-10.7338
▁प्रीत	-10.7342
▁उन्नति	-10.7346
▁अनि	-10.7348
▁we	-10.7351
▁योनि	-10.7354
▁स्टाफ	-10.7356
चित्र	-10.7358
▁फी	-10.7359
खंड	-10.7362
▁समझी	-10.7363
▁लड़कियों	-10.7364
▁झेल	-10.7366
▁गले	-10.7366
▁विद्वत	-10.7366
थर	-10.7367
▁रेख	-10.7374
▁देशवासियों	-10.7377
▁घटित	-10.7378
▁निधियों	-10.7382
त्री	-10.7384
▁आशुतोष	-10.7387
▁प्रगाढ़	-10.7387
▁अवलोकन	-10.7387
ाए	-10.739
ाश	-10.739
▁नारी	-10.739
ूस	-10.7394
▁प्ल	-10.7395
ॉट	-10.74
▁ज्योति	-10.7401
ायन	-10.7403
▁सहभागिता	-10.7409
▁रंगमंच	-10.7409
▁अवधारित	-10.741
▁पीडीएफ	-10.741
▁पर्यटकों	-10.7414
ur	-10.7423
▁मनुष्यों	-10.7423
▁तन	-10.7425
▁सीट	-10.7429
▁विनियमित	-10.7431
्टे	-10.7432
थन	-10.7435
▁गंभीरता	-10.7437
त्स	-10.7438
▁आचार	-10.7441
यान	-10.7442
टिक	-10.7444
▁प्रस्तावों	-10.7452
▁तुरन्त	-10.7454
ड़िया	-10.7454
▁निष्पक्ष	-10.7457
र्श	-10.7457
▁निदान	-10.7459
▁विशेषज्ञों	-10.7461
▁छोड़ने	-10.7466
▁तह	-10.7468
▁लौटने	-10.7469
▁सूचक	-10.7472
▁संतोष	-10.7477
शीलता	-10.7477
▁मुड़	-10.7481
▁निकले	-10.7489
▁बीमाकर्ता	-10.7495
▁प्रजातिय	-10.7496
▁संस्कार	-10.75
te	-10.7503
▁कहती	-10.7504
▁मंद	-10.7509
▁उम्मीदवार	-10.751
▁आव	-10.7517
▁खोलें	-10.752
▁नियोक्ता	-10.7521
▁श्रीलंका	-10.7521
यं	-10.7537
▁विषयक	-10.7544
▁प्रगतिशील	-10.7546
▁बचे	-10.7554
मात्र	-10.7558
थे	-10.7562
▁प्रतिलिपि	-10.7568
▁पटल	-10.7569
▁भूत	-10.7576
▁हटाया	-10.7577
▁गिरा	-10.7577
मंडल	-10.7583
▁स्वैच्छिक	-10.7589
▁अन्तर्राष्ट्रीय	-10.759
▁कपड़ा	-10.7591
▁दीवान	-10.7592
▁केन्द्रित	-10.7598
▁पहन	-10.7599
▁प्रतिस्पर्धा	-10.7599
षण	-10.7601
▁बिन	-10.7602
▁चिर	-10.7604
▁गरम	-10.7606
▁दशमलव	-10.7612
▁चमत्कार	-10.7612
▁नो	-10.7613
▁बेकार	-10.7614
▁धारित	-10.7617
▁गुल	-10.7621
▁ब्यूरो	-10.7621
▁ह्य	-10.7623
वस्था	-10.7624
▁बुक	-10.7628
▁कुटुम्ब	-10.7635
▁दुरुपयोग	-10.7635
▁निर्दोष	-10.7635
▁परियोजनाएं	-10.7639
छा	-10.7642
▁बूट	-10.7646
२क	-10.7656
▁प्रतिबिंब	-10.7658
▁नानक	-10.766
▁क्ष	-10.7665
बन्ध	-10.767
▁मधुर	-10.7673
ेन्स	-10.7673
▁उदर	-10.7673
▁सांप	-10.7674
▁एकजुट	-10.7681
▁लेखापरीक्षा	-10.7681
▁रसीद	-10.7681
ेम	-10.7681
क्रिया	-10.7697
▁पॉ	-10.7698
रोह	-10.7699
▁मोर	-10.7704
ूत	-10.7707
गुण	-10.7709
▁लोगो	-10.771
▁उपहार	-10.7711
▁मूल्यवान	-10.7713
▁भगत	-10.7716
▁खिलाड़ी	-10.7717
▁प्रतिकर	-10.7717
▁बनकर	-10.7718
▁वर्	-10.7719
us	-10.772
▁सहेज	-10.7723
▁एससी	-10.7723
▁हड़ताल	-10.7727
▁मुर	-10.7727
▁रोका	-10.7729
▁धर्मों	-10.7731
▁घोर	-10.7731
▁घड़ी	-10.7733
पू	-10.7741
▁निराशा	-10.7746
▁जिसमे	-10.7751
▁दुर्गा	-10.7752
रिस	-10.7758
▁कार्यकाल	-10.7759
ंडर	-10.7763
▁मिश्र	-10.7765
▁व्यास	-10.7769
▁अप्रत्यक्ष	-10.7772
▁एसोसिएशन	-10.7773
▁बदरूद्	-10.7773
▁मेमोरी	-10.7773
▁डोमेन	-10.7774
▁चै	-10.7775
्रो	-10.7778
▁सेंट	-10.778
▁जीवंत	-10.778
▁स्थलों	-10.7782
चक	-10.7788
▁छेद	-10.7792
ड़ों	-10.7794
▁प्रचुर	-10.7796
ुस	-10.7798
▁विचित्र	-10.78
विद	-10.7805
स्ता	-10.7807
ac	-10.781
▁भागवत	-10.781
लंब	-10.781
▁ईमानदारी	-10.7811
ुन	-10.7812
▁पद्धतियों	-10.7814
▁आज्ञा	-10.7818
▁दीवारों	-10.7819
▁डेस्कटॉप	-10.7819
▁सामुदायिक	-10.7819
▁विधानसभा	-10.782
▁इनसे	-10.7823
ुम	-10.7826
रक्त	-10.7826
▁अभिन्न	-10.7827
▁प्रभु	-10.7827
▁कोटि	-10.7828
▁नै	-10.7828
▁दायित्वों	-10.7829
▁सालों	-10.7832
▁धारक	-10.7835
थो	-10.7837
▁ताज	-10.7837
▁सल	-10.7837
▁लाहौर	-10.7843
▁स्थानांतरित	-10.7843
▁सचिवालय	-10.7844
▁प्रतिवेदन	-10.7846
▁खपत	-10.7849
ER	-10.7851
▁हाई	-10.7853
▁अनुभवों	-10.7861
▁खातों	-10.7862
▁क्रोध	-10.7864
▁पॉल	-10.7865
▁संतुलित	-10.7866
▁निविदा	-10.7866
▁सटीक	-10.7866
▁अंतरिम	-10.7869
▁लेट	-10.787
दर्श	-10.7873
▁आवाज़	-10.7875
▁प्रवास	-10.7876
▁बजाए	-10.7876
▁हॉ	-10.7876
ात्	-10.7879
ाग	-10.7882
दारी	-10.7888
फ्	-10.7888
▁निर्वाह	-10.7893
▁अहम	-10.7899
▁अनन्य	-10.7906
ेषण	-10.7909
▁अस्पष्ट	-10.7913
▁हैसियत	-10.7913
▁अतिक्रमण	-10.7914
▁समाहित	-10.7914
▁ड्राइव	-10.7922
▁ज़ि	-10.7924
▁अन्तः	-10.793
▁लक्ष्मी	-10.7936
▁श्रेय	-10.7937
am	-10.7941
▁सेवन	-10.7944
▁टै	-10.7949
▁कहलाता	-10.795
▁तू	-10.795
▁कूद	-10.795
▁दत्त	-10.7953
▁वरीयता	-10.7959
▁वापिस	-10.796
▁परजीवी	-10.7962
▁ट्रैक	-10.7966
▁क्षमा	-10.7969
▁निर्माताओं	-10.797
▁धूल	-10.7981
वृत्ति	-10.7982
▁छल	-10.7984
▁जंग	-10.7984
▁हार्डवेयर	-10.7984
▁गतिविधियां	-10.7986
▁बदलें	-10.7987
▁संरक्षित	-10.7987
▁चंद	-10.7989
▁१६	-10.7999
ैया	-10.8002
▁सभाओं	-10.8002
▁सतर्कता	-10.8005
▁विधायिका	-10.8008
▁यात्रियों	-10.8008
▁रॉ	-10.8011
क्यू	-10.8011
▁ठहरा	-10.8013
साध्य	-10.8017
क़्त	-10.8019
▁निकालना	-10.802
▁बक	-10.802
▁गयीं	-10.802
ेरा	-10.8021
दश	-10.8022
▁बां	-10.8024
▁कुर	-10.8026
▁वर्क	-10.8028
रिंग	-10.8029
क्ल	-10.8031
▁प्राइवेट	-10.8031
▁सोवियत	-10.8031
▁बोलने	-10.8032
▁प्रभुत्व	-10.8032
▁गौण	-10.8033
▁झा	-10.8043
▁रोड	-10.8044
ड्ड	-10.8045
▁सिंधु	-10.8045
िद	-10.8046
राय	-10.8054
▁हिमनद	-10.8056
▁अपमान	-10.8059
ख्या	-10.8059
▁व्याकरण	-10.8059
▁मूत्र	-10.8059
ीत	-10.8063
▁लड़का	-10.8065
▁एंव	-10.8065
ाट	-10.8068
भाई	-10.8072
▁निष्पादित	-10.8079
▁प्रौढ़	-10.8079
▁हानिकारक	-10.808
▁विलियम	-10.8081
वै	-10.8084
फ्ट	-10.8088
सिस	-10.8091
id	-10.8093
▁वात	-10.8097
जात	-10.8101
▁पंद्रह	-10.8103
▁मणिपुर	-10.8106
▁जज	-10.8111
▁माध्य	-10.8121
निर्	-10.8125
स्था	-10.8126
▁प्रख्यात	-10.8127
▁भूटान	-10.8127
▁पाठकों	-10.8128
बर्ग	-10.8129
▁घातक	-10.813
▁पढ	-10.8131
▁प्रत्य	-10.8131
▁चलना	-10.8133
▁यज्ञ	-10.8135
ंघ	-10.8135
▁छंद	-10.8142
▁टिक	-10.8145
▁बढ़ाया	-10.8146
▁दक्ष	-10.8146
▁आस्ट्रेलिया	-10.8151
▁बंदरगाह	-10.8151
▁अतिथि	-10.8152
▁आंकड़ा	-10.8153
ज्ञान	-10.8153
▁मंत्रालयों	-10.8154
▁जितने	-10.8158
लित	-10.8164
▁गढ़	-10.8172
डु	-10.8174
▁नाट्य	-10.8175
▁औजार	-10.8175
▁व्यक़्ति	-10.8176
▁गतिशील	-10.8185
▁दौरे	-10.8187
▁बैक	-10.819
▁हरा	-10.8191
▁आंत	-10.8193
▁शास्त्रीय	-10.8193
▁चुप	-10.8197
▁निःशुल्क	-10.8199
▁दोबारा	-10.8199
▁यकीन	-10.8199
▁जनजाति	-10.8203
रोधी	-10.8205
▁उदाहरणार्थ	-10.8205
्च	-10.8206
▁शिष्य	-10.8209
जु	-10.8212
▁अपर्याप्त	-10.8223
▁भ्रूण	-10.8223
▁विस्फोट	-10.8224
▁घुमा	-10.8233
▁ग़	-10.8234
▁पद्म	-10.8237
▁विपक्ष	-10.8241
▁पड़ोसी	-10.8243
▁मस	-10.8246
▁वांछित	-10.8248
▁धूप	-10.8248
▁मत्स्य	-10.8248
▁दीर्घकालिक	-10.8249
▁संस्थाएं	-10.8249
▁शुभ	-10.8251
क्षेत्र	-10.8256
▁निर्णायक	-10.8258
कारक	-10.8258
▁छोर	-10.8266
राष्ट्रीय	-10.8267
▁चिह्नित	-10.8267
शियन	-10.8268
▁दू	-10.8269
▁डिफ़ॉल्ट	-10.8272
▁अध्यादेश	-10.8272
कर्त्ता	-10.8272
रन	-10.8275
▁अमीर	-10.8275
▁प्राणियों	-10.8276
फ्रे	-10.8282
▁दिलचस्प	-10.8283
▁ड़	-10.8285
गृह	-10.8285
▁सेंटर	-10.8288
▁साथियों	-10.8293
▁ओह	-10.8294
▁संप्रदाय	-10.8296
हल	-10.8297
▁नकल	-10.8301
▁किले	-10.8301
यक	-10.8303
▁आक्षेप	-10.8303
लीन	-10.8305
▁अवयव	-10.8307
em	-10.8314
▁स्वी	-10.8315
डिंग	-10.8315
▁फेर	-10.8316
▁परिसीमा	-10.8321
▁सच्ची	-10.8321
▁पोषक	-10.8321
▁अर्पित	-10.8322
▁दंडादेश	-10.8322
▁सख्त	-10.8323
▁कैन	-10.8327
दो	-10.833
िंद	-10.8343
▁सुनी	-10.8345
▁अद्भुत	-10.8345
▁अल्पसंख्यक	-10.8345
▁जगन्नाथ	-10.8345
▁अन्याय	-10.8347
▁विकलांग	-10.8352
ादि	-10.8352
▁हिला	-10.8355
▁क्रि	-10.8357
▁हरी	-10.8358
▁उद्यमियों	-10.8358
▁जाएंगी	-10.8361
▁रवि	-10.8364
▁at	-10.8368
▁गे	-10.8369
क्टर	-10.8369
▁थक	-10.837
▁डेटाबेस	-10.837
▁सनातन	-10.837
▁युक्तियुक्त	-10.8372
▁इधर	-10.8373
▁ट्रेड	-10.8392
▁चढ़ा	-10.8393
▁बजा	-10.8394
▁अतएव	-10.8394
▁भव्य	-10.8399
▁अकेला	-10.84
सुर	-10.8403
▁कन्	-10.8405
▁आइए	-10.8406
▁दादा	-10.8408
▁सावधान	-10.8409
म्य	-10.8416
▁महाकाव्य	-10.8419
▁अर्जुन	-10.8419
▁अनावश्यक	-10.8419
▁उद्धृत	-10.842
▁ब्रा	-10.842
ध्द	-10.842
रंज	-10.8421
▁श्वसन	-10.8425
▁साम्राज्यवाद	-10.8428
▁कारकों	-10.8428
जू	-10.843
सक	-10.8434
▁ऑन	-10.8434
▁पवन	-10.844
▁आओ	-10.844
▁उग्र	-10.8445
▁मानों	-10.8446
उन	-10.8452
▁आगरा	-10.8452
वक	-10.8454
क्षेप	-10.8455
▁आंबेडकर	-10.8469
▁हरे	-10.847
▁संपादित	-10.8471
▁संजाल	-10.8472
▁लाई	-10.8477
ंजन	-10.8479
▁ऊंट	-10.848
▁शिरा	-10.849
▁जनजातिय	-10.849
▁चक	-10.8492
▁वर्षो	-10.8492
▁पुणे	-10.8494
▁कूटशब्द	-10.8494
▁मुख़्य	-10.8494
▁दाल	-10.8495
▁निक्षेप	-10.8496
▁एआईआर	-10.8497
▁पासवर्ड	-10.8498
▁बारी	-10.8499
केट	-10.8502
घा	-10.8502
▁शव	-10.8505
ल्यू	-10.8509
▁पाती	-10.8511
▁कर्ता	-10.8517
वर्धन	-10.8519
ैड	-10.852
▁अटल	-10.8523
▁टिप्पण	-10.8524
क्षी	-10.8525
▁गुजराती	-10.8531
▁बढ़े	-10.8533
िच	-10.8533
▁कृपा	-10.8534
▁यांत्रिक	-10.8544
▁चेहरा	-10.8544
▁सूअर	-10.8544
▁टुकड़े	-10.8545
▁पैरों	-10.8545
▁संख़्या	-10.8546
▁हिन्दुस्तान	-10.8547
▁कहकर	-10.8548
़ी	-10.8549
▁भेजें	-10.855
▁विगत	-10.855
▁शासकों	-10.8552
▁माइ	-10.8552
कारों	-10.8554
▁पत	-10.8564
▁निवेदन	-10.857
▁अभिनेता	-10.857
▁नाना	-10.8571
ानंद	-10.8572
▁क्षमताओं	-10.8575
ाणु	-10.8585
र्ब	-10.8588
▁घु	-10.859
डीए	-10.8592
▁जानती	-10.8593
▁नवीनतम	-10.8596
▁खैर	-10.8597
▁टीवी	-10.8604
▁आचार्य	-10.8609
▁बुश	-10.861
नन	-10.8612
▁द्वारकानाथ	-10.8619
▁साक्षियों	-10.8619
▁भयानक	-10.8619
▁पृथक्	-10.8622
▁अर्द्ध	-10.8625
प्पा	-10.8626
भू	-10.8633
▁पिछड़े	-10.8637
▁मास्टर	-10.8638
▁बनायी	-10.8638
▁झूठ	-10.8641
प्रिय	-10.8641
▁काश्मीर	-10.8644
▁निरपेक्ष	-10.8644
▁स्वार्थ	-10.8645
िणी	-10.8646
हू	-10.8649
▁लायक	-10.8649
▁साख	-10.8661
ैस	-10.8663
भद्र	-10.8663
tr	-10.8663
▁माध्यमिक	-10.8665
▁धर	-10.8666
▁अपशिष्ट	-10.867
▁औचित्य	-10.867
AT	-10.8672
▁संस्थापक	-10.8672
▁सूचकांक	-10.8673
▁वहन	-10.8674
▁परेशानी	-10.8679
▁प्रपत्र	-10.8681
बाद	-10.8684
्ष	-10.8693
▁कार्यवाहियां	-10.8695
▁पारदर्शिता	-10.8695
▁झलक	-10.8698
▁अंधेर	-10.87
सान	-10.8701
▁विकृत	-10.8711
▁कीमतों	-10.8712
सम्मत	-10.8715
▁लेबल	-10.8717
दल	-10.8719
▁एजेंट	-10.8721
गि	-10.8723
वर्ग	-10.8724
▁हाइ	-10.873
ान्तर	-10.874
▁पट्ट	-10.874
▁ट्रा	-10.8746
▁संदिग्ध	-10.8746
▁गोद	-10.8746
▁पर्यवेक्षण	-10.8748
▁परिधि	-10.8751
▁चलकर	-10.8755
▁लड़ने	-10.8758
▁दिलचस्पी	-10.876
▁बालकों	-10.8763
▁साइ	-10.8763
ित्र	-10.8764
▁अभिप्राय	-10.8772
▁प्रशांत	-10.8772
▁वेग	-10.8774
इर	-10.8775
िफ	-10.8777
▁टेप	-10.8777
▁सांप्रदायिक	-10.8778
▁कैल	-10.8783
िक्स	-10.8783
▁नाव	-10.8785
▁u	-10.8794
▁गंतव्य	-10.8797
▁शुष्क	-10.8797
▁कंपनियां	-10.8798
▁बदलना	-10.8798
▁विवश	-10.8802
▁ऊतकों	-10.8804
शाह	-10.8805
▁लगाकर	-10.8806
▁काटने	-10.8806
▁टू	-10.8809
ठी	-10.8809
ियल	-10.8818
▁एमएसएमई	-10.8823
▁पारिवारिक	-10.8823
▁मार्गदर्शक	-10.8823
वती	-10.8823
▁अवतार	-10.8826
शाली	-10.8832
▁सुपर	-10.8833
▁पदक	-10.8835
▁ओवर	-10.8838
पोर्ट	-10.8839
▁समावेशी	-10.8841
▁पावर	-10.8848
▁आविष्कार	-10.8849
▁सत्यापित	-10.8849
▁पूरक	-10.885
स्थिति	-10.885
रना	-10.886
▁परिपूर्ण	-10.8867
▁भोग	-10.8874
▁महर्षि	-10.8874
▁स्टाक	-10.8875
ूंगा	-10.8877
▁मंजिल	-10.8879
▁बेचा	-10.888
▁अनुमानित	-10.888
मेन	-10.8881
▁स्वदेशी	-10.8882
शिप	-10.8886
▁अहं	-10.8893
▁गरीबों	-10.8898
▁अपीलीय	-10.8899
ील	-10.8899
▁आलोचक	-10.89
▁अंतर्विष्ट	-10.89
▁वित्तपोषण	-10.8901
▁ईमेल	-10.8903
▁प्रतिष्ठान	-10.8906
▁चलाए	-10.8907
▁चोरी	-10.8909
▁निकला	-10.8909
विद्	-10.891
▁वृक्क	-10.8912
ir	-10.8914
▁मिलन	-10.8924
▁आबंटन	-10.8926
▁मुताबिक	-10.8926
▁अभिनय	-10.8926
▁बढा	-10.8932
श्म	-10.8935
मंड	-10.8936
आइ	-10.8936
▁प्रवासी	-10.8939
▁बताए	-10.8944
ाचार्य	-10.8947
ड्	-10.8947
▁चालक	-10.8952
▁फायदे	-10.8952
▁फांसी	-10.8953
▁पंचाट	-10.8953
▁बर्तन	-10.8953
▁इच्छुक	-10.8954
▁यातना	-10.8955
मुखी	-10.8958
▁गुर	-10.8958
▁सच्चा	-10.896
▁प्रेमी	-10.8961
कै	-10.8962
▁साधना	-10.8963
▁ब्ल	-10.8964
फ़ी	-10.8967
▁श्रमिकों	-10.8977
सिन	-10.8979
▁आश्चर्यजनक	-10.898
▁सम्भावना	-10.8992
बाजी	-10.8995
▁महाद्वीप	-10.9
▁अभियोजक	-10.9005
▁पायी	-10.9006
▁जमाने	-10.901
दाय	-10.9012
सिया	-10.9014
दायक	-10.9017
▁पडा	-10.902
▁दर्शक	-10.903
▁दरवाजे	-10.9031
▁आरक्षण	-10.9038
▁प्रतिभूतियों	-10.9038
▁the	-10.904
▁मजबूती	-10.9042
प्रति	-10.9047
▁क्रियाओं	-10.905
म्बर	-10.9056
तिक	-10.9057
▁गिरावट	-10.9057
▁बेशक	-10.9058
▁सर्वथा	-10.906
▁चारा	-10.9062
▁वृहत	-10.9064
▁रात्रि	-10.907
सेन	-10.9071
▁मंत्र	-10.9072
डोर	-10.9074
▁ईस्ट	-10.9075
im	-10.9075
▁सोना	-10.9081
▁तात्पर्य	-10.9084
▁लक्ष्मण	-10.9084
▁दर्जा	-10.9087
ौल	-10.9087
▁नी	-10.9087
▁जै	-10.9088
▁अभिरक्षा	-10.9093
▁तात्कालिक	-10.911
▁ग्रुप	-10.911
ाध	-10.9111
▁स्पेन	-10.9111
▁चुनावों	-10.9112
कट	-10.9112
▁संकर	-10.9114
▁प्रौद्योगिकियों	-10.9114
▁टेस्ट	-10.9118
▁छिद्र	-10.9127
▁पद्य	-10.9129
न्दा	-10.913
झा	-10.9135
▁फ़ॉन्ट	-10.9137
▁निरूपित	-10.9137
ाधिकार	-10.9137
▁संचरण	-10.9138
▁लक्षणों	-10.914
▁मधु	-10.9147
▁स्थाई	-10.9149
यता	-10.915
▁लय	-10.9152
▁फार	-10.9158
लिका	-10.916
▁अध्य	-10.916
▁आत्महत्या	-10.9163
▁बहुमूल्य	-10.9164
वर्ण	-10.9165
▁व्यर्थ	-10.9166
▁पटेल	-10.9167
▁दंडनीय	-10.9168
▁विशेषताओं	-10.917
▁स्ल	-10.917
▁अवगत	-10.9172
▁सिंध	-10.9174
गमन	-10.9175
िआ	-10.9183
▁सक	-10.9184
▁लेगा	-10.9188
▁सिनेमा	-10.919
स्फ	-10.919
un	-10.9193
▁फलों	-10.9195
▁सऋ	-10.9197
▁आरोपों	-10.9198
▁वक्र	-10.9199
▁मापन	-10.92
▁प्रत्या	-10.92
▁दृढ़ता	-10.9209
▁फट	-10.9217
रक्षक	-10.9217
▁फुट	-10.9222
▁बाबा	-10.9225
▁कमर	-10.9225
ाशय	-10.9227
▁पट्टे	-10.9233
▁मूलतः	-10.9234
▁प्रतिबद्ध	-10.9235
▁सीखा	-10.9235
▁वनों	-10.9236
▁मैक	-10.9239
▁सुनाई	-10.9242
▁जमींदार	-10.9243
▁अब्दुल्ला	-10.9244
▁बुल	-10.9246
▁अनुभाग	-10.9247
क्रा	-10.925
▁स्वाद	-10.9254
▁ढूंढ	-10.9255
म्मा	-10.9262
िं	-10.9262
दों	-10.9268
ैम	-10.9269
▁तालिका	-10.9269
▁घोड़े	-10.927
▁समीप	-10.927
▁क्यू	-10.9272
▁मारने	-10.9274
स्थापित	-10.9275
▁आभूषण	-10.9276
▁साइन	-10.9276
▁मानदंड	-10.9277
▁उतने	-10.9278
▁नरम	-10.9279
युक़्त	-10.9281
▁इस्लामवाद	-10.9286
कार्य	-10.9294
▁गेहूं	-10.9297
पथ	-10.9299
▁ae	-10.93
▁मास्टर्स	-10.9302
▁बोले	-10.9303
▁खनन	-10.9304
▁सौदा	-10.9307
वर्ड	-10.9315
▁ललिता	-10.9315
▁ढो	-10.9316
▁मुल	-10.932
▁मुफ्त	-10.9324
▁उदय	-10.9325
▁लार्वा	-10.9325
▁अधिग्रहण	-10.9325
▁स्थानांतरण	-10.9327
▁ट्रांस	-10.9327
▁तत्सम	-10.9327
बंद	-10.9329
▁बिलियन	-10.9329
मीटर	-10.9332
▁चाहेंगे	-10.9334
▁आश	-10.9336
▁सीए	-10.9345
▁बलिदान	-10.9352
▁चरणों	-10.9352
▁सोचना	-10.9353
▁विकेट	-10.9355
▁क्वा	-10.9355
▁धीम	-10.9362
ीज़	-10.9372
▁छोड़ा	-10.9376
▁जंतु	-10.9379
▁उग	-10.938
▁लाभदायक	-10.9382
▁सूरज	-10.9383
▁नाटकीय	-10.9386
▁बुराई	-10.9386
मोन	-10.9391
ड़ियों	-10.9392
्ली	-10.9392
▁किराए	-10.9394
▁भरत	-10.9395
▁’	-10.9397
▁दवाओं	-10.9399
▁टूल	-10.9404
▁आजीविका	-10.9406
▁नियन्त्रण	-10.9406
ट्	-10.9407
▁मौके	-10.941
▁शाही	-10.9414
sh	-10.9414
▁बढ़ाकर	-10.9416
ोद	-10.9423
▁नजदीक	-10.9424
▁सत	-10.9426
▁बंगाली	-10.9429
▁विलय	-10.9429
▁उपरांत	-10.9434
▁सार्वभौमिक	-10.9439
कीय	-10.9448
र्र	-10.9452
मेल	-10.9458
▁महिलाएं	-10.9459
▁चुंबकीय	-10.946
▁बगैर	-10.9461
▁बिस्तर	-10.9461
▁नींद	-10.9463
▁कंध	-10.9463
▁क्रमांक	-10.9467
हरा	-10.9472
▁इंटर	-10.9476
▁खेतों	-10.9476
▁लखनऊ	-10.9488
▁विघटन	-10.9488
▁अवमान	-10.9489
▁खाड़ी	-10.9491
▁ठहराया	-10.9493
▁लूट	-10.9497
राज्य	-10.9498
ग्राम	-10.9501
▁बड़	-10.9504
▁ट्रस्ट	-10.9505
▁बनाएँ	-10.9506
▁टाल	-10.9506
चालित	-10.9511
▁लगाई	-10.9512
सीसी	-10.9513
▁बशर्ते	-10.9515
नेवाले	-10.9516
▁अवसाद	-10.9516
▁पर्यावरणीय	-10.952
▁उद्यमी	-10.952
▁अनुकरण	-10.9524
▁चिल्ला	-10.9526
▁करवाने	-10.9526
▁जोड	-10.9527
ीक	-10.953
▁रूपांतरण	-10.9531
▁अखबार	-10.9536
▁सीडी	-10.9536
▁मानचित्र	-10.9537
रियल	-10.9539
▁हटाए	-10.954
▁भोज	-10.954
▁समेत	-10.9544
na	-10.9552
▁जूट	-10.9553
बाल	-10.9553
▁ज्वर	-10.9554
om	-10.9554
▁पुकार	-10.9555
▁कृ	-10.9558
▁अग्रसर	-10.956
जनों	-10.9564
▁नियोजित	-10.9567
फिल	-10.9569
▁अद्वितीय	-10.9571
▁सोसायटी	-10.9571
▁संपादन	-10.9571
▁अन्न	-10.9573
मूर्ति	-10.9574
ऑ	-10.9576
▁सिवा	-10.9582
श्व	-10.9584
▁विशेषज्ञता	-10.9586
▁गत	-10.9588
▁लगेगा	-10.9589
▁बोर	-10.959
▁नाश	-10.959
मुक्त	-10.9591
▁उठे	-10.9594
▁प्रवाहित	-10.9598
▁निषेध	-10.9599
▁भूकंप	-10.9599
▁मण्डल	-10.9601
▁वास	-10.9606
▁छुपा	-10.9607
पूर	-10.9609
ट्रा	-10.961
▁वाणी	-10.961
▁खिल	-10.9613
▁नली	-10.9615
व्	-10.9617
ाइज	-10.9619
▁भयंकर	-10.9626
्यूट	-10.9628
▁अंडमान	-10.9629
▁औषध	-10.9629
▁चित्रों	-10.963
are	-10.9636
लेखन	-10.9642
▁प्रदेशों	-10.9649
ावरण	-10.9649
▁अनुबंध	-10.9652
▁निकोबार	-10.9654
▁स्नायु	-10.9654
▁मुद्रण	-10.9654
▁माया	-10.9659
र्द्ध	-10.9659
आँ	-10.9661
▁कण	-10.9665
ंव	-10.9668
▁१७	-10.9668
गाह	-10.9669
▁बीमारियों	-10.9669
▁चित्त	-10.9671
ढ़ा	-10.9677
सल	-10.9679
▁व्याप्त	-10.9682
▁चिन्ता	-10.9682
▁ढलान	-10.9686
▁दिखायी	-10.9686
▁पेय	-10.9687
▁सिफारिशें	-10.9688
नीत	-10.9696
जार	-10.9699
डीपी	-10.97
स्तान	-10.97
भाषी	-10.9702
हीं	-10.9702
▁हिंद	-10.9703
▁बदलते	-10.9704
रक्षित	-10.971
▁डिवीजन	-10.971
▁उद्धरण	-10.9711
▁हास्य	-10.9712
ोड़	-10.9713
ma	-10.9715
▁प्रारम्भिक	-10.972
िला	-10.972
▁उत्पादित	-10.9721
▁आंक	-10.9721
▁कैसा	-10.9723
ध्य	-10.9733
▁साठ	-10.9735
▁बज	-10.9735
▁वाजपेयी	-10.9739
▁पत्रकार	-10.9739
▁उत्पत्ति	-10.9739
▁मुद्रित	-10.9739
▁चित्रित	-10.974
र्जन	-10.9744
▁बलराम	-10.9748
▁उत्सुक	-10.9749
▁खु	-10.9751
▁कारित	-10.9751
▁आवृत्ति	-10.9752
▁तैर	-10.9752
▁बनती	-10.9757
▁आवासीय	-10.9757
विल	-10.9758
कृति	-10.9765
▁अर्जी	-10.9766
▁भेड़	-10.9766
▁अंतःस्थापित	-10.9767
ड्र	-10.9771
▁एकीकरण	-10.9776
▁सरलता	-10.9777
▁सेनाओं	-10.9784
▁नीतियां	-10.9784
्दी	-10.9788
▁पर्यटक	-10.9789
▁मॉड्यूल	-10.9795
▁सर्किट	-10.9795
▁राजकीय	-10.9797
नू	-10.9799
▁मुह	-10.9801
▁हटाना	-10.9807
▁लेखों	-10.9807
▁त्र	-10.9808
▁पेड़ों	-10.9809
▁नहर	-10.9815
▁स्राव	-10.9817
▁vi	-10.9821
▁तेलुगु	-10.9824
▁व्यायाम	-10.9824
▁परिपथ	-10.9825
▁सूखे	-10.9827
▁मेनन	-10.9828
▁मेनू	-10.9831
▁डाली	-10.984
▁उपनिवेश	-10.9843
▁वाई	-10.9843
▁फिल्मों	-10.9845
▁सिक्किम	-10.9852
▁हल्के	-10.9852
दायी	-10.9854
▁प्रतिस्थापित	-10.986
्को	-10.9862
▁स्त	-10.9864
▁भौ	-10.9865
▁पंथ	-10.9866
ation	-10.987
वय	-10.9872
कोट	-10.9876
▁जीने	-10.9879
भार	-10.9879
▁तार्किक	-10.9881
▁सरस्वती	-10.9881
▁चिंतित	-10.9881
▁कट्टर	-10.9881
▁बुखार	-10.9881
आईसी	-10.9884
▁धनी	-10.9885
▁इंसान	-10.9887
नल	-10.9894
▁शरण	-10.9895
०ख	-10.9895
▁किरण	-10.9895
▁सरकारें	-10.99
▁पिट	-10.9903
ङ्ग	-10.9904
▁तम	-10.9905
▁खर	-10.9905
▁पारिश्रमिक	-10.9909
▁पूँजी	-10.9909
▁पूछताछ	-10.9909
▁समुच्चय	-10.9909
▁उपाध्यक्ष	-10.9909
▁विवेचन	-10.9909
▁विनोद	-10.9909
चाल	-10.991
गीर	-10.9912
▁फर्क	-10.9915
▁जोड़ी	-10.9918
ot	-10.9923
▁इम	-10.9927
▁प्रिंटर	-10.9928
▁भ्र	-10.9932
▁सामंजस्य	-10.9938
▁स्थगित	-10.9938
ैं	-10.9939
▁तीव्रता	-10.994
▁दिलाने	-10.9947
▁अय	-10.9948
▁विशेषताएं	-10.9952
▁बैठकों	-10.9952
▁रथ	-10.9954
▁क्षेत्रफल	-10.9954
मैं	-10.9959
भेद	-10.996
▁संभावनाएं	-10.9963
एगा	-10.9963
▁अंतर्निहित	-10.9967
▁माला	-10.9968
ट्टा	-10.9979
▁मेघ	-10.998
▁सिखा	-10.998
ज्ञा	-10.9985
▁शांतिपूर्ण	-10.9987
पिंग	-10.9994
▁लू	-10.9995
▁प्रीमियम	-10.9996
▁सउदी	-10.9996
▁समाविष्ट	-10.9996
▁हस्तांतरण	-10.9996
▁अवशेष	-10.9997
नेवाला	-10.9998
▁पूर्वक	-10.9999
▁भटक	-10.9999
▁अनुपस्थिति	-11
ांकित	-11.0003
▁आंखें	-11.0004
▁वर्गीकृत	-11.0004
▁हॉल	-11.0004
▁दर्शाया	-11.0007
▁क्षय	-11.0008
दर्शन	-11.0011
स्टा	-11.0013
▁दिनांकित	-11.0017
▁गाँधी	-11.0022
▁ताजमहल	-11.0025
▁धमकी	-11.0025
▁अत्याचार	-11.0025
▁नवाचार	-11.0026
▁संरक्षक	-11.0029
▁विशिष्टता	-11.0032
▁भ्रमण	-11.0034
▁उभार	-11.0034
▁सॉ	-11.0034
धारा	-11.0037
िकता	-11.0038
▁इन्द्रिय	-11.0038
▁बंधक	-11.0041
ंगो	-11.0043
▁डालना	-11.0046
▁राधाकृष्णन	-11.0054
▁शृंखला	-11.0054
▁दोपहर	-11.0054
▁सारांश	-11.0055
▁पड़ते	-11.0057
▁ग्रीन	-11.0057
▁नामों	-11.0058
ार्थियों	-11.006
▁सूखा	-11.006
नुसार	-11.0062
लै	-11.0066
▁मोल	-11.007
▁पाठ्य	-11.0077
क्षम	-11.008
शर	-11.0081
▁खादी	-11.0083
▁चुपचाप	-11.0083
▁लैंगिक	-11.0083
▁करुणा	-11.0083
▁सघन	-11.0083
▁स्नातकोत्तर	-11.0083
▁सतत्	-11.0084
▁नैतिकता	-11.0085
▁निर्धन	-11.0094
▁सीरिया	-11.0104
▁एकड़	-11.0105
▁जगा	-11.0106
▁बालों	-11.0108
▁उत्त	-11.0112
दित	-11.0112
▁जवान	-11.0115
▁बेन	-11.0116
▁बुरे	-11.0118
▁ध्रुव	-11.012
▁पेपर	-11.012
स्म	-11.0121
▁बाण	-11.0123
▁बाध्यता	-11.0123
▁हरित	-11.0131
▁दायी	-11.0132
▁निर्व	-11.0134
ैप	-11.0134
▁खोला	-11.014
▁महानिदेशक	-11.0142
▁नियोजक	-11.0142
▁वकालत	-11.0142
▁समन्वित	-11.0142
▁जनजातीय	-11.0143
▁मणील	-11.0143
▁हज़ार	-11.0143
रल	-11.0143
▁नारियल	-11.0143
▁चाहें	-11.0143
▁अंशदान	-11.0144
खाना	-11.015
जीत	-11.0151
▁समूचे	-11.0152
▁गोपाल	-11.0153
▁de	-11.0154
▁ताजा	-11.0164
चारी	-11.0166
▁गल	-11.0167
▁बुद्धिमान	-11.0168
▁फैले	-11.017
▁आबंटित	-11.0171
▁धैर्य	-11.0171
▁नगरपालिका	-11.0172
▁न्यायपीठ	-11.0173
▁शिविर	-11.0173
▁नामांकन	-11.0177
रवाना	-11.0189
रानी	-11.0189
▁मानस	-11.0189
▁अनिश्चित	-11.019
ोसिस	-11.019
▁असीम	-11.0194
वंश	-11.0194
▁बांस	-11.0198
▁हथियारों	-11.0199
▁लगाये	-11.02
▁देवनागरी	-11.02
▁हेक्टेयर	-11.02
ांकन	-11.0201
▁इन्होंने	-11.0201
▁प्लास्टिक	-11.0201
▁पक	-11.0204
▁ग्रंथों	-11.0205
▁नाच	-11.0209
▁करूंगा	-11.0213
▁नाथ	-11.0213
▁फारसी	-11.0215
▁re	-11.0217
▁अर्थशास्त्र	-11.0217
रिट	-11.0219
▁मशीनों	-11.0229
▁प्रसारित	-11.0229
काय	-11.023
▁ग्लोबल	-11.023
▁मुकाबला	-11.023
▁चक्कर	-11.023
▁तयशुदा	-11.023
▁मंदी	-11.0231
▁सैकड़	-11.0231
▁पारदर्शी	-11.0231
▁अभिदाय	-11.0234
▁मोटी	-11.0237
▁नतीजा	-11.0238
▁नवान्वेष	-11.0239
▁कराए	-11.0244
ate	-11.0244
▁ग्रंथि	-11.0253
अली	-11.0253
ेगी	-11.0255
▁जुट	-11.0256
▁बढ़ी	-11.0258
▁सिक्ख	-11.026
▁विश्राम	-11.026
▁हमसे	-11.026
▁सेवानिवृत्त	-11.026
▁मुद्रक	-11.026
▁खगोल	-11.0261
▁आखिरी	-11.0263
▁मलयालम	-11.0264
▁पढ़ना	-11.0266
▁अनुमत	-11.0267
▁जनन	-11.0268
षित	-11.0271
▁नामित	-11.0273
▁तिलक	-11.0275
कथा	-11.0276
तन्त्र	-11.0276
बान	-11.028
▁मुक	-11.028
▁लार	-11.0282
▁ग्यारह	-11.0285
▁रूक	-11.0287
▁चौदह	-11.0289
▁रोकथाम	-11.0289
▁तिब्बत	-11.029
▁ख्याल	-11.0291
▁भीतरी	-11.0291
▁सुलह	-11.0292
▁परंपराओं	-11.0292
▁श्वास	-11.0293
▁सुखद	-11.0296
▁सहयोगियों	-11.0298
ंद्र	-11.0298
▁मानकर	-11.03
ग्री	-11.0303
▁निर्यातक	-11.0304
▁समितियां	-11.0305
▁संसद्	-11.0305
ियाई	-11.0306
▁विराम	-11.0306
▁क्षेञ	-11.0319
▁ध्येय	-11.0319
▁दीजिए	-11.0319
▁बाँध	-11.0319
▁निवासियों	-11.0321
▁सापेक्ष	-11.0321
▁असंख्य	-11.0324
▁चलाना	-11.0325
▁समझती	-11.0331
▁फिलीस्तीन	-11.0335
▁बग	-11.034
▁कौम	-11.0342
गुन	-11.0344
▁पागल	-11.0347
▁एल्गोरिथ्म	-11.0349
▁ब्रितानी	-11.0349
▁श्रेणियों	-11.0349
▁रजिस्ट्रीकृत	-11.035
▁लेनी	-11.035
वरी	-11.0351
▁जापानी	-11.0353
टिन	-11.0357
लस	-11.0358
पेट	-11.0362
▁चो	-11.037
▁कृमि	-11.0371
▁असमानता	-11.0371
थ्र	-11.0373
तापूर्वक	-11.0375
वर्षीय	-11.0377
▁सौन्दर्य	-11.0379
▁मरीज	-11.0382
▁इंच	-11.0394
▁आधुनिकीकरण	-11.0395
यालय	-11.0398
भ्य	-11.0398
ंर	-11.0398
जन्य	-11.04
▁उत्तराधिकारी	-11.0407
ेन्द्र	-11.0407
▁एव	-11.0408
▁उल्लास	-11.0409
▁टेलीविजन	-11.0409
▁प्रत्युत्तर	-11.0409
▁चाहा	-11.041
▁गंध	-11.0411
जय	-11.0414
▁अमृत	-11.0414
कोण	-11.0421
बंदी	-11.0421
क़ा	-11.0423
प्रा	-11.0424
स्टो	-11.0426
▁शेयरधारक	-11.0428
▁मैन	-11.0432
▁क्षेत्रक	-11.044
▁खुराक	-11.044
▁राजदूत	-11.044
प्रभा	-11.0442
▁सदियों	-11.0452
▁दिखता	-11.0458
▁com	-11.0458
ion	-11.0464
▁व्यव	-11.0468
▁खंडों	-11.0469
▁सहारे	-11.047
▁लाइ	-11.0471
अप	-11.0473
▁बनते	-11.0475
▁अट	-11.0479
षक	-11.0479
▁सिं	-11.0479
▁अफ़	-11.0483
▁संयोग	-11.0483
ंति	-11.0487
माला	-11.05
▁शब्दावली	-11.0504
▁देरी	-11.0512
▁पोर्टल	-11.0518
▁किला	-11.0518
▁संस्थापन	-11.0523
▁जादू	-11.0525
गिन	-11.053
▁मक	-11.0533
सित	-11.0535
▁निकाले	-11.054
वृत	-11.054
▁हुईं	-11.0545
▁प्रस्तुति	-11.0547
▁बंधु	-11.0548
▁विधिज्ञ	-11.0552
▁हुसैन	-11.0561
▁राजवंश	-11.0563
▁दुश्मन	-11.0563
▁मार्	-11.0566
ानन्द	-11.0572
▁निबंधन	-11.0574
▁टुकड़	-11.0577
▁नम	-11.0585
स्की	-11.0586
▁चोर	-11.0586
▁पाट	-11.0591
▁दलील	-11.0594
▁स्म	-11.0597
▁खां	-11.0598
ेक्स	-11.0598
▁प्रेरक	-11.0598
▁लिखें	-11.06
▁नौका	-11.0601
▁नागर	-11.0602
▁फ़िर	-11.0604
▁वाहक	-11.0608
▁sa	-11.0609
▁घटकों	-11.061
स्कर	-11.0611
▁निगमित	-11.0611
▁सम्बन्धों	-11.0611
▁भौतिकी	-11.0612
▁वर्षीय	-11.0613
▁क्रो	-11.062
▁Google	-11.0623
▁वाशिंगटन	-11.0623
▁हल्का	-11.0623
जिक	-11.0623
▁मुख्यमंत्री	-11.0626
कालिक	-11.0627
▁ब्राउज़र	-11.0629
▁फंड	-11.0632
▁सिंधी	-11.0635
ष्टि	-11.0635
▁कवर	-11.0637
▁निर्भरता	-11.0638
▁निः	-11.0644
▁युग्म	-11.0646
ागार	-11.0647
▁नौसेना	-11.0654
▁तैनात	-11.0654
▁उक	-11.0655
▁स्थावर	-11.0658
ेप	-11.0662
ाते	-11.0663
▁रच	-11.0666
र्च	-11.0668
▁पर्वतीय	-11.0668
▁उत्प	-11.0671
▁लीला	-11.0674
्लो	-11.0676
डू	-11.0682
▁साज	-11.0682
▁कहें	-11.0686
▁टैक्स	-11.0687
▁क़्या	-11.0687
▁राग	-11.0691
▁नोड्स	-11.0692
▁नलिका	-11.0693
▁जायगा	-11.0694
चीन	-11.0694
▁कृत	-11.0699
▁लल	-11.07
एंगे	-11.07
▁प्ररूप	-11.0704
▁निबंध	-11.0704
▁मौन	-11.0706
▁आकांक्षा	-11.0707
▁प्रिंट	-11.0709
▁क्रमिक	-11.0712
▁न्यूयार्क	-11.0716
▁उपासना	-11.0716
▁कित्तूर	-11.0716
कुमार	-11.0716
▁भूतपूर्व	-11.0716
▁मृदा	-11.0716
▁अपनाना	-11.0718
▁वारंट	-11.0718
▁अभिलिखित	-11.0718
▁परमिट	-11.0719
▁सुलभ	-11.0719
▁बलों	-11.0723
मेट	-11.0723
स्तरीय	-11.0724
▁शासकीय	-11.0727
▁गणेश	-11.0736
▁पाइप	-11.0736
दुर	-11.0738
▁मोटा	-11.0743
▁प्रदाता	-11.0745
▁जुर्माना	-11.0747
▁परिप्रेक्ष्य	-11.0747
▁मुम्बई	-11.0747
▁किनारों	-11.0747
▁अफसर	-11.0748
▁समाजवाद	-11.0749
▁कपास	-11.0751
▁झाड़	-11.0756
ियार	-11.0756
क्षित	-11.0758
ध्यक्ष	-11.076
▁भट्ट	-11.0765
बाई	-11.0767
▁अश्व	-11.0771
त्ती	-11.0777
▁रिएक्टर	-11.0778
▁शक़्ति	-11.0779
ाड	-11.0792
▁फैसले	-11.0792
सेट	-11.0793
▁उगा	-11.0793
▁बायो	-11.0804
▁दुर्भाग्य	-11.0806
▁जॉर्ज	-11.081
▁फीसदी	-11.0813
▁नार	-11.0814
▁पिछ	-11.0814
▁आस्तियां	-11.0816
▁फ्री	-11.0819
▁जीतने	-11.082
सूत्र	-11.0821
▁शे	-11.0821
कोश	-11.0823
लता	-11.0825
▁पुरी	-11.0825
▁चिकन	-11.0826
▁साफ़	-11.0827
▁कॉम	-11.083
किंग	-11.0834
▁तिरु	-11.0839
▁गर्दन	-11.0841
▁भैंस	-11.0842
ter	-11.0846
▁जगहों	-11.0847
▁रावण	-11.0848
पीएस	-11.0848
▁कंप	-11.0854
▁फैली	-11.0855
▁AR	-11.0856
▁सोम	-11.0857
▁बंदी	-11.0859
ेरे	-11.086
ao	-11.0861
▁महत्त	-11.0861
▁बेटा	-11.0863
ख़ा	-11.0864
▁परंतुक	-11.0871
▁उत्थान	-11.0873
▁दहेज	-11.0873
▁वर्ल्ड	-11.0873
▁बनाएं	-11.0875
वेयर	-11.0878
विधि	-11.088
▁देखेंगे	-11.0885
▁संचय	-11.0886
▁गोर	-11.0889
▁फंस	-11.0894
▁ट्रे	-11.0903
ढा	-11.0904
▁प्रामाणिक	-11.0904
▁विषम	-11.0904
▁स्ट्रिंग	-11.0904
▁पक्षपात	-11.0909
▁व्यापारियों	-11.0911
हरण	-11.0914
’’	-11.0914
ंठ	-11.0917
बिया	-11.092
▁दंडित	-11.0923
लोम	-11.0923
हान	-11.0926
ेयर	-11.093
▁साझीदार	-11.0932
▁इंतजार	-11.0936
▁एक्सटेंशन	-11.0936
▁कसौटी	-11.0936
▁सम्मुख	-11.0938
▁फलक	-11.094
▁प्रेषण	-11.0941
▁प्रभावों	-11.0948
नक	-11.0953
शोध	-11.0954
▁भली	-11.0957
▁चेन्नई	-11.0968
▁विशुद्ध	-11.0968
▁दस्त	-11.0968
▁सुपुर्दगी	-11.0968
ज़र	-11.0971
▁गाने	-11.0974
टिव	-11.0976
▁सद्भावना	-11.0976
▁पटना	-11.0978
▁आतंकवादियों	-11.0978
▁दर्शकों	-11.098
फाइ	-11.0983
ण्	-11.0985
▁खेलने	-11.0986
रात	-11.0987
▁बहुधा	-11.0988
ैर	-11.0988
शंकर	-11.099
▁पौधा	-11.0991
▁द्वीपों	-11.0991
▁तटीय	-11.0995
▁उत्तेजित	-11.1
▁यथासंभव	-11.1
▁आश्रित	-11.1
रेखा	-11.1
▁विमानक्षेत्र	-11.1
▁लम्बा	-11.1001
ंए	-11.1006
▁फॉर्म	-11.1019
ंदर	-11.1021
कर्ण	-11.1021
▁हममें	-11.1024
▁बसे	-11.103
▁रसोई	-11.1032
▁छत्तीसगढ़	-11.1032
▁रक्षक	-11.1032
▁कोयले	-11.1033
▁मक्का	-11.1036
▁वैसी	-11.1042
▁सहेजें	-11.1046
ैश	-11.1047
च्छेद	-11.106
ul	-11.1063
मंद	-11.1063
▁वियतनाम	-11.1064
▁देखरेख	-11.1065
▁मेले	-11.1065
▁ग्रिड	-11.1066
▁निकलता	-11.1066
फोर	-11.107
▁अनुप्रयोगों	-11.1072
▁सुगम	-11.1072
▁धाराओं	-11.1078
जाल	-11.1081
▁नित्य	-11.1084
प्राप्त	-11.1089
ेला	-11.1091
▁घेर	-11.1091
ंकि	-11.1091
▁रेत	-11.1093
ताएं	-11.1095
्ना	-11.1095
▁कन्वेंशन	-11.1096
▁सांविधिक	-11.1096
▁आश्वस्त	-11.1096
▁गर्भवती	-11.1096
▁महाविद्यालय	-11.1096
▁गेंदबाज	-11.1097
▁शू	-11.1103
▁उड़ा	-11.1108
▁बिगड़	-11.1109
क्की	-11.111
ers	-11.1114
निष्ठ	-11.1118
ोला	-11.1119
ावस्था	-11.112
तऋ	-11.1123
ub	-11.1126
▁नागरिकता	-11.1128
▁डिक्री	-11.1128
▁स्वेच्छा	-11.1129
▁आन्तरिक	-11.1131
▁ब्लॉक	-11.1137
▁मादक	-11.1139
▁पैन	-11.1141
▁बागान	-11.1143
▁वादों	-11.1144
विहीन	-11.1146
▁निपटा	-11.115
ात्मा	-11.115
▁खुलने	-11.1155
▁दुष्	-11.1155
ज़े	-11.1158
ोत	-11.1158
▁ईरानी	-11.116
▁अपरिहार्य	-11.1161
▁वाष्प	-11.1161
▁मनोवैज्ञानिक	-11.1161
▁बागवानी	-11.1161
▁परिमाण	-11.1162
▁साधारणतया	-11.1164
▁परिपत्र	-11.1166
▁पीढ़िय	-11.1166
▁बगल	-11.1181
ेस्ट	-11.1181
▁बाघ	-11.1183
▁साझेदारी	-11.1183
▁केलिए	-11.1184
गिरि	-11.1186
▁लाभकारी	-11.1187
▁सूर	-11.119
मस	-11.119
▁पुनर्विलोकन	-11.1194
▁माउस	-11.1194
▁सजीव	-11.1195
▁रियासत	-11.1196
▁समरूप	-11.12
▁बादल	-11.12
बाज	-11.1206
▁अनाम	-11.1209
▁गान	-11.1212
▁पित्त	-11.1212
ग्राही	-11.1217
▁मंडली	-11.1222
▁श्	-11.1222
▁डीएनए	-11.1224
▁दुबारा	-11.1226
▁सिंगापुर	-11.1226
▁हाजिर	-11.1226
▁आईसीटी	-11.1227
▁बौ	-11.1228
▁पॉलिसी	-11.1228
▁फ्रेम	-11.1229
▁प्रतिपूर्ति	-11.1231
▁मेजबान	-11.1231
▁आगम	-11.1233
ent	-11.1237
▁परिपक्व	-11.124
▁द्रव्य	-11.124
▁सुंदरता	-11.1248
▁इंड	-11.1248
▁रुख	-11.125
▁वरन	-11.1251
▁खूबसूरत	-11.1259
▁मैसूर	-11.126
▁रंगों	-11.126
▁जानबूझकर	-11.1261
▁परिस्थितियां	-11.1262
▁विश्वव्यापी	-11.1262
▁शान्त	-11.1263
▁सेवाएँ	-11.1266
गति	-11.1283
▁ज्या	-11.1288
दर्शी	-11.1288
▁गुलाम	-11.1289
▁बांड	-11.129
▁एनआईओएस	-11.1292
▁वॉ	-11.1292
▁अहमदाबाद	-11.1292
▁अस्त्र	-11.1295
▁हेम	-11.1299
▁रोकना	-11.1299
▁संयम	-11.1301
▁मरने	-11.1303
एमएस	-11.1304
▁निवेशक	-11.1304
ुष	-11.1307
▁पुरा	-11.1312
▁बाप	-11.1312
मेन्ट	-11.1317
▁बंदर	-11.1317
▁कर्त्तव्य	-11.1325
▁मांसपेशिय	-11.1325
▁यूनाइटेड	-11.1325
▁संप्रतीक	-11.1325
▁यमुना	-11.1325
▁खतरों	-11.1325
▁मंत्रिमंडल	-11.1325
▁शिश्न	-11.1325
▁मेज	-11.1326
▁भविष्यवाणी	-11.1326
कारियों	-11.1326
रियों	-11.1326
▁प्रेमचन्द	-11.1326
▁सपने	-11.1332
ग्रा	-11.1332
▁प्रमाणन	-11.1335
▁टैग	-11.1337
▁ज़रूरी	-11.1337
दाताओं	-11.1338
▁रण	-11.1348
▁व्यवसायी	-11.1348
▁आक्रामक	-11.1358
▁उजागर	-11.1358
▁उत्तेजना	-11.1358
▁शाश्वत	-11.1358
▁निदेशालय	-11.1359
▁जिन्ना	-11.1361
▁डालते	-11.1361
▁मन्त्र	-11.1362
्ठ	-11.1365
▁गंद	-11.1368
वस	-11.1369
▁सचेत	-11.1369
पीठ	-11.1387
▁पौराणिक	-11.1391
▁काल्पनिक	-11.1391
▁सुप्रीम	-11.1391
▁निरा	-11.1399
▁हफ्ते	-11.14
▁चम	-11.1401
▁१८	-11.1403
आकांक्षाओं	-11.1405
▁चार्ज	-11.1405
▁इलाके	-11.1406
▁प्रव	-11.1407
यह	-11.1408
वृ	-11.1408
▁लौह	-11.1409
▁संज्ञा	-11.141
▁निदेशकों	-11.1411
मारी	-11.1415
योग्य	-11.1419
▁बताई	-11.1419
▁ऑपरेशन	-11.1425
▁प्रायोजित	-11.1425
▁ऑटो	-11.1426
यंत्र	-11.1427
▁हरेक	-11.1427
▁पीछा	-11.1429
▁प्रदर्शनी	-11.1431
▁मानवाधिकार	-11.1433
▁मध्यवर्ती	-11.1433
▁पैक	-11.1434
▁निवल	-11.1435
▁गायब	-11.1436
▁अरे	-11.1436
्तर	-11.1438
▁प्रोग्रामिंग	-11.1438
घाट	-11.1442
मुझे	-11.1445
▁पकड़ने	-11.1447
णीय	-11.1448
▁घेरे	-11.1448
▁तुर्क	-11.1449
ab	-11.1449
टरी	-11.145
▁बढाने	-11.145
ग्रहण	-11.1452
▁बट	-11.1456
▁प्रतिमान	-11.1457
▁अप्रत्याशित	-11.1458
▁निरर्थक	-11.1458
▁फाउंडेशन	-11.1458
▁वास्तुकला	-11.1458
▁श्याम	-11.1458
▁बंगला	-11.1459
▁विलम्ब	-11.146
रेटर	-11.1462
▁वाय	-11.1462
▁इनको	-11.147
डेल	-11.1474
▁कोरिया	-11.1476
▁सीमेंट	-11.1479
▁अस्त	-11.148
▁घटनाएं	-11.1485
▁असह	-11.1486
▁पलट	-11.1488
▁क्लो	-11.149
▁तारों	-11.149
▁कार्यकर्ताओं	-11.149
▁व्यतीत	-11.1492
▁मापदंड	-11.1492
▁ब्रह्मा	-11.1495
▁पाइ	-11.1496
▁शर	-11.1497
▁आंत्र	-11.1498
▁शंका	-11.1498
▁विश	-11.1503
▁तीख	-11.1505
बिन	-11.1507
▁प्रतिवाद	-11.1508
▁जनक	-11.1513
्ट्र	-11.1513
▁दिखाना	-11.1519
ाती	-11.152
्ती	-11.1521
▁दब	-11.1522
▁खाद्यान्न	-11.1525
▁घंटा	-11.1526
▁कानपुर	-11.1527
▁बंग	-11.1528
▁जयपुर	-11.1529
इल	-11.1535
▁यश	-11.1538
ञ्ज	-11.1542
▁व्रत	-11.1546
बेट	-11.1548
▁आह	-11.155
▁इन्द्र	-11.1553
▁तान	-11.1553
▁सर्प	-11.1556
▁प्रचलन	-11.1559
▁इटली	-11.1559
▁वैधानिक	-11.156
▁अनुरक्षण	-11.156
▁समाचारपत्र	-11.1562
▁डालता	-11.1564
▁उत	-11.1566
▁कटाई	-11.1566
▁स्वर्गीय	-11.1568
▁किंग	-11.1569
▁आवेग	-11.1569
गंज	-11.157
▁चं	-11.1576
्मा	-11.1577
▁बं	-11.1578
फू	-11.158
▁झु	-11.158
▁सत्	-11.1588
ंन	-11.1589
▁अरुणाचल	-11.1593
▁फोल्डर	-11.1593
▁मन्दिर	-11.1593
▁भाइयों	-11.1594
▁परवाह	-11.1597
▁त्रिपुरा	-11.1598
▁अधिकथित	-11.1601
▁मठ	-11.1602
वर्ष	-11.1607
▁कार्यशाला	-11.1611
दम	-11.1612
▁रिस	-11.1615
▁कमल	-11.1616
क्व	-11.1618
▁करनेवाले	-11.1619
▁प्रोफाइल	-11.1627
▁ख्याति	-11.1627
▁माणिक	-11.1627
▁ज़मीन	-11.1627
▁दिशानिर्देश	-11.1628
▁दर्शित	-11.1628
▁बैठकर	-11.1631
्हे	-11.1631
▁पासपोर्ट	-11.1634
▁ढल	-11.1636
▁पक्का	-11.1638
▁वाम	-11.1641
▁दुर्ग	-11.1643
ष्ण	-11.1651
▁खुदरा	-11.1655
ाचार	-11.1655
▁मतदाता	-11.1656
विष	-11.1658
va	-11.1659
▁अनुयायियों	-11.1661
▁आत्मविश्वास	-11.1661
▁क्रमादेश	-11.1662
▁धोखा	-11.1662
▁जिक्र	-11.1663
▁अंकुर	-11.1664
▁लक्षित	-11.1666
योजित	-11.167
▁संस्थित	-11.167
▁ज़रुरत	-11.1672
▁निस्	-11.1673
▁जोरदार	-11.1673
▁उम	-11.1675
▁हौ	-11.1677
▁स्टोर	-11.1681
▁प्रत्ये	-11.1682
▁पोल	-11.1682
▁क्रियाशील	-11.1688
to	-11.1691
देह	-11.1692
▁क्योकि	-11.1695
▁टैंक	-11.1698
▁श्रीकृष्ण	-11.1699
भाष	-11.1705
षऋ	-11.1709
वाड़	-11.1711
दृष्टि	-11.1713
कम	-11.1716
▁छि	-11.1716
▁आलेख	-11.1719
ीम	-11.1722
▁कलात्मक	-11.1722
▁भला	-11.1726
▁भृंग	-11.173
▁हालाँकि	-11.173
▁राजपूत	-11.173
▁छेड़	-11.1732
▁संपरिवर्तन	-11.1732
▁तीर	-11.1733
▁दिशाओं	-11.1734
▁विफलता	-11.1735
▁खुशहाली	-11.1739
▁जंगलों	-11.1741
▁जेन	-11.1744
▁चट	-11.1745
▁रूख	-11.1748
▁तरफ़	-11.1752
▁तिल	-11.1756
वो	-11.176
ect	-11.1763
▁अभयारण्य	-11.1764
▁व्यंग्य	-11.1764
▁शताब्दियों	-11.1764
▁पंचांग	-11.1767
▁पत्तियों	-11.1767
▁सौदे	-11.1767
ंदन	-11.177
▁संदर्भित	-11.1772
पुट	-11.178
जीवी	-11.1787
▁ट्रै	-11.1787
▁सिटी	-11.1787
▁रूसी	-11.1792
▁छुटकारा	-11.1799
▁धरोहर	-11.1799
▁नाजुक	-11.1799
▁चिन्तन	-11.1799
▁यौगिक	-11.1799
▁पल्लव	-11.1799
▁समायोजित	-11.1799
▁चौथे	-11.1799
▁कालावधि	-11.18
टीन	-11.1801
▁कपट	-11.1805
os	-11.1807
▁जिनको	-11.1812
▁्याय	-11.1814
▁क्रूरता	-11.1816
▁अँ	-11.1817
▁बरस	-11.1819
▁डाइ	-11.1822
▁प्रतिबंधित	-11.1822
▁भारती	-11.1823
▁कलाकारों	-11.1824
▁प्रकटन	-11.1828
▁नाराज	-11.1829
ुद	-11.1829
▁लगाते	-11.1832
▁ठहर	-11.1833
▁जुर्माने	-11.1833
▁साफ्टवेयर	-11.1833
▁अंचल	-11.1834
▁लाये	-11.1836
▁सबक	-11.1839
लिप	-11.1839
▁कब्जे	-11.184
▁निम्नतर	-11.1841
▁निर्देशक	-11.1846
▁जागरूक	-11.1848
▁गोपनीय	-11.185
गृहीत	-11.185
िब	-11.1851
▁गुप्ता	-11.1852
▁ऋणों	-11.1853
बर्ट	-11.1857
दीप	-11.186
विस	-11.1867
▁स्वरुप	-11.1868
▁श्रद्धांजलि	-11.1868
कोड	-11.1874
▁पंज	-11.1874
्यान	-11.1875
▁परेश	-11.1877
▁कैद	-11.1877
ce	-11.1878
▁वृक्षों	-11.1879
िज्म	-11.1884
▁शै	-11.1885
्यो	-11.1886
▁पूछे	-11.189
वर्स	-11.189
▁नम्बर	-11.1891
▁खाई	-11.1894
कूल	-11.1895
▁दर्जे	-11.1897
▁ar	-11.19
▁बिहारी	-11.19
▁बांग्ला	-11.1903
▁पंचायतों	-11.1903
▁दरें	-11.1903
बुद्धि	-11.1908
▁फ़ोन	-11.1909
▁हथ	-11.1909
▁संक्रिया	-11.1909
आईटी	-11.191
▁शर्म	-11.191
ha	-11.1914
भूषण	-11.1914
▁अण्ड	-11.1916
ौं	-11.1917
मति	-11.1918
नामा	-11.1923
धारण	-11.1925
▁इस्लामिक	-11.1936
▁ऋस	-11.1938
म्स	-11.1942
▁अधिनिर्णय	-11.1943
▁दुखद	-11.1945
और	-11.1947
ow	-11.1953
सन्धि	-11.1953
▁व्यवहार्य	-11.1964
▁बढ़ना	-11.1968
ैंट	-11.1969
▁तप	-11.1971
▁अहसास	-11.1974
▁डेविड	-11.1974
▁इकाइयां	-11.1974
▁तकनीकों	-11.1978
▁लाभप्रद	-11.198
▁बनावट	-11.1981
▁महानगर	-11.1982
िष्ठ	-11.1982
▁चतुर्थ	-11.1987
▁सव	-11.1987
ोचित	-11.1996
▁क्रेता	-11.2001
▁बढ़िया	-11.2002
▁छू	-11.2005
▁यो	-11.2006
▁अरविंद	-11.2009
▁बैटरी	-11.201
▁प्रेमचंद	-11.2011
▁चौथाई	-11.2013
▁साहा	-11.2014
▁मूर्त	-11.2015
्ख	-11.2016
स्वामी	-11.2017
▁रोटी	-11.202
ग्रन्थि	-11.202
शूल	-11.2024
▁अन्	-11.2024
गान	-11.2029
▁परिपक्वता	-11.203
दृ	-11.2032
ादेश	-11.2037
वारा	-11.204
उस	-11.2041
▁शीघ्रता	-11.2042
▁एप्लिकेशन	-11.2044
▁स्मार्ट	-11.2044
▁प्रॉक्सी	-11.2044
▁चालीस	-11.2046
▁चुनने	-11.2046
▁अल्लाह	-11.2049
▁पग	-11.2049
▁हार्ड	-11.2051
ंतर	-11.2051
ल्य	-11.2052
बोर्ड	-11.2056
▁खेलों	-11.2058
ायिक	-11.2059
त्या	-11.2061
▁आएगा	-11.2065
ार्म	-11.2067
▁मामल	-11.2071
ve	-11.2074
ब्ल	-11.2075
भाषा	-11.2078
▁सादा	-11.2078
▁तूफान	-11.208
▁गाथा	-11.2083
▁बस्ती	-11.2084
▁देयता	-11.2085
▁भावनात्मक	-11.2085
▁सशक्तीकरण	-11.2086
ष्य	-11.2086
▁विनि	-11.2087
▁वक्ष	-11.2088
▁ताक	-11.2093
▁मारा	-11.2093
▁प्रतिरूप	-11.2094
ंड़	-11.2095
▁गोला	-11.2096
केन्द्र	-11.2101
▁भो	-11.2104
वालों	-11.2106
▁डिज़ाइन	-11.2116
▁मेडिकल	-11.2116
▁प्रादेशिक	-11.2116
▁बूढ़े	-11.2116
▁पैटर्न	-11.2116
▁लीजिए	-11.2116
▁प्रविष्ट	-11.2116
▁स्तंभों	-11.2117
▁महाराज	-11.2123
च्युत	-11.2126
▁आदिवासी	-11.2127
▁प्रण	-11.2132
स्का	-11.2133
▁पहुँचने	-11.2138
▁फुल	-11.2142
ng	-11.2149
ीश	-11.215
श्न	-11.215
िज़	-11.215
▁कोने	-11.2151
▁उच्छेदन	-11.2152
▁धूम्रपान	-11.2152
▁वर्षगांठ	-11.2152
▁कराधान	-11.2153
▁अपहरण	-11.2154
▁दादी	-11.2156
▁तलवार	-11.2157
▁झुकाव	-11.2157
▁पीले	-11.2158
▁In	-11.216
▁कथाओं	-11.2163
▁शुक्र	-11.2166
ाइज़	-11.2168
▁घुटन	-11.2168
▁मेला	-11.2171
▁पहने	-11.2176
त्रिक	-11.2176
▁चिड़िया	-11.2181
▁राष्ट्रीयता	-11.2184
▁नामंजूर	-11.2187
▁राजनयिक	-11.2187
▁रोबोट	-11.2188
▁जरिये	-11.2188
▁चेष्टा	-11.2188
▁सीखना	-11.2188
▁डालें	-11.2189
▁वेदों	-11.2189
यस	-11.2192
▁कुष्ठ	-11.2195
▁करवाया	-11.2196
▁लोहे	-11.2196
▁पत्ते	-11.2196
मीर	-11.2199
▁ठंडा	-11.2199
▁बताये	-11.2202
▁हमास	-11.2209
▁नासा	-11.2216
ङ्	-11.2216
▁रूट	-11.222
▁अनुयायी	-11.2224
▁संक्रामक	-11.2224
▁सहिष्णुता	-11.2224
▁पसन्द	-11.2224
▁खिंच	-11.2224
▁दाँत	-11.2224
क्रमण	-11.2225
▁ऊँचाई	-11.2228
▁पाएंगे	-11.2228
▁बढावा	-11.2228
▁परिशि	-11.2228
▁गू	-11.2231
▁पडता	-11.2235
▁कट्टरपंथी	-11.2235
र्पण	-11.2241
▁सुलझा	-11.2251
▁कार्यकर्ता	-11.2251
▁स्टै	-11.2253
▁डै	-11.2254
▁जोड़ना	-11.2256
्यायालय	-11.2257
▁गायक	-11.2257
▁तिमाही	-11.226
▁भयभीत	-11.226
▁मेगावाट	-11.226
▁अत्यावश्यक	-11.226
▁सिद्धदोष	-11.226
▁पैदल	-11.2261
▁चाचा	-11.2261
▁ज़ोर	-11.2262
▁वाह	-11.2264
▁ऑफिस	-11.2269
बरी	-11.2278
ियस	-11.2286
CT	-11.2291
▁बाइ	-11.2292
इए	-11.2296
▁सब्जियों	-11.2296
▁समकक्ष	-11.2296
▁गिनती	-11.2296
टिल	-11.2298
▁ड्रग्स	-11.2298
▁अवलंब	-11.2299
▁एंटी	-11.2304
मीन	-11.2306
राष्ट्र	-11.2311
आरआई	-11.2312
▁विप	-11.2317
▁पतली	-11.2319
टें	-11.2321
ti	-11.2322
राना	-11.2324
▁साधु	-11.2324
खण्ड	-11.2328
▁अत्य	-11.233
▁कविताएं	-11.2333
▁प्रतिबिम्ब	-11.2333
▁लेनदेन	-11.2333
▁कार्यपालक	-11.2333
संघ	-11.2333
▁पहचाना	-11.2336
▁आब	-11.2337
co	-11.2341
▁अखबारों	-11.2343
▁दूत	-11.2344
स्टे	-11.2344
▁आँखें	-11.2345
▁सेकंड	-11.2345
▁राजी	-11.2351
▁कटु	-11.2353
दक	-11.2354
▁अभिकर्ता	-11.2356
ार्थी	-11.236
▁प्रभारित	-11.2361
डन	-11.2361
लाप	-11.2362
न्या	-11.2362
▁कराते	-11.2364
▁प्रोत्सा	-11.2369
▁परिष्कृत	-11.2369
▁विलक्षण	-11.237
गांव	-11.2372
▁अधो	-11.2374
▁वर्गमूल	-11.2374
▁PRO	-11.2375
▁फ़ाइलें	-11.2376
फ्र	-11.2391
▁चह	-11.2394
ob	-11.2395
▁फीड	-11.2396
▁उच	-11.2397
▁तं	-11.24
▁घिरा	-11.2401
▁त्योहार	-11.2406
तू	-11.2406
▁तामील	-11.2406
▁नवीकरण	-11.241
▁नाभिक	-11.2416
ta	-11.2416
▁मिट	-11.2424
ूँगा	-11.2425
डम	-11.2427
▁पेरिस	-11.2428
▁पहुँचे	-11.2429
कस	-11.2438
▁थाः	-11.2438
ाइम	-11.2439
▁पच	-11.244
▁सेवानिवृत्ति	-11.2442
▁खरगोश	-11.2443
▁पाश्चात्य	-11.2443
▁संक्रमित	-11.2443
▁तथाकथित	-11.2443
▁निर्वचन	-11.2444
स्क्रिप्ट	-11.2445
▁अवज्ञा	-11.2445
▁न्यायोचित	-11.2445
▁तत्पश्चात्	-11.2449
▁रंगीन	-11.2455
▁नीलामी	-11.2457
ag	-11.2461
▁खर्चा	-11.2465
पतियों	-11.2468
▁पेन	-11.2469
;	-11.247
▁पौध	-11.2475
▁प्रबन्धन	-11.2477
▁भूमिगत	-11.248
▁कहानियां	-11.2483
▁छोड़े	-11.2484
▁नीला	-11.2484
▁संकेतों	-11.2487
▁मुखिया	-11.2491
▁बनारस	-11.2493
▁किताबें	-11.2495
ie	-11.2502
▁एज	-11.2509
▁टाइम	-11.2514
▁अकादमिक	-11.2517
▁वायदा	-11.2519
▁नोकिया	-11.2519
▁स्वराज	-11.2519
▁किस्मों	-11.252
▁बदलती	-11.2522
▁सडक	-11.2522
▁साधक	-11.2525
▁वर्गाकार	-11.2527
ोगे	-11.2527
▁शौक	-11.2527
दन्त	-11.2531
स्ट्री	-11.2531
▁ग्रेट	-11.2533
▁पहाड़ियों	-11.2534
▁जार्ज	-11.254
▁अरुण	-11.2541
▁बेर	-11.2544
▁संकेतक	-11.2545
ment	-11.2546
▁नियति	-11.2547
पुष्प	-11.2547
▁पका	-11.2549
▁मेरु	-11.2551
▁बिर	-11.2551
जान	-11.2552
▁सब्सिडी	-11.2555
▁कच्चा	-11.2555
▁ब्रो	-11.2555
▁गौतम	-11.2555
▁संतोषजनक	-11.2555
▁फर्श	-11.2556
▁दं	-11.2558
ुओं	-11.256
▁निरस्त	-11.2561
▁पढ़े	-11.2562
▁सुलझाने	-11.2564
▁इंजीनियर	-11.2564
▁गाल	-11.2573
सभा	-11.2575
▁दुहरा	-11.2578
▁मुस	-11.2587
▁जटिलता	-11.259
▁बारिश	-11.2591
▁Chrome	-11.2592
▁इजाजत	-11.2592
▁उपराष्ट्रपति	-11.2592
▁मैथुन	-11.2592
▁एवोल्यूशन	-11.2592
▁स्थगन	-11.2592
▁पराजित	-11.2592
ist	-11.2593
▁वाइ	-11.2594
▁छात्रवृत्ति	-11.2598
खार	-11.2604
▁यूनानी	-11.2608
▁प्रताप	-11.2609
बुक	-11.2609
▁पैदावार	-11.2609
▁सपना	-11.2611
▁अपराधियों	-11.2614
▁इंद्र	-11.2615
बै	-11.2616
िओ	-11.2621
पादित	-11.2628
▁योद्धा	-11.263
▁ह्रास	-11.263
▁अमान्य	-11.263
▁मानसून	-11.263
▁महासभा	-11.2631
▁इसमे	-11.2632
▁फीट	-11.2638
▁उदास	-11.264
फील्ड	-11.2645
▁वाच	-11.2651
▁विरल	-11.2652
दाह	-11.2655
फो	-11.2655
▁तुम्हे	-11.2659
▁टु	-11.2659
▁छु	-11.2661
सूर	-11.2663
ण्य	-11.2665
▁कैबिनेट	-11.2667
▁निस्संदेह	-11.2667
▁ग्रीवा	-11.2667
▁तालमेल	-11.2668
▁सम्प	-11.267
▁कॉपी	-11.2671
योंकि	-11.2671
वुड	-11.2672
▁हालात	-11.2675
▁उठी	-11.2675
▁गुहा	-11.2676
▁ग्रे	-11.2677
▁गली	-11.2679
▁कोशिकाएं	-11.2682
तव	-11.2686
▁NAME	-11.2686
मण्डल	-11.2688
▁स्कैन	-11.2689
▁नल	-11.2694
ॉं	-11.2699
▁खे	-11.27
ेज़	-11.2701
▁पराग	-11.2701
▁सौहार्द	-11.2702
▁चौथा	-11.2703
ID	-11.2704
युद्ध	-11.2705
▁हिम्मत	-11.2705
▁पसंदीदा	-11.2705
▁पुण्य	-11.2706
▁एकाधिकार	-11.2707
▁अतिमानस	-11.2708
▁अनुरुप	-11.2709
▁ट्रैकिंग	-11.271
▁दाब	-11.2712
▁विध	-11.2712
वसाय	-11.2714
र्जी	-11.2716
▁जातियां	-11.2716
▁सिम	-11.2718
um	-11.2719
▁सृजनात्मक	-11.2719
ोरा	-11.2732
▁अफ	-11.2734
▁मातृ	-11.2742
▁मंत्रिपरिषद	-11.2743
▁उपगत	-11.2744
▁पात्रता	-11.2744
भोग	-11.2745
▁उद्गम	-11.2745
▁बाँट	-11.2746
▁टकराव	-11.2748
▁इन्कार	-11.2749
▁बैठने	-11.275
▁उन्मुख	-11.2751
▁कटि	-11.2753
▁अक्षमता	-11.2756
▁00	-11.2756
▁मानदंडों	-11.2756
▁बेक	-11.2762
ण्ट	-11.2763
ज़न	-11.277
▁शाक	-11.2772
▁कैप	-11.2772
दराज	-11.2774
सिद्ध	-11.2776
इश	-11.2777
▁अधिमान	-11.2778
▁ग्रेड	-11.278
दृष्ट	-11.2781
▁यहूदियों	-11.2781
▁क्षीण	-11.2782
▁प्ले	-11.2782
नारायण	-11.2783
▁विराट्	-11.2786
▁प्रक्षेपण	-11.2786
कृ	-11.2786
▁हें	-11.2788
ूद	-11.2791
▁दुकानों	-11.2795
▁सांसद	-11.2799
सागर	-11.28
▁चीज़ें	-11.2802
▁टॉम	-11.2805
▁अंकों	-11.2807
▁अपनाए	-11.2808
र्ध	-11.2813
▁पठन	-11.2815
▁कतार	-11.2816
▁निमंत्रण	-11.282
▁अशुद्ध	-11.282
▁विरचित	-11.282
▁श्रव्य	-11.2821
▁ज्वार	-11.2822
▁पहना	-11.2823
▁संभवतया	-11.2824
▁कलाम	-11.2832
▁होस्ट	-11.2834
नोडल	-11.2836
मैट	-11.2838
▁अपरि	-11.2845
चक्र	-11.285
▁कतर	-11.2855
▁हिन्द	-11.2856
▁कम्युनिस्ट	-11.2858
▁त्यौहार	-11.2858
डक	-11.2858
▁ग़लत	-11.2859
▁भूगोल	-11.2859
▁बतला	-11.2859
▁जमाराशि	-11.286
▁उन्	-11.286
▁तुलनात्मक	-11.2864
▁पाश	-11.2867
▁खुर	-11.2872
मंत्री	-11.2873
▁गुणसूत्र	-11.2874
ातीत	-11.2874
वाहक	-11.2876
▁लीटर	-11.2878
▁टॉ	-11.2878
▁शॉ	-11.2882
▁आईडी	-11.2884
ोव	-11.2888
१९	-11.2896
▁खिड़की	-11.2897
▁तीक्ष्ण	-11.2897
▁भाँति	-11.2897
▁ड्राफ्ट	-11.2897
▁ठरोग	-11.2898
▁भ्रष्ट	-11.2899
▁क्रियान्वित	-11.29
बैक	-11.2901
▁सतर्क	-11.2902
▁कुचल	-11.2902
▁चंद्रमा	-11.2903
▁दोहराया	-11.2906
▁राज्यसभा	-11.2907
्सन	-11.2909
▁पंक्तियों	-11.2909
सीन	-11.2912
चन्द	-11.2914
▁पृष्ठों	-11.2917
▁वेस्ट	-11.2918
मेर	-11.2919
भाष्	-11.292
ाधीश	-11.2922
▁गवाह	-11.2923
गणित	-11.2924
बाज़	-11.2925
च्छा	-11.293
▁एट	-11.2933
▁अफ्रीकी	-11.2935
▁प्रोजेक्ट	-11.2936
▁पेशकश	-11.2936
▁माधव	-11.2936
▁लुप्त	-11.2936
▁एन्	-11.2937
टेन	-11.2938
▁यूरोपियन	-11.294
पाक	-11.2941
धु	-11.2942
▁रामलिंग	-11.2942
▁भलाई	-11.2943
▁वकीलों	-11.2945
▁समाधि	-11.2946
फोर्ड	-11.2947
▁छाती	-11.2947
▁पट्टा	-11.2952
▁उदारता	-11.2952
▁जानकार	-11.2954
चंद	-11.2962
ak	-11.2962
्जा	-11.2964
▁पत्थरों	-11.2966
▁निकलना	-11.2969
लिय	-11.2969
▁अठारह	-11.2974
▁चौधरी	-11.2974
▁पूर्वानुमान	-11.2974
▁जनगणना	-11.2974
▁असंतोष	-11.2975
▁नवजात	-11.2976
▁अमूर्त	-11.2976
वर्धित	-11.2976
▁माडल	-11.2976
▁कलम	-11.2979
▁निर्द	-11.2979
▁रिहा	-11.2979
▁नीले	-11.2982
ेदार	-11.2982
▁सुनते	-11.2984
▁राजीव	-11.2988
टु	-11.2991
▁प्रतिज्ञा	-11.2992
ho	-11.2996
▁कटा	-11.2996
द्घ	-11.2999
▁सूरत	-11.3002
ायत	-11.3002
▁निम	-11.3003
▁जैक	-11.3009
िकाओं	-11.301
▁इंटरनेशनल	-11.3013
▁हिंसक	-11.3013
▁हनुमान	-11.3014
▁सेक्स	-11.3016
▁शब्दकोश	-11.3017
▁साहसिक	-11.3017
▁विश्वयुद्ध	-11.3018
्नी	-11.3018
▁संरचनात्मक	-11.3019
▁सुविधाजनक	-11.3019
▁आभास	-11.302
▁मसल	-11.3025
धारकों	-11.3025
▁दुखी	-11.3025
▁अन्ध	-11.3025
▁वास्त	-11.3025
▁बढे	-11.3027
ia	-11.3027
ब्रि	-11.3029
▁गेट	-11.3032
▁जोशी	-11.3033
▁दिखने	-11.3033
▁ड्रा	-11.3033
स्राव	-11.3034
oc	-11.3035
▁कैश	-11.3035
▁निपट	-11.3038
ंश	-11.3043
▁छोड़ना	-11.3043
▁रोमन	-11.3046
आईएस	-11.3046
▁शिशुओं	-11.3049
▁सड़	-11.305
पक्ष	-11.3052
▁डिवाइस	-11.3053
▁मुसीबत	-11.3053
▁डेल्टा	-11.3053
▁नक़ल	-11.3053
▁जिहाद	-11.3053
▁मलेरिया	-11.3053
▁अक्षरों	-11.3055
▁आप्रवास	-11.3056
▁इरादा	-11.306
▁प्रतिस्थापन	-11.306
▁वश	-11.3064
▁द्व	-11.3065
▁जातीय	-11.3069
▁परिवाद	-11.307
▁तेज़	-11.3078
▁कफ	-11.3079
▁निकासी	-11.308
एपी	-11.3083
नाशी	-11.3086
▁अनुष्ठान	-11.3092
▁सम्प्रदाय	-11.3092
▁डिजीटल	-11.3092
▁संकोच	-11.3092
▁परीक्षक	-11.3092
खड़	-11.3092
ूरी	-11.3092
▁जह	-11.3093
▁मनाने	-11.3095
▁समतल	-11.3095
▁हँस	-11.3095
▁औषधीय	-11.3098
हड़	-11.3098
▁सूख	-11.31
▁तिर	-11.3102
ोच	-11.3102
▁चैक	-11.3103
pe	-11.3104
▁भत्ते	-11.3104
▁पंजी	-11.3107
▁एकांत	-11.311
▁दर्शाती	-11.3111
▁कराती	-11.3114
▁पुट	-11.3116
▁पारसी	-11.3121
▁करोड	-11.3125
▁हस्तशिल्प	-11.3132
▁अलमस्त	-11.3132
मनी	-11.3132
▁मिलान	-11.3134
▁थोक	-11.3135
▁नवाब	-11.3135
पार्ट	-11.3135
▁संगणित	-11.3136
▁प्रहार	-11.3136
▁प्रबंधित	-11.3138
▁’’	-11.3138
िशन	-11.314
▁दुष्ट	-11.3141
▁आहरण	-11.3142
▁मज	-11.3142
▁कन्या	-11.3146
▁अप्रति	-11.3147
▁स्वायत्त	-11.3149
▁विकल्पों	-11.3152
▁कार्यकरण	-11.3152
▁छप	-11.3153
आईआर	-11.3155
▁निराश	-11.3156
शाही	-11.3158
डेन	-11.316
▁बाधाओं	-11.3163
▁बलि	-11.3164
▁जेब	-11.3164
▁भिन्नता	-11.3164
▁पत्रिकाओं	-11.3165
ंटा	-11.3165
▁aa	-11.317
्था	-11.317
▁अमेरिकन	-11.3171
▁प्रायोगिक	-11.3171
▁शिष्टमंडल	-11.3171
▁राक्षस	-11.3171
▁प्रायद्वीप	-11.3171
▁LIN	-11.3172
▁सहकारिता	-11.3172
▁वायुमंडल	-11.3173
ऊं	-11.3173
ुअल	-11.3176
▁आरेख	-11.3177
▁करेंः	-11.3177
▁खट	-11.3186
RL	-11.3188
▁शल्यक्रिया	-11.319
▁कमजोरी	-11.3191
▁प्रतियां	-11.32
▁भरती	-11.3202
▁कार्यभार	-11.3204
▁कमिश्नर	-11.3211
▁निवेदिता	-11.3211
▁गर्भावस्था	-11.3211
▁सेकेंड	-11.3213
▁आसन	-11.322
▁वामपंथी	-11.3226
▁आसमान	-11.3228
▁प्लग	-11.3228
▁चीज़ों	-11.3229
▁बहती	-11.3232
▁उठाये	-11.3234
▁जीता	-11.3235
वर्धक	-11.3241
▁खोद	-11.3247
▁लटक	-11.3247
▁शिला	-11.3249
▁फिनलैंड	-11.3251
▁शुक्राणु	-11.3251
▁सरोजिनी	-11.3251
▁सम्पादित	-11.3252
अन	-11.3255
▁लडक	-11.3259
▁क्रिस	-11.3261
दौलत	-11.3261
▁रखेगा	-11.3267
▁मध्यस्थता	-11.3269
▁बाई	-11.3269
▁जवाबदेही	-11.3269
च्य	-11.3271
ST	-11.3272
▁चिप	-11.3273
▁छिप	-11.3278
▁चांदी	-11.3278
बीएस	-11.329
▁इंस्टीट्यूट	-11.3291
▁साहिब	-11.3291
▁वल्लभ	-11.3291
▁कचरा	-11.3291
▁विषाणु	-11.3292
▁नानालाल	-11.3292
▁परमात्मा	-11.3292
▁टकरा	-11.3293
स्थित	-11.3294
▁वादा	-11.3298
▁सींग	-11.3302
▁ट्रेन	-11.3303
इट	-11.3309
▁ज्यों	-11.3315
▁दर्शाने	-11.3316
▁k	-11.3316
▁हरिजन	-11.3317
वंत	-11.3317
▁आक	-11.3318
▁गला	-11.3318
mp	-11.3325
▁घंटों	-11.3332
▁अंगीकार	-11.3332
▁राख	-11.3334
▁लॉर्ड	-11.3335
▁तुच्छ	-11.3335
▁पिछला	-11.3336
▁गोप	-11.3337
▁मूर्ख	-11.3338
▁राष्ट्रवाद	-11.3338
ट्रो	-11.3355
▁नमून	-11.3355
▁संस	-11.3356
▁गिल	-11.336
▁रौ	-11.3361
ci	-11.3368
▁नकार	-11.3369
▁शिथिल	-11.3372
▁युसुफ़	-11.3373
▁लॉगिन	-11.3375
शेष	-11.3375
▁रिश्तेदार	-11.3377
रेशन	-11.3381
कुर	-11.3383
वानी	-11.3385
▁अकाल	-11.3386
▁अचल	-11.3389
तत्त्व	-11.339
▁राष्ट्रवादी	-11.3392
▁विधिमान्य	-11.3393
▁समन	-11.3396
▁आयोजना	-11.3396
▁अभ	-11.3397
सीएल	-11.3398
▁दिवा	-11.3399
▁भरण	-11.3401
▁बनवाय	-11.3408
हारी	-11.3408
▁साझे	-11.3411
शासन	-11.3412
▁जवाहर	-11.3413
▁चंडीगढ़	-11.3413
▁साप्ताहिक	-11.3413
▁आरोग्य	-11.3413
▁लसीका	-11.3413
▁उपद्रव	-11.3413
▁यूनिकोड	-11.3413
ुद्दीन	-11.3413
▁वायरस	-11.3414
▁रामकृष्ण	-11.3414
▁पाचन	-11.3417
▁उद्यमिता	-11.3418
खोर	-11.3419
▁प्रस्थान	-11.342
▁सभ्य	-11.342
सीआर	-11.3425
▁आबद्ध	-11.3425
▁बरसात	-11.3427
▁बैठी	-11.3436
िंक	-11.3437
▁चढ़ाव	-11.3439
ख्त	-11.3439
▁कैसी	-11.344
▁पिताजी	-11.3449
▁बहिष्कार	-11.3454
▁भवभूति	-11.3454
▁सम्पादक	-11.3454
▁चलाई	-11.3454
▁पुरातन	-11.3454
▁दीर्घकालीन	-11.3454
▁मान्यताप्राप्त	-11.3455
▁अमृतसर	-11.3455
▁नरेश	-11.3456
ंसी	-11.3457
पात्र	-11.3457
▁निर्मल	-11.3457
▁टेबल	-11.3458
मूलक	-11.3458
▁क्रीड़ा	-11.3462
चर्म	-11.3467
शियल	-11.3472
▁एड्स	-11.3472
▁प्रस्तावना	-11.3476
रुण	-11.3479
▁बैर	-11.348
▁साम्य	-11.3481
वर्म	-11.3483
▁बैंड	-11.3484
▁प्राणिक	-11.3485
▁लख	-11.3485
▁सचेतन	-11.3488
ियॉँ	-11.3489
od	-11.3489
नयन	-11.3492
▁Re	-11.3494
▁कुटुंब	-11.3495
▁कुर्सी	-11.3495
▁ऊन	-11.3497
▁लपेट	-11.3497
▁टाटा	-11.3498
▁कांच	-11.35
▁कृष्णा	-11.35
▁बेहतरीन	-11.3501
▁मायने	-11.3502
▁सुने	-11.3504
स्थापन	-11.3505
येंगे	-11.3506
ाइयों	-11.3508
▁सौंपे	-11.3509
▁लवण	-11.3512
▁सीमांत	-11.3512
▁जौ	-11.3515
▁कामों	-11.3516
▁खाल	-11.3517
▁समझाने	-11.3519
▁मचा	-11.3521
▁पीला	-11.3521
▁सिद्धि	-11.3521
▁प्रलेख	-11.3523
▁इज	-11.3525
▁तोड़ने	-11.3526
धीन	-11.3527
▁रिश्त	-11.3527
एमपी	-11.3527
▁निकाली	-11.3529
पुरी	-11.353
▁न्यून	-11.353
▁घुल	-11.3534
▁शाला	-11.3534
▁वांछनीय	-11.3536
▁अनुपूरक	-11.3536
▁इजराइल	-11.3536
▁ऊष्मा	-11.3536
▁प्रशंसक	-11.3536
▁विवेकानंद	-11.3536
▁तात्या	-11.3537
▁चौथी	-11.3537
▁केन्द्री	-11.3545
राग	-11.3546
▁चिपका	-11.3554
ोनी	-11.3554
▁विहार	-11.3555
di	-11.3566
▁दैवी	-11.3566
▁अपीलों	-11.357
▁सैर	-11.3573
▁ढूँढ	-11.3574
मोहन	-11.3574
पाट	-11.3575
ant	-11.3576
▁सम्म	-11.3576
▁नर्स	-11.3576
▁सांसारिक	-11.3577
▁गोदाम	-11.3578
पत्ति	-11.3579
▁करेंगी	-11.358
▁परोक्ष	-11.3581
ऐं	-11.3581
न्ग	-11.3581
▁अभिलेखों	-11.3582
नाई	-11.3583
ea	-11.3588
▁खोले	-11.3592
विच	-11.3593
विद्या	-11.3597
▁इतिहासकार	-11.3602
▁अधिवक्ताओं	-11.3602
औ	-11.3606
▁बैच	-11.361
▁निज	-11.3613
▁मोक्ष	-11.3614
▁साय	-11.3615
▁अतिमानसि	-11.3616
▁निरीक्षक	-11.3618
▁यदुनाथ	-11.3618
▁उच्चारण	-11.3619
▁भोपाल	-11.362
▁चैत्य	-11.362
▁पर्ण	-11.362
▁वोट	-11.362
▁ऑपरेट	-11.3623
▁मुकदम	-11.3624
▁शिकायतें	-11.3625
▁उत्तरः	-11.3627
▁अधिकरणों	-11.3627
▁कैदी	-11.3628
▁सता	-11.363
▁प्री	-11.3633
वीर	-11.3633
ड़क	-11.3634
ट्टी	-11.3634
व्यापी	-11.3636
▁झुंड	-11.3638
▁पिन	-11.3639
▁प्रशस्त	-11.3653
▁दीं	-11.3653
टिस	-11.3659
▁विशेषतः	-11.366
▁अवहेलना	-11.366
▁गोविंद	-11.366
▁सन्दर्भ	-11.366
▁विशेन	-11.3661
▁स्टील	-11.3661
▁निजाम	-11.3661
ंबर	-11.3662
▁परवर्ती	-11.3662
▁हिन्दु	-11.3667
▁भीम	-11.3672
▁सर्वत्र	-11.3674
▁आरोपी	-11.3678
▁शैव	-11.3682
टिया	-11.3682
▁सवार	-11.3683
▁तकलीफ	-11.3686
▁फैलाने	-11.3689
रियो	-11.3691
ेष	-11.3692
किल	-11.3695
▁विकृति	-11.3696
नंद	-11.3696
▁बैंककारी	-11.3697
▁छीन	-11.3699
▁यानि	-11.3702
▁पर्वतमाला	-11.3703
▁कारखाने	-11.3703
▁विदा	-11.3703
▁अंडों	-11.3703
▁कॉफी	-11.3703
▁कुत्ते	-11.3704
▁पैकेट	-11.3705
▁लगीं	-11.3706
तियों	-11.3708
्नो	-11.3708
ga	-11.371
▁विधेयकों	-11.3711
खर	-11.3714
▁जमाव	-11.3716
▁शोधन	-11.3717
▁मानद	-11.3719
▁जीवनी	-11.3722
मानी	-11.3723
▁मैदानों	-11.3726
▁विफलः	-11.3727
ंदे	-11.3727
▁आभासी	-11.3732
▁डैक	-11.3733
शिक	-11.3734
▁लगाव	-11.3736
▁पच्चीस	-11.3744
▁पारम्परिक	-11.3744
निकेतन	-11.3744
▁प्राप्य	-11.3745
लोन	-11.375
▁पहुंची	-11.3752
▁नाप	-11.3752
▁विश्वसनीयता	-11.3753
इंग	-11.3756
फिन	-11.3756
▁ताड़	-11.3758
वाही	-11.3759
▁कड़ा	-11.3763
▁रखनी	-11.3778
▁रुग्ण	-11.378
▁ऑस्ट्रेलिया	-11.3782
▁प्रकरण	-11.3782
▁मौलाना	-11.3786
▁आज़ाद	-11.3787
▁निर्वाचक	-11.3787
▁महावीर	-11.3787
▁CO	-11.3788
▁तराश	-11.3789
▁चार्टर	-11.379
टना	-11.3794
▁मणि	-11.3795
धारियों	-11.3798
ास्थि	-11.3798
▁आयातित	-11.3801
ड्स	-11.3802
▁चार्ट	-11.3809
▁म्यू	-11.3812
▁पाकर	-11.3815
▁भोल	-11.3815
मापी	-11.3823
▁लौटे	-11.3824
▁चलचित्र	-11.3827
▁अयोध्या	-11.3829
▁मछलियों	-11.3829
▁संप्रेषण	-11.3829
सीआई	-11.3829
▁प्रतिपादन	-11.383
पेक्ष	-11.3831
▁पौंड	-11.3833
दंड	-11.3834
ंता	-11.3835
▁अयोग्य	-11.3836
▁बोलना	-11.3838
▁बचना	-11.384
▁जाएँगे	-11.3843
पालिका	-11.3846
▁प्रयोगशालाओं	-11.3848
▁प्रौद्योगिकीय	-11.3848
श्वर	-11.3849
▁आर्क	-11.3851
▁रिश्ते	-11.3851
▁कर्मियों	-11.3854
साइड	-11.3861
स्वरूप	-11.3862
▁सम्यक्	-11.3862
▁ब्रे	-11.3863
▁बंट	-11.3866
▁सांख्यिकी	-11.3866
▁बीजों	-11.3866
▁बर्ताव	-11.3871
▁देसाई	-11.3871
▁मिथक	-11.3871
▁बाधित	-11.3872
▁पीठासी	-11.3872
▁राममोहन	-11.3873
▁कैमरा	-11.3874
वेश	-11.3874
▁लड़कों	-11.3875
▁तंतु	-11.3875
▁सावधि	-11.3875
▁रिपोर्टों	-11.3876
तुल	-11.3878
▁कपिल	-11.3895
इक	-11.3895
गम्य	-11.3899
रह	-11.39
▁जोकि	-11.39
▁निकलती	-11.39
▁एकत्व	-11.3907
▁बूंद	-11.3908
tion	-11.3914
▁अनौपचारिक	-11.3914
▁फेफड़ों	-11.3914
▁बेलारूस	-11.3914
▁सैयद	-11.3914
स्वर	-11.3914
▁रेखांकित	-11.3914
▁तर्कसंगत	-11.3914
न्यास	-11.3915
▁आत्मसात	-11.3915
▁घबरा	-11.3915
▁वायुयान	-11.3916
शायर	-11.3916
▁पर्दा	-11.3918
▁अदालतों	-11.3919
▁स्वतन्त्रता	-11.3922
▁विलास	-11.3927
ाहार	-11.3931
▁बहि	-11.3937
▁अथ	-11.3938
▁रिवाज	-11.394
▁बाज	-11.3945
▁टुकड़ा	-11.395
िनि	-11.3952
au	-11.3953
▁राधा	-11.3955
▁दरअसल	-11.3957
▁द्विआधारी	-11.3957
▁शॉर्टकट	-11.3957
▁संकलित	-11.3957
▁कम्पनियों	-11.3957
▁मेघालय	-11.3957
▁जेम्स	-11.3958
टेल	-11.3959
▁उपयोगकर्ताओं	-11.3961
▁शम	-11.3964
▁रचित	-11.3974
▁औषधियों	-11.3975
▁कर्मों	-11.398
ेट्स	-11.3983
▁तारे	-11.3984
▁अभ्य	-11.3998
▁फ़ि	-11.3999
▁क्षैतिज	-11.4
▁रजिस्ट्रार	-11.4
▁अदायगी	-11.4
▁डेयरी	-11.4
▁अविश्वास	-11.4
▁निकलते	-11.4003
▁शीतल	-11.4006
लियन	-11.4007
निर्मित	-11.401
ear	-11.4011
▁बरतन	-11.4015
▁मनु	-11.4019
▁II	-11.4019
▁तलाशी	-11.4021
▁देखती	-11.4022
▁महादेवी	-11.4024
पर्ण	-11.4036
ढे	-11.4039
▁नोक	-11.4039
▁साम्प्रदायिक	-11.4043
▁सर्वोपरि	-11.4043
▁एओआर	-11.4043
▁तेरह	-11.4043
▁मातृभूमि	-11.4044
▁पोतन्ना	-11.4044
▁प्रवृत्तियों	-11.4045
▁घनत्व	-11.4046
पीड	-11.4047
▁जबरदस्त	-11.4048
▁दृ	-11.4051
▁गाइड	-11.4057
क्षक	-11.4058
ॉक्स	-11.4059
रेज	-11.4066
▁साँस	-11.4072
▁पत्तों	-11.4074
शल	-11.4075
▁साध	-11.4075
▁टोकन	-11.4078
ig	-11.408
▁शुद्धता	-11.4083
▁सेतु	-11.4084
▁अद्वैत	-11.4087
▁झारखंड	-11.4087
▁बढ़ोतरी	-11.4087
▁कप्तान	-11.4087
▁अत्याधिक	-11.4087
▁महोदय	-11.4087
▁ब्यौरे	-11.4087
▁विषयवस्तु	-11.4088
▁अध्यापन	-11.4089
▁स्वराज्य	-11.4094
▁बापू	-11.4094
▁इलेक्ट्रॉनिक्स	-11.4097
▁पडे	-11.4099
▁मेन	-11.4101
गू	-11.4102
▁संस्कृतियों	-11.4103
▁वेश्या	-11.4104
▁प्रक्रियाएं	-11.4106
▁रखेंगे	-11.4108
च्	-11.411
▁चुनी	-11.4111
▁अनुकूलन	-11.4111
शान	-11.4115
▁प्रवृति	-11.4117
एसएस	-11.4117
मणि	-11.412
▁यंग	-11.412
▁fe	-11.412
▁अणु	-11.4122
▁भेजना	-11.4123
▁अभिप्राप्त	-11.4123
▁अनुज्ञप्ति	-11.413
▁पाउंड	-11.413
▁वार्मिंग	-11.413
▁फ्रांसीसी	-11.413
गीत	-11.4132
▁त्यागपत्र	-11.4134
▁सक्रियता	-11.4134
पाई	-11.4136
▁अखंडता	-11.414
▁रमण	-11.4144
▁प्रतिबन्ध	-11.4146
ान्	-11.4147
▁असमर्थता	-11.4147
▁गध	-11.4152
▁ट्रि	-11.4153
ढ़ी	-11.4157
ंख	-11.4159
▁अनियमित	-11.416
▁नातेदार	-11.4161
▁सीमाएं	-11.4162
▁कब्र	-11.4162
▁पिंड	-11.4162
चिंत	-11.4163
स्थि	-11.4163
▁पिच	-11.4164
हाल	-11.4164
कृतियां	-11.4165
त्सा	-11.4165
▁तेज़ी	-11.4174
▁अतिरिक़्त	-11.4174
▁प्रतिषेध	-11.4174
▁अपडेट	-11.4174
▁वार्तालाप	-11.4174
रिन	-11.4175
▁वेंकट	-11.4175
▁द्रीय	-11.4175
▁निपटारा	-11.4178
▁समझाया	-11.418
क्रिय	-11.4185
▁मृग	-11.4188
▁लोकप्रियता	-11.4191
▁भुला	-11.4191
▁पूछने	-11.4197
▁नवान्वेषक	-11.42
▁समूच	-11.4204
▁फॉ	-11.421
▁विनिर्दि	-11.4217
वारी	-11.4218
▁जनसाधारण	-11.4218
▁सुल्तान	-11.4218
▁विधायक	-11.4219
▁पत्रकारिता	-11.4221
▁यन्त्र	-11.4221
ल्ली	-11.4222
▁परम्परागत	-11.4224
जनन	-11.4225
▁यकृत	-11.4227
▁EE	-11.4228
वृति	-11.4228
आप	-11.4237
डिट	-11.4237
▁फोरम	-11.4239
▁मुहर	-11.4249
▁पुष्ट	-11.4253
▁निरोध	-11.4261
▁मीठ	-11.4262
▁रुझान	-11.4262
▁सुसज्जित	-11.4262
▁सुस्पष्ट	-11.4262
▁परित्याग	-11.4263
स्को	-11.4264
▁गांठ	-11.4264
▁पूज	-11.4269
▁विलेख	-11.4271
▁बर्मा	-11.4272
▁लड	-11.4272
▁परख	-11.4273
▁वक़्त	-11.4273
▁उपवास	-11.4274
▁ब्रांड	-11.4275
▁ईंट	-11.4277
▁fa	-11.4277
▁अवर	-11.4282
मती	-11.4283
संख्य	-11.4283
बेल	-11.4287
क्चर	-11.4288
ंगर	-11.4288
किन	-11.4294
ज्जा	-11.4298
▁मांगी	-11.4304
▁www	-11.4307
▁अछूत	-11.4307
▁पाषाण	-11.4307
▁फुफ्फुस	-11.4307
▁वृंदावन	-11.4307
▁सिडबी	-11.4307
▁साइकिल	-11.4307
▁दूषित	-11.4307
▁समावेदन	-11.4307
▁ब्लैक	-11.4307
्यूल	-11.4308
▁मल्टी	-11.4309
▁गुड़	-11.4311
▁साँ	-11.4312
एसआई	-11.4313
▁बास	-11.4314
▁जनमत	-11.4315
▁गिरवी	-11.4318
▁सैल	-11.4319
▁ट्रीय	-11.432
▁पेशे	-11.4322
▁वेदना	-11.4328
▁जता	-11.4329
▁रूपान्तर	-11.4329
▁कमाने	-11.433
जिन	-11.4333
क्ष्य	-11.4335
▁अदृश्य	-11.4352
▁औपनिवेशिक	-11.4352
▁प्रोफ़ाइल	-11.4352
▁समतुल्य	-11.4352
▁रोल	-11.4352
▁भित्ति	-11.4353
▁प्रत्यक्षतः	-11.436
भोज	-11.4363
▁डु	-11.4367
NAME	-11.4374
▁यूनिटों	-11.4387
भुज	-11.4387
▁वाहिका	-11.439
पीओ	-11.4394
▁खेद	-11.4395
▁क्रिस्टल	-11.4396
▁चाँद	-11.4397
▁अंडा	-11.4399
निक्स	-11.44
▁संभोग	-11.4401
▁क्रू	-11.4403
▁फिट	-11.4403
▁भावुक	-11.4404
▁नीच	-11.4404
▁पवित्रता	-11.4407
▁लौ	-11.4411
ैत	-11.4413
▁अड्डा	-11.4417
द्रा	-11.4418
▁बचाया	-11.4419
▁समानांतर	-11.4422
▁आर्ट	-11.4423
▁प्रभारी	-11.4424
▁गार्ड	-11.4425
वहन	-11.4426
र्फ	-11.4428
▁क्रे	-11.4428
▁पारिस्थितिकी	-11.4434
िष्णु	-11.4436
▁रियासतों	-11.4438
▁आवधिक	-11.4442
▁पिघल	-11.4442
०में	-11.4443
ुट	-11.4443
▁क्षतिग्रस्त	-11.4444
▁झुका	-11.4445
▁उपस्कर	-11.4445
▁घने	-11.4445
▁राष्ट्रमंडल	-11.4446
▁सारवान	-11.4447
▁छपाई	-11.4448
नार	-11.4453
▁कवक	-11.4453
▁दिलाया	-11.4455
aI	-11.4458
▁पत्रक	-11.446
▁बहाल	-11.4461
ly	-11.4465
▁वार्षिकी	-11.4468
▁मांगों	-11.447
▁भाषणों	-11.4473
▁विधिवत	-11.4477
ss	-11.4485
▁परिचर्चा	-11.4487
▁सॉफ़्टवेयर	-11.4487
▁कच्ची	-11.4487
▁कदाचार	-11.4487
▁सामरिक	-11.4488
वरण	-11.4493
▁अघ	-11.4494
▁सूचनाएं	-11.4496
▁बाय	-11.45
▁मदर	-11.4504
▁कार्यक्षेत्र	-11.4505
त्ते	-11.4507
सीपी	-11.451
कर्मी	-11.4512
▁तुलन	-11.4513
▁औरत	-11.4522
▁अनुपस्थित	-11.4525
ेबल	-11.4526
▁अड़	-11.453
▁संकुचन	-11.4532
▁कोल्हटकर	-11.4532
▁मर्यादा	-11.4532
▁रिश्वत	-11.4532
▁वैवाहिक	-11.4532
▁सर्वांगीण	-11.4532
▁नर्मदाशंकर	-11.4532
▁रस्सी	-11.4532
▁अभिकथन	-11.4534
▁धमनी	-11.4534
▁प्रस्ता	-11.4536
▁एंट	-11.4537
▁कुंजीपटल	-11.4538
▁नागपुर	-11.4539
▁निधियां	-11.4545
▁चाहिएं	-11.4545
ंदी	-11.4546
▁सुल	-11.4548
▁चौड़ा	-11.4552
सिस्ट	-11.4554
स्पेस	-11.4555
▁लॉक	-11.4557
▁हिन्दुस्तानी	-11.4558
प्रेरण	-11.4562
वाना	-11.4564
▁पढ़ते	-11.4564
▁तत्पर	-11.4565
▁खेला	-11.4568
शाल	-11.4568
गढ	-11.457
वात	-11.457
पीएम	-11.457
भंग	-11.4571
▁संभाव्य	-11.4575
▁लाला	-11.4576
▁मर्द	-11.4577
प्रधान	-11.4577
▁गुंजाइश	-11.4578
▁फ़ारसी	-11.4578
▁मुंशी	-11.4578
▁वसीयत	-11.4578
▁फिल्टर	-11.4578
▁जीते	-11.4578
▁मुद्रास्फीति	-11.4579
▁सपनों	-11.4579
▁पड़ोस	-11.4583
▁दूंगा	-11.4584
पुरम	-11.4585
▁वीरता	-11.4585
▁कुलपति	-11.4592
▁बसा	-11.4593
▁मदन	-11.4594
रार	-11.4595
▁उद्भव	-11.4596
ल्म	-11.4598
संधान	-11.4602
व्या	-11.4606
ca	-11.4608
▁मिस	-11.4616
▁तत्	-11.4617
▁सप	-11.4619
इये	-11.4621
वाने	-11.4622
▁अवरुद्ध	-11.4625
▁वीणा	-11.4628
▁सन्देश	-11.463
नाशक	-11.4631
▁कठोरता	-11.4632
▁समयावधि	-11.4634
रंभ	-11.4645
लाय	-11.4645
▁लाकर	-11.4648
▁आलू	-11.4654
▁गिरने	-11.4656
▁करवाना	-11.4658
पुंज	-11.4666
व्यक्ति	-11.4666
▁प्रौद्योगिक	-11.4667
▁अनुज्ञेय	-11.467
▁नाइट्रोजन	-11.467
▁रोज़गार	-11.467
▁बदलता	-11.467
▁ठेकेदार	-11.4671
▁स्वंय	-11.4671
▁गुज़र	-11.4671
▁इंद्रिय	-11.4672
जक	-11.4672
▁कहानियाँ	-11.4672
▁लिखकर	-11.4673
ऊँ	-11.4673
▁नियमावली	-11.4675
▁निश्	-11.4676
▁पीना	-11.4679
एससी	-11.4679
▁टर्	-11.4683
▁सलाम	-11.4684
▁इलेक्ट्रानिक	-11.4695
मोर	-11.4697
▁वेल्स	-11.4698
चिकित्सा	-11.4706
▁तत्त्वों	-11.4707
▁कोश	-11.4708
▁पड़ना	-11.4711
▁आवंटन	-11.4716
▁उद्घोषणा	-11.4716
▁निपुण	-11.4716
▁हुकूमत	-11.4716
▁पूंछ	-11.4716
▁श्रवण	-11.4716
▁कचरे	-11.4716
▁रिसर्च	-11.4716
▁कपड़ों	-11.4717
▁ड्यूटी	-11.4717
गुआ	-11.4719
▁कुट	-11.4722
▁स्कूली	-11.4723
ड़ो	-11.4727
▁बिखर	-11.4733
▁चलेगा	-11.4734
▁एसिड	-11.4735
▁बिक	-11.4737
▁संभालने	-11.4737
EE	-11.4738
▁जड़ें	-11.4746
▁लेखे	-11.4747
▁एम्	-11.4749
दय	-11.4753
विज	-11.4754
▁बराबरी	-11.4757
▁सवारी	-11.4761
▁विरोधाभास	-11.4763
▁षड्यंत्र	-11.4763
▁आधारशिला	-11.4763
▁संरक्षा	-11.4763
▁पूर्वाग्रह	-11.4763
▁फ्रेंच	-11.4763
▁थोडा	-11.4763
▁अविभक्त	-11.4763
▁भिक्षु	-11.4763
▁स्थापन	-11.4766
▁वाकई	-11.4767
▁अभिकल्प	-11.4768
▁कमरा	-11.477
पुत्र	-11.477
▁संघटक	-11.4771
▁अंतररा	-11.4772
य्या	-11.4773
ुं	-11.4774
▁जमीनी	-11.4778
▁अन्यत्र	-11.4779
▁टेली	-11.478
▁सुकर	-11.4783
▁उठती	-11.4785
▁चढ	-11.4786
्ध	-11.4787
▁गोपनीयता	-11.4791
▁शत्रुओं	-11.4791
खाने	-11.4794
वह	-11.4797
and	-11.4799
▁परिसंपत्ति	-11.4801
स्ति	-11.4802
नॉ	-11.4804
थ्य	-11.4804
▁कुंज	-11.4807
▁सोलह	-11.4809
▁अभियांत्रिकी	-11.4809
▁अमिताभ	-11.4809
▁मार्जिन	-11.4809
▁बरामद	-11.481
▁विद्यासागर	-11.481
▁लंका	-11.481
▁पनप	-11.4811
▁आत	-11.4811
▁दर्पण	-11.4812
खान	-11.4813
▁घटनाक्रम	-11.4813
▁निबन्ध	-11.4814
ुए	-11.4814
▁निद्रा	-11.4814
टोन	-11.4818
▁आवेदनपत्र	-11.482
▁उद्ध	-11.4824
ph	-11.4826
नायक	-11.4827
सीए	-11.4837
▁शिष्यों	-11.4837
▁घिस	-11.4839
▁वंशज	-11.4841
▁खंडन	-11.4841
ईसी	-11.4844
▁दर्शाते	-11.4845
डीसी	-11.4852
मार्क	-11.4852
▁परिणत	-11.4852
▁ऊर्ध्व	-11.4856
ाधिकारी	-11.4856
▁नदियां	-11.4856
▁विवेकाधिकार	-11.4857
▁जुडे	-11.4858
▁स्वयंसेवक	-11.4858
▁फायर	-11.4859
▁थलग	-11.4859
▁दोहरी	-11.4861
िटर	-11.4866
▁प्रांतीय	-11.4871
▁सेनापति	-11.4875
▁पाठ्यक्रमों	-11.4878
▁दीन	-11.4879
▁कीटनाशक	-11.4888
▁दुर्बल	-11.489
▁मार्केट	-11.4897
ांतरण	-11.4899
▁गुम	-11.4901
▁अभूतपूर्व	-11.4903
▁मज़दूर	-11.4903
▁यूनिवर्सिटी	-11.4903
▁नियामक	-11.4903
▁जर्नल	-11.4904
▁पार्टियों	-11.4904
▁विवाहित	-11.4904
▁जॉ	-11.4904
▁मेहता	-11.4905
▁vii	-11.4905
▁सामान्यत	-11.4906
▁महिमा	-11.4907
▁कामयाब	-11.4907
▁आकृष्ट	-11.4909
▁लोकल	-11.4912
▁पुराणों	-11.4914
▁वाक	-11.4916
AP	-11.4918
पटल	-11.4919
▁उदासीनता	-11.492
ap	-11.4921
▁रहो	-11.4923
▁उर्	-11.4929
▁पक्क	-11.493
▁मोती	-11.493
जातीय	-11.4931
▁स्थाय	-11.4932
ाइटिस	-11.4932
टार	-11.4934
डेंट	-11.4935
कॉन	-11.4939
▁फलन	-11.494
टीआई	-11.4941
▁प्रि	-11.4943
▁स्वतन्त्र	-11.4943
▁द्रोण	-11.4951
▁प्रवर्तक	-11.4951
▁दुर्भाग्यवश	-11.4951
ae	-11.4951
▁राजनेता	-11.4954
▁परमेश्वर	-11.4954
▁मजाक	-11.4954
▁मोक	-11.4961
▁लाते	-11.4966
यार	-11.4973
▁हटकर	-11.4974
up	-11.4976
वाहन	-11.4977
स्ती	-11.4981
▁शह	-11.4981
▁द्वितीयक	-11.4983
धिक	-11.4983
▁ललित	-11.4983
▁मिलें	-11.4984
▁उलझन	-11.4985
▁वैधता	-11.4986
▁दिखाए	-11.4986
ld	-11.4986
वेन	-11.4987
▁जनित	-11.4988
लाइट	-11.4993
▁सुधारक	-11.4994
▁पड़ताल	-11.4995
रचना	-11.4998
▁दूतावास	-11.4998
▁देशीराज्य	-11.4999
▁नरेंद्र	-11.5
▁hO	-11.5
क्तियों	-11.5002
▁मस्त	-11.5021
▁बल्लेबाजी	-11.5025
▁मुनि	-11.5029
▁बहने	-11.5029
▁किराये	-11.5032
फोन	-11.5033
▁चित्रकार	-11.5038
▁बाइट	-11.5041
कृष्ण	-11.5042
▁क्रूर	-11.5044
▁मक्खी	-11.5046
▁हड्डियों	-11.5046
▁दरवाजा	-11.5046
▁चुनौतियां	-11.5047
▁लॉन्च	-11.5047
▁टिड्ड	-11.5047
▁उल्टी	-11.5047
कार्ड	-11.5048
लाभ	-11.5049
▁व्यंजन	-11.5049
▁गिर्द	-11.505
पोल	-11.505
▁बहा	-11.5051
्टो	-11.5052
िलक्षित	-11.5054
▁and	-11.5054
▁संबधित	-11.5054
▁पकड	-11.5054
▁समावेशन	-11.5055
▁निकटतम	-11.5055
▁टिका	-11.5057
श्री	-11.5058
▁अस्वीकृत	-11.5058
▁लोकहित	-11.5059
▁यादव	-11.506
▁बहाना	-11.5064
▁सद्भाव	-11.5067
▁मुर्ग	-11.5073
▁विमानों	-11.5079
▁मुर्गी	-11.5083
▁दिखाएं	-11.5085
▁सार्वभौम	-11.5085
▁कटक	-11.5085
▁विभ	-11.5088
▁अस्थिर	-11.5089
सिंग	-11.5093
▁सुझा	-11.5094
▁फर्नीचर	-11.5094
▁क्लाइंट	-11.5094
▁रेड्डी	-11.5094
▁मच्छर	-11.5094
▁उदात्त	-11.5095
▁नोबेल	-11.5095
▁स्वीडन	-11.5095
▁स्त्रियां	-11.5095
▁वर्जित	-11.5095
▁स्तम्भ	-11.5095
▁अमे	-11.5096
▁ब्यौरा	-11.5096
▁कालीन	-11.5097
▁जिंदा	-11.5098
▁ज्ह	-11.5102
▁अड्डे	-11.5106
▁लटका	-11.5106
▁माफ	-11.5107
▁कणों	-11.5108
▁दीख	-11.511
▁अहंकार	-11.5112
ऊंगा	-11.5129
▁कद	-11.513
शय	-11.5131
देवी	-11.5132
लौकिक	-11.5137
▁पढा	-11.5138
▁ह्रदय	-11.5143
▁पुनरावृत्ति	-11.5143
▁मुकदमेबाज	-11.5144
▁युगल	-11.5146
▁गौ	-11.5147
▁हिज	-11.5148
▁सस्ता	-11.5151
▁दीप	-11.5151
▁आरोपित	-11.5151
त्रा	-11.5158
▁रुपया	-11.5159
ंय	-11.516
माण	-11.5163
ेरिया	-11.5165
▁लेनदार	-11.5167
विज्ञानी	-11.5172
▁परामर्शी	-11.5174
ौली	-11.5178
फोड़	-11.5181
▁तिरू	-11.5182
▁आकड	-11.519
▁सल्ल	-11.5191
▁इंडोनेशिया	-11.5191
▁कांफ्रेंस	-11.5191
▁उपेक्षित	-11.5191
▁रुकावट	-11.5191
▁भाजपा	-11.5191
▁संयोजक	-11.5191
▁मौर्य	-11.5192
▁वारिस	-11.5196
लिम	-11.5196
▁अंधकार	-11.5198
▁जुड़ने	-11.5199
▁दलित	-11.5199
▁गाजा	-11.52
TT	-11.5203
धिकार	-11.5207
शेखर	-11.5207
मग्न	-11.5208
▁रहस्यमय	-11.5209
▁प्रयत्नों	-11.521
▁लाइट	-11.521
▁निष्पा	-11.5215
▁बाएं	-11.5219
ृष्ट	-11.522
जब	-11.5223
किसी	-11.5223
▁कमान	-11.5226
▁मौसमी	-11.5227
▁सिद्धान्तों	-11.5233
▁अध्यापकों	-11.5233
▁सर्जन	-11.5234
▁ट्व	-11.5235
▁सुझावों	-11.5236
बुल	-11.5239
▁पदोन्नति	-11.524
▁महासचिव	-11.524
▁दुसरे	-11.524
▁स्तूप	-11.524
▁अध्यधीन	-11.524
▁वृद्धावस्था	-11.524
विया	-11.5241
▁कायदा	-11.5241
सन्निकट	-11.5241
▁राहुल	-11.5242
▁मोचन	-11.5242
▁चेतन	-11.5244
▁धक्का	-11.5253
▁प्रमाणीकरण	-11.5257
▁ऐल	-11.5271
▁बनेगा	-11.5275
▁पाकिस्तानी	-11.5275
पालन	-11.5276
ai	-11.5277
▁फसलें	-11.5278
▁निभाने	-11.5278
▁बाड़	-11.5283
▁ढोल	-11.5286
न्ज	-11.5287
▁दाग	-11.5287
▁नागालैंड	-11.5289
▁घोड़ा	-11.5289
▁पराजय	-11.529
▁उथल	-11.529
▁मिर्च	-11.5291
▁परिसंघ	-11.5291
▁इन्फ	-11.5292
▁प्रजातियां	-11.5294
कर्ष	-11.5294
▁बोतल	-11.5294
▁सिखाया	-11.5297
ान्तरण	-11.53
▁चौड़ी	-11.5311
▁राशियों	-11.5313
▁झगड़	-11.5313
प्ति	-11.5315
▁काबुल	-11.5316
▁नारा	-11.5317
▁भाप	-11.5321
टेक	-11.5321
▁उधारकर्ता	-11.5322
▁चोल	-11.533
▁अस्पतालों	-11.5334
▁ओल	-11.5334
चय	-11.5335
▁क्रोमियम	-11.5338
▁निलंबित	-11.5338
▁प्रत्यर्थियो	-11.5339
▁स्ट्रीम	-11.5339
▁राजनीतिज्ञ	-11.5341
कोशिका	-11.5344
▁वाक्	-11.5344
▁देशभक्ति	-11.5344
▁दस्ता	-11.5344
ंजा	-11.5345
▁हिरण	-11.5345
▁बिठा	-11.5346
स्टिक	-11.5349
▁मरण	-11.5349
▁टोक	-11.5349
▁जूते	-11.5355
वायर	-11.5356
▁संतुष्टि	-11.5358
▁चतुर	-11.536
बरा	-11.536
सीएस	-11.5365
▁देनदार	-11.5366
▁एल्	-11.5367
▁दीक्षा	-11.537
▁निर्धनता	-11.5371
▁पावन	-11.5375
साद	-11.5376
▁भत	-11.5376
▁अलगाव	-11.5377
▁अकेल	-11.5378
ग्ल	-11.5379
▁सूखी	-11.5385
▁मौद्रिक	-11.5388
▁आइटम	-11.5388
▁प्रवीण	-11.5388
▁संबध	-11.5388
▁लगना	-11.5388
▁असा	-11.539
▁अकसर	-11.539
▁ब्रह्मांड	-11.539
▁कोष्ठक	-11.5392
▁सपाट	-11.5393
▁कठिनाइया	-11.5393
▁अष्ट	-11.54
▁शुक्ल	-11.5401
▁गुलाब	-11.5402
▁कुद	-11.5403
▁प्रतिक्रियाओं	-11.5405
▁माय	-11.5406
सरण	-11.541
▁पकड़ा	-11.5412
़ा	-11.5413
▁आरम्भिक	-11.5417
▁दावेदार	-11.5417
▁विचाराधीन	-11.5418
▁उड़न	-11.5419
▁अनुभवी	-11.542
▁तद	-11.542
▁जोश	-11.5421
क्रियात्मक	-11.5424
गुप्त	-11.5424
▁घटाने	-11.5427
▁वहनीय	-11.543
▁बताती	-11.5431
ंचना	-11.5434
▁औरतों	-11.5436
▁इंग्लिश	-11.5438
▁जिज्ञासा	-11.5438
▁माउंट	-11.5438
▁मकसद	-11.5438
▁नक्षत्र	-11.5438
▁निवारक	-11.5438
▁सोशल	-11.5439
▁अधिरोपण	-11.5439
▁ऋणी	-11.544
▁धनुष	-11.5441
▁जलन	-11.5443
▁ko	-11.5445
▁चतुर्	-11.5446
▁खिसका	-11.5448
बंधित	-11.545
▁असहमति	-11.545
▁प्रदर्शक	-11.5451
्टा	-11.5454
▁खडे	-11.5459
ne	-11.5459
संस्कृत	-11.5463
ुक्ति	-11.5463
▁धुन	-11.5464
▁चोटी	-11.5468
▁विभागीय	-11.547
म्बा	-11.547
ल्लाह	-11.5473
▁मीरा	-11.5477
▁क्लास	-11.5481
▁पालक	-11.5485
▁कहलात	-11.5485
▁करूँगा	-11.5486
▁डाटाबेस	-11.5488
▁नौजवान	-11.5488
▁बंगलौर	-11.5488
▁सैद्धांतिक	-11.5488
▁देहात	-11.5488
▁सदृश	-11.5488
▁सजग	-11.5488
▁एटीएम	-11.5488
▁कैरियर	-11.5488
▁अपमानजनक	-11.5489
▁वरदान	-11.5489
▁गुजार	-11.5489
▁कथानक	-11.5489
▁शोभा	-11.5489
▁राजशाही	-11.549
▁तै	-11.549
▁मिटाएँ	-11.5491
आरए	-11.5492
▁घुम	-11.5493
▁थै	-11.5494
▁पड़ोसियों	-11.5495
ट्ठा	-11.5496
▁फंच	-11.5496
▁गोल्ड	-11.5497
▁समामेलन	-11.5497
▁पालि	-11.5499
विदों	-11.5501
▁दलाल	-11.5502
▁जलीय	-11.5503
▁आलोक	-11.5507
▁गुर्दे	-11.5511
▁पत्ती	-11.5514
▁उभरते	-11.5522
▁मुखर	-11.5525
▁कॉन्	-11.5526
▁बहिर्	-11.5526
▁दोहन	-11.5528
टिकल	-11.5528
आईपी	-11.5531
▁दूरभाष	-11.5533
▁बैठकें	-11.5535
▁रचनाएं	-11.5535
▁आंदोलनों	-11.5537
▁प्रकोष्ठ	-11.5538
▁बेजबरु	-11.5538
▁असुविधा	-11.5538
▁सिक्के	-11.5539
▁ऑयल	-11.5539
िस्म	-11.554
▁to	-11.554
▁मालिकों	-11.5541
▁लिहाज	-11.5541
▁सस्ती	-11.5542
▁जन्मजात	-11.5542
ेटर	-11.5542
ैक्स	-11.5548
धारित	-11.5551
ोन्मुख	-11.5551
लोर	-11.5552
IN	-11.5554
▁हठ	-11.5556
रियम	-11.556
▁रिवाजों	-11.5561
ide	-11.5564
▁रहन	-11.5568
▁पुरूषों	-11.5569
्लि	-11.5576
▁काबू	-11.5577
▁कैट	-11.558
शास्त्री	-11.558
▁गतिशीलता	-11.5581
▁जानें	-11.5584
▁ठंड	-11.5584
ात्मकता	-11.5586
▁कार्टून	-11.5588
▁उत्कीर्ण	-11.5588
▁कॉपीराइट	-11.5588
▁साँचाः	-11.5588
▁उत्तराखंड	-11.5588
▁पुनर्निर्माण	-11.5589
फॉर्म	-11.5589
▁लम्बाई	-11.5595
▁छुप	-11.5599
बत	-11.56
▁छन्द	-11.5605
ावधान	-11.5607
▁ब्राह्मणों	-11.561
▁कर्मकार	-11.561
ोत्सव	-11.5611
▁ईश्वरीय	-11.5611
▁सम्मेलनों	-11.5613
निर्माण	-11.5615
▁दै	-11.5616
▁गॉ	-11.5616
▁बहू	-11.5621
▁हाथियों	-11.5623
▁खोजें	-11.5627
▁समझौत	-11.5631
▁परिवीक्षाधीन	-11.5639
▁अभिभावक	-11.5639
▁जाग्रत	-11.5642
▁रीढ़	-11.5642
▁पेशाब	-11.5643
▁चाप	-11.5643
▁तटस्थ	-11.5647
व्रण	-11.5647
▁भरना	-11.5647
▁पीट	-11.5648
▁असीमित	-11.5653
▁बुनियाद	-11.5653
निर्दिष्ट	-11.5663
वर्तित	-11.5665
ग्रे	-11.5668
२ख	-11.567
▁पण	-11.5673
टोर	-11.5675
▁फाल	-11.5677
ण्डा	-11.5681
▁घुटने	-11.5681
▁निकली	-11.5682
▁ब्राह्म	-11.5684
▁अंतर्वलित	-11.569
▁छानबीन	-11.569
▁वैचारिक	-11.569
▁माइनस	-11.569
▁पठार	-11.569
▁देवेन्द्रनाथ	-11.5691
▁बछड़	-11.5691
▁प्रतिभाशाली	-11.5691
▁एकरूपता	-11.5692
▁सिद्व	-11.5695
▁उकसा	-11.5695
▁मनोहर	-11.5697
▁उपलब्धियां	-11.5701
▁पड़ेगी	-11.5704
▁पिछड़	-11.5704
▁घाना	-11.5706
षि	-11.5708
▁आवेश	-11.5716
▁आभार	-11.5717
प्रतिशत	-11.572
लेन	-11.5722
▁बदली	-11.5722
▁माध्यस्थम	-11.5733
भ्	-11.5736
▁बकरिय	-11.574
▁एहसास	-11.5741
▁बस्तियों	-11.5741
▁जोधपुर	-11.5742
▁न्यायसंगत	-11.5743
▁जूझ	-11.5743
▁रिटर्न	-11.5743
▁साइंस	-11.5744
ञ्	-11.5744
▁हस्ताक्षरित	-11.5747
लिट	-11.5748
▁प्रत्याशा	-11.5748
▁रूपांतरित	-11.5748
▁जूरी	-11.5752
▁राजेन्द्र	-11.5758
▁थोप	-11.576
▁घोल	-11.5761
कोष	-11.5764
विंग	-11.5772
▁नामकरण	-11.5776
▁ख़ान	-11.5776
▁आध	-11.5777
▁चाहने	-11.5788
▁भीषण	-11.5792
▁निकालकर	-11.5793
▁विषाक्त	-11.5793
▁अनुषंगी	-11.5793
▁लाइब्रेरी	-11.5793
▁ब्राजील	-11.5793
▁सुप्रसिद्ध	-11.5793
ध्वनि	-11.5793
▁ओम	-11.5793
▁कवच	-11.5793
वेज	-11.5794
▁चीख	-11.5794
▁gui	-11.5795
▁सिक्का	-11.5796
▁संभाव्यता	-11.5797
▁दूरदर्शन	-11.5798
▁फ़ोटो	-11.5799
▁होली	-11.58
▁मानसिकता	-11.5801
▁सिन्धु	-11.5805
▁कपूर	-11.5806
यॉ	-11.5808
फार्म	-11.5808
▁मात	-11.5808
▁आदर्शवाद	-11.581
ग्राफ	-11.581
्वि	-11.581
▁छिपे	-11.5813
▁उग्रवादी	-11.5818
▁आनन्दमय	-11.5818
वेदन	-11.5819
म्फ	-11.582
▁अधिनिर्णी	-11.582
ard	-11.5822
▁बिछा	-11.5823
▁बहाव	-11.5824
▁जहाजों	-11.5837
▁रखाव	-11.5837
▁कार्यो	-11.5841
शंस	-11.5841
▁भाषाएँ	-11.5841
▁श्लेष्म	-11.5844
▁आनुपातिक	-11.5845
▁डिबेंचर	-11.5845
▁लेबनान	-11.5845
▁दीर्घावधि	-11.5845
▁मार्टिन	-11.5845
नली	-11.5846
▁प्रणालियां	-11.5846
▁परिचालित	-11.5847
▁सन्देह	-11.5847
▁मंगोल	-11.5847
▁सुशासन	-11.5847
▁नर्सिंग	-11.5848
▁कैम्प	-11.5849
कृत्य	-11.5849
▁सामंत	-11.5849
घट	-11.5851
▁देखिये	-11.5853
▁जबतक	-11.5856
▁आफिस	-11.5856
▁सम्यक	-11.5857
▁जीभ	-11.586
ौन	-11.586
▁आएगी	-11.5862
▁भूरे	-11.5873
जऋ	-11.5875
▁अध्या	-11.5876
प्य	-11.5877
▁उन्नीसवी	-11.5881
RI	-11.5882
▁कच्छ	-11.5884
रोज	-11.5892
▁बुझा	-11.5892
▁आईए	-11.5894
▁ऐन	-11.5897
▁सिगरेट	-11.5897
▁कार्यकारिणी	-11.5897
▁गुवाहाटी	-11.5897
▁तत्संबंधी	-11.5897
▁कमज़ोर	-11.5897
▁चार्ल्स	-11.5897
▁संवेदी	-11.5897
▁स्ट्रीट	-11.5897
▁गायन	-11.5897
▁आँकड़ा	-11.5897
▁डिप	-11.5898
▁वृहद	-11.5899
थित	-11.59
हिन	-11.5901
▁प्रकार्य	-11.5901
▁शारदा	-11.5906
▁डायरी	-11.5907
▁यूएस	-11.5909
▁पारी	-11.5915
▁असहाय	-11.5919
इं	-11.5923
▁पहुंचना	-11.5927
▁पर्वतों	-11.5927
भ्रम	-11.5928
निका	-11.5934
▁ऐक्ट	-11.5936
▁ढील	-11.5938
▁बुद्धिमत्ता	-11.5949
▁कीमियागर	-11.5949
▁हल्की	-11.5949
▁प्यास	-11.595
▁सामग्रिय	-11.595
▁हाइड्रोजन	-11.595
▁तथ	-11.5951
▁कार्यप्रणाली	-11.5952
▁जोड़ता	-11.5956
क्रो	-11.5957
OR	-11.5971
▁खासतौ	-11.5973
श्क	-11.5974
eg	-11.5979
▁उन्मुक्त	-11.5979
कथन	-11.5983
▁रोके	-11.599
मुद्र	-11.5992
▁पुनरीक्ष	-11.5995
चरण	-11.5997
▁आवंटित	-11.6002
▁सिपाही	-11.6002
▁धब्बे	-11.6002
▁वर्तनी	-11.6006
▁उदारीकरण	-11.6008
▁सुनना	-11.6009
िथ	-11.6012
▁गणितीय	-11.6017
▁रति	-11.602
▁दबाने	-11.6027
▁प्रतिभागियो	-11.6036
क्रांत	-11.6038
काना	-11.6038
▁चीफ	-11.6041
धक	-11.6042
▁प्रदूषक	-11.6045
कंद	-11.6048
चू	-11.6049
▁मृदु	-11.6051
▁अनदेखी	-11.6055
▁पन्द्रह	-11.6055
▁बुजुर्ग	-11.6055
▁फिलहाल	-11.6055
▁साउथ	-11.6055
▁संबोधन	-11.6055
▁अर्हता	-11.6055
▁फोकस	-11.6055
▁नर्तक	-11.6056
▁सोपान	-11.6056
ॉप	-11.6057
▁तख्त	-11.6057
▁थैली	-11.6057
▁खयाल	-11.6058
भ्रंश	-11.6059
▁वास्तु	-11.6065
▁रास	-11.6065
▁डबल	-11.6065
▁पीटर	-11.6068
▁घटी	-11.6069
▁अटक	-11.6069
▁रवैया	-11.6072
द्धि	-11.6075
art	-11.608
▁इकट्ठ	-11.6082
ुका	-11.6084
साइट	-11.6084
ज़ार	-11.6085
▁खडा	-11.6086
ik	-11.6088
▁करनेवाला	-11.6089
▁डालती	-11.6092
▁रोज़	-11.6092
▁एकाधिक	-11.6093
िनद्	-11.6094
▁बैग	-11.6095
▁लाता	-11.6099
▁गठबंधन	-11.6108
▁डब्लू	-11.6108
▁तालिबान	-11.6108
▁शर्करा	-11.6108
▁निरूपण	-11.6108
▁पहुच	-11.6108
▁गुरबख्श	-11.6108
▁घोंसल	-11.6108
▁अलंकार	-11.6108
▁पुरोहित	-11.6108
▁सूती	-11.6109
▁अपलोड	-11.6109
▁मीनार	-11.611
▁डाउन	-11.611
▁निशाना	-11.611
▁आदमियों	-11.6111
रूद्ध	-11.6114
टू	-11.6116
▁Ch	-11.6117
त्तम	-11.6121
▁खर्चों	-11.6123
▁संकुल	-11.6125
क्के	-11.6126
▁मिलेंगे	-11.6127
महा	-11.6132
▁मॉँ	-11.6133
▁हिट	-11.6136
धित	-11.6137
घोष	-11.6138
रियर	-11.6143
वेशन	-11.6146
▁प्रत्यय	-11.6149
▁पूल	-11.6149
▁मुर्गिय	-11.6152
▁खोखल	-11.6158
▁यूरेनियम	-11.6161
▁सांविधानिक	-11.6161
▁सिलसिले	-11.6161
▁संचलन	-11.6161
▁पोशाक	-11.6161
▁सिकंदर	-11.6161
▁संश्लेषण	-11.6162
▁ख़रीद	-11.6163
▁निर्देशन	-11.6163
▁वैद्य	-11.6163
द्योग	-11.6164
▁मनोरम	-11.6165
इय	-11.617
▁उलझ	-11.6174
▁दीव	-11.6175
▁उठाई	-11.6175
▁साझेदार	-11.6181
▁कीमती	-11.6182
हिर	-11.6182
▁निकास	-11.6183
ue	-11.6186
प्रवाह	-11.6188
▁अनाथ	-11.6193
ill	-11.6196
▁लोहा	-11.6196
▁विक्रम	-11.6197
▁शुरुआती	-11.6197
राशि	-11.6197
▁कऋ	-11.6198
▁आड़	-11.6199
▁खरा	-11.62
▁नकली	-11.6203
▁मूर्खता	-11.6207
किया	-11.6207
▁बाला	-11.6207
▁सूच	-11.6208
स्टोन	-11.6213
▁हज	-11.6215
▁चुकौती	-11.6215
▁प्रतिस्पर्धी	-11.6215
▁इशारा	-11.6215
▁विचलित	-11.6215
▁अनेकानेक	-11.6215
▁सब्जी	-11.6215
▁जुग	-11.6215
▁पीडित	-11.6216
▁एकाएक	-11.6216
▁पोषित	-11.6216
सीबी	-11.6217
▁ट्रिब्यूनल	-11.6219
▁शहद	-11.622
कण्ठ	-11.622
▁बालू	-11.6222
▁चिंताओं	-11.6224
▁विपत्ति	-11.6225
युक्	-11.6225
▁जोज़े	-11.6226
▁नासिक	-11.6227
▁संवेदनशीलता	-11.6229
▁घी	-11.623
▁बहुल	-11.6231
▁सेटिंग्स	-11.6231
▁शशि	-11.6234
िप्त	-11.6236
दिन	-11.6237
▁उभरे	-11.6245
ोली	-11.625
▁उदासीन	-11.6251
▁गुदा	-11.6252
▁कार्यान्व	-11.6261
याल	-11.6264
▁उत्तीर्ण	-11.6269
▁एजेन्सी	-11.6269
▁वाराणसी	-11.6269
▁सुव्यवस्थित	-11.6269
▁परिपाटी	-11.6269
▁द्रविड़	-11.6269
▁वायुसेना	-11.6269
▁कुर्की	-11.6269
▁छठे	-11.6269
▁सूत्रकृमि	-11.627
▁III	-11.627
▁चांद	-11.627
मण्ड	-11.6271
▁रोगाणु	-11.6273
ity	-11.6277
ाक्षर	-11.6278
▁पहचानने	-11.6278
▁सुधर	-11.628
▁खोलना	-11.628
▁सफर	-11.6281
▁जाली	-11.6281
▁पुर्न	-11.6281
झी	-11.6283
▁Se	-11.6285
IT	-11.6285
▁प्रक्रमण	-11.6285
▁सार्व	-11.6293
वद	-11.6295
्नत	-11.6297
▁समु	-11.6297
मयी	-11.6298
थिक	-11.6302
▁कहलाते	-11.6304
▁नाटककार	-11.6307
पान	-11.6307
▁छाल	-11.6309
▁तने	-11.6312
▁तत्पश्चात	-11.6315
▁आहत	-11.6315
▁कीमतें	-11.6317
▁धूम	-11.6323
▁राजकुमारी	-11.6323
▁चालुक्य	-11.6324
▁महाभियोग	-11.6324
▁अवशिष्ट	-11.6324
▁मुनाफा	-11.6324
▁क्षुद्र	-11.6324
▁सहभागी	-11.6324
▁खजाने	-11.6324
डब्ल्यू	-11.6324
▁भगवती	-11.6324
▁बोनस	-11.6324
▁अनुपम	-11.6324
▁त्रिकोण	-11.6325
▁छठी	-11.6326
▁जनशक्ति	-11.6329
▁ब्यू	-11.633
▁वार्ड	-11.6331
▁सादे	-11.6337
▁मतदाताओं	-11.6341
▁आदिम	-11.6341
▁मानती	-11.6343
▁व्यवसायिक	-11.6343
▁स्वे	-11.6343
cl	-11.6344
▁सुखा	-11.6344
▁कहेंगे	-11.6345
▁बिल्ली	-11.635
▁वाद्यों	-11.635
▁त्रुटियों	-11.6352
▁बारीक	-11.6358
▁कबील	-11.6362
िजनों	-11.6363
राब	-11.6369
▁पंखों	-11.6371
▁उभरा	-11.6374
▁काटना	-11.6377
▁घुड़सवार	-11.6378
▁ज्येष्ठ	-11.6378
▁नैसर्गिक	-11.6378
▁भ्रामक	-11.6378
▁संकुचित	-11.6378
▁अंकुश	-11.6378
▁जागरण	-11.638
▁बर्बर	-11.6382
▁निगाह	-11.6382
▁रणनीतिक	-11.6384
▁महंगा	-11.6384
▁ऋणात्मक	-11.6388
ख्य	-11.639
टेशन	-11.6391
प्रसाद	-11.6391
▁अपीली	-11.6392
▁इस्ते	-11.6395
▁दुर्बलता	-11.6396
▁समयबद्ध	-11.6397
▁रूम	-11.6399
▁दुह	-11.64
▁बंधे	-11.6405
▁वीर्य	-11.6406
▁अथक	-11.6408
▁पुर्तगाली	-11.6412
▁हं	-11.6418
▁विकलांगता	-11.6419
▁खरीदी	-11.6419
▁ऊँच	-11.6424
▁मोर्चे	-11.6425
▁कंद	-11.6427
▁अनदेखा	-11.6433
रज्जु	-11.6433
▁नैगम	-11.6434
▁अनवरत	-11.6434
▁यत्न	-11.6434
▁अविलय	-11.6435
▁रेटिंग	-11.6436
▁रक़्त	-11.6437
▁मनोमय	-11.6437
▁कंट	-11.644
▁चिपक	-11.644
▁पकड़े	-11.6441
▁मश	-11.6442
उप	-11.6447
▁लतीफ	-11.6448
गाम	-11.6451
▁आयत	-11.6454
▁ऑल	-11.6454
ुरा	-11.6454
▁खरीदा	-11.6456
▁नीड़	-11.6458
कड़ी	-11.6459
गुल	-11.6461
देय	-11.6463
▁शिकायतकर्ता	-11.6463
छेदन	-11.6465
वेट	-11.6465
ग्राह	-11.6465
▁बिछ	-11.6466
▁सुनाया	-11.6466
▁जुडी	-11.6467
▁ऊँचा	-11.6468
िण	-11.6468
णि	-11.647
▁रद्दी	-11.647
वाचक	-11.647
ड़ियां	-11.6471
▁साम्यवादी	-11.6471
▁विभक्त	-11.6476
▁प्रांतों	-11.6481
▁अनुदेशों	-11.6488
▁समनुदेशन	-11.6488
▁समीक्षक	-11.6488
▁शिवाजी	-11.6488
▁मातृभाषा	-11.6489
▁गंधर्व	-11.6489
▁अन्तरराष्ट्रीय	-11.6489
▁ढूंढ़	-11.6492
▁भूभाग	-11.6492
▁पर्याय	-11.6492
▁दिखायें	-11.6494
LE	-11.6499
▁बालिका	-11.65
▁दौ	-11.6501
बीआई	-11.6501
▁मेटा	-11.6507
प्राप्ति	-11.6514
परिवर्तन	-11.6515
▁विनिधानकर्ता	-11.6515
क्षु	-11.6517
▁अंग्रेज़	-11.6517
ब्रा	-11.6521
▁निभाता	-11.6523
▁घटिया	-11.6524
मूर्तियों	-11.6526
▁मोनो	-11.6526
▁शान	-11.6531
एफ़	-11.6531
▁वैश्व	-11.6532
द्दी	-11.6532
▁उत्साहित	-11.6539
▁भण्डार	-11.654
▁कड़े	-11.6542
▁आशीर्वाद	-11.6544
▁कारपोरेट	-11.6544
▁नायडू	-11.6544
▁अवक्षयण	-11.6544
▁मलेशिया	-11.6544
▁सराहनीय	-11.6544
▁सूरदास	-11.6545
▁अभिनव	-11.6545
NT	-11.6545
▁आत्मकथा	-11.6546
▁प्रारुप	-11.6546
▁मज्जा	-11.6547
▁तेजाब	-11.6548
गुणित	-11.6549
▁चुरा	-11.6549
▁झूल	-11.655
▁नवीकरणीय	-11.6552
▁विलीन	-11.6553
▁शाप	-11.6554
▁पदधारी	-11.6554
योज	-11.6556
▁ठहराव	-11.6558
▁विश्वभर	-11.6561
बीर	-11.6562
लेटर	-11.6563
▁उपनिवेशवाद	-11.6564
▁भड़क	-11.6565
▁माई	-11.6566
गिरी	-11.6566
▁स्न	-11.6569
▁भ्रमित	-11.6569
▁जानेवाले	-11.6569
▁क्षार	-11.6574
▁निशा	-11.6575
▁शाखाएं	-11.6575
▁अक्षय	-11.6579
वेग	-11.6582
गर्त	-11.6583
▁हफ्त	-11.6585
मिक्स	-11.6589
र्घ	-11.6591
हानि	-11.6591
▁द्रुत	-11.6592
बाज़ी	-11.6594
▁कार्प	-11.6595
▁पीस	-11.6595
ग्ग	-11.6597
▁देसी	-11.6597
▁इंस्टॉल	-11.66
▁दफ्तर	-11.66
▁शुभारंभ	-11.66
▁खाण्डे	-11.66
▁संचालक	-11.66
▁अल्पावधि	-11.66
▁निषिद्ध	-11.6601
▁स्केल	-11.6604
▁लेंस	-11.6606
▁समवर्ती	-11.6607
सूची	-11.6607
▁प्रकाशक	-11.6613
पस	-11.6614
ीभूत	-11.6615
▁भुजा	-11.6616
▁पुर्ज	-11.6616
नियोजित	-11.6616
▁भड़का	-11.6616
▁पतंग	-11.6618
▁पूर्वगामी	-11.662
▁लिपिक	-11.6626
▁बेरोजगारी	-11.6628
▁मर्म	-11.663
▁उड	-11.6635
▁जब्त	-11.6635
▁अस्पृश्य	-11.6637
▁धड़	-11.6646
▁चेन	-11.6648
बध	-11.6649
▁नाभि	-11.6651
▁इमारतों	-11.6651
▁बृहत्	-11.6652
▁स्टेशनों	-11.6655
▁ग्रीष्म	-11.6656
▁क़ुरआन	-11.6656
▁तात्विक	-11.6656
▁सांकेतिक	-11.6656
▁हथकरघा	-11.6656
▁विस्मय	-11.6656
▁साम्यवाद	-11.6656
▁अपरिचित	-11.6657
▁सेमिनार	-11.6657
▁स्कंध	-11.6658
▁बदनाम	-11.6658
▁कन्नड़	-11.6658
ib	-11.6658
▁धाम	-11.6659
▁दुम	-11.6659
टीपी	-11.666
▁कंठ	-11.6661
▁राशन	-11.6665
iv	-11.6668
▁कलंक	-11.6672
्पा	-11.6674
श्रम	-11.6677
▁हसन	-11.6678
▁प्रातः	-11.6678
▁उत्पादकों	-11.6681
प्रसू	-11.6681
प्रो	-11.6681
▁मिटाने	-11.6682
ुवा	-11.6684
▁ह्यू	-11.6689
▁अंब	-11.6692
शिर	-11.6692
▁पूर्त	-11.6693
▁अन्तरण	-11.6694
hi	-11.6701
▁स्वै	-11.6701
▁चलन	-11.6701
रक्षण	-11.6703
▁गिना	-11.6703
▁व्यवस्थाओं	-11.6704
▁रिज	-11.6706
ल्हा	-11.6707
पर्व	-11.6707
▁शेयर्स	-11.6708
▁कार्यशील	-11.671
▁एचपीसीएल	-11.6712
▁काउंटर	-11.6712
▁स्थापत्य	-11.6712
▁जीवाश्म	-11.6712
▁हिटलर	-11.6713
▁वसंत	-11.6713
▁सम्मिश्रण	-11.6714
▁हलचल	-11.6715
▁बनर्जी	-11.6717
▁रोप	-11.6718
▁चौंक	-11.6719
▁शुद्धि	-11.672
र्भ	-11.672
मिजाज	-11.6721
▁लाद	-11.6724
▁नाड़ी	-11.6727
▁गुड	-11.673
▁ईमानदार	-11.6733
▁अवध	-11.6733
▁मेजर	-11.6736
▁अख	-11.6738
▁for	-11.6738
▁दूं	-11.6739
कूट	-11.6742
▁सीनेट	-11.6742
▁घटाकर	-11.6747
लब्ध	-11.6748
होंने	-11.6748
युग	-11.675
▁नेपाली	-11.6756
ध्र	-11.6759
▁विमानन	-11.6759
▁दाहिन	-11.6762
गंध	-11.6762
▁सोन	-11.6762
▁डंड	-11.6763
▁बाली	-11.6766
▁अशक्त	-11.6766
▁महमूद	-11.6769
▁रिचर्ड	-11.6769
▁अवार्ड	-11.6769
▁फौरन	-11.6769
▁व्यवधान	-11.677
▁नायिका	-11.677
▁घटाना	-11.677
▁मुस्करा	-11.677
▁एक्सप्रेस	-11.677
▁सौम्य	-11.6772
▁अव्यवस्था	-11.6772
▁व्याप्ति	-11.6774
▁सम्पदा	-11.6775
▁पुनरा	-11.6776
▁गाते	-11.6777
▁कभार	-11.678
▁कैदियों	-11.6781
▁न्यूज	-11.6789
आरसी	-11.6793
▁राइट	-11.6793
▁पुत्रों	-11.6794
▁विजयी	-11.6795
▁डिस	-11.6796
▁अंज	-11.6797
▁संख्याओं	-11.6799
्टिक	-11.6803
▁प्रतीकात्मक	-11.6805
▁दरार	-11.6806
नाइट	-11.6806
▁ऊँची	-11.6807
▁बनें	-11.6811
▁स्या	-11.6812
▁अनजान	-11.6815
▁प्रस्तुतीकरण	-11.6819
▁व्ह	-11.6819
स्सा	-11.6824
गर्भ	-11.6825
▁बनवा	-11.6826
▁अनगिनत	-11.6826
▁खुफिया	-11.6826
▁मिजोरम	-11.6826
▁रक्तचाप	-11.6826
▁उछाल	-11.6827
▁शौचालय	-11.6827
▁उल्टा	-11.6827
▁बैकअप	-11.6827
▁तदर्थ	-11.6827
▁जहॉँ	-11.6827
▁पुनर्विचार	-11.6827
▁इण्डिया	-11.6827
▁व्यथित	-11.6828
ल्व	-11.6828
▁सौदों	-11.6829
▁लव	-11.6832
▁परन्तुक	-11.6838
▁सकाः	-11.6838
▁भागतः	-11.6839
▁अनव	-11.6841
▁फैक्टरी	-11.6848
▁चूस	-11.6851
▁सती	-11.6852
▁वक्ता	-11.6852
रुद्ध	-11.6852
▁कौर	-11.6852
▁ऑर	-11.6853
ara	-11.6855
▁संतति	-11.6856
▁पूछें	-11.6858
वाहिनी	-11.6859
रेख	-11.6863
च्छिक	-11.6865
द्दाम	-11.6876
्जे	-11.6877
▁दीर्घा	-11.6879
न्च	-11.6882
▁बहुपक्षीय	-11.6884
▁हरिश्चन्द्र	-11.6884
▁अब्बास	-11.6884
▁बहुआयाम	-11.6884
▁निबटा	-11.6884
▁घूमने	-11.6884
▁दोहरे	-11.6884
सिड	-11.6884
▁अल्पकालिक	-11.6885
▁सम्भवतः	-11.6887
▁धागे	-11.6889
च्छद	-11.6891
स्ट्रो	-11.6892
▁समन्वयन	-11.6892
▁आपातकाल	-11.6892
▁चारे	-11.6896
▁नीर	-11.6898
▁विंडोज़	-11.6903
▁समेट	-11.6903
▁हिंदुस्तानी	-11.6904
चेंज	-11.6906
▁खुदाई	-11.6906
▁विह	-11.6907
IC	-11.691
▁केशव	-11.6911
▁रजत	-11.6911
ावधि	-11.6913
पाठ	-11.6915
ैंस	-11.6916
फ़्र	-11.6918
▁प्रज्ञा	-11.6921
▁कहावत	-11.6927
▁शार	-11.6927
▁शिकारी	-11.6929
▁रव	-11.693
▁साम्राज़्यवाद	-11.6934
▁इंस	-11.6934
्कि	-11.6935
▁मंग	-11.6939
▁रिक्ति	-11.694
▁गुम्बद	-11.6942
▁प्रदूषित	-11.6942
▁अस्थाई	-11.6942
▁प्रसूति	-11.6942
▁बर्बाद	-11.6942
▁वैभव	-11.6943
▁प्लगिन	-11.6944
▁चादर	-11.6944
▁सतीश	-11.6946
▁पडेगा	-11.6946
▁कुमारी	-11.6946
▁बन्धन	-11.6949
▁खाती	-11.695
▁http	-11.6951
▁विवेकपूर्ण	-11.6953
▁महाजन	-11.6955
कांत	-11.6956
▁दर्जन	-11.6956
▁पण्य	-11.6958
▁पम्प	-11.6958
▁झूठे	-11.696
सूचक	-11.6968
▁श्रेष्ठता	-11.6969
▁शक्तियाँ	-11.6974
दोष	-11.6974
▁महिल	-11.6974
▁वलय	-11.6981
age	-11.6983
पर्य	-11.6985
ting	-11.6986
▁बाह	-11.6987
टेड	-11.6988
▁मजा	-11.6989
तुर	-11.6992
▁दीपक	-11.6992
▁आवर्त	-11.6995
▁देशभक्त	-11.6998
▁तुलसी	-11.7
▁निःसंदेह	-11.7
▁पूर्वावलोकन	-11.7
▁पौष्टिक	-11.7
▁मुलायम	-11.7
▁विनिर्माता	-11.7
▁टेक्स्ट	-11.7
▁तितली	-11.7
▁स्तुति	-11.7
▁शिलालेख	-11.7
▁जिम	-11.7001
▁गर्भपात	-11.7001
▁मानदण्ड	-11.7001
▁आरोहण	-11.7003
▁गोबर	-11.7005
▁अनधिक	-11.7005
▁संवर्ग	-11.7009
पीड़	-11.7011
▁मारना	-11.7014
▁संग्रहित	-11.7015
▁अश्म	-11.7016
▁आपरेशन	-11.7017
▁तत्परता	-11.7021
▁अधिवास	-11.703
▁राइ	-11.7032
▁सप्त	-11.7033
ey	-11.7039
प्रदेश	-11.7042
▁टोल	-11.7043
▁गुलाबी	-11.7043
▁सन्त	-11.7043
क्ले	-11.7052
▁विलयन	-11.7052
पुरा	-11.7053
▁महत्ता	-11.7055
▁कारीगर	-11.7055
▁हेड	-11.7057
▁ठंडे	-11.7058
▁ग्रीनहाउस	-11.7058
▁चेन्नम्मा	-11.7058
▁भयावह	-11.7058
▁शाब्दिक	-11.7058
▁उमीद	-11.7058
▁सस्ते	-11.7058
▁उर्जा	-11.706
▁प्रक्षेप	-11.706
▁मिसाल	-11.706
▁मूक	-11.7061
▁सर्दी	-11.7061
▁टुकड	-11.7062
▁बंदूक	-11.7064
▁ख़ास	-11.7067
▁फ्रांसिस	-11.7068
▁शब	-11.707
▁ब्या	-11.7073
शिंग	-11.7073
पूर्ति	-11.7074
▁पुनर्वि	-11.7074
डीएल	-11.7075
▁महानतम	-11.7075
भु	-11.7077
▁विश्लेषक	-11.7078
खु	-11.7078
ॉय	-11.7079
▁चकित	-11.7079
▁नीम	-11.708
▁पाय	-11.7091
शंकाओं	-11.7093
दिष्ट	-11.7094
तिया	-11.7097
▁फ्लोर	-11.7101
ख़्त	-11.7111
मंत्र	-11.7113
▁कारखानों	-11.7117
▁पुरातत्व	-11.7117
▁स्पर्धा	-11.7117
▁अस्वस्थ	-11.7118
▁विस्फोटक	-11.7118
▁चूर्ण	-11.7119
▁प्रवर्तित	-11.7121
▁समांतर	-11.7121
▁परिणति	-11.7122
▁अयस्क	-11.7126
निधि	-11.7128
िफ़	-11.7128
शित	-11.7132
▁संवेदन	-11.7133
लिए	-11.7134
▁नर्मदा	-11.7134
RE	-11.7136
▁धुंधल	-11.7136
न्तर	-11.7137
हस्त	-11.7143
▁लाती	-11.7145
्रम	-11.715
▁आद्य	-11.715
म्बन्	-11.7153
ॉस	-11.7153
ies	-11.7157
▁चुनना	-11.716
▁पूति	-11.7161
युकत	-11.717
▁विकिपीडिया	-11.717
▁जहर	-11.7176
▁श्रोणि	-11.7176
▁सियारामशरण	-11.7176
▁दुरूपयोग	-11.7176
▁यादृच्छिक	-11.7176
▁रिफाइनरी	-11.7176
▁वायसराय	-11.7176
▁सेंट्रल	-11.7176
▁तारामंडल	-11.7177
▁पलायन	-11.7177
▁पशुधन	-11.7179
▁निम्नानुसार	-11.7179
▁बत्ती	-11.7181
परीक्षित	-11.7184
▁हब	-11.7186
शंक	-11.7187
▁विशि	-11.7187
▁महज	-11.7192
▁सर्जनात्मक	-11.7193
▁उर्वर	-11.7195
▁वेश	-11.7197
▁ज्योतिष	-11.7199
२वीं	-11.7202
मेह	-11.7204
भाऊ	-11.721
▁संख्यांक	-11.7217
est	-11.7218
वोल्ट	-11.7222
▁टाई	-11.7223
ार्ध	-11.7228
▁रेस	-11.7229
स्फीति	-11.7235
▁आईएफसीआई	-11.7236
▁उबुन्ट	-11.7236
▁मसौदा	-11.7236
▁विज्ञप्ति	-11.7236
▁अनोखा	-11.7236
▁परिधीय	-11.7236
▁अफगान	-11.7236
▁मनमाने	-11.7236
▁फोटोग्राफ	-11.7236
▁मेहराब	-11.7237
ाइजेशन	-11.7237
▁कीर्तन	-11.7238
▁कैंप	-11.7239
▁उदयपुर	-11.7239
▁सुझाया	-11.724
▁खिलफ	-11.7241
▁प्रतिभावान	-11.7241
▁खांसी	-11.7242
▁निन्दा	-11.7243
▁अहिंस	-11.7245
▁फैलने	-11.725
वाणी	-11.7251
▁अधिकांशतः	-11.7252
कंटक	-11.7253
▁वर्जन	-11.7253
▁हिन्दुस्तानियों	-11.7253
शोधन	-11.7254
▁मोर्चा	-11.7255
▁कठ	-11.7257
▁पुर्तगाल	-11.7259
▁पतला	-11.7262
ाध्य	-11.7262
▁छोडकर	-11.7265
▁ड्राइवर	-11.7267
▁अभ्यर्थी	-11.727
▁मैरी	-11.7274
▁स्टॉ	-11.7274
▁नोट्स	-11.7275
▁बाव	-11.7275
▁शीश	-11.7282
ेतर	-11.7282
नीति	-11.7283
▁मैग	-11.7283
▁स्याय	-11.7284
▁जेट	-11.7285
▁पेंट	-11.7287
▁बदलकर	-11.7294
▁अधीक्षक	-11.7296
▁आच्छादित	-11.7296
▁बहुसंख्यक	-11.7296
▁घोड़ों	-11.7296
▁सिक्कों	-11.7296
▁ग्रसनी	-11.7296
▁वॉल्यूम	-11.7296
▁इंटरफेस	-11.7296
▁इक्विटी	-11.7296
▁टनभार	-11.7297
▁प्लेयर	-11.7298
▁सूफी	-11.7298
▁सज्जा	-11.7301
▁गुलामी	-11.7303
▁जयदेव	-11.7305
all	-11.7306
RA	-11.7309
▁दिखत	-11.7313
वली	-11.7324
▁गाड	-11.7327
▁अध्यात्म	-11.7336
▁फैसल	-11.7337
लेज	-11.7341
▁प्रयोगकर्ता	-11.7347
▁कैर	-11.7347
▁उन्न	-11.7347
दूर	-11.7351
▁खरीदार	-11.7352
▁खनिजों	-11.7354
▁शत्रुता	-11.7355
कृष्ट	-11.7355
▁बायोगैस	-11.7356
▁फेडरल	-11.7356
▁पहाडिय	-11.7356
▁हिस्सेदारी	-11.7357
▁शुक्रवार	-11.7358
▁दुगुन	-11.7359
▁सावधानीपूर्वक	-11.7359
▁ब्लाक	-11.7361
▁यूएन	-11.7362
▁सेवकों	-11.7362
▁हताश	-11.7363
▁श्रोताओं	-11.7363
भक्षी	-11.7366
▁एक्सेस	-11.7367
▁आइस	-11.7368
▁ग्रीक	-11.7372
▁पाएगा	-11.7374
आईडी	-11.7376
▁दीदी	-11.7378
पायर	-11.738
यात्रा	-11.7381
भुत	-11.7384
दिया	-11.7385
▁मिशनरी	-11.7388
▁पॉलि	-11.7389
▁टोपी	-11.7393
▁श्रा	-11.7395
▁पकाने	-11.7397
▁इंजीनियरों	-11.7397
ैग	-11.7399
▁आभारी	-11.7399
ड़ै	-11.7406
▁दिलाना	-11.7407
▁लाइनों	-11.7408
▁लड़ी	-11.7412
▁मन्द	-11.7413
▁org	-11.7416
▁ईर्ष्या	-11.7417
▁उत्पीड़न	-11.7417
▁चुनिंदा	-11.7417
▁त्रासदी	-11.7417
▁डेनमार्क	-11.7417
▁मृत्युदण्ड	-11.7417
▁सावरकर	-11.7417
▁सामयिक	-11.7417
▁खजाना	-11.7417
▁द्वेष	-11.7417
▁चटर्जी	-11.7417
▁व्हाइट	-11.7417
▁खलीफा	-11.7417
▁रिव्यू	-11.7417
▁बंजर	-11.7419
▁ग्राफिक्स	-11.742
कुंड	-11.742
aw	-11.7421
▁रेशे	-11.7421
▁गंवा	-11.7422
▁प्रखर	-11.7422
▁उद्धार	-11.7423
▁ट्रेडिंग	-11.7424
ांतक	-11.7424
▁दोषों	-11.7435
▁भाषाएं	-11.7445
▁समझकर	-11.7445
▁गड़बड़ी	-11.7447
▁स्पष्टतः	-11.7449
▁बल्ल	-11.7451
चिह्न	-11.7463
ts	-11.7465
ख़्	-11.7469
▁पङ	-11.7472
गोल	-11.7472
▁अंतरराष्ट्री	-11.7472
▁अनुवादक	-11.7475
▁पहनने	-11.7477
आक्साइड	-11.7478
▁असुरक्षित	-11.7478
▁उज्ज्वल	-11.7478
▁अग्रेषित	-11.7478
▁अभिकथित	-11.7478
▁आक्सीजन	-11.7478
▁प्रशंसनीय	-11.7478
▁बंकिम	-11.7478
▁वगैरह	-11.7478
▁अवयस्क	-11.7478
▁समीचीन	-11.7478
▁अधूरा	-11.7478
▁खामोश	-11.7478
▁प्रयाग	-11.7478
▁मजहब	-11.7478
▁कावेरी	-11.7478
▁शंख	-11.7479
▁पत्तियां	-11.7479
थम	-11.748
▁जन्मदिन	-11.748
▁टीके	-11.7481
▁रूपांतर	-11.7482
▁आखिरकार	-11.7482
▁गुरुदेव	-11.7482
हिं	-11.7484
ओगे	-11.7489
▁डीलर	-11.7489
▁विनम्र	-11.7497
▁वृत्तिक	-11.7499
▁मकानों	-11.7509
▁सूरी	-11.7515
▁रोकता	-11.7517
ायल	-11.7519
▁जुआ	-11.752
▁रहस्यवाद	-11.7522
▁अर्थव्यवस्थाओं	-11.7524
निर्धारण	-11.7527
मस्तिष्क	-11.7527
▁बिग	-11.7528
▁मद्देनज	-11.7529
रत्न	-11.753
▁विभि	-11.7532
ठि	-11.7533
▁भूरा	-11.7536
▁शाहजहाँ	-11.7539
▁ऑक्सीजन	-11.7539
▁ढाँचा	-11.7539
▁न्यूयॉर्क	-11.7539
▁वाल्मीकि	-11.7539
▁उपजाऊ	-11.7539
▁लाभान्वित	-11.7539
▁उत्प्रेरक	-11.7539
▁उछल	-11.7539
अनु	-11.7539
▁ख़त्म	-11.754
▁सूत	-11.7541
▁पूर्वजों	-11.7541
▁पंप	-11.7542
▁संयोजित	-11.7546
▁बेगम	-11.7547
▁पोलियो	-11.7549
▁इत्या	-11.7559
▁समर	-11.7564
▁नृ	-11.7571
▁समझदारी	-11.7574
डोल	-11.7578
कन्द	-11.7581
▁आत्मनिर्भर	-11.7581
▁खानों	-11.7583
्वी	-11.7589
▁पहुंचता	-11.7593
▁नमी	-11.7595
▁मच	-11.7597
▁उपधारणा	-11.7597
▁ग्रामोद्योग	-11.7601
▁पैतृक	-11.7601
▁फायदों	-11.7601
▁सर्वसाधारण	-11.7601
▁END	-11.7601
▁निरक्षर	-11.7601
▁संगमर्मर	-11.7601
▁सर्जरी	-11.7601
▁अँधेर	-11.7601
▁शिमला	-11.7601
▁अनुशंसा	-11.7601
▁जिलाधीश	-11.7602
▁अभिवृद्धि	-11.7602
▁मलाशय	-11.7602
▁पारेषण	-11.7604
नाथन	-11.761
▁व्याय	-11.7611
▁स्थानिक	-11.7612
▁गुह	-11.7613
ईएस	-11.7615
▁उठने	-11.7618
▁विशेषतया	-11.7622
▁भारित	-11.7622
▁स्कोर	-11.7623
▁गुटों	-11.7629
▁विरूप	-11.7638
▁बादलों	-11.7639
ive	-11.7642
▁जकड़	-11.7649
▁दत्तक	-11.765
ैव	-11.7652
▁झोंक	-11.7656
▁अनुक्रिया	-11.7658
▁बची	-11.7659
▁St	-11.766
न्याय	-11.7662
▁आयुर्विज्ञान	-11.7663
▁गोविन्द	-11.7663
▁न्यायात्रय	-11.7663
▁अलंकृत	-11.7663
▁जुडा	-11.7663
▁चंचल	-11.7663
▁गुस्सा	-11.7663
▁टिकाऊ	-11.7663
▁परिकलित	-11.7664
▁दृढ	-11.7665
▁रविवार	-11.7665
▁किनारा	-11.7666
▁यंत्रों	-11.7666
▁प्रिंस	-11.7666
इफ	-11.7673
▁रूपान्तरित	-11.7674
▁पागलपन	-11.7676
फेस	-11.7678
▁महानता	-11.7679
▁साहित्यकार	-11.7679
▁संकेतन	-11.7679
▁डिम्ब	-11.7683
ry	-11.7688
▁घिर	-11.7691
▁संचारित	-11.7691
▁जमी	-11.7695
रॉन	-11.7695
▁छपा	-11.7699
▁खींचने	-11.7702
ud	-11.7705
▁खिलाफत	-11.7705
▁हवाला	-11.7714
▁मस्ती	-11.7714
▁संध	-11.7715
ाघात	-11.7715
▁जागृत	-11.7719
शून्य	-11.772
▁अनोखी	-11.7725
▁जेरूसलम	-11.7725
▁प्रबुद्ध	-11.7725
▁मॉनिटर	-11.7725
▁चाहूंगी	-11.7725
▁मुयमंत्र	-11.7726
▁स्क्रॉल	-11.7726
▁गर्भगृह	-11.7726
▁सिन्हा	-11.7726
▁फिलिप	-11.7726
▁ट्रान्स	-11.7727
▁महारानी	-11.7728
▁बिंब	-11.773
▁दोषसिद्धि	-11.7736
▁बकरी	-11.7736
▁अम्ब	-11.7736
लोग	-11.7739
▁बीते	-11.7744
फ्यू	-11.7746
▁उपन्यासकार	-11.7746
▁सुविधाएँ	-11.7749
▁निकटता	-11.7754
रेंस	-11.7755
▁सौंपी	-11.7755
▁उत्सुकता	-11.7765
▁प्रस्तु	-11.7769
▁अँग	-11.7772
हेल	-11.778
रेक्ट	-11.7783
▁जीवनकाल	-11.7785
▁सम्पादन	-11.7788
▁इंग़्लै	-11.7788
▁तपस्या	-11.7788
▁The	-11.7788
▁बैंकनोट	-11.7788
▁नगण्य	-11.7788
▁चरितार्थ	-11.7788
▁दूरबीन	-11.7789
▁जुलूस	-11.7789
▁स्वरयंत्र	-11.7789
▁बरबाद	-11.779
▁पोलि	-11.779
▁परिभान	-11.7791
▁पाठशाला	-11.7791
ka	-11.7792
▁अश्रु	-11.7793
▁दखल	-11.7795
▁कुत्ता	-11.7795
साधन	-11.7796
▁रिलीज	-11.7798
ेटिक	-11.78
फिर	-11.7804
▁आवश्यकताएं	-11.7805
▁कीटनाशकों	-11.7809
▁मकबरा	-11.7813
ED	-11.7818
▁संहार	-11.7818
मूल्य	-11.7822
pp	-11.7824
▁पूछना	-11.7829
कार्बनिक	-11.7838
सेवा	-11.7841
▁सत्कार	-11.7844
▁संगीतकार	-11.7847
▁अपवर्जित	-11.7851
▁जस्टिस	-11.7851
▁अलंकरण	-11.7851
फलक	-11.7852
▁अजमेर	-11.7852
▁मेन्यू	-11.7853
▁प्रोसेसिंग	-11.7853
▁माइकल	-11.7853
▁विनिश्चित	-11.7854
▁उष्ण	-11.7854
▁संशय	-11.7859
▁सांख्यिकीय	-11.7859
▁इर्द	-11.786
▁सिखों	-11.7861
▁जादा	-11.7862
▁तले	-11.7862
▁कार्यसूची	-11.7863
▁आसाम	-11.7865
▁प्राप्तकर्ता	-11.7866
ाप्त	-11.7868
क़्स	-11.7869
▁मुख्यतया	-11.787
ोटा	-11.787
▁अस्थिरता	-11.787
▁मापने	-11.7874
शिल	-11.7878
ोक्ति	-11.7878
▁प्रविष्टियों	-11.7883
▁ब्रज	-11.7888
प्रमाण	-11.7889
पोर	-11.7891
ॉर्ड	-11.7891
▁गवाहों	-11.7891
▁स्पा	-11.7894
ब्ध	-11.7894
▁ताम	-11.7895
ेटेड	-11.7898
▁क्रास	-11.7901
सूचना	-11.7911
▁हमलों	-11.7912
▁उड़ने	-11.7913
▁सुरंग	-11.7914
▁फेडरेशन	-11.7915
▁मनपसंद	-11.7915
▁सल्फर	-11.7915
▁समेकन	-11.7915
▁ख़ुद	-11.7916
▁असहयोग	-11.7916
▁जन्तु	-11.7917
गुरु	-11.7924
ip	-11.7928
▁लापरवाही	-11.7931
▁बाईं	-11.7934
▁फंसा	-11.7936
तव्य	-11.7937
▁परामर्शदाता	-11.7939
▁उपनिषदों	-11.7939
▁विपक्षी	-11.7941
tic	-11.7943
▁इतर	-11.7946
तुंग	-11.7948
एनएस	-11.795
सीडी	-11.7954
म्बु	-11.7958
▁मिलाने	-11.7959
यदि	-11.7959
▁अनुग्रह	-11.7961
▁अर्ज	-11.7968
म्बे	-11.7973
जिस्ट	-11.7974
▁गां	-11.7977
तरण	-11.7979
▁धर्मनिरपेक्ष	-11.7979
▁उपमहाद्वीप	-11.7979
▁कॉर्पोरेट	-11.7979
▁तंबाकू	-11.7979
▁प्रोद्भूत	-11.7979
▁बुराइयों	-11.7979
▁मशहूर	-11.7979
▁प्रियव्रत	-11.798
▁ब्लॉग	-11.7981
▁दृष्टिगोचर	-11.7981
▁प्रास्थिति	-11.7981
▁शपथपत्र	-11.7981
▁धुरी	-11.7982
▁लज्जा	-11.7982
▁बिताने	-11.7982
▁वृषण	-11.7983
शब्द	-11.7984
▁गोलाकार	-11.7986
▁गाड़ियों	-11.7987
▁स्क्र	-11.7992
शिय	-11.7993
▁ज़िला	-11.7995
▁फिलीस्तीनियों	-11.7995
▁अनुशासनिक	-11.7998
वाड़ी	-11.8
▁अंदाज	-11.8001
▁सक्षमता	-11.8004
▁कुलीन	-11.8004
▁निष्क्रियता	-11.8007
▁छुट	-11.801
एमसी	-11.8012
ust	-11.8015
▁पथरी	-11.8015
▁मद्य	-11.8016
▁फास	-11.8017
▁औपचारिकता	-11.8017
▁उमर	-11.8025
दंत	-11.8026
▁अभिमान	-11.8037
काम	-11.8041
▁असमिया	-11.8043
▁ओडिशा	-11.8044
▁जिन्होने	-11.8044
▁मथुरा	-11.8044
▁स्थायित्व	-11.8044
▁असफ़ल	-11.8044
▁विलुप्त	-11.8044
▁ढाका	-11.8044
▁मूत्राशय	-11.8044
▁गुस्से	-11.8044
▁नॉर	-11.8045
▁कारखाना	-11.8045
▁वैश्वीकरण	-11.8046
▁गाँधीजी	-11.805
▁बेतार	-11.805
▁झांक	-11.8052
▁मास्को	-11.8052
▁खंभ	-11.8056
▁जिम्मेवार	-11.8058
▁बाजू	-11.8063
▁प्रतिदाय	-11.8064
▁मंडी	-11.8065
▁पतल	-11.8066
▁प्रतिस्प	-11.8071
चित्त	-11.8072
SS	-11.8072
▁बढती	-11.8074
▁सकूं	-11.8079
▁प्रक्रियात्मक	-11.808
▁वाट	-11.8088
▁संचयन	-11.809
▁लालच	-11.8091
ES	-11.8091
▁संज्ञान	-11.8092
▁कूटनीति	-11.8092
▁बढने	-11.8093
▁प्रभावकारी	-11.8101
शक्त	-11.8104
▁फ़्ल	-11.8106
▁कॉन्फ़िगर	-11.8108
▁अराजकता	-11.8109
▁बिजनेस	-11.8109
▁उपादान	-11.8109
▁बेहोश	-11.8109
▁ध्वस्त	-11.8109
▁पैराग्राफ	-11.8109
▁पालतू	-11.8109
▁महोत्सव	-11.811
▁पैलेस	-11.811
▁साइबर	-11.811
▁बन्धक	-11.8111
▁गाना	-11.8112
▁गद्दी	-11.8113
▁बंगलादेश	-11.8113
▁बृहत	-11.8114
▁घारा	-11.8114
▁भारतवर्ष	-11.8116
▁मोदी	-11.8117
धारक	-11.8121
▁भाड़ा	-11.8122
▁होनेवाले	-11.8123
▁दीक्षित	-11.8123
▁सैं	-11.8123
▁आसीन	-11.8126
साहेब	-11.8129
▁मौजूदगी	-11.8131
▁सज़ा	-11.8132
▁हारान	-11.8135
▁बैंकर	-11.8135
पेशी	-11.8135
रूपेण	-11.8139
▁लिटर	-11.8141
▁किस्में	-11.8141
▁संरचनाओं	-11.8143
▁दवाई	-11.8144
▁जीविका	-11.8145
न्वित	-11.8147
▁आदतों	-11.8149
वलराम	-11.8154
पीएल	-11.8165
िनो	-11.8168
लीफ	-11.817
▁अंधविश्वास	-11.8174
▁क़ुरान	-11.8174
▁डीवीडी	-11.8174
▁सूडान	-11.8174
▁हेनरी	-11.8174
▁बुकमार्क	-11.8174
▁मांसपेशी	-11.8174
▁कस्टम	-11.8175
▁परिशिष्ट	-11.8175
port	-11.8176
▁कर्सर	-11.8177
▁चालान	-11.8179
्यूम	-11.8181
▁सरणी	-11.8181
▁अन्ततः	-11.8182
og	-11.8185
▁मनोविज्ञान	-11.8185
पुच्छ	-11.8186
▁कनिष्ठ	-11.8186
▁महीन	-11.8186
▁कूल्ह	-11.8186
▁अनुकरणीय	-11.8186
वहार	-11.8189
▁रखो	-11.819
▁तौल	-11.819
▁उगाने	-11.8191
▁नजदीकी	-11.8197
▁कविताएँ	-11.8198
▁महीना	-11.82
▁भूतकाल	-11.8208
▁शलभ	-11.8208
चिन	-11.8217
▁तद्	-11.8219
▁सज्जन	-11.8224
▁बिरू	-11.8231
व्यू	-11.8232
▁सैन	-11.8233
▁करूं	-11.8234
डियम	-11.8237
▁अमानवीय	-11.824
▁एनालॉग	-11.824
▁कंट्रोल	-11.824
▁चयापचय	-11.824
▁न्यूजीलैंड	-11.824
▁पांडिच	-11.824
▁फाइबर	-11.824
▁दोस्ती	-11.824
त्त्व	-11.824
our	-11.8241
▁आधिपत्य	-11.8242
ऊँगा	-11.8242
▁मसीह	-11.8243
▁निकालें	-11.8244
▁कारीगरों	-11.8245
▁दलदल	-11.8245
िर्	-11.8245
▁लिप्त	-11.8245
▁नर्सरी	-11.8246
▁ढंक	-11.8249
sp	-11.8251
▁व्यवस्थापक	-11.8252
▁साधारणतः	-11.8256
दीप्ति	-11.8258
▁सुखी	-11.8259
▁पहुंचती	-11.8261
वृक्ष	-11.8262
▁तस्वीरें	-11.8263
हनु	-11.827
▁ज़रा	-11.8275
▁सत्रह	-11.8277
हला	-11.8278
▁जलाने	-11.8281
▁मकबर	-11.8283
▁शरद	-11.8284
▁सड़कें	-11.8286
▁कक्षाओं	-11.8286
▁प्रबंधकों	-11.8287
▁अव्य	-11.8289
▁पंचायती	-11.829
इड	-11.829
▁असमान	-11.8293
▁जड	-11.8297
▁पढ़ी	-11.8297
▁नूर	-11.8297
▁खाया	-11.8299
▁कॉर्पोरेशन	-11.8306
▁ज़िम्मेदार	-11.8306
▁बर्खास्त	-11.8306
▁इस्तीफा	-11.8306
▁जॉर्डन	-11.8306
▁वानिकी	-11.8306
▁विवाद्यक	-11.8307
▁छिड़काव	-11.8307
▁चमड़े	-11.8308
▁पक्षाघात	-11.8308
▁रेखाचित्र	-11.8308
▁दयालु	-11.8308
▁पुनर्वित्त	-11.8309
िकाएं	-11.831
▁घेरा	-11.8312
▁स्टार्ट	-11.8313
कर्षण	-11.8318
सामान्य	-11.8319
▁साहसी	-11.8319
निर्णय	-11.8321
▁हावी	-11.8322
▁प्रतिशोध	-11.8323
▁स्टेट्स	-11.8323
ज्जत	-11.8324
▁कंधों	-11.8326
▁अर्थात्ः	-11.8326
▁अपूर्व	-11.8328
▁अंतरंग	-11.8335
▁कगार	-11.8335
▁न्यासी	-11.8338
▁बेचैन	-11.8338
्हो	-11.834
▁चुकाने	-11.8341
one	-11.8342
▁नरक	-11.8344
मेटिक	-11.8345
▁AB	-11.8347
ेटिव	-11.8349
▁अण्डे	-11.835
▁परिवर्तनीय	-11.8351
▁आलेखी	-11.8357
▁बहनों	-11.8363
्योर	-11.8369
▁निर्बाध	-11.8373
▁प्रकीर्ण	-11.8373
▁बैरिस्टर	-11.8373
▁सिलसिला	-11.8373
▁न्यायाधिकरण	-11.8373
▁संसाधित	-11.8373
▁सिकुड़	-11.8373
▁खेलते	-11.8373
▁प्रत्याशित	-11.8373
▁द्योतक	-11.8373
▁तरक्की	-11.8373
▁मनोनीत	-11.8374
▁अफवाह	-11.8374
▁बतौर	-11.8374
▁कारागार	-11.8375
▁अतिशय	-11.8375
▁संग्रहीत	-11.8378
▁विनाशकारी	-11.8378
▁मिनी	-11.838
▁शिरो	-11.8381
▁अभिदायों	-11.8381
▁हंसी	-11.8381
ोत्तम	-11.8382
ख़ाना	-11.8384
छिन्न	-11.8385
▁चीर	-11.8386
▁जायेंगी	-11.839
▁मानकीकरण	-11.8391
▁ड्यू	-11.8392
▁पड़ाव	-11.8396
▁उतरने	-11.8397
▁उन्मुक्ति	-11.8401
SA	-11.8402
▁शीट	-11.8405
▁लिपट	-11.8405
▁व्यतिक्रमी	-11.8408
ष्टा	-11.8412
सिफ	-11.8413
इंड	-11.8417
▁तीर्थयात्र	-11.8422
▁दाने	-11.8423
बॉक्स	-11.8424
▁स्टीव	-11.8424
▁करोड़े	-11.8437
▁उत्सर्जित	-11.844
▁अनुपयुक्त	-11.844
▁गोखले	-11.844
▁परात्पर	-11.844
▁पाण्डव	-11.844
▁सम्मिलन	-11.844
▁रबड़	-11.844
▁बताओ	-11.844
▁खातिर	-11.844
▁सहनशीलता	-11.8441
▁गवाही	-11.8442
▁मातृत्व	-11.8442
▁जत	-11.8442
▁उद्यमशीलता	-11.8443
▁बदतर	-11.8443
▁ईराक	-11.8443
▁pro	-11.8444
▁स्वदेश	-11.8444
▁अभिभूत	-11.8447
दयाल	-11.8448
▁मध्यकालीन	-11.8449
▁धड़कन	-11.8449
▁बिताया	-11.8452
▁दुविधा	-11.8453
ोदय	-11.8453
▁परोपकार	-11.8455
▁सज्जनो	-11.8456
▁इमारतें	-11.8456
▁पहनते	-11.846
log	-11.8461
▁धीमा	-11.8468
पीए	-11.847
▁भै	-11.847
जिसपर	-11.847
▁कार्रवाइयों	-11.8471
▁गोपुर	-11.8472
▁चलाये	-11.8488
▁गुजरना	-11.8493
▁बारीकी	-11.8494
▁प्रश्नगत	-11.8499
ana	-11.85
▁परिवर्तनशील	-11.8501
▁चबा	-11.8502
▁अत्याधुनिक	-11.8507
▁अफसोस	-11.8507
▁इंग्लैण्ड	-11.8507
▁डेमोक्रेट	-11.8507
▁तम्बाकू	-11.8507
▁हकीकत	-11.8507
▁किंगडम	-11.8508
▁फ्लैट	-11.8508
▁अभिवचन	-11.8509
▁हिचक	-11.8509
▁अन्ना	-11.851
▁कारोबारी	-11.8513
▁क्रान्ति	-11.8513
▁इरादे	-11.8515
बोल	-11.8517
▁मैल	-11.8519
▁बीमाकृत	-11.852
वाड़ा	-11.8522
▁त्यों	-11.8524
▁प्रयोजनार्थ	-11.8525
▁कंपन	-11.8526
ou	-11.8526
▁सचाई	-11.8526
▁कमाई	-11.8527
▁अरु	-11.8533
परिभाषित	-11.8534
▁सम्ब	-11.8535
ax	-11.8537
▁अभ्यर्थ	-11.8537
▁प्रान्तीय	-11.8538
▁जहाज़	-11.8538
▁अवयवों	-11.8546
ाइयां	-11.8553
▁आयतन	-11.8555
▁बुध	-11.8559
▁टोप	-11.8566
▁मंज	-11.8574
▁कलकत्ते	-11.8575
▁गवर्नमेंट	-11.8575
▁मेधावी	-11.8575
▁पहेली	-11.8575
▁मैनुअल	-11.8576
▁क्रॉस	-11.8576
▁बाधक	-11.8577
▁भाजक	-11.8577
▁प्रवक्ता	-11.8577
▁समष्टि	-11.8578
▁विजयनगर	-11.8579
▁पर्दे	-11.8581
▁पलक	-11.8582
▁संवर्धित	-11.8582
लिब	-11.8586
▁ड्रग	-11.8589
▁अतुल	-11.8589
▁सुस्त	-11.8594
▁काव्यात्मक	-11.8594
▁मताधिकार	-11.8595
मिति	-11.8601
पेर	-11.8603
▁चिकित्सकीय	-11.8606
लियम	-11.8609
▁निपटाने	-11.8613
गेट	-11.8614
▁विरचना	-11.862
▁स्वत	-11.862
▁गिनी	-11.8624
▁बंधा	-11.8627
▁लौटते	-11.8633
टिक्स	-11.8633
वर्त्त	-11.8635
फ़्ट	-11.864
▁चिट्ठी	-11.8644
▁दुर्योधन	-11.8644
▁पाउडर	-11.8644
▁पिक्सेल	-11.8644
▁विवादास्पद	-11.8644
▁उपदर्शित	-11.8644
▁पुजारी	-11.8644
▁कर्मकांड	-11.8644
▁क्षितिज	-11.8644
▁हवेली	-11.8644
▁जबर्दस्त	-11.8644
▁उन्माद	-11.8644
▁पसीना	-11.8644
▁मुजरा	-11.8644
▁मुहावर	-11.8644
▁स्टार्टअप	-11.8644
▁दुर्व्यवहार	-11.8644
▁मार्शल	-11.8644
▁प्लेटफार्म	-11.8644
द्रष्टा	-11.8644
▁पेयजल	-11.8645
▁संभ	-11.8645
▁चूँक	-11.8645
▁हितलाभ	-11.8646
▁एकमेव	-11.8647
▁गुप्तचर	-11.8649
▁चमकदार	-11.8651
▁प्रसिद्धि	-11.8657
▁नीरस	-11.8658
वादिता	-11.8658
▁संजीव	-11.866
बानी	-11.8661
▁ब्ला	-11.8668
▁सिखाने	-11.867
▁खाँ	-11.8673
ug	-11.8676
▁व्यतिक्रम	-11.8676
एसटी	-11.8677
▁नजरिया	-11.8679
▁एरिया	-11.868
▁कार्यबल	-11.8685
श्वास	-11.8685
देशीय	-11.8686
▁फ्रै	-11.8694
▁पूर्णांक	-11.8694
▁ऊब	-11.8695
▁अवस्थिति	-11.87
▁विस्ता	-11.8702
बन्धु	-11.8702
▁खींचा	-11.8703
▁जबरदस्ती	-11.8705
▁अविश्वसनीय	-11.8713
▁ओड़िसा	-11.8713
▁कंप्यूटिंग	-11.8713
▁गणमान्य	-11.8713
▁वेशभूषा	-11.8713
▁हज़रत	-11.8713
▁जादुई	-11.8713
ace	-11.8713
▁डायरेक्ट	-11.8713
▁निश्चल	-11.8713
▁फॉन्ट	-11.8714
▁अन्तरात्मा	-11.8714
▁आयताकार	-11.8714
▁ग्राह्य	-11.8715
▁तुल्य	-11.8715
▁परिसंपत्तियां	-11.8716
▁फैशन	-11.8716
▁गूंज	-11.8716
▁कूड़ा	-11.8717
स्टिंग	-11.872
▁खुलासा	-11.8721
▁शमन	-11.8724
▁भक्तों	-11.8724
▁उपनिषद्	-11.8727
▁मरे	-11.8728
▁विभूति	-11.8729
▁अम्लीय	-11.8729
▁गलियों	-11.8731
▁परीक्षाओं	-11.8733
ET	-11.8737
्युल	-11.8739
▁रिपोर्टिंग	-11.8742
▁दीवारें	-11.8747
पीआर	-11.8748
▁झगड़ा	-11.8752
▁जहरील	-11.8758
▁संगठनात्मक	-11.876
▁कार्ल	-11.8766
▁इंडो	-11.8772
निवेश	-11.8774
बूल	-11.8776
▁फैलाव	-11.878
▁आमंत्रण	-11.8782
▁दशरथ	-11.8782
▁भर्त्सना	-11.8782
▁वर्चुअल	-11.8782
▁हस्तांतरित	-11.8782
▁पार्वती	-11.8782
▁बगीचे	-11.8782
▁इलैक्ट्रानिक	-11.8782
▁उखाड़	-11.8782
▁निराश्रित	-11.8782
▁गन्ने	-11.8783
▁बूढ़ा	-11.8783
▁शंकराचार्य	-11.8783
▁उद्देशिका	-11.8783
▁लालटेन	-11.8785
▁विध्वंस	-11.8785
▁बल्ले	-11.8785
▁असत्य	-11.8788
▁कंस	-11.8791
▁उब	-11.8795
▁सचिन	-11.8797
▁आर्द्रता	-11.8797
▁ऋणदाता	-11.88
▁दाहिने	-11.8801
▁चढ़ाई	-11.8802
▁कूच	-11.8804
▁सहाय	-11.8805
▁नामनिर्देशिती	-11.8807
▁ढूंढने	-11.8807
▁परिणामतः	-11.881
▁जुड	-11.8811
व्र	-11.8816
निर्धारित	-11.882
▁सहसा	-11.8822
▁सीरम	-11.8824
▁महादेव	-11.8824
▁वऋ	-11.8824
ईपी	-11.883
▁रेंज	-11.883
हिया	-11.8836
लंघन	-11.8844
फेर	-11.8846
AL	-11.8851
▁ईसाइयों	-11.8852
▁कैल्शियम	-11.8852
▁धरातल	-11.8852
▁महत्वाकांक्षी	-11.8852
▁मुमकिन	-11.8852
link	-11.8852
▁चौबीस	-11.8852
▁फ़िल्टर	-11.8852
▁ओजोन	-11.8852
▁प्रांगण	-11.8852
▁कालिदास	-11.8852
▁बक्से	-11.8852
▁अभ्यावेदन	-11.8852
▁फाइनल	-11.8852
▁बुनकर	-11.8852
▁जठर	-11.8852
▁ब्लेयर	-11.8853
▁पितृ	-11.8853
▁जघन	-11.8853
ट्रिक	-11.8853
▁ऑक्स	-11.8857
▁इनाम	-11.8859
क्षय	-11.886
▁प्रवण	-11.886
▁विस्थापित	-11.8861
▁टिप्पणिय	-11.8862
▁क्रमबद्ध	-11.8863
▁तारक	-11.8865
▁प्राक्	-11.8867
▁बलपूर्वक	-11.8872
▁प्लान	-11.8873
ary	-11.8875
परायण	-11.8876
▁आरोह	-11.8877
▁हाइड्रो	-11.8878
▁ब्लू	-11.8881
▁सूक्ष्मजीव	-11.8886
्ज्ञ	-11.8887
ठित	-11.8888
सत्ता	-11.8889
▁सीढ़िय	-11.8891
▁सीखते	-11.8894
“	-11.8894
▁सम्बंधी	-11.8895
AR	-11.8895
पीपी	-11.8899
▁देवियो	-11.89
एँगे	-11.89
▁विनम्रता	-11.8901
▁तना	-11.8906
ंजर	-11.8909
▁ठण्ड	-11.8912
▁निष्पक्षता	-11.8913
भेड़ों	-11.8914
▁सैक	-11.8917
▁रजिस्ट्री	-11.8921
▁इन्टरनेट	-11.8923
▁काउंटी	-11.8923
▁बेवकूफ	-11.8923
▁संवीक्षा	-11.8923
▁समसामयिक	-11.8923
▁हस्पताल	-11.8923
▁थोरियम	-11.8923
▁बलात्कार	-11.8923
▁शिकागो	-11.8923
▁मालदीव	-11.8923
▁बंधपत्र	-11.8923
▁स्टेडियम	-11.8923
▁तिलहन	-11.8924
▁छुड़ा	-11.8925
▁सूत्रपात	-11.8925
ाधार	-11.8925
▁भरतपुर	-11.8926
▁उपांतरण	-11.8927
▁कागजात	-11.8927
▁लीज	-11.8928
▁बट्टा	-11.8928
▁भाईचार	-11.8929
▁जोड़ते	-11.893
▁संगृहीत	-11.8931
▁स्वास्थ	-11.8931
▁दुःखी	-11.8936
▁वचनबद्ध	-11.8938
▁कल्याणकारी	-11.8939
▁गन्ध	-11.8939
▁पीपल	-11.894
▁परिकलन	-11.894
▁Te	-11.8941
▁संघटन	-11.8941
थान	-11.8945
हाद	-11.8948
▁नतीजे	-11.8951
लिफ	-11.8952
▁कैम	-11.8964
▁सितार	-11.8971
nic	-11.8971
▁अंकन	-11.8978
कंप	-11.898
भवन	-11.8984
▁वादक	-11.8985
▁चेर	-11.8987
▁पुकारा	-11.8988
्रेशन	-11.8991
▁परिक्रमा	-11.8994
▁अभिशाप	-11.8994
▁फ़रीद	-11.8994
▁सादगी	-11.8994
▁झटके	-11.8994
▁कड़ियाँ	-11.8994
▁सरोकार	-11.8994
कल्चर	-11.8995
▁गेटवे	-11.8996
▁वेदान्त	-11.8996
▁डाकघर	-11.8998
▁क्रियाविधि	-11.8999
▁लाओ	-11.9
▁सीढ़ी	-11.9004
▁अधिगम	-11.9004
बिस	-11.9007
▁भगा	-11.9012
▁संभाला	-11.9012
▁रूढ़ि	-11.9013
▁पद्धतियां	-11.9013
▁ऑप	-11.9013
स्से	-11.9015
▁स्पंद	-11.9018
▁कुकी	-11.9019
▁रीडर	-11.902
▁प्रशिक्षक	-11.9023
▁टंक	-11.9027
पयोगी	-11.9028
्विन	-11.9028
▁कागज़	-11.9034
बन्दी	-11.9034
आईए	-11.9035
▁अन्तरित	-11.9039
▁सांसदों	-11.904
▁आयातक	-11.9048
ंतु	-11.9048
▁लाइफ	-11.9052
▁यूं	-11.9056
पास	-11.9056
▁अभ्या	-11.9058
पिण्ड	-11.906
▁घाटे	-11.9061
▁पहुंचाना	-11.9063
मुक	-11.9064
▁आक्रोश	-11.9065
▁गवर्नेंस	-11.9065
▁ढाँचे	-11.9065
▁दरवाज़े	-11.9065
▁मॉरिशस	-11.9065
▁हार्मोन	-11.9065
▁डिब्बे	-11.9065
▁साबुन	-11.9065
▁अडिग	-11.9065
▁अंतर्वस्तु	-11.9065
▁प्रकोप	-11.9066
▁भीष्म	-11.9066
▁चौहान	-11.9066
▁टाउन	-11.9066
▁निराकरण	-11.9068
▁मीटिंग	-11.9069
ग्ध	-11.907
▁गुणांक	-11.9072
▁मौज	-11.9073
▁सपोर्ट	-11.9075
पंथी	-11.9076
सिम	-11.9079
संगत	-11.9085
▁सप्	-11.9087
▁आवृत	-11.9087
▁पदेन	-11.9091
▁शिक्षाविद	-11.9092
वर्थ	-11.9096
▁बेंच	-11.9096
▁बेरोजगार	-11.91
▁साढ़	-11.9102
एएस	-11.9105
उट	-11.9106
▁गुणसूत्रों	-11.911
mm	-11.9111
निध	-11.9111
▁धातुओं	-11.9121
▁बरसों	-11.9124
▁बहुविध	-11.9131
▁मसले	-11.9132
▁टूटी	-11.9133
▁क्षोभ	-11.9137
▁यौवन	-11.9137
▁विक्टोरिया	-11.9137
▁नक्काशी	-11.9137
▁सब्जियां	-11.9137
▁आईएसओ	-11.9137
▁समाशोधन	-11.9138
▁गर्भधारण	-11.9138
▁शरियत	-11.9138
▁मदिरा	-11.9138
▁विद्यापीठ	-11.9138
▁पशुपालन	-11.9138
▁स्लाइड	-11.9138
▁तालीम	-11.9138
▁स्वादिष्ट	-11.9138
कर्मियों	-11.9141
▁मनीष	-11.9145
▁प्रौ	-11.9147
▁मददगार	-11.9148
▁विसंगति	-11.9149
▁शेल	-11.915
ग़ा	-11.9152
▁मूर	-11.9155
▁किरणों	-11.9155
ङ्क	-11.9158
डऋए	-11.9161
▁डिफ	-11.9162
▁इंट	-11.9167
▁अंगुलि	-11.9167
स्पद	-11.9175
eb	-11.9175
▁एकाग्रता	-11.9178
▁विरोधियों	-11.9182
▁अमुक	-11.9183
द्रोह	-11.9184
▁घण्टे	-11.9197
▁घिरे	-11.9198
▁खिलाड़	-11.92
▁आलम	-11.92
▁नवयुवक	-11.9209
▁निःस्वार्थ	-11.9209
▁प्यूपा	-11.9209
▁सल्तनत	-11.9209
▁मसालों	-11.9209
▁नदियाँ	-11.921
▁चन्दु	-11.921
▁दीपावली	-11.921
▁विपुल	-11.9211
▁कुपोषण	-11.9211
▁pr	-11.9211
▁महामारी	-11.9212
मिज़ाज	-11.9215
▁आन्तर	-11.9215
▁दुर्भाग्यपूर्ण	-11.9216
▁भतीज	-11.9216
▁अमूल्य	-11.9216
रूआ	-11.9218
▁प्रतिधारित	-11.9221
▁डाई	-11.9223
▁मँ	-11.9229
▁बहाने	-11.923
▁श्रीनगर	-11.9235
▁खुलकर	-11.924
▁भाल	-11.9242
▁गार्डन	-11.9244
▁कुंजीपट	-11.9244
▁रिक्तियों	-11.9245
ome	-11.9246
▁खाका	-11.9249
कारिता	-11.9254
विचार	-11.9261
▁ठग	-11.9265
▁अलवा	-11.9267
▁उसमे	-11.9267
विधाओं	-11.9271
▁उत्खनन	-11.9282
▁इंजेक्शन	-11.9282
▁बीकानेर	-11.9282
▁मधुमक्खी	-11.9282
▁आवागमन	-11.9282
▁डिब्बा	-11.9282
▁लन्दन	-11.9282
▁निरहता	-11.9283
▁विखंडन	-11.9283
▁ऐंठन	-11.9283
▁नेहरु	-11.9283
▁बिगाड़	-11.9283
▁अंगूठ	-11.9283
▁लैटिन	-11.9283
▁संस्थापना	-11.9283
▁नौवहन	-11.9283
▁हैल्थ	-11.9284
▁सन्तोष	-11.9284
▁अनंतिम	-11.9284
▁लह	-11.9286
▁फैक्स	-11.9287
▁नाकाम	-11.9288
▁कहो	-11.9289
▁टिप्पणियां	-11.9291
▁हारा	-11.9291
▁ताकतवर	-11.9292
▁किफायती	-11.9295
▁उत्स	-11.9297
▁सहबद्ध	-11.9302
▁अनियमितता	-11.9306
▁अर्थव्य	-11.9307
▁बुझ	-11.9308
▁ब्याह	-11.9308
ुंब	-11.9313
▁आसफ	-11.9317
▁नरेन्द्र	-11.9318
▁गड़बड़	-11.9319
ईजीपी	-11.9321
िश्च	-11.9322
▁बसंत	-11.9325
▁नेटवर्किंग	-11.9332
ोलॉजी	-11.9333
प्रकाश	-11.9334
ग्रन्थ	-11.9335
▁चालन	-11.9338
▁उसपर	-11.9339
▁थकान	-11.9343
▁व्यवहारिक	-11.9347
▁अपरा	-11.9348
▁विद्रोही	-11.9351
▁छूत	-11.9353
ानुभूति	-11.9355
▁इंसुलिन	-11.9356
▁द्रौपदी	-11.9356
▁परिकल्पित	-11.9356
▁संवितरण	-11.9356
▁निलंबन	-11.9356
▁अजनबी	-11.9356
▁पुतली	-11.9356
▁उपायुक्त	-11.9356
▁मेहमान	-11.9356
▁अनूदित	-11.9356
▁प्रतियोगी	-11.9356
▁बॉम्बे	-11.9356
▁ख़राब	-11.9356
▁कीजिये	-11.9357
▁नालंदा	-11.9357
▁अर्हक	-11.9357
▁आज्ञापक	-11.9357
▁मनोवृत्ति	-11.9357
▁कराची	-11.9361
▁स्थितियां	-11.9361
▁हमलावर	-11.9362
▁उदारवादी	-11.9362
▁कलाप	-11.9364
▁सोचती	-11.9364
ूँगी	-11.9365
▁पूर्णिमा	-11.9366
▁प्रदूषकों	-11.937
ens	-11.9371
बिट	-11.9371
▁विश्वासघात	-11.9372
▁दंगे	-11.9375
▁शिल्पकार	-11.9375
▁डिपो	-11.9375
▁उपदान	-11.9376
▁गोलमे	-11.938
▁दोषपूर्ण	-11.938
▁पेशियों	-11.9387
▁थल	-11.9388
दिल	-11.9389
▁एकाग्र	-11.9389
▁रचा	-11.9391
▁पोप	-11.9398
▁सदाचार	-11.9401
पुष्ट	-11.9401
▁रिश्ता	-11.9402
▁निर्धारक	-11.9402
▁प्रलेखन	-11.9403
▁आयेगा	-11.9404
तत्व	-11.9404
▁अधिष्ठा	-11.9409
डीआर	-11.941
त्याग	-11.9413
▁अर्क	-11.9419
धिकरण	-11.9423
▁उघ	-11.9424
▁ऑप्टिकल	-11.943
▁क़ानून	-11.943
▁देहरादून	-11.943
▁फ़रवरी	-11.943
▁संस्मरण	-11.943
▁हुक्म	-11.943
▁पायलट	-11.943
▁मक़्ख	-11.943
▁संबन्धी	-11.943
▁रमेश	-11.943
▁क्षत्रिय	-11.943
▁शौर्य	-11.943
▁मोतीलाल	-11.943
▁रूढि	-11.9431
▁अतिशेष	-11.9432
▁अल्पकालीन	-11.9433
▁राणा	-11.9434
▁समझदार	-11.9435
▁प्रतिभूतियां	-11.9438
▁बायोमा	-11.9438
▁पश्	-11.9439
▁परिसंपत्तिय	-11.9441
▁वज़न	-11.9441
▁जनहित	-11.9441
्चा	-11.9442
▁भावात्मक	-11.9442
▁लीडर	-11.9447
▁ट्रैकर	-11.9448
▁शासनकाल	-11.9449
न्डर	-11.9454
▁विश्	-11.9461
▁अनिश्चितता	-11.9462
▁पुस्त	-11.9462
▁अकड़	-11.9464
▁पेट्रो	-11.9465
ite	-11.9466
▁गंग	-11.9472
yaa	-11.9473
ायड	-11.948
▁जिया	-11.9481
▁अभिदाता	-11.9481
▁छिड़	-11.9481
डऋई	-11.9482
▁संगति	-11.9484
एसएम	-11.9486
▁लेगी	-11.9497
▁खडी	-11.95
▁केंद्रशास	-11.9501
▁ताला	-11.9502
▁सुशील	-11.9503
▁असंतुलन	-11.9505
▁कैलेंडर	-11.9505
▁खुजली	-11.9505
▁नैदानिक	-11.9505
▁पुनर्जागरण	-11.9505
▁प्रच्छन्न	-11.9505
▁सेंटीमीटर	-11.9505
▁अय्यर	-11.9505
▁रूकावट	-11.9505
▁थोडी	-11.9505
संतृप्त	-11.9505
▁कार्तिक	-11.9505
▁कांस्य	-11.9506
▁दोषमुक्त	-11.9507
▁ब्रह्माण्ड	-11.9507
▁रक्तस्राव	-11.9507
▁पृष्ठांकन	-11.9508
लहरी	-11.9508
▁लड़े	-11.9509
▁सौहार्दपूर्ण	-11.951
▁क्रियाएं	-11.9511
▁कृतज्ञता	-11.9512
▁लैन	-11.9512
▁ठिकान	-11.9516
▁सूझ	-11.9518
फेयर	-11.9519
▁डायल	-11.952
▁हटाएँ	-11.952
धातु	-11.9521
▁बाएँ	-11.9521
▁आईपीसी	-11.9522
▁लालसा	-11.9523
ोत्पादक	-11.9528
▁अस्पृश्यता	-11.953
श्रु	-11.9532
▁दीपू	-11.9532
ुल्ला	-11.9536
eat	-11.9541
▁स्वायत्तता	-11.9541
nc	-11.9542
ष्ठित	-11.955
▁बुलाने	-11.9552
▁काटकर	-11.9555
पृष्ठ	-11.9562
▁वेल्	-11.9564
▁आशयित	-11.9573
पीवी	-11.9574
▁सोल	-11.9574
▁रोमांच	-11.9578
▁कमोडिटी	-11.958
▁गोदावरी	-11.958
▁तादात्म्य	-11.958
▁सज्जित	-11.958
▁फेफड़े	-11.958
▁संगमरमर	-11.958
▁पुथल	-11.958
▁बीबीसी	-11.958
▁नब्बे	-11.958
▁चात्रिक	-11.9581
▁दण्डादेश	-11.9581
▁अभ्यस्त	-11.9582
▁द्वास	-11.9582
▁वेदांत	-11.9582
▁राजकोषीय	-11.9583
▁चोंच	-11.9583
आईएल	-11.9584
▁चित्रकला	-11.9585
▁ब्रेक	-11.9587
▁श्रोता	-11.9588
▁बफर	-11.9589
▁गूढ़	-11.9589
▁गेंदबाजी	-11.9591
▁होंठ	-11.9593
प्ली	-11.9594
र्बो	-11.9596
▁विद्युतीकरण	-11.9604
▁धीमे	-11.9609
▁भजन	-11.9609
भ्र	-11.9615
▁संजो	-11.9615
▁शौ	-11.9616
पिन	-11.9619
▁बनेगी	-11.9621
▁अड्ड	-11.9623
ME	-11.9636
▁मसलन	-11.964
able	-11.9645
▁समझें	-11.9646
▁डट	-11.9652
▁बेचे	-11.9652
▁अनभिज्ञ	-11.9656
▁निरंकुश	-11.9656
▁यथोचित	-11.9656
▁स्टांप	-11.9656
▁key	-11.9656
स्फुट	-11.9656
▁उष्म	-11.9656
▁फँस	-11.9657
▁करोगे	-11.9657
▁श्रृंगार	-11.9658
▁नरसिंह	-11.9658
हाने	-11.966
▁अवसान	-11.966
▁विस्थापन	-11.9662
प्रेषित	-11.9664
▁सर्च	-11.9669
विद्य	-11.9669
▁पंक	-11.967
▁आदी	-11.9671
▁नायर	-11.9672
़्य	-11.9674
▁हक़	-11.9678
▁क्षेत्राधिकार	-11.968
▁यूनि	-11.9682
संरचना	-11.9684
▁संन्यासी	-11.9685
▁फेंकने	-11.969
▁मिलाया	-11.9693
▁डच	-11.9697
रोट	-11.9702
▁नीचा	-11.9708
▁बढ़त	-11.9715
▁ठाक	-11.9716
▁आपूर्तिकर्ता	-11.9719
छिपी	-11.9724
▁ट्रक	-11.9725
▁सुप्र	-11.9729
▁इलेक्ट्रॉ	-11.9731
▁आनुषंगिक	-11.9732
▁एजेंसियां	-11.9732
▁कॉरपोरेट	-11.9732
▁टैरिफ	-11.9732
▁मुस्कुरा	-11.9732
▁पीढी	-11.9732
▁नितांत	-11.9732
▁शिक्षार्थियों	-11.9732
गै	-11.9732
▁चक्रवात	-11.9733
▁अंतरफलक	-11.9733
▁राजद्रोह	-11.9734
▁मैनेजर	-11.9734
▁पुनर्जीवि	-11.9735
▁डीजल	-11.9741
्दु	-11.9744
▁निवृत्ति	-11.9744
▁शहीद	-11.9746
पिंड	-11.9746
▁छपी	-11.9746
वेत्ता	-11.9751
▁आत्मनिर्भरता	-11.9756
▁मैक्स	-11.9756
▁बाध्यताओं	-11.9757
▁कंज	-11.9761
▁अनू	-11.9761
नेत्र	-11.9761
्विक	-11.9763
▁सोचो	-11.9764
▁शुक	-11.9771
▁मिड	-11.9771
▁राशियां	-11.9773
टेक्स	-11.9773
▁झड़	-11.9774
▁तर्ज	-11.9776
▁डरा	-11.9779
▁सुगमता	-11.9779
स्ट्रा	-11.9781
und	-11.9784
▁तैल	-11.9787
▁अभिमुख	-11.9789
▁जिम्मे	-11.979
▁प्रेत	-11.9793
▁संलग्नक	-11.9794
▁रश	-11.9804
▁मैनें	-11.9804
▁टूर	-11.9805
▁कन्नड	-11.9807
▁अन्तर्विष्ट	-11.9809
▁खिड़किय	-11.9809
▁पुरःस्थापित	-11.9809
▁प्राक्कलन	-11.9809
▁माइक्रोसॉफ्ट	-11.9809
▁प्रफुल्ल	-11.9809
▁सविनय	-11.9809
▁कदाचित	-11.9809
▁छद्म	-11.9809
▁बारंबार	-11.9809
▁ज्वालामुखी	-11.9809
▁ख़ुश	-11.9809
न्हा	-11.9809
▁शरणार्थी	-11.9809
▁क्षयरोग	-11.981
▁तंबू	-11.981
▁सिंहासन	-11.981
▁नेटाल	-11.9811
▁सुन्नी	-11.9811
▁लेखांकन	-11.9811
▁प्याज	-11.9811
▁सूक्ष्मदर्शी	-11.9811
▁संपरीक्षा	-11.9811
▁शकुन	-11.9812
▁उंगलिय	-11.9812
▁ईसवी	-11.9813
स्वरुप	-11.9813
▁कॉयर	-11.9814
कुंच	-11.9817
▁इष्ट	-11.982
fer	-11.9821
तूर	-11.9827
ions	-11.9845
▁प्रवृत	-11.9846
▁परहेज	-11.9847
▁धोने	-11.985
बीजाणु	-11.9854
▁श्रीमान	-11.9854
▁पत्ता	-11.9856
तोष	-11.9862
दंश	-11.9865
▁शती	-11.9866
▁स्वाधीन	-11.9871
श्ल	-11.9872
▁टीकरण	-11.9873
ग्रंथ	-11.9875
▁हटाकर	-11.9876
▁वचनबद्धता	-11.9876
▁विचारणीय	-11.9876
▁सुगंध	-11.9881
▁सुपुर्द	-11.9885
▁उत्तेजक	-11.9886
▁ऋग्वेद	-11.9886
▁कुक्कुट	-11.9886
▁डेवलपमेंट	-11.9886
▁थॉमस	-11.9886
▁मूंगफली	-11.9886
▁मुग़ल	-11.9886
▁कुलाध्यक्ष	-11.9886
▁अभिनंदन	-11.9886
▁कुवैत	-11.9886
▁स्टाम्प	-11.9886
▁नफरत	-11.9886
जिह्वा	-11.9887
▁वज्र	-11.9887
▁सर्वव्यापी	-11.9888
▁विषैल	-11.9888
▁सेटअप	-11.9888
▁माथे	-11.9889
▁एप्पल	-11.9889
▁गाया	-11.989
▁जूनियर	-11.9892
▁ठेल	-11.9892
▁मिस्टर	-11.9892
▁परिधान	-11.9892
▁पायेंगे	-11.9893
▁प्रियतम	-11.9895
▁अन्यायपूर्ण	-11.9895
▁प्राइम	-11.9895
▁अलौकिक	-11.9896
▁अवचार	-11.9896
फ्लो	-11.9903
▁स्वशास	-11.9903
खर्च	-11.9904
▁स्थानापन्न	-11.9905
▁सीसा	-11.9905
▁कपाल	-11.9906
▁बंटा	-11.9907
शोष	-11.9907
▁मराठा	-11.9908
▁शासी	-11.9909
▁प्राकृत	-11.9914
बाँ	-11.9924
▁वृष	-11.9925
षु	-11.993
▁खात	-11.994
▁कटे	-11.9942
▁फिल्में	-11.9943
▁जोसेफ	-11.9943
▁दानव	-11.9946
▁अंतर्वि	-11.9955
▁विकि	-11.9958
ere	-11.9962
▁श्रृंग	-11.9962
▁खली	-11.9963
बख्श	-11.9964
▁मुट्ठी	-11.9965
▁मिठाई	-11.9965
▁सॉल्वैंट	-11.9965
▁आगंतुक	-11.9965
▁मीयादी	-11.9965
▁मसाले	-11.9965
▁अस्सी	-11.9965
▁बहुमुखी	-11.9968
क्रान्त	-11.9968
▁जरूरतमंद	-11.9968
्रेट	-11.997
ice	-11.9971
संबंध	-11.9973
rat	-11.9974
▁ऑंकड	-11.9975
▁मामा	-11.9977
▁उपनगर	-11.9978
▁सोख	-11.9979
पुराण	-11.9981
▁संकलक	-11.9981
ायक	-11.9985
सिर	-11.999
bi	-11.9991
▁बटा	-11.9991
▁पृथ	-11.9994
▁निरोधक	-12.0002
▁तारीफ	-12.0005
इयाँ	-12.0007
ोग्राफी	-12.0007
ूंगी	-12.0014
वचन	-12.0017
क़्ट	-12.0018
▁दिलवा	-12.0023
गंगाधर	-12.0028
▁चलें	-12.0029
▁रिले	-12.0034
टर्न	-12.0039
स्वच्छ	-12.0043
▁अंकगणितीय	-12.0043
▁एडवोकेट	-12.0043
▁औरंगज़ेब	-12.0043
▁चिरस्थायी	-12.0043
▁टेक्नोलॉजी	-12.0043
▁बहरहाल	-12.0043
▁यूट्यूब	-12.0043
▁सिपाहिय	-12.0043
▁बरकरार	-12.0043
▁मह्त्व	-12.0043
▁अथारिटी	-12.0043
▁डाँट	-12.0043
▁नक्शे	-12.0043
▁परिपाटिय	-12.0044
▁धकेल	-12.0044
डब्यू	-12.0044
▁शूद्र	-12.0044
▁अधिशेष	-12.0045
▁सेनानी	-12.0048
▁पीसी	-12.0048
▁फिसल	-12.005
लोचन	-12.0052
एफसी	-12.0052
वृद्धि	-12.0053
ack	-12.0056
▁अस्तर	-12.0056
▁कीचड़	-12.0056
▁लचीला	-12.0058
▁लदान	-12.006
▁रबर	-12.0062
▁बजाने	-12.0064
▁अनजाने	-12.0064
▁प्रवर्ध	-12.0065
▁रिपब्लिकन	-12.0065
▁विशद	-12.0066
▁पत्निय	-12.0072
▁दिखला	-12.0075
▁दीमक	-12.0076
▁सजावटी	-12.0077
पट्ट	-12.0079
बोन	-12.0081
▁कार्यविधि	-12.0082
▁ग्रेन	-12.0085
av	-12.0091
▁विलग	-12.0095
▁चैन	-12.0103
▁शिक्ष	-12.0103
▁ठंडी	-12.0105
ाश्रय	-12.0105
▁सेवायें	-12.0105
▁सुई	-12.011
डीआई	-12.0115
▁टूटे	-12.0119
▁प्रचारक	-12.0119
▁अव्यवस्थित	-12.0123
▁दुष्प्रभाव	-12.0123
▁शनिवार	-12.0123
▁बैक्टीरिय	-12.0123
▁लम्बित	-12.0123
▁धारावाहिक	-12.0123
▁लड़कियां	-12.0123
▁स्वातंत्र्य	-12.0123
▁अन्तर्निहित	-12.0123
▁पठान	-12.0123
▁सप्लाई	-12.0123
▁कोलंबिया	-12.0123
▁तब्दील	-12.0123
▁इष्टतम	-12.0124
▁ऋजु	-12.0124
▁युवती	-12.0124
▁साझी	-12.0124
▁अंशकालिक	-12.0125
▁प्रशासित	-12.0126
end	-12.0127
▁मुक़्त	-12.0128
▁ढूँढ़	-12.0129
▁रजिस्ट	-12.0129
▁पूरब	-12.013
ine	-12.0136
▁स्कू	-12.014
▁बराक	-12.0142
▁झाड़ी	-12.0142
▁बायें	-12.0143
प्रेस	-12.0146
वीक्षण	-12.0147
क्श	-12.0148
▁स्मरणीय	-12.015
घ्र	-12.015
▁छांट	-12.0153
ार्बुद	-12.0154
प्राय	-12.0155
▁बसु	-12.0155
पल्ली	-12.0155
दलीय	-12.0157
▁स्क्व	-12.0162
▁ड़ाल	-12.0164
▁प्रविधि	-12.0168
▁उत्परिवर्त	-12.0169
र्त्त	-12.0169
▁मिटाना	-12.017
▁निर्दि	-12.017
▁घटकर	-12.017
▁पेरि	-12.0171
झर	-12.0173
▁खोने	-12.0174
पूरित	-12.0177
▁रचे	-12.0193
▁विराट	-12.0193
▁सुनाने	-12.0197
▁दैव	-12.02
▁उपरि	-12.0201
▁असंतुष्ट	-12.0203
▁आत्मघाती	-12.0203
▁उपसर्ग	-12.0203
▁धूसर	-12.0203
▁अध्यपेक्ष	-12.0203
▁रेखांकन	-12.0203
▁उल्लू	-12.0203
▁कतई	-12.0204
▁क्लस्टर	-12.0205
▁गोवर्धन	-12.0205
िज़्म	-12.0205
▁विनिर्देश	-12.0206
▁शंकु	-12.0206
▁उपरान्त	-12.0206
▁परिवर्धन	-12.0207
▁निपटारे	-12.0207
▁शक्ल	-12.0209
भारतीय	-12.0209
▁आत्मिक	-12.0209
▁हुयी	-12.0212
▁दायें	-12.0212
ical	-12.0213
▁रहेंगी	-12.0213
▁दात	-12.0214
टाइट	-12.0214
▁सोनिया	-12.0214
▁पहुँचाने	-12.0214
जन्म	-12.0216
▁विकट	-12.022
▁अभिव्य	-12.0224
बिंदु	-12.0224
▁वॉल	-12.0228
▁रायपुर	-12.0236
▁जगाने	-12.0237
▁बनेंगे	-12.0239
ree	-12.0241
▁कथाएं	-12.0245
gen	-12.0251
▁पाव	-12.0256
▁रवैय	-12.0263
▁फास्ट	-12.0263
▁सूंड	-12.0265
इया	-12.027
▁निकालते	-12.0275
▁बर्र	-12.0275
▁खरीददार	-12.0277
▁रवीन्द्र	-12.0283
▁असंगठित	-12.0283
▁कारपोरेशन	-12.0283
▁गठबन्धन	-12.0283
▁ज़िन्दगी	-12.0283
▁छावनी	-12.0283
▁लक्षद्वीप	-12.0283
▁उपहास	-12.0284
▁बुलबुल	-12.0284
▁द्वीपसमूह	-12.0284
▁विषाद	-12.0285
▁असम्भव	-12.0286
▁मध्यप्रदेश	-12.0286
▁हाइपर	-12.0287
▁भव्यता	-12.0288
▁इक्व	-12.0289
▁समामेलित	-12.029
▁बड़ै	-12.0291
▁गतिरोध	-12.0291
▁भालू	-12.0293
▁सरीख	-12.0298
da	-12.0305
▁नाममात्र	-12.0305
▁अधिष्ठान	-12.0306
भौतिक	-12.0308
त्न	-12.0309
▁आएंगे	-12.031
▁प्रोसेसर	-12.0311
▁पर्यवेक्षक	-12.0312
▁चिल	-12.0314
ath	-12.0316
ण्ण	-12.0317
ty	-12.0322
ंगुल	-12.0323
▁जवाबदेह	-12.033
▁सद्	-12.0335
▁रोष	-12.0335
▁जांघ	-12.0344
▁सोया	-12.0344
▁अवधी	-12.0345
▁झूठा	-12.0348
चित्रण	-12.0353
ix	-12.0355
▁ताश	-12.0356
▁मीठा	-12.0361
▁आतिथ्य	-12.0365
▁निर्वसीयत	-12.0365
▁प्रदुषण	-12.0365
▁मत्कुण	-12.0365
▁हतोत्साहित	-12.0365
▁बंग्ला	-12.0365
▁मुज्ह	-12.0366
▁एडवर्ड	-12.0366
ational	-12.0366
▁सीमाशुल्क	-12.0367
▁लडाई	-12.0368
▁इश्क	-12.0368
▁मनोबल	-12.0369
▁चाकू	-12.0369
▁अर्बुद	-12.0369
ांजलि	-12.0376
▁जलयान	-12.0377
लाईन	-12.0379
▁प्रक्रमक	-12.038
▁बाबर	-12.0381
▁अधिरचना	-12.0382
▁आदिवासियों	-12.0385
▁दुकानदार	-12.0386
आरएस	-12.0387
▁घाटा	-12.0394
▁गांधीवादी	-12.0396
▁चूह	-12.0398
▁कराये	-12.0399
▁कलश	-12.04
▁ढीला	-12.04
▁gt	-12.0401
▁क्रमश	-12.041
▁बेचैनी	-12.041
▁बचाना	-12.041
▁चाक	-12.0412
▁एजेंड	-12.0412
▁विंडोज	-12.0415
▁कराएं	-12.0416
BN	-12.0421
▁धुंध	-12.0422
▁खिसक	-12.043
▁माफी	-12.0431
▁खींचना	-12.0433
▁सिंक	-12.0437
▁बिंदुओं	-12.0442
▁प्वाइंट	-12.0447
▁मुआवजा	-12.0447
▁यूनेस्को	-12.0447
▁संगोष्ठी	-12.0447
▁एकमुश्त	-12.0447
▁नास्तिक	-12.0447
▁रास्तों	-12.0447
▁maoM	-12.0447
▁ऑफ़लाइन	-12.0447
▁स्कॉट	-12.0448
▁शरीक	-12.0448
▁प्रणाम	-12.0448
▁सूफ़ी	-12.0448
▁प्रदाय	-12.0448
▁करवाए	-12.0449
▁पठित	-12.0449
▁आर्डर	-12.0449
▁साइमन	-12.045
▁ऋन	-12.045
▁गंदगी	-12.0451
▁चिढ़	-12.0451
▁डिंब	-12.0451
▁टंकण	-12.0453
▁जिगर	-12.0454
▁बल्ब	-12.0455
▁पक्षधर	-12.0456
▁जलाशय	-12.0457
वसायिक	-12.0457
▁पठनीय	-12.0458
▁अभिहित	-12.0458
ायण	-12.046
▁अन्तराल	-12.046
TS	-12.0462
▁प्रणाल	-12.0464
▁ठहरे	-12.0469
▁बाट	-12.0469
लिस्ट	-12.0471
▁घटती	-12.0472
▁विदेशियों	-12.0474
▁बहुलता	-12.0485
▁रिपो	-12.0485
▁बावत	-12.0493
नतम	-12.0494
ीश्वर	-12.0494
िएट	-12.0501
जूद	-12.0501
▁रोशन	-12.0505
▁तनु	-12.0506
▁ऑपरेटर	-12.0509
खला	-12.0512
▁मशीनें	-12.0514
न्तु	-12.0514
डीएफ	-12.0516
ast	-12.0519
▁रचनाकार	-12.0522
▁लोभ	-12.0529
▁ज्वाला	-12.0529
▁ग्लूकोज	-12.0529
▁जिज्ञासु	-12.0529
▁नरसंहार	-12.0529
▁बर्दाश्त	-12.0529
▁स्क्वाड्रन	-12.0529
▁इक्कीस	-12.0529
▁विज़ेट	-12.0529
▁मुस्कान	-12.0529
▁सेलुलर	-12.0529
▁पार्टनर	-12.0529
▁घंटी	-12.0529
▁स्वयंसेवी	-12.0529
▁फूंक	-12.0529
▁दंगों	-12.053
▁कैलाश	-12.053
▁नशीली	-12.053
▁रॉयल	-12.053
▁मैक्रो	-12.0531
▁रोमांचक	-12.0532
▁अग्रभाग	-12.0532
▁परवलय	-12.0533
▁सभ्यताओं	-12.0534
▁उबर	-12.0537
▁ऑस्ट्रेलियाई	-12.0537
▁व्याधि	-12.0539
▁विशेषताएँ	-12.054
▁गौरवपूर्ण	-12.0542
▁कवरेज	-12.0543
▁रूद्र	-12.0546
▁अणुओं	-12.0546
▁निगल	-12.0547
▁मिलनी	-12.0548
▁उपनाम	-12.0549
▁स्वत्व	-12.0551
▁ठहरने	-12.0552
▁अप्रिय	-12.0553
▁बहुतायत	-12.0553
फेन	-12.0557
▁तानाशाही	-12.0563
मिश्रण	-12.0564
▁ढि	-12.0566
युग्म	-12.0566
ीयमान	-12.0574
कृमि	-12.0574
▁अग्रवाल	-12.0578
ऋआ	-12.058
▁छान	-12.0583
▁भुना	-12.0585
▁अंधा	-12.0588
प्रेम	-12.0593
▁कसम	-12.0595
▁सैंड	-12.0597
व्रत	-12.0597
▁महिन	-12.0606
▁हँसी	-12.0607
ग्वे	-12.0608
▁लक्ष	-12.0611
ौती	-12.0611
▁अनियंत्रित	-12.0613
▁अनुपलब्ध	-12.0613
▁ताल्लुक	-12.0613
▁निष्कासन	-12.0613
▁बाइंडिंग	-12.0613
▁बूझकर	-12.0613
▁भूमध्य	-12.0613
▁विन्यस्त	-12.0613
▁इंगलैंड	-12.0613
▁ऑर्डर	-12.0613
▁ईस्वी	-12.0613
▁भाग्यशाली	-12.0613
▁आवक	-12.0614
▁निष्फल	-12.0614
▁बीजगणित	-12.0614
▁प्रयोज्य	-12.0616
▁संवृद्धि	-12.0617
▁फोर्ट	-12.0617
▁दूँगा	-12.0618
▁शमनीय	-12.062
▁पत्राचार	-12.0621
विधान	-12.0623
▁प्रतिस्पर्द्धा	-12.0625
▁भाड़े	-12.0627
▁सेंसर	-12.0628
सिप	-12.0634
स्त्राव	-12.0636
▁गाड़	-12.0639
▁तेरे	-12.0645
▁उद्द	-12.0651
ेन्द्रनाथ	-12.0656
विकास	-12.0665
▁लिखीं	-12.0666
▁रेव	-12.067
▁बाबासाह	-12.067
▁बनाएगा	-12.0672
pt	-12.0676
▁पंत	-12.068
▁गृहस्थ	-12.0683
ref	-12.0691
▁समज्ह	-12.0696
▁अफ़्रीका	-12.0697
▁कशेरुका	-12.0697
▁गुटनिरपेक्ष	-12.0697
▁घुसपैठ	-12.0697
▁रक्षोपाय	-12.0697
▁रचयिता	-12.0697
▁विभाजक	-12.0697
▁सर्वशक्तिमान	-12.0697
▁सुविचारित	-12.0697
▁निर्बंधन	-12.0697
▁मसाला	-12.0697
▁तृप्त	-12.0697
▁निबटन	-12.0697
▁क्यूंकि	-12.0697
▁फकीर	-12.0697
▁आनलाइन	-12.0697
▁योग़्य	-12.0698
▁पैरामीटर	-12.0698
▁परास्त	-12.07
▁प्रासंगिकता	-12.0702
▁पूर्णकालिक	-12.0704
▁सुहा	-12.0704
▁यादगार	-12.0706
▁न्यूज़	-12.0707
ama	-12.0707
▁ढाई	-12.071
▁प्रस्तर	-12.0711
▁हाय	-12.0711
▁प्रकल्प	-12.0711
▁निम्नतम	-12.0713
▁प्रलय	-12.0713
▁कुंडल	-12.0717
▁लिबर	-12.0721
टीसी	-12.0724
कोटि	-12.0725
▁खदान	-12.0725
▁बहार	-12.0725
▁पूछते	-12.0728
▁प्रदर्श	-12.0732
▁गुजरते	-12.0735
▁अमीन	-12.0735
▁कार्यस्थान	-12.0737
▁अस्व	-12.0739
▁परम्पराओं	-12.0744
▁कंकाल	-12.0747
टर्स	-12.0749
▁प्रतिकृति	-12.075
ेण्ट	-12.075
▁गिने	-12.0758
▁लेखाकार	-12.0759
▁पूना	-12.0763
पट्टी	-12.0764
▁रूढ़	-12.0769
▁स्तनधार	-12.0779
▁अश्लील	-12.0781
▁pdf	-12.0781
▁एंजाइम	-12.0781
▁तेहरान	-12.0781
▁दुर्दशा	-12.0781
▁मरुस्थल	-12.0781
▁कस्बों	-12.0781
▁हिदायत	-12.0781
▁बुढ़ाप	-12.0781
▁नॉर्वे	-12.0781
▁थोडे	-12.0781
▁आयोजक	-12.0782
▁एजेन्ट	-12.0782
▁मोंटे	-12.0782
▁उद्ग्रहण	-12.0782
▁गोरे	-12.0782
▁सरसों	-12.0783
▁परिरक्षण	-12.0783
▁रैंक	-12.0783
▁सम्बोधि	-12.0783
▁कीटाणु	-12.0784
षिद्ध	-12.0784
▁लिफ्ट	-12.0784
rm	-12.0784
▁पृथक्करण	-12.0785
ke	-12.0787
▁ट्रेनिंग	-12.0787
▁यथार्थवादी	-12.0789
▁अमीरात	-12.079
▁पैकेजिंग	-12.0795
एसपी	-12.0797
▁कविराज	-12.0798
िएशन	-12.0801
हिन्द	-12.0801
▁वाटर	-12.0804
▁जटिलताओं	-12.0806
▁निहार	-12.0813
बंधु	-12.0814
▁पढने	-12.0815
▁उग्रवाद	-12.082
▁कमांडर	-12.082
▁बरती	-12.0824
होल्ड	-12.0824
▁यूनान	-12.0831
वस्तु	-12.0832
▁टिप	-12.0833
हाट	-12.0842
▁वैल	-12.0843
ोन्मुखी	-12.0844
▁ऐड	-12.0849
▁अभिजात	-12.085
▁राजसी	-12.0853
▁दोषसिद्ध	-12.0854
▁निदेशित	-12.0864
▁कैथ	-12.0864
▁क्वालिटी	-12.0867
▁तुल्यकालन	-12.0867
▁रोजमर्रा	-12.0867
▁वास्तुशिल्प	-12.0867
▁सर्वसम्मति	-12.0867
▁स्खलन	-12.0867
▁आराधना	-12.0867
▁तहसील	-12.0867
▁धमनियों	-12.0867
▁आख्यान	-12.0867
▁उभय	-12.0867
▁नार्वे	-12.0867
▁्यायपीठ	-12.0867
▁मुकर्जी	-12.0867
▁सियासी	-12.0867
▁प्लगइन	-12.0867
▁जार्डन	-12.0867
▁भिड़	-12.0867
▁विनती	-12.0868
▁अंतर्दृष्टि	-12.0868
▁नशे	-12.087
▁चाबी	-12.0877
▁भूखे	-12.0878
▁दाण्ड	-12.0878
विशेष	-12.0881
बेरी	-12.0887
▁अन्तर्ज्ञान	-12.0891
ind	-12.0893
▁कदर	-12.0893
पंथ	-12.0894
▁बुर्ज	-12.0894
▁वफादारी	-12.0901
निश्चित	-12.0906
तप्त	-12.0909
ग्रेड	-12.0916
▁देहांत	-12.0916
▁पेट्रोल	-12.0917
▁सजावट	-12.0918
▁असद	-12.0918
जहां	-12.0919
▁एडम	-12.0926
▁सकेंगी	-12.0929
ence	-12.0933
▁चाट	-12.0939
▁चिन्हित	-12.0946
▁बहुलवाद	-12.095
ोन्माद	-12.0953
▁आयोडीन	-12.0953
▁एचआईवी	-12.0953
▁ग्वालियर	-12.0953
▁चेन्नै	-12.0953
▁बढोतरी	-12.0953
▁मनोदशा	-12.0953
▁हिरासत	-12.0953
▁मोतियाबिंद	-12.0953
▁आंग्ल	-12.0953
▁ज़ूम	-12.0953
▁अविष्का	-12.0953
▁ग़ैर	-12.0954
▁टॉगल	-12.0954
▁विशेनज्ञ	-12.0954
▁बुल्ले	-12.0954
▁सोमनाथ	-12.0955
▁अजगर	-12.0956
▁भस्म	-12.0958
▁लेनिन	-12.096
▁दबाएँ	-12.0961
▁उपयुक़्त	-12.0961
▁प्रोटो	-12.0965
लेक्स	-12.0965
▁गन्ना	-12.0969
▁शयन	-12.0969
विद्वान्	-12.0974
▁दहन	-12.0976
ाएगी	-12.0981
▁war	-12.0982
▁उड़ते	-12.0982
▁निवृत्ती	-12.0984
▁चुस्त	-12.0992
▁गेम	-12.1
▁बिल्ल	-12.1004
पीआई	-12.1007
बाहु	-12.1007
तौर	-12.1011
वैद	-12.102
▁स्ट्रे	-12.1021
▁हस्ता	-12.1025
▁ट्राइ	-12.1031
EN	-12.1033
▁कृतज्ञ	-12.1037
▁BEGIN	-12.104
▁अंबेडकर	-12.104
▁अपवर्जन	-12.104
▁गर्मजोशी	-12.104
▁डाइऑक्साइड	-12.104
▁पिरामिड	-12.104
▁मज़बूत	-12.104
▁राउंड	-12.104
▁सफ़ेद	-12.104
▁आंरभ	-12.104
▁सशर्त	-12.104
▁निर्वासन	-12.104
▁आयरलैंड	-12.104
▁पैमाना	-12.104
▁मुमताज	-12.104
▁अनुष्ठाप	-12.104
▁क्लिनिक	-12.104
▁धंधा	-12.104
▁ममता	-12.1041
▁श्रुति	-12.1041
▁अदम्य	-12.1041
▁आरामदायक	-12.1041
▁शुरुवात	-12.1041
▁दांव	-12.1042
द्रुम	-12.1042
▁चमड़ी	-12.1042
▁नारे	-12.1043
▁ऑफसेट	-12.1043
▁सारभूत	-12.1044
▁अल्फा	-12.1044
▁गौड़	-12.1044
्दो	-12.1045
▁इच्छाशक्ति	-12.1045
▁स्प्रे	-12.1046
▁पाचक	-12.1047
▁उपबन्ध	-12.105
▁फटकार	-12.1054
कंठ	-12.1056
▁हरकत	-12.1058
out	-12.1059
▁चूज	-12.106
▁संक्रियाओं	-12.1062
▁संधार	-12.1064
▁फुटकर	-12.1065
▁साधित	-12.107
▁रचनाएँ	-12.1071
हाँ	-12.1088
hy	-12.1088
वर्ध	-12.1091
धीश	-12.1097
स्रोत	-12.1098
▁अशांति	-12.11
▁अंकीय	-12.1102
▁यूरो	-12.1103
▁सांप्रदायिकता	-12.1106
▁खोलकर	-12.1108
यक्ति	-12.1111
वेष्ट	-12.1114
वयन	-12.1126
▁अभिलाषा	-12.1128
▁इलेक्ट्रिक	-12.1128
▁डिजायन	-12.1128
▁परिचायक	-12.1128
▁पुरस्कृत	-12.1128
▁बृहद	-12.1128
▁मछलियां	-12.1128
▁मदुरै	-12.1128
▁रफ्तार	-12.1128
▁शिष्टाचार	-12.1128
▁संवर्द्धन	-12.1128
▁तकरीबन	-12.1128
▁सोशलिस्ट	-12.1128
▁शाहजहां	-12.1128
▁अप्पर	-12.1128
▁रगड़	-12.1129
▁स्याही	-12.1129
▁दुर्गंध	-12.1129
▁बदबू	-12.1129
▁वर्णमाला	-12.1129
▁इंजिन	-12.1131
▁चुम्बकीय	-12.1131
▁प्रस्तुतिकरण	-12.1131
▁निष्ठावान	-12.1132
▁अनुराग	-12.1132
▁प्रतिपरीक्षा	-12.1133
▁लाभार्थी	-12.1135
▁लचीले	-12.1139
रुग्णता	-12.114
▁गोस्वामी	-12.1141
▁बीमारियां	-12.1142
▁पारिस्थितिक	-12.1143
▁आयुध	-12.1143
वर्न	-12.1147
▁भूविज्ञान	-12.1148
▁संसूचना	-12.1152
▁बिम्ब	-12.1155
▁हनन	-12.1156
▁अवतर	-12.1156
▁संख्यात्मक	-12.116
▁सार्क	-12.1164
▁गोपन	-12.1169
▁विधिमान्यता	-12.117
▁प्रकटीकरण	-12.1171
▁ध्यानपूर्वक	-12.1174
वर्ट	-12.1176
▁लैस	-12.1181
▁छड़ी	-12.1185
▁मनाते	-12.1188
▁आयेंगे	-12.1189
एफआर	-12.1189
पोषण	-12.1192
▁बहते	-12.12
▁भाष्य	-12.1201
▁उनमे	-12.1203
▁घोट	-12.1207
▁छपे	-12.121
▁पैठ	-12.1211
▁इंतजाम	-12.1216
▁पार्थिव	-12.1216
▁भुवनेश्वर	-12.1216
▁रिश्वतखोरी	-12.1216
▁ठुकरा	-12.1216
▁तादाद	-12.1216
▁परिशुद्ध	-12.1216
▁प्रायश्चित	-12.1216
▁निवारित	-12.1216
▁विद्वेष	-12.1216
▁खिताब	-12.1216
▁प्रचालक	-12.1216
▁बहरीन	-12.1216
▁अंतर्देशीय	-12.1217
▁तुलसीदास	-12.1217
▁प्रोटोकाल	-12.1217
▁वाक्यांश	-12.1217
▁कल्पित	-12.1217
▁राष्ट	-12.1218
▁अधीर	-12.1218
▁जननांग	-12.1219
▁तितलिय	-12.1219
रोहित	-12.1221
▁होशियार	-12.1221
▁भूजल	-12.1221
▁मनमोहन	-12.1222
▁मध्यवर्ग	-12.1224
▁देशबन्धु	-12.1227
▁तलाक	-12.1228
▁घृणापूर्ण	-12.123
▁जलमार्ग	-12.1231
▁आनु	-12.1231
▁मूस	-12.1234
▁राजराज	-12.1237
▁समागम	-12.1238
▁नाविक	-12.1241
▁खामिय	-12.1242
▁अम्बा	-12.1248
व्यवहार	-12.125
▁प्रदाताओं	-12.1251
▁लायी	-12.1252
▁तनिक	-12.1253
▁अनिल	-12.1254
man	-12.1255
TR	-12.1263
▁चूहे	-12.1264
वधि	-12.1273
▁मंगा	-12.1274
सीएम	-12.1277
भक्त	-12.1279
आउट	-12.1279
▁शतक	-12.128
▁चूना	-12.1281
▁तेग	-12.1281
▁यक्ष	-12.1282
▁क़्यों	-12.1284
▁उतारने	-12.1288
▁रेंग	-12.1289
सेवक	-12.129
▁फाइलिंग	-12.1291
कुछ	-12.1292
▁टेर	-12.1297
▁विषमता	-12.1298
▁उपसभापति	-12.1305
▁क्रिश्चियन	-12.1305
▁ढुलाई	-12.1305
▁पंथनिरपेक्ष	-12.1305
▁आशुलिपि	-12.1305
▁उत्तराखण्ड	-12.1305
▁राकेश	-12.1305
▁संयोजी	-12.1305
▁कुदरती	-12.1305
▁दरिद्र	-12.1305
▁दयनीय	-12.1305
▁कार्यक्षमता	-12.1305
▁अंगुली	-12.1306
▁आंगन	-12.1306
▁अरुचि	-12.1306
▁पनीर	-12.1306
▁बतख	-12.1308
▁तुनक	-12.1308
लायंस	-12.1309
▁सुर्ख	-12.1309
▁जैस	-12.131
▁मेट्रो	-12.132
▁पत्त	-12.1321
▁कूटनीतिक	-12.1328
हिल	-12.133
विवाह	-12.133
▁एम्प	-12.1334
▁सन्तान	-12.1335
▁शोधकर्ता	-12.1336
▁वानर	-12.1338
▁अखंड	-12.1338
▁अंदाजा	-12.1341
एक्स	-12.1344
याधीशों	-12.1344
▁सालाना	-12.1345
▁अबाध	-12.1356
AM	-12.1365
pan	-12.1369
▁अस्वीकृति	-12.1374
▁छूने	-12.1376
▁कार्लो	-12.1377
▁अव्यक्त	-12.1382
▁धुर	-12.1383
शिक्षा	-12.1388
▁उभरत	-12.1394
uared	-12.1396
▁ऑब्जेक्ट	-12.1396
▁नज़दीक	-12.1396
▁प्रलोभन	-12.1396
▁फिलस्तीन	-12.1396
▁मॉनीटर	-12.1396
▁कंटेनर	-12.1396
▁कस्बे	-12.1396
▁खोपड़ी	-12.1396
▁निर्विवाद	-12.1396
▁न्यायनिर्णयन	-12.1396
▁सुनवार्इ	-12.1396
▁चिपचिप	-12.1396
▁डकोटा	-12.1396
▁ऐश्वर्य	-12.1396
▁मिर्गी	-12.1396
▁हर्निया	-12.1396
▁अपास्त	-12.1396
▁करूणा	-12.1396
▁आरएफपी	-12.1396
▁नक्शा	-12.1396
▁स्मिथ	-12.1396
▁स्तनपान	-12.1396
▁दिवालिया	-12.1396
▁डेबिट	-12.1397
▁शौकीन	-12.1397
▁मैक्सिको	-12.1397
▁ऊंचाइय	-12.1397
▁प्रजातंत्र	-12.1398
▁ex	-12.1399
सम्मान	-12.14
▁अभिग्रहण	-12.14
▁शब्दकोष	-12.14
▁व्याकुल	-12.14
▁फ़ॉर	-12.1404
▁ग्लास	-12.1404
▁औषधियां	-12.1409
▁आसन्न	-12.1411
▁गुणात्मक	-12.1415
▁कॉलम	-12.1417
ord	-12.142
▁लांच	-12.1421
▁बहिन	-12.1421
▁प्रशिक्षु	-12.1423
be	-12.1427
▁उत्तरवर्ती	-12.1431
▁आवर्ती	-12.1441
▁वासना	-12.1446
▁बढिया	-12.1448
▁तानाशाह	-12.145
▁मुंड	-12.1456
चिकित्सक	-12.1467
पाणि	-12.147
दक्षिण	-12.147
स्पर्श	-12.1472
द्रव्य	-12.1474
▁सांग	-12.1478
मित्र	-12.1481
▁गंड	-12.1481
▁चूर	-12.1484
▁रघु	-12.1486
▁कैथोलिक	-12.1486
▁डिप्लोमा	-12.1486
▁परितारिका	-12.1486
▁मुफ़्त	-12.1486
▁म्यांमार	-12.1486
▁विनिश्वय	-12.1486
▁सावित्री	-12.1486
▁साहचर्य	-12.1486
▁बांसुरी	-12.1486
▁उपशमन	-12.1486
▁सरोवर	-12.1486
▁बच्ची	-12.1486
▁विचलन	-12.1487
▁शल्क	-12.1487
▁पंजीयक	-12.1487
▁व्दार	-12.1487
▁चाहूँगा	-12.1487
▁अड़चन	-12.1487
▁अंजाम	-12.1487
▁मानहानि	-12.1489
▁रिसाव	-12.1489
▁मरोड़	-12.1491
▁वस्तुनिष्ठ	-12.1492
▁एनपीएस	-12.1493
वृष्टि	-12.1493
▁आर्द्र	-12.1493
▁मूवी	-12.1497
▁निकटवर्ती	-12.1497
▁धाश	-12.1498
▁सम्मति	-12.1506
▁प्राचीनतम	-12.1506
▁बेटिय	-12.1506
▁चलिए	-12.151
▁गुच्छा	-12.1511
▁अपमानित	-12.1517
▁उमड़	-12.1518
▁सितारा	-12.152
▁जात्रा	-12.1521
▁एन्ड	-12.1536
▁रमा	-12.1539
▁वफादार	-12.1541
▁उच्छ	-12.1547
MP	-12.1549
निर्देश	-12.1552
▁यूथ	-12.1559
▁कृष	-12.1565
प्रेरित	-12.1565
▁छड़	-12.1572
▁इज़	-12.1576
▁अथॉरिटी	-12.1578
▁अनुप्रस्थ	-12.1578
▁कछुए	-12.1578
▁चालुक़्य	-12.1578
▁डिपार्टमेंट	-12.1578
▁द्वंद्व	-12.1578
▁रूझान	-12.1578
▁कबूतर	-12.1578
▁उष्णकटिबंधीय	-12.1578
▁नरसिंहराव	-12.1579
▁महालेखा	-12.1579
▁व्याख्यायित	-12.1579
▁कर्नल	-12.1579
▁आकाशवाणी	-12.1579
▁राधानाथ	-12.158
▁पर्ची	-12.158
▁परिणामस्वरुप	-12.158
▁तरुण	-12.1582
▁रङ्ग	-12.1583
▁सूज	-12.1585
▁अधिदेश	-12.1585
▁बाह्म	-12.1586
▁पॉप	-12.1589
▁उतऋ	-12.1589
▁फ़र्क	-12.159
▁सिलाई	-12.1593
▁कालिज	-12.1595
▁नामांकित	-12.1597
▁प्लेस	-12.1598
▁फारस	-12.1609
▁रीड	-12.1614
▁उपधा	-12.1616
फ्फ	-12.1618
कुश	-12.162
▁बांह	-12.1621
विन्यास	-12.1622
▁गुद	-12.1623
न्टर्न	-12.1624
▁वीडिय	-12.1625
▁ऐंड	-12.1625
योज्य	-12.1629
▁लगायी	-12.163
▁नंदी	-12.1636
▁गड्ढे	-12.1638
▁क्लेम	-12.1645
▁मलिक	-12.1647
▁आसक्ति	-12.1648
▁जिन्हे	-12.1655
एसडी	-12.1665
▁अंटार्कटिक	-12.1671
▁अल्कोहल	-12.1671
▁अवशोषण	-12.1671
▁पुडुचेरी	-12.1671
▁प्रक्षिप्त	-12.1671
▁प्रधानमन्त्री	-12.1671
▁भित्तिस्तंभ	-12.1671
▁मेगावॉट	-12.1671
▁लेखापरीक्षक	-12.1671
▁समनुदेशित	-12.1671
▁सिंड्रोम	-12.1671
▁स्ट्राइकर	-12.1671
▁जायदाद	-12.1671
▁राजमहल	-12.1671
▁पण्डित	-12.1671
▁प्रेषक	-12.1671
▁गनोम	-12.1671
▁नुस्ख	-12.1671
▁असलियत	-12.1672
▁नारंगी	-12.1672
▁विद्वत्ता	-12.1672
▁निराशाजनक	-12.1673
aOr	-12.1673
▁पगड़ी	-12.1673
▁इच्छानुसार	-12.1674
▁स्पीड	-12.1675
▁मानीटर	-12.1676
▁घमंड	-12.1677
▁dx	-12.1677
▁प्रवचन	-12.1678
▁काश्तकार	-12.1679
▁संप्रभुता	-12.1682
ध्वंस	-12.1683
सर्व	-12.1687
रूण	-12.1687
▁दुर्भावना	-12.1687
▁ध्रुवीय	-12.1687
▁स्टेज	-12.1688
▁मैनेजमे	-12.1688
▁अनुवर्ती	-12.1693
▁लुई	-12.1698
▁गुजरने	-12.1704
▁सर्ग	-12.1705
▁कोडेक	-12.1715
▁औरतें	-12.1716
▁हृद	-12.1716
▁गर्मियों	-12.1722
▁वस्तुएँ	-12.1724
टीएस	-12.1728
▁मोहित	-12.1729
▁प्राग	-12.1751
बंदियों	-12.1751
▁डोम	-12.1759
ance	-12.176
▁प्रणय	-12.176
शीर्ष	-12.1761
स्फोट	-12.1762
्ञ	-12.1764
▁अभिषेक	-12.1764
▁अल्जीरिया	-12.1764
▁आख़िर	-12.1764
▁घृणित	-12.1764
▁मुआवज़	-12.1764
▁रेलगाड़ी	-12.1764
▁विम्बलडन	-12.1764
▁अपरिवर्तनीय	-12.1764
▁टक्कर	-12.1764
▁प्रेक्षण	-12.1764
▁सीपीयू	-12.1764
▁टेलिफोन	-12.1764
▁मेरठ	-12.1764
▁आहरित	-12.1765
▁कुटीर	-12.1765
▁रीसेट	-12.1765
aoM	-12.1768
▁सोमवार	-12.1768
चयन	-12.1771
▁तुझ	-12.1771
▁ज़्यादातर	-12.1773
▁ख़बर	-12.1773
यक्ष्मा	-12.1774
▁अतिथियों	-12.1776
▁प्रावस्था	-12.1778
▁मख	-12.178
▁शैवाल	-12.178
▁यूरिया	-12.1781
▁किर्गिज	-12.1782
▁भ्रांति	-12.1783
▁उगाई	-12.1783
▁सराह	-12.1788
ग्रंथि	-12.1796
पराध	-12.1797
▁सगे	-12.1797
प्रतिस्पर्धात्मक	-12.1802
प्ले	-12.1805
▁मरू	-12.1821
▁लुभा	-12.1825
▁संन्यास	-12.183
एटी	-12.1839
▁एवम	-12.1842
मित्व	-12.1842
▁रुद्र	-12.1854
स्वास्थ्य	-12.1857
▁अटलांटिक	-12.1859
▁नींबू	-12.1859
▁पैगम्बर	-12.1859
▁बाल्यावस्था	-12.1859
▁वाइसराय	-12.1859
▁वाइसरॉय	-12.1859
▁परिव्यय	-12.1859
▁प्रमोद	-12.1859
▁निर्भीक	-12.1859
▁उंगली	-12.1859
▁सन्तुष्ट	-12.1859
▁नुकील	-12.1859
▁हिमायत	-12.1859
▁घसीट	-12.1859
▁विनियोग	-12.186
▁बर्लिन	-12.1861
▁कोज्या	-12.1861
▁प्रशुल्क	-12.1862
▁आलोचनात्मक	-12.1863
▁अशिक्षित	-12.1864
▁निर्देशांक	-12.1864
दोलन	-12.1864
[...]
