<unk>	0
<s>	0
</s>	0
UuRrLl	0
DdAaTtEe	0
NnUuMm	0
▁	-2.88492
▁के	-3.16117
▁,	-3.53294
▁।	-3.61259
▁है	-3.67004
▁में	-3.82833
▁की	-4.00513
▁और	-4.09201
▁को	-4.16791
▁से	-4.37773
▁का	-4.50593
▁कि	-4.56167
▁.	-4.61004
०	-4.68302
▁लिए	-4.70882
▁किया	-4.85444
▁-	-4.883
▁पर	-4.88463
▁नहीं	-4.89797
▁एक	-4.96811
▁यह	-5.03289
▁गया	-5.08292
१	-5.11392
▁ने	-5.15023
▁था	-5.16985
▁हैं	-5.18358
▁करने	-5.19098
▁इस	-5.26645
▁भी	-5.33301
▁द्वारा	-5.34182
▁)	-5.41996
ों	-5.43632
▁(	-5.44076
▁या	-5.5082
२	-5.5977
▁जो	-5.69294
▁रूप	-5.69722
▁कर	-5.75188
▁/	-5.87333
▁हो	-5.91564
▁;	-5.98854
▁दिया	-5.99379
▁साथ	-6.00003
▁किसी	-6.0267
▁कोई	-6.07647
▁गए	-6.0839
▁गई	-6.11364
३	-6.14364
▁जा	-6.15211
▁वह	-6.15826
▁सकता	-6.16451
▁ही	-6.17031
▁थी	-6.21487
▁न्यायालय	-6.24287
▁तो	-6.2429
▁जाता	-6.28026
▁अपने	-6.30939
▁&	-6.31094
▁मामले	-6.33395
▁तहत	-6.36914
ी	-6.37484
▁बाद	-6.38206
▁कहा	-6.38234
▁थे	-6.40704
▁तक	-6.42284
▁याचिकाकर्ता	-6.5161
▁0	-6.53032
▁तरह	-6.53731
▁किए	-6.5376
▁आदेश	-6.55046
▁हुए	-6.5615
▁:	-6.57617
४	-6.58338
▁चाहिए	-6.59993
▁करना	-6.61072
▁अधिनियम	-6.62053
▁अन्य	-6.66942
▁जब	-6.68445
▁समय	-6.68791
▁तथा	-6.69837
▁उन्होंने	-6.69998
▁उसके	-6.70791
▁पहले	-6.711
▁इसलिए	-6.72382
▁दी	-6.73841
▁करता	-6.74993
▁कुछ	-6.75153
▁होने	-6.75585
▁प्रतिवादी	-6.75604
▁राज्य	-6.78537
▁करते	-6.79269
▁वे	-6.80203
▁उनके	-6.80728
▁उस	-6.82727
▁न	-6.82953
ा	-6.83462
▁कारण	-6.8508
▁संबंध	-6.89544
▁इसके	-6.89932
▁भारत	-6.90022
▁सभी	-6.90322
▁लेकिन	-6.90897
▁होता	-6.91027
▁quot	-6.92409
▁होगा	-6.92691
५	-6.94869
▁केवल	-6.97958
▁अनुसार	-6.98158
▁रहा	-6.98583
▁उक्त	-6.99009
▁वाले	-6.99171
▁अपीलकर्ता	-6.99265
▁अपनी	-6.99361
▁जांच	-6.99862
▁श्री	-7.01537
▁हम	-7.02759
▁सरकार	-7.03175
▁विचार	-7.03507
▁यदि	-7.04382
▁आधार	-7.04428
▁प्राप्त	-7.04531
▁उसे	-7.04533
▁व्यक्ति	-7.05136
▁निर्णय	-7.0519
▁जाना	-7.07518
▁प्रकार	-7.0844
▁नंबर	-7.08943
न	-7.0959
▁प्रस्तुत	-7.10973
▁पक्ष	-7.11896
▁उन्हें	-7.12408
ओं	-7.12433
▁धारा	-7.1486
े	-7.15191
▁#	-7.15782
▁अधिक	-7.16041
▁अदालत	-7.16947
ता	-7.17426
▁जाने	-7.17713
▁अधिकार	-7.18497
▁जारी	-7.1901
▁आगे	-7.1938
▁क्षेत्र	-7.23561
▁कानून	-7.24214
▁संबंधित	-7.25044
▁रहे	-7.25107
▁इन	-7.25542
▁देने	-7.26169
▁क्योंकि	-7.26192
▁याचिका	-7.26911
▁स्पष्ट	-7.27684
▁दो	-7.28851
▁बारे	-7.29311
▁ऐसे	-7.29517
▁जिसमें	-7.31162
▁दायर	-7.31708
▁लिया	-7.32291
▁'	-7.33158
▁वकील	-7.33604
▁ओर	-7.33814
▁क्या	-7.33917
▁हुआ	-7.33992
▁विशेष	-7.34182
▁खिलाफ	-7.34774
▁कोर्ट	-7.34923
▁वर्ष	-7.36365
▁प्रदान	-7.36749
▁बहुत	-7.36837
▁आरोपी	-7.36981
▁कार्य	-7.38215
▁पास	-7.38926
▁अलग	-7.39651
६	-7.39921
▁मैं	-7.40338
क	-7.40778
▁उच्च	-7.40832
▁ऐसा	-7.40844
▁उसने	-7.41417
▁प्रावधान	-7.41878
▁आवेदन	-7.41967
▁लागू	-7.42336
▁मृतक	-7.42441
▁प्रति	-7.4257
▁कम	-7.42864
▁बीच	-7.43595
▁सकती	-7.43772
▁नियम	-7.45305
▁जाती	-7.46298
▁अधिकारी	-7.46508
▁सकते	-7.4657
▁दर्ज	-7.4671
▁बात	-7.46865
▁पुलिस	-7.47105
▁रिपोर्ट	-7.476
▁होती	-7.47862
▁वादी	-7.48963
▁जहां	-7.49137
▁अपराध	-7.50851
▁अपील	-7.51313
▁उनकी	-7.51611
▁काम	-7.52104
▁प्रक्रिया	-7.52727
▁शामिल	-7.52909
▁फिर	-7.53085
▁जाएगा	-7.53205
र	-7.53283
▁जैसा	-7.54512
▁हुई	-7.54822
▁पत्र	-7.55238
▁सीखा	-7.55383
▁आप	-7.55786
▁ऐसी	-7.5598
▁अभियोजन	-7.56031
▁इसे	-7.56323
▁माना	-7.57655
ियों	-7.57881
▁स्वीकार	-7.58287
▁सेवा	-7.5835
▁पीडब्लू	-7.58618
▁आवश्यक	-7.59041
▁स्थिति	-7.59084
▁दोनों	-7.59543
▁उचित	-7.60109
▁पारित	-7.60692
▁उन	-7.60769
▁भूमि	-7.6127
▁कंपनी	-7.61592
▁उसकी	-7.61732
▁भारतीय	-7.61937
ि	-7.62087
▁बिना	-7.62147
▁ध्यान	-7.62262
▁निर्धारित	-7.62465
▁संख्या	-7.62557
▁साक्ष्य	-7.62801
▁बार	-7.65849
▁अब	-7.6596
▁पूर्व	-7.66005
ने	-7.66837
▁आवश्यकता	-7.66911
▁दौरान	-7.66928
▁रखा	-7.67073
▁संपत्ति	-7.6742
▁दिए	-7.67666
▁भुगतान	-7.68073
▁आरोप	-7.68795
▁वर्तमान	-7.68946
▁ए	-7.69268
▁अनुमति	-7.69367
▁नाम	-7.70333
▁विकास	-7.7037
ं	-7.71636
▁राशि	-7.71658
▁?	-7.72177
▁उपयोग	-7.72271
▁बयान	-7.72302
▁हालांकि	-7.73496
▁जिसे	-7.73586
▁पूरी	-7.73937
ल	-7.73938
▁कार्यवाही	-7.74054
▁जिसके	-7.74312
▁रिट	-7.74431
▁तथ्य	-7.74941
७	-7.75213
▁सिंह	-7.75573
▁रिकॉर्ड	-7.756
▁जैसे	-7.75646
▁भाग	-7.75764
▁दिनांक	-7.76121
▁पता	-7.76805
▁करें	-7.76817
▁याचिकाकर्ताओं	-7.77037
▁मामलों	-7.78081
▁मामला	-7.78364
▁होना	-7.78541
▁अवधि	-7.78699
▁रही	-7.79555
▁सबूत	-7.80427
▁ले	-7.81553
▁घर	-7.81615
स	-7.81919
▁समक्ष	-7.81923
▁शक्ति	-7.8239
▁घटना	-7.8258
▁हमारे	-7.8328
▁वाली	-7.83647
▁देखा	-7.85173
▁लोगों	-7.85697
▁संदर्भ	-7.86318
ना	-7.87098
▁अलावा	-7.87337
▁तब	-7.87944
म	-7.88008
▁राष्ट्रपति	-7.88973
▁गवाह	-7.89121
▁अधीन	-7.89173
▁माध्यम	-7.89527
▁ये	-7.89759
▁उद्देश्य	-7.89909
▁दावा	-7.90898
▁देश	-7.91225
▁दूसरे	-7.91894
▁उसी	-7.92119
ते	-7.93049
▁PW	-7.93174
▁विभिन्न	-7.93649
▁शुरू	-7.93694
▁यहां	-7.93973
▁योजना	-7.94119
▁होते	-7.94203
▁भीतर	-7.94556
▁सी	-7.94819
▁एवं	-7.95127
▁बैंक	-7.95908
▁तैयार	-7.95923
▁न्यायाधीश	-7.96415
▁तर्क	-7.97207
ित	-7.97486
▁P	-7.97566
▁विवाद	-7.97573
▁करती	-7.97737
▁उपलब्ध	-7.97953
▁दिन	-7.98835
▁खारिज	-7.99188
▁मुख्य	-7.99194
▁प्रयोग	-7.99219
▁सूचना	-7.99244
▁निर्माण	-7.99557
▁सामान्य	-7.99986
▁व्यक्तियों	-8.00045
▁जीवन	-8.00082
▁%	-8.0066
▁सामग्री	-8.00725
▁उप	-8.00981
▁लाभ	-8.01059
▁स्थापित	-8.02024
कर	-8.02033
▁मुझे	-8.02349
▁अगर	-8.02649
▁निर्देश	-8.02715
▁तारीख	-8.02784
ो	-8.03996
▁जाए	-8.04041
▁स्थान	-8.04989
▁अपना	-8.05853
▁कई	-8.06017
▁जिला	-8.0619
▁समान	-8.06306
▁होगी	-8.06358
्	-8.0661
▁मूल	-8.0699
▁तीन	-8.07001
▁संविधान	-8.07107
▁विभाग	-8.08855
्स	-8.08953
८	-8.09205
▁लेने	-8.09761
▁खंड	-8.09836
▁उत्तरदाताओं	-8.09966
▁मांग	-8.10445
▁करके	-8.10535
▁उल्लेख	-8.10677
▁प्रत्येक	-8.10816
▁अभियुक्त	-8.10817
▁पूरा	-8.10875
▁साबित	-8.11738
▁बताया	-8.11959
▁तथ्यों	-8.12085
▁आ	-8.13003
▁निष्कर्ष	-8.13578
▁बनाम	-8.13796
▁संशोधन	-8.14147
▁समिति	-8.14236
▁सबसे	-8.14259
▁रखने	-8.14367
▁बाहर	-8.14504
▁परिस्थितियों	-8.14732
▁अंतिम	-8.15081
▁करेगा	-8.15292
▁लगभग	-8.15387
▁उपरोक्त	-8.15414
▁सही	-8.15584
▁अतिरिक्त	-8.15592
▁कभी	-8.15729
▁शिक्षा	-8.15733
▁पद	-8.15863
▁जिस	-8.16614
▁शिकायत	-8.1666
▁साल	-8.16831
▁सीखे	-8.1717
▁दे	-8.1761
▁इसका	-8.18734
▁पाया	-8.19038
▁सर्वोच्च	-8.19174
▁हमें	-8.19483
▁उसका	-8.19534
▁नोटिस	-8.19715
▁नियमों	-8.20822
▁बनाया	-8.20885
▁पर्याप्त	-8.21035
▁अर्थ	-8.21426
▁प्रभाव	-8.21539
▁ट्रायल	-8.2188
▁जाते	-8.22055
त	-8.22156
▁प्रवेश	-8.22193
▁सीमा	-8.23056
▁कार्रवाई	-8.23124
▁सामने	-8.23664
▁ऊपर	-8.24111
▁माननीय	-8.24288
▁प्रश्न	-8.24416
▁उत्तर	-8.25558
▁गलत	-8.2583
▁सके	-8.25931
▁हूं	-8.25978
▁न्यायिक	-8.25988
▁नीचे	-8.26535
▁अनुबंध	-8.26553
▁कुमार	-8.26881
▁सजा	-8.27183
▁सहायता	-8.27339
▁तरीके	-8.27437
▁समाप्त	-8.27673
▁देता	-8.2773
▁प्रकृति	-8.28032
▁अधिकारियों	-8.28107
▁उनका	-8.28421
▁अवसर	-8.28469
▁मृत्यु	-8.29065
▁आदि	-8.29369
▁एस	-8.29623
▁कानूनी	-8.29647
▁लगाया	-8.29899
▁तय	-8.30236
▁महत्वपूर्ण	-8.30495
▁फैसले	-8.3062
▁प्राधिकरण	-8.30808
▁नियुक्ति	-8.31126
▁परीक्षा	-8.31144
▁आय	-8.31553
▁सार्वजनिक	-8.31735
▁वास्तव	-8.3174
ः	-8.31798
▁वाला	-8.31974
▁समर्थन	-8.32137
▁रु	-8.32263
▁बिक्री	-8.32428
▁स्तर	-8.32608
▁बनाने	-8.3274
▁पिता	-8.32904
▁राष्ट्रीय	-8.33099
▁विषय	-8.33443
▁सूट	-8.33732
▁गवाहों	-8.33952
▁राय	-8.34211
▁जबकि	-8.34506
▁A	-8.35235
▁बोर्ड	-8.35392
▁आयोजित	-8.35766
▁सक्षम	-8.35822
▁मूल्य	-8.36113
▁पी	-8.36133
▁परीक्षण	-8.36316
▁वापस	-8.36443
▁न्याय	-8.36473
▁सूची	-8.37505
▁इसमें	-8.3773
▁सरकारी	-8.3782
▁शब्द	-8.37889
▁अथवा	-8.38392
▁प्रयास	-8.38526
▁हर	-8.38641
▁स्वयं	-8.38657
▁बनाए	-8.38992
▁आयोग	-8.39007
▁आपराधिक	-8.39652
▁जमा	-8.39659
▁दूसरी	-8.39713
▁“	-8.39875
▁विधि	-8.40519
▁बी	-8.40534
▁सुप्रा	-8.41031
▁चुनौती	-8.41344
▁गैर	-8.41411
▁इसी	-8.41943
▁सिद्धांत	-8.42314
▁अ	-8.42679
▁सदस्य	-8.42699
▁जानकारी	-8.43322
▁लोग	-8.44281
▁सब	-8.44482
▁No	-8.44541
▁उल्लंघन	-8.44678
▁देते	-8.44927
▁S	-8.44986
९	-8.45325
▁बल्कि	-8.45689
▁राम	-8.45692
▁देना	-8.46059
▁सवाल	-8.46323
▁ताकि	-8.46945
ई	-8.47313
▁पालन	-8.4745
▁विशिष्ट	-8.4757
▁पूर्ण	-8.47576
▁नीति	-8.47653
▁चोट	-8.47932
▁उत्पादन	-8.47964
▁प्रस्ताव	-8.48362
▁पहली	-8.48661
▁परिवार	-8.49111
▁आज	-8.49392
ज	-8.50105
▁सं	-8.50521
▁इससे	-8.50603
िंग	-8.50821
▁लोक	-8.51223
▁s	-8.51236
▁योग्य	-8.513
▁संहिता	-8.51381
▁दर	-8.51876
य	-8.52
▁सुरक्षा	-8.52564
▁शिकायतकर्ता	-8.52801
▁जी	-8.52962
▁पुरस्कार	-8.53454
▁विश्वास	-8.53531
▁प्रमाण	-8.53669
▁विपरीत	-8.5373
▁वरिष्ठ	-8.5474
▁प्रमुख	-8.54865
▁नई	-8.5499
▁संदेह	-8.5505
▁कार्यालय	-8.55207
▁समझौते	-8.55415
▁कर्मचारी	-8.55578
▁पैरा	-8.55708
▁निहित	-8.56611
▁मूल्यांकन	-8.56712
▁समाज	-8.56927
▁कब्जे	-8.56944
▁पहचान	-8.57071
▁चार	-8.57426
▁नियुक्त	-8.58256
▁व	-8.58385
▁वहां	-8.58444
▁लिमिटेड	-8.58504
▁थीं	-8.58623
▁सिविल	-8.59051
▁जिससे	-8.59121
▁मे	-8.59153
▁योग्यता	-8.59191
▁इसकी	-8.59342
▁सदस्यों	-8.59428
▁C	-8.59666
▁संयुक्त	-8.59774
▁बना	-8.59998
▁आर	-8.60182
▁अपीलार्थी	-8.60252
िक	-8.60659
▁रद्द	-8.60774
▁खोज	-8.61184
▁परिणाम	-8.61329
▁लगाए	-8.61521
▁प्रभावित	-8.61815
▁मजिस्ट्रेट	-8.61866
▁क	-8.62027
▁आया	-8.62071
व	-8.62098
▁ज्ञान	-8.62133
▁उत्पन्न	-8.62148
▁मेरे	-8.62194
▁भरोसा	-8.62202
▁केंद्र	-8.62358
▁डी	-8.62478
ें	-8.62532
▁कुल	-8.62687
▁प्रथम	-8.62964
▁कथित	-8.63188
▁शुल्क	-8.63276
▁चूंक	-8.63301
▁दोषी	-8.63324
▁हकदार	-8.63596
▁इनकार	-8.64194
ीय	-8.64259
▁भाषा	-8.6434
▁दिल्ली	-8.64416
▁पेश	-8.64418
▁ऋण	-8.64464
▁जिसका	-8.64521
▁बजे	-8.64635
▁ली	-8.6486
▁बन	-8.64936
▁प्रासंगिक	-8.65005
▁निम्नलिखित	-8.65277
▁निर्धारण	-8.653
▁ऑफ	-8.65762
▁हमारी	-8.65789
▁विश्वविद्यालय	-8.66037
▁महीने	-8.66567
▁जनता	-8.66673
▁होंगे	-8.67126
▁मौजूद	-8.67146
▁विश्व	-8.67317
▁रुपये	-8.67621
प	-8.67645
का	-8.67648
▁ठीक	-8.67652
▁लिये	-8.67695
▁ट्रिब्यूनल	-8.67882
▁चर्चा	-8.68219
▁शरीर	-8.68309
▁लिखित	-8.68579
▁आने	-8.68604
▁पार्टी	-8.68778
▁भवन	-8.68845
▁काफी	-8.68864
▁दस्तावेज	-8.68981
▁अनुच्छेद	-8.69041
▁सहित	-8.69046
▁खुद	-8.69626
यों	-8.69789
▁रखते	-8.69804
▁सहायक	-8.69985
▁प्रदेश	-8.70606
▁निगम	-8.70609
ती	-8.70632
▁पत्नी	-8.70651
▁विफल	-8.70797
▁मैंने	-8.70965
▁प्राधिकारी	-8.71029
▁जाएगी	-8.71227
▁अच्छी	-8.71341
▁आर्थिक	-8.71353
▁नए	-8.71397
▁मन	-8.71768
▁शब्दों	-8.7212
▁कर्मचारियों	-8.72264
▁मुकदमा	-8.72347
▁दूर	-8.72561
▁जवाब	-8.72599
▁प्रतिशत	-8.72626
▁मद्देनजर	-8.7265
▁वर्ग	-8.72706
▁आई	-8.72759
▁अभी	-8.72782
री	-8.72896
▁विवरण	-8.72998
▁डॉ	-8.73092
▁तौर	-8.73109
▁आधारित	-8.73164
▁दंड	-8.73512
▁चुनाव	-8.73855
▁हालाँकि	-8.73964
▁>	-8.74172
▁बड़ी	-8.74442
के	-8.74559
▁कृषि	-8.74593
▁क्षेत्रों	-8.74888
▁वर्षों	-8.74936
▁शर्तों	-8.75155
▁स्टेशन	-8.75307
▁दिनों	-8.75338
▁प्रबंधन	-8.75405
▁दस्तावेजों	-8.75437
ट	-8.75487
▁आवेदक	-8.75594
▁पार्टियों	-8.75684
0	-8.75793
▁संघ	-8.75851
▁हस्तक्षेप	-8.75868
▁घोषणा	-8.7601
▁चयन	-8.76035
▁लगाने	-8.76403
▁ई	-8.76554
▁सामाजिक	-8.76557
▁निर्दिष्ट	-8.76595
▁प्रार्थना	-8.76708
▁वेतन	-8.76889
▁व्यापार	-8.76905
▁व्यवस्था	-8.7697
▁करेंगे	-8.77059
▁सुनवाई	-8.77137
▁वस्तु	-8.77204
▁स्थित	-8.77257
▁अधिसूचना	-8.77276
▁जमीन	-8.77312
▁क्षमता	-8.77585
या	-8.77894
▁पति	-8.78028
▁आम	-8.7819
▁हों	-8.78223
▁ओ	-8.78335
▁निजी	-8.78492
सी	-8.78497
▁हस्ताक्षर	-8.78564
▁निश्चित	-8.78572
▁अनेक	-8.78719
▁पूर्वोक्त	-8.7895
▁उम्मीदवार	-8.79024
▁नियंत्रण	-8.79069
▁संस्थान	-8.79072
▁सुप्रीम	-8.79155
ए	-8.79305
▁गये	-8.79506
▁राहत	-8.79813
▁अनुरोध	-8.80075
▁प्रदर्शन	-8.8017
▁पीड़ित	-8.80233
▁रहने	-8.80389
▁निदेशक	-8.80394
▁प्रणाली	-8.80933
▁हमने	-8.81005
▁समूह	-8.81173
▁चला	-8.81245
▁जल	-8.8142
▁वित्तीय	-8.81447
▁पुष्टि	-8.81683
▁लगा	-8.81981
▁ब्याज	-8.8199
▁हाथ	-8.8199
▁उपस्थित	-8.82354
▁स्कूल	-8.82388
ब	-8.82477
▁आपको	-8.8267
▁सुनिश्चित	-8.82781
ग	-8.83205
▁बड़े	-8.83305
▁अनिवार्य	-8.83328
▁पूरे	-8.83331
▁उत्तरदाता	-8.83642
▁तदनुसार	-8.84317
▁जिसने	-8.84477
▁स्थापना	-8.84555
▁हिस्सा	-8.84562
s	-8.84711
▁जानी	-8.84793
▁कहते	-8.84811
▁बाजार	-8.85172
▁विस्तार	-8.85201
▁चिकित्सा	-8.85275
▁दिशा	-8.85316
▁धर्म	-8.855
नी	-8.85594
▁आयुक्त	-8.85734
▁गंभीर	-8.85871
▁मालिक	-8.8591
▁मुकदमे	-8.86209
▁न्यायालयों	-8.86274
▁अपीलीय	-8.86612
▁वास्तविक	-8.86766
▁उद्योग	-8.86868
▁देखते	-8.87024
▁उससे	-8.87212
▁बावजूद	-8.87239
▁प्रतीत	-8.87253
▁बंद	-8.87317
▁व्यक्त	-8.87473
▁स्वास्थ्य	-8.88066
▁जिन्हें	-8.88281
▁सुधार	-8.883
▁मानव	-8.88723
▁सीमित	-8.88751
▁अंतर	-8.88926
▁निर्धारिती	-8.89166
▁माल	-8.89492
▁उदाहरण	-8.89523
▁बचाव	-8.89567
▁हत्या	-8.89673
▁वाहन	-8.90067
▁कारणों	-8.90093
▁नं	-8.90331
▁यहाँ	-8.9038
▁चलता	-8.90421
”	-8.90458
▁पैदा	-8.90533
▁परिवर्तन	-8.90653
▁मुद्दे	-8.90654
▁अस्पताल	-8.91455
▁जिन्होंने	-8.92023
▁स्वतंत्रता	-8.92265
▁व्यक्तिगत	-8.92545
▁सह	-8.92595
▁अंत	-8.92602
▁हेतु	-8.92719
▁संभावना	-8.92792
▁मात्रा	-8.92795
▁उपस्थिति	-8.93101
▁नगर	-8.93232
▁पृष्ठ	-8.9325
▁अधिकारों	-8.93283
▁धन	-8.93568
▁नियमित	-8.93811
▁जिन	-8.9382
▁हित	-8.94037
▁आपके	-8.94043
▁लगता	-8.94446
▁दृष्टिकोण	-8.94565
ू	-8.9474
▁एम	-8.94808
▁प्रकाश	-8.95037
▁शीर्ष	-8.95076
द	-8.95152
पूर्ण	-8.95443
▁छोड़	-8.95454
▁भर्ती	-8.95578
▁मिल	-8.95774
जी	-8.96062
▁परिणामस्वरूप	-8.96143
▁संभव	-8.96262
▁जगह	-8.96366
▁प्रतिनिधित्व	-8.96393
▁उच्चतम	-8.96699
ड	-8.96908
▁पांच	-8.96949
▁अभियुक्तों	-8.97046
▁सूचित	-8.97049
▁घोषित	-8.97146
▁पंजीकृत	-8.97327
▁विज्ञान	-8.97486
▁अवैध	-8.97512
▁कार्यक्रम	-8.97578
▁अन्यथा	-8.97893
▁ख	-8.97898
▁सहमति	-8.97948
▁स्थायी	-8.98368
▁सेवाओं	-8.9843
▁उपधारा	-8.98636
▁एक्स	-8.98687
▁बच्चे	-8.98744
▁व्यवसाय	-8.98805
▁बच्चों	-8.98839
▁निर्भर	-8.9908
▁कैसे	-8.99178
▁प्रौद्योगिकी	-8.99216
▁व्याख्या	-8.99333
▁स्वतंत्र	-8.99336
▁रक्षा	-8.99657
पुर	-8.99989
▁एकल	-9.00002
▁व्यापक	-9.00011
एं	-9.0004
▁चाहते	-9.00043
▁अधिवक्ता	-9.00389
▁परामर्श	-9.00609
▁लाख	-9.00875
▁रह	-9.0088
▁स्पष्टीकरण	-9.01003
▁भाई	-9.0111
▁”	-9.01182
▁रोक	-9.01194
▁नागरिक	-9.01244
▁स्थानीय	-9.01294
रा	-9.014
▁वृद्धि	-9.01538
▁करे	-9.01595
▁अगस्त	-9.0161
▁पिछले	-9.01674
▁मिला	-9.01798
▁केंद्रीय	-9.01928
▁वही	-9.02008
ह	-9.02123
▁हिस्से	-9.02178
▁बल	-9.02223
▁विदेशी	-9.02339
▁सत्र	-9.02368
▁देरी	-9.02671
▁कमी	-9.02688
▁उपयुक्त	-9.02766
▁कोशिश	-9.02943
▁मंजूरी	-9.03151
▁मेरी	-9.0328
▁मध्यस्थ	-9.03394
▁समीक्षा	-9.03418
▁संशोधित	-9.03551
▁इस्तेमाल	-9.03566
▁जन्म	-9.03748
▁लाल	-9.03891
▁अंतर्गत	-9.0413
▁बेंच	-9.04162
▁मध्यस्थता	-9.04176
▁यात्रा	-9.04234
▁रखना	-9.04348
▁राजस्व	-9.04395
▁दावे	-9.04508
▁संदर्भित	-9.04522
▁पानी	-9.04572
▁यानी	-9.04586
▁प्रयोजन	-9.04725
▁आयु	-9.04792
्य	-9.04925
▁श्रेणी	-9.05152
▁एफआईआर	-9.0521
▁सभा	-9.05241
▁सुझाव	-9.05345
▁आरोपों	-9.05357
▁रंग	-9.05668
▁परियोजना	-9.05705
▁‘	-9.05732
▁IST	-9.05748
▁विद्वान	-9.06089
▁सुरक्षित	-9.06287
श	-9.06337
▁प्राकृतिक	-9.06372
▁नोट	-9.06713
▁समझौता	-9.06745
▁हूँ	-9.06835
▁औद्योगिक	-9.06858
की	-9.06998
▁पीछे	-9.07274
▁भूमिका	-9.07331
▁पंजीकरण	-9.07685
▁मदद	-9.07721
’	-9.07888
▁ठहराया	-9.07896
▁गयी	-9.07917
▁व्यवहार	-9.08234
▁सिद्धांतों	-9.08266
▁संकेत	-9.08429
▁अनुभव	-9.08442
▁एन	-9.08594
▁डिक्री	-9.08633
▁निपटान	-9.08661
▁बैठक	-9.08671
▁विकसित	-9.08685
▁एससीसी	-9.08786
▁तुम	-9.08831
▁उपाय	-9.08945
ला	-9.09119
▁देशों	-9.09198
▁वैधानिक	-9.09241
▁जमानत	-9.09288
र्इ	-9.09294
▁आदेशों	-9.09404
▁दूसरा	-9.09503
▁नुकसान	-9.09537
▁बस	-9.09693
▁विवाह	-9.09726
▁तिथि	-9.10068
▁संबंधी	-9.10179
▁राज	-9.10369
▁पक्षों	-9.10377
ण	-9.10569
▁छोटे	-9.10682
▁लागत	-9.10692
वा	-9.10894
▁प्रभावी	-9.10985
▁आईपीसी	-9.11068
00	-9.11284
▁भेजा	-9.11392
▁भले	-9.11518
▁दृष्टि	-9.11727
▁लाइसेंस	-9.11781
िया	-9.11784
▁महिला	-9.12323
▁निर्णयों	-9.12398
▁करोड़	-9.12756
▁श्रीमती	-9.12794
▁मध्य	-9.12819
▁अनुपालन	-9.12952
▁जहाँ	-9.13314
से	-9.13408
▁वि	-9.13639
▁छात्र	-9.13642
▁लेकर	-9.13674
▁ग	-9.13841
▁रखी	-9.13864
▁लंबित	-9.14007
▁अध्यक्ष	-9.14023
▁संपर्क	-9.14043
▁उत्तरदायी	-9.14228
▁विरोध	-9.14392
▁दाखिल	-9.14703
▁निष्पादित	-9.14722
▁जे	-9.15098
▁आपत्ति	-9.1519
▁दायित्व	-9.15229
▁अनुचित	-9.15402
▁आपूर्ति	-9.15499
▁शक्तियों	-9.15785
▁रहते	-9.16304
▁पूछताछ	-9.16355
▁प्रारंभिक	-9.16367
▁अच्छा	-9.16564
▁of	-9.1661
▁D	-9.16764
▁कदम	-9.1705
▁अधिग्रहण	-9.17333
▁राष्ट्र	-9.17454
▁एंड	-9.17475
▁संचालन	-9.17523
▁उठाया	-9.1763
ु	-9.17638
▁कर्तव्य	-9.17655
▁रहता	-9.17802
▁अनुमान	-9.17832
▁सचिव	-9.17922
▁बड़ा	-9.18018
▁अर्थात्	-9.18117
▁उत्पाद	-9.18135
▁उसमें	-9.18186
▁प्रकाशित	-9.18232
▁दिखाई	-9.18312
▁डिवीजन	-9.18315
▁छूट	-9.18481
▁अध्ययन	-9.18493
▁सीआर	-9.18508
▁आए	-9.18573
▁R	-9.18713
▁गठन	-9.1884
▁प्रशासन	-9.18973
▁खाते	-9.19007
▁ग्राम	-9.19071
▁संसद	-9.19136
▁तुलना	-9.19148
▁बीमा	-9.19157
▁शीर्षक	-9.1916
▁सुविधा	-9.19295
▁मार्च	-9.19416
▁निवेश	-9.19798
▁क्यों	-9.20135
▁निष्पादन	-9.20404
▁अनुसंधान	-9.20462
▁चरण	-9.20486
गत	-9.20618
▁गवाही	-9.20746
▁सहयोग	-9.20771
▁अंतरिम	-9.20797
▁Ex	-9.20819
▁हमेशा	-9.20931
▁देखने	-9.20992
▁माता	-9.21138
▁मंत्रालय	-9.21321
▁शेयर	-9.21385
▁उनमें	-9.21419
▁अनुसूची	-9.21501
▁जब्त	-9.21948
▁चाहे	-9.21962
▁चल	-9.22125
▁भविष्य	-9.22272
▁बाहरी	-9.22278
▁तकनीकी	-9.22312
▁तत्काल	-9.22333
▁ढंग	-9.22452
▁आकर्षित	-9.22471
▁वसूली	-9.22527
▁वैध	-9.22655
▁विकल्प	-9.22805
▁प्रकट	-9.22874
मा	-9.22924
▁आता	-9.23126
▁लाया	-9.2332
▁यद्यपि	-9.23611
▁जिनके	-9.2372
▁संगठन	-9.24058
▁I	-9.24067
▁पहलू	-9.24263
▁परिसर	-9.2428
▁उठाए	-9.24306
▁प्र	-9.24347
▁जिरह	-9.2442
▁मौत	-9.24606
▁विस्तृत	-9.25051
▁मंदिर	-9.25058
▁रोजगार	-9.25194
▁एकमात्र	-9.25279
▁कार्यों	-9.25508
▁उपबंध	-9.25569
▁बिंदु	-9.25586
च	-9.25626
▁राज्यों	-9.25686
▁देवी	-9.25701
▁हिरासत	-9.25912
▁युद्ध	-9.25928
▁कॉलेज	-9.26435
▁अभिव्यक्ति	-9.26537
▁लिखा	-9.26976
▁खुलासा	-9.27034
▁मान्यता	-9.27082
▁सु	-9.27093
़	-9.27157
▁इतिहास	-9.27214
▁भर	-9.27243
▁विरुद्ध	-9.27468
▁उपर्युक्त	-9.27489
▁शेष	-9.27513
▁अस्तित्व	-9.27519
वादियों	-9.27575
▁पेंशन	-9.27612
▁पेज	-9.27662
▁चाहता	-9.27689
▁शासन	-9.2774
▁होनी	-9.2786
▁चुका	-9.2793
▁ऊ	-9.28112
▁जिनमें	-9.28319
▁शव	-9.28401
▁निर्देशित	-9.2845
▁हमारा	-9.28741
▁तरफ	-9.2891
▁देती	-9.29057
▁द	-9.29081
▁आचरण	-9.292
▁आकार	-9.29432
▁सिफारिश	-9.29469
▁WP	-9.29524
▁वाणिज्यिक	-9.29679
▁दावेदार	-9.29734
▁होकर	-9.29925
▁जाति	-9.30055
▁कहना	-9.30125
▁अभ्यास	-9.30206
▁मत	-9.30301
▁अर्थात	-9.30501
▁संस्थानों	-9.30545
▁सफल	-9.30572
▁ज्यादा	-9.30674
को	-9.30729
▁संस्था	-9.30874
१०	-9.31042
▁B	-9.3107
▁समस्या	-9.31229
▁जोर	-9.31275
ली	-9.3133
▁भौतिक	-9.31346
▁फैसला	-9.31449
▁अप्रैल	-9.31457
▁परंतु	-9.31543
ख	-9.31549
▁जाँच	-9.31571
▁रात	-9.31643
▁संरक्षण	-9.31653
▁फाइल	-9.31704
▁वी	-9.32493
▁परे	-9.32531
▁पीठ	-9.33017
▁सत्ता	-9.33375
▁बराबर	-9.33688
▁दलील	-9.33717
ओ	-9.33801
▁संस्करण	-9.33903
▁पहुंच	-9.3405
▁प्रशासनिक	-9.34147
▁यही	-9.34203
▁प्रशिक्षण	-9.34305
▁कहीं	-9.3434
▁मुआवजे	-9.3435
▁उल्लिखित	-9.34552
▁SCC	-9.34615
▁काल	-9.34727
▁समझा	-9.34803
▁प्रेम	-9.34877
▁शून्य	-9.34891
▁महत्व	-9.34899
▁ग्रामीण	-9.35017
▁जिसकी	-9.35108
▁किस	-9.35188
▁इंडिया	-9.35275
▁देख	-9.35503
▁करनी	-9.35507
▁एल	-9.35623
▁परिषद	-9.35681
▁पदार्थ	-9.35683
▁तुरंत	-9.35954
▁विलेख	-9.35977
▁नया	-9.36124
▁यू	-9.36255
▁संतुष्ट	-9.36301
▁मिली	-9.36385
▁याद	-9.36399
▁सिर	-9.36434
▁पुनः	-9.3645
▁स	-9.36453
▁समझ	-9.36562
टी	-9.36876
▁चेक	-9.3718
▁लगे	-9.3718
▁परन्तु	-9.37247
▁मार्ग	-9.37282
▁भिन्न	-9.37287
▁निम्नानुसार	-9.37468
▁अध्याय	-9.37545
▁खरीद	-9.37818
▁अपेक्षा	-9.3782
▁सहमत	-9.37823
▁उठा	-9.38217
▁निविदा	-9.3834
▁सुना	-9.3836
▁संदेश	-9.38377
▁टी	-9.38735
▁छोड़कर	-9.38938
▁दक्षिण	-9.38995
▁बोली	-9.39089
▁O	-9.39104
▁अभाव	-9.39104
▁जरूरत	-9.39268
▁दें	-9.39453
▁उपचार	-9.39477
▁सत्य	-9.39594
▁पहला	-9.39622
▁बिल	-9.3967
▁विज्ञापन	-9.39677
▁मुक्त	-9.39759
▁छह	-9.3977
▁क़ानून	-9.39877
▁अनुरूप	-9.40022
▁नही	-9.40049
▁बदल	-9.40314
▁सामना	-9.40405
ऋ	-9.40439
▁सराहना	-9.40495
▁पड़ा	-9.40618
बी	-9.40823
▁मेरा	-9.40989
▁सा	-9.41338
▁शायद	-9.4138
▁पूंजी	-9.41417
▁बेहतर	-9.41423
▁पदों	-9.4147
ज़	-9.41505
▁सेट	-9.41541
▁मान	-9.41667
▁दिखाया	-9.41702
ियां	-9.41742
▁त्रुटि	-9.4178
▁बढ़ाने	-9.41805
▁खर्च	-9.41837
▁जनवरी	-9.42104
▁M	-9.42186
▁कार्यकारी	-9.42198
▁अनुदान	-9.42323
▁स्थानांतरित	-9.42468
▁रक्त	-9.42494
▁मां	-9.42546
▁अपराधों	-9.42607
▁दिखाने	-9.4274
▁इतना	-9.4281
▁पीसी	-9.42896
▁मई	-9.42922
▁राजनीतिक	-9.43008
▁संचार	-9.43082
▁बरी	-9.43133
▁रोग	-9.43183
▁बता	-9.43259
▁लेना	-9.43407
▁गांव	-9.43526
▁मतलब	-9.43592
▁शर्त	-9.43703
▁कांग्रेस	-9.43788
▁सड़क	-9.43829
a	-9.43856
वी	-9.43894
▁सप्ताह	-9.44158
▁मानते	-9.4432
▁वहाँ	-9.44437
▁अस्वीकार	-9.44474
▁दुनिया	-9.44481
▁अमेरिका	-9.44604
छ्ष	-9.44754
ण्श्	-9.44803
▁पड़ता	-9.44946
िका	-9.44954
▁उनसे	-9.4517
▁दृश्य	-9.45448
▁वेबसाइट	-9.45478
▁साधारण	-9.45622
▁किंतु	-9.45689
A	-9.45826
▁गाँव	-9.45843
▁राजा	-9.45972
▁प्रदर्शित	-9.46409
▁प्रधान	-9.46481
ंग	-9.46511
▁ज्ञापन	-9.46635
▁लगी	-9.46891
▁परिभाषित	-9.47055
▁सम्मान	-9.47192
▁मेडिकल	-9.47201
▁क्रॉस	-9.47245
▁शादी	-9.47323
▁किये	-9.47368
▁इच्छा	-9.47401
▁सलाह	-9.47413
▁जुलाई	-9.47501
▁श्रम	-9.47532
▁आरंभ	-9.47689
▁समाप्ति	-9.47739
▁केस	-9.47861
▁प्रगति	-9.47985
▁मुद्दों	-9.47987
▁भारी	-9.48121
▁जज	-9.4825
▁बजाय	-9.48353
▁लाने	-9.48359
▁निकाला	-9.48377
▁संकल्प	-9.48404
▁देगा	-9.48556
▁शर्मा	-9.48666
▁दस	-9.48703
▁कारावास	-9.48734
▁बेटी	-9.48818
▁विश्लेषण	-9.48879
▁पंचायत	-9.48932
▁आग्रह	-9.49204
▁पढ़ा	-9.49268
▁पदोन्नति	-9.49291
▁योगदान	-9.49384
▁देय	-9.49396
▁मंत्री	-9.49508
▁दुर्घटना	-9.49512
सा	-9.49629
▁न्यूनतम	-9.49644
▁न्यायाधिकरण	-9.49678
▁मौजूदा	-9.49708
▁निर्यात	-9.49727
▁पुत्र	-9.49775
▁इंगित	-9.49801
▁वस्तुओं	-9.49863
▁मुखबिर	-9.49879
▁प्रतिकूल	-9.49961
▁लक्ष्य	-9.50074
▁विभाजन	-9.50093
▁मिलता	-9.50143
▁Nos	-9.50228
▁लेखा	-9.50268
▁तीसरे	-9.50326
▁पीएस	-9.50825
▁रेलवे	-9.50832
▁बिजली	-9.50956
▁समाधान	-9.51011
▁घायल	-9.51025
▁आते	-9.51029
▁भेज	-9.51066
▁i	-9.51209
▁अगले	-9.51239
▁उपकरण	-9.51417
▁हाल	-9.51552
▁निर्मित	-9.51619
▁कब्जा	-9.51946
▁वित्त	-9.52012
ले	-9.52013
▁जून	-9.52131
▁पसंद	-9.52289
▁परिस्थिति	-9.52321
▁प्रतिवाद	-9.52372
▁बाध्य	-9.52404
▁संवैधानिक	-9.53097
▁वितरण	-9.53124
▁विधान	-9.53278
▁रुप	-9.53785
▁मंडल	-9.53799
▁स्थल	-9.53806
▁कटौती	-9.53911
▁फरवरी	-9.54156
▁परिवहन	-9.54211
▁जेल	-9.54222
▁शहर	-9.54329
▁सक्रिय	-9.54371
▁अनुमोदन	-9.54485
▁अंदर	-9.54569
▁नदी	-9.54571
▁चिह्नित	-9.54588
११	-9.54609
▁रोकने	-9.54673
▁District	-9.54731
▁पाने	-9.54737
▁अंग	-9.54747
▁साहित्य	-9.5483
▁N	-9.54867
▁खेल	-9.54891
▁कार	-9.54954
▁भोजन	-9.55217
▁पाए	-9.5525
▁गति	-9.55264
▁मौके	-9.5551
▁गुजरात	-9.55754
▁सिद्ध	-9.55821
▁धार्मिक	-9.55836
डी	-9.55903
▁गांधी	-9.56038
▁क्षेत्राधिकार	-9.56069
▁क्षेत्रीय	-9.56074
▁जिम्मेदार	-9.56075
▁पश्चिम	-9.56152
में	-9.56208
▁SC	-9.5627
▁जुड़े	-9.56272
▁अंग्रेजी	-9.56294
▁खून	-9.56341
▁पश्चात्	-9.56355
▁बाल	-9.56355
▁संलग्न	-9.56494
▁बने	-9.56545
थ	-9.56599
▁एक्ट	-9.56651
▁कहानी	-9.56686
▁करेगी	-9.56767
गा	-9.56932
▁कह	-9.57015
▁विवेक	-9.5702
▁ऊर्जा	-9.57038
पन	-9.57039
▁भावना	-9.57051
d	-9.57121
▁सच	-9.57167
▁पढ़ने	-9.57194
▁लेख	-9.57224
▁च	-9.57263
▁चलाने	-9.5776
▁गारंटी	-9.57769
▁उम्र	-9.57771
▁दुरुपयोग	-9.57799
▁गणना	-9.57819
▁प्रस्तावित	-9.58017
▁अप	-9.58041
दार	-9.58086
▁निधि	-9.58097
▁प्रत्यक्ष	-9.58182
▁ब	-9.58257
▁प्राथमिक	-9.58267
▁आकलन	-9.58339
▁प्रसाद	-9.58507
▁संपूर्ण	-9.58529
▁डॉक्टर	-9.5859
▁मौखिक	-9.58596
▁आनंद	-9.58699
▁अनु	-9.58715
▁खाली	-9.58728
▁सीधे	-9.5897
▁सात	-9.58987
▁रखे	-9.59058
फ	-9.59074
▁बंगाल	-9.59084
▁गुणवत्ता	-9.59108
▁छोटी	-9.59115
▁सुबह	-9.59542
▁पाठ्यक्रम	-9.59568
▁बढ़ा	-9.59617
▁प्रमाणित	-9.59959
▁रख	-9.59987
▁शारीरिक	-9.60034
▁बनाई	-9.60075
▁बरामद	-9.60159
▁इरादा	-9.60328
▁चाहिये	-9.60411
▁अधिकांश	-9.60419
भाई	-9.60488
▁कवर	-9.6054
▁हलफनामे	-9.60568
▁अनुसूचित	-9.60614
▁दिसंबर	-9.60644
▁क्रम	-9.60858
▁प्राथमिकता	-9.61039
▁रखता	-9.61042
▁बढ़	-9.61075
▁अवस्था	-9.61165
▁पाते	-9.61178
▁नि	-9.61244
▁कला	-9.61289
▁वन	-9.61307
▁कथन	-9.61332
▁पार	-9.6146
▁मृत	-9.61517
▁निकाय	-9.61587
▁पोस्ट	-9.61635
▁सौंप	-9.6166
▁पा	-9.61779
▁प्रारंभ	-9.61887
गी	-9.62354
▁व्यय	-9.62412
▁सिर्फ	-9.62518
▁नियोक्ता	-9.62556
▁मानसिक	-9.62648
▁एफ	-9.62717
▁स्वामी	-9.62723
ात्मक	-9.62753
▁पीडब्ल्यू	-9.62769
▁जैसी	-9.63041
▁निरीक्षण	-9.63152
▁निवासी	-9.63228
▁कु	-9.63419
▁उठाने	-9.63422
▁वालों	-9.63471
ीकरण	-9.63524
▁कलेक्टर	-9.63631
▁कंप्यूटर	-9.63661
▁सितंबर	-9.63781
▁निर्देशों	-9.63797
▁इनमें	-9.63799
▁संरचना	-9.63851
▁लेते	-9.64006
▁औसत	-9.64024
▁सका	-9.64116
▁पुस्तक	-9.64135
▁कल्याण	-9.64167
▁वंचित	-9.64233
▁लघु	-9.64294
▁अनुपात	-9.64347
▁विचाराधीन	-9.64643
▁AIR	-9.6469
▁मुखर्जी	-9.64779
▁गिरफ्तार	-9.64943
▁अच्छे	-9.6506
▁परिभाषा	-9.65174
▁फर्म	-9.6536
▁अंक	-9.65367
▁मुद्दा	-9.65541
▁निषेधाज्ञा	-9.65602
▁आधिकारिक	-9.65633
▁वो	-9.65636
▁G	-9.65817
▁स्रोत	-9.65825
▁पैराग्राफ	-9.65848
▁मजबूत	-9.65892
▁चुके	-9.66066
▁हमला	-9.66181
▁हटा	-9.66183
▁हिंदू	-9.66249
▁पुरुष	-9.66297
▁पात्र	-9.66388
▁तेल	-9.66409
▁प्राप्ति	-9.6644
▁इकाई	-9.66557
▁वर्णित	-9.66628
▁खाता	-9.66629
▁तंत्र	-9.66713
▁क्रिया	-9.66725
कर्ता	-9.66762
▁मात्र	-9.66833
▁गतिविधियों	-9.66845
▁उद्धृत	-9.66866
▁विचारों	-9.66916
▁लगातार	-9.67064
▁आधुनिक	-9.67249
▁कीमत	-9.67401
▁नियंत्रित	-9.67457
▁सन्	-9.67459
▁स्वीकृति	-9.67563
▁जन	-9.67686
▁वर्णन	-9.68074
▁दूरी	-9.68184
i	-9.68231
▁ट्रस्ट	-9.68289
▁प	-9.68308
▁फोन	-9.68614
▁वैधता	-9.68616
▁अत्यधिक	-9.68712
▁शिव	-9.68732
▁कोड	-9.68813
▁पुन	-9.68839
▁दल	-9.6885
▁नेतृत्व	-9.6887
▁न्यायाधीशों	-9.69099
▁स्वीकार्य	-9.69176
▁हटाने	-9.6949
▁निर्वहन	-9.69537
▁K	-9.69583
▁दस्तावेज़	-9.69659
▁शांति	-9.69811
▁कल	-9.69861
▁मुद्रा	-9.69868
▁रहती	-9.70049
▁मि	-9.70154
▁सेना	-9.70205
▁मानक	-9.70316
▁ईश्वर	-9.70406
▁बिहार	-9.70456
▁सहकारी	-9.70542
▁संक्षेप	-9.70628
▁जरूरी	-9.70656
▁दोष	-9.70744
▁रकम	-9.70793
▁आत्मा	-9.70908
ति	-9.70976
▁जनरल	-9.70985
▁ह	-9.71001
▁कर्नाटक	-9.7111
▁अवलोकन	-9.71142
▁किरायेदार	-9.71206
▁गुण	-9.71414
▁हद	-9.71475
▁संघर्ष	-9.71566
दा	-9.71588
▁निम्न	-9.71601
▁युवा	-9.71601
राम	-9.71607
▁तभी	-9.71663
▁मनुष्य	-9.71846
▁शाखा	-9.71923
▁प्रेरित	-9.71939
▁कंपनियों	-9.72087
▁महसूस	-9.72151
्र	-9.72198
▁दास	-9.72254
▁पृष्ठभूमि	-9.72284
▁निशान	-9.72329
▁देकर	-9.72339
▁मार	-9.7234
▁जानते	-9.72378
ंड	-9.72411
▁अस्थायी	-9.72478
▁मिलने	-9.72493
▁वैज्ञानिक	-9.72499
▁अपेक्षित	-9.72544
▁सो	-9.72576
▁सकें	-9.72619
▁बेटे	-9.72776
▁कौन	-9.72781
कारी	-9.72889
▁खुला	-9.72906
▁समुदाय	-9.72931
▁महान	-9.73037
▁कहता	-9.73094
▁रजिस्ट्रार	-9.73104
▁पर्यावरण	-9.73119
I	-9.73365
▁निरंतर	-9.73457
▁पंजाब	-9.73595
▁मोबाइल	-9.73633
▁सर	-9.73727
▁II	-9.73851
▁जुर्माना	-9.73932
▁धीरे	-9.74057
ड़	-9.74067
u	-9.74108
▁अल	-9.74147
▁अग्रिम	-9.74266
▁एजेंसी	-9.74299
▁देखभाल	-9.74466
▁बिल्कुल	-9.74567
▁एकत्र	-9.74608
▁चूक	-9.7484
▁कविता	-9.75
▁हे	-9.75156
▁इरादे	-9.75209
▁खो	-9.75288
▁निर्वाचन	-9.75475
▁T	-9.75706
▁अधिकतम	-9.75735
▁मनोरंजन	-9.75848
▁समारोह	-9.7595
y	-9.7619
▁तत्व	-9.76381
▁a	-9.76465
▁रचना	-9.76484
▁आशा	-9.76489
▁सकेगा	-9.768
▁शिक्षक	-9.76888
लाल	-9.76985
जा	-9.77019
▁कहने	-9.77065
▁कमीशन	-9.77122
▁एचसी	-9.77139
▁इसने	-9.77366
▁कॉल	-9.77471
▁जैन	-9.77623
▁घरेलू	-9.778
▁श	-9.7801
▁धोखाधड़ी	-9.78043
▁उपभोक्ता	-9.78216
▁अनुपस्थिति	-9.78233
▁उद्यम	-9.7836
▁खंडन	-9.78417
▁जिले	-9.78439
▁कठोर	-9.78485
▁खाद्य	-9.78559
पी	-9.78672
▁आशय	-9.78746
▁जम्मू	-9.78774
▁मीटर	-9.78812
▁विवादित	-9.78915
▁ii	-9.7896
▁अक्टूबर	-9.79019
▁रहना	-9.79073
▁हासिल	-9.79124
▁आंदोलन	-9.79143
▁आयात	-9.79146
▁विधिवत	-9.79155
▁एच	-9.7922
▁असम	-9.79247
▁प्रतिबंध	-9.7935
▁दशा	-9.79373
▁केन्द्रीय	-9.7939
वाद	-9.79472
▁छुट्टी	-9.79475
रे	-9.7958
▁वार्षिक	-9.79746
▁दुकान	-9.7976
▁दिवस	-9.79898
▁निचल	-9.7997
▁केन्द्र	-9.80036
ां	-9.80085
▁बरकरार	-9.8011
▁सामान	-9.80209
▁बनाना	-9.80218
▁आमतौर	-9.80288
▁संसाधन	-9.80385
▁अव	-9.80524
▁सारे	-9.80613
▁वसीयत	-9.8086
▁निवास	-9.8088
▁कल्पना	-9.80999
▁स्व	-9.81045
▁जब्ती	-9.81051
▁लग	-9.81071
भ	-9.81079
▁महिलाओं	-9.81088
▁प्रकाशन	-9.81126
▁निर्भरता	-9.8113
▁अनुशासनात्मक	-9.81145
▁इतनी	-9.81179
▁सम्मिलित	-9.81214
▁बकाया	-9.8125
वें	-9.81272
▁पद्धति	-9.81372
▁मेल	-9.81412
▁स्वामित्व	-9.81501
▁नेटवर्क	-9.81517
▁विशाल	-9.81518
▁प्रमाणपत्र	-9.81582
▁प्रविष्टि	-9.81603
▁संज्ञान	-9.81647
▁बातचीत	-9.8168
▁सर्वेक्षण	-9.81681
▁अन	-9.81803
▁अधिकृत	-9.81881
▁प्रबंध	-9.81892
▁इ	-9.82044
१२	-9.8208
▁गिरफ्तारी	-9.82111
▁ब्रिटिश	-9.82366
▁दंडनीय	-9.82516
▁आती	-9.8258
▁वैकल्पिक	-9.82692
▁अत्यंत	-9.82766
▁ला	-9.82815
▁सीट	-9.82833
▁कठिन	-9.82848
▁मंच	-9.82951
▁समाचार	-9.83025
▁कराने	-9.83073
▁जीव	-9.83085
एँ	-9.83273
▁आदमी	-9.83282
▁एनआईसी	-9.83509
ाना	-9.83514
▁कमरे	-9.83801
▁किन्तु	-9.84113
▁हथियार	-9.84203
▁पटना	-9.84205
▁डिजाइन	-9.8423
▁लंबे	-9.84306
▁कराया	-9.84441
▁चरित्र	-9.84489
▁कवि	-9.84496
▁महा	-9.8465
▁गिर	-9.84727
▁मुस्लिम	-9.84785
▁भाव	-9.84795
▁साधन	-9.84801
▁रोड	-9.84899
▁छोटा	-9.84902
▁हल	-9.84933
ँ	-9.84944
▁फ़ाइल	-9.85102
▁000	-9.85109
▁जाये	-9.85188
शन	-9.85237
▁कृष्ण	-9.85306
▁डेटा	-9.85405
▁बदलाव	-9.85468
▁उम्मीद	-9.85562
▁पहुंचे	-9.85578
▁मौलिक	-9.85641
▁सुश्री	-9.85643
▁डाल	-9.85663
▁शुरुआत	-9.85696
▁चित्र	-9.85753
▁प्रतिनिधि	-9.85756
▁L	-9.85975
▁संस्कृति	-9.85979
▁घंटे	-9.86092
वर	-9.86108
▁प्रणब	-9.86287
▁विशेषज्ञ	-9.86328
▁विद्युत	-9.86332
▁नवंबर	-9.86356
▁व्यावसायिक	-9.86432
▁आपकी	-9.86661
▁मिले	-9.86699
▁काउंटर	-9.86812
▁बुलाया	-9.86814
पर	-9.86892
▁एससी	-9.86952
▁पुराने	-9.87091
▁उत्पादों	-9.87335
▁विभागीय	-9.87368
▁खड़ा	-9.87464
▁तेजी	-9.87506
▁दर्शाया	-9.87652
▁घटनाओं	-9.87813
▁लेन	-9.87829
▁विनियमन	-9.88005
▁शपथ	-9.88102
▁स्थानों	-9.88221
▁बनी	-9.88266
▁श्रृंखला	-9.88296
▁देव	-9.88554
▁विजय	-9.88567
▁पहलुओं	-9.88604
▁संचालित	-9.88682
▁पहुंचा	-9.88707
▁आवश्यकताओं	-9.88859
▁हिन्दी	-9.88934
▁अपवाद	-9.88978
▁निपटने	-9.89006
▁गठित	-9.8907
▁लेनदेन	-9.89184
▁पक्षकारों	-9.89217
▁महाराष्ट्र	-9.89232
▁हानि	-9.89279
▁संस्कृत	-9.89385
▁डाला	-9.89706
▁माँ	-9.89865
▁मुंबई	-9.89884
n	-9.89885
▁सीपीसी	-9.8992
ाई	-9.90118
▁तरीका	-9.90158
▁अपराधी	-9.90185
▁निष्पक्ष	-9.90199
▁x	-9.90248
▁बुनियादी	-9.90289
▁पाई	-9.90292
▁त	-9.90293
▁पैसे	-9.90318
▁दिखा	-9.90404
▁H	-9.90488
राज	-9.9049
▁दर्शात	-9.90491
▁आवास	-9.90511
▁इलाज	-9.90529
▁अकेले	-9.90716
▁नाटक	-9.90739
▁मुश्किल	-9.90747
▁विविध	-9.90792
▁केरल	-9.90805
▁सफलता	-9.90939
▁कर्तव्यों	-9.90943
अ	-9.90952
▁असमर्थ	-9.91061
▁गलती	-9.91088
कार	-9.91392
▁खान	-9.91434
▁यादव	-9.91484
▁जोखिम	-9.91736
▁V	-9.91877
▁अतः	-9.9192
▁हाथों	-9.92047
▁लि	-9.92066
▁आमंत्रित	-9.92214
▁उ	-9.92279
▁शाम	-9.92351
t	-9.92366
▁आत्म	-9.92466
▁विधेयक	-9.92499
▁कार्ड	-9.92628
▁उद्देश्यों	-9.92631
▁प्राथमिकी	-9.92655
▁आवंटित	-9.927
▁जीवित	-9.92702
e	-9.92735
▁पीओ	-9.92786
▁विल	-9.92788
▁भागीदारी	-9.928
▁जाएंगे	-9.92911
▁तेज	-9.92925
▁आंध्र	-9.92936
▁पहुंचने	-9.9298
▁जान	-9.92997
▁वेतनमान	-9.93109
▁खुलती	-9.93222
ै	-9.93271
▁F	-9.93279
▁संबोधित	-9.9338
▁मिनट	-9.93544
▁बोल	-9.9355
▁बताए	-9.93563
▁सेवानिवृत्ति	-9.93575
र्स	-9.93672
▁शैक्षणिक	-9.9411
▁बातों	-9.94221
▁सरल	-9.94392
▁विंडों	-9.94399
▁बे	-9.94424
▁किराए	-9.94476
▁स्थगित	-9.94477
▁अनुलग्नक	-9.94479
वार	-9.94547
▁अंतरराष्ट्रीय	-9.94563
▁नष्ट	-9.94595
▁देन	-9.94618
▁स्वरूप	-9.94833
▁मोटर	-9.94938
▁विधायिका	-9.95051
▁सेवाएं	-9.95059
▁बोझ	-9.95136
▁आंतरिक	-9.95175
स्ट	-9.95206
▁अति	-9.95211
▁आग	-9.95269
▁समानता	-9.95284
▁साक्षी	-9.95423
▁सोच	-9.95491
▁अदालतों	-9.95541
▁क्षति	-9.9555
▁सदन	-9.95555
आ	-9.95607
▁बधाई	-9.9567
▁बढ़ावा	-9.95769
▁उपबंधों	-9.96011
▁पकड़	-9.96015
▁मु	-9.96129
▁पे	-9.9619
▁धारणा	-9.96272
▁अभि	-9.96478
▁प्राचीन	-9.96538
▁सम्मेलन	-9.96801
▁आयकर	-9.96879
▁चुना	-9.96921
▁संग्रह	-9.96938
▁अवधारणा	-9.96956
▁साइट	-9.96993
▁बशर्ते	-9.97044
▁प्रतिक्रिया	-9.97048
▁अंततः	-9.97059
फ़	-9.97091
▁विश्वसनीय	-9.97169
ये	-9.97203
▁हृदय	-9.9722
▁लेता	-9.97416
▁टिप्पणियों	-9.97473
▁सुनाई	-9.97506
▁रखरखाव	-9.97633
▁गुना	-9.9768
▁सबमिशन	-9.9776
▁पश्चिमी	-9.98011
▁क्रमशः	-9.98143
▁संगीत	-9.98214
▁आदर्श	-9.98223
▁इच्छुक	-9.98397
▁बनने	-9.98403
▁जोड़ा	-9.98435
िन	-9.98448
▁गुप्ता	-9.98453
▁ज	-9.9847
▁दर्शन	-9.98738
▁तथापि	-9.98751
▁जाया	-9.98751
▁संभावित	-9.98821
▁चंद्र	-9.99014
▁ठेकेदार	-9.99079
▁चले	-9.99087
▁बताता	-9.99126
▁योग	-9.99205
म्	-9.99287
▁गैस	-9.99291
▁शराब	-9.99336
▁अंश	-9.99358
▁अधिकरण	-9.99382
▁रजिस्टर	-9.99678
▁चुकी	-9.99682
▁गृह	-9.99698
▁बहन	-9.99771
S	-9.99826
▁संक्षिप्त	-9.99861
▁हस्तांतरण	-9.99913
▁नजर	-9.99968
▁आसपास	-9.99981
▁आरक्षण	-10.0029
१३	-10.0036
▁ग्रहण	-10.0038
▁देखें	-10.0039
▁विनिर्दिष्ट	-10.0041
▁डिग्री	-10.0046
▁नये	-10.0048
▁इस्लाम	-10.0059
▁संदिग्ध	-10.0063
▁लेखक	-10.007
▁विफलता	-10.0075
▁दैनिक	-10.0076
▁तथ्यात्मक	-10.0078
▁य	-10.0079
▁जोड़	-10.0086
▁बैंकों	-10.0088
▁हिन्दू	-10.0089
▁धारक	-10.009
▁समग्र	-10.0103
▁मिलती	-10.0103
▁कपड़े	-10.012
▁शाह	-10.0124
रो	-10.0136
▁शिक्षकों	-10.0136
▁ग्रेड	-10.0144
▁असाधारण	-10.0146
▁मकान	-10.016
▁खंडपीठ	-10.016
▁हजार	-10.0182
▁आरक्षित	-10.0186
▁जानता	-10.019
▁पूर्ववर्ती	-10.0192
▁कृपया	-10.0208
▁ज्ञात	-10.0209
▁बढ़ाया	-10.0215
▁नाते	-10.0223
वादी	-10.0236
▁आंशिक	-10.0238
▁चिंता	-10.0245
▁अपनाया	-10.0267
▁बलात्कार	-10.0274
▁न्यायमूर्ति	-10.0275
▁मर	-10.0278
▁चश्मदीद	-10.0292
▁स्वीकृत	-10.03
▁आवंटन	-10.0311
प्र	-10.0314
▁प्रो	-10.0317
बा	-10.0321
▁सिस्टम	-10.0321
▁अधिसूचित	-10.0332
▁सुविधाओं	-10.0333
▁सम	-10.0334
▁प्रयुक्त	-10.0364
ंस	-10.0373
▁पूछा	-10.0375
▁डा	-10.04
▁माह	-10.0404
▁निकट	-10.0405
▁सौ	-10.0414
▁हलफनामा	-10.0415
▁भगवान	-10.0421
▁वजह	-10.0422
▁असर	-10.0429
▁संस्थाओं	-10.0438
▁चोटें	-10.0439
▁मिलकर	-10.0445
घ	-10.0445
▁चिह्न	-10.0453
▁हवा	-10.0458
▁सेवानिवृत्त	-10.0467
▁करीब	-10.0468
ध	-10.0469
हा	-10.048
▁वीडियो	-10.0486
▁रे	-10.0493
▁लॉ	-10.0495
▁परामर्शदाता	-10.0501
▁अनुमोदित	-10.0507
▁साफ	-10.0516
ष	-10.0525
▁विद्यमान	-10.0526
▁पैमाने	-10.0531
▁गुरु	-10.0535
▁पंच	-10.0551
▁हिंदी	-10.0561
▁शैक्षिक	-10.0567
▁वाद	-10.0568
▁वायु	-10.058
▁अक्सर	-10.0585
▁बनाता	-10.0586
▁बढ़ने	-10.0597
▁असफल	-10.0607
▁सील	-10.0609
▁अभियोजक	-10.0622
▁नारायण	-10.0636
▁बदले	-10.0648
▁प्रोत्साहन	-10.0649
▁कश्मीर	-10.0651
▁आवाज	-10.0652
तम	-10.0656
▁वरिष्ठता	-10.0661
▁रुचि	-10.0662
▁प्रचार	-10.0676
▁अवमानना	-10.0678
▁आपका	-10.068
प्पा	-10.0687
▁वें	-10.069
▁अरब	-10.069
▁चीज	-10.0691
▁अर्थव्यवस्था	-10.0702
▁संबद्ध	-10.0702
मी	-10.0713
▁कलकत्ता	-10.0719
▁आठ	-10.0721
▁मुआवजा	-10.0728
▁खातों	-10.0735
▁नामित	-10.0736
▁दिमाग	-10.0747
▁धारण	-10.075
▁अली	-10.0751
▁ब्लॉक	-10.0752
▁डे	-10.0753
▁गर्इ	-10.0764
▁घ	-10.077
▁नागरिकों	-10.0775
▁विदेश	-10.0779
▁जिनकी	-10.0783
▁उपयोगी	-10.079
▁समस्याओं	-10.0792
▁शुद्ध	-10.0806
▁करार	-10.0808
▁यूपी	-10.081
▁अंतर्राष्ट्रीय	-10.0821
▁फल	-10.0822
▁वातावरण	-10.0826
▁सलाहकार	-10.0833
▁नामक	-10.0841
▁शैली	-10.0842
▁रुपए	-10.0843
▁टीम	-10.0849
▁00	-10.085
▁जानबूझकर	-10.0854
▁पूजा	-10.0856
वि	-10.086
▁शिक्षण	-10.0864
▁विषयों	-10.088
करण	-10.0883
▁वीं	-10.0886
डा	-10.0906
▁घाव	-10.091
▁हाउस	-10.0911
▁हितों	-10.0927
▁ट	-10.0952
▁मित्र	-10.0963
▁भू	-10.0964
▁दहेज	-10.0973
▁समुद्र	-10.0975
▁पट्टे	-10.0978
▁हैः	-10.098
्त	-10.0981
▁पाठ	-10.0985
▁प्रा	-10.0986
▁J	-10.0997
▁युग	-10.1
▁चार्जशीट	-10.1006
▁दबाव	-10.1037
▁नियत	-10.1037
▁स्टेट	-10.1041
▁द्वितीय	-10.1053
▁मिट्टी	-10.1059
▁बहु	-10.1068
▁कारक	-10.1076
इ	-10.1077
ीकृत	-10.1086
▁परिवर्तित	-10.1088
▁E	-10.1089
▁वापसी	-10.1089
▁म	-10.109
▁शताब्दी	-10.1092
▁दूसरों	-10.1097
▁सुनने	-10.1104
▁देखना	-10.111
▁विधायी	-10.1117
▁मशीन	-10.1128
▁क्लॉज	-10.1135
▁प्रबंधक	-10.114
▁अर्जित	-10.1141
▁बदलने	-10.115
▁पूर्वाग्रह	-10.115
▁पड़	-10.1151
▁भार	-10.1153
▁बताने	-10.1155
▁काउंसिल	-10.1155
▁खराब	-10.1168
▁शीघ्र	-10.1174
▁प्रभारी	-10.1174
▁सुंदर	-10.1195
▁भागों	-10.1204
▁दाव	-10.1205
▁निकल	-10.1217
▁सांस्कृतिक	-10.122
▁प्रवर्तन	-10.1222
▁Ext	-10.1233
▁स्थानांतरण	-10.1238
▁उपक्रम	-10.1246
▁रहेगा	-10.1256
▁रोगी	-10.1264
▁अनुसरण	-10.1267
▁स्कूलों	-10.1295
▁प्रसिद्ध	-10.1302
वे	-10.1311
▁लापरवाही	-10.1314
▁तत्पश्चात	-10.1323
पाल	-10.1343
▁काव्य	-10.1352
▁अनुकूल	-10.1355
टा	-10.136
▁लाइन	-10.1369
▁जोड़ने	-10.1376
U	-10.1383
▁तमिलनाडु	-10.1386
▁ग्राहक	-10.1392
▁वारंट	-10.1401
▁ठहरा	-10.1407
▁औपचारिक	-10.1412
▁पावर	-10.1417
▁विरोधी	-10.1417
▁पेटेंट	-10.1422
▁जल्दी	-10.1427
▁विवादों	-10.1432
▁आलोक	-10.1433
▁अधीनस्थ	-10.1434
▁परेशान	-10.1438
▁मजबूर	-10.1443
▁सम्बन्ध	-10.1455
▁जिम्मेदारी	-10.1476
al	-10.1479
▁टन	-10.1486
▁देयता	-10.1487
er	-10.1488
▁HC	-10.1498
▁इजरायल	-10.1498
▁इत्यादि	-10.15
▁भाषण	-10.1507
▁अनंतिम	-10.1516
▁डाक	-10.1526
▁गुणों	-10.1528
▁मो	-10.1533
▁निकाल	-10.1543
▁लगाना	-10.1549
▁इतने	-10.1556
▁JUDGMENT	-10.1561
▁वर्गों	-10.1561
▁डर	-10.1575
▁उन्नत	-10.1578
▁शंकर	-10.1594
▁पत्रों	-10.1631
▁प्रधानमंत्री	-10.1632
▁परिपत्र	-10.1632
▁बाकी	-10.1632
▁कार्यान्वयन	-10.1637
▁कार्यकाल	-10.1641
नाथ	-10.1653
▁सेवक	-10.1657
▁वर्मा	-10.1658
▁किराया	-10.1662
▁Rs	-10.1666
▁क्रेडिट	-10.1667
▁स्वाभाविक	-10.1678
▁गतिविधि	-10.1686
▁कमजोर	-10.1686
▁मांगी	-10.1688
▁अवकाश	-10.1698
▁आपने	-10.17
ेशन	-10.1716
▁दिये	-10.1727
▁W	-10.1729
▁आकस्मिक	-10.1732
▁फ	-10.1737
▁आयोजन	-10.1739
▁अनुवाद	-10.1744
▁रेखा	-10.1744
▁प्रचलित	-10.1744
तः	-10.1747
▁कानूनों	-10.1754
▁आह्वान	-10.176
पूर्वक	-10.1762
▁सत्यापन	-10.1765
बद्ध	-10.1768
▁ऑर्डर	-10.1775
▁अभियंता	-10.178
▁खड़े	-10.1786
▁सूचीबद्ध	-10.1788
▁नीलामी	-10.1803
▁ठोस	-10.1806
▁गणराज्य	-10.1822
▁बीमारी	-10.1828
▁समझने	-10.1843
▁आसानी	-10.1874
▁अर्ध	-10.1877
▁रास्ते	-10.1879
▁गो	-10.1884
▁इन्हें	-10.1895
▁लोकतंत्र	-10.1895
▁पहल	-10.1903
▁प्राइवेट	-10.191
▁सहारा	-10.1911
▁सामग्रिय	-10.1926
▁अचानक	-10.1936
▁संतुष्टि	-10.1946
▁सावधानी	-10.1957
तर	-10.196
▁दोहराया	-10.1963
▁भ	-10.1967
▁शिकार	-10.1968
▁बेचने	-10.1971
मान	-10.1979
B	-10.1979
▁जल्द	-10.1988
▁दृष्टया	-10.1989
▁विरोधाभास	-10.1993
▁पाकिस्तान	-10.1998
▁सारी	-10.2001
▁गंगा	-10.2016
▁खुले	-10.2016
▁राव	-10.2016
▁पैर	-10.2017
▁त्याग	-10.203
▁ड्यूटी	-10.2037
▁डिफ़ॉल्ट	-10.2047
o	-10.2047
▁एसोसिएशन	-10.2058
सं	-10.2075
▁खुशी	-10.2078
▁छ	-10.208
▁प्रश्नों	-10.2097
▁परि	-10.2108
▁पूर्वी	-10.2113
▁लंबी	-10.2122
हर	-10.2122
▁इंस्पेक्टर	-10.2127
pur	-10.2131
▁भेजने	-10.2131
▁आरोपित	-10.2138
▁चंद	-10.2139
▁सुभाष	-10.2148
▁क्रूरता	-10.2155
▁कर्म	-10.2156
त्व	-10.2163
▁नौ	-10.2166
▁स्मृति	-10.2175
▁उपन्यास	-10.2176
▁मुसलमानों	-10.2176
▁पात्रता	-10.218
▁सम्मानित	-10.2182
▁मानने	-10.2186
▁आतंकवाद	-10.2197
▁भेजे	-10.2201
▁खेती	-10.2203
▁मस्तिष्क	-10.2204
▁अशोक	-10.2207
▁जाएं	-10.2214
▁हवाला	-10.2215
▁अधिकारिता	-10.2229
▁कठिनाई	-10.2235
▁फीस	-10.2238
▁आवेदकों	-10.224
▁होटल	-10.2242
▁बचने	-10.2247
▁निरीक्षक	-10.2249
▁संसाधनों	-10.2252
१४	-10.2253
▁निकालने	-10.2256
मय	-10.2268
▁फसल	-10.2276
▁अहमद	-10.2279
▁इनके	-10.2293
▁लेखों	-10.2297
▁व्य	-10.2298
▁गईं	-10.2319
हीन	-10.2321
▁खत्म	-10.2321
▁शर्तें	-10.2325
▁देंगे	-10.2329
न्	-10.2371
▁उठता	-10.2386
▁मजदूरी	-10.2389
ार	-10.2389
▁प्रायः	-10.2398
▁पड़े	-10.24
▁पोस्टमार्टम	-10.2403
▁विभाजित	-10.2403
▁d	-10.2418
▁आत्महत्या	-10.242
▁बाधा	-10.2438
▁दिशानिर्देश	-10.2442
▁बताओ	-10.2446
▁कौशल	-10.2452
▁शहरी	-10.2458
▁बीज	-10.2465
▁सूक्ष्म	-10.2482
▁छत्तीसगढ़	-10.2486
▁वर्गीकरण	-10.2489
▁फॉर्म	-10.2494
▁पृथ्वी	-10.2502
जन	-10.2502
▁बाई	-10.2503
छ	-10.2506
▁सकारात्मक	-10.2508
▁अंतरण	-10.2509
▁मी	-10.2519
▁राजस्थान	-10.252
ेश	-10.2524
▁अनुप्रयोग	-10.2531
▁अगल	-10.2533
▁पाल	-10.2534
▁अधि	-10.2534
▁नतीजतन	-10.2536
ॉ	-10.2538
▁अधीक्षक	-10.2541
▁झूठ	-10.2546
▁मीडिया	-10.2547
स्	-10.2557
▁संबंधों	-10.2562
ड़ा	-10.2563
▁उड़ीसा	-10.2564
▁भरने	-10.2576
▁निपटाया	-10.2582
▁सार	-10.2587
▁टिप्पणी	-10.259
▁उत्पादित	-10.2593
▁तुम्हें	-10.2598
▁लगाई	-10.2613
▁सि	-10.2615
▁फिल्म	-10.262
रिया	-10.2627
▁राज्यपाल	-10.2628
▁संविदा	-10.264
▁लें	-10.2645
▁हिंसा	-10.2648
▁नेता	-10.2656
▁कांस्टेबल	-10.2665
्ड	-10.2665
▁आसान	-10.2666
ौ	-10.2666
▁लौट	-10.2671
▁दूध	-10.2676
▁चेतना	-10.2677
▁एडवोकेट	-10.2682
▁चेहरे	-10.2688
▁रिटर्न	-10.269
▁दिल	-10.2695
▁खोलने	-10.2707
▁SCA	-10.2708
▁हैदराबाद	-10.271
▁सुसंगत	-10.271
ेश्वर	-10.2712
▁देर	-10.2713
▁अनुकंपा	-10.2727
ठ	-10.2729
▁NIC	-10.2734
▁मौसम	-10.2735
▁विधानमंडल	-10.2739
▁चौधरी	-10.2744
▁शासित	-10.2745
an	-10.2756
▁रेल	-10.2756
▁अभियान	-10.2761
▁परियोजनाओं	-10.2766
▁स्वागत	-10.2767
▁औचित्य	-10.2771
▁नमूना	-10.2776
▁उत्तराधिकार	-10.2779
▁प्रदत्त	-10.2779
▁प्रसन्नता	-10.2794
▁संगठनों	-10.2798
▁निवारण	-10.2801
▁अस्पष्ट	-10.2801
▁किसानों	-10.2805
▁बनता	-10.2806
▁लड़की	-10.2807
▁तलाश	-10.2813
▁कथा	-10.2822
▁पथ	-10.2823
▁कारबार	-10.2825
▁प्रतीक	-10.2834
C	-10.2835
▁गहन	-10.2835
▁चाकू	-10.2841
▁कक्षा	-10.2846
▁व्यावहारिक	-10.2847
▁शक्तियां	-10.2862
▁प्रेस	-10.287
▁नकारात्मक	-10.287
▁कायम	-10.2872
▁परस्पर	-10.2876
▁लेखन	-10.2879
िस	-10.2882
▁विद्यालय	-10.2882
आर	-10.2883
३०	-10.2884
▁स्टैंड	-10.2892
यें	-10.2909
यां	-10.2911
▁धमकी	-10.2912
▁तट	-10.2919
▁पक्षकार	-10.2925
▁यथा	-10.2927
▁गोली	-10.2939
▁ध्वनि	-10.2939
▁उद्योगों	-10.2941
▁मैदान	-10.295
स्त	-10.2956
▁कार्यक्रमों	-10.2957
▁स्कीम	-10.2964
▁विनियमों	-10.297
▁समस्त	-10.2975
▁रिश्तेदार	-10.2981
▁Kumar	-10.2984
▁चालक	-10.3009
▁अभियोग	-10.3014
▁उपायों	-10.3015
▁डि	-10.3015
ar	-10.302
▁भरा	-10.3021
▁iii	-10.3075
▁अतिक्रमण	-10.3086
मेंट	-10.31
▁बचा	-10.3106
▁प्रभार	-10.3112
▁राजनैतिक	-10.3115
▁अनुभाग	-10.3115
▁पेपर	-10.3115
▁बाबू	-10.3122
ियाँ	-10.3129
▁महत्त्वपूर्ण	-10.3139
▁छत	-10.3141
▁ऐतिहासिक	-10.3144
▁मोहन	-10.3144
▁मुकदमेबाज	-10.3146
▁विनियम	-10.3147
रू	-10.315
▁विशेषकर	-10.3167
▁दिनांकित	-10.3171
▁गुप्त	-10.3175
▁समितियों	-10.3183
▁बहस	-10.3193
▁बचाने	-10.3208
▁रिक्तियों	-10.321
L	-10.321
▁तत्काली	-10.3214
▁रीति	-10.3223
▁उधार	-10.3224
उ	-10.3226
▁खतरा	-10.3228
▁Cr	-10.324
▁संतुलन	-10.3245
▁बच	-10.3248
▁जुड़ा	-10.3249
▁लिखने	-10.3249
▁किशोर	-10.325
▁अवैधता	-10.3261
▁विमर्श	-10.3269
▁फैसल	-10.3269
▁विधिक	-10.3273
▁जायेगा	-10.3278
▁प्राधिकार	-10.3282
दी	-10.3286
▁सरकारों	-10.3288
▁लाभों	-10.3298
ed	-10.3299
▁जनसंख्या	-10.3299
▁रिक्त	-10.3299
▁नैतिक	-10.3306
▁द्वार	-10.3316
क्ष	-10.332
▁सूर्य	-10.3326
▁अयोग्य	-10.3329
▁दरवाजा	-10.3329
▁मानदंड	-10.3335
▁प्रशंसा	-10.3335
▁विद्यार्थियों	-10.3341
▁दलीलों	-10.3345
▁आये	-10.3345
▁पिछली	-10.3347
▁प्रतिद्वंद्वी	-10.3348
▁बाध्यकारी	-10.3349
▁फूल	-10.3359
▁मुसलमान	-10.3364
▁मरने	-10.3372
▁प्रस्तुतियाँ	-10.338
▁पेंडेंस	-10.3384
▁मोहम्मद	-10.3384
▁देखे	-10.3389
▁अपीलों	-10.3397
▁प्रथा	-10.3407
▁अमेरिकी	-10.3408
▁उत्पीड़न	-10.3408
▁स्त्री	-10.3416
▁तात्कालिक	-10.3416
▁शुभकामनाएं	-10.342
▁तस्वीर	-10.343
▁लो	-10.3433
▁प्रोत्साहित	-10.3438
▁खास	-10.3441
▁मना	-10.3442
यर	-10.3444
▁भूखंड	-10.3447
▁पेड़	-10.3467
▁हवाई	-10.3472
▁तीसरी	-10.3482
▁मेसर्स	-10.3487
▁बह	-10.3489
▁उनको	-10.349
▁मिश्रा	-10.3491
स्थ	-10.3493
▁यूनिट	-10.3498
▁संयंत्र	-10.35
नि	-10.3503
▁चीन	-10.351
▁प्रोफेसर	-10.3512
▁ठाकुर	-10.3512
सन	-10.3513
▁भूल	-10.3525
▁ओआरएस	-10.353
▁खतरे	-10.3542
▁प्रतिबंधित	-10.3543
▁संकट	-10.3549
▁जय	-10.3556
▁सौंपा	-10.3565
▁चलने	-10.3572
▁सोसाइटी	-10.3579
ण्ड	-10.3591
▁नामांकन	-10.3599
ेट	-10.3601
l	-10.3601
▁नेहरू	-10.3604
▁निगरानी	-10.3616
▁आक्रमण	-10.3635
▁वजन	-10.3662
▁कट	-10.3665
▁मारपीट	-10.3666
▁अवश्य	-10.3666
▁पेट	-10.3667
▁चलाया	-10.3674
▁बाबत	-10.3679
▁असंगत	-10.3679
सर	-10.368
▁सीधी	-10.3687
▁झ	-10.3695
▁पुनरीक्षण	-10.3697
▁नौकरी	-10.3698
▁वैश्विक	-10.3705
▁v	-10.3707
▁कृत्य	-10.3708
▁सीबीआई	-10.3723
▁छोड़ने	-10.3723
▁विश्वविद्यालयों	-10.3726
रूप	-10.373
▁आध्यात्मिक	-10.3734
यू	-10.3738
▁स्वैच्छिक	-10.3741
▁लिखे	-10.3745
▁एशिया	-10.3747
▁बताई	-10.3759
वन	-10.3761
▁पत्थर	-10.3767
▁प्राण	-10.3791
▁दशक	-10.3792
▁DW	-10.3794
▁सीमाओं	-10.3798
▁गैरकानूनी	-10.3811
▁तीसरा	-10.3811
▁जानने	-10.3812
▁योजनाओं	-10.3814
▁मगर	-10.3815
▁पार्क	-10.3816
त्र	-10.3825
▁जाय	-10.3826
▁वैसे	-10.383
▁गीत	-10.3836
▁मिशन	-10.3837
▁बातें	-10.3843
▁बॉम्बे	-10.3849
▁क्षतिपूर्ति	-10.3849
▁सिरे	-10.3873
▁बहुमत	-10.3874
▁तीनों	-10.3877
▁प्रतिष्ठा	-10.3886
▁राजमार्ग	-10.3894
▁चक्र	-10.3896
▁मानना	-10.3897
K	-10.3899
▁जाहिर	-10.39
▁सोने	-10.3901
▁रो	-10.3903
▁पटेल	-10.3906
वाली	-10.3916
▁संसदीय	-10.392
▁सृजन	-10.3924
▁मद्रास	-10.3925
▁किनारे	-10.3925
▁विकृत	-10.3927
▁वहीं	-10.3936
▁चलते	-10.3943
वाला	-10.3949
▁जटिल	-10.3961
▁देखकर	-10.3973
पा	-10.3974
कर्ताओं	-10.3975
वान	-10.3983
▁मॉडल	-10.4002
ड़ी	-10.4004
▁कृत्यों	-10.4009
▁रि	-10.4013
▁विक्रेता	-10.4013
▁राजेश	-10.4014
शी	-10.4021
▁दौरा	-10.4021
▁हालत	-10.4022
जे	-10.4024
▁आवासीय	-10.4037
▁झूठे	-10.404
▁थोड़ा	-10.4047
▁लक्षण	-10.4056
▁सामूहिक	-10.406
▁चयनित	-10.4065
ाँ	-10.407
▁भंग	-10.4078
▁पीड़िता	-10.4087
▁जितना	-10.4087
ing	-10.4093
▁नाबालिग	-10.4106
ंट	-10.4119
▁समुचित	-10.4119
▁मोड	-10.4124
▁शत्रुतापूर्ण	-10.4126
आई	-10.4128
▁जाकर	-10.4129
▁दलों	-10.4131
▁विहित	-10.4133
▁मानता	-10.4134
▁डब्ल्यू	-10.4143
▁मकसद	-10.4145
▁रखें	-10.415
▁महामहिम	-10.4151
▁संसार	-10.4153
▁अल्पसंख्यक	-10.4158
▁कारकों	-10.416
▁घटक	-10.4163
E	-10.4164
▁लिख	-10.4174
▁ऑनलाइन	-10.4178
▁अस्वीकृति	-10.4178
▁वार	-10.4183
▁न्यायपालिका	-10.4185
▁अमर	-10.4195
▁दृढ़	-10.4196
▁आश्वासन	-10.4197
▁रुख	-10.4207
▁रास्ता	-10.4211
▁पांडे	-10.4216
ान	-10.4218
▁अफ्रीका	-10.4224
▁विरूद्ध	-10.4224
▁पेशकश	-10.4224
▁प्रसार	-10.4226
▁संतोष	-10.4237
▁दोपहर	-10.4237
▁कराई	-10.4239
ER	-10.4249
▁भेदभाव	-10.4256
▁समन्वय	-10.4267
▁III	-10.4274
▁अचल	-10.4284
▁खा	-10.4287
▁एकड़	-10.4289
▁विधियों	-10.4296
▁चीजों	-10.4306
ियो	-10.4313
▁मानवीय	-10.4313
▁सशक्त	-10.4318
▁भा	-10.432
▁डायरी	-10.4325
▁नमूने	-10.4328
▁चुने	-10.433
▁ढांचे	-10.433
ाल	-10.4338
▁साक्षात्कार	-10.4343
ढ़	-10.4345
▁the	-10.4345
▁साजिश	-10.435
▁पाता	-10.4351
▁एक्ज़िबिट	-10.4363
▁प्रारूप	-10.4369
▁सोसायटी	-10.437
▁खरीदने	-10.4376
▁खण्ड	-10.4378
▁पूर्ति	-10.4379
▁पु	-10.4392
▁कारोबार	-10.4393
▁पैनल	-10.4401
▁प्रयत्न	-10.4407
यन	-10.4424
▁तकनीक	-10.444
▁डिस्क	-10.4441
▁सत्यापित	-10.4444
▁माप	-10.4448
▁घातक	-10.4451
p	-10.4452
▁चेन्नई	-10.4457
▁कागज	-10.4458
▁सेमी	-10.4458
ेज	-10.4465
▁समापन	-10.4466
▁कुंजी	-10.4468
▁प्रवृत्ति	-10.4469
▁दीवार	-10.4469
m	-10.4476
▁चेतावनी	-10.4477
▁पाँच	-10.4484
▁एआईआर	-10.4497
▁रसीद	-10.4503
▁दोस्त	-10.4505
▁खाना	-10.4506
▁छवि	-10.4509
रण	-10.4518
▁सावधानीपूर्वक	-10.4518
k	-10.452
▁नगरपालिका	-10.4525
▁लिखी	-10.453
▁यौन	-10.4532
▁युक्त	-10.454
▁निरोध	-10.4546
▁सुख	-10.4547
▁कार्यरत	-10.455
▁बंधक	-10.4567
मल	-10.457
मन	-10.4576
▁स्थितियों	-10.4582
▁उत्तरी	-10.4584
▁प्राधिकृत	-10.4589
▁कक्ष	-10.4601
▁पहुँच	-10.4604
युक्त	-10.4609
▁पुरान	-10.4609
जन्य	-10.4614
▁सागर	-10.4615
▁मास	-10.4622
▁वसूल	-10.4629
ीन	-10.4633
▁तीव्र	-10.4634
▁अगला	-10.4634
▁निर्णायक	-10.465
▁मूल्यों	-10.4654
▁यूनियन	-10.4655
▁सर्वाधिक	-10.4666
ास	-10.4668
▁टेलीफोन	-10.4668
्क	-10.4669
▁चार्ज	-10.4675
▁इकाइयों	-10.4675
▁मल	-10.4676
▁बैठ	-10.4676
▁काट	-10.4693
▁न्यू	-10.4697
▁विशेषता	-10.4701
▁देखी	-10.4711
▁आकर	-10.4712
▁नव	-10.4717
▁IPC	-10.4717
▁पश्चात	-10.4726
▁प्रदूषण	-10.4731
▁मानदंडों	-10.4732
▁बुक	-10.4733
▁वाणिज्य	-10.4734
▁क्र	-10.4739
▁स्वर्गीय	-10.4745
▁दंडित	-10.475
▁साझा	-10.4752
ंक	-10.4759
▁मासिक	-10.476
▁स्थगन	-10.4765
▁श्रेणीः	-10.4781
▁सॉफ्टवेयर	-10.4793
▁खाने	-10.4797
D	-10.4799
▁विचारण	-10.4802
▁नेशनल	-10.4805
▁रोका	-10.4805
▁डालने	-10.4809
▁दर्द	-10.481
▁पशु	-10.4821
▁बुद्धि	-10.4827
in	-10.4828
▁अब्दुल	-10.4835
▁मौका	-10.4837
▁चालू	-10.485
▁निपटारा	-10.485
▁उपयोगकर्ता	-10.4851
▁अधिनियमित	-10.4852
▁जनजाति	-10.4853
१५	-10.4853
▁उच्चतर	-10.4853
▁बढ़ती	-10.4855
▁विपणन	-10.4863
ेन	-10.4864
▁यथास्थिति	-10.487
▁मानकों	-10.4882
▁अंकित	-10.4882
सिंह	-10.4884
▁b	-10.4885
▁मान्य	-10.4888
▁अज्ञात	-10.4891
▁लिंक	-10.4893
▁ऐ	-10.4899
▁यूरोप	-10.49
▁निरस्त	-10.4904
▁फिट	-10.4905
▁गंभीरता	-10.4916
▁मनमाना	-10.492
▁वितरित	-10.4938
▁मेमो	-10.4946
▁हमले	-10.495
▁मशीनरी	-10.495
▁समर्थित	-10.495
▁सरदार	-10.4951
▁अभिप्रेत	-10.4955
▁’	-10.4966
▁हाई	-10.4971
▁प्रोग्राम	-10.4973
▁p	-10.4975
▁चीनी	-10.4982
काल	-10.4983
▁विभागों	-10.4985
▁प्रवाह	-10.4988
▁बच्चा	-10.4998
▁अकबर	-10.4998
▁मद	-10.5
▁मिलाकर	-10.5012
▁अभिलेख	-10.5019
▁एक्सट	-10.5029
▁आफ	-10.5029
टर	-10.5034
▁चिंतन	-10.5041
▁कितना	-10.5041
▁तार	-10.5043
▁निधन	-10.5048
कों	-10.5049
▁उपकरणों	-10.505
▁अवगत	-10.505
▁बैंकिंग	-10.5052
▁बि	-10.5052
▁प्यार	-10.5053
▁दस्तावेजी	-10.5054
िए	-10.5054
क्	-10.5056
नगर	-10.5058
▁निर्माता	-10.5061
▁तरीकों	-10.5062
▁आस्ति	-10.5066
▁जानें	-10.5066
▁निपटा	-10.5068
्ट	-10.5069
▁बेच	-10.5084
▁पूर्ववर्ष	-10.5084
▁आनन्द	-10.5096
▁विरासत	-10.5098
▁नियमितीकरण	-10.5108
▁अंतराल	-10.5114
▁सर्वर	-10.5114
▁निश्चय	-10.5121
िल	-10.5126
▁निलंबन	-10.5127
▁रासायनिक	-10.5127
▁सर्व	-10.5132
बाई	-10.5132
▁समझाया	-10.5132
▁परिकल्पना	-10.5134
क्स	-10.5137
बल	-10.5143
▁सर्वोत्तम	-10.5148
▁उत्तराधिकारी	-10.5149
N	-10.5163
▁दु	-10.5183
▁आपत्तिय	-10.5189
▁रा	-10.519
चर	-10.5196
▁आधारों	-10.5196
ाव	-10.5198
▁स्थिर	-10.5201
▁amp	-10.5206
▁अभियोगी	-10.5208
▁बनाते	-10.5216
▁लंबाई	-10.5229
▁भेजी	-10.5232
्या	-10.5236
▁तैनात	-10.524
▁सुविधाएं	-10.5247
▁हाईकोर्ट	-10.525
▁लोकप्रिय	-10.525
वल	-10.5256
▁जड़	-10.5257
▁भंडारण	-10.5258
▁प्रेरणा	-10.5264
▁नियोजित	-10.5272
ंत	-10.5276
▁उल्लेखनीय	-10.5281
▁भंडार	-10.5309
▁आदान	-10.5311
▁इमारत	-10.5315
देव	-10.5319
T	-10.5322
▁किलोमीटर	-10.5331
▁प्रक्रियाओं	-10.5331
▁नाथ	-10.5336
▁पोषण	-10.5348
▁रहित	-10.5352
▁इंटरनेट	-10.5353
▁लड़के	-10.5353
▁सिफारिशों	-10.5356
▁सिवाय	-10.5362
▁ग्राहकों	-10.5366
▁परंपरा	-10.5373
▁संरक्षित	-10.5375
▁समर्पित	-10.5375
▁अवसरों	-10.5375
▁पंचनामा	-10.5376
▁अन्दर	-10.539
▁कुमारी	-10.5395
▁चिंतित	-10.5397
▁बैठे	-10.5411
िट	-10.5411
पत्र	-10.5411
वीं	-10.5425
▁बहाल	-10.5441
▁वर्षा	-10.5442
▁भाषाओं	-10.5443
▁इलाहाबाद	-10.5449
▁सतह	-10.5449
▁आना	-10.545
▁क्रमांक	-10.5459
िनी	-10.546
पति	-10.5461
r	-10.5463
▁नयी	-10.5468
▁होंगी	-10.5471
▁स्थिरता	-10.5484
▁गर्दन	-10.5486
▁कमेटी	-10.5486
▁भ्रष्टाचार	-10.5486
▁फंसाया	-10.5487
▁बो	-10.5489
एल	-10.5497
▁परिणामी	-10.55
गर	-10.55
▁जैव	-10.5501
कल	-10.5502
▁पड़ी	-10.5505
शा	-10.5506
यी	-10.5514
▁महीनों	-10.5514
▁अमान्य	-10.5517
▁वास्तविकता	-10.5526
▁WPNo	-10.5527
वाले	-10.5529
ूर	-10.5538
▁भावी	-10.5546
▁विनिर्माण	-10.5546
▁पुनर्वास	-10.5546
ुर	-10.5551
▁उपलब्धता	-10.5555
▁स्टॉक	-10.5557
▁विनियमित	-10.5559
▁वेब	-10.5566
▁त्वरित	-10.5576
▁परमाणु	-10.5584
▁रेड्डी	-10.5585
▁अधिग्रहित	-10.5614
▁त्वचा	-10.562
▁मामूली	-10.5622
▁असंभव	-10.5622
▁विमान	-10.5623
▁करो	-10.5627
▁ट्रेड	-10.563
▁अग्रवाल	-10.5631
▁कैडर	-10.5631
V	-10.5635
▁कदाचार	-10.5637
▁नवान्वेषण	-10.5639
▁डीड	-10.564
ोल	-10.5642
राव	-10.5646
▁अटॉर्नी	-10.5652
▁पि	-10.5656
▁सुनील	-10.5656
▁एकता	-10.5661
▁कार्यवाहियों	-10.5667
▁प्रभाग	-10.5668
▁जहाज	-10.5669
ानी	-10.5675
▁अपनाने	-10.5679
▁दान	-10.568
▁नीतियों	-10.5681
▁विनिमय	-10.5683
▁गहरी	-10.5683
▁हस्तांतरित	-10.569
▁मै	-10.5692
▁व्यवस्थित	-10.5698
▁चाय	-10.5711
▁पवित्र	-10.5713
▁एजेंट	-10.5717
▁ऊपरी	-10.572
▁लड़ाई	-10.5722
▁ईसा	-10.5724
र्	-10.5727
▁Village	-10.5728
▁हरियाणा	-10.5736
▁माध्यमिक	-10.574
शील	-10.574
▁पैसा	-10.5745
▁इंजीनियरिंग	-10.5745
▁विनय	-10.5749
▁किसान	-10.5751
▁सफेद	-10.5751
▁इंकार	-10.5753
▁तल	-10.5755
▁कितनी	-10.5775
▁डीडब्ल्यू	-10.5783
▁सतर्कता	-10.5784
▁ताकत	-10.5796
▁निर्विवाद	-10.5798
▁अनियमितता	-10.58
▁सम्बन्धी	-10.5811
or	-10.5817
▁१६	-10.5824
▁फेंक	-10.5835
▁साझेदारी	-10.5835
▁तैयारी	-10.584
दास	-10.584
▁बाह्य	-10.5845
▁दुर्बलता	-10.5852
▁अर्जी	-10.5855
▁स्वस्थ	-10.5855
▁एड	-10.5865
▁सोचा	-10.5866
▁f	-10.5868
▁पो	-10.5869
ियन	-10.5871
ेड	-10.5871
▁व्यायाम	-10.5875
▁समूहों	-10.5876
▁विशेषाधिकार	-10.5879
▁बंदूक	-10.5883
▁बचत	-10.5884
▁प्रतिबद्ध	-10.59
▁चाहती	-10.5907
▁पूरक	-10.5914
▁पूर्वव्यापी	-10.5915
ra	-10.5917
▁विक्रय	-10.5922
▁अनुशासन	-10.5927
▁कतिपय	-10.593
▁वक्फ	-10.593
▁मुंह	-10.5937
▁विंडो	-10.5946
▁and	-10.5948
▁o	-10.595
▁प्रतिष्ठान	-10.5962
▁चीज़	-10.5962
▁अग्रणी	-10.5962
▁उपहार	-10.5964
▁तहसीलदार	-10.5969
▁मार्क	-10.5977
▁बोस	-10.5978
▁पड़ेगा	-10.5978
▁अपनाई	-10.598
▁लीज	-10.598
▁मालिकों	-10.5981
झ	-10.5992
▁घटनास्थल	-10.5993
▁खरीदार	-10.5999
▁निषेध	-10.6
ुल	-10.6008
डे	-10.6022
ंच	-10.6034
▁खेत	-10.6037
▁दायित्वों	-10.6044
▁वैवाहिक	-10.6055
▁नवीन	-10.6063
▁सिटी	-10.6067
▁विकलांगता	-10.6071
▁सहज	-10.6075
▁अल्प	-10.608
▁नेताओं	-10.6082
▁याचिकाएं	-10.6082
▁आरम्भ	-10.6086
▁संतोषजनक	-10.6087
▁संवर्धन	-10.6096
▁मास्टर	-10.6097
▁राजनीति	-10.6102
▁इनका	-10.6106
▁कब	-10.6107
▁हा	-10.6111
▁कोलकाता	-10.6111
▁मा	-10.6119
▁जुड़ी	-10.612
▁दवा	-10.6128
▁नकद	-10.6136
▁चैनल	-10.6149
▁चली	-10.615
▁नर	-10.6154
▁बीमार	-10.6155
▁श्रेणियों	-10.6159
▁अक्षम	-10.6165
खा	-10.6169
▁अंतर्निहित	-10.6175
▁लिंग	-10.6177
▁रानी	-10.6177
▁गौर	-10.6177
▁रिकॉर्डिंग	-10.6178
गो	-10.6182
▁शंकराचार्य	-10.6183
▁स्प	-10.6187
कृत	-10.6191
▁इंडियन	-10.6191
▁मुख	-10.6192
▁U	-10.6197
▁बोलीदाता	-10.6199
▁जिनक	-10.62
▁जरिए	-10.6211
▁कोयला	-10.6223
एन	-10.6228
▁दिव्य	-10.6249
चा	-10.6254
ची	-10.6257
▁भेद	-10.6261
▁प्रतीक्षा	-10.6263
▁खनन	-10.6264
▁अधिकतर	-10.6275
▁दुखी	-10.6277
▁आशंका	-10.628
▁गांवों	-10.6287
▁मारने	-10.6291
▁कुशल	-10.6293
▁मध्यम	-10.6302
▁रस	-10.6305
▁परिणामों	-10.6315
▁आहार	-10.6317
▁पढ़	-10.632
▁पुस्तकों	-10.6324
दर	-10.6327
▁c	-10.6328
▁ग्रस्त	-10.6329
▁चलो	-10.6336
▁स्नातक	-10.6336
▁विलंब	-10.6342
▁भ्रम	-10.6357
▁नजरअंदाज	-10.6361
▁सिंचाई	-10.6369
▁टिकट	-10.6372
▁झारखंड	-10.6385
टन	-10.6387
▁चालान	-10.6394
▁सदस्यता	-10.6394
▁शेयरधारक	-10.6396
▁महात्मा	-10.6402
ेंगे	-10.6403
ृ	-10.6413
▁कॉलेजों	-10.6419
▁ब्रह्म	-10.6422
▁फार्म	-10.6422
▁स्वभाव	-10.6426
इस	-10.6428
▁विस्तारित	-10.6432
▁गहरा	-10.6437
सु	-10.6445
▁खुली	-10.6451
▁निर्दोष	-10.6452
▁बै	-10.6454
▁निदेश	-10.6457
▁प्रतिनिधियों	-10.6471
▁सभ्यता	-10.6474
▁न्यायसंगत	-10.6476
▁कितने	-10.6476
▁पैकेज	-10.6482
▁तत्वों	-10.6482
▁शिखर	-10.6484
▁परमिट	-10.6493
्म	-10.6495
▁ना	-10.6504
▁भरे	-10.6504
▁उठ	-10.6506
F	-10.6511
▁w	-10.6514
▁मिलियन	-10.6515
▁गरीब	-10.6523
▁मृत्युदंड	-10.6525
▁प्रतियोगिता	-10.6534
▁प्रतिलिपि	-10.6534
▁लकड़ी	-10.6534
▁आस	-10.6555
▁होम	-10.6556
▁अन्तर्गत	-10.6559
▁संवाद	-10.6564
▁पर्यटन	-10.6567
▁बेटा	-10.6568
▁in	-10.6569
मे	-10.6571
▁हैंः	-10.6583
▁हिंदुस्तान	-10.6592
it	-10.6593
▁प्रतिस्थापित	-10.6594
▁समृद्ध	-10.6597
▁धनराशि	-10.6601
▁स्वतः	-10.6602
था	-10.6602
▁अन्त	-10.6603
ेल	-10.6603
g	-10.6606
▁मार्गदर्शन	-10.6609
▁हु	-10.6611
▁सुनाया	-10.6614
िम	-10.6615
▁श्रेष्ठ	-10.6616
▁सच्चाई	-10.6626
▁पंक्ति	-10.6632
▁सदैव	-10.6634
▁Bihar	-10.664
▁रिहा	-10.6641
▁कीट	-10.6653
▁शांत	-10.6665
▁बीमाकर्ता	-10.6681
▁सम्पूर्ण	-10.6685
▁स्वर	-10.6685
▁बॉक्स	-10.6687
▁क्रिकेट	-10.6693
▁परिचित	-10.6693
म्ब	-10.6695
ंद	-10.6698
▁व्यक्तित्व	-10.6698
▁पंडित	-10.6702
▁निहितार्थ	-10.6703
▁पौधों	-10.6703
ांग	-10.6708
ात	-10.6709
▁मरम्मत	-10.671
▁बैग	-10.6712
▁आलोचना	-10.6718
▁नियंत्रक	-10.6718
▁पोस्टमॉर्टम	-10.6718
▁पीछा	-10.6719
▁पोत	-10.6719
▁पीड़ा	-10.6722
▁एपी	-10.6722
▁लगने	-10.6722
ुआ	-10.6724
▁रियायत	-10.6725
▁निवेदन	-10.6727
▁इकट्ठा	-10.673
▁दौर	-10.6748
▁चोरी	-10.675
▁राजधानी	-10.676
▁अंजाम	-10.676
▁पदार्थों	-10.6762
▁लेती	-10.6764
रत	-10.6769
▁वचन	-10.6771
▁निर्वाचित	-10.6777
▁मह	-10.6785
▁फ्लैट	-10.6795
▁असली	-10.6795
वाल	-10.6804
मु	-10.6808
▁उपखंड	-10.6813
▁अनावश्यक	-10.682
चारों	-10.6823
एस	-10.6828
▁शुद्धता	-10.6843
▁संजय	-10.6846
▁Singh	-10.6854
▁संक्रमण	-10.6855
ेंट	-10.6857
▁बताती	-10.686
शोथ	-10.6861
▁जनहित	-10.6863
उतना	-10.687
िता	-10.6871
▁वीर	-10.6876
▁मारा	-10.688
▁हिमाचल	-10.6906
▁बाग	-10.6906
▁निरसन	-10.6915
▁खतरनाक	-10.6923
▁समुद्री	-10.6935
▁वाक्य	-10.694
▁पक्षपात	-10.6944
▁सौर	-10.6947
▁सकल	-10.695
▁प्रस्तुतिकरण	-10.695
▁भय	-10.6953
रों	-10.6955
▁मिलेगा	-10.696
बर	-10.6961
▁आजीव	-10.6962
▁मैसर्स	-10.6966
▁तंत्रिका	-10.6969
▁मालूम	-10.6975
▁कोटा	-10.6981
▁खड़ी	-10.6994
▁हेड	-10.6995
▁मिलते	-10.6996
ेक	-10.7001
▁विविधता	-10.7002
▁उभर	-10.7004
▁प्रतिभा	-10.701
▁आइटम	-10.701
▁सटीक	-10.702
▁ऑ	-10.7024
▁विष्णु	-10.7027
▁सारा	-10.703
▁इंग्लैंड	-10.7036
▁कमिश्नर	-10.7036
▁प्रयोगशाला	-10.7037
▁साम्राज्य	-10.7039
▁पुनर्विचार	-10.7045
▁बांध	-10.7048
याँ	-10.705
▁पब्लिक	-10.7053
▁अदा	-10.7056
नों	-10.7062
िय	-10.7067
▁शेख	-10.7071
िश	-10.7071
▁हरि	-10.7074
▁रेडियो	-10.7094
▁सूत्र	-10.71
▁ताजा	-10.7101
▁अद्यतन	-10.7106
▁उद्घाटन	-10.7106
▁संत	-10.711
▁कं	-10.711
▁श्रमिकों	-10.7113
▁लक्ष्मी	-10.7114
▁आश्चर्य	-10.7115
गु	-10.7117
▁झूठा	-10.7119
la	-10.7123
P	-10.7123
▁पढ़े	-10.7125
▁गु	-10.7129
▁चिकित्सक	-10.7135
▁अर	-10.7136
▁संभवतः	-10.7153
▁स्वचालित	-10.7159
▁परिचय	-10.7159
▁ऑफ़	-10.716
▁शोध	-10.7166
▁तोड़	-10.717
दत्त	-10.7174
▁रहेंगे	-10.7176
▁तदर्थ	-10.7185
न्स	-10.7194
▁उत्कृष्ट	-10.7195
▁कड़ी	-10.7201
▁पेशेवर	-10.7203
▁Dist	-10.7203
▁मूलभूत	-10.7205
▁बर्खास्तगी	-10.7212
▁प्रतिदिन	-10.7213
ाया	-10.7219
▁फलस्वरूप	-10.7221
म्मा	-10.7228
यान	-10.7232
▁अग्र	-10.7238
▁परिषद्	-10.7242
▁देवता	-10.7243
▁हार्दिक	-10.7257
▁द्वीप	-10.7266
्यु	-10.7268
▁कम्प	-10.7274
▁हड्डी	-10.7275
▁Ka	-10.7282
▁लेनदार	-10.7287
▁समझते	-10.7297
M	-10.73
▁बौद्धिक	-10.73
▁बजट	-10.73
▁बताना	-10.7306
th	-10.7312
▁समायोजित	-10.7319
▁अंकों	-10.7322
▁...	-10.7328
▁सुन	-10.7333
▁उदार	-10.7333
▁उपायुक्त	-10.7337
▁विश्वसनीयता	-10.7338
▁निरंतरता	-10.7349
▁doc	-10.7356
▁हिस्सों	-10.7364
▁स्वा	-10.7367
▁कामगार	-10.7368
▁दबा	-10.7369
▁फ़िल्म	-10.7373
▁उपज	-10.7379
▁अभिलेखों	-10.7383
▁बाएं	-10.7384
▁बनाकर	-10.7392
▁एक्सचेंज	-10.74
▁जाल	-10.7408
▁रहेगी	-10.7414
निया	-10.7414
▁सदा	-10.7419
ंज	-10.7421
▁व्या	-10.7424
▁नकदी	-10.7425
▁एप्लिकेशन	-10.7428
▁शिशु	-10.7429
▁जातियों	-10.7439
▁सचेत	-10.7441
रु	-10.7441
▁खोल	-10.7442
▁सेल	-10.7451
▁तुम्हारे	-10.7451
H	-10.7453
▁ऑडिट	-10.7455
▁शिकायतों	-10.7456
▁शीट	-10.7459
▁कनेक्शन	-10.7473
र्ट	-10.7479
▁स्तंभ	-10.7486
▁फायदा	-10.7491
▁तिवारी	-10.7491
दान	-10.7493
▁दक्षता	-10.7494
▁वर्गीकृत	-10.7494
▁फ़	-10.7495
▁बनाये	-10.7498
▁अविश्वास	-10.75
▁अखिल	-10.7502
निक	-10.7505
▁हार	-10.7506
▁रमेश	-10.751
▁जंगल	-10.7524
▁बालक	-10.7525
▁मतदान	-10.7529
▁रिक्ति	-10.7529
▁केंद्रित	-10.753
▁गा	-10.753
▁प्रेषित	-10.7531
▁तीस	-10.7532
▁कोशिका	-10.7535
▁NO	-10.7546
▁ब्रिटेन	-10.7546
▁प्रदर्शनी	-10.7552
▁बोलने	-10.7557
▁प्रस्तावों	-10.7564
कु	-10.7565
▁संदाय	-10.7565
▁अस	-10.7569
▁मनमानी	-10.7574
▁आराम	-10.7576
▁झगड़ा	-10.758
▁परिश्रम	-10.7583
▁पुस्तिका	-10.7585
▁सैनिक	-10.7586
त्	-10.7605
▁रायपुर	-10.7617
▁पारिवारिक	-10.762
▁गरीबी	-10.7621
▁आजादी	-10.7622
▁पौधे	-10.7624
▁प्रतिसाद	-10.7625
am	-10.7631
▁टेस्ट	-10.7644
▁बर	-10.7647
▁स्था	-10.7649
▁दि	-10.7656
मैन	-10.7657
▁व्यापारी	-10.7659
▁इक्विटी	-10.7666
लो	-10.7673
▁आईटी	-10.7674
तु	-10.7685
्ल	-10.7688
▁वहन	-10.7699
▁जिनसे	-10.7702
▁ऑफिसर	-10.7702
▁शहरों	-10.7703
▁resident	-10.7706
▁उत्साह	-10.7719
c	-10.7723
▁प्रबल	-10.7724
▁सुलझा	-10.773
▁dt	-10.773
▁रहें	-10.7732
▁औसतन	-10.7741
▁धोखा	-10.7741
▁भत्ता	-10.7743
दन	-10.7751
चे	-10.776
▁क्रेता	-10.7762
R	-10.7763
▁गोपाल	-10.7778
▁वस्तुतः	-10.7782
▁पुल	-10.7786
▁संधि	-10.7786
▁अनधिकृत	-10.7788
▁राजपत्र	-10.7796
▁भक्ति	-10.7801
गढ़	-10.7809
▁बुरा	-10.781
▁असामान्य	-10.7816
▁शुरु	-10.7826
▁खरीदी	-10.7826
▁परम	-10.783
▁कॉपी	-10.7838
▁मनाया	-10.7839
▁पारंपरिक	-10.7841
▁जलवायु	-10.7845
▁इनकी	-10.7846
▁ध	-10.7847
▁चन्द्र	-10.7849
▁समर्थ	-10.7862
भाव	-10.7863
▁समझता	-10.7867
▁दम	-10.7867
▁मिटा	-10.7869
▁सहन	-10.787
▁संगम	-10.7872
▁कम्पनी	-10.7884
▁१७	-10.7886
▁आउट	-10.7888
▁दक्षिणी	-10.7889
▁शा	-10.7898
▁साधनों	-10.7899
▁क्लब	-10.7906
▁अन्याय	-10.792
नु	-10.792
▁ट्रैक	-10.7926
▁अहमदाबाद	-10.7931
▁अध्यक्षता	-10.7932
▁लोड	-10.7936
▁गाड़ी	-10.794
▁घटा	-10.794
▁क्लिक	-10.7941
▁दमन	-10.7942
▁नेपाल	-10.7943
न्द	-10.7946
▁भरी	-10.7949
▁कही	-10.7951
▁महाधिवक्ता	-10.7959
कि	-10.7962
गे	-10.7968
▁प्रतिष्ठित	-10.7969
▁न्यास	-10.7972
▁स्वेच्छा	-10.7978
▁नृत्य	-10.7978
▁फोटो	-10.7978
▁रसायन	-10.7983
▁क्रांति	-10.7984
▁इंटर	-10.7987
▁ठ	-10.7988
▁यंत्र	-10.7989
▁बढ	-10.7993
गंज	-10.8
▁पहुंचाने	-10.8
▁खोला	-10.8005
▁मूल्यवान	-10.8007
▁आबादी	-10.8008
▁खुश	-10.8009
▁सीनियर	-10.8017
▁बढ़ते	-10.802
▁पते	-10.8031
▁पॉलिसी	-10.8036
▁जाली	-10.8038
▁उसको	-10.8043
▁प्रतिभूति	-10.8044
▁बुरी	-10.8047
▁टैक्स	-10.8048
▁दरवाजे	-10.8055
▁हिसाब	-10.8055
▁हिमालय	-10.8055
▁जूनियर	-10.8058
त्त	-10.8059
▁धातु	-10.8064
▁पंचाट	-10.8075
िड	-10.8078
▁प्रकटीकरण	-10.8078
▁सीधा	-10.8078
ाक	-10.8082
▁कॉर्पोरेट	-10.8084
▁बा	-10.809
▁विद्या	-10.8094
▁देगी	-10.8094
▁सरस्वती	-10.8094
▁बुलाने	-10.8098
▁सीखी	-10.8102
▁विवरणों	-10.8103
▁मुलाकात	-10.8104
▁रखकर	-10.8105
▁किताब	-10.8105
▁युक्ति	-10.8106
▁आपस	-10.8119
▁कहां	-10.812
▁फंड	-10.8132
▁परिस्थितियां	-10.8134
▁परिवारों	-10.8148
▁उठाई	-10.8152
▁मतदाता	-10.8154
मो	-10.8155
▁समृद्धि	-10.8156
▁ग्रंथ	-10.816
▁क्षण	-10.8162
ही	-10.817
▁ग्रुप	-10.8172
▁भेंट	-10.8173
ंडी	-10.819
▁पोर्ट	-10.82
दे	-10.82
▁सेक्टर	-10.8201
▁दौड़	-10.8209
▁मंजिल	-10.821
▁लोकतांत्रिक	-10.8211
▁शक्तिशाली	-10.8212
गन	-10.8217
▁थोड़ी	-10.8221
h	-10.8222
▁त्रि	-10.8227
▁बहादुर	-10.8229
▁चिकित्सीय	-10.8231
▁तनाव	-10.8231
▁संध्या	-10.8231
▁OSNo	-10.8232
▁son	-10.8235
▁ढांचा	-10.8241
▁सीआरपीसी	-10.8251
▁हमलावर	-10.8252
▁विभिन्	-10.8253
▁जीत	-10.8253
▁जगत	-10.826
▁मनमाने	-10.826
▁बढ़े	-10.8264
▁निकाले	-10.8266
नो	-10.8272
▁यूरोपीय	-10.8282
▁खासकर	-10.8285
सार	-10.8289
▁पैकेट	-10.829
▁दुख	-10.8295
▁पहुंची	-10.8295
ेर	-10.8305
▁बैठा	-10.8308
▁अनदेखी	-10.831
▁जुर्माने	-10.831
हार	-10.8311
▁वार्ड	-10.8315
▁उतार	-10.8316
▁अपमानजनक	-10.832
▁ड्राइवर	-10.8322
त्मक	-10.8329
▁बौद्ध	-10.8331
▁लाए	-10.8333
यो	-10.8333
▁निदेशकों	-10.8333
▁नियुक्तियों	-10.8339
जनक	-10.8348
▁गहराई	-10.8352
▁लखनऊ	-10.8359
▁Pra	-10.8365
▁पदोन्नत	-10.8375
ur	-10.8377
▁जितन	-10.8377
▁आत्मसमर्पण	-10.8379
▁पल	-10.838
▁घरों	-10.8387
▁स्वर्ण	-10.8389
▁प्रतियां	-10.839
▁मंजूर	-10.8394
▁देखता	-10.8403
▁जोड़े	-10.8406
▁उपेक्षा	-10.8409
▁निलंबित	-10.8409
▁अंतर्	-10.8422
▁रखती	-10.8425
▁उन्हीं	-10.843
▁बिलकुल	-10.843
▁अपहरण	-10.8443
▁टुकड़े	-10.8447
▁हां	-10.8455
▁दया	-10.8456
▁सफलतापूर्वक	-10.8461
▁ब्यूरो	-10.8461
▁सकेगी	-10.8468
▁निदेशालय	-10.847
▁ऊंचाई	-10.8471
▁सुनकर	-10.8473
्व	-10.8476
वेल	-10.8476
म्प	-10.8476
▁नाक	-10.848
०वीं	-10.8485
▁खनिज	-10.8487
▁सामान्यतः	-10.8487
▁मुक्ति	-10.8489
▁अनुपस्थित	-10.8495
▁अतीत	-10.85
▁संयोजन	-10.8501
▁बुद्ध	-10.8505
▁कोष	-10.8511
▁शोर	-10.8512
तक	-10.8512
▁उतर	-10.8515
▁दुर्लभ	-10.852
▁चि	-10.852
▁पुनर्	-10.8525
▁सुदृढ़	-10.853
▁एजेंसियों	-10.853
▁कॉर्पोरेशन	-10.853
▁निस्संदेह	-10.853
▁इसीलिए	-10.8541
▁IA	-10.8542
▁लगती	-10.8545
▁सर्टिफिकेट	-10.855
▁लाठी	-10.8551
लर	-10.8558
▁निकलने	-10.856
▁मिलेगी	-10.8563
▁यातायात	-10.8571
▁n	-10.8573
फा	-10.8578
▁पट्टी	-10.8579
▁शोक	-10.858
▁बारह	-10.8584
▁हस्ताक्षरित	-10.8588
ाम	-10.8589
▁प्रवृत्त	-10.8596
▁स्तरीय	-10.86
ड़े	-10.8604
▁सख्त	-10.8605
धा	-10.8616
▁अस्थि	-10.8619
▁उजागर	-10.8622
▁उपाधि	-10.8623
▁अप्रत्यक्ष	-10.8632
▁साथी	-10.8638
▁सीता	-10.8639
▁जि	-10.8641
▁कुल्हाड़ी	-10.8642
▁विधवा	-10.8642
▁समझे	-10.8645
▁मंदिरों	-10.8646
▁फैला	-10.8649
▁हथियारों	-10.8651
▁डीलर	-10.8652
▁उलट	-10.8652
▁नामों	-10.8667
▁नाग	-10.8667
f	-10.8667
es	-10.8667
x	-10.8671
ोस	-10.8673
▁तरल	-10.8676
▁खरीदा	-10.869
▁संपन्न	-10.8697
▁चीजें	-10.8698
▁मोड़	-10.8698
धर	-10.8699
वां	-10.8702
▁जताई	-10.8705
▁सुपर	-10.8714
▁गोल	-10.8714
ंडा	-10.872
▁निष्क्रिय	-10.8721
▁बीत	-10.8725
▁गुंजाइश	-10.8725
▁पृथक	-10.8725
ल्ड	-10.8729
▁प्रिंसिपल	-10.8735
▁पीढ़ी	-10.8736
▁आरंभिक	-10.8743
▁फीट	-10.8746
▁बरामदगी	-10.8758
▁टाउन	-10.8766
▁अवहेलना	-10.8766
w	-10.8773
▁मस्जिद	-10.8777
▁संपदा	-10.8777
▁लायक	-10.8777
ार्थ	-10.8778
▁आपसी	-10.8786
▁लंबा	-10.8786
▁तु	-10.8788
▁क्	-10.8791
▁मुहर	-10.8791
▁स्टील	-10.8798
▁कामना	-10.8804
▁अनिश्चित	-10.8806
▁मतभेद	-10.8808
▁पट्टा	-10.8811
▁उपभोग	-10.8819
▁खोजने	-10.8822
▁द्वि	-10.883
▁अनुक्रम	-10.8831
▁MO	-10.8834
▁स्वच्छ	-10.8836
▁प्रिंट	-10.8838
▁अक्तूबर	-10.8839
▁जिलों	-10.884
▁आकाश	-10.884
▁प्रयोज्यता	-10.884
▁तथाकथित	-10.885
▁अपरिहार्य	-10.886
▁उर्फ	-10.886
▁बोतल	-10.8869
▁रिश्वत	-10.887
▁पाठक	-10.8878
▁मछली	-10.8881
▁कहती	-10.8887
▁अंतरिक्ष	-10.8891
▁एफएसएल	-10.8891
▁आधे	-10.8894
▁अधिरोपित	-10.8902
▁मोटरसाइकिल	-10.8902
▁समायोजन	-10.8902
▁बहाली	-10.8905
▁स्तरों	-10.8911
▁कष्ट	-10.8913
▁रवि	-10.8915
▁शो	-10.8919
▁बुला	-10.8923
▁राजीव	-10.8925
▁वै	-10.8926
▁सहयोगी	-10.8931
▁सौंपी	-10.8932
▁मोटे	-10.8936
▁दुश्मनी	-10.8939
▁छाप	-10.8943
▁साहित्यिक	-10.8943
▁कार्मिक	-10.8944
▁प्रसन्न	-10.8948
▁सुनी	-10.8955
▁निष्कासन	-10.8955
▁पारस्परिक	-10.8955
▁रवीन्द्रनाथ	-10.8955
▁अनाज	-10.8958
▁विशेषज्ञों	-10.8961
▁निकायों	-10.8963
▁अनिल	-10.897
▁बेशक	-10.8976
▁गिरवी	-10.8978
▁विधानसभा	-10.8979
▁छाया	-10.8986
▁यात्री	-10.899
▁रोकना	-10.899
▁रिलायंस	-10.8997
▁संज्ञेय	-10.8997
▁झा	-10.8998
▁कार्यपालिका	-10.8999
▁सेवन	-10.8999
▁इलेक्ट्रॉनिक	-10.9003
▁अध्यादेश	-10.9007
▁बैंगलोर	-10.9008
▁सम्पत्ति	-10.9008
▁निभा	-10.9008
▁भागीदार	-10.9011
▁अपर्याप्त	-10.9022
टो	-10.9022
▁वर्ण	-10.9024
▁बीस	-10.9028
बेन	-10.9042
▁द्विपक्षीय	-10.905
▁हुसैन	-10.905
▁सारांश	-10.9051
वर्ती	-10.9052
▁निर्देशिका	-10.9053
▁मूर्ति	-10.9058
▁स्वीकारोक्ति	-10.9062
▁लेबल	-10.9067
▁समझौतों	-10.9072
▁थ	-10.9073
▁Ra	-10.9083
ेस	-10.9084
▁पहाड़ी	-10.9084
▁अपर	-10.9084
▁लाना	-10.9085
▁बनाती	-10.9089
▁उपलब्धि	-10.9092
▁प्लस	-10.9092
▁आधिपत्य	-10.9093
ak	-10.9094
▁बैच	-10.9103
▁इं	-10.9108
▁गायब	-10.9123
▁भत्ते	-10.9127
▁आतंकवादी	-10.9128
ेंस	-10.9129
▁अनन्य	-10.9129
हन	-10.9137
मिन	-10.9138
▁गोद	-10.9144
▁सत	-10.9158
▁घास	-10.916
▁पै	-10.9165
▁प्रतिबिंब	-10.9169
▁व्यापारिक	-10.917
▁महाराजा	-10.9173
▁सदी	-10.9176
बे	-10.9186
▁उठाना	-10.9187
▁एसआई	-10.9188
▁कोर्स	-10.9193
्ज	-10.9197
▁प्रतिस्पर्धा	-10.9197
▁एओ	-10.9199
ष्ट	-10.9208
▁अजीब	-10.9212
▁लड़ने	-10.9215
श्	-10.9217
▁योनि	-10.9217
▁नेत्र	-10.9219
▁प्रिय	-10.9223
▁विद्यार्थी	-10.9223
▁विनोद	-10.9223
▁संगठित	-10.9223
ज़ा	-10.9226
▁चित्रण	-10.9237
▁ईसाई	-10.9237
▁स्क्रीन	-10.9243
▁डीएनए	-10.9249
▁पड़ोसी	-10.9264
▁आबकारी	-10.9266
▁राजू	-10.9268
▁औ	-10.927
▁बेचा	-10.9273
▁नायक	-10.9274
▁बाईं	-10.9275
O	-10.9282
▁किस्म	-10.9284
जर	-10.9284
▁आधा	-10.9285
▁नींव	-10.9288
ंगी	-10.929
▁सीखने	-10.9293
▁सुरेश	-10.93
▁घोष	-10.9307
▁विकलांग	-10.9311
▁PS	-10.9315
▁कै	-10.9317
▁प्रीमियम	-10.9321
▁अन्वेषण	-10.9321
▁कड़ाई	-10.9322
▁तलवार	-10.9322
▁इस्लामी	-10.9324
ंगे	-10.9325
b	-10.9326
लिंग	-10.933
▁अनुज्ञात	-10.9332
▁डोमेन	-10.9332
▁साहस	-10.9334
▁जनादेश	-10.9354
▁ट्रेडमार्क	-10.9354
▁स्रोतों	-10.9356
▁भीड़	-10.9359
▁मानो	-10.9364
▁उद्यान	-10.9365
▁धरती	-10.9366
▁वेद	-10.9379
▁सख्ती	-10.9383
▁गुरू	-10.9383
▁चर्च	-10.9396
▁भारतीयों	-10.94
▁कुलपति	-10.9401
▁वंश	-10.9405
▁सर्विस	-10.9406
▁बिंदुओं	-10.9408
▁डाटा	-10.9415
il	-10.9428
▁‘‘	-10.9432
▁आंकड़े	-10.9435
▁अपमान	-10.9441
▁उन्मूलन	-10.9442
▁पुनर्गठन	-10.9442
▁एकीकृत	-10.9448
at	-10.9449
▁राजेंद्र	-10.9455
▁इनपुट	-10.9455
▁तारा	-10.9456
नाम	-10.9457
ियम	-10.9459
▁कृत्रिम	-10.9465
▁प्रक्रियात्मक	-10.9471
▁संयम	-10.9478
▁निपट	-10.9483
वास	-10.9488
▁प्रोविज़ो	-10.9498
▁लैस	-10.9503
र्न	-10.9504
▁कराना	-10.9511
▁महल	-10.9515
▁फैल	-10.9516
▁पर्वत	-10.9519
▁मांस	-10.952
▁चरणों	-10.9525
ग्र	-10.9534
▁अंगों	-10.9541
▁बांड	-10.9542
▁अमरीका	-10.9543
▁विनिश्चय	-10.9544
G	-10.9549
▁ईंधन	-10.9565
▁प्रसंस्करण	-10.9565
िलक्षित	-10.9566
▁स्टाफ	-10.9569
▁IV	-10.9575
▁सन	-10.9576
ha	-10.9583
▁ज़्यादा	-10.9587
▁परीक्षक	-10.9589
et	-10.9589
रि	-10.959
▁ड	-10.9593
▁पंद्रह	-10.9599
▁परिप्रेक्ष्य	-10.9599
▁रिकवरी	-10.9599
▁कपड़ों	-10.9599
▁आधारभूत	-10.9606
▁मानी	-10.9606
ेरी	-10.9608
र्ड	-10.9609
▁कामकाज	-10.9616
▁CR	-10.9617
▁काले	-10.962
v	-10.9626
▁हटाया	-10.9628
▁लेंगे	-10.9631
▁बेल	-10.9643
▁तापमान	-10.9645
द्	-10.9649
▁सेंटर	-10.9651
▁बैक	-10.9653
▁नोस	-10.9653
▁समवर्ती	-10.9656
▁गर्म	-10.966
▁बोध	-10.9663
▁काली	-10.9667
▁रजिस्ट्रीकरण	-10.9667
▁तलाक	-10.9668
▁हाँ	-10.9672
▁PO	-10.9675
▁अनुमानित	-10.9677
▁हेक्टेयर	-10.9678
▁प्रसारण	-10.968
▁धान	-10.9682
on	-10.9683
▁प्रविष्टियों	-10.9685
▁प्रजनन	-10.9701
▁मुगल	-10.9702
▁दोषपूर्ण	-10.9706
▁हक	-10.9706
▁मुकदम	-10.9709
▁सेंट	-10.9712
▁खर्चों	-10.9713
▁संकाय	-10.9713
▁वस्त्र	-10.9716
▁छिपा	-10.9718
▁गाय	-10.972
▁जानकर	-10.9734
▁निस्तारण	-10.9735
▁उत्तम	-10.9741
रिक	-10.9745
▁सुशील	-10.9746
दीन	-10.9747
▁सकेंगे	-10.9748
▁Chhattisgarh	-10.9758
▁कवायद	-10.977
▁चावल	-10.9771
▁परिचालन	-10.9781
▁माने	-10.9787
▁रचनात्मक	-10.9797
ir	-10.9801
▁कोशिकाओं	-10.9803
▁श्रमिक	-10.9804
▁कच्चे	-10.9816
▁कागजात	-10.9816
▁लेबर	-10.9821
▁चैतन्य	-10.9827
▁सार्थक	-10.9827
▁भांति	-10.9827
▁नज़र	-10.9834
▁शोषण	-10.9839
वाह	-10.9843
▁उपर	-10.9846
▁पासपोर्ट	-10.9852
▁दाहिने	-10.9854
▁सकी	-10.9854
▁उर्दू	-10.9874
▁अजय	-10.9881
▁पत्रिका	-10.9882
▁पुनरावृत्ति	-10.9885
क्ति	-10.9888
ैया	-10.9888
▁फोरम	-10.9897
्थ	-10.9902
घर	-10.9908
▁परिदृश्य	-10.9908
▁निंदा	-10.9909
▁फ़ोल्डर	-10.992
▁सैन्य	-10.9921
▁दांत	-10.9922
▁बम	-10.993
▁गीता	-10.993
▁परिवेश	-10.9932
देश	-10.9943
▁अंग्रेज	-10.9943
▁पुराना	-10.9946
चि	-10.9951
ज्ञ	-10.9954
▁सीडी	-10.9963
en	-10.9964
▁तलाशी	-10.9967
▁समन	-10.9968
▁इंतजार	-10.9978
▁वृक्ष	-10.9981
▁कौ	-10.9983
▁भाग्य	-10.9983
▁गेंद	-10.9985
लि	-10.9993
▁इलाके	-10.9999
▁घोर	-11.0001
▁किलोग्राम	-11.0002
▁वादों	-11.0005
▁ओम	-11.0011
▁पीने	-11.0015
न्ट	-11.0021
▁समझना	-11.0021
▁सहानुभूति	-11.0026
कुमार	-11.0028
▁सेशन	-11.0033
▁लगाते	-11.0034
द्र	-11.0041
▁मसौदा	-11.0049
द्ध	-11.0057
▁जापान	-11.0058
▁डॉलर	-11.0063
क्र	-11.0066
ेगा	-11.0072
▁अत्यन्त	-11.0073
▁राजभाषा	-11.0073
▁मेरिट	-11.0073
▁खपत	-11.0074
▁सिम	-11.0076
▁फॉर	-11.0082
▁दुर्गा	-11.0086
▁गज	-11.0096
▁हानिकारक	-11.0097
▁संभोग	-11.0097
ंगा	-11.0101
ॉँ	-11.0101
▁कर्ण	-11.0102
▁साहब	-11.0104
▁जबरन	-11.0108
▁रिमांड	-11.0108
▁इंजीनियर	-11.0114
▁आँख	-11.0118
▁वक्तव्य	-11.012
ee	-11.0124
▁कृषक	-11.0125
▁अभिगम	-11.0129
▁सेटिंग	-11.0129
व्य	-11.0132
नीय	-11.0132
▁प्रशिक्षित	-11.0132
▁किमी	-11.0138
▁मंगल	-11.0144
▁कूट	-11.0144
▁गड़बड़ी	-11.0148
्रा	-11.0149
ay	-11.0149
▁iv	-11.0151
▁मुझसे	-11.0156
▁पड़ती	-11.016
▁दीवानी	-11.0161
▁मौजूदगी	-11.0163
ांत	-11.0166
▁समर्पण	-11.0168
▁सुलह	-11.018
▁पवन	-11.0182
▁गुफा	-11.0183
▁हि	-11.0186
▁दिखाए	-11.0199
▁ईमानदारी	-11.0202
▁वस्तुएं	-11.0203
▁समेकित	-11.0204
▁आंकड़	-11.0208
▁लक्ष्मण	-11.0216
▁उधारकर्ता	-11.0221
भा	-11.0225
▁चाचा	-11.0228
▁शानदार	-11.0228
▁शक	-11.0234
लिया	-11.0235
ोप	-11.0235
▁दशकों	-11.0238
▁पेट्रोलियम	-11.024
लु	-11.0246
▁g	-11.0247
ग्रस्त	-11.0252
▁कैंसर	-11.0252
▁प्रपत्र	-11.0253
ेंद्र	-11.0261
▁भौगोलिक	-11.0264
▁गवर्नर	-11.0273
ोन	-11.0274
▁लिपि	-11.0276
▁हट	-11.0278
▁सुधारने	-11.0279
▁यात्रियों	-11.0288
▁बेहद	-11.0288
▁पोजीशन	-11.03
▁श्रीवास्तव	-11.03
▁चौहान	-11.03
▁पशुओं	-11.0302
▁भाष्	-11.0317
टे	-11.0321
▁मंशा	-11.0326
पार	-11.0334
▁विलय	-11.0335
▁छोड़ा	-11.0336
ष्	-11.0336
▁अग्नि	-11.0336
▁लंदन	-11.0336
▁मिसाल	-11.0337
▁यातना	-11.0337
▁अमल	-11.0341
▁कर्मियों	-11.0342
▁अंतः	-11.0344
▁चौ	-11.0345
▁MA	-11.0346
▁कार्यालयों	-11.0347
▁लगते	-11.0348
▁सेक्शन	-11.0351
▁आएगा	-11.0367
धारी	-11.0368
▁लाई	-11.0369
▁ट्यूब	-11.0373
▁निर्वाह	-11.0374
▁रू	-11.0377
▁उतनी	-11.0385
▁बदला	-11.0386
▁१८	-11.0388
▁संदेय	-11.0398
▁प्रतिरोध	-11.04
ad	-11.0409
▁ओवर	-11.041
▁महाभारत	-11.041
▁रजिस्ट्री	-11.0412
न्न	-11.0414
▁e	-11.0418
▁नग	-11.0418
▁राकेश	-11.0422
▁उद्	-11.0423
▁करा	-11.0428
▁उत्तरदायित्व	-11.0434
▁पाठ्यक्रमों	-11.0435
▁दोषसिद्धि	-11.0439
▁सीख	-11.0441
▁सतत	-11.0443
▁काटने	-11.0443
▁प्रतिबद्धता	-11.0446
▁अमरीकी	-11.0446
▁रिजर्व	-11.0446
▁बिस्तर	-11.0446
▁ब्राह्मण	-11.0452
▁विद्वानों	-11.0456
▁डाक्टर	-11.0459
▁विसंगति	-11.0461
▁जर्मनी	-11.0471
▁इशारा	-11.0471
▁पैटर्न	-11.0471
ताओं	-11.0478
कता	-11.0481
▁सांस	-11.0482
▁महानिदेशक	-11.0483
▁शिक्षित	-11.0484
्री	-11.0486
▁आंखों	-11.0489
▁दूरस्थ	-11.0489
▁सशस्त्र	-11.0495
ाय	-11.05
▁उत्पादक	-11.0506
▁देशी	-11.0515
as	-11.0516
▁डिज़ाइन	-11.052
वाँ	-11.0522
▁कहकर	-11.0522
▁गणेश	-11.0523
▁प्रभार्य	-11.0524
▁रोशनी	-11.0528
▁ट्रक	-11.0533
▁केंद्रों	-11.0533
▁गद्य	-11.0535
▁बढ़ता	-11.0542
हित	-11.0546
▁पचास	-11.056
ाकार	-11.0562
▁लेनदारों	-11.0568
▁धन्यवाद	-11.057
लैंड	-11.0571
मर	-11.0576
ढ	-11.058
▁भावनाओं	-11.0581
ोर	-11.0581
▁बनना	-11.0587
ालय	-11.0594
▁गर्मी	-11.0595
सो	-11.06
▁लौटा	-11.0605
▁वर्जित	-11.0607
▁दोनो	-11.0611
▁आंख	-11.0618
▁सूजन	-11.0619
भर	-11.0619
▁गरिमा	-11.062
▁एकत्रित	-11.062
AN	-11.0623
▁पूर्णता	-11.0627
▁जीन	-11.0629
▁टिकाऊ	-11.0632
▁किन्हीं	-11.0633
▁समझाने	-11.0634
▁देनी	-11.0635
ंब	-11.0637
▁चरम	-11.0638
▁उन्होने	-11.064
▁निष्पक्षता	-11.0644
▁काल्पनिक	-11.0657
▁बडी	-11.0664
▁ऑपरेशन	-11.067
▁मजदूर	-11.0672
▁निभाई	-11.0675
क़	-11.0676
▁ताप	-11.0677
▁थाने	-11.068
▁सत्यता	-11.0685
▁गहरे	-11.0695
hi	-11.0704
र्क	-11.0704
▁ईरान	-11.0705
▁वरीयता	-11.0707
▁आइ	-11.0709
▁नियोजन	-11.0713
गम	-11.0714
▁Exh	-11.0717
▁चुनें	-11.0717
▁परिसमापक	-11.072
▁अभिलाभ	-11.072
▁वोट	-11.0722
▁प्रताप	-11.0724
▁पुष्ट	-11.0724
▁शेर	-11.0725
्न	-11.0726
▁प्रशासक	-11.0733
▁जवाहरलाल	-11.0733
फी	-11.0733
▁भगवान्	-11.0734
▁मिश्रण	-11.074
▁सड़कों	-11.0741
▁m	-11.0745
▁दुःख	-11.0751
▁सिद्धान्त	-11.0753
▁चुनौतियों	-11.0758
▁ढेर	-11.0761
st	-11.0761
▁मांगा	-11.0762
▁उद्धरण	-11.0771
▁रहस्य	-11.0777
▁पट्टेदार	-11.079
पो	-11.0801
el	-11.0801
▁रुक	-11.0805
▁गुवाहाटी	-11.0809
▁गणित	-11.0809
▁टाटा	-11.0809
▁तर्कसंगत	-11.0809
▁अधिवक्ताओं	-11.0809
▁सौंपे	-11.0815
▁मिश्रित	-11.0819
▁शास्त्र	-11.082
▁अक्षर	-11.082
▁ति	-11.0824
▁निष्ठा	-11.0829
▁जायेगी	-11.0837
▁उपयोगिता	-11.0841
▁प्रतिरक्षा	-11.0847
▁याची	-11.086
▁to	-11.0864
▁क्रियाकलाप	-11.0873
▁स्नेह	-11.0873
ri	-11.0879
▁मोह	-11.0879
▁सुर	-11.088
▁जाओ	-11.0886
▁परेड	-11.0894
▁एयर	-11.0895
▁समता	-11.0896
▁सवालों	-11.0897
वाई	-11.0902
▁कहाँ	-11.0907
▁हजारों	-11.091
्वा	-11.091
▁तहसील	-11.091
▁सम्पर्क	-11.0911
▁सिन्हा	-11.0911
धारकों	-11.0913
▁Ba	-11.0913
▁ज्यादातर	-11.0913
लिन	-11.0924
▁प्लान	-11.094
ऊ	-11.0942
▁बेस	-11.0947
▁प्रभावशाली	-11.0951
▁संस्कार	-11.0951
▁लॉर्ड	-11.096
▁संरक्षक	-11.0963
▁सोम	-11.0964
र्ग	-11.0964
▁समुदायों	-11.0966
▁समा	-11.0966
िये	-11.0968
▁पुष्प	-11.0968
योग	-11.0971
▁खींच	-11.0971
▁रैंक	-11.0974
वासी	-11.0974
▁निवेशकों	-11.0975
▁बाधित	-11.0976
स्ट्र	-11.0977
▁दिलचस्पी	-11.0979
▁प्रतिफल	-11.0981
▁बोर	-11.0981
▁Ram	-11.0987
▁निर्माताओं	-11.099
▁ग्रामीणों	-11.0993
▁अत	-11.0994
▁एकदम	-11.0995
▁घूम	-11.0996
▁निकालना	-11.0998
▁पूर्णतः	-11.1007
▁ऑन	-11.1007
▁दूरसंचार	-11.1014
▁चौथे	-11.1015
▁टूट	-11.1021
▁अविश्वसनीय	-11.1027
▁पुनर्मूल्यांकन	-11.1027
▁nos	-11.1029
▁पट	-11.1033
▁पुरुषों	-11.1042
ेन्द्र	-11.1048
▁तृतीय	-11.1054
▁साहू	-11.1054
▁कार्यान्वित	-11.1055
▁हसन	-11.1055
▁अरुण	-11.1056
▁टि	-11.1064
▁सम्	-11.1067
▁अपराधियों	-11.1071
दि	-11.1079
▁सभापति	-11.1082
▁गुजरने	-11.1084
▁कालेज	-11.1089
▁सुसज्जित	-11.1093
अर	-11.1094
क्षा	-11.1099
▁उर्वरक	-11.11
▁जानवरों	-11.11
▁विशेषताओं	-11.1102
▁चुन	-11.1104
▁अदालतें	-11.1106
▁तार्किक	-11.1106
▁अत्याचार	-11.1106
▁टू	-11.1107
▁व्यस्त	-11.1117
▁चुकता	-11.1119
▁रोगों	-11.1131
▁कार्यकलाप	-11.1132
▁उत्तीर्ण	-11.1132
▁टर्मिनल	-11.1132
पित	-11.1132
▁अवार्ड	-11.1132
त्य	-11.114
▁छीन	-11.1143
▁विवरणी	-11.1145
▁तंबाकू	-11.1145
▁प्लास्टिक	-11.1145
▁शासक	-11.1153
यम	-11.1157
▁आईओ	-11.1159
▁डाउनलोड	-11.1159
▁लै	-11.1161
▁दुर्व्यवहार	-11.1172
▁भ्रष्ट	-11.1172
▁लोहे	-11.1172
▁जरूरतों	-11.1178
sh	-11.1186
▁परिवर्तनों	-11.1187
▁माँग	-11.1195
▁घाट	-11.1198
▁ऑडियो	-11.1198
▁टेंडर	-11.1199
▁विवश	-11.1199
▁कृष्णा	-11.12
▁प्रांत	-11.1201
▁IO	-11.1202
▁उत्पत्ति	-11.1211
▁बढ़कर	-11.1213
▁पिछड़े	-11.1215
▁अधिनियमों	-11.1216
▁रूस	-11.1219
▁रन	-11.1221
▁लोकसभा	-11.1225
▁गर्व	-11.1226
गल	-11.1226
ज़ी	-11.1231
▁क्लर्क	-11.1238
्यू	-11.1247
्ग	-11.1254
▁दलीलें	-11.1262
▁यथार्थ	-11.1264
▁बंबई	-11.1264
▁विशुद्ध	-11.1264
▁दुर्भावना	-11.1264
र्म	-11.1269
▁खंडों	-11.1273
▁काला	-11.1275
मुख	-11.1277
▁भाइयों	-11.1278
▁डिजिटल	-11.1279
▁सम्मन	-11.1294
▁आस्था	-11.1296
फ़ा	-11.1296
स्प	-11.1304
▁शि	-11.1306
▁घाटी	-11.1309
▁सोचते	-11.1316
▁चुप	-11.1319
▁प्रतिपूर्ति	-11.1319
▁साह	-11.1322
▁तुर्की	-11.1325
▁ग्रेच्युटी	-11.1331
▁लड़कियों	-11.1331
▁महतो	-11.1332
▁बन्द	-11.134
ून	-11.1342
▁विपक्ष	-11.1342
पना	-11.1343
सि	-11.1343
▁अन्तर	-11.1344
▁ड्राफ्ट	-11.1345
khand	-11.1345
▁बढ़ाकर	-11.1347
▁मुख्यमंत्री	-11.1347
प्	-11.1349
▁विद्रोह	-11.135
▁पढ़ना	-11.1351
▁शाखाओं	-11.1351
▁पर्यवेक्षण	-11.1353
▁कृपा	-11.1354
क्षण	-11.1359
▁श्याम	-11.1368
▁दिलचस्प	-11.1368
us	-11.1369
्ज़	-11.1371
▁प्लॉट	-11.1372
▁प्रचालन	-11.1372
ाह	-11.1373
▁सू	-11.1375
▁दिनेश	-11.138
▁सेंट्रल	-11.1385
▁निरपेक्ष	-11.1385
ाबाद	-11.1388
चंद्र	-11.1399
▁हाथी	-11.1399
▁परिधि	-11.14
▁टाइप	-11.1401
▁गेट	-11.1402
▁दुकानों	-11.1403
▁जायें	-11.1411
▁महत्त्व	-11.1411
डो	-11.1412
▁ज़मीन	-11.1412
▁पीठासी	-11.1413
▁माला	-11.1413
▁प्रान्त	-11.1415
▁मुख्यालय	-11.1416
▁मजदूरों	-11.1418
ya	-11.1437
▁मठ	-11.1441
▁श्वेत	-11.1445
▁मारे	-11.1447
▁कार्बन	-11.1451
▁पड़ने	-11.1452
▁वकालत	-11.1453
▁अभिनिर्धारित	-11.1453
▁कराधान	-11.1453
▁आखिरकार	-11.1453
▁कहे	-11.1454
▁ज्योति	-11.1455
▁अंग्रेजों	-11.1463
▁ऊतक	-11.1465
▁मील	-11.1466
▁हड़ताल	-11.1466
▁गोविंद	-11.1467
▁वक्त	-11.1469
▁प्रासंगिकता	-11.1469
▁गर्भ	-11.1475
▁बाबा	-11.1479
▁कारखाने	-11.148
▁छाती	-11.1482
▁दंत	-11.1486
un	-11.1491
▁चूँक	-11.1494
▁प्रणालियों	-11.1494
▁दृढ़ता	-11.1495
▁घनिष्ठ	-11.1507
▁रोज	-11.1516
▁फ्रांस	-11.1519
▁संगत	-11.152
▁अप्रासंगिक	-11.1521
▁गौरव	-11.1522
▁नंगे	-11.1523
भी	-11.153
na	-11.1534
ल्ल	-11.1544
▁वा	-11.1547
▁स्	-11.1553
▁गांधीजी	-11.1555
▁एसपी	-11.1555
▁जला	-11.1556
▁उपक्रमों	-11.1561
▁चर	-11.1561
्ता	-11.1563
लिये	-11.1566
▁घायलों	-11.1568
▁लॉग	-11.157
▁दार्शनिक	-11.1576
▁पारदर्शिता	-11.1576
▁सचिवालय	-11.1577
▁नामांकित	-11.1577
is	-11.1578
▁रिकार्ड	-11.1579
▁ओपन	-11.1581
▁ब्र	-11.1585
▁कीटों	-11.1588
▁स्त्रियों	-11.159
▁विवेकाधीन	-11.159
▁कॉलम	-11.1593
▁वादा	-11.1597
▁लगाकर	-11.161
▁वैदिक	-11.1617
▁चलाई	-11.1629
▁प्रस्तुति	-11.163
जो	-11.1631
▁व्युत्पन्न	-11.1631
▁ताल	-11.164
▁झील	-11.1642
▁शुरूआत	-11.1645
▁सास	-11.1654
▁विनाश	-11.1655
▁लीग	-11.1658
▁बडे	-11.1662
▁योजनाएं	-11.1662
▁व्याख्याता	-11.1662
▁गिना	-11.1663
▁संबद्धता	-11.1672
▁मेहता	-11.1673
▁ध्वज	-11.1673
▁अपेक्षाकृत	-11.1676
▁धार	-11.168
▁सम्बन्धित	-11.1682
०क	-11.1686
▁छेड़छाड़	-11.1686
▁संकलन	-11.1686
वत	-11.1688
ंध	-11.1694
▁चाह	-11.1699
▁अथॉरिटी	-11.17
▁गर्भपात	-11.17
▁वीडियोग्राफ	-11.1712
▁रिज़र्व	-11.1714
▁संकीर्ण	-11.1718
▁आपत्तियां	-11.1718
विज्ञान	-11.1719
▁वाद्य	-11.1719
▁सीमेंट	-11.1723
▁हॉल	-11.1725
▁स्टांप	-11.1728
▁ORD	-11.1728
मि	-11.1743
▁प्रभु	-11.1744
▁नो	-11.1752
▁फसलों	-11.1757
▁चौड़ाई	-11.1757
▁कुशलता	-11.1761
▁उत्पा	-11.1762
एमसी	-11.1764
▁लिखना	-11.1764
▁स्मरण	-11.1768
▁पहने	-11.177
▁एग्जामिनेशन	-11.177
▁व्यथित	-11.177
▁देखो	-11.1775
▁विचारधारा	-11.1775
एम	-11.1777
▁शस्त्र	-11.1777
रन	-11.1778
▁घृणा	-11.1783
▁एस्टेट	-11.1785
▁लाभांश	-11.1787
चंद	-11.1788
▁लौटने	-11.1796
▁दुर्भाग्य	-11.1797
▁अग्रेषित	-11.1798
▁उपाध्यक्ष	-11.1798
▁संगणक	-11.1798
▁पीटा	-11.1798
▁लाभकारी	-11.1798
▁शत्रु	-11.18
▁माध्यस्थम्	-11.18
चन	-11.1802
▁अलगाव	-11.1805
▁जगदीश	-11.1811
▁विजेता	-11.1812
तया	-11.1817
▁ओपी	-11.1823
▁विनियामक	-11.1826
▁स्वप्न	-11.1826
▁सूरत	-11.1832
न्ड	-11.1834
▁आर्य	-11.1837
ट्स	-11.1838
▁चमक	-11.184
▁सांविधिक	-11.184
▁प्रयोक्ता	-11.184
▁लाभार्थी	-11.1842
▁मादा	-11.1843
▁नंद	-11.1854
▁ससुराल	-11.1855
▁उद	-11.1858
▁पाप	-11.1861
ुक	-11.1865
▁पालिका	-11.1866
▁गिरावट	-11.1869
▁टैंक	-11.1869
▁वैज्ञानिकों	-11.1873
▁परत	-11.1874
▁अर्जन	-11.1878
▁r	-11.188
रस	-11.1881
▁पढ़ाई	-11.1881
▁परिकल्पित	-11.1883
▁कनाडा	-11.1883
▁मैच	-11.1885
बोध	-11.1885
शास्त्र	-11.1886
▁सामान्यतया	-11.1887
▁जु	-11.1888
▁अना	-11.1889
▁पहचाना	-11.1889
▁एमपी	-11.189
बंध	-11.189
▁ऑटो	-11.1891
ाइड	-11.1894
▁राजकुमार	-11.1895
▁टीवी	-11.1897
▁रोल	-11.1907
▁सच्चे	-11.1911
▁लेखकों	-11.1913
▁मनोज	-11.1917
▁प्लेट	-11.1919
▁राजी	-11.192
▁मं	-11.1923
▁निर्	-11.1925
▁पढ़ता	-11.1925
▁आश्वस्त	-11.1925
▁यूजीसी	-11.1925
▁विघटन	-11.1925
▁पार्सल	-11.1925
▁भारती	-11.1926
पद	-11.1928
▁संस्थागत	-11.1932
▁सारणी	-11.1937
▁निपटाने	-11.1939
्ति	-11.1946
▁टुकड़ा	-11.1948
▁सीए	-11.1951
▁जुटा	-11.1952
▁टाइम्स	-11.1956
▁मित्रों	-11.1958
▁इस्पात	-11.1968
पेट	-11.1972
W	-11.1978
धी	-11.1993
▁कौर	-11.1996
▁गौतम	-11.1997
▁तंग	-11.1997
▁समावेश	-11.1998
▁बटन	-11.2003
▁इल	-11.2008
▁मुफ्त	-11.2011
▁समकालीन	-11.2012
र्थ	-11.2013
▁आजीविका	-11.2014
▁भोग	-11.2016
▁शास्त्री	-11.2017
▁चरस	-11.2017
▁इंदिरा	-11.2026
▁मुकाबले	-11.2026
▁चाहूंगा	-11.2026
▁अपशिष्ट	-11.2026
▁गिनती	-11.2026
बार	-11.203
▁मानवता	-11.2031
▁गै	-11.2034
▁MD	-11.2037
▁पीपी	-11.2037
▁अनुप्रयोगों	-11.2038
J	-11.2038
▁गोरा	-11.2039
▁मौद्रिक	-11.204
wa	-11.2043
पत	-11.2045
नियों	-11.2052
▁एंटी	-11.2064
▁भरत	-11.2068
▁पारिश्रमिक	-11.2069
▁तुच्छ	-11.2069
िर	-11.2072
▁मोदी	-11.2075
रहित	-11.2082
▁सफाई	-11.2083
▁संग	-11.2086
एच	-11.2086
▁उत्सव	-11.2098
▁जयंती	-11.2101
▁ठहराए	-11.2106
▁अस्थिर	-11.2107
▁कप	-11.2112
पुरा	-11.2115
▁संवेदनशील	-11.2117
▁न्	-11.2118
▁अर्जुन	-11.2127
▁फ्रेम	-11.2128
▁आईं	-11.2137
▁नरेंद्र	-11.2142
ल्ला	-11.2144
▁वसा	-11.2148
▁निवासियों	-11.2148
▁नदियों	-11.2156
▁सचमुच	-11.2156
▁राष्ट्रों	-11.2157
▁प्रतियों	-11.2159
▁जाएंगी	-11.2162
▁न्यायशास्त्र	-11.2171
▁सूरज	-11.2171
▁अंडे	-11.2184
▁प्रतिस्थापन	-11.2187
्टर	-11.2192
▁बढ़ाना	-11.2192
▁कठिनाइयों	-11.22
▁हल्के	-11.22
▁कंध	-11.2204
▁गले	-11.2208
▁निकलता	-11.2208
▁बल्लेबाज	-11.2209
▁जानना	-11.2214
▁मिलना	-11.2214
▁ईमेल	-11.2215
रम	-11.2215
न्त	-11.222
गार	-11.222
▁दिसम्बर	-11.2229
▁देनदार	-11.223
▁एसटी	-11.2237
▁वनस्पति	-11.2242
▁पाये	-11.2242
▁बांट	-11.2243
डि	-11.2243
▁Raipur	-11.2244
▁वैसा	-11.2245
▁ड्राइविंग	-11.2245
▁अनुज्ञा	-11.2245
ul	-11.225
▁गला	-11.2252
▁लक्ष्यों	-11.2253
▁बढ़ी	-11.2253
▁यांत्रिक	-11.2254
▁चिन्ह	-11.2254
▁टेप	-11.2258
▁गुट	-11.2265
▁अवि	-11.2266
▁अनन्त	-11.2273
▁वाक्यांश	-11.2273
▁शुक्र	-11.2274
▁सुन्दर	-11.2275
▁प्रतिनियुक्ति	-11.2276
ल्स	-11.2278
▁असमान	-11.2279
प्प	-11.2281
▁जायेंगे	-11.2283
▁प्रारम्भ	-11.2286
▁मैसूर	-11.2288
▁बु	-11.2289
▁बैठकों	-11.2291
▁नौकर	-11.2294
▁पुस्तकालय	-11.2303
▁विन्यास	-11.2304
▁प्राइमा	-11.2306
▁गुजर	-11.2309
▁कार्यकर्ता	-11.2309
▁व्यास	-11.2313
▁आजाद	-11.2315
▁आकर्षक	-11.2317
▁सकने	-11.2321
जीत	-11.2323
▁क्रय	-11.2324
▁Exs	-11.2328
दु	-11.233
▁सृजित	-11.2332
स्क	-11.2337
▁गुल	-11.2344
मार	-11.2345
▁निरर्थक	-11.2347
▁लिखत	-11.2355
▁नरेश	-11.2363
▁नील	-11.2363
▁बेची	-11.2372
▁आबंटन	-11.2377
▁सम्राट	-11.2377
▁स्पॉट	-11.2377
कला	-11.2378
▁घट	-11.2386
▁संभाल	-11.2387
▁सौंदर्य	-11.2392
▁ध्वस्त	-11.2392
▁नवम्बर	-11.2392
▁हमे	-11.2394
▁लेगा	-11.2403
▁अन्तर्	-11.2404
डिया	-11.2407
▁आयी	-11.2412
▁अपूर्ण	-11.2414
▁दायरा	-11.2416
▁व्याख्यान	-11.2416
TA	-11.242
ro	-11.2423
कुल	-11.2425
▁खबर	-11.2426
▁मुख्यतः	-11.2431
िस्ट	-11.2433
पात	-11.2434
▁श्रद्धा	-11.2436
▁पंजाबी	-11.2439
▁पार्श्व	-11.2439
▁जिसको	-11.2443
li	-11.2444
ीज	-11.2447
▁आश्रय	-11.2451
▁ऋषि	-11.2452
▁लिप्त	-11.2452
▁चित्रित	-11.2455
▁रोम	-11.2455
▁बढ़ना	-11.2456
▁जॉन	-11.2458
▁संकोच	-11.2467
▁रामायण	-11.2467
▁शरण	-11.2467
▁शिल्प	-11.2467
▁द्रव	-11.2468
▁हुईं	-11.2468
▁सिंगल	-11.2469
▁चु	-11.2469
हृ	-11.2469
सिया	-11.2473
▁सना	-11.2475
ate	-11.2475
▁पठन	-11.2477
धन	-11.2477
▁संकल्पना	-11.2478
लन	-11.248
▁पैतृक	-11.2482
लोक	-11.2487
▁कुरान	-11.2489
▁बेकार	-11.2506
▁कम्प्यूटर	-11.2512
▁वारिस	-11.2513
▁जागरूकता	-11.2517
▁जानती	-11.2518
▁ट्रस्टी	-11.2519
वीर	-11.2521
id	-11.2522
▁आत्मविश्वास	-11.2527
▁माहौल	-11.2527
▁अभिन्न	-11.2529
▁हिस्सेदारी	-11.2534
▁निर	-11.254
▁चाल	-11.2541
▁डिप्टी	-11.2542
▁निकला	-11.2547
▁लम्बे	-11.2549
▁आस्तिय	-11.2553
▁रूपांतरण	-11.2554
चार	-11.2555
▁सर्वश्रेष्ठ	-11.2557
▁अर्हता	-11.2559
▁लिखते	-11.2559
▁डाले	-11.2566
▁पुस्तकें	-11.2566
▁मंडप	-11.2568
▁विकासशील	-11.2571
ाइन	-11.2571
▁समर्थक	-11.2571
▁बाढ़	-11.2573
▁भागीदारों	-11.2574
▁बंदी	-11.2576
▁पू	-11.2576
स्य	-11.2576
विक	-11.2577
▁बाध्यता	-11.2587
▁पारदर्शी	-11.2588
▁बसव	-11.2591
▁पर्यावरणीय	-11.2596
▁स्टोर	-11.2602
▁Resident	-11.2603
▁थोड़े	-11.2603
▁नकार	-11.2605
▁जोशी	-11.261
▁पाना	-11.2611
थी	-11.2611
▁संतुलित	-11.2618
▁नवीनीकरण	-11.2619
▁क़	-11.2621
▁रणनीति	-11.2625
▁इक	-11.2627
▁देवताओं	-11.2632
▁अभ्यावेदन	-11.2633
▁गुणा	-11.2634
ौर	-11.2635
▁दबाया	-11.2636
AS	-11.2639
▁t	-11.264
▁अकादमी	-11.2648
▁धब्बे	-11.2648
▁यथोचित	-11.2648
▁वांछित	-11.2648
▁छेद	-11.2652
ञ	-11.2654
द्व	-11.2658
फर	-11.2664
▁आगामी	-11.2666
▁भूख	-11.2667
▁पूर्वगामी	-11.2667
▁असफलता	-11.2675
▁जलने	-11.2678
▁प्रोटीन	-11.2679
▁श्रेय	-11.268
▁संग्रहालय	-11.268
▁पकड़ने	-11.2681
▁नियमावली	-11.2682
बि	-11.2684
मत	-11.2687
▁नियामक	-11.2694
▁कृति	-11.2695
▁झगड़	-11.2698
्ला	-11.27
▁पहाड़	-11.2702
▁एक्स्ट	-11.2703
▁ब्रांड	-11.2703
▁प्रोजेक्ट	-11.2707
िग	-11.2709
▁अधिवेशन	-11.271
▁पादप	-11.2711
▁अनंत	-11.2711
▁चे	-11.2713
▁बारी	-11.2714
▁समस्याएं	-11.2719
हे	-11.2719
▁वर्न	-11.2719
▁वसीयतकर्ता	-11.2723
गांव	-11.2724
▁दिखाना	-11.2725
▁स्नातकोत्तर	-11.2726
▁बेगम	-11.2726
▁नवीनतम	-11.2726
▁रेत	-11.2727
▁मैने	-11.2732
▁रूपरेखा	-11.2742
▁असमानता	-11.2744
▁सम्बंध	-11.2745
▁संचित	-11.2748
▁कमल	-11.2748
▁सहयोगियों	-11.275
▁लोप	-11.2756
फल	-11.2757
▁जीवाणु	-11.2757
▁वार्ता	-11.2768
▁सिफारिशें	-11.2769
▁मधु	-11.2776
▁घोषणाओं	-11.2779
▁दत्त	-11.278
▁अनुमत	-11.2781
▁उत्कृष्टता	-11.2786
▁ओडिशा	-11.2787
▁भ्रामक	-11.2787
▁सामुदायिक	-11.2787
▁उन्नयन	-11.2787
▁अधीनता	-11.2788
▁आचार्य	-11.2793
gan	-11.2799
▁प्राणी	-11.2799
▁इंटरनेशनल	-11.2803
▁तमिल	-11.2803
▁दीपक	-11.2804
सम	-11.2804
▁भिन्नता	-11.2805
▁शुक्ला	-11.2809
ान्त	-11.2814
▁हंस	-11.2817
▁व्यष्टि	-11.2819
▁आगमन	-11.2819
▁संग्रहण	-11.2826
▁भट्ट	-11.2834
▁घटित	-11.2838
▁फि	-11.2839
▁ढ	-11.2842
▁एपीपी	-11.2844
▁स्तन	-11.2844
▁तुम्हार	-11.2844
▁फर्जी	-11.2846
▁संप्रदाय	-11.2849
DA	-11.2851
ोत्तर	-11.2853
▁अखबार	-11.2853
▁अर्	-11.2869
लेट	-11.2873
▁एससीआर	-11.2875
▁अभिव्यक्त	-11.2878
▁उत्तेजित	-11.2881
▁कराए	-11.2882
▁तालिका	-11.2887
▁सोन	-11.2898
▁हर्ष	-11.2898
▁y	-11.2899
▁राज्यक्षेत्र	-11.2904
ch	-11.2907
▁विडियो	-11.2909
▁बंधन	-11.2913
▁विदेशों	-11.2917
▁देखरेख	-11.2928
▁अभिकरण	-11.2929
▁अपनाए	-11.2932
▁घुस	-11.2934
▁निकासी	-11.2935
श्य	-11.2939
▁मू	-11.2939
▁पालिसी	-11.2941
▁दण्ड	-11.2941
▁पुणे	-11.2944
▁जिक्र	-11.2944
▁अध	-11.295
▁सैनिकों	-11.2955
पक	-11.2957
▁जगन्नाथ	-11.2959
▁डिलीवरी	-11.2959
▁तेलंगाना	-11.2959
▁छोड	-11.2961
▁आपदा	-11.2962
▁अवर	-11.2964
ेम	-11.2966
▁किरायेदारों	-11.2966
▁तालाब	-11.2969
ूल	-11.2971
▁मॉ	-11.2971
▁उड़ान	-11.2975
▁अकादमिक	-11.2975
▁फ्रैक्चर	-11.2975
▁आइए	-11.2976
▁चार्ट	-11.2978
िव	-11.2979
▁पैरों	-11.2979
▁संगणना	-11.2982
िटी	-11.2988
क्यू	-11.2989
ेरा	-11.299
▁समकक्ष	-11.2991
▁पराजित	-11.2991
▁संग्राम	-11.2992
▁संवर्ग	-11.2996
▁आदर	-11.2997
▁आधी	-11.3003
▁स्पर्श	-11.3007
▁कोयले	-11.3007
▁सुविधाजनक	-11.3008
▁कानपुर	-11.3009
रवाना	-11.3011
ari	-11.3016
बन	-11.3018
▁अवसंरचना	-11.3023
▁महासागर	-11.3023
▁एमओ	-11.3025
▁ऑपरेटर	-11.3026
▁वैयक्तिक	-11.3027
▁कीटनाशक	-11.3028
▁शांतिपूर्ण	-11.3029
घात	-11.3032
▁भगत	-11.3032
▁उच्चारण	-11.3039
▁दा	-11.304
▁परंपरागत	-11.3041
▁फुल	-11.3044
▁केबल	-11.3048
▁उन्नति	-11.305
्रे	-11.3054
▁अक्ष	-11.3062
ाने	-11.3064
▁तालुका	-11.3065
TH	-11.3067
ाप	-11.3069
▁कंपनियां	-11.3071
▁दवाओं	-11.3071
▁अन्तिम	-11.3071
▁पहुँचे	-11.3071
▁आकर्षण	-11.3071
▁कनिष्ठ	-11.3072
ियल	-11.3076
▁संविदात्म	-11.3077
िज	-11.308
▁औपचारिकता	-11.3081
▁मोर	-11.3081
▁आदत	-11.3082
▁ऊंची	-11.3086
▁फोरेंसिक	-11.3086
▁रक्तस्राव	-11.3087
▁इलाक	-11.309
▁स्टार	-11.309
▁दर्शा	-11.3095
▁सितम्बर	-11.3102
▁विचलन	-11.3103
▁पुरी	-11.3113
ियत	-11.3115
▁जैविक	-11.3116
▁नवीकरण	-11.3118
▁अरोड़ा	-11.3118
▁कॉपीराइट	-11.3118
▁सिंगापुर	-11.3118
▁बेंगलुरु	-11.3119
शिप	-11.3119
▁न्यायोचित	-11.3119
भि	-11.312
▁उपदेश	-11.3123
▁सार्वभौमिक	-11.3124
▁नस्ल	-11.3126
▁इंजन	-11.3127
▁आपात	-11.313
▁उपग्रह	-11.3131
▁दांडिक	-11.3134
▁बाज़ार	-11.3135
▁रोगियों	-11.3136
क़्	-11.3137
▁डाली	-11.3146
पट	-11.3147
▁लड़	-11.3149
▁तस्वीरें	-11.3155
गण	-11.3157
▁शिकायतें	-11.316
पल	-11.3163
▁सां	-11.3171
▁ग्राफ	-11.3177
▁Prasad	-11.3183
▁अधिनिर्णय	-11.3184
▁कर्ज	-11.3188
स्वामी	-11.3188
१९	-11.319
ta	-11.319
स्त्र	-11.3192
ट्टा	-11.3193
▁VI	-11.3194
कन	-11.3207
▁सावधान	-11.3215
क्का	-11.3219
▁आगरा	-11.322
▁इंजीनियरी	-11.3222
च्छ	-11.3225
▁हटाए	-11.3227
▁आंत	-11.3229
ाधीन	-11.3231
▁चंडीगढ़	-11.3231
▁हस्त	-11.3231
भूमि	-11.3232
▁वरन्	-11.3234
▁वृद्ध	-11.3235
▁बंदरगाह	-11.3236
ic	-11.3238
ल्	-11.3238
▁स्टे	-11.3247
▁निवारक	-11.3248
▁प्रसंग	-11.3249
▁गुर	-11.325
▁भागने	-11.325
ीस	-11.3251
ाब	-11.3252
▁इराक	-11.3253
ाइ	-11.3254
▁कवियों	-11.3255
▁निकले	-11.3261
▁वैष्णव	-11.3264
▁चट्टान	-11.3264
▁कैदी	-11.3279
▁सवार	-11.3279
तंत्र	-11.3282
चित	-11.3284
▁दर्जा	-11.3289
▁फांसी	-11.3296
▁पंख	-11.3298
▁स्कोर	-11.3298
▁इंद्र	-11.3299
te	-11.3299
▁नमक	-11.3303
▁विवेकपूर्ण	-11.3304
लम	-11.3307
▁अकेला	-11.3317
▁सिख	-11.3318
भारत	-11.332
ब्र	-11.332
▁पक्षी	-11.332
im	-11.332
▁छा	-11.3323
ट्ट	-11.3324
▁राशियों	-11.3327
▁विचित्र	-11.333
▁घड़ी	-11.3347
▁प्रतिवर्ष	-11.3348
र्व	-11.3352
▁लगाता	-11.3352
▁आईडी	-11.3354
▁रेड	-11.3354
▁कलाकार	-11.3355
um	-11.3356
▁करवा	-11.3359
▁आविष्कार	-11.3362
▁क्रियान्वयन	-11.3362
▁अधिनियमन	-11.3362
▁नियमन	-11.3368
▁वाल	-11.3371
▁युग्म	-11.3372
▁करीबी	-11.3375
▁जंगली	-11.3377
पे	-11.3377
▁पान	-11.3378
▁एफिडेविट	-11.3378
▁रोकथाम	-11.3378
▁आर्बिट्रेटर	-11.3378
▁प्लांट	-11.3379
▁धाराओं	-11.3384
ष्ठ	-11.3385
▁प्री	-11.3389
▁उत्पादकता	-11.339
▁ऊंचे	-11.3395
▁मुहम्मद	-11.3395
▁प्रेषण	-11.3395
▁ऋणों	-11.3397
र्द	-11.34
▁आवाज़	-11.3402
▁अनियमित	-11.3404
▁उदय	-11.341
▁अक्षमता	-11.341
▁अज	-11.3417
▁ज़	-11.3422
▁यहूदी	-11.3428
▁लाखों	-11.3431
▁मंत्रियों	-11.3432
▁संघीय	-11.3435
▁मनो	-11.3436
▁परिशिष्ट	-11.3445
▁लीला	-11.3446
▁दरबार	-11.3446
▁पत्राचार	-11.3446
र्ण	-11.3448
AM	-11.3453
पु	-11.3454
▁चुनावों	-11.3455
▁कर्मकार	-11.3455
▁छोर	-11.3456
▁गिरा	-11.3458
▁पहुँचा	-11.346
▁पूर्णतया	-11.3464
▁लक	-11.3467
▁बोला	-11.3471
▁लु	-11.3478
पि	-11.348
▁रखेगा	-11.3483
▁टे	-11.3483
बाबू	-11.349
▁जीआर	-11.3491
पितु	-11.3491
▁निषिद्ध	-11.3494
▁कपड़ा	-11.3495
रक	-11.3501
▁परम्परा	-11.3501
▁दिखाएँ	-11.3502
▁शुरुआती	-11.3504
▁परिवीक्षा	-11.3511
▁अवशोषण	-11.3511
▁प्रतिपादन	-11.3511
धि	-11.3519
▁लेट	-11.352
▁दंडात्मक	-11.352
▁वृत्ति	-11.3524
▁अयोग्यता	-11.353
▁गोवा	-11.3536
▁इसको	-11.3536
▁लोकायुक्त	-11.3544
प्रद	-11.3545
▁चढ़	-11.3546
▁बहाने	-11.3547
▁आघात	-11.3547
▁समावेशी	-11.355
▁वयस्क	-11.3551
▁विशेषज्ञता	-11.3558
▁re	-11.3566
▁जुड़	-11.3573
▁औषधि	-11.3577
▁अभिभावक	-11.3578
▁अभिनय	-11.3578
▁अनिवासी	-11.3578
▁मदन	-11.3585
▁नहर	-11.3586
▁हिल	-11.3592
▁पिस्तौल	-11.3595
▁महेंद्र	-11.3595
▁आश्रम	-11.3596
धार	-11.3597
चन्द्र	-11.3601
▁एण्ड	-11.3602
▁प्रसारित	-11.3603
▁स्थूल	-11.3612
▁माइक्रो	-11.3612
▁सिरों	-11.3614
▁सीआईटी	-11.3614
▁तत्त्व	-11.3615
▁रहीं	-11.3619
▁जानवर	-11.3621
▁कॉ	-11.3626
▁विभेद	-11.3629
▁रेस	-11.3631
▁आदिवासी	-11.3632
▁Bha	-11.364
▁आखिर	-11.3645
▁महाविद्यालय	-11.3645
▁अवरोध	-11.3646
▁बिट	-11.3653
वासियों	-11.3654
▁विच्छेद	-11.3654
▁मैक	-11.3656
▁शैल	-11.3657
▁तुमने	-11.3657
▁बेदखल	-11.3662
▁रांची	-11.3662
▁आखिरी	-11.3662
▁सबके	-11.3663
▁प्रशांत	-11.3663
▁सादे	-11.3664
▁सम्पन्न	-11.3667
▁सम्भव	-11.3668
▁बर्फ	-11.3676
▁स्विच	-11.3676
क्रम	-11.3676
▁एक्सप्रेस	-11.3679
▁सौभाग्य	-11.3679
▁हिला	-11.368
▁आकृति	-11.368
न्ना	-11.3681
▁साख	-11.3684
वती	-11.3687
▁ब्ल	-11.3692
▁विवाहित	-11.3693
▁वाई	-11.3693
▁देह	-11.3696
▁साइकिल	-11.3696
▁मापने	-11.3696
▁आश्चर्यजनक	-11.3696
▁कीमतों	-11.3697
▁स्वाधीनता	-11.3698
▁अंगूठ	-11.3702
▁रतन	-11.3704
▁चलती	-11.371
▁सांख्यिकी	-11.3711
▁IANo	-11.3713
▁बसे	-11.3713
▁दादा	-11.3713
▁खटखटाया	-11.3714
कना	-11.3715
▁सोचने	-11.3715
आईपी	-11.3716
▁गुजरना	-11.3717
▁निर्गम	-11.3726
▁अभिभाषण	-11.373
टिंग	-11.3732
▁फरार	-11.3733
▁विरोधाभासी	-11.3734
▁विक्रेताओं	-11.3735
▁विधा	-11.3741
▁मिथ्या	-11.3747
▁यूनाइटेड	-11.3747
▁परिस्थितियाँ	-11.3749
▁किलो	-11.3751
▁अंग्रेज़ी	-11.3753
▁आरआई	-11.3754
▁विधियां	-11.3754
AR	-11.3764
▁वॉल्यूम	-11.3766
▁ड्रग्स	-11.3766
▁अप्र	-11.3766
▁चतुर्थ	-11.3767
तन	-11.3767
▁मिस्र	-11.3771
ND	-11.3773
▁फा	-11.3777
▁नाबार्ड	-11.3781
▁क्रांतिकारी	-11.3783
▁प्रकरण	-11.3785
▁माफ	-11.3788
▁दिल्	-11.3793
▁संजीव	-11.3794
No	-11.3797
▁गणतंत्र	-11.3799
▁झटका	-11.38
स्व	-11.3804
इन	-11.3813
▁सुधारों	-11.3813
▁इन्हीं	-11.3816
▁जर्मन	-11.3816
▁अर्थों	-11.3818
▁कोमल	-11.3821
▁उन्होनें	-11.3822
▁प्रसव	-11.3826
ग्	-11.3827
▁खरीदे	-11.3828
▁अद	-11.3829
▁स्वच्छता	-11.3831
▁तात्पर्य	-11.3833
▁vi	-11.3833
▁आवरण	-11.3834
▁धु	-11.3837
▁चुनने	-11.3839
नू	-11.3843
▁मार्जिन	-11.385
रचनाओं	-11.3859
▁फिलीस्तीनी	-11.386
▁लेवी	-11.3861
▁आमदनी	-11.3868
▁दुबे	-11.3868
▁जटिलता	-11.3883
▁इंजेक्शन	-11.3885
▁कब्ज़ा	-11.3885
▁समामेलन	-11.3886
▁जीओएम	-11.3887
iya	-11.3888
ज्	-11.3891
▁विशेषताएं	-11.3891
▁थाना	-11.3892
▁अर्क	-11.3894
हत	-11.3902
▁ज़रूरत	-11.3904
▁नकली	-11.3904
▁इस्तीफा	-11.3907
▁पर्व	-11.3908
▁लोगो	-11.3909
विध	-11.3911
्टन	-11.3912
▁महाप्रबंधक	-11.3919
▁पेड़ों	-11.3922
रुप	-11.3925
▁पुरूष	-11.3928
बु	-11.393
मित	-11.393
राय	-11.3932
ेय	-11.3935
ुद्दीन	-11.3935
▁समाहित	-11.3937
AL	-11.3939
▁नियुक्तियां	-11.394
शक्ति	-11.394
▁अध्यापक	-11.3946
यु	-11.3946
माल	-11.3949
लू	-11.3951
्द	-11.3953
▁बहिष्कार	-11.3954
▁लौटे	-11.3958
▁दर्शाती	-11.3968
▁Block	-11.3972
▁मार्गदर्शक	-11.3972
▁क्षमा	-11.3975
le	-11.3978
िंदर	-11.3978
▁फायर	-11.398
▁ऊंचा	-11.3981
▁मांगे	-11.3983
▁खूब	-11.3985
मार्ग	-11.3986
AD	-11.399
▁VII	-11.3991
▁वासी	-11.3994
वश	-11.3994
▁रज	-11.3999
▁तिलक	-11.4
▁इंदौर	-11.4007
▁प्रोबेट	-11.4007
▁फर्क	-11.4008
ाली	-11.4015
▁मापदंडों	-11.4018
▁नमून	-11.402
ऐ	-11.402
िकी	-11.4023
ter	-11.4023
▁साइन	-11.4024
▁परिसमापन	-11.4024
▁सद्भावना	-11.4026
ti	-11.403
▁यहीं	-11.403
ka	-11.4033
▁बचपन	-11.4033
▁पश्च	-11.4036
▁लेटर	-11.4037
▁जग	-11.4046
▁टैब	-11.405
▁एससीए	-11.4051
▁सदनों	-11.4052
▁बैठने	-11.4054
तो	-11.4059
▁सिगरेट	-11.4059
▁जजमेंट	-11.4062
▁WA	-11.4063
▁डॉक्टरों	-11.4064
▁प्रतिमा	-11.4073
▁जहर	-11.4074
▁In	-11.4077
▁शर्ट	-11.4079
▁टै	-11.408
▁प्रतिभूतियों	-11.408
▁क्यू	-11.4082
हो	-11.4084
▁कराता	-11.4091
▁हिम	-11.4092
▁दीर्घ	-11.4094
▁दोहरा	-11.4095
▁उत्सर्जन	-11.4095
मिल	-11.4101
se	-11.4103
▁ऑफिस	-11.4104
▁रूपये	-11.4108
▁जाग	-11.4112
▁शास्ति	-11.4113
▁रंजन	-11.4113
▁कारगर	-11.4114
▁एशियाई	-11.4118
▁हरे	-11.4121
▁गोपनीय	-11.4122
धान	-11.4126
▁अनदेखा	-11.413
▁अवज्ञा	-11.413
▁स्मारक	-11.414
▁CWJC	-11.4148
▁दोबारा	-11.4148
▁पकड़ा	-11.4149
▁मराठी	-11.415
▁शिष्य	-11.4158
▁निधियों	-11.4159
▁कमांड	-11.4164
▁पूछ	-11.4165
▁डालर	-11.4165
▁भ्रूण	-11.4166
▁Aug	-11.4166
ॉन	-11.4168
▁कोण	-11.4168
▁आवेग	-11.4168
▁चाहेंगे	-11.417
▁भक्त	-11.4177
सने	-11.4178
▁बीडीए	-11.4181
▁अरविंद	-11.4185
बंद	-11.4187
ंदा	-11.4192
▁जेब	-11.4192
▁फो	-11.4194
▁गर्भाशय	-11.4194
▁संवेदना	-11.4199
▁देखिए	-11.4204
चल	-11.4204
▁दर्शाने	-11.4206
▁ग्र	-11.4206
▁मध्यस्थों	-11.4211
▁मानचित्र	-11.4217
▁साठ	-11.4217
▁कारतूस	-11.4219
▁सच्ची	-11.4219
▁बांग्लादेश	-11.422
▁भरपूर	-11.422
▁लड़का	-11.4221
ID	-11.4223
▁कर्मों	-11.4224
▁आजकल	-11.4224
▁घंटों	-11.4237
ठा	-11.424
मिकस	-11.4242
▁खाद	-11.4245
मारी	-11.4246
▁रत्न	-11.4252
▁पेय	-11.4254
▁अश	-11.4254
▁प्रस्तावना	-11.4256
▁विशिष्टता	-11.4258
▁कूद	-11.4261
▁नकल	-11.4261
▁वेंकट	-11.4262
कत	-11.4262
▁उदाहरणों	-11.4263
NA	-11.4264
▁टुकड़	-11.427
चक	-11.4271
▁वादकार	-11.4273
▁व्यर्थ	-11.4274
पीएल	-11.4275
▁लाभदायक	-11.4276
▁अरबी	-11.4283
▁जरूर	-11.4283
▁चौथा	-11.429
▁मुंशी	-11.4291
▁मैनुअल	-11.4291
▁Crl	-11.4292
▁लम्बी	-11.4294
▁खदान	-11.4304
▁आयाम	-11.4305
▁अनुभूति	-11.4306
▁टा	-11.4306
▁आउटपुट	-11.4309
▁स्नान	-11.431
▁फूट	-11.4312
▁समीकरण	-11.4312
त्ता	-11.4315
द्द	-11.432
▁जोड़ें	-11.4322
▁उन्हे	-11.4323
▁कन्वेंशन	-11.4327
▁इंस्टीट्यूट	-11.4327
▁मत्स्य	-11.4327
▁अफगानिस्तान	-11.4327
परक	-11.4328
▁तीर्थ	-11.4328
▁मिस	-11.4345
har	-11.435
ot	-11.435
▁पह	-11.4351
q	-11.4352
▁आज्ञा	-11.4355
re	-11.4357
▁होल्डिंग	-11.4361
▁पड	-11.4362
▁टेक	-11.4363
जवाबी	-11.4366
▁चिकित्सकीय	-11.4367
चू	-11.4368
esh	-11.437
▁पतन	-11.4371
▁नैतिकता	-11.4374
▁प्रदाता	-11.4375
▁कमाई	-11.4375
▁अधीक्षण	-11.4382
▁आड़	-11.4382
▁संस्थापक	-11.4383
▁आक्षेप	-11.4384
RA	-11.4386
▁इंडस्ट्रीज	-11.439
▁रिपोर्टों	-11.4393
▁ड्राइव	-11.4394
▁अं	-11.4396
▁अभिप्राय	-11.44
▁मुल्क	-11.4403
्ले	-11.4405
▁डाय	-11.4409
▁हेम	-11.4409
▁इंच	-11.4411
▁पेशी	-11.4415
▁बडा	-11.4415
▁प्रतिवेदन	-11.4415
▁विस्फोट	-11.4415
▁नोड	-11.4419
▁पार्टियां	-11.4419
▁व्यापारियों	-11.4419
▁चेहरा	-11.442
▁पूछे	-11.4425
ियर	-11.4428
▁अमीर	-11.4431
▁आंकड़ा	-11.4439
जू	-11.4439
जल	-11.4448
▁बेईमानी	-11.4449
▁तर	-11.4454
▁राह	-11.4454
▁अवशेष	-11.4455
▁सतीश	-11.4455
नियम	-11.4459
▁गिरने	-11.446
▁पृ	-11.4472
▁बही	-11.4478
▁विसंगतिय	-11.4479
▁डिस्चार्ज	-11.4492
▁श्लोक	-11.4492
▁युवक	-11.4492
▁अपनाना	-11.4493
▁पाइप	-11.4494
▁नोटरी	-11.4497
▁सोनी	-11.4502
▁वांछनीय	-11.4502
▁ईस्ट	-11.4508
▁भोपाल	-11.4511
▁बगल	-11.4516
▁सोना	-11.4516
▁जनजातिय	-11.4519
▁निराशा	-11.4522
▁सबको	-11.4527
▁जस्टिस	-11.4528
▁गतिविधियां	-11.453
▁सौदा	-11.4531
▁अवधारण	-11.4533
▁at	-11.4534
ाइट	-11.4547
▁नेताजी	-11.4552
▁कटक	-11.4555
▁भिन्	-11.4556
▁Ch	-11.4561
▁तरंग	-11.4562
▁बंगाली	-11.4565
▁नानक	-11.4565
टेन	-11.4565
▁पक्षियों	-11.4568
▁मानती	-11.4579
िकल	-11.4582
▁लड़ा	-11.4582
▁फर	-11.4583
▁भु	-11.4583
▁क्रिमिनल	-11.4584
▁तुलनात्मक	-11.4586
▁MP	-11.4586
▁कबीर	-11.4586
▁चीफ	-11.4598
▁सुचरिता	-11.4603
▁एनडीपीएस	-11.4603
▁सुदूर	-11.4603
▁स्केल	-11.4603
▁प्रक्रम	-11.4612
▁छल	-11.4618
▁टेनिस	-11.4621
▁ग्रह	-11.4628
▁सादा	-11.4631
ार्थियों	-11.464
▁कॉलोनी	-11.464
▁साक्षरता	-11.4642
▁सामानों	-11.4646
डब्ल्यू	-11.4649
ृत	-11.4653
ara	-11.4655
बाजी	-11.4656
▁संपादक	-11.4657
▁नागर	-11.4657
▁अवतार	-11.4659
ारी	-11.466
▁लूट	-11.4661
▁निर्यातक	-11.4674
▁सत्याग्रह	-11.4677
▁अभिरक्षा	-11.4677
▁तिहाई	-11.4677
▁दुग्ध	-11.4677
▁टैगोर	-11.4677
▁उड़	-11.4678
▁जोड़ी	-11.4681
ce	-11.4686
▁गोपनीयता	-11.4686
▁दिखता	-11.469
rd	-11.4695
▁फूलों	-11.47
▁बिन्दु	-11.4701
ैक	-11.4702
▁आल	-11.4707
▁ऋ	-11.4709
▁बचे	-11.4713
▁पिटीशन	-11.4715
▁प्रख्यात	-11.4715
हम	-11.4715
▁चौक	-11.4716
▁बैल	-11.4717
▁सच्चा	-11.4718
▁असमर्थता	-11.4718
ia	-11.472
▁प्रजा	-11.4722
िद	-11.4724
OR	-11.4728
ोड	-11.473
▁एमडी	-11.473
▁रसोई	-11.4734
▁ग्रन्थ	-11.4736
णा	-11.4736
डर	-11.4736
▁ग्रीन	-11.4738
सेन	-11.474
जित	-11.474
ेन्स	-11.4742
▁कीजिए	-11.4742
▁टांग	-11.4753
▁शशि	-11.4754
▁संयोग	-11.4755
▁रै	-11.4756
IN	-11.4758
▁प्रहार	-11.476
▁दिख	-11.4761
ांश	-11.4762
ाइल	-11.4765
▁Sec	-11.4768
▁फै	-11.4771
ब्ब	-11.4771
▁प्रोटोकॉल	-11.4771
▁सर्वप्रथम	-11.4771
▁गोयल	-11.4772
ॉल	-11.4772
▁निदान	-11.4773
▁मेहनत	-11.4773
▁क्लेम	-11.4775
▁कैद	-11.4779
▁Son	-11.4782
▁विवादास्पद	-11.479
ानंद	-11.4794
जीवन	-11.4802
▁आश्रित	-11.4804
▁ख़	-11.4804
▁चलाए	-11.4807
ll	-11.4809
ूँ	-11.4809
▁बंगलौर	-11.4809
▁सिनेमा	-11.4809
▁मुहैया	-11.4809
▁बदनाम	-11.4811
▁वन्य	-11.4816
IT	-11.4816
कालीन	-11.4818
▁आचार	-11.4819
▁पॉल	-11.4825
▁बचना	-11.4825
▁फाउंडेशन	-11.4828
▁आशुतोष	-11.4828
▁बुध	-11.4832
▁शु	-11.4837
▁छः	-11.4838
गें	-11.4838
▁असल	-11.4838
▁रॉय	-11.4843
▁रेंज	-11.4844
▁इंडिका	-11.4848
▁स्थलों	-11.4849
▁मुड़	-11.485
▁पुराण	-11.4854
▁रूम	-11.4859
▁खोपड़ी	-11.4867
▁ससुर	-11.4867
▁खुल	-11.4869
▁ट्रेन	-11.4872
▁ऑपरेटिव	-11.4876
है	-11.488
UR	-11.4883
▁समाजवादी	-11.4885
▁कंट्रोल	-11.4887
▁पलट	-11.4888
ऑ	-11.4888
▁राष्ट्री	-11.4888
▁जोरदार	-11.4892
शि	-11.4896
IC	-11.4897
णी	-11.4902
टल	-11.4902
▁आवश्य	-11.4903
पाद	-11.4904
वानी	-11.4904
▁राइट	-11.4905
▁फेर	-11.4905
▁बर्तन	-11.4905
▁गर्ग	-11.4907
▁रिश्ते	-11.4907
ant	-11.4911
▁पुत्री	-11.4917
▁मेहर	-11.4918
▁पंचायतों	-11.492
▁असंतुष्ट	-11.4924
▁मुद्रित	-11.4924
▁AGE	-11.4925
▁ललिता	-11.4925
दीप	-11.4925
र्ज	-11.4926
▁एएसआई	-11.493
मीटर	-11.4944
ाऊ	-11.4945
▁अनजाने	-11.4948
▁पूछने	-11.4948
्टी	-11.4952
▁संचयी	-11.4952
बंदी	-11.4952
कू	-11.4954
नर	-11.4956
▁सतर्क	-11.4959
▁अन्यायपूर्ण	-11.4965
ंप	-11.4968
▁रूचि	-11.4972
▁चार्टर	-11.4973
▁क्रमिक	-11.4975
सिस	-11.4976
▁धो	-11.498
▁महाराज	-11.498
▁आन्दोलन	-11.4982
▁प्रशंसनीय	-11.4982
▁लिखावट	-11.4983
र्प	-11.4983
▁धर	-11.4984
▁भेदभावपूर्ण	-11.4986
▁मणिपुर	-11.4989
▁जैसाकि	-11.4993
शर	-11.4993
▁पैक	-11.5
▁त्रिपाठी	-11.5001
▁मुकेश	-11.5001
ुन	-11.5005
▁MC	-11.5008
▁नाना	-11.5008
▁Sh	-11.5009
प्त	-11.501
▁दीवारों	-11.501
▁गण	-11.5011
▁पेशे	-11.5012
▁अंतरित	-11.5017
▁com	-11.5018
▁डालते	-11.502
▁स्ट्रीट	-11.5021
▁फर्श	-11.5021
▁वैट	-11.5022
▁सूचकांक	-11.5022
▁चिल्ला	-11.5023
ारा	-11.5032
▁सांप्रदायिक	-11.5032
▁निराश	-11.5033
▁दिला	-11.5035
घाट	-11.5035
▁संतान	-11.5036
▁यकीन	-11.504
▁लाइसेंसधारी	-11.5042
▁महान्	-11.5044
▁इस्लामवादी	-11.5051
▁विकृति	-11.5051
▁परियोजनाएं	-11.5054
ol	-11.5054
▁कैबिनेट	-11.5059
▁शिमला	-11.5059
▁कैलाश	-11.506
▁सर्जन	-11.5067
ीर	-11.5068
ाणु	-11.5074
▁जमानती	-11.5079
▁जू	-11.5081
▁क़्योंक	-11.5084
▁वाहक	-11.5085
थो	-11.5086
नेट	-11.5086
▁भव्य	-11.509
ोक	-11.5092
ैट	-11.5097
स्थान	-11.5098
▁सब्सिडी	-11.5098
▁एसी	-11.5099
▁उधर	-11.5101
सिल	-11.5104
▁संभालने	-11.5105
ट्टी	-11.5108
ड़िया	-11.5109
▁परवाह	-11.5109
▁निगमों	-11.5114
adav	-11.5119
पू	-11.5127
बीर	-11.513
▁सीरिया	-11.5131
▁मेघ	-11.5135
रानी	-11.5138
▁Polic	-11.5138
▁संव्यवहार	-11.5138
▁छुपा	-11.5139
▁निपटारे	-11.5139
▁PC	-11.514
▁वध	-11.5141
▁अम	-11.5148
▁चलकर	-11.5151
CL	-11.5155
ीक	-11.5155
▁मधुमेह	-11.5157
▁ऋतु	-11.5158
▁थोक	-11.5159
▁नाल	-11.5162
▁अल्	-11.5164
▁सिल	-11.5167
▁अर्थशास्त्र	-11.5169
म्भ	-11.5172
ab	-11.5174
▁व्यवसायी	-11.5175
▁वर्क	-11.5178
▁हिंदुओं	-11.518
स्ता	-11.5181
▁रेशम	-11.519
▁चा	-11.5191
▁अहिंसा	-11.5192
▁भेजें	-11.5192
▁जरा	-11.5192
▁लाला	-11.5193
यल	-11.5194
पादित	-11.5194
▁मायने	-11.5199
om	-11.52
▁गुजराती	-11.5201
▁विष	-11.5205
▁निर्देशन	-11.5205
▁शाब्दिक	-11.5216
▁बस्ती	-11.5217
▁लेनी	-11.5218
▁ईमानदार	-11.5219
▁अवस्थित	-11.5221
▁प्रभुत्व	-11.5231
्रि	-11.5236
▁गंतव्य	-11.5236
▁प्रत्यर्थी	-11.5236
▁बहुमूल्य	-11.5236
▁अधिशेष	-11.5236
्टे	-11.5238
तुल	-11.5243
ानु	-11.5243
▁करूंगा	-11.5245
▁अभेद्य	-11.5256
▁Station	-11.5256
▁असाइनमेंट	-11.5256
ोट	-11.5256
▁हुये	-11.5257
▁प्रत्यक्षदर्शी	-11.5258
▁डालना	-11.526
▁राजपत्रित	-11.5263
▁चलना	-11.5264
▁सेवकों	-11.5269
▁बैंकर	-11.5272
▁असं	-11.5274
सिक	-11.5275
▁ग्यारह	-11.5276
▁जिंदगी	-11.5276
▁निमित्त	-11.5276
▁संचिका	-11.5276
▁गर्भवती	-11.5276
▁महेश	-11.5277
▁निरोधक	-11.528
▁ध्रुव	-11.5282
▁कन	-11.5284
▁जाएँ	-11.5288
▁प्रदीप	-11.5289
्टि	-11.5291
▁टीका	-11.5294
▁बाला	-11.5295
▁बम्बई	-11.5296
िला	-11.5296
▁मानकर	-11.5297
▁धूल	-11.5298
▁बलराम	-11.53
▁खेतों	-11.5306
▁दाम	-11.5309
▁अच	-11.531
▁चिपका	-11.5314
▁मार्केट	-11.5315
▁प्रबंधित	-11.5315
ल्ट	-11.5317
▁समझी	-11.5317
▁अखंडता	-11.5318
▁खींचा	-11.5321
लिक	-11.5323
▁मिश्र	-11.5325
▁विनिधान	-11.5334
ोरा	-11.5335
▁मंत्रिमंडल	-11.5336
▁बचाया	-11.5342
▁भग	-11.5346
वर्त	-11.535
▁विटामिन	-11.5356
बिल	-11.5356
▁शब्दकोश	-11.5357
▁राधा	-11.5358
▁बादशाह	-11.5358
▁पूर्वोत्तर	-11.5362
लों	-11.5363
▁बदलना	-11.5368
▁गीतों	-11.5374
▁कनेक्ट	-11.5376
▁झिल्ली	-11.5376
▁सृष्टि	-11.5376
▁गोलीबारी	-11.5376
RC	-11.5378
▁सातवीं	-11.5378
▁कामों	-11.5378
▁मंत्रालयों	-11.5379
▁धा	-11.538
लिखित	-11.538
▁ढाल	-11.5384
endra	-11.5386
▁आतंक	-11.5391
▁विकार	-11.5391
▁साकार	-11.5392
वृत्त	-11.5393
▁याचिकाएँ	-11.5394
▁राजाओं	-11.5401
िमा	-11.5406
▁क्रूर	-11.5416
▁अनुमेय	-11.5416
▁तालुक	-11.5416
▁त्रुटिः	-11.5416
▁गोदाम	-11.5417
▁शिविर	-11.5417
▁धर्मार्थ	-11.5419
▁पोल	-11.5421
▁भागवत	-11.5422
ोम	-11.5423
▁पिन	-11.5428
▁अह	-11.543
क्शन	-11.5433
▁अनुदेश	-11.5434
▁असंवैधानिक	-11.5436
▁कौंसिल	-11.5436
▁रोचक	-11.5437
▁अनुरक्षण	-11.5437
▁निगमित	-11.5437
▁मेमोरी	-11.5441
▁स्वर्ग	-11.5447
कारक	-11.5447
▁काफ़ी	-11.5453
▁सिर्फ़	-11.5463
▁क्षेत्रफल	-11.5466
▁अक	-11.5467
▁बालों	-11.5471
नुमा	-11.5472
▁जै	-11.5474
▁सुरेंद्र	-11.5477
▁खसरा	-11.5478
▁बेटिय	-11.5478
▁ट्र	-11.5481
▁खुदरा	-11.5487
गामी	-11.5488
▁साथियों	-11.549
▁घटकों	-11.5491
▁फिल्मों	-11.5492
हल	-11.5494
▁सामंजस्य	-11.5496
भाग	-11.5496
▁चौदह	-11.5497
▁फर्दब	-11.5497
▁पर्यवेक्षक	-11.5498
▁बेहोश	-11.55
▁बड़	-11.5504
▁बनती	-11.5507
▁धीम	-11.551
डीआर	-11.5517
▁किशन	-11.5517
▁सापेक्ष	-11.5518
▁साइंस	-11.5521
डिंग	-11.5522
रिस	-11.5527
▁पुकार	-11.5531
▁तुम्हारा	-11.5532
▁उपबंधित	-11.5532
▁h	-11.5533
▁पहुंचाई	-11.5533
▁इन्	-11.5534
▁दौरे	-11.5537
▁सर्वोपरि	-11.5538
▁एंट्री	-11.5538
ख़	-11.5539
▁कपास	-11.5539
▁डेट	-11.554
▁किरण	-11.5542
▁वर	-11.5546
सीएल	-11.555
▁रोकता	-11.5554
▁रेगिस्तान	-11.5559
▁डिप्लोमा	-11.5559
▁सगाई	-11.5559
▁मैत्रीपूर्ण	-11.556
▁कस	-11.5567
ED	-11.5568
▁दबाने	-11.5569
▁निर्देशक	-11.5574
▁आन	-11.5575
▁आनुपातिक	-11.5579
▁कंसोर्टियम	-11.5579
▁ग्वालियर	-11.5579
▁विकिरण	-11.5579
▁बिहारी	-11.5586
▁स्वार्थ	-11.5587
जि	-11.5587
▁परेशानी	-11.5588
▁विख्यात	-11.56
▁उद्भूत	-11.56
▁मशीनों	-11.56
▁दीर्घकालिक	-11.56
▁कैदियों	-11.5605
▁मनुष्यों	-11.5607
▁विवेचना	-11.5608
ांक	-11.5612
▁मणि	-11.5612
▁आनुवंशिक	-11.5612
▁अनियंत्रित	-11.562
▁क्राइम	-11.562
हट	-11.5624
▁दिलाने	-11.5625
शीलता	-11.5631
SS	-11.5631
▁भीम	-11.5632
▁टिक	-11.5632
▁क्रोध	-11.5638
▁अपरिवर्तनीय	-11.5641
▁शेड्यूल	-11.5641
▁सनातन	-11.5641
▁बिल्डिंग	-11.5641
▁पीछल	-11.5642
शाला	-11.5642
▁प्रगतिशील	-11.5643
सिन	-11.5643
पल्ली	-11.5645
▁कैन	-11.5649
▁माया	-11.565
भूत	-11.5656
▁धर्मों	-11.5657
▁अल्ट्रा	-11.5661
▁रहकर	-11.5665
स्टर	-11.5666
▁जरुरत	-11.5682
▁छानबीन	-11.5682
▁परिमाण	-11.5682
▁लेखापरीक्षा	-11.5683
१वीं	-11.5686
▁उग्र	-11.5686
▁ऊतकों	-11.5686
▁बुराई	-11.5687
▁प्रजाति	-11.5688
▁अग	-11.5693
▁दुर्ग	-11.5696
▁कहें	-11.5698
▁हू	-11.5701
▁अजीबोगरीब	-11.5703
▁सेटलमेंट	-11.5703
▁राज़्य	-11.5703
कांत	-11.5703
ly	-11.5703
▁रिहाई	-11.5708
ँग	-11.571
▁सिंधु	-11.5711
▁CO	-11.5714
▁प्रेरक	-11.5715
▁सूचक	-11.5719
▁कान	-11.5719
▁दाग	-11.5722
▁बर्खास्त	-11.5723
▁सुझावों	-11.5724
▁टेलीविजन	-11.5724
▁मुँह	-11.5724
▁प्रवर्ग	-11.5725
▁नर्सिंग	-11.5725
▁बूट	-11.5728
▁प्रवीण	-11.5728
▁पर्यवेक्ष	-11.5731
ग्राम	-11.5735
TS	-11.5741
▁दत्तक	-11.5744
▁मुकाबला	-11.5744
▁गूगल	-11.5745
ैन	-11.5746
▁दाल	-11.575
ाग	-11.5752
▁मुल	-11.5754
▁मरीज	-11.5755
▁जीने	-11.5757
▁एचपी	-11.5757
▁पर्यटकों	-11.576
▁मित्रता	-11.5762
ंगल	-11.5765
▁सामर्थ्य	-11.5765
▁असुरक्षित	-11.5765
▁बच्चन	-11.5765
▁निरसित	-11.5765
▁प्रतिशोध	-11.5766
वित	-11.5767
▁साझेदार	-11.5771
▁खिलाड़ी	-11.5773
बर्ग	-11.5774
▁संस्थाएं	-11.5777
ITAT	-11.5784
▁सर्कल	-11.5786
▁दिलीप	-11.5786
▁प्रायोजित	-11.5786
▁घेर	-11.5787
▁Ws	-11.5792
▁रथ	-11.5797
ag	-11.5802
▁करुणा	-11.5807
▁दीक्षांत	-11.5807
▁देसाई	-11.5809
▁दीवान	-11.581
▁टक	-11.5814
▁शत	-11.5814
▁क्षमताओं	-11.5815
▁मनी	-11.5815
▁भेजना	-11.5816
▁श्वसन	-11.5826
▁मौन	-11.5828
▁हिन्दुओं	-11.5831
ho	-11.5838
▁विषम	-11.584
शु	-11.5841
▁गार्ड	-11.5841
▁मूत्र	-11.5843
▁वास	-11.5844
मंडल	-11.5844
▁प्रवास	-11.5849
ठी	-11.5849
▁वित्तपोषण	-11.5849
▁सम्बद्ध	-11.585
एफ	-11.585
न्य	-11.5853
▁स्थाई	-11.5855
▁केन्द्रों	-11.5859
गृह	-11.5863
▁अज्ञान	-11.5864
‘	-11.5866
▁मैत्री	-11.5869
▁चलाना	-11.5873
एक	-11.5874
ैक्ट	-11.5877
पूर्व	-11.588
▁अनर	-11.5881
▁विद्यालयों	-11.5883
ik	-11.5884
▁दरें	-11.5888
▁प्रदेशों	-11.5888
▁जॉर्ज	-11.5892
▁लाइट	-11.5892
▁पहन	-11.5894
▁नै	-11.5895
▁पट्ट	-11.5898
▁तह	-11.5902
▁नाव	-11.5904
▁आलम	-11.5906
▁क्षैतिज	-11.5913
▁अधिकाधिक	-11.5913
▁प्रांतीय	-11.5917
▁गुलाम	-11.5917
छा	-11.5919
▁बिन	-11.592
▁एसिड	-11.5921
▁मनीष	-11.5922
▁मधुर	-11.5924
क्त	-11.5925
ल्फ	-11.5927
▁दर्शक	-11.5927
▁आयुर्वेद	-11.5932
▁गेहूं	-11.5934
▁कमरा	-11.5935
▁शान्ति	-11.5938
▁आरसी	-11.5951
▁क्लास	-11.5951
▁माधव	-11.5952
▁चिर	-11.5952
लक	-11.5953
▁निरूपित	-11.5955
▁बेटों	-11.5956
▁पार्ट	-11.596
▁एसके	-11.596
वेश	-11.596
▁एमएस	-11.5963
वत्	-11.5968
▁फी	-11.5968
▁त्रुटियों	-11.597
▁पाती	-11.597
▁ऑल	-11.5972
▁पकड़े	-11.5975
▁भरोसेमंद	-11.5977
▁चौथी	-11.5977
▁सुने	-11.5979
िस्तान	-11.598
वक	-11.5985
▁नारी	-11.5995
बन्ध	-11.5996
▁अतिथि	-11.5997
▁कुटुम्ब	-11.5998
▁प्रतियोगी	-11.5998
▁एक्सटेंशन	-11.5998
▁मैट्रिक्स	-11.6
दाता	-11.6003
▁चुकाने	-11.6003
ुम	-11.6006
▁प्राय	-11.6009
▁फे	-11.6012
ंता	-11.6016
▁आक्रामक	-11.6019
▁पड़ोस	-11.6019
▁मादक	-11.6019
▁लार्ड	-11.6021
▁रामचंद्र	-11.6023
▁पेट्रोल	-11.6024
▁पटल	-11.6026
▁लगेगा	-11.6027
▁दीं	-11.6027
▁साझीदारी	-11.6032
थे	-11.6034
▁गंध	-11.6038
घा	-11.604
▁उपयोक्ता	-11.6041
▁दशमलव	-11.6041
▁पसंदीदा	-11.6041
▁खेप	-11.6042
▁बुरे	-11.6042
▁नतीजा	-11.6043
लेख	-11.6044
▁पढ़ी	-11.605
▁एफए	-11.606
▁शे	-11.6061
▁एहसास	-11.6062
▁संस्थापित	-11.6066
▁काउंसल	-11.6066
RI	-11.6067
वर्धन	-11.6068
▁हाउसिंग	-11.6072
▁परिपक्व	-11.6072
▁शुभ	-11.6073
▁मजबूती	-11.6074
शिया	-11.6075
▁तत्परता	-11.6078
रोग	-11.6078
▁ऑयल	-11.6084
विल	-11.6084
▁पिटाई	-11.6084
▁प्रदाह	-11.6084
▁इधर	-11.6085
▁मनोहर	-11.6086
▁अम्ल	-11.6089
▁जीवंत	-11.6089
मस	-11.6091
LE	-11.6094
ुत	-11.61
▁खर्चे	-11.6102
▁सौहार्दपूर्ण	-11.6106
▁पवित्रता	-11.6107
▁क्राल	-11.6107
▁जरुर	-11.6109
▁पाठकों	-11.611
आईसी	-11.6114
▁भटक	-11.6116
▁कॉम	-11.6116
▁ओबामा	-11.6127
▁भुवनेश्वर	-11.6127
▁सालों	-11.6127
▁फुट	-11.6129
▁बक	-11.6131
▁Sat	-11.6131
▁कार्यनीति	-11.6132
▁ओह	-11.6132
▁कठोरता	-11.6133
ापन	-11.6133
▁हटाना	-11.6133
▁सर्वे	-11.6135
▁बीमारियों	-11.6142
▁विहार	-11.6142
टि	-11.6142
▁लाहौर	-11.6148
▁अपूरणी	-11.6149
▁प्रस्थान	-11.615
▁डालता	-11.615
▁चार्टर्ड	-11.6151
▁ब्लैक	-11.6151
▁महिलाएं	-11.6164
ानुसार	-11.6165
ौली	-11.6166
▁श्रीलंका	-11.617
▁टैरिफ	-11.6171
▁अवसाद	-11.6171
मात्र	-11.6171
▁श्रीनिवास	-11.6172
▁एमओयू	-11.6172
ाज	-11.6173
▁शासकीय	-11.6173
▁जगत्	-11.6173
▁ट्रेडिंग	-11.6176
पुरम	-11.6185
▁खेलने	-11.6186
▁गतिशील	-11.6187
▁मिलन	-11.6192
▁सर्किट	-11.6192
▁ट्रांसफर	-11.6192
▁रेखांकित	-11.6192
▁तमाम	-11.6193
▁राहुल	-11.6193
आईएस	-11.6203
ation	-11.621
▁यान	-11.6211
▁तिमाही	-11.6214
▁मांसपेशिय	-11.6214
▁रंगमंच	-11.6214
▁महर्षि	-11.6214
▁PDD	-11.6215
▁विराम	-11.6221
▁The	-11.6226
▁जागरूक	-11.6228
▁झुक	-11.6232
▁जितने	-11.6232
ुस	-11.6233
▁रेख	-11.6233
▁सक	-11.6233
द्य	-11.6236
▁झलक	-11.6237
▁स्वाद	-11.6238
ाहट	-11.624
हीनता	-11.6243
▁दादी	-11.6245
खंड	-11.625
▁फौज	-11.6254
▁भयानक	-11.6258
▁कैलेंडर	-11.6258
▁निरन्तर	-11.6258
▁सिवा	-11.6259
▁गे	-11.6263
▁जोड़ना	-11.6268
श्च	-11.6273
▁मेन	-11.6275
नक	-11.6276
▁दर्शाते	-11.6279
▁बनकर	-11.6279
▁व्याकरण	-11.6279
▁चमत्कार	-11.628
▁एसएचओ	-11.628
▁कपूर	-11.6282
▁प्रजातिय	-11.6283
▁जमींदार	-11.6285
ूंगा	-11.6287
▁शल्य	-11.6291
▁पत्रकार	-11.6296
तल	-11.6296
ंद्र	-11.6298
▁प्राणियों	-11.6298
▁अनुपूरक	-11.6302
▁विधायक	-11.6302
▁रघुनाथ	-11.6302
▁केन्द्रित	-11.6304
▁गरीबों	-11.6308
रोह	-11.6313
IS	-11.6317
▁आरपी	-11.6319
▁कसौटी	-11.6324
▁सहभागिता	-11.6324
▁गन्ने	-11.6324
सऋ	-11.6325
▁करवाने	-11.6328
सीसी	-11.6329
▁एजुकेशन	-11.6342
ग्रहण	-11.6345
▁मिलीभगत	-11.6346
▁एकतरफा	-11.6346
▁पोषक	-11.6347
▁देशवासियों	-11.6351
जु	-11.6357
▁सभाओं	-11.6364
▁मक	-11.6365
नारायण	-11.6365
▁निकाली	-11.6367
▁तम्बाकू	-11.6368
▁मानहानि	-11.6369
ंभ	-11.6369
एसएस	-11.6374
▁ह्य	-11.6376
▁विचारक	-11.6381
षा	-11.6386
टीए	-11.6387
▁अस्वीकृत	-11.6389
▁असुविधा	-11.639
▁प्रगाढ़	-11.6391
▁हार्डवेयर	-11.6391
▁समन्वित	-11.6391
▁अवधारित	-11.6391
▁अर्पित	-11.6391
▁बलिदान	-11.6391
▁पीडीएफ	-11.6391
▁धारित	-11.6397
▁मैप	-11.6398
▁मुताबिक	-11.6413
▁तुरन्त	-11.6413
▁बेदखली	-11.6413
▁सल	-11.6421
कट	-11.6423
दो	-11.6424
▁प्रवाहित	-11.6425
▁मंडी	-11.6426
कृतियों	-11.6428
▁अंडर	-11.6428
▁अमित	-11.6432
▁आपूर्तिकर्ता	-11.6434
▁मुद्रण	-11.6435
▁निराधार	-11.6435
कर्त्ता	-11.6435
▁यो	-11.6436
सान	-11.6439
च्च	-11.644
▁इंसान	-11.644
खी	-11.6441
▁चढ़ा	-11.6445
लंब	-11.6448
▁भि	-11.6451
▁गली	-11.6453
▁दिशाओं	-11.6455
▁समीचीन	-11.6457
▁खोलें	-11.646
▁चो	-11.6467
▁बांस	-11.6467
ud	-11.6467
▁गुहा	-11.6469
▁दोषों	-11.647
ईटी	-11.647
▁मुझ	-11.6473
▁सै	-11.6474
▁विषयक	-11.6475
▁wp	-11.6477
िफ	-11.6479
▁तुलसी	-11.648
▁खिड़की	-11.648
▁प्रमोटर	-11.648
ेबल	-11.648
▁बनर्जी	-11.648
▁प्रशिक्षु	-11.6481
लीन	-11.6482
▁शीत	-11.6485
▁बनते	-11.6485
ियस	-11.6488
▁एसएस	-11.6492
▁करेंगी	-11.6492
जीव	-11.6495
▁यु	-11.6498
निर्	-11.6501
ज्य	-11.6502
▁यज्ञ	-11.6505
यक	-11.6506
श्र	-11.6512
▁अमृत	-11.6513
▁प्रस्तावक	-11.6518
▁दत्ता	-11.6521
▁डेवलपमेंट	-11.6525
▁पुनर्निर्माण	-11.6525
▁हैसियत	-11.6525
▁महावीर	-11.6526
▁शास्त्रीय	-11.6526
▁मोल	-11.6526
▁अनुभवों	-11.653
हु	-11.6532
ैल	-11.6535
▁बोले	-11.6536
स्था	-11.6541
▁मतदाताओं	-11.6544
▁अवशोषित	-11.6547
▁गढ़	-11.6549
▁माफी	-11.6549
▁कटाई	-11.655
▁पैंट	-11.6552
▁शीघ्रता	-11.6552
▁गरम	-11.6562
▁हनुमान	-11.657
▁सैयद	-11.657
▁ग्राउंड	-11.657
▁लापता	-11.657
▁लड़कों	-11.6571
han	-11.6571
▁CPC	-11.6574
्मा	-11.6579
▁सांप	-11.6579
डू	-11.6582
▁स्वीकार्यता	-11.6584
▁व्याप्त	-11.6586
टक	-11.6588
वस्था	-11.6588
▁अन्तर्राष्ट्रीय	-11.6593
परि	-11.6593
▁प्रिवी	-11.6593
▁इनसे	-11.6594
एगा	-11.6596
ve	-11.6598
▁बैंड	-11.6599
▁असंख्य	-11.6605
भू	-11.6605
AT	-11.6606
ौल	-11.6606
▁नॉन	-11.6608
▁बजाए	-11.6609
SO	-11.6612
▁मनोवैज्ञानिक	-11.6616
▁प्रतिस्पर्धी	-11.6616
▁खु	-11.6618
प्रिय	-11.6618
▁रात्रि	-11.6621
रोधी	-11.6626
कर्म	-11.6631
▁साधना	-11.6632
▁हरा	-11.6633
▁न्या	-11.6635
▁डीडी	-11.6636
▁गौण	-11.6639
सल	-11.6639
▁उतने	-11.6641
विद	-11.6649
श्म	-11.6651
बो	-11.6655
ज़र	-11.6659
ेरे	-11.6659
▁प्रचलन	-11.6661
▁परिसंपत्तिय	-11.6662
▁टाइम	-11.6663
फ्ल	-11.6664
ियार	-11.6664
▁आओ	-11.6666
▁कहलाता	-11.6667
ग्न	-11.667
ts	-11.6672
▁दीक्षा	-11.6684
▁फिंगर	-11.6684
▁नारियल	-11.6684
न्ध	-11.6686
लैण्ड	-11.6687
▁प्रतिकर	-11.6687
▁ठहराव	-11.6692
PL	-11.6695
▁घटनाएं	-11.6695
मिया	-11.6702
ड़ों	-11.6704
▁अद्वितीय	-11.6707
▁लेआउट	-11.6709
▁कमर	-11.671
▁आभूषण	-11.6711
ड़कर	-11.6712
▁पद्धतियों	-11.6718
▁उद्यमियों	-11.6718
▁विचारणीय	-11.6718
▁संप्रभु	-11.6718
▁आरके	-11.6719
डल	-11.6721
▁स्क	-11.6723
▁पढ़ें	-11.6724
▁कार्यात्मक	-11.6729
▁प्रिंटर	-11.6729
▁Mu	-11.673
▁आशीष	-11.673
▁अवयव	-11.6732
▁लार	-11.6735
▁मंद	-11.6748
▁चोर	-11.6751
▁अस्पष्टता	-11.6753
▁शाही	-11.6754
विन	-11.6755
एफसी	-11.6758
▁मंत्रि	-11.676
मेट	-11.676
▁दुर्	-11.6762
▁मैन	-11.6764
▁डो	-11.6765
क़ा	-11.6774
▁डेस्कटॉप	-11.6776
▁भूटान	-11.6776
▁पर्चे	-11.6777
▁बग	-11.6778
▁सेकंड	-11.6779
LA	-11.6782
▁शासकों	-11.6783
▁बादल	-11.6786
्का	-11.6786
▁व्यक्तिपरक	-11.6787
▁चेन	-11.6791
▁एनआईटी	-11.6795
▁असहमति	-11.6798
▁विचलित	-11.6799
▁विध्वंस	-11.6799
▁शुष्क	-11.6799
▁हिंसक	-11.6799
▁बैलेंस	-11.6799
▁साहिब	-11.6801
▁आरपीसी	-11.6802
▁हार्ड	-11.6807
िशन	-11.681
▁डीए	-11.682
▁l	-11.6822
▁रस्सी	-11.6823
हरा	-11.6824
▁Champara	-11.6825
▁पैन	-11.6828
▁डिक्शनरी	-11.6846
▁प्रौढ़	-11.6846
▁टकराव	-11.6848
▁अटल	-11.6849
▁कमा	-11.6851
▁गोला	-11.6857
▁कर्ता	-11.6857
▁लीटर	-11.6858
ह्	-11.6866
मिक	-11.6866
▁उपद्रव	-11.6869
▁विश्राम	-11.6869
▁धूप	-11.6869
▁जिसमे	-11.6872
▁ब्रेक	-11.6878
शे	-11.6882
▁स्वदेशी	-11.6885
▁निष्क्रियता	-11.6887
▁महज	-11.6889
▁मस	-11.6891
▁बदरूद्	-11.6892
▁अभिनेता	-11.6892
▁सरकारें	-11.6893
▁कन्	-11.6894
▁संकर	-11.6896
▁कोटि	-11.69
▁उल	-11.691
▁घूंघट	-11.6916
▁श्रवण	-11.6916
▁प्रमोद	-11.6916
▁संपादित	-11.6918
▁पारस	-11.6919
श्व	-11.6922
लाइन	-11.6923
▁प्रचुर	-11.6923
▁बुद्धिमान	-11.6923
▁चारा	-11.6924
▁बायो	-11.6926
▁बदलते	-11.6928
▁जबरदस्ती	-11.6928
▁समझती	-11.6933
लिस	-11.6938
▁तेलुगु	-11.6939
▁हेरफेर	-11.6939
▁गन्ना	-11.6941
▁अन्तः	-11.6946
ai	-11.6947
▁उत्सुक	-11.6952
▁परजीवी	-11.6952
▁चित्रों	-11.6956
▁रक्षक	-11.6962
▁अविभाजित	-11.6963
▁आकाशवाणी	-11.6963
▁औजार	-11.6963
▁अंशदान	-11.6964
▁स्वराज	-11.6964
षण	-11.6964
▁सुलझाने	-11.6975
▁खैर	-11.6977
▁निकटता	-11.6978
मुखी	-11.698
बान	-11.698
▁अमीन	-11.6983
▁सोचना	-11.6985
▁स्मार्ट	-11.6986
▁पैदल	-11.6987
▁छापे	-11.6987
▁परीक्षाओं	-11.6989
वेज	-11.699
▁साहा	-11.6992
▁वीर्य	-11.6994
दल	-11.6999
▁गयीं	-11.7001
RP	-11.7003
▁बदलें	-11.7007
▁सांसद	-11.7008
▁स्कैन	-11.7009
▁षड्यंत्र	-11.7009
▁अप्रत्याशित	-11.701
▁घर्षण	-11.701
▁डेटाबेस	-11.701
▁प्रादेशिक	-11.701
▁प्रॉपर्टी	-11.701
▁वापिस	-11.701
▁हिमनद	-11.7011
प्रति	-11.7012
▁साधु	-11.7018
▁एंव	-11.7018
▁छोड़ना	-11.7022
▁अंध	-11.7025
▁एकाधिकार	-11.7027
▁माध्य	-11.7029
तार	-11.703
▁खर	-11.703
os	-11.7032
▁कपिल	-11.7036
मूर्ति	-11.7039
▁उदर	-11.7042
▁प्रवासी	-11.7045
▁टो	-11.7047
▁फैली	-11.7047
▁पहुँचने	-11.705
▁जीप	-11.705
▁प्रबन्ध	-11.7051
▁राशन	-11.7062
▁बंधे	-11.7064
▁उमा	-11.707
▁पंथ	-11.7071
▁हरी	-11.7072
▁पक्षीय	-11.7072
क्षेत्र	-11.7076
ent	-11.7076
▁शिरा	-11.7079
▁साक्षियों	-11.7081
ायी	-11.7082
▁आर्म	-11.7083
▁बलों	-11.7086
ाद	-11.7086
▁गोर	-11.7087
ग़	-11.7087
गिरी	-11.709
्ह	-11.7091
ाड	-11.7102
▁दक्ष	-11.7104
▁पेन	-11.7105
▁अनौपचारिक	-11.7105
▁किले	-11.7105
▁वायर्स	-11.7106
▁निक्षेप	-11.7106
▁ललित	-11.7108
▁उठे	-11.711
▁पासवर्ड	-11.7111
▁बुश	-11.7116
▁वादे	-11.7117
यत	-11.7118
रित	-11.7121
▁लक्षणों	-11.7123
्यता	-11.7124
▁पोर्टल	-11.7125
II	-11.7125
▁आईए	-11.7127
▁घोड़े	-11.7129
▁जूट	-11.7133
खाना	-11.714
▁मेनन	-11.714
मणि	-11.7145
▁ग्रे	-11.7145
जान	-11.7146
▁हाइ	-11.7151
त्ति	-11.7153
▁इशारे	-11.7153
▁भयावह	-11.7153
▁नींद	-11.7154
▁युक्तियुक्त	-11.7154
▁घन	-11.7154
▁बेन	-11.7156
▁कुर्की	-11.7157
▁एकीकरण	-11.7159
▁परिपूर्ण	-11.7159
▁टायर	-11.7161
▁विगत	-11.7166
कड़	-11.7168
ga	-11.717
▁संभावनाएं	-11.7173
▁अवयवों	-11.7175
▁सूखे	-11.7175
मेन	-11.7176
▁Ltd	-11.7177
▁आस्ट्रेलिया	-11.7177
▁क्वार्टर	-11.7177
▁सोवियत	-11.7177
ah	-11.718
▁हलफनाम	-11.718
वय	-11.7183
देनदारियों	-11.7183
▁नरम	-11.7183
▁बेचे	-11.7186
▁पहना	-11.7188
एंगे	-11.719
op	-11.7194
बू	-11.7195
▁नेट	-11.7197
▁इमारतों	-11.72
▁पंजीयक	-11.7201
▁सशर्त	-11.7201
▁डंपिंग	-11.7202
▁संचरण	-11.7203
▁उदाहरणार्थ	-11.7204
▁we	-11.7206
भव	-11.721
▁स्वायत्त	-11.7216
ग्ल	-11.7216
मुक्त	-11.7219
▁ऑपरेटरों	-11.7219
वै	-11.7221
्च	-11.7221
▁फु	-11.7225
▁निःशुल्क	-11.7225
▁अर्द्ध	-11.7227
▁टैग	-11.7228
वट	-11.7228
ुला	-11.723
▁नाटकीय	-11.7234
▁समयबद्ध	-11.7235
▁लाता	-11.7247
▁WANo	-11.7247
माला	-11.7247
▁कैरियर	-11.725
▁दर्शकों	-11.7252
▁कलात्मक	-11.7252
▁नागपुर	-11.7256
▁ऋणी	-11.7257
▁एकजुट	-11.7266
डोर	-11.7268
▁धूम्रपान	-11.7274
▁स्पेशल	-11.7274
▁राणा	-11.7274
▁काउंसलिंग	-11.7276
दश	-11.729
▁वैन	-11.7294
▁कोल	-11.7295
मू	-11.7298
ाश	-11.7298
▁फायदे	-11.7298
▁अद्भुत	-11.7298
▁समेकन	-11.7298
▁सैंट्रो	-11.7298
▁भूतपूर्व	-11.7298
▁SCR	-11.7304
पुरी	-11.7307
▁पृष्ठों	-11.7307
▁सुलभ	-11.7308
▁मानों	-11.7309
▁समितियां	-11.731
▁पहचानने	-11.7311
▁लौह	-11.7313
▁बज	-11.7314
▁हॉ	-11.7315
▁नागरिकता	-11.7316
▁रिसीवर	-11.7323
▁क्रिस्टल	-11.7323
▁भैंस	-11.7323
टीएस	-11.7325
▁सदर	-11.7326
▁उत्	-11.7327
▁अब्दुल्ला	-11.7331
▁अनि	-11.7332
न्द्र	-11.7342
▁निवेशक	-11.7345
▁एलपीए	-11.7346
▁समीप	-11.7347
▁फ़ॉन्ट	-11.7347
▁उज	-11.7351
▁बिगड़	-11.7355
कोट	-11.7356
▁ज़ि	-11.7363
▁कार्यभार	-11.7366
▁अपीलें	-11.737
▁परिसीमा	-11.7372
▁अनैतिक	-11.7372
▁निभाने	-11.7388
▁कलम	-11.7392
लता	-11.7392
▁अतएव	-11.7396
▁भलाई	-11.7398
▁उद्यमी	-11.7404
▁रिस	-11.7409
आईटी	-11.7409
दायक	-11.7416
सू	-11.742
▁आंबेडकर	-11.7421
▁संसाधित	-11.7421
▁चक्कर	-11.7422
▁आवृत्ति	-11.7424
▁प्रमाणन	-11.7426
▁खुलासे	-11.7429
▁दंडादेश	-11.7429
फाइड	-11.7431
ात्म	-11.7432
▁पुरस्कारों	-11.7437
▁शिथिल	-11.7445
▁प्वाइंट	-11.7445
▁कमाने	-11.7445
▁सूअर	-11.7446
कारों	-11.7446
▁विवेकाधिकार	-11.7446
▁मध्यवर्ती	-11.7448
▁सहाय	-11.7449
▁वर्षो	-11.7453
▁रूसी	-11.7456
१क	-11.746
सक	-11.746
जात	-11.7466
▁राजपूत	-11.747
▁महाकाव्य	-11.747
▁द्वारकानाथ	-11.747
▁मांगों	-11.7473
▁ऊंट	-11.7474
▁आंखें	-11.7475
war	-11.7478
्दी	-11.7483
▁सीटी	-11.7484
शाह	-11.7484
▁फ्री	-11.7485
▁मापन	-11.749
▁रोने	-11.749
प्ट	-11.7493
टें	-11.7493
▁एमएसएमई	-11.7495
▁हेमंत	-11.7496
▁हिन्दुस्तान	-11.7496
▁मुखिया	-11.7499
▁शासी	-11.7499
▁रबर	-11.75
▁लॉक	-11.7503
▁पडा	-11.7503
▁फास्ट	-11.7504
▁लय	-11.7507
▁आयातित	-11.7519
▁Addl	-11.752
▁वाराणसी	-11.752
▁क्षतिग्रस्त	-11.7521
▁विनाशकारी	-11.7521
▁नीला	-11.7523
▁रोटी	-11.7523
▁जूते	-11.7525
▁पर्यटक	-11.7526
नल	-11.7527
▁मास्टर्स	-11.753
▁सरलता	-11.7531
▁जगहों	-11.7531
▁फलों	-11.7531
▁लहर	-11.7538
▁लिपिक	-11.7539
▁लल	-11.754
्ख	-11.7541
▁पागल	-11.7542
▁भद्र	-11.7543
▁डूब	-11.7543
▁अप्राकृतिक	-11.7545
▁काश्मीर	-11.7545
▁स्टाम्प	-11.7545
▁तीव्रता	-11.7545
▁जनजातीय	-11.7545
▁किनारों	-11.7545
पीएस	-11.7546
▁बीयर	-11.7546
▁अपलोड	-11.755
▁कुंज	-11.7556
ाभ	-11.7559
पथ	-11.756
▁जनक	-11.7562
धर्म	-11.7562
▁on	-11.7562
ीश	-11.7565
em	-11.7569
▁कार्यवाहियां	-11.757
▁यूनिवर्सिटी	-11.757
▁इंस्ट्रूमेंट	-11.757
▁चुपचाप	-11.757
▁परिचालित	-11.757
▁ट्रैक्टर	-11.757
▁भाभी	-11.757
बाद	-11.757
▁कुंद	-11.7571
▁लक्षित	-11.7571
▁वेग	-11.7572
▁पौ	-11.7573
▁सावधि	-11.7574
▁बुलाई	-11.7575
▁नोडल	-11.7576
▁कार्यकर्ताओं	-11.7583
▁प्रेमी	-11.7585
नन	-11.7585
▁चंद्रा	-11.7587
उन	-11.7594
▁सिक्किम	-11.7595
▁यथासंभव	-11.7595
▁सहकारिता	-11.7595
▁बां	-11.761
▁क्रियाओं	-11.761
▁मोनो	-11.7613
▁फैले	-11.7616
▁पृथक्	-11.7617
▁निमंत्रण	-11.762
▁अलार्म	-11.762
▁संख़्या	-11.7623
▁चौथाई	-11.7623
और	-11.7624
▁लैंड	-11.7627
▁पदक	-11.7627
▁आलिया	-11.7628
▁बनायी	-11.7628
▁बारिश	-11.7634
IL	-11.7635
▁जंग	-11.7635
▁पंप	-11.7636
रोध	-11.7637
▁श्र	-11.7641
ट्र	-11.7642
▁वर्ल्ड	-11.7645
▁संजाल	-11.7647
ेन्ट	-11.7649
स्थापित	-11.7649
मति	-11.7655
योजन	-11.766
▁वक्र	-11.7664
ma	-11.7668
▁हमसे	-11.7668
▁उंगली	-11.767
▁एनएसईएल	-11.767
▁उत्थान	-11.767
▁डेविड	-11.767
▁मुख़्य	-11.767
▁मिलान	-11.7679
▁पहुंचाया	-11.7683
▁AP	-11.7686
ायन	-11.7693
▁खटखटा	-11.7694
▁डेयरी	-11.7696
▁संपादन	-11.7696
▁कूटशब्द	-11.7696
डेल	-11.7698
▁प्रभावों	-11.7698
▁संकेतों	-11.7701
फ्रे	-11.7702
▁चांदी	-11.7703
PA	-11.7704
▁अपार	-11.7705
▁सूखा	-11.7707
▁मेज	-11.7708
▁टाल	-11.7709
▁तोड़ने	-11.7709
▁जादू	-11.771
▁निर्मल	-11.7711
▁प्रमाणीकरण	-11.7712
ES	-11.7712
▁बालकों	-11.7718
ion	-11.7718
▁यूएस	-11.772
▁कण	-11.772
▁चाहा	-11.7721
▁त्योहार	-11.7721
▁यमुना	-11.7721
▁अंसारी	-11.7721
▁हालात	-11.7723
▁प्लानिंग	-11.7725
ायत	-11.7725
▁पांव	-11.7728
▁पाठ्य	-11.7733
SA	-11.7735
ट्री	-11.7743
▁ओएस	-11.7744
क्षेप	-11.7744
▁विलियम	-11.7744
▁समानांतर	-11.7744
▁सेंटीमीटर	-11.7747
▁प्रौद्योगिकियों	-11.7748
▁भौतिकी	-11.775
ish	-11.7753
▁बेईमान	-11.7755
लिका	-11.7761
▁अग्रसर	-11.7762
▁बजा	-11.7764
िआ	-11.7768
इट	-11.7769
▁कॉरपोरेशन	-11.7772
▁पीडीडी	-11.7772
▁टिप्पणियां	-11.7773
▁नौका	-11.7773
▁विलक्षण	-11.7773
▁सीमांत	-11.7777
▁तन	-11.7778
▁एकांत	-11.7781
▁भो	-11.7781
▁बाधाओं	-11.7784
▁धोखे	-11.7794
▁सैकड़	-11.7796
▁खुर	-11.7797
▁खतरों	-11.7798
ET	-11.7802
ap	-11.7806
▁नीतियां	-11.7807
▁परिवाद	-11.7807
▁कैट	-11.7808
▁वनों	-11.7811
▁u	-11.7815
▁संदीप	-11.7817
SR	-11.7823
▁आलोचक	-11.7823
▁मॉड्यूल	-11.7823
▁यौगिक	-11.7823
▁सम्भावना	-11.7823
▁स्टाक	-11.7824
▁CBI	-11.7824
▁ग्लोबल	-11.7824
▁परंपराओं	-11.7826
ांतर	-11.7826
▁बिलियन	-11.7826
▁उत्त	-11.783
▁सेवाएँ	-11.7833
▁आएगी	-11.7834
ंगो	-11.784
up	-11.7842
▁मानस	-11.7844
▁एरिया	-11.7845
▁बोलता	-11.7847
ील	-11.7848
▁गर्भावस्था	-11.7849
▁तयशुदा	-11.7849
▁नामकरण	-11.7849
▁ख्याल	-11.785
▁पाटिल	-11.785
▁शब्दावली	-11.7851
▁दिलाया	-11.7852
▁मोटा	-11.7856
▁अहं	-11.7858
▁विनिर्देश	-11.7863
र्ष	-11.7866
▁सीमाएं	-11.7866
▁आबंटित	-11.7875
▁नवाचार	-11.7875
▁पिछला	-11.7875
▁बिर	-11.7883
▁टिकटों	-11.7883
▁व्यवहार्य	-11.7885
▁अन्न	-11.7888
▁किराये	-11.7889
इल	-11.7895
▁अस्पतालों	-11.7897
▁पढ	-11.7899
▁कॉन्ट्रैक्ट	-11.7901
▁दरअसल	-11.7901
▁निष्पादक	-11.7901
▁सुधीर	-11.7901
▁अंतर्विष्ट	-11.7901
▁अनुकरण	-11.7903
▁अजनबी	-11.7903
▁विक्रम	-11.7907
▁सभ्य	-11.7908
▁मोती	-11.7909
▁प्रत्य	-11.7911
▁अड्डे	-11.7916
▁महाद्वीप	-11.7925
▁परिवीक्षाधीन	-11.7927
▁ड़	-11.7927
▁CW	-11.793
aya	-11.7933
▁नली	-11.7934
▁जवाबदेही	-11.7939
नामा	-11.7939
क्षित	-11.7943
ख्या	-11.7946
▁मेगावाट	-11.7952
▁मण्डल	-11.7954
▁कू	-11.7955
थु	-11.7956
बिया	-11.7961
▁रखेंगे	-11.7961
▁जता	-11.7962
शंकर	-11.7963
▁एज	-11.7968
डन	-11.7969
ीज़	-11.797
ोली	-11.7976
▁टकरा	-11.7976
▁व्यतीत	-11.7978
▁राजकीय	-11.798
ex	-11.798
▁OA	-11.7984
िप	-11.7985
▁मामा	-11.799
▁पढ़ते	-11.799
प्रा	-11.7992
▁पायी	-11.7994
च्छा	-11.8003
▁खजाने	-11.8005
▁कार्यपालक	-11.8005
▁बगैर	-11.8005
▁हरित	-11.8006
▁स्टेटमेंट	-11.8006
▁कदमों	-11.8008
▁अज्ञानता	-11.8014
▁जमाने	-11.8015
▁पद्म	-11.8015
▁ढूंढ	-11.8018
▁कमला	-11.8019
per	-11.8023
दायी	-11.8028
▁उड़ा	-11.8029
रेट	-11.8029
▁गुणक	-11.803
▁नियोजक	-11.8031
▁एप्लीकेशन	-11.8031
▁शरारत	-11.8031
▁दोहरे	-11.8031
▁लार्वा	-11.8031
▁कचरे	-11.8031
▁टेस्टेट्रिक्	-11.8031
▁हल्का	-11.8031
▁सश्रम	-11.8031
▁सौदे	-11.8032
▁प्रमुखों	-11.8032
▁जम	-11.8036
ाधिकार	-11.8041
▁वेस्ट	-11.8041
di	-11.8042
ंर	-11.8048
▁आवंट	-11.805
र्य	-11.8052
▁राधाकृष्णन	-11.8057
▁सर्वथा	-11.8058
▁पद्य	-11.806
▁SRI	-11.8063
▁बेसिक	-11.8067
▁विलंबित	-11.8068
कार्य	-11.8069
▁खाई	-11.8074
▁एआईसीटी	-11.8083
▁दू	-11.8083
▁हाजिर	-11.8083
▁खातून	-11.8083
▁भविष्यवाणी	-11.8084
▁टेबल	-11.8084
▁बुखार	-11.8085
बिन	-11.8085
▁अमूर्त	-11.8086
▁हिंद	-11.8088
▁बीबी	-11.8088
▁मोटी	-11.8088
▁कल्याणकारी	-11.8089
▁स्पेन	-11.809
▁दाहिन	-11.8099
▁घटी	-11.8105
ड्र	-11.8107
▁आर्बिट्र	-11.8109
▁सिलसिले	-11.811
▁औरंगाबाद	-11.811
▁उपरांत	-11.811
▁खोले	-11.8116
▁मापदंड	-11.8119
ba	-11.8125
▁बागान	-11.8125
▁मूलतः	-11.8126
▁वाणी	-11.8127
ुद	-11.8128
▁जहाजों	-11.8129
▁CRL	-11.8133
▁सांठगांठ	-11.8136
▁निर्वाचक	-11.8136
▁बागवानी	-11.8137
▁असहाय	-11.8137
▁खाड़ी	-11.8137
ीम	-11.8138
▁भावनात्मक	-11.8138
▁क्यूरी	-11.8139
▁एटी	-11.8144
▁चाहें	-11.8146
▁कोटे	-11.8147
▁कैश	-11.815
▁कैल	-11.8158
▁अनुष्ठान	-11.8163
▁संपार्श्विक	-11.8163
ोद	-11.8164
स्तर	-11.8168
▁हस्ताक्षरकर्ता	-11.8169
od	-11.8187
▁तू	-11.8188
▁कॉरपोरेट	-11.8189
▁समेत	-11.819
▁हास्य	-11.819
जार	-11.8191
क्रिया	-11.8192
▁टिप्पण	-11.8192
कथा	-11.8192
▁उत्परिवर्तन	-11.8193
▁अवमान	-11.8193
▁गांजा	-11.8193
▁बहाना	-11.8194
▁खुलने	-11.8196
▁नजदीक	-11.8199
▁दुखद	-11.8202
़ा	-11.8203
▁k	-11.8203
ig	-11.8204
▁पीए	-11.8205
TT	-11.8205
्चर	-11.8214
▁छुटकारा	-11.8216
▁डिपो	-11.8217
▁पदनाम	-11.8223
▁मैनेजर	-11.8224
▁नीले	-11.8225
▁निपटना	-11.8225
ूं	-11.8226
▁लगीं	-11.8237
वर्ड	-11.8242
▁भयंकर	-11.8243
▁चुंबकीय	-11.8243
▁रूल्स	-11.8244
PC	-11.8244
कुर	-11.8246
▁जयपुर	-11.8249
फोर	-11.8255
थर	-11.8256
जक	-11.8263
▁ची	-11.8268
▁सीमांकन	-11.827
▁चटर्जी	-11.827
RERA	-11.827
▁अंडमान	-11.827
▁असत्य	-11.8271
▁रंगीन	-11.8275
▁cr	-11.8277
▁दीन	-11.8278
रान	-11.8283
▁खां	-11.8285
AG	-11.829
▁ग्रिड	-11.8293
▁मनगढ़ंत	-11.8296
▁मर्यादा	-11.8296
▁नागालैंड	-11.8296
▁बाँध	-11.8297
▁ढलान	-11.8298
▁मेट्रो	-11.8298
टू	-11.83
▁क्ल	-11.83
▁अभ्यर्थ	-11.8301
▁ST	-11.8309
▁चक	-11.831
आरसी	-11.831
▁बाप	-11.8311
▁चीख	-11.8313
▁बाय	-11.8315
श्त	-11.8318
▁दागी	-11.832
▁अनुयायियों	-11.8323
▁जंतु	-11.8324
निस	-11.8324
▁खोजा	-11.8325
▁सीएस	-11.8327
्ध	-11.8328
किंग	-11.8329
ST	-11.833
▁रेंट	-11.8333
ेंड	-11.8335
ow	-11.8335
▁विश	-11.8335
र्श	-11.8336
▁छड़ी	-11.8338
▁Mr	-11.8344
▁आकांक्षा	-11.8344
म्बर	-11.8346
▁भूकंप	-11.8351
▁ज़ोन	-11.8351
्को	-11.8353
▁प्रविष्टियां	-11.8354
▁बुझा	-11.8354
गाँव	-11.8355
सेट	-11.8356
अप	-11.8358
▁देखेंगे	-11.8359
दुर	-11.8363
▁प्रभारित	-11.8367
▁सुमन	-11.8368
▁संपूर्णता	-11.8369
हिर	-11.837
ीत	-11.8376
▁कैंटीन	-11.8378
▁करवाया	-11.838
▁क्षय	-11.8381
ग्रा	-11.8381
▁मंदी	-11.8382
▁महानगर	-11.8383
▁तटीय	-11.8386
▁Sun	-11.8389
पूर	-11.8389
▁सदमे	-11.8393
▁पीड़क	-11.8395
▁गम्भीर	-11.8397
दाय	-11.8399
ss	-11.8401
ana	-11.8404
▁पूर्वजों	-11.8405
▁village	-11.8405
▁वाजपेयी	-11.8405
▁मुंसिफ	-11.8405
▁नाजुक	-11.8405
▁इंश्योरेंस	-11.8405
▁सीरियल	-11.8407
▁बहू	-11.8407
▁बीघा	-11.8408
ut	-11.8408
▁भ्र	-11.8408
ers	-11.8414
▁कैसा	-11.8414
आइ	-11.8416
▁कुर	-11.8416
ाओं	-11.8419
▁जस	-11.842
२क	-11.8425
▁केशव	-11.8426
▁व्यापकता	-11.8427
▁रोशन	-11.8427
▁व्यक़्ति	-11.8427
▁पत्थरों	-11.843
▁रूट	-11.843
▁अनुमानों	-11.8431
▁गिल	-11.8431
▁पूँजी	-11.8432
▁कॉम्प्लेक्स	-11.8432
▁हिम्मत	-11.8432
▁जल्दबाजी	-11.8432
▁विकेट	-11.8432
▁आपत्तिजनक	-11.8435
▁छंद	-11.8436
▁आधुनिकीकरण	-11.8438
▁अस्वीकार्य	-11.8439
▁स्त्रोत	-11.8443
विद्	-11.8448
▁बाण	-11.845
▁घोल	-11.845
सके	-11.8451
▁छू	-11.8453
▁स्पष्टता	-11.8453
▁अहम	-11.8454
▁नाट्य	-11.8455
EL	-11.8456
▁असीम	-11.8459
▁पीएम	-11.8459
▁मदुरै	-11.8459
▁मुनाफे	-11.8459
▁लैंगिक	-11.8459
▁विज्ञापित	-11.8459
रल	-11.8459
▁चालीस	-11.846
▁खादी	-11.846
निष्ठ	-11.8462
धारा	-11.8463
▁फंसा	-11.8466
▁दिखने	-11.8466
▁Nagar	-11.8466
▁थक	-11.8477
▁सिखा	-11.8478
फ़र	-11.8482
HA	-11.8483
▁ae	-11.8483
▁बंगला	-11.8485
▁लगाव	-11.8486
▁धैर्य	-11.8487
▁नियन्त्रण	-11.8487
▁संवितरण	-11.8487
▁चिन्ता	-11.8487
▁पुनर्जीवि	-11.8487
▁झुकाव	-11.8488
▁निकटतम	-11.8489
▁क्लॉज़	-11.8493
▁द्वितीयक	-11.8494
aa	-11.8496
▁मक्का	-11.85
बरी	-11.8502
टिया	-11.8506
▁गाल	-11.8513
▁मेट्रोपॉलि	-11.8514
kh	-11.8515
लित	-11.8515
▁मणी	-11.8516
▁संरचनात्मक	-11.8516
स्टी	-11.8519
▁आव	-11.8521
ीला	-11.8525
▁वर्षीय	-11.8527
▁रूक	-11.8527
▁सिंध	-11.8528
▁उत्पादकों	-11.8533
▁जोड	-11.8534
कॉन	-11.8535
▁मेधावी	-11.8542
हान	-11.8542
▁Shri	-11.8546
वस	-11.855
▁सुनीता	-11.8562
me	-11.8568
▁खाद्यान्न	-11.8569
▁नायडू	-11.8569
▁समुच्चय	-11.8569
▁सॉलिसिटर	-11.8569
▁रोस्टर	-11.857
▁दुर्भाग्यपूर्ण	-11.8572
▁टिका	-11.8572
▁जांचा	-11.8575
▁अनूप	-11.8577
▁शक्तियाँ	-11.8582
▁घुटने	-11.8584
▁हरीश	-11.8584
▁चचेर	-11.8586
्ना	-11.8588
SH	-11.8588
▁ग्रा	-11.859
ac	-11.8591
▁भतीज	-11.8591
▁वृ	-11.8593
▁www	-11.8597
▁अभयारण्य	-11.8597
▁कच्चा	-11.8597
▁काशी	-11.8598
▁पावती	-11.8599
▁सऋ	-11.86
▁उभार	-11.8604
▁झेल	-11.8605
▁घटाकर	-11.8607
▁सबक	-11.8607
▁जीतने	-11.8611
▁वृक्क	-11.8612
ग्रह	-11.8614
ोला	-11.8614
▁विकल्पों	-11.8621
टिव	-11.8621
▁वेल	-11.8623
▁भूषण	-11.8624
▁पासवान	-11.8624
▁ज्वर	-11.8624
▁निकोबार	-11.8625
▁स्केच	-11.8625
▁कस्टम	-11.8625
EC	-11.8626
वारी	-11.8627
▁आँखें	-11.8629
▁घेरे	-11.8629
▁ताला	-11.863
▁बनारस	-11.863
काय	-11.8633
▁कमजोरी	-11.8634
▁बहने	-11.8636
▁ग्रंथों	-11.8638
▁बैठकर	-11.864
स्थल	-11.8642
▁फिल	-11.8643
▁निकलते	-11.8645
▁अखबारों	-11.8647
▁बनाएँ	-11.865
खे	-11.8651
▁गाँधी	-11.8651
▁सर्जरी	-11.8653
▁स्नायु	-11.8653
▁इकाइयां	-11.8653
▁मूर्त	-11.8653
▁गवर्नमेंट	-11.8653
▁Sa	-11.8653
▁ऑर	-11.8654
▁यूएसए	-11.8654
▁दखल	-11.8655
थम	-11.8663
▁फ्र	-11.867
▁पहुंचना	-11.8672
स्तरीय	-11.8673
▁ट्रांस	-11.8674
▁सुखद	-11.8677
▁LW	-11.8678
▁लख	-11.8678
▁बोलना	-11.8679
राज्य	-11.868
▁खुराक	-11.8681
▁आवश्यकताएं	-11.8683
स्तान	-11.8683
टेज	-11.8686
▁मैरी	-11.8687
▁डीलरों	-11.8688
▁पं	-11.8689
मक	-11.8689
▁खींचने	-11.8691
▁क्वा	-11.8692
▁छठे	-11.8693
▁एमवी	-11.8694
▁वकीलों	-11.8695
ीना	-11.8697
धारियों	-11.8697
▁कारित	-11.8697
▁बराबरी	-11.8699
▁घिरा	-11.8699
▁सिक	-11.8703
▁धनी	-11.8706
▁Panchayat	-11.8709
▁बैटरी	-11.8709
टिक	-11.871
▁दिखायी	-11.8711
▁मलयालम	-11.8712
▁रिज	-11.8712
▁स्टेज	-11.8717
▁बाघ	-11.8723
▁सने	-11.8727
▁लाइनों	-11.8734
▁रुकावट	-11.8737
▁प्रारम्भिक	-11.8741
▁सदियों	-11.8741
▁कबूल	-11.8744
BA	-11.8745
▁as	-11.8748
प्स	-11.8748
हारी	-11.8749
वर्षीय	-11.875
mi	-11.8754
दम	-11.8754
▁पूल	-11.8755
▁पड़ते	-11.8758
▁रिपोर्टिंग	-11.8761
▁उत्तेजना	-11.8765
▁संक्रमित	-11.8765
▁असिस्टेंट	-11.8765
▁अंतःस्थापित	-11.8765
हि	-11.8766
▁बसंत	-11.8768
नार	-11.8768
▁OS	-11.8769
▁मनु	-11.877
▁At	-11.8772
▁सर्विसेज	-11.8774
▁कक्षाओं	-11.8777
▁बर्	-11.8779
▁अनाम	-11.8781
▁लागतों	-11.8783
▁इनाम	-11.8784
▁सेनाओं	-11.8786
▁निजाम	-11.8794
वेद	-11.8794
इश	-11.8796
▁डकैती	-11.8799
▁त्रिपुरा	-11.88
▁एजीए	-11.88
म्य	-11.8801
▁भ्रमण	-11.8803
▁ब्रह्मा	-11.8804
▁रामकृष्ण	-11.8807
तिक	-11.881
▁सिंधी	-11.8811
ोज	-11.8811
▁भोज	-11.8812
▁चिप	-11.8812
ंटा	-11.8815
ne	-11.8817
▁प्रोफाइल	-11.8819
▁लम्बा	-11.882
▁असंतोष	-11.8821
▁Google	-11.8821
▁गुमराह	-11.8821
▁मंत्रिपरिषद	-11.8821
▁राजदूत	-11.8822
न्या	-11.8822
▁अनिश्चितता	-11.8826
EE	-11.8828
▁चलेगा	-11.8828
▁भूत	-11.8831
वाना	-11.8832
ल्प	-11.8832
▁गुलाब	-11.8833
सीबी	-11.8835
▁पंचायती	-11.8838
▁करण	-11.8839
▁छि	-11.8841
▁संज्ञा	-11.8843
थल	-11.8847
▁रंगों	-11.8847
▁पीके	-11.8848
man	-11.8848
▁प्रतिज्ञा	-11.8849
▁हड्डियों	-11.885
▁परिपथ	-11.885
▁फरमान	-11.885
ाती	-11.8851
मनी	-11.8853
▁मेनू	-11.8855
▁फ़िर	-11.8858
देवी	-11.886
▁दीक्षित	-11.8863
▁अरे	-11.8868
़ी	-11.8869
ोड़	-11.887
िणी	-11.8871
▁छिद्र	-11.8873
▁परिष्कृत	-11.8878
▁फॉरेंसिक	-11.8878
▁अरुणाचल	-11.8878
▁शौचालय	-11.8878
▁ऑक्सीजन	-11.8878
▁मृदा	-11.8878
▁बोनस	-11.8879
▁देवेंद्र	-11.888
▁ज़ोर	-11.888
क्क	-11.888
दर्शन	-11.8885
कै	-11.8885
▁अपमानित	-11.8887
▁घो	-11.8887
ादि	-11.8892
एलआर	-11.8893
▁कार्यशाला	-11.8896
▁विद्वत	-11.8897
▁पीले	-11.8898
▁तेज़	-11.8902
▁मनाने	-11.8903
▁भेड़	-11.8904
▁एकमुश्त	-11.8907
▁लॉन्च	-11.8907
▁शारदा	-11.8908
▁चाबी	-11.8908
▁पाएंगे	-11.891
▁वैसी	-11.8911
▁पड़ोसियों	-11.8914
▁साइ	-11.8917
▁दायी	-11.8917
▁स्टै	-11.8918
▁इस्लामिक	-11.8919
▁लोकल	-11.8919
ोत	-11.892
▁स्ल	-11.892
▁GA	-11.8921
▁ट्रांसपोर्ट	-11.8923
ावली	-11.8926
▁बैठी	-11.893
MA	-11.8934
ाचार्य	-11.8935
▁प्रवर्तक	-11.8935
▁थलग	-11.8936
▁अंकुश	-11.8936
▁दाईं	-11.8936
▁आत्मसात	-11.8936
▁पुण्य	-11.8936
▁न्यायपीठ	-11.8938
▁गोस्वामी	-11.8938
▁फारसी	-11.8942
▁महाजन	-11.8944
्टा	-11.8948
▁फैलाव	-11.8948
▁कोट	-11.8952
▁एन्	-11.8956
ज्ह	-11.8957
▁पत	-11.8959
▁वसीयतनामा	-11.8965
▁नवाब	-11.8965
▁तारों	-11.8971
▁for	-11.8978
▁परिपक्वता	-11.898
िक्स	-11.8985
▁नार	-11.8985
विहीन	-11.8987
्श	-11.899
▁कच्छ	-11.8991
▁ताजमहल	-11.8993
▁महासचिव	-11.8993
▁प्रीत	-11.8993
▁उद्घोषणा	-11.8993
▁समाविष्ट	-11.8993
सूत्र	-11.8993
▁उकसाने	-11.8996
▁अंधेर	-11.8997
▁हफ्ते	-11.8998
▁वृत्त	-11.8998
कोर	-11.9
GE	-11.9001
▁गि	-11.9002
ंदर	-11.9007
ाइज	-11.9007
▁नाच	-11.901
त्तर	-11.9012
▁निर्धन	-11.9015
वर्ग	-11.9018
य्या	-11.9019
▁पाउडर	-11.9022
▁अभिषेक	-11.9022
ज्ञान	-11.9024
थन	-11.9024
▁एट	-11.9027
▁गाने	-11.9028
▁जनन	-11.9029
▁आं	-11.903
चारी	-11.9031
िकता	-11.9031
▁पहुंचता	-11.9034
▁हर्ड	-11.9036
▁उठने	-11.9038
▁साफ़	-11.904
▁इन्द्रिय	-11.9041
▁नाराज	-11.9041
▁सजीव	-11.9044
▁भीतरी	-11.9045
▁सतत्	-11.9046
कीय	-11.9047
▁लिखें	-11.9047
ेला	-11.9049
▁तीर	-11.9049
▁आतंकवादियों	-11.9051
▁शम	-11.9051
▁घसीट	-11.9051
्ष	-11.9054
▁बहनों	-11.9056
▁किताबें	-11.9056
हारा	-11.9061
जाल	-11.9064
▁नशे	-11.9065
वली	-11.9066
to	-11.9067
ड़ियों	-11.9073
एससी	-11.9074
ary	-11.9075
ंजी	-11.9076
tr	-11.9079
▁पच्चीस	-11.908
▁फर्स्ट	-11.908
▁नौसेना	-11.908
राष्ट्रीय	-11.9081
▁सहारे	-11.9081
तू	-11.9087
PNo	-11.9091
▁बनाएं	-11.9092
▁किला	-11.9094
▁तकनीकों	-11.9094
▁जमीनी	-11.9095
▁विसंगतिया	-11.9096
▁रिवाज	-11.9096
▁जांचने	-11.9099
▁मंत्र	-11.9103
▁मेला	-11.9104
स्टोन	-11.9105
शाली	-11.9106
अली	-11.9107
▁उपराष्ट्रपति	-11.9109
▁सउदी	-11.9109
▁विस्थापित	-11.911
▁चै	-11.911
▁निबंध	-11.9111
▁उन्मुख	-11.9113
▁शै	-11.9114
किया	-11.9123
▁ग्रंथि	-11.9124
▁राख	-11.9126
▁प्रतिमान	-11.9126
▁खिला	-11.9129
▁जापानी	-11.9131
▁संकेतक	-11.9133
▁भयभीत	-11.9138
▁शृंखला	-11.9138
▁मार्शल	-11.9138
ण्ट	-11.9139
▁विलम्ब	-11.9141
गि	-11.9142
्ली	-11.915
▁इर	-11.9151
▁पंकज	-11.9154
▁प्ले	-11.9166
▁जवाहर	-11.9167
ub	-11.9167
▁वाष्प	-11.9168
▁खानों	-11.9171
ाउ	-11.9171
▁Dr	-11.9172
▁ऑर्स	-11.9173
सागर	-11.9176
ाही	-11.9179
CC	-11.9184
▁आरएस	-11.9185
▁गाली	-11.9191
▁आह	-11.9195
▁मुम्बई	-11.9197
▁शिफ्ट	-11.9197
▁एकरूपता	-11.9198
▁बसा	-11.9198
▁मुद्रक	-11.9198
▁उल्लास	-11.9198
▁मिस्टर	-11.9198
▁पत्तन	-11.9201
▁वात	-11.9203
▁शर	-11.9205
टेक	-11.9205
▁मंग	-11.9209
ग्रे	-11.921
▁सेक्स	-11.9212
कम	-11.9214
ब्	-11.9215
▁हीरा	-11.9224
▁संलिप्त	-11.9227
▁रॉयल्टी	-11.9227
▁लाते	-11.9229
▁समूचे	-11.923
▁दाएं	-11.923
आकांक्षाओं	-11.9236
▁तैर	-11.9236
कृति	-11.9247
ांकन	-11.9249
दारी	-11.9252
▁देवनागरी	-11.9256
▁डिवाइस	-11.9256
ट्रो	-11.9265
▁राजवंश	-11.9266
▁फ्लोर	-11.9272
▁GO	-11.9273
▁अभिदाय	-11.9276
नुसार	-11.9277
▁सहेजें	-11.9279
▁संसद्	-11.9283
▁तिरु	-11.9284
▁निर्दोषता	-11.9284
िज़	-11.9285
▁संप्रेषण	-11.9286
▁सरपंच	-11.9286
▁सैल	-11.9286
▁जिंदा	-11.9286
▁जघन्य	-11.9288
▁धक्का	-11.929
▁तिल	-11.9291
एमएल	-11.9294
षित	-11.9294
▁डाइ	-11.9295
▁साझीदार	-11.9299
▁फील्ड	-11.9303
▁छोड़े	-11.9303
नाई	-11.9303
ect	-11.9313
▁दशरथ	-11.9316
▁इन्होंने	-11.9316
▁रजिस्ट्रीकृत	-11.9316
ग्राही	-11.9317
चरण	-11.932
▁बट	-11.932
▁जगा	-11.932
▁नवान्वेष	-11.9321
सिंग	-11.9322
ैस	-11.9323
ध्व	-11.9324
▁An	-11.9328
▁संभाव्यता	-11.933
▁परेश	-11.9332
▁AR	-11.9334
ेक्ट	-11.9337
▁क्षेत्रक	-11.9339
ध्या	-11.934
▁एल्गोरिथ्म	-11.9346
▁सौन्दर्य	-11.9346
▁ध्येय	-11.9346
▁क्षेञ	-11.9346
चरित	-11.9346
da	-11.9347
PSC	-11.9348
▁दीजिए	-11.9348
▁छठी	-11.935
▁फिलीस्तीन	-11.9353
▁नल	-11.9355
▁ईंट	-11.9356
मूल	-11.9356
▁उभरा	-11.936
▁पक्का	-11.9362
▁प्राप्तकर्ता	-11.9364
▁अभ्यर्थी	-11.9365
▁बौ	-11.9365
प्राप्त	-11.9366
फिल	-11.9367
▁संरचनाओं	-11.937
▁ब्रितानी	-11.9375
▁स्ट्रिंग	-11.9376
टेल	-11.9381
▁घटिया	-11.9386
▁रची	-11.9387
▁लगाये	-11.9389
यंत्र	-11.9389
ld	-11.9391
▁मेले	-11.9393
वद	-11.9396
▁विनम्रता	-11.9398
▁कृमि	-11.9399
▁अध्य	-11.9399
रिंग	-11.9402
▁अंतत	-11.9402
▁उपासना	-11.9406
▁शुक्राणु	-11.9406
▁ग़	-11.9406
ित्र	-11.9406
▁क्लिनिक	-11.9406
▁फीसदी	-11.9407
▁पीढ़िय	-11.9409
▁नायर	-11.941
्फ	-11.9411
▁पंक्तियों	-11.9412
▁बदलती	-11.9426
गुण	-11.9428
आँ	-11.9428
▁मातृ	-11.9432
▁स्म	-11.9432
▁प्रत्युत्तर	-11.9436
▁एमबीबीएस	-11.9436
▁अदायगी	-11.9436
▁डेबिट	-11.9436
▁समतल	-11.9436
▁प्राचार्य	-11.9437
पाई	-11.9437
▁बापू	-11.9437
▁आसन्न	-11.9438
▁रिव्यू	-11.9438
▁आश	-11.9441
▁कड़े	-11.9443
▁नीम	-11.9443
स्म	-11.9444
▁खनिजों	-11.9445
▁MR	-11.9445
वो	-11.9447
▁रिवाजों	-11.9451
िना	-11.9456
▁जीडी	-11.9456
▁मीरा	-11.9464
▁संघों	-11.9465
▁कलंक	-11.9465
▁निपटाए	-11.9468
▁पक्षपातपूर्ण	-11.947
▁रं	-11.9472
▁घटनाक्रम	-11.9473
▁अंड	-11.9473
▁चौड़ा	-11.9474
▁ट्रे	-11.9482
DE	-11.9486
▁दर्जे	-11.9489
▁अनजान	-11.9489
▁कृ	-11.9489
▁गल	-11.9492
▁लू	-11.9493
▁संस्थापन	-11.9496
▁वाशिंगटन	-11.9496
▁रिक्शा	-11.9496
▁कॉफी	-11.9496
▁बहनोई	-11.9496
▁बैठकें	-11.9497
▁कुर्सी	-11.9497
▁कार्यप्रणाली	-11.9497
▁अयस्क	-11.9499
▁विश्लेषक	-11.95
▁तत्सम	-11.95
िच	-11.9503
थि	-11.9504
▁पौधा	-11.9505
▁मोहित	-11.9506
ैर	-11.9506
▁गुम	-11.9508
▁खुदाई	-11.9509
▁भ्रमित	-11.9509
दू	-11.9514
▁निकली	-11.9514
CR	-11.9515
▁बढा	-11.9516
एक्स	-11.952
▁मंडली	-11.9523
▁परिसंपत्ति	-11.9524
▁निबंधन	-11.9524
▁रमन	-11.9525
▁समग्रता	-11.9526
▁अनुयायी	-11.9527
▁जर्नल	-11.9527
▁सुपुर्दगी	-11.9527
चना	-11.9532
▁उदासीनता	-11.9533
and	-11.9535
पीआर	-11.9538
▁पाद	-11.9542
▁बद	-11.9543
रेन	-11.9545
▁वर्	-11.9548
▁चिंताओं	-11.9552
लेखन	-11.9552
▁कॉमन	-11.9554
▁वीरेंद्र	-11.9558
▁डबल	-11.9563
र्च	-11.9567
शंस	-11.9574
दर्श	-11.9576
▁कलाकारों	-11.9578
▁जौ	-11.9582
▁द्वीपों	-11.9585
▁प्रव	-11.9586
▁लीजिए	-11.9589
मैं	-11.9591
▁पर्वतीय	-11.9593
▁रावण	-11.9594
भार	-11.9596
▁विधिज्ञ	-11.9598
▁फलक	-11.9601
ाए	-11.9604
ue	-11.9605
वॉ	-11.9609
धिक	-11.961
▁सम्बन्धों	-11.961
▁यूके	-11.9613
पीठ	-11.9614
्ब	-11.9616
पारा	-11.9617
▁सौहार्द	-11.9617
▁SARFAES	-11.9618
▁कंटेनर	-11.9618
▁कित्तूर	-11.9618
▁वसंत	-11.9619
▁राजेन्द्र	-11.962
▁बंधु	-11.962
▁शपथपत्र	-11.962
▁ज़रूरी	-11.9624
▁ईएसआई	-11.9627
▁दीप	-11.9628
▁पिट	-11.9633
ct	-11.9635
आईएल	-11.9636
▁इकट्ठ	-11.9638
ेषण	-11.9641
०ख	-11.9646
क्ल	-11.9649
▁म्यूटेशन	-11.9649
▁माणिक	-11.9649
▁जनगणना	-11.9649
▁संक्रामक	-11.965
▁गान	-11.965
▁CAV	-11.965
▁निवल	-11.9652
▁शेखर	-11.9654
hat	-11.9656
▁शत्रुता	-11.9657
▁घु	-11.9659
मेर	-11.9664
कुश	-11.9667
▁उपयोगकर्ताओं	-11.9675
TC	-11.9676
यह	-11.9678
▁समतुल्य	-11.968
▁चादर	-11.968
▁घंटा	-11.968
▁वीआरएस	-11.9681
▁प्रतिनिधिमंडल	-11.9681
▁चक्रवर्ती	-11.9681
▁स्थावर	-11.9682
SE	-11.9682
▁ममता	-11.9685
▁नोड्स	-11.9685
▁हममें	-11.9686
▁तप	-11.9695
de	-11.9696
’’	-11.9697
▁रियासत	-11.9698
चित्र	-11.9699
▁प्रामाणिक	-11.9699
▁लटका	-11.9703
▁सुंदरता	-11.9705
▁शंका	-11.9709
▁प्रोफार्मा	-11.9711
▁वास्तुकला	-11.9711
▁आईसीटी	-11.9711
▁अभिलिखित	-11.9712
▁ऊँचाई	-11.9712
▁पत्तियों	-11.9713
ोसिस	-11.9714
▁आहरण	-11.9714
▁सोनू	-11.9715
▁परंतुक	-11.9715
▁ईरानी	-11.9724
ni	-11.9728
्लू	-11.973
▁लेगी	-11.9733
▁खेलों	-11.9737
▁रिएक्टर	-11.9742
▁सर्किल	-11.9742
▁रिसर्च	-11.9742
▁सविता	-11.9742
▁खोली	-11.9744
▁Page	-11.9744
▁जायगा	-11.9745
योग्य	-11.9747
▁हौ	-11.9748
▁दोहराते	-11.9748
▁दोहरी	-11.9751
▁मन्त्र	-11.9755
बेल	-11.9755
▁प्ररूप	-11.9757
▁ठंडा	-11.9761
▁राष्ट्रीयता	-11.9763
▁दाता	-11.9764
▁अशुद्ध	-11.9765
▁गिरि	-11.9767
▁भरना	-11.9768
रार	-11.9768
▁सत्	-11.9771
▁शाश्वत	-11.9773
▁जुल	-11.9774
▁ब्राउज़र	-11.9776
▁स्थानापन्न	-11.9776
▁स्टेशनों	-11.9777
▁नम	-11.9778
▁उच	-11.9778
सम्मत	-11.9779
▁श्रीकृष्ण	-11.978
बरा	-11.9787
▁जीवनकाल	-11.9788
▁स्त	-11.9788
▁नूर	-11.9791
ंडर	-11.9792
▁औषध	-11.9793
जीवी	-11.9796
▁जंगलों	-11.9797
कोण	-11.98
AI	-11.98
▁द्विवेदी	-11.9804
▁नोएडा	-11.9804
▁न्यूयार्क	-11.9804
▁भगवती	-11.9804
▁मल्टी	-11.9805
▁पीट	-11.9805
त्री	-11.9807
सीएस	-11.9807
▁सशक्तीकरण	-11.9807
▁नतीजे	-11.981
▁शोधन	-11.9813
▁एबी	-11.9818
ॉट	-11.9819
▁उठी	-11.982
va	-11.9821
▁बहुधा	-11.9822
▁बू	-11.9822
▁व्रत	-11.9824
ind	-11.9825
▁सद्भाव	-11.9826
▁साइड	-11.9831
ge	-11.9833
वृत	-11.9834
▁तूफान	-11.9836
▁घुमावदार	-11.9836
र्ब	-11.9837
▁क़्या	-11.9837
kar	-11.9838
▁आस्तियां	-11.9838
▁गाइड	-11.9838
▁मप्र	-11.984
नयन	-11.9841
▁बलि	-11.9844
▁साओ	-11.9848
▁ड्र	-11.985
कली	-11.9852
ेज़	-11.9858
▁संभाला	-11.9859
▁एमए	-11.9864
▁फर्नीचर	-11.9867
▁चंपारण	-11.9867
▁एग्रीमेंट	-11.9867
▁सम्मुख	-11.9868
▁क्रियान्वित	-11.9869
▁खिल	-11.9871
गृहीत	-11.9872
▁पत्रक	-11.9873
▁इलेक्ट्रॉनिक्स	-11.9876
ढा	-11.9877
▁महिमा	-11.9879
▁द्रव्य	-11.988
▁ढक	-11.9896
▁जालसाजी	-11.9899
▁पुरोहित	-11.9899
▁लाभान्वित	-11.9899
▁गौ	-11.9902
▁कंस	-11.9903
▁AB	-11.9903
▁मुर	-11.9903
▁भली	-11.9904
fe	-11.9905
ओआई	-11.9906
▁एए	-11.9907
▁जमाव	-11.9909
▁रखाव	-11.9909
▁पहाड़ियों	-11.9909
RE	-11.9911
▁दलाल	-11.9915
▁गुलाबी	-11.9918
वाया	-11.9921
▁अँ	-11.9923
▁de	-11.9925
▁अनुभवी	-11.9926
▁खूबसूरत	-11.993
▁बिलासपुर	-11.993
सरी	-11.9931
▁थैली	-11.9931
▁मोचन	-11.9931
▁एनओसी	-11.9931
▁आठवीं	-11.9932
▁सूर	-11.9932
▁सवारी	-11.9933
हरी	-11.9933
रेखा	-11.9934
दाताओं	-11.9937
ेश्वरी	-11.994
▁उद्देश्यपूर्ण	-11.9945
▁दुकानें	-11.9946
▁एमआर	-11.9947
▁व्याख्याताओं	-11.9952
टिस	-11.9954
▁कीटनाशकों	-11.9954
क्टर	-11.9954
▁Cri	-11.9958
▁इकबाल	-11.9961
फिन	-11.9961
▁मथुरा	-11.9962
▁व्हिप	-11.9962
▁संकलित	-11.9962
▁ख्याति	-11.9962
▁बॉडी	-11.9963
▁अंतरात्मा	-11.9963
▁पत्ते	-11.9964
▁महत्त	-11.9964
▁दिखाएगा	-11.9965
ीं	-11.9966
्सा	-11.9968
▁मानद	-11.9969
▁मुंडा	-11.9969
त्रा	-11.9971
ath	-11.9973
▁भरण	-11.9978
▁अनुबंधित	-11.9979
▁बेर	-11.9984
▁संस	-11.9989
▁एडी	-11.9992
▁रवींद्र	-11.9992
▁लाभप्रद	-11.9993
▁दुराचार	-11.9994
▁प्रॉक्सी	-11.9994
▁अधिभोग	-11.9994
▁अंचल	-11.9994
▁अंतर्विरोध	-11.9995
▁बं	-11.9996
▁औषधीय	-11.9996
▁पच	-11.9997
▁तस्करी	-11.9997
▁सपने	-11.9998
▁घुटन	-12
▁इनको	-12.0005
▁क्रि	-12.0005
गमन	-12.0005
गीर	-12.0005
▁तर्कहीन	-12.0006
▁NI	-12.0007
▁दुश्मन	-12.0009
abad	-12.0009
रंग	-12.0017
▁बिता	-12.0018
ंए	-12.0019
▁उदारता	-12.0021
▁धरोहर	-12.0026
▁मारुति	-12.0026
▁फैक्ट्री	-12.0026
▁शक़्ति	-12.0026
कोड	-12.0027
▁आरेख	-12.0028
▁सॉ	-12.003
▁उषा	-12.003
▁सपना	-12.0032
▁पतली	-12.0033
▁कार्यक्षेत्र	-12.0034
▁बाड़	-12.0035
▁इन्द्र	-12.0039
▁कलाम	-12.0044
इंग	-12.0045
▁अस्त	-12.0047
▁दराज	-12.0053
ात्मा	-12.0057
▁मुवक्किल	-12.0058
▁अत्यावश्यक	-12.0058
▁परित्याग	-12.0058
▁वेदों	-12.0069
▁नम्बर	-12.0072
▁कुचल	-12.0072
▁पतला	-12.0072
▁समझदारी	-12.0074
▁जोन	-12.0075
हरण	-12.0076
▁सहेज	-12.0078
▁विमानक्षेत्र	-12.009
▁समाजवाद	-12.0091
▁आन्तरिक	-12.0091
▁भूमिगत	-12.0091
▁दलित	-12.0094
▁गुड	-12.0095
▁रसीदें	-12.0099
▁नोक	-12.01
ावस्था	-12.01
कोश	-12.0102
▁लिस	-12.0104
▁अक्षरों	-12.0104
▁साधक	-12.0106
▁आभास	-12.0107
▁रहमान	-12.0112
DI	-12.0112
▁मित्रा	-12.0113
▁पूर्वक	-12.0114
ंतर	-12.0114
वर्धित	-12.012
TE	-12.012
▁कैपिटल	-12.0122
▁पौराणिक	-12.0122
▁ग्रीवा	-12.0122
▁इटली	-12.0122
▁अय्यर	-12.0125
▁उत्तरवर्ती	-12.013
▁नर्स	-12.013
झा	-12.0131
▁प्रोग्रामिंग	-12.0132
ON	-12.0141
▁ऑपरेट	-12.0142
सीन	-12.0148
▁सुल्तान	-12.0148
सीए	-12.0149
▁एसडी	-12.0149
बिट	-12.0153
ल्ली	-12.0153
▁बंदर	-12.0154
▁बूढ़े	-12.0155
▁माथे	-12.0155
▁लपेट	-12.0155
▁सहिष्णुता	-12.0156
▁साधारणतया	-12.0156
▁मिल्स	-12.0157
▁चौड़ी	-12.0157
प्पन	-12.0158
▁लॉज	-12.016
▁क्ष	-12.016
▁भला	-12.016
वर्ण	-12.0165
▁निकलती	-12.0166
▁सीसी	-12.0169
▁छिप	-12.0175
स्की	-12.0176
III	-12.0177
▁सीने	-12.0179
▁परमेश्वर	-12.0181
▁पत्रिकाओं	-12.0181
▁टीएस	-12.0181
▁डिस्ट्रिक्ट	-12.0187
▁फेडरेशन	-12.0187
▁वियतनाम	-12.0187
▁तालमेल	-12.0187
▁माउस	-12.0187
▁विवेकानंद	-12.0188
एनएस	-12.0189
▁शान्त	-12.019
▁लव	-12.0195
▁लटक	-12.0196
▁जले	-12.0196
िंद	-12.0199
▁ड्रा	-12.0208
▁पहुंचती	-12.0211
▁राग	-12.0212
▁साज	-12.0212
ंसी	-12.0213
▁MFA	-12.0214
pa	-12.0215
निंग	-12.0217
▁बीजों	-12.0218
▁कंडक्टर	-12.022
▁आच्छादित	-12.022
▁अवशिष्ट	-12.022
▁प्राप्य	-12.022
▁कचरा	-12.022
पेर	-12.0221
▁समाचारपत्र	-12.0222
क़्त	-12.0228
▁केलिए	-12.023
▁एक्सपी	-12.0231
कुंड	-12.0233
▁कुएं	-12.0233
्लो	-12.0235
▁जबरदस्त	-12.0235
▁सर्प	-12.0239
▁खरीददार	-12.0239
▁कतार	-12.0242
▁वाचा	-12.0244
▁Sah	-12.0245
▁अस्त्र	-12.0248
▁खोद	-12.025
▁अलंकरण	-12.0252
▁संप्रतीक	-12.0252
▁श्रद्धांजलि	-12.0252
▁एनआईओएस	-12.0253
▁विश्वव्यापी	-12.0254
▁श्वास	-12.0254
▁बास	-12.0255
▁गेंदबाज	-12.026
▁आंत्र	-12.0262
वुड	-12.0262
▁रवैया	-12.0263
ैम	-12.0263
विधि	-12.0273
▁धर्मशाला	-12.0281
▁पेरिस	-12.0282
फेयर	-12.0284
▁ज्योतिर्मठ	-12.0285
▁सब्जियों	-12.0285
मुझे	-12.0285
▁नक्शे	-12.0285
▁अनुपयुक्त	-12.0285
▁उल्टी	-12.0286
▁इंक	-12.0286
▁नोकिया	-12.0286
▁जिन्ना	-12.0287
▁ओसीसी	-12.0288
सरा	-12.0291
▁बदलता	-12.0292
MP	-12.0294
▁पित्त	-12.0297
▁मुखर	-12.0298
▁नाभिक	-12.03
▁झाड़	-12.0301
▁अन्र	-12.0302
▁ढोल	-12.0302
वाड	-12.0306
▁Man	-12.031
▁रण	-12.0311
▁कर्त्तव्य	-12.0318
▁तत्संबंधी	-12.0318
▁पुनर्विलोकन	-12.0318
▁नवजात	-12.0318
▁सोशल	-12.0319
▁प्रेमचन्द	-12.0319
गति	-12.0319
▁पाट	-12.0321
▁शेल	-12.0324
▁टोकन	-12.0326
▁उत्प	-12.0327
▁सुझाए	-12.0327
▁प्रक्रियाएं	-12.033
▁मियां	-12.033
ोज़	-12.0332
IV	-12.0333
▁सेवारत	-12.0339
▁अंज	-12.0341
▁आर्	-12.0342
▁SE	-12.0343
ेक्स	-12.0345
▁तिर	-12.0346
▁उपेक्षित	-12.0351
▁चपरासी	-12.0351
▁दुबारा	-12.0351
▁सैद्धांतिक	-12.0351
▁फंसान	-12.0352
▁वीणा	-12.0353
रिट	-12.0355
ोग	-12.0356
▁कंप	-12.0357
▁पल्लव	-12.0359
हू	-12.036
▁आगम	-12.0361
▁दूत	-12.0361
स्थिति	-12.0365
▁चढ़ाव	-12.0372
▁ज्योतिष	-12.0378
▁कांच	-12.0379
▁चावला	-12.0383
▁अपार्टमेंट	-12.0384
▁प्रत्यायोजित	-12.0384
▁खुफिया	-12.0384
▁महोदय	-12.0384
▁शताब्दियों	-12.0384
▁फिटनेस	-12.0384
▁छापा	-12.0386
AA	-12.0386
▁मुस	-12.0386
▁यूनानी	-12.0391
▁रूख	-12.0391
▁लैब	-12.0393
▁सव	-12.0394
▁बारीकी	-12.0396
▁प्रकटन	-12.0401
ेप	-12.0408
▁स्तंभों	-12.0411
▁किस्त	-12.0416
▁बहिष्करण	-12.0417
▁दाँत	-12.0417
▁fa	-12.0423
▁करोड़ों	-12.0423
वर्तन	-12.0424
▁आलेख	-12.0425
▁दिखाती	-12.0432
▁स्राव	-12.0435
ेदार	-12.0435
▁चंदर	-12.0435
▁हरेक	-12.0438
▁बदली	-12.044
▁टूल	-12.044
▁SA	-12.044
▁उमेश	-12.0441
▁एजेंटों	-12.0441
▁is	-12.0445
गू	-12.0446
▁प्रेमचंद	-12.0449
▁अहसास	-12.0451
▁जवान	-12.0451
▁डाकघर	-12.0452
▁फ़ोन	-12.0452
▁नाप	-12.0454
▁बनावट	-12.0454
▁स्लम	-12.0455
ावरण	-12.0458
▁खेला	-12.046
▁प्रशस्त	-12.046
▁पक	-12.0461
▁कराते	-12.0463
▁फैलाने	-12.0466
ोगे	-12.0468
ेगी	-12.0469
▁क्रियाशील	-12.0469
डु	-12.0471
मीन	-12.0472
▁गू	-12.0475
▁उदासीन	-12.048
▁धुन	-12.048
नस	-12.048
ग्रन्थि	-12.0481
▁दार	-12.0481
▁इंग्लिश	-12.0484
▁एलपीजी	-12.0484
▁व्यंग्य	-12.0484
▁किस्मों	-12.0484
LR	-12.0486
ci	-12.0487
▁पत्निय	-12.0488
▁एनआई	-12.0489
▁अहंकार	-12.0491
▁झुका	-12.0493
▁sa	-12.0493
▁अय	-12.0494
▁चौकी	-12.0494
▁भूरे	-12.0495
▁जेन	-12.0496
▁गोल्ड	-12.0497
ियाई	-12.0498
▁पग	-12.05
▁टॉ	-12.0504
▁पर्दा	-12.0508
▁प्ला	-12.0512
▁अधिनयम	-12.0518
▁दिवंगत	-12.0518
▁वडोदरा	-12.0518
▁सुव्यवस्थित	-12.0518
▁चिन्तन	-12.0518
▁मन्दिर	-12.0518
▁अनुरुप	-12.0519
▁बढाने	-12.0523
▁बहुलता	-12.0524
▁जानकार	-12.0524
ेटर	-12.0527
▁अधो	-12.0529
दृष्टि	-12.053
▁खाट	-12.0534
कस	-12.0536
▁मेजर	-12.0542
ञ्ज	-12.0543
न्दा	-12.0543
ipur	-12.0543
लेक्स	-12.0545
नत	-12.0546
▁एजी	-12.0546
▁निः	-12.0546
sa	-12.0549
▁ड्रग	-12.055
▁एक्सट्रीम	-12.0551
▁भूगोल	-12.0552
▁अमृतसर	-12.0552
▁उपाध्याय	-12.0552
▁वक्ष	-12.0558
▁काटा	-12.0559
▁जीता	-12.0566
▁अश्व	-12.0566
▁लिखकर	-12.0568
तऋ	-12.0569
▁न्यायपूर्ण	-12.057
नाल	-12.0571
▁अथ	-12.0571
▁सुनाए	-12.0575
▁भूतल	-12.0581
▁ऑस्ट्रेलिया	-12.0583
▁ज्योतिष्पीठ	-12.0585
▁वाउचर	-12.0585
▁सर्कुलर	-12.0585
▁रिफाइनरी	-12.0585
▁साम्राज्यवाद	-12.0586
▁पंचांग	-12.0587
▁शुक्रवार	-12.0588
▁संन्यासी	-12.0595
एचएस	-12.0596
▁पार्किंग	-12.0596
ist	-12.0598
वायर	-12.0599
▁अण्ड	-12.0601
▁फंस	-12.0602
सीआई	-12.0602
▁निष्	-12.0605
SC	-12.0607
EET	-12.0608
▁वाहिका	-12.0608
▁कट्टर	-12.061
भेद	-12.0611
बाग	-12.0611
▁पिछड़ा	-12.0612
▁बंग	-12.0613
श्री	-12.0613
सामी	-12.0615
मदों	-12.0616
▁कीमती	-12.0616
▁हरिजन	-12.0618
▁अनुशंसित	-12.0619
▁फेफड़ों	-12.0619
ाट	-12.062
▁अव्यवस्था	-12.062
▁थि	-12.062
▁प्रक्षेपण	-12.0621
▁अल्लाह	-12.0624
▁अधिकथित	-12.0624
▁पैकेजिंग	-12.0627
▁उम्मीदवारी	-12.0628
▁अन्ना	-12.0628
▁चित्त	-12.0629
फाइ	-12.0633
▁फेंकने	-12.064
▁मिट	-12.064
श्न	-12.0642
▁विंग	-12.0643
▁संस्थित	-12.0643
TR	-12.0644
▁कंस्ट्रक्शन	-12.0649
ड्	-12.065
▁आत्मघाती	-12.0653
▁क्रमादेश	-12.0653
▁द्वेष	-12.0653
▁गांठ	-12.0653
▁ज्वार	-12.0654
▁दर्शित	-12.0654
▁फिरौती	-12.0655
ंदी	-12.0655
▁मार्गों	-12.0655
ोनी	-12.0656
▁कड़ा	-12.0661
▁उपयुक्तता	-12.0662
स्टिंग	-12.0663
▁साम	-12.0663
EN	-12.0663
▁धनुष	-12.0666
▁सुनते	-12.0667
▁विज्ञापनों	-12.0669
▁सोलह	-12.0669
▁एआर	-12.067
▁महि	-12.0672
▁कवरेज	-12.0673
ंबर	-12.0675
▁आसन	-12.0677
▁निकलना	-12.068
▁बॉ	-12.068
▁क्रो	-12.0681
▁टु	-12.0682
▁लिस्ट	-12.0685
▁तरफ़	-12.0687
▁त्यौहार	-12.0687
▁प्रोफ़ाइल	-12.0687
▁फोल्डर	-12.0687
▁निर्बाध	-12.0687
▁स्टैम्प	-12.0687
▁आरबीआई	-12.0688
▁महाजार	-12.0688
▁कटे	-12.0689
▁डीजल	-12.0691
▁सीलबंद	-12.0691
▁फार	-12.0692
HI	-12.0692
▁बेड	-12.0695
डम	-12.0697
ात्	-12.0699
▁हिट	-12.0699
▁बनेगा	-12.0701
राना	-12.0702
मती	-12.0704
ोचित	-12.0707
बीटी	-12.0708
▁छड़	-12.0709
▁चेतन	-12.0712
दृ	-12.0714
पेक्स	-12.0716
▁शोभा	-12.0717
▁मानवाधिकार	-12.0721
▁मित्तल	-12.0721
▁साउथ	-12.0721
▁क्योकि	-12.0722
▁डिमांड	-12.0722
▁अवरुद्ध	-12.0722
▁हुबली	-12.0722
▁मानसून	-12.0722
▁महासभा	-12.0722
▁प्रत्ये	-12.0723
▁निम्नतर	-12.0725
▁कन्या	-12.0727
ढे	-12.073
▁पका	-12.073
ेटेड	-12.0731
▁गंग	-12.0734
▁सीपी	-12.0736
▁उकसाय	-12.0736
▁कथाओं	-12.0736
▁करनेवाले	-12.0737
▁आकस्मिकता	-12.0738
▁निशा	-12.0739
▁पीला	-12.0741
जेएम	-12.0743
si	-12.0744
▁मामल	-12.0749
बाज	-12.0751
टर्स	-12.0752
▁रौ	-12.0752
ंजन	-12.0755
▁शॉर्ट	-12.0756
▁उत्तराखंड	-12.0756
▁भृंग	-12.0756
▁टेक्नोलॉजी	-12.0756
▁अंशकालिक	-12.0756
▁बंडल	-12.076
▁खुशहाली	-12.0761
▁Ac	-12.0761
▁विस्फोटक	-12.0761
▁ज़रुरत	-12.0766
▁प्ल	-12.0767
▁अठारह	-12.077
oo	-12.0773
▁त्रुटिपूर्ण	-12.0774
▁बरती	-12.0776
नीत	-12.0777
▁जिनको	-12.0781
▁बढ़िया	-12.0781
ौन	-12.0782
▁डालें	-12.0784
▁गार्डन	-12.079
▁गलतफहमी	-12.079
▁साप्ताहिक	-12.079
▁अभिनव	-12.079
▁वैद्य	-12.0791
नाइट	-12.0792
▁यकृत	-12.0793
▁असीमित	-12.0795
शल	-12.0798
वंत	-12.0798
स्टा	-12.08
▁Lal	-12.0802
▁पैदावार	-12.0805
मेह	-12.0805
▁हालिया	-12.0806
शासित	-12.0812
▁स्वत	-12.0812
▁वृक्षों	-12.0817
किल	-12.0818
िजनों	-12.0819
डेन	-12.0819
टोन	-12.082
▁डोर	-12.082
पीसीएल	-12.0824
▁प्रयोगशालाओं	-12.0824
▁स्वी	-12.0825
▁निगोशिएब	-12.0825
▁फोटोकॉपी	-12.0825
▁अनुशंसा	-12.0825
▁सेठ	-12.0825
▁लुप्त	-12.0825
▁श्रव्य	-12.0825
▁कालावधि	-12.0825
▁संपरिवर्तन	-12.0826
▁रीडिंग	-12.0826
▁स्ट्रीम	-12.0827
▁पैरामीटर	-12.0828
▁शेड	-12.0829
त्रिक	-12.0829
IM	-12.0837
स्कर	-12.0838
▁बर्बाद	-12.0843
ैप	-12.0845
लस	-12.0846
NS	-12.0847
▁संवेदनशीलता	-12.0848
▁इंजीनियरों	-12.0848
इक	-12.0853
▁डेवलपर	-12.0857
▁बांग्ला	-12.0859
▁अधूरा	-12.086
▁पप्पू	-12.086
▁रेस्पोंडेंट	-12.086
▁सांसारिक	-12.086
▁साफ्टवेयर	-12.086
▁डिफेंडेंट	-12.086
▁जरिये	-12.086
▁क्षीण	-12.086
▁वायरस	-12.086
▁मंड	-12.0862
डेंटल	-12.0862
▁चौकीदार	-12.0863
▁प्रे	-12.0865
▁फास	-12.0865
DR	-12.0869
ंडिंग	-12.0871
भाष	-12.0875
जनों	-12.0876
▁कृत	-12.0877
▁महादेव	-12.088
▁लाये	-12.0885
▁रवैय	-12.0893
▁अनुकूलन	-12.0894
▁उत्तरार्द्ध	-12.0894
▁कन्हैया	-12.0894
▁मच्छर	-12.0894
▁मैथुन	-12.0895
▁वार्तालाप	-12.0895
▁टिकी	-12.0895
▁भावों	-12.0896
▁गाथा	-12.0896
डेड	-12.0896
▁समरूप	-12.0897
▁वर्गाकार	-12.0899
ोव	-12.0899
▁साई	-12.09
▁पराग	-12.0903
▁चेर	-12.0904
▁राज्यसभा	-12.0906
▁क्व	-12.0906
▁संक्रिया	-12.0907
▁बोर्डों	-12.0907
मापी	-12.0908
Na	-12.0909
uk	-12.091
▁बेक	-12.091
ram	-12.0911
▁चित	-12.0911
▁परोक्ष	-12.0921
▁शर्म	-12.0923
युक़्त	-12.0924
▁उमर	-12.0926
टेड	-12.0927
त्स	-12.0928
▁छात्रावास	-12.0929
▁BE	-12.093
▁बुल	-12.0931
▁शीतल	-12.0931
▁समाधि	-12.0933
▁कट्टरपंथी	-12.0935
▁अजीत	-12.0935
▁सद	-12.0936
he	-12.0941
▁कार्यशील	-12.0942
▁योगेश	-12.0942
▁क्लाज	-12.0944
▁Anr	-12.0948
▁सप	-12.095
OP	-12.0954
▁घाटे	-12.0954
त्ती	-12.0956
ंटे	-12.0957
ार्थी	-12.096
▁बालू	-12.0961
▁प्रताड़	-12.0961
▁मंडम	-12.0964
▁पूर्वानुमान	-12.0965
▁बेलगाम	-12.0965
▁शिवाजी	-12.0965
▁स्वरुप	-12.0967
▁सांख्यिकीय	-12.0969
फ्ट	-12.0969
▁गणितीय	-12.097
प्रसाद	-12.0971
ang	-12.0973
▁बहती	-12.0974
▁डालती	-12.098
फोर्ड	-12.0983
▁कफ	-12.0984
▁अकेल	-12.0987
▁पुत्रों	-12.099
▁होस्ट	-12.0999
▁रोज़गार	-12.1
▁जबलपुर	-12.1
▁डीआरटी	-12.1
▁भीषण	-12.1002
▁जिया	-12.1003
PS	-12.1003
▁भर्तिय	-12.1003
▁मार्केटिंग	-12.1003
ख़्	-12.1004
द्वार	-12.1006
▁वीरता	-12.1008
▁उपवास	-12.101
▁उग	-12.101
▁बदलकर	-12.1013
ष्टि	-12.1014
▁रेव	-12.1015
▁सूख	-12.1018
▁LJ	-12.1019
▁एलए	-12.1023
श्वर	-12.1025
ॉक	-12.1031
चु	-12.1031
▁विदा	-12.1035
▁पुरस्कृत	-12.1035
▁East	-12.1035
▁महानिरीक्षक	-12.1035
▁कुत्ते	-12.1035
ंन	-12.1036
▁प्रधानाचार्य	-12.1036
▁प्रशासित	-12.1036
▁मान्यताप्राप्त	-12.1036
▁कैमरा	-12.1037
▁संख्याओं	-12.1038
▁निस्	-12.1038
▁एकान्त	-12.1039
एचआर	-12.1039
▁CA	-12.104
▁अधिकरणों	-12.1041
▁सचिन	-12.1042
▁सरमा	-12.1042
▁स्वायत्तता	-12.1046
▁पूर्णांक	-12.1051
▁रखनी	-12.1053
▁जांघ	-12.1054
▁प्रतिरूप	-12.1055
विद्या	-12.1056
ंठ	-12.1057
मोर	-12.1059
CO	-12.1061
▁सुगम	-12.1063
▁रघु	-12.1063
्यान	-12.1063
▁यानि	-12.1065
वालों	-12.1065
ुवा	-12.1067
▁अभिकर्ता	-12.107
▁वर्षगांठ	-12.1071
▁आवधिक	-12.1071
▁AT	-12.1072
▁डॉक	-12.1072
ग्री	-12.1073
ment	-12.1076
▁रामलिंग	-12.1077
रना	-12.1081
▁सीखना	-12.1082
एसएम	-12.1087
▁रियल	-12.1088
▁एसएलपी	-12.1089
▁फट	-12.1091
लक्ष्मी	-12.1095
▁जोड़ता	-12.1098
▁ठहर	-12.11
▁पर्ची	-12.1106
▁मुन्ना	-12.1107
▁एमएलसी	-12.1107
▁फ़ि	-12.1109
रात	-12.1109
च्छेद	-12.1111
ru	-12.1111
▁जुड़ने	-12.1116
▁प्रामाणिकता	-12.112
▁अधिवास	-12.1127
▁नित्य	-12.113
स्वरूप	-12.1133
▁परिणत	-12.1134
ज़े	-12.1134
▁छो	-12.1134
▁पंज	-12.1137
ie	-12.1138
▁उपनियमों	-12.114
▁घुमा	-12.114
▁आमंत्रण	-12.1142
▁इजाजत	-12.1142
▁उच्छेदन	-12.1142
▁अन्वेषक	-12.1142
▁ग्लोरिया	-12.1142
▁राक्षस	-12.1142
▁परमात्मा	-12.1142
▁शरद	-12.1144
eshwar	-12.1146
▁संभवतया	-12.1146
▁चिट	-12.1146
▁झाड़ियों	-12.1148
▁समाजों	-12.1148
▁बाज	-12.1149
म्स	-12.1154
ुष	-12.1155
▁पिच	-12.1156
ैक्स	-12.1158
क्रमण	-12.116
▁चीज़ों	-12.1162
▁लेखाकार	-12.1164
मुक	-12.1167
▁प्रलेख	-12.1172
सीपी	-12.1174
▁असंगतता	-12.1175
▁परिशि	-12.1177
▁कॉन्स्टेबल	-12.1178
▁पसन्द	-12.1178
▁चेष्टा	-12.1178
▁वरुण	-12.1178
▁रिफंड	-12.1178
▁घबरा	-12.1178
▁वायदा	-12.1178
▁दोषमुक्त	-12.1179
▁बहुसंख्यक	-12.1181
ca	-12.1181
ताल	-12.1184
▁बर्न	-12.1187
▁ईआर	-12.119
▁टोल	-12.119
दन्त	-12.1193
▁चैक	-12.1196
▁उगा	-12.1196
सभा	-12.1201
▁विरल	-12.1206
ंती	-12.1208
नायक	-12.1208
ख़ा	-12.121
▁वां	-12.1212
▁गारंटर	-12.1214
▁तीक्ष्ण	-12.1214
▁चिंटू	-12.1214
▁शिश्न	-12.1214
▁सिद्धदोष	-12.1214
▁रीढ़	-12.1214
▁कन्नड़	-12.1214
▁बढावा	-12.1215
ताएं	-12.1215
▁ह्रास	-12.1217
▁फाइनेंस	-12.1217
IR	-12.1218
▁पौध	-12.1218
▁नाइक	-12.1218
▁ऋस	-12.1221
▁ट्रैकिंग	-12.1221
नंदन	-12.1222
▁वंशज	-12.1225
▁चैनलों	-12.123
▁Th	-12.1231
▁देसी	-12.1231
▁यार्ड	-12.1233
▁एएस	-12.1236
▁रोना	-12.124
▁स्कूली	-12.1243
ुरु	-12.1243
▁साहसिक	-12.1244
▁सरोज	-12.125
▁वंशानुगत	-12.125
▁आयोजक	-12.125
▁पॉइंट	-12.125
▁कंट्राबेंड	-12.125
▁ओबीसी	-12.1251
▁विस	-12.1252
▁सिद्धार्थ	-12.1252
▁किराएदार	-12.1253
▁गारंटीकृत	-12.1253
▁नासा	-12.1253
▁अंब	-12.1256
▁अत्य	-12.1257
व्यापी	-12.1261
▁वर्स	-12.1261
हिया	-12.1261
▁उपनिवेश	-12.1261
▁प्रत्याशा	-12.1265
वृत्ति	-12.1269
म्म	-12.127
▁प्रमाणों	-12.1271
RT	-12.1276
पुष्प	-12.1276
AC	-12.1281
चन्द	-12.1282
▁अफ्रीकी	-12.1286
▁प्रतिबिम्ब	-12.1286
▁वॉयस	-12.1286
▁नामंजूर	-12.1286
▁कच्ची	-12.1286
▁सराहनीय	-12.1286
▁अपडेट	-12.1286
▁तामील	-12.1286
▁ग़लत	-12.1286
▁रोबोट	-12.1286
पट्टी	-12.1288
▁मूक	-12.1297
लाई	-12.1297
डीपी	-12.1299
ear	-12.1304
आरए	-12.1307
वरी	-12.1307
▁न्यासी	-12.1307
;	-12.131
▁देखती	-12.1313
▁अवध	-12.1314
सीओ	-12.1314
ंगर	-12.1314
▁चिक	-12.1314
▁प्रस	-12.1316
▁नियति	-12.1319
इए	-12.132
▁युगल	-12.1321
▁हस्तशिल्प	-12.1322
▁बिजनेस	-12.1322
▁मेरठ	-12.1323
▁लाकर	-12.1323
▁गायों	-12.1323
▁नर्सरी	-12.1324
▁FIR	-12.1326
ूस	-12.1328
्रो	-12.1328
▁SI	-12.1329
वाने	-12.133
▁एसबीआई	-12.1331
▁जड़ें	-12.1331
ांकित	-12.1332
▁पडता	-12.1333
▁प्रबन्धन	-12.1335
ूत	-12.1335
▁प्रविष्ट	-12.1336
▁आसमान	-12.1337
▁चंद्रमा	-12.1338
▁असेस	-12.1339
▁रोमन	-12.1341
▁भुला	-12.1343
▁मूर्ख	-12.1345
▁लखन	-12.1349
निष	-12.1351
▁विभ	-12.1352
▁प्रीति	-12.1353
▁योद्धा	-12.1359
▁सरोजिनी	-12.1359
▁जार्ज	-12.1359
▁RFA	-12.1359
▁पोषित	-12.1359
▁गिरीश	-12.136
▁विन	-12.136
▁वर्गमूल	-12.1361
▁बढ़ेगा	-12.1364
बाज़	-12.1365
▁गौरी	-12.1365
ीट	-12.1365
▁वर्क्स	-12.1368
खर	-12.137
▁हमास	-12.1371
पीसी	-12.1371
▁व्यवहार्यता	-12.1371
▁वरन	-12.1377
▁खर्चा	-12.1377
रेशन	-12.1378
▁छु	-12.1383
▁बुलाए	-12.1384
▁समझदार	-12.1389
वारा	-12.1392
टीन	-12.1395
▁प्रोत्सा	-12.1395
▁नजरबंदी	-12.1396
▁एव	-12.1397
nd	-12.1397
▁जातियां	-12.1401
▁पहनने	-12.1403
▁जलन	-12.1407
▁कविताएं	-12.1409
▁शिष्यों	-12.1412
▁अध्यापकों	-12.1414
ल्यू	-12.1419
विच	-12.1423
▁उक	-12.1425
▁सघन	-12.1429
▁चुरा	-12.143
▁अमेरिकन	-12.1432
▁खरगोश	-12.1432
▁पाश्चात्य	-12.1432
▁सुचारू	-12.1432
▁कहानियां	-12.1432
▁जागरण	-12.1433
▁बिखर	-12.1434
बुक	-12.1435
ain	-12.1437
▁समयावधि	-12.1438
▁प्रदर्शक	-12.1439
▁स्क्रीनिंग	-12.1439
ष्य	-12.1444
▁ट्रैप	-12.1444
▁झु	-12.1445
ानन्द	-12.1447
▁चुनी	-12.145
ाला	-12.145
▁पत्तों	-12.145
▁सटे	-12.1451
FC	-12.1452
▁रेफर	-12.1453
▁CC	-12.1455
▁निकास	-12.1455
▁यश	-12.1455
मंत्री	-12.1459
▁पुष्पा	-12.1463
▁ऋणदाता	-12.1464
▁चतुर	-12.1465
TP	-12.1466
▁पौष्टिक	-12.1469
▁बस्तियों	-12.1469
▁सावित्री	-12.1469
▁धमनी	-12.147
▁गिर्द	-12.147
▁छुपाया	-12.1472
▁जूरी	-12.1473
▁पुजारी	-12.1475
▁उभरत	-12.1479
्नी	-12.1481
▁कार्ट	-12.1484
▁वाटर	-12.1487
▁लौ	-12.1487
▁फ़ाइलें	-12.1487
▁विवेचन	-12.149
▁मौक	-12.1491
भोज	-12.1492
▁तत्पश्चात्	-12.1493
▁टोक	-12.1496
▁अपनाते	-12.1499
▁इम	-12.1501
▁आभूषणों	-12.1502
▁प्रॉ	-12.1504
▁पार्षद	-12.1506
▁निर्वचन	-12.1506
▁अनुज्ञेय	-12.1506
▁गतिविधियाँ	-12.1508
्ती	-12.1509
▁गोलियां	-12.1509
▁विकट	-12.1509
▁प्लग	-12.1513
▁अंकन	-12.1513
निश	-12.1513
▁छोड़ी	-12.1515
विष	-12.1516
▁ज्या	-12.1517
▁Am	-12.1522
ुट	-12.1523
▁रामेश्वर	-12.1524
ेस्ट	-12.1526
▁रीडर	-12.1531
▁मल्ल	-12.1534
▁सीलिंग	-12.1535
योंकि	-12.1539
▁ढल	-12.154
▁बुजुर्ग	-12.1543
▁त्रिवेदी	-12.1543
▁सन्दर्भ	-12.1543
▁हाथापाई	-12.1543
▁रणजीत	-12.1544
▁Ors	-12.1544
▁पुट	-12.1544
▁फैशन	-12.1544
▁जेम्स	-12.1545
▁vii	-12.1549
▁एक्सेस	-12.1551
▁टच	-12.1553
▁बरसात	-12.1553
ुल्ला	-12.1554
क्की	-12.156
▁आभासी	-12.1562
▁मैदानों	-12.1563
▁कालीन	-12.1563
▁कमरों	-12.1568
सित	-12.1569
ज्ञा	-12.1573
▁हज़ार	-12.1575
गना	-12.1578
ुए	-12.1579
रक्त	-12.158
▁डिजीटल	-12.1581
▁प्रायोगिक	-12.1581
▁वृद्धावस्था	-12.1581
▁मौलाना	-12.1581
▁मलेरिया	-12.1581
▁दांव	-12.1581
▁गुज़र	-12.1581
▁हटाकर	-12.1583
▁सूचनाएं	-12.1585
ेरिया	-12.1586
▁कोशिकाएं	-12.1586
KAR	-12.1586
▁साढ़	-12.1587
▁कर्मी	-12.1589
निर्मित	-12.1591
गाह	-12.1593
▁दुष्ट	-12.1596
▁बीजी	-12.1598
▁एसएल	-12.16
▁विज़	-12.16
फे	-12.16
▁आयातक	-12.1602
PP	-12.1609
▁साम्य	-12.1609
कार्ड	-12.161
▁टीटी	-12.161
▁तुम्हे	-12.1614
▁प्रभा	-12.1617
▁ड्राइंग	-12.1618
▁जिहाद	-12.1618
▁मोहंती	-12.1618
▁लेखांकन	-12.1619
▁उद्गम	-12.1619
ran	-12.162
▁फरसा	-12.162
▁बिक	-12.162
रोपण	-12.1622
▁इसमे	-12.1622
▁Co	-12.1623
▁मज	-12.1623
▁देहाती	-12.1629
▁महंत	-12.1629
▁कराती	-12.163
▁नंदा	-12.1633
▁अड्डा	-12.1634
▁अतिमानस	-12.1635
▁एलडी	-12.1635
▁महादेवी	-12.1637
▁बाली	-12.1639
▁डीपी	-12.1641
बैक	-12.1645
▁इंड	-12.1645
▁मिलों	-12.1648
▁निश्चितता	-12.165
सुर	-12.1654
▁अदृश्य	-12.1656
▁ड्राफ्ट्समैन	-12.1656
▁पुख्ता	-12.1656
▁फेफड़े	-12.1656
▁मैनेजमेंट	-12.1656
इड	-12.1662
दक	-12.1669
▁रिश्त	-12.167
वेन	-12.1674
▁गोप	-12.1676
▁रेट	-12.1678
▁हेल	-12.1682
▁उत	-12.1687
▁जातीय	-12.1688
▁हें	-12.1689
विर	-12.1693
▁DISTRICT	-12.1693
▁तंजावुर	-12.1693
▁नांदेड़	-12.1693
▁वैचारिक	-12.1693
▁Chrome	-12.1694
▁मेघालय	-12.1694
▁रियायती	-12.1694
▁by	-12.1694
▁एचटी	-12.1696
▁कमलेश	-12.1696
▁इन्कार	-12.1697
▁गायक	-12.1699
▁रिंग	-12.17
मोन	-12.1701
▁आएंगे	-12.1703
▁सृजनात्मक	-12.1703
कर्ण	-12.1706
▁कमान	-12.1709
▁खोलना	-12.1709
्जा	-12.171
KA	-12.171
▁धीमा	-12.1711
▁एड्स	-12.1713
▁मेजबान	-12.1714
लिप	-12.1716
▁टेली	-12.1718
ाधिकारी	-12.1725
▁San	-12.1727
▁शिशुओं	-12.1727
▁चलन	-12.1729
ध्यक्ष	-12.173
ंकि	-12.173
▁आर्क	-12.173
▁यहूदियों	-12.1731
स्ति	-12.1732
▁दुर्भाग्यवश	-12.1732
▁सडक	-12.1732
▁घुल	-12.1733
▁स्याही	-12.1734
▁कुलदीप	-12.1735
▁प्रि	-12.1738
▁इलेक्ट्रिकल	-12.1739
▁अनुराग	-12.1743
▁दाब	-12.1743
▁होश	-12.1743
ua	-12.175
ऐं	-12.1751
vi	-12.1751
▁ब्रा	-12.1754
▁प्रत्यय	-12.1757
ॉय	-12.1758
hu	-12.1759
प्रो	-12.1761
बत	-12.1764
▁सुरेन्द्र	-12.1765
▁दुहरा	-12.1766
▁पहचाने	-12.1766
TO	-12.1767
▁घी	-12.1768
वेट	-12.1768
▁आरोग्य	-12.1769
▁मुसीबत	-12.1769
▁एवोल्यूशन	-12.1769
▁राइफल	-12.1769
▁अस्वस्थ	-12.177
▁इच्छाशक्ति	-12.1771
▁पाचन	-12.1771
▁मौर्य	-12.1771
▁विराट्	-12.1771
▁सीएम	-12.1772
तिया	-12.1776
द्दा	-12.1777
हास	-12.1781
▁पारसी	-12.1783
▁अन्ध	-12.1784
▁एनआर	-12.1784
बुर	-12.1787
दित	-12.1787
बस	-12.1788
लय	-12.1789
▁जीभ	-12.1796
शब्द	-12.1797
▁मंज	-12.1797
▁परहेज	-12.1797
्टो	-12.1799
▁एसोसिएट	-12.1804
सिड	-12.1807
▁कम्युनिस्ट	-12.1808
▁डिपॉजिट	-12.1808
▁निष्कासित	-12.1808
▁पार्वती	-12.1808
▁सैंपल	-12.1808
▁LPA	-12.1808
कृ	-12.181
▁अनुकरणीय	-12.181
कल्प	-12.181
▁बाँट	-12.1811
▁बसु	-12.1814
्प	-12.1816
▁विनम्र	-12.1816
▁साय	-12.1817
▁कंकाल	-12.1817
▁’’	-12.1817
▁झुंड	-12.182
▁पीजी	-12.1821
▁दस्त	-12.1822
▁हिस्सेदार	-12.1824
▁्याय	-12.1827
▁जवाबदेह	-12.1829
▁अकाल	-12.183
चालन	-12.1831
िज्म	-12.1834
▁समेट	-12.1834
▁उपगत	-12.1835
▁सिं	-12.1836
▁टीपी	-12.1836
विंदर	-12.1837
एमएस	-12.184
्यक	-12.1841
▁मुनि	-12.1841
▁विधेयकों	-12.1841
िष्ठ	-12.1842
▁ताक	-12.1844
▁प्रत्यारोप	-12.1845
▁अद्वैत	-12.1846
▁रेस्तरां	-12.1846
▁सिपाही	-12.1846
निकेतन	-12.1846
▁पुरातन	-12.1846
▁डिस	-12.1849
▁रव	-12.1851
▁मचा	-12.1852
रियल	-12.1853
ाध	-12.1853
तन्त्र	-12.1857
▁बुकिंग	-12.1857
▁टावर	-12.1858
▁पंड	-12.1858
▁संचय	-12.1859
▁चिकन	-12.186
▁इस्लामवाद	-12.1862
▁NAME	-12.1864
▁प्रश	-12.1866
▁ऊन	-12.1868
मूलक	-12.1869
▁राष्ट्रवादी	-12.1869
▁जीवनी	-12.1871
▁न्यायाधिकरणों	-12.1873
शाल	-12.1875
नाशक	-12.1879
ुरी	-12.1881
पिंग	-12.1881
▁एनसीटी	-12.1883
CM	-12.1884
▁गाजियाबाद	-12.1884
▁थॉमस	-12.1884
▁दूतावास	-12.1884
▁पदाधिकारियों	-12.1884
▁बगीचे	-12.1884
▁एचएलई	-12.1884
▁पोशाक	-12.1884
▁डेल्टा	-12.1884
▁दूषित	-12.1884
▁अनीता	-12.1884
▁विरचित	-12.1885
▁संप्रेषित	-12.1885
▁गोरखपुर	-12.1885
▁सर्वसम्मति	-12.1885
▁Naya	-12.1886
▁वर्तनी	-12.1886
▁यूरोपियन	-12.1886
▁दूंगा	-12.1887
क्ट	-12.1888
सेंट	-12.189
▁आदिम	-12.1893
▁किस्तों	-12.19
मरी	-12.1901
▁नाश	-12.1909
ुण	-12.191
ki	-12.191
▁तेरह	-12.1917
▁निभाता	-12.1918
▁परिसीमन	-12.1923
▁भाँति	-12.1923
▁बंसल	-12.1923
▁ठरोग	-12.1923
▁दुकानदार	-12.1925
▁प्रभाकर	-12.1926
▁लाइसेंसिंग	-12.1928
▁चीज़ें	-12.1932
▁वार्ताकार	-12.1932
▁जीए	-12.1932
डीए	-12.1942
र्जन	-12.1943
भाष्	-12.1946
यस	-12.1947
▁कैप्	-12.195
▁दर्शाए	-12.1952
AK	-12.1953
▁सैर	-12.1953
▁कैस	-12.1953
ey	-12.1954
▁सता	-12.1957
सीआर	-12.196
▁पितृ	-12.196
िओ	-12.196
▁गोबर	-12.1962
▁अंबेडकर	-12.1962
▁अयोध्या	-12.1962
▁निवेदिता	-12.1962
▁कप्तान	-12.1962
▁माडल	-12.1962
▁ताज	-12.1962
▁पदच्युत	-12.1963
▁एक्सटी	-12.1963
▁अला	-12.1965
▁सीनेट	-12.1968
▁नाममात्र	-12.197
▁एलजे	-12.1971
वाज	-12.1975
▁निम	-12.1976
▁सींग	-12.1976
ोई	-12.1978
ॉक्स	-12.1978
▁पारिस्थितिकी	-12.1982
▁तकलीफ	-12.1983
▁बेरोजगार	-12.1983
▁एसओ	-12.1985
▁चिन	-12.1987
्यूल	-12.1989
▁रति	-12.199
▁कबूलनाम	-12.1992
▁Su	-12.1993
▁नोट्स	-12.1994
lo	-12.1994
▁करोड	-12.1994
AB	-12.1995
▁गुणसूत्र	-12.1997
▁करेंसी	-12.1998
School	-12.2001
▁प्रतिषेध	-12.2001
▁लेक्चरर	-12.2001
▁प्रशंसक	-12.2001
▁नक़ल	-12.2001
▁स्पीड	-12.2002
▁महंगाई	-12.2002
▁सोमनाथ	-12.2002
▁Re	-12.2002
▁गुजरा	-12.2005
लाभ	-12.2007
▁खरे	-12.2011
▁Par	-12.2011
▁करेंः	-12.2012
तलब	-12.2012
▁पाकर	-12.2013
▁me	-12.2016
▁तौल	-12.2016
▁no	-12.2019
▁बालिका	-12.2019
▁निविदाएं	-12.2021
स्राव	-12.2022
▁बरस	-12.2023
ूरी	-12.2024
▁वाम	-12.2026
ंश	-12.2027
▁पाउंड	-12.203
▁प्रकाशक	-12.2031
MC	-12.2035
डिक	-12.2035
▁वेल्स	-12.2035
वर्ष	-12.2036
CB	-12.2039
▁कद	-12.2039
▁चुनिंदा	-12.204
▁वृंदावन	-12.204
▁सम्प्रदाय	-12.204
▁धारावाहिक	-12.204
▁मुद्रास्फीति	-12.204
▁कोरम	-12.2042
▁टॉम	-12.2042
▁छपाई	-12.2042
▁उद्यमिता	-12.2042
▁एओआर	-12.2044
इफ	-12.2046
एसए	-12.2047
▁मारी	-12.2048
आपातकालीन	-12.2048
▁aa	-12.2049
▁00,000	-12.2049
▁उलझा	-12.2051
VI	-12.2054
वर्धक	-12.2055
यं	-12.2055
यता	-12.2063
▁कौम	-12.2064
CE	-12.2065
▁दरार	-12.2065
थ्र	-12.2068
▁सक्रियता	-12.2068
▁सम्प	-12.2069
▁मारना	-12.2071
▁मार्	-12.2074
▁अभूतपूर्व	-12.2079
▁दरकिनार	-12.2079
▁शिष्टमंडल	-12.2079
▁सक्सेना	-12.2079
▁घनत्व	-12.2079
▁विश्वयुद्ध	-12.208
▁सब्जी	-12.208
▁ठिकाने	-12.2081
▁फायरिंग	-12.2083
बॉ	-12.2084
ोश	-12.2084
क्षी	-12.2085
िति	-12.2086
मेल	-12.2086
▁मुन	-12.2086
▁बेहतरीन	-12.2088
शायर	-12.2092
▁कार्यकरण	-12.2092
▁चाहने	-12.2092
▁मोहर	-12.2095
ॉं	-12.2102
▁कपट	-12.2104
▁सीआरए	-12.2106
▁जीपी	-12.2109
▁अड़	-12.2117
▁मदर	-12.2118
▁अपदस्थ	-12.2118
▁एम्बुलेंस	-12.2118
▁प्रायद्वीप	-12.2118
▁प्रायोजन	-12.2119
▁फैक्स	-12.2119
▁विस्	-12.212
▁पूर्णकालिक	-12.212
▁माय	-12.2122
कृष्णन	-12.2122
▁अंकुर	-12.2122
▁छप	-12.2123
▁मिलेंगे	-12.2127
▁लड	-12.2127
▁सिद्धि	-12.2127
फ़्र	-12.2136
▁Ad	-12.2141
▁पॉ	-12.2142
▁अनभिज्ञ	-12.2147
▁बढे	-12.2147
▁पड़ताल	-12.2151
▁कोरिया	-12.2152
भुज	-12.2152
OS	-12.2155
पालन	-12.2157
▁अलमस्त	-12.2158
▁नैदानिक	-12.2158
▁फ्रांसीसी	-12.2158
▁मिसाइल	-12.2158
▁COTP	-12.2158
▁शॉट	-12.2159
▁राजनेता	-12.2159
▁दुर्बल	-12.2159
▁नानालाल	-12.2159
▁नागराज	-12.216
पस	-12.2163
▁पागलपन	-12.2164
डीसी	-12.2164
▁गुर्दे	-12.2169
▁मुर्ग	-12.2172
खण्ड	-12.2172
चक्र	-12.2173
▁टोपी	-12.2173
▁तारे	-12.2175
▁मोन	-12.2176
▁बची	-12.2176
▁आक	-12.2182
▁सड़	-12.2189
क्षम	-12.2191
ali	-12.2191
मथ	-12.2192
ेसी	-12.2197
▁अनपढ़	-12.2197
▁DIST	-12.2197
▁अंगीकार	-12.2198
▁सम्पादित	-12.2198
▁West	-12.2198
▁संग्रहीत	-12.2199
▁संगणित	-12.2199
▁राममोहन	-12.22
चय	-12.2203
▁भरती	-12.2205
▁वेंडर	-12.2208
▁con	-12.2209
IP	-12.221
शेष	-12.221
र्त	-12.2213
▁शल्यक्रिया	-12.2218
▁एटीएम	-12.222
वाड़	-12.2221
▁ऑब्जेक्ट	-12.2223
▁पाक	-12.2228
▁कानूनन	-12.223
धू	-12.2232
▁एसए	-12.2233
▁गेल	-12.2236
▁न्यूयॉर्क	-12.2237
▁ROAD	-12.2237
▁युसुफ़	-12.2238
▁तंतु	-12.2238
▁चाची	-12.2238
पिया	-12.2238
▁सुझाया	-12.2238
▁लोकप्रियता	-12.2239
▁बिड	-12.224
▁वामपंथी	-12.2244
▁छूने	-12.2244
▁अशक्तता	-12.2245
▁जानकी	-12.225
▁बताये	-12.2252
▁सेतु	-12.2253
मोहन	-12.2255
ण्	-12.2257
▁बूंद	-12.2258
▁न्यूज	-12.2259
▁लापरवाह	-12.226
▁कीमतें	-12.226
▁खाती	-12.226
▁हँस	-12.226
प्रे	-12.2262
सूचियों	-12.2262
▁बाव	-12.2262
▁OANo	-12.2264
▁पीर	-12.2265
ुं	-12.2265
रक्षक	-12.2268
ण्य	-12.2269
RO	-12.2273
▁डब्लू	-12.2273
▁लाश	-12.2274
mp	-12.2276
▁खाल	-12.2277
▁अघोषित	-12.2277
▁परक्राम्य	-12.2277
▁भवभूति	-12.2277
▁मिथक	-12.2277
▁बछड़	-12.2277
▁विषाणु	-12.2277
मेन्ट	-12.2278
ैड	-12.2278
▁अस्सी	-12.2279
▁परवर्ती	-12.2281
▁ग्रेटर	-12.2283
▁आवेश	-12.2286
▁परिषदों	-12.2287
वाही	-12.229
तला	-12.229
▁दयाल	-12.2291
▁हस	-12.2291
▁ज्यों	-12.2291
▁हिन्द	-12.2291
▁ma	-12.2293
▁ढील	-12.2293
▁साँस	-12.2295
EAR	-12.2296
▁माउंट	-12.2297
▁अवलंब	-12.2298
▁फेशिय	-12.2302
ंकर	-12.2304
▁मापा	-12.2305
अन	-12.2307
औ	-12.2307
▁पेड	-12.2308
▁पड़ना	-12.2309
▁उर	-12.231
वला	-12.2312
▁ढूँढ	-12.2314
▁रिलीज	-12.2316
▁शाक	-12.2317
▁कारखानों	-12.2317
▁लसीका	-12.2317
▁फिनलैंड	-12.2317
▁रुझान	-12.2317
▁अध्यापन	-12.2318
▁त्यागपत्र	-12.2319
▁सीढ़ी	-12.232
▁जुट	-12.2323
ेंट्स	-12.2324
तापूर्वक	-12.2325
▁उठती	-12.2325
▁लगाती	-12.2328
▁जोसेफ	-12.2329
खान	-12.2332
▁दाने	-12.2337
▁सूखी	-12.2337
▁यंग	-12.2338
▁प्रतिभागियो	-12.2338
्योर	-12.2347
आईआई	-12.2347
येंगे	-12.2347
आईआर	-12.2349
ओपी	-12.2352
रियों	-12.2353
▁केन्द्री	-12.2354
पात्र	-12.2355
▁ors	-12.2355
▁अफसर	-12.2356
स्टो	-12.2356
▁मुद	-12.2357
लेन	-12.2357
▁पांडिच	-12.2358
▁ओवरराइड	-12.2358
▁स्टेडियम	-12.2358
▁खिंच	-12.2358
be	-12.2358
▁रक्तचाप	-12.2358
▁सेकेंड	-12.2358
▁पिल्लई	-12.2359
▁छात्रवृत्ति	-12.2359
▁कवक	-12.2362
व्या	-12.2363
▁इतिहासकार	-12.2364
▁आयोजना	-12.2367
▁घने	-12.2368
▁इंद्रिय	-12.2368
ोलॉजी	-12.2368
▁प्रतिबन्ध	-12.2369
▁मैट्रिक	-12.237
▁आश्रितों	-12.237
टेर	-12.2376
▁दैवी	-12.2377
ंघ	-12.238
ज़न	-12.2381
फू	-12.2381
▁डीपीसी	-12.2385
फ़ी	-12.2387
▁श्रीराम	-12.2389
▁मसल	-12.2389
चीन	-12.2398
▁असेंबली	-12.2398
▁बढ़ोतरी	-12.2398
▁नब्बे	-12.2398
▁मातृभूमि	-12.2398
▁दीर्घकालीन	-12.2399
▁संचलन	-12.2399
▁बाइ	-12.2399
▁विषयवस्तु	-12.2399
▁कुष्ठ	-12.24
▁लॉगिन	-12.24
▁बलवंत	-12.2401
▁रास	-12.2402
टिल	-12.2402
रिन	-12.2402
LI	-12.2402
ध्य	-12.2405
▁परवीन	-12.2406
▁उपकर	-12.2407
खड़	-12.2407
भाषा	-12.2412
एनपी	-12.2414
▁होली	-12.2415
▁स्थितियां	-12.2419
▁लवण	-12.2421
▁आबद्ध	-12.2422
▁पिताजी	-12.2422
▁ग्लास	-12.2425
▁किंग	-12.2427
िब	-12.2428
्ने	-12.2434
▁साझे	-12.2435
▁नलिका	-12.2436
▁प्रतिक्रियाओं	-12.2436
▁नाला	-12.2437
▁अप्राप्य	-12.2439
▁मवेशियों	-12.2439
▁क्लाइंट	-12.2439
धीन	-12.2439
▁दर्पण	-12.2439
▁राष्ट्रमंडल	-12.2441
▁क्रिस	-12.2441
▁आधारशिला	-12.2443
ाकर	-12.2443
▁सेनापति	-12.2443
▁गजट	-12.2444
▁बन्धन	-12.2445
▁मोक्ष	-12.2448
▁प्राणिक	-12.2451
▁Sri	-12.2454
▁ग्रेट	-12.2454
▁घटाने	-12.2459
▁pro	-12.2462
▁कैसी	-12.2463
▁सचेतन	-12.2463
क्रा	-12.2466
ट्रा	-12.2466
▁प्रकोष्ठ	-12.2467
▁ऊष्मा	-12.2469
▁हितधारक	-12.247
चर्म	-12.2471
▁इजराइल	-12.248
▁एनालॉग	-12.248
▁एफटीआईएल	-12.248
▁अनापत्ति	-12.248
▁धकेल	-12.248
▁तात्या	-12.248
▁हुक्म	-12.248
▁रविवार	-12.2482
▁पैकिंग	-12.2484
▁अनुपम	-12.2485
▁हावी	-12.2491
▁डैक	-12.2492
▁फ़र	-12.2494
ry	-12.2496
▁डै	-12.2497
▁देब	-12.25
nagar	-12.25
मह	-12.2502
ोच	-12.2503
ेयर	-12.2504
▁भाषणों	-12.2508
्ते	-12.2511
ore	-12.2513
▁एर	-12.2515
▁बुद्धिमत्ता	-12.2521
▁कुटुंब	-12.2521
▁ज़मानत	-12.2521
▁Patna	-12.2521
▁राउंड	-12.2521
▁जरूरतमंद	-12.2522
▁जनशक्ति	-12.2522
NC	-12.2522
av	-12.2524
गढ	-12.2524
जनन	-12.2524
RAM	-12.2525
AP	-12.2525
▁अप्रिय	-12.2525
LC	-12.2525
खोर	-12.2528
िस्	-12.2529
bo	-12.2532
▁ग्रेजुएट	-12.2534
▁कहेंगे	-12.2534
▁उद्भव	-12.2535
VS	-12.2535
▁प्रतीकात्मक	-12.2536
▁चंदन	-12.2537
▁सुकर	-12.2538
िण	-12.2539
म्बा	-12.254
▁OCC	-12.2541
पन्न	-12.2541
nic	-12.2541
मंद	-12.2544
▁आख	-12.2545
▁औरत	-12.2546
्सन	-12.2547
गुन	-12.2551
▁अधिमान	-12.2556
▁Ma	-12.2557
▁Te	-12.2559
▁दोहन	-12.2559
▁अपराह्न	-12.2562
▁अस्थाई	-12.2562
▁कमोडिटी	-12.2562
▁निरूपण	-12.2562
▁बर्ताव	-12.2562
▁सॉफ़्टवेयर	-12.2562
▁वितरक	-12.2562
▁यूनिकोड	-12.2562
छे	-12.2564
▁भट	-12.2564
राई	-12.2564
रेज	-12.2565
▁अरु	-12.2567
ala	-12.2568
▁एसआईटी	-12.2569
▁खरा	-12.257
▁छिपे	-12.2572
▁सामंत	-12.2572
▁दबाकर	-12.2577
शान	-12.2579
▁छिपाने	-12.2579
▁ऐन	-12.258
▁जनमत	-12.2588
गाव	-12.2593
▁शीश	-12.2593
▁इस्तीफ	-12.2595
▁संपत्तियां	-12.2595
▁पकड़ना	-12.26
ज़ार	-12.2601
▁मीना	-12.2602
▁दफ्तर	-12.2603
▁मछलियों	-12.2603
▁यूसुफ	-12.2603
▁आंगन	-12.2603
▁मोहल्ला	-12.2604
दिर	-12.2604
▁रेज	-12.2608
▁मैग	-12.2608
▁डाउन	-12.2608
▁MS	-12.261
▁बनवाय	-12.261
मंडप	-12.2611
▁उत्तरः	-12.2613
▁कहावत	-12.2615
▁क्रीड़ा	-12.2615
▁शैव	-12.2621
▁फीड	-12.2622
▁अंडों	-12.2622
▁प्रदाताओं	-12.2623
▁पीबी	-12.2624
दों	-12.2625
ura	-12.2626
▁म्यू	-12.2626
▁पर्याप्तता	-12.2627
▁कठिनाइया	-12.2628
▁दिखत	-12.2629
▁प्रचारक	-12.2633
▁Vi	-12.2634
वाड़ा	-12.2635
ाधि	-12.2636
▁उन्	-12.2641
▁उठाये	-12.2644
▁अपंजीकृत	-12.2645
▁अप्रभावी	-12.2645
▁अमानवीय	-12.2645
▁आशीर्वाद	-12.2645
▁यदुनाथ	-12.2645
▁फिल्टर	-12.2645
▁चैत्य	-12.2645
▁विनती	-12.2647
▁विशेषतः	-12.2656
शू	-12.2656
▁पारा	-12.2656
▁अनुग्रह	-12.2657
▁खट	-12.266
▁काबुल	-12.2662
▁सम्मेलनों	-12.2663
▁PR	-12.2663
्बा	-12.2665
▁ar	-12.2665
टीपी	-12.2667
किन	-12.2668
तुर	-12.2669
ृष्ट	-12.2671
नाथन	-12.2672
▁खेद	-12.2673
▁प्रवृत्तियों	-12.2676
सूर	-12.2679
कृष्ण	-12.268
▁बहा	-12.2681
▁गुजरे	-12.2683
▁पर्ण	-12.2684
▁ईडी	-12.2685
▁जोश	-12.2686
ip	-12.2686
▁पुनर्भुगतान	-12.2686
▁प्रदूषित	-12.2686
▁भाजपा	-12.2686
▁भागलपुर	-12.2686
▁पाइपलाइन	-12.2687
▁नालंदा	-12.2687
▁विशेन	-12.2687
▁मेस	-12.2688
▁अनुवर्ती	-12.2689
▁प्रविष्टियाँ	-12.2689
▁खन्ना	-12.269
▁सुस्त	-12.2692
▁मिलें	-12.2693
▁धोने	-12.2696
▁जाएँगे	-12.2697
ास्थि	-12.2699
रियो	-12.2699
आरएस	-12.2701
▁सुनना	-12.2704
▁काबू	-12.2706
▁पीटर	-12.2707
▁उकसाव	-12.2708
होल्ड	-12.2709
▁अतिमानसि	-12.2709
ार्ड	-12.271
▁थाः	-12.2714
बुद्धि	-12.2714
▁ठंड	-12.2717
खन	-12.2719
▁विड	-12.2723
▁एमसी	-12.2727
▁चुकौती	-12.2728
▁पारम्परिक	-12.2728
▁प्रैक्टिस	-12.2728
▁अब्बास	-12.2728
▁शॉर्टकट	-12.2728
▁पर्वतमाला	-12.2728
▁मातृत्व	-12.2729
▁बंजर	-12.2729
▁राजकोषीय	-12.2729
▁सेकेंडरी	-12.273
▁लात	-12.2731
▁ब्रु	-12.2732
▁खोजे	-12.2733
▁रचित	-12.2734
▁एसआरआई	-12.2734
धु	-12.2738
ंडे	-12.2738
▁ब्रज	-12.2741
▁लगान	-12.2741
▁लड़ी	-12.2748
▁गिन	-12.2748
▁मृग	-12.2752
ध्द	-12.2753
▁ब्या	-12.2754
एमएलए	-12.2758
▁संक्षिप्तता	-12.2761
▁आरए	-12.2761
▁दृ	-12.2761
▁आरडी	-12.2761
▁लाइफ	-12.2763
▁अनिवार्यता	-12.2766
▁सनी	-12.2766
▁वार्षिकी	-12.2766
नम	-12.2767
tt	-12.2769
▁अंधाधुंध	-12.277
▁सद्दाम	-12.277
▁जुलूस	-12.277
▁रंजीत	-12.277
▁इंट्रा	-12.2771
▁माइनस	-12.2772
▁बर्मा	-12.2772
▁वायुयान	-12.2772
▁पत्रकारिता	-12.2772
▁सीताराम	-12.2773
tra	-12.2778
▁इंप	-12.2778
▁सर्वत्र	-12.2779
▁सुधारक	-12.278
▁आर्ट	-12.2781
▁जैकेट	-12.2782
▁जमी	-12.2782
वधू	-12.2784
▁अक्षय	-12.2784
▁पिंड	-12.2784
ama	-12.2787
LL	-12.2787
▁co	-12.2789
ुलु	-12.279
▁करवाना	-12.2792
▁एलसी	-12.2792
▁जोकि	-12.2792
फुल	-12.2799
▁कॉज	-12.28
▁एकत्व	-12.2809
ng	-12.281
▁BENGALUR	-12.2812
▁औपनिवेशिक	-12.2812
▁कार्यकारिणी	-12.2812
▁डिपार्टमेंट	-12.2812
▁महमूद	-12.2812
▁डीएस	-12.2813
▁आरएफपी	-12.2814
द्घ	-12.2815
▁बैंककारी	-12.2815
▁पायलट	-12.2818
▁विश्वासघात	-12.2818
▁साड़ी	-12.2818
नेस	-12.2821
pe	-12.2823
▁औषधियों	-12.2824
▁प्रौद्योगिकीय	-12.2824
▁पाइ	-12.2825
▁जुडे	-12.2825
GA	-12.2827
ाण	-12.2828
निका	-12.2829
▁एसआर	-12.2833
इंड	-12.2833
▁अप्रति	-12.2835
सिट	-12.2841
▁निकालते	-12.2843
▁बिग	-12.2844
▁विरोधियों	-12.2846
एटी	-12.2847
▁भूविज्ञान	-12.2853
▁Limited	-12.2855
▁विज्ञप्ति	-12.2855
▁सिक्योरिटी	-12.2855
▁चंचल	-12.2855
▁नगण्य	-12.2855
▁अंगूठी	-12.2855
▁एनेक्सचर	-12.2855
▁अभिकथन	-12.2855
▁उल्टा	-12.2855
▁घोड़ा	-12.2855
▁प्रमोशन	-12.2856
▁पौंड	-12.2856
▁इकबालिया	-12.2856
▁वजीफा	-12.2857
▁मोर्चे	-12.2857
▁असहमत	-12.2857
▁उदारीकरण	-12.2858
▁आयरन	-12.2863
▁गिरता	-12.2864
▁विपक्षी	-12.2864
▁मजाक	-12.2867
▁विलास	-12.2867
▁भुजा	-12.2868
▁कार्गो	-12.2869
यार	-12.2872
▁टूटी	-12.2873
मूर्तियों	-12.2873
▁कुसुम	-12.2874
▁पडे	-12.2875
पेल	-12.2876
▁पावन	-12.2877
स्को	-12.2877
कश	-12.2882
▁PWs	-12.2883
▁आब	-12.2884
िएट	-12.2887
og	-12.2888
ताब	-12.2888
▁सम्यक्	-12.2888
▁सीडब्ल्यू	-12.2888
दर्शी	-12.2888
▁Mah	-12.2894
▁मुट्ठी	-12.2897
▁आंक	-12.2897
▁कम्पनियों	-12.2898
▁अनादर	-12.2898
▁परिवर्धन	-12.2898
▁गुड़	-12.2899
▁अमिताभ	-12.2899
▁अराजकता	-12.29
एचसी	-12.2901
▁एसएन	-12.2903
▁पेशाब	-12.2903
▁स्वतन्त्रता	-12.2909
ड्स	-12.291
▁प्रकाशनों	-12.2913
शूल	-12.2919
▁छेड़	-12.2925
▁SHO	-12.2933
▁अफ	-12.2934
▁जीएस	-12.2934
डीएल	-12.2938
विज	-12.2938
▁हस्ताक्षरों	-12.294
▁द्विआधारी	-12.294
▁नाखून	-12.294
▁बेलारूस	-12.294
▁सिलेंडर	-12.294
▁ब्यौरे	-12.294
▁कारागार	-12.2941
▁पलायन	-12.2941
ao	-12.2943
▁सिखाया	-12.2943
▁पदाधिकारी	-12.2943
▁अन्	-12.2944
▁संघटक	-12.2944
ढ़ा	-12.2948
▁रजत	-12.2949
▁सीढ़िय	-12.2949
▁बलपूर्वक	-12.295
तं	-12.2952
▁हटकर	-12.2952
जाम	-12.2953
ांतरण	-12.2953
्लि	-12.2954
▁चट	-12.2954
▁आदित्य	-12.2956
▁अकाउंट	-12.296
▁दौलत	-12.2961
TI	-12.2962
▁रुग्ण	-12.2963
▁अंतरंग	-12.2963
▁निशाना	-12.2964
▁उभरते	-12.2967
प्य	-12.2968
▁चलचित्र	-12.2969
कालिक	-12.2971
▁मेटा	-12.2975
णीय	-12.2979
▁उत्खनन	-12.2983
▁फ़ारसी	-12.2983
▁परिचर्चा	-12.2983
▁व्यवधान	-12.2983
▁असंबद्ध	-12.2984
▁प्रतिभूतिकरण	-12.2985
▁विफलः	-12.2986
▁रंगा	-12.2988
▁चुनावी	-12.2989
▁यूनिटों	-12.2989
▁सहदेव	-12.2991
▁बीसी	-12.2991
जना	-12.2992
▁कैप	-12.2993
ach	-12.2997
▁फसलें	-12.2997
धिकार	-12.2997
▁तत्पर	-12.2998
वेयर	-12.2998
▁दफन	-12.3001
हाल	-12.3001
▁हायर	-12.3003
▁पुरा	-12.3003
एलटी	-12.3003
▁आलू	-12.3007
▁पेंट	-12.3007
▁VIII	-12.3007
वहन	-12.3007
▁समावेशन	-12.3008
▁शुक्ल	-12.301
▁तिरू	-12.3014
▁साध	-12.3014
▁संस्कृतियों	-12.3016
▁प्रभावकारी	-12.3018
कारा	-12.3019
ाचार	-12.3024
▁जेपी	-12.3026
भूषण	-12.3026
▁अत्याधिक	-12.3026
▁डिबेंचर	-12.3026
▁साम्प्रदायिक	-12.3026
▁सिडबी	-12.3026
▁सामरिक	-12.3026
▁भित्ति	-12.3026
▁आउटलेट	-12.3027
▁पोतन्ना	-12.3027
ाइजेशन	-12.3027
▁अभिप्राप्त	-12.3027
▁ट्रांसफ़ेरे	-12.3027
▁हेमराज	-12.3027
▁कारखाना	-12.3028
भ्य	-12.303
▁स्वराज्य	-12.3032
▁मर्जी	-12.3035
ईएस	-12.3038
गाम	-12.3038
ट्रि	-12.3041
▁मिटाने	-12.3047
प्रधान	-12.3048
▁आहत	-12.3051
▁मौसमी	-12.3053
ou	-12.3056
▁आरती	-12.3057
लप	-12.3058
▁सज	-12.306
▁व्यव	-12.3061
षऋ	-12.3062
▁AO	-12.3063
▁चिड़िया	-12.3063
शय	-12.3066
▁LA	-12.3067
▁नवीनता	-12.3067
▁जेड	-12.3067
▁एचयूएफ	-12.3069
▁संकुचन	-12.3069
▁सुस्पष्ट	-12.3069
▁नक्शा	-12.3069
▁सम्मिलन	-12.3069
▁सिक्के	-12.3069
▁चुनौतियां	-12.3069
▁मीट्रिक	-12.307
▁बैकअप	-12.307
▁वैभव	-12.307
▁सस्ती	-12.3071
▁मलखान	-12.3072
BC	-12.3073
स्टे	-12.3074
▁सज़ा	-12.3074
▁सस्ता	-12.3075
▁उलझन	-12.3081
▁चोल	-12.3083
मिलित	-12.3086
no	-12.3087
▁आंदोलनों	-12.3089
▁स्थापन	-12.3091
▁प्रातः	-12.3093
▁एलआर	-12.3093
▁ह्यू	-12.3093
▁घिस	-12.3093
▁तेज़ी	-12.3097
पान	-12.3097
▁सुखा	-12.3098
▁लाद	-12.31
क्षक	-12.3101
▁बढ़ें	-12.3103
▁नवान्वेषक	-12.3103
ूद	-12.3106
▁अणु	-12.3106
▁तटस्थ	-12.3108
▁बैर	-12.3111
her	-12.3111
▁फैमिली	-12.3113
▁वार्मिंग	-12.3113
▁भिक्षु	-12.3113
▁स्लाइड	-12.3113
▁अधिरोपण	-12.3113
▁कथानक	-12.3114
▁लोहा	-12.3114
▁कुल्लू	-12.3115
▁अतिचार	-12.3116
▁वाक्यों	-12.3117
▁मिलाया	-12.3117
▁जीते	-12.3124
ख्य	-12.3127
▁फोटोग्राफ	-12.313
▁उत्सुकता	-12.3133
▁फुफ्फुस	-12.3134
विदों	-12.3139
▁कामयाब	-12.3139
गोल	-12.3145
▁कणों	-12.3146
▁नारे	-12.3146
सत	-12.3147
ट्रिक्स	-12.3149
▁मुनाफा	-12.3157
▁क्षुद्र	-12.3157
▁द्रविड़	-12.3157
▁गठबंधन	-12.3157
▁बालकृष्ण	-12.3157
▁क्रॉल	-12.3157
▁आकृष्ट	-12.3158
▁नवल	-12.3163
▁श्रीनगर	-12.3168
▁पाश	-12.3172
गणना	-12.3179
▁संभाव्य	-12.318
▁AC	-12.318
▁उलझ	-12.3184
▁मिनी	-12.3188
RAJ	-12.3189
्के	-12.319
▁Sy	-12.319
श्रम	-12.3193
VII	-12.3193
ix	-12.3193
▁गायन	-12.3197
▁बदमाश	-12.32
▁रोज़	-12.32
▁चंद्रशेखर	-12.3201
▁दामाद	-12.3201
▁संचालक	-12.3201
▁सेलुलर	-12.3201
▁अन्यत्र	-12.3201
▁हाइड्रोजन	-12.3201
▁फिक्स	-12.3202
▁परम्परागत	-12.3203
▁रेटिंग	-12.3204
▁परमार	-12.3206
HE	-12.3207
▁अड्ड	-12.3208
▁नर्मदा	-12.3208
मानी	-12.3208
▁लगना	-12.3212
▁पाएगा	-12.3213
▁प्रवृति	-12.3213
झी	-12.3218
त्या	-12.3219
बेट	-12.322
ओटी	-12.322
▁तुर्क	-12.3224
ib	-12.3224
▁संयोजक	-12.3225
au	-12.3226
▁पीना	-12.3227
▁धाम	-12.3227
▁पीसीआर	-12.3229
▁शान	-12.323
गणित	-12.3232
▁रोपण	-12.3233
ेटिव	-12.3236
ob	-12.3238
्यूट	-12.3238
▁वाय	-12.3239
गुरु	-12.3243
▁जनसाधारण	-12.3244
▁सर्वांगीण	-12.3244
▁पूंछ	-12.3244
▁कवच	-12.3245
▁हतोत्साहित	-12.3245
▁जितेंद्र	-12.3245
▁छुड़ा	-12.3245
▁तख्त	-12.3245
ड्ड	-12.3249
मै	-12.3252
▁हर्जाना	-12.3253
क्कड़	-12.3254
▁नातेदार	-12.3256
NAGAR	-12.3256
▁REV	-12.3257
रह	-12.3259
▁घूमने	-12.326
टिन	-12.3261
▁आंका	-12.3262
▁अंडा	-12.3265
ोह	-12.3266
आप	-12.3267
▁स्वे	-12.3268
pp	-12.3269
▁ऐल	-12.3272
वात	-12.3273
▁कुंवर	-12.3278
▁ठुकरा	-12.3289
▁नाइट्रोजन	-12.3289
▁पाषाण	-12.3289
▁अल्पकालिक	-12.3289
▁हल्की	-12.3289
▁महापात्र	-12.3289
▁व्यंजन	-12.3289
▁सपाट	-12.329
यालय	-12.329
▁रोहित	-12.329
वीएस	-12.3291
साई	-12.3295
▁हिरण	-12.3296
पर्ण	-12.3296
fi	-12.3297
▁मधुकर	-12.3298
ौं	-12.33
बाल	-12.3301
▁पारी	-12.3302
व्यक्ति	-12.3305
निधि	-12.3307
राष्ट्र	-12.3307
▁Go	-12.3313
▁De	-12.3317
▁निकालकर	-12.3318
RD	-12.3318
▁वृहत	-12.3318
▁समर	-12.3319
लोडिंग	-12.332
▁बहि	-12.3322
▁निगमन	-12.3324
▁एडल	-12.3324
लेस	-12.3329
▁बंटवारे	-12.3333
▁बीआईएफआर	-12.3333
▁संकुचित	-12.3333
▁सिक्ख	-12.3334
▁मिर्च	-12.3334
▁घूमत	-12.3338
▁ठहरने	-12.3339
our	-12.3342
▁जं	-12.3343
▁पूछना	-12.3343
रियर	-12.3343
▁डंडा	-12.3344
ारे	-12.3354
CA	-12.336
▁अपर्याप्तता	-12.3363
तिथियों	-12.3363
▁तान	-12.3366
ंड़	-12.3368
विया	-12.3369
▁एसबी	-12.337
▁पीई	-12.3371
कर्ष	-12.3372
टम	-12.3373
sp	-12.3376
▁PRODUCT	-12.3378
▁अतिरिक़्त	-12.3378
▁मजूमदार	-12.3378
▁लाइब्रेरी	-12.3378
▁ह्रदय	-12.3378
▁समावेदन	-12.3378
▁एंटरप्राइजेज	-12.3378
▁प्यास	-12.3378
▁विद्यासागर	-12.3378
ated	-12.338
▁न्यून	-12.338
▁वस्तुनिष्ठ	-12.338
▁उपस्कर	-12.3382
▁प्रतिधारण	-12.3383
साइट	-12.3385
▁पूर्वज	-12.3386
▁ट्रीय	-12.3388
लै	-12.339
▁ब्लू	-12.3392
आरएम	-12.3393
▁बेग	-12.3396
▁रियासतों	-12.3396
▁मुर्गी	-12.3397
ani	-12.3397
▁निर्धारक	-12.3398
ायिक	-12.3398
मुद्र	-12.34
NAME	-12.3401
▁मौ	-12.3404
ec	-12.3405
▁तिब्बत	-12.3405
ok	-12.3409
्दा	-12.3411
▁लालच	-12.3412
दानी	-12.3413
mo	-12.3413
▁निर्व	-12.3414
▁जोड़ते	-12.3415
▁अनिच्छुक	-12.3423
▁अभियांत्रिकी	-12.3423
▁एजेंसियां	-12.3423
▁जिज्ञासा	-12.3423
▁दरभंगा	-12.3423
▁अपरिचित	-12.3423
▁सन्निहित	-12.3423
▁स्वंय	-12.3423
▁हिचक	-12.3423
▁आर्बिट्रेशन	-12.3423
▁नागेंद्र	-12.3423
▁मानसिकता	-12.3424
वाड़ी	-12.3424
▁वक़्त	-12.3426
वरण	-12.3426
▁निधियां	-12.3428
▁बरत	-12.3428
▁होंठ	-12.3429
▁बिंद	-12.343
▁तानाशाही	-12.3433
▁अभिकल्प	-12.3434
▁पूरन	-12.3435
▁तत्	-12.3436
्पी	-12.344
▁गतिशीलता	-12.344
ide	-12.345
▁तात्कालिकता	-12.3451
CP	-12.3454
▁पैड	-12.3457
मण्डल	-12.3457
▁बनाएगा	-12.3463
co	-12.3463
▁टीआई	-12.3464
▁फलन	-12.3464
सना	-12.3464
▁प्राइम	-12.3467
▁लेबोरेटरी	-12.3468
▁टीडीएस	-12.3468
▁जूझ	-12.3468
▁लिहाज	-12.3469
▁धीरज	-12.3469
देह	-12.3469
▁सौतेल	-12.347
▁प्रत्यक्षतः	-12.3474
▁पेटी	-12.3474
▁घावों	-12.3478
▁भजन	-12.3484
PW	-12.3487
कंद	-12.3488
▁कंद	-12.3488
▁सीएल	-12.3491
▁रुपया	-12.3493
्यो	-12.3496
▁पीएच	-12.3496
च्	-12.3497
थ्य	-12.3497
▁परामर्शी	-12.3498
वेर	-12.3502
gr	-12.3504
पुत्र	-12.3508
मण	-12.3509
▁लता	-12.3509
प्रकाश	-12.351
▁कलाई	-12.351
▁एस्टोपेल	-12.3513
▁छंटनी	-12.3513
▁महाभियोग	-12.3513
▁जमशेदपुर	-12.3513
▁पशुपालन	-12.3513
▁ब्रांच	-12.3513
▁सपनों	-12.3513
▁झटके	-12.3513
▁Gaya	-12.3514
▁इर्द	-12.3515
▁सरणी	-12.3515
▁प्रबंधकों	-12.3517
▁लंका	-12.352
▁लोकहित	-12.352
▁पहुंचाना	-12.3523
▁सतही	-12.3524
▁मश	-12.3526
▁तकिया	-12.3526
LJ	-12.3527
क्षि	-12.3528
▁मंगा	-12.3528
िट्	-12.3529
▁उभरे	-12.3532
▁विमानन	-12.3533
▁घिर	-12.3533
ब्ल	-12.3537
▁इंडस्ट्र	-12.3537
Act	-12.3538
▁म्यूट	-12.3538
▁प्रस्ता	-12.3541
▁तत्त्वों	-12.3541
▁दस्ता	-12.3542
क्रियात्मक	-12.3542
▁वेदना	-12.3545
साइटों	-12.3547
▁हिन्दुस्तानी	-12.3547
▁सटीकता	-12.3553
▁रूपान्तर	-12.3554
वह	-12.3555
ड़ो	-12.3555
▁समु	-12.3556
▁LINK	-12.3558
▁आगंतुक	-12.3558
▁कोल्हटकर	-12.3558
▁समस्तीपुर	-12.3558
▁नर्मदाशंकर	-12.3558
▁फिलहाल	-12.3558
एसपी	-12.3559
▁असंतोषजनक	-12.3559
▁वरदान	-12.3559
▁मोतीलाल	-12.3559
▁पदानुक्रम	-12.3559
▁सेल्स	-12.356
▁मूवी	-12.3561
▁दिखाएं	-12.3561
▁आभार	-12.3563
▁नकदीकरण	-12.3564
▁पकाने	-12.3565
▁राष्ट्रवाद	-12.3565
▁कल्लू	-12.3568
▁कैम	-12.357
▁बीएस	-12.357
▁रहस्यमय	-12.3573
िकाओं	-12.3574
▁स्टोन	-12.3577
▁जलाने	-12.3578
आरपी	-12.358
▁यन्त्र	-12.358
हिल	-12.358
UT	-12.3582
▁रुके	-12.3583
gh	-12.3583
▁ko	-12.3585
▁उदास	-12.3586
▁लौटते	-12.3588
▁are	-12.3588
▁ओल	-12.3588
संधान	-12.3596
▁सूरी	-12.3596
बाज़ी	-12.3597
आरएल	-12.36
▁कुर्	-12.3603
▁व्यवसायिक	-12.3603
▁चतुर्वेदी	-12.3604
▁प्रोपराइटर	-12.3604
▁अतिशयोक्ति	-12.3604
▁पुरातत्व	-12.3604
▁चैंबर	-12.3604
▁Bhawan	-12.3604
▁कहानियाँ	-12.3604
▁चुप्पी	-12.3604
▁चह	-12.3604
▁रोकती	-12.3605
▁जन्मजात	-12.3606
▁भावनगर	-12.3607
▁बकरी	-12.3608
▁Mo	-12.3608
▁मोक	-12.3612
लाप	-12.3615
▁एकाउंटेंट	-12.3615
▁खल	-12.3615
स्टाइल	-12.3616
पक्ष	-12.3616
▁पिछ	-12.3622
वाहन	-12.3623
▁उतरने	-12.3625
▁रणनीतिक	-12.3627
▁नाकाम	-12.3627
▁संगति	-12.3628
ाध्य	-12.3633
▁खोजें	-12.3635
▁विमानों	-12.3639
▁करियर	-12.3642
ोब	-12.3644
▁डोम	-12.3644
बोल	-12.3645
▁रावत	-12.3647
▁पनप	-12.3649
बला	-12.3649
▁सिकंदर	-12.365
▁BANGALORE	-12.365
▁घुड़सवार	-12.365
▁जेएनयू	-12.365
▁विलुप्त	-12.365
▁सादृश्य	-12.365
▁जसवंत	-12.365
▁तरुण	-12.365
▁सारवान	-12.365
LT	-12.3651
▁नरसिंह	-12.3651
▁उथल	-12.3652
▁सज्जन	-12.3653
▁Ar	-12.3657
▁होल्डिंग्स	-12.3658
▁डायरेक्टर	-12.3658
▁कीड़े	-12.3658
▁CCNo	-12.3659
एमए	-12.3662
▁इलेक्ट्रानिक	-12.3663
एलसी	-12.3666
▁छोड़ते	-12.3667
▁एलटी	-12.3669
ल्म	-12.3671
▁भक्तों	-12.3672
▁कब्र	-12.3676
▁रिव	-12.3676
▁डीसी	-12.3677
बोन	-12.3677
क्य	-12.3678
▁एमसीआई	-12.3679
eg	-12.3687
▁Mar	-12.3691
▁अशक्त	-12.3692
▁बंधा	-12.3693
iv	-12.3695
लाइट	-12.3695
▁उंगलिय	-12.3696
विंग	-12.3696
▁इकाइयाँ	-12.3696
▁मक्खन	-12.3696
▁हुकूमत	-12.3696
▁कमज़ोर	-12.3696
▁प्रसूति	-12.3696
▁परिसंघ	-12.3696
▁ब्यौरा	-12.3696
▁ब्रह्मानंद	-12.3697
▁नोटिफिकेश	-12.3697
▁उदात्त	-12.3697
▁कीचड़	-12.3698
ड्डी	-12.3699
▁गांधीनगर	-12.3701
▁सन्देश	-12.3701
▁मताधिकार	-12.3706
▁उपनियम	-12.3707
▁लीं	-12.371
▁पुराणों	-12.3711
▁रूपांतरित	-12.3712
▁लॉरी	-12.3712
▁कुट	-12.3715
ard	-12.3715
▁जुग	-12.3719
गान	-12.3729
AKA	-12.3731
▁लेखे	-12.3733
रथ	-12.3734
▁हिज	-12.3737
▁लोन	-12.3737
▁रहो	-12.3739
▁संरक्षा	-12.3742
▁स्तूप	-12.3742
▁URL	-12.3743
▁निराकरण	-12.3743
▁सोडियम	-12.3743
▁निबन्ध	-12.3744
▁मिलावट	-12.3745
▁फोर्ट	-12.3747
▁तेजाब	-12.3748
▁चाहिएं	-12.3749
▁एकाधिक	-12.3751
▁बनें	-12.3752
▁परिणति	-12.3753
बानी	-12.3753
▁आत	-12.3763
▁सिद्धान्तों	-12.3763
लोम	-12.3766
▁खींची	-12.3768
UM	-12.377
द्रा	-12.3775
▁नागा	-12.3776
▁इंस	-12.3781
ोटा	-12.3783
ाइटिस	-12.3787
▁एनआईए	-12.3787
▁विनिर्दि	-12.3788
▁ड्यू	-12.3789
▁मलेशिया	-12.3789
▁जोधपुर	-12.3789
▁सर्वव्यापी	-12.3789
▁विपुल	-12.3789
▁कुंजीपटल	-12.3792
वर्थ	-12.3794
▁पड़ेगी	-12.3795
▁पला	-12.3796
▁निर्द	-12.3798
▁भाप	-12.38
▁रिश्ता	-12.3802
चूड़	-12.3803
ैग	-12.3803
EM	-12.3807
▁कोश	-12.3808
▁ट्रांसपोर्टर	-12.3809
्रम	-12.381
▁संवाददाता	-12.3813
▁बाइट	-12.3814
रागी	-12.3815
ैं	-12.3816
ेत	-12.3822
▁रमण	-12.3824
▁मात	-12.3827
▁बाह	-12.3828
▁फोड़	-12.3828
▁टोप	-12.3829
▁लाती	-12.3832
्यायालय	-12.3833
▁जमींदारों	-12.3835
▁एनए	-12.3835
▁अशुभ	-12.3836
▁इब्राहिम	-12.3836
▁चौबीस	-12.3836
▁यादृच्छिक	-12.3836
▁ऊर्ध्व	-12.3836
▁सरला	-12.3836
▁MANU	-12.3836
▁High	-12.3836
▁थोडा	-12.3836
▁अल्पावधि	-12.3836
▁आरटीआई	-12.3836
▁वायुसेना	-12.3836
▁पुरुषोत्तम	-12.3836
▁CRA	-12.3836
▁सुशासन	-12.3836
▁हज	-12.3837
▁सैम	-12.3837
▁निद्रा	-12.3837
▁बिछाने	-12.384
ज़ल	-12.384
▁सजग	-12.3841
काश	-12.3841
▁सेंसर	-12.3843
ावन	-12.3843
वसाय	-12.3844
एआर	-12.3844
▁Kumari	-12.3846
▁पाकिस्तानी	-12.3847
पाट	-12.3847
▁फैक्टरी	-12.3849
▁पालक	-12.3854
▁Al	-12.3855
▁ताड़	-12.3855
▁सूती	-12.3855
▁बेरोजगारी	-12.3856
झर	-12.3857
गीत	-12.3864
▁सार्वभौम	-12.3867
▁करूँगा	-12.3867
▁हनन	-12.387
ान्तरण	-12.3871
▁इंडो	-12.3871
▁मुह	-12.3872
▁शाप	-12.3872
▁थोप	-12.3875
▁अष्ट	-12.3876
▁तने	-12.3878
▁पठान	-12.3882
▁जायसवाल	-12.3882
▁सांकेतिक	-12.3882
▁सुपारी	-12.3882
▁नदियां	-12.3882
▁अविभक्त	-12.3883
▁किंगडम	-12.3883
▁पराजय	-12.3883
▁ब्रह्मांड	-12.3884
किसी	-12.3884
▁भुगतने	-12.3884
▁Mahto	-12.3885
▁मम	-12.3885
▁हरकत	-12.3889
RR	-12.389
▁बरतने	-12.3891
▁स्क्रिप्ट	-12.3894
म्बन्	-12.3895
ुका	-12.3897
▁पण	-12.3897
▁मलिक	-12.3897
▁खामिय	-12.3904
▁चंड	-12.3907
▁हैरान	-12.3907
▁शत्रुओं	-12.391
▁जिम	-12.3911
▁फेल	-12.3912
▁मीनार	-12.3915
▁टीके	-12.3916
▁प्रस्तुतीकरण	-12.3917
▁कंठ	-12.3919
▁जनित	-12.3919
▁Bi	-12.3919
▁ओमान	-12.3921
▁इंट	-12.3922
सरण	-12.3922
लान	-12.3926
▁प्रण	-12.393
galpur	-12.393
▁इंडोनेशिया	-12.393
▁एडहॉक	-12.393
▁रिस्पोंडेंट	-12.393
▁स्वीडन	-12.393
▁State	-12.393
▁SLP	-12.393
▁निरंजन	-12.393
▁फोर्स	-12.3932
▁रामजी	-12.3933
▁स्थानान्तरण	-12.3933
▁मददगार	-12.3933
▁बुधवार	-12.3934
▁कार्यवाहक	-12.3936
▁लाइ	-12.3936
▁प्रत्यक्षीकरण	-12.3941
▁पत्ती	-12.3942
गिरि	-12.3944
▁अर्हक	-12.3945
सद	-12.3945
ण्डा	-12.3946
▁स्वै	-12.396
▁टिप	-12.3961
ाइस	-12.3965
▁पीठों	-12.3968
ING	-12.3971
▁काटना	-12.3972
▁ईश्वरीय	-12.3972
बुल	-12.3975
ोवा	-12.3976
▁कांफ्रेंस	-12.3977
▁मक्खी	-12.3977
▁सिग्नल	-12.3977
▁डिटेल	-12.3978
▁फिलिप	-12.3978
▁सलीम	-12.3978
▁सिक्का	-12.3978
▁मुरली	-12.3978
▁स्टैंडर्ड	-12.3978
▁वाकई	-12.3979
ूँगा	-12.3979
▁पकड	-12.398
्याय	-12.398
▁बक्से	-12.3981
▁ग्रहणाधिकार	-12.3981
▁कंपाउंड	-12.3985
▁उड़न	-12.3985
ॉस	-12.3985
▁इमारतें	-12.3989
▁चोटी	-12.399
OM	-12.3991
ावा	-12.3992
द्धि	-12.3994
▁जलीय	-12.3995
▁मस्त	-12.3996
▁वर्णनात्मक	-12.3997
लाव	-12.4003
▁Kar	-12.4005
▁रमा	-12.4007
वु	-12.401
▁माली	-12.4011
▁कांति	-12.4013
िजन	-12.4013
ुओं	-12.4016
ty	-12.4016
ंख	-12.402
▁मृदु	-12.4021
रंभ	-12.4023
▁प्रायोजक	-12.4025
▁सरोकार	-12.4025
▁शत्रुघ्न	-12.4025
▁फोकस	-12.4025
▁मार्टिन	-12.4025
▁पटवारी	-12.4025
▁देशीराज्य	-12.4025
▁सौदों	-12.4025
▁राजनीतिज्ञ	-12.4026
कोशिका	-12.4027
▁EE	-12.4027
केश	-12.4027
▁सामंजस्यपूर्ण	-12.4028
वर्म	-12.403
▁एनसीसी	-12.4035
▁उग्रवादी	-12.4036
▁गुदा	-12.4037
▁भूरा	-12.4038
▁संवेदी	-12.4038
▁http	-12.4038
०में	-12.404
कारियों	-12.4041
बीमित	-12.4042
▁एमई	-12.4042
▁दोहराने	-12.4043
▁क्रीम	-12.4047
▁गुच्छा	-12.4048
▁अर्ह	-12.4049
▁लाइव	-12.4052
दयाल	-12.4053
्बे	-12.4054
▁Ga	-12.4055
▁बोरा	-12.4055
▁स्वतन्त्र	-12.406
▁गुणात्मक	-12.406
▁ओन	-12.4061
▁मंजू	-12.4063
▁बिज	-12.4063
पेक्ष	-12.4064
▁गढ़ा	-12.4065
▁विवाहों	-12.407
▁पीडी	-12.407
▁अल्कोहल	-12.4072
▁चार्ल्स	-12.4072
▁छावनी	-12.4072
▁टर्नओवर	-12.4072
▁बड़ौदा	-12.4072
▁सिंडिकेट	-12.4072
▁द्रोण	-12.4072
▁व्हाइट	-12.4072
▁कार्टून	-12.4073
▁हेडमास्टर	-12.4073
▁स्त्रियां	-12.4073
िनो	-12.4073
▁आहरित	-12.4073
▁घोड़ों	-12.4073
▁दुसरे	-12.4073
▁अजमेर	-12.4073
▁नोबेल	-12.4073
▁पार्टनर	-12.4073
▁बोलचाल	-12.4073
▁मीटिंग	-12.4074
▁विचरण	-12.4074
▁ढाई	-12.4074
▁प्रजातियां	-12.4074
▁अलीगढ़	-12.4075
▁आदमियों	-12.4075
▁ब्रे	-12.4076
▁अंधकार	-12.4077
ॉप	-12.4078
▁स्टॉप	-12.4079
▁मिमी	-12.4079
▁क्रे	-12.4079
▁चैन	-12.4081
▁बहाव	-12.4082
▁वास्तु	-12.4082
▁बताएगा	-12.4082
▁सामान्यत	-12.4083
▁पन्न	-12.4083
्वी	-12.4084
जिल	-12.4089
▁टिड्ड	-12.4091
▁संलग्नक	-12.4091
▁लिपट	-12.4093
▁भान	-12.4094
▁जमाकर्ताओं	-12.4094
▁प्रदर्शनों	-12.4095
▁डीजी	-12.4095
▁प्रयत्नों	-12.4096
one	-12.4099
▁सुनाते	-12.4099
▁सुशीला	-12.4101
ंका	-12.4103
षि	-12.4104
▁ठंडे	-12.4112
▁असहयोग	-12.4121
▁थिएटर	-12.4121
▁परिधीय	-12.4121
▁बच्ची	-12.4121
▁टेनेंसी	-12.4121
▁प्रयाग	-12.4121
▁स्तम्भ	-12.4121
▁विजयवाड़ा	-12.4121
▁शुगर	-12.4121
▁गोवर्धन	-12.4121
▁छुरा	-12.4122
▁असंगति	-12.4123
▁पांडा	-12.4124
▁संबधित	-12.4124
मिक्स	-12.4125
▁अतुल	-12.4127
▁विलीन	-12.4127
tha	-12.4127
▁संभवत	-12.413
▁बोलियां	-12.413
SW	-12.4131
भोर	-12.4132
▁भत	-12.4135
▁निष्पा	-12.4138
ातीत	-12.414
▁बरामदे	-12.4142
▁आकड	-12.4144
ep	-12.4144
प्शन	-12.4144
घट	-12.4146
फैक्टो	-12.4147
▁स्क्व	-12.4148
WP	-12.4148
गुप्त	-12.415
▁बीपी	-12.415
▁रजनी	-12.4151
साद	-12.4156
▁ढंक	-12.416
▁PML	-12.4162
▁धरम	-12.4164
▁org	-12.4164
▁डिफॉल्टर	-12.4164
▁मकानों	-12.4166
धक	-12.4166
▁पाय	-12.4167
▁गुटों	-12.4168
▁बेजबरु	-12.4169
rough	-12.4169
▁कार्रवाइयों	-12.4169
▁वासुदेव	-12.4169
▁पठार	-12.4169
▁शिलालेख	-12.4169
▁गुस्से	-12.4169
च्य	-12.4169
▁पेयजल	-12.4169
▁भास्कर	-12.4169
▁सुधर	-12.417
▁लिफ्ट	-12.417
▁स्कूटर	-12.417
▁प्रोसेसिंग	-12.417
▁फ्रेंच	-12.417
▁गंटा	-12.4171
▁संध	-12.4174
▁माइ	-12.4179
▁India	-12.4179
end	-12.418
▁त्यागी	-12.4181
िथ	-12.4181
व्ह	-12.4183
▁प्रतिकृति	-12.4183
ॉर	-12.4184
मुथु	-12.4184
▁फ़्ल	-12.4185
▁खाया	-12.4188
ख्	-12.4189
गरी	-12.4192
जय	-12.4192
▁नग्न	-12.4193
▁CH	-12.4193
▁माई	-12.4193
▁सप्त	-12.4197
ियॉँ	-12.4197
वाहक	-12.4198
ार्ध	-12.4205
▁कोष्ठक	-12.4205
▁लतीफ	-12.4208
लोर	-12.4209
▁वाक्	-12.4209
एनओ	-12.4211
▁जीएम	-12.4213
▁नक्षत्र	-12.4217
▁मसौदे	-12.4217
▁शाहजहाँ	-12.4217
▁झोपड़ी	-12.4217
▁संबोधन	-12.4217
▁मांसपेशी	-12.4218
सन्निकट	-12.4218
▁अंतररा	-12.4218
▁नशीली	-12.4218
▁परोसा	-12.4218
▁निगाह	-12.4218
▁दूरदर्शन	-12.422
▁सम्पदा	-12.422
▁CS	-12.4221
ैंड	-12.4222
▁फटकार	-12.4226
▁महीना	-12.4227
्यायाधीश	-12.4227
▁राजकुमारी	-12.4227
▁प्रमुखता	-12.4228
पोर्ट	-12.4229
▁मुल्ला	-12.423
▁टूटे	-12.423
▁होल्डर	-12.4234
भान	-12.4236
▁सल्ल	-12.4238
▁मूल्यांकनकर्ता	-12.4238
दिन	-12.4241
▁एमएम	-12.4243
▁टिन	-12.4243
▁फ्रंट	-12.4247
ूक	-12.425
▁आवेदनपत्र	-12.4257
▁चाप	-12.4258
▁कांत	-12.4259
▁निरा	-12.4259
▁कामरूप	-12.426
टु	-12.4262
युग	-12.4262
▁एनके	-12.4263
ive	-12.4266
▁Rohtas	-12.4266
▁ममलतदार	-12.4266
▁फकीर	-12.4266
▁सबमिट	-12.4266
▁कायदा	-12.4267
▁सौम्य	-12.4267
▁विजयनगर	-12.427
▁गाजा	-12.427
MB	-12.4272
▁देशभक्ति	-12.4272
▁बारूद	-12.4272
▁बल्लेबाजी	-12.4274
▁संगीतकार	-12.4277
▁गेम	-12.4279
▁निर्धनता	-12.4279
▁वीजा	-12.4279
▁प्रांतों	-12.4281
▁चालित	-12.4282
▁Bal	-12.4288
▁अस्थिरता	-12.4289
res	-12.429
्विन	-12.429
▁एनसी	-12.4293
▁नेपाली	-12.4293
▁क्लबों	-12.4295
▁शमन	-12.4296
पीओ	-12.4298
▁नाली	-12.4301
▁सड़कें	-12.4302
दरी	-12.4303
▁Ja	-12.4304
ढ़ी	-12.4311
▁काटे	-12.4312
▁श्लेष्म	-12.4314
▁वल्लभ	-12.4315
मेट्रोपोलिट	-12.4315
▁डिब्बे	-12.4315
▁नक्काशी	-12.4315
▁पुनरुद्धार	-12.4315
▁लिमखेड़ा	-12.4315
▁गुरबख्श	-12.4315
▁प्रतिभाशाली	-12.4316
▁अंकगणितीय	-12.4316
▁ओकुल	-12.4316
▁वीरेन	-12.4318
▁कभार	-12.4319
▁लम्बाई	-12.4319
दमनकारी	-12.432
▁अनुपलब्धता	-12.4321
युक्	-12.4322
▁समीर	-12.4324
बली	-12.4328
▁चुनना	-12.4329
▁लौटाए	-12.433
ae	-12.433
▁कहलात	-12.4331
वण	-12.4331
पोष	-12.4333
▁खासतौ	-12.4333
▁कागज़	-12.4334
स्थि	-12.4334
▁जुड	-12.4334
▁अंधेरा	-12.4335
क्रो	-12.4339
रोज	-12.434
▁ओवरट	-12.4343
टना	-12.4344
▁हफ्त	-12.4344
▁थिरु	-12.4345
▁स्पा	-12.4347
पटल	-12.4351
ंदन	-12.4354
▁सैक	-12.4354
▁प्राइमर	-12.4354
▁शौक	-12.4355
▁राजन	-12.4356
▁बजाज	-12.4357
बारी	-12.4361
▁अविवाहित	-12.4364
▁गोदावरी	-12.4364
▁सदृश	-12.4365
▁क्रोमियम	-12.4365
▁अध्यधीन	-12.4365
▁निराशाजनक	-12.4365
▁बॉल	-12.4365
व्यू	-12.4366
▁उछाल	-12.4367
age	-12.4368
▁धागे	-12.4368
▁टिकला	-12.4368
▁स्थाय	-12.437
▁अवा	-12.4371
साइड	-12.4374
▁गंवा	-12.4376
▁एक्शन	-12.4376
▁भेजकर	-12.4376
▁पीवी	-12.4377
▁उपलब्धियां	-12.4387
ापुर	-12.4388
▁पीडब्ल्यूडी	-12.4388
▁चिन्हित	-12.4389
▁सती	-12.4389
खला	-12.4389
are	-12.439
▁लह	-12.439
▁ब्राह्मणों	-12.4392
▁शाला	-12.4392
▁सैं	-12.4392
▁पर्याय	-12.4394
▁डीन	-12.4394
▁एनएच	-12.4394
▁दाह	-12.4396
▁बुनियाद	-12.4397
▁दीव	-12.4398
▁एवज	-12.4398
▁चिपक	-12.4399
▁गलतियों	-12.4403
▁स्पेस	-12.4405
दिया	-12.4405
▁was	-12.4409
जिन	-12.4409
्रेशन	-12.4412
▁नौजवान	-12.4414
▁अनुषंगी	-12.4414
▁मल्होत्रा	-12.4414
▁हथकरघा	-12.4414
▁सहभागी	-12.4414
▁ट्रैफिक	-12.4414
▁टेलीग्राफ	-12.4414
▁अनिच्छा	-12.4414
ुनी	-12.4415
▁जननांग	-12.4415
वाचक	-12.4416
▁धारदार	-12.4417
▁ब्राह्म	-12.4417
▁विश्वनाथ	-12.4418
हिन	-12.4419
▁बाबूलाल	-12.4419
▁On	-12.4419
▁नवीकरणीय	-12.4419
cha	-12.442
ब्रा	-12.442
▁घाना	-12.4421
BI	-12.4425
▁आरम्भिक	-12.4425
▁वहनीय	-12.4426
▁सोहन	-12.443
धे	-12.4432
▁कारीगर	-12.4433
▁व्यवस्थाओं	-12.4434
▁सनकी	-12.4434
▁विच्छेदन	-12.4439
▁इम्	-12.4439
▁जोनल	-12.4441
छिपी	-12.4442
▁रिकॉर्डर	-12.4443
▁दाद	-12.4444
जातीय	-12.4446
ोन्मुख	-12.4447
▁पैलेस	-12.4447
▁लीगल	-12.4447
शो	-12.445
▁टैक्सी	-12.4452
▁रामपुर	-12.4454
▁टाई	-12.4456
्गा	-12.4457
टाइम	-12.4457
डक	-12.4458
▁बढ़ाए	-12.446
▁फाइलिंग	-12.446
▁संबध	-12.4463
▁गुस्सा	-12.4464
▁खिताब	-12.4464
▁उन्नीसवीं	-12.4464
▁हेल्थ	-12.4464
▁रबड़	-12.4464
▁सोपान	-12.4465
▁अकसर	-12.4465
▁विपत्ति	-12.4465
म्बे	-12.4465
ब्रो	-12.4467
कूल	-12.4468
▁हाइड्रो	-12.4468
▁जोत	-12.4469
▁फ्रांसिस	-12.4469
स्ती	-12.4469
बीएस	-12.447
▁औरतों	-12.447
▁क्रमबद्ध	-12.447
ोरी	-12.4471
▁सीजी	-12.4473
गौ	-12.4474
मद	-12.4474
▁प्रत्यर्थियो	-12.4475
▁सेमेस्ट	-12.4477
▁सक्षमता	-12.4478
शिक	-12.4478
▁शिकारी	-12.4478
शीट	-12.4482
shi	-12.4486
ल्व	-12.4488
न्नू	-12.4489
▁ट्राइ	-12.4493
▁नाभि	-12.4494
HAN	-12.4496
▁बचता	-12.4497
▁प्रज्ञा	-12.4501
▁विज	-12.4504
▁And	-12.4505
able	-12.4508
िन्द	-12.4509
▁स्वीप	-12.4509
▁बहिर्	-12.4511
▁एक्सपर्ट	-12.4514
▁समीक्षक	-12.4514
▁अपरिवर्तित	-12.4514
▁उखाड़	-12.4514
▁सुप्रसिद्ध	-12.4514
▁प्रणालियां	-12.4514
ऊंगा	-12.4515
▁राजशाही	-12.4515
▁बत्ती	-12.4515
▁जाग्रत	-12.4516
▁नाड़ी	-12.4517
▁मशाल	-12.4521
▁खडे	-12.4522
सिप	-12.4523
ोत्सव	-12.4523
▁मच	-12.4524
▁बल्ल	-12.4525
▁OF	-12.4529
▁रचनाएं	-12.4532
▁Sar	-12.4533
▁खोने	-12.4533
▁नाले	-12.4538
▁पुरूषों	-12.4539
्पो	-12.454
त्था	-12.454
▁दूरभाष	-12.4541
▁वश	-12.4541
▁सीडीआर	-12.4545
ओसी	-12.4546
परा	-12.455
▁ज्ञानी	-12.455
▁चिल	-12.4552
ाजी	-12.4556
निर्धारण	-12.4559
▁विमल	-12.4561
▁तथ	-12.4561
▁तर्ज	-12.4561
लिम	-12.4562
▁चिकित्सकों	-12.4563
▁राघव	-12.4564
▁Department	-12.4564
▁ढाँचे	-12.4564
▁डाटाबेस	-12.4564
▁ब्राजील	-12.4564
▁वृत्तचित्र	-12.4564
HS	-12.4565
▁दयालु	-12.4566
▁शिला	-12.4568
▁पीआईएल	-12.4568
▁SWP	-12.4568
लोन	-12.4569
▁फ़ोटो	-12.4569
▁छन्द	-12.4569
▁क्रास	-12.4569
न्ज	-12.457
▁साइबर	-12.457
▁अनुमन्	-12.457
▁भोला	-12.4571
▁कगार	-12.4572
ity	-12.4574
मयी	-12.4578
▁तराश	-12.4578
▁अनुचितता	-12.4578
नियोजित	-12.4579
चुर	-12.4583
▁संचारित	-12.4585
▁छत्र	-12.4587
▁श्रेष्ठता	-12.4587
▁संप्रभुता	-12.459
▁कार्यो	-12.4592
▁नासिक	-12.4592
नूर	-12.4596
▁प्रक्षेप	-12.4599
गुच्छ	-12.4599
शासन	-12.46
धित	-12.46
▁कैंप	-12.4604
▁जॉ	-12.4604
▁हब	-12.4605
्बी	-12.4607
रियन	-12.4613
प्रतिशत	-12.4613
▁दिवालिया	-12.4614
▁चांसलर	-12.4614
▁प्रफुल्ल	-12.4614
▁फेडरल	-12.4614
▁प्रत्यावर्तन	-12.4615
affar	-12.4615
▁ट्यूशन	-12.4615
▁सुनाने	-12.4615
▁मांझी	-12.4615
▁विड्रा	-12.4615
▁वृहद	-12.4616
▁दिवा	-12.4616
▁यथार्थवादी	-12.4616
टेशन	-12.4616
▁ख़ास	-12.4621
▁गड	-12.4621
▁एक्साइज	-12.4623
▁मानवाधिकारों	-12.4628
▁परिवर्तनीय	-12.4628
▁सौंपना	-12.4629
र्ध	-12.4629
▁उपनाम	-12.463
▁अनवर	-12.4633
▁सिद्व	-12.4634
▁सुल	-12.4634
▁भाषाएँ	-12.4639
ायल	-12.464
ुरा	-12.4641
▁जह	-12.4641
▁छाल	-12.4643
▁पीस	-12.4643
▁रिटेल	-12.4646
▁करनेवाला	-12.4648
गिल	-12.465
ke	-12.4652
▁ठहराना	-12.4654
▁बकरिय	-12.4655
▁पक्षधर	-12.4655
डिस	-12.4656
▁संग्रहित	-12.4656
▁हं	-12.4657
▁ईर्ष्या	-12.4665
▁कुलाधिपति	-12.4665
▁त्रासदी	-12.4665
▁स्थायित्व	-12.4665
▁मेमोरेंड	-12.4665
▁वानिकी	-12.4665
▁gui	-12.4665
▁अलंकार	-12.4665
▁नायब	-12.4666
▁देवेन्द्रनाथ	-12.4666
ैंस	-12.4666
▁सम्मिश्रण	-12.4666
▁टक्कर	-12.4666
▁धड़	-12.4666
▁मिटाएँ	-12.4668
▁राजकोट	-12.4668
ैंट	-12.4669
व्रण	-12.467
उस	-12.4673
्वर	-12.4674
▁प्रत्याशित	-12.4675
▁शार	-12.4677
महा	-12.4677
ेकर	-12.4679
▁मीर	-12.4682
▁अथक	-12.4684
डीह	-12.4685
▁अक्	-12.4685
▁तले	-12.4687
▁आयामों	-12.4687
▁पतंग	-12.4688
▁कटु	-12.4689
oc	-12.4692
किर	-12.4693
इज़	-12.4696
▁वन्यजीव	-12.4696
हाट	-12.4697
▁पंखों	-12.47
ईई	-12.4704
▁एनेक्स	-12.4708
▁भाषाई	-12.471
ust	-12.4711
रोल	-12.4711
amast	-12.4715
▁तिरुनेलवेली	-12.4716
▁मधुबनी	-12.4716
▁दीर्घावधि	-12.4716
▁बकाए	-12.4716
▁शेट्टी	-12.4717
▁रोटेशन	-12.4717
▁पत्तियां	-12.4717
▁एडिशन	-12.4717
▁चप्पल	-12.4717
▁बिगाड़	-12.4717
▁रिवर्स	-12.4717
case	-12.4719
MS	-12.4721
्से	-12.4722
▁ब्रिज	-12.4724
▁ईपी	-12.4725
फिक	-12.4728
▁गुजरते	-12.4729
▁बयाना	-12.4729
▁दिलाना	-12.4731
cl	-12.4732
▁प्रकार्य	-12.4732
▁ऊँची	-12.4732
▁क्रमश	-12.4734
▁उत्साहित	-12.4735
▁टोला	-12.4735
बक	-12.4735
▁शाखाएं	-12.4736
न्नत	-12.4737
▁फैलने	-12.4738
वंश	-12.4738
गौड़ा	-12.474
वरेज	-12.4741
मोट	-12.4741
▁खोजना	-12.4743
▁भाषी	-12.4746
▁बानो	-12.4749
▁ऊँचा	-12.4751
▁वाइ	-12.4751
▁तलब	-12.4754
टिकल	-12.4754
होंने	-12.4758
eb	-12.4764
▁माध्यस्थम	-12.4764
▁PIL	-12.4765
▁अंतर्वलित	-12.4768
▁कारपोरेट	-12.4768
▁जन्मतिथि	-12.4768
▁कटऑफ	-12.4768
▁कैविएट	-12.4768
▁एविडेंस	-12.4768
▁New	-12.4768
▁मिलीं	-12.4768
▁मध्यप्रदेश	-12.4769
▁बृज	-12.4769
▁झूल	-12.4769
▁बिल्ली	-12.477
▁फंच	-12.4771
▁माइकल	-12.4772
▁आयुर्वेदिक	-12.4772
▁अतिरंज	-12.4772
ियाल	-12.4775
िंक	-12.4776
्की	-12.4776
ओएस	-12.4777
पोर	-12.4779
▁सिन्धु	-12.478
फॉर्म	-12.4782
▁बनेगी	-12.4783
▁सीखते	-12.4783
▁गंदी	-12.4783
▁आनन्दमय	-12.4784
▁निविदाकर्ता	-12.4786
गै	-12.4787
ies	-12.4788
भु	-12.4791
OT	-12.4796
▁आद्य	-12.4799
्तर	-12.48
▁कानों	-12.48
▁दोस्ती	-12.4801
▁खगोल	-12.4804
▁पंजी	-12.4806
हानि	-12.4807
DS	-12.4808
▁नीरज	-12.4809
art	-12.4809
तव	-12.481
▁हमीद	-12.4814
arbhanga	-12.4819
▁ढाँचा	-12.4819
▁पीयूष	-12.4819
▁विघटित	-12.4819
▁क्वेरी	-12.4819
▁गंधर्व	-12.4819
▁अफवाह	-12.4819
▁डीटीएए	-12.482
ान्	-12.482
प्रवाह	-12.4821
▁पार्श्विका	-12.4822
▁भाड़े	-12.4824
▁खिलाड़	-12.4827
▁प्रदूषक	-12.4827
▁नृ	-12.4829
▁भड़क	-12.4829
▁प्रवर्तनीय	-12.4832
▁सम्यक	-12.4833
▁दिखावा	-12.4834
बर्ट	-12.4834
बोर्ड	-12.4835
हनु	-12.4836
▁फाइनल	-12.4837
wan	-12.484
▁ब्यू	-12.4844
▁अधिनिर्णी	-12.4849
रोन	-12.4849
▁स्टेट्स	-12.4853
जब	-12.4856
मोशन	-12.4859
▁Bar	-12.4861
▁विधिमान्य	-12.4863
▁हाथियों	-12.4864
▁वाक	-12.4865
▁पर्वतों	-12.4866
बाड़ी	-12.4867
▁जेवी	-12.487
▁एजेन्सी	-12.4871
▁पटियाला	-12.4871
▁हॉस्टल	-12.4871
▁मूत्राशय	-12.4871
▁मातृभाषा	-12.4871
▁Vill	-12.4871
▁सप्लाई	-12.4871
▁हुकुम	-12.4871
▁खिंचाव	-12.4871
▁that	-12.4872
▁पृथक्करण	-12.4872
▁समामेलित	-12.4873
▁फाड़	-12.4873
▁सफर	-12.4875
▁टॉवर	-12.4877
▁दुर	-12.4878
▁अध्या	-12.4879
▁इज	-12.488
▁आदी	-12.488
▁अपीली	-12.4881
▁मानकीकरण	-12.4882
▁शहद	-12.4882
▁छुपाने	-12.4883
▁सर्च	-12.4884
स्थापन	-12.4885
▁सुविधाएँ	-12.4885
गेट	-12.4886
▁आंसू	-12.4889
▁आरओ	-12.4891
▁बताएंग	-12.4892
▁पदेन	-12.4893
▁उतारने	-12.4895
▁महेन्द्र	-12.4898
्मो	-12.4898
▁सेठी	-12.4899
▁शेयर्स	-12.4901
ियाना	-12.4901
▁छपा	-12.4903
▁पोर	-12.4905
गं	-12.4909
▁मूर	-12.4911
CH	-12.4912
लॉजी	-12.4914
छी	-12.4916
रेस	-12.4922
▁कंधों	-12.4922
स्फीति	-12.4922
ash	-12.4923
ग्राह	-12.4923
▁appeal	-12.4923
▁उपसर्ग	-12.4923
▁पन्द्रह	-12.4923
▁बहरहाल	-12.4923
▁मिजोरम	-12.4923
▁मुकुंद	-12.4923
▁यूरेनियम	-12.4923
▁रिज़ॉल्यूशन	-12.4923
▁सम्मोहक	-12.4923
▁हजारीबाग	-12.4923
▁फाइबर	-12.4923
▁रिचर्ड	-12.4923
▁विनियोग	-12.4923
▁सन्देह	-12.4924
▁खयाल	-12.4924
▁अडिग	-12.4924
▁तन्	-12.4925
▁रोगाणु	-12.4925
▁बिताया	-12.4926
▁देखिये	-12.4927
▁प्रतिक्रियावादी	-12.4929
▁दर्शाई	-12.4929
▁संकुल	-12.493
▁सोनिया	-12.4931
▁सम्मानपूर्वक	-12.4931
डों	-12.4931
सराहा	-12.4932
▁लॉर्ड्स	-12.4935
▁जबतक	-12.4937
bu	-12.4937
▁नियमानुसार	-12.4937
ंय	-12.4937
▁सेटिंग्स	-12.4938
एसआर	-12.4938
▁फूड	-12.4939
आईडी	-12.4939
▁प्रभात	-12.494
PE	-12.4942
लीफ	-12.4945
▁आयत	-12.4946
पीड	-12.4946
▁अधिरचना	-12.4948
िष्ट	-12.4949
डियम	-12.4949
वर्स	-12.4951
▁हमलों	-12.4951
PO	-12.4953
▁जोग	-12.4956
▁संश्लेषण	-12.4956
मैट	-12.4957
▁नारा	-12.496
MM	-12.496
छेदन	-12.4963
राशि	-12.4964
ट्टू	-12.4964
▁लड़े	-12.4973
▁एसईजेड	-12.4975
▁क्षुब्ध	-12.4975
▁बर्दाश्त	-12.4975
▁लथपथ	-12.4975
▁साँचाः	-12.4975
▁मनोरंजक	-12.4975
▁आँकड़ा	-12.4976
▁हनीफ	-12.4976
▁एचपीसीएल	-12.4976
▁सेमिनार	-12.4977
▁हलचल	-12.4977
ईएम	-12.4977
कान	-12.4977
▁दीदी	-12.4978
▁गवर्न	-12.4987
उप	-12.4988
िकेशन	-12.4988
▁खडा	-12.499
तियों	-12.4992
▁बिठा	-12.4995
▁उपचारात्मक	-12.4995
▁ऐक्ट	-12.4997
▁गोलियों	-12.5002
केन्द्र	-12.5004
▁अभ	-12.5005
▁तौला	-12.5007
▁जुआ	-12.501
▁Ha	-12.501
▁बिछा	-12.5011
दंड	-12.5012
ेतर	-12.5012
▁अभय	-12.5015
▁परीक्षकों	-12.5021
पालिका	-12.5023
▁भरोसे	-12.5028
▁Madhuban	-12.5028
▁हकीकत	-12.5028
▁पीडित	-12.5028
▁कावेरी	-12.5028
ph	-12.5029
▁मज्जा	-12.5029
कंटक	-12.5029
ell	-12.5029
WA	-12.503
ग्रो	-12.503
▁लेंस	-12.5034
▁आसीन	-12.5035
▁एएम	-12.5036
▁बीए	-12.5039
▁आईटीआर	-12.5041
▁बहुतायत	-12.5041
▁धूम	-12.5042
ाहार	-12.5048
▁एग्ज	-12.5051
सेवक	-12.5052
०ग	-12.5053
स्वर	-12.5053
▁सन्यास	-12.5054
▁बहुल	-12.5057
▁उन्मुक्त	-12.506
▁डब	-12.5061
ुली	-12.5061
▁ख़ान	-12.5061
▁मॉँ	-12.5063
▁उल्	-12.5064
कर्मियों	-12.5067
▁जांचना	-12.507
af	-12.5071
▁सरन	-12.5073
्वि	-12.5075
एगी	-12.5077
▁अनेकों	-12.5079
एएस	-12.5079
▁ऋणात्मक	-12.5079
▁प्रत्या	-12.5079
▁लगन	-12.5079
▁तै	-12.508
▁चालुक्य	-12.5081
▁नैसर्गिक	-12.5081
▁प्रबुद्ध	-12.5081
▁बहिष्कृत	-12.5081
▁तपस्या	-12.5081
▁निराश्रित	-12.5081
▁डिविजन	-12.5081
▁लैटिन	-12.5081
▁बतला	-12.5081
▁स्वरयंत्र	-12.5081
▁कैथ	-12.5081
ीयता	-12.5083
▁किनारा	-12.5083
▁प्रतिभावान	-12.5083
▁गश्त	-12.5083
▁विभूति	-12.5084
▁प्रिंस	-12.5085
▁आरा	-12.5085
▁पुर्न	-12.5085
ाफ	-12.5086
▁अख	-12.5087
▁पैरवी	-12.5089
▁कौल	-12.5089
ोफ	-12.509
इर	-12.509
काम	-12.5091
▁भेजेगा	-12.5091
ेंज	-12.5093
माण	-12.5095
कन्द	-12.5096
▁विचारार्थ	-12.5096
▁रॉयल	-12.5097
▁Pr	-12.5098
वाहिनी	-12.51
▁आभारी	-12.5102
▁अवलंबी	-12.5104
ाधार	-12.5104
▁वक्ता	-12.5105
चिकित्सा	-12.5108
्पा	-12.5109
▁चारे	-12.511
▁तुरी	-12.511
▁छिड़क	-12.5114
वृत्ताकार	-12.5119
शाही	-12.5122
▁कमांडर	-12.5123
त्तम	-12.5131
फ्	-12.5131
▁विकिपीडिया	-12.5132
▁नाटककार	-12.5134
▁Tahsil	-12.5134
▁इंस्टॉल	-12.5134
▁देहरादून	-12.5134
▁वगैरह	-12.5134
▁श्रेणियां	-12.5134
▁सांविधानिक	-12.5134
▁उरांव	-12.5134
▁गद्दी	-12.5134
▁दंगों	-12.5134
▁ख़राब	-12.5134
▁परख	-12.5134
▁एकाएक	-12.5134
▁उपजाऊ	-12.5135
▁परमजीत	-12.5135
GERE	-12.5135
▁जन्मदिन	-12.5135
▁फॉर्मूल	-12.5137
▁लिट	-12.5138
▁सरिता	-12.5139
▁ऊना	-12.5139
्स्ट	-12.514
▁अधिकता	-12.5141
▁न्यायिकता	-12.5142
▁समन्वयक	-12.5143
▁मिलाने	-12.5149
▁मेक	-12.5149
▁पीएफ	-12.5149
▁प्यारे	-12.515
▁पुर्तगाली	-12.5151
▁उम	-12.5152
▁अनुवादक	-12.5155
▁मरण	-12.5157
मना	-12.5161
पुट	-12.5162
harma	-12.5163
▁एमएमटी	-12.5164
▁उधारकर्ताओं	-12.5173
▁अछूत	-12.5177
बै	-12.5178
▁वॉल	-12.5181
भास	-12.5182
▁लेबनान	-12.5182
▁कंट्रोलर	-12.5182
िफ़	-12.5187
▁जीवाश्म	-12.5188
▁बहुआयाम	-12.5188
▁श्रोणि	-12.5188
▁सुविचारित	-12.5188
▁गोधरा	-12.5188
▁अलंकृत	-12.5188
▁खिड़किय	-12.5188
▁रेगुलेशन	-12.5188
▁कीमियागर	-12.5188
▁अंतर्देशीय	-12.5188
▁नर्तक	-12.5188
▁डीलरशिप	-12.5188
▁टर्न	-12.5188
कण्ठ	-12.5188
शाद	-12.5189
▁गोलाकार	-12.519
▁अमूल्य	-12.519
▁बेहरा	-12.5191
▁पैमाना	-12.5192
▁निरीक्षकों	-12.5193
▁उकसा	-12.5196
▁उदयपुर	-12.5197
▁तर्कशीलता	-12.5197
▁चाक	-12.5197
▁देनदारी	-12.5197
▁खेले	-12.5199
थिक	-12.5202
डिट	-12.5203
▁सैन	-12.5203
▁खूबिय	-12.5204
▁रच	-12.5206
र्ति	-12.5208
▁व्यवहारिक	-12.5209
▁लोकपाल	-12.5209
▁he	-12.5212
▁कहलाते	-12.5212
▁विभक्त	-12.5219
▁रावल	-12.5219
़न	-12.5223
बीज	-12.5224
▁गड़बड़	-12.5224
if	-12.5225
▁सूज	-12.5226
log	-12.5227
eh	-12.5227
ात्मकता	-12.5229
▁गोंड	-12.5231
आरआई	-12.5232
▁कीर्तन	-12.5237
िनद्	-12.5238
▁जोज़े	-12.5239
▁टूर	-12.5241
▁अनेकानेक	-12.5241
▁तालिबान	-12.5241
▁दुर्दशा	-12.5241
▁शुभारंभ	-12.5241
▁पहुच	-12.5241
▁डब्ल्यूपीएनओ	-12.5241
▁नायिका	-12.5241
▁अधूरी	-12.5241
▁बन्दूक	-12.5241
▁वैल्यू	-12.5242
APPA	-12.5242
गुआ	-12.5242
जेड	-12.5242
▁पुनर्वित्त	-12.5242
▁पारेषण	-12.5243
▁संगीन	-12.5243
र्द्ध	-12.5243
▁देवघर	-12.5244
▁एनसीटीई	-12.5244
▁नट	-12.5245
ेंडर	-12.5246
दिष्ट	-12.5246
टीआर	-12.5247
▁पॉवर	-12.5248
▁उगाने	-12.5248
ria	-12.5249
▁विरूप	-12.5253
▁अविनाश	-12.5253
खार	-12.5255
▁उतरे	-12.5256
▁पाली	-12.5257
▁छुट	-12.5263
▁मेहराब	-12.5263
▁नरेन्द्र	-12.5263
▁साध्य	-12.5263
▁विजयी	-12.5265
्कि	-12.5266
▁काटकर	-12.5269
▁पाम	-12.527
ेद	-12.527
▁चूस	-12.5273
थित	-12.5276
विज्ञानी	-12.5279
▁एसडीओ	-12.5279
गोड	-12.528
▁पन्ना	-12.5281
▁बीवी	-12.5281
▁चीर	-12.5285
▁टीवीसी	-12.5289
▁आपातकाल	-12.5291
धारण	-12.5291
▁कार्यान्व	-12.5291
्कर	-12.5291
त्म	-12.5292
▁सचिवों	-12.5293
▁बहुपक्षीय	-12.5295
▁क्राउन	-12.5295
▁दृष्टांत	-12.5295
▁क्षितिज	-12.5295
▁अफीम	-12.5296
▁सूत्रकृमि	-12.5296
▁टेक्स्ट	-12.5296
▁मनोनीत	-12.5296
▁पायदान	-12.5296
▁श्रुति	-12.5296
▁बदतर	-12.5296
▁गिरोह	-12.5296
▁टाइटल	-12.5297
▁महारानी	-12.5297
▁सैकिया	-12.5297
▁सिंघल	-12.5297
▁सांग	-12.5299
▁प्रक्रमण	-12.53
▁उबर	-12.5301
▁लेश	-12.5302
▁कोतवाली	-12.5303
▁वाद्यों	-12.5303
▁टीचर	-12.5303
▁लौटाया	-12.5304
▁राजनयिक	-12.5306
▁मैटर	-12.5307
▁इंजीनियर्स	-12.5309
▁दीर्घा	-12.531
ax	-12.531
पर्व	-12.5311
▁फॉ	-12.5313
▁दूं	-12.5313
ब्यू	-12.5319
▁घटाना	-12.5319
▁एमटीएन	-12.532
स्टिक	-12.5321
▁उपनिवेशवाद	-12.5323
▁कऋ	-12.5325
▁मुर्गिय	-12.5325
▁आभा	-12.5327
▁रिप	-12.5328
▁आध	-12.5329
▁मजा	-12.5331
▁बंदोबस्त	-12.5333
SI	-12.5336
▁लिम	-12.5336
▁वीके	-12.5337
▁सुझा	-12.5337
ुलेशन	-12.5338
सेल	-12.5339
▁पड़ाव	-12.5339
▁शर्करा	-12.5339
ावधान	-12.534
सूची	-12.5341
▁हर्जान	-12.5341
▁विं	-12.5343
▁अड	-12.5345
▁पूछें	-12.5346
▁पक्षपाती	-12.5348
▁चतुर्	-12.5349
▁भण्डार	-12.5349
▁अनगिनत	-12.535
▁आयुर्विज्ञान	-12.535
▁मुलायम	-12.535
▁विक्टोरिया	-12.535
▁उज्ज्वल	-12.535
▁विखंडन	-12.535
▁सईद	-12.535
▁पशुधन	-12.5351
▁मनोमय	-12.5351
प्ले	-12.5351
▁उल्टे	-12.5351
▁प्रखण्ड	-12.5351
▁अनार	-12.5351
▁सस्ते	-12.5352
▁लालटेन	-12.5353
▁NOS	-12.5354
▁स्न	-12.5356
▁अनवरत	-12.5356
▁आवश्यकतानुसार	-12.5358
▁घेरा	-12.5365
▁ठग	-12.5365
▁जयदेव	-12.5367
ंदे	-12.5367
ग्ग	-12.537
▁जटिलताओं	-12.5377
▁धमका	-12.5379
रेटर	-12.5382
दाह	-12.5383
▁शह	-12.5387
▁पुर्तगाल	-12.5387
ati	-12.5388
▁बचाना	-12.539
▁जेजे	-12.5391
गर्त	-12.5392
सिद्ध	-12.5393
२ख	-12.5393
रेंस	-12.5394
sha	-12.5394
बूल	-12.5394
ाइज़	-12.5395
▁आत्मनिर्भर	-12.5397
▁पुनर्प्राप्त	-12.5398
▁वैश्व	-12.5401
ence	-12.5403
▁हथ	-12.5404
▁अब्राहम	-12.5404
▁अवांछनीय	-12.5404
▁अश्लील	-12.5404
▁ज्येष्ठ	-12.5404
▁बेगुनाही	-12.5404
▁मिठाई	-12.5404
▁राठौड़	-12.5404
▁डेमोक्रेट	-12.5404
▁सामयिक	-12.5404
▁द्योतक	-12.5405
▁नैगम	-12.5405
▁यत्न	-12.5405
लब्ध	-12.5405
▁भूभाग	-12.5405
मार्क	-12.5406
▁आरटीई	-12.5406
शास्त्री	-12.5406
ction	-12.5407
▁कर्नल	-12.5408
▁छुआ	-12.5408
▁END	-12.5408
▁मिड	-12.541
ान्तर	-12.5412
ata	-12.5412
▁पूर्णिया	-12.5417
▁बीके	-12.5419
▁राष्ट्रीयकृत	-12.5421
मेट्स	-12.5421
▁मोर्चा	-12.5423
▁नीर	-12.5423
▁पारिस्थितिक	-12.543
▁रोप	-12.543
▁Se	-12.5431
सेवा	-12.5433
▁सुखी	-12.5435
▁अंधा	-12.5437
▁आज़ाद	-12.5439
▁कल्प	-12.5442
▁ज़िम्मेदार	-12.5442
▁पीएमएल	-12.5445
▁प्रचारित	-12.5445
▁ढो	-12.5446
▁सम्म	-12.5448
ank	-12.5449
भ्रम	-12.545
कुम	-12.5453
▁द्रीय	-12.5453
▁ब्लड	-12.5458
[...]
