<unk>	0
<s>	0
</s>	0
UuRrLl	0
DdAaTtEe	0
NnUuMm	0
▁क	-0
▁स	-1
▁ह	-2
▁प	-3
▁म	-4
्र	-5
ार	-6
▁के	-7
▁अ	-8
▁व	-9
्य	-10
▁है	-11
ें	-12
▁ज	-13
▁न	-14
▁।	-15
ों	-16
▁ब	-17
या	-18
▁द	-19
▁,	-20
र्	-21
▁में	-22
ता	-23
▁उ	-24
ान	-25
▁ल	-26
▁र	-27
▁प्र	-28
िक	-29
▁की	-30
▁आ	-31
▁औ	-32
ने	-33
▁त	-34
▁कि	-35
▁कर	-36
्त	-37
▁और	-38
ित	-39
▁का	-40
▁को	-41
▁भ	-42
▁से	-43
ना	-44
▁ग	-45
▁इ	-46
▁वि	-47
▁पर	-48
▁.	-49
्व	-50
▁ए	-51
▁य	-52
▁हो	-53
▁सं	-54
▁श	-55
ाल	-56
िय	-57
▁-	-58
था	-59
िए	-60
्ष	-61
▁च	-62
▁इस	-63
ति	-64
्ट	-65
▁हैं	-66
▁एक	-67
्या	-68
▁सम	-69
ही	-70
न्	-71
▁जा	-72
ती	-73
▁लिए	-74
ाम	-75
ते	-76
ास	-77
▁नि	-78
के	-79
स्	-80
ड़	-81
त्र	-82
▁अप	-83
िया	-84
वा	-85
▁यह	-86
क्ष	-87
▁अध	-88
ोग	-89
▁अन	-90
से	-91
▁रा	-92
ां	-93
ेश	-94
हीं	-95
िल	-96
सी	-97
▁या	-98
▁)	-99
▁भी	-100
▁नहीं	-101
▁(	-102
▁ख	-103
ाह	-104
ारा	-105
कार	-106
नी	-107
री	-108
रा	-109
▁किया	-110
▁जो	-111
ष्ट	-112
क्त	-113
▁ने	-114
त्	-115
▁करने	-116
ाय	-117
िन	-118
का	-119
▁फ	-120
▁कार	-121
▁स्	-122
▁दे	-123
▁उस	-124
ंग	-125
▁उप	-126
▁सा	-127
▁थ	-128
िस	-129
द्	-130
ियों	-131
▁हम	-132
▁रह	-133
कर	-134
ाद	-135
ले	-136
▁मु	-137
▁सक	-138
▁तथा	-139
▁ध	-140
ाव	-141
ूप	-142
▁उन	-143
की	-144
▁था	-145
्री	-146
▁ही	-147
▁भार	-148
गा	-149
▁अनु	-150
ला	-151
ूर्	-152
▁हु	-153
ाने	-154
ंध	-155
्च	-156
▁सु	-157
▁द्व	-158
ंद	-159
ओं	-160
▁कु	-161
मा	-162
▁गया	-163
▁वह	-164
▁ले	-165
▁ऐ	-166
▁अधिक	-167
सा	-168
स्त	-169
वि	-170
▁ड	-171
▁स्व	-172
▁राज	-173
ाग	-174
द्ध	-175
▁आप	-176
ंत	-177
▁किसी	-178
ल्	-179
▁तो	-180
ारी	-181
▁रूप	-182
▁व्य	-183
▁द्वारा	-184
▁विश	-185
ैं	-186
म्	-187
▁निर्	-188
ाप	-189
ीन	-190
ोज	-191
▁कार्य	-192
न्ह	-193
िव	-194
बंध	-195
ंड	-196
ली	-197
▁अपने	-198
▁प्रति	-199
त्त	-200
ुर	-201
▁पह	-202
देश	-203
▁वाल	-204
▁वर्	-205
धार	-206
रे	-207
द्य	-208
▁मह	-209
▁ट	-210
▁वे	-211
ात	-212
भी	-213
▁घ	-214
▁चाह	-215
योग	-216
▁साथ	-217
▁छ	-218
▁जिस	-219
ार्	-220
रण	-221
▁कह	-222
▁न्या	-223
▁तक	-224
▁क्ष	-225
▁भारत	-226
ाना	-227
क्ति	-228
ंत्र	-229
जी	-230
में	-231
ारे	-232
िर	-233
▁स्थ	-234
क्र	-235
▁उन्ह	-236
कि	-237
▁राष्ट	-238
▁जाता	-239
▁सह	-240
दि	-241
▁अव	-242
ष्	-243
▁करना	-244
ियम	-245
ूल	-246
▁दो	-247
▁बह	-248
▁सर	-249
ाज	-250
ुत	-251
ृत	-252
चार	-253
▁मे	-254
▁थे	-255
िश	-256
▁'	-257
▁कुछ	-258
ढ़	-259
न्द	-260
गी	-261
ब्	-262
▁साम	-263
▁कोई	-264
नों	-265
▁थी	-266
▁सि	-267
▁सी	-268
▁/	-269
च्च	-270
▁पु	-271
▁मैं	-272
मान	-273
▁विक	-274
▁होता	-275
खा	-276
▁जी	-277
्ञ	-278
▁दिया	-279
्यों	-280
दा	-281
ीय	-282
ूर	-283
्रे	-284
▁सकता	-285
्छ	-286
स्थ	-287
▁जब	-288
ूर्ण	-289
ेत्र	-290
ाइ	-291
▁अभ	-292
▁;	-293
गे	-294
न्न	-295
िप	-296
ाप्त	-297
▁मान	-298
▁कम	-299
क्	-300
▁बी	-301
र्थ	-302
▁इन	-303
िका	-304
ये	-305
धि	-306
▁समय	-307
▁क्षेत्र	-308
▁न्याया	-309
▁संबंध	-310
▁मिल	-311
ाध	-312
▁करते	-313
ंच	-314
दी	-315
▁जै	-316
▁हुए	-317
▁बना	-318
कों	-319
▁करता	-320
▁अंत	-321
▁अन्य	-322
▁सू	-323
▁सरकार	-324
र्म	-325
वे	-326
च्छ	-327
▁पू	-328
▁लोग	-329
▁राष्ट्र	-330
भाव	-331
▁जाए	-332
िम	-333
स्था	-334
ेष	-335
वन	-336
▁अपनी	-337
▁उत्	-338
▁देश	-339
▁पा	-340
क्षा	-341
▁राज्य	-342
▁चाहिए	-343
्रीय	-344
ोट	-345
ोक	-346
▁तर	-347
त्य	-348
▁परि	-349
दान	-350
▁रहे	-351
लय	-352
▁रख	-353
▁विश्व	-354
▁:	-355
▁उनके	-356
▁वर्ष	-357
▁रहा	-358
▁गु	-359
ज्ञ	-360
ूर्व	-361
धान	-362
चना	-363
▁सम्	-364
▁बहुत	-365
ाई	-366
को	-367
▁?	-368
▁होने	-369
▁गई	-370
र्श	-371
▁वाले	-372
▁ओ	-373
▁पी	-374
▁हि	-375
▁बाद	-376
तीय	-377
ूस	-378
▁बात	-379
▁प्राप्त	-380
▁करें	-381
िक्ष	-382
▁दी	-383
श्य	-384
▁कहा	-385
▁विभ	-386
नि	-387
▁बन	-388
ौर	-389
करण	-390
गर	-391
▁सभी	-392
जा	-393
ेल	-394
▁जाने	-395
वं	-396
ुल	-397
▁प्रकार	-398
पति	-399
्ल	-400
▁उसके	-401
▁सब	-402
ुक्त	-403
▁न्यायालय	-404
▁ऊ	-405
ानी	-406
▁आय	-407
ोंने	-408
ज़	-409
िख	-410
ोध	-411
िति	-412
▁ऐसे	-413
▁होती	-414
ालय	-415
एं	-416
▁व्यक्ति	-417
▁आव	-418
ड़ी	-419
▁भारतीय	-420
▁देख	-421
▁चु	-422
▁कारण	-423
ंप	-424
स्ता	-425
िट	-426
▁लग	-427
ोल	-428
पूर्ण	-429
श्च	-430
▁अधिन	-431
▁प्रश	-432
▁तरह	-433
त्म	-434
▁जन	-435
ाँ	-436
▁होगा	-437
▁जि	-438
▁हुआ	-439
ग्र	-440
भा	-441
▁विकास	-442
ड़ा	-443
▁गए	-444
र्त	-445
▁व्या	-446
द्योग	-447
▁इसके	-448
▁क्र	-449
▁राष्ट्रपति	-450
▁पूर्व	-451
▁एवं	-452
▁उसे	-453
▁अधिनियम	-454
ड़े	-455
▁अनुस	-456
▁सकते	-457
▁उत्प	-458
▁किए	-459
र्व	-460
मी	-461
▁श्री	-462
▁माम	-463
▁उन्हें	-464
जन	-465
ंब	-466
रिक	-467
▁भाग	-468
▁उन्होंने	-469
▁ला	-470
▁ग्र	-471
▁मूल	-472
▁आर	-473
▁नी	-474
गत	-475
▁यदि	-476
▁क्या	-477
▁धारा	-478
िये	-479
ंक	-480
▁दूस	-481
▁दु	-482
▁अस	-483
▁काम	-484
▁पहले	-485
तिक	-486
▁नाम	-487
किन	-488
▁स्थान	-489
▁उच्च	-490
तर	-491
▁जान	-492
वाद	-493
ोजना	-494
▁बि	-495
▁विचार	-496
त्व	-497
▁लेकिन	-498
्यू	-499
क्रम	-500
▁ऐसा	-501
▁विशेष	-502
▁ता	-503
▁जह	-504
मे	-505
माण	-506
धी	-507
▁हू	-508
▁सद	-509
वी	-510
▁ई	-511
▁परिव	-512
ुद्ध	-513
▁मुख	-514
ाली	-515
ास्त	-516
चित	-517
िता	-518
न्त	-519
झे	-520
टी	-521
वल	-522
्ड	-523
श्यक	-524
िला	-525
▁स्त	-526
▁जाती	-527
ोर	-528
▁ऐसी	-529
वर्	-530
कृत	-531
▁आधार	-532
ष्ठ	-533
▁बढ़	-534
▁लोगों	-535
▁अब	-536
ूम	-537
ोप	-538
सर	-539
▁पै	-540
▁बे	-541
िंग	-542
▁अधिकार	-543
▁स्था	-544
ील	-545
▁निय	-546
▁निक	-547
▁बारे	-548
▁हमारे	-549
▁जीवन	-550
▁ये	-551
्स	-552
▁आवश्यक	-553
▁सेवा	-554
यी	-555
▁वै	-556
षण	-557
▁उनकी	-558
ोर्	-559
ियां	-560
▁अधीन	-561
▁भा	-562
▁उत्त	-563
▁प्रभाव	-564
▁शिक्ष	-565
▁जैसे	-566
▁समझ	-567
ुप	-568
द्र	-569
▁तु	-570
टर	-571
क्षण	-572
प्र	-573
▁होते	-574
बर	-575
लों	-576
▁मन	-577
िन्न	-578
निक	-579
▁उपयोग	-580
▁बार	-581
▁हुई	-582
▁व्यव	-583
▁दिन	-584
पर	-585
▁मुझे	-586
▁ओर	-587
▁केवल	-588
▁क्यों	-589
ार्थ	-590
ची	-591
कृ	-592
▁कृ	-593
▁फिर	-594
ेत	-595
ेद	-596
ल्प	-597
▁जाना	-598
▁अल	-599
ख्या	-600
टा	-601
▁रही	-602
▁ठ	-603
क्रिया	-604
ेक	-605
▁अथ	-606
▁प्रयोग	-607
षा	-608
▁जिन	-609
▁बीच	-610
▁बाह	-611
▁प्रदान	-612
ंभ	-613
▁चल	-614
कारी	-615
वाह	-616
्म	-617
ताओं	-618
ून	-619
▁सहाय	-620
▁प्रा	-621
▁मा	-622
▁ढ	-623
रों	-624
दार	-625
विध	-626
मु	-627
▁पार	-628
▁विर	-629
▁पास	-630
▁दृ	-631
▁प्रत्य	-632
▁पुर	-633
▁सो	-634
▁देने	-635
▁अथवा	-636
▁हों	-637
कर्	-638
तः	-639
यन	-640
तम	-641
ज्ञान	-642
्न	-643
▁लोक	-644
▁वाली	-645
▁“	-646
▁कंप	-647
▁उत्पाद	-648
▁प्रक्रिया	-649
ब्द	-650
हार	-651
▁जिसमें	-652
▁स्प	-653
▁कै	-654
▁निर्धार	-655
फल	-656
▁अपना	-657
▁जहां	-658
शन	-659
दर्श	-660
धिक	-661
▁उपल	-662
भव	-663
▁ब्र	-664
▁दोनों	-665
ित्र	-666
चा	-667
▁न्याय	-668
▁सकती	-669
▁राष्ट्रीय	-670
▁s	-671
त्ता	-672
▁लगा	-673
ुक	-674
स्ट	-675
▁इसे	-676
णी	-677
▁उपलब्	-678
ांत	-679
▁झ	-680
ोह	-681
▁करती	-682
▁प्रस	-683
▁आज	-684
▁निर	-685
पित	-686
▁व्याप	-687
▁तब	-688
▁पश्च	-689
त्मक	-690
▁विधि	-691
ेज	-692
▁होना	-693
▁पुन	-694
▁महत्व	-695
▁बैं	-696
▁उसकी	-697
व्य	-698
▁हर	-699
▁पहु	-700
▁बद	-701
▁योजना	-702
द्योगिक	-703
▁विष	-704
फ़	-705
▁संग	-706
▁प्रण	-707
▁सदस	-708
▁सके	-709
▁%	-710
▁ऑ	-711
पी	-712
▁सामान	-713
ूत	-714
दाय	-715
युक्त	-716
▁करे	-717
▁मौ	-718
▁पद	-719
ोड़	-720
▁अर्थ	-721
▁लिया	-722
▁पत्र	-723
▁प्रे	-724
▁सबसे	-725
▁वृ	-726
बी	-727
▁अच्छ	-728
चे	-729
▁मुख्य	-730
▁उपलब्ध	-731
▁बै	-732
ंज	-733
▁फ़	-734
▁वित	-735
▁क्योंकि	-736
▁अर्	-737
ण्ड	-738
▁शिक्षा	-739
▁ना	-740
▁स्ट	-741
मिक	-742
ेय	-743
न्द्र	-744
▁संप	-745
▁हमें	-746
▁अंतर	-747
▁शुर	-748
ामी	-749
▁जाते	-750
ंतु	-751
▁सूचना	-752
▁संबंधित	-753
त्रा	-754
▁छोट	-755
ंह	-756
▁उद्	-757
▁बच्च	-758
श्व	-759
▁नियम	-760
▁हूं	-761
ेट	-762
▁जर	-763
ोजन	-764
ाध्य	-765
िज	-766
▁स्थिति	-767
▁वा	-768
दन	-769
▁निव	-770
▁अंग	-771
▁दौर	-772
▁केंद	-773
▁लाग	-774
▁कभी	-775
▁उत्तर	-776
▁अति	-777
▁खु	-778
▁लिख	-779
▁मध	-780
▁वस्त	-781
▁प्रव	-782
कृति	-783
िखा	-784
िल्	-785
▁शब्द	-786
▁एस	-787
▁अध्य	-788
▁विषय	-789
▁योग	-790
▁सुर	-791
वरण	-792
▁अनुसार	-793
्यान	-794
▁तै	-795
▁जु	-796
तंत्र	-797
▁शाम	-798
र्क	-799
ासन	-800
ष्टि	-801
ित्व	-802
▁इसल	-803
▁मै	-804
▁उठ	-805
▁सहायता	-806
ाला	-807
▁वास्त	-808
▁सर्व	-809
▁0	-810
▁कई	-811
िस्ट	-812
▁यु	-813
डी	-814
▁शक्ति	-815
▁लिये	-816
काश	-817
स्थान	-818
▁विन	-819
▁भूम	-820
▁व्यक्त	-821
क्ट	-822
▁ऋ	-823
त्ति	-824
▁विभिन्न	-825
शा	-826
▁जाएगा	-827
▁मामले	-828
▁मंत्र	-829
रूप	-830
▁दूसरे	-831
▁अगर	-832
▁सामान्य	-833
▁अलग	-834
फी	-835
ंट	-836
ास्	-837
▁संघ	-838
▁स्वी	-839
▁आई	-840
मत	-841
ांग	-842
दे	-843
▁भाषा	-844
▁इत	-845
धन	-846
▁इसलिए	-847
▁दौरान	-848
▁लाभ	-849
▁उसका	-850
▁उनका	-851
हर	-852
मुख	-853
▁बु	-854
ारों	-855
▁अने	-856
नल	-857
▁ज्ञ	-858
▁जल	-859
▁इसका	-860
▁पूर्ण	-861
▁संख्या	-862
▁>	-863
▁सुन	-864
▁कान	-865
▁वाला	-866
▁"	-867
▁विद्य	-868
▁बा	-869
ोड	-870
ंजी	-871
▁साह	-872
▁पक्ष	-873
▁शामिल	-874
▁भाव	-875
▁&	-876
गम	-877
काल	-878
वान	-879
ाधिक	-880
▁तैय	-881
▁वास्तव	-882
▁अनेक	-883
ूह	-884
▁उसने	-885
▁संस	-886
▁समु	-887
▁अवसर	-888
र्तन	-889
्यु	-890
म्ब	-891
टना	-892
▁हा	-893
▁उद	-894
ाइल	-895
ेड	-896
▁दर	-897
ुष	-898
मार	-899
▁गये	-900
▁विध	-901
▁कल	-902
▁तीन	-903
ोर्ट	-904
▁माध्य	-905
▁पहुंच	-906
▁अं	-907
▁उपबंध	-908
नीय	-909
िष्ट	-910
▁गां	-911
▁रुप	-912
ुट	-913
स्व	-914
▁आदि	-915
यं	-916
▁बता	-917
▁सिद्ध	-918
▁जिसे	-919
ेंगे	-920
▁दूर	-921
▁प्रत्येक	-922
▁पृ	-923
▁निर्माण	-924
▁प्रौ	-925
▁मानव	-926
न्तु	-927
शत	-928
▁प्रया	-929
स्थित	-930
▁समाज	-931
ोन	-932
▁उद्योग	-933
र्इ	-934
कट	-935
▁प्रय	-936
▁संर	-937
▁यहां	-938
थ्य	-939
▁भर	-940
पाल	-941
▁धर्म	-942
▁वित्त	-943
सल	-944
▁कार्यक्रम	-945
प्त	-946
▁बनाने	-947
▁ध्यान	-948
ूट	-949
▁मध्य	-950
▁संस्था	-951
क्षित	-952
▁संस्	-953
▁होगी	-954
▁नई	-955
▁बैंक	-956
▁स्पष्ट	-957
▁संवि	-958
र्ष	-959
▁महत्वपूर्ण	-960
▁मत	-961
▁आपको	-962
▁सिंह	-963
म्प	-964
▁अग	-965
▁आर्थ	-966
▁तैयार	-967
▁विदेश	-968
▁रोग	-969
ग्रह	-970
▁ची	-971
▁प्रयास	-972
ंस	-973
▁स्तर	-974
▁अंतर्	-975
▁जिसके	-976
एस	-977
▁पि	-978
▁सार	-979
▁हेत	-980
▁वस्तु	-981
▁पड़	-982
वादी	-983
▁बिना	-984
णय	-985
▁आदेश	-986
▁विभाग	-987
▁‘	-988
▁शुरू	-989
▁बाहर	-990
न्ध	-991
▁पता	-992
▁आर्थिक	-993
▁शु	-994
▁समान	-995
▁बदल	-996
▁हमारी	-997
▁प्रतिशत	-998
▁देता	-999
▁राम	-1000
▁गुण	-1001
▁आध	-1002
▁श्र	-1003
▁जनता	-1004
ोष	-1005
▁मृत	-1006
▁प्रौद्योगिक	-1007
निया	-1008
▁हेतु	-1009
स्या	-1010
तन	-1011
▁#	-1012
▁प्रार	-1013
▁ली	-1014
▁कर्म	-1015
▁शी	-1016
▁लेख	-1017
▁अन्त	-1018
स्प	-1019
▁माल	-1020
▁संस्थान	-1021
इट	-1022
▁परिण	-1023
▁सौ	-1024
▁हिन्द	-1025
▁इससे	-1026
ारण	-1027
▁सां	-1028
▁”	-1029
ठन	-1030
▁प्रो	-1031
▁आगे	-1032
शि	-1033
मित	-1034
▁चि	-1035
्टी	-1036
ूर्ति	-1037
▁मार्	-1038
▁खा	-1039
▁करके	-1040
▁गति	-1041
▁आवश्यकता	-1042
पन	-1043
▁a	-1044
▁मज	-1045
▁वी	-1046
▁बल्	-1047
धारण	-1048
▁पर्या	-1049
ेन	-1050
▁देना	-1051
▁निर्धारित	-1052
धारा	-1053
तों	-1054
धीश	-1055
▁खंड	-1056
▁समस्या	-1057
▁तुम	-1058
▁वहां	-1059
षि	-1060
ेशन	-1061
त्या	-1062
▁हाल	-1063
▁डा	-1064
▁प्रमुख	-1065
▁इसी	-1066
▁प्रकाश	-1067
▁i	-1068
्यता	-1069
▁क्षेत्रों	-1070
▁इसमें	-1071
▁रिप	-1072
▁नियंत्र	-1073
▁विस्त	-1074
▁स्क	-1075
▁लागू	-1076
▁निर्णय	-1077
▁उल्	-1078
▁विश्वास	-1079
▁निम्	-1080
▁कंपनी	-1081
र्भ	-1082
मता	-1083
▁स्वयं	-1084
हास	-1085
▁ती	-1086
▁उद्देश	-1087
▁गयी	-1088
▁नीति	-1089
ाजिक	-1090
शी	-1091
ालन	-1092
▁गो	-1093
▁जारी	-1094
▁आस	-1095
द्धि	-1096
▁पूरी	-1097
▁सामाजिक	-1098
▁ज़	-1099
दिष्ट	-1100
▁प्रबंध	-1101
ंदर	-1102
▁आपके	-1103
द्यालय	-1104
▁प्रस्त	-1105
▁प्रणाली	-1106
▁यू	-1107
▁मेरे	-1108
▁काफी	-1109
ूरी	-1110
्रा	-1111
▁प्रस्ता	-1112
िश्च	-1113
▁स्वतंत्र	-1114
▁परिणाम	-1115
टक	-1116
▁मी	-1117
▁सुधार	-1118
▁आया	-1119
साय	-1120
▁सीमा	-1121
▁आयोग	-1122
ियन	-1123
▁पूरा	-1124
ासी	-1125
▁प्रौद्योगिकी	-1126
न्म	-1127
▁अपे	-1128
▁गै	-1129
हत	-1130
च्छेद	-1131
▁कवि	-1132
▁प्राधिक	-1133
ूद	-1134
▁समूह	-1135
ियो	-1136
▁घर	-1137
ॉल	-1138
▁हिंद	-1139
▁न्यायाधीश	-1140
तिहास	-1141
भग	-1142
▁मद	-1143
▁ज्ञान	-1144
पि	-1145
▁प्रस्ताव	-1146
▁माध्यम	-1147
▁ऋण	-1148
▁दिखा	-1149
▁बैठ	-1150
▁स्थापित	-1151
चन	-1152
▁भवन	-1153
एँ	-1154
▁व्यवस्था	-1155
▁अम	-1156
▁मूल्य	-1157
बद्ध	-1158
सं	-1159
▁स्वीकार	-1160
▁लगभग	-1161
▁टी	-1162
▁मामलों	-1163
▁हाथ	-1164
वेदन	-1165
क्ष्य	-1166
▁क्रिया	-1167
ष्ण	-1168
▁वर्ग	-1169
विद्यालय	-1170
▁कठ	-1171
▁रिपोर्ट	-1172
▁पुस्त	-1173
▁दक्ष	-1174
विधा	-1175
▁सर्	-1176
▁सम्म	-1177
▁आम	-1178
▁सदस्य	-1179
▁जैसा	-1180
▁विश्वविद्यालय	-1181
▁हूँ	-1182
शोध	-1183
ेर	-1184
▁सूची	-1185
▁सभा	-1186
▁अपरा	-1187
▁अधिकारी	-1188
▁केंद्र	-1189
द्व	-1190
▁गण	-1191
▁जानकारी	-1192
▁मैंने	-1193
ीक	-1194
▁अवधि	-1195
▁सुरक्षा	-1196
▁श्रे	-1197
ुग	-1198
▁सहयोग	-1199
▁निष्	-1200
▁कृषि	-1201
हित	-1202
ाया	-1203
वाई	-1204
▁कौ	-1205
क्ता	-1206
▁बड़ी	-1207
▁अर	-1208
▁मृत्यु	-1209
लेख	-1210
▁फै	-1211
▁!	-1212
▁संविधान	-1213
तान	-1214
▁रंग	-1215
▁नाग	-1216
्ले	-1217
▁अत्य	-1218
▁दर्श	-1219
▁एन	-1220
▁सफल	-1221
▁पं	-1222
▁डि	-1223
▁बाल	-1224
▁किस	-1225
आई	-1226
▁डी	-1227
▁समाप्त	-1228
▁देशों	-1229
ोस	-1230
निर्	-1231
ान्त	-1232
▁धन	-1233
▁काल	-1234
▁त्र	-1235
▁चिक	-1236
▁अमे	-1237
▁परी	-1238
▁स्थित	-1239
▁विज्ञान	-1240
▁व्यापार	-1241
▁डे	-1242
▁जिन्ह	-1243
ित्य	-1244
▁कुल	-1245
▁इसकी	-1246
शील	-1247
▁शरी	-1248
▁बाज	-1249
▁अभी	-1250
▁जिससे	-1251
▁जिसका	-1252
▁संबंधी	-1253
त्स	-1254
▁परिवर्तन	-1255
▁समर्थ	-1256
▁समिति	-1257
्यादा	-1258
स्तान	-1259
▁रखने	-1260
▁ठीक	-1261
पना	-1262
▁जग	-1263
▁कोश	-1264
▁देते	-1265
पुर	-1266
▁तरी	-1267
▁उत्पादन	-1268
ात्	-1269
▁आन	-1270
▁महिला	-1271
ोषण	-1272
▁संसद	-1273
▁सुविधा	-1274
▁अतिरिक	-1275
▁शै	-1276
▁छोड़	-1277
▁विशिष्ट	-1278
▁पिछ	-1279
▁परिय	-1280
▁अंतर्गत	-1281
वाल	-1282
ांति	-1283
▁लड़	-1284
राज	-1285
▁प्रस्तुत	-1286
▁उपधारा	-1287
▁जाये	-1288
▁परियोजना	-1289
टन	-1290
ोब	-1291
▁बड़े	-1292
वर	-1293
▁उद्देश्य	-1294
क्स	-1295
भार	-1296
▁अनुम	-1297
▁रे	-1298
▁ऊपर	-1299
▁मंद	-1300
▁<	-1301
▁प्रदेश	-1302
▁बल	-1303
थम	-1304
सित	-1305
▁संशोध	-1306
▁चार	-1307
▁बल्कि	-1308
▁रखा	-1309
प्	-1310
रित	-1311
▁निश्च	-1312
▁राशि	-1313
हरा	-1314
▁साल	-1315
िखित	-1316
हन	-1317
▁शिक	-1318
▁चिकित	-1319
▁स्वास्	-1320
▁अंग्रे	-1321
यर	-1322
▁मेरी	-1323
▁शरीर	-1324
▁चाहते	-1325
▁पां	-1326
तियों	-1327
िल्ली	-1328
▁संक	-1329
▁सच	-1330
ष्ट्रीय	-1331
क़	-1332
बा	-1333
▁चौ	-1334
▁अतिरिक्त	-1335
▁बच	-1336
▁आद	-1337
ण्	-1338
दारी	-1339
ुओं	-1340
▁आने	-1341
▁अभि	-1342
▁डाल	-1343
▁क्षमता	-1344
चान	-1345
▁सै	-1346
▁वर्त	-1347
▁सही	-1348
▁जीव	-1349
▁प्रमाण	-1350
▁एम	-1351
▁वेब	-1352
ंधान	-1353
ीकरण	-1354
▁स्वास्थ्य	-1355
▁निर्देश	-1356
▁पश्चिम	-1357
▁पाठ	-1358
▁अनुच्छेद	-1359
▁देखा	-1360
▁अप्र	-1361
▁कॉ	-1362
▁इं	-1363
▁संद	-1364
▁सामने	-1365
▁रु	-1366
▁मार्ग	-1367
▁यहाँ	-1368
▁अपराध	-1369
▁नीचे	-1370
ाहरण	-1371
▁मार	-1372
्रो	-1373
▁आरंभ	-1374
▁दृष्टि	-1375
▁युद्ध	-1376
ंगा	-1377
▁कहते	-1378
▁अपील	-1379
कृतिक	-1380
▁वर्ण	-1381
कर्ता	-1382
▁सम्ब	-1383
▁उदाहरण	-1384
▁प्रश्न	-1385
▁प्रदर्श	-1386
▁अनुसंधान	-1387
▁प्रशिक्ष	-1388
▁अनुभव	-1389
▁यात्रा	-1390
▁वर्षों	-1391
▁लेने	-1392
▁पुल	-1393
र्स	-1394
जे	-1395
▁परंतु	-1396
▁जरूर	-1397
यों	-1398
▁साहित्य	-1399
▁लंब	-1400
▁निवेश	-1401
▁वर्तमान	-1402
▁पानी	-1403
▁दक्षि	-1404
ानों	-1405
▁संयुक्त	-1406
जों	-1407
पत्र	-1408
▁महान	-1409
▁दिए	-1410
ँच	-1411
म्ह	-1412
▁बंग	-1413
▁छोटे	-1414
▁पढ़	-1415
ादी	-1416
श्	-1417
▁विदेशी	-1418
▁विवाह	-1419
▁राजनी	-1420
रल	-1421
▁निर्धारण	-1422
िश्चित	-1423
लो	-1424
आर	-1425
तिम	-1426
▁उसी	-1427
दम	-1428
▁करेगा	-1429
ेंट	-1430
▁चला	-1431
▁रचना	-1432
▁नियंत्रण	-1433
भर	-1434
ेम	-1435
लाह	-1436
▁थीं	-1437
▁दिव	-1438
डा	-1439
▁उससे	-1440
▁व्यक्तियों	-1441
▁दंड	-1442
▁बनाम	-1443
▁बच्चों	-1444
▁कट	-1445
ोर्ड	-1446
▁कोर्इ	-1447
▁सरकारी	-1448
▁प्रधान	-1449
▁भीतर	-1450
▁प्रती	-1451
▁होंगे	-1452
जरा	-1453
▁परन्तु	-1454
▁संच	-1455
▁प्रथम	-1456
▁बड़ा	-1457
▁आधारित	-1458
नाथ	-1459
▁भू	-1460
▁रहने	-1461
▁शा	-1462
▁सार्व	-1463
पट	-1464
▁रो	-1465
▁तौर	-1466
▁भूमि	-1467
▁उद्य	-1468
वार	-1469
▁बहु	-1470
▁पीछ	-1471
्रेस	-1472
▁उच्चतम	-1473
ेप	-1474
▁बस	-1475
▁कला	-1476
▁हिस्	-1477
▁चुन	-1478
▁अध्या	-1479
▁मंदिर	-1480
▁तुम्ह	-1481
▁A	-1482
▁लाख	-1483
▁संभव	-1484
▁इतिहास	-1485
er	-1486
▁नही	-1487
कता	-1488
▁आश	-1489
▁खोज	-1490
▁रहते	-1491
्यास	-1492
▁जमा	-1493
जर	-1494
▁यही	-1495
▁लगता	-1496
▁अपेक्षा	-1497
▁प्रेम	-1498
र्ण	-1499
▁ज्यादा	-1500
▁मांग	-1501
▁वाप	-1502
▁वृद्धि	-1503
▁जांच	-1504
▁दिश	-1505
▁वित्तीय	-1506
▁प्रारंभ	-1507
▁विरोध	-1508
▁दूसरी	-1509
▁अग्र	-1510
▁इस्ल	-1511
▁जन्म	-1512
▁विकसित	-1513
▁ट्र	-1514
ष्य	-1515
ावा	-1516
▁नए	-1517
▁कमी	-1518
▁दिल्ली	-1519
र्जी	-1520
▁अंतिम	-1521
▁अध्ययन	-1522
▁गांधी	-1523
▁संसा	-1524
▁घटना	-1525
▁कांग	-1526
ग्री	-1527
चल	-1528
▁मदद	-1529
द्द	-1530
शल	-1531
▁करेंगे	-1532
यां	-1533
र्द	-1534
▁पैदा	-1535
्ष्	-1536
▁प्रकृति	-1537
रि	-1538
श्छ	-1539
▁स्थापना	-1540
ंख	-1541
ार्ड	-1542
▁विंड	-1543
जूद	-1544
▁उत्पन्न	-1545
▁चित्र	-1546
▁विधान	-1547
▁प्रग	-1548
▁विस्तार	-1549
▁पुस्तक	-1550
▁ऊण्	-1551
श्छ्ष्	-1552
▁ऊण्श्छ्ष्	-1553
▁पेश	-1554
▁राय	-1555
▁एक्स	-1556
▁याद	-1557
▁लेकर	-1558
▁संभाव	-1559
▁पे	-1560
▁किंतु	-1561
▁भूमिका	-1562
▁कैसे	-1563
▁आवेदन	-1564
▁विवरण	-1565
वीं	-1566
ोजित	-1567
▁सदस्यों	-1568
▁संत	-1569
▁अह	-1570
▁ते	-1571
▁न्यू	-1572
र्जा	-1573
▁संदेश	-1574
▁राज्यों	-1575
▁मिला	-1576
▁पुलिस	-1577
▁किये	-1578
ांश	-1579
▁बंद	-1580
▁पुनः	-1581
क्षम	-1582
▁दाय	-1583
▁हमने	-1584
▁रोक	-1585
▁बरा	-1586
▁नागरिक	-1587
बल	-1588
▁मुद्र	-1589
▁भावना	-1590
▁वाय	-1591
भूत	-1592
ल्क	-1593
▁स्वतंत्रता	-1594
▁मात्रा	-1595
▁आत्म	-1596
▁गिर	-1597
▁हित	-1598
▁परिवार	-1599
्रम	-1600
ुस	-1601
▁नौ	-1602
▁उल्लेख	-1603
िले	-1604
▁कानून	-1605
िना	-1606
▁प्रतिक	-1607
र्च	-1608
▁माना	-1609
▁विनिर्	-1610
▁पौ	-1611
▁तकनी	-1612
तार	-1613
▁इंड	-1614
▁बाहरी	-1615
▁शासन	-1616
लू	-1617
्वी	-1618
▁तंत्र	-1619
र्ग	-1620
पूर्व	-1621
▁अध्यक्ष	-1622
▁संगठन	-1623
▁दिशा	-1624
साइट	-1625
▁बाजार	-1626
नाव	-1627
▁विप	-1628
▁नव	-1629
▁मंत्रालय	-1630
▁देव	-1631
▁सहित	-1632
▁भुग	-1633
▁भेज	-1634
ायत	-1635
▁बनाया	-1636
▁चिकित्	-1637
▁फिल	-1638
गार	-1639
▁भिन्न	-1640
▁पृष्ठ	-1641
▁डॉ	-1642
▁आत	-1643
▁मिश	-1644
▁बिल	-1645
▁धी	-1646
▁उचित	-1647
ैंड	-1648
▁जाय	-1649
▁प्रशिक्षण	-1650
र्य	-1651
▁अच्छी	-1652
▁निदेश	-1653
▁दक्षिण	-1654
▁सिद्धांत	-1655
षित	-1656
▁ब्रिट	-1657
▁प्रगति	-1658
▁सुनिश्चित	-1659
▁ताकि	-1660
▁अच्छा	-1661
▁बो	-1662
▁केन्द्र	-1663
कल	-1664
पाद	-1665
▁भुगतान	-1666
स्थिति	-1667
▁बनाए	-1668
▁पिता	-1669
धा	-1670
ेंस	-1671
▁वाद	-1672
▁टे	-1673
▁अर्था	-1674
▁गल	-1675
▁चे	-1676
▁राजा	-1677
ाइन	-1678
▁स्थानीय	-1679
▁बीमा	-1680
▁मां	-1681
▁पट	-1682
ूं	-1683
▁जोड़	-1684
ंडल	-1685
▁रहता	-1686
▁जाएगी	-1687
त्त्व	-1688
र्फ	-1689
▁सत्ता	-1690
▁सोच	-1691
ुनिक	-1692
▁जबकि	-1693
▁दुनिया	-1694
▁परिष	-1695
▁खुल	-1696
▁खेल	-1697
भू	-1698
ंबर	-1699
भाग	-1700
्रिय	-1701
▁विरुद्ध	-1702
▁संशोधन	-1703
रिका	-1704
▁उसमें	-1705
▁इस्त	-1706
▁कांग्रेस	-1707
डर	-1708
▁तहत	-1709
▁सत	-1710
▁पहचान	-1711
▁वास्तविक	-1712
▁प्रबंधन	-1713
▁तुल	-1714
▁कित	-1715
▁बोर्ड	-1716
ज्ञानिक	-1717
▁होकर	-1718
▁श्रेणी	-1719
पा	-1720
ैतिक	-1721
▁क्ल	-1722
जनिक	-1723
▁स्कूल	-1724
▁लक्ष्य	-1725
▁निर्दिष्ट	-1726
▁मुसल	-1727
ियाँ	-1728
मन	-1729
त्मा	-1730
▁जगह	-1731
▁व्यापक	-1732
डे	-1733
▁बराबर	-1734
स्क	-1735
▁केंद्रीय	-1736
श्वर	-1737
▁उनमें	-1738
्टर	-1739
▁सार्वजनिक	-1740
कम	-1741
▁सेना	-1742
र्ज	-1743
▁अमेरिका	-1744
▁पीछे	-1745
▁अला	-1746
बू	-1747
▁व्यवहार	-1748
▁बच्चे	-1749
▁पत्	-1750
▁मुसलमान	-1751
▁प्रभावित	-1752
वास	-1753
▁मनुष	-1754
्यात	-1755
▁वेबसाइट	-1756
ज्	-1757
▁पर्याप्त	-1758
▁बेह	-1759
▁अफ	-1760
▁जिला	-1761
▁आकार	-1762
बार	-1763
▁क्रम	-1764
▁आधुनिक	-1765
▁गुर	-1766
▁दिनों	-1767
ंथ	-1768
नलिखित	-1769
्यूटर	-1770
▁सत्य	-1771
र्चा	-1772
फार	-1773
ाधान	-1774
▁पश्चात्	-1775
्प	-1776
▁लगे	-1777
▁मि	-1778
ंसा	-1779
▁रू	-1780
▁उपकरण	-1781
ांक	-1782
▁पूंजी	-1783
ायद	-1784
▁चाहिये	-1785
▁निम्नलिखित	-1786
▁जरूरत	-1787
▁प्रवेश	-1788
क्रमण	-1789
▁पिछले	-1790
िवार	-1791
▁प्राय	-1792
▁आतंक	-1793
▁भवि	-1794
ौती	-1795
दय	-1796
▁गैर	-1797
एम	-1798
ामीण	-1799
ल्पना	-1800
▁रोज	-1801
ड़ों	-1802
वरी	-1803
भीर	-1804
▁पहली	-1805
▁ग्रामीण	-1806
▁यथा	-1807
▁औद्योगिक	-1808
▁प्रतिनि	-1809
हरी	-1810
स्ल	-1811
▁विवाद	-1812
▁भविष्य	-1813
▁वार	-1814
▁निकाल	-1815
▁सन्	-1816
▁मित्र	-1817
▁लाल	-1818
on	-1819
▁कहीं	-1820
कु	-1821
▁दिख	-1822
▁कार्यालय	-1823
▁सक्रिय	-1824
▁रज	-1825
त्साह	-1826
▁शब्दों	-1827
▁कम्प	-1828
▁सम्मान	-1829
▁अलावा	-1830
फारिश	-1831
र्ट	-1832
▁अभिय	-1833
▁खरी	-1834
▁आयु	-1835
रोध	-1836
▁पद्ध	-1837
▁भग	-1838
िको	-1839
▁निश्चित	-1840
▁प्रकट	-1841
ंश	-1842
धे	-1843
▁सिफारिश	-1844
▁लौ	-1845
▁चाहे	-1846
▁निकल	-1847
▁अनुमति	-1848
▁दल	-1849
▁निर्यात	-1850
▁उपाय	-1851
▁मर	-1852
स्कार	-1853
▁]	-1854
▁पुरुष	-1855
णा	-1856
ानि	-1857
मंत्र	-1858
▁उत्स	-1859
▁ऊर्जा	-1860
न्व	-1861
▁अधिव	-1862
▁ढंग	-1863
▁समर्थन	-1864
▁[	-1865
▁पांच	-1866
▁नदी	-1867
▁बर	-1868
म्भ	-1869
वस्था	-1870
▁दिल	-1871
▁संदर्भ	-1872
स्ति	-1873
▁इस्लाम	-1874
णिज	-1875
सि	-1876
▁जिन्हें	-1877
▁केन्द	-1878
▁चै	-1879
▁प्रद	-1880
▁कुमार	-1881
▁न्यायिक	-1882
▁पंच	-1883
ुआ	-1884
▁फल	-1885
▁दस्ता	-1886
ेमाल	-1887
▁लिखा	-1888
▁तारी	-1889
बे	-1890
▁राजनीतिक	-1891
▁शायद	-1892
बाद	-1893
▁एल	-1894
▁देती	-1895
र्घ	-1896
▁इस्तेमाल	-1897
▁जे	-1898
▁कप	-1899
म्म	-1900
▁ऑफ	-1901
सन	-1902
णिज्य	-1903
सिक	-1904
▁जम	-1905
▁लि	-1906
ाचार	-1907
▁योग्य	-1908
▁पृथ	-1909
ाये	-1910
▁मिले	-1911
▁पदार्थ	-1912
्राम	-1913
▁संके	-1914
▁वैज्ञानिक	-1915
▁सर्वो	-1916
▁मुखर्जी	-1917
▁बज	-1918
गल	-1919
▁रि	-1920
▁निर्वा	-1921
▁मश	-1922
्वेष	-1923
▁जिनमें	-1924
▁नेट	-1925
▁S	-1926
▁पाया	-1927
▁सम्बन्ध	-1928
▁संरचना	-1929
▁चिकित्सा	-1930
▁खाद	-1931
▁गं	-1932
▁गी	-1933
▁इतना	-1934
▁दृष्ट	-1935
▁गांव	-1936
▁फाइल	-1937
▁वो	-1938
▁करोड़	-1939
सम	-1940
▁मही	-1941
▁न्यायालयों	-1942
▁संग्रह	-1943
▁सहायक	-1944
▁संरक्षण	-1945
चक	-1946
▁नगर	-1947
▁वाणिज्य	-1948
ेशा	-1949
▁पूछ	-1950
ोलन	-1951
▁भौ	-1952
▁बां	-1953
▁समाधान	-1954
▁इच्छ	-1955
▁लेखा	-1956
▁सक्षम	-1957
▁प्रोत्साह	-1958
▁हमारा	-1959
▁सामग्री	-1960
ृति	-1961
▁मेरा	-1962
▁बंगाल	-1963
▁यूर	-1964
▁उठा	-1965
▁नया	-1966
▁विल	-1967
▁उद्यम	-1968
▁तारीख	-1969
▁निजी	-1970
▁जैसी	-1971
म्बर	-1972
▁मुक्त	-1973
▁रक्षा	-1974
▁चाहता	-1975
शु	-1976
चर	-1977
यल	-1978
▁पूरे	-1979
▁मनुष्य	-1980
▁दश	-1981
▁बढ	-1982
डियो	-1983
▁सलाह	-1984
ंगे	-1985
▁संय	-1986
▁वापस	-1987
खी	-1988
ृह	-1989
▁सृ	-1990
थमिक	-1991
▁यद्य	-1992
ंद्र	-1993
▁दस्तावे	-1994
▁मॉ	-1995
▁अभिव	-1996
▁छा	-1997
▁पुरस्कार	-1998
▁जाति	-1999
▁अद	-2000
▁रक्त	-2001
▁साधारण	-2002
▁प्रकाशित	-2003
▁खो	-2004
जित	-2005
▁यद्यपि	-2006
इन	-2007
▁तत्व	-2008
▁प्राथमिक	-2009
▁सफलता	-2010
▁तत्	-2011
घु	-2012
▁वन	-2013
▁बुद्ध	-2014
वाही	-2015
कुल	-2016
क्षर	-2017
▁मास	-2018
▁बने	-2019
कीय	-2020
▁स्म	-2021
▁इनमें	-2022
▁शीर्ष	-2023
ायी	-2024
▁दें	-2025
▁री	-2026
▁अनुप	-2027
▁समक्ष	-2028
▁शांति	-2029
▁समझौ	-2030
▁रखना	-2031
▁अवस्था	-2032
▁पालन	-2033
▁उत	-2034
▁हमेशा	-2035
▁रेल	-2036
▁चर्चा	-2037
▁पो	-2038
▁सिर्फ	-2039
▁रकम	-2040
▁युवा	-2041
▁मंत्री	-2042
▁सेवाओं	-2043
▁दशा	-2044
▁आत्मा	-2045
चीन	-2046
वर्ती	-2047
▁रखते	-2048
▁फी	-2049
▁शक्त	-2050
ाक	-2051
ेयर	-2052
▁सकेगा	-2053
ar	-2054
ड़क	-2055
▁रिक	-2056
▁ईश्वर	-2057
▁देखने	-2058
तया	-2059
▁केन्द्रीय	-2060
शिया	-2061
▁समुदाय	-2062
ल्ल	-2063
मक	-2064
▁महारा	-2065
▁उपन	-2066
ोक्ता	-2067
ठित	-2068
▁परीक्षा	-2069
▁थो	-2070
▁संपत्ति	-2071
ैल	-2072
राष्ट्रीय	-2073
▁चाल	-2074
▁धीरे	-2075
▁तीस	-2076
▁सुझ	-2077
▁सम्प	-2078
at	-2079
त्री	-2080
▁कानू	-2081
तक	-2082
▁बताया	-2083
▁सेट	-2084
▁निगम	-2085
▁गंभीर	-2086
▁चयन	-2087
▁योगदान	-2088
▁प्रशासन	-2089
▁सिव	-2090
▁शहर	-2091
▁दू	-2092
क्टर	-2093
▁चुका	-2094
▁छोटी	-2095
▁पर्य	-2096
सू	-2097
▁लागत	-2098
▁जिसकी	-2099
▁किन्तु	-2100
ोम	-2101
िकोण	-2102
▁कदम	-2103
▁अधिकांश	-2104
▁मोह	-2105
▁प्ल	-2106
▁कंप्यूटर	-2107
ियर	-2108
फा	-2109
▁अंक	-2110
लाई	-2111
▁पर्यावरण	-2112
फ्ट	-2113
▁करा	-2114
▁संभावना	-2115
पूर्वक	-2116
▁दूसरा	-2117
▁बेहतर	-2118
▁दिखाई	-2119
▁सम्मिल	-2120
en	-2121
▁पद्धति	-2122
ार्मिक	-2123
▁क़	-2124
कान	-2125
▁निर्भर	-2126
वेद	-2127
वर्क	-2128
▁दोष	-2129
टे	-2130
▁धार्मिक	-2131
ताल	-2132
▁सीमित	-2133
▁कविता	-2134
न्दर	-2135
▁आंद	-2136
▁वहाँ	-2137
ीप	-2138
हा	-2139
फ्त	-2140
▁वही	-2141
्यो	-2142
▁बोल	-2143
▁प्रणब	-2144
▁पाल	-2145
ृत्त	-2146
▁तुलना	-2147
▁कर्	-2148
▁ऊंच	-2149
मंत्री	-2150
▁कोशिश	-2151
▁यूरोप	-2152
भूति	-2153
क्षेप	-2154
ृत्ति	-2155
र्ड	-2156
▁विभाज	-2157
जार	-2158
हीन	-2159
▁हृ	-2160
▁निधि	-2161
▁तरीके	-2162
▁चर	-2163
▁प्रभावी	-2164
▁शिकायत	-2165
in	-2166
▁तेल	-2167
▁शर्त	-2168
▁ब्रिटिश	-2169
▁सूर	-2170
▁युग	-2171
▁व्यवसाय	-2172
▁खर्च	-2173
संद	-2174
▁जित	-2175
▁सिविल	-2176
▁इका	-2177
▁रजिस्ट	-2178
▁मशीन	-2179
▁सारे	-2180
▁संपर्क	-2181
▁संगी	-2182
क्ष्म	-2183
▁भे	-2184
▁अंग्रेजी	-2185
पे	-2186
वत्ता	-2187
▁रहती	-2188
ोषणा	-2189
▁वायु	-2190
▁अनिवार	-2191
▁उपचार	-2192
वर्ष	-2193
▁ति	-2194
▁हिन्दी	-2195
▁डेटा	-2196
▁पक	-2197
▁असम	-2198
ैन	-2199
▁उनसे	-2200
नेट	-2201
▁विद्यार्थ	-2202
प्ता	-2203
कद	-2204
▁प्राकृतिक	-2205
▁ख़	-2206
▁मजब	-2207
▁मोट	-2208
▁गुणवत्ता	-2209
▁अनुसू	-2210
▁कार्र	-2211
▁संस्कृति	-2212
ारोह	-2213
▁नर	-2214
▁निम्न	-2215
▁आता	-2216
▁विशाल	-2217
ापन	-2218
मारी	-2219
▁ग्रह	-2220
▁लघु	-2221
भाल	-2222
▁विधेय	-2223
▁एज	-2224
an	-2225
▁मुद्रा	-2226
▁हे	-2227
▁सभ	-2228
▁सम्मिलित	-2229
▁स्रो	-2230
▁बध	-2231
▁जहाँ	-2232
▁देखते	-2233
▁C	-2234
न्स	-2235
▁सकें	-2236
▁अधिकारियों	-2237
ेलन	-2238
▁परिप	-2239
▁दस	-2240
▁अस्त	-2241
पु	-2242
▁कथ	-2243
चारी	-2244
▁मिट	-2245
▁परिस्थित	-2246
▁संह	-2247
▁उपभ	-2248
▁आशा	-2249
▁धारण	-2250
▁संस्कृत	-2251
▁आए	-2252
स्वरूप	-2253
▁अनिवार्य	-2254
▁ब्या	-2255
▁खुलती	-2256
▁अस्प	-2257
तु	-2258
▁विचारों	-2259
▁परिषद	-2260
▁व्यक्तिगत	-2261
ंगत	-2262
▁अध्याय	-2263
राज्य	-2264
रीय	-2265
त्तर	-2266
▁हिस्सा	-2267
▁समारोह	-2268
▁आपकी	-2269
▁विंडों	-2270
ग्	-2271
▁गा	-2272
खंड	-2273
▁त्रुट	-2274
▁मिलता	-2275
▁भोजन	-2276
▁नेटवर्क	-2277
टों	-2278
▁संहिता	-2279
▁आकर्	-2280
▁दिवस	-2281
िकी	-2282
वेयर	-2283
▁प्रयोजन	-2284
स्लिम	-2285
▁करनी	-2286
▁शाखा	-2287
कारों	-2288
▁शता	-2289
▁शास्त	-2290
▁शुल्क	-2291
▁d	-2292
▁हैः	-2293
▁खिला	-2294
▁अत्यंत	-2295
▁निर्धारिती	-2296
धनों	-2297
▁अतः	-2298
▁भंड	-2299
▁ग्राम	-2300
▁समझा	-2301
▁दायित्व	-2302
ुन	-2303
▁उपयुक्त	-2304
▁लेना	-2305
क्षक	-2306
▁मुस्लिम	-2307
▁अश	-2308
▁महत्त्व	-2309
▁पंजी	-2310
▁भागी	-2311
▁बधाई	-2312
चि	-2313
▁निकट	-2314
▁संघर्ष	-2315
▁लॉ	-2316
टल	-2317
ार्क	-2318
▁विकल्प	-2319
▁जिनके	-2320
▁I	-2321
न्त्र	-2322
वै	-2323
ूँ	-2324
▁घट	-2325
म्मे	-2326
क्षी	-2327
▁खास	-2328
▁नेता	-2329
▁दृष्टिकोण	-2330
▁प्राचीन	-2331
▁आंदोलन	-2332
डिया	-2333
▁विद्व	-2334
▁नियमों	-2335
▁इजरा	-2336
एल	-2337
▁उपबंधों	-2338
▁भारी	-2339
▁पंजा	-2340
दृ	-2341
▁संगीत	-2342
▁संस्थानों	-2343
ट्ट	-2344
▁बौ	-2345
ंगी	-2346
▁खरीद	-2347
▁c	-2348
ान्व	-2349
किंग	-2350
▁आदर्श	-2351
▁खोल	-2352
▁अभिव्य	-2353
▁पराम	-2354
▁विविध	-2355
▁आरोप	-2356
ोग्राम	-2357
घा	-2358
वाब	-2359
▁पहल	-2360
▁संसाधन	-2361
▁पर्व	-2362
▁गरी	-2363
▁जल्	-2364
▁व्याव	-2365
घ्र	-2366
▁महा	-2367
▁तथापि	-2368
▁नये	-2369
▁नोट	-2370
▁आयोजित	-2371
ायक	-2372
▁ईसा	-2373
▁आते	-2374
▁वर्णन	-2375
▁घोषणा	-2376
▁प्रशास	-2377
ांड	-2378
▁पड़ा	-2379
▁पाने	-2380
कालीन	-2381
त्न	-2382
▁अर्थव्य	-2383
▁विनिर्दिष्ट	-2384
▁कार्यवाही	-2385
▁_	-2386
▁–	-2387
▁जोर	-2388
▁जानी	-2389
▁प्राण	-2390
▁परिस	-2391
बत	-2392
▁फ़ाइल	-2393
▁हिन्दू	-2394
▁अंश	-2395
▁चीज	-2396
▁विनियम	-2397
▁मल	-2398
▁अर्थात्	-2399
▁हस्ता	-2400
▁याच	-2401
्वेषण	-2402
▁परिवर्त	-2403
▁स्वरूप	-2404
▁ii	-2405
▁कीमत	-2406
ब्दी	-2407
▁अक	-2408
▁खाते	-2409
▁शास	-2410
▁सुझाव	-2411
▁कार्रवाई	-2412
▁क्षति	-2413
▁शि	-2414
▁पड़े	-2415
▁कार्यों	-2416
▁चुनाव	-2417
ंतर	-2418
▁जानते	-2419
▁भगवान	-2420
▁विधेयक	-2421
▁सुरक्षित	-2422
▁निपट	-2423
ंबई	-2424
▁जिसने	-2425
ोजनों	-2426
▁परामर्श	-2427
▁एच	-2428
▁ध्व	-2429
मीर	-2430
▁जरूरी	-2431
▁प्रदर्शन	-2432
▁अल्प	-2433
▁व्यय	-2434
▁संकेत	-2435
▁अंतरराष्ट्रीय	-2436
ंपरा	-2437
▁अंदर	-2438
▁तम	-2439
▁ग्राह	-2440
▁प्रसन्न	-2441
▁पारित	-2442
ठी	-2443
शाली	-2444
राधिक	-2445
▁लेते	-2446
▁बनाना	-2447
▁खुद	-2448
▁कठिन	-2449
दंड	-2450
▁अच्छे	-2451
▁छात्र	-2452
▁तकनीकी	-2453
मेंट	-2454
▁पेट	-2455
▁गतिविध	-2456
▁ब्याज	-2457
भाषा	-2458
ख़	-2459
्वर	-2460
▁मो	-2461
or	-2462
▁मात्र	-2463
▁सदन	-2464
्रिया	-2465
▁पड़ता	-2466
एफ	-2467
▁कहना	-2468
कला	-2469
ोषित	-2470
पालिका	-2471
▁आग	-2472
न्ट	-2473
▁खत	-2474
▁इच्छा	-2475
▁खाद्य	-2476
▁परंपरा	-2477
▁वाणिज्यिक	-2478
▁राजन	-2479
▁आदमी	-2480
▁हटा	-2481
▁समृ	-2482
▁अधिकारों	-2483
▁बाव	-2484
ल्ड	-2485
▁सिर	-2486
▁नियुक्त	-2487
▁भ्र	-2488
▁दा	-2489
मती	-2490
▁लाइ	-2491
ल्स	-2492
▁कृत	-2493
▁टै	-2494
▁अर्थव्यवस्था	-2495
वाय	-2496
▁एशिया	-2497
▁गर्इ	-2498
▁कृप	-2499
ोद	-2500
▁विज	-2501
▁छोटा	-2502
▁मिली	-2503
▁होनी	-2504
▁सम्मेलन	-2505
es	-2506
▁प्राधिकरण	-2507
▁अभिप	-2508
▁इन्ह	-2509
▁उपस्थित	-2510
िनी	-2511
▁उल्ल	-2512
▁माता	-2513
▁P	-2514
मय	-2515
▁तट	-2516
▁हृदय	-2517
▁शुभ	-2518
▁स्थायी	-2519
▁आतंकवाद	-2520
▁प्रत्यक्ष	-2521
▁गलत	-2522
▁तर्क	-2523
म्र	-2524
३०	-2525
▁पहला	-2526
भाष	-2527
▁इंग	-2528
▁लगाया	-2529
▁कोशिका	-2530
राव	-2531
▁संपूर्ण	-2532
काम	-2533
▁अना	-2534
न्हीं	-2535
▁याचिका	-2536
▁नाटक	-2537
ादेश	-2538
▁कौन	-2539
▁अनुक	-2540
ड्ड	-2541
▁सश	-2542
िक्	-2543
▁जिम्मे	-2544
▁इंटर	-2545
▁भाई	-2546
▁प्रसि	-2547
▁मौजूद	-2548
▁परीक्षण	-2549
▁शेष	-2550
▁कहानी	-2551
▁लगी	-2552
▁पश्चिमी	-2553
▁एफ	-2554
▁पार्टी	-2555
▁अप्रैल	-2556
▁तेजी	-2557
▁दर्शन	-2558
▁बंध	-2559
ून्य	-2560
▁लिम	-2561
▁खाता	-2562
रो	-2563
थि	-2564
व्र	-2565
▁त्व	-2566
▁महिलाओं	-2567
ग्न	-2568
▁मार्च	-2569
धानी	-2570
▁तरफ	-2571
▁विद्यमान	-2572
▁वार्ष	-2573
▁मूल्या	-2574
▁कर्मचार	-2575
▁वाता	-2576
▁बिज	-2577
ार्म	-2578
▁फ्र	-2579
्राष्ट्रीय	-2580
▁हट	-2581
▁महस	-2582
▁सरल	-2583
▁शीघ्र	-2584
▁देवी	-2585
▁सका	-2586
र्न	-2587
▁कार्यान्व	-2588
▁प्रयोजनों	-2589
▁दि	-2590
▁अरब	-2591
▁त्रुटि	-2592
▁अवि	-2593
▁बनी	-2594
▁दौ	-2595
ितीय	-2596
▁हिम	-2597
▁हस्त	-2598
ुसार	-2599
▁हास	-2600
▁रहना	-2601
▁अनुप्र	-2602
▁द्वार	-2603
िक्री	-2604
जह	-2605
रिया	-2606
▁सात	-2607
▁मानसिक	-2608
▁f	-2609
▁कल्या	-2610
▁परिच	-2611
िटी	-2612
ष्ट्र	-2613
स्य	-2614
▁पाकि	-2615
ंकन	-2616
▁चुके	-2617
▁अनुज्ञ	-2618
▁आपका	-2619
▁सित	-2620
▁कृष्ण	-2621
▁p	-2622
▁शताब्दी	-2623
▁लिमिट	-2624
▁गुना	-2625
▁मजबूत	-2626
्ति	-2627
▁उन्न	-2628
▁कृपया	-2629
्राज	-2630
▁आंक	-2631
▁t	-2632
▁अधि	-2633
▁महसूस	-2634
ष्क	-2635
▁अंड	-2636
▁इंज	-2637
▁समाचार	-2638
▁बैठक	-2639
▁विस्तृत	-2640
▁चरण	-2641
▁इंडिया	-2642
▁रेड	-2643
▁लाने	-2644
▁वातावरण	-2645
िन्	-2646
▁ढां	-2647
▁वस्तुओं	-2648
▁वेतन	-2649
▁समुद्र	-2650
▁आयुक्त	-2651
▁कर्मचारियों	-2652
▁पात्र	-2653
ंघ	-2654
▁बढ़ा	-2655
▁अभिक	-2656
लेज	-2657
▁ब्रह	-2658
▁प्रतिनिध	-2659
्रेड	-2660
▁सांस्	-2661
▁तय	-2662
▁कानूनी	-2663
▁जिन्होंने	-2664
▁ग्रहण	-2665
▁इजरायल	-2666
▁प्राप्ति	-2667
▁रखे	-2668
▁रात	-2669
▁वर	-2670
▁प्राव	-2671
▁बौद्ध	-2672
▁अत्यधिक	-2673
▁T	-2674
▁नियमित	-2675
▁लिमिटेड	-2676
▁संब	-2677
▁पहा	-2678
▁संचार	-2679
▁भौतिक	-2680
▁कल्पना	-2681
▁रोजगार	-2682
▁संकल्प	-2683
▁प्रतिष्ठ	-2684
▁परिस्थितियों	-2685
▁जवाब	-2686
▁शून्य	-2687
▁काव्य	-2688
▁निर्मित	-2689
▁अदाल	-2690
▁कर्त	-2691
दों	-2692
कृष्ट	-2693
▁सूक्ष्म	-2694
▁कथा	-2695
▁तथ्य	-2696
मल	-2697
▁अगले	-2698
▁दिये	-2699
▁मिलने	-2700
▁उपन्यास	-2701
स्ती	-2702
▁अन्तर्	-2703
▁विश्ले	-2704
▁क्षेत्रीय	-2705
▁हल	-2706
▁सिस्ट	-2707
ृत्व	-2708
▁प्रधानमंत्री	-2709
▁द्र	-2710
▁आती	-2711
▁किन	-2712
▁मंज	-2713
▁महाम	-2714
▁जंग	-2715
▁शेयर	-2716
म्मी	-2717
▁असफल	-2718
ांकि	-2719
▁अनुमान	-2720
▁कल्याण	-2721
▁समस्याओं	-2722
▁अधिकरण	-2723
ोरी	-2724
▁इत्या	-2725
▁स्रोत	-2726
▁भाषण	-2727
▁शिव	-2728
▁सामना	-2729
▁वाह	-2730
▁इतनी	-2731
शाला	-2732
▁आयात	-2733
▁स्वामी	-2734
▁सच्च	-2735
▁निर्वाचन	-2736
▁चेत	-2737
▁शुद्ध	-2738
ागत	-2739
टिल	-2740
▁विमान	-2741
▁B	-2742
al	-2743
▁w	-2744
▁आंत	-2745
लिक	-2746
▁आवा	-2747
▁नवान	-2748
सों	-2749
▁दावा	-2750
▁पत्नी	-2751
▁मान्यता	-2752
▁खे	-2753
▁सांस्कृतिक	-2754
▁बढ़ाने	-2755
ूक	-2756
स्म	-2757
▁कराने	-2758
र्प	-2759
इयों	-2760
00	-2761
▁विवे	-2762
लब	-2763
्याग	-2764
▁कर्मचारी	-2765
▁पुत्र	-2766
▁इला	-2767
▁तुर	-2768
▁अधिवक्ता	-2769
▁हालांकि	-2770
दिक	-2771
बि	-2772
▁प्रयासों	-2773
it	-2774
▁सॉ	-2775
▁अनुवाद	-2776
▁मामला	-2777
पक	-2778
▁निरंतर	-2779
▁समाव	-2780
रान	-2781
▁उल	-2782
शय	-2783
नाएं	-2784
हरे	-2785
▁सुंदर	-2786
णु	-2787
▁लेखक	-2788
▁हिंदू	-2789
▁साम्राज	-2790
▁सफ	-2791
▁युक्त	-2792
लि	-2793
▁सीख	-2794
▁नम	-2795
▁दब	-2796
▁नामक	-2797
▁बावजूद	-2798
▁पेज	-2799
▁आये	-2800
▁गणराज्य	-2801
▁टिप	-2802
▁परम	-2803
▁सचिव	-2804
▁माह	-2805
▁वैश्व	-2806
▁दृश्य	-2807
▁आँ	-2808
▁अभिया	-2809
जात	-2810
राब	-2811
▁सुना	-2812
▁लक्षण	-2813
लन	-2814
िर्	-2815
▁वार्षिक	-2816
▁मुसलमानों	-2817
▁निकाय	-2818
ंका	-2819
ाउ	-2820
▁विद्युत	-2821
▁इनके	-2822
▁गहरा	-2823
▁प्रतिक्रिया	-2824
▁प्रसिद्ध	-2825
वाले	-2826
▁हिंदी	-2827
▁प्रायः	-2828
▁गृह	-2829
▁बिजली	-2830
ालित	-2831
वाधिक	-2832
▁आनंद	-2833
▁पाकिस्तान	-2834
डल	-2835
▁टन	-2836
▁डिज	-2837
▁महीने	-2838
नियों	-2839
▁रुपये	-2840
बाज	-2841
सत	-2842
किल	-2843
▁दुर्	-2844
क्ट्र	-2845
ंता	-2846
▁आब	-2847
▁संस्थाओं	-2848
▁मूल्यांकन	-2849
▁सारी	-2850
▁अधिकतम	-2851
वक	-2852
▁करार	-2853
▁अनुकूल	-2854
▁अधिकारिता	-2855
▁समी	-2856
▁डाक	-2857
▁साव	-2858
▁गठन	-2859
▁सीधे	-2860
▁इत्यादि	-2861
▁अभिन	-2862
यान	-2863
गु	-2864
▁पसंद	-2865
वेक्षण	-2866
▁तुम्हें	-2867
प्रिय	-2868
▁शैली	-2869
▁जिनका	-2870
▁प्रभार	-2871
▁e	-2872
▁प्रोग्राम	-2873
ियत	-2874
पादन	-2875
▁हानि	-2876
▁अफ्री	-2877
▁लौट	-2878
▁उत्तरदाय	-2879
प्ताह	-2880
▁प्रावधान	-2881
लाइन	-2882
▁साफ	-2883
▁किरा	-2884
▁लगाने	-2885
▁पाए	-2886
▁उम्मी	-2887
दूर	-2888
re	-2889
▁सिस्टम	-2890
पों	-2891
ात्मक	-2892
▁मिलती	-2893
्याय	-2894
▁अंतरण	-2895
्रेट	-2896
▁श्व	-2897
रीक्षण	-2898
वें	-2899
्ला	-2900
ुम	-2901
▁जल्दी	-2902
▁आक्रमण	-2903
▁शुभकाम	-2904
▁समन्व	-2905
▁दीर्घ	-2906
▁प्रचार	-2907
संगत	-2908
▁एंड	-2909
▁तभी	-2910
श्मीर	-2911
सान	-2912
▁नक	-2913
▁जनसं	-2914
लीय	-2915
▁अमरी	-2916
▁अख	-2917
▁देखभाल	-2918
▁गुजरा	-2919
ुक्ति	-2920
▁आपने	-2921
त्मिक	-2922
▁उक्त	-2923
▁स्थल	-2924
▁न्यायाधीशों	-2925
▁E	-2926
▁पाठ्य	-2927
▁कारबार	-2928
▁जून	-2929
▁फूल	-2930
▁समस्त	-2931
▁पत्त	-2932
▁अस्तित्व	-2933
▁मेल	-2934
▁रुपए	-2935
ाफ	-2936
▁सवाल	-2937
▁दै	-2938
▁पुराने	-2939
▁पंजाब	-2940
▁प्रवि	-2941
उट	-2942
▁मुकद	-2943
ंटी	-2944
कर्ष	-2945
▁उड़	-2946
एन	-2947
ंकर	-2948
्रय	-2949
▁करी	-2950
▁घरे	-2951
▁नेत	-2952
ठा	-2953
▁बिक्री	-2954
▁प्रयुक्त	-2955
▁विषयों	-2956
▁जनवरी	-2957
▁वितरण	-2958
भूम	-2959
▁लोकतंत्र	-2960
▁प्राधिकारी	-2961
ोने	-2962
क्षेत्र	-2963
िकल	-2964
▁पथ	-2965
ारात्मक	-2966
ीर	-2967
▁ड्र	-2968
▁शिश	-2969
▁आध्या	-2970
ांतर	-2971
▁कलक	-2972
▁बुद्धि	-2973
▁सर्वोच्च	-2974
▁मानते	-2975
▁अमेरिक	-2976
▁साधन	-2977
▁न्यून	-2978
रत	-2979
मात्र	-2980
▁शारी	-2981
▁भागों	-2982
▁पश्चात	-2983
▁बाध	-2984
▁साझ	-2985
▁फिल्म	-2986
▁नजर	-2987
▁विशेषज्ञ	-2988
▁गि	-2989
चित्र	-2990
▁बढ़ावा	-2991
▁राजनैतिक	-2992
▁महत्त्वपूर्ण	-2993
▁इन्हें	-2994
▁स्थानों	-2995
▁जायेगा	-2996
▁उम्मीद	-2997
▁चले	-2998
▁तीव्र	-2999
▁गाँ	-3000
▁कुंजी	-3001
▁कटौती	-3002
▁नेतृत्व	-3003
▁प्रभ	-3004
▁प्रेरित	-3005
▁संगण	-3006
▁साक्ष्य	-3007
जनक	-3008
▁रखी	-3009
▁घा	-3010
▁टिप्प	-3011
▁बातों	-3012
▁गतिविधियों	-3013
▁जोख	-3014
▁कठिना	-3015
▁नेहर	-3016
▁रोगी	-3017
▁गोप	-3018
▁मुह	-3019
▁घरेलू	-3020
▁विद्यार्थियों	-3021
▁g	-3022
रेट	-3023
▁संगठ	-3024
▁चेतना	-3025
▁बैंकों	-3026
ैक	-3027
▁निदेशक	-3028
ंदा	-3029
ृंख	-3030
▁फसल	-3031
▁मौसम	-3032
▁गर्	-3033
▁o	-3034
मूर्ति	-3035
जू	-3036
▁टाइ	-3037
▁पीड़	-3038
▁शुभकामनाएं	-3039
▁मू	-3040
रक	-3041
धानिक	-3042
▁चलता	-3043
▁नैतिक	-3044
तिहासिक	-3045
▁खुशी	-3046
कत	-3047
▁मंड	-3048
▁मिश्र	-3049
जीव	-3050
▁ग्रंथ	-3051
सीय	-3052
▁अदालत	-3053
▁प्रदर्शित	-3054
▁बनाई	-3055
▁सत्र	-3056
▁पहुँच	-3057
▁लिखित	-3058
▁अनुप्रयोग	-3059
ॉँ	-3060
▁कुशल	-3061
▁शारीरिक	-3062
▁स्वागत	-3063
▁स्पष्टीकरण	-3064
▁जोखिम	-3065
▁R	-3066
▁बुनिया	-3067
▁कार्यक्रमों	-3068
▁गुरु	-3069
▁आध्यात्मिक	-3070
▁उनको	-3071
▁हजार	-3072
▁G	-3073
▁इले	-3074
▁मंच	-3075
धर	-3076
▁तेज	-3077
▁इंजीन	-3078
गो	-3079
▁श्रेणीः	-3080
▁प्रदू	-3081
भूमि	-3082
▁शाह	-3083
▁तरीका	-3084
मर	-3085
▁घोषित	-3086
▁देखें	-3087
▁आक	-3088
ेंशन	-3089
इड	-3090
▁धार	-3091
▁बाबत	-3092
▁मानक	-3093
▁प्रसन्नता	-3094
▁अपेक्षित	-3095
▁बर्	-3096
▁नष्ट	-3097
▁निवास	-3098
िलेख	-3099
▁इकाई	-3100
▁संवर्	-3101
▁प्रतीत	-3102
▁ब्ल	-3103
▁श्रीमती	-3104
▁शक्तियों	-3105
▁प्रोत्साहन	-3106
▁अंतर्राष्ट्रीय	-3107
विक	-3108
▁सुख	-3109
▁अधिस	-3110
▁मिलकर	-3111
▁सैनिक	-3112
नु	-3113
ic	-3114
▁प्रच	-3115
सभा	-3116
▁लो	-3117
▁मगर	-3118
ाब	-3119
▁गर्म	-3120
▁दिस	-3121
▁सेवाएं	-3122
▁मुंबई	-3123
्यार	-3124
ह्न	-3125
धारित	-3126
दाता	-3127
▁हवा	-3128
▁अस्थ	-3129
▁उत्कृष्ट	-3130
▁प्रशासनिक	-3131
▁वकी	-3132
▁त्याग	-3133
ानु	-3134
▁छह	-3135
▁मिशन	-3136
▁माँ	-3137
क्शन	-3138
▁सहकारी	-3139
यण	-3140
▁v	-3141
▁लेता	-3142
न्य	-3143
▁अक्ष	-3144
▁प्रसार	-3145
▁जटिल	-3146
चरण	-3147
▁चारों	-3148
ेंद्र	-3149
▁आवास	-3150
ढ़ी	-3151
▁अवश्य	-3152
ेंद	-3153
▁विरोधी	-3154
ांस	-3155
▁कठोर	-3156
▁स्मृति	-3157
न्धी	-3158
▁साब	-3159
ताब	-3160
▁फर	-3161
▁चीन	-3162
▁निहित	-3163
▁विधिक	-3164
गढ़	-3165
▁आइ	-3166
▁आफ	-3167
क्षिक	-3168
िड	-3169
शास्त	-3170
▁स्त्री	-3171
िप्त	-3172
▁प्रमाणपत्र	-3173
▁m	-3174
▁b	-3175
ृंखला	-3176
▁चुकी	-3177
▁वीडियो	-3178
▁फीस	-3179
▁प्ले	-3180
▁प्रोट	-3181
▁मंडल	-3182
▁सौंप	-3183
▁अभिव्यक्ति	-3184
▁लें	-3185
ुस्तान	-3186
▁करेगी	-3187
चलित	-3188
र्ती	-3189
▁अक्	-3190
▁मतलब	-3191
▁वालों	-3192
▁एड	-3193
▁घंट	-3194
फ्टवेयर	-3195
▁ऐतिहासिक	-3196
▁संसाधनों	-3197
गण	-3198
देव	-3199
ियोग	-3200
▁औष	-3201
▁मस्ति	-3202
▁आंतरिक	-3203
कर्ताओं	-3204
▁संबंधों	-3205
▁लगातार	-3206
▁कूट	-3207
कालिक	-3208
मति	-3209
न्ना	-3210
▁बीज	-3211
▁अभिलेख	-3212
ियल	-3213
▁श्रम	-3214
▁परिणामस्वरूप	-3215
नो	-3216
लम	-3217
▁वजह	-3218
▁अगस्त	-3219
▁छूट	-3220
▁जनसंख्या	-3221
▁ज़र	-3222
▁हथ	-3223
▁अहम	-3224
▁पति	-3225
▁स्वा	-3226
▁चीज़	-3227
▁चक्र	-3228
▁नेहरू	-3229
▁विश्लेषण	-3230
ूंगा	-3231
▁उपयोगी	-3232
▁सप्ताह	-3233
्रीन	-3234
▁स्थिर	-3235
▁रखता	-3236
▁बातें	-3237
▁न्यूनतम	-3238
फे	-3239
▁फैल	-3240
्ब	-3241
▁बाग	-3242
▁सरकारों	-3243
▁आठ	-3244
▁भूल	-3245
▁मना	-3246
▁संचालन	-3247
▁नागरिकों	-3248
▁पूजा	-3249
काशन	-3250
▁विजय	-3251
हिम	-3252
ूबर	-3253
▁वैश्विक	-3254
▁कलकत्ता	-3255
▁व्याख्या	-3256
त्तम	-3257
▁सत्या	-3258
▁साम्राज्य	-3259
▁दाव	-3260
चारिक	-3261
▁द्वीप	-3262
▁हासिल	-3263
▁उम्र	-3264
▁परिश	-3265
▁स्वर	-3266
▁विफल	-3267
▁अन्तर	-3268
करी	-3269
▁जाएं	-3270
ाइट	-3271
णों	-3272
पान	-3273
▁मई	-3274
▁कोल	-3275
▁नियुक्ति	-3276
लग्न	-3277
वाली	-3278
▁सुभाष	-3279
▁प्रवाह	-3280
▁जेल	-3281
▁स्की	-3282
▁अधिसू	-3283
▁संसार	-3284
▁कमज	-3285
▁साध	-3286
▁दस्तावेज	-3287
▁रेखा	-3288
ख्य	-3289
ेह	-3290
बन्ध	-3291
▁लेन	-3292
▁बनने	-3293
▁विहित	-3294
▁प्रयत्न	-3295
िद	-3296
▁स्वच्छ	-3297
▁विम	-3298
▁सड़क	-3299
१०	-3300
नाम	-3301
▁आलो	-3302
▁प्रकाशन	-3303
▁पृथ्वी	-3304
▁ऑन	-3305
▁आह	-3306
▁संबद्ध	-3307
▁खिलाफ	-3308
▁महामहिम	-3309
स्त्र	-3310
▁संगठनों	-3311
▁नाट	-3312
▁शे	-3313
▁खान	-3314
▁कौशल	-3315
▁निरा	-3316
स्पर	-3317
▁आसान	-3318
▁बीमारी	-3319
▁काट	-3320
रीत	-3321
▁कोड	-3322
▁आपूर्ति	-3323
▁छोड़कर	-3324
▁प्रतीक	-3325
▁सर्वाधिक	-3326
ॉक	-3327
ियार	-3328
is	-3329
▁काय	-3330
▁शुरुआ	-3331
ैव	-3332
▁एकता	-3333
▁विशेषकर	-3334
▁लोकप्रिय	-3335
▁जय	-3336
▁मीडिया	-3337
▁उद्योगों	-3338
▁गंगा	-3339
▁वैसे	-3340
▁कार्यवाह	-3341
ामा	-3342
▁आरम्भ	-3343
▁सुल	-3344
दर्शन	-3345
ion	-3346
▁L	-3347
▁माप	-3348
▁रीति	-3349
▁M	-3350
देह	-3351
▁अके	-3352
▁अनुरूप	-3353
ज़ी	-3354
▁बॉ	-3355
▁दवा	-3356
▁समझौता	-3357
▁विद	-3358
▁चलते	-3359
प्रदाय	-3360
▁पूर्वी	-3361
▁सृजन	-3362
▁बदलाव	-3363
▁विचारण	-3364
▁निष्कर्ष	-3365
▁महाराष्ट्र	-3366
चीत	-3367
▁अंध	-3368
स्थापित	-3369
▁विपरीत	-3370
le	-3371
▁x	-3372
▁रस	-3373
ूब	-3374
▁जुड़े	-3375
▁जमीन	-3376
▁परिवहन	-3377
▁निः	-3378
▁अस्पताल	-3379
▁आख	-3380
ेश्वर	-3381
▁प्रसाद	-3382
▁पीड़ित	-3383
▁बुनियादी	-3384
▁अभियान	-3385
▁तार	-3386
▁शोध	-3387
▁जाँच	-3388
ॉन	-3389
▁प्रतिनिधित्व	-3390
▁ताप	-3391
▁गिरफ्त	-3392
▁समुचित	-3393
▁इलेक्ट्र	-3394
▁संविदा	-3395
उस	-3396
▁बू	-3397
▁टेली	-3398
▁बातचीत	-3399
खे	-3400
▁नारा	-3401
▁h	-3402
▁कने	-3403
▁दूध	-3404
▁अपर	-3405
▁गैस	-3406
▁लक्ष	-3407
▁अफ्रीका	-3408
वाला	-3409
▁न्यायमूर्ति	-3410
सु	-3411
▁N	-3412
साधारण	-3413
▁प्रेरण	-3414
न्द्रनाथ	-3415
▁विशेषता	-3416
▁n	-3417
▁परस्पर	-3418
▁किसानों	-3419
▁पुरा	-3420
▁संकट	-3421
▁मुद्	-3422
▁खी	-3423
▁स्ना	-3424
▁अभिप्रे	-3425
▁लै	-3426
▁आश्च	-3427
▁पशु	-3428
▁तमिल	-3429
▁धर	-3430
▁शह	-3431
ूद्ध	-3432
▁आंख	-3433
▁मस्तिष्क	-3434
▁पूर्ववर्ष	-3435
षक	-3436
▁फाय	-3437
भारत	-3438
▁बचा	-3439
सायिक	-3440
▁नंबर	-3441
▁कार्ड	-3442
▁इन्	-3443
▁हत्या	-3444
▁भेद	-3445
▁आनन्द	-3446
▁पीठ	-3447
▁गुप्त	-3448
ाइड	-3449
▁फॉ	-3450
▁कथन	-3451
▁करो	-3452
▁मीटर	-3453
▁अनुरोध	-3454
▁मस	-3455
▁विभाजन	-3456
▁उत्पादों	-3457
▁प्रस्तावित	-3458
म्स	-3459
▁कीट	-3460
वित्र	-3461
▁गौ	-3462
▁दशक	-3463
▁समित	-3464
ोथ	-3465
▁लिप	-3466
▁कर्तव्य	-3467
▁बेच	-3468
ंगिक	-3469
▁एकल	-3470
पय	-3471
▁चढ़	-3472
▁पुनर्	-3473
िकेट	-3474
▁नुक	-3475
▁पकड़	-3476
ित्त	-3477
▁जाएंगे	-3478
▁हस्ताक्षर	-3479
मंडल	-3480
▁उपभोक्ता	-3481
▁दृढ़	-3482
जाति	-3483
▁मूल्यों	-3484
थर	-3485
▁इतने	-3486
▁भेजा	-3487
ोकन	-3488
▁उपर	-3489
तल	-3490
▁अन्दर	-3491
▁एकत्र	-3492
▁आश्चर्य	-3493
▁राज्यपाल	-3494
▁अक्सर	-3495
▁कश्मीर	-3496
▁संसदीय	-3497
▁दूरी	-3498
om	-3499
▁टीम	-3500
▁चुनौती	-3501
़्य	-3502
राम	-3503
▁काग	-3504
▁नयी	-3505
▁करीब	-3506
▁हिंसा	-3507
▁कक्ष	-3508
घात	-3509
▁दर्शा	-3510
▁अमेरिकी	-3511
▁वरि	-3512
▁जिले	-3513
▁दास	-3514
▁सर्वेक्षण	-3515
▁माइ	-3516
▁चम	-3517
▁यंत्र	-3518
ाधीन	-3519
▁गीत	-3520
▁अभियुक्त	-3521
▁औसत	-3522
▁जहाज	-3523
▁भागीदारी	-3524
सीसी	-3525
ॉप	-3526
ंदन	-3527
▁कारणों	-3528
▁गौर	-3529
▁शिख	-3530
▁परमाण	-3531
▁राजनीति	-3532
▁D	-3533
▁रजिस्ट्री	-3534
▁आउट	-3535
▁यून	-3536
डु	-3537
▁परेश	-3538
जूदा	-3539
▁सशक्त	-3540
▁संस्करण	-3541
्वा	-3542
▁वहीं	-3543
▁साबित	-3544
▁अभाव	-3545
▁लिखी	-3546
▁अर्थात	-3547
▁अवधारण	-3548
▁आपराधिक	-3549
▁अभिप्रेत	-3550
निष्ठ	-3551
▁नवान्वेषण	-3552
▁मछ	-3553
ैर	-3554
▁डर	-3555
▁गरीब	-3556
▁देगा	-3557
▁अनुपात	-3558
ुता	-3559
▁गठित	-3560
▁प्रारंभिक	-3561
▁डिस्क	-3562
▁नमू	-3563
▁बजाय	-3564
▁मौजूदा	-3565
▁चिंता	-3566
▁बिल्	-3567
▁परिवर्तित	-3568
▁साइ	-3569
भाषित	-3570
ताव	-3571
▁नियत	-3572
▁समीक्षा	-3573
िसी	-3574
▁सूत्र	-3575
ज्ञा	-3576
▁कति	-3577
▁लम्ब	-3578
▁द्वितीय	-3579
▁चिह्न	-3580
ोबाइल	-3581
▁वकील	-3582
▁अन्यथा	-3583
▁पल	-3584
▁आमत	-3585
▁प्रत	-3586
▁समाप्ति	-3587
▁शहरी	-3588
गोल	-3589
ज़र	-3590
▁मिन	-3591
▁शैक्षिक	-3592
पास	-3593
▁पहुंचा	-3594
▁हिस्से	-3595
ंत्रिक	-3596
▁बिंद	-3597
▁भाषाओं	-3598
नन	-3599
ब्र	-3600
▁सम्बन्धी	-3601
▁सुविधाओं	-3602
इस	-3603
म्मद	-3604
▁जर्म	-3605
▁महास	-3606
▁सिक्	-3607
▁अत	-3608
▁मैदान	-3609
▁समग्र	-3610
ायें	-3611
धिकार	-3612
ात्मा	-3613
▁कोर्ट	-3614
▁परियोजनाओं	-3615
▁अल्	-3616
▁उपक्रम	-3617
▁संतुल	-3618
▁सर्वर	-3619
▁ब्राह	-3620
▁अनुसूचित	-3621
वंश	-3622
▁हक	-3623
▁देय	-3624
▁यूनि	-3625
▁वक्त	-3626
▁वर्षा	-3627
ोजी	-3628
ूंकि	-3629
▁आचरण	-3630
▁फ़िल	-3631
▁मुद्द	-3632
▁लिखने	-3633
▁पवित्र	-3634
ौल	-3635
▁पाई	-3636
▁अनुश	-3637
▁प्रतिभा	-3638
▁संपाद	-3639
तीत	-3640
▁पौध	-3641
▁रोकने	-3642
ार्थी	-3643
▁प्रोत्साहित	-3644
थी	-3645
पचारिक	-3646
▁आमतौर	-3647
▁जुलाई	-3648
▁प्रवृत्त	-3649
मार्	-3650
▁हैंः	-3651
▁आकर्षित	-3652
▁सदा	-3653
▁कतिपय	-3654
ास्ता	-3655
▁अकबर	-3656
▁चूंकि	-3657
▁देखकर	-3658
▁मनो	-3659
▁रखें	-3660
▁खुश	-3661
▁किलो	-3662
▁शुरुआत	-3663
▁पाठ्यक्रम	-3664
▁तथ	-3665
▁तल	-3666
▁भय	-3667
▁निवासी	-3668
▁ब्रह्म	-3669
दास	-3670
ादा	-3671
▁व्यावसायिक	-3672
▁रास्त	-3673
श्किल	-3674
क्का	-3675
▁अपन	-3676
▁खाने	-3677
▁सुसंगत	-3678
ज़ा	-3679
▁आंध	-3680
▁रवी	-3681
श्त	-3682
▁आशय	-3683
▁तिर	-3684
▁हवाई	-3685
▁मांस	-3686
▁खाना	-3687
▁आयोजन	-3688
▁सूर्य	-3689
▁विद्यालय	-3690
▁वरिष्ठ	-3691
▁उधार	-3692
▁केरल	-3693
▁देकर	-3694
खों	-3695
▁हार्	-3696
▁गुजरात	-3697
▁शिकार	-3698
▁तकनीक	-3699
▁विंडो	-3700
▁जानता	-3701
▁बिल्कुल	-3702
▁सॉफ्टवेयर	-3703
नात्मक	-3704
ंव	-3705
▁चरित्र	-3706
▁देर	-3707
▁यथ	-3708
▁अली	-3709
▁वीर	-3710
▁प्रतिनिधि	-3711
et	-3712
ोल्	-3713
▁बाधा	-3714
▁बुरा	-3715
ड़ियों	-3716
▁आस्ति	-3717
▁रहेगा	-3718
क्षीय	-3719
▁इंग्ल	-3720
धारी	-3721
▁जीवित	-3722
▁निश्चय	-3723
▁नियंत्रित	-3724
ot	-3725
नाश	-3726
▁मुझ	-3727
शीलता	-3728
▁अधिकतर	-3729
र्मा	-3730
▁सरदार	-3731
▁मानवीय	-3732
▁रिश	-3733
▁तुरंत	-3734
▁परमाणु	-3735
▁मिट्टी	-3736
▁संलग्न	-3737
्यूट	-3738
▁कमजोर	-3739
▁सहज	-3740
त्कार	-3741
नर	-3742
▁गाय	-3743
▁कितना	-3744
ंजन	-3745
▁इरा	-3746
▁छिप	-3747
▁मुद्दों	-3748
▁जितना	-3749
▁प्रेष	-3750
▁उत्तरी	-3751
▁कारा	-3752
▁खुले	-3753
▁मुश्किल	-3754
वां	-3755
्ता	-3756
▁चलो	-3757
▁पंजीकरण	-3758
केट	-3759
▁पैरा	-3760
▁आग्रह	-3761
▁स्तंभ	-3762
▁पुनर्व	-3763
ध्य	-3764
▁बाह्य	-3765
▁लाया	-3766
▁दबाव	-3767
▁संध	-3768
बह	-3769
▁प्रिय	-3770
▁मिस	-3771
▁आसानी	-3772
▁ग्राहक	-3773
▁राजस्व	-3774
क्व	-3775
▁निष्पादन	-3776
▁प्रारूप	-3777
ग्ध	-3778
णिक	-3779
▁घंटे	-3780
▁मात	-3781
▁वंश	-3782
▁लाइन	-3783
▁स्कीम	-3784
▁जाकर	-3785
▁उत्साह	-3786
▁साक्षी	-3787
▁गोल	-3788
▁थोड़ा	-3789
▁अनुदान	-3790
▁समझौते	-3791
▁नवीन	-3792
▁आसपास	-3793
▁घटनाओं	-3794
▁एकमात्र	-3795
▁प्रार्थ	-3796
▁विरूद्ध	-3797
भाविक	-3798
▁सहमति	-3799
▁जिनकी	-3800
▁अन्तर्गत	-3801
वत	-3802
मीटर	-3803
▁सिल	-3804
▁इंटरनेट	-3805
▁कंपनियों	-3806
यें	-3807
▁पाद	-3808
▁इनका	-3809
▁आवाज	-3810
पुट	-3811
▁दर्ज	-3812
▁महात्मा	-3813
▁सांस	-3814
▁रेलवे	-3815
▁विमर्श	-3816
▁बढ़ती	-3817
ेक्ट	-3818
▁लंबे	-3819
▁दूसरों	-3820
णन	-3821
▁रिया	-3822
▁नुकसान	-3823
▁नेताओं	-3824
▁प्रत्या	-3825
▁छुट	-3826
▁फैस	-3827
▁सहमत	-3828
▁ज्ञात	-3829
▁मोबाइल	-3830
▁खेती	-3831
▁सदैव	-3832
▁सभ्यता	-3833
▁चिकित्स	-3834
▁श्रृंखला	-3835
ुत्	-3836
▁कव	-3837
घाटन	-3838
▁बाध्य	-3839
▁चोट	-3840
▁अंतः	-3841
ोबार	-3842
▁टुक	-3843
▁प्रेरणा	-3844
▁शुरु	-3845
िमय	-3846
▁चंद्र	-3847
▁विश्वविद्यालयों	-3848
▁जनरल	-3849
▁बिहार	-3850
▁प्री	-3851
११	-3852
ंडी	-3853
िक्स	-3854
▁काउ	-3855
▁रास्ता	-3856
पूर्ति	-3857
▁स्वाम	-3858
जिए	-3859
माने	-3860
▁प्रथा	-3861
▁अग्रिम	-3862
▁कार्यान्वयन	-3863
▁प्रतिकूल	-3864
▁प्रचलित	-3865
▁आहार	-3866
▁कितनी	-3867
क्षिप्त	-3868
शास्त्र	-3869
▁प्रार्थना	-3870
▁नै	-3871
▁वृक्ष	-3872
▁लक	-3873
▁पेड़	-3874
▁गेंद	-3875
▁असमर्थ	-3876
▁इसने	-3877
▁खतरा	-3878
▁संयंत्र	-3879
▁फिली	-3880
▁भावी	-3881
▁समझने	-3882
गाह	-3883
▁लेखन	-3884
▁अनुसूची	-3885
वों	-3886
▁टिक	-3887
दर	-3888
▁नोड	-3889
▁लिखे	-3890
▁हार	-3891
▁सराह	-3892
▁मालूम	-3893
दिन	-3894
र्पित	-3895
▁संगम	-3896
▁जैन	-3897
▁बाबू	-3898
द्धा	-3899
▁दुः	-3900
▁जरिए	-3901
▁पत	-3902
▁हितों	-3903
ेंसी	-3904
▁फोन	-3905
▁आंध्र	-3906
▁उठाने	-3907
▁समन्वय	-3908
ुरी	-3909
▁सिंध	-3910
▁सतह	-3911
ोदन	-3912
▁फ्ल	-3913
▁दुर्घ	-3914
▁अज	-3915
▁अवै	-3916
▁छवि	-3917
▁वर्गों	-3918
▁विधियों	-3919
▁जाल	-3920
▁प्रि	-3921
▁निर्व	-3922
▁निरीक्षण	-3923
▁गार	-3924
▁खींच	-3925
▁शर्तों	-3926
▁राजस्थान	-3927
▁जैव	-3928
▁वाक	-3929
ज्ज	-3930
क्सी	-3931
लिया	-3932
▁हाथों	-3933
▁ब्य	-3934
▁पुरानी	-3935
▁उद्ध	-3936
▁परिषद्	-3937
ट्र	-3938
▁गर्भ	-3939
▁संदेह	-3940
▁किनारे	-3941
ंचित	-3942
▁दुख	-3943
▁सौर	-3944
ीस	-3945
▁ताल	-3946
िब	-3947
ष्प	-3948
ल्ला	-3949
▁चलाने	-3950
▁प्रतिस्प	-3951
ोल्डर	-3952
▁स्वीकृति	-3953
ंगल	-3954
▁पोषण	-3955
▁कॉलेज	-3956
कृष्ण	-3957
▁किसान	-3958
▁भंडारण	-3959
▁दुर्घटना	-3960
▁जीत	-3961
▁मालिक	-3962
▁स्त्र	-3963
ोधित	-3964
▁किस्म	-3965
▁समृद्ध	-3966
▁सुदृ	-3967
▁विभिन्	-3968
▁रण	-3969
▁सें	-3970
▁फरवरी	-3971
्नों	-3972
▁धात	-3973
शक्ति	-3974
▁कहान	-3975
▁आल	-3976
िकाओं	-3977
▁दिना	-3978
तें	-3979
पेक्ष	-3980
▁स्वस्थ	-3981
▁पूर्ति	-3982
म्मत	-3983
▁वेद	-3984
▁बीमार	-3985
▁सर्वोत्तम	-3986
फर	-3987
पंथ	-3988
विधि	-3989
▁सागर	-3990
▁प्रदूषण	-3991
▁सुश	-3992
▁अद्य	-3993
▁अनुसरण	-3994
▁उपस्थिति	-3995
▁होम	-3996
हल	-3997
▁लंबी	-3998
▁फार्म	-3999
▁समर्पित	-4000
▁सम्पूर्ण	-4001
▁भु	-4002
▁अका	-4003
▁शत्र	-4004
▁देंगे	-4005
▁परिक	-4006
▁पूछा	-4007
▁मूर्	-4008
▁धारणा	-4009
▁सब्	-4010
▁मृत्युदंड	-4011
▁देन	-4012
▁आस्त	-4013
▁पाते	-4014
रू	-4015
न्ड	-4016
▁रास्ते	-4017
गन	-4018
▁चालू	-4019
▁चन्द्र	-4020
▁आकर	-4021
▁बोस	-4022
नक	-4023
▁अधिर	-4024
▁सुनवाई	-4025
▁पैर	-4026
▁संदाय	-4027
▁पूर्वो	-4028
र्पण	-4029
दारों	-4030
▁पर्यटन	-4031
▁परिभाषित	-4032
वायु	-4033
ीकृत	-4034
▁योजनाओं	-4035
▁डाटा	-4036
▁शिखर	-4037
▁मध्यम	-4038
द्री	-4039
▁नेश	-4040
▁विद्र	-4041
▁तुम्हारे	-4042
वश	-4043
▁गवर्	-4044
▁शीर्षक	-4045
ायर	-4046
▁आवश्यकताओं	-4047
▁प्राथमिकता	-4048
▁विनिमय	-4049
▁नीतियों	-4050
▁श्रेष्ठ	-4051
▁१	-4052
गोर	-4053
▁असर	-4054
▁खड़ा	-4055
▁संक्रमण	-4056
▁क्रिकेट	-4057
ing	-4058
िरा	-4059
▁फर्म	-4060
▁ऑनलाइन	-4061
▁दिनांक	-4062
▁मजिस्ट	-4063
▁नद	-4064
▁पश	-4065
▁उदार	-4066
क्रिय	-4067
▁..	-4068
▁...	-4069
▁बाकी	-4070
▁दीवार	-4071
वैधानिक	-4072
▁फ़िल्म	-4073
ुण	-4074
▁सारा	-4075
▁रिट	-4076
▁चलने	-4077
ख्यात	-4078
▁अचान	-4079
▁अर्ध	-4080
▁बनाये	-4081
▁चा	-4082
▁अस्था	-4083
ैया	-4084
▁जड़	-4085
▁आलोचना	-4086
▁हार्दिक	-4087
▁निश	-4088
▁बदले	-4089
▁बिंदु	-4090
▁सिद्धांतों	-4091
ंसिल	-4092
▁ढांचे	-4093
▁यौ	-4094
▁धो	-4095
▁अचानक	-4096
▁बदलने	-4097
▁विभाजित	-4098
र्की	-4099
▁तला	-4100
▁स्टेशन	-4101
▁अब्द	-4102
▁स्वतः	-4103
▁परे	-4104
▁पढ़ने	-4105
▁प्रशंसा	-4106
▁दुर	-4107
▁मिलियन	-4108
▁प्रतियोग	-4109
▁वचन	-4110
▁विनय	-4111
▁शिक्षक	-4112
ाले	-4113
▁यथास्थिति	-4114
ासत	-4115
▁उन्म	-4116
▁रहें	-4117
▁आजादी	-4118
▁मजदूर	-4119
थित	-4120
लेट	-4121
▁त्वचा	-4122
▁पत्थर	-4123
लित	-4124
▁मण	-4125
▁दर्द	-4126
क्क	-4127
▁प्रतिभूति	-4128
▁प्रवृत्ति	-4129
▁जागर	-4130
▁कितने	-4131
▁कम्पनी	-4132
▁छो	-4133
▁पार्	-4134
▁मॉडल	-4135
▁पक्षकार	-4136
▁संशोधित	-4137
▁सुविधाएं	-4138
▁नृत	-4139
पथ	-4140
काब	-4141
▁अय	-4142
▁निच	-4143
▁राव	-4144
▁विज्ञ	-4145
▁दिव्य	-4146
▁किताब	-4147
विज्ञान	-4148
▁संक्षिप्त	-4149
▁जवाह	-4150
▁समूहों	-4151
▁विनिश्च	-4152
गमन	-4153
स्फ	-4154
क़्त	-4155
▁देखना	-4156
▁शर्मा	-4157
▁निवारण	-4158
▁कैं	-4159
▁तोड़	-4160
▁उल्लेखनीय	-4161
ानिक	-4162
▁पंड	-4163
▁अस्वी	-4164
▁ब्राह्म	-4165
▁राजधानी	-4166
नाटक	-4167
▁उसको	-4168
▁सुदृढ़	-4169
अर	-4170
ांतिक	-4171
▁तिथि	-4172
▁बल्ले	-4173
▁समानता	-4174
ब्ल	-4175
▁मकान	-4176
▁अत्या	-4177
▁पूर्	-4178
▁विद्या	-4179
▁प्राधिकार	-4180
ेंज	-4181
▁हल्	-4182
▁इनकी	-4183
▁प्रेस	-4184
▁तत्काल	-4185
ांतरण	-4186
▁अनुमोदन	-4187
▁स्वाभाविक	-4188
▁अवैध	-4189
▁प्रारम्भ	-4190
▁झु	-4191
▁पट्ट	-4192
०क	-4193
व्या	-4194
▁छात्रों	-4195
▁पौधों	-4196
▁नेपाल	-4197
िल्प	-4198
▁आकाश	-4199
▁संवर्धन	-4200
▁ट्यू	-4201
▁दैनिक	-4202
▁औपचारिक	-4203
▁जिम्मेदारी	-4204
ार्ज	-4205
▁गहन	-4206
▁वर्णित	-4207
▁प्रान्त	-4208
▁प्रतिस्पर्	-4209
▁ठोस	-4210
▁नील	-4211
वासियों	-4212
परी	-4213
▁कब	-4214
सेंस	-4215
as	-4216
न्दु	-4217
▁जलवायु	-4218
ट्	-4219
ेंड	-4220
▁उद्घाटन	-4221
▁लिंग	-4222
मार्ग	-4223
▁संवाद	-4224
▁हिमालय	-4225
▁बौद्धिक	-4226
▁हस्तक्षेप	-4227
रम	-4228
म्परा	-4229
▁बालक	-4230
▁रसाय	-4231
▁समावेश	-4232
कल्प	-4233
▁पीओ	-4234
जल	-4235
पीठ	-4236
ग्रस्त	-4237
कलन	-4238
ाधिकार	-4239
काव	-4240
▁कच्च	-4241
▁हालत	-4242
▁समुद्री	-4243
▁करवा	-4244
▁ग़	-4245
०वीं	-4246
▁दान	-4247
▁गहरी	-4248
▁ब्रिटेन	-4249
▁अक्त	-4250
▁सामूह	-4251
▁मृ	-4252
म्मू	-4253
वादियों	-4254
▁भारतीयों	-4255
▁विपणन	-4256
▁उच्चतर	-4257
▁बजट	-4258
▁खत्म	-4259
▁निभ	-4260
▁चुने	-4261
▁चुनौ	-4262
▁तत्वों	-4263
▁पड	-4264
▁खाली	-4265
▁क्लिक	-4266
▁अद्यतन	-4267
ांकन	-4268
▁गरीबी	-4269
▁वस्तुत	-4270
▁कर्नाटक	-4271
यत	-4272
▁जम्मू	-4273
▁कष्ट	-4274
▁गाँव	-4275
▁भंडार	-4276
▁भले	-4277
▁गुफा	-4278
▁शिशु	-4279
▁द्विप	-4280
▁नौकरी	-4281
▁प्रणाल	-4282
ूष	-4283
ावल	-4284
▁मिलाकर	-4285
▁सामूहिक	-4286
बाजी	-4287
धित	-4288
याँ	-4289
▁डाय	-4290
▁वर्गी	-4291
▁मिनट	-4292
▁बचाव	-4293
▁भेंट	-4294
▁नेशनल	-4295
▁परम्परा	-4296
▁समृद्धि	-4297
्मी	-4298
▁फे	-4299
ावली	-4300
▁आदान	-4301
▁सितंबर	-4302
ॉट	-4303
फ़ी	-4304
▁खतर	-4305
भावना	-4306
▁सोचा	-4307
▁भक्ति	-4308
▁सामान्यतः	-4309
ताया	-4310
▁कमरे	-4311
▁उन्	-4312
▁ग्ल	-4313
▁उत्तरदायी	-4314
▁सिद्धान्त	-4315
▁आना	-4316
▁ज्या	-4317
▁मिलते	-4318
▁वर्मा	-4319
▁कहने	-4320
▁राहत	-4321
▁अग्रणी	-4322
▁असाधारण	-4323
▁बुला	-4324
▁सकेगी	-4325
▁k	-4326
▁रद्द	-4327
न्थ	-4328
वाना	-4329
▁असह	-4330
राबाद	-4331
▁संवैधानिक	-4332
क्ताओं	-4333
मि	-4334
्रमण	-4335
▁गांवों	-4336
▁मजिस्ट्रेट	-4337
▁हद	-4338
▁खण्ड	-4339
▁ताकत	-4340
▁महाद	-4341
▁विद्वान	-4342
िवेश	-4343
चार्य	-4344
▁गणना	-4345
▁हज	-4346
▁कराया	-4347
ोटो	-4348
ास्ट	-4349
▁चिंत	-4350
ारक	-4351
ुति	-4352
▁सफेद	-4353
▁प्रविष्टि	-4354
ंदी	-4355
▁निगर	-4356
पत	-4357
▁अभिला	-4358
▁निपटान	-4359
▁अक्तूबर	-4360
मूल	-4361
▁यूरोपीय	-4362
▁हिंदुस्तान	-4363
ed	-4364
▁क्व	-4365
▁निगरानी	-4366
▁गू	-4367
▁पाव	-4368
▁चीनी	-4369
▁जुड़	-4370
▁डाला	-4371
जनन	-4372
▁चाय	-4373
▁स्वर्ण	-4374
▁क्रांति	-4375
टु	-4376
▁कठिनाई	-4377
▁कार्यवाहियों	-4378
ोजक	-4379
▁सन	-4380
▁सेल	-4381
▁पक्षों	-4382
▁उभर	-4383
▁लाइसेंस	-4384
▁सप	-4385
▁कब्	-4386
▁लड़के	-4387
▁पड़ी	-4388
ent	-4389
▁आश्व	-4390
▁परिभाषा	-4391
▁व्यक्तित्व	-4392
▁रवीन्द्रनाथ	-4393
▁औषध	-4394
▁बाँ	-4395
▁भंग	-4396
▁रानी	-4397
▁नेत्र	-4398
▁तथ्यों	-4399
▁बैंकिंग	-4400
▁माध्यस्थ	-4401
▁घु	-4402
▁मैत्री	-4403
▁न्यायपालिका	-4404
▁शान	-4405
▁यूनिट	-4406
▁शहरों	-4407
साइ	-4408
▁सुबह	-4409
▁पदार्थों	-4410
▁लड़ाई	-4411
▁विविधता	-4412
▁प्रतिबंध	-4413
▁बग	-4414
ॉर्ड	-4415
▁न्यास	-4416
ान्य	-4417
ॉनिक	-4418
पात	-4419
▁शल	-4420
▁भूत	-4421
▁मोड	-4422
▁लगाना	-4423
▁बांग	-4424
▁आरंभिक	-4425
▁योग्यता	-4426
नाक	-4427
▁मक	-4428
सिंह	-4429
▁बेल	-4430
▁कार्ब	-4431
▁माननीय	-4432
▁मुक्ति	-4433
▁इस्लामी	-4434
▁चीजों	-4435
▁कारावास	-4436
▁सीमाओं	-4437
▁अधिसूचना	-4438
▁देशी	-4439
▁कामना	-4440
▁जातियों	-4441
▁उतर	-4442
▁अपनाया	-4443
▁वैध	-4444
▁खड़े	-4445
▁खराब	-4446
▁रहस्य	-4447
▁वस्त्र	-4448
ावि	-4449
▁क्	-4450
▁कहता	-4451
▁शंकर	-4452
▁नृत्य	-4453
▁पौधे	-4454
▁उन्नत	-4455
▁शिक्षण	-4456
▁खतरे	-4457
▁पाँच	-4458
▁मुकाब	-4459
▁डिजाइन	-4460
▁कोट	-4461
▁अवमान	-4462
▁परिचय	-4463
▁प्यार	-4464
▁कोय	-4465
▁खेत	-4466
िस्त	-4467
▁उपे	-4468
▁जीवा	-4469
्रोल	-4470
▁उपखंड	-4471
्यवाद	-4472
▁आवेद	-4473
नीति	-4474
▁अवल	-4475
▁ट्रै	-4476
▁देवता	-4477
▁प्रसं	-4478
▁निर्मा	-4479
▁मुद्दे	-4480
▁संध्या	-4481
▁दरवा	-4482
▁लेती	-4483
▁वंचित	-4484
▁पंक्ति	-4485
ुरा	-4486
▁मिथ	-4487
▁स्क्रीन	-4488
िरी	-4489
▁मूलभूत	-4490
▁सावधानी	-4491
रेखा	-4492
▁मोटर	-4493
▁सेटिंग	-4494
ao	-4495
el	-4496
▁अनुज्ञात	-4497
▁प्रक्रियाओं	-4498
लक	-4499
ग्रहण	-4500
▁अवसरों	-4501
▁प्रश्नों	-4502
ंशिक	-4503
▁साहित्यिक	-4504
१२	-4505
दर्शी	-4506
▁ज्यो	-4507
▁मैने	-4508
▁डाउ	-4509
▁सजा	-4510
▁युक्ति	-4511
▁उपकरणों	-4512
नान	-4513
▁उतना	-4514
▁00	-4515
▁पोर्ट	-4516
▁बिलकुल	-4517
▁विरासत	-4518
ङ्	-4519
▁‘‘	-4520
ष्ठा	-4521
▁पैसे	-4522
▁साझी	-4523
▁तीसरे	-4524
▁मानना	-4525
▁अंतरिक्ष	-4526
▁प्राधिकृत	-4527
▁शक्तिशाली	-4528
▁जानने	-4529
▁मंदिरों	-4530
▁प्रतिबद्ध	-4531
▁नान	-4532
▁पेंशन	-4533
▁अर्जित	-4534
▁अपराधों	-4535
▁वसू	-4536
▁ध्वनि	-4537
▁मध्यस्थ	-4538
शे	-4539
लाब	-4540
वरों	-4541
हारिक	-4542
▁द्वि	-4543
▁स्मार	-4544
▁विक्रय	-4545
▁मौलिक	-4546
▁उपायों	-4547
बु	-4548
▁y	-4549
ंघन	-4550
िनल	-4551
▁उठाया	-4552
▁बनाता	-4553
▁स्वभाव	-4554
▁जायें	-4555
▁पंडित	-4556
▁अधिरोप	-4557
ापति	-4558
▁वस	-4559
श्म	-4560
▁रेश	-4561
पादित	-4562
▁कक्षा	-4563
▁ज़्यादा	-4564
ॉलर	-4565
▁टिप्पणी	-4566
ागर	-4567
▁छि	-4568
▁जिल	-4569
र्जन	-4570
मान्य	-4571
▁नारायण	-4572
▁पैमाने	-4573
दु	-4574
पालन	-4575
स्ट्रे	-4576
▁इंडियन	-4577
▁तंत्रिका	-4578
▁प्रवर्तन	-4579
▁नार	-4580
▁इसील	-4581
▁अनुचित	-4582
▁विनिश्चय	-4583
ंभव	-4584
▁रेख	-4585
▁खिल	-4586
▁कहला	-4587
▁पृथक	-4588
▁बजे	-4589
घर	-4590
▁प्रतियोगिता	-4591
▁जीन	-4592
▁चाहती	-4593
▁हैद	-4594
▁पहुंचने	-4595
राय	-4596
सनीय	-4597
▁तिल	-4598
▁आराम	-4599
▁प्रभाग	-4600
▁स्वामित्व	-4601
ूली	-4602
▁अमरीका	-4603
षे	-4604
▁सम्पत्ति	-4605
▁अगला	-4606
वर्ग	-4607
▁घटा	-4608
▁असाम	-4609
▁पहुँ	-4610
▁संचालित	-4611
▁विनिर्माण	-4612
भि	-4613
कोश	-4614
▁भरा	-4615
ंचाई	-4616
▁घूम	-4617
▁शोक	-4618
▁मूर्ति	-4619
▁अस्थायी	-4620
▁शक्तियां	-4621
▁लु	-4622
▁इंद	-4623
▁रास	-4624
▁उद्देश्यों	-4625
▁द्विपक्षीय	-4626
़्त	-4627
▁घटक	-4628
▁बजा	-4629
▁गुजर	-4630
▁भेजे	-4631
ेंक	-4632
▁सदी	-4633
▁मनोर	-4634
▁सराहना	-4635
▁दण्ड	-4636
▁पहलू	-4637
ol	-4638
▁बच्चा	-4639
▁कोष	-4640
▁ग्री	-4641
▁उपर्य	-4642
▁तमिलना	-4643
▁संबोधित	-4644
▁उपय	-4645
▁साहस	-4646
▁निकाला	-4647
▁यथार्थ	-4648
▁रेडियो	-4649
▁दिमा	-4650
फोन	-4651
▁यो	-4652
▁पीएस	-4653
▁विभागों	-4654
▁जाग	-4655
▁भांति	-4656
▁श्रमिक	-4657
▁महाराजा	-4658
▁आभ	-4659
क्रो	-4660
िकों	-4661
▁साइट	-4662
▁अन्वेषण	-4663
▁उर्व	-4664
▁ग्राफ	-4665
▁पीढ़ी	-4666
▁उपलब्धि	-4667
शः	-4668
▁चतु	-4669
▁पृष्ठभूमि	-4670
▁लॉग	-4671
▁रिज	-4672
▁कायम	-4673
▁मानो	-4674
▁सकेंगे	-4675
धीन	-4676
▁पोत	-4677
द्दीन	-4678
▁संतोष	-4679
▁पत्रिका	-4680
▁शास्त्र	-4681
▁चू	-4682
रचना	-4683
▁हरि	-4684
ंपरिक	-4685
▁तापमान	-4686
▁अंग्रेज	-4687
▁विद्यार्थी	-4688
ठे	-4689
▁पच	-4690
ख्यान	-4691
▁पर्वत	-4692
▁अत्यन्त	-4693
अप	-4694
▁जिनसे	-4695
▁संतुलन	-4696
रु	-4697
▁l	-4698
▁कोशिकाओं	-4699
▁छाप	-4700
▁तस्व	-4701
▁समितियों	-4702
▁खनि	-4703
▁ईसाई	-4704
▁दिसंबर	-4705
▁रजिस्ट्रीकरण	-4706
▁पॉल	-4707
▁रोम	-4708
▁वसूली	-4709
▁ड़	-4710
▁पर्	-4711
कीर्ण	-4712
▁प्रतिदिन	-4713
▁’	-4714
▁बनाकर	-4715
▁उत्तराधिक	-4716
▁खि	-4717
▁कॉल	-4718
▁बहस	-4719
▁तरीकों	-4720
ou	-4721
▁दक्षिणी	-4722
il	-4723
▁धु	-4724
▁संग्र	-4725
▁व्युत्	-4726
▁इंजीनिय	-4727
▁मरा	-4728
▁ठहरा	-4729
▁ज्योति	-4730
▁युवाओं	-4731
▁हैदराबाद	-4732
▁गुल	-4733
▁पोजी	-4734
▁विनि	-4735
▁अदा	-4736
▁शेय	-4737
▁चैतन	-4738
▁दुःख	-4739
िश्र	-4740
▁हटाने	-4741
▁प्रतिवादी	-4742
▁समझते	-4743
जातियों	-4744
वहार	-4745
▁आर्	-4746
▁एयर	-4747
▁दया	-4748
क्तिक	-4749
▁समाय	-4750
ष्णु	-4751
▁मुकदमे	-4752
म्बई	-4753
▁राजभाषा	-4754
▁गिरफ्तार	-4755
ac	-4756
▁सूचक	-4757
▁दिलच	-4758
▁जितनी	-4759
▁सिंचाई	-4760
▁देह	-4761
▁बोली	-4762
▁उपर्युक्त	-4763
▁वय	-4764
▁बचत	-4765
▁उपयोगकर्ता	-4766
ड्य	-4767
तरी	-4768
▁सल	-4769
▁चिप	-4770
▁जाओ	-4771
द्रास	-4772
▁लंबित	-4773
▁संदेय	-4774
▁क्रियान्व	-4775
▁कारक	-4776
▁देखे	-4777
▁वादी	-4778
▁पारंपरिक	-4779
▁नाते	-4780
▁तत्त्व	-4781
▁व्यावहारिक	-4782
▁झील	-4783
ड़िया	-4784
▁निभा	-4785
▁चैतन्य	-4786
शोथ	-4787
▁दाख	-4788
▁चैनल	-4789
▁पक्षकारों	-4790
▁O	-4791
रुप	-4792
▁हाँ	-4793
क्राम	-4794
▁क्षण	-4795
स्तानी	-4796
▁मिलेगी	-4797
▁अवधारणा	-4798
▁कारोबार	-4799
्ह	-4800
▁कर्ण	-4801
▁बारह	-4802
▁लगती	-4803
▁आबादी	-4804
▁स्टेट	-4805
▁रहेंगे	-4806
▁जिम्मेदार	-4807
▁मार्गदर्शन	-4808
कुमार	-4809
▁उतार	-4810
▁भर्ती	-4811
▁होंगी	-4812
▁दिखाया	-4813
▁परिवेश	-4814
र्गी	-4815
▁अवश	-4816
▁दीव	-4817
▁गारंटी	-4818
▁संवेदन	-4819
▁मानी	-4820
▁पोस्ट	-4821
▁फ़ोल्डर	-4822
▁विनियमन	-4823
▁आतंकवादी	-4824
▁झा	-4825
▁आनु	-4826
▁खूब	-4827
िवासी	-4828
▁प्रास	-4829
िर्धारित	-4830
▁कू	-4831
▁समझे	-4832
▁कराना	-4833
एच	-4834
▁iii	-4835
▁रुचि	-4836
▁झू	-4837
च्छिक	-4838
▁चुना	-4839
▁बन्द	-4840
▁उद्यान	-4841
▁रिकार्ड	-4842
▁इलेक्ट्रॉनिक	-4843
पद	-4844
भेद	-4845
▁फार	-4846
▁सद्	-4847
▁आपात	-4848
▁तात्	-4849
▁अभिगम	-4850
▁महीनों	-4851
▁मिलेगा	-4852
▁स्तरों	-4853
▁r	-4854
▁बीस	-4855
▁इलाज	-4856
▁धातु	-4857
▁अकेले	-4858
▁पोजीशन	-4859
लिंग	-4860
▁कां	-4861
▁मद्रास	-4862
▁पंजीकृत	-4863
▁फु	-4864
▁निध	-4865
▁सहन	-4866
▁सकारात्मक	-4867
▁इल	-4868
▁न्	-4869
▁दोनो	-4870
कलापों	-4871
▁हकदार	-4872
▁इसीलिए	-4873
सूर	-4874
ायल	-4875
बारा	-4876
▁अकाद	-4877
▁बहाद	-4878
▁पट्टी	-4879
▁लड़की	-4880
ल्ह	-4881
पंथी	-4882
▁वां	-4883
▁रसायन	-4884
▁उन्होने	-4885
▁केंद्रित	-4886
दोष	-4887
त्ते	-4888
▁बांध	-4889
▁बनाते	-4890
▁प्रांत	-4891
तांत्रिक	-4892
वासी	-4893
▁निष्क्रिय	-4894
▁प्रयोगशाला	-4895
ग़	-4896
्राव	-4897
▁बडी	-4898
▁गौरव	-4899
▁हड्ड	-4900
▁डालने	-4901
▁पंचायत	-4902
ासा	-4903
▁अज्ञ	-4904
▁ट्रे	-4905
▁दोहरा	-4906
▁संभावित	-4907
▁पेशे	-4908
ंत्रित	-4909
▁जोड़ने	-4910
टिक	-4911
▁ढूं	-4912
▁पुष्टि	-4913
▁विद्रोह	-4914
▁ऊंचाई	-4915
▁स्मरण	-4916
ंडा	-4917
िली	-4918
र्थी	-4919
▁धरती	-4920
▁अभिलाभ	-4921
▁सम्बंध	-4922
▁महाभारत	-4923
▁ग्राहकों	-4924
▁पालिसी	-4925
▁किश	-4926
▁आकलन	-4927
▁बारी	-4928
▁रहित	-4929
▁हिस	-4930
▁संतु	-4931
▁पड़ती	-4932
▁आधारभूत	-4933
जीवन	-4934
ेदार	-4935
▁भरी	-4936
▁इमार	-4937
▁छाया	-4938
▁जाएँ	-4939
क्षणिक	-4940
ांक्षा	-4941
▁रूपों	-4942
▁संपदा	-4943
▁भगवान्	-4944
▁याची	-4945
▁परिसर	-4946
▁विवेक	-4947
▁प्रेषित	-4948
▁भरे	-4949
▁चुनें	-4950
▁बढ़ने	-4951
▁वस्तुतः	-4952
्रीम	-4953
▁लार	-4954
▁कहां	-4955
▁वार्	-4956
▁पशुओं	-4957
▁मधु	-4958
▁जायेगी	-4959
रलाल	-4960
▁चली	-4961
▁जमान	-4962
▁निकालने	-4963
▁परिवारों	-4964
▁उत्तरदायित्व	-4965
ोहन	-4966
ार्ट	-4967
▁ऊपरी	-4968
▁मातृ	-4969
▁जानकर	-4970
स्ट्रेलिया	-4971
डि	-4972
्रु	-4973
▁उल्लंघन	-4974
▁जमी	-4975
▁आंशिक	-4976
ेंच	-4977
▁in	-4978
▁शो	-4979
ंदगी	-4980
पन्न	-4981
▁टूट	-4982
ायतों	-4983
▁यादव	-4984
▁शिक्षकों	-4985
दात	-4986
▁छोड	-4987
▁पदों	-4988
▁पार्क	-4989
▁फैसला	-4990
शाह	-4991
मानी	-4992
ोसिए	-4993
▁संज	-4994
▁पहाड़ी	-4995
▁तृ	-4996
▁बहुमत	-4997
रस	-4998
▁शौ	-4999
कल्पिक	-5000
▁मानता	-5001
ाज़	-5002
न्या	-5003
▁कागज	-5004
▁मुंह	-5005
▁प्रतीक्षा	-5006
am	-5007
▁पाप	-5008
▁प्लस	-5009
▁व्यापारी	-5010
पो	-5011
यक	-5012
जीवी	-5013
▁जापान	-5014
▁भ्रष्ट	-5015
काता	-5016
▁अमरीकी	-5017
▁घृ	-5018
ैण्ड	-5019
▁एकदम	-5020
▁कृति	-5021
▁पुरूष	-5022
खन	-5023
▁ईरान	-5024
▁पहुंचे	-5025
▁आयी	-5026
श्वास	-5027
▁u	-5028
▁कपड़े	-5029
व्यों	-5030
▁तमिलनाडु	-5031
▁अमर	-5032
▁मुगल	-5033
▁जुड़ा	-5034
▁प्रजनन	-5035
▁मानवता	-5036
▁स्वीकृत	-5037
▁वैकल्पिक	-5038
▁साझा	-5039
▁दुर्भ	-5040
▁अच	-5041
▁कड़ी	-5042
▁लकड़ी	-5043
▁शान्त	-5044
▁सम्भव	-5045
▁मुकदमा	-5046
▁बोध	-5047
▁देखता	-5048
गि	-5049
राशि	-5050
▁बुल	-5051
▁राह	-5052
▁दिला	-5053
▁लगते	-5054
▁हाथी	-5055
▁दस्तावेजों	-5056
ुत्व	-5057
ांतरित	-5058
▁विवरणी	-5059
▁इंजीनियर	-5060
जु	-5061
ंधन	-5062
▁चेक	-5063
तावनी	-5064
▁शांत	-5065
▁जोड़ा	-5066
बान	-5067
▁फैला	-5068
▁जवाहरलाल	-5069
▁पुस्तकों	-5070
थान	-5071
्टा	-5072
दायक	-5073
▁थोड़ी	-5074
▁रिक्त	-5075
▁वापसी	-5076
▁जर्मनी	-5077
प्रदायिक	-5078
▁किन्हीं	-5079
▁अखिल	-5080
ब्ल्यू	-5081
▁पूर्णतः	-5082
१३	-5083
र्दू	-5084
▁एल्	-5085
▁हां	-5086
▁समझता	-5087
▁सिवाय	-5088
▁फ्रांस	-5089
दल	-5090
▁प्राइ	-5091
ूरक	-5092
▁तदन	-5093
▁चिन्ह	-5094
▁धन्यवाद	-5095
ेतन	-5096
▁भव	-5097
▁चुप	-5098
▁पैके	-5099
▁साहब	-5100
▁चेतावनी	-5101
▁एव	-5102
▁बैठे	-5103
▁लिंक	-5104
निंग	-5105
▁उग्र	-5106
▁गहराई	-5107
▁ड्राइ	-5108
ायण	-5109
▁कस	-5110
कलाप	-5111
फेसर	-5112
▁जुल	-5113
▁दार्	-5114
▁मोहन	-5115
▁उल्लिखित	-5116
ँग	-5117
िटल	-5118
ेरे	-5119
▁गईं	-5120
▁रोगों	-5121
▁संगठित	-5122
▁सेक	-5123
▁गद्य	-5124
▁गुरू	-5125
▁पाता	-5126
▁मछली	-5127
▁उर्दू	-5128
▁दुकान	-5129
▁उन्हीं	-5130
▁सिक	-5131
▁स्वप	-5132
▁सूचित	-5133
▁पहलुओं	-5134
▁साधनों	-5135
▁इंग्लैंड	-5136
हाई	-5137
वर्ड	-5138
▁खड़ी	-5139
▁सम्पर्क	-5140
▁वास	-5141
▁उत्तेज	-5142
▁कुशलता	-5143
▁कानूनों	-5144
ब्ब	-5145
▁माने	-5146
▁गाड़ी	-5147
▁दक्षता	-5148
▁प्रसंस्	-5149
▁नकारात्मक	-5150
▁शपथ	-5151
▁शोर	-5152
▁साझे	-5153
संरचना	-5154
▁भेजने	-5155
▁कही	-5156
▁ब्राउ	-5157
▁मान्य	-5158
▁तुर्की	-5159
▁संभवतः	-5160
दनी	-5161
▁पढ	-5162
सेना	-5163
▁बाय	-5164
▁किलोमीटर	-5165
▁प्रतिष्ठित	-5166
▁नं	-5167
▁सुश्री	-5168
▁अपी	-5169
▁शल्य	-5170
▁टिप्पण	-5171
्वान	-5172
▁चुकता	-5173
नलोड	-5174
▁ठाक	-5175
▁उत्तम	-5176
▁स्ट्र	-5177
▁फलस्वरूप	-5178
बीर	-5179
▁अम्	-5180
▁आखिर	-5181
▁अंग्रेजों	-5182
▁समा	-5183
▁यानी	-5184
ेस	-5185
ंटर	-5186
▁एजेंसी	-5187
▁पड़ेगा	-5188
▁प्रोफेसर	-5189
ैट	-5190
्ण	-5191
▁लोड	-5192
▁गांधीजी	-5193
ec	-5194
रेख	-5195
▁अवय	-5196
्नि	-5197
▁सतत	-5198
▁सीधा	-5199
▁अक्षम	-5200
▁चयनित	-5201
▁प्रबल	-5202
यु	-5203
▁कं	-5204
▁नज	-5205
▁आपस	-5206
▁मेन	-5207
▁निरसन	-5208
▁प्रतिबि	-5209
▁अभिनिर्धारित	-5210
▁जू	-5211
▁ज्व	-5212
▁भाष	-5213
▁रखकर	-5214
पल	-5215
पक्ष	-5216
ड़ीसा	-5217
▁डॉलर	-5218
▁एजेंस	-5219
▁स्त्रियों	-5220
गरी	-5221
▁आबंट	-5222
▁संधि	-5223
विंद	-5224
▁हरे	-5225
▁उतनी	-5226
▁कनेक्शन	-5227
▁खात	-5228
▁विनाश	-5229
▁शानदार	-5230
प्ट	-5231
लिप	-5232
▁चीजें	-5233
ख्त	-5234
▁पोल	-5235
▁भरो	-5236
▁सड़	-5237
▁अंतराल	-5238
▁क्रांतिक	-5239
▁व्यवस्थित	-5240
▁नवं	-5241
▁अपमान	-5242
▁तीनों	-5243
▁मुझसे	-5244
▁रिश्त	-5245
▁तैयारी	-5246
▁चिकित्सक	-5247
▁उपा	-5248
विष्ट	-5249
▁अभ्य	-5250
▁एकीकृत	-5251
▁प्रतिर	-5252
▁मेम	-5253
▁सिख	-5254
▁दोस्त	-5255
▁दुर्भाग	-5256
▁अफग	-5257
▁शेख	-5258
▁अपनाने	-5259
▁सम्बन्धित	-5260
▁देखी	-5261
▁स्वाधीन	-5262
▁सीता	-5263
▁पत्रों	-5264
प्ति	-5265
▁काले	-5266
▁माध्यस्थम्	-5267
▁ष	-5268
्वे	-5269
लांग	-5270
▁खून	-5271
ब्लिक	-5272
▁भाष्	-5273
▁वृद्ध	-5274
▁पहन	-5275
▁गुणों	-5276
▁चुनौतियों	-5277
▁घो	-5278
ोदित	-5279
▁अहि	-5280
▁सैन्य	-5281
▁हिसाब	-5282
▁याताया	-5283
▁विश्वसनीय	-5284
गां	-5285
▁गर्व	-5286
वारी	-5287
▁पाये	-5288
▁जीवों	-5289
▁सतर्क	-5290
iv	-5291
▁सकल	-5292
ष्कार	-5293
▁हाउस	-5294
▁कीटों	-5295
▁मिश्रण	-5296
▁कोलकाता	-5297
ध्व	-5298
ुप्त	-5299
▁रवि	-5300
▁नवंबर	-5301
▁घनिष्ठ	-5302
▁डिग्री	-5303
▁गतिविधि	-5304
▁चिकित्सीय	-5305
ad	-5306
▁गोद	-5307
▁कट्टर	-5308
▁खोलने	-5309
▁वाद्य	-5310
▁मशीनरी	-5311
▁अनुपालन	-5312
वेट	-5313
ापरी	-5314
▁संपन्न	-5315
▁यातायात	-5316
▁विवादों	-5317
अल	-5318
प्रद	-5319
शनिक	-5320
▁हमे	-5321
▁अनाज	-5322
▁लाना	-5323
▁अंततः	-5324
▁रहेगी	-5325
▁अपराधी	-5326
भौ	-5327
न्तर	-5328
▁पैसा	-5329
▁क्रमशः	-5330
▁डाउनलोड	-5331
▁कार्म	-5332
▁तह	-5333
▁दाखिल	-5334
▁मंजूर	-5335
इयां	-5336
▁ध्वज	-5337
▁प्लेट	-5338
▁शत्रु	-5339
▁प्रदत्त	-5340
▁शैक्षणिक	-5341
▁वैज्ञानिकों	-5342
ाट	-5343
ुणा	-5344
्लो	-5345
▁बडे	-5346
▁महल	-5347
▁लोह	-5348
▁अहमद	-5349
▁कार्यान्वित	-5350
ोज़	-5351
▁उज	-5352
▁ढांचा	-5353
▁लोकतांत्रिक	-5354
वाने	-5355
▁हिमा	-5356
▁मित्रों	-5357
काया	-5358
ापुर	-5359
▁जला	-5360
▁दावे	-5361
▁परिचित	-5362
▁स्थितियों	-5363
▁फस	-5364
▁उठाए	-5365
यक्तिक	-5366
▁बढ़ते	-5367
▁आरक्षित	-5368
▁रजिस्टर	-5369
▁कार्यपालिका	-5370
ज़े	-5371
▁दोषी	-5372
▁किराये	-5373
▁सभापति	-5374
ावधि	-5375
▁इकट	-5376
▁कुटु	-5377
▁गीता	-5378
▁अस्वीकार	-5379
▁दार्शनिक	-5380
वित	-5381
▁घास	-5382
▁डिप	-5383
कियों	-5384
▁विलंब	-5385
▁तस्वीर	-5386
▁रचनात्मक	-5387
ंसक	-5388
▁दिमाग	-5389
id	-5390
त्रिम	-5391
▁आपसे	-5392
▁भक्त	-5393
्द	-5394
मुच	-5395
▁सहभाग	-5396
▁सहारा	-5397
दाताओं	-5398
▁अस्थि	-5399
▁हजारों	-5400
▁प्रतिफल	-5401
ाहट	-5402
गामी	-5403
▁पुण	-5404
▁प्रमाणित	-5405
▁मेघ	-5406
▁ट्यूब	-5407
▁आह्वान	-5408
▁राष्ट्रों	-5409
▁क्षतिपूर्ति	-5410
ड़ना	-5411
▁आस्था	-5412
▁मानकों	-5413
▁मोहम्मद	-5414
▁व्यापारिक	-5415
▁उभ	-5416
साइटी	-5417
▁घाटी	-5418
▁वांछ	-5419
▁चेहरे	-5420
▁विष्णु	-5421
▁ब्राह्मण	-5422
विदा	-5423
▁वाहन	-5424
▁स्तरीय	-5425
▁अधिरोपित	-5426
▁नवी	-5427
▁समेक	-5428
▁इंस्ट	-5429
▁विनिधान	-5430
▁बल्लेबाज	-5431
मेन	-5432
ोधन	-5433
▁कालेज	-5434
▁जुड़ी	-5435
▁उड़ीसा	-5436
▁लोकसभा	-5437
ब्ध	-5438
▁जायेंगे	-5439
तो	-5440
थे	-5441
▁अपरि	-5442
▁सहयोगी	-5443
▁वस्तुएं	-5444
▁सोसाइटी	-5445
यिक	-5446
▁रूस	-5447
▁जमानत	-5448
▁बढ़कर	-5449
▁संभाल	-5450
थन	-5451
ण्ट	-5452
▁रम	-5453
लाका	-5454
▁अंकित	-5455
▁कार्यरत	-5456
▁दिसम्बर	-5457
▁तू	-5458
▁रिस	-5459
्रेता	-5460
▁बंदर	-5461
▁पुस्तिका	-5462
▁विचारधारा	-5463
▁सचमुच	-5464
▁हार्ड	-5465
▁गवर्नर	-5466
▁समुदायों	-5467
▁प्रतिष्ठा	-5468
▁प्रासंगिक	-5469
क़्	-5470
▁धम	-5471
ोनें	-5472
▁देखो	-5473
▁धनराशि	-5474
▁कृत्रिम	-5475
▁शिक्षित	-5476
▁विद्वानों	-5477
ME	-5478
▁अजी	-5479
▁कथित	-5480
▁घरों	-5481
▁निर्देशिका	-5482
▁असली	-5483
▁सेवान	-5484
▁गुप्ता	-5485
▁बहादुर	-5486
▁प्रजाति	-5487
▁प्रतिरोध	-5488
▁नकद	-5489
▁बाई	-5490
▁अभिर	-5491
▁क्रेड	-5492
▁नवम्बर	-5493
वती	-5494
▁फौ	-5495
▁बम	-5496
ार्इ	-5497
ासीन	-5498
गोलिक	-5499
▁पढ़ा	-5500
▁सलाहकार	-5501
स्पति	-5502
▁आपसी	-5503
▁गणित	-5504
▁आदेशों	-5505
og	-5506
वृ	-5507
ूण	-5508
▁टू	-5509
िकीय	-5510
▁पाइ	-5511
▁इकट्	-5512
▁श्वेत	-5513
▁नस्ल	-5514
▁फोटो	-5515
▁मतदान	-5516
▁उत्पादक	-5517
▁दुर्भाग्य	-5518
आईआर	-5519
▁कना	-5520
▁बिट	-5521
क़्ति	-5522
▁ईंधन	-5523
▁चट्ट	-5524
▁परिवर्तनों	-5525
कन	-5526
क्की	-5527
▁चां	-5528
▁अंडे	-5529
he	-5530
▁हिमाचल	-5531
▁भावनाओं	-5532
▁प्रभावशाली	-5533
▁सामान्यतया	-5534
सार	-5535
▁चुक	-5536
चालित	-5537
▁छत्त	-5538
▁जिसको	-5539
▁प्रक्रम	-5540
▁संकल्पना	-5541
ढ़े	-5542
▁लीग	-5543
▁भौगोलिक	-5544
▁रिकॉर्ड	-5545
▁शासक	-5546
▁सेवानिव	-5547
▁दबा	-5548
स्फोट	-5549
▁अर्ज	-5550
▁आईटी	-5551
▁लिपि	-5552
▁मासिक	-5553
▁लेंगे	-5554
▁अधीनस्थ	-5555
▁उपलब्धता	-5556
हीत	-5557
न्धन	-5558
▁नाब	-5559
▁स्तन	-5560
▁ठाकुर	-5561
ोक्ताओं	-5562
▁लेखकों	-5563
▁परिस्थिति	-5564
दातर	-5565
▁आयुर्	-5566
▁वैदिक	-5567
▁संवेद	-5568
▁सुन्दर	-5569
▁दर्शाता	-5570
मो	-5571
यालय	-5572
▁काली	-5573
▁अर्जन	-5574
▁ऑडियो	-5575
▁तीसरा	-5576
▁अनुदेश	-5577
▁अभ्यास	-5578
▁डो	-5579
▁वाम	-5580
▁तलाश	-5581
▁अवरोध	-5582
▁असामान्य	-5583
िमा	-5584
▁भरप	-5585
▁ईमान	-5586
▁जंगल	-5587
▁बनता	-5588
▁लंदन	-5589
▁अपवाद	-5590
▁खतरनाक	-5591
▁पूर्ववर्ती	-5592
▁ऊतक	-5593
ांसी	-5594
▁चमक	-5595
▁बेर	-5596
तन्त्र	-5597
▁शुक्र	-5598
▁अज्ञात	-5599
▁एसोसिए	-5600
▁अतीत	-5601
▁शासित	-5602
▁इकाइयों	-5603
▁प्रसंस्करण	-5604
ितु	-5605
ड़ाई	-5606
▁मस्	-5607
▁पाठक	-5608
चन्द्र	-5609
▁कार्यकारी	-5610
IN	-5611
बेस	-5612
नाइट	-5613
म्बी	-5614
ोचित	-5615
▁आयकर	-5616
▁शेयरों	-5617
▁उपेक्षा	-5618
▁संक्षेप	-5619
▁अपेक्षाकृत	-5620
हता	-5621
▁निबंध	-5622
▁खनिज	-5623
▁बिता	-5624
▁सेक्टर	-5625
▁प्रसारण	-5626
▁अध्यक्षता	-5627
▁जॉ	-5628
▁कहाँ	-5629
▁गोरा	-5630
▁अभिप्र	-5631
▁रिजर्व	-5632
ानिस्तान	-5633
▁अनुक्रम	-5634
▁योजनाएं	-5635
णित	-5636
ायन	-5637
ation	-5638
▁टिकट	-5639
▁लंबाई	-5640
▁नदियों	-5641
ष्म	-5642
क्सा	-5643
च्छा	-5644
▁निधन	-5645
पेश	-5646
वाँ	-5647
संख्य	-5648
▁ग्रे	-5649
▁सेंट	-5650
▁पैकेज	-5651
▁मुख्यतः	-5652
▁संग्रहालय	-5653
डन	-5654
▁दाम	-5655
ांडिक	-5656
▁गहरे	-5657
▁जुर्म	-5658
▁शिल्प	-5659
▁हरिया	-5660
▁पारस्प	-5661
िफ	-5662
▁क्रेडिट	-5663
▁प्रचालन	-5664
टने	-5665
मंड	-5666
▁किल	-5667
▁पिछली	-5668
▁सुनने	-5669
▁त्वरित	-5670
▁प्रणालियों	-5671
वण	-5672
▁परत	-5673
▁यान	-5674
▁चावल	-5675
▁बंबई	-5676
▁कुरान	-5677
▁कैंसर	-5678
▁चेन्न	-5679
ॉम	-5680
▁सज	-5681
▁केंद्रों	-5682
▁नल	-5683
▁चंद	-5684
▁साँ	-5685
▁बुरी	-5686
▁साथी	-5687
▁पेट्रोल	-5688
▁राज्यक्षेत्र	-5689
लाल	-5690
▁पक्षी	-5691
▁मतभेद	-5692
▁दिखाने	-5693
▁आस्तियों	-5694
इल	-5695
▁ऑफ़	-5696
▁ताज	-5697
सूत्र	-5698
▁तनाव	-5699
▁ढल	-5700
▁फाइ	-5701
▁मेड	-5702
ायनिक	-5703
▁अभिकरण	-5704
▁नकदी	-5705
▁सोने	-5706
▁बोलते	-5707
▁वार्ता	-5708
▁तदनुसार	-5709
▁अनुमोदित	-5710
▁निर्णयों	-5711
▁व्युत्पन्न	-5712
▁खर	-5713
क्कर	-5714
ांकित	-5715
▁अगली	-5716
▁मादा	-5717
▁रखती	-5718
▁राजी	-5719
▁पुष्प	-5720
▁रामायण	-5721
▁विनिया	-5722
▁प्रबंधक	-5723
सेस	-5724
▁कच	-5725
▁मौका	-5726
▁लंबा	-5727
ानुभूति	-5728
▁इन्द्र	-5729
▁डाक्टर	-5730
▁परेशान	-5731
▁प्रोटोक	-5732
झा	-5733
दूरी	-5734
पीसी	-5735
▁खर्	-5736
▁पेर	-5737
▁सीखने	-5738
▁मंजूरी	-5739
▁आमंत्रित	-5740
कीन	-5741
स्तु	-5742
▁जगत	-5743
▁संगणक	-5744
▁पारस्परिक	-5745
▁व्याख्यान	-5746
स्टर	-5747
▁बचने	-5748
▁बाज़	-5749
▁मोटे	-5750
कारिता	-5751
▁दशकों	-5752
▁बचाने	-5753
▁सौंदर	-5754
▁मानदंड	-5755
▁समर्पण	-5756
tr	-5757
ोपण	-5758
▁काला	-5759
▁ज़रूर	-5760
▁अन्तिम	-5761
▁लक्ष्यों	-5762
फ्र	-5763
▁अहं	-5764
▁लोप	-5765
▁टेक्	-5766
▁विजे	-5767
▁अवसंरचना	-5768
साद	-5769
भाषण	-5770
▁असल	-5771
▁वजन	-5772
▁दत्त	-5773
▁फेंक	-5774
▁बनना	-5775
▁बयान	-5776
▁दांडिक	-5777
▁व्यस्त	-5778
ाश	-5779
▁पन	-5780
▁तुम्हारी	-5781
णि	-5782
एमई	-5783
▁मं	-5784
▁खबर	-5785
▁बलि	-5786
▁शरण	-5787
▁स्वै	-5788
▁होटल	-5789
▁फायदा	-5790
▁हथियार	-5791
▁विन्यास	-5792
▁विकासशील	-5793
षेध	-5794
ेदन	-5795
▁आजाद	-5796
▁लिखते	-5797
▁वैयक्तिक	-5798
चाप	-5799
▁खुला	-5800
▁दौड़	-5801
▁नर्म	-5802
ियुक्त	-5803
▁अनन्त	-5804
▁चलाया	-5805
▁तीर्थ	-5806
▁क़्यों	-5807
▁मुलाका	-5808
ाग्र	-5809
▁आदर	-5810
▁टर्म	-5811
ानुसार	-5812
▁पीड़ा	-5813
▁भाग्य	-5814
▁सम्रा	-5815
▁सितम्बर	-5816
ामिन	-5817
▁जुट	-5818
प्राप्त	-5819
▁पंजाबी	-5820
▁उद्यमों	-5821
मेल	-5822
▁वैष्ण	-5823
▁कुमारी	-5824
▁पूर्वा	-5825
लभ	-5826
▁ऊँ	-5827
▁रन	-5828
▁हाई	-5829
▁टीका	-5830
▁पाना	-5831
▁वरन्	-5832
▁वासी	-5833
▁गर्मी	-5834
▁शाखाओं	-5835
▁संगणना	-5836
▁नियंत्रक	-5837
▁परंपरागत	-5838
▁रासायनिक	-5839
▁इंजीनियरी	-5840
१४	-5841
ाबाद	-5842
▁उपरो	-5843
▁किमी	-5844
▁पैनल	-5845
▁कमीशन	-5846
▁चाहूंगा	-5847
▁अद्व	-5848
▁लगाए	-5849
▁सहेज	-5850
▁पुराना	-5851
क्ल	-5852
▁केश	-5853
▁गलती	-5854
▁सबूत	-5855
व्यापी	-5856
▁रचनाओं	-5857
▁आकांक्षा	-5858
▁यहू	-5859
ूपी	-5860
▁छत	-5861
▁कवियों	-5862
ुरत	-5863
▁सेन	-5864
▁रिज़	-5865
▁अंतरित	-5866
▁अभियोजन	-5867
▁देवताओं	-5868
टो	-5869
ानाथ	-5870
▁फुट	-5871
▁इसको	-5872
▁अक्षर	-5873
▁सृजित	-5874
ैंक	-5875
▁एक्	-5876
▁मौत	-5877
▁छत्तीस	-5878
▁अभिव्यक्त	-5879
साई	-5880
▁आवि	-5881
▁स्वप्न	-5882
▁उपरोक्त	-5883
▁समू	-5884
▁ऊंची	-5885
▁आंकड़े	-5886
▁स्कूलों	-5887
▁प्रशिक्षित	-5888
िथ	-5889
१क	-5890
ेडकर	-5891
ार्थियों	-5892
aa	-5893
िवी	-5894
▁विट	-5895
▁सम्मानित	-5896
िक्र	-5897
▁त्रिप	-5898
▁पुस्तकालय	-5899
ुश	-5900
▁अट	-5901
▁हड़	-5902
▁निकलने	-5903
▁कम्प्यूटर	-5904
▁पचास	-5905
▁निरूप	-5906
▁संयोजन	-5907
▁संग्रहण	-5908
▁दमन	-5909
▁धूम	-5910
▁क्यू	-5911
▁शस्त्र	-5912
▁अवर	-5913
▁उपज	-5914
▁हिल	-5915
स्तीन	-5916
▁दांत	-5917
▁वन्य	-5918
▁लाभों	-5919
▁प्रोटीन	-5920
▁विकलांग	-5921
▁पुस्तकें	-5922
▁शर	-5923
▁राधा	-5924
▁तीसरी	-5925
▁अधिवेशन	-5926
▁जानवरों	-5927
फ्	-5928
श्रे	-5929
▁वेश	-5930
▁श्रो	-5931
▁लिखना	-5932
▁निष्ठा	-5933
▁विधायी	-5934
ृंग	-5935
▁इक	-5936
▁बडा	-5937
▁मेज	-5938
शुल्क	-5939
▁आवेदक	-5940
▁संचित	-5941
▁दिखाएँ	-5942
▁विनियामक	-5943
uot	-5944
▁at	-5945
▁पॉ	-5946
रानी	-5947
्रेम	-5948
▁नती	-5949
▁सोम	-5950
▁अनुया	-5951
▁उपग्रह	-5952
सेट	-5953
▁संभ	-5954
ाइयों	-5955
▁पारि	-5956
स्तीनी	-5957
▁शर्तें	-5958
ूँगा	-5959
▁एण्ड	-5960
▁नर्स	-5961
▁भिन्	-5962
▁कविताओं	-5963
▁पूर्णता	-5964
▁संतुष्ट	-5965
▁अग्नि	-5966
▁तुमने	-5967
▁फसलों	-5968
▁मरम्मत	-5969
▁स्पर्श	-5970
तना	-5971
▁बहि	-5972
▁अपितु	-5973
▁जाया	-5974
▁साक्षा	-5975
▁परिपक्व	-5976
▁परिश्रम	-5977
▁मुहम्मद	-5978
▁सौंदर्य	-5979
▁परिकल्पना	-5980
▁कार्यालयों	-5981
ेनिस	-5982
▁लगने	-5983
▁सबके	-5984
▁पूर्णतया	-5985
चंद	-5986
ण्डल	-5987
ूकता	-5988
▁अशोक	-5989
▁दलों	-5990
▁ट्रेड	-5991
▁संप्र	-5992
▁आकर्षण	-5993
▁छुट्टी	-5994
▁सम्पन्न	-5995
विन	-5996
ोला	-5997
▁शेर	-5998
▁ह्र	-5999
▁ऊंचे	-6000
▁कराई	-6001
▁हमला	-6002
▁सैनिकों	-6003
▁निष्पक्ष	-6004
ल्ली	-6005
वानी	-6006
▁कंट	-6007
▁किशोर	-6008
▁बताते	-6009
ैस	-6010
दूत	-6011
मिन	-6012
्मा	-6013
यंती	-6014
र्मी	-6015
▁कहे	-6016
▁जाह	-6017
▁सोल	-6018
▁कृत्य	-6019
ूनी	-6020
▁लल	-6021
जनों	-6022
▁ज़ि	-6023
▁तारा	-6024
▁निचले	-6025
▁ग्रस्त	-6026
▁सार्वभौ	-6027
▁अंग्रेज़ी	-6028
गें	-6029
ांज	-6030
्रित	-6031
▁यहूदी	-6032
▁स्वाधीनता	-6033
▁प्रतिस्पर्धा	-6034
im	-6035
▁तंग	-6036
▁बटन	-6037
क्षरता	-6038
एक	-6039
चिक	-6040
पोषण	-6041
▁बसव	-6042
▁अवकाश	-6043
▁अब्दुल	-6044
▁टेलीफोन	-6045
▁उन्होनें	-6046
▁चक	-6047
▁केस	-6048
▁ब्लॉक	-6049
▁लम्बे	-6050
▁चित्रण	-6051
▁प्रसंग	-6052
▁लेखापरी	-6053
▁विस्फोट	-6054
▁प्रभार्य	-6055
▁सहानुभूति	-6056
पू	-6057
▁रॉ	-6058
▁तरल	-6059
▁प्रब	-6060
दर्शिता	-6061
▁अभिभाषण	-6062
▁असी	-6063
▁मील	-6064
वाणी	-6065
हारी	-6066
▁इंस	-6067
▁सूजन	-6068
▁विदेशों	-6069
▁विधियां	-6070
▁प्रावधानों	-6071
खर	-6072
ेटी	-6073
्वीप	-6074
▁रोड	-6075
▁प्राणी	-6076
▁समर्थित	-6077
▁वास्तविकता	-6078
▁क्रांतिकारी	-6079
िच	-6080
▁of	-6081
▁तप	-6082
शाही	-6083
ायिका	-6084
▁क्रय	-6085
्लादेश	-6086
▁बनाती	-6087
▁फिलीस्तीनी	-6088
▁सफलतापूर्वक	-6089
ालों	-6090
▁इंत	-6091
▁घात	-6092
▁कारख	-6093
▁साक्ष	-6094
▁अमल	-6095
▁कनाडा	-6096
▁संदत्त	-6097
खिक	-6098
ूलन	-6099
द्दी	-6100
▁नाथ	-6101
नियां	-6102
▁एमएस	-6103
▁अनुशासन	-6104
ेन्द्र	-6105
▁वृत्त	-6106
▁वृत्ति	-6107
▁शास्त्री	-6108
प्ल	-6109
ल्फ	-6110
▁नमक	-6111
▁अव्य	-6112
▁भरने	-6113
▁मिटा	-6114
▁इन्हीं	-6115
▁कलाकार	-6116
▁ज्ञापन	-6117
▁वनस्पति	-6118
शनल	-6119
र्ता	-6120
ष्टा	-6121
हवीं	-6122
▁बहन	-6123
▁शादी	-6124
▁सकने	-6125
▁जानना	-6126
▁ठे	-6127
▁आधे	-6128
▁पीने	-6129
▁सुनी	-6130
▁अनुज्ञा	-6131
▁भागीदार	-6132
▁मुकाबले	-6133
▁जागरूकता	-6134
▁हिन्दुस्तान	-6135
हाल	-6136
▁धान	-6137
▁बुक	-6138
▁विघ	-6139
ोरम	-6140
▁घोष	-6141
▁प्य	-6142
लियों	-6143
▁मंडप	-6144
▁सार्थ	-6145
▁निपटने	-6146
▁नवान्वेष	-6147
्चर	-6148
पर्य	-6149
▁पाउ	-6150
▁स्ने	-6151
▁जयंती	-6152
▁भत्ता	-6153
▁वितरित	-6154
धक	-6155
▁घन	-6156
▁समस्याएं	-6157
द्म	-6158
चेंज	-6159
▁चिर	-6160
▁अड्ड	-6161
▁थोड़े	-6162
os	-6163
शित	-6164
डीएफ	-6165
▁बदला	-6166
▁मानस	-6167
▁यूनियन	-6168
▁मुलाकात	-6169
▁तत्कालीन	-6170
▁राजमार्ग	-6171
▁उत्पादकता	-6172
स्कर	-6173
▁मोड़	-6174
▁बढ़ता	-6175
▁सोचते	-6176
▁पुनर्ग	-6177
▁एजेंसियों	-6178
▁नौकर	-6179
▁संगत	-6180
▁सुपर	-6181
▁नोटिस	-6182
व्यवहार	-6183
बन	-6184
किम	-6185
कारा	-6186
▁छुप	-6187
▁बाढ़	-6188
▁इनपुट	-6189
▁रिज़र्व	-6190
ुड	-6191
ासित	-6192
▁आधा	-6193
▁मज़	-6194
तियां	-6195
▁आपदा	-6196
▁नमूने	-6197
▁भरोसा	-6198
तापूर्वक	-6199
▁रूपरेखा	-6200
▁गिरफ्तारी	-6201
जो	-6202
वीय	-6203
▁vi	-6204
▁रै	-6205
▁ढेर	-6206
▁पंख	-6207
नीतिक	-6208
▁अनाव	-6209
▁कारगर	-6210
▁पार्ट	-6211
▁मिश्रित	-6212
▁अपीलार्थी	-6213
▁छत्तीसगढ़	-6214
▁प्रयोक्ता	-6215
us	-6216
▁बाप	-6217
▁मंग	-6218
भाग्य	-6219
▁अतिक	-6220
▁आन्द	-6221
▁जल्द	-6222
▁भरपूर	-6223
निर्देश	-6224
▁नाबार्ड	-6225
▁उत्कृष्टता	-6226
ोहर	-6227
▁बैठा	-6228
▁वैसा	-6229
▁निर्ण	-6230
▁मानने	-6231
▁सर्वप्र	-6232
रोग	-6233
▁लड	-6234
लैंड	-6235
▁देखिए	-6236
▁पड़ने	-6237
▁रूपये	-6238
▁कनेक्ट	-6239
▁स्वचालित	-6240
भु	-6241
ावन	-6242
ोसी	-6243
▁दंत	-6244
▁मैच	-6245
▁कमेटी	-6246
▁अवमानना	-6247
रीन	-6248
▁000	-6249
▁बड़	-6250
▁क्लब	-6251
▁खुली	-6252
▁आमदनी	-6253
▁उन्हे	-6254
▁स्थूल	-6255
▁अप्रत्य	-6256
मह	-6257
िकता	-6258
▁फ़ॉ	-6259
▁सज्	-6260
▁एक्ट	-6261
▁चौथा	-6262
▁दिल्	-6263
▁जिलों	-6264
▁प्रविष्ट	-6265
घन	-6266
िट्	-6267
▁दह	-6268
पश्च	-6269
▁अफ़	-6270
▁लाखों	-6271
▁कार्बन	-6272
▁मजदूरी	-6273
मेह	-6274
ाजनक	-6275
▁अरबी	-6276
▁मस्ज	-6277
▁डिजिटल	-6278
गित	-6279
▁बेस	-6280
▁सकी	-6281
संचार	-6282
▁इस्प	-6283
▁विधा	-6284
▁उपभोग	-6285
▁जंगली	-6286
▁मिलना	-6287
▁किराया	-6288
▁जरूरतों	-6289
▁अधिसूचित	-6290
ोबल	-6291
र्फ़	-6292
▁यों	-6293
▁लाह	-6294
ुक़्त	-6295
▁समता	-6296
▁सामु	-6297
▁शुरूआ	-6298
▁सदनों	-6299
▁संग्राम	-6300
▁राष्ट्री	-6301
▁वर्गीकरण	-6302
राक	-6303
्यक	-6304
▁आजकल	-6305
▁उठाना	-6306
▁सम्राट	-6307
▁परिणामों	-6308
म्मा	-6309
▁उपदेश	-6310
▁परिसी	-6311
▁हानिक	-6312
▁बढ़ाना	-6313
डो	-6314
स्को	-6315
मित्त	-6316
▁आईसी	-6317
▁आवश्य	-6318
▁व्यष्टि	-6319
चरिता	-6320
▁इराक	-6321
▁बर्फ	-6322
▁मराठी	-6323
वत्	-6324
टकों	-6325
▁सुप	-6326
▁यहीं	-6327
▁शोषण	-6328
▁मिस्र	-6329
▁अधिकृत	-6330
▁अफगानिस्तान	-6331
ay	-6332
▁टक	-6333
▁उदय	-6334
चंद्र	-6335
▁मोर्	-6336
▁हाइड	-6337
▁वाक्य	-6338
▁दूरस्थ	-6339
ूरो	-6340
▁गुणा	-6341
▁इस्पात	-6342
▁प्राइवेट	-6343
▁इलाह	-6344
▁सफाई	-6345
▁आनुवंश	-6346
▁गणतंत्र	-6347
▁सुचरिता	-6348
▁पहुंचाने	-6349
▁सिफारिशों	-6350
दृश्य	-6351
▁औषधि	-6352
▁सीधी	-6353
▁कराता	-6354
▁एकत्रित	-6355
▁एका	-6356
▁ओपन	-6357
▁भ्रम	-6358
▁समझना	-6359
▁यात्री	-6360
▁पार्श्व	-6361
▁विज्ञापन	-6362
▁आँख	-6363
▁नाक	-6364
▁विलय	-6365
▁इंकार	-6366
▁वैष्णव	-6367
▁स्वदेश	-6368
▁कंध	-6369
क्रामक	-6370
▁इलाकों	-6371
▁जोड़ें	-6372
▁हरियाणा	-6373
▁दस्तावेज़	-6374
▁पान	-6375
▁वें	-6376
▁अमृत	-6377
▁एससी	-6378
▁सबको	-6379
▁अतिमान	-6380
एगा	-6381
▁नु	-6382
स्मिक	-6383
ंबेडकर	-6384
▁चिंतन	-6385
त्रियों	-6386
▁स्रोतों	-6387
▁बांग्लादेश	-6388
▁छू	-6389
मुखी	-6390
▁गोली	-6391
▁डाले	-6392
▁बताने	-6393
▁इंदिरा	-6394
▁नियोजन	-6395
▁सौभाग्य	-6396
▁ः	-6397
सास	-6398
तकों	-6399
▁टैगोर	-6400
▁ज्यादातर	-6401
▁निर्वाचित	-6402
शंकर	-6403
▁माध	-6404
▁कोमल	-6405
▁सेशन	-6406
▁आंखों	-6407
▁पढ़ाई	-6408
▁प्रजा	-6409
▁एससीसी	-6410
▁खरीदने	-6411
▁वाइ	-6412
▁कीजिए	-6413
▁निराश	-6414
▁दुर्लभ	-6415
▁विडियो	-6416
ड्	-6417
यू	-6418
किट	-6419
▁बैक	-6420
▁भूख	-6421
▁सीम	-6422
सिद्ध	-6423
▁आकृति	-6424
▁जानवर	-6425
▁एशियाई	-6426
▁एसोसिएशन	-6427
दू	-6428
▁अकादमी	-6429
▁सशस्त्र	-6430
▁निवेशकों	-6431
▁उपलब्धियों	-6432
खाव	-6433
ताएं	-6434
▁टाइप	-6435
▁नायक	-6436
च्छेदन	-6437
▁तालाब	-6438
▁बुलाया	-6439
▁दूरसंचार	-6440
ोरा	-6441
▁दम	-6442
णुओं	-6443
▁भव्य	-6444
स्थापन	-6445
▁अंगों	-6446
▁गज	-6447
शब्द	-6448
ृश्य	-6449
ैक्ट	-6450
▁चरम	-6451
▁मेहन	-6452
▁टेनिस	-6453
▁प्राप	-6454
▁आकस्मिक	-6455
▁लक्ष्मी	-6456
▁सर्वप्रथम	-6457
ur	-6458
बरा	-6459
▁an	-6460
▁बत	-6461
ख़्या	-6462
निहित	-6463
▁सिरे	-6464
िक्षेप	-6465
क्तियों	-6466
शनी	-6467
▁खज	-6468
▁कबीर	-6469
▁प्लग	-6470
▁वरीय	-6471
▁हर्ष	-6472
▁उपनिवेश	-6473
▁काउंसिल	-6474
त्रि	-6475
न्दा	-6476
▁बोझ	-6477
▁किरण	-6478
▁राजकुमार	-6479
ोश	-6480
▁नजदी	-6481
▁कर्तव्यों	-6482
▁प्रतिनिधियों	-6483
१५	-6484
ढ़ा	-6485
िणी	-6486
ोनी	-6487
▁खार	-6488
▁गंध	-6489
▁ग्रन्थ	-6490
▁जैसाकि	-6491
▁संस्थागत	-6492
नीत	-6493
▁अन्याय	-6494
▁आकर्षक	-6495
▁पब्लिक	-6496
▁स्वर्ग	-6497
छा	-6498
▁गुट	-6499
▁पोष	-6500
▁सुदूर	-6501
पार	-6502
▁बीत	-6503
▁रुक	-6504
▁ऊंचा	-6505
▁लम्बी	-6506
▁सच्चे	-6507
▁अनुकरण	-6508
▁समकालीन	-6509
▁इस्लामवादी	-6510
लील	-6511
▁ठहर	-6512
▁नवा	-6513
▁पाग	-6514
ter	-6515
वकों	-6516
▁जबर	-6517
▁बिर	-6518
▁बचपन	-6519
▁खासकर	-6520
▁स्वाद	-6521
▁समीकरण	-6522
▁क़्योंकि	-6523
▁प्रतिवर्ष	-6524
▁पेट्रोलियम	-6525
बीन	-6526
▁ढूंढ	-6527
▁सुपु	-6528
▁असंभव	-6529
▁अप्रत्यक्ष	-6530
▁अटल	-6531
▁मक्	-6532
▁अहिंसा	-6533
▁टाइम्स	-6534
▁सुधारने	-6535
▁चिन	-6536
▁पेय	-6537
▁यौन	-6538
▁डालर	-6539
▁बेटे	-6540
▁माँग	-6541
▁जोड़े	-6542
▁दुर्ग	-6543
▁उत्सुक	-6544
▁इलाहाबाद	-6545
▁प्रतिलिप	-6546
▁इंजीनियरिंग	-6547
कना	-6548
जीत	-6549
बिल	-6550
भुत	-6551
ब्बे	-6552
द्वीप	-6553
▁महाप	-6554
▁उत्सव	-6555
▁फूलों	-6556
▁उन्नयन	-6557
▁कृत्यों	-6558
▁राजपत्र	-6559
▁फू	-6560
भाशय	-6561
▁कोर	-6562
▁नज़र	-6563
▁विकि	-6564
▁महान्	-6565
▁अवस्थित	-6566
ंबित	-6567
्याम	-6568
▁घाव	-6569
्यूशन	-6570
▁सेवक	-6571
▁हज़	-6572
क्साइड	-6573
▁अभिने	-6574
▁इनकार	-6575
▁माहौल	-6576
▁संघीय	-6577
▁अपूर्ण	-6578
▁बिन्दु	-6579
▁श्रद्धा	-6580
धरी	-6581
शिष्ट	-6582
ुपयोग	-6583
▁आर्य	-6584
▁पुनरीक्षण	-6585
ab	-6586
▁पीड	-6587
▁दरबार	-6588
▁नमूना	-6589
▁इसलिये	-6590
▁समेकित	-6591
▁पूर्वोक्त	-6592
▁प्रत्यर्थी	-6593
AME	-6594
▁इज	-6595
▁कोने	-6596
▁घृणा	-6597
▁भीड़	-6598
▁क्रूर	-6599
▁संकलन	-6600
▁डब्ल्यू	-6601
ताप	-6602
▁वसा	-6603
पोर्ट	-6604
ोरेशन	-6605
▁हुये	-6606
▁गाँधी	-6607
▁आधिकार	-6608
▁वक्तव्य	-6609
▁सदस्यता	-6610
▁संव्यवहार	-6611
▁गठ	-6612
▁पते	-6613
▁हंस	-6614
▁परिसंप	-6615
▁सड़कों	-6616
▁ओब	-6617
▁हॉ	-6618
▁आवरण	-6619
▁देनी	-6620
▁समापन	-6621
▁अनिवासी	-6622
▁अनुभूति	-6623
▁टैब	-6624
▁ह्य	-6625
▁बम्बई	-6626
▁निर्गम	-6627
▁निमित्त	-6628
ट्स	-6629
मैन	-6630
▁मंगल	-6631
▁शिष्ट	-6632
▁त्रुटिः	-6633
▁कहानियों	-6634
याल	-6635
दण्ड	-6636
▁गेह	-6637
▁घुट	-6638
▁नाव	-6639
▁निल	-6640
▁पेशी	-6641
▁कच्चे	-6642
▁मूत्र	-6643
श्रेष्ठ	-6644
▁सुधारों	-6645
▁उत्तराधिकार	-6646
▁छः	-6647
परिव	-6648
▁मुक	-6649
▁किंग	-6650
▁निस्	-6651
ंचल	-6652
कोष	-6653
खण्ड	-6654
ेन्ट	-6655
▁विच	-6656
▁मारे	-6657
▁सोचने	-6658
▁पेटेंट	-6659
▁लाभांश	-6660
▁शुरूआत	-6661
▁प्रतिबद्धता	-6662
शक	-6663
टित	-6664
ोगे	-6665
▁टि	-6666
▁तरंग	-6667
▁भेजी	-6668
▁विभेद	-6669
राष्ट्र	-6670
▁नाटकों	-6671
▁नेताजी	-6672
▁स्त्रो	-6673
▁माइक्रो	-6674
▁गोपनीय	-6675
▁मिथ्या	-6676
▁श्रद्ध	-6677
▁सिर्फ़	-6678
▁भ्रष्टाचार	-6679
▁सांप्रदायिक	-6680
▁गिन	-6681
▁बुर	-6682
▁वाज	-6683
▁सोव	-6684
▁अजीब	-6685
▁शराब	-6686
▁हमले	-6687
▁विधवा	-6688
▁असफलता	-6689
▁आउटपुट	-6690
▁उन्मूलन	-6691
▁विटामिन	-6692
▁सत्यापन	-6693
▁हस्तांत	-6694
▁नियन्त्र	-6695
ंकी	-6696
वर्त	-6697
▁बेटी	-6698
▁पुराण	-6699
▁पुनर्वास	-6700
२क	-6701
भूषण	-6702
▁माउ	-6703
▁सन्द	-6704
▁अपनाई	-6705
▁काफ़ी	-6706
▁भारती	-6707
▁हड्डी	-6708
▁भेदभाव	-6709
▁मंत्रियों	-6710
▁विधानमंडल	-6711
▁क्रियान्वयन	-6712
▁याचिकाकर्ता	-6713
hr	-6714
ंय	-6715
ंर	-6716
जाम	-6717
डों	-6718
मों	-6719
िज़	-6720
▁उग	-6721
▁घाट	-6722
▁कौंसिल	-6723
▁साक्षात्कार	-6724
हान	-6725
▁बिन	-6726
▁रसी	-6727
प्रति	-6728
▁रहीं	-6729
▁प्रबन्ध	-6730
▁माध्यमिक	-6731
▁साक्षरता	-6732
ठार	-6733
स्थल	-6734
▁गरि	-6735
▁परा	-6736
▁बेश	-6737
▁असंत	-6738
विश्वास	-6739
▁एक्सचेंज	-6740
▁निर्देशों	-6741
▁फिलीस्तीन	-6742
ँह	-6743
▁छप	-6744
िप्ट	-6745
१वीं	-6746
▁वहन	-6747
▁विस	-6748
दर्शक	-6749
▁अपार	-6750
वृत्ति	-6751
▁प्रतिरक्षा	-6752
ैत	-6753
▁शीत	-6754
▁अश्व	-6755
▁सारणी	-6756
▁अभिदाय	-6757
▁उद्भूत	-6758
▁आंकड़ों	-6759
▁तुम्हारा	-6760
▁अधिनियमित	-6761
▁केन्द्रों	-6762
▁अँ	-6763
मूल्य	-6764
▁पादप	-6765
▁बंगल	-6766
▁ग्रीन	-6767
▁पीछला	-6768
त्तियों	-6769
▁जिंदगी	-6770
▁ट्रस्ट	-6771
▁राजाओं	-6772
▁सच्चाई	-6773
▁निकायों	-6774
▁आयुर्वेद	-6775
▁पुनर्गठन	-6776
भाई	-6777
▁घुस	-6778
▁बिग	-6779
संदेह	-6780
▁जाहिर	-6781
▁न्यूय	-6782
▁अज्ञान	-6783
▁सांख्य	-6784
▁समाजवादी	-6785
ावी	-6786
▁हाइ	-6787
दाबाद	-6788
▁अक्ट	-6789
▁आचार	-6790
▁परित	-6791
▁स्नातक	-6792
▁आधिकारिक	-6793
▁संवेदनशील	-6794
बरी	-6795
▁एनआई	-6796
▁क्री	-6797
▁पागल	-6798
▁ब्यौ	-6799
▁जनजाति	-6800
▁अधिनिर्	-6801
▁आन्दोलन	-6802
▁मजदूरों	-6803
▁हिस्सों	-6804
▁पक्षियों	-6805
▁मुख्यालय	-6806
▁पांड	-6807
▁शिकायतों	-6808
▁विस्तारित	-6809
हृ	-6810
ंटा	-6811
▁iv	-6812
▁भरत	-6813
▁सर्विस	-6814
▁रोगियों	-6815
खार	-6816
▁ar	-6817
▁वध	-6818
▁उधर	-6819
▁उठता	-6820
▁बताना	-6821
▁प्रवर्त	-6822
▁गम्	-6823
▁हरी	-6824
▁रंगम	-6825
▁रोचक	-6826
▁आश्रम	-6827
ाध्यक्ष	-6828
▁लक्ष्म	-6829
रखाव	-6830
▁गड़	-6831
▁नोक	-6832
▁ध्रु	-6833
▁नींव	-6834
▁वर्न	-6835
▁कीटना	-6836
▁कोयला	-6837
▁दीक्ष	-6838
▁पृथक्	-6839
▁प्रसव	-6840
▁बताता	-6841
तापूर्ण	-6842
▁महासागर	-6843
▁लाई	-6844
▁उत्पा	-6845
▁कर्ता	-6846
▁खोजने	-6847
▁बकाया	-6848
▁किलोग्राम	-6849
गीर	-6850
भक्त	-6851
▁पुनर	-6852
▁संकाय	-6853
भूतियों	-6854
▁आश्वासन	-6855
▁हिन्दुओं	-6856
कोट	-6857
कोर	-6858
ुतोष	-6859
ॉल्ट	-6860
▁नक्	-6861
▁बृह	-6862
▁मुल	-6863
▁चलती	-6864
▁स्नेह	-6865
▁धर्मों	-6866
▁रखरखाव	-6867
▁कठिनाइयों	-6868
▁पूर्वोत्तर	-6869
ce	-6870
ाजन	-6871
मोहन	-6872
▁अंद	-6873
▁दाह	-6874
▁स्टार	-6875
▁अपीलीय	-6876
▁इकट्ठा	-6877
▁विकिरण	-6878
▁सम्बद्ध	-6879
बूझ	-6880
महल	-6881
▁जरा	-6882
▁नाल	-6883
▁पहच	-6884
▁अनुर	-6885
▁गूगल	-6886
▁पराज	-6887
▁सिखा	-6888
▁कॉर्प	-6889
▁निभाई	-6890
▁महानि	-6891
▁स्वाय	-6892
▁निर्धन	-6893
▁मधुमेह	-6894
▁मुहैया	-6895
▁सामर्थ	-6896
▁सार्थक	-6897
▁गर्भाशय	-6898
▁मैत्रीपूर्ण	-6899
▁असमान	-6900
▁गरिमा	-6901
▁स्क्र	-6902
▁डॉक्टर	-6903
▁मामूली	-6904
▁निर्देशित	-6905
▁प्रस्तावों	-6906
स्पी	-6907
▁कमा	-6908
▁व्र	-6909
▁देगी	-6910
▁कमांड	-6911
▁कामका	-6912
▁सोसाय	-6913
▁स्मारक	-6914
▁अक्टूबर	-6915
▁निर्वहन	-6916
▁पुरुषों	-6917
▁प्रवर्ग	-6918
▁अधिकाधिक	-6919
बो	-6920
चलन	-6921
देन	-6922
ोत्तर	-6923
▁सन्न	-6924
▁श्रेण	-6925
▁निरसित	-6926
▁मनोरंजन	-6927
▁निर्माता	-6928
गों	-6929
प्पा	-6930
ष्कृत	-6931
▁गोवा	-6932
▁विषा	-6933
▁अंतर्व	-6934
▁जीवाणु	-6935
▁अनिश्चित	-6936
▁सर्वश्रेष्ठ	-6937
▁ऑप	-6938
▁बट	-6939
▁कैद	-6940
▁पटना	-6941
▁बेहद	-6942
▁उपाधि	-6943
▁रोशनी	-6944
▁लार्ड	-6945
▁सौंपा	-6946
▁निक्षेप	-6947
▁समायोजन	-6948
oc	-6949
मीन	-6950
ावर	-6951
्याल	-6952
▁कदा	-6953
▁भगत	-6954
जातीय	-6955
▁रेगि	-6956
क्टरों	-6957
▁प्रगा	-6958
▁मस्जिद	-6959
▁महानिदेश	-6960
▁सना	-6961
▁समाह	-6962
▁गीतों	-6963
ut	-6964
ज़न	-6965
▁नो	-6966
शिंग	-6967
▁अद्	-6968
▁लखन	-6969
▁पटेल	-6970
▁सिने	-6971
▁कब्जा	-6972
▁बच्चन	-6973
▁मौखिक	-6974
▁प्रदाह	-6975
▁बाज़ार	-6976
▁ब्यूरो	-6977
▁स्थिरता	-6978
▁मनुष्यों	-6979
▁सत्याग्रह	-6980
बाल	-6981
योग्य	-6982
शियों	-6983
▁कॉपी	-6984
▁दौरा	-6985
▁इंगित	-6986
▁अभियोग	-6987
▁उपबंधित	-6988
▁दीक्षांत	-6989
▁साझीदारी	-6990
▁झग	-6991
मिया	-6992
▁जॉन	-6993
▁अभिल	-6994
▁दरों	-6995
▁समझी	-6996
▁मनाया	-6997
▁झिल्ली	-6998
▁संवेदना	-6999
▁स्वीकार्य	-7000
हरण	-7001
ेरा	-7002
▁हैस	-7003
त्स्य	-7004
दायिक	-7005
▁आशुतोष	-7006
लाइ	-7007
▁गंग	-7008
▁पतन	-7009
▁मरी	-7010
गारों	-7011
▁गम्भीर	-7012
▁नीतिगत	-7013
▁मांसपेश	-7014
▁सचिवालय	-7015
▁उत्सर्जन	-7016
▁उपयोक्ता	-7017
▁स्वच्छता	-7018
▁बही	-7019
▁विरा	-7020
▁ओबामा	-7021
▁स्टॉक	-7022
▁शास्ति	-7023
वैज्ञानिक	-7024
▁उपयोगिता	-7025
▁प्रक्षेप	-7026
▁विधानसभा	-7027
पटल	-7028
▁आगमन	-7029
▁चुंब	-7030
▁स्वे	-7031
▁तृतीय	-7032
▁दुग्ध	-7033
ग्रा	-7034
सन्द	-7035
▁भूक	-7036
▁माय	-7037
▁शंक	-7038
▁आशंका	-7039
▁छोड़ने	-7040
▁पुत्री	-7041
▁हिंदुओं	-7042
▁सूचीबद्ध	-7043
▁संस्थापित	-7044
नें	-7045
▁क्षम	-7046
▁बढ़े	-7047
▁बोला	-7048
▁खर्चे	-7049
▁श्रील	-7050
▁सालों	-7051
▁मुद्दा	-7052
▁प्रोटोकॉल	-7053
ow	-7054
▁छे	-7055
क्तता	-7056
▁उपास	-7057
▁तमाम	-7058
▁परिन	-7059
▁सर्ज	-7060
▁सुलझ	-7061
▁तिहाई	-7062
▁तत्पश्च	-7063
▁फेफ	-7064
▁माद	-7065
▁कन्न	-7066
▁द्रव	-7067
▁नारी	-7068
▁रहकर	-7069
▁आगामी	-7070
▁साकार	-7071
▁चौड़ाई	-7072
▁पेशेवर	-7073
▁वरीयता	-7074
्रेषण	-7075
▁जगत्	-7076
▁त्रि	-7077
▁विषयक	-7078
▁बादशाह	-7079
▁अनुभवों	-7080
▁देशवासियों	-7081
रता	-7082
▁हफ्त	-7083
्याप्त	-7084
▁ग्यार	-7085
▁ज़रूरत	-7086
▁नवीकरण	-7087
▁निधियों	-7088
▁निरन्तर	-7089
▁संकीर्ण	-7090
▁आदत	-7091
▁मुँह	-7092
▁फायदे	-7093
▁बेचने	-7094
▁मजबूर	-7095
▁सोचता	-7096
▁स्नान	-7097
▁एल्गोर	-7098
▁सामुदायिक	-7099
गृह	-7100
ोटी	-7101
त्ती	-7102
बाबू	-7103
र्ते	-7104
ोहित	-7105
▁आलेख	-7106
▁घटित	-7107
▁सब्ज	-7108
▁किराए	-7109
▁चौधरी	-7110
▁अध्यापक	-7111
▁विख्यात	-7112
▁पर्यटकों	-7113
▁सहभागिता	-7114
▁स्वैच्छिक	-7115
▁विशेषज्ञों	-7116
डऋ	-7117
वेल	-7118
▁नास	-7119
वृत्त	-7120
▁चर्च	-7121
▁आजीवन	-7122
▁जैविक	-7123
▁लौटने	-7124
▁प्रगाढ़	-7125
जुट	-7126
स्वती	-7127
▁आघात	-7128
▁डेस्	-7129
्यात्मक	-7130
▁उन्नति	-7131
ाउंड	-7132
▁गले	-7133
▁धूल	-7134
▁अनंत	-7135
▁कर्ज	-7136
▁डिवी	-7137
▁सुगम	-7138
▁गोपाल	-7139
▁पूछता	-7140
▁रंगमंच	-7141
▁लड़कियों	-7142
▁विशेषाधिकार	-7143
मै	-7144
टकर	-7145
▁कों	-7146
▁यूपी	-7147
▁अवधारित	-7148
केल	-7149
ाकू	-7150
ूर्त	-7151
▁अनि	-7152
▁रोका	-7153
▁रोज़	-7154
▁समाम	-7155
▁उड़ान	-7156
▁जर्मन	-7157
▁मेहनत	-7158
▁निविदा	-7159
ान्तर	-7160
▁रेशम	-7161
▁सेवन	-7162
▁हटाया	-7163
▁आपत्ति	-7164
▁पीडीएफ	-7165
▁टर्मिनल	-7166
▁सुपुर्द	-7167
▁सोसायटी	-7168
▁विनियमित	-7169
हम	-7170
ोई	-7171
मलव	-7172
ब्लू	-7173
स्तर	-7174
▁कहती	-7175
▁मणिप	-7176
▁बॉक्स	-7177
▁सुनकर	-7178
दिता	-7179
▁कड़	-7180
▁सटी	-7181
ढ़ियों	-7182
संख्यक	-7183
▁प्रवास	-7184
▁स्थलों	-7185
▁श्रीलंका	-7186
▁दायित्वों	-7187
▁पण	-7188
न्ता	-7189
ार्द	-7190
ेंडर	-7191
▁फॉर	-7192
▁अण्ड	-7193
▁उपहार	-7194
▁कपड़ा	-7195
▁तुरन्त	-7196
▁सतर्कता	-7197
▁परिदृश्य	-7198
▁केन्द्रित	-7199
▁स्वतन्त्र	-7200
▁अन्तर्राष्ट्रीय	-7201
परक	-7202
▁इट	-7203
▁गत	-7204
▁औरत	-7205
▁निंदा	-7206
मेर	-7207
याव	-7208
िने	-7209
▁गर	-7210
▁निप	-7211
▁भूट	-7212
ड्यूल	-7213
▁मन्द	-7214
▁आश्रय	-7215
▁खारिज	-7216
▁सुविध	-7217
▁संचिका	-7218
▁कुटुम्ब	-7219
▁साथियों	-7220
▁परियोजनाएं	-7221
बाज़	-7222
▁दर्	-7223
▁पावर	-7224
▁दशमलव	-7225
▁अवलोकन	-7226
▁सृष्टि	-7227
▁कार्यकलापों	-7228
▁कौर	-7229
चित्य	-7230
न्नाथ	-7231
▁बनकर	-7232
▁निकले	-7233
▁निर्दोष	-7234
▁दुरुपयोग	-7235
▁खोलें	-7236
▁परिचालन	-7237
▁मंत्रालयों	-7238
▁लेखापरीक्षा	-7239
सैन	-7240
तिया	-7241
▁मेहर	-7242
▁एकजुट	-7243
रूद्दीन	-7244
▁व्याया	-7245
ाणु	-7246
बूती	-7247
▁टेल	-7248
▁रिवा	-7249
▁निदान	-7250
▁व्यास	-7251
▁अर्जुन	-7252
▁डेस्कट	-7253
▁कार्यकाल	-7254
▁मूल्यवान	-7255
ख्	-7256
टरी	-7257
निष	-7258
चन्द	-7259
ोर्स	-7260
▁दार	-7261
▁मुआ	-7262
▁सैक	-7263
▁किले	-7264
▁प्रोफ	-7265
▁ईमानदारी	-7266
▁डिफ़	-7267
▁योनि	-7268
▁अंतरिम	-7269
▁दीवारों	-7270
डू	-7271
नद	-7272
▁ऋतु	-7273
▁घोर	-7274
▁मोर	-7275
▁इनसे	-7276
▁पहुँचा	-7277
▁सामर्थ्य	-7278
पेट	-7279
रेशन	-7280
▁गोर	-7281
▁यज्ञ	-7282
▁सिंग	-7283
▁खातों	-7284
▁जिसमे	-7285
▁जीवंत	-7286
▁दुर्गा	-7287
▁पूर्वक	-7288
▁मेमोरी	-7289
▁गंभीरता	-7290
▁अध्यादेश	-7291
▁पद्धतियों	-7292
▁प्रगतिशील	-7293
हि	-7294
हे	-7295
▁इम	-7296
▁ध्य	-7297
हीनता	-7298
▁लोगो	-7299
▁रणनीति	-7300
▁संक्रिया	-7301
ांट	-7302
▁In	-7303
▁हेम	-7304
▁इंद्र	-7305
▁बोलने	-7306
▁प्रचुर	-7307
▁निर्वाह	-7308
ir	-7309
▁उछ	-7310
▁कण	-7311
पादक	-7312
लेखन	-7313
▁पटल	-7314
▁मनी	-7315
▁लची	-7316
▁डेस्कटॉप	-7317
राई	-7318
्डी	-7319
▁आओ	-7320
स्ट्र	-7321
▁अन्तः	-7322
▁सभाओं	-7323
▁अभिन्न	-7324
▁समाहित	-7325
▁खिलाड़ी	-7326
▁जगन्नाथ	-7327
▁मित्रता	-7328
▁विचित्र	-7329
▁स्थानांतरित	-7330
ैम	-7331
सेल	-7332
ित्	-7333
ियस	-7334
▁re	-7335
▁आधी	-7336
▁पवन	-7337
▁सुग	-7338
▁कॉन्	-7339
▁गयीं	-7340
▁ड्रग	-7341
▁मानों	-7342
▁कहलाता	-7343
▁हैसियत	-7344
ैड	-7345
न्च	-7346
▁शक	-7347
▁गेट	-7348
▁नरम	-7349
▁मैथ	-7350
▁वसूल	-7351
▁संतुलित	-7352
ृहीत	-7353
▁खपत	-7354
▁लाए	-7355
िकेशन	-7356
▁बंधन	-7357
▁बहुल	-7358
▁बदलें	-7359
▁सरस्वती	-7360
एव	-7361
ीट	-7362
ाजा	-7363
र्षि	-7364
वर्तन	-7365
▁घड़ी	-7366
▁चलना	-7367
▁नानक	-7368
▁पंद्र	-7369
▁फॉर्म	-7370
▁स्टाफ	-7371
▁पाठकों	-7372
▁अस्पष्ट	-7373
▁निकालना	-7374
▁निर्माताओं	-7375
▁१६	-7376
मार्क	-7377
धारकों	-7378
▁नामों	-7379
▁डिवीजन	-7380
▁व्याकरण	-7381
▁लाहौर	-7382
▁सेंटर	-7383
▁परजीवी	-7384
▁मेडिकल	-7385
▁संरक्षित	-7386
▁यात्रियों	-7387
▁गतिविधियां	-7388
ँजी	-7389
बड़	-7390
ुलर	-7391
सागर	-7392
▁आवं	-7393
▁गौण	-7394
▁छेद	-7395
▁नाज	-7396
▁टीवी	-7397
▁मूर्ख	-7398
▁लड़का	-7399
▁संतान	-7400
▁आंकड़ा	-7401
▁अतिक्रमण	-7402
▁प्रभुत्व	-7403
▁हानिकारक	-7404
▁हार्डवेयर	-7405
▁क्रियाकलाप	-7406
▁प्रजातियों	-7407
ंठ	-7408
▁अनो	-7409
▁एंव	-7410
▁आवाज़	-7411
▁पड़ोस	-7412
▁प्रौढ़	-7413
▁बंदरगाह	-7414
▁विच्छेद	-7415
▁आँक	-7416
▁केल	-7417
▁मुर	-7418
▁दौरे	-7419
▁नाइट	-7420
▁पुणे	-7421
▁वर्षो	-7422
▁निराशा	-7423
▁विनियमों	-7424
ओएस	-7425
▁II	-7426
▁गवाह	-7427
▁निरी	-7428
▁जितने	-7429
▁तेलुग	-7430
▁वापिस	-7431
▁गतिशील	-7432
▁निष्पादित	-7433
ंतुक	-7434
ोत्स	-7435
▁चूक	-7436
डियों	-7437
▁प्रीम	-7438
▁ड्राइव	-7439
▁बढ़ाया	-7440
▁स्वायत्त	-7441
ॉय	-7442
▁थै	-7443
▁फौज	-7444
▁वान	-7445
▁आगरा	-7446
▁प्रक	-7447
▁डोमेन	-7448
▁हुसैन	-7449
▁द्वारक	-7450
▁प्राणियों	-7451
▁बदरूद्दीन	-7452
▁उदाहरणार्थ	-7453
▁उपभोक्ताओं	-7454
▁आस्ट्रेलिया	-7455
▁वाई	-7456
्रोजन	-7457
▁बहुप	-7458
▁निर्ब	-7459
▁पाण्ड	-7460
▁संयोग	-7461
▁उर्वरक	-7462
▁पड़ोसी	-7463
▁प्रतिकर	-7464
▁शास्त्रीय	-7465
ंचन	-7466
लाप	-7467
िसा	-7468
ment	-7469
द्रा	-7470
स्सी	-7471
▁सुस	-7472
▁भ्रूण	-7473
▁कारकों	-7474
▁दोबारा	-7475
▁चिह्नित	-7476
ॉग	-7477
▁ओह	-7478
▁अधी	-7479
▁कैम	-7480
▁छंद	-7481
▁धूप	-7482
ांजलि	-7483
▁अनन्य	-7484
▁अर्पित	-7485
▁सोवियत	-7486
▁प्रख्यात	-7487
▁दीर्घकालिक	-7488
▁नाय	-7489
▁अन्न	-7490
▁मधुर	-7491
▁सख्त	-7492
▁इमारत	-7493
▁श्रेय	-7494
▁सच्ची	-7495
▁वांछित	-7496
▁दिलचस्प	-7497
▁संस्थाएं	-7498
▁अपर्याप्त	-7499
▁उद्यमियों	-7500
शुदा	-7501
▁उपस	-7502
▁बचे	-7503
▁रिफ	-7504
दिग्ध	-7505
▁रूचि	-7506
▁लौटा	-7507
▁संकु	-7508
▁सूरज	-7509
कृष्णन	-7510
▁ग्रुप	-7511
▁दंडादेश	-7512
▁निर्णायक	-7513
विर	-7514
▁चट	-7515
ियाई	-7516
▁अंज	-7517
▁टांग	-7518
▁मलया	-7519
▁अतिथि	-7520
▁मास्ट	-7521
▁विपक्ष	-7522
▁क्रिस्ट	-7523
साम	-7524
वाया	-7525
▁आज़	-7526
िस्टर	-7527
▁घायल	-7528
▁सन्त	-7529
▁पैरों	-7530
▁गुजराती	-7531
▁अधिनियमों	-7532
विजन	-7533
▁ढाल	-7534
▁रिव	-7535
▁संश	-7536
▁अकेला	-7537
िरपेक्ष	-7538
▁जाएंगी	-7539
▁युक्तियुक्त	-7540
op	-7541
नाल	-7542
ोन्	-7543
ोही	-7544
▁हरा	-7545
▁इंजन	-7546
▁पहाड़	-7547
▁बेकार	-7548
▁आंबेडकर	-7549
▁परिसीमा	-7550
▁प्रतिमा	-7551
▁डिफ़ॉल्ट	-7552
चु	-7553
ंडे	-7554
केश	-7555
▁नॉ	-7556
▁दायर	-7557
▁पाती	-7558
▁शासकों	-7559
▁संपरिव	-7560
▁अधिग्रहण	-7561
▁अनावश्यक	-7562
▁संप्रदाय	-7563
ig	-7564
ity	-7565
सीआई	-7566
▁रोब	-7567
विधिक	-7568
▁धारक	-7569
▁मृतक	-7570
ियारों	-7571
▁एआईआर	-7572
▁उद्धृत	-7573
▁कीमतों	-7574
▁मास्टर	-7575
▁डेटाबेस	-7576
▁क्षमताओं	-7577
शेष	-7578
ुलन	-7579
▁जज	-7580
▁हँ	-7581
बर्ट	-7582
▁उगा	-7583
▁कूद	-7584
▁बाइ	-7585
▁सौह	-7586
हत्या	-7587
ोग्रा	-7588
▁अतएव	-7589
▁कहकर	-7590
▁किस्	-7591
▁घातक	-7592
▁विगत	-7593
▁स्या	-7594
▁जमींद	-7595
▁नाट्य	-7596
▁पिछड़े	-7597
▁राज़्य	-7598
▁निदेशालय	-7599
ाटी	-7600
▁बश	-7601
ुलिप	-7602
▁इधर	-7603
▁ऊंट	-7604
▁झुक	-7605
▁फूट	-7606
युद्ध	-7607
▁जादू	-7608
▁लखनऊ	-7609
▁चेहरा	-7610
▁बलराम	-7611
▁अद्भुत	-7612
▁सावधान	-7613
▁निःशुल्क	-7614
▁विधायिका	-7615
▁पारदर्शिता	-7616
ers	-7617
ड़न	-7618
▁तन	-7619
▁जर्	-7620
ंतव्य	-7621
▁महादे	-7622
▁हेक्ट	-7623
▁संपादित	-7624
ुख	-7625
चों	-7626
▁बिख	-7627
▁क्षे	-7628
▁सीडी	-7629
िवारिक	-7630
▁सनातन	-7631
▁महाद्वीप	-7632
▁द्वारकानाथ	-7633
वेश	-7634
ोगी	-7635
्तन	-7636
िकरण	-7637
▁गिल	-7638
▁फर्	-7639
▁सती	-7640
विचार	-7641
क्षकों	-7642
▁जानती	-7643
▁टुकड़े	-7644
▁रेड्डी	-7645
▁पासवर्ड	-7646
▁लक्ष्मण	-7647
विद	-7648
आरएस	-7649
▁पडे	-7650
▁बुश	-7651
▁भली	-7652
▁तत्स	-7653
▁अनुबंध	-7654
▁प्रेमी	-7655
▁बालकों	-7656
▁अपशिष्ट	-7657
▁प्रपत्र	-7658
▁प्राधिकारियों	-7659
िग	-7660
▁we	-7661
▁बक	-7662
स्वी	-7663
ियॉँ	-7664
▁कन्व	-7665
▁चारा	-7666
▁भयान	-7667
▁भूटान	-7668
▁ललिता	-7669
▁साधना	-7670
ुस्तानी	-7671
▁कंपनियां	-7672
▁साक्षियों	-7673
दीप	-7674
▁मौल	-7675
▁वेग	-7676
▁शिल	-7677
▁एजेंट	-7678
▁क्षमा	-7679
▁लड़ने	-7680
▁कूटशब्द	-7681
▁परेशानी	-7682
▁संख़्या	-7683
▁आनुवंशिक	-7684
▁पर्यवेक्षण	-7685
डक	-7686
ज्ह	-7687
ायती	-7688
▁नकल	-7689
▁कोटि	-7690
▁भागवत	-7691
▁आरक्षण	-7692
▁मत्स्य	-7693
▁मुख़्य	-7694
▁निरपेक्ष	-7695
सो	-7696
शिप	-7697
▁सऋ	-7698
रेटर	-7699
षकों	-7700
▁असं	-7701
▁बेज	-7702
▁छिपा	-7703
▁मोती	-7704
स्वामी	-7705
▁ऊतकों	-7706
▁एक्सट	-7707
▁लगाकर	-7708
▁सिंधु	-7709
▁जानबूझ	-7710
▁दुर्बल	-7711
▁नर्मदा	-7712
▁कार्यवाहियां	-7713
िपी	-7714
▁टा	-7715
▁तद	-7716
▁चलकर	-7717
▁मिलन	-7718
▁टेस्ट	-7719
▁दायरे	-7720
▁उत्तरा	-7721
▁शान्ति	-7722
▁विवेकान	-7723
▁समावेशी	-7724
▁दिलचस्पी	-7725
▁पारिवारिक	-7726
▁आइए	-7727
▁अवयव	-7728
▁प्रां	-7729
▁बनायी	-7730
▁भेजें	-7731
ढे	-7732
वाट	-7733
्यौ	-7734
▁or	-7735
▁छोर	-7736
▁सीखा	-7737
▁गिराव	-7738
▁तत्पर	-7739
▁धारित	-7740
▁चुनावों	-7741
▁अभिप्राय	-7742
दाई	-7743
सनी	-7744
ॉजी	-7745
▁उम	-7746
िल्ला	-7747
▁अर्द्ध	-7748
▁गरीबों	-7749
▁महर्षि	-7750
▁एमएसएमई	-7751
▁प्रदेशों	-7752
फ़ा	-7753
्वत	-7754
▁कैल	-7755
▁टेप	-7756
▁फेड	-7757
ुल्ला	-7758
▁फलों	-7759
▁उदासीन	-7760
▁औचित्य	-7761
▁मजबूती	-7762
▁अनुमानित	-7763
▁परिपूर्ण	-7764
▁सत्यापित	-7765
गुण	-7766
नाई	-7767
ावत	-7768
डिंग	-7769
ैर्य	-7770
▁पदक	-7771
▁अन्ध	-7772
▁धोखा	-7773
▁काटने	-7774
▁निकला	-7775
▁बदलना	-7776
▁नवीनतम	-7777
▁बंगाली	-7778
▁समर्थक	-7779
▁हड़ताल	-7780
▁प्रशांत	-7781
▁गुणसूत्र	-7782
▁श्रमिकों	-7783
ag	-7784
धिकरण	-7785
यंत्र	-7786
ियमित	-7787
▁दावों	-7788
▁विकृत	-7789
▁संपादक	-7790
▁लक्षणों	-7791
ालक	-7792
ैंट	-7793
मुना	-7794
नेशनल	-7795
▁मेगा	-7796
▁विक्रेता	-7797
▁वित्तपोषण	-7798
▁अंतर्विष्ट	-7799
▁प्रतिभूतियों	-7800
ेलना	-7801
▁एन्	-7802
▁मेर	-7803
▁वृह	-7804
▁ईमेल	-7805
▁दादा	-7806
▁शाही	-7807
▁क्रोध	-7808
▁शिष्य	-7809
▁अनुभाग	-7810
▁अस्थिर	-7811
▁काश्मीर	-7812
▁मंत्रिम	-7813
▁क्रियाओं	-7814
▁जनजातियों	-7815
्क	-7816
यित	-7817
ोली	-7818
न्दन	-7819
शिला	-7820
ुल्य	-7821
▁किर	-7822
▁निब	-7823
▁चोरी	-7824
▁जबरद	-7825
▁बजाए	-7826
▁विवश	-7827
▁सरोज	-7828
▁संजाल	-7829
▁आरोपों	-7830
▁इच्छुक	-7831
▁निवेदन	-7832
▁संदिग्ध	-7833
RO	-7834
▁उलझ	-7835
काव्य	-7836
तीकरण	-7837
वर्धन	-7838
ारण्य	-7839
▁ईस्ट	-7840
▁पांव	-7841
▁द्रव्य	-7842
▁आश्चर्यजनक	-7843
ुद	-7844
▁जिह	-7845
▁मोन	-7846
▁पायी	-7847
▁वनों	-7848
▁फांसी	-7849
▁मुस्क	-7850
▁श्वसन	-7851
ul	-7852
▁सउ	-7853
कक्ष	-7854
ताबिक	-7855
र्कों	-7856
▁अम्ल	-7857
▁चरणों	-7858
▁जमाने	-7859
▁दर्जा	-7860
▁भयानक	-7861
▁स्टाक	-7862
▁स्थाई	-7863
▁गिरावट	-7864
पेयी	-7865
▁तित	-7866
▁रेट	-7867
▁आजीव	-7868
▁पूरक	-7869
▁बाबा	-7870
▁भट्ट	-7871
▁अभिनय	-7872
▁निशान	-7873
▁परिधि	-7874
▁संचरण	-7875
▁सर्वथा	-7876
▁प्रवासी	-7877
▁तात्पर्य	-7878
▁प्रौद्योगिकियों	-7879
ef	-7880
कस	-7881
०ख	-7882
▁यश	-7883
▁भाज	-7884
▁भोज	-7885
▁कराए	-7886
▁गोला	-7887
▁आबंटन	-7888
▁वयस्क	-7889
▁मंत्रि	-7890
▁सूचनाओं	-7891
थल	-7892
बंद	-7893
▁एकीकरण	-7894
▁चित्रों	-7895
▁निरूपित	-7896
▁मुताबिक	-7897
▁अभिरक्षा	-7898
ap	-7899
▁कमल	-7900
▁डाइ	-7901
▁माया	-7902
▁कोष्ठ	-7903
▁दंडनीय	-7904
▁वाशिंग	-7905
▁तात्कालिक	-7906
▁संभावनाओं	-7907
नेस	-7908
बोध	-7909
रेन	-7910
शेर	-7911
िती	-7912
▁टॉ	-7913
बंदी	-7914
▁दाँ	-7915
▁अनदे	-7916
▁लेबल	-7917
वस्थित	-7918
▁अनुष्ठ	-7919
▁रजिस्ट्र	-7920
▁आत्महत्या	-7921
▁विशेषताओं	-7922
▁भि	-7923
ारिक	-7924
▁क्ला	-7925
▁लायक	-7926
नाइटेड	-7927
▁साम्य	-7928
र्थियों	-7929
▁उद्यमी	-7930
▁दरवाजे	-7931
▁व्यर्थ	-7932
▁सौहार्द	-7933
ँगा	-7934
थाम	-7935
्रल	-7936
्रीट	-7937
▁रसीद	-7938
▁लेगा	-7939
▁मारने	-7940
▁आचार्य	-7941
▁कामकाज	-7942
▁बहुमूल्य	-7943
▁स्थानांतरण	-7944
तको	-7945
ाजत	-7946
▁रच	-7947
▁एपी	-7948
▁फेर	-7949
▁उतने	-7950
▁माला	-7951
▁आभूषण	-7952
▁गेहूं	-7953
▁बिस्त	-7954
▁मूलतः	-7955
▁फ़ॉन्ट	-7956
▁संस्कार	-7957
▁पर्यावरणीय	-7958
un	-7959
कश	-7960
वट	-7961
ome	-7962
बों	-7963
▁पग	-7964
▁गवर्न	-7965
▁घोड़े	-7966
▁जरुरी	-7967
▁मार्क	-7968
▁यातना	-7969
▁सुनाई	-7970
▁स्वदेशी	-7971
राग	-7972
्टे	-7973
▁Go	-7974
ड़की	-7975
भावी	-7976
माला	-7977
▁हाज	-7978
▁अरुणा	-7979
▁दवाओं	-7980
▁बुराई	-7981
▁आवासीय	-7982
▁मणिपुर	-7983
▁सिनेमा	-7984
▁क्रमांक	-7985
▁मास्टर्स	-7986
▁नगरपालिका	-7987
▁मार्गदर्शक	-7988
्ली	-7989
▁ढूँ	-7990
▁अवगत	-7991
▁निषेध	-7992
▁पीड़क	-7993
▁सोचना	-7994
▁नाटकीय	-7995
▁पंद्रह	-7996
▁नियोजित	-7997
▁महिलाएं	-7998
▁प्रतिवेदन	-7999
डम	-8000
▁कन	-8001
फ़्ट	-8002
▁उठे	-8003
र्ध्व	-8004
▁पाइप	-8005
▁सटीक	-8006
▁मुफ्त	-8007
▁विकार	-8008
▁सच्चा	-8009
▁उपरांत	-8010
▁बलिदान	-8011
▁सुप्रीम	-8012
्ज	-8013
एनए	-8014
पहर	-8015
फीति	-8016
ष्मा	-8017
▁ओवर	-8018
▁डेल	-8019
▁पडा	-8020
▁बैल	-8021
▁जंतु	-8022
▁बोले	-8023
▁लगाई	-8024
▁वाणी	-8025
▁छिद्र	-8026
▁छोड़ा	-8027
▁जरुरत	-8028
▁सार्वभौमिक	-8029
यंकर	-8030
स्ते	-8031
▁कसौ	-8032
▁खनन	-8033
▁घुम	-8034
▁एकड़	-8035
▁गणेश	-8036
▁नींद	-8037
▁समीप	-8038
▁आँखों	-8039
▁बढ़ाकर	-8040
▁बिलियन	-8041
▁खैर	-8042
▁नली	-8043
▁आन्त	-8044
▁मौके	-8045
▁कम्यु	-8046
▁विकेट	-8047
▁विलियम	-8048
बुल	-8049
ापित	-8050
▁शाल	-8051
▁इण्ड	-8052
▁कारी	-8053
▁पेपर	-8054
▁स्पी	-8055
▁असंगत	-8056
▁खंडों	-8057
▁खाड़ी	-8058
▁खेतों	-8059
▁पंचाट	-8060
▁फ्रेम	-8061
▁पूछताछ	-8062
▁राजकीय	-8063
▁चुंबकीय	-8064
▁बाजारों	-8065
▁सरकारें	-8066
ताई	-8067
▁जोड	-8068
▁पाय	-8069
▁अमीर	-8070
▁यथास	-8071
▁रत्न	-8072
▁उपनिष	-8073
▁बनाएँ	-8074
▁लेखों	-8075
▁ठहराया	-8076
▁प्रत्यु	-8077
▁रूपांतरण	-8078
आइ	-8079
नगर	-8080
चनों	-8081
िल्ल	-8082
▁भोग	-8083
ल्पित	-8084
ल्लाह	-8085
▁डाली	-8086
▁बगैर	-8087
▁आज्ञा	-8088
▁गार्ड	-8089
▁जोड़ी	-8090
▁करवाने	-8091
▁गंतव्य	-8092
▁सूचकांक	-8093
दह	-8094
सात	-8095
िवे	-8096
▁दीप	-8097
▁धनी	-8098
▁पित	-8099
▁लहर	-8100
श्यों	-8101
▁पद्म	-8102
▁पुरी	-8103
ास्टिक	-8104
▁उठाकर	-8105
▁नजदीक	-8106
▁पुकार	-8107
▁प्रोज	-8108
▁भूकंप	-8109
▁स्राव	-8110
▁स्विच	-8111
▁रोकथाम	-8112
▁लार्वा	-8113
▁अनियमित	-8114
▁प्रस्तुति	-8115
▁बीमाकर्ता	-8116
ate	-8117
सील	-8118
ोडा	-8119
ॉर्ट	-8120
▁जूट	-8121
▁सोन	-8122
ंजस्य	-8123
बोर्ड	-8124
▁प्रॉ	-8125
▁मेनन	-8126
▁लिखत	-8127
▁समेत	-8128
प्रदेश	-8129
ष्णुता	-8130
▁चाहें	-8131
▁चित्त	-8132
▁निरोध	-8133
▁विघटन	-8134
▁अंतररा	-8135
▁निरस्त	-8136
▁पेड़ों	-8137
▁संपादन	-8138
▁प्रवाहित	-8139
▁ऑस्ट्रेलिया	-8140
ीश	-8141
रात	-8142
वंत	-8143
कावट	-8144
▁जाप	-8145
द्रता	-8146
वाहिक	-8147
दृष्टि	-8148
▁प्रको	-8149
▁भयंकर	-8150
▁अद्वितीय	-8151
लत	-8152
दाद	-8153
मेट	-8154
▁झट	-8155
ंजाइ	-8156
▁खाल	-8157
▁बूट	-8158
▁मजा	-8159
▁जीने	-8160
▁वक्र	-8161
▁बालों	-8162
▁बैठकों	-8163
▁स्त्रोत	-8164
▁प्रतिलिपि	-8165
िप्र	-8166
▁अभय	-8167
▁साख	-8168
▁बेहत	-8169
▁चार्ट	-8170
▁पुर्त	-8171
▁लगेगा	-8172
िष्णुता	-8173
▁तेलुगु	-8174
▁रात्रि	-8175
▁समुच्च	-8176
▁कार्मिक	-8177
▁चाहेंगे	-8178
▁सम्भावना	-8179
▁नियन्त्रण	-8180
वो	-8181
▁१७	-8182
▁रिए	-8183
ानिर्	-8184
▁अस्व	-8185
▁कैसा	-8186
▁दायी	-8187
्रीकरण	-8188
▁ट्रैक	-8189
▁बदलते	-8190
▁मुल्क	-8191
▁अग्रसर	-8192
▁उद्धरण	-8193
▁ट्रांस	-8194
▁बीमारियों	-8195
▁सिफारिशें	-8196
मिल	-8197
०वें	-8198
▁सर्वा	-8199
▁हटाना	-8200
▁दिखायी	-8201
▁स्नातको	-8202
▁प्रभावों	-8203
▁अंतःस्थापित	-8204
▁क्रियाकलापों	-8205
आईटी	-8206
धर्म	-8207
▁असंख	-8208
▁हटाए	-8209
क्षमता	-8210
▁अंडमान	-8211
▁फिल्मों	-8212
▁महानिदेशक	-8213
ch	-8214
लेस	-8215
▁शत	-8216
ात्य	-8217
िथ्म	-8218
▁किला	-8219
▁परिपथ	-8220
▁शुष्क	-8221
िश्रमिक	-8222
▁शासकीय	-8223
▁सेनाओं	-8224
▁आजीविका	-8225
▁नीतियां	-8226
▁व्याप्त	-8227
um	-8228
ंड़	-8229
जान	-8230
▁उब	-8231
लापन	-8232
▁ऋषि	-8233
▁मुआव	-8234
▁अर्जी	-8235
▁भीतरी	-8236
▁सरलता	-8237
▁हल्के	-8238
▁चित्रित	-8239
▁लाभदायक	-8240
▁वाजपेयी	-8241
▁उत्पादित	-8242
▁मानचित्र	-8243
▁उपाध्यक्ष	-8244
▁सुभाषबाबू	-8245
▁प्रारम्भिक	-8246
AT	-8247
ंसी	-8248
ंकित	-8249
आईसी	-8250
कर्म	-8251
ोतरी	-8252
▁स्फ	-8253
▁बनती	-8254
▁सभ्य	-8255
▁आत्मनि	-8256
▁दृढ़ता	-8257
▁मुद्रित	-8258
▁पारिश्रमिक	-8259
▁राधाकृष्णन	-8260
▁विशेषज्ञता	-8261
▁साठ	-8262
▁ज्वर	-8263
▁ब्रे	-8264
▁सांप	-8265
▁सौदे	-8266
▁स्टी	-8267
▁मुद्रण	-8268
▁विजेता	-8269
माही	-8270
▁लेट	-8271
▁चलाए	-8272
▁मेनू	-8273
▁सूखे	-8274
▁तार्क	-8275
▁मशीनों	-8276
▁चमत्कार	-8277
▁दिनांकित	-8278
▁क्षेत्रफल	-8279
▁प्रतिस्थापित	-8280
ia	-8281
न्हा	-8282
ीलाल	-8283
▁पोषक	-8284
▁प्रामा	-8285
▁विशेषताएं	-8286
▁सेवानिवृत्त	-8287
सेन	-8288
▁लू	-8289
▁अलं	-8290
▁ताक	-8291
▁बला	-8292
▁लाप	-8293
ारायण	-8294
▁बलों	-8295
▁सोना	-8296
▁अवशेष	-8297
▁तालिका	-8298
▁प्रिंट	-8299
▁स्वयंसे	-8300
▁प्रीमियम	-8301
▁स्नातकोत्तर	-8302
▁इश	-8303
▁वकाल	-8304
▁अवतार	-8305
▁तीव्रता	-8306
▁सिक्किम	-8307
▁वर्गीकृत	-8308
▁समितियां	-8309
▁हस्तांतरण	-8310
▁अंतर्निहित	-8311
▁अनुपस्थिति	-8312
▁शांतिपूर्ण	-8313
पृ	-8314
लीफ	-8315
श्र	-8316
▁एर	-8317
ुग्ण	-8318
्यूम	-8319
▁पंथ	-8320
▁पूर	-8321
▁सीए	-8322
▁क्यो	-8323
▁क्षय	-8324
▁खादी	-8325
▁ड्रा	-8326
▁फैले	-8327
▁बढ़ी	-8328
▁सिलस	-8329
▁डालना	-8330
▁पूँजी	-8331
▁चिंतित	-8332
▁दिलाने	-8333
▁पुर्तग	-8334
▁स्थगित	-8335
▁दर्शाया	-8336
▁उत्पत्ति	-8337
▁प्रदर्शनी	-8338
▁संभावनाएं	-8339
ER	-8340
म्य	-8341
▁थल	-8342
▁कीं	-8343
▁कोण	-8344
▁वात	-8345
▁सउदी	-8346
▁हमसे	-8347
▁फ्रां	-8348
▁विनोद	-8349
▁माइक्र	-8350
▁आविष्कार	-8351
▁पारिस्थित	-8352
▁रेगिस्तान	-8353
डब	-8354
ैंस	-8355
▁ae	-8356
▁लय	-8357
न्सी	-8358
▁शार	-8359
▁साई	-8360
नागरी	-8361
▁धमकी	-8362
▁धीमी	-8363
▁पद्य	-8364
▁मुना	-8365
▁कारित	-8366
▁दर्शक	-8367
▁पड़ते	-8368
▁व्यंग	-8369
▁हथियारों	-8370
▁fe	-8371
▁इंच	-8372
▁मीन	-8373
▁सघन	-8374
▁चंडी	-8375
▁टिका	-8376
▁बेशक	-8377
▁युवक	-8378
▁शिरा	-8379
▁हुईं	-8380
▁आंखें	-8381
▁दोपहर	-8382
▁भ्रमण	-8383
▁महावि	-8384
▁श्वास	-8385
▁बिहारी	-8386
▁स्वर्गी	-8387
विल	-8388
ेली	-8389
▁the	-8390
▁कमर	-8391
त्तूर	-8392
▁खोला	-8393
▁बन्ध	-8394
▁यकीन	-8395
▁सिवा	-8396
फ्रेंस	-8397
▁अवसाद	-8398
▁तुर्क	-8399
▁अंशदान	-8400
▁चुपचाप	-8401
▁ब्रिता	-8402
▁भौतिकी	-8403
▁सर्किट	-8404
▁ग्रंथों	-8405
▁जनजातीय	-8406
▁विश्राम	-8407
▁व्यायाम	-8408
▁सामंजस्य	-8409
▁सहयोगियों	-8410
किक	-8411
ुवा	-8412
▁नह	-8413
ोग्य	-8414
▁पुत	-8415
▁अखंड	-8416
▁तिलक	-8417
▁फर्क	-8418
▁समनु	-8419
▁हरित	-8420
▁चलाना	-8421
▁ट्रिब	-8422
▁प्रभु	-8423
▁मानकर	-8424
▁ताजमहल	-8425
▁पर्यटक	-8426
▁मणीलाल	-8427
▁संशोधनों	-8428
▁हेक्टेयर	-8429
od	-8430
ङ्ग	-8431
णीत	-8432
▁ढी	-8433
बर्ग	-8434
▁com	-8435
▁हॉल	-8436
मुक्त	-8437
▁अष्ट	-8438
▁गिरा	-8439
▁बुरे	-8440
▁सुलह	-8441
▁क्षेञ	-8442
▁सीरिया	-8443
▁नैतिकता	-8444
▁मुकाबला	-8445
▁उपक्रमों	-8446
▁न्यायपीठ	-8447
▁समाविष्ट	-8448
▁स्वर्गीय	-8449
▁प्लास्टिक	-8450
▁मठ	-8451
▁नाप	-8452
▁क़ुर	-8453
▁बंदी	-8454
▁लेनी	-8455
▁चक्कर	-8456
▁धैर्य	-8457
▁पत्तन	-8458
▁समूचे	-8459
▁लैंगिक	-8460
▁मॉड्यूल	-8461
▁इन्होंने	-8462
▁नियोक्ता	-8463
जिन	-8464
बंधन	-8465
ब्बा	-8466
ौर्य	-8467
▁आवे	-8468
▁बान	-8469
द्वार	-8470
▁कुर्	-8471
▁मापन	-8472
▁साइन	-8473
▁आखिरी	-8474
▁उत्पी	-8475
▁जगहों	-8476
ब्दियों	-8477
▁अरविंद	-8478
▁ग्लोबल	-8479
▁शृंखला	-8480
▁प्रिंटर	-8481
te	-8482
▁रथ	-8483
▁वॉ	-8484
ogle	-8485
▁गढ़	-8486
▁झलक	-8487
▁ढाँ	-8488
▁अमान	-8489
▁मोटी	-8490
▁सतत्	-8491
▁पढ़ना	-8492
▁राजीव	-8493
▁करूंगा	-8494
▁निमंत्र	-8495
▁समन्वित	-8496
▁पारदर्शी	-8497
▁प्रसारित	-8498
▁पुनर्निर्	-8499
▁उत्तराधिकारी	-8500
भास	-8501
▁ओल	-8502
गणना	-8503
न्दी	-8504
प्रण	-8505
शियन	-8506
▁बंट	-8507
हार्य	-8508
▁अम्ब	-8509
▁देरी	-8510
▁मंदी	-8511
▁दीजिए	-8512
▁ध्येय	-8513
▁नतीजा	-8514
▁संसद्	-8515
▁समझती	-8516
▁सुप्र	-8517
▁नारियल	-8518
▁मलयालम	-8519
▁परिप्रे	-8520
▁परंपराओं	-8521
▁सम्बन्धों	-8522
द्घ	-8523
स्कृत	-8524
▁ताजा	-8525
▁बताए	-8526
▁फारसी	-8527
▁निकोबार	-8528
अली	-8529
णता	-8530
वात	-8531
िमी	-8532
▁AR	-8533
▁ढ़	-8534
बारी	-8535
▁गुस्	-8536
▁भण्ड	-8537
ावस्था	-8538
▁कार्ट	-8539
▁रंगों	-8540
▁विशेन	-8541
ंत्रिकी	-8542
▁तयशुदा	-8543
▁ब्रितानी	-8544
▁श्रेणियों	-8545
▁एल्गोरिथ्म	-8546
▁रजिस्ट्रीकृत	-8547
रेज	-8548
ड़ने	-8549
नामा	-8550
राइट	-8551
▁गरम	-8552
▁ज्य	-8553
▁काल्प	-8554
▁कोल्ह	-8555
▁जॉर्ज	-8556
▁हिमनद	-8557
▁अपनाना	-8558
▁कानपुर	-8559
▁सदियों	-8560
▁आधुनिकीकरण	-8561
ुए	-8562
वीर	-8563
ुका	-8564
▁उदर	-8565
▁कैर	-8566
▁जन्	-8567
▁डूब	-8568
क्टरी	-8569
▁क्षु	-8570
▁चाहा	-8571
▁नाना	-8572
▁सिटी	-8573
क्सीजन	-8574
▁घटकों	-8575
▁फाउंड	-8576
▁सहारे	-8577
▁जापानी	-8578
▁निकाले	-8579
▁पोर्टल	-8580
नीस	-8581
फलक	-8582
विड	-8583
पकों	-8584
फ़्त	-8585
▁टोप	-8586
▁फंड	-8587
▁प्रम	-8588
▁महाव	-8589
▁दिखता	-8590
▁दुश्म	-8591
▁सिंधी	-8592
▁आबंटित	-8593
▁बिस्तर	-8594
▁रिश्वत	-8595
▁आदर्शों	-8596
▁टेलीविजन	-8597
▁उपन्यासों	-8598
ोसिस	-8599
▁खिस	-8600
▁तंब	-8601
वस्तु	-8602
▁आयाम	-8603
▁ड्यू	-8604
▁बेटा	-8605
▁लीला	-8606
▁गर्भव	-8607
▁मण्डल	-8608
धारियों	-8609
▁देवनागरी	-8610
▁शब्दावली	-8611
▁निवासियों	-8612
▁महाविद्यालय	-8613
फु	-8614
िष	-8615
ंजर	-8616
लेन	-8617
ूति	-8618
ब्रे	-8619
वाड़	-8620
▁पिट	-8621
▁रवै	-8622
▁सफ़	-8623
▁बनते	-8624
▁वाहक	-8625
▁यूनिक	-8626
▁हास्य	-8627
▁सारांश	-8628
मस	-8629
डिश	-8630
▁जौ	-8631
गरीय	-8632
ट्टा	-8633
हाली	-8634
ॉक्स	-8635
▁पैट	-8636
दायगी	-8637
वश्यक	-8638
▁कहें	-8639
▁चालक	-8640
▁युसु	-8641
▁कामों	-8642
▁लिखें	-8643
ोल्यूशन	-8644
▁प्रदाता	-8645
▁ट्रिब्यू	-8646
▁संस्थापक	-8647
▁मुख्यमंत्री	-8648
ैश	-8649
गांव	-8650
ावार	-8651
ोपाल	-8652
▁बसे	-8653
▁मता	-8654
▁उज्ज	-8655
क्रमित	-8656
ध्यक्ष	-8657
िपूर्ण	-8658
▁विराम	-8659
▁निगमित	-8660
▁कृतियों	-8661
▁विधिज्ञ	-8662
▁भूतपूर्व	-8663
▁नवान्वेषी	-8664
▁भागीदारों	-8665
लोक	-8666
ीयर	-8667
▁कवर	-8668
रलैंड	-8669
▁बांस	-8670
▁सुखद	-8671
न्दर्य	-8672
ापूर्ण	-8673
▁नोड्स	-8674
▁हल्का	-8675
▁अधिष्ठ	-8676
▁चट्टान	-8677
▁प्रशासक	-8678
se	-8679
पाट	-8680
▁pr	-8681
▁sa	-8682
चेरी	-8683
▁Chr	-8684
▁कुर	-8685
ेशनों	-8686
▁जोशी	-8687
▁भेड़	-8688
▁जिज्ञ	-8689
▁Google	-8690
▁स्थावर	-8691
▁पर्वतीय	-8692
▁वाशिंगटन	-8693
ंकि	-8694
रीद	-8695
▁नाभ	-8696
▁अविल	-8697
▁कृषक	-8698
▁पुष्ट	-8699
कारियों	-8700
▁चेन्नई	-8701
▁सेवाएँ	-8702
▁स्वार्थ	-8703
▁अब्दुल्ला	-8704
कै	-8705
ध्द	-8706
ुखी	-8707
▁एह	-8708
▁चौक	-8709
▁बादल	-8710
पतियों	-8711
▁क्रोम	-8712
▁गर्दन	-8713
▁जायगा	-8714
▁तुलसी	-8715
▁युग्म	-8716
▁रवाना	-8717
▁रोमां	-8718
▁वकालत	-8719
▁वादों	-8720
▁चिन्ता	-8721
▁नौसेना	-8722
▁प्ररूप	-8723
▁प्रेरक	-8724
▁खाद्यान	-8725
▁नामांकन	-8726
▁अभिलिखित	-8727
खाना	-8728
▁इंट	-8729
▁जनक	-8730
▁अभिम	-8731
▁फैली	-8732
▁रावण	-8733
▁उपासना	-8734
▁धाराओं	-8735
▁परंतुक	-8736
▁बशर्ते	-8737
▁कित्तूर	-8738
▁परिपत्र	-8739
▁महाकाव्य	-8740
▁व्यापारियों	-8741
ub	-8742
गिक	-8743
ोदय	-8744
ीयों	-8745
▁शाक	-8746
कार्य	-8747
▁अफसर	-8748
▁ऋणों	-8749
▁तैना	-8750
▁परिल	-8751
▁्याय	-8752
▁गुलाम	-8753
▁फैसले	-8754
▁लगाये	-8755
▁किनारों	-8756
▁जुर्माना	-8757
▁अतिमानसिक	-8758
▁प्रत्युत्तर	-8759
थिल	-8760
▁शव	-8761
▁अवध	-8762
▁दाल	-8763
▁भीम	-8764
▁मदर	-8765
▁व्ह	-8766
▁हनु	-8767
मियों	-8768
िलोकन	-8769
▁पल्ल	-8770
वर्षीय	-8771
▁उल्लास	-8772
▁क्रमिक	-8773
▁विद्वत	-8774
▁अग्रवाल	-8775
▁द्वीपों	-8776
▁कार्यपाल	-8777
▁फाउंडेशन	-8778
▁न्यूयार्क	-8779
जि	-8780
▁बृ	-8781
धारक	-8782
ल्ले	-8783
▁घों	-8784
▁पिर	-8785
▁गाने	-8786
▁अखबार	-8787
▁दंडित	-8788
▁उत्थान	-8789
▁राजवंश	-8790
▁अनुप्रयोगों	-8791
आन	-8792
्वल	-8793
▁फो	-8794
रणीय	-8795
▁छान	-8796
▁न्य	-8797
बारों	-8798
▁ख्याल	-8799
▁जीतने	-8800
▁फीसदी	-8801
▁मंजिल	-8802
▁आक्षेप	-8803
▁मुम्बई	-8804
▁सीमेंट	-8805
▁निर्भरता	-8806
▁यूनाइटेड	-8807
▁सौन्दर्य	-8808
▁कार्मिकों	-8809
▁कार्यकलाप	-8810
लु	-8811
ुकला	-8812
▁मृदा	-8813
▁क़्या	-8814
▁खेलने	-8815
▁कोरिया	-8816
▁ग्रंथि	-8817
▁देखेंगे	-8818
▁विशुद्ध	-8819
▁सद्भावना	-8820
▁सांविधिक	-8821
▁प्रामाणिक	-8822
ंशी	-8823
कने	-8824
▁अमी	-8825
▁सीट	-8826
▁औजार	-8827
▁डिज़	-8828
पत्रों	-8829
▁कसौटी	-8830
▁खुराक	-8831
▁परमिट	-8832
▁प्रात	-8833
▁बेरोज	-8834
▁हममें	-8835
▁दर्शकों	-8836
▁अप्रत्या	-8837
▁आस्तियां	-8838
▁क्षेत्रक	-8839
▁सुपुर्दगी	-8840
ॉस	-8841
aoM	-8842
बुद	-8843
िटर	-8844
ागार	-8845
▁परो	-8846
ज्जित	-8847
परेशन	-8848
▁गौतम	-8849
▁बंधक	-8850
▁सूखा	-8851
▁बनाएं	-8852
▁बुखार	-8853
▁मंडली	-8854
▁प्रेषण	-8855
▁व्यतिक	-8856
▁उत्प्रे	-8857
▁तार्किक	-8858
▁समनुदेश	-8859
▁एक्सटेंशन	-8860
▁जाऊ	-8861
▁मोल	-8862
▁शैल	-8863
▁हिर	-8864
चर्या	-8865
पोरेट	-8866
▁पच्च	-8867
▁रसोई	-8868
▁सुलभ	-8869
▁सोशल	-8870
लेरिया	-8871
▁ग्रिड	-8872
▁मैसूर	-8873
▁रुग्ण	-8874
▁डिक्री	-8875
▁प्रोफ़	-8876
▁यथासंभव	-8877
▁आतंकवादियों	-8878
ोभ	-8879
▁डू	-8880
टिंग	-8881
न्ने	-8882
िवास	-8883
▁अनू	-8884
▁एजे	-8885
▁खुर	-8886
▁वॉल	-8887
▁शिर	-8888
नीकरण	-8889
संबंध	-8890
्याति	-8891
▁तटीय	-8892
▁महार	-8893
ुतीकरण	-8894
▁अंतरा	-8895
▁केलिए	-8896
▁कोयले	-8897
▁निकलता	-8898
▁महाराज	-8899
▁राजदूत	-8900
▁सम्मुख	-8901
▁बागवानी	-8902
▁वैधानिक	-8903
▁नागरिकता	-8904
▁विमानक्षेत्र	-8905
ौदा	-8906
्टन	-8907
▁भाँ	-8908
▁अभिश	-8909
▁भावा	-8910
▁हिला	-8911
ीट्यूट	-8912
▁विचारा	-8913
▁संरक्षक	-8914
▁पठ	-8915
सूरत	-8916
▁ऊँच	-8917
▁झार	-8918
▁ग्रा	-8919
▁दहेज	-8920
▁बाँध	-8921
▁वियत	-8922
▁शर्म	-8923
▁अनुयाय	-8924
▁आश्रित	-8925
▁इंतजार	-8926
▁कर्त्त	-8927
प्लिकेशन	-8928
▁गर्भवती	-8929
▁समुच्चय	-8930
▁उत्तेजित	-8931
▁निदेशकों	-8932
▁मानवाधिक	-8933
ुरु	-8934
ालेख	-8935
▁चोर	-8936
ास्पद	-8937
▁अभिस	-8938
▁असीम	-8939
▁मदों	-8940
▁वैसी	-8941
▁खुलने	-8942
▁नामित	-8943
▁बहुधा	-8944
▁आईसीटी	-8945
▁परिमाण	-8946
ानिर्देश	-8947
▁आन्तरिक	-8948
▁अहमदाबाद	-8949
▁अर्थशास्त्र	-8950
▁मनोवैज्ञानिक	-8951
▁आगम	-8952
▁कैप	-8953
▁थाः	-8954
▁इनको	-8955
▁एंटी	-8956
▁कमिश	-8957
▁लगों	-8958
▁सचेत	-8959
▁अनुमत	-8960
▁समरूप	-8961
▁असंख्य	-8962
▁ग्यारह	-8963
▁देखरेख	-8964
▁निवेशक	-8965
▁प्रमाणन	-8966
▁व्यवसायी	-8967
▁साझेदारी	-8968
▁सिंगापुर	-8969
▁स्ट्रिंग	-8970
▁साधारणतया	-8971
माल	-8972
ोंग	-8973
ट्रिक	-8974
न्नति	-8975
▁करों	-8976
▁कृपा	-8977
▁मरने	-8978
▁पाश्च	-8979
▁नवाचार	-8980
▁लाभकारी	-8981
▁ब्राउज़र	-8982
▁संस्थापन	-8983
’’	-8984
जील	-8985
बेट	-8986
ादन	-8987
दायी	-8988
▁सत्	-8989
▁सृज	-8990
▁पौरा	-8991
▁ईरानी	-8992
▁यमुना	-8993
▁रोकना	-8994
▁पॉलिसी	-8995
▁मिश्रा	-8996
▁अलम	-8997
▁खरा	-8998
▁पौधा	-8999
▁फ़िर	-9000
▁राजप	-9001
▁तारों	-9002
▁बर्तन	-9003
▁सुंदरता	-9004
▁आकांक्षाओं	-9005
▁विश्वव्यापी	-9006
सीन	-9007
▁मॉड	-9008
▁आलोक	-9009
▁चार्	-9010
▁माउस	-9011
▁साफ़	-9012
▁खतरों	-9013
▁शाश्व	-9014
▁विनम्र	-9015
▁सहेजें	-9016
▁एनआईओएस	-9017
▁काल्पनिक	-9018
▁नामनिर्देश	-9019
▁दिशानिर्देश	-9020
▁परिप्रेक्ष्य	-9021
▁परिस्थितियां	-9022
▁अरे	-9023
▁दीन	-9024
▁फ्री	-9025
▁उर्वर	-9026
▁कन्या	-9027
▁ग्रेड	-9028
▁भिक्ष	-9029
▁लम्बा	-9030
▁प्रतिमान	-9031
▁प्रेमचन्द	-9032
th	-9033
ान्	-9034
िगर	-9035
क्के	-9036
▁कस्	-9037
▁रघु	-9038
क्रेट	-9039
▁उद्घ	-9040
▁ठेके	-9041
▁सजीव	-9042
▁सपने	-9043
▁उजागर	-9044
▁चालुक	-9045
▁दशाओं	-9046
▁विक्ष	-9047
▁ज़रूरी	-9048
▁पकड़ने	-9049
▁पुनराव	-9050
▁वर्ल्ड	-9051
▁संप्रती	-9052
▁कन्वेंशन	-9053
▁जानबूझकर	-9054
▁रजिस्ट्रार	-9055
लाभ	-9056
वाक	-9057
▁फा	-9058
न्नी	-9059
रहित	-9060
▁टाल	-9061
▁बाघ	-9062
▁्या	-9063
ोलॉजी	-9064
▁तिरु	-9065
▁नौका	-9066
ाध्याय	-9067
▁दुबारा	-9068
▁प्रताप	-9069
▁मुद्रक	-9070
▁बाध्यता	-9071
▁मध्यवर्ती	-9072
▁भविष्यवाणी	-9073
▁प्रतिपूर्ति	-9074
tt	-9075
ोफ	-9076
ोत्	-9077
ियान	-9078
ोन्म	-9079
▁निवल	-9080
▁वल्ल	-9081
▁शंका	-9082
▁इलाके	-9083
▁जयपुर	-9084
▁डीएनए	-9085
▁पट्टे	-9086
▁बंगला	-9087
▁मल्टी	-9088
▁हफ्ते	-9089
▁घटनाएं	-9090
▁जिन्ना	-9091
▁निरर्थ	-9092
▁विलम्ब	-9093
▁आवृत्ति	-9094
▁वास्तुकला	-9095
▁अप्रत्याशित	-9096
▁पुनर्विलोकन	-9097
▁प्रोग्रामिंग	-9098
▁ओं	-9099
▁१८	-9100
य्या	-9101
ुपात	-9102
▁अड़	-9103
▁डिब	-9104
▁वीं	-9105
▁पत्थ	-9106
▁हरेक	-9107
▁खेलों	-9108
▁परवाह	-9109
▁स्पेन	-9110
▁अस्त्र	-9111
▁दिखाना	-9112
▁अत्याचार	-9113
▁छल	-9114
▁छु	-9115
▁जगा	-9116
▁नित	-9117
▁मर्	-9118
▁मौन	-9119
िवर्स	-9120
ोत्सव	-9121
▁ऑफिस	-9122
▁कपास	-9123
▁गुर्	-9124
▁घेरे	-9125
▁ढलान	-9126
▁निया	-9127
▁बताई	-9128
▁श्ले	-9129
▁संवे	-9130
▁डालता	-9131
▁माणिक	-9132
▁पात्रों	-9133
ीदा	-9134
▁कछ	-9135
ंगों	-9136
ालाल	-9137
ालीस	-9138
▁मला	-9139
▁लौह	-9140
निस्ट	-9141
▁तेजा	-9142
▁विषम	-9143
▁डालते	-9144
▁पक्का	-9145
▁सब्सि	-9146
▁व्यतीत	-9147
▁करनेवाले	-9148
▁प्रायोजित	-9149
सक	-9150
च्य	-9151
माइ	-9152
सेफ	-9153
ोहण	-9154
जिये	-9155
▁खाम	-9156
▁झेल	-9157
▁सिम	-9158
स्राव	-9159
ोरिया	-9160
▁कटाई	-9161
▁गायब	-9162
▁दस्त	-9163
▁निःश	-9164
▁परमा	-9165
▁पीछा	-9166
▁रूसी	-9167
▁धूम्र	-9168
▁पांडे	-9169
▁शिश्न	-9170
▁वर्षीय	-9171
▁अरुणाचल	-9172
▁पौराणिक	-9173
▁कार्यकर्ताओं	-9174
मयी	-9175
▁अछ	-9176
कथित	-9177
सराय	-9178
▁खां	-9179
▁मैन	-9180
▁श्ल	-9181
▁बैंड	-9182
▁बढाने	-9183
▁बैठकर	-9184
▁मतदाता	-9185
▁स्नायु	-9186
▁अनुरक्षण	-9187
▁पासपोर्ट	-9188
ॉं	-9189
ंगर	-9190
इंट	-9191
तुर	-9192
▁एटी	-9193
▁बिछ	-9194
▁लाज	-9195
▁सैय	-9196
षिद्ध	-9197
▁इटली	-9198
▁घंटा	-9199
▁अपवर्	-9200
▁खुदरा	-9201
▁जिक्र	-9202
▁शाहजह	-9203
▁ख्याति	-9204
▁दिशाओं	-9205
▁अनुयायियों	-9206
ob	-9207
गोश	-9208
बिट	-9209
भीत	-9210
▁कत	-9211
दत्त	-9212
▁निम	-9213
▁ऑपरेट	-9214
▁मुखिया	-9215
▁कलाकारों	-9216
▁इंटरनेशनल	-9217
▁कार्यशाला	-9218
षी	-9219
डेट	-9220
िंट	-9221
ोगिक	-9222
१वें	-9223
▁कंक	-9224
▁टेक	-9225
▁नाइ	-9226
▁मिज	-9227
▁समन	-9228
बिनेट	-9229
ुद्धि	-9230
▁नरेश	-9231
▁रक्षक	-9232
▁जंगलों	-9233
▁आदिवासी	-9234
▁आश्वस्त	-9235
▁कलात्मक	-9236
▁उत्तेजना	-9237
▁यांत्रिक	-9238
▁संदर्भित	-9239
▁आत्मनिर्भ	-9240
ड्र	-9241
फुस	-9242
ोरेट	-9243
▁मेह	-9244
▁धुंध	-9245
▁पारे	-9246
▁मेले	-9247
▁रोटी	-9248
▁जीवनी	-9249
▁दीवान	-9250
▁जोरदार	-9251
▁नियोजक	-9252
▁मन्दिर	-9253
▁विवेका	-9254
▁स्वरुप	-9255
▁अधिकथित	-9256
▁खुशहाली	-9257
▁छुटकारा	-9258
▁तकनीकों	-9259
▁समाजवाद	-9260
राष्ट्रपति	-9261
▁अपरिहार्य	-9262
▁पंचवर्षीय	-9263
▁राष्ट्रीयता	-9264
प्प	-9265
▁आईडी	-9266
▁कम्ब	-9267
▁चिट्	-9268
्रेषित	-9269
▁अंकुर	-9270
▁पहलों	-9271
▁मुर्ग	-9272
▁वेस्ट	-9273
▁क्योकि	-9274
▁लक्षित	-9275
▁अवस्थाओं	-9276
▁पंचायतों	-9277
▁श्रीकृष्ण	-9278
मील	-9279
ाउन	-9280
▁aa	-9281
गांठ	-9282
चकों	-9283
ज़ार	-9284
▁असु	-9285
▁घेर	-9286
▁दुष्	-9287
▁बस्त	-9288
▁ब्रा	-9289
▁क्लास	-9290
▁नाजुक	-9291
▁बस्ती	-9292
▁लगाते	-9293
▁जागरूक	-9294
▁भाइयों	-9295
▁शाश्वत	-9296
▁वृक्षों	-9297
ावट	-9298
ेरी	-9299
ाँकि	-9300
▁तिव	-9301
▁भला	-9302
िश्रण	-9303
▁अंगी	-9304
▁जवान	-9305
▁तरफ़	-9306
▁मादक	-9307
▁रूढ़	-9308
▁जिनको	-9309
▁तत्समय	-9310
▁पंचांग	-9311
▁प्रादेश	-9312
▁इस्लामिक	-9313
▁पत्तियों	-9314
▁पीड़ितों	-9315
▁शताब्दियों	-9316
▁साम्राज्यवाद	-9317
ण्य	-9318
ल्थ	-9319
सीए	-9320
▁शम	-9321
म्बे	-9322
▁खाई	-9323
▁बढा	-9324
▁पराग	-9325
▁सर्प	-9326
▁निष्क	-9327
▁मक्का	-9328
▁श्याम	-9329
▁ऑपरेशन	-9330
▁कंप्यूट	-9331
▁निम्नतर	-9332
▁हालाँकि	-9333
▁जुर्माने	-9334
▁प्रतिबंधित	-9335
है	-9336
ोव	-9337
स्स	-9338
ारस	-9339
मुझे	-9340
▁आरा	-9341
▁टूल	-9342
▁नक़	-9343
▁बगी	-9344
त्रिक	-9345
▁चौदह	-9346
▁दरें	-9347
▁दर्जे	-9348
▁बढ़ना	-9349
▁अभिनेता	-9350
▁समायोजित	-9351
EE	-9352
ेब	-9353
णीय	-9354
▁इलै	-9355
▁नेप	-9356
▁रुख	-9357
▁पूछे	-9358
▁मेला	-9359
▁सबका	-9360
▁सौदा	-9361
रेन्द्र	-9362
▁दर्शित	-9363
▁सापेक्ष	-9364
▁बं	-9365
र्ति	-9366
▁गली	-9367
▁दुक	-9368
▁रेत	-9369
▁चौथे	-9370
▁म्यू	-9371
▁सपना	-9372
▁आंत्र	-9373
▁कब्जे	-9374
▁क्रिस	-9375
▁चौथाई	-9376
▁जातीय	-9377
▁डेविड	-9378
▁दुर्व	-9379
▁प्रचलन	-9380
▁मुर्गी	-9381
▁स्मार्ट	-9382
▁निरीक्षक	-9383
डीए	-9384
ोधी	-9385
गरों	-9386
पीएस	-9387
त्नों	-9388
भक्ति	-9389
विन्द	-9390
ोनिया	-9391
▁डिजी	-9392
▁अहसास	-9393
▁एक्सप	-9394
▁चुनने	-9395
▁नम्बर	-9396
▁निपटा	-9397
▁वेदों	-9398
▁ऊर्ध्व	-9399
▁गोविंद	-9400
▁बढ़िया	-9401
▁महाप्र	-9402
▁लाभप्रद	-9403
▁संकेतों	-9404
▁संस्थित	-9405
▁त्रिपुरा	-9406
▁अपेक्षाओं	-9407
▁परिपक्वता	-9408
▁सशक्तीकरण	-9409
तू	-9410
ंदे	-9411
करे	-9412
काई	-9413
▁हौ	-9414
्यूल	-9415
▁मामल	-9416
▁संसू	-9417
▁ओआरएस	-9418
▁नगरों	-9419
▁विधिव	-9420
▁पहचाना	-9421
▁इकाइयां	-9422
▁बांग्ला	-9423
▁कार्यकर्ता	-9424
ढी	-9425
ist	-9426
▁ओज	-9427
माना	-9428
▁अनौ	-9429
▁तूफ	-9430
▁अंडा	-9431
▁गाथा	-9432
▁भृंग	-9433
▁बैटरी	-9434
▁लॉर्ड	-9435
▁कराधान	-9436
▁ड्रग्स	-9437
▁हनुमान	-9438
▁स्तंभों	-9439
▁व्यक़्ति	-9440
▁साफ्टवेयर	-9441
खल	-9442
कोच	-9443
बिया	-9444
शोधन	-9445
▁झूठ	-9446
▁फ़र	-9447
▁अनुभ	-9448
▁आएगा	-9449
▁कथाओं	-9450
▁स्टील	-9451
▁अल्लाह	-9452
▁जुटाने	-9453
▁फोल्डर	-9454
▁विक्रम	-9455
▁प्रतिरूप	-9456
▁प्रेमचंद	-9457
▁प्रादेशिक	-9458
▁विशिष्टता	-9459
▁आत्मविश्वास	-9460
ढा	-9461
ओआर	-9462
गंज	-9463
तौर	-9464
ज्जा	-9465
▁आशी	-9466
▁चैन	-9467
▁कलाम	-9468
▁दादी	-9469
▁नोडल	-9470
▁पीले	-9471
▁वृंद	-9472
▁हमास	-9473
▁वैद्य	-9474
▁उच्छेदन	-9475
▁पहुँचने	-9476
▁वर्षगांठ	-9477
डोर	-9478
ायम	-9479
▁तैर	-9480
▁नहर	-9481
▁बाण	-9482
त्विक	-9483
मेन्ट	-9484
लीकरण	-9485
▁त्यो	-9486
▁साहा	-9487
▁तुल्य	-9488
▁बढावा	-9489
▁लीजिए	-9490
▁सीखना	-9491
▁करवाया	-9492
▁जोड़ना	-9493
▁पूंजीगत	-9494
▁सैकड़ों	-9495
▁स्टार्ट	-9496
▁केन्द्री	-9497
▁धूम्रपान	-9498
▁प्रतिष्ठान	-9499
▁श्रद्धांजलि	-9500
अन	-9501
ंजक	-9502
कूट	-9503
ादर	-9504
ूंगी	-9505
▁अनवर	-9506
▁उभार	-9507
▁व्रत	-9508
▁अपहरण	-9509
▁ऊँचाई	-9510
▁नामंज	-9511
▁बूढ़े	-9512
▁गर्भाव	-9513
िवर्सिटी	-9514
▁मेगावाट	-9515
▁अधिनिर्णय	-9516
▁भावनात्मक	-9517
▁सहिष्णुता	-9518
▁सेवानिवृत्ति	-9519
यह	-9520
ठों	-9521
सूची	-9522
▁लूट	-9523
नीयता	-9524
▁क्षै	-9525
▁पतली	-9526
▁कराते	-9527
▁गिनती	-9528
▁जरिये	-9529
▁पर्दा	-9530
िपीडिया	-9531
▁चेष्टा	-9532
▁तिवारी	-9533
▁गेंदबाज	-9534
▁प्रतिभाग	-9535
▁प्रॉक्सी	-9536
▁सब्जियों	-9537
ey	-9538
ास्थ	-9539
▁गों	-9540
▁ग्व	-9541
▁पैद	-9542
▁बेन	-9543
▁सिग	-9544
द्रिक	-9545
▁ज़ोर	-9546
▁मारा	-9547
▁लाये	-9548
▁लोहे	-9549
ड़ियां	-9550
▁खर्चा	-9551
▁पसन्द	-9552
▁भयभीत	-9553
▁सेकंड	-9554
▁पाएंगे	-9555
▁प्रकटन	-9556
▁अखबारों	-9557
▁अभयारण्य	-9558
▁प्रोफाइल	-9559
▁सिद्धदोष	-9560
▁बुद्धिमान	-9561
▁अत्यावश्यक	-9562
▁इंस्टीट्यूट	-9563
यो	-9564
मैं	-9565
रिष	-9566
ोकर	-9567
▁डु	-9568
केशन	-9569
ुकता	-9570
▁नाच	-9571
▁नाश	-9572
▁लसी	-9573
▁लां	-9574
▁साज	-9575
▁सूख	-9576
पृष्ठ	-9577
▁चाचा	-9578
▁दलील	-9579
मुक्ति	-9580
▁उठाते	-9581
▁रोबोट	-9582
▁तिमाही	-9583
▁पहुँचे	-9584
▁सिन्हा	-9585
▁पक्षपात	-9586
▁ब्रह्मा	-9587
▁वचनबद्ध	-9588
▁कामगारों	-9589
▁निर्देशक	-9590
▁प्रबन्धन	-9591
▁संक्रामक	-9592
▁कट्टरपंथी	-9593
ख्श	-9594
ेंग	-9595
▁दुस	-9596
▁करुणा	-9597
▁चार्ज	-9598
▁झुकाव	-9599
▁धरोहर	-9600
▁वर्गम	-9601
▁वर्गा	-9602
▁यूनानी	-9603
▁समकक्ष	-9604
▁अभियोजक	-9605
▁कविताएं	-9606
▁किस्मों	-9607
▁प्रभारित	-9608
▁संक्रमित	-9609
ct	-9610
षाण	-9611
ादित	-9612
▁फोट	-9613
▁भटक	-9614
▁सिड	-9615
▁सॉल	-9616
वालों	-9617
ाइलों	-9618
▁परिर	-9619
▁फायर	-9620
▁ब्ला	-9621
कुमारी	-9622
▁कार्प	-9623
▁खरगोश	-9624
▁तहसील	-9625
▁एकाग्र	-9626
▁दिखाता	-9627
▁मापदंड	-9628
▁रियासत	-9629
▁किताबें	-9630
▁पृष्ठों	-9631
▁वर्गमूल	-9632
▁वियतनाम	-9633
▁विलक्षण	-9634
▁अल्पसंख्यक	-9635
▁ट्रिब्यूनल	-9636
▁प्रतिबिम्ब	-9637
and	-9638
▁बछ	-9639
▁लह	-9640
देही	-9641
▁जनन	-9642
▁साय	-9643
▁हुक	-9644
्लेषण	-9645
▁NAME	-9646
▁इसमे	-9647
▁करोड	-9648
▁केबल	-9649
▁पैदल	-9650
ानुमान	-9651
▁कुष्ठ	-9652
▁डालें	-9653
▁वायदा	-9654
▁वृक्क	-9655
▁स्थाय	-9656
त्तियां	-9657
▁नीलामी	-9658
▁स्वराज	-9659
▁ड्राफ्ट	-9660
▁अपराधियों	-9661
झान	-9662
ेषण	-9663
गारी	-9664
▁PRO	-9665
▁आंग	-9666
▁टैग	-9667
फोर्ड	-9668
शिल्प	-9669
▁अंचल	-9670
▁असुर	-9671
▁आप्र	-9672
▁फिनल	-9673
▁यहूद	-9674
▁अभ्या	-9675
▁आँखें	-9676
▁इंसान	-9677
▁तलवार	-9678
▁बारिश	-9679
▁होस्ट	-9680
▁भूमिगत	-9681
▁अनुयायी	-9682
▁कालावधि	-9683
▁त्योहार	-9684
▁पात्रता	-9685
▁शीघ्रता	-9686
▁सब्सिडी	-9687
▁संतोषजनक	-9688
▁पहाड़ियों	-9689
▁पाश्चात्य	-9690
उन	-9691
ज़्	-9692
भ्र	-9693
मेज	-9694
समूह	-9695
▁टोक	-9696
▁वोट	-9697
वारों	-9698
▁इष्ट	-9699
▁जीता	-9700
▁तालम	-9701
▁विस्	-9702
▁अंकों	-9703
▁चालीस	-9704
▁जार्ज	-9705
▁पारम्प	-9706
▁अकादमिक	-9707
▁तथाकथित	-9708
▁बुद्धिम	-9709
▁मंत्रिप	-9710
▁न्यायोचित	-9711
▁प्रोजेक्ट	-9712
▁मध्यस्थता	-9713
ip	-9714
और	-9715
ोटा	-9716
▁तीर	-9717
▁मदन	-9718
तालों	-9719
विवाह	-9720
▁ठंडा	-9721
▁मानद	-9722
▁अपनाए	-9723
▁पेरिस	-9724
▁बदलती	-9725
▁प्रशंस	-9726
▁निरर्थक	-9727
▁परिष्कृत	-9728
▁सांख्यिकी	-9729
▁मंत्रिमंडल	-9730
ेबल	-9731
ाराम	-9732
ीर्ण	-9733
▁उठी	-9734
▁पदो	-9735
▁बोर	-9736
▁अय्य	-9737
▁क्षी	-9738
▁घिरा	-9739
▁डिवा	-9740
स्तरीय	-9741
▁छोड़े	-9742
▁ज़मीन	-9743
▁मैथुन	-9744
▁कैबिनेट	-9745
▁फ़ाइलें	-9746
▁शब्दकोश	-9747
▁कहानियां	-9748
▁रिपोर्टों	-9749
भवन	-9750
ाधर	-9751
▁एप	-9752
▁उदा	-9753
▁चित	-9754
▁फीट	-9755
▁आच्छ	-9756
▁कशेर	-9757
▁टाटा	-9758
▁पहने	-9759
▁फर्श	-9760
▁फ़ोन	-9761
▁साम्	-9762
सिद्धि	-9763
▁परिवी	-9764
▁परिशि	-9765
▁सेक्स	-9766
▁उन्नीस	-9767
▁तालमेल	-9768
▁दिवसीय	-9769
▁नोकिया	-9770
▁पैटर्न	-9771
▁सेकेंड	-9772
▁ग्रीष्म	-9773
▁सुलझाने	-9774
▁प्रतिवाद	-9775
▁वर्गाकार	-9776
▁विकल्पों	-9777
▁तत्पश्चात्	-9778
▁तरा	-9779
▁नंद	-9780
▁बगल	-9781
▁लाद	-9782
▁वरन	-9783
▁सरो	-9784
कार्ब	-9785
▁अरुण	-9786
▁इक्व	-9787
▁चरित	-9788
▁दुखद	-9789
▁पुष्	-9790
▁बेंच	-9791
▁मधुम	-9792
▁इजाजत	-9793
▁इन्टर	-9794
▁सिन्ध	-9795
ोनेशिया	-9796
▁Chrome	-9797
▁तुम्हे	-9798
▁महासभा	-9799
▁हिम्मत	-9800
▁पैदावार	-9801
▁कोशिकाएं	-9802
▁मानदंडों	-9803
▁सहकारिता	-9804
▁एप्लिकेशन	-9805
▁विकिपीडिया	-9806
CT	-9807
१९	-9808
▁’’	-9809
▁ऑटो	-9810
▁दां	-9811
ूर्वक	-9812
▁असंग	-9813
▁त्यौ	-9814
▁अनधिक	-9815
▁नियति	-9816
▁निष्ठ	-9817
▁रंगीन	-9818
▁शिविर	-9819
▁शॉर्ट	-9820
▁हालात	-9821
▁अपीलों	-9822
▁अमान्य	-9823
▁कॉन्फ़	-9824
▁पराजित	-9825
▁प्रिंस	-9826
▁राजपूत	-9827
▁वकीलों	-9828
▁निस्संदेह	-9829
▁विचाराधीन	-9830
ov	-9831
est	-9832
लीम	-9833
▁रूट	-9834
▁हें	-9835
क्ष्ण	-9836
▁डेवल	-9837
ारियों	-9838
▁ध्रुव	-9839
▁अनुरुप	-9840
▁इन्कार	-9841
▁महावीर	-9842
▁योद्धा	-9843
▁दुकानों	-9844
▁ट्रैकिंग	-9845
▁एवोल्यूशन	-9846
▁सृजनात्मक	-9847
▁मंत्रिपरिष	-9848
ंछ	-9849
ंबन	-9850
ग्व	-9851
परा	-9852
मेव	-9853
▁पैन	-9854
▁शिष	-9855
▁छाती	-9856
▁दुखी	-9857
▁वक्ष	-9858
▁करेंः	-9859
▁जमारा	-9860
▁टकराव	-9861
▁आधारों	-9862
▁पसंदीदा	-9863
▁क्रमादेश	-9864
काय	-9865
बली	-9866
रिश	-9867
चालय	-9868
दमों	-9869
फिया	-9870
▁फंस	-9871
ान्ति	-9872
▁खिंच	-9873
▁नागर	-9874
▁ब्ले	-9875
▁वर्क	-9876
▁आरोपी	-9877
▁दिखने	-9878
▁द्रुत	-9879
▁बैठने	-9880
▁सांसद	-9881
▁खिड़की	-9882
▁ग्रीवा	-9883
▁विरचित	-9884
▁विराट्	-9885
▁श्रव्य	-9886
▁जातियां	-9887
▁निमंत्रण	-9888
▁पीढ़ियों	-9889
नम	-9890
बाई	-9891
रिव	-9892
ारसी	-9893
ोत्त	-9894
▁दूत	-9895
▁फलक	-9896
▁हर्	-9897
ग्राफ	-9898
▁अठार	-9899
▁ठरोग	-9900
▁निवे	-9901
▁जनगणना	-9902
▁अफ्रीकी	-9903
▁असमानता	-9904
▁पत्थरों	-9905
▁विजेताओं	-9906
▁तुलनात्मक	-9907
▁प्रक्षेपण	-9908
▁उपराष्ट्रपति	-9909
चिव	-9910
ण्डे	-9911
▁अवह	-9912
▁करण	-9913
▁खली	-9914
▁मरण	-9915
ेक्टर	-9916
▁उपगत	-9917
▁उष्ण	-9918
▁क्रे	-9919
▁नवाब	-9920
▁बांड	-9921
▁टेक्न	-9922
▁पित्त	-9923
▁सज्जन	-9924
▁कृष्णा	-9925
▁वास्तु	-9926
▁विफलता	-9927
▁संभवतया	-9928
▁यहूदियों	-9929
▁राज्यसभा	-9930
▁कम्युनिस्ट	-9931
if	-9932
गिन	-9933
तिज	-9934
▁con	-9935
▁डेन	-9936
▁पठन	-9937
▁पेंट	-9938
▁मुसी	-9939
▁लीटर	-9940
▁नवजात	-9941
▁भाँति	-9942
▁लुप्त	-9943
▁साहसिक	-9944
▁डिज़ाइन	-9945
▁त्यौहार	-9946
▁दोहराया	-9947
▁नामंजूर	-9948
भंग	-9949
मंद	-9950
िशन	-9951
ौली	-9952
▁ओम	-9953
▁कैन	-9954
▁थोक	-9955
थियों	-9956
ोरेंस	-9957
▁आईएस	-9958
▁नीले	-9959
▁सुल्	-9960
ब्रेरी	-9961
▁उद्गम	-9962
▁पारसी	-9963
▁बेलार	-9964
▁राहुल	-9965
▁रियास	-9966
▁कमिश्न	-9967
▁छोड़ना	-9968
▁निकलना	-9969
▁शिशुओं	-9970
▁मेहरअली	-9971
▁किरायेदार	-9972
▁सुविधाजनक	-9973
▁पूर्वानुमान	-9974
ND	-9975
सद	-9976
ापक	-9977
▁खट	-9978
▁लट	-9979
पुरी	-9980
▁कपट	-9981
▁कॉम	-9982
▁चाँ	-9983
▁बैर	-9984
ालैंड	-9985
▁खगोल	-9986
▁खोले	-9987
▁पेशकश	-9988
▁सुनते	-9989
▁कमजोरी	-9990
▁चीज़ें	-9991
▁निकासी	-9992
▁नरेंद्र	-9993
▁पंक्तियों	-9994
▁विश्वयुद्ध	-9995
▁संरचनात्मक	-9996
ड़ो	-9997
▁वग	-9998
ोपरि	-9999
▁अंब	-10000
▁जेर	-10001
▁पसी	-10002
▁फास	-10003
▁समत	-10004
दुनाथ	-10005
▁भलाई	-10006
▁पत्ते	-10007
▁सियार	-10008
▁सुस्प	-10009
▁असंतोष	-10010
▁विकृति	-10011
▁अक्षरों	-10012
▁पत्रिकाओं	-10013
▁शल्यक्रिया	-10014
ेता	-10015
▁एकक	-10016
▁कटि	-10017
▁दीं	-10018
फार्म	-10019
ोजकों	-10020
▁वसीय	-10021
▁इरादा	-10022
▁किस्त	-10023
▁बनारस	-10024
▁हाजिर	-10025
▁चीज़ों	-10026
▁संज्ञा	-10027
▁अधीक्षक	-10028
▁तीक्ष्ण	-10029
▁रामलिंग	-10030
▁कार्यकरण	-10031
▁परमात्मा	-10032
▁विधेयकों	-10033
▁लघ	-10034
कारक	-10035
तत्व	-10036
हाउस	-10037
ोल्ट	-10038
▁मोटा	-10039
▁सर्क	-10040
▁औषधीय	-10041
▁कराती	-10042
▁भत्ते	-10043
▁मनाने	-10044
▁हिंसक	-10045
▁बाधाओं	-10046
▁अक्षमता	-10047
▁प्रतियां	-10048
▁सम्प्रदाय	-10049
उथ	-10050
ोत	-10051
ोंक	-10052
▁गह	-10053
जन्य	-10054
बिंद	-10055
लियां	-10056
▁तेज़	-10057
▁वादा	-10058
▁श्लो	-10059
▁वारंट	-10060
▁अलमस्त	-10061
▁अवज्ञा	-10062
▁खूबसूरत	-10063
▁चंडीगढ़	-10064
▁दर्शाती	-10065
▁दर्शाने	-10066
सेज	-10067
कुशल	-10068
ान्स	-10069
▁LIN	-10070
▁अँग	-10071
▁अपल	-10072
▁औपन	-10073
▁गुम	-10074
▁तेर	-10075
▁आभास	-10076
▁आहरण	-10077
▁कांच	-10078
▁बहती	-10079
▁ललित	-10080
▁एकत्व	-10081
▁भूगोल	-10082
▁राक्ष	-10083
▁सैद्ध	-10084
▁स्पर्	-10085
▁ह्रास	-10086
▁चिन्तन	-10087
▁प्रातः	-10088
▁संगणित	-10089
▁निर्वचन	-10090
▁मलेरिया	-10091
▁श्लोकों	-10092
▁अधिकरणों	-10093
▁अभिलेखों	-10094
▁एकाधिकार	-10095
▁निवेदिता	-10096
▁प्रायोगिक	-10097
▁साम्राज़्य	-10098
०ग	-10099
दगी	-10100
रणी	-10101
िपल	-10102
ब्बत	-10103
सर्ग	-10104
▁शोथ	-10105
देशीय	-10106
न्दगी	-10107
ष्टिक	-10108
▁स्का	-10109
▁तामील	-10110
▁हुर्इ	-10111
▁निकाली	-10112
▁सरोजिनी	-10113
▁साझीदार	-10114
▁प्रबंधित	-10115
▁गर्भावस्था	-10116
▁राष्ट्रवादी	-10117
ial	-10118
ोकस	-10119
▁ऋस	-10120
▁कफ	-10121
काने	-10122
िश्व	-10123
▁एंट	-10124
▁गान	-10125
▁दाब	-10126
▁रोल	-10127
ोलनों	-10128
▁कचरा	-10129
▁जुटा	-10130
▁देवे	-10131
▁बैठी	-10132
▁सुने	-10133
▁सूअर	-10134
▁चांदी	-10135
▁पुण्य	-10136
▁रखेगा	-10137
▁आयोजना	-10138
▁डिजीटल	-10139
▁प्रकरण	-10140
▁मानसून	-10141
▁रियायत	-10142
▁अदालतों	-10143
▁प्रायद्वीप	-10144
ाका	-10145
ूरा	-10146
चरित	-10147
▁चूह	-10148
▁मद्	-10149
▁हीन	-10150
▁चढ़ा	-10151
▁बीबी	-10152
▁सम्य	-10153
ग्राही	-10154
▁ज्यों	-10155
▁पहुंची	-10156
▁नानालाल	-10157
▁परवर्ती	-10158
▁साप्ताह	-10159
▁उम्मीदवार	-10160
▁प्रस्तावना	-10161
▁न्यायाधिकरण	-10162
▁मांसपेशियों	-10163
ैनी	-10164
▁अघ	-10165
▁पाचन	-10166
▁यानि	-10167
▁उपद्र	-10168
▁घंटों	-10169
▁रियाय	-10170
प्रणाली	-10171
▁अमृतसर	-10172
▁क्रेता	-10173
▁नरसिंह	-10174
▁युसुफ़	-10175
▁प्रशस्त	-10176
▁उद्यमिता	-10177
▁कार्यभार	-10178
▁जवाबदेही	-10179
▁कार्यपालक	-10180
▁कॉन्फ़िगर	-10181
▁क्रियाशील	-10182
▁विधिमान्य	-10183
▁क्रियान्वित	-10184
ie	-10185
▁गुज	-10186
▁एड्स	-10187
▁कैसी	-10188
▁चलाई	-10189
▁मतों	-10190
▁आबद्ध	-10191
▁ढूंढ़	-10192
▁शिथिल	-10193
▁श्लोक	-10194
▁उत्तरः	-10195
▁कृतज्ञ	-10196
▁चाहिएं	-10197
▁डेल्टा	-10198
▁पिताजी	-10199
▁मांगों	-10200
▁रायपुर	-10201
▁रिफाइन	-10202
▁वामपंथी	-10203
▁प्रयोगों	-10204
तृ	-10205
यता	-10206
▁कद	-10207
▁चह	-10208
▁झर	-10209
▁बोन	-10210
ग्राम	-10211
र्जित	-10212
ांत्र	-10213
▁आईपी	-10214
▁छिड़	-10215
▁अतिशय	-10216
▁एकरूप	-10217
▁कच्चा	-10218
▁तुच्छ	-10219
▁प्रवी	-10220
▁बीजों	-10221
▁मांगी	-10222
▁लॉगिन	-10223
▁तोड़ने	-10224
▁नमूनों	-10225
▁प्रलेख	-10226
▁वृत्ता	-10227
▁फ़ाइलों	-10228
▁प्रस्थान	-10229
▁हस्ताक्ष	-10230
pp	-10231
ुज	-10232
▁भट	-10233
एससी	-10234
ारित	-10235
्याव	-10236
▁हकी	-10237
आधारी	-10238
▁उड़ा	-10239
▁चौथी	-10240
▁विवा	-10241
▁शोधन	-10242
▁सादा	-10243
▁अमिता	-10244
▁निर्म	-10245
▁पिछला	-10246
▁स्थाप	-10247
▁कुटुंब	-10248
▁तात्या	-10249
▁भवभूति	-10250
▁वाहनों	-10251
▁संकेतक	-10252
▁समझाने	-10253
▁सिद्धि	-10254
▁प्राणिक	-10255
▁बहिष्कार	-10256
▁संप्रतीक	-10257
▁साप्ताहिक	-10258
▁दीर्घकालीन	-10259
▁मान्यताप्राप्त	-10260
रन	-10261
जाल	-10262
ुमा	-10263
▁पिन	-10264
▁बूझ	-10265
▁भरण	-10266
▁ईश्व	-10267
▁कंधे	-10268
▁सैयद	-10269
पीसीएल	-10270
रीक्षा	-10271
▁कर्मों	-10272
▁झारखंड	-10273
▁प्रहार	-10274
▁अंगीकार	-10275
▁कर्त्तव्य	-10276
▁इस्लामवादियों	-10277
ृश	-10278
दित	-10279
षेक	-10280
ूढ़	-10281
ोना	-10282
▁ऐल	-10283
▁सँ	-10284
पुरा	-10285
व्रत	-10286
ार्ध	-10287
▁परख	-10288
▁बाब	-10289
▁हेल	-10290
तमाला	-10291
▁अयोध	-10292
▁अंडों	-10293
▁देसाई	-10294
▁नित्य	-10295
▁प्रभा	-10296
▁मायने	-10297
▁मिलान	-10298
▁कुर्सी	-10299
▁पुनर्ज	-10300
▁यदुनाथ	-10301
▁बेहतरीन	-10302
▁मैदानों	-10303
▁यूनिकोड	-10304
▁विवेकानंद	-10305
▁प्रतिस्थापन	-10306
▁इलेक्ट्रॉनिक्स	-10307
फेस	-10308
०में	-10309
▁कलम	-10310
▁दाद	-10311
▁हेर	-10312
▁आर्ट	-10313
▁ब्रॉ	-10314
▁मल्ल	-10315
▁शिवा	-10316
▁सिया	-10317
▁गोदाम	-10318
▁भवनों	-10319
▁विहार	-10320
▁वेंकट	-10321
▁करेंगी	-10322
▁मौलाना	-10323
▁क्रूरता	-10324
▁प्रभारी	-10325
▁फिनलैंड	-10326
▁विशेषतः	-10327
▁कर्मियों	-10328
▁रामकृष्ण	-10329
▁अधिवक्ताओं	-10330
▁कॉर्पोरेशन	-10331
पै	-10332
भाज	-10333
गुना	-10334
ोपाय	-10335
▁उलट	-10336
▁काठ	-10337
▁कुश	-10338
▁डेय	-10339
▁राग	-10340
▁हमल	-10341
्रेसी	-10342
▁कॉफी	-10343
▁फोरम	-10344
▁लगीं	-10345
▁मैक्स	-10346
▁सचेतन	-10347
▁स्थगन	-10348
▁परिवर्	-10349
▁फैलाने	-10350
▁उच्चारण	-10351
▁सन्दर्भ	-10352
▁शिकायतें	-10353
▁प्रयोगशालाओं	-10354
▁रौ	-10355
▁अचल	-10356
▁कले	-10357
▁चाप	-10358
▁चिं	-10359
▁टॉम	-10360
▁सैर	-10361
▁हृद	-10362
▁कैदी	-10363
▁पर्ण	-10364
▁पहना	-10365
▁पाकर	-10366
▁लगाव	-10367
▁सीबी	-10368
ज्ञानी	-10369
▁नाराज	-10370
▁सौंपे	-10371
▁विरोधा	-10372
▁सॉफ़्ट	-10373
▁आक्रामक	-10374
▁कारखाने	-10375
▁प्रतिद्व	-10376
RL	-10377
av	-10378
ttp	-10379
▁CO	-10380
▁EE	-10381
▁वफ	-10382
▁धाग	-10383
▁लेब	-10384
दान्त	-10385
▁गुहा	-10386
▁घुड़	-10387
▁पडता	-10388
▁षड्य	-10389
▁कालीन	-10390
▁भोपाल	-10391
▁मोक्ष	-10392
▁अनुशास	-10393
▁आरोग्य	-10394
▁सातवीं	-10395
▁अमेरिकन	-10396
▁अयोध्या	-10397
▁अवहेलना	-10398
▁पीठासीन	-10399
▁सर्वत्र	-10400
▁पर्वतमाला	-10401
▁पारम्परिक	-10402
ind	-10403
असल	-10404
यास	-10405
आरआई	-10406
▁चाइ	-10407
▁चैक	-10408
▁धरा	-10409
▁बकर	-10410
भावित	-10411
रियों	-10412
▁उपजा	-10413
▁पौंड	-10414
▁रखनी	-10415
▁आभासी	-10416
▁डेयरी	-10417
▁निजाम	-10418
▁मुंशी	-10419
▁लसीका	-10420
▁वार्म	-10421
▁समाधि	-10422
▁आयातित	-10423
▁डिवाइस	-10424
▁पुरातन	-10425
▁रिश्तों	-10426
▁इलैक्ट्र	-10427
▁बैंककारी	-10428
▁खाद्यान्न	-10429
▁विश्वसनीयता	-10430
are	-10431
ंबा	-10432
गिर	-10433
लिन	-10434
वहन	-10435
संग	-10436
▁ww	-10437
▁मुय	-10438
तावास	-10439
साध्य	-10440
▁अनुष	-10441
▁केशव	-10442
▁झुंड	-10443
▁नीला	-10444
▁बापू	-10445
▁रिहा	-10446
धिकारी	-10447
▁दुष्ट	-10448
▁माउंट	-10449
▁मिलें	-10450
▁क्षैतिज	-10451
▁मछलियों	-10452
▁व्यंग्य	-10453
▁अभिकर्ता	-10454
▁शिष्टमंडल	-10455
▁हस्तशिल्प	-10456
सस	-10457
ोपै	-10458
ष्ठी	-10459
ादान	-10460
िज्म	-10461
▁कुद	-10462
▁गला	-10463
▁मिठ	-10464
▁हसन	-10465
▁अधिश	-10466
▁अनिल	-10467
▁कपिल	-10468
▁काशी	-10469
▁छुपा	-10470
▁तारे	-10471
▁नक़ल	-10472
▁बचना	-10473
▁भरती	-10474
▁मच्छ	-10475
▁समतल	-10476
ष्ट्री	-10477
स्वरुप	-10478
▁एकांत	-10479
▁बाधित	-10480
▁बोलना	-10481
▁मेहरा	-10482
▁निकलती	-10483
▁पच्चीस	-10484
▁मन्त्र	-10485
▁सीमांत	-10486
▁राममोहन	-10487
▁संप्रेषण	-10488
▁सक्रियता	-10489
▁द्विआधारी	-10490
ँव	-10491
धना	-10492
समी	-10493
▁औस	-10494
र्डर	-10495
▁डैक	-10496
▁पोट	-10497
▁रिच	-10498
शासित	-10499
▁तिरू	-10500
▁सवार	-10501
▁साहू	-10502
▁सूरत	-10503
▁विफलः	-10504
▁मेघालय	-10505
▁औपनिवेश	-10506
▁कार्रवा	-10507
▁फेफड़ों	-10508
▁रेखांकित	-10509
▁प्रौद्योगिकीय	-10510
२०	-10511
art	-10512
▁st	-10513
एसएस	-10514
▁मैक	-10515
▁राश	-10516
देश्य	-10517
र्मित	-10518
▁अग्न	-10519
▁गाइड	-10520
▁टाइम	-10521
▁माडल	-10522
▁सेतु	-10523
▁जेम्स	-10524
▁मार्ट	-10525
▁कुत्ते	-10526
▁जाएँगे	-10527
▁टुकड़ा	-10528
▁रिश्ते	-10529
▁लड़कों	-10530
▁संकलित	-10531
▁चंद्रमा	-10532
▁अनौपचारिक	-10533
▁कम्पनियों	-10534
▁प्रवृत्तियों	-10535
यम	-10536
ादि	-10537
▁फि	-10538
बानी	-10539
राइड	-10540
ृष्ट	-10541
▁सहस	-10542
▁सोप	-10543
▁कृमि	-10544
▁जोकि	-10545
▁फायद	-10546
▁रचित	-10547
▁गुच्छ	-10548
▁दरअसल	-10549
▁विलेख	-10550
▁निकलते	-10551
▁लेनदेन	-10552
▁अनुपूरक	-10553
▁औषधियों	-10554
▁क्रीड़ा	-10555
▁पीडब्लू	-10556
▁शुद्धता	-10557
▁सांसारिक	-10558
▁प्रक्रियाएं	-10559
▁साम्प्रदायिक	-10560
▁St	-10561
▁ऋष	-10562
▁मथ	-10563
खोरी	-10564
▁पाश	-10565
▁फकी	-10566
▁एओआर	-10567
▁कपूर	-10568
▁पुरः	-10569
▁शाला	-10570
▁घनत्व	-10571
▁तलाशी	-10572
▁बेजबर	-10573
▁वार्ड	-10574
▁अखंडता	-10575
▁अदायगी	-10576
▁भाषणों	-10577
▁जबरदस्त	-10578
▁यूनिटों	-10579
▁संस्कृतियों	-10580
सऋ	-10581
फिक	-10582
लता	-10583
द्वि	-10584
्रमी	-10585
▁एसी	-10586
▁कैश	-10587
▁भाल	-10588
कर्षण	-10589
गुप्त	-10590
र्तित	-10591
▁कतार	-10592
▁चुनी	-10593
▁पढ़े	-10594
▁मद्य	-10595
▁लौटे	-10596
▁देखती	-10597
▁मेहता	-10598
▁अद्वैत	-10599
▁परोक्ष	-10600
▁बर्ताव	-10601
▁मधुमक्	-10602
▁पोतन्ना	-10603
▁प्राप्य	-10604
▁बेलारूस	-10605
▁महादेवी	-10606
▁मार्केट	-10607
▁ऑपरेटिंग	-10608
▁मातृभूमि	-10609
▁अभिप्राप्त	-10610
▁उपयोगकर्ताओं	-10611
िओ	-10612
▁as	-10613
▁नट	-10614
▁नीर	-10615
▁फें	-10616
▁यंग	-10617
▁लिट	-10618
▁होश	-10619
ास्थि	-10620
▁अभूत	-10621
▁रोमन	-10622
जीरिया	-10623
▁ज्वार	-10624
▁त्रास	-10625
▁पाउंड	-10626
▁बताये	-10627
▁भित्त	-10628
▁भेजना	-10629
▁चिल्ला	-10630
▁जटिलता	-10631
▁पत्तों	-10632
▁बढ़ोतरी	-10633
▁वार्षिकी	-10634
▁सर्वांगी	-10635
▁फ्रांसीसी	-10636
▁विद्यालयों	-10637
ib	-10638
चय	-10639
दो	-10640
फॉ	-10641
ोपर	-10642
विंग	-10643
▁सूच	-10644
▁गिरी	-10645
▁जीते	-10646
▁फुफ्	-10647
▁संयम	-10648
क्षत्र	-10649
ान्वित	-10650
▁उदारी	-10651
▁द्रीय	-10652
▁अशुद्ध	-10653
▁गुंजाइ	-10654
▁नागपुर	-10655
▁बराबरी	-10656
▁साइकिल	-10657
▁अध्यापन	-10658
▁पत्रकार	-10659
▁महत्वाक	-10660
▁तर्कसंगत	-10661
▁प्रतिषेध	-10662
▁प्रांतीय	-10663
▁पत्रकारिता	-10664
▁लोकप्रियता	-10665
▁यूनिवर्सिटी	-10666
ak	-10667
िआ	-10668
उंड	-10669
कथा	-10670
बुक	-10671
ब्ज	-10672
▁उच	-10673
पुरम	-10674
ब्बी	-10675
▁आइट	-10676
▁डील	-10677
▁बुझ	-10678
▁बें	-10679
▁रोह	-10680
▁खेला	-10681
▁टेलि	-10682
▁टैंक	-10683
▁माइन	-10684
▁लापर	-10685
वृद्धि	-10686
▁अपडेट	-10687
▁आसमान	-10688
▁उपवास	-10689
▁चैत्य	-10690
▁पूछने	-10691
▁सिडबी	-10692
▁समझाया	-10693
▁सीमाएं	-10694
▁स्कूली	-10695
▁निपटारा	-10696
▁हाइड्रो	-10697
▁अत्याधिक	-10698
▁परित्याग	-10699
▁वार्मिंग	-10700
▁स्वराज्य	-10701
▁त्यागपत्र	-10702
कोण	-10703
गेट	-10704
िकट	-10705
▁इर	-10706
▁धंध	-10707
▁बढे	-10708
▁बरस	-10709
▁बुन	-10710
▁अमूल	-10711
▁कार्	-10712
▁गायक	-10713
▁अवलंब	-10714
▁कैमरा	-10715
▁तेज़ी	-10716
▁नलिका	-10717
▁साहिब	-10718
▁अर्थों	-10719
▁रखेंगे	-10720
▁प्रोसेस	-10721
▁परम्परागत	-10722
ah	-10723
टोम	-10724
शरण	-10725
हनी	-10726
▁छी	-10727
कृमि	-10728
गणित	-10729
ट्टे	-10730
लाइट	-10731
ावरी	-10732
ोबेल	-10733
▁www	-10734
▁घने	-10735
▁तान	-10736
▁पंक	-10737
▁मुज	-10738
▁लटक	-10739
▁कब्र	-10740
▁वफाद	-10741
▁गिरवी	-10742
▁चढ़ाव	-10743
▁बर्मा	-10744
▁शंकरा	-10745
▁नियामक	-10746
▁ब्यौरे	-10747
▁विवेचन	-10748
▁कार्टून	-10749
▁भिन्नता	-10750
▁शॉर्टकट	-10751
▁जनसाधारण	-10752
▁सुसज्जित	-10753
▁सुस्पष्ट	-10754
▁अतिरिक़्त	-10755
▁स्वतन्त्रता	-10756
ड्स	-10757
बैक	-10758
सिड	-10759
▁se	-10760
ाधीश	-10761
▁खेद	-10762
▁पिघ	-10763
ेशिया	-10764
ायुक्त	-10765
▁ट्रीय	-10766
▁पट्टा	-10767
▁वेल्स	-10768
ान्तरित	-10769
ास्फीति	-10770
▁उन्मुख	-10771
▁नेटवर्	-10772
▁रिसर्च	-10773
शास्त्री	-10774
▁चलचित्र	-10775
▁दोस्तों	-10776
▁निवृत्त	-10777
▁विभागीय	-10778
▁सूचनाएं	-10779
▁उर्वरकों	-10780
ae	-10781
षऋ	-10782
ंती	-10783
आया	-10784
ions	-10785
ानंद	-10786
▁फिट	-10787
▁फुल	-10788
ार्जन	-10789
▁PROD	-10790
▁कुंज	-10791
▁खंडन	-10792
▁निपु	-10793
▁पीना	-10794
संबंधी	-10795
▁आवधिक	-10796
▁उठाये	-10797
▁कमाने	-10798
▁जानें	-10799
▁डिम्ब	-10800
▁दूंगा	-10801
▁निचली	-10802
▁बचाया	-10803
▁समयाव	-10804
▁सुव्य	-10805
▁समामेल	-10806
▁पवित्रता	-10807
▁रियासतों	-10808
▁सम्पादित	-10809
▁प्रतिबन्ध	-10810
▁्	-10811
जिक	-10812
्ती	-10813
▁ठा	-10814
नीचर	-10815
भाष्	-10816
स्की	-10817
▁ऋणी	-10818
▁काँ	-10819
▁जनस	-10820
▁पंज	-10821
▁हता	-10822
नुसार	-10823
ाहारी	-10824
▁घुमा	-10825
▁मुड़	-10826
▁सींग	-10827
ान्तरण	-10828
▁अड्डा	-10829
▁दूषित	-10830
▁पत्रक	-10831
▁अनेकों	-10832
▁उपस्कर	-10833
▁अस्पृश्य	-10834
▁विनिर्दि	-10835
▁प्रत्यक्षतः	-10836
▁कार्यक्षेत्र	-10837
थिक	-10838
मुक	-10839
▁ईंट	-10840
▁कमरा	-10841
▁बराम	-10842
▁चौड़ा	-10843
▁तकलीफ	-10844
▁बदलता	-10845
▁संभोग	-10846
▁ज़रुरत	-10847
▁सारवान	-10848
▁कमिश्नर	-10849
▁निधियां	-10850
▁विवाहों	-10851
▁समावेदन	-10852
▁कोल्हटकर	-10853
▁स्वेच्छा	-10854
▁नर्मदाशंकर	-10855
▁प्रतिबिंबित	-10856
चाल	-10857
▁उक	-10858
ण्डी	-10859
न्थि	-10860
शेखर	-10861
▁मोक	-10862
▁मोम	-10863
▁सता	-10864
पमेंट	-10865
▁आरेख	-10866
▁छपाई	-10867
▁जनमत	-10868
▁बांट	-10869
▁मास्	-10870
▁सतीश	-10871
▁सिक्ख	-10872
▁अदृश्य	-10873
▁दिलाया	-10874
▁फ़ारसी	-10875
▁सामरिक	-10876
▁संभाव्य	-10877
▁असमर्थता	-10878
▁समानांतर	-10879
▁राजेन्द्र	-10880
▁क्षतिग्रस्त	-10881
ानक	-10882
नायक	-10883
बड़ी	-10884
▁अणु	-10885
▁आलम	-10886
▁जोग	-10887
▁जोश	-10888
▁दाग	-10889
▁मकर	-10890
▁युव	-10891
▁हान	-10892
तानों	-10893
दाश्त	-10894
न्तुक	-10895
ृद्धि	-10896
▁ढूँढ	-10897
▁पिंज	-10898
▁भड़क	-10899
▁साधक	-10900
ांक्षी	-10901
▁जमीनी	-10902
▁जवाहर	-10903
▁टैक्स	-10904
▁रस्सी	-10905
▁लिखकर	-10906
▁सपनों	-10907
▁सुगंध	-10908
▁स्टोर	-10909
▁करवाना	-10910
▁ड्यूटी	-10911
▁रिएक्टर	-10912
▁तत्त्वों	-10913
▁परिचर्चा	-10914
▁अनुपस्थित	-10915
▁औपनिवेशिक	-10916
▁पाठ्यक्रमों	-10917
झी	-10918
ज्य	-10919
याब	-10920
ूमत	-10921
▁de	-10922
▁ऊन	-10923
▁चढ	-10924
ेश्व	-10925
्विक	-10926
ंत्रण	-10927
गाड़ी	-10928
ारोपण	-10929
▁कड़ा	-10930
▁टोकन	-10931
▁तंतु	-10932
▁तम्ब	-10933
▁त्या	-10934
▁पिंड	-10935
▁मर्म	-10936
▁मीना	-10937
▁वीणा	-10938
▁सीआर	-10939
तत्त्व	-10940
▁पढ़ते	-10941
▁मनोहर	-10942
▁महोदय	-10943
▁वेदना	-10944
▁अंधेरे	-10945
▁एकाधिक	-10946
▁निर्मल	-10947
▁सन्देश	-10948
▁आवेदनों	-10949
▁चिड़िया	-10950
▁मुकदमों	-10951
▁सुझावों	-10952
▁अविश्वास	-10953
▁कहानियाँ	-10954
▁समारोहों	-10955
ect	-10956
टलर	-10957
ोडे	-10958
ावान	-10959
▁आलू	-10960
▁पदा	-10961
▁मेट	-10962
▁सरी	-10963
पत्ति	-10964
▁औरंग	-10965
▁जस्ट	-10966
▁द्रो	-10967
▁मुल्	-10968
▁वहॉँ	-10969
▁साधु	-10970
▁आवंटन	-10971
▁गिरने	-10972
▁गुलाब	-10973
▁विखंड	-10974
▁अनुभवी	-10975
▁उदारता	-10976
▁कठोरता	-10977
▁पर्यवे	-10978
▁यन्त्र	-10979
▁गुंजाइश	-10980
▁प्रवृति	-10981
▁वैवाहिक	-10982
▁समयावधि	-10983
▁स्थानाप	-10984
▁अनुज्ञेय	-10985
▁नियमावली	-10986
▁प्रोफ़ाइल	-10987
▁सॉफ़्टवेयर	-10988
▁हिन्दुस्तानी	-10989
त्रय	-10990
▁फाल	-10991
▁लवण	-10992
ज्ञों	-10993
▁कचरे	-10994
▁संकर	-10995
दर्शित	-10996
▁कोर्स	-10997
▁संकोच	-10998
▁संकुचन	-10999
▁अवरुद्ध	-11000
▁संभालने	-11001
▁समतुल्य	-11002
▁अधिनियमन	-11003
▁कांग्रेसी	-11004
▁सर्वांगीण	-11005
▁मंत्रिपरिषद	-11006
ess	-11007
ुली	-11008
▁आड	-11009
▁एट	-11010
कर्स	-11011
वेली	-11012
स्टन	-11013
▁and	-11014
▁जेब	-11015
▁बास	-11016
▁शैव	-11017
ेलनों	-11018
ोक्ति	-11019
▁उठती	-11020
▁चतुर	-11021
▁दैवी	-11022
▁महाभ	-11023
▁लाकर	-11024
▁कच्ची	-11025
▁जड़ें	-11026
▁जिहाद	-11027
▁पड़ना	-11028
▁राजने	-11029
▁वायरस	-11030
▁विलास	-11031
▁सवारी	-11032
क्षाधीन	-11033
▁दरवाजा	-11034
▁फिल्टर	-11035
▁अन्यत्र	-11036
▁कीटनाशक	-11037
▁पुराणों	-11038
▁उद्घोषणा	-11039
▁परमेश्वर	-11040
▁रूपान्तर	-11041
▁व्यवहार्य	-11042
▁विद्यासागर	-11043
▁मुद्रास्फीति	-11044
ुं	-11045
▁जस	-11046
▁बँ	-11047
▁शन	-11048
एमएस	-11049
कांड	-11050
ाहार	-11051
ॉर्क	-11052
▁ऑयल	-11053
▁थलग	-11054
▁बसा	-11055
ग्रंथ	-11056
वास्त	-11057
स्कों	-11058
▁गुरब	-11059
▁महिल	-11060
▁संजय	-11061
स्ट्री	-11062
▁कीड़े	-11063
▁श्रवण	-11064
▁अप्रति	-11065
▁कपड़ों	-11066
▁शत्रुओं	-11067
▁शिष्यों	-11068
▁संरक्षा	-11069
▁आधारशिला	-11070
▁यूरोपियन	-11071
▁प्रयत्नों	-11072
▁संयंत्रों	-11073
▁संपरिवर्तन	-11074
▁राष्ट्रमंडल	-11075
▁अभियांत्रिकी	-11076
mp	-11077
ोले	-11078
▁gu	-11079
ंकृत	-11080
द्दा	-11081
हानि	-11082
▁नज़	-11083
▁पिच	-11084
▁रोप	-11085
▁हेड	-11086
खियों	-11087
न्दरी	-11088
▁आर्क	-11089
▁एसिड	-11090
▁जमाव	-11091
▁प्ला	-11092
▁राजग	-11093
▁लेखे	-11094
▁वारा	-11095
िक्षित	-11096
▁चलेगा	-11097
▁तैनात	-11098
▁पाषाण	-11099
▁वैधता	-11100
▁नदियां	-11101
▁महत्तर	-11102
▁दर्शाते	-11103
▁प्रथाओं	-11104
▁रोज़गार	-11105
▁विमानों	-11106
▁कुंजीपटल	-11107
▁घटनाक्रम	-11108
▁षड्यंत्र	-11109
▁सम्बंधित	-11110
▁वार्तालाप	-11111
आप	-11112
दरी	-11113
▁AT	-11114
▁ee	-11115
▁गे	-11116
▁तस	-11117
▁भाप	-11118
वलोकन	-11119
स्टेट	-11120
ोरियम	-11121
▁औसतन	-11122
▁चेतन	-11123
▁परिम	-11124
▁रमेश	-11125
▁लाते	-11126
▁लोकल	-11127
ास्त्र	-11128
▁कुछेक	-11129
▁क्षीण	-11130
▁न्यूज	-11131
▁वक़्त	-11132
▁हरिजन	-11133
▁निबन्ध	-11134
▁अनुकूलन	-11135
▁दूतावास	-11136
▁उदाहरणों	-11137
▁द्वितीयक	-11138
▁विषयवस्तु	-11139
our	-11140
गति	-11141
टेन	-11142
▁vii	-11143
▁सान	-11144
▁आईएफ	-11145
▁उठते	-11146
▁ज्ये	-11147
▁तालि	-11148
▁दलित	-11149
▁पावन	-11150
▁बाइट	-11151
▁युगल	-11152
▁वाकई	-11153
▁वृहत	-11154
▁होली	-11155
▁गोल्ड	-11156
▁चौहान	-11157
▁दोहरी	-11158
▁नोटों	-11159
▁परिणत	-11160
▁स्वात	-11161
▁आकृष्ट	-11162
▁चार्टर	-11163
▁दिखाते	-11164
▁पड़ताल	-11165
▁परिवाद	-11166
▁अविभक्त	-11167
▁वांछनीय	-11168
▁आंदोलनों	-11169
▁अभूतपूर्व	-11170
▁उत्तराखंड	-11171
▁पार्टियों	-11172
▁विवेकाधिकार	-11173
ञ्	-11174
खले	-11175
▁hO	-11176
जवान	-11177
र्शी	-11178
▁जेन	-11179
▁झाँ	-11180
▁लती	-11181
▁हँस	-11182
▁हटकर	-11183
▁बनावट	-11184
▁बागान	-11185
▁मौसमी	-11186
▁संघों	-11187
▁स्वंय	-11188
▁अमिताभ	-11189
▁फ्रेंच	-11190
▁राजकोष	-11191
▁श्रृंग	-11192
▁समावेशन	-11193
▁सर्वोपरि	-11194
▁सामान्यत	-11195
▁कार्यनीति	-11196
▁चुनौतियां	-11197
▁सिद्धान्तों	-11198
ंन	-11199
्ध	-11200
▁ं	-11201
oun	-11202
▁झं	-11203
▁फं	-11204
▁फट	-11205
NAME	-11206
कर्ण	-11207
क्षे	-11208
त्सा	-11209
श्री	-11210
▁आति	-11211
▁कप्	-11212
▁जोन	-11213
▁दुब	-11214
▁शिम	-11215
त्तों	-11216
याधीश	-11217
▁घोड़	-11218
▁डेमो	-11219
▁थोडा	-11220
▁धमनी	-11221
▁परिभ	-11222
▁पारी	-11223
▁फ़्र	-11224
▁मजाक	-11225
▁साँस	-11226
िस्तान	-11227
▁ट्रेन	-11228
▁बहाना	-11229
क्रिप्ट	-11230
▁कदाचार	-11231
▁दांतों	-11232
▁क्लाइंट	-11233
▁परीक्षक	-11234
▁उदासीनता	-11235
▁गोपनीयता	-11236
▁परामर्शी	-11237
▁हड्डियों	-11238
▁अध्यापकों	-11239
▁अस्पतालों	-11240
▁सम्मेलनों	-11241
▁पाकिस्तानी	-11242
हू	-11243
नेल	-11244
नेश	-11245
लाश	-11246
ावे	-11247
▁शू	-11248
दिरा	-11249
फ़ोन	-11250
यनों	-11251
ाप्र	-11252
▁क्य	-11253
▁पिप	-11254
▁पैग	-11255
▁बिक	-11256
▁राख	-11257
खास्त	-11258
▁कान्	-11259
▁लाला	-11260
चिकित्	-11261
▁गिर्द	-11262
▁मक्खी	-11263
▁सर्वस	-11264
विधानिक	-11265
▁अमूर्त	-11266
▁वर्जित	-11267
▁स्त्रियां	-11268
▁कार्यनीतिक	-11269
▁दुर्भाग्यवश	-11270
ant	-11271
ल्म	-11272
▁थक	-11273
लेखा	-11274
श्मी	-11275
ास्व	-11276
▁कुट	-11277
▁चाव	-11278
▁जोध	-11279
▁ढोल	-11280
▁बैच	-11281
ोपड़ी	-11282
▁कणों	-11283
▁जरुर	-11284
▁बेगम	-11285
▁उल्टी	-11286
▁टिड्ड	-11287
▁योंकि	-11288
▁रुपया	-11289
▁वारिस	-11290
▁शुभार	-11291
▁कार्यो	-11292
▁निकटतम	-11293
▁ब्यौरा	-11294
▁मेजबान	-11295
▁संबधित	-11296
▁इंग्लिश	-11297
▁मर्यादा	-11298
▁पदोन्नति	-11299
▁बल्लेबाजी	-11300
शै	-11301
her	-11302
गान	-11303
ोमा	-11304
ाकार	-11305
▁डाँ	-11306
▁सडक	-11307
िक्षा	-11308
▁अराज	-11309
▁पूंछ	-11310
▁मेरु	-11311
▁ऊष्मा	-11312
▁ग्रेट	-11313
▁धक्का	-11314
▁नायडू	-11315
▁सस्ता	-11316
▁अन्तरा	-11317
▁आरोपित	-11318
▁चतुर्थ	-11319
▁जानकार	-11320
▁तिब्बत	-11321
▁लोकहित	-11322
▁स्वीडन	-11323
▁हुकूमत	-11324
▁फर्नीचर	-11325
▁सेंट्रल	-11326
▁उपेक्षित	-11327
ैंप	-11328
▁कण्	-11329
▁हेन	-11330
धारणा	-11331
▁एसटी	-11332
▁घबरा	-11333
▁चमकी	-11334
▁लड़क	-11335
▁लड़ा	-11336
यात्रा	-11337
▁आपूर्	-11338
▁कायदा	-11339
▁पैकेट	-11340
▁फसलें	-11341
▁साँचा	-11342
क्षोपाय	-11343
त्साहित	-11344
स्थापना	-11345
▁इजराइल	-11346
▁कमियों	-11347
▁जुड़ने	-11348
▁दिखाएं	-11349
▁राशियों	-11350
▁वॉल्यूम	-11351
▁कार्यकार	-11352
▁कांफ्रेंस	-11353
▁नाइट्रोजन	-11354
▁पूर्वाग्रह	-11355
▁प्रतिपादित	-11356
▁पुनर्निर्माण	-11357
ँघ	-11358
िं	-11359
ऊंगा	-11360
▁अंस	-11361
▁निज	-11362
▁हिज	-11363
पुत्र	-11364
िपत्य	-11365
▁नर्इ	-11366
▁मरीज	-11367
▁लगना	-11368
▁विरल	-11369
प्रभाव	-11370
▁बनेगा	-11371
▁भगवती	-11372
▁यौगिक	-11373
ापूर्वक	-11374
▁अंधकार	-11375
▁अधिप्र	-11376
▁अभिभाव	-11377
▁उदात्त	-11378
▁छानबीन	-11379
▁दीक्षा	-11380
▁निभाने	-11381
▁नर्सिंग	-11382
▁महासचिव	-11383
▁अस्वीकृत	-11384
▁इंडोनेशिया	-11385
▁प्रजातियां	-11386
▁प्रमाणीकरण	-11387
▁शंकराचार्य	-11388
्तर	-11389
नामी	-11390
प्रे	-11391
वाहक	-11392
▁असम्	-11393
▁काया	-11394
▁क्ले	-11395
▁चोटी	-11396
▁जुडे	-11397
▁बदली	-11398
▁बाएं	-11399
▁मुहर	-11400
▁घोड़ा	-11401
▁चौड़ी	-11402
▁दर्पण	-11403
▁बॉम्बे	-11404
▁सिखाया	-11405
▁भंडारित	-11406
▁करनेवाला	-11407
▁क्रोमियम	-11408
▁प्रत्यर्थियों	-11409
ST	-11410
इज	-11411
रणा	-11412
सोस	-11413
ोचन	-11414
▁घि	-11415
ोज्य	-11416
▁कें	-11417
▁जलीय	-11418
▁भरना	-11419
▁म्या	-11420
▁संगो	-11421
▁सूखी	-11422
▁औरतों	-11423
▁चुम्ब	-11424
▁दुसरे	-11425
▁नोबेल	-11426
▁पकड़ा	-11427
▁ब्लैक	-11428
▁मंचों	-11429
▁कप्तान	-11430
▁खर्चों	-11431
▁दुश्मन	-11432
▁परिसंघ	-11433
▁बनवाया	-11434
▁अध्यधीन	-11435
▁आरम्भिक	-11436
▁करोड़ों	-11437
▁टुकड़ों	-11438
▁नक्षत्र	-11439
▁निलंबित	-11440
▁अभिलाभों	-11441
▁नागालैंड	-11442
▁ब्रह्मांड	-11443
▁प्रतिक्रियाओं	-11444
ud	-11445
लर	-11446
तिर	-11447
जारी	-11448
डीपी	-11449
पाही	-11450
▁ओड़	-11451
▁दीख	-11452
▁नवल	-11453
▁नस्	-11454
▁महम	-11455
▁सजग	-11456
कार्ड	-11457
संहार	-11458
ारिटी	-11459
▁इर्द	-11460
▁काबू	-11461
▁गांठ	-11462
▁जूते	-11463
▁मकसद	-11464
▁मोचन	-11465
▁सल्ल	-11466
▁हथकर	-11467
न्त्री	-11468
▁अपरिव	-11469
▁उभरते	-11470
▁गुवाह	-11471
▁दुहरा	-11472
▁निकली	-11473
▁बताती	-11474
▁रूढ़ि	-11475
▁हज़ार	-11476
▁कामगार	-11477
▁घुटनों	-11478
▁बंगलौर	-11479
▁ब्रांड	-11480
▁सद्भाव	-11481
▁मालिकों	-11482
▁देशभक्ति	-11483
▁निर्धनता	-11484
▁यात्राओं	-11485
▁प्रतिपादन	-11486
▁निष्कर्षों	-11487
हो	-11488
२ख	-11489
ard	-11490
ीयू	-11491
्टू	-11492
▁धा	-11493
▁मय	-11494
गण्य	-11495
घाती	-11496
माता	-11497
मिति	-11498
▁org	-11499
▁डाई	-11500
▁राध	-11501
कीकरण	-11502
गृहीत	-11503
र्करा	-11504
▁अकसर	-11505
▁आवेग	-11506
▁रीढ़	-11507
▁घटाने	-11508
▁जाग्र	-11509
▁वरदान	-11510
▁करूँगा	-11511
▁कृषकों	-11512
▁निवारक	-11513
▁बैठकें	-11514
▁समामेलन	-11515
▁पड़ोसियों	-11516
▁परिलक्षित	-11517
▁प्रतिबिंब	-11518
▁शेयरधारकों	-11519
▁वृद्धावस्था	-11520
ep	-11521
णसी	-11522
ाइम	-11523
ापा	-11524
▁मग	-11525
ज़ोर	-11526
▁कंस	-11527
▁कोच	-11528
▁मिर	-11529
▁लॉक	-11530
▁विव	-11531
ियाना	-11532
▁कुला	-11533
▁गुला	-11534
▁जनित	-11535
▁स्वय	-11536
▁अवक्ष	-11537
▁एटीएम	-11538
▁घुटने	-11539
▁दिखाए	-11540
▁भाजपा	-11541
▁रिवाज	-11542
▁कैरियर	-11543
▁नौजवान	-11544
▁स्तम्भ	-11545
▁हरिश्च	-11546
▁दृश्यों	-11547
▁पुरूषों	-11548
▁मौद्रिक	-11549
▁रणनीतिक	-11550
▁राजशाही	-11551
▁वृंदावन	-11552
▁उन्मुक्त	-11553
▁निर्यातक	-11554
▁प्रकोष्ठ	-11555
▁न्यायनिर्	-11556
▁उपलब्धियां	-11557
▁ब्राह्मणों	-11558
इए	-11559
▁अवन	-11560
▁केक	-11561
▁जलन	-11562
▁तड़	-11563
▁मिड	-11564
▁रहो	-11565
▁लिह	-11566
▁आइटम	-11567
▁छन्द	-11568
▁छेड़	-11569
▁फिल्	-11570
▁मनोम	-11571
▁हिरण	-11572
बुद्धि	-11573
▁अंशों	-11574
▁अठारह	-11575
▁आलोचक	-11576
▁खोजें	-11577
▁पेशाब	-11578
डब्ल्यू	-11579
▁असहमति	-11580
▁जहाजों	-11581
▁दूरभाष	-11582
▁प्राक्	-11583
▁रचनाएं	-11584
▁शिवाजी	-11585
▁सिक्के	-11586
▁रिवाजों	-11587
▁विवाहित	-11588
▁संदेशों	-11589
▁अपमानजनक	-11590
▁गतिशीलता	-11591
▁सैद्धांतिक	-11592
झक	-11593
२१	-11594
ide	-11595
ive	-11596
लीस	-11597
ौरन	-11598
▁ko	-11599
efit	-11600
▁कवक	-11601
▁केर	-11602
▁खडे	-11603
▁भूप	-11604
▁मनु	-11605
▁रहस	-11606
▁अकाल	-11607
▁आज्ञ	-11608
▁कमान	-11609
▁ताना	-11610
▁पीला	-11611
▁सोया	-11612
िस्ट्र	-11613
▁अलगाव	-11614
▁कलाओं	-11615
▁गैसों	-11616
▁डायरी	-11617
▁तटस्थ	-11618
▁राजेश	-11619
कर्त्ता	-11620
▁मिटाएँ	-11621
▁सम्यक्	-11622
▁सामग्र	-11623
▁स्थापन	-11624
▁जन्मजात	-11625
▁मार्क्स	-11626
▁वाराणसी	-11627
▁व्यक़्त	-11628
▁स्ट्रीम	-11629
▁बेजबरुवा	-11630
▁परिसंपत्ति	-11631
▁मानवाधिकार	-11632
ंडर	-11633
गना	-11634
जना	-11635
भोग	-11636
र्वे	-11637
▁अजय	-11638
▁कुं	-11639
▁तने	-11640
▁धीर	-11641
▁रूक	-11642
▁अर्ह	-11643
▁गाजा	-11644
▁दोहन	-11645
▁प्या	-11646
▁भीषण	-11647
▁लपेट	-11648
▁विदा	-11649
रेनियम	-11650
ोन्मुख	-11651
▁काबुल	-11652
▁चाहने	-11653
▁जर्नल	-11654
▁परिकल	-11655
▁भावों	-11656
▁वाष्प	-11657
▁ह्रदय	-11658
▁आनुपात	-11659
▁खासतौर	-11660
▁ईश्वरीय	-11661
▁किताबों	-11662
▁पर्वतों	-11663
▁प्रत्ये	-11664
▁वैचारिक	-11665
▁सुल्तान	-11666
▁कॉपीराइट	-11667
▁एक्सप्रेस	-11668
▁परिवीक्षाधीन	-11669
ाख	-11670
तीस	-11671
्रक	-11672
▁मच	-11673
▁हठ	-11674
ंजित	-11675
शियम	-11676
▁ठंड	-11677
आयामी	-11678
▁एनएस	-11679
▁बतला	-11680
▁रिली	-11681
enefit	-11682
ेश्वरी	-11683
▁अपीली	-11684
▁एहसास	-11685
▁कीमती	-11686
▁पराजय	-11687
▁माइनस	-11688
▁सस्ती	-11689
▁असीमित	-11690
▁कांस्ट	-11691
▁गुर्दे	-11692
▁जूनियर	-11693
▁नामकरण	-11694
▁भाषाएँ	-11695
▁भेड़ों	-11696
▁स्टैंड	-11697
▁चार्ल्स	-11698
▁डाटाबेस	-11699
▁मार्जिन	-11700
▁स्ट्रीट	-11701
▁हाथियों	-11702
▁करनेवाली	-11703
▁बस्तियों	-11704
▁शुक्राणु	-11705
▁अंतर्वलित	-11706
▁कठिनाइयां	-11707
▁राष्ट्रवाद	-11708
▁हस्ताक्षरित	-11709
▁देवेन्द्रनाथ	-11710
बरे	-11711
लिफ	-11712
सुर	-11713
िनि	-11714
▁AP	-11715
▁फफ	-11716
iver	-11717
स्तक	-11718
▁छीन	-11719
▁थोप	-11720
▁रिल	-11721
ित्ति	-11722
▁इन्स	-11723
▁उठकर	-11724
▁कांट	-11725
▁घाना	-11726
▁तुलन	-11727
▁बेचा	-11728
▁मैनु	-11729
▁रखाव	-11730
▁उद्दी	-11731
▁पत्ती	-11732
▁शारदा	-11733
▁जोड़ता	-11734
▁पड़ेगी	-11735
▁पन्द्र	-11736
▁मुसीबत	-11737
▁शक़्ति	-11738
▁सिपाही	-11739
▁निकालकर	-11740
▁पहुंचना	-11741
▁मानसिकता	-11742
▁उन्नीसवीं	-11743
..	-11744
aI	-11745
आउट	-11746
रीब	-11747
वुड	-11748
ह्म	-11749
▁जक	-11750
चुअल	-11751
ल्लम	-11752
ांतक	-11753
▁for	-11754
▁मित	-11755
▁मों	-11756
▁रूख	-11757
योजित	-11758
▁आभार	-11759
▁इन्फ	-11760
▁कच्छ	-11761
▁कस्ट	-11762
▁गायन	-11763
▁जूरी	-11764
▁नर्त	-11765
▁यकृत	-11766
▁रोके	-11767
▁सोलह	-11768
▁अड्डे	-11769
▁जिंदा	-11770
▁कहलाती	-11771
▁कीमिया	-11772
▁सुशासन	-11773
▁परिषदों	-11774
▁गुवाहाटी	-11775
▁दूरदर्शन	-11776
▁न्यायसंगत	-11777
▁रूपांतरित	-11778
▁लाइब्रेरी	-11779
▁अधिनिर्णीत	-11780
▁सुप्रसिद्ध	-11781
▁प्रतिभाशाली	-11782
णक	-11783
कटि	-11784
बिन	-11785
▁Al	-11786
▁on	-11787
▁्ट	-11788
डियम	-11789
▁कोऋ	-11790
▁गें	-11791
▁जूझ	-11792
▁नशी	-11793
▁फलन	-11794
्मीकि	-11795
्रामक	-11796
▁अब्ब	-11797
▁आएगी	-11798
▁आवेश	-11799
▁ऑप्ट	-11800
▁जबतक	-11801
▁दीपक	-11802
▁पितृ	-11803
▁बहने	-11804
▁बालू	-11805
▁बुजु	-11806
▁भूरे	-11807
▁लाता	-11808
▁साउथ	-11809
▁दबाने	-11810
▁सुचार	-11811
▁ज्ञानी	-11812
▁विषाणु	-11813
▁सन्देह	-11814
▁अनुषंगी	-11815
▁एकरूपता	-11816
▁पुरोहित	-11817
▁सेनापति	-11818
▁परिचालित	-11819
▁तत्संबंधी	-11820
▁प्रत्याशा	-11821
▁राजकुमारी	-11822
हट	-11823
किसी	-11824
ताना	-11825
▁खोद	-11826
▁गड्	-11827
▁गाल	-11828
▁घुल	-11829
▁पैक	-11830
▁फंच	-11831
▁यहा	-11832
▁राइ	-11833
▁सल्	-11834
ालिया	-11835
िकाएं	-11836
▁आफिस	-11837
▁छिपे	-11838
▁जाली	-11839
▁बाली	-11840
▁भयाव	-11841
▁रोपण	-11842
▁शीतल	-11843
निकेतन	-11844
▁अंकुश	-11845
▁अकेली	-11846
▁आत्मक	-11847
▁उद्भव	-11848
▁कैम्प	-11849
▁मौर्य	-11850
▁रद्दी	-11851
▁लम्बाई	-11852
▁साँचाः	-11853
▁सिक्का	-11854
▁विवरणों	-11855
▁शुरुआती	-11856
▁उत्कीर्ण	-11857
▁निर्देशन	-11858
▁अनुज्ञप्ति	-11859
▁प्रणालियां	-11860
▁कार्यप्रणाली	-11861
▁पारिस्थितिकी	-11862
रथ	-11863
बूत	-11864
ाइज	-11865
▁घी	-11866
▁झी	-11867
▁र्	-11868
▁लव	-11869
करार	-11870
गर्भ	-11871
नाशी	-11872
▁एम्	-11873
▁कतर	-11874
▁घोल	-11875
▁चीफ	-11876
▁जीभ	-11877
▁पूल	-11878
▁बरत	-11879
▁आदिम	-11880
▁आरटी	-11881
▁नकली	-11882
▁बनें	-11883
▁यूएस	-11884
▁चालित	-11885
▁दसवीं	-11886
▁सम्यक	-11887
▁हल्की	-11888
▁गणितीय	-11889
▁बहियों	-11890
चिकित्सा	-11891
▁आदमियों	-11892
▁दीक्षित	-11893
▁मार्गों	-11894
▁अनुष्ठान	-11895
▁उग्रवादी	-11896
▁उदारीकरण	-11897
▁निर्वाचक	-11898
▁बुद्धिमत्ता	-11899
टिन	-11900
▁बङ	-11901
▁वश	-11902
करों	-11903
▁अरा	-11904
▁कुच	-11905
▁कैथ	-11906
▁खडा	-11907
▁घटी	-11908
▁मोज	-11909
▁यूट	-11910
▁रेज	-11911
▁विह	-11912
िवेदी	-11913
▁पोशा	-11914
▁फोकस	-11915
▁राज़	-11916
▁वायर	-11917
▁सूती	-11918
▁आठवीं	-11919
▁जागरण	-11920
▁बरसात	-11921
▁सब्जी	-11922
▁जिज्ञासा	-11923
▁पांडुलिप	-11924
▁प्रदर्शक	-11925
▁रिपब्लिक	-11926
▁विज्ञानी	-11927
▁कार्यकारिणी	-11928
नित	-11929
▁to	-11930
▁ओस	-11931
▁दय	-11932
▁नख	-11933
आईएस	-11934
क्से	-11935
गोचर	-11936
ानेक	-11937
ुकूल	-11938
▁आईए	-11939
▁किफ	-11940
▁कौम	-11941
▁सुष	-11942
पल्ली	-11943
्यांश	-11944
▁उठाई	-11945
▁कोटा	-11946
▁टाउन	-11947
▁द्यो	-11948
▁नकार	-11949
▁मोदी	-11950
▁अनगिन	-11951
▁अपलोड	-11952
▁असहाय	-11953
▁पार्थ	-11954
▁बिलों	-11955
▁ब्रह्	-11956
▁रवैया	-11957
▁विक्ट	-11958
▁विध्व	-11959
▁शुक्ल	-11960
▁संजीव	-11961
▁सावधि	-11962
▁स्कैन	-11963
न्त्रिक	-11964
▁आँकड़ा	-11965
▁आवंटित	-11966
▁देखिये	-11967
▁बनर्जी	-11968
▁संवेदी	-11969
▁पहचानने	-11970
▁वाद्यों	-11971
▁समझौतों	-11972
▁प्रतिस्पर्धी	-11973
AR	-11974
रिफ	-11975
्य्	-11976
▁लख	-11977
चर्य	-11978
योगी	-11979
वेरी	-11980
ैनिक	-11981
▁अरु	-11982
▁पिक	-11983
▁सीप	-11984
र्वाद	-11985
्लैंड	-11986
▁डेढ़	-11987
▁राइट	-11988
▁स्टे	-11989
कात्मक	-11990
▁इस्ती	-11991
▁खरीदी	-11992
▁जोज़े	-11993
▁डालती	-11994
▁पंखों	-11995
▁महमूद	-11996
▁सुनना	-11997
▁अनदेखी	-11998
▁काउंटर	-11999
▁फिलहाल	-12000
▁विधिवत	-12001
▁अवशिष्ट	-12002
▁पहाड़ों	-12003
▁फुफ्फुस	-12004
▁मिलेंगे	-12005
▁वायुयान	-12006
▁राजेंद्र	-12007
▁संश्लेषण	-12008
▁सांविधानिक	-12009
▁शिकायतकर्ता	-12010
ON	-12011
फन	-12012
ies	-12013
नाद	-12014
परि	-12015
माय	-12016
युग	-12017
▁कऋ	-12018
▁व्	-12019
ज्जु	-12020
लेटर	-12021
सेसर	-12022
ावती	-12023
िप्स	-12024
ोस्ट	-12025
▁मेग	-12026
मान्त	-12027
ामंडल	-12028
▁ईर्ष	-12029
▁उभरे	-12030
▁कुचल	-12031
▁घोंस	-12032
▁चुनि	-12033
▁विज़	-12034
प्रकाश	-12035
▁अभिनव	-12036
▁एकाएक	-12037
▁काटना	-12038
▁तुमसे	-12039
▁द्रवि	-12040
▁पढ़कर	-12041
▁पीडित	-12042
▁बिगड़	-12043
प्रतिशत	-12044
▁कीमतें	-12045
▁निशाना	-12046
▁वर्तनी	-12047
▁गुरबख्श	-12048
▁चिंताओं	-12049
▁यूरेनियम	-12050
▁प्रतिज्ञा	-12051
▁संभाव्यता	-12052
▁हाइड्रोजन	-12053
ैप	-12054
ॉर	-12055
ine	-12056
णाम	-12057
मास	-12058
▁Aa	-12059
▁दं	-12060
ंगनी	-12061
तमंद	-12062
प्सा	-12063
र्मर	-12064
ासाह	-12065
ुलिन	-12066
्यूब	-12067
▁III	-12068
▁चर्	-12069
▁छठी	-12070
▁परव	-12071
▁पाक	-12072
▁शकु	-12073
▁शहद	-12074
▁सप्	-12075
ंडिंग	-12076
▁अनाथ	-12077
▁उभरा	-12078
▁टेबल	-12079
▁नासा	-12080
▁खोलना	-12081
▁घुड़स	-12082
▁डालकर	-12083
▁पोषित	-12084
▁बांटा	-12085
▁मानती	-12086
▁सिद्व	-12087
कृतियों	-12088
स्वार्थ	-12089
▁काव्या	-12090
▁कुर्की	-12091
▁चुकौती	-12092
▁नैसर्ग	-12093
▁विचलित	-12094
▁ऋणात्मक	-12095
▁पहुंचते	-12096
▁पुनरुत्	-12097
▁बुजुर्ग	-12098
▁अनेकानेक	-12099
▁कम्प्यूट	-12100
▁प्रांतों	-12101
▁मतदाताओं	-12102
▁सार्वभौम	-12103
▁मुर्गियों	-12104
▁विकासात्मक	-12105
▁संवेदनशीलता	-12106
िनस	-12107
▁ऑल	-12108
खाने	-12109
ार्ग	-12110
ौकिक	-12111
▁अवत	-12112
▁इंक	-12113
▁जात	-12114
▁पिल	-12115
▁मुस	-12116
▁सास	-12117
वाड़ा	-12118
▁धनुष	-12119
▁मुर्	-12120
▁वाटर	-12121
▁सादे	-12122
▁सुकर	-12123
▁इशारा	-12124
▁खजाने	-12125
▁डब्लू	-12126
किस्तान	-12127
जीवियों	-12128
ोर्निया	-12129
▁खुफिया	-12130
▁प्रवर्	-12131
▁बिल्ली	-12132
▁एजेन्सी	-12133
▁पुत्रों	-12134
▁ब्राजील	-12135
▁समयबद्ध	-12136
▁प्रक्रमण	-12137
▁संतुष्टि	-12138
▁तत्पश्चात	-12139
▁पुनरावृत्ति	-12140
▁प्रतिभागियों	-12141
ma	-12142
ort	-12143
ंद्व	-12144
▁अन्	-12145
▁जिम	-12146
▁पलट	-12147
▁फीड	-12148
▁लोम	-12149
▁स्ल	-12150
▁हिच	-12151
ेरिया	-12152
▁ऐक्ट	-12153
▁चारे	-12154
▁निता	-12155
▁भुला	-12156
▁स्वि	-12157
र्तनीय	-12158
▁महिमा	-12159
▁सेमिन	-12160
ानात्मक	-12161
▁नेपाली	-12162
▁मुनाफा	-12163
▁जनशक्ति	-12164
▁प्रदूषक	-12165
▁सियाराम	-12166
▁सिलसिले	-12167
▁उत्तीर्ण	-12168
▁वायुसेना	-12169
▁सेटिंग्स	-12170
▁स्टेशनों	-12171
▁सुव्यवस्थित	-12172
ऋर	-12173
मरी	-12174
ालु	-12175
▁गन	-12176
▁टु	-12177
ंचना	-12178
गम्य	-12179
योजन	-12180
▁कंद	-12181
▁केन	-12182
▁संव	-12183
▁उड़न	-12184
▁कैल्	-12185
▁देसी	-12186
▁परिध	-12187
▁माधव	-12188
▁मुक़	-12189
▁यत्न	-12190
स्थायी	-12191
ियोजित	-12192
▁निगाह	-12193
▁मंगोल	-12194
▁मनोमय	-12195
▁रुझान	-12196
▁विजयी	-12197
▁सेंटी	-12198
▁सॉल्व	-12199
▁कहलाते	-12200
▁कीर्ति	-12201
▁गुलाबी	-12202
▁निरूपण	-12203
▁रुकावट	-12204
▁सहभागी	-12205
▁सिगरेट	-12206
▁परिजनों	-12207
▁परिपाटी	-12208
▁अनुदेशों	-12209
▁उत्साहित	-12210
▁ट्रेडिंग	-12211
▁संख्याओं	-12212
▁होनेवाली	-12213
गीत	-12214
फली	-12215
र्र	-12216
ुकत	-12217
एंगे	-12218
जियम	-12219
वर्ण	-12220
वांछ	-12221
▁अथक	-12222
▁कटक	-12223
▁डबल	-12224
▁माई	-12225
ग्रही	-12226
रेक्ट	-12227
ियनों	-12228
▁अन्व	-12229
▁ऑटोम	-12230
▁कड़े	-12231
▁ख़ान	-12232
▁डीपी	-12233
▁दफ्त	-12234
▁प्रज	-12235
▁फार्	-12236
▁बुढ़	-12237
▁यहॉँ	-12238
▁लंका	-12239
▁सद्द	-12240
▁पकड़े	-12241
▁संवित	-12242
▁निभाता	-12243
▁भ्रमित	-12244
▁रेटिंग	-12245
▁विमानन	-12246
▁तालिबान	-12247
▁संकुचित	-12248
▁महाभियोग	-12249
▁उत्पादकों	-12250
▁त्रुटियों	-12251
▁व्यवस्थाओं	-12252
ँस	-12253
ठर	-12254
डिय	-12255
श्क	-12256
▁उर	-12257
▁भत	-12258
वसाय	-12259
▁कवच	-12260
▁फेल	-12261
▁मरु	-12262
▁वेल	-12263
▁हिट	-12264
द्रोह	-12265
▁क्रू	-12266
▁खयाल	-12267
▁जुडी	-12268
▁नैगम	-12269
▁बाला	-12270
▁बोनस	-12271
▁वाक्	-12272
▁वैभव	-12273
▁समाध	-12274
▁अक्षय	-12275
▁तूफान	-12276
▁पल्लव	-12277
▁पुर्न	-12278
▁बर्बर	-12279
▁भूभाग	-12280
▁वीरता	-12281
▁संचलन	-12282
▁गंधर्व	-12283
▁चटर्जी	-12284
▁जोधपुर	-12285
▁भ्रामक	-12286
▁सुनाया	-12287
▁शुभारंभ	-12288
▁सराहनीय	-12289
▁नैसर्गिक	-12290
▁परामर्शदाता	-12291
ill	-12292
ञ्च	-12293
दून	-12294
▁IS	-12295
महाद	-12296
▁एनी	-12297
▁छठे	-12298
▁ज्ह	-12299
▁भगव	-12300
िक्षण	-12301
▁पायल	-12302
▁बहाव	-12303
▁महाक	-12304
▁मेजर	-12305
च्छन्न	-12306
ण्डेकर	-12307
▁कदमों	-12308
▁घटिया	-12309
▁जीनों	-12310
▁रक़्त	-12311
▁सांके	-12312
▁अफ़्री	-12313
▁पदधारी	-12314
▁लेखाओं	-12315
▁शाखाएं	-12316
▁शिकारी	-12317
▁अवक्षयण	-12318
▁परन्तुक	-12319
▁प्रारुप	-12320
▁विश्वभर	-12321
▁समवर्ती	-12322
▁इन्द्रिय	-12323
▁खाण्डेकर	-12324
▁जानेवाले	-12325
▁नवीकरणीय	-12326
▁मातृभाषा	-12327
▁पुर्तगाली	-12328
▁छात्रवृत्ति	-12329
ऐं	-12330
्जा	-12331
▁रत	-12332
ण्डा	-12333
यिता	-12334
▁चलन	-12335
▁दोन	-12336
▁बुध	-12337
▁शाप	-12338
त्सना	-12339
▁आकडा	-12340
▁चौकी	-12341
▁पीटर	-12342
▁भूषण	-12343
जीलैंड	-12344
यात्मक	-12345
वास्तव	-12346
▁अनवरत	-12347
▁उभरती	-12348
▁खरीदा	-12349
▁गुम्ब	-12350
▁देयता	-12351
▁पक्षा	-12352
▁अनदेखा	-12353
▁कहेंगे	-12354
▁गठबंधन	-12355
▁जोड़कर	-12356
▁सूरदास	-12357
▁हथकरघा	-12358
▁आत्मकथा	-12359
▁इमारतों	-12360
▁कैदियों	-12361
▁निषिद्ध	-12362
▁बुनियाद	-12363
▁अंग्रेज़	-12364
▁एचपीसीएल	-12365
▁पुरातत्व	-12366
▁पूर्वगामी	-12367
▁साम्यवादी	-12368
▁अन्तरराष्ट्रीय	-12369
्ग	-12370
▁ण	-12371
य्य	-12372
ुरू	-12373
▁af	-12374
ागरण	-12375
िकार	-12376
▁आसन	-12377
▁आहत	-12378
▁उनह	-12379
▁एआर	-12380
▁खड़	-12381
▁जना	-12382
▁थें	-12383
▁पोप	-12384
▁रूम	-12385
विहीन	-12386
▁खाती	-12387
▁डीवी	-12388
▁सप्त	-12389
▁आपमें	-12390
▁ठहराव	-12391
▁धब्बे	-12392
▁राकेश	-12393
▁स्कंध	-12394
▁अहंकार	-12395
▁बालिका	-12396
▁शेयर्स	-12397
▁संबोधन	-12398
▁सवालों	-12399
▁पन्द्रह	-12400
▁फैक्टरी	-12401
▁अध्ययनों	-12402
▁प्रतिभाव	-12403
▁रिफाइनरी	-12404
▁सांकेतिक	-12405
▁बेरोजगारी	-12406
▁प्रतीकात्मक	-12407
▁हिंदुस्तानी	-12408
▁प्रस्तुतीकरण	-12409
खड़	-12410
वने	-12411
▁ढु	-12412
एसआई	-12413
काशी	-12414
निधि	-12415
ावास	-12416
▁उखा	-12417
▁टंक	-12418
▁पीस	-12419
▁पों	-12420
▁रजत	-12421
▁शौक	-12422
▁सूट	-12423
वाड़ी	-12424
ुपालन	-12425
▁धड़क	-12426
▁लेंस	-12427
▁वसंत	-12428
▁संचय	-12429
▁सलाम	-12430
▁कथानक	-12431
▁गुज़र	-12432
▁घटाना	-12433
▁घूमने	-12434
▁चलाते	-12435
▁प्राग	-12436
▁वीर्य	-12437
▁सौदों	-12438
▁हिटलर	-12439
▁अन्तरण	-12440
▁ग्रामो	-12441
▁सद्दाम	-12442
▁आलोचकों	-12443
▁प्रशंसक	-12444
▁आशीर्वाद	-12445
▁चट्टानों	-12446
▁निबंधनों	-12447
▁स्थापत्य	-12448
▁विकलांगता	-12449
ैग	-12450
ोइ	-12451
ink	-12452
मनी	-12453
ैरह	-12454
न्नत	-12455
िदास	-12456
त्म्य	-12457
बाज़ी	-12458
शीघ्र	-12459
ेक्शन	-12460
▁http	-12461
▁एनसी	-12462
▁किशन	-12463
▁घोषण	-12464
▁तेरह	-12465
▁पीसी	-12466
▁फौरन	-12467
▁सकाः	-12468
▁सावर	-12469
ेदारों	-12470
▁कोलंब	-12471
▁तदर्थ	-12472
▁नाड़ी	-12473
▁भागतः	-12474
ऑक्साइड	-12475
▁कन्नड़	-12476
▁मिजोरम	-12477
▁मिटाने	-12478
▁रिचर्ड	-12479
▁विक्रे	-12480
▁ईमानदार	-12481
▁तात्विक	-12482
▁दिखायें	-12483
▁पुनर्जी	-12484
▁प्रसूति	-12485
▁मार्टिन	-12486
▁प्रोत्सा	-12487
▁व्याप्ति	-12488
▁अल्पकालिक	-12489
▁अव्यवस्था	-12490
▁विरोधाभास	-12491
ew	-12492
st	-12493
कू	-12494
२२	-12495
न्ज	-12496
▁cl	-12497
▁ex	-12498
▁ईस	-12499
▁छव	-12500
ातों	-12501
ावटी	-12502
ुलकर	-12503
्ट्र	-12504
▁कंड	-12505
▁डोम	-12506
▁दुम	-12507
▁माफ	-12508
त्थान	-12509
ब्दिक	-12510
ोबारी	-12511
▁ऊँची	-12512
▁एडवो	-12513
▁एनाल	-12514
▁गाते	-12515
▁घण्ट	-12516
▁जहॉँ	-12517
▁थैली	-12518
▁बंधे	-12519
▁भाषी	-12520
▁मीरा	-12521
▁राशन	-12522
▁सीसी	-12523
▁उल्टा	-12524
▁खुदाई	-12525
▁घटाकर	-12526
▁पडेगा	-12527
▁अनगिनत	-12528
▁क़ुरआन	-12529
▁जोड़ों	-12530
▁शौचालय	-12531
▁अपरिचित	-12532
▁इण्डिया	-12533
▁ज्येष्ठ	-12534
▁दुर्व्य	-12535
▁रक्तचाप	-12536
▁व्यवधान	-12537
▁समन्वयन	-12538
▁कारपोरेट	-12539
▁समनुदेशन	-12540
▁श्रीवास्तव	-12541
▁हरिश्चन्द्र	-12542
ौज	-12543
खलन	-12544
तित	-12545
नोट	-12546
ब्स	-12547
ाईल	-12548
▁er	-12549
▁मट	-12550
निटर	-12551
ूकोज	-12552
ोलिक	-12553
▁एप्	-12554
▁कंठ	-12555
▁चिल	-12556
▁धाम	-12557
▁भैं	-12558
▁कुल्	-12559
▁मिज़	-12560
ग्रन्थ	-12561
▁कानों	-12562
▁चलाता	-12563
▁दोहरे	-12564
▁मारना	-12565
▁वसीयत	-12566
▁अयोग्य	-12567
▁कमज़ोर	-12568
▁मोर्चे	-12569
▁व्यथित	-12570
▁सुधारक	-12571
▁जीवाश्म	-12572
▁विंडोज़	-12573
▁जानेवाली	-12574
▁शक्तियाँ	-12575
▁बहुपक्षीय	-12576
▁पुनर्विचार	-12577
ra	-12578
yp	-12579
३क	-12580
फ़ल	-12581
ालो	-12582
ूपा	-12583
भाषी	-12584
मापी	-12585
्तिक	-12586
▁कहल	-12587
▁ट्व	-12588
▁नें	-12589
▁पंप	-12590
▁मनप	-12591
▁लिय	-12592
▁सबक	-12593
शीर्ष	-12594
▁कभार	-12595
▁खिलौ	-12596
▁झूठे	-12597
▁आरोहण	-12598
▁मिसाल	-12599
रिवर्तन	-12600
▁मुलायम	-12601
▁शर्करा	-12602
▁सम्पदा	-12603
निरपेक्ष	-12604
▁अतिमानस	-12605
▁इक्विटी	-12606
▁टेक्स्ट	-12607
▁संग्रहित	-12608
▁श्रेष्ठता	-12609
▁पुरस्कारों	-12610
▁मुकदमेबाजी	-12611
▁नवान्वेषकों	-12612
▁शांतिनिकेतन	-12613
ee	-12614
ंए	-12615
बम	-12616
भन	-12617
ेण	-12618
गुल	-12619
जीपी	-12620
त्था	-12621
भाजन	-12622
र्दी	-12623
▁कौश	-12624
▁शही	-12625
▁सीर	-12626
माण्ड	-12627
ूपयोग	-12628
▁ग़लत	-12629
▁गोबर	-12630
▁दुरा	-12631
▁पम्प	-12632
▁मंडी	-12633
▁यादृ	-12634
▁विशि	-12635
मंडलों	-12636
▁काष्ठ	-12637
▁तितली	-12638
▁तेजाब	-12639
▁दोषों	-12640
▁पहलें	-12641
▁पार्व	-12642
▁पूछें	-12643
▁बैकअप	-12644
▁सोचकर	-12645
▁अविश्व	-12646
▁टांगों	-12647
▁महत्ता	-12648
▁लाइनों	-12649
▁रहस्यमय	-12650
▁राजनयिक	-12651
▁सम्भवतः	-12652
▁आपूर्तिक	-12653
▁निःसंदेह	-12654
▁प्रदूषित	-12655
▁फोटोग्रा	-12656
▁सम्मिश्रण	-12657
▁उत्तरोत्तर	-12658
MA	-12659
१ख	-12660
ईसी	-12661
वली	-12662
शान	-12663
सिल	-12664
मंडप	-12665
२वीं	-12666
▁कॉर	-12667
▁चोल	-12668
▁शशि	-12669
▁सुभ	-12670
ण्डित	-12671
▁झुका	-12672
▁दाता	-12673
▁नवयु	-12674
▁भुजा	-12675
▁मूंग	-12676
▁यूएन	-12677
▁व्यप	-12678
ृतियों	-12679
▁चूर्ण	-12680
▁बैठते	-12681
▁भागने	-12682
▁मथुरा	-12683
▁मसौदा	-12684
▁मिर्च	-12685
▁संतति	-12686
▁जस्टिस	-12687
▁परिक्र	-12688
▁परिनद्	-12689
▁प्रोद्	-12690
▁मैनुअल	-12691
▁रिटर्न	-12692
▁विभक्त	-12693
▁सेवकों	-12694
▁स्तुति	-12695
▁देशभक्त	-12696
▁स्पर्धा	-12697
▁बहुआयामी	-12698
▁विवेकपूर्ण	-12699
२३	-12700
ick	-12701
कोड	-12702
खला	-12703
सिस	-12704
ायु	-12705
िप्	-12706
ोदर	-12707
र्षण	-12708
शकों	-12709
▁अनज	-12710
▁भर्	-12711
▁सफर	-12712
क्रोश	-12713
रीकरण	-12714
र्भाव	-12715
▁कल्प	-12716
▁गिरि	-12717
▁गुदा	-12718
▁चकित	-12719
▁ठंडे	-12720
▁धागे	-12721
▁बोतल	-12722
▁ममता	-12723
▁मोनो	-12724
▁लड़ी	-12725
▁लाती	-12726
स्थानी	-12727
▁छुट्ट	-12728
▁वल्लभ	-12729
▁समेकन	-12730
▁सस्ते	-12731
▁साइंस	-12732
▁स्क्व	-12733
▁अस्थाई	-12734
▁खनिजों	-12735
▁समांतर	-12736
▁अधिरोपण	-12737
▁अभिकल्प	-12738
▁एडवोकेट	-12739
▁शाब्दिक	-12740
▁आईएफसीआई	-12741
▁कारखानों	-12742
▁कार्यशील	-12743
▁तुल्यकाल	-12744
▁प्रवर्तक	-12745
▁मूर्तियों	-12746
▁यादृच्छिक	-12747
▁टिप्पणियों	-12748
▁सर्जनात्मक	-12749
▁सियारामशरण	-12750
han	-12751
पने	-12752
फिर	-12753
मीद	-12754
संघ	-12755
ुनी	-12756
ैरा	-12757
▁घू	-12758
चिकर	-12759
▁आपे	-12760
▁धर्	-12761
▁पेन	-12762
▁पैं	-12763
▁पॉप	-12764
▁लाय	-12765
्यस्त	-12766
▁उठने	-12767
▁ऊँचा	-12768
▁बूंद	-12769
▁राजू	-12770
▁राणा	-12771
▁व्यक	-12772
▁शोभा	-12773
▁सपाट	-12774
▁सुवि	-12775
▁सोनी	-12776
न्दराम	-12777
▁अरबों	-12778
▁कैलाश	-12779
▁छोड़ी	-12780
▁दत्तक	-12781
▁पलायन	-12782
▁प्रता	-12783
▁बायोग	-12784
▁सर्वे	-12785
▁उदयपुर	-12786
▁मकानों	-12787
▁कंट्रोल	-12788
▁गर्भपात	-12789
▁दुरूपयोग	-12790
▁अधिकांशतः	-12791
▁प्रवर्तित	-12792
▁व्यवसायिक	-12793
▁प्रतिभावान	-12794
▁निम्नानुसार	-12795
▁हिन्दुस्तानियों	-12796
तट	-12797
तेह	-12798
सरत	-12799
ट्ठी	-12800
म्बल	-12801
वाहन	-12802
▁चूस	-12803
▁टाई	-12804
▁फ़ी	-12805
▁रहन	-12806
▁शिप	-12807
धुनिक	-12808
विदों	-12809
▁उदास	-12810
▁कोले	-12811
▁छत्र	-12812
▁टीके	-12813
▁डाउन	-12814
▁दिक्	-12815
▁दीदी	-12816
▁नामे	-12817
▁बसंत	-12818
▁मारी	-12819
▁रूपी	-12820
▁सबकी	-12821
▁सूरी	-12822
▁कम्यू	-12823
▁खांसी	-12824
▁खानों	-12825
▁छोडकर	-12826
▁टनभार	-12827
▁निकास	-12828
▁फैलने	-12829
▁बदलकर	-12830
▁घोड़ों	-12831
▁निगमों	-12832
▁परिणति	-12833
▁प्लगिन	-12834
▁मनमाने	-12835
▁रिव्यू	-12836
विज्ञानी	-12837
▁अस्वस्थ	-12838
▁पहुंचता	-12839
▁प्रास्थ	-12840
▁शत्रुता	-12841
▁माइक्रोस	-12842
▁इंडस्ट्री	-12843
▁ग्रीनहाउस	-12844
▁प्रकाशनों	-12845
▁मूर्तियां	-12846
ऊं	-12847
यार	-12848
▁गॉ	-12849
गिरि	-12850
विद्	-12851
▁जता	-12852
▁जेट	-12853
▁नाख	-12854
▁पेड	-12855
▁महज	-12856
▁सेव	-12857
▁सैल	-12858
ताकार	-12859
▁किसे	-12860
▁रूपए	-12861
▁लाइट	-12862
▁वंशज	-12863
▁सुझा	-12864
▁सूफी	-12865
▁आभारी	-12866
▁नोट्स	-12867
▁पकाने	-12868
▁पाएगा	-12869
▁शिमला	-12870
▁समझकर	-12871
▁अवार्ड	-12872
▁कनिष्ठ	-12873
▁कीर्तन	-12874
▁गुलामी	-12875
▁ग्रसनी	-12876
▁दिलाता	-12877
▁दिलाना	-12878
▁निकलकर	-12879
▁पर्याय	-12880
▁प्रयाग	-12881
▁प्रवीण	-12882
▁भाषाएं	-12883
▁समाजों	-12884
▁सर्जरी	-12885
▁इंटरफेस	-12886
▁गुरुदेव	-12887
▁चुनिंदा	-12888
▁जोखिमों	-12889
▁डिपार्ट	-12890
▁बायोगैस	-12891
▁मानदण्ड	-12892
▁यंत्रों	-12893
▁सिक्कों	-12894
▁आच्छादित	-12895
▁पत्तियां	-12896
▁चेन्नम्मा	-12897
▁स्क्रिप्ट	-12898
▁इंजीनियरों	-12899
▁हिस्सेदारी	-12900
▁पूर्वावलोकन	-12901
ुना	-12902
ंजना	-12903
गंगा	-12904
द्धन	-12905
भूषा	-12906
मूलक	-12907
सिया	-12908
▁तंज	-12909
▁नमी	-12910
▁भड़	-12911
▁शरा	-12912
▁हाव	-12913
बंधित	-12914
िंग्स	-12915
▁एमएम	-12916
▁ओडिश	-12917
▁कैंप	-12918
▁खिलफ	-12919
▁मिथक	-12920
▁अधूरा	-12921
▁खजाना	-12922
▁खलीफा	-12923
▁गुटों	-12924
▁जिसपर	-12925
▁डिस्प	-12926
▁पंक्त	-12927
▁पशुधन	-12928
▁पहनने	-12929
▁प्रखर	-12930
▁फेडरल	-12931
▁रोकता	-12932
▁सर्दी	-12933
राज्यों	-12934
▁कावेरी	-12935
▁क्षणों	-12936
▁परिधीय	-12937
▁मद्देन	-12938
▁महानता	-12939
▁मोर्चा	-12940
▁वेश्या	-12941
▁व्हाइट	-12942
▁संकेतन	-12943
▁साइटों	-12944
▁सावरकर	-12945
▁सुझाया	-12946
संख्यकों	-12947
▁त्रासदी	-12948
▁त्रिकोण	-12949
▁निवेशों	-12950
▁ब्राउज़	-12951
▁वायसराय	-12952
▁अभ्यर्थी	-12953
▁पुर्तगाल	-12954
▁शुक्रवार	-12955
▁श्रोताओं	-12956
▁स्पष्टतः	-12957
▁इस्लामवाद	-12958
टिफ	-12959
डान	-12960
शों	-12961
सें	-12962
▁sp	-12963
▁वज	-12964
वारा	-12965
िव्य	-12966
ेष्ट	-12967
▁नूर	-12968
▁बया	-12969
▁मजह	-12970
बंधीय	-12971
▁कमला	-12972
▁क़ान	-12973
▁पर्स	-12974
▁बीते	-12975
कोशिका	-12976
्वर्ती	-12977
▁खर्ची	-12978
▁तेलंग	-12979
▁समज्ह	-12980
पेक्षित	-12981
▁कुलपति	-12982
▁बादलों	-12983
▁लेबनान	-12984
▁इच्छाओं	-12985
▁जमींदार	-12986
▁पंचायती	-12987
▁परिसरों	-12988
▁शाहजहाँ	-12989
▁उत्पीड़न	-12990
▁आवेदनपत्र	-12991
▁ग्राफिक्स	-12992
▁स्वातंत्र	-12993
▁राज्यपालों	-12994
▁सावधानीपूर्वक	-12995
▁अर्थव्यवस्थाओं	-12996
ik	-12997
पण	-12998
पदी	-12999
विस	-13000
ातु	-13001
▁पङ	-13002
▁अजन	-13003
▁एडी	-13004
▁चीख	-13005
▁पुट	-13006
▁बची	-13007
▁मशह	-13008
▁वलय	-13009
▁विड	-13010
▁शुक	-13011
रेस्ट	-13012
ियोजन	-13013
ुन्टू	-13014
ृत्यु	-13015
▁अश्म	-13016
▁आयोड	-13017
▁उमीद	-13018
▁गिना	-13019
▁चंचल	-13020
▁जीना	-13021
▁ढाका	-13022
▁नीड़	-13023
▁पैतृ	-13024
▁प्रध	-13025
▁बिगा	-13026
▁भूरा	-13027
▁सोचे	-13028
वादिता	-13029
▁अवांछ	-13030
▁कश्मी	-13031
▁चुनना	-13032
▁द्वेष	-13033
▁बंकिम	-13034
▁मूर्त	-13035
▁लगाता	-13036
▁सर्जन	-13037
▁होतीं	-13038
पंथियों	-13039
▁धारकों	-13040
▁भित्ति	-13041
▁मिशनरी	-13042
▁युवकों	-13043
▁हिन्दु	-13044
▁आक्सीजन	-13045
▁ज़िम्मे	-13046
▁तंत्रिक	-13047
▁तत्परता	-13048
▁महारानी	-13049
▁समझदारी	-13050
▁आक्रमणों	-13051
▁पूर्वजों	-13052
▁वाल्मीकि	-13053
▁इतिहासकार	-13054
▁संबंधियों	-13055
▁मृत्युदण्ड	-13056
▁सांख्यिकीय	-13057
▁आयुर्विज्ञान	-13058
खोर	-13059
ाहा	-13060
ेगा	-13061
ियरी	-13062
▁अबु	-13063
▁कोइ	-13064
▁चिह	-13065
▁चूँ	-13066
▁चों	-13067
▁दूं	-13068
▁मशी	-13069
स्कोप	-13070
ोपैथी	-13071
▁उद्व	-13072
▁कमोड	-13073
▁निषे	-13074
▁बकरी	-13075
त्राशय	-13076
विद्या	-13077
▁ख़त्म	-13078
▁प्लान	-13079
▁फील्ड	-13080
▁मस्ती	-13081
▁वगैरह	-13082
▁विलयन	-13083
▁संकुल	-13084
▁सिखों	-13085
▁सौंपी	-13086
▁अर्हता	-13087
▁कोष्ठक	-13088
▁निभाते	-13089
▁समीचीन	-13090
▁सामयिक	-13091
▁आखिरकार	-13092
▁पार्वती	-13093
▁संचारित	-13094
▁स्क्रॉल	-13095
▁स्थानिक	-13096
▁अल्पावधि	-13097
▁वायुमंडल	-13098
▁विशेषतया	-13099
▁असुरक्षित	-13100
▁कांस्टेबल	-13101
▁कॉर्पोरेट	-13102
▁न्यूयॉर्क	-13103
▁प्रशंसनीय	-13104
ES	-13105
सीड	-13106
▁em	-13107
▁नग	-13108
स्टी	-13109
▁END	-13110
▁जगम	-13111
▁जहर	-13112
▁तले	-13113
▁पीर	-13114
▁मूक	-13115
नियाँ	-13116
ाइटिस	-13117
ॉर्डन	-13118
▁कॉले	-13119
▁टोपी	-13120
▁सदृश	-13121
डिचेरी	-13122
प्रसाद	-13123
▁अंगुल	-13124
▁अनुपम	-13125
▁चिपका	-13126
▁जयदेव	-13127
▁जीर्ण	-13128
▁टिकाऊ	-13129
▁पोशाक	-13130
▁बैक्ट	-13131
▁भारित	-13132
▁उपद्रव	-13133
▁किनारा	-13134
▁न्यासी	-13135
▁पारेषण	-13136
▁फायदों	-13137
ाविज्ञान	-13138
▁अनुशंसा	-13139
▁अभिकथित	-13140
▁नाभिकीय	-13141
▁निःशक्त	-13142
▁कीमियागर	-13143
▁प्रमुखता	-13144
▁कीटनाशकों	-13145
▁आत्मनिर्भर	-13146
▁सर्वसाधारण	-13147
▁ग्रामोद्योग	-13148
▁इलेक्ट्रानिक	-13149
ge	-13150
ice	-13151
कंठ	-13152
विष	-13153
ाम्	-13154
गीता	-13155
रोधी	-13156
र्मन	-13157
▁छंट	-13158
▁मसल	-13159
▁मृग	-13160
▁रिह	-13161
▁शंख	-13162
ास्कर	-13163
▁इंग़	-13164
▁एम्ब	-13165
▁बंजर	-13166
▁बिंब	-13167
▁मुखर	-13168
▁हलचल	-13169
▁अनोखा	-13170
▁अनोखी	-13171
▁महाजन	-13172
▁खिलाफत	-13173
▁खींचने	-13174
▁निन्दा	-13175
प्राप्ति	-13176
▁गड़बड़ी	-13177
▁जन्मदिन	-13178
▁जिलाधीश	-13179
▁पाठशाला	-13180
▁रूपांतर	-13181
▁सक्षमता	-13182
▁अग्रेषित	-13183
▁आनन्दराम	-13184
▁तारामंडल	-13185
▁प्रबुद्ध	-13186
▁संपर्कों	-13187
▁अनुक्रिया	-13188
▁गवर्नमेंट	-13189
▁स्वरयंत्र	-13190
▁प्रोसेसिंग	-13191
▁रूपान्तरित	-13192
▁अंतरराष्ट्री	-13193
२४	-13194
▁ञ	-13195
भिक	-13196
याप	-13197
▁BE	-13198
▁रग	-13199
ालाम	-13200
ासिक	-13201
▁काज	-13202
▁पाम	-13203
▁मत्	-13204
▁ऊँचे	-13205
▁गाना	-13206
▁जन्त	-13207
▁दाने	-13208
▁पतला	-13209
▁प्रह	-13210
▁सेमी	-13211
▁उपजाऊ	-13212
▁उर्जा	-13213
▁कोनों	-13214
▁घूमते	-13215
▁चिल्ल	-13216
▁जागृत	-13217
▁दिखती	-13218
▁माइकल	-13219
▁सहदेव	-13220
▁कुत्ता	-13221
▁गुम्बद	-13222
▁ताकतों	-13223
▁पुनर्भ	-13224
▁मिलाने	-13225
▁विस्मय	-13226
▁श्रोणि	-13227
▁आधिपत्य	-13228
▁चाहूंगी	-13229
▁विवाद्य	-13230
▁क्रिस्टल	-13231
▁मुख्यतया	-13232
▁सुविधाएँ	-13233
▁पैराग्राफ	-13234
▁लाभान्वित	-13235
▁आवश्यकताएं	-13236
▁पश्चात्वर्ती	-13237
बक	-13238
क्म	-13239
डेल	-13240
▁द्	-13241
नुमा	-13242
यनगर	-13243
िन्ट	-13244
▁पीट	-13245
▁बेव	-13246
मर्रा	-13247
वार्इ	-13248
ोनियम	-13249
▁अपंग	-13250
▁कांड	-13251
▁गुड़	-13252
▁टकरा	-13253
▁बनवा	-13254
▁ब्रज	-13255
▁लोहा	-13256
▁समेट	-13257
▁सुखी	-13258
नारायण	-13259
पोरेशन	-13260
▁क्लिप	-13261
▁जुलूस	-13262
▁पूछना	-13263
▁मापने	-13264
▁लॉन्च	-13265
▁सुनील	-13266
▁हमलों	-13267
च्छिन्न	-13268
▁अलंकृत	-13269
▁तपस्या	-13270
▁निकटता	-13271
▁परिसमा	-13272
▁मांगने	-13273
▁मॉनिटर	-13274
▁रविवार	-13275
▁इंस्टॉल	-13276
▁ऑक्सीजन	-13277
▁क्षुद्र	-13278
▁गर्भगृह	-13279
▁बैंकनोट	-13280
▁संयोजित	-13281
▁सम्पादन	-13282
▁अपवर्जित	-13283
▁अभिकरणों	-13284
▁चरितार्थ	-13285
▁लापरवाही	-13286
▁संगमर्मर	-13287
▁संरचनाओं	-13288
▁होनेवाले	-13289
▁कार्यसूची	-13290
▁दृष्टिगोचर	-13291
▁समाचारपत्र	-13292
▁केंद्रशासित	-13293
ii	-13294
खान	-13295
पीए	-13296
फिल	-13297
▁ढक	-13298
क्कन	-13299
दिनी	-13300
न्ती	-13301
शैली	-13302
सिका	-13303
ूसलम	-13304
्वाइ	-13305
▁अटक	-13306
▁अशु	-13307
▁इज़	-13308
▁उमर	-13309
▁एनई	-13310
▁छाव	-13311
▁नाद	-13312
▁भान	-13313
▁मसी	-13314
▁लंग	-13315
▁वधू	-13316
▁सुम	-13317
विवाद	-13318
▁अनभि	-13319
▁धुरी	-13320
▁पथरी	-13321
▁पराव	-13322
▁बाईं	-13323
▁मक़्	-13324
▁सिंड	-13325
▁सिकु	-13326
ाहियों	-13327
▁आज़ाद	-13328
▁ओडिशा	-13329
▁कहावत	-13330
▁ढाँचा	-13331
▁पैतृक	-13332
▁संहार	-13333
▁साइबर	-13334
▁स्पेश	-13335
▁अब्बास	-13336
▁ओड़िया	-13337
▁गवाहों	-13338
▁चाइल्ड	-13339
▁चैनलों	-13340
▁तंबाकू	-13341
▁पोलियो	-13342
▁संवर्ग	-13343
▁सत्कार	-13344
▁सिन्धु	-13345
महाद्वीप	-13346
▁कारखाना	-13347
▁जीवनकाल	-13348
▁ड्राइवर	-13349
▁पौष्टिक	-13350
▁अभिवृद्धि	-13351
▁प्रबंधकों	-13352
▁प्रोद्भूत	-13353
▁सामग्रियों	-13354
▁प्रविष्टियों	-13355
गाम	-13356
्पर	-13357
▁al	-13358
ance	-13359
ड़ित	-13360
पाती	-13361
लब्ध	-13362
विता	-13363
शासन	-13364
स्थि	-13365
▁करन	-13366
▁करू	-13367
▁कोह	-13368
▁लुट	-13369
▁सेब	-13370
दियों	-13371
▁उलझन	-13372
▁काटा	-13373
▁बढती	-13374
्लेक्स	-13375
▁इंस्प	-13376
▁एग्री	-13377
▁जलाने	-13378
▁टेम्प	-13379
▁नगण्य	-13380
▁भयावह	-13381
▁मशहूर	-13382
▁वहनीय	-13383
▁शेक्स	-13384
▁सल्फर	-13385
▁स्तूप	-13386
▁अनामता	-13387
▁अलंकरण	-13388
▁तन्त्र	-13389
▁नर्सरी	-13390
▁नायिका	-13391
▁पुनर्म	-13392
▁बिताने	-13393
▁विपक्षी	-13394
▁उपनिषदों	-13395
▁जीवाणुओं	-13396
▁अनुशासनिक	-13397
▁विनिश्चित	-13398
▁निष्क्रियता	-13399
▁धर्मनिरपेक्ष	-13400
RI	-13401
all	-13402
ase	-13403
घाट	-13404
्ना	-13405
ल्हे	-13406
सन्न	-13407
्राण	-13408
▁उपश	-13409
▁एंग	-13410
▁एजु	-13411
▁कुस	-13412
▁ठिक	-13413
▁थाई	-13414
▁दखल	-13415
▁धुन	-13416
▁मरे	-13417
▁सीन	-13418
▁जादा	-13419
▁पठार	-13420
▁पुर्	-13421
▁बताओ	-13422
▁यक्ष	-13423
▁वृषण	-13424
▁श्या	-13425
▁सत्त	-13426
न्यासी	-13427
▁आदतों	-13428
▁उड़ने	-13429
▁कुलीन	-13430
▁दौरों	-13431
▁नियमन	-13432
▁बैठता	-13433
▁मसलों	-13434
▁हारान	-13435
▁हेनरी	-13436
▁क्षिति	-13437
▁दोस्ती	-13438
▁नजदीकी	-13439
▁पागलपन	-13440
▁अनुग्रह	-13441
▁ट्रान्स	-13442
▁द्रविड़	-13443
▁परिकलित	-13444
▁मौजूदगी	-13445
▁गाड़ियों	-13446
▁डेनमार्क	-13447
▁प्रियव्रत	-13448
▁प्रास्थिति	-13449
▁उम्मीदवारों	-13450
▁प्रक्रियात्मक	-13451
वचन	-13452
ासु	-13453
▁Pr	-13454
▁en	-13455
▁टो	-13456
बंधक	-13457
यरोग	-13458
लेपन	-13459
▁सिप	-13460
▁काजी	-13461
▁कुंड	-13462
▁दवाई	-13463
▁धोखे	-13464
▁हीरा	-13465
ार्श्व	-13466
▁उगाने	-13467
▁ग्रीक	-13468
▁निर्द	-13469
▁बहनों	-13470
▁मकबरा	-13471
▁मज्जा	-13472
▁मलाशय	-13473
▁महीना	-13474
▁वोल्ट	-13475
▁सुरेश	-13476
क्षेपित	-13477
▁असमिया	-13478
▁गुस्से	-13479
▁चुकाने	-13480
▁दूरबीन	-13481
▁बिजनेस	-13482
▁महानगर	-13483
▁उपधारणा	-13484
▁उबुन्टू	-13485
▁गाँधीजी	-13486
▁गोलाकार	-13487
▁स्वेच्छ	-13488
▁कारोबारी	-13489
▁परिशिष्ट	-13490
▁प्रतिदाय	-13491
▁बुराइयों	-13492
▁माध्यमों	-13493
▁वैश्वीकरण	-13494
▁फिलीस्तीनियों	-13495
xx	-13496
ईस	-13497
बै	-13498
ंगम	-13499
दिव	-13500
रिस	-13501
ुला	-13502
ौरी	-13503
able	-13504
एफसी	-13505
कोटा	-13506
ांगण	-13507
▁एंज	-13508
▁एके	-13509
▁दृढ	-13510
▁रखो	-13511
स्मार	-13512
ापत्र	-13513
▁करूँ	-13514
▁गौरी	-13515
▁घारा	-13516
▁जादु	-13517
▁पढ़ी	-13518
▁बढने	-13519
प्रधान	-13520
ब्रह्म	-13521
ोत्तरी	-13522
▁गद्दी	-13523
▁गोखले	-13524
▁जड़ों	-13525
▁फ़ोटो	-13526
▁बिल्ड	-13527
▁भाड़ा	-13528
▁भावुक	-13529
▁संघटक	-13530
▁अपनाते	-13531
▁राक्षस	-13532
▁किस्में	-13533
▁जेरूसलम	-13534
▁प्रैक्ट	-13535
▁महेंद्र	-13536
▁बंगलादेश	-13537
▁दोषसिद्धि	-13538
▁बहुसंख्यक	-13539
▁उपमहाद्वीप	-13540
▁निर्यातकों	-13541
चड़	-13542
हिक	-13543
ाता	-13544
िंद	-13545
▁AB	-13546
ंकार	-13547
ंतिम	-13548
ल्सन	-13549
ुर्य	-13550
ोपित	-13551
▁आड़	-13552
▁कटु	-13553
▁जुड	-13554
▁डिस	-13555
▁थॉम	-13556
▁लीन	-13557
▁वक्	-13558
▁सेठ	-13559
न्ध्र	-13560
फॉर्म	-13561
मानों	-13562
▁चयाप	-13563
▁छिपी	-13564
▁तेंद	-13565
▁बार्	-13566
▁संवी	-13567
▁सरणी	-13568
नेस्को	-13569
▁अय्यर	-13570
▁उतरने	-13571
▁बेतार	-13572
▁समसाम	-13573
▁साहसी	-13574
▁स्टेड	-13575
▁अन्ततः	-13576
▁एनालॉग	-13577
▁कम्बन्	-13578
▁करोड़े	-13579
▁जंतुओं	-13580
▁ध्वस्त	-13581
▁भण्डार	-13582
▁मनपसंद	-13583
▁महादेव	-13584
▁मेन्यू	-13585
▁सड़कें	-13586
▁अराजकता	-13587
▁कविताएँ	-13588
▁कूटनीति	-13589
▁पहुंचती	-13590
▁प्रत्यय	-13591
▁मलेशिया	-13592
▁वृत्तिक	-13593
▁स्टेट्स	-13594
▁अनुकरणीय	-13595
▁अनुक्रमण	-13596
▁कारीगरों	-13597
▁भारतवर्ष	-13598
▁मूत्राशय	-13599
▁साधारणतः	-13600
▁उत्प्रेरक	-13601
▁विनाशकारी	-13602
▁स्थायित्व	-13603
▁प्रभावकारी	-13604
▁प्रयोगकर्ता	-13605
▁अल्पसंख्यकों	-13606
पोष	-13607
फ़र	-13608
भुज	-13609
हों	-13610
▁खस	-13611
▁्त	-13612
चक्र	-13613
पिंग	-13614
लाइड	-13615
्वित	-13616
▁किट	-13617
▁गुड	-13618
▁घृण	-13619
▁छपा	-13620
▁पना	-13621
▁मेध	-13622
म्मति	-13623
▁अंतत	-13624
▁अनुत	-13625
▁आसाम	-13626
▁खाया	-13627
▁खासी	-13628
▁दाया	-13629
▁दोहर	-13630
▁मवेश	-13631
▁लतीफ	-13632
▁हंसी	-13633
▁एरिया	-13634
▁कंधों	-13635
▁तस्वी	-13636
▁दुर्य	-13637
▁भरोसे	-13638
▁मीनार	-13639
▁अपूर्व	-13640
▁करारों	-13641
▁डीवीडी	-13642
▁महानतम	-13643
▁मार्शल	-13644
▁सोनिया	-13645
▁आत्मसात	-13646
▁इस्तीफा	-13647
▁कक्षाओं	-13648
▁ज्वालाम	-13649
▁नाटककार	-13650
▁मातृत्व	-13651
▁अभिदायों	-13652
▁अर्थात्ः	-13653
▁चिकित्सकों	-13654
NT	-13655
ंसू	-13656
ग़ल	-13657
टीर	-13658
बाग	-13659
ादे	-13660
ामय	-13661
ितल	-13662
ोशी	-13663
ंस्य	-13664
प्रा	-13665
साही	-13666
▁are	-13667
▁कत्	-13668
▁गुह	-13669
▁झों	-13670
▁नीच	-13671
▁बेद	-13672
▁मुम	-13673
▁शरद	-13674
बन्धु	-13675
भक्षी	-13676
▁आसीन	-13677
▁केले	-13678
▁तादा	-13679
▁बद्ध	-13680
▁भैंस	-13681
▁सज़ा	-13682
ायेंगे	-13683
▁क्रास	-13684
▁क्रॉस	-13685
▁गवाही	-13686
▁चमड़े	-13687
▁जनहित	-13688
▁पड़ाव	-13689
▁पालतू	-13690
▁बन्दर	-13691
▁मच्छर	-13692
▁युगों	-13693
▁रेडिय	-13694
▁हार्म	-13695
▁अवयवों	-13696
▁असहयोग	-13697
▁आपरेशन	-13698
▁क़ुरान	-13699
▁गुस्सा	-13700
▁तरक्की	-13701
▁निभानी	-13702
▁पुजारी	-13703
▁पूर्वज	-13704
▁प्लेयर	-13705
▁वानिकी	-13706
▁संचालक	-13707
ोपाध्याय	-13708
▁वर्माजी	-13709
▁तस्वीरें	-13710
▁प्रतिशोध	-13711
▁मानकीकरण	-13712
▁शिक्षावि	-13713
▁संन्यासी	-13714
▁पांडिचेरी	-13715
▁पुनर्वित्त	-13716
of	-13717
ऊँ	-13718
छी	-13719
ट्ठ	-13720
दिश	-13721
निय	-13722
मेय	-13723
▁tr	-13724
▁भै	-13725
कांत	-13726
चागत	-13727
बेटन	-13728
सेवक	-13729
स्लो	-13730
▁The	-13731
▁अश्	-13732
▁खाँ	-13733
▁तना	-13734
▁बैग	-13735
▁मचा	-13736
काण्ड	-13737
फुल्ल	-13738
फ्तार	-13739
▁कमाई	-13740
▁गोपी	-13741
▁जब्त	-13742
▁परोप	-13743
▁बतौर	-13744
▁बहाल	-13745
▁मर्द	-13746
▁मिनी	-13747
▁यापन	-13748
▁रबड़	-13749
▁लिफा	-13750
▁संबध	-13751
▁हावी	-13752
▁अजमेर	-13753
▁कर्सर	-13754
▁क्वाल	-13755
▁ग्वाल	-13756
▁देहरा	-13757
▁परात्	-13758
▁पहनते	-13759
▁विशाख	-13760
▁संचयन	-13761
▁सम्मत	-13762
▁हवेली	-13763
▁पादपों	-13764
▁बारीकी	-13765
▁मनोनीत	-13766
▁सुधारा	-13767
▁अमानवीय	-13768
▁उज्ज्वल	-13769
▁छिड़काव	-13770
▁निर्बाध	-13771
▁प्रज्ञा	-13772
▁तेलंगाना	-13773
▁पक्षाघात	-13774
▁प्राप्तकर्ता	-13775
ai	-13776
up	-13777
ढि	-13778
दीय	-13779
साह	-13780
▁et	-13781
▁यी	-13782
क्यू	-13783
क्षि	-13784
तनगर	-13785
्यूर	-13786
▁अनप	-13787
▁कोठ	-13788
▁खुज	-13789
▁चौर	-13790
▁जोत	-13791
▁दाई	-13792
▁नसी	-13793
▁फली	-13794
▁वाट	-13795
ानिया	-13796
ापनों	-13797
ित्री	-13798
▁अँधे	-13799
▁आयतन	-13800
▁कस्त	-13801
▁जहरी	-13802
▁थर्म	-13803
▁दन्त	-13804
▁मैरी	-13805
▁स्के	-13806
द्वारा	-13807
▁अफवाह	-13808
▁अयस्क	-13809
▁खेलते	-13810
▁जहाज़	-13811
▁देशभर	-13812
▁पेयजल	-13813
▁बेचैन	-13814
▁मैनेज	-13815
▁लिप्त	-13816
▁साध्य	-13817
▁हेतुक	-13818
परीक्षा	-13819
▁किंगडम	-13820
▁जीविका	-13821
▁जॉर्डन	-13822
▁तरंगों	-13823
▁बिताया	-13824
▁भक्तों	-13825
▁ठेकेदार	-13826
▁परात्पर	-13827
▁बीमाकृत	-13828
▁महोत्सव	-13829
▁मोतीलाल	-13830
▁विजयनगर	-13831
▁सम्पादक	-13832
▁सम्मिलन	-13833
▁सिलसिला	-13834
▁आनुपातिक	-13835
▁प्रकीर्ण	-13836
▁बर्खास्त	-13837
▁मद्देनजर	-13838
▁संग्रहीत	-13839
▁सहनशीलता	-13840
▁अनुपयुक्त	-13841
▁दीर्घावधि	-13842
▁प्रान्तीय	-13843
▁मध्यकालीन	-13844
▁माइक्रोसॉ	-13845
▁उद्यमशीलता	-13846
▁न्यायनिर्ण	-13847
▁व्यतिक्रमी	-13848
▁कार्रवाइयों	-13849
▁प्रयोजनार्थ	-13850
▁परिवीक्षाधीनों	-13851
IC	-13852
ोच	-13853
र्ब	-13854
▁जं	-13855
▁वऋ	-13856
ल्पी	-13857
्विन	-13858
▁काक	-13859
▁निष	-13860
▁नीम	-13861
▁पका	-13862
▁फिज	-13863
▁मनम	-13864
▁मीर	-13865
▁लगन	-13866
▁सूअ	-13867
▁सूझ	-13868
ब्बों	-13869
▁अप्प	-13870
▁आनुष	-13871
▁ख़ास	-13872
▁गिनी	-13873
▁गोरख	-13874
▁चर्म	-13875
▁दशरथ	-13876
▁दाँत	-13877
▁नीरस	-13878
▁पिक्	-13879
▁भद्र	-13880
▁हस्प	-13881
त्मकता	-13882
▁अण्डे	-13883
▁अफसोस	-13884
▁आवर्त	-13885
▁इरादे	-13886
▁कुक्क	-13887
▁खातिर	-13888
▁गोपुर	-13889
▁त्यों	-13890
▁दुःखी	-13891
▁पैलेस	-13892
▁लिपिक	-13893
▁शालीन	-13894
▁हज़रत	-13895
▁अहिंसक	-13896
▁एक्सेस	-13897
▁गुजरना	-13898
▁चिट्ठी	-13899
▁त्रिपा	-13900
▁द्योतक	-13901
▁नवलराम	-13902
▁प्रमोद	-13903
▁मंडलों	-13904
▁निकालें	-13905
▁निपटाने	-13906
▁दुर्बलता	-13907
▁प्रमुखों	-13908
▁वस्त्रों	-13909
▁स्पष्टता	-13910
▁इंग्लैण्ड	-13911
▁उत्सर्जित	-13912
▁डेवलपमेंट	-13913
▁अत्याधुनिक	-13914
▁चिकित्सकीय	-13915
▁निर्वाचनों	-13916
▁न्यूजीलैंड	-13917
फो	-13918
ूआ	-13919
ans	-13920
ear	-13921
▁नस	-13922
▁नृ	-13923
ज़ाम	-13924
सेवा	-13925
ुरूप	-13926
▁मृद	-13927
▁मॉँ	-13928
▁लीज	-13929
▁शमन	-13930
▁सूत	-13931
▁हतो	-13932
बन्धन	-13933
ामीटर	-13934
▁अनिय	-13935
▁ज़रा	-13936
▁दयाल	-13937
▁धीमा	-13938
▁फाइन	-13939
▁बाधक	-13940
▁रेंज	-13941
▁शिया	-13942
▁सचाई	-13943
▁सचिन	-13944
भारतीय	-13945
र्ताओं	-13946
▁जबर्द	-13947
▁जादुई	-13948
▁दफ्तर	-13949
▁पहेली	-13950
▁प्यास	-13951
▁फाइबर	-13952
▁बन्धक	-13953
▁बायोम	-13954
▁सामंत	-13955
▁सेन्ट	-13956
▁सेल्स	-13957
▁अभिभूत	-13958
▁अवयस्क	-13959
▁चमकदार	-13960
▁नालंदा	-13961
▁माउन्ट	-13962
▁विरचना	-13963
▁अनुलग्न	-13964
▁असुविधा	-13965
▁गोविन्द	-13966
▁जायेंगी	-13967
▁तम्बाकू	-13968
▁विलुप्त	-13969
▁दुर्योधन	-13970
▁देहरादून	-13971
▁परिणामतः	-13972
▁प्रीतनगर	-13973
▁राष्ट्रप	-13974
▁संवर्धित	-13975
▁उधारकर्ता	-13976
▁डेमोक्रेट	-13977
▁परीक्षाओं	-13978
▁स्टार्टअप	-13979
▁खिलाड़ियों	-13980
▁प्रत्याशित	-13981
▁प्लेटफार्म	-13982
▁रिपोर्टिंग	-13983
ace	-13984
गंध	-13985
यदि	-13986
राइ	-13987
्ते	-13988
चालन	-13989
स्का	-13990
▁ख़ु	-13991
▁छाल	-13992
▁नरक	-13993
▁मणि	-13994
▁ह्व	-13995
▁आवर्	-13996
▁कर्क	-13997
▁पीपी	-13998
▁बेवक	-13999
▁भाजक	-14000
निष्ठा	-14001
▁इन्दु	-14002
▁कार्ल	-14003
▁चढ़ाई	-14004
▁चालान	-14005
▁पाउडर	-14006
▁पूर्त	-14007
▁विसंग	-14008
▁अँग्रे	-14009
▁अंतरंग	-14010
▁अधिमान	-14011
▁अभिषेक	-14012
▁अम्लीय	-14013
▁ओड़िसा	-14014
▁कामयाब	-14015
▁मेधावी	-14016
▁हितलाभ	-14017
्यावस्था	-14018
▁इमारतें	-14019
▁रवींद्र	-14020
▁वेशभूषा	-14021
▁सूत्रों	-14022
▁उपदर्शित	-14023
▁बुकमार्क	-14024
▁मुयमंत्री	-14025
▁विस्थापित	-14026
▁कंप्यूटिंग	-14027
▁विक्रेताओं	-14028
▁दुर्व्यवहार	-14029
em	-14030
उंट	-14031
वता	-14032
ागम	-14033
ूसर	-14034
▁अऑ	-14035
▁यम	-14036
ड्डी	-14037
रिंग	-14038
▁अनल	-14039
▁निह	-14040
▁भोल	-14041
▁वाग	-14042
▁सहे	-14043
लिखित	-14044
वर्धक	-14045
▁ओजोन	-14046
▁ट्री	-14047
▁महाध	-14048
▁कंकाल	-14049
▁ज़िला	-14050
▁झीलों	-14051
▁त्रिक	-14052
▁परमान	-14053
▁पसीना	-14054
▁बैंकर	-14055
▁वक्ता	-14056
▁विलीन	-14057
▁हवाला	-14058
▁अंसारी	-14059
▁अभिकथन	-14060
▁पासवान	-14061
▁प्रजात	-14062
▁प्रतिप	-14063
▁मास्को	-14064
▁सिखाने	-14065
िवासियों	-14066
▁आयताकार	-14067
▁कलकत्ते	-14068
▁कार्तिक	-14069
▁बकरियों	-14070
▁सम्बंधी	-14071
▁त्रिपाठी	-14072
▁प्रश्नगत	-14073
▁भर्त्सना	-14074
▁इंग़्लैंड	-14075
▁अन्तरात्मा	-14076
▁विवादास्पद	-14077
▁संगठनात्मक	-14078
▁नामनिर्देशिती	-14079
▁परिसंपत्तियां	-14080
ET	-14081
णे	-14082
ंजा	-14083
दीव	-14084
भोज	-14085
मरण	-14086
ांप	-14087
ाहे	-14088
▁En	-14089
आईडी	-14090
निष्	-14091
विटी	-14092
शियल	-14093
▁नौस	-14094
▁पात	-14095
▁बहर	-14096
▁बिठ	-14097
▁मसू	-14098
▁लाओ	-14099
▁शलभ	-14100
▁सुथ	-14101
ायकों	-14102
▁अंकन	-14103
▁गन्ध	-14104
▁चौबी	-14105
▁दौलत	-14106
▁बर्न	-14107
▁शिल्	-14108
▁एकमेव	-14109
▁खोजना	-14110
▁चूँकि	-14111
▁फैक्ट	-14112
▁फॉन्ट	-14113
▁मांगे	-14114
▁मुजरा	-14115
▁लौटते	-14116
▁शिकाग	-14117
▁सन्नि	-14118
▁स्कोर	-14119
▁अनंतिम	-14120
▁इलेक्ट	-14121
▁काउंटी	-14122
▁कागजात	-14123
▁क्षत्र	-14124
▁खुलासा	-14125
▁जोड़ते	-14126
▁डिप्लो	-14127
▁ढूंढने	-14128
▁नजरिया	-14129
▁कार्यबल	-14130
▁कालिदास	-14131
▁गोवर्धन	-14132
▁निदेशों	-14133
▁अस्थिरता	-14134
▁आर्द्रता	-14135
▁इन्टरनेट	-14136
▁उत्सुकता	-14137
▁कैल्शियम	-14138
▁जबरदस्ती	-14139
▁नरेन्द्र	-14140
▁पहुंचाना	-14141
▁संवीक्षा	-14142
▁व्यवसायों	-14143
▁सूत्रकृमि	-14144
▁टेक्नोलॉजी	-14145
▁व्यवस्थापक	-14146
▁हस्तांतरित	-14147
▁प्रयोक्ताओं	-14148
▁महत्वाकांक्षी	-14149
हमी	-14150
ियॉ	-14151
आरसी	-14152
भद्र	-14153
स्वर	-14154
ुलित	-14155
▁उथल	-14156
▁जुआ	-14157
▁डोग	-14158
▁थीम	-14159
▁दोग	-14160
▁बेट	-14161
▁भती	-14162
▁यूं	-14163
▁रेस	-14164
▁लेक	-14165
खियां	-14166
मुश्त	-14167
ादायक	-14168
▁उच्छ	-14169
▁उछाल	-14170
▁जड़ी	-14171
▁बृहत	-14172
▁ब्यू	-14173
▁मीया	-14174
▁रोशन	-14175
▁आलेखी	-14176
▁दर्जन	-14177
▁प्रीत	-14178
▁फैक्स	-14179
▁फैलाव	-14180
▁बक्से	-14181
▁बूढ़ा	-14182
▁स्केल	-14183
▁अलंकार	-14184
▁दाहिने	-14185
▁फाइलों	-14186
▁बढ़ाते	-14187
▁भरतपुर	-14188
▁रिक्ति	-14189
▁शेक्सप	-14190
▁हफ्तों	-14191
द्योगिकी	-14192
▁ईर्ष्या	-14193
▁कड़ियाँ	-14194
▁कमोडिटी	-14195
▁कीबोर्ड	-14196
▁ज्योतिष	-14197
▁बोर्डों	-14198
▁सांसदों	-14199
▁आधुनिकता	-14200
▁पूर्णिमा	-14201
▁मताधिकार	-14202
▁उद्देशिका	-14203
▁एजेंसियां	-14204
▁निराश्रित	-14205
▁प्रसिद्धि	-14206
ID	-14207
df	-14208
्थ	-14209
क़ा	-14210
▁ER	-14211
▁झि	-14212
ंद्ध	-14213
नाथन	-14214
ोक्त	-14215
▁कलन	-14216
▁नंब	-14217
▁पूज	-14218
▁फिस	-14219
▁शीट	-14220
न्धित	-14221
ाध्या	-14222
▁अंगू	-14223
▁अथॉर	-14224
▁आद्य	-14225
▁इनाम	-14226
▁कहाः	-14227
▁झाड़	-14228
▁टूटी	-14229
▁तकरी	-14230
▁दरार	-14231
▁वाष्	-14232
कार्बन	-14233
गणितीय	-14234
▁गन्ने	-14235
▁दुर्द	-14236
▁फाइनल	-14237
▁बेवकू	-14238
▁ब्लाक	-14239
▁मिलों	-14240
▁मॉरिश	-14241
▁विपुल	-14242
▁सुपरि	-14243
▁सोपान	-14244
▁अन्वेष	-14245
▁गलियों	-14246
▁जाग्रत	-14247
▁थोरियम	-14248
▁पुकारा	-14249
▁ब्लेयर	-14250
▁संभाला	-14251
▁समष्टि	-14252
▁आमंत्रण	-14253
▁ईसाइयों	-14254
▁उपनिषद्	-14255
▁उपांतरण	-14256
▁उष्णकटि	-14257
▁ढांचागत	-14258
▁पशुपालन	-14259
▁मतभेदों	-14260
▁वेदान्त	-14261
▁संगृहीत	-14262
▁अध्यात्म	-14263
▁क्रमबद्ध	-14264
▁बलपूर्वक	-14265
▁सूत्रपात	-14266
▁अंधविश्वास	-14267
▁अविश्वसनीय	-14268
▁कंप्यूटरों	-14269
▁कल्याणकारी	-14270
▁गुणसूत्रों	-14271
▁निष्पक्षता	-14272
▁परिसंपत्तियों	-14273
GIN	-14274
इंग	-14275
तरा	-14276
मिट	-14277
ोबा	-14278
▁Ch	-14279
▁cr	-14280
▁उँ	-14281
▁गम	-14282
▁दन	-14283
वारे	-14284
स्मा	-14285
ाम्प	-14286
ेंटी	-14287
▁गैल	-14288
▁चश्	-14289
▁ढोर	-14290
▁सवे	-14291
▁अभिज	-14292
▁कमां	-14293
▁कुकी	-14294
▁नगरी	-14295
▁नाभि	-14296
▁बदतर	-14297
▁बायो	-14298
▁मृदु	-14299
▁सीने	-14300
▁स्वत	-14301
ोपरांत	-14302
▁अंदाज	-14303
▁असत्य	-14304
▁असफ़ल	-14305
▁गेटवे	-14306
▁नतीजे	-14307
▁पक्की	-14308
▁बगीचे	-14309
▁सादगी	-14310
ट्रिक्स	-14311
▁किरणों	-14312
▁दीवानी	-14313
▁दुविधा	-14314
▁मज़दूर	-14315
▁मीटिंग	-14316
▁मैदानी	-14317
▁सज्जनो	-14318
▁अन्तरित	-14319
▁गोदावरी	-14320
▁दीवारें	-14321
▁गोस्वामी	-14322
▁दृष्टिगत	-14323
▁परिक्रमा	-14324
▁प्रवक्ता	-14325
▁मांसपेशी	-14326
▁संख्यांक	-14327
▁स्टेडियम	-14328
▁रिक्तियों	-14329
▁विज्ञप्ति	-14330
▁विद्यापीठ	-14331
eg	-14332
सह	-14333
२५	-14334
ंबे	-14335
कें	-14336
शूल	-14337
िलन	-14338
एमसी	-14339
पीजी	-14340
ल्यू	-14341
हरित	-14342
▁अडि	-14343
▁छुआ	-14344
▁तौल	-14345
▁धुआ	-14346
▁बहू	-14347
कर्मी	-14348
न्यास	-14349
ासाहब	-14350
ियाला	-14351
▁कगार	-14352
▁कुरु	-14353
▁घाटे	-14354
▁दिग्	-14355
▁पदेन	-14356
▁पाली	-14357
▁पीएच	-14358
▁भाईच	-14359
▁साइड	-14360
▁हारा	-14361
▁अनजान	-14362
▁आईएसओ	-14363
▁क्षोभ	-14364
▁खरीदे	-14365
▁गन्ना	-14366
▁डाकघर	-14367
▁बरसों	-14368
▁बहुता	-14369
▁मुहाव	-14370
▁सीखते	-14371
▁सीनेट	-14372
▁सेनान	-14373
▁मुमकिन	-14374
▁मॉरिशस	-14375
▁राज्या	-14376
▁विस्ता	-14377
▁आपातकाल	-14378
▁दरवाज़े	-14379
▁निराकरण	-14380
▁फेडरेशन	-14381
▁महामारी	-14382
▁शपथपत्र	-14383
▁श्रीनगर	-14384
▁समाशोधन	-14385
▁समीक्षक	-14386
▁स्वास्थ	-14387
▁अवस्थिति	-14388
▁गवर्नेंस	-14389
▁बलात्कार	-14390
▁विद्रोही	-14391
▁सब्जियां	-14392
▁सेक्टरों	-14393
▁अवधारणाओं	-14394
▁उन्मुक्ति	-14395
▁पद्धतियां	-14396
▁विचारार्थ	-14397
▁विरोधियों	-14398
▁मनोविज्ञान	-14399
▁गुणवत्तापूर्ण	-14400
LE	-14401
ana	-14402
प्स	-14403
▁आण	-14404
ज्या	-14405
तरित	-14406
लपुर	-14407
लाजी	-14408
सुरी	-14409
ाज्ञ	-14410
ूदित	-14411
ेंचर	-14412
▁अनम	-14413
▁इतर	-14414
▁चेन	-14415
▁जाँ	-14416
▁मुश	-14417
ाइयां	-14418
ोत्तम	-14419
▁उसपर	-14420
▁कुवै	-14421
▁खेले	-14422
▁पारा	-14423
▁सुखा	-14424
वाहिनी	-14425
ार्द्ध	-14426
िवार्ष	-14427
▁चिन्त	-14428
▁नैदान	-14429
▁पुनरा	-14430
▁फ़रीद	-14431
▁बन्धन	-14432
▁मोहित	-14433
▁श्रीम	-14434
▁सन्धि	-14435
▁अपनाकर	-14436
▁अमूल्य	-14437
▁आवागमन	-14438
▁डिब्बा	-14439
▁डिब्बे	-14440
▁धातुओं	-14441
▁विधाओं	-14442
▁सन्तोष	-14443
श्योरेंस	-14444
▁कर्मकार	-14445
▁आनन्दमयी	-14446
▁मधुमक्खी	-14447
▁याचिकाओं	-14448
▁प्रतियोगी	-14449
▁सर्वशक्ति	-14450
▁स्थितियां	-14451
▁स्वादिष्ट	-14452
ax	-14453
१ग	-14454
▁ि	-14455
तिन	-14456
धीर	-14457
पटा	-14458
भाऊ	-14459
▁खल	-14460
घरों	-14461
च्छद	-14462
डियन	-14463
प्पी	-14464
विनय	-14465
श्ती	-14466
ारीय	-14467
▁अंट	-14468
▁अनी	-14469
▁कंब	-14470
▁कटा	-14471
▁कूप	-14472
▁घनी	-14473
▁बहा	-14474
▁रमण	-14475
चित्त	-14476
ार्कट	-14477
▁इसरो	-14478
▁काटे	-14479
▁घिरे	-14480
▁जुडा	-14481
▁डीजल	-14482
▁बाजू	-14483
▁बीएस	-14484
▁बीपी	-14485
▁महेश	-14486
▁रीडर	-14487
▁लड़े	-14488
▁हत्य	-14489
सन्देह	-14490
▁चन्दु	-14491
▁टैरिफ	-14492
▁ढाँचे	-14493
▁निपुण	-14494
▁पर्दे	-14495
▁बहाने	-14496
▁वनस्प	-14497
▁संगति	-14498
▁संज्ञ	-14499
▁साढ़े	-14500
▁सोचती	-14501
▁हैल्थ	-14502
▁अभिशाप	-14503
▁एयरलाइ	-14504
▁कुपोषण	-14505
▁दीर्घा	-14506
▁बिरूनी	-14507
▁बीकाने	-14508
▁मसालों	-14509
▁सपोर्ट	-14510
▁सर्टिफ	-14511
▁सहबद्ध	-14512
▁किफायती	-14513
▁ग्रन्थि	-14514
▁दीपावली	-14515
▁पेशियों	-14516
▁प्रांगण	-14517
▁राजनेता	-14518
▁संसाधित	-14519
▁गर्भधारण	-14520
▁दोषपूर्ण	-14521
▁प्रकार्य	-14522
▁ग्यारहवीं	-14523
▁व्यतिक्रम	-14524
▁कार्यात्मक	-14525
▁प्रतिधारित	-14526
▁विक्टोरिया	-14527
गौ	-14528
टि	-14529
ens	-14530
संप	-14531
वायर	-14532
▁धमन	-14533
▁बॉल	-14534
▁रोट	-14535
▁लता	-14536
जिस्ट	-14537
वर्गी	-14538
▁करूं	-14539
▁खाका	-14540
▁दीपू	-14541
▁द्रौ	-14542
▁पिघल	-14543
▁पेटी	-14544
▁मनोज	-14545
▁मसले	-14546
▁लटका	-14547
▁खुलकर	-14548
▁तिब्ब	-14549
▁निरंक	-14550
▁नेहरु	-14551
▁पुतली	-14552
▁बट्टा	-14553
▁लन्दन	-14554
▁लैटिन	-14555
▁सल्तन	-14556
▁आपदाओं	-14557
▁नदियाँ	-14558
▁निद्रा	-14559
▁निरहता	-14560
▁मालदीव	-14561
▁व्यंजन	-14562
▁आज्ञापक	-14563
▁कारागार	-14564
▁वर्चुअल	-14565
▁विनिश्व	-14566
▁उपायुक्त	-14567
▁कर्मकांड	-14568
▁पहुंचाया	-14569
▁पूर्णरूप	-14570
▁विश्लेषक	-14571
▁विस्फोटक	-14572
▁समसामयिक	-14573
▁पत्रकारों	-14574
▁माध्यस्थम	-14575
▁निःस्वार्थ	-14576
▁विधानमंडलों	-14577
▁समाचारपत्रों	-14578
▁दुर्भाग्यपूर्ण	-14579
ंम	-14580
पह	-14581
भे	-14582
जुए	-14583
ुरै	-14584
ोरो	-14585
एँगे	-14586
र्गत	-14587
िताब	-14588
▁आदी	-14589
▁काद	-14590
▁कोक	-14591
▁गंज	-14592
▁तमा	-14593
▁शती	-14594
▁सौद	-14595
टीकरण	-14596
ालनों	-14597
▁अमित	-14598
▁अमुक	-14599
▁उर्फ	-14600
▁जगदी	-14601
▁जलने	-14602
▁ताड़	-14603
▁फ्रे	-14604
▁वासु	-14605
▁संशय	-14606
▁सतही	-14607
▁सम्व	-14608
▁स्लो	-14609
▁आयेगा	-14610
▁उपदान	-14611
▁कराची	-14612
▁काटकर	-14613
▁कैप्ट	-14614
▁घुसपै	-14615
▁छोड़ो	-14616
▁जातीं	-14617
▁ट्रां	-14618
▁नौवहन	-14619
▁शरियत	-14620
▁संस्त	-14621
▁सुलझा	-14622
▁अनूदित	-14623
▁उद्धार	-14624
▁कक्षों	-14625
▁गुणांक	-14626
▁गोलमेज	-14627
▁निलंबन	-14628
▁भूतकाल	-14629
▁मोतिया	-14630
▁समझदार	-14631
▁उत्साही	-14632
▁बारहवीं	-14633
▁संवितरण	-14634
▁आपेक्षिक	-14635
▁उदारवादी	-14636
▁शेयरधारक	-14637
▁सभ्यतागत	-14638
▁प्रदूषकों	-14639
▁संस्थापना	-14640
▁उपन्यासकार	-14641
▁टिप्पणियां	-14642
▁दुर्घटनाओं	-14643
▁नेटवर्किंग	-14644
▁प्रतिभूतियां	-14645
SA	-14646
गढ	-14647
ंटो	-14648
जीन	-14649
ूचि	-14650
▁त्	-14651
▁नफ	-14652
ंजलि	-14653
पर्व	-14654
ूद्व	-14655
▁अख़	-14656
▁उमा	-14657
▁एस्	-14658
▁खडी	-14659
▁जया	-14660
▁जैक	-14661
▁निग	-14662
▁सुई	-14663
न्सिल	-14664
रक्षक	-14665
ारिका	-14666
▁उसमे	-14667
▁चाला	-14668
▁थाना	-14669
▁दराज	-14670
▁योगी	-14671
▁लेगी	-14672
▁अनिर्	-14673
▁खुजली	-14674
▁निचला	-14675
▁भुवने	-14676
▁सुशील	-14677
▁अतिशेष	-14678
▁आक्रोश	-14679
▁उन्हों	-14680
▁कांस्य	-14681
▁कीजिये	-14682
▁ताकतवर	-14683
▁फ़रवरी	-14684
▁फेंकने	-14685
▁फेफड़े	-14686
▁मददगार	-14687
▁रिश्ता	-14688
▁सेलुलर	-14689
▁अभ्यस्त	-14690
▁इंसुलिन	-14691
▁कश्मीरी	-14692
▁कुंजीपट	-14693
▁कॉलेजों	-14694
▁डिबेंचर	-14695
▁द्रौपदी	-14696
▁विपत्ति	-14697
▁संबन्धी	-14698
▁गेंदबाजी	-14699
▁चित्रकला	-14700
▁प्रफुल्ल	-14701
▁अल्पकालीन	-14702
▁कार्यकुशल	-14703
▁परिकल्पित	-14704
▁प्रच्छन्न	-14705
▁अभियुक्तों	-14706
▁परिवर्तनीय	-14707
▁पुनर्जागरण	-14708
▁क्षेत्राधिकार	-14709
IT	-14710
ढक	-14711
व्	-14712
ise	-14713
ंची	-14714
वेन	-14715
ापे	-14716
्यय	-14717
▁pl	-14718
▁डै	-14719
ज़ेब	-14720
दानी	-14721
नियम	-14722
बादी	-14723
श्रम	-14724
▁गाज	-14725
▁भेष	-14726
▁लेप	-14727
▁हंग	-14728
मितीय	-14729
िलिंग	-14730
▁एचआई	-14731
▁गूंज	-14732
▁चलें	-14733
▁चांद	-14734
▁थोडी	-14735
▁दंगे	-14736
▁नायर	-14737
▁बेचे	-14738
▁रंजन	-14739
▁लगान	-14740
▁सहसा	-14741
कोडिंग	-14742
▁एमसीए	-14743
▁करोगे	-14744
▁खींचा	-14745
▁घुमाव	-14746
▁जोसेफ	-14747
▁नब्बे	-14748
▁नास्त	-14749
▁बंदूक	-14750
▁बत्ती	-14751
▁सकतीं	-14752
▁समझें	-14753
▁सौम्य	-14754
▁हटाएँ	-14755
▁ऋषियों	-14756
▁करेंसी	-14757
▁देवियो	-14758
▁बुलाने	-14759
▁मिलाया	-14760
▁यथोचित	-14761
▁सुन्नी	-14762
▁परक्राम	-14763
▁पिक्सेल	-14764
▁बायोमास	-14765
▁रसायनों	-14766
▁संस्मरण	-14767
▁इंजेक्शन	-14768
▁क्रियाएं	-14769
▁प्रतिकृति	-14770
▁रक्तस्राव	-14771
▁अस्पृश्यता	-14772
▁काव्यात्मक	-14773
▁स्वायत्तता	-14774
▁विद्युतीकरण	-14775
▁सौहार्दपूर्ण	-14776
ध्	-14777
वय	-14778
ाच	-14779
क्श	-14780
टोल	-14781
वेज	-14782
कोहल	-14783
डीसी	-14784
ांगी	-14785
ित्स	-14786
ृप्त	-14787
▁आसफ	-14788
▁उनऋ	-14789
▁छपी	-14790
▁पें	-14791
▁भजन	-14792
▁राघ	-14793
▁हक़	-14794
ंबद्ध	-14795
ांटिक	-14796
▁करुण	-14797
▁गाया	-14798
▁चादर	-14799
▁दलाल	-14800
▁फतेह	-14801
▁बाएँ	-14802
▁विषै	-14803
▁हामी	-14804
ाचार्य	-14805
्रीकृत	-14806
▁अजनबी	-14807
▁क्लीन	-14808
▁चलाये	-14809
▁जिब्र	-14810
▁फास्ट	-14811
▁बोलता	-14812
▁लालसा	-14813
▁विरूप	-14814
▁सुरंग	-14815
▁अभिमान	-14816
▁प्यूपा	-14817
▁फर्मों	-14818
▁बढ़ाता	-14819
▁महालेख	-14820
▁महासाग	-14821
▁श्रोता	-14822
▁सज्जित	-14823
▁अनभिज्ञ	-14824
▁ऑप्टिकल	-14825
▁कैलेंडर	-14826
▁चर्चाओं	-14827
▁दावेदार	-14828
▁प्रलेखन	-14829
▁फ़िल्टर	-14830
▁वयस्कों	-14831
▁शासनकाल	-14832
▁एकाग्रता	-14833
▁दण्डादेश	-14834
▁राजकोषीय	-14835
▁विद्वान्	-14836
▁शस्त्रों	-14837
▁समर्थकों	-14838
▁पृष्ठांकन	-14839
▁प्रिंसिपल	-14840
▁विश्वासों	-14841
▁सिद्धार्थ	-14842
▁नवान्वेषणों	-14843
ML	-14844
OR	-14845
०घ	-14846
२ग	-14847
err	-14848
ज्म	-14849
ादु	-14850
िएट	-14851
ेला	-14852
तरफा	-14853
र्ची	-14854
वंशी	-14855
िनिक	-14856
ुराम	-14857
▁आमा	-14858
▁एबी	-14859
▁टां	-14860
▁ताम	-14861
▁बिस	-14862
▁मैल	-14863
▁रबर	-14864
▁लात	-14865
▁सिस	-14866
श्चित	-14867
ृष्टि	-14868
▁उतरे	-14869
▁ऋग्व	-14870
▁जिया	-14871
▁झटके	-14872
▁थॉमस	-14873
▁मिया	-14874
▁मेरठ	-14875
▁शेखर	-14876
▁सिंघ	-14877
▁अन्ना	-14878
▁अवसान	-14879
▁आशयित	-14880
▁खातून	-14881
▁तालीम	-14882
▁बनेगी	-14883
▁बिन्द	-14884
▁मैनें	-14885
▁संगमर	-14886
▁सज्जा	-14887
▁ऑपरेटर	-14888
▁कॉलोनी	-14889
▁बीबीसी	-14890
▁विचारक	-14891
▁स्क्वा	-14892
▁अनुवादक	-14893
▁चात्रिक	-14894
▁नैदानिक	-14895
▁परिणामी	-14896
▁प्रस्तु	-14897
▁मुल्कों	-14898
▁सुविचार	-14899
▁स्पेक्ट	-14900
▁आनुषंगिक	-14901
▁वस्तुतया	-14902
▁व्यापकता	-14903
▁समुद्रों	-14904
▁सेंटीमीटर	-14905
▁ब्रह्माण्ड	-14906
▁परिवर्तनशील	-14907
▁प्राथमिकताओं	-14908
▁शिक्षार्थियों	-14909
ya	-14910
वह	-14911
uar	-14912
कित	-14913
चिप	-14914
धिर	-14915
िगे	-14916
▁पछ	-14917
टरों	-14918
ेरों	-14919
▁कैट	-14920
▁बिच	-14921
▁मैग	-14922
▁रिम	-14923
▁सदर	-14924
क्सीन	-14925
मण्डल	-14926
लाधार	-14927
▁उंगल	-14928
▁गूढ़	-14929
▁चमत्	-14930
▁चींट	-14931
▁जनों	-14932
▁पुथल	-14933
▁बढ़त	-14934
▁वज़न	-14935
▁कागज़	-14936
▁खेलना	-14937
▁घण्टे	-14938
▁टीकरण	-14939
▁दिखते	-14940
▁बजाने	-14941
▁मकबरे	-14942
▁मराठा	-14943
▁शौर्य	-14944
▁सविनय	-14945
▁सीटों	-14946
▁हटाकर	-14947
▁हैरान	-14948
आक्साइड	-14949
▁क्लबों	-14950
▁निरोधक	-14951
▁दूरगामी	-14952
▁पांचवें	-14953
▁मूंगफली	-14954
▁राशियां	-14955
▁ग्रन्थों	-14956
▁रवीन्द्र	-14957
▁प्रान्तों	-14958
▁बाध्यताओं	-14959
▁राजनीतिज्ञ	-14960
▁पुरःस्थापित	-14961
▁आत्मनिर्भरता	-14962
उप	-14963
अंद	-14964
ञ्ज	-14965
निस	-14966
बॉल	-14967
श्न	-14968
्शा	-14969
▁ag	-14970
ंबार	-14971
चेतन	-14972
देवी	-14973
नामे	-14974
िटरी	-14975
िपति	-14976
▁उपच	-14977
▁ऑंक	-14978
▁चंप	-14979
▁तोड	-14980
▁सरस	-14981
क्कड़	-14982
▁एकाउ	-14983
▁एजें	-14984
▁कॉयर	-14985
▁चौंक	-14986
▁धीमे	-14987
▁धोने	-14988
▁शासी	-14989
▁अधिगम	-14990
▁नेटाल	-14991
▁भीष्म	-14992
▁मांगा	-14993
▁श्रीन	-14994
▁साबुन	-14995
▁हिंदु	-14996
रीक्षित	-14997
▁अधिवास	-14998
▁ऋग्वेद	-14999
▁कदाचित	-15000
▁प्रकोप	-15001
▁बांटने	-15002
▁मिस्टर	-15003
▁मेहराब	-15004
▁शिकागो	-15005
▁सेनानी	-15006
▁सोमनाथ	-15007
▁हरिभाऊ	-15008
स्ट्रिया	-15009
▁कुक्कुट	-15010
▁निरंकुश	-15011
▁प्रकाशक	-15012
▁प्रेसिड	-15013
▁बारंबार	-15014
▁भावनाएं	-15015
▁लेखांकन	-15016
▁श्रीमान	-15017
▁स्ट्राइ	-15018
▁हस्पताल	-15019
▁अध्यायों	-15020
▁उपाध्याय	-15021
▁कॉरपोरेट	-15022
▁विचारणीय	-15023
▁शरणार्थी	-15024
▁तादात्म्य	-15025
▁व्यवहारिक	-15026
▁संपरीक्षा	-15027
▁स्त्रोतों	-15028
▁पुनर्जीवित	-15029
▁संपत्तियों	-15030
▁अन्तर्विष्ट	-15031
▁प्रतिबिम्बित	-15032
▁माइक्रोसॉफ्ट	-15033
aw	-15034
ंबू	-15035
गिल	-15036
मां	-15037
विच	-15038
ितर	-15039
ूला	-15040
ौजी	-15041
▁खू	-15042
दम्य	-15043
ियें	-15044
ीलों	-15045
्राह	-15046
▁key	-15047
▁कटौ	-15048
▁बफर	-15049
▁सक्	-15050
चिह्न	-15051
टरिंग	-15052
भिव्य	-15053
मेटिक	-15054
▁एसपी	-15055
▁गतिक	-15056
▁गर्त	-15057
▁गुणन	-15058
▁नफरत	-15059
▁नाज़	-15060
▁नीली	-15061
▁पीते	-15062
▁बीता	-15063
▁ब्यो	-15064
▁सर्च	-15065
▁अर्हक	-15066
▁खिड़क	-15067
▁जागीर	-15068
▁जायगी	-15069
▁फ्लैट	-15070
▁मिठाई	-15071
▁राजनय	-15072
▁लिहाज	-15073
▁सेटअप	-15074
▁नितांत	-15075
▁पुनर्न	-15076
▁मीयादी	-15077
▁सम्पाद	-15078
▁सुगमता	-15079
▁अथॉरिटी	-15080
▁क्षितिज	-15081
▁नक्काशी	-15082
▁डिप्लोमा	-15083
▁भावात्मक	-15084
▁उपनिवेशवाद	-15085
▁कुलाध्यक्ष	-15086
▁अन्यायपूर्ण	-15087
जब	-15088
जै	-15089
२६	-15090
ंधि	-15091
कुर	-15092
गली	-15093
डिट	-15094
नीर	-15095
पुत	-15096
सिन	-15097
▁th	-15098
ंदरी	-15099
भुता	-15100
र्था	-15101
हरों	-15102
िल्द	-15103
्रोम	-15104
▁एले	-15105
▁कहो	-15106
▁खंभ	-15107
▁त्त	-15108
▁नेक	-15109
▁पंर	-15110
▁बीर	-15111
▁योर	-15112
▁लिं	-15113
▁होन	-15114
डियां	-15115
भाजित	-15116
वृक्ष	-15117
ार्डन	-15118
▁आरएफ	-15119
▁ख़ुद	-15120
▁खोने	-15121
▁खोली	-15122
▁गुटन	-15123
▁घटकर	-15124
▁चालन	-15125
▁जनना	-15126
▁नामी	-15127
▁निबट	-15128
▁नीचा	-15129
▁पीढी	-15130
▁पेची	-15131
▁मण्ड	-15132
▁मनीष	-15133
▁मलिक	-15134
▁मह्त	-15135
▁मुखौ	-15136
▁यौवन	-15137
▁रिंग	-15138
▁लाइफ	-15139
▁विभी	-15140
▁सोचो	-15141
यालयों	-15142
▁अफगान	-15143
▁अस्सी	-15144
▁चौड़े	-15145
▁धरातल	-15146
▁पत्ता	-15147
▁पुनरू	-15148
▁ब्लॉग	-15149
▁भेजता	-15150
▁लौकिक	-15151
▁साहेब	-15152
संस्कृत	-15153
्वीकृति	-15154
▁अधिशेष	-15155
▁एडवर्ड	-15156
▁मिटाना	-15157
▁मुआवजा	-15158
▁सप्लाई	-15159
▁असंतुलन	-15160
▁जमाराशि	-15161
▁बहुमुखी	-15162
▁जरूरतमंद	-15163
▁सावित्री	-15164
▁अंकगणितीय	-15165
▁अभियोजकों	-15166
▁सर्वव्यापी	-15167
▁सूक्ष्मजीव	-15168
▁स्थानापन्न	-15169
▁देशीराज्यों	-15170
तऋ	-15171
ईएस	-15172
्रू	-15173
▁गध	-15174
▁हब	-15175
काना	-15176
न्टी	-15177
भोगी	-15178
ाम्ब	-15179
▁अमन	-15180
▁अलै	-15181
▁उछल	-15182
▁कतई	-15183
▁धड़	-15184
▁पंत	-15185
▁लिन	-15186
चियों	-15187
िकारी	-15188
ॉप्टर	-15189
▁अनाम	-15190
▁ठंडी	-15191
▁पारस	-15192
▁बेने	-15193
▁माँस	-15194
▁मुनि	-15195
▁सिरा	-15196
वर्णित	-15197
▁अवचार	-15198
▁ऑर्डर	-15199
▁जानकी	-15200
▁द्वास	-15201
▁ब्याह	-15202
▁मालती	-15203
▁लचीला	-15204
▁संतों	-15205
▁सीढ़ी	-15206
▁सॉफ्ट	-15207
▁हुक्म	-15208
मान्यता	-15209
▁अनजाने	-15210
▁अफसरों	-15211
▁परिधान	-15212
▁बरकरार	-15213
▁बहरहाल	-15214
▁बीसवीं	-15215
▁मुट्ठी	-15216
▁सजावटी	-15217
▁सुनाने	-15218
▁सूर्या	-15219
▁अथारिटी	-15220
▁फिल्में	-15221
▁यूट्यूब	-15222
▁विधानों	-15223
▁औरंगज़ेब	-15224
▁चरित्रों	-15225
▁द्विवेदी	-15226
▁लड़कियां	-15227
▁चिरस्थायी	-15228
▁विनिश्चयों	-15229
▁अन्तर्निहित	-15230
oo	-15231
खनन	-15232
यली	-15233
ूरे	-15234
्रोत	-15235
▁छाँ	-15236
▁पाट	-15237
▁बरी	-15238
▁बसु	-15239
कोर्ट	-15240
पुष्प	-15241
म्ब्र	-15242
▁औरों	-15243
▁काडर	-15244
▁छद्म	-15245
▁जांघ	-15246
▁टूटे	-15247
▁थीटा	-15248
▁धनीय	-15249
▁मेटा	-15250
▁लदान	-15251
▁सुमन	-15252
▁इक्की	-15253
▁तब्दी	-15254
▁प्रदु	-15255
▁बुलेट	-15256
▁बेसिक	-15257
▁भाषाई	-15258
▁मध्या	-15259
▁लिप्य	-15260
▁वर्जन	-15261
▁हिचकि	-15262
▁टांगें	-15263
▁परिपाट	-15264
▁बनेंगे	-15265
▁रहेंगी	-15266
▁लम्बित	-15267
▁विखंडन	-15268
▁संयोजक	-15269
▁सल्तनत	-15270
▁अंबेडकर	-15271
▁अभिनंदन	-15272
▁उपदेशों	-15273
▁दृष्टिप	-15274
▁संगमरमर	-15275
▁साझेदार	-15276
▁सेवायें	-15277
▁स्मरणीय	-15278
▁अंशकालिक	-15279
▁पत्राचार	-15280
▁विनम्रता	-15281
▁विनिर्देश	-15282
▁अव्यवस्थित	-15283
▁मध्यप्रदेश	-15284
▁ईश्वरचन्द्र	-15285
ED	-15286
OL	-15287
ack	-15288
ंबी	-15289
गर्	-15290
▁gt	-15291
प्रस	-15292
बीआई	-15293
म्बन	-15294
▁अवा	-15295
▁आख़	-15296
▁उकस	-15297
▁कटे	-15298
▁नेम	-15299
▁पिश	-15300
▁सुह	-15301
ण्डिक	-15302
योजना	-15303
ानन्द	-15304
▁अलवा	-15305
▁उनपर	-15306
▁उपसभ	-15307
▁एमपी	-15308
▁चोंच	-15309
▁झूठा	-15310
▁बराक	-15311
▁माफी	-15312
▁यूटी	-15313
▁इस्ते	-15314
▁उभरने	-15315
▁कथाएं	-15316
▁किसने	-15317
▁कुसुम	-15318
▁क्रिम	-15319
▁जगाने	-15320
▁दिनेश	-15321
▁नजरिए	-15322
▁मनोबल	-15323
▁मिलनी	-15324
▁शूद्र	-15325
▁हकीकत	-15326
▁उपसर्ग	-15327
▁एकान्त	-15328
▁लालटेन	-15329
▁अंतरफलक	-15330
▁असंगठित	-15331
▁उपरान्त	-15332
▁निकालते	-15333
▁निपटारे	-15334
▁पायेंगे	-15335
▁मोहल्ला	-15336
▁लेखबद्ध	-15337
▁ट्रेनिंग	-15338
▁निवृत्ति	-15339
▁प्रशासित	-15340
▁कारपोरेशन	-15341
▁लक्षद्वीप	-15342
▁इलैक्ट्रानिक	-15343
हड़	-15344
ारत	-15345
ेनर	-15346
▁ST	-15347
▁Se	-15348
▁ma	-15349
▁सव	-15350
चनीय	-15351
डीआई	-15352
विया	-15353
ान्ट	-15354
ायंस	-15355
्रास	-15356
▁अले	-15357
▁तोप	-15358
▁फुस	-15359
▁बाउ	-15360
▁रोष	-15361
त्रों	-15362
पट्टी	-15363
▁अवधी	-15364
▁आक्र	-15365
▁कपाल	-15366
▁घाटा	-15367
▁डायल	-15368
▁बर्र	-15369
▁बारा	-15370
▁मसलन	-15371
▁सीसा	-15372
ंतुष्ट	-15373
वांशिक	-15374
▁उपहास	-15375
▁कस्टम	-15376
▁छावनी	-15377
▁जगदीश	-15378
▁झाड़ी	-15379
▁म्यां	-15380
▁युवती	-15381
▁लगाएं	-15382
▁असम्भव	-15383
▁आयामों	-15384
▁गतिरोध	-15385
▁पहचाने	-15386
▁प्रीति	-15387
▁विधायक	-15388
▁वेदांत	-15389
▁उत्तेजक	-15390
▁क्रिश्च	-15391
▁चालुक्य	-15392
▁प्रधाना	-15393
▁विवादित	-15394
▁संज्ञान	-15395
▁सिंहासन	-15396
▁दोषसिद्ध	-15397
▁नाममात्र	-15398
▁समामेलित	-15399
▁गांधीवादी	-15400
▁भित्तिस्त	-15401
▁न्यायात्रय	-15402
▁ऑस्ट्रेलियाई	-15403
AN	-15404
ust	-15405
ानन	-15406
िनो	-15407
ोहक	-15408
ंस्ट	-15409
त्तन	-15410
ामें	-15411
▁gui	-15412
▁एसए	-15413
▁जठर	-15414
▁डिम	-15415
▁पडी	-15416
▁मूस	-15417
▁रचे	-15418
▁रॉय	-15419
दृष्ट	-15420
िविटी	-15421
▁आयें	-15422
▁उपाध	-15423
▁ऑब्ज	-15424
▁कापी	-15425
▁पुडु	-15426
▁रेशे	-15427
▁सीटी	-15428
▁सेबी	-15429
▁क्रमश	-15430
▁ज़्या	-15431
▁नशीली	-15432
▁बायें	-15433
▁मत्कु	-15434
▁मदिरा	-15435
▁मुग़ल	-15436
▁समूची	-15437
▁हुमाय	-15438
▁आतिथ्य	-15439
▁आत्मिक	-15440
▁इक्कीस	-15441
▁कीड़ों	-15442
▁खींचना	-15443
▁न्यूज़	-15444
▁बहुलता	-15445
▁माताओं	-15446
▁विंडोज	-15447
▁शनिवार	-15448
▁स्वत्व	-15449
कर्मियों	-15450
▁इजरायली	-15451
▁एकमुश्त	-15452
▁कलेक्टर	-15453
▁जवाबदेह	-15454
▁धारणाओं	-15455
▁परिसम्प	-15456
▁प्रदुषण	-15457
▁बहादुरी	-15458
▁बिंदुओं	-15459
▁तस्वीरों	-15460
▁निर्वसीय	-15461
▁पहुँचाने	-15462
▁बैरिस्टर	-15463
▁यूनेस्को	-15464
▁संगीतकार	-15465
▁संवृद्धि	-15466
▁जमींदारों	-15467
▁द्वीपसमूह	-15468
▁विदेशियों	-15469
▁वृत्ताकार	-15470
▁सुस्थापित	-15471
▁आदिवासियों	-15472
▁अभ्यर्थियों	-15473
▁विनिधानकर्ता	-15474
ऋआ	-15475
खट	-15476
यना	-15477
रेक	-15478
सना	-15479
िके	-15480
▁le	-15481
▁फत	-15482
▁षड	-15483
एमएल	-15484
डीएस	-15485
र्नी	-15486
लाना	-15487
▁आंर	-15488
▁डरा	-15489
▁नबी	-15490
▁बचन	-15491
▁मेस	-15492
▁हमद	-15493
▁हाऊ	-15494
▁हाम	-15495
▁maoM	-15496
▁अतुल	-15497
▁गोरे	-15498
▁घटती	-15499
▁चाकू	-15500
▁डीलर	-15501
▁तटों	-15502
▁पूति	-15503
▁बावत	-15504
▁लडाई	-15505
▁वादक	-15506
▁विकट	-15507
▁सीएस	-15508
▁सूँघ	-15509
▁सोची	-15510
्वाइंट	-15511
▁अधिना	-15512
▁आएंगे	-15513
▁करतीं	-15514
▁कीचड़	-15515
▁गंदगी	-15516
▁दायें	-15517
▁प्रलो	-15518
▁बहुसं	-15519
▁बूझकर	-15520
▁मुकर्	-15521
▁मुज्ह	-15522
▁मुमता	-15523
▁रक्ता	-15524
▁रहमान	-15525
▁लिखीं	-15526
▁लिफ्ट	-15527
▁हिदाय	-15528
मन्त्री	-15529
▁आदित्य	-15530
▁परिकलन	-15531
▁बेचैनी	-15532
▁भव्यता	-15533
▁मशीनें	-15534
▁अधिरचना	-15535
▁क्षयरोग	-15536
▁अधिष्ठान	-15537
▁आत्मघाती	-15538
▁कोलंबिया	-15539
▁ज़िन्दगी	-15540
▁प्रोसेसर	-15541
▁सभ्यताओं	-15542
▁भाग्यशाली	-15543
▁रिपब्लिकन	-15544
▁रिश्तेदार	-15545
▁अंतर्वस्तु	-15546
▁हतोत्साहित	-15547
▁प्रतिष्ठानों	-15548
वध	-15549
ire	-15550
ंगु	-15551
ंठन	-15552
जनी	-15553
लीक	-15554
िकर	-15555
ुसू	-15556
▁ऑर	-15557
▁डच	-15558
▁वल	-15559
ंगली	-15560
ायिक	-15561
िएटर	-15562
ुकाम	-15563
ूतों	-15564
▁आवक	-15565
▁इको	-15566
▁खरे	-15567
▁सुध	-15568
ख़ाना	-15569
ढियों	-15570
िक्शन	-15571
▁कलंक	-15572
▁कीटा	-15573
▁खोजा	-15574
▁गुणक	-15575
▁चंदन	-15576
▁चम्प	-15577
▁चुरा	-15578
▁थकान	-15579
▁निशा	-15580
▁पतले	-15581
▁पूना	-15582
▁फैशन	-15583
▁भालू	-15584
▁महीन	-15585
▁मुहा	-15586
▁रॉयल	-15587
▁विंग	-15588
▁श्रृ	-15589
▁सीपी	-15590
▁हँसी	-15591
▁हुयी	-15592
▁उपनाम	-15593
▁ऑंकडा	-15594
▁कन्नड	-15595
▁कवरेज	-15596
▁काश्त	-15597
▁खिसका	-15598
▁ठहरने	-15599
▁तकिया	-15600
▁नाकाम	-15601
▁निर्भ	-15602
▁पायलट	-15603
▁पिक्स	-15604
▁बचाना	-15605
▁लौटकर	-15606
▁विषाद	-15607
▁सूफ़ी	-15608
▁हैंडल	-15609
▁अप्रिय	-15610
▁आराधना	-15611
▁तर्कों	-15612
▁निबंधन	-15613
▁मनमोहन	-15614
▁रूकावट	-15615
▁वाहिका	-15616
▁शुद्धि	-15617
▁नरसंहार	-15618
▁रास्तों	-15619
▁वादियों	-15620
▁कृतज्ञता	-15621
▁तानाशाही	-15622
▁पहाडियों	-15623
▁प्रकारों	-15624
▁प्रतिध्व	-15625
▁प्रतीकों	-15626
▁प्रमाणों	-15627
▁ज्योतिर्म	-15628
▁प्रशासकों	-15629
▁विशेषताएँ	-15630
▁सिपाहियों	-15631
▁स्क्वाड्र	-15632
▁अनियंत्रित	-15633
▁स्वातंत्र्य	-15634
ue	-15635
[...]
