<unk>	0
<s>	0
</s>	0
UuRrLl	0
DdAaTtEe	0
NnUuMm	0
▁	-3.25043
▁के	-3.43476
▁।	-3.78566
▁है	-3.80429
▁,	-3.85994
▁में	-3.89055
▁की	-4.07199
▁और	-4.23351
▁से	-4.40838
▁का	-4.43432
▁को	-4.44805
▁.	-4.54598
▁-	-4.77154
▁हैं	-4.92489
ों	-4.97115
▁पर	-5.01492
▁एक	-5.02021
▁लिए	-5.06144
०	-5.07943
▁कि	-5.11692
ी	-5.32932
▁यह	-5.35475
▁)	-5.38866
▁नहीं	-5.39553
▁(	-5.40056
▁भी	-5.44416
▁किया	-5.48841
▁इस	-5.49097
▁या	-5.50334
▁करने	-5.51072
▁जो	-5.59733
▁हो	-5.59892
▁ने	-5.65942
▁कर	-5.66448
१	-5.71916
ा	-5.79353
▁था	-5.8115
▁तथा	-5.83068
▁ही	-5.83325
न	-5.8895
▁गया	-5.93941
ता	-6.00159
▁किसी	-6.03784
▁द्वारा	-6.0553
▁तो	-6.05899
क	-6.08443
▁रूप	-6.10268
▁वह	-6.12626
▁अपने	-6.17528
े	-6.23752
▁साथ	-6.26948
▁भारत	-6.30396
२	-6.30975
▁जा	-6.35042
▁न	-6.37275
▁जाता	-6.40416
▁तक	-6.41603
▁करना	-6.43193
▁थे	-6.45154
▁वे	-6.45516
र	-6.4606
▁कुछ	-6.47142
▁'	-6.47279
ना	-6.48867
▁कोई	-6.49463
▁होता	-6.54899
▁दिया	-6.55107
ं	-6.56284
▁/	-6.58346
म	-6.59066
▁सकता	-6.59428
▁हम	-6.60527
स	-6.61448
▁;	-6.62148
▁थी	-6.6423
ने	-6.65102
ल	-6.65175
▁समय	-6.66428
▁करते	-6.69512
▁हुए	-6.70757
▁अधिक	-6.71118
▁मैं	-6.72527
▁करता	-6.73439
▁आप	-6.73498
▁जब	-6.76107
त	-6.76733
▁अन्य	-6.7933
▁अपनी	-6.79583
ित	-6.79837
▁चाहिए	-6.81062
▁उस	-6.81611
ो	-6.82668
▁उनके	-6.86331
▁:	-6.86646
▁रहा	-6.86764
▁बहुत	-6.87578
▁?	-6.88437
▁वाले	-6.89306
▁होने	-6.90175
▁कार्य	-6.90241
ि	-6.92293
▁गई	-6.9268
▁रहे	-6.93094
३	-6.93736
▁राज्य	-6.94109
ओं	-6.94499
▁सभी	-6.94542
▁बाद	-6.94748
▁जाने	-6.94898
▁कहा	-6.9526
▁प्रकार	-6.95584
▁उसके	-6.96095
▁ऐसे	-6.99798
▁होती	-7.00076
▁प्राप्त	-7.0105
▁कम	-7.0181
्	-7.02299
▁इन	-7.0284
▁सरकार	-7.03324
कर	-7.03588
▁आ	-7.03954
व	-7.04096
ियों	-7.04558
▁तरह	-7.06381
▁क्षेत्र	-7.06664
▁होगा	-7.06875
▁हुआ	-7.07011
▁अ	-7.07804
▁गए	-7.07956
▁भारतीय	-7.08386
▁इसके	-7.09011
▁राष्ट्रपति	-7.09018
▁प्रति	-7.0942
▁सकते	-7.09745
▁एवं	-7.09765
▁कारण	-7.09977
▁उसे	-7.10009
▁किए	-7.10793
ते	-7.11006
▁उन्हें	-7.12063
▁उन्होंने	-7.12811
▁विकास	-7.13038
▁बात	-7.13088
▁करें	-7.13738
▁यदि	-7.14014
▁क्या	-7.14272
▁व्यक्ति	-7.14444
▁दो	-7.14562
▁अधिनियम	-7.1481
प	-7.15485
▁देश	-7.15581
▁धारा	-7.15765
▁पहले	-7.15863
▁न्यायालय	-7.18806
▁लेकिन	-7.20108
▁ऐसा	-7.20947
▁दी	-7.21376
▁वर्ष	-7.22283
▁जाती	-7.25491
य	-7.26395
▁ऐसी	-7.26636
ट	-7.27485
▁लोगों	-7.28582
▁जीवन	-7.28864
▁अब	-7.2965
▁बारे	-7.29981
▁हमारे	-7.30663
▁ये	-7.31079
ग	-7.31648
ज	-7.31673
ीय	-7.32177
ः	-7.32642
▁उनकी	-7.33065
ें	-7.34655
▁काम	-7.34701
▁जैसे	-7.34728
ब	-7.36486
▁होते	-7.37387
▁नाम	-7.37687
▁अधीन	-7.39247
द	-7.39259
▁ओर	-7.39696
▁मुझे	-7.40211
ह	-7.4031
▁फिर	-7.40805
▁केवल	-7.4097
श	-7.41137
▁पूर्व	-7.41182
▁हुई	-7.41721
▁क	-7.41924
ती	-7.42591
▁सी	-7.42673
▁जाना	-7.42717
▁रही	-7.42843
िक	-7.43384
▁बीच	-7.45773
▁प्रदान	-7.46135
▁बार	-7.46909
▁भाग	-7.46954
ड	-7.47212
४	-7.4845
▁उन	-7.49249
▁सं	-7.50943
▁अथवा	-7.51624
▁देने	-7.51795
▁विचार	-7.52231
▁प्रयोग	-7.52246
▁श्री	-7.52396
▁व	-7.52782
▁“	-7.53527
▁वाली	-7.54115
ण	-7.54674
▁जिसमें	-7.55839
▁ए	-7.57119
▁जहां	-7.5753
री	-7.58094
▁ले	-7.581
▁दोनों	-7.58149
ई	-7.58378
▁सकती	-7.58596
▁पास	-7.58628
▁मे	-7.58873
▁वि	-7.60654
▁करती	-7.60965
▁इसे	-7.61036
▁राष्ट्रीय	-7.6108
▁तब	-7.61138
▁संबंध	-7.61613
▁होना	-7.62868
▁उसकी	-7.62985
▁%	-7.63566
▁उपयोग	-7.63646
▁स	-7.63654
▁उच्च	-7.63665
का	-7.63667
▁विधि	-7.63848
▁प्रक्रिया	-7.63905
ला	-7.64061
्य	-7.64938
▁प्र	-7.65528
▁स्थान	-7.65668
▁विशेष	-7.6665
रा	-7.67394
एं	-7.67472
▁सबसे	-7.68018
▁लिया	-7.68315
▁शिक्षा	-7.68486
▁दिन	-7.68832
▁क्योंकि	-7.69191
▁आधार	-7.70396
▁s	-7.71293
▁जाते	-7.71715
▁हमें	-7.71742
या	-7.72183
▁हूं	-7.72244
▁अपना	-7.7226
▁संबंधित	-7.72314
▁स्थिति	-7.72385
ू	-7.72435
▁सूचना	-7.72455
▁लोग	-7.72557
ु	-7.72661
ख	-7.73684
▁कभी	-7.74695
▁उपलब्ध	-7.75813
▁सेवा	-7.75847
▁विश्व	-7.76244
▁अनुसार	-7.77183
▁ग	-7.77854
वा	-7.78359
▁सहायता	-7.78953
▁सब	-7.79292
▁कई	-7.79832
▁लिये	-7.80236
▁विभिन्न	-7.80383
▁आय	-7.80456
▁ख	-7.81014
ड़	-7.81355
▁मामले	-7.81488
▁जाएगा	-7.81785
▁अगर	-7.82322
▁दूसरे	-7.82467
नी	-7.82661
▁आज	-7.83439
▁योजना	-7.8349
▁मुख्य	-7.84395
▁इसलिए	-7.85181
▁दौरान	-7.85197
▁उसका	-7.85223
्स	-7.85325
▁अलग	-7.8538
▁उनका	-7.8548
▁जी	-7.85619
▁>	-7.86401
▁अधिकार	-7.87233
▁इसका	-7.87364
ए	-7.8747
के	-7.87597
▁जाए	-7.88284
▁हर	-7.88417
▁शक्ति	-7.8842
▁वाला	-7.88439
▁शामिल	-7.88628
▁"	-7.88738
▁आदि	-7.89317
▁अनेक	-7.8963
▁&	-7.89914
५	-7.90534
िंग	-7.90638
▁उसने	-7.90891
▁संख्या	-7.91021
सी	-7.92358
▁गये	-7.92525
▁दे	-7.93137
▁भाषा	-7.95206
च	-7.95399
▁जिसे	-7.96141
▁प्रत्येक	-7.96583
▁अर्थ	-7.96598
ली	-7.97244
▁म	-7.97275
▁उत्तर	-7.97281
▁निर्माण	-7.97806
▁जल	-7.97952
▁पत्र	-7.98093
▁यहां	-7.98459
मा	-7.98742
▁सु	-7.99406
▁ध्यान	-7.99504
▁उप	-8.00095
▁बनाने	-8.0025
▁आपको	-8.00444
▁पी	-8.00585
▁होगी	-8.01189
▁महत्वपूर्ण	-8.01263
▁प्रयास	-8.01306
▁बना	-8.01356
▁प्रभाव	-8.01411
▁नई	-8.01548
▁स्तर	-8.01569
▁तैयार	-8.01614
▁तीन	-8.02091
▁जिसके	-8.02404
फ	-8.0246
▁अवसर	-8.0306
यों	-8.0332
▁हेतु	-8.03579
▁बाहर	-8.03602
▁बिना	-8.03696
▁0	-8.03805
ज़	-8.04168
▁प्रतिशत	-8.04307
▁पता	-8.04395
▁हमारी	-8.04607
”	-8.04697
▁आर्थिक	-8.04941
▁सामान्य	-8.05022
▁देता	-8.05044
▁जनता	-8.05679
की	-8.05851
▁विषय	-8.06051
▁लोक	-8.06075
▁#	-8.06415
▁धर्म	-8.06448
▁आवश्यक	-8.06641
▁बैंक	-8.0667
▁नि	-8.07258
▁कु	-8.07307
▁इससे	-8.08034
पूर्ण	-8.0805
▁आगे	-8.08608
▁मन	-8.094
▁सके	-8.09416
िया	-8.10038
▁करके	-8.10058
से	-8.10228
▁एस	-8.10253
▁आवश्यकता	-8.10283
▁समाज	-8.10352
▁मूल	-8.10394
थ	-8.10397
ाई	-8.10667
▁बन	-8.10865
▁प	-8.11088
▁देना	-8.11324
ियां	-8.11349
▁”	-8.11607
▁वहां	-8.12001
▁शुरू	-8.1221
▁प्रमुख	-8.12358
▁इसमें	-8.12432
▁खंड	-8.12597
जी	-8.12778
▁जिस	-8.13165
▁लागू	-8.13364
▁विश्वास	-8.13454
▁चार	-8.13789
▁हों	-8.13999
ंग	-8.14092
▁क्षेत्रों	-8.14684
▁ब	-8.14723
▁पूरी	-8.15172
▁जारी	-8.15243
▁प्रौद्योगिकी	-8.15356
▁आपके	-8.15436
▁लाभ	-8.15544
▁सामाजिक	-8.15895
▁मेरे	-8.16139
▁आदेश	-8.16224
▁दर	-8.16323
▁प्रणाली	-8.16497
▁काफी	-8.16509
▁ज्ञान	-8.16639
▁लगा	-8.16733
ऋ	-8.16974
▁इसी	-8.1758
▁स्वयं	-8.17659
▁पूरा	-8.18016
▁आई	-8.18048
▁भवन	-8.18165
▁इ	-8.18519
▁घर	-8.18611
▁‘	-8.18842
▁पूर्ण	-8.1911
▁नीति	-8.19736
▁ऋण	-8.20099
▁माध्यम	-8.20559
▁तुम	-8.20695
▁अभि	-8.20743
▁व्यवस्था	-8.20863
▁स्थापित	-8.20929
▁उद्योग	-8.21001
▁गयी	-8.21118
र्इ	-8.21298
▁लगभग	-8.2133
▁दूर	-8.21567
▁सदस्य	-8.21743
▁कंपनी	-8.21939
▁मामलों	-8.22265
▁निर्णय	-8.22385
ले	-8.22509
▁अवधि	-8.22723
’	-8.2277
▁आयोग	-8.23377
▁मूल्य	-8.23429
▁हूँ	-8.23637
▁रिपोर्ट	-8.23881
▁जानकारी	-8.24068
▁समान	-8.24191
▁मैंने	-8.24608
▁बड़ी	-8.2516
▁अनु	-8.25206
▁सुरक्षा	-8.25449
▁कार्यक्रम	-8.25566
गी	-8.25781
▁पद	-8.25805
▁मिल	-8.25855
▁!	-8.25916
▁कृषि	-8.26007
▁सा	-8.26245
▁परिवर्तन	-8.26426
▁ई	-8.26486
▁स्पष्ट	-8.2697
▁मानव	-8.26999
▁विज्ञान	-8.27055
▁संविधान	-8.27133
▁द	-8.2767
▁सभा	-8.28329
▁कुल	-8.28486
सा	-8.28601
िका	-8.28724
▁विभाग	-8.28832
▁राशि	-8.28897
▁अभी	-8.29042
▁शब्द	-8.29043
▁जिससे	-8.29517
▁ऊ	-8.29634
▁इसकी	-8.29634
▁देशों	-8.29649
▁जिसका	-8.29688
▁स्वीकार	-8.29698
▁अधिकारी	-8.29742
▁ठीक	-8.30441
▁प्रस्तुत	-8.3046
▁देते	-8.30578
▁संबंधी	-8.30783
ति	-8.30828
▁रखने	-8.30998
▁उत्पादन	-8.31384
ै	-8.31446
▁अंतर्गत	-8.32082
▁सूची	-8.32232
▁रखा	-8.32367
▁जैसा	-8.32667
▁त	-8.32738
▁उद्देश्य	-8.32832
▁सुधार	-8.33042
▁बड़े	-8.3316
▁<	-8.33196
▁पा	-8.33227
▁उपधारा	-8.33296
रे	-8.33315
▁ऊपर	-8.33783
▁संघ	-8.33815
▁राष्ट्र	-8.33971
▁सीमा	-8.35035
▁शरीर	-8.35157
स्त	-8.35622
▁ओ	-8.35793
▁बल्कि	-8.35931
▁मध्य	-8.36034
६	-8.36058
ध	-8.36406
वि	-8.36913
▁चाहते	-8.36969
▁मेरी	-8.37599
▁रह	-8.37709
▁समूह	-8.38035
▁एन	-8.38423
▁ली	-8.38651
▁उ	-8.38695
▁समिति	-8.38883
▁दृष्टि	-8.39214
▁विशिष्ट	-8.39288
▁क्षमता	-8.39389
़	-8.39533
को	-8.39717
▁सही	-8.39733
▁उपबंध	-8.39748
ात्मक	-8.40272
▁अतिरिक्त	-8.40566
▁ज	-8.40577
▁प्रश्न	-8.40821
▁अनुच्छेद	-8.40902
▁देखा	-8.40916
▁सामने	-8.41355
ंड	-8.41356
▁रंग	-8.4144
▁आने	-8.4147
कार	-8.41666
▁नीचे	-8.4174
▁यहाँ	-8.41785
▁न्याय	-8.42026
▁युद्ध	-8.42406
▁कहते	-8.42479
▁नियम	-8.4251
ीकरण	-8.42638
▁मांग	-8.42787
▁स्वास्थ्य	-8.42893
▁वर्ग	-8.43
▁च	-8.43246
गत	-8.43359
▁बल	-8.43534
▁बी	-8.4354
▁यात्रा	-8.4389
▁भर	-8.44363
▁ला	-8.44439
▁परंतु	-8.4448
▁सहयोग	-8.44551
▁अनुसंधान	-8.44553
▁लेने	-8.4463
मान	-8.45061
▁स्थित	-8.45079
▁बे	-8.45193
▁आर	-8.45316
▁वर्तमान	-8.45469
▁वस्तु	-8.45537
▁पानी	-8.45972
ॉ	-8.46055
▁दिए	-8.46382
▁परन्तु	-8.46396
▁यू	-8.46409
▁ह	-8.46439
्र	-8.46564
▁वर्षों	-8.46614
s	-8.46711
▁प्रयोजन	-8.46714
▁व्यापार	-8.46834
▁साल	-8.46857
▁छोटे	-8.4704
▁विवाह	-8.47285
▁संयुक्त	-8.47355
▁विदेशी	-8.47388
▁अनुभव	-8.47404
दार	-8.47713
दा	-8.48021
▁निर्धारण	-8.48122
▁डी	-8.48189
टी	-8.48222
▁परि	-8.48432
▁करेगा	-8.48551
▁आम	-8.48726
▁अंत	-8.48851
▁सिंह	-8.4907
▁जमा	-8.49315
▁उससे	-8.49322
▁होंगे	-8.49521
▁व्यक्तियों	-8.496
▁राज	-8.49711
▁भीतर	-8.49843
भ	-8.49852
▁थीं	-8.49884
▁वास्तव	-8.50041
▁मृत्यु	-8.50073
▁बच्चों	-8.50211
▁बड़ा	-8.50282
▁तौर	-8.50609
न्	-8.50765
▁आधारित	-8.50766
▁नियंत्रण	-8.50788
▁अव	-8.50805
▁प्रथम	-8.50927
▁उसी	-8.51041
▁उच्चतम	-8.51145
ओ	-8.51741
▁अध्ययन	-8.51812
▁रहने	-8.51914
स्ट	-8.51933
वी	-8.52073
▁प्रदेश	-8.52219
▁वृद्धि	-8.5259
▁उदाहरण	-8.52626
▁विश्वविद्यालय	-8.52672
▁नही	-8.52832
प्र	-8.5298
▁रहते	-8.52988
▁माल	-8.53206
ँ	-8.5349
एँ	-8.53548
▁ज्यादा	-8.53639
▁संस्थान	-8.5368
▁मत	-8.53721
e	-8.53996
ौ	-8.5434
▁समाप्त	-8.54418
▁सरकारी	-8.54457
▁लगता	-8.54491
▁अप	-8.54547
गा	-8.54554
▁दूसरी	-8.54802
▁विकसित	-8.54946
▁न्यायाधीश	-8.55223
▁परिणाम	-8.55392
▁करेंगे	-8.55399
▁काल	-8.55465
▁अंतिम	-8.55706
▁नए	-8.55888
▁जन्म	-8.559
▁बाजार	-8.55918
▁वित्तीय	-8.56103
ष	-8.56355
▁मदद	-8.56455
▁प्रकृति	-8.56582
▁जांच	-8.56638
▁अपील	-8.56712
छ्ष	-8.56778
ण्श्	-8.56822
▁पैदा	-8.56895
▁प्रस्ताव	-8.57064
▁भूमि	-8.57129
▁उत्पन्न	-8.57415
▁धन	-8.575
डी	-8.57504
▁स्थापना	-8.57783
▁पहचान	-8.57835
▁दिल्ली	-8.57866
▁निर्धारित	-8.57962
▁लेकर	-8.58404
▁इतिहास	-8.58487
▁कैसे	-8.58519
▁केंद्र	-8.58571
▁बस	-8.5859
▁अन	-8.58641
▁भूमिका	-8.58808
▁किंतु	-8.58809
▁जन	-8.59136
टा	-8.59148
▁रुप	-8.59305
▁संदेश	-8.59382
▁रोग	-8.59717
▁हाथ	-8.5984
फ़	-8.60005
▁स्वतंत्रता	-8.60049
▁आवेदन	-8.60318
▁समस्या	-8.60436
▁सदस्यों	-8.60477
▁किये	-8.60487
▁पुनः	-8.60491
▁संगठन	-8.60653
▁घ	-8.60887
▁करे	-8.61007
▁हमने	-8.61077
पुर	-8.61225
▁शासन	-8.61341
नि	-8.61414
▁खोज	-8.61464
▁संशोधन	-8.61535
ठ	-8.61544
▁संसद	-8.61551
▁मात्रा	-8.61585
▁अच्छा	-8.6165
0	-8.61723
▁माना	-8.61772
▁पहुंच	-8.61958
▁परिवार	-8.62091
▁आरंभ	-8.62875
▁कानून	-8.63145
▁समझ	-8.63181
▁ल	-8.63233
▁पक्ष	-8.6329
▁भिन्न	-8.63413
▁राज्यों	-8.63645
▁सत्ता	-8.63686
▁छ	-8.63818
▁कांग्रेस	-8.63928
ण्ड	-8.64028
▁बाहरी	-8.64204
▁सहित	-8.64242
▁बनाया	-8.64474
▁छोड़	-8.65128
▁सन्	-8.65553
▁बराबर	-8.65605
▁भुगतान	-8.65631
▁मिला	-8.65673
▁यही	-8.65679
▁निवेश	-8.65906
▁अच्छी	-8.65981
▁साहित्य	-8.65995
बी	-8.66018
▁उचित	-8.6605
▁ताकि	-8.66055
▁सुनिश्चित	-8.66063
७	-8.66076
▁राय	-8.6612
▁दक्षिण	-8.66461
▁लाख	-8.66517
▁राम	-8.66685
हा	-8.66701
▁व्यापक	-8.66905
▁विस्तार	-8.67031
▁प्रशिक्षण	-8.67037
▁सह	-8.67247
▁भ	-8.67531
में	-8.67698
ास	-8.67758
▁दुनिया	-8.67862
ड़ा	-8.67869
▁खेल	-8.67893
▁बनाए	-8.6796
▁अपराध	-8.68004
▁प्रेम	-8.68035
▁जबकि	-8.68411
▁स्थानीय	-8.68486
▁जाएगी	-8.68522
▁रहता	-8.68632
▁जिन	-8.68962
o	-8.68993
रो	-8.69338
▁लक्ष्य	-8.69442
▁विरुद्ध	-8.69495
▁पश्चात्	-8.69541
▁उसमें	-8.69799
ंट	-8.69918
कारी	-8.69983
▁तहत	-8.70021
▁अपेक्षा	-8.70029
▁दिशा	-8.70413
▁बा	-8.7042
इ	-8.70446
▁अमेरिका	-8.70585
▁देख	-8.70621
▁जगह	-8.7088
▁कल	-8.70996
▁एम	-8.71021
▁जरूरत	-8.71032
▁निर्दिष्ट	-8.71083
▁चल	-8.7116
▁मार्ग	-8.71455
वाद	-8.71565
▁चला	-8.71768
▁बच्चे	-8.71806
▁उनमें	-8.72007
▁बंद	-8.72023
पी	-8.72033
▁होकर	-8.72226
▁प्रभावित	-8.72491
▁पीछे	-8.72522
वर	-8.72557
त्र	-8.72653
अ	-8.72974
करण	-8.73099
▁आकार	-8.73233
▁चाहिये	-8.73332
▁पर्याप्त	-8.73447
स्	-8.73482
▁क्रिया	-8.73498
▁सत्य	-8.73587
▁वेबसाइट	-8.73622
▁प्रबंधन	-8.73711
▁बाल	-8.73934
ंस	-8.73986
▁पिता	-8.74172
▁सार्वजनिक	-8.74234
घ	-8.74355
▁ट	-8.74373
▁पूंजी	-8.75145
▁हे	-8.75151
▁कमी	-8.75303
a	-8.75419
▁निम्नलिखित	-8.75531
▁A	-8.75591
▁पिछले	-8.7571
▁पुलिस	-8.75801
▁परियोजना	-8.75862
सं	-8.7605
▁मु	-8.76333
मी	-8.76359
▁प्रवेश	-8.7638
▁गांधी	-8.76423
▁दिनों	-8.76452
त्व	-8.76596
आ	-8.7667
पन	-8.76729
▁मंदिर	-8.76751
तः	-8.76809
▁आया	-8.76925
▁केंद्रीय	-8.77133
जा	-8.77172
िन	-8.77463
▁पहली	-8.77553
▁गैर	-8.77781
▁वो	-8.78087
्या	-8.78094
▁सक्रिय	-8.78459
▁क्यों	-8.78486
ंक	-8.78571
बा	-8.78589
▁मान	-8.7859
▁र	-8.78632
▁दंड	-8.78769
▁सर	-8.78937
▁प्रगति	-8.7894
▁कहीं	-8.78947
▁कह	-8.78964
▁सम	-8.78995
▁महा	-8.79006
▁संभव	-8.79638
▁अलावा	-8.79923
▁फाइल	-8.80024
तर	-8.80133
▁निश्चित	-8.80187
▁विवरण	-8.80248
▁ग्रामीण	-8.80358
▁ऊर्जा	-8.80389
▁शब्दों	-8.8052
▁अनुमति	-8.80539
▁मंत्रालय	-8.80602
▁चाहे	-8.80671
ंद	-8.80729
▁व्यवहार	-8.80866
▁व्यक्त	-8.80978
▁बीमा	-8.80978
▁औद्योगिक	-8.80982
▁राजा	-8.81047
▁याद	-8.81249
र्स	-8.81291
▁बदल	-8.81473
▁पार	-8.81518
▁बोर्ड	-8.81579
▁झ	-8.81685
वादी	-8.81743
▁अध्यक्ष	-8.81914
▁लगे	-8.82008
▁ढंग	-8.82097
▁गति	-8.82101
▁लिखा	-8.82118
▁समर्थन	-8.8212
▁नदी	-8.82304
▁रचना	-8.82499
▁स्व	-8.82667
▁पांच	-8.82675
t	-8.82694
मे	-8.82709
▁करोड़	-8.82732
▁अंग	-8.82963
▁महत्व	-8.83018
▁जिन्हें	-8.83165
ार	-8.8354
वे	-8.83543
▁सक्षम	-8.83652
▁संस्था	-8.83731
▁शायद	-8.83904
▁इस्तेमाल	-8.84033
▁लेखा	-8.843
▁सुविधा	-8.84304
▁देती	-8.84408
▁राजनीतिक	-8.84425
▁कला	-8.84425
▁समाधान	-8.84455
▁आधुनिक	-8.84561
दी	-8.84572
▁महान	-8.849
▁केन्द्र	-8.85108
▁प्रकाश	-8.85229
ड़ी	-8.8535
▁खर्च	-8.85533
▁चिकित्सा	-8.8554
▁अल	-8.8568
▁चुका	-8.85746
▁प्रकट	-8.85843
▁जिनमें	-8.85877
▁पाया	-8.85912
▁इतना	-8.86219
्म	-8.86297
पर	-8.86578
जन	-8.86625
▁मुखर्जी	-8.8675
▁एल	-8.86755
▁भा	-8.86978
▁टी	-8.87128
▁एक्स	-8.87172
▁ईश्वर	-8.87217
▁सहायक	-8.87547
▁फ	-8.8757
▁भविष्य	-8.87714
▁योग्य	-8.8776
▁स्कूल	-8.88032
म्ब	-8.88033
i	-8.881
▁मेरा	-8.88131
▁मनुष्य	-8.88369
▁सामग्री	-8.88555
यां	-8.88628
▁मुक्त	-8.88701
▁बंगाल	-8.88717
▁न्यायिक	-8.88794
▁जैसी	-8.88832
▁हमारा	-8.88888
▁मि	-8.88953
▁भाव	-8.88955
▁चाहता	-8.89107
▁य	-8.8913
▁पालन	-8.89137
छ	-8.89218
▁सो	-8.89275
▁तारीख	-8.89301
▁निर्यात	-8.89362
▁पूरे	-8.89378
▁वास्तविक	-8.89574
▁वापस	-8.89637
▁श	-8.89711
▁रक्षा	-8.89823
▁पुस्तक	-8.89839
▁संरक्षण	-8.89854
▁हाल	-8.89904
▁निजी	-8.89962
ाव	-8.90058
▁कविता	-8.90563
तम	-8.90631
▁संपत्ति	-8.90644
क्ष	-8.90674
▁प्रकाशित	-8.90721
▁बनाम	-8.90775
▁नया	-8.90837
▁पुरस्कार	-8.90843
हार	-8.90993
▁विधान	-8.91031
▁यद्यपि	-8.91051
▁दल	-8.91236
म्	-8.91367
क्स	-8.91484
▁किस	-8.91575
▁अति	-8.9165
▁पे	-8.91713
▁प्रारंभ	-8.91721
▁लग	-8.91766
▁जीव	-8.9184
रण	-8.91929
▁आत्मा	-8.91966
▁अवस्था	-8.91976
▁रक्त	-8.92092
िल	-8.9214
▁सोच	-8.92148
▁इनमें	-8.92175
कर्ता	-8.92216
▁न्यायालयों	-8.92228
▁रकम	-8.92314
▁पृष्ठ	-8.92408
▁जे	-8.92507
▁समक्ष	-8.92551
▁दशा	-8.92618
▁चर्चा	-8.9263
▁भावना	-8.9267
▁निर्देश	-8.9275
▁रखना	-8.92938
▁कवि	-8.93083
▁हमेशा	-8.93153
▁शहर	-8.93186
▁कंप्यूटर	-8.93221
▁युवा	-8.93279
▁उल्लेख	-8.93319
▁संदर्भ	-8.93429
▁सिर्फ	-8.93482
▁लाल	-8.93504
ढ़	-8.93557
▁रखते	-8.93759
▁उत्पाद	-8.93775
▁युग	-8.93869
▁अधिकांश	-8.93891
y	-8.9398
▁बेहतर	-8.93993
▁सकेगा	-8.94443
▁मंत्री	-8.94548
झ	-8.94561
▁दें	-8.94615
▁बने	-8.94633
▁सेवाओं	-8.9468
▁संपर्क	-8.94682
▁S	-8.94738
▁जाये	-8.9478
▁रे	-8.94802
▁देखने	-8.94811
▁सेना	-8.94973
▁अधि	-8.95152
ये	-8.95206
▁a	-8.95209
▁लागत	-8.95261
▁महिला	-8.95281
ाना	-8.95305
नाथ	-8.95455
▁केन्द्रीय	-8.9573
▁संरचना	-8.9593
▁भू	-8.96243
▁कदम	-8.96244
▁धीरे	-8.96311
ान	-8.96359
▁सि	-8.96395
▁बहु	-8.96421
▁बताया	-8.96459
ाय	-8.96617
▁सदन	-8.96619
▁चित्र	-8.96638
▁पि	-8.96924
▁परीक्षा	-8.96933
▁लघु	-8.97043
▁योगदान	-8.97086
▁किन्तु	-8.97154
▁जिसकी	-8.97156
▁रि	-8.97176
▁निधि	-8.97241
रू	-8.97433
▁छोटी	-8.97485
त्त	-8.97844
▁दिवस	-8.97894
▁पश्चिम	-8.97924
▁पुरुष	-8.97943
▁संकेत	-8.98017
▁उपचार	-8.98034
▁पद्धति	-8.98045
▁गो	-8.9818
्त	-8.98299
▁प्रशासन	-8.9832
▁दिखाई	-8.98491
▁ध	-8.9856
▁दूसरा	-8.98674
▁सिद्धांत	-8.98851
▁अंतर	-8.98903
शी	-8.98935
▁धार्मिक	-8.99085
टे	-8.99116
▁रु	-8.99208
▁उठा	-8.99266
▁कोशिश	-8.995
▁नेटवर्क	-8.99537
▁वहाँ	-8.99619
▁रख	-8.99646
▁सीमित	-8.9972
उ	-8.99973
▁तरीके	-9.00028
▁तंत्र	-9.00147
▁सम्मान	-9.00164
▁प्रणब	-9.00315
▁प्रदर्शन	-9.00568
८	-9.00585
▁व्य	-9.00797
शा	-9.00817
▁ब्रिटिश	-9.01056
▁हिन्दी	-9.01327
▁आयु	-9.01334
▁साधारण	-9.01398
ाल	-9.01501
▁सारे	-9.01633
▁जाति	-9.01718
ंच	-9.01867
▁अध्याय	-9.01897
▁अनिवार्य	-9.02133
▁आशा	-9.02149
▁प्रभावी	-9.0216
▁रहती	-9.02246
▁आंदोलन	-9.02249
▁मुद्रा	-9.02333
▁समझा	-9.02398
वीं	-9.02537
िए	-9.02556
▁अंग्रेजी	-9.02682
▁उनसे	-9.02819
▁जिला	-9.03004
▁बि	-9.03338
▁सफल	-9.03544
▁हित	-9.0355
▁संस्कृति	-9.03564
▁गा	-9.03588
▁ऑफ	-9.03614
▁प्राकृतिक	-9.03771
▁दस	-9.03803
र्	-9.03879
▁स्प	-9.03928
▁वाद	-9.04118
▁फ़	-9.04168
▁गुणवत्ता	-9.04243
बल	-9.04257
ूर	-9.04287
▁विशाल	-9.04315
ंज	-9.04393
▁मै	-9.04772
▁सम्मिलित	-9.04838
▁जहाँ	-9.04879
▁बढ़	-9.04923
न्द	-9.04958
▁देखते	-9.04993
▁शांति	-9.05143
स्थ	-9.05213
▁वित्त	-9.05258
▁आता	-9.05326
▁विवाद	-9.05447
▁विधेयक	-9.05516
▁संगीत	-9.05806
▁भोजन	-9.05981
S	-9.06209
▁कार्यालय	-9.06302
▁लि	-9.06305
▁उपकरण	-9.06318
▁अधिकारियों	-9.06325
▁आत्म	-9.06507
▁नाटक	-9.06803
▁वर्णन	-9.06981
▁हिस्सा	-9.07007
▁खुलती	-9.07025
▁आपकी	-9.07309
▁व्यक्तिगत	-9.07566
्व	-9.0771
▁विंडों	-9.07996
▁समारोह	-9.08029
▁दा	-9.0804
▁रा	-9.08179
▁वही	-9.08291
▁मी	-9.08293
मय	-9.08314
▁अत्यंत	-9.08316
पा	-9.08318
▁इच्छा	-9.08379
▁मिलता	-9.08385
▁शुल्क	-9.08399
ंत	-9.08408
▁सकें	-9.08431
▁पड़ा	-9.08449
▁शेयर	-9.08629
▁पेश	-9.0864
▁उपयुक्त	-9.08755
▁गुण	-9.08782
▁मुस्लिम	-9.08934
▁संहिता	-9.08976
शील	-9.09108
मन	-9.09232
▁सिद्ध	-9.09271
▁अतः	-9.09321
काल	-9.09412
▁संघर्ष	-9.09439
▁विकल्प	-9.0954
▁घोषणा	-9.096
▁पड़ता	-9.09665
▁व्यय	-9.09687
▁करनी	-9.09722
▁बधाई	-9.09724
▁लेना	-9.09762
▁विरोध	-9.09801
er	-9.09807
▁तुलना	-9.09873
▁जिनके	-9.10082
▁निर्धारिती	-9.10203
▁विचारों	-9.1027
▁गु	-9.10315
▁प्रा	-9.10325
▁घटना	-9.10526
▁चि	-9.10795
डा	-9.10896
▁दृष्टिकोण	-9.10904
▁प्राचीन	-9.10985
रु	-9.11054
▁सफलता	-9.11111
▁वैज्ञानिक	-9.11125
ां	-9.11308
▁संभावना	-9.11573
ेशन	-9.11615
▁बता	-9.11621
▁निर्भर	-9.11812
▁भारी	-9.11822
▁सम्मेलन	-9.12003
▁सिविल	-9.12219
▁रो	-9.12261
ृ	-9.12386
क्	-9.12416
▁उपबंधों	-9.12533
▁कर्म	-9.12614
बद्ध	-9.12661
▁सुन	-9.12901
▁गलत	-9.12959
ाम	-9.12981
▁नियमों	-9.13019
▁खुद	-9.1302
िस	-9.13052
▁सिफारिश	-9.13053
▁ऐ	-9.13076
▁खरीद	-9.13179
९	-9.13205
▁नगर	-9.1332
▁निम्न	-9.13445
▁नये	-9.13469
▁तथापि	-9.13511
▁आयोजित	-9.13702
▁मा	-9.13926
▁प्रधान	-9.13935
▁व्यवसाय	-9.14074
▁हिन्दू	-9.14161
कों	-9.14261
शन	-9.14262
▁संस्थानों	-9.14263
▁गंभीर	-9.14311
▁विनिर्दिष्ट	-9.14385
▁हृदय	-9.14461
▁हा	-9.14474
▁संसाधन	-9.14474
▁फ़ाइल	-9.14495
▁पाने	-9.14504
▁अर्थात्	-9.14603
▁ड	-9.14622
▁आते	-9.14706
▁पर्यावरण	-9.1475
▁कार्यवाही	-9.14773
r	-9.14814
▁i	-9.1493
▁दु	-9.15212
▁डि	-9.15294
ड़े	-9.15389
म्प	-9.15456
▁सुझाव	-9.15534
▁खाते	-9.15596
▁बिल	-9.1568
▁जानते	-9.15694
l	-9.15901
▁बोल	-9.15956
▁संस्कृत	-9.1601
▁माता	-9.16035
▁सिर	-9.16073
वर्ती	-9.16097
▁दर्शन	-9.1617
▁फल	-9.16195
▁जानी	-9.16205
▁अच्छे	-9.16246
▁कार्रवाई	-9.16276
▁शिकायत	-9.16292
▁जिसने	-9.16504
▁वी	-9.16589
▁ठ	-9.16625
▁सुरक्षित	-9.1664
▁कठिन	-9.16647
▁जरूरी	-9.16708
▁परिषद	-9.1672
▁लेते	-9.16956
ेट	-9.1699
▁–	-9.17096
▁अंतरराष्ट्रीय	-9.17134
▁मह	-9.17306
▁स्वरूप	-9.17369
वार	-9.17399
लि	-9.17467
▁ब्याज	-9.17578
यें	-9.17591
▁पारित	-9.17725
ष्ट	-9.1781
▁बनाना	-9.17875
u	-9.17946
▁डॉ	-9.17946
रि	-9.18023
00	-9.18166
k	-9.18239
▁सर्व	-9.18255
▁निकट	-9.18347
f	-9.1854
▁कहना	-9.18664
▁सू	-9.1888
▁जान	-9.19014
▁मात्र	-9.1914
▁खाद्य	-9.19214
▁सलाह	-9.19266
त्	-9.19387
मो	-9.19475
▁रोक	-9.19579
▁आदमी	-9.19583
यी	-9.19675
▁छोटा	-9.19767
▁काव्य	-9.19858
▁डेटा	-9.19924
▁अर्थव्यवस्था	-9.20091
▁उपाय	-9.20377
▁उपस्थित	-9.20765
▁तकनीकी	-9.20766
▁कौन	-9.20774
▁डा	-9.20832
▁गर्इ	-9.20907
▁उद्यम	-9.21035
▁सका	-9.21396
कृत	-9.21399
▁मिली	-9.21419
▁अंदर	-9.21459
▁पदार्थ	-9.2152
र्क	-9.21542
ांत	-9.2155
▁तरफ	-9.21556
▁मित्र	-9.21656
▁आदर्श	-9.21689
▁संपूर्ण	-9.21755
▁लगाया	-9.21862
▁मर	-9.21961
व्य	-9.22131
▁इजरायल	-9.22196
चर	-9.2221
▁होनी	-9.22276
▁हैः	-9.22325
▁मौजूद	-9.22362
▁तेल	-9.22469
▁स्वतंत्र	-9.22479
▁अधिकारों	-9.226
िश	-9.22665
▁नियुक्त	-9.22723
▁सौ	-9.2274
▁कार्यों	-9.22793
▁दृश्य	-9.22812
▁समुदाय	-9.22833
▁वाणिज्यिक	-9.22884
▁सात	-9.22922
▁कहानी	-9.22937
▁पहला	-9.23088
वल	-9.23147
्यु	-9.23166
टर	-9.23282
▁अप्रैल	-9.23339
▁तर्क	-9.23483
पूर्वक	-9.23515
▁पश्चिमी	-9.23615
▁मार्च	-9.23639
▁तथ्य	-9.23699
▁तेजी	-9.23738
▁इं	-9.23807
▁स्थायी	-9.23891
▁विद्यमान	-9.24056
▁परीक्षण	-9.24058
▁हानि	-9.24209
हर	-9.24248
▁महिलाओं	-9.24282
▁शेष	-9.24349
▁खाता	-9.24593
▁पार्टी	-9.24644
▁अरब	-9.24692
▁भाई	-9.24773
यर	-9.249
▁रात	-9.24963
▁नागरिक	-9.24973
ियाँ	-9.24979
▁डे	-9.25229
▁वार्षिक	-9.25249
▁चुके	-9.2529
▁कीमत	-9.25341
▁क्रम	-9.25345
▁निगम	-9.2561
▁रहना	-9.25728
▁निर्वाचन	-9.25805
▁विद्युत	-9.25903
सर	-9.25946
E	-9.26035
राम	-9.2614
रूप	-9.26163
▁पाकिस्तान	-9.26198
▁कृपया	-9.26296
▁समुद्र	-9.26331
A	-9.26362
▁मानसिक	-9.26426
▁मजबूत	-9.26504
▁शताब्दी	-9.26741
▁बनी	-9.268
▁परामर्श	-9.27012
खा	-9.27037
▁योग	-9.27053
▁बैठक	-9.27084
▁सम्बन्ध	-9.27128
रिया	-9.2718
ल्ल	-9.27199
▁आपका	-9.27212
▁महसूस	-9.27286
▁विस्तृत	-9.27286
▁गुना	-9.27372
युक्त	-9.27376
यन	-9.2742
▁बु	-9.27493
▁वातावरण	-9.27685
हीन	-9.27733
▁संचार	-9.2779
ेन	-9.27797
▁अंश	-9.27926
▁वेतन	-9.2793
▁शून्य	-9.27946
▁प्रमाण	-9.27987
३०	-9.28034
▁इस्लाम	-9.28048
▁कर्मचारियों	-9.28085
बे	-9.28103
वाह	-9.2826
▁लाने	-9.28281
▁निर्	-9.28318
▁निकाल	-9.28425
▁मो	-9.2843
▁विदेश	-9.28457
▁प्राप्ति	-9.28504
▁गांव	-9.28575
वान	-9.28609
ेज	-9.28623
▁वस्तुओं	-9.28659
▁स्रोत	-9.28671
▁सूक्ष्म	-9.28689
▁रोजगार	-9.28691
▁गिर	-9.28697
▁ग्रहण	-9.28736
ेश	-9.28819
▁निर्मित	-9.28895
▁दायित्व	-9.28906
▁ब्र	-9.28932
▁बीज	-9.28992
▁जोड़	-9.29015
n	-9.29084
▁जिन्होंने	-9.29093
▁खो	-9.29107
▁अत्यधिक	-9.29144
▁दोष	-9.29339
▁वायु	-9.2936
▁ग्राम	-9.29364
▁मार	-9.29478
▁परिस्थितियों	-9.29512
न्त	-9.29519
वें	-9.29546
▁कल्पना	-9.29606
▁दिये	-9.2985
▁प्रसिद्ध	-9.29869
▁चयन	-9.29872
▁संकल्प	-9.29913
▁त्रुटि	-9.29994
कु	-9.30077
▁नियमित	-9.30278
दर	-9.30408
▁अगले	-9.3045
▁सरल	-9.30588
▁खा	-9.30689
▁एफ	-9.30779
▁प्रधानमंत्री	-9.30883
▁उपन्यास	-9.30945
▁आए	-9.30966
▁हल	-9.31132
▁यथा	-9.31211
ेल	-9.31372
▁करार	-9.314
▁हवा	-9.31487
▁बह	-9.31492
▁सामना	-9.31537
▁आयुक्त	-9.31564
▁आरोप	-9.31629
▁समस्याओं	-9.31699
▁इतनी	-9.3171
▁भाषण	-9.31718
▁श्रेणी	-9.31748
▁कानूनी	-9.31837
▁चुनाव	-9.31855
▁मिलने	-9.31917
▁ना	-9.31928
्यू	-9.3225
▁प्रत्यक्ष	-9.32281
▁शुद्ध	-9.32327
तु	-9.32352
▁पत्नी	-9.32388
▁आती	-9.32609
▁छात्र	-9.32754
▁सांस्कृतिक	-9.32808
▁तत्व	-9.32889
▁बढ़ाने	-9.32914
क्त	-9.32953
▁लेखक	-9.33055
▁कराने	-9.33226
▁दावा	-9.33274
द्र	-9.33456
▁जोर	-9.33545
▁हालांकि	-9.33652
▁क्षेत्रीय	-9.33766
▁अनुवाद	-9.33768
्न	-9.33846
▁अंक	-9.33994
राज	-9.3401
▁निरंतर	-9.34184
▁पु	-9.34207
ज़ा	-9.34576
▁अस	-9.34644
पो	-9.34713
▁गणराज्य	-9.34773
▁अनुकूल	-9.34776
p	-9.34777
▁मामला	-9.34895
▁पड़	-9.34921
▁अधिकरण	-9.34982
आर	-9.35108
▁देव	-9.35128
▁मौसम	-9.35149
▁प्राधिकरण	-9.35255
▁स्थल	-9.35297
यो	-9.35306
▁हिंदू	-9.35373
▁मेल	-9.35394
ंध	-9.35396
▁बावजूद	-9.35417
याँ	-9.3545
ar	-9.35538
▁नामक	-9.35657
▁व्या	-9.35713
▁लगी	-9.35875
▁आतंकवाद	-9.3588
सु	-9.35939
▁सच	-9.3599
▁अदालत	-9.36013
▁कल्याण	-9.36067
ही	-9.36067
▁पाठ	-9.36116
ाने	-9.36145
ियन	-9.36412
ोन	-9.36419
▁हिंदी	-9.36431
▁आयात	-9.36465
▁मुसलमानों	-9.36471
▁कै	-9.36475
▁अधिवक्ता	-9.36514
कि	-9.3672
▁d	-9.36733
▁पेज	-9.36734
▁इनके	-9.3674
▁इंडिया	-9.36792
▁बढ़ा	-9.36814
▁पुत्र	-9.3699
▁भेज	-9.37141
▁महीने	-9.37329
▁प्रायः	-9.37342
▁P	-9.37345
सन	-9.37357
▁शीघ्र	-9.37367
▁लेख	-9.37433
▁आये	-9.37579
▁कर्मचारी	-9.37656
ाँ	-9.37693
M	-9.37819
▁अधिकतम	-9.37907
भाव	-9.37918
▁निदेशक	-9.37926
▁उक्त	-9.37986
ोप	-9.38107
▁विजय	-9.38112
▁शा	-9.38216
▁अधिकारिता	-9.38361
▁मानक	-9.38375
▁रुपये	-9.38401
▁शाखा	-9.38511
▁पुनर्	-9.38575
▁डाल	-9.38639
▁गठन	-9.38708
ोर	-9.38756
▁तट	-9.3881
▁संस्थाओं	-9.38819
▁प्रतिक्रिया	-9.38829
▁खास	-9.38832
▁भार	-9.39082
न्न	-9.39085
▁निकल	-9.39097
▁सीधे	-9.39099
▁इत्यादि	-9.39155
▁पै	-9.39381
▁एच	-9.39407
▁बिजली	-9.39435
▁सारी	-9.39455
स्प	-9.39498
▁गृह	-9.3952
▁सिस्टम	-9.39621
▁डाक	-9.39671
▁शैली	-9.39681
िता	-9.39702
▁लो	-9.3977
▁प्रो	-9.39782
▁साफ	-9.39787
रत	-9.39936
▁प्रतीक	-9.39948
▁मां	-9.39957
▁तुम्हें	-9.39963
ेड	-9.39966
वन	-9.39981
▁मूल्यांकन	-9.40121
▁जवाब	-9.40281
लो	-9.40287
▁स्वामी	-9.4032
र्ड	-9.40418
▁आनंद	-9.40462
▁साक्ष्य	-9.40626
मि	-9.40811
▁संग्रह	-9.4093
▁प्रचार	-9.41062
▁मान्यता	-9.41137
▁उपभोक्ता	-9.41192
▁अंतरण	-9.41192
▁मिलती	-9.4121
गो	-9.41274
▁साधन	-9.41407
▁आक्रमण	-9.41435
▁प्रावधान	-9.41483
▁लगाने	-9.41522
नीय	-9.41578
▁कारबार	-9.41597
▁जल्दी	-9.41762
▁तभी	-9.4195
▁रखे	-9.42028
▁हजार	-9.42237
▁कृष्ण	-9.42291
▁नोट	-9.42332
I	-9.42351
निक	-9.42356
▁T	-9.42428
▁पुराने	-9.42454
▁मुख	-9.4247
र्न	-9.42602
बर	-9.42658
▁जून	-9.42747
▁प्रयुक्त	-9.42861
▁जाय	-9.42873
▁समस्त	-9.42914
चा	-9.42918
▁C	-9.42965
▁पात्र	-9.43011
▁अस्तित्व	-9.43038
▁सवाल	-9.43138
डे	-9.43147
▁गैस	-9.43169
▁वै	-9.43271
▁रुपए	-9.43301
▁पहल	-9.43376
▁नेता	-9.43418
▁नव	-9.43485
▁समाचार	-9.43508
▁देखभाल	-9.43563
▁मशीन	-9.43643
▁कं	-9.43973
स्क	-9.44039
▁लोकतंत्र	-9.4411
▁आपने	-9.4419
▁प्रयत्न	-9.44209
▁जनवरी	-9.44331
▁शीर्ष	-9.44412
▁शिव	-9.44675
▁तेज	-9.44726
▁कथा	-9.4485
▁प्रतीत	-9.44864
रों	-9.44956
च्छ	-9.44958
▁मानते	-9.45027
▁इन्हें	-9.45098
▁राजनैतिक	-9.45156
दान	-9.45207
ियो	-9.4521
▁पथ	-9.45328
▁जायेगा	-9.45434
▁पंजाब	-9.45509
▁महत्त्वपूर्ण	-9.45527
▁बढ़ावा	-9.45619
▁दिल	-9.45667
एल	-9.45747
▁कटौती	-9.45812
स्ट्र	-9.45892
▁न्यायाधीशों	-9.45909
▁नजर	-9.46049
P	-9.46051
ीन	-9.46065
al	-9.46119
द्	-9.46232
▁नेतृत्व	-9.46232
पति	-9.46232
▁स्मृति	-9.46354
▁गतिविधियों	-9.46369
▁वितरण	-9.46413
▁रोगी	-9.46512
▁प्रेरित	-9.4653
▁बिक्री	-9.46533
▁विषयों	-9.46594
▁विद्यार्थियों	-9.46835
▁तय	-9.46844
▁चेतना	-9.46899
▁द्वार	-9.46907
▁जमीन	-9.46909
▁रखी	-9.46952
▁प्रोत्साहन	-9.46957
▁मुसलमान	-9.46991
र्ट	-9.4702
▁प्राधिकारी	-9.47155
मु	-9.47281
▁घरेलू	-9.4732
▁हु	-9.47403
▁प्रकाशन	-9.47526
▁शुभकामनाएं	-9.47749
ची	-9.47864
▁मिशन	-9.47957
▁बर	-9.47964
ंगी	-9.47969
▁प्रदर्शित	-9.47991
गर	-9.48005
▁चलता	-9.48041
▁प्राण	-9.48054
▁स्वागत	-9.48073
▁टन	-9.48099
▁एशिया	-9.48144
an	-9.48202
▁उनको	-9.4821
▁श्रेणीः	-9.48252
▁असम	-9.4833
▁प्राथमिक	-9.48614
▁भौतिक	-9.48684
▁बनाई	-9.48707
▁मद	-9.48708
▁जि	-9.48735
▁जोखिम	-9.48851
▁स्पष्टीकरण	-9.48864
एस	-9.48872
ुक	-9.48882
▁आपूर्ति	-9.48926
d	-9.48959
पाल	-9.49014
▁खुशी	-9.49041
ाया	-9.49056
▁शारीरिक	-9.49098
▁आध्यात्मिक	-9.4916
▁दस्तावेज	-9.49187
जे	-9.49222
▁थ	-9.49258
▁स्थानों	-9.493
त्य	-9.49318
▁मगर	-9.49325
ल्	-9.49435
▁अभिव्यक्ति	-9.49623
िम	-9.49669
िट	-9.49716
▁न्यू	-9.49784
▁सुना	-9.49791
▁विमान	-9.49799
▁छूट	-9.4982
ोल	-9.49884
▁तरीका	-9.49906
▁तु	-9.49924
▁घोषित	-9.49948
▁पहुंचा	-9.50024
▁देखें	-9.50026
▁लौट	-9.50043
एम	-9.50081
▁उठ	-9.50087
▁लिखित	-9.50088
▁अपेक्षित	-9.50093
▁बाबत	-9.50094
▁भूल	-9.50207
▁प्रसन्नता	-9.50267
▁भागों	-9.50314
▁अवश्य	-9.50355
▁बैंकों	-9.50372
▁सामान	-9.50386
ज्ञ	-9.50447
▁शक्तियों	-9.50451
▁हस्ताक्षर	-9.50469
गु	-9.5054
▁मंच	-9.50639
▁नष्ट	-9.50657
▁B	-9.50679
re	-9.50733
▁चीज	-9.50744
▁गुरु	-9.50827
क्ति	-9.50869
▁चरण	-9.50929
▁मिले	-9.51155
▁तकनीक	-9.5126
▁अंतर्राष्ट्रीय	-9.51415
▁कार्यक्रमों	-9.51507
▁सर्वोच्च	-9.51604
▁पश्चात	-9.51621
फा	-9.51634
▁वीडियो	-9.51691
ार्थ	-9.51694
▁मिलकर	-9.51725
्क	-9.51752
▁सुंदर	-9.51834
▁इकाई	-9.51876
▁दिखा	-9.51966
▁अभियान	-9.52032
▁छह	-9.52054
▁ऑ	-9.52074
▁चीन	-9.52279
▁औसत	-9.52368
▁आयोजन	-9.52416
दि	-9.52713
▁स्त्री	-9.52714
स्व	-9.52917
▁लें	-9.52918
▁गीत	-9.52925
चार	-9.52941
▁वा	-9.52969
▁चुकी	-9.52969
▁विंडो	-9.53125
▁निहित	-9.5317
▁मतलब	-9.53203
▁सेट	-9.53312
▁सेवाएं	-9.5335
▁मुंबई	-9.53396
▁अनुमान	-9.53492
वाली	-9.53584
ुल	-9.5364
▁लेता	-9.53683
हित	-9.53766
▁प्रमाणपत्र	-9.53792
▁कठोर	-9.53849
▁बातों	-9.53867
▁करेगी	-9.53918
▁चले	-9.5395
▁जनसंख्या	-9.53979
▁वजह	-9.54044
▁खोल	-9.54073
▁ऐतिहासिक	-9.54109
▁वालों	-9.54181
▁गंगा	-9.54241
▁अभिलेख	-9.54311
▁नियुक्ति	-9.54337
▁विरोधी	-9.54354
▁लगातार	-9.54449
नों	-9.54468
▁परिणामस्वरूप	-9.54503
द्व	-9.54569
▁त्रि	-9.5457
ढ	-9.54574
ग्	-9.5458
m	-9.54691
▁आंतरिक	-9.54697
▁अगस्त	-9.54704
ल्स	-9.54752
▁पाए	-9.54774
▁हत्या	-9.54899
▁फिल्म	-9.54922
▁बढ	-9.54978
र्ज	-9.55066
▁पसंद	-9.55221
▁अर	-9.55231
▁संसाधनों	-9.55275
▁जाँच	-9.55288
▁p	-9.55288
▁कुमार	-9.55367
▁खिलाफ	-9.55388
▁पति	-9.55467
▁सत्र	-9.55481
▁सप्ताह	-9.55485
▁विधिक	-9.55514
▁रखता	-9.55584
▁रीति	-9.55588
▁विश्लेषण	-9.5561
▁प्रशासनिक	-9.55656
लर	-9.55725
ाइ	-9.55743
▁सड़क	-9.55878
पक	-9.5591
हन	-9.55963
देश	-9.56026
▁पो	-9.56078
▁संचालन	-9.56079
▁वैश्विक	-9.56153
▁डर	-9.56154
▁निष्कर्ष	-9.56213
▁बजाय	-9.5631
▁न्यूनतम	-9.56345
▁बैठ	-9.56407
▁बातें	-9.56411
ाक	-9.56425
▁सार	-9.56482
▁चिंता	-9.56552
▁क्र	-9.56562
ात	-9.56574
▁रेल	-9.56575
▁नेहरू	-9.56612
T	-9.56638
▁विचारण	-9.56648
▁आठ	-9.5671
▁पकड़	-9.56794
▁हासिल	-9.56816
▁अल्प	-9.56977
▁संसार	-9.56984
▁फसल	-9.57002
▁मस्तिष्क	-9.57032
▁कौशल	-9.57081
▁श्रम	-9.57103
▁अग्र	-9.57113
on	-9.57151
▁स्वा	-9.57204
▁मल	-9.57236
▁नियत	-9.57305
▁नागरिकों	-9.57431
बंध	-9.57516
▁वन	-9.57547
▁मई	-9.57563
ुआ	-9.5761
▁कथन	-9.5763
ज्	-9.57708
िर	-9.5774
▁उम्र	-9.58098
▁आसान	-9.58142
▁कलकत्ता	-9.58157
ांग	-9.5822
▁कश्मीर	-9.58293
ाह	-9.5833
▁विहित	-9.58346
▁पृथ्वी	-9.58361
गल	-9.5842
▁कमजोर	-9.5843
▁अफ्रीका	-9.58564
▁पढ़	-9.58643
▁प्रोग्राम	-9.58665
▁उपयोगी	-9.58668
▁सुख	-9.5869
▁जाएं	-9.58734
▁जुड़े	-9.58738
▁महामहिम	-9.58769
▁बनने	-9.58968
▁सुभाष	-9.58992
ियम	-9.59056
▁कुंजी	-9.59109
▁ढ	-9.59169
▁अस्पताल	-9.59178
▁सहकारी	-9.59221
▁लोकप्रिय	-9.59258
▁संबंधों	-9.59302
▁बीमारी	-9.59352
द्द	-9.59362
▁सूर्य	-9.59383
▁शुरुआत	-9.59453
ष्ठ	-9.59576
▁छोड़कर	-9.5961
कल	-9.59648
ियर	-9.59685
▁ii	-9.59715
▁लक्षण	-9.5981
▁वैसे	-9.59833
क्र	-9.59873
▁सर्वाधिक	-9.59894
▁संबद्ध	-9.60023
▁जेल	-9.60073
▁सृजन	-9.60118
▁मीडिया	-9.60147
▁संविदा	-9.60217
▁आस	-9.60221
जि	-9.60226
चे	-9.60227
▁रस	-9.60248
▁अस्थि	-9.6041
O	-9.60477
▁विशेषकर	-9.60544
नो	-9.60699
भा	-9.60796
▁चलते	-9.60829
न्ड	-9.60862
▁पूजा	-9.60908
▁डिस्क	-9.61007
पट	-9.61009
▁न्यायमूर्ति	-9.61048
▁अनुरूप	-9.6108
▁संगठनों	-9.61259
▁शिकार	-9.61321
▁चक्र	-9.61355
▁दर्ज	-9.61403
िनी	-9.61453
▁यूरोप	-9.61457
▁करीब	-9.61463
▁बदलाव	-9.61464
न्ध	-9.61525
▁पीड़ित	-9.61603
▁मास	-9.61632
▁लिख	-9.61645
▁विपरीत	-9.61672
▁विविध	-9.61766
▁हटा	-9.61814
था	-9.61838
▁शि	-9.61839
धार	-9.61925
▁त्याग	-9.61952
▁बातचीत	-9.62024
▁b	-9.62154
शि	-9.62257
जनक	-9.62334
▁बुनियादी	-9.62443
▁समुचित	-9.62447
▁प्रतिनिधित्व	-9.62461
c	-9.62549
▁विभाजन	-9.62647
्ले	-9.62664
्रा	-9.62721
दन	-9.62721
▁परस्पर	-9.62733
▁दशक	-9.62739
▁चू	-9.62776
▁वकील	-9.62873
▁उद्योगों	-9.62962
or	-9.62988
▁संकट	-9.63117
▁बुद्धि	-9.63126
▁असफल	-9.6313
▁दूध	-9.63169
▁समझौता	-9.632
ान्त	-9.63361
▁तार	-9.63401
पत	-9.63432
▁चा	-9.63462
▁क्षति	-9.63668
▁पूर्ववर्ष	-9.63676
▁किसानों	-9.63708
इस	-9.63772
िय	-9.64131
▁अनुरोध	-9.64322
सि	-9.64342
▁रू	-9.6443
▁उद्	-9.64488
ङ	-9.64506
न्स	-9.64516
भि	-9.64545
▁परिवहन	-9.64667
▁एंड	-9.64681
▁प्रबंध	-9.64714
▁किस्म	-9.64732
▁स्कीम	-9.64763
▁वीर	-9.64785
▁बो	-9.64835
तक	-9.64837
गार	-9.64925
▁सरकारों	-9.64975
▁गुप्त	-9.64986
मित	-9.65048
ऊ	-9.65055
डर	-9.65081
▁तल	-9.65083
▁भगवान	-9.65185
▁प्रस्तावित	-9.65208
▁लाइन	-9.65257
▁कर्तव्य	-9.65278
देव	-9.65283
▁जाएंगे	-9.65351
▁क्	-9.65354
▁मंडल	-9.65569
्ल	-9.65799
▁नौ	-9.6586
नु	-9.65871
▁अन्त	-9.65901
▁मीटर	-9.6591
▁खान	-9.6598
▁पड़े	-9.65984
ुर	-9.65995
▁पहुँच	-9.66081
▁रेखा	-9.66099
▁व्याख्या	-9.66186
▁बचा	-9.66192
विक	-9.66336
▁मू	-9.66375
C	-9.66403
▁जहाज	-9.66436
▁पूर्वी	-9.66447
▁आस्ति	-9.66488
निया	-9.66581
▁कार्ड	-9.66607
▁इतने	-9.66708
▁हिंसा	-9.6671
▁सचिव	-9.66711
▁टीम	-9.66793
▁उत्पादों	-9.66816
▁भेजा	-9.66824
▁अक्सर	-9.66856
▁आफ	-9.66944
▁जिले	-9.6704
▁कक्ष	-9.67046
▁धारण	-9.6708
▁अन्दर	-9.67082
▁आनन्द	-9.67147
▁फूल	-9.67158
▁अमेरिकी	-9.67225
▁नयी	-9.67306
▁प्रेरणा	-9.67334
ेंगे	-9.674
▁राज्यपाल	-9.67417
पत्र	-9.67434
भूत	-9.67434
त्मक	-9.67505
▁चुनौती	-9.67522
▁महाराष्ट्र	-9.67554
▁देवी	-9.6756
▁अर्थात	-9.67576
ंब	-9.67585
▁निकाय	-9.67586
धा	-9.67676
लय	-9.6777
ेस	-9.67772
▁सर्वेक्षण	-9.67895
▁निदेश	-9.67933
▁पत्थर	-9.6797
▁वेब	-9.68096
▁संसदीय	-9.68162
▁ईसा	-9.68176
▁निभा	-9.68183
▁उत्साह	-9.68269
र्ग	-9.68285
▁अभियुक्त	-9.6846
▁M	-9.68481
▁घटा	-9.68492
▁तीव्र	-9.68501
x	-9.68574
▁x	-9.68635
▁साबित	-9.6872
▁ज़	-9.68749
िज	-9.68755
▁अभाव	-9.68838
▁अवि	-9.68843
▁अभिप्रेत	-9.6887
▁भागीदारी	-9.68894
▁निश्चय	-9.69022
N	-9.69028
▁अनुपात	-9.69037
▁लड़	-9.6912
▁अकबर	-9.69181
▁माह	-9.69221
▁छवि	-9.69236
▁दूरी	-9.69269
▁देगा	-9.69317
▁लिखी	-9.69321
▁यंत्र	-9.69342
▁मूल्यों	-9.6936
द्ध	-9.69364
▁सर्वर	-9.6941
▁नवान्वेषण	-9.69413
▁बै	-9.69537
▁वहीं	-9.69629
▁परिवर्तित	-9.69782
चन	-9.69795
▁प्रारंभिक	-9.69833
▁अनुप्रयोग	-9.69848
▁संस्करण	-9.69855
▁शाह	-9.69981
R	-9.7005
▁समन्वय	-9.70313
▁गठित	-9.70313
▁मौजूदा	-9.70349
दे	-9.70418
ीकृत	-9.70475
▁अन्यथा	-9.70591
▁समीक्षा	-9.7062
▁सभ्यता	-9.70715
–	-9.70748
▁स्क	-9.70759
▁कॉ	-9.71262
▁आवाज	-9.71446
▁समग्र	-9.71483
ंगे	-9.7151
्ट	-9.71544
एफ	-9.71577
ाइट	-9.71681
▁उतर	-9.71761
v	-9.71789
र्द	-9.71838
▁भाषाओं	-9.71876
▁नर	-9.71877
▁समाप्ति	-9.71934
▁नैतिक	-9.71942
▁सुसंगत	-9.7201
▁सुविधाओं	-9.72012
▁मैदान	-9.72026
▁उम्मीद	-9.72036
▁वर्षा	-9.72062
▁सम्बन्धी	-9.72169
▁पवित्र	-9.72243
▁द्वितीय	-9.72244
ृत	-9.72282
ेगा	-9.72318
▁परमाणु	-9.72324
▁आचरण	-9.72342
▁लिखने	-9.72353
▁अंतर्	-9.7239
▁आवास	-9.72547
▁नुकसान	-9.72556
en	-9.72614
▁सतह	-9.72616
▁जुलाई	-9.72654
वाल	-9.7274
▁चीज़	-9.72749
मेंट	-9.72753
▁परियोजनाओं	-9.72888
▁प्रोत्साहित	-9.72949
▁सॉफ्टवेयर	-9.73026
▁आमतौर	-9.73105
▁G	-9.7314
धि	-9.73149
▁रोकने	-9.73184
▁कोड	-9.73307
▁कीट	-9.73353
▁प्रतिनिधि	-9.7339
▁कतिपय	-9.7342
▁उपक्रम	-9.73466
▁देखकर	-9.73509
▁आकर्षित	-9.73578
▁खाने	-9.73616
▁पाई	-9.73627
▁फीस	-9.73733
ेय	-9.73799
D	-9.73849
▁आशय	-9.73852
क़	-9.73872
▁शैक्षिक	-9.73895
न्ट	-9.73902
र्म	-9.7394
धी	-9.74009
▁पशु	-9.7405
▁आरम्भ	-9.74085
▁ज्ञात	-9.74118
▁रखें	-9.74152
▁याचिका	-9.74161
▁बाह्य	-9.74212
पे	-9.74227
▁कम्प	-9.74244
ेश्वर	-9.74277
▁अम	-9.74312
स्टर	-9.74651
▁उत्	-9.74737
▁निवास	-9.74833
ॉँ	-9.74903
▁करो	-9.74968
क़्	-9.74974
वां	-9.74985
ेक	-9.75062
▁हवाई	-9.75112
योग	-9.75167
▁बिल्कुल	-9.75251
बू	-9.75332
िड	-9.75346
▁चूंक	-9.75478
ताओं	-9.75522
▁परंपरा	-9.75535
गे	-9.75565
▁संलग्न	-9.75573
वत	-9.75588
▁जानता	-9.7563
▁स्तंभ	-9.75655
b	-9.75665
▁केरल	-9.75687
▁आग्रह	-9.75711
▁जीवित	-9.75719
▁सहज	-9.75734
▁पाठ्यक्रम	-9.75736
▁नियंत्रित	-9.75815
▁उभर	-9.75932
ल्ड	-9.75957
▁ख़	-9.75968
▁व्यावसायिक	-9.75977
▁देकर	-9.76044
▁लिमिटेड	-9.76058
यू	-9.76066
▁दि	-9.76134
▁देर	-9.76165
▁जिनक	-9.76183
▁द्वि	-9.76208
▁अधिकतर	-9.76216
प्	-9.76222
ाद	-9.76249
▁प्रसार	-9.76256
▁ग्राहक	-9.7626
▁खाना	-9.76274
शास्त्र	-9.76308
▁रहेगा	-9.76423
▁जितना	-9.76432
▁चरित्र	-9.76548
▁खुले	-9.76856
▁मुद्दों	-9.76871
▁कितना	-9.76893
▁g	-9.76894
▁मानवीय	-9.77006
डि	-9.77013
▁जड़	-9.77055
▁लेखन	-9.77057
▁तुरंत	-9.77117
▁मिट्टी	-9.77122
▁गुजरात	-9.77132
▁शोध	-9.77195
▁सहमत	-9.77271
▁मुश्किल	-9.77281
▁निष्पादन	-9.77364
▁चलो	-9.77438
▁फार्म	-9.77514
▁धु	-9.77523
L	-9.77762
▁प्रारूप	-9.77875
▁भंडार	-9.77886
▁आग	-9.78034
▁दबाव	-9.78038
▁प्रतिभा	-9.78044
▁लाया	-9.7807
▁घंटे	-9.78104
मत	-9.78128
▁सदा	-9.78151
▁गोल	-9.78226
▁टे	-9.78299
▁आसानी	-9.7837
▁D	-9.78409
▁सरदार	-9.78416
▁प्रभार	-9.78423
ाइड	-9.78514
▁शिखर	-9.78518
कालीन	-9.78561
▁समझौते	-9.78579
▁थोड़ा	-9.78602
टन	-9.78669
▁प्यार	-9.78687
ूँ	-9.78731
▁युक्त	-9.78737
तया	-9.78747
ic	-9.78748
▁जटिल	-9.78769
▁आसपास	-9.78851
णी	-9.78865
▁मकान	-9.78936
▁लंबे	-9.78945
▁सहमति	-9.78969
▁विरूद्ध	-9.79025
▁प्राथमिकता	-9.79088
▁अन्तर्गत	-9.79117
▁एकमात्र	-9.79121
▁अन्तर	-9.79142
▁इंटरनेट	-9.79186
आई	-9.792
▁घटनाओं	-9.79209
▁चे	-9.79234
जर	-9.7926
▁बिंदु	-9.79336
▁अनुदान	-9.79389
▁नेपाल	-9.794
वाई	-9.79448
▁कारणों	-9.7953
▁बढ़ती	-9.79561
कुल	-9.79564
▁फोन	-9.7964
▁समा	-9.79665
▁द्वीप	-9.7969
कल्प	-9.79696
▁इनका	-9.7972
B	-9.79742
▁फा	-9.79764
▁प्रार्थना	-9.79771
▁महात्मा	-9.79775
▁साक्षी	-9.79784
▁वरिष्ठ	-9.79858
▁विमर्श	-9.80024
▁जिनकी	-9.80036
त्ता	-9.80084
▁पेड़	-9.80121
▁पैरा	-9.80235
▁दूसरों	-9.80277
▁श्रृंखला	-9.80277
▁वर्ण	-9.80333
▁यु	-9.80468
▁उत्तरी	-9.80562
▁बोस	-9.80615
▁हि	-9.80734
▁मं	-9.80769
▁बच	-9.80862
▁सदैव	-9.8087
▁नेताओं	-9.80886
▁प्रथा	-9.80933
▁आपराधिक	-9.80956
▁आहार	-9.81002
at	-9.81084
▁खेती	-9.81109
▁लिखे	-9.81124
▁राजस्थान	-9.81138
▁I	-9.812
शोथ	-9.8125
▁क्ल	-9.81319
▁एकल	-9.81366
▁जाकर	-9.8138
▁चुन	-9.81456
▁हैंः	-9.81499
लिंग	-9.81513
▁पंजीकरण	-9.81563
▁w	-9.81621
▁कितनी	-9.81733
▁रास्ता	-9.81733
▁प्रतिकूल	-9.81745
▁असमर्थ	-9.81817
▁प्रचलित	-9.81895
▁रद्द	-9.81922
क्षण	-9.81996
ंगा	-9.8203
▁मालिक	-9.82187
▁अप्र	-9.8219
▁मोबाइल	-9.8224
▁खतरा	-9.8224
▁ताकत	-9.82289
सो	-9.82307
▁कार्यान्वयन	-9.82327
▁अग्रिम	-9.82336
▁कंपनियों	-9.82498
र्व	-9.8257
िये	-9.82605
▁चौ	-9.82625
लेट	-9.8266
▁अनुसूचित	-9.82671
▁समझने	-9.82784
▁शहरी	-9.82853
टो	-9.82935
▁चोट	-9.82987
▁शीर्षक	-9.83067
▁मालूम	-9.83105
h	-9.8316
चि	-9.83199
▁संयंत्र	-9.83212
▁बनाये	-9.83308
▁जनरल	-9.83368
▁दुख	-9.83399
et	-9.83465
▁यूनिट	-9.83628
▁संदेह	-9.83648
क्षा	-9.83774
▁उठाने	-9.83838
it	-9.83906
▁भावी	-9.83928
▁f	-9.83947
▁जरिए	-9.83979
▁स्थिर	-9.83993
▁प्रेस	-9.84007
्ज	-9.84033
▁मॉडल	-9.84068
्ति	-9.8411
▁खींच	-9.84154
ाउ	-9.84423
▁दवा	-9.84471
▁दान	-9.84518
▁विश्वविद्यालयों	-9.84535
▁राजनीति	-9.84575
▁किनारे	-9.84598
▁फैल	-9.84598
्वा	-9.84613
▁प्रवाह	-9.84633
▁जैव	-9.84711
▁विधियों	-9.84721
र्ण	-9.84767
▁साम्राज्य	-9.84819
▁पूर्ति	-9.84881
▁रेलवे	-9.84988
वास	-9.85029
▁परिषद्	-9.85041
▁अर्ध	-9.85058
▁हिस्से	-9.85121
▁शर्तों	-9.85122
र्थ	-9.85279
▁देंगे	-9.85375
▁एकता	-9.85438
मिन	-9.85464
जो	-9.85467
विज्ञान	-9.85642
▁फ़िल्म	-9.85658
▁रास्ते	-9.85748
▁c	-9.85752
▁दिव्य	-9.85771
▁पोषण	-9.85843
▁प्रविष्टि	-9.85906
ब्	-9.85924
डो	-9.8593
▁चलाने	-9.8596
▁अर्	-9.8597
▁फरवरी	-9.86016
▁अनुसूची	-9.86023
▁ग्र	-9.86177
▁तिथि	-9.86202
▁तंत्रिका	-9.86222
▁हितों	-9.86302
▁एड	-9.8639
गन	-9.8647
▁स्था	-9.86527
▁राजस्व	-9.8659
▁सै	-9.86602
नाम	-9.86636
▁प्रतिभूति	-9.86638
▁निरीक्षण	-9.86644
ष्	-9.86666
▁दर्शा	-9.86687
▁धारणा	-9.86718
▁किसान	-9.86719
▁विद्यालय	-9.86739
▁सौर	-9.86795
▁स्वस्थ	-9.86802
▁समर्पित	-9.86824
णा	-9.86836
▁पूछा	-9.86836
लैंड	-9.86888
▁सर्वोत्तम	-9.87004
▁स्वीकृति	-9.87024
मैन	-9.87049
▁पुरान	-9.87137
एन	-9.8715
▁भंडारण	-9.87243
▁अनुसरण	-9.87276
▁करा	-9.87323
ाकार	-9.87345
▁लंबी	-9.87377
▁गहन	-9.87536
▁ध्वनि	-9.87597
▁उपस्थिति	-9.87616
▁परम	-9.8762
▁समृद्ध	-9.87655
▁हाथों	-9.87663
▁स्वर	-9.87666
▁पाते	-9.87674
▁दीवार	-9.87692
चक	-9.87703
▁चु	-9.87716
▁क्रिकेट	-9.87731
▁वर्गों	-9.87782
तन	-9.87795
▁दुर्घटना	-9.87821
▁फर्म	-9.87851
श्त	-9.87989
▁उपर	-9.87999
▁विनय	-9.88021
▁n	-9.88103
घात	-9.8813
▁दबा	-9.88223
▁मृत्युदंड	-9.88282
▁चालू	-9.8832
▁सम्पूर्ण	-9.88486
▁संदाय	-9.88488
लु	-9.88553
▁युक्ति	-9.88595
▁विनिमय	-9.88649
▁तुम्हारे	-9.8869
▁पंक्ति	-9.88734
▁संक्षिप्त	-9.88736
g	-9.88745
▁सागर	-9.88788
▁निपटान	-9.88788
▁न्यास	-9.88808
▁L	-9.88827
▁हिंदुस्तान	-9.8883
▁...	-9.88921
▁खड़ा	-9.88975
▁उधार	-9.88983
ेर	-9.88997
चित	-9.8906
▁पर्यटन	-9.89105
दास	-9.89158
▁परिभाषित	-9.89169
▁आकर	-9.89171
लिन	-9.89235
▁प्रदूषण	-9.8929
▁प्रवृत्ति	-9.89295
▁सुनवाई	-9.89302
▁टो	-9.89316
▁कोशिका	-9.89343
यु	-9.89352
▁संक्रमण	-9.89396
ंभ	-9.89412
हि	-9.89446
नगर	-9.89484
▁नीतियों	-9.89564
▁अना	-9.89608
▁पर्वत	-9.89703
▁श्रेष्ठ	-9.89753
▁फि	-9.89757
ट्ट	-9.89798
▁ऑनलाइन	-9.89847
▁तत्काल	-9.89893
ून	-9.89905
▁संवर्धन	-9.89973
रिक	-9.90001
▁कब	-9.90097
▁बाकी	-9.9014
▁आवश्यकताओं	-9.90186
पित	-9.90206
▁योजनाओं	-9.90235
▁त्वचा	-9.90313
▁R	-9.90385
▁भय	-9.90536
▁असर	-9.90538
्ता	-9.90579
▁अचानक	-9.90593
▁आलोचना	-9.90598
▁जु	-9.90761
▁समर्थ	-9.90775
▁काट	-9.90797
▁N	-9.90862
▁अद्यतन	-9.90874
▁दर्द	-9.90938
▁इन्	-9.90946
▁मिलियन	-9.91019
▁हद	-9.91061
▁ढांचे	-9.91062
▁प्रिय	-9.91083
▁स्वतः	-9.91109
▁पढ़ने	-9.91182
▁शुरु	-9.91258
▁बदले	-9.91283
▁संवाद	-9.91283
▁घट	-9.9129
▁रेडियो	-9.91302
▁बदलने	-9.91323
▁सारा	-9.9141
प्त	-9.91427
▁प्राधिकार	-9.91475
▁विभाजित	-9.91534
▁हार्दिक	-9.91534
ांक	-9.91556
▁उड़	-9.91561
▁मध्यम	-9.91603
▁विल	-9.91714
▁मिनट	-9.9173
टिक	-9.91848
▁बिहार	-9.91931
▁श्र	-9.91934
▁दास	-9.91961
▁प्रशंसा	-9.92009
▁इसने	-9.92124
▁जाल	-9.92133
▁यथास्थिति	-9.92202
▁लु	-9.92204
▁चलने	-9.92317
▁पक्षकार	-9.92454
▁खराब	-9.92486
▁गुजर	-9.92587
▁कितने	-9.92601
ोस	-9.92755
▁आजादी	-9.92767
ौर	-9.92923
▁अवैध	-9.92963
▁सिद्धांतों	-9.9301
▁टूट	-9.9316
ंप	-9.93198
कता	-9.93265
▁खुश	-9.93269
▁विशेषता	-9.93357
श्	-9.93385
▁सुविधाएं	-9.93389
▁कम्पनी	-9.93397
▁संशोधित	-9.93443
▁नंबर	-9.93551
▁अनुमोदन	-9.93636
▁उल्लेखनीय	-9.93659
▁समानता	-9.9366
▁औ	-9.94009
▁सुदृढ़	-9.94023
▁बाबू	-9.94111
▁देखना	-9.94155
▁धा	-9.9419
▁पैर	-9.94202
▁स्वाभाविक	-9.94217
▁क्षण	-9.94265
ाइल	-9.94309
▁अध	-9.9431
▁कागज	-9.94364
▁सशक्त	-9.94399
▁निवारण	-9.94412
▁गहरा	-9.9449
१०	-9.94545
▁सुर	-9.94644
in	-9.94698
▁राजधानी	-9.94704
▁जैन	-9.94711
▁उसको	-9.94807
▁चन्द्र	-9.94815
▁इनकी	-9.94831
▁नृत्य	-9.949
क्रम	-9.94908
▁पाल	-9.94915
▁स्वच्छ	-9.9504
घर	-9.95081
▁साहस	-9.95165
▁पौधों	-9.95181
▁उत्कृष्ट	-9.95232
▁प्रान्त	-9.95239
▁विनिश्चय	-9.95292
▁शिशु	-9.95298
वाला	-9.95347
▁औपचारिक	-9.9539
▁बालक	-9.95445
दत्त	-9.95478
▁कौ	-9.9548
▁धातु	-9.95498
▁भक्ति	-9.95537
▁शिक्षक	-9.95586
पि	-9.95612
▁चिकित्सक	-9.95613
▁दुकान	-9.95687
▁ठोस	-9.95697
▁फ्ल	-9.95714
▁ड्र	-9.95744
हे	-9.95765
▁E	-9.95774
▁जिम्मेदारी	-9.95783
▁बाधा	-9.95814
▁वर्णित	-9.95816
▁बजट	-9.95817
्ड	-9.9582
▁पेट	-9.95848
▁जलवायु	-9.95882
▁दुःख	-9.95883
▁क्रांति	-9.95972
▁संगम	-9.96004
▁हालत	-9.96121
▁उद्घाटन	-9.96179
▁क़	-9.96198
ंडा	-9.96224
▁सीख	-9.9625
▁विभिन्	-9.96393
▁m	-9.96421
▁शर्त	-9.96449
▁बौद्धिक	-9.96481
ाधिकार	-9.96562
▁कार	-9.96574
▁हिमालय	-9.96578
▁समूहों	-9.96583
भर	-9.9662
▁सूत्र	-9.96695
र्ब	-9.96696
▁समुद्री	-9.96718
▁ब्रिटेन	-9.96775
▁सैनिक	-9.9679
▁हस्तक्षेप	-9.96877
प्प	-9.96924
▁ज़्यादा	-9.96975
▁सफेद	-9.96975
▁खत्म	-9.96999
▁क्लिक	-9.97056
▁अली	-9.97066
▁प्राधिकृत	-9.97075
▁फैला	-9.97112
ूल	-9.97129
तंत्र	-9.97134
▁योग्यता	-9.97137
▁बांध	-9.97149
▁प्रवृत्त	-9.97213
▁पंच	-9.97374
फल	-9.97385
▁चुने	-9.97428
▁समृद्धि	-9.97558
वेद	-9.97572
▁दैनिक	-9.9758
▁गुफा	-9.97694
सार	-9.97801
▁सां	-9.97824
▁खाली	-9.9783
▁ब्रह्म	-9.97835
▁विविधता	-9.97844
▁पीठ	-9.97913
▁लिपि	-9.97925
च्च	-9.98121
▁गरीबी	-9.98135
▁गहरी	-9.98181
▁भले	-9.98183
०वीं	-9.98214
▁देय	-9.98225
▁कष्ट	-9.9823
▁गाय	-9.98232
▁विपणन	-9.98281
▁चिह्न	-9.98304
षण	-9.98393
मुख	-9.98443
▁नौकरी	-9.98454
▁रसायन	-9.98487
▁कारोबार	-9.98585
ब्ब	-9.9861
ानी	-9.98612
ीज	-9.98701
▁चैनल	-9.98789
▁भेंट	-9.98806
्रे	-9.98878
▁गणना	-9.9888
▁लै	-9.98883
▁गि	-9.98917
▁सामूहिक	-9.98992
ग्न	-9.99017
िटी	-9.99065
▁दिख	-9.99082
es	-9.99115
▁फै	-9.99159
▁उत्तरदायी	-9.9922
▁मिलाकर	-9.99227
▁सितंबर	-9.99298
▁बचत	-9.99309
पद	-9.9934
▁जम्मू	-9.994
▁मिलते	-9.9946
▁बचाव	-9.9947
श्र	-9.99505
▁बौद्ध	-9.99506
▁सिद्धान्त	-9.99519
▁सोचा	-9.99529
▁जय	-9.99552
▁सामान्यतः	-9.99612
▁तत्वों	-9.99623
▁दौर	-9.99626
लों	-9.9964
▁विफल	-9.99642
▁मना	-9.99681
▁कमरे	-9.99739
ँग	-9.99742
▁आदान	-9.99759
▁लॉ	-9.99868
जल	-9.99893
▁ग्रंथ	-9.99901
▁अक्ष	-9.99945
▁लेन	-9.99993
ग्र	-10.0002
जीव	-10.0005
▁सकेगी	-10.0009
▁स्टेशन	-10.0013
रक	-10.002
▁अमर	-10.0021
▁कर्नाटक	-10.0022
▁डिजाइन	-10.0022
▁असाधारण	-10.0022
▁अग्रणी	-10.0033
▁पार्क	-10.0034
▁वैध	-10.0036
▁माप	-10.0039
िस्ट	-10.0057
▁राहत	-10.0062
▁वस्त्र	-10.0069
बो	-10.0069
▁कहने	-10.0076
लन	-10.0101
▁माँ	-10.0104
▁उतार	-10.0105
▁विनियम	-10.0108
▁यूरोपीय	-10.0115
▁परिसर	-10.0122
वर्तन	-10.0136
▁स्वर्ण	-10.0138
▁गांवों	-10.0145
ग़	-10.0145
▁घूम	-10.0147
▁कराया	-10.0148
▁हार	-10.0154
ीर	-10.0156
सिंह	-10.0162
▁उच्चतर	-10.0163
▁वंश	-10.0164
▁प्रवर्तन	-10.0173
▁घटक	-10.0173
कृति	-10.0175
ब्र	-10.0178
▁लिंग	-10.0185
▁अज	-10.0185
▁पू	-10.019
▁अक्तूबर	-10.0199
▁भंग	-10.02
▁डाला	-10.0207
बार	-10.0207
िव	-10.0209
▁निगरानी	-10.021
▁प्रत्या	-10.0213
▁आना	-10.0218
▁ताल	-10.0219
▁कार्यवाहियों	-10.022
▁परिभाषा	-10.0221
▁पृथक	-10.0231
▁इक	-10.0231
▁लड़के	-10.0236
खे	-10.0237
▁कठिनाई	-10.0238
धान	-10.0262
▁नेत्र	-10.0262
्टे	-10.0266
▁रुचि	-10.0267
▁रवीन्द्रनाथ	-10.0273
▁पुर	-10.0282
▁व्यक्तित्व	-10.029
▁संवैधानिक	-10.0294
▁सुबह	-10.0294
▁लड़ाई	-10.0298
क्टर	-10.0304
▁चाय	-10.031
▁गरीब	-10.0315
▁लाइसेंस	-10.0315
▁कारावास	-10.0316
ाधिक	-10.0325
▁कॉलेज	-10.0327
▁पौधे	-10.0346
▁आंध्र	-10.0347
▁चमक	-10.0352
स्य	-10.036
▁निचल	-10.0365
▁विद्रोह	-10.037
▁उन्नत	-10.038
▁बैंकिंग	-10.0384
बि	-10.0387
▁चाह	-10.0389
▁सजा	-10.0393
▁खण्ड	-10.0398
▁दृढ़	-10.0398
▁पड़ी	-10.04
▁नेशनल	-10.0401
▁परिचय	-10.0401
▁छा	-10.0411
११	-10.0413
शक्ति	-10.0414
▁मुक्ति	-10.0421
षा	-10.0422
▁खतरे	-10.0422
▁मोड	-10.0424
▁आरंभिक	-10.0425
▁शोक	-10.0437
▁विरासत	-10.0444
▁पाँच	-10.0444
ख़	-10.045
▁मुद्दे	-10.0454
▁खड़े	-10.0455
▁तथ्यों	-10.047
स्त्र	-10.0475
▁पक्षों	-10.0503
अर	-10.0504
▁लगाना	-10.0504
▁पदार्थों	-10.0506
▁जातियों	-10.0507
▁सीमाओं	-10.0518
▁पल	-10.0521
▁अपनाया	-10.0522
▁पैसे	-10.0525
▁वाहन	-10.0527
▁कामना	-10.0527
▁पं	-10.0527
▁अश	-10.053
▁चीजों	-10.053
शाला	-10.0536
▁मैने	-10.0545
▁शहरों	-10.0547
ोट	-10.0549
क्क	-10.0551
▁चीनी	-10.0552
▁न्यायपालिका	-10.0552
कन	-10.0553
ेंट	-10.0553
▁कहता	-10.0563
श्य	-10.0565
▁पूछ	-10.0568
▁दोस्त	-10.0572
▁शिक्षण	-10.0574
ूं	-10.0595
▁वंचित	-10.0595
ed	-10.0596
▁उपखंड	-10.0598
धन	-10.06
▁देन	-10.06
▁कोर्ट	-10.0608
▁स्वभाव	-10.0609
ठा	-10.0609
▁देवता	-10.0618
▁मूलभूत	-10.0622
द्य	-10.0623
▁आश्चर्य	-10.0627
▁वक्त	-10.0628
विध	-10.0628
▁अनुज्ञात	-10.0638
्री	-10.0638
▁विक्रय	-10.0639
▁अधिसूचना	-10.0639
▁अं	-10.0649
▁सम्पत्ति	-10.065
विद	-10.0652
▁भेद	-10.0653
र्त	-10.0665
▁लेती	-10.0679
ra	-10.0679
▁दायर	-10.0692
▁अंतरिक्ष	-10.0694
▁पेंशन	-10.0694
▁साहित्यिक	-10.071
▁रहें	-10.0716
उतना	-10.0717
▁तीसरे	-10.0718
▁लिंक	-10.0721
ing	-10.0725
▁बल्लेबाज	-10.0727
▁जानने	-10.0729
न्य	-10.073
मर	-10.0734
▁‘‘	-10.074
▁अंड	-10.0745
▁अदा	-10.0747
डु	-10.0748
▁प्रक्रियाओं	-10.0749
▁इल	-10.075
▁तलाश	-10.075
▁शक्तिशाली	-10.0752
ग्रस्त	-10.0757
▁बद	-10.0758
▁बिलकुल	-10.0762
▁ब्राह्मण	-10.0762
▁इस्लामी	-10.0764
▁संधि	-10.0766
गम	-10.0773
पार	-10.0777
ेंद्र	-10.0784
▁मानना	-10.0785
▁संध्या	-10.0798
▁कक्षा	-10.0802
▁अर्जित	-10.0805
▁हस्त	-10.0815
▁जीत	-10.0816
▁वाद्य	-10.0822
▁कूट	-10.0824
▁उद	-10.0838
▁मौलिक	-10.0839
▁उठाया	-10.0842
श्म	-10.0854
▁भागीदार	-10.0858
▁टिप्पणी	-10.0859
▁मोह	-10.0859
▁उपलब्धि	-10.0866
▁पढ़ा	-10.087
▁पैमाने	-10.0872
▁उपकरणों	-10.0874
्ज़	-10.0878
▁बजे	-10.0889
is	-10.0893
▁स्क्रीन	-10.0895
▁दीर्घ	-10.0895
▁पुष्टि	-10.0896
▁कुशल	-10.0897
ॉन	-10.0897
▁अक्षर	-10.0901
जीवन	-10.0909
▁गुरू	-10.0916
गुण	-10.0924
ॉल	-10.0926
राव	-10.0942
▁मनो	-10.0947
▁ची	-10.0948
▁डाटा	-10.0951
▁आकाश	-10.0951
▁बीस	-10.0957
ल्ला	-10.0958
ाब	-10.096
▁उपायों	-10.0962
▁चाहती	-10.0969
▁वृक्ष	-10.0971
▁नस्ल	-10.0974
▁अनुचित	-10.0977
▁बहस	-10.0978
▁संत	-10.099
▁बनाता	-10.0991
ेक्ट	-10.0992
▁ऋ	-10.0993
सल	-10.0999
▁प्रबंधक	-10.1012
▁अमरीका	-10.1019
▁मंदिरों	-10.102
िष्ट	-10.1026
▁प्रतियोगिता	-10.1031
▁प्रश्नों	-10.1031
्थ	-10.1033
▁आइ	-10.1035
▁भारतीयों	-10.1041
हत	-10.1041
फर	-10.1042
▁वेद	-10.1057
कर्ताओं	-10.1065
▁आराम	-10.1066
▁संचालित	-10.1067
िप	-10.1069
▁नवीन	-10.1077
▁पहुंचने	-10.1079
▁आउट	-10.1085
▁मूर्ति	-10.1087
▁पृष्ठभूमि	-10.1089
▁अपराधों	-10.109
▁अगला	-10.1103
मल	-10.1107
▁स्वामित्व	-10.1111
मक	-10.112
▁गर्म	-10.112
▁शक्तियां	-10.1124
▁मुगल	-10.1125
ञ	-10.113
▁अन्वेषण	-10.1134
▁द्विपक्षीय	-10.1134
▁फ़ोल्डर	-10.1134
तल	-10.1136
▁श्रीमती	-10.1146
दु	-10.1146
▁पीढ़ी	-10.1157
▁अस्थायी	-10.1168
▁उद्यान	-10.1169
▁छत	-10.1176
▁बेच	-10.1178
▁अंग्रेज	-10.1179
▁मजिस्ट्रेट	-10.118
▁सकेंगे	-10.1181
▁शत्रु	-10.1182
▁तर	-10.1188
▁सदी	-10.1191
▁सराहना	-10.1192
▁संबोधित	-10.1192
▁पंडित	-10.1192
▁टा	-10.1195
▁पंख	-10.1195
▁शाम	-10.1199
▁जीन	-10.1199
▁वृ	-10.1201
▁वचन	-10.1201
▁दिमाग	-10.1203
▁पहलू	-10.1213
▁विद्यार्थी	-10.1215
▁बच्चा	-10.1215
▁पत्रिका	-10.1215
▁रिक्त	-10.1222
कड़	-10.1225
▁विनिर्माण	-10.1228
▁उदार	-10.1229
्च	-10.1231
▁भांति	-10.1239
▁अवसरों	-10.124
▁भरा	-10.1243
▁विश	-10.1247
▁विद्वान	-10.1249
▁यथार्थ	-10.1251
ज़ी	-10.1257
कला	-10.1258
▁निकाला	-10.1274
▁तापमान	-10.1275
▁मानो	-10.1278
रस	-10.128
गामी	-10.1282
▁सद	-10.1287
ैल	-10.1293
गण	-10.1299
वश	-10.1302
ल्ली	-10.1302
▁चाल	-10.1304
▁उत्पा	-10.1308
▁इंडियन	-10.1321
▁डो	-10.1321
▁होम	-10.1323
▁विशेषज्ञ	-10.1329
▁आर्	-10.1331
▁महाराजा	-10.1337
▁कू	-10.1338
फी	-10.1354
धारी	-10.1357
▁कायम	-10.1364
▁संतुलन	-10.1367
▁अत्यन्त	-10.1367
▁जिनसे	-10.1369
▁फेंक	-10.137
भारत	-10.1377
▁प्रतिदिन	-10.1379
aa	-10.1388
वाले	-10.1389
▁सम्	-10.139
▁दिसंबर	-10.1391
▁जुड़ा	-10.1392
▁ईसाई	-10.1399
▁धो	-10.1406
▁कोशिकाओं	-10.1415
▁हकदार	-10.1418
▁आपात	-10.1422
▁ति	-10.1427
▁सिल	-10.1429
रम	-10.1434
वासी	-10.1435
▁वसूली	-10.1436
ड़ियों	-10.1439
w	-10.1446
▁तस्वीर	-10.145
▁बन्द	-10.1457
▁रजिस्ट्रीकरण	-10.1474
▁समझते	-10.1476
▁बनाकर	-10.1477
▁बहन	-10.1481
वर्त	-10.1486
▁भेजे	-10.1486
▁साइट	-10.1488
▁बर्	-10.1492
▁सौंप	-10.1497
▁तरीकों	-10.1498
▁अल्	-10.1498
भव	-10.1508
▁उत्पादक	-10.1518
▁छाप	-10.1518
▁ढांचा	-10.1522
लू	-10.1524
▁मोटर	-10.1525
ाइन	-10.1526
▁जितन	-10.1529
▁समझे	-10.153
▁उद्देश्यों	-10.1531
ह्	-10.1532
थे	-10.1533
कर्म	-10.1551
▁वाणिज्य	-10.1552
▁हटाने	-10.1561
▁तोड़	-10.1567
▁भाष्	-10.1569
नेट	-10.1572
▁चै	-10.1572
▁समितियों	-10.1577
▁विवेक	-10.158
▁पोजीशन	-10.1582
रोध	-10.1585
▁नील	-10.1594
▁मांस	-10.1598
▁परे	-10.16
▁उपयोगकर्ता	-10.1613
▁अवधारणा	-10.1614
▁समावेश	-10.1614
▁झील	-10.1614
▁पुन	-10.1614
वृत्त	-10.162
el	-10.1625
वासियों	-10.1627
▁उपर्युक्त	-10.163
▁गिरफ्तार	-10.163
▁चर	-10.1637
सू	-10.1642
▁अभिगम	-10.1642
▁लंबित	-10.1643
▁आल	-10.1654
▁राजभाषा	-10.1655
▁रानी	-10.1662
▁पारंपरिक	-10.1667
▁जिम्मेदार	-10.1667
▁इलाज	-10.1668
▁प्रभाग	-10.1671
▁मार्गदर्शन	-10.168
ष्टि	-10.1687
ण्ट	-10.169
▁संदेय	-10.1691
▁मिलेगी	-10.1696
▁रहेंगे	-10.17
▁चैतन्य	-10.1703
▁हाँ	-10.1707
▁दक्षिणी	-10.1709
▁आपस	-10.1709
▁बाग	-10.1712
▁चेक	-10.1716
▁t	-10.1724
▁लगती	-10.1724
▁व्यावहारिक	-10.1728
▁आबादी	-10.1728
▁रिकार्ड	-10.1728
▁कॉल	-10.1732
ग्रह	-10.1737
▁शास्त्र	-10.1739
▁प्रतीक्षा	-10.174
▁डाक्टर	-10.1742
हल	-10.1745
▁दिखाया	-10.1749
▁विभागों	-10.1754
▁पह	-10.1762
▁प्रतिष्ठा	-10.1763
▁जायें	-10.1765
▁अंतः	-10.1765
▁पट	-10.1773
लाइन	-10.1779
यल	-10.1785
भाष	-10.1787
▁गतिविधि	-10.1788
▁निष्क्रिय	-10.1789
▁परिवेश	-10.179
▁iii	-10.1791
▁बुद्ध	-10.1792
्ब	-10.1792
▁अत	-10.1793
▁अकेले	-10.1794
▁महाभारत	-10.1803
▁भि	-10.1804
ंठ	-10.181
▁तत्त्व	-10.1811
▁मिलेगा	-10.1834
▁गै	-10.1843
ंघ	-10.1847
▁हरि	-10.1848
▁होंगी	-10.1848
▁सकारात्मक	-10.1851
▁कट	-10.1851
▁e	-10.1854
▁किताब	-10.1856
ाध	-10.1861
प्ट	-10.1863
▁इसीलिए	-10.1863
▁दाखिल	-10.1863
▁संभावित	-10.1863
ानु	-10.1864
▁कारक	-10.1884
▁आतंकवादी	-10.1888
▁हैदराबाद	-10.1888
▁महीनों	-10.1889
पूर्व	-10.1891
▁बोली	-10.1892
▁भरे	-10.1892
▁पक्षकारों	-10.1893
▁लड़की	-10.1893
▁बारह	-10.1896
▁कराना	-10.1909
▁छोड	-10.1909
▁भूख	-10.1911
▁दोनो	-10.1913
▁अन्तर्	-10.1932
▁जम	-10.1933
▁उल्लंघन	-10.1938
▁मानी	-10.1942
▁विष	-10.1955
▁पुष्प	-10.1956
ro	-10.1967
ैन	-10.197
मार्ग	-10.197
▁कर्ण	-10.1973
▁उन्होने	-10.1973
▁सम्बंध	-10.1976
▁चुनें	-10.1983
▁गारंटी	-10.1988
▁बडी	-10.1991
▁केंद्रित	-10.1993
▁देखे	-10.1995
▁प्रांत	-10.2
▁खनिज	-10.2
▁बिता	-10.2006
ेंस	-10.201
शे	-10.2015
्रो	-10.2017
▁बनाते	-10.2024
▁भर्ती	-10.2026
लिया	-10.2027
▁धरती	-10.2028
▁पाये	-10.2029
▁भगवान्	-10.2036
▁जानकर	-10.2039
▁अभिलाभ	-10.2039
रोह	-10.2039
▁एकत्र	-10.2042
▁फ्र	-10.2047
ंडी	-10.205
▁पंजीकृत	-10.2051
▁साम	-10.2058
▁हां	-10.2058
▁ऊंचाई	-10.2067
योजन	-10.2069
▁जोड़ने	-10.207
्द	-10.2072
▁सिंचाई	-10.2076
▁इमारत	-10.2076
▁पालिसी	-10.2077
▁पड़ती	-10.2077
ापन	-10.2079
▁डालने	-10.2081
▁गेंद	-10.2081
▁घाट	-10.2082
ाप	-10.2088
▁स्मरण	-10.2089
▁अनुपालन	-10.209
▁महल	-10.209
▁आधारभूत	-10.2096
धर	-10.2101
▁बढ़ने	-10.2105
▁गद्य	-10.2106
▁दिला	-10.2114
▁मद्रास	-10.2114
▁हिन्दुस्तान	-10.2114
▁दौड़	-10.2114
▁वस्तुतः	-10.2123
िकी	-10.2127
▁प्रेषित	-10.2127
भाग	-10.2133
▁पशुओं	-10.2142
▁वर्मा	-10.2144
▁उत्तरदायित्व	-10.2152
▁आकलन	-10.2152
▁पट्टी	-10.2158
▁खून	-10.2159
भी	-10.2161
▁जायेगी	-10.2162
फ़ा	-10.2167
▁ईरान	-10.217
▁आंशिक	-10.2178
▁पाता	-10.2178
▁छाया	-10.218
▁ग्राहकों	-10.2185
▁भु	-10.2186
▁गण	-10.2188
▁टि	-10.2189
▁सम्पर्क	-10.2191
चल	-10.2196
वर्ग	-10.2199
▁याची	-10.2201
▁क्रियाकलाप	-10.2203
१२	-10.2213
▁फो	-10.2217
ांतर	-10.2226
▁अद	-10.2227
ज्य	-10.223
▁बहुमत	-10.2231
▁प्लस	-10.2242
▁कपड़े	-10.2243
▁मिटा	-10.2246
▁अनाज	-10.2251
▁अमरीकी	-10.2255
सम	-10.2256
▁सन	-10.2256
▁बुला	-10.226
्ह	-10.2263
▁पुरूष	-10.2268
शु	-10.2276
ग्रे	-10.2278
पात	-10.228
▁पहाड़ी	-10.2281
▁बॉ	-10.2284
▁निकालने	-10.2284
▁बीमार	-10.2285
मंड	-10.2291
▁परिस्थिति	-10.2292
▁फैसला	-10.2293
▁जापान	-10.2294
▁प्रजनन	-10.2294
▁स्वीकृत	-10.2296
सान	-10.2299
पल	-10.2307
▁मुंह	-10.2307
▁एकदम	-10.2308
▁साझा	-10.2309
▁बोध	-10.231
▁खुला	-10.2325
▁सेक्टर	-10.2332
▁गर्व	-10.2339
▁मुकदमा	-10.2343
▁धन्यवाद	-10.2346
▁संपदा	-10.2346
▁प्रतिवादी	-10.2347
▁चावल	-10.2349
टिंग	-10.2357
▁अनुशासन	-10.2359
मार	-10.236
▁शांत	-10.2361
▁मानता	-10.2365
▁मौत	-10.2377
▁शु	-10.2379
▁शिल्प	-10.2385
▁h	-10.2387
▁रहस्य	-10.2387
▁फे	-10.2395
▁पहुंचे	-10.2399
▁निष्ठा	-10.24
ज्ञान	-10.2401
▁पहन	-10.2401
▁कोष	-10.2402
▁सिवाय	-10.2404
▁स्टे	-10.2406
क्ल	-10.2409
षित	-10.241
▁जर्मनी	-10.2414
▁पोत	-10.2415
▁भरी	-10.2416
▁थोड़ी	-10.2424
▁कप	-10.2425
दाता	-10.2425
▁मृत	-10.2426
▁जुल	-10.2432
▁वैकल्पिक	-10.2437
▁चली	-10.244
▁जोड़ा	-10.2444
▁विनियमन	-10.2447
▁शिक्षकों	-10.2451
▁कड़ी	-10.2454
▁मॉ	-10.2455
वेल	-10.2458
▁परम्परा	-10.2461
▁कार्यकलाप	-10.2463
ेरी	-10.2464
लोक	-10.2468
▁कहां	-10.2472
▁बैठे	-10.2476
▁लकड़ी	-10.2478
▁पड	-10.248
▁कालेज	-10.2481
▁परिवारों	-10.2486
्रि	-10.2489
▁श्वेत	-10.249
▁गुणा	-10.2492
रन	-10.2493
▁लगते	-10.2494
▁गौरव	-10.2495
▁किन्हीं	-10.2503
▁ऊपरी	-10.2512
▁पूर्णतः	-10.2516
०क	-10.2522
▁स्तरों	-10.253
▁जला	-10.2539
▁देखता	-10.2539
ट्स	-10.2542
▁चेतावनी	-10.2543
▁दस्तावेजों	-10.2545
▁दक्षता	-10.2548
▁गहराई	-10.255
▁वाक्य	-10.2552
▁v	-10.2558
▁शोर	-10.2568
स्ता	-10.2569
▁रहित	-10.2572
▁जमानत	-10.2573
▁मानवता	-10.2576
▁जवाहरलाल	-10.2583
्टर	-10.2583
▁तमिलनाडु	-10.2596
खंड	-10.2599
ोक	-10.2602
▁माने	-10.2604
▁सावधानी	-10.2608
▁उपज	-10.2608
▁उल्लिखित	-10.2609
▁फोटो	-10.261
▁डॉलर	-10.2612
▁सूचित	-10.2614
▁संगठित	-10.2623
▁उन्हीं	-10.2623
▁धनराशि	-10.2623
▁ग्राफ	-10.2629
▁विवरणी	-10.263
▁पहलुओं	-10.2636
▁हाथी	-10.2639
▁चिन्ह	-10.2648
▁व्यापारी	-10.2652
▁विनाश	-10.2654
▁खड़ी	-10.2655
▁समझता	-10.2655
▁ब्ल	-10.2661
▁ट्यूब	-10.2663
▁प्रसाद	-10.2666
हृ	-10.2671
▁तुर्की	-10.2673
▁कनेक्शन	-10.2676
▁उर्दू	-10.2676
म्म	-10.2688
▁गाड़ी	-10.2695
▁संभवतः	-10.2697
▁रोज	-10.2698
▁भेजने	-10.2701
▁मछली	-10.2703
▁प्रतिष्ठित	-10.2703
श्व	-10.2713
जु	-10.2718
एच	-10.2725
▁नकारात्मक	-10.273
ल्फ	-10.2731
▁वापसी	-10.2732
▁पुस्तकों	-10.2733
दारी	-10.2738
▁अग्नि	-10.2744
▁अभिनिर्धारित	-10.2744
▁पदों	-10.2754
▁शत	-10.2757
▁जाओ	-10.2763
▁निवासी	-10.2768
▁इंग्लैंड	-10.2771
▁कुशलता	-10.2771
▁किलोमीटर	-10.2771
▁माननीय	-10.2775
▁टिकट	-10.2776
रित	-10.2784
▁उत्तम	-10.2785
▁साधनों	-10.2786
▁y	-10.2787
दू	-10.2793
▁चुकता	-10.2799
▁चयनित	-10.2801
▁कृति	-10.2801
▁करवा	-10.2802
▁पड़ेगा	-10.2803
ीस	-10.2809
▁सीधा	-10.281
▁फलस्वरूप	-10.2812
▁चुना	-10.2816
▁लीग	-10.282
▁साहब	-10.2825
त्रिक	-10.2826
▁पढ	-10.2826
▁सभापति	-10.2828
निष्ठ	-10.2838
▁प्रचालन	-10.2839
र्जन	-10.2843
▁आदत	-10.2851
ोड	-10.2853
▁पाप	-10.2853
ट्र	-10.2855
▁सतत	-10.2855
▁प्रबल	-10.2856
ुत	-10.2857
ाधीन	-10.2863
गढ़	-10.2865
▁लोड	-10.287
le	-10.2876
ियत	-10.2877
▁महत्त्व	-10.2878
▁दण्ड	-10.2881
▁स्त्रियों	-10.2881
▁निरसन	-10.2881
ांश	-10.2884
ुम	-10.2887
थि	-10.2894
▁राजकुमार	-10.2895
▁असामान्य	-10.2896
▁कही	-10.29
▁अंग्रेजों	-10.2907
दर्श	-10.2908
▁गांधीजी	-10.2908
▁अनि	-10.2908
▁व्यवस्थित	-10.2908
रहित	-10.2909
▁उतनी	-10.291
▁आन	-10.291
▁अंतराल	-10.2913
क्शन	-10.2913
कट	-10.2918
▁अपवाद	-10.2919
र्च	-10.292
▁सेटिंग	-10.2928
▁खुल	-10.2934
▁रजिस्टर	-10.2935
▁शंकर	-10.2937
▁बयान	-10.2939
▁आयी	-10.2939
▁स्तन	-10.2942
पु	-10.2952
दृ	-10.2952
▁रखकर	-10.2954
िफ	-10.2954
पू	-10.2955
ol	-10.2961
▁शानदार	-10.2963
▁सहन	-10.2963
▁गईं	-10.2975
▁अक्षम	-10.2977
▁पुस्तिका	-10.2977
▁पैकेज	-10.2977
▁विद्या	-10.2996
बन्ध	-10.2998
▁दिनांक	-10.3
▁एयर	-10.3004
▁ध्वज	-10.3005
हु	-10.3005
▁रोगों	-10.3011
रिस	-10.3017
▁चीजें	-10.3019
ॉट	-10.302
▁पुराण	-10.3022
▁बाध्य	-10.3027
▁गवर्नर	-10.3032
▁निशान	-10.3035
▁संपन्न	-10.3037
ूँगा	-10.3039
▁आरक्षित	-10.3039
्ला	-10.3044
्टन	-10.3045
▁यातायात	-10.3046
▁सैन्य	-10.3047
▁सम्बन्धित	-10.305
मिल	-10.3058
▁पुल	-10.3059
▁कस	-10.3059
▁कोलकाता	-10.306
▁नवंबर	-10.3061
▁मुझसे	-10.3062
▁बक	-10.3063
▁बेल	-10.3066
▁हमला	-10.3071
▁बुरा	-10.3072
▁हिसाब	-10.3074
▁हिंदु	-10.3077
▁स्टेट	-10.3081
▁उल	-10.3081
▁इराक	-10.3089
ुद	-10.31
▁मिश्रण	-10.31
▁सलाहकार	-10.3101
▁डाय	-10.3102
▁देखी	-10.3111
ंगल	-10.3113
as	-10.3114
▁अखिल	-10.3116
▁माध्यस्थम्	-10.3119
▁कानूनों	-10.3122
▁बडे	-10.3124
▁डाउनलोड	-10.313
▁भ्रम	-10.3136
▁मुकदमे	-10.3139
▁एकीकृत	-10.314
▁चुनौतियों	-10.3144
ालय	-10.3145
▁कार्यान्वित	-10.3147
ेन्द्र	-10.3152
▁रुक	-10.3157
▁संगणक	-10.3159
▁गुट	-10.3164
▁खोलने	-10.3164
▁नाक	-10.3168
▁प्रोफेसर	-10.3173
▁वृत्ति	-10.3173
▁देह	-10.3174
▁पैसा	-10.318
▁बांट	-10.3182
▁प्रयोक्ता	-10.3187
सिक	-10.3188
▁घनिष्ठ	-10.3189
म्भ	-10.3193
▁अनुक्रम	-10.3194
st	-10.3201
कारों	-10.3201
▁चिकित्सीय	-10.3201
ch	-10.3208
थी	-10.321
प्रद	-10.3212
▁हंस	-10.3215
▁संग	-10.322
▁रहेगी	-10.3222
▁अंततः	-10.3225
▁अपनाने	-10.3229
▁चंद्र	-10.3231
मिक	-10.3233
▁पीड़ा	-10.3233
लिये	-10.3237
▁पोस्ट	-10.3238
▁घास	-10.324
▁मशीनरी	-10.3242
ad	-10.3244
▁मंजूर	-10.3253
▁मार्क	-10.3255
▁क्रमशः	-10.3258
▁दावे	-10.3268
▁उठाए	-10.3278
▁सकल	-10.3278
▁प्रतिफल	-10.3284
▁प्रदत्त	-10.3294
▁छु	-10.3297
▁फ्रांस	-10.3297
▁कीटों	-10.3309
▁वर्	-10.3315
▁परिचित	-10.3318
ुन	-10.3327
▁लोकसभा	-10.3331
▁आस्था	-10.3334
▁बम	-10.3334
▁निर्देशिका	-10.3338
वादियों	-10.3341
▁लोकतांत्रिक	-10.3344
▁गुणों	-10.3346
▁सुन्दर	-10.335
▁अस्वीकार	-10.3358
▁एजेंसी	-10.3358
▁ईंधन	-10.3358
▁रचनात्मक	-10.3361
▁कार्यपालिका	-10.3362
▁देखो	-10.3368
▁लाना	-10.3374
िकल	-10.3384
दायी	-10.3386
▁बहादुर	-10.3387
▁रिकॉर्ड	-10.3387
▁बढ़ते	-10.3388
क्षित	-10.3389
धर्म	-10.3389
▁नकद	-10.3399
▁झूठ	-10.3401
वती	-10.3402
se	-10.3408
▁मौ	-10.3416
▁दार्शनिक	-10.3416
▁विलंब	-10.3421
▁प्ला	-10.3423
▁असं	-10.3424
स्थान	-10.3432
▁प्रमाणित	-10.3434
१३	-10.3435
यम	-10.3437
▁शासक	-10.3442
▁चेहरे	-10.3445
िस्तान	-10.3445
▁स्थितियों	-10.3447
▁तैयारी	-10.3447
▁दोहरा	-10.3449
वत्	-10.3449
▁क्षतिपूर्ति	-10.346
▁दू	-10.3461
▁विवादों	-10.3464
वक	-10.3466
▁तन	-10.347
▁सहारा	-10.3476
▁पृ	-10.3476
▁व्यापारिक	-10.3477
▁दोषी	-10.3482
रक्षक	-10.3487
▁आह्वान	-10.3489
▁ड्राइव	-10.3489
टि	-10.3495
▁ट्र	-10.3496
▁जंगल	-10.3497
ुष	-10.3499
▁मित्रों	-10.3499
▁भग	-10.3501
▁शैक्षणिक	-10.3503
न्ना	-10.3503
▁सीता	-10.3508
▁रूस	-10.3508
खी	-10.3509
▁फायदा	-10.3518
▁स्वप्न	-10.3518
▁डिग्री	-10.3518
▁वैज्ञानिकों	-10.3524
▁यानी	-10.3528
▁जायेंगे	-10.3532
▁शेख	-10.3541
हो	-10.3544
▁अभ्यास	-10.3548
तार	-10.355
हम	-10.3552
▁अगल	-10.3555
G	-10.3555
▁आदर	-10.3561
▁सचमुच	-10.3562
▁फर	-10.3566
▁ऊतक	-10.3572
डिया	-10.3574
▁अधिरोपित	-10.3576
▁उपेक्षा	-10.3576
▁जुड़ी	-10.3579
▁झा	-10.3581
यक	-10.3585
▁कार्यरत	-10.359
चन्द्र	-10.3591
▁प्रारम्भ	-10.36
दीन	-10.36
▁निष्	-10.3602
▁घाटी	-10.3604
▁कम्प्यूटर	-10.3606
न्यास	-10.3609
▁O	-10.361
्टी	-10.361
विधि	-10.3616
▁हजारों	-10.3635
▁श्रद्धा	-10.3637
वाँ	-10.3638
▁बढ़कर	-10.3639
फ्ट	-10.3645
स्टी	-10.3647
▁कृत्रिम	-10.365
▁o	-10.3651
नियम	-10.3651
▁शिक्षित	-10.3651
▁नै	-10.3654
▁आँख	-10.3659
▁दिसम्बर	-10.3665
विन	-10.3671
▁नं	-10.3677
▁आवेदक	-10.368
नेवाले	-10.3681
▁वस्तुएं	-10.3682
▁न्	-10.3682
▁विचारधारा	-10.3684
र्द्ध	-10.3688
बोध	-10.3689
▁प्रासंगिक	-10.3695
▁वनस्पति	-10.3695
▁तीनों	-10.3704
▁असली	-10.3706
▁मानकों	-10.3708
ao	-10.3711
टक	-10.3717
िमा	-10.3717
कत	-10.3717
▁रणनीति	-10.3725
▁नवम्बर	-10.3725
▁विष्णु	-10.3742
▁सिख	-10.3749
पना	-10.3754
▁भौगोलिक	-10.3755
▁ऑडियो	-10.3755
▁कथित	-10.3755
▁कण	-10.3757
ंडर	-10.3758
▁प्रतिरोध	-10.3764
▁मतदान	-10.3775
▁लेंगे	-10.3776
▁मादा	-10.378
झा	-10.3782
ानुसार	-10.3783
वंश	-10.3785
▁प्रभावशाली	-10.3803
▁संक्षेप	-10.3803
▁सामान्यतया	-10.3805
▁अनन्त	-10.3806
▁संवेदनशील	-10.3807
▁प्रजा	-10.381
बु	-10.3812
र्प	-10.382
▁वादी	-10.3822
▁जिसको	-10.3824
▁अंडे	-10.3829
▁संकल्पना	-10.3838
▁जुटा	-10.3839
▁अर्जन	-10.3842
छा	-10.3842
▁पत्रों	-10.3843
▁प्रक्रम	-10.3862
▁दया	-10.3877
भार	-10.3881
▁समुदायों	-10.3884
्लो	-10.3885
▁भावनाओं	-10.3887
▁विद्वानों	-10.3889
▁अध्यापक	-10.3891
▁मंडप	-10.3891
▁बेस	-10.3897
शेष	-10.3904
ूत	-10.3909
ल्ट	-10.391
श्च	-10.3912
ाओं	-10.3915
वर्धन	-10.3915
▁मासिक	-10.392
▁खतरनाक	-10.3921
▁अज्ञात	-10.3921
▁उड़ीसा	-10.3921
थर	-10.3926
ाबाद	-10.3929
र्ष	-10.3932
▁अवरोध	-10.3936
▁ताप	-10.3939
▁चढ़	-10.3939
▁अनुदेश	-10.3942
▁दम	-10.3947
▁हाउस	-10.3952
ांकन	-10.3958
▁संयोजन	-10.3958
परि	-10.3962
ाशय	-10.3966
▁हिमाचल	-10.3967
▁परिश्रम	-10.3967
वस्था	-10.3977
▁संगत	-10.398
▁अतीत	-10.3982
▁स्तरीय	-10.3984
▁होटल	-10.3986
▁सहयोगी	-10.3986
▁वाल	-10.3987
▁गोरा	-10.3994
▁व्युत्पन्न	-10.3997
▁लंदन	-10.3997
▁राष्ट्रों	-10.4003
▁पौ	-10.4003
▁छिपा	-10.4007
रोपण	-10.401
▁घृणा	-10.4013
▁वैदिक	-10.4013
▁इकाइयों	-10.4013
▁आपसी	-10.4017
बिल	-10.4021
▁अपेक्षाकृत	-10.4024
▁प्रसंस्करण	-10.4028
▁रॉ	-10.4032
▁हमे	-10.4035
▁अंकित	-10.4039
▁वार	-10.4045
कना	-10.4045
▁पैनल	-10.4045
▁लंबाई	-10.4049
▁कुरान	-10.4052
▁मान्य	-10.4056
▁ज़ि	-10.406
▁भक्त	-10.4061
▁प्रतिबंध	-10.4067
▁लंबा	-10.4069
▁बजा	-10.407
▁गहरे	-10.4074
▁व्यष्टि	-10.4077
▁तीसरा	-10.4079
▁सेवक	-10.408
▁धीम	-10.4086
▁कहाँ	-10.4094
▁पूर्ववर्ती	-10.4095
▁नाग	-10.4098
र्जी	-10.4098
▁आंकड़े	-10.4111
▁लेखकों	-10.4111
▁खिल	-10.412
ोड़	-10.412
▁मुख्यतः	-10.4126
▁सोसाइटी	-10.4136
▁कैंसर	-10.4136
▁नदियों	-10.4137
▁ढेर	-10.4143
ac	-10.4148
नर	-10.4151
ोज	-10.4151
▁कार्मिक	-10.4152
▁संग्रहालय	-10.4153
▁प्रसन्न	-10.4155
वेश	-10.416
▁गणित	-10.4168
▁बुरी	-10.4168
▁उपलब्धता	-10.4171
▁निधन	-10.4172
▁बैठा	-10.4173
▁उर्वरक	-10.4175
▁देशी	-10.4177
▁बनता	-10.4182
▁मतभेद	-10.4184
▁शेर	-10.4186
▁नमक	-10.4191
▁प्ले	-10.4191
मात्र	-10.4194
▁रामायण	-10.4199
▁त्वरित	-10.4199
▁प्रणालियों	-10.4201
▁पक्षी	-10.4204
▁तुम्हार	-10.4207
▁प्रसारण	-10.421
▁घरों	-10.4213
▁योजनाएं	-10.4213
रुप	-10.4214
बंदी	-10.4214
▁पॉ	-10.4214
▁तनाव	-10.4216
▁असल	-10.4216
▁सांस	-10.4218
▁सुनने	-10.4221
▁मोटे	-10.4222
▁मोहन	-10.4225
▁परेशान	-10.4229
▁पिछली	-10.4232
▁रन	-10.4243
▁अभिकरण	-10.4245
▁संभाल	-10.4246
▁जीवाणु	-10.4247
▁राज्यक्षेत्र	-10.4254
▁खबर	-10.426
ख्या	-10.4266
▁दिखाने	-10.4267
▁अपराधी	-10.4275
▁सीखने	-10.4283
▁जग	-10.4286
▁रखती	-10.4287
▁बू	-10.429
▁अधिवेशन	-10.4293
▁तमिल	-10.4297
▁लगाए	-10.4302
▁ऑफ़	-10.4308
▁अनुमोदित	-10.4309
▁शासित	-10.4309
▁अवस्थित	-10.431
▁पादप	-10.4315
▁मध्यस्थ	-10.432
la	-10.4321
▁इलाक	-10.4322
प्स	-10.4323
▁सोने	-10.4326
▁मौका	-10.433
▁आधा	-10.4331
▁अनुज्ञा	-10.4331
▁अच	-10.4337
▁निर	-10.4339
▁दांत	-10.434
▁बंबई	-10.4341
▁तदनुसार	-10.4341
स्फ	-10.4341
▁परिवर्तनों	-10.4341
स्थापन	-10.4349
▁निरा	-10.4349
▁पंचायत	-10.4352
▁वास्तविकता	-10.4353
▁रोम	-10.4353
▁बर्फ	-10.4357
ित्र	-10.4361
यत	-10.4369
▁वजन	-10.4369
शिया	-10.437
▁आमंत्रित	-10.4373
▁पारस्परिक	-10.4373
▁समर्पण	-10.4373
▁बट	-10.4379
▁हथियार	-10.4383
▁आयकर	-10.4383
▁बटन	-10.4383
▁उगा	-10.4386
▁ज्ञापन	-10.4389
ce	-10.4389
▁शिष्य	-10.4389
▁तंग	-10.4396
▁अमल	-10.4399
▁भाग्य	-10.4399
▁टीका	-10.44
ैक	-10.44
फ्	-10.4406
▁खिला	-10.4406
▁अन्तिम	-10.4406
▁लिखते	-10.4406
▁अभियोजन	-10.4408
▁विन्यास	-10.441
ri	-10.4412
▁वृत्त	-10.4414
▁व्यस्त	-10.4415
▁सौंदर्य	-10.4421
▁क्रेडिट	-10.4421
ावली	-10.4421
▁मंजूरी	-10.4427
न्त्र	-10.443
त्स	-10.443
▁जुड़	-10.4431
▁क्यू	-10.4434
▁अक	-10.4439
▁आदेशों	-10.444
▁पश्च	-10.4444
▁पहाड़	-10.4444
स्म	-10.4446
▁बचने	-10.4447
कालिक	-10.4451
स्तर	-10.4451
▁लॉग	-10.4452
▁सितम्बर	-10.4453
▁हिम	-10.4459
▁बचाने	-10.4459
ायत	-10.446
▁वैयक्तिक	-10.446
▁अध्यक्षता	-10.4465
रचना	-10.4466
▁बड़	-10.4468
▁बिन्दु	-10.4469
▁पाठक	-10.4469
▁हट	-10.4469
▁in	-10.4471
▁लोप	-10.4471
▁ग्रा	-10.4474
▁मुलाकात	-10.4485
▁दांडिक	-10.4485
▁सुश्री	-10.4485
▁व्याख्यान	-10.4487
▁सबूत	-10.449
▁नियंत्रक	-10.4501
▁रज	-10.4502
▁आर्य	-10.4505
ूक	-10.4513
▁दशकों	-10.4513
▁संगणना	-10.4517
▁बिट	-10.4519
जित	-10.453
▁विनियामक	-10.4533
▁उत्सव	-10.4533
▁विकासशील	-10.4536
ेन्ट	-10.4538
स्थापित	-10.4541
▁वरन्	-10.4541
▁गर्मी	-10.4546
▁वसा	-10.4551
ायी	-10.4552
▁पाना	-10.4563
▁चलाया	-10.4563
थन	-10.4575
▁शाखाओं	-10.4578
▁अवसंरचना	-10.4582
▁टेलीफोन	-10.4582
▁इंजीनियरी	-10.4583
▁शस्त्र	-10.4584
▁आईटी	-10.4588
▁बनना	-10.4595
un	-10.4597
▁संचित	-10.4597
▁रिजर्व	-10.4598
▁चाहूंगा	-10.4599
ड्ड	-10.4599
▁डॉक्टर	-10.46
▁घन	-10.4601
▁परंपरागत	-10.4603
▁कमीशन	-10.4605
▁निः	-10.4605
▁शराब	-10.4615
▁संग्रहण	-10.4619
▁कवियों	-10.463
▁पुराना	-10.4631
▁उपरोक्त	-10.4631
▁गर्भ	-10.4631
▁आजाद	-10.4648
▁पचास	-10.4648
▁अंतरित	-10.465
▁अधीनस्थ	-10.4658
▁केंद्रों	-10.4659
दर्शी	-10.466
▁ऊंची	-10.4664
▁महासागर	-10.4664
▁नारायण	-10.4666
्दी	-10.4667
पाद	-10.4668
▁उड़ान	-10.468
जू	-10.4683
▁माँग	-10.4687
▁विजेता	-10.4697
▁प्रोटीन	-10.4697
▁अम्ल	-10.4699
▁गलती	-10.4703
च्छा	-10.4705
▁प्रव	-10.4712
▁देवताओं	-10.4713
▁सृजित	-10.4713
▁सम्राट	-10.4729
▁पुस्तकालय	-10.4731
▁नकदी	-10.4733
▁कहानिय	-10.4733
लंब	-10.4739
▁मोड़	-10.474
दल	-10.474
▁ग्ल	-10.4749
हट	-10.4758
▁विधानमंडल	-10.4764
▁दिखाएँ	-10.4768
▁उपग्रह	-10.4773
त्तर	-10.4775
▁बडा	-10.4775
▁गतिशील	-10.4776
▁तीस	-10.4784
▁दरबार	-10.4784
▁वन्य	-10.4786
▁कमांड	-10.4787
वाड़	-10.4787
वित	-10.4787
मुखी	-10.479
▁प्रशिक्षित	-10.4796
▁सिं	-10.4797
ation	-10.4798
▁औषधि	-10.4802
▁सम्मानित	-10.4811
बाई	-10.4812
▁r	-10.4813
▁कृत्य	-10.4813
▁पंजाबी	-10.4814
▁घोष	-10.4819
द्वार	-10.482
आँ	-10.4821
▁हाइ	-10.4822
▁पहुँचा	-10.4824
▁रासायनिक	-10.4829
▁छप	-10.4841
क्व	-10.4842
ड़िया	-10.4851
▁बीत	-10.4851
▁शीत	-10.4856
▁लक्ष्यों	-10.4859
▁पुस्तकें	-10.486
ौल	-10.4864
तुल	-10.4865
▁जगत	-10.4865
▁सूजन	-10.4868
डीए	-10.4871
▁जानवरों	-10.4874
▁लिखना	-10.4882
▁तीसरी	-10.4884
तो	-10.4886
पितु	-10.4888
ोद	-10.4893
▁छुट्टी	-10.4896
▁परत	-10.4903
▁निकलने	-10.4906
ठी	-10.4906
▁कनाडा	-10.4913
यं	-10.4924
▁निर्णयों	-10.4925
▁ब्रा	-10.4926
▁मरम्मत	-10.493
▁बैक	-10.493
मुक्त	-10.4933
▁नकल	-10.4934
▁शो	-10.4938
▁इसको	-10.4944
▁तरल	-10.4945
▁लम्बे	-10.4947
▁धान	-10.4951
ध्या	-10.4959
▁अंग्रेज़ी	-10.4962
▁सम्पन्न	-10.4964
▁नार	-10.4966
ऐ	-10.4968
ैक्ट	-10.4971
मंद	-10.4972
▁मैक	-10.4976
▁नाते	-10.4978
▁टिप्पण	-10.4979
▁ऊंचे	-10.498
▁दुर्	-10.4992
▁दंत	-10.4994
▁सम्भव	-10.4996
▁विकलांग	-10.4997
▁एण्ड	-10.4997
uot	-10.4998
▁शे	-10.5008
▁स्पर्श	-10.5012
▁स्वाधीनता	-10.5014
▁परिकल्पना	-10.5014
▁आकर्षण	-10.5031
▁प्रसंग	-10.5031
▁निष्पक्ष	-10.5031
▁सहानुभूति	-10.5032
▁पूर्णतया	-10.5037
▁प्रभार्य	-10.5043
▁प्लेट	-10.5043
▁फौज	-10.5049
मूल	-10.5053
▁नम	-10.5055
▁ट्रैक	-10.5063
▁विज्ञापन	-10.5065
▁इम	-10.5066
▁विधायी	-10.5066
लाई	-10.5068
म्य	-10.5069
▁कलाकार	-10.5071
▁तुमने	-10.5074
▁चित्रण	-10.5074
▁जरा	-10.5078
फ़ी	-10.5082
▁वैष्णव	-10.5082
शाली	-10.5084
▁of	-10.5084
यान	-10.5084
▁द्रव	-10.5086
ध्व	-10.5099
▁उन्होनें	-10.5102
▁उपाधि	-10.5107
▁आस्तिय	-10.5108
लिक	-10.5113
▁वर्न	-10.5113
▁विस्फोट	-10.5117
िग	-10.5119
▁दस्त	-10.5122
जात	-10.5125
▁शर्तें	-10.5128
माल	-10.5129
लाल	-10.513
वाहक	-10.5132
▁फिलीस्तीनी	-10.5141
▁कैल	-10.5141
्टि	-10.5147
▁यहूदी	-10.5151
▁अनुभूति	-10.5154
▁इंड	-10.5154
बाजी	-10.5154
▁सबके	-10.5158
▁बसव	-10.516
▁सैनिकों	-10.5168
▁स्नातक	-10.5168
िज़	-10.517
▁क्रांतिकारी	-10.5171
▁समर्थित	-10.5172
वै	-10.5172
▁फसलों	-10.5174
▁अह	-10.5183
▁मंगल	-10.5184
▁अभिभाषण	-10.5186
▁चट्टान	-10.5186
ज़े	-10.5192
▁आखिर	-10.5204
ट्री	-10.5205
▁विधियां	-10.5211
▁दिल्	-10.5212
१४	-10.5212
▁वासी	-10.5218
▁अंध	-10.522
▁ठहरा	-10.5225
▁संतुष्ट	-10.5228
▁पूर्णता	-10.5231
ाज	-10.5233
क़्त	-10.5238
▁शपथ	-10.5238
▁लगने	-10.5245
बाज	-10.5245
▁दत्त	-10.5249
▁क्रय	-10.5249
▁पर्व	-10.5256
▁खेत	-10.5258
▁सफलतापूर्वक	-10.526
रान	-10.5261
▁मील	-10.5263
▁उम	-10.5264
▁मिस्र	-10.5273
ोत्तर	-10.5275
ाचार	-10.5286
▁मुकाबले	-10.529
▁माइक्रो	-10.529
▁आधे	-10.529
दायक	-10.5291
▁उग्र	-10.5295
ंदा	-10.5304
▁री	-10.5306
▁इन्हीं	-10.5308
वस	-10.5314
कू	-10.5314
युक़्त	-10.5321
▁सोम	-10.5321
▁पेशेवर	-10.5325
ज़र	-10.5326
▁बनाती	-10.5329
क्का	-10.5331
▁स्कूलों	-10.5335
▁प्राणी	-10.5346
▁शादी	-10.5347
न्द्र	-10.535
▁चरम	-10.5357
रंग	-10.5358
भूमि	-10.5363
▁कार्यालयों	-10.5363
▁विपक्ष	-10.5364
▁निपटने	-10.5366
▁सकने	-10.5368
’’	-10.5369
▁किशोर	-10.5378
▁कार्बन	-10.5378
▁शक	-10.5381
तिक	-10.5384
चित्र	-10.5384
▁हॉ	-10.5389
▁जाया	-10.5402
▁दलों	-10.5402
▁इनपुट	-10.5403
▁जल्द	-10.5405
▁फु	-10.5407
▁भरने	-10.5409
रोग	-10.5411
us	-10.5411
▁वितरित	-10.5413
▁सोचते	-10.5419
▁आपदा	-10.5422
▁जागरूकता	-10.5426
रंज	-10.5426
▁इलेक्ट्रॉनिक	-10.5427
अप	-10.5428
▁अवकाश	-10.5431
▁यौन	-10.5431
▁तारा	-10.5436
सिद्ध	-10.5439
▁जानना	-10.5439
▁दाम	-10.5441
▁समस्याएं	-10.5445
▁गवाह	-10.5446
▁स्वचालित	-10.5449
▁शास्ति	-10.5451
▁घु	-10.5455
▁मजदूर	-10.5455
प्रभा	-10.5455
▁साइ	-10.5456
पन्न	-10.5458
il	-10.5464
▁मुहम्मद	-10.5466
▁गाँव	-10.5466
▁आमदनी	-10.5466
▁भत्ता	-10.547
▁कराई	-10.547
ur	-10.5473
लम	-10.5478
▁विदेशों	-10.548
▁थोड़े	-10.5484
त्म	-10.5484
ेषण	-10.5486
नुसार	-10.5497
ैस	-10.5499
th	-10.55
इन	-10.55
क्ट	-10.5505
▁आह	-10.5505
▁उत्पादकता	-10.5506
ter	-10.5508
त्री	-10.5509
▁नोड	-10.5511
रचनाओं	-10.5512
▁रूपरेखा	-10.5518
▁एजेंसियों	-10.552
▁नायक	-10.5523
▁न्या	-10.5523
▁चौक	-10.5526
▁वैसा	-10.5527
▁मिश्रित	-10.5528
परक	-10.5531
▁पीने	-10.5531
▁नमूने	-10.5534
वृत्ति	-10.5539
▁000	-10.554
▁रिज़र्व	-10.5555
▁वयस्क	-10.5555
▁भरपूर	-10.5557
▁ग्रस्त	-10.5558
▁वर	-10.5559
▁उन्हे	-10.556
▁विद्वत	-10.5561
▁बाढ़	-10.5565
▁लाभों	-10.5565
▁नौकर	-10.5566
▁मुक	-10.5573
▁भरोसा	-10.5573
▁स्थूल	-10.5573
▁अवयव	-10.5573
▁कारगर	-10.5576
▁विभेद	-10.5577
▁आंकड़	-10.5583
▁बंधन	-10.5585
▁राव	-10.5587
▁बढ़ता	-10.5595
▁रूपये	-10.5602
▁कार्यकारी	-10.5602
▁ठहर	-10.5606
▁रेशम	-10.561
ड्र	-10.5612
▁देखिए	-10.5617
▁विशेषाधिकार	-10.5619
▁अभिव्यक्त	-10.562
▁आवश्य	-10.5622
सेट	-10.5623
▁आंक	-10.5627
▁गिरफ्तारी	-10.5627
▁जरूर	-10.563
ारा	-10.5631
▁स्मारक	-10.5645
▁सर्विस	-10.565
ay	-10.5653
▁शैल	-10.5656
▁उत्कृष्टता	-10.5657
र्श	-10.5659
▁बोझ	-10.5662
te	-10.5663
▁हक	-10.5664
▁नियोजन	-10.5668
टु	-10.5671
▁रै	-10.5679
▁आपत्ति	-10.5686
बाल	-10.5699
▁नो	-10.5699
▁यूनियन	-10.57
▁सार्थक	-10.57
▁डिजिटल	-10.5703
▁जाएँ	-10.5709
▁अधिकृत	-10.571
▁खुली	-10.5712
▁काले	-10.5713
▁मैच	-10.5716
अधिसूचित	-10.5718
▁चिंतन	-10.5719
▁उपभोग	-10.572
ेन्स	-10.5721
▁क्ष	-10.5722
रेट	-10.5728
प्रा	-10.5731
▁क्लब	-10.5732
▁बदला	-10.5736
▁नाबार्ड	-10.5736
▁शोषण	-10.5737
गान	-10.5738
▁जिलों	-10.5738
▁गीता	-10.5742
▁ग़	-10.5744
▁निर्गम	-10.5745
▁आव	-10.5751
टल	-10.5751
▁गौर	-10.5752
िक्स	-10.5753
▁अफगानिस्तान	-10.5755
▁वक्तव्य	-10.5756
लक	-10.5757
▁संतान	-10.5763
▁आजकल	-10.5766
▁मजदूरी	-10.5768
▁अरबी	-10.5769
▁सकी	-10.5772
▁जयंती	-10.5773
▁वर्गीकरण	-10.5774
चाल	-10.5774
लिस	-10.5776
▁नज़र	-10.5777
म्बर	-10.5778
घा	-10.579
▁शुरूआत	-10.5792
▁निर्धन	-10.5793
ee	-10.5798
▁जंगली	-10.58
▁संवेदना	-10.5801
▁दूरस्थ	-10.5826
▁बाज़ार	-10.5828
▁अहमद	-10.5829
▁टैब	-10.583
चु	-10.5831
व्	-10.5837
▁जोड़ें	-10.5842
▁मराठी	-10.5846
ंबर	-10.5847
▁बढ़ाना	-10.5849
▁सबको	-10.5853
▁उपदेश	-10.5856
▁भिन्	-10.5863
▁मानने	-10.5864
tr	-10.5864
▁आयाम	-10.5865
▁निराशा	-10.5865
ढा	-10.5873
▁ओपन	-10.5876
▁फुट	-10.5877
वर्षीय	-10.5881
▁मिलना	-10.5882
▁कहे	-10.5882
▁गणतंत्र	-10.5884
▁समता	-10.5885
▁यहीं	-10.5886
▁राजमार्ग	-10.5887
योजित	-10.5887
▁उठाना	-10.5888
आईसी	-10.5896
▁नी	-10.5897
ङ्	-10.59
▁आनुवंशिक	-10.5902
▁सफाई	-10.5902
▁विडियो	-10.5903
▁ऊँच	-10.5905
ट्रो	-10.5911
▁पड़ने	-10.5913
▁शर	-10.5916
▁शास्त्री	-10.5917
▁रच	-10.592
▁सौभाग्य	-10.5921
ग्रहण	-10.5925
स्थल	-10.5926
▁डूब	-10.5926
▁इंकार	-10.5932
▁पेशी	-10.5934
▁विभ	-10.5934
▁अन्याय	-10.5935
▁दाव	-10.5936
▁एकत्रित	-10.5938
▁किलो	-10.5939
▁सुचरिता	-10.5939
▁कीजिए	-10.5942
▁संग्राम	-10.5943
▁अधिनियमित	-10.5944
▁लाइ	-10.5947
▁यात्री	-10.5947
▁उज	-10.5956
▁खूब	-10.5958
▁पार्श्व	-10.5958
ीला	-10.5967
▁विधा	-10.5968
▁अवमानना	-10.5968
लेख	-10.5977
▁परिचालन	-10.5977
▁बांग्लादेश	-10.5977
▁कराता	-10.5981
▁गज	-10.5987
▁दुर्लभ	-10.5995
▁निर्वाचित	-10.5995
मंडल	-10.5996
▁पहुंचाने	-10.5998
▁फूट	-10.5999
▁नोटिस	-10.5999
▁सीधी	-10.601
▁गोली	-10.6012
प्पा	-10.6014
▁थक	-10.602
▁फी	-10.6022
▁अज्ञान	-10.6026
▁ज्यादातर	-10.6026
चना	-10.6028
▁समझना	-10.6029
िं	-10.6031
▁सत्याग्रह	-10.6033
▁टाइप	-10.6033
▁ज़रूरत	-10.6037
▁दस्तावेज़	-10.604
दाय	-10.6042
▁जानवर	-10.6065
पोर्ट	-10.6066
▁बताने	-10.6067
▁खरीदने	-10.6071
▁इस्पात	-10.6071
सऋ	-10.6072
्यता	-10.6074
▁हर्ष	-10.6077
▁प्रतिमा	-10.6079
▁असफलता	-10.6079
▁भव्य	-10.6082
▁बुक	-10.6083
▁अपमान	-10.6087
▁प्रयोगशाला	-10.6089
▁रियासत	-10.609
▁स्नेह	-10.609
▁संकलन	-10.609
▁लहर	-10.6091
▁तत्काली	-10.6095
AT	-10.6096
▁बचपन	-10.6098
▁हिल	-10.6098
▁आंखों	-10.6102
▁अमीर	-10.6105
▁पढ़ाई	-10.6106
▁सर्वप्रथम	-10.6109
▁मुल्क	-10.611
▁ग्रन्थ	-10.6112
▁कृषक	-10.6128
▁किराया	-10.6128
▁अपीलार्थी	-10.6129
ट्टा	-10.6129
▁आंख	-10.613
▁बुलाया	-10.6135
▁काली	-10.6137
▁क़्योंक	-10.6139
ूंगा	-10.6141
क्षी	-10.6142
▁व्याप्त	-10.6143
▁स्वर्ग	-10.6144
डल	-10.6146
▁रिट	-10.6146
▁मस्जिद	-10.6147
▁ऋषि	-10.6149
▁विकृत	-10.6151
▁वृद्ध	-10.6154
लिखित	-10.6156
ैं	-10.6156
▁निवेशकों	-10.6157
नुमा	-10.6163
▁आकर्षक	-10.6166
▁कर्ज	-10.6166
▁विलय	-10.6168
▁ग्रह	-10.6169
पंथ	-10.6171
▁क्रि	-10.6171
स्वरुप	-10.6174
ate	-10.6184
▁प्रशासक	-10.6185
▁टेनिस	-10.6185
उन	-10.6192
▁जरूरतों	-10.6192
▁लाखों	-10.6195
सिल	-10.6203
▁प्रतिबद्धता	-10.6203
EE	-10.6203
▁आश्वासन	-10.6204
▁मेहनत	-10.6204
▁रेड	-10.6211
▁अतिथि	-10.6215
ल्प	-10.6217
▁अकादमी	-10.6223
▁आकस्मिक	-10.6223
▁टैगोर	-10.6223
▁सिफारिशों	-10.6224
▁इस्लामवादी	-10.6225
▁लिखत	-10.6227
हरा	-10.623
▁जै	-10.623
▁परिणामों	-10.6233
▁ऊंचा	-10.6237
▁एशियाई	-10.6239
▁अप्रत्यक्ष	-10.6242
▁गरिमा	-10.6242
▁लम्बी	-10.6242
▁सिरे	-10.6244
मीटर	-10.6254
▁स्रोतों	-10.6257
▁मसल	-10.6257
▁इंदिरा	-10.6261
▁सशस्त्र	-10.6261
▁प्रतिनिधियों	-10.6269
▁जैसाकि	-10.627
शल	-10.6272
लिप	-10.6272
▁छू	-10.6278
स्टो	-10.6279
▁डालर	-10.6279
▁नजदीक	-10.6281
▁सुदूर	-10.6281
▁तालाब	-10.6281
▁प्रभु	-10.6287
▁दमन	-10.629
am	-10.6298
मिया	-10.6298
me	-10.63
▁आन्दोलन	-10.63
▁संतोष	-10.6304
बुल	-10.6317
▁विक्रेता	-10.6319
▁सच्चे	-10.6319
▁भरत	-10.6321
▁अपर	-10.6325
▁तरंग	-10.6334
▁ढूंढ	-10.6336
▁ढक	-10.6337
▁मजबूर	-10.6339
▁घायल	-10.6339
to	-10.6339
▁टिक	-10.6341
▁पृथक्	-10.6345
▁स्वीकार्य	-10.6349
▁संस्थागत	-10.6352
▁कराए	-10.6352
▁जुड	-10.6353
▁समर्थक	-10.6356
▁अनुकरण	-10.6356
▁कमेटी	-10.6358
▁युवक	-10.6359
▁किमी	-10.636
कर्ष	-10.6362
▁समीकरण	-10.6372
ेरे	-10.6373
ाहट	-10.6376
▁उत्सुक	-10.6378
▁असंभव	-10.6378
क्षेत्र	-10.6379
▁स्ल	-10.6381
▁प्रतिवर्ष	-10.6385
ैया	-10.6385
▁अन्	-10.6387
▁खासकर	-10.6389
▁आकृति	-10.639
▁महान्	-10.6398
▁समकालीन	-10.6401
▁एससीसी	-10.6403
▁स्विच	-10.6407
▁l	-10.6413
▁संपादक	-10.6417
▁जाहिर	-10.6417
मेन	-10.6422
▁बां	-10.6433
पीठ	-10.644
▁राजपत्र	-10.6442
▁लक	-10.6447
▁वरीयता	-10.6456
ाणु	-10.6456
र्य	-10.6461
ैर	-10.6462
चंद्र	-10.6468
ध्य	-10.6473
▁एक्सचेंज	-10.6476
▁राष्ट्री	-10.6487
▁कंध	-10.649
▁डाले	-10.6493
िला	-10.6496
▁मोर	-10.6496
▁ढाल	-10.6499
▁इनकार	-10.65
▁जॉन	-10.6501
▁कर्तव्यों	-10.6505
▁सुधारने	-10.6505
▁प्रत्य	-10.6515
▁संव्यवहार	-10.6515
▁पते	-10.6515
▁कच्चे	-10.6515
▁पूर्वोक्त	-10.6515
▁हुये	-10.6519
▁त्रुटिः	-10.652
▁गे	-10.6523
रेशन	-10.6534
दृष्टि	-10.6534
▁माहौल	-10.6535
▁कृत्यों	-10.6538
▁संघीय	-10.6543
▁समापन	-10.6549
▁नमूना	-10.655
▁प्रत्यर्थी	-10.6554
▁सांप्रदायिक	-10.6554
▁मूत्र	-10.6561
▁अपूर्ण	-10.6564
सीसी	-10.6567
कोण	-10.6571
वृत	-10.6572
▁निमित्त	-10.6574
▁प्रतिरक्षा	-10.6574
बर्ट	-10.6574
▁भ्रष्टाचार	-10.6574
▁उन्नयन	-10.6575
▁अभ्य	-10.6578
▁मृतक	-10.6581
▁घाव	-10.6586
▁छल	-10.6586
ma	-10.6588
▁अंगों	-10.6589
प्रिय	-10.659
▁दुर्ग	-10.6591
▁फॉर	-10.6592
दो	-10.6599
बन	-10.6604
▁पुकार	-10.6607
▁प्राय	-10.6608
▁घुस	-10.661
▁खाद	-10.6614
▁ठाकुर	-10.6614
▁संचिका	-10.6614
▁साक्षात्कार	-10.6615
▁कनेक्ट	-10.6615
शिप	-10.6616
केट	-10.6619
▁फूलों	-10.6621
▁अवधारण	-10.6622
▁प्रण	-10.6623
▁उत्तराधिकार	-10.6632
▁बम्बई	-10.6634
▁आवरण	-10.6635
क्यू	-10.6637
▁विनिधान	-10.664
लीन	-10.6648
▁राह	-10.6649
▁अध्य	-10.6653
▁गाँधी	-10.6654
▁हरियाणा	-10.6654
▁झु	-10.6655
ंर	-10.6663
लैण्ड	-10.6665
▁अपार	-10.6669
▁मिथ्या	-10.6674
▁अनिवासी	-10.6675
▁कबीर	-10.6675
बिया	-10.6678
▁समेकित	-10.6694
▁अजीब	-10.6695
▁देनी	-10.6707
▁श्लोक	-10.6714
▁पुनरीक्षण	-10.6716
▁टू	-10.6722
ूद	-10.6725
▁अहम	-10.6731
१५	-10.6733
▁कौंसिल	-10.6734
▁रियायत	-10.6734
▁आउटपुट	-10.6735
▁तै	-10.6737
फ्रे	-10.6738
▁उन्	-10.6744
▁भ्र	-10.6744
▁छः	-10.6746
ण्य	-10.6748
▁दूरसंचार	-10.6755
▁स्त्रोत	-10.6755
▁विधवा	-10.6755
▁ऋतु	-10.6757
▁शल्य	-10.6757
▁सोचने	-10.6758
▁लाभांश	-10.6759
▁सत	-10.6762
सिन	-10.6764
त्ति	-10.6765
▁बैल	-10.6765
▁नेताजी	-10.6766
▁ठंड	-10.6767
कृतियों	-10.677
ाभ	-10.6774
▁पांव	-10.6775
▁चढ़ा	-10.6775
▁पेटेंट	-10.6776
बान	-10.6777
ांकित	-10.6777
▁सिर्फ़	-10.6788
▁अहिंसा	-10.6793
▁सड़कों	-10.6805
▁जोड़े	-10.6815
▁विटामिन	-10.6815
▁प्रसव	-10.6817
▁रोचक	-10.6818
▁सत्यापन	-10.6818
ाली	-10.6822
▁मारे	-10.6822
▁बुल	-10.6827
▁जू	-10.6827
▁फिलीस्तीन	-10.6828
▁मोटा	-10.6832
▁अग	-10.6834
▁क्रियान्वयन	-10.6836
▁भेदभाव	-10.6837
▁एक्ट	-10.6838
▁वॉ	-10.6841
▁टर्मिनल	-10.6856
▁समायोजन	-10.6857
▁सारणी	-10.6858
▁सच्चाई	-10.686
▁कोमल	-10.6866
▁समाजवादी	-10.6868
शीलता	-10.6868
गें	-10.6871
▁हमले	-10.6873
▁सीट	-10.6873
वर्ड	-10.6874
AR	-10.6875
▁परिदृश्य	-10.6877
▁पुनर्वास	-10.6879
▁रूचि	-10.6884
बाद	-10.6884
▁बेटे	-10.6889
and	-10.6893
NAME	-10.6897
▁हड्डी	-10.6897
▁महाद्वीप	-10.6898
▁टाइम्स	-10.6899
▁सदस्यता	-10.6901
▁बॉक्स	-10.6902
▁असंगत	-10.6903
▁अभिदाय	-10.6907
ादि	-10.6908
▁सेशन	-10.6914
▁साक्षरता	-10.6918
▁उद्भूत	-10.6919
▁झुक	-10.6924
▁रत्न	-10.6927
▁जरुरत	-10.693
▁चम	-10.6931
▁रिहा	-10.6933
▁भेजी	-10.6936
▁पेट्रोलियम	-10.6938
▁प्रबन्ध	-10.6939
▁काफ़ी	-10.6941
▁पान	-10.6944
▁किरायेदार	-10.6946
मू	-10.6955
em	-10.6956
ियाई	-10.6957
▁पब्लिक	-10.6959
▁गूगल	-10.6959
▁राज़्य	-10.6959
▁वर्क	-10.6959
▁पीछल	-10.6962
▁उधर	-10.6963
चरित	-10.6966
▁तू	-10.6967
▁विकार	-10.697
▁लौटा	-10.6971
▁सिखा	-10.6973
▁तुम्हारा	-10.6979
▁अपनाई	-10.6979
▁हिस्सों	-10.698
▁वध	-10.6982
▁इंजन	-10.6986
▁we	-10.6988
▁मंत्रियों	-10.6991
१वीं	-10.6995
▁मजदूरों	-10.6998
▁ओवर	-10.6998
▁चूक	-10.7
▁उन्मूलन	-10.7
▁कृ	-10.7002
ूस	-10.701
▁जिंदगी	-10.7021
▁मधुमेह	-10.7021
▁सृष्टि	-10.7021
▁टॉ	-10.7029
▁प्रवर्ग	-10.7029
माला	-10.7039
▁मुझ	-10.7041
▁फट	-10.7047
▁राजाओं	-10.7047
▁पोर्ट	-10.7049
▁टांग	-10.7052
ेक्स	-10.7055
▁याचिकाकर्ता	-10.7056
▁किरण	-10.7064
▁हिन्दुओं	-10.7067
▁पक्षियों	-10.707
▁पूर्वोत्तर	-10.707
निर्देश	-10.708
▁आगमन	-10.7081
▁मोहम्मद	-10.7083
▁नींव	-10.7083
पुट	-10.7085
▁पतन	-10.7087
▁शू	-10.7101
▁चो	-10.7102
▁उपयोक्ता	-10.7104
▁ह्य	-10.7105
▁वार्ता	-10.7105
▁निक्षेप	-10.7107
म्मा	-10.7109
▁विस्तारित	-10.711
▁दै	-10.7115
▁बताना	-10.7116
स्वामी	-10.7116
▁मनोरंजन	-10.7125
▁गर्भाशय	-10.7126
▁विच्छेद	-10.7129
डिंग	-10.7132
▁रोगियों	-10.7135
▁तीर्थ	-10.7135
ियल	-10.7143
गमन	-10.7146
एगा	-10.7146
स्थिति	-10.7147
लै	-10.7157
▁बोला	-10.716
▁स्टॉक	-10.7166
▁सर्वश्रेष्ठ	-10.7167
▁चलती	-10.717
▁कैन	-10.717
▁घुटन	-10.7171
▁तह	-10.7171
▁रहीं	-10.7172
▁निपटा	-10.7173
▁सॉ	-10.7178
▁महत्त	-10.7178
▁बच्चन	-10.7189
▁मंत्रि	-10.7189
▁पोल	-10.719
▁अनिश्चित	-10.7191
▁भीड़	-10.7192
▁निकायों	-10.7195
पूर	-10.7196
मेट	-10.7197
ंकि	-10.7203
▁फंस	-10.7204
दर्शन	-10.7205
▁पीड़क	-10.7205
▁चर्च	-10.7208
▁अक्टूबर	-10.721
▁मामूली	-10.721
▁मैत्रीपूर्ण	-10.7213
एक	-10.7213
▁शम	-10.7219
▁विश्वसनीय	-10.7221
ात्	-10.7221
▁खोजने	-10.7226
▁बताता	-10.7226
▁विकिरण	-10.7231
▁मुहैया	-10.7231
▁कब्जा	-10.7231
▁देगी	-10.7231
▁सम्बद्ध	-10.7233
ार्थियों	-10.7233
शोध	-10.7242
▁इकट्ठा	-10.7243
▁जर्मन	-10.7246
▁निर्देशों	-10.7248
▁निभाई	-10.7248
▁पुनर्गठन	-10.7252
▁किलोग्राम	-10.7252
▁बकाया	-10.7253
▁गुलाम	-10.7254
▁निर्देशित	-10.7256
▁संचय	-10.7257
▁संकाय	-10.7258
हीनता	-10.7265
▁iv	-10.7267
▁उठता	-10.7271
▁मैत्री	-10.7272
▁कामगार	-10.7272
▁आयुर्वेद	-10.7273
ER	-10.7274
▁निर्वहन	-10.7274
▁वसूल	-10.7277
्ट्र	-10.7282
▁भेड़	-10.7282
▁मित्रता	-10.7287
▁आतंक	-10.7291
▁फेर	-10.7292
पर्ण	-10.7292
▁मुख्यालय	-10.7301
▁स्थिरता	-10.7313
▁गोवा	-10.7314
मारी	-10.7314
आईडी	-10.7314
▁उत्सर्जन	-10.7316
▁रखरखाव	-10.7316
▁ओबामा	-10.7316
▁बेहद	-10.7316
▁आश्रम	-10.732
▁टेक	-10.7323
▁लार्ड	-10.7325
है	-10.7325
▁तृतीय	-10.7337
▁प्ल	-10.7338
▁शान्ति	-10.7344
▁निंदा	-10.7346
ेस्ट	-10.7349
ागार	-10.735
▁श्रमिक	-10.7353
▁निरसित	-10.7359
▁केन्द्रों	-10.7366
▁निर्माता	-10.7371
▁फार	-10.7375
‘	-10.7378
▁इलाहाबाद	-10.738
▁काउंसिल	-10.738
▁प्रोटोकॉल	-10.738
▁कोयला	-10.7383
गीर	-10.7392
▁दौरा	-10.7392
▁जज	-10.7392
▁सौंपा	-10.7393
▁मौखिक	-10.7402
▁रोशनी	-10.7402
▁इंगित	-10.7402
▁दीवान	-10.741
▁सुधारों	-10.7414
▁उलट	-10.7417
▁बाध्यता	-10.7418
▁नाल	-10.742
कै	-10.742
▁रेगिस्तान	-10.7424
▁सामर्थ्य	-10.7424
▁कैद	-10.7424
▁कठिनाइयों	-10.7424
मणि	-10.7424
▁प्रदाह	-10.7426
▁बादशाह	-10.743
ाट	-10.743
▁जरुर	-10.7434
▁संस्थापित	-10.7434
वसाय	-10.7435
▁साझीदारी	-10.7435
▁शिकायतों	-10.7435
▁हाई	-10.7439
▁रूपों	-10.744
▁मुर	-10.7443
▁आधिकारिक	-10.7445
▁मुद्दा	-10.7445
जनों	-10.7449
▁जगा	-10.745
▁शर्मा	-10.7451
▁अभियोग	-10.7453
▁उपबंधित	-10.7453
▁प्रीत	-10.7456
मोहन	-10.7459
▁घेर	-10.7461
▁अब्दुल	-10.7467
▁गम्भीर	-10.7467
▁स्टार	-10.7468
▁जैविक	-10.7468
▁आधी	-10.747
▁कामकाज	-10.7471
पथ	-10.7474
ध्द	-10.7482
दुर	-10.7483
▁काला	-10.7483
दों	-10.7484
▁मनाया	-10.7488
▁झिल्ली	-10.7489
क्रा	-10.7492
▁अहं	-10.7493
▁कार्यनीति	-10.7494
वय	-10.7501
▁स्टै	-10.7506
▁आश्रय	-10.751
▁दीक्षांत	-10.7511
▁दुग्ध	-10.7511
▁चौड़ाई	-10.7513
यता	-10.7526
▁रेख	-10.7527
ियार	-10.753
▁तिहाई	-10.7532
▁यान	-10.7535
शोधन	-10.7539
बाबू	-10.7544
▁अनंत	-10.7544
लस	-10.7544
▁दुर्भाग्य	-10.7554
▁संकीर्ण	-10.7554
▁खारिज	-10.7555
▁अशोक	-10.7555
बाज़	-10.7559
▁पका	-10.7562
▁असह	-10.7565
▁सूचीबद्ध	-10.7567
▁ताज	-10.7567
ॉप	-10.757
▁कन	-10.7571
▁विख्यात	-10.7576
▁तमाम	-10.7576
▁खर्चे	-10.758
ङ्ग	-10.7583
▁संस्थापन	-10.7583
▁साकार	-10.7586
▁वास	-10.7588
१क	-10.7594
▁गीतों	-10.7595
▁अन्न	-10.7595
थो	-10.7597
▁उपयोगिता	-10.7597
▁फायदे	-10.7598
▁मुँह	-10.7598
▁पत्तन	-10.7598
▁बढा	-10.76
वर्ष	-10.7602
▁प्रजाति	-10.761
▁ज्या	-10.7611
ृष्ट	-10.7614
▁स्वी	-10.7614
▁आशंका	-10.7618
▁आघात	-10.7619
▁योनि	-10.7621
▁डब्ल्यू	-10.7622
▁शरण	-10.7623
▁बही	-10.7629
▁जगत्	-10.7631
▁सम्म	-10.7634
ाचार्य	-10.7634
▁आगामी	-10.7637
▁जनन	-10.7643
िच	-10.7644
▁स्नान	-10.7645
▁इंजीनियरिंग	-10.7646
▁्याय	-10.765
ावस्था	-10.7654
विष	-10.7657
भद्र	-10.7659
हिन्द	-10.7659
▁स्वच्छता	-10.7661
▁मेहर	-10.7662
विद्	-10.7662
▁ध्रुव	-10.7664
▁निरन्तर	-10.7664
▁बायो	-10.7676
▁सूख	-10.768
▁बेचने	-10.768
▁गेंदबाज	-10.7682
▁बेटी	-10.7687
बंद	-10.7689
▁रहकर	-10.769
▁जाग	-10.7692
▁हू	-10.7695
▁झेल	-10.7697
▁उन्नति	-10.7698
नीत	-10.77
▁पुरुषों	-10.7701
▁पाद	-10.7705
▁गले	-10.7708
▁लड़कियों	-10.7709
▁लाई	-10.771
▁स्टाफ	-10.771
▁साथी	-10.7714
▁ट्रा	-10.7718
ड़ों	-10.7722
▁देशवासियों	-10.7723
▁लू	-10.7723
▁गंद	-10.7725
▁रोड	-10.7728
▁निधियों	-10.7729
▁आशुतोष	-10.7731
▁प्रगाढ़	-10.7731
▁अवलोकन	-10.7731
▁एन्	-10.7733
▁घटित	-10.7737
▁अस्त	-10.7741
▁पुत्री	-10.7743
im	-10.7743
▁एससी	-10.7747
कृ	-10.7748
▁ज्योति	-10.7749
ंगर	-10.7753
▁सहभागिता	-10.7753
▁रंगमंच	-10.7753
▁पीडीएफ	-10.7753
▁अवधारित	-10.7755
ार्थी	-10.776
▁पर्यटकों	-10.7763
बर्ग	-10.7766
सुर	-10.7766
▁नारी	-10.7769
▁सल	-10.7771
कोट	-10.7774
▁धूल	-10.7779
▁लाए	-10.7782
▁विनियमित	-10.7783
▁इंटर	-10.7784
▁हटाए	-10.7787
▁प्रजातिय	-10.7791
▁कवर	-10.7797
▁आचार	-10.7798
▁तुरन्त	-10.7798
दश	-10.7799
▁कन्	-10.7801
▁किराए	-10.7801
▁मनुष्यों	-10.781
▁गंभीरता	-10.781
▁निदान	-10.781
▁विशेषज्ञों	-10.7818
▁सूचक	-10.7823
▁मुह	-10.7824
▁लौटने	-10.7835
धारा	-10.7836
▁अफ़	-10.7839
▁निकले	-10.7841
▁संस्कार	-10.7843
▁छोड़ने	-10.7851
▁समझी	-10.7852
ल्यू	-10.7852
▁आलेख	-10.7857
▁उम्मीदवार	-10.7858
▁कंप	-10.7859
कुर	-10.7861
id	-10.7864
▁कहती	-10.7865
▁नियोक्ता	-10.7866
▁श्रीलंका	-10.7866
▁खोलें	-10.7869
तापूर्वक	-10.787
▁सुगम	-10.7871
निर्	-10.7873
राय	-10.7875
▁बीमाकर्ता	-10.7879
▁वात	-10.7882
रियल	-10.7886
▁प्रस्तावों	-10.7887
▁प्रगतिशील	-10.789
रानी	-10.7892
क़ा	-10.7899
▁धार	-10.7902
▁मिलन	-10.7905
ion	-10.7909
▁ग्यारह	-10.7911
▁ढो	-10.7911
▁प्रतिलिपि	-10.7913
रना	-10.7919
क्रिया	-10.7923
योग्य	-10.7924
▁हटाया	-10.7926
र्ध	-10.7931
▁स्वैच्छिक	-10.7934
▁विनि	-10.7934
▁अन्तर्राष्ट्रीय	-10.7934
▁विषयक	-10.7934
▁कपड़ा	-10.7937
▁अण्ड	-10.7937
▁प्रस्तुति	-10.7939
▁अँ	-10.7939
▁एज	-10.7939
▁प्रतिस्पर्धा	-10.794
योज	-10.7943
▁चमत्कार	-10.7956
▁दशमलव	-10.7956
▁ब्यूरो	-10.7965
▁गरम	-10.7966
सिस	-10.7969
▁केन्द्रित	-10.797
▁झाड़	-10.7974
▁सक	-10.7978
▁कुटुम्ब	-10.7979
▁दुरुपयोग	-10.7979
▁निर्दोष	-10.798
▁नाव	-10.7981
ेयर	-10.7986
▁अय	-10.799
▁परियोजनाएं	-10.7992
लियन	-10.7993
▁बेकार	-10.7997
▁प्रतिबिंब	-10.8002
▁नानक	-10.8004
▁मापन	-10.8014
ॉक्स	-10.8015
▁एकजुट	-10.8025
▁रसीद	-10.8026
▁कट्टर	-10.8026
▁लेखापरीक्षा	-10.8026
ne	-10.8028
▁चिर	-10.8028
▁मधुर	-10.803
▁उदर	-10.8034
▁बचे	-10.8047
ैट	-10.8049
ायिक	-10.805
▁बिन	-10.805
▁खिलाड़ी	-10.805
▁ट्रांस	-10.8052
दीप	-10.8053
▁सेल	-10.8055
तन्त्र	-10.8058
▁पटल	-10.8058
▁मूल्यवान	-10.8061
▁बूट	-10.8062
▁आइए	-10.8063
▁In	-10.8063
▁इंजीनियर	-10.8065
▁छेद	-10.8068
▁उपहार	-10.807
▁मूर्ख	-10.8071
▁हड़ताल	-10.8071
▁सहेज	-10.8071
▁घोर	-10.8079
▁भगत	-10.8084
▁घड़ी	-10.8085
शाह	-10.8085
ानंद	-10.8086
▁बनकर	-10.8088
▁सांप	-10.8093
▁at	-10.8097
न्दा	-10.8099
▁जिसमे	-10.8101
▁घुमा	-10.8102
▁धारित	-10.8102
ir	-10.8103
▁लोगो	-10.8103
▁मिश्र	-10.8105
▁सवार	-10.8105
▁एसोसिएशन	-10.8117
▁मेमोरी	-10.8117
▁स्वायत्त	-10.8117
▁डोमेन	-10.8118
▁रिवाज	-10.812
▁बदरूद्	-10.812
▁रोका	-10.8126
▁दुर्गा	-10.8127
▁कार्यकाल	-10.8127
▁जीवंत	-10.8129
टेल	-10.8132
▁प्रचुर	-10.8141
नू	-10.8144
▁प्रतिकर	-10.8145
पीएस	-10.8145
▁विचित्र	-10.8147
▁गिरा	-10.8147
▁व्यास	-10.8152
▁ईमानदारी	-10.816
▁पद्धतियों	-10.8161
काय	-10.8163
▁स्थलों	-10.8163
▁डेस्कटॉप	-10.8164
▁सामुदायिक	-10.8164
▁विधानसभा	-10.8165
तोष	-10.8165
▁ब्रह्मा	-10.8166
गृहीत	-10.8172
▁मुड़	-10.8173
वट	-10.8173
▁अभिन्न	-10.818
▁आज्ञा	-10.8181
▁इनसे	-10.8185
िद	-10.8186
▁लाहौर	-10.8187
▁स्थानांतरित	-10.8187
▁प्रतिवेदन	-10.8187
▁खातों	-10.8188
▁सचिवालय	-10.8188
स्टा	-10.8188
▁दृढ़ता	-10.8193
▁भागवत	-10.8193
▁दीवारों	-10.8202
▁खपत	-10.8202
▁धर्मों	-10.8203
▁क्रोध	-10.8203
▁दायित्वों	-10.8203
▁संतुलित	-10.821
▁निविदा	-10.8211
▁सटीक	-10.8211
▁लचील	-10.8211
▁अंतरिम	-10.8215
▁आवाज़	-10.8218
विल	-10.8219
ड्	-10.8225
टिल	-10.8227
▁धारक	-10.823
▁कोटि	-10.823
▁समामेल	-10.8234
▁निर्वाह	-10.8239
▁अनन्य	-10.8241
शियन	-10.8242
▁विषम	-10.8243
▁औषध	-10.8254
▁अस्पष्ट	-10.8257
▁हैसियत	-10.8258
▁अतिक्रमण	-10.8258
▁समाहित	-10.8259
▁सालों	-10.8267
os	-10.8268
▁बहुल	-10.8276
▁बिर	-10.8278
▁अन्तः	-10.8281
▁लक्ष्मी	-10.8282
▁श्रेय	-10.8283
▁प्रश	-10.8298
▁अनुभवों	-10.8302
▁वापिस	-10.8304
खड़	-10.8308
▁कहलाता	-10.831
▁de	-10.8311
▁निर्माताओं	-10.8315
▁क्षमा	-10.8317
▁मंद	-10.8318
▁परजीवी	-10.8322
देह	-10.8322
▁बरस	-10.8322
रिंग	-10.8322
▁बढ़े	-10.8323
▁कूद	-10.8324
▁चंद	-10.8326
▁हार्डवेयर	-10.8328
यंत्र	-10.833
▁गतिविधियां	-10.8331
ानन्द	-10.8332
▁बादल	-10.8332
साध्य	-10.8332
▁संरक्षित	-10.8333
ट्	-10.8334
ुस	-10.8335
▁प्रवास	-10.8337
▁१६	-10.8343
ायन	-10.8343
▁सेवन	-10.8346
▁विधायिका	-10.8352
▁यात्रियों	-10.8352
▁सतर्कता	-10.8353
▁पॉल	-10.8353
▁मुल	-10.8355
▁सभाओं	-10.8357
▁जंग	-10.8359
▁बदलें	-10.8363
▁प्राइवेट	-10.8376
▁सोवियत	-10.8376
▁प्रभुत्व	-10.8378
ha	-10.838
▁गौण	-10.8381
▁सिंधु	-10.8393
▁निकालना	-10.8399
▁हिमनद	-10.84
▁गयीं	-10.8406
▁व्याकरण	-10.8407
▁एंव	-10.841
▁लड़का	-10.8415
▁मार्	-10.8415
▁गुल	-10.842
▁बोलने	-10.8423
▁प्रौढ़	-10.8423
▁निष्पादित	-10.8424
▁हानिकारक	-10.8424
▁मंत्र	-10.8425
▁विलियम	-10.8425
ोला	-10.8429
▁जनजाति	-10.8432
खण्ड	-10.8444
▁पंद्रह	-10.8447
▁मणिपुर	-10.8447
जीत	-10.845
▁पाठ्य	-10.8453
त्या	-10.8453
▁ट्रे	-10.8456
▁माध्य	-10.8463
▁आंकड़ा	-10.8471
▁प्रख्यात	-10.8471
▁भूटान	-10.8471
भू	-10.8476
▁घातक	-10.8476
▁बजाए	-10.8481
▁पाठकों	-10.8484
▁सीए	-10.8484
▁यज्ञ	-10.8488
ख़ा	-10.8489
एंगे	-10.849
्ठ	-10.8493
▁आस्ट्रेलिया	-10.8495
▁बंदरगाह	-10.8495
▁बढ़ाया	-10.8495
▁छंद	-10.8497
▁चलना	-10.8505
भाई	-10.8507
▁टै	-10.8509
▁दक्ष	-10.851
रक्त	-10.851
▁जितने	-10.8512
ंगो	-10.8512
ाइम	-10.8512
▁नाट्य	-10.8519
▁औजार	-10.852
ोगे	-10.852
▁व्यक़्ति	-10.852
▁सेंट	-10.8526
लिय	-10.8527
पत्ति	-10.8531
ज्ञा	-10.8537
▁अन्ध	-10.8539
ान्तर	-10.854
▁दौरे	-10.8541
▁शास्त्रीय	-10.8543
▁दोबारा	-10.8544
▁निःशुल्क	-10.8544
▁यकीन	-10.8544
▁चं	-10.8545
▁संज्ञा	-10.8546
वारी	-10.8548
▁मंत्रालयों	-10.8548
co	-10.8551
▁उदाहरणार्थ	-10.8551
▁द्रव्य	-10.8552
▁पाइप	-10.8555
▁आंत	-10.8556
▁गोपाल	-10.8564
राज्य	-10.8565
▁अपर्याप्त	-10.8568
▁भ्रूण	-10.8568
▁संभाव्य	-10.8568
▁हरी	-10.857
िणी	-10.8571
▁चुप	-10.8573
स्कर	-10.8577
पाट	-10.8577
▁सुनी	-10.8579
राष्ट्रीय	-10.8586
▁क्वा	-10.8592
▁वांछित	-10.8592
▁निषेध	-10.8592
▁धूप	-10.8592
▁मत्स्य	-10.8592
▁दीर्घकालिक	-10.8593
▁पड़ोसी	-10.8593
्यूट	-10.86
▁संस्थाएं	-10.8603
▁निर्णायक	-10.8603
▁छोर	-10.8604
▁उत	-10.8605
▁संयोग	-10.8609
ढ़ा	-10.8613
▁गढ़	-10.8614
▁दिलचस्प	-10.8616
▁डिफ़ॉल्ट	-10.8616
▁अध्यादेश	-10.8617
कर्त्ता	-10.8617
▁पद्म	-10.8618
▁शुभ	-10.8618
▁चिह्नित	-10.8619
ैम	-10.8626
गृह	-10.8627
▁प्राणियों	-10.8627
२क	-10.8627
▁भूत	-10.8627
ैश	-10.8631
नेवाला	-10.8633
स्था	-10.8634
om	-10.8636
वंत	-10.8637
▁तिर	-10.8639
▁संप्रदाय	-10.8641
▁सेंटर	-10.8644
कीय	-10.8648
्तर	-10.8649
▁आक्षेप	-10.8649
ष्ण	-10.8651
▁गौ	-10.8653
▁निर्व	-10.8654
रेखा	-10.866
▁फॉर्म	-10.866
रोधी	-10.8661
िकता	-10.8662
▁परिसीमा	-10.8665
▁सच्ची	-10.8665
▁पोषक	-10.8666
▁दंडादेश	-10.8666
▁अर्पित	-10.8667
▁सख्त	-10.8669
▁हिला	-10.8673
▁जादू	-10.8673
▁रवि	-10.8676
्नी	-10.8688
पक्ष	-10.8689
▁अद्भुत	-10.869
▁अल्पसंख्यक	-10.869
▁जगन्नाथ	-10.869
▁श्वसन	-10.869
▁आगरा	-10.8704
▁उद्यमियों	-10.8711
्हे	-10.8714
▁डेटाबेस	-10.8714
▁सनातन	-10.8714
▁जाएंगी	-10.8715
▁युक्तियुक्त	-10.8717
सम्मत	-10.8718
▁इधर	-10.872
ैत	-10.8727
फू	-10.8732
▁ओह	-10.8736
वर्धित	-10.8737
▁अतएव	-10.8739
▁तप	-10.8741
▁सावधान	-10.8742
ैड	-10.8743
▁साम्राज्यवाद	-10.875
▁अकेला	-10.8757
कारक	-10.8759
▁अनावश्यक	-10.8763
▁अर्जुन	-10.8763
▁महाकाव्य	-10.8763
▁उद्धृत	-10.8764
▁दादा	-10.8765
▁सूर	-10.8774
ंजन	-10.8786
▁कारकों	-10.8788
▁साथियों	-10.8791
क्षेप	-10.8792
हू	-10.88
▁पवन	-10.8804
▁आओ	-10.881
▁आंबेडकर	-10.8813
▁बारी	-10.8814
बै	-10.8814
▁संपादित	-10.8817
▁संजाल	-10.8818
मूल्य	-10.8818
▁ट्रेड	-10.8823
▁अटल	-10.8826
na	-10.8835
▁ऊंट	-10.8835
▁मुख़्य	-10.8838
▁पुणे	-10.8838
▁कूटशब्द	-10.8838
▁हेम	-10.8839
▁एआईआर	-10.8841
▁पासवर्ड	-10.8844
▁सांसद	-10.8859
▁संक्रिया	-10.886
ाइज	-10.8864
▁हरा	-10.8868
पुष्ट	-10.8875
▁किले	-10.8876
▁कृपा	-10.8878
▁शिरा	-10.8883
▁यांत्रिक	-10.8888
▁चेहरा	-10.8889
▁मास्टर	-10.8889
▁सूअर	-10.889
प्रदेश	-10.8891
▁संख़्या	-10.8891
▁टुकड़े	-10.8892
▁पाती	-10.8894
्मा	-10.8899
▁मानों	-10.89
▁हरे	-10.89
▁ऑन	-10.8904
▁तैर	-10.8906
▁शासकों	-10.8907
▁कहकर	-10.891
▁गुजराती	-10.891
तुर	-10.8912
▁निवेदन	-10.8913
▁गुणसूत्र	-10.8914
▁अभिनेता	-10.8916
▁पैरों	-10.8922
▁विगत	-10.8922
▁भेजें	-10.8923
▁वर्षो	-10.8926
▁क्षमताओं	-10.893
▁सौहार्द	-10.8938
आईए	-10.8941
▁नवीनतम	-10.8941
▁खैर	-10.8945
▁जानती	-10.8948
▁शव	-10.8954
▁टीवी	-10.8954
▁जनजातिय	-10.8954
▁आचार्य	-10.8957
va	-10.8958
▁साख	-10.896
▁द्वारकानाथ	-10.8963
▁साक्षियों	-10.8963
▁भयानक	-10.8963
▁प्रदाता	-10.8966
भेद	-10.8969
are	-10.8969
▁पट्ट	-10.8972
▁बुश	-10.8976
गिन	-10.8979
▁अर्द्ध	-10.8979
▁पिछड़े	-10.8983
सिया	-10.8987
▁बनायी	-10.8987
▁काश्मीर	-10.8989
▁निरपेक्ष	-10.8989
ंद्र	-10.8991
▁लायक	-10.8994
▁सुपर	-10.8994
ात्मा	-10.9003
▁नाना	-10.9012
▁दाल	-10.9012
▁अपशिष्ट	-10.9014
▁औचित्य	-10.9014
▁स्वदेशी	-10.9014
▁दुर्बल	-10.9016
▁सूचकांक	-10.9018
▁संस्थापक	-10.902
▁स्वार्थ	-10.9023
▁टर्	-10.9023
स्राव	-10.9025
क्रिय	-10.9029
▁माध्यमिक	-10.9029
▁प्रपत्र	-10.903
पिंग	-10.9035
▁पारदर्शिता	-10.9039
▁कार्यवाहियां	-10.9039
▁अश्व	-10.904
▁परेशानी	-10.9042
दाताओं	-10.9042
वर्ण	-10.9048
▁मेज	-10.9053
▁अंधेर	-10.9057
युग	-10.9063
▁सांख्यिकी	-10.9065
▁एजेंट	-10.9065
▁प्रविष्ट	-10.9071
िंद	-10.9071
▁लेबल	-10.9074
▁झलक	-10.9076
▁कमर	-10.9083
कोष	-10.9084
▁संदिग्ध	-10.909
▁पर्यवेक्षण	-10.9093
षक	-10.9097
▁परिधि	-10.9102
रक्षण	-10.9115
▁अभिप्राय	-10.9116
▁ऑपरेट	-10.9116
▁दिलचस्पी	-10.9116
▁प्रशांत	-10.9117
▁तत्पर	-10.9118
▁चलकर	-10.9119
थ्र	-10.9124
▁बालकों	-10.9128
▁वाम	-10.9132
▁लड़ने	-10.9134
▁चित्त	-10.9136
▁गंतव्य	-10.9141
▁शुष्क	-10.9141
▁कंपनियां	-10.9141
▁कीमतों	-10.9148
▁विवश	-10.9153
sh	-10.9158
▁ऊतकों	-10.916
▁रूपान्तर	-10.9163
▁एमएसएमई	-10.9167
▁पारिवारिक	-10.9167
▁मार्गदर्शक	-10.9167
प्रति	-10.917
▁भट्ट	-10.9174
▁अवतार	-10.9174
▁लगाकर	-10.9176
▁काटने	-10.9185
▁बदलना	-10.9188
▁आविष्कार	-10.9193
▁सत्यापित	-10.9193
▁टेप	-10.9193
्को	-10.9193
▁पूरक	-10.9196
▁बेचा	-10.9196
▁पावर	-10.9198
▁तत्सम	-10.9198
आरए	-10.9202
▁समावेशी	-10.9203
▁नीर	-10.9211
▁महर्षि	-10.9219
▁स्टाक	-10.922
आइ	-10.9225
▁मंजिल	-10.9225
ावरण	-10.9227
▁परिपूर्ण	-10.9229
ण्	-10.9229
▁माइ	-10.9231
▁अनुमानित	-10.9237
▁अंतर्विष्ट	-10.9245
▁आलोचक	-10.9245
▁वित्तपोषण	-10.9245
▁ईमेल	-10.9247
▁पग	-10.9257
▁गरीबों	-10.9258
▁वृक्क	-10.9261
लोम	-10.9262
▁अपीलीय	-10.9263
ऑ	-10.9263
▁निर्द	-10.9264
▁चोरी	-10.9266
ंति	-10.9266
गुल	-10.9266
▁आबंटन	-10.9271
▁मुताबिक	-10.9271
▁अभिनय	-10.9271
▁प्रतिष्ठान	-10.9273
▁कहलात	-10.9275
▁गोप	-10.9293
डू	-10.9295
▁इच्छुक	-10.9297
▁फांसी	-10.9297
▁निकला	-10.9297
▁पंचाट	-10.9297
▁बर्तन	-10.9298
▁प्रवासी	-10.9298
आईटी	-10.9299
▁गुर	-10.93
▁यातना	-10.9301
▁the	-10.9306
▁पदक	-10.9318
▁सोना	-10.9323
▁पठन	-10.9324
▁आश्चर्यजनक	-10.9324
▁भोग	-10.9328
▁श्रमिकों	-10.9329
▁परिणत	-10.933
गणित	-10.9332
▁सच्चा	-10.9333
▁सम्भावना	-10.9334
▁चलाए	-10.9334
▁चालक	-10.9336
▁साधना	-10.9339
डोर	-10.9345
▁अभियोजक	-10.9349
लिका	-10.9352
रिट	-10.9359
रेटर	-10.936
▁उग	-10.9361
फोर	-10.9361
▁दर्शक	-10.9373
ोरा	-10.9373
▁दरवाजे	-10.9375
▁पायी	-10.9377
क्षक	-10.9379
▁प्रतिभूतियों	-10.9385
श्रु	-10.9387
ent	-10.9388
▁आरक्षण	-10.9391
▁जमाने	-10.9395
▁पडा	-10.9395
नायक	-10.9399
▁गोद	-10.94
▁गिरावट	-10.9402
▁वेग	-10.9402
▁छिद्र	-10.9402
▁बेशक	-10.9403
▁सर्वथा	-10.9405
▁वृहत	-10.9406
पेट	-10.9407
▁क्रियाओं	-10.941
्ष	-10.941
कार्य	-10.9411
▁प्रेमी	-10.9415
▁रात्रि	-10.942
▁तात्पर्य	-10.9428
▁लक्ष्मण	-10.9428
▁अभिरक्षा	-10.9428
▁रिश्त	-10.943
▁इस्लामवाद	-10.9431
लेखन	-10.9432
व्यापी	-10.9433
▁बताए	-10.9438
जीवी	-10.9444
लाइट	-10.9444
▁शौक	-10.9446
▁मजबूती	-10.9449
▁तात्कालिक	-10.9454
▁ग्रुप	-10.9454
▁प्रौद्योगिकियों	-10.9459
य्या	-10.9463
▁टेस्ट	-10.9464
▁दर्जा	-10.9467
▁खु	-10.9471
▁ईस्ट	-10.9472
▁मधु	-10.9479
▁मस्त	-10.948
▁फ़ॉन्ट	-10.9481
▁निरूपित	-10.9481
▁पट्टे	-10.9483
▁संचरण	-10.9485
▁चुनावों	-10.9489
ट्रा	-10.9496
▁स्थाई	-10.9497
▁स्पेन	-10.9498
चारी	-10.9505
▁आत्महत्या	-10.9507
▁जबरदस्त	-10.9507
▁बहुमूल्य	-10.9509
▁लक्षणों	-10.9509
▁व्यर्थ	-10.9511
▁सिंध	-10.9512
▁पटेल	-10.9514
▁सर्प	-10.9514
▁दंडनीय	-10.9515
गाह	-10.9515
▁पद्य	-10.9517
ta	-10.9517
मेल	-10.9517
▁चारा	-10.9521
सेन	-10.9523
▁विशेषताओं	-10.9523
▁अवगत	-10.9528
▁सिनेमा	-10.9534
टिव	-10.9535
▁वक्र	-10.9537
▁लेगा	-10.9549
▁मानस	-10.9555
▁हँस	-10.9562
▁क्लो	-10.9571
▁निकाले	-10.9587
▁प्रतिबद्ध	-10.9588
▁जमींदार	-10.9588
▁मूलतः	-10.9588
▁अब्दुल्ला	-10.9588
▁गुलाब	-10.9589
▁जटिलता	-10.959
▁सीखा	-10.9592
▁अनुभाग	-10.9593
धारकों	-10.9594
वेयर	-10.9596
▁मानदंड	-10.9604
▁सुनाई	-10.9605
▁सऋ	-10.9606
कुमार	-10.9606
▁फलों	-10.9613
▁वनों	-10.9613
▁घोड़े	-10.9615
▁समीप	-10.9615
▁स्वाद	-10.9616
▁तालिका	-10.9618
▁आभूषण	-10.9621
▁उतने	-10.9629
▁बाबा	-10.9632
़ी	-10.9641
▁गेहूं	-10.9641
▁कीटनाशक	-10.9642
▁मारने	-10.9644
▁मास्टर्स	-10.9646
▁आरोपों	-10.9647
▁खनन	-10.9649
▁मस	-10.9653
▁संकर	-10.9653
▁सौदा	-10.9654
▁ललिता	-10.9663
िआ	-10.9663
▁मुफ्त	-10.9669
▁लार्वा	-10.9669
▁अधिग्रहण	-10.967
▁तिरु	-10.9673
▁स्थानांतरण	-10.9673
ia	-10.9674
गुन	-10.9675
▁बिलियन	-10.9675
▁दिवा	-10.9679
▁चाहेंगे	-10.9679
▁उदय	-10.9681
▁ae	-10.9689
र्र	-10.9692
▁सीडी	-10.9695
▁बलिदान	-10.9696
डीपी	-10.9696
दित	-10.9697
▁नरम	-10.9698
▁विकेट	-10.9703
रवाना	-10.9703
त्ती	-10.9707
▁बोले	-10.9712
ैप	-10.9721
▁जंतु	-10.9723
di	-10.9723
▁ढूँढ	-10.9724
▁साइन	-10.9724
▁चरणों	-10.9725
▁मानचित्र	-10.9725
▁लाभदायक	-10.9727
▁बनाएँ	-10.9729
नाई	-10.9729
▁आर्क	-10.973
▁सूरज	-10.9731
▁पूछे	-10.9733
▁बुराई	-10.9733
▁सोचना	-10.9734
भुज	-10.9735
स्तान	-10.9737
▁नाटकीय	-10.974
▁नियन्त्रण	-10.975
▁आजीविका	-10.975
▁दवाओं	-10.9753
▁मौके	-10.9757
▁बढ़ाकर	-10.9767
▁ट्रेन	-10.9772
श्वर	-10.9774
▁मातृ	-10.9776
▁आश	-10.9779
▁उपरांत	-10.978
▁वाणी	-10.978
▁सार्वभौमिक	-10.9783
पटल	-10.9794
▁गोर	-10.98
▁चुंबकीय	-10.9805
▁अनियमित	-10.9805
▁बगैर	-10.9805
▁बिस्तर	-10.9807
▁नींद	-10.981
▁महिलाएं	-10.9813
▁बौ	-10.982
पेक्ष	-10.9821
▁छोड़ा	-10.9822
पार्ट	-10.9824
▁क्रमांक	-10.9824
▁शाही	-10.9824
्सन	-10.9828
▁खेतों	-10.9832
▁लखनऊ	-10.9832
▁विघटन	-10.9832
▁खाड़ी	-10.984
▁ठहराया	-10.984
▁अवमान	-10.9843
▁ट्रस्ट	-10.9859
▁बशर्ते	-10.986
▁स्टोर	-10.986
▁करवाने	-10.986
▁लूट	-10.986
▁अवसाद	-10.9862
▁बंगाली	-10.9867
▁ढल	-10.9871
▁नली	-10.9872
▁चिल्ला	-10.9872
▁अखबार	-10.9873
▁पर्यावरणीय	-10.9874
▁vi	-10.9876
▁ब्रे	-10.988
्यायालय	-10.9881
▁रूपांतरण	-10.9882
▁भोज	-10.9886
▁लड	-10.9887
▁लगाई	-10.9887
pe	-10.9887
▁उपनिषद	-10.9887
▁ज्वर	-10.9888
▁समेत	-10.9889
ot	-10.989
▁अग्रसर	-10.9892
वृ	-10.9893
ग्राम	-10.9894
तऋ	-10.9894
लाप	-10.9897
▁अनुबंध	-10.9898
▁जूट	-10.9902
मूर्ति	-10.9913
▁बोर	-10.9914
▁अद्वितीय	-10.9915
▁सोसायटी	-10.9915
▁संपादन	-10.9915
म्स	-10.9916
▁नियोजित	-10.992
▁आभार	-10.992
ांतरण	-10.9923
▁बेन	-10.9928
यालय	-10.9929
हान	-10.9932
▁उद्यमी	-10.9933
▁लगेगा	-10.9938
▁पुरा	-10.994
▁भूकंप	-10.9943
▁विधिमान्य	-10.9943
▁विशेषज्ञता	-10.9948
▁गार्ड	-10.9949
▁सिवा	-10.9949
▁मण्डल	-10.9949
धु	-10.9952
▁प्रवाहित	-10.9953
▁छुपा	-10.9954
▁बंट	-10.9957
▁विशिष्टता	-10.9958
▁टूल	-10.9962
▁भयंकर	-10.9971
चालित	-10.9973
धारियों	-10.9973
ph	-10.9975
▁अंडमान	-10.9976
▁पंजी	-10.9977
फ्र	-10.998
▁रेत	-10.9981
टिन	-10.999
▁भड़क	-10.9997
▁ऑस्ट्रेलिया	-10.9999
▁निकोबार	-10.9999
▁स्नायु	-10.9999
▁मुद्रण	-10.9999
▁१७	-11.0012
▁साम्यवाद	-11.0013
▁प्रलेख	-11.0016
▁बीमारियों	-11.0018
▁अभ	-11.0022
ul	-11.0025
▁चिन्ता	-11.0027
▁दिखायी	-11.0032
▁ढलान	-11.0033
▁उठे	-11.0037
▁सिफारिशें	-11.004
धारित	-11.0044
▁माया	-11.0044
ab	-11.005
▁डिवीजन	-11.0055
▁सिम	-11.0056
▁उद्धरण	-11.0056
▁विशेन	-11.0057
▁ऑटो	-11.0058
▁हास्य	-11.0058
▁वाइ	-11.0061
▁कारित	-11.0065
▁प्रारम्भिक	-11.0067
▁कैसा	-11.0068
▁नाश	-11.0069
▁प्रदेशों	-11.0071
▁बदलते	-11.0072
▁पंथ	-11.0073
हड़	-11.0073
द्घ	-11.0074
▁चित्रों	-11.0083
▁वाजपेयी	-11.0083
▁अधिष्ठा	-11.0083
▁मुद्रित	-11.0084
▁उत्पत्ति	-11.0084
▁अपरि	-11.0091
▁साठ	-11.0092
▁उत्पादित	-11.0095
येंगे	-11.0095
▁बलराम	-11.0096
जार	-11.0097
▁एम्	-11.0101
श्क	-11.0101
▁आवृत्ति	-11.0104
▁नीला	-11.0107
▁आवासीय	-11.0107
▁अर्जी	-11.0108
▁निरोध	-11.011
▁अंतःस्थापित	-11.0112
भोग	-11.0117
▁चित्रित	-11.0118
▁पर्यटक	-11.0127
मोन	-11.0133
दक	-11.0133
▁नीतियां	-11.0134
▁पेय	-11.0135
▁बनती	-11.0136
▁अंदाज	-11.0139
▁मॉड्यूल	-11.014
▁सर्किट	-11.014
▁राजकीय	-11.0142
▁सेनाओं	-11.0143
▁रूढ़	-11.0145
▁हिंद	-11.0145
मैं	-11.0146
▁मेनन	-11.0148
▁सरलता	-11.015
▁यश	-11.0155
ho	-11.0159
हरण	-11.0163
▁तेलुगु	-11.0168
▁व्यायाम	-11.0168
▁क्रो	-11.0168
▁परिपथ	-11.0171
▁सौदे	-11.0172
जान	-11.0175
▁हटाना	-11.0175
▁मेनू	-11.0175
▁पेड़ों	-11.0176
रक्षित	-11.0179
मेर	-11.0182
▁टेली	-11.0183
▁नहर	-11.0184
स्थित	-11.0187
▁टाल	-11.019
ers	-11.0192
▁उपनिवेश	-11.0193
▁सूखे	-11.0194
पीड	-11.0195
▁सिक्किम	-11.0196
▁हल्के	-11.0196
क्षम	-11.0205
▁क्षय	-11.0206
रुण	-11.021
▁प्रतिस्थापित	-11.0211
हीं	-11.0214
▁पत्रकार	-11.0219
▁सरस्वती	-11.0225
▁पुर्तगाल	-11.0225
▁तार्किक	-11.0225
▁चिंतित	-11.0225
▁अणु	-11.0226
▁बुखार	-11.0226
▁इंसान	-11.0227
ive	-11.0233
वरी	-11.0237
▁फिल्मों	-11.0241
▁लेखों	-11.0242
कूट	-11.0247
▁ट्रै	-11.0249
▁परिसंपत्ति	-11.0252
▁पारिश्रमिक	-11.0254
▁समुच्चय	-11.0254
▁उपाध्यक्ष	-11.0254
▁पूँजी	-11.0254
▁पूछताछ	-11.0254
▁विवेचन	-11.0254
▁विनोद	-11.0254
व्या	-11.0259
▁फर्क	-11.0265
▁डाली	-11.027
▁बं	-11.027
्ना	-11.0272
▁स्थगित	-11.0282
▁सामंजस्य	-11.0282
▁बज	-11.0283
▁झगड़	-11.0285
▁प्रिंटर	-11.0286
▁भौ	-11.0293
▁विशेषताएं	-11.0297
▁स्राव	-11.0307
▁क्षेत्रफल	-11.0307
▁तीव्रता	-11.0309
▁अंतर्निहित	-11.0311
▁सरकारें	-11.0314
▁संभावनाएं	-11.0315
जिक	-11.0316
▁दिलाने	-11.0316
▁रथ	-11.0319
जिन	-11.032
शियल	-11.0321
फिल	-11.0321
▁शांतिपूर्ण	-11.0334
▁स्म	-11.0334
▁सितार	-11.0334
ss	-11.0336
▁विरल	-11.0337
▁प्रीमियम	-11.034
▁समाविष्ट	-11.034
▁सउदी	-11.034
▁धर	-11.034
▁हस्तांतरण	-11.0341
▁जीने	-11.0342
ट्टी	-11.0342
जय	-11.0344
▁निरस्त	-11.0344
▁अवशेष	-11.0344
मीन	-11.0345
▁भटक	-11.0346
▁अनुपस्थिति	-11.0346
▁वर्गीकृत	-11.0349
बैक	-11.035
▁आंखें	-11.035
▁नीच	-11.0353
▁दर्शाया	-11.0355
▁धनी	-11.0368
▁ताजमहल	-11.0369
▁sa	-11.0369
▁धमकी	-11.0369
▁अत्याचार	-11.0369
▁दिनांकित	-11.037
▁नवाचार	-11.0371
▁बैठकों	-11.0371
▁मरीज	-11.0379
▁संरक्षक	-11.038
▁भ्रमण	-11.0381
▁उभार	-11.0385
च्य	-11.0386
▁मेघ	-11.0393
▁बंधक	-11.0394
▁राधाकृष्णन	-11.0398
▁शृंखला	-11.0398
▁दोपहर	-11.0398
▁सारांश	-11.04
▁बाइ	-11.0401
um	-11.0402
▁ग्रीन	-11.0403
पिंड	-11.0408
▁हॉल	-11.041
▁डालना	-11.0412
साद	-11.0412
एसएस	-11.0413
▁पड़ते	-11.0413
▁जवान	-11.0414
खाना	-11.0418
शुल्क	-11.0426
▁चुपचाप	-11.0427
▁लैंगिक	-11.0427
▁करुणा	-11.0427
▁फैले	-11.0427
▁सघन	-11.0427
▁स्नातकोत्तर	-11.0428
सूची	-11.0429
▁सतत्	-11.0434
▁साध	-11.044
▁खादी	-11.045
▁com	-11.0451
▁कैप	-11.0453
▁नैतिकता	-11.0453
▁सूखा	-11.0454
▁राधा	-11.0457
▁सीरिया	-11.0467
▁उत्त	-11.0467
▁पेपर	-11.0469
▁बुरे	-11.047
▁इन्द्रिय	-11.0474
▁जोड़ी	-11.0481
▁महानिदेशक	-11.0486
▁नियोजक	-11.0486
▁वकालत	-11.0486
▁हज़ार	-11.0486
▁समन्वित	-11.0487
▁जनजातीय	-11.0488
▁नारियल	-11.0488
ोसिस	-11.0489
▁मणील	-11.0489
▁अंशदान	-11.0491
▁अष्ट	-11.0491
▁बुद्धिमान	-11.0495
▁गुम	-11.0497
▁ग्रंथि	-11.0498
▁अर्थशास्त्र	-11.0498
▁समूचे	-11.0499
▁आबंटित	-11.0515
▁धैर्य	-11.0515
▁उन्मुक्त	-11.0516
▁नगरपालिका	-11.0516
▁न्यायपीठ	-11.0519
▁शिविर	-11.0519
ity	-11.052
▁डै	-11.0524
▁नामांकन	-11.0527
▁ताजा	-11.0528
▁माला	-11.0528
▁चाहें	-11.0531
भ्य	-11.0533
▁असीम	-11.0536
▁निस्	-11.0536
▁शै	-11.0544
▁इन्होंने	-11.0545
▁देवनागरी	-11.0545
▁हेक्टेयर	-11.0545
▁प्लास्टिक	-11.0545
▁सैकड़	-11.0547
▁नवान्वेष	-11.0549
▁फारसी	-11.055
कोश	-11.0551
▁लगाये	-11.0552
जातीय	-11.0553
▁हथियारों	-11.0555
▁खोला	-11.056
▁ग्रंथों	-11.0569
▁करूंगा	-11.057
▁बांस	-11.057
▁खुर	-11.057
▁ग्लोबल	-11.0574
▁तयशुदा	-11.0574
▁मुकाबला	-11.0574
▁चक्कर	-11.0574
▁वाष्प	-11.0574
▁नतीजा	-11.0574
▁शर्म	-11.0575
▁पारदर्शी	-11.0577
▁तिल	-11.058
▁कृमि	-11.0584
▁प्रसारित	-11.0585
▁मोटी	-11.0587
▁मंदी	-11.0593
▁अनुमत	-11.0598
▁सेवानिवृत्त	-11.0601
▁मलयालम	-11.0604
▁विश्राम	-11.0604
▁सिक्ख	-11.0604
▁खगोल	-11.0604
▁मुद्रक	-11.0605
अली	-11.0607
▁बाण	-11.0619
एमएस	-11.0623
▁तिलक	-11.0626
▁आखिरी	-11.0628
▁मशीनों	-11.0628
▁हमसे	-11.0632
▁चौदह	-11.0634
▁रोकथाम	-11.0634
▁तिब्बत	-11.0634
लौकिक	-11.0634
▁सुलह	-11.0634
▁हरित	-11.0634
▁ख्याल	-11.0636
▁बालों	-11.0637
▁परंपराओं	-11.064
▁पढ़ना	-11.064
▁माफ	-11.0651
▁संसद्	-11.0651
▁नाच	-11.0652
▁समितियां	-11.0654
ौं	-11.0657
▁क्षेञ	-11.0664
▁ध्येय	-11.0664
▁बाँध	-11.0664
▁दीजिए	-11.0664
▁असमानता	-11.0664
▁सहयोगियों	-11.0664
▁विराम	-11.0665
स्का	-11.0666
▁सापेक्ष	-11.0667
गति	-11.0668
ment	-11.067
▁असंख्य	-11.0671
▁बग	-11.0674
▁निवासियों	-11.0674
कथा	-11.068
ग्ध	-11.0686
▁मानकर	-11.0688
गीत	-11.0693
▁एल्गोरिथ्म	-11.0694
▁ब्रितानी	-11.0694
▁श्रेणियों	-11.0694
▁रजिस्ट्रीकृत	-11.0694
पृष्ठ	-11.0695
▁बढ़ी	-11.0698
▁पागल	-11.0699
▁समझती	-11.0702
▁कौम	-11.0703
ास्थि	-11.0703
▁लार	-11.0707
▁चलाना	-11.0717
▁सौन्दर्य	-11.0724
▁जापानी	-11.0725
▁अमृत	-11.0725
पतियों	-11.0732
हानि	-11.0733
▁नामित	-11.0733
▁अंज	-11.0735
ादेश	-11.0738
▁आधुनिकीकरण	-11.0744
▁सुखद	-11.0749
▁श्वास	-11.075
▁शह	-11.0754
▁टेलीविजन	-11.0754
▁प्रत्युत्तर	-11.0754
▁उल्लास	-11.0754
▁प्रशस्त	-11.0757
▁उत्तराधिकारी	-11.077
▁मोल	-11.0771
▁लेनी	-11.0771
▁जुट	-11.0783
▁राजदूत	-11.0784
▁खुराक	-11.0785
▁भीतरी	-11.0788
परीक्षा	-11.0796
▁चाहा	-11.0798
▁शेयरधारक	-11.08
▁सदियों	-11.0807
▁इंच	-11.0808
▁सहारे	-11.0815
▁निर्यातक	-11.082
▁फ़िर	-11.0822
▁दिखता	-11.0826
▁साफ़	-11.0845
ग्री	-11.0846
▁शब्दावली	-11.0849
▁बंधु	-11.085
▁बनते	-11.0855
कॉम	-11.0869
र्पण	-11.0869
▁पोर्टल	-11.0871
▁खाल	-11.0874
▁पिट	-11.0875
▁प्रेरक	-11.0875
od	-11.0901
▁विधिज्ञ	-11.0904
▁अम्ब	-11.0905
▁टुकड़	-11.0906
▁हुसैन	-11.0906
▁दुश्मन	-11.0906
▁राजवंश	-11.091
▁गिल	-11.0915
▁छि	-11.0917
▁fe	-11.0923
▁बहि	-11.0926
▁जह	-11.0929
▁निबंधन	-11.0934
▁दलील	-11.0938
▁देरी	-11.0938
सूर	-11.0945
▁बंग	-11.0946
▁रूक	-11.0949
▁नौका	-11.095
▁लीला	-11.0957
▁प्रिंट	-11.0963
▁लिखें	-11.0966
▁Google	-11.0967
▁प्रदूषक	-11.0967
▁वाशिंगटन	-11.0967
▁हल्का	-11.0967
▁मुख्यमंत्री	-11.097
रात	-11.0974
▁निगमित	-11.0976
जन्य	-11.0978
▁ब्राउज़र	-11.0981
▁निर्भरता	-11.0984
टरी	-11.0989
नामा	-11.0989
▁घटकों	-11.0991
ध्यक्ष	-11.0992
ोदय	-11.0993
▁सिंधी	-11.0994
▁सम्बन्धों	-11.0996
▁नलिका	-11.0996
▁नौसेना	-11.0998
▁तैनात	-11.0999
ST	-11.1
▁विदा	-11.1001
▁स्थावर	-11.1004
▁समाजवाद	-11.1005
▁हुईं	-11.1007
ub	-11.1009
▁भौतिकी	-11.1013
ie	-11.1014
▁निबंध	-11.1015
▁व्यव	-11.1016
▁पर्वतीय	-11.102
ॉं	-11.1022
▁फंड	-11.1022
▁आकांक्षा	-11.1029
▁कारीगर	-11.103
▁टैक्स	-11.1031
▁चोर	-11.1033
▁क़्या	-11.1035
▁बसे	-11.1036
▁नोड्स	-11.1036
▁जायगा	-11.104
▁चह	-11.1046
▁प्ररूप	-11.1059
▁न्यूयार्क	-11.106
▁मृदा	-11.106
▁उपासना	-11.106
▁कित्तूर	-11.106
▁सुलभ	-11.106
▁भूतपूर्व	-11.1061
▁कहें	-11.1061
▁फलक	-11.1063
▁वारंट	-11.1064
▁परमिट	-11.1064
▁अभिलिखित	-11.1064
▁साय	-11.1068
स्तरीय	-11.107
▁क्रमिक	-11.1072
डेल	-11.1073
▁शासकीय	-11.1074
िष्ठ	-11.1077
धिक	-11.1085
▁गणेश	-11.1089
ट्रिक	-11.109
▁जुर्माना	-11.1091
▁परिप्रेक्ष्य	-11.1091
▁मुम्बई	-11.1091
▁अफसर	-11.1091
▁किनारों	-11.1092
▁धूम	-11.1094
▁कपास	-11.1096
▁नागर	-11.1104
▁मौन	-11.1105
जाल	-11.111
गिरि	-11.1117
ob	-11.1118
▁पिछ	-11.1121
चीन	-11.1121
▁रिएक्टर	-11.1122
▁अस्वीकृत	-11.1122
▁शक़्ति	-11.1124
▁बिखर	-11.1125
▁दाहिन	-11.1126
▁एल्	-11.1127
▁थै	-11.1134
▁बहुधा	-11.1137
▁फैसले	-11.1139
बेट	-11.1154
▁जॉर्ज	-11.1154
▁फीसदी	-11.116
▁आस्तियां	-11.1162
▁अपनाना	-11.1163
▁नाप	-11.1164
▁बारीक	-11.1167
सूत्र	-11.1169
वायर	-11.118
▁जीतने	-11.1181
▁कड़ा	-11.1182
▁बेरोजगार	-11.1185
▁गर्दन	-11.1185
▁भैंस	-11.1185
बुक	-11.1187
▁रावण	-11.1196
▁नाराज	-11.1204
च्छेद	-11.1209
▁जौ	-11.1209
प्राप्त	-11.121
▁बेटा	-11.1215
▁उत्थान	-11.1217
▁दहेज	-11.1217
▁वर्ल्ड	-11.1218
▁चिकन	-11.1219
▁फ्री	-11.1219
िज्म	-11.123
▁मुस	-11.1231
▁देखेंगे	-11.1231
इश	-11.1231
▁प्रामाणिक	-11.1248
ोन्मुख	-11.1249
▁स्ट्रिंग	-11.1249
वर्स	-11.1251
▁पक्षपात	-11.1254
▁साझीदार	-11.1264
▁फैली	-11.1272
▁बेर	-11.1277
▁व्यापारियों	-11.1278
▁जता	-11.1278
tion	-11.1279
▁इंतजार	-11.128
▁एक्सटेंशन	-11.128
▁कसौटी	-11.128
▁अभ्यर्थ	-11.1281
▁सम्मुख	-11.1283
▁सोशल	-11.1283
▁पच	-11.1285
▁प्रेषण	-11.1289
▁बनाएं	-11.1297
▁दंडित	-11.1301
भंग	-11.1303
▁साज	-11.1303
शंकर	-11.1307
घट	-11.131
▁चेन्नई	-11.1312
▁विशुद्ध	-11.1312
गर्भ	-11.1312
▁रवैय	-11.1313
▁सुपुर्दगी	-11.1313
▁खां	-11.1322
पुत्र	-11.1322
▁भली	-11.1322
फोर्ड	-11.1323
▁परंतुक	-11.1323
▁सद्भावना	-11.1323
ig	-11.1328
▁आतंकवादियों	-11.1332
▁दर्शकों	-11.1333
▁डिप	-11.1335
▁पौधा	-11.134
▁उत्तेजित	-11.1344
▁यथासंभव	-11.1344
▁आश्रित	-11.1344
क्चर	-11.1344
▁विमानक्षेत्र	-11.1345
▁केलिए	-11.1348
स्थि	-11.135
▁तटीय	-11.135
ंदर	-11.135
▁लम्बा	-11.1354
ाधीश	-11.1375
▁हममें	-11.1376
▁अस्पृश्य	-11.1376
▁छत्तीसगढ़	-11.1376
▁रसोई	-11.1376
▁मेले	-11.1377
▁मदर	-11.1377
▁कोयले	-11.1379
ऊंगा	-11.138
▁मक्का	-11.1384
▁द्वीपों	-11.1384
▁सहेजें	-11.1391
▁खेलने	-11.1392
ेटिव	-11.1396
▁गाने	-11.1396
▁वैसी	-11.1396
▁शैव	-11.1397
सिस्ट	-11.1403
्यान	-11.1404
▁वियतनाम	-11.1408
▁देखरेख	-11.1408
▁बिगड़	-11.1409
▁उत्प	-11.141
▁ग्रिड	-11.1412
▁पटना	-11.1414
▁मूर्त	-11.1417
ap	-11.1427
▁कन्वेंशन	-11.144
▁महाविद्यालय	-11.144
▁सांविधिक	-11.144
▁आश्वस्त	-11.144
▁मकबर	-11.1441
▁गर्भवती	-11.1441
कर्ण	-11.1443
▁अनुप्रयोगों	-11.1444
▁नित्य	-11.1446
▁निकलता	-11.1453
क्की	-11.1458
ियस	-11.1465
▁ऐल	-11.1469
▁सुझा	-11.147
▁आन्तरिक	-11.1473
▁स्वेच्छा	-11.1473
▁डिक्री	-11.1473
▁मादक	-11.1474
रुद्ध	-11.148
▁ढील	-11.1483
कोड	-11.1486
बिन	-11.1487
▁बागान	-11.149
बरी	-11.1496
▁ब्लॉक	-11.1502
इर	-11.1504
▁अपरिहार्य	-11.1505
▁बागवानी	-11.1505
▁परिमाण	-11.1505
▁मनोवैज्ञानिक	-11.1505
▁नागरिकता	-11.1508
▁गोला	-11.1508
▁साधारणतया	-11.151
▁परिपत्र	-11.1515
▁लल	-11.1515
▁सव	-11.1518
▁पीढ़िय	-11.1518
▁दुष्	-11.1521
ंए	-11.1528
▁खुलने	-11.1532
▁ईरानी	-11.1535
▁साझेदारी	-11.1535
▁पुनर्विलोकन	-11.1538
▁लाभकारी	-11.1539
▁माउस	-11.1539
▁घबरा	-11.154
▁समरूप	-11.1548
किन	-11.1553
िकाओं	-11.1555
▁बाघ	-11.1557
▁सजीव	-11.1562
टिया	-11.1562
ग्राही	-11.1563
▁बगल	-11.1563
ष्य	-11.1567
▁सिंगापुर	-11.1571
▁विनम्र	-11.1571
▁दुबारा	-11.1571
▁हाजिर	-11.1571
▁आईसीटी	-11.1571
▁मेजबान	-11.1571
▁पॉलिसी	-11.1573
▁फ्रेम	-11.1574
▁डीएनए	-11.1575
▁प्रतिपूर्ति	-11.1577
▁परिपक्व	-11.1579
ब्ल	-11.1581
विहीन	-11.1585
ढे	-11.1592
ca	-11.1592
▁एट	-11.1598
▁खूबसूरत	-11.1603
▁मैसूर	-11.1605
▁जानबूझकर	-11.1606
▁शान्त	-11.1607
▁परिस्थितियां	-11.1607
▁तिरू	-11.1607
▁विश्वव्यापी	-11.1609
ve	-11.1612
▁मंडली	-11.1613
▁आगम	-11.1614
स्की	-11.1616
▁सुंदरता	-11.162
विद्या	-11.1624
▁पैक	-11.1627
▁सेवाएँ	-11.163
▁पित्त	-11.1633
▁महीन	-11.1635
▁अस्त्र	-11.1636
▁एनआईओएस	-11.1636
▁अहमदाबाद	-11.1637
दृष्ट	-11.1644
▁संयम	-11.1653
▁स्न	-11.166
▁अनाम	-11.1667
गंज	-11.1668
▁कर्त्तव्य	-11.1669
▁भविष्यवाणी	-11.1669
▁मांसपेशिय	-11.1669
▁यूनाइटेड	-11.1669
▁संप्रतीक	-11.1669
▁यमुना	-11.1669
▁खतरों	-11.167
▁मंत्रिमंडल	-11.167
▁सपने	-11.167
▁शिश्न	-11.167
▁प्रेमचन्द	-11.1671
वेन	-11.1674
्योर	-11.1677
▁कन्या	-11.1679
▁रोकना	-11.1682
▁म्यू	-11.1683
▁ज़रूरी	-11.1686
▁मरने	-11.1687
▁टैग	-11.1688
▁रुख	-11.169
साइट	-11.1692
खोर	-11.1695
कारियों	-11.1696
▁सचेत	-11.17
▁उत्तेजना	-11.1702
▁आक्रामक	-11.1702
▁उजागर	-11.1702
▁शाश्वत	-11.1702
▁निदेशालय	-11.1704
▁बांड	-11.1705
्था	-11.1705
▁एंटी	-11.1705
▁जिन्ना	-11.1706
▁मन्त्र	-11.1711
ण्ण	-11.1711
▁अनजान	-11.1713
▁डालते	-11.1718
िओ	-11.172
ान्तरण	-11.1722
पालिका	-11.1723
▁निवेशक	-11.1725
िशन	-11.173
▁प्रमाणन	-11.1734
▁वाय	-11.1734
▁गड़बड़	-11.1736
▁पौराणिक	-11.1736
▁सुप्रीम	-11.1736
▁सज्जन	-11.1736
▁काल्पनिक	-11.1736
▁व्रत	-11.1736
▁१८	-11.1747
▁हफ्ते	-11.1747
ग्रा	-11.1751
▁चार्ज	-11.1755
समूह	-11.1755
▁लौह	-11.1759
▁इलाके	-11.176
▁बंदर	-11.1765
मेन्ट	-11.1769
आकांक्षाओं	-11.1769
▁ऑपरेशन	-11.1769
▁प्रायोजित	-11.1771
ाधिकारी	-11.1774
▁बताई	-11.1776
▁पीछा	-11.1777
▁मानवाधिकार	-11.1782
▁हरेक	-11.1783
मुझे	-11.1784
संस्कृत	-11.1784
▁तुर्क	-11.1784
हाल	-11.1786
▁मध्यवर्ती	-11.1787
▁प्रोग्रामिंग	-11.1787
▁वरन	-11.1787
▁गायब	-11.179
▁इन्द्र	-11.1791
▁निवल	-11.1792
▁इनको	-11.1792
▁घिर	-11.1798
▁प्रतिवाद	-11.1801
▁अप्रत्याशित	-11.1802
▁निरर्थक	-11.1802
▁फाउंडेशन	-11.1802
▁वास्तुकला	-11.1803
▁श्याम	-11.1803
▁व्यवसायी	-11.1804
▁बंगला	-11.1807
▁विलम्ब	-11.1808
▁बढाने	-11.1811
▁घेरे	-11.1814
AP	-11.1823
मीर	-11.1825
ंतर	-11.1825
▁पकड़ने	-11.1826
▁सीमेंट	-11.1829
▁अरे	-11.1829
▁पलट	-11.1829
ाइज़	-11.1831
घाट	-11.1834
▁शंका	-11.1834
▁व्यतीत	-11.1836
▁मापदंड	-11.1836
ng	-11.1839
▁घटनाएं	-11.1839
▁कार्यकर्ताओं	-11.1841
▁आंत्र	-11.1845
सीआई	-11.1851
प्रेरण	-11.1855
ऊँ	-11.1861
▁खाद्यान्न	-11.187
▁घंटा	-11.187
▁बाप	-11.1871
▁कानपुर	-11.1874
▁प्रतिमान	-11.1874
▁जयपुर	-11.1876
ti	-11.1879
▁दिखाना	-11.1888
यह	-11.1889
▁इंद्र	-11.1901
खार	-11.1903
▁वैधानिक	-11.1903
▁प्रचलन	-11.1903
▁इटली	-11.1904
▁अनुरक्षण	-11.1907
▁समाचारपत्र	-11.1907
शेखर	-11.1913
▁आवेग	-11.1915
▁स्वर्गीय	-11.1915
▁निश्	-11.1916
▁कटाई	-11.1916
▁घुल	-11.1926
ag	-11.1929
▁सत्	-11.193
भ्	-11.1933
्यूल	-11.1935
▁अरुणाचल	-11.1937
▁मन्दिर	-11.1937
▁फोल्डर	-11.1937
▁व्यतिक्रम	-11.1937
▁क्लास	-11.1937
▁त्रिपुरा	-11.1937
▁अधिकथित	-11.1938
▁भाइयों	-11.1939
▁तारों	-11.1939
धारण	-11.1949
▁डालता	-11.1951
▁आलोक	-11.1961
▁कार्यशाला	-11.1969
▁प्रोफाइल	-11.1971
▁माणिक	-11.1971
▁सोलह	-11.1971
▁ख्याति	-11.1971
▁ज़मीन	-11.1972
िटर	-11.1973
▁दर्शित	-11.1973
▁दिशानिर्देश	-11.1974
▁पाइ	-11.1978
▁पासपोर्ट	-11.198
▁तीख	-11.1985
▁उड़ा	-11.1985
▁मठ	-11.1986
ow	-11.1987
व्यक्ति	-11.1988
▁पक्का	-11.1989
▁चतुर	-11.1992
▁पैन	-11.1993
▁करनेवाले	-11.1999
ञ्ज	-11.2
▁मतदाता	-11.2001
▁टोक	-11.2003
▁अनुयायियों	-11.2005
▁आत्मनिर्भर	-11.2005
▁आत्मविश्वास	-11.2005
▁ज़रुरत	-11.2005
▁क्रमादेश	-11.2007
▁धोखा	-11.2008
▁जिक्र	-11.2009
▁लक्षित	-11.2011
▁फॉ	-11.2011
▁अंकुर	-11.2012
▁खुदरा	-11.2014
ड्स	-11.2019
▁जोरदार	-11.202
▁बैठकर	-11.202
राष्ट्र	-11.2022
▁क्रियाशील	-11.2025
▁उलझ	-11.2036
ea	-11.2037
▁क्योकि	-11.204
▁कलात्मक	-11.204
▁टैंक	-11.2043
▁श्रीकृष्ण	-11.2044
▁संस्थित	-11.2048
▁हौ	-11.2053
▁प्रत्ये	-11.2066
उस	-11.207
▁खुशहाली	-11.2074
▁भृंग	-11.2074
▁संपरिवर्तन	-11.2074
▁हालाँकि	-11.2074
▁राजपूत	-11.2074
▁छेड़	-11.2078
▁दिशाओं	-11.2089
क्षु	-11.209
▁विफलता	-11.2092
▁भला	-11.2097
चरण	-11.2098
▁तरफ़	-11.21
▁जंगलों	-11.2101
▁अभयारण्य	-11.2108
▁शताब्दियों	-11.2108
▁व्यंग्य	-11.2108
▁पत्तियों	-11.2109
▁पंचांग	-11.2111
कोशिका	-11.2112
आईएस	-11.2114
▁तीर	-11.2118
▁देयता	-11.2126
▁अवध	-11.2126
फाइ	-11.2133
ist	-11.2135
▁छुटकारा	-11.2143
▁यौगिक	-11.2143
▁धरोहर	-11.2143
▁नाजुक	-11.2143
▁चिन्तन	-11.2143
▁पल्लव	-11.2143
▁समायोजित	-11.2144
▁चौथे	-11.2145
▁कालावधि	-11.2145
▁सिटी	-11.2147
▁संदर्भित	-11.2148
▁प्रोटो	-11.2148
त्सा	-11.2161
▁क्रूरता	-11.2165
▁जिनको	-11.2166
▁प्रतिबंधित	-11.2168
▁रूसी	-11.2173
कूल	-11.2174
िश्च	-11.2178
▁जुर्माने	-11.2178
▁साफ्टवेयर	-11.2178
▁कब्जे	-11.2178
▁अंचल	-11.2179
▁कलाकारों	-11.2183
▁पंज	-11.2184
▁जागरूक	-11.2187
▁गोपनीय	-11.2189
▁निम्नतर	-11.219
▁गुप्ता	-11.2196
▁कपट	-11.2199
ावधि	-11.2205
▁श्रद्धांजलि	-11.2213
▁लगाते	-11.2213
ak	-11.2216
ci	-11.2231
नाशी	-11.2234
वारा	-11.2245
बुद्धि	-11.2247
▁बांग्ला	-11.2247
▁नम्बर	-11.2249
▁वृक्षों	-11.2253
▁फ़ोन	-11.2256
▁लाये	-11.2275
▁प्रकटन	-11.2276
▁दरें	-11.2282
▁तुलसी	-11.2283
▁दर्जे	-11.2284
▁अधिनिर्णय	-11.2284
सीआर	-11.2285
▁बिहारी	-11.2287
▁रूख	-11.2288
▁इस्लामिक	-11.2289
भूषण	-11.2291
▁निर्देशक	-11.2292
▁पंचायतों	-11.2295
और	-11.23
▁खाई	-11.2306
▁व्यवहार्य	-11.2309
▁हथ	-11.2318
▁इकाइयां	-11.2318
▁अहसास	-11.2318
▁डेविड	-11.2318
▁मुर्गी	-11.2319
▁लाभप्रद	-11.2325
▁बनावट	-11.2326
▁डाइ	-11.2329
▁महानगर	-11.2333
▁ट्रि	-11.2335
पुरम	-11.2338
ार्म	-11.2338
▁चतुर्थ	-11.2341
▁सम्प	-11.2341
▁बढ़ना	-11.2346
ऊं	-11.2352
▁अरविंद	-11.2353
▁बैटरी	-11.2354
▁प्रेमचंद	-11.2355
▁बढ़िया	-11.2356
▁चिड़िया	-11.2357
▁चौथाई	-11.2358
▁क्रेता	-11.2366
▁ऋस	-11.2369
▁रोटी	-11.2372
ect	-11.2372
▁साहा	-11.2379
▁परिपक्वता	-11.238
पालन	-11.2381
▁चट	-11.2388
▁एप्लिकेशन	-11.2389
▁स्मार्ट	-11.2389
▁प्रॉक्सी	-11.2389
▁चालीस	-11.2391
▁अल्लाह	-11.2395
बोर्ड	-11.2396
▁हार्ड	-11.2399
▁मामल	-11.2409
निधि	-11.2413
▁आएगा	-11.2417
मंत्र	-11.2418
सन्धि	-11.2419
▁तूफान	-11.2424
▁बस्ती	-11.2425
▁वैद्य	-11.2427
▁चुनने	-11.2428
▁पर्दा	-11.243
▁भावनात्मक	-11.2431
▁गाथा	-11.2431
▁शीघ्रता	-11.2431
▁सशक्तीकरण	-11.2432
ऐं	-11.2435
▁सादा	-11.2437
एपी	-11.2442
दन्त	-11.2442
▁तद	-11.2448
वोल्ट	-11.2448
▁प्रतिरूप	-11.2449
▁वक्ष	-11.245
▁डिज़ाइन	-11.246
▁पैटर्न	-11.246
▁मेडिकल	-11.246
▁प्रादेशिक	-11.246
▁बूढ़े	-11.246
▁लीजिए	-11.246
▁महाराज	-11.2465
▁आदिवासी	-11.2471
च्युत	-11.2476
गुप्त	-11.2477
ग्रन्थि	-11.2478
ग्राफ	-11.2483
ल्हा	-11.2485
art	-11.2486
श्न	-11.2487
शूल	-11.2489
▁दुखद	-11.2491
▁धूम्रपान	-11.2496
▁वर्षगांठ	-11.2496
▁उच्छेदन	-11.2496
▁भण्डार	-11.2496
▁कराधान	-11.2498
▁अपहरण	-11.2498
▁पत्ते	-11.2499
▁शुक्र	-11.2499
▁तलवार	-11.2503
▁झुकाव	-11.2505
▁पहुँचने	-11.2507
▁दादी	-11.2509
▁कथाओं	-11.2519
ोचित	-11.252
ग्ग	-11.2523
▁मारा	-11.2526
क्के	-11.2527
▁तान	-11.2527
CT	-11.253
▁पीले	-11.2531
hi	-11.2531
▁राजनयिक	-11.2532
▁नामंजूर	-11.2532
▁चेष्टा	-11.2532
▁रोबोट	-11.2532
▁जरिये	-11.2532
▁चार्ट	-11.2532
केन्द्र	-11.2532
▁लोहे	-11.2535
क्रमण	-11.2538
▁करवाया	-11.2544
मति	-11.2546
▁कुष्ठ	-11.2548
▁सीखना	-11.2551
टोर	-11.2559
▁डालें	-11.2567
▁कट्टरपंथी	-11.2568
▁संक्रामक	-11.2568
▁सहिष्णुता	-11.2568
▁अनुयायी	-11.2568
▁पसन्द	-11.2568
▁खिंच	-11.2568
▁दाँत	-11.2568
▁ढूंढ़	-11.2573
▁ऊँचाई	-11.2574
सूचना	-11.2575
▁पाएंगे	-11.2575
▁बढावा	-11.2575
▁राष्ट्रवाद	-11.2577
▁परिशि	-11.258
षऋ	-11.2583
▁नासा	-11.2583
▁सुलझा	-11.2591
▁अप्रति	-11.2592
स्को	-11.2593
▁पडता	-11.2601
▁अत्यावश्यक	-11.2604
▁तिमाही	-11.2604
▁भयभीत	-11.2604
▁मेगावाट	-11.2604
▁उच	-11.2605
▁सिद्धदोष	-11.2605
▁पैदल	-11.2606
▁वेदों	-11.2607
▁चाचा	-11.2609
▁ज़ोर	-11.2609
▁निष्पा	-11.2613
▁ऑफिस	-11.2615
भाषा	-11.2617
▁उक	-11.2617
▁कैर	-11.2622
ai	-11.2623
▁दूत	-11.2625
▁बताये	-11.2625
▁कार्यकर्ता	-11.2626
लेटर	-11.2626
▁हमास	-11.2636
▁मेला	-11.2637
▁ड्रग्स	-11.2641
▁सब्जियों	-11.2641
▁समकक्ष	-11.2641
▁गिनती	-11.2641
▁पतली	-11.2641
▁जोड़ना	-11.2642
▁अवलंब	-11.2645
▁फायर	-11.2645
▁वास्तु	-11.2652
▁साधु	-11.2656
▁ठंडा	-11.2661
वेग	-11.2668
▁प्रतिबिम्ब	-11.2677
▁लेनदेन	-11.2677
▁कार्यपालक	-11.2677
▁एकाग्र	-11.2678
▁कराते	-11.268
▁पराग	-11.2682
▁सेकंड	-11.2684
▁कविताएं	-11.269
▁पहने	-11.2691
▁आँखें	-11.2693
▁रूट	-11.2694
गांव	-11.2695
▁गायक	-11.2695
▁अखबारों	-11.2696
▁ग्रेट	-11.2707
▁प्रोत्सा	-11.2713
इए	-11.2713
▁परिष्कृत	-11.2714
▁PRO	-11.2714
▁बेचैन	-11.2715
▁विलक्षण	-11.2716
▁पेरिस	-11.2718
▁वर्गमूल	-11.2718
संघ	-11.2719
▁फुल	-11.272
▁प्रभारित	-11.2726
रोज	-11.273
▁फ़ाइलें	-11.2731
▁अधो	-11.2734
▁चतुर्	-11.2744
▁नाभिक	-11.2748
▁त्योहार	-11.275
▁तामील	-11.275
द्योग	-11.2752
▁शीश	-11.2752
▁नवीकरण	-11.2758
▁ब्रो	-11.2762
▁दब	-11.2764
▁फीड	-11.2767
विच	-11.2767
▁पहुँचे	-11.277
▁घिरा	-11.2774
▁कटु	-11.2784
स्क्रिप्ट	-11.2787
▁खरगोश	-11.2787
▁तथाकथित	-11.2787
▁पाश्चात्य	-11.2787
▁विकिपीडिया	-11.2787
▁ग्रीष्म	-11.2787
▁संक्रमित	-11.2787
▁निर्वचन	-11.2788
▁नीलामी	-11.2789
▁न्यायोचित	-11.279
▁अवज्ञा	-11.2791
▁वचनबद्ध	-11.2791
▁सेवानिवृत्ति	-11.2791
▁तत्पश्चात्	-11.2794
▁रंगीन	-11.2806
▁पौध	-11.2808
;	-11.2808
म्बा	-11.2808
▁अनधिक	-11.2813
इफ	-11.2813
द्रोह	-11.2822
▁कहानियां	-11.2828
▁भूमिगत	-11.2828
sp	-11.283
▁प्रबन्धन	-11.2836
▁बनारस	-11.2838
▁ग्रेड	-11.2842
▁प्रवृति	-11.2844
▁किताबें	-11.2844
पुष्प	-11.2844
▁मुखिया	-11.2844
िस्म	-11.285
mp	-11.2853
▁मिट	-11.2854
ाक्षर	-11.286
▁टाइम	-11.286
▁अकादमिक	-11.2861
▁चांद	-11.2862
स्टिक	-11.2864
▁वायदा	-11.2864
▁सडक	-11.2864
▁नोकिया	-11.2864
▁पेंट	-11.2868
चय	-11.2869
▁हज	-11.287
▁वर्गाकार	-11.2871
▁अरुण	-11.2873
▁स्वराज	-11.2874
▁ताक	-11.2875
▁पहाड़ियों	-11.2882
▁बदलती	-11.2895
▁सब्सिडी	-11.2899
▁कच्चा	-11.2899
▁लाद	-11.29
▁संतोषजनक	-11.29
▁गौतम	-11.2901
▁दुहरा	-11.2902
▁फर्श	-11.2902
▁नियति	-11.2909
▁सुलझाने	-11.2912
▁पाय	-11.2914
▁साधक	-11.2914
क्ष्य	-11.2916
▁मेरु	-11.2919
▁जार्ज	-11.2924
▁Chrome	-11.2936
▁इजाजत	-11.2936
▁उपराष्ट्रपति	-11.2936
▁एवोल्यूशन	-11.2936
▁मैथुन	-11.2936
▁यूनानी	-11.2936
▁स्थगन	-11.2936
▁पराजित	-11.2937
▁स्कैन	-11.2939
▁तत्	-11.2939
वस्तु	-11.2942
▁छात्रवृत्ति	-11.2943
▁बारिश	-11.2946
▁सपना	-11.295
सभा	-11.2951
▁बनवाय	-11.2953
▁पैदावार	-11.2955
▁प्रताप	-11.2958
▁मश	-11.296
निर्धारण	-11.2964
▁योद्धा	-11.2974
▁ह्रास	-11.2974
▁अमान्य	-11.2974
▁कूटनीति	-11.2974
▁मानसून	-11.2975
▁महासभा	-11.2975
▁भो	-11.2979
▁अपराधियों	-11.298
पादित	-11.2989
▁फीट	-11.2989
▁चार्टर	-11.2992
oc	-11.2993
▁उदास	-11.2993
फील्ड	-11.2996
ख्त	-11.3001
▁तुम्हे	-11.3002
पर्य	-11.3005
▁कैबिनेट	-11.3012
▁निस्संदेह	-11.3012
▁कार्टून	-11.3012
▁ग्रीवा	-11.3012
▁तालमेल	-11.3012
योंकि	-11.3013
▁कॉपी	-11.302
▁हालात	-11.302
▁अभिकर्ता	-11.3024
▁सृजनात्मक	-11.3024
मण्डल	-11.3027
▁कोशिकाएं	-11.3031
▁गली	-11.3035
▁संकेतक	-11.3036
▁चौथा	-11.3047
▁कौर	-11.3049
युद्ध	-11.3049
▁हिम्मत	-11.3049
▁पसंदीदा	-11.305
▁पुण्य	-11.3051
ID	-11.3056
▁अनुरुप	-11.3056
▁ट्रैकिंग	-11.3058
▁सैं	-11.306
▁आसन	-11.3062
▁जातियां	-11.3064
▁अधिमान	-11.3074
▁मंत्रिपरिषद	-11.3088
▁बाँट	-11.3088
▁उद्गम	-11.3092
IN	-11.3093
▁टकराव	-11.3096
▁इन्कार	-11.3101
▁उन्मुख	-11.3104
▁अक्षमता	-11.3105
▁मानदंडों	-11.311
▁उपगत	-11.3112
▁गुहा	-11.3117
▁पात्रता	-11.3119
नारायण	-11.3121
▁बैठने	-11.3123
▁यहूदियों	-11.3126
▁द्रुत	-11.3126
▁क्षीण	-11.3126
कार्ड	-11.3127
▁विराट्	-11.313
RE	-11.313
▁प्रक्षेपण	-11.3132
ैंट	-11.314
्जे	-11.3141
▁बालिका	-11.3147
वुड	-11.3154
▁चीज़ें	-11.3157
वहन	-11.3158
ear	-11.3161
विस	-11.3162
सागर	-11.3164
▁निमंत्रण	-11.3164
▁विरचित	-11.3164
▁अशुद्ध	-11.3164
▁अपनाए	-11.3165
▁ज्वार	-11.3165
▁श्रव्य	-11.3168
शंस	-11.317
▁संभवतया	-11.3171
▁कतार	-11.318
▁अत्य	-11.3183
प्राप्ति	-11.3192
मुद्र	-11.32
▁दाब	-11.3201
▁कम्युनिस्ट	-11.3202
▁त्यौहार	-11.3202
▁भूगोल	-11.3202
▁ग़लत	-11.3203
▁बतला	-11.3204
▁जमाराशि	-11.3204
क्तियों	-11.3205
एमपी	-11.3207
▁तुलनात्मक	-11.321
▁टॉम	-11.3216
▁लीटर	-11.3222
ाइटिस	-11.3225
▁कलाम	-11.3237
ाइयों	-11.3238
मैट	-11.3241
▁खिड़की	-11.3241
▁ड्राफ्ट	-11.3241
▁तीक्ष्ण	-11.3241
▁भाँति	-11.3241
▁सतर्क	-11.3241
▁जानकार	-11.3242
▁क्रियान्वित	-11.3242
▁भ्रष्ट	-11.3243
▁ठरोग	-11.3244
मंत्री	-11.3247
बन्धु	-11.3248
▁चंद्रमा	-11.3251
▁राज्यसभा	-11.3251
▁दोहराया	-11.3253
▁कुचल	-11.3254
▁पंक्तियों	-11.3255
▁नीले	-11.3261
▁कटि	-11.3268
ातीत	-11.3278
▁कतर	-11.3278
▁अफ्रीकी	-11.328
▁प्रोजेक्ट	-11.328
▁पेशकश	-11.328
▁माधव	-11.328
▁जागृत	-11.3281
टीन	-11.3282
▁लुप्त	-11.3282
▁यूरोपियन	-11.3285
▁रामलिंग	-11.3288
▁भलाई	-11.329
▁समाधि	-11.3293
डेन	-11.3295
▁मरण	-11.3298
रियो	-11.3302
▁राइ	-11.3302
▁छाती	-11.3302
▁बैर	-11.331
चंद	-11.3311
▁अमूर्त	-11.3318
▁अठारह	-11.3319
▁पूर्वानुमान	-11.3319
▁जनगणना	-11.3319
▁चौधरी	-11.3319
आईआर	-11.3319
▁असंतोष	-11.3319
▁नवजात	-11.3321
▁माडल	-11.3322
▁दैवी	-11.3325
▁राजीव	-11.333
▁हें	-11.333
शिर	-11.3331
▁बढे	-11.334
▁निकलना	-11.3346
▁Re	-11.3346
▁आभास	-11.3346
सीपी	-11.3351
बीएस	-11.3352
▁छिप	-11.3353
▁सुनते	-11.3355
▁इंटरनेशनल	-11.3358
▁हिंसक	-11.3358
▁हनुमान	-11.3358
▁शब्दकोश	-11.3361
▁विश्वयुद्ध	-11.3362
नोडल	-11.3364
▁संरचनात्मक	-11.3365
▁पट्टा	-11.3365
▁सुविधाजनक	-11.3366
▁साहसिक	-11.3371
लाभ	-11.3379
▁असा	-11.3382
डियम	-11.3387
▁उदारता	-11.3391
▁मंग	-11.3393
▁शिशुओं	-11.3396
▁डिवाइस	-11.3397
▁मुसीबत	-11.3397
▁इरादा	-11.3397
▁मलेरिया	-11.3397
▁डेल्टा	-11.3397
▁जिहाद	-11.3397
▁नक़ल	-11.3398
▁कैश	-11.3399
▁आप्रवास	-11.3402
▁जेब	-11.3402
वृति	-11.3402
ant	-11.3409
▁बल्ल	-11.3415
▁तेज़	-11.3415
शाही	-11.3416
▁सूरत	-11.3417
▁प्रतिस्थापन	-11.3417
दराज	-11.3418
▁कराती	-11.3429
▁निकासी	-11.3433
▁गेट	-11.3433
▁अनुष्ठान	-11.3436
▁डिजीटल	-11.3436
▁सम्प्रदाय	-11.3436
▁रघु	-11.3436
▁रोमांच	-11.3436
▁संकोच	-11.3437
▁परीक्षक	-11.3437
▁भत्ते	-11.3438
▁कलम	-11.3438
▁आर्द्र	-11.3439
▁समतल	-11.3442
▁कफ	-11.3445
▁औषधीय	-11.3445
▁fa	-11.3448
▁रोमन	-11.3449
दाह	-11.3451
▁वास्त	-11.3459
▁दर्शाती	-11.3463
▁पहना	-11.3468
▁मनाने	-11.347
चन्द	-11.3471
▁हस्तशिल्प	-11.3476
▁कॉन्फ़िगर	-11.3476
▁अलमस्त	-11.3476
▁पुनर्वि	-11.348
▁करोड	-11.348
▁नवाब	-11.3481
▁थोक	-11.3481
▁पारसी	-11.3484
▁संगणित	-11.3484
▁अतिमानसि	-11.3487
▁प्रहार	-11.349
▁प्रातः	-11.3491
▁आहरण	-11.3491
ियॉँ	-11.3497
▁प्रबंधित	-11.3497
▁दिखने	-11.3498
▁अतिमानस	-11.3505
▁दुष्ट	-11.3506
▁शल्यक्रिया	-11.3511
▁पत्रिकाओं	-11.3513
▁बाधाओं	-11.3515
▁अमेरिकन	-11.3516
▁प्रायोगिक	-11.3516
▁शिष्टमंडल	-11.3516
▁सहकारिता	-11.3516
▁प्रायद्वीप	-11.3516
▁राक्षस	-11.3516
▁LIN	-11.3516
▁आरेख	-11.3516
▁वायुमंडल	-11.3518
▁निराश	-11.3518
▁मचा	-11.3525
▁कटा	-11.3526
▁टकरा	-11.3526
निक्स	-11.3531
चक्र	-11.3531
ide	-11.3532
वृद्धि	-11.3532
▁कार्यकरण	-11.3534
▁गाल	-11.3536
▁पुनरा	-11.3543
RL	-11.3545
ेट्स	-11.3547
▁जैक	-11.3548
▁कमिश्नर	-11.3555
▁निवेदिता	-11.3555
▁वामपंथी	-11.3555
▁गर्भावस्था	-11.3556
प्रकाश	-11.3557
▁सेकेंड	-11.3557
▁प्रतिज्ञा	-11.3558
▁मानद	-11.3559
▁पेट्रो	-11.356
▁कार्यभार	-11.3561
ुअल	-11.3567
वर्धक	-11.3567
▁आसमान	-11.3568
▁प्रतियां	-11.3574
▁मात	-11.358
▁चैक	-11.3583
▁उठाये	-11.3584
▁प्लग	-11.3586
▁शिला	-11.3589
▁सरोजिनी	-11.3595
▁जवाबदेही	-11.3595
▁फिनलैंड	-11.3595
▁शुक्राणु	-11.3596
▁सम्पादित	-11.3596
दौलत	-11.3598
▁बहती	-11.3601
▁रखेगा	-11.3616
▁गला	-11.3622
▁मध्यस्थता	-11.3623
प्ली	-11.3625
▁इंस्टीट्यूट	-11.3636
▁वल्लभ	-11.3636
▁साहिब	-11.3636
▁कचरा	-11.3636
▁कृतज्ञ	-11.3636
▁नानालाल	-11.3636
▁विषाणु	-11.3636
▁परमात्मा	-11.3637
▁निपट	-11.3641
दंड	-11.3642
▁परिवाद	-11.3646
▁ज्यों	-11.3647
▁चांदी	-11.3649
निर्णय	-11.3656
▁हरिजन	-11.3657
▁लटक	-11.366
▁वाच	-11.3661
▁घंटों	-11.3676
▁अंगीकार	-11.3676
▁लॉर्ड	-11.3679
▁पिछला	-11.3682
▁तुच्छ	-11.3686
▁दर्शाने	-11.3686
▁शॉ	-11.3689
▁नमून	-11.3695
सीएल	-11.3697
शासन	-11.37
▁सींग	-11.3701
▁केशव	-11.3705
▁भरती	-11.3709
▁बैंड	-11.3712
▁सभ्य	-11.3714
▁युसुफ़	-11.3716
▁शिथिल	-11.3716
ट्ठा	-11.3719
▁लॉगिन	-11.3721
▁रिश्तेदार	-11.3723
▁खट	-11.3723
▁खोद	-11.3727
तत्त्व	-11.3736
▁सार्व	-11.3736
▁अचल	-11.374
भाष्	-11.374
▁राख	-11.3752
▁साझे	-11.3755
ga	-11.3755
▁चंडीगढ़	-11.3757
▁यूनिकोड	-11.3757
▁साप्ताहिक	-11.3757
▁आरोग्य	-11.3757
▁लसीका	-11.3757
▁उपद्रव	-11.3757
ुद्दीन	-11.3757
▁जवाहर	-11.3757
▁वायरस	-11.3758
▁रामकृष्ण	-11.3759
▁राष्ट्रवादी	-11.3761
▁बरसात	-11.3763
▁उद्यमिता	-11.3765
▁अध्या	-11.3767
▁पाचन	-11.377
▁प्रस्थान	-11.3771
एनएस	-11.3774
▁कैसी	-11.3785
▁भरण	-11.3791
▁लडक	-11.3793
▁बहिष्कार	-11.3798
▁भवभूति	-11.3798
▁सम्पादक	-11.3798
▁पुरातन	-11.3799
▁मान्यताप्राप्त	-11.3799
▁पिताजी	-11.3799
▁अमृतसर	-11.3799
▁दीर्घकालीन	-11.38
▁आबद्ध	-11.38
▁नरेश	-11.3803
पूर्ति	-11.3804
द्धि	-11.3805
▁निर्मल	-11.3805
▁टेबल	-11.3807
▁अकाल	-11.3812
▁रौ	-11.3813
धिकार	-11.3816
▁एड्स	-11.3823
पात्र	-11.3823
ञ्	-11.3825
▁जमाव	-11.3837
▁प्राणिक	-11.3838
▁चलाई	-11.3838
▁कुटुंब	-11.3839
▁लवण	-11.3839
▁कुर्सी	-11.3839
▁सचेतन	-11.3842
▁लपेट	-11.3843
▁टाटा	-11.3847
▁बेहतरीन	-11.3849
▁मायने	-11.3849
क्रांत	-11.3854
▁चढ़ाव	-11.3859
▁कॉन्	-11.386
टिस	-11.3862
▁सीमांत	-11.3864
न्ग	-11.3872
▁इजराइल	-11.388
▁ऊष्मा	-11.388
▁वांछनीय	-11.388
▁अनुपूरक	-11.388
▁प्रशंसक	-11.388
▁विवेकानंद	-11.3881
▁सजावट	-11.3882
▁चौथी	-11.3882
▁तात्या	-11.3882
टिकल	-11.3882
up	-11.3885
▁साम्य	-11.3886
▁तोड़ने	-11.3897
▁विहार	-11.3897
▁सौंपे	-11.3906
▁समझाने	-11.3907
IC	-11.3911
▁चिपका	-11.3915
▁सांसारिक	-11.3921
▁गोदाम	-11.3923
▁परोक्ष	-11.3927
औ	-11.3928
▁पीला	-11.3937
चर्म	-11.395
▁अधिवक्ताओं	-11.3953
▁सैर	-11.3955
▁आइस	-11.3959
▁बाय	-11.396
▁पालि	-11.3962
▁निरीक्षक	-11.3963
▁यदुनाथ	-11.3963
▁उच्चारण	-11.3963
▁भोपाल	-11.3964
▁चैत्य	-11.3966
▁मुकदम	-11.397
▁बैच	-11.3974
▁झुंड	-11.3974
▁मोक्ष	-11.3977
▁शिकायतें	-11.3981
▁शाक	-11.3982
आरआई	-11.399
▁छिड़	-11.3992
▁हिन्दु	-11.3996
▁विक्रम	-11.3999
मूलक	-11.4004
▁अवहेलना	-11.4004
▁गोविंद	-11.4004
▁सन्दर्भ	-11.4004
▁निजाम	-11.4005
▁स्टील	-11.4006
▁वोट	-11.401
▁रुग्ण	-11.4028
▁विशेषतः	-11.4028
▁कार्ल	-11.4029
▁कैदी	-11.4032
गम्य	-11.4033
▁सर्वत्र	-11.4033
▁तकलीफ	-11.4033
▁इतिहासकार	-11.4039
त्ते	-11.4042
▁लख	-11.4042
▁कारखाने	-11.4046
▁नामनिर्देशित	-11.4046
▁पाश	-11.4047
▁पर्वतमाला	-11.4047
▁कॉफी	-11.4049
▁कुत्ते	-11.405
▁पैकेट	-11.4051
▁बैंककारी	-11.4052
आईपी	-11.4066
▁विफलः	-11.4073
▁फैलाने	-11.4074
▁लगीं	-11.4074
▁उर्	-11.4076
वर्म	-11.4077
▁छीन	-11.4087
▁पच्चीस	-11.4088
▁पारम्परिक	-11.4088
▁माउंट	-11.4088
निकेतन	-11.4088
श्लेष्म	-11.4088
▁प्राप्य	-11.4088
▁चिप	-11.4089
▁आभासी	-11.4089
▁CO	-11.4105
▁विश्वसनीयता	-11.4108
▁डैक	-11.411
वाहिनी	-11.4112
कृतियां	-11.4126
▁मौलाना	-11.4131
▁महावीर	-11.4131
▁निर्वाचक	-11.4131
▁आज़ाद	-11.4131
▁चलचित्र	-11.4135
▁रखनी	-11.4135
▁तराश	-11.4136
गढ	-11.414
निवेश	-11.4142
▁प्रकरण	-11.4159
▁व्ह	-11.4168
▁अयोध्या	-11.4173
▁मछलियों	-11.4173
▁संप्रेषण	-11.4173
ग्रंथ	-11.4173
▁प्रतिपादन	-11.4174
▁आयातित	-11.4175
▁जाएँगे	-11.4176
▁पौंड	-11.4181
▁बाव	-11.4183
यॉ	-11.4188
▁अयोग्य	-11.4189
▁प्रयोगशालाओं	-11.4195
pp	-11.4195
▁भोल	-11.4195
्जा	-11.42
▁पडे	-11.4202
▁सम्यक्	-11.4205
स्वरूप	-11.4206
▁ताड़	-11.421
▁बचना	-11.4214
▁रिश्ते	-11.4214
▁कैमरा	-11.4216
▁बर्ताव	-11.4216
▁बाधित	-11.4216
▁देसाई	-11.4216
▁तंतु	-11.4216
▁पीठासी	-11.4216
▁मिथक	-11.4216
▁राममोहन	-11.4219
जहां	-11.4221
▁सावधि	-11.4222
▁लड़कों	-11.4222
सीएस	-11.4225
OR	-11.4232
▁बूंद	-11.4232
▁कपिल	-11.4254
पीएम	-11.4255
विज	-11.4256
▁वाट	-11.4256
▁अनौपचारिक	-11.4258
▁बेलारूस	-11.4258
▁तर्कसंगत	-11.4258
▁फेफड़ों	-11.4258
▁सैयद	-11.4258
▁रेखांकित	-11.4259
घोष	-11.4259
▁आत्मसात	-11.426
▁वायुयान	-11.4261
▁निकलती	-11.4261
▁स्वतन्त्रता	-11.4272
▁चाप	-11.4276
▁मद्य	-11.4277
▁सद्भाव	-11.4286
▁दरअसल	-11.4301
▁द्विआधारी	-11.4301
▁शॉर्टकट	-11.4301
▁संकलित	-11.4301
▁कम्पनियों	-11.4301
▁टुकड़ा	-11.4301
▁मेघालय	-11.4302
▁जेम्स	-11.4303
ld	-11.4308
ME	-11.4309
▁उपयोगकर्ताओं	-11.4311
शायर	-11.4314
डेंट	-11.4314
ग्ल	-11.4317
▁औषधियों	-11.4326
ब्रि	-11.4335
▁सड़	-11.4338
▁रचित	-11.4339
▁क्रे	-11.4342
▁क्षैतिज	-11.4344
▁रजिस्ट्रार	-11.4344
▁अदायगी	-11.4344
▁महादेवी	-11.4344
▁डेयरी	-11.4344
▁अविश्वास	-11.4345
निर्मित	-11.4349
▁II	-11.435
▁निकलते	-11.4365
▁हठ	-11.4367
▁फ्लोर	-11.4367
au	-11.4373
▁बरतन	-11.4378
▁शीतल	-11.438
इंग	-11.4387
▁सर्वोपरि	-11.4388
▁साम्प्रदायिक	-11.4388
▁एओआर	-11.4388
▁तेरह	-11.4388
▁पत्तों	-11.4388
▁तानाशाह	-11.4388
▁मातृभूमि	-11.4388
▁पोतन्ना	-11.4389
▁घनत्व	-11.4392
▁देखती	-11.4392
▁प्रवृत्तियों	-11.4398
▁गाइड	-11.4411
▁क्रिस	-11.4413
▁साँस	-11.4419
मापी	-11.4421
http	-11.4431
▁अद्वैत	-11.4431
▁झारखंड	-11.4431
▁बढ़ोतरी	-11.4431
▁कप्तान	-11.4431
▁अत्याधिक	-11.4431
▁ब्यौरे	-11.4432
▁महोदय	-11.4432
▁अध्यापन	-11.4434
▁विषयवस्तु	-11.4435
एसआई	-11.4436
▁वेश्या	-11.4441
▁इलेक्ट्रॉनिक्स	-11.4441
▁स्वराज्य	-11.4442
▁बापू	-11.4444
▁मृग	-11.4449
▁रखेंगे	-11.4454
▁इज	-11.4463
▁संस्कृतियों	-11.4467
▁अनुज्ञप्ति	-11.4475
▁पाउंड	-11.4475
▁वार्मिंग	-11.4475
▁अखंडता	-11.4475
▁फ्रांसीसी	-11.4475
▁त्यागपत्र	-11.4479
▁टोकन	-11.4479
▁रमण	-11.4479
▁यंग	-11.4484
▁अभिप्राप्त	-11.4487
प्ति	-11.4488
साइड	-11.4501
▁प्रतिबन्ध	-11.4501
▁लौ	-11.4512
▁नातेदार	-11.4513
aI	-11.4514
▁अतिरिक़्त	-11.4519
▁प्रतिषेध	-11.4519
▁अपडेट	-11.4519
▁वार्तालाप	-11.4519
▁कब्र	-11.452
▁वेंकट	-11.452
▁द्रीय	-11.4521
▁निपटारा	-11.4528
ार्ध	-11.4531
▁तेज़ी	-11.4531
▁नोक	-11.4533
▁सीमाएं	-11.4534
▁समझाया	-11.4538
स्वर	-11.4543
▁भुला	-11.4543
▁समूच	-11.4545
▁ब्रांड	-11.455
▁विनिर्दि	-11.4561
पाठ	-11.4562
▁जनसाधारण	-11.4563
▁सुल्तान	-11.4563
▁विधायक	-11.4564
▁पत्रकारिता	-11.4564
▁यन्त्र	-11.4567
▁परम्परागत	-11.457
▁पूछने	-11.457
▁यकृत	-11.4579
▁नवान्वेषक	-11.4592
▁न्यूज	-11.4602
▁ईंट	-11.4607
▁परित्याग	-11.4607
▁सुसज्जित	-11.4607
▁सुस्पष्ट	-11.4607
▁रुझान	-11.4607
▁वफादार	-11.4607
▁गांठ	-11.4611
▁फोरम	-11.4613
संख्य	-11.4615
▁विलेख	-11.4619
ज्जा	-11.4619
▁वक़्त	-11.4623
▁बर्मा	-11.4623
श्रम	-11.4624
▁उपवास	-11.4624
▁पिच	-11.4634
▁बहाल	-11.464
▁रास	-11.4641
फिन	-11.4647
▁प्रौद्योगिक	-11.4648
▁www	-11.4651
▁फुफ्फुस	-11.4651
▁वृंदावन	-11.4651
▁अछूत	-11.4651
▁पाषाण	-11.4651
▁समावेदन	-11.4651
▁साइकिल	-11.4651
▁सिडबी	-11.4651
▁ब्लैक	-11.4652
▁दूषित	-11.4652
▁मल्टी	-11.4654
▁जनमत	-11.4664
▁वाहिका	-11.467
चिंत	-11.4671
▁गिरवी	-11.4672
▁ट्रीय	-11.4675
▁खेद	-11.4676
▁कमाने	-11.4688
टीपी	-11.4691
▁अदृश्य	-11.4696
▁औपनिवेशिक	-11.4696
▁प्रोफ़ाइल	-11.4696
▁लापरवाह	-11.4696
▁समतुल्य	-11.4696
आक्साइड	-11.4696
▁भित्ति	-11.4698
▁वेदना	-11.4701
ख़्त	-11.4702
▁प्रत्यक्षतः	-11.4709
▁साँ	-11.4714
भोज	-11.4735
▁अड्डा	-11.4741
▁क्रिस्टल	-11.4741
▁चाँद	-11.4741
▁संभोग	-11.475
र्फ	-11.475
▁भावुक	-11.4752
▁झुका	-11.4753
इट	-11.4756
▁पारिस्थितिकी	-11.476
TT	-11.4761
▁डिम्ब	-11.4766
▁समानांतर	-11.477
▁बचाया	-11.4772
िष्णु	-11.478
▁कार्रवाइय	-11.4786
▁आवधिक	-11.4786
▁पिघल	-11.4787
▁क्षतिग्रस्त	-11.4788
ल्लाह	-11.4791
▁राष्ट्रमंडल	-11.4792
▁उपस्कर	-11.4792
▁छपाई	-11.4794
▁सारवान	-11.4795
▁दिलाया	-11.4807
▁कवक	-11.4811
▁क्रू	-11.4813
▁शौ	-11.4821
▁मुहर	-11.4822
▁परिचर्चा	-11.4831
▁सॉफ़्टवेयर	-11.4831
▁कदाचार	-11.4831
▁कच्ची	-11.4831
▁सामरिक	-11.4833
पीओ	-11.4849
▁फिट	-11.4852
▁कार्यक्षेत्र	-11.4855
▁गध	-11.4858
▁तुलन	-11.4865
▁अनुपस्थित	-11.4867
▁विधिवत	-11.4876
▁कोल्हटकर	-11.4876
▁मर्यादा	-11.4876
▁वैवाहिक	-11.4876
▁संकुचन	-11.4876
▁सर्वांगीण	-11.4876
▁अभिकथन	-11.4877
▁रिश्वत	-11.4877
▁नर्मदाशंकर	-11.4877
▁रस्सी	-11.4877
▁कुंजीपटल	-11.4878
▁धमनी	-11.4878
▁चौड़ा	-11.488
▁नागपुर	-11.4882
क्रियात्मक	-11.4887
▁प्रस्ता	-11.4888
▁निधियां	-11.4894
च्छिक	-11.4913
▁मर्द	-11.4915
▁पड़ोस	-11.4916
▁गुंजाइश	-11.4922
▁फ़ारसी	-11.4922
▁वसीयत	-11.4922
▁फिल्टर	-11.4922
▁मुंशी	-11.4922
▁सपनों	-11.4923
▁मुद्रास्फीति	-11.4923
SS	-11.4924
▁उद्भव	-11.4925
▁दूंगा	-11.4931
▁पढ़ते	-11.4931
▁रोज़	-11.4936
▁सैल	-11.4937
कॉन	-11.4938
ana	-11.4945
स्पेस	-11.495
्नो	-11.4953
▁सुगंध	-11.4968
▁अवरुद्ध	-11.4971
▁वीणा	-11.4975
▁ऑक्स	-11.4978
▁पूज	-11.4979
▁सन्देश	-11.498
▁ख़ान	-11.4983
▁समयावधि	-11.4985
▁इन्फ	-11.4985
▁करवाना	-11.4989
▁मैग	-11.5
▁अंतररा	-11.5011
प्रधान	-11.5011
▁मर्म	-11.5013
▁अनुज्ञेय	-11.5014
▁ठेकेदार	-11.5014
▁नाइट्रोजन	-11.5014
▁स्वंय	-11.5014
▁फकीर	-11.5015
▁रोज़गार	-11.5015
▁कहानियाँ	-11.5017
▁गुज़र	-11.5018
▁नियमावली	-11.5021
▁सलाम	-11.5023
▁आलू	-11.5024
▁लिखकर	-11.5026
नाशक	-11.5043
चिकित्सा	-11.5044
▁इलेक्ट्रानिक	-11.5045
▁उद्घोषणा	-11.506
▁हुकूमत	-11.506
▁आवंटन	-11.506
▁ड्यूटी	-11.506
▁निपुण	-11.506
▁श्रवण	-11.506
▁पूंछ	-11.506
▁रिसर्च	-11.506
▁कचरे	-11.5061
▁पितृ	-11.5061
▁कपड़ों	-11.5061
इये	-11.507
संधान	-11.507
▁गुड़	-11.5071
गिरी	-11.5072
पीड़	-11.5077
▁एसिड	-11.5082
बूल	-11.5083
▁चलेगा	-11.5085
▁मुर्ग	-11.5088
इंड	-11.5093
▁जड़ें	-11.5097
▁अविभक्त	-11.5107
▁विरोधाभास	-11.5107
▁षड्यंत्र	-11.5107
▁आधारशिला	-11.5107
▁संरक्षा	-11.5107
▁पूर्वाग्रह	-11.5107
▁थोडा	-11.5107
▁फ्रेंच	-11.5107
▁वाकई	-11.5107
▁भिक्षु	-11.5107
▁कठिनाइया	-11.5108
▁संभालने	-11.5108
एससी	-11.5111
डीसी	-11.5114
▁संघटक	-11.5117
▁गोपनीयता	-11.514
▁शत्रुओं	-11.5146
▁उठती	-11.5151
▁अभियांत्रिकी	-11.5154
▁अमिताभ	-11.5154
▁मार्जिन	-11.5154
▁विद्यासागर	-11.5154
▁बरामद	-11.5154
▁निद्रा	-11.5155
▁लंका	-11.5155
▁आर्ट	-11.5157
▁दर्पण	-11.5158
▁घटनाक्रम	-11.5159
▁स्थानापन्	-11.5163
▁निबन्ध	-11.5164
▁आवेदनपत्र	-11.5165
▁इंद्रिय	-11.5171
▁पनप	-11.5174
पुंज	-11.5177
▁आकड	-11.5182
▁घिस	-11.5186
▁वंशज	-11.5193
▁दर्शाते	-11.5197
▁पकड	-11.5198
▁स्वयंसेवक	-11.5201
▁ऊर्ध्व	-11.5201
▁थलग	-11.5201
▁नदियां	-11.5201
▁विवेकाधिकार	-11.5202
▁स्थाय	-11.5205
▁दोहरी	-11.5206
मार्क	-11.5225
▁प्रांतीय	-11.5226
▁उद्ध	-11.5237
▁मार्केट	-11.5246
▁अभूतपूर्व	-11.5248
▁मज़दूर	-11.5248
▁यूनिवर्सिटी	-11.5248
▁आकृष्ट	-11.5248
▁नियामक	-11.5248
▁मजाक	-11.5248
▁जर्नल	-11.5248
▁पार्टियों	-11.5248
▁अड्डे	-11.5249
▁मेहता	-11.5249
▁vii	-11.525
▁कामयाब	-11.5251
▁महिमा	-11.5254
▁सेनापति	-11.5257
▁जिम	-11.5258
डिट	-11.5261
▁उदासीनता	-11.5269
ard	-11.5281
▁स्वतन्त्र	-11.5283
▁ट्व	-11.5292
▁द्रोण	-11.5295
▁प्रवर्तक	-11.5295
▁दुर्भाग्यवश	-11.5296
cl	-11.5298
▁परमेश्वर	-11.5299
▁राजनेता	-11.5301
ांजलि	-11.5304
▁मोती	-11.5305
शाल	-11.5311
मग्न	-11.532
▁हटकर	-11.5323
▁ललित	-11.5323
फोन	-11.5331
▁दिखाए	-11.5334
▁दूतावास	-11.5343
▁देशीराज्य	-11.5343
▁hO	-11.5345
▁नरेंद्र	-11.5346
our	-11.5355
फिर	-11.5362
▁अटक	-11.5362
▁किराये	-11.5373
▁लटका	-11.5375
कृष्ण	-11.5378
▁चुनौतियां	-11.5391
▁मक्खी	-11.5391
▁हड्डियों	-11.5391
▁दरवाजा	-11.5391
▁लॉन्च	-11.5391
▁टिड्ड	-11.5392
▁उल्टी	-11.5392
▁मैट्रिक	-11.5393
▁क्रूर	-11.5393
वर्तित	-11.5393
▁व्यंजन	-11.5395
▁गिर्द	-11.5397
▁संबधित	-11.5401
▁बहाना	-11.5403
▁निकटतम	-11.5405
ud	-11.5411
▁लोकहित	-11.5415
िलक्षित	-11.5417
▁सार्वभौम	-11.5428
▁जुडे	-11.5435
▁क्लाइंट	-11.5439
▁नोबेल	-11.5439
▁फर्नीचर	-11.5439
▁स्वीडन	-11.5439
▁रेड्डी	-11.5439
▁उदात्त	-11.5439
▁मच्छर	-11.5439
▁स्तम्भ	-11.5439
▁स्त्रियां	-11.5439
▁वर्जित	-11.544
▁ब्यौरा	-11.5441
▁जिंदा	-11.5444
▁दिखाएं	-11.5445
▁अहंकार	-11.5447
श्वास	-11.5461
▁ज्ह	-11.5474
NT	-11.5481
▁ह्रदय	-11.5487
▁पुनरावृत्ति	-11.5487
गुआ	-11.5504
▁सस्ता	-11.5508
▁बाइट	-11.5508
▁मुकदमेबाज	-11.5509
▁लेनदार	-11.5522
र्घ	-11.5523
▁इंडोनेशिया	-11.5536
▁कांफ्रेंस	-11.5536
▁रुकावट	-11.5536
▁भाजपा	-11.5536
▁उपेक्षित	-11.5536
▁संयोजक	-11.5536
▁मौर्य	-11.5536
▁रहस्यमय	-11.554
▁मराठ	-11.554
▁वारिस	-11.5543
▁अंधकार	-11.5546
▁सल्ल	-11.5551
▁गाजा	-11.5556
▁जुड़ने	-11.556
▁उन्न	-11.5561
▁सप्त	-11.5571
▁मुनि	-11.5578
▁उलझन	-11.5582
▁अध्यधीन	-11.5584
▁पदोन्नति	-11.5584
▁महासचिव	-11.5584
▁स्तूप	-11.5584
▁दुसरे	-11.5584
▁असहमति	-11.5585
▁वृद्धावस्था	-11.5585
▁चेतन	-11.5586
▁राहुल	-11.5586
▁कायदा	-11.5586
सन्निकट	-11.5586
▁धक्का	-11.5588
▁मोचन	-11.5591
किसी	-11.5593
▁बाड़	-11.5595
▁सर्जन	-11.5605
▁प्रमाणीकरण	-11.5606
▁बाएं	-11.5614
▁बनेगा	-11.5631
▁फसलें	-11.5631
▁नागालैंड	-11.5633
▁घोड़ा	-11.5633
▁पराजय	-11.5634
▁उथल	-11.5636
▁परिसंघ	-11.5636
▁बोतल	-11.5637
▁रैंक	-11.5638
▁मिर्च	-11.5638
▁प्रजातियां	-11.5639
▁विचाराधीन	-11.5643
▁सिखाया	-11.5646
▁प्रदर्शक	-11.5657
▁ढोल	-11.5658
▁पावन	-11.5659
▁पर्यवेक्ष	-11.5677
▁क्रोमियम	-11.5683
▁निलंबित	-11.5683
▁स्ट्रीम	-11.5683
▁प्रत्यर्थियो	-11.5683
▁राजनीतिज्ञ	-11.5687
▁उधारकर्ता	-11.5687
▁बिठा	-11.569
▁देशभक्ति	-11.5691
▁हिरण	-11.5692
ind	-11.5698
▁वाक्	-11.5703
▁जूते	-11.5704
▁अकेल	-11.5706
▁संतुष्टि	-11.5711
ik	-11.5722
▁हिज	-11.5723
▁दीक्षा	-11.5728
▁पक्क	-11.5729
▁प्रोसेस	-11.5729
▁देनदार	-11.5731
▁संबध	-11.5731
▁मौद्रिक	-11.5732
▁आइटम	-11.5732
टीआई	-11.5732
▁प्रवीण	-11.5732
▁शुक्ल	-11.5734
▁अकसर	-11.5735
▁ब्रह्मांड	-11.5737
▁कोष्ठक	-11.5738
▁अलगाव	-11.5741
▁सपाट	-11.5743
आउट	-11.5743
प्रमाण	-11.5744
LE	-11.5752
▁ko	-11.5757
▁दावेदार	-11.5769
▁आरम्भिक	-11.5769
▁इंग्लिश	-11.5782
▁जिज्ञासा	-11.5782
▁मकसद	-11.5782
▁नक्षत्र	-11.5782
▁निवारक	-11.5782
▁तुल्य	-11.5784
▁अधिरोपण	-11.5786
▁धनुष	-11.579
▁देहात	-11.5793
▁खिसका	-11.5802
▁मीरा	-11.5812
▁खडे	-11.5821
ly	-11.5821
▁दलाल	-11.5825
▁नौजवान	-11.5832
▁बंगलौर	-11.5832
▁सैद्धांतिक	-11.5832
▁डाटाबेस	-11.5832
▁गुर्दे	-11.5832
▁org	-11.5832
▁एटीएम	-11.5832
▁सजग	-11.5832
▁सदृश	-11.5832
▁कथानक	-11.5833
▁कैरियर	-11.5833
▁अपमानजनक	-11.5834
RI	-11.5834
▁राजशाही	-11.5835
▁शोभा	-11.5835
▁वरदान	-11.5835
▁गुजार	-11.5835
▁पत्ती	-11.5838
▁मिटाएँ	-11.5839
▁पड़ोसियों	-11.5841
ae	-11.5845
▁चोल	-11.5846
▁गोल्ड	-11.5848
▁दूरभाष	-11.5848
प्रवाह	-11.585
▁फंच	-11.5854
त्त्व	-11.5866
▁पीटर	-11.5879
▁बेजबरु	-11.5882
▁प्रकोष्ठ	-11.5882
▁उन्नीसवी	-11.5882
▁असुविधा	-11.5882
▁उभरते	-11.5883
▁सस्ती	-11.5883
▁सिक्के	-11.5884
▁खासतौ	-11.5885
▁ऑयल	-11.5886
ोत्सव	-11.5887
▁जन्मजात	-11.5888
फेस	-11.5891
फॉर्म	-11.5899
फोड़	-11.5911
▁प्रदाय	-11.5926
▁कॉपीराइट	-11.5933
▁साँचाः	-11.5933
▁उत्कीर्ण	-11.5933
▁उत्तराखंड	-11.5933
▁पुनर्निर्माण	-11.5933
म्फ	-11.594
▁लम्बाई	-11.5941
▁स्याय	-11.5943
निर्माण	-11.5946
▁आदर्शवाद	-11.5953
ावधान	-11.5957
▁छन्द	-11.5965
▁समझौत	-11.5966
▁लिहाज	-11.5975
▁परिवीक्षाधीन	-11.5983
▁अभिभावक	-11.5984
ोत्पाद	-11.5984
▁बुनियाद	-11.5986
▁जाग्रत	-11.5987
▁पेशाब	-11.5989
▁रीढ़	-11.599
▁राजेन्द्र	-11.5991
व्रण	-11.5991
▁तटस्थ	-11.5994
निर्दिष्ट	-11.6
▁असीमित	-11.6003
अनु	-11.6006
RA	-11.6021
▁बहिर्	-11.6022
▁ब्राह्म	-11.6026
▁छानबीन	-11.6034
▁देवेन्द्रनाथ	-11.6034
▁वैचारिक	-11.6034
▁अंतर्वलित	-11.6034
▁माइनस	-11.6034
▁पठार	-11.6035
▁प्रतिभाशाली	-11.6036
▁बछड़	-11.6036
▁एकरूपता	-11.6037
▁उकसा	-11.6041
▁आनन्दमय	-11.6044
▁मनोहर	-11.6045
▁सिद्व	-11.6045
▁कर्मकार	-11.605
▁पड़ेगी	-11.6053
प्रतिशत	-11.6058
▁घाना	-11.6065
mm	-11.6067
▁आवेश	-11.6071
व्यू	-11.6074
▁माध्यस्थम	-11.6076
▁अधिनिर्णी	-11.6086
▁एहसास	-11.6086
▁रिपब्लिक	-11.6086
▁न्यायसंगत	-11.6086
▁बस्तियों	-11.6086
▁रूपांतरित	-11.6086
▁जोधपुर	-11.6086
▁रिटर्न	-11.6088
▁जूझ	-11.6089
▁साइंस	-11.6091
▁जूरी	-11.61
फार्म	-11.61
▁Ch	-11.61
▁बहाव	-11.6101
▁प्रत्याशा	-11.6102
भ्रम	-11.6112
▁थोप	-11.6113
▁पिछड़	-11.6118
▁घोल	-11.6121
▁अनुषंगी	-11.6137
▁लाइब्रेरी	-11.6137
▁सुप्रसिद्ध	-11.6137
▁विषाक्त	-11.6137
▁सिन्धु	-11.6137
▁ब्राजील	-11.6137
▁कवच	-11.6138
▁gui	-11.6141
▁सिक्का	-11.6141
▁उग्रवादी	-11.6142
▁for	-11.6142
▁दूरदर्शन	-11.6144
▁फ़ोटो	-11.6145
ध्वनि	-11.6155
▁कपूर	-11.6159
eg	-11.6162
▁छिपे	-11.6164
▁बिछा	-11.6177
▁बकरिय	-11.6181
▁डिबेंचर	-11.6189
▁आनुपातिक	-11.6189
▁लेबनान	-11.6189
▁नर्सिंग	-11.6189
▁मार्टिन	-11.619
▁दीर्घावधि	-11.619
▁प्रणालियां	-11.6191
▁मंगोल	-11.6192
▁बहू	-11.6192
▁सन्देह	-11.6193
▁परिचालित	-11.6193
▁सुशासन	-11.6193
▁सामंत	-11.6196
▁गड्ढ	-11.6198
▁आफिस	-11.6198
▁देखिये	-11.6199
▁कैम्प	-11.6199
▁सम्यक	-11.6204
▁आएगी	-11.6216
▁भूरे	-11.6223
▁आँकड़ा	-11.6241
▁गुवाहाटी	-11.6241
▁तत्संबंधी	-11.6241
▁सिगरेट	-11.6241
▁कार्यकारिणी	-11.6241
▁स्ट्रीट	-11.6241
▁कमज़ोर	-11.6241
▁चार्ल्स	-11.6241
▁संवेदी	-11.6241
▁शारदा	-11.6241
▁वृहद	-11.6246
आरसी	-11.625
▁डायरी	-11.626
▁असहाय	-11.6267
▁माय	-11.6289
▁कार्यप्रणाली	-11.6293
▁बुद्धिमत्ता	-11.6293
▁कीमियागर	-11.6294
▁हल्की	-11.6294
▁सामग्रिय	-11.6294
▁हाइड्रोजन	-11.6295
▁प्यास	-11.6295
▁चीख	-11.6297
▁ऐक्ट	-11.631
▁मंज	-11.6313
▁हृद	-11.6316
▁पुनरीक्ष	-11.6341
▁मृदु	-11.6343
▁सिपाही	-11.6346
▁आवंटित	-11.6346
▁धब्बे	-11.6346
▁रजिस्ट	-11.6353
▁उदारीकरण	-11.6356
▁वर्तनी	-11.6356
▁कच्छ	-11.6362
▁गणितीय	-11.6369
फ्यू	-11.6379
▁प्रतिभागियो	-11.6391
▁अनदेखी	-11.6399
▁बुजुर्ग	-11.6399
▁पन्द्रह	-11.6399
▁फिलहाल	-11.6399
▁साउथ	-11.6399
▁संबोधन	-11.6399
▁फोकस	-11.6399
▁सोपान	-11.6399
▁अर्हता	-11.6399
▁खयाल	-11.64
▁नर्तक	-11.6401
भ्रंश	-11.6401
▁छुप	-11.6403
▁तख्त	-11.6404
▁खोखल	-11.6405
▁थैली	-11.6405
िनद्	-11.6408
▁इकट्ठ	-11.6421
▁डबल	-11.6424
▁चीफ	-11.6426
▁यूएस	-11.6439
एमसी	-11.6448
IT	-11.645
▁आदमियों	-11.6452
▁गठबंधन	-11.6452
▁डब्लू	-11.6452
▁तालिबान	-11.6452
▁पांडुलिपि	-11.6452
▁पुरोहित	-11.6452
▁शर्करा	-11.6452
▁निरूपण	-11.6452
▁अपलोड	-11.6452
▁गुरबख्श	-11.6452
▁पहुच	-11.6453
▁घोंसल	-11.6453
▁अलंकार	-11.6453
▁मीनार	-11.6454
रूद्ध	-11.6455
▁डाउन	-11.6455
ill	-11.646
▁बैग	-11.6467
▁मिलेंगे	-11.6476
▁यूरेनियम	-11.6506
▁संश्लेषण	-11.6506
▁सांविधानिक	-11.6506
▁सिलसिले	-11.6506
▁सिकंदर	-11.6506
▁पोशाक	-11.6506
▁संचलन	-11.6506
▁मनोरम	-11.6512
▁साझेदार	-11.6514
▁निकास	-11.6515
राशि	-11.6518
▁प्रत्यय	-11.6528
▁ख़रीद	-11.6541
▁गुदा	-11.6547
▁हिट	-11.6551
▁चुकौती	-11.6559
▁ट्रिब्यूनल	-11.6559
▁प्रतिस्पर्धी	-11.6559
▁विचलित	-11.6559
▁इशारा	-11.656
▁अनेकानेक	-11.656
स्फूर्त	-11.656
▁सब्जी	-11.656
▁एकाएक	-11.656
▁पीडित	-11.6561
▁चिपक	-11.6562
▁पोषित	-11.6563
▁मॉँ	-11.657
▁शहद	-11.6571
▁विपत्ति	-11.6571
कण्ठ	-11.6571
▁सेटिंग्स	-11.6576
▁शशि	-11.6577
▁उदासीन	-11.659
▁कार्यान्व	-11.6601
ib	-11.6612
▁एजेन्सी	-11.6614
▁वाराणसी	-11.6614
▁सुव्यवस्थित	-11.6614
▁सूत्रकृमि	-11.6614
▁उत्तीर्ण	-11.6614
▁परिपाटी	-11.6614
▁वायुसेना	-11.6614
▁द्रविड़	-11.6614
▁कुर्की	-11.6614
▁छठे	-11.6614
▁III	-11.6615
▁रोगाणु	-11.6619
▁पुर्न	-11.6634
▁प्रक्रमण	-11.664
▁सफर	-11.6642
▁सुधर	-11.6655
▁तत्पश्चात	-11.6659
डब्ल्यू	-11.6662
▁चालुक्य	-11.6668
▁महाभियोग	-11.6668
▁अवशिष्ट	-11.6668
▁मुनाफा	-11.6668
▁सहभागी	-11.6668
▁क्षुद्र	-11.6668
▁मोर्चे	-11.6668
▁खजाने	-11.6668
▁चुम्बक	-11.6668
▁बोनस	-11.6668
▁भगवती	-11.6669
▁त्रिकोण	-11.667
▁अनुपम	-11.667
▁छठी	-11.6674
बीआई	-11.6677
▁जनशक्ति	-11.6678
▁वार्ड	-11.668
▁मतदाताओं	-11.6688
▁सादे	-11.6689
▁कहेंगे	-11.669
युक्	-11.6691
▁नाटककार	-11.6697
▁लोहा	-11.6714
सीबी	-11.6719
▁कबील	-11.672
▁घुड़सवार	-11.6722
▁ज्येष्ठ	-11.6722
▁नैसर्गिक	-11.6722
▁संकुचित	-11.6722
▁भ्रामक	-11.6723
▁अंकुश	-11.6723
▁जागरण	-11.6726
▁बर्बर	-11.6729
▁निगाह	-11.6729
ting	-11.673
प्रसाद	-11.6735
▁इस्ते	-11.6743
कंटक	-11.6753
▁बंधे	-11.6765
मिक्स	-11.6768
▁अनदेखा	-11.6777
▁अनवरत	-11.6778
रज्जु	-11.6778
▁यत्न	-11.6778
▁नैगम	-11.6779
▁मनोमय	-11.6783
▁रेटिंग	-11.6784
▁अविलय	-11.6784
▁रक़्त	-11.6784
▁पतंग	-11.6807
▁बिछ	-11.6813
▁शिकायतकर्ता	-11.6815
▁दिखायें	-11.6819
▁नीड़	-11.6819
▁ब्यू	-11.6828
▁गंधर्व	-11.6833
▁समनुदेशन	-11.6833
▁समीक्षक	-11.6833
▁शिवाजी	-11.6833
▁मातृभाषा	-11.6833
▁धुंधल	-11.6833
▁अन्तरराष्ट्रीय	-11.6834
▁भूभाग	-11.6838
▁पर्याय	-11.684
लोचन	-11.6846
▁अंग्रेज़	-11.6851
फेर	-11.6857
▁मुर्गिय	-11.6866
ग्राह	-11.6868
▁विनिधानकर्ता	-11.6872
▁मोनो	-11.6878
▁विभक्त	-11.688
▁चुरा	-11.688
▁घटिया	-11.6885
▁वैश्व	-11.6887
▁अवक्षयण	-11.6888
▁आशीर्वाद	-11.6888
▁कारपोरेट	-11.6888
▁सराहनीय	-11.6888
▁नायडू	-11.6888
▁मलेशिया	-11.6888
▁सूरदास	-11.689
▁अभिनव	-11.689
▁आत्मकथा	-11.689
प्रेरित	-11.6892
▁प्रारुप	-11.6892
▁तेजाब	-11.6893
लब्ध	-11.6893
▁मज्जा	-11.6893
नियोजित	-11.6897
▁नवीकरणीय	-11.6898
▁उपनिवेशवाद	-11.6899
वैज्ञानिक	-11.69
▁पदधारी	-11.6901
▁झूल	-11.6903
▁विलीन	-11.6909
वाचक	-11.6911
गर्त	-11.6917
▁क्षार	-11.6922
▁हफ्त	-11.6926
▁ह्यू	-11.693
▁लतीफ	-11.693
ेटेड	-11.6941
▁दफ्तर	-11.6944
▁शुभारंभ	-11.6944
▁इंस्टॉल	-11.6944
▁खाण्डे	-11.6944
▁संचालक	-11.6944
▁अल्पावधि	-11.6945
▁निषिद्ध	-11.6946
▁कैट	-11.6949
▁स्केल	-11.6956
▁फाल	-11.6957
▁समवर्ती	-11.6963
▁भुजा	-11.6969
▁क़ुरआन	-11.7
▁सांकेतिक	-11.7
▁हथकरघा	-11.7
▁तात्विक	-11.7
▁विस्मय	-11.7
▁सेमिनार	-11.7001
छेदन	-11.7001
▁अपरिचित	-11.7001
▁कन्नड़	-11.7002
▁बदनाम	-11.7004
▁स्कंध	-11.7007
▁पूर्त	-11.7014
▁राशन	-11.7018
▁नाभि	-11.7019
▁हसन	-11.7034
▁खरीदार	-11.7038
मूर्तियों	-11.705
▁बृहत्	-11.7054
▁एचपीसीएल	-11.7057
▁काउंटर	-11.7057
▁स्थापत्य	-11.7057
▁जीवाश्म	-11.7057
▁सम्मिश्रण	-11.7057
▁हिटलर	-11.7058
▁वसंत	-11.7059
▁हलचल	-11.7061
▁ईमानदार	-11.7065
all	-11.7065
▁बनर्जी	-11.7068
▁चौंक	-11.7071
मिजाज	-11.7075
▁नाड़ी	-11.7084
टेक्स	-11.7098
▁एक्सप्रेस	-11.7114
▁महमूद	-11.7114
▁अव्यवस्था	-11.7114
▁रिचर्ड	-11.7114
▁फौरन	-11.7114
▁अवार्ड	-11.7114
▁व्यवधान	-11.7114
▁नायिका	-11.7115
▁मुस्करा	-11.7115
▁सौम्य	-11.7118
▁सम्पदा	-11.712
द्दाम	-11.7128
▁सूच	-11.7132
▁अशक्त	-11.7146
▁खुफिया	-11.7171
▁मिजोरम	-11.7171
▁अनगिनत	-11.7171
▁रक्तचाप	-11.7171
▁शौचालय	-11.7171
▁इण्डिया	-11.7171
▁उल्टा	-11.7171
▁व्यथित	-11.7171
▁उछाल	-11.7171
▁समज्ह	-11.7171
▁तदर्थ	-11.7172
▁बैकअप	-11.7172
▁पुनर्विचार	-11.7172
▁जहॉँ	-11.7172
▁सौदों	-11.7174
▁ex	-11.7174
िजनों	-11.7184
▁संतति	-11.7186
प्रसू	-11.7203
▁स्वै	-11.7218
▁बहुआयाम	-11.7228
▁बहुपक्षीय	-11.7228
▁हरिश्चन्द्र	-11.7228
▁अब्बास	-11.7228
▁निबटा	-11.7228
▁दोहरे	-11.7229
▁जुग	-11.7229
▁अल्पकालिक	-11.7231
▁सम्भवतः	-11.7234
▁धागे	-11.7237
aw	-11.7268
▁समेट	-11.7271
ies	-11.7272
age	-11.7274
▁साम्राज़्यवाद	-11.7276
▁प्रदूषित	-11.7286
▁गुम्बद	-11.7286
▁अस्थाई	-11.7286
▁प्रसूति	-11.7286
▁सतीश	-11.7286
▁स्पर्धा	-11.7287
▁बर्बाद	-11.7287
▁प्लगिन	-11.7289
▁वैभव	-11.729
भुत	-11.7291
▁पडेगा	-11.7291
▁चादर	-11.7294
▁पण्य	-11.7296
▁बन्धन	-11.7299
▁विवेकपूर्ण	-11.7301
दोष	-11.7308
सूचक	-11.7312
चेंज	-11.7328
▁प्रज्ञा	-11.7331
▁महिल	-11.7333
▁देशभक्त	-11.7334
▁राइट	-11.7344
▁निःसंदेह	-11.7344
▁पूर्वावलोकन	-11.7344
▁विनिर्माता	-11.7344
▁स्तुति	-11.7344
▁पौष्टिक	-11.7344
▁मुलायम	-11.7344
▁आरोहण	-11.7344
▁टेक्स्ट	-11.7344
▁तितली	-11.7344
▁शिलालेख	-11.7345
▁गर्भपात	-11.7346
▁मानदण्ड	-11.7347
▁टुकड	-11.7352
▁गोबर	-11.7358
वार्षिक	-11.7367
पीआर	-11.7382
▁पुर्ज	-11.7402
▁ग्रीनहाउस	-11.7403
▁चेन्नम्मा	-11.7403
▁विश्लेषक	-11.7403
▁शाब्दिक	-11.7403
▁भयावह	-11.7403
▁उमीद	-11.7403
▁मिसाल	-11.7403
▁सस्ते	-11.7403
▁प्रक्षेप	-11.7404
▁उर्जा	-11.7405
▁सर्दी	-11.7409
शंकाओं	-11.741
▁बंदूक	-11.7411
▁फ्रांसिस	-11.7416
▁ख़ास	-11.7423
▁अधिवास	-11.7429
▁डंड	-11.7429
▁नर्मदा	-11.7461
▁कारखानों	-11.7461
▁पुरातत्व	-11.7461
▁संप्रभु	-11.7461
▁अस्वस्थ	-11.7462
▁अयस्क	-11.7466
▁चूर्ण	-11.7466
▁प्रवर्तित	-11.7467
▁समांतर	-11.747
▁उर्वर	-11.7497
▁दुरूपयोग	-11.7521
▁यादृच्छिक	-11.7521
▁रिफाइनरी	-11.7521
▁वायसराय	-11.7521
▁श्रोणि	-11.7521
▁सियारामशरण	-11.7521
▁सेंट्रल	-11.7521
▁तारामंडल	-11.7521
▁पलायन	-11.7522
▁पतला	-11.7523
▁संवेदन	-11.7523
▁सर्जनात्मक	-11.7523
▁पशुधन	-11.7524
▁निम्नानुसार	-11.7525
रेंस	-11.7527
▁बत्ती	-11.7528
▁ज्योतिष	-11.7533
▁पूति	-11.7534
▁स्क्व	-11.7538
परीक्षित	-11.7541
स्फीति	-11.7579
▁अफगान	-11.758
▁आईएफसीआई	-11.758
▁उबुन्ट	-11.758
▁मसौदा	-11.758
▁विज्ञप्ति	-11.758
▁अनोखा	-11.758
▁मोर्चा	-11.758
▁परिधीय	-11.758
▁मनमाने	-11.7581
भाऊ	-11.7581
▁फोटोग्राफ	-11.7581
युकत	-11.7581
▁मेहराब	-11.7582
ाइजेशन	-11.7583
▁उदयपुर	-11.7584
▁कीर्तन	-11.7584
▁अहिंस	-11.7585
▁कैंप	-11.7586
▁प्रतिभावान	-11.7587
▁नॉर	-11.7587
▁खांसी	-11.7587
▁सुझाया	-11.7588
▁निन्दा	-11.7593
▁खिलफ	-11.7593
▁ब्लाक	-11.7608
tic	-11.7638
▁आच्छादित	-11.764
▁इक्विटी	-11.764
▁बहुसंख्यक	-11.764
▁वॉल्यूम	-11.764
▁अधीक्षक	-11.764
▁सिक्कों	-11.764
▁घोड़ों	-11.764
▁ग्रसनी	-11.764
▁इंटरफेस	-11.764
▁टनभार	-11.7643
▁जयदेव	-11.7644
▁प्लेयर	-11.7645
▁सूफी	-11.7645
▁सज्जा	-11.7647
▁अध्यात्म	-11.7672
▁फैसल	-11.7674
▁स्टॉ	-11.7683
▁फेडरल	-11.77
▁बायोगैस	-11.77
▁श्रोताओं	-11.77
▁पहाडिय	-11.77
▁शुक्रवार	-11.7702
▁हिस्सेदारी	-11.7703
यात्रा	-11.7704
▁सावधानीपूर्वक	-11.7705
▁दुगुन	-11.7706
▁पॉलि	-11.7708
रत्न	-11.7714
▁एक्सेस	-11.7715
▁ग्रीक	-11.7715
▁हताश	-11.7716
भक्षी	-11.7718
▁टिप्पणिय	-11.7719
▁उद्धार	-11.7746
▁ईर्ष्या	-11.7761
▁उत्पीड़न	-11.7761
▁चुनिंदा	-11.7761
▁त्रासदी	-11.7761
▁द्वेष	-11.7761
▁खलीफा	-11.7761
▁डेनमार्क	-11.7761
▁मृत्युदण्ड	-11.7761
▁सावरकर	-11.7761
▁सामयिक	-11.7761
▁खजाना	-11.7761
▁प्रखर	-11.7761
▁चटर्जी	-11.7761
▁व्हाइट	-11.7762
▁ग्राफिक्स	-11.7762
▁बंजर	-11.7762
▁रिव्यू	-11.7763
▁गंवा	-11.7766
ओगे	-11.7767
▁रेशे	-11.7769
▁ट्रेडिंग	-11.7771
चिह्न	-11.7801
▁अंतरराष्ट्री	-11.7815
▁रहस्यवाद	-11.7818
▁अभिकथित	-11.7822
▁असुरक्षित	-11.7822
▁आक्सीजन	-11.7822
▁उज्ज्वल	-11.7822
▁प्रशंसनीय	-11.7822
▁मजहब	-11.7822
▁वगैरह	-11.7822
▁अग्रेषित	-11.7822
▁अवयस्क	-11.7822
▁समीचीन	-11.7822
▁मद्देनज	-11.7822
▁बंकिम	-11.7822
▁जन्मदिन	-11.7822
▁अधूरा	-11.7822
▁खामोश	-11.7822
▁पत्तियां	-11.7822
▁शंख	-11.7822
▁प्रयाग	-11.7822
▁कावेरी	-11.7824
▁गुरुदेव	-11.7828
yaa	-11.7828
▁आखिरकार	-11.783
मस्तिष्क	-11.7865
▁उत्प्रेरक	-11.7883
▁उपजाऊ	-11.7883
▁ढाँचा	-11.7883
▁न्यूयॉर्क	-11.7883
▁वाल्मीकि	-11.7883
▁शाहजहाँ	-11.7883
▁ऑक्सीजन	-11.7883
▁लाभान्वित	-11.7883
▁उछल	-11.7884
▁पत्निय	-11.7884
▁उपधारणा	-11.7884
▁ख़त्म	-11.7885
▁पूर्वजों	-11.7887
▁इत्या	-11.7891
▁बेगम	-11.7897
पायर	-11.7908
▁पोलियो	-11.7914
द्वीप	-11.7926
▁END	-11.7945
▁ग्रामोद्योग	-11.7945
▁पैतृक	-11.7945
▁फायदों	-11.7945
▁सर्वसाधारण	-11.7945
▁जिलाधीश	-11.7945
▁संगमर्मर	-11.7945
▁निरक्षर	-11.7945
▁सर्जरी	-11.7945
▁अँधेर	-11.7945
▁शिमला	-11.7945
▁अनुशंसा	-11.7945
▁मलाशय	-11.7948
▁अभिवृद्धि	-11.7949
▁पारेषण	-11.795
एसटी	-11.7958
▁जकड़	-11.7967
▁अनुक्रिया	-11.8005
▁दृढ	-11.8005
▁आयुर्विज्ञान	-11.8007
▁न्यायात्रय	-11.8007
▁गुस्सा	-11.8007
▁गोविन्द	-11.8007
▁टिकाऊ	-11.8007
▁अलंकृत	-11.8007
▁प्रिंस	-11.8007
log	-11.8008
▁चंचल	-11.8008
▁परिकलित	-11.8009
▁स्कोर	-11.801
▁रविवार	-11.801
▁किनारा	-11.8013
▁पागलपन	-11.8019
▁झोंक	-11.8038
पाणि	-11.8045
शून्य	-11.8059
▁चाहूंगी	-11.807
▁जेरूसलम	-11.807
▁प्रबुद्ध	-11.807
▁मॉनिटर	-11.807
▁स्क्रॉल	-11.807
▁अनोखी	-11.807
▁सिन्हा	-11.807
▁केंद्रशास	-11.807
▁मुयमंत्र	-11.807
▁गर्भगृह	-11.807
▁ट्रान्स	-11.8072
▁महारानी	-11.8074
▁फिलिप	-11.8078
विवेक	-11.808
▁बिंब	-11.8081
▁प्रस्तु	-11.8109
पार्श्व	-11.8132
▁इंग़्लै	-11.8132
▁तपस्या	-11.8132
▁सम्पादन	-11.8132
▁The	-11.8132
▁बैंकनोट	-11.8133
▁चरितार्थ	-11.8133
▁नगण्य	-11.8133
▁शहीद	-11.8133
▁दूरबीन	-11.8133
▁दखल	-11.8133
▁जुलूस	-11.8134
▁स्वरयंत्र	-11.8134
▁बरबाद	-11.8135
▁पाठशाला	-11.8138
▁परिभान	-11.8138
▁रिलीज	-11.8152
▁सत्कार	-11.8174
est	-11.8193
▁अपवर्जित	-11.8196
▁जस्टिस	-11.8196
▁अलंकरण	-11.8196
▁मेन्यू	-11.8196
▁अजमेर	-11.8197
able	-11.8197
▁माइकल	-11.8198
▁विनिश्चित	-11.8199
▁संशय	-11.82
▁pro	-11.82
▁प्रोसेसिंग	-11.82
▁उष्ण	-11.8202
▁आसाम	-11.8223
▁ब्राउज़	-11.823
▁चाइल्ड	-11.8259
▁फेडरेशन	-11.8259
▁मनपसंद	-11.8259
▁सल्फर	-11.8259
▁जन्तु	-11.8259
▁समेकन	-11.8259
▁असहयोग	-11.8261
कार्बनिक	-11.8261
▁बाईं	-11.8262
▁ख़ुद	-11.8263
▁फ़ॉर	-11.8268
ED	-11.8306
शब्द	-11.8323
▁उपमहाद्वीप	-11.8324
▁कॉर्पोरेट	-11.8324
▁तंबाकू	-11.8324
▁दृष्टिगोचर	-11.8324
▁धर्मनिरपेक्ष	-11.8324
▁प्रियव्रत	-11.8324
▁प्रोद्भूत	-11.8324
▁बुराइयों	-11.8324
▁मशहूर	-11.8324
▁शपथपत्र	-11.8326
▁वृषण	-11.8326
▁लज्जा	-11.8327
▁प्रास्थिति	-11.8327
▁ब्लॉग	-11.8328
▁गोलाकार	-11.8333
▁परामर्शदाता	-11.8357
ोलॉजी	-11.8387
▁ओडिशा	-11.8388
▁जिन्होने	-11.8388
▁मथुरा	-11.8388
▁स्थायित्व	-11.8388
▁गुस्से	-11.8388
▁असफ़ल	-11.8388
▁विलुप्त	-11.8388
▁ढाका	-11.8389
▁मूत्राशय	-11.8389
▁कारखाना	-11.839
▁वैश्वीकरण	-11.8391
▁बृहत	-11.8392
▁बाजू	-11.8396
▁मास्को	-11.84
▁जिम्मेवार	-11.8408
▁स्ट्रे	-11.8409
दीप्ति	-11.8423
▁बृहद	-11.8453
▁बिजनेस	-11.8453
▁अराजकता	-11.8453
▁पालतू	-11.8453
▁बेहोश	-11.8453
▁उपादान	-11.8453
▁गद्दी	-11.8453
▁ध्वस्त	-11.8453
▁पैराग्राफ	-11.8454
▁महोत्सव	-11.8454
▁बंगलादेश	-11.8454
▁साइबर	-11.8456
▁पैलेस	-11.8456
▁बन्धक	-11.8458
▁घारा	-11.8462
▁प्रणाल	-11.8462
▁हारान	-11.8468
साहेब	-11.8491
रूपेण	-11.8491
▁अंधविश्वास	-11.8518
▁क़ुरान	-11.8518
▁मांसपेशी	-11.8518
▁डीवीडी	-11.8518
▁बुकमार्क	-11.8519
▁हेनरी	-11.8519
▁सूडान	-11.8519
▁कस्टम	-11.852
▁परिशिष्ट	-11.852
port	-11.8521
▁मनोविज्ञान	-11.8521
▁कर्सर	-11.8522
▁चालान	-11.8526
▁टोल	-11.8531
▁तौल	-11.8533
▁कूल्ह	-11.8538
न्वित	-11.8544
ath	-11.8548
ome	-11.8561
▁सकूं	-11.8564
▁अमानवीय	-11.8584
▁आधिपत्य	-11.8584
▁एनालॉग	-11.8584
▁चयापचय	-11.8584
▁पांडिच	-11.8584
▁न्यूजीलैंड	-11.8584
▁कंट्रोल	-11.8584
▁फाइबर	-11.8584
ऊँगा	-11.8588
▁मसीह	-11.8591
▁लिप्त	-11.8593
▁दलदल	-11.8593
वृक्ष	-11.8602
पुच्छ	-11.8606
▁भूतकाल	-11.861
▁शलभ	-11.8618
▁इस्तीफा	-11.865
▁कॉर्पोरेशन	-11.865
▁ज़िम्मेदार	-11.865
▁जॉर्डन	-11.865
▁बर्खास्त	-11.865
▁छिड़काव	-11.865
▁पक्षाघात	-11.865
▁वानिकी	-11.8651
▁विवाद्यक	-11.8651
▁दयालु	-11.8653
▁रेखाचित्र	-11.8653
▁चमड़े	-11.8654
सामान्य	-11.8654
▁पुनर्वित्त	-11.8655
स्पर्श	-11.8666
▁स्टार्ट	-11.8667
ज्जत	-11.8692
▁द्योतक	-11.8717
▁न्यायाधिकरण	-11.8717
▁संसाधित	-11.8717
▁सिलसिला	-11.8717
▁प्रकीर्ण	-11.8717
▁बैरिस्टर	-11.8717
▁निर्बाध	-11.8717
▁बतौर	-11.8717
▁अफवाह	-11.8717
▁भरोसे	-11.8717
▁प्रत्याशित	-11.8717
▁सिकुड़	-11.8717
▁अतिशय	-11.8718
▁तरक्की	-11.8718
▁मनोनीत	-11.8718
▁संग्रहीत	-11.8719
▁कारागार	-11.872
परायण	-11.8723
▁तीर्थयात्र	-11.8757
▁स्टीव	-11.8765
▁शीट	-11.8772
छिन्न	-11.8776
ोपाध्याय	-11.8784
▁उत्सर्जित	-11.8784
▁गोखले	-11.8784
▁सम्मिलन	-11.8784
▁अनुपयुक्त	-11.8784
▁परात्पर	-11.8784
▁धड़कन	-11.8784
▁पाण्डव	-11.8784
▁रबड़	-11.8784
▁खातिर	-11.8784
▁सहनशीलता	-11.8785
▁उद्यमशीलता	-11.8788
▁मातृत्व	-11.8788
▁ईराक	-11.879
▁परोपकार	-11.8798
▁दुविधा	-11.8803
▁अत्याधुनिक	-11.8852
▁अफसोस	-11.8852
▁इंग्लैण्ड	-11.8852
▁किंगडम	-11.8852
▁डेमोक्रेट	-11.8852
▁तम्बाकू	-11.8852
▁इरादे	-11.8852
▁अभिवचन	-11.8852
▁हकीकत	-11.8852
▁क्रान्ति	-11.8852
ug	-11.8852
▁फ्लैट	-11.8853
▁फ़्ल	-11.8855
▁हिचक	-11.8857
परिभाषित	-11.8873
दयाल	-11.8902
▁गवर्नमेंट	-11.892
▁कलकत्ते	-11.892
▁मेधावी	-11.892
▁क्रॉस	-11.892
▁प्रवक्ता	-11.892
▁मैनुअल	-11.892
▁पहेली	-11.892
▁बाधक	-11.892
▁भाजक	-11.892
▁पर्दे	-11.8926
▁चिट्ठी	-11.8988
▁दुर्योधन	-11.8988
▁दुर्व्यवहार	-11.8988
▁पाउडर	-11.8988
▁पिक्सेल	-11.8988
▁विवादास्पद	-11.8988
▁उपदर्शित	-11.8988
▁जबर्दस्त	-11.8988
▁पुजारी	-11.8988
▁कर्मकांड	-11.8988
ोपरांत	-11.8988
द्रष्टा	-11.8988
▁हवेली	-11.8988
▁क्षितिज	-11.8988
▁उन्माद	-11.8988
▁पसीना	-11.8988
▁मुजरा	-11.8988
▁स्टार्टअप	-11.8989
▁प्लेटफार्म	-11.8989
▁मुहावर	-11.8989
▁मार्शल	-11.8989
▁पेयजल	-11.8989
▁हितलाभ	-11.899
▁चूँक	-11.8991
▁एकमेव	-11.8994
शोष	-11.9048
जिसपर	-11.9055
▁अविश्वसनीय	-11.9057
▁ओड़िसा	-11.9057
▁कंप्यूटिंग	-11.9057
▁वेशभूषा	-11.9057
▁गणमान्य	-11.9057
▁हज़रत	-11.9057
▁जादुई	-11.9057
▁डायरेक्ट	-11.9057
▁गूंज	-11.9057
▁आयताकार	-11.9058
▁निश्चल	-11.9058
▁फॉन्ट	-11.9058
▁अन्तरात्मा	-11.9059
▁जहरील	-11.9059
▁ग्राह्य	-11.9059
▁परिसंपत्तियां	-11.9061
▁फैशन	-11.9069
▁विभूति	-11.9107
▁उद्देशिका	-11.9127
▁दशरथ	-11.9127
▁भर्त्सना	-11.9127
▁वर्चुअल	-11.9127
▁विध्वंस	-11.9127
▁हस्तांतरित	-11.9127
▁आमंत्रण	-11.9127
▁निराश्रित	-11.9127
▁बगीचे	-11.9127
▁इलैक्ट्रानिक	-11.9127
▁पार्वती	-11.9127
▁उखाड़	-11.9127
▁गन्ने	-11.9127
▁लालटेन	-11.9127
▁बूढ़ा	-11.9128
▁शंकराचार्य	-11.9128
निर्धारित	-11.9157
प्रतिस्पर्धात्मक	-11.9177
▁हाइड्रो	-11.9195
▁अभ्यावेदन	-11.9197
▁कैल्शियम	-11.9197
▁फ़िल्टर	-11.9197
▁महत्वाकांक्षी	-11.9197
▁मुमकिन	-11.9197
▁ईसाइयों	-11.9197
▁धरातल	-11.9197
▁चौबीस	-11.9197
▁फाइनल	-11.9197
▁प्रांगण	-11.9197
▁ओजोन	-11.9197
▁कालिदास	-11.9197
▁बक्से	-11.9197
link	-11.9197
▁बुनकर	-11.9197
▁चतुष्	-11.9197
▁जठर	-11.9197
▁ब्लेयर	-11.9198
▁जघन	-11.9199
“	-11.9232
▁रजिस्ट्री	-11.9265
▁इन्टरनेट	-11.9267
▁काउंटी	-11.9267
▁थोरियम	-11.9267
▁बेवकूफ	-11.9267
▁समसामयिक	-11.9267
▁हस्पताल	-11.9267
▁बलात्कार	-11.9267
▁शिकागो	-11.9267
▁संवीक्षा	-11.9267
▁मालदीव	-11.9267
▁बंधपत्र	-11.9267
▁स्टेडियम	-11.9268
▁तिलहन	-11.9269
▁सूत्रपात	-11.927
▁कागजात	-11.9273
▁सीढ़िय	-11.9275
▁परिकलन	-11.9292
ust	-11.9295
▁प्रशिक्षक	-11.9338
▁परिक्रमा	-11.9338
▁अभिशाप	-11.9338
▁फ़रीद	-11.9338
▁झटके	-11.9338
▁कड़ियाँ	-11.9338
▁सादगी	-11.9338
▁सरोकार	-11.9338
▁सीढ़ी	-11.9339
▁गेटवे	-11.9341
▁वेदान्त	-11.9342
▁रीडर	-11.9343
कल्चर	-11.9343
ace	-11.9348
लंघन	-11.9356
पयोगी	-11.9382
▁ऋणदाता	-11.9403
▁आक्रोश	-11.9409
▁गवर्नेंस	-11.9409
▁ढाँचे	-11.9409
▁मॉरिशस	-11.9409
▁हार्मोन	-11.9409
▁दरवाज़े	-11.9409
▁डिब्बे	-11.9409
▁साबुन	-11.9409
▁अडिग	-11.941
▁प्रकोप	-11.941
▁भीष्म	-11.941
▁अंतर्वस्तु	-11.941
▁चौहान	-11.9411
▁टाउन	-11.9411
डऋए	-11.9449
▁यौवन	-11.9481
▁विक्टोरिया	-11.9481
▁सब्जियां	-11.9481
▁क्षोभ	-11.9481
▁नक्काशी	-11.9481
▁विसंगति	-11.9481
▁आईएसओ	-11.9481
▁गर्भधारण	-11.9482
▁मदिरा	-11.9482
▁स्वादिष्ट	-11.9482
▁तालीम	-11.9482
▁पशुपालन	-11.9483
▁विद्यापीठ	-11.9483
▁शरियत	-11.9483
▁समाशोधन	-11.9483
▁स्लाइड	-11.9483
▁मनीष	-11.9494
▁अंगुलि	-11.951
▁नवयुवक	-11.9554
▁निःस्वार्थ	-11.9554
▁सल्तनत	-11.9554
▁प्यूपा	-11.9554
▁मसालों	-11.9554
▁दीपावली	-11.9554
▁नदियाँ	-11.9554
▁विपुल	-11.9554
▁चन्दु	-11.9554
▁नरेन्द्र	-11.9557
▁भतीज	-11.9561
मिज़ाज	-11.9571
▁इंजेक्शन	-11.9627
▁उत्खनन	-11.9627
▁बीकानेर	-11.9627
▁मधुमक्खी	-11.9627
▁आवागमन	-11.9627
▁डिब्बा	-11.9627
▁निरहता	-11.9627
▁लन्दन	-11.9627
ईजीपी	-11.9627
▁विखंडन	-11.9627
▁बिगाड़	-11.9627
▁नेहरु	-11.9627
▁अंगूठ	-11.9627
▁ऐंठन	-11.9628
▁नौवहन	-11.9628
▁लैटिन	-11.9628
▁अनंतिम	-11.9629
▁हैल्थ	-11.9629
ग्रन्थ	-11.9647
ानुभूति	-11.9699
▁इंसुलिन	-11.97
▁द्रौपदी	-11.97
▁संवितरण	-11.97
▁अनूदित	-11.97
▁परिकल्पित	-11.97
▁निलंबन	-11.97
▁अजनबी	-11.97
▁बॉम्बे	-11.97
▁पुतली	-11.97
▁मेहमान	-11.97
▁उपायुक्त	-11.97
▁ख़राब	-11.9701
▁प्रतियोगी	-11.9701
▁नालंदा	-11.9701
▁कीजिये	-11.9701
▁आज्ञापक	-11.9703
▁मनोवृत्ति	-11.9703
▁अर्हक	-11.9722
विधाओं	-11.9725
▁ऑप्टिकल	-11.9774
▁क़ानून	-11.9774
▁देहरादून	-11.9774
▁संस्मरण	-11.9774
▁फ़रवरी	-11.9774
▁हुक्म	-11.9774
▁पायलट	-11.9774
▁मक़्ख	-11.9774
▁संबन्धी	-11.9774
▁रमेश	-11.9775
▁मोतीलाल	-11.9775
▁शौर्य	-11.9775
▁क्षत्रिय	-11.9775
▁वज़न	-11.9776
▁रूढि	-11.9777
▁निर्धारक	-11.9796
बन्दी	-11.9832
डऋई	-11.9835
▁असंतुलन	-11.9849
▁कैलेंडर	-11.9849
▁नैदानिक	-11.9849
▁पुनर्जागरण	-11.9849
▁रूकावट	-11.9849
▁सेंटीमीटर	-11.9849
▁खुजली	-11.9849
▁प्रच्छन्न	-11.9849
▁अय्यर	-11.9849
▁थोडी	-11.9849
संतृप्त	-11.9849
▁कांस्य	-11.9852
▁आईपीसी	-11.987
दंश	-11.9872
▁ठिकान	-11.9872
▁कमोडिटी	-11.9924
▁गोदावरी	-11.9924
▁तादात्म्य	-11.9924
▁राजकोषीय	-11.9924
▁सज्जित	-11.9924
▁फेफड़े	-11.9924
▁बीबीसी	-11.9924
▁संगमरमर	-11.9924
▁पुथल	-11.9924
▁नब्बे	-11.9924
▁दण्डादेश	-11.9925
▁द्वास	-11.9925
▁अनभिज्ञ	-12
▁निरंकुश	-12
▁यथोचित	-12
▁key	-12
▁स्टांप	-12
स्फुट	-12
▁उष्म	-12.0002
▁फँस	-12.0002
▁श्रृंगार	-12.0002
▁इलेक्ट्रॉ	-12.0075
▁आनुषंगिक	-12.0076
▁एजेंसियां	-12.0076
▁कॉरपोरेट	-12.0076
▁टैरिफ	-12.0076
▁मुस्कुरा	-12.0076
▁अंतरफलक	-12.0076
▁शिक्षार्थियों	-12.0076
▁पीढी	-12.0076
▁चक्रवात	-12.0077
▁नितांत	-12.0077
▁पुनर्जीवि	-12.0083
लहरी	-12.0088
▁स्वशास	-12.0118
▁जिम्मे	-12.0128
▁कन्नड	-12.0151
▁अन्तर्विष्ट	-12.0153
▁खिड़किय	-12.0153
▁पुरःस्थापित	-12.0153
▁प्रफुल्ल	-12.0153
▁प्राक्कलन	-12.0153
▁माइक्रोसॉफ्ट	-12.0153
▁कदाचित	-12.0153
▁सविनय	-12.0153
▁बारंबार	-12.0153
▁छद्म	-12.0153
▁तंबू	-12.0153
▁ज्वालामुखी	-12.0154
▁क्षयरोग	-12.0154
▁शरणार्थी	-12.0154
▁ख़ुश	-12.0154
▁सिंहासन	-12.0155
▁नेटाल	-12.0156
▁ईसवी	-12.0158
▁प्याज	-12.0161
▁उंगलिय	-12.0161
▁शकुन	-12.0162
▁प्रेत	-12.0167
out	-12.017
बीजाणु	-12.0222
▁परहेज	-12.0227
▁सुपुर्द	-12.0228
▁अभिनंदन	-12.0231
▁ऋग्वेद	-12.0231
▁कुक्कुट	-12.0231
▁डेवलपमेंट	-12.0231
▁थॉमस	-12.0231
▁मूंगफली	-12.0231
▁उत्तेजक	-12.0231
▁कुलाध्यक्ष	-12.0231
▁मुग़ल	-12.0231
▁स्टाम्प	-12.0231
▁कुवैत	-12.0231
▁नफरत	-12.0231
जिह्वा	-12.0231
▁वज्र	-12.0232
▁एप्पल	-12.0235
▁श्रृंग	-12.0307
पुराण	-12.0308
बख्श	-12.0309
▁आगंतुक	-12.0309
▁मुट्ठी	-12.0309
▁सॉल्वैंट	-12.0309
▁मीयादी	-12.0309
▁मिठाई	-12.0309
▁मसाले	-12.0309
▁अस्सी	-12.0309
▁जोसेफ	-12.0313
▁संकलक	-12.0332
गंगाधर	-12.0387
▁अंकगणितीय	-12.0388
▁अथारिटी	-12.0388
▁एडवोकेट	-12.0388
▁औरंगज़ेब	-12.0388
▁चिरस्थायी	-12.0388
▁टेक्नोलॉजी	-12.0388
▁बहरहाल	-12.0388
▁यूट्यूब	-12.0388
▁सिपाहिय	-12.0388
▁नक्शे	-12.0388
▁बरकरार	-12.0388
▁मह्त्व	-12.0388
▁डाँट	-12.0388
▁उत्परिवर्त	-12.0388
▁हिचकिचा	-12.0388
▁धकेल	-12.0389
डब्यू	-12.0389
▁परिपाटिय	-12.039
▁तारीफ	-12.0401
▁ऑंकड	-12.0425
▁अन्तर्निहित	-12.0467
▁अव्यवस्थित	-12.0467
▁सप्लाई	-12.0467
▁दुष्प्रभाव	-12.0467
▁प्रशासित	-12.0467
▁शनिवार	-12.0467
▁लम्बित	-12.0467
▁लड़कियां	-12.0467
▁स्वातंत्र्य	-12.0467
▁धारावाहिक	-12.0467
▁कोलंबिया	-12.0468
▁पठान	-12.0468
▁तब्दील	-12.0468
▁सहस्र	-12.0468
▁पूरब	-12.0476
ाश्रय	-12.048
▁विराट	-12.0538
▁असंतुष्ट	-12.0547
▁आत्मघाती	-12.0547
▁उपसर्ग	-12.0547
▁धूसर	-12.0547
▁शंकु	-12.0547
▁अध्यपेक्ष	-12.0548
▁रेखांकन	-12.0548
▁कतई	-12.0549
बिंदु	-12.0563
▁रवीन्द्र	-12.0626
▁असंगठित	-12.0628
▁कारपोरेशन	-12.0628
▁गठबन्धन	-12.0628
_	-16.4156
[	-16.4157
]	-16.4158
<	-16.4159
!	-16.416
#	-16.4161
&	-16.4162
"	-16.4163
>	-16.4164
%	-16.4165
?	-16.4166
:	-16.4167
'	-16.4168
(	-16.4169
)	-16.417
-	-16.4171
.	-16.4172
,	-16.4173
/	-16.4174
।	-16.4174
